{
  "version": "1.0",
  "truncation": null,
  "padding": null,
  "added_tokens": [
    {
      "id": 0,
      "content": "[UNK]",
      "single_word": false,
      "lstrip": false,
      "rstrip": false,
      "normalized": false,
      "special": true
    }
  ],
  "normalizer": null,
  "pre_tokenizer": {
    "type": "Sequence",
    "pretokenizers": [
      {
        "type": "Digits",
        "individual_digits": false
      },
      {
        "type": "ByteLevel",
        "add_prefix_space": false,
        "trim_offsets": true,
        "use_regex": true
      }
    ]
  },
  "post_processor": null,
  "decoder": null,
  "model": {
    "type": "BPE",
    "dropout": null,
    "unk_token": "[UNK]",
    "continuing_subword_prefix": null,
    "end_of_word_suffix": null,
    "fuse_unk": false,
    "byte_fallback": false,
    "vocab": {
      "[UNK]": 0,
      "!": 1,
      "\"": 2,
      "#": 3,
      "$": 4,
      "%": 5,
      "&": 6,
      "'": 7,
      "(": 8,
      ")": 9,
      "*": 10,
      "+": 11,
      ",": 12,
      "-": 13,
      ".": 14,
      "/": 15,
      "0": 16,
      "1": 17,
      "2": 18,
      "3": 19,
      "4": 20,
      "5": 21,
      "6": 22,
      "7": 23,
      "8": 24,
      "9": 25,
      ":": 26,
      ";": 27,
      "<": 28,
      "=": 29,
      ">": 30,
      "?": 31,
      "@": 32,
      "A": 33,
      "B": 34,
      "C": 35,
      "D": 36,
      "E": 37,
      "F": 38,
      "G": 39,
      "H": 40,
      "I": 41,
      "J": 42,
      "K": 43,
      "L": 44,
      "M": 45,
      "N": 46,
      "O": 47,
      "P": 48,
      "Q": 49,
      "R": 50,
      "S": 51,
      "T": 52,
      "U": 53,
      "V": 54,
      "W": 55,
      "X": 56,
      "Y": 57,
      "Z": 58,
      "[": 59,
      "\\": 60,
      "]": 61,
      "^": 62,
      "_": 63,
      "`": 64,
      "a": 65,
      "b": 66,
      "c": 67,
      "d": 68,
      "e": 69,
      "f": 70,
      "g": 71,
      "h": 72,
      "i": 73,
      "j": 74,
      "k": 75,
      "l": 76,
      "m": 77,
      "n": 78,
      "o": 79,
      "p": 80,
      "q": 81,
      "r": 82,
      "s": 83,
      "t": 84,
      "u": 85,
      "v": 86,
      "w": 87,
      "x": 88,
      "y": 89,
      "z": 90,
      "{": 91,
      "|": 92,
      "}": 93,
      "~": 94,
      "¡": 95,
      "¢": 96,
      "£": 97,
      "¤": 98,
      "¥": 99,
      "¦": 100,
      "§": 101,
      "¨": 102,
      "©": 103,
      "ª": 104,
      "«": 105,
      "¬": 106,
      "®": 107,
      "¯": 108,
      "°": 109,
      "±": 110,
      "²": 111,
      "³": 112,
      "´": 113,
      "µ": 114,
      "¶": 115,
      "·": 116,
      "¸": 117,
      "¹": 118,
      "º": 119,
      "»": 120,
      "¼": 121,
      "½": 122,
      "¾": 123,
      "¿": 124,
      "Â": 125,
      "Ã": 126,
      "Ä": 127,
      "Å": 128,
      "Æ": 129,
      "Ç": 130,
      "È": 131,
      "É": 132,
      "Ê": 133,
      "Ë": 134,
      "Ì": 135,
      "Í": 136,
      "Î": 137,
      "Ï": 138,
      "Ð": 139,
      "Ñ": 140,
      "Ò": 141,
      "Ó": 142,
      "Ô": 143,
      "Õ": 144,
      "Ö": 145,
      "×": 146,
      "Ø": 147,
      "Ù": 148,
      "Ú": 149,
      "Û": 150,
      "Ü": 151,
      "Ý": 152,
      "Þ": 153,
      "ß": 154,
      "à": 155,
      "á": 156,
      "â": 157,
      "ã": 158,
      "ä": 159,
      "å": 160,
      "æ": 161,
      "ç": 162,
      "è": 163,
      "é": 164,
      "ê": 165,
      "ë": 166,
      "ì": 167,
      "í": 168,
      "î": 169,
      "ï": 170,
      "ð": 171,
      "ò": 172,
      "ó": 173,
      "ô": 174,
      "Ā": 175,
      "ā": 176,
      "Ă": 177,
      "ă": 178,
      "Ą": 179,
      "ą": 180,
      "Ć": 181,
      "ć": 182,
      "Ĉ": 183,
      "ĉ": 184,
      "Ċ": 185,
      "ċ": 186,
      "Č": 187,
      "č": 188,
      "Ď": 189,
      "ď": 190,
      "Đ": 191,
      "đ": 192,
      "Ē": 193,
      "ē": 194,
      "Ĕ": 195,
      "ĕ": 196,
      "Ė": 197,
      "ė": 198,
      "Ę": 199,
      "ę": 200,
      "Ě": 201,
      "ě": 202,
      "Ĝ": 203,
      "ĝ": 204,
      "Ğ": 205,
      "ğ": 206,
      "Ġ": 207,
      "ġ": 208,
      "Ģ": 209,
      "ģ": 210,
      "Ĥ": 211,
      "ĥ": 212,
      "Ħ": 213,
      "ħ": 214,
      "Ĩ": 215,
      "ĩ": 216,
      "Ī": 217,
      "ī": 218,
      "Ĭ": 219,
      "ĭ": 220,
      "Į": 221,
      "į": 222,
      "İ": 223,
      "ı": 224,
      "Ĳ": 225,
      "ĳ": 226,
      "Ĵ": 227,
      "ĵ": 228,
      "Ķ": 229,
      "ķ": 230,
      "ĸ": 231,
      "Ĺ": 232,
      "ĺ": 233,
      "Ļ": 234,
      "ļ": 235,
      "Ľ": 236,
      "ľ": 237,
      "Ŀ": 238,
      "ŀ": 239,
      "Ł": 240,
      "ł": 241,
      "Ń": 242,
      "ĠĠ": 243,
      "ĠĠĠĠ": 244,
      "in": 245,
      "th": 246,
      "on": 247,
      "er": 248,
      "re": 249,
      "Ġa": 250,
      "ti": 251,
      "Ġth": 252,
      "en": 253,
      "ĠĠĠ": 254,
      "or": 255,
      "ĠĠĠĠĠĠĠĠ": 256,
      "al": 257,
      "te": 258,
      "Ġs": 259,
      "Ġthe": 260,
      "le": 261,
      "Ġc": 262,
      "is": 263,
      "ar": 264,
      "tion": 265,
      "an": 266,
      "es": 267,
      "Ġo": 268,
      "Ġf": 269,
      "Ġ\\": 270,
      "ro": 271,
      "de": 272,
      "Ġt": 273,
      "Ġp": 274,
      "ing": 275,
      "as": 276,
      "at": 277,
      "Ġ$": 278,
      "Ġw": 279,
      "et": 280,
      "Ġb": 281,
      "Ġin": 282,
      "ic": 283,
      "ac": 284,
      "Ġof": 285,
      "am": 286,
      "nd": 287,
      "ĠĠĠĠĠĠĠ": 288,
      "ma": 289,
      "st": 290,
      "ed": 291,
      "el": 292,
      "ent": 293,
      "ig": 294,
      "it": 295,
      "ur": 296,
      "Ġ=": 297,
      "ec": 298,
      "Ġn": 299,
      "Ġre": 300,
      "Ġm": 301,
      "ation": 302,
      "Ġto": 303,
      "Ġd": 304,
      "om": 305,
      "ĉĉ": 306,
      "Ġ(": 307,
      "Ġand": 308,
      "</": 309,
      "Ġh": 310,
      "ol": 311,
      "{\\": 312,
      "ul": 313,
      "ate": 314,
      "tr": 315,
      "Ġe": 316,
      "=\"": 317,
      "lo": 318,
      ");": 319,
      "čĊ": 320,
      "id": 321,
      "il": 322,
      "us": 323,
      "un": 324,
      "--": 325,
      "qu": 326,
      "Ġis": 327,
      "ce": 328,
      "Ġ{": 329,
      "ab": 330,
      "Ġ<": 331,
      "im": 332,
      "if": 333,
      "ut": 334,
      "ge": 335,
      "um": 336,
      "Ġv": 337,
      "ĠT": 338,
      "ĠĠĠĠĠĠĠĠĠĠĠ": 339,
      "ad": 340,
      "ot": 341,
      "se": 342,
      "ch": 343,
      "_{": 344,
      "//": 345,
      "ve": 346,
      "si": 347,
      "Ġfor": 348,
      "ĠS": 349,
      "Ġ*": 350,
      "Ġg": 351,
      "he": 352,
      "ass": 353,
      "ra": 354,
      "end": 355,
      "Ġl": 356,
      "ht": 357,
      "ter": 358,
      "Ġcon": 359,
      "ver": 360,
      "ly": 361,
      "Ġ}": 362,
      "ri": 363,
      "Ġ$\\": 364,
      "ith": 365,
      "ĠC": 366,
      "ame": 367,
      "\">": 368,
      "sp": 369,
      "ub": 370,
      "Ġ&": 371,
      "ĠA": 372,
      "ta": 373,
      "xt": 374,
      "math": 375,
      "ode": 376,
      "lass": 377,
      "Ġon": 378,
      "pe": 379,
      "ĠĠĠĠĠĠĠĠĠĠĠĠĠĠĠĠ": 380,
      "ĠI": 381,
      "Ġthat": 382,
      "ow": 383,
      "eg": 384,
      "up": 385,
      "Ġde": 386,
      "ref": 387,
      "ue": 388,
      "ph": 389,
      "od": 390,
      "ap": 391,
      "ite": 392,
      "ĠĠĠĠĠ": 393,
      "cal": 394,
      "Ġbe": 395,
      "ine": 396,
      "res": 397,
      "ction": 398,
      "()": 399,
      "li": 400,
      "ir": 401,
      "Ġ\"": 402,
      "Ġas": 403,
      "}\\": 404,
      "ĠĊ": 405,
      "Ġpro": 406,
      "**": 407,
      "ew": 408,
      "^{": 409,
      "ts": 410,
      "}$": 411,
      "op": 412,
      "Ġwith": 413,
      "ight": 414,
      "and": 415,
      "Ġwh": 416,
      "ess": 417,
      "urn": 418,
      "ty": 419,
      "Ġan": 420,
      "ure": 421,
      "Ġal": 422,
      "ĠM": 423,
      "iv": 424,
      "age": 425,
      "ay": 426,
      "able": 427,
      "ment": 428,
      "00": 429,
      "our": 430,
      "ect": 431,
      "ĠP": 432,
      "..": 433,
      "Ġclass": 434,
      "ted": 435,
      "Ġthis": 436,
      "Ġex": 437,
      "Ġwe": 438,
      "per": 439,
      "ct": 440,
      "==": 441,
      "ore": 442,
      "ĠF": 443,
      "omp": 444,
      "----": 445,
      "tic": 446,
      "turn": 447,
      "In": 448,
      "ere": 449,
      "Ġif": 450,
      "ist": 451,
      "Ġst": 452,
      "ity": 453,
      "}}": 454,
      "Ġby": 455,
      "rac": 456,
      "rom": 457,
      "(\\": 458,
      "ort": 459,
      "ĠR": 460,
      "Ġ'": 461,
      "pl": 462,
      "con": 463,
      "em": 464,
      "ĠB": 465,
      "ĠD": 466,
      "text": 467,
      "und": 468,
      "iz": 469,
      "Ġare": 470,
      "egin": 471,
      "get": 472,
      "oc": 473,
      "ĠL": 474,
      "ers": 475,
      "pro": 476,
      "Ġor": 477,
      "Ġ-": 478,
      "equ": 479,
      "ĠĠĠĠĠĠĠĠĠĠĠĠĠĠĠ": 480,
      "tim": 481,
      "begin": 482,
      "int": 483,
      "ĠN": 484,
      "est": 485,
      "ack": 486,
      "ile": 487,
      "ke": 488,
      "ata": 489,
      "Ġr": 490,
      "sion": 491,
      "for": 492,
      "Ġus": 493,
      "par": 494,
      "ĠThe": 495,
      "ĠH": 496,
      "Ġit": 497,
      "ĠE": 498,
      "av": 499,
      "ase": 500,
      "to": 501,
      ")$": 502,
      "âĢ": 503,
      "_{\\": 504,
      "20": 505,
      "ype": 506,
      "ag": 507,
      "ff": 508,
      "eta": 509,
      "os": 510,
      "ĠW": 511,
      "Ġ+": 512,
      "alue": 513,
      "ft": 514,
      "ace": 515,
      "ans": 516,
      "unction": 517,
      "Ġat": 518,
      "Ġ//": 519,
      "ĠG": 520,
      "ser": 521,
      "imp": 522,
      "Ġma": 523,
      "all": 524,
      "}{": 525,
      "Ġ</": 526,
      "},": 527,
      "ign": 528,
      "str": 529,
      "lic": 530,
      "Ġreturn": 531,
      "abel": 532,
      "Ġfrom": 533,
      "fig": 534,
      "ĉĉĉĉ": 535,
      "Ġch": 536,
      "->": 537,
      "frac": 538,
      "bo": 539,
      "ang": 540,
      "ib": 541,
      "tring": 542,
      "tem": 543,
      "../": 544,
      "::": 545,
      ").": 546,
      "eq": 547,
      "),": 548,
      "ys": 549,
      "are": 550,
      "lu": 551,
      "low": 552,
      "ult": 553,
      "ps": 554,
      "Ġsh": 555,
      "cite": 556,
      "ource": 557,
      "ption": 558,
      "Ġ[": 559,
      "Con": 560,
      "right": 561,
      "ary": 562,
      "Ġtr": 563,
      "Ġy": 564,
      "loc": 565,
      "set": 566,
      "ind": 567,
      "ave": 568,
      "ĠO": 569,
      "ated": 570,
      "Ġpar": 571,
      "ber": 572,
      "og": 573,
      "Ġcan": 574,
      "left": 575,
      "tive": 576,
      "Ġ@": 577,
      "label": 578,
      "cri": 579,
      "ection": 580,
      "row": 581,
      "Ġcomp": 582,
      "ant": 583,
      "ence": 584,
      "ther": 585,
      "ject": 586,
      "ener": 587,
      "ill": 588,
      "ml": 589,
      "ord": 590,
      "Ġnot": 591,
      "pt": 592,
      "Ġsp": 593,
      "ich": 594,
      "(\"": 595,
      "mathb": 596,
      "ublic": 597,
      "cc": 598,
      "ire": 599,
      "();": 600,
      "\",": 601,
      "rm": 602,
      "Ġ/": 603,
      "tial": 604,
      "til": 605,
      "Ġi": 606,
      "les": 607,
      ",\\": 608,
      "Ġfunction": 609,
      "ug": 610,
      "div": 611,
      "essage": 612,
      "The": 613,
      "ations": 614,
      "$,": 615,
      "dd": 616,
      "ĠTh": 617,
      "$.": 618,
      "ex": 619,
      "ach": 620,
      "span": 621,
      "ray": 622,
      "elf": 623,
      "equation": 624,
      "Ġres": 625,
      "></": 626,
      "ell": 627,
      "oun": 628,
      "})": 629,
      "odel": 630,
      "sum": 631,
      "act": 632,
      "',": 633,
      "ull": 634,
      "line": 635,
      "Ġnew": 636,
      "ance": 637,
      "put": 638,
      "ho": 639,
      "mathcal": 640,
      "ĠIn": 641,
      "}.": 642,
      "eld": 643,
      "--------": 644,
      "Ġob": 645,
      "201": 646,
      "><": 647,
      "ial": 648,
      "Ġse": 649,
      "tain": 650,
      "Ġle": 651,
      "Ġme": 652,
      "Ġun": 653,
      "fer": 654,
      "ator": 655,
      "du": 656,
      "ies": 657,
      "ĠU": 658,
      "ield": 659,
      "St": 660,
      "}(": 661,
      "fin": 662,
      "com": 663,
      "Ġhave": 664,
      "ork": 665,
      "ard": 666,
      "****": 667,
      "Ġ*/": 668,
      "../../": 669,
      "ide": 670,
      "Ġj": 671,
      "Ġdis": 672,
      "ong": 673,
      "import": 674,
      "Ġlo": 675,
      "Ġap": 676,
      "Ġ:": 677,
      "10": 678,
      "ion": 679,
      "ror": 680,
      "form": 681,
      "Ġbo": 682,
      "po": 683,
      "Ġset": 684,
      "ast": 685,
      "Ġwhich": 686,
      "}^": 687,
      "ĉĉĉ": 688,
      "Ġ.": 689,
      "ice": 690,
      "====": 691,
      "))": 692,
      "}_": 693,
      "ath": 694,
      "name": 695,
      "ĠĠĠĠĠĠĠĠĠĠĠĠĠĠĠĠĠĠĠ": 696,
      "ory": 697,
      "ĠĠĠĠĠĠĠĠĠ": 698,
      "pha": 699,
      "amp": 700,
      "~\\": 701,
      "Ġco": 702,
      "time": 703,
      "html": 704,
      "vel": 705,
      "Ġk": 706,
      "tions": 707,
      "Ex": 708,
      "ip": 709,
      "Ġpo": 710,
      "ild": 711,
      "one": 712,
      "Ġhref": 713,
      "alpha": 714,
      "Ġvar": 715,
      "ou": 716,
      "ens": 717,
      "lement": 718,
      "Ġcom": 719,
      "('": 720,
      "ext": 721,
      "da": 722,
      "Pro": 723,
      "Ġar": 724,
      "var": 725,
      "uld": 726,
      "Ġname": 727,
      "Ġdo": 728,
      "ak": 729,
      "ll": 730,
      "dot": 731,
      "ous": 732,
      "nt": 733,
      "oid": 734,
      "ents": 735,
      "so": 736,
      "ĠV": 737,
      "out": 738,
      "clu": 739,
      "amb": 740,
      "this": 741,
      "iew": 742,
      "of": 743,
      "Ġpublic": 744,
      "source": 745,
      "ER": 746,
      "trib": 747,
      "ical": 748,
      "ize": 749,
      "enc": 750,
      "sub": 751,
      "lation": 752,
      "message": 753,
      "Ġall": 754,
      "ĠJ": 755,
      "ree": 756,
      ")\\": 757,
      "ok": 758,
      "Name": 759,
      "Ġ|": 760,
      "ust": 761,
      "umber": 762,
      "we": 763,
      "old": 764,
      "Ġ_": 765,
      "Ġhas": 766,
      "ute": 767,
      "Ġqu": 768,
      "Ġwas": 769,
      "own": 770,
      "ond": 771,
      "ambda": 772,
      "Th": 773,
      "ud": 774,
      "item": 775,
      "ss": 776,
      "test": 777,
      "Ġvalue": 778,
      "Type": 779,
      "$\\": 780,
      "ym": 781,
      "ystem": 782,
      "Ġtype": 783,
      "idth": 784,
      "dex": 785,
      "tit": 786,
      "ink": 787,
      "Ġdata": 788,
      "col": 789,
      "trans": 790,
      "param": 791,
      "over": 792,
      "thod": 793,
      "val": 794,
      "roup": 795,
      "ome": 796,
      "ON": 797,
      "art": 798,
      "âĢĻ": 799,
      "code": 800,
      "Ġget": 801,
      "amma": 802,
      "ob": 803,
      "Ġexp": 804,
      "sh": 805,
      "fo": 806,
      "orm": 807,
      "pend": 808,
      "Ġinter": 809,
      "Ġ#": 810,
      "Id": 811,
      "def": 812,
      "uch": 813,
      "Ġline": 814,
      "String": 815,
      "ef": 816,
      "cre": 817,
      "ual": 818,
      "ega": 819,
      "Ġwill": 820,
      "Ġconst": 821,
      "mu": 822,
      "td": 823,
      "IN": 824,
      "=\\": 825,
      "_\\": 826,
      "alse": 827,
      "Ġ=>": 828,
      "bar": 829,
      "atch": 830,
      "ded": 831,
      "19": 832,
      "ix": 833,
      "Ġstr": 834,
      "return": 835,
      "lock": 836,
      "yn": 837,
      "the": 838,
      "Ġint": 839,
      "vent": 840,
      "Ġ\\\\": 841,
      "ote": 842,
      "min": 843,
      "ress": 844,
      "ition": 845,
      "/>": 846,
      "##": 847,
      "Ġper": 848,
      "ble": 849,
      "times": 850,
      "igma": 851,
      "Ġone": 852,
      "ĠK": 853,
      "}^{": 854,
      "}_{": 855,
      "eng": 856,
      "irst": 857,
      "mathbb": 858,
      "la": 859,
      "ution": 860,
      "-\\": 861,
      "12": 862,
      "Ġout": 863,
      "cript": 864,
      "pi": 865,
      "raph": 866,
      "inal": 867,
      "Ġhe": 868,
      "ms": 869,
      "Ġmodel": 870,
      "type": 871,
      "^{\\": 872,
      "ates": 873,
      "\"/>": 874,
      "phi": 875,
      "Ġ`": 876,
      "ties": 877,
      "Ġ{\\": 878,
      "RE": 879,
      "Ġdef": 880,
      "ry": 881,
      "ost": 882,
      "wo": 883,
      "ark": 884,
      "arg": 885,
      "uct": 886,
      "ular": 887,
      "Ġcont": 888,
      "vice": 889,
      "Ġself": 890,
      "Ġx": 891,
      "Ġ!": 892,
      "ange": 893,
      "'s": 894,
      "ery": 895,
      "ount": 896,
      "Res": 897,
      "key": 898,
      "Ġne": 899,
      "bf": 900,
      "class": 901,
      "ST": 902,
      "Ġid": 903,
      "lambda": 904,
      "translation": 905,
      "section": 906,
      "ia": 907,
      "led": 908,
      "Ġpre": 909,
      "sition": 910,
      "ish": 911,
      "riv": 912,
      "Ġno": 913,
      "Ch": 914,
      "port": 915,
      "igh": 916,
      "Re": 917,
      "Ġup": 918,
      "ould": 919,
      "ollow": 920,
      "Ġcol": 921,
      "add": 922,
      "ain": 923,
      "://": 924,
      "tif": 925,
      "200": 926,
      "gr": 927,
      "pr": 928,
      "Ġ==": 929,
      "Ġpl": 930,
      "hat": 931,
      "List": 932,
      "Ġer": 933,
      "sc": 934,
      "ĠWe": 935,
      "align": 936,
      "__": 937,
      "array": 938,
      "clude": 939,
      "eck": 940,
      "ception": 941,
      "Ġel": 942,
      "ilon": 943,
      "Ġdif": 944,
      "AT": 945,
      "ues": 946,
      "Ġnull": 947,
      "Ġsub": 948,
      "psilon": 949,
      "Ġen": 950,
      "urre": 951,
      "Ġcase": 952,
      "cent": 953,
      "Ġro": 954,
      "tern": 955,
      "Ġtime": 956,
      "ime": 957,
      "mathbf": 958,
      "ault": 959,
      "wh": 960,
      "Ġso": 961,
      "Ġ>": 962,
      "width": 963,
      "mation": 964,
      "orre": 965,
      "app": 966,
      "amet": 967,
      "Ġsta": 968,
      "Ġfollow": 969,
      "ics": 970,
      "ĠThis": 971,
      "Ġ(\\": 972,
      "sigma": 973,
      "arch": 974,
      "tp": 975,
      "Ġval": 976,
      "We": 977,
      "ze": 978,
      "Ġrequ": 979,
      "Ġbut": 980,
      "Ġvoid": 981,
      "ule": 982,
      "Ġform": 983,
      "ĠĠĠĠĠĠĠĠĠĠĠĠĠĠĠĠĠĠĠĠĠĠĠĠĠĠĠĠĠĠĠĠ": 984,
      "ider": 985,
      "Ġtwo": 986,
      "Ġalso": 987,
      "Ġyou": 988,
      "Ġover": 989,
      "uild": 990,
      "beta": 991,
      "\"><": 992,
      "del": 993,
      "Ġgener": 994,
      "^{-": 995,
      "}{\\": 996,
      "Ġspec": 997,
      "ger": 998,
      "ann": 999,
      "angle": 1000,
      "ting": 1001,
      "Ġequ": 1002,
      "mo": 1003,
      "use": 1004,
      "cess": 1005,
      "To": 1006,
      "Ġthere": 1007,
      "Ġdes": 1008,
      "ength": 1009,
      "\\\\": 1010,
      "tilde": 1011,
      "Ġany": 1012,
      "ames": 1013,
      "Ġ)": 1014,
      "ava": 1015,
      "string": 1016,
      "OR": 1017,
      "plic": 1018,
      "pre": 1019,
      "Ġonly": 1020,
      "ton": 1021,
      "log": 1022,
      "En": 1023,
      "Ġadd": 1024,
      "work": 1025,
      "comp": 1026,
      "11": 1027,
      "ĠĠĠĠĠĠĠĠĠĠĠĠĠ": 1028,
      "LE": 1029,
      "Ġsup": 1030,
      "ne": 1031,
      "Ġour": 1032,
      "ĠĠĠĠĠĠ": 1033,
      "ader": 1034,
      "Ġop": 1035,
      "):": 1036,
      "Ġwhere": 1037,
      "Ġ--": 1038,
      "+\\": 1039,
      "Ġwhen": 1040,
      "ask": 1041,
      "der": 1042,
      "ugh": 1043,
      "16": 1044,
      "));": 1045,
      "Ġabo": 1046,
      "Ġmore": 1047,
      "Ġfalse": 1048,
      "tical": 1049,
      "location": 1050,
      "gamma": 1051,
      "Ġcons": 1052,
      "ĠâĢ": 1053,
      "Ġother": 1054,
      "ample": 1055,
      "ise": 1056,
      "io": 1057,
      "Ġtrue": 1058,
      "********": 1059,
      "ont": 1060,
      "co": 1061,
      "Ġsuch": 1062,
      "mathrm": 1063,
      "*}": 1064,
      "self": 1065,
      "ie": 1066,
      "AR": 1067,
      "----------------": 1068,
      "ors": 1069,
      "\");": 1070,
      "Ġacc": 1071,
      "urrent": 1072,
      "round": 1073,
      "uff": 1074,
      "data": 1075,
      "under": 1076,
      "theta": 1077,
      "Ob": 1078,
      "xi": 1079,
      "file": 1080,
      "Ar": 1081,
      "ID": 1082,
      "mage": 1083,
      "pres": 1084,
      "rho": 1085,
      "back": 1086,
      "Ġthen": 1087,
      "por": 1088,
      "delta": 1089,
      "Ġend": 1090,
      "box": 1091,
      "Ġreg": 1092,
      "title": 1093,
      "Ġbet": 1094,
      "^\\": 1095,
      "its": 1096,
      "ults": 1097,
      "ock": 1098,
      "ache": 1099,
      "perty": 1100,
      "Ġdiffer": 1101,
      "read": 1102,
      "De": 1103,
      "rivate": 1104,
      "Ġstring": 1105,
      "Ġgiv": 1106,
      "ash": 1107,
      ")}": 1108,
      "ension": 1109,
      "ument": 1110,
      "ĠĠĠĠĠĠĠĠĠĠĠĠĠĠĠĠĠĠĠĠĠĠĠ": 1111,
      "Value": 1112,
      "ature": 1113,
      "Ġad": 1114,
      "ility": 1115,
      "Ġsome": 1116,
      "SS": 1117,
      "figure": 1118,
      "Ġuse": 1119,
      "mp": 1120,
      "ved": 1121,
      "tau": 1122,
      "Ser": 1123,
      "]{": 1124,
      "EN": 1125,
      "Par": 1126,
      "Data": 1127,
      "new": 1128,
      "ven": 1129,
      "Ġph": 1130,
      "inf": 1131,
      "Ġshow": 1132,
      "AL": 1133,
      "Ġresp": 1134,
      "ces": 1135,
      "Ġfirst": 1136,
      "////": 1137,
      "value": 1138,
      "Ġcorre": 1139,
      "pp": 1140,
      "ied": 1141,
      "ole": 1142,
      "son": 1143,
      "Ġresult": 1144,
      "uth": 1145,
      "Ġmethod": 1146,
      "cted": 1147,
      "size": 1148,
      "Ġu": 1149,
      "Ġnumber": 1150,
      "Ġeach": 1151,
      "Ġfield": 1152,
      "ating": 1153,
      "arget": 1154,
      "dots": 1155,
      "ail": 1156,
      "big": 1157,
      "lect": 1158,
      "Ġver": 1159,
      "Ġelse": 1160,
      "leq": 1161,
      "date": 1162,
      "$-": 1163,
      "ric": 1164,
      "stance": 1165,
      "Col": 1166,
      "ati": 1167,
      "Ġthan": 1168,
      "cap": 1169,
      "Ġ/**": 1170,
      "ures": 1171,
      "Ġtrans": 1172,
      "Set": 1173,
      "Ġused": 1174,
      "me": 1175,
      "onse": 1176,
      "nb": 1177,
      "Ġtest": 1178,
      "}$,": 1179,
      "15": 1180,
      "}$.": 1181,
      "partial": 1182,
      "Ġsol": 1183,
      "Ġ&&": 1184,
      "========": 1185,
      "lient": 1186,
      "Ġser": 1187,
      "sec": 1188,
      "px": 1189,
      "sert": 1190,
      "ween": 1191,
      "rror": 1192,
      "umn": 1193,
      "')": 1194,
      "dis": 1195,
      "Ġusing": 1196,
      "}(\\": 1197,
      "tex": 1198,
      "org": 1199,
      "include": 1200,
      "nu": 1201,
      "\")": 1202,
      "main": 1203,
      "25": 1204,
      "als": 1205,
      "ian": 1206,
      "Ġwork": 1207,
      "dic": 1208,
      "];": 1209,
      "pm": 1210,
      "Ġtheir": 1211,
      "ince": 1212,
      "cont": 1213,
      "ulti": 1214,
      "rame": 1215,
      "ey": 1216,
      "mon": 1217,
      "ves": 1218,
      "mall": 1219,
      "Ġits": 1220,
      "Exception": 1221,
      "eqref": 1222,
      "32": 1223,
      "nbsp": 1224,
      "Ġstate": 1225,
      "ected": 1226,
      "ning": 1227,
      "($": 1228,
      "arrow": 1229,
      "no": 1230,
      "ax": 1231,
      "ific": 1232,
      "Comp": 1233,
      "ĠY": 1234,
      "play": 1235,
      "ound": 1236,
      "mod": 1237,
      "Ġman": 1238,
      "roid": 1239,
      "Del": 1240,
      "space": 1241,
      "Ġimp": 1242,
      "Ġsystem": 1243,
      "ater": 1244,
      "lection": 1245,
      "DE": 1246,
      "ced": 1247,
      "Ġstatic": 1248,
      "table": 1249,
      "Ġparamet": 1250,
      "omega": 1251,
      "face": 1252,
      "eqn": 1253,
      "Ġ///": 1254,
      "be": 1255,
      "Ġz": 1256,
      "infty": 1257,
      "ĠCh": 1258,
      "Ġdefin": 1259,
      "ose": 1260,
      "mary": 1261,
      "fore": 1262,
      "ization": 1263,
      "Ġinto": 1264,
      "ĠX": 1265,
      "Ġfile": 1266,
      "requ": 1267,
      "Ġnon": 1268,
      "13": 1269,
      "br": 1270,
      "mand": 1271,
      "Ġbetween": 1272,
      "Ġchar": 1273,
      "ized": 1274,
      "view": 1275,
      "ive": 1276,
      "For": 1277,
      "tribute": 1278,
      "Ġthese": 1279,
      "ĠĠĠĠĊ": 1280,
      "ges": 1281,
      "action": 1282,
      "Ġsim": 1283,
      "],": 1284,
      "SE": 1285,
      "14": 1286,
      "Ġmod": 1287,
      "Ġorg": 1288,
      "ased": 1289,
      "Ġ%": 1290,
      "Ġbeen": 1291,
      "rc": 1292,
      "fter": 1293,
      "raw": 1294,
      "ert": 1295,
      "Ġgiven": 1296,
      "Ġac": 1297,
      "ĠString": 1298,
      "CT": 1299,
      "ential": 1300,
      "Ġ!=": 1301,
      "lete": 1302,
      "Ġfinal": 1303,
      "Ġag": 1304,
      "ream": 1305,
      "().": 1306,
      "erm": 1307,
      "As": 1308,
      "cl": 1309,
      "|\\": 1310,
      "rite": 1311,
      "Ġvari": 1312,
      "atus": 1313,
      "ĠSt": 1314,
      "Ġthey": 1315,
      "ons": 1316,
      "ector": 1317,
      "atri": 1318,
      "18": 1319,
      "Ġhigh": 1320,
      "pos": 1321,
      "ars": 1322,
      "Error": 1323,
      "not": 1324,
      "gy": 1325,
      "Delta": 1326,
      "Tr": 1327,
      "Ġ$(": 1328,
      "rain": 1329,
      "Object": 1330,
      "bol": 1331,
      "Ġerror": 1332,
      "sf": 1333,
      "Ġunder": 1334,
      "rit": 1335,
      "Ġmay": 1336,
      "Ġoper": 1337,
      "Ġcal": 1338,
      "ĠQ": 1339,
      "ody": 1340,
      "atrix": 1341,
      "Ġcre": 1342,
      "quad": 1343,
      "function": 1344,
      "());": 1345,
      "IT": 1346,
      "Cont": 1347,
      "Ġeff": 1348,
      "irect": 1349,
      "100": 1350,
      "sq": 1351,
      "link": 1352,
      "Get": 1353,
      "script": 1354,
      "ĠFor": 1355,
      "Ġgo": 1356,
      "rt": 1357,
      "uc": 1358,
      "By": 1359,
      "ld": 1360,
      "Ġli": 1361,
      "lem": 1362,
      "ĉĉĉĉĉ": 1363,
      "top": 1364,
      "ments": 1365,
      "At": 1366,
      "ep": 1367,
      "...": 1368,
      "Ġext": 1369,
      "\\,": 1370,
      "ng": 1371,
      "Ġpres": 1372,
      "ick": 1373,
      "ptions": 1374,
      "order": 1375,
      "Ġte": 1376,
      "Ġappro": 1377,
      "Ġback": 1378,
      "aw": 1379,
      "vi": 1380,
      "ME": 1381,
      "ilter": 1382,
      "ww": 1383,
      "ative": 1384,
      "ĠĠĊ": 1385,
      "Un": 1386,
      "Ġorder": 1387,
      "Ġwere": 1388,
      "ier": 1389,
      "._": 1390,
      "Ġprivate": 1391,
      "ner": 1392,
      "ects": 1393,
      "ĠPro": 1394,
      "Ġsc": 1395,
      "des": 1396,
      "Ġbec": 1397,
      "roll": 1398,
      "let": 1399,
      "index": 1400,
      "sty": 1401,
      "center": 1402,
      "cale": 1403,
      "\"></": 1404,
      "ays": 1405,
      "Ġfe": 1406,
      "onent": 1407,
      "ymbol": 1408,
      "go": 1409,
      "Ġsame": 1410,
      "$$": 1411,
      "public": 1412,
      "graph": 1413,
      "View": 1414,
      "['": 1415,
      "cdot": 1416,
      "nav": 1417,
      "Class": 1418,
      "\";": 1419,
      "inter": 1420,
      "yp": 1421,
      "js": 1422,
      "formation": 1423,
      "AN": 1424,
      "};": 1425,
      "Ġprov": 1426,
      "File": 1427,
      "Test": 1428,
      "irc": 1429,
      "olog": 1430,
      "ever": 1431,
      "eqnarray": 1432,
      "Ġsign": 1433,
      "itial": 1434,
      "ally": 1435,
      "summary": 1436,
      ".</": 1437,
      "Ġpr": 1438,
      ")$.": 1439,
      "}}\\": 1440,
      "');": 1441,
      "ient": 1442,
      "orem": 1443,
      "CO": 1444,
      "rol": 1445,
      "url": 1446,
      "}[": 1447,
      "where": 1448,
      "psi": 1449,
      "tab": 1450,
      "cription": 1451,
      "Requ": 1452,
      "Ġresults": 1453,
      "group": 1454,
      "ĠIt": 1455,
      "Se": 1456,
      "arent": 1457,
      "http": 1458,
      "Ġshould": 1459,
      "Ġ||": 1460,
      "indow": 1461,
      "struct": 1462,
      "pace": 1463,
      "epsilon": 1464,
      "Ġfollowing": 1465,
      "Key": 1466,
      "']": 1467,
      "list": 1468,
      "olds": 1469,
      "umer": 1470,
      "ases": 1471,
      "uration": 1472,
      "const": 1473,
      "Ġobtain": 1474,
      "Ġmo": 1475,
      "Po": 1476,
      "(),": 1477,
      "Ġes": 1478,
      "Ġsec": 1479,
      "Ġdifferent": 1480,
      "Ġelement": 1481,
      "ĠIf": 1482,
      "ency": 1483,
      "âĢĿ": 1484,
      "tiv": 1485,
      "tps": 1486,
      "ets": 1487,
      "ake": 1488,
      "lay": 1489,
      "uffer": 1490,
      "sim": 1491,
      "Ġpartic": 1492,
      "met": 1493,
      "Ġarg": 1494,
      "gor": 1495,
      "Ġabout": 1496,
      "Ġsize": 1497,
      "UL": 1498,
      "red": 1499,
      "ler": 1500,
      "etwork": 1501,
      "air": 1502,
      "ause": 1503,
      "ĠAs": 1504,
      "!--": 1505,
      "path": 1506,
      "cm": 1507,
      "Ġmin": 1508,
      "Ġrel": 1509,
      "vers": 1510,
      "=\"../../": 1511,
      "State": 1512,
      "30": 1513,
      "load": 1514,
      "Ġconsider": 1515,
      "=\"+": 1516,
      "ired": 1517,
      "Ġobser": 1518,
      "Ph": 1519,
      "vol": 1520,
      "}_{\\": 1521,
      "Ġpol": 1522,
      "Ġfact": 1523,
      "Om": 1524,
      "tity": 1525,
      "lob": 1526,
      "17": 1527,
      "less": 1528,
      "Ġstruct": 1529,
      "Ġvalues": 1530,
      "ins": 1531,
      "rap": 1532,
      "uto": 1533,
      "ists": 1534,
      "ings": 1535,
      "Ġgroup": 1536,
      "ability": 1537,
      "wide": 1538,
      "Ġwould": 1539,
      "ackage": 1540,
      "].": 1541,
      "by": 1542,
      "Event": 1543,
      "':": 1544,
      "void": 1545,
      "sqrt": 1546,
      "Ġkey": 1547,
      "Omega": 1548,
      "Ġ/>": 1549,
      "ground": 1550,
      "Ġsee": 1551,
      "spond": 1552,
      "mit": 1553,
      "Ġcontain": 1554,
      "Ġab": 1555,
      "try": 1556,
      "64": 1557,
      "Time": 1558,
      "Ġrepres": 1559,
      "ĠRe": 1560,
      "^*": 1561,
      "ocument": 1562,
      "node": 1563,
      "Ġapp": 1564,
      "ember": 1565,
      "exp": 1566,
      "color": 1567,
      "Ġcond": 1568,
      ")$,": 1569,
      "RO": 1570,
      "Ġam": 1571,
      "lear": 1572,
      "Gamma": 1573,
      "50": 1574,
      "ense": 1575,
      "vely": 1576,
      "ĠCon": 1577,
      "Ġhis": 1578,
      "reak": 1579,
      "unc": 1580,
      "Ġlist": 1581,
      "Ġ${\\": 1582,
      "/*": 1583,
      "opy": 1584,
      "Ġprocess": 1585,
      "ager": 1586,
      "util": 1587,
      "ormal": 1588,
      "Ġ);": 1589,
      "ĠčĊ": 1590,
      "very": 1591,
      "arge": 1592,
      "lex": 1593,
      "fra": 1594,
      "ict": 1595,
      "An": 1596,
      "ĠFig": 1597,
      "quot": 1598,
      "Ġprodu": 1599,
      "max": 1600,
      "Ġkn": 1601,
      "ION": 1602,
      "mis": 1603,
      "Ġass": 1604,
      "map": 1605,
      "Ġanal": 1606,
      "reg": 1607,
      "field": 1608,
      "user": 1609,
      "Text": 1610,
      "Info": 1611,
      "bm": 1612,
      "PE": 1613,
      "``": 1614,
      "ision": 1615,
      "ished": 1616,
      "Ġcall": 1617,
      "\":": 1618,
      "Node": 1619,
      "ten": 1620,
      "Ġstud": 1621,
      "AC": 1622,
      "ational": 1623,
      "This": 1624,
      "ccess": 1625,
      "dt": 1626,
      "Ġobject": 1627,
      "model": 1628,
      "que": 1629,
      "Ġcurrent": 1630,
      "imension": 1631,
      "Ġdistrib": 1632,
      "man": 1633,
      "Ġclo": 1634,
      "24": 1635,
      "Ġpoint": 1636,
      "Ġ?": 1637,
      "length": 1638,
      "Sh": 1639,
      "amespace": 1640,
      "tyle": 1641,
      "tes": 1642,
      "Ġpos": 1643,
      "Element": 1644,
      "non": 1645,
      "Ġspace": 1646,
      "He": 1647,
      "olean": 1648,
      "Ġoff": 1649,
      "utton": 1650,
      "subsection": 1651,
      "vare": 1652,
      "caption": 1653,
      "ily": 1654,
      "Ġboth": 1655,
      "Ġim": 1656,
      "sing": 1657,
      "Ġtitle": 1658,
      "Ġlow": 1659,
      "Ġra": 1660,
      "TE": 1661,
      "^{(": 1662,
      "textbf": 1663,
      "/**": 1664,
      "Man": 1665,
      "varepsilon": 1666,
      "Com": 1667,
      "asure": 1668,
      "ward": 1669,
      "}=": 1670,
      "Ġdisc": 1671,
      "depend": 1672,
      "Ġhand": 1673,
      "Ġwell": 1674,
      "perties": 1675,
      "Index": 1676,
      "ines": 1677,
      "Path": 1678,
      "PI": 1679,
      "acter": 1680,
      "ĠEx": 1681,
      "Lo": 1682,
      "Ġyour": 1683,
      "Request": 1684,
      "22": 1685,
      "####": 1686,
      "Add": 1687,
      "())": 1688,
      "LA": 1689,
      "Ġ\\,": 1690,
      "\"\"": 1691,
      "ified": 1692,
      "}^{\\": 1693,
      "energy": 1694,
      "Ġdoes": 1695,
      "rangle": 1696,
      "Ġrec": 1697,
      "Item": 1698,
      "ride": 1699,
      "ogle": 1700,
      "Ġhow": 1701,
      "Context": 1702,
      "Ġtem": 1703,
      "Equ": 1704,
      "graphics": 1705,
      "ank": 1706,
      "med": 1707,
      "Map": 1708,
      "Ġbound": 1709,
      "see": 1710,
      "ĠUn": 1711,
      "lang": 1712,
      "imit": 1713,
      "ams": 1714,
      "rop": 1715,
      "Ġlocal": 1716,
      "Ġfind": 1717,
      "Ġperform": 1718,
      "sup": 1719,
      ")=": 1720,
      "sible": 1721,
      "33": 1722,
      "Ġinte": 1723,
      "Field": 1724,
      "TR": 1725,
      "Ġthrow": 1726,
      "ĠĠĠĠĠĠĠĠĠĠĠĠĠĠĠĠĠĠĠĠĠĠĠĠĠĠĠ": 1727,
      "word": 1728,
      "Ġed": 1729,
      "sed": 1730,
      "ely": 1731,
      "with": 1732,
      "mer": 1733,
      "config": 1734,
      "ush": 1735,
      "Ġlong": 1736,
      "rightarrow": 1737,
      "Ġwhile": 1738,
      "Ġimport": 1739,
      "Ġassert": 1740,
      "Ġjava": 1741,
      "Ġcorrespond": 1742,
      "ower": 1743,
      "Ġassum": 1744,
      "Ġmost": 1745,
      "ints": 1746,
      "https": 1747,
      "Config": 1748,
      "ero": 1749,
      "mb": 1750,
      "IC": 1751,
      "Qu": 1752,
      "block": 1753,
      "sk": 1754,
      "Ġmax": 1755,
      "ternal": 1756,
      "Bo": 1757,
      "ĠZ": 1758,
      "ared": 1759,
      "Ġ,": 1760,
      "Ġsur": 1761,
      "atter": 1762,
      "ify": 1763,
      "Service": 1764,
      "ality": 1765,
      "Ġneed": 1766,
      "Ġ:=": 1767,
      "true": 1768,
      "Ġproble": 1769,
      "Ġright": 1770,
      "Ġ-->": 1771,
      "includegraphics": 1772,
      "Ġsmall": 1773,
      "input": 1774,
      "style": 1775,
      "Ġlet": 1776,
      "Ġnode": 1777,
      "from": 1778,
      "gorith": 1779,
      "rough": 1780,
      "Ġ(!": 1781,
      "Ġ/*": 1782,
      "entif": 1783,
      "Ġrun": 1784,
      "Ġafter": 1785,
      ".,": 1786,
      "Ġinput": 1787,
      "ern": 1788,
      "';": 1789,
      "uilder": 1790,
      "error": 1791,
      "Code": 1792,
      "api": 1793,
      "ices": 1794,
      "ages": 1795,
      "next": 1796,
      "ster": 1797,
      "Al": 1798,
      "With": 1799,
      "bl": 1800,
      "plication": 1801,
      "Ġconn": 1802,
      "md": 1803,
      "oci": 1804,
      "ear": 1805,
      "ema": 1806,
      "Ġste": 1807,
      "ott": 1808,
      "UR": 1809,
      "On": 1810,
      "ference": 1811,
      "ilar": 1812,
      "defin": 1813,
      "Ġht": 1814,
      "Ġ});": 1815,
      "Ġtarget": 1816,
      "Ġlog": 1817,
      "Ġarray": 1818,
      "vec": 1819,
      "Ġmulti": 1820,
      "''": 1821,
      "Over": 1822,
      "Array": 1823,
      "cul": 1824,
      "odes": 1825,
      "Ġmass": 1826,
      "varphi": 1827,
      "Ġdec": 1828,
      "Ġent": 1829,
      "lec": 1830,
      "Ġnow": 1831,
      "ough": 1832,
      "ane": 1833,
      "ui": 1834,
      "'t": 1835,
      "ĠâĢľ": 1836,
      "ism": 1837,
      "mark": 1838,
      "apache": 1839,
      "****************": 1840,
      "Ġsing": 1841,
      "Ġread": 1842,
      "tively": 1843,
      "bin": 1844,
      "Ġdi": 1845,
      "oper": 1846,
      "Ġter": 1847,
      "Ġpath": 1848,
      "geq": 1849,
      "frak": 1850,
      ".~\\": 1851,
      "Form": 1852,
      "overline": 1853,
      "Ġgr": 1854,
      "ession": 1855,
      "af": 1856,
      "Ġdefined": 1857,
      "Ġsecond": 1858,
      "Ġdepend": 1859,
      "Ġ},": 1860,
      "ste": 1861,
      "emph": 1862,
      "version": 1863,
      "ĠDe": 1864,
      "40": 1865,
      "Ġpe": 1866,
      "Me": 1867,
      "Big": 1868,
      "////////": 1869,
      "++": 1870,
      "ync": 1871,
      "Ġtop": 1872,
      "icon": 1873,
      "position": 1874,
      "Ġden": 1875,
      "Ġevery": 1876,
      "[]": 1877,
      "bit": 1878,
      "Ġuser": 1879,
      "do": 1880,
      "Ġlike": 1881,
      "Ġdefault": 1882,
      ".}": 1883,
      "state": 1884,
      "Ġstart": 1885,
      "Des": 1886,
      "valid": 1887,
      "Ver": 1888,
      "ross": 1889,
      "cept": 1890,
      "utions": 1891,
      "Ġenergy": 1892,
      "ee": 1893,
      "Ġthem": 1894,
      "body": 1895,
      "Ġmet": 1896,
      "000": 1897,
      "}).": 1898,
      "='": 1899,
      "Sp": 1900,
      "anc": 1901,
      "99": 1902,
      "LO": 1903,
      "adi": 1904,
      "Size": 1905,
      "Ġtext": 1906,
      "lag": 1907,
      "21": 1908,
      "proof": 1909,
      "vious": 1910,
      "Ġmeasure": 1911,
      "chi": 1912,
      "&\\": 1913,
      "Ġcode": 1914,
      "plate": 1915,
      "ĠAr": 1916,
      "Ġexper": 1917,
      "tra": 1918,
      "Int": 1919,
      "create": 1920,
      "Ġsection": 1921,
      "ov": 1922,
      "Ġcheck": 1923,
      "Ġinformation": 1924,
      ")^": 1925,
      "Ġfound": 1926,
      "[\\": 1927,
      "tt": 1928,
      "annel": 1929,
      "search": 1930,
      "ixed": 1931,
      "Ġconfig": 1932,
      "Ġdist": 1933,
      "},\\": 1934,
      "loat": 1935,
      "ynam": 1936,
      "stru": 1937,
      "=\"../../../../": 1938,
      "Ġcontent": 1939,
      "gt": 1940,
      "sl": 1941,
      "mate": 1942,
      "ister": 1943,
      "Ġabove": 1944,
      "Ġmust": 1945,
      "assert": 1946,
      "Ġfin": 1947,
      "lobal": 1948,
      "uble": 1949,
      "spec": 1950,
      "Or": 1951,
      "tics": 1952,
      "mathfrak": 1953,
      "Of": 1954,
      "ift": 1955,
      "ensure": 1956,
      "Ġbel": 1957,
      "eturn": 1958,
      "Ġhad": 1959,
      "Ġindex": 1960,
      "UT": 1961,
      "Hand": 1962,
      "enu": 1963,
      "Ġcur": 1964,
      "ĠAl": 1965,
      "Ġsrc": 1966,
      "Ġpart": 1967,
      "Message": 1968,
      "java": 1969,
      ")(": 1970,
      "FF": 1971,
      "tail": 1972,
      "ities": 1973,
      "Ġgeneral": 1974,
      "Ġ($": 1975,
      "Ġerr": 1976,
      "Ġthrough": 1977,
      "ensity": 1978,
      "AD": 1979,
      "move": 1980,
      "Rec": 1981,
      "ented": 1982,
      "Ġevent": 1983,
      "andom": 1984,
      "Ġallow": 1985,
      "Ġrepresent": 1986,
      "23": 1987,
      "Ġinitial": 1988,
      "IG": 1989,
      "langle": 1990,
      "Ġcontext": 1991,
      "Ġmap": 1992,
      "sw": 1993,
      "info": 1994,
      "ling": 1995,
      "abled": 1996,
      "ape": 1997,
      "ĠAn": 1998,
      "define": 1999,
      "au": 2000,
      "hline": 2001,
      "iter": 2002,
      "Up": 2003,
      "default": 2004,
      "Ġinstance": 2005,
      "result": 2006,
      "clo": 2007,
      "jects": 2008,
      "MA": 2009,
      "Ġcent": 2010,
      "ustom": 2011,
      "Ġexample": 2012,
      "imple": 2013,
      "ML": 2014,
      "Ġsch": 2015,
      "vari": 2016,
      "Ġbecause": 2017,
      "Ġdescri": 2018,
      "Ġmake": 2019,
      "uring": 2020,
      "Ġlarge": 2021,
      "Ġparameters": 2022,
      "Ġcontin": 2023,
      "Ġtran": 2024,
      "ences": 2025,
      "itor": 2026,
      "Ġblock": 2027,
      "mm": 2028,
      "Model": 2029,
      "vert": 2030,
      "Ġ===": 2031,
      "Ġinclu": 2032,
      "ables": 2033,
      "ymmet": 2034,
      "ottom": 2035,
      "Le": 2036,
      ">&": 2037,
      "Ġwho": 2038,
      "vir": 2039,
      "Ġmodels": 2040,
      "Ġreal": 2041,
      "ules": 2042,
      "bolds": 2043,
      "}}$": 2044,
      "Ġcould": 2045,
      "60": 2046,
      "Ġversion": 2047,
      "Val": 2048,
      "Lambda": 2049,
      "Ġsince": 2050,
      "ited": 2051,
      "lt": 2052,
      "Ġincre": 2053,
      "off": 2054,
      "Ġnetwork": 2055,
      "ese": 2056,
      "object": 2057,
      "boldsymbol": 2058,
      "Ġq": 2059,
      "Ġ__": 2060,
      "base": 2061,
      "ically": 2062,
      ";&": 2063,
      "content": 2064,
      "ources": 2065,
      "Ġaction": 2066,
      "ĠTr": 2067,
      "orph": 2068,
      "Log": 2069,
      "sta": 2070,
      "Ġmain": 2071,
      "eff": 2072,
      "Let": 2073,
      "ldots": 2074,
      "tainer": 2075,
      "jo": 2076,
      "thing": 2077,
      "ING": 2078,
      "Ġleft": 2079,
      "Ġsource": 2080,
      "uf": 2081,
      "Ġdirect": 2082,
      "rack": 2083,
      "rodu": 2084,
      "df": 2085,
      "tings": 2086,
      "bug": 2087,
      "Ġhere": 2088,
      "point": 2089,
      "ible": 2090,
      "mission": 2091,
      "ED": 2092,
      "Ġthree": 2093,
      "itions": 2094,
      "ators": 2095,
      "Ġmy": 2096,
      "Phi": 2097,
      "check": 2098,
      "Ġfollows": 2099,
      "ends": 2100,
      "Ġshown": 2101,
      "lim": 2102,
      "ĉĉĉĉĉĉ": 2103,
      "MP": 2104,
      "mbox": 2105,
      "uccess": 2106,
      "Ġlevel": 2107,
      "--------------------------------": 2108,
      "ness": 2109,
      "gorithm": 2110,
      "elp": 2111,
      "AB": 2112,
      "circ": 2113,
      "80": 2114,
      "head": 2115,
      "css": 2116,
      "Ġprovide": 2117,
      "ponse": 2118,
      "nab": 2119,
      "CH": 2120,
      "ulation": 2121,
      "sign": 2122,
      "bers": 2123,
      "Ġparameter": 2124,
      "Ġ};": 2125,
      "ypes": 2126,
      ".\\": 2127,
      "ĠSystem": 2128,
      "No": 2129,
      "Ġvery": 2130,
      "andard": 2131,
      "Ġlast": 2132,
      "ULL": 2133,
      "lected": 2134,
      "android": 2135,
      "appa": 2136,
      "roller": 2137,
      "idd": 2138,
      "ĠĠĠĠĠĠĠĠĠĠ": 2139,
      "ĠĠĠĠĠĠĠĠĠĠĠĠ": 2140,
      "Ġeven": 2141,
      "tn": 2142,
      "using": 2143,
      "Dis": 2144,
      "ants": 2145,
      "Manager": 2146,
      "}),": 2147,
      "Ġregion": 2148,
      "From": 2149,
      "Color": 2150,
      "ET": 2151,
      "Table": 2152,
      "Ġesti": 2153,
      "reate": 2154,
      "Ġwhat": 2155,
      "ik": 2156,
      "ful": 2157,
      "doc": 2158,
      "kappa": 2159,
      "side": 2160,
      "context": 2161,
      "otimes": 2162,
      "tivity": 2163,
      "ken": 2164,
      "Ġ``": 2165,
      "Out": 2166,
      "uthor": 2167,
      "ij": 2168,
      "anel": 2169,
      "namespace": 2170,
      "rag": 2171,
      "down": 2172,
      "owever": 2173,
      "Ġjust": 2174,
      "Ġbreak": 2175,
      "199": 2176,
      "Property": 2177,
      "omet": 2178,
      "Ġrequest": 2179,
      "imum": 2180,
      "nabla": 2181,
      "other": 2182,
      "IS": 2183,
      "Ġinst": 2184,
      "ysis": 2185,
      "ective": 2186,
      "iled": 2187,
      "vents": 2188,
      "Ġher": 2189,
      "call": 2190,
      "package": 2191,
      "Ġmag": 2192,
      "itch": 2193,
      "arning": 2194,
      "~~": 2195,
      "Ġproblem": 2196,
      "uted": 2197,
      "Is": 2198,
      "aces": 2199,
      "Def": 2200,
      "Ġcalcul": 2201,
      "web": 2202,
      "orld": 2203,
      "ren": 2204,
      "](": 2205,
      "){": 2206,
      "start": 2207,
      "aper": 2208,
      "Ġpass": 2209,
      "draw": 2210,
      "false": 2211,
      "User": 2212,
      "ides": 2213,
      "Ġsuper": 2214,
      "Ġcharacter": 2215,
      "ech": 2216,
      "Ġdat": 2217,
      "ĠTo": 2218,
      "System": 2219,
      "Ġbefore": 2220,
      "=\"../": 2221,
      "ene": 2222,
      "Ġnil": 2223,
      "Ġsum": 2224,
      "light": 2225,
      "option": 2226,
      "TD": 2227,
      "ding": 2228,
      "ats": 2229,
      ";</": 2230,
      "nonumber": 2231,
      "Ġwidth": 2232,
      "net": 2233,
      "Ġdeter": 2234,
      "tected": 2235,
      "atures": 2236,
      "ĠGet": 2237,
      "================": 2238,
      "Ġbl": 2239,
      "atisf": 2240,
      "urther": 2241,
      "citep": 2242,
      "Ġimage": 2243,
      "ithub": 2244,
      "Ġtak": 2245,
      "ason": 2246,
      "Ġcreate": 2247,
      "AS": 2248,
      "ename": 2249,
      "her": 2250,
      "UN": 2251,
      "method": 2252,
      "})$": 2253,
      "ĠHe": 2254,
      "Ġway": 2255,
      "velop": 2256,
      "ES": 2257,
      "27": 2258,
      "Ġvis": 2259,
      "Ġbackground": 2260,
      "Ġitem": 2261,
      "ology": 2262,
      "google": 2263,
      "ĉĊ": 2264,
      "Ġmatch": 2265,
      "45": 2266,
      "az": 2267,
      "Ġmatrix": 2268,
      "Inter": 2269,
      "sitive": 2270,
      "refer": 2271,
      "nder": 2272,
      "Ġref": 2273,
      "ression": 2274,
      "OT": 2275,
      "Ġgraph": 2276,
      "Ġbased": 2277,
      "Ġprob": 2278,
      "lot": 2279,
      "Ġnext": 2280,
      "Ġdistribution": 2281,
      "ural": 2282,
      "tice": 2283,
      "amples": 2284,
      "Ġbool": 2285,
      "Op": 2286,
      "place": 2287,
      "static": 2288,
      "ateg": 2289,
      "Query": 2290,
      "Result": 2291,
      "mages": 2292,
      "sive": 2293,
      "textit": 2294,
      "aid": 2295,
      "Ġenc": 2296,
      "\\|": 2297,
      "=\"#": 2298,
      "www": 2299,
      "If": 2300,
      "ari": 2301,
      "ually": 2302,
      "ĠWh": 2303,
      "Ġview": 2304,
      "Ġbeing": 2305,
      "ior": 2306,
      "ENT": 2307,
      "Ġsimilar": 2308,
      "Ġmany": 2309,
      "gs": 2310,
      "Ġmon": 2311,
      "Ġterms": 2312,
      "Response": 2313,
      "aus": 2314,
      "tot": 2315,
      "github": 2316,
      "tal": 2317,
      "core": 2318,
      "Ġder": 2319,
      "DO": 2320,
      "Ġoutput": 2321,
      "01": 2322,
      "sol": 2323,
      "ving": 2324,
      "Client": 2325,
      "ait": 2326,
      "Ġlimit": 2327,
      "bed": 2328,
      "ron": 2329,
      "gener": 2330,
      "0000": 2331,
      "Ġfunctions": 2332,
      "Ġsingle": 2333,
      "\\%": 2334,
      "Group": 2335,
      "Ġorig": 2336,
      "valu": 2337,
      "struction": 2338,
      "inc": 2339,
      "75": 2340,
      "Ġbase": 2341,
      "Ġcolor": 2342,
      "ĠOb": 2343,
      "ĠRes": 2344,
      "Method": 2345,
      "Ġrange": 2346,
      "Ġact": 2347,
      "Override": 2348,
      ")</": 2349,
      "Ġindic": 2350,
      "Sigma": 2351,
      "dependent": 2352,
      "ported": 2353,
      "Attribute": 2354,
      "foot": 2355,
      "kn": 2356,
      "Ġlead": 2357,
      "db": 2358,
      "Ġapproach": 2359,
      "usion": 2360,
      "Ð°": 2361,
      "gram": 2362,
      "conn": 2363,
      "Reg": 2364,
      "Ġexist": 2365,
      "verse": 2366,
      "Ġrequire": 2367,
      "ware": 2368,
      "itional": 2369,
      "/\\": 2370,
      "}}{": 2371,
      "<!--": 2372,
      ">(": 2373,
      "ĠThen": 2374,
      "Ġparticular": 2375,
      "Ġagain": 2376,
      "Ġknow": 2377,
      "Ġandroid": 2378,
      "Ġstructure": 2379,
      "Ġoptions": 2380,
      "Ġet": 2381,
      "lib": 2382,
      "small": 2383,
      "Ġsatisf": 2384,
      "pose": 2385,
      "Ġproperty": 2386,
      "28": 2387,
      "Ġexpect": 2388,
      "Call": 2389,
      "Mod": 2390,
      "Ġplay": 2391,
      "Ġtra": 2392,
      "argin": 2393,
      "Ġlength": 2394,
      "\\[": 2395,
      "vail": 2396,
      "ĠSh": 2397,
      "Builder": 2398,
      "Ġredu": 2399,
      "aster": 2400,
      "any": 2401,
      "Ap": 2402,
      "Ġstd": 2403,
      "66": 2404,
      "ique": 2405,
      "Ġrela": 2406,
      "Ġtry": 2407,
      "ple": 2408,
      "ensuremath": 2409,
      "Ġshe": 2410,
      "lick": 2411,
      "null": 2412,
      "otential": 2413,
      "Ġtrain": 2414,
      "IL": 2415,
      "riter": 2416,
      "ĠNew": 2417,
      "Ġmem": 2418,
      "lectr": 2419,
      "lat": 2420,
      "tual": 2421,
      "Ġbas": 2422,
      "vices": 2423,
      "count": 2424,
      "ĠĠĠĠĠĠĠĠĠĠĠĠĠĠĠĠĠ": 2425,
      "Ad": 2426,
      "xy": 2427,
      "ocus": 2428,
      "Ġfil": 2429,
      "icient": 2430,
      "All": 2431,
      "Ġintegr": 2432,
      "ĠSet": 2433,
      "TH": 2434,
      "undle": 2435,
      "Count": 2436,
      "oken": 2437,
      "Ġpresent": 2438,
      "Ġsequ": 2439,
      "ĠĠĠĠĠĠĠĠĠĠĠĠĠĠĠĠĠĠĠĠĠĠĠĠĠĠĠĠĠĠĠ": 2440,
      "CE": 2441,
      "prop": 2442,
      "image": 2443,
      "Ġthose": 2444,
      "Ġcho": 2445,
      "35": 2446,
      "wn": 2447,
      "icy": 2448,
      "90": 2449,
      "ĠThere": 2450,
      "dir": 2451,
      "Stream": 2452,
      "resp": 2453,
      "current": 2454,
      "Ġcap": 2455,
      "Ġdiscus": 2456,
      "IR": 2457,
      "((": 2458,
      "display": 2459,
      "ks": 2460,
      "ramework": 2461,
      "func": 2462,
      "widetilde": 2463,
      "button": 2464,
      "leg": 2465,
      "Ġstyle": 2466,
      "Ġsolution": 2467,
      "ports": 2468,
      "Date": 2469,
      "onents": 2470,
      "Ac": 2471,
      "It": 2472,
      "height": 2473,
      "Bar": 2474,
      "Ġscal": 2475,
      "Ġhy": 2476,
      "itu": 2477,
      "Ð¾": 2478,
      "till": 2479,
      "attern": 2480,
      "mun": 2481,
      "Ġmessage": 2482,
      "Ġpredic": 2483,
      "ram": 2484,
      "])": 2485,
      "Ġequation": 2486,
      "event": 2487,
      "Ġpossible": 2488,
      "Ġ<<": 2489,
      "Ġresponse": 2490,
      "ci": 2491,
      "Ġposition": 2492,
      "Input": 2493,
      "Ġemp": 2494,
      "uments": 2495,
      "ender": 2496,
      "Ġvalid": 2497,
      "query": 2498,
      "Ġpoints": 2499,
      "Ġaddress": 2500,
      "bra": 2501,
      "ertain": 2502,
      "Im": 2503,
      "options": 2504,
      "hav": 2505,
      "actory": 2506,
      "my": 2507,
      "defined": 2508,
      "ove": 2509,
      "run": 2510,
      "Ġobtained": 2511,
      "reat": 2512,
      "ople": 2513,
      "Ġdensity": 2514,
      "tific": 2515,
      "26": 2516,
      "prime": 2517,
      "2019": 2518,
      "Ġexpected": 2519,
      "Ġopen": 2520,
      "Ġcorresponding": 2521,
      "AME": 2522,
      "\\!": 2523,
      "Trans": 2524,
      "uage": 2525,
      "Sub": 2526,
      "ived": 2527,
      "Ġke": 2528,
      "lease": 2529,
      "Ġbr": 2530,
      "page": 2531,
      "irection": 2532,
      "vis": 2533,
      "Ġlinear": 2534,
      "Ġwithout": 2535,
      "aterial": 2536,
      "err": 2537,
      "Util": 2538,
      "ectively": 2539,
      "{-": 2540,
      "End": 2541,
      "acy": 2542,
      "ĠNULL": 2543,
      "IP": 2544,
      "Not": 2545,
      "Ġtask": 2546,
      "Status": 2547,
      "Ġshows": 2548,
      "urity": 2549,
      "ume": 2550,
      "lies": 2551,
      "Ġconstant": 2552,
      "And": 2553,
      "New": 2554,
      "05": 2555,
      "ĠâĢĵ": 2556,
      "finished": 2557,
      "ĠOn": 2558,
      "Ġfa": 2559,
      "args": 2560,
      "Ġauto": 2561,
      "Ġexperim": 2562,
      "Ġtable": 2563,
      "ONT": 2564,
      "print": 2565,
      "}-": 2566,
      "ret": 2567,
      "Image": 2568,
      "ither": 2569,
      "Action": 2570,
      "Ġdue": 2571,
      "skip": 2572,
      "toc": 2573,
      "emp": 2574,
      "({": 2575,
      "Ġassoci": 2576,
      "Fig": 2577,
      "Instance": 2578,
      "Ġwithin": 2579,
      "cor": 2580,
      "dl": 2581,
      "client": 2582,
      "Ref": 2583,
      "way": 2584,
      "ival": 2585,
      "member": 2586,
      "ii": 2587,
      "Ġvector": 2588,
      "ope": 2589,
      "ibr": 2590,
      "Ġdimension": 2591,
      "iod": 2592,
      "Ġoptim": 2593,
      "vo": 2594,
      "ready": 2595,
      "Sch": 2596,
      "US": 2597,
      "Ġboolean": 2598,
      "gg": 2599,
      "34": 2600,
      "centering": 2601,
      "2018": 2602,
      "png": 2603,
      "Ġpower": 2604,
      "\\]": 2605,
      "ensor": 2606,
      "}+": 2607,
      "ns": 2608,
      "Ġprevious": 2609,
      "Block": 2610,
      "Ġdown": 2611,
      "vailable": 2612,
      "Paramet": 2613,
      "Ġchange": 2614,
      "ĠLet": 2615,
      "ĠÐ": 2616,
      "Ġmethods": 2617,
      "zeta": 2618,
      "Ġcontrol": 2619,
      "local": 2620,
      "Ġtotal": 2621,
      "ategory": 2622,
      "Wh": 2623,
      "Ġstar": 2624,
      "EE": 2625,
      "Ġproperties": 2626,
      ")]": 2627,
      "append": 2628,
      "unfinished": 2629,
      "Ġcoun": 2630,
      "2017": 2631,
      "sch": 2632,
      "ordin": 2633,
      "Gener": 2634,
      "has": 2635,
      "ĠComp": 2636,
      "29": 2637,
      "php": 2638,
      "Ġchang": 2639,
      "element": 2640,
      "hand": 2641,
      "ances": 2642,
      "ification": 2643,
      "Ġmean": 2644,
      "oment": 2645,
      "active": 2646,
      "Ġlabel": 2647,
      "\\{": 2648,
      "Ġcalled": 2649,
      "loy": 2650,
      "Ġ&=": 2651,
      "yc": 2652,
      "amily": 2653,
      "Ġtheory": 2654,
      "luster": 2655,
      "Ġlook": 2656,
      "ĠĠĠĠĠĠĠĠĠĠĠĠĊ": 2657,
      "Ġcomput": 2658,
      "ĠEq": 2659,
      "Ġlay": 2660,
      "Token": 2661,
      "ĠHowever": 2662,
      "Ġstates": 2663,
      "verage": 2664,
      "Ġflu": 2665,
      "char": 2666,
      "Ġsaid": 2667,
      "pol": 2668,
      "viron": 2669,
      "ĠĠĠĠĠĠĠĠĠĠĠĠĠĠ": 2670,
      "Ġrandom": 2671,
      "NS": 2672,
      "istic": 2673,
      "Ġdenote": 2674,
      "Ġocc": 2675,
      "Ġobserv": 2676,
      "Ġ\"\"\"": 2677,
      "tis": 2678,
      "Ġpair": 2679,
      "module": 2680,
      "Ġmed": 2681,
      ";\\": 2682,
      "Ġ->": 2683,
      "adding": 2684,
      "ĠĠĠĠĠĠĠĠĊ": 2685,
      "ĠCom": 2686,
      "target": 2687,
      "tabular": 2688,
      "Ġfinite": 2689,
      "Component": 2690,
      "Line": 2691,
      "flow": 2692,
      "Ġpaper": 2693,
      "Ġgu": 2694,
      "TO": 2695,
      "YPE": 2696,
      "Ġ()": 2697,
      "entity": 2698,
      "Ġlink": 2699,
      "Ġdevelop": 2700,
      "lit": 2701,
      "chn": 2702,
      "Ġpotential": 2703,
      "pc": 2704,
      "write": 2705,
      "Ġmuch": 2706,
      ")=\\": 2707,
      "Ðµ": 2708,
      "ĠBo": 2709,
      "ests": 2710,
      "ols": 2711,
      "Ġborder": 2712,
      "Null": 2713,
      "Be": 2714,
      "header": 2715,
      "note": 2716,
      "[\"": 2717,
      "ivers": 2718,
      "55": 2719,
      "older": 2720,
      "request": 2721,
      "ATE": 2722,
      "Ġstudy": 2723,
      "Str": 2724,
      "Ġsupport": 2725,
      "ump": 2726,
      "Ġnormal": 2727,
      "imal": 2728,
      "Nav": 2729,
      "property": 2730,
      "king": 2731,
      "OS": 2732,
      "resh": 2733,
      "arn": 2734,
      "rows": 2735,
      "ouse": 2736,
      "elper": 2737,
      "Ġbuild": 2738,
      "ket": 2739,
      "Ġge": 2740,
      "tically": 2741,
      ")}\\": 2742,
      "Ġproof": 2743,
      "REF": 2744,
      "Ġidentif": 2745,
      "ording": 2746,
      "}=\\": 2747,
      "Ġanalysis": 2748,
      "Ġapproxi": 2749,
      "Base": 2750,
      "Ġphase": 2751,
      "Ed": 2752,
      "lip": 2753,
      "race": 2754,
      "onal": 2755,
      "Source": 2756,
      "Ġcondition": 2757,
      "Ġintrodu": 2758,
      "eter": 2759,
      "posed": 2760,
      "site": 2761,
      "Ġtake": 2762,
      "Ġdefine": 2763,
      "2016": 2764,
      "Ġmark": 2765,
      "omorph": 2766,
      "Ġtri": 2767,
      "ĠTheorem": 2768,
      "emma": 2769,
      "tect": 2770,
      "antum": 2771,
      "ife": 2772,
      "case": 2773,
      "bottom": 2774,
      "Options": 2775,
      "ords": 2776,
      "Sec": 2777,
      "Buffer": 2778,
      "Lay": 2779,
      "Ġappe": 2780,
      "SP": 2781,
      "tig": 2782,
      "tract": 2783,
      "Ġterm": 2784,
      "Ġcomplex": 2785,
      "Ġrespectively": 2786,
      "Dec": 2787,
      "xml": 2788,
      "Equal": 2789,
      "wise": 2790,
      "EX": 2791,
      "Ġrequired": 2792,
      "Ġstill": 2793,
      "Ġrate": 2794,
      "Ġstrong": 2795,
      "ĠCol": 2796,
      "ways": 2797,
      "39": 2798,
      "Ġcell": 2799,
      "Ġcolumn": 2800,
      "Off": 2801,
      "abase": 2802,
      ",-": 2803,
      "AP": 2804,
      "Ġconf": 2805,
      "Conn": 2806,
      "ging": 2807,
      "70": 2808,
      "adata": 2809,
      "volution": 2810,
      ")^{": 2811,
      "Ġzero": 2812,
      "select": 2813,
      "Ġspectr": 2814,
      "eme": 2815,
      "OL": 2816,
      "server": 2817,
      "scale": 2818,
      "json": 2819,
      "{(": 2820,
      "operator": 2821,
      "EL": 2822,
      "ĠList": 2823,
      "Handler": 2824,
      "jav": 2825,
      "48": 2826,
      "Ġ+=": 2827,
      "lin": 2828,
      "}]": 2829,
      "day": 2830,
      "Ġelements": 2831,
      "ici": 2832,
      "anch": 2833,
      "GL": 2834,
      "ĠBy": 2835,
      "Ġoperator": 2836,
      "Ġhttp": 2837,
      "ah": 2838,
      "Version": 2839,
      "aris": 2840,
      "Ġlarg": 2841,
      "Resource": 2842,
      "lied": 2843,
      "icense": 2844,
      "Ġdynam": 2845,
      "build": 2846,
      "Content": 2847,
      "rec": 2848,
      "sequ": 2849,
      "urs": 2850,
      "Ġstandard": 2851,
      "Ġalgorithm": 2852,
      "Ġfields": 2853,
      "Ġnum": 2854,
      "Ġduring": 2855,
      "Ġsymmet": 2856,
      "Ġcontinu": 2857,
      "idget": 2858,
      "Ġdocument": 2859,
      "lish": 2860,
      "Ġfull": 2861,
      "thm": 2862,
      "$)": 2863,
      "oot": 2864,
      "Ġclear": 2865,
      "AG": 2866,
      "*/": 2867,
      "Ġintern": 2868,
      "Ġdetermin": 2869,
      "2015": 2870,
      "inary": 2871,
      "first": 2872,
      "ĠSection": 2873,
      "command": 2874,
      "Ġdetail": 2875,
      "Ġimplement": 2876,
      "plicit": 2877,
      "Ġgood": 2878,
      "adius": 2879,
      "Ġcomplete": 2880,
      "ring": 2881,
      "izer": 2882,
      "Ġdisplay": 2883,
      "init": 2884,
      "Ġcoup": 2885,
      "cdots": 2886,
      "btn": 2887,
      "Ġavailable": 2888,
      "Ġpeople": 2889,
      "parent": 2890,
      "teger": 2891,
      "36": 2892,
      "ptr": 2893,
      "navbar": 2894,
      "lemma": 2895,
      "vider": 2896,
      "Command": 2897,
      "}|": 2898,
      "orage": 2899,
      "Sup": 2900,
      "Task": 2901,
      "Ġcar": 2902,
      "ideo": 2903,
      "HT": 2904,
      "Ġchild": 2905,
      "${": 2906,
      "Psi": 2907,
      "OP": 2908,
      "ĠSer": 2909,
      "ears": 2910,
      "eps": 2911,
      "Ġexists": 2912,
      "Ġpop": 2913,
      "Run": 2914,
      "pression": 2915,
      "OD": 2916,
      "ental": 2917,
      "iction": 2918,
      "src": 2919,
      "ls": 2920,
      "ĠIN": 2921,
      "}^\\": 2922,
      "widehat": 2923,
      "img": 2924,
      "UE": 2925,
      "Ġ]": 2926,
      "\"]": 2927,
      "cope": 2928,
      "Ġwrite": 2929,
      "Ġrece": 2930,
      "status": 2931,
      "Ġtechn": 2932,
      "sg": 2933,
      "gebra": 2934,
      "Ġsw": 2935,
      "CK": 2936,
      "Ġconditions": 2937,
      "}\\,": 2938,
      "}_\\": 2939,
      "ended": 2940,
      "Ġscale": 2941,
      "fe": 2942,
      "description": 2943,
      "Ġlower": 2944,
      "qquad": 2945,
      "Ġdiag": 2946,
      "ĠNo": 2947,
      "which": 2948,
      "Pr": 2949,
      "Co": 2950,
      "meta": 2951,
      "hould": 2952,
      "LASS": 2953,
      "Ġpage": 2954,
      "Ġeas": 2955,
      "Function": 2956,
      "Ġfree": 2957,
      "2020": 2958,
      "ĠSp": 2959,
      "Factory": 2960,
      "strong": 2961,
      "icro": 2962,
      ".~": 2963,
      "IM": 2964,
      "find": 2965,
      "38": 2966,
      "ek": 2967,
      "ERT": 2968,
      "land": 2969,
      "star": 2970,
      "Ġassociated": 2971,
      "Oper": 2972,
      "filter": 2973,
      "ialog": 2974,
      "efore": 2975,
      "split": 2976,
      "num": 2977,
      "private": 2978,
      "08": 2979,
      "hether": 2980,
      "alax": 2981,
      "^+": 2982,
      "pack": 2983,
      "column": 2984,
      "eline": 2985,
      "Ġaround": 2986,
      "ĠNone": 2987,
      "arm": 2988,
      "duct": 2989,
      "});": 2990,
      "Link": 2991,
      "Ġsimple": 2992,
      "oding": 2993,
      "Cell": 2994,
      "lags": 2995,
      "Ġinclude": 2996,
      "(-": 2997,
      "Ġsearch": 2998,
      "Ġresource": 2999,
      "ĠPar": 3000,
      "CC": 3001,
      "ticle": 3002,
      "Ġwrit": 3003,
      "child": 3004,
      "plug": 3005,
      "mail": 3006,
      "{{\\": 3007,
      "Number": 3008,
      "Ġmade": 3009,
      "Ġec": 3010,
      "Ġinf": 3011,
      "Ġang": 3012,
      "att": 3013,
      "typ": 3014,
      "rem": 3015,
      "vironment": 3016,
      "Ð¸": 3017,
      "Ġheight": 3018,
      "Ġperformance": 3019,
      "alle": 3020,
      "uture": 3021,
      "equiv": 3022,
      "duc": 3023,
      "Ġred": 3024,
      "rid": 3025,
      "&=": 3026,
      "Ġobj": 3027,
      "Ġfilter": 3028,
      "Ġdid": 3029,
      "})\\": 3030,
      "Do": 3031,
      "Ġvol": 3032,
      "MS": 3033,
      "urb": 3034,
      "Ġeither": 3035,
      "push": 3036,
      "serv": 3037,
      "lap": 3038,
      "Window": 3039,
      "Ġelectr": 3040,
      "ium": 3041,
      "Ġcomponent": 3042,
      "can": 3043,
      "Ġtemper": 3044,
      "Ġexec": 3045,
      "Ġfour": 3046,
      "FA": 3047,
      "44": 3048,
      "Ġtimes": 3049,
      "Ġbelow": 3050,
      "lying": 3051,
      "obj": 3052,
      "Ġlang": 3053,
      "Ġjo": 3054,
      "37": 3055,
      "ĠAnd": 3056,
      "indent": 3057,
      "Default": 3058,
      "({\\": 3059,
      "cos": 3060,
      "buf": 3061,
      "gen": 3062,
      "Ġhelp": 3063,
      "}/": 3064,
      "Ġalong": 3065,
      "actions": 3066,
      "Ġalready": 3067,
      "///": 3068,
      "oto": 3069,
      "2014": 3070,
      "02": 3071,
      "True": 3072,
      "Ġbest": 3073,
      "07": 3074,
      "pdf": 3075,
      "anti": 3076,
      "Filter": 3077,
      "utr": 3078,
      "oriz": 3079,
      "Ġbehav": 3080,
      "Ġsequence": 3081,
      "Ġ{@": 3082,
      "Ġdesign": 3083,
      "Check": 3084,
      "Ġsystems": 3085,
      "ln": 3086,
      "netic": 3087,
      "Row": 3088,
      "totype": 3089,
      "Ġleast": 3090,
      "ination": 3091,
      "sian": 3092,
      "cast": 3093,
      "Ġcontrib": 3094,
      "dat": 3095,
      "textwidth": 3096,
      "Ġ\\{": 3097,
      "Ġyears": 3098,
      "App": 3099,
      "Spec": 3100,
      "ught": 3101,
      "04": 3102,
      "rowser": 3103,
      "Ġdon": 3104,
      "FONT": 3105,
      "&&": 3106,
      "Ġattribute": 3107,
      "rior": 3108,
      "lug": 3109,
      "irtual": 3110,
      "appro": 3111,
      "book": 3112,
      "Ġexpl": 3113,
      "Pre": 3114,
      "Ġcirc": 3115,
      "Tag": 3116,
      "Ġknown": 3117,
      "rl": 3118,
      "cell": 3119,
      "][": 3120,
      "Start": 3121,
      "open": 3122,
      "bb": 3123,
      "mathsf": 3124,
      "part": 3125,
      "Ġclient": 3126,
      "Ġthrows": 3127,
      "empty": 3128,
      "cond": 3129,
      "signed": 3130,
      "Ġfixed": 3131,
      "Ġ((": 3132,
      "SC": 3133,
      "post": 3134,
      "Ġlight": 3135,
      "Ġimportant": 3136,
      "ĉĉĉĉĉĉĉĉ": 3137,
      "ade": 3138,
      "31": 3139,
      "ÑĤ": 3140,
      "host": 3141,
      "Ġsignific": 3142,
      "Ġmode": 3143,
      "ĠCo": 3144,
      "First": 3145,
      "ĠSch": 3146,
      "Ġside": 3147,
      "Ġremain": 3148,
      "oth": 3149,
      "Ġoriginal": 3150,
      "Label": 3151,
      "II": 3152,
      "Ġwant": 3153,
      "Ġlines": 3154,
      "pts": 3155,
      "tocol": 3156,
      "mag": 3157,
      "ĠReturn": 3158,
      "ĠMe": 3159,
      "Ġhigher": 3160,
      "Create": 3161,
      "layout": 3162,
      "rel": 3163,
      "Ã©": 3164,
      "strac": 3165,
      "endif": 3166,
      "Ġhim": 3167,
      "creen": 3168,
      "FI": 3169,
      "Ġexpression": 3170,
      "mem": 3171,
      "format": 3172,
      "VER": 3173,
      "Ġfactor": 3174,
      "Ġdiff": 3175,
      "ĠObject": 3176,
      "ĠEn": 3177,
      "Page": 3178,
      "Ġide": 3179,
      "ood": 3180,
      "Box": 3181,
      "Button": 3182,
      "Ext": 3183,
      "lev": 3184,
      "Equals": 3185,
      "orth": 3186,
      "Ġquantum": 3187,
      "Ġextends": 3188,
      "reen": 3189,
      "subset": 3190,
      "PRO": 3191,
      "Ġaccess": 3192,
      "Ġphys": 3193,
      "ĠSo": 3194,
      "Ġspe": 3195,
      "Ġresol": 3196,
      "stream": 3197,
      "ĠAt": 3198,
      "Ġmis": 3199,
      "process": 3200,
      "level": 3201,
      "ascript": 3202,
      "Ġatt": 3203,
      "Ġsample": 3204,
      "Ġimpro": 3205,
      "dimension": 3206,
      "ĠAdd": 3207,
      "Ġcases": 3208,
      "Ġpositive": 3209,
      "Ġmoment": 3210,
      "Ġconver": 3211,
      "}:": 3212,
      "long": 3213,
      "Ġurl": 3214,
      "Ġprotected": 3215,
      "Ġchannel": 3216,
      ".\"": 3217,
      "mt": 3218,
      "Style": 3219,
      "ored": 3220,
      "stead": 3221,
      "ĠFigure": 3222,
      "Ġfurther": 3223,
      "Ġupdate": 3224,
      "Return": 3225,
      "(&": 3226,
      "Ġpers": 3227,
      "DB": 3228,
      "Arg": 3229,
      "number": 3230,
      "Ġequival": 3231,
      "}^{(": 3232,
      "Ġsepar": 3233,
      "Loc": 3234,
      "Controller": 3235,
      "asing": 3236,
      "06": 3237,
      "heet": 3238,
      "illi": 3239,
      "semb": 3240,
      "fill": 3241,
      "cup": 3242,
      "Ġevalu": 3243,
      "attr": 3244,
      "ading": 3245,
      "mid": 3246,
      "std": 3247,
      "Listener": 3248,
      "tition": 3249,
      "Ġprobability": 3250,
      "SON": 3251,
      "idual": 3252,
      "Ġindu": 3253,
      "params": 3254,
      "Ġcommand": 3255,
      "}}(": 3256,
      "update": 3257,
      "Ġunit": 3258,
      "len": 3259,
      "Ġfrequ": 3260,
      "idden": 3261,
      "ttp": 3262,
      "Bundle": 3263,
      "known": 3264,
      "Ġown": 3265,
      "Ġservice": 3266,
      "istory": 3267,
      "amil": 3268,
      "ABLE": 3269,
      "Ġanother": 3270,
      "Ġ$(\\": 3271,
      "Ġconnection": 3272,
      "igger": 3273,
      "change": 3274,
      "Ġiter": 3275,
      "Ġdatas": 3276,
      "tag": 3277,
      "ĠTest": 3278,
      ".$": 3279,
      "ãģ": 3280,
      "2013": 3281,
      "}\\\\": 3282,
      "Ġstep": 3283,
      "Ġobserved": 3284,
      "uk": 3285,
      "88": 3286,
      "container": 3287,
      "alth": 3288,
      "////////////////": 3289,
      "ĠAp": 3290,
      "Ġmodule": 3291,
      "imary": 3292,
      "Ġsever": 3293,
      "ula": 3294,
      "sin": 3295,
      "Ġassume": 3296,
      "clusion": 3297,
      "Ġmeans": 3298,
      "Format": 3299,
      "cr": 3300,
      "INT": 3301,
      "ĠLe": 3302,
      "Const": 3303,
      "Ġmove": 3304,
      "py": 3305,
      "Ġglobal": 3306,
      "gl": 3307,
      "AM": 3308,
      "mul": 3309,
      "igen": 3310,
      "09": 3311,
      "Ġweight": 3312,
      "Ġvia": 3313,
      "apter": 3314,
      "edge": 3315,
      "ĠLemma": 3316,
      "istent": 3317,
      "Char": 3318,
      "Ġcontains": 3319,
      "Ġthus": 3320,
      "Ġmargin": 3321,
      "Fe": 3322,
      "menu": 3323,
      "plit": 3324,
      "ird": 3325,
      "Read": 3326,
      "close": 3327,
      "Exp": 3328,
      "oll": 3329,
      "Ġnote": 3330,
      "match": 3331,
      "Ġsk": 3332,
      "iler": 3333,
      "Ġplace": 3334,
      "ĠAd": 3335,
      "Output": 3336,
      "laim": 3337,
      "Ġ<!--": 3338,
      "Ġdeg": 3339,
      "Ġsuccess": 3340,
      "Ġfeatures": 3341,
      "Ġspecified": 3342,
      "Ġcount": 3343,
      "Ġcross": 3344,
      "Ð½": 3345,
      "Ġeffect": 3346,
      "Point": 3347,
      "ĠYou": 3348,
      "else": 3349,
      "parse": 3350,
      "pth": 3351,
      "Ġpost": 3352,
      "ba": 3353,
      "gress": 3354,
      "03": 3355,
      "Ġdouble": 3356,
      "dev": 3357,
      "normal": 3358,
      "response": 3359,
      "HE": 3360,
      "refix": 3361,
      "entry": 3362,
      "MM": 3363,
      "Ġdiv": 3364,
      "Ġtyp": 3365,
      "ries": 3366,
      "Ġsem": 3367,
      "Ġgalax": 3368,
      "Ġdomain": 3369,
      "Ġincluding": 3370,
      "Ġnumer": 3371,
      "Ġcombin": 3372,
      "annot": 3373,
      "van": 3374,
      "Ġwindow": 3375,
      "ĠSe": 3376,
      "Ġear": 3377,
      ")-": 3378,
      "instance": 3379,
      "|^": 3380,
      "values": 3381,
      "variant": 3382,
      "Ġgenerated": 3383,
      "ending": 3384,
      "Ġrefer": 3385,
      "Ġbro": 3386,
      "ale": 3387,
      "Ġfit": 3388,
      "Ġinternal": 3389,
      "Ġperiod": 3390,
      "ident": 3391,
      "URL": 3392,
      "Ġroot": 3393,
      "javascript": 3394,
      "sole": 3395,
      "multi": 3396,
      "Last": 3397,
      "Ġnear": 3398,
      "95": 3399,
      "font": 3400,
      "Ġalways": 3401,
      "}+\\": 3402,
      "Valid": 3403,
      "styles": 3404,
      "########": 3405,
      "last": 3406,
      "CD": 3407,
      "sd": 3408,
      "stack": 3409,
      "Ġexact": 3410,
      "ris": 3411,
      "65": 3412,
      "Ġproject": 3413,
      "iff": 3414,
      "ĠHREF": 3415,
      "Ġ&\\": 3416,
      "common": 3417,
      "{}": 3418,
      "unit": 3419,
      "<?": 3420,
      "ony": 3421,
      "operatorname": 3422,
      "Ġturn": 3423,
      "Ġdirection": 3424,
      "aving": 3425,
      "Ġcommun": 3426,
      "proto": 3427,
      "Ġsignificant": 3428,
      "ories": 3429,
      "ĠĠĠĠĠĠĠĠĠĠĠĠĠĠĠĠĠĠĠĠĠĠĠĠĠĠĠĠĠĠĠĠĠĠĠ": 3430,
      "Ġspin": 3431,
      "jection": 3432,
      "Length": 3433,
      "_.": 3434,
      "hspace": 3435,
      "ql": 3436,
      "service": 3437,
      "ological": 3438,
      "Ġdistance": 3439,
      "Ġcontr": 3440,
      "rav": 3441,
      "di": 3442,
      "stract": 3443,
      "reference": 3444,
      "iform": 3445,
      "tifact": 3446,
      "overn": 3447,
      "67": 3448,
      "enumer": 3449,
      "Child": 3450,
      "Ġ-\\": 3451,
      "'$": 3452,
      "Ġtraining": 3453,
      "Ġoption": 3454,
      "Ġequations": 3455,
      "itude": 3456,
      "based": 3457,
      "udio": 3458,
      "allet": 3459,
      "Mode": 3460,
      "tices": 3461,
      "ĠPh": 3462,
      "âĢľ": 3463,
      "oh": 3464,
      "}}{\\": 3465,
      "Collection": 3466,
      "ral": 3467,
      "Ġsets": 3468,
      "Ġspecific": 3469,
      "mar": 3470,
      "ience": 3471,
      "Ġparent": 3472,
      "Ġwhether": 3473,
      "Column": 3474,
      "\").": 3475,
      ":</": 3476,
      "There": 3477,
      "ĠThese": 3478,
      "Ġfail": 3479,
      "Ġanaly": 3480,
      "Web": 3481,
      "\\\"": 3482,
      "]$": 3483,
      "show": 3484,
      "ires": 3485,
      "Met": 3486,
      "Ġless": 3487,
      "```": 3488,
      "Ġyear": 3489,
      "BU": 3490,
      "ĠSince": 3491,
      "ested": 3492,
      "ately": 3493,
      "Ġflow": 3494,
      "tx": 3495,
      "Ġinterface": 3496,
      "scr": 3497,
      "ĠCLASS": 3498,
      "ĠNote": 3499,
      "that": 3500,
      "Ġbetter": 3501,
      "Ġinterest": 3502,
      "remove": 3503,
      "mut": 3504,
      "Offset": 3505,
      "Ġdefinition": 3506,
      "Ġworld": 3507,
      "Address": 3508,
      "ecess": 3509,
      "astic": 3510,
      "NO": 3511,
      "citet": 3512,
      "Ġquery": 3513,
      "UI": 3514,
      "ocket": 3515,
      "Ġfew": 3516,
      "Ġfeature": 3517,
      "2012": 3518,
      "Ġsurface": 3519,
      "cs": 3520,
      "}-\\": 3521,
      "only": 3522,
      "Ġrespect": 3523,
      "dag": 3524,
      "kes": 3525,
      "medi": 3526,
      "Ġsay": 3527,
      "Ġequal": 3528,
      "Ġprovided": 3529,
      "ĠAll": 3530,
      "PC": 3531,
      "rr": 3532,
      "Ġindependent": 3533,
      "scri": 3534,
      "Ġiss": 3535,
      "Sc": 3536,
      "xspace": 3537,
      "Ġproposed": 3538,
      "Ġ[]": 3539,
      "neq": 3540,
      "egative": 3541,
      "noindent": 3542,
      "ĠDis": 3543,
      "Ġques": 3544,
      "inst": 3545,
      "project": 3546,
      "offset": 3547,
      "late": 3548,
      "\\,\\": 3549,
      "Ġshort": 3550,
      "Ġboundary": 3551,
      "Cache": 3552,
      "footnote": 3553,
      "uit": 3554,
      "ocity": 3555,
      "Ġfont": 3556,
      "Ġvel": 3557,
      "ernel": 3558,
      "omic": 3559,
      "alf": 3560,
      "Server": 3561,
      "CON": 3562,
      "Pol": 3563,
      "Ġcluster": 3564,
      "omin": 3565,
      "output": 3566,
      "ometry": 3567,
      "tio": 3568,
      "Ġcannot": 3569,
      "COL": 3570,
      "Ġcopy": 3571,
      "ulations": 3572,
      "./": 3573,
      "cd": 3574,
      "={": 3575,
      "structor": 3576,
      "ĠAPI": 3577,
      "Ġdone": 3578,
      "aj": 3579,
      "Ġcatch": 3580,
      "Ġtypes": 3581,
      "Ġserver": 3582,
      "anged": 3583,
      "ÑĢ": 3584,
      "Ġcoordin": 3585,
      "Ġloss": 3586,
      "Ġedge": 3587,
      "\"),": 3588,
      "IZ": 3589,
      "Ġaverage": 3590,
      "Ġdescribed": 3591,
      "Ġ~": 3592,
      "sib": 3593,
      "fa": 3594,
      "arison": 3595,
      "hip": 3596,
      "example": 3597,
      "Ġaccount": 3598,
      "Per": 3599,
      "Pi": 3600,
      "Ġrot": 3601,
      "Ġhead": 3602,
      ">>": 3603,
      "Ġtemperature": 3604,
      "Ġaff": 3605,
      "').": 3606,
      "Ġevents": 3607,
      "$(": 3608,
      "Ġobjects": 3609,
      "Ġrad": 3610,
      "Ġstatus": 3611,
      "ixel": 3612,
      "theorem": 3613,
      "SU": 3614,
      "Ġconsidered": 3615,
      "lean": 3616,
      "Ġformat": 3617,
      "TP": 3618,
      "47": 3619,
      "ached": 3620,
      "Ġgive": 3621,
      "Frame": 3622,
      "Ġclose": 3623,
      "Select": 3624,
      "stand": 3625,
      "Ġ!==": 3626,
      "acity": 3627,
      "Layout": 3628,
      "Ġvariables": 3629,
      "enumerate": 3630,
      "pping": 3631,
      "ĠClass": 3632,
      "iti": 3633,
      "Ġsuff": 3634,
      "prototype": 3635,
      "Acc": 3636,
      "rule": 3637,
      "Update": 3638,
      "range": 3639,
      "TYPE": 3640,
      "Ġrecent": 3641,
      "ĠThus": 3642,
      "Ġcallback": 3643,
      ")}{": 3644,
      "stit": 3645,
      "Ġaccur": 3646,
      "Ġphot": 3647,
      "icture": 3648,
      "Url": 3649,
      "85": 3650,
      "ds": 3651,
      "tection": 3652,
      "iness": 3653,
      "Ġtag": 3654,
      "kit": 3655,
      "scope": 3656,
      "++)": 3657,
      "ool": 3658,
      "2011": 3659,
      "Ġold": 3660,
      "task": 3661,
      "ftware": 3662,
      ".âĢĿ": 3663,
      "ital": 3664,
      "enti": 3665,
      "exec": 3666,
      "pass": 3667,
      "********************************": 3668,
      "lished": 3669,
      "ressed": 3670,
      "ĠLo": 3671,
      "Ġseveral": 3672,
      "Ġrepresentation": 3673,
      "49": 3674,
      "aml": 3675,
      "require": 3676,
      "omial": 3677,
      "echan": 3678,
      "$}": 3679,
      "IO": 3680,
      "itemize": 3681,
      "Ġmight": 3682,
      "Ġrole": 3683,
      "alk": 3684,
      "rapper": 3685,
      "Ġdate": 3686,
      "prec": 3687,
      "ERR": 3688,
      "aring": 3689,
      "Ġrow": 3690,
      "dimensional": 3691,
      "abs": 3692,
      "linear": 3693,
      "ĠID": 3694,
      "Next": 3695,
      "returns": 3696,
      "orn": 3697,
      "ĉĠĠĠ": 3698,
      "Ġnone": 3699,
      "ND": 3700,
      "Ġtransform": 3701,
      "ety": 3702,
      "cur": 3703,
      ")}$": 3704,
      "cat": 3705,
      "ably": 3706,
      "Ġseen": 3707,
      "Ġlat": 3708,
      "ĠMore": 3709,
      "ĠEX": 3710,
      "sm": 3711,
      "Case": 3712,
      "ently": 3713,
      "ai": 3714,
      "]\\": 3715,
      "tle": 3716,
      "Ġsyn": 3717,
      "Ġcl": 3718,
      "ux": 3719,
      "Ġrelated": 3720,
      "Ġvariable": 3721,
      "Ġrelative": 3722,
      "ĠLicense": 3723,
      "Ġcenter": 3724,
      "chie": 3725,
      "CL": 3726,
      "Ġla": 3727,
      "ĠTable": 3728,
      "encies": 3729,
      "Ġproduct": 3730,
      "NAME": 3731,
      "Ġcomponents": 3732,
      "ĠHT": 3733,
      "files": 3734,
      "Ġlearning": 3735,
      "Ġ_{": 3736,
      "([": 3737,
      "Ð¾Ð": 3738,
      "criptor": 3739,
      "Ġapplication": 3740,
      "most": 3741,
      "ĠDo": 3742,
      "Ġmultiple": 3743,
      "abil": 3744,
      "Note": 3745,
      "77": 3746,
      "Ġprint": 3747,
      "Provider": 3748,
      "tree": 3749,
      "pto": 3750,
      "Ġprogram": 3751,
      "Ġcoeff": 3752,
      "(_": 3753,
      "bs": 3754,
      "ãĥ": 3755,
      "Ġband": 3756,
      "Ġbi": 3757,
      "=\"../../../../../": 3758,
      "CP": 3759,
      "like": 3760,
      "river": 3761,
      "Ġsug": 3762,
      "omes": 3763,
      "Ġtransition": 3764,
      "{{": 3765,
      "Ġrelations": 3766,
      "vspace": 3767,
      "mated": 3768,
      "oder": 3769,
      "window": 3770,
      "root": 3771,
      "Ġconfiguration": 3772,
      "float": 3773,
      "ying": 3774,
      "lus": 3775,
      "Ġtoo": 3776,
      "sembly": 3777,
      "Ġloc": 3778,
      "Ġimplies": 3779,
      "ĠType": 3780,
      "Ġlaw": 3781,
      "iss": 3782,
      "Ġlarger": 3783,
      "Ġdetails": 3784,
      "Ġcommon": 3785,
      "Ġgives": 3786,
      "Vis": 3787,
      "igation": 3788,
      "Search": 3789,
      "ather": 3790,
      "Target": 3791,
      "multic": 3792,
      "Ġfiles": 3793,
      "Rem": 3794,
      "gether": 3795,
      "Back": 3796,
      "CODE": 3797,
      "Max": 3798,
      "Ġreference": 3799,
      "Ġadditional": 3800,
      "Types": 3801,
      "uid": 3802,
      "Ġargs": 3803,
      "Ġsite": 3804,
      "Entity": 3805,
      "Ġreason": 3806,
      "Us": 3807,
      "Ġmaximum": 3808,
      "alt": 3809,
      "ado": 3810,
      "Ġnodes": 3811,
      "Clo": 3812,
      "Ġ**": 3813,
      ")+": 3814,
      "=\"-": 3815,
      "Ġspecial": 3816,
      "posit": 3817,
      "meric": 3818,
      "otst": 3819,
      "Ġinstead": 3820,
      "}}}": 3821,
      "Ġfore": 3822,
      "underline": 3823,
      "ino": 3824,
      "models": 3825,
      "bind": 3826,
      "Ġblack": 3827,
      "Ġthink": 3828,
      "amed": 3829,
      "Width": 3830,
      "Ġnat": 3831,
      "Ġoffset": 3832,
      "Ġest": 3833,
      "aly": 3834,
      "()->": 3835,
      "Ġconstrain": 3836,
      "Ġrelation": 3837,
      "SO": 3838,
      "raint": 3839,
      "One": 3840,
      "Ġyield": 3841,
      "Ġnecess": 3842,
      "Level": 3843,
      "}}_": 3844,
      "Ġseries": 3845,
      "olumn": 3846,
      "SD": 3847,
      "should": 3848,
      "AV": 3849,
      "osition": 3850,
      "approx": 3851,
      "IF": 3852,
      "Ġstream": 3853,
      "eded": 3854,
      "aves": 3855,
      "Ġprec": 3856,
      "Ġsolutions": 3857,
      "ops": 3858,
      "control": 3859,
      "Ġalgebra": 3860,
      "Ġachie": 3861,
      "2010": 3862,
      "agement": 3863,
      "ULT": 3864,
      "template": 3865,
      "Ġcost": 3866,
      "ĠOr": 3867,
      "Ġtrack": 3868,
      "68": 3869,
      "multicolumn": 3870,
      "ĠFile": 3871,
      "}'": 3872,
      "rad": 3873,
      "ograph": 3874,
      "Entry": 3875,
      "bound": 3876,
      "Ġimages": 3877,
      "Ġselect": 3878,
      "essages": 3879,
      "ĠIs": 3880,
      "Ġ\\|": 3881,
      "token": 3882,
      "utes": 3883,
      "Min": 3884,
      "ours": 3885,
      "classes": 3886,
      "edia": 3887,
      "Ġfloat": 3888,
      "ĠSec": 3889,
      "ĠWhen": 3890,
      "Ġfr": 3891,
      "Parameter": 3892,
      "ĠGL": 3893,
      "artifact": 3894,
      "soft": 3895,
      "Ġlen": 3896,
      "Ġemb": 3897,
      "Ġagainst": 3898,
      "Ġuint": 3899,
      "ĉĉĉĉĉĉĉ": 3900,
      "Ġweak": 3901,
      "ĠCar": 3902,
      "Ġprove": 3903,
      "finite": 3904,
      "izes": 3905,
      "Ġbuffer": 3906,
      "mathscr": 3907,
      "Ġcustom": 3908,
      "ĠBut": 3909,
      "ĠArray": 3910,
      "Configuration": 3911,
      "aged": 3912,
      "AA": 3913,
      "ĠSup": 3914,
      "inner": 3915,
      "Tem": 3916,
      "Emp": 3917,
      "sitions": 3918,
      "board": 3919,
      "sport": 3920,
      "ev": 3921,
      "Ġextension": 3922,
      "ounded": 3923,
      "otstrap": 3924,
      "Ġ...": 3925,
      "Ġbegin": 3926,
      "Ġmen": 3927,
      "final": 3928,
      "conf": 3929,
      "patch": 3930,
      "Ġhard": 3931,
      "]);": 3932,
      "ged": 3933,
      "buffer": 3934,
      "bool": 3935,
      "NN": 3936,
      "Ñģ": 3937,
      "document": 3938,
      "ighb": 3939,
      "Ġev": 3940,
      "Ġtherefore": 3941,
      "Write": 3942,
      "aded": 3943,
      "Ġsetting": 3944,
      "STR": 3945,
      "ĠData": 3946,
      "Ġgame": 3947,
      "Ġchanges": 3948,
      "vestig": 3949,
      "Open": 3950,
      "Ġput": 3951,
      "Utils": 3952,
      "^-": 3953,
      "imation": 3954,
      "oo": 3955,
      "Ġti": 3956,
      "pag": 3957,
      "\\}$": 3958,
      "Ġeigen": 3959,
      "KE": 3960,
      "auth": 3961,
      "Ġbody": 3962,
      "attribute": 3963,
      "ĠĠĠĠĠĠĠĠĠĠĠĠĠĠĠĠĠĠĠĠĠ": 3964,
      "layer": 3965,
      "ĠOF": 3966,
      "Ġcr": 3967,
      "iversity": 3968,
      "Defin": 3969,
      "Ġweb": 3970,
      "incip": 3971,
      ":\"": 3972,
      "Ġoperation": 3973,
      "Ġargument": 3974,
      "Then": 3975,
      "Ġalign": 3976,
      "Container": 3977,
      "onic": 3978,
      "Ġframe": 3979,
      "ture": 3980,
      "Ġplan": 3981,
      "tification": 3982,
      "42": 3983,
      "Ġunique": 3984,
      "more": 3985,
      "vector": 3986,
      "PO": 3987,
      "Control": 3988,
      "XX": 3989,
      "nos": 3990,
      "Ġfocus": 3991,
      "Tree": 3992,
      ")|": 3993,
      "ledge": 3994,
      "utils": 3995,
      "Ġdescription": 3996,
      "uint": 3997,
      "Ġmagnetic": 3998,
      "Ġreturns": 3999,
      "'),": 4000,
      "pository": 4001,
      "Ġinvol": 4002,
      "Ġmer": 4003,
      "Unit": 4004,
      "Ġax": 4005,
      "Ġvirtual": 4006,
      "though": 4007,
      "Ġaddition": 4008,
      "ĠWith": 4009,
      "Ġholds": 4010,
      "Ġauth": 4011,
      ")/": 4012,
      "RL": 4013,
      "API": 4014,
      "Since": 4015,
      "Header": 4016,
      "auge": 4017,
      "idence": 4018,
      "Ġregular": 4019,
      "corre": 4020,
      "afe": 4021,
      "Ġapplic": 4022,
      "amer": 4023,
      "Ġarea": 4024,
      "orizont": 4025,
      "ifier": 4026,
      "Ġsignal": 4027,
      "rup": 4028,
      "debug": 4029,
      "Json": 4030,
      "thon": 4031,
      "Top": 4032,
      "ãĤ": 4033,
      "thes": 4034,
      "Ġwave": 4035,
      "=(": 4036,
      "Exec": 4037,
      "Ġ\\;": 4038,
      "ounter": 4039,
      "Ġpanel": 4040,
      "Process": 4041,
      "Ġnav": 4042,
      "expected": 4043,
      "Ġsolid": 4044,
      "IV": 4045,
      "system": 4046,
      "Ġpattern": 4047,
      "na": 4048,
      "inally": 4049,
      "ĠUp": 4050,
      "46": 4051,
      "author": 4052,
      "Ġfamily": 4053,
      "quare": 4054,
      "ATION": 4055,
      "Ġenough": 4056,
      "rees": 4057,
      "tran": 4058,
      "Ġcor": 4059,
      "trm": 4060,
      "Ġ{}": 4061,
      "SH": 4062,
      "ĠReg": 4063,
      "break": 4064,
      "Ġdifference": 4065,
      "Ġestimate": 4066,
      "87": 4067,
      "89": 4068,
      "Position": 4069,
      "ĠRec": 4070,
      "=\"../../../../../../": 4071,
      "ategy": 4072,
      "images": 4073,
      "Ġbit": 4074,
      "wards": 4075,
      "ĠReturns": 4076,
      "Interface": 4077,
      "enter": 4078,
      "artifactId": 4079,
      "Ġhapp": 4080,
      "Ġlocation": 4081,
      "Net": 4082,
      "mooth": 4083,
      "ĠVer": 4084,
      "Mem": 4085,
      "textrm": 4086,
      "ĉĉĊ": 4087,
      "Ġhom": 4088,
      "Ġpur": 4089,
      "solute": 4090,
      "Ġcorrect": 4091,
      "ĠGener": 4092,
      "Ġeffective": 4093,
      "tains": 4094,
      "usiness": 4095,
      "ĠOp": 4096,
      "Ġhost": 4097,
      "Ġcri": 4098,
      "Callback": 4099,
      "Ġspectrum": 4100,
      "cache": 4101,
      "Ġtree": 4102,
      "fl": 4103,
      "norm": 4104,
      "omen": 4105,
      "\".": 4106,
      "eV": 4107,
      "VAL": 4108,
      "aa": 4109,
      "make": 4110,
      "voke": 4111,
      "âĢ¦": 4112,
      "prod": 4113,
      "Hash": 4114,
      "ina": 4115,
      "lice": 4116,
      "ĠThey": 4117,
      "Theta": 4118,
      "device": 4119,
      "Ġremove": 4120,
      "ĠTherefore": 4121,
      "aced": 4122,
      "\\'": 4123,
      "%%": 4124,
      "}^{-": 4125,
      "Http": 4126,
      "ĉĠ": 4127,
      "sor": 4128,
      "Ġlim": 4129,
      "ĠFe": 4130,
      "<\\": 4131,
      "teq": 4132,
      "wait": 4133,
      "orizontal": 4134,
      "fr": 4135,
      "QL": 4136,
      "resource": 4137,
      "izing": 4138,
      "Ġindiv": 4139,
      "Ġmechan": 4140,
      "iven": 4141,
      "Connection": 4142,
      "DF": 4143,
      "engine": 4144,
      "Ġrest": 4145,
      "Ġselected": 4146,
      "IGN": 4147,
      "Ġcour": 4148,
      "etch": 4149,
      "Range": 4150,
      "SA": 4151,
      "ycle": 4152,
      "Ġeffects": 4153,
      "Ġremo": 4154,
      "Ġapply": 4155,
      "Ġ;": 4156,
      "%;": 4157,
      "2009": 4158,
      "Ġcertain": 4159,
      "Ġderiv": 4160,
      "ĠDes": 4161,
      "Ġvelocity": 4162,
      "Ġday": 4163,
      "auto": 4164,
      "86": 4165,
      "uman": 4166,
      "ilt": 4167,
      "etail": 4168,
      "57": 4169,
      "yl": 4170,
      "Ġmatter": 4171,
      "Params": 4172,
      "Height": 4173,
      "---": 4174,
      "ĠĠĠĊ": 4175,
      "Dat": 4176,
      "ctx": 4177,
      "{$": 4178,
      "Ġmetric": 4179,
      "Location": 4180,
      "():": 4181,
      "groupId": 4182,
      "Ġlater": 4183,
      "dist": 4184,
      "Ġselection": 4185,
      "acing": 4186,
      "Ġdest": 4187,
      "Ġvarious": 4188,
      "Ġupper": 4189,
      "Empty": 4190,
      "\"))": 4191,
      "arp": 4192,
      "UM": 4193,
      "Ġlanguage": 4194,
      "None": 4195,
      "lugin": 4196,
      "Ġfuture": 4197,
      "aries": 4198,
      "Right": 4199,
      "then": 4200,
      "nap": 4201,
      "Ġrestr": 4202,
      "COLOR": 4203,
      "IZE": 4204,
      "unk": 4205,
      "ynomial": 4206,
      "Ġarguments": 4207,
      "Doc": 4208,
      "Module": 4209,
      "jor": 4210,
      "96": 4211,
      "fs": 4212,
      ",\"": 4213,
      "Ġlife": 4214,
      "Ġgroups": 4215,
      "pped": 4216,
      "Ġlayer": 4217,
      "Settings": 4218,
      "Ġgrow": 4219,
      "Ġexplicit": 4220,
      "unch": 4221,
      "Ġevolution": 4222,
      "ectors": 4223,
      "mode": 4224,
      "Ġ$|": 4225,
      "iddle": 4226,
      "Ġlik": 4227,
      "Access": 4228,
      "Pos": 4229,
      "Serial": 4230,
      "ibrary": 4231,
      "gence": 4232,
      "Ġpay": 4233,
      "Ġunc": 4234,
      "stylesheet": 4235,
      "Ġret": 4236,
      "cp": 4237,
      "minus": 4238,
      "iqu": 4239,
      "Match": 4240,
      "ACK": 4241,
      "DD": 4242,
      "97": 4243,
      "}},": 4244,
      "2008": 4245,
      "Ġcompared": 4246,
      "Ġaccording": 4247,
      "matic": 4248,
      "Ġxml": 4249,
      "}}_{": 4250,
      "Ġbasis": 4251,
      "ĠGo": 4252,
      "Properties": 4253,
      "Helper": 4254,
      "tify": 4255,
      "Ġerrors": 4256,
      "Ġ*)": 4257,
      "~$": 4258,
      "ĠAmeric": 4259,
      "Ġfar": 4260,
      "ids": 4261,
      "equal": 4262,
      "pg": 4263,
      "frame": 4264,
      "ĠRem": 4265,
      "leted": 4266,
      "scal": 4267,
      "*{": 4268,
      "Ġfig": 4269,
      "entic": 4270,
      "Ġbehavior": 4271,
      "Ġinvestig": 4272,
      "Ġentry": 4273,
      "Ġseem": 4274,
      "Ġhowever": 4275,
      ">,": 4276,
      "Ġcreated": 4277,
      "PR": 4278,
      "âĢĵ": 4279,
      "Ġratio": 4280,
      "allel": 4281,
      "Ġable": 4282,
      "iver": 4283,
      "Ġapplied": 4284,
      "istr": 4285,
      "=-": 4286,
      "uck": 4287,
      "Ġtogether": 4288,
      "Ġinv": 4289,
      "cel": 4290,
      "Ġinstall": 4291,
      "Tim": 4292,
      "rics": 4293,
      "PS": 4294,
      "ĠDef": 4295,
      "ECT": 4296,
      "LI": 4297,
      "Thread": 4298,
      "Ġbox": 4299,
      "_+": 4300,
      "ĠCreate": 4301,
      "FT": 4302,
      "Ġ>=": 4303,
      "Ġassign": 4304,
      "opt": 4305,
      "Expression": 4306,
      "Ġempty": 4307,
      "tage": 4308,
      "Ab": 4309,
      "Ġswitch": 4310,
      "dx": 4311,
      "Ġhyper": 4312,
      "^{-\\": 4313,
      "Option": 4314,
      "reed": 4315,
      "before": 4316,
      "}%": 4317,
      "Ġexpan": 4318,
      "Ġresearch": 4319,
      "Rel": 4320,
      "Local": 4321,
      "ART": 4322,
      "drop": 4323,
      ":\\": 4324,
      "Ġcollection": 4325,
      "dagger": 4326,
      "Ġneutr": 4327,
      "atform": 4328,
      "ocial": 4329,
      "seteq": 4330,
      "Ġ$\\{": 4331,
      "Ġdevice": 4332,
      "Ġport": 4333,
      "Ġwhose": 4334,
      "turb": 4335,
      "Ġdirectly": 4336,
      "zz": 4337,
      "ĠPo": 4338,
      "Ġgas": 4339,
      "acts": 4340,
      "cf": 4341,
      "grad": 4342,
      "outh": 4343,
      "Ġfilename": 4344,
      "$_": 4345,
      "tax": 4346,
      "dated": 4347,
      "Ġstars": 4348,
      "now": 4349,
      "Ġparams": 4350,
      "Ġhash": 4351,
      "ised": 4352,
      "ĠSee": 4353,
      "ips": 4354,
      "EQ": 4355,
      "Ġpadding": 4356,
      "Dir": 4357,
      "istry": 4358,
      "Ġseg": 4359,
      "bitr": 4360,
      "Ġclosed": 4361,
      "Ġpack": 4362,
      "Schema": 4363,
      "limits": 4364,
      "Ġtheorem": 4365,
      "Ġstatis": 4366,
      "Ġkeep": 4367,
      "Now": 4368,
      "fil": 4369,
      "Copy": 4370,
      "Integer": 4371,
      "Ġequivalent": 4372,
      "ampl": 4373,
      "Ġindividual": 4374,
      "second": 4375,
      "tional": 4376,
      "Ġallows": 4377,
      "Ġpub": 4378,
      "Ġdoc": 4379,
      "Ġuntil": 4380,
      "hash": 4381,
      "vm": 4382,
      "Change": 4383,
      "dr": 4384,
      "Ġdataset": 4385,
      "Ġenvironment": 4386,
      "ously": 4387,
      "ipp": 4388,
      "adow": 4389,
      "deed": 4390,
      "Ġhandle": 4391,
      "Ġfrequency": 4392,
      "Ġenti": 4393,
      ":(": 4394,
      "Auth": 4395,
      "urren": 4396,
      "Ġload": 4397,
      "uary": 4398,
      "ication": 4399,
      "Session": 4400,
      "){\\": 4401,
      "Ġrender": 4402,
      "ĠDec": 4403,
      "Ġbook": 4404,
      "achine": 4405,
      "Ġactive": 4406,
      "Ġtaken": 4407,
      "Ġoperators": 4408,
      "ĠNS": 4409,
      "ĠLog": 4410,
      "\\}": 4411,
      "ĠInd": 4412,
      "Ġprior": 4413,
      "Description": 4414,
      "ĠDE": 4415,
      "modal": 4416,
      "entifier": 4417,
      "free": 4418,
      "Ġil": 4419,
      "docs": 4420,
      "Ġhttps": 4421,
      "irectory": 4422,
      "ĠQu": 4423,
      "Ġvertex": 4424,
      "Ġchain": 4425,
      "Ġ::": 4426,
      "\"));": 4427,
      "TI": 4428,
      "Ġadded": 4429,
      "Ġfrac": 4430,
      "Ġcoll": 4431,
      "ĠĠĠĠĠĠĠĠĠĠĠĠĠĠĠĠĠĠĠĠ": 4432,
      "Ġwritten": 4433,
      "ench": 4434,
      "ially": 4435,
      "Ġdegree": 4436,
      "ĠCont": 4437,
      "Ġ${": 4438,
      "Ġprovides": 4439,
      "ogn": 4440,
      "super": 4441,
      "Script": 4442,
      "Ġoverride": 4443,
      "Ġ\"\\": 4444,
      "texttt": 4445,
      "Document": 4446,
      "Ġacross": 4447,
      "Ġgl": 4448,
      "rs": 4449,
      "ĠMar": 4450,
      "Ġembed": 4451,
      "req": 4452,
      "dim": 4453,
      "kind": 4454,
      "Font": 4455,
      "CR": 4456,
      "omorphism": 4457,
      "ĠRo": 4458,
      "step": 4459,
      "Ġfl": 4460,
      "subseteq": 4461,
      "Ġ(-": 4462,
      "PT": 4463,
      "Ġtemplate": 4464,
      "Ġflux": 4465,
      "types": 4466,
      "join": 4467,
      "bas": 4468,
      "&#": 4469,
      "ĠMan": 4470,
      "Async": 4471,
      "Ġbu": 4472,
      "lier": 4473,
      "oplus": 4474,
      "Ġexplo": 4475,
      "wedge": 4476,
      "Ġcover": 4477,
      "hood": 4478,
      "Ġ($\\": 4479,
      "definition": 4480,
      "Ġpresented": 4481,
      "ĠOne": 4482,
      "Ġdescribe": 4483,
      "Ġemission": 4484,
      "Ġjob": 4485,
      "roy": 4486,
      "84": 4487,
      "Ġinteger": 4488,
      "lan": 4489,
      "render": 4490,
      "remark": 4491,
      "Ġnoise": 4492,
      "Work": 4493,
      "delete": 4494,
      "Ġundefined": 4495,
      "Ġexception": 4496,
      "Ġsupported": 4497,
      "bul": 4498,
      "cer": 4499,
      "inte": 4500,
      "ĠBe": 4501,
      "atal": 4502,
      "Current": 4503,
      "sv": 4504,
      "Ġexcept": 4505,
      "MO": 4506,
      "=\"_": 4507,
      "Ġinterval": 4508,
      "NavBar": 4509,
      "Extension": 4510,
      "Ġmemory": 4511,
      "atial": 4512,
      "andid": 4513,
      "Ġ$-": 4514,
      "shot": 4515,
      "copy": 4516,
      "ley": 4517,
      "Ġunderstand": 4518,
      "interface": 4519,
      "Ġdraw": 4520,
      "_{{\\": 4521,
      "Ġir": 4522,
      "Ġdetect": 4523,
      "ORT": 4524,
      "atric": 4525,
      "Ġonce": 4526,
      "SL": 4527,
      "HO": 4528,
      "xx": 4529,
      "2007": 4530,
      "================================": 4531,
      "Inst": 4532,
      "Ġauthor": 4533,
      "Impl": 4534,
      "Ġrather": 4535,
      "transform": 4536,
      "Ġchoice": 4537,
      "Ġprac": 4538,
      "....": 4539,
      "itle": 4540,
      "Render": 4541,
      "ker": 4542,
      "mine": 4543,
      ",âĢĿ": 4544,
      "ittle": 4545,
      "border": 4546,
      "ota": 4547,
      "ĠTO": 4548,
      "Ġorgan": 4549,
      "Ġimprove": 4550,
      "ws": 4551,
      "Menu": 4552,
      "à¤": 4553,
      "Ġmaterial": 4554,
      "Ġsupp": 4555,
      "_{(": 4556,
      "500": 4557,
      "Reference": 4558,
      "Ġsmaller": 4559,
      "ixt": 4560,
      "Sign": 4561,
      "zed": 4562,
      "ulated": 4563,
      "resol": 4564,
      "parameter": 4565,
      "ĠBG": 4566,
      "msg": 4567,
      "'],": 4568,
      "black": 4569,
      "component": 4570,
      "Ġgauge": 4571,
      "Ġtoken": 4572,
      "ĠException": 4573,
      "=\"/": 4574,
      "Store": 4575,
      ";->": 4576,
      "Ġnatural": 4577,
      "Ġamount": 4578,
      "Ġexplain": 4579,
      "crete": 4580,
      "reshold": 4581,
      "43": 4582,
      "internal": 4583,
      "ALL": 4584,
      "56": 4585,
      "?:": 4586,
      "ategor": 4587,
      "PECT": 4588,
      "Ġdecre": 4589,
      "Ġquestion": 4590,
      "ands": 4591,
      "Ġscen": 4592,
      "Ġnever": 4593,
      "Left": 4594,
      "zero": 4595,
      "Parser": 4596,
      "Ġpolynomial": 4597,
      "background": 4598,
      "card": 4599,
      "Ġtw": 4600,
      "come": 4601,
      "ĠPr": 4602,
      "cy": 4603,
      "ters": 4604,
      "clear": 4605,
      "session": 4606,
      "Ġclasses": 4607,
      "Ġsymmetry": 4608,
      "ario": 4609,
      "DIR": 4610,
      "Ġphysical": 4611,
      "global": 4612,
      "ully": 4613,
      "foo": 4614,
      "255": 4615,
      "Vari": 4616,
      "Ġconnected": 4617,
      "Ġnumbers": 4618,
      "Ġparticle": 4619,
      "uri": 4620,
      "Vector": 4621,
      "Ġneeded": 4622,
      "ĠCO": 4623,
      "Ġinfo": 4624,
      "uro": 4625,
      "une": 4626,
      "Ġground": 4627,
      "setminus": 4628,
      "newcommand": 4629,
      "Ġque": 4630,
      "PL": 4631,
      "amilton": 4632,
      "_*": 4633,
      "ĠST": 4634,
      "~~~~": 4635,
      "98": 4636,
      "ĠUniversity": 4637,
      "linewidth": 4638,
      "ĠRef": 4639,
      "Ġinteraction": 4640,
      "Ġgoing": 4641,
      "detail": 4642,
      "oted": 4643,
      "ike": 4644,
      "utable": 4645,
      "Ġfund": 4646,
      "Ġkind": 4647,
      "Ġtim": 4648,
      "Ġ}\\": 4649,
      "(:": 4650,
      "That": 4651,
      "ĠĠĠĠĠĠĊ": 4652,
      "FO": 4653,
      "Ġaut": 4654,
      "'\\": 4655,
      "ĠâĢĺ": 4656,
      "Ġformula": 4657,
      "Ġarch": 4658,
      "MD": 4659,
      "Ġcompute": 4660,
      "umb": 4661,
      "ao": 4662,
      "sur": 4663,
      "esh": 4664,
      "bootstrap": 4665,
      "sto": 4666,
      "Ġgrad": 4667,
      "Ġdr": 4668,
      "Ġneighb": 4669,
      "results": 4670,
      "Parameters": 4671,
      "anges": 4672,
      "TER": 4673,
      "Ġ$[": 4674,
      "ĠAc": 4675,
      "Ġcurve": 4676,
      "rea": 4677,
      "ĠName": 4678,
      "panel": 4679,
      "Ġmakes": 4680,
      "Ġsure": 4681,
      "aligned": 4682,
      "mitted": 4683,
      "webkit": 4684,
      "high": 4685,
      "Ġsent": 4686,
      "Ġcontinue": 4687,
      "1000": 4688,
      "Handle": 4689,
      "Ġbecomes": 4690,
      "Ġgalaxies": 4691,
      "Ġ['": 4692,
      "Ġoften": 4693,
      "rief": 4694,
      "Ġobservations": 4695,
      "shift": 4696,
      "after": 4697,
      "ided": 4698,
      "Ġarbitr": 4699,
      "Ind": 4700,
      "Ġbounded": 4701,
      "pop": 4702,
      "orig": 4703,
      "equals": 4704,
      "Ġstop": 4705,
      "Ġsession": 4706,
      "Ġdetermined": 4707,
      "Ġuses": 4708,
      "Iter": 4709,
      "usic": 4710,
      "Ġscope": 4711,
      "estamp": 4712,
      "hib": 4713,
      "address": 4714,
      "Ġsources": 4715,
      "ube": 4716,
      "tool": 4717,
      "ĠCal": 4718,
      "EM": 4719,
      "mations": 4720,
      "ĠĠĠĠĠĠĠĠĠĠĠĠĠĠĠĠĠĠĠĠĠĠĠĠĠĠĠĠĠĠĠĠĠĠĠĠĠĠĠ": 4721,
      "ceed": 4722,
      "Ġhaving": 4723,
      "Ġclaim": 4724,
      "Ġquanti": 4725,
      "toString": 4726,
      "Ġradius": 4727,
      "Ġpartial": 4728,
      "ĠCheck": 4729,
      "obile": 4730,
      "Ġamong": 4731,
      "Ġapproximation": 4732,
      "CA": 4733,
      "Ġhence": 4734,
      "),\\": 4735,
      "iding": 4736,
      "osen": 4737,
      "CS": 4738,
      "env": 4739,
      "Core": 4740,
      "Ġframework": 4741,
      "ropy": 4742,
      "imply": 4743,
      "Ġplot": 4744,
      "Ġworks": 4745,
      "Device": 4746,
      "gu": 4747,
      "So": 4748,
      "tw": 4749,
      "Ġwords": 4750,
      "Ġdemon": 4751,
      "Ġtensor": 4752,
      "ollary": 4753,
      "Ġsufficient": 4754,
      "utor": 4755,
      "Ġsamples": 4756,
      "chron": 4757,
      "Ġuniform": 4758,
      "Ġproblems": 4759,
      "Ġhome": 4760,
      "ggle": 4761,
      "widget": 4762,
      "Ptr": 4763,
      "inding": 4764,
      "Order": 4765,
      "41": 4766,
      "Ġagree": 4767,
      "Ġann": 4768,
      "send": 4769,
      "Ġgreat": 4770,
      "Ġregister": 4771,
      "Ġvolume": 4772,
      "Ġproced": 4773,
      "When": 4774,
      "ĠOR": 4775,
      "UP": 4776,
      "plugin": 4777,
      "Icon": 4778,
      "ohn": 4779,
      "igr": 4780,
      "hover": 4781,
      "_{-": 4782,
      "ĠSub": 4783,
      "ĠApp": 4784,
      "Ġreport": 4785,
      "Ġstre": 4786,
      "support": 4787,
      "Template": 4788,
      "Ġuncertain": 4789,
      ",\\,": 4790,
      "Ð°Ð": 4791,
      "Ġgenerate": 4792,
      "aussian": 4793,
      "pher": 4794,
      "ctor": 4795,
      "Ġsmooth": 4796,
      "Cal": 4797,
      ")\\,": 4798,
      "82": 4799,
      "ORM": 4800,
      "click": 4801,
      "sequence": 4802,
      "'>": 4803,
      "eful": 4804,
      "footer": 4805,
      "amera": 4806,
      "ymf": 4807,
      "Ġsubset": 4808,
      "Ġliter": 4809,
      "Tests": 4810,
      "matrix": 4811,
      "Ġcontinuous": 4812,
      "oss": 4813,
      "orts": 4814,
      "ĠSte": 4815,
      "ymfony": 4816,
      "ĠCan": 4817,
      "exports": 4818,
      "itter": 4819,
      "Ġmajor": 4820,
      "Ġparse": 4821,
      "Mon": 4822,
      "byte": 4823,
      "bigg": 4824,
      "weight": 4825,
      "raft": 4826,
      "Ġshape": 4827,
      "Ġattr": 4828,
      "Ġgrav": 4829,
      "uple": 4830,
      "Ġrule": 4831,
      "ĠBGCOLOR": 4832,
      "INE": 4833,
      "Ġsymbol": 4834,
      "rade": 4835,
      "Ġtakes": 4836,
      "ĠAssert": 4837,
      "GET": 4838,
      "Eq": 4839,
      "`.": 4840,
      "Ġappear": 4841,
      "Ġconven": 4842,
      "(*": 4843,
      "sem": 4844,
      "Ġbecome": 4845,
      "Ġminimum": 4846,
      "###": 4847,
      "Operation": 4848,
      "Ġparticles": 4849,
      "Ġpress": 4850,
      "Ġ|\\": 4851,
      "Ġhold": 4852,
      "Ġreview": 4853,
      "Ġreally": 4854,
      "ORD": 4855,
      "store": 4856,
      "pret": 4857,
      "export": 4858,
      "apping": 4859,
      ")}(": 4860,
      "59": 4861,
      "2006": 4862,
      "Ġ})": 4863,
      "Ġrank": 4864,
      "Ġconsistent": 4865,
      "Ġcoupling": 4866,
      "Ġmanif": 4867,
      "Ġnegative": 4868,
      "Ġsays": 4869,
      "ĠPol": 4870,
      "Kind": 4871,
      "Ġscatter": 4872,
      "ERROR": 4873,
      "levant": 4874,
      "Names": 4875,
      "icients": 4876,
      "Use": 4877,
      "Ġsen": 4878,
      "ions": 4879,
      "Ġdelete": 4880,
      "BO": 4881,
      "media": 4882,
      "Ġconstraints": 4883,
      "Ġnuc": 4884,
      "aps": 4885,
      "Ste": 4886,
      "actor": 4887,
      "Ġbyte": 4888,
      "Ġsplit": 4889,
      "ĠEXPECT": 4890,
      "ĠâĢĶ": 4891,
      "Down": 4892,
      "Ġconstruction": 4893,
      "Ġmaps": 4894,
      "'_": 4895,
      "abor": 4896,
      "Pass": 4897,
      "isted": 4898,
      "fields": 4899,
      "ones": 4900,
      "anner": 4901,
      "full": 4902,
      "ĠEng": 4903,
      "Ġestab": 4904,
      "subfigure": 4905,
      "Record": 4906,
      "Ġmonth": 4907,
      "Ġdemonstr": 4908,
      "Ġgre": 4909,
      "ĠAcc": 4910,
      "Ġincrease": 4911,
      "Ġbar": 4912,
      "AND": 4913,
      "legate": 4914,
      "Ġregions": 4915,
      "aren": 4916,
      "2000": 4917,
      "ĠÂ": 4918,
      "ĠFr": 4919,
      "Ġsettings": 4920,
      "Ġspeed": 4921,
      "ĠHere": 4922,
      "Ġmomentum": 4923,
      "Ġotherwise": 4924,
      "fn": 4925,
      "False": 4926,
      "WE": 4927,
      "Non": 4928,
      "Ġneeds": 4929,
      "dec": 4930,
      "Ġ+\\": 4931,
      "Ġmedia": 4932,
      "ĠNe": 4933,
      "modules": 4934,
      "ĠMath": 4935,
      "Detail": 4936,
      "Ġnumerical": 4937,
      "Ġdynamics": 4938,
      "Ġsatisfies": 4939,
      "MC": 4940,
      "used": 4941,
      "allow": 4942,
      "disabled": 4943,
      "Ġpolicy": 4944,
      "Ġalmost": 4945,
      "Invalid": 4946,
      "Ġusers": 4947,
      "Ġ\\(": 4948,
      "Ġnecessary": 4949,
      "Project": 4950,
      "Ġrunning": 4951,
      "ĠMay": 4952,
      "custom": 4953,
      "ĠInter": 4954,
      "aging": 4955,
      "vision": 4956,
      "category": 4957,
      "Ġincluded": 4958,
      "icrosoft": 4959,
      "Ġyet": 4960,
      "Ġprincip": 4961,
      "Port": 4962,
      "Long": 4963,
      "llar": 4964,
      "Ġcritical": 4965,
      "ynamic": 4966,
      "lustr": 4967,
      "replace": 4968,
      "gent": 4969,
      "Definition": 4970,
      "vas": 4971,
      "Ġdep": 4972,
      "Title": 4973,
      "Ġscheme": 4974,
      "Vert": 4975,
      "Ġscalar": 4976,
      "Ġattack": 4977,
      "LP": 4978,
      "ä¸": 4979,
      "Ġdoesn": 4980,
      "loor": 4981,
      "SET": 4982,
      "Ġfun": 4983,
      "Ġstrict": 4984,
      "Ġtre": 4985,
      "Here": 4986,
      "Ġecho": 4987,
      "Ġign": 4988,
      "Ġactual": 4989,
      "ibility": 4990,
      "ĠProposition": 4991,
      "blockList": 4992,
      "Ġcomparison": 4993,
      "cing": 4994,
      "Ġoptimal": 4995,
      "Ġcache": 4996,
      "lide": 4997,
      "uter": 4998,
      "Ġsend": 4999,
      "51": 5000,
      "Ġvertices": 5001,
      "URE": 5002,
      "Api": 5003,
      "Ġdiscussed": 5004,
      "pri": 5005,
      "handle": 5006,
      "Graph": 5007,
      "Sk": 5008,
      "76": 5009,
      "Ġleg": 5010,
      "deg": 5011,
      "bot": 5012,
      "Ġdepends": 5013,
      "exception": 5014,
      "Ġ++": 5015,
      "irm": 5016,
      "gn": 5017,
      "Ġnamespace": 5018,
      "_;": 5019,
      "icons": 5020,
      "hy": 5021,
      "umin": 5022,
      "ĠCON": 5023,
      "uting": 5024,
      "Ġthird": 5025,
      "ĠJSON": 5026,
      "car": 5027,
      "Ġrequires": 5028,
      "vey": 5029,
      "white": 5030,
      "Ġrecord": 5031,
      "Ġdisk": 5032,
      "icker": 5033,
      "ises": 5034,
      "Ġvi": 5035,
      "Num": 5036,
      "ashed": 5037,
      "Ġforce": 5038,
      "ĠWeb": 5039,
      "here": 5040,
      "Ġ('": 5041,
      "Stack": 5042,
      "Values": 5043,
      "ometric": 5044,
      "ising": 5045,
      "dependency": 5046,
      "Draw": 5047,
      "annotation": 5048,
      "Classes": 5049,
      "cons": 5050,
      "mic": 5051,
      "napshot": 5052,
      "Ġresulting": 5053,
      "Ġcos": 5054,
      "Host": 5055,
      "ĠCoun": 5056,
      "}}(\\": 5057,
      "Ġsimulations": 5058,
      "-->": 5059,
      "material": 5060,
      "ĠFrom": 5061,
      "Ġhalf": 5062,
      "enum": 5063,
      "ipeline": 5064,
      "Ġuseful": 5065,
      "dest": 5066,
      "Ġsm": 5067,
      "__(": 5068,
      "double": 5069,
      "faces": 5070,
      "72": 5071,
      "ĠĠĠĠĠĠĠĠĠĠĠĠĠĠĠĠĠĠ": 5072,
      "More": 5073,
      "paramet": 5074,
      "Application": 5075,
      "Ġsimply": 5076,
      "Ġpi": 5077,
      "initial": 5078,
      "colon": 5079,
      "settings": 5080,
      "Ġreturned": 5081,
      "Multi": 5082,
      ">();": 5083,
      "padding": 5084,
      "ictionary": 5085,
      "Ġpeak": 5086,
      "Ġcut": 5087,
      "bert": 5088,
      "inder": 5089,
      "framework": 5090,
      "Ġbig": 5091,
      "Ġprofile": 5092,
      "thers": 5093,
      "fit": 5094,
      "access": 5095,
      "Ġunsigned": 5096,
      "Ġderived": 5097,
      "UB": 5098,
      "Ġ&=&": 5099,
      "Ġabsolute": 5100,
      "Ġcentral": 5101,
      "Ġheader": 5102,
      "Ġadj": 5103,
      "Ġcore": 5104,
      "Ġthread": 5105,
      "ĠDate": 5106,
      "Ġexisting": 5107,
      "ĠTrue": 5108,
      "Ġinline": 5109,
      "Rect": 5110,
      "Ġemploy": 5111,
      "Ass": 5112,
      "Ġlearn": 5113,
      "Reader": 5114,
      "grid": 5115,
      "----------------------------------------------------------------": 5116,
      "Ġos": 5117,
      "Ġincreasing": 5118,
      "Ġche": 5119,
      "Ġcompact": 5120,
      "54": 5121,
      "Debug": 5122,
      "Ġdiscussion": 5123,
      "Cap": 5124,
      "Ġcorresponds": 5125,
      "ung": 5126,
      "ĠState": 5127,
      "FAULT": 5128,
      "Ġexperiments": 5129,
      "ragment": 5130,
      "Ġperformed": 5131,
      "present": 5132,
      "Ġdatabase": 5133,
      "'}": 5134,
      "ĠMon": 5135,
      "Ġplane": 5136,
      "Ġvan": 5137,
      "Ġentire": 5138,
      "Results": 5139,
      "admin": 5140,
      "Ġperturb": 5141,
      "Ġnames": 5142,
      "cloud": 5143,
      "Metadata": 5144,
      "79": 5145,
      "forall": 5146,
      "Ġdistributed": 5147,
      "Ġcontainer": 5148,
      "ering": 5149,
      "lapse": 5150,
      "Ġsense": 5151,
      "Ġ{};": 5152,
      "Ġcome": 5153,
      "protobuf": 5154,
      "Ġclassical": 5155,
      ".)": 5156,
      "equality": 5157,
      "mates": 5158,
      "Ġteam": 5159,
      "Ġho": 5160,
      "ĠPer": 5161,
      "ĠJan": 5162,
      "Boolean": 5163,
      "58": 5164,
      "plugins": 5165,
      "Ġ$.": 5166,
      "Ġdecay": 5167,
      "RA": 5168,
      "Ġthough": 5169,
      "Ġrepresents": 5170,
      "Ġsugges": 5171,
      "52": 5172,
      "gorithms": 5173,
      "GE": 5174,
      "ĠGr": 5175,
      "domain": 5176,
      ")_{": 5177,
      "Policy": 5178,
      "Ġdetection": 5179,
      "Ġdetermine": 5180,
      "2021": 5181,
      "Ġpackage": 5182,
      "Ġspectral": 5183,
      "Ġtaking": 5184,
      "ĠLO": 5185,
      "ATA": 5186,
      "}$-": 5187,
      "Ġmotion": 5188,
      "ĠHence": 5189,
      "hr": 5190,
      "Ġvideo": 5191,
      "Ġcaus": 5192,
      "Delete": 5193,
      "simeq": 5194,
      "ury": 5195,
      "endar": 5196,
      "precated": 5197,
      "ales": 5198,
      "Ġchoose": 5199,
      "ĠRE": 5200,
      "LS": 5201,
      "register": 5202,
      "Ġexpansion": 5203,
      "}\"": 5204,
      "success": 5205,
      "Ġbytes": 5206,
      "Ġchildren": 5207,
      "Ġlattice": 5208,
      "Ġmagn": 5209,
      "atrices": 5210,
      "Track": 5211,
      "Ġstack": 5212,
      "Ġdomin": 5213,
      "ounts": 5214,
      "focus": 5215,
      "oms": 5216,
      "arily": 5217,
      "ĠMin": 5218,
      "va": 5219,
      "Ġcalculated": 5220,
      "Ġmeasured": 5221,
      "Ġproper": 5222,
      "boolean": 5223,
      "subsubsection": 5224,
      "SION": 5225,
      "Ġkernel": 5226,
      "Ġaccuracy": 5227,
      ")^{-": 5228,
      "dep": 5229,
      "itive": 5230,
      "points": 5231,
      "bi": 5232,
      "Ġlate": 5233,
      "Mock": 5234,
      "Ġloop": 5235,
      "ATH": 5236,
      "Ġbinary": 5237,
      "Ġinit": 5238,
      "Load": 5239,
      "ani": 5240,
      "iting": 5241,
      "channel": 5242,
      "Ġmaking": 5243,
      ")^{\\": 5244,
      "ĠOur": 5245,
      "Ġproduction": 5246,
      "AGE": 5247,
      "Bytes": 5248,
      "Ġword": 5249,
      "Ġsoftware": 5250,
      "ympto": 5251,
      "blue": 5252,
      "Ġcontaining": 5253,
      "connection": 5254,
      "After": 5255,
      "Ġextr": 5256,
      "perp": 5257,
      "ĠError": 5258,
      "ĠTrans": 5259,
      "Ġtransaction": 5260,
      "PH": 5261,
      "Ġsomething": 5262,
      "2005": 5263,
      "ĠThat": 5264,
      "Ġgot": 5265,
      "Args": 5266,
      "Ġcontribution": 5267,
      "Ġedges": 5268,
      "comm": 5269,
      "PA": 5270,
      "Ġparts": 5271,
      "Byte": 5272,
      "Decl": 5273,
      "\\!\\!": 5274,
      "cases": 5275,
      "Ġinside": 5276,
      "Ġdecl": 5277,
      "ĠEd": 5278,
      "Enabled": 5279,
      "Ke": 5280,
      "Param": 5281,
      "Ġdel": 5282,
      "SSERT": 5283,
      "ĠNOT": 5284,
      "cpp": 5285,
      "Has": 5286,
      "pted": 5287,
      "Ġsuccessful": 5288,
      "callback": 5289,
      "GB": 5290,
      "Ġwhite": 5291,
      "real": 5292,
      "Ġsitu": 5293,
      "300": 5294,
      "itect": 5295,
      "Package": 5296,
      "alysis": 5297,
      "iag": 5298,
      "Ġitself": 5299,
      "Meta": 5300,
      "ĠModel": 5301,
      "ĠCor": 5302,
      "Ġearly": 5303,
      "tention": 5304,
      "=\"../../../": 5305,
      "ĠMap": 5306,
      "Ġreach": 5307,
      "edu": 5308,
      "Ġitems": 5309,
      "picture": 5310,
      "ĠUS": 5311,
      "sibility": 5312,
      "Ġconstruct": 5313,
      "Que": 5314,
      "Obj": 5315,
      "BR": 5316,
      "Section": 5317,
      "Ġdiffic": 5318,
      "ĠHamilton": 5319,
      "Ġapproximate": 5320,
      "69": 5321,
      "Ġleading": 5322,
      "78": 5323,
      "Argument": 5324,
      "iving": 5325,
      "Ã¡": 5326,
      "Sim": 5327,
      ">.": 5328,
      "Ge": 5329,
      "Ġlittle": 5330,
      "PP": 5331,
      "ĠSpec": 5332,
      "Ġmembers": 5333,
      "Ġimplementation": 5334,
      "isms": 5335,
      "avor": 5336,
      "Enc": 5337,
      "Root": 5338,
      "END": 5339,
      "Ġhistory": 5340,
      "Ġintroduced": 5341,
      "âĢĶ": 5342,
      "Ġallowed": 5343,
      "Ġcompare": 5344,
      "Ġfix": 5345,
      "Ġmeas": 5346,
      "wrap": 5347,
      "Ġgovern": 5348,
      "Ġperson": 5349,
      "ulate": 5350,
      "Ġspatial": 5351,
      "ĠValue": 5352,
      "ca": 5353,
      "Cre": 5354,
      "ĠInt": 5355,
      "'))": 5356,
      "`,": 5357,
      "Ġjson": 5358,
      "Ġ$$": 5359,
      "hom": 5360,
      "pub": 5361,
      ".~(\\": 5362,
      "pec": 5363,
      "sters": 5364,
      "toggle": 5365,
      "Ġdecomp": 5366,
      "ĠFirst": 5367,
      "Ġactually": 5368,
      "ĠIm": 5369,
      "Ġinvariant": 5370,
      "Ġarbitrary": 5371,
      "CTION": 5372,
      "Descriptor": 5373,
      "You": 5374,
      "Ġcoefficients": 5375,
      "SR": 5376,
      "^{+": 5377,
      "TED": 5378,
      "Ġangle": 5379,
      "53": 5380,
      "pa": 5381,
      "coq": 5382,
      "HTML": 5383,
      "Each": 5384,
      "mediate": 5385,
      "Click": 5386,
      "gest": 5387,
      "comment": 5388,
      "Ġcharge": 5389,
      "ĠStr": 5390,
      "DL": 5391,
      "Ġ'/": 5392,
      "Body": 5393,
      "Ġcourse": 5394,
      "}^*": 5395,
      "short": 5396,
      "agraph": 5397,
      "ives": 5398,
      "Bound": 5399,
      "Build": 5400,
      "Ġinfinite": 5401,
      "ĠNot": 5402,
      "Ġsu": 5403,
      "Ġinvoke": 5404,
      "Ġexamples": 5405,
      "Ġassumption": 5406,
      "Ġshall": 5407,
      "war": 5408,
      "Ġcorrelation": 5409,
      "numer": 5410,
      "ĠPre": 5411,
      "Ġnorm": 5412,
      "Ġmention": 5413,
      "Ġaway": 5414,
      "term": 5415,
      "Ġmeasurements": 5416,
      "sql": 5417,
      "Ġpolar": 5418,
      "RI": 5419,
      "Var": 5420,
      "Ġbottom": 5421,
      "Writer": 5422,
      ";<": 5423,
      "83": 5424,
      "Ġfailed": 5425,
      "contrib": 5426,
      "\")]": 5427,
      "ĠGu": 5428,
      "Ġins": 5429,
      "iny": 5430,
      "Ġdirectory": 5431,
      "ĠMy": 5432,
      "Ġintegral": 5433,
      "Sw": 5434,
      "illion": 5435,
      "forms": 5436,
      "radius": 5437,
      "{$\\": 5438,
      "Ġinteresting": 5439,
      "Ġsimulation": 5440,
      "Ġcomputed": 5441,
      "Ġcorrection": 5442,
      "ĠĠĠĠĠĠĠĠĠĠĠĠĠĠĠĠĠĠĠĠĠĠĠĠĠĠĠĠĠĠĠĠĠĠĠĠĠĠĠĠĠĠĠĠĠĠĠĠĠĠĠĠĠĠĠĠĠĠĠĠĠĠĠĠ": 5443,
      "ka": 5444,
      "dom": 5445,
      "ĠSim": 5446,
      "Ġcategory": 5447,
      "Ġlinks": 5448,
      "Ġtransfer": 5449,
      "Parent": 5450,
      "Ġcare": 5451,
      "atory": 5452,
      "256": 5453,
      "ĠHTML": 5454,
      "Ġbranch": 5455,
      "Ġ=\\": 5456,
      "Ġnetworks": 5457,
      "$).": 5458,
      "Ġchall": 5459,
      "2004": 5460,
      "Ġorigin": 5461,
      "KEY": 5462,
      "each": 5463,
      "oom": 5464,
      "Go": 5465,
      "coin": 5466,
      "aut": 5467,
      "Dialog": 5468,
      "ĠVAL": 5469,
      "Display": 5470,
      "Ġavoid": 5471,
      "\"\"\"": 5472,
      "connect": 5473,
      "ĉĉĉĊ": 5474,
      "ante": 5475,
      "Ġwhole": 5476,
      "letion": 5477,
      "Ġstore": 5478,
      "ky": 5479,
      "ĠRequ": 5480,
      "ission": 5481,
      "ious": 5482,
      "Rule": 5483,
      "ĠassertEquals": 5484,
      "$$\\": 5485,
      "virtual": 5486,
      "Ġhuman": 5487,
      "ĠMark": 5488,
      "Changed": 5489,
      "acro": 5490,
      "Ġleads": 5491,
      "application": 5492,
      "region": 5493,
      "Ġchosen": 5494,
      "bullet": 5495,
      "eh": 5496,
      "Ġrepl": 5497,
      "roduction": 5498,
      "apt": 5499,
      "Ġdeep": 5500,
      "ĠSc": 5501,
      "Ġ<=": 5502,
      "Ġinequality": 5503,
      "Ġnet": 5504,
      "}}^": 5505,
      "mock": 5506,
      "Ġess": 5507,
      "ĠRun": 5508,
      ")}{\\": 5509,
      "bits": 5510,
      "Ġfac": 5511,
      "ĠAL": 5512,
      "ply": 5513,
      "Our": 5514,
      "seud": 5515,
      "notation": 5516,
      "vex": 5517,
      "Ġ^": 5518,
      "Sta": 5519,
      "Ġaxis": 5520,
      "Fields": 5521,
      "edit": 5522,
      "Ġexactly": 5523,
      "lines": 5524,
      "cover": 5525,
      "Ġinner": 5526,
      "$^{-": 5527,
      "Ġbutton": 5528,
      "Ġradi": 5529,
      "\">&": 5530,
      "abilities": 5531,
      "Ġprocedure": 5532,
      "textsc": 5533,
      "Ġdistributions": 5534,
      "cts": 5535,
      "Ġeasy": 5536,
      "ĠMod": 5537,
      "Ġstudies": 5538,
      "Edit": 5539,
      "margin": 5540,
      "Figure": 5541,
      "SM": 5542,
      "Ġillustr": 5543,
      "Ġwait": 5544,
      "Ġampl": 5545,
      "74": 5546,
      "tein": 5547,
      "hs": 5548,
      "Ġextra": 5549,
      ")_": 5550,
      "eler": 5551,
      "Ġtheore": 5552,
      ")).": 5553,
      "email": 5554,
      "ieve": 5555,
      "Ġfigure": 5556,
      "Tab": 5557,
      "Ġtests": 5558,
      "urthermore": 5559,
      "Ġtreat": 5560,
      "Ġpixel": 5561,
      "Ġexperimental": 5562,
      "Ne": 5563,
      "rf": 5564,
      "Ġpairs": 5565,
      "Ġdays": 5566,
      "Ġprocesses": 5567,
      "Custom": 5568,
      "bal": 5569,
      "'re": 5570,
      "ana": 5571,
      "Character": 5572,
      "JECT": 5573,
      "ĠAb": 5574,
      "pmatrix": 5575,
      "Ġweek": 5576,
      "Ġspaces": 5577,
      "Ġexternal": 5578,
      "zation": 5579,
      "Ġaltern": 5580,
      "ming": 5581,
      "Ġdual": 5582,
      "Ġidentity": 5583,
      "Ġeasily": 5584,
      "OM": 5585,
      "Ġstatement": 5586,
      "items": 5587,
      "uler": 5588,
      "ening": 5589,
      "Ġhar": 5590,
      "Ġorbit": 5591,
      "[:": 5592,
      "Ġresolution": 5593,
      "ball": 5594,
      "Ġsys": 5595,
      "ĠUser": 5596,
      "tik": 5597,
      "Sum": 5598,
      "FR": 5599,
      "Ġwhy": 5600,
      "Ġcandid": 5601,
      "\\_": 5602,
      "structed": 5603,
      "oung": 5604,
      "bold": 5605,
      "Ġincludes": 5606,
      "PRE": 5607,
      "ĠMoreover": 5608,
      "Mark": 5609,
      "ĠIO": 5610,
      "shape": 5611,
      "81": 5612,
      "ards": 5613,
      "ads": 5614,
      "Ġreduced": 5615,
      "Ġbusiness": 5616,
      "Ġdenotes": 5617,
      "keyword": 5618,
      "Ġpopulation": 5619,
      "Ġlikely": 5620,
      "Assert": 5621,
      "OK": 5622,
      "ecause": 5623,
      "Channel": 5624,
      "Ġreported": 5625,
      "ogene": 5626,
      "unsigned": 5627,
      "password": 5628,
      "ĠShe": 5629,
      "Ġraise": 5630,
      "osed": 5631,
      "Ġwater": 5632,
      "aws": 5633,
      "ĠĠĠĠĠĠĠĠĠĠĠĠĠĠĠĠĠĠĠĠĠĠĠĠĠ": 5634,
      "})$.": 5635,
      "Ġsteps": 5636,
      "iffer": 5637,
      "Ġoperations": 5638,
      "Storage": 5639,
      "\\|_{": 5640,
      "ada": 5641,
      "NG": 5642,
      "ĠPy": 5643,
      "Ġrelevant": 5644,
      "abe": 5645,
      "Ġtool": 5646,
      "keys": 5647,
      "pendix": 5648,
      "Ġmsg": 5649,
      "ĠGe": 5650,
      "rive": 5651,
      "ĠURL": 5652,
      "Ġclos": 5653,
      "zing": 5654,
      "Ġdevelopment": 5655,
      "adoop": 5656,
      "TEST": 5657,
      "rb": 5658,
      "Ġrules": 5659,
      "Ġansw": 5660,
      "Ġca": 5661,
      "tili": 5662,
      "Ġmodes": 5663,
      "Ġ(*": 5664,
      "Ġcurves": 5665,
      "Ġ\"/": 5666,
      "gers": 5667,
      "install": 5668,
      "Ġappropri": 5669,
      "ffff": 5670,
      "lemented": 5671,
      "ensive": 5672,
      "Ġdb": 5673,
      "ried": 5674,
      "Ġconc": 5675,
      "ngth": 5676,
      "Member": 5677,
      "Ġdependence": 5678,
      "Ġensure": 5679,
      "Ġeq": 5680,
      "Ġexperiment": 5681,
      "esti": 5682,
      "Ġpresence": 5683,
      "Initial": 5684,
      "ingle": 5685,
      "Security": 5686,
      "rela": 5687,
      "Ġjavax": 5688,
      "Ġsymmetric": 5689,
      "Ġissue": 5690,
      "ĠVal": 5691,
      "Symfony": 5692,
      "Job": 5693,
      "zer": 5694,
      "Ġminim": 5695,
      "displaystyle": 5696,
      "ermal": 5697,
      "cmd": 5698,
      "Ġpul": 5699,
      "Tran": 5700,
      ")$-": 5701,
      "properties": 5702,
      "ought": 5703,
      "none": 5704,
      "Tool": 5705,
      "73": 5706,
      "ots": 5707,
      "Ġ(\"": 5708,
      "ampling": 5709,
      "Ġthings": 5710,
      "Ġbal": 5711,
      "ctu": 5712,
      "However": 5713,
      "Ġrem": 5714,
      "tip": 5715,
      "Ġattem": 5716,
      "Active": 5717,
      "Ġalt": 5718,
      "Ġapplications": 5719,
      "yes": 5720,
      "inline": 5721,
      "ĠTime": 5722,
      "Ġcoordinates": 5723,
      "ĠUse": 5724,
      "Any": 5725,
      "Ġalgorithms": 5726,
      "rot": 5727,
      "BC": 5728,
      "Pl": 5729,
      "Ġspectra": 5730,
      "=\"@": 5731,
      "riend": 5732,
      "eting": 5733,
      "Found": 5734,
      "oute": 5735,
      "Thus": 5736,
      "acc": 5737,
      "train": 5738,
      "TS": 5739,
      "ilib": 5740,
      "Ġ),": 5741,
      "Ġmatrices": 5742,
      "Queue": 5743,
      "dro": 5744,
      "onom": 5745,
      "Ġbasic": 5746,
      "Ġrepe": 5747,
      "sumer": 5748,
      "NE": 5749,
      "ategories": 5750,
      "hbar": 5751,
      "63": 5752,
      "circle": 5753,
      "Ġapi": 5754,
      "addr": 5755,
      "Ġfall": 5756,
      "Ġflat": 5757,
      "_-": 5758,
      "Ġcounter": 5759,
      "ĠBl": 5760,
      "ĠJohn": 5761,
      "ĠSci": 5762,
      "Jo": 5763,
      "Ġworking": 5764,
      "mc": 5765,
      "know": 5766,
      "perim": 5767,
      "txt": 5768,
      "stats": 5769,
      "Transaction": 5770,
      "Ġdepth": 5771,
      "Ġtasks": 5772,
      "Ġfive": 5773,
      "och": 5774,
      "62": 5775,
      "Ġdark": 5776,
      "asi": 5777,
      "JSON": 5778,
      "omorphic": 5779,
      "ITY": 5780,
      "atives": 5781,
      "assets": 5782,
      "icial": 5783,
      "Ġwallet": 5784,
      "han": 5785,
      "ixture": 5786,
      "ĠCl": 5787,
      "Can": 5788,
      "My": 5789,
      "Ġfully": 5790,
      "Ġsetup": 5791,
      "onical": 5792,
      "400": 5793,
      "utf": 5794,
      "Xml": 5795,
      "Ġquan": 5796,
      "Ġhtml": 5797,
      "romise": 5798,
      "home": 5799,
      "ĠNow": 5800,
      "Ð»": 5801,
      "ured": 5802,
      "Ġintroduce": 5803,
      "Ġreceived": 5804,
      "Ġstarting": 5805,
      "External": 5806,
      "Ġones": 5807,
      "]]": 5808,
      "Ġstudied": 5809,
      "Ġpropag": 5810,
      "els": 5811,
      "ighted": 5812,
      ")\\\\": 5813,
      "Ġgen": 5814,
      "Ġmember": 5815,
      "\"`": 5816,
      "ailed": 5817,
      "Ġblue": 5818,
      "odot": 5819,
      "Ġpartition": 5820,
      "Timeout": 5821,
      "limit": 5822,
      "[(": 5823,
      "UID": 5824,
      "=\"\"": 5825,
      "contin": 5826,
      "eli": 5827,
      "Ġsubject": 5828,
      "Bl": 5829,
      "Ġsingular": 5830,
      "rays": 5831,
      "istration": 5832,
      "network": 5833,
      "ACE": 5834,
      "exists": 5835,
      "mma": 5836,
      "IX": 5837,
      "enn": 5838,
      "Ġelem": 5839,
      "Ġlonger": 5840,
      "ĠJo": 5841,
      "Ġdiscuss": 5842,
      "aders": 5843,
      "Show": 5844,
      "Ġreplace": 5845,
      "Only": 5846,
      "Ġage": 5847,
      "94": 5848,
      "force": 5849,
      ")),": 5850,
      "}}^{": 5851,
      "Ġord": 5852,
      "dict": 5853,
      "Msg": 5854,
      "|_{": 5855,
      "ĠĠĠĠĠĠĠĠĠĠĠĠĠĠĠĠĠĠĠĠĠĠĠĠ": 5856,
      "Ġconstraint": 5857,
      "queue": 5858,
      "while": 5859,
      "thesis": 5860,
      "cho": 5861,
      "herit": 5862,
      "Ġwide": 5863,
      "FILE": 5864,
      "duce": 5865,
      "Ġprimary": 5866,
      ";/": 5867,
      "Ġdeal": 5868,
      "acted": 5869,
      "proposition": 5870,
      "rown": 5871,
      "uly": 5872,
      "El": 5873,
      "Ġlevels": 5874,
      "(!": 5875,
      "Ġyields": 5876,
      "bes": 5877,
      "Ġmock": 5878,
      "webpack": 5879,
      "Ġfeed": 5880,
      ",$": 5881,
      ".*": 5882,
      "olec": 5883,
      "Send": 5884,
      "onds": 5885,
      "Ġdecision": 5886,
      "Ġknowledge": 5887,
      "92": 5888,
      "Float": 5889,
      "Ġface": 5890,
      "Items": 5891,
      "ĠGoogle": 5892,
      "}&": 5893,
      "Post": 5894,
      "ilibri": 5895,
      "Ġquad": 5896,
      "Ġstrategy": 5897,
      "isk": 5898,
      "Ñĥ": 5899,
      "ĠOpen": 5900,
      "orted": 5901,
      "MB": 5902,
      "parameters": 5903,
      "2001": 5904,
      "ĠGaussian": 5905,
      "scroll": 5906,
      "Ġextended": 5907,
      "axis": 5908,
      "extension": 5909,
      "Matrix": 5910,
      "=\"\">": 5911,
      "ĠCre": 5912,
      "erson": 5913,
      "ĠSw": 5914,
      ")--": 5915,
      "################": 5916,
      "atible": 5917,
      "diag": 5918,
      "Ġstructures": 5919,
      "mapsto": 5920,
      "insert": 5921,
      "Ġdig": 5922,
      "Auto": 5923,
      "band": 5924,
      "DI": 5925,
      ")))": 5926,
      "entication": 5927,
      "holder": 5928,
      "hbox": 5929,
      ")},": 5930,
      "Ġcref": 5931,
      "stri": 5932,
      "schema": 5933,
      "Ġetc": 5934,
      "$;": 5935,
      "rome": 5936,
      "assive": 5937,
      "Ġelectron": 5938,
      "alo": 5939,
      "Ġ%}": 5940,
      "Ġinstanceof": 5941,
      "jected": 5942,
      "Theorem": 5943,
      "isting": 5944,
      "ulture": 5945,
      "Ġcli": 5946,
      "Main": 5947,
      "Ġprojection": 5948,
      "Ġidea": 5949,
      "======": 5950,
      "oring": 5951,
      "Ġforward": 5952,
      "stable": 5953,
      "Ġexc": 5954,
      "thread": 5955,
      "sets": 5956,
      "Ġasympto": 5957,
      "ĠPl": 5958,
      "93": 5959,
      "components": 5960,
      "jquery": 5961,
      "itation": 5962,
      "iber": 5963,
      "Ġcurrently": 5964,
      "lots": 5965,
      "tribution": 5966,
      "EXT": 5967,
      "2003": 5968,
      "Ġtransp": 5969,
      "Ġjoin": 5970,
      "\\{\\": 5971,
      "ĠFalse": 5972,
      "Ġsegment": 5973,
      "Ġcomputation": 5974,
      "hadoop": 5975,
      "'(": 5976,
      "ĠOut": 5977,
      "yntax": 5978,
      "ae": 5979,
      "important": 5980,
      "Ġadvan": 5981,
      "ĠHamiltonian": 5982,
      "Ġbtn": 5983,
      "Ġslow": 5984,
      "events": 5985,
      "SY": 5986,
      "Ġgrid": 5987,
      "Ġtell": 5988,
      "uby": 5989,
      "Ġquark": 5990,
      "Ġstellar": 5991,
      "ById": 5992,
      "Ġbounds": 5993,
      "Ġtransformation": 5994,
      "Network": 5995,
      "ĠSome": 5996,
      "Widget": 5997,
      "spring": 5998,
      "Ġneg": 5999,
      "Cond": 6000,
      "mat": 6001,
      "Ġmeasurement": 6002,
      "Ġfill": 6003,
      "ĠĠĠĠĠĠĠĠĠĠĠĠĠĠĠĠĠĠĠĠĠĠ": 6004,
      "Symbol": 6005,
      "onential": 6006,
      "VERSION": 6007,
      "$~": 6008,
      "wner": 6009,
      "ued": 6010,
      "Ġquality": 6011,
      "Ġpast": 6012,
      "cut": 6013,
      "ĠMethod": 6014,
      "ĠEvent": 6015,
      "loop": 6016,
      "Using": 6017,
      "SI": 6018,
      "Ġpassed": 6019,
      "save": 6020,
      "Scope": 6021,
      "pair": 6022,
      "det": 6023,
      "MOD": 6024,
      "Ġvectors": 6025,
      "160": 6026,
      "}({\\": 6027,
      "forward": 6028,
      "LOG": 6029,
      "Ġrecon": 6030,
      "track": 6031,
      "EC": 6032,
      "Ġincreases": 6033,
      "71": 6034,
      "stop": 6035,
      "icity": 6036,
      "Ġoffer": 6037,
      "Ġformation": 6038,
      "Ġem": 6039,
      "Ġfactors": 6040,
      "ship": 6041,
      "DA": 6042,
      "year": 6043,
      "Fr": 6044,
      "dropdown": 6045,
      "controller": 6046,
      "&=&": 6047,
      "tailed": 6048,
      "tsd": 6049,
      "Lock": 6050,
      "iers": 6051,
      "áĥ": 6052,
      "ham": 6053,
      "para": 6054,
      "oney": 6055,
      "Ġep": 6056,
      "Ġlatter": 6057,
      "Ġothers": 6058,
      "Ġtor": 6059,
      "alg": 6060,
      "ADD": 6061,
      "fect": 6062,
      "Ġcorrel": 6063,
      "diff": 6064,
      "tri": 6065,
      "ĠAfter": 6066,
      "Ġprom": 6067,
      "Ġstage": 6068,
      "kw": 6069,
      "Ġvertical": 6070,
      "Ġconsole": 6071,
      "pay": 6072,
      "selected": 6073,
      "Ġanti": 6074,
      "Ġbelong": 6075,
      "Ġdiagram": 6076,
      "Ġwaves": 6077,
      "TEX": 6078,
      "Ġhidden": 6079,
      "primary": 6080,
      "Ġhealth": 6081,
      "total": 6082,
      "ĠOff": 6083,
      "okie": 6084,
      "vs": 6085,
      "alled": 6086,
      "profile": 6087,
      "Bit": 6088,
      "ĠUnited": 6089,
      "press": 6090,
      "Ġinstruction": 6091,
      "WS": 6092,
      "Ġthreshold": 6093,
      "gex": 6094,
      "Ġquite": 6095,
      "Flags": 6096,
      "cb": 6097,
      "Ġstory": 6098,
      "Ġinflu": 6099,
      "Ġangular": 6100,
      "joint": 6101,
      "family": 6102,
      "Ġattributes": 6103,
      "flags": 6104,
      "ĠIS": 6105,
      "imin": 6106,
      "Ġheav": 6107,
      "ford": 6108,
      "Ġ[];": 6109,
      "Ġsl": 6110,
      "Loader": 6111,
      "Logger": 6112,
      "spect": 6113,
      "Ġsocial": 6114,
      "(){": 6115,
      ".__": 6116,
      "Ġremains": 6117,
      "Ġsimpl": 6118,
      "$/": 6119,
      "Ġcloud": 6120,
      "Resol": 6121,
      "TC": 6122,
      "typeof": 6123,
      "ursor": 6124,
      "pk": 6125,
      "Ġinteractions": 6126,
      "@\"": 6127,
      "Ġestimates": 6128,
      "legal": 6129,
      "berg": 6130,
      "Ġdifferential": 6131,
      "lyph": 6132,
      "arr": 6133,
      "matically": 6134,
      "Ġstra": 6135,
      "Ġkeys": 6136,
      "Eng": 6137,
      "GS": 6138,
      "desc": 6139,
      "Ġlibrary": 6140,
      "TABLE": 6141,
      "Ġcomes": 6142,
      "Ġask": 6143,
      "ierarch": 6144,
      "jective": 6145,
      "aul": 6146,
      "Internal": 6147,
      "BA": 6148,
      "tikz": 6149,
      "ru": 6150,
      "switch": 6151,
      "Ġscreen": 6152,
      "////////////////////////////////": 6153,
      "Ġbroad": 6154,
      "++;": 6155,
      "Pattern": 6156,
      "variance": 6157,
      "ARY": 6158,
      "Ġcharg": 6159,
      "tries": 6160,
      "isation": 6161,
      "MAX": 6162,
      "ĠNational": 6163,
      "Ġbul": 6164,
      "Ġpointer": 6165,
      "Ġrecover": 6166,
      "Ġrelease": 6167,
      "anguage": 6168,
      "Ġmapping": 6169,
      ")+\\": 6170,
      "iciency": 6171,
      "~$\\": 6172,
      "icted": 6173,
      "Ġencoding": 6174,
      "NR": 6175,
      "Ljava": 6176,
      "Ġexistence": 6177,
      "ele": 6178,
      "','": 6179,
      "Database": 6180,
      "91": 6181,
      "ĠEnd": 6182,
      "external": 6183,
      "MENT": 6184,
      "Ġobserve": 6185,
      "atalog": 6186,
      "Ġverify": 6187,
      "served": 6188,
      "Ġanalog": 6189,
      "_->": 6190,
      "Ġprim": 6191,
      "aint": 6192,
      "Ġbeh": 6193,
      "Ġservices": 6194,
      "dp": 6195,
      "BP": 6196,
      "]:": 6197,
      "inct": 6198,
      "Ġapproaches": 6199,
      "Ġstable": 6200,
      "61": 6201,
      "Register": 6202,
      "irit": 6203,
      "ĠAmerican": 6204,
      "anger": 6205,
      "Ġoutside": 6206,
      "Ġshift": 6207,
      "||": 6208,
      "sities": 6209,
      "Ġcompany": 6210,
      "Panel": 6211,
      "jpg": 6212,
      "aults": 6213,
      "ilibrium": 6214,
      "Ġmatching": 6215,
      "ucket": 6216,
      "Ġlot": 6217,
      "flu": 6218,
      "sume": 6219,
      "ustr": 6220,
      "CHE": 6221,
      "Ġestimated": 6222,
      "dates": 6223,
      "ĠOct": 6224,
      "ULE": 6225,
      "ĠNO": 6226,
      "Ġconvergence": 6227,
      "Ġessential": 6228,
      "ĠCopy": 6229,
      "lg": 6230,
      "Ġresources": 6231,
      "tools": 6232,
      "assertEqual": 6233,
      "Ġimpact": 6234,
      "Ġrates": 6235,
      "help": 6236,
      "ĠAss": 6237,
      "Init": 6238,
      "Ġlock": 6239,
      "Selector": 6240,
      "enef": 6241,
      "ĠCons": 6242,
      "ĠForm": 6243,
      "()).": 6244,
      "Ġmorph": 6245,
      "ĠII": 6246,
      "two": 6247,
      "Ġpressure": 6248,
      "horizontal": 6249,
      "sort": 6250,
      "Ġentity": 6251,
      "generate": 6252,
      "names": 6253,
      "Ġviol": 6254,
      "Ġgalaxy": 6255,
      "Ġcommunity": 6256,
      "})$,": 6257,
      "Ġgoal": 6258,
      "()));": 6259,
      "Ġalloc": 6260,
      "single": 6261,
      "Ġclean": 6262,
      "Ġscattering": 6263,
      "Ġ{'": 6264,
      "Ġsatisfy": 6265,
      "Ġidx": 6266,
      "impl": 6267,
      "ancel": 6268,
      "Ġvanish": 6269,
      "ÃŃ": 6270,
      "Ġsignificantly": 6271,
      "Ġappropriate": 6272,
      "Ġstrength": 6273,
      "Ġfunc": 6274,
      "Expr": 6275,
      "}}$,": 6276,
      "Ġmix": 6277,
      "large": 6278,
      "ares": 6279,
      "language": 6280,
      "Ġfinally": 6281,
      "Ġfraction": 6282,
      "but": 6283,
      "rong": 6284,
      ")));": 6285,
      "Ġserial": 6286,
      "job": 6287,
      "bust": 6288,
      "Ġforms": 6289,
      "IMP": 6290,
      "istor": 6291,
      "otal": 6292,
      "lusters": 6293,
      "}}$.": 6294,
      "Account": 6295,
      "printf": 6296,
      "Ġdeveloped": 6297,
      "ymmetric": 6298,
      "lor": 6299,
      "Activity": 6300,
      "throws": 6301,
      "123": 6302,
      "Ġnotation": 6303,
      ")-\\": 6304,
      "aking": 6305,
      "ocker": 6306,
      "IE": 6307,
      "Ġwriting": 6308,
      "Ġslight": 6309,
      "Âł": 6310,
      "Ġrotation": 6311,
      "Ġonline": 6312,
      "Ġassumed": 6313,
      "aser": 6314,
      "aker": 6315,
      "Ġinc": 6316,
      "Ġengine": 6317,
      "Ġchanged": 6318,
      "))$": 6319,
      "Ġconsists": 6320,
      "Vol": 6321,
      "Pool": 6322,
      "ography": 6323,
      "Ġgeometry": 6324,
      "Ġair": 6325,
      "duction": 6326,
      "echo": 6327,
      "Ġpor": 6328,
      "Ġsix": 6329,
      "Ġblocks": 6330,
      "urope": 6331,
      "Ġreduce": 6332,
      "ĠAir": 6333,
      "-$": 6334,
      "configuration": 6335,
      "CF": 6336,
      "Ġregard": 6337,
      "assertEquals": 6338,
      "Ġtermin": 6339,
      "iques": 6340,
      "SIZE": 6341,
      "pecially": 6342,
      "amely": 6343,
      "PAR": 6344,
      "ratic": 6345,
      "Ġconnect": 6346,
      "Hz": 6347,
      "Ġcop": 6348,
      "128": 6349,
      "Ġdimensions": 6350,
      "'.": 6351,
      "ĠEqu": 6352,
      "Before": 6353,
      "Ġmasses": 6354,
      "Ã³": 6355,
      "_,": 6356,
      "ROM": 6357,
      "rate": 6358,
      "DS": 6359,
      "Pack": 6360,
      "*)": 6361,
      "arante": 6362,
      "Ġcircle": 6363,
      "Grid": 6364,
      "urnal": 6365,
      "Generic": 6366,
      "greg": 6367,
      "Ġfn": 6368,
      "Ġhandler": 6369,
      "Ġbad": 6370,
      "mber": 6371,
      ">\\": 6372,
      "Ġcomment": 6373,
      "Ã¤": 6374,
      "Ġaccept": 6375,
      "sts": 6376,
      "Red": 6377,
      "alloc": 6378,
      "ĠIntern": 6379,
      "Ġcharacters": 6380,
      "Ġemail": 6381,
      "Ġosc": 6382,
      "ĠKey": 6383,
      "Ġbuilt": 6384,
      "Enum": 6385,
      "Iterator": 6386,
      "Ġplatform": 6387,
      "NotNull": 6388,
      "FIG": 6389,
      "2002": 6390,
      "Desc": 6391,
      "Ġland": 6392,
      "ights": 6393,
      "ĠIP": 6394,
      "angular": 6395,
      "Directory": 6396,
      "screen": 6397,
      "Ġindicates": 6398,
      "ping": 6399,
      "\\/": 6400,
      "Ġefficient": 6401,
      "Ġprediction": 6402,
      "Ø§": 6403,
      "}\\,\\": 6404,
      "Proxy": 6405,
      "ucture": 6406,
      "cref": 6407,
      "Ġpy": 6408,
      "Windows": 6409,
      "These": 6410,
      "Ġcalculate": 6411,
      "Ġmolec": 6412,
      "sertion": 6413,
      "Ġring": 6414,
      "random": 6415,
      "izations": 6416,
      "mass": 6417,
      "ĠWorld": 6418,
      "ipage": 6419,
      "ĠNode": 6420,
      "Ġpreser": 6421,
      "\",\"": 6422,
      "Ġwin": 6423,
      "record": 6424,
      "Ġpure": 6425,
      "ĠMo": 6426,
      "ĠTHE": 6427,
      "oman": 6428,
      "Conf": 6429,
      "Ġrecogn": 6430,
      "sample": 6431,
      "minipage": 6432,
      "cccc": 6433,
      "fly": 6434,
      "symbol": 6435,
      "Ret": 6436,
      "Media": 6437,
      "ali": 6438,
      "Ġng": 6439,
      "Ġusually": 6440,
      "STAT": 6441,
      "ĠText": 6442,
      "Ġcalculation": 6443,
      "}{|": 6444,
      "reset": 6445,
      "}</": 6446,
      "Ġamplitude": 6447,
      "condition": 6448,
      "aff": 6449,
      "Ġoptical": 6450,
      "Ġunits": 6451,
      "Ġcontact": 6452,
      "Ġsquare": 6453,
      "tick": 6454,
      "ĠWork": 6455,
      ")}_{": 6456,
      "sys": 6457,
      "Rece": 6458,
      "scription": 6459,
      "NavBarCell": 6460,
      "fail": 6461,
      "Ġclassification": 6462,
      "fi": 6463,
      "Adapter": 6464,
      "Am": 6465,
      "hidden": 6466,
      "Mapping": 6467,
      "Ġdir": 6468,
      "ĠOption": 6469,
      "[$": 6470,
      "Ġgradient": 6471,
      "$),": 6472,
      "Ġthought": 6473,
      "Ġio": 6474,
      "Ġcry": 6475,
      "hout": 6476,
      "ifies": 6477,
      "Ġflag": 6478,
      "Ġcoordinate": 6479,
      "Cons": 6480,
      "oks": 6481,
      "iral": 6482,
      "amental": 6483,
      "ĠAlso": 6484,
      "Ġoptimization": 6485,
      "ĠTask": 6486,
      "Ġarchitect": 6487,
      "green": 6488,
      "riteria": 6489,
      ")}}": 6490,
      "ili": 6491,
      "ude": 6492,
      "Pointer": 6493,
      "ĠChar": 6494,
      "DC": 6495,
      "ango": 6496,
      "Ġpercent": 6497,
      "Ġ^{": 6498,
      "manager": 6499,
      ":}": 6500,
      "missions": 6501,
      "}$)": 6502,
      "Ġdiscover": 6503,
      "Err": 6504,
      "bel": 6505,
      "Ġ[\\": 6506,
      "Ġ$|\\": 6507,
      "Ġsecurity": 6508,
      "tabs": 6509,
      "Ġvisual": 6510,
      "rist": 6511,
      "Feature": 6512,
      "bon": 6513,
      "Editor": 6514,
      "argument": 6515,
      "Ġmechanism": 6516,
      "[-": 6517,
      "logger": 6518,
      "Ġcapture": 6519,
      "iders": 6520,
      "Ġutil": 6521,
      "Ġseems": 6522,
      "Introduction": 6523,
      "ria": 6524,
      "Events": 6525,
      "çļ": 6526,
      "master": 6527,
      "'])": 6528,
      "git": 6529,
      "handler": 6530,
      "cus": 6531,
      "ĠService": 6532,
      "Elements": 6533,
      "bp": 6534,
      "ĠTODO": 6535,
      "Ġremoved": 6536,
      "GC": 6537,
      "when": 6538,
      "Ġreader": 6539,
      "chain": 6540,
      "Ġgreater": 6541,
      "special": 6542,
      "UTF": 6543,
      "anted": 6544,
      "ĠJanuary": 6545,
      "çļĦ": 6546,
      "security": 6547,
      "=\"${": 6548,
      "Ġvisible": 6549,
      "Keys": 6550,
      "Ġsound": 6551,
      "PATH": 6552,
      "Ġreduction": 6553,
      "}{(": 6554,
      "____": 6555,
      ")\">": 6556,
      "trigger": 6557,
      "Ġagent": 6558,
      "Ġtransport": 6559,
      "vc": 6560,
      "Ġcontributions": 6561,
      "urch": 6562,
      "Ġdevi": 6563,
      "ĠSU": 6564,
      "Ġstarted": 6565,
      "plot": 6566,
      "Ġawait": 6567,
      "GR": 6568,
      "Ġcalculations": 6569,
      "Ġunknown": 6570,
      "ama": 6571,
      "Ġappears": 6572,
      "ogeneous": 6573,
      "ĠAug": 6574,
      "scripts": 6575,
      "Ġvisit": 6576,
      "Ġupon": 6577,
      "pare": 6578,
      "Ġmask": 6579,
      "LL": 6580,
      "Ġgain": 6581,
      "Attributes": 6582,
      "den": 6583,
      "ertific": 6584,
      "contains": 6585,
      "edule": 6586,
      "Ġoccur": 6587,
      "Ġactions": 6588,
      "eries": 6589,
      "CI": 6590,
      "ĠĠĠĠĠĠĠĠĠĠĠĠĠĠĠĠĠĠĠĠĠĠĠĠĠĠĠĠĠĠĠĠĠĠĠĠĠĠĠĠĠĠĠ": 6591,
      "LIC": 6592,
      "Ġcountry": 6593,
      "ĠFunction": 6594,
      "Ġformal": 6595,
      "Ġattention": 6596,
      "Ġround": 6597,
      "tmp": 6598,
      "Ġlimited": 6599,
      "ĠVersion": 6600,
      "Ġ{$": 6601,
      "istance": 6602,
      "Ġoscill": 6603,
      "Double": 6604,
      "Ġ\"\"": 6605,
      "ĠSO": 6606,
      "helper": 6607,
      "STATE": 6608,
      "ancy": 6609,
      "ills": 6610,
      "win": 6611,
      "cluster": 6612,
      "Plugin": 6613,
      "Ġpush": 6614,
      "ki": 6615,
      "Statement": 6616,
      "Ġreson": 6617,
      "zon": 6618,
      "Ġdetailed": 6619,
      "Ġ(_": 6620,
      "tor": 6621,
      "ĠDefault": 6622,
      "apply": 6623,
      "Ġauthors": 6624,
      "Ġsort": 6625,
      "Ġgap": 6626,
      "Ġbin": 6627,
      "Ġproduce": 6628,
      "ingu": 6629,
      "Ġ=========": 6630,
      "ĠAR": 6631,
      "What": 6632,
      "Ġtesting": 6633,
      "IPT": 6634,
      "Ġmicro": 6635,
      "Ġimplements": 6636,
      "Ġmodified": 6637,
      "ĠĠĠĠĠĠĠĠĠĠĠĠĠĠĠĠĠĠĠĠĠĠĠĠĠĠ": 6638,
      "Ġplayer": 6639,
      "ï¼": 6640,
      "MR": 6641,
      "Ġul": 6642,
      "ĠBase": 6643,
      "Ġstorage": 6644,
      "called": 6645,
      "Ġproduced": 6646,
      "aved": 6647,
      "ĠGroup": 6648,
      "Ġremaining": 6649,
      "bigl": 6650,
      "Ġretr": 6651,
      "Ġ..": 6652,
      "anning": 6653,
      "NT": 6654,
      "IB": 6655,
      "ticles": 6656,
      "Ðº": 6657,
      "Failed": 6658,
      "Ġcity": 6659,
      "termin": 6660,
      "cong": 6661,
      "Ġconclude": 6662,
      "theme": 6663,
      "Ġrecently": 6664,
      "frag": 6665,
      "Ġinvalid": 6666,
      "Ġgrowth": 6667,
      "arc": 6668,
      "Ġdeli": 6669,
      "Ġfeel": 6670,
      "Ġparticip": 6671,
      "Therefore": 6672,
      "product": 6673,
      "Ġmusic": 6674,
      "SER": 6675,
      "Depend": 6676,
      "Ġissues": 6677,
      "Ġminimal": 6678,
      "metadata": 6679,
      "ssim": 6680,
      "Ġgraphs": 6681,
      "ĠConfig": 6682,
      "Part": 6683,
      ",{\\": 6684,
      "Warning": 6685,
      "ered": 6686,
      "ece": 6687,
      "collection": 6688,
      "Ġaim": 6689,
      "Ġinduced": 6690,
      "ĠUsing": 6691,
      "Ġxmlns": 6692,
      "bur": 6693,
      "MT": 6694,
      "Ġcombination": 6695,
      "XML": 6696,
      "partment": 6697,
      "Ġicon": 6698,
      "Close": 6699,
      "Ġfilm": 6700,
      "Ġfluctu": 6701,
      "HR": 6702,
      "osity": 6703,
      "Ġscaling": 6704,
      "wild": 6705,
      "ini": 6706,
      "Ġhappen": 6707,
      "Ġwatch": 6708,
      "asc": 6709,
      "ĠWhile": 6710,
      "Ġasync": 6711,
      "Ġpati": 6712,
      "Ġspecify": 6713,
      "Ġtrace": 6714,
      "bigr": 6715,
      "ox": 6716,
      "Ġexperience": 6717,
      "ToString": 6718,
      "Duration": 6719,
      "->_": 6720,
      "su": 6721,
      "Ġgeneration": 6722,
      "!!": 6723,
      "Ġdrop": 6724,
      "Ġstraight": 6725,
      "ĠWhat": 6726,
      "Ġnature": 6727,
      "Scroll": 6728,
      "Ġreq": 6729,
      "Ġcontrast": 6730,
      "Ġobservation": 6731,
      "Fail": 6732,
      "Ġsave": 6733,
      "Ġscript": 6734,
      "Ġmagnitude": 6735,
      "since": 6736,
      "Ġtempor": 6737,
      "Ġali": 6738,
      "Ġclusters": 6739,
      "Runtime": 6740,
      "asic": 6741,
      "Ġbuilder": 6742,
      "PORT": 6743,
      "]}": 6744,
      "Gr": 6745,
      ":=": 6746,
      "ament": 6747,
      "leased": 6748,
      "Ġlayers": 6749,
      "Ġhel": 6750,
      "Ġupdated": 6751,
      "Ġdebug": 6752,
      "ĠUpdate": 6753,
      "Ġarticle": 6754,
      "eness": 6755,
      "Ġcred": 6756,
      "Ġcollision": 6757,
      "Ġcause": 6758,
      "ĠPres": 6759,
      "Ġconstants": 6760,
      "ĠStates": 6761,
      "rest": 6762,
      "Ġespecially": 6763,
      "Ġcompletely": 6764,
      "Ġprotocol": 6765,
      "Ġpick": 6766,
      "mathop": 6767,
      "omb": 6768,
      "ĠOther": 6769,
      "Profile": 6770,
      "mi": 6771,
      "browser": 6772,
      "dy": 6773,
      "shadow": 6774,
      "ney": 6775,
      "ĠMc": 6776,
      "Ġentries": 6777,
      "Ġschool": 6778,
      "{%": 6779,
      "tives": 6780,
      "ano": 6781,
      "Ġoverall": 6782,
      "enses": 6783,
      "Repository": 6784,
      "Ġwor": 6785,
      "Layer": 6786,
      "Ġtowards": 6787,
      "Finally": 6788,
      "Ġmessages": 6789,
      "usive": 6790,
      "generated": 6791,
      "Ġidentify": 6792,
      "Ġfast": 6793,
      "Ġbehavi": 6794,
      "nn": 6795,
      "ĠField": 6796,
      "Protocol": 6797,
      "wrapper": 6798,
      "Sync": 6799,
      "ehic": 6800,
      "See": 6801,
      "Ġ{{": 6802,
      "coded": 6803,
      ")[": 6804,
      "\\;": 6805,
      "ĠClo": 6806,
      "Ġagreement": 6807,
      "BUG": 6808,
      "phys": 6809,
      "Ġmar": 6810,
      "iterator": 6811,
      "DT": 6812,
      "FS": 6813,
      "Ġodd": 6814,
      "Ġbuilding": 6815,
      "Java": 6816,
      "unt": 6817,
      "props": 6818,
      "lb": 6819,
      "WA": 6820,
      "Ġfoot": 6821,
      "Ġshared": 6822,
      "RR": 6823,
      "Browser": 6824,
      "lesssim": 6825,
      "getName": 6826,
      "bytes": 6827,
      "trl": 6828,
      "$_{": 6829,
      "mediately": 6830,
      "phot": 6831,
      "Ġtrigger": 6832,
      "ĠOper": 6833,
      "picker": 6834,
      "aset": 6835,
      "Ġproducts": 6836,
      "Ġhypo": 6837,
      "Ġidentified": 6838,
      "SQL": 6839,
      "VM": 6840,
      "Ġdifficult": 6841,
      "Ġener": 6842,
      "ĠCall": 6843,
      "Ġbeam": 6844,
      "Ġdriv": 6845,
      "ĠAN": 6846,
      "Ġabsor": 6847,
      "tk": 6848,
      "Ġtriv": 6849,
      "Prop": 6850,
      "Transform": 6851,
      "Mo": 6852,
      "pool": 6853,
      "idx": 6854,
      "INS": 6855,
      "Ġtechniques": 6856,
      ",\\\\": 6857,
      "Ġ\"<": 6858,
      "blem": 6859,
      "unded": 6860,
      "roug": 6861,
      "\\)": 6862,
      "ONE": 6863,
      "direct": 6864,
      "Car": 6865,
      "cludes": 6866,
      "elves": 6867,
      "Ġbenef": 6868,
      "Memory": 6869,
      "udes": 6870,
      "Ġparallel": 6871,
      "oti": 6872,
      "Ġshare": 6873,
      "roughout": 6874,
      "Ġguarante": 6875,
      "eder": 6876,
      "Ġfront": 6877,
      "Cl": 6878,
      "Ġmut": 6879,
      "${\\": 6880,
      "ĠBar": 6881,
      "Ġradio": 6882,
      "Func": 6883,
      "coming": 6884,
      "3333": 6885,
      "ck": 6886,
      "Ġsituation": 6887,
      "$:": 6888,
      "Ġthick": 6889,
      "Framework": 6890,
      "Ġcoefficient": 6891,
      "Ġactivity": 6892,
      "LECT": 6893,
      "opic": 6894,
      "paragraph": 6895,
      "Wrapper": 6896,
      "Ġmachine": 6897,
      "Ġcolumns": 6898,
      "ĠRead": 6899,
      "urations": 6900,
      "ifically": 6901,
      "![": 6902,
      "Ġregime": 6903,
      "ih": 6904,
      "Ġvary": 6905,
      "Ġrespon": 6906,
      "Ġ[[": 6907,
      "ĠLandroid": 6908,
      "temp": 6909,
      "equence": 6910,
      "Ġunless": 6911,
      "120": 6912,
      "Ġlemma": 6913,
      "Global": 6914,
      "jar": 6915,
      "Ġqual": 6916,
      "Tra": 6917,
      "Variable": 6918,
      "Ġsubgroup": 6919,
      "parser": 6920,
      "Step": 6921,
      "cribe": 6922,
      "Ġsuit": 6923,
      "ĠÃ": 6924,
      "gies": 6925,
      "Ġmissing": 6926,
      "_(": 6927,
      "Ġachieve": 6928,
      "Ġpoli": 6929,
      "rd": 6930,
      "Ġnothing": 6931,
      "iteral": 6932,
      "Ġlabels": 6933,
      "tivation": 6934,
      "avel": 6935,
      "Ġthing": 6936,
      "Ġgenerally": 6937,
      "1999": 6938,
      "Details": 6939,
      "NULL": 6940,
      "Pop": 6941,
      "JS": 6942,
      "attributes": 6943,
      "IST": 6944,
      "ocation": 6945,
      "cline": 6946,
      "ĠĠĠĠĠĠĠĠĠĠĠĠĠĠĠĠĠĠĠĠĠĠĠĠĠĠĠĠĠ": 6947,
      "ĠPe": 6948,
      "ĠFinally": 6949,
      "Ġweights": 6950,
      "OB": 6951,
      "atur": 6952,
      "Print": 6953,
      "acu": 6954,
      "bu": 6955,
      "hide": 6956,
      "Ġscore": 6957,
      "Ġelect": 6958,
      "EV": 6959,
      "Ġpaths": 6960,
      "ĠTe": 6961,
      "Ġfunctional": 6962,
      "Ġcells": 6963,
      "Ġoptional": 6964,
      "Ġexponential": 6965,
      "ober": 6966,
      "ilation": 6967,
      "Ġreve": 6968,
      "Ġindicate": 6969,
      "Ġss": 6970,
      "Ġrights": 6971,
      "ille": 6972,
      "navList": 6973,
      "Ġrg": 6974,
      "Author": 6975,
      "PU": 6976,
      "Ġgovernment": 6977,
      "Ġalthough": 6978,
      "enced": 6979,
      "Cluster": 6980,
      "Ġscenario": 6981,
      "emes": 6982,
      "ellow": 6983,
      "Success": 6984,
      "ĠEurope": 6985,
      "prefix": 6986,
      "ĠGets": 6987,
      "=>": 6988,
      "Ġlive": 6989,
      "Ġnucle": 6990,
      "Ġsus": 6991,
      "Full": 6992,
      "Mar": 6993,
      "such": 6994,
      "algorithm": 6995,
      "Te": 6996,
      "Ġirre": 6997,
      "RAN": 6998,
      "Ġdiscrete": 6999,
      "Constants": 7000,
      "Files": 7001,
      "Diag": 7002,
      "filename": 7003,
      "Ġpreviously": 7004,
      "Dest": 7005,
      "Space": 7006,
      "words": 7007,
      "Ġdatasets": 7008,
      "bing": 7009,
      "Ġmentioned": 7010,
      "services": 7011,
      "dialog": 7012,
      "^*$": 7013,
      "entials": 7014,
      "AX": 7015,
      "itz": 7016,
      "Ġclearly": 7017,
      "assign": 7018,
      "ĠView": 7019,
      "Ġformer": 7020,
      "Ġgets": 7021,
      "dash": 7022,
      "ĠApr": 7023,
      "ĠCode": 7024,
      "tbody": 7025,
      "ĠIOException": 7026,
      "Ġthermal": 7027,
      "account": 7028,
      "sy": 7029,
      "Ġsignature": 7030,
      "%%%%": 7031,
      "CHECK": 7032,
      "fixed": 7033,
      "iversal": 7034,
      "Seg": 7035,
      "triv": 7036,
      "Ġtheoretical": 7037,
      "Ġexpress": 7038,
      "Ġtypeof": 7039,
      "Ġunderlying": 7040,
      "Perm": 7041,
      "Sol": 7042,
      "Ġstrongly": 7043,
      "ĠEach": 7044,
      "Ġrepresented": 7045,
      "ĠNumber": 7046,
      "collapse": 7047,
      "Ġdynamic": 7048,
      "Ġ\\(\\": 7049,
      "(__": 7050,
      "La": 7051,
      "provider": 7052,
      ".&": 7053,
      "Ġconvex": 7054,
      "Ġappend": 7055,
      "aration": 7056,
      "Ġprefer": 7057,
      "zone": 7058,
      "Ġentropy": 7059,
      "depth": 7060,
      "Ġlove": 7061,
      "Ġsizeof": 7062,
      "ĠHigh": 7063,
      "ĠjQuery": 7064,
      "ðŁ": 7065,
      "Ġtab": 7066,
      "Parse": 7067,
      "Ġkine": 7068,
      "tags": 7069,
      "Ġexhib": 7070,
      "loyment": 7071,
      "ĠId": 7072,
      "ĠInteger": 7073,
      "Socket": 7074,
      "Ġlocated": 7075,
      "Ġprogress": 7076,
      "Remove": 7077,
      "ĠYork": 7078,
      "nil": 7079,
      "Ġseason": 7080,
      "prev": 7081,
      "bad": 7082,
      "libr": 7083,
      "Ġbundle": 7084,
      "Ġestim": 7085,
      "Ġarm": 7086,
      "Ġcalls": 7087,
      "Ġdenoted": 7088,
      "andra": 7089,
      "Ġdidn": 7090,
      "DM": 7091,
      "decl": 7092,
      "Ġtraject": 7093,
      "Ġscales": 7094,
      "ĠRed": 7095,
      "bum": 7096,
      "verti": 7097,
      "mask": 7098,
      "rypt": 7099,
      "ĠTim": 7100,
      "Ġnews": 7101,
      "Ġquick": 7102,
      "Ġpseud": 7103,
      "Ġenabled": 7104,
      "Ġprocessing": 7105,
      "ĠBr": 7106,
      "algebra": 7107,
      "Ġwon": 7108,
      "Ġvs": 7109,
      "$};": 7110,
      "URI": 7111,
      "Ġqueue": 7112,
      "Ġencode": 7113,
      "ĠInitial": 7114,
      "sym": 7115,
      "FE": 7116,
      "Ġdesired": 7117,
      "Ġmarket": 7118,
      "inted": 7119,
      "Registry": 7120,
      "Ġcycle": 7121,
      ")\"": 7122,
      "Ġevidence": 7123,
      "complete": 7124,
      "bc": 7125,
      "ĠAND": 7126,
      "Common": 7127,
      "required": 7128,
      "Pe": 7129,
      "fd": 7130,
      "Ġvalign": 7131,
      "fg": 7132,
      "ĠSep": 7133,
      "Ġhole": 7134,
      "Ġuncertainty": 7135,
      "Nodes": 7136,
      "LINE": 7137,
      "tfrac": 7138,
      "NA": 7139,
      "Ġonto": 7140,
      "video": 7141,
      "ilit": 7142,
      "illa": 7143,
      "ello": 7144,
      "Ġever": 7145,
      "hi": 7146,
      "Ġtoday": 7147,
      "details": 7148,
      "Ġmeaning": 7149,
      "errors": 7150,
      "colLast": 7151,
      "well": 7152,
      "mn": 7153,
      "Ġoccurs": 7154,
      "Ġrecomm": 7155,
      "\\}$.": 7156,
      "Pres": 7157,
      "Ñı": 7158,
      "ouch": 7159,
      "Ġproved": 7160,
      "Ġexplicitly": 7161,
      "ha": 7162,
      "Ġconstructor": 7163,
      "ĠSouth": 7164,
      "Ġprefix": 7165,
      "Br": 7166,
      "enchmark": 7167,
      "Ġstation": 7168,
      "Abstract": 7169,
      "Ġdelay": 7170,
      "ĠHar": 7171,
      "Ġperfect": 7172,
      "Ġextract": 7173,
      "flat": 7174,
      "enomen": 7175,
      "CRE": 7176,
      "rase": 7177,
      "herited": 7178,
      "}})": 7179,
      "izable": 7180,
      "Ġdire": 7181,
      "vee": 7182,
      "Ġparam": 7183,
      "ferred": 7184,
      "})}": 7185,
      "ilarly": 7186,
      "protected": 7187,
      "phone": 7188,
      "wik": 7189,
      "Ġmath": 7190,
      "Single": 7191,
      "unn": 7192,
      "Ġevaluation": 7193,
      "junit": 7194,
      "plus": 7195,
      "Scale": 7196,
      "Ġsections": 7197,
      "IND": 7198,
      "Ġctx": 7199,
      "}}_{\\": 7200,
      "vised": 7201,
      "Ġpoly": 7202,
      "Ġpropor": 7203,
      "HER": 7204,
      "execute": 7205,
      "Ġ\",": 7206,
      "Ġ=======": 7207,
      "Ġbey": 7208,
      "Ġcomplexity": 7209,
      "safe": 7210,
      "]$.": 7211,
      "ĉĉĉĉĉĉĉĉĉ": 7212,
      "TIME": 7213,
      "Ġcontained": 7214,
      "Ġmetadata": 7215,
      "clusions": 7216,
      "Ġstrings": 7217,
      "Ġliterature": 7218,
      "Props": 7219,
      "iggs": 7220,
      "Ġbeyond": 7221,
      "dfrac": 7222,
      "Ġlib": 7223,
      "Ġideal": 7224,
      "ajax": 7225,
      "Ġevaluate": 7226,
      "Attr": 7227,
      "Ġinverse": 7228,
      "unique": 7229,
      "headers": 7230,
      "swarm": 7231,
      "Pay": 7232,
      "READ": 7233,
      "illis": 7234,
      "vature": 7235,
      "maven": 7236,
      "actic": 7237,
      "chor": 7238,
      "erial": 7239,
      "ampa": 7240,
      "antic": 7241,
      "ĠLa": 7242,
      "colFirst": 7243,
      "sitivity": 7244,
      "------------": 7245,
      "Ġlooking": 7246,
      "NOT": 7247,
      "centr": 7248,
      "Math": 7249,
      "editor": 7250,
      "Ġsatisfying": 7251,
      "mann": 7252,
      "åı": 7253,
      "enge": 7254,
      "ITE": 7255,
      "ocaml": 7256,
      "views": 7257,
      "tests": 7258,
      "}[\\": 7259,
      "typedef": 7260,
      "/(": 7261,
      "Ġenable": 7262,
      "allclasses": 7263,
      "agr": 7264,
      "Ġextend": 7265,
      "identifier": 7266,
      "Domain": 7267,
      "wildfly": 7268,
      "ĠAg": 7269,
      "rew": 7270,
      "Prefix": 7271,
      "Resources": 7272,
      "Ġslightly": 7273,
      "Ġsummary": 7274,
      "OUT": 7275,
      "Ġraw": 7276,
      "Ġdifferences": 7277,
      "tained": 7278,
      "Route": 7279,
      "Ġimmediately": 7280,
      "ĠCity": 7281,
      "Ġremark": 7282,
      "Identifier": 7283,
      "PER": 7284,
      "Ġcontroller": 7285,
      "functions": 7286,
      "Ġbrowser": 7287,
      "brid": 7288,
      "longrightarrow": 7289,
      "transition": 7290,
      "IVE": 7291,
      "Ġ\\&": 7292,
      "Ġsolve": 7293,
      "Collections": 7294,
      "CESS": 7295,
      "ĠMessage": 7296,
      "ICE": 7297,
      "Ġdoing": 7298,
      "ĠBO": 7299,
      "shall": 7300,
      "ourier": 7301,
      "leep": 7302,
      "Ġnamed": 7303,
      "Gu": 7304,
      "some": 7305,
      "Ġ\\!": 7306,
      "ĠĠĠĠĠĠĠĠĠĠĠĠĠĠĠĠĊ": 7307,
      "men": 7308,
      "Ġintegration": 7309,
      "amin": 7310,
      "Ġinstances": 7311,
      "poch": 7312,
      "Ġestimation": 7313,
      "Ġharmon": 7314,
      "serial": 7315,
      "integr": 7316,
      "Ġintr": 7317,
      "Ġabstract": 7318,
      "Proto": 7319,
      "svg": 7320,
      "Ġdetected": 7321,
      "simple": 7322,
      "Ġrelatively": 7323,
      "Ġferm": 7324,
      "article": 7325,
      "Ġfundamental": 7326,
      "Ġhighly": 7327,
      "Ġtypical": 7328,
      "compiler": 7329,
      "Ġconstructed": 7330,
      "Generator": 7331,
      "ped": 7332,
      "formal": 7333,
      "ĠNorth": 7334,
      "Ġgeneric": 7335,
      "general": 7336,
      "?>": 7337,
      "Ġnavigation": 7338,
      "spin": 7339,
      "Ġlargest": 7340,
      "Ġschema": 7341,
      "ĠHand": 7342,
      "ĠLie": 7343,
      "ena": 7344,
      "sect": 7345,
      "Ġconsidering": 7346,
      "Selection": 7347,
      "children": 7348,
      "ientation": 7349,
      "DP": 7350,
      "Trace": 7351,
      "Ġnotice": 7352,
      "\"><!--": 7353,
      "ses": 7354,
      ".'": 7355,
      "Ġbos": 7356,
      "ites": 7357,
      "Ġrect": 7358,
      "road": 7359,
      "rams": 7360,
      "Simple": 7361,
      "})=": 7362,
      "outer": 7363,
      "ners": 7364,
      "150": 7365,
      "ĠFurthermore": 7366,
      "protocol": 7367,
      "found": 7368,
      "Ġstudents": 7369,
      "Ġpassword": 7370,
      "TEXT": 7371,
      "Ġfamil": 7372,
      "BS": 7373,
      "platform": 7374,
      "Ġlimits": 7375,
      "done": 7376,
      "Ġprobably": 7377,
      "Ġdecomposition": 7378,
      "ĠWindow": 7379,
      "But": 7380,
      "tyles": 7381,
      "Ġ[],": 7382,
      "Ġdepending": 7383,
      "rier": 7384,
      "Ġ],": 7385,
      "ifdef": 7386,
      "ĠEl": 7387,
      "Ġlogger": 7388,
      "})^": 7389,
      "Ġdistinct": 7390,
      "spe": 7391,
      "Ġ\"-": 7392,
      "optim": 7393,
      "avid": 7394,
      ">:": 7395,
      "HS": 7396,
      "Ġearlier": 7397,
      "slash": 7398,
      "Ġrisk": 7399,
      "Ġchalleng": 7400,
      "Ġmiddle": 7401,
      "USE": 7402,
      "Ġphysics": 7403,
      "Ġrows": 7404,
      "loader": 7405,
      "pers": 7406,
      "}}.": 7407,
      "Ġrequests": 7408,
      "ĠBuild": 7409,
      "Ġmeasures": 7410,
      "Ġadmin": 7411,
      "ĠSk": 7412,
      "bd": 7413,
      "ollowing": 7414,
      "Ġclick": 7415,
      "CM": 7416,
      "ĠReact": 7417,
      "mas": 7418,
      "Ġrepresentations": 7419,
      "Ġ\\]": 7420,
      "Ġindices": 7421,
      "BE": 7422,
      "FORM": 7423,
      "Py": 7424,
      "Ġcard": 7425,
      "enable": 7426,
      "emptyset": 7427,
      "plan": 7428,
      "ĠResource": 7429,
      "ua": 7430,
      "TT": 7431,
      "FFFF": 7432,
      "Agent": 7433,
      "uous": 7434,
      "writ": 7435,
      "Engine": 7436,
      "Ġchannels": 7437,
      "]$,": 7438,
      "jango": 7439,
      "iota": 7440,
      "ĠHow": 7441,
      "Category": 7442,
      "Ġquestions": 7443,
      "Ġcoq": 7444,
      "()</": 7445,
      "Ġion": 7446,
      "formations": 7447,
      "illing": 7448,
      "CG": 7449,
      "ensed": 7450,
      "Ġmillion": 7451,
      "Ġrelationship": 7452,
      "uplic": 7453,
      "ymmetry": 7454,
      "Ġestablish": 7455,
      "ĠFound": 7456,
      "à¸": 7457,
      "Namespace": 7458,
      "Ġanswer": 7459,
      "ĠĠĠĠĠĠĠĠĠĠĠĠĠĠĠĠĠĠĠĠĠĠĠĠĠĠĠĠ": 7460,
      "Ġmeta": 7461,
      "jd": 7462,
      "ACT": 7463,
      "Ġtook": 7464,
      "Ġund": 7465,
      "WN": 7466,
      "Ġexpressed": 7467,
      "lower": 7468,
      "ALSE": 7469,
      "^{*": 7470,
      "Ġinsp": 7471,
      "href": 7472,
      "Ġ?>": 7473,
      "changed": 7474,
      "DR": 7475,
      "OF": 7476,
      "brief": 7477,
      "nother": 7478,
      "username": 7479,
      "igration": 7480,
      "cape": 7481,
      "pattern": 7482,
      "Ġequilibrium": 7483,
      "Ġobvious": 7484,
      "Ġrobust": 7485,
      "builder": 7486,
      "ĠIE": 7487,
      "2022": 7488,
      ";\\;\\": 7489,
      "Report": 7490,
      "tml": 7491,
      "Ġmov": 7492,
      "Ġdiagonal": 7493,
      "atively": 7494,
      "))\\": 7495,
      "ĠSol": 7496,
      "ĠMarch": 7497,
      "iants": 7498,
      "esearch": 7499,
      "ĠHash": 7500,
      "Role": 7501,
      "storage": 7502,
      "ga": 7503,
      ",\\,\\": 7504,
      "ĠOver": 7505,
      "ester": 7506,
      "Ġreceive": 7507,
      "osing": 7508,
      "ampaign": 7509,
      "Ġefficiency": 7510,
      "Ġgames": 7511,
      "okup": 7512,
      "$&": 7513,
      "trace": 7514,
      "Ġvariety": 7515,
      "-(": 7516,
      "ctive": 7517,
      "Password": 7518,
      "('.": 7519,
      "bout": 7520,
      "Ġmodul": 7521,
      "ĠResearch": 7522,
      "<!": 7523,
      "Ġemer": 7524,
      "login": 7525,
      "echn": 7526,
      "Ġ[\"": 7527,
      "FC": 7528,
      "Ġimplemented": 7529,
      "mal": 7530,
      "tiny": 7531,
      "medskip": 7532,
      "ĉĠĠĠĠĠ": 7533,
      "Ġjoint": 7534,
      "Proof": 7535,
      "rift": 7536,
      "Ġspan": 7537,
      "tember": 7538,
      "ĠAppendix": 7539,
      "iverse": 7540,
      "gi": 7541,
      "urrency": 7542,
      "feature": 7543,
      "rivacy": 7544,
      "ĠImage": 7545,
      "|}{": 7546,
      "servation": 7547,
      "ertificate": 7548,
      "moz": 7549,
      "Comment": 7550,
      "ĠNAME": 7551,
      "Ġflags": 7552,
      "Ġtrac": 7553,
      "BAR": 7554,
      "ĠRel": 7555,
      "Ġexecution": 7556,
      "Ġ{\"": 7557,
      "Ġ({\\": 7558,
      "pu": 7559,
      "Ġ}{": 7560,
      "trivial": 7561,
      "ibration": 7562,
      "Area": 7563,
      "Ġpurpose": 7564,
      "Ġmixed": 7565,
      "lege": 7566,
      "Texture": 7567,
      "ĠJava": 7568,
      "ĠIndex": 7569,
      "ko": 7570,
      "Summary": 7571,
      "Rev": 7572,
      "ĠSchool": 7573,
      "Ġsampling": 7574,
      "quote": 7575,
      "Ġconfir": 7576,
      "MODULE": 7577,
      "ques": 7578,
      "Ġcanonical": 7579,
      "Ġabs": 7580,
      "ARN": 7581,
      "grade": 7582,
      "resources": 7583,
      "Ġsizes": 7584,
      "Ġproxy": 7585,
      "Ġ'<": 7586,
      "cdn": 7587,
      "}_{-": 7588,
      "Ġreplaced": 7589,
      "ticip": 7590,
      "Ġshowing": 7591,
      "Ġmanifold": 7592,
      "Ġconcern": 7593,
      "ette": 7594,
      "related": 7595,
      "uel": 7596,
      "Ġgoes": 7597,
      "Ġcommit": 7598,
      "shared": 7599,
      "Ġinterpret": 7600,
      "fix": 7601,
      "Imp": 7602,
      "ĠHttp": 7603,
      "Ġbatch": 7604,
      "Ġtreatment": 7605,
      "Selected": 7606,
      "Ġareas": 7607,
      "Tile": 7608,
      "fx": 7609,
      "ruby": 7610,
      "ĠCent": 7611,
      "Rest": 7612,
      "plicity": 7613,
      "indexOf": 7614,
      "Ġadding": 7615,
      "reedom": 7616,
      "Ġdx": 7617,
      "Ġneighbor": 7618,
      "Visible": 7619,
      "Ġphenomen": 7620,
      "uminosity": 7621,
      "Ġcompan": 7622,
      "Ġshowed": 7623,
      "ĠASSERT": 7624,
      "Ġparser": 7625,
      "Ġhouse": 7626,
      "FLA": 7627,
      "Ġautomatically": 7628,
      "ĠHTTP": 7629,
      "Ġtrad": 7630,
      "portun": 7631,
      "Ġways": 7632,
      "Ġinstr": 7633,
      "kens": 7634,
      "Ġpractice": 7635,
      "Ġvariation": 7636,
      "Ġfailure": 7637,
      "asons": 7638,
      "prov": 7639,
      "sn": 7640,
      "stitute": 7641,
      "Ġcm": 7642,
      "WR": 7643,
      "usform": 7644,
      "km": 7645,
      "lers": 7646,
      ")->": 7647,
      "numerusform": 7648,
      "Ġmaximal": 7649,
      "Ġruns": 7650,
      "pite": 7651,
      "OST": 7652,
      "enabled": 7653,
      "Ġquasi": 7654,
      "ĠAction": 7655,
      "Lin": 7656,
      "Ġroom": 7657,
      "manif": 7658,
      "Ġmassive": 7659,
      "ĠDefin": 7660,
      "flag": 7661,
      "bx": 7662,
      "ifts": 7663,
      "Pair": 7664,
      "bg": 7665,
      "ĠMax": 7666,
      "scss": 7667,
      "Ġusual": 7668,
      "Ġconcept": 7669,
      "istence": 7670,
      "Ġflex": 7671,
      "Ġconj": 7672,
      "HTTP": 7673,
      "ĠNews": 7674,
      "Mer": 7675,
      "Ġ}}": 7676,
      "have": 7677,
      "ji": 7678,
      "Ġsufficiently": 7679,
      "Ġheaders": 7680,
      "mean": 7681,
      "Ġcombined": 7682,
      "atomic": 7683,
      "}}^{\\": 7684,
      "warning": 7685,
      "invalid": 7686,
      "Ġvo": 7687,
      ".\");": 7688,
      "ĠCopyright": 7689,
      "Uri": 7690,
      "]{\\": 7691,
      "Ġyoung": 7692,
      "Ġtemp": 7693,
      "Ġsemi": 7694,
      "Ġdesigned": 7695,
      "}}}\\": 7696,
      "Ax": 7697,
      "Ġmenu": 7698,
      "bmatrix": 7699,
      "Ġeditor": 7700,
      "Ġ).": 7701,
      "ĠMed": 7702,
      "Ġapplying": 7703,
      "Ġsummar": 7704,
      "bility": 7705,
      "000000": 7706,
      "Player": 7707,
      "checkbox": 7708,
      "Ġimag": 7709,
      "Ġiden": 7710,
      "inv": 7711,
      "Spe": 7712,
      "Ġrepro": 7713,
      "Orig": 7714,
      "Ġbehind": 7715,
      "ĠTH": 7716,
      "Ġfollowed": 7717,
      ")&": 7718,
      "game": 7719,
      "antom": 7720,
      "Ġwall": 7721,
      "Ġutili": 7722,
      "ĠUI": 7723,
      "Ġcame": 7724,
      "Ġmetrics": 7725,
      "llegal": 7726,
      "Ġstatistical": 7727,
      "mazon": 7728,
      "ĠAccording": 7729,
      "Ġneural": 7730,
      "Ġdro": 7731,
      "seg": 7732,
      "Ġhit": 7733,
      "Ġgravit": 7734,
      "bras": 7735,
      "there": 7736,
      "Ġderivative": 7737,
      "ico": 7738,
      "async": 7739,
      "fort": 7740,
      "Ġda": 7741,
      "ores": 7742,
      "Ġcompe": 7743,
      "tc": 7744,
      ")}_": 7745,
      "ye": 7746,
      "Ġrap": 7747,
      "ros": 7748,
      "Ġnative": 7749,
      "Ġexplan": 7750,
      "1998": 7751,
      "Ġenergies": 7752,
      ";}": 7753,
      "fc": 7754,
      "EEEE": 7755,
      "world": 7756,
      "Lemma": 7757,
      "inger": 7758,
      "Ġsuggest": 7759,
      "Ġ,\\": 7760,
      "rg": 7761,
      "springframework": 7762,
      "Gen": 7763,
      "np": 7764,
      "xs": 7765,
      "har": 7766,
      "ĠIR": 7767,
      "ĠJune": 7768,
      "Ġtouch": 7769,
      "Ġtrained": 7770,
      "Ġtrivial": 7771,
      "Ġwomen": 7772,
      "amaz": 7773,
      "ĠWar": 7774,
      ",...": 7775,
      "nodes": 7776,
      "EventListener": 7777,
      "Ġtranslate": 7778,
      "throw": 7779,
      "isely": 7780,
      "Stats": 7781,
      "formed": 7782,
      "ãĢ": 7783,
      "Ã§": 7784,
      "Ġacceler": 7785,
      "rie": 7786,
      "Ġprof": 7787,
      "Ġmanagement": 7788,
      "ĠĠčĊ": 7789,
      "Ġgreen": 7790,
      "Ġexpand": 7791,
      "Ġvehic": 7792,
      "za": 7793,
      "Total": 7794,
      "Ġpositions": 7795,
      "('/": 7796,
      "println": 7797,
      "Ġembedding": 7798,
      "ORTED": 7799,
      "progress": 7800,
      "Headers": 7801,
      "Cor": 7802,
      "ĠPublic": 7803,
      "encode": 7804,
      "setup": 7805,
      "ffic": 7806,
      "=\"$": 7807,
      "phere": 7808,
      "expect": 7809,
      "Region": 7810,
      "Ġrecall": 7811,
      "Ġassumptions": 7812,
      "sig": 7813,
      "Ġindeed": 7814,
      "BB": 7815,
      "Ġdot": 7816,
      "magnetic": 7817,
      "Clear": 7818,
      "DateTime": 7819,
      "trim": 7820,
      "anks": 7821,
      "Admin": 7822,
      "ĠConn": 7823,
      "Vertex": 7824,
      "Help": 7825,
      "yy": 7826,
      "iring": 7827,
      "Ġsym": 7828,
      ">::": 7829,
      "Ġvalidation": 7830,
      "figures": 7831,
      "Ġattempt": 7832,
      "structure": 7833,
      "moment": 7834,
      "'));": 7835,
      "Ġsatisfied": 7836,
      "etween": 7837,
      "Ġâ": 7838,
      "ĠScience": 7839,
      "ĠNetwork": 7840,
      "Ġtimeout": 7841,
      "High": 7842,
      "Ġanything": 7843,
      "hol": 7844,
      "Ġdevices": 7845,
      "dc": 7846,
      "Ġadv": 7847,
      "TRUE": 7848,
      "Some": 7849,
      "Ġtypically": 7850,
      "Ġsqu": 7851,
      "ĠJuly": 7852,
      "Ġ$,": 7853,
      "ĠLOG": 7854,
      "agent": 7855,
      "acle": 7856,
      "Ġmodify": 7857,
      "erman": 7858,
      "LOCK": 7859,
      "Ġsoft": 7860,
      "Ġhighest": 7861,
      "Ġbright": 7862,
      "Ġui": 7863,
      "Ġradial": 7864,
      "Ġinputs": 7865,
      "extern": 7866,
      "tified": 7867,
      "Ġprop": 7868,
      "formance": 7869,
      "fold": 7870,
      "Ġpublished": 7871,
      "Ġlaunch": 7872,
      "ynchron": 7873,
      "gan": 7874,
      "Ġhours": 7875,
      "Ġforeach": 7876,
      "testing": 7877,
      "scriptsize": 7878,
      "riority": 7879,
      "Ġgetting": 7880,
      "Ġprecision": 7881,
      "While": 7882,
      "Flow": 7883,
      "ridge": 7884,
      "Generated": 7885,
      "reet": 7886,
      "las": 7887,
      "Ġdegrees": 7888,
      "Ġcharset": 7889,
      "Background": 7890,
      "Ġbias": 7891,
      "Ġcharacteristic": 7892,
      "Ġnor": 7893,
      "assembly": 7894,
      "Ġnamely": 7895,
      "Ġduration": 7896,
      "Ġnight": 7897,
      "Ġconsequence": 7898,
      "liance": 7899,
      "phase": 7900,
      "Ġstability": 7901,
      "osite": 7902,
      "IDTH": 7903,
      "Ġpredicted": 7904,
      "RES": 7905,
      "ĠApril": 7906,
      "}~": 7907,
      "role": 7908,
      "Ġ>>": 7909,
      "Ġremote": 7910,
      "Ġstand": 7911,
      "FUN": 7912,
      "Hence": 7913,
      "bib": 7914,
      "Progress": 7915,
      "Ġlocally": 7916,
      "timeout": 7917,
      "ĠOctober": 7918,
      "square": 7919,
      "ĠArrayList": 7920,
      "Ġvers": 7921,
      "Ġderive": 7922,
      "prob": 7923,
      "gebras": 7924,
      "Ġinvolved": 7925,
      "Ġnonlinear": 7926,
      "users": 7927,
      "Interval": 7928,
      "clean": 7929,
      "Ġpossib": 7930,
      "+(": 7931,
      "Ġnovel": 7932,
      "Ġmind": 7933,
      "Ġfine": 7934,
      "ilities": 7935,
      "sphere": 7936,
      "cil": 7937,
      "Ġpool": 7938,
      "ĠSD": 7939,
      "DEFAULT": 7940,
      "Services": 7941,
      "ĠRequest": 7942,
      "Ġasymptotic": 7943,
      "Ġexpressions": 7944,
      "ief": 7945,
      "ĠTra": 7946,
      "utive": 7947,
      "Ġnullptr": 7948,
      "plates": 7949,
      "Given": 7950,
      "001": 7951,
      "separ": 7952,
      "istics": 7953,
      "ĠTR": 7954,
      "Sequence": 7955,
      "ĠProject": 7956,
      "}|\\": 7957,
      "...</": 7958,
      "etal": 7959,
      "Ġpredictions": 7960,
      "Language": 7961,
      "()))": 7962,
      "Ġisn": 7963,
      "('#": 7964,
      "Ġreadonly": 7965,
      "zen": 7966,
      "ĠGreen": 7967,
      "oped": 7968,
      "Example": 7969,
      ")--(": 7970,
      "Ġcurvature": 7971,
      "Ġseconds": 7972,
      "Ġphoton": 7973,
      "@{": 7974,
      "onym": 7975,
      "ITION": 7976,
      "ĠDir": 7977,
      "Ġnp": 7978,
      "CTYPE": 7979,
      "ologies": 7980,
      "proxy": 7981,
      "}}=": 7982,
      "cli": 7983,
      "sia": 7984,
      "blank": 7985,
      "Ġenum": 7986,
      "parallel": 7987,
      "INFO": 7988,
      "ENSE": 7989,
      "semble": 7990,
      "Ġseparate": 7991,
      "repe": 7992,
      "Ġorth": 7993,
      "Scal": 7994,
      "eners": 7995,
      "wp": 7996,
      "UES": 7997,
      "zy": 7998,
      "amazon": 7999,
      "xhtml": 8000,
      "Hub": 8001,
      "Ids": 8002,
      "wt": 8003,
      "Ġprinciple": 8004,
      "Ġalternative": 8005,
      "Ġheavy": 8006,
      "GN": 8007,
      "Ġok": 8008,
      "Ġprice": 8009,
      "Ġten": 8010,
      "power": 8011,
      "signature": 8012,
      "IGHT": 8013,
      "Ġwarning": 8014,
      "eds": 8015,
      "Ġmatches": 8016,
      "Ġball": 8017,
      "Ġisomorphism": 8018,
      "ĠPost": 8019,
      "Ġago": 8020,
      "tikzpicture": 8021,
      "Install": 8022,
      "Move": 8023,
      "Ġsong": 8024,
      "Ġshock": 8025,
      "Ġfire": 8026,
      "TA": 8027,
      "ĠDem": 8028,
      "Ġpull": 8029,
      "ĠCEL": 8030,
      "Ġbelieve": 8031,
      "ĠAny": 8032,
      "acuum": 8033,
      "ĠassertThat": 8034,
      "ĠÎ": 8035,
      "REQ": 8036,
      "\\}\\": 8037,
      "Ġtopological": 8038,
      "Ġexchange": 8039,
      "VALUE": 8040,
      "lain": 8041,
      "Ġtechnique": 8042,
      "pull": 8043,
      "mult": 8044,
      "ĠInc": 8045,
      "Ġ---": 8046,
      "Ġmaster": 8047,
      "Ġmodules": 8048,
      "{\"": 8049,
      "counter": 8050,
      "How": 8051,
      "Cred": 8052,
      "Ġfair": 8053,
      "columnwidth": 8054,
      "Ġgeneralized": 8055,
      "Ġbulk": 8056,
      "tensor": 8057,
      "aver": 8058,
      "Ġwhereas": 8059,
      "Ġachieved": 8060,
      "flex": 8061,
      "(@": 8062,
      "STRING": 8063,
      "Ġcoming": 8064,
      "Cho": 8065,
      "Ġcoinc": 8066,
      "wall": 8067,
      "fol": 8068,
      "Ġ];": 8069,
      "ÑĮ": 8070,
      "Ġplugin": 8071,
      "iet": 8072,
      "|}": 8073,
      "trine": 8074,
      "Ð¼": 8075,
      "Ġsequences": 8076,
      "Ġbuf": 8077,
      "seq": 8078,
      "veloper": 8079,
      "Ġmultip": 8080,
      "Ġstatistics": 8081,
      "Ġlayout": 8082,
      "cluded": 8083,
      "gle": 8084,
      "Ġwind": 8085,
      "slant": 8086,
      ".<": 8087,
      "uses": 8088,
      "MI": 8089,
      "undefined": 8090,
      "Second": 8091,
      "fric": 8092,
      "erc": 8093,
      "ĠGeV": 8094,
      "sen": 8095,
      "Ġhydro": 8096,
      "constant": 8097,
      "glyph": 8098,
      "ateway": 8099,
      "ĠBoolean": 8100,
      "Ġaudio": 8101,
      "resize": 8102,
      "vartheta": 8103,
      "\"],": 8104,
      "ĠExt": 8105,
      "'m": 8106,
      "ĠLong": 8107,
      "batch": 8108,
      "Ġmid": 8109,
      "Ġpopular": 8110,
      "uge": 8111,
      "Ġstored": 8112,
      "/_": 8113,
      "Ġincreased": 8114,
      "Google": 8115,
      "Ġwalk": 8116,
      "ĠInst": 8117,
      "Ġ\"$": 8118,
      "clusive": 8119,
      "}$}": 8120,
      "Ġability": 8121,
      "ĠInput": 8122,
      "Ġmanager": 8123,
      "oration": 8124,
      "ĠDr": 8125,
      "Bind": 8126,
      "Ġlack": 8127,
      "lig": 8128,
      "Ġaver": 8129,
      "Ġmoving": 8130,
      "DOCTYPE": 8131,
      "Ġouter": 8132,
      "EEEEFF": 8133,
      "ura": 8134,
      "Ġspher": 8135,
      "\\}$,": 8136,
      "Ġcomments": 8137,
      "PROJECT": 8138,
      "ades": 8139,
      "POST": 8140,
      "ĠSQL": 8141,
      "Ġcommunication": 8142,
      "ĠSeptember": 8143,
      "ĠRep": 8144,
      "endor": 8145,
      "Video": 8146,
      "Ġtools": 8147,
      "avail": 8148,
      "aching": 8149,
      "agrang": 8150,
      "Ġwriter": 8151,
      "Import": 8152,
      "cluding": 8153,
      "python": 8154,
      "180": 8155,
      "irror": 8156,
      "Landroid": 8157,
      "Ġtmp": 8158,
      "orizon": 8159,
      "mk": 8160,
      "apos": 8161,
      "ĠIndeed": 8162,
      "thern": 8163,
      "Delegate": 8164,
      "Ġcmd": 8165,
      "Ġrgba": 8166,
      "Ġexit": 8167,
      "ĠAugust": 8168,
      "Methods": 8169,
      "Ġestablished": 8170,
      "Notification": 8171,
      "Consider": 8172,
      "getValue": 8173,
      "ĠAm": 8174,
      "tile": 8175,
      "Ġcandidate": 8176,
      "stan": 8177,
      "lipse": 8178,
      "rich": 8179,
      "Product": 8180,
      "issues": 8181,
      "ĠStud": 8182,
      "lood": 8183,
      "Ġconnections": 8184,
      "FL": 8185,
      "Ġradiation": 8186,
      "Refer": 8187,
      "Ġunderstanding": 8188,
      ";\">": 8189,
      "Find": 8190,
      "visible": 8191,
      "negative": 8192,
      "Ġdimensional": 8193,
      "Ġcomputing": 8194,
      "upload": 8195,
      "Ġdynamical": 8196,
      "ĠSan": 8197,
      "Ġacqu": 8198,
      "ĠCH": 8199,
      ":=\\": 8200,
      "ĠValid": 8201,
      "Ġaffect": 8202,
      "ĠDecember": 8203,
      "Support": 8204,
      "Animation": 8205,
      "Required": 8206,
      "spective": 8207,
      "Ġcyc": 8208,
      "ĠMem": 8209,
      "ĠVector": 8210,
      ";)": 8211,
      "\\%$": 8212,
      "'ll": 8213,
      "nostic": 8214,
      "Ġconcentr": 8215,
      "ustral": 8216,
      "Ġcomputer": 8217,
      "plane": 8218,
      "socket": 8219,
      "arith": 8220,
      "Ġpicture": 8221,
      "ummy": 8222,
      "getElement": 8223,
      "Ġreading": 8224,
      "kwargs": 8225,
      "USER": 8226,
      "Ġextrem": 8227,
      "Ġreleased": 8228,
      "Ġreli": 8229,
      "Ġdeath": 8230,
      "optional": 8231,
      "apan": 8232,
      "Ġvariance": 8233,
      "Ġcool": 8234,
      "ĉčĊ": 8235,
      "Permission": 8236,
      "ĠGeneral": 8237,
      "ĠEND": 8238,
      "Ġsynchron": 8239,
      "elihood": 8240,
      "Ġopacity": 8241,
      "Tx": 8242,
      "BL": 8243,
      "METH": 8244,
      "Ġadap": 8245,
      "volume": 8246,
      "ĠPath": 8247,
      "ya": 8248,
      "Ġabund": 8249,
      "checked": 8250,
      "Ġhol": 8251,
      "][]{": 8252,
      "avelength": 8253,
      "SF": 8254,
      "particle": 8255,
      "Other": 8256,
      "Ġiteration": 8257,
      "oting": 8258,
      "Ġinstalled": 8259,
      "Bean": 8260,
      "ackson": 8261,
      "Limit": 8262,
      "Ġstoch": 8263,
      "Ð´": 8264,
      "Ġignore": 8265,
      ")})": 8266,
      "Ġdiver": 8267,
      "Len": 8268,
      "multirow": 8269,
      "ĠNove": 8270,
      "stat": 8271,
      "=.": 8272,
      "ĠMich": 8273,
      "UD": 8274,
      "ĠVis": 8275,
      "tivi": 8276,
      "Ġ\\\"": 8277,
      "ĠRemark": 8278,
      "Ġcosm": 8279,
      "110": 8280,
      "Ġlistener": 8281,
      "SCR": 8282,
      "Ġgenerator": 8283,
      "Tags": 8284,
      "overnor": 8285,
      "Ro": 8286,
      "Enumer": 8287,
      "ĠTran": 8288,
      "ĠWrite": 8289,
      "Ġtal": 8290,
      "cepts": 8291,
      "ĠNovember": 8292,
      "Ġsubsequ": 8293,
      "lli": 8294,
      "Returns": 8295,
      "mits": 8296,
      "ĠPark": 8297,
      "ondon": 8298,
      "'ve": 8299,
      "ulator": 8300,
      "Ġcompatible": 8301,
      "ubble": 8302,
      "Ġwrong": 8303,
      "!\\": 8304,
      "Ġpatterns": 8305,
      "Ġmaxim": 8306,
      "Fin": 8307,
      "']['": 8308,
      "Xi": 8309,
      "åĪ": 8310,
      "Ġdesc": 8311,
      "Users": 8312,
      "opts": 8313,
      "Sample": 8314,
      "origin": 8315,
      "ogonal": 8316,
      "grams": 8317,
      "Att": 8318,
      "NavBarFont": 8319,
      "SSL": 8320,
      "Ġeigenvalues": 8321,
      "subsec": 8322,
      "ĠCollection": 8323,
      "objects": 8324,
      "Ġpersonal": 8325,
      "Ġcommut": 8326,
      "Ġnormalized": 8327,
      "attle": 8328,
      "mmutable": 8329,
      "Ġbrief": 8330,
      ".\\\\": 8331,
      "Ġbeginning": 8332,
      "lf": 8333,
      "Ġannoun": 8334,
      "ĠOnly": 8335,
      "Ġaccurate": 8336,
      "Ġsuitable": 8337,
      "Fragment": 8338,
      "ĠĠĠĠĠĠĠĠĠĠĠĠĠĠĠĠĠĠĠĠĠĠĠĠĠĠĠĠĠĠ": 8339,
      "Ġexecute": 8340,
      "ja": 8341,
      "groups": 8342,
      "Ġcompar": 8343,
      "herent": 8344,
      "overview": 8345,
      "ancial": 8346,
      "ito": 8347,
      "ameter": 8348,
      "equations": 8349,
      "Ġconvert": 8350,
      "pb": 8351,
      "Ñĭ": 8352,
      "=$": 8353,
      "Ġapproximately": 8354,
      "ierarchy": 8355,
      "Append": 8356,
      "Ġredshift": 8357,
      "Ġtax": 8358,
      "Ġtx": 8359,
      "Eff": 8360,
      "Ġgravity": 8361,
      "Aut": 8362,
      "Ġcomputational": 8363,
      "Ġheat": 8364,
      "Ġpatch": 8365,
      "Ġparticularly": 8366,
      "Ġobjective": 8367,
      "slice": 8368,
      "Ġthroughout": 8369,
      "Ġsurvey": 8370,
      "Ġexport": 8371,
      "latform": 8372,
      ":[": 8373,
      "iem": 8374,
      "Ġbits": 8375,
      "supported": 8376,
      "Ġsector": 8377,
      "selector": 8378,
      "Ġind": 8379,
      "compare": 8380,
      "Ġtypename": 8381,
      "irth": 8382,
      "ĠTw": 8383,
      "Ġdt": 8384,
      "METHOD": 8385,
      "Ġpropose": 8386,
      "Skip": 8387,
      "Ġbehaviour": 8388,
      "ĠGiven": 8389,
      "Ġtransparent": 8390,
      "mical": 8391,
      "Stop": 8392,
      "Ġdust": 8393,
      "ĠOf": 8394,
      "ipped": 8395,
      "roke": 8396,
      "eduler": 8397,
      "Ġbring": 8398,
      "anging": 8399,
      "lementation": 8400,
      "^{(\\": 8401,
      "boost": 8402,
      "ĠExp": 8403,
      "policy": 8404,
      "RPC": 8405,
      "Ġcamera": 8406,
      "Ho": 8407,
      "gre": 8408,
      "ison": 8409,
      "Pub": 8410,
      "ĠSta": 8411,
      "Ã¼": 8412,
      "Endpoint": 8413,
      "Ġreset": 8414,
      "tributed": 8415,
      "ils": 8416,
      "Span": 8417,
      "INSERT": 8418,
      "Ġrapid": 8419,
      "Ġquantities": 8420,
      "Volume": 8421,
      "ANG": 8422,
      "Ġopportun": 8423,
      "Ġvalidate": 8424,
      "ropic": 8425,
      "Play": 8426,
      "SELECT": 8427,
      "Ġspecies": 8428,
      "Ġisol": 8429,
      "ĠCenter": 8430,
      "Ġdistingu": 8431,
      "Suppose": 8432,
      "thetic": 8433,
      "rupt": 8434,
      "ĉĠĠĠĠĠĠĠ": 8435,
      "Mask": 8436,
      "Ġdashed": 8437,
      "Mouse": 8438,
      "ĠExec": 8439,
      "Ġpages": 8440,
      "Ġleave": 8441,
      "Ġenv": 8442,
      "nov": 8443,
      "loss": 8444,
      "loaded": 8445,
      "»¿": 8446,
      "gather": 8447,
      "Wallet": 8448,
      "coup": 8449,
      "Ġelectro": 8450,
      "Condition": 8451,
      "player": 8452,
      "Ġfinding": 8453,
      "console": 8454,
      "elling": 8455,
      "ï»¿": 8456,
      "Ġprecisely": 8457,
      "Two": 8458,
      "Ġcorrections": 8459,
      "Ġarchitecture": 8460,
      "\"/": 8461,
      "plications": 8462,
      "Ġcontrad": 8463,
      "REG": 8464,
      "notag": 8465,
      "ĠÐ¿": 8466,
      "pear": 8467,
      "ĠallClasses": 8468,
      "orded": 8469,
      "download": 8470,
      "Ġapplicable": 8471,
      "Ġwar": 8472,
      "sync": 8473,
      "Ġdisper": 8474,
      "Ġcreating": 8475,
      "library": 8476,
      "tan": 8477,
      "ĠallClassesLink": 8478,
      "Begin": 8479,
      "report": 8480,
      "Ġquantity": 8481,
      "rank": 8482,
      "analy": 8483,
      "ĠMake": 8484,
      "Ð²": 8485,
      "ĠBer": 8486,
      "CB": 8487,
      "SV": 8488,
      "lings": 8489,
      "Ġhot": 8490,
      "Ġcapacity": 8491,
      "Ali": 8492,
      "125": 8493,
      "Email": 8494,
      "isot": 8495,
      "Ġwebsite": 8496,
      "Ġeduc": 8497,
      "ishing": 8498,
      "VALID": 8499,
      "resolve": 8500,
      "ĠIsl": 8501,
      "Ġmd": 8502,
      "triangle": 8503,
      "ndef": 8504,
      "ĠHiggs": 8505,
      "Ġintersection": 8506,
      "^*\\": 8507,
      "ĠRus": 8508,
      "Conver": 8509,
      "agrangian": 8510,
      "ady": 8511,
      "arios": 8512,
      "sidebar": 8513,
      "Ġdependencies": 8514,
      "route": 8515,
      "(-\\": 8516,
      "****************************************************************": 8517,
      "ignment": 8518,
      "ĠEar": 8519,
      "Ġopt": 8520,
      "Ġreferences": 8521,
      "differ": 8522,
      "Ġresolve": 8523,
      "Ġinterested": 8524,
      "Ġsyste": 8525,
      "Ġjet": 8526,
      "Ign": 8527,
      "just": 8528,
      "Ġdetector": 8529,
      "uning": 8530,
      "DEBUG": 8531,
      "ĠNAV": 8532,
      "Li": 8533,
      "touch": 8534,
      "Ġstochastic": 8535,
      "ĠCR": 8536,
      "Ġsil": 8537,
      "tf": 8538,
      "ĠANY": 8539,
      "Ġproceed": 8540,
      "Ġroute": 8541,
      "ĠExample": 8542,
      "riends": 8543,
      "sb": 8544,
      "Ġther": 8545,
      "kin": 8546,
      "\"].": 8547,
      "Ġeverything": 8548,
      "ĠFoundation": 8549,
      "\\|\\": 8550,
      "INTER": 8551,
      "Tw": 8552,
      "ski": 8553,
      "variable": 8554,
      "SK": 8555,
      "Ġpen": 8556,
      "Ġfriend": 8557,
      "ups": 8558,
      "213": 8559,
      "Ġluminosity": 8560,
      "Ġfluctuations": 8561,
      "TF": 8562,
      "Ġassess": 8563,
      "ilbert": 8564,
      "'];": 8565,
      "fire": 8566,
      "Serializer": 8567,
      "wave": 8568,
      "ĠSM": 8569,
      "Are": 8570,
      "Ġsaf": 8571,
      "tish": 8572,
      "ultane": 8573,
      "COMP": 8574,
      "animation": 8575,
      "Ġmonths": 8576,
      "Ġtrying": 8577,
      "Ġequivalence": 8578,
      "Ġhope": 8579,
      "kl": 8580,
      "Native": 8581,
      "ĠMet": 8582,
      "MODE": 8583,
      "Ġrepresenting": 8584,
      "poses": 8585,
      "Ġtechnology": 8586,
      "Ġinfluence": 8587,
      "runtime": 8588,
      "ĠSIZE": 8589,
      "titude": 8590,
      "icies": 8591,
      "sa": 8592,
      "jet": 8593,
      "Ġdriver": 8594,
      "PUT": 8595,
      "commit": 8596,
      "original": 8597,
      "grav": 8598,
      "aret": 8599,
      "nes": 8600,
      "correct": 8601,
      "Ġrelax": 8602,
      "aled": 8603,
      "Ġtranslation": 8604,
      ".\",": 8605,
      "yr": 8606,
      "urable": 8607,
      "achment": 8608,
      "ĠDat": 8609,
      "ĠSm": 8610,
      "Ġspect": 8611,
      "apes": 8612,
      "neg": 8613,
      "DATA": 8614,
      "ĠDEFAULT": 8615,
      "WORD": 8616,
      "raints": 8617,
      "ĠLocal": 8618,
      "Ġcomb": 8619,
      "ĠStart": 8620,
      "Ġworth": 8621,
      "imits": 8622,
      "calendar": 8623,
      "ducible": 8624,
      "dk": 8625,
      "ios": 8626,
      "ĠInternational": 8627,
      "Ġtheories": 8628,
      "#{": 8629,
      "Batch": 8630,
      "ĠKe": 8631,
      "=[": 8632,
      "Ġfreedom": 8633,
      "ĠProcess": 8634,
      "ĠBay": 8635,
      "Ġthank": 8636,
      "ĠArg": 8637,
      "Ġwent": 8638,
      "methods": 8639,
      "bruary": 8640,
      "Ġdefines": 8641,
      "Ġlatest": 8642,
      "Ġprime": 8643,
      "utex": 8644,
      "shell": 8645,
      "gres": 8646,
      "SN": 8647,
      "phantom": 8648,
      "Program": 8649,
      "Ġscene": 8650,
      "servable": 8651,
      "ĠAssembly": 8652,
      "inn": 8653,
      "Ġprevent": 8654,
      "apis": 8655,
      "ipe": 8656,
      "Ġplease": 8657,
      "Allow": 8658,
      "asy": 8659,
      "Phys": 8660,
      "effect": 8661,
      "Ġintensity": 8662,
      "Normal": 8663,
      "Ġinvestigate": 8664,
      "}\\|": 8665,
      "Ġminutes": 8666,
      "/.": 8667,
      "elastic": 8668,
      "Ġconsum": 8669,
      "urred": 8670,
      "ran": 8671,
      "abeled": 8672,
      "ĠMicrosoft": 8673,
      "sure": 8674,
      "=\\\"": 8675,
      "Ġaggreg": 8676,
      "Ġ$\\{\\": 8677,
      "101": 8678,
      "states": 8679,
      "Ġassuming": 8680,
      "ä»": 8681,
      "(\"/": 8682,
      "goto": 8683,
      "Ġbind": 8684,
      "$-$": 8685,
      ")^\\": 8686,
      "ensors": 8687,
      "mathit": 8688,
      "Ġcancel": 8689,
      "Ġequality": 8690,
      "~(\\": 8691,
      "once": 8692,
      "Ġ'\\": 8693,
      "textcolor": 8694,
      "Ġtopic": 8695,
      "tivities": 8696,
      "isson": 8697,
      "lector": 8698,
      "ael": 8699,
      "ĠEnglish": 8700,
      "ociation": 8701,
      "compile": 8702,
      "ifndef": 8703,
      "Mis": 8704,
      "direction": 8705,
      "ĠMag": 8706,
      "Audio": 8707,
      "ĠINTO": 8708,
      "GP": 8709,
      "Ġtrade": 8710,
      "Ġ([": 8711,
      "istog": 8712,
      "Ġpret": 8713,
      "activity": 8714,
      "ĠDB": 8715,
      "Ġconfigurations": 8716,
      "Ġdiscre": 8717,
      "ĠDO": 8718,
      "Ġinterpre": 8719,
      "Dictionary": 8720,
      "Ġsql": 8721,
      "law": 8722,
      "iling": 8723,
      "ountry": 8724,
      "room": 8725,
      "sively": 8726,
      "corollary": 8727,
      "driver": 8728,
      "GER": 8729,
      "ĠWest": 8730,
      "ĠPub": 8731,
      "ague": 8732,
      "Ġeng": 8733,
      "esome": 8734,
      "Ġrough": 8735,
      "validate": 8736,
      "=\"../../../../../../../": 8737,
      "Named": 8738,
      "QU": 8739,
      "regular": 8740,
      "duration": 8741,
      "Ġperturbation": 8742,
      "DOM": 8743,
      "Standard": 8744,
      "zure": 8745,
      "sep": 8746,
      "going": 8747,
      "ĠðŁ": 8748,
      "ĠBri": 8749,
      "Ġopts": 8750,
      "Ġtsd": 8751,
      "EST": 8752,
      "Ġrise": 8753,
      "expression": 8754,
      "ians": 8755,
      "ĠMulti": 8756,
      "ÐµÐ½": 8757,
      "Ġmoney": 8758,
      "ĠBit": 8759,
      "Ġrational": 8760,
      "usted": 8761,
      "Ġscroll": 8762,
      "ryption": 8763,
      "LR": 8764,
      "Ġsb": 8765,
      "ĠSur": 8766,
      "ĠChris": 8767,
      "Shape": 8768,
      "Moreover": 8769,
      "connected": 8770,
      "Lower": 8771,
      "ANCE": 8772,
      "Ġusage": 8773,
      "Ġart": 8774,
      "ĠConst": 8775,
      "assandra": 8776,
      "Ġfragment": 8777,
      "Db": 8778,
      "Ġplayers": 8779,
      "Ġprovider": 8780,
      "elt": 8781,
      "about": 8782,
      "hl": 8783,
      "constructor": 8784,
      "measure": 8785,
      "Ġready": 8786,
      "Ġdisabled": 8787,
      "}>": 8788,
      "Ġdict": 8789,
      "/\"": 8790,
      "wd": 8791,
      "ĠCounty": 8792,
      "Ġbeg": 8793,
      "ĠPRO": 8794,
      "Ġdie": 8795,
      "Ġdocumentation": 8796,
      "1996": 8797,
      "ĠNAVBAR": 8798,
      "Execution": 8799,
      "ĠRegister": 8800,
      "istency": 8801,
      "Ġproviding": 8802,
      "Ġhighlight": 8803,
      "destroy": 8804,
      "Ġfeedback": 8805,
      "Enter": 8806,
      "ĠSuch": 8807,
      "ĠDon": 8808,
      "series": 8809,
      "onomy": 8810,
      "Ġevaluated": 8811,
      "ĠHouse": 8812,
      "Ġsites": 8813,
      "Edge": 8814,
      "ĠProperty": 8815,
      "rece": 8816,
      "Ġcursor": 8817,
      "Ġrecur": 8818,
      "Unknown": 8819,
      "Children": 8820,
      "Ġshell": 8821,
      "Ġlost": 8822,
      "standard": 8823,
      "Constructor": 8824,
      "Ġsignals": 8825,
      "Ġstrateg": 8826,
      "250": 8827,
      "requency": 8828,
      "ĠTechn": 8829,
      "Ġstarts": 8830,
      "Validation": 8831,
      "ĠSum": 8832,
      "rev": 8833,
      "alog": 8834,
      "photon": 8835,
      "$.}": 8836,
      ":`": 8837,
      "corpor": 8838,
      "serve": 8839,
      "Ġsom": 8840,
      "Compiler": 8841,
      "RT": 8842,
      "ĠSE": 8843,
      "Ġconfigure": 8844,
      "Ġcontribute": 8845,
      "dig": 8846,
      "eto": 8847,
      "Ġelectric": 8848,
      "Ter": 8849,
      "Flag": 8850,
      "ĠKing": 8851,
      "period": 8852,
      "Ġdefinitions": 8853,
      "Ġcompleted": 8854,
      "inherit": 8855,
      "æľ": 8856,
      "Ġprops": 8857,
      "Ġdense": 8858,
      "clone": 8859,
      "Public": 8860,
      "^^": 8861,
      "area": 8862,
      "Join": 8863,
      "ĠAlthough": 8864,
      "!]": 8865,
      "thick": 8866,
      "anned": 8867,
      "Div": 8868,
      "cores": 8869,
      "GEN": 8870,
      "oked": 8871,
      "merge": 8872,
      "ĠFROM": 8873,
      "scribe": 8874,
      "reme": 8875,
      "ĠVALUES": 8876,
      "IOException": 8877,
      "Ġkm": 8878,
      "Identity": 8879,
      "Objects": 8880,
      "alactic": 8881,
      "Ġ\\,\\": 8882,
      "presentation": 8883,
      "InputStream": 8884,
      "/{": 8885,
      "basic": 8886,
      "stackrel": 8887,
      "Ġvacuum": 8888,
      "Ġsuccessfully": 8889,
      "lik": 8890,
      "Ġfluid": 8891,
      "NUM": 8892,
      "Ġ×": 8893,
      "paper": 8894,
      "udget": 8895,
      "Ġexplained": 8896,
      "ĠĠĠĠĠĠĠĠĠĠĊ": 8897,
      "Ġfrag": 8898,
      "fully": 8899,
      "Ġnuclear": 8900,
      "porter": 8901,
      "textup": 8902,
      "stry": 8903,
      "Ġdependent": 8904,
      "Ġdoub": 8905,
      ",'": 8906,
      "fetch": 8907,
      "Ġphoto": 8908,
      "ILE": 8909,
      "tivated": 8910,
      "memory": 8911,
      "Ġcaused": 8912,
      "conver": 8913,
      "invariant": 8914,
      "Operator": 8915,
      "even": 8916,
      "nostics": 8917,
      "HC": 8918,
      "boldmath": 8919,
      "ĠOptional": 8920,
      "ington": 8921,
      "ĠALIGN": 8922,
      "Ġ_{\\": 8923,
      "MF": 8924,
      "arents": 8925,
      "onder": 8926,
      "Ġanimation": 8927,
      "1997": 8928,
      "^*(": 8929,
      "oking": 8930,
      "sip": 8931,
      "Ġgiving": 8932,
      "Ġevol": 8933,
      ")}.": 8934,
      "ĠCap": 8935,
      "Ġtravel": 8936,
      "cross": 8937,
      "600": 8938,
      "Ġidentical": 8939,
      "ilevel": 8940,
      "&-": 8941,
      "Ġcy": 8942,
      "Sql": 8943,
      "Ġmedium": 8944,
      "mouse": 8945,
      "anchor": 8946,
      "Ġdemand": 8947,
      "Inv": 8948,
      "Ġgenerating": 8949,
      "Ġaccre": 8950,
      "Game": 8951,
      "acebook": 8952,
      "Ġsupports": 8953,
      "owner": 8954,
      "month": 8955,
      "ociety": 8956,
      "æĸ": 8957,
      "Syntax": 8958,
      "Ð°Ð½": 8959,
      "Ġthems": 8960,
      "Ġowner": 8961,
      "Cloud": 8962,
      "Ġ''": 8963,
      "Home": 8964,
      "Ġcomposition": 8965,
      "abc": 8966,
      "Constant": 8967,
      "nob": 8968,
      "backslash": 8969,
      "vertex": 8970,
      "|^{": 8971,
      "Annotation": 8972,
      "hfill": 8973,
      "Save": 8974,
      "Members": 8975,
      "insic": 8976,
      "scriptscript": 8977,
      "Ġprofiles": 8978,
      "History": 8979,
      "ara": 8980,
      "ĠSource": 8981,
      "sr": 8982,
      "Struct": 8983,
      "Ġcategories": 8984,
      "ita": 8985,
      "Driver": 8986,
      "scriptscriptstyle": 8987,
      "uzz": 8988,
      "ĠPaul": 8989,
      "Ġadvantage": 8990,
      "vention": 8991,
      "%\"": 8992,
      "Ġfactory": 8993,
      "Ġthemselves": 8994,
      "Ġheld": 8995,
      "Short": 8996,
      "retch": 8997,
      "Ġversions": 8998,
      "mf": 8999,
      "Ġhypothesis": 9000,
      "Ġdescribes": 9001,
      "Ġ@\"": 9002,
      "Ġgravitational": 9003,
      "vertical": 9004,
      "aven": 9005,
      "ĠAustral": 9006,
      "ARCH": 9007,
      "isEmpty": 9008,
      "TestCase": 9009,
      "Should": 9010,
      "riterion": 9011,
      "ĠDocument": 9012,
      "expand": 9013,
      "MIN": 9014,
      "Ġhorizontal": 9015,
      "Ġtes": 9016,
      "Ġpolarization": 9017,
      "ĠPage": 9018,
      "ĠSoftware": 9019,
      "Ġfood": 9020,
      "Ġpixels": 9021,
      "}{*": 9022,
      "complex": 9023,
      ")}(\\": 9024,
      "neutr": 9025,
      "uages": 9026,
      "Ġstress": 9027,
      "icode": 9028,
      "messages": 9029,
      "oments": 9030,
      "ĠProgram": 9031,
      "Ġtopology": 9032,
      "posite": 9033,
      "extend": 9034,
      "Wait": 9035,
      "hard": 9036,
      "tesian": 9037,
      "exit": 9038,
      "Ġsuppose": 9039,
      "DATE": 9040,
      "integer": 9041,
      ".$$": 9042,
      "Sur": 9043,
      "Validator": 9044,
      "ucial": 9045,
      "trict": 9046,
      "Ġbalance": 9047,
      "|$": 9048,
      "specific": 9049,
      "Prov": 9050,
      "Focus": 9051,
      "Drawing": 9052,
      "Ġled": 9053,
      "ĠAfric": 9054,
      "BPACK": 9055,
      "zip": 9056,
      "iii": 9057,
      ")>": 9058,
      "NC": 9059,
      "Ġenh": 9060,
      "operation": 9061,
      "Fl": 9062,
      "Ġannot": 9063,
      "Make": 9064,
      "Pers": 9065,
      "release": 9066,
      "Ġcontents": 9067,
      "haps": 9068,
      "Ġfmt": 9069,
      "PM": 9070,
      "expr": 9071,
      "factory": 9072,
      "Ġmeet": 9073,
      "Screen": 9074,
      "Ġnearly": 9075,
      "ArgumentException": 9076,
      "YY": 9077,
      "Ġboost": 9078,
      "ĠColor": 9079,
      "Ġsolar": 9080,
      "Ġlicense": 9081,
      "amel": 9082,
      "Ġcreation": 9083,
      "Ġanom": 9084,
      "theless": 9085,
      "Ġrequirements": 9086,
      "Ġmixing": 9087,
      "otes": 9088,
      "Ġsoon": 9089,
      "_{+": 9090,
      "ĠAmerica": 9091,
      "Ġedit": 9092,
      "cussion": 9093,
      "ifted": 9094,
      "tegr": 9095,
      "Ġ'';": 9096,
      "ĠTem": 9097,
      "Ġturns": 9098,
      "Ġmerge": 9099,
      "ami": 9100,
      "Ġapilevel": 9101,
      "ĠBig": 9102,
      "Ġformed": 9103,
      "Forms": 9104,
      "Ġtrend": 9105,
      "Ġassigned": 9106,
      "NSString": 9107,
      "Star": 9108,
      "ordinate": 9109,
      "zh": 9110,
      "Ġ\"\";": 9111,
      "Ġaud": 9112,
      "ĠHer": 9113,
      "Ġtags": 9114,
      "&=&\\": 9115,
      "Ġ_,": 9116,
      "Ġslo": 9117,
      "Ġselector": 9118,
      "character": 9119,
      "Ġnoted": 9120,
      "ĠLi": 9121,
      "ato": 9122,
      "person": 9123,
      "Ġ_.": 9124,
      "Ġparty": 9125,
      "Ġtown": 9126,
      "LOC": 9127,
      "CONT": 9128,
      "ORDER": 9129,
      "Ġsupers": 9130,
      "ori": 9131,
      "spher": 9132,
      "gradient": 9133,
      "database": 9134,
      "disable": 9135,
      "ORY": 9136,
      "Ġsn": 9137,
      "Ġchemical": 9138,
      "highlight": 9139,
      "Ġtold": 9140,
      "Ġ\"\",": 9141,
      "onses": 9142,
      "Ġjus": 9143,
      ")(\\": 9144,
      "()),": 9145,
      "Es": 9146,
      "navigation": 9147,
      "ĠUK": 9148,
      ">\"": 9149,
      "_);": 9150,
      "deprecated": 9151,
      "will": 9152,
      "knowledge": 9153,
      "Ġorders": 9154,
      "ĠBlock": 9155,
      "Ġruntime": 9156,
      "getElementById": 9157,
      "electr": 9158,
      "Ġexplanation": 9159,
      "Ġbecame": 9160,
      "Ġpacket": 9161,
      "transaction": 9162,
      "taining": 9163,
      "aste": 9164,
      "cepted": 9165,
      "ASSERT": 9166,
      "ĠSuppose": 9167,
      "Environment": 9168,
      "Ġsuggests": 9169,
      "Ġhalo": 9170,
      "dynamic": 9171,
      "ĠApache": 9172,
      "ĠSets": 9173,
      "ĠHis": 9174,
      ",.": 9175,
      "Ġrecords": 9176,
      "jQuery": 9177,
      "thrift": 9178,
      "Ġbur": 9179,
      "Ġimproved": 9180,
      "Bal": 9181,
      "<<": 9182,
      "iner": 9183,
      "ELD": 9184,
      "submit": 9185,
      "&&\\": 9186,
      "downarrow": 9187,
      "Encoded": 9188,
      "Sl": 9189,
      "Consumer": 9190,
      "ĠShow": 9191,
      "Ġmonitor": 9192,
      "ĠTV": 9193,
      "elements": 9194,
      ";|": 9195,
      "\\!\\": 9196,
      "Ġsex": 9197,
      "Ġoccup": 9198,
      "Ġenter": 9199,
      "Ġ'',": 9200,
      "Ġcontrols": 9201,
      "density": 9202,
      "Rate": 9203,
      "Ġglu": 9204,
      "spacing": 9205,
      "Ġneutrino": 9206,
      "Ġlisted": 9207,
      "catch": 9208,
      "Ġisot": 9209,
      "ĠLine": 9210,
      "Ġplus": 9211,
      "CLASS": 9212,
      "Ġquadratic": 9213,
      "forEach": 9214,
      "sharp": 9215,
      "Ġzone": 9216,
      "vg": 9217,
      "Ġ'./": 9218,
      "Numer": 9219,
      "Ġuniformly": 9220,
      "(.": 9221,
      "Ġsafe": 9222,
      "Ġspread": 9223,
      "ĠHealth": 9224,
      "ĠAndroid": 9225,
      "ida": 9226,
      "Axis": 9227,
      "ĠAct": 9228,
      "finity": 9229,
      "Ġarc": 9230,
      ";\"": 9231,
      "ras": 9232,
      "Folder": 9233,
      "Nullable": 9234,
      "\\|_": 9235,
      "Card": 9236,
      "'_{": 9237,
      "Ġrestriction": 9238,
      "ĠUN": 9239,
      "Counter": 9240,
      "Ġnavbar": 9241,
      "governor": 9242,
      "Ġelif": 9243,
      "validation": 9244,
      "Ġens": 9245,
      "FN": 9246,
      "facebook": 9247,
      "deep": 9248,
      "Navigation": 9249,
      "Fn": 9250,
      "illed": 9251,
      "Ġunion": 9252,
      "Ġchecked": 9253,
      "ANT": 9254,
      "ĠBlack": 9255,
      "ĠLondon": 9256,
      "organ": 9257,
      "Ġcomplic": 9258,
      "ny": 9259,
      "ĠPH": 9260,
      "IA": 9261,
      "ĠConsider": 9262,
      "ĠBack": 9263,
      "PY": 9264,
      "bre": 9265,
      "ea": 9266,
      "Ġmes": 9267,
      "created": 9268,
      "raise": 9269,
      "Ġgeometric": 9270,
      "ĠFourier": 9271,
      "ĠXML": 9272,
      "bt": 9273,
      "{(\\": 9274,
      "Ġintermediate": 9275,
      "OPT": 9276,
      "Ġfavor": 9277,
      "ĠAS": 9278,
      "ĠCA": 9279,
      "Ġdam": 9280,
      "Basic": 9281,
      "Ġcast": 9282,
      "poly": 9283,
      "ĠPR": 9284,
      "creens": 9285,
      "surface": 9286,
      "\"},": 9287,
      "Ġdev": 9288,
      "atio": 9289,
      "spirit": 9290,
      "rect": 9291,
      "ĠElement": 9292,
      "Ġcalling": 9293,
      "çĶ": 9294,
      "Ġidentifier": 9295,
      "typename": 9296,
      "Ms": 9297,
      "Ġpossibility": 9298,
      "pages": 9299,
      "Ġagents": 9300,
      "']);": 9301,
      "Ġaddresses": 9302,
      "scala": 9303,
      "$^": 9304,
      "elem": 9305,
      "uber": 9306,
      "license": 9307,
      "ationToken": 9308,
      "Ġepis": 9309,
      "Ġ\"%": 9310,
      "Ġconduct": 9311,
      "radio": 9312,
      "Ġsci": 9313,
      "Ġdead": 9314,
      "conv": 9315,
      "Ġphases": 9316,
      "ĠStatus": 9317,
      "DIS": 9318,
      "Processor": 9319,
      "Book": 9320,
      "Ġsimultane": 9321,
      "GeV": 9322,
      "Binary": 9323,
      "Ġcoupled": 9324,
      "scopic": 9325,
      "CV": 9326,
      "Ġadop": 9327,
      "ceil": 9328,
      "Ġdu": 9329,
      "ĠFebruary": 9330,
      "available": 9331,
      "Ġsurpr": 9332,
      "Dependency": 9333,
      "&=\\": 9334,
      "Ġdestination": 9335,
      "lated": 9336,
      "Ġjs": 9337,
      "ĠMer": 9338,
      "ulty": 9339,
      "Compat": 9340,
      "DEF": 9341,
      "Ġtail": 9342,
      "Ã¶": 9343,
      "blog": 9344,
      "apers": 9345,
      "Ġtransitions": 9346,
      "/\">": 9347,
      "Ġplanet": 9348,
      "Renderer": 9349,
      "ĠHol": 9350,
      "compute": 9351,
      "Contents": 9352,
      "ni": 9353,
      "ĠĠĠĠĠĠĠĠĠĠĠĠĠĠĠĠĠĠĠĠĠĠĠĠĠĠĠĠĠĠĠĠĠĠĠĠĠĠĠĠĠĠĠĠĠĠĠ": 9354,
      "ĠClient": 9355,
      "~~~~~~~~": 9356,
      "Ġdeviation": 9357,
      "WEBPACK": 9358,
      "clip": 9359,
      "Ġperiodic": 9360,
      "Ġ\\[": 9361,
      "??": 9362,
      "Ġinvest": 9363,
      "uuid": 9364,
      "Theme": 9365,
      "Ġdirections": 9366,
      "]=": 9367,
      "1995": 9368,
      "Binding": 9369,
      "Ġconstit": 9370,
      "Ġindustry": 9371,
      "Ġchanging": 9372,
      "predic": 9373,
      "ĠCour": 9374,
      "Ġplas": 9375,
      "ĠWindows": 9376,
      "ĠWIDTH": 9377,
      "NotFound": 9378,
      "Ġenjo": 9379,
      "Ġmarked": 9380,
      "directory": 9381,
      "Ġimplicit": 9382,
      "}$\\": 9383,
      "Ġofficial": 9384,
      "loading": 9385,
      "contents": 9386,
      "ONG": 9387,
      "owers": 9388,
      "ifiers": 9389,
      "velopment": 9390,
      "Ġpublish": 9391,
      "instein": 9392,
      "$'": 9393,
      "Ġreasons": 9394,
      "Ġupdates": 9395,
      "Cmd": 9396,
      "mix": 9397,
      "XXXX": 9398,
      "Ġalgebraic": 9399,
      "Ġ$^{": 9400,
      "ï¼Į": 9401,
      "$^{": 9402,
      "'d": 9403,
      "]+": 9404,
      "Ġreserved": 9405,
      "Material": 9406,
      "Ä±": 9407,
      "iar": 9408,
      "react": 9409,
      "tee": 9410,
      "Own": 9411,
      "determin": 9412,
      "Ġcarry": 9413,
      "watch": 9414,
      "Ġcub": 9415,
      "Ġreached": 9416,
      "ĠDelete": 9417,
      "LC": 9418,
      "Ġpod": 9419,
      "Ġlowest": 9420,
      "oser": 9421,
      "Pod": 9422,
      "SG": 9423,
      "aming": 9424,
      "SCRIPT": 9425,
      "munity": 9426,
      "Throw": 9427,
      "tar": 9428,
      "hold": 9429,
      "Ġacts": 9430,
      "Ġmodal": 9431,
      "awa": 9432,
      "Ġrep": 9433,
      "relative": 9434,
      "Ġpatients": 9435,
      "IDE": 9436,
      "kernel": 9437,
      ".\"\"\"": 9438,
      "ĠWAR": 9439,
      "Ġproto": 9440,
      ">)": 9441,
      "Ġuncertainties": 9442,
      "examples": 9443,
      "Ġdispersion": 9444,
      "pointer": 9445,
      "Ġdensities": 9446,
      "}/\\": 9447,
      "\">(": 9448,
      "propto": 9449,
      "pan": 9450,
      "logo": 9451,
      "Setting": 9452,
      ":@\"": 9453,
      "pkg": 9454,
      "multline": 9455,
      "Ġmul": 9456,
      "Ġnecessarily": 9457,
      "ĠChrist": 9458,
      "Ġpermissions": 9459,
      "sun": 9460,
      "anded": 9461,
      "IMPORTED": 9462,
      "uparrow": 9463,
      "NV": 9464,
      "Ġuniversal": 9465,
      "Ġimportance": 9466,
      "Center": 9467,
      "]))": 9468,
      "ville": 9469,
      "nol": 9470,
      "erve": 9471,
      "vin": 9472,
      "lp": 9473,
      "}.}": 9474,
      "ĠVari": 9475,
      "ĠRemove": 9476,
      "ĠLink": 9477,
      "ĠJapan": 9478,
      "selection": 9479,
      "entities": 9480,
      "audio": 9481,
      "Ġconjug": 9482,
      "ĠLcom": 9483,
      "vlet": 9484,
      "Ġqueries": 9485,
      "isset": 9486,
      "Ġwish": 9487,
      "Ġcarried": 9488,
      "Ġadjust": 9489,
      "ĠPresident": 9490,
      "Ġanalytic": 9491,
      "Ġpredict": 9492,
      "BIT": 9493,
      "jecture": 9494,
      "Ġcodes": 9495,
      "ĠChe": 9496,
      "ĠØ": 9497,
      "Remote": 9498,
      "Word": 9499,
      "Ġdemonstrate": 9500,
      "CALL": 9501,
      "scape": 9502,
      "Real": 9503,
      "ĠBecause": 9504,
      "construct": 9505,
      "Ġwavelength": 9506,
      "Ġfrequencies": 9507,
      "Ġ\">": 9508,
      "dark": 9509,
      "Ġdiffusion": 9510,
      "Mapper": 9511,
      "800": 9512,
      "ĠDel": 9513,
[...]
