#version: 0.2
Ġ Ġ
ĠĠ ĠĠ
i n
Ġ t
e r
o n
Ġ a
h e
r e
a t
e n
o r
s t
Ġt he
a l
ĠĠ Ġ
a n
ĠĠĠĠ ĠĠĠĠ
a r
i t
i on
l e
Ġ c
Ġ s
Ġ o
i s
e d
Ġ f
e s
Ġ w
r o
i c
Ġ p
in g
Ġ in
e t
c t
Ġ b
n d
a s
Ġo f
Ġ d
a m
en t
e l
Ġ m
u r
Ġa nd
ĠĠĠĠ ĠĠĠ
Ġ \
Ġ re
Ġt o
Ġ (
i l
Ġ n
Ġ $
u t
Ġ =
o m
i g
a c
i d
at ion
i m
o l
Ġt h
Ġ h
Ġ S
e x
ĉ ĉ
u n
u l
o t
Ġ T
s e
) ;
Ġ {
a d
i v
o d
Ġ l
Ġ C
i f
Ġ A
c e
e m
Ġ is
a g
u s
Ġ <
- -
č Ċ
Ġ v
t h
u m
a b
p e
Ġ *
q u
/ /
ĠĠĠĠĠĠĠĠ ĠĠĠ
= "
Ġf or
c h
o w
r a
at e
Ġ g
Ġ st
ct ion
p t
Ġ M
i st
er s
Ġ I
l y
e f
{ \
o c
Ġc on
Ġ }
< /
it h
t er
Ġ on
e st
en d
Ġ P
i r
am e
as s
Ġ B
t r
h t
Ġ "
u b
a y
v er
Ġa s
at h
Ġ e
u e
Ġb e
re s
2 0
an d
Ġ R
u p
Ġ F
Ġ D
Ġ H
a p
e w
Ġ L
e g
ur n
ĠĠĠĠĠĠĠĠ ĠĠĠĠĠĠĠĠ
Ġth at
Ġw ith
ĠĠĠĠ Ġ
r i
a v
* *
_ {
ex t
Ġa l
1 9
or t
( )
o p
e ct
o s
Ġp ro
Ġ N
Ġ Ċ
ĠT he
Ġa n
l ass
ag e
es s
in e
Ġ &
Ġ G
Ġb y
ro m
" >
Ġ E
ar t
p l
Ġw h
it y
t a
t urn
Ġ W
u nd
p h
Ġ$ \
i z
ig ht
Ġw as
o re
e c
m ent
y pe
ul t
Ġth is
ab le
Ġc om
in t
u re
al l
er e
o ur
ac k
Ġ if
Ġ '
-- --
re f
o g
p er
Ġa t
Ġ or
i al
Ġ r
= =
Ġ ex
I n
an g
m ath
Ġ it
i es
p ort
l i
od e
k e
â Ģ
i le
0 0
u d
Ġf rom
Ġ O
b er
m a
g et
pt ion
an s
it e
iv e
c on
Ġa re
ĠĠĠĠĠĠĠĠ ĠĠĠĠĠĠĠ
or m
an t
s p
e p
} \
un ction
Ġ J
^ {
at a
u g
Ġc lass
Ġ -
Ġ //
ar y
} $
p ro
Ġre turn
as e
) ,
st r
il l
Ġw e
in d
at ed
. .
al ue
ac e
ig n
Ġ U
o ut
Ġt r
it ion
j ect
f t
i b
l ic
a re
Ġc h
o v
p le
t o
s er
t ext
or d
i re
' s
a st
- >
: :
Ġ @
Ġ he
) .
Ġ +
im e
T he
ic h
o un
e v
ar d
e qu
ar am
l o
Ġs h
} }
Ġ le
Ġn ot
C on
el l
c om
ĉĉ ĉĉ
g e
i p
f f
il d
ĠI n
en s
( \
c al
Ġ K
" ,
o st
ic al
on g
a ct
c l
Ġ |
i a
20 1
S t
Ġ y
s et
eg in
p ut
f r
id e
Ġre s
u se
Ġs e
ub lic
Ġ us
Ġf unction
b egin
Ġ V
n t
av e
u st
ro w
c c
a k
Ġ [
Ġ /
Ġ< /
ic e
Ġp l
Ġn ew
ation s
Ġa r
f ig
or k
( );
( "
an ce
iz e
oc k
f orm
en ce
_ {\
ul l
s o
E x
o o
) $
our ce
en er
en c
a in
or y
} ,
ra y
er r
c ri
Ġ* /
l ow
' ,
i o
d d
d u
el f
Ġwh ich
i an
Ġst r
Ġc an
ab el
Ġ un
âĢ ĵ
ac h
i el
b ject
res s
Ġ j
** **
r ight
} {
---- ----
ĠT h
s s
tr ing
Ġa p
iel d
Ġv ar
Ġ :
20 0
et a
ĠS t
Ġd ef
Ġ k
Ġ im
ta in
.. /
ent s
s h
e le
er m
e q
fr ac
at or
c he
o ul
th is
t he
p s
m l
p on
on e
ow n
th er
Ġ .
) )
Ġ _
o und
ĠĠĠĠĠĠĠĠ ĠĠĠĠĠĠĠĠĠĠĠ
( '
Ġh as
Ġs et
Ġn ame
et h
l l
t y
1 0
e ar
ĠĠĠĠĠĠĠĠ Ġ
is h
Ġh ave
oul d
ir st
t e
ter n
o ver
ĉĉ ĉ
P ro
cl ud
in al
Ġin t
y st
d iv
1 8
re e
Ġp ublic
c ite
N ame
s um
l abel
o id
ess age
ĠC h
ol d
pe ct
f er
Ġh is
r m
in k
Ġ| |
e b
n ame
p aram
== ==
od el
he n
er v
ic t
i x
at es
c k
le ft
en g
o int
re turn
p r
ro up
u al
T ype
E R
Ġal so
Ġa b
sp an
le s
yst em
l ine
um ber
ke y
> </
Ġal l
pe c
ion s
ar k
math b
r y
$ .
r it
l d
o ol
i ew
d ef
$ ,
Ġp art
} )
Ġs u
Ġd is
oun t
le d
m er
, \
v ent
w o
v ar
ic s
Ġon e
equ ation
u ct
Ġv alue
Ġ !
Ġd o
er y
ot h
o f
Ġcon t
Ġ qu
eth od
I N
p os
S tring
O N
d a
Ġp r
Ġ ro
im port
Ġo ut
Ġcon st
Ġw ere
al se
Ġ i
c ol
le ct
n e
at ch
Ġg et
} .
> <
y n
ug h
Ġ #
er t
Ġt ype
on d
math cal
ar g
le ment
om e
am b
c re
o u
ac he
at ic
o b
I d
i ed
el y
a x
y m
w e
Ġf irst
} (
t ype
or s
Ġc ol
Ġres ult
v al
1 2
ing s
am es
Ġs p
../ ../
Ġd ata
ph a
Ġb ut
Ġ up
ĠU n
Ġp re
a il
R es
ang e
Ġ el
ig h
} ^
f ter
in ed
ap p
Ġ Y
id th
Ġ err
l ock
o x
Ġw ill
ht ml
Ġcom p
Ġd es
a ult
ra ph
S T
T o
} _
ce ption
em ber
ur re
R E
C om
al pha
Ġt wo
Ġs elf
Ġ `
is s
ul ar
Ġin ter
s ub
ov e
Ġp er
c ent
Ġit s
ĠI t
19 9
Ġ= =
u ild
tr ans
C h
Ġo ver
~ \
ut ion
at er
t on
Ġn ull
an n
T h
f o
Ġo b
1 6
ut e
ad d
t d
e y
Ġfor m
_ _
at ive
Ġm e
Ġtr ans
im es
Ġt ime
ro und
cri pt
e ad
ic k
ption s
L ist
eng th
Ġh ref
Ġs ub
ol low
Ġc l
if ic
c lass
oo k
el ta
Ġpl ay
ation al
A r
Ġa dd
oc al
R ef
Ġl ine
amb da
Ġ end
l ation
s ource
n g
ĠTh is
on t
m essage
u es
Ġ= >
Ġv oid
Ġthe ir
c ode
Ġo ther
b ar
Ġ und
A T
tr ib
a ke
Ġv al
Ġre qu
a w
Ġ x
u le
$ \
t t
b ack
am ple
enc es
) \
Ġ id
ĠH e
Ġw hen
y le
Ġd e
ser t
m s
r r
Ġc o
h o
Ġs up
am ma
Ġre g
) );
ers ion
i e
s c
an y
Ġin d
Ġa g
# #
Ġon ly
as k
str ing
urre nt
an c
Ġ >
c ess
er n
he d
o se
res ent
**** ****
Ġw ork
Ġf ollow
Ġ âĢĵ
y s
re ad
Ġ )
Ġh ad
um ent
it em
as ed
is e
I D
// //
ser v
1 5
Ġp os
Ġtr ue
it s
d er
s on
Ġs o
Ġn e
am p
_ \
m u
ar ch
" /
ĠĠĠĠĠĠĠĠĠĠĠĠĠĠĠĠ ĠĠĠĠĠĠĠĠĠĠĠĠĠĠĠĠ
: //
L E
m in
tern al
o us
Ġf alse
O R
Ġs c
Ġcom m
ire ct
) :
Ġbe en
Ġc ase
Ġwh ere
c a
al s
iv ate
as h
id er
Ġ en
= \
v alue
pl ic
d ata
Ġ use
g r
Ġstr ing
p i
Ġ& &
V alue
Ġm ore
Ġel se
ef ore
D ata
Ġb et
-------- --------
Ġus ed
. _
Ġd ist
A R
1 1
T r
eg a
Ġs pec
Ġin clud
Ġd if
Ġg ener
" );
Ġthe n
Ġan y
Ġm odel
on s
ig ma
le ction
Ġn umber
ef f
e e
Ġ\ \
Ġin st
at ing
Ġin to
"/ >
w ork
in ce
d ot
l and
it ed
} ^{
Ġt est
A L
Ġf il
per ty
Ġ/ **
} _{
Ġc re
i er
aram et
Ġor g
at ure
t em
ht t
it le
mathb b
Ġwh o
Ġ ext
w ard
cc ess
3 2
Ġsu ch
- \
oc ation
ĠĠĠĠ ĠĠ
f ile
ad e
ĠC om
f or
1 7
n ot
we en
Ġre l
Ġpro v
or n
y p
ar ray
S et
] ;
ĠA r
Ġ{ \
Ġ em
o ot
ĠĠĠĠĠĠĠĠĠĠĠĠĠĠĠĠ ĠĠĠĠĠĠĠ
ph i
u res
Ref er
^ {\
ib le
E N
Ġa ct
E rr
Ġa d
s elf
in s
l ambda
li ent
Ġund er
ic an
Ġd ec
se ction
c ed
il ity
io us
Ġn o
" )
Ġs im
ĠP ro
an ag
Ġth ere
u ff
S S
ep end
"> <
Ġe v
C ol
ar get
ist s
Ġe qu
Ġf ield
Ġcon s
ĠĠĠĠĠĠĠĠ ĠĠĠĠĠ
19 8
w h
Ġof f
Ġthe y
ut h
Ġ! =
al ign
ag es
1 4
iz ed
um n
Ġre c
Ġf inal
âĢ Ļ
erv ice
2 5
O bject
Ġt e
Ġth an
l og
m b
op le
Ġch ar
it ies
Ex ception
h at
iv en
Ġh er
1 3
Ġa fter
n ew
p ress
ĠC on
Ġp h
Ġ Q
b f
Ġc or
' )
ĠA s
Ġs ec
ur ing
Ġo bject
is hed
p re
Ġbet ween
iv ers
p art
Ġsh ow
i k
ol og
( $
d ate
Ġy ear
Ġm ethod
em ent
f unction
m ary
w ay
trans lation
t est
Ġ// /
] ,
p p
ra ct
or g
at us
v el
T est
o k
i ent
E n
Ġo per
re am
ic es
Ġm od
v e
str uct
Ġp e
ĠN ew
Ġo p
is ion
are nt
Ġp ol
==== ====
ĠW e
av a
ar s
f ace
Ġdif fer
Ġ ent
Ġe ach
U n
n ing
Ġb ack
Ġ X
Ġc al
in es
b r
le m
re qu
Ġf ile
pl ay
w idth
w n
Err or
ĠA l
Ġs ome
Ġp oint
Ġ Z
p x
il on
od y
Refer ences
a ir
Ġst atic
Ġ( \
o y
ang le
' );
an k
b eta
Ġm ay
G et
ow er
he ck
C T
iz ation
Ġs ystem
re n
mathb f
S E
I T
e ver
in clud
a ction
re d
s ize
m all
Ġst ate
b e
ment s
il y
g er
s igma
Ġg o
Ġy ou
Ġ est
K ey
Ġl ist
Ġpro du
le an
\ \
p ar
b y
^{ -
Ġ key
I nd
r u
D E
l er
ĠS tring
r ic
() );
ire d
() .
} {\
A s
Ġ --
19 7
ad er
ot e
00 0
Ġus ing
Ġs er
ĠF or
Ġ %
ev el
un c
Ġpr ivate
} ;
ild e
t ed
A t
t ent
oc i
ep s
Ġw ould
out h
mer ican
Ġh igh
a z
Ġg roup
Ġk n
Ġf e
g amma
sum mary
if y
t s
ĠA n
F ile
m e
ro ugh
ĠE x
E lement
if ied
3 0
ĠS h
F or
b all
u i
m od
Ġre p
Ġf l
ro ll
d is
Ġ z
c o
I m
C lass
2 1
Ġn on
Ġar g
in ter
t able
ur l
k en
t il
or ld
Ġc all
iv er
c es
as on
pon ent
ect or
Ġo ur
Ġa cc
Ġs ign
Ġthe se
B y
ri b
ind ow
+ \
Ġg iven
v iew
Ġs ame
Ġ ed
2 2
ab l
Ġs he
g y
r ite
us s
ir c
Ġs ol
n er
ord er
Ġab out
A N
Ġst art
Ġst ud
math rm
* }
Ġcom ple
t ime
Ġt ra
^ \
Ġf ound
6 4
Ġas s
g round
Ġ eff
ro l
r ho
at t
Ġerr or
r on
Ġm in
/ **
M E
ens ion
ra w
al ly
R equ
Ġ âĢ
ch ool
fig ure
d elta
et s
5 0
l ength
p ace
it ial
at ri
re g
ist er
() ,
W e
Ġin v
n b
ĉĉĉĉ ĉ
S h
r c
Ġ u
oc ument
ut il
Ġp aramet
res pon
Ġe lement
Ġc ent
N ode
ind ex
" ;
uff er
le t
Ġor der
Ġl ink
con st
Ġfollow ing
Ġs ing
ĠS e
b ol
Ġa c
Ġm ost
Ġsh ould
t ing
l ist
cri ption
Ġcon tain
E vent
Ġ/ *
d ition
Ġ: =
U L
l ink
) }
. </
O n
Ġc urrent
Ġg r
Ġpro b
Ġsec ond
Ġ );
Ġwh ile
w w
re ak
ce pt
[ '
f ield
] {
ical ly
ĠI f
o h
g o
/ *
b ig
ent ial
port s
ta u
v oid
are d
the ta
2 4
o ugh
Ġr un
Ġstr uct
lo ad
Ġap pro
Ġ ?
$ -
t op
Ġth rough
Ġt erm
ur ation
nb sp
ĠC ol
p ath
u ch
1 00
Ġd irect
T ime
a h
C O
Ġar ray
Ġl ong
f l
lo b
ect ed
] .
ra p
A n
c dot
col or
o ad
ar row
Ġs ize
re m
n u
ot t
Ġas sert
" :
en se
Ġpe ople
ro p
ivers ity
Ġb oth
P E
Ġh and
E qu
Ġw ell
Ġex pect
Ã ©
Ġd et
Ind ex
}$ .
is m
t imes
com m
Ġa m
Ġ} ,
ult i
le q
oth er
Ġpart ic
ĠĠĠĠĠĠĠĠ ĠĠĠĠ
D ef
ĠT r
ym bol
}$ ,
Ġl ocal
s cript
m an
op y
m ed
oo lean
part ial
ĠĠ Ċ
Ġag ain
n et
ur y
per t
ro id
Ġ= ==
qu e
htt p
tr y
} (\
p m
19 6
us h
ĠI nd
Q u
as es
T E
enc y
Ġth row
sp ace
se c
or th
P ath
Ar ray
om ega
ow ever
pt y
V iew
cent er
r al
Ġe vent
Ġth ree
form ation
p oint
a j
eq n
anag er
Requ est
P I
Ġdiffer ent
l ay
In fo
p ack
ant s
R O
pos ition
trib ute
' ]
a f
A C
Ġper form
qu ad
n ode
g roup
m et
evel op
an e
Ġf r
i ke
j s
atri x
In t
.. .
m p
um er
T ext
o use
t en
Ġvar i
ess ion
Ġ( !
b ers
p ublic
A dd
u c
ver t
l ocation
iv ed
' :
W ith
iv es
Ġne ed
Ġs ur
Ġ} );
F ield
b ed
Ġf act
le ar
St ate
Con text
s k
pro t
M ap
ft y
() )
D elta
ul ation
Ġre m
Ġre sp
def ine
ction s
//// ////
Ġpro cess
in fty
Ġcons ider
Ġthe m
in ing
Ġd uring
m ap
it er
4 0
al e
ĠA merican
Ġt em
Ġb efore
Ġc a
Ġval ues
Ġw rit
Ġrequ est
Ġ/ >
Ġ$ (
ot s
s q
eq ref
2 3
ro ss
t ilde
ar ge
Con fig
I ON
Ġd r
Â ł
f ul
m d
R e
st ance
if e
Ġresult s
ut ton
Ġm et
Ġ ,
iv ely
ap i
T R
N ot
Ġre le
it or
Ġn il
\ ,
P h
r ide
Ġp ar
Ġb uild
` `
"> </
Ġp ass
I tem
ames pace
Ġor ig
iss ion
" "
id ent
o ff
ers on
******** ********
l ang
ch i
d es
Ġr ight
Ġh im
A l
r t
S ystem
res ult
cal e
Ġbe ing
od es
se e
L A
' ;
pert ies
ur al
lo se
Ġt yp
ass ert
Ġim port
ĠĠĠĠĠĠĠĠĠĠĠĠĠĠĠĠ ĠĠĠĠĠĠĠĠĠĠĠ
b ox
im it
Ġre ad
ac es
h er
Ġ_ _
+ +
ath er
Ġm em
Ġdis c
gr am
il ter
" .
ign ed
x i
ĠC oun
ĠF r
Ġb ound
et work
Ġt itle
' t
old s
Ġdef ault
Ġs erv
n o
| \
F orm
O r
ĠL e
ĠUn iversity
$ $
Ġm ain
Ġsup port
Ġre f
Ġs mall
O ver
ĠO n
Ġa ut
Ġrep resent
S ervice
Ġyear s
us er
ay s
Ġ} ;
Ġat t
Ġn ode
iv ing
S ize
C ode
ist ory
am ily
Ġf in
ab ility
val id
ver y
al ity
og le
wh ere
over n
Ġob tain
H and
re at
Ġcont in
s l
o bject
n av
Ġlink s
ĠUn ited
Ġp op
U R
I C
Ġe ar
ap ache
trib ut
Ġse e
Ġeff ect
ad i
Th is
Ġdo es
Ġte am
O f
w ord
ar i
Ġn ow
pl ate
m it
Ġm ed
[ ]
Ġto p
Res ult
Ġdes cri
Ġt ext
Ġb r
am ed
u f
Ġp ath
Ġb el
ĠD e
Ġar t
Ġs ince
Con t
et urn
yn c
D es
g or
Ex ternal
oot ball
3 3
orm al
eqn array
ĠS c
ann el
cre ate
Ġm ade
tr ue
ore m
Ġm ap
sh ip
og raph
Ġal low
19 4
b o
v ious
at s
M A
t ab
V al
in put
Ġdist rib
Ġl ast
le ss
i or
olog y
Ġrec ord
Ġl og
w ith
s im
act er
Ġm on
Ġex ample
uth or
ur s
Ġc oun
Ġin put
id d
Ġm ax
l ing
plic ation
)$ .
Ġm any
ma x
ific ation
Ġob serv
in a
Ġle ft
f rom
respon d
Ġf ind
ps i
in ition
at ter
Ġt arget
tt p
a pe
Ġkn own
def ault
} }\
err or
Ġap p
Ġ ra
us ic
pl it
19 5
Ġind ex
st ate
ual ly
O m
o pe
Ġap pe
2 7
Ġp resent
ag s
ist r
L O
2 8
Ġre fer
end s
able d
nd er
Ġcal led
f unc
Ġle ad
H e
Ġbe g
ĠR es
Ġ čĊ
Ġcon dition
Ġb l
Ġc heck
Ġan al
U T
eta il
er o
ict ion
ub l
ile d
o ber
ub le
Ġm ust
. "
re ate
Ġop en
con fig
Ġinst ance
lect ed
Ġo ptions
m on
ĠE ng
press ion
b lock
se arch
u str
Ġplay ers
oh n
A D
. ,
B uild
lo at
re t
f in
} [
! --
2 6
Ġf our
=" ../../
tain er
ĠI s
ĠĠĠĠ Ċ
il ar
ca use
Om ega
os s
u age
id es
Ġch ild
Ġl ater
if t
t es
Ġb ased
Ġo wn
eps ilon
Ġcon text
Ġm ake
om et
id ed
Ġpos ition
Ġm ass
ne ction
s ide
as ure
includ e
iv al
n on
Ġbe cause
ĠM ar
Ġcon fig
G amma
Ġpro t
Ġs ource
F F
s up
st art
Ġd evelop
Ġv ersion
ĠR e
Ġus er
b l
o le
ust om
ot ype
um e
f ra
ol ution
lob al
ir t
M essage
F r
} _{\
Qu ery
Ġm ov
M L
Ġ( )
m odel
Tr ans
ix ed
b um
a id
st yle
G roup
che s
en ame
pon se
C H
ener gy
= '
Ġb reak
Ġst yle
in c
Ġpos s
Ġb ase
le y
Ġl arge
con t
Ġb ro
ele ct
Ġsp ace
Ġser ies
In ter
ar n
Ġsing le
Ġid ent
I S
Ġre ce
ic a
Ġm an
m ember
M P
p or
ic on
w eb
Ġcom put
re l
I s
com p
Ġin itial
our ces
Ġc ould
UL L
M odel
Ġ$ {\
Ġn ext
ĠG et
um ents
a i
Ġex p
2 9
un e
E D
o ptions
C ell
l p
ĠP h
^ *
O ut
ele te
Ġinclud ing
raph ics
om en
Ġcre ate
htt ps
w it
Ġg u
Ġo pt
---------------- ----------------
A ll
ev ice
ĠS he
Ġl ike
Pro perty
ĠS ystem
Ġle vel
o od
ĠSt ates
Ġdef ined
in ation
ar ri
v ersion
en e
F rom
Ġe very
c all
ĠP r
## ##
Ġfil m
)$ ,
i ag
U p
R eg
Ġcor respond
ator s
Ġt ak
ch n
en u
ĉĉĉĉ ĉĉ
Ġj ust
Ġc ode
Ġv is
Ġin formation
t ings
Ġint eg
sq rt
S er
en n
Ġin cre
Ġb lock
a it
u x
8 0
I G
ir d
ps ilon
t itle
ĠF ig
C all
M anager
N ew
Ġres pect
Ar g
6 0
Ġp res
Ġgener al
du ct
p arent
D is
he ad
t al
Ġ\ ,
ag ue
u ck
P l
th s
m y
b it
ĠC l
Ġj ava
b ody
Ġagain st
c m
Ġas sum
ĠO r
il t
Ġb ool
m ethod
T able
b s
C lient
a int
ol v
E T
L og
A B
âĢ Ŀ
end ed
in fo
ple ment
ĠA t
Ġse ason
op er
yn am
d own
Ġle t
che d
Res ponse
Ġd ep
if ier
n ess
A S
IN G
Ġit em
Ġd epend
Ġcont ent
} =
it ive
Ġback ground
Ġo cc
pos ed
Ġest abl
oc us
end er
at ures
Ġm ulti
Ġorig inal
ĠG r
C ount
^{ (
v are
ore d
ug ht
Ġab ove
ro du
ev ent
Ġadd ition
che ck
3 4
Ġf ootball
re c
Ġex per
sub section
Ġm ag
) (
and ard
roll er
ĠM ay
str u
ca ption
Ġm atch
}^ {\
' '
i od
im al
Ġ( $
Ġse ver
Ġv iew
ĠĠĠĠĠĠĠĠ ĠĠ
u ro
ott om
Ġj o
vare psilon
r angle
M od
ĠS p
ĠR eg
201 5
con text
201 0
a ut
d t
anc es
el s
e ction
v ec
Ġre ma
R ead
l ight
k s
Ġr ange
=" +
Ġd ue
b ase
Ġv ery
9 9
d o
ĠB r
201 4
eb ug
et er
ol ic
ĠW orld
i j
Ġal bum
h ip
ĠJ ohn
E nd
Ġ energy
Ġs chool
Ġwith in
ĠS outh
] )
d om
ĠC an
~ ~
c er
Ġy our
o pt
M ethod
iv ity
gor ith
d oc
E S
right arrow
U N
Ġs um
Ġre al
======== ========
ĠC ar
Ġun til
is on
Ġev en
c ast
R ec
f alse
3 5
201 3
) =
D O
201 6
ĠN ational
ail able
u les
con tent
is ed
Ġa v
prot otype
im ension
F act
00 00
ur ch
c ount
us ing
se mb
Ġbe com
ĠS et
In put
Ġex ist
Ġl ength
O ptions
> (
ĉ ĠĠĠ
Ġt able
ib r
201 1
i um
ens ure
he s
Ġpro ject
201 2
tern ational
Ġst d
ĠL ist
ir on
qu ot
St atus
i que
Ġ q
Ġn etwork
i ence
St ream
ĠA ll
at ely
ward s
Ġb ir
ĠE n
and om
irt ual
text bf
Ġsu ccess
ust er
20 19
Over ride
Ġf amily
201 7
im um
Ġpro perty
h and
c urrent
Ġm ark
w are
Ġl oc
( (
Ġd om
EN T
Ġ enc
ĠH owever
Ġest im
go ogle
Ġ-- >
ĠJ an
Ġw idth
Ġme asure
To ken
Ġhe ad
ĠW ar
Ġtr y
Ġd en
ap er
Ġo ld
Ġd own
Ġout put
pack age
it al
Ġc r
c ame
Ġc ur
ĠA d
st er
Ġpre vious
9 0
Ġal ong
c ul
Ġch ang
B ig
on se
Ġass oci
Ġ< <
at ab
Ġbe came
P r
201 8
c or
w id
c irc
] (
ĠP ar
Ġpro gram
Ġ Ð
ide o
r am
c ore
ord s
Ġp ost
var phi
d e
ĠP l
Ġchar acter
d b
U ser
Ġp ower
C l
at tern
ens ity
Ġe lect
epend ent
Ġresp onse
im age
Ġm y
Ġth ose
Ġparamet ers
ĠG e
ĠCoun ty
Ġd ocument
Ġwh at
Ġparamet er
em ph
m and
7 5
Ġt ri
ty p
s i
Ġsim ilar
Ġse ction
a e
Ġrequ ire
Ġn ear
Ġs rc
Ġto tal
Ġare a
st atic
Col or
U til
I P
Ġinclud e
Ġw ay
aj or
Ġm essage
C E
Ġd er
includ eg
includeg raphics
Ġex pl
l t
} ).
fra k
ĠJ ul
U S
O T
Ġ et
ĠB rit
g ress
Equ al
Ġcol or
Ġsever al
p ose
ĠB l
n ext
Ġb oolean
et y
pr int
Ġreg ion
) {
ww w
ĠY ork
d ec
mod ule
St yle
Ġs at
ate g
Ġwith out
m m
Ð °
ĠN ULL
b utton
Build er
ac y
am ent
N ull
ĠN ov
ord ing
ith er
pl oy
Ġh ere
ur ity
Ġval id
t n
b m
Ġs ervice
Ġh ow
u ary
ĠS chool
Ġcont rol
aram s
Ġcomm un
a u
ys is
a pt
pl ace
over line
o op
Ġa ction
4 5
Ġexpect ed
Ġd id
in ary
l in
d f
l im
I L
g t
3 1
Ġbe h
0 1
ref er
In stance
qu ery
S ource
Ġdet erm
3 6
ĉ Ċ
| -
h as
Ġpl ace
ĠT est
Ġb as
ge q
im ent
c lient
erm an
& \
ĠW h
ĠĠĠĠĠĠĠĠĠĠĠĠĠĠĠĠ ĠĠĠĠĠĠĠĠĠĠĠĠĠĠĠ
ĠT o
Ġim age
Ġsup er
200 9
ol ume
ĠB y
[ \
. ~\
able s
H ead
S ub
ic ro
Ġs ong
u k
Ġg ame
ĠA nd
rit er
ustr al
* /
a im
ith ub
O ff
Ġl arg
stru ction
Ġqu ant
Ġp o
Ġpoint s
Ġcon f
o ption
A nd
P aramet
i ans
or ph
v ision
Ġc are
ym met
( {
Ġpartic ular
overn ment
av ing
3 9
requ est
n ull
T H
pro of
Ġcor re
Ġst at
ĠC ent
amp ion
G ener
Ġsh own
ac ed
Ġa round
r ist
> &
200 8
al th
end ing
ĠW est
A ME
n ect
l ocal
ĠC al
ĠĠĠĠĠĠĠĠĠĠĠĠĠĠĠĠ Ġ
u ed
ug ust
Ġan n
m ber
arg in
y c
Ġde ath
O per
il li
ar r
Ġs pect
ut ions
ur ther
) ^
S tr
atab ase
; &
20 20
ist or
b uild
B ase
L ambda
. }
pt ember
d ay
Ġm at
c ss
row s
ele ment
che ma
r un
x im
v iron
j ava
Ġfollow s
se qu
Ġs k
ang uage
it t
T D
arg s
s w
O p
Ġstruct ure
Ġsh ort
c ap
x y
Ġcl os
z e
Ġd iv
Ġ+ =
er efore
g ithub
ĠO ct
200 7
R un
Ġc ount
read y
ĠâĢ ľ
I f
d ir
Ġp ort
ear ch
or age
u ilt
Ġorg an
Ð ¾
he ight
lic k
math frak
Ġmodel s
Ġst ill
g es
I t
var i
P ar
D ate
port ed
Ġl ow
ug g
B uffer
="../../ ../../
Ġpol it
3 7
ache d
3 8
N S
ic ense
ist ic
ad ata
ser ver
Y PE
v ers
f low
l ish
}, \
Ġp arent
F unction
mb ox
Ġfunction s
At tribute
ar m
Ġm usic
Ġb and
L et
Ġ` `
Ġre du
Ġex ec
n s
pt r
on y
Ġl aw
S ee
O O
ast er
200 6
P os
Hand ler
S c
m o
Ġre t
ch ild
E d
Im age
n amespace
um p
s pec
t arget
ĠR eturn
B lock
B e
t x
om an
Ġterm s
ĠG u
I I
Ġc ap
Ġd el
ex p
pro v
in it
ol l
E X
=" #
se lect
Ġl imit
ic ial
Ġb o
Ġw in
. \
l angle
Ġl abel
ra int
ug in
S elect
ame work
c ase
ef ined
and roid
ĠM in
L ine
Ġs aid
ĠM arch
le x
S ec
gorith m
an el
dis play
Ġch ange
Ġb ook
way s
Ġl ife
al k
un g
D ec
h old
ic le
a iled
pr il
app end
ĠA ugust
Def ault
Ġb order
etail s
Ġa ccess
Ġcomm and
ĠSt ate
Ð µ
Ġ! ==
Ġprob lem
ater ial
ĠSe ptember
ĠJan uary
li b
e ed
um b
Ph i
ud e
Ġm ak
Ġs equ
ex pect
j o
Ã ¡
Con tent
am il
ep ar
st it
Ġ url
Ġp ubl
} }$
Ġrequ ired
p age
ĠThe y
re en
Ġposs ible
d r
j son
6 6
F ilter
Ġf ull
ĠâĢ Ķ
k n
le ge
in ess
0 5
ĠO bject
m ark
ĠU S
ĠOct ober
Ġd em
is f
} ),
U E
ĠC o
h line
L ay
Ġint rodu
v en
al f
Ġv ert
Ġw orld
tribut es
ĠT e
Ex t
an ch
Ġdistrib ution
in o
if f
Ġdescri bed
Ġs ample
pon ents
Ġpro m
Ġfor mer
20 00
ĠA dd
Ġw on
H T
C K
ĠJ une
Ġpro perties
act ive
Ġm uch
Ġan other
Ġadd ress
Ġhe lp
Ġper iod
Ġshow s
F A
ra ft
Ġcall back
Ġs ide
ld ots
Ġt ake
p c
ĠB e
ce mber
St art
Ġh ttp
ĠĠĠĠĠĠĠĠ ĠĠĠĠĠĠ
Res ource
Ġcom b
app a
ens or
Ġrele ased
al es
add ing
ON T
ot ential
B ar
iz er
Ġear ly
Ġ" ""
ib ility
i ev
Ġ( (
ar ning
ĠJul y
Com p
Ġplay ed
Ġ eng
Ġcol umn
ĠA ustral
Com ponent
Ġav ailable
ut ed
wit ch
uro pe
i i
p ush
Ġb est
oc ol
; </
Ġind ic
b ra
ch ar
us ed
ĠN o
F I
Ġl a
Ġm atrix
b olds
Ġd eg
Ġl ay
S pec
5 5
Ġ es
Ġal ign
ĠS ec
u ation
y l
ur g
Ġdes ign
Ġis s
b orn
Ġmod ule
ĠA ss
} );
eg er
Ġs s
N umber
O S
w rite
ĠA pril
ĠS up
Ġt ask
bolds ymbol
D I
F l
Ġ{ @
E L
non umber
S p
s f
=" ../
Ġn um
Ġmem bers
pro perty
4 8
7 0
Equ als
er g
Ġte chn
ri or
ad io
r l
A P
ograph y
Ġkn ow
ot imes
Ġcon struct
Ġdis play
Ġh ost
e k
ateg ory
d raw
end if
lo ud
Ġp erson
m at
ĠR ec
Ġ- >
d ict
Ġm ember
ĠN orth
cl us
viron ment
AT E
im ary
Ġst ates
w ise
ĠC ity
S P
h am
V ersion
Fact ory
//////// ////////
Ġev ents
Ġelement s
ĠR ep
ad a
ĠNov ember
A pp
g le
N o
Ġtr ack
C C
ĠP ol
return s
P oint
Ch ild
ĉ Ġ
ic ient
Ġthrow s
Ġstud y
ut ure
Ġdisc uss
l en
200 5
ĠThe n
op en
s igned
n ow
Ġstr ong
Ġt imes
v is
s mall
A ct
abl a
_ .
ĠBrit ish
he ader
ob j
pl ied
pro p
ĠI N
G L
ĠDe cember
Ġs cal
Ġe ither
Ġmethod s
T O
Ġa ff
Ġfe ature
k appa
Ġn amed
s g
Ġinter est
Ġd est
il it
I M
W indow
Ġg raph
Ġc ell
A p
ĠG ener
/ \
he ther
[ "
A ction
n abla
h ost
Ġc our
ampion ship
so ft
c ell
T ask
Ġbir ths
C reate
sub set
l ast
on ly
Ġre st
al t
cre en
Ġle g
Ġim plement
Ġs pe
g ener
4 4
ĠP art
Ġf ore
ĠD o
ap an
Ġc lient
ph p
eb ru
Ġc ity
er a
cent ury
ur b
ac ing
p ost
Ġw indow
ER T
Tr ue
Ġhe ight
fo ot
ire ction
P art
Ġme an
ĠLe ague
ĠE d
R ow
} )$
an a
ĠD ef
Ġa ver
Ġappro xim
Ġw ant
Ġst andard
ord in
o ice
plic it
f ind
Ġf ree
S igma
Ġre d
Ġl ook
ebru ary
O b
Ġconst ant
Ġm ajor
H el
( &
th ough
us iness
Form at
Ġt ele
Ġprot ected
Ġcre ated
op s
Ġd ensity
f irst
x ml
ĠI m
yp es
ĠS er
s rc
st atus
A G
Ġp age
Ð ¸
s ing
p ng
Ġ[ ]
Ġfield s
" ),
L ength
) </
Ġp air
m t
Ġl oad
le g
sk ip
ent ly
Ġs l
ĠK ing
ial ly
id ual
Ġ ke
Ġro le
S up
. $
ĠA fter
ensure math
Ġprodu ct
semb ly
Ġthe ory
id ge
Ġc ar
Ġsat isf
Ġt urn
Ġappe ar
ig ger
it es
Ġl and
li p
Col lection
Ġobtain ed
od ing
pr ime
ĠA b
Ġcorrespond ing
n a
S C
Ġcomple x
Ġcomp et
Ġph ot
ĠE urope
Ġspec ified
ĠQ u
ial og
Ġs epar
Ġcal cul
on es
E E
Ġn ormal
ref ix
w ide
ch ange
Ġf ail
Ġline ar
Ġand roid
Ġc lear
Ġfil ms
200 4
re st
Ġab s
Ġal ready
ĠTh ere
Ġgo od
Ġh ome
] );
Ġd ay
Ġar r
rem ove
Ġp otential
Ġdef ine
ER R
6 5
\ [
Ġco up
M et
kn own
Ġe p
Ġph ys
n umber
oc ial
v es
b uf
requ ire
cite p
C heck
c an
Ġpro f
Ġl ight
ed ia
Pro v
ra in
at tr
O P
Con st
Ġassoci ated
Ġrece ived
Ġreturn ed
A M
ren ch
}} {
ĠM an
om ic
Ġc lose
Ġpop ulation
m ar
Ġb ody
\ %
Ġchild ren
ĠThe se
um an
p ly
Ġl ower
u id
Ġimport ant
l s
am a
ver se
A A
Ġext ends
ure d
A d
olog ical
Ġc irc
ens ions
++ )
at as
ĠF ebruary
T P
List ener
Ġv ector
st ream
str ong
ĠL et
un k
S ON
Ġin ternal
: "
ĠIn t
Ġst atus
om ent
Ġto wn
IN T
ĠC or
und le
Ġoper ator
Ġinclud ed
< !--
Ġc rit
// /
Ġcontain s
b ottom
Ġspec ial
" ).
des cription
al y
ĠN one
row ser
ĠE X
Ġs che
app ing
text it
da pt
Ġloc ated
\ !
Ġar ch
Ġo ption
ĠF l
L ink
Ġc ross
Ġm ode
Ġcare er
Ġsign ific
AB LE
Ġw omen
Off set
ad em
Ġb uilt
ĠA p
Ġg e
as ing
Ġres ource
Ġprov ided
at form
ĠY ou
Ġdif f
P age
) ]
Ġu int
b tn
0 8
pr ivate
Ġsol ution
ĠCh rist
ill ion
Ġcom ponent
Ġsu ff
in st
Ġequ ation
Ġad v
ro y
Ġf urther
Ġp ack
UR L
ĠC lass
Out put
Ġqu ery
A merican
Ġestabl ished
Ġperform ance
Ġp aper
Ġw rite
form at
so le
Ġg overnment
st d
Ġcol lection
comm and
Ch ar
Ġch annel
0 4
( -
ĠI I
ĠA rm
( _
ist ry
con d
Ġc over
ul a
Com mand
el ine
Ġcol l
Ġf ew
Ġh istory
Ġs cale
up date
Ã ³
Ġwrit ten
ĠW hen
Ġm ot
Val id
Ġc opy
ĠĠĠĠĠĠĠĠ Ċ
Ñ Ĥ
olic y
ip p
Ġs outh
wid et
Ġth ird
pro cess
illi am
Ġup date
Ġle ast
adi us
Ġs em
Ġst ation
ĠD es
y les
Ġconsider ed
Ġhe ld
ard s
Ġle ss
ĠH igh
ch o
9 5
N av
Ġa uthor
\ |
al le
M O
> >
Ġ ]
or ies
col umn
P e
l ong
ibr ary
re w
f ilter
es e
8 8
er ed
Ġacc ount
ock et
" ]
ĠB ar
W eb
pro ject
ĠEng lish
n um
20 21
ex ample
ĠM c
Ġbel ow
Ġdo uble
r ation
olv ed
Ġr ate
ĠCom p
Ġbeg an
Ġcl ub
Ġl en
s u
med i
ĠG L
, -
t ag
widet ilde
j av
ud io
ĠM e
idd en
ele g
G r
Ġit er
Ġn eg
ugg est
$ {
i et
er ing
0 2
Ġfe atures
our s
Ġv er
} -
LA SS
H E
{ -
Ġcondition s
T YPE
il er
C L
ra v
Ġform at
to ol
0 7
Ġob j
Ġv ia
0 6
Ġd on
Ġr andom
C ON
st ract
Ġf low
Ġz ero
ĠV al
i as
ĠA ct
i qu
Ġse lect
E m
he et
le vel
M ode
Ġgr ad
wh ich
Ġex ists
Ġcons ist
Ġl ines
re et
off set
ri es
istr ict
op h
i ber
y d
Ġcomp any
con tainer
Ġv ill
Ġrespect ively
Col umn
ight s
Ġanal ysis
Q L
m ult
A ut
tain s
c it
ond on
il le
M S
Ġph ase
at al
Ġc ases
ĠH is
Ġto ok
Ġreturn s
d ep
ac ity
ĠJ apan
C ache
W idth
Ġinv est
Ġg ames
Ġ ide
L abel
200 3
r s
re ed
Ġw hether
M em
Ġ& =
Ġc atch
Ġ row
ly ing
Ġvar ious
q l
F ig
i res
Ġh ouse
p y
idd le
ĠCh ar
C ase
ap s
Ġpr int
Ġsim ple
out put
Ġa ge
Ġs ent
expect ed
pl ies
row n
RE F
ĠE l
\ ]
Ð ½
center ing
ab ly
param s
Cont roller
R eturn
200 1
fer ence
6 7
Ġsystem s
Ġpubl ished
Ġs ix
ĠCom m
Ġd ynam
Ġdef inition
N O
ta ct
a use
C D
**************** ****************
ing ton
b b
Ġplay er
P re
und er
h a
uss ian
ĠTr ans
ig ation
b ook
] [
g l
ol ve
Ġbeh av
dot s
Ġse arch
Ġinter face
ent ry
ĠAs sert
un it
Ġrel ations
Ġl anguage
Ġd iag
f ont
ce ed
m em
Ġun it
Ġinst ead
Ġf ive
in stance
Ġappro ach
he l
Ġd ev
ta x
og n
Con tainer
Ã Ń
Ġd eb
ĠB o
is ing
Ġarg s
T ypes
g en
ĠL icense
respon se
Ġre pl
em pty
Ġspec ific
Ġser ver
Ġf requ
Ġoff set
Ġmulti ple
Ġm anag
om orph
ĠA fr
S I
ug e
th ers
w ed
cript or
Ġoper ation
u int
0 3
id get
un ic
Ġme ans
d l
B utton
fin ished
P RO
ĠE q
B ack
0 9
200 2
ĠS o
Ġs ite
; \
ed er
ĠO ne
Ġtyp es
ch an
em ents
Ġsignific ant
s plit
k it
z eta
} +
rap per
ut es
Up date
ition s
F irst
B U
back ground
a ul
oun g
Ġn umer
\ {
Ġn ational
ct x
Ġset s
on al
Ġaver age
T em
Ġof ten
Ġobject s
U I
Ġtem per
Ġst ream
ĠN ot
ar ies
V ER
b ind
c il
m ost
P er
o ke
4 7
ĠD r
ĠT ype
ĉĉĉĉ ĉĉĉĉ
arri ed
ĠS an
b or
Ġhigh er
action s
Ġprov ide
T arget
Ġbl ack
L ocal
ab s
s cale
R em
s in
c el
ĠA PI
Ġgroup s
oper ator
Ġarg uments
at ural
ĠCol lege
it ory
Ġcon c
ma in
ĠAr ray
Inter face
Add ress
Ġam ong
el se
Ġwork s
Prov ider
Ġtrans form
A fter
T ag
ĠL ondon
ĠReturn s
Ġsequ ence
U rl
Ġin s
Ġst ep
U M
ĠD is
4 9
m eta
Ġg l
Ser ver
f ord
ĠM on
f inal
c os
Ġfil ter
Ġl ate
ĠL a
tem plate
Ġs ymmet
iz ing
F ONT
ĠE ast
Ġspec ies
Ġin du
R ange
ĠS ch
Ġh owever
( [
) =\
im ation
N AME
Ġth us
ion al
art ment
b ound
Ġe as
ic i
Ñ Ģ
ĠS im
ĠP er
ang ed
sh ould
Ġg lobal
ne y
Ġro ot
Ġd one
A cc
Ġc er
Ġex press
Ġpro of
D B
Ġcon ver
D o
Ġre search
ry pt
ec ess
im g
Ġtra ining
Ġal ways
Ġequ al
g ing
Ġd ate
ĠS ub
' ).
ĠO p
Ġin div
Ã ¼
Call back
r ict
B ox
ft ware
ĠP ark
P si
id ence
ĠL em
th m
Ġv irtual
d ev
iz es
Ġd i
c y
tab ular
d ist
p ol
Ġp erm
Ġbuild ing
Ġatt ack
Ġserv ed
k a
par se
ĠĠĠĠĠĠĠĠĠĠĠĠĠĠĠĠ ĠĠĠĠĠĠĠĠĠĠĠĠĠĠĠĠĠĠĠ
sc ope
G e
av es
} /
ĠF rench
Ġf ocus
al ax
ĠW ith
Ġpos itive
m enu
I O
W rite
Ġcl aim
$ )
and ing
Ġcent ury
bo ard
f ill
Ġind ependent
ex ec
i ol
Ġp ut
Ġaddition al
f e
ĠĠĠĠĠĠĠĠĠĠĠĠ Ċ
Ġf ixed
m atch
a ff
an ish
c lose
Ġadd ed
ĠA ir
b ased
} =\
Head er
av y
) ^{
ĠC ont
ĠThe orem
att le
Ġpro p
serv ice
< ?
ĠR ef
ĠB ro
ĠCh ampionship
Ġt w
8 5
un finished
Ġw ater
Ġfin ite
af e
Ġund efined
A PI
Ġal gorithm
sh ow
A ccess
Ġe val
Ġb uffer
} ]
or iz
Ġse en
M ax
ĠW illiam
val ues
R ep
iss ing
ĠI D
p ass
? :
Ġcomp ar
Ġcomm on
Ġc ustom
Ġreg ular
old er
199 9
Ġbeg in
Ġh aving
Ġrefer ence
Ġg en
Lay out
ĠAr t
m es
ab or
Ġbecom e
Ġed uc
il ities
Ġb orn
ĠD istrict
w indow
}\ ,
ilit ary
i ers
ge bra
at io
ig en
Ġaut o
Ġan t
Ġv ideo
t ask
' ),
Ġro und
Ġm argin
Ġa ir
tem pt
ro ot
c s
l ate
Ġl ocation
ĠF ile
Ġcent er
and id
Ġcontin u
chi ev
ĠS ince
oci ation
itt le
ot o
Ġca pt
P C
Ġe lection
ĠD av
ĠJ o
Ġre cent
c r
p o
ĠH T
ann ot
li ke
H istory
N ext
if orm
f oo
Ġv ol
ĠH ar
Ġl oss
| |
imension al
b uffer
8 7
4 2
icro soft
Ġh om
yn tax
Ġrem ov
is es
S O
Fr ame
M in
Mod ule
C o
ist ics
Ġto get
9 6
Ġtoget her
PE CT
F e
Ġrel ated
ot a
Ġf ac
He ight
ĠP res
{ }
9 7
ev en
Ġindiv idual
i ef
it ect
D e
r ing
Ġc amp
Config uration
n ected
ĠG o
Ġtele vision
A ss
ĠA mer
Ġpl an
Ġs uggest
W h
^ +
Ġcan not
Ġl im
f loat
}_ \
ĠSe ction
ĠN or
Ġsur face
ĠH ouse
ĠO ff
ĠG erman
b a
enc ies
ir m
ĠP e
refer ence
Ġin it
X X
ĉ ĠĠĠĠĠĠĠ
b ool
Ġdist ance
Ġoff icial
: (
gr ad
ex ports
Ġst ar
Ġm oment
ph er
ition al
. /
Ġdist rict
E nt
ĠIn ter
Ġchang es
T op
r ics
ri ef
ĠH er
Ġm en
ult ure
im ages
l a
Ġequ ival
nav bar
, "
Ġs it
R L
Ġcon v
B C
En try
Ġfact or
st ack
Ġon ce
ĠC up
}^ \
Ġm ove
Ġse lected
urn al
not e
ly mp
K ind
{ (
Ġp ract
Ġb usiness
ot ed
9 8
cdot s
. ~
equ iv
ra ction
pro to
in n
ĠU p
Util s
Ġf it
ic o
Ġcon nection
âĢ Ķ
id ing
net ic
re es
Ġ ~
ĠPh il
Ġn ov
Ġx ml
lem ma
F T
l n
Ġeng ine
wide hat
Un it
Ġprodu ction
Ġem pty
s m
Ġdom ain
U s
L oad
4 6
Ġtr ad
if act
Ġprodu ced
Ġh alf
ĠS k
Em pty
UL T
Ġrem ove
Paramet er
Ġann oun
h ib
ind ent
ĠD ep
T ree
Oper ation
() ->
V ert
Ġn orth
Ġc ost
S U
ul ated
Th read
ess ages
V is
Pro cess
Ġfile s
Ġact ive
Ġconfig uration
ĠIn ternational
Ġat tempt
lic e
b reak
oo se
t ree
P arams
Ġ ;
J son
Ñ ģ
Ġ{ }
`` `
199 8
O ne
Ġn ames
W ork
util s
comm on
Ġ* *
Ġ ...
Ð¾ Ð
) }\
and s
& =
ĠA c
od er
S D
ĠM ed
P O
Ġ> =
res ource
du c
q quad
Ġb ox
th at
Ġqu est
7 7
x x
S H
id s
Ġs ay
c ache
d s
yc le
ĠA m
Ġt ree
Ġw ar
ĠC reate
Ġpol ic
as cript
Ġent ry
ĠS ee
Ġobserv ed
Ġin fl
ĠC O
Ġstart ed
he m
ĠR ed
Ġgener ated
Ġtak en
Ġap i
lay out
fr ame
AR T
Ġcomple te
{ {\
Ġ( "
M atch
Ġarg ument
ar a
Ġl iter
( {\
omet ry
Ġf ont
ot al
Ġbet ter
Ġex ception
Ġg ive
Ġap plication
L evel
V AL
p atch
Ġd ied
Ġne ver
IN E
if orn
Ġa chiev
S im
Ġdevelop ment
r um
Ġg round
Ġn one
ĠF irst
\ "
ic ation
Ġre nder
Ġto o
Ġf und
ĠA g
Ġex act
ag ed
ut able
Ġlarg er
} |
x is
CO L
C P
ĠEX PECT
K E
im ate
Ex ec
Ġcoun try
y ear
qu are
land s
Ġm ight
P ort
L ast
Ġac ross
Ġs on
ĠR em
199 0
ĠD iv
ef t
D ocument
res h
in ner
Ġf loat
ri end
Ġd a
iforn ia
Ġcorre ct
im er
A g
H ash
Ġvill age
}) \
" ))
Ġn ecess
ell ow
Ġhand le
ĠR iver
n ce
Ġac cept
ĠP ort
ĠE rr
Ġr ank
A b
Ġs w
ĠInd ian
Ġf ar
pp ed
o ch
Ġexper iment
ho od
ul ations
Ġsupport ed
8 6
Ġf ig
ap pro
ĠC LASS
b urg
Ġab le
in ated
Ġwh ose
ache s
Pe ople
el oc
Ġro t
Ġpro posed
Ġd oc
ĠM ich
Ġm aterial
Ġclos ed
V E
L I
Ġrel ative
Ġquant um
st ar
Ġestabl ish
5 00
or ge
s v
c up
Ġed ge
#### ####
Ġex pression
ent ion
Ġsuccess ful
ĠB ut
L iving
) {\
Ġb it
Ġle d
et ch
ĉĉĉĉ ĉĉĉ
Ġcl uster
ast ic
P tr
to ken
Ġrepresent ation
d ocument
Ġpre dict
lay er
n ormal
ĠN ote
w ait
Ġh ard
ĠE nd
Ġmov ed
ĠM ore
Des cription
20 22
line ar
Ġco ordin
iction ary
ĠEng land
a uthor
p df
E ng
C R
Ġh istor
oci ety
Ġ ill
Ġp ay
t ml
ĠH REF
Con nection
Ġfr ame
ar p
ST R
om b
use um
O ption
Ġtem plate
Ġsur v
at i
m id
ĠD ata
Ġvari able
f s
Ġdes cription
T I
Ġsp in
Ġim p
Ġg alax
Ġ< !--
Ġ\ {
Id ent
Ġre view
Ġre ason
g ed
P ack
Pro t
Ġg row
Ġm er
Ġdec l
ĠW eb
equ al
E Q
Z E
ate gy
oy al
Ġassum e
ĠC heck
urs or
Ġmax imum
ĠS tr
ct or
Ġst op
ĠI r
re nder
Hand le
Ġl ik
Ġbound ary
ĠĠĠĠĠĠĠĠĠĠĠĠĠĠĠĠ ĠĠĠĠĠ
D irect
Ġp rior
it ude
Ġdeg ree
Ex pression
d rop
struct or
c i
D ir
8 9
ach ine
Ġn amespace
text width
eleg ate
Pro perties
u el
b in
Ġ* )
Ġcommun ity
L ocation
Ġconst raint
v as
et ers
ip s
Set tings
ĠCal ifornia
min istr
Ġperform ed
Ġc ut
s ystem
Ġprob ability
( *
N D
H ost
ĠF rom
k er
Ġact iv
z er
Op en
_ ;
Ġf uture
n ap
ip al
e h
N ames
() :
le ase
N one
oc r
* {
Pos ition
re q
Cont rol
g reg
ad ow
D F
> ,
Ġ$ (\
I ter
Ġp arams
the n
Ġacc ording
ill s
Ã ¶
ĠM y
ĠFig ure
str ict
ru pt
ark s
d ated
Ġp ress
by te
Ġd etails
ĠAustral ia
& &
5 7
jav ascript
199 6
D r
199 7
}^{ (
Ġwe ight
Ġat tribute
ĠE m
vari ant
act ers
R ender
Ġw est
Ġd ays
Ġmed ia
Ġsub ject
c ur
ĠEx ception
j ection
ĠA cc
Ġp attern
5 6
{ {
ĠR ev
ot es
4 3
ple te
os p
f il
}} (
C urrent
Ġanal y
c d
Tr ack
ĠRep ublic
" ));
C an
ic ol
Ġbro ad
v ector
d ebug
t ic
in ternal
Ġd irection
Ġmak ing
ed ef
th on
Ġtrans ition
Ġn odes
Ġtemper ature
Ġpass ed
} :
Ġen vironment
Ġp ur
Ġrele ase
Ġpro file
ĠPart y
ar io
Ġover ride
Ġb g
ĠG roup
=" _
St ore
Refer ence
R el
Ġset ting
M M
Ã ¤
he nt
al let
iv il
Ch ange
lang uage
Ġh old
ms g
ĠO F
Ġre port
anc ed
Ġcon struction
Ġm illion
Ġr ather
Ġam ount
Ġpre c
ang es
ĠL og
d epend
ession al
o on
Ġ ::
Ġex cept
atas et
Ġt ag
ict ure
Ġcom ponents
Ġqu e
at ives
Ġem ploy
ĠA pp
W idget
}\ \
s ign
Ġd evice
a el
Ġs om
St at
h ash
Ġun ique
Ġg ives
4 1
S L
Ġc ame
Ġj ob
p op
AC K
Paramet ers
Ġre ported
d est
Ġcontin ue
ain ed
rom ise
r ule
le ms
yn ch
eg ment
Ġap plic
un n
Ġm ale
Ent ity
up le
Ex p
ad ian
Ġh uman
% %
Ġg reat
ĠB el
Ġst ory
Ġin ternational
Ġdirect ly
M eta
od ed
ĠA ward
Ġcon tribut
Ġus es
f g
com e
Ġh app
un ch
ĉ ĠĠĠĠĠ
5 9
Ġlead ing
Ġcent ral
i ation
Ġto ol
Ġequ ations
ad es
ĠN S
a fter
Ġne igh
Ġmem ory
ĠM al
Ġrun ning
ub e
Ġe ast
am l
Ġb i
ĠGener al
y per
ĠLem ma
ĠInd ia
Ġcer tain
CO DE
C ore
P o
Ġ{ };
r is
Ġcontain er
S earch
Ġfor ce
m ing
n ost
u z
ĠM ark
ag ing
Ġy ield
Ġf em
ĠTh us
stit ute
Ġs old
Ġunder st
As ync
y a
Ġf ailed
H ttp
web kit
In valid
ã ģ
OR T
Ġth erefore
or ig
Ġent ire
Ġ Ã
: </
Ġn av
jo in
e in
im est
Ġvari ables
Ġf all
Ġreg ister
Im pl
c lear
us es
Ġv eloc
f n
g n
Ġpart s
S cript
P R
Ġinclud es
Ser ial
Ġwe ak
Ġf ather
Ġserv ices
ol ute
. )
Ġdeath s
m ode
ĠC our
Q ue
w in
ber t
trans form
con f
Ġup per
ERR OR
ind er
) -
ern el
Ġep is
As sert
198 0
s d
ur i
Ġeffect s
h r
s y
Ġre lation
ĠS um
Ġnot e
math sf
__ (
AT ION
C opy
Ġwork ing
B l
$ (
ag ment
Ġto ken
Ġerr ors
7 6
Ġallow ed
cont rol
en umer
ber g
Ġ& \
Ġke ep
Ġen ough
5 8
Ġpar se
ĠCh urch
Ġn atural
ĠN e
t ra
Ġw ent
' $
ĠT able
inal ly
ile s
S ession
S ince
Ġth ough
F O
clud e
call back
ĠQ ue
d et
ther n
typ es
] $
Ġme chan
at ively
ers ist
Ġs ocial
Ġim prov
an i
h space
Ġhas h
Ġsol id
F il
ĠO lymp
Ġa ward
x space
iss ions
c opy
AL L
em s
IG N
199 5
at ory
Ġintrodu ced
tr ack
Pro ject
ĠFr ance
= {
Ġcurrent ly
Ġinfl u
ĠT ra
u a
ĠH ol
P olicy
Th ere
}} {\
Ġin f
Ġpartic ip
U P
Ġprov ides
se cond
b and
ĠS pec
E l
st yles
r ange
ĠR oman
Ġst ore
~~ ~~
Ġdevelop ed
Ġannoun ced
Ġh olds
Ġh tt
Ġc ache
Ġwe ek
Ġneed ed
Ġapp ly
Ġd raw
d elete
Ġr ule
Ġallow s
B ody
E v
Ġp adding
o res
operator name
C al
En c
hand le
Ġsign al
F ont
R out
o ught
ri p
oun ter
w est
C A
Ġk ind
Ġa way
} +\
ĠAmer ica
Ġim ages
r d
ĠCan ada
type of
ar ily
Ġst ars
ig g
` ,
Ġsc ope
h i
Ġpr inc
L eft
S A
ĠG erm
Ġs ymbol
Ġaut om
I R
ro te
-- -
ĠArm y
Ġbg color
Ġap plied
ic les
t ion
ic ult
Ġse lection
Or der
Ġtrans fer
Ġm id
` .
med ia
ĠTh om
AN D
Ġden ote
ã ĥ
Ġinteg r
ma il
ĠEurope an
M on
alle l
tr ies
b order
Ġpresent ed
s ort
Ġacc ur
Arg ument
Ġeffect ive
Hel per
Ġg a
Ġex plicit
ĠO R
om s
ĠS m
ri a
By tes
as ic
Ġ- \
R ect
B A
| ^
to String
ĠCoun cil
B r
ĠT O
c ing
ach ing
D om
ĠĠĠĠĠĠĠĠĠĠĠĠĠĠĠĠ ĠĠĠĠ
d imensional
L e
it ar
cit et
Ġcomple ted
ul ly
S chema
Ġoper ations
199 4
we ight
no indent
Ġpop ular
199 2
Ġhtt ps
Ġbehav ior
Ġv ers
inter face
ĠP aul
Ġs witch
Ġo thers
H O
Int eger
d en
Ġits elf
ĠR ober
ind ing
Ġext ension
ro s
Ġb en
Ġ[ '
} -\
t ex
u ate
Ġan g
il ation
Ġc andid
% ;
Ġle arning
e al
ag ger
a a
id a
c at
om ial
Ġwe bs
n eq
ĠO ut
Ġclass es
Ġarch itect
Ġco eff
ant ic
Read er
ĠM et
Ġst age
overn or
Ġb ar
Ġpolit ical
ĠA nt
TE ST
ĠP al
Rec ord
ĉĉ Ċ
Ġresp ons
in i
av en
ick er
Def inition
ĠD em
ĠSt reet
b efore
Ġrec ogn
R ight
ĠJ ames
" `
S ymbol
CT ION
ĠM ag
Ġ( '
1 000
Ġstud ents
ĠM ath
c p
th ing
h ad
\ ,\
as ons
d evice
B undle
mo oth
one y
Ġcon duct
Ġ+ +
a ign
AT A
j ust
ĠPro v
Ġof fer
l or
ĠD E
Ġv olume
================ ================
Ġpr imary
Ġwh ite
Style ID
Ġby tes
D own
Ġstr ict
Ġt reat
Ġqu al
ex ception
led ge
) }{
t og
Ġnum bers
Ġal most
clus ion
) /
S ign
P i
Met adata
N ote
Ġl oop
N et
( :
Ġopt im
Ġbas is
ers hip
Ġs ession
Ġa dapt
d im
a uth
an ia
b oolean
ont al
the orem
ĠT ime
Ġ ign
Ġpolit ic
a ur
Ġch ain
ans ion
ĠP ublic
ell ing
Ġcomp ared
Ġtak es
he st
Ġother wise
f ree
oot st
ens ive
ĠM od
m ission
W hen
R oot
re ct
Ġact ual
Ġchar acters
ic ons
Ġsmall er
T ER
h an
et ime
re place
en v
P P
$ }
Arg s
Ġd elete
Ġal gebra
V ari
Ġun signed
ma ke
add ress
ĠR ich
d irect
197 0
Ġc ref
ra z
6 8
ound ation
Ġgo al
Tem plate
Ġd imension
ĠReg ister
Ġby te
N E
ĠE ar
P ass
Ġcomm it
o ader
u ated
all ow
Ġright s
os en
g raph
Ġ _{
Ġv iol
web pack
Ġim plies
it ing
class es
ree k
co pe
s cal
T ool
F alse
Ġl ost
ĠS en
Ġcontain ing
5 1
Ġare as
Ġs ources
Time out
P arent
Ġwork ed
Ġme et
Ġpolic y
Ġw ord
P ol
sc r
5 4
Ġchang ed
S k
d el
) }$
Ġg as
Ġitem s
' ],
ous ly
o om
ĠF orm
Result s
L ong
i us
Ġsh ape
Ġap point
w s
199 3
ĠM ap
Ġopen ed
9 2
St orage
lo or
ĠPres ident
OR D
ĠGe orge
R A
V ector
enc ed
Ġreg ard
om y
Ġne ut
S erv
ĠErr or
ĠDav id
h igh
un t
SE T
Ġin fo
Val ues
Ġdiffer ence
ĠO b
an o
ect ors
ĠS ervice
Ġr adio
Ġlay er
Ġl ive
ĠF il
ĠB ase
25 5
Ġjo ined
v ille
Ġra il
ix t
Ġs plit
7 8
D atabase
] \
Ġdescri be
ĠAr g
am s
Ġe con
ĠS T
Ġinst all
Ġs ort
ish ing
ĠC r
v m
ĠDiv ision
L L
Ġbel iev
b ul
ĠAss ociation
ĠOp en
Ġf a
Ġwrit ing
g lobal
re ater
art ifact
Ġbecom es
Ġcomp an
In st
Ġa void
S R
ad o
wo od
ut ive
el li
Ġdef e
Ġset tings
Ob j
5 2
enumer ate
Ġt en
Ġexist ing
P RE
Ġth read
Ġmak es
item ize
f ocus
imest amp
m ulti
Ġp ast
9 4
}} _
Ġw rote
err y
Ġm arried
Ġp aint
cri be
9 3
Ġprov e
ri an
Ġy oung
Ġcont ract
P aram
f act
Ġm ilitary
oriz ontal
Ġro ad
in ct
Ġsign ed
Ġphys ical
N on
9 1
ac cess
equ als
E M
Ġc ast
ĠUn ion
B oolean
ĠBl ack
D oc
Ġequival ent
G ET
Ġt re
X ml
model s
Ġfr ont
ĠS ing
Ġtak ing
Ġch art
ĠTr ue
ul er
s end
ag o
ann er
param eter
Ġun its
Ġelect ron
8 4
ĠĠĠĠĠĠĠĠĠĠĠĠĠĠĠĠ ĠĠ
' >
Ġ( *
Ġhe ader
Ġal though
Ġw ords
5 3
Ġpe ak
en ed
Ġsol utions
ar ing
g u
ĠCent er
as c
ĠR oyal
Ġpart y
ĠP o
il led
Ġ< =
doc s
D elete
Ġn uc
ash ington
ĠC ON
ĠB er
ĠGerm any
ynch ron
or ing
Ġin c
over y
Ġveloc ity
M enu
Ġth ink
COL OR
Par ser
Ġassert Equals
7 2
ĠH all
Ġmag netic
ug ins
^ -
op l
ic ate
ĠV er
B ound
M ar
amil ton
ootst rap
ify ing
}} }
F C
Ġcon nected
com ponent
ã Ĥ
k i
su ccess
v space
d at
g in
) +
HT ML
Ġprob lems
199 1
8 2
Ġin side
Pro p
D D
appro x
Ġ\ ;
Ġdistrib uted
Ġ" /
Ġform ed
ĠAr ch
z on
f a
im ents
Ġincre ase
Ġ[ ];
Ġs end
ĠR ead
ugh ter
ĠĠĠ Ċ
pl ugin
Ġev olution
Ġso ftware
res ents
ut or
c ard
con dition
D evice
Ġst re
field s
on str
Ġm ult
Field s
ob ile
L S
it ch
s ite
=" -
umn i
Ġspe ed
Ġs cript
Ġwebs ite
ĠA ng
Ġim medi
Ġnov el
d x
Ġf ire
en a
Ġs m
trib ution
The n
ĠB ay
in sert
ĠD uring
Ġm atter
St ack
Ġcon nect
ask et
Ġs ens
ĠS w
st ore
Ġy et
al d
ĠJ SON
_ ->
ĠD i
wid get
iz ations
Ġre serv
Ġhe alth
Ġ$ .
ĠAustral ian
ĠB uild
ĠM art
sh ape
Ġinstance of
SS ERT
ĠD ec
circ le
E ach
ĠL aw
-------------------------------- --------------------------------
ĠV alue
Ġr atio
ĉ ĠĠĠĠĠĠĠĠĠĠĠ
Ch annel
Ġwe b
Ġorig in
="../../../../ ../
Des criptor
S u
Ġmat ches
Ġdirect or
ĠR un
ĠO per
Th at
S QL
S l
Ġmet ric
_ ,
sh ift
Ġspect rum
Ġstud ies
En abled
W riter
eth ing
y r
Ġset t
c lick
Ġinteg er
it able
v ant
Ġ} )
Que ue
if ies
Ġs ound
Ġiss ue
ac ement
us ion
Ġch urch
Ġfil ename
ĠCh ina
N N
k ing
set tings
w rit
Ġh ar
ĠN ame
ĠW ork
nap sh
Ġd ig
en um
U B
T C
k g
ĠL ou
b on
Ġdirect ed
Ġsc en
te e
h over
est ed
Ġout side
ĠTh erefore
Ġteam s
pre t
4 00
O M
Ġnecess ary
Ġs creen
ĠS ome
ĠM or
Ġ" \
rom e
D ebug
Ġus ually
Ġd atabase
sq l
Ġup on
Ġgo ing
dis abled
Ġsub sequ
ĠSt ud
R ule
ens us
U RE
Ġm issing
Ġhand ler
anag ement
Ġfollow ed
p ite
av or
I F
Ġrecord ed
Ġin line
ĠR E
P T
Ġe igen
Ġtyp ename
Ġor d
u it
in itial
ĠD ate
} '
sh ire
under line
\ }$
ĠĠĠĠĠĠĠĠĠĠĠĠĠĠĠĠĠĠĠĠĠĠĠĠĠĠĠĠĠĠĠĠ ĠĠĠĠĠĠĠ
Ġ Â
Ġst ack
Ġimplement ation
= (
s ession
Ġestim ate
G E
ĠM ary
O K
S ing
Ġrelations hip
H as
{ $
app ly
Ġsong s
ig r
k m
Ġrepl aced
Ġal tern
ĠM usic
Ġlarg est
Ġro ck
cre te
c ial
N um
Ġfrequ ency
Ġear li
Ġdeb ut
ur a
ĠR oad
Ġ( -
ore st
V er
ĠE vent
ov ers
bed d
ĠI O
fr amework
Ġp at
6 3
ynam ic
M D
ol ver
res hold
uck et
ad r
By te
i os
re p
ul ate
ate gor
Ġdiff icult
reg ister
Ġwrit er
ĠAc adem
ĠIn stitute
> ();
ĠM ac
artifact Id
Ġcontin ued
Ġprof essional
Ġh on
ook s
gr id
P od
Ð »
Ġg ot
s che
a o
M e
ing u
ak er
Ġde al
\ '
in et
Ġcrit ical
Ġpl ot
ĠF unction
al a
R I
N ow
h s
ess or
ter m
set s
end ar
Ap plication
y ing
Ġquest ion
Dec l
al ysis
Ġl ittle
Ġf unc
Ġs ure
Ġdeterm ined
ĠT V
P S
3 00
}} ,
Ġdec re
ĠG reen
P L
re y
se ct
Ġk m
ĠV ir
key s
ĠF ield
st ep
Ġn or
' ))
Ġs y
is ation
Ġstruct ures
do uble
OR M
w ik
Ġ ),
ĠO ther
Ġext ra
Ġcom e
as er
Ġdirect ory
Ġw ait
i ple
Ġresult ing
Ġ$ {
Ġe lem
ĠI S
Ġtest s
ĠDep artment
Ġprevious ly
Ġneg ative
Ġr adi
Ġfl ag
Ġa uth
Ġincre asing
P op
re a
ele ction
ock er
$ _
con nect
8 3
T itle
n orm
ines e
Ġlong er
Ġstud ied
all s
Ġc ore
Ġeduc ation
> .
p g
G B
ĠM ex
Nav Bar
ĠD irect
S cope
l ap
Ġneed s
ĠWh ile
6 2
Ġac qu
re al
O D
ĠS am
def ined
Ġtype of
ĠW ashington
Ġle arn
F L
M ark
ĠRober t
}^{ -
Ġstart ing
def inition
e ach
con s
Ġvert ex
z ero
M ock
ĠCour t
-> _
Ġd im
Ġder ived
Ġinter val
se y
Ġmark et
Ġoff ic
Ġbel ong
Ġdem onstr
and er
aw s
ro ad
ex port
un signed
Ġreg ions
R ev
Ġgener ate
is k
un ity
Ġm ention
Dis play
ix el
Ġoper ators
Ġ ir
P attern
P ost
ĠT own
ĠW il
Ġremov ed
Ġinvest ig
group Id
Ġch oice
ĠComp any
ĠS ociety
Ġcour se
Select or
ĠM at
Ġm sg
min us
198 9
ĠM o
Ġr ules
pos ite
ir it
Ġo s
Ġdes igned
F unc
wh ite
c ustom
On ly
ĠC re
In it
A V
O wn
Ġre v
~ $
ill a
ond s
W E
ert ific
pro d
ĠH en
8 1
M C
Ġkey s
7 4
am era
Ġsche me
and ed
Ġpro gress
A tt
A pi
yn omial
ch annel
result s
.. ..
ĠJ ack
Ġcom ment
ĠP ress
il i
Ġ' /
a res
S end
bit r
Ġga uge
Ġin fin
6 1
Ġv ict
file s
] ]
um in
ple x
J ob
KE Y
Ġcoun ter
ĠD on
ĠU RL
point s
Ġra ise
196 0
Ġthe orem
li ament
over ed
b old
ĠFr anc
. âĢĿ
tr m
ĠG a
ĠB G
ick et
Ġclass ical
m as
Ġf amil
//////////////// ////////////////
ĠG ames
est ival
Ġrepresent ed
198 8
Ġs il
Ġc op
mult icol
Ġal t
ĠDef ault
ĠR equ
CH E
att ice
ĠIt al
ĠTh at
J SON
< \
f ull
. __
ĠT ur
Ġtrans port
n es
C ustom
ang ular
ĠB en
Ġ ess
Ġfin ished
' .
Ġpro per
l oc
Ġpl atform
tex trm
ĠH istor
is ions
U se
z a
Ġmod ern
por ary
ĠIs land
D ialog
ĠCl ub
T e
Ġinter action
ĠL eg
ph ere
en ing
ff ff
7 9
p adding
p are
Ġcre d
Ġmin imum
ĠKing dom
FA ULT
multicol umn
in line
Ġdoes n
R ed
Ġdeterm ine
for ce
âĢ ľ
Ġn ative
ĠL O
Ġalbum s
P H
ar ter
Ġser ial
pro du
or a
rec ated
Ġn et
ĠR ail
p ed
Ġj son
Ġl ang
Ġr ace
Ġappe ared
Ġsim ply
N etwork
atal og
ĠA lex
= #
Ġbut ton
EN D
The ta
ĠH el
Ġde ep
ot ic
Ġb ottom
w ell
DI R
st at
eth er
: \
re ement
à ¤
Ġrequ ires
ced ure
Ġw ife
ĠB est
f aces
cl os
Ġus ers
Ġchar ge
C S
b its
Ġin sert
Ġass ist
) ),
Ġmon ths
m argin
Ġex hib
ec k
Ġder iv
ollow ing
ĠCan adian
Ġext ended
} "
put e
ang er
& #
Ġwho le
c ut
Ġn om
cont in
ra st
Ġro b
item s
D raw
ple ments
F ail
Ġm ar
s pect
rel ated
T ra
ĠĠĠĠĠĠĠĠĠĠĠĠĠĠĠĠ ĠĠĠĠĠĠĠĠĠ
ig hest
AC E
ĠU K
ill ing
Ġinv olved
"" "
Ġpre d
hold er
c md
ĠU se
vent ion
pec ially
ĠP y
D ep
in f
mit ted
Ġed itor
on ic
Ġun iform
="../../../../ ../../
Ġdis k
air s
Ġrun s
Ġoff ice
Ġt ro
asket ball
at tribute
6 9
ub b
ĠA ut
ĠO ver
t ical
Str uct
aut o
= -
print f
ĠM em
C re
Ġre strict
Ġrema ins
Ġact ually
ip eline
Not Null
Ġj av
Ext ension
Ġad ministr
sup er
ot ion
Ġro ute
Ġf riend
Ġman if
7 3
sc roll
math scr
Ġfinal ly
_ (
anc el
Ġform s
R et
ĠAfr ican
Act ive
Ġthrough out
ĠC ath
In itial
ĠT ex
Ġsymmet ry
L ock
is l
Ġhim self
Ġcomp act
Ġm anager
Ġdest roy
in v
IT Y
omorph ism
assert Equal
V ar
)) )
Ġfound ed
ĠM er
Ġl atter
; ->
l ers
Ġrema ining
Ġa xis
ĠN ode
AT H
V olume
Ġr adius
Ġfor ces
198 7
foot note
subset eq
assert Equals
S ION
ĠK ey
Ġch all
s ample
th erm
it a
Ġuse ful
Ġconst it
Ġex ternal
ĠY ear
Ġ$ |
ĠH amilton
tog gle
* )
ĠRec ords
apt er
Ġplay ing
Ġfr amework
Ð º
D ist
ta int
Ġto wards
ĠHT ML
Ġh it
ĠR uss
Ġcur ve
ĠCent ral
Ġconc ern
g a
Ġfl ux
ĠM ethod
ĠF e
Iter ator
Ġrep resents
Run time
P ool
d eg
ĠJapan ese
Ġc ategory
Ġe lected
ĠThom as
sup port
Ġcompan ies
in y
Ġre ve
Ġin ner
Ġlik ely
## #
Ġill ustr
Ġp anel
7 1
Ġhe nce
Ġs us
Ġsuff icient
ĠAfr ica
Ġident ity
Ġw ave
Ġ" "
ain s
Ġs mooth
iag nost
Ġcomput e
Ġ$ -
ĠN OT
Fl ags
Sec urity
eder al
iter ator
Ġlist ed
at ically
ĠM useum
wed ge
se lected
Ġiss ues
ĠJ er
urre n
he lp
AG E
Ġ$\ {
m ock
) ">
FI LE
Ġe ight
Ġv ocal
Ġpartic le
ec ause
Ġg rav
p ri
el i
ap plication
Ġ ensure
had oop
pr ing
k ind
Ġf ace
Ġcamp aign
m atrix
Class es
ĠS l
ol ar
198 6
M sg
Ġcon cept
}} _{
Ġm ock
ĠAcadem y
st op
[ :
l ines
re v
st ant
Ġcon sum
styles heet
ĠC ong
S e
Ġf ix
p ing
ict or
Ġdiag ram
as hed
Ġt ensor
urn ament
( !
Ġsc ore
n ames
napsh ot
) |
ad min
ĠL ong
her it
at ial
TE X
id ers
Ev ents
ĠĠĠĠĠĠĠĠĠĠĠĠĠĠĠĠ ĠĠĠĠĠĠĠĠ
Ġfootball ers
W S
mod al
M ember
P A
par a
m i
N amed
n eg
Ġe cho
s ur
F loat
ank s
ult ural
G o
Ġread ing
ĠS al
import ant
Ġno ise
; "
Ġfor ward
Ġle ague
pro ps
que ue
\ }
Ch anged
In ternal
p anel
Ġappoint ed
Ġent er
Ġass ign
opl us
Ġschool s
str y
Ġpl aces
ĠV AL
Ġl ibrary
ĠE v
ym pt
N G
Ġper cent
_ +
ress ion
ĠM a
J o
c loud
v ed
Ġbir th
ĠR ussian
Ġfig ure
az z
ann ing
Ġl ock
Ġgalax ies
tain ed
es h
od ec
Ġd am
not ation
Ġh tml
add r
Ġ( $\
w ar
ĠJ ust
sh ort
ĠSc ott
198 4
Ġl iving
Ġat tr
h ar
erv e
Ġre pe
Ġm other
Ġgener ally
leg al
Ġlevel s
Ġet c
Ġinv olv
Ġstat ement
Ġg ave
Ġmon th
Ġm ix
it z
Ġca use
Ġpres ence
c ategory
ĠGr and
ĠC he
Ġat tributes
Ġ( _
ä ¸
Ġ\ |
bl ack
ak ing
com ment
ĠG old
k y
ĠĠĠĠĠĠĠĠĠĠĠĠĠĠĠĠ ĠĠĠĠĠĠ
Ġd b
se ud
d agger
Ġbr anch
Reg ister
ĠM ax
ĠC opy
Ġsample s
Ġme as
Ġlim ited
ĠBG COLOR
Ġredu ced
Ġmot ion
Ġb inary
tent ion
ĠM iss
lo od
Item s
Ġp ert
Ġmap s
et t
wh ile
Ġs ense
ro t
g ence
_{ {\
er ies
M B
Ġext ract
Ġimp act
Ġal umni
Ġappe ars
re land
lim its
Ġun cer
ev ents
ĠH and
th let
Ġstre ng
Ġf ight
sequ ence
el er
Ġch osen
ĠItal ian
Ġn orm
ĠWest ern
198 5
Ġd ark
Ġh ous
t ip
E ar
F R
Ġobserv ations
g an
Ġad opt
ĠMich ael
r adius
ĠĠĠĠĠĠĠĠĠĠĠĠĠĠĠĠĠĠĠĠĠĠĠĠĠĠĠĠĠĠĠĠ ĠĠĠĠĠĠĠĠĠĠĠĠĠĠĠĠĠĠĠĠĠĠĠĠĠĠĠĠĠĠĠĠ
Ġc os
Ġcol lect
SI ZE
al led
ĠZ eal
D C
Window s
n ers
ĠAcc ording
at in
by tes
T ab
set minus
ri al
ĠT om
av ed
Ġbas ic
con nection
ĠAs sembly
ĠM ont
Ġform ula
TE D
am pl
du le
Ġar bitr
Ġes pecially
C lick
ell ar
00 000
ĠVir gin
is ms
Ġch arg
Ġcons ists
Ġre ached
ak es
y e
Ġgu itar
Ġpack age
Ġexp ansion
ĠB OO
ĠSec ond
c f
ĠT or
g g
M ulti
ĠZeal and
' re
Po inter
az ine
or se
Ġpres ident
++ ;
Ġcon tact
Ġem bedd
Ã³ n
b i
Ġ ^
ĠD el
ĠD ay
ĠWh ite
Ġd ed
Ġsc atter
A c
Ġcompar ison
Ġpol ynomial
Trans form
ĠSum mer
Ġpartic les
reg ion
ĠJ ew
rop y
^{ -\
N e
Ġst ated
Ġd ro
ab ilities
M an
C lose
osp ital
Ġd ataset
ĠF I
Ġpl ane
om a
omet imes
Ġas k
b rief
B efore
Ġin cor
ol id
ew idth
Ġem ission
ĠDem ocr
' \
ee k
text tt
Par se
w rap
ĠLou is
d i
f it
ĠChrist ian
)) );
At tributes
_{ (
Ġbl ue
st on
Ġapp end
Ġ er
u y
Ġmoment um
Ġvis it
Ġcontinu ous
Ġh yper
Ġr ad
l as
Ġda ughter
Ġbroad cast
ir al
Ġ util
ĠChar les
ook ie
ĠOr der
iv ial
Ġeff ort
ĠF ootball
ĠH ere
k o
25 6
irc raft
Ġp ick
Ġbegin ning
S o
S um
L P
ĠP at
Ġs ports
Direct ory
i ences
Ed itor
Pl ugin
N amespace
ĠSup er
Ġj ud
S yntax
Ġf ully
ĠCar ol
ĠM odel
Ġjo urnal
Ġsub s
ĠEx t
k et
ĠS aint
s chema
ĠSc ience
ip age
at ur
ĠK ore
ĠTex as
ĠT em
E C
ĠF alse
Ġcon tribution
Ġres ources
", "
Ġm iddle
M edia
Ġl i
A m
Ã §
Ġh yp
Ġscal ar
ent er
Ġtra in
param eters
ĠOlymp ics
he ast
Ġc tx
j a
U ID
Pro ps
Ġall oc
or ation
D S
} %
Ġs low
A uth
Ġexample s
al ed
new command
Ġco ach
ĠCh inese
Ġdescri b
anc y
hand ler
ĠRes earch
ĠD an
Ġdiscuss ed
ĠFor ce
Y ear
J S
D U
Ġevent ually
th read
Ġbook s
Ġth ought
Ġepis ode
Ġover all
Ġm us
[ $
W rapper
struct ure
duc ation
Ġbeh ind
fl ags
op ed
Key s
Ġmag n
ann ed
Ġbound ed
res et
Ġgr ant
B S
Ġcoup ling
Ġh ighest
Ġpro te
B R
Element s
Test s
L IC
Ġsec urity
ed y
y es
Ġim m
j i
S ection
Ġinv oke
Ġearli er
Ġdepend s
Ġpol ar
p ool
Ġsom ething
I con
Ġ\ !
ĠĠĠĠĠĠ Ċ
drop down
st o
pe ople
Ġan im
Ġabs olute
ĠG ets
M ore
f ail
omet ric
ov a
ĠG reat
ĠR ob
MA X
Ġst ations
min ipage
Ġl if
Ġ io
spec ial
r b
T S
ul s
Ġn ight
Ġs egment
col lection
Ġpl aced
Ġfe ed
id ents
et te
Ġan gle
ell a
198 3
uf act
Ġin valid
Y ou
Ġst e
Ġst orage
at re
tr igger
Ġpart ial
proto buf
ole c
Prot ocol
A dapt
ĠMin ister
ell s
ĠC all
Ġe ver
hent ication
d ependent
m ove
c ar
ex pr
Ġk illed
Ġoriginal ly
) ).
im pl
bo ost
Ñ ĥ
Ã ¨
pro perties
Ġqu ick
Ġc lean
Pro xy
Acc ount
Sc roll
Ġcomp are
Ġapproxim ately
all oc
( @
ĠFranc is
per p
pro duct
Ġcall s
d y
Ġapproxim ation
ma ster
il ing
IT E
Ġocc up
EX T
ĠT ext
v irtual
ĠTe chn
ĠK e
ĠS ur
Aut o
Ġb all
S he
Ġsh ared
Ġp od
) "
Ġs even
Ġbo ard
Ġvert ices
() ));
Ġto ur
Ġbuild er
CHE CK
yd ro
pass word
D A
198 2
L INE
N odes
il s
h om
Ġf ast
z one
Ġbuild ings
D el
O ther
Ġform ation
Ġide a
Ġ} \
ĠU s
re me
ĠN ow
ĠP ri
ed it
Ġdec ision
y g
ific ations
Ġtrans action
Ġappro pri
Ġth erm
r or
ĠU ser
Ġj Query
ici ents
und efined
M y
/ >
Mem ory
Ġ$ [
ĠT ask
B it
Ġt ax
Ġch oose
Ġsh ift
net work
E q
ĠH istory
ie ce
ect s
() ).
ĠF oundation
Ġlead s
el ves
ĠM us
G S
Ġt it
big g
am i
Ġun known
ĠV ersion
Ġpre vent
ST AT
th rows
Ġtra vel
r ad
D L
Ġmeasure d
ist an
al o
is hes
)\ ,
c b
ĠFr ank
ĠTO DO
Ġneigh bor
Ġpo inter
Ġst ra
Ġconstraint s
ĠJ ose
Ġf n
dom ain
R est
ĠPro ject
Fe ature
C or
ĠH ow
ne ctions
P erm
child ren
Ġw ide
em ail
-- >
lin ewidth
S che
Ġprodu ce
Ġocc ur
Ġtr igger
ill er
P AR
ixt ure
Ġm ut
A v
t mp
ĠCom mand
ploy ment
Ġre con
Ġrel ig
Ġb ad
u an
ĠSm ith
dep th
L oader
Ġh ot
Ġev idence
Ġpract ice
ut ing
Ġgr id
ĠâĢ ĺ
ĠT wo
ar ation
ir ing
Ġre q
ĠAl so
le v
Ġ| \
Ġed ges
Ġl attice
Ġdec om
Ġg reater
S equ
Ġtrans l
Ġestim ated
To String
in em
Ġcoun tries
ca pe
k l
19 50
ent ity
oun tain
Ġfem ale
id ae
ĠO ur
ac c
Ġres olution
ĠA N
iver se
Mem bers
ĠM el
if fer
Ġre n
_{ -
ĠL ine
ĠPar is
des c
P erson
oll ary
Ġeas ily
Ġin j
Ġmean ing
ĠV ol
R AN
Ġon line
un ct
Ġfour th
S Y
Ġsh ip
tr iev
M icrosoft
at o
n one
Head ers
or ter
met adata
ic ens
ac ro
Ġst ri
' _
Ġd ir
im a
ĠP re
; <
ĠM ass
ut ch
Ġprocess es
ax is
t otal
Ġcorrespond s
Ġsh all
() {
Ġor bit
ic ated
Ġart ists
ly ph
Ġdynam ics
ĠCath olic
' }
pr imary
> ::
197 9
col on
Ġexperiment al
Ġre ally
ĠPro position
sv g
Ġmed al
bl ue
Ġm unic
art s
Ġun ion
i ro
Ġconsist ent
n el
ut f
ĠT HE
S cale
Log ger
cal led
ĠSp anish
oc key
Ġknow ledge
ĠG od
am el
Ġcon sole
M atrix
Ġcalcul ated
t ely
Ġd u
ub y
. *
lo op
: #
are a
Ġinst it
Ġb ul
Pack age
Ġs quare
I V
Ġsp aces
ĠN O
anc ial
typ edef
align ed
ĠP eter
Ġhe l
) _
s afe
Ġam plit
ur therm
Ġcour t
Ġimmedi ately
urtherm ore
Ġpair s
sh al
ĠI reland
iqu es
Ġmanag ement
Ġapplic ations
u ations
H ere
b ootstrap
Ġon es
ic ago
Ġfail ure
Ġnumer ical
Ġdec ay
198 1
Ġconstruct ed
s ave
Ġn ature
all ery
Ġin variant
Con f
Ġcom es
Ġprop ag
G lobal
ĠIn c
Gener ic
ĠIn itial
Ġqu ality
Ġcomput ed
ex ists
ĠA ust
( __
Ġa ctions
ir l
Ġp ers
LO G
Ġen abled
ĠL os
Ġid x
Ġs aw
Ġ&= &
m ask
Ġs light
T V
Ġsepar ate
Ġspect ral
s ince
Ġenc oding
C I
Ġpol ice
ĠIO Exception
Const raint
mod ules
Ġm ixed
) }(
Ġrequest s
Ġm aster
i pe
ĠP ost
Ġc ivil
M ain
le ep
F ound
X ML
ĠC ast
Ġdes c
depend ency
ar ian
") ]
Sh ow
Ġstr ings
sk i
Ġcal c
Ġe q
Ġl ack
Ġque ue
J E
pl ugins
,\ ,
Ġexper iments
Ø §
Ġfamil ies
Ġart icle
ĠB ill
Ġpert urb
form s
Ex pect
al i
Ġb ur
In v
Ġs en
ĠCom mit
yl v
D R
Sing le
tx t
d ates
m anager
ev e
Cl uster
ĠD et
pro b
ĠRich ard
Ġbro ther
a ver
Ġval ign
Ġdep th
ĠR el
Con dition
Ġinteg ral
ĠFil m
raz il
N ULL
Ġb ig
l an
Ġtrans parent
app ed
Ġprot ocol
ill is
RO M
m ann
ĠV ictor
Ġcon serv
Ġproduct s
ol f
ang o
ĠGe org
Ġg old
i h
Pr int
ĠIt s
ish op
ertific ate
ĠI P
in ant
Ġpl ant
e es
k ens
W A
Ġsatisf ies
con tains
str ument
bul let
Ġset up
Ä ģ
ategor ies
ĠH ence
org an
Ġmod ified
Ġv eh
urren cy
mer cial
Ġt ab
Lay er
ur t
), \
F ull
ov iet
Re ce
Ġth ings
Ġup dated
ĠD en
Ġpart ition
key word
ĠI d
on ym
foot er
equ ality
en ers
ĠGo ogle
Ġjo in
Ed it
Ġf raction
rib ution
Ġpress ure
Ġre ct
Ġuncer taint
tool s
ĠO ption
Ġincre ased
k in
Ġim plements
ro ke
Collection s
197 6
on ical
AR Y
Ġst eps
ĠAl though
el t
Ġca used
ust ers
dec l
12 8
E O
Ġp refix
eta iled
Ġconstruct or
197 8
Ġjav ax
v a
Ġcap ital
v ey
Ġperson al
{ $\
s pe
An y
rodu ction
Ġnetwork s
ĠD u
ĠF in
Pro file
Ġmin or
197 2
Ġrecord s
Ġnot ed
Ġv an
Ġpro cedure
P refix
Ð° Ð
ĠR ock
ĠF our
ĠL ake
ĠP an
Ġexact ly
Ġh idden
Ġcoordin ates
Ġag reement
="../../ ../
Ġag ent
Ġrema ined
Ġact ivity
the me
Or ig
Trans action
Ġgrow th
I B
ig an
h ol
gorith ms
nd ef
ĠInt eger
Ġ[ ],
Ġant i
Ġm icro
Ġt im
ĠB ig
r f
C ast
ĠFl or
Ident ifier
ime q
Ġc hem
ib ly
TR UE
Ġst aff
Ġrece ive
Ġs ave
. '
ĠCol lection
Stat ement
annot ation
Not es
v c
evelop ment
Ġs ex
cont roller
s imeq
ar ant
ident ifier
p a
ĠK n
Ġvari ety
Ġs ays
Ġso on
Ġstr ategy
r ong
os ing
Des c
Ġfl at
ed itor
orn er
Ġeas y
Ġent ity
Ġa im
ĠC amp
Ġsec ret
ist ers
ri ends
Ġhe avy
Ġsh are
Ġoption al
}} (\
M at
l imit
ĠP enn
a ud
Ġch o
ential s
ON E
n y
et ween
Ġexist ence
Ear ly
C F
ivers al
Rem ove
ou ch
_ *
', '
ĠU nder
ĠH ead
Ġl ove
Ġblock s
Ġro om
hes is
os h
sp ring
Ġmod es
tr i
Back ground
P anel
Ġthe ore
ars ed
Ġm ask
index Of
G raph
Ġcompet ition
197 7
s ymbol
Ġex ponent
D est
Ġan sw
if def
Ġsc ient
ĠI ll
ar c
P lay
Ġrele vant
197 4
C are
F ailed
Ġsim ulations
Ġas ync
ĠE ach
ĠIs ra
get Name
Ġd ual
File s
Ġtest ing
Ġcoeff icients
Ġfeature d
w a
ĠĠĠĠĠĠĠĠĠĠĠĠĠĠĠĠ ĠĠĠĠĠĠĠĠĠĠĠĠĠ
ĠĠĠĠĠĠĠĠĠĠĠĠĠĠĠĠĠĠĠĠĠĠĠĠĠĠĠĠĠĠĠĠ ĠĠĠĠĠĠĠĠĠĠĠ
Ġaward ed
p refix
Ġl o
Ġ\ (
ĠM il
b al
Ġf ood
Ġpolitic ian
Ġben ef
Ġcont rast
ĠH ill
N A
Ġsize of
Ġvis ible
ĠR out
Ġliter ature
Ġnew s
Ġb al
Ġle ader
Ġart ist
.~ (\
Com par
Ġre ject
Ġd etail
Ġp en
medi ate
Ġopt imal
ĉ ĠĠĠĠ
ad y
Ġcandid ate
ick s
Ġdist inct
) _{
pro ve
Ġat tention
197 5
h ing
Ġre place
M ENT
r ices
UT F
n il
rec ord
P ORT
C ap
ĠSer ies
sub s
Ġredu ce
ĠF re
L a
Ġm essages
Ġa ircraft
ag raph
Ġ+ \
S ocket
ĠVirgin ia
Ġplay s
Ġp ri
Ġfl ags
k es
T ABLE
Ġarbitr ary
Ġown er
li br
L in
Ġre li
Ġh ours
test ing
en ge
VER SION
Ġte ach
y cl
ĠS wed
s witch
O pt
ĠĠĠĠĠĠĠĠĠĠĠĠĠĠĠĠ ĠĠĠĠĠĠĠĠĠĠ
Tr ace
\! \!
urre d
Ġcorre lation
f amily
pro file
}$ -
ĠHen ry
ĠComm ission
grad ient
Ġm achine
ĠRe act
ig er
Ġident ified
f x
ĠA v
Rout e
Com mon
e an
c ases
Const ants
Ġassum ed
ĠCon fig
Ġexper ience
M I
Select ed
Ġmeasure ments
Ġd ebug
H owever
16 0
L en
sub figure
At tr
Ġestablish ments
Ġd rop
Ġa ud
=" /
Ġindu stry
St ep
n umer
Ġc ard
ish er
196 8
u ages
pro gress
Ġfact ory
F S
Ġre ach
er ial
ĠW omen
Ġr ing
En um
G u
ut y
Ġtrad itional
it o
Ġrecent ly
f ect
at ible
AL SE
t wo
iz able
Ġmov ement
Ġ[ [
Gr id
Ġocc urs
T erm
Ġtask s
istr ation
d iff
ĠS O
Ġre triev
ge les
Ġlist ener
S ync
f ony
j ob
riter ia
ĠW indow
I E
197 3
v s
Ġcrit ic
Ġv s
Ġor ient
ev al
ĠN umber
ĠA L
ym fony
ĠT op
Ġ$ $
D et
at tributes
Ġdec ided
Ġex port
Ġdel ay
Ġj oint
G R
f d
em on
Ġmatch ing
Ġvert ical
ot ing
__ __
15 0
ĠNew s
B P
h av
I MP
ĠUp date
Ġcomple tely
w riter
Ġr g
com ponents
ab it
P ublic
Ä ĩ
n ed
ĠAr ts
press ed
Ġassum ption
Ġbound s
Ġindic ates
Ġmention ed
Ġinterest ing
Ġto day
O UT
lo ok
Ġt or
Ġm oney
ĠS y
Ġad j
r ich
ĠE qu
Ġs ch
Do uble
'] )
Ġt err
ug by
Ġang ular
ir med
r ate
Ex pr
if iers
Pro gress
IN S
Ġparticular ly
s creen
c pp
as i
li a
Ġposition s
J ava
k w
in ate
pt on
st ra
ĠL and
H igh
Ġfact ors
Ġs ometimes
ol a
ĠM icrosoft
Ġdet ection
Ġex ports
Ġaccur acy
Ġ rap
ĠN etwork
ĠS un
ĠIn st
ext end
reed om
ĠAn geles
Ġm apping
Ġab stract
âĢ ¦
ĠSh ow
LO CK
1 20
] :
ĠPro f
w hen
Ġto uch
HT TP
ĠIt aly
ut er
ĠP lay
Ġdiv ision
ĠD om
ĠSt ar
ĠEx ec
ĠC ode
ĠCh icago
b our
Ġb rowser
ĠC D
Ġc ulture
Ġorgan ization
A CT
ing er
S w
Ġcol lege
Eng lish
$ ).
Ġmet adata
ĠMex ico
s heet
Ġ= \
RE AD
Ġsc ored
Ġex change
Ġmin utes
ched uler
P ER
Ġ% }
TEX T
ian a
Sim ple
og ene
al g
f ound
Ġ â
m ut
Ġappropri ate
and ra
t ers
Ġsim ulation
prot ocol
ier arch
un ched
he mat
JE CT
ĠChampionship s
Ġwh y
Ġcomb ined
Ġmin im
Ġto urnament
Sequ ence
=" "
m en
Ġcolumn s
) ^{\
Adapt er
Ġf if
Ġelect ric
Ġcur ves
Ġw alk
ff ic
inst all
ian o
Ġess ential
r andom
pre v
ĠM ad
Ġtr ade
Event Listener
i en
Ġstra ight
Ġsc ience
F LA
Ġcon vert
Ġsur round
id x
ĠSc ot
com ing
B OO
os itory
Ġcom pos
o les
Ġact or
Ġw id
ho use
Ġsit uation
sing le
ĠS QL
ele br
Ġre comm
Ġbro ught
text sc
Ġ' <
ĠPro gram
p ay
197 1
Ġcap acity
Ġpr im
sub subsection
ĠA R
Ġgener ation
ĠV is
Ġb rief
e ch
build er
L oc
Serv ices
Ġre ader
B E
Ġcontribut ions
ĠM ost
$ ^{-
Ġ" ,
Ġin equality
; /
Ġprinc iple
m ag
Ex ample
ĠK ar
Ġ{ '
ĠMore over
ele ase
r ons
ent al
Ġst able
for all
Ġhigh ly
Ġgr and
Ġsing er
S pace
Ġpar allel
"> &
196 9
D uration
UR I
ĠF estival
iter al
Ġb ank
Ġn g
Ġle ave
A X
ĠS il
Ġd raft
for ward
Ġref lect
m c
S election
Ġf un
W R
' ));
ĠCong ress
Ġinflu ence
omorph ic
Ġdepend ence
Ġent ries
Ġtyp ically
Ġf mt
Ġo k
Pro duct
Ġp ool
Ġqu ite
fil ename
Ġ icon
S ER
Ġvers ions
arg ument
b el
ac count
) ^{-
ar ia
i ra
D elegate
Ġb asketball
En umer
I ST
test s
f ore
st ats
Ġcon cent
y an
Su ccess
Ġopen ing
erv ed
F IG
C ar
Ġsp ent
ĠT H
Ġpur pose
Ġass igned
ĠL u
Ġwrit ers
ĠFlor ida
Ġdr iver
g reen
ig ration
Ġcell s
ĠL ie
Ġcont roller
ĠJ ava
ms elves
M ed
sec urity
Ġsem i
Dom ain
ĠCommit tee
Ġform al
à ¸
h idden
in valid
ck now
M apping
Ġp urch
Ġcontain ed
b ad
ĠL ocal
Ġvis ual
Ġsing ular
if ically
U ri
}} ^
b ot
Ġa mb
res p
N OT
Ġcre ating
Eng ine
oun try
d one
}^ *
Ġden otes
il ib
pos es
ĠB ur
) [
in ations
ĠL i
Ġprodu cer
Ġcom pl
Ġs n
ĠN avy
Ġcomb ination
F E
ĠE mp
ad s
N T
ag on
ĠI l
Ġp aram
or al
Ġg reen
Ġen able
ĠG overnment
U sing
p icture
ST ATE
Sh ape
D uring
h ide
ĠI II
J ohn
Ġsim pl
Ġun less
Ġinitial ly
G en
ĠAn n
U SE
u er
By Id
Ġc m
! [
p attern
Ġp y
err ors
am m
Ġprob ably
ol k
Reg ion
u ous
-------- ----
ĠEng ine
ĠCopy right
ĠO ld
typ ename
Ġlabel s
(' .
^{ +
id ential
f ix
Ġb its
Ġnot hing
ĠB rown
) ->
ĠB ook
Ġk ernel
Ġthe mselves
en abled
Ġver ify
ament al
######## ########
Ġex am
an es
Fig ure
stit ution
ip ality
pm atrix
Ġsurv ey
Ġp ark
Ġc he
Gener ator
p kg
Ar t
Ġman ufact
Ġsignificant ly
ĠM ur
> :
ab br
sh adow
BU G
Ġ_ ,
19 40
Ġa wait
IN D
t or
Ã £
if ndef
Ġincre ases
LE CT
Error f
j e
Vari able
oth ing
s lice
Ġget s
} </
> \
ĠP oint
adi um
Ġr ates
ĠProv ince
A li
g it
ĠC ons
H ER
N R
Ġen um
cl aim
Ġm ur
Ġv ac
Å į
Ġselect or
$ $\
as y
ĠH ash
ĠA SSERT
ĠD ev
ĠL in
B rowser
ĠA wards
ici ency
VAL UE
Ġdistrib utions
196 7
Ġ raw
Ġpro ps
ag er
Ġc loud
Sec ond
ed ge
Ġsub set
ed s
ĠM ount
Ġappear ance
Ġ ui
Char acter
Ġm olec
clud ed
i ate
V M
Ab stract
Ġg un
Ġtreat ment
ma zon
O ur
ceed ed
ĠC ap
o z
Ġ" <
Ġfe el
ĠEx ample
Ġarchitect ure
Reg istry
b rowser
Ġ ],
ch or
TI ME
t im
Trans port
ĠP ath
Ġspect ra
cl uster
Ġc arried
rior ity
b as
ĠCol or
ind s
m ore
ri um
ĠPar liament
S M
m ic
ĠSt ep
ĠP et
Ġwin ning
Ġon to
194 5
j unit
ĠSec ret
Ġtrans formation
ĠHe alth
Ġw oman
ĠB lock
ĠT ok
Ġsymmet ric
Ġpo et
ĠV iew
select or
st orage
Ġanal og
ĠM ain
co in
ĠBOO ST
The se
M ath
E V
ap ers
tem p
ib li
Ġsh ot
wit ter
con n
Ġmov ing
v olume
Ġext end
ud a
ĠU N
P ATH
the mes
Ġt mp
) }{\
Ġcre ation
ele m
Act ivity
Ñ ı
ĠA tt
Th us
Ġp refer
ĠCarol ina
d em
19 64
l ig
gr ade
T T
w an
ĠRuss ia
Ġrepresent ing
C apt
Ġ_ .
EN SE
ext ension
[ (
19 30
ĉĉĉ Ċ
ĠK h
Ġvocal s
p icker
Ġ> >>
Ġmajor ity
B B
P U
Hel p
log ger
e cho
Ġpath s
Ġd ele
Ġintrodu ce
Ġdynam ic
ĠO h
display style
am ing
)$ -
imit ive
ĠHT TP
atri ate
Ġprogram s
Ġact ress
} )$.
Ġclass ification
R R
Ġrel atively
Child ren
Ġstud ent
Ġtechn ology
ĠHistor ic
Ġcomput er
ĠVal id
elli j
aw a
V G
Ġc it
Ġcent re
s he
Ġsc ene
Ġcom position
Ġs af
Ġf ill
Fr amework
Ġdim ensions
Ġbr ing
en able
is c
Ġst and
am az
Ġindic ate
p u
Ġprocess ing
st one
op es
. ");
j query
W orld
_ -
Ġmost ly
Ġ ).
ĠG en
Ġse ctions
ĠW ales
p resent
Ġl ot
ĠE r
Ġbe y
st able
Ġab ility
map sto
int ellij
ser ial
S cal
Ġstat istics
Ġwh om
Ġauth ors
ĠL ife
Ġsc roll
Ġxml ns
m aterial
ylv ania
Ġge ometry
ĠB razil
tern et
Ġtime out
ud d
ĠT imes
d etails
ĠG l
Ġpre v
eng ine
ĠN av
Ġp ure
Pro to
ĠMart in
V ideo
Ġabs or
table block
pos itory
ex ist
ĠOn ly
rem ark
anc ell
==== ==
ĠO f
Ġl ib
Ġsecond s
sc ill
par ser
Ġhead ers
Ġs ql
Ġtr ace
"/ ></
ic ity
ĠT our
Ġpl ugin
ĠTe am
CE SS
N ative
Ġend ed
Ġslight ly
on a
Ġcirc le
R ole
prot ected
196 5
Ġw av
sk y
t c
Ġbey ond
ĠG al
Ġb attle
Ġb uf
ĠM essage
Ġrefer red
w er
L java
, âĢĿ
Ġinter actions
Ġyield s
ĠHamilton ian
Ġth reshold
Ġm orph
Ġleg al
Care er
Ġorder ed
er c
%% %%
Ġse asons
Ġbo ost
config uration
ĠL ibrary
ĠG i
Ġed ition
H R
Ġse ems
ĠS oviet
RE G
pos s
Ġf oot
Ġstreng th
Ġcoll abor
Com ple
Ġopt s
Ġcon tr
Ġpass word
u v
ĠInd ex
Ġsp atial
Ġnear ly
Ġem erg
Ġ Î
Ġac adem
Ġent ered
12 3
Ġsu c
D P
Ġactiv ities
ĠL iber
ch ain
Ġd ead
Ġin sp
: =
Con n
O L
Ġ ..
Ġfore ach
D iagnost
com plete
ĠB i
ĠRequ est
Ġmain ly
Ġmat rices
m os
M T
196 6
~ $\
W N
h y
Ġim prove
m ass
ation Token
St ats
H z
mo z
Ġ rows
f i
End point
Å ¡
ens es
Ġw atch
Ġas pect
Ġtechn iques
pl ot
Ġrefer ences
Ġprov ed
ĠH on
ex tern
Ġ> >
Ġsp read
pl atform
ĠH aw
Ġmeasure ment
d p
W ORD
D iv
ĠBo ard
ĠH ot
ver b
ĠA li
trans ition
od ot
ĠLO G
ĠĠĠĠĠĠĠĠĠĠĠĠĠĠĠĠ ĠĠĠĠĠĠĠĠĠĠĠĠ
Ġdiscuss ion
Ġc ensus
d ialog
am ous
Ġp ush
sh all
&= &
and a
j ar
ĠC ross
ĠCom mon
Ġlay out
Ġexpress ed
r ical
Ġd etailed
ĠRes ult
Ġco ast
in ity
F low
s uch
c uss
Wh ile
ac ific
ar se
Ġr isk
ele d
=" @
t w
time out
Ġinter view
G C
Ġs ites
pl us
r ift
IP T
ĠJ ac
Ġshow ed
ersist ent
Ġcall ing
Ġrespons ible
head ers
ĠU sing
ist ical
NavBar Cell
Ġ" -
Ġal gorithms
ĠB ob
Ġcar ry
ĠW al
Ġold er
Ġr iver
block List
wik i
f ort
du led
p an
re act
Ġre set
st ein
Ag ent
Ġ{ {
Ġst ay
res olve
es ian
ag r
Ġgo als
r ase
19 20
W ord
ĠL ove
ign ment
Ġla unched
ul ator
ate way
Ġrema in
Ġ[ "
Ġbehav i
Ġrot ation
Ġin n
Text ure
ĠCol umb
ĠRes ource
Ġstud io
Ã£ o
ri ed
e ks
Ġgo es
Ġrail way
form ance
up lic
t ensor
Ġsp an
ail y
ipp ed
Ġsign ature
orig inal
ud es
D ictionary
)\ \
ĠJose ph
Ġv ary
ĠE lement
B egin
Ġch ampionship
Ġatt ended
s ys
Fil ms
ĠF ort
Ġhar mon
Ġs chema
ow ers
Ġappro aches
ov ed
Ġem ail
libr ary
RE S
pp ing
Ġl icense
IC E
Ġsouth ern
ĠIr ish
Com ment
Ġd uration
$ ;
Ġis land
T A
Ġst ored
@ "
ach ment
ĠM os
um es
C RE
ĠM edia
et es
Ġcan cel
ĠO l
ĠEmp ire
Ġautom atically
Ġen h
z ure
Ġgen us
b ut
Ġown ed
ĠP op
Ġcom mercial
Ġincor por
Ġnor thern
am ely
t ags
Sh ort
Ġdet ect
Ġag reed
h box
fr ont
Ġimplement ed
Ġinst ances
serv ices
Ġex c
B i
h bar
Ġ ult
A uthor
ph one
as ion
Ġb in
ĠY oung
Ġunder lying
Ġread only
ĠC a
ĠT im
Ġcalcul ate
Ġprom ise
pro xy
s ylvania
ĠB attle
Ġopt ical
ĠNor thern
Ġtyp edef
Ġestim ates
Ġtem p
am er
n n
ON G
Ġl at
Ġdis p
Ġ( [
Ġreg ime
sc ape
Ġst ellar
Ġph il
Ġpo or
ograph ic
Ġc ycle
ĠE ducation
Ġnot ice
group s
ur ations
}} ^{
F ORM
ĠAr ab
Ġgu arant
Ġpar ser
ex ternal
Ġl ab
ĠS ir
ĠW ood
ĠL ee
ĠD im
Ġs qu
C red
Ġas ympt
ĠH o
ad ing
IT ION
Ġm ission
tain ing
ĠM P
m iss
Ġchannel s
__ )
ilib rium
Date Time
L imit
ampl ing
Ġtrack s
Ġmus ical
Ġgalax y
ĠP ass
ĠH a
Ġsum mer
Ġstrong ly
S K
i ated
ĠSp ain
Pass word
igh ter
ĉĉĉĉ ĉĉĉĉĉ
Ġmed ical
ans as
Ġtrans late
Ġinter pret
M R
Ġcoordin ate
it an
h ome
D em
D ev
1 10
sum er
}( {\
m ouse
che n
$ ~
{ "
Ġv ectors
Ġw ood
Ġexec ution
exec ute
Ġscatter ing
pro position
Test Case
Ġra ised
Ġnot ation
ç ļ
Ġproject s
Ġident ify
ymmet ric
p b
Ġk ing
O B
ĠB oolean
******************************** ********************************
Ġtyp ical
Ġpr ison
FF FF
Ġnuc le
Inter val
ĠSt art
w rapper
l g
p od
pon s
P y
Ġeff icient
Ġmass es
Ġc li
Ġp an
con structor
Ġchall eng
li e
lic t
th row
f ire
Ġp hen
ĠW AR
Ġres olve
Ġm erg
Ġadd ing
Ġdo ing
Ä ±
_ );
Ġh um
The orem
clus ive
Ġmechan ism
B ind
{ %
ro om
un ique
Ġc elebr
Res ources
Ġcom posed
Ġth reat
Ġfore ign
Ġse em
ĠB ank
Ġb us
Rep ository
Ġsum mary
Ġo scill
D b
al so
it ors
Ġpre m
Ġmanag ed
} &
Ġcom ing
amaz on
p ower
Ġb undle
. ",
) },
Con s
Ġpr iv
ĠI L
os oph
Ġcalcul ations
ĠCh ild
çļ Ħ
I gn
ĠS ocial
ĠI E
' (
Ġdis e
el a
Ġ ];
Ġp seud
h ref
k t
Ġaltern ative
Ġl ies
Ġpol y
Ġdist ingu
Ġmark ed
Ġar m
Ġ ip
l arge
s b
Ġth ick
inal s
Ġdefe ated
Ġcalc ulation
j Query
AD D
ix els
ĠGa ussian
Ġg iving
n odes
opt s
DO M
Ġachiev ed
D T
ĠA ND
eff ect
Ġfor ced
s ch
Ġobserv e
Ġadv ant
ĠH ttp
own er
Ġconst ants
ĠOb serv
> "
ME TH
run time
Ġsatisf y
as ync
ĠU I
Ġen v
A F
ĠEar th
Ġexplicit ly
Ġm is
ad or
c ient
ĠB oth
Ġfin ancial
RE Q
fl ag
ra wn
ap es
des ign
Ġse a
un ior
se g
ilt ers
ĠT R
Ġdepend ing
z z
tain ers
ven ue
Ġg ap
ĠT ele
Ġz one
ĠJ im
con v
check ed
sh ared
j ango
Ġvalid ation
Ġsuccessful ly
V ID
onal d
icens ed
ab il
P UT
Ġmagn itude
arri er
. <
Ġqu adr
v ideo
Ġinfin ite
ell ig
d iag
Ġc ru
Ġch ief
ys ical
Ġex it
S ample
Ġcapt ure
el astic
Ġw allet
Ġr an
s n
S ort
Ġmov ie
Ġshe ll
Ġres on
Ġan imation
Ġdo ub
ĠG reek
Ġnew sp
ang ing
\ _
b ro
ĠA ction
os ity
requ ired
arri age
Ġsup ports
Ġpro xy
Ġprov iding
Ġparent s
Ġhigh light
Ġm eta
Ġinst alled
are t
load ed
T wo
\ {\
ĠIm age
he el
ĠB ack
or ial
Ġc md
196 3
Ġh ydro
z h
D etails
ĠM ake
L ibrary
um s
ost on
ĠPenn sylvania
not es
Ġsy nt
ĠE val
SS L
Ġw aves
ĠG ame
lip se
ĠAN Y
R C
r g
Vis ible
Ġturn ed
Ġdiffer ential
Ġmeas ures
Ġm enu
oper ation
s ol
Ġserv e
ĠVal ley
=" ${
An imation
% ,
u ce
D epend
h l
Ġw ays
Ġocc urred
DU LE
Named Cell
MO DULE
P romise
item pty
Ġmin imal
ack et
low er
Ġcomm ission
Ġlog ger
gener ated
S ch
ro le
sup ported
arg uments
Ġlim its
Ġsing les
Ġassert That
196 2
og ram
Ġlet ter
ĠS erv
om itempty
Sh ared
Ġhyp ot
Ġus age
Ġmag azine
Ġrap id
Ġrg ba
Ġ' ';
Ġp ages
Ð ´
DE FAULT
Ġt x
25 0
L ower
Ġstart s
word s
Ġdeg rees
Ġnumer ous
ell er
Ġto ld
Ġdiffer ences
CO MP
, $
n i
t k
her ited
Ġqu arter
um my
Ġg ain
Null able
Ġask ed
Ġ ice
iss ues
w p
Ġdis s
DE F
k ins
ĠF C
side bar
i pher
lo ader
tr ace
Ġ' \
Acc ording
Ġbecom ing
v ol
c over
sl am
Ġgener ic
Ġmeet ing
b g
Ġag greg
ĠM r
Ġin tr
Ġdes ired
ĠCh ief
tain ment
ĠSpec ial
Ġ ut
P ay
Ġexec ute
Ġout er
Requ ired
F n
Ġso ft
Filter Database
Ġ eth
W ait
U ES
olog ies
mon th
Ġbe am
cc cc
Ġop port
enn is
ï ¼
M ask
it ation
set up
check box
Be an
Ġindividual s
Ġrem ote
B O
Fl ag
r ick
ay a
Ġpro port
D IS
E ff
ay lor
ĠS D
Ġar my
in ator
Ġecon omic
Con structor
ak a
Ġhe art
Fail ure
t ik
Ġa x
us et
res ources
Ġdev ices
Ar r
per iment
function s
| }
Ġcover ed
en ant
Ġem it
Ñ ĭ
Ġlay ers
ĠT ri
anc er
Oper ator
ĠR adio
ĠPro cess
ĠR am
Ġamplit ude
ĠEn ter
cre d
s el
Ġle aving
Ġwe eks
App end
ĠL ord
ta il
option al
194 4
ĠThe ir
ĠSt e
f ixed
Ġshow ing
const ant
Im port
Ġdis abled
Ġf air
Ar ch
Ġscal ing
196 1
tab s
k ub
pe at
Ġp p
Sp an
ĠIn put
Sup port
en ch
Ġ{ "
ĠX ML
sy ch
il a
: [
Ġs eg
() </
az y
Ġf avor
on ce
Ġunderst and
Ġo dd
Ġ ^{
Ġspec ify
du ction
ĠI mm
Ġphys ics
ro ph
uff ers
- $
MO DE
ĠR et
r ine
ug s
ent y
Ġcoun ty
METH OD
sim ple
Ġb atch
IN FO
Ġthe me
lap se
) }_{
ĠJo urnal
\| _{
Ġb tn
18 0
pl ates
ĠB re
Ġcon version
Ġign ore
Ġnuc lear
Ġh ole
N C
ĠP ubl
ĠDirect or
f ly
at omic
ĠE lect
m ma
Ġcon figure
INT ER
Ġ\ "
Ġdr ama
Ġt alk
Ġ{ },
s ocket
St op
S ome
Ġs ynchron
ĠIr an
) +\
Ġide al
Ã ±
L anguage
t body
us band
Ġf arm
ac le
ĠS ong
dr iver
T otal
Ġclaim ed
Ġoffic er
object s
o ir
em pt
Ġis ol
ĠW hat
C ategory
Ġ$ |\
Ġl ived
st anding
ĠBrit ain
ĠS u
Ġext rem
Ġwant ed
up s
Vert ex
ĠU k
d etail
ĠPe ople
/** */
go ing
Ġobserv ation
Ġcl usters
' ];
() ))
Ġ ener
Ġel im
Sub s
iv ation
Method s
ic ator
ĠC amb
z en
def er
M ouse
stru ctions
Ġredu ction
ĠOff ice
Ġcommun ities
Ġatt ract
Ġas sembly
ĠS ar
ent h
he tic
Argument Exception
em ic
int eg
Ġquick ly
igg s
s ome
p end
H P
D ATA
B inary
ĠBl ue
Ġf le
s ync
ĠSouth ern
con g
p air
Ñ Į
ass ets
atas ets
ĠP ak
ust rial
Gener al
Ġconver gence
ino is
Group Name
ĠR h
Ġsecond ary
ubb le
I VE
valid ate
ĠC ivil
C lear
ĠM ajor
ĠS pe
INS ERT
ĠG ood
} )$,
Ġc lock
ĠF inally
Ġann ual
uz z
fe ature
air man
Ġw or
ĠIn v
por ation
n am
comm it
Ġdet ected
s a
Ġsen ior
i y
ard en
ĠJ ones
Ġlang uages
prov ider
c lean
ir ls
OR TED
ĠA S
Ġfunction al
py thon
Ġfore st
Ġcol on
Ġindu ced
ogene ous
Ġallow ing
Ġt ail
; }
os a
n p
L eg
} }$.
ĠD ist
ĠL L
r idge
Ġc ursor
F in
ion e
}{ (
l at
z ip
Ġv on
0000 0000
est s
Int roduction
Ġcon j
ob serv
A ng
b x
im s
Ġtra ined
ĠĠĠĠĠĠĠĠĠĠĠĠĠĠĠĠ ĠĠĠĠĠĠĠĠĠĠĠĠĠĠ
Ġmet al
Ġtrans lation
ra pped
Ġp ull
ĠCent re
con sole
Ġfl uct
est ion
und red
user name
CH AR
ĠW rite
at ers
Ġ ×
) -\
Ġf lo
$ ),
Ġ@ "
Ġ Å
h ave
Ġinteg ration
ap is
Ġclear ly
cknow led
ĠO x
Ġfund amental
H S
Ġad just
" ],
Ð ¼
} }$,
Ġg overn
Id s
6 00
ĠL o
h ard
Ġa udio
pl oad
> ;
fact ory
Ġs ector
dest roy
pr ise
ĠAn y
Ġ" ",
Ġpro jection
Ġr u
195 8
n os
Ġ ul
act or
Sum mary
Ġin ject
Ġscal es
Ġregister ed
Ġdes pite
] }
: `
Ġget ting
Ġrecord ing
ĠDemocr atic
Ġtheore tical
$ {\
Ġmaterial s
C ALL
burg h
od d
195 6
ad el
Ġ\ &
VAL ID
F ind
Ġbr idge
N ational
C M
Ġm iss
ĠAs ia
Valid ation
ĠB ern
Ġd at
ĠAp ache
Ġ' '
ov ari
ĠM ov
ĠS ource
Ġvict ory
Ġoper ated
d c
'] ['
Ġmur der
ĠB as
Ġdep ict
Å Ĥ
Ġp ain
rit ical
Ġcomput ation
Ġt rib
Ġpro min
Ġaccept ed
as sembly
R T
194 2
Ġview s
form al
12 5
B atch
Ob serv
}$ )
) )$
Ġdescrib es
on ed
Ġtherm al
ĠA mazon
ĠCar l
ĠJer sey
Ġw all
Ġdep artment
ĠCon ference
T x
Ġf ine
ys ics
P air
195 9
Ġb ass
ĠM ah
Ð ²
IG HT
Ġro ugh
Ġla unch
ĠMich igan
Ġn ine
p erson
Ġinter section
Ġadopt ed
ĠV ector
00000 1
anc ing
gy pt
ĠH AL
ition ally
op ic
Ġwe ights
rel ations
,\ ,\
Ġs quad
Ġexpl ain
ĠArray List
S ur
Ġexp anded
Ġhistor ical
Ġcont ents
N ormal
ĠP age
STR ING
Ġl umin
}{ |
g ies
ore ign
con struct
tik z
Ġgrad ient
I X
ĠD utch
ĠK ent
Ġdid n
in herit
display Name
Ġphen omen
Ġdisc overed
B rit
ĠD OM
Ġlook ing
ch a
Ġle aves
ĠRep resent
Ġdes cent
Ġsuggest ed
M ay
Ġv ote
u um
A xis
Render er
Ġb ind
ĠOr ig
semb le
t i
Ġcan cell
Ġact ors
8 00
r im
Ġp ul
L ook
r adio
co q
Ġpro ceed
ok ed
) }}
Ġp i
j pg
ult y
ach uset
Ġn p
Ġgraph s
Ġc lick
achuset ts
\ ;
ĠAs ian
ĠOh io
ast e
ce an
ĠP acific
for Each
Ġloc ations
$ /
eng er
Ġs ym
a is
ĠZ end
t an
Ġcon nections
Ġf riends
p res
ĠM en
ĠApp end
Ġdiv ided
Sh arp
ir ror
ĠP rem
Ġprinc ipal
Ġcon clude
hel per
19 39
Str ategy
ra ined
ĠScot land
Ġper fect
En vironment
F urther
Ġinst ant
Ġw rong
194 8
Ġvalid ate
Ġsh oot
Ġse at
m ond
Add r
T ags
plic ations
ĠN AME
ot on
ĠPro perty
195 7
d uration
ĠM iddle
Gener ated
ĠPhil ipp
ĠSo ftware
ĠB ol
W rit
f old
un a
10 1
Pro gram
ĠB ow
C ONT
assert True
Ġf iction
Ġs al
O F
ĠSt at
ap pe
L em
e z
ĠWindow s
Ġint ended
ro ute
ĠRout e
form ed
amp ions
ch art
I ZE
Ġload ed
Ġr ise
j oint
Ġ" $
# {
Ġar rest
D M
rypt o
ed d
h ere
im b
ĠH am
(' /
up load
Ġp il
Ġd ict
Ġ ens
c le
on to
us ers
" |
ĠC ard
com put
c li
col l
tr im
ĠS ta
Ġac com
ĉ ĠĠ
ro g
Ġcop ies
Ġ ion
Ġlist ing
i ance
SE LECT
Ġth ing
el d
ĠWilliam s
o e
Ġfootball er
B IT
Ġcommun ication
cl one
Ident ity
ĠL android
ag g
ĠB ul
Ġsubsequ ently
Ġneighbor hood
ĉ ĠĠĠĠĠĠĠĠ
comp are
Ġh usband
re lation
l aw
Ġelection s
Ġtool s
bold math
ĠF ree
Ġread y
m ix
ac ent
ĠCh annel
ul i
Ġsh ips
sequ ently
C loud
Ġserv ing
Ġact s
194 3
~~~~ ~~~~
ĠQue en
ĠIsra el
arn ings
Not ification
Ġf erm
Ġdocument ation
á ĥ
Ġst ress
Ġaff ect
ĠS ets
F inally
ĠL y
Ġcon ven
Ġind ices
art icle
r an
[ -
A re
ĠC H
ĠPol and
Ġfin ish
? >
cre t
R elease
Th erefore
Ġord ers
b ury
Ġrelig ious
ch anged
Ġun iversity
S ports
ĠJohn son
ĠIN TO
ĠP aramet
Ġd x
ĠPl an
ĠEd ward
ĠRem ove
S pe
Ġp iece
Ġex cit
Ġnear by
it ivity
ĠC ount
N ET
Dr iver
log in
Un known
Ġcoeff icient
Ġprov ider
l ings
od ay
j et
ilar ly
big l
d ig
s at
Ġany thing
Ġin come
Ġsay ing
or ough
ĠF urthermore
ver ter
ec es
gener al
Ġf reedom
Ġdel iver
Ġtem por
Comp iler
M er
Ġnull ptr
Ġdest ination
ã Ģ
F ocus
Ġconver ted
F ree
b d
if i
on om
194 1
ĠC ro
Ġtechn ique
aps ed
" },
(' #
w all
Ġmass ive
ĠW ay
i ents
Ġachiev e
Ġs afe
ĠIll inois
od ies
ap h
Ġlocal ly
ĠPort ug
mem ory
ĠP RO
AN G
En v
Ġpred iction
T F
Ġwest ern
Ġmet rics
ph as
Ġs yn
ig a
Ġf av
vari able
| _{
clus ions
Ġsubsequ ent
Ġpart ies
Ġmed ium
ĠS ol
Ġfr agment
ĠGeorg ia
195 2
Ġt rees
ĠL ab
res ize
M ove
ĠD evelopment
Ġm ount
b p
Ġoptim ization
Ġpr ice
se par
= >
In sert
Object s
ĠAl b
B asic
ĠM any
er ence
194 6
p ull
195 5
' ll
V D
' m
Ä į
comp iler
Ġscen ario
Ġst ories
Ġpro to
ĠB oston
h orizontal
s en
Ġpr ime
$ :
Ġ" %
Ġtry ing
Ġf ederal
f c
Ġus ual
ud get
get Value
ĠV an
ĠD ocument
ĠR ay
ke e
ĠRail way
s ym
Ġsub t
(" /
OR Y
Ġmod ules
ĠReg ion
Ġim ag
h u
Ġl ives
Ġre asons
Z one
Com plete
Ġoper ating
urb an
ĠOption al
Ġeval uation
class Name
C G
Ġquest ions
em it
E ST
Ġacqu ired
Ġw ind
Ġapplic able
F N
Ġrequest ed
Th row
Ġdoc uments
Return s
Ġ= ========
Ġtra ffic
Ġassoci ation
Ġin strument
Ġsett lement
ĠM ock
- (
Q U
Ġwork ers
ur able
ic ed
Ġbeliev ed
al gorithm
Re port
F amily
Al low
Jo in
Ġansw er
mer ge
C LASS
å ı
An alysis
Ġ[ \
ĠL uc
Ġhelp ed
En ter
Ġtr ust
if est
/ (
Ġn arrow
! <
ip ment
ĠFrancis co
Ġfe at
big r
to Be
Ġpl ans
ĠF ROM
d k
ĠSt andard
Ġres ist
Ġact ing
ĠD ir
ĠJew ish
=" ">
ĠS i
R aw
anag ed
urn e
ĠH ome
Ġend point
194 7
ĠMass achusetts
Ġcoup le
at ar
G P
Ġneut r
b atch
clos ed
F UN
Ġoffer ed
Ġmer ge
f mt
m aven
ĠT w
Ġ il
Ġf amous
ac cept
Ġend s
ĠL atin
is set
am ber
PO ST
w orld
Ġcapt ured
spring framework
M IN
Ġreserv ed
ab eth
Ġv oice
orig in
EL D
Ġpolitic ians
Ġnav igation
ĠSe a
Ġs ister
C B
Ġret ired
vis ible
on omy
i Äĩ
ele ments
Ġconf irmed
ĠW ill
Ġle tt
se q
Un ited
Ġra re
Ġclub s
plement ation
^ ^
ĠThe atre
s ig
B o
Ġes cape
ĠP ower
Ġdi am
Ġcandid ates
Ġpass ing
I A
Ġrun time
sl ash
W hat
ĠJ ud
il bert
00 1
Ġunderst anding
Ġth r
S ql
Ġcan onical
M any
Ġwhere as
Ad min
S outh
e a
Ġcharacter istic
Ġsum mar
Arg uments
dis able
Ġmed ian
fl at
ĠWil son
p ic
Ġconduct ed
ĠG overnor
Ġvari ation
ĠS M
TR Y
Ġeval uate
Ġacc eler
Ġre ports
ĠB ecause
ic ip
is Empty
ur er
ĠCo ast
ab b
ĠPl aces
te en
play er
Fr agment
F uture
Ġcomplex ity
v ee
Ġd ialog
orn ing
w arning
195 3
Ġle mma
Ġp icture
b c
ĠB it
Ġw arning
pect ive
script style
epend ence
Ġs izes
Ġin verse
Map per
ĠEast ern
33 33
Exec ution
iffer ent
Ðµ Ð½
re lease
ĠD O
pl ane
Ġb right
t ics
Ġc amera
ĠI slam
ch er
y y
Ġcoun cil
qu ant
p olicy
Brit ish
p ubl
Ġs ync
Ġ' ',
c ert
n ic
Ġtw ice
Ġconsider ing
ĠT re
Ġcom edy
ser ies
oc cer
ĠS und
Ġdig ital
Ġsk ip
Ġdecom position
Ġcit iz
Ġden oted
w t
] ))
pl acement
Ġf lex
al gebra
it age
Ġbul k
Ġident ifier
Ġm ind
get Element
Ġsu itable
Ġs ides
br ace
Const ant
a us
B inding
ĠN ext
Ġd ie
**** **
AT OR
Ġop acity
v in
em porary
Ġoffic ers
create Element
ĠÐ ¿
Ġnew ly
tribut ed
< !
ĠC SS
Ġs b
Ġc ities
ĠB ang
we et
Ġchem ical
d ash
Ġuncertaint y
( .
evelop er
Ġhe at
Ġfl uid
/ {
Ġreve aled
Ġent ropy
195 4
Ġsub group
an imation
Ġke pt
ĠK ong
Ġorgan izations
ĠCre ates
G N
Ġprim arily
Ġprogram ming
Ġw ild
> )
Ġcomm only
ĠM u
Ġwid ely
B L
Ġt ags
ĠRev iew
re du
iv ery
Ġdecl ared
Ass ociation
G ER
ex pression
Ġexpress ions
Con vert
ĠPr ince
, {\
ord ers
B ook
Ġc at
ant om
D rop
Ġradi ation
pl an
ĠS E
ĠSt atus
ound s
ult ane
Pr ivate
Ġprof essor
. """
ĠC art
ĠTechn ology
ash ion
ĉ ĠĠĠĠĠĠĠĠĠĠĠĠĠĠĠ
W IN
ĠS and
Ġoff ers
ĠColumb ia
ĠJ r
Ġob vious
j oy
ĠOx ford
ĠL ink
; ">
ĠR o
are st
Ġdef ines
Ġbeliev e
Not Found
Serial izer
ĠBro ad
i ant
unn el
re port
! !
Ġh ockey
A rea
ess ions
ic ine
b ec
an aly
DE BUG
em y
p ur
} ))
long rightarrow
EE EE
Id x
ĠSt an
M ag
E val
AN T
w ill
ĠC apt
$ _{
Ġen umer
M usic
_ )
Ġf re
Ġorgan ized
Ġs ociety
ĠE st
Ġmod ify
Ġal one
ĠM S
Ġinput s
Ġfind ing
Ġdep art
Ġro ll
Go ogle
ĠD own
F inal
ern etes
Ġsh if
Ġeff iciency
art ers
Ġdis crete
Ġco inc
Ġ} }
}\ ,\
comp ile
ĠL ight
Ġresp ond
Re al
Ġd ot
Ġor th
Ġ' %
u ing
Ġexec uted
h pp
Ġgrav it
Ġregion al
v ing
ĠSh ort
Res olver
ex it
col lapse
Ġm useum
An notation
U nder
II I
p et
P layer
Ġtop ic
Ob server
ĠUS A
Ġband s
Ġiss ued
}} )
^* $
ĠH ung
Ġb os
Requ ire
Ġtra ject
ĠM id
12 7
W est
Ġb inding
N UM
z ed
Ġf irm
Ġsol ve
194 9
av ailable
k h
re ce
LO C
ĠI R
ĠY our
ordin ate
Ġiter ator
Ġstr ateg
eder ation
ĠR est
ierarch y
cuss ion
out heast
: }
ful ly
Ġimprov ed
B Y
ĠW all
on ia
Ġdes criptor
am ps
aj ax
ĠSec urity
ĠM i
ĠAlex ander
end or
Ġal ias
ĠN ight
b asic
B ut
Ġ{ $
v ature
SC R
ĠL ittle
Ġapp arent
ĠJ es
ĠE gypt
Ã¡ n
Ġc ool
Ġpattern s
ĠD er
Ġrem ark
Ġt al
or i
LO W
c ounter
act ic
ĠG lobal
Con tains
ĠWAR RAN
se m
ĠCon f
il ly
ĠSen ate
L oop
Ġqu ark
ĠÂ £
% )
Err ors
Ġinterest ed
Ġadvant age
Ġperform ing
$ &
rem arks
Ġcom ments
Ġcon n
Ġdestroy ed
ĠA ff
t iny
() ),
195 1
ĠVAL UES
Ġtransfer red
Ġro les
Ġpl us
Ġo il
ater n
uck y
p ir
ov es
Ġperson nel
Ġse ed
b lob
Ġprot ect
U D
f lex
Ġd s
Ġchar set
plic ity
ymmet ry
ĠA uthor
h olds
Input Stream
ĠScott ish
NS String
ĠF ar
ĠL ater
The lia
d frac
Ġ\ ]
Com m
print ln
Ã ¸
Ġis n
Ġass ess
Ġal leg
Ġattack s
Ġcomput ational
ĠW is
Ġf loor
;\ ;\
ĠOff icial
Us age
po inter
ĠJack son
S egment
Ġconv ex
ur ies
Ġw orth
ĠĠĠĠĠĠĠĠĠĠĠĠĠĠĠĠĠĠĠĠĠĠĠĠĠĠĠĠĠĠĠĠ Ġ
Ġrepresent ations
Ġre b
All oc
Ġ' .
col lect
Ġd ire
ĠG ra
ird s
U pload
@ {
w d
se lection
\ )
qu ote
Ġrec all
Ġimport ance
S em
Ġcon sequence
ĠK en
Ġtri al
Ġj s
\ }$.
E P
ĠSt ation
or ient
Ġreturn ing
Own Property
Ġpro pos
,\ \
at iv
ĠC lient
ĠPol ish
IO Exception
h aps
Ġepis odes
Ġn amely
l f
ĠG ar
ĠS em
ĠC ustom
Ġgener ator
m n
Ġsp ac
ĠM ember
Ġp al
Ġsatisf ying
M essages
che ster
w atch
Ġrob ust
Ġperm issions
ĠS elect
ry ption
Cont ents
Ġinter pre
F older
i Ã³n
Ġded icated
'] );
et ic
Lin q
Ġstat istical
Ġc yc
str iction
ab y
' ve
Ġrepe ated
oun tains
( /
int eger
Sign ature
Ġart icles
poss ible
an im
M ake
Ġpre p
rop ol
neg ative
Group s
Ġrequire ments
Bound s
Ġdown load
ĠI ter
Ġy outh
Ġh ospital
D ay
ext ra
Ġ| =
ĠCor poration
19 36
ĠB ad
Ġch unk
ĠL anguage
cont ents
Ġequ ilibrium
ĠCon serv
ĠCont rol
S ame
ĠS ign
ĠAn other
}) }
Ġposs ibly
ĠF ollowing
ĠBro ok
an try
li k
12 34
S creen
Ġphot on
Ġmon itor
Ġcontrol s
c ountry
Ġl ie
ul pt
B est
AT TR
ĠW ild
v o
ĠAnd rew
ĠN on
enn es
H ub
f ast
Ġbehavi our
Ġdr ive
d atabase
Ġir re
Ġident ical
A SSERT
Capt ure
H L
B AR
Diagnost ics
ĠDan iel
v an
ĠN a
Ġw ire
Ġconc ert
Ġar c
">< !--
ĠP en
Ġmanif old
ĠS om
BP ACK
Ed ge
w ater
Ġfif th
C ursor
ĠB al
est er
Ġinvolv ing
19 18
can vas
Ġac comp
ĠD ar
Ġindic ating
Ġevery thing
Ġfor t
] $.
Ġsp irit
H tml
ĠH arr
Ġaff ected
Ġop posite
Ġear ned
ĠIs lands
AT CH
Ġm arriage
ct ic
go og
rel ative
c fg
Ġeffort s
Ġexpl ained
Ġregard ing
ĠP ack
Ġ" ";
ĉĉĉĉĉĉ Ċ
ati ents
Ġsequ ences
ĠBer lin
Ġcharg ed
A udio
g ame
Ġmunic ipality
STAT US
EEEE FF
ĠJ ean
nt ario
ibr ation
] +
t frac
ĠW IT
ĠĠĠĠĠĠĠĠĠĠĠĠĠĠĠĠ Ċ
Ġsuggest s
ĠR ow
Ġturn s
}[ \
ĠM ot
Ġsufficient ly
Ġsub stant
pre c
Ġs ocket
ĠT aylor
Ġa wards
Ġcol lected
ĠPol ice
c ref
ĠW ater
CON FIG
st ates
) ",
it ness
th ur
tr l
t f
CT YPE
and o
ĠS uch
Ġcon sec
vert ex
r ank
Ġatt ached
ro vers
Ġm ouse
st andard
Ġeast ern
ĠM anagement
ut down
Ġc ultural
Ġsepar ated
Ġmix ing
sc ss
i ota
M ult
Pl an
S ources
Ġhous es
Ġapp lying
ĠC reek
ĠF ire
St atic
Ġj et
ID TH
be an
Ġh undred
W arning
Ġfig ures
ress ed
ĠH as
ĠTh ree
}} _{\
less sim
form er
E mail
el ength
ĉĉ ĠĠĠ
Ġcomple tion
V irtual
Ġenc our
ĠKore a
P red
Ġsup ply
Ġd ust
p f
ul y
trans parent
Enc oding
h ook
Ġener gies
ut s
Ġsh ock
AN CE
rop ical
r v
ĠS ports
Ġst ability
Ġin fra
Ġc orner
at on
ist ogram
Ġcomp ilation
ĠS earch
ĠH ong
em bed
high light
Ġnormal ized
Ġ' "
Ġappear ances
Ġag o
ĠRec ord
an z
ĠH uman
ĠC R
com b
Ġmat hemat
Ġ= ======
B I
ze ch
Ġconstit u
Ġf ellow
g oto
ĠJ on
Ġcompet ed
in er
In formation
Ġs ys
Ġc odes
ĠIl legal
Ġfocus ed
C ur
part s
t l
Ġst yles
19 38
Ġdiag onal
ĠL oad
Ġdise ase
math op
Ġab und
Ġ" '
I AL
AT ED
Ġpredict ed
ĠAt l
ellig ence
ĠSecret ary
ĠBy te
Fe atures
ĠE con
small skip
RE E
i em
hav ior
Ġemploy ed
Ġem phas
g overnor
ĠAb stract
Ġp urs
Ġprec ision
Con nect
Ġwin ner
Ġbase ball
yd ney
Ġsp ot
Point s
Ġlead ers
A bs
og en
LI ST
att al
Person al
p ag
A ustral
Ð° Ð½
Ġind eed
Un iversity
ĠVictor ia
Ġtro ops
c atch
ĠB a
C md
B al
g lyph
Ġpur poses
Ġ- =
S m
/ _
iv ated
ĠD elete
ĠQu ery
Ġestim ation
) >
Ġbro ken
c u
Ġd iver
ĠC ase
Ġderiv ative
im its
ĠC irc
ĠB usiness
cons ist
Ġ$ ,
f etch
ass ign
ĠIn formation
Ġad m
al ing
F ALSE
dis patch
m utable
de ep
ic ans
con trib
Ġsaf ety
is ely
l ab
FLA G
ether lands
; )
Ex ists
Ġspe ak
Ġtechn ical
Ġdisplay ed
Ġexpl an
ĠBel g
Task s
ĠRepublic an
US ER
bl ank
Ġc ategories
ron ic
T imer
ph ase
t z
Valid ator
Expect ed
Q ual
Ġser ious
] {\
Ġ ----------------------------------------------------------------
S ave
Ġchang ing
direct ory
P Y
th rift
w as
W atch
Ġtr ivial
RES ULT
Ġl abor
id el
Ġf ish
G ame
ĠRe al
ĠArg ent
ak i
ĠP romise
Ġc e
T im
ĠC EL
sp in
tr ivial
R ate
MA P
Ġcon vent
Ġ" .
Ġinter rupt
A UT
y o
Ġs pher
Ġd atasets
iz abeth
c ancel
ĠB and
Row s
ps on
Ġsom ew
ph ia
to uch
f ake
Ġp ref
y er
d irection
Ġrad ial
Ġm es
Ñģ ÑĤ
Ġprom oted
NavBar Font
Ġarr ived
par agraph
at en
] $,
19 37
) })
ens ities
[ ],
p ub
w eg
empty set
Ġca uses
Ġlate st
Ã º
ĠA ri
x s
n ative
Cl os
Process or
Met rics
H C
f eed
Ġdepend ent
< <
Ġm d
Ġclaim s
spec ific
Ġt end
Ġfail s
N V
ap se
Ġport ion
DO CTYPE
Ġel if
B el
con nected
c ross
Ġth ous
Ġcol ors
ĠOr gan
Ġin struction
con tact
Ġl ists
it ical
Ġdec or
Ġp ixel
Ġinter act
ĠB C
Ġd elegate
Ġfl ight
(" %
Sk ip
s quare
ĠR os
Ġthe ories
Ġfind s
RA Y
com pute
L Y
New ton
Ġpack et
R PC
sub mit
ff f
Ġconf irm
Ġlog ic
Ã© e
sign ature
Ġben ch
p at
Ġgrow ing
ĠJo e
olog ist
add Class
ĠM aster
) }_
Ġ? >
Ġconsist ing
adel phia
pl ier
Ġpay load
m ac
» ¿
m apping
est abl
Ġsatisf ied
amb ig
top ic
Sh ould
Ġr ac
Enumer able
Ġnot es
H AL
pro gram
oriz on
Ġpredict ions
Ġlarg ely
AR D
not ations
Ġn ation
Ġinc ident
enc ode
19 19
ĠJ eff
cre ated
}} .
ĠC G
T ax
read er
ap ed
ĠA ccess
Ġequ ality
ĠS pring
un ing
ag a
Ġwe ap
B ool
As sembly
Rem ote
bound s
B its
Ġtri ple
ï »¿
Ġbeg ins
Ġj ump
requ ency
ĠS pace
Ġp arsed
T uple
/* !
ĠE nt
Ġpre par
ab out
ĠPr ime
art he
D ig
Ġexec utive
Ġpromin ent
view s
ar ith
alk er
Ġv en
pre vious
n c
ĠJac ob
ĠC loud
+ (
w arn
In f
d ocker
Ġquant ity
reg ular
com plex
ct rine
gener ate
Ġem b
An im
er os
F OR
const raint
A SE
ĠS ant
Ġb re
ab c
Ġcover age
Pro of
(' ./
reate st
un es
c ursor
ĠI V
ack s
ĠServ ices
br as
br id
u uid
Ġp itch
vert ical
Ġc ovari
cri bed
ĠB BC
Ġalong side
H ow
ĠV iet
ĠJ S
^{ *
S ymfony
ĠG iven
ĠMus lim
d ynamic
Ġh orizontal
B M
ĠSup port
ĠG ro
Ġdam age
Ġsim ultane
Ġd t
nes ota
Ġ-- -
WE BPACK
Ġt a
an th
ĠV ari
Ġb ias
ĠR og
Ġmax imal
SQL ite
ĠB ell
, .
onym ous
Ġan cient
ĠW in
Ġres idents
Ġdis able
m k
Ġ era
ĠN ative
Pl ot
Ġin fer
0000 00
LE D
ind u
Ġprov ince
ĠH ospital
Ġload ing
Ġext ensions
Inst all
ĠF ace
' d
Ġ ĉ
Ġren amed
ĠB on
ĠO s
Ġder ive
Ġgrant ed
UR CE
Î ±
ort heast
ĠSim ple
om er
T ele
Ġc ached
in son
Ġ$ _
tri angle
hen s
ĠRes ponse
Ġexp atriate
Ġfeat uring
Ver ify
per or
all classes
Ġtri ed
con cat
P M
Ġp ra
Ġhon or
ut ation
Ġ` ``
ac o
ĠCon text
> '
Ġperm ission
Ġaccur ate
Ġcos m
am in
method s
}) =
Al though
ĠS a
ĠR a
Ġpart ner
ĠSer ver
H ome
iss on
Ġc atalog
ĠO ntario
ĠK r
str ings
ĠSt ream
Ġperm it
Ġdr ag
j an
ĠSc iences
Ġcontrol led
ĠVer ify
ĠOut put
ĠCor ps
ic ode
Run ner
Ġs port
=\ "
ĠCon nect
X i
Ġacadem ic
S ite
Ġattempt s
ĠJust ice
HE AD
V AR
rop ic
Ġcheck ed
ĠOlymp ic
Ġhapp en
ul ing
por ter
19 35
Ñ ĩ
Ġlow est
map s
ĠL ast
In ternational
C ancel
f p
Part ition
$ };
Ġassert True
IL D
Ġad ult
Ġcl one
Ġtre ated
id i
Ġposs ibility
et o
as m
D i
us al
ass andra
ly n
Ġtrans mission
Ġs aved
Ch art
ĠKore an
FF ER
face book
Ġm anner
Ġiter ation
AR N
Ġnewsp aper
Ġrec urs
bind ing
Ġs ending
EN ABLE
R ules
ath an
ĠAppend ix
Ġdefinition s
r ame
dist ance
kw args
Ġindic ated
Ġst ock
ĠC at
FI ELD
riter ion
ĠL at
! \
ĠComm unity
Ġc b
G iven
Ġassist ant
p id
con sin
Ġadv ance
B ottom
r uby
per iod
Ġreview s
st rip
P OS
Ġp et
Column s
Dis c
n ol
Ġcon ference
Ġpower ful
Ġrepresent ative
down load
Dr ag
p in
Ġre verse
ĠCom put
nav List
)) \
S plit
w ho
Ġcomp atible
ĠDes ign
le ton
it ative
ĠA sh
Ġsurround ing
m essages
ars ing
) --
Ġref ers
inter val
DE X
Ġclass Name
Ġg irl
ĠS IZE
Ġplan et
Ġcon d
ĠC urrent
ict ures
Res et
å Ī
Ġsol ar
ĠB ra
resent ation
T Y
ĠE ND
Ġd ense
ĠDE FAULT
Ġmin ister
D en
L android
che stra
Ġadministr ation
ĠW rit
Ġm obile
ĠR aj
Ġrece iving
ĠC as
Ġcre ates
column s
ĠD B
Ġadv anced
a ug
Ġ( {\
ĠC lear
ĠS H
per m
Ġassum ptions
ts d
ĠP R
ibli ography
Ġp owers
}_{ -
Ġf ru
Ġsil ver
ĠE ven
ut enant
= [
Ġfr ag
re peat
W in
ĠTh read
ĠCon vert
Ġcontin ues
Ġinter mediate
r ated
T L
Ġf ake
Us ers
Ġs and
pt o
z ing
N a
Ġsome one
E st
Ġsign als
Ġup dates
Perm ission
fin ite
H ence
Ġp atients
Decl aration
Ġserv es
Ġsold iers
Ġt ell
}$ }
` )
Î ¿
Ġdef orm
Ġinitial ize
ĠN C
Ġto ward
Ġh y
Ġp erman
Ġatt end
Ġh ope
LIC ENSE
C ounter
g i
Ġtre nd
Ġp ixels
Dis patch
Pl atform
t ar
ĠPri ze
Ġr ational
19 14
writ ten
Ġa thlet
ad ed
in os
Ġconfig urations
par allel
Ġcorrect ly
Ġpl anned
over ning
Ġcan cer
ro b
ĠMin istry
UN D
Con sole
Ġd elta
ist ed
Ð¾Ð ²
ĠĠĠĠĠĠĠĠĠĠĠĠĠĠĠĠĠĠĠĠĠĠĠĠĠĠĠĠĠĠĠĠ ĠĠĠĠĠĠĠĠĠĠĠĠĠĠĠ
Ġre produ
S W
ĠInd eed
us r
Ġst reet
Ġd rawn
OP T
o a
Ġen joy
Ġinvestig ate
ĠM ic
ĠF air
ĠA venue
ĠV ill
sp irit
elastic search
od a
ĠP si
col Last
bo urne
Ġcre w
Ġcontr ad
}) ^
ur st
Ġcol span
Ġhe av
s un
ĠF ind
Ġis omorphism
Ġt ells
Ġembedd ing
Ġveh icle
Ġfac ilities
Ġspec ifically
ĠSup reme
ĠN etherlands
}} ^{\
Ġobject ive
med skip
ĠS ydney
ge bras
Ġquant ities
% "
Ġbelong s
con vert
Ġrel ax
Ġcomput ing
Ġint ensity
" ].
ĠR om
me an
Ġf elt
Ġinvest igation
ag ma
M aterial
p ending
ĠConfig uration
Ġcur vature
} ~
ul f
Ġlaw s
ĠF ix
ĠIn f
ins ic
ĠD ig
Ġb lood
un te
m ount
ĠL ew
at ibility
T imestamp
L ight
ĠĠ čĊ
Ġre action
Ġn s
i ar
\ }\
A SS
ed u
ĠF ederal
Ġim plied
Ġag ents
ĠW el
Ġover flow
her ent
x html
Ġproper ly
iss ue
Ġnon linear
im ately
Ġmax im
Ġign ored
pr ising
T ouch
19 00
col First
ĠO S
Ġbal ance
ron ze
Ġs ampling
Ġengine ering
Ġw ing
ab ric
On ce
it led
valid ation
D on
R andom
pre d
ĠTor onto
ĠF inal
ĠM ulti
N ov
Ġ} {
ĠP O
ss l
M anagement
Ġbe aut
Ġ/* !<
Ġ\ (\
Ã© s
ir ation
Ġin h
Ġf oo
ra ine
pol y
ow a
agr ang
Ġequ ipment
ĠR en
ĠB oy
Ġtop ological
ĠProf essor
Ġf s
Ġpres erv
Ġfr ames
Ġtemper atures
ak h
Ġat mos
Can vas
m oment
A ST
Ġexp and
Ag greg
ĠImm utable
ic ular
al ias
ĠR od
Ġaddress es
if er
Ã ¢
19 17
ĠGu ard
ĠĠĠĠĠĠĠĠĠĠĠĠĠĠĠĠĠĠĠĠĠĠĠĠĠĠĠĠĠĠĠĠ ĠĠ
Ġhost ed
w ild
ri e
load ing
Ġlog ging
Ġmot or
Ġd imensional
j ax
c lip
Ġm acro
\ /
ĠR ome
R a
Ġcorre ctions
D iff
Ġgrad uated
K n
ne ut
ĠHand le
Ġsymbol s
Ġide as
Ext ensions
ign ore
Ġrecogn ized
Ġp atch
lic ense
Ġasympt otic
includ ing
Ġsc ulpt
Ġh our
Ġp ending
Ġlimit ations
V ICE
Ġl iqu
ĠQue ens
P D
ORD ER
Z ero
Ġnot able
G a
Lem ma
Ġgrav ity
m ay
19 33
dep recated
ĠL ay
is a
Ġe lev
: @"
ĉ čĊ
al ert
me asure
H is
ĠDes cription
Ġh ol
Ġdynam ical
19 28
Ġelectron ic
ce st
ĠCh ris
op her
ĠM arg
Ġs ales
ĠPar se
Ġ Ø
Ch ain
Ġme ant
Ġm o
em et
C ard
E mit
Ġred shift
Ġ( ;
= .
plic a
Ġwin ners
Ġc ult
**************************************************************** ********
Ġconf lict
ĠRev olution
Ġinter ior
Ġb urn
a udio
Ġphot ograph
Ġtit les
anch or
Ġr ich
w ing
comm ons
ide os
th ere
19 29
Cons ider
Ġw idget
ID E
U C
Ġintrodu ction
TI ES
arr ing
Ġcan vas
eli hood
ĠA T
Ġsol o
Ġrecogn ition
Ġ< -
ĠM ike
ĠAir port
ĠA rea
ĠAnt on
NO DE
sub ject
Ġdepend encies
ĠH iggs
Ġv m
, '
Ġg ra
Ġgeneral ized
... ,
ĠGe V
FI X
ari os
Con sumer
ĠH ard
ĠUn it
Ġcr yst
ann a
qu es
script size
ik a
g rav
og onal
ĠC S
Ġrece iver
Ġpre t
Ġc ars
/ .
UN T
Ġadministr ative
enc oding
19 34
Ġst ats
om ents
ong s
Ġgo ogle
Ġl iber
ĠPe ak
ag ent
Ġadj acent
Ġel li
our se
s es
act ual
ĠEx pression
Ġprec isely
ĠWARRAN TIES
cl ine
Ġprote ction
ĠK enn
.. .</
Ġne ural
M ix
act ivity
b inary
plic ated
Ġmusic ians
Ġdro pped
K e
ĠEl izabeth
ik i
B order
est ic
ĠK ir
Ġofficial ly
le ts
ĠCamb ridge
rom ag
ĠCol l
Ġr ig
ĠDo uble
LE TE
com ple
) &
ord an
/ "
Col l
HER E
BOO L
ĠA k
h d
Ġqu asi
ĠW eek
Ġde ploy
Ġorient ation
Ġ' -
Ser ies
ades h
19 32
Ġcorre ction
Com put
Ġmerg ed
qu arters
R S
Ġl y
i per
ev in
ang a
ĠP os
19 10
Ġsup erv
cal endar
pt ic
Ġp sych
Ġsup plied
tool tip
St andard
Ġad min
ke ep
Ġres olved
g ather
ers et
F ollowing
our i
id ay
Ġc art
ever al
L i
Type Def
t p
L iteral
att ing
ĠS che
u ating
ĠN ations
IN ST
SCR IPT
Ġeval uated
Ġgener ating
Ġg lob
}} }\
cre ment
Ġfil led
pop up
Ġd st
Ġun able
bm atrix
EV ENT
en ess
Ġinsp ired
ĠRe port
os l
ĠBr idge
ut t
Ġcommand s
M aster
Ġpl ants
Ġlumin osity
Ġk ill
Ġassum ing
ĠS on
Ġtr uth
hed ral
Ġbreak ing
Ġjo urn
illis ec
Set ting
v ect
ond er
ĠDes pite
ĠC ub
Ġprior ity
och astic
13 0
ĠSt adium
Ġteach er
Ġvis ited
V ol
ĠPro t
ĠV en
aw n
Ġintegr ated
w orth
| }{
l ife
u on
uplic ate
ast y
IMP ORTED
Re act
ĠStud ies
= %
ĠO N
d ark
reg on
an ches
is er
us hed
oun ger
y ard
enn a
Ex port
are n
Ġpre ced
lo pe
f b
del ay
7 00
U ST
om atic
An aly
ĠPak istan
pro c
10 24
Ġ// !
F ix
Con tact
c amel
ĠMin nesota
ph ony
Ġr aces
Ġv otes
ĠA thlet
ef e
ĠL ive
ĠA D
is ot
ing ham
ra q
ĠWis consin
Ġpi eces
Ġscient ific
ĠAp plication
Ġp ipeline
eg o
Del ay
D er
alle st
M s
ĠT y
ĠE p
IM IT
Ġd ictionary
ĠReg iment
ĠK im
lic enses
ä »
ĠL ead
ĠSwed ish
ask a
in us
emet ery
Ġhand ling
get Instance
B ad
Ġs an
Ġsche duled
Ġhypot hesis
Ġlink ed
B lob
Ġun iversal
L ib
ĠSan ta
ĠC am
Ign ore
Ġfluct uations
Ġmat ched
MP L
ĠG er
S napshot
O C
iz ers
per ial
s pl
em an
P res
b us
: '
ĠE V
Ġlearn ed
ĠT ai
clud es
b log
Ġcitiz ens
Ġh align
Ġcharg es
Ġvac uum
C r
Ġ ,\
^* \
Ġpass es
tool bar
A nt
cal cul
(' <
Ġchall enge
Ġg rew
" ];
Ġhistor ic
CD ATA
Ġq q
i ations
Ġg overning
Ġsch olar
ext ensions
Ġgu ard
in variant
Ġclos ely
ĠL es
19 24
a ux
Ġspe ech
ĠCont ent
we ak
A E
ĠTown ship
F ixed
Ġcont rovers
= $
Ġinstit utions
B ucket
Ġt imestamp
Ġcompos er
Ġf etch
ĠC P
Con verter
We ight
Ġapproxim ate
Ġresult ed
Ġim plicit
ĠPhil adelphia
S witch
> ()
ur ches
Ġmag net
ig ate
se ason
Ġvari ance
ĠS C
up per
Ġphil osoph
ap l
ĠN ull
Ġad vert
Ġv anish
Ph aser
Ġt d
sur face
Ġlett ers
over view
ĠSur vey
Ġh ide
æ ľ
v arthe
Ġd ance
Ġc overs
ret ch
Ġent r
ĠOper ation
Ġal ter
Pl ace
BA SE
* ,
Ġp aid
trans action
W allet
est ing
ĠAL IGN
ip art
Sup ported
m f
pl ain
Ġsus p
Ġp le
weg ian
M ount
cri ptions
B uf
19 22
19 27
ar ity
ĠC ur
Ġt uple
Ġ* ,
19 31
Ġag ric
Over view
varthe ta
Exec utor
ĠMed al
se p
Ġr ural
Ġperform ances
rypt ed
F M
ĠAnd roid
Ġf aster
Ġm ountain
Ġrestrict ed
Ġm ill
^{ (\
Ġparticip ated
PH P
G erman
Ġc ub
A I
Ġgravit ational
in ion
}} =
in ction
BU FFER
ĠBe ach
B ased
Ġd ashed
agrang ian
Dec imal
\ }$,
S elf
Ġentire ly
igh th
ibr aries
F rench
X Y
ĠC orn
Ù Ħ
exp and
ĠDu ke
Ġbrief ly
get Id
ĠTrans port
O ld
con tainers
Ġco al
Ġstr ugg
ĠB uffer
y al
isl ative
local e
Ġinterpret ation
Ġhouse holds
& &\
Ġed it
append Child
Ġlead ership
ĠH ay
ĠL ore
Ġenc oded
Ġmunic ipal
L SP
Ġc riteria
M ac
Ġrepl acement
Ġear th
Ġthrow n
Ġat omic
ĠS N
Ġexpl o
Ġr ugby
Ġperturb ation
Ġpar ish
Ġhapp ens
Ġ' ''
Ġle s
M ost
ĠN E
p ages
IL ITY
Ġm arg
Ġm iles
Dep th
Ġequ als
in ject
er red
column width
Option al
ĠP DF
Ã¼ r
Ġtext ure
rem ote
ĠIn ternal
ĠT al
Ġim ply
Ġrough ly
ĠEn vironment
sl ant
Ġg ather
H older
$ }}
ĠB Y
Ġflow s
ĠF OR
Ġenc ounter
Sh ader
Trans ition
Ġ' #
math it
Label s
ipp ing
ĠC ore
getElement ById
ĠE u
Ġto kens
ĠF amily
Ġdefe at
er ior
sp acing
Ġch ampion
Ð ¿
ĠL ady
Ġpolic ies
. ',
sc opic
itor ies
um a
Ġterr itory
cl s
w ave
Ġhous ing
19 26
ĠPrem ier
Ġread s
inst ein
Ġim g
Mon th
ru les
fl ush
Ġveh icles
D MA
Ġph ases
Ġcr ime
En able
char acter
Ġp iano
AC H
Ġtable s
Ġeigen values
Ġcl imate
c urrency
Sup pose
k ish
Ġind ustrial
Ġsw im
Ã ¥
ch unk
v anced
Ġaspect s
ĠF ox
ĠAd ministr
Ġabs ence
Ġr anges
19 12
um ps
Ġext ent
ĠH un
N umer
Ġc ert
Ġa st
ul us
ĠB ishop
yg on
c ow
Ġf ashion
Ġcost s
ĠMed ical
Ġrec ip
Eff ect
Ġappear ing
out er
Ġb oy
ĠK el
S F
P G
Ġfrequ ently
Ġtarget s
Ġ' ./
u j
RE D
im inal
set Attribute
CO MM
Sec ret
C a
19 25
iz z
L D
Av ailable
In ner
ĠT ag
Vis ual
} |\
Ġconsec utive
Orig in
Ġre striction
ĠĠĠĠĠĠĠĠĠĠĠĠĠĠĠĠĠĠĠĠĠĠĠĠĠĠĠĠĠĠĠĠ ĠĠĠĠ
Ġextrem ely
ile vel
ĠR ights
Ġdr iving
19 21
St ar
d ag
p ad
annot ations
Ġend ing
Ġb ow
} ",
Ġ' _
ĠD or
ĠAn th
ell ite
.* ;
oc om
ĠD a
Ġofficial s
Ġdele ted
Ġsh op
ĠW at
C enter
n amed
ĠP a
Ġsup ers
ag en
ĠK al
d st
SO URCE
the less
o i
Bi ography
Ac cept
W ill
Ġessential ly
Ġrec over
ĠIn valid
ĠÐ ²
ĠG re
I Z
j d
P riority
ov ing
Ġs pring
ĠE ner
Ġc av
m iddle
Ġeffect ively
re ason
Ġs urn
inc ipal
ĠB ru
Look up
ĠL ow
PRO P
Ġcon clusion
Read y
Ġacc um
d am
ĠU til
Ġg ained
m ad
Ġcheck s
The me
Ġprofile s
Ġenc ode
Ġin vari
Ġcharacter istics
ĠW inter
ul ating
D ynamic
~ (\
Ġst rip
th rough
Ġbound aries
e ast
r id
ap ore
attal ion
0000 000
{ },
stack rel
ĠCon st
h ow
ĠL im
f ol
an alysis
10 2
ĠV i
example s
Ġd aily
ĠSer b
Ġpl anning
ĠSt eve
O lymp
log ging
ĠDe ep
File Name
pr iv
Ġfil ters
11 1
Ġreject ed
et al
Output Stream
G IN
Status Code
ĠT urn
contin ue
( ['
f ailed
Ġf ans
Ġprodu ces
Ġperiod ic
Ġab and
ĠDef inition
Ġfac ility
L T
back slash
ennes see
__ ,
Ġwait ing
pos ing
Ġtop ology
ĠSwed en
Ġsupport ing
Ġan om
I tal
Ġwav elength
ĠH art
Ġsex ual
ord on
Ġdet ector
Ġ rom
Ġd og
ĠOn ce
en ance
Ġcoup led
Ġat oms
T IM
Ġtest ed
ĠTr ust
ĠW ars
Ġest ate
Ġpublic ation
ĠR ad
Ġthan k
L ike
d n
Ġmain tain
she ll
ĠDo ug
ail ability
ynam ics
ca pt
Ġex cess
local host
Ø ±
LA Y
An other
Ġpolar ization
nt il
W omen
L icense
l u
ap os
Nav igation
kub ernetes
Ġacc ident
Ġ iron
St ub
Ġcol our
19 23
ens itive
ĠD ue
Ġwork er
Ġb illion
Ġhand s
Ġliter al
ĠH y
Ġsuc ceeded
q q
ĠJ oh
][ ]{
ound ed
Ġexponent ial
ph antom
D av
RE SS
ĠĠĠĠĠĠĠĠĠĠĠĠĠĠĠĠĠĠĠĠĠĠĠĠĠĠĠĠĠĠĠĠ ĠĠĠĠĠ
p ref
Ġal pha
Ġro ut
ĠIn ternet
ĠDav is
Cont ract
k top
ĠCoun try
ĠJ ob
Ġequival ence
Ġnecess arily
T AG
Ġneut ral
Ġinter pol
ĠF orest
Ġpro pose
A ctions
P ut
Com b
> $
ĠEngine ering
int on
re le
Ġe le
p ot
ĠB all
tikz picture
equ ations
Ġfeed back
ĠIndian a
Compar ison
Ġv ir
duc ible
LO AD
Ġpolit ics
ĠPy thon
Ġan chor
ĠRef erence
urre nce
ĠL com
EN TRY
Bl ack
Ġdescrib ing
o or
om ics
Tr igger
ç Ķ
' ].
Ġdire ctions
s z
ĠSund ay
(" #
qu al
n ail
å ®
numer us
ener ate
ĠS at
Ġap plies
list ener
================================ ================================
sl ide
numerus form
or er
inet ic
Ġdecre ase
Ġf an
ol i
ĠGold en
t imer
Ġcirc um
Ġ urban
iven ess
Array List
Ġcopy right
Ġsche dule
att ers
Ġsepar ation
Ġar ms
A wards
has OwnProperty
Ġcl in
ĠS quad
Ġcirc uit
ĠCh ange
ĠG reg
R ot
A zure
Ġch ance
á »
f all
ĠO t
ta ke
Ġext ensive
ĠM ir
Ġp in
Pack et
× ķ
Ġm ach
Ġdis patch
t imestamp
Ġc ycl
Ġprom pt
HO UT
d ensity
ĠPr ivate
Per iod
Ġphot o
e en
Ġtem ple
E Y
ĠN et
zon a
ĠD ebug
fe atures
Ġtown s
Ġind ent
Ġaut orest
Ġex ceed
SP ACE
Ġb udget
fig ures
H om
p aces
Ġpurch ased
T yp
Ġembedd ed
Ġs lice
Ġnov els
D irection
ear s
Ġrest aur
Ġvers us
c ue
K it
Ġal ert
it ely
Ġstat ements
Ġy ellow
1 12
Ġv ess
Ġ uri
Ġsc oring
ch ant
ig ade
Ġqual ified
ĠAl f
if ul
ĠCom ponent
Ġ" ${
condition s
he t
M F
p rom
{ |
Ġelect rons
off s
et ies
) ^\
Ġcol le
ĠH al
el le
Ġro ots
Ġt urb
ĠL ang
H ar
ph y
ic er
More over
Ġwindow s
ĠL abor
= }
ĠL eb
Ġre pository
=" $
ĠO regon
Ġseg ments
Ġanaly tic
Ġmov es
Ġh abit
ĠRun time
sh a
Ġdr am
mer ce
Comp ilation
T X
Ġopport unity
Mod ified
con duct
ĠD CHECK
atter y
multi row
ĠS end
ĠCast le
ĠB et
Ġf older
l iving
oc aml
Ġis ot
Ġauthor ity
fr ag
not ag
Ġgo og
1 15
ĠT erm
Mark er
ĠU RI
Ġqu eries
n ership
Ġtit led
Re ason
J an
ĠC zech
Ġhold ing
M achine
Ġge ometric
Ġag ree
Serial ization
Ġth in
pr ite
Ġph one
ic ian
ĠOther wise
pr agma
br idge
m ime
&= &\
V C
D one
Scal ar
ĠN AV
Ġdem and
Lower Case
Ġc lip
Ġc ook
Ġmedal ists
Ġexplan ation
md c
get Type
Ġst ores
S epar
ĠG allery
ĠGu ide
ropol itan
ĠB ooks
ĠInst ead
EX PORT
ĠN az
Ġt er
: =\
ĠMod ule
Ġredu ces
B bb
Ġcontinu um
Work er
AR RAY
Ġvari ant
Ġdom inant
Ġmolec ular
U nd
ĠS af
ver ted
Ġvari ations
Ġproport ional
RE CT
Ġconj ug
rest ling
ĠS ab
f riend
Ġsens itive
ĠB efore
Ġro utes
Ch unk
Ġg oto
th ick
Ġcoll apse
ĠD C
Ġabsor ption
form ing
Ġcont emporary
ĠD am
EN V
ersist ence
Local e
li ance
ĠA C
Ġcomp iler
og y
Olymp ic
ĠM un
Ġv ice
trans port
Ġshe et
ĠV irtual
ec ycle
sub sec
ĠT ro
l arg
Ġf ell
ad oc
ĠPr int
Own er
mat ches
order ed
ÃŃ a
v ance
Ġqu ot
Cont in
com par
Ġfem ales
ĠE P
Ġcommit tee
Ġ _{\
ER S
Ġa ware
Newton soft
C ent
Ġcover ing
) }.
19 16
ac er
Ġ" >
Ġd yn
19 15
Ġrank ed
err ing
Ġfrequ encies
Ġn a
Ġdisc rim
late st
ii i
ixt ures
S N
Ġp lease
ist a
Ġl osing
Ge V
UM M
Ġe ase
ĠLog ger
Ġcharacter ized
Ġcoll ision
Ġst one
Ġcomple ment
ĠM O
ĠO P
Ġg lass
Ġtrans itions
Ġcont est
ĠBar on
d on
CRE ATE
ĠMar ia
k ernel
ĠT ree
ĠStep hen
umb nail
Ġun ivers
Ġengine er
Pop ulated
M issing
Ġfe et
nav igation
Ġneutr ino
Ġap ilevel
TR AN
Function s
Ali as
Ġpol l
ĠCons ider
Ġop posed
C SS
ĠL ev
\% $
go od
ĠC ond
ĠSt ock
Ġdef end
ĠTur key
ĠJ son
L R
ĠP olicy
Ġhel per
\! \
k ov
m ers
ĠSer ial
L ife
UE ST
Ġcompl iance
Ġb ug
Ġbr and
ĠAtl antic
Ġ( `
ĠG h
Com mit
ĠE ll
å Ĳ
Ġun iverse
W eek
ĉĉĉĉ ĉĉĉĉĉĉ
Valid ate
H AND
ĠG ree
N d
part icle
ĠHigh way
Ġdom inated
Hash Map
decl are
Ġm orning
Ġsk y
14 0
is o
Ġp apers
Ġfound er
p aper
uff ix
Depend ency
... )
ĠL ike
. \\
ĠS VG
ĠChrist mas
Draw ing
ĠInd ones
. $$
Ġup load
label s
Ph one
F P
ancell ationToken
Ġsuff ered
b etween
| $
ĠL icensed
Ġs pons
C ity
Ġfac ulty
west ern
ĠS to
plement ed
Ġw rapper
ĠT er
fore ach
( ()
ĠN Y
atur ally
Ð ·
ĠV o
10 5
cor ollary
L IN
if ference
l oss
u h
ĠM ilitary
ly wood
ĠE very
Ġf ul
Ġenvironment al
parent Node
Ġc row
ĠPhilipp ines
Aut hentication
Ġst ands
Ġdocument ary
Ġlook s
Ġaud ience
Ġs yntax
Ġdevelop ing
B reak
J apan
Ġin vent
ĠH an
Ġtem porary
ust on
Ġ Ñģ
Ġnot ion
ĠP HP
) *
Ġ$\ {\
C odec
ah oma
] ->
Ġf resh
ib ling
æ ĸ
viron ments
Ġpart ially
cd n
Ġs ust
Ġy ounger
ĠCol umn
Ġsomew hat
Ġpe er
ativ istic
Ġdefault s
ĠI raq
l int
( -\
F ac
Ġrepl acing
n m
Ġg overnor
ĠSup pose
Ġalgebra ic
ĠM ountain
ĠMex ican
b ell
Ġb omb
S PE
ĠS av
× Ļ
Ġ ray
v ard
Ġsur faces
Ġref lection
Ġadapt ed
Un ique
D ITION
MA SK
h ot
con current
Ġstrict ly
ĠK ansas
Can adian
F eed
ĠN ever
ĠGr ant
Ġpar liament
ver ify
Ġes cap
at ched
Ġinj ury
ĠAr thur
ĠNor way
ĠMiss ouri
Ġc ab
ĠB ox
ĠP erson
fr ames
Ġse ats
Ġ} ).
Ä ĥ
Ġconf idence
ident ity
is or
ĠB or
ject ure
and y
The y
ĠAdd ress
ĠEner gy
.... ....
o es
ce il
Ï Ħ
ĠP ier
ĠM AX
Ġrem ember
rt l
N or
Ġcr ick
olv ing
Ġb ill
st age
ĠCon stant
Match er
Ġcross ing
p romise
Ġm igr
ang les
ĠB an
ĠA M
Ġdef ense
ĠM oh
ĠS ymbol
Ġw ins
Ġimmedi ate
ĠT ennessee
ĠV ideo
Ġrecomm end
get Message
gener ator
Ġst ochastic
U V
R ail
Ġm el
ĠS yntax
Ġper haps
Ġto t
== =
Ġgu ide
C annot
TER N
ane ous
} >
ov en
am ond
IN VALID
periment al
B ro
Ge ometry
Sup er
ĠD ictionary
d elegate
Ġst ages
| ^{
ri ent
ĠC are
Ġcl s
ast ers
Ġsup pose
Ġs event
Ġc as
ok es
ant e
text ure
ĠStr uct
ĠA h
ï¼ Į
g p
D id
Ġs pl
Ġcon vers
Ġat om
ĠMc C
Ex ist
Ġ} ),
ĠMary land
ĠFour ier
ship s
h fill
ren a
a ired
Ġrespect ive
$ '
Met ric
Dis k
Ch anges
Ġe c
ra it
Ġmet all
ost er
Ġdemonstr ate
ec lipse
ĠFace book
erm i
B ibliography
Â °
ĠF oreign
om ot
ĠV ar
Pre v
Ġar ts
Ġpaint ing
ĠN orm
Ġb odies
atur day
ĠColor ado
b t
CO M
Ġsl ot
ab i
Set s
ch anges
ĠBuild er
Ġob server
ow ski
get Attribute
O FF
th ree
Ġb ucket
Ġre ality
Or gan
Path s
Ġp uls
ist ant
$. }
ĠLew is
ĠE RR
Ġex erc
en z
19 13
pre pare
A K
å ħ
look up
Ġw rap
Cal endar
ĠS ound
get String
Ġexpect ation
Ġs phere
Ġd ates
sw arm
Ġplace holder
t uple
ĠM unic
Log in
Ġanim als
L at
ĠCapt ain
D etail
ĠP layer
get Class
Ġdistrict s
Ġtrans verse
Ġvis ibility
f ac
ĠP it
AR G
Ġ( ),
Line ar
Ġdef ining
ĠPro p
Ġmod al
Run ning
Ġcons ult
ati os
ĉ ĠĠĠĠĠĠĠĠĠ
Ġarr ang
at ile
ph rase
ĠN iger
ens is
Ġsc oped
Ġattempt ed
Ġst orm
Ġgu est
Ġport ray
Ġd ensities
Ġtr unc
Ġleg end
) (\
Ġb uy
ĠT err
ĠLe on
Ġw ish
P ubl
Ġret ire
em pl
Ġsimilar ly
ĠR oss
Fil m
Ġdep os
ĠĠĠĠĠĠĠĠĠĠĠĠĠĠĠĠĠĠĠĠĠĠĠĠĠĠĠĠĠĠĠĠ ĠĠĠĠĠĠ
ĠAg ain
to LowerCase
seg ment
at ivity
Ġ\ ,\
ac on
ig ator
Ġw arn
Ġclos ure
il ine
Sports people
rupt ed
Ġauthor ities
scal a
Ġw alls
Ġint ent
det erm
% .
ĠW IDTH
F ake
ĠMem orial
Pr imary
part ition
enc ing
Ġdr ug
b ucket
Ġadv oc
Ġ' ,
ues e
Ġdi pl
is en
Ġvary ing
Ġh orse
ĠE th
ĠT a
ĠK EY
o is
ĠWIT HOUT
M ust
Ġoutput s
w ick
I p
ĠF und
Sec onds
Ġtw enty
met ric
ĠS ym
ong o
ĠT ABLE
] =
3 60
Ġin clusion
Dep recated
t re
h ang
out s
ĠNAV BAR
ĠCol on
19 11
P resent
we alth
dec ode
ĠR ose
S an
ĠB os
sc ore
W illiam
Ġdesign ated
ĠAd am
g iven
^* (
ĠM C
ĠRepresent atives
ĠAb out
or ney
Ġn arr
Ġcollection s
Ġ# {
not ify
Ġca using
ĠP ut
ĠW ho
Ġinvolv es
Ġfa ith
I ME
ic ates
$ ^{
( []
ĠBr ad
Ġab ort
Ġprodu cing
ĠI gn
Ġoper ate
trans late
produ ction
\ |\
Ġsc ores
Ġsche mes
Ġle af
un iform
Ġg ar
ĠW hether
Ġy ards
Ġin herit
G raphics
cor respond
ru ption
Ġextract ed
Ù Ĩ
Ġlo an
romag netic
ĠIt em
ĠAct ive
T ile
Pro b
$\ ,
Ġc old
fr agment
ĠJ unior
link s
Ġfit ting
Ġs un
Ġb old
Ġt imer
Ġte aching
Ġcamp us
$ ^
N orth
De ath
M ajor
// !
Ge ography
B D
up dated
Ġenh ance
ĠM ill
pro pto
Conn ector
n l
arch ive
1 16
Ġdist ances
Ġdemonstr ated
Ġjournal ist
? "
g ray
Ġoccup ied
Ġcount s
D ATE
ĠM it
Col lect
ĠBase ball
5 12
s r
Ġwe ather
ĠA re
eng ers
Ġman ip
Ġver b
Ġimprov ement
ĠE ss
ĠM L
u ent
iv als
Ġep och
is Array
cre ens
Ġprec ise
C UR
it i
ĠS us
ĠG ib
N ONE
he im
Ġf ib
spe ed
rib uted
ãĢ Ĥ
Ġform ul
ĠUs ed
text up
ĠH op
Ġbenef it
P ower
ex cept
Des ign
LE MENT
! "
Ġocc asion
Ġm oments
ĠS W
wit zer
ĠA mb
Ġh alo
ĠFr ont
Ġta ught
Ġc le
un ks
Ġaff ili
A lex
task s
Ġdec ades
Ġprot otype
ambig uation
Ġcirc ular
n ob
Ġcon tribute
ĠP lease
H D
Ġjob s
ĠL ind
De ep
p ers
ĠAut o
Ġa ux
un ities
Ġfight ing
Form atter
ĠP ers
ĠAnd erson
s ure
dr ag
ra ctions
ĠF ederation
Ġt ick
un known
ĠSk y
ĠM as
ME M
Spec ial
Constraint s
Ġt ang
ĠTr ump
j ack
Sche me
d jango
K ernel
19 08
f older
al ty
andid ate
AT URE
sh arp
Ġconserv ation
Ġult imately
D at
Ġm and
ac ew
h istory
od o
f ilters
Ġregard ed
down arrow
cknowled g
Ġpract ical
cept or
oth s
fact or
Ch rist
Ġn ob
G ui
Ġquadr atic
Error Code
Ġcho ices
Ġbur ied
Ġobserv able
Ġconcent ration
Ġstraight forward
ĠW ell
S ide
Ġorbit al
Tra its
ref resh
Ġrecomm ended
Ġillustr ated
Ġrequire ment
Ġold est
sp i
****** /
Ġ" [
Oper ations
Ġneut ron
Ġecon omy
IN IT
c ached
Ġall Classes
Ġlook up
Ġw itness
Ġneigh bour
ĠC hen
ĠF ellow
L ines
Ġc arri
Ġsec ure
Ġsort ed
Load ing
mult line
ind ices
Ġdisc overy
amazon aws
Ġnom inated
witzer land
ĠS SL
id al
ro uter
ver age
Ġstop ped
/ ">
Ġchart s
ri k
v i
Ġarg ued
ĠL td
Ġ ing
iss ip
ĠJew s
Ġn ested
F ace
Ġuniform ly
var rho
C N
f ef
ĠR ange
(" \
ich ol
{ (\
es ides
ĠB u
end point
Cre ated
Ġconsum er
BU ILD
ĠF ull
wild fly
â Ķ
ĠC A
r pc
l b
! ]
des criptor
. ")
PRO C
ĠB udd
Ġbe at
_{ +
Ġv ideos
Ġ! !
ĠK han
Ġcar bon
ĠB at
press ions
g ar
ĠM atch
U Int
Ġa head
Ġdo ctor
Ġind ependence
AA AA
re po
ĠallClasses Link
T ensor
< >();
}{ *
Å «
}) ^{
in ating
Ġsh adow
Ġhe ard
t age
Ġtransl ated
r ides
dis k
Al so
inc ial
Ġsimultane ously
C irc
Ġneg ot
ĠT ry
G EN
ĠB E
Ġmark er
AP P
Ġle ct
ĠWh it
er al
ĠM iller
": "
attr s
Ġop position
st an
Ġf ired
ĠK IND
Ġf old
ĠD M
Ġm s
col n
Ġprefer red
ĠAp ple
mut ex
est ure
Ġarray s
AS C
Ġhom ogeneous
Ġpubl ish
Ġaccount s
Ġarrest ed
Ġto wer
b undle
Ġvill ages
Ġinteg ers
Ġh all
Ġtra ins
ĠP ur
T ry
Ġst arring
Ġ Ä
ĠCon sole
ĠFre der
Form s
ĠSing apore
CH AN
Ġpseud o
oci ated
H er
O ct
20 23
ĠS ize
ĠEnter tainment
et ing
sample s
Ðµ ÑĢ
With out
Ġferm ion
ph oton
ĠTh rough
Mon itor
ang el
r uct
Ġsee k
%%%% %%%%
Ġdev iation
w ich
ĠSt ory
Ġassign ment
Ġjud ge
[ ]{
Î ¹
-------- --
Ġsc r
F etch
_ [
Pe er
Ġliqu id
ĠS P
ss ue
Ġs ail
B ACK
g z
D ele
Ġterm inal
M al
ĠF ALSE
19 2
Ġs i
ĠC ost
Ġuncertaint ies
Ġpan els
Ġfund ing
st e
ĉĉĉĉ Ċ
Ġh ook
Ġent ang
ĠL java
Bit map
Ġretriev e
ĠG R
sub string
Ġso le
ĠH om
C ulture
ĠC op
Ġappro ved
Ġ$ ^{
Ġweight ed
ĠPhil ip
Ġtr im
Wh ere
Ġorder ing
h alf
as is
K S
Ġeduc ated
Ġuser name
RE T
Ġclos er
t b
ill ery
re ll
Ġsql ite
} /\
ĠS R
Control s
ĠĠĠĠĠĠĠĠĠĠĠĠĠĠĠĠ ĠĠĠĠĊ
Comp are
Ġbas eline
re pository
Ġap pre
ust ic
Ġt ight
Ġim pl
Ġch airman
P ending
att ach
Ġpain ter
c mp
)} (\
Ġdomain s
r ink
ab a
Ġorth ogonal
ĠUk raine
C ertificate
b uilt
date picker
P ersistent
ĠL I
d ays
ĠAmer icans
Serv let
Ġca ref
$- $
os es
text sf
Ã ł
path s
b oth
Austral ian
D im
Ġprep ared
foot notes
Ġattr s
Ġp ot
= &
Ġsystem atic
Be en
un ion
itect ure
Ġ( ,
Y Y
Ġpe ace
ĠMel bourne
ĠR ender
Ġpolynomial s
Ġun iqu
view port
ph an
Ġne arest
DE D
Ġprom ote
Qu ant
ĠMos cow
Ġdr iven
ĠF ilter
Å ¾
per ature
Ð° ÑĤ
ter rit
as ma
) '
Ġthe atre
op acity
Ġconst expr
Ġexpl ore
ĠD ark
pect ed
mark s
Ġconfigure d
ĠMod ern
Ġs napshot
Ġclass ified
ĠSim ilarly
ĠMal ays
Ġscen arios
n ie
ĠEn able
ap el
Ġb ronze
ĠJ os
Key word
B us
Ġtempor al
z y
Ġtrans mit
Ġre vers
Ġdiagram s
h al
ut ies
ir th
Model s
Ġmanag ers
app ings
Ġ. =
File Path
ret val
H ook
Ġst ead
Ġr acing
Ġexper i
H on
Ġsem antic
Ġco aches
Ġunderst ood
F ill
du cer
Ġs ell
ĠD est
Ġdiag nost
Ex it
ĠH or
Ġpl ate
UR N
Ġcor relations
uth er
ere q
df s
S G
Ġ ig
ĠG raph
ub er
Ġfund s
10 4
__ .
P ush
ĠK a
Ġcapt ain
L ang
ĠÐ ½
Ġstandard s
Ġderiv atives
AS H
default s
el ian
Ġex pr
ĠAff airs
* >(
Ġdecre ases
od ge
x f
head ing
Ġ utils
ĠHol y
="../../../../../../ ../
Ġh ers
ĠL agrangian
Ġm ales
el ve
Ġne ither
Ġrecon struction
Exec ute
ur r
Ġh op
refer red
Ġad vis
Ġw a
Ġ(! (
p d
oun ce
ĠAri zona
Ġ\ [
ĠA st
Ġinit i
Ġw ants
Ġres idual
Ġsix th
Ġdr ink
ĠChild ren
ach er
V O
He alth
ol is
Ġform ulation
ĠArg ument
ma k
Ġperiod s
over flow
Ġmanif est
Ġposs ess
M c
on i
UMM ARY
] *
un ately
ĠF act
clud ing
T ri
ĠC HE
Ġprem ier
Ġprocess ed
met rics
Ġdr ums
j b
66 66
Block ly
ĠB ah
sche me
M en
ites pace
g if
ĠIllegal ArgumentException
g s
Ġh or
if old
spect or
xx xx
G O
int o
ĠMon te
c assandra
ĠJ ordan
ĠC y
Ġhost s
R ob
ge ometry
SU C
redu ce
1 18
Ġalign ment
f our
Ġf estival
Ġext reme
Ġv ent
define Property
ate ur
b one
Ġmain tained
Ġb ra
bel ow
Ġrun ner
ĠK itt
Ġh al
Ġen semble
ĠC F
Object Meta
ĠViet nam
18 90
Con version
Down load
ĠR ight
Ġacc ret
Ġsent ence
Ġfav our
Am ount
Pro f
ĠSh ould
Comple tion
C LA
run ner
Test ing
Mer ge
ĠB asic
z oom
ĠTR UE
PRO JECT
ick y
A VE
i able
ili ary
add ed
Set up
ĠSim on
List eners
us cript
C tx
ĠDate Time
Ġwhen ever
Class Name
Fr ames
g raphics
Ġdepend ency
im edia
Ġmin ute
Ġb rain
ĠVAL IGN
Ġinv oked
P ipeline
ĠAust ria
M utable
Dest roy
] ).
ab ama
or row
G ateway
ĠI owa
ĠM IT
Ġem pir
N eed
ren ce
A MP
SH A
Ġc yl
ĠM and
Ġsc an
oc a
Ġdo or
ĠĠĠĠĠĠĠĠĠĠĠĠĠĠĠĠĠĠĠĠĠĠĠĠĠĠĠĠĠĠĠĠ ĠĠĠĠĠĠĠĠ
ĠC ab
ak ed
Sup press
SS AGE
Ph il
ĠKent ucky
//////////////////////////////// ////////////////////////////////
' _{
Ġro yal
____ ____
)-- (
UB LIC
Ġis instance
Ã© t
mem bers
B ER
Ġpers pective
territ ory
Ġbel ief
l ot
ĠF uture
M ut
Û Į
IN DEX
Ġcontribut ed
sl ider
& =\
p k
pos ure
Nd Ex
pay load
s ame
Î µ
ĠB rian
Ġcon vention
ĠAl bert
Ġprote in
ĠAt tribute
Ġan notation
Ġcondition al
ic ut
ST ART
b le
Ġex cell
10 3
ug ment
ĠSt ore
Ġs leep
ĠBuild ing
ĠT ony
Ġtri angle
Ġsol ving
"> (
Ġcli ents
nol imits
Ġd anger
Ġown ership
S y
ref lect
Î ½
ĠA z
19 05
P ane
Att empt
Track er
n ight
Ġre aching
Ġpercent age
Ġcon crete
Ġdisp ersion
Ġk ick
Ġreason able
ĠD eb
footnotes ize
P ixel
ĠF ac
dist ribution
Ġ" _
Gr ad
Ġtri es
aw are
ĠHar ry
Ġlocal e
ĠB urn
}^{ +
r ig
iv a
ĠE ric
Ġm ac
Ġformer ly
MA GE
Ġident ification
ĠN othing
ĠRet ri
Un iform
Load ed
kl ahoma
olv es
iem ann
C ut
V ec
ð Ł
ĠEar l
Ġview ed
Ġ" )
Ġpoint ed
ä º
ext ends
Ġco q
v t
Dist ribution
Ġr c
fef efe
ĠTh ird
. ');
ĠAm ong
Ġperman ent
l on
Ġprom otion
ĠI F
sh are
Trans fer
ĠT ool
Ġsens itivity
ĠL ock
Ġrot ate
bin om
ĠT EST
Ġdiff usion
Re place
ĠR eb
Ġm ist
C V
illisec onds
Ġe ye
Ġrepe at
ĠSta ff
ĠAr k
Dec oder
ile y
oc ese
Ġm al
Ġpre pare
l ad
Ġh air
c ers
WA RE
int ro
G A
Ġcrit ics
bound ed
c n
at om
dis ambiguation
Link ed
In struction
. (
Ġl ens
Ġtra v
Ġsp arse
99 99
all enge
ok en
T ick
N eg
c odec
r atio
P aint
| _
Ġirre ducible
P lease
D ot
Ġbo ught
ĠMag azine
Ġcomp ression
st ud
v ia
aint enance
Ġscen es
Ġtransform ations
T M
Ġisol ated
sd k
FA IL
ĠF ord
ĠSt one
Ġn aturally
". /
S rc
Ġh orizon
Ġ[ {
l ined
ent ries
19 09
Data Type
iv ia
ard o
ag u
up arrow
et c
ĠF A
Ġ( #
Ġs lope
Ġcommand er
arg v
F it
Copy right
ure au
ug u
FORM AT
Tele vision
az e
refer ences
Character Offset
Ġ" #
Ġsub space
Ġf i
Ġm it
ĠS in
ĠM ust
Ġstrateg ies
Ġa id
Prot otype
ĠInitial ize
Ġresist ance
ym n
ĠM A
Ġinvestig ated
Int eg
Ġf uel
Ġbr anches
ol o
Ġqu as
E urope
se cret
Ġ{ %
ĠS ri
ĠB h
ind ependent
Ġanim ated
render er
Ġin str
ĠJ ane
ĠD un
Ġpotential ly
Ġh its
ĠGr id
es cape
Dist ance
24 0
Ġw arm
Ġinterpre ted
ĠCHE CK
Ġch ose
p n
Ġthan ks
h our
ur is
ĠO ak
Ġcap able
W H
Ġm m
G LE
ĠO cean
uer to
Ġg irls
Ġadd s
Ġconvent ional
az ure
Ret ry
Ġc y
log o
des cribe
T y
Ġm ail
in x
script scriptstyle
Ġlog arith
op ens
P al
' },
res pect
ag ues
vel ope
Ġreg istry
multi ple
50 9
ubl in
dis c
ĠGree ce
in ite
ĠQueens land
t m
bum s
am an
19 06
um ption
Ġkeep ing
n an
st ub
b es
with out
×ķ ×
d m
ĠR oy
Ġform ally
Ġb ond
reg istry
w ig
Ġh oles
Ġd ip
Enc oded
dat etime
Ġcomb at
Al gorithm
ug ar
^+ $
Sur face
Ġ( %
R UN
ĠL ook
Ġap art
am ount
Ref lection
Ġdis appe
Ġhand led
Ġpil ot
ov ation
add EventListener
Ġn ortheast
ov ak
Ġf iber
Ġtrad ition
ĠH ilbert
Ġre normal
Ġm esh
Ġdiam eter
ĠC ulture
ash i
ĠF urther
Ġw inter
Ġvol umes
Ġconv olution
Ġch apter
Ġpropos al
s qu
start s
Ġf its
s ass
ĠNS String
ĠOrig inal
T ex
Ġsett led
ĠS witzerland
Ġstudy ing
Ġphot ons
ĠB AS
D a
Ġh uge
Ġheav ily
rain ian
ĠF ame
N EL
ĠHe art
Ġtrans actions
ä ½
Ġb low
Ġred irect
in istic
PAR AM
19 07
Ġrec ru
Ġmod er
process or
] ^
sc an
ĠComm unic
ĠEx press
Ġrespons es
ĠB ull
ene z
Ġreson ance
a que
Ġaccret ion
Ġgener ators
S afe
g ers
Ġsit uated
In line
ĠH ans
ĠSquad ron
ĠC ru
Ġd y
ĠB alt
ĠSh er
] ),
mark er
I l
Ġhard ware
s is
ab stract
ap ple
Pro c
En tries
ĠNor wegian
Top ic
ĠU V
Ġwrit es
Ġpop ulations
CO UNT
ib ilities
Ġemploy ees
ĠC ape
__ ["
L ONG
ul o
Ġs in
lin ux
sp ark
Ġref used
ad apter
Ġhers elf
sect s
E ast
Ġsuc ceed
Ġ& #
ĠN ap
Ġch iral
M o
ĠC er
ĠNew ton
Ġpro test
ivers ary
Ġth ir
ĉ ĠĠĠĠĠĠĠĠĠĠĠĠ
ĠTem ple
Ġinitial ized
igr ants
oc or
Ġrelationship s
Ġcommit ted
S lice
ĠK y
-------------------------------- ----------------
Ġg ate
}. }
Ġp ed
ĠM atrix
C trl
OR K
Ġmod ification
Ġm yst
inem a
ĠAdd itionally
Ġpret ty
ĠC C
ĠCl ark
Ġmodel ing
Mod ifier
Ġ ~\
Ġhel ps
cl ock
d in
id ges
=\ {
b ors
Ġgener ates
Ġincor rect
W rap
ĠC ache
Tem p
Ġfall s
if ts
ic ians
ĠL ar
Ġsm allest
Ġnot ification
ĠTele vision
hel lo
Ġcomp iled
Ġwe alth
V EL
Ġconcern s
{ })
cript ors
C art
ĠĠĠĠĠĠĠĠ ĠĠĊ
ĠMan chester
gener ic
Cred entials
Ġpro ton
Th rough
ĠO tt
li bs
var s
acew atch
\ ":
Ġpers ons
V P
ĠCor ollary
ight arrow
l m
work s
set ting
Ġf ee
P rom
ĠF a
in vert
Ġinterval s
b urn
Big l
ĠT YPE
Ġs ud
pack et
Ġrest ore
Ġlist eners
el ines
Dis abled
c ity
inc or
Ġcred it
x ff
mar shal
te am
ĠK at
D ash
ĠS UMMARY
U int
Ġshort ly
remove Class
ĠParamet ers
à ¥
ĠCh ile
b ug
Ġmorph ism
Ġreg ression
A ff
LO B
Ġpres ents
st roke
Ðµ ÑĤ
}^ +
ĠPl ace
ĠTok yo
opt im
ĠValid ate
S heet
L ive
ĠH erm
br ane
in th
Ġcompar ing
Pre vious
Ġrecon struct
Big g
Ġl l
ag an
Ġcru cial
St age
S eg
ĠEm peror
Ġhot el
ict ed
L C
te ction
Fact or
N ON
it ter
T ube
Ġc ertificate
c op
Ġeas ier
over ride
Ġfun ctor
Ġmay or
Ġdistingu ish
ĠS ite
] ['
ĠN ick
T og
ĠL abel
iv idual
Pro position
ro it
ĠCom b
Ġm art
ĠSp acewatch
V ill
Ġconnect ing
B LOCK
olog ists
ĠD ream
Ġk il
Ġa w
In to
ĠB lo
ĠD atabase
ap y
ĠP ay
new line
est im
O W
G M
Ġang les
Ġcomp ile
Ġdeterm ines
Ġa ria
ar o
() [
el led
Ġsubstant ial
Ġcoup lings
FUN CTION
ĠF all
Ġr atios
Ġp un
lock ed
iagnost ic
the ad
Ù ħ
Ġout line
Ġs ons
Ext ra
P adding
c od
Pop up
em ony
Rece ived
arg o
run ning
ant asy
l ive
Ġto String
Ġhapp ened
Ġin herited
Ġevery one
Ġperform s
Ġbro thers
Ġhouse hold
Ġman age
cc c
Ġsk ills
t witter
Ã ´
Ġb log
os is
Ġstrong er
Ġconven ient
') ->
sp aces
en o
is ons
Ġd ry
ĠT witter
Ġbro ke
z o
ĠDef ine
Rel ative
Ġplatform s
j or
Ġan imal
Ġrapid ly
Ġp ub
ĠLin coln
Ġt s
Ġcor por
to Equal
glyph icon
19 04
Multi ple
iv ari
Ġfit ted
Ġadd r
Ġparticip ants
ĠPro file
Ġhead quarters
ĠClass es
d ers
Ġdesc end
S ender
c ycle
ial s
ĠMar c
Ġro of
Ġcon formal
serv let
ĠR ule
un ist
ĠP ot
Ġsim ulated
d ereq
Access or
ĠCon tainer
å ¤
Ġsup posed
ĠLem mon
Ġv irt
Ġk illing
ĠAl gorithm
Ġindependent ly
Ġsol ved
Ġalleg ed
is is
el son
tr ightarrow
ĠV olume
Ġpart nership
z ier
F oo
ĠS ix
Ġrec overy
ĠN FL
Ġpro position
cl ide
Ġincorpor ated
Big r
ops is
Ġd ies
Z end
*} [
Ġprogram me
}{ {\
Ġ' ')
Å Ł
trans l
Ġaut hentication
LA B
And roid
W ARN
ik h
; |
Up per
initial ize
ĠCon struct
ĠS quare
Ġs ac
Sh ift
Ġly rics
R M
ann y
ĠL iter
Ġloss es
R adio
Ġdom estic
Ġr hs
ĠTur kish
ĠHow ard
Ġdisc over
od s
F at
ab ad
ant on
( --
sh op
Ġor bits
Ġdr ivers
ĠAll en
od ox
ĠX ml
trans fer
BY TE
N P
Ġsubject s
Ġcollabor ation
}) (
O cc
im p
Ġin duct
r as
in cess
ĠN ev
ĠBill board
Ġrema inder
æ ķ
Ġcompar able
ic ht
ĠLab our
C ookie
ur ance
f uture
Comple ted
value Of
Ġc ss
D TD
ect ure
Write Line
Ġcancell ationToken
Ġ/** <
b est
ĠA ud
M AC
Struct ure
ab ove
it udes
Not able
Ġrandom ly
igg ers
S cheduler
ache lor
appro xim
Ind ian
ĠFor ces
not ification
Ġm ob
Ġe yes
Ġequ ipped
ĠL ear
Subs cription
Ġviol ence
r and
App ly
\, {\
Ġhum ans
Ġex pert
or ate
Ġdiscuss ions
cor rect
Ġcont roll
? (
Ġg ene
Ġform ing
Ġiter ations
Ġg it
' +
pe g
Ġprint f
ĠCont in
Ġdr um
C lean
Ġth er
Ġspec ifies
Ġin form
Ġcomm ut
J ust
Ġhe x
sub str
ynchron ous
Ġcom plicated
ograph ical
k ar
Ġanaly ze
Ġcon cluded
G reen
For ward
U K
ĠP C
ĠAl abama
erial ize
_{ -\
ĠT ab
Ġb rown
ĠJ am
ĠF er
ta h
Ġ' $
ĠQ CD
Ġattack ed
Ġexhib it
Ab out
E p
ĠS aturday
Ġg reatest
B orn
und les
Ġdis establ
ĠF M
ant ics
es is
Ġsim plicity
text color
force ment
Ġincre ment
SS ION
Sche dule
Ġf ly
$\ \
Hel lo
, ...,
Ġen emy
ĠIn n
Ġstruct ural
Ġs ed
Ġst abil
P ref
inter pret
ĠWal ter
ĠDi ego
ĠT en
Ġaccomp an
9 00
AB ILITY
Ġre form
String Builder
Sc ene
Ġaccess ible
Sc an
CL K
Ġsepar ately
S printf
Ġ\ }
Ġa ired
R ich
Ġpres erve
As set
n ik
ĠS el
Ġexpl os
ĠDis c
Ð¾Ð »
Ã «
Ġhistor ian
}$ \
as hes
ĠF le
ĠUn less
ĠA ge
ang ers
Ġcosm ological
ĠReg ional
F ootball
R ound
gr pc
project s
Ġi i
process ing
ac ht
File System
P an
1 32
;\ ;
REQ UEST
For ce
Ġb ary
ĠSil ver
Su ite
clide an
Ġconsist ed
Ġstri ke
E ducation
Ġsurn ame
st ers
ĠEq s
s olid
ĠA P
kee per
ĠHash Map
Ġre try
Al pha
/ ******/
d ating
Reg istration
Ġback ing
az a
ol ars
Ġjo ining
ĠN ag
Ġtrack ing
sign al
Ġca ught
igg est
10 7
Ġexhib ition
Ġm ent
comp act
Ġt ile
Ġrender ed
Ġunit ary
issip pi
Ġp it
> `
Ġent itled
Ġinflu enced
Ġdraw ing
ĠM att
ĠCon stitution
ffff ff
Ġweap ons
S eq
b ench
s ent
Ġcheck ing
omorph isms
cp u
ĠCO VID
Ġpr imitive
De ployment
ĠPro b
Ġsimilar ity
PI O
iev al
Per cent
\ }.
/ )
ol ished
P ress
Ġ-- ></
Ġst roke
ig e
ĠD al
St yles
Ġad vent
S core
ĠBr un
Ġmay be
el lo
ch arts
c ill
\ },
includ es
ĠP as
ĠMe an
ĠAl low
Ġsing ers
19 01
z i
Ġent ities
è ¯
ĠM oon
ĠD A
B T
Ġord inary
R adius
Ġmembers hip
H ave
ext ract
Block s
fol io
) }$.
ĠĠĠĠĠ Ċ
Com plex
ĠL ank
ens ors
Ġrece ives
ĠBul g
ĠJ ay
Ġelement ary
RO OT
B F
100 00
. (\
t bl
Ġcr ash
IC ATION
ĠE uro
Ġassoci ate
t ele
pos able
{ .
b ow
Ġs ender
ĠG all
Ġc fg
om m
Tool s
Ġad vers
Ġover lap
j k
Ġexception s
Ġremov ing
igen ous
c py
) _{\
Ġb ars
qu est
ĠK er
Sh adow
N I
OB JECT
Ã ª
over lay
r x
Ġcond ens
we ek
Ġde ployment
Ġin structions
FN GL
Part s
Ġso ught
met ic
ĠTok en
Pay load
um ing
Ġelect ro
\| _
Ġsports people
st ances
c v
Mar shal
ĠInf antry
ĠUn ivers
Ġv ision
depend encies
Z oom
Ġc ro
ĠDo ctor
re nt
G it
T imes
ne ed
C ross
h yper
S n
in ces
ĠA le
pre vent
Ġpres idential
d w
Ġb id
Ġrelig ion
Ġcr iminal
Ġmusic ian
ott en
help ers
Ġdeliver ed
h ist
N ER
ar ance
Ġlength s
u is
Ġd eleg
Ġlog in
Ġeng ines
Ġtraject ory
Ġal gebras
Ġindu ction
t oc
cri ber
fil led
ĠG P
Ġb an
SUC CESS
Ġair port
ex pl
ĠPat rick
* \
Ġc c
Gener ate
script s
Ġspher ical
> .</
NG TH
OR S
Ġnormal ization
Ġr ating
open api
Vis itor
Ġd oll
ow nt
Ġcompet itions
ĠN ik
Rec ords
Ġb ed
ME SSAGE
M illis
Meta Data
en vironment
ra k
m ust
Ġlocal ized
Ġg ender
Ġcub ic
K G
ĠSen ior
Ġclass ic
Ġ{ $\
d eveloper
Array s
ĠS ymfony
re verse
por ated
LE VEL
Wh ite
Ġk inetic
Ġcr icket
Ġoper a
Ġ& $
Ġaccom mod
ĠPro perties
Ġcommission ed
Ġb lob
Ġfound ation
pi pe
ĠCON DITION
ĠConnect icut
ĠST ART
ĠJ un
ĠO ptions
{ };
ĠD ick
med ium
Ġspect ro
Ġmechan isms
A U
Ġt ack
c ookie
as p
Cl ub
ĠM ond
Ġpro be
ĠB eng
ĠTr ack
Ġs outheast
Ġf ought
subs cribe
Mix in
Ġvol unte
own ed
L ow
SD K
id o
Ġanal ys
Ġregard less
Ġ ri
ir i
fl uid
ar on
ĠJes us
Ġpay ment
g ent
Stat istics
Ġc od
at able
std err
ĠG C
t ile
qu et
ĠT oday
ival ent
ot ional
Ġl aser
âĶ Ģ
Ġop inion
Ġsignific ance
al ink
red irect
S i
ust ed
Ġag ency
er gy
Ġnorm ally
in ery
ĠE ff
S ig
Ġv o
Ġadapt ation
Un expected
re ject
b oot
Ġcut s
co up
G RO
2 13
ĠH ost
ĠEd itor
k ern
C he
Ġs ink
19 02
Ġch urches
ĠO klahoma
;" |
! =
Ass ign
Ġsplit ting
ĠK o
MS G
Ġ' @
Ġste el
le ans
Ġdecre asing
u ction
19 03
Ġrob ot
fail ure
Mod ules
Ġut ility
Ġf aced
\, ,
Ġre aches
Ï ģ
es ome
An chor
Ġeduc ational
Ġall ocation
u ity
Ġ\ {\
Ġlik elihood
d ataset
Ġintr insic
Ġs ensor
media wiki
ĠK az
nt z
Ġclos ing
ĠPortug uese
Ġs ale
ol utions
ĠTest s
get s
IT LE
ĠR ol
Ġpropag ation
Ġst anding
Ġalloc ated
Ġag ed
prob lem
Ï ĥ
iz ard
ĠR ic
ĠT OP
el and
part y
le af
Ġworld wide
ĠH ockey
reg ex
Ġown ers
Ġj azz
ĠP ref
ĠIslam ic
\ -
Cal led
ĠTai wan
Ġinstit ution
ĠĠĠĠĠĠĠĠĠĠĠĠĠĠĠĠĠĠĠĠĠĠĠĠĠĠĠĠĠĠĠĠ ĠĠĠĠĠĠĠĠĠĠĠĠĠĠĠĠĠĠĠ
ĠMar ine
ĠR ound
RE AM
exec ution
ut ter
Ġdesign s
M ich
W I
ĠÐ ¸
ĠDis play
d ashed
w i
Ġm ile
" }
Ð ¹
M ass
p otential
ro tt
ĠCom par
b ey
ĠCommon wealth
Ġcoll isions
Ġk w
Ġeigen value
Ġdecl aration
second ary
Ġpres erved
Ġt unnel
// ----------------------------------------------------------------
% "><
ĠAdministr ation
pr ises
ĠCONDITION S
lan ta
Ġ" );
Ġany one
Ġchalleng es
am ents
Ġcell padding
big cup
10 6
Ġre new
ĠF ermi
14 4
ĠL evel
Im mutable
Ġestim ator
Ġis omorphic
ke leton
| _{\
le ading
;| &
ir y
3 50
ĠNav al
f ar
Ġreserv e
ĠHot el
ĠDig ital
as a
Ġmet res
Ġdirect ors
C ref
Ġ{ *}
res olved
18 80
y aml
ex act
ĠG ard
Ġen vironments
En code
le e
> %
Ġsign s
Ġbenef its
osl av
v g
eb ox
le f
Ġart ifact
t ot
ĠT arget
ĠArgent ina
Ġhy brid
H istor
s ong
'] ))
ĠO k
F D
Ac adem
ĠAnth ony
ĠV ice
Ġv ot
int s
plic as
Reg ular
ĠC av
Ph ase
lo yd
P DF
FT WARE
ĠÃ ł
M ilitary
ĠCon nection
fg han
val ued
Ġreg istration
13 5
ĠBAS IS
Ġliter ary
v skip
he x
R IGHT
ĠDet erm
Comp at
d ied
Ġre ar
Ġdec ays
SER VER
ĠOr th
ĠHon or
Ġfl ush
Ġman uscript
Ġsat ellite
allow ed
ĠCro at
c are
Ġsynchron ized
Up dated
st ory
ĠInv est
f requency
ĠS U
Ġs oci
\ [\
Ġ\ :
ah n
Ġconstit ution
google apis
Fil ename
ĠCon structor
ĠResult s
se ed
ĠGr am
: -
R atio
ĠW ait
Ġref resh
R ober
ĠR ub
Ġhigh way
Orig inal
Ġst ating
Ġarr ival
Ñ Ĩ
ĠTh row
ap ps
Ä «
ĠPo isson
Ġex posed
ap id
Dest ination
Ġ} .
Ġ å
ĠCh ampions
ip edia
Rece ive
40 4
ĠM adr
Ġdecl are
Sl ot
Ġhom es
ĠM D
ch arge
f loor
ant i
w so
ĠU SE
ss on
Ġinh abit
ĠG ordon
WR ITE
Ġd war
Ġt ropical
Ġre ception
ĠW y
Ġl ake
do or
Ġd ial
Ġthread s
ĠPri x
Ġb iggest
ho le
Def ined
Ġdec ade
db c
Ġfound ing
p ixel
S uch
In s
ĠĠĠĠĠĠĠĠĠĠĠĠĠĠĠĠĠĠĠĠĠĠĠĠĠĠĠĠĠĠĠĠ ĠĠĠĠĠĠĠĠĠ
P at
and al
Ġsm art
Ġpoet ry
m obile
SU PP
ĠNC AA
Ġinterest s
################ ################
ĠFI LE
ĠEn c
ĠG ab
] </
AR B
Request s
ific ial
10 8
ĠS mall
sequ ences
Ġsit uations
ĠN um
ĠB us
ĠD MA
Ġf aces
ĠH D
Dav id
ĠC EO
Table Row
M a
ĠLouis iana
u able
Ġs we
Ġretire ment
t rain
Ġwas n
ĠLiber al
t v
n est
ĠHo uston
B ul
CE PT
def n
ĠT og
c ost
ĠExec utive
ok ing
ĠD evice
ter ms
Ġcall er
Ù Ī
ob s
L ite
ĠString Builder
Ġch rome
ĠArm en
Ġre ward
Ġpublic ations
Ġsub mit
ĠC emetery
aw ay
s yn
Ġsur g
5 000
ĠL INE
[ _
> {
g ov
Ġcomp re
ĠY outh
U AL
sche mas
Th an
ĠMo ore
consist ent
Ġharmon y
c x
Us es
Ġamplit udes
ĠSt op
Ġthous ands
}) =\
U ntil
Ġ æ
com ments
Ġf ault
Ġlaw yer
ĠQue bec
Ġcent ers
Ġc orn
}} ,\
ST M
ĠE dition
ĠV in
ĠVill age
In ject
g lob
Ġa str
ĠF i
du al
ĠL ib
Ġw rapped
ic ing
leq slant
Ġpack ages
Ġ' </
Ġm apped
>< !--
Ġinvest ment
Ġp tr
Ġin coming
ors es
Ġphot os
button Element
He ap
Ġsuff ix
ĠSw iss
Ġge odes
com es
W arnings
Ġcent uries
ock s
Ġru led
F oundation
ard ed
ĠL P
el come
C U
Ġguarant ee
br anch
ph ab
road cast
_{ [
w en
Th reshold
Ġpar a
ĠObserv able
Ġs occer
ĠS cal
" ?>
il st
St d
ĠA DC
Com ponents
ĠAcc ount
Ġfac ilit
: %
Ġconsist ency
Ġl aid
back end
00 2
Ġsubs cription
separ ator
D ict
Ġdis miss
Oper and
window s
Ġhand les
ĠMem ory
rg b
j u
pher ic
ĠB ureau
ĠD IS
ĠV AR
cite alt
Ġend if
Ġo mitted
Ġtransform ed
Ġloc omot
Ġr at
ĠEar ly
R oman
Back end
ri z
sql ite
} <
U UID
RO W
B H
res olution
Ġtri p
s leep
Ġn ick
Ġf ol
m anagement
Ġpurch ase
i pl
v et
EE E
HO ME
ĠE ag
Ġstation ary
Ġt ip
Ġaccom pl
Ġt ennis
Ġ' [
ĠAn ne
Ġlif etime
im iter
G uid
Ġsh arp
place holder
ĠL eft
m x
o ured
Ġdep recated
Ġoff ices
> [
Ġpeak s
Ġcustom er
Ġpat ient
ur d
ĠB ry
Ġst adium
() ]
ĠCar lo
ĠU r
Ġinitial ization
Ġcommun ic
11 7
ĠWork s
PRE FIX
View Controller
ĠBelg ium
Ġx hr
in burgh
Ġr ival
ce ived
LE NGTH
um ul
ele t
Ġgeneral ization
ĠS ession
ĠMethod s
Ġinv ited
ocr atic
Ġaband oned
V T
m any
lear ning
ĠHarr is
Work s
STR U
Ġl ob
us ual
ts burgh
}\ ;
ĠInd ependent
Ġpl ain
clos ure
M LE
Ġp and
eg et
Ġn an
pl er
ĠD VD
F IL
---- ---
ist ol
Ġv ort
Ġgr pc
ĠS ud
ĠB uck
Ġlab eled
Ġsk in
elect ron
Ġv oted
ĠS n
un lock
Ġs wit
Ġnav bar
ĠÐ ´
M us
Ġac id
Âł Âł
Ġm ath
ĉĉ Ġ
Ġpl asma
Ġgun s
Ġp or
Ġpresent ation
Ġsever e
Mat ches
Ġar row
vari ables
post s
Ġestablish ment
ĠP uerto
Ġfr anch
ĠLa ure
ĠÐ º
Ġout come
d anger
ĠA lice
Ġtouch down
Ġcomp ens
is ition
Ġh ierarchy
con figure
ter ior
ĠDoug las
ĠO pt
n ia
Ġentr ance
j q
Event Args
Ġconcern ed
ĠĠĠĠ čĊ
Ġplot ted
ĠT yp
Ġvan ishes
um ed
iss ance
Ġig et
Ġp ione
Con figure
ĠDir ac
Ġaff ine
b re
Ġpred icate
Us ed
Ġan isot
elect ric
Ġcluster ing
ĠAnton io
ch rome
ĠK on
att en
sol r
sub equations
Ġim possible
ĠT IM
pos er
11 4
Check ed
ĠD ead
Ġint elligence
ram a
ĠOper a
Ġt error
ĠT F
be ans
input s
^* _
Ġaver aged
Ġpul se
B ecause
Ġed ited
Ġre in
ge o
Ġas sets
L ead
ĠHer itage
Re ception
Ġrec overed
) }$,
ĠB attalion
Ġprov ision
pan ic
ĠEqu ation
bo ards
Ġrender ing
Ġent ering
Ġl in
ĠP A
uk i
ĠIsra eli
ĠR andom
Ġmechan ical
size of
S ink
Ġhe lic
vel oc
Ġpl ots
}[ !
( `
ĠC ow
c raft
! (
Ġs ep
Ġher o
ĠF ixed
d ifferent
Ġrev olution
L if
ĠPal est
Ġbo at
fort unately
ic ide
Ġhe ter
ĠM rs
Ġcirc les
ĠF ried
oun ced
en ario
2 20
Ġdepict ed
ĠPortug al
C amera
osp it
Ġabund ance
Ġa ugment
Ġautom atic
om as
co ordinate
exist ing
ro ck
Ġen ables
fl u
ĠT reat
ĠMiss issippi
th an
b n
A rm
ĠAl ber
Ġstream s
ĠG irl
s ources
ĠSing le
ĠP M
SU B
(" .
Ġmult ip
Ġcomb ine
ĠA WS
Ġcer emony
Ġcent ered
Ġpen alty
Ġin ference
ĠMat the
L o
I r
Ġbelong ing
10 9
Ang le
is ations
Al ignment
ers ions
Al ign
ĠOff icer
Ġredu cing
Ġiter ate
Ġ ^{\
F urthermore
Exp atriate
l r
E very
ĠK now
h ill
Ġis lands
MA IN
ĠP ope
Ġcorrespond ence
CR IPT
f m
m issing
ĠW HERE
Ġre tain
Ġl it
second s
Separ ator
ĠA ws
ĠH amp
' ):
mult ip
Ġins pect
GB T
Ġd w
ĠR yan
Ġleg acy
ĠM anager
ĠHistor ical
+ "
Ġ{ ?
per cent
all as
String s
pre dict
ĠHol lywood
Ġwor st
F B
Ñ ħ
f un
J s
Inst ances
Ġmathemat ical
al og
table s
Ġinfra structure
C AC
ĠP i
Ġexperi enced
C ountry
ĠN atural
18 98
ĠD ak
Ġreal ized
Des cribe
ĠD onald
Ġresearch ers
Ġres id
Ġpass enger
ad ic
ĠBr and
ĠTra ining
= -\
ĠS everal
Ġspe aking
Ġamount s
ol ph
im ore
Ġfin ishing
Ġaggreg ate
St ud
Ġprof ession
en ix
Ġrest ored
ul p
hens ive
t ility
tim eline
level and
I FT
Part ial
Ġharmon ic
Ġk id
}{ }
ĠR on
final s
vis it
<? >
Rec all
Ġprob abilities
ĠDen mark
Ġcompet e
ĠĠĠĠĠĠĠĠĠĠĠĠĠĠĠĠĠĠĠĠĠĠĠĠĠĠĠĠĠĠĠĠ ĠĠĠĠĠĠĠĠĠĠ
Ġsu ite
Ġg iant
ĠB erg
Ġcarry ing
Ġ\ |\
Ġin aug
ĠB ody
ĠD oc
Ġfle et
Ġh un
Over lay
ĠD ur
18 99
m atic
Ġsh aring
b ing
d z
-- ;
Ġsub section
ĠQ ual
Ø ¯
ate ver
Ġsign ing
' ',
ĠP ed
a ire
| =
ĠW ord
oc he
A W
ent ed
ĠL IC
Rev iew
è ¿
ĠN ash
Ġz oom
ar ial
ĉĉĉĉĉĉĉĉ ĉĉĉ
ab ul
inv oke
E lem
ĠDis ney
M esh
ĠW ard
ĠJava Script
Ġcom posite
Ġc riterion
Ref resh
Ġ" ;
T or
Ġex tr
ĠT ak
edd ing
ĠJ uan
Ġsy nd
Ġinsert ed
ĠF inn
Observ able
ob i
ownt own
ĠBrazil ian
Thread ing
LO AT
Ġinstr uments
let ter
pare n
Ġv ec
Ġcyc les
Ġcustom ers
rep resent
Ġfunction ality
Q t
Ġclose st
Ġdis contin
Ġo ct
g h
et he
ĠA gr
Ġgr ade
Ġrespons ibility
p al
' $.
ĠN eg
Ġatt ach
bol ic
Ġbreak s
Ġactress es
Ġto ler
ĠH ills
$ --
ĠSing h
Dispatch er
b ecause
Ġ( ((
Ġb at
Are Equal
ĠD ave
Ġparticip ate
ĠU l
() `
Ġdec ide
k k
m outh
Ġp ump
×Ļ ×
ay an
ys ql
RE NT
in ch
Ġs ight
ĠD anish
Ġinj ured
Ġturb ul
g re
Ġcell spacing
ol y
Ġobtain ing
ĠForm at
ĠN ob
Ġspec ification
prot ect
Ġcal endar
Ġconcept s
dir name
ur se
Ġbusiness es
Ġs ends
ĠY ang
Ġt f
is lation
do es
ÃŃ n
ĠHaw ai
Ġp ole
prec ision
]( #
Ġarch ive
ĠBr igade
Ġpost ed
ĠOr chestra
Ġp s
ĠB arn
S ongs
ĠD ublin
T OO
ĠS port
Tag Name
h p
Allow ed
IE W
ĠDe ath
ĠMed icine
ex ual
R G
i q
Ġmin ing
Ġl oader
read only
E mb
/ #
enn y
Con v
ced ures
Ġrestrict ions
R GB
Ġaut hent
A CTION
Ġtop ics
F ixture
end o
pag ination
ĠI SO
gu ide
Ġch ampions
Ġoper ates
Ġan cest
ĠR iemann
ĠMi ami
ĠL ower
d ump
18 70
tensor flow
Ġcontrad iction
Rec ip
ud son
ĠCh art
Ġj unction
in verse
Form er
se a
ĠK am
ĠH ad
Ġse ar
TR ACT
ADD ING
re tt
Ġar ise
Off icial
L ater
ordin ates
ĠP rom
O k
ĠStud ios
Ġm ort
b ach
p riority
M AN
Ġpaint ings
type param
Ġflo ating
Ġempir ical
est yle
last ic
AC ING
Rout er
Ġoffer ing
Ġg one
i ang
Ġsu it
Cap acity
ump y
Ī Ĵ
N ested
AR GET
Ġdel ivery
Ġconver ges
m icrosoft
Ġhand lers
Cl aim
Ġl ambda
not in
ĠSt orage
ĠGener ate
Ġk new
J ames
inn ed
A ir
set Text
af ka
i ors
ĠEnt ity
ab e
Ġgood s
Ġmid field
at ics
Th rows
v p
ĠC lose
Ġinf lation
ĠSO FTWARE
Ġocc as
ĠF ern
Ġse es
Ġeng aged
ĠGener ated
() ">
Ġpr on
pi res
stat ement
ain ing
ĠG it
the ory
ĠPro gress
ĠC PU
Ġdistingu ished
Ġp up
Ġdec isions
Ġenc oder
ĠK evin
G l
Ġh am
Ġpract ices
ĠAl an
Pr imitive
Ð ±
us age
Ġearli est
back s
ul ner
ĠBow l
Rel ated
Ġconcern ing
ĠAg ency
ĠSc ient
AUT H
id ad
ĠH u
Ġexcell ent
FR AME
E MP
list ed
Ġinfin ity
ĠPro duct
S ent
ĠFr iday
Ġcom ic
An notations
Ġw heel
Ġnon zero
Ġintegr als
M arch
in ates
ĠE instein
ag ation
ig o
Ġperturb ations
ĠL am
ĠEd inburgh
Ġb ases
Ġb irds
T LS
AS A
urr ican
ĠM aur
ĠG lo
ac l
cons ider
ok er
h ab
n ear
d ele
> ${
ad apt
ĠD iagnostic
Ġrank ing
th ird
Abs olute
dest ination
ÑĢ Ðµ
Ġdist ort
Ġrect angle
12 4
Ġne ur
d v
H idden
i ph
(" <
V I
ĠS ET
Ġst uff
non atomic
ĠMark ov
Ġpost s
ĠSam uel
p en
li x
Ġexper iences
HAND LE
Ġ/// <
ig ious
is ode
ĠW alker
br and
Build ings
Ġdis order
__ _
P icker
Ġb ot
ĠB ud
le tt
V A
Y S
Ġcon e
Ġl icensed
Ġst ub
M ail
Ġl ibraries
Menu Item
Ġcrow d
ĠL as
ĠLIC ENSE
ĠN ichol
Ġan th
Ġes c
18 60
ant ed
Ġre ly
Ġrecord ings
d ale
Ġstead y
Ġh ired
Ġscal ed
h skip
ĠSystem s
ĠAdd ed
Cre ation
hom ology
Ġre ign
man ifest
ĠA GN
Data Source
Ġinter ference
m illion
re ma
ĠT i
G T
ag greg
Ġp m
Ġsub str
urs ive
:: $
vers al
text area
Ġm irror
ĠSt ew
Ġquot ient
>( <
TO M
m el
å Ĭ
Ġun stable
Ġre tained
f ish
ĠR ot
ail and
x sd
Ġco ins
vers ions
Ġcool ing
ĠAb d
Ġens ures
Ġvol tage
ĠSh ared
qu ick
R ank
ĠIm port
al tern
in ian
min ute
lik ely
Ġg rows
ĠType Error
IT H
Ġacc used
Ex cel
alt Color
ĠMay or
ĠA uth
ĠIndones ia
ĠParamet er
Ġactiv ation
p ipeline
IN CL
i op
Right arrow
Fat alf
ish ment
ĠF red
Ġ} {\
ĠNO TE
âĢĿ .
ĠLaw rence
Ġg lyph
EO F
dec om
Be havior
ĠG on
eg as
C ritical
ĠCol omb
incor porated
et ition
Ġk inem
Ġg fx
Al ert
Ġexp ensive
ĠDom in
ĠX Element
Ġset Timeout
v endor
ĠC ook
t cp
und erset
TH ER
Ġpost erior
Ġacc ord
ĠP ear
OPT ION
mod ified
sc ious
Ġch air
Ġinv asion
Ġconsider able
Ġtw elve
Ġsh ares
A ugust
m r
Ġ(! $
az ines
Ġjourn ey
l iteral
ov o
jav ax
AR CH
or bit
lo ating
Ġloop s
t ol
Ġp arsing
ha us
ĠHar vard
ing ly
w allet
en ium
oid al
left arrow
ĠPh ot
---- -
b ib
block s
In tent
net t
h w
ul se
cast ing
Ġover l
hash Code
C ould
ĠZ one
Ġregular ly
ĠA fghan
18 95
ĠC L
11 3
}} )$
Ġremov al
ĠD og
p us
ĠC hem
. ";
18 97
Ġadapt er
]] ></
wh at
Ġcred entials
ĠDef ense
work er
Ġconserv ative
Ġre act
Ġ ðŁ
ĠP red
& $
Pro duction
Ġproject ive
ĠAss ume
Ġge omet
Ġspac etime
ĠT el
PROP ERT
ĠG il
Ġconsider ation
i ator
ĠDet roit
che ll
P aul
unn y
[ ];
F ilters
link ed
Table s
enez uel
Ġd ream
Ġveloc ities
Na N
ĠP ap
B ur
Ġphilosoph y
ĠUS B
v n
Ġj unior
------------ -
Te am
ĠS chema
if rame
bl ast
or us
Bl ue
á º
ĠY an
Japan ese
Ġs ig
Type Name
Ġpri est
Ġfind ings
Check er
E lect
ĠS pr
Ġanalog ous
it ics
Ġat tributed
sp ot
Ġincreasing ly
ous el
Ġcancel led
es a
ple ctic
H orizontal
Ġs now
} ~\
Ġf olk
}{* }{
Ġpriv acy
ma jor
Ġsynt hetic
Ġd il
HO ST
ĠD raw
Ġ[ -
ev ens
Ġc ookie
ĠT ar
18 96
Ġneg lig
Ġfl ash
overs et
I ES
Ġex posure
app y
Ġshoot ing
ĠR ab
Ġarr anged
S ym
Ġe gg
A cknowledg
ĠT amil
DE LETE
Y P
Ġf d
ct rl
ĠP od
Ġlog ical
Ġdesign er
f ather
By Name
it ud
her its
! </
r at
" ])
\ }_{
d imension
Ġmon ot
aut orest
ĠÃ ī
Ġdyn asty
)} _{\
=" {{
ĠS S
ĠFin land
ĠF ood
Ġp c
scal ar
N il
Ġbl ank
Im ages
ĠAng el
s ender
ĠK ings
ched uling
cast le
Ġre start
l am
Ã© n
Pred icate
Ġexc ited
STRU CT
ĠZ e
Ġground s
t ically
sl ot
ĠF low
ol ate
M art
ĠAt lanta
bar a
Ġa ws
ĠF al
ĠB ORDER
Ġaccompan ied
Ġrele ases
Ġuint ptr
Ġround s
d td
Ġ! (
un s
co ustic
x e
ro se
Ġ@ {
NotFound Exception
ĠH ug
inner HTML
C ert
ĠR ugby
Ġenh anced
sim ilar
Ġs a
Ġdiss ip
Ġc s
ĠC E
12 1
Ġcr isis
Ġroad s
Ġgreat ly
lic ts
aa aa
R eq
Ġcomp atibility
ĠH it
uff icient
subs cription
I BU
F IN
Ġval ley
Ġres igned
ĠMalays ia
Over flow
ĠCl uster
ind icator
Ġfe as
* >
Ġg rey
}} =\
Ġreve als
27 0
ar ound
Im plicit
Ital ian
ĠAd vent
Ġr s
Th ree
EN CE
' )$
se en
ĠFreder ick
ĠG arden
ĠUp per
Ġh a
ox y
Ġro oms
Ġdisplay s
ĠO C
Ġscient ists
Ġturn ing
oid s
c uda
Ġdis joint
S IGN
ĠM ult
et ary
uck ets
W ORK
Ġd uty
ru ction
Ġprocess or
ch oice
ul um
tem perature
Ġm outh
ĠPr inc
ĠM ak
B etween
Ġgu id
Ġlook ed
ĠL ag
Ġv ic
^^ ^^
Ġf lying
Ġjust ice
Ã³ w
Ġmer ger
writ ing
Ġcast le
Ġcallback s
inter op
Ġprint ed
ĠI ron
ĠP ad
S il
ĠMc K
(@ "
to kens
get Key
}, {\
st mt
Vill ages
sw ing
Ġpri ze
Ġbench mark
hold ers
S al
Ġm ine
Ass ume
Ġgu ess
Ġa cknowled
Ġhe ar
Cl one
Ġadm its
Ġanaly tical
Ġdifficult y
Ġatmos phere
ĠT rib
Ġinhabit ants
Ext ract
ĠRequ ired
Res olve
F oot
ĠM ix
Ġcap abilities
G F
abs olute
U A
Ġun expected
list ing
pe ction
ĠAt omic
d og
rot ate
qu o
ĠP erm
ĠO K
respon s
UN K
ĠC atal
Sub ject
ĠLeg islative
Ġreal istic
tra ining
H ex
ĠO wn
u art
pos itive
12 2
Br idge
ĠC NN
Has Been
m acro
oc o
roph y
im ir
ĠT ig
Ġchalleng ing
ĠAn alysis
ĠCh amber
ĠF loat
Ġcho osing
ace ae
ĠBang l
Ġreport ing
Ġpubl ishing
Ġsecret ary
Ġland scape
or o
ĠB art
Ġrep ly
Ġassist ance
ĠGL int
ĠCom pute
Ġa f
ĠC ensus
d ue
ch at
or ous
ĠRes et
node Type
T i
ĠB H
ĠCollection s
g c
numer ic
Ġco herent
h n
enc il
Ġoccup ation
Ġsh apes
ĠB ased
\, .
Ġm igration
Ġland s
ĠP L
Dec ode
ĠMar shall
Ġf usion
Ġch rom
u its
an imate
veloc ity
b az
s izing
b uffers
an ian
Ġhead s
row se
uc ene
Vert ical
Ġpro hib
Ġb reed
uff le
Ġm ental
g ate
ĠIm perial
ograph ics
Ġpotential s
Ġbos on
ĠAust rian
ĠK it
y ll
}) _{
H H
Ġcomb inations
pre view
ĠB ound
)= (
sw ap
ĠF arm
Ġcour ses
ĠCo oper
Ġreli able
C ost
F ire
design er
grav ity
g gle
Ġsub sets
At trib
ĠYou Tube
è ¡
St ates
LIN K
ather ine
ra ise
ĠD aily
ĠO UT
ĠE mb
C lock
J une
y ers
ST REAM
, (
Ġar med
F atal
ĠArk ansas
Ġl ose
button s
ĠWh ere
l if
ĠSt age
../../ ../
ĠP eters
ĠA udio
Pr iv
g em
Ġnot ify
Ġdec ode
bra ins
Ġsub stit
ĠW atch
Ġconst rained
ĠSe ason
d or
Ġ$ ('#
Ġcovari ance
Ġexp ed
dem o
SY S
Ġil legal
Ġres cue
ĠLie utenant
act iv
ĠL anc
t ick
A fr
M icro
Ġcomb ining
Ġphenomen on
ro v
Ġman ual
ĠMP s
R TC
bor ough
ĠM achine
over ty
Ġslow ly
Ġmarg inal
neut ral
Me asure
Ġ" ./
M anaged
string ify
oc os
st eps
Ĩ Ĵ
F our
p arsed
Ġbo ys
Ġs essions
ĠSt udio
id en
Ġarch ae
r n
s napshot
Reg ex
00 5
k u
c as
ĠU tah
Ġimprov ements
Ġf ear
Med al
m achine
C at
ĠB reak
ĠExt ension
Ġprinciple s
ĠĠĠĠĠĠĠĠĠĠĠĠĠĠĠĠĠĠĠĠĠĠĠĠĠĠĠĠĠĠĠĠ ĠĠĠĠĠĠĠĠĠĠĠĠ
h is
ĠMc G
' }\
Ġpass engers
ĠDe an
ĠB etween
Ġassert ion
no ise
') ).
Ġinstall ation
oc ated
ak s
B oth
Ġproject ed
ir ms
eg e
Trans lation
S yn
F ROM
Default s
new s
* .
3 000
ĠRes erve
Ġc ited
Rail way
Ġrequ iring
ov al
ĠE C
Rober t
get Property
Ġmach ines
St ation
K L
ĠR TC
AD C
end a
ĠM organ
+ $
Ġ[] *
Spe ed
ĉĉ čĊ
l c
Ġreg ex
ect ive
5 67
f ollow
Ġp ng
p mb
qu ality
Ġst im
ĠE ver
Ġpermit ted
Im ports
ĠE dd
abl ing
up les
] ^{
ĠLore ntz
$ (\
l it
prov ed
alax y
~ (
Ġsuper conduct
pe er
ens ively
c ord
UT C
lay ers
Ġcollect ive
Ġgrad uate
H ard
Ġsh orter
h yp
Ġas set
Ġ( .
ch arg
= (\
S VG
Ñ Ī
Ġleg islation
Ġbring ing
el lect
Ġun ity
os cal
add le
A pril
IBU TE
} &\
( |
h op
Ġindu ces
pr ice
xy gen
B ag
Part y
ĠTh ough
Ġ* _
S mall
es c
Z ip
um ar
Ġhydro gen
ĠMet ro
jet brains
Ġdeterm ining
$ _{\
ĠThom pson
Emit ter
C AP
uch y
High light
ĠD ie
Ġcl ause
ĠBru ce
G G
17 0
Ġdeb ate
A IN
ine a
Ġo vers
^- $
Read Only
sh aped
ĠKn ight
igh bor
Ġc ards
ĠM ission
ev a
ĠAd ams
Ġint ention
Ġ à¤
ass ador
ep age
ĠIN T
Ġbur st
Ġsee ing
fin ity
ĠPubl ishing
ex clude
e or
ance led
sat isf
Ġsub mitted
}_{ {\
Enc oder
ĠWel sh
ĠKel ly
ĠB ed
serial ize
Ġshif ted
Ġs alt
Ġp ip
Ġtraject ories
Ex plicit
ĠOrth odox
ol t
spl ice
V R
ish ops
an Ã§
W M
Fr ont
Equal To
ĠG ray
18 92
Ġas c
ann on
R ussian
ith metic
div ision
cent ral
å Ń
Ġ} ));
Ġto ggle
ĠUk rainian
pl aced
Ġ# #
\| ^
HasBeen Set
ĠAs ync
Ġ{ {\
ught ers
ĠEx pl
Ġlong est
Ġweak ly
v dots
or ne
Ġg ray
Ġprodu cers
Ġkn ock
. :
Ġsud den
b ai
channel s
ĠP UBLIC
T ip
on line
Ġvari ants
I ENT
ĠIn it
ĠS TR
d al
Ġex clusive
P atch
ĠSh ah
ĠS ave
Ġt ied
(" ./
ous es
y arn
çĶ ¨
' $,
ĠP un
LE S
Ġagric ultural
f av
Back up
Ġmet ers
ĠD NA
ĠN eb
H ide
Ñ ĸ
ĠD ance
ĠUn iverse
Ġarr ive
Ġremov es
ĠVi enna
18 89
iver pool
ĠIter ator
Ġres idence
no frame
draw able
Ap J
th in
Ġchain s
Ġex cluded
ĠPh ys
c atalog
OT TOM
Ġm oth
ĠW right
d yn
g ot
âĶĢ âĶĢ
ĠAl tern
DIS ABLE
c yc
Ġal igned
Ġt sd
ĠO THER
lem an
C over
Ġre put
Ġro uter
} ],
Mod al
sup erv
Ġdiv isions
Stack Trace
ĠBo ys
Ġexcit ation
Rel ation
Ġme ets
Ġmark s
Ġhom ot
Ġw aters
Ġscript s
Ġsch olars
ill o
resource GroupName
Ġph on
Ġb are
ĠInter face
Ġpra ised
Ġbeaut iful
end ment
ct l
Ġv eter
ĠÐ ¾
ĠSe attle
F i
respect ively
ĠLINE AR
Ġsh ut
li er
] ];
ap olis
Ġanaly zed
Leg acy
ĠC ra
Ġeven ing
Ġcomple tes
J uly
c ategories
Ġass ault
Ġserial ized
ĠC os
Ġon going
Sc ott
Elements By
) |\
Ġtr uck
he at
nob r
Ġmulti plication
Ġmag ic
comp atible
Ġlinear ly
ĠHung ary
ug oslav
Ġmin i
æ ĺ
ĠGr ad
Ġintrodu cing
TEXT URE
ĠMe V
Sh are
Operation Exception
m anaged
ĠN eed
ĠG ET
ĠS ac
be at
Ġvict ims
ĠCommand er
Ġopport unities
TE GER
Ġeth nic
Ġlist en
Al t
Ġver ified
= {\
ĠF R
Ġ" +
CON ST
ma ker
s om
l ater
li ed
18 93
Ġrestaur ant
ĠB ab
amil ies
im plementation
Ġcon jecture
Ġd jango
Ġinter faces
Typ ed
æ Ī
ent a
al actic
ĠJoh ann
W D
r adi
Ġcomp ress
ĠHung arian
m ate
Ġmed icine
ĠA B
Ġc raft
ĠId ent
he ets
Ġback up
Ġnot ably
Ġfew er
ĠWeb site
ĠMar shal
E LEMENT
: &
O rient
ipp et
ĠE mer
ĠS cript
IN LINE
ĠTe ch
ĠDep uty
cal c
ĠR aw
ĠMont real
Ġunivers ities
EN C
pt s
Ġexam ine
ĠOtt oman
ĠCEL LP
h us
Ġ' {
ĠTh ailand
f are
Ġs el
ĠCELLP ADDING
prevent Default
Pol y
im m
get Text
ĠCh ampion
Ġ$ <
ĠCEL LSP
ĠCELLSP ACING
ĠW ed
Ġs cheduler
US Y
ĠR io
) ',
F oreign
Rep ly
Ġconsum ption
c ritical
leg end
ĠB ush
TableRow Color
po i
ĠRuss ell
Ġconstitu ency
V oid
Ġderiv ation
b u
oss ible
Ï Ģ
ĠAn na
: @
ĠIn stance
Ġb arrier
Ġpure ly
Ġst ood
in formation
Ġcancell ation
h h
Ġte en
` :
Ã ½
q a
(' ../
ĠPro du
Ð¸ ÑĤ
car bon
18 85
Res ize
je ctions
ĠEx p
L and
grad ed
S B
Con struct
Sign al
deg ree
Example s
Vis ibility
rf loor
Ġhelp ing
R ad
d evelop
pe ated
Un lock
ĠFe ature
ĠF ive
Ġsl ide
m ov
Ġf urn
ĠW ol
ĠChrist opher
Ġaux iliary
Ø ª
4 50
st ellar
S ound
h ou
wik imedia
enc er
++ ]
hy thm
ĠMem bers
ĠRail road
1 19
Ġb om
Ġun like
pro f
un ed
Ex change
Get ter
interop Require
M iddle
PA SS
Ġab use
U psilon
PRO TO
verb ose
Ġdat etime
ĠAust in
Def ine
Ġdeform ation
is y
Ġcor related
ĠPol y
Ã¨ re
text normal
Ġt ank
node Name
ĠPal ace
ov y
. },
l ag
w ind
Ġ Ã©
NAME SPACE
Ġentang lement
iv ot
Ġdef ensive
ĠT ensor
hes es
ĠDec l
omet er
mid rule
ĠEn try
Ġvar ies
pr ised
or ce
ĠT ake
Ġsevent h
ocor ro
ul ates
Ġmark ets
ch t
Ġencounter ed
Ġinv olve
18 94
iline ar
ast s
Ġdam aged
18 91
æķ °
C MD
param ref
Ġcryst al
is i
18 88
phab et
Log ging
g ol
/ '
Ġk not
ĠRog er
Ġd iverse
Ġs elling
16 8
ent ric
Ð¾ ÑĢ
Ġmolec ules
Ġover view
Å Ħ
Ġw x
Ġtrigger ed
Ġformul as
Ġrender er
ĠOrgan ization
Ġ" --
ecess ary
co hol
Ġcertain ly
ĠP atri
Ġ} $
ou ver
od ash
center line
asc ade
dom inant
S PI
und ef
i ac
Ġm ilit
ĠS ocorro
MPL ATE
Ġdis cre
99 9
capt ure
, </
Ġmonitor ing
ort on
AME TER
D imension
stream ing
V S
ĠCart esian
ĠAuthor ity
ĠH ind
ipher al
ĠTem plate
> ',
Ġg ro
St udio
u ke
ant ly
Ġfranch ise
, ~
ĠM I
Ġmar ine
K EN
ĠB uff
Ġpremier ed
Ġ )$
al ter
Ġm ixture
ĠB egin
le in
SD L
M IT
onom ous
ĠCal cul
Ġv ast
DI RECT
re view
assert False
Ġcos mic
em en
Ġp t
Ġkey board
Se ptember
âĢĿ ,
or ange
Ġm aintenance
success ful
at im
aud i
OL D
ĠH ell
ment ion
ĠU rb
shall er
ĠA BC
ĠP aram
Ġann iversary
Att achment
ĠM B
MA G
ĠS r
ĠC rown
Co in
ĠOn line
ĠU pon
Ġref lected
Ġassum es
he size
ĠN ic
Ġdeal ing
Ġsing ing
Add itional
f w
c art
Ġform ats
DO WN
CON F
irm ingham
B en
U TE
Ġannoun ce
lf loor
c z
ĠPr imary
Ġexerc ise
Ġext ending
ĠSchool s
Att ach
ĠEu clidean
Ġf est
> ';
vent ory
Ġz ip
ĠMarg aret
Ġgener a
Ġcl ar
Act or
ma king
ĠCh rome
ĠN elson
Ġm ess
og a
un its
Ġad mitted
ĠTr ade
ĠYear s
it ian
Pol itical
ĠT an
ĠPit tsburgh
c amera
ail s
ĠR PC
ĠD I
const ants
ĠNever theless
A WS
BOO ST
Ġrelax ation
ey l
Ġaltern ate
Ġviol ation
Ġs sl
ob a
ĠOr leans
Ġl ift
Ġmount ed
ĠPh ysics
Ġfilter ed
Ġpro cedures
ĠV ert
I ll
Ġtang ent
Ġ" ")
ĠR ural
ĠH eb
. }\
com press
Ġpublic ly
Ġim aging
isl ature
ĠJos Ã©
Al tern
IN PUT
Ġecon om
Inv oke
ograph er
USE D
INST ANCE
Un able
ph al
Ġelli ptic
Z Z
at ype
ĠHamp shire
Ġd ump
Ġmov ements
Ġparse Int
ust ries
ĠPe ace
}( -
ĠRoman ia
Ġconven ience
D ue
ifi able
Ġb anks
Ġmy th
Ass ignment
Ġteach ers
CT RL
ĠPos ition
h ai
Ġmeas uring
: **
12 6
h base
ĠMet ropolitan
Ġanom al
am o
Ġcompos ers
ia h
re ements
Ġm ic
Vari ant
ampl er
ĠC leveland
qu estion
ĠM ol
ĠE U
Ã ¦
ĠR ud
Ġso il
ĠMark et
Ġorgan isation
har mon
ch oose
ĠR y
ĠLim ited
Ġden om
Ġ um
She ll
C ss
inn ers
ph ysical
ĠN ep
C lip
Ġb on
out line
OP EN
Ġc up
Ġh ill
Oct ober
us p
ĠB ag
sy nt
make box
P ages
Ġel astic
Ġp a
ins ula
command s
k an
ĠMar ie
Ġfamil iar
Ġweek ly
g ow
Ap pe
Ġ= ================================================================
ĠB rowser
Ġdec imal
Ġt all
Ġfile d
x c
ĠKar l
p ick
Ã§ Ã£o
ard ing
ĠL ane
Ġ======= =
Ġstre ets
ĠRob inson
sche dule
Ġp ose
Ġr m
ĠM obile
sc ene
Ġ{ })
Ġpy thon
}| ^
ley ball
s mooth
">< ![
ĠIn sert
cur r
J ack
ĠM ountains
Ġpar agraph
ĠP ho
Ġemerg ency
Ġwith d
ĠMor ris
ĠExample s
pro j
000 1
Ġdo ct
Ġhapp y
ĠSD K
{ [
ĠD R
Ġkey word
ĠBOO L
mat htt
ĠTrans action
Ġaccess key
ĠU lt
ane an
Ġsl ave
Ġag encies
Ġdeterm inistic
Ġt y
Ġman ually
Ġfact s
Ġcompet itive
Ġcre ative
List s
Clos ed
ĠS ho
G UI
Ġwav ef
sub stack
Ġfall ing
GRO UP
un safe
Ġb ishop
por al
Ð¾Ð ´
F ast
Ġsuccess or
Ġcrick eters
et ry
Ġthink ing
d type
ro zen
pre ter
F s
TO DO
Rev ision
' -
i u
ĠSar ah
Ġre nt
ĠBr anch
get Time
ĠM ars
Ġoff ensive
dec oration
Ġneigh bors
t ls
Ġdef erred
Ġelim inated
B usiness
Volume Source
ent o
ever y
col ors
Ġe cc
Add ed
s an
S chool
Ġin set
Ġathlet es
" ):
ĠĠĠĠĠĠĠ Ċ
jack son
w alk
Ġnumer ically
ĠBro thers
Ġn ice
Ġres ign
LI B
Ġacceler ation
FFFF FF
Ġferm ions
j amin
w ire
Custom er
Ġillustr ate
Ġb ath
Ġoper ational
Ġra in
WARN ING
Ġare n
LE N
Ġv oting
Ġsurv ived
ĠC it
Ġfru it
Ġh istogram
Author ization
. ;
ĠE uler
r ag
Ġgr ass
ĠA rena
ĠCamp bell
big gl
ĠAlf red
ow s
Ġlocal ity
cs v
Get Type
Ġsp end
Ġappro val
ke ley
ĠAl liance
Ġp ray
vis ibility
Ġ< ?
Ġpand emic
Ġreprodu ce
ĠE N
ad just
Ã Ł
Ġtra il
ĠG irls
Ġ ur
pro fit
Ġprov es
eff icient
for ced
Ġcav ity
Tog gle
B N
Ġhundred s
e per
ĠVis ual
b idden
ĠComm unist
3 20
m aml
Ġs urre
Ġinst ability
Ġthere by
Ġrow span
Ġbox es
Ġex clude
ag ement
Ġas semb
Ra ises
v y
Jan uary
wikimedia ui
ĠN GC
Ġcolon ial
^ +\
ĠA zure
}= (
ĠF T
Prot os
D ll
View s
r h
Ġexp anding
s ock
al ph
CO PY
Ġsuff ices
u ator
} "/>
Ġshe ar
ĠGener ic
ĠBalt imore
f v
ĠW ang
Ġ. /
Ġ) {
Ġreve al
Ġ$ [\
act ivate
Det ector
Ġcyc lic
ec on
equ e
sub float
Ġcour ts
Ġk ub
Ġport s
14 5
) |^
p read
book s
ĠCh airman
ĠCheck s
Ġmechan ics
Ġkind s
> ');
Ġthem es
ĠV ik
control s
Dis able
Ġarg ue
Ġt ends
adi ents
std out
m icro
Ġden ied
Red irect
Ġrail road
ĠStew art
u pt
correspond ing
ed a
ĠGL enum
is ch
pack ages
ĠAdd s
; ,
ĠP S
ĠTH IS
ĠF ight
Ġindic ator
Rece iver
C amp
ĠL IMIT
pr ison
Ġpubl isher
Ġapparent ly
Ġrel ativistic
n od
Ġl icens
Ġpick ed
Ã© r
Ġaddress ed
Ġpaint ers
Ġguarant eed
Ġis set
ver ts
umb ent
ĠLeb an
ĠJ u
le ave
Ġbe ar
ed ges
Ġtem plates
Com pute
ten ess
Ġformal ism
ym an
th a
V ERR
Ġded uce
N U
ber ry
Hand lers
Ġg amma
) ?
Ġmanufact uring
c aret
ĠS A
Ġg rown
Ġasympt ot
bar s
he ap
ON LY
ist ically
Ġsound track
iv o
AR K
ack ets
Ġback end
ate st
ĠEx change
2 30
Ġcompet ing
ĠBern ard
A ud
> /
L ab
Ġnorth west
S prite
sl f
P ACK
bound ary
CON NE
field set
' }$
C ached
Ġw rest
Ġop ens
Ġvalid ity
="# "
qu er
ĠPer formance
Sim ilarly
Ġap ps
re strict
ag ram
Ġar ises
18 65
ĠI T
Ġknow s
unit Pattern
Ġinvari ance
end region
ĠF L
Ġelse where
ĠR ain
copy right
US B
Ġf ra
Ġsample d
ĠMa ine
Ġmov ies
ĠF ound
ĠCap ital
Ġfl avor
ĠSpec ifies
Ġg ang
Pro ducer
Ġdec oder
lef trightarrow
) !
ir ates
ĠF oo
Ġrefer enced
atab ases
ĠC red
Ġo x
STAT IC
url s
Ġsymmet ries
Ġtherm od
ĠBrook lyn
ab olic
ol ut
Ġexpl ains
Ar row
D ataset
Ġfem in
55 5
La unch
ĠN an
ur ers
os er
ĠF ore
te chn
$& $
Ġserv ers
us c
A mer
ear ing
18 87
Ġpopular ity
an ies
Symbol s
D onald
Ġres idential
ãģ ®
È Ļ
Ġp ipe
Ġpl ugins
Ġdeploy ed
Ġour s
Ġqu arks
Ge orge
Ġappre ci
Ġnormal ize
Ġ" :
Ind icator
n pm
per mission
ev t
ĠRef orm
rol led
al ry
}) -
amp ed
ĠL ith
or b
Ġsusp ended
Ġup grade
Ġpos it
ĠK il
Ġland ing
ĠS PI
ĠCom ics
ĠInt eg
Ġcount ing
ĠW H
Util ities
W ar
Ġjud ges
ne ur
? ?
Ġ( );
F ar
Ð ³
fin ish
conf irm
FLA GS
C Sharp
M argin
ir k
Ġ\, ,
Ġf o
ĠI MP
claim ed
um ann
N orm
Î ·
Ġfrequ ent
Ġ\ #
pert urb
De cember
In clude
Ġfl av
ĠH E
L ER
ey er
ĠConserv ative
T own
ĠSen ator
re z
ĠF ast
od b
ĠLin ux
Ġs ock
Perm issions
ass et
con tributed
P s
g ap
ĠW oman
ĠFrank lin
Ġv eget
Ġdot ted
m iral
ĠD allas
cell designer
ĠCent ury
Ġfriend ly
ĠReg Exp
Ph ys
In jection
Ġmiss ed
ĠJ e
', \
Ġrep o
Ġtext s
ierarch ical
h um
' })
ff ee
ra is
Ġch a
Ġclin ical
f link
oc on
f iction
B er
Ġb uffers
et ric
Help ers
E r
ĠE mber
Rout ing
ĠA UT
ĠMin or
rest ore
Code Analysis
G ood
y ou
ĠS ort
Ġst retch
ĠQ String
Ġpaint ed
zer bai
ina e
ĠU E
ĠRes ources
}\ !
Ġb rows
ĠM aterial
ĠO blast
Ġpr ices
m ont
S at
Callback s
Ġc ipher
Ġattempt ing
ĠMur ray
è ®
ĠInitial izes
R X
text style
Ġcoup les
Ġhead ed
F LOAT
}} }$
ĠDak ota
ter y
con j
ĠWith out
ult an
ĠPl atform
Ġs oul
M U
em ale
Ġsup press
Conf irm
Ġrout ine
ic he
ĠR T
ĠLank a
Ġobserv ables
ĠDr ag
Ġr anging
Ġrig id
14 7
atern ion
b oy
interopRequire Default
O RE
Suppress Warnings
D an
ĠCon vention
AD DR
Ġpre lim
ĠD WORD
ĠEcon omic
Ġrecip ient
Initial ize
Ġnot ing
Ġlimit ing
CP U
Ġ" (
Ġh olid
Ġhol omorphic
iv an
RO P
ĠB ou
pon d
section s
00 3
anc ouver
Ġreg iment
ĠJud ge
Ġd ating
[ [
Ġresource GroupName
Ġll vm
Ġplan ets
Ġcircum stances
R CC
i NdEx
ĠV enezuel
big skip
Ġimag inary
spec ies
GL enum
Java Script
ĠL iverpool
oper ations
Ġpop ulated
Ġind irect
Ġf ixture
Ġsurg ery
ĠU TF
equal ities
Ġem er
I MAGE
ĠPack age
Ġw ounded
Ġaim s
Ġgrad ually
Ġid s
ĠJim my
UM N
ĠB utton
sec ure
ol s
ĠSt ack
a ac
Ġro se
DE VICE
Ġcontinu ing
ĠSpe ed
d ater
Ġa coustic
ĠR ico
Ġproport ion
n io
User name
Ġappe al
) )$.
w right
Ġprov en
ac ef
us k
Rel ations
Vari ables
---- --
~~ ~
ro d
18 86
Ñ İ
clus ively
writ ers
Ġtechn ologies
ĠD ub
ĠSt ein
Ġprepar ation
Ġd type
Ġcon clusions
17 5
Ġread ers
Ġre semb
Ġf at
ĠCal led
ĠCon sequently
Ġfin itely
ĠS pect
Ġcommunic ations
Ġgovern ed
ar us
==== =
D X
Ġtor us
Ġdirect ive
Ġcritic ism
Ġre tail
C atalog
au er
NUM BER
ur bed
Ġpro sec
Ġj uris
NO WN
Mich ael
}\ }$
Ġc rown
re ply
Ġd iversity
TIME OUT
Ġb attery
ul u
T ur
size i
ustr y
ĠG las
Ġmod ifications
Ġvisit ors
Ġsust ain
Diagnost ic
hol m
Ġsurround ed
ĠQu ant
R pc
ĠĠĠĠĠĠĠĠĠĠĠĠĠĠĠĠĠĠĠĠĠĠĠĠĠĠĠĠĠĠĠĠ ĠĠĠĠĠĠĠĠĠĠĠĠĠĠ
ST EM
moment um
T om
Ġle x
Nov ember
ĠS DL
Http Request
ĠRem ark
Ġdelay ed
r ating
ĠG ulf
ĠK u
Ġdevelop ers
Ġhyper bolic
Ġstr uck
18 64
ĠCar ter
* (
ĠH end
Ġadv ice
Ġph rase
[ <
ik o
oc c
Ġnav al
Ġmet av
Ġgener ality
Opt s
b ishop
g b
Ġf er
Ġfocus es
ĠMo z
? ,
cy cl
ĠT s
publ ished
Im plemented
] ));
ĠS ax
grad le
on ian
({ },
Ġequal To
ĠH um
NE W
Ext ended
/ $
Ġlocal ization
mod ifier
Ġhash Code
o j
ID ENT
ides pread
m und
Ġlist ening
aint s
ov ich
am ar
' )\
Ġdiag nos
diag ram
> )</
V B
art z
ĠEn sure
Ġvanish ing
om es
ĠStan ley
V IEW
18 50
Ġcal ibration
Ġdec line
ĠM ove
Ġdev oted
Ġcompre hensive
ĠJ ason
Ġmarket ing
) <
G old
Ġm atters
Y our
Ġim posed
Ġequ ally
> ("
L arge
Ġkw args
Ġst ops
pol ar
v v
Ù Ĭ
}\ |
Ġretriev ed
ĠUn like
ĠT otal
Ġev ident
ĉĉĉĉĉ Ċ
im od
ĠE D
[] )
R ST
ĠValue Error
ĠT ob
UM ENT
Opt im
d ro
Ġrep orter
ĠM ach
enc oded
15 5
et on
Ġtrans f
orient ation
ĠS Y
Ġc p
ĠAr n
ĠBangl adesh
ac cur
Ġcould n
in cre
Cl ause
Byte Array
Ġarrang ement
'' '
ĠN i
}$ ).
Ġpart ners
s yntax
}}\ ,
Ġsuper ior
Ġd ress
re nd
sc all
ĠEv ans
ĠM ut
is Valid
ĠN am
N OS
ĠL apl
ÑĢ Ð°Ð
w ang
Ġmod uli
Ġset Up
Ġrac ial
ĠĠĠĠĠĠĠĠĠĠĠĠĠĠĠĠĠĠĠĠĠĠĠĠĠĠĠĠĠĠĠĠ ĠĠĠĠĠĠĠĠĠĠĠĠĠ
ĠPr incess
comm unic
ĠP ictures
ĠU int
Ġb u
ĠN ord
ish ments
ism atch
19 0
g ra
AC CESS
ig ible
assert Raises
Ġr ivers
ig uous
Ġv ulner
ĠM ess
Ġ' )
ĠBe at
list eners
aut ore
Ġcritic ized
Ġfair ly
ĠSt orm
Ġco homology
ĠSt ars
Ġput s
l ies
Ġb ott
Ġdoc s
ĠR and
Ġthe ater
Ġcom ed
amp ing
apt ist
re ck
ĠGra ham
ĠW ind
err anean
ĠS ide
Me an
Ġinteract ing
a ui
Inv ocation
mix in
Ġ ../
ĠCh allenge
}. \
local s
per form
Ġsub stitute
Ġ{ !
Co ord
get Data
Ġsup pressed
ĠC oul
Ġmetall icity
gle w
Br anch
ĠPl ant
quant um
Ġescap ed
analy tics
P K
Ġtot ally
P a
fl ux
u ates
ĠPh illi
Ġident ifying
18 84
ĠO d
Ġb lo
ĠFact ory
J ew
Ġwith draw
Ġnumer ic
g ue
Ġw arnings
ĠAss oci
2 10
OFF SET
ĠK ur
att les
="# ">
Ġcop ied
Ġpo em
ĠS K
C odes
tem plates
st ad
Ġtrad ing
Ġband width
P ull
é Ģ
in herited
ĠS yn
Ġtri als
ĠTra its
ĠMov ement
Ġ$ $\
B in
å ľ
Ġ ì
ĠN ormal
Ù ĩ
VERR IDE
rib utions
Ġven ues
G allery
Ġsouth west
ĠN BA
ĠKenn edy
ĠSpec ifically
Ġbound ing
ĠH ero
Ġstar red
ĠHead er
v b
Ġdep uty
Ġrepresent atives
c am
Serial izable
char set
H int
TR A
m usic
ur ring
IT S
RET URN
EX P
ĠProt ocol
Ġneglig ible
ĠM ode
ch ars
hat tan
Or d
H F
ĠA qu
ĠF ont
ĠAthlet ic
Ġab elian
E ven
ĠI ce
mar ine
Ġ"- //
Ġdeterm ination
min imum
der iv
ph ot
Ġ/ ><
ĠSh ar
Pr ice
ĠTo urnament
ocom plete
Ġwe ar
ĠN ar
\ }}
18 61
Ġactiv ist
Ġcon sequences
To kens
="@ +
ĠCo q
Ġparticip ation
ĠA V
the se
Ġsee king
cur ve
ĠS equ
re ts
ĠA ld
inherit Doc
Ġaccomp any
ĠB aker
ĠLear ning
Ġjournal ists
Un ion
m ms
ĠMadr id
Ġfraction al
ĠTH REE
m ill
Ġrel ay
Ġd ocker
comp ilation
Ġinstrument al
Ġw ider
r ub
ok a
Ġemit ted
& -
b urst
] /
Field Value
ĠS elf
c odes
ore l
ĠCO MP
Ġf abric
sh ake
Ġste am
Ġarg v
ij it
Ġdisc ipl
iber n
? </
Ġstream ing
M N
Ġpeak ed
Ġsimpl ified
ign ite
P N
init ely
Ġst rain
ĠTra il
ĠNiger ia
Ġd uties
Ġhe aring
ĠMot or
Ġp overty
Ġher itage
MLE lement
Ġt ill
Ġbr ick
ĠD S
DEF INE
ĠIP v
ĠG TEST
i ot
Ġmut ual
M ov
S am
Ġm ir
Ġun usual
ÐµÐ½ Ð¸
' "
Ġan ten
effect ive
ĠS ER
ĠMunic ipality
Ġ" ");
Ġf lood
Ġcontain ers
Start ed
33 3
/ %
re ach
Con cept
S ol
fra ction
CONT RO
Ġfinal s
ĠM aj
16 9
op ing
ch rom
LE FT
Ġre actions
ĠF el
ĠGu y
Collect or
B as
Ġdeb uted
ertific ates
Ġp ad
Ġexpl ored
te ch
Ġenc ryption
em bedd
ge on
Ġval uable
B s
Ġwh ilst
ĠQ t
Text View
ĠC arn
ĠSet tings
ep he
We ak
Ġmem orial
Ġim prison
ĠPubl ished
con ver
Ġj ets
Im plementation
Ġvis iting
big gr
Ġenter tainment
ĠDis able
ĠCom plex
ĠAnd y
Ġpro c
ĠL en
Ġc f
valid ator
b ank
ĠD epend
Ã¶ r
uk a
re pre
ij k
Ġthick ness
s outh
Ġthous and
Ġ' ');
per iments
Ġclass ifier
Man ifest
ellect ual
ĠG ary
ĠPref ecture
ĠF LA
ĠM ack
Europe an
ĠS occer
Qu ota
ĠBl ues
Ġch amber
F X
om ing
ĠK os
ĠB irmingham
Ġsegment ation
ĠMond ay
it on
ak ers
ĠI C
Im g
aw t
Le ague
usal em
ev es
h int
Î »
Ġrecurs ive
D iag
) ~
)} =
Ġexist ed
spec ified
ĠDer by
Dem ographics
s il
Ġc url
math ds
ĠR O
m g
l st
Ġhabit at
A H
ç »
Ġcoast al
Ġk it
Event Handler
Numer ic
ĠM eta
ĠField s
ĠEV ENT
ĠERR OR
Ġkil omet
ĠT rophy
ĠColon el
Json Property
be am
Un its
H en
L M
Ġr id
Ġv tk
Ġ( <
Ġsil ent
Ġtown ship
ĠJ osh
PI X
e enth
b en
Ġend points
c url
t ies
ĠK an
ĠFl ag
Ġver ification
LOB AL
Ġbutton s
ĠL ess
ĠD ATA
18 81
th reshold
Is Null
mat ched
ĠComput er
duc ational
ĠB S
PO INT
Art ifact
Ġ$\ |
14 3
Ġrele g
Over load
F inder
Ġimplement ations
build ing
Ñģ Ðº
ĠB inary
). }
Ġchild hood
Ġtransport ation
M oths
Ġ[ #
Debug ger
Ġre write
Ġun used
ĠMat hemat
ĠSum mary
Initial ized
I ssue
be zier
Ġcur r
ĠB urg
TH READ
BU F
Ġinter sect
Ġsh a
ject ive
Ġinter cept
br acket
Not ice
p q
ov iÄĩ
Do ctrine
ĠW ing
Alloc ator
Ġhelp ful
r ans
ant ine
æ Ĺ
d id
Q UE
sm art
seud o
log ic
( ",
Py thon
E scape
et ype
Ġcred ited
T ITLE
m ixed
ĠD h
Map s
Ġsur prising
Part icip
Ġg arden
ĠFI FA
Ġf acing
ĠM ong
hib ition
Ġn ations
Des pite
le te
}_{ (
ĠGr an
Ġpass age
Ind ices
Ä Ł
Ġclean up
Ġc ategor
12 9
ast ery
ĠRec all
ĠG ot
Ġdest ruction
mathbb m
Ġprison ers
Ġcap ability
ĠEd ge
Ġcount ies
ĠCar ib
I o
Ġt ie
Ġcontinu ity
Ġco us
urrican e
Ġo ps
C op
p ow
(" [
Ġdiver gence
n r
Ġg allery
Ġart ificial
}} }{
Ġc arrier
Ġbright ness
gu ard
CHAN NEL
Ġdefault Value
ĠM icro
Ġin cl
Ġreli ef
ĠB asketball
form ula
im eter
Ġcelebr ated
x hr
20 4
Ġadvert ising
Ġaccess ed
ĠPort land
M ot
Ġcard inal
ĠC ass
Render ing
ãĥ ¼
15 2
ĠJohn ny
Sp anish
Ġin ternet
Ġcon front
Ġbusiness man
child node
ĠK ath
d h
our t
Il legal
ĠSt yle
superv ised
Ġtrans it
ĠSim ilar
Link s
ĠAthlet ics
und a
ElementsBy TagName
ĠT one
}^{ (\
os ph
ref ox
tog ether
lection s
ij ing
app oint
D AT
{ }{
Ġexhib its
Al umni
ĠNot ice
as io
g uid
Ġdig it
ENT ER
display math
Ġlock ed
Ġphenomen a
Ġuniqu ely
ĠInst all
ĠB illy
ool s
Ġsym plectic
ĠN ad
W W
Pl us
g un
Ġelect rical
end ers
e i
s ocial
ĠDel hi
18 82
ĠL oop
Ġstay ed
In spector
Ġvess els
Ġbeh alf
Ġb ubble
qu ark
Ġlog s
Ġdefe ating
Ġin equalities
Ġad mit
~~~~~~~~ ~~~~~~~~
op les
Ġelect romagnetic
custom er
D ao
Ġb ins
ĠP il
ĠE s
sk in
ĠThe ater
al is
tr as
ĠL GBT
Ġoptim ized
ĠVal ues
Ġf oss
L F
Ġexpl oration
Ġst em
ĠNaz i
W ords
Ġmanif olds
itud inal
PROPERT Y
em b
Ġp our
ter min
SE CON
at um
ur u
Kn own
B G
TE MPLATE
Ġcloud s
Ġext ensively
' =>
FA I
ex c
Ġregular ization
Ġradi i
ĉ ĠĠĠĠĠĠĠĠĠĠĠĠĠĠĠĠĠĠĠ
az el
ĠT ower
w av
Instance Of
ĠA I
ĠP in
** *
n or
ĠI mp
Fin ished
n ested
z es
Ġfor th
Ġmed ieval
Ġin jection
i est
Trans l
us ive
ĠD ocker
Ġhe ating
T ING
FE ATURE
in crement
ĠI an
)\ ,\
Ġo l
Ġsingular ity
ĠMatthe w
Ġt ract
Ġdis ks
Ġr ings
Ġcarri es
ut o
Ġdef ence
å ¼
Ġspirit ual
Ġrank s
Ð° Ð»
S V
W T
Not ify
M r
Ġx si
AL LOW
Ġperm utation
(" -
Name Link
Ġd f
Ġal ive
ĠG un
ow ed
ĠM ET
om at
ID S
query Selector
indu ced
h dr
ĠStud y
Ġprov incial
N s
O ps
Ġexec utor
w heel
ch itz
' =
su ite
Ġpart ly
en berg
~ {\
om on
ĠR oll
Ġne uro
ĠAll oc
ĠDefault s
Ġ( {
Ġw orse
ĠCarl os
sp ir
dr iven
el ist
the y
M obile
Ġaccept s
ĠS witch
ĠClass ic
18 75
Ġcomp ound
Ġgr an
Ï Ĥ
ĠP av
18 62
DE CL
olic ies
miss ible
Ġre vision
S pring
ĠB ey
Ġ ].
Null Exception
ĠG T
m ong
ĠWay ne
ĠB ron
Get String
Ġgen re
18 63
Ġo cean
ield s
Ġg raphics
ĠMov ie
Ġext raction
ĠW restling
Ar n
ater al
ĠY ugoslav
file Name
respons ive
St mt
Ġg host
if ted
est imate
olog ically
18 83
ĠH orn
Ġres ort
it ime
ĉĉ ĠĠĠĠĠĠĠ
18 00
ĠCat hedral
rel ax
P ub
20 2
Ġwh atever
U i
ĠN ation
ĠCON FIG
lim ited
Ġm issions
sw er
Ġs pr
Ġinit iated
ĠOb ama
Ġnucle i
U INT
Ġw ra
ĠL ud
Ġoccasion ally
N Unit
m ates
Ġin vert
Ġgeodes ic
ĠB ible
, "./
ĠCh apter
r ically
Al bums
Ġguitar ist
IT ER
ĠP ART
Ġreserv oir
ĠS ql
Ġsu icide
Ġo prot
ĠR elease
Comp ile
mon itor
H ol
ator ial
Ġmanag ing
Ġorient ed
napsh ots
Ġshif ts
Ġh ospit
MA KE
Se ason
ĠSet up
Ġann ih
Ġ Ø§
Ġt ub
Ġpoint ing
Ġaff airs
Ġcontribut ing
Ġsh allow
Ġrom antic
S ibling
-------- ---
f aster
urs day
d ummy
"> &#
Ġcap s
Sub mit
g row
Ġcut off
UD ING
ab ort
Ġag es
Ġc odec
ĠW i
ĉĉĉĉĉĉĉĉ ĉĉĉĉ
u u
-------- -
ĠPro of
ĠEv ents
Ġ* */
ĠG reater
ĠThe ory
am pton
Ġsp oke
Ġt icket
Ġcons iders
å Ľ
ia o
. ),
Ġdiff ers
[ ^
Ġâ ĨĴ
v ectors
LOC AL
at ches
ĠAp pe
Ġproof s
Ġ' ../
Ġfavor ite
M X
ĠK ind
ĠLeg end
compar ison
ob server
C AL
Ġinterpol ation
J ac
Direct ive
Ġr ising
Ñ Ħ
× Ķ
Ġdr ugs
" </
Ġcor rel
+ |
Ġ\ }$
ĠS ample
< >(
R ay
integ ration
ĠUn iversal
Ġs ympt
Ġsp ending
Ġt orn
ĠJ azz
ĠAnd re
Ġv oc
Ġart istic
t own
Ġw ine
Ġgr am
Ġh orses
normal ize
Ġ/ ></
AS K
ĠInd ians
ĠYork shire
g ui
Ġafter wards
Ġforest s
ĠP rior
Ġnewsp apers
Ġ$- $
Th omas
Ġperson ality
Ġhe ap
Ġsuggest ing
f ollowing
16 5
ac a
ĠTig ers
rip ple
s olution
Ġweek end
Ġcompan ion
Ġam pl
Work space
set Value
=- =-
Ġsequ el
Ġinflu ential
ster dam
Ġmoment a
ĠWith in
ĠOper ations
Ġattract ed
un used
ĠB SD
ĠF ab
g ro
Ġb oot
ĠâĢ ¢
iv ities
ĠR CC
Ġvol atile
Ġcom fort
re try
R D
Ġav ailability
Ġlog o
Ġt ort
st ation
an ne
ĠS now
=" '
Ġm k
mes h
^{ {\
Ġtim ing
il ty
Ġa z
ĠNov a
get Default
Ġpar ad
2 25
Ġb eta
h dfs
Ġd ummy
Ġc ash
ĠR ole
system s
m is
pp ers
IL L
Ġaim ed
ĠâĢ ł
ĠM E
Ġse q
Ġoscill ations
O h
Ġc urrency
Ġcomm une
f olk
ĠN icol
ĠCh ron
Ġacqu isition
list en
og ue
Id le
and box
PAR AMETER
ĠB orough
15 00
Ġsubt ract
ac les
B ot
ad ers
ĠR u
ak u
comput er
S ocial
host name
% );
Ġpriv ile
lot te
ĠCO MM
Person nel
ĠMit chell
Ġ ib
Ġsound s
* {-
en h
ĠC OP
ĠWar ren
18 78
DEF IN
Ġanalys es
V IS
Ġfrag ments
ĠS F
char At
Ġhor ror
ĠPo inter
Ġcon current
Ġp ersist
sw ift
p w
Ġpl acement
ĠV erm
Pre view
"> {
Ġsp oken
: .
Ġp ictures
nes day
h ire
Ġpre dec
13 3
s amp
Pay ment
on na
ĠR ap
Dec or
Con tainers
F ebruary
] _{
Ġaff ects
Fl ush
Ġput ting
ĠY e
0 10
ĠR ing
Ġback ward
Command s
ĠH ope
Ġ) :
ĠArg s
ĠC lean
Ġestablish ing
Ġw onder
ic z
ham mad
Ġfund ed
Analy zer
Ġex ha
ĠAct or
Ġappoint ment
ĠEm pty
off icial
z ym
Ġ/ ^
ĠV I
ors ion
Process ing
Ġtr acing
ĠGu inea
o ct
Ġqual ifying
ĠM enu
ĠO O
ĠW a
] _
ut r
Ġreput ation
B and
ev ed
Ġm il
Ġpre gn
Ġobserv ational
Ġh i
vious ly
HEAD ER
/ ************************************************************************
Ġp reference
ĠBar ry
ic ulture
Ġp ian
Ġcomm em
Ġext inction
Ġo xygen
ID s
h it
Ġqu oted
Ġassess ment
16 4
Ġfilter ing
Project s
r us
Ĥ ¬
Ġbi ological
y ellow
à ¦
d ing
ATTR IBUTE
14 2
ĠFr amework
Ġout flow
Ġemploy ment
OUT PUT
ĠV a
Ä ħ
Ġswim ming
Ġb ird
ĠF ine
Ġful fill
Ġmag azines
Par cel
ĠArt icle
Ġinn ov
Ġsup ern
get Parent
Ġbr ings
Ġsqu ares
h c
sh ot
ĠP H
Ġsp acing
ĠDef ence
ĠGL uint
r int
x a
ol ation
Sh ard
Ġda ughters
ĠChar lie
Ġfiction al
erv ation
ĠBroad way
× ª
Ġcomp ressed
Ġs av
Ġdeg ener
Ġplan es
ĠSh adow
ac iÃ³n
ĠSm art
Ġp ushed
Ġcross ed
ĠPier re
ĠF riend
Ġsequ ential
Prop agation
22 4
ĠConf eder
Orient ation
Ġl azy
ĠCr icket
access or
ĠU ri
. #
> ()</
Ġfil med
ĠN ature
ĠNorm an
R F
Ġm ountains
ĠSerb ia
ĠRuntime Exception
. (*
Ġdepart ure
Ġrep air
Ġterr itories
Ġlat ent
Ġ\\ [
it is
Ġb acter
REQ UI
grad uate
? )
ĠH old
Prop Types
Ġcorpor ate
& +
ĠElect ric
add itional
Ġimprov ing
Ġflow ers
ĠM eg
ĠA y
ĠR ank
re vision
N ING
ĠC ultural
F ACE
io let
Ġex clusively
qu arter
S om
d g
ri er
Ġre venue
pret ty
Ġneighbor ing
D ynam
Ġspec ifying
\, $
H it
ĠF err
Ġvess el
Ġb orders
Ġhom omorphism
ĠGlas gow
Ġindex es
r aska
Ġout standing
Ä Ļ
hen g
big oplus
18 76
ĠDes cribe
Ġdip ole
ĠV ancouver
ĠJer usalem
ENABLE D
sub Nav
xx x
d eb
+ -
ym p
ĠP NG
ĠA the
ĠB og
ĠW olf
ĠO cc
os hi
Ġmod ular
ig s
ĠA ug
rot ation
Ġfocus ing
Ġinvolv ement
p ine
oth y
Ġcontin uation
( %
; "><
Ġgen etic
ac re
ĠSt re
Ġev olved
direct ive
bal ance
Ġun safe
l ua
Im p
7 50
c ourse
or ia
O s
n orth
ot er
TR ACE
ĠAfghan istan
ĠV M
Attr s
ĠCl ar
che str
Ġax es
Ġal cohol
per formance
Ġviol in
ext ype
T ARGET
Ġd ated
root Scope
Ġt ension
Ġass ass
Request ed
so und
bour g
ĠU INT
ĠMed it
al ks
Doc s
st reet
ag h
ĠP ic
> }
}} -
Fr ag
Ġdifficult ies
F ore
ĠS even
++ ++
Ġcomput ations
u cc
Ġpar ity
r idden
fig s
cell color
Ġm as
Ġel der
Cal cul
Draw able
Ġpo ets
ĠC M
em a
Å Ļ
Ġb igger
Ġlogarith mic
ĠSh ape
Ġal i
Un ity
> -
Ġdanger ous
ĠPr adesh
r w
FO RE
ĠStruct ure
tra its
ach i
win ning
Ver b
ot ton
Ġr v
Ġtra iling
Mut ex
ĠH RESULT
Ġrel ies
vis ual
ĠMag ic
s uggest
Ġdiagnost ic
Ġcolle ges
av i
ĠSal v
Ġw inds
Ġst y
ĠCommunic ations
) }^
Ġp ersistent
Ġnom ination
ĠP attern
Key board
exception s
C LO
s ymmetric
) /\
CO RE
em e
Ġan onymous
18 79
Ġking dom
Ġelect oral
ĠW alk
ĠPol itical
Ġenumer able
ĠP arent
ues day
Ġs ax
F all
Ġfor cing
Ġg ay
E t
Ġbe ach
}$ $
hand ed
Ġro uting
ĠL iving
inherit doc
Ġpart itions
man ifold
at z
CK ET
ĠAlex and
W ire
Ġ$ -\
}} +
> ../
M acro
C LE
Ġcontinu ously
U DE
ĠB OTTOM
war z
@ {}
FAI LED
ä¸ Ń
p oll
andid ates
Ġtw ist
Ġsw ap
ĠL ocation
iss a
m art
Ġw et
cut s
load s
elf are
Ġminim ize
> ",
Ġsurv ive
18 67
ĠPark er
rit ic
P ad
Ġh arm
T W
ĠM all
ĠCall back
Ġdiv ide
( ',
ĠTh ose
Ġguarant ees
read cr
sc ar
Ġfile Name
im o
is Function
ĠMic hel
Ġmoder ate
Per formance
ĠR ick
Ġdig its
rec ords
Ġh older
ĠE li
S el
Ġh ip
Head ing
ĠR oot
Ġr uling
^{ *}
Ġqu ote
Ġd owntown
Ġdis placement
cel ona
Loc ator
M id
Ġco in
Ġag rees
13 1
Ġprov iders
ĠMil an
ĠĠĠĠĠĠĠĠ čĊ
13 6
ĠA zerbai
ĠR angers
T ake
ĠSaint s
K K
20 8
Ġco oper
Ġvis itor
ĠST AT
Ġmon ument
: /
Ġ erg
Ġins urance
op al
if le
Ġent ers
Ġdecl ined
C li
T reat
enc oder
mention ed
ĠC ant
qu is
ĠProf essional
ack now
80 80
er k
ĠDr ive
ar ations
v irt
With Error
B uilt
G I
aj a
pon t
bad ge
Ġemerg ed
Ġdwar f
an ta
ST D
Ġtool tip
Ġelev ation
ĠBen jamin
l ane
d iction
ay er
Ġs oph
ĠAl bum
olut ely
Ġpat ent
get Logger
request s
Ch arts
Ġsup plies
Ġident ities
Grad ient
ier ra
\\ \
Ġvari eties
rep resentation
requ ires
Rot ation
Res olution
B AD
Ġspec im
4 000
ĠM ans
Ind ent
Ġinj uries
[ {\
Ġefficient ly
ĠPr iv
ĠÂ ©
em ed
">( </
uch i
UP DATE
Channel s
D ocker
St e
ĠAdd itional
Medal ists
Ġdevelop er
Ġphot ography
at che
Ġor chestra
Ġo c
ĠRE AD
Ġamong st
Pod s
D ER
( $\
ĠM IN
Ġas ks
de ploy
e ctions
FUN C
ĠFinn ish
tr on
13 4
RE C
ĠR ect
Re plication
Ġing red
CONT ENT
empl ar
st ock
m ir
Ġup dating
itar ian
p aint
ER Y
ĠSp irit
Cent ral
Ġsp ark
roll ers
ĠMan hattan
Ġf ishing
Sl ider
' }),
Ġas king
Ġsk ew
Ġpreced ing
ub les
ĠSh a
ĠA ST
M ULT
s cheduler
' </
ick ing
Ġphys ically
ĠF alls
add er
Ġadj oint
Ġ[ (
Ġthreat ened
par er
K ing
J O
ĠAl aska
Ġm illiseconds
max imum
Ġrot ating
ĠJ ama
Ġport ions
p el
Ġt et
plement ary
ĠA pi
")) );
hel m
ĠSong s
widget s
Max imum
Bal ancer
sl ug
Ġsimpl er
ak en
m ade
ĠBelg ian
Ġtr aces
Ġcl im
Ã¼ n
e igen
Ġfeel ing
al ex
}$ ;
P t
Ġvari ability
call s
'' .
Ġke eps
ĠCre ated
ĠSy ria
ĠM is
Ġleg s
Throw able
Ġp ag
ir s
ĠArch ive
Ġ )\
Ġvot ers
et ta
ĠC atalog
ĠHun ter
ital ic
S uggest
Content Type
Ġspe aker
Ġmeet ings
pay ment
eff ects
al ways
SE C
P in
ĠU g
MO VE
ĠÐ ¼
OD Y
Und efined
equ ate
Ð¾Ð ¼
ol ia
ĠRich mond
Clos ure
Ġwood en
P FNGL
ĠI van
ht bp
13 8
go al
umin ate
f und
st ri
Ġas ymmetry
18 77
Ġmathemat ics
Ġ} (
set length
ips chitz
ela ide
ĠNev ada
\ .
to k
ens en
ĠCarib bean
" +
\| _{\
C AN
Ġab b
M iss
Ġc able
ĠC T
cap acity
Ġh ooks
Ġ" {
DE P
Ï ħ
Ġsurv iving
Y es
ĠP ow
ot ions
stats models
Ġprelim inary
(' \
Ġ{? }
ri el
res olver
Ġout comes
(( (
}} }}
ĠT u
Ph oto
ĠComm ons
Ġc rypt
ĠPl ugin
ĠL E
ĠJon athan
Ġcontrovers y
ath on
ne e
ĠL uther
Ġan notations
Th ird
sc opy
oph one
ĠDemocr ats
14 6
ath ers
x t
ĠPar ish
NOS CRIPT
18 71
Ġsummar ized
cred ited
Ġpo ems
str ategy
Ġsubs idi
Ġpop up
Ġconsist ently
Ġsquad ron
ĠEn um
o ft
Ġsum m
l tr
S uffix
Ġt ar
ĠOr ange
ivari ate
Ġrest oration
Ġan not
cre ation
x rightarrow
Ġsimple st
constraint s
Ġpod s
Ġz eros
Ġsynt hesis
ĠSet ting
S ir
ĠV as
Recip ients
hand lers
ĠTrans itional
cel and
ĠElement ary
$ =
] ",
ĠAn aly
D K
b et
ĠD ays
ub a
Str ip
Ġrel ating
L ou
in ement
z eg
ĠR acing
H o
http Request
he alth
Ġreconstruct ed
Ġc ul
Ġcr imes
å ¯
Ġw idespread
U uid
18 68
Ġob st
cor relation
elect ed
Ġun changed
ĠU P
Un marshal
ga uge
opt imal
ĠT ax
Ġor ange
------------ --
ĠF ish
Sl ide
W ITH
ext ended
Ġdis cret
CT L
N L
ĠGal actic
ide a
Ġsem antics
Ġill ness
oo led
agg able
ĠSte el
Out Of
Ġspecial ized
ĠLay out
g m
v est
position s
H a
Ø ³
Ġhistor ians
Arch ive
Ġ" </
get Current
see k
Com posite
B ob
ĠFl ore
Ġportray ed
Tax a
Ġrecogn ize
ĠTh or
Ġqu iet
Ġres ize
âĢ ĺ
? âĢĿ
ĠD J
}} ^{(
Ġtra p
Ġdes ire
W F
ĠP AR
Ġsearch ing
Ġconjug ate
lic es
comp ass
Ġenjoy ed
Ch ars
ĠF ather
Ġt ube
\' {
Ġfeas ible
iv ic
ĠM ind
Ch oice
W ell
Ġpro spect
Ġtransform s
ĠPer u
od ic
fl ash
Exp and
Ġse aled
first row
it ure
Ġsurvey s
Ġr ide
ich i
Ġt act
Ġmer ely
W il
r ac
om p
ĠDirect ory
ĠBar bara
Ġele ven
Ġste ep
Ġweap on
ĠP le
ĠB ot
ĠN ASA
bor ne
Ġag reements
An n
Ġencour aged
ct ree
R en
x d
UL AR
ĠF itz
13 7
ĠValid ation
ew ise
x FF
Ġradi ative
ĠJ enn
Ġchampionship s
ĠF ly
Input s
ph on
ĠT am
> =
GEN ER
h m
B ooks
18 72
Ġadult s
Ġhomot opy
ĠS id
ĠLink ed
ĠAlber ta
M or
ĠS outheast
Non Null
um i
Ġun set
ĠAss istant
ĠC BS
Fl ora
] <
13 9
ĠEgypt ian
ab atic
rec ision
ĠAd vanced
Ġpack ets
Ġb undles
Int Ptr
LA S
ĠL yn
Ġ// -->
b ie
Ġar ithmetic
ĠL is
min a
comp iled
) ];
ĠA rr
Ġqu bit
' (\
S to
US H
ĠF reedom
B inder
"> '
T ON
ĠC ell
ĠE ug
ĠDr agon
ĠC ategory
Ġtensor flow
Ġwalk ing
ĠV egas
Ġconver ge
w b
el m
In c
Ph ysics
Hon ours
Ch o
ĠKe ep
ĠColl ins
Con nections
Ġb io
Ġf iring
hem atic
Ġvar ied
u eto
ph oto
Ġmer chant
ĠFI X
ab bit
l v
Ġcorrect ed
18 74
Ind eed
BE GIN
Ġg ates
it ro
ĠF light
EMP TY
Ġt c
Ch rome
log ical
Ġinfer red
op edia
ĠWh y
ĠHawai i
G H
n atural
ĠA f
ĠR ace
Ke ep
tra ined
ĠK ap
g res
Ġtalk ing
ins ky
Ġfall back
ĠB und
Ġmunicipal ities
g mail
11 11
Ġcontrovers ial
Ġindex ed
ĠPro tection
Ge o
Ġcoinc ides
r p
s aved
ent i
P LAY
Ġant icip
he art
Ġexped ition
Ġp sy
Ġgl uon
B tn
int ent
Ġar ising
rele ased
Ġrad ical
Ġsurre nder
nos cript
z render
ond o
Ġreg isters
ĠFle et
ĠF un
ĠPro test
Ġ rib
ĠS L
}] \
av g
ĠG round
ĠP ra
ĠR oom
ĠCom ment
AT IVE
un i
V ersions
job s
ĠX XX
Cal c
Ġt on
ex change
ĠC ole
AR GS
det ect
OP ER
ĠS ah
`, `
Te chn
o auth
Ġ urg
Cre ator
l ists
tag Name
"/> .
ĠD ol
abul ary
ĠM other
ÑĢ Ð¸
ĠMedit erranean
ĠTrans form
= _
i at
n able
å º
Ġh int
ĠB achelor
ht b
initial ized
ĠCurrent ly
with in
os c
Academ ic
Ġrot ational
ĠTurn er
K ar
Ġcross es
ĠH AVE
ĠW E
Ġbrows ers
am ination
M ont
Ġtyp ed
ĠRel ations
st orm
18 66
M ale
ĠH udson
M Q
}) :
ĠS eb
Ġabs ent
Ġthir ty
ĠĠĠĠĠĠĠĠĠĠĠĠĠĠĠĠĠĠĠĠĠĠĠĠĠĠĠĠĠĠĠĠ ĠĠĠĠĠĠĠĠĠĠĠĠĠĠĠĠĠĠĠĠĠĠĠ
ĠC ob
Ġdoub les
ĠVictor ian
ĠColomb ia
CL IENT
orient ed
ĠJ en
prop ri
Number Of
}}\ \
Ġseem ed
ĠSerb ian
ĠH O
b an
ĠY u
L com
Ġ ÑĤ
am ine
Ġdist inction
ĠH indu
Ġmode led
Ġd ash
inter action
FAIL URE
ĠG arc
P en
ĠÐ ·
ac ements
Ġoffset s
styles heets
ĠRoman ian
Ġnucle us
Ġmin isters
uss ia
e eq
Ġcaref ul
Ġsold ier
press ive
ĠPhil osoph
ĠCont roller
Ġformat ted
ov an
umul ative
W ild
Ġacqu ire
; %
G D
re newcommand
Ġsp ins
Ã¡ s
Ġconc aten
ĠCr ime
Ġpul led
iffer ential
ĠEx ternal
DE V
ĠD rop
om i
ADD RESS
sup ports
Ġaccur ately
ĠHarr ison
ĠMean while
con sum
Ġ iv
ĠP aper
N EXT
| .
ĠW R
ĠSu ccess
Ġcoinc ide
c ov
d ijit
ĠUrb an
-- )
Ġfl u
ĠDE BUG
Compar ator
Ġearth qu
Ġ( ).
Ġu uid
row Color
ache l
Ġdeg enerate
Disc ography
ĠExec ute
Index Of
Ġover lay
ovak ia
Tool bar
ĠRE G
is co
ĠS eg
ĠSt atic
ad os
Dis pose
dim s
S eed
ent ine
Ġear n
enu ine
Pr incipal
H AS
ĠW as
CP P
Spe aker
ĠV el
Ġun likely
Ġover head
ens ed
led g
inc inn
Ġactiv ists
ĠCub a
P TR
p ip
her ence
w al
Ġnom inations
Disc overy
Ġgr adients
Ġhead ing
16 6
ĠCon struction
ĠWar ner
TO KEN
() }
Rec ogn
ĠE ston
Ġrare ly
ĠN BC
Com ments
Ġembedd ings
Ġsimpl ify
S ys
Ġmot ivated
Ġsuff ering
Ġb es
ĠCh ern
Ġcontrad ict
Ġadvers arial
g om
ĠRober ts
18 40
Ġmed als
New s
G LOBAL
Qu ick
ĠH unt
ĠInd ustry
Ġf inger
ri x
ĠCommission er
ĠU TC
Ġw ww
ueto oth
can onical
Ġconj unction
Ġann ually
ĠN N
ever se
Ġbeg un
Ġagric ulture
Ġd uplicate
Ġsupport ers
qu ire
aver age
Ġt ur
Ġg rain
}, {
Ġw ings
Ġref uge
Ġlabor atory
ĠDo es
\!\! \!\!
ĠT itle
Ġe ighth
ctx t
ĠMu hammad
IS O
opt er
Å Ľ
St roke
ĠT ypes
18 73
:: ~
ĠV ic
ĠOver all
A RE
ĠB lood
Î ¼
ine e
ĠCl inton
Ġcomple ting
Ġatt orney
h uman
ĠK ub
> ";
ĠSk ip
ĠBe ijing
n v
Ġgovern ments
H EL
M el
ro oms
18 43
ĠD NS
Ġd ub
Aut hent
Ġintrodu ces
sc atter
it atively
Ġsus cept
enn ial
ĠTerr itory
b age
ĠJ a
Ġmon arch
ĠBer keley
p v
l ift
Ġpre dominant
ĠRob in
Ġn eck
Ġexper ts
ĠS ay
- {\
c ook
ĠT it
Ġhon our
Lin ux
b ibli
Ġsim ulate
match er
}} +\
ĠCol lect
Ġneutr inos
Ġg ard
ĠTr igger
Ġcalcul ating
jav adoc
TO P
Ġaver aging
View port
g tr
ĠD raft
Ġadd EventListener
Ġd rew
faster xml
Col ors
ĠM es
ĠGL sizei
uc lear
ĠS NR
con e
Enumer ator
ĠB eck
Ġoper and
Ġdiv isor
Ġam ateur
Ġjud g
Ġg olf
Ġmain taining
Ġlaw yers
Ġcred its
Ġas ynchronous
ĠRes erved
Ġtw in
Ch at
L aw
s uffix
Ġobserv ing
Char les
Ġparliament ary
Ġsum s
Ġke V
progress ive
ain ter
L ittle
Ġvis its
}} _\
ĠGi ants
on aut
ĠM ail
}, \\
Ġmatch er
G i
Ġco res
apt ers
c nt
ĠVo iv
sing ular
Ġarchitect ural
Ġstrugg le
m ot
log s
Ġneighbour hood
q ed
ĠTra it
ĠPhilipp ine
Ġcommut ative
ĠT ed
ĠL ad
Ġobtain s
Ġm or
Ġpre mi
Ġfor wards
ĠFr ame
Rich ard
Ġcomment ed
ĠH amb
back up
' /
f ade
Ġl ingu
): =\
à ¹
Sp atial
ĠOl iver
car ousel
IF Y
ĠMuslim s
( <
Ġv acc
ĠCamp aign
incinn ati
ĠS creen
b ian
Ġg all
ĠAd miral
ut a
Ġneg lect
ut ors
Ġshe l
Ġc v
Ġb ic
Ġ' :
Ġdon ated
r ust
thread s
L ess
ĠSt ill
term inal
Ġdise ases
CAC HE
c id
Ġ* **
U tility
ĠH ann
has Class
L ANG
WIN DO
FIL TER
Ġh at
Ġdual ity
Play ers
inter faces
Ġinit With
rec v
Ġd Ã©
ĠSer ge
ĠBr istol
N AL
N ever
Key Value
ocr acy
is se
Ġh ack
Ġdet ectors
Up dates
Ġblock ed
F iction
Ġp kg
Part icle
Start ing
Ġswitch ing
ĠForm ula
Ġgoogle api
Ġunder ground
Ġconsider ably
cknow ledge
Ġjourn als
ĠC el
ĠY am
Ġtab index
L ex
Th m
Ġsingular ities
Ġen velope
En ergy
col s
ĠIran ian
Ġcons ensus
Ġrenormal ization
Ġglob ally
R oll
exp anded
Ġsole ly
Ġ ));
ĠC hel
track s
Ġtal ent
ĠW ik
Ġm im
ĠNeb raska
Ġeffect iveness
has Next
w br
Ġk lass
Component Model
mid t
ĠT un
Send Fields
In crement
ĠAm sterdam
ta ken
El se
Ġ\, .
EX CEPT
Ġbr acket
ĠB uch
ĠNot es
on ing
ĠB right
te enth
ĠJ oy
Ġon click
Ġcon gress
^{ [
reg istration
Inter op
em p
Ġcurrent s
Ġconv icted
, }
pos al
ee per
odes hip
Ġserial ize
ir able
conf irmed
ĠSym phony
ĠI Enumerable
ĠL loyd
ag ar
2 32
ibern ate
ĠC ONT
ass y
Ġob ey
ĠB omb
ĠN HL
Ġconnect s
ĠSt ra
user Agent
Ġfail ing
ĠPr ice
Ġm anga
ĠM ason
ĠAd vis
l azy
18 69
be havior
$ }\
ĠF oot
amp a
Ġpair ing
Ġscr atch
ĠJ ar
ĠG rey
ĠW eyl
ĠHel per
en os
> *
ĠL iga
Ġoccur ring
Def unct
Ġ( __
Ġcon fer
Ġr is
H ung
Ġclaim ing
Ġimport ed
ĠVin cent
open ed
ex emplar
Ġinflu ences
Ġw aste
comm ut
ĠVis it
[ @
ĠâĢ ¦
w m
Ġ( +
Ġref ere
M ATCH
\ ",
Bound ary
Ġthe at
Ġout break
Ġvict im
Ġper cussion
Ġadjust ed
Ġ ic
uls ion
Ġreflect s
Ġs ectors
Ġtr uly
ĠĠĠĠĠĠĠĠĠĠĠĠĠĠĠĠĠĠĠĠĠĠĠĠĠĠĠĠĠĠĠĠ ĠĠĠĠĠĠĠĠĠĠĠĠĠĠĠĠĠ
Fig ures
H ot
ct ype
Ġprote ins
Ġwor ship
f ixture
Ġag gress
Ġred sh
ener ated
Writ able
ĠSw ift
Ġconf licts
VAR I
Ġed iting
sin h
SH IFT
ĠB rew
ĠKir k
ĠTog ether
ser if
Hash Code
Ġstop ping
ĠP ast
Ġcontext s
NE SS
C riteria
ĠĠĠĠ ĉ
Ġf illing
ĠC u
cred entials
Ġt um
jb oss
Ġorig ins
Ġtempor arily
Ġf atal
ple t
Ġ ))
Ġres ident
pon der
Ġh ub
Ġtrans ient
Ġdem ands
ĠY uk
Ġend emic
p ersistence
SE D
ĠBar celona
h or
ĠP rep
/ ,
ĠCOP Y
W P
ĠM yst
oth ic
- ">
ĠCh and
as ia
ref s
ĠV lad
ĠU SS
ĠBuff alo
15 1
ĠĠĠĠĠĠĠĠĠĠĠĠĠĠĠĠĠĠĠĠĠĠĠĠĠĠĠĠĠĠĠĠ ĠĠĠĠĠĠĠĠĠĠĠĠĠĠĠĠ
ĠArt ist
H A
R oyal
}] $
Ġs aving
ost ream
Ġtrans mitted
Ġk ids
State Exception
r in
ĠNichol as
ĠS audi
um bs
Ġprom ising
ĠAd elaide
Fr ank
Ġcous in
Res earch
Aut om
x l
cos h
Ġdemonstr ates
enc ia
yst al
CON TEXT
tr unc
Ġremark able
autore f
Ġ ions
ĠS eq
iz a
et e
ex e
ĠL ate
as List
Ġven ue
Ġins ight
min or
ĠS oul
c rypto
Ġwork space
ĠK ol
ĠY ES
ĠM ann
20 5
Ġel abor
}_ +
Ġtarget ed
ĠAct ivity
Ġsynt hes
Ġ" *
sp arse
Ġl ap
00 4
Handle TypeDef
Ã ī
ĠC row
R x
} ',
Ġm a
Ġactiv ated
XML Schema
ym atrix
ĠAnt ar
ĠPho enix
sup p
ĠMod al
ur ated
ĠFr ances
e V
sort ed
m issions
d eps
Ġcab inet
ĠW u
sub t
Inf os
Read Write
Ġprint ing
ing e
Ġdocument ed
Ġfor get
Ġin ert
"> ,</
Ġdeb t
ĠLIMIT ED
20 3
Sort ed
S en
Ġg od
ĠB row
I OS
j ab
ĠT ang
DE SC
ĠVoiv odeship
Ġpro tests
Ġassert False
Art icle
Ġb aby
Ġtri angles
Depend encies
as ant
ĠC le
fr amed
ik es
Ġex terior
Ġsign atures
ew ay
IP S
su it
), (
Ġn m
Ġget ter
Ġtransl ations
Ġexam ined
BIT S
Ġb ag
SQL ITE
al go
ĠFac ulty
M gr
el n
Ġperturb ative
Ġl d
Ġl oyal
Ġover come
ĠK un
vert ices
ĠPr im
Ġanom aly
Ġocc urrence
Ġmar ry
Ġpreserv es
a head
cos ity
Ġsurv ival
am en
Ġinter fer
Ġlast ed
ĠS ak
}} ;
ev olution
typ ed
At omic
S dk
14 9
}$ ),
Ġcas ual
Ġview port
n ecessary
Ġsp iral
sh ader
Ġact ed
in ology
Ġto u
publ ish
Reg Exp
ĠChrist ians
Un supported
rec ogn
ĠB orn
Ġref erring
IS H
ol en
ĠE S
pend icular
rece ive
Ġdescri ptions
}{ $
($ _
map per
ĠC lay
eng u
ĠCan al
b ird
ĠArab ic
Ġdisestabl ished
f erm
Ġvol can
Ġlocomot ives
CA SE
P eter
Ġrepeated ly
15 4
\\ [
Ġalloc ate
Ġcle ared
ar as
ĠT ol
diag onal
V ars
So ftware
v ik
AB C
Table Name
calcul ate
Ġre nd
p ause
Ġr b
Ġover se
Ġapproxim ations
aw esome
Ġuse Capture
Ġelse if
Ġdoub t
t one
ĠRe ce
member Of
Ġinc idents
Ar c
Ġind igenous
15 8
G overnment
Ġdebug ging
r if
Ġexpect ations
ĠAPI s
Ġobvious ly
Ġoccas ions
ick en
A mb
Ġc oding
ME DI
ĠF unc
Ġsent enced
CT OR
ĠLiter ature
Ġreg ulations
ĠP atch
current Time
Ġpass phrase
Ġchem istry
) ~\
Ġsk ill
LI ED
ĠP D
T w
ĠGon z
c lo
Ġreported ly
conv ex
Spec ific
B ODY
Ġsus pect
Ġinn ings
Rep o
Ġdis ag
Ġstrateg ic
hom ogeneous
Ġi prot
Scal ing
ĠSh aw
2 64
ĠB uilt
Neg ative
ak ov
dis pose
RO WS
k ill
Tool tip
Ġl ying
e ign
Ġdef ect
V s
Ġgrad uating
ĠC ox
ĠB P
Ġun e
g as
Ġsub graph
Ġdecor ated
L y
in fra
aut hentication
Ġnull able
Cur ve
Ġminor ity
gener ation
Ġbeaut y
Ġdr ift
Ġenc rypted
ĠCost a
ĠB aptist
30 4
or um
p iece
}) ^{-
Ġart illery
eval uate
single ton
P rior
al am
Ġth orough
ij i
harmon ic
Ġimplement ing
c ern
. &
Event Type
B IN
ĠL ex
fav icon
up port
font s
ĠCom plete
oc co
ob e
At A
play ing
Ġelectric ity
Ġwill ing
ĠCl iff
ĠB UT
Ġbr idges
Compiler Services
ĠS EC
do jo
ĠAtt orney
H am
ĠL ions
con tribut
Ġcyl ind
} ")
Ġwe aring
A wait
I Enumerable
ĠCoul omb
ot ypes
ĠB ath
ĠHe avy
alloc ate
to Array
ys elf
F old
sole te
ĠSpr ings
Con clusion
ĠÐ ±
Ġdem olished
}\, ,
A thlet
ĠH orse
14 8
P reference
ĠP sych
Pl ain
L ear
c ence
ex plicit
if th
Ġinfra red
Ġbroadcast ing
M i
g ls
ro at
Ġ ------------------------------------------------
Ġw er
ent e
b os
Ġsepar ator
Ã± a
Ġd ots
Ġquant itative
Ġswit ched
Ġ\ '
Ch inese
ĠGo String
Ġf antasy
ĠP el
ĠPro duction
{- }
ĠA SC
ist ani
Ġi OS
equ ivalent
uck land
L IMIT
Ġp b
Ġyoung est
Ġcol ony
Ġisot ropic
ĠSt evens
for ge
Ġblock ing
ĠTechn ical
ĠT on
to ctree
ĠB ug
start ed
Ġsh ore
ĠMer c
comput ed
18 59
ä¸ Ģ
li us
26 0
Po jo
sc opes
ĠAl ger
T our
ĠS ad
col head
Ð½ Ñĭ
XX XX
Aggreg ate
}$ :
Ġtri angular
Ġb one
Ġbl ind
Initial izer
Ġcontr ary
ĠFin ance
R anges
ject ed
Ġpl astic
Ġal phabet
Ġmulti plic
D ry
icult ural
Ġiniti ative
Ġin complete
Me V
f red
i pt
Pl ugins
ĠH av
Tr im
r k
ass ociated
ĠEd wards
Ġtal ks
Ġgrad ed
ĠOC aml
ig roup
v iol
Ġelim inate
st and
Ġmanufact urer
ĠB ond
Log ical
Ġd uplic
}} ^\
Ġdec ides
. -
] ^{\
im ize
Property Name
Ġdev iations
Ġen forcement
ĠA str
arri ors
Ġ'/ '
mak ers
Afr ican
Any Ref
S ong
o ard
ĠB ird
14 1
Ġplan ar
utor ial
Ġe V
mu x
Ġpower ed
Jew ish
Ġprov ing
l attice
b eq
Ġbranch ing
is b
Ġconstruct ing
Ġliber al
Pro jection
ĠTr inity
ud o
Prof essional
c out
Ret ri
="../ _
Ent ities
Ġf ract
Ġread ily
tri ang
inst ances
S aint
d ifference
ĠTe V
Wh y
ĠD ynamic
Ġcompar isons
- $\
Ġinvari ants
Ã µ
}) }\
ĠPlan ck
ĠB M
ĠF S
With in
SR C
pred icate
Ġcor ruption
Ġap artment
Ġscient ist
Ġint ellectual
ĠC old
ess ment
Ġhighlight ed
Ġlie utenant
Ġ" \"
ĠB ass
it ations
Da emon
ĠJ av
Ġev t
ĠEx pr
Ġparticip ating
erm ark
Mus ical
ĠAp pro
Ġfail ures
Ġcut ting
ĠApp ly
ĠCirc uit
ĠH ook
pot ent
! ");
Ġadapt ive
Ġin formed
ĠR FC
ad itional
IC AL
d up
Ġm i
Index es
Com bo
Ġtri be
Ġm p
T CP
c orner
Ġdistrib ute
P B
r ice
Ġin struct
âĢ ¢
Ġ{ (
ĠL ost
clos ing
. ).
f oundation
ĠN ear
verb atim
man ual
ch ip
Ġint u
Ġcharacter ization
xim ity
Con nected
Ġabb rev
S everal
ap im
Ġab road
Ġsp y
Ġif f
collection s
Ġdiscre p
ear Down
p ure
Ġlimit ation
æ ī
) },\
Ġre interpret
Ġh r
ĠF E
ĠF isher
Ġz ones
D ead
Ġconvers ation
rais ebox
il ers
A ge
^ *}
et erm
ĠA DD
=" {
L ie
ash a
o up
EN SION
d ynamics
an che
ĠS z
ĠChar lotte
Ġachiev es
H W
R oles
in z
ĠHigh er
Ġg rap
St amp
ĠS ultan
var pi
22 2
normal ized
ai ro
ORM AL
Ġcoal ition
ĠS election
Ġ ]);
ĠB ir
dim ensions
). $$
it zer
ed e
Ġsqu ared
Ġrespond ed
40 1
Ġb ootstrap
to o
Ġsens ors
ĠGh ana
Ġw edding
ĠHash Set
IT EM
' ",
( _.
Rect angle
P ur
q t
Ġdec oding
et ched
Pi pe
H y
' ^
Ġ$ ("#
ĠTr ace
Ġra ising
Ġhon ors
ĠJ ess
th y
Ġsh utdown
18 48
Ġansw ers
P ART
Ġlong itudinal
GL uint
Ġbehavi ors
eg u
Co ins
Ġequival ently
Ġaff ord
lic an
}; \
und o
Ġbuild s
ĠUtil s
vers ely
expect s
j j
_{ (\
Ġconcent rated
ĠBeng al
] "
k ip
urn aments
get ElementsByTagName
Ġdes ert
Ġop ponents
ASC II
ĠLar ry
ĠSh ang
PO SE
ĠKen ya
C andidate
id ency
ĠMet adata
15 7
ĠB arr
ri en
tt ify
ĠArray s
Ġ' &
Ġfarm ers
Ġcom ics
add on
17 6
Ġview ers
B g
Rec ent
Ġancest or
ur ious
mod es
u ced
gtr sim
Ġc inema
] ',
Ġvalid ator
I EEE
T urn
Ġto w
Ġflux es
ĠAnd r
D ie
ĠE M
Ex pl
Ġaccord ance
B razil
ĠM ask
3 30
So ft
Ġr ub
Ġt uning
18 57
ĠDocument ation
ĠP ush
comple tion
tele phony
}} }{\
Gr and
ĠMun ich
EX TERN
w l
| ,
get Context
Ġdevelop ments
ĠLu is
Ġselect ing
ĠZ ero
Ġassoci ations
std lib
che l
Ġsit ting
}} )\
then Return
ĠRe yn
uck er
ib lings
Serial ize
mo ke
Ġconf usion
Ġvir us
Ġaccept able
ĠStud ent
ĠE le
To Array
ĠEth iop
oun ty
Ġexponent ially
amer as
UNK NOWN
| {\
Ġf ighter
ĠD elta
co eff
t abl
]{ ./
sk a
ĠCra ig
Ġco aching
ĠBy z
Transform er
Ġ( []
INTER NAL
D ifference
av atar
ĠAr c
Ġattract ive
ĠScient ific
Ġorgan isations
' }(
F K
Ph ysical
us ually
Ġqual ify
M ur
Ġreal m
ĠGu id
Ġsympt oms
asc ii
ĠL if
Ġv e
Ġex tern
Ġnarr ative
1234 567
ok u
in tr
Tr acing
Ġcyl inder
F ault
un til
ĠCl are
F un
t ap
ĠUE FA
or ship
Ġ@ }
Ġtrav eled
Ġreason ing
um per
Ġatt achment
Gener ation
- }
resize box
Ġpurs ue
DI V
ĠLabor atory
ĠSt even
LE X
Bound ing
Ġgu ilty
h ind
Ġenhance ment
M ad
Ġco operation
Ġpe ers
dec ay
CharacterOffset End
CharacterOffset Begin
ell ion
ĠPh D
Ġdef inite
ĠAn im
Ġconfig urable
max cdn
bra ham
Ġprotocol s
E con
F W
d istrict
ett i
Ġvic inity
ist ance
s creens
] ],
Ġper pendicular
il o
ĠO VERRIDE
ĠUn icode
to u
18 30
28 0
ĠCont emporary
ta wa
Ġscreen ing
Ġwatch ing
m q
Ġ" __
Ġde als
Ġstart up
Ġorgan ised
u o
Do es
Ġtr ick
Eval uation
tern oon
Ġchar ter
Ġsear ches
Ġw ake
over eign
b v
Ġan ime
Ġverb ose
Ġinter active
Ġred und
B a
M igration
f eld
Ä Ľ
Ġm os
ĠD ialog
ĠH ob
ert on
Ġphotograph s
as ures
C rypto
Ġbeliev es
ĠP aint
callback s
la unch
ĠHel p
ĠCon n
Ġartifact s
S un
n ets
Ġbe an
Ġpre view
n om
he ld
es Module
class ical
å °
R o
ĠM asters
Value Type
ex ponent
x ymatrix
is ible
Ġcomposition s
illi e
Ġop ponent
ĠG as
Ġ* =
+ }
S wed
C s
ul atory
Ġmart ial
J ul
Ġt ape
ĠF ake
ĠN amespace
ma zing
Ġaggreg ation
Ġre plica
ir q
ĠN A
Ġnon trivial
dig est
ER O
ĠT ib
Ġy es
U ART
Ġvar s
As String
P AGE
und ers
Ġuncer tain
com pressed
Ġpl acing
eg en
Ġposs ession
Ġev il
ĠL A
15 6
first Child
loc ations
Ġm u
Ġbo ats
ĠI celand
ĠLay er
ĠCh ap
} `
Ġoptim ize
F re
Ġstat ue
weight ed
Ġsynd rome
Con struction
Ġt elling
Ġa ster
ĠN amed
ann i
Ġa xi
ĠM aced
ĠG W
ĠIn fo
Ġreview ed
ĠRog ers
s id
Ġref id
lig a
Ġse eds
at ra
Ġc ogn
Ġtw isted
up on
read able
SE SSION
Ignore Case
J ose
Ġnow rap
sat z
ĠS ox
ar an
ĠM ouse
ĠGr ade
ĠObject s
ĠC ov
Ġident ifies
ĠSQL ITE
ĠInt elligence
document ation
Ġar rows
cell s
Ġemploy ee
ĠL HC
e ur
Ġf asc
ar is
=" //
ĠI da
Ġun lock
Ġim plications
ED IT
Text Field
; -
L ng
Ġp id
Ġr h
t ec
bul k
W ater
================ ========
ingu ished
â ĪĴ
Ġend l
ĠI o
Ġadd itive
Ġcook ies
n ov
2 11
p ane
ĠC K
ĠJ erry
ĠCo al
Ġmes on
Ġch ron
Ġinf ection
Ġasymptot ically
R ew
ber ger
he ll
ĠCO L
th umbnail
ix on
EN ER
Ġch ip
Ġquant ization
Ġt ies
f ive
IC K
rupted Exception
AL IGN
( ?:
l ov
Ġst ere
dec oder
Ġsk etch
ĠKe ith
Ġcoll apsed
Ġweak er
}= -
DE C
Ġtro uble
rece ived
ĠFor um
Ġreal ization
dec or
H uman
h istor
is an
Ġj e
om o
end um
ĠSl oven
ĠTreat y
ĠD id
mk dir
m v
Film ography
Ġther apy
Scott ish
ĠArch itecture
yst yle
IP v
prov ided
C urrency
organ ization
in el
ĠEl li
COL UMN
m ysql
att achment
ĠA ber
Ex pressions
period ic
s it
H op
x b
Ġt il
17 2
ĠNor folk
Sample s
Rep ublic
Ġo mit
Ġsurv iv
ĠLead er
Ġtrib es
Ġimprov es
el if
ĠN ak
ĠE sp
ĠCh i
Cast le
Ġcaref ully
aut hent
Ġpat ches
^* (\
ĠO B
Ġen zym
ĠCO M
Un icode
Re plica
cover age
ĠT as
it ual
ĠCar r
Ġabs olutely
Ġcontract s
ĠFin ancial
Ġexplos ion
B uffers
Ġt iny
)) {
Work flow
Ġadmin ister
il ia
get User
Ġfix es
Relations hip
get Path
Ġten ure
ev ille
che m
ast rop
Ġdeterm inant
ĠCO LSP
* }\
Ġw restling
ĠCOLSP AN
st re
Ã© d
ĠSing les
Ġfest ivals
Ġ' ;
38 4
ur istic
Ġevery where
sel enium
] \\
) ::
Ġplay offs
ĠG len
t u
Ġaccompany ing
v r
Ġt body
iz en
umb le
Ġlab our
Le ave
Ġb le
ific ant
Ġpremi ere
ĠP ick
ĠTh er
)) =
Ġs le
Ġcont our
ĠAn imation
Sim ilar
Ġpat rol
Ġtrend s
ĠCond ition
Ġto mb
act ing
Par allel
Ġdu o
ĠLine ar
ĠG URL
Ġconsider ations
. ')
Ġmulti plicity
Ġf Ã¼r
ĠM ul
** :
For Key
ĠS or
Ġsur f
Ġ$ ^
") ).
ĠEd it
ĠBroad casting
Ġviol ent
ĠK ay
Ġa u
Ġif rame
LE ASE
Ġult ra
Sm ith
ĠF ail
{ |\
end l
Ġl os
ĠJeff erson
Ġinv ocation
>: ]<
Dele ted
Ġs id
EQ UAL
Ġsubstant ially
Ġem otional
Ġreal ize
erm al
ĠR uby
Ġcounter part
h orn
M AT
ĠRepresent ative
ĠC AN
ĠU ART
log ue
D NS
] >
Ġcheck sum
get File
}\, .
acknow ledg
Ġphot ometric
ĠR unn
Ġstructure d
Ġpropag ator
ĠL an
Ġorig inated
al ia
Ġpo les
_ ),
equ ilibrium
block quote
th lete
edd ed
ĠIm plement
Ġinf antry
=" <?
ĠV iol
z ig
met er
al ong
ĉĉĉ ĠĠĠ
K B
bibli ograph
Target s
Ġsaf ely
s ized
ins pect
Ð½ Ð¸
Ġ\ )
aur us
ĠCON TRACT
c riteria
ĠCon tact
ĠZ hang
Operation Kind
ĠVAR CHAR
uzz le
K O
Ġw arr
UB LE
ĠC V
ens on
ĠT uple
Ġf printf
the ir
Ġstr len
Qu estion
host s
Ðµ Ð»
x r
Ġde eper
ĠG ay
bas is
re b
18 54
Ġre ven
r ations
ss h
PRE C
Ġf lip
Ġfast est
Ð Ł
ĠL ux
Ġl hs
Ġa qu
Ġpreserv ing
Ġaffili ated
Christ ian
Â ½
Exception s
Ġg ear
synt hesize
y u
ĠP ract
Ġrem arks
at an
Ġs z
Ġkey boards
ĠHol land
Ġarbitr arily
Ġvari ational
Ġp ow
ĠC WE
arn ess
Ġatt ending
Match ing
Ġexceed s
ĠS ep
class ic
bibliograph ystyle
D N
}. $$
arr ison
spect rum
ess el
AT T
Ġsp ell
be ing
ĠSaf ari
Lif ecycle
ĠS TD
ĠN g
ĠAl ong
T oo
Ġess ay
idel ines
ĠG PU
EN S
ich let
Ġdem o
ĠRead ing
ad joint
Ġ nd
Ġphys ician
d an
)$ $
Ġemerg ing
o ys
ĠCh a
mem Item
Ġatmos pheric
in ja
Ġcomb inator
h aw
Dir ty
Definition s
Ġm ines
exemplar City
ad j
ĠAv iation
æ ł
em in
th umb
en burg
> ");
18 58
× ¨
out ube
Ġm oral
Ġdis put
Ġconduct or
PRE SS
red is
DI O
Ġguid ance
G lob
âĢ ł
ancell or
Ġsec ured
ush ing
urch ase
Ap pro
ĠMur phy
l iter
ac ion
å Į
Ġs pont
filter ed
Ġfra ud
Ġb anned
ĠInd ustrial
Football ers
F G
O Auth
Appe arance
ĠT erry
ĠM ari
ĠPar al
ĠR S
Ġch apel
Ġflex ible
Ġengine ers
15 9
Ġchar ity
prob ability
Ġp g
Ġmark up
ĠUs age
ĠCan vas
Ã¶ n
Ġle ak
Ġdescend ants
repre neur
ra h
Ġre lying
Ġcont ested
Ġgu ests
Ġsummar ize
w rapped
s ink
Ġs q
rott le
Ġcampaign s
Ġinter vention
ĠSocial ist
ĠR GB
Ġob sc
ĠWed nesday
R U
ĠComp are
ĠMunic ipal
us a
amer on
P IN
status Code
i ology
p referred
le ad
=' #
M ixed
we ights
att ices
dele ted
Ġ= &
ĠS plit
Ġr hythm
ull ivan
d ns
on er
Ġform ations
Ġorgan ic
Ġscatter ed
n at
å į
)$ }
Work Item
8 000
3 75
Ġfin ance
Ad just
Ġdismiss ed
c annot
à ®
D WORD
L ondon
20 6
Ġport rait
' ><
e ing
us b
Ġrobust ness
Ġtrunc ated
Ġposs ibilities
c amp
sh own
18 55
PE G
ĠS ask
}}{ (
Ġmass less
Ġreb uilt
em ies
Ġdist ant
Ġm eth
Ġpro jections
Ġgener ations
Thread s
ĠR av
rog ate
Ġsettlement s
%%%%%%%% %%%%%%%%
ĠF eb
ĠL ion
Ġperfect ly
Is ra
Ġinterview s
... "
ĠThrow able
ĠD eveloper
Ġstr ange
ffff ffff
Ġlicens es
Sh utdown
or f
ĠDi ocese
ra f
Ġdef ending
ĠAg ent
clean up
ĠL arge
Ġshould n
I FI
ĠK rist
ĠCirc le
n of
Ġfore cast
Ð½ Ð¾
H ASH
CC CC
Watch er
Ġ ĉĉ
ĠJ oint
Ġg ross
B roadcast
\ @
b ay
n ick
bl ur
:" -
au kee
ĠC urt
f lix
Ġcon sequently
ĠF riends
M il
ĠBay esian
Q T
b ur
Ġm ild
Ġcol ored
h ooks
ĠCont ract
class List
ĠLe o
Ġexhib ited
l brace
ĠM ER
ĠD yn
)} =\
ĠIN CL
Ġevolution ary
Ġim pose
Stream s
Ġdynam ically
Ġinject ed
R V
itor ial
){ $
Str ict
ĠRem arks
Ð ¶
ĠLu ke
n f
ex perimental
}$ ~
}} </
ig ion
Inter faces
Rem oved
ĠVenezuel a
G esture
ĠK l
2 12
ĠAb bey
Ġdep ression
ĠInter rupt
Err s
\" {
Ġapproxim ated
RE SET
atern al
R eb
Ġyour self
Ġsp ots
Ġgather ed
DB LP
Ġp arks
up iter
Ġun cle
Ġaware ness
ĠEn cycl
Ġtr ump
Ġexperiment ally
ĠAd S
yn man
t om
Ġarg c
Ġel igible
Circ le
- %
Input Widget
Spec ies
Ġpass ion
Ġexception al
Ġleg it
Ġinvestig ations
ĠO ri
Assert ion
ĠMon th
Ġmuseum s
ĠP erry
Ġget Name
SER VICE
ad v
Ġbos ons
ch r
ĠAnt i
_{ {
RE ST
Ġco arse
mall oc
}\ )
Ġsent ences
ĠNep al
ic it
Ġinsp iration
Ġecc entric
S olution
it ize
Ġrev ised
s al
Char acters
Ġcomput ers
Lay ers
e o
): =
(' :
ĠPen insula
AR M
co res
AP PL
ĠEnvironment al
ĠWat son
ĠShe l
+ {\
Ġintegr ate
ĠMax imum
k b
Ġwh itespace
Ġjuris diction
Ġs cre
m eth
ĠA round
00 7
ur ities
Ġchar s
re load
V K
ĠAthe ns
k r
Ġeval uating
ĠCru z
Ġc rop
Pos itive
ASS IGN
Ġext rap
Trans late
Ġin hib
Ġir regular
Ġcivil ian
23 4
ĠTh ursday
ĠSub s
: ]
20 9
abil istic
oxy gen
n th
contin uous
Ġlog ged
break ing
Ġr ated
ĠS alt
mix ins
Ġed itions
Ġrem n
: ",
Ġdo ors
Ġco ord
or acle
Ġl p
ĠFig s
ci pher
ĠSyntax Kind
Ñ ī
Ġsub class
Op acity
ĠSus an
ah an
S parse
}{ $\
Ġcommand ed
Ġout going
Ġca ption
ĠR ivers
Ġspons ored
{- .
Ġaccept ance
Ġhyp ers
ĠStat istics
Get Value
ĠE SP
im ap
AUT O
ĠCroat ia
ent ropy
ĠA uckland
Ġk ern
Ġterm inated
Ġintegr ating
SY STEM
Al ready
Ġem igrants
Ġsup pression
End points
st own
Ġsh ader
ĠCh air
ĠD etails
4 80
ĠMar vel
eloc ity
Address es
ĠQu arter
n x
ĠS ans
An swer
S CHE
Ġc argo
leg iate
ĠDen ver
Dynam ically
}. $
< >
{ }\
as pect
With Context
Ġshop ping
Ġb ay
S pect
Ġco ffee
ok ia
Ġmerg ing
H ooks
n h
ĠB ind
F ort
SET TING
30 1
ro utes
un ning
S a
des cr
Ġsk i
ĠFil ip
ĠB A
ĠPer iod
{ ``
re ction
b ash
ĠDe ut
ro st
Prob lem
ol ine
ĠI v
up al
Sm art
ec ker
ĠS uz
Ġev ac
ot he
Ġoscill ator
se ver
Ġmod ulation
ĠEcon omics
idel ity
}{ !
}) ^{\
ĠR ey
sh utdown
R W
ans wer
ĠBit coin
L ee
Ġsl a
( /\
ro uting
Condition al
Rec on
exec utor
cr im
ĠC MB
Ġdram atic
l vert
Ġcon form
Cred ential
G al
Ġre written
ĠBe aut
abb rev
Ġgraph ic
ĠR M
Ġdeg rad
former ly
ĠMax well
K ub
Job s
ĠOper ator
ĠEag les
ĠD ES
Ġauthor ization
ack er
Sw ap
>> >
Ġdecre ased
ĠDom ain
ĠChar acter
F Sharp
b id
Ġt ensors
ipart ite
ĠArgent ine
Ġtrad ed
ĠMont ana
list item
ĠF u
Min imum
ack ed
akes pe
ĠT X
Amer ica
ĠThe od
ĠT CP
op am
re ports
Ġemphas is
p ix
ious ly
ĠIm Gui
m ess
ĠG ang
hen e
raz y
A ust
Ġdro ps
ĠB our
ent ities
Ġten ant
16 7
Ġspeak ers
con nections
H I
Equ ation
K ER
ĠL oc
ĠRem ote
Ġint ense
Ġle pton
Print f
ĠY es
Ġjoint ly
Ġfacilit ate
Ġpe oples
Ġtravel ing
Ġdes erial
r hs
Ġmeaning ful
Ga ussian
Im mediate
Auto Fit
ĠM AC
Ġdrop down
ĠW IN
Ġexc av
prom pt
Ġneg lected
ĠProdu ctions
al one
G AN
ĠIn stit
Ġabsor bed
Ġsuccess ive
parent s
. ]
ä ¹
ĠCom ple
m other
Ġtr iggers
ĠVerm ont
× ľ
Ġcl imb
ik ov
E F
ĠN umer
nu cle
D ays
Ġs printf
Ġ/ .
Ġlat ency
ĠC atherine
og ical
Ġauthor ized
Ġcl othing
Ġdoll ars
s ex
ĠL ot
Ġdis aster
Ġerr no
l ucene
Ġb is
m orph
ĠSh im
Br and
ĠR C
ĠA dapt
). </
the ore
ari ans
C ause
ĠGerm ans
Ġun successful
Match ers
ass o
Ġob lig
Ġarr ives
ĠBudd hist
Ġsusp ension
Ġb alls
ic us
DO CK
; (
focus ed
ĠDel aware
15 3
T s
Ġto x
Ġper ipheral
id y
unic ode
top rule
starts With
Ġca usal
ĠBlock ly
ĠC ad
Ġdis pute
ĠHer bert
l x
ĠG em
^* _{
ĠS Ã£o
] }\
Ex act
/* .
Ġtrib ut
Ġarrang ements
Ag ain
ros so
ĠProb lem
Ġcom prises
ĠEx pected
ĠAzerbai jan
um m
Ġpark ing
B attle
Port s
ĠC incinnati
ĠS olar
ĠF IT
Ġg ateway
Ġbal anced
S in
Ġm amm
18 56
ag i
M ex
ĠA w
Ġqu art
dot ted
Ġa cknowledge
Ġde emed
, +
S pl
oper ators
qual ified
Con sum
Enc ryption
r brace
ĠMe chan
L V
Alex a
ĠM ig
ĠC rypto
set Property
ĠK i
ç ½
ord ion
) ");
ele ss
ro c
zh ou
w aukee
cor r
Ġprepar ing
ĠB U
Ġinsert ion
D ump
flu ence
Ġinaug ural
div ider
Ġsub stitution
FO UND
struct ures
Ġray s
Ġmon op
Ġillustr ates
Ġpl ural
ĠCo hen
hook rightarrow
Ġv ibr
ĠN ames
ĠVAL UE
ĠStud ents
h all
Ġprof it
Ġconcert s
chi at
st retch
br anes
Call s
as se
Ġup coming
Ġcorn ers
Ġ$ ('.
op eng
ĠChristian ity
Ġastr onom
Ã Ĺ
Ġbus y
Ġfl ights
ur c
F requency
Ġen compass
GR AM
ĠEx pect
Ġt ons
Ġc ave
ve ction
Ġappro ached
ĠK ra
ĠArch ives
for um
S izes
ac ian
r vert
US A
Ġcharacter ize
Ġst ake
Ġnot iced
Ġrel ocated
Ġc d
Persistent Volume
ĠT rain
Ġgr ants
Ġbi ography
ĠMad ison
Res ponder
ĠC ancellationToken
ĠHis panic
im i
Ġcon scious
Ġdialog ue
Ġcontroll ing
Ġcontribut or
A x
Con clusions
R ock
ĠM ort
output s
scal ing
6 55
ĠT oy
Ġours elves
Ġmolec ule
ĠB ear
Ġrun ners
ĠT ru
ĠRead er
d ynam
ion ic
Ġlearn s
Ġl ic
SY NC
Ġret Val
Ġincorpor ate
18 5
Ġprov inces
Ġvort ex
ĠHeb rew
depend s
ig ue
Ġsur prise
ĠGr ace
Ġ' \\
Ġthe sis
Ch apter
Ġpay ments
Ġer ected
Or Empty
Ġ*/ ,
N an
ĠT E
az i
im ag
m or
Ġslow er
Ġto urnaments
other wise
Ġ' __
Hash Set
Ġpropos als
Ø ¨
ĠB esides
Ġtri ang
Ġinternal ly
ĠFl ash
et ics
'] [
print StackTrace
author ization
gom ery
ĠÃ ģ
Ġ* (
ST AR
amilton ian
a uses
int rodu
Ġround ed
Ġbon us
X Path
Ġmake up
ĠC ord
ĠT uesday
vent ions
iff s
Ġaccommod ate
v oc
P references
Ġad i
Ġecon omics
Ġt one
') ),
uck s
g al
Ġin clusive
ĉĉ ĠĠĠĠĠĠĠĠĠĠĠ
ĠM uch
f air
x ref
st ars
def s
ĠN y
tr iple
ĠSh ip
perm issions
ĠTra vel
Ġleg islative
Ġfactor ization
Ġvis cosity
Pol ygon
Ġexec uting
Ġtrad itions
Ġgrand father
Ġdiagnost ics
Ab ort
ec raft
symbol s
Rest ore
Fr ance
n P
UR POSE
Ġconserv ed
t odo
Des criptors
under brace
Button s
Ġres c
dd ot
Ġun icode
Ġmonth ly
Nor thern
In strument
ups ilon
DEFIN ED
Ġcomp ounds
M u
akespe are
is che
ĠUS ART
Ġbut ter
E u
ĠR AF
ĠG alaxy
ĠBulg aria
Ġen abling
observ ed
18 7
ah a
Ġdial ect
Des erial
Ġadvant ages
Ġra inf
osp el
ĠS ent
member of
)) :
dec imal
ric ulum
H istogram
m otion
Ġs ugar
ĠH ave
Ġsuperv ised
i ating
R oom
ĠC I
ĠR ES
M vc
Ġno isy
ĠSe an
Ġlight s
el ly
Ġm arch
v d
sv c
Ġmanufact urers
dash board
a qu
anc ers
ĠUn fortunately
Ġsp anning
Ġbary on
Ġadvent ure
M irror
API ENTRY
Ġ[ ])
ĠDiv is
paren cy
j dbc
Ġdifferent ly
as ide
> ]
Ġhe li
ĠWrit ing
C OR
it ol
Or Update
Fin ish
Ġ@ @
ah l
Ġprom oting
Linked Library
Ġbe et
Ġregular ity
Dynamically LinkedLibrary
Austral ia
Ġqual itative
c ke
ĠD ennis
inter pol
Ġtra its
Ġsh ard
R ivers
Ġh ull
ĠN at
Git Hub
**************** ********
Ġle agues
/ ',
Ġf led
Ġf ires
ag le
Ġg ains
Ġsh ipping
ethe less
Ġinter change
Ġcomple teness
Ġu id
Ġpat ron
() "
B ay
o ons
v k
Fl at
ĠPers ian
th anks
Ġcons ent
Ġsuff er
B ill
ph inx
ĠCon cept
depend ence
m un
or ian
") ),
Ġd ans
ard i
Perm alink
f req
v anish
ĠCh ang
ĠG NU
:: _
Ġsubsidi ary
Ġmain tains
Ġbre ast
Ġcon dem
az ar
ĠK in
DE SCRIPT
feed back
á ¹
ĠBob by
Death s
ĠA F
Ġtoler ance
> @
Ġcontact s
Ġb orrow
IST ER
ĠP ont
ind a
ĠGener ator
ĠD ra
à¤ ¾
product s
ie u
fil m
Ġscholar ship
Ġby pass
B rows
é ĩ
al most
Ġbirth day
lip so
Cap abilities
18 52
ob tained
Ġappend ix
1 200
Q R
Ġneur ons
Ġp ale
amb ers
ĠHar vey
ir ts
Ġdig est
Ġb if
Sp acing
ĠNash ville
Ġsyn onym
Sc oped
ĠBut ler
Ġencour age
D ummy
Ġrock s
eq q
Ġthere in
Ġdiscrim ination
work ing
Ġmap per
ĠLi u
A mazon
Ġany where
NR AS
) )$,
ular ity
Ref s
cess ion
ĠExec ution
Ġpet ition
I ts
"> #
Ġb ull
Ġdown stream
No Error
Ġassist ed
dec re
s per
ĠVari able
publ isher
Ġdis appoint
Ġlif ecycle
Ġf ed
Ġmurder ed
member NameLink
z end
hand led
Ġcovari ant
ĠPeters burg
h art
Ġjo ins
ĠSch w
h ive
Ġlink ing
ĠInd ependence
Ġs ake
ĠN R
AT FORM
ff bb
g id
ĠUn supported
ĠAc cept
Ġ================================================================= ========
Ġn inth
Ġmod elling
$ ~\
-> {
pro per
W ay
y ang
Ġrat ings
integ ral
Ġm appings
Ð° Ðº
is p
Ġrel ate
Ġepoch s
Ġprogress ive
Ġimm igrants
=" ./
ge om
Ġform ulated
min imal
ĠG ust
Ġr t
ĠJ O
Ġn aming
Ġgen es
Ġspl its
ĠD rama
IC S
ar ry
NO TE
P et
ĠP E
Assert ions
Ġd rain
Ġt issue
Ġph arm
Ġdist urb
Ġs weet
stit u
register ed
parse Int
Ġwire less
Ġre plication
Ġ{ });
ĠArmen ian
ĠPhilli ps
C AT
In Progress
ĠU UID
Out er
ĠIn s
Ġpal ace
Sp in
Ġ ----------------
pre sto
Ġc anceled
ĠH ugh
Ġtele scope
Ġpolar ized
ĠDeep Copy
T oday
arri ers
Ġpoint ers
og g
Ġcol ours
Contin ue
I ce
ag ain
qu iry
Ġbit map
Rep orter
ç Ľ
Ġrecip ients
ĠUn known
ĠW es
Ġwork flow
ml ink
sp y
Ġb oss
Ġpair wise
) ";
V V
lic h
Ġcompet itors
m ith
Ġal liance
Ġcommit ment
ĠSt uart
ert s
ov ina
C ycle
Ġreg ulation
Ġr um
Rep resentation
g pu
scal ed
Ġexcit ations
W IDTH
Ġ< ![
ĠNe il
Ġdirect ories
ĠBlo om
= </
s ix
Ġh aven
Ġfor g
:"- "`
ĠCh ain
al gebras
Ġcon greg
Config s
ol ition
Ġper ception
Ġdefend ers
ĠArab ia
Ġcontribut ors
"> "
Track ing
Ġrestaur ants
G s
16 1
exp ansion
ĠAng lo
b at
ĠS ony
L u
Account s
Ġstri king
ĠCoun ter
dir ty
Ġr am
ĠHel en
, &
il ateral
Dev Div
LE T
Ġdest ruct
Ġmanag es
Ġtrad itionally
hl js
ĠPO ST
work space
Ġact ively
S ING
Y M
ĠDemocr at
Ġdec k
Ð° ÑĢ
Exist ing
P F
Ġ Âł
76 8
D eg
match ing
val s
at em
sw ick
Ġprom ises
. {
ĠT LS
ĠW alt
bit coin
Ġholid ay
) `
Ġdiff e
Ġinv ersion
ĠBro ther
ri o
A verage
urs ing
ĠĠĠĠĠĠĠĠĠĠĠĠĠĠ Ċ
COMM AND
ore n
form atter
alth ough
S leep
Ġd atabases
ĉĉ ĠĠĠĠ
ĠP rest
pre p
ĠFunction s
$ ^{\
ĠSp ark
M ary
sup set
ĠK ill
ate ful
Ġbr ackets
Ð¾Ð ³
D LL
Ġarr iving
Ġcons olid
k v
Ġw ard
Ġh orn
ĠA U
( (\
ĠArch bishop
Pre pare
ĠK or
Ġclos es
N LS
iag o
ĠG PIO
ĠAnn ual
im an
ĠW A
ĠR oche
Ġpredec essor
y i
Ġw el
ĠVen ice
A st
Ġa pert
Ġd ol
Ġis l
Ġcre ator
ract ive
Co ordinate
Ġanomal ous
re start
ĠTh ir
Loc ations
d ictionary
å® ļ
ĠSaf ety
18 8
default Value
EX EC
ĠS ang
J av
c ot
ĠS UB
y t
ĠW onder
ĠS oph
Ġexpect s
jo urnal
Tax onomy
Ġcrick eter
æĸ ĩ
ish a
rece iver
ĠO FF
D eb
R ing
Ġp ion
ĠCon v
Ġutil ized
im uth
* -
m igr
Ġqu bits
Ġegg s
V ir
ĠS ig
ĠI de
Ġwidth s
Ġmeas urable
ĠConst ants
Ġbr ands
RO C
Ð» Ð¸
resh olds
del im
alex a
ĠR alph
Ġunder go
At Index
Ġmagn itudes
http Response
% ">
el o
url ing
Ġt m
Ġs ess
ĠI ssue
ĠH aving
Ġ' --
Second ary
Dependency Injection
f ee
ĠV ER
Ġcopy ing
ĠS ync
). $
Ġres olver
A ws
atche wan
assert Same
may be
gol ang
j sp
Ġsh rink
(" ",
col ogy
rec ation
Ġ è
Ġrevers ed
b is
Ġlocal s
Ġgold en
Dig est
EN UM
Ġt anks
Ġgl u
Ed m
Ġ"/ "
Ġj ury
QU ERY
D utch
ĠLeban on
S us
ĠAuth ors
ä» ¶
ar ms
AN Y
ĠArn old
' }}
L azy
pro cedure
ĠThe ore
ĠTh under
ff ield
SP AN
ĠBos nia
align ment
Command Line
di amond
he els
st ead
ĠInt el
ym ore
J ar
Ġa apt
Re plicas
Ġalter ed
SUPP ORTED
ĠCh apel
Ġconsum ers
Writ ers
R B
Ġsol ver
Dis cussion
Leg end
Organ ization
Ġc emetery
Ġmat hematic
vari ance
de ployment
App Compat
Ġe at
S IG
Hand ling
}} %
}) );
short cut
ord inary
ĠCl in
Resource Id
ĠArt illery
ĠS ob
Dim ensions
ĠModel s
23 5
Ġserious ly
fore ign
at ially
ro e
ĠH em
Ġpredominant ly
Ġqu ota
Ġstand ings
ĠV oice
ĠSecond ary
cu ador
ling ton
Ġsculpt ure
Ġhun ting
Ġg aps
s low
ĠR ena
Sche duled
Ġeng agement
Ġdimension less
ĠId entity
Ġval ued
Ġce ased
Cover age
Byte Buffer
Full Name
ten ant
- .
}) +
00 6
c ould
Ġs oc
Ġare na
ĠID s
be it
f ork
Ġw alks
am ation
Ġ' +
Ġim per
Ġexha ust
v dash
)$ )
External Task
Pre parer
it ars
ist o
of ill
y ml
Ġhas n
child Nodes
h ydro
tr ation
Ġcal ibr
ĠRem oves
P ID
ap ing
LAB EL
dev ices
i am
ĠU nd
18 49
Ġpol ygon
}) }{
b h
riz ation
0 100
{ #
ĠLat ino
Ġturbul ence
N ear
L ove
oc ene
Ġmark ers
ãĥ ³
Ġsl aves
Ġcollect or
ĠIMP LIED
Image View
Ġpers u
Ġbr ane
dec orate
PR INT
C am
L U
Ġh ierarchical
ĠM ills
ĠObserv atory
Ġplay off
Ġcomplex es
ĠMan uel
Ġinject ive
Ġlabel led
ĠW ells
>{ @
dr ive
Ġ\| _{
S port
-- \
key Code
G reater
get Node
Ġconnect ivity
ĠP ossible
Ġcl an
pro jection
Ġch unks
Ġatt ractions
Q Name
Stream ing
19 3
Ġf ade
Ġb onds
Ġfre ely
________ ________
h agen
Ġt orsion
urn ey
e u
the o
wik ipedia
Ġc amps
pt ical
Ġmethod ology
ordin ator
Ġconf used
Ġcollect ing
Ġbin aries
transl ated
is EqualTo
ĠRE ST
J im
Q CD
Ġsl opes
min ster
aut om
Ġrecogn ised
H yper
inc ar
ĠJul ian
TYPE S
b ower
ĠLe eds
Ġ/ \
Ġind ustries
h ub
**** *
err no
ĠConserv ation
17 8
16 2
class path
anc o
mock ito
ĠB ak
Ġext inct
Ġindu ce
Ġ utf
ĠAng lican
ĠHen ri
N ORMAL
] ])
eg al
eb ook
Ġany way
Ġtreat y
G reek
ĠNew castle
if s
¿ ½
ol lo
From String
Ġconduct ivity
ĠP P
Ġbl ues
ĠC raw
ig i
Ġf p
Ġide als
Ġhost name
G PIO
Ġins pection
arc sec
Ġtrib ute
MEM ORY
Ġg ymn
All ocation
D istrict
Ġbackground s
g ems
Inter preter
Buffer ed
Ġtra pped
mark et
Ġprev ents
G U
Ġas h
Ġ\\ \
Ġemphas ize
ĠWell ington
Ġg ift
Ġt ier
Anim ated
Ġqu it
s ess
Ġbe ating
Pl ane
ĠForm er
ap ex
Ġsp ars
Ġform atter
D TO
Ġc pu
ĠP oll
Ġmanufact ured
ĠC es
con taining
Condition s
B on
Prot ected
Ġin tern
Sw ift
D ark
Ġb orough
dis cussion
ĠB orel
Ġdrum mer
ac ional
ĠPro to
ĠMulti ple
dat um
Com position
conn ector
isb ane
F ee
ĠT RAN
Ġsim plic
Comm unes
B IND
am d
Ġim perial
,\,\ ,\,\
Ġpoor ly
ĠN athan
Ġaut omorphism
Ġ( &
Ġabund ances
ĠF F
ĠAb u
ĠGL float
Ġres ume
Ġplay wright
Ġout per
s us
Ġ*/ ;
it us
ĠMay be
ĠA braham
site info
ycl ing
ng th
Ġfe els
decl type
Tem plates
F ollow
ĠL ength
18 51
Ġass ists
Ġbelong ed
Ġmem brane
check er
process ed
m al
LE AN
rel ativistic
Op code
Doc uments
? .
Ġfoot er
ĠArt ists
ĠGro ve
ĠB ald
IM ARY
f lip
Ġstr m
ĠSt ef
Ph ot
Ġaccount ing
) _\
le igh
Xml Element
ht m
ĠRef s
ĠSt ories
ĠS ocket
t lement
ĠSh op
Ġm yself
Ġem bed
Tim eline
8 75
U tf
Ġcop per
Ġdeep ly
ĠS ierra
Ġre actor
ĠR idge
UB E
ĠStan ford
ST OP
h in
Ġc ameras
assert That
ĠF UN
sw iper
ans ions
Ġaf ternoon
Ġ[ _
er i
Ġmin us
Ġnegot iations
ĠClear ly
Token Type
ro ut
Ġthere after
_{ |
ch ard
Ġcent res
ExternalTask Pojo
pl aces
Bind ings
Ġqu ad
Ġpar abolic
ĠTh ai
Ġprodu ctions
24 5
ĠBr isbane
ac ies
ĠG ilbert
oo f
ens upport
Ġmot ivation
Ġgu y
ĠG olf
P icture
aw ait
ĠChe ster
con sumer
mag n
ĠFlore nce
Ð¾Ð ±
ac co
I J
Pr inter
umb ai
Tree Node
ĠM T
ĠB aby
port let
ĠSch r
ĠV K
unt u
O G
k el
iter ate
Ġintegr able
Ġun clear
CH ANT
Ġutil ize
coll apsed
........ ........
ĠR us
tab End
Ġtim ber
s ymmetry
Ġhealth y
Ù İ
Ġmot ions
ĠHar old
Ġimplicit ly
AC L
Ġep id
Track s
COM PI
ĠProp Types
Ġear ning
ĠH ub
From Range
ol er
Need ed
In side
sc ience
Ġsymbol ic
ĠWork ers
ers ed
AL LOC
Ġem peror
') [
lear n
Ġpitch er
Ġs ang
ĠM otion
ĠN u
IN TEGER
dis p
Comp anies
Ġback wards
Type Info
Global ization
ur as
ĠSo on
f amilies
Ġem p
Ġrad ar
} '$
ĠB av
ĉĉĉ Ġ
Ġent hus
ĠCal endar
RA W
Ġab ilities
der ived
Ir ish
Jo urnal
Ġme at
Rem ark
Con current
ĠCom merce
Play ing
Clean up
Ġmod ulo
Ġconf ined
dim en
ENT S
Ġpron ounced
Ġdistort ion
ĠS afe
ĠW ag
/ ?
Ġthr one
f re
ĠB order
olec ular
- '
t pl
rema ining
ĠPh ysical
K P
v ac
am y
reg exp
18 53
Le af
Mark up
M ah
l ived
Ġvent ure
ĠSE LECT
Ġpl ates
ĠOt tawa
ĠComp ile
æ Ŀ
ĠP URPOSE
pro port
design ated
Ġl iv
Tra it
Ġc ow
ĠOut standing
b org
ĠSQL Exception
ĠK id
CUR RENT
ĠDisc overy
Ġh ang
Ġmorph isms
av ia
struct ured
Ġp ic
ĠT ouch
Un ary
ĠWIT H
RE SOURCE
Ġl as
Ġaccording ly
ĠWall ace
Sing les
Ġto m
ref ptr
}, $
moz illa
Aggreg ation
6 50
Ġhon est
bottom rule
names paces
d ll
Est im
Ġvol leyball
ĠKn ights
Ġor n
act ivation
Ġoscill ation
ĠD in
ĠC ut
acef ul
ĠP icture
urren ces
H ierarchy
Ġown s
c andidate
Ġn umpy
36 5
int endo
Ġr itual
g ender
Ġfore ground
Ġload s
Red uce
spe ction
ï ¿½
Ġwithd rew
Ġre called
Ġdraft ed
18 47
Ġatt raction
ap on
Ġpre st
60 1
Inst ant
Pop ulation
d ense
level s
Col lege
ĠT alk
alloc ator
user Id
Ġes lint
h im
Ġan ch
Ġre use
pe st
Pos itions
ha o
us hes
ne z
West ern
Mart in
names e
I CT
at tempt
} ')
i ya
ĠS ame
ond e
key board
PHP Excel
Ġs cheduling
Ġform atting
Ġmain stream
Ġto urs
ĠBy tes
Cor rect
Ġoverse as
id ity
Ġro ster
Ġs isters
Ġad missible
sp rint
ĠPro xy
Ġfif teen
prov iders
B ank
ĠSy rian
Ġl t
Ġun w
ancell ation
ak o
ĠY et
D evelopment
P ic
Ġm utable
^+ (
Non null
Ġthr iller
Ġredsh ifts
Ġbas ically
Ġrg b
k le
reed y
ĠNe umann
Ġsett lers
DF S
Ġcolle agues
Ġexam ination
nt hetic
ab we
Ġamb ient
( ::
Ġv it
ĠRh ode
Ġwavelength s
ĠBaron et
æ į
)$ ;
Ġtax es
ĠD ele
is cher
Ð¾ ÑĤ
Ġsp ans
Ġland ed
A sc
ĠGuard ian
Ġesc ort
Ġachiev ing
ĠStr ong
scroll Top
Ġb ubb
M NRAS
Ġsong writer
H aw
M ON
w ould
mod ern
in fl
ud ge
Ġconn ector
Ġb b
Ġout door
Ġdir ty
ĠTransport ation
Ġsub urb
^ -\
Ġad s
Element Type
Ġ$( {\
Ġel dest
Ġview ing
ĠCong o
^* ,
d AtA
IC ULAR
Ġshort est
Ġthermod ynamic
ĠF ighter
ĠSD SS
ci pl
th us
N F
Log s
Ġcount ed
Ġpress ed
ĠWars aw
ĠExt ract
C uts
ĠPed ro
m pi
ĠL ov
)- (
im plies
Ġt abs
Ġhonor ary
) ||
ress es
ĠEn umer
P referred
16 3
ĠB eth
N Log
ĠPaul o
Ġ ])
Field Name
ĠH at
null able
Ġminim izing
R P
Ġisol ate
F lex
Ġpen et
ic as
Ġphot ometry
Ġd amping
ĠNav igation
^+ _
Coll ision
ĠFil ms
Ġwould n
Ġphys ic
insert ion
Q Q
Ġc ust
Pro vision
ĠPh oto
url Params
eg an
ĠEdd ie
bo ys
Sc anner
Ġinc umbent
Wait For
Ad ministr
Prototype Of
ue z
inv ocation
b w
ĠS ic
Res erved
target s
Serial ized
Ġvolunte ers
ĠL ipschitz
ĠN AT
Ġhand ed
rt c
Ġr iding
ĠRetri eve
Integ ration
Call able
Ġda emon
Ġren ov
uzz y
Ġfac et
Ġ> ::
27 5
ĠJ in
Ġearthqu ake
}} /
ats u
Ġt i
ĠIn ner
Ã¤ r
Î º
Ġf ert
Ġsub groups
Ġtack le
- "
Ġ\ %
pl ots
Ġpo ison
Ġcapt ures
Ġgroup ed
ME TA
Ġhom ology
Ġfeel ings
Ġinvert ible
Ġt idal
Ġor b
Ġpoly mer
ĠS ect
DA Y
f h
g ateway
Ġf li
Ġburn ing
ĠReyn olds
ach inery
Ge org
ĠRev ival
S igned
] -->
Ġor chestr
play back
ĠLeon ard
Ã© g
Ġserial izer
C ities
s ensitive
w ere
). \
j p
ĠN UM
Ġmem o
Ġs ans
Ġb link
18 2
17 7
W alker
W alk
), \\
Ex perimental
track er
Ġhighlight s
it les
Ġto ured
Ġj u
tim ing
ic ast
Ġre name
Ġhospit als
sl ides
Ġmetall ic
ĠArch itect
Ġfun eral
Ġen force
| }{\
Ġhost ing
Ġproceed s
i our
Ġw p
ĠCon figure
ĠSeb ast
30 3
Am ong
ting ham
Ġst ick
Ġdel iber
ĠHit ler
kn ow
l hs
ĠB ach
ap k
Ġnew Value
ĠSh akespeare
w ent
IAL IZ
Ġkern els
CHANT ABILITY
ass igned
ĠLI ABILITY
ĠG OO
larg er
ĠBrun swick
@ {\
g ulp
Ġdepart ments
ĠD b
Ġsem if
ĠOff set
algorithm ic
ĠM az
Re peat
O VER
P oll
Ex press
Ġknow ing
Ġper ceived
Un signed
Ch an
Def erred
40 3
.\ ,\
Ġt une
colon eqq
ah ler
' ></
20 7
Ġres cal
(' [
Ġs ick
th al
Ġr ice
ĠS FR
ll a
Ġfru str
Ã ¯
U k
q p
ĠA bs
ator ies
Cor ollary
Field Location
b ias
Ġ' *
Ġconsum ed
ĠI M
f loating
Ġb ishops
ĠS V
ĠY ale
Pol it
ĠL amb
Ind ividual
Syntax Kind
ĠH ubble
Ġarchitect ures
32 5
ãĤ Ĵ
ĠN P
dist ributed
Ġelev ated
Ġdissip ation
ut ility
un expected
Ġnot ations
part icular
ĠHar bor
Ġpro ximity
ap a
Ġstd out
R ugby
o il
Ġp unct
Ġanisot ropy
function al
Ġfix ing
ĠG uild
ray s
Ġaut onomous
Tool Group
ous ed
" \
P ag
32 1
ĠDr iver
EX PECT
cont ract
Ġjust ify
Ġem issions
en eg
ĠRep resents
mask FromRange
ut ures
Ġcon tributes
rel im
control led
exist ence
er ase
part icles
Ġed itors
ĠFried rich
w y
J P
18 4
spir acy
ĠÅ ł
fold ing
c g
Ġe g
Bl ank
ro les
Ġb ol
ĠV ent
Print ln
Ġexplo it
Ġto uring
Ġfr iction
ĠHug hes
Ġ& -
ĠSc roll
L uc
Ġsum mit
Mod ifiers
@{ }}
APPL ICATION
st or
On line
ĠMal ay
ĠG ate
Ġterm inate
TH E
sp ired
Gr ant
M Hz
ĠM oney
lic al
Un iversal
ĠQue ue
R oad
ĠL oss
Access ibility
W ang
ì Ŀ
Ġmob ility
Ġassert NotNull
Q A
ac cel
Ġcert ified
Ġdrink ing
LA ST
er ver
Vis it
L iter
P rem
k ers
Ġout lined
' ')
Res pons
gr and
ĠAl pha
Ġbas in
Ġf ractions
et ches
apid ata
| <
Ġdog s
l ceil
ĠD y
Ġvar char
å ĩ
y our
ĠE ld
Ġun ified
ĠShe ll
] }$
Ġ Ñĥ
ing o
imb abwe
ab ic
ĠI ss
ĠH alf
ĠD ame
Ġcom prising
ĠRepublic ans
Ġcon cludes
ĠRiemann ian
en es
Ġinternational ly
ĠMethod ist
00 8
Ġw atched
Ġ* );
test case
pop over
H ouse
ĠNot able
ĠConfeder ate
Ġc ad
ĠFile s
ĠBulg arian
ĠHamb urg
ĠM ik
ĠĠĠĠĠĠĠĠĠĠĠĠĠĠĠĠĠĠĠĠĠĠĠĠĠĠĠĠĠĠĠĠ ĠĠĠĠĠĠĠĠĠĠĠĠĠĠĠĠĠĠ
Sem antic
N M
all a
Ġdisestabl ishments
D s
work flow
ĠMET HO
Ġs keleton
ĠM orning
quot ed
Ġt iles
des ktop
Ġun ions
CLA RE
A cl
ĠI BM
Ġcheck point
c ocos
Ġsuggest ions
ĠEss ex
ĠC ort
ĠDev on
ACT IVE
we ets
ĠAl lied
Ap ache
Y ES
Ġen emies
WI SE
DI F
pr im
Ġuniqu eness
ĠPART ICULAR
Ġhad ron
Ġnumber ed
ĠÂ »
Ġd c
Ġr uler
ĠRe ed
in as
v ary
ho ff
Ġannounce ment
keyword s
G Hz
ĠPlay ers
ĠByz antine
| \,
ME T
Transport ation
Ġas ide
in en
Ġcirc uits
D uplicate
des cribed
ne eds
Ġte ch
ell ites
ĠAir lines
ÑĨ Ð¸
Ġstreng then
Ġestim ating
ig m
(' -
produ ced
ess a
Ġprevent ed
ĠAgr iculture
ĠPar ser
ĠWil helm
Ġcommun icate
pg f
Ġeng age
in ia
64 0
Ġexp ired
dis crete
Ġisol ation
. \,
an other
k al
fit ting
L iber
condition al
V ERT
} ";
ec om
30 2
! }
ĠR ele
Seg ments
get All
Ġdesign ation
REF ER
i w
ĠD od
`` .
ĠCl aim
ĠNot ification
ĠB atch
Ġrect angular
X T
Ġl oved
ĠH il
Ġmand atory
L B
s ens
ĠF lo
ĠPh ase
Check box
l is
Ġattend ance
Ġinfin itely
"> Â
Class ification
ĠCH AR
| }\
ĠA aron
co ords
50 1
M otion
Ġh ass
em ploy
ĠW riter
Ġmin istry
ĠCh anges
View Model
ra ining
Ġretriev al
T abs
M ime
ST AMP
ĠGreg ory
ia z
con cept
Ġa fore
A ware
ps frag
ĠB ool
Ġle pt
Ġr pc
ll er
Ġtravel led
BO X
d ip
Ġadv ances
Ġwealth y
ect l
Cart esian
MAG ES
17 1
ron ym
Ġstat istic
Comput er
o in
vet ica
8 90
f ab
Ġc am
ur bs
ok emon
ed itable
ĠProtest ant
d ie
ä ¿
in ance
V m
At om
Ġd iet
Ġgram mar
all ing
Ġconst rain
ĠM ead
ä¸ ª
Sp y
Ġintegr ity
Ġlight ing
ĠSo ft
Ġreg imes
H ouses
2 15
In variant
Ġsh ots
il ian
un checked
'' $
Ġhous ed
ĠColumb us
ĠNap ole
Ġnew er
ĠLL C
id ually
te es
OO L
Ġnovel ist
is Null
n othing
ĠW idget
Ġcor rupt
ĠDi amond
OB J
h ass
AutoFit Height
ĠInd icates
Ġburn ed
H alf
Ap is
tr an
-\ !
Ġdistinct ive
ĠAn cient
ij a
Quant ity
P ers
Ġc ube
ene ath
rosso ver
Ġp ec
ill on
end ant
class ification
17 3
ol ly
List Result
ĠR osen
Ġa thlete
bit map
RE L
N othing
Ġc trl
}$ &
coup ling
Ġlist ings
approxim ation
18 46
Ġv el
cap s
Ġb attles
Ġav iation
char Code
ĠSh are
Ġb uses
om ed
ĠE mit
)) ]
C atch
he nd
}} -\
sub title
Char Field
Ġco at
n ell
Ġc attle
Mod ify
Ġnucle on
Ġ` $
order ing
pr us
ĠEr nest
altern ate
comple ted
Î ¯
Ġobject ives
ĠMont gomery
Ġab st
Conf lict
Dev ices
ĠCo ach
Ġpay ing
Comput ed
Ġconvolution al
H K
re ve
ĠHand ler
b rowse
st ed
ul ators
Ð¾ Ð½
ĠAut hentication
Ġ" #{
Ġcer emon
M and
Ġphotograph er
| $.
ĠR an
prot oc
ĠSch olar
D u
Ġalt itude
geq slant
PIX I
Ġs vg
Ġl ots
oy age
Ġf reed
Ġm ature
Ġex ported
Ġobserv ers
ĠScot ia
Ġconstitution al
add All
ĠLa ura
ĠĠĠĠĠĠĠĠ ĠĊ
Index ed
t ier
lo ose
ĠPubl ish
P b
Ã °
tr ac
ĠV ict
w yn
ass umption
Dem o
0000000 1
ot yp
g rey
æ ŀ
serial izer
e asy
K er
Ġprefer ences
ĠWeek ly
}= -\
K im
in herits
Ġdis band
add y
Hen ry
ĠMER CHANTABILITY
ĠG amb
Ġtrack er
Ġaccompl ished
List Item
f ixtures
18 39
Ġterm inus
Ġspeed s
ĠD ifferent
ĠNorth west
Ġconduct ing
Ġaddition ally
ĠS ter
Is Valid
Fiction al
Ġsc iences
Ġprot agon
ac i
ĠA A
Ġreson ant
art icles
r ise
Ġnot ifications
n oc
Ġre dd
key frames
ĠClar ke
Ġd d
ĠC rit
æ ³
Cap ability
T icks
asm ine
Ġd as
ll vm
d atab
uss els
ĠSp encer
ag ers
Ġsat uration
Ġion ization
//////////////////////////////////////////////////////////////// ////////
Ġ< >
ĠN L
45 6
ĠTas man
s af
Ġillustr ation
el ia
Ġact ivate
ĠS cale
ke V
b right
t oday
Ġan ymore
M arg
col group
imit ives
ĠTom my
S oviet
G W
ĠD anny
Ġsust ained
Ġcont raction
PRO CESS
p ersist
ĠH amm
ĠFr anÃ§
Ġan ce
Un ivers
PR I
set Name
)) ^
Ġport al
Ġdebut s
ĠMer ge
Ġa er
TRAN S
g log
r ceil
ĠURL s
count s
ar u
ac ier
ĠKer ala
il io
power ed
ic ious
Ġth rew
ĠCh oice
op r
Ġstr at
Ad S
in ions
Ġnick name
ĠProv ides
ĠR F
17 4
CA ST
Lou is
b readcr
Ġfarm ing
ph ib
Ġup stream
roll ment
M ARK
Ġg ent
00000000 00000000
d ma
ĠP and
Ġprov isions
auth ors
ĠRed ist
ĠR ah
RE PL
He art
Ġsl ots
Ġens uring
Ġcap ac
Return Type
SS ING
B ootstrap
ĠO scar
Ġst reak
Work ing
Ġcatalog ue
definition s
c ott
ĠJ ak
ĠFellow ship
ib a
Ġover w
CO PE
num bers
P AT
Ġn od
ĠD aw
ĠC UR
18 9
ĠED IT
AM D
ĠPerm ission
ĠK umar
ae us
æ İ
Ġgra ins
k ie
os exual
Ġrele vance
Icon Error
Å ¿
Ġc ant
se mi
ĠR uth
Ġdef er
vel t
p it
ĠRes pond
ĠST ATE
en i
ĠCh an
ĠP anel
Te ch
cha ft
stat istics
ĠY ellow
Mod ern
Ġb attalion
Ġ$ %
e ither
ĠByte Buffer
Ġport folio
Ġfight ers
26 2
ĠPalest ine
ro bot
Ġco herence
Ġturbul ent
ĠC LI
ĠThe me
Ġan imate
Sup plier
ĠM age
ĠP ent
Bl ur
Ġsort ing
ĠS of
ĠAl t
Node Type
Comp act
Ġcomplement ary
VER TEX
Ð¾Ð º
ĠAg reement
Ġcitiz en
ĠT ong
Ġref inement
ĠCard inals
Ġal ien
Ġmem or
q s
ĠS PE
ĠA er
Get s
Ġassign ments
Ġg alactic
ĠCor respond
Decl ared
Ġcart oon
ĠG or
Ġac res
SECON DS
il iation
Ġsh ops
start ing
Ġim pressive
press ure
s nap
Ġ{ :
AD ER
ĠP ool
Block ing
Ġinduct ed
Ġexhib itions
W ho
ĠC ork
ĠB R
ern ess
Ġs ailed
ĠSask atchewan
; ;
Ġsuper Class
G er
Ġinn ovation
ro us
Ġâ Ĥ¬
ad vant
ĠB ent
J NI
Ġ ist
Ġant is
Ġproto buf
(' _
}) ();
Drop down
Ġafore mentioned
Ġmill ions
ĠL ac
ch apter
Inter pol
ĠKr ish
ĠÐ½ Ð°
IS ING
CE P
ĠW inn
det ach
Ġb atter
Ġch at
Ġsoph istic
Ġres umed
ins ide
Ġterm inology
le z
Ġ... ,
F LOW
ç ±
Ġpass ive
apim achinery
unc an
account s
Vertex Attrib
ĠDist ribution
ĠH H
Display Name
Ġan satz
erv es
Ġexec ut
Ġf id
I reland
ĠK err
ĠM ine
23 7
p es
18 37
xxxx xxxx
ap or
Î ³
ik ing
ĠImmutable List
ass ignment
ess ors
Prov iders
C XX
ĠL av
Ġv i
Ġbelief s
Ġvirt ually
ĉĉ ĠĠ
Ġsp okes
Qu ote
on so
ĠG az
comp any
IST S
){ $\
f urt
Ġas ymmetric
Ġanalog ue
Ġsh ield
18 3
... ]
Jose ph
Ġ% (
ĠNot Implemented
ass oci
CL R
ĠBel arus
Ġsudden ly
get Item
Ġhit ting
ĠOt to
T er
Public ations
Ġlat itude
ĠS part
Ġsub marine
an ese
Ġgeneral ize
ĠFour th
oc hem
strict Equal
n as
View er
[...]
