{
  "version": "1.0",
  "truncation": null,
  "padding": null,
  "added_tokens": [
    {
      "id": 0,
      "content": "[UNK]",
      "single_word": false,
      "lstrip": false,
      "rstrip": false,
      "normalized": false,
      "special": true
    }
  ],
  "normalizer": null,
  "pre_tokenizer": {
    "type": "Sequence",
    "pretokenizers": [
      {
        "type": "Digits",
        "individual_digits": false
      },
      {
        "type": "ByteLevel",
        "add_prefix_space": false,
        "trim_offsets": true,
        "use_regex": true
      }
    ]
  },
  "post_processor": null,
  "decoder": null,
  "model": {
    "type": "BPE",
    "dropout": null,
    "unk_token": "[UNK]",
    "continuing_subword_prefix": null,
    "end_of_word_suffix": null,
    "fuse_unk": false,
    "byte_fallback": false,
    "vocab": {
      "[UNK]": 0,
      "!": 1,
      "\"": 2,
      "#": 3,
      "$": 4,
      "%": 5,
      "&": 6,
      "'": 7,
      "(": 8,
      ")": 9,
      "*": 10,
      "+": 11,
      ",": 12,
      "-": 13,
      ".": 14,
      "/": 15,
      "0": 16,
      "1": 17,
      "2": 18,
      "3": 19,
      "4": 20,
      "5": 21,
      "6": 22,
      "7": 23,
      "8": 24,
      "9": 25,
      ":": 26,
      ";": 27,
      "<": 28,
      "=": 29,
      ">": 30,
      "?": 31,
      "@": 32,
      "A": 33,
      "B": 34,
      "C": 35,
      "D": 36,
      "E": 37,
      "F": 38,
      "G": 39,
      "H": 40,
      "I": 41,
      "J": 42,
      "K": 43,
      "L": 44,
      "M": 45,
      "N": 46,
      "O": 47,
      "P": 48,
      "Q": 49,
      "R": 50,
      "S": 51,
      "T": 52,
      "U": 53,
      "V": 54,
      "W": 55,
      "X": 56,
      "Y": 57,
      "Z": 58,
      "[": 59,
      "\\": 60,
      "]": 61,
      "^": 62,
      "_": 63,
      "`": 64,
      "a": 65,
      "b": 66,
      "c": 67,
      "d": 68,
      "e": 69,
      "f": 70,
      "g": 71,
      "h": 72,
      "i": 73,
      "j": 74,
      "k": 75,
      "l": 76,
      "m": 77,
      "n": 78,
      "o": 79,
      "p": 80,
      "q": 81,
      "r": 82,
      "s": 83,
      "t": 84,
      "u": 85,
      "v": 86,
      "w": 87,
      "x": 88,
      "y": 89,
      "z": 90,
      "{": 91,
      "|": 92,
      "}": 93,
      "~": 94,
      "¡": 95,
      "¢": 96,
      "£": 97,
      "¤": 98,
      "¥": 99,
      "¦": 100,
      "§": 101,
      "¨": 102,
      "©": 103,
      "ª": 104,
      "«": 105,
      "¬": 106,
      "®": 107,
      "¯": 108,
      "°": 109,
      "±": 110,
      "²": 111,
      "³": 112,
      "´": 113,
      "µ": 114,
      "¶": 115,
      "·": 116,
      "¸": 117,
      "¹": 118,
      "º": 119,
      "»": 120,
      "¼": 121,
      "½": 122,
      "¾": 123,
      "¿": 124,
      "Â": 125,
      "Ã": 126,
      "Ä": 127,
      "Å": 128,
      "Æ": 129,
      "Ç": 130,
      "È": 131,
      "É": 132,
      "Ê": 133,
      "Ë": 134,
      "Ì": 135,
      "Í": 136,
      "Î": 137,
      "Ï": 138,
      "Ð": 139,
      "Ñ": 140,
      "Ò": 141,
      "Ó": 142,
      "Ô": 143,
      "Õ": 144,
      "Ö": 145,
      "×": 146,
      "Ø": 147,
      "Ù": 148,
      "Ú": 149,
      "Û": 150,
      "Ü": 151,
      "Ý": 152,
      "Þ": 153,
      "ß": 154,
      "à": 155,
      "á": 156,
      "â": 157,
      "ã": 158,
      "ä": 159,
      "å": 160,
      "æ": 161,
      "ç": 162,
      "è": 163,
      "é": 164,
      "ê": 165,
      "ë": 166,
      "ì": 167,
      "í": 168,
      "î": 169,
      "ï": 170,
      "ð": 171,
      "ñ": 172,
      "ó": 173,
      "ô": 174,
      "Ā": 175,
      "ā": 176,
      "Ă": 177,
      "ă": 178,
      "Ą": 179,
      "ą": 180,
      "Ć": 181,
      "ć": 182,
      "Ĉ": 183,
      "ĉ": 184,
      "Ċ": 185,
      "ċ": 186,
      "Č": 187,
      "č": 188,
      "Ď": 189,
      "ď": 190,
      "Đ": 191,
      "đ": 192,
      "Ē": 193,
      "ē": 194,
      "Ĕ": 195,
      "ĕ": 196,
      "Ė": 197,
      "ė": 198,
      "Ę": 199,
      "ę": 200,
      "Ě": 201,
      "ě": 202,
      "Ĝ": 203,
      "ĝ": 204,
      "Ğ": 205,
      "ğ": 206,
      "Ġ": 207,
      "ġ": 208,
      "Ģ": 209,
      "ģ": 210,
      "Ĥ": 211,
      "ĥ": 212,
      "Ħ": 213,
      "ħ": 214,
      "Ĩ": 215,
      "ĩ": 216,
      "Ī": 217,
      "ī": 218,
      "Ĭ": 219,
      "ĭ": 220,
      "Į": 221,
      "į": 222,
      "İ": 223,
      "ı": 224,
      "Ĳ": 225,
      "ĳ": 226,
      "Ĵ": 227,
      "ĵ": 228,
      "Ķ": 229,
      "ķ": 230,
      "ĸ": 231,
      "Ĺ": 232,
      "ĺ": 233,
      "Ļ": 234,
      "ļ": 235,
      "Ľ": 236,
      "ľ": 237,
      "Ŀ": 238,
      "ŀ": 239,
      "Ł": 240,
      "ł": 241,
      "Ń": 242,
      "ĠĠ": 243,
      "ĠĠĠĠ": 244,
      "in": 245,
      "Ġt": 246,
      "er": 247,
      "on": 248,
      "Ġa": 249,
      "he": 250,
      "re": 251,
      "at": 252,
      "en": 253,
      "or": 254,
      "st": 255,
      "Ġthe": 256,
      "al": 257,
      "ĠĠĠ": 258,
      "an": 259,
      "ĠĠĠĠĠĠĠĠ": 260,
      "ar": 261,
      "it": 262,
      "ion": 263,
      "le": 264,
      "Ġc": 265,
      "Ġs": 266,
      "Ġo": 267,
      "is": 268,
      "ed": 269,
      "Ġf": 270,
      "es": 271,
      "Ġw": 272,
      "ro": 273,
      "ic": 274,
      "Ġp": 275,
      "ing": 276,
      "Ġin": 277,
      "et": 278,
      "ct": 279,
      "Ġb": 280,
      "nd": 281,
      "as": 282,
      "Ġof": 283,
      "Ġd": 284,
      "am": 285,
      "ent": 286,
      "el": 287,
      "Ġm": 288,
      "ur": 289,
      "Ġand": 290,
      "ĠĠĠĠĠĠĠ": 291,
      "Ġ\\": 292,
      "Ġre": 293,
      "Ġto": 294,
      "Ġ(": 295,
      "il": 296,
      "Ġn": 297,
      "Ġ$": 298,
      "ut": 299,
      "Ġ=": 300,
      "om": 301,
      "ig": 302,
      "ac": 303,
      "id": 304,
      "ation": 305,
      "im": 306,
      "ol": 307,
      "Ġth": 308,
      "Ġh": 309,
      "ĠS": 310,
      "ex": 311,
      "ĉĉ": 312,
      "un": 313,
      "ul": 314,
      "ot": 315,
      "ĠT": 316,
      "se": 317,
      ");": 318,
      "Ġ{": 319,
      "ad": 320,
      "iv": 321,
      "od": 322,
      "Ġl": 323,
      "ĠC": 324,
      "if": 325,
      "ĠA": 326,
      "ce": 327,
      "em": 328,
      "Ġis": 329,
      "ag": 330,
      "us": 331,
      "Ġ<": 332,
      "--": 333,
      "čĊ": 334,
      "Ġv": 335,
      "th": 336,
      "um": 337,
      "ab": 338,
      "pe": 339,
      "Ġ*": 340,
      "qu": 341,
      "//": 342,
      "ĠĠĠĠĠĠĠĠĠĠĠ": 343,
      "=\"": 344,
      "Ġfor": 345,
      "ch": 346,
      "ow": 347,
      "ra": 348,
      "ate": 349,
      "Ġg": 350,
      "Ġst": 351,
      "ction": 352,
      "pt": 353,
      "ĠM": 354,
      "ist": 355,
      "ers": 356,
      "ĠI": 357,
      "ly": 358,
      "ef": 359,
      "{\\": 360,
      "oc": 361,
      "Ġcon": 362,
      "Ġ}": 363,
      "</": 364,
      "ith": 365,
      "ter": 366,
      "Ġon": 367,
      "est": 368,
      "end": 369,
      "ĠP": 370,
      "ir": 371,
      "ame": 372,
      "ass": 373,
      "ĠB": 374,
      "tr": 375,
      "ht": 376,
      "Ġ\"": 377,
      "ub": 378,
      "ay": 379,
      "ver": 380,
      "Ġas": 381,
      "ath": 382,
      "Ġe": 383,
      "ue": 384,
      "Ġbe": 385,
      "res": 386,
      "20": 387,
      "and": 388,
      "ĠR": 389,
      "up": 390,
      "ĠF": 391,
      "ĠD": 392,
      "ĠH": 393,
      "ap": 394,
      "ew": 395,
      "ĠL": 396,
      "eg": 397,
      "urn": 398,
      "ĠĠĠĠĠĠĠĠĠĠĠĠĠĠĠĠ": 399,
      "Ġthat": 400,
      "Ġwith": 401,
      "ĠĠĠĠĠ": 402,
      "ri": 403,
      "av": 404,
      "**": 405,
      "_{": 406,
      "ext": 407,
      "Ġal": 408,
      "19": 409,
      "ort": 410,
      "()": 411,
      "op": 412,
      "ect": 413,
      "os": 414,
      "Ġpro": 415,
      "ĠN": 416,
      "ĠĊ": 417,
      "ĠThe": 418,
      "Ġan": 419,
      "lass": 420,
      "age": 421,
      "ess": 422,
      "ine": 423,
      "Ġ&": 424,
      "ĠG": 425,
      "Ġby": 426,
      "rom": 427,
      "\">": 428,
      "ĠE": 429,
      "art": 430,
      "pl": 431,
      "Ġwh": 432,
      "ity": 433,
      "ta": 434,
      "turn": 435,
      "ĠW": 436,
      "und": 437,
      "ph": 438,
      "Ġ$\\": 439,
      "iz": 440,
      "ight": 441,
      "Ġwas": 442,
      "ore": 443,
      "ec": 444,
      "ment": 445,
      "ype": 446,
      "ult": 447,
      "Ġthis": 448,
      "able": 449,
      "Ġcom": 450,
      "int": 451,
      "ure": 452,
      "all": 453,
      "ere": 454,
      "our": 455,
      "ack": 456,
      "Ġif": 457,
      "Ġ'": 458,
      "----": 459,
      "ref": 460,
      "og": 461,
      "per": 462,
      "Ġat": 463,
      "Ġor": 464,
      "ial": 465,
      "Ġr": 466,
      "==": 467,
      "Ġex": 468,
      "In": 469,
      "ang": 470,
      "math": 471,
      "Ġit": 472,
      "ies": 473,
      "port": 474,
      "li": 475,
      "ode": 476,
      "ke": 477,
      "âĢ": 478,
      "ile": 479,
      "00": 480,
      "ud": 481,
      "Ġfrom": 482,
      "ĠO": 483,
      "ber": 484,
      "ma": 485,
      "get": 486,
      "ption": 487,
      "ans": 488,
      "ite": 489,
      "ive": 490,
      "con": 491,
      "Ġare": 492,
      "ĠĠĠĠĠĠĠĠĠĠĠĠĠĠĠ": 493,
      "orm": 494,
      "ant": 495,
      "sp": 496,
      "ep": 497,
      "}\\": 498,
      "unction": 499,
      "ĠJ": 500,
      "^{": 501,
      "ata": 502,
      "ug": 503,
      "Ġclass": 504,
      "Ġ-": 505,
      "Ġ//": 506,
      "ary": 507,
      "}$": 508,
      "pro": 509,
      "Ġreturn": 510,
      "ase": 511,
      "),": 512,
      "str": 513,
      "ill": 514,
      "Ġwe": 515,
      "ind": 516,
      "ated": 517,
      "..": 518,
      "alue": 519,
      "ace": 520,
      "ign": 521,
      "ĠU": 522,
      "out": 523,
      "Ġtr": 524,
      "ition": 525,
      "ject": 526,
      "ft": 527,
      "ib": 528,
      "lic": 529,
      "are": 530,
      "Ġch": 531,
      "ov": 532,
      "ple": 533,
      "to": 534,
      "ser": 535,
      "text": 536,
      "ord": 537,
      "ire": 538,
      "'s": 539,
      "ast": 540,
      "->": 541,
      "::": 542,
      "Ġ@": 543,
      "Ġhe": 544,
      ").": 545,
      "Ġ+": 546,
      "ime": 547,
      "The": 548,
      "ich": 549,
      "oun": 550,
      "ev": 551,
      "ard": 552,
      "equ": 553,
      "aram": 554,
      "lo": 555,
      "Ġsh": 556,
      "}}": 557,
      "Ġle": 558,
      "Ġnot": 559,
      "Con": 560,
      "ell": 561,
      "com": 562,
      "ĉĉĉĉ": 563,
      "ge": 564,
      "ip": 565,
      "ff": 566,
      "ild": 567,
      "ĠIn": 568,
      "ens": 569,
      "(\\": 570,
      "cal": 571,
      "ĠK": 572,
      "\",": 573,
      "ost": 574,
      "ical": 575,
      "ong": 576,
      "act": 577,
      "cl": 578,
      "Ġ|": 579,
      "ia": 580,
      "201": 581,
      "St": 582,
      "Ġy": 583,
      "set": 584,
      "egin": 585,
      "put": 586,
      "fr": 587,
      "ide": 588,
      "Ġres": 589,
      "use": 590,
      "Ġse": 591,
      "ublic": 592,
      "Ġus": 593,
      "Ġfunction": 594,
      "begin": 595,
      "ĠV": 596,
      "nt": 597,
      "ave": 598,
      "ust": 599,
      "row": 600,
      "cc": 601,
      "ak": 602,
      "Ġ[": 603,
      "Ġ/": 604,
      "Ġ</": 605,
      "ice": 606,
      "Ġpl": 607,
      "Ġnew": 608,
      "ations": 609,
      "Ġar": 610,
      "fig": 611,
      "ork": 612,
      "();": 613,
      "(\"": 614,
      "ance": 615,
      "ize": 616,
      "ock": 617,
      "form": 618,
      "ence": 619,
      "_{\\": 620,
      "ull": 621,
      "so": 622,
      "Ex": 623,
      "oo": 624,
      ")$": 625,
      "ource": 626,
      "ener": 627,
      "enc": 628,
      "ain": 629,
      "ory": 630,
      "},": 631,
      "ray": 632,
      "err": 633,
      "cri": 634,
      "Ġ*/": 635,
      "low": 636,
      "',": 637,
      "io": 638,
      "dd": 639,
      "du": 640,
      "elf": 641,
      "Ġwhich": 642,
      "ian": 643,
      "Ġstr": 644,
      "Ġcan": 645,
      "abel": 646,
      "Ġun": 647,
      "âĢĵ": 648,
      "ach": 649,
      "iel": 650,
      "bject": 651,
      "ress": 652,
      "Ġj": 653,
      "****": 654,
      "right": 655,
      "}{": 656,
      "--------": 657,
      "ĠTh": 658,
      "ss": 659,
      "tring": 660,
      "Ġap": 661,
      "ield": 662,
      "Ġvar": 663,
      "Ġ:": 664,
      "200": 665,
      "eta": 666,
      "ĠSt": 667,
      "Ġdef": 668,
      "Ġk": 669,
      "Ġim": 670,
      "tain": 671,
      "../": 672,
      "ents": 673,
      "sh": 674,
      "ele": 675,
      "erm": 676,
      "eq": 677,
      "frac": 678,
      "ator": 679,
      "che": 680,
      "oul": 681,
      "this": 682,
      "the": 683,
      "ps": 684,
      "ml": 685,
      "pon": 686,
      "one": 687,
      "own": 688,
      "ther": 689,
      "Ġ.": 690,
      "))": 691,
      "Ġ_": 692,
      "ound": 693,
      "ĠĠĠĠĠĠĠĠĠĠĠĠĠĠĠĠĠĠĠ": 694,
      "('": 695,
      "Ġhas": 696,
      "Ġset": 697,
      "Ġname": 698,
      "eth": 699,
      "ll": 700,
      "ty": 701,
      "10": 702,
      "ear": 703,
      "ĠĠĠĠĠĠĠĠĠ": 704,
      "ish": 705,
      "Ġhave": 706,
      "ould": 707,
      "irst": 708,
      "te": 709,
      "tern": 710,
      "over": 711,
      "ĉĉĉ": 712,
      "Pro": 713,
      "clud": 714,
      "inal": 715,
      "Ġint": 716,
      "yst": 717,
      "div": 718,
      "18": 719,
      "ree": 720,
      "Ġpublic": 721,
      "cite": 722,
      "Name": 723,
      "sum": 724,
      "label": 725,
      "oid": 726,
      "essage": 727,
      "ĠCh": 728,
      "old": 729,
      "pect": 730,
      "fer": 731,
      "Ġhis": 732,
      "rm": 733,
      "ink": 734,
      "Ġ||": 735,
      "eb": 736,
      "name": 737,
      "param": 738,
      "====": 739,
      "odel": 740,
      "hen": 741,
      "erv": 742,
      "ict": 743,
      "ix": 744,
      "ates": 745,
      "ck": 746,
      "left": 747,
      "eng": 748,
      "oint": 749,
      "return": 750,
      "pr": 751,
      "roup": 752,
      "ual": 753,
      "Type": 754,
      "ER": 755,
      "Ġalso": 756,
      "Ġab": 757,
      "span": 758,
      "les": 759,
      "ystem": 760,
      "line": 761,
      "umber": 762,
      "key": 763,
      "></": 764,
      "Ġall": 765,
      "pec": 766,
      "ions": 767,
      "ark": 768,
      "mathb": 769,
      "ry": 770,
      "$.": 771,
      "rit": 772,
      "ld": 773,
      "ool": 774,
      "iew": 775,
      "def": 776,
      "$,": 777,
      "Ġpart": 778,
      "})": 779,
      "Ġsu": 780,
      "Ġdis": 781,
      "ount": 782,
      "led": 783,
      "mer": 784,
      ",\\": 785,
      "vent": 786,
      "wo": 787,
      "var": 788,
      "ics": 789,
      "Ġone": 790,
      "equation": 791,
      "uct": 792,
      "Ġvalue": 793,
      "Ġ!": 794,
      "Ġdo": 795,
      "ery": 796,
      "oth": 797,
      "of": 798,
      "Ġcont": 799,
      "Ġqu": 800,
      "ethod": 801,
      "IN": 802,
      "pos": 803,
      "String": 804,
      "ON": 805,
      "da": 806,
      "Ġpr": 807,
      "Ġro": 808,
      "import": 809,
      "Ġout": 810,
      "Ġconst": 811,
      "Ġwere": 812,
      "alse": 813,
      "Ġi": 814,
      "col": 815,
      "lect": 816,
      "ne": 817,
      "atch": 818,
      "Ġget": 819,
      "}.": 820,
      "><": 821,
      "yn": 822,
      "ugh": 823,
      "Ġ#": 824,
      "ert": 825,
      "Ġtype": 826,
      "ond": 827,
      "mathcal": 828,
      "arg": 829,
      "lement": 830,
      "ome": 831,
      "amb": 832,
      "cre": 833,
      "ou": 834,
      "ache": 835,
      "atic": 836,
      "ob": 837,
      "Id": 838,
      "ied": 839,
      "ely": 840,
      "ax": 841,
      "ym": 842,
      "we": 843,
      "Ġfirst": 844,
      "}(": 845,
      "type": 846,
      "ors": 847,
      "Ġcol": 848,
      "Ġresult": 849,
      "val": 850,
      "12": 851,
      "ings": 852,
      "ames": 853,
      "Ġsp": 854,
      "../../": 855,
      "Ġdata": 856,
      "pha": 857,
      "Ġbut": 858,
      "Ġup": 859,
      "ĠUn": 860,
      "Ġpre": 861,
      "ail": 862,
      "Res": 863,
      "ange": 864,
      "Ġel": 865,
      "igh": 866,
      "}^": 867,
      "fter": 868,
      "ined": 869,
      "app": 870,
      "ĠY": 871,
      "idth": 872,
      "Ġerr": 873,
      "lock": 874,
      "ox": 875,
      "Ġwill": 876,
      "html": 877,
      "Ġcomp": 878,
      "Ġdes": 879,
      "ault": 880,
      "raph": 881,
      "ST": 882,
      "To": 883,
      "}_": 884,
      "ception": 885,
      "ember": 886,
      "urre": 887,
      "RE": 888,
      "Com": 889,
      "alpha": 890,
      "Ġtwo": 891,
      "Ġself": 892,
      "Ġ`": 893,
      "iss": 894,
      "ular": 895,
      "Ġinter": 896,
      "sub": 897,
      "ove": 898,
      "Ġper": 899,
      "cent": 900,
      "Ġits": 901,
      "ĠIt": 902,
      "199": 903,
      "Ġ==": 904,
      "uild": 905,
      "trans": 906,
      "Ch": 907,
      "Ġover": 908,
      "~\\": 909,
      "ution": 910,
      "ater": 911,
      "ton": 912,
      "Ġnull": 913,
      "ann": 914,
      "Th": 915,
      "fo": 916,
      "Ġob": 917,
      "16": 918,
      "ute": 919,
      "add": 920,
      "td": 921,
      "ey": 922,
      "Ġform": 923,
      "__": 924,
      "ative": 925,
      "Ġme": 926,
      "Ġtrans": 927,
      "imes": 928,
      "Ġtime": 929,
      "round": 930,
      "cript": 931,
      "ead": 932,
      "ick": 933,
      "ptions": 934,
      "List": 935,
      "ength": 936,
      "Ġhref": 937,
      "Ġsub": 938,
      "ollow": 939,
      "Ġcl": 940,
      "ific": 941,
      "class": 942,
      "ook": 943,
      "elta": 944,
      "Ġplay": 945,
      "ational": 946,
      "Ar": 947,
      "Ġadd": 948,
      "ocal": 949,
      "Ref": 950,
      "Ġline": 951,
      "ambda": 952,
      "Ġend": 953,
      "lation": 954,
      "source": 955,
      "ng": 956,
      "ĠThis": 957,
      "ont": 958,
      "message": 959,
      "ues": 960,
      "Ġ=>": 961,
      "Ġvoid": 962,
      "Ġtheir": 963,
      "code": 964,
      "Ġother": 965,
      "bar": 966,
      "Ġund": 967,
      "AT": 968,
      "trib": 969,
      "ake": 970,
      "Ġval": 971,
      "Ġrequ": 972,
      "aw": 973,
      "Ġx": 974,
      "ule": 975,
      "$\\": 976,
      "tt": 977,
      "back": 978,
      "ample": 979,
      "ences": 980,
      ")\\": 981,
      "Ġid": 982,
      "ĠHe": 983,
      "Ġwhen": 984,
      "yle": 985,
      "Ġde": 986,
      "sert": 987,
      "ms": 988,
      "rr": 989,
      "Ġco": 990,
      "ho": 991,
      "Ġsup": 992,
      "amma": 993,
      "Ġreg": 994,
      "));": 995,
      "ersion": 996,
      "ie": 997,
      "sc": 998,
      "any": 999,
      "Ġind": 1000,
      "Ġag": 1001,
      "##": 1002,
      "Ġonly": 1003,
      "ask": 1004,
      "string": 1005,
      "urrent": 1006,
      "anc": 1007,
      "Ġ>": 1008,
      "cess": 1009,
      "ern": 1010,
      "hed": 1011,
      "ose": 1012,
      "resent": 1013,
      "********": 1014,
      "Ġwork": 1015,
      "Ġfollow": 1016,
      "ĠâĢĵ": 1017,
      "ys": 1018,
      "read": 1019,
      "Ġ)": 1020,
      "Ġhad": 1021,
      "ument": 1022,
      "item": 1023,
      "ased": 1024,
      "ise": 1025,
      "ID": 1026,
      "////": 1027,
      "serv": 1028,
      "15": 1029,
      "Ġpos": 1030,
      "Ġtrue": 1031,
      "its": 1032,
      "der": 1033,
      "son": 1034,
      "Ġso": 1035,
      "Ġne": 1036,
      "amp": 1037,
      "_\\": 1038,
      "mu": 1039,
      "arch": 1040,
      "\"/": 1041,
      "ĠĠĠĠĠĠĠĠĠĠĠĠĠĠĠĠĠĠĠĠĠĠĠĠĠĠĠĠĠĠĠĠ": 1042,
      "://": 1043,
      "LE": 1044,
      "min": 1045,
      "ternal": 1046,
      "ous": 1047,
      "Ġfalse": 1048,
      "OR": 1049,
      "Ġsc": 1050,
      "Ġcomm": 1051,
      "irect": 1052,
      "):": 1053,
      "Ġbeen": 1054,
      "Ġcase": 1055,
      "Ġwhere": 1056,
      "ca": 1057,
      "als": 1058,
      "ivate": 1059,
      "ash": 1060,
      "ider": 1061,
      "Ġen": 1062,
      "=\\": 1063,
      "value": 1064,
      "plic": 1065,
      "data": 1066,
      "Ġuse": 1067,
      "gr": 1068,
      "Ġstring": 1069,
      "pi": 1070,
      "Ġ&&": 1071,
      "Value": 1072,
      "Ġmore": 1073,
      "Ġelse": 1074,
      "efore": 1075,
      "Data": 1076,
      "Ġbet": 1077,
      "----------------": 1078,
      "Ġused": 1079,
      "._": 1080,
      "Ġdist": 1081,
      "AR": 1082,
      "11": 1083,
      "Tr": 1084,
      "ega": 1085,
      "Ġspec": 1086,
      "Ġinclud": 1087,
      "Ġdif": 1088,
      "Ġgener": 1089,
      "\");": 1090,
      "Ġthen": 1091,
      "Ġany": 1092,
      "Ġmodel": 1093,
      "ons": 1094,
      "igma": 1095,
      "lection": 1096,
      "Ġnumber": 1097,
      "eff": 1098,
      "ee": 1099,
      "Ġ\\\\": 1100,
      "Ġinst": 1101,
      "ating": 1102,
      "Ġinto": 1103,
      "\"/>": 1104,
      "work": 1105,
      "ince": 1106,
      "dot": 1107,
      "land": 1108,
      "ited": 1109,
      "}^{": 1110,
      "Ġtest": 1111,
      "AL": 1112,
      "Ġfil": 1113,
      "perty": 1114,
      "Ġ/**": 1115,
      "}_{": 1116,
      "Ġcre": 1117,
      "ier": 1118,
      "aramet": 1119,
      "Ġorg": 1120,
      "ature": 1121,
      "tem": 1122,
      "htt": 1123,
      "itle": 1124,
      "mathbb": 1125,
      "Ġwho": 1126,
      "Ġext": 1127,
      "ward": 1128,
      "ccess": 1129,
      "32": 1130,
      "Ġsuch": 1131,
      "-\\": 1132,
      "ocation": 1133,
      "ĠĠĠĠĠĠ": 1134,
      "file": 1135,
      "ade": 1136,
      "ĠCom": 1137,
      "for": 1138,
      "17": 1139,
      "not": 1140,
      "ween": 1141,
      "Ġrel": 1142,
      "Ġprov": 1143,
      "orn": 1144,
      "yp": 1145,
      "array": 1146,
      "Set": 1147,
      "];": 1148,
      "ĠAr": 1149,
      "Ġ{\\": 1150,
      "Ġem": 1151,
      "oot": 1152,
      "ĠĠĠĠĠĠĠĠĠĠĠĠĠĠĠĠĠĠĠĠĠĠĠ": 1153,
      "phi": 1154,
      "ures": 1155,
      "Refer": 1156,
      "^{\\": 1157,
      "ible": 1158,
      "EN": 1159,
      "Ġact": 1160,
      "Err": 1161,
      "Ġad": 1162,
      "self": 1163,
      "ins": 1164,
      "lambda": 1165,
      "lient": 1166,
      "Ġunder": 1167,
      "ican": 1168,
      "Ġdec": 1169,
      "section": 1170,
      "ced": 1171,
      "ility": 1172,
      "ious": 1173,
      "Ġno": 1174,
      "\")": 1175,
      "Ġsim": 1176,
      "ĠPro": 1177,
      "anag": 1178,
      "Ġthere": 1179,
      "uff": 1180,
      "SS": 1181,
      "epend": 1182,
      "\"><": 1183,
      "Ġev": 1184,
      "Col": 1185,
      "arget": 1186,
      "ists": 1187,
      "Ġequ": 1188,
      "Ġfield": 1189,
      "Ġcons": 1190,
      "ĠĠĠĠĠĠĠĠĠĠĠĠĠ": 1191,
      "198": 1192,
      "wh": 1193,
      "Ġoff": 1194,
      "Ġthey": 1195,
      "uth": 1196,
      "Ġ!=": 1197,
      "align": 1198,
      "ages": 1199,
      "14": 1200,
      "ized": 1201,
      "umn": 1202,
      "Ġrec": 1203,
      "Ġfinal": 1204,
      "âĢĻ": 1205,
      "ervice": 1206,
      "25": 1207,
      "Object": 1208,
      "Ġte": 1209,
      "Ġthan": 1210,
      "log": 1211,
      "mb": 1212,
      "ople": 1213,
      "Ġchar": 1214,
      "ities": 1215,
      "Exception": 1216,
      "hat": 1217,
      "iven": 1218,
      "Ġher": 1219,
      "13": 1220,
      "Ġafter": 1221,
      "new": 1222,
      "press": 1223,
      "ĠCon": 1224,
      "Ġph": 1225,
      "ĠQ": 1226,
      "bf": 1227,
      "Ġcor": 1228,
      "')": 1229,
      "ĠAs": 1230,
      "Ġsec": 1231,
      "uring": 1232,
      "Ġobject": 1233,
      "ished": 1234,
      "pre": 1235,
      "Ġbetween": 1236,
      "ivers": 1237,
      "part": 1238,
      "Ġshow": 1239,
      "ik": 1240,
      "olog": 1241,
      "($": 1242,
      "date": 1243,
      "Ġyear": 1244,
      "Ġmethod": 1245,
      "ement": 1246,
      "function": 1247,
      "mary": 1248,
      "way": 1249,
      "translation": 1250,
      "test": 1251,
      "Ġ///": 1252,
      "],": 1253,
      "pp": 1254,
      "ract": 1255,
      "org": 1256,
      "atus": 1257,
      "vel": 1258,
      "Test": 1259,
      "ok": 1260,
      "ient": 1261,
      "En": 1262,
      "Ġoper": 1263,
      "ream": 1264,
      "ices": 1265,
      "Ġmod": 1266,
      "ve": 1267,
      "struct": 1268,
      "Ġpe": 1269,
      "ĠNew": 1270,
      "Ġop": 1271,
      "ision": 1272,
      "arent": 1273,
      "Ġpol": 1274,
      "========": 1275,
      "ĠWe": 1276,
      "ava": 1277,
      "ars": 1278,
      "face": 1279,
      "Ġdiffer": 1280,
      "Ġent": 1281,
      "Ġeach": 1282,
      "Un": 1283,
      "ning": 1284,
      "Ġback": 1285,
      "ĠX": 1286,
      "Ġcal": 1287,
      "ines": 1288,
      "br": 1289,
      "lem": 1290,
      "requ": 1291,
      "Ġfile": 1292,
      "play": 1293,
      "width": 1294,
      "wn": 1295,
      "Error": 1296,
      "ĠAl": 1297,
      "Ġsome": 1298,
      "Ġpoint": 1299,
      "ĠZ": 1300,
      "px": 1301,
      "ilon": 1302,
      "ody": 1303,
      "References": 1304,
      "air": 1305,
      "Ġstatic": 1306,
      "Ġ(\\": 1307,
      "oy": 1308,
      "angle": 1309,
      "');": 1310,
      "ank": 1311,
      "beta": 1312,
      "Ġmay": 1313,
      "Get": 1314,
      "ower": 1315,
      "heck": 1316,
      "CT": 1317,
      "ization": 1318,
      "Ġsystem": 1319,
      "ren": 1320,
      "mathbf": 1321,
      "SE": 1322,
      "IT": 1323,
      "ever": 1324,
      "includ": 1325,
      "action": 1326,
      "red": 1327,
      "size": 1328,
      "mall": 1329,
      "Ġstate": 1330,
      "be": 1331,
      "ments": 1332,
      "ily": 1333,
      "ger": 1334,
      "sigma": 1335,
      "Ġgo": 1336,
      "Ġyou": 1337,
      "Ġest": 1338,
      "Key": 1339,
      "Ġlist": 1340,
      "Ġprodu": 1341,
      "lean": 1342,
      "\\\\": 1343,
      "par": 1344,
      "by": 1345,
      "^{-": 1346,
      "Ġkey": 1347,
      "Ind": 1348,
      "ru": 1349,
      "DE": 1350,
      "ler": 1351,
      "ĠString": 1352,
      "ric": 1353,
      "());": 1354,
      "ired": 1355,
      "().": 1356,
      "}{\\": 1357,
      "As": 1358,
      "Ġ--": 1359,
      "197": 1360,
      "ader": 1361,
      "ote": 1362,
      "000": 1363,
      "Ġusing": 1364,
      "Ġser": 1365,
      "ĠFor": 1366,
      "Ġ%": 1367,
      "evel": 1368,
      "unc": 1369,
      "Ġprivate": 1370,
      "};": 1371,
      "ilde": 1372,
      "ted": 1373,
      "At": 1374,
      "tent": 1375,
      "oci": 1376,
      "eps": 1377,
      "Ġwould": 1378,
      "outh": 1379,
      "merican": 1380,
      "Ġhigh": 1381,
      "az": 1382,
      "Ġgroup": 1383,
      "Ġkn": 1384,
      "Ġfe": 1385,
      "gamma": 1386,
      "summary": 1387,
      "ify": 1388,
      "ts": 1389,
      "ĠAn": 1390,
      "File": 1391,
      "me": 1392,
      "rough": 1393,
      "ĠEx": 1394,
      "Element": 1395,
      "ified": 1396,
      "30": 1397,
      "ĠSh": 1398,
      "For": 1399,
      "ball": 1400,
      "ui": 1401,
      "mod": 1402,
      "Ġrep": 1403,
      "Ġfl": 1404,
      "roll": 1405,
      "dis": 1406,
      "Ġz": 1407,
      "co": 1408,
      "Im": 1409,
      "Class": 1410,
      "21": 1411,
      "Ġnon": 1412,
      "Ġarg": 1413,
      "inter": 1414,
      "table": 1415,
      "url": 1416,
      "ken": 1417,
      "til": 1418,
      "orld": 1419,
      "Ġcall": 1420,
      "iver": 1421,
      "ces": 1422,
      "ason": 1423,
      "ponent": 1424,
      "ector": 1425,
      "Ġour": 1426,
      "Ġacc": 1427,
      "Ġsign": 1428,
      "Ġthese": 1429,
      "By": 1430,
      "rib": 1431,
      "indow": 1432,
      "+\\": 1433,
      "Ġgiven": 1434,
      "view": 1435,
      "Ġsame": 1436,
      "Ġed": 1437,
      "22": 1438,
      "abl": 1439,
      "Ġshe": 1440,
      "gy": 1441,
      "rite": 1442,
      "uss": 1443,
      "irc": 1444,
      "Ġsol": 1445,
      "ner": 1446,
      "order": 1447,
      "Ġabout": 1448,
      "AN": 1449,
      "Ġstart": 1450,
      "Ġstud": 1451,
      "mathrm": 1452,
      "*}": 1453,
      "Ġcomple": 1454,
      "time": 1455,
      "Ġtra": 1456,
      "^\\": 1457,
      "Ġfound": 1458,
      "64": 1459,
      "Ġass": 1460,
      "ground": 1461,
      "Ġeff": 1462,
      "rol": 1463,
      "rho": 1464,
      "att": 1465,
      "Ġerror": 1466,
      "ron": 1467,
      "Ġmin": 1468,
      "/**": 1469,
      "ME": 1470,
      "ension": 1471,
      "raw": 1472,
      "ally": 1473,
      "Requ": 1474,
      "ĠâĢ": 1475,
      "chool": 1476,
      "figure": 1477,
      "delta": 1478,
      "ets": 1479,
      "50": 1480,
      "length": 1481,
      "pace": 1482,
      "itial": 1483,
      "atri": 1484,
      "reg": 1485,
      "ister": 1486,
      "(),": 1487,
      "We": 1488,
      "Ġinv": 1489,
      "nb": 1490,
      "ĉĉĉĉĉ": 1491,
      "Sh": 1492,
      "rc": 1493,
      "Ġu": 1494,
      "ocument": 1495,
      "util": 1496,
      "Ġparamet": 1497,
      "respon": 1498,
      "Ġelement": 1499,
      "Ġcent": 1500,
      "Node": 1501,
      "index": 1502,
      "\";": 1503,
      "uffer": 1504,
      "let": 1505,
      "Ġorder": 1506,
      "Ġlink": 1507,
      "const": 1508,
      "Ġfollowing": 1509,
      "Ġsing": 1510,
      "ĠSe": 1511,
      "bol": 1512,
      "Ġac": 1513,
      "Ġmost": 1514,
      "Ġshould": 1515,
      "ting": 1516,
      "list": 1517,
      "cription": 1518,
      "Ġcontain": 1519,
      "Event": 1520,
      "Ġ/*": 1521,
      "dition": 1522,
      "Ġ:=": 1523,
      "UL": 1524,
      "link": 1525,
      ")}": 1526,
      ".</": 1527,
      "On": 1528,
      "Ġcurrent": 1529,
      "Ġgr": 1530,
      "Ġprob": 1531,
      "Ġsecond": 1532,
      "Ġ);": 1533,
      "Ġwhile": 1534,
      "ww": 1535,
      "reak": 1536,
      "cept": 1537,
      "['": 1538,
      "field": 1539,
      "]{": 1540,
      "ically": 1541,
      "ĠIf": 1542,
      "oh": 1543,
      "go": 1544,
      "/*": 1545,
      "big": 1546,
      "ential": 1547,
      "ports": 1548,
      "tau": 1549,
      "void": 1550,
      "ared": 1551,
      "theta": 1552,
      "24": 1553,
      "ough": 1554,
      "Ġrun": 1555,
      "Ġstruct": 1556,
      "load": 1557,
      "Ġappro": 1558,
      "Ġ?": 1559,
      "$-": 1560,
      "top": 1561,
      "Ġthrough": 1562,
      "Ġterm": 1563,
      "uration": 1564,
      "nbsp": 1565,
      "ĠCol": 1566,
      "path": 1567,
      "uch": 1568,
      "100": 1569,
      "Ġdirect": 1570,
      "Time": 1571,
      "ah": 1572,
      "CO": 1573,
      "Ġarray": 1574,
      "Ġlong": 1575,
      "fl": 1576,
      "lob": 1577,
      "ected": 1578,
      "].": 1579,
      "rap": 1580,
      "An": 1581,
      "cdot": 1582,
      "color": 1583,
      "oad": 1584,
      "arrow": 1585,
      "Ġsize": 1586,
      "rem": 1587,
      "nu": 1588,
      "ott": 1589,
      "Ġassert": 1590,
      "\":": 1591,
      "ense": 1592,
      "Ġpeople": 1593,
      "rop": 1594,
      "iversity": 1595,
      "Ġboth": 1596,
      "PE": 1597,
      "Ġhand": 1598,
      "Equ": 1599,
      "Ġwell": 1600,
      "Ġexpect": 1601,
      "Ã©": 1602,
      "Ġdet": 1603,
      "Index": 1604,
      "}$.": 1605,
      "ism": 1606,
      "times": 1607,
      "comm": 1608,
      "Ġam": 1609,
      "Ġ},": 1610,
      "ulti": 1611,
      "leq": 1612,
      "other": 1613,
      "Ġpartic": 1614,
      "ĠĠĠĠĠĠĠĠĠĠĠĠ": 1615,
      "Def": 1616,
      "ĠTr": 1617,
      "ymbol": 1618,
      "}$,": 1619,
      "Ġlocal": 1620,
      "script": 1621,
      "man": 1622,
      "opy": 1623,
      "med": 1624,
      "oolean": 1625,
      "partial": 1626,
      "ĠĠĊ": 1627,
      "Ġagain": 1628,
      "net": 1629,
      "ury": 1630,
      "pert": 1631,
      "roid": 1632,
      "Ġ===": 1633,
      "que": 1634,
      "http": 1635,
      "try": 1636,
      "}(\\": 1637,
      "pm": 1638,
      "196": 1639,
      "ush": 1640,
      "ĠInd": 1641,
      "Qu": 1642,
      "ases": 1643,
      "TE": 1644,
      "ency": 1645,
      "Ġthrow": 1646,
      "space": 1647,
      "sec": 1648,
      "orth": 1649,
      "Path": 1650,
      "Array": 1651,
      "omega": 1652,
      "owever": 1653,
      "pty": 1654,
      "View": 1655,
      "center": 1656,
      "ral": 1657,
      "Ġevent": 1658,
      "Ġthree": 1659,
      "formation": 1660,
      "point": 1661,
      "aj": 1662,
      "eqn": 1663,
      "anager": 1664,
      "Request": 1665,
      "PI": 1666,
      "Ġdifferent": 1667,
      "lay": 1668,
      "Info": 1669,
      "pack": 1670,
      "ants": 1671,
      "RO": 1672,
      "position": 1673,
      "tribute": 1674,
      "']": 1675,
      "af": 1676,
      "AC": 1677,
      "Ġperform": 1678,
      "quad": 1679,
      "node": 1680,
      "group": 1681,
      "met": 1682,
      "evelop": 1683,
      "ane": 1684,
      "Ġfr": 1685,
      "ike": 1686,
      "js": 1687,
      "atrix": 1688,
      "Int": 1689,
      "...": 1690,
      "mp": 1691,
      "umer": 1692,
      "Text": 1693,
      "ouse": 1694,
      "ten": 1695,
      "Ġvari": 1696,
      "ession": 1697,
      "Ġ(!": 1698,
      "bers": 1699,
      "public": 1700,
      "Add": 1701,
      "uc": 1702,
      "vert": 1703,
      "location": 1704,
      "ived": 1705,
      "':": 1706,
      "With": 1707,
      "ives": 1708,
      "Ġneed": 1709,
      "Ġsur": 1710,
      "Ġ});": 1711,
      "Field": 1712,
      "bed": 1713,
      "Ġfact": 1714,
      "lear": 1715,
      "State": 1716,
      "Context": 1717,
      "sk": 1718,
      "prot": 1719,
      "Map": 1720,
      "fty": 1721,
      "())": 1722,
      "Delta": 1723,
      "ulation": 1724,
      "Ġrem": 1725,
      "Ġresp": 1726,
      "define": 1727,
      "ctions": 1728,
      "////////": 1729,
      "Ġprocess": 1730,
      "infty": 1731,
      "Ġconsider": 1732,
      "Ġthem": 1733,
      "ining": 1734,
      "Ġduring": 1735,
      "map": 1736,
      "iter": 1737,
      "40": 1738,
      "ale": 1739,
      "ĠAmerican": 1740,
      "Ġtem": 1741,
      "Ġbefore": 1742,
      "Ġca": 1743,
      "Ġvalues": 1744,
      "Ġwrit": 1745,
      "Ġrequest": 1746,
      "Ġ/>": 1747,
      "Ġ$(": 1748,
      "ots": 1749,
      "sq": 1750,
      "eqref": 1751,
      "23": 1752,
      "ross": 1753,
      "tilde": 1754,
      "arge": 1755,
      "Config": 1756,
      "ION": 1757,
      "Ġdr": 1758,
      "Âł": 1759,
      "ful": 1760,
      "md": 1761,
      "Re": 1762,
      "stance": 1763,
      "ife": 1764,
      "Ġresults": 1765,
      "utton": 1766,
      "Ġmet": 1767,
      "Ġ,": 1768,
      "ively": 1769,
      "api": 1770,
      "TR": 1771,
      "Not": 1772,
      "Ġrele": 1773,
      "itor": 1774,
      "Ġnil": 1775,
      "\\,": 1776,
      "Ph": 1777,
      "ride": 1778,
      "Ġpar": 1779,
      "Ġbuild": 1780,
      "``": 1781,
      "\"></": 1782,
      "Ġpass": 1783,
      "Item": 1784,
      "amespace": 1785,
      "Ġorig": 1786,
      "ission": 1787,
      "\"\"": 1788,
      "ident": 1789,
      "off": 1790,
      "erson": 1791,
      "****************": 1792,
      "lang": 1793,
      "chi": 1794,
      "des": 1795,
      "Ġright": 1796,
      "Ġhim": 1797,
      "Al": 1798,
      "rt": 1799,
      "System": 1800,
      "result": 1801,
      "cale": 1802,
      "Ġbeing": 1803,
      "odes": 1804,
      "see": 1805,
      "LA": 1806,
      "';": 1807,
      "perties": 1808,
      "ural": 1809,
      "lose": 1810,
      "Ġtyp": 1811,
      "assert": 1812,
      "Ġimport": 1813,
      "ĠĠĠĠĠĠĠĠĠĠĠĠĠĠĠĠĠĠĠĠĠĠĠĠĠĠĠ": 1814,
      "box": 1815,
      "imit": 1816,
      "Ġread": 1817,
      "aces": 1818,
      "her": 1819,
      "Ġ__": 1820,
      "++": 1821,
      "ather": 1822,
      "Ġmem": 1823,
      "Ġdisc": 1824,
      "gram": 1825,
      "ilter": 1826,
      "\".": 1827,
      "igned": 1828,
      "xi": 1829,
      "ĠCoun": 1830,
      "ĠFr": 1831,
      "Ġbound": 1832,
      "etwork": 1833,
      "Ġtitle": 1834,
      "'t": 1835,
      "olds": 1836,
      "Ġdefault": 1837,
      "Ġserv": 1838,
      "no": 1839,
      "|\\": 1840,
      "Form": 1841,
      "Or": 1842,
      "ĠLe": 1843,
      "ĠUniversity": 1844,
      "$$": 1845,
      "Ġmain": 1846,
      "Ġsupport": 1847,
      "Ġref": 1848,
      "Ġsmall": 1849,
      "Over": 1850,
      "ĠOn": 1851,
      "Ġaut": 1852,
      "Ġrepresent": 1853,
      "Service": 1854,
      "Ġyears": 1855,
      "user": 1856,
      "ays": 1857,
      "Ġ};": 1858,
      "Ġatt": 1859,
      "Ġnode": 1860,
      "iving": 1861,
      "Size": 1862,
      "Code": 1863,
      "istory": 1864,
      "amily": 1865,
      "Ġfin": 1866,
      "ability": 1867,
      "valid": 1868,
      "very": 1869,
      "ality": 1870,
      "ogle": 1871,
      "where": 1872,
      "overn": 1873,
      "Ġobtain": 1874,
      "Hand": 1875,
      "reat": 1876,
      "Ġcontin": 1877,
      "sl": 1878,
      "object": 1879,
      "nav": 1880,
      "Ġlinks": 1881,
      "ĠUnited": 1882,
      "Ġpop": 1883,
      "UR": 1884,
      "IC": 1885,
      "Ġear": 1886,
      "apache": 1887,
      "tribut": 1888,
      "Ġsee": 1889,
      "Ġeffect": 1890,
      "adi": 1891,
      "This": 1892,
      "Ġdoes": 1893,
      "Ġteam": 1894,
      "Of": 1895,
      "word": 1896,
      "ari": 1897,
      "Ġnow": 1898,
      "plate": 1899,
      "mit": 1900,
      "Ġmed": 1901,
      "[]": 1902,
      "Ġtop": 1903,
      "Result": 1904,
      "Ġdescri": 1905,
      "Ġtext": 1906,
      "Ġbr": 1907,
      "amed": 1908,
      "uf": 1909,
      "Ġpath": 1910,
      "Ġbel": 1911,
      "ĠDe": 1912,
      "Ġart": 1913,
      "Ġsince": 1914,
      "Cont": 1915,
      "eturn": 1916,
      "ync": 1917,
      "Des": 1918,
      "gor": 1919,
      "External": 1920,
      "ootball": 1921,
      "33": 1922,
      "ormal": 1923,
      "eqnarray": 1924,
      "ĠSc": 1925,
      "annel": 1926,
      "create": 1927,
      "Ġmade": 1928,
      "true": 1929,
      "orem": 1930,
      "Ġmap": 1931,
      "ship": 1932,
      "ograph": 1933,
      "Ġallow": 1934,
      "194": 1935,
      "bo": 1936,
      "vious": 1937,
      "ats": 1938,
      "MA": 1939,
      "tab": 1940,
      "Val": 1941,
      "input": 1942,
      "Ġdistrib": 1943,
      "Ġlast": 1944,
      "less": 1945,
      "ior": 1946,
      "ology": 1947,
      "Ġrecord": 1948,
      "Ġlog": 1949,
      "with": 1950,
      "sim": 1951,
      "acter": 1952,
      "Ġmon": 1953,
      "Ġexample": 1954,
      "uthor": 1955,
      "urs": 1956,
      "Ġcoun": 1957,
      "Ġinput": 1958,
      "idd": 1959,
      "Ġmax": 1960,
      "ling": 1961,
      "plication": 1962,
      ")$.": 1963,
      "Ġmany": 1964,
      "max": 1965,
      "ification": 1966,
      "Ġobserv": 1967,
      "ina": 1968,
      "Ġleft": 1969,
      "from": 1970,
      "respond": 1971,
      "Ġfind": 1972,
      "psi": 1973,
      "inition": 1974,
      "atter": 1975,
      "Ġtarget": 1976,
      "ttp": 1977,
      "ape": 1978,
      "Ġknown": 1979,
      "default": 1980,
      "}}\\": 1981,
      "error": 1982,
      "Ġapp": 1983,
      "Ġra": 1984,
      "usic": 1985,
      "plit": 1986,
      "195": 1987,
      "Ġindex": 1988,
      "state": 1989,
      "ually": 1990,
      "Om": 1991,
      "ope": 1992,
      "Ġappe": 1993,
      "27": 1994,
      "Ġpresent": 1995,
      "ags": 1996,
      "istr": 1997,
      "LO": 1998,
      "28": 1999,
      "Ġrefer": 2000,
      "ends": 2001,
      "abled": 2002,
      "nder": 2003,
      "Ġcalled": 2004,
      "func": 2005,
      "Ġlead": 2006,
      "He": 2007,
      "Ġbeg": 2008,
      "ĠRes": 2009,
      "ĠčĊ": 2010,
      "Ġcondition": 2011,
      "Ġbl": 2012,
      "Ġcheck": 2013,
      "Ġanal": 2014,
      "UT": 2015,
      "etail": 2016,
      "ero": 2017,
      "iction": 2018,
      "ubl": 2019,
      "iled": 2020,
      "ober": 2021,
      "uble": 2022,
      "Ġmust": 2023,
      ".\"": 2024,
      "reate": 2025,
      "Ġopen": 2026,
      "config": 2027,
      "Ġinstance": 2028,
      "lected": 2029,
      "Ġoptions": 2030,
      "mon": 2031,
      "ĠEng": 2032,
      "pression": 2033,
      "block": 2034,
      "search": 2035,
      "ustr": 2036,
      "Ġplayers": 2037,
      "ohn": 2038,
      "AD": 2039,
      ".,": 2040,
      "Build": 2041,
      "loat": 2042,
      "ret": 2043,
      "fin": 2044,
      "}[": 2045,
      "!--": 2046,
      "26": 2047,
      "Ġfour": 2048,
      "=\"../../": 2049,
      "tainer": 2050,
      "ĠIs": 2051,
      "ĠĠĠĠĊ": 2052,
      "ilar": 2053,
      "cause": 2054,
      "Omega": 2055,
      "oss": 2056,
      "uage": 2057,
      "ides": 2058,
      "Ġchild": 2059,
      "Ġlater": 2060,
      "ift": 2061,
      "tes": 2062,
      "Ġbased": 2063,
      "Ġown": 2064,
      "epsilon": 2065,
      "Ġcontext": 2066,
      "Ġmake": 2067,
      "omet": 2068,
      "ided": 2069,
      "Ġposition": 2070,
      "Ġmass": 2071,
      "nection": 2072,
      "side": 2073,
      "asure": 2074,
      "include": 2075,
      "ival": 2076,
      "non": 2077,
      "Ġbecause": 2078,
      "ĠMar": 2079,
      "Ġconfig": 2080,
      "Gamma": 2081,
      "Ġprot": 2082,
      "Ġsource": 2083,
      "FF": 2084,
      "sup": 2085,
      "start": 2086,
      "Ġdevelop": 2087,
      "Ġversion": 2088,
      "ĠRe": 2089,
      "Ġuser": 2090,
      "bl": 2091,
      "ole": 2092,
      "ustom": 2093,
      "otype": 2094,
      "ume": 2095,
      "fra": 2096,
      "olution": 2097,
      "lobal": 2098,
      "irt": 2099,
      "Message": 2100,
      "Fr": 2101,
      "}_{\\": 2102,
      "Query": 2103,
      "Ġmov": 2104,
      "ML": 2105,
      "Ġ()": 2106,
      "model": 2107,
      "Trans": 2108,
      "ixed": 2109,
      "bum": 2110,
      "aid": 2111,
      "style": 2112,
      "Group": 2113,
      "ches": 2114,
      "ename": 2115,
      "ponse": 2116,
      "CH": 2117,
      "energy": 2118,
      "='": 2119,
      "Ġbreak": 2120,
      "Ġstyle": 2121,
      "inc": 2122,
      "Ġposs": 2123,
      "Ġbase": 2124,
      "ley": 2125,
      "Ġlarge": 2126,
      "cont": 2127,
      "Ġbro": 2128,
      "elect": 2129,
      "Ġspace": 2130,
      "Ġseries": 2131,
      "Inter": 2132,
      "arn": 2133,
      "Ġsingle": 2134,
      "Ġident": 2135,
      "IS": 2136,
      "Ġrece": 2137,
      "ica": 2138,
      "Ġman": 2139,
      "member": 2140,
      "MP": 2141,
      "por": 2142,
      "icon": 2143,
      "web": 2144,
      "Ġcomput": 2145,
      "rel": 2146,
      "Is": 2147,
      "comp": 2148,
      "Ġinitial": 2149,
      "ources": 2150,
      "Ġcould": 2151,
      "ULL": 2152,
      "Model": 2153,
      "Ġ${\\": 2154,
      "Ġnext": 2155,
      "ĠGet": 2156,
      "uments": 2157,
      "ai": 2158,
      "Ġexp": 2159,
      "29": 2160,
      "une": 2161,
      "ED": 2162,
      "options": 2163,
      "Cell": 2164,
      "lp": 2165,
      "ĠPh": 2166,
      "^*": 2167,
      "Out": 2168,
      "elete": 2169,
      "Ġincluding": 2170,
      "raphics": 2171,
      "omen": 2172,
      "Ġcreate": 2173,
      "https": 2174,
      "wit": 2175,
      "Ġgu": 2176,
      "Ġopt": 2177,
      "--------------------------------": 2178,
      "All": 2179,
      "evice": 2180,
      "ĠShe": 2181,
      "Ġlike": 2182,
      "Property": 2183,
      "ĠSystem": 2184,
      "Ġlevel": 2185,
      "ood": 2186,
      "ĠStates": 2187,
      "Ġdefined": 2188,
      "ination": 2189,
      "arri": 2190,
      "version": 2191,
      "ene": 2192,
      "From": 2193,
      "Ġevery": 2194,
      "call": 2195,
      "ĠPr": 2196,
      "####": 2197,
      "Ġfilm": 2198,
      ")$,": 2199,
      "iag": 2200,
      "Up": 2201,
      "Reg": 2202,
      "Ġcorrespond": 2203,
      "ators": 2204,
      "Ġtak": 2205,
      "chn": 2206,
      "enu": 2207,
      "ĉĉĉĉĉĉ": 2208,
      "Ġjust": 2209,
      "Ġcode": 2210,
      "Ġvis": 2211,
      "Ġinformation": 2212,
      "tings": 2213,
      "Ġinteg": 2214,
      "sqrt": 2215,
      "Ser": 2216,
      "enn": 2217,
      "Ġincre": 2218,
      "Ġblock": 2219,
      "ait": 2220,
      "ux": 2221,
      "80": 2222,
      "IG": 2223,
      "ird": 2224,
      "psilon": 2225,
      "title": 2226,
      "ĠFig": 2227,
      "Call": 2228,
      "Manager": 2229,
      "New": 2230,
      "Ġrespect": 2231,
      "Arg": 2232,
      "60": 2233,
      "Ġpres": 2234,
      "Ġgeneral": 2235,
      "duct": 2236,
      "parent": 2237,
      "Dis": 2238,
      "head": 2239,
      "tal": 2240,
      "Ġ\\,": 2241,
      "ague": 2242,
      "uck": 2243,
      "Pl": 2244,
      "ths": 2245,
      "my": 2246,
      "bit": 2247,
      "ĠCl": 2248,
      "Ġjava": 2249,
      "body": 2250,
      "Ġagainst": 2251,
      "cm": 2252,
      "Ġassum": 2253,
      "ĠOr": 2254,
      "ilt": 2255,
      "Ġbool": 2256,
      "method": 2257,
      "Table": 2258,
      "bs": 2259,
      "Client": 2260,
      "aint": 2261,
      "olv": 2262,
      "ET": 2263,
      "Log": 2264,
      "AB": 2265,
      "âĢĿ": 2266,
      "ended": 2267,
      "info": 2268,
      "plement": 2269,
      "ĠAt": 2270,
      "Ġseason": 2271,
      "oper": 2272,
      "ynam": 2273,
      "down": 2274,
      "Ġlet": 2275,
      "ched": 2276,
      "Response": 2277,
      "Ġdep": 2278,
      "ifier": 2279,
      "ness": 2280,
      "AS": 2281,
      "ING": 2282,
      "Ġitem": 2283,
      "Ġdepend": 2284,
      "Ġcontent": 2285,
      "}=": 2286,
      "itive": 2287,
      "Ġbackground": 2288,
      "Ġocc": 2289,
      "posed": 2290,
      "Ġestabl": 2291,
      "ocus": 2292,
      "ender": 2293,
      "atures": 2294,
      "Ġmulti": 2295,
      "Ġoriginal": 2296,
      "ĠGr": 2297,
      "Count": 2298,
      "^{(": 2299,
      "vare": 2300,
      "ored": 2301,
      "ught": 2302,
      "Ġabove": 2303,
      "rodu": 2304,
      "event": 2305,
      "Ġaddition": 2306,
      "check": 2307,
      "34": 2308,
      "Ġfootball": 2309,
      "rec": 2310,
      "Ġexper": 2311,
      "subsection": 2312,
      "Ġmag": 2313,
      ")(": 2314,
      "andard": 2315,
      "roller": 2316,
      "ĠMay": 2317,
      "stru": 2318,
      "caption": 2319,
      "Ġmatch": 2320,
      "}^{\\": 2321,
      "''": 2322,
      "iod": 2323,
      "imal": 2324,
      "Ġ($": 2325,
      "Ġsever": 2326,
      "Ġview": 2327,
      "ĠĠĠĠĠĠĠĠĠĠ": 2328,
      "uro": 2329,
      "ottom": 2330,
      "Ġjo": 2331,
      "varepsilon": 2332,
      "rangle": 2333,
      "Mod": 2334,
      "ĠSp": 2335,
      "ĠReg": 2336,
      "2015": 2337,
      "context": 2338,
      "2010": 2339,
      "aut": 2340,
      "dt": 2341,
      "ances": 2342,
      "els": 2343,
      "ection": 2344,
      "vec": 2345,
      "Ġrema": 2346,
      "Read": 2347,
      "light": 2348,
      "ks": 2349,
      "Ġrange": 2350,
      "=\"+": 2351,
      "Ġdue": 2352,
      "base": 2353,
      "Ġvery": 2354,
      "99": 2355,
      "do": 2356,
      "ĠBr": 2357,
      "2014": 2358,
      "ebug": 2359,
      "eter": 2360,
      "olic": 2361,
      "ĠWorld": 2362,
      "ij": 2363,
      "Ġalbum": 2364,
      "hip": 2365,
      "ĠJohn": 2366,
      "End": 2367,
      "Ġenergy": 2368,
      "Ġschool": 2369,
      "Ġwithin": 2370,
      "ĠSouth": 2371,
      "])": 2372,
      "dom": 2373,
      "ĠCan": 2374,
      "~~": 2375,
      "cer": 2376,
      "Ġyour": 2377,
      "opt": 2378,
      "Method": 2379,
      "ivity": 2380,
      "gorith": 2381,
      "doc": 2382,
      "ES": 2383,
      "rightarrow": 2384,
      "UN": 2385,
      "Ġsum": 2386,
      "Ġreal": 2387,
      "================": 2388,
      "ĠCar": 2389,
      "Ġuntil": 2390,
      "ison": 2391,
      "Ġeven": 2392,
      "cast": 2393,
      "Rec": 2394,
      "false": 2395,
      "35": 2396,
      "2013": 2397,
      ")=": 2398,
      "DO": 2399,
      "2016": 2400,
      "ĠNational": 2401,
      "ailable": 2402,
      "ules": 2403,
      "content": 2404,
      "ised": 2405,
      "Ġav": 2406,
      "prototype": 2407,
      "imension": 2408,
      "Fact": 2409,
      "0000": 2410,
      "urch": 2411,
      "count": 2412,
      "using": 2413,
      "semb": 2414,
      "Ġbecom": 2415,
      "ĠSet": 2416,
      "Input": 2417,
      "Ġexist": 2418,
      "Ġlength": 2419,
      "Options": 2420,
      ">(": 2421,
      "ĉĠĠĠ": 2422,
      "Ġtable": 2423,
      "ibr": 2424,
      "2011": 2425,
      "ium": 2426,
      "ensure": 2427,
      "hes": 2428,
      "Ġproject": 2429,
      "2012": 2430,
      "ternational": 2431,
      "Ġstd": 2432,
      "ĠList": 2433,
      "iron": 2434,
      "quot": 2435,
      "Status": 2436,
      "ique": 2437,
      "Ġq": 2438,
      "Ġnetwork": 2439,
      "ience": 2440,
      "Stream": 2441,
      "ĠAll": 2442,
      "ately": 2443,
      "wards": 2444,
      "Ġbir": 2445,
      "ĠEn": 2446,
      "andom": 2447,
      "irtual": 2448,
      "textbf": 2449,
      "Ġsuccess": 2450,
      "uster": 2451,
      "2019": 2452,
      "Override": 2453,
      "Ġfamily": 2454,
      "2017": 2455,
      "imum": 2456,
      "Ġproperty": 2457,
      "hand": 2458,
      "current": 2459,
      "Ġmark": 2460,
      "ware": 2461,
      "Ġloc": 2462,
      "((": 2463,
      "Ġdom": 2464,
      "ENT": 2465,
      "Ġenc": 2466,
      "ĠHowever": 2467,
      "Ġestim": 2468,
      "google": 2469,
      "Ġ-->": 2470,
      "ĠJan": 2471,
      "Ġwidth": 2472,
      "Ġmeasure": 2473,
      "Token": 2474,
      "Ġhead": 2475,
      "ĠWar": 2476,
      "Ġtry": 2477,
      "Ġden": 2478,
      "aper": 2479,
      "Ġold": 2480,
      "Ġdown": 2481,
      "Ġoutput": 2482,
      "package": 2483,
      "ital": 2484,
      "Ġcr": 2485,
      "came": 2486,
      "Ġcur": 2487,
      "ĠAd": 2488,
      "ster": 2489,
      "Ġprevious": 2490,
      "90": 2491,
      "Ġalong": 2492,
      "cul": 2493,
      "Ġchang": 2494,
      "Big": 2495,
      "onse": 2496,
      "Ġassoci": 2497,
      "Ġ<<": 2498,
      "atab": 2499,
      "Ġbecame": 2500,
      "Pr": 2501,
      "2018": 2502,
      "cor": 2503,
      "wid": 2504,
      "circ": 2505,
      "](": 2506,
      "ĠPar": 2507,
      "Ġprogram": 2508,
      "ĠÐ": 2509,
      "ideo": 2510,
      "ram": 2511,
      "core": 2512,
      "ords": 2513,
      "Ġpost": 2514,
      "varphi": 2515,
      "de": 2516,
      "ĠPl": 2517,
      "Ġcharacter": 2518,
      "db": 2519,
      "User": 2520,
      "Ġpower": 2521,
      "Cl": 2522,
      "attern": 2523,
      "ensity": 2524,
      "Ġelect": 2525,
      "ependent": 2526,
      "Ġresponse": 2527,
      "image": 2528,
      "Ġmy": 2529,
      "Ġthose": 2530,
      "Ġparameters": 2531,
      "ĠGe": 2532,
      "ĠCounty": 2533,
      "Ġdocument": 2534,
      "Ġwhat": 2535,
      "Ġparameter": 2536,
      "emph": 2537,
      "mand": 2538,
      "75": 2539,
      "Ġtri": 2540,
      "typ": 2541,
      "si": 2542,
      "Ġsimilar": 2543,
      "Ġsection": 2544,
      "ae": 2545,
      "Ġrequire": 2546,
      "Ġnear": 2547,
      "Ġsrc": 2548,
      "Ġtotal": 2549,
      "Ġarea": 2550,
      "static": 2551,
      "Color": 2552,
      "Util": 2553,
      "IP": 2554,
      "Ġinclude": 2555,
      "Ġway": 2556,
      "ajor": 2557,
      "Ġmessage": 2558,
      "CE": 2559,
      "Ġder": 2560,
      "includeg": 2561,
      "includegraphics": 2562,
      "Ġexpl": 2563,
      "lt": 2564,
      "}).": 2565,
      "frak": 2566,
      "ĠJul": 2567,
      "US": 2568,
      "OT": 2569,
      "Ġet": 2570,
      "ĠBrit": 2571,
      "gress": 2572,
      "Equal": 2573,
      "Ġcolor": 2574,
      "Ġseveral": 2575,
      "pose": 2576,
      "ĠBl": 2577,
      "next": 2578,
      "Ġboolean": 2579,
      "ety": 2580,
      "print": 2581,
      "Ġregion": 2582,
      "){": 2583,
      "www": 2584,
      "ĠYork": 2585,
      "dec": 2586,
      "module": 2587,
      "Style": 2588,
      "Ġsat": 2589,
      "ateg": 2590,
      "Ġwithout": 2591,
      "mm": 2592,
      "Ð°": 2593,
      "ĠNULL": 2594,
      "button": 2595,
      "Builder": 2596,
      "acy": 2597,
      "ament": 2598,
      "Null": 2599,
      "ĠNov": 2600,
      "ording": 2601,
      "ither": 2602,
      "ploy": 2603,
      "Ġhere": 2604,
      "urity": 2605,
      "Ġvalid": 2606,
      "tn": 2607,
      "bm": 2608,
      "Ġservice": 2609,
      "Ġhow": 2610,
      "uary": 2611,
      "ĠSchool": 2612,
      "Ġcontrol": 2613,
      "arams": 2614,
      "Ġcommun": 2615,
      "au": 2616,
      "ysis": 2617,
      "apt": 2618,
      "place": 2619,
      "overline": 2620,
      "oop": 2621,
      "Ġaction": 2622,
      "45": 2623,
      "Ġexpected": 2624,
      "Ġdid": 2625,
      "inary": 2626,
      "lin": 2627,
      "df": 2628,
      "lim": 2629,
      "IL": 2630,
      "gt": 2631,
      "31": 2632,
      "Ġbeh": 2633,
      "01": 2634,
      "refer": 2635,
      "Instance": 2636,
      "query": 2637,
      "Source": 2638,
      "Ġdeterm": 2639,
      "36": 2640,
      "ĉĊ": 2641,
      "|-": 2642,
      "has": 2643,
      "Ġplace": 2644,
      "ĠTest": 2645,
      "Ġbas": 2646,
      "geq": 2647,
      "iment": 2648,
      "client": 2649,
      "erman": 2650,
      "&\\": 2651,
      "ĠWh": 2652,
      "ĠĠĠĠĠĠĠĠĠĠĠĠĠĠĠĠĠĠĠĠĠĠĠĠĠĠĠĠĠĠĠ": 2653,
      "ĠTo": 2654,
      "Ġimage": 2655,
      "Ġsuper": 2656,
      "2009": 2657,
      "olume": 2658,
      "ĠBy": 2659,
      "[\\": 2660,
      ".~\\": 2661,
      "ables": 2662,
      "Head": 2663,
      "Sub": 2664,
      "icro": 2665,
      "Ġsong": 2666,
      "uk": 2667,
      "Ġgame": 2668,
      "ĠAnd": 2669,
      "riter": 2670,
      "ustral": 2671,
      "*/": 2672,
      "aim": 2673,
      "ithub": 2674,
      "Off": 2675,
      "Ġlarg": 2676,
      "struction": 2677,
      "Ġquant": 2678,
      "Ġpo": 2679,
      "Ġpoints": 2680,
      "Ġconf": 2681,
      "option": 2682,
      "And": 2683,
      "Paramet": 2684,
      "ians": 2685,
      "orph": 2686,
      "vision": 2687,
      "Ġcare": 2688,
      "ymmet": 2689,
      "({": 2690,
      "Ġparticular": 2691,
      "overnment": 2692,
      "aving": 2693,
      "39": 2694,
      "request": 2695,
      "null": 2696,
      "TH": 2697,
      "proof": 2698,
      "Ġcorre": 2699,
      "Ġstat": 2700,
      "ĠCent": 2701,
      "ampion": 2702,
      "Gener": 2703,
      "Ġshown": 2704,
      "aced": 2705,
      "Ġaround": 2706,
      "rist": 2707,
      ">&": 2708,
      "2008": 2709,
      "alth": 2710,
      "ending": 2711,
      "ĠWest": 2712,
      "AME": 2713,
      "nect": 2714,
      "local": 2715,
      "ĠCal": 2716,
      "ĠĠĠĠĠĠĠĠĠĠĠĠĠĠĠĠĠ": 2717,
      "ued": 2718,
      "ugust": 2719,
      "Ġann": 2720,
      "mber": 2721,
      "argin": 2722,
      "yc": 2723,
      "Ġdeath": 2724,
      "Oper": 2725,
      "illi": 2726,
      "arr": 2727,
      "Ġspect": 2728,
      "utions": 2729,
      "urther": 2730,
      ")^": 2731,
      "Str": 2732,
      "atabase": 2733,
      ";&": 2734,
      "2020": 2735,
      "istor": 2736,
      "build": 2737,
      "Base": 2738,
      "Lambda": 2739,
      ".}": 2740,
      "ptember": 2741,
      "day": 2742,
      "Ġmat": 2743,
      "css": 2744,
      "rows": 2745,
      "element": 2746,
      "chema": 2747,
      "run": 2748,
      "xim": 2749,
      "viron": 2750,
      "java": 2751,
      "Ġfollows": 2752,
      "sequ": 2753,
      "Ġsk": 2754,
      "anguage": 2755,
      "itt": 2756,
      "TD": 2757,
      "args": 2758,
      "sw": 2759,
      "Op": 2760,
      "Ġstructure": 2761,
      "Ġshort": 2762,
      "cap": 2763,
      "xy": 2764,
      "Ġclos": 2765,
      "ze": 2766,
      "Ġdiv": 2767,
      "Ġ+=": 2768,
      "erefore": 2769,
      "github": 2770,
      "ĠOct": 2771,
      "2007": 2772,
      "Run": 2773,
      "Ġcount": 2774,
      "ready": 2775,
      "ĠâĢľ": 2776,
      "If": 2777,
      "dir": 2778,
      "Ġport": 2779,
      "earch": 2780,
      "orage": 2781,
      "uilt": 2782,
      "Ġorgan": 2783,
      "Ð¾": 2784,
      "height": 2785,
      "lick": 2786,
      "mathfrak": 2787,
      "Ġmodels": 2788,
      "Ġstill": 2789,
      "ges": 2790,
      "It": 2791,
      "vari": 2792,
      "Par": 2793,
      "Date": 2794,
      "ported": 2795,
      "Ġlow": 2796,
      "ugg": 2797,
      "Buffer": 2798,
      "=\"../../../../": 2799,
      "Ġpolit": 2800,
      "37": 2801,
      "ached": 2802,
      "38": 2803,
      "NS": 2804,
      "icense": 2805,
      "istic": 2806,
      "adata": 2807,
      "server": 2808,
      "YPE": 2809,
      "vers": 2810,
      "flow": 2811,
      "lish": 2812,
      "},\\": 2813,
      "Ġparent": 2814,
      "Function": 2815,
      "mbox": 2816,
      "Ġfunctions": 2817,
      "Attribute": 2818,
      "arm": 2819,
      "Ġmusic": 2820,
      "Ġband": 2821,
      "Let": 2822,
      "Ġ``": 2823,
      "Ġredu": 2824,
      "Ġexec": 2825,
      "ns": 2826,
      "ptr": 2827,
      "ony": 2828,
      "Ġlaw": 2829,
      "See": 2830,
      "OO": 2831,
      "aster": 2832,
      "2006": 2833,
      "Pos": 2834,
      "Handler": 2835,
      "Sc": 2836,
      "mo": 2837,
      "Ġret": 2838,
      "child": 2839,
      "Ed": 2840,
      "Image": 2841,
      "namespace": 2842,
      "ump": 2843,
      "spec": 2844,
      "target": 2845,
      "ĠReturn": 2846,
      "Block": 2847,
      "Be": 2848,
      "tx": 2849,
      "oman": 2850,
      "Ġterms": 2851,
      "ĠGu": 2852,
      "II": 2853,
      "Ġcap": 2854,
      "Ġdel": 2855,
      "exp": 2856,
      "prov": 2857,
      "init": 2858,
      "oll": 2859,
      "EX": 2860,
      "=\"#": 2861,
      "select": 2862,
      "Ġlimit": 2863,
      "icial": 2864,
      "Ġbo": 2865,
      "Ġwin": 2866,
      ".\\": 2867,
      "langle": 2868,
      "Ġlabel": 2869,
      "raint": 2870,
      "ugin": 2871,
      "Select": 2872,
      "amework": 2873,
      "case": 2874,
      "efined": 2875,
      "android": 2876,
      "ĠMin": 2877,
      "Line": 2878,
      "Ġsaid": 2879,
      "ĠMarch": 2880,
      "lex": 2881,
      "Sec": 2882,
      "gorithm": 2883,
      "anel": 2884,
      "display": 2885,
      "Ġchange": 2886,
      "Ġbook": 2887,
      "ways": 2888,
      "Ġlife": 2889,
      "alk": 2890,
      "ung": 2891,
      "Dec": 2892,
      "hold": 2893,
      "icle": 2894,
      "ailed": 2895,
      "pril": 2896,
      "append": 2897,
      "ĠAugust": 2898,
      "Default": 2899,
      "Ġborder": 2900,
      "etails": 2901,
      "Ġaccess": 2902,
      "Ġcommand": 2903,
      "ĠState": 2904,
      "Ðµ": 2905,
      "Ġ!==": 2906,
      "Ġproblem": 2907,
      "aterial": 2908,
      "ĠSeptember": 2909,
      "ĠJanuary": 2910,
      "lib": 2911,
      "eed": 2912,
      "umb": 2913,
      "Phi": 2914,
      "ude": 2915,
      "Ġmak": 2916,
      "Ġsequ": 2917,
      "expect": 2918,
      "jo": 2919,
      "Ã¡": 2920,
      "Content": 2921,
      "amil": 2922,
      "epar": 2923,
      "stit": 2924,
      "Ġurl": 2925,
      "Ġpubl": 2926,
      "}}$": 2927,
      "Ġrequired": 2928,
      "page": 2929,
      "ĠThey": 2930,
      "reen": 2931,
      "Ġpossible": 2932,
      "dr": 2933,
      "json": 2934,
      "66": 2935,
      "Filter": 2936,
      "Ġfull": 2937,
      "ĠâĢĶ": 2938,
      "kn": 2939,
      "lege": 2940,
      "iness": 2941,
      "05": 2942,
      "ĠObject": 2943,
      "mark": 2944,
      "ĠUS": 2945,
      "ĠOctober": 2946,
      "Ġdem": 2947,
      "isf": 2948,
      "}),": 2949,
      "UE": 2950,
      "ĠCo": 2951,
      "hline": 2952,
      "Lay": 2953,
      "Ġintrodu": 2954,
      "ven": 2955,
      "alf": 2956,
      "Ġvert": 2957,
      "Ġworld": 2958,
      "tributes": 2959,
      "ĠTe": 2960,
      "Ext": 2961,
      "anch": 2962,
      "Ġdistribution": 2963,
      "ino": 2964,
      "iff": 2965,
      "Ġdescribed": 2966,
      "Ġsample": 2967,
      "ponents": 2968,
      "Ġprom": 2969,
      "Ġformer": 2970,
      "2000": 2971,
      "ĠAdd": 2972,
      "Ġwon": 2973,
      "HT": 2974,
      "CK": 2975,
      "ĠJune": 2976,
      "Ġproperties": 2977,
      "active": 2978,
      "Ġmuch": 2979,
      "Ġanother": 2980,
      "Ġaddress": 2981,
      "Ġhelp": 2982,
      "Ġperiod": 2983,
      "Ġshows": 2984,
      "FA": 2985,
      "raft": 2986,
      "Ġcallback": 2987,
      "Ġside": 2988,
      "ldots": 2989,
      "Ġtake": 2990,
      "pc": 2991,
      "ĠBe": 2992,
      "cember": 2993,
      "Start": 2994,
      "Ġhttp": 2995,
      "ĠĠĠĠĠĠĠĠĠĠĠĠĠĠ": 2996,
      "Resource": 2997,
      "Ġcomb": 2998,
      "appa": 2999,
      "ensor": 3000,
      "Ġreleased": 3001,
      "ales": 3002,
      "adding": 3003,
      "ONT": 3004,
      "otential": 3005,
      "Bar": 3006,
      "izer": 3007,
      "Ġearly": 3008,
      "Ġ\"\"\"": 3009,
      "ibility": 3010,
      "iev": 3011,
      "Ġ((": 3012,
      "arning": 3013,
      "ĠJuly": 3014,
      "Comp": 3015,
      "Ġplayed": 3016,
      "Ġeng": 3017,
      "Ġcolumn": 3018,
      "ĠAustral": 3019,
      "Component": 3020,
      "Ġavailable": 3021,
      "uted": 3022,
      "witch": 3023,
      "urope": 3024,
      "ii": 3025,
      "push": 3026,
      "Ġbest": 3027,
      "ocol": 3028,
      ";</": 3029,
      "Ġindic": 3030,
      "bra": 3031,
      "char": 3032,
      "used": 3033,
      "ĠNo": 3034,
      "FI": 3035,
      "Ġla": 3036,
      "Ġmatrix": 3037,
      "bolds": 3038,
      "Ġdeg": 3039,
      "Ġlay": 3040,
      "Spec": 3041,
      "55": 3042,
      "Ġes": 3043,
      "Ġalign": 3044,
      "ĠSec": 3045,
      "uation": 3046,
      "yl": 3047,
      "urg": 3048,
      "Ġdesign": 3049,
      "Ġiss": 3050,
      "born": 3051,
      "Ġmodule": 3052,
      "ĠAss": 3053,
      "});": 3054,
      "eger": 3055,
      "Ġss": 3056,
      "Number": 3057,
      "OS": 3058,
      "write": 3059,
      "ĠApril": 3060,
      "ĠSup": 3061,
      "Ġtask": 3062,
      "boldsymbol": 3063,
      "DI": 3064,
      "Fl": 3065,
      "Ġ{@": 3066,
      "EL": 3067,
      "nonumber": 3068,
      "Sp": 3069,
      "sf": 3070,
      "=\"../": 3071,
      "Ġnum": 3072,
      "Ġmembers": 3073,
      "property": 3074,
      "48": 3075,
      "70": 3076,
      "Equals": 3077,
      "erg": 3078,
      "Ġtechn": 3079,
      "rior": 3080,
      "adio": 3081,
      "rl": 3082,
      "AP": 3083,
      "ography": 3084,
      "Ġknow": 3085,
      "otimes": 3086,
      "Ġconstruct": 3087,
      "Ġdisplay": 3088,
      "Ġhost": 3089,
      "ek": 3090,
      "ategory": 3091,
      "draw": 3092,
      "endif": 3093,
      "loud": 3094,
      "Ġperson": 3095,
      "mat": 3096,
      "ĠRec": 3097,
      "Ġ->": 3098,
      "dict": 3099,
      "Ġmember": 3100,
      "ĠNorth": 3101,
      "clus": 3102,
      "vironment": 3103,
      "ATE": 3104,
      "imary": 3105,
      "Ġstates": 3106,
      "wise": 3107,
      "ĠCity": 3108,
      "SP": 3109,
      "ham": 3110,
      "Version": 3111,
      "Factory": 3112,
      "////////////////": 3113,
      "Ġevents": 3114,
      "Ġelements": 3115,
      "ĠRep": 3116,
      "ada": 3117,
      "ĠNovember": 3118,
      "App": 3119,
      "gle": 3120,
      "No": 3121,
      "Ġtrack": 3122,
      "CC": 3123,
      "ĠPol": 3124,
      "returns": 3125,
      "Point": 3126,
      "Child": 3127,
      "ĉĠ": 3128,
      "icient": 3129,
      "Ġthrows": 3130,
      "Ġstudy": 3131,
      "uture": 3132,
      "Ġdiscuss": 3133,
      "len": 3134,
      "2005": 3135,
      "ĠThen": 3136,
      "open": 3137,
      "signed": 3138,
      "now": 3139,
      "Ġstrong": 3140,
      "Ġtimes": 3141,
      "vis": 3142,
      "small": 3143,
      "Act": 3144,
      "abla": 3145,
      "_.": 3146,
      "ĠBritish": 3147,
      "header": 3148,
      "obj": 3149,
      "plied": 3150,
      "prop": 3151,
      "ĠIN": 3152,
      "GL": 3153,
      "ĠDecember": 3154,
      "Ġscal": 3155,
      "Ġeither": 3156,
      "Ġmethods": 3157,
      "TO": 3158,
      "Ġaff": 3159,
      "Ġfeature": 3160,
      "kappa": 3161,
      "Ġnamed": 3162,
      "sg": 3163,
      "Ġinterest": 3164,
      "Ġdest": 3165,
      "ilit": 3166,
      "IM": 3167,
      "Window": 3168,
      "Ġgraph": 3169,
      "Ġcell": 3170,
      "Ap": 3171,
      "ĠGener": 3172,
      "/\\": 3173,
      "hether": 3174,
      "[\"": 3175,
      "Action": 3176,
      "nabla": 3177,
      "host": 3178,
      "Ġcour": 3179,
      "ampionship": 3180,
      "soft": 3181,
      "cell": 3182,
      "Task": 3183,
      "Ġbirths": 3184,
      "Create": 3185,
      "subset": 3186,
      "last": 3187,
      "only": 3188,
      "Ġrest": 3189,
      "alt": 3190,
      "creen": 3191,
      "Ġleg": 3192,
      "Ġimplement": 3193,
      "Ġspe": 3194,
      "gener": 3195,
      "44": 3196,
      "ĠPart": 3197,
      "Ġfore": 3198,
      "ĠDo": 3199,
      "apan": 3200,
      "Ġclient": 3201,
      "php": 3202,
      "ebru": 3203,
      "Ġcity": 3204,
      "era": 3205,
      "century": 3206,
      "urb": 3207,
      "acing": 3208,
      "post": 3209,
      "Ġwindow": 3210,
      "ERT": 3211,
      "True": 3212,
      "Ġheight": 3213,
      "foot": 3214,
      "irection": 3215,
      "Part": 3216,
      "Ġmean": 3217,
      "ĠLeague": 3218,
      "ĠEd": 3219,
      "Row": 3220,
      "})$": 3221,
      "ana": 3222,
      "ĠDef": 3223,
      "Ġaver": 3224,
      "Ġapproxim": 3225,
      "Ġwant": 3226,
      "Ġstandard": 3227,
      "ordin": 3228,
      "oice": 3229,
      "plicit": 3230,
      "find": 3231,
      "Ġfree": 3232,
      "Sigma": 3233,
      "Ġred": 3234,
      "Ġlook": 3235,
      "ebruary": 3236,
      "Ob": 3237,
      "Ġconstant": 3238,
      "Ġmajor": 3239,
      "Hel": 3240,
      "(&": 3241,
      "though": 3242,
      "usiness": 3243,
      "Format": 3244,
      "Ġtele": 3245,
      "Ġprotected": 3246,
      "Ġcreated": 3247,
      "ops": 3248,
      "Ġdensity": 3249,
      "first": 3250,
      "xml": 3251,
      "ĠIm": 3252,
      "ypes": 3253,
      "ĠSer": 3254,
      "src": 3255,
      "status": 3256,
      "AG": 3257,
      "Ġpage": 3258,
      "Ð¸": 3259,
      "sing": 3260,
      "png": 3261,
      "Ġ[]": 3262,
      "Ġfields": 3263,
      "\"),": 3264,
      "Length": 3265,
      ")</": 3266,
      "Ġpair": 3267,
      "mt": 3268,
      "Ġload": 3269,
      "leg": 3270,
      "skip": 3271,
      "ently": 3272,
      "Ġsl": 3273,
      "ĠKing": 3274,
      "ially": 3275,
      "idual": 3276,
      "Ġke": 3277,
      "Ġrole": 3278,
      "Sup": 3279,
      ".$": 3280,
      "ĠAfter": 3281,
      "ensuremath": 3282,
      "Ġproduct": 3283,
      "sembly": 3284,
      "Ġtheory": 3285,
      "idge": 3286,
      "Ġcar": 3287,
      "Ġsatisf": 3288,
      "Ġturn": 3289,
      "Ġappear": 3290,
      "igger": 3291,
      "ites": 3292,
      "Ġland": 3293,
      "lip": 3294,
      "Collection": 3295,
      "Ġobtained": 3296,
      "oding": 3297,
      "prime": 3298,
      "ĠAb": 3299,
      "Ġcorresponding": 3300,
      "na": 3301,
      "SC": 3302,
      "Ġcomplex": 3303,
      "Ġcompet": 3304,
      "Ġphot": 3305,
      "ĠEurope": 3306,
      "Ġspecified": 3307,
      "ĠQu": 3308,
      "ialog": 3309,
      "Ġsepar": 3310,
      "Ġcalcul": 3311,
      "ones": 3312,
      "EE": 3313,
      "Ġnormal": 3314,
      "refix": 3315,
      "wide": 3316,
      "change": 3317,
      "Ġfail": 3318,
      "Ġlinear": 3319,
      "Ġandroid": 3320,
      "Ġclear": 3321,
      "Ġfilms": 3322,
      "2004": 3323,
      "rest": 3324,
      "Ġabs": 3325,
      "Ġalready": 3326,
      "ĠThere": 3327,
      "Ġgood": 3328,
      "Ġhome": 3329,
      "]);": 3330,
      "Ġday": 3331,
      "Ġarr": 3332,
      "remove": 3333,
      "Ġpotential": 3334,
      "Ġdefine": 3335,
      "ERR": 3336,
      "65": 3337,
      "\\[": 3338,
      "Ġcoup": 3339,
      "Met": 3340,
      "known": 3341,
      "Ġep": 3342,
      "Ġphys": 3343,
      "number": 3344,
      "ocial": 3345,
      "ves": 3346,
      "buf": 3347,
      "require": 3348,
      "citep": 3349,
      "Check": 3350,
      "can": 3351,
      "Ġprof": 3352,
      "Ġlight": 3353,
      "edia": 3354,
      "Prov": 3355,
      "rain": 3356,
      "attr": 3357,
      "OP": 3358,
      "Const": 3359,
      "Ġassociated": 3360,
      "Ġreceived": 3361,
      "Ġreturned": 3362,
      "AM": 3363,
      "rench": 3364,
      "}}{": 3365,
      "ĠMan": 3366,
      "omic": 3367,
      "Ġclose": 3368,
      "Ġpopulation": 3369,
      "mar": 3370,
      "Ġbody": 3371,
      "\\%": 3372,
      "Ġchildren": 3373,
      "ĠThese": 3374,
      "uman": 3375,
      "ply": 3376,
      "Ġlower": 3377,
      "uid": 3378,
      "Ġimportant": 3379,
      "ls": 3380,
      "ama": 3381,
      "verse": 3382,
      "AA": 3383,
      "Ġextends": 3384,
      "ured": 3385,
      "Ad": 3386,
      "ological": 3387,
      "Ġcirc": 3388,
      "ensions": 3389,
      "++)": 3390,
      "atas": 3391,
      "ĠFebruary": 3392,
      "TP": 3393,
      "Listener": 3394,
      "Ġvector": 3395,
      "stream": 3396,
      "strong": 3397,
      "ĠLet": 3398,
      "unk": 3399,
      "SON": 3400,
      "Ġinternal": 3401,
      ":\"": 3402,
      "ĠInt": 3403,
      "Ġstatus": 3404,
      "oment": 3405,
      "Ġtown": 3406,
      "INT": 3407,
      "ĠCor": 3408,
      "undle": 3409,
      "Ġoperator": 3410,
      "Ġincluded": 3411,
      "<!--": 3412,
      "Ġcrit": 3413,
      "///": 3414,
      "Ġcontains": 3415,
      "bottom": 3416,
      "Ġspecial": 3417,
      "\").": 3418,
      "description": 3419,
      "aly": 3420,
      "ĠNone": 3421,
      "rowser": 3422,
      "ĠEX": 3423,
      "Ġsche": 3424,
      "apping": 3425,
      "textit": 3426,
      "dapt": 3427,
      "Ġlocated": 3428,
      "\\!": 3429,
      "Ġarch": 3430,
      "Ġoption": 3431,
      "ĠFl": 3432,
      "Link": 3433,
      "Ġcross": 3434,
      "Ġmode": 3435,
      "Ġcareer": 3436,
      "Ġsignific": 3437,
      "ABLE": 3438,
      "Ġwomen": 3439,
      "Offset": 3440,
      "adem": 3441,
      "Ġbuilt": 3442,
      "ĠAp": 3443,
      "Ġge": 3444,
      "asing": 3445,
      "Ġresource": 3446,
      "Ġprovided": 3447,
      "atform": 3448,
      "ĠYou": 3449,
      "Ġdiff": 3450,
      "Page": 3451,
      ")]": 3452,
      "Ġuint": 3453,
      "btn": 3454,
      "08": 3455,
      "private": 3456,
      "Ġsolution": 3457,
      "ĠChrist": 3458,
      "illion": 3459,
      "Ġcomponent": 3460,
      "Ġsuff": 3461,
      "inst": 3462,
      "Ġequation": 3463,
      "Ġadv": 3464,
      "roy": 3465,
      "Ġfurther": 3466,
      "Ġpack": 3467,
      "URL": 3468,
      "ĠClass": 3469,
      "Output": 3470,
      "Ġquery": 3471,
      "American": 3472,
      "Ġestablished": 3473,
      "Ġperformance": 3474,
      "Ġpaper": 3475,
      "Ġwrite": 3476,
      "format": 3477,
      "sole": 3478,
      "Ġgovernment": 3479,
      "std": 3480,
      "Ġcollection": 3481,
      "command": 3482,
      "Char": 3483,
      "Ġchannel": 3484,
      "04": 3485,
      "(-": 3486,
      "ĠII": 3487,
      "ĠArm": 3488,
      "(_": 3489,
      "istry": 3490,
      "cond": 3491,
      "Ġcover": 3492,
      "ula": 3493,
      "Command": 3494,
      "eline": 3495,
      "Ġcoll": 3496,
      "Ġfew": 3497,
      "Ġhistory": 3498,
      "Ġscale": 3499,
      "update": 3500,
      "Ã³": 3501,
      "Ġwritten": 3502,
      "ĠWhen": 3503,
      "Ġmot": 3504,
      "Valid": 3505,
      "Ġcopy": 3506,
      "ĠĠĠĠĠĠĠĠĊ": 3507,
      "ÑĤ": 3508,
      "olicy": 3509,
      "ipp": 3510,
      "Ġsouth": 3511,
      "widet": 3512,
      "Ġthird": 3513,
      "process": 3514,
      "illiam": 3515,
      "Ġupdate": 3516,
      "Ġleast": 3517,
      "adius": 3518,
      "Ġsem": 3519,
      "Ġstation": 3520,
      "ĠDes": 3521,
      "yles": 3522,
      "Ġconsidered": 3523,
      "Ġheld": 3524,
      "ards": 3525,
      "Ġless": 3526,
      "ĠHigh": 3527,
      "cho": 3528,
      "95": 3529,
      "Nav": 3530,
      "Ġauthor": 3531,
      "\\|": 3532,
      "alle": 3533,
      "MO": 3534,
      ">>": 3535,
      "Ġ]": 3536,
      "ories": 3537,
      "column": 3538,
      "Pe": 3539,
      "long": 3540,
      "ibrary": 3541,
      "rew": 3542,
      "filter": 3543,
      "ese": 3544,
      "88": 3545,
      "ered": 3546,
      "Ġaccount": 3547,
      "ocket": 3548,
      "\"]": 3549,
      "ĠBar": 3550,
      "Web": 3551,
      "project": 3552,
      "ĠEnglish": 3553,
      "num": 3554,
      "2021": 3555,
      "example": 3556,
      "ĠMc": 3557,
      "Ġbelow": 3558,
      "Ġdouble": 3559,
      "ration": 3560,
      "olved": 3561,
      "Ġrate": 3562,
      "ĠComp": 3563,
      "Ġbegan": 3564,
      "Ġclub": 3565,
      "Ġlen": 3566,
      "su": 3567,
      "medi": 3568,
      "ĠGL": 3569,
      ",-": 3570,
      "tag": 3571,
      "widetilde": 3572,
      "jav": 3573,
      "udio": 3574,
      "ĠMe": 3575,
      "idden": 3576,
      "eleg": 3577,
      "Gr": 3578,
      "Ġiter": 3579,
      "Ġneg": 3580,
      "uggest": 3581,
      "${": 3582,
      "iet": 3583,
      "ering": 3584,
      "02": 3585,
      "Ġfeatures": 3586,
      "ours": 3587,
      "Ġver": 3588,
      "}-": 3589,
      "LASS": 3590,
      "HE": 3591,
      "{-": 3592,
      "Ġconditions": 3593,
      "TYPE": 3594,
      "iler": 3595,
      "CL": 3596,
      "rav": 3597,
      "Ġformat": 3598,
      "tool": 3599,
      "07": 3600,
      "Ġobj": 3601,
      "Ġvia": 3602,
      "06": 3603,
      "Ġdon": 3604,
      "Ġrandom": 3605,
      "CON": 3606,
      "stract": 3607,
      "Ġflow": 3608,
      "Ġzero": 3609,
      "ĠVal": 3610,
      "ias": 3611,
      "ĠAct": 3612,
      "iqu": 3613,
      "Ġselect": 3614,
      "Em": 3615,
      "heet": 3616,
      "level": 3617,
      "Mode": 3618,
      "Ġgrad": 3619,
      "which": 3620,
      "Ġexists": 3621,
      "Ġconsist": 3622,
      "Ġlines": 3623,
      "reet": 3624,
      "offset": 3625,
      "ries": 3626,
      "istrict": 3627,
      "oph": 3628,
      "iber": 3629,
      "yd": 3630,
      "Ġcompany": 3631,
      "container": 3632,
      "Ġvill": 3633,
      "Ġrespectively": 3634,
      "Column": 3635,
      "ights": 3636,
      "Ġanalysis": 3637,
      "QL": 3638,
      "mult": 3639,
      "Aut": 3640,
      "tains": 3641,
      "cit": 3642,
      "ondon": 3643,
      "ille": 3644,
      "MS": 3645,
      "Ġphase": 3646,
      "atal": 3647,
      "Ġcases": 3648,
      "ĠHis": 3649,
      "Ġtook": 3650,
      "Ġreturns": 3651,
      "dep": 3652,
      "acity": 3653,
      "ĠJapan": 3654,
      "Cache": 3655,
      "Width": 3656,
      "Ġinvest": 3657,
      "Ġgames": 3658,
      "Ġide": 3659,
      "Label": 3660,
      "2003": 3661,
      "rs": 3662,
      "reed": 3663,
      "Ġwhether": 3664,
      "Mem": 3665,
      "Ġ&=": 3666,
      "Ġcatch": 3667,
      "Ġrow": 3668,
      "lying": 3669,
      "Ġvarious": 3670,
      "ql": 3671,
      "Fig": 3672,
      "ires": 3673,
      "Ġhouse": 3674,
      "py": 3675,
      "iddle": 3676,
      "ĠChar": 3677,
      "Case": 3678,
      "aps": 3679,
      "Ġprint": 3680,
      "Ġsimple": 3681,
      "output": 3682,
      "Ġage": 3683,
      "Ġsent": 3684,
      "expected": 3685,
      "plies": 3686,
      "rown": 3687,
      "REF": 3688,
      "ĠEl": 3689,
      "\\]": 3690,
      "Ð½": 3691,
      "centering": 3692,
      "ably": 3693,
      "params": 3694,
      "Controller": 3695,
      "Return": 3696,
      "2001": 3697,
      "ference": 3698,
      "67": 3699,
      "Ġsystems": 3700,
      "Ġpublished": 3701,
      "Ġsix": 3702,
      "ĠComm": 3703,
      "Ġdynam": 3704,
      "Ġdefinition": 3705,
      "NO": 3706,
      "tact": 3707,
      "ause": 3708,
      "CD": 3709,
      "********************************": 3710,
      "ington": 3711,
      "bb": 3712,
      "Ġplayer": 3713,
      "Pre": 3714,
      "under": 3715,
      "ha": 3716,
      "ussian": 3717,
      "ĠTrans": 3718,
      "igation": 3719,
      "book": 3720,
      "][": 3721,
      "gl": 3722,
      "olve": 3723,
      "Ġbehav": 3724,
      "dots": 3725,
      "Ġsearch": 3726,
      "Ġinterface": 3727,
      "entry": 3728,
      "ĠAssert": 3729,
      "unit": 3730,
      "Ġrelations": 3731,
      "Ġlanguage": 3732,
      "Ġdiag": 3733,
      "font": 3734,
      "ceed": 3735,
      "mem": 3736,
      "Ġunit": 3737,
      "Ġinstead": 3738,
      "Ġfive": 3739,
      "instance": 3740,
      "Ġapproach": 3741,
      "hel": 3742,
      "Ġdev": 3743,
      "tax": 3744,
      "ogn": 3745,
      "Container": 3746,
      "ÃŃ": 3747,
      "Ġdeb": 3748,
      "ĠBo": 3749,
      "ising": 3750,
      "Ġargs": 3751,
      "Types": 3752,
      "gen": 3753,
      "ĠLicense": 3754,
      "response": 3755,
      "Ġrepl": 3756,
      "empty": 3757,
      "Ġspecific": 3758,
      "Ġserver": 3759,
      "Ġfrequ": 3760,
      "Ġoffset": 3761,
      "Ġmultiple": 3762,
      "Ġmanag": 3763,
      "omorph": 3764,
      "ĠAfr": 3765,
      "SI": 3766,
      "uge": 3767,
      "thers": 3768,
      "wed": 3769,
      "criptor": 3770,
      "Ġoperation": 3771,
      "uint": 3772,
      "03": 3773,
      "idget": 3774,
      "unic": 3775,
      "Ġmeans": 3776,
      "dl": 3777,
      "Button": 3778,
      "finished": 3779,
      "PRO": 3780,
      "ĠEq": 3781,
      "Back": 3782,
      "09": 3783,
      "2002": 3784,
      "ĠSo": 3785,
      "Ġsite": 3786,
      ";\\": 3787,
      "eder": 3788,
      "ĠOne": 3789,
      "Ġtypes": 3790,
      "chan": 3791,
      "ements": 3792,
      "Ġsignificant": 3793,
      "split": 3794,
      "kit": 3795,
      "zeta": 3796,
      "}+": 3797,
      "rapper": 3798,
      "utes": 3799,
      "Update": 3800,
      "itions": 3801,
      "First": 3802,
      "BU": 3803,
      "background": 3804,
      "aul": 3805,
      "oung": 3806,
      "Ġnumer": 3807,
      "\\{": 3808,
      "Ġnational": 3809,
      "ctx": 3810,
      "Ġsets": 3811,
      "onal": 3812,
      "Ġaverage": 3813,
      "Tem": 3814,
      "Ġoften": 3815,
      "Ġobjects": 3816,
      "UI": 3817,
      "Ġtemper": 3818,
      "Ġstream": 3819,
      "ĠNot": 3820,
      "aries": 3821,
      "VER": 3822,
      "bind": 3823,
      "cil": 3824,
      "most": 3825,
      "Per": 3826,
      "oke": 3827,
      "47": 3828,
      "ĠDr": 3829,
      "ĠType": 3830,
      "ĉĉĉĉĉĉĉĉ": 3831,
      "arried": 3832,
      "ĠSan": 3833,
      "bor": 3834,
      "Ġhigher": 3835,
      "actions": 3836,
      "Ġprovide": 3837,
      "Target": 3838,
      "Ġblack": 3839,
      "Local": 3840,
      "abs": 3841,
      "scale": 3842,
      "Rem": 3843,
      "sin": 3844,
      "cel": 3845,
      "ĠAPI": 3846,
      "Ġgroups": 3847,
      "operator": 3848,
      "Ġarguments": 3849,
      "atural": 3850,
      "ĠCollege": 3851,
      "itory": 3852,
      "Ġconc": 3853,
      "main": 3854,
      "ĠArray": 3855,
      "Interface": 3856,
      "Address": 3857,
      "Ġamong": 3858,
      "else": 3859,
      "Ġworks": 3860,
      "Provider": 3861,
      "Ġtransform": 3862,
      "After": 3863,
      "Tag": 3864,
      "ĠLondon": 3865,
      "ĠReturns": 3866,
      "Ġsequence": 3867,
      "Url": 3868,
      "Ġins": 3869,
      "Ġstep": 3870,
      "UM": 3871,
      "ĠDis": 3872,
      "49": 3873,
      "meta": 3874,
      "Ġgl": 3875,
      "Server": 3876,
      "ford": 3877,
      "ĠMon": 3878,
      "final": 3879,
      "cos": 3880,
      "Ġfilter": 3881,
      "Ġlate": 3882,
      "ĠLa": 3883,
      "template": 3884,
      "Ġsymmet": 3885,
      "izing": 3886,
      "FONT": 3887,
      "ĠEast": 3888,
      "Ġspecies": 3889,
      "Ġindu": 3890,
      "Range": 3891,
      "ĠSch": 3892,
      "Ġhowever": 3893,
      "([": 3894,
      ")=\\": 3895,
      "imation": 3896,
      "NAME": 3897,
      "Ġthus": 3898,
      "ional": 3899,
      "artment": 3900,
      "bound": 3901,
      "Ġeas": 3902,
      "ici": 3903,
      "ÑĢ": 3904,
      "ĠSim": 3905,
      "ĠPer": 3906,
      "anged": 3907,
      "should": 3908,
      "Ġglobal": 3909,
      "ney": 3910,
      "Ġroot": 3911,
      "Ġdone": 3912,
      "Acc": 3913,
      "Ġcer": 3914,
      "Ġexpress": 3915,
      "Ġproof": 3916,
      "DB": 3917,
      "Ġconver": 3918,
      "Do": 3919,
      "Ġresearch": 3920,
      "rypt": 3921,
      "ecess": 3922,
      "img": 3923,
      "Ġtraining": 3924,
      "Ġalways": 3925,
      "Ġequal": 3926,
      "ging": 3927,
      "Ġdate": 3928,
      "ĠSub": 3929,
      "').": 3930,
      "ĠOp": 3931,
      "Ġindiv": 3932,
      "Ã¼": 3933,
      "Callback": 3934,
      "rict": 3935,
      "Box": 3936,
      "ftware": 3937,
      "ĠPark": 3938,
      "Psi": 3939,
      "idence": 3940,
      "ĠLem": 3941,
      "thm": 3942,
      "Ġvirtual": 3943,
      "dev": 3944,
      "izes": 3945,
      "Ġdi": 3946,
      "cy": 3947,
      "tabular": 3948,
      "dist": 3949,
      "pol": 3950,
      "Ġperm": 3951,
      "Ġbuilding": 3952,
      "Ġattack": 3953,
      "Ġserved": 3954,
      "ka": 3955,
      "parse": 3956,
      "ĠĠĠĠĠĠĠĠĠĠĠĠĠĠĠĠĠĠĠĠĠĠĠĠĠĠĠĠĠĠĠĠĠĠĠ": 3957,
      "scope": 3958,
      "Ge": 3959,
      "aves": 3960,
      "}/": 3961,
      "ĠFrench": 3962,
      "Ġfocus": 3963,
      "alax": 3964,
      "ĠWith": 3965,
      "Ġpositive": 3966,
      "menu": 3967,
      "IO": 3968,
      "Write": 3969,
      "Ġclaim": 3970,
      "$)": 3971,
      "anding": 3972,
      "Ġcentury": 3973,
      "board": 3974,
      "fill": 3975,
      "Ġindependent": 3976,
      "exec": 3977,
      "iol": 3978,
      "Ġput": 3979,
      "Ġadditional": 3980,
      "fe": 3981,
      "ĠĠĠĠĠĠĠĠĠĠĠĠĊ": 3982,
      "Ġfixed": 3983,
      "match": 3984,
      "aff": 3985,
      "anish": 3986,
      "close": 3987,
      "Ġadded": 3988,
      "ĠAir": 3989,
      "based": 3990,
      "}=\\": 3991,
      "Header": 3992,
      "avy": 3993,
      ")^{": 3994,
      "ĠCont": 3995,
      "ĠTheorem": 3996,
      "attle": 3997,
      "Ġprop": 3998,
      "service": 3999,
      "<?": 4000,
      "ĠRef": 4001,
      "ĠBro": 4002,
      "ĠChampionship": 4003,
      "Ġtw": 4004,
      "85": 4005,
      "unfinished": 4006,
      "Ġwater": 4007,
      "Ġfinite": 4008,
      "afe": 4009,
      "Ġundefined": 4010,
      "API": 4011,
      "Ġalgorithm": 4012,
      "show": 4013,
      "Access": 4014,
      "Ġeval": 4015,
      "Ġbuffer": 4016,
      "}]": 4017,
      "oriz": 4018,
      "Ġseen": 4019,
      "Max": 4020,
      "ĠWilliam": 4021,
      "values": 4022,
      "Rep": 4023,
      "issing": 4024,
      "ĠID": 4025,
      "pass": 4026,
      "?:": 4027,
      "Ġcompar": 4028,
      "Ġcommon": 4029,
      "Ġcustom": 4030,
      "Ġregular": 4031,
      "older": 4032,
      "1999": 4033,
      "Ġbegin": 4034,
      "Ġhaving": 4035,
      "Ġreference": 4036,
      "Ġgen": 4037,
      "Layout": 4038,
      "ĠArt": 4039,
      "mes": 4040,
      "abor": 4041,
      "Ġbecome": 4042,
      "Ġeduc": 4043,
      "ilities": 4044,
      "Ġborn": 4045,
      "ĠDistrict": 4046,
      "window": 4047,
      "}\\,": 4048,
      "ilitary": 4049,
      "iers": 4050,
      "gebra": 4051,
      "atio": 4052,
      "igen": 4053,
      "Ġauto": 4054,
      "Ġant": 4055,
      "Ġvideo": 4056,
      "task": 4057,
      "'),": 4058,
      "Ġround": 4059,
      "Ġmargin": 4060,
      "Ġair": 4061,
      "tempt": 4062,
      "root": 4063,
      "cs": 4064,
      "late": 4065,
      "Ġlocation": 4066,
      "ĠFile": 4067,
      "Ġcenter": 4068,
      "andid": 4069,
      "Ġcontinu": 4070,
      "chiev": 4071,
      "ĠSince": 4072,
      "ociation": 4073,
      "ittle": 4074,
      "oto": 4075,
      "Ġcapt": 4076,
      "PC": 4077,
      "Ġelection": 4078,
      "ĠDav": 4079,
      "ĠJo": 4080,
      "Ġrecent": 4081,
      "cr": 4082,
      "po": 4083,
      "ĠHT": 4084,
      "annot": 4085,
      "like": 4086,
      "History": 4087,
      "Next": 4088,
      "iform": 4089,
      "foo": 4090,
      "Ġvol": 4091,
      "ĠHar": 4092,
      "Ġloss": 4093,
      "||": 4094,
      "imensional": 4095,
      "buffer": 4096,
      "87": 4097,
      "42": 4098,
      "icrosoft": 4099,
      "Ġhom": 4100,
      "yntax": 4101,
      "Ġremov": 4102,
      "ises": 4103,
      "SO": 4104,
      "Frame": 4105,
      "Min": 4106,
      "Module": 4107,
      "Co": 4108,
      "istics": 4109,
      "Ġtoget": 4110,
      "96": 4111,
      "Ġtogether": 4112,
      "PECT": 4113,
      "Fe": 4114,
      "Ġrelated": 4115,
      "ota": 4116,
      "Ġfac": 4117,
      "Height": 4118,
      "ĠPres": 4119,
      "{}": 4120,
      "97": 4121,
      "even": 4122,
      "Ġindividual": 4123,
      "ief": 4124,
      "itect": 4125,
      "De": 4126,
      "ring": 4127,
      "Ġcamp": 4128,
      "Configuration": 4129,
      "nected": 4130,
      "ĠGo": 4131,
      "Ġtelevision": 4132,
      "Ass": 4133,
      "ĠAmer": 4134,
      "Ġplan": 4135,
      "Ġsuggest": 4136,
      "Wh": 4137,
      "^+": 4138,
      "Ġcannot": 4139,
      "Ġlim": 4140,
      "float": 4141,
      "}_\\": 4142,
      "ĠSection": 4143,
      "ĠNor": 4144,
      "Ġsurface": 4145,
      "ĠHouse": 4146,
      "ĠOff": 4147,
      "ĠGerman": 4148,
      "ba": 4149,
      "encies": 4150,
      "irm": 4151,
      "ĠPe": 4152,
      "reference": 4153,
      "Ġinit": 4154,
      "XX": 4155,
      "ĉĠĠĠĠĠĠĠ": 4156,
      "bool": 4157,
      "Ġdistance": 4158,
      "Ġofficial": 4159,
      ":(": 4160,
      "grad": 4161,
      "exports": 4162,
      "Ġstar": 4163,
      "Ġmoment": 4164,
      "pher": 4165,
      "itional": 4166,
      "./": 4167,
      "Ġdistrict": 4168,
      "Ent": 4169,
      "ĠInter": 4170,
      "Ġchanges": 4171,
      "Top": 4172,
      "rics": 4173,
      "rief": 4174,
      "ĠHer": 4175,
      "Ġmen": 4176,
      "ulture": 4177,
      "images": 4178,
      "la": 4179,
      "Ġequival": 4180,
      "navbar": 4181,
      ",\"": 4182,
      "Ġsit": 4183,
      "RL": 4184,
      "Ġconv": 4185,
      "BC": 4186,
      "Entry": 4187,
      "Ġfactor": 4188,
      "stack": 4189,
      "Ġonce": 4190,
      "ĠCup": 4191,
      "}^\\": 4192,
      "Ġmove": 4193,
      "Ġselected": 4194,
      "urnal": 4195,
      "note": 4196,
      "lymp": 4197,
      "Kind": 4198,
      "{(": 4199,
      "Ġpract": 4200,
      "Ġbusiness": 4201,
      "oted": 4202,
      "98": 4203,
      "cdots": 4204,
      ".~": 4205,
      "equiv": 4206,
      "raction": 4207,
      "proto": 4208,
      "inn": 4209,
      "ĠUp": 4210,
      "Utils": 4211,
      "Ġfit": 4212,
      "ico": 4213,
      "Ġconnection": 4214,
      "âĢĶ": 4215,
      "iding": 4216,
      "netic": 4217,
      "rees": 4218,
      "Ġ~": 4219,
      "ĠPhil": 4220,
      "Ġnov": 4221,
      "Ġxml": 4222,
      "lemma": 4223,
      "FT": 4224,
      "ln": 4225,
      "Ġengine": 4226,
      "widehat": 4227,
      "Unit": 4228,
      "Ġproduction": 4229,
      "Ġempty": 4230,
      "sm": 4231,
      "Ġdomain": 4232,
      "Us": 4233,
      "Load": 4234,
      "46": 4235,
      "Ġtrad": 4236,
      "ifact": 4237,
      "Ġproduced": 4238,
      "Ġhalf": 4239,
      "ĠSk": 4240,
      "Empty": 4241,
      "ULT": 4242,
      "Ġremove": 4243,
      "Parameter": 4244,
      "Ġannoun": 4245,
      "hib": 4246,
      "indent": 4247,
      "ĠDep": 4248,
      "Tree": 4249,
      "Operation": 4250,
      "()->": 4251,
      "Vert": 4252,
      "Ġnorth": 4253,
      "Ġcost": 4254,
      "SU": 4255,
      "ulated": 4256,
      "Thread": 4257,
      "essages": 4258,
      "Vis": 4259,
      "Process": 4260,
      "Ġfiles": 4261,
      "Ġactive": 4262,
      "Ġconfiguration": 4263,
      "ĠInternational": 4264,
      "Ġattempt": 4265,
      "lice": 4266,
      "break": 4267,
      "oose": 4268,
      "tree": 4269,
      "Params": 4270,
      "Ġ;": 4271,
      "Json": 4272,
      "Ñģ": 4273,
      "Ġ{}": 4274,
      "```": 4275,
      "1998": 4276,
      "One": 4277,
      "Ġnames": 4278,
      "Work": 4279,
      "utils": 4280,
      "common": 4281,
      "Ġ**": 4282,
      "Ġ...": 4283,
      "Ð¾Ð": 4284,
      ")}\\": 4285,
      "ands": 4286,
      "&=": 4287,
      "ĠAc": 4288,
      "oder": 4289,
      "SD": 4290,
      "ĠMed": 4291,
      "PO": 4292,
      "Ġ>=": 4293,
      "resource": 4294,
      "duc": 4295,
      "qquad": 4296,
      "Ġbox": 4297,
      "that": 4298,
      "Ġquest": 4299,
      "77": 4300,
      "xx": 4301,
      "SH": 4302,
      "ids": 4303,
      "Ġsay": 4304,
      "cache": 4305,
      "ds": 4306,
      "ycle": 4307,
      "ĠAm": 4308,
      "Ġtree": 4309,
      "Ġwar": 4310,
      "ĠCreate": 4311,
      "Ġpolic": 4312,
      "ascript": 4313,
      "Ġentry": 4314,
      "ĠSee": 4315,
      "Ġobserved": 4316,
      "Ġinfl": 4317,
      "ĠCO": 4318,
      "Ġstarted": 4319,
      "hem": 4320,
      "ĠRed": 4321,
      "Ġgenerated": 4322,
      "Ġtaken": 4323,
      "Ġapi": 4324,
      "layout": 4325,
      "frame": 4326,
      "ART": 4327,
      "Ġcomplete": 4328,
      "{{\\": 4329,
      "Ġ(\"": 4330,
      "Match": 4331,
      "Ġargument": 4332,
      "ara": 4333,
      "Ġliter": 4334,
      "({\\": 4335,
      "ometry": 4336,
      "Ġfont": 4337,
      "otal": 4338,
      "Ġbetter": 4339,
      "Ġexception": 4340,
      "Ġgive": 4341,
      "Ġapplication": 4342,
      "Level": 4343,
      "VAL": 4344,
      "patch": 4345,
      "Ġdied": 4346,
      "Ġnever": 4347,
      "INE": 4348,
      "iforn": 4349,
      "Ġachiev": 4350,
      "Sim": 4351,
      "Ġdevelopment": 4352,
      "rum": 4353,
      "Ġground": 4354,
      "Ġnone": 4355,
      "ĠFirst": 4356,
      "\\\"": 4357,
      "ication": 4358,
      "Ġrender": 4359,
      "Ġtoo": 4360,
      "Ġfund": 4361,
      "ĠAg": 4362,
      "Ġexact": 4363,
      "aged": 4364,
      "utable": 4365,
      "Ġlarger": 4366,
      "}|": 4367,
      "xis": 4368,
      "COL": 4369,
      "CP": 4370,
      "ĠEXPECT": 4371,
      "KE": 4372,
      "imate": 4373,
      "Exec": 4374,
      "Ġcountry": 4375,
      "year": 4376,
      "quare": 4377,
      "lands": 4378,
      "Ġmight": 4379,
      "Port": 4380,
      "Last": 4381,
      "Ġacross": 4382,
      "Ġson": 4383,
      "ĠRem": 4384,
      "1990": 4385,
      "ĠDiv": 4386,
      "eft": 4387,
      "Document": 4388,
      "resh": 4389,
      "inner": 4390,
      "Ġfloat": 4391,
      "riend": 4392,
      "Ġda": 4393,
      "ifornia": 4394,
      "Ġcorrect": 4395,
      "imer": 4396,
      "Ag": 4397,
      "Hash": 4398,
      "Ġvillage": 4399,
      "})\\": 4400,
      "\"))": 4401,
      "Ġnecess": 4402,
      "ellow": 4403,
      "Ġhandle": 4404,
      "ĠRiver": 4405,
      "nce": 4406,
      "Ġaccept": 4407,
      "ĠPort": 4408,
      "ĠErr": 4409,
      "Ġrank": 4410,
      "Ab": 4411,
      "Ġsw": 4412,
      "ĠIndian": 4413,
      "Ġfar": 4414,
      "pped": 4415,
      "och": 4416,
      "Ġexperiment": 4417,
      "hood": 4418,
      "ulations": 4419,
      "Ġsupported": 4420,
      "86": 4421,
      "Ġfig": 4422,
      "appro": 4423,
      "ĠCLASS": 4424,
      "burg": 4425,
      "Ġable": 4426,
      "inated": 4427,
      "Ġwhose": 4428,
      "aches": 4429,
      "People": 4430,
      "eloc": 4431,
      "Ġrot": 4432,
      "Ġproposed": 4433,
      "Ġdoc": 4434,
      "ĠMich": 4435,
      "Ġmaterial": 4436,
      "Ġclosed": 4437,
      "VE": 4438,
      "LI": 4439,
      "Ġrelative": 4440,
      "Ġquantum": 4441,
      "star": 4442,
      "Ġestablish": 4443,
      "500": 4444,
      "orge": 4445,
      "sv": 4446,
      "cup": 4447,
      "Ġedge": 4448,
      "########": 4449,
      "Ġexpression": 4450,
      "ention": 4451,
      "Ġsuccessful": 4452,
      "ĠBut": 4453,
      "Living": 4454,
      "){\\": 4455,
      "Ġbit": 4456,
      "Ġled": 4457,
      "etch": 4458,
      "ĉĉĉĉĉĉĉ": 4459,
      "Ġcluster": 4460,
      "astic": 4461,
      "Ptr": 4462,
      "token": 4463,
      "Ġrepresentation": 4464,
      "document": 4465,
      "Ġpredict": 4466,
      "layer": 4467,
      "normal": 4468,
      "ĠNote": 4469,
      "wait": 4470,
      "Ġhard": 4471,
      "ĠEnd": 4472,
      "Ġmoved": 4473,
      "ĠMore": 4474,
      "Description": 4475,
      "2022": 4476,
      "linear": 4477,
      "Ġcoordin": 4478,
      "ictionary": 4479,
      "ĠEngland": 4480,
      "author": 4481,
      "pdf": 4482,
      "Eng": 4483,
      "CR": 4484,
      "Ġhistor": 4485,
      "ociety": 4486,
      "Ġill": 4487,
      "Ġpay": 4488,
      "tml": 4489,
      "ĠHREF": 4490,
      "Connection": 4491,
      "Ġframe": 4492,
      "arp": 4493,
      "STR": 4494,
      "omb": 4495,
      "useum": 4496,
      "Option": 4497,
      "Ġtemplate": 4498,
      "Ġsurv": 4499,
      "ati": 4500,
      "mid": 4501,
      "ĠData": 4502,
      "Ġvariable": 4503,
      "fs": 4504,
      "Ġdescription": 4505,
      "TI": 4506,
      "Ġspin": 4507,
      "Ġimp": 4508,
      "Ġgalax": 4509,
      "Ġ<!--": 4510,
      "Ġ\\{": 4511,
      "Ident": 4512,
      "Ġreview": 4513,
      "Ġreason": 4514,
      "ged": 4515,
      "Pack": 4516,
      "Prot": 4517,
      "Ġgrow": 4518,
      "Ġmer": 4519,
      "Ġdecl": 4520,
      "ĠWeb": 4521,
      "equal": 4522,
      "EQ": 4523,
      "ZE": 4524,
      "ategy": 4525,
      "oyal": 4526,
      "Ġassume": 4527,
      "ĠCheck": 4528,
      "ursor": 4529,
      "Ġmaximum": 4530,
      "ĠStr": 4531,
      "ctor": 4532,
      "Ġstop": 4533,
      "ĠIr": 4534,
      "render": 4535,
      "Handle": 4536,
      "Ġlik": 4537,
      "Ġboundary": 4538,
      "ĠĠĠĠĠĠĠĠĠĠĠĠĠĠĠĠĠĠĠĠĠ": 4539,
      "Direct": 4540,
      "Ġprior": 4541,
      "itude": 4542,
      "Ġdegree": 4543,
      "Expression": 4544,
      "drop": 4545,
      "structor": 4546,
      "ci": 4547,
      "Dir": 4548,
      "89": 4549,
      "achine": 4550,
      "Ġnamespace": 4551,
      "textwidth": 4552,
      "elegate": 4553,
      "Properties": 4554,
      "uel": 4555,
      "bin": 4556,
      "Ġ*)": 4557,
      "Ġcommunity": 4558,
      "Location": 4559,
      "Ġconstraint": 4560,
      "vas": 4561,
      "eters": 4562,
      "ips": 4563,
      "Settings": 4564,
      "ĠCalifornia": 4565,
      "ministr": 4566,
      "Ġperformed": 4567,
      "Ġcut": 4568,
      "system": 4569,
      "Ġprobability": 4570,
      "(*": 4571,
      "ND": 4572,
      "Host": 4573,
      "ĠFrom": 4574,
      "ker": 4575,
      "Ġactiv": 4576,
      "zer": 4577,
      "Open": 4578,
      "_;": 4579,
      "Ġfuture": 4580,
      "nap": 4581,
      "ipal": 4582,
      "eh": 4583,
      "Names": 4584,
      "():": 4585,
      "lease": 4586,
      "None": 4587,
      "ocr": 4588,
      "*{": 4589,
      "Position": 4590,
      "req": 4591,
      "Control": 4592,
      "greg": 4593,
      "adow": 4594,
      "DF": 4595,
      ">,": 4596,
      "Ġ$(\\": 4597,
      "Iter": 4598,
      "Ġparams": 4599,
      "then": 4600,
      "Ġaccording": 4601,
      "ills": 4602,
      "Ã¶": 4603,
      "ĠMy": 4604,
      "ĠFigure": 4605,
      "strict": 4606,
      "rupt": 4607,
      "arks": 4608,
      "dated": 4609,
      "Ġpress": 4610,
      "byte": 4611,
      "Ġdetails": 4612,
      "ĠAustralia": 4613,
      "&&": 4614,
      "57": 4615,
      "javascript": 4616,
      "1996": 4617,
      "Dr": 4618,
      "1997": 4619,
      "}^{(": 4620,
      "Ġweight": 4621,
      "Ġattribute": 4622,
      "ĠEm": 4623,
      "variant": 4624,
      "acters": 4625,
      "Render": 4626,
      "Ġwest": 4627,
      "Ġdays": 4628,
      "Ġmedia": 4629,
      "Ġsubject": 4630,
      "cur": 4631,
      "ĠException": 4632,
      "jection": 4633,
      "ĠAcc": 4634,
      "Ġpattern": 4635,
      "56": 4636,
      "{{": 4637,
      "ĠRev": 4638,
      "otes": 4639,
      "43": 4640,
      "plete": 4641,
      "osp": 4642,
      "fil": 4643,
      "}}(": 4644,
      "Current": 4645,
      "Ġanaly": 4646,
      "cd": 4647,
      "Track": 4648,
      "ĠRepublic": 4649,
      "\"));": 4650,
      "Can": 4651,
      "icol": 4652,
      "Ġbroad": 4653,
      "vector": 4654,
      "debug": 4655,
      "tic": 4656,
      "internal": 4657,
      "Ġdirection": 4658,
      "Ġmaking": 4659,
      "edef": 4660,
      "thon": 4661,
      "Ġtransition": 4662,
      "Ġnodes": 4663,
      "Ġtemperature": 4664,
      "Ġpassed": 4665,
      "}:": 4666,
      "Ġenvironment": 4667,
      "Ġpur": 4668,
      "Ġrelease": 4669,
      "Ġprofile": 4670,
      "ĠParty": 4671,
      "ario": 4672,
      "Ġoverride": 4673,
      "Ġbg": 4674,
      "ĠGroup": 4675,
      "=\"_": 4676,
      "Store": 4677,
      "Reference": 4678,
      "Rel": 4679,
      "Ġsetting": 4680,
      "MM": 4681,
      "Ã¤": 4682,
      "hent": 4683,
      "allet": 4684,
      "ivil": 4685,
      "Change": 4686,
      "language": 4687,
      "Ġhold": 4688,
      "msg": 4689,
      "ĠOF": 4690,
      "Ġreport": 4691,
      "anced": 4692,
      "Ġconstruction": 4693,
      "Ġmillion": 4694,
      "Ġrather": 4695,
      "Ġamount": 4696,
      "Ġprec": 4697,
      "anges": 4698,
      "ĠLog": 4699,
      "depend": 4700,
      "essional": 4701,
      "oon": 4702,
      "Ġ::": 4703,
      "Ġexcept": 4704,
      "ataset": 4705,
      "Ġtag": 4706,
      "icture": 4707,
      "Ġcomponents": 4708,
      "Ġque": 4709,
      "atives": 4710,
      "Ġemploy": 4711,
      "ĠApp": 4712,
      "Widget": 4713,
      "}\\\\": 4714,
      "sign": 4715,
      "Ġdevice": 4716,
      "ael": 4717,
      "Ġsom": 4718,
      "Stat": 4719,
      "hash": 4720,
      "Ġunique": 4721,
      "Ġgives": 4722,
      "41": 4723,
      "SL": 4724,
      "Ġcame": 4725,
      "Ġjob": 4726,
      "pop": 4727,
      "ACK": 4728,
      "Parameters": 4729,
      "Ġreported": 4730,
      "dest": 4731,
      "Ġcontinue": 4732,
      "ained": 4733,
      "romise": 4734,
      "rule": 4735,
      "lems": 4736,
      "ynch": 4737,
      "egment": 4738,
      "Ġapplic": 4739,
      "unn": 4740,
      "Ġmale": 4741,
      "Entity": 4742,
      "uple": 4743,
      "Exp": 4744,
      "adian": 4745,
      "Ġhuman": 4746,
      "%%": 4747,
      "Ġgreat": 4748,
      "ĠBel": 4749,
      "Ġstory": 4750,
      "Ġinternational": 4751,
      "Ġdirectly": 4752,
      "Meta": 4753,
      "oded": 4754,
      "ĠAward": 4755,
      "Ġcontribut": 4756,
      "Ġuses": 4757,
      "fg": 4758,
      "come": 4759,
      "Ġhapp": 4760,
      "unch": 4761,
      "ĉĠĠĠĠĠ": 4762,
      "59": 4763,
      "Ġleading": 4764,
      "Ġcentral": 4765,
      "iation": 4766,
      "Ġtool": 4767,
      "Ġequations": 4768,
      "ades": 4769,
      "ĠNS": 4770,
      "after": 4771,
      "Ġneigh": 4772,
      "Ġmemory": 4773,
      "ĠMal": 4774,
      "Ġrunning": 4775,
      "ube": 4776,
      "Ġeast": 4777,
      "aml": 4778,
      "Ġbi": 4779,
      "ĠGeneral": 4780,
      "yper": 4781,
      "ĠLemma": 4782,
      "ĠIndia": 4783,
      "Ġcertain": 4784,
      "CODE": 4785,
      "Core": 4786,
      "Po": 4787,
      "Ġ{};": 4788,
      "ris": 4789,
      "Ġcontainer": 4790,
      "Search": 4791,
      "Ġforce": 4792,
      "ming": 4793,
      "nost": 4794,
      "uz": 4795,
      "ĠMark": 4796,
      "aging": 4797,
      "Ġyield": 4798,
      "Ġfem": 4799,
      "ĠThus": 4800,
      "stitute": 4801,
      "Ġsold": 4802,
      "Ġunderst": 4803,
      "Async": 4804,
      "ya": 4805,
      "Ġfailed": 4806,
      "Http": 4807,
      "webkit": 4808,
      "Invalid": 4809,
      "ãģ": 4810,
      "ORT": 4811,
      "Ġtherefore": 4812,
      "orig": 4813,
      "Ġentire": 4814,
      "ĠÃ": 4815,
      ":</": 4816,
      "Ġnav": 4817,
      "join": 4818,
      "ein": 4819,
      "imest": 4820,
      "Ġvariables": 4821,
      "Ġfall": 4822,
      "Ġregister": 4823,
      "Impl": 4824,
      "clear": 4825,
      "uses": 4826,
      "Ġveloc": 4827,
      "fn": 4828,
      "gn": 4829,
      "Ġparts": 4830,
      "Script": 4831,
      "PR": 4832,
      "Ġincludes": 4833,
      "Serial": 4834,
      "Ġweak": 4835,
      "Ġfather": 4836,
      "Ġservices": 4837,
      "olute": 4838,
      ".)": 4839,
      "Ġdeaths": 4840,
      "mode": 4841,
      "ĠCour": 4842,
      "Que": 4843,
      "win": 4844,
      "bert": 4845,
      "transform": 4846,
      "conf": 4847,
      "Ġupper": 4848,
      "ERROR": 4849,
      "inder": 4850,
      ")-": 4851,
      "ernel": 4852,
      "Ġepis": 4853,
      "Assert": 4854,
      "1980": 4855,
      "sd": 4856,
      "uri": 4857,
      "Ġeffects": 4858,
      "hr": 4859,
      "sy": 4860,
      "Ġrelation": 4861,
      "ĠSum": 4862,
      "Ġnote": 4863,
      "mathsf": 4864,
      "__(": 4865,
      "ATION": 4866,
      "Copy": 4867,
      "Ġworking": 4868,
      "Bl": 4869,
      "$(": 4870,
      "agment": 4871,
      "Ġtoken": 4872,
      "Ġerrors": 4873,
      "76": 4874,
      "Ġallowed": 4875,
      "control": 4876,
      "enumer": 4877,
      "berg": 4878,
      "Ġ&\\": 4879,
      "Ġkeep": 4880,
      "Ġenough": 4881,
      "58": 4882,
      "Ġparse": 4883,
      "ĠChurch": 4884,
      "Ġnatural": 4885,
      "ĠNe": 4886,
      "tra": 4887,
      "Ġwent": 4888,
      "'$": 4889,
      "ĠTable": 4890,
      "inally": 4891,
      "iles": 4892,
      "Session": 4893,
      "Since": 4894,
      "Ġthough": 4895,
      "FO": 4896,
      "clude": 4897,
      "callback": 4898,
      "ĠQue": 4899,
      "det": 4900,
      "thern": 4901,
      "types": 4902,
      "]$": 4903,
      "Ġmechan": 4904,
      "atively": 4905,
      "ersist": 4906,
      "Ġsocial": 4907,
      "Ġimprov": 4908,
      "ani": 4909,
      "hspace": 4910,
      "Ġhash": 4911,
      "Ġsolid": 4912,
      "Fil": 4913,
      "ĠOlymp": 4914,
      "Ġaward": 4915,
      "xspace": 4916,
      "issions": 4917,
      "copy": 4918,
      "ALL": 4919,
      "ems": 4920,
      "IGN": 4921,
      "1995": 4922,
      "atory": 4923,
      "Ġintroduced": 4924,
      "track": 4925,
      "Project": 4926,
      "ĠFrance": 4927,
      "={": 4928,
      "Ġcurrently": 4929,
      "Ġinflu": 4930,
      "ĠTra": 4931,
      "ua": 4932,
      "ĠHol": 4933,
      "Policy": 4934,
      "There": 4935,
      "}}{\\": 4936,
      "Ġinf": 4937,
      "Ġparticip": 4938,
      "UP": 4939,
      "Ġprovides": 4940,
      "second": 4941,
      "band": 4942,
      "ĠSpec": 4943,
      "El": 4944,
      "styles": 4945,
      "range": 4946,
      "ĠRoman": 4947,
      "Ġstore": 4948,
      "~~~~": 4949,
      "Ġdeveloped": 4950,
      "Ġannounced": 4951,
      "Ġholds": 4952,
      "Ġhtt": 4953,
      "Ġcache": 4954,
      "Ġweek": 4955,
      "Ġneeded": 4956,
      "Ġapply": 4957,
      "Ġdraw": 4958,
      "delete": 4959,
      "Ġrule": 4960,
      "Ġallows": 4961,
      "Body": 4962,
      "Ev": 4963,
      "Ġpadding": 4964,
      "ores": 4965,
      "operatorname": 4966,
      "Cal": 4967,
      "Enc": 4968,
      "handle": 4969,
      "Ġsignal": 4970,
      "Font": 4971,
      "Rout": 4972,
      "ought": 4973,
      "rip": 4974,
      "ounter": 4975,
      "west": 4976,
      "CA": 4977,
      "Ġkind": 4978,
      "Ġaway": 4979,
      "}+\\": 4980,
      "ĠAmerica": 4981,
      "Ġimages": 4982,
      "rd": 4983,
      "ĠCanada": 4984,
      "typeof": 4985,
      "arily": 4986,
      "Ġstars": 4987,
      "igg": 4988,
      "`,": 4989,
      "Ġscope": 4990,
      "hi": 4991,
      "Ġprinc": 4992,
      "Left": 4993,
      "SA": 4994,
      "ĠGerm": 4995,
      "Ġsymbol": 4996,
      "Ġautom": 4997,
      "IR": 4998,
      "rote": 4999,
      "---": 5000,
      "ĠArmy": 5001,
      "Ġbgcolor": 5002,
      "Ġapplied": 5003,
      "icles": 5004,
      "tion": 5005,
      "icult": 5006,
      "Ġselection": 5007,
      "Order": 5008,
      "Ġtransfer": 5009,
      "Ġmid": 5010,
      "`.": 5011,
      "media": 5012,
      "ĠThom": 5013,
      "AND": 5014,
      "Ġdenote": 5015,
      "ãĥ": 5016,
      "Ġintegr": 5017,
      "mail": 5018,
      "ĠEuropean": 5019,
      "Mon": 5020,
      "allel": 5021,
      "tries": 5022,
      "border": 5023,
      "Ġpresented": 5024,
      "sort": 5025,
      "Ġaccur": 5026,
      "Argument": 5027,
      "Ġeffective": 5028,
      "Helper": 5029,
      "Ġga": 5030,
      "Ġexplicit": 5031,
      "ĠOR": 5032,
      "oms": 5033,
      "ĠSm": 5034,
      "ria": 5035,
      "Bytes": 5036,
      "asic": 5037,
      "Ġ-\\": 5038,
      "Rect": 5039,
      "BA": 5040,
      "|^": 5041,
      "toString": 5042,
      "ĠCouncil": 5043,
      "Br": 5044,
      "ĠTO": 5045,
      "cing": 5046,
      "aching": 5047,
      "Dom": 5048,
      "ĠĠĠĠĠĠĠĠĠĠĠĠĠĠĠĠĠĠĠĠ": 5049,
      "dimensional": 5050,
      "Le": 5051,
      "itar": 5052,
      "citet": 5053,
      "Ġcompleted": 5054,
      "ully": 5055,
      "Schema": 5056,
      "Ġoperations": 5057,
      "1994": 5058,
      "weight": 5059,
      "noindent": 5060,
      "Ġpopular": 5061,
      "1992": 5062,
      "Ġhttps": 5063,
      "Ġbehavior": 5064,
      "Ġvers": 5065,
      "interface": 5066,
      "ĠPaul": 5067,
      "Ġswitch": 5068,
      "Ġothers": 5069,
      "HO": 5070,
      "Integer": 5071,
      "den": 5072,
      "Ġitself": 5073,
      "ĠRober": 5074,
      "inding": 5075,
      "Ġextension": 5076,
      "ros": 5077,
      "Ġben": 5078,
      "Ġ['": 5079,
      "}-\\": 5080,
      "tex": 5081,
      "uate": 5082,
      "Ġang": 5083,
      "ilation": 5084,
      "Ġcandid": 5085,
      "%;": 5086,
      "Ġlearning": 5087,
      "eal": 5088,
      "agger": 5089,
      "aa": 5090,
      "ida": 5091,
      "cat": 5092,
      "omial": 5093,
      "Ġwebs": 5094,
      "neq": 5095,
      "ĠOut": 5096,
      "Ġclasses": 5097,
      "Ġarchitect": 5098,
      "Ġcoeff": 5099,
      "antic": 5100,
      "Reader": 5101,
      "ĠMet": 5102,
      "Ġstage": 5103,
      "overnor": 5104,
      "Ġbar": 5105,
      "Ġpolitical": 5106,
      "ĠAnt": 5107,
      "TEST": 5108,
      "ĠPal": 5109,
      "Record": 5110,
      "ĉĉĊ": 5111,
      "Ġrespons": 5112,
      "ini": 5113,
      "aven": 5114,
      "icker": 5115,
      "Definition": 5116,
      "ĠDem": 5117,
      "ĠStreet": 5118,
      "before": 5119,
      "Ġrecogn": 5120,
      "Right": 5121,
      "ĠJames": 5122,
      "\"`": 5123,
      "Symbol": 5124,
      "CTION": 5125,
      "ĠMag": 5126,
      "Ġ('": 5127,
      "1000": 5128,
      "Ġstudents": 5129,
      "ĠMath": 5130,
      "cp": 5131,
      "thing": 5132,
      "had": 5133,
      "\\,\\": 5134,
      "asons": 5135,
      "device": 5136,
      "Bundle": 5137,
      "mooth": 5138,
      "oney": 5139,
      "Ġconduct": 5140,
      "Ġ++": 5141,
      "aign": 5142,
      "ATA": 5143,
      "just": 5144,
      "ĠProv": 5145,
      "Ġoffer": 5146,
      "lor": 5147,
      "ĠDE": 5148,
      "Ġvolume": 5149,
      "================================": 5150,
      "Ġprimary": 5151,
      "Ġwhite": 5152,
      "StyleID": 5153,
      "Ġbytes": 5154,
      "Down": 5155,
      "Ġstrict": 5156,
      "Ġtreat": 5157,
      "Ġqual": 5158,
      "exception": 5159,
      "ledge": 5160,
      ")}{": 5161,
      "tog": 5162,
      "Ġnumbers": 5163,
      "Ġalmost": 5164,
      "clusion": 5165,
      ")/": 5166,
      "Sign": 5167,
      "Pi": 5168,
      "Metadata": 5169,
      "Note": 5170,
      "Ġloop": 5171,
      "Net": 5172,
      "(:": 5173,
      "Ġoptim": 5174,
      "Ġbasis": 5175,
      "ership": 5176,
      "Ġsession": 5177,
      "Ġadapt": 5178,
      "dim": 5179,
      "auth": 5180,
      "ania": 5181,
      "boolean": 5182,
      "ontal": 5183,
      "theorem": 5184,
      "ĠTime": 5185,
      "Ġign": 5186,
      "Ġpolitic": 5187,
      "aur": 5188,
      "Ġchain": 5189,
      "ansion": 5190,
      "ĠPublic": 5191,
      "elling": 5192,
      "Ġcompared": 5193,
      "Ġtakes": 5194,
      "hest": 5195,
      "Ġotherwise": 5196,
      "free": 5197,
      "ootst": 5198,
      "ensive": 5199,
      "ĠMod": 5200,
      "mission": 5201,
      "When": 5202,
      "Root": 5203,
      "rect": 5204,
      "Ġactual": 5205,
      "Ġcharacters": 5206,
      "icons": 5207,
      "Ġsmaller": 5208,
      "TER": 5209,
      "han": 5210,
      "etime": 5211,
      "replace": 5212,
      "env": 5213,
      "PP": 5214,
      "$}": 5215,
      "Args": 5216,
      "Ġdelete": 5217,
      "Ġalgebra": 5218,
      "Vari": 5219,
      "Ġunsigned": 5220,
      "make": 5221,
      "address": 5222,
      "ĠRich": 5223,
      "direct": 5224,
      "1970": 5225,
      "Ġcref": 5226,
      "raz": 5227,
      "68": 5228,
      "oundation": 5229,
      "Ġgoal": 5230,
      "Template": 5231,
      "Ġdimension": 5232,
      "ĠRegister": 5233,
      "Ġbyte": 5234,
      "NE": 5235,
      "ĠEar": 5236,
      "Pass": 5237,
      "Ġcommit": 5238,
      "oader": 5239,
      "uated": 5240,
      "allow": 5241,
      "Ġrights": 5242,
      "osen": 5243,
      "graph": 5244,
      "Ġ_{": 5245,
      "Ġviol": 5246,
      "webpack": 5247,
      "Ġimplies": 5248,
      "iting": 5249,
      "classes": 5250,
      "reek": 5251,
      "cope": 5252,
      "scal": 5253,
      "Tool": 5254,
      "False": 5255,
      "Ġlost": 5256,
      "ĠSen": 5257,
      "Ġcontaining": 5258,
      "51": 5259,
      "Ġareas": 5260,
      "Ġsources": 5261,
      "Timeout": 5262,
      "Parent": 5263,
      "Ġworked": 5264,
      "Ġmeet": 5265,
      "Ġpolicy": 5266,
      "Ġword": 5267,
      "Pol": 5268,
      "scr": 5269,
      "54": 5270,
      "Ġchanged": 5271,
      "Sk": 5272,
      "del": 5273,
      ")}$": 5274,
      "Ġgas": 5275,
      "Ġitems": 5276,
      "'],": 5277,
      "ously": 5278,
      "oom": 5279,
      "ĠForm": 5280,
      "Results": 5281,
      "Long": 5282,
      "ius": 5283,
      "Ġshape": 5284,
      "Ġappoint": 5285,
      "ws": 5286,
      "1993": 5287,
      "ĠMap": 5288,
      "Ġopened": 5289,
      "92": 5290,
      "Storage": 5291,
      "loor": 5292,
      "ĠPresident": 5293,
      "ORD": 5294,
      "ĠGeorge": 5295,
      "RA": 5296,
      "Vector": 5297,
      "enced": 5298,
      "Ġregard": 5299,
      "omy": 5300,
      "Ġneut": 5301,
      "Serv": 5302,
      "ĠError": 5303,
      "ĠDavid": 5304,
      "high": 5305,
      "unt": 5306,
      "SET": 5307,
      "Ġinfo": 5308,
      "Values": 5309,
      "Ġdifference": 5310,
      "ĠOb": 5311,
      "ano": 5312,
      "ectors": 5313,
      "ĠService": 5314,
      "Ġradio": 5315,
      "Ġlayer": 5316,
      "Ġlive": 5317,
      "ĠFil": 5318,
      "ĠBase": 5319,
      "255": 5320,
      "Ġjoined": 5321,
      "ville": 5322,
      "Ġrail": 5323,
      "ixt": 5324,
      "Ġsplit": 5325,
      "78": 5326,
      "Database": 5327,
      "]\\": 5328,
      "Ġdescribe": 5329,
      "ĠArg": 5330,
      "ams": 5331,
      "Ġecon": 5332,
      "ĠST": 5333,
      "Ġinstall": 5334,
      "Ġsort": 5335,
      "ishing": 5336,
      "ĠCr": 5337,
      "vm": 5338,
      "ĠDivision": 5339,
      "LL": 5340,
      "Ġbeliev": 5341,
      "bul": 5342,
      "ĠAssociation": 5343,
      "ĠOpen": 5344,
      "Ġfa": 5345,
      "Ġwriting": 5346,
      "global": 5347,
      "reater": 5348,
      "artifact": 5349,
      "Ġbecomes": 5350,
      "Ġcompan": 5351,
      "Inst": 5352,
      "Ġavoid": 5353,
      "SR": 5354,
      "ado": 5355,
      "wood": 5356,
      "utive": 5357,
      "elli": 5358,
      "Ġdefe": 5359,
      "Ġsettings": 5360,
      "Obj": 5361,
      "52": 5362,
      "enumerate": 5363,
      "Ġten": 5364,
      "Ġexisting": 5365,
      "PRE": 5366,
      "Ġthread": 5367,
      "Ġmakes": 5368,
      "itemize": 5369,
      "focus": 5370,
      "imestamp": 5371,
      "multi": 5372,
      "Ġpast": 5373,
      "94": 5374,
      "}}_": 5375,
      "Ġwrote": 5376,
      "erry": 5377,
      "Ġmarried": 5378,
      "Ġpaint": 5379,
      "cribe": 5380,
      "93": 5381,
      "Ġprove": 5382,
      "rian": 5383,
      "Ġyoung": 5384,
      "Ġcontract": 5385,
      "Param": 5386,
      "fact": 5387,
      "Ġmilitary": 5388,
      "orizontal": 5389,
      "Ġroad": 5390,
      "inct": 5391,
      "Ġsigned": 5392,
      "Ġphysical": 5393,
      "Non": 5394,
      "91": 5395,
      "access": 5396,
      "equals": 5397,
      "EM": 5398,
      "Ġcast": 5399,
      "ĠUnion": 5400,
      "Boolean": 5401,
      "ĠBlack": 5402,
      "Doc": 5403,
      "Ġequivalent": 5404,
      "GET": 5405,
      "Ġtre": 5406,
      "Xml": 5407,
      "models": 5408,
      "Ġfront": 5409,
      "ĠSing": 5410,
      "Ġtaking": 5411,
      "Ġchart": 5412,
      "ĠTrue": 5413,
      "uler": 5414,
      "send": 5415,
      "ago": 5416,
      "anner": 5417,
      "parameter": 5418,
      "Ġunits": 5419,
      "Ġelectron": 5420,
      "84": 5421,
      "ĠĠĠĠĠĠĠĠĠĠĠĠĠĠĠĠĠĠ": 5422,
      "'>": 5423,
      "Ġ(*": 5424,
      "Ġheader": 5425,
      "Ġalthough": 5426,
      "Ġwords": 5427,
      "53": 5428,
      "Ġpeak": 5429,
      "ened": 5430,
      "Ġsolutions": 5431,
      "aring": 5432,
      "gu": 5433,
      "ĠCenter": 5434,
      "asc": 5435,
      "ĠRoyal": 5436,
      "Ġparty": 5437,
      "ĠPo": 5438,
      "illed": 5439,
      "Ġ<=": 5440,
      "docs": 5441,
      "Delete": 5442,
      "Ġnuc": 5443,
      "ashington": 5444,
      "ĠCON": 5445,
      "ĠBer": 5446,
      "ĠGermany": 5447,
      "ynchron": 5448,
      "oring": 5449,
      "Ġinc": 5450,
      "overy": 5451,
      "Ġvelocity": 5452,
      "Menu": 5453,
      "Ġthink": 5454,
      "COLOR": 5455,
      "Parser": 5456,
      "ĠassertEquals": 5457,
      "72": 5458,
      "ĠHall": 5459,
      "Ġmagnetic": 5460,
      "ugins": 5461,
      "^-": 5462,
      "opl": 5463,
      "icate": 5464,
      "ĠVer": 5465,
      "Bound": 5466,
      "Mar": 5467,
      "amilton": 5468,
      "ootstrap": 5469,
      "ifying": 5470,
      "}}}": 5471,
      "FC": 5472,
      "Ġconnected": 5473,
      "component": 5474,
      "ãĤ": 5475,
      "ki": 5476,
      "success": 5477,
      "vspace": 5478,
      "dat": 5479,
      "gin": 5480,
      ")+": 5481,
      "HTML": 5482,
      "Ġproblems": 5483,
      "1991": 5484,
      "82": 5485,
      "Ġinside": 5486,
      "Prop": 5487,
      "DD": 5488,
      "approx": 5489,
      "Ġ\\;": 5490,
      "Ġdistributed": 5491,
      "Ġ\"/": 5492,
      "Ġformed": 5493,
      "ĠArch": 5494,
      "zon": 5495,
      "fa": 5496,
      "iments": 5497,
      "Ġincrease": 5498,
      "Ġ[];": 5499,
      "Ġsend": 5500,
      "ĠRead": 5501,
      "ughter": 5502,
      "ĠĠĠĊ": 5503,
      "plugin": 5504,
      "Ġevolution": 5505,
      "Ġsoftware": 5506,
      "resents": 5507,
      "utor": 5508,
      "card": 5509,
      "condition": 5510,
      "Device": 5511,
      "Ġstre": 5512,
      "fields": 5513,
      "onstr": 5514,
      "Ġmult": 5515,
      "Fields": 5516,
      "obile": 5517,
      "LS": 5518,
      "itch": 5519,
      "site": 5520,
      "=\"-": 5521,
      "umni": 5522,
      "Ġspeed": 5523,
      "Ġscript": 5524,
      "Ġwebsite": 5525,
      "ĠAng": 5526,
      "Ġimmedi": 5527,
      "Ġnovel": 5528,
      "dx": 5529,
      "Ġfire": 5530,
      "ena": 5531,
      "Ġsm": 5532,
      "tribution": 5533,
      "Then": 5534,
      "ĠBay": 5535,
      "insert": 5536,
      "ĠDuring": 5537,
      "Ġmatter": 5538,
      "Stack": 5539,
      "Ġconnect": 5540,
      "asket": 5541,
      "Ġsens": 5542,
      "ĠSw": 5543,
      "store": 5544,
      "Ġyet": 5545,
      "ald": 5546,
      "ĠJSON": 5547,
      "_->": 5548,
      "ĠDi": 5549,
      "widget": 5550,
      "izations": 5551,
      "Ġreserv": 5552,
      "Ġhealth": 5553,
      "Ġ$.": 5554,
      "ĠAustralian": 5555,
      "ĠBuild": 5556,
      "ĠMart": 5557,
      "shape": 5558,
      "Ġinstanceof": 5559,
      "SSERT": 5560,
      "ĠDec": 5561,
      "circle": 5562,
      "Each": 5563,
      "ĠLaw": 5564,
      "----------------------------------------------------------------": 5565,
      "ĠValue": 5566,
      "Ġratio": 5567,
      "ĉĠĠĠĠĠĠĠĠĠĠĠ": 5568,
      "Channel": 5569,
      "Ġweb": 5570,
      "Ġorigin": 5571,
      "=\"../../../../../": 5572,
      "Descriptor": 5573,
      "Su": 5574,
      "Ġmatches": 5575,
      "Ġdirector": 5576,
      "ĠRun": 5577,
      "ĠOper": 5578,
      "That": 5579,
      "SQL": 5580,
      "Sl": 5581,
      "Ġmetric": 5582,
      "_,": 5583,
      "shift": 5584,
      "Ġspectrum": 5585,
      "Ġstudies": 5586,
      "Enabled": 5587,
      "Writer": 5588,
      "ething": 5589,
      "yr": 5590,
      "Ġsett": 5591,
      "click": 5592,
      "Ġinteger": 5593,
      "itable": 5594,
      "vant": 5595,
      "Ġ})": 5596,
      "Queue": 5597,
      "ifies": 5598,
      "Ġsound": 5599,
      "Ġissue": 5600,
      "acement": 5601,
      "usion": 5602,
      "Ġchurch": 5603,
      "Ġfilename": 5604,
      "ĠChina": 5605,
      "NN": 5606,
      "king": 5607,
      "settings": 5608,
      "writ": 5609,
      "Ġhar": 5610,
      "ĠName": 5611,
      "ĠWork": 5612,
      "napsh": 5613,
      "Ġdig": 5614,
      "enum": 5615,
      "UB": 5616,
      "TC": 5617,
      "kg": 5618,
      "ĠLou": 5619,
      "bon": 5620,
      "Ġdirected": 5621,
      "Ġscen": 5622,
      "tee": 5623,
      "hover": 5624,
      "ested": 5625,
      "Ġoutside": 5626,
      "ĠTherefore": 5627,
      "Ġteams": 5628,
      "pret": 5629,
      "400": 5630,
      "OM": 5631,
      "Ġnecessary": 5632,
      "Ġscreen": 5633,
      "ĠSome": 5634,
      "ĠMor": 5635,
      "Ġ\"\\": 5636,
      "rome": 5637,
      "Debug": 5638,
      "Ġusually": 5639,
      "Ġdatabase": 5640,
      "sql": 5641,
      "Ġupon": 5642,
      "Ġgoing": 5643,
      "disabled": 5644,
      "Ġsubsequ": 5645,
      "ĠStud": 5646,
      "Rule": 5647,
      "ensus": 5648,
      "URE": 5649,
      "Ġmissing": 5650,
      "Ġhandler": 5651,
      "anagement": 5652,
      "Ġfollowed": 5653,
      "pite": 5654,
      "avor": 5655,
      "IF": 5656,
      "Ġrecorded": 5657,
      "Ġinline": 5658,
      "ĠRE": 5659,
      "PT": 5660,
      "Ġeigen": 5661,
      "Ġtypename": 5662,
      "Ġord": 5663,
      "uit": 5664,
      "initial": 5665,
      "ĠDate": 5666,
      "}'": 5667,
      "shire": 5668,
      "underline": 5669,
      "\\}$": 5670,
      "ĠĠĠĠĠĠĠĠĠĠĠĠĠĠĠĠĠĠĠĠĠĠĠĠĠĠĠĠĠĠĠĠĠĠĠĠĠĠĠ": 5671,
      "ĠÂ": 5672,
      "Ġstack": 5673,
      "Ġimplementation": 5674,
      "=(": 5675,
      "session": 5676,
      "Ġestimate": 5677,
      "GE": 5678,
      "ĠMary": 5679,
      "OK": 5680,
      "Sing": 5681,
      "Ġrelationship": 5682,
      "Has": 5683,
      "{$": 5684,
      "apply": 5685,
      "Ġsongs": 5686,
      "igr": 5687,
      "km": 5688,
      "Ġreplaced": 5689,
      "Ġaltern": 5690,
      "ĠMusic": 5691,
      "Ġlargest": 5692,
      "Ġrock": 5693,
      "crete": 5694,
      "cial": 5695,
      "Num": 5696,
      "Ġfrequency": 5697,
      "Ġearli": 5698,
      "Ġdebut": 5699,
      "ura": 5700,
      "ĠRoad": 5701,
      "Ġ(-": 5702,
      "orest": 5703,
      "Ver": 5704,
      "ĠEvent": 5705,
      "overs": 5706,
      "bedd": 5707,
      "ĠIO": 5708,
      "framework": 5709,
      "Ġpat": 5710,
      "63": 5711,
      "ynamic": 5712,
      "MD": 5713,
      "olver": 5714,
      "reshold": 5715,
      "ucket": 5716,
      "adr": 5717,
      "Byte": 5718,
      "ios": 5719,
      "rep": 5720,
      "ulate": 5721,
      "ategor": 5722,
      "Ġdifficult": 5723,
      "register": 5724,
      "Ġwriter": 5725,
      "ĠAcadem": 5726,
      "ĠInstitute": 5727,
      ">();": 5728,
      "ĠMac": 5729,
      "artifactId": 5730,
      "Ġcontinued": 5731,
      "Ġprofessional": 5732,
      "Ġhon": 5733,
      "ooks": 5734,
      "grid": 5735,
      "Pod": 5736,
      "Ð»": 5737,
      "Ġgot": 5738,
      "sche": 5739,
      "ao": 5740,
      "Me": 5741,
      "ingu": 5742,
      "aker": 5743,
      "Ġdeal": 5744,
      "\\'": 5745,
      "inet": 5746,
      "Ġcritical": 5747,
      "Ġplot": 5748,
      "ĠFunction": 5749,
      "ala": 5750,
      "RI": 5751,
      "Now": 5752,
      "hs": 5753,
      "essor": 5754,
      "term": 5755,
      "sets": 5756,
      "endar": 5757,
      "Application": 5758,
      "ying": 5759,
      "Ġquestion": 5760,
      "Decl": 5761,
      "alysis": 5762,
      "Ġlittle": 5763,
      "Ġfunc": 5764,
      "Ġsure": 5765,
      "Ġdetermined": 5766,
      "ĠTV": 5767,
      "PS": 5768,
      "300": 5769,
      "}},": 5770,
      "Ġdecre": 5771,
      "ĠGreen": 5772,
      "PL": 5773,
      "rey": 5774,
      "sect": 5775,
      "Ġkm": 5776,
      "ĠVir": 5777,
      "keys": 5778,
      "ĠField": 5779,
      "step": 5780,
      "Ġnor": 5781,
      "'))": 5782,
      "Ġsy": 5783,
      "isation": 5784,
      "Ġstructures": 5785,
      "double": 5786,
      "ORM": 5787,
      "wik": 5788,
      "Ġ),": 5789,
      "ĠOther": 5790,
      "Ġextra": 5791,
      "Ġcome": 5792,
      "aser": 5793,
      "Ġdirectory": 5794,
      "Ġwait": 5795,
      "iple": 5796,
      "Ġresulting": 5797,
      "Ġ${": 5798,
      "Ġelem": 5799,
      "ĠIS": 5800,
      "Ġtests": 5801,
      "ĠDepartment": 5802,
      "Ġpreviously": 5803,
      "Ġnegative": 5804,
      "Ġradi": 5805,
      "Ġflag": 5806,
      "Ġauth": 5807,
      "Ġincreasing": 5808,
      "Pop": 5809,
      "rea": 5810,
      "election": 5811,
      "ocker": 5812,
      "$_": 5813,
      "connect": 5814,
      "83": 5815,
      "Title": 5816,
      "norm": 5817,
      "inese": 5818,
      "Ġlonger": 5819,
      "Ġstudied": 5820,
      "alls": 5821,
      "Ġcore": 5822,
      "Ġeducation": 5823,
      ">.": 5824,
      "pg": 5825,
      "GB": 5826,
      "ĠMex": 5827,
      "NavBar": 5828,
      "ĠDirect": 5829,
      "Scope": 5830,
      "lap": 5831,
      "Ġneeds": 5832,
      "ĠWhile": 5833,
      "62": 5834,
      "Ġacqu": 5835,
      "real": 5836,
      "OD": 5837,
      "ĠSam": 5838,
      "defined": 5839,
      "Ġtypeof": 5840,
      "ĠWashington": 5841,
      "Ġlearn": 5842,
      "FL": 5843,
      "Mark": 5844,
      "ĠRobert": 5845,
      "}^{-": 5846,
      "Ġstarting": 5847,
      "definition": 5848,
      "each": 5849,
      "cons": 5850,
      "Ġvertex": 5851,
      "zero": 5852,
      "Mock": 5853,
      "ĠCourt": 5854,
      "->_": 5855,
      "Ġdim": 5856,
      "Ġderived": 5857,
      "Ġinterval": 5858,
      "sey": 5859,
      "Ġmarket": 5860,
      "Ġoffic": 5861,
      "Ġbelong": 5862,
      "Ġdemonstr": 5863,
      "ander": 5864,
      "aws": 5865,
      "road": 5866,
      "export": 5867,
      "unsigned": 5868,
      "Ġregions": 5869,
      "Rev": 5870,
      "Ġgenerate": 5871,
      "isk": 5872,
      "unity": 5873,
      "Ġmention": 5874,
      "Display": 5875,
      "ixel": 5876,
      "Ġoperators": 5877,
      "Ġir": 5878,
      "Pattern": 5879,
      "Post": 5880,
      "ĠTown": 5881,
      "ĠWil": 5882,
      "Ġremoved": 5883,
      "Ġinvestig": 5884,
      "groupId": 5885,
      "Ġchoice": 5886,
      "ĠCompany": 5887,
      "ĠSociety": 5888,
      "Ġcourse": 5889,
      "Selector": 5890,
      "ĠMat": 5891,
      "Ġmsg": 5892,
      "minus": 5893,
      "1989": 5894,
      "ĠMo": 5895,
      "Ġrules": 5896,
      "posite": 5897,
      "irit": 5898,
      "Ġos": 5899,
      "Ġdesigned": 5900,
      "Func": 5901,
      "white": 5902,
      "custom": 5903,
      "Only": 5904,
      "ĠCre": 5905,
      "Init": 5906,
      "AV": 5907,
      "Own": 5908,
      "Ġrev": 5909,
      "~$": 5910,
      "illa": 5911,
      "onds": 5912,
      "WE": 5913,
      "ertific": 5914,
      "prod": 5915,
      "ĠHen": 5916,
      "81": 5917,
      "MC": 5918,
      "Ġkeys": 5919,
      "74": 5920,
      "amera": 5921,
      "Ġscheme": 5922,
      "anded": 5923,
      "Ġprogress": 5924,
      "Att": 5925,
      "Api": 5926,
      "ynomial": 5927,
      "channel": 5928,
      "results": 5929,
      "....": 5930,
      "ĠJack": 5931,
      "Ġcomment": 5932,
      "ĠPress": 5933,
      "ili": 5934,
      "Ġ'/": 5935,
      "ares": 5936,
      "Send": 5937,
      "bitr": 5938,
      "Ġgauge": 5939,
      "Ġinfin": 5940,
      "61": 5941,
      "Ġvict": 5942,
      "files": 5943,
      "]]": 5944,
      "umin": 5945,
      "plex": 5946,
      "Job": 5947,
      "KEY": 5948,
      "Ġcounter": 5949,
      "ĠDon": 5950,
      "ĠURL": 5951,
      "points": 5952,
      "Ġraise": 5953,
      "1960": 5954,
      "Ġtheorem": 5955,
      "liament": 5956,
      "overed": 5957,
      "bold": 5958,
      "ĠFranc": 5959,
      ".âĢĿ": 5960,
      "trm": 5961,
      "ĠGa": 5962,
      "ĠBG": 5963,
      "icket": 5964,
      "Ġclassical": 5965,
      "mas": 5966,
      "Ġfamil": 5967,
      "////////////////////////////////": 5968,
      "ĠGames": 5969,
      "estival": 5970,
      "Ġrepresented": 5971,
      "1988": 5972,
      "Ġsil": 5973,
      "Ġcop": 5974,
      "multicol": 5975,
      "Ġalt": 5976,
      "ĠDefault": 5977,
      "ĠRequ": 5978,
      "CHE": 5979,
      "attice": 5980,
      "ĠItal": 5981,
      "ĠThat": 5982,
      "JSON": 5983,
      "<\\": 5984,
      "full": 5985,
      ".__": 5986,
      "ĠTur": 5987,
      "Ġtransport": 5988,
      "nes": 5989,
      "Custom": 5990,
      "angular": 5991,
      "ĠBen": 5992,
      "Ġess": 5993,
      "Ġfinished": 5994,
      "'.": 5995,
      "Ġproper": 5996,
      "loc": 5997,
      "Ġplatform": 5998,
      "textrm": 5999,
      "ĠHistor": 6000,
      "isions": 6001,
      "Use": 6002,
      "za": 6003,
      "Ġmodern": 6004,
      "porary": 6005,
      "ĠIsland": 6006,
      "Dialog": 6007,
      "ĠClub": 6008,
      "Te": 6009,
      "Ġinteraction": 6010,
      "ĠLeg": 6011,
      "phere": 6012,
      "ening": 6013,
      "ffff": 6014,
      "79": 6015,
      "padding": 6016,
      "pare": 6017,
      "Ġcred": 6018,
      "Ġminimum": 6019,
      "ĠKingdom": 6020,
      "FAULT": 6021,
      "multicolumn": 6022,
      "inline": 6023,
      "Ġdoesn": 6024,
      "Red": 6025,
      "Ġdetermine": 6026,
      "force": 6027,
      "âĢľ": 6028,
      "Ġnative": 6029,
      "ĠLO": 6030,
      "Ġalbums": 6031,
      "PH": 6032,
      "arter": 6033,
      "Ġserial": 6034,
      "produ": 6035,
      "ora": 6036,
      "recated": 6037,
      "Ġnet": 6038,
      "ĠRail": 6039,
      "ped": 6040,
      "Ġjson": 6041,
      "Ġlang": 6042,
      "Ġrace": 6043,
      "Ġappeared": 6044,
      "Ġsimply": 6045,
      "Network": 6046,
      "atalog": 6047,
      "ĠAlex": 6048,
      "=#": 6049,
      "Ġbutton": 6050,
      "END": 6051,
      "Theta": 6052,
      "ĠHel": 6053,
      "Ġdeep": 6054,
      "otic": 6055,
      "Ġbottom": 6056,
      "well": 6057,
      "DIR": 6058,
      "stat": 6059,
      "ether": 6060,
      ":\\": 6061,
      "reement": 6062,
      "à¤": 6063,
      "Ġrequires": 6064,
      "cedure": 6065,
      "Ġwife": 6066,
      "ĠBest": 6067,
      "faces": 6068,
      "clos": 6069,
      "Ġusers": 6070,
      "Ġcharge": 6071,
      "CS": 6072,
      "bits": 6073,
      "Ġinsert": 6074,
      "Ġassist": 6075,
      ")),": 6076,
      "Ġmonths": 6077,
      "margin": 6078,
      "Ġexhib": 6079,
      "eck": 6080,
      "Ġderiv": 6081,
      "ollowing": 6082,
      "ĠCanadian": 6083,
      "Ġextended": 6084,
      "}\"": 6085,
      "pute": 6086,
      "anger": 6087,
      "&#": 6088,
      "Ġwhole": 6089,
      "cut": 6090,
      "Ġnom": 6091,
      "contin": 6092,
      "rast": 6093,
      "Ġrob": 6094,
      "items": 6095,
      "Draw": 6096,
      "plements": 6097,
      "Fail": 6098,
      "Ġmar": 6099,
      "spect": 6100,
      "related": 6101,
      "Tra": 6102,
      "ĠĠĠĠĠĠĠĠĠĠĠĠĠĠĠĠĠĠĠĠĠĠĠĠĠ": 6103,
      "ighest": 6104,
      "ACE": 6105,
      "ĠUK": 6106,
      "illing": 6107,
      "Ġinvolved": 6108,
      "\"\"\"": 6109,
      "Ġpred": 6110,
      "holder": 6111,
      "cmd": 6112,
      "ĠUse": 6113,
      "vention": 6114,
      "pecially": 6115,
      "ĠPy": 6116,
      "Dep": 6117,
      "inf": 6118,
      "mitted": 6119,
      "Ġeditor": 6120,
      "onic": 6121,
      "Ġuniform": 6122,
      "=\"../../../../../../": 6123,
      "Ġdisk": 6124,
      "airs": 6125,
      "Ġruns": 6126,
      "Ġoffice": 6127,
      "Ġtro": 6128,
      "asketball": 6129,
      "attribute": 6130,
      "69": 6131,
      "ubb": 6132,
      "ĠAut": 6133,
      "ĠOver": 6134,
      "tical": 6135,
      "Struct": 6136,
      "auto": 6137,
      "=-": 6138,
      "printf": 6139,
      "ĠMem": 6140,
      "Cre": 6141,
      "Ġrestrict": 6142,
      "Ġremains": 6143,
      "Ġactually": 6144,
      "ipeline": 6145,
      "NotNull": 6146,
      "Ġjav": 6147,
      "Extension": 6148,
      "Ġadministr": 6149,
      "super": 6150,
      "otion": 6151,
      "Ġroute": 6152,
      "Ġfriend": 6153,
      "Ġmanif": 6154,
      "73": 6155,
      "scroll": 6156,
      "mathscr": 6157,
      "Ġfinally": 6158,
      "_(": 6159,
      "ancel": 6160,
      "Ġforms": 6161,
      "Ret": 6162,
      "ĠAfrican": 6163,
      "Active": 6164,
      "Ġthroughout": 6165,
      "ĠCath": 6166,
      "Initial": 6167,
      "ĠTex": 6168,
      "Ġsymmetry": 6169,
      "Lock": 6170,
      "isl": 6171,
      "Ġhimself": 6172,
      "Ġcompact": 6173,
      "Ġmanager": 6174,
      "Ġdestroy": 6175,
      "inv": 6176,
      "ITY": 6177,
      "omorphism": 6178,
      "assertEqual": 6179,
      "Var": 6180,
      ")))": 6181,
      "Ġfounded": 6182,
      "ĠMer": 6183,
      "Ġlatter": 6184,
      ";->": 6185,
      "lers": 6186,
      "Ġremaining": 6187,
      "Ġaxis": 6188,
      "ĠNode": 6189,
      "ATH": 6190,
      "Volume": 6191,
      "Ġradius": 6192,
      "Ġforces": 6193,
      "1987": 6194,
      "footnote": 6195,
      "subseteq": 6196,
      "assertEquals": 6197,
      "SION": 6198,
      "ĠKey": 6199,
      "Ġchall": 6200,
      "sample": 6201,
      "therm": 6202,
      "ita": 6203,
      "Ġuseful": 6204,
      "Ġconstit": 6205,
      "Ġexternal": 6206,
      "ĠYear": 6207,
      "Ġ$|": 6208,
      "ĠHamilton": 6209,
      "toggle": 6210,
      "*)": 6211,
      "ĠRecords": 6212,
      "apter": 6213,
      "Ġplaying": 6214,
      "Ġframework": 6215,
      "Ðº": 6216,
      "Dist": 6217,
      "taint": 6218,
      "Ġtowards": 6219,
      "ĠHTML": 6220,
      "Ġhit": 6221,
      "ĠRuss": 6222,
      "Ġcurve": 6223,
      "ĠCentral": 6224,
      "Ġconcern": 6225,
      "ga": 6226,
      "Ġflux": 6227,
      "ĠMethod": 6228,
      "ĠFe": 6229,
      "Iterator": 6230,
      "Ġrepresents": 6231,
      "Runtime": 6232,
      "Pool": 6233,
      "deg": 6234,
      "ĠJapanese": 6235,
      "Ġcategory": 6236,
      "Ġelected": 6237,
      "ĠThomas": 6238,
      "support": 6239,
      "Ġcompanies": 6240,
      "iny": 6241,
      "Ġreve": 6242,
      "Ġinner": 6243,
      "Ġlikely": 6244,
      "###": 6245,
      "Ġillustr": 6246,
      "Ġpanel": 6247,
      "71": 6248,
      "Ġhence": 6249,
      "Ġsus": 6250,
      "Ġsufficient": 6251,
      "ĠAfrica": 6252,
      "Ġidentity": 6253,
      "Ġwave": 6254,
      "Ġ\"\"": 6255,
      "ains": 6256,
      "Ġsmooth": 6257,
      "iagnost": 6258,
      "Ġcompute": 6259,
      "Ġ$-": 6260,
      "ĠNOT": 6261,
      "Flags": 6262,
      "Security": 6263,
      "ederal": 6264,
      "iterator": 6265,
      "Ġlisted": 6266,
      "atically": 6267,
      "ĠMuseum": 6268,
      "wedge": 6269,
      "selected": 6270,
      "Ġissues": 6271,
      "ĠJer": 6272,
      "urren": 6273,
      "help": 6274,
      "AGE": 6275,
      "Ġ$\\{": 6276,
      "mock": 6277,
      ")\">": 6278,
      "FILE": 6279,
      "Ġeight": 6280,
      "Ġvocal": 6281,
      "Ġparticle": 6282,
      "ecause": 6283,
      "Ġgrav": 6284,
      "pri": 6285,
      "eli": 6286,
      "application": 6287,
      "Ġensure": 6288,
      "hadoop": 6289,
      "pring": 6290,
      "kind": 6291,
      "Ġface": 6292,
      "Ġcampaign": 6293,
      "matrix": 6294,
      "Classes": 6295,
      "ĠSl": 6296,
      "olar": 6297,
      "1986": 6298,
      "Msg": 6299,
      "Ġconcept": 6300,
      "}}_{": 6301,
      "Ġmock": 6302,
      "ĠAcademy": 6303,
      "stop": 6304,
      "[:": 6305,
      "lines": 6306,
      "rev": 6307,
      "stant": 6308,
      "Ġconsum": 6309,
      "stylesheet": 6310,
      "ĠCong": 6311,
      "Se": 6312,
      "Ġfix": 6313,
      "ping": 6314,
      "ictor": 6315,
      "Ġdiagram": 6316,
      "ashed": 6317,
      "Ġtensor": 6318,
      "urnament": 6319,
      "(!": 6320,
      "Ġscore": 6321,
      "names": 6322,
      "napshot": 6323,
      ")|": 6324,
      "admin": 6325,
      "ĠLong": 6326,
      "herit": 6327,
      "atial": 6328,
      "TEX": 6329,
      "iders": 6330,
      "Events": 6331,
      "ĠĠĠĠĠĠĠĠĠĠĠĠĠĠĠĠĠĠĠĠĠĠĠĠ": 6332,
      "Ġfootballers": 6333,
      "WS": 6334,
      "modal": 6335,
      "Member": 6336,
      "PA": 6337,
      "para": 6338,
      "mi": 6339,
      "Named": 6340,
      "neg": 6341,
      "Ġecho": 6342,
      "sur": 6343,
      "Float": 6344,
      "anks": 6345,
      "ultural": 6346,
      "Go": 6347,
      "Ġreading": 6348,
      "ĠSal": 6349,
      "important": 6350,
      "Ġnoise": 6351,
      ";\"": 6352,
      "Ġforward": 6353,
      "Ġleague": 6354,
      "props": 6355,
      "queue": 6356,
      "\\}": 6357,
      "Changed": 6358,
      "Internal": 6359,
      "panel": 6360,
      "Ġappointed": 6361,
      "Ġenter": 6362,
      "Ġassign": 6363,
      "oplus": 6364,
      "Ġschools": 6365,
      "stry": 6366,
      "Ġplaces": 6367,
      "ĠVAL": 6368,
      "Ġlibrary": 6369,
      "ĠEv": 6370,
      "ympt": 6371,
      "NG": 6372,
      "Ġpercent": 6373,
      "_+": 6374,
      "ression": 6375,
      "ĠMa": 6376,
      "Jo": 6377,
      "cloud": 6378,
      "ved": 6379,
      "Ġbirth": 6380,
      "ĠRussian": 6381,
      "Ġfigure": 6382,
      "azz": 6383,
      "anning": 6384,
      "Ġlock": 6385,
      "Ġgalaxies": 6386,
      "tained": 6387,
      "esh": 6388,
      "odec": 6389,
      "Ġdam": 6390,
      "notation": 6391,
      "Ġhtml": 6392,
      "addr": 6393,
      "Ġ($\\": 6394,
      "war": 6395,
      "ĠJust": 6396,
      "short": 6397,
      "ĠScott": 6398,
      "1984": 6399,
      "Ġliving": 6400,
      "Ġattr": 6401,
      "har": 6402,
      "erve": 6403,
      "Ġrepe": 6404,
      "Ġmother": 6405,
      "Ġgenerally": 6406,
      "legal": 6407,
      "Ġlevels": 6408,
      "Ġetc": 6409,
      "Ġinvolv": 6410,
      "Ġstatement": 6411,
      "Ġgave": 6412,
      "Ġmonth": 6413,
      "Ġmix": 6414,
      "itz": 6415,
      "Ġcause": 6416,
      "Ġpresence": 6417,
      "category": 6418,
      "ĠGrand": 6419,
      "ĠChe": 6420,
      "Ġattributes": 6421,
      "Ġ(_": 6422,
      "ä¸": 6423,
      "Ġ\\|": 6424,
      "black": 6425,
      "aking": 6426,
      "comment": 6427,
      "ĠGold": 6428,
      "ky": 6429,
      "ĠĠĠĠĠĠĠĠĠĠĠĠĠĠĠĠĠĠĠĠĠĠ": 6430,
      "Ġdb": 6431,
      "seud": 6432,
      "dagger": 6433,
      "Ġbranch": 6434,
      "Register": 6435,
      "ĠMax": 6436,
      "ĠCopy": 6437,
      "Ġsamples": 6438,
      "Ġmeas": 6439,
      "Ġlimited": 6440,
      "ĠBGCOLOR": 6441,
      "Ġreduced": 6442,
      "Ġmotion": 6443,
      "Ġbinary": 6444,
      "tention": 6445,
      "ĠMiss": 6446,
      "lood": 6447,
      "Items": 6448,
      "Ġpert": 6449,
      "Ġmaps": 6450,
      "ett": 6451,
      "while": 6452,
      "Ġsense": 6453,
      "rot": 6454,
      "gence": 6455,
      "_{{\\": 6456,
      "eries": 6457,
      "MB": 6458,
      "Ġextract": 6459,
      "Ġimpact": 6460,
      "Ġalumni": 6461,
      "Ġappears": 6462,
      "reland": 6463,
      "limits": 6464,
      "Ġuncer": 6465,
      "events": 6466,
      "ĠHand": 6467,
      "thlet": 6468,
      "Ġstreng": 6469,
      "Ġfight": 6470,
      "sequence": 6471,
      "eler": 6472,
      "Ġchosen": 6473,
      "ĠItalian": 6474,
      "Ġnorm": 6475,
      "ĠWestern": 6476,
      "1985": 6477,
      "Ġdark": 6478,
      "Ġhous": 6479,
      "tip": 6480,
      "Ear": 6481,
      "FR": 6482,
      "Ġobservations": 6483,
      "gan": 6484,
      "Ġadopt": 6485,
      "ĠMichael": 6486,
      "radius": 6487,
      "ĠĠĠĠĠĠĠĠĠĠĠĠĠĠĠĠĠĠĠĠĠĠĠĠĠĠĠĠĠĠĠĠĠĠĠĠĠĠĠĠĠĠĠĠĠĠĠĠĠĠĠĠĠĠĠĠĠĠĠĠĠĠĠĠ": 6488,
      "Ġcos": 6489,
      "Ġcollect": 6490,
      "SIZE": 6491,
      "alled": 6492,
      "ĠZeal": 6493,
      "DC": 6494,
      "Windows": 6495,
      "ners": 6496,
      "ĠAccording": 6497,
      "atin": 6498,
      "bytes": 6499,
      "Tab": 6500,
      "setminus": 6501,
      "rial": 6502,
      "ĠTom": 6503,
      "aved": 6504,
      "Ġbasic": 6505,
      "connection": 6506,
      "ĠAssembly": 6507,
      "ĠMont": 6508,
      "Ġformula": 6509,
      "TED": 6510,
      "ampl": 6511,
      "dule": 6512,
      "Ġarbitr": 6513,
      "Ġespecially": 6514,
      "Click": 6515,
      "ellar": 6516,
      "00000": 6517,
      "ĠVirgin": 6518,
      "isms": 6519,
      "Ġcharg": 6520,
      "Ġconsists": 6521,
      "Ġreached": 6522,
      "akes": 6523,
      "ye": 6524,
      "Ġguitar": 6525,
      "Ġpackage": 6526,
      "Ġexpansion": 6527,
      "ĠBOO": 6528,
      "ĠSecond": 6529,
      "cf": 6530,
      "ĠTor": 6531,
      "gg": 6532,
      "Multi": 6533,
      "ĠZealand": 6534,
      "'re": 6535,
      "Pointer": 6536,
      "azine": 6537,
      "orse": 6538,
      "Ġpresident": 6539,
      "++;": 6540,
      "Ġcontact": 6541,
      "Ġembedd": 6542,
      "Ã³n": 6543,
      "bi": 6544,
      "Ġ^": 6545,
      "ĠDel": 6546,
      "ĠDay": 6547,
      "ĠWhite": 6548,
      "Ġded": 6549,
      "Ġscatter": 6550,
      "Ac": 6551,
      "Ġcomparison": 6552,
      "Ġpolynomial": 6553,
      "Transform": 6554,
      "ĠSummer": 6555,
      "Ġparticles": 6556,
      "region": 6557,
      "ĠJew": 6558,
      "ropy": 6559,
      "^{-\\": 6560,
      "Ne": 6561,
      "Ġstated": 6562,
      "Ġdro": 6563,
      "abilities": 6564,
      "Man": 6565,
      "Close": 6566,
      "ospital": 6567,
      "Ġdataset": 6568,
      "ĠFI": 6569,
      "Ġplane": 6570,
      "oma": 6571,
      "ometimes": 6572,
      "Ġask": 6573,
      "brief": 6574,
      "Before": 6575,
      "Ġincor": 6576,
      "olid": 6577,
      "ewidth": 6578,
      "Ġemission": 6579,
      "ĠDemocr": 6580,
      "'\\": 6581,
      "eek": 6582,
      "texttt": 6583,
      "Parse": 6584,
      "wrap": 6585,
      "ĠLouis": 6586,
      "di": 6587,
      "fit": 6588,
      "ĠChristian": 6589,
      ")));": 6590,
      "Attributes": 6591,
      "_{(": 6592,
      "Ġblue": 6593,
      "ston": 6594,
      "Ġappend": 6595,
      "Ġer": 6596,
      "uy": 6597,
      "Ġmomentum": 6598,
      "Ġvisit": 6599,
      "Ġcontinuous": 6600,
      "Ġhyper": 6601,
      "Ġrad": 6602,
      "las": 6603,
      "Ġdaughter": 6604,
      "Ġbroadcast": 6605,
      "iral": 6606,
      "Ġutil": 6607,
      "ĠCharles": 6608,
      "ookie": 6609,
      "ĠOrder": 6610,
      "ivial": 6611,
      "Ġeffort": 6612,
      "ĠFootball": 6613,
      "ĠHere": 6614,
      "ko": 6615,
      "256": 6616,
      "ircraft": 6617,
      "Ġpick": 6618,
      "Ġbeginning": 6619,
      "So": 6620,
      "Sum": 6621,
      "LP": 6622,
      "ĠPat": 6623,
      "Ġsports": 6624,
      "Directory": 6625,
      "iences": 6626,
      "Editor": 6627,
      "Plugin": 6628,
      "Namespace": 6629,
      "ĠSuper": 6630,
      "Ġjud": 6631,
      "Syntax": 6632,
      "Ġfully": 6633,
      "ĠCarol": 6634,
      "ĠModel": 6635,
      "Ġjournal": 6636,
      "Ġsubs": 6637,
      "ĠExt": 6638,
      "ket": 6639,
      "ĠSaint": 6640,
      "schema": 6641,
      "ĠScience": 6642,
      "ipage": 6643,
      "atur": 6644,
      "ĠKore": 6645,
      "ĠTexas": 6646,
      "ĠTem": 6647,
      "EC": 6648,
      "ĠFalse": 6649,
      "Ġcontribution": 6650,
      "Ġresources": 6651,
      "\",\"": 6652,
      "Ġmiddle": 6653,
      "Media": 6654,
      "Ġli": 6655,
      "Am": 6656,
      "Ã§": 6657,
      "Ġhyp": 6658,
      "Ġscalar": 6659,
      "enter": 6660,
      "Ġtrain": 6661,
      "parameters": 6662,
      "ĠOlympics": 6663,
      "heast": 6664,
      "Ġctx": 6665,
      "ja": 6666,
      "UID": 6667,
      "Props": 6668,
      "Ġalloc": 6669,
      "oration": 6670,
      "DS": 6671,
      "}%": 6672,
      "Ġslow": 6673,
      "Auth": 6674,
      "Ġexamples": 6675,
      "aled": 6676,
      "newcommand": 6677,
      "Ġcoach": 6678,
      "ĠChinese": 6679,
      "Ġdescrib": 6680,
      "ancy": 6681,
      "handler": 6682,
      "ĠResearch": 6683,
      "ĠDan": 6684,
      "Ġdiscussed": 6685,
      "ĠForce": 6686,
      "Year": 6687,
      "JS": 6688,
      "DU": 6689,
      "Ġeventually": 6690,
      "thread": 6691,
      "Ġbooks": 6692,
      "Ġthought": 6693,
      "Ġepisode": 6694,
      "Ġoverall": 6695,
      "Ġmus": 6696,
      "[$": 6697,
      "Wrapper": 6698,
      "structure": 6699,
      "ducation": 6700,
      "Ġbehind": 6701,
      "flags": 6702,
      "oped": 6703,
      "Keys": 6704,
      "Ġmagn": 6705,
      "anned": 6706,
      "Ġbounded": 6707,
      "reset": 6708,
      "Ġgrant": 6709,
      "BS": 6710,
      "Ġcoupling": 6711,
      "Ġhighest": 6712,
      "Ġprote": 6713,
      "BR": 6714,
      "Elements": 6715,
      "Tests": 6716,
      "LIC": 6717,
      "Ġsecurity": 6718,
      "edy": 6719,
      "yes": 6720,
      "Ġimm": 6721,
      "ji": 6722,
      "Section": 6723,
      "Ġinvoke": 6724,
      "Ġearlier": 6725,
      "Ġdepends": 6726,
      "Ġpolar": 6727,
      "pool": 6728,
      "Ġsomething": 6729,
      "Icon": 6730,
      "Ġ\\!": 6731,
      "ĠĠĠĠĠĠĊ": 6732,
      "dropdown": 6733,
      "sto": 6734,
      "people": 6735,
      "Ġanim": 6736,
      "Ġabsolute": 6737,
      "ĠGets": 6738,
      "More": 6739,
      "fail": 6740,
      "ometric": 6741,
      "ova": 6742,
      "ĠGreat": 6743,
      "ĠRob": 6744,
      "MAX": 6745,
      "Ġstations": 6746,
      "minipage": 6747,
      "Ġlif": 6748,
      "Ġio": 6749,
      "special": 6750,
      "rb": 6751,
      "TS": 6752,
      "uls": 6753,
      "Ġnight": 6754,
      "Ġsegment": 6755,
      "collection": 6756,
      "Ġplaced": 6757,
      "Ġfeed": 6758,
      "idents": 6759,
      "ette": 6760,
      "Ġangle": 6761,
      "ella": 6762,
      "1983": 6763,
      "ufact": 6764,
      "Ġinvalid": 6765,
      "You": 6766,
      "Ġste": 6767,
      "Ġstorage": 6768,
      "atre": 6769,
      "trigger": 6770,
      "Ġpartial": 6771,
      "protobuf": 6772,
      "olec": 6773,
      "Protocol": 6774,
      "Adapt": 6775,
      "ĠMinister": 6776,
      "ells": 6777,
      "ĠCall": 6778,
      "Ġever": 6779,
      "hentication": 6780,
      "dependent": 6781,
      "move": 6782,
      "car": 6783,
      "expr": 6784,
      "Ġkilled": 6785,
      "Ġoriginally": 6786,
      ")).": 6787,
      "impl": 6788,
      "boost": 6789,
      "Ñĥ": 6790,
      "Ã¨": 6791,
      "properties": 6792,
      "Ġquick": 6793,
      "Ġclean": 6794,
      "Proxy": 6795,
      "Account": 6796,
      "Scroll": 6797,
      "Ġcompare": 6798,
      "Ġapproximately": 6799,
      "alloc": 6800,
      "(@": 6801,
      "ĠFrancis": 6802,
      "perp": 6803,
      "product": 6804,
      "Ġcalls": 6805,
      "dy": 6806,
      "Ġapproximation": 6807,
      "master": 6808,
      "iling": 6809,
      "ITE": 6810,
      "Ġoccup": 6811,
      "EXT": 6812,
      "ĠText": 6813,
      "virtual": 6814,
      "ĠTechn": 6815,
      "ĠKe": 6816,
      "ĠSur": 6817,
      "Auto": 6818,
      "Ġball": 6819,
      "She": 6820,
      "Ġshared": 6821,
      "Ġpod": 6822,
      ")\"": 6823,
      "Ġseven": 6824,
      "Ġboard": 6825,
      "Ġvertices": 6826,
      "()));": 6827,
      "Ġtour": 6828,
      "Ġbuilder": 6829,
      "CHECK": 6830,
      "ydro": 6831,
      "password": 6832,
      "DA": 6833,
      "1982": 6834,
      "LINE": 6835,
      "Nodes": 6836,
      "ils": 6837,
      "hom": 6838,
      "Ġfast": 6839,
      "zone": 6840,
      "Ġbuildings": 6841,
      "Del": 6842,
      "Other": 6843,
      "Ġformation": 6844,
      "Ġidea": 6845,
      "Ġ}\\": 6846,
      "ĠUs": 6847,
      "reme": 6848,
      "ĠNow": 6849,
      "ĠPri": 6850,
      "edit": 6851,
      "Ġdecision": 6852,
      "yg": 6853,
      "ifications": 6854,
      "Ġtransaction": 6855,
      "Ġappropri": 6856,
      "Ġtherm": 6857,
      "ror": 6858,
      "ĠUser": 6859,
      "ĠjQuery": 6860,
      "icients": 6861,
      "undefined": 6862,
      "My": 6863,
      "/>": 6864,
      "Memory": 6865,
      "Ġ$[": 6866,
      "ĠTask": 6867,
      "Bit": 6868,
      "Ġtax": 6869,
      "Ġchoose": 6870,
      "Ġshift": 6871,
      "network": 6872,
      "Eq": 6873,
      "ĠHistory": 6874,
      "iece": 6875,
      "ects": 6876,
      "()).": 6877,
      "ĠFoundation": 6878,
      "Ġleads": 6879,
      "elves": 6880,
      "ĠMus": 6881,
      "GS": 6882,
      "Ġtit": 6883,
      "bigg": 6884,
      "ami": 6885,
      "Ġunknown": 6886,
      "ĠVersion": 6887,
      "Ġprevent": 6888,
      "STAT": 6889,
      "throws": 6890,
      "Ġtravel": 6891,
      "rad": 6892,
      "DL": 6893,
      "Ġmeasured": 6894,
      "istan": 6895,
      "alo": 6896,
      "ishes": 6897,
      ")\\,": 6898,
      "cb": 6899,
      "ĠFrank": 6900,
      "ĠTODO": 6901,
      "Ġneighbor": 6902,
      "Ġpointer": 6903,
      "Ġstra": 6904,
      "Ġconstraints": 6905,
      "ĠJose": 6906,
      "Ġfn": 6907,
      "domain": 6908,
      "Rest": 6909,
      "ĠProject": 6910,
      "Feature": 6911,
      "Cor": 6912,
      "ĠHow": 6913,
      "nections": 6914,
      "Perm": 6915,
      "children": 6916,
      "Ġwide": 6917,
      "email": 6918,
      "-->": 6919,
      "linewidth": 6920,
      "Sche": 6921,
      "Ġproduce": 6922,
      "Ġoccur": 6923,
      "Ġtrigger": 6924,
      "iller": 6925,
      "PAR": 6926,
      "ixture": 6927,
      "Ġmut": 6928,
      "Av": 6929,
      "tmp": 6930,
      "ĠCommand": 6931,
      "ployment": 6932,
      "Ġrecon": 6933,
      "Ġrelig": 6934,
      "Ġbad": 6935,
      "uan": 6936,
      "ĠSmith": 6937,
      "depth": 6938,
      "Loader": 6939,
      "Ġhot": 6940,
      "Ġevidence": 6941,
      "Ġpractice": 6942,
      "uting": 6943,
      "Ġgrid": 6944,
      "ĠâĢĺ": 6945,
      "ĠTwo": 6946,
      "aration": 6947,
      "iring": 6948,
      "Ġreq": 6949,
      "ĠAlso": 6950,
      "lev": 6951,
      "Ġ|\\": 6952,
      "Ġedges": 6953,
      "Ġlattice": 6954,
      "Ġdecom": 6955,
      "Ġgreater": 6956,
      "Sequ": 6957,
      "Ġtransl": 6958,
      "Ġestimated": 6959,
      "ToString": 6960,
      "inem": 6961,
      "Ġcountries": 6962,
      "cape": 6963,
      "kl": 6964,
      "1950": 6965,
      "entity": 6966,
      "ountain": 6967,
      "Ġfemale": 6968,
      "idae": 6969,
      "ĠOur": 6970,
      "acc": 6971,
      "Ġresolution": 6972,
      "ĠAN": 6973,
      "iverse": 6974,
      "Members": 6975,
      "ĠMel": 6976,
      "iffer": 6977,
      "Ġren": 6978,
      "_{-": 6979,
      "ĠLine": 6980,
      "ĠParis": 6981,
      "desc": 6982,
      "Person": 6983,
      "ollary": 6984,
      "Ġeasily": 6985,
      "Ġinj": 6986,
      "Ġmeaning": 6987,
      "ĠVol": 6988,
      "RAN": 6989,
      "Ġonline": 6990,
      "unct": 6991,
      "Ġfourth": 6992,
      "SY": 6993,
      "Ġship": 6994,
      "triev": 6995,
      "Microsoft": 6996,
      "ato": 6997,
      "none": 6998,
      "Headers": 6999,
      "orter": 7000,
      "metadata": 7001,
      "icens": 7002,
      "acro": 7003,
      "Ġstri": 7004,
      "'_": 7005,
      "Ġdir": 7006,
      "ima": 7007,
      "ĠPre": 7008,
      ";<": 7009,
      "ĠMass": 7010,
      "utch": 7011,
      "Ġprocesses": 7012,
      "axis": 7013,
      "total": 7014,
      "Ġcorresponds": 7015,
      "Ġshall": 7016,
      "(){": 7017,
      "Ġorbit": 7018,
      "icated": 7019,
      "Ġartists": 7020,
      "lyph": 7021,
      "Ġdynamics": 7022,
      "ĠCatholic": 7023,
      "'}": 7024,
      "primary": 7025,
      ">::": 7026,
      "1979": 7027,
      "colon": 7028,
      "Ġexperimental": 7029,
      "Ġreally": 7030,
      "ĠProposition": 7031,
      "svg": 7032,
      "Ġmedal": 7033,
      "blue": 7034,
      "Ġmunic": 7035,
      "arts": 7036,
      "Ġunion": 7037,
      "iro": 7038,
      "Ġconsistent": 7039,
      "nel": 7040,
      "utf": 7041,
      "ĠTHE": 7042,
      "Scale": 7043,
      "Logger": 7044,
      "called": 7045,
      "ĠSpanish": 7046,
      "ockey": 7047,
      "Ġknowledge": 7048,
      "ĠGod": 7049,
      "amel": 7050,
      "Ġconsole": 7051,
      "Matrix": 7052,
      "Ġcalculated": 7053,
      "tely": 7054,
      "Ġdu": 7055,
      "uby": 7056,
      ".*": 7057,
      "loop": 7058,
      ":#": 7059,
      "area": 7060,
      "Ġinstit": 7061,
      "Ġbul": 7062,
      "Package": 7063,
      "Ġsquare": 7064,
      "IV": 7065,
      "Ġspaces": 7066,
      "ĠNO": 7067,
      "ancial": 7068,
      "typedef": 7069,
      "aligned": 7070,
      "ĠPeter": 7071,
      "Ġhel": 7072,
      ")_": 7073,
      "safe": 7074,
      "Ġamplit": 7075,
      "urtherm": 7076,
      "Ġcourt": 7077,
      "Ġimmediately": 7078,
      "urthermore": 7079,
      "Ġpairs": 7080,
      "shal": 7081,
      "ĠIreland": 7082,
      "iques": 7083,
      "Ġmanagement": 7084,
      "Ġapplications": 7085,
      "uations": 7086,
      "Here": 7087,
      "bootstrap": 7088,
      "Ġones": 7089,
      "icago": 7090,
      "Ġfailure": 7091,
      "Ġnumerical": 7092,
      "Ġdecay": 7093,
      "1981": 7094,
      "Ġconstructed": 7095,
      "save": 7096,
      "Ġnature": 7097,
      "allery": 7098,
      "Ġinvariant": 7099,
      "Conf": 7100,
      "Ġcomes": 7101,
      "Ġpropag": 7102,
      "Global": 7103,
      "ĠInc": 7104,
      "Generic": 7105,
      "ĠInitial": 7106,
      "Ġquality": 7107,
      "Ġcomputed": 7108,
      "exists": 7109,
      "ĠAust": 7110,
      "(__": 7111,
      "Ġactions": 7112,
      "irl": 7113,
      "Ġpers": 7114,
      "LOG": 7115,
      "Ġenabled": 7116,
      "ĠLos": 7117,
      "Ġidx": 7118,
      "Ġsaw": 7119,
      "Ġ&=&": 7120,
      "mask": 7121,
      "Ġslight": 7122,
      "TV": 7123,
      "Ġseparate": 7124,
      "Ġspectral": 7125,
      "since": 7126,
      "Ġencoding": 7127,
      "CI": 7128,
      "Ġpolice": 7129,
      "ĠIOException": 7130,
      "Constraint": 7131,
      "modules": 7132,
      "Ġmixed": 7133,
      ")}(": 7134,
      "Ġrequests": 7135,
      "Ġmaster": 7136,
      "ipe": 7137,
      "ĠPost": 7138,
      "Ġcivil": 7139,
      "Main": 7140,
      "leep": 7141,
      "Found": 7142,
      "XML": 7143,
      "ĠCast": 7144,
      "Ġdesc": 7145,
      "dependency": 7146,
      "arian": 7147,
      "\")]": 7148,
      "Show": 7149,
      "Ġstrings": 7150,
      "ski": 7151,
      "Ġcalc": 7152,
      "Ġeq": 7153,
      "Ġlack": 7154,
      "Ġqueue": 7155,
      "JE": 7156,
      "plugins": 7157,
      ",\\,": 7158,
      "Ġexperiments": 7159,
      "Ø§": 7160,
      "Ġfamilies": 7161,
      "Ġarticle": 7162,
      "ĠBill": 7163,
      "Ġperturb": 7164,
      "forms": 7165,
      "Expect": 7166,
      "ali": 7167,
      "Ġbur": 7168,
      "Inv": 7169,
      "Ġsen": 7170,
      "ĠCommit": 7171,
      "ylv": 7172,
      "DR": 7173,
      "Single": 7174,
      "txt": 7175,
      "dates": 7176,
      "manager": 7177,
      "eve": 7178,
      "Cluster": 7179,
      "ĠDet": 7180,
      "prob": 7181,
      "ĠRichard": 7182,
      "Ġbrother": 7183,
      "aver": 7184,
      "Ġvalign": 7185,
      "Ġdepth": 7186,
      "ĠRel": 7187,
      "Condition": 7188,
      "Ġintegral": 7189,
      "ĠFilm": 7190,
      "razil": 7191,
      "NULL": 7192,
      "Ġbig": 7193,
      "lan": 7194,
      "Ġtransparent": 7195,
      "apped": 7196,
      "Ġprotocol": 7197,
      "illis": 7198,
      "ROM": 7199,
      "mann": 7200,
      "ĠVictor": 7201,
      "Ġconserv": 7202,
      "Ġproducts": 7203,
      "olf": 7204,
      "ango": 7205,
      "ĠGeorg": 7206,
      "Ġgold": 7207,
      "ih": 7208,
      "Print": 7209,
      "ĠIts": 7210,
      "ishop": 7211,
      "ertificate": 7212,
      "ĠIP": 7213,
      "inant": 7214,
      "Ġplant": 7215,
      "ees": 7216,
      "kens": 7217,
      "WA": 7218,
      "Ġsatisfies": 7219,
      "contains": 7220,
      "strument": 7221,
      "bullet": 7222,
      "Ġsetup": 7223,
      "Äģ": 7224,
      "ategories": 7225,
      "ĠHence": 7226,
      "organ": 7227,
      "Ġmodified": 7228,
      "Ġveh": 7229,
      "urrency": 7230,
      "mercial": 7231,
      "Ġtab": 7232,
      "Layer": 7233,
      "urt": 7234,
      "),\\": 7235,
      "Full": 7236,
      "oviet": 7237,
      "Rece": 7238,
      "Ġthings": 7239,
      "Ġupdated": 7240,
      "ĠDen": 7241,
      "Ġpartition": 7242,
      "keyword": 7243,
      "ĠId": 7244,
      "onym": 7245,
      "footer": 7246,
      "equality": 7247,
      "eners": 7248,
      "ĠGoogle": 7249,
      "Ġjoin": 7250,
      "Edit": 7251,
      "Ġfraction": 7252,
      "ribution": 7253,
      "Ġpressure": 7254,
      "Ġrect": 7255,
      "Ġuncertaint": 7256,
      "tools": 7257,
      "ĠOption": 7258,
      "Ġincreased": 7259,
      "kin": 7260,
      "Ġimplements": 7261,
      "roke": 7262,
      "Collections": 7263,
      "1976": 7264,
      "onical": 7265,
      "ARY": 7266,
      "Ġsteps": 7267,
      "ĠAlthough": 7268,
      "elt": 7269,
      "Ġcaused": 7270,
      "usters": 7271,
      "decl": 7272,
      "128": 7273,
      "EO": 7274,
      "Ġprefix": 7275,
      "etailed": 7276,
      "Ġconstructor": 7277,
      "1978": 7278,
      "Ġjavax": 7279,
      "va": 7280,
      "Ġcapital": 7281,
      "vey": 7282,
      "Ġpersonal": 7283,
      "{$\\": 7284,
      "spe": 7285,
      "Any": 7286,
      "roduction": 7287,
      "Ġnetworks": 7288,
      "ĠDu": 7289,
      "ĠFin": 7290,
      "Profile": 7291,
      "Ġminor": 7292,
      "1972": 7293,
      "Ġrecords": 7294,
      "Ġnoted": 7295,
      "Ġvan": 7296,
      "Ġprocedure": 7297,
      "Prefix": 7298,
      "Ð°Ð": 7299,
      "ĠRock": 7300,
      "ĠFour": 7301,
      "ĠLake": 7302,
      "ĠPan": 7303,
      "Ġexactly": 7304,
      "Ġhidden": 7305,
      "Ġcoordinates": 7306,
      "Ġagreement": 7307,
      "=\"../../../": 7308,
      "Ġagent": 7309,
      "Ġremained": 7310,
      "Ġactivity": 7311,
      "theme": 7312,
      "Orig": 7313,
      "Transaction": 7314,
      "Ġgrowth": 7315,
      "IB": 7316,
      "igan": 7317,
      "hol": 7318,
      "gorithms": 7319,
      "ndef": 7320,
      "ĠInteger": 7321,
      "Ġ[],": 7322,
      "Ġanti": 7323,
      "Ġmicro": 7324,
      "Ġtim": 7325,
      "ĠBig": 7326,
      "rf": 7327,
      "Cast": 7328,
      "ĠFlor": 7329,
      "Identifier": 7330,
      "imeq": 7331,
      "Ġchem": 7332,
      "ibly": 7333,
      "TRUE": 7334,
      "Ġstaff": 7335,
      "Ġreceive": 7336,
      "Ġsave": 7337,
      ".'": 7338,
      "ĠCollection": 7339,
      "Statement": 7340,
      "annotation": 7341,
      "Notes": 7342,
      "vc": 7343,
      "evelopment": 7344,
      "Ġsex": 7345,
      "controller": 7346,
      "simeq": 7347,
      "arant": 7348,
      "identifier": 7349,
      "pa": 7350,
      "ĠKn": 7351,
      "Ġvariety": 7352,
      "Ġsays": 7353,
      "Ġsoon": 7354,
      "Ġstrategy": 7355,
      "rong": 7356,
      "osing": 7357,
      "Desc": 7358,
      "Ġflat": 7359,
      "editor": 7360,
      "orner": 7361,
      "Ġeasy": 7362,
      "Ġentity": 7363,
      "Ġaim": 7364,
      "ĠCamp": 7365,
      "Ġsecret": 7366,
      "isters": 7367,
      "riends": 7368,
      "Ġheavy": 7369,
      "Ġshare": 7370,
      "Ġoptional": 7371,
      "}}(\\": 7372,
      "Mat": 7373,
      "limit": 7374,
      "ĠPenn": 7375,
      "aud": 7376,
      "Ġcho": 7377,
      "entials": 7378,
      "ONE": 7379,
      "ny": 7380,
      "etween": 7381,
      "Ġexistence": 7382,
      "Early": 7383,
      "CF": 7384,
      "iversal": 7385,
      "Remove": 7386,
      "ouch": 7387,
      "_*": 7388,
      "','": 7389,
      "ĠUnder": 7390,
      "ĠHead": 7391,
      "Ġlove": 7392,
      "Ġblocks": 7393,
      "Ġroom": 7394,
      "hesis": 7395,
      "osh": 7396,
      "spring": 7397,
      "Ġmodes": 7398,
      "tri": 7399,
      "Background": 7400,
      "Panel": 7401,
      "Ġtheore": 7402,
      "arsed": 7403,
      "Ġmask": 7404,
      "indexOf": 7405,
      "Graph": 7406,
      "Ġcompetition": 7407,
      "1977": 7408,
      "symbol": 7409,
      "Ġexponent": 7410,
      "Dest": 7411,
      "Ġansw": 7412,
      "ifdef": 7413,
      "Ġscient": 7414,
      "ĠIll": 7415,
      "arc": 7416,
      "Play": 7417,
      "Ġrelevant": 7418,
      "1974": 7419,
      "Care": 7420,
      "Failed": 7421,
      "Ġsimulations": 7422,
      "Ġasync": 7423,
      "ĠEach": 7424,
      "ĠIsra": 7425,
      "getName": 7426,
      "Ġdual": 7427,
      "Files": 7428,
      "Ġtesting": 7429,
      "Ġcoefficients": 7430,
      "Ġfeatured": 7431,
      "wa": 7432,
      "ĠĠĠĠĠĠĠĠĠĠĠĠĠĠĠĠĠĠĠĠĠĠĠĠĠĠĠĠĠ": 7433,
      "ĠĠĠĠĠĠĠĠĠĠĠĠĠĠĠĠĠĠĠĠĠĠĠĠĠĠĠĠĠĠĠĠĠĠĠĠĠĠĠĠĠĠĠ": 7434,
      "Ġawarded": 7435,
      "prefix": 7436,
      "Ġlo": 7437,
      "Ġ\\(": 7438,
      "ĠMil": 7439,
      "bal": 7440,
      "Ġfood": 7441,
      "Ġpolitician": 7442,
      "Ġbenef": 7443,
      "Ġcontrast": 7444,
      "ĠHill": 7445,
      "NA": 7446,
      "Ġsizeof": 7447,
      "Ġvisible": 7448,
      "ĠRout": 7449,
      "Ġliterature": 7450,
      "Ġnews": 7451,
      "Ġbal": 7452,
      "Ġleader": 7453,
      "Ġartist": 7454,
      ".~(\\": 7455,
      "Compar": 7456,
      "Ġreject": 7457,
      "Ġdetail": 7458,
      "Ġpen": 7459,
      "mediate": 7460,
      "Ġoptimal": 7461,
      "ĉĠĠĠĠ": 7462,
      "ady": 7463,
      "Ġcandidate": 7464,
      "icks": 7465,
      "Ġdistinct": 7466,
      ")_{": 7467,
      "prove": 7468,
      "Ġattention": 7469,
      "1975": 7470,
      "hing": 7471,
      "Ġreplace": 7472,
      "MENT": 7473,
      "rices": 7474,
      "UTF": 7475,
      "nil": 7476,
      "record": 7477,
      "PORT": 7478,
      "Cap": 7479,
      "ĠSeries": 7480,
      "subs": 7481,
      "Ġreduce": 7482,
      "ĠFre": 7483,
      "La": 7484,
      "Ġmessages": 7485,
      "Ġaircraft": 7486,
      "agraph": 7487,
      "Ġ+\\": 7488,
      "Socket": 7489,
      "ĠVirginia": 7490,
      "Ġplays": 7491,
      "Ġpri": 7492,
      "Ġflags": 7493,
      "kes": 7494,
      "TABLE": 7495,
      "Ġarbitrary": 7496,
      "Ġowner": 7497,
      "libr": 7498,
      "Lin": 7499,
      "Ġreli": 7500,
      "Ġhours": 7501,
      "testing": 7502,
      "enge": 7503,
      "VERSION": 7504,
      "Ġteach": 7505,
      "ycl": 7506,
      "ĠSwed": 7507,
      "switch": 7508,
      "Opt": 7509,
      "ĠĠĠĠĠĠĠĠĠĠĠĠĠĠĠĠĠĠĠĠĠĠĠĠĠĠ": 7510,
      "Trace": 7511,
      "\\!\\!": 7512,
      "urred": 7513,
      "Ġcorrelation": 7514,
      "family": 7515,
      "profile": 7516,
      "}$-": 7517,
      "ĠHenry": 7518,
      "ĠCommission": 7519,
      "gradient": 7520,
      "Ġmachine": 7521,
      "ĠReact": 7522,
      "iger": 7523,
      "Ġidentified": 7524,
      "fx": 7525,
      "ĠAv": 7526,
      "Route": 7527,
      "Common": 7528,
      "ean": 7529,
      "cases": 7530,
      "Constants": 7531,
      "Ġassumed": 7532,
      "ĠConfig": 7533,
      "Ġexperience": 7534,
      "MI": 7535,
      "Selected": 7536,
      "Ġmeasurements": 7537,
      "Ġdebug": 7538,
      "However": 7539,
      "160": 7540,
      "Len": 7541,
      "subfigure": 7542,
      "Attr": 7543,
      "Ġestablishments": 7544,
      "Ġdrop": 7545,
      "Ġaud": 7546,
      "=\"/": 7547,
      "Ġindustry": 7548,
      "Step": 7549,
      "numer": 7550,
      "Ġcard": 7551,
      "isher": 7552,
      "1968": 7553,
      "uages": 7554,
      "progress": 7555,
      "Ġfactory": 7556,
      "FS": 7557,
      "Ġreach": 7558,
      "erial": 7559,
      "ĠWomen": 7560,
      "Ġring": 7561,
      "Enum": 7562,
      "Gu": 7563,
      "uty": 7564,
      "Ġtraditional": 7565,
      "ito": 7566,
      "Ġrecently": 7567,
      "fect": 7568,
      "atible": 7569,
      "ALSE": 7570,
      "two": 7571,
      "izable": 7572,
      "Ġmovement": 7573,
      "Ġ[[": 7574,
      "Grid": 7575,
      "Ġoccurs": 7576,
      "Term": 7577,
      "Ġtasks": 7578,
      "istration": 7579,
      "diff": 7580,
      "ĠSO": 7581,
      "Ġretriev": 7582,
      "geles": 7583,
      "Ġlistener": 7584,
      "Sync": 7585,
      "fony": 7586,
      "job": 7587,
      "riteria": 7588,
      "ĠWindow": 7589,
      "IE": 7590,
      "1973": 7591,
      "vs": 7592,
      "Ġcritic": 7593,
      "Ġvs": 7594,
      "Ġorient": 7595,
      "eval": 7596,
      "ĠNumber": 7597,
      "ĠAL": 7598,
      "ymfony": 7599,
      "ĠTop": 7600,
      "Ġ$$": 7601,
      "Det": 7602,
      "attributes": 7603,
      "Ġdecided": 7604,
      "Ġexport": 7605,
      "Ġdelay": 7606,
      "Ġjoint": 7607,
      "GR": 7608,
      "fd": 7609,
      "emon": 7610,
      "Ġmatching": 7611,
      "Ġvertical": 7612,
      "oting": 7613,
      "____": 7614,
      "150": 7615,
      "ĠNews": 7616,
      "BP": 7617,
      "hav": 7618,
      "IMP": 7619,
      "ĠUpdate": 7620,
      "Ġcompletely": 7621,
      "writer": 7622,
      "Ġrg": 7623,
      "components": 7624,
      "abit": 7625,
      "Public": 7626,
      "Äĩ": 7627,
      "ned": 7628,
      "ĠArts": 7629,
      "pressed": 7630,
      "Ġassumption": 7631,
      "Ġbounds": 7632,
      "Ġindicates": 7633,
      "Ġmentioned": 7634,
      "Ġinteresting": 7635,
      "Ġtoday": 7636,
      "OUT": 7637,
      "look": 7638,
      "Ġtor": 7639,
      "Ġmoney": 7640,
      "ĠSy": 7641,
      "Ġadj": 7642,
      "rich": 7643,
      "ĠEqu": 7644,
      "Ġsch": 7645,
      "Double": 7646,
      "'])": 7647,
      "Ġterr": 7648,
      "ugby": 7649,
      "Ġangular": 7650,
      "irmed": 7651,
      "rate": 7652,
      "Expr": 7653,
      "ifiers": 7654,
      "Progress": 7655,
      "INS": 7656,
      "Ġparticularly": 7657,
      "screen": 7658,
      "cpp": 7659,
      "asi": 7660,
      "lia": 7661,
      "Ġpositions": 7662,
      "Java": 7663,
      "kw": 7664,
      "inate": 7665,
      "pton": 7666,
      "stra": 7667,
      "ĠLand": 7668,
      "High": 7669,
      "Ġfactors": 7670,
      "Ġsometimes": 7671,
      "ola": 7672,
      "ĠMicrosoft": 7673,
      "Ġdetection": 7674,
      "Ġexports": 7675,
      "Ġaccuracy": 7676,
      "Ġrap": 7677,
      "ĠNetwork": 7678,
      "ĠSun": 7679,
      "ĠInst": 7680,
      "extend": 7681,
      "reedom": 7682,
      "ĠAngeles": 7683,
      "Ġmapping": 7684,
      "Ġabstract": 7685,
      "âĢ¦": 7686,
      "ĠShow": 7687,
      "LOCK": 7688,
      "120": 7689,
      "]:": 7690,
      "ĠProf": 7691,
      "when": 7692,
      "Ġtouch": 7693,
      "HTTP": 7694,
      "ĠItaly": 7695,
      "uter": 7696,
      "ĠPlay": 7697,
      "Ġdivision": 7698,
      "ĠDom": 7699,
      "ĠStar": 7700,
      "ĠExec": 7701,
      "ĠCode": 7702,
      "ĠChicago": 7703,
      "bour": 7704,
      "Ġbrowser": 7705,
      "ĠCD": 7706,
      "Ġculture": 7707,
      "Ġorganization": 7708,
      "ACT": 7709,
      "inger": 7710,
      "Sw": 7711,
      "Ġcollege": 7712,
      "English": 7713,
      "$).": 7714,
      "Ġmetadata": 7715,
      "ĠMexico": 7716,
      "sheet": 7717,
      "Ġ=\\": 7718,
      "READ": 7719,
      "Ġscored": 7720,
      "Ġexchange": 7721,
      "Ġminutes": 7722,
      "cheduler": 7723,
      "PER": 7724,
      "Ġ%}": 7725,
      "TEXT": 7726,
      "iana": 7727,
      "Simple": 7728,
      "ogene": 7729,
      "alg": 7730,
      "found": 7731,
      "Ġâ": 7732,
      "mut": 7733,
      "Ġappropriate": 7734,
      "andra": 7735,
      "ters": 7736,
      "Ġsimulation": 7737,
      "protocol": 7738,
      "ierarch": 7739,
      "unched": 7740,
      "hemat": 7741,
      "JECT": 7742,
      "ĠChampionships": 7743,
      "Ġwhy": 7744,
      "Ġcombined": 7745,
      "Ġminim": 7746,
      "Ġtournament": 7747,
      "Sequence": 7748,
      "=\"\"": 7749,
      "men": 7750,
      "Ġcolumns": 7751,
      ")^{\\": 7752,
      "Adapter": 7753,
      "Ġfif": 7754,
      "Ġelectric": 7755,
      "Ġcurves": 7756,
      "Ġwalk": 7757,
      "ffic": 7758,
      "install": 7759,
      "iano": 7760,
      "Ġessential": 7761,
      "random": 7762,
      "prev": 7763,
      "ĠMad": 7764,
      "Ġtrade": 7765,
      "EventListener": 7766,
      "ien": 7767,
      "Ġstraight": 7768,
      "Ġscience": 7769,
      "FLA": 7770,
      "Ġconvert": 7771,
      "Ġsurround": 7772,
      "idx": 7773,
      "ĠScot": 7774,
      "coming": 7775,
      "BOO": 7776,
      "ository": 7777,
      "Ġcompos": 7778,
      "oles": 7779,
      "Ġactor": 7780,
      "Ġwid": 7781,
      "house": 7782,
      "Ġsituation": 7783,
      "single": 7784,
      "ĠSQL": 7785,
      "elebr": 7786,
      "Ġrecomm": 7787,
      "Ġbrought": 7788,
      "textsc": 7789,
      "Ġ'<": 7790,
      "ĠProgram": 7791,
      "pay": 7792,
      "1971": 7793,
      "Ġcapacity": 7794,
      "Ġprim": 7795,
      "subsubsection": 7796,
      "ĠAR": 7797,
      "Ġgeneration": 7798,
      "ĠVis": 7799,
      "Ġbrief": 7800,
      "ech": 7801,
      "builder": 7802,
      "Loc": 7803,
      "Services": 7804,
      "Ġreader": 7805,
      "BE": 7806,
      "Ġcontributions": 7807,
      "ĠMost": 7808,
      "$^{-": 7809,
      "Ġ\",": 7810,
      "Ġinequality": 7811,
      ";/": 7812,
      "Ġprinciple": 7813,
      "mag": 7814,
      "Example": 7815,
      "ĠKar": 7816,
      "Ġ{'": 7817,
      "ĠMoreover": 7818,
      "elease": 7819,
      "rons": 7820,
      "ental": 7821,
      "Ġstable": 7822,
      "forall": 7823,
      "Ġhighly": 7824,
      "Ġgrand": 7825,
      "Ġsinger": 7826,
      "Space": 7827,
      "Ġparallel": 7828,
      "\">&": 7829,
      "1969": 7830,
      "Duration": 7831,
      "URI": 7832,
      "ĠFestival": 7833,
      "iteral": 7834,
      "Ġbank": 7835,
      "Ġng": 7836,
      "Ġleave": 7837,
      "AX": 7838,
      "ĠSil": 7839,
      "Ġdraft": 7840,
      "forward": 7841,
      "Ġreflect": 7842,
      "mc": 7843,
      "Selection": 7844,
      "Ġfun": 7845,
      "WR": 7846,
      "'));": 7847,
      "ĠCongress": 7848,
      "Ġinfluence": 7849,
      "omorphic": 7850,
      "Ġdependence": 7851,
      "Ġentries": 7852,
      "Ġtypically": 7853,
      "Ġfmt": 7854,
      "Ġok": 7855,
      "Product": 7856,
      "Ġpool": 7857,
      "Ġquite": 7858,
      "filename": 7859,
      "Ġicon": 7860,
      "SER": 7861,
      "Ġversions": 7862,
      "argument": 7863,
      "bel": 7864,
      "account": 7865,
      ")^{-": 7866,
      "aria": 7867,
      "ira": 7868,
      "Delegate": 7869,
      "Ġbasketball": 7870,
      "Enumer": 7871,
      "IST": 7872,
      "tests": 7873,
      "fore": 7874,
      "stats": 7875,
      "Ġconcent": 7876,
      "yan": 7877,
      "Success": 7878,
      "Ġopening": 7879,
      "erved": 7880,
      "FIG": 7881,
      "Car": 7882,
      "Ġspent": 7883,
      "ĠTH": 7884,
      "Ġpurpose": 7885,
      "Ġassigned": 7886,
      "ĠLu": 7887,
      "Ġwriters": 7888,
      "ĠFlorida": 7889,
      "Ġdriver": 7890,
      "green": 7891,
      "igration": 7892,
      "Ġcells": 7893,
      "ĠLie": 7894,
      "Ġcontroller": 7895,
      "ĠJava": 7896,
      "mselves": 7897,
      "Med": 7898,
      "security": 7899,
      "Ġsemi": 7900,
      "Domain": 7901,
      "ĠCommittee": 7902,
      "Ġformal": 7903,
      "à¸": 7904,
      "hidden": 7905,
      "invalid": 7906,
      "cknow": 7907,
      "Mapping": 7908,
      "Ġpurch": 7909,
      "Ġcontained": 7910,
      "bad": 7911,
      "ĠLocal": 7912,
      "Ġvisual": 7913,
      "Ġsingular": 7914,
      "ifically": 7915,
      "Uri": 7916,
      "}}^": 7917,
      "bot": 7918,
      "Ġamb": 7919,
      "resp": 7920,
      "NOT": 7921,
      "Ġcreating": 7922,
      "Engine": 7923,
      "ountry": 7924,
      "done": 7925,
      "}^*": 7926,
      "Ġdenotes": 7927,
      "ilib": 7928,
      "poses": 7929,
      "ĠBur": 7930,
      ")[": 7931,
      "inations": 7932,
      "ĠLi": 7933,
      "Ġproducer": 7934,
      "Ġcompl": 7935,
      "Ġsn": 7936,
      "ĠNavy": 7937,
      "Ġcombination": 7938,
      "FE": 7939,
      "ĠEmp": 7940,
      "ads": 7941,
      "NT": 7942,
      "agon": 7943,
      "ĠIl": 7944,
      "Ġparam": 7945,
      "oral": 7946,
      "Ġgreen": 7947,
      "Ġenable": 7948,
      "ĠGovernment": 7949,
      "Using": 7950,
      "picture": 7951,
      "STATE": 7952,
      "Shape": 7953,
      "During": 7954,
      "hide": 7955,
      "ĠIII": 7956,
      "John": 7957,
      "Ġsimpl": 7958,
      "Ġunless": 7959,
      "Ġinitially": 7960,
      "Gen": 7961,
      "ĠAnn": 7962,
      "USE": 7963,
      "uer": 7964,
      "ById": 7965,
      "Ġcm": 7966,
      "![": 7967,
      "pattern": 7968,
      "Ġpy": 7969,
      "errors": 7970,
      "amm": 7971,
      "Ġprobably": 7972,
      "olk": 7973,
      "Region": 7974,
      "uous": 7975,
      "------------": 7976,
      "ĠEngine": 7977,
      "ĠCopyright": 7978,
      "ĠOld": 7979,
      "typename": 7980,
      "Ġlabels": 7981,
      "('.": 7982,
      "^{+": 7983,
      "idential": 7984,
      "fix": 7985,
      "Ġbits": 7986,
      "Ġnothing": 7987,
      "ĠBrown": 7988,
      ")->": 7989,
      "ĠBook": 7990,
      "Ġkernel": 7991,
      "Ġthemselves": 7992,
      "enabled": 7993,
      "Ġverify": 7994,
      "amental": 7995,
      "################": 7996,
      "Ġexam": 7997,
      "anes": 7998,
      "Figure": 7999,
      "stitution": 8000,
      "ipality": 8001,
      "pmatrix": 8002,
      "Ġsurvey": 8003,
      "Ġpark": 8004,
      "Ġche": 8005,
      "Generator": 8006,
      "pkg": 8007,
      "Art": 8008,
      "Ġmanufact": 8009,
      "Ġsignificantly": 8010,
      "ĠMur": 8011,
      ">:": 8012,
      "abbr": 8013,
      "shadow": 8014,
      "BUG": 8015,
      "Ġ_,": 8016,
      "1940": 8017,
      "Ġawait": 8018,
      "IND": 8019,
      "tor": 8020,
      "Ã£": 8021,
      "ifndef": 8022,
      "Ġincreases": 8023,
      "LECT": 8024,
      "Errorf": 8025,
      "je": 8026,
      "Variable": 8027,
      "othing": 8028,
      "slice": 8029,
      "Ġgets": 8030,
      "}</": 8031,
      ">\\": 8032,
      "ĠPoint": 8033,
      "adium": 8034,
      "Ġrates": 8035,
      "ĠProvince": 8036,
      "Ali": 8037,
      "git": 8038,
      "ĠCons": 8039,
      "HER": 8040,
      "NR": 8041,
      "Ġenum": 8042,
      "claim": 8043,
      "Ġmur": 8044,
      "Ġvac": 8045,
      "Åį": 8046,
      "Ġselector": 8047,
      "$$\\": 8048,
      "asy": 8049,
      "ĠHash": 8050,
      "ĠASSERT": 8051,
      "ĠDev": 8052,
      "ĠLin": 8053,
      "Browser": 8054,
      "ĠAwards": 8055,
      "iciency": 8056,
      "VALUE": 8057,
      "Ġdistributions": 8058,
      "1967": 8059,
      "Ġraw": 8060,
      "Ġprops": 8061,
      "ager": 8062,
      "Ġcloud": 8063,
      "Second": 8064,
      "edge": 8065,
      "Ġsubset": 8066,
      "eds": 8067,
      "ĠMount": 8068,
      "Ġappearance": 8069,
      "Ġui": 8070,
      "Character": 8071,
      "Ġmolec": 8072,
      "cluded": 8073,
      "iate": 8074,
      "VM": 8075,
      "Abstract": 8076,
      "Ġgun": 8077,
      "Ġtreatment": 8078,
      "mazon": 8079,
      "Our": 8080,
      "ceeded": 8081,
      "ĠCap": 8082,
      "oz": 8083,
      "Ġ\"<": 8084,
      "Ġfeel": 8085,
      "ĠExample": 8086,
      "Ġarchitecture": 8087,
      "Registry": 8088,
      "browser": 8089,
      "Ġ],": 8090,
      "chor": 8091,
      "TIME": 8092,
      "tim": 8093,
      "Transport": 8094,
      "ĠPath": 8095,
      "Ġspectra": 8096,
      "cluster": 8097,
      "Ġcarried": 8098,
      "riority": 8099,
      "bas": 8100,
      "ĠColor": 8101,
      "inds": 8102,
      "more": 8103,
      "rium": 8104,
      "ĠParliament": 8105,
      "SM": 8106,
      "mic": 8107,
      "ĠStep": 8108,
      "ĠPet": 8109,
      "Ġwinning": 8110,
      "Ġonto": 8111,
      "1945": 8112,
      "junit": 8113,
      "ĠSecret": 8114,
      "Ġtransformation": 8115,
      "ĠHealth": 8116,
      "Ġwoman": 8117,
      "ĠBlock": 8118,
      "ĠTok": 8119,
      "Ġsymmetric": 8120,
      "Ġpoet": 8121,
      "ĠView": 8122,
      "selector": 8123,
      "storage": 8124,
      "Ġanalog": 8125,
      "ĠMain": 8126,
      "coin": 8127,
      "ĠBOOST": 8128,
      "These": 8129,
      "Math": 8130,
      "EV": 8131,
      "apers": 8132,
      "temp": 8133,
      "ibli": 8134,
      "Ġshot": 8135,
      "witter": 8136,
      "conn": 8137,
      "Ġmoving": 8138,
      "volume": 8139,
      "Ġextend": 8140,
      "uda": 8141,
      "ĠUN": 8142,
      "PATH": 8143,
      "themes": 8144,
      "Ġtmp": 8145,
      ")}{\\": 8146,
      "Ġcreation": 8147,
      "elem": 8148,
      "Activity": 8149,
      "Ñı": 8150,
      "ĠAtt": 8151,
      "Thus": 8152,
      "Ġprefer": 8153,
      "ĠCarolina": 8154,
      "dem": 8155,
      "1964": 8156,
      "lig": 8157,
      "grade": 8158,
      "TT": 8159,
      "wan": 8160,
      "ĠRussia": 8161,
      "Ġrepresenting": 8162,
      "Capt": 8163,
      "Ġ_.": 8164,
      "ENSE": 8165,
      "extension": 8166,
      "[(": 8167,
      "1930": 8168,
      "ĉĉĉĊ": 8169,
      "ĠKh": 8170,
      "Ġvocals": 8171,
      "picker": 8172,
      "Ġ>>>": 8173,
      "Ġmajority": 8174,
      "BB": 8175,
      "PU": 8176,
      "Help": 8177,
      "logger": 8178,
      "echo": 8179,
      "Ġpaths": 8180,
      "Ġdele": 8181,
      "Ġintroduce": 8182,
      "Ġdynamic": 8183,
      "ĠOh": 8184,
      "displaystyle": 8185,
      "aming": 8186,
      ")$-": 8187,
      "imitive": 8188,
      "ĠHTTP": 8189,
      "atriate": 8190,
      "Ġprograms": 8191,
      "Ġactress": 8192,
      "})$.": 8193,
      "Ġclassification": 8194,
      "RR": 8195,
      "Ġrelatively": 8196,
      "Children": 8197,
      "Ġstudent": 8198,
      "Ġtechnology": 8199,
      "ĠHistoric": 8200,
      "Ġcomputer": 8201,
      "ĠValid": 8202,
      "ellij": 8203,
      "awa": 8204,
      "VG": 8205,
      "Ġcit": 8206,
      "Ġcentre": 8207,
      "she": 8208,
      "Ġscene": 8209,
      "Ġcomposition": 8210,
      "Ġsaf": 8211,
      "Ġfill": 8212,
      "Framework": 8213,
      "Ġdimensions": 8214,
      "Ġbring": 8215,
      "enable": 8216,
      "isc": 8217,
      "Ġstand": 8218,
      "amaz": 8219,
      "Ġindicate": 8220,
      "pu": 8221,
      "Ġprocessing": 8222,
      "stone": 8223,
      "opes": 8224,
      ".\");": 8225,
      "jquery": 8226,
      "World": 8227,
      "_-": 8228,
      "Ġmostly": 8229,
      "Ġ).": 8230,
      "ĠGen": 8231,
      "Ġsections": 8232,
      "ĠWales": 8233,
      "present": 8234,
      "Ġlot": 8235,
      "ĠEr": 8236,
      "Ġbey": 8237,
      "stable": 8238,
      "Ġability": 8239,
      "mapsto": 8240,
      "intellij": 8241,
      "serial": 8242,
      "Scal": 8243,
      "Ġstatistics": 8244,
      "Ġwhom": 8245,
      "Ġauthors": 8246,
      "ĠLife": 8247,
      "Ġscroll": 8248,
      "Ġxmlns": 8249,
      "material": 8250,
      "ylvania": 8251,
      "Ġgeometry": 8252,
      "ĠBrazil": 8253,
      "ternet": 8254,
      "Ġtimeout": 8255,
      "udd": 8256,
      "ĠTimes": 8257,
      "details": 8258,
      "ĠGl": 8259,
      "Ġprev": 8260,
      "engine": 8261,
      "ĠNav": 8262,
      "Ġpure": 8263,
      "Proto": 8264,
      "ĠMartin": 8265,
      "Video": 8266,
      "Ġabsor": 8267,
      "tableblock": 8268,
      "pository": 8269,
      "exist": 8270,
      "ĠOnly": 8271,
      "remark": 8272,
      "ancell": 8273,
      "======": 8274,
      "ĠOf": 8275,
      "Ġlib": 8276,
      "Ġseconds": 8277,
      "scill": 8278,
      "parser": 8279,
      "Ġheaders": 8280,
      "Ġsql": 8281,
      "Ġtrace": 8282,
      "\"/></": 8283,
      "icity": 8284,
      "ĠTour": 8285,
      "Ġplugin": 8286,
      "ĠTeam": 8287,
      "CESS": 8288,
      "Native": 8289,
      "Ġended": 8290,
      "Ġslightly": 8291,
      "ona": 8292,
      "Ġcircle": 8293,
      "Role": 8294,
      "protected": 8295,
      "1965": 8296,
      "Ġwav": 8297,
      "sky": 8298,
      "tc": 8299,
      "Ġbeyond": 8300,
      "ĠGal": 8301,
      "Ġbattle": 8302,
      "Ġbuf": 8303,
      "ĠMessage": 8304,
      "Ġreferred": 8305,
      "wer": 8306,
      "Ljava": 8307,
      ",âĢĿ": 8308,
      "Ġinteractions": 8309,
      "Ġyields": 8310,
      "ĠHamiltonian": 8311,
      "Ġthreshold": 8312,
      "Ġmorph": 8313,
      "Ġlegal": 8314,
      "Career": 8315,
      "Ġordered": 8316,
      "erc": 8317,
      "%%%%": 8318,
      "Ġseasons": 8319,
      "Ġboost": 8320,
      "configuration": 8321,
      "ĠLibrary": 8322,
      "ĠGi": 8323,
      "Ġedition": 8324,
      "HR": 8325,
      "Ġseems": 8326,
      "ĠSoviet": 8327,
      "REG": 8328,
      "poss": 8329,
      "Ġfoot": 8330,
      "Ġstrength": 8331,
      "Ġcollabor": 8332,
      "Comple": 8333,
      "Ġopts": 8334,
      "Ġcontr": 8335,
      "Ġpassword": 8336,
      "uv": 8337,
      "ĠIndex": 8338,
      "Ġspatial": 8339,
      "Ġnearly": 8340,
      "Ġemerg": 8341,
      "ĠÎ": 8342,
      "Ġacadem": 8343,
      "Ġentered": 8344,
      "123": 8345,
      "Ġsuc": 8346,
      "DP": 8347,
      "Ġactivities": 8348,
      "ĠLiber": 8349,
      "chain": 8350,
      "Ġdead": 8351,
      "Ġinsp": 8352,
      ":=": 8353,
      "Conn": 8354,
      "OL": 8355,
      "Ġ..": 8356,
      "Ġforeach": 8357,
      "Diagnost": 8358,
      "complete": 8359,
      "ĠBi": 8360,
      "ĠRequest": 8361,
      "Ġmainly": 8362,
      "Ġmatrices": 8363,
      "mos": 8364,
      "MT": 8365,
      "1966": 8366,
      "~$\\": 8367,
      "WN": 8368,
      "hy": 8369,
      "Ġimprove": 8370,
      "mass": 8371,
      "ationToken": 8372,
      "Stats": 8373,
      "Hz": 8374,
      "moz": 8375,
      "Ġrows": 8376,
      "fi": 8377,
      "Endpoint": 8378,
      "Å¡": 8379,
      "enses": 8380,
      "Ġwatch": 8381,
      "Ġaspect": 8382,
      "Ġtechniques": 8383,
      "plot": 8384,
      "Ġreferences": 8385,
      "Ġproved": 8386,
      "ĠHon": 8387,
      "extern": 8388,
      "Ġ>>": 8389,
      "Ġspread": 8390,
      "platform": 8391,
      "ĠHaw": 8392,
      "Ġmeasurement": 8393,
      "dp": 8394,
      "WORD": 8395,
      "Div": 8396,
      "ĠBoard": 8397,
      "ĠHot": 8398,
      "verb": 8399,
      "ĠAli": 8400,
      "transition": 8401,
      "odot": 8402,
      "ĠLOG": 8403,
      "ĠĠĠĠĠĠĠĠĠĠĠĠĠĠĠĠĠĠĠĠĠĠĠĠĠĠĠĠ": 8404,
      "Ġdiscussion": 8405,
      "Ġcensus": 8406,
      "dialog": 8407,
      "amous": 8408,
      "Ġpush": 8409,
      "shall": 8410,
      "&=&": 8411,
      "anda": 8412,
      "jar": 8413,
      "ĠCross": 8414,
      "ĠCommon": 8415,
      "Ġlayout": 8416,
      "Ġexpressed": 8417,
      "rical": 8418,
      "Ġdetailed": 8419,
      "ĠResult": 8420,
      "Ġcoast": 8421,
      "inity": 8422,
      "Flow": 8423,
      "such": 8424,
      "cuss": 8425,
      "While": 8426,
      "acific": 8427,
      "arse": 8428,
      "Ġrisk": 8429,
      "eled": 8430,
      "=\"@": 8431,
      "tw": 8432,
      "timeout": 8433,
      "Ġinterview": 8434,
      "GC": 8435,
      "Ġsites": 8436,
      "plus": 8437,
      "rift": 8438,
      "IPT": 8439,
      "ĠJac": 8440,
      "Ġshowed": 8441,
      "ersistent": 8442,
      "Ġcalling": 8443,
      "Ġresponsible": 8444,
      "headers": 8445,
      "ĠUsing": 8446,
      "istical": 8447,
      "NavBarCell": 8448,
      "Ġ\"-": 8449,
      "Ġalgorithms": 8450,
      "ĠBob": 8451,
      "Ġcarry": 8452,
      "ĠWal": 8453,
      "Ġolder": 8454,
      "Ġriver": 8455,
      "blockList": 8456,
      "wiki": 8457,
      "fort": 8458,
      "duled": 8459,
      "pan": 8460,
      "react": 8461,
      "Ġreset": 8462,
      "stein": 8463,
      "Agent": 8464,
      "Ġ{{": 8465,
      "Ġstay": 8466,
      "resolve": 8467,
      "esian": 8468,
      "agr": 8469,
      "Ġgoals": 8470,
      "rase": 8471,
      "1920": 8472,
      "Word": 8473,
      "ĠLove": 8474,
      "ignment": 8475,
      "Ġlaunched": 8476,
      "ulator": 8477,
      "ateway": 8478,
      "Ġremain": 8479,
      "Ġ[\"": 8480,
      "Ġbehavi": 8481,
      "Ġrotation": 8482,
      "Ġinn": 8483,
      "Texture": 8484,
      "ĠColumb": 8485,
      "ĠResource": 8486,
      "Ġstudio": 8487,
      "Ã£o": 8488,
      "ried": 8489,
      "eks": 8490,
      "Ġgoes": 8491,
      "Ġrailway": 8492,
      "formance": 8493,
      "uplic": 8494,
      "tensor": 8495,
      "Ġspan": 8496,
      "aily": 8497,
      "ipped": 8498,
      "Ġsignature": 8499,
      "original": 8500,
      "udes": 8501,
      "Dictionary": 8502,
      ")\\\\": 8503,
      "ĠJoseph": 8504,
      "Ġvary": 8505,
      "ĠElement": 8506,
      "Begin": 8507,
      "Ġchampionship": 8508,
      "Ġattended": 8509,
      "sys": 8510,
      "Films": 8511,
      "ĠFort": 8512,
      "Ġharmon": 8513,
      "Ġschema": 8514,
      "owers": 8515,
      "Ġapproaches": 8516,
      "oved": 8517,
      "Ġemail": 8518,
      "library": 8519,
      "RES": 8520,
      "pping": 8521,
      "Ġlicense": 8522,
      "ICE": 8523,
      "Ġsouthern": 8524,
      "ĠIrish": 8525,
      "Comment": 8526,
      "Ġduration": 8527,
      "$;": 8528,
      "Ġisland": 8529,
      "TA": 8530,
      "Ġstored": 8531,
      "@\"": 8532,
      "achment": 8533,
      "ĠMos": 8534,
      "umes": 8535,
      "CRE": 8536,
      "ĠMedia": 8537,
      "etes": 8538,
      "Ġcancel": 8539,
      "ĠOl": 8540,
      "ĠEmpire": 8541,
      "Ġautomatically": 8542,
      "Ġenh": 8543,
      "zure": 8544,
      "Ġgenus": 8545,
      "but": 8546,
      "Ġowned": 8547,
      "ĠPop": 8548,
      "Ġcommercial": 8549,
      "Ġincorpor": 8550,
      "Ġnorthern": 8551,
      "amely": 8552,
      "tags": 8553,
      "Short": 8554,
      "Ġdetect": 8555,
      "Ġagreed": 8556,
      "hbox": 8557,
      "front": 8558,
      "Ġimplemented": 8559,
      "Ġinstances": 8560,
      "services": 8561,
      "Ġexc": 8562,
      "Bi": 8563,
      "hbar": 8564,
      "Ġult": 8565,
      "Author": 8566,
      "phone": 8567,
      "asion": 8568,
      "Ġbin": 8569,
      "ĠYoung": 8570,
      "Ġunderlying": 8571,
      "Ġreadonly": 8572,
      "ĠCa": 8573,
      "ĠTim": 8574,
      "Ġcalculate": 8575,
      "Ġpromise": 8576,
      "proxy": 8577,
      "sylvania": 8578,
      "ĠBattle": 8579,
      "Ġoptical": 8580,
      "ĠNorthern": 8581,
      "Ġtypedef": 8582,
      "Ġestimates": 8583,
      "Ġtemp": 8584,
      "amer": 8585,
      "nn": 8586,
      "ONG": 8587,
      "Ġlat": 8588,
      "Ġdisp": 8589,
      "Ġ([": 8590,
      "Ġregime": 8591,
      "scape": 8592,
      "Ġstellar": 8593,
      "Ġphil": 8594,
      "Ġpoor": 8595,
      "ographic": 8596,
      "Ġcycle": 8597,
      "ĠEducation": 8598,
      "Ġnotice": 8599,
      "groups": 8600,
      "urations": 8601,
      "}}^{": 8602,
      "FORM": 8603,
      "ĠArab": 8604,
      "Ġguarant": 8605,
      "Ġparser": 8606,
      "external": 8607,
      "Ġlab": 8608,
      "ĠSir": 8609,
      "ĠWood": 8610,
      "ĠLee": 8611,
      "ĠDim": 8612,
      "Ġsqu": 8613,
      "Cred": 8614,
      "Ġasympt": 8615,
      "ĠHo": 8616,
      "ading": 8617,
      "ITION": 8618,
      "Ġmission": 8619,
      "taining": 8620,
      "ĠMP": 8621,
      "miss": 8622,
      "Ġchannels": 8623,
      "__)": 8624,
      "ilibrium": 8625,
      "DateTime": 8626,
      "Limit": 8627,
      "ampling": 8628,
      "Ġtracks": 8629,
      "Ġmusical": 8630,
      "Ġgalaxy": 8631,
      "ĠPass": 8632,
      "ĠHa": 8633,
      "Ġsummer": 8634,
      "Ġstrongly": 8635,
      "SK": 8636,
      "iated": 8637,
      "ĠSpain": 8638,
      "Password": 8639,
      "ighter": 8640,
      "ĉĉĉĉĉĉĉĉĉ": 8641,
      "Ġmedical": 8642,
      "ansas": 8643,
      "Ġtranslate": 8644,
      "Ġinterpret": 8645,
      "MR": 8646,
      "Ġcoordinate": 8647,
      "itan": 8648,
      "home": 8649,
      "Dem": 8650,
      "Dev": 8651,
      "110": 8652,
      "sumer": 8653,
      "}({\\": 8654,
      "mouse": 8655,
      "chen": 8656,
      "$~": 8657,
      "{\"": 8658,
      "Ġvectors": 8659,
      "Ġwood": 8660,
      "Ġexecution": 8661,
      "execute": 8662,
      "Ġscattering": 8663,
      "proposition": 8664,
      "TestCase": 8665,
      "Ġraised": 8666,
      "Ġnotation": 8667,
      "çļ": 8668,
      "Ġprojects": 8669,
      "Ġidentify": 8670,
      "ymmetric": 8671,
      "pb": 8672,
      "Ġking": 8673,
      "OB": 8674,
      "ĠBoolean": 8675,
      "****************************************************************": 8676,
      "Ġtypical": 8677,
      "Ġprison": 8678,
      "FFFF": 8679,
      "Ġnucle": 8680,
      "Interval": 8681,
      "ĠStart": 8682,
      "wrapper": 8683,
      "lg": 8684,
      "pod": 8685,
      "pons": 8686,
      "Py": 8687,
      "Ġefficient": 8688,
      "Ġmasses": 8689,
      "Ġcli": 8690,
      "Ġpan": 8691,
      "constructor": 8692,
      "Ġchalleng": 8693,
      "lie": 8694,
      "lict": 8695,
      "throw": 8696,
      "fire": 8697,
      "Ġphen": 8698,
      "ĠWAR": 8699,
      "Ġresolve": 8700,
      "Ġmerg": 8701,
      "Ġadding": 8702,
      "Ġdoing": 8703,
      "Ä±": 8704,
      "_);": 8705,
      "Ġhum": 8706,
      "Theorem": 8707,
      "clusive": 8708,
      "Ġmechanism": 8709,
      "Bind": 8710,
      "{%": 8711,
      "room": 8712,
      "unique": 8713,
      "Ġcelebr": 8714,
      "Resources": 8715,
      "Ġcomposed": 8716,
      "Ġthreat": 8717,
      "Ġforeign": 8718,
      "Ġseem": 8719,
      "ĠBank": 8720,
      "Ġbus": 8721,
      "Repository": 8722,
      "Ġsummary": 8723,
      "Ġoscill": 8724,
      "Db": 8725,
      "also": 8726,
      "itors": 8727,
      "Ġprem": 8728,
      "Ġmanaged": 8729,
      "}&": 8730,
      "Ġcoming": 8731,
      "amazon": 8732,
      "power": 8733,
      "Ġbundle": 8734,
      ".\",": 8735,
      ")},": 8736,
      "Cons": 8737,
      "Ġpriv": 8738,
      "ĠIL": 8739,
      "osoph": 8740,
      "Ġcalculations": 8741,
      "ĠChild": 8742,
      "çļĦ": 8743,
      "Ign": 8744,
      "ĠSocial": 8745,
      "ĠIE": 8746,
      "'(": 8747,
      "Ġdise": 8748,
      "ela": 8749,
      "Ġ];": 8750,
      "Ġpseud": 8751,
      "href": 8752,
      "kt": 8753,
      "Ġalternative": 8754,
      "Ġlies": 8755,
      "Ġpoly": 8756,
      "Ġdistingu": 8757,
      "Ġmarked": 8758,
      "Ġarm": 8759,
      "Ġip": 8760,
      "large": 8761,
      "sb": 8762,
      "Ġthick": 8763,
      "inals": 8764,
      "Ġdefeated": 8765,
      "Ġcalculation": 8766,
      "jQuery": 8767,
      "ADD": 8768,
      "ixels": 8769,
      "ĠGaussian": 8770,
      "Ġgiving": 8771,
      "nodes": 8772,
      "opts": 8773,
      "DOM": 8774,
      "Ġachieved": 8775,
      "DT": 8776,
      "ĠAND": 8777,
      "effect": 8778,
      "Ġforced": 8779,
      "sch": 8780,
      "Ġobserve": 8781,
      "Ġadvant": 8782,
      "ĠHttp": 8783,
      "owner": 8784,
      "Ġconstants": 8785,
      "ĠObserv": 8786,
      ">\"": 8787,
      "METH": 8788,
      "runtime": 8789,
      "Ġsatisfy": 8790,
      "async": 8791,
      "ĠUI": 8792,
      "Ġenv": 8793,
      "AF": 8794,
      "ĠEarth": 8795,
      "Ġexplicitly": 8796,
      "Ġmis": 8797,
      "ador": 8798,
      "cient": 8799,
      "ĠBoth": 8800,
      "Ġfinancial": 8801,
      "REQ": 8802,
      "flag": 8803,
      "rawn": 8804,
      "apes": 8805,
      "design": 8806,
      "Ġsea": 8807,
      "unior": 8808,
      "seg": 8809,
      "ilters": 8810,
      "ĠTR": 8811,
      "Ġdepending": 8812,
      "zz": 8813,
      "tainers": 8814,
      "venue": 8815,
      "Ġgap": 8816,
      "ĠTele": 8817,
      "Ġzone": 8818,
      "ĠJim": 8819,
      "conv": 8820,
      "checked": 8821,
      "shared": 8822,
      "jango": 8823,
      "Ġvalidation": 8824,
      "Ġsuccessfully": 8825,
      "VID": 8826,
      "onald": 8827,
      "icensed": 8828,
      "abil": 8829,
      "PUT": 8830,
      "Ġmagnitude": 8831,
      "arrier": 8832,
      ".<": 8833,
      "Ġquadr": 8834,
      "video": 8835,
      "Ġinfinite": 8836,
      "ellig": 8837,
      "diag": 8838,
      "Ġcru": 8839,
      "Ġchief": 8840,
      "ysical": 8841,
      "Ġexit": 8842,
      "Sample": 8843,
      "Ġcapture": 8844,
      "elastic": 8845,
      "Ġwallet": 8846,
      "Ġran": 8847,
      "sn": 8848,
      "Sort": 8849,
      "Ġmovie": 8850,
      "Ġshell": 8851,
      "Ġreson": 8852,
      "Ġanimation": 8853,
      "Ġdoub": 8854,
      "ĠGreek": 8855,
      "Ġnewsp": 8856,
      "anging": 8857,
      "\\_": 8858,
      "bro": 8859,
      "ĠAction": 8860,
      "osity": 8861,
      "required": 8862,
      "arriage": 8863,
      "Ġsupports": 8864,
      "Ġproxy": 8865,
      "Ġproviding": 8866,
      "Ġparents": 8867,
      "Ġhighlight": 8868,
      "Ġmeta": 8869,
      "Ġinstalled": 8870,
      "aret": 8871,
      "loaded": 8872,
      "Two": 8873,
      "\\{\\": 8874,
      "ĠImage": 8875,
      "heel": 8876,
      "ĠBack": 8877,
      "orial": 8878,
      "Ġcmd": 8879,
      "1963": 8880,
      "Ġhydro": 8881,
      "zh": 8882,
      "Details": 8883,
      "ĠMake": 8884,
      "Library": 8885,
      "ums": 8886,
      "oston": 8887,
      "ĠPennsylvania": 8888,
      "notes": 8889,
      "Ġsynt": 8890,
      "ĠEval": 8891,
      "SSL": 8892,
      "Ġwaves": 8893,
      "ĠGame": 8894,
      "lipse": 8895,
      "ĠANY": 8896,
      "RC": 8897,
      "rg": 8898,
      "Visible": 8899,
      "Ġturned": 8900,
      "Ġdifferential": 8901,
      "Ġmeasures": 8902,
      "Ġmenu": 8903,
      "operation": 8904,
      "sol": 8905,
      "Ġserve": 8906,
      "ĠValley": 8907,
      "=\"${": 8908,
      "Animation": 8909,
      "%,": 8910,
      "uce": 8911,
      "Depend": 8912,
      "hl": 8913,
      "Ġways": 8914,
      "Ġoccurred": 8915,
      "DULE": 8916,
      "NamedCell": 8917,
      "MODULE": 8918,
      "Promise": 8919,
      "itempty": 8920,
      "Ġminimal": 8921,
      "acket": 8922,
      "lower": 8923,
      "Ġcommission": 8924,
      "Ġlogger": 8925,
      "generated": 8926,
      "Sch": 8927,
      "role": 8928,
      "supported": 8929,
      "arguments": 8930,
      "Ġlimits": 8931,
      "Ġsingles": 8932,
      "ĠassertThat": 8933,
      "1962": 8934,
      "ogram": 8935,
      "Ġletter": 8936,
      "ĠServ": 8937,
      "omitempty": 8938,
      "Shared": 8939,
      "Ġhypot": 8940,
      "Ġusage": 8941,
      "Ġmagazine": 8942,
      "Ġrapid": 8943,
      "Ġrgba": 8944,
      "Ġ'';": 8945,
      "Ġpages": 8946,
      "Ð´": 8947,
      "DEFAULT": 8948,
      "Ġtx": 8949,
      "250": 8950,
      "Lower": 8951,
      "Ġstarts": 8952,
      "words": 8953,
      "Ġdegrees": 8954,
      "Ġnumerous": 8955,
      "eller": 8956,
      "Ġtold": 8957,
      "Ġdifferences": 8958,
      "COMP": 8959,
      ",$": 8960,
      "ni": 8961,
      "tk": 8962,
      "herited": 8963,
      "Ġquarter": 8964,
      "ummy": 8965,
      "Ġgain": 8966,
      "Nullable": 8967,
      "Ġasked": 8968,
      "Ġice": 8969,
      "issues": 8970,
      "wp": 8971,
      "Ġdiss": 8972,
      "DEF": 8973,
      "kins": 8974,
      "ĠFC": 8975,
      "sidebar": 8976,
      "ipher": 8977,
      "loader": 8978,
      "trace": 8979,
      "Ġ'\\": 8980,
      "According": 8981,
      "Ġbecoming": 8982,
      "vol": 8983,
      "cover": 8984,
      "slam": 8985,
      "Ġgeneric": 8986,
      "Ġmeeting": 8987,
      "bg": 8988,
      "Ġaggreg": 8989,
      "ĠMr": 8990,
      "Ġintr": 8991,
      "Ġdesired": 8992,
      "ĠChief": 8993,
      "tainment": 8994,
      "ĠSpecial": 8995,
      "Ġut": 8996,
      "Pay": 8997,
      "Ġexecute": 8998,
      "Ġouter": 8999,
      "Required": 9000,
      "Fn": 9001,
      "Ġsoft": 9002,
      "FilterDatabase": 9003,
      "Ġeth": 9004,
      "Wait": 9005,
      "UES": 9006,
      "ologies": 9007,
      "month": 9008,
      "Ġbeam": 9009,
      "cccc": 9010,
      "Ġopport": 9011,
      "ennis": 9012,
      "ï¼": 9013,
      "Mask": 9014,
      "itation": 9015,
      "setup": 9016,
      "checkbox": 9017,
      "Bean": 9018,
      "Ġindividuals": 9019,
      "Ġremote": 9020,
      "BO": 9021,
      "Flag": 9022,
      "rick": 9023,
      "aya": 9024,
      "Ġproport": 9025,
      "DIS": 9026,
      "Eff": 9027,
      "aylor": 9028,
      "ĠSD": 9029,
      "Ġarmy": 9030,
      "inator": 9031,
      "Ġeconomic": 9032,
      "Constructor": 9033,
      "aka": 9034,
      "Ġheart": 9035,
      "Failure": 9036,
      "tik": 9037,
      "Ġax": 9038,
      "uset": 9039,
      "resources": 9040,
      "Ġdevices": 9041,
      "Arr": 9042,
      "periment": 9043,
      "functions": 9044,
      "|}": 9045,
      "Ġcovered": 9046,
      "enant": 9047,
      "Ġemit": 9048,
      "Ñĭ": 9049,
      "Ġlayers": 9050,
      "ĠTri": 9051,
      "ancer": 9052,
      "Operator": 9053,
      "ĠRadio": 9054,
      "ĠProcess": 9055,
      "ĠRam": 9056,
      "Ġamplitude": 9057,
      "ĠEnter": 9058,
      "cred": 9059,
      "sel": 9060,
      "Ġleaving": 9061,
      "Ġweeks": 9062,
      "Append": 9063,
      "ĠLord": 9064,
      "tail": 9065,
      "optional": 9066,
      "1944": 9067,
      "ĠTheir": 9068,
      "ĠSte": 9069,
      "fixed": 9070,
      "Ġshowing": 9071,
      "constant": 9072,
      "Import": 9073,
      "Ġdisabled": 9074,
      "Ġfair": 9075,
      "Arch": 9076,
      "Ġscaling": 9077,
      "1961": 9078,
      "tabs": 9079,
      "kub": 9080,
      "peat": 9081,
      "Ġpp": 9082,
      "Span": 9083,
      "ĠInput": 9084,
      "Support": 9085,
      "ench": 9086,
      "Ġ{\"": 9087,
      "ĠXML": 9088,
      "sych": 9089,
      "ila": 9090,
      ":[": 9091,
      "Ġseg": 9092,
      "()</": 9093,
      "azy": 9094,
      "Ġfavor": 9095,
      "once": 9096,
      "Ġunderstand": 9097,
      "Ġodd": 9098,
      "Ġ^{": 9099,
      "Ġspecify": 9100,
      "duction": 9101,
      "ĠImm": 9102,
      "Ġphysics": 9103,
      "roph": 9104,
      "uffers": 9105,
      "-$": 9106,
      "MODE": 9107,
      "ĠRet": 9108,
      "rine": 9109,
      "ugs": 9110,
      "enty": 9111,
      "Ġcounty": 9112,
      "METHOD": 9113,
      "simple": 9114,
      "Ġbatch": 9115,
      "INFO": 9116,
      "Ġtheme": 9117,
      "lapse": 9118,
      ")}_{": 9119,
      "ĠJournal": 9120,
      "\\|_{": 9121,
      "Ġbtn": 9122,
      "180": 9123,
      "plates": 9124,
      "ĠBre": 9125,
      "Ġconversion": 9126,
      "Ġignore": 9127,
      "Ġnuclear": 9128,
      "Ġhole": 9129,
      "NC": 9130,
      "ĠPubl": 9131,
      "ĠDirector": 9132,
      "fly": 9133,
      "atomic": 9134,
      "ĠElect": 9135,
      "mma": 9136,
      "Ġconfigure": 9137,
      "INTER": 9138,
      "Ġ\\\"": 9139,
      "Ġdrama": 9140,
      "Ġtalk": 9141,
      "Ġ{},": 9142,
      "socket": 9143,
      "Stop": 9144,
      "Some": 9145,
      "Ġsynchron": 9146,
      "ĠIran": 9147,
      ")+\\": 9148,
      "Ġideal": 9149,
      "Ã±": 9150,
      "Language": 9151,
      "tbody": 9152,
      "usband": 9153,
      "Ġfarm": 9154,
      "acle": 9155,
      "ĠSong": 9156,
      "driver": 9157,
      "Total": 9158,
      "Ġclaimed": 9159,
      "Ġofficer": 9160,
      "objects": 9161,
      "oir": 9162,
      "empt": 9163,
      "Ġisol": 9164,
      "ĠWhat": 9165,
      "Category": 9166,
      "Ġ$|\\": 9167,
      "Ġlived": 9168,
      "standing": 9169,
      "ĠBritain": 9170,
      "ĠSu": 9171,
      "Ġextrem": 9172,
      "Ġwanted": 9173,
      "ups": 9174,
      "Vertex": 9175,
      "ĠUk": 9176,
      "detail": 9177,
      "ĠPeople": 9178,
      "/***/": 9179,
      "going": 9180,
      "Ġobservation": 9181,
      "Ġclusters": 9182,
      "'];": 9183,
      "()))": 9184,
      "Ġener": 9185,
      "Ġelim": 9186,
      "Subs": 9187,
      "ivation": 9188,
      "Methods": 9189,
      "icator": 9190,
      "ĠCamb": 9191,
      "zen": 9192,
      "defer": 9193,
      "Mouse": 9194,
      "structions": 9195,
      "Ġreduction": 9196,
      "ĠOffice": 9197,
      "Ġcommunities": 9198,
      "Ġattract": 9199,
      "Ġassembly": 9200,
      "ĠSar": 9201,
      "enth": 9202,
      "hetic": 9203,
      "ArgumentException": 9204,
      "emic": 9205,
      "integ": 9206,
      "Ġquickly": 9207,
      "iggs": 9208,
      "some": 9209,
      "pend": 9210,
      "HP": 9211,
      "DATA": 9212,
      "Binary": 9213,
      "ĠBlue": 9214,
      "Ġfle": 9215,
      "sync": 9216,
      "ĠSouthern": 9217,
      "cong": 9218,
      "pair": 9219,
      "ÑĮ": 9220,
      "assets": 9221,
      "atasets": 9222,
      "ĠPak": 9223,
      "ustrial": 9224,
      "General": 9225,
      "Ġconvergence": 9226,
      "inois": 9227,
      "GroupName": 9228,
      "ĠRh": 9229,
      "Ġsecondary": 9230,
      "ubble": 9231,
      "IVE": 9232,
      "validate": 9233,
      "ĠCivil": 9234,
      "Clear": 9235,
      "ĠMajor": 9236,
      "ĠSpe": 9237,
      "INSERT": 9238,
      "ĠGood": 9239,
      "})$,": 9240,
      "Ġclock": 9241,
      "ĠFinally": 9242,
      "Ġannual": 9243,
      "uzz": 9244,
      "feature": 9245,
      "airman": 9246,
      "Ġwor": 9247,
      "ĠInv": 9248,
      "poration": 9249,
      "nam": 9250,
      "commit": 9251,
      "Ġdetected": 9252,
      "sa": 9253,
      "Ġsenior": 9254,
      "iy": 9255,
      "arden": 9256,
      "ĠJones": 9257,
      "Ġlanguages": 9258,
      "provider": 9259,
      "clean": 9260,
      "irls": 9261,
      "ORTED": 9262,
      "ĠAS": 9263,
      "Ġfunctional": 9264,
      "python": 9265,
      "Ġforest": 9266,
      "Ġcolon": 9267,
      "Ġinduced": 9268,
      "ogeneous": 9269,
      "Ġallowing": 9270,
      "Ġtail": 9271,
      ";}": 9272,
      "osa": 9273,
      "np": 9274,
      "Leg": 9275,
      "}}$.": 9276,
      "ĠDist": 9277,
      "ĠLL": 9278,
      "ridge": 9279,
      "Ġcursor": 9280,
      "Fin": 9281,
      "ione": 9282,
      "}{(": 9283,
      "lat": 9284,
      "zip": 9285,
      "Ġvon": 9286,
      "00000000": 9287,
      "ests": 9288,
      "Introduction": 9289,
      "Ġconj": 9290,
      "observ": 9291,
      "Ang": 9292,
      "bx": 9293,
      "ims": 9294,
      "Ġtrained": 9295,
      "ĠĠĠĠĠĠĠĠĠĠĠĠĠĠĠĠĠĠĠĠĠĠĠĠĠĠĠĠĠĠ": 9296,
      "Ġmetal": 9297,
      "Ġtranslation": 9298,
      "rapped": 9299,
      "Ġpull": 9300,
      "ĠCentre": 9301,
      "console": 9302,
      "Ġfluct": 9303,
      "estion": 9304,
      "undred": 9305,
      "username": 9306,
      "CHAR": 9307,
      "ĠWrite": 9308,
      "aters": 9309,
      "Ġ×": 9310,
      ")-\\": 9311,
      "Ġflo": 9312,
      "$),": 9313,
      "Ġ@\"": 9314,
      "ĠÅ": 9315,
      "have": 9316,
      "Ġintegration": 9317,
      "apis": 9318,
      "Ġclearly": 9319,
      "cknowled": 9320,
      "ĠOx": 9321,
      "Ġfundamental": 9322,
      "HS": 9323,
      "Ġadjust": 9324,
      "\"],": 9325,
      "Ð¼": 9326,
      "}}$,": 9327,
      "Ġgovern": 9328,
      "Ids": 9329,
      "600": 9330,
      "ĠLo": 9331,
      "hard": 9332,
      "Ġaudio": 9333,
      "pload": 9334,
      ">;": 9335,
      "factory": 9336,
      "Ġsector": 9337,
      "destroy": 9338,
      "prise": 9339,
      "ĠAny": 9340,
      "Ġ\"\",": 9341,
      "Ġprojection": 9342,
      "Ġru": 9343,
      "1958": 9344,
      "nos": 9345,
      "Ġul": 9346,
      "actor": 9347,
      "Summary": 9348,
      "Ġinject": 9349,
      "Ġscales": 9350,
      "Ġregistered": 9351,
      "Ġdespite": 9352,
      "]}": 9353,
      ":`": 9354,
      "Ġgetting": 9355,
      "Ġrecording": 9356,
      "ĠDemocratic": 9357,
      "Ġtheoretical": 9358,
      "${\\": 9359,
      "Ġmaterials": 9360,
      "CALL": 9361,
      "burgh": 9362,
      "odd": 9363,
      "1956": 9364,
      "adel": 9365,
      "Ġ\\&": 9366,
      "VALID": 9367,
      "Find": 9368,
      "Ġbridge": 9369,
      "National": 9370,
      "CM": 9371,
      "Ġmiss": 9372,
      "ĠAsia": 9373,
      "Validation": 9374,
      "ĠBern": 9375,
      "Ġdat": 9376,
      "ĠApache": 9377,
      "Ġ''": 9378,
      "ovari": 9379,
      "ĠMov": 9380,
      "ĠSource": 9381,
      "Ġvictory": 9382,
      "Ġoperated": 9383,
      "dc": 9384,
      "']['": 9385,
      "Ġmurder": 9386,
      "ĠBas": 9387,
      "Ġdepict": 9388,
      "ÅĤ": 9389,
      "Ġpain": 9390,
      "ritical": 9391,
      "Ġcomputation": 9392,
      "Ġtrib": 9393,
      "Ġpromin": 9394,
      "Ġaccepted": 9395,
      "assembly": 9396,
      "RT": 9397,
      "1942": 9398,
      "Ġviews": 9399,
      "formal": 9400,
      "125": 9401,
      "Batch": 9402,
      "Observ": 9403,
      "}$)": 9404,
      "))$": 9405,
      "Ġdescribes": 9406,
      "oned": 9407,
      "Ġthermal": 9408,
      "ĠAmazon": 9409,
      "ĠCarl": 9410,
      "ĠJersey": 9411,
      "Ġwall": 9412,
      "Ġdepartment": 9413,
      "ĠConference": 9414,
      "Tx": 9415,
      "Ġfine": 9416,
      "ysics": 9417,
      "Pair": 9418,
      "1959": 9419,
      "Ġbass": 9420,
      "ĠMah": 9421,
      "Ð²": 9422,
      "IGHT": 9423,
      "Ġrough": 9424,
      "Ġlaunch": 9425,
      "ĠMichigan": 9426,
      "Ġnine": 9427,
      "person": 9428,
      "Ġintersection": 9429,
      "Ġadopted": 9430,
      "ĠVector": 9431,
      "000001": 9432,
      "ancing": 9433,
      "gypt": 9434,
      "ĠHAL": 9435,
      "itionally": 9436,
      "opic": 9437,
      "Ġweights": 9438,
      "relations": 9439,
      ",\\,\\": 9440,
      "Ġsquad": 9441,
      "Ġexplain": 9442,
      "ĠArrayList": 9443,
      "Sur": 9444,
      "Ġexpanded": 9445,
      "Ġhistorical": 9446,
      "Ġcontents": 9447,
      "Normal": 9448,
      "ĠPage": 9449,
      "STRING": 9450,
      "Ġlumin": 9451,
      "}{|": 9452,
      "gies": 9453,
      "oreign": 9454,
      "construct": 9455,
      "tikz": 9456,
      "Ġgradient": 9457,
      "IX": 9458,
      "ĠDutch": 9459,
      "ĠKent": 9460,
      "Ġdidn": 9461,
      "inherit": 9462,
      "displayName": 9463,
      "Ġphenomen": 9464,
      "Ġdiscovered": 9465,
      "Brit": 9466,
      "ĠDOM": 9467,
      "Ġlooking": 9468,
      "cha": 9469,
      "Ġleaves": 9470,
      "ĠRepresent": 9471,
      "Ġdescent": 9472,
      "Ġsuggested": 9473,
      "May": 9474,
      "Ġvote": 9475,
      "uum": 9476,
      "Axis": 9477,
      "Renderer": 9478,
      "Ġbind": 9479,
      "ĠOrig": 9480,
      "semble": 9481,
      "ti": 9482,
      "Ġcancell": 9483,
      "Ġactors": 9484,
      "800": 9485,
      "rim": 9486,
      "Ġpul": 9487,
      "Look": 9488,
      "radio": 9489,
      "coq": 9490,
      "Ġproceed": 9491,
      "oked": 9492,
      ")}}": 9493,
      "Ġpi": 9494,
      "jpg": 9495,
      "ulty": 9496,
      "achuset": 9497,
      "Ġnp": 9498,
      "Ġgraphs": 9499,
      "Ġclick": 9500,
      "achusetts": 9501,
      "\\;": 9502,
      "ĠAsian": 9503,
      "ĠOhio": 9504,
      "aste": 9505,
      "cean": 9506,
      "ĠPacific": 9507,
      "forEach": 9508,
      "Ġlocations": 9509,
      "$/": 9510,
      "enger": 9511,
      "Ġsym": 9512,
      "ais": 9513,
      "ĠZend": 9514,
      "tan": 9515,
      "Ġconnections": 9516,
      "Ġfriends": 9517,
      "pres": 9518,
      "ĠMen": 9519,
      "ĠAppend": 9520,
      "Ġdivided": 9521,
      "Sharp": 9522,
      "irror": 9523,
      "ĠPrem": 9524,
      "Ġprincipal": 9525,
      "Ġconclude": 9526,
      "helper": 9527,
      "1939": 9528,
[...]
