#version: 0.2
Ġ t
i n
h e
Ġ a
o n
r e
a t
Ġt he
e r
e n
Ġ s
Ġ o
a l
i t
o r
i s
Ġ c
i on
e s
Ġ \
a n
Ġ w
a r
Ġ f
e d
Ġ Ġ
Ġo f
Ġ p
Ġ $
Ġa n
Ġ in
Ġ b
l e
in g
i c
r o
Ġ d
Ġ m
Ġan d
Ġt o
c t
a s
e l
i g
e t
{ \
en t
Ġt h
o u
r a
at ion
o m
Ġ e
i m
i l
Ġ re
s t
Ġ h
Ġ is
o t
Ġ n
o l
a m
Ġ l
Ġ T
v e
_ {
Ġ (
i d
c e
Ġf or
Ġ g
u t
s e
Ġ S
q u
o w
ĠĠ ĠĠ
Ġ$ \
l y
c h
e g
u n
v er
a b
m at
u l
Ġ on
u r
Ġth at
Ġ A
it h
Ġ C
â Ģ
mat h
u m
Ġb e
Ġs t
Ġc on
u s
en d
Ġ I
Ġw ith
} \
o d
t a
Ġ &
Ġa s
e m
Ġw e
i f
Ġ M
Ġ Ċ
} $
p h
ig h
^ {
ct ion
2 0
i r
a d
Ġp ro
u re
č Ċ
Ġa l
a y
r i
g e
t er
Ġ P
m a
Ġ B
ĠT he
igh t
Ġ F
p p
o s
Ġb y
Ġa re
Ġe x
t h
it y
Ġ v
t e
he r
} }
re f
is t
( \
it e
c al
Ġ H
an d
i v
o re
Ġw h
eg in
Ġc om
at e
Ġ R
b egin
Ġ W
e ct
Ġ L
Ġ it
re s
in e
Ġ D
er s
Ġa t
p t
Ġd e
ar t
ro m
i al
a c
ra c
_ {\
) $
Ġs u
i es
p l
p er
es t
f t
Ġs e
il l
Ġ N
Ġ E
} {
i ve
p s
an t
d e
Ġf rom
x t
Ġ G
es s
Ġo r
T he
Ġ r
Ġ y
f rac
e q
m ent
, \
i z
Ġ =
Ġth is
ou n
âĢ Ļ
ic al
qu ation
c ite
Ġs h
a g
a ve
} )
re n
e w
l d
Ġs p
a k
o p
ic h
r m
o c
el l
al l
in t
ul t
Ġ he
r ight
Ġc an
f or
u d
ab el
it ion
u b
Ġcom p
te xt
ĠĠĠĠ ĠĠĠĠ
Ġ un
Ġn ot
math b
Ġw as
en s
Ġ -
1 9
o g
Ġ le
at ed
re d
Ġc h
ĠĠ Ġ
} ,
t he
ou r
ig n
$ ,
r an
l abel
u p
Ġre s
e quation
$ .
Ġh ave
or t
ĠI n
Ġ O
c l
d u
d s
0 0
f f
math cal
et a
Ġ us
b er
ation s
} .
Ġ J
Ġ k
d er
Ġwh ich
} (
as s
le ft
a ce
Ġw he
r u
20 1
ar y
l ow
ab le
t o
} ^
e c
~ \
id e
} _
f ig
Ġ im
u st
c c
a ct
Ġ âĢ
en er
as t
Ġc l
d a
on g
im e
Ġm od
o st
as e
en ce
t her
ph a
Ġa b
Ġ U
al pha
a p
i b
Ġa pp
Ġh as
am b
or k
Ġp l
i p
a ch
Ġ K
ar d
f e
) \
a in
ion s
for m
e ar
ou s
u e
$ \
Ġal l
1 0
g h
l ine
s o
i an
amb da
ac k
ou ld
c on
el y
an g
a re
el ta
Ġo b
Ġm e
om e
s um
p ro
r ic
ĠT h
o ver
am ma
Ġ +
am e
Ġon e
_ \
Ġ qu
) ,
u se
im es
) .
a v
ro w
' s
Ġa d
a ge
ou t
er m
Ġp art
m u
w o
Ġ\ \
i a
Ġw ill
Ġ V
Ġd is
fe ren
ig ma
= \
Ġcon t
s p
ent s
d ot
I n
} ^{
i k
} _{
mathb b
an ce
ri b
h o
- \
or s
ta in
Ġal so
Ġp er
eg a
Ġ j
o se
p le
r y
Ġs y
s ub
d ing
Ġn e
m b
re e
ph i
ow n
w e
ul ar
h at
at es
^ {\
Ġf un
i re
al ly
c om
Ġ {\
ut ion
ic s
Ġe v
. .
o k
l ambda
o f
ic e
Ġmod el
ar k
er v
Ġo ut
Ġt wo
oun d
b f
ar i
o v
Ġd if
Ġo ur
Ġb ut
Ġy ou
ra y
o int
i e
Ġm ore
ĠW e
ol low
f in
Ġthe ir
c es
res s
20 0
in d
or y
ir st
mathb f
p art
c ent
Ġd o
Ġs et
il on
ra ph
ps ilon
Ġa r
s igma
p i
âĢ Ŀ
se ction
Ġ en
un d
Ġ if
Ġin ter
Ġo ther
i le
w id
Ġf ollow
} {\
y s
Ġcon s
Ġ( \
Ġt ime
Ġit s
Ġb et
Ġo ver
um ber
^{ -
Ġfor m
Ġs im
v el
Ġres ult
Ġs o
Ġsu ch
i el
ver y
p ect
ran s
Ġ ro
d ition
b eta
Ġwhe re
a pp
Ġc or
on e
cl ud
il de
Ġfun ction
Ġd at
1 2
pt ion
Ġs c
at ure
o b
Ġsu b
c a
al ign
o ve
g amma
Ġthe re
Ġh is
ver s
s c
ĠS t
l l
Ġin t
Ġre p
Ġg ener
Ġth an
Ġon ly
Ġthe y
Ġre l
p os
n e
+ \
le m
Ġm an
Ġv al
Ġd ist
math rm
Ġwe re
Ġdif feren
Ġ up
at ive
res ent
p on
Ġ Y
j ect
Ġf irst
Ġd es
e p
* }
Ġa cc
W e
Ġw ork
Ġan y
ra m
o x
r ho
^ \
st em
Ġsh ow
v i
c ed
Ġbe en
Ġre g
b ar
Ġp h
Ġa g
le ct
ĠTh is
Ġt e
Ġp re
iz e
Ġm at
if ic
) }
il ity
ot h
$ -
a x
Ġp os
the ta
Ġthe n
Ġm et
Ġt ra
d elta
ar ray
or m
] {
ĠC h
u gh
Ġl o
ta u
fig ure
u al
Ġs ome
we en
i x
oun t
ak e
Ġc o
c re
le q
\ \
c dot
i ed
e x
Ġe ach
k s
s et
Ġs ol
is h
Ġcon st
Ġwhe n
Ġthe se
ic t
Ġg iv
}$ ,
l es
Ġt rans
}$ .
y p
ĠI t
Ġin to
r it
at ing
Ġbet ween
Ġg o
Ġc ol
} (\
as ed
Ġpro b
ĠâĢ ľ
is e
| \
1 1
Ġp ar
ĠA n
ay s
n u
Ġf in
wid th
ol og
Ġ [
in ce
part ial
Ġdat a
b ig
n ing
it ies
Ġn ew
ik e
he d
t imes
Ġ "
Ġsy stem
Ġp oint
ar g
eq ref
ib le
is s
he re
an s
Ġab out
1 8
20 2
s s
ff ect
om ega
ation al
at or
Ġwh o
it em
it s
c k
Ġn o
ar row
f ter
Ġ x
ru ct
ra d
eq n
Ġs m
Ġdifferen t
Ġ {
on s
t ilde
ft y
p end
Ġun der
ot e
ĉ ĉ
Ġapp ro
u es
Ġ use
1 5
in fty
Ġc ase
ment s
Ġst ud
Ġpro v
Ġcom m
r t
i ent
Ġk n
or d
ĠĠĠĠĠĠĠĠ ĠĠĠĠĠĠĠĠ
Ġf e
p r
ĠH e
am et
D elta
Ġw ould
iel d
Ġ |
l ic
ou gh
Ġ i
Ġn on
T h
t t
id ent
a w
Ġin v
m m
at h
Ġus ed
ol d
qu ad
iz ation
ĠF or
Ġp a
ro ugh
us s
Ġp ol
y n
Ġg ro
Ġex t
Ġn umber
Ġof f
Ġus ing
Ġf l
c y
Ġv ari
r al
Ġm ay
Ġy ear
ction s
iz ed
p ar
r on
p ut
ow er
s im
sp ace
1 6
t ing
m er
\ ,
Ġpart ic
1 3
Ġ her
e ver
g y
Ġh ad
od e
am ple
a il
ĠU n
p m
Ġd et
x i
Ġl ine
ter n
id er
ical ly
ore m
Ġpro du
} }\
Ġgiv en
Ġde fin
} [
m in
Ġb l
se c
Ġt erm
)$ .
ot s
Ġp e
ic k
he n
ol ds
Ġs ame
Ġs ign
c ess
Ġw ell
Ġc ur
ff ic
h od
Ġf act
Ġ est
Ġm ost
. ,
ran g
Ġcomp le
1 4
eqn array
Ġa ct
ar ge
an ge
Ġim p
Ġob s
Ġcl ass
Ġs a
iv ely
i o
is m
Ġh ow
Ġthe m
ren t
v ar
l a
as es
e psilon
w here
Ġ X
$ $
at er
Ġ$ (
Ġsu pp
ĠS e
Ġ z
Ġe qu
ir c
ing s
Ġob tain
al s
Ġse e
O m
- -
as ure
} _{\
Ġresult s
Ġs ur
s q
Ġe ffect
oc k
Ġa m
Ġan al
ĠâĢ ĵ
he s
cent er
an n
Ġpar amet
u ch
ps i
ent ial
Ġor der
Ġb oth
Om ega
h i
ri x
ĠP ro
Ġfollow ing
19 9
Ġdis c
Ġ Q
ab ility
Ġ u
form ation
1 7
ĠF ig
ra ct
Ġh igh
Ġas s
2 5
^ *
il y
Ġth rough
Ġst r
ĠR e
Ġst ate
Ġo per
Ġe m
ener gy
Ġex p
G amma
ĠD e
o y
ang le
ist s
)$ ,
en g
re l
Ġw or
Ġ ent
Ġg et
in s
sq rt
Ġa fter
in es
Ġex per
Ġmet hod
ro und
Ġs he
in k
Ġm ass
ar ch
Ġm in
Ġ$ {\
ur ing
Ġsm all
n er
Ġne ed
Ġsp ec
Ġl ike
ĠĠĠĠ ĠĠĠ
sub section
Ġ }
Ġy our
ar s
c ol
ri v
op le
f ul
Ġper form
Ġin d
text bf
3 0
Ġd ire
ens ion
al ity
res pon
Ġpl ay
Ġin st
ic es
) =
l o
Ġ Z
} =
v are
t s
f ra
Ġme asure
right arrow
ĠA s
^{ (
vare psilon
t ed
ur n
Ġe very
in ed
Ġobs erv
in clud
rib ution
u g
Ġb ack
Ġre c
ro p
re at
ĠA l
}^ {\
u de
n ot
rang le
raph ics
it ed
ct or
Ġ\ ,
Ġcon dition
ruct ure
Ġde c
Ġf ield
mb ol
Ġres pect
t on
w ork
Ġb ound
om et
in ing
ĠC om
Ġex pl
Ġsa id
ul l
Ġre qu
Ġth ree
Ġn ow
Ġsp ace
ad e
oc i
Ġd i
ca ption
Ġ energy
Ġin clud
con d
il ar
Ġprob lem
ith m
ro ss
eg raphics
includ egraphics
Ġas sum
Ġt yp
ul ation
per t
Ġdes c
o ok
Ġwh at
ĠĠ Ċ
Ġe quation
Ġj ust
Ġpro cess
Ġ ed
re st
Th is
l ed
i er
F or
on d
ver t
Ġcor respon
b m
Ġc ould
t ab
Ġle ad
o ot
el f
ut e
et s
Ġs ing
i qu
c m
n on
c er
Ġwh ile
5 0
Ġs cal
Ġm ult
Ġa c
Ġcons ider
. ~\
Ġb el
Ġ čĊ
t en
Ġp resent
s h
u c
var phi
o ol
il d
. }
Ġ very
em ph
Ġpe ople
Ġrep resent
en cy
i vers
vel op
2 4
Ġev en
) ^
Ġe le
Ġdo es
ĠN ew
ut ions
Ġin cre
Ġl im
as h
olog y
v al
ens ure
g or
' '
ge q
over line
Ġd en
Ġc ent
Ġman y
w ard
Ġpos s
ch i
Ġest im
Ġo pt
Ġp r
ca use
Ġl arge
& \
fra k
et work
Ġbe cause
ak ing
Ġc al
e e
em ent
ch n
Ġ end
R e
.. .
o od
pro of
} ,\
it ive
Ġgener al
gor ithm
Ġsh ould
ĠC on
ve c
Ġr ight
ra w
Ġa ut
Ġval ue
l og
Ġl ong
Ġ ve
f ore
e qu
y mbol
[ \
Ġse cond
Ġs ince
ol ution
Ġlo cal
f l
m e
as on
is ion
ag n
ag es
Ġag ain
Ġre al
ur al
f er
00 0
um er
l and
}) .
Ġsp ect
ro du
Ġc a
ow ever
ens ity
n ess
Ġint eg
Ġin de
Ġcont in
Ġde f
Ġc all
h line
Ġm y
2 2
b olds
Ġat t
B ig
Ġab ove
bolds ymbol
Ġw ay
Ġqu ant
ant s
math frak
Ġb u
ĠĠĠĠ Ġ
Ġm on
Ġkn ow
e y
v ed
Ġf ound
Ġbe ing
Ġ rad
an y
mm et
ot her
Ġst ructure
im ension
l angle
vi ew
a red
ur ther
Ġs at
Ġval ues
} }$
if ied
Ġfe ature
le ar
2 3
pos ition
L ambda
vi ous
en e
a u
mb ox
Ġmodel s
ld ots
Ġ ident
de f
ref ore
am pl
Ġth ose
Ġin formation
m an
er r
am p
Ġsh own
orm al
at eg
Ġ ,
Ġch ar
L et
um n
Ġgro up
Ġsupp ort
el s
in al
Ġf il
l im
p en
Ġst art
Ġ .
Ġfollow s
Ġde pend
Ġyear s
l ess
at her
er o
ce pt
ent ion
Ġ et
A s
Ġcomp ut
ĠE n
Ġ `
an e
Ġto p
ar ds
o le
v es
P hi
c or
x im
app a
Ġs er
i j
Ġ ra
Ġe lect
ub lic
r ation
ĠI f
at t
i or
Ġm ake
i ence
Ġdesc rib
r um
or ph
er t
Ġm ain
iss ion
I t
cite p
Ġsim ilar
y le
g er
if e
Ġhe re
Ġt em
ĠS p
Ġn etwork
pl it
an k
i red
Ġt est
v en
Ġm em
Ġle ar
Ġh and
Ġde velop
s k
c ul
Ġst and
d ay
Ġdefin ed
m ed
g g
k appa
. \
Ġc re
ys is
Ġst at
Ġal low
ot imes
Ġle vel
o h
4 0
Ġb ased
s f
b ra
âĢ ĵ
Ġhe l
text it
ot ential
Ġpro pert
Ġh im
c irc
Ġf ind
b y
os s
if y
Ġprov id
non umber
Ġdist ribution
âĢ ľ
le t
a ir
u ally
Ġterm s
b e
Ġle t
is f
mer ic
Ġb as
se e
} )$
w h
yn am
Ġdisc uss
n ab
Ġm uch
w n
Ġv i
. âĢĿ
ensure math
ers on
Ġpartic ular
Ġs erv
sub set
im al
Ġcon tain
2 1
te rest
t al
\ %
Ġf am
Ġex ample
a h
eng th
Ġdet erm
et ic
g ram
Ġre du
n o
Ġg u
Ġp res
ĠS h
Ġl ow
Ġse ction
Ġp ower
at ors
r id
Ġar t
Ġa v
m ult
Ġimp ort
e ps
al th
Ġd uring
Ġchar act
er n
Ġad dition
red ict
Ġg l
ch ool
Ġs um
re ad
Ġm ed
Ġe ar
Ġex pect
Ġd ue
w ay
Ġstud y
Ġbe fore
nab la
20 20
Ġl ast
iv al
Ġc ount
Ġre st
A n
19 8
2 7
6 0
m od
Ġm ade
Ġd own
w ith
it al
Ġte chn
Ġp at
iv es
Ġre ad
Ġs our
S igma
Ġad d
Ġm agn
\ |
) )
Ġshow s
Ġin it
Ġcont ro
}) ,
1 00
Ġbe h
ri pt
Ġch o
Ġal gorithm
}} {
Ġd er
ĠThe n
\ !
Ġ <
Ġm a
k e
Ġsat isf
Ġlo ok
b ers
re m
201 8
20 19
Ġt ake
ffic ient
o per
202 2
Ġ :
dot s
ak es
at ely
b s
2 8
b l
or n
ĠH owever
e ction
pl ic
Ġsing le
Ġd om
ist ic
ĠS c
Ġdire ct
ial ly
Ġf re
Ġgo od
Ġp otential
ific ation
Ġd ensity
ĠL e
ĠO n
Ġh ig
Ġst ill
g es
Ġpoint s
; \
/ \
Ġc ar
Ġre m
Ġrep ort
in c
Ġparamet ers
Ġobtain ed
\ [
h ip
Ġme an
is hed
Ġmat rix
Ġexper im
Ġr un
Ġv is
eta il
Ġin du
c ap
Ġwith in
Ġa round
c it
202 1
Ġc he
S t
2 6
Ġin terest
ĠT o
Ġf our
b ox
F ig
} -
Ġsol ution
Ġd id
s u
Ġcur rent
201 7
t able
{ -
ĠAn d
Ġcomm un
Ġposs ible
pend ent
Ġm ust
am es
wid et
g et
f ace
i ents
Ġre le
Ġb est
ter s
S T
ure s
Ġp redict
com m
g an
center ing
Ġg ra
Ġcomp on
Ġstr ong
Ġ` `
ric t
Ġ q
Ġpa per
or ding
ivers ity
Ġob ject
Ġor ig
ĠL et
pr ime
Ġt ri
Ġfl u
4 5
Ġst ates
widet ilde
Ġre t
Ġdes ign
Ġl arg
y m
ac es
c o
Ġo pen
Ġthe ory
Ġwor ld
Ġhel p
Ġfunction s
Ġappro xim
and om
ĠA meric
Ġle ft
Ġc ou
s m
/ /
r ing
) (
Ġlim it
if t
ix ed
Ġint rodu
iv ity
al e
Ġm ax
in ation
pos ed
in ess
ĠA d
Ġanal ysis
d is
c ome
i od
Ġg raph
iel ds
Ġinclud ing
en se
2 9
ent al
Ġse qu
Ġcharact er
Ġcontin u
a z
Ġs l
âĢ ¦
iv ed
P s
201 6
Ġm ark
Ġprodu ct
Ġre ma
Ġcorrespon ding
Ġappro ach
Ġwith out
Ġconst ant
ur b
Ġexp ress
ĠE q
tab ular
re en
Ġm om
Ġcomple x
or ies
i i
per ature
3 5
is ed
cl ude
Ġline ar
) ;
Ġinv est
w ide
ol l
ver se
at ter
Ġcal cul
a ction
Ġs ize
Ġd eg
H e
ar m
Ġass oci
) =\
im um
Ġp op
Ġkn own
Ġte am
ĠR es
Ġd em
Ġpro f
Ġsu per
Ġcl os
} +
iv id
b it
z eta
7 5
g l
over n
e k
b le
E R
' t
n ect
Ġcom b
Ġreg ion
Ġimport ant
Ġal ong
ĠC l
\ {
Ġrespect ively
Ġex ist
Ġr ate
cl us
, âĢĿ
s ide
p d
Ġo cc
} ;
Ġw rit
ĠE x
C on
Ġ err
Ġpre vious
Ġl it
ot t
is on
n ew
3 3
Ġph ot
mat rix
Ġsign ific
Ġ& =
Ġa ver
an c
ĠThe orem
Ġph ase
et y
Ġto tal
pl ay
ou se
: //
al ax
Ġe as
9 0
m ber
) ^{
Ġd etail
re t
al k
w w
) }\
ab les
i ous
om en
} =\
201 5
\ ]
} ]
Ġad v
$ )
Ġ- -
Ġn ear
iqu e
Ġim pro
{ (
I f
st e
ĠP h
Ġo wn
om orph
Ġparamet er
ampl es
rac k
Ġpa ir
7 0
em ma
th m
Ġl oc
Ġres pon
Ġperform ance
st r
Ġpro of
9 9
feren ce
Ġ /
le ction
. ~
op e
Ġsy mmet
Ġc rit
8 0
Ġsystem s
Ġf ull
Ġt ru
Ġre f
us iness
s on
as k
Ġpro gram
Ġp ost
Ġne xt
Ġ( $
Ġfin ite
or th
c ur
~ ~
i um
u le
ĠP l
ĠT e
st yle
an ces
Ġ >
}^ \
p or
Ġind ic
}_ \
A R
T o
re g
it her
en ces
Ġm ap
se qu
cdot s
ou th
d raw
Ġ ide
Ġs ay
Ġf urther
st and
Ġtyp e
Ġtem perature
Ġg ame
Ġr andom
Ġapp lic
Ġph ys
ip le
ĠSe ction
ex p
E x
Ġpro ject
Ġw ant
olog ical
av ing
ic le
Ġt imes
{ {\
Ġh y
od y
ĠI s
in a
Ġapp ear
Ġsignific ant
Ġr ange
Ġl ess
e b
Ġf ree
Ġhig her
Ġcondition s
n ame
pl oy
A S
Ġpro p
Ġp ass
Ġagain st
201 4
Ġre se
w ays
ma x
Ġd ynam
Ġve ctor
Ġth ough
c os
Ġf ew
at ch
Ġl ight
ri es
ĠB ut
A T
Ġg row
P ro
Ġinit ial
m it
Ġch ange
Ġl ower
ĠĠĠĠ ĠĠ
} |
ĠâĢ Ķ
ir on
Ġse ver
Ġcall ed
Ġ el
ĠW h
Ġpos ition
}\ ,
ĠUn iversity
ail able
Ġm ot
^ +
0 5
b ack
Ġk e
ĠC ol
cc ess
Ġc ases
Ġa ction
h or
Ġ ver
imension al
s cal
h ing
Ġle ast
text width
Ġbet ter
}) \
u ps
od es
Ġd el
Ġbu il
t le
q quad
as ing
u ation
A l
Ġf ram
ob al
Ġcontro l
Ġch ang
o id
Ġper iod
ĠâĢ ĺ
Ġan other
Ġl ist
Ġre cent
Ġl aw
& =
Ġsever al
Ġre ce
wh ich
lem ma
le y
Ġm ov
Ġpl an
Ġl ength
ĠB y
Ġobserv ed
ge bra
math sf
Ġpos itive
at a
Ġtra ining
Ġ vers
Ġs it
Ġd on
Ġc our
I I
un der
( {\
Ġh ist
Ġstand ard
wide hat
4 8
Ġcor re
r and
Ġvi ew
Ġc ap
B y
Ġmom ent
ĠThe y
Ġmethod s
C h
er ing
, -
Ġ\ {
ĠA ll
Ġdif f
ir d
ĠFig ure
Ġp erson
ru ction
Ġprov ide
Ġwe ight
Ġqu est
Ġc lear
Ġp ublic
Ġp ur
0 1
j or
}^{ (
3 6
Ġconst ra
Ġg alax
ab l
Ġfam ily
Ġ| |
3 2
Ġfact or
b all
Ġb ro
Ġfeature s
col or
Ps i
Ġz ero
Ġser ies
oc us
Ġim age
ĠA t
201 3
x space
Ġh al
Ġpl ace
ĠA r
app ro
Ġcl ust
Ġcou pl
Ġab s
Ġcon f
Ġn ormal
Ġfre qu
Ġbel ow
du ct
Ġs k
Ġth ink
Ġn eg
ĠIn d
pp er
is ing
Ġth us
ĠThe se
s l
Ġl ay
Ġav ailable
ĠS he
Ġbeh av
b ased
Ġb re
Ġdef ine
Ġan g
s ing
Ġt urn
Ġcons ist
Ġquant um
Ġc ross
r at
}} (
ĠS u
ch ie
3 4
Ġv ol
c up
I N
ent ly
Ġpropert ies
ur y
Ġp ath
Ġprob ability
Ġ$ (\
og raph
te x
}\ \
c he
Ġg e
Ġl ife
un e
end ed
f oot
e xt
Ġfil m
us ic
s y
9 5
a im
ab ly
A N
Ġaver age
ĠA pp
Ġd ay
ord in
m id
ind ent
201 2
Ġf it
Ġme ans
Ġc ost
Ġo pp
Ġl oss
Ġev al
Ġb and
ly ing
oper ator
w ards
S S
oh n
Ġrad i
ĠThe re
] $
Ġg ive
Ġc y
Ġcomp ar
Ġor gan
Ġmult i
Ġl ines
on al
ill ion
Ġassoci ated
os p
Ġ& \
s in
t ic
v iron
ĠC ar
Ġanal y
ut ure
Ġpro posed
Ġse en
Ġex ists
or ld
Ġdescrib ed
3 1
cit et
o ber
ĠB l
em ber
) :
sc ript
sm all
pd f
ro up
g round
ĠM ore
ul ations
Ġch ild
Ġan n
Ġinde pendent
ĠL emma
Ġsim ple
Ġequ ival
Ġcon nect
Ġlear ning
Ġsp in
3 8
Ġf low
Ġg reat
er tain
ide red
ar c
equ iv
Ġh om
Ġsp e
Ġev ent
Ġh um
6 5
ĠJ an
Ġf ixed
e v
Ġw in
. "
Ġinv ol
Ġs em
rib utions
Ġassum e
Ġst ar
re am
sk ip
Ġcor rel
Ġcons idered
ub l
Ġc irc
Ġse par
Ġrel ations
id es
Ġex act
Ġs ide
ĠY ou
r is
ion al
n al
ĠM ay
n ow
Ġar g
id ence
ig en
Ġr at
d d
Ġsh ort
in o
l ing
pro p
C om
ul a
ch an
oc ial
t ime
th ough
Ġal ways
Ġacc ount
in ally
ore d
Ġin put
rib ut
em pt
O n
ĠB e
Ġa chie
Ġscal e
Ġdefin ition
Ġdi ag
h a
Ġl ik
Ġsur face
Ġn at
}} {\
Ġm ight
Ġare a
I D
ur s
} :
ĠS ince
Ġsour ce
a ut
en n
Ġhe ad
m ost
w ise
) ]
Ġf ocus
Ġis s
t il
ivid ual
r ist
end s
Ġto o
v ing
o pt
de fin
3 7
Ġsequ ence
201 1
201 0
Ġ )
um ent
Ġequation s
en c
pl ies
} +\
Ġfin al
i am
Ġdet ect
in ary
Ġe ither
ian ce
h space
Ġdat as
Ġg overn
operator name
' $
Ġs chool
Ġcol l
Ġsu gg
er y
19 7
Ġsugg est
el oc
Ã ©
âĢ Ķ
Ġn umer
Ġoper ator
ari ant
ĠC ent
) -
Ġdist ance
Ġtrans ition
Ġc are
Ġc over
ap e
Ġcon ver
ra ction
Ġl a
n eq
Ġsc he
ĠU S
Ġc ell
ec ess
lect ed
Ġs ample
ĠC O
Ġl ater
ial s
Ġb ook
feren ces
o ff
ib ility
t y
Ġv ia
4 4
read y
} -\
r im
Ġen c
Ġb usiness
Ġ- \
th s
Ġden ote
Ġac ross
) }{
ĠĠĠĠĠĠĠĠĠĠĠĠĠĠĠĠ ĠĠĠĠĠĠĠĠĠĠĠĠĠĠĠĠ
ĠG e
i ver
Ġh ome
es p
~ $
or der
Ġsu ccess
no indent
ple ment
| ^
Ġb i
arg et
ic ol
con t
Ġin clude
ĠS o
Ġv eloc
Ġst ep
Ġb o
ĠTh us
Ġerr or
Ġlarg er
scal e
ĠAmeric an
b b
Ġbound ary
umer ate
Ġexpect ed
$ }
Ġgiv es
ak en
l er
t op
e ad
Ġp ract
uss ian
Ġsol utions
ĠW ith
st it
Ġ '
ĠE u
e an
ĠS ec
d ag
Ġe mb
ĠC an
6 4
fl u
3 9
Ġse em
0 4
Ġat ta
as ter
en umerate
m p
Ġin s
st ar
the orem
Ġh ard
Ġl og
Ġle g
Ġs ens
5 5
Ġrel ated
Ġs omet
Ġrese arch
id d
v space
Ġw r
r ary
our s
Ġele ments
Ġinvest ig
Ġh app
Ġhe alth
ang u
Ġind ividual
iv en
) }$
Ġgo ing
0 8
Ġspec ial
] \
v ent
Ġal ready
Ġeffect s
ic y
item ize
er ve
e f
Ġacc ess
get her
Ġto gether
iv ing
Ġbl ack
Ġrequ ire
com es
p oint
tt ps
ed ge
ul es
200 9
Ġed ge
Ġw id
Ġvari ous
w it
d imensional
I C
Ġab le
Ġco e
con st
202 3
viron ment
Ġmet ric
0 2
Ġeffect ive
il ities
Ġam ong
c hes
Ġconstra int
Ġden ot
A C
a i
Ġhow ever
b r
Ġf ar
Ġma jor
Ġdom ain
Ġen ough
Ġele ment
Ġre ason
Ġn ode
f un
Ġde v
Ġem ploy
S p
ĠO r
0 6
Ġim plies
c le
Ġf uture
ĠM ar
Ġf ields
iz ing
Ġch ann
yp e
ĠN o
on t
Ġapp l
Ġcomm on
}} _
Ġthe refore
Ġest abl
ra p
sc r
igh b
Ġunder stand
p re
th at
Ġreg ular
ac y
Ġse ason
Ġconst ruct
Ġp ri
appro x
on ic
Ġcl ose
Ġt r
4 9
Ġn ecess
u ary
Ġs elf
ast ic
o oth
in ter
Ġmagn etic
w are
k et
Ġcomp any
ĠR ep
Ġs ays
0 7
n ote
Ġof ten
n ode
E S
0 3
m ore
mult icol
Ġ ill
O N
am il
Ġf ac
200 8
Ġb ig
I S
Ġc ertain
omorph ism
\ ,\
g ed
Ġacc ording
ĠC o
Ġpro te
rac y
Ġp ut
ne y
Ġ vert
Ġst ars
multicol umn
Ġdifferen ce
Ġcomp ared
ĠP ol
ĠM an
Ġen g
Ġ\ ;
ĠM ed
ult s
6 8
( -
Ġorig inal
Ġnot e
Ġo ld
Ġopt im
Ġw ave
ĠCom m
Ġal gebra
con om
Ġre view
ĠUn ited
ĠJ ohn
f ill
Ġset ting
ĠS te
U n
Ġwe ak
}} }
med i
com p
Ġbe come
^ -
Ġun it
P i
Ġspect rum
Ġp an
\ }$
ĠO ne
ab or
Ġlear n
ĉ Ċ
ĠN ational
um e
ide o
c hed
Ġim ages
Ġt aken
Ġme chan
o ch
6 7
Ġman ag
Ġstr ateg
mat ic
g en
oun g
4 7
ic ro
Ġpro ve
{ $
0 9
pp ed
Ġmat ter
Ġpre c
Ġear ly
if f
Ġg as
ran sp
Ġaddition al
Ġim plement
a f
Ġun til
Ġret urn
ho od
Ġgl obal
Ġf ig
pl us
z z
A L
tern al
Ġwe ek
Ġre ally
ĠC or
Ġ _{
n a
Ġcl aim
Ġw on
o or
Ġbel ie
Ġimpro ve
ac hes
Ġp ort
Ġde p
Ġpro m
Ġl abel
Ġrel ation
Ġset s
N N
Ġh olds
math scr
ar ies
Ġgro ups
Ġp ress
z e
ian s
ĠC ount
l ike
Ġcan not
if orm
Ġc ut
c ing
Ġexpl ain
Ġm ove
Ġmult iple
Ġt arget
Ġmat er
Ġoff ic
Ġcom e
au ge
at ively
Ġk ey
Ġwhe ther
Ġ\ |
) +
t i
Ġev olution
Ġh aving
ĠĠĠĠĠĠĠĠ ĠĠĠ
Ġtru e
ri ption
Ġs qu
ch ing
Ġveloc ity
Ġrepresent ation
O R
e red
Ġe p
Ġco ordin
ĠThe refore
Ġne ver
Ġestim ate
& &
Ġev ents
Ġpresent ed
Ġre pl
9 8
ĠO ct
ĠW hen
E D
Ġnat ural
ĠF ran
} '
line ar
Ġw ater
Ġcompon ents
a ctions
Ġgener ated
Ġe igen
Ġb egin
S ince
Ġbas is
text tt
comm and
re es
Ġspec ific
g ence
Ġcompon ent
Ġdeg ree
Ġcon v
Ġrequ ired
r ast
l in
ĠF eb
Ġre d
Ġtrans form
Ġn ame
A M
s plit
Ġpropert y
ĠA ug
Ġm aking
P S
200 7
or g
i res
Ġth ird
Ġthe orem
ight s
g n
ĠTh at
res h
ict ure
ĠW orld
Ġro le
Ġf ore
}^{ -
is k
y ing
C D
Ġd imension
Ġwh ose
Ġmark et
Ġd ou
Ġequ al
ress ion
Ġincre ase
ĠM in
Ġke ep
it or
oun ds
Ġc ateg
Ġne ut
ĠS ch
The ta
200 6
Ġpr im
ru le
Ġt reat
ri ed
h y
end ing
is ter
ĠT able
The n
r ated
al le
led ge
in ks
Ġr ather
l or
subset eq
Ġrat io
g o
ur ation
Ġgro und
Ġprovid ed
h ib
m ark
ra in
Ġm akes
) {\
Ġl and
Ġcontain s
on es
) ,\
Ġhum an
E N
og n
< \
un g
Ġcomple te
u ck
it ude
clus ion
t r
l i
Ġcommun ity
Ġro t
The re
ust om
text rm
Ġvari ables
Ġch all
pp ing
il es
Ġte xt
Ġeval u
9 7
ta ct
ĠG u
Ġm usic
Ġflu x
ĠA pr
yn om
Ġwork s
Ġal most
Ġf ive
ĠJan uary
Ġimp act
p ol
um bers
m s
Ġd one
Ġ$ |
}} _{
Ġmem bers
ic ult
s w
Ġche ck
Ġdire ction
Ġun ique
Ġ$\ {
under line
Ġne ighb
big g
ĠY ork
r ant
n d
Ġaut hor
u k
att ice
c ell
ct ors
6 6
Ġd ays
foot note
Ġsum m
th ing
al es
min us
Ġcontinu ous
Ġplay ers
ĠJ u
he ad
Ġlit tle
Ġw ar
Ġs ocial
ĠC al
iz es
Ġde cre
om an
e le
ĠA rt
d own
Ġhal f
_ +
ĠĠ ĠĊ
Ġdem on
Ġmax imum
angu age
ric es
ens or
Ġa way
il i
Ġprovid es
pro d
Ġquest ion
Ġsign al
8 5
us ed
Ġphys ical
Ġ( $\
A P
av es
f it
le x
Ġp ay
ta int
f ect
an ta
s elf
n ce
Ġre fer
Ġvers ion
ist ics
f ield
dag ger
ener al
Ġcomp os
Ġchang es
ĠM arch
Ġgalax ies
et er
ort s
ĠA ust
ac ed
Ġen vironment
M S
Ġv ac
um p
Ġcho ice
Ġf oot
) |
{ }
d i
op y
Ġcent ral
Ġpol it
Ġsc en
amil ton
Ġg re
Ġt aking
h t
ma p
ĠG a
es c
Ġcrit ical
ic it
cal l
Ġn am
Ġdevelop ment
ad a
Ġgovern ment
Ġge omet
Ġn uc
Ġbuil ding
n orm
Ġproblem s
b o
ĠN ote
Ġcomp et
ĠS chool
p ly
ĠEu rop
Ġfrequ ency
Ġwrit ten
Ġelect ron
Ġsmall er
Ġreport ed
ĠSt ate
Ġh ol
Ġcon cer
Ġso ft
^{ -\
ron t
t ical
ore s
Ġout put
ul ated
Ġp erm
ĠO ur
Ġg auge
Ġst ory
set minus
} /
Ġappl ied
Ġinter action
ew ork
Ġas k
ra g
Ġcour se
Ġbe comes
Ġdetail s
Ġobserv ations
f for
ul ly
om s
n ers
Re ferences
P h
Ġclos ed
n g
Ġup d
Ġp ast
Ġbehav ior
ce mber
Ġem ission
us h
4 6
ell ing
Ġprodu ction
Ġno ise
Ġsymmet ry
Ġsour ces
ĠP art
Ġar ch
Ġu pper
ear ch
ĠM e
k n
ru ary
cer taint
dis play
Ġdirect ly
V ert
ce ed
Ġt w
Ġindu st
Ġpri or
pt ember
ĠSt ates
Ġ$ -
Ġp riv
Ġinteg ral
l n
Ġrec ord
Ġcon text
Ġder iv
n ormal
ot ic
an a
Ġincre asing
Ġw omen
r ate
Ġexper ience
Ġ Â
ish ing
Ġoper ators
}} ,
Ġdiag ram
Ġdiff icult
C C
ove mber
st er
200 5
Ġequival ent
Ġh or
Ġstud ies
ĠM c
Ġserv ice
\ }
Ġdeterm ined
line width
w edge
* {
Ġallow s
o plus
u racy
Ġm illion
le ge
Ġwor ds
W hat
h am
t urb
oun ter
9 6
Ġhist ory
al y
Ġlead ing
Ġg en
f act
ell ar
ĠCh rist
I T
I R
Ġsm ooth
4 2
ĠĠĠĠĠĠĠĠ Ġ
Ġpol ynom
O S
Ġadd ress
ĠP a
g s
id s
ĠF rom
il it
Ġinde x
Ġam ount
N ote
Ġbl ock
d et
Ġf ail
Ġt ry
in os
Ġa ffect
4 3
us ion
_{ (
Ġinst ead
ĠJ une
, "
Ġ$ [
ans ion
Ġent ire
Ġval id
p ers
ĠC ity
Ġt akes
part ment
Ġro b
s ize
ĠA ss
Ġme et
Ġp ubl
Ġcount ry
Ġl ot
In t
ĠA g
Ġpop ulation
Ġpro ced
Ġwork ing
i ps
ren g
Ġwh y
Ġrel ative
v ant
Ġwr ite
ott om
Ġback ground
d ist
ob s
Ġcur ve
Ġsu fficient
ite ct
Ġhe nce
D e
y l
Ġcon fig
an ced
Ġse arch
Ġcorre ct
ĠS outh
Ġcomp act
it ing
Ġreg ions
Ġad j
Ġa ir
E C
Ġlik ely
one y
er ies
Ġfun d
il le
Ġpr inc
row n
20 00
Ġdemon str
a use
Ġth ings
Ġpartic les
Ġc ity
5 8
Ġform ula
ĠHe re
Ġpartic le
ĠA fter
Ġdatas et
sub figure
Ġn umbers
Ġcomple t
ĠS im
Ġdiscuss ed
$ _
Ġemb ed
ĠApr il
Ġv ir
os en
Ġs ense
Ġapproxim ation
\ '
Ġin fin
ĠM on
Ġchild ren
5 7
ĠM ark
ra ft
Ġin equ
{ $\
Ġgra v
Ġ( -
at s
ĠP ar
Ġc ode
Ġsomet hing
ĠCount y
Ġdis cre
alle l
Ġ #
Ġcoupl ing
Ġper turb
Ġon line
ĠQ u
ar iance
Ġact iv
Ġg ot
ĠL a
Ġon ce
al t
i ber
Ġs ent
Ġform er
Ġw ind
A A
Ġg rad
_ *
ĠR eg
ĠA b
Ġfe el
Ġconst ruction
ĠN e
d om
ut h
Ġa ge
Ġd raw
Ġde ath
re p
b ook
lim its
Ġstud ents
ar ily
)\ ,
Ġun iform
a ff
b ul
Ġconnect ed
ĠFeb ruary
_{ {\
ĠDe cember
Ġperform ed
our nal
ut es
Ġt ransp
Ġag re
ĠIn tern
Ġb ene
x y
s el
Ġ ut
Ġobject s
ĠOct ober
ĠSe ptember
Ġbound ed
Ġexpress ion
Ġf ri
ĠJu ly
Ġdynam ics
Ġs ix
Ġdom in
Ġ ess
Ġocc ur
ec ially
Ġs amples
Ġsh all
Ġg ames
Ġm ention
Ġother s
Ġpe ak
Ġver tex
g ing
200 4
Ġv ideo
ill s
and id
rop y
l ong
Ġpro t
Ġs ite
ou d
ĠH ar
te red
Ġinclud ed
ĠN ovember
ĠM a
Ġ |\
ĠW ar
B C
Ġun certaint
b re
He re
c ast
Ġexpl icit
Ġa x
ograph y
' ,
Ġintrodu ced
is es
at ic
oll ary
ĠW ill
Ġexperim ents
ĠAug ust
Ġmoment um
im ate
Ġapp ly
s up
ww w
Ġl at
Ġv an
riv ial
ĠS y
ve y
Ġ\ (
~ $\
_{ -
ĠE d
S h
O ur
Ġthe rm
er al
] ,
W hen
Ġc ustom
ag ue
ens ions
Ġpl ot
Ġus er
at ives
align ed
\! \!
5 6
at ory
Ġnumer ical
Ġt ask
Ġpat tern
Ġsy n
ot a
ĠR ec
col on
Ġcom es
,\ ,
4 1
l ight
er a
Ġcol umn
Ġsim ply
Ġmeasure d
Ġsub ject
Ġr ank
as hed
j ection
t ra
Ġcont ribution
Ġ }\
Ġl attice
7 7
Ġhy per
ari o
Ġspect ral
Ġma ps
Ġsub set
8 8
b ound
ĉĉ ĉĉ
ure d
Ġtyp es
b and
Ġneg ative
Ġc amp
. )
ic les
Ġill ust
Ġserv ices
Ġsp at
ĠF irst
Ġinter n
em ic
Ġcon duct
text sc
Ġam plit
p a
or ds
ĠB ar
on y
av y
ad d
] [
ĠH amilton
ĠA f
Ġclass ical
ĠB o
Ġinterest ing
ĠPro position
or ing
) }(
Ġt rack
Ġc ult
Ġto ol
Ġwho le
Ġb ar
Ġin flu
Ġbro ad
Ġex pon
Ġreg ard
Ġin c
Ġfram ework
E E
Ġcon ne
Ġsim ulations
ort un
ĠT ra
Ġmot ion
Ġsche me
Ġst reng
defin ition
Ġ ir
}} (\
ove red
Ġopt imal
Ġar bit
ĠEn g
m ing
Ġpol icy
Ġit er
Ġb ran
Ġpol ar
ĠN orth
Ġcent er
Ġlead s
Ġacc uracy
ri er
ĠP er
ir l
Ġneed s
Ġde ep
.~ (\
Ġchann el
Ġc os
ĠI I
ict ion
Ġe conom
ab s
k ing
is c
ffic ients
P R
Ġann oun
y mmet
U S
re et
Ġcont ent
" ,
ar ing
Ġy et
ag ing
her s
Ġto ok
per p
sub subsection
ĠM od
N ow
Ġh ost
W ith
ĠN ot
ym pt
Ġqu ality
id ed
Ġradi us
Ġj o
Ġresult ing
Ġcompar ison
ĠW hat
ens ive
Ġvari able
Ġm iss
g ra
Ġneed ed
Ġl ink
Ġy oung
g ress
esp ecially
Ġlay er
A t
ĠP r
) _{
Ġm er
end ix
M C
kn own
Ġch arge
Ġcomp an
b ur
da pt
Ġnecess ary
n ov
Ġeas y
Ġsatisf ies
Ġvi ol
Ġmechan ism
b um
O ne
st ate
c an
Ġin f
Ġinst ance
' \
ĠP res
E q
Ġpartic ip
6 9
Ġlit er
Ġch ain
Ġd iv
Ġs ong
F T
it es
our ce
Ġknow ledge
Ġ+ \
Ġwid th
Ġed uc
el ine
W h
} %
Ġl ove
Ġ&= &
Ġp ack
Ġspe ed
ĠH ence
S u
ribut ed
ĠNew s
Ġcho ose
) ^{\
Ġdec ay
5 00
Ġm ar
h om
Ġl inks
' _
Ġmeasure ments
Ġd oc
A G
$ ^{-
}$ -
Ġpres ence
An d
se mb
b ut
Ġch arg
Ġder ived
Ġman if
ren ce
Ġgrow th
ri ve
Ġnetwork s
Ġtrans fer
f rom
Ġlevel s
sim eq
) /
t rans
Ġb ody
r r
Ġca pt
Ġb ase
for all
o ps
Ġact ually
Ġh yp
Ġrespon se
n s
Ġ: =
u x
Ġb ir
Ġmed ia
ĠD i
Ġcorrel ation
F rom
d eg
o cal
ber g
Ġnew s
Ġconsist ent
m on
R es
dition al
Ġus ers
Ġmin imum
Ġvert ices
ĠRe f
Ġrespon s
Ġd ark
] .
Ġclust er
Ġde al
t in
sp ect
en ing
Ġto day
Ġexp ansion
ig ital
ĠG l
M ore
Ġcalcul ated
k en
Ġcorrespon ds
le vel
ĠA m
) ^{-
Ġdevelop ed
Ġcommun ic
Ġcol or
A d
Ġc andid
Ġmin im
Ġbre ak
enc ies
Ġadd ed
H owever
ĠP e
: \
he l
200 3
Ġf raction
ch ange
rodu ction
Ġcorrespon d
Ġs eg
p ri
Ġits elf
de pendent
Ġeas ily
Ġredu ced
Ġsim pl
8 7
m et
d ro
Ġh old
Ġide a
Ġ ensure
\ _
Ġpan el
Ġfact ors
l ier
Ġsc atter
ur ch
Ġl anguage
Ġr isk
a e
Ġmod e
Ġapplic ation
Fig ure
Ġf all
Ġpl ane
Ġper cent
Ġinclud es
Ġ _
urther more
ĠE l
Ġrec ogn
5 9
N ew
Ġstud ied
ĠG o
k y
Ġprocess es
Ġassum ption
Ġcoe fficients
$ ).
ec ause
Ġm en
ĠSt ud
ĠB rit
av or
at form
Ġf ace
st o
Ġprof ess
C O
}^ *
Ġqu ite
Ġt it
p e
Ġrema ins
Ġatta ck
Ġ especially
Ġwe bs
f lo
er c
gl ish
sp ec
ĠMore over
Ġex ec
ĠG erm
Ġus es
Ġre ach
Ġcon sequ
Ġres id
ĠM y
= (
Ġal tern
Ġh ouse
Ġproduct s
Ġd im
Ġfig ure
new command
= -
Ġgo al
Ġk ind
Ġch osen
bl ack
Ġconstraint s
k er
A B
in v
Ġn odes
cl ass
ous ly
bul let
L E
5 4
oc ks
te e
Ġexperim ental
ĠD o
Ġc ame
5 2
Ġcomp ute
Ġre ve
n ed
and s
D E
Ġpart s
ĠW est
ĠS m
ie f
N et
Ġcon tact
ĠCom p
Ġrele vant
our ces
Ġdet ection
ĠN ow
) }{\
Ġclass es
Ġaut om
y ear
ĠAust ral
Ġm is
$ $\
Ġb it
Ġtrans l
p ng
a ult
Ġapplic ations
Ġs low
ill ed
Ġscal ar
^{ +
c ame
Ġident ify
le ase
Ġp ers
Ġexperim ent
ons ider
}} ^
Ġst ra
is ation
ĠD av
Ġdeterm ine
a res
for d
z ero
ar a
Ġst e
= {
Ġexact ly
Ġt ree
Ġfor ce
V ID
Ġp ref
ĠWh ile
n es
i ency
c ases
Ġd ual
I M
iz on
ĠP ark
Ġfor ward
Ġiss ue
p matrix
iqu es
Ġr ates
pp ose
Ġvol ume
6 3
og ene
C l
Ġproced ure
Ġm ess
e V
ric e
Ġn orm
con s
el er
Ġs w
Ġbe came
tt p
com ing
Ġess ential
ol ic
cc ording
Ġuse ful
Ġdist ributions
Ġon es
am a
is ions
Ġcre ate
il ib
5 3
Ġarch itect
Ġstructure s
5 1
u ed
h ttps
Ġsim ulation
Ġrecent ly
Ġ row
Ġrece ived
ow s
Ġa dapt
c i
Ġspect ra
Ġdepend ence
Ġe ver
Ġiss ues
Ġdenot es
res ents
Ġcur ves
Ġex amples
Ġrequ ires
Ġ= \
Ġim medi
d t
Ġed ges
os ed
Ġa im
d o
Ġt able
7 8
Ġa rm
ou l
Ġd r
Ġf ully
Ġprodu ced
Ġdescrib e
Ġsignificant ly
Ġg ain
mod el
Ġinequ ality
Ġart icle
Ġmater ial
Ġstart ed
Ġe ffor
)\ \
Ġn ov
iz ations
Ġpat ients
Ġac cept
Ġinv ariant
Ġpro per
H E
$ (
Ġst eps
ve x
in ct
e ff
ĠR o
ĠC he
em ents
Ġs ure
Ġcon cept
Ġto wards
Ġav oid
Ġb ox
ran ge
ste in
ag ed
Ġst ation
u ations
.. ..
Ġl ive
as ks
Ġqu as
ber t
Ġform ation
Ġpress ure
Ġmod es
p c
Ġincre ases
ĉĉ ĉ
Ġm icro
ect or
Ġres olution
Ġchall eng
S o
Ġd riv
Ġdepend s
Ġn ight
Ġst age
display style
Ġass ign
} )$.
en ed
ĠRes earch
Ġstrateg y
Ġm ach
Ġatt ention
oun c
Ġcont rast
Ġs plit
Ġin side
r s
Ġtechn ology
200 2
Ġt ensor
r ig
Ġlong er
Ġn ature
6 2
Ġa ud
ĠS erv
Ġsh ape
ap an
Ġare as
Ġe mer
v ision
H ow
Ġrest rict
)$ -
el i
Ġopp ortun
m y
ĠHe alth
Ġb eg
Ġout side
Th us
Ġl atter
Ġloc ated
am s
S O
Ġb all
u ra
Ġst ellar
ond on
Ġindust ry
Ġintrodu ce
end er
Ġev idence
Ġang le
d im
st ack
Ġfin ding
A D
re w
E T
ul s
Ġtreat ment
ĠA ct
L e
Ġsp aces
u ff
g roup
) _
Ġmon ths
idd le
ĠGa ussian
Ġorig in
Ġrem ov
Ġsl ight
Ġal bum
Ġad opt
9 4
Ġappro aches
omorph ic
s ol
) {
Ġbl ue
hi ps
Ġrep resents
et h
p ort
ĠB ro
Ġspat ial
A ll
" .
Ġc ry
ub e
Ġdid n
Ġsupport ed
Ġf ood
Ġalgorithm s
sel ves
ilib ri
i os
ĠH ow
Ġlim ited
Ġor b
ĠAf ric
Ġse cur
rat ic
b in
h ors
Ġthough t
Ġseem s
rem ark
Ġext ended
Ġinter actions
Ġcon sum
um ents
Ġor d
map sto
Ġover all
Ġw ord
ĠH is
Ġestim ated
par amet
Ġcont ract
S im
Ġconf ir
od ot
S P
anc ial
Ġsymmet ric
9 3
it z
ad s
P l
ar an
Ġdec ision
Ġrele ased
Ġthe ore
ds h
Ġplay ed
Ġup on
Ġcomput ed
D F
L L
Ġatt empt
Ġsh are
pt ions
Ġc ore
n eg
Ġa ff
Ġs us
ĠM et
Ġcre ated
ĠH ouse
_ -
h box
Ġs ampl
ot hes
ĠD ist
ac ity
app ing
Ġus ually
}} ^{
ma il
ĠCent er
ma in
Ġbuil t
ĠH igh
ĠHamilton ian
B ut
Ġan sw
Ġsing ular
Ġmat rices
Ġqu ark
Ġpubl ished
Ġpop ular
Ġext ract
$ ;
Ġgalax y
6 1
Ġt alk
m ission
Ġf ront
Ġlook ing
Ġ ~
ounc il
The orem
Ġhe ld
Ġth ing
Ġb ring
t ri
Ġas ympt
d x
Ġident ity
Ġsuccess ful
v is
Y ou
Ġm ole
n t
Ġmem ber
Ġn ational
ab ilities
Ġappro pri
Ġt ell
Ġre ference
Ġex hib
mult i
ern el
Ġpl atform
Ġde com
Ġprop ag
al g
ot ed
ing u
ĠF e
oci ety
cl es
Ġl ate
Ġagre ement
Ġsit uation
\| _{
Ġopt ical
pl ace
Ġcomm it
Ġdou ble
Ġwh ite
Ġbeh ind
g raph
200 1
Ġd ed
Ġf ast
Ġstart ing
\ {\
ĠM ich
Ġr ule
Ġy ields
c ular
t ype
Ġachie ve
Ġqu ick
Ġstat ement
Ġarbit rary
ce ption
i ences
Ġestim ates
u el
de red
f ree
a ugh
us es
un ch
Ġse lected
Ġspec ies
Ġeigen val
$ ~
Ġen h
Ġexist ence
ĠCh ar
pro b
c ks
a int
ĠIntern ational
he st
ĠK ing
Ġperson al
Ġth resh
}( {\
Ġrad io
Ġsol id
\ "
Ġdiscuss ion
in f
v an
The se
Ġh ot
Ġo p
Ġm oney
Ġqu ad
Ġst ri
Ġaut hors
c r
Ġ$ $
C S
9 2
an ks
ri ent
m es
Ġcompan ies
min ist
Ġappear s
Ġb ul
pro position
Ġal though
A pp
Ġt ax
Ġpair s
fun ction
h bar
now led
b old
Ġb in
O T
t ik
ĠPres ident
pro du
ar p
Ġper fect
stit ute
Ġstra ight
Ġe ffic
ĠInd ia
Ġmeasure ment
Ġloc ation
Ġw ent
Ġrema in
de ed
it able
Ġfoot ball
Ġd est
Ġcos m
c ulation
ma gn
Ġpolynom ial
Ġtra vel
Ġmon th
Ġeng ine
Ġdis k
ilibri um
o e
Ġwebs ite
Ġarg ument
Ġst able
' }
ĠS an
à ¤
p ret
Ġsecur ity
' (
Ġh ours
N R
Ġdoes n
Ġe fficient
Ġcont ributions
ĠH ol
Ġc at
Ġsy mbol
| _{
Ġfe ed
om b
' )
ĠL aw
Ġobs erve
Ġprof ile
Ġtransp ort
ĠCol lege
ĠE ar
Ġestabl ished
Ġpart ition
Ġc r
S U
Ġembed ding
&= &
Ġanal og
Ġw alk
Ġfl at
Ġlarg est
m ma
Ġtrans formation
Ġim m
Ġconver gence
Ġb r
Ġto ld
ĠH er
Ġscatter ing
Ġbel ong
Ġmass es
ĠAmeric a
es e
Ġclass ification
ĠL ondon
ad ing
Ġabs or
) +\
m c
Ġmat ch
p ose
Ġprodu ce
ĠEn glish
ener g
Ġp o
Ġre dsh
ĠP at
Ġredu ce
ĠĠĠĠ Ċ
o on
R E
ell ow
Ġcons ists
b i
am ental
Ġcomp are
m ass
erv ed
amp ions
Ġrun ning
ĠS w
ĠO f
Ġl um
ut ive
ĠIn t
8 9
ag raph
Ġex am
sc ill
ac ing
Ġbe y
P T
Ġcol lection
rid ge
ir al
P C
B e
Ġplay er
d ed
Ġdesc ription
Ġbey ond
Ġident ified
Ġdesign ed
Ġs ound
Ġvis it
Ġcateg ory
Ġpract ice
um b
ĠV al
Ġerr ors
Ġcomput ation
Ġal ign
Ġact ive
ĠCon t
Ġhigh ly
tik z
Ġfram e
ĠBl ack
Ġallow ed
Ġform s
} &
f low
Ġbas ic
Ġcontin ue
ĠR ed
Ġtechn iques
a ign
Ġsqu are
}{ |
Ġcom ing
Ġres on
Ġr ules
8 6
Ġ ...
7 2
Ġdo ing
Ġve h
H z
m ical
Ġcol lect
Ġw ays
p icture
Ġ *
Ġe y
ri ef
ĠS ta
b on
if ically
S ee
Ġve ctors
L S
Ġapp e
Ġmem ory
ad es
Ġcare er
ĠM or
Ġmeasure s
ĠD em
Ġinvol ved
os ing
Ġcontro ll
Ġp ure
i et
ĠSc ience
Ġcomplet ely
Ġquest ions
G C
us ing
Ġm orph
- $
L P
) }_{
Ġthrough out
Ġconne ction
ĠCO VID
rib ute
Ġbelie ve
Ġm ix
Ġmention ed
b ody
Ġan t
Ġoper ations
Ġacc ur
r ons
w ar
Ġex cit
Ġclear ly
Ġshow ed
Ġreg ime
Ġc ru
Ġincre ased
Ġin sp
Ġprote ct
7 6
c ation
}$ )
ot o
Ġcon cent
Â ł
L O
S c
Ġo scill
ro ll
199 8
oc ol
N ot
is hes
ĠP o
Ġsatisf y
) -\
ĠW ork
} }$,
Ġear lier
el t
od ing
Ġgener ally
ĠJ apan
as ons
}{ (
Ġmean ing
Ġse lection
$ ),
} }$.
an cy
} )$,
Ġpredict ion
d en
ic ity
ire ct
Ġv s
Ġexp and
ĠA ir
ing ton
Ġext ension
ĠAn g
if orn
Ġvis ual
S C
se ud
Ġcomb ination
M R
Ġassum ed
) },
Ġh ttps
Ġstr ing
ist ical
i us
Ġamplit ude
Ġh it
Ġm ag
Ġbu ild
8 4
ec k
ĠC our
Ġro und
ud es
Ġoff er
Ġcoordin ates
Ġb al
Ġliter ature
Ġl ed
Ġse lect
ĠA c
Ġcell s
ĠF in
Ġcalcul ations
h and
A fter
Ġrele ase
: }
Ġvari ety
Ġag o
est s
c ref
Ġc ounter
Ġqu al
Ġto wn
E M
ip age
Ġext ra
) )$
Ġdifferent ial
A r
c ong
Ġform al
Ġp hen
min ipage
ress ed
a j
Ġmagn itude
Int roduction
ĠDe partment
3 00
Ġ$ |\
Ġconfig uration
Ġprevious ly
Ġm id
Ġprim ary
a el
) }}
7 9
ter m
ĠĠĠĠĠĠĠĠ ĠĠ
it ely
Ġpa rent
Ġstreng th
pl es
Ġinter val
Ġnuc le
Ġelect ric
Ġrelations hip
Ġb ur
iforn ia
og le
Ġ\ &
ib ly
Ġre comm
w ell
Ġl ack
o ph
att le
ĠG roup
Ġexist ing
ac hed
Ġclust ers
erv ation
' re
Ġl if
Ġflu ct
Ġst yle
Ġc le
Ġw ide
ĠT V
Ġin ner
Ġindu ced
D A
Ġhor izon
Ġbeg an
Ġsc ore
ĠT rans
S M
Ġcal culation
qu e
Ġgener ation
ĠAss oci
p id
,\ \
Ġw a
ogene ous
ĠD r
Ġbehav i
Ġgre ater
Ġdist inct
Ġo rient
ĠU K
Ġadv anta
Ġsa f
Ġobserv ation
Ġk in
[ (
it er
Ġc am
Ġmanag ement
ĠS ub
in i
om ic
ĠCh ina
em s
ĠG reen
Ġun its
Ġmain tain
Ġw all
ify ing
over y
Ġgener ate
Ġde vi
Ġf ix
ren ch
Ġget ting
Ġcon clude
Ġabs ol
Ġ ult
Ġr ing
ist ory
if feren
ĠTe chn
ant ic
~~ ~~
com ple
ay er
Ġdetail ed
Ġhe art
Ġnot ation
. $
Ġnov el
y a
Ġtheore tical
ĠO ff
Ġmin imal
n et
ĠF l
Ġtra in
ed om
I s
i en
9 1
om in
ĠĠĠĠĠĠĠĠ ĠĠĠĠĠĠĠ
per im
Ġth ick
u it
Ġpolit ical
Ġass ess
Ġcurrent ly
op ic
Ġredu ction
ar ter
Ġdifferen ces
Ġt re
Ġac qu
Ġacc om
8 3
Ġg ap
The refore
Ġp ick
Ġappropri ate
j oy
7 4
a rent
ĠS ur
ill ing
Ġan ti
Ġ[ \
7 3
Ġstrong ly
Ġpol y
Ġide al
Ġbe am
Ġoper ation
er g
Ġrel atively
Ġv ary
th is
Ġb inary
Ġdis play
Ġt rac
ĠSp ec
ro s
ie ce
lo cal
ul ate
Ġrepresent ed
S e
8 2
Ġte le
Ġw atch
Ġrem ark
Ġ energ
ro t
Ġslight ly
Ġtherm al
Ġdis e
v ille
Ġc ov
omet ric
Ġp age
Ġex cept
Ġreve al
I F
es tern
ĠS en
199 9
Ġ @
m ann
Ġgrad ient
er ia
ĠSt reet
he ight
\ ;
Ġst ream
Ġt asks
F inally
Ġuncertaint y
col umn
ell i
Ġoptim ization
ilit ary
I G
Ġthresh old
Ġannoun ced
Ġgraph s
Ġrep e
i able
r d
es ign
n y
$ {\
ĠWill iam
Ġun ivers
de x
Ġdoc ument
Ġconsider ing
Ġ %
Ġseg ment
Ġnam ed
ĠRep ublic
ĠBrit ish
ĠF inally
Ġre const
ma z
un ic
am ent
}\ ,\
ro l
Ġfollow ed
for ce
Ġfunction al
B S
D M
Ġde cl
Ġhig hest
ĠM at
Ġscal ing
it ivity
ric k
Ġb ottom
Ġmass ive
Ġab ility
Ġlead ers
C P
Ġd ate
wo od
se ct
Ġinteg er
k a
t frac
Ġsub st
ĠEurop ean
en ch
an i
Ġas pect
Ġscal es
ex ample
Ġtyp ical
Ġet c
Ġl ost
ir ing
] }
Ġwor th
Ġparticular ly
t un
Ġb ad
ĠB ay
Ġj oint
Ġj ob
S ec
ab il
en ge
Ġpar allel
Ġcoe fficient
Ġpart y
] {\
Ġrema ining
Ġunderstand ing
Ġtra ject
Ġinter pret
Ġintern ational
Ġexpon ential
Ġlay ers
Ġob vious
wit ter
Ġpriv ate
Ġact ivity
u ge
Ġsub sequ
$ :
Ġm es
rum p
ĠA ut
Ġneighb or
Ġprop ort
ri z
199 7
al ysis
Ġt or
cc cc
Ġf air
ĠCal ifornia
O M
ed eral
Ġhist or
al og
Ġhe avy
Ġprov ed
s ur
Ġd ro
ĠA rm
b a
N o
Ġg reen
ur ity
Ġco ol
Ġvir t
$ _{
N A
Ġhy dro
Ġdim ensions
Ġgo es
Ġcirc le
ip al
ul i
ol ar
M od
Ġfund amental
8 1
199 6
C H
^* $
ĠJ ust
ĠD is
] $.
Ġor th
ollow ing
Ġc red
Ġs il
Wh ile
Ġcy cle
Ġm ind
Ġst aff
Ġdiscre te
Ġ$ {
Ġang ular
ĠG overn
ĠD ay
Ġb rand
w a
v ol
b el
Ġex c
Ġother wise
Ġh arm
Ġro om
, {\
Ġdatas ets
[ -
o ice
Ġg rid
Ġh ope
Ġexpress ed
h al
Ġk ernel
Ġh ole
ĠIn ter
di ag
Ġinfin ite
N e
ĠS ome
Ġsh ift
her n
ĠAl so
F irst
Ġeffic iency
ĠH ig
Ġthem selves
g u
Ġlum inos
l ig
ak er
Ġnear ly
Ġhyp othes
Ġdep th
Ġp rice
m iss
Ġent ropy
bl ue
pt o
Ġdecom position
Ġax is
ok e
T S
Ġsoft ware
F e
ist ry
Ġrot ation
ĠF urthermore
Ġindic ates
p ir
Ġcount ries
ĠS M
ilar ly
Ġprob ably
Ġin j
or ge
Ġw oman
id a
Ġphen omen
Ġacc eler
Ġst ay
ra b
, $
| }{
ĠDav id
Ex ternal
= "
Ġs ector
Ġcomplex ity
Ġeval uation
c at
i verse
Ġex ternal
00 00
Ġdenot ed
Ġh on
Ġsc reen
em ark
Ġcamp aign
d frac
d y
Ġscen ario
Ġtra ined
ĠO ther
Ġfin ancial
k i
Ġcon vex
Ġapproxim ately
big l
Ġgu aran
Ġse x
Ġim ag
Ġext rem
ob ile
Ġca use
od er
lo ad
,\ ,\
script style
ĠU sing
7 1
B l
Ġ Ð
ic a
on ical
Ġeduc ation
p g
I P
Ġf erm
ĠInd ian
;\ ;\
\ }$.
land s
iv il
ri an
Ġel se
Ġep is
Ġpur pose
\ )
) )\
b t
Ġcl ub
Ġrob ust
osp ital
Ġ ion
Ġb und
G B
U sing
Ġin cor
Ġt un
Ġgrav it
ĠIn stitute
Ġsatisf ying
bra ce
u il
script size
ĠCan ada
Ġut il
big r
Ġb right
v ature
Ġon to
Ġ â
Ġf ire
k es
Ġsol ve
Ġcontain ing
Ġlo op
Ġd igital
Ġcomb ined
Ġso on
Ġref lect
r as
Ġle mma
et ime
U R
ĠD ec
Ġg irl
Ġget s
ac c
ĠC a
Ġb ounds
Ġc ard
Ġb os
ri e
clus ions
] $,
Ġpro gress
c ase
Ġinter nal
the n
Ġask ed
Ġsur v
m as
Ġt ren
S I
s at
t wo
ifferen t
ition s
ĠC ouncil
k in
| -
Ġd am
Ã ¡
: =
Ġ\ !
flo or
Ġlim its
}} _{\
T e
Ġconstruct ed
E n
Ġhe ight
olog ies
ĠLe ague
Ġass ist
ut ation
Ġro ad
ĠO ut
Ġm or
Ġestabl ish
Ġmach ine
Ġright s
Ġphys ics
h ol
f aces
Ġrun s
Ġimmedi ately
ĠL ie
ĠE ach
Ġ\ ]
Ġtit le
Ġwrit ing
Ġf em
Ġen joy
Ġcalcul ate
less sim
he rent
le ment
Ġindic ate
re me
ĠF ound
ck nowled
Ġinflu ence
Ġres ources
ag ement
ĠP re
Ġf ine
Ġmov ing
ĠG od
ĠS T
Ġneut r
Ġra pid
idd en
Ġar riv
av el
ic o
Ġpol ice
Ġsu ff
Ġbene f
^{ *
}} )
ĠS at
Ġ& &
re qu
Ġus ual
Ġe ight
Ġv ict
Ġdem and
) --
I V
}[ \
$ &
ĠĠĠĠĠĠĠĠ ĠĠĠĠ
ĠRe view
Ġtest ing
ĠH all
p ath
ĠP al
Ġnot hing
Ġag ent
ys et
S ch
Ġfin ally
i ant
circ le
Ġmulti plic
4 00
Ġp en
Ġa ctions
Ġachie ved
N ext
v ised
Ġpart ial
ail y
Ġopp os
Ġmod ern
ĠV ir
C M
D P
u um
Ġd ust
i h
am ily
al gorithm
Ġcour t
ib rary
Ġplay ing
B A
Ġequ ilibrium
Ġrepresent ations
re al
Ġ rac
ĠL ag
Ġb rief
ro un
Ġse ctions
s uch
S E
Ġb orn
Ġl iving
b ran
ĠW il
Ġoff ice
Ġgeomet ry
for ward
Ġpres ident
b matrix
rel ated
Ġ ;
Ġsp read
Ġestim ation
empt yset
Ġr ise
Ġtyp ically
Ġtem por
Ġweight s
Ġmin utes
g ent
id ing
C ol
d ata
Ġcoll abor
Ġo dd
}} }\
Ġv ot
Ġf ight
Ġis omorphism
ĠG eneral
Ġsur pr
e es
wh ile
Ġshow ing
Ġcon vers
Ġc ele
Ġre call
Ġwork ed
][ ]{
Ġt en
ĠB el
math op
c d
ĠPro gram
Ġinter act
Ġprovid ing
ĠSu per
Ġsit es
Ġp ix
b ed
r un
Ġpro jection
use um
e ks
defin ed
o o
Ġcom ment
u fact
}) =
on a
che ck
ĠM al
j oint
ra z
ri ver
Ġstat istical
Ġnot ed
Ġgiv ing
s qu
he mat
S F
ĠE ast
Ġcommunic ation
ens ities
Ġcoordin ate
Ġinde ed
}) }
ash ington
Ġin fl
Q u
h an
Ġj ud
Ġsumm ar
ing er
Ġs aw
ĠG al
Ġevalu ate
| |
is ely
Ġfilm s
Ġbegin ning
Ġst rict
Ġpredict ed
le g
Ġst ress
Ġenerg ies
Ġres ol
Ġoff ers
pos es
v est
y r
mit ted
.. .,
{ {
if ts
Ġfam il
Ġsur vey
ĠCour t
z a
x x
ĠAs sum
long rightarrow
ve e
ap ers
ap ter
Ġhe at
Ġdev ice
Ġconst it
Ġansw er
Ġevery thing
form al
Ġsem i
n el
$ };
M M
Ġc m
P P
Ġarchitect ure
Ġ$ .
ĠAl though
a ur
ĠApp endix
ĠTh om
Ġle ave
I ON
Ġin verse
Ġv ill
199 5
ha ps
Ġor bit
Ġinteg ration
Ġsol ar
Ġtechn ique
Ġex change
ĠY ear
C o
Ġvac c
Ġsufficient ly
ph ant
Ġtry ing
Ġst op
ro sc
g ener
st on
Ġf ir
Ġs on
}} .
Ġvari ation
ĠD an
ĠAustral ia
Ġwhere as
as c
C T
Ġredsh ift
g a
ĠI R
E O
il s
Ġcon j
ject ive
Ġdepend ing
Ġf ather
Ġaltern ative
al se
Ġab und
Ġne ural
Ġim plic
Ġfri end
S R
Ġf avor
ĠB est
et her
}) ^
ĠEurop e
Ġcap acity
ĠE v
Ġteam s
ĠB ook
Ġst ability
A b
al gebra
Ġp seud
and er
Ġcontain ed
Ġrepl ace
Ġdetect ed
C A
Ġtra ditional
w in
Ġsc ient
Ġsyn the
Ġfamil ies
Ġdist ributed
ĠR uss
Ġcharacter istic
ste ad
i ota
Ġmax im
Ġp icture
Ġk m
Ġgra du
Ġocc urs
15 0
par agraph
ro te
Ġbe aut
ĠSy stem
an o
Ġdiag onal
Ġposition s
Ġm other
) }_
Ġfor ces
ĠM r
ĠEng land
Ġtra de
Ġa ward
Ġmanif old
Ġfre edom
Ġinterest ed
res ults
A meric
Ġcl oud
un ction
Ġpredict ions
} ~
cre t
ĠPro f
ĠP ost
och astic
ĠD ata
P r
s ch
Ġhim self
Ġthan k
Ġbi as
cont in
C or
pos s
Ġa mb
Ġany thing
Ġchann els
Ġrel ax
Ġmed ical
Ġform ed
ĠL eg
Ġsc ience
su per
oun tain
tin y
ĠF rench
pt on
Ġdeg rees
Ġto ur
Ġ ^
Ġmot iv
Ġassum ptions
ĠV ol
Ġnam ely
ĠP ort
}} ^{\
Ġ$ ,
| }
Ġ( {\
Ġprinc iple
-- --
act ic
Ġcharact ers
ph ys
Ġpart ners
Ġbo ard
Ġocc up
S te
ĠA re
Ġphot on
IN G
v ention
Ġapp lying
Ġ\ (\
pl ot
t rivial
ĠJ ames
if ies
Ġsampl ing
Ġconsequ ence
rough t
Ġlat est
sk i
Ġ{ $
Ġradi ation
N D
ag s
}_{ -
ar se
Ġg ave
t em
Ġd ra
br as
Ġact ual
Ġdev ices
sy stem
ĠPl an
k m
ri al
Ġfri ends
Ġnuc lear
L A
c f
Ġimplement ation
Ġaccur ate
Ġexplain ed
it a
ĠR ober
ve ct
ch ang
Ġ es
ĠO b
ĠM art
Ġmax imal
ĠC ap
um an
Ġth reat
S ection
Ġ ^{
Ġsome one
Ġd ivid
n am
ĠJ ack
r ich
Ġsy ste
ĠA G
Ġp ull
Ġread ing
ĠUn der
ag o
Ġquick ly
Ġt im
b orn
}$ }
Ġca used
+ (
it ative
w rit
Ġasympt otic
ol f
Ġluminos ity
err or
Ġcon ven
U T
Ġcur vature
ĠIn deed
Ġunder lying
avel ength
Ġro ot
ĠT ex
Ġpro ceed
Ġadvanta ge
Ġleg al
T hat
Ġnon linear
Ġm arg
ĠCl ass
Ġcar ry
ĠD ire
D S
Ġpre vent
ĠR ich
Ġderiv ative
ed y
Ġdis pers
Ġtop ological
ĠB er
}} =
we ight
ge bras
Ġev ol
ĠAn n
ĠWh ite
Ġdi ver
c ial
I m
S ub
Ġt rivial
Ġmater ials
em y
Ġconst ants
\ }\
l ength
Ġche mical
Ġco inc
Ġstud ent
Ġelect ro
Ġcent ury
199 0
Ġevery one
Ġm iddle
Ġactiv ities
Ġwant ed
Ġcandid ate
r or
ĠDist rict
magn etic
Ġra ce
1 000
sh ip
column width
ut ing
Ġst ated
ru g
ĠF il
i ra
Ġro ugh
Ġplan et
Ġ }{
Ġis n
s is
Ġcomput ational
Ġtool s
ru st
is l
Ġde ad
multi row
cal led
ta ge
Ġsaf ety
m osp
ĠG ra
un t
Ġl ives
S et
ou rier
ot ion
ar r
Ġwe eks
s he
Ð ¾
Ġdist ingu
ach ing
Ġcomput er
iz er
Ġrad ial
Ġm apping
Ġatt ract
Ġder ive
Ġe q
Pro of
F L
figure s
Ġimport ance
/ (
aw a
ess ion
r ical
ch o
Ġmod ule
Ġsepar ate
ĠR ob
S L
M A
\ }$,
he ta
P A
R O
ĠE du
Ġdise ase
Ġsh ared
Ġcou ple
Ġs wit
ĠFound ation
sl ash
ĠO ver
ĠAr ch
Ġindividual s
v art
re ct
ĠS eries
in ated
Ġinvestig ate
av en
199 4
ĠPa ul
H S
Ġproject s
g est
Ġconv ention
ĠW ashington
Ġprogram s
Ġgeneral ized
ĠGe V
ĠY our
ĠK e
ĠB i
P e
Ġthe ories
Ġfil ter
oc ation
Ġdynam ical
go ing
St ate
Ġt ro
ann ed
& =\
Ġprop ose
m ar
air s
ĠE m
ĠT rump
Ġsuggest s
ĠS un
int eg
ĠIn c
Ġstud io
. ;
Ġar c
Ġcl in
C onsider
Ġp iece
Ġd imensional
^{ (\
Ġad ding
C E
Ġcost s
Ġr ang
Ġprec isely
Ġprot ocol
or ation
math it
} |\
Ġobject ive
v a
Ġexplicit ly
^* \
ult ane
Ġimpro ved
c ript
rop ic
pl an
ib ration
Ġpur ch
se y
ĠMod el
Ġlocal ly
L emma
Ġinter view
b as
H ence
: =\
Ġsy m
et al
Ġcar ried
and emic
Ġg rant
Ġext end
' m
s er
per form
ve ctor
id el
ill er
= .
ynam ic
as er
Ġt al
Ġv ariance
Ġp oor
Ġrequ est
M P
) })
Ġt er
eli hood
Ġpl ant
Ġd ied
tikz picture
sl ant
ran k
Ġlist ed
su pp
Ġnot ice
Ġbook s
Ġdeterm in
Ġupd ate
Ġcomput ing
ymmet ric
Ġmov ie
ĠN ov
ĠDe f
Ġdes ired
ĠDem oc
I A
h u
Ġbehavi our
Ġ ign
Ġinst rum
ines e
Ġexpl ore
Ġd ashed
ĠP ublic
b rid
un ity
Ġj et
Ġvert ical
Ġdes p
Ġad minist
l am
Ġdire ctor
f s
ĠD on
ĠAssoci ation
ĠS ing
ver b
de c
ĠCh ampions
Ġs om
Ġcont rad
u ous
Ġbul k
ĠB usiness
T r
N S
sub sec
1 20
Ġp ark
G L
Ġp ow
P U
Ġmorph ism
Ġdynam ic
ĠM ag
ur ations
Ġcorre ctions
Ġquant ities
Ġqu arter
Ġsatisf ied
ĠI m
ful ly
ĠL i
Ġo ption
Ġcult ure
Ġopportun ity
Ġre ached
Ġcom pl
ĠR ad
Ġc op
Ġmov ed
pt ic
medi ate
ĠD el
Ġmod ified
Ġmeet ing
R ec
st able
Ġsu itable
om y
ist ed
Ġm ut
it ch
Ġcom plic
Ġcle an
R ight
ĠC ur
b ib
Ġrece ive
Ġm ilitary
Ġgrav ity
Ġfluct uations
ĠP ress
Ġy ield
if ier
Ġinst it
ĠS al
anc ing
ir it
ur ning
F C
ĠM ac
Ġ ]
Ġh ar
Ġse c
re y
med skip
ĠR iver
Ġquas i
tt y
Ġint ensity
Ġsequ ences
Ġre produ
Ġcan onical
ĠR el
Ġse ven
m n
Ġ ,\
Ġpre p
Ġsomet imes
ĠA lex
_ _
l ap
ou ther
Ġserv ed
Ġsh ock
ner gy
Ġstat istics
\ |\
ou ra
foot not
k ey
velop ment
P re
Ġneighbor hood
fin ition
Ġn orth
h ttp
in ner
' ve
red uc
ĠF ace
Ġd rive
G iven
ĠJ ournal
ĠS uch
ro id
ur ally
Ġman ufact
et t
S D
C R
Ġw rote
ot al
Ġreport s
Ġincor por
ĠN etwork
ar ian
Ġrest ric
F F
st ain
M L
Ġa st
phant om
( (
Ġg r
v ari
Ġeconom ic
st ra
ell ig
Ġprofess ional
Ġpl ays
ĠM usic
il bert
vart heta
Ġun known
ĠHig gs
Ġm us
ĠC ong
ĠMich ael
Ġadj ust
ĠA ccording
dis c
g reg
ĠR oy
equation s
Ġrequire ments
Ġst ories
Ġro ck
Ġele ction
ĠM o
The y
Ġtemperature s
it ation
ell ed
ific ations
pro cess
ĠC up
ĠG old
Ġcustom ers
Ġprocess ing
par ison
ĠTex as
Ġpattern s
rid ay
Ġchang ed
Ġser ious
ĠSe e
outher n
ĠD iv
Ġmed ium
i ation
v olution
ĠM ost
ven ue
Ġgrow ing
g in
Ġ\ ,\
\% $
ĠGerm an
ĠGo ogle
Ġtr uth
X i
ru pt
Ġcap ital
Ġbu y
Ġinter section
ed s
a a
Ġapproxim ate
ĠI ma
Ġe mail
Ġposs ibility
ĠPh il
Ġcompos ition
Ġn or
Ġpl aces
Ġsim plic
bo ard
it t
ph as
Ġcontinu ed
Ð µ
Ġdel ay
ĠV i
~ (\
Ġperturb ation
Su ppose
Ġla un
l aw
ou pl
Ġst ochastic
ang er
ĠS um
lo op
ĠAfric a
g r
Ġcorre ction
Ġd u
ĠR ussian
F R
Ġmagn et
* *
st ep
Ġoffic ial
Ġlearn ed
T able
or ter
ee ch
Ġis ol
omet ry
ĠT wo
Ġin nov
( -\
ough t
Ġst ru
i ers
Ġrepl aced
ĠAng el
More over
ĠM us
ve re
d iff
Ġmajor ity
Ġs al
199 3
Ġal one
not ag
\! \
Ġl ies
t an
Ġmess age
ĠA ward
Ġhypothes is
Ġj ournal
Ġb rought
. \\
og en
ĠPh ys
ĠT ur
Ð °
fin ite
}{ *
Ġan om
ver age
G a
et ween
) ^\
L a
Ġeigenval ues
a fter
Ġre asons
ĠP M
Ġpl ans
AT E
Ġf arm
in ations
Ġtechn ical
ĠB rown
Ġsp ac
ru e
ĠT om
i em
rang ian
Ġchall enge
p an
Ġb ank
M y
Ġsu stain
Ġwind ow
og onal
Ġ$\ {\
os is
199 2
g rad
Ġassum ing
b p
Ġmain ly
ch ar
Ġhal o
ash ion
$- $
Ġcharg ed
ta il
Ġsay ing
Ġabsol ute
Ġapp arent
Ġsc ene
^* (
Ġturn s
un k
Ġmiss ing
dition ally
Ġsub group
Ġdirect ed
down arrow
Ġ Ã
Ġflu id
C ar
ĠL and
ort hern
ro y
Ġanaly z
Ġgravit ational
pect ive
Ġat mosp
ren ew
Ġwork ers
ĠS ol
C L
ĠSu pp
Ġent er
ĠC M
S he
ic ks
Ġinst all
Ġmat ching
Ġag ents
Ġrespons ible
ib r
ĠS am
ĠH a
Ġmost ly
Ġan im
ĠE ven
the re
] (
is ot
i pped
Ġturn ed
Ġmet al
O P
A ut
E L
Ġband s
Ġchalleng es
ĠT r
est ival
math tt
ax is
ĠG r
ĠEar th
R R
Ġspe ak
ad o
Ġf ol
Ġte ac
pl ane
Ġt end
ĠĠĠĠĠĠĠĠ ĠĠĠĠĠ
ĠB ecause
Ġcl imate
Americ an
$\ \
ĠW ed
Ġtest s
Ġcateg ories
Ġcom ments
Ġequival ence
ĠC ons
Ġbund le
Ġc ast
h ang
Ġm ixed
Ġwr ong
Ġf a
und red
ro b
Ġre n
f i
Ġbl ocks
in put
ĠN or
}\ |
ari os
Ġun ion
ar ma
Ġabsor ption
Ġpl aced
Ġvac uum
Ġopt ions
ĠM ax
Ġs outh
Ġcomple ted
Ġprof iles
Ġevalu ated
Ġmix ing
back slash
P er
I L
ĠZ e
in du
Ġschool s
ĠB ur
Ġd rop
ĠG iven
Ġeffor ts
l ines
en ess
s ign
ĠD en
ĠC D
Ġeffor t
Ġsh ot
t est
Ġl ov
iven ess
ĠCh urch
Ġact s
ĠF ore
ĠS a
ens us
ĠO pen
Ġsu pers
Ġpl as
v s
Ġdesp ite
ĠSec ond
Ġord ers
Ã ³
ra it
Ġsim ultane
iss on
ĠT ime
ĠS und
! !
-- -
Ġcommun ities
$ ^
Ġlook s
Ġmin or
n at
Ġb illion
ron ic
d el
Ġc e
set s
text color
bold math
ĠFran ce
act er
d r
1 10
st ructure
g eneral
cor ollary
Ġres ist
Ġsign als
Ġdetect or
ii i
Ġide as
Ġd augh
Ġorgan ization
b al
ĠSt ar
Ġag ree
con nect
clus ive
Ġdemonstr ate
$. }
Ġexpl o
R A
ag er
Ġco ok
Ġsub t
Ġdescrib es
Ã Ń
Ġcon d
Ġp andemic
Ġcry st
rel ation
h ouse
Ġrecomm end
Ġbl ood
renew command
Ġquant ity
Ġsp ot
Ġh ous
Ġd x
! \
ĠPart y
so ft
Ġl ic
Ġpower ful
Ġappe ared
! ]
Ġlabel s
ĠAc ad
ĠT witter
ic ine
ĠL ou
Ġw aves
ĠS et
id ers
i xt
ul se
Ġimplement ed
f il
Ġel im
Ġpro pos
Ġconf idence
Ġman ner
Ġregard ing
ĠB oth
h as
Ġr ational
ĠGe orge
Ġevent ually
ĠComp any
cons ist
Ġrecord ed
os c
z er
con dition
or age
Ġsom ew
r ins
st ream
Ġcontinu um
Ġb ud
Ġc opy
form ed
ĠM ary
es ize
erm i
ĠP et
Ġw avelength
ĠS ociety
at iv
Ġto ward
Ġperiod ic
Ġdriv ing
d iv
h old
ĠM ad
Ġtru st
reduc ible
Ġdec ided
ĠB re
Ġgener ic
Ġparent s
up arrow
ĠCh inese
h fill
en a
Ġmove ment
k o
c hen
ench mark
Ġpath s
d esc
Ġdis s
Ġcele br
D o
Ġpolar ization
u on
)-- (
S A
ĠU k
Ġt ail
Ġs en
bre ak
Ġcoupl ed
Ġfour th
Ġra re
ĠâĢ ¦
text up
Ġtrans mission
âĢĿ .
Ġinteg rated
ĠSm ith
ut ed
ĠM er
ta g
Ġd ensities
Ġis ot
pend ence
ĠServ ice
op es
Ġsuggest ed
Ġph ases
Ġsupp ose
Ġexpress ions
A ccording
urs day
Ġsol d
Ġident ical
Ġdecre ase
R B
Ġpl us
Ġcy cl
w ave
ĠA P
ĠThe ir
Ġpr ime
Ġpol ic
Ġallow ing
)} (\
Ġp ain
e ffect
&= &\
Ġch ance
E P
âĢ ĺ
er ior
Ġs izes
Ġw ife
Ġuncertaint ies
ĠI N
ĠT HE
ĠOff ice
G e
ĠT op
00 1
n n
Ġr ig
ar ithm
Ġbene fit
H C
L i
Ġl ens
ul ed
e lect
Ġem phas
st ract
e ctions
Ġf ans
neg ative
D ef
ree k
Ġfeed back
ĠB ig
ĠDire ctor
Ġunivers al
| ^{
ĠBo ard
if ul
m l
ĠS U
ic ated
ad ian
Ġden se
Ġtra ce
ĠJ er
ĠSu ppose
' ll
ature s
ĠE conom
Ġstrateg ies
ĠRo ad
> \
A p
ject ure
Ġequ ality
id en
u ro
Ġdeg ener
$ ^{
we et
y an
is her
Ð ¸
Ġnecess arily
footnot esize
Ġdist rict
Ġlow est
ĠL ife
ac he
Ġbran ch
Ġmom ents
k l
Ġcandid ates
ic ular
Ġro ll
ĠPl ay
Ġloc ations
ĠL y
on ly
Ġqu e
se m
Ġchang ing
ĠGerm any
m om
par allel
Ġat oms
Ġt urb
Ġdire ctions
bur g
ĠF lor
ent y
Ġp le
ann el
Ġaffect ed
ĠIt s
t w
ymmet ry
ad ed
Ġredu ces
ĠIs ra
Ġrese arc
Ġcapt ure
Ġg old
ult ure
Ġd ot
ĠF ourier
ĠD M
Ġt rees
qu ant
*} [
il ing
_{ +
Ġde b
Ġs ort
Ġsubst ant
pro pto
Ġconfig urations
nes day
Ġbir th
p age
in dex
ist or
Ġme as
Ġdepend ent
Ġtri ang
Ġindic ated
iqu id
Ġremov ed
ĠEdu cation
Ġmole cular
ĠF riday
R el
fl ict
Ġsum mer
Ġstart s
val ue
stack rel
Ġn et
stand ing
Ġded u
Ġin fer
Ġh ttp
ĠFace book
Ġstat us
| $
clud ed
As sum
ĠQ ue
Ġinit i
Ġquad ratic
Ġnormal ized
Ġlead er
p at
ĠD uring
Ġser ve
Ġvirt ual
Ġnot ion
Ġst ore
g ers
it ors
ar ity
im ent
inv ariant
ol a
Ġtr ig
ĠM il
Ġfit ting
ĠH y
ĠB en
Ġar ray
left arrow
Ġo w
Ġbenef its
Ġuniform ly
Ġenh ance
{ (\
et te
Ġhand s
ier arch
Ġtra ffic
Ġadopt ed
Ġwon der
Ġany one
ic on
es ter
Ġcam era
Ġdiff usion
Ġc it
Ġoppos ite
Ġp uls
Ġn ation
' _{
ĠRuss ia
ĠJ ac
cre te
Ġextrem ely
P a
Ġinvol ving
Ġveh icle
P M
ĠE quation
ĠC onsider
cl ine
l s
Ġdi agn
$\ ,
}^{ +
mod ule
Ġcomp at
Ġdep ict
pr int
? âĢĿ
rim in
ĠL u
G eV
un ct
ond ay
Ġessential ly
ĠF orm
ĠA cc
Ġneutr ino
ear s
Ġimprove ment
Ġanaly tic
ne ver
Ġpre m
Ġscen arios
Ġgener ating
Ġstraight forward
ĠG reat
ĠJ ul
c is
Ġqu ot
ro om
Ġinteg r
Ġread y
Ġelect rons
Ġconj ug
ĠComm ission
ch ain
c ut
Ġcomm erc
) }.
tain ed
ĠC amp
ay lor
Ġarg uments
c her
Ġbro ther
ĠTechn ology
ĠUS A
Ġsens itive
P ost
ĠS er
ĠH ill
Ġinterpret ation
ĠT or
}$ \
sequ ently
Ġrel ig
Ġpre tty
} /\
semb le
Ġcover age
Ġl ab
b ottom
al d
ĠS l
Ġproport ional
du st
uss ion
ur day
C ref
Ġem pir
Ġg a
O L
ly mp
ograph ic
ĠIs land
Ġout er
Ġex cell
199 1
Ġth ous
Ġinter mediate
Ġn ames
Ġf ile
ub ble
ĠCom mit
Ġit ems
b or
) (\
sy mmet
P ol
M e
ĠA M
Ġg rand
ĠM iss
Ġdevi ation
Ġcharacter istics
ĠCar ol
Ġcon clusion
Ġtri al
ĠL in
Ġtele vision
Ġinvestig ation
Ġconfir med
oun ding
ĠIn st
Ġinter face
f irst
ĠT our
Ġepis ode
ĠGovern ment
f ram
ĠR ock
ĠCent ral
Ġgeomet ric
ĠI II
cent ury
Ġneut ral
Ġpref er
Ġfir m
Ġsa fe
ĠCl ub
Ġn arrow
ing ly
Ġrefer red
Ġsens itivity
In d
Ġm ale
Ġh uge
her ical
ĠH istory
Ġhapp en
Ġfrequ encies
ĠM em
Ġsepar ation
ĠUn ion
ine ar
Ġv oice
Ġre action
& &\
Ġdispers ion
st s
Ġorb ital
] ^
ĠH el
reg ular
Ġform ulation
D R
Sp ec
Ġopen ing
B bb
Ġan c
cl aim
Ġatta cks
c ar
Ġcol lected
r ite
Ġh undred
O r
Ġsh oot
ĠL at
Ġexc ited
ĠĠĠĠĠĠĠĠ ĠĠĠĠĠĠ
Ġind ices
Ġ _{\
Ġf elt
hen s
esp ite
198 0
cal e
Ġm ission
Ġhom ogeneous
Ġcorrel ations
amet er
ĠM ex
ĠDe velopment
Ġmetric s
v als
ad y
Ġinst ant
Ġto uch
od ay
ab ase
Ġresid ual
ill a
D B
Ġdiagram s
Ġbre aking
os es
st ood
Ġs ales
Ġconv olution
m al
Ġg un
Ġmon itor
ul er
Ġbas eline
ĠH am
ativ istic
in stein
Ġtre ated
ĠPro ject
Ġst o
ĠIn formation
Ġdecre ases
ĠE very
Ġpriv acy
O C
Ġpat ient
Ġs ides
Ġsol ving
se p
Ġexpl an
Ġplan ning
es ian
{ .
Ġl ie
script scriptstyle
Ġle aves
f ol
Ġsm art
Ġprec ision
Ġad vers
sy ch
ĠM ass
$ '
ĠAl gorithm
ĠC R
L C
Ġsyste matic
}. }
il ed
Ġwe b
Ġpa int
Ġh idden
Ġcre ating
Ġtransition s
Ġsp ent
Ġcru cial
Ġvari ations
Ġvers us
Ã ¼
Ġ elli
Ġtest ed
ĠChrist ian
Ġcan cer
i as
Al though
ĠServ ices
Ġiter ation
Ġpr int
Ġf aster
ĠSund ay
Ġad m
R eg
Ġsetting s
al ing
Ġfocus ed
Ġgo als
c rit
Ġinc ident
Ġaspect s
D Y
ues day
ĠJ ose
Ġb us
poss ible
and a
Ġmet all
ĠT imes
Ġpolynom ials
ribut es
i pp
Ġalgebra ic
erv ing
Ġcontrol s
Ġhapp ens
g ather
Ġposs ibly
l arge
Ġapp oint
Ġwas n
ri a
ĠSc ott
Ġacc ret
Ġeffect ively
Ġexper t
Ġsk y
` `
Ġhigh light
ĠThom as
Ġs le
T T
Ġ$ ^{
ĠB ank
h igh
Ġconduct ed
) [
ust er
ĠS ocial
l ik
Ġrec over
D C
=\ {
Ġent ry
\, {\
u zz
Ġmodel ing
uil ding
R ep
ĠTh ursday
Ġcompet ition
d ensity
Ġbal ance
Ġsign ed
paramet er
os h
E nd
Ġsupp ly
Ġex ception
Ġabs ence
Ġmat hemat
Ġexpect ation
as y
Ġphot o
Ġb ra
Ġport rait
bin om
pt y
il ation
Ġun d
Ġdemonstr ated
ĠS P
Ġlaw s
Ġpract ical
Ġs un
Ġse cret
Ġjo ined
- (
ĠRober t
Ġderiv atives
ĠB ill
Ġc ivil
Ġcontin ues
Ġprec ise
Ġshe ll
l en
Ġper haps
Ġdomin ant
\| _
25 0
Ġc overed
Ġb ill
ic ago
ist an
Ġpolic ies
Ġreason able
Ġm obile
Ġor dered
Ġopen ed
ro ups
Ġs n
stit ution
ĠO bs
c are
B ox
Ġir reducible
im its
Ġadj ac
Ġ- --
ĠCong ress
ĠSp ace
Ġwid ely
the less
c ode
S ome
Ġcont ribute
text sf
ĠO ffic
ĠâĢ ¢
Ġfor mat
az ine
ĠLag rangian
sh ift
j i
Ġorth ogonal
Ġsur faces
a o
us al
Ġanal ys
Ġth in
ĠWed nesday
Ġp lease
ĠJ o
Ġex pos
Ġke pt
Ġ\ [
ra ine
ĠJ ew
F A
it ness
{ |
ĠM el
ĠG rand
Ġrat ios
Ġ ~\
ur t
rep resent
Ġtrans verse
Ġlet ter
H om
ĠB ob
Ġtempor al
Ġin clusion
Ġh ierarch
ip ment
Ġemploy ees
Ġreveal ed
ĠG ood
Ġdaugh ter
T wo
cknowled g
le ctions
rins ic
Ġcol d
Ġspec ifically
Ġd aily
ĠL ear
n ol
Ġreturn ed
Ġthan ks
}) ^{
res p
Ġj ump
ip art
ide os
in y
Ġag greg
Ġcharg es
Ġautom at
Ġre ct
Ġbir ths
Ġclaim s
squ are
Ġk illed
Ġp red
st at
Ġcomple ment
ĉĉ Ċ
Ġjo in
ĠMin ister
Ġ\ {\
) _{\
Ġpass ed
Ġm aster
h ave
ell a
L R
Ġt ang
at re
Ġex cess
ĠFlor ida
Ġop in
B H
ĠB r
Ġph one
c el
Ġt ight
Ġ\ |\
Ġtransl ation
ĠCor ollary
Ġaccret ion
Ġ id
c s
Ġdist ances
Ġcent re
Ġcho ices
small skip
Ġferm ion
k ern
Ġf av
Ġj our
d ash
Ġappear ance
C an
roun ding
l ist
ĠPe ople
Ġtop ology
T E
S m
ĠSt at
part icle
Ġ er
ĠW omen
Ġr ich
T V
ĠEng ine
Ġtri ple
Ġm ill
Ġsong s
}{ {\
Ġp ages
Ġar rang
Ġemploy ed
Ġinter pre
Ġrec ords
w est
Ġv ote
el ess
P art
u a
Ġsc ores
Ġelectron ic
ĠMark et
Ġent ries
ĠS il
II I
pect ed
Ġinit ially
ruct ural
me asure
Ġw arm
ct ic
Ġvill age
Ġinvestig ated
ĠV er
mult line
cor respon
ynam ics
Ġfem ale
N E
Ġold er
Ġp ip
Ġdel iver
ĠP an
ag ram
Ġdis app
Ġun iverse
Ġreg ression
ĠSte p
low er
Ġp m
for tun
B M
Ġcar bon
ĠM useum
p ower
Ġf lex
b ot
ul ating
ĠCommit tee
Ġey es
G o
Ġsche mes
Ġre ality
Ġf its
Ġca ref
em por
Ġd ig
Ġmar ried
Ġact ing
fe red
over set
Ġf ib
ed er
ĠA tt
fun ctions
Ġcoupl ings
Ġsp orts
Ð ½
ĠC la
Ġw ants
Ġtraject ory
ort ion
P ar
Ġsub space
om a
Ġrepe ated
v in
od ies
ĠGl obal
Ġde but
Ġ ur
Ġread er
rap y
M ar
B ar
Ġqu ery
T C
Ġperform ing
A E
un it
Ġmor ning
erv es
n m
el esc
. $$
ĠM onday
Ġrandom ly
ĠE nergy
pl o
ig an
Ġnat urally
18 0
as ion
ĠN at
) }$.
Ġann ual
vers ion
ĠAfric an
Ġsimilar ly
, ...,
ĠH ome
Ġpan els
Ġoper ating
app ed
Ġf alse
ot on
Ġh ospital
sub equations
Res ults
Ġ ..
Ġst ack
Ġfin ds
ig ation
Ġart ist
Ġsim ulated
Ġcol lege
ĠU s
Ġinvest ment
Ġhe ard
an ish
198 9
mid rule
Ġw ild
Ġch iral
Ġopportun ities
Ġtransform ations
ĠAG N
Ġphot ons
al so
Ġf ederal
g ency
Ġset up
Ġto t
Ġs ociety
Ġstrict ly
ug ment
ĠQ CD
^+ $
\ }.
ap es
Ġrestrict ion
Ġweight ed
d f
f ile
Ġhe ar
Right arrow
P D
Ġstat ic
Ġclos er
Ġhorizon tal
O ther
me an
b an
Ġinfl ation
rast ructure
Ġch urch
Ġcirc um
Ġsk ills
var rho
Ġrestric ted
Ġd og
Ġprinc ipal
Ġbusiness es
Ġ{ $\
ĠB a
Ġstru gg
Ġm ur
h ost
n um
Ġf rag
Ġfun ding
V ar
ĠSat urday
is tered
N C
t z
_{ -\
at o
iem ann
Ġre normal
Ġguaran te
ĠH en
ĠL os
Ġpur poses
ĠT own
Ġcomm ut
Ġo il
Ġrough ly
Ġvary ing
Ġpres ents
not her
ĠM icro
ra ise
Ġex ceed
ĠF ermi
O D
ig ration
point s
Ġreson ance
O ver
Ġcommerc ial
A nother
Ġsp irit
Ġlik elihood
Ġpa id
Ġs ch
Ġdeath s
big cup
ell er
ĠMan agement
Ġst orage
M ark
ce il
g al
Big g
âĢĿ ,
ĠFran cis
ĠI r
Ġclos ely
Ñ Ĥ
ĠCh ild
un ds
lo ok
Ġmark ed
ass um
al ty
ĠEx p
ĠSt and
Ġcertain ly
Ġunder stood
if ted
ed ia
ĠEq s
i y
Ġanaly ze
Ġk ids
re c
ph ase
A V
ĠV is
ĠSim ilarly
$ }}
ĠVir gin
12 8
ĠC are
row s
it udes
leq slant
H ome
E d
al ian
Ġw ish
Ġp apers
Ġal gebras
G M
Ġparticip ants
A U
Ġpers pective
og ram
onal d
ĠJ un
Ġes cap
ĠS N
Ġsc hed
Ap J
Ġcoll ision
ec es
Ġc ir
;\ ;
am in
Ġst ead
Ġcon flict
ris is
Ġrepresent ing
sp in
ĠPol icy
ĠD isc
Ġa head
Ġstrong er
Ġem pty
es ides
Ġun iqu
Ġextract ed
act ive
w orld
in ction
Ġb enchmark
if old
igh ter
ĠG ames
th ick
Ġw at
p ot
Ġl abor
Ġdefin es
ĠD et
ĠMed ia
Ġac ad
Ġinter ior
Ġv ision
Ġl P
* \
Ġkin etic
H T
ĠA R
ĠK ore
Ġcosm ological
ĠE lect
new line
ĠU V
ĠH ilbert
âĢ ī
Ġrem ove
ĠY oung
ru it
Ġart ists
ĠW estern
Ġcall s
u y
\ },
Ġ{ };
Pro position
Ġw el
Ġ\ }
ĠĠĠĠĠĠĠĠĠĠĠĠĠĠĠĠĠĠĠĠĠĠĠĠĠĠĠĠĠĠĠĠ ĠĠĠĠĠĠĠĠĠĠĠĠĠĠĠĠĠĠĠĠĠĠĠĠĠĠĠĠĠĠĠĠ
Ġpart ner
semb ly
Ġcor por
Ġupd ated
}^ +
ĠO F
Ġdi vers
Ġindu ction
Ġm ask
Ġplas ma
Ġinvol ve
d ifferent
}} ,\
ĠL ake
ĠT uesday
ru ctions
ĠO h
Ġbro ken
sc he
Ġdomain s
or ial
T ra
z en
Ġdomin ated
}[ !
ĠFran k
Ġclin ical
al ities
Ġse a
Ġc row
Ġfail ure
Ġinvol ves
Ġenc oura
Ġfig ures
Ġcontroll ed
k ins
ĠRe ad
Ã ¶
Ġal le
h ar
f old
j a
m f
Ġsimplic ity
Ġview s
Ġconsist ing
6 00
Ġat omic
res pect
Ġle aving
Ġhelp ed
@ {
ĠK n
Ġorient ation
erm an
Ġsecond ary
Ġeigenval ue
Ġn one
ĠR oman
angle ment
ĠM ult
Ġdefinition s
t d
Ġext ent
( $
ĠProf ess
od ed
ĠA v
Ġorgan izations
ĠR am
Ġcat alog
Ġgener ator
h n
Ġvis ible
ĠP eter
ab y
Ġhy brid
Ġpart ies
}) =\
al a
cur rent
Ġchalleng ing
Ġsp here
Ġb on
ĠC at
Ġl ock
con duct
b ro
ĠArm y
j o
} >
Ġfe et
Ġsp eech
Ġsp an
Ġf ashion
Ġhel ps
Ġsur rounding
Ġp ool
com put
Ġdevelop ing
Ġconcent ration
Ġd ip
Ġcharacter ized
ch ron
Ġrem ember
it tle
Ġin fe
Ġkn ew
Ġb rain
Ġc ert
ject ed
Ġassign ed
te ct
Ġcompar able
Ġc odes
Ġco ach
Ġin ference
Ġimp ly
Ġwin ning
ĠO lymp
Ġdisc overed
if er
od d
M an
\ [\
Ġbo ost
Ġde ploy
) }$,
Ġlook ed
ri end
ï ¿
198 8
ĠN ext
I ST
l m
Ġillust rated
Ġspec ified
ĠL ee
Ġenvironment al
def n
Ġlog arithm
ĠC re
ĠApp le
\ }_{
Ġsol ved
ĠDiv ision
Ġcover ing
) &
ĠC ase
z y
ĠWe ek
ĠAustral ian
Ġeconom y
prob lem
Ġn ull
ur l
Ġrespect ive
198 7
ce an
ren cy
Ġleg isl
Ġp i
ĠL ong
B I
Ġdiscuss ions
}{* }{
ĠC EO
Ġear th
Ġreconst ruction
in it
ĠRoy al
Ġintrodu ction
gra v
Ġl iquid
con ds
Ġsubsequ ent
Ġorig inally
Ġm ac
_{ [
oth ing
ĠB as
ĠG en
Ġident ification
ĠS D
g reen
Ġ ice
Ġbeaut iful
H D
ĠU p
c oh
ellig ence
Ġdivid ed
str ong
Ġend s
Ġexcell ent
Ġrepresent ative
sp e
ĠM any
ĠW ay
Ġver ify
ĠTe am
}\ ;
ĠSt r
M et
oun der
P Y
ĠH ot
Ġpotential ly
Ġsl ope
ĠI ll
| _{\
con f
h ab
ta ke
Ġre ferences
am ing
w t
ï¿ ½
G R
ĠD esign
Ġst abil
ĠComm unity
T H
Ġrest aur
ĠS i
Ġep och
ĠPro v
Ġcrit eria
p ass
Ġsplit ting
Ġdif fer
w ord
Ġconven ient
Ġgu ide
Ġrecogn ition
th let
Ġamplit udes
ĠM C
Ġclust ering
j ust
Ġsat ell
Ġde fe
Ġs end
Ġext reme
ĠAt l
ol es
Ġre ward
ĠL o
maz on
Ġtren d
Ġun less
Ġz one
ĠC NN
B AG
Ġmechanism s
in st
ĠAngel es
l ies
u ing
ĠD u
Ġcomplic ated
ap se
al and
og ether
ir t
ĠJapan ese
Ġpre par
Ġre fin
F urthermore
Ġtri ed
er ion
Ġad vert
ĠA I
ĠM ur
ĠL ore
Ġof fered
Ġf ill
m ary
Ġdraw n
Ġturb ul
Ġveh icles
Ġflow s
h skip
st ates
Ġis su
sk y
ĠCh icago
Ġsimultane ously
C he
ĠW ind
Ġcon formal
ĠV ict
Ġgeneral ization
ĠE xt
Ġcor ner
ĠLou is
Ġstation ary
Ġfinding s
Ġpro position
Ġcompar ing
Ġf iber
Ġcred it
' d
ĠR et
are st
Ġinter vals
Ġhapp ened
Ġdriv en
Ġan isot
com b
DY BAG
Ġmov es
\, ,
Ġpow ers
Ġillust r
ĠP ower
ĠP C
Ġh our
ĠL ist
\ /
cl ide
ri age
^* _
Ġd rug
ut y
Ġgl ob
Ġd ream
Ġsimilar ity
O ut
rel and
ĠW in
A m
) >
paramet ers
cite alt
19 70
appro xim
Ġra ised
c ross
ĠS k
& $
Ġorb its
ĠC oll
y stem
Ġsomew hat
M T
Ġey e
Ġprodu ces
p ost
l oc
Ġ Î
Ġbe coming
Ġw ood
Ġfore ign
w hen
ĠC H
Ġbud get
Ġmat ches
ĠAn other
ĠMon te
} ~\
s ince
Ġis omorphic
ard en
Ġca uses
g ets
Ġen semble
Ġra il
12 5
sc ape
Ġconcer ns
Ġge odes
. (\
M a
Pe ople
ma ke
mom ent
text normal
ĠCom put
Ġf ra
Ġnumer ous
' $.
Ġempir ical
mod els
ĠRep ort
nol imits
ĠO per
Ġunit ary
Ġplot ted
= -\
ĠT aylor
ul us
aut o
Ġlaun ched
C al
cl ip
Ġown ers
Ġconvention al
ĠCan adian
Ġgl ass
Ġd ie
lear ly
ĠN et
ĠAcad emy
Ġpseud o
Ġla unch
ĠIn vest
Ġres ource
ĠMed ical
ink ing
B R
Ġsymbol s
h ard
Ġpix el
clide an
ĠG ame
ĠH uman
ĠĠ čĊ
ic ed
ĠP riv
Ġp rices
ĠN GC
)= (
Ġmult ip
M F
Al so
com pon
Ġout come
Ġcit iz
v dots
w ater
Ġinst ances
Ġw est
cy cl
Ġconver ges
el ian
Ġkeep ing
}{ }
Ġc av
O f
Ġrequire ment
fortun ately
Ġeas ier
not in
ĠCh ief
e ven
T op
b etween
ĠT ri
res ult
ĠC am
P E
Ġentire ly
ĠDi rac
pro duct
Ġfam ous
Ġabund ance
us band
Ġsumm ary
det erm
ĠK ar
ĠB et
Ġdec ays
W hy
Ġstand s
Ġart icles
Re f
in dependent
Ġrec ip
Ġorgan ized
Ġs ave
p o
10 1
Ġd t
ĠMart in
Ġsub section
Ġcommon ly
Ġoffic ials
ĠWil son
ĠS pr
Ġread s
or a
Ñ Ģ
Ġgener ators
d ashed
Ġrelations hips
U psilon
op en
Ġprote ction
ic ian
Ġcomm and
Ġinter pol
Ġded icated
c ateg
Ġk ine
ĠCent re
at as
s a
Ġreturn s
ĠP ri
ĠT im
Ġdec ades
t ically
Ġin come
im ately
Ġpass ing
Ġrob ot
pre c
Ġf an
ĠW ell
Ġprob abilities
Ġbl og
ĠPo isson
rack et
p he
Ġar rest
ĠSh ow
arg ets
Ġcolumn s
ib ilities
Ġv ideos
h ow
}} =\
Ġdef ect
198 6
Ġrec ording
ĠT est
Ġch art
Ġequ ipment
Ġbound aries
L T
pert urb
ĠL ove
Ġan not
ol ars
bran e
Ġcompos ed
Ġt ick
S um
j pg
8 00
ic ians
Ġb ary
Ġdecre asing
h l
wh ite
form ing
ĠD ep
Ġresearc hers
Ġestim ator
ĠArt s
Ġj obs
| =
az z
as te
Ġdisc over
Ġro ots
connect ed
l ife
] =
un c
Ġdam age
Ġmod ules
. }\
angu ages
ĠAg ain
ot ing
\| ^
Ġang les
Ġdo or
Ġpost erior
ĠSc iences
s es
Ġfor ced
it le
r g
Ġtw ice
du le
Ġspac etime
Ġcre ation
ar ial
now ledge
Ġhand le
Ġcrit ic
per iod
Ġdec isions
Ġvict im
all s
D isc
Ġfe as
ĠG et
Ġthink ing
p res
ĠR em
Ġdefin ing
g ar
Ġneut ron
J ohn
Ġg ate
p ic
Ġl aser
Ġdat abase
Ġfa ith
B O
it ar
ĠF amily
E xt
ĠB ack
$ _{\
Ġcons ervation
Ġsur ve
G A
est ic
ĠIn stead
qu ote
erv ative
Ġbig gest
irc raft
Ġf resh
Ġcomp re
Ġcondition al
Ġsen ior
Ġresid ents
Ġtop ic
ĠH or
Ġsp herical
Ġse vere
the ory
ĠIsra el
ab ove
ĠF ree
ĠDe finition
Ġm ir
ĠC P
Ġcompat ible
val ued
ĠAn y
Ġinput s
ma k
her ic
im a
ĠW ho
Ġsepar ated
}_{ {\
Ġmed ian
ĠB al
ĠJ ud
in ate
Ġst ock
Ġb attle
ĠJohn son
Ġvan ishes
Ġautomat ically
Ġdiv is
con ver
ir us
se cond
rosc opic
ĠW ood
| _
n umber
Ġexhib it
ĠT O
Ġfl ight
b ec
( {
Ġcol our
L M
Ġsh aring
Ġsh ip
% )
ugh t
Ġcon ference
ĠS C
B B
l iam
int ro
Ġc ub
Ġfin ished
Big l
lig ible
spec ial
A F
Ġn ine
re ci
Ġcontrad iction
E l
Ġa ugment
alax y
ĠD own
lear ning
im age
ĠSec ret
R ed
ur ance
const ra
Ġfl oor
Ġpl ots
E V
Ñ ģ
v skip
EN T
Ġc ities
Ġhe ter
Ġd anger
Ġconne ctions
li ography
ĠMet hod
ĠC y
Ġb low
} <
ul as
Ph ys
Ġhistor ical
Ġdef ense
Ġp ulse
ps h
rib e
Ġhol es
}} )$
Ġlabel ed
Ġwrit er
art ing
G u
lic k
Ġ ray
Ġcov ariance
ĠC ho
ort ed
ura ble
Ġexper iences
Ġadjac ent
198 4
Ġsuccessful ly
in ity
viron ments
ĠB lo
ren e
Ġe ast
Ġhe av
l ie
Ġre b
ĠMark ov
met hod
Ġsee ing
ĠJ ones
Ġcond ens
ĠN on
Ġadv anced
Ġcirc uit
t or
Ġdoc uments
ĠA T
Ġs ell
Ġembed ded
M at
fra red
Ġupd ates
' )$
m ode
ĠPar is
w an
Ġgu ess
Ġappl ies
Ġnormal ization
ĠA st
Ġpack age
Ġm eta
Ġex erc
f ont
i ro
Ġstat ements
Ġreconst ruct
Ġcustom er
Ġvers ions
Ġpropag ation
Big r
u v
Ġcons ult
Ġun c
form s
Ġn ice
liam ent
E u
I ma
ĠE U
rim inal
ĠZe aland
( [
ĠF urther
mat ically
he rence
ĠUk raine
ĠWe b
Ġtrac ks
Ġtraject ories
ĠC r
Mod el
Ġpl ate
Ġdou b
Ġnear by
Ġpref e
' }\
Ġhapp y
d es
u ction
or b
Ġperturb ations
Ġd ial
ĠD C
Ġindependent ly
ent ed
Ġaud ience
ĠR iemann
ĠO l
ub b
R I
tri ang
D i
Re call
) |\
t b
. },
T rans
du al
ĠJ im
Ġsegment ation
Ġint rinsic
cul es
198 5
Ġme ant
Ġlarg ely
Ġp us
tri angle
ĠChar les
ger y
rib ed
ixt ure
H O
y er
pl ate
ĠSpec ial
A cknowledg
ĠI mp
ĠÂ £
ric s
ĠB ud
Con t
oot ball
ĠB ol
Ġch ief
flo at
Ġat om
ĠWh y
force ment
Ġb atter
Ġen able
b olic
nt z
or row
ĠM ont
Ġimmedi ate
Ġar ise
ST ATE
Ġwhe never
urb an
Ġfun ctor
Ġcl ients
ict ures
in er
ĠF re
ful l
bel ow
und ers
ĠW ater
ĠI P
Ġprote in
center line
Ġbelong s
j k
p otential
F S
Ġdis joint
Ġanaly tical
ĠChrist mas
Ġsent ence
Ġit em
ĠRes ults
ĠR a
Ġreal ized
Ġveloc ities
ph one
ul ner
Ġcoll isions
Ġob st
ou ds
ĠC ath
Ġatt end
Ġadv ance
l b
s en
ĠD ou
ri vers
ĠSp orts
mathbb m
ent ure
Ġde part
Ġle ague
In ter
w ill
Ġco herent
ever theless
ĠI reland
}) _{
Ġsupport ing
Ġf ul
we ak
Ġd oll
ut r
ĠVirgin ia
ĠOn ce
Ġcover s
b lem
ĠAb out
Ġcom for
ĠT ype
ĠIn dust
ĠB ra
ian a
Ġfac ilities
Ġse conds
Ġbe at
ĠEn ter
Ġdistingu ish
it ted
n i
ĠGe org
ane ous
Ġb oy
ĠHe ad
ult ural
Ġdiscre t
A rt
R S
ĠP enn
Ġpart ially
Ġmanag er
Ġcol ors
Ġsign s
ak a
Ġ{ {\
a per
anc he
ĠFil m
ĠOn ly
ĠJac ob
requ ency
Ġst ructural
' $,
Ġscient ific
Ġrapid ly
Ġcult ural
display math
ĠL ast
ĠAd v
Ġproject ive
ĠAs ia
sub stack
ĠF estival
Ġinsp ired
Ġm m
Ġfram es
h av
ĠO ld
ow ski
ex ist
Ġbrief ly
Ġlo ad
ĠM S
Ġiter ations
Ġreal istic
Ġend ed
Ġleaders hip
Ġr an
E ar
i ples
Ġp ion
ĠLe ad
Ġf illed
Ġstead y
th an
Ġinteg ers
Ġpeak s
ĠIt aly
N T
Ġtell s
as tern
Ġout comes
E W
Un der
ĠJ oe
Ġsh o
Ġbuilding s
Ġfail ed
Ġaccount s
Ġperiod s
Ġcool ing
y e
G l
Ġpi eces
ĠE qu
raz il
er ry
D D
ant ly
Ġcompre hens
Ġsmall est
Ĥ ¬
Ġsp ort
Ġsec ure
Ġc ars
Ġ$ [\
Ġadminist ration
Ġsu ffic
Ġaff ine
ac ific
Ġconsider ation
ord an
Ġcounter part
{ [
Ġpoint ed
Ġt argets
spec ific
im ages
Ġcho osing
ĠRich ard
ĠC as
Ġpop ulations
M on
Ġcon e
i ability
M ay
ĠC ast
ĠM L
Ġ\ :
)} =
Ġbos on
Ġbegin s
ĠSec urity
Ġd war
Ġinf rastructure
Ġed itor
Ġdisc rimin
ĠM ov
cl osed
a ver
Ġn an
Ġconfir m
Ġst ages
Ġpract ices
Ġ }{\
Ġexpos ure
Ġcon fin
Ġcirc ular
b our
Ġdescrib ing
ĠG re
Ġwor st
Ġdiss ip
pert y
ĠIt alian
Ġsupport s
ubl ished
ĠS ar
ro ad
Ġclaim ed
D ata
] ^{
b c
ĠVal ley
Ġn av
ur ies
t rue
ĠAn alysis
Ġext ensive
ĠChampions hip
Ġ& $
Com p
}. \
ĠPol ice
B L
M D
) ).
ĠMex ico
Ġanalyz ed
ĠOr gan
Ġredu cing
Ġstand ards
Ġharm onic
at on
ĠS and
m en
Ġent anglement
Ġsubset s
ĠBl ue
Ġsh arp
Ġwe ap
Ġwh om
M ed
st one
}}\ ,
Ġwe ather
o z
et ies
A g
ĠA wards
Ġn om
id al
Ġd il
includ ing
p mb
u ity
Ġexec ution
Ġtri p
~ (
ĠN Y
Ġw itness
Ġro ute
el d
ĠL im
ĠL ibrary
Ġisol ated
Ġf uel
Ġapplic able
Ġs av
ĠI D
Ġweak ly
)} _{\
} &\
ĠCarol ina
Ġrec overy
ning s
Ġprim arily
Ġh usband
Ġsex ual
Ġmod er
Ġsign ature
at ivity
Ġtalk ing
Ġb ed
ien ced
Ġord inary
Ġfac ilit
Ġen vironments
PY G
ĠĠĠĠĠĠĠĠĠĠĠĠĠĠĠĠ ĠĠĠ
Ġco oper
ĠI ran
Ġpe ace
l floor
comple te
Ġcorrel ated
is en
ul ator
ĠCon ference
ĠA rab
Ġanalog ous
Ġent ertain
Ġproper ly
Ġanom al
um ps
Ġenh anced
Ġp sych
Ġcollabor ation
ific ial
_{ {
Ġco hom
ĠEn d
comple x
Ġw ire
Ġ$ <
Ġc risis
Ġexplan ation
R C
Ġ$\ |
Ġd river
l t
ĠJose ph
Ġrel iable
Ġexpon ent
il er
ĠB ern
Ġem ot
H M
Ġtechn ologies
Ġst re
Ġpr ison
ĠCh ris
Ġref lection
Ġrelax ation
Ġwor se
Ġg one
al f
Assum e
w as
un te
ĠV an
ĠF ood
Ġover lap
Ġguaran tee
Ġph il
12 3
m ic
Ġapp reci
ĠC ov
}_ +
Ġan tic
phys ical
Ġlat ent
Ġp ush
Ġa part
Ġposs ess
Ġreview s
or i
am m
Ġassoci ation
val ues
Ġco ast
ili ary
cc c
Ġformal ism
de p
Ġoff ering
s ample
ult y
Ġthous ands
Ġfl ag
O V
ut ely
he red
ĠB ow
âĢ ¢
B ecause
or ig
ab et
198 3
ffor d
Ġis land
w ho
G S
Ġintegral s
Ġne ither
ĠR emark
& -
u able
ĠC ard
Ġd uration
16 0
Ġknow s
D T
r floor
Ġbr ings
ian o
ĠIntern et
B E
ER T
f r
u er
d ent
G r
Ġ$- $
Ġnon zero
Ġmay be
Ġlinear ly
u an
c ore
l oss
Ġnot es
ro g
Ġtru ly
os oph
}) )
ĠH on
Ġcir cles
Ġim aging
ĠU N
Ġexam ine
Ġdi verse
Ġmarket ing
Ġhom ot
Ġdest roy
ĠF und
et ry
Ġ ^{\
Ġfact s
Ã ¤
ĠG all
Ġprov en
ph y
Ġim possible
Ġaver aged
ress ive
od cast
Ġf aces
G s
}, {\
Ġconsist ency
Ġcorrespond ence
p in
oc he
]{ .
ĠA mazon
Ġ }$
Ġjour ney
Ġprogram ming
ĠD igital
Ġfavor ite
Ġadm its
Ġcrit erion
Ġpro min
ĠKing dom
ĠMa jor
ĠL ike
oid al
Ġsit uations
Ġp il
ĠM en
Ġst reet
fin al
Ġindu ces
ĠSp anish
Ġext ends
g roups
Ġint ended
Ġf if
is er
ps et
bound ed
Ġdiv ision
Ġbas ket
Ġconstra ined
F l
Ġdivers ity
Ġp p
erson al
th rough
a us
Ġmanag ed
P N
Ġpotential s
ĠMe V
Ġp et
Ġ ĉ
ĠAssum e
ist ically
Ġb ars
ĠT re
Ġst ations
Ġmark ets
ĠE ll
t rack
}) -
Ġaud io
or ney
ost on
Ġclass ic
Ġfam ili
Ġsurpr ising
Ġch a
Ġoffic er
Ġv ocal
int s
ex perim
ĠC A
en ced
Ġcl ick
Ġview ed
A ss
Ġde partment
el ines
ĠB ell
ransp ort
Ġl anguages
Ġ$ $\
Ġanim als
ur rent
i very
ars h
is y
Ġillust rate
M in
ord ers
Ġconcer ned
ĠN S
}= (
Ð¾ Ð
Ġm al
\, .
ul ing
ĠM ot
Ġout perform
ex ists
Ġviol ence
ĠF ar
Ġm iles
Ġsuffic es
av a
'' ,
ĠL ab
C N
do i
d if
Ġpres c
Ġro ut
Ġindic ating
ĠVict or
ĠD ue
}} }$
= (\
Ġexcit ation
ĠM ike
d z
ut ch
elesc ope
qu ark
Ġpl ants
Ġprob e
Ġprep ared
sh ort
eng er
Ġs ale
ate ver
ĠTh rough
pro v
M ult
Ġtri angle
hy per
Ġcy cles
tem perature
Sim ilarly
$ (\
g iven
Ġb order
Ġnumer ically
Ġsepar ately
Ġcal ibration
Ġfore st
d riv
Ġref ers
ĠÂ »
ĠB an
Ġhydro gen
ĠW al
D uring
F orm
on av
Ġ }}
Ġfil es
ent ric
dist ribution
Ġcomp ens
Ġwa it
198 2
Ġopin ion
em a
ĠDe v
' }$
ĠJ eff
Ġl ibrary
Ġ\, ,
s ource
Ġe ff
Ġexper ts
Ġser ver
Ġdedu ce
st ud
Ġm ental
}( -
au x
P L
Ġp it
Ġtherm od
umer ical
ad ow
ys elf
ap ed
ĠP oint
iss ions
super vised
Ġasympt ot
Ġr ating
). }
Ġcross ing
B ack
Ġa p
Ġfun ds
Ġre ly
D on
ĠP R
respect ively
J an
maz ing
}^{ (\
Ġport ion
Ġcount s
ran ch
Ġtrack ing
Ġf at
ili pp
o ir
Ġre vers
) )$.
Ġsem antic
Ġg iant
Ġengine ering
^- $
Ġrema ined
Ġinst ability
Ġm it
ĠD es
19 60
oupl ing
ĠR ay
) |^
ĠN a
Ġquot ient
um ul
op ing
Ġinterpre ted
Ġde formation
Ġspe aking
ĠMed icine
Ġcon jecture
Ġfac ility
Ġloss es
Re ad
25 6
ĠFor ce
ĠB H
Ġhom omorphism
Ġmess ages
ĠEu clidean
ĠM u
C a
Ġdel ivery
ĠN ig
ĠL ight
ator ial
Ġto urn
ĠSp e
ĠB ir
Ġstudy ing
P o
Ġacceler ation
Ġpresent ation
Ġclos ure
p ack
uck y
ĠJ on
ĠI S
ĠWilliam s
Ġcut s
Ġv ulner
Ġs ight
Ġa ux
lement ary
Ġfin itely
sub float
Ġst ret
Ġse ed
Ġorder ing
Ġpropos al
Ġre tail
ran ce
D ec
empt y
Ġvalid ation
ĠP op
V D
ĠK en
ĠM iddle
w er
dom ain
Ġt ag
ĠP ak
ins on
Ġcl ient
Ġcosm ic
Ġmarg inal
Ġs we
Ġed ition
Ġteac her
ĠC ross
pro tect
Ġcomb inations
Ġyour self
ĠRe al
ĠW all
}} }{
Ġh ab
Ġmon ot
Ġfore cast
Ġconsum ption
R L
Ġen ables
Ġpix els
sing le
ple ctic
im od
Ġissu ed
ĠS aint
Ġrow s
Ġsynthe tic
Ġret rie
Ġcoll apse
ĠH istor
Ġsens or
pert ies
Ġfrequ ently
um es
it i
B ook
E ach
Ġchain s
empor ary
ĠS ign
ert ion
Ġk ick
f ast
ĠCar lo
ĠG rant
oc y
Ġbroad cast
Ġelement ary
Ġun stable
re le
ĠAd minist
im b
ĠI T
ĠStud ies
ever al
Ġfeel ing
Ġlink ed
fram e
Ġhol ding
Ġcapt ured
V i
og ue
os a
ĠS O
K S
ĠG ar
, ~
ov a
l ayer
ĠA ND
Ġcap able
Ġfound ed
Ġinj ury
Ġgen us
Ġsp arse
ĠE instein
Ġcr ime
F il
c ount
om er
O bs
Ġcould n
Ġfit ted
Ġrang es
Ġrepl acing
cl os
yp es
b u
\ -
ch itz
ĠW rit
Ġgener ality
as i
Ġrec urs
Ġatmosp here
s i
EE E
em an
Ġ iron
ad i
Ġconcept s
co ordin
Ġs ession
in n
Ġrestrict ions
ĠF ederal
G eneral
v y
ath an
Ġre v
Ġsee k
Ġoutput s
ĠM ean
}_{ (
Ġpercent age
Ġhard ware
ĠS E
or tex
rom e
Ġst uff
Ġsp ring
Ġaccept ed
C F
l ink
Ġinter ference
ĠR un
Ġch ampions
: :
Ġexper ienced
ĠCol or
G et
Ġf ant
ĠR E
^ +\
Ġm ountain
Ġanalys es
ĠP DF
Ġpro ton
ph in
) !
Ġclass ified
Ġm el
g ray
D ist
Ġare n
t es
T A
Ġimplic it
ak ed
ak i
Ġinv ariance
Ġamount s
Ġdeterm ines
ĠP S
Ġannoun ce
' =
Ġmot or
iz able
Ġhelp ing
Ġmod uli
Ġm yself
Ġcon clusions
H istory
M c
14 0
Ġmathemat ical
ĠLore ntz
Ġadv oc
Ġprov es
sim ple
}$ ).
ĠN C
Ġform ulas
Ġproject ed
Ġcon sec
Ġne ur
fact or
ten ess
Ġa ircraft
indu ced
L iving
th ree
Ġl ived
an alysis
Ġel astic
Ġaim s
ĠT em
ĠL og
}} +
Ġinfin ity
Ġfin ish
Ġman ip
ĠRepublic an
left rightarrow
Ġobserv ables
Ġt ack
Ġow ner
.... ....
Ġhelp ful
Ġh air
onav irus
f riend
ĠAd ditionally
Ġf usion
\| _{\
13 0
D r
sh arp
G E
ĠIs lam
Ġdi ameter
on to
Ġneg ligible
ĠN AS
is ters
am i
Ġexp ensive
el a
Ġmole cules
ver tex
ĠF ollowing
D I
consist ent
deg ree
Ġf ear
Ġgu itar
Ġc as
Ġvacc ine
ĠDan iel
ĠW he
ĠK im
ĠI V
ĠCor por
ĠSen ate
Ġserv es
al i
O W
ans as
Ġarg ue
ire ction
ĠMich igan
D is
Ġfamili ar
Ġvan ishing
G P
Ġcre w
Ġelli ptic
Ġg ender
Ġact or
Ġintrodu cing
Ġa w
ian g
ĠR ight
c ounter
Ġhe ro
Ġmus ical
mat ics
it ting
Ġ )$
place ment
con v
st ic
Ġclass ifier
Ġsh ares
Ġphenomen on
sat isf
i pping
ĠB iden
Ġs pl
Ġperform s
Ġbelie ved
Ġch air
ĠN ight
Ġt ens
Ġplatform s
Ġregion al
t ree
Ġsh ut
Ġcryst al
ĠL ocal
fl at
Ġdown load
T ime
iam ond
Ä ģ
W ill
' )\
O b
es h
Ġassess ment
text style
ĠW alk
ĠG ener
et ary
id ents
Ġcircum st
Pre vious
ĠRec ords
M ost
d em
âĢ¦ âĢ¦
in ating
198 1
ĠAmeric ans
ab led
Ġtot ally
B F
Ġinter sect
Ġderiv ation
ĠDemoc rat
Ġtop ics
Ġsp end
Ġexplain s
Ġcomb ining
Ġpure ly
E very
Ġdis order
Ġsymmet ries
Ġdisplay ed
or ough
}\ }$
Ġd y
+ +
h ou
Ġrespon d
osp it
unders et
b d
Ġoffic ers
197 9
Ġgirl s
Ġw ww
Ġconcer n
ĠA ud
N on
Ġcitiz ens
Ġsk in
form ance
t ensor
clud ing
Ġtrans mit
Ġso le
ru ption
it ud
D av
it an
Ġexec utive
Ġfeature d
Ġprofess ion
j ections
ĠU pd
Ġproced ures
dd en
ĠJust ice
de pendence
Ġdisc overy
ĠSpec ifically
ĠS up
Ġsupp osed
= {\
ĠM as
ĠSc ot
Ġk id
est ed
Ġd raft
Ġsampl ed
ĠC art
b its
Ġslow ly
pl ain
st ring
Ab out
il a
Ġar ises
F ollowing
Ġequ ipped
Post ed
Ġshe ar
$& $
Ġdis pl
p redict
\ }}
Ex perim
m istry
t ot
ĠAut hor
c ov
ĠH aw
Ġgener ates
Ġpurch ase
qu ality
Ġvari ability
M ax
Ġc od
all ow
Ġb are
}| ^
Ġelect ed
Ġyou th
ĠSum mer
v able
11 1
= =
up le
ps on
id ity
ĠLear ning
ĠEngine ering
ĠL ine
ĠF ootball
] _{
Ġab elian
ĠEn vironment
Ġsc ored
w p
ost er
equ ival
Ġsignific ance
Ġperm utation
Ġlo ops
sol id
Ġc atch
Ġin g
Ġcl ouds
ĠE p
Ġro les
Ġab stract
Ġ era
ho le
Ġferm ions
Le ft
in et
10 5
) }^
Ġtor us
Ġwa iting
ic an
form er
Ġa ware
Ġcent ered
comp act
Ġre aches
1 12
sim ilar
Ġm ob
ĠAnd rew
Ġembedding s
ĠHen ry
ep ing
no ise
ĠM P
E X
big skip
Ġsym pt
Ġacad emic
Ġne arest
G D
Ġag ency
n od
ĠE st
Ġfe at
val uation
d ou
Ġneighb our
b ecause
Ġmanufact ure
Ġweek end
Ġme re
ĠK a
i pl
ĠTh ree
Ġth r
Ġful fill
U N
ĠB razil
l ock
Ġexpand ed
ĠE r
ch or
Ġb odies
etail s
ri ers
Ġp ed
re ll
Cl ass
Ġset tle
F M
ips chitz
im p
out s
Ġread ers
Ġregular ization
Ġdec ide
m o
Ġman age
Ġcop ies
Ġmov ies
ch arge
ĠĠĠĠĠĠĠĠĠĠĠĠĠĠĠĠ Ġ
Ġprom pt
Ġun ity
am ber
ident ial
id ay
it age
ĠF ort
auto ref
t own
il inear
ren ces
] _
Ġresist ance
Ġdef ault
Sec ond
T M
Ġun iversity
Ġhyper bolic
ma g
Ġhol omorphic
ĠProfess or
ĠD ar
it ter
- {\
Ġarm s
ĠM ach
Ġprodu cing
Ġut ility
! âĢĿ
l arg
Ġtren ds
ist ration
Ġb ridge
ĠL ord
ĠH ospital
F P
ra ble
ĠTe le
Ġimag inary
ĠP A
Ġst im
Ġconsequ ences
H L
correspon ding
S i
p op
Ġ ram
ov ing
w art
ic ial
ĠB C
}\ !
el ly
o om
Ġl iber
og rap
Ġmonitor ing
Ġoscill ations
bl ock
Ġdec ade
Ġb ond
Ġcomprehens ive
ect ors
Ġinc red
Ġt ends
U V
Ġon going
ĠS ep
Ġse arc
V al
or ous
ari ants
, .
ĠH ard
Ġbasket ball
le ts
Ġmechan ical
}{ $
197 8
Ġcol le
Ġ ens
Ġsu dden
Ġrel ativistic
Ġf le
ik i
Ġgu y
du ction
er ver
Ġphot os
on ym
ĠPol it
cre asing
aut hor
Ġcohom ology
m i
Ġvict ory
Ġseg ments
Ġquad r
ĠIn f
Ġseem ed
e ach
)\ ,\
Ġj ets
Ġactiv ation
$- -
Ġcre ative
ĠOb ama
Ġreve als
is ons
Ġse p
Ġquark s
ĠJ es
is ks
Ġmicro sc
ĠFrancis co
s eries
la ps
ĠM A
Ġdesc ript
ĠF our
Ġpre ced
@ {}
on om
}$ ;
Ġaccom pl
Ġn ative
on ed
Ġult ra
Ġcollect ive
ĠF ull
ari ate
w rite
Ġt um
Be fore
d oor
ĠL abor
ĠU se
s yn
Ġobserv able
ĠCon st
Ġlimit ing
Ġrelig ious
Ġmetall icity
ĠP ass
ĠEx ec
Ġneighb ors
b oth
oc ument
G G
Ġfeas ible
ic ate
à ¥
Ġdeterm ination
Ġdot ted
J ust
q q
Ġaccess ible
h s
rel ax
Ġmultiplic ation
ĠAn t
Ġen velop
Ġvari ant
ĠG R
red it
Ġhous ing
ĠThe atre
ĠT oday
ĠRe call
math ds
ors ion
ĠRad io
ive red
Ġdiver gence
ot es
Ġnew ly
Ġimprove ments
ĠSw ed
ĠB ased
ampl ing
) ),
ĠR ail
opt imal
Ġcont ribut
le ading
Ġ\\ [
( |
Ġp al
ru gs
Ġins ight
ĠW at
Ġf ell
L ast
m ond
act s
Ġindust rial
' (\
ear ing
3 60
Ġk ill
is ition
Ġa wa
B P
Ġele v
or al
ĠM ah
qu est
Ġincreasing ly
~ {\
est im
C ase
$ =
ĠE mp
Ġescap e
ad v
hen tic
Ġst ored
Ġcav ity
Ġsubject s
en z
ĠL ive
Ġinteract ing
Ġenc oder
Ġh a
ĠCath olic
Ġb ath
Ġeffect iveness
Ġappear ing
ĠS outhern
ab eth
s ym
ĠR ights
eg o
Ġ\ #
pl ied
Ġsatell ite
Ġconcer ning
ĠT erm
Ġp ole
ĠPh ot
ĠB ang
Ġsc ope
Ã ¨
enc ing
l r
Ġadv ice
chang ed
ĠGal actic
ĠS F
en um
B ased
Ġwall s
ĠF ield
ĠBro ok
et he
Ġabsol utely
Ġhum ans
U C
Ġoccur red
Ġr id
ab olic
Ġbring ing
Ġinstit utions
Ġgeodes ic
ĠF red
B D
ĠH D
B i
ĠE C
\!\! \!\!
Ġprotect ed
Ġ rom
Ġlog ic
l ights
Ġagre ed
Ġan imal
Ġre plic
Ġc oun
ens es
ĠB u
Ġsuper conduct
Ġwin ter
ul f
w ords
Re v
Ġrad ii
ð Ł
u pper
Ġa cknowled
Ġher self
ion ed
Ġvol tage
E ven
Ġs and
Ġintern et
Ġs oc
Ġb id
Ġefficient ly
ex pected
sp aces
Ġreport ing
et ing
ĠSp ain
Ġpol l
er os
Ġm ixture
writ ten
T R
Ġattempt s
Ġult imately
Ġ\ }$
Ġcan cell
Ġaux iliary
ĠM id
L ong
ak ers
ĠOn line
Ġpos it
ay a
}) (
o is
ĠMc C
op ed
ĠE uler
[ {\
idel ines
ĠA ff
de ep
Ġhom es
ĠH o
on line
Ġconnect ing
an aly
umn i
Ġpl anned
Ġlet ters
Ġsh ifts
Ġrecogn ized
Ġequ ally
Ġar rive
fig s
Ġpublic ation
Ġrespons es
Ġl ose
ĠA L
Ġg ather
Ġtang ent
gy pt
ĠSt an
) /\
ĠF un
ri p
' .
Ste p
Ġcorrect ly
itud inal
? ?
Ġhealth y
Ġcomm ission
e fficient
u ated
Ġensure s
m t
ĠCol umb
Ġl es
l ied
Ġval uable
F urther
T ube
Ġpost ed
ĠT er
ĠC hen
197 7
< /
cur s
Ġwatch ing
Ġre new
ĠNot ice
se par
cy cle
un iform
Ġpolit ics
driv en
A ct
Ġre venue
): =\
In deed
Ch ar
Ġdepict ed
Ġad mit
Ġadvers arial
ĠO k
make box
ĠP acific
Ġp ot
Ġs ounds
re ement
ĠSe ason
Ġdifficult y
Ġsub s
Ġa mazing
Ġm ort
ĠB oston
Ġwould n
Ġp ump
Fig ures
Ġm ent
Ġcent ers
f requency
ĠL ittle
Ġdef end
ĠH om
Ġaut omorphism
Ġacqu ired
ev in
Ex p
Ġobserv ational
Ġ river
ĠF R
Ġsubstant ial
Ġing red
is a
Ġcall ing
Ġf ish
Ġrece iving
oul omb
), (
, (
) ~\
Ġfraction al
moment um
ĠMin istry
e z
ĠS qu
Ġsu c
il ly
Ġvan ish
Ġcommit ted
Ġm and
197 6
Ġtw ist
Ġ urban
ĠCar l
Ġflux es
ĠBe ach
ĠJack son
ST M
the ast
gra de
ĠW here
Ġf ellow
Ġdefin itely
ĠF ire
ant i
K L
Ġc ro
r andom
r ative
ly wood
ĠUn ivers
Ġaward ed
rat io
Ġt error
ĠAd am
ĠA D
Ġann ih
ĠP age
Ġpro spect
Ġwe alth
ĠCont rol
Ġserv ing
ĠM ain
Ġlocal ization
ĠGeorg ia
su it
Ġexpl ored
compon ent
},\ \
Ġinstrum ent
Ġb atch
Ġsingular ity
B est
Ġ raw
Ġs an
Ġacc um
ch annel
Ġsche dule
b es
l ined
Ġfl avor
Ġev ident
n ight
}] $
Ġexpl oration
Ġb ow
Ġacc ident
ino is
g ood
deg ener
Ġsp ok
Ġdetermin istic
^{ [
ĠCl in
}} +\
Ġse at
ĠB on
b ase
Ġimpro ving
Ġtra dition
Ġobvious ly
Ġstand ing
Ġse es
ĠN av
Ġconsec utive
Ġc art
ĠGu ide
Â °
Ġcompet itive
Ġent ered
i at
e h
pol ar
à ®
ĠM ountain
L U
c over
rict ion
Ġter rit
}}\ \
Ġhundred s
miss ible
if ting
ĠCon sequently
v c
she ll
bib liography
ĠP rem
Com parison
19 75
Ġs outhern
---- ----
ot he
Ġappoint ed
Ġcontinu ity
Ġparamet riz
Ġtrig ger
Ġb an
ĠG irl
Ġcount y
Ġlength s
Ġdro pped
Ġvir us
ess el
Ġs ister
it atively
ĠB rand
g i
ann a
ĠSe a
Ġachie ves
big gl
+ $
top rule
ĠC all
ĠDe ep
ĠDemoc ratic
x rightarrow
Ġfl av
or ient
ak s
G reen
or gan
Ġwin ner
ĠJ r
Ġswit ch
Ġplan ets
Ġequ als
amp ion
rep rene
Ġb its
Ġfew er
Ġmanif olds
ĠB ul
Ġd amp
pt ical
res olution
L ist
Ġcomb ine
Ġra ise
e per
F in
Ġput ting
Ġre tain
Ġdeterm ining
Ġre in
Ġkin ds
Ġinequ alities
set length
Ġgrow s
Ġm il
l u
Ġnucle i
Ġte aching
id ance
ĠB rad
ple t
or ters
ĠM ic
lik ely
Ġgreat est
Ġb ott
ad el
Ġk ing
Ġbin ding
}$ $
ĠF uture
ĠR om
ĠD E
Ġmir ror
_{ (\
Ġre ar
Ġcomp r
P rop
roun ds
ĠStand ard
ed u
ĠM D
C V
Ġexpand ing
' ,\
Ġinterest s
Ġth read
Ġperform ances
ht bp
ail ability
. âĢĻ
pr ise
p y
Ġemer gency
Con clusion
Ġbright ness
Ġappro ved
N P
}} ^{(
Ġrem ote
quant um
R T
Ġal t
Ġcount ing
] }\
Ġhe aring
ĠMus lim
Ġp un
B r
AT ION
ĠS to
Ġexpl os
W ork
Ġmeas uring
Ġver ified
nes ota
al actic
ĠIma ge
Ġcomplet ion
el se
Ġ erg
Ġc ash
ĠD un
H ar
Ġperm an
}] \
ĠD espite
Ġext ensions
Ġhe ating
7 00
l ation
tra ining
Ġsuc ceed
Ġcommit tee
oun ger
plic it
gl s
crit ical
iel ding
Ġph on
mat e
pol y
ĠN orthern
Ġa fford
Ġadapt ed
mod ules
van ia
Ġdou bt
Ġtun nel
Ġch apter
ĠBe fore
Ġg ene
Ġthick ness
ob e
Ġarriv ed
Ġd ance
Ġdual ity
Ġproof s
ob ject
c p
ht ml
Ġjust ice
ĠL iber
Ġtourn ament
der iv
us cript
ĠNew ton
ĠInst agram
B T
ĠR en
bigg r
S ol
Ġdel ivered
t ics
Ġsummar ized
ĠS her
lic ation
Ġpromin ent
at i
Ġtro ub
ĠS ky
cent ral
Ġke V
Ġfl o
oid s
$ }\
Ġs now
Ġa id
ĠF ac
if iers
* {-
Ġterm in
ual ity
ĠS ong
ost ic
Ġoper ate
Ġsub sc
tra ined
Ġh o
he res
lim it
ĠM aster
it o
Ġun able
ĠP y
bur gh
Ġab use
ot i
Ġalign ment
197 4
ĠH un
ĠH op
Ġv ast
p resent
Ġg ar
Ġint elligence
Ġaddress ed
ig m
r ations
ap ore
Ġaut o
clud es
ĠD O
k ov
Ġ$ -\
Ġv aries
h olds
Ġn orthern
il t
ĠJ ordan
Ġt urning
Ġdes cent
Ġpass ion
Ġset t
}} -
const ant
ĠD NA
Ġprom ote
^{ {\
Ġp ose
con j
iz abeth
H I
Ġnew sp
Ġas sets
g t
Ġassign ment
Ġanc ient
symmet ric
Ġsp ending
ĠG i
ock ey
ol is
Ġlov ed
ĠUn iverse
Ġbatter y
S N
te en
Ġproport ion
ound ed
Ġdip ole
+ }
Ġv ice
G AN
Ġmar riage
Ġmes h
ĠC ost
Ã ¢
? "
ĠT rust
s ome
ĠSc he
Ġsqu ares
19 50
ĠS us
eq q
uch y
V er
ĠOr der
vious ly
) {$
d irect
ĠK ey
Ġpar ad
p ed
Ġcomput ations
Ġprogram me
rap ol
Ġvol unte
act or
raise box
en ance
}) }\
ell o
Ġreg istered
Ġhomot opy
Ġscen es
Ġviol ation
~~~~ ~~~~
ĠT w
Ġpartners hip
ĠD R
ĠG W
ĠN evertheless
Ġcon crete
Ġext raction
Ġt iss
ĠS em
back ground
Ġtransform ed
ĠVi ew
Ġexerc ise
ĠMicro soft
res ize
Ġshoot ing
Ġcap abilities
Ġcrow d
ĠPro of
Ġsu it
Ġinvest ors
sp an
Ġfair ly
ĠR od
Ġth row
ĠComm unic
Ġconsum ers
Ġland scape
ĠAs ian
Ġhot el
Ġsc an
}} }{\
Ġch ose
ĠIr ish
Ġsh apes
Ġpers ist
ĠPh ilipp
ĠT H
Ġsyn chron
cer tain
ĠSupp ort
ĠWind ows
m ay
du e
B o
Ġbig ger
Ġhon est
ism s
Ġrequ iring
big oplus
ĠR ic
Ġacc ord
the se
Ġadapt ive
ĠG ro
Ġfif th
Ġwas te
p f
Ġfe els
ĠEx ample
ĠCo ast
ĠSystem s
l ab
ren ess
am ed
S ing
) ~
ĠW atch
B N
Not ice
p ace
ĠP lease
Ġown ed
Ġreach ing
M any
ol i
Ġconver ge
w orth
al ks
Ġauthor ities
sy l
V M
int on
erv ations
Ġin fect
Ġform ally
Ġnot ing
Ġpen alty
g color
l brace
Ġelectro magnetic
Ġprom ising
Ġcut off
Ġac id
Ġins urance
+ |
ĠJew ish
enn is
Ġsurve ys
Ġco al
Ġwrit ers
Ġphenomen a
s phin
resize box
] ^{\
ors hip
197 3
Ġus age
Ġimplic ations
]{. /
Ġlif etime
Ġad ds
Ġst orm
K e
ĠV ideo
Ġaccom mod
ER S
Ġalong side
Ġl ists
ass oci
ĠCh air
Ġbox es
man ifold
h yp
}$ ),
col head
r c
Ġgu ys
ĠOn t
d ynamic
cal cul
Ġ\, .
Ġwh atever
O O
H A
& +
gl obal
he im
b ury
D en
Ġantic ip
Ġaccur ately
E quation
ĠG alaxy
hed ral
Ġmoment a
Ġpip eline
Ġbar rier
g tr
ĠW ild
Ġthe rapy
w ing
Ġb urn
Ġminim ize
w all
ĠC irc
ic ious
ht b
ĠOh io
ĠW is
Ġcompos ite
W here
Ġgu ard
um ann
Ġresult ed
ad or
}. $
ĠT ro
ĠSecret ary
Ġinnov ation
ĠP ut
Ġfor get
ma king
Ġent ity
ĠJer sey
Ġr isks
Ġband width
Ġv en
Ġout flow
ph ia
Ġlimit ations
pos itive
197 2
Ġexcit ing
ĠAl ice
Ġinfe ction
( $\
Ġs ac
Ġcook ies
ĠF air
ish op
Ġmechan ics
ment ioned
ĠT ake
Ġstr ings
Ġidentify ing
Ġsp ons
Ġcl ock
ta ck
Ġint u
Ġquant itative
vers ely
olog ically
Ġele ctions
f a
p et
G en
b ell
Ġfor th
Ġact ors
Ġs in
Ġform ing
Ġthem e
Ġc riminal
Ġvari ational
d on
Ġmod ular
E G
p air
Ġqu bit
con vex
Ġcons ervative
Ġconvers ation
Ġisot ropic
ĠS af
ch a
Ġexponential ly
ĠChild ren
ir ty
ĠSur vey
Ġmur der
B el
stit uting
Ġst ores
Ġem issions
Ġte ch
ĠStud y
Ġeven ing
Su pp
Ġuniqu ely
Ġoff set
Ġdetect ors
ĠH erm
Ġour selves
Ġprinc iples
sm ooth
Ġfall s
Ġarg ued
ĠĠĠĠĠĠĠĠĠĠĠĠĠĠĠĠ ĠĠ
ĠC T
IN E
re r
Ġre con
Ġse asons
ĠL ook
Ġsupp ressed
fra ction
Ġar ising
27 0
Ġsing er
bibliography style
B oth
cos ity
ĠJ e
Ġfl ood
Ġcheck ed
Ġqu eries
Ġpass es
Ġconsum er
ĠD ark
ĠL ow
Ġam pl
w ang
Ġreal ize
j u
re v
id ation
Ġi i
Ġb ins
for mat
p q
Ġn a
xy gen
Ġconjug ate
Ã³ n
Ġmod ification
atas et
ĠĠĠĠĠĠ ĠĊ
> >
Ġapproxim ations
Ġst ick
h d
Com m
th in
Ġregard ed
Ġlogarithm ic
Ġcommut ative
vert ible
ĠP ay
$ ^{\
aw are
Ġdegener ate
s un
du ctor
Ġresol ved
ĠS on
int o
cho ose
Ġcycl ic
char acter
st ellar
Ġas ymmetry
NR AS
Ġlocal ized
Ġlist en
Ġsc ript
Ġperfect ly
ĠM arc
Ġdiscre p
Ġst rain
Ġdra ma
Ġatta ched
Ġexpect ations
Ġsubsequ ently
Ġdesign s
13 5
od ge
Ġ à¤
Ġsp ins
ĠSt ory
h r
diag ram
Ġan ten
stand ard
rac le
ĠY ang
Ġcontrad ict
Ġre actions
bottom rule
Ġrec overed
Â ©
Ġins ights
e eq
ĠC S
Ġcoinc ides
ĠK ong
Ġpay ment
ĠK ir
y o
| {\
C s
ne ction
Ġsequ ential
ab atic
Ġconvers ion
ho ok
syl vania
Ġim posed
Ġimpro ves
Ġy ellow
* {\
Ġteac hers
er on
Ġcan cel
Ġepis odes
St ud
sphin x
ĠC ivil
Ġprefer red
Ġregard less
and ra
desc ription
Ġg rate
Ġreg ul
Ex ample
ĠE gypt
n etwork
Ġvari ants
ĠF ox
Ġansw ers
t otal
j et
u z
Ġfight ing
ĉ Ġ
k k
H H
Ġe at
Ġdom estic
Ġpar ity
Ġlic ense
osoph y
Ġre verse
Ġsym plectic
Ġorient ed
Ġstri ke
Ġhierarch y
). $$
sequ ence
ore l
ĠSte ve
Ġv ortex
Ġrece iver
contin uous
Ġd ry
ĠB oy
Ġtri als
ĠC L
ok ing
ple x
ĠEn t
ĠCov id
ĠS yn
Ġbran ches
ĠV ill
) )=
Ġb row
" :
ric ket
3 50
ĠM ater
C ent
b ining
Ġevery where
Ġmer ger
Ġend ing
the y
'' .
Ġrel ies
ĠC amb
Ġremov ing
rel im
Ġf ab
Ġmin ute
u pp
ce ived
Ġcorpor ate
Ġde vel
ĠKore a
} ;\
Ġdeal ing
Ġfeat uring
Ġobtain ing
ĠAs h
ĠYou Tube
Ġask ing
Ġsto pped
ee ps
ag en
pg f
Ġf er
ĠIll inois
ĠF C
st art
p ur
r ically
' }(
' -
Ġsee king
ĠÂ ·
ab i
Ġpre lim
Ġb gcolor
ri ate
X X
om atic
ĠQue en
11 5
Ġcre ates
ĠC ro
et ch
ĠE ffect
ul o
ĠS NR
ĠExec utive
Ġag ric
Ġphot ometric
ou stic
\' {
nat ural
ĠL ink
ĠT y
Ġoper ated
Ġh un
U M
Ġra in
}{ $\
ry st
ma xim
r ants
ad ic
}} _\
L D
var pi
u i
vent ions
Ġadapt ation
Ġdem oc
roll ed
Ġca ught
ĠBro ad
ĠK ent
un a
An y
Ġarriv al
Ġart ificial
Ġsus cept
Ġover view
Ġmotiv ated
at tered
ord on
}} )\
Ġthere by
ow a
Ġguarante es
m em
Ġ ×
g ov
Ġre form
Ġag es
Ġsh orter
}^{ *
Ġrang ing
Ġfil ters
Ġmat ters
Ġfail s
Ġw ins
F i
ant um
Ġfrag ment
10 8
Ġl osing
ĠPr ime
E s
Ġv on
or dered
al o
Ġpat ch
dist ance
l attice
ĠU r
^{ *}
Ġauthor ity
^* (\
Ġrese mb
}$ :
Ġobtain s
int enance
Ġenc oding
Ġexhib its
r brace
] )
> $
Ġfav our
st age
Ġsingular ities
cos h
Ġworld wide
om ial
V ol
ey ond
)} =\
Ġconstit u
10 2
reg on
ess ions
ĠPak istan
war z
Ġm unic
ĠAre a
ack nowled
ĠRep resent
ĠWith out
Ġmag azine
^ *}
ĠG reek
z ing
lect ric
du ate
K K
est yle
Ġwill ing
ve ctors
n l
Ġa de
ĠRe v
New s
ĠO x
On ce
Ġ{ }
Ð »
sin h
ĠY es
Ġadj oint
at hered
Ġsympt oms
N L
Ġde pos
vel oc
se q
Ġin cl
cell color
st atic
ann er
ĠA C
Ġopp osed
ig ate
E F
Ġreprodu ce
Ġpres erve
ag a
Ġinde pendence
) <
ĠAm ong
Ġcharacter ization
Ġsimpl ified
Ġperturb ative
Ġalbum s
+ {\
ĠN FL
, }
Ġy ounger
O U
A re
ex act
ĠB uilding
Ġf ly
c ers
um a
Ġradi ative
Ġh aven
in formation
Ġsh ifted
ater al
ĠS ir
Ġ )\
Ġrestaur ant
c ost
)} ,\
- $\
ou red
g ment
M ain
Th m
Ġad ults
Ġle af
Ġover come
ĠC ru
Ġd rivers
Ġt on
Ġgre w
v v
Ġcaref ully
gtr sim
Ġsch olars
Ġh ospit
ĠK enn
ĠC oulomb
ĠA ccess
ĠStr ateg
Ġext inction
sh op
s ized
Ġsimpl est
off s
Ġdeb ate
Ġ ille
ag ues
Ġa thlet
Ġun like
pend icular
v o
Ġsol it
10 4
ĠPro cess
Ġconsist ently
fol io
âĢĻ ,
Ġrespons ibility
H igh
Ġd s
ens ively
Ġdanger ous
colon eqq
et ts
Ġgl uon
tain ment
): =
Ġgood s
Ġassist ance
}= -
Ġappe al
Ġup coming
co in
d h
Ġhealth care
| }{\
}{ !
00 2
Ġsurv ival
i ot
ĠTh ose
opy right
vi ation
ĠA ge
Ġgreat ly
Ġc umul
algorithm ic
ĠEconom ic
)$ }
] \\
am ination
ent h
L abel
ĠDis ney
ĠPriv acy
d le
Ġrecomm ended
Ġp in
Ġpro ud
Ø §
Ġdevi ations
Ġatt ended
ĠBook s
ĠPro blem
S ource
Ġk it
xy matrix
ĠM att
Ġindu ct
ra q
Ġaffect s
ĠBrit ain
ĠI mm
effect ive
Ġd rugs
att ices
ĠĠĠĠ ĠĊ
ĠG PU
Ġsur gery
Ġapp s
Ġpair ing
ĠH as
f ixed
ĠH art
Ġinstit ution
O h
ol ved
Ġt ables
Ġt ension
Ġc ouncil
ĠBay esian
Ġalle ged
hal f
Ġd rag
)$ $
ĠE P
ed ing
ĠI ss
h ig
Ġanom aly
Ġstre ets
U p
Ġcontroll er
Ġ( +
Ġb ag
Ġmut ual
Ġ[ -
rop ical
Ġre min
ĠOnt ario
Ġsustain able
Ġcub ic
Ġcommunic ations
sh ow
Ġgrad ients
ĠApp ro
Ġs oul
DB LP
com ment
Ġwe ar
k g
ĠL em
M I
Ġh its
Ġb aby
Th rough
ach us
ĠAn ton
riz ona
Ġdis ks
Ġe V
ĠC ode
ch arg
Ġprodu cer
ĠPh oto
v ard
Ġdr ift
Ġmach ines
Ġcomp ression
c ule
abil istic
ĠB ru
ub er
Ġatt ributes
ĠA S
Ġr ings
Ġest ate
ĠL ew
Ī Ĵ
ĠCon tin
aw n
Ġtransfer red
ed ding
Ġnon trivial
Ġaut hentic
v ia
Ġn arr
Ġrobust ness
gress ive
Ġca using
Ġstream ing
Ġph r
Ġin hib
2 20
ĠSo ft
N ational
Ġscal ed
Ġdemonstr ates
Ġbreak s
ar ters
coh ol
Ġwalk ing
eng ers
g p
Ġheav ily
ĠC ook
Ġc raft
um in
19 68
Ġsuggest ing
}\ )
Ġfocus es
Ġl ift
id i
Ġmodel ed
ĠP en
Ġarbit r
Col or
Â ®
ĠB and
c raft
iv ariate
W orld
Ġal ter
ac le
Ġremark able
ĠSim ilar
ĠTe ch
v dash
l at
I d
E A
q ed
Ġs ectors
ĠMin nesota
olog ist
ĠLat in
R F
ĠM ill
ress ing
5 12
le in
Ġcl ar
Ġsle ep
diag onal
}. $$
row th
Ġreal ization
Ġcommit ment
ĠPenn sylvania
Ġde eper
Ġsh r
Ġp ray
Ġpost s
Ġapproxim ated
M NRAS
Ġtal ent
s ite
n als
ĠH ou
Ġpl astic
Ġequival ently
ĠN N
r f
ã ĥ
âĢĻ .
Ġcurrent s
miss ions
Ġbos ons
Rel ated
s n
d ers
Ġhistor ic
or bit
us ual
B as
Ġsens ors
ĠFig s
hom ogeneous
b eq
Ġmeaning ful
pos ing
Ġprov ing
ar on
Ġcamp us
ĠS L
Ġmill ions
Ġenc oun
Ġinv ariants
ra ce
it ian
}} ^\
Ġf ault
Ġref lected
Ġrepe at
grav ity
Bl ack
Ph oto
ĠTra ining
Ġ ions
met ric
ast ro
f our
under brace
Ġman uscript
cor relation
Ġrenormal ization
Ġm useum
}) :
over s
Ġrot ating
ĠSc ient
ac her
Ġgu idance
Met hod
ĠSup reme
Ġintrodu ces
}$ &
d esign
ter ior
ĠE th
Ġa wards
197 1
A v
M ean
form ations
Ġcomplet es
h ad
ĠIn terest
Ġparticip ate
Ġv eter
Ġsw im
Ġcol on
Ġbrand s
ĠDav is
Ġdist urb
Ġtrans it
ĠOr ig
Ġsuper ior
Ġneutr inos
ĠV en
Ġasymptot ically
Ġconven ience
}\, ,
pl ac
ĠS wit
Ġphys ically
Ġprepar ation
Ch rist
Ġmiss ed
ĠWe yl
Ġbre ath
Ima ge
}) ^{-
AR T
ĠR og
ies t
L o
Ġsub graph
J o
Ġmanufact uring
ĠA ction
St ar
Ġex cluded
on ia
Ġgrad ed
Ġhon or
Ġsimpl er
ĠE V
Ġsummar ize
Ġoptim ized
ĠH ong
acknowled g
S W
d or
Ġcontinuous ly
ĠL uc
ount ed
Ġacqu isition
Ġ\| _{
Ġscient ists
oc ated
Ġg all
ĠN ick
% .
Ġim per
rele vant
Ġo xygen
red u
Ġaver aging
{ |\
Ġad ult
ers ion
Ġreplace ment
Ġent ities
ĠCl ark
achus etts
Ġdo ctor
Ġcontro vers
ain s
Ġbran ching
ĠColor ado
ard ing
A ust
enn es
and y
H y
= }
cur ve
Ġsh op
Ġmass less
m is
Ġobserv ing
Ġjud ge
be ing
Ġfac ing
ĠCon nect
ĠG ib
Ġto ler
Ġmanif est
Ġfocus ing
Ġvalid ity
ĠFore st
Ġemploy ee
ĠSing apore
er as
ph oton
Ġw estern
19 69
Ġp ictures
Ġcons iders
Ġredsh ifts
Con clusions
}) ^{\
add le
% ,
h arm
de pend
Ġco ff
AS S
Ġleg end
Ġpl enty
l ay
ĠPr inc
Ġposs ibilities
ter ms
Z Z
Ġear ned
Ġqu bits
ĠAdminist ration
Ġy es
Ġin frared
Ġgrow n
Ġade qu
m d
Ġlong itudinal
A dd
Ġpre gn
the w
Ġ ?
i ated
process ing
p erson
mult ip
f g
Ġm ic
Ġcircumst ances
ab out
W ell
p us
ile y
Ġremain der
ĠTor onto
ĠOffic er
ĠHe art
na psh
A c
Ġr ide
iz ers
M s
Ġdis placement
ĠTe V
l ind
Ġattract ive
ĠAir port
lim ate
Ġrank ing
Ġcoinc ide
aw ay
\, $
Ġs ending
new s
p ool
g rounds
Ġcon c
il st
Ġqual itative
ĠPar liament
n or
Ġg host
Ga ussian
}, $
om m
un ing
ĠM iller
augh t
Ġk pc
\\ \
Ġocc asion
De finition
ĠB all
10 3
Ġread ily
Ġy ards
ract ed
Ġm ig
Ġcorrect ed
ĠOlymp ics
ĠV iet
}$ ~
Ġc ards
Ġenhance ment
Ġcharacter ize
Ġd rum
Ġ ri
ĠPro te
00 5
24 0
P at
it ro
P G
Ġemer ging
idel ity
Ġneg lect
ĠK at
Ġident ities
com parison
Ġca usal
} '$
ĠAn th
}) }{
ro it
g on
Ġag rees
P O
hold ers
{- }
ĠAnd roid
ĠR os
oun ced
A cc
ĠR yan
is ations
Ġconvolution al
cor r
sat z
ot ype
ĠT a
con sin
Ġsched uled
Ġdwar f
L ear
Un iversity
Ġshe l
ir ation
ist ant
MS E
ĠT R
Ġmark s
Ġconsider ations
let ter
ĠPro duct
ĠW ales
Ġdraw ing
Ġun likely
ĠPr ince
D em
ĠSpr ing
Ġ( @
Ġa ds
ĠEl izabeth
C I
ĠSt ation
M o
Ġet h
M eV
F s
Ġr ising
ĠCo oper
}} }}
Ġto ken
le e
Ġm as
mak ers
se en
ud i
E st
Ġscreen ing
ĠCon dition
ĠEd ward
ph ot
Ġflex ible
Ġex clusive
Ġext ending
). $
categ ory
Ġquant ization
p ress
is o
Ġregular ity
Ġinterpol ation
ĠS S
Ġreflect s
Ġprofess or
Ġvis cosity
ĠCh apter
l ast
ail s
class ical
Ġcont our
ĠS pect
s olution
Ġwel come
ĠAnd erson
Ġk eeps
Ġmagn itudes
Ġthough ts
Ġg amma
ha ust
\" {
lin der
Ġno isy
Ġeduc ational
ĠL td
Ph one
Y es
ĠT ok
ĠB S
Ġbu ff
or ne
ĠĠĠĠĠĠĠĠĠĠĠĠĠĠĠĠ ĠĠĠĠ
p ow
Ġabund ances
^* _{
Ġhead s
Ġopp on
ĠE mer
Ġtra ding
Ġmeas urable
Ġcont emporary
Ã §
ĠNat ural
bound ary
Ġanomal ous
Ġob lig
ĠPa per
d ate
Ġturbul ence
Ġst ake
Ġvot ing
Ġarm y
Ġintegr ating
ĠL ipschitz
Ġillustr ates
S uch
Ġreason ing
Ġglob ally
Ġexperiment ally
Ġvis ited
Ġext rapol
Ġemot ional
scale box
Ġh ur
ref e
Ġadd itive
R ad
Ġsurpr ise
un ning
Ġmoder ate
Vi ew
Dav id
cl uster
ĠĠĠĠĠĠĠĠĠĠĠĠĠĠĠĠ ĠĠĠĠĠĠĠ
I EEE
U E
o il
Ġa ck
ĠO regon
ĠCh all
Ġfactor ization
act ing
ro magnetic
ra v
ĠScot land
Ġadvert ising
Ġsus pect
od ic
d ynamics
Ġc ab
period ic
W A
V is
ce q
ĠAd d
le te
Ġgain ed
a ug
ang led
Ġweak er
n ik
b est
Ġhab it
R et
Ġb at
col l
Ġf ruit
Ġpro jections
Ġhom ology
$ ~\
Ġw ider
Ġ{ {
Ġhe lic
ĠE astern
els on
Ġreg ister
fl ix
flu x
e ah
Ġcarry ing
In tern
ĠE M
Ġag encies
ĠS n
Ġdif fe
) _\
ĠY et
R em
W ho
) )$,
p ing
Ġdispl ays
Ġsqu ared
Ġexam ined
ĠP ur
it is
Ġvot ers
ĠAlex ander
ask a
cos ystem
ĠB ad
d dot
B a
H ol
ĠGu ard
Ġmes on
ĠV ari
Ġp ron
be red
as hi
Ġconsider able
Ġg ray
Ġcomb in
_{ |
se ason
Ġhous es
k ens
Ġrot ational
j e
u u
Ġapparent ly
ĠL HC
M r
ĠD aily
Ġassum es
Ġmod elling
ĠF a
\\ [
V I
Ġconver ted
Ġdevelop ers
Ġcont rary
ust ain
Ġvisit ors
A I
W S
nam ed
v ance
Ġqu iet
Ġcateg or
Ġjo ining
ĠK al
R ob
Ġdetermin ant
Ġde bt
ĠS R
O ct
Ġav ailability
ĠE ric
Ġh ang
cons ider
Ġmin ing
9 00
h h
Ġl ots
ĠD am
Ġvot es
ĠS ect
ĠQu est
i ate
Ġsum s
] ;
Ġack nowledge
Ġn m
er ted
Ġterm inal
ĠAg ency
Ġrequ ests
f all
omet er
Ġst range
ĠH and
Ġex posed
itect ure
Ġbeaut y
k h
t rim
Ġpar agraph
}) +
ĠN umber
Ġin n
Ġdi am
Ġcor onavirus
Ġmethod ology
Ã ±
Ġbelong ing
Ġinfer red
ĠG RB
pa per
Ġ riv
cor rect
arc sec
D ue
s ens
Ġepoch s
us er
adel phia
Ġpublic ly
@{ }}
Ġres c
H R
M O
Ġlegisl ation
ĠTh ough
ĠDe ath
se x
Ġtit les
Ġnot iced
ĠF ord
Ġr ural
h ot
tt ing
elect ron
coordin ate
Ġmarg in
Ġautom atic
l st
ĉ čĊ
ĠH ay
ĠM arg
D et
cl ose
Ġevalu ating
r b
cat en
Ġh all
spect rum
ĠS anta
ĠD om
Ġimag ine
Ġadvanta ges
A ug
L in
Ġcaref ul
Ġm outh
ĠC C
Ġfil ed
ĠF inal
ik a
ang ular
t yp
rel ations
Ġhist ogram
l anguage
11 3
ĠGovern or
Ġencoura ge
Ġplan ar
ĠH ur
Ġinnov ative
Ġassoci ate
Ġweap ons
M ich
Ġstri p
ĠA venue
Ġso ph
10 9
)} }\
C NN
Ġin jection
su pset
b ow
19 67
g as
ra ge
T ags
es is
Ġprovid ers
c ard
rg b
pi x
AN D
iv ation
P I
F ix
Ġtem plate
atter ing
Ġnucle us
Ġtal ks
Ġrecogn ize
ĠV eg
ira ble
m ad
ĠEx perim
)$ )
integ ral
Ġsc oring
M N
clos ure
D espite
st ery
an th
ĠT al
Ġrece ives
ĠCorpor ation
iz z
Ġ$\ |\
ĠI raq
Ġcalcul ating
Ġexcit ations
10 7
Ġcut ting
ĠC learly
F I
Pl an
tain s
10 6
S ur
ard ed
ast s
Ġper pendicular
u f
b n
ĠB R
Ġre write
ĠDemocrat s
c n
{ }\
Ġt ab
ig er
ĠM ount
] _{\
Ġprep are
pro fit
Ġall ocation
Ġb ases
comm ut
Ġvari ed
re z
Ġent ering
Ġcry pt
ĠN avy
pl ant
ij k
] }$
ĠC rit
ĠO pt
assum ption
ĠS ho
ĠP ers
Ġact ress
Ġalign ed
ic ation
ĠCon f
ĠCount ry
}{ .
end a
u psilon
u j
Ġso il
Ġmultiplic ity
veloc ity
Ġenvelop e
Ġpro xim
ne ighb
on omy
Ġoccup ied
B s
ĠW ars
Ġpil ot
En glish
with out
ĠE T
Ġarrest ed
ipart ite
Ġarbitr arily
r us
ĠD ra
Ġde als
ĠS W
ĠB rian
Ġf ru
n ecess
ĠF OR
c lear
ul um
ern els
ĠN am
Ġc ores
d irection
de v
on i
ĠA rizona
eps f
Ġint ention
ir ich
Ġar ts
e en
Ġprelim inary
ĠDi ego
\ @
le an
op her
Ġstrateg ic
init ial
G Hz
el le
}\, .
Ġ\ )
Ġf ounder
sh ot
US Y
ĠA p
Ġb anks
ĠE vent
bl ing
Ġrig id
nov ation
Ġimp ressive
Ġimpact s
degener ate
mat ch
w he
on ds
H er
Ġs elling
ĠB ase
l ot
âĢ ĭ
ĠAs sembly
Ġreconstruct ed
Ġo x
Ġs ends
Ġf ract
Ġthermod ynamic
Ġstr at
ĠFin ancial
Ġinstrum ents
mer ce
Ġtarget ed
" )
at im
Ġsimpl ify
l ass
ĠO s
ogn itive
),\ \
Ġcon cluded
ut s
Ġd ots
no on
li ers
ic ide
ĠMass achusetts
cont ent
ĠB at
f ields
bur st
ĠP ubl
r ceil
dot ted
Ġbal anced
ĠHar ry
Ġbi ological
Ġdefin ite
ĠS earch
Ġtw isted
H is
M E
om es
Ġcomple teness
ivers ary
Ġimp ose
oupl ed
Ġsp oke
19 65
ĠStep hen
Ġaff ili
Ġatt ributed
C ons
Ġprim itive
ire ment
Ġsubstant ially
Ġmod ify
Ġentertain ment
Ġclos est
Ġin jective
ĠP ract
Ġdimension less
Ġexception al
ĠColumb ia
ell s
17 0
Ġel ig
Ġpres erves
Ġarchitect ures
ĠInt eg
Ġamb ig
ĠK now
ĠP it
Ġmin i
Ġthere in
, +
Ġaccord ance
k ip
ge red
i ac
ĠCap ital
Ġhyp ers
Ġdoll ars
sur face
Ġmere ly
n ear
ĠÂ ©
ĠC PU
irich let
)$ ;
Ġf inger
. ]
Ġguarante ed
Ġs ke
ĠPl ace
Ġcov ariant
Ġcom edy
ĠComm on
19 64
Ġfound ation
Ġsit ting
Ġanisot ropy
the o
Ġv ort
Ġcompan ion
Ġtrans action
Ġal umni
str ate
Ġmembers hip
}) ,\
~~ ~
ĠDe ad
ĠPhys ics
y ard
ĠCur rent
ĠM I
ĠM ess
el lect
ĠF L
Ġb ubble
Ġprotocol s
ĠM it
ark s
Ġop ens
Ġsynthe sis
Ġ ic
it led
Ġte en
y les
Ġatmosp heric
ak h
Ġcompl aint
Ġle pton
Ġrect angle
Ġe c
ĠM ari
f m
Ġpair wise
r ong
y ers
Ġm o
Ġutil ize
Ġf iction
Ġneg oti
. -
g ot
Ġf illing
ĠH ad
w ind
Ġind irect
su fficient
O pt
L ocal
Ġ( )
g rid
par ing
b x
Ġin herent
ĠK evin
ov iet
Ġc reat
Go ogle
f ollowing
Ġcons erved
ĠSen ior
Ġdes ire
Ġma intenance
Ġs ake
Ġapp endix
Ġdec oder
Ġprov ider
e igen
tain ing
F ree
ĠMag azine
Ġmin ister
^* ,
amilton ian
Ġin formed
al gebras
[ ]
Ġin ert
Ġcont est
l ceil
Ġb oot
ĠE dition
Ġro unds
Ġbelie f
te ch
ĠW i
Ġsk ew
er ts
l ers
Ġinteg rate
oun ce
Ġremov al
opt im
Ġce rem
Ġb ought
\% ,
ĠReg ion
f its
Ġoscill ation
Ġgu idelines
ĠA B
ov ed
'' $
Ġf asc
Ġla ugh
Ġaccom pan
ĠR oss
Ġtr unc
he tic
.\ ]
Ġcont ributed
Ġj un
e val
Ġcy ber
Ġwrit es
D s
round ed
ĠAust in
Ġast ro
S a
Ġ âĢĻ
ĠI C
ĠThe ory
ĠMan ager
Ġwind ows
Ġobs erver
d p
Ġre volution
}}{ (
ĠF arm
Ġun f
o ption
u in
ploy ment
Ġd ates
Ġgain s
ĠR ose
Ġemploy ment
N G
ur ated
Ġsc r
Ġsp iral
ly n
Ġmot ions
ar ia
g auge
Ġg ates
h us
Ġn od
Ġform ulated
Ġco herence
Ġste el
Ġs weet
art icle
Ġb io
Ġco arse
ĠDef ine
ĠSt ill
Ġab and
plac ian
Ġt orsion
Ġfor cing
Ġnorm ally
2 30
ro d
L ie
Ġpol es
Ġinst ruct
Ġt elling
Ġsub groups
Ġad missible
Ġeng agement
Ġinv ent
nu cle
00 3
Ġtun ing
ĠD a
weight ed
Ġawa reness
Ġret urning
Ġpick ed
pot ent
ĠD er
Ġbehavi ors
dep th
Ġnot able
rad ius
ĠS ab
! }
g ame
Ġvari eties
Ġdissip ation
S w
= #
ĠJ ean
E m
Ġoper ational
Ġb rown
Ġmotiv ation
Ġinteg rable
Ġmod ulation
ag an
pro ve
onom ous
Re view
ail ing
ĠC ustom
Ġpoint ing
Ġcons c
omet imes
| }\
Ġst one
all as
M or
ĠWis consin
st ation
Ġre cept
cc entric
( (\
ĠF lo
E Q
Ġn ob
> ]
Ġsub mitted
the ore
Ġdecl ine
Ġprof it
Aut hor
is ode
ip e
ĠH al
im port
ĠB ox
math rel
th ur
Ġperson nel
Ġmaintain ed
n c
qu es
b os
Var id
Ġvictim s
w atch
)- (
Ġmat ched
Th ree
) )^
ĠM oh
Ġdev oted
Ear ly
Q CD
v as
ĠD onald
19 40
T P
ren d
ĠRes pon
ĠTra vel
Ġatt ribute
^+ _
our se
Ġreg ulations
Ġm ine
Ġo cean
iam i
g ap
abl ing
et ition
Ġd ose
Ġsent ences
1 19
ĠSta d
Ġdeg rad
Ġt et
N Y
C ross
Ġdem ands
an es
Ġlabor atory
ĠC ulture
Ġcomb at
Ġbo ys
Ġrel ate
}} -\
Ġsl ot
are t
Ġsp ont
d ney
b one
Ġport folio
el astic
ĠGold en
fra g
ĠL A
Ġ\ %
ĠL yn
ĠHol lywood
bran es
ip her
Ġreg istration
bs ite
Ġbur st
ta ken
ĠA k
19 30
ĠEx pl
se arch
Ġdro ps
ĠEmp ire
Ġp ric
Ġadv is
ĠT ransport
Ġpur su
Ġelse where
Ġprior ity
Ġpre v
4 50
Ġpers ons
Ġfor t
Ġsole ly
Ġrecommend ations
ray s
Sum mary
Ġrank ed
ĠĠĠĠĠĠĠĠĠĠĠĠĠĠĠĠ ĠĠĠĠĠ
Ġhe ur
Ġhost ed
Ġk ernels
ĠR F
Ġf estival
def ine
Ġto m
19 66
ant ics
Ġsub mit
Ġfall ing
ĠS oc
Ġpres erved
., ][]{
Ġcour ses
Ġga ps
Ġs ad
Ġexplo it
ĠCh ang
19 20
Ġme ets
ĠRef s
ĠHou ston
own ed
ev olution
Ġinstall ed
Ġgra de
Ġgen etic
Ġresol ve
ĠPort ug
/ .
Ġfac ed
ĠBer lin
Ġknow ing
ĠG un
symmet ry
sc ope
A pr
system s
$ ^\
fit ting
Ġdise ases
ĠH ave
Ġpropag ator
lic ations
ĠAssum ption
Ġphot ometry
Ġconsider ably
ĠA z
im m
igen ous
Ġsil ver
ĠW el
ĠP rim
Ġperman ent
Ġgrate ful
Ġdivis or
Ġn omin
Ġtrans actions
bre aking
l ate
ĠR aj
f erm
Ġant ib
im eter
Ġpl ug
rosc opy
Ġconnect ivity
Ġregular ly
Ġneg lected
P lease
Ġf ro
ar o
Ġsearc hes
ĠU l
ious ly
L og
M em
Ġs ought
Ġsp ars
Ġent reprene
Ġp itch
ew ise
Ġcontinu ing
* }\
Ġelect rical
Ġth orough
ĠSm all
Ġwonder ful
Ġt aught
reg ion
o T
Ġdiff ers
S outh
ĠCh ange
Ġtim ing
ĠF A
Ġspec ify
Ġevolution ary
M art
re view
l vert
ĠL ater
Ġpredict s
Ġar rows
Ġtra v
C ho
ĠB or
Ġplan es
Ġcl ip
Ġcoff ee
M W
Ġenjoy ed
Ġin vertible
Ġhigh lights
ĠB orel
Su per
Ġreg imes
Ġl ying
M ac
ĠMod ern
S G
Ġfrequ ent
Ġwire less
at ial
Disc ussion
Ġb ass
}\ ;\
Ġt ip
ĠI owa
re tt
Ġcomp rom
Ġhapp ening
ĠB attle
Ġex haust
ĠCa uchy
ĠP ack
Ġaim ed
Ġprofession als
C are
ĠUn fortunately
ath y
11 8
Ġoppos ition
L ine
di ers
Ġdistingu ished
F eb
Ġin version
ĠHot el
11 4
Ð º
P op
Ġsol diers
H ig
ĠSt ock
ĠTh anks
ĠP rom
Ġdiagn osis
ĠDo es
Ġto ugh
Ġbas ically
ĠChe ck
â Ĥ¬
{ #
Ġturbul ent
ĠT ax
Ġcomplex es
L u
Ġion ization
11 7
ĠNAS A
F W
s ame
m arg
Ġbo at
ĠC ab
P res
N at
ĠS FR
y al
Ġdis put
; "
Ġw ing
K E
R emark
Ġwhe el
gh an
Ġremark s
Ġe ccentric
Cor ollary
Ġad i
ĠS av
ob tained
Ġswit ching
y es
g ue
Ġestim ating
Ġste ep
U s
ah ler
b racket
Ġemphas ize
Ġv o
oy d
Ġsuff er
Ġ },
Ġtw enty
Ġindu ce
Ġc oding
Ġc ensus
G O
ĠD irect
ĠSh ort
Ġshe et
T or
Ġincorpor ate
a ps
Ġtransport ation
Ġfac ulty
Ġbund les
ĠAd S
O pen
Ġpro hib
ric ts
U L
sh ape
m ix
ynam ical
ag on
$ ]
ĠW inter
Ġenc oded
em i
ĠIndust ry
f ront
dec ay
r in
Ġk illing
ester day
Ġgeneral ize
Ġstreng ths
Ġsy nd
Ġan onym
Ġdec or
Ġ\\ \
Ġsure ly
ĠSqu are
form ula
H P
ĠF all
n as
Ġg od
Ġdest ination
I E
cal ing
pro perties
ĠM agn
ĠRiemann ian
Ġtriang les
N O
enn a
ĠR ou
ut ations
no align
ĠPlan ck
ke V
EC T
Ġ& -
Ġdestroy ed
}- -\
Ġpack et
ig roup
Ġindic ator
__ __
ĠB ridge
Ġm g
Ġph arma
Ġspe aker
geq slant
Ġtra p
Ġpres erving
}$ \\
Ġhouse hold
Ġfacilit ate
Ġoutperform s
, ...
Ġpolit icians
ĠB esides
represent ation
k ar
Ġm igration
Ġspect roscopic
Ġdiv ide
}{ -
n ie
Ġe cosystem
Ġconduct ivity
d l
ll i
Ġtri es
ĠB BC
Ġl y
Ġhol iday
s g
Ġtiss ue
Ġfe es
E qu
ok ed
al ed
Ġpull ed
dou ble
it ial
ĠV in
ens ing
ã ģ
ĠB it
Ġelim inate
Ġ$ ^
Ġto kens
)} ]
Ġdis ag
erv oir
Ġve get
Ġfund ed
e u
ĠC F
ĠC V
25 5
Ġoptim ize
Ġ ell
Ġblock chain
ol s
ĠEnter tainment
b ing
in ch
us p
Ġmed al
c v
Ġgrant ed
Ġg aming
;\;\ ;\;\
Ġp odcast
. [
. ][]{
ĠT an
ic i
ĠK h
Ġlo an
Y ear
Ġbelie ves
Ġd uty
Ġt ube
Ġs oci
Ġf ranch
K ey
et ric
Ġfe e
Ġint ent
Ġpredict ive
ĠW ang
om ing
ĠD utch
f p
Ġh at
Ġcap ability
ent ropy
Ġcompar isons
ĠĠĠĠĠĠĠĠ Ċ
Ġif f
ad joint
ĠYear s
ada pt
Ġminim izing
ogene ity
Ġphot ograph
ĠP ot
ĠPart ners
G ood
i ors
rr or
r ates
oc a
Ġreson ant
ens ed
u its
Ġh ate
}= -\
Ġm apped
Ġwebs ites
ĠSta ff
C hen
Ġhand ling
ĠEar ly
C ap
Ġse ats
Ġfra ud
ik es
B G
ym ph
D el
12 2
pro j
ĠMo ore
. (
Ġt iny
Phys Rev
, $$
| $.
em pl
Ġutil ized
Ġinter vention
\ `
11 6
app endix
Ġs quad
â Ħ
}: \
ast y
L em
Ġinst ructions
az e
Ġa fore
ĠN ether
in ema
com position
Ġhost s
Ġo d
pl ots
Ġgra in
Ġreson ances
ĠL es
ĠH an
ĠPhil adelphia
Ġmob ility
ho ps
c oupling
App endix
Ġe gg
ĠCl oud
Ġwavelength s
Ġ( "
ers hip
Ġtru ck
ĠLew is
)\ |_{
Ġmed icine
Ġair port
14 4
cont rol
ĠJes us
Def ine
Ġcar ries
Ġcons ensus
Ġm ild
pr im
ĠY uk
lim ited
ĠIs lands
Ġb ol
Ġc rack
ĠR ome
ĠD ifferent
Ġappro val
Ġb omb
w hat
ĠAl tern
ĠD ream
ry pt
D L
mb f
anche ster
Ġa xi
the sis
Ġmaintain ing
ĠH R
Ġbary on
ar n
U K
ĠA mb
Ġenc ounter
the ir
ĠB log
Ġf aint
rel ativistic
c ir
r ating
Ġspat ially
Ġv ic
pl er
Ġrel ating
Ġpartition s
s ight
Ġbe ar
d v
Ġdecre ased
Ġparticip ation
S H
Ġsurv ive
12 4
Ġrelig ion
Ġwor ry
ĠEd itor
ĠN ations
ĠN ash
rim ination
Y our
ail ed
Ġprocess ed
Ġb old
Ġsuff ered
ĠG Hz
Ġgre y
Ġaddress es
Ġmod ifications
ĠSar ah
Ġmag ic
os ph
Ġdevelop ments
. \,
am an
e very
t arget
Ġuniqu eness
Ġa z
ĠEx per
ĠCM B
Ġdecl ared
Ġfir ms
Ġhar der
ĠOx ford
@ {\
Ġreview ed
ĠM ake
l um
ĠCan cer
}} ;
Ġfermion ic
Ġpass age
ĠD A
am ents
17 5
ĠC u
). \
Ġwe aring
! "
Ġnot ations
)\ ;
im ir
ĠFig ures
Ġfra ctions
G al
ĠN O
ĠPl us
Ġille gal
Ġdifficult ies
Ġexec uted
D an
_{\ {
Ġin form
ock et
Ġcele b
Ġin coming
Ġw ine
iv ities
Ġle pt
Ġbase ball
om as
im plies
hook rightarrow
ou ri
Ġpolar ized
Ġas sembly
Re al
ĠW a
Ġsk ill
{- .
Ġle ver
Ġmagnet ization
. '
Ġsupp lement
Ġcont ributes
Ġgu est
ow ed
Ġun de
Ġver ification
ĠF ellow
ĠLa ure
ĠP ed
E v
Ã¡ n
Ġexpert ise
Ġsto pping
ĠO cean
Ġevol ve
Ġassist ant
Ġexpl oring
ĠIma ges
Ġstructure d
ĠR L
Ġconstruct ing
m r
W est
Ġcol laps
Ġoccur ring
Ġcontract s
B ur
ific ate
Ġt all
Ġsuper vised
ĠSD SS
Ġ }(
d imension
ĠN ature
Ġafter noon
us ive
ams ung
ĠStad ium
ĠL ady
Ġmole cule
ĠL as
Ġnarr ative
Ġac oustic
[ ]{
arg o
Ġst ood
th on
Ġeng aged
Ġs essions
Ġprob abilistic
approxim ation
or ry
Ġrec ur
Ġpro sec
Ġacc used
Ġvol umes
Ġi Phone
se a
ĠS ED
ĠTh ird
iv ated
re ction
Ġbl ind
Ġfab ric
Ġorgan ic
Ġign ore
Ġcr ash
Ġkine matic
mid t
c hers
Ġar row
Ġevol ved
ĠH ubble
Ġabs ent
Ġf old
reat ment
cess ion
âĢ¦ ]
ĠArt icle
chang es
ra ctions
W W
Ġthe rap
Ġle ct
ĠRepublic ans
Ġe ase
yn man
Ġtransform s
R o
d am
Ġclub s
J ac
Ġany where
t urn
te chn
Ġexp ans
ĠS A
Ġconstra in
C at
osp here
sup ers
Ġc up
int end
Ġiter ative
m ot
S ign
Ġsh ots
Ġnewsp aper
Ġinj uries
\ >
ĠV ice
au er
Ġvocal s
) ]{
ĠAff airs
^* $.
ĠBro ther
Ġpurch ased
R h
Ġsim ulate
Ġmorphism s
ĠLe ft
at in
f ollow
Ġtra il
clus ively
ĠDef ense
ĠH u
ĠCh annel
Ġinfin itely
Ġprior i
Ġen forcement
Ġsupp ression
Ġeng age
Ġcon caten
}) }{\
G F
j an
Ġoffic ially
ĠL P
ĠC reek
i u
t ration
Ġkn ock
Ġmeet ings
Sc ript
app y
C y
spe ed
van ishing
GB T
M ass
Con st
Ġcam eras
ĠR T
Ġl ad
ut ter
Ġfin ance
ia o
ĠM ir
Ġfit ness
Ġdis contin
Ġro oms
c u
Ġnucle on
y y
_+ $
ĠSt one
}} %
Ġsearch ing
Ġannih ilation
ĠW as
|\ ,
Ġrep air
um ar
ĠJ am
ĠVictor ia
ĠT en
on na
Ġbro ke
ĠC ub
tz mann
Ġdiscrep ancy
D own
ĠM ember
J u
Ġtrans c
id ae
Ġchampions hip
ĠM oon
im ation
Ġachie ving
raz y
esc ription
ik ip
Ġte ach
Ġrem ind
b ol
Ġro of
associ ated
Ġmetall ic
ĠT ony
Ġdifferent iable
Ġgu ests
ĠBel g
ĠL O
Ġelectric ity
Ġgradu ally
ele ment
ĠNet flix
ta h
Ġover head
pt ure
utr ition
bour ne
Ġprot est
}: =\
Ġsol o
phys ics
ve ction
bas is
C ateg
V P
\ ).
n one
ta kes
ann on
Ġcont ours
Ġt elescope
ĠPer formance
Ġpay ing
Ġren der
ent er
ĠC os
ĠAtl antic
Ġadv enture
Ġt idal
Ġun usual
s d
ject s
Ġ$( {\
\% .
Ġan satz
ou rag
Ġint ra
ĠGall ery
f und
S at
Ġa pert
D O
perturb ative
12 1
ard o
ĠNig eria
vol ume
19 63
R a
ĠWh it
19 45
Ġoccur rence
ĠRes ources
Ġout lined
at ar
Ġdisc ipl
W ang
Ġc asc
ĠJ ay
Ġafore mentioned
Ġbos onic
ĠNether lands
Ġbon ds
ã Ĥ
Ġin her
Ġinflu enced
l ad
ĠL iter
rib le
mathb in
Ġgener ations
Ġhighlight ed
Com put
Ġdamp ing
l ov
Ġstat istically
Ġp y
e a
Ġt rim
Ġneighb oring
Ġrele vance
z i
Ġvis iting
ĠHar ris
f amily
ur i
Ġsh ips
âĦ ¢
a verage
back s
Ġc f
ĠStud ent
Ġhad ronic
D u
Ġconsequ ently
Ġsupers ymmetry
Ġg alactic
Ġray s
ĠG ab
Ġun expected
b et
or ption
Ġle tting
ĠCla im
ic ing
19 0
H a
ris es
Ġt ub
Ġwith draw
y ou
Ġal cohol
K M
ĠS everal
w hel
ĠS olar
Ġinter fer
ee per
\, (
^* $,
}\ |\
Ġselect ing
Ġg ran
ĠB ush
pa ren
2 25
^+ (
= $
ĠC orn
12 6
ĠJ os
2 10
Ġaccept ance
Ġfluct uation
ro ke
ther mal
AL L
Ġiniti ative
Ġincorpor ated
con e
ĠJ ane
Ġeas tern
ĠR ac
Ġwin ds
Ġas ymmetric
ennes see
st ers
Ġign ored
ĠSim on
ĠM un
Ġfootball ers
ĠD or
obs erved
ĠP ath
Ġd ress
ĠA bb
r vert
ĠD ise
r ish
eder ation
Ġg ift
ĠG h
Ġext ensively
l an
end ar
Ġingred ients
14 5
Ġexhib ition
ic ip
Ġsh adow
n ell
Ġrel ief
Ġz eros
Ġart if
P H
Ġv ital
Ġrepresent atives
Ġinvestig ations
Ġk il
ĠAll en
f ound
Ġens uring
ole cular
Ġhierarch ical
d ark
}} |
Ġoff ices
var iance
}\ {
Ġlens ing
ation ally
ĠB ry
Ġlog ical
Ġdr ink
Ġw ra
ĠĠĠĠĠĠĠĠĠĠĠĠĠĠĠĠ ĠĠĠĠĠĠĠĠ
Ġmod ulo
Ġep id
ĠK ansas
ĠD ate
Ġtroub le
Ġint ense
Ġcontribut ing
ĠSaf ety
Ġdist ant
ĠLe on
CD M
ĠD id
olog ists
act ory
Ġcheck ing
ĠAl f
l apping
Ġl ob
flu id
exp and
}\ |_{
ri or
ish ment
ĠD rag
ug by
Ġb att
Ġb racket
ikip edia
) }}{
ĠT ru
bre ve
Ġpolit ician
ĠS oviet
ĠH ung
Ġp uzz
Ġcon g
ĠA h
ĠR oll
Ä ĩ
Ġbe ach
Ġf ake
part y
Ġpublic ations
Ġsp ots
al p
Ġfarm ers
ĠR on
Ġl attices
ĠChampions hips
Ġdist ortion
Ġdifferent ly
Ġcomplement ary
Ġquant ify
ion e
small matrix
Ġret ired
prop ag
w ich
ta king
ĠP ow
T ype
Ġg ram
n p
Ġmaxim ize
Ġneur ons
el and
ig e
ĠAnn ual
Ġstrugg le
ur is
P oint
Ġobject ives
O ff
ĠO R
Jan uary
ole an
' _{\
Ġgr ass
ellect ual
Ġtrac es
ut en
Ġk ne
Ġmod ulus
Ġd a
ĠOther wise
Ġflex ibility
other wise
Ġcont raction
Pro b
ĠMat thew
AR S
=\ ,
Ġet hn
triang leq
ĠSy dney
g ate
f re
Ġp ra
T L
ul ous
ĠM ars
z hang
ah n
ure au
Ġwin ners
ĠT aking
19 62
amb ig
Ġattempt ed
l as
ĠM O
13 2
hy thm
00 4
ort ing
ĠS H
Ġmem brane
Ġanaly tically
ĠCol lection
Ġcons ent
Ġpat ches
ĠG P
Ġrestaur ants
ĠCom ments
ĠPol and
ĠPat rick
ex pon
ict ed
od a
Ġpark ing
B rit
Ġcar rier
ograp her
T aking
Ġor ange
Ġcor ners
ic he
ĠSil ver
ĠS om
ĠEconom ics
Ġtro ops
{ -\
d m
Ġcomfor table
Ġcompet ing
Ġdeep ly
ter y
Ġman ual
os ition
Ġsumm ation
. }.
Ġbut ton
} ''
Ġterrit ory
W rit
ur ious
Ġto x
ol o
ĉĉĉĉ ĉ
on der
Ġqu art
ĠLe vel
ĠG raph
over ty
Ġgra phe
Ġm asks
Ġpuls es
ethe less
ĠS ou
] ,\
im uth
Ġkn ot
E nt
r k
w en
Ġconcer t
Ġreg ret
$\ %
Ġb is
Ġad min
ĠMult i
Ġcor ollary
ĠF ix
st an
}^{ -\
Ġvulner able
Ġweek ly
Ġb ug
Ġrac es
Ġanc est
ĠHistor ic
Ġdefe ated
ne xt
Ġdisapp oint
Ġcy lind
Ġmicrosc opic
Ġhal os
Ġgradu ate
z o
ps frag
ĠTra de
Ġbroad er
ĠG ree
vers al
Sim ilar
ĠC hern
et o
comp are
Ġl ux
Ġaccompan ied
Ġear n
ĠR est
' }{
Ġf lying
Ġill um
ĠM iami
ĠNe umann
rupt ed
Ġbir ds
elf are
^ -\
ĠIndian a
Ġr uled
ĠP L
U pd
Ġdiff use
. :
r l
ĠM ath
Ġinj ured
Ġincred ible
G T
Ġf o
Ġgen es
ĠReg ister
Ġdial ogue
in terest
Ġprote ins
in ality
ĠSt art
g ression
)}\ \
Ġdefect s
Ġ( .
R P
lem an
Ġpropos als
) {$\
}^ -
Ġserious ly
Ġw alks
Ġt ied
M arch
if ur
exist ence
Ġle verage
Ġb ounding
check mark
Ġst em
ĠK o
ĠEnvironment al
Ġmonth ly
Ġ$ %
ĠStud ents
ĠM ap
Ġclos ing
Ġsuper nov
' +
im g
ĠL ib
Ġaccept able
Ġhad ron
Ġanalyz ing
Ġsupers ymmetric
over rightarrow
Ġconstant ly
ĠRel ations
ĠE sp
R ober
T ok
$ _\
ĠG reg
b und
13 4
=\ !
.\ ,\
Ġsoph istic
) )}
ĠPro du
riv ially
iction ary
uls ion
)\, ,
Ġre jected
Ġo ct
B er
Ġr um
N F
}) \\
ĠPri ze
ar at
Ġreg ulation
I mp
Ġun con
Ġal ive
re x
ĠH E
Un ited
Ġrac ing
]{ $
online cite
Ġinv ited
Ġcompet e
ĠFore ign
Ġpay ments
al go
ĠC I
Ġadi abatic
Ġun changed
Ġatt orney
Ġmove ments
Will iam
ĠKore an
Ġs ick
ĠS ound
format ive
Ġanalog ue
Ñ ĥ
ĠAr gent
Ġill ness
ĠS ant
ĠAn aly
ĠP ier
ĠBan ach
Ġsus pend
Ġmac ro
G raph
Ġmon op
Ġtack le
ĠN P
Ġch ampion
s ig
Ġthe sis
abet es
n an
ith ub
ĠE ss
12 7
scal ar
H F
Ġadjust ed
Ġtriang ular
Ġass ertion
. }}
Ġrad ical
ut her
est abl
St at
d g
L ag
ĠI dent
hav ior
ĠĠĠĠĠĠĠĠĠĠĠĠĠĠĠĠ ĠĠĠĠĠĠ
Con tin
L ike
Ġanisot ropic
ch ild
c op
ĠO t
ĠS ite
Ġput s
ĠWork ing
uil t
Ġthous and
ir m
T ag
b ad
ĠC E
Ġdat ing
ĠM and
Ġtra ins
ĠMov ie
Ġbin aries
as ympt
ĠS ix
ding s
ĠReg ional
ĠCamb ridge
Ġast ron
Ġpreced ing
b v
ros so
Ġcy linder
Ġrout ine
par am
Ġsc attered
G ener
ig a
ĠC limate
Ġcumul ative
ĠC row
), $
, âĢĻ
Ġgraphe ne
ll ll
Ġsp acing
ĠF ind
Ġshort ly
Ġpus hed
Ġsur jective
O rig
An g
ĠR y
ĠBow l
D ep
che ll
ok er
ĠD irichlet
Ġout door
Ġcompl iance
sh aped
Ġout standing
T O
ĠO S
it ory
at om
p b
Ġillust ration
ĠBl ock
Ġneighbour hood
sec urity
Ġred und
Sp e
Ġla id
Ġ$ +
I J
inc ar
ĠT ai
ĠN i
Ġex it
r n
R ich
f ar
Ar ch
enn y
ĠSe attle
G H
Ġperm ission
ĠWalk er
Ġball s
u ons
qu arters
condition s
omorphism s
ĠM i
Ġwh ilst
Ġbran e
Ġhor ror
,\ ;
le v
Ġaccount ing
Ġoccup ation
Ġcapt ures
ĠSch r
Ġax ial
Ġnon negative
cl ust
ĠComm un
sq cup
Ġcol ored
Ġro ads
Ġsimplic ial
| ,
ĠVeg as
ur g
Ġw edding
ev ent
hand ed
ĠTur key
Ù Ħ
ĠTh ings
ph an
S ta
ick ing
Ġche cks
ĠObs erv
Ġres ign
Ġsing let
Ġrecommend ation
ro matic
ann y
ĠPol y
Ġprom ise
m ade
Ġcon vert
ĠK elly
&& &&
Ġestim ators
Ġan xi
Ġleg it
15 5
Ġgovern or
W E
ĠK y
Pro f
Ġg arden
ĠIn dex
Ġjoint ly
M B
Ġval ued
Ġsho pping
Ġse vent
ar ry
ĠE mb
d B
Ġsign atures
ĠAcc ount
Not es
Ġincor rect
ip ality
/ {\
t witter
Ag ain
Ġt aste
con fig
isen berg
em et
à ¸
Ġmulti pl
Ġhor se
99 99
19 61
Ġu ps
equ ilibrium
Ġb eta
ĠK han
scal ing
Ġut ter
qu ir
o ft
comp at
Ġent ers
^* )
conver gence
ol y
G W
le ton
ĠL anguage
Ġvis its
ĠS ri
ĠR h
ĠUn it
ĠI L
Ġtens ors
ou ch
Ġh opes
Ġax es
Ġp c
ĠB ab
Ġpl ain
ob i
ĉĉ ĉĊ
Ġrel iability
Ġpar abolic
L ook
Ġoscill ator
Ġsat uration
S che
T oday
)^{ -\
ask et
ĠInd ones
T F
ro se
}}{ {\
sh ire
> ,
Ġminim ization
Ġconf usion
grad ed
Ġsudden ly
Ġtheorem s
Ġs ou
Ġun certain
ĠFin ance
ĠD ave
Ġback grounds
k pc
in aries
Ġback ward
Ġto wer
ĠW ord
ĠCh ap
c b
f an
ĠH um
Ġfix ing
ĉ ĠĠĠ
ĠO pp
ĠC ow
Ġprov ince
Ġbrow ser
Ġcounterpart s
IF AR
Ġhe ll
p x
with in
Ġas ks
ĠF isher
ĠAg ric
S yn
yn olds
er ial
Ġev il
Ġconfin ed
Ġ\ ,\,
Ġmanag ers
Ġindust ries
ĠAn ne
Ġrele ases
sche me
L eg
es y
rain ian
A K
F ull
Ġoper ates
inter action
Ġmanag ing
SS M
Ġconcent rated
ĠPal est
ole t
on omic
ol k
ordin ary
Ġre act
S B
\% )
Ġres erved
ĠD ub
Ġbus y
Ġ= &
Ġregul atory
Ġtransl ated
Ġpre val
Ġanalog y
Ġarrang ement
ĠO ak
S en
d b
ĠViet nam
Ġgra ins
Ġequ ity
Ġn eck
\ ),
Ġgovern ments
f ire
at z
N a
ĠR ub
S to
T est
Ġstri king
st ars
Ġcon cludes
ank a
ĠF er
iv a
) }^{
ĠAf ghan
t re
Ġon set
V s
Ġsepar able
spect ral
Ġv oted
Ġch at
ĠD allas
ĠProv ince
Ġautom ated
Ġj oy
harm onic
Ġass ault
m icro
-\ !
12 9
Ġel abor
res on
equ al
Ġgr ants
L arge
uc ks
Ġdegener acy
Ġrail way
im ore
ĠC ore
Acknowledg ements
ac on
d ays
Intern ational
Ġacknowled ges
ĠA U
Ġm im
)$ :
ay ers
ik h
ĠN az
Eu rop
Ġin clusive
ia h
anc ies
Ġtrans ient
Ġw et
est imate
Ġas set
ne ut
ĠUpd ate
ibr aries
Ġlist ening
writ er
Ġb ij
Ġwar ning
Ġdog s
A f
ĠWith in
Ġbu ying
= [
bi ased
ĠP ersonal
Ġsc ul
if olds
ĠN ich
k t
ĠB E
exp ansion
big cap
Ġoff ensive
al most
ĠN E
Ġp ic
}$ };
et ics
Å į
ĠT ennessee
D G
ĠF ried
ĠLim ited
ĠD og
Ġne uro
Ġche ap
en ius
Ġad mitted
hy dro
Ġent hus
13 6
Ġunder go
T ake
ĠPol ish
F G
ĠM R
)= -
Ġconf ident
sing ular
en h
Ġle ak
im ated
G ra
Ġlab elled
t rain
ĠK it
Ġdomin ates
ĠT ab
C urrent
Ġbas elines
al ph
A lex
Ġcombin atorial
ĠM anchester
ag ger
T ext
d in
Ġh az
ĠN OT
Ġcooper ation
Ġsl ice
Ġadminist rative
ĠT ogether
ffic iency
Ġprov ision
Ġhas n
)} +
Ġcolle agues
Ġincre ment
Ġag ed
ĠP as
Ġnorm s
ĠB io
^{ '
Ġfilter ing
C learly
ĠMarket ing
ĠR O
Ġdis miss
ri ends
ĠAnth ony
19 58
fun c
ĠIn s
] ]
il ateral
Ġelig ible
S ym
IC E
Ġf urn
ĠPh ase
Ġaddition ally
Ġexpon ents
Ġcap ac
)}{ (
Ġdefe at
Ġin cent
}=\ {
Ġtra pped
t u
Ġo mit
Ġtick ets
ĠDu ke
Ġtrans mitted
r ine
in der
ĠOlymp ic
rack ets
Ġdra matic
Ġspect roscopy
$ {
Ġse eds
Ġbeh alf
Ġro se
Ġpaint ing
Ġrefin ement
Ġprefe rence
A tt
ĠPrem ier
on ing
e re
ĠH ER
_* (
N orth
qu et
t g
Ġocc as
ill ation
| <
Ġen emy
Ġwid ths
Aust ral
ĠW olf
Ġlaw yer
ĠMethod s
ĠN L
Ġfib ers
sh own
r ison
ĠExp ress
Ġwork er
Ġpoly mer
Ġsens ing
ant ine
l ag
Ġ{ (
Ġex clusively
Ġque ue
Ġden omin
Ġimportant ly
ĠMax well
ĠMem orial
cal ling
Ġconcent rations
Ġex terior
rot ate
Ġsuperconduct ing
ze ch
\ ;\
Ġsub script
ĠSch olar
z ed
gg ed
r h
Ġshe af
Ġfriend ly
Ġpresident ial
in cess
Ġwat ers
ĠAg reement
ex pl
Ġimplement ing
G old
ic ut
zer land
ĠR S
do es
Mich ael
âĢ¦ .
ĠJ ason
Ġop acity
osc ow
ĠT rack
st ret
equival ent
const ruct
w eg
it ure
ap or
ha o
Ġdocument ary
- .
ĠMary land
Ġd ict
ap ing
Ġdef ensive
Ã© s
Ġc ot
Ġfranch ise
Ġcomputation ally
Ġhypothes es
19 44
Ġsem antics
] =\
le ad
Ġmem or
Ġas semb
13 7
B en
ĠAd vent
Ġover whel
ĠR ound
Ġleg s
Ġcelebr ate
Ġd ies
un ov
prob ability
Ġn ur
Com bining
Ġfre ely
ĠN ik
tabular newline
Ġc ited
ĠMat hemat
_* $
Ġslow er
Ġvic inity
Che ck
ĠH z
Ġsettle ment
ĠE ag
v ens
Ġrare ly
st ration
Ġgen re
Ġpart on
Ġb le
sch ild
ink owski
}^{ {\
Ġdeploy ed
Ġp ace
Ġob ey
verb atim
perform ance
out put
Ġthreat s
L AS
Ġtravel ing
F un
ern and
Ġpresc ription
ĠF M
ĠS ex
sp ired
Ġar ithm
Ġfor b
ĠF ive
J une
ro oms
Ġp ec
Ġra ising
end ers
ine q
ta x
Ġrandom ized
ĠRober ts
ĠD ick
ĠPhilipp ines
,\,\ ,\,\
Ġres ervoir
V V
ĠLa placian
he t
3 20
Ġbe ams
Ġcal ib
ak ov
on ormal
tra ce
f ac
og a
ar ound
Ġspan ning
rid ges
ache lor
Ġme at
ĠMot or
ens en
part icular
Ġdomin ate
Ġtick et
g re
bas ic
amet ers
Ġen abling
P ublic
Ġem itted
el ve
Ġw ake
he m
ĠB ec
E ffect
ĠUn like
as hes
r if
Ġd elta
â ĪĴ
Ġref uge
Ġlik es
or o
ĠSoft ware
ab ol
am ps
sh ould
comb ination
Ġinterview s
label ed
Ġt ank
ĠD NN
Ġem otion
Ġl ag
Apr il
D ou
Ġgro unds
ĠM om
Ġ& =\
ole v
ĠM rs
Ġsix th
Ġenc ourag
' ^
Ġ Å
ie re
19 59
Ġh ook
Ġdescript ions
Ġanten na
gener ated
Ġvirt ually
ĠS ource
w ick
ĠD ur
Ġmultiplic ative
Ġt rick
Ġpart ly
Ġb ipartite
Ġf ed
li u
ĠAl i
ĠM eg
ĠC ele
Ġc ognitive
g ithub
C re
ograph ical
$ /
ivers al
Ġv ib
th us
Ġn il
necess ary
Ġreason ably
ĠB urn
em ed
Rec ently
ific ant
Ġchild hood
ma ps
Ġparamet ric
}) ;
itz er
ĠCl inton
f o
v ac
ĠP ra
)\, .
ĠĠĠĠ ĠĠĊ
Ġdes k
Ġannounce ment
Ġb one
Ġamb ient
erv ice
w ould
{ +
av g
16 5
Ġy ielding
ig ious
ĠDet roit
ok es
ĠL ind
ill iant
ĠC redit
ĠMean while
Ġ //
ĠP rice
Ġide als
t x
Ġ[ âĢ¦]
Ġent itled
res olved
{ %
Al gorithm
ik ing
ĠR ick
Ġâ Ĥ¬
Ġsub strate
j our
Ġwat ched
Ġcomp ound
ĠS elf
ac les
Ġjournal ist
ract ing
Ġob sc
F O
S un
un cation
ĠY outh
ad j
ĠN ob
constra ined
ang a
Ġkit chen
ĠScott ish
i op
Ġestablish ments
Ġdist ricts
Ġrob ots
ĠR G
ĠSm art
Ñ ı
Ġqual itatively
)} +\
Ġmonot onic
in cre
col sep
ĠF ront
W il
S an
Ġas ide
P DF
ĠC N
ĠRe volution
Ġt ur
Ġpass engers
t ask
chang ing
17 4
mid dle
pm od
Ġlimit ation
hol der
ĠAnd re
as cular
_{ *
ĠS ud
h our
Ġnot ions
ĠG as
ss on
rac ks
Ġdown stream
bal ance
Ġadequ ate
ater n
ir th
Ġcharg ing
o S
Ġaugment ation
ho en
ĠG er
Ġpopular ity
} &=&
ĠR ow
19 2
ĠAd vis
a rency
ĠS USY
Ġcomp ounds
ĠProte ction
Ġst ops
Ġfl ash
is cal
ren a
Ġmin ds
Ġspeed s
ĠTok yo
ĠS ales
Ġperm utations
disc uss
ag u
ĠPh D
Ġtimes cale
OR E
Ġrepeated ly
tun ing
ĠAtt orney
ol itan
oci ation
ĠBrown ian
we re
ĠO N
ĠV I
ĠSwed en
Ġlight s
writ ing
s r
em bed
J ames
Ġult imate
Ġb ird
ĠL LC
Ġlearn s
Ġpred omin
Ġdec oding
ĠTur k
ĠN ame
Ġrep utation
pr inc
Ġhypers ur
Ġsub spaces
Back ground
Ġt weet
Ġ( âĢľ
ĠM ol
Ġdes irable
Ġinsp ection
Ġestabl ishing
Ġamong st
ĠF ram
c z
l ades
s it
Ġlat ency
Ġh ack
Ġdi pl
}= {\
S al
Ġs addle
Ġrefin ed
Ġt act
}) +\
s we
Ġt ips
oc ur
Ġcoupl es
ps line
Ġret ro
Ġsus p
Ġcerem ony
ot ive
col n
win ning
in als
ĠN BA
Ġaggreg ate
trans ition
Ġphil osophy
Ġcha otic
as ym
Ġeigen states
mat es
^{- (
ĠSchool s
Ġsuff ering
Ġexam ination
_* \
Ġcosm ology
rosso ver
Ġy esterday
Ġevol ving
b ach
B V
Ġinsp iration
0 10
hen ce
m ers
Ġâ Ĩ
7 50
19 57
em ia
ĠPro perty
ĠDen ote
ĠCon tact
X Y
or se
ĠMar ia
}{* }{\
Ġt ropical
Ġrequest ed
Ġpres um
eqn o
ul ates
Ġcl im
Ġsing les
Ġre written
ĠP ear
Ġsophistic ated
magn et
Ġhead ing
ĠNe ed
Ġr anks
Ġinteract ive
as m
Ġpur s
Q U
ab c
Ġj unction
ĠN eg
Ġmem ories
Ġinfect ed
Ġunc lear
in th
13 3
orig inal
Ġdel ight
au ra
T D
orient ed
commut ative
s ys
S y
ĠLeg end
L ife
ĠB run
ple te
Ġsav ed
lim sup
Ġacceler ated
ĠW ol
Ġprom oted
Ġacqu ire
Ġch amber
Ġin ver
}} }(
l c
}^* $
L y
ĠN orm
set counter
Ġcondens ate
end ment
Ġinst ruction
Ġvacc ines
Ġn ut
Ġg ay
ĠMor gan
ĠMal ays
ellig ent
)= -\
ĠMon th
Ġe ating
det ect
th y
Ġaz imuth
C ount
Ġent rance
T om
T HE
( |\
}$. }
u ine
alt imore
Ġearth qu
ro ck
| ^{\
Ġimm un
ĠG ene
Ġs ed
{ }{
M al
2 24
ĠAr k
Ġcell ular
Ġsimultane ous
Ġcompens ation
ĠW ard
u is
ĠSh ould
Ġprefe rences
ĠMc K
Ġim plied
as ant
Ġen abled
ĠPh arma
h ift
} <\
Ġtax es
ĠMay be
ĠG ram
Ġn ations
Î ±
pect ives
b is
Ġsub stitution
ĠP H
Ġdriv es
S pect
gl as
ĠG L
Ġdiscret ization
Ġfil tration
Ġen for
T otal
Ġcommunic ate
G roup
H el
per m
P b
all ing
P et
ĠM W
Ġemer ged
Ġspirit ual
Ġbenef icial
ĠR GB
Ġdesign ated
graph s
determ ined
Ã £
section s
13 8
Ġspeak ers
. ),
c C
Ġhas h
Ġper ception
ĠSt ore
Ġpl aus
Ġperson ality
ĠM obile
Ġtreat ments
om ed
)+ (
Ġtum or
ĠPlan ning
P al
Ġdelay ed
Ð ²
Ġrelax ed
D ay
ĠL arge
L and
Ġcont amination
ĠE X
Ġmonot one
ather ine
Ġpredict ing
B re
C B
Ġcomb ines
Ġsur rounded
eps fig
5 000
c in
T eV
ph ones
u h
ĠP sych
b k
Ġexplos ion
)} -
O H
Ġcol lections
}) ]
ĠIn novation
ĠM E
over ning
m ir
Ġsurpr ised
Ġsustain ability
]{ @{}
Ġtun ed
a ud
}} [
ĠRec ently
d c
Ġcontext s
{( -
Ġtunnel ing
Ġp sy
ĠM ilitary
w alk
ĠG ard
L aw
00 6
M ap
Ġd inner
Ġfl ights
ĠHol y
N umerical
- }
ĠJ oh
ĠIn dependent
Ġinvestig ating
Ġc ricket
w estern
Ġtext s
ĠM arsh
Th anks
Ġb ull
ma c
il ty
ĠT i
Ġtra ct
var sigma
ĠAuthor ity
al ong
F OR
ĠD rive
Ġdist inction
Ġsmooth ing
Ġm i
con clusion
ĠCon cer
j j
ĠL GBT
u ating
sp here
Ð ¼
ab ama
hig her
Ġres il
em e
19 56
min imal
Ġt rib
Ġarrang ed
Ġpo etry
Z hang
19 52
Ġsupp ress
Ġs lic
Ġapert ure
Ġg ang
Ġstream s
V ideo
Ġmusic ians
ĠEv ents
Ġsk etch
Ġinstrum ental
2 60
Ġh ub
pro ved
Ġbre ast
Ġh urt
ĠN LO
Ġtrunc ated
m g
Ġ rib
}} ({\
Ġrem n
b at
ĠC it
ĠCast le
) &=
ist ance
Ġqual ified
D er
ĠWh ich
Y M
av ed
plement ation
Ġtempor ary
)}\ ,
qu bit
Ġcl imb
ĠLeg isl
ĠF ed
T s
B ERT
\ &
Ġf riction
Ġc ube
Ġsuscept ibility
J ack
Ġdiscuss ing
Ġb ilinear
ign er
alax ies
tikz cd
ĠB ureau
o a
Ġspec ification
ĠM ove
v ary
Ġser vers
ma ker
p seud
com pos
Ġsome how
Ġloc us
cor related
ĠB uff
ĠD omin
pp ers
Ġ\ ;\;
Ġt une
ĠD etails
Ġmes ons
Ġin ev
)\ )
Ġdo ors
ĠIsra eli
f n
ĠM s
Ġfant asy
Ġretrie val
Ġowners hip
ĠCor ps
Ġinc idence
ĠL iving
Mult i
)\ |
work s
Ġperm it
m orph
Ch apter
W he
Ġtriple t
art s
V ari
ick en
}} ^{-
Ġs napsh
Ġdesign er
Ġj ack
Pa ul
S everal
Ġsur ge
imod al
multip ut
E nergy
ĠMay or
Ġout line
) *
ow ards
ond o
ĠMem bers
ĠOrgan ization
Ġconvers ations
sc ore
ĠC ra
ĠO p
ĠRuss ell
Ġt ill
Ġca ps
ber ger
Ġgovern ed
ĠMe asure
o i
Ġdepend ency
ĠF ab
Ġappear ances
Ġbrother s
Ġ ...,
C r
Ġre feren
Ġstru ck
Ġharm on
Int eg
ĠA BC
19 5
Ad S
ĠL am
Ġdisc rimination
ĠIslam ic
ĠG arden
Ġsomew here
Ġview ing
ĠCommunic ations
Ġperturb ed
re ach
Ġparticip ated
ĠM N
Ġencoura ged
D onald
ĠD ol
On ly
ĠS cre
s v
ĠDel hi
Ġinf o
m aster
Ġpoor ly
}) _
Ġproceed s
ĠInter view
\ },\
h op
Ġt one
ri k
yp ical
Ġv ent
ap olis
Ġor al
Ġas c
Ġfun ny
on z
Ġf idelity
Ġ\ ;\
ĠH ug
Ġviol ent
Ġimm une
ib l
att ention
O per
ĠRe lease
me as
0 25
Ġmus cle
ill o
ĠT ar
Ġmet ers
Ġany way
\ #
U P
Ġact ively
ĠMic hel
Ġ$( -
Ġsing ing
P ublished
f ix
Ġsequ el
const ruction
Ġphon on
Ġdetect ing
Ġdo i
Ġsol ves
ĠCon stitution
h ire
e ut
ĠW orth
Ġche mistry
s b
Ġappreci ate
}{ (\
Ġcard inality
z an
ryst al
Ġwalk ed
Ġbi ased
ĉĉĉĉ ĉĉĉĉ
ĠF W
ĠRes Net
C G
Ġr u
ord ination
Ġsem igroup
ĠSte el
ĠA N
tem por
pol ynom
ĠH ans
ps y
ĠSch warz
ĠAll iance
A O
19 48
produ ction
R G
ĠN ev
| $,
st op
Ġd z
Ġcon sp
Ġant is
Ġsett led
ors es
Ġstat istic
Ġcontroll ing
emet ery
p read
19 55
uli ar
ĠLand au
Ġclass ify
ĠR ace
Ġmy th
ĠThom pson
Ġcont ents
Ġout break
Ġmil k
ĠJew s
Ġp unct
H aving
14 7
ĠP redict
ic z
ĠYuk awa
ĠReview s
Ġsub stitute
Ġcelebr ated
om p
Ġsub tle
Ġam id
c as
ĠZ hang
ĠWork s
ĠH IV
He alth
ous es
ĠJ en
ĠQue ens
Ġequ iv
ĠS ustain
ĠAtl anta
Ġspl its
Ġconstit ution
Ġpen et
rob enius
Ġro utes
Ġann iversary
bar a
cal ar
$ ^{+
dis crete
tab len
different ial
ud a
Ġmin us
ĠLabor atory
b us
Ġinstall ation
ĠLab our
ĠVill age
g age
sp ot
Ġshort est
ĠH I
Ġengine er
ĠB ull
Ġfol ks
ĠB ron
Ġleg acy
}: =
is ta
ĠT otal
Ġref used
Ġsuggest ions
J y
ens ely
Gl obal
Ġsu p
ract ive
int rodu
ur ities
Ġaugment ed
ron es
Ġhouse holds
De cember
3 000
Ġin hab
0 15
Ġsol ver
3 30
qu ot
e ak
ĠQu antum
hoen ix
\/ }
omet hing
Ġir regular
ĠF ast
Aug ust
Ġg athered
19 00
19 39
Ġb oss
ill ance
T I
n b
chan ical
ĠR ank
m any
ĠS I
$\ {
Ġm uon
}) -\
H o
re ens
ĠVol ume
em ies
) <\
and al
Ġany more
ĠEx change
h ist
it ten
15 00
, -\
mer cial
Ġweap on
Ġc able
Ġt ie
ĠM oscow
p riv
ĠHow ard
t ocol
Ġcl arity
d ocument
n othing
Ġaffect ing
Ġp iano
Ġs alt
ĠMod els
Ġplanet ary
book s
hom a
Ġh ockey
vi ol
ĠS ob
Ġga ug
Ġcomput ers
ĠE W
Ġcampaign s
Ġcol ours
Ġir relevant
Ġbur ning
Ġhit ting
ĠC ert
Ġste re
rob ust
Ġcross ed
M usic
Ġemploy ing
Ġcour ts
Ġmen u
hen g
Ġarithm etic
W atch
N ame
Ġimp lying
par a
Ju ly
ĠA thlet
l Vert
Ġsp anned
Ġad option
Ġstret ch
Ġabsor bed
N orm
}| $
Ġf ired
Ġlong est
ĠSt ories
ph abet
m kern
us hing
Ġbij ection
\, $\
N i
ĠMar ine
Acknowledg ments
Ġfunction ality
Ġconsc ious
om at
gra duate
Ġcoun sel
less ly
su ccess
N ov
ts burgh
d iamond
Wh ite
Ġhard ly
id ge
er k
Ġvol at
) &=&
Ġmer gers
ĠF P
alth ough
Ġexceed s
Ġdest ruction
In st
Ġdo ctors
ĠGree ce
Ġb ifur
ĠP ad
Ġaut onomous
ĠL STM
in ian
Ġmorph ology
| +
ĠTe xt
Ġinflu ences
Ġch ap
ed a
ut ies
rm k
Ġcom ic
Ġland mark
Ġtit led
ĠU tah
Ġincl ination
Ġlist ing
Ġaddress ing
ĠB os
Ġh am
ac cess
Ġsqu ee
Ġconstit ute
20 5
Ġprom otion
el o
who se
ĠCap tain
ĠM pc
Ġimm ig
ge ometric
if iable
d n
Ġb unch
Ġr ub
Ġorth onormal
Ġr uling
ĠM other
Ġke ys
Ġpro gen
00 7
Ġold est
ĠRic ci
n orth
is hers
ĠFor um
ĠPl aces
Ġhar vest
f ers
Ġth inks
ĠS in
Ġsuper position
âĢ ħ
Ġsem ic
Ġattack er
Oct ober
F our
em ission
mon th
Ġcross es
h uman
ene z
Ġunivers ities
ĠC e
qu al
Ġparticip ating
v x
ĠR ot
for t
Ġmore over
la homa
Ġform ulate
Ġphr ase
ĠM ission
Ġaccording ly
Ġrec ru
) ^*
ĠB uck
ĠG ordon
ĠImp act
pix el
mat ter
Ġent angled
e ast
= &
Ġo mitted
ĠM ort
Ġcomput es
Con sequently
am er
uch i
L ee
ric ulum
In stead
+ }$
analy tic
P ort
ĠP ast
C u
_+ (
Ġhospit als
19 42
ch t
ĠSwit zerland
ĠPh ill
Ġst rang
Ġ ðŁ
ĠMc G
e or
hy l
acknowledg ments
f b
ĠRe ynolds
ĠR andom
t itle
}} ]
Ġdel ays
P V
min ute
Ġarc s
Ġpus hing
enn ifer
uk i
Ġun ified
s sec
Ġb orrow
Ġsynd rome
13 1
uit ively
lies t
Ġmy ster
che stra
ir k
ant on
be am
b en
Ġse cre
Ġin ches
Ġch ronic
Ġsupp lies
Ġproxim ity
Ġliter ally
ĠComput er
Ġrel ates
Ġchart s
Experim ental
et imes
look ing
Ġtown s
Ġcirc uits
iss a
tag on
el ing
19 53
C rit
ĠHop f
Ġint rig
rel ative
Ġp our
ĠI M
Ġal leg
ĠAnton io
ĠMiss ouri
Ġl ip
Ġpresent ing
r ational
ĠS hi
ĠL ic
k ernel
Ġkine matics
X iv
ĠS el
ĠAr thur
K w
ĠMach ine
Ġto w
Ġpass ive
Ġres um
me ans
Ġemer ge
im it
Ġre cre
Ġsm oot
k ay
Ġl ake
Ġinfin ites
Sp in
C la
Ġst iff
Ġch ip
Ġminim a
c ot
d ir
ĠTai wan
m ill
uck er
Ġstrong est
ov ich
dis k
p iece
Ġsp heres
ĠN ation
ĠI ce
ĠB L
ĠSt ars
B ra
se lect
ĠT ree
ĠSing h
part icles
ĠB us
Ġeigen vectors
Ġpurs ue
ĠOver all
Ġmor al
00 8
Ġthe atre
Ġiniti atives
ur ches
we ek
uls ive
H u
adv anta
Ġm ail
gener ation
Ġaggreg ation
H am
am ous
}) /
}{ |\
Ġp overty
d ale
Ġgener ative
ubl in
ure r
F IG
14 3
Ġcomm ute
mod es
De ep
$ |
Ġprem ium
Ġnom inal
ferm ion
! )
ivid ually
ĠAdv anced
ĠPl ayer
ibr ations
pro file
Se ptember
ĠR u
Ġpass enger
con c
ad ium
ĠHerm itian
ĠK u
th a
ubb ard
ĠM os
we ets
Ġsoc cer
. ).
ĠV o
}^{ [
Ġbur ied
Ġv end
T ER
Ġopin ions
ĠNetwork s
Ġsh ar
Ġgun s
Ġrefer ring
uc lear
Ġparad igm
ĠP i
Ġcopy right
Ġmunic ipal
ĠMar vel
sem i
Ġan chor
Ġatta ch
ĠAssum ing
ĠA F
g ical
O p
'' (
Ġbar riers
Ġhe x
ĠAst ron
rot ron
K im
Ġc ul
Ġv it
ĠK am
es ome
riv ing
Ġprint ed
ass er
Ġdeploy ment
ential ly
Ġz ones
Ġde comp
Ġres erve
Ġoff ense
lades h
19 43
ĠPa uli
Ġprodu cers
Ġmer ch
S V
b ian
ĠClin ical
dor ff
ĠF em
Ġst yles
ĠO d
s ided
rodu ct
Ġf ron
Ġexpans ions
st rap
Ġ ~~
ut ical
] +
ar ation
Ġqu oted
Ġg olf
Ġre wards
Ġw ides
Ġb read
24 5
F ace
20 8
es la
ĠD L
Ġdig it
Ġde le
I ll
\ :
Ġ }_{
ĠA le
Ġsupp orters
Ġathlet es
d dots
Ġencoun tered
ĠChall enge
ĠS amsung
ĠInt elligence
IV E
Ġsaf ely
at ta
pl ates
New ton
Ġins ert
Ġcontinu ation
Ġres idential
ĠLeg al
N ovember
be it
E du
ab a
ĠD J
Ġlik ed
}} /
sm ash
ch rotron
Ġcancell ation
Ġtr uncation
h size
def i
ĠDe an
ĠIs ing
ĠE ver
comm unic
f ly
ogen ic
Ġhead ed
HT ML
Ġfaith ful
Ġmed ic
An n
ĠB ah
Ġport ray
im ath
S am
Through out
ĠUk rainian
@ {-
19 41
Ġcomfor t
d V
ĠB etween
ĠN ear
ĠM atch
S k
Ġpe er
}= (\
ag ain
B ay
Ġperson ally
m art
Ġrec urrent
Ġadvers ary
IT Y
experim ents
ĠH ope
16 8
Ġv in
e al
Ġfact ory
Ġrig orous
ĠDo ctor
ĠAP I
Ġtransp arent
ent ry
Ġcor pus
v ity
y pos
Ġattack ed
ab ul
14 9
Ġeng ines
Ġthrough put
agn etic
Ġbu ck
at ers
Ġval ence
ĠCr ime
Ġl ung
Pol it
is an
bal anced
Ġpriv ile
Ġspread ing
Ġpion e
Ġn ons
AC E
ĠPo incar
uris d
hal o
Ġ ),
ĠC ell
E ng
C oll
olog raph
Ġt il
vari able
ĠF O
ĠKent ucky
Ġdynam ically
sc reen
Ġfeel ings
f ish
Ġafford able
Ġpri ze
Ġman ually
hed ron
Ã£ o
ant ed
I B
Ġdep ression
ĠOffic ial
k j
19 47
der ived
Ġbl ank
Ġre fe
ĠN A
sc attering
2 15
}$ }\
c am
ĠTem ple
Ġelim inated
W omen
F ind
Ġwe ren
Ġret irement
Ġrespon ded
Ġadv ances
Ġb rackets
Ġemphas is
Ġestablish ment
ar ab
Ġh oping
Ġgen uine
Ġsign ing
Ġcr imes
Ġspont aneous
d ra
Ġscal ars
Ġvisual ization
Ġthem es
comp ass
Ġnov els
ĠPriv ate
c A
ĠAut o
ĠSp irit
Ġval ley
Ġthresh olds
D IF
Ġfant astic
C ur
Ġdr inking
}) _{\
ced ure
ĠBol tzmann
Ġless ons
Ġan th
Ġfore ver
Ġlay out
Ġcomp ares
math ring
Ġinvolve ment
w s
Ġindic ation
S er
ĠHer itage
i ology
ĠP erson
e ared
ĠF r
overn ment
Sp ace
Ġinvest ments
Ġst uck
ĠV ery
new page
Ġt u
Ġco aches
Ġsubsequ ence
Obs erve
re ma
Ġdi et
Ġres ident
ail and
14 8
ĠL S
Ġpuls ar
ĠC hat
ĠWe bsite
Ġformula e
ĠRo om
it arian
ĠC ox
ĠI SM
Ġpron ounced
us hed
Ġadv ent
c od
ĠD al
ĠGa uss
Ġat ten
$ [
en berg
Ġf oss
Ġwar rant
S ep
13 9
iv an
Ġ\ }$.
, [
stret ch
Ġpar liament
Ġcatalog ue
Ġcollect ing
Ġcount able
r Vert
ĠR V
ang ers
Ġex clude
ĠRail way
Ġbi ases
Å ¡
ĠC FT
ie ve
ĠLa place
M ag
ĠPri or
Ġsub algebra
disc ussion
Care er
Ġin spect
r v
def ault
18 5
Ġflow ers
ri el
qu asi
M ot
ex cept
ĠB la
ĠH ell
Ġconj unction
Ġ( -\
ĠH ills
be an
Feb ruary
Ġg est
ĠW y
B ro
Ġsp r
Ġimp urity
pro perty
ĠT E
Ġbr illiant
B ound
16 6
ĠMel bourne
Ġspars ity
row ave
ro v
Ġmac roscopic
Ġun bounded
ĠFe ynman
ĠWrit ing
Ġ Ø
ĠBe ing
Ġsyste matically
out ube
mult iple
level and
Ġluminos ities
Ġis lands
Ġvi able
ĠG M
ĠSp ort
Ġgeomet rical
Ġattract ed
Ġple asure
Ġmort ality
à ¦
ĠS ac
ĠS eg
ĠL ang
tan h
(\ {
Ġdesc end
Ġt rivially
Ġho pping
Ġ á
Ġcl ause
ĠStud io
ĠP RO
ric ks
Form er
D iff
ĠR ab
id uc
Ġcomp ress
t m
ber ry
S ong
Ġresidual s
Ġutil izing
Ġdevel oper
ĠL ane
Ġbuff er
ĠI de
Ġen orm
Ġsh ocks
Ġconnect s
row eak
" >
M er
$. \
I O
Ġout going
Ġaltern atives
ĠG O
ĠP T
ĠE R
Ġrac ial
Ã© e
Q L
ĠAl an
Ġcry pto
Ġdisapp ear
ir i
Ġbl ess
ĠG AN
ĠCom pton
grad ient
d iam
K P
desc ribed
ĠR and
S il
g un
Ġminor ity
act eria
ĠEp isode
ov es
'' )
Ġcha os
Ġeng aging
ch oice
ash ing
mark et
redu ced
)$ \
ĠPe ace
Ġplace ment
ĠRet urn
s ampling
Ġlabel ing
28 0
Te ch
Ġint ellectual
}\ ]
ĠSta ge
ĠSe pt
u plo
ĠB art
19 49
}- {\
Ġpubl ishing
ĠJud ge
19 54
om on
it ious
ĠAd ams
th resh
Ġst ating
Ġrun time
Â ·
W ar
osp in
f c
h ome
ce utical
Ġsatell ites
ut o
Ġgeomet ries
Ġenter prise
Ġcontact s
Ġdiagn ostic
Den ote
Am ong
Ġdesign ing
co herent
19 17
Ġsuccess ive
ant ry
14 2
tr uth
row ing
Ġparameter ized
14 6
~ ,
pre ceq
an ch
app rop
Ġpack ets
un es
ĠH aving
az a
t p
or ce
Ġconfir ms
Ġwides pread
Ġdisc ount
Ġaver ages
import ant
Ġstreng the
ĠSp ot
ĠSing le
Ġinv asion
Ġcryst all
S em
Ġtermin ology
trans fer
Ġde leg
pres erving
ed ges
ĠD ays
arc el
b urn
F low
ĠC ass
ĠMex ican
Ġconst ructions
Ġtheore tically
[ $\
Ġly rics
ĠT alk
cal ed
ĠOr th
ĠGr ass
Ġperm itted
Ġdown town
ĠP ap
ĠL ower
r ator
ĠH it
Ġmer ging
ĠM inkowski
chi at
w u
Ġseem ingly
Ġ !
Ġp ill
ĠB Y
Ġv oc
per or
$. \\
od ium
ur d
Ġdis aster
ĠF unction
Ġheur istic
ĠE s
Ġher itage
Ġgradu ated
15 6
Ġsh aded
Ġ ^{-
Ġatt raction
su cc
DE s
Ġprom oting
$ },
Ġsp ark
i ar
ĠHigh way
Ġorbit als
ĠG olf
ĠL ess
ĠL anc
Ġimm ers
ex pect
Ġprogress ive
S ystem
cal es
ro ot
h m
ric ane
Ġg ent
x pos
rop olitan
19 46
ĠF ant
] &
Ġdirect ors
ĠConst ruction
)\ }$
ĠM uch
Ġident ifies
int roduction
Ġfore sts
ĠU lt
E p
Ġdwar fs
ie val
Ġriv al
}( [
ĠNor way
Ġdepart ure
ĠH ero
Ġpec uliar
ĠB orn
Ġj u
Ġp or
Label s
ĠAl abama
spect ra
ĠA V
Ġre ject
) &=\
Ġpl ates
\, ,\
Ġfore ground
Ġcur ved
Ġtalk ed
an chor
Ġg raphics
ĠElect ric
0 11
Ġmy stery
- )
Ġin complete
ĠSch olars
App lying
}' \
Ġhost ing
friend ly
ĠInt el
Ġdra matically
par ity
ĠScient ific
_ +\
ĠLin coln
Ġlight ing
cycl ic
omet ers
Ġenc ode
ris k
b oy
n ice
Ġbeh ave
ĠT elescope
ĠĠĠĠĠĠĠĠĠĠĠĠĠĠĠĠ ĠĠĠĠĠĠĠĠĠ
Ġfem ales
App ro
Ġ( (
ĠMater ials
ĠSwed ish
Res earch
Ġsubst ance
Ġvacc ination
cor por
cccc cccc
ĠBlo od
ĠC ateg
iss ipp
}[ (
sc ar
Bl ue
int ed
Ġhydro dynamic
ir ates
ĠTerm s
Ġorgan isation
Ġsp ir
Ġper cept
âĢ ¯
not ation
ĠF ederation
ĠTheorem s
19 51
Ġcritic ism
Ġhand led
16 7
ĠB eng
ĠRec ord
Ġassess ed
Ġfl are
ĠP ick
Ġintegr ity
ĠR R
ĠI MF
ous ing
ab e
)] \
Ġf ishing
Ġle x
Ġland s
Ġ\ '
Ġag enda
In put
la h
Ġst ays
ĠFe ature
ĠG T
H amiltonian
Ġcent uries
ĠObserv atory
Ġdemoc racy
ĠJ ava
Ġshall ow
Ġsee ks
can onical
Ġrating s
Ġnav igation
id o
Ġs i
ĠChair man
Brit ish
inv est
P an
Ġisol ation
Te X
Ġmar ine
ard i
ĠR s
Ġprot ons
\!\! \!
ĠRes erve
ĠJon athan
ĠU C
Ġident ically
ĠT ag
ide al
N umber
Ġch rom
Ġind ividually
Rh ino
f eld
ex amples
Ġjust ified
}}$ -
pp ler
ĠB altimore
ĠR ain
Â Ń
j amin
ĠArch ives
Ġele g
}\ }
Ġlux ury
G N
ut or
Ġre ven
}_ *
le ments
ĠJun ior
F inal
Ġarm ed
Ġagric ultural
C all
$ }.
Ġexplain ing
ad just
ĠK illing
ore r
t n
ĠL iver
ĠPro p
Ġpric ing
R N
M en
[ $
Ġte a
t bl
Ġvolunte ers
C K
ĠSw iss
Ġf est
Ġpro to
are a
i q
s outh
ĠP ic
AC T
ĠW right
Ġc rossover
Ġa partment
vi olet
Ġclass ifiers
Ġto uc
pe ak
consist ency
Ġapproach ing
Ġo racle
)) =\
ig s
lik elihood
AC K
P ad
Ġrot ations
Ñ ĭ
Ġcomp rises
K a
Ġpresc ribed
Ġsuper gravity
Ġs hed
ĠCon sum
ĠStud ios
Ġc ow
P ress
ĠF al
ap unov
Ġsched uling
p es
E t
ĠMas ters
\ }^
ĠRob inson
)/ (
Ġtor que
Ġrec ruit
in creasing
Ġpre vention
cm id
Ġm ock
Ġsl opes
n umerical
Ġprepar ing
j ud
ĠSe ctions
Ġavoid ed
Ġanticip ated
ĠC IFAR
ul in
ĠPer haps
ph on
l av
is ers
ĠS Ne
T im
ĠC ape
Ġpo et
thin space
gra ined
ĠL ion
ĠGirl s
{ }^
Ġc ache
inter acting
Ġaccompl ished
cmid rule
Ġelli ptical
Ġw rest
ry ption
play er
r times
t ens
aver aged
Ġto y
min im
constra int
ĠE D
ĠSol utions
ĠC rown
v b
hor izon
H ER
ĠI ron
ĠSto kes
ĠB ible
Ġinfe ctions
st ability
Ġrecurs ive
ĠL ik
ĠG ray
L B
o pp
Ġfem in
c ous
Ġsuspend ed
< -
ĠJ ess
Ġtransl ate
ĠB aker
ĠLaw rence
ĠF ather
ĠAss istant
Ġfor um
ĠG ov
Ġover lapping
Ġavoid ing
0 12
ain ing
ou ver
Ġbare ly
C ov
Ġliter ary
N GC
) &\
Ġrem em
Ġimplicit ly
Ġsusp ension
ĠB rig
claim ed
16 3
Ð ´
ĠTra il
Ġmanufacture rs
ĠG B
Ġj umps
equiv ariant
ĠT am
U ST
Ġconduct ance
Ġsold ier
ion ization
flu ence
e ref
Ġe cho
ĠD at
ĠChrist opher
ĠC zech
Ġvis ibility
Ġt ies
ĠChar lie
ĠT ool
Ġcon form
Ġconfin ement
Ġod ds
ĠP D
ric ted
Ġpos es
Ġrep orter
Ġdecom posed
Ġmet als
Ġprot otype
ĠD P
Ġcor ruption
â Ĩ
F re
Ġm ile
ĠM is
,- .
19 36
Ġlov es
Ġ< \
}\ }_{
Ġfor got
ÃŃ a
Ġdiscuss es
Ġm ales
determ in
Ġmod est
Pro blem
ĠAn na
ref er
Ġres ort
qu ire
issipp i
15 9
15 2
With out
C W
ĠW u
Ġvo ices
Spec ifically
An alysis
ĠRe ading
Ġun supervised
Ġl unch
}} },
cm d
J apan
ill ary
Ġchair man
[ -\
compon ents
it ol
ĠK az
Ġtouch down
Ad ditionally
ĠWhe ther
d ynamical
ore n
ĠK ings
y u
= ~
Ġprocess or
d rop
L at
el ike
ĠE ve
ĠDise ase
M AP
ĠCons ult
ĠRe le
av ailable
ĠPolit ical
ĠUS D
Ġopt ically
min imum
Ġspin or
awa ii
neighb or
ack s
h p
asket ball
Q A
Ġcong ru
igh ters
C ast
Ġheter ogeneous
ĠN ic
23 5
15 4
Pl ay
oth y
US A
Ġ& +
Ġatt itude
' =\
ĠHe isenberg
rr rr
v p
Ġindic ators
u ct
w al
u ate
Ġexplan ations
Ġbe er
ĠEu ro
ter min
ma jor
L ow
ĠM T
em p
cl ed
Li u
hu a
ay an
ĠN elson
Ġden ied
Ġfast est
Ġfib re
ĠP apers
Ġres idence
ĠHar vard
Ġintu itive
Ġanonym ous
ĠAn ti
ĠLi u
15 8
Ġevery day
sur ance
K A
Ġrad ar
Ġimplement ations
Ġ& &\
Ġc of
Ġappoint ment
bund le
Ġconduct ing
In terest
comm on
Ġintu ition
Ġim posing
Ġshould er
Ġprom ot
Ġg ras
ĠN ative
Ġsuper vision
Ġpiece wise
Ġextrem al
F E
Ġc er
ĠH ess
en ario
Ġy r
Ġexpect s
sub script
IS E
Ġreal izations
Ġun e
T ri
ĠM oney
ĠM Hz
ĠSy ria
Ġresid ue
ĠIn iti
Ġan ne
ĠNam ely
Ġna ive
M icro
ĠSa udi
ist ing
Ġphenomen ological
})- (\
Ġsit uated
v d
Ġtem ple
Ġpoly t
}) }$
ĠĠĠĠĠĠĠĠĠĠĠĠĠĠĠĠ ĠĠĠĠĠĠĠĠĠĠĠ
Ġiniti ated
F ran
Ġnot ably
Ġreprodu ced
Ġl oud
Ġph ones
C ON
P ut
Ġel der
ĠTh ank
iff s
Ġdream s
l p
Ph ot
O s
Ġend points
k ind
n ic
ĠN ag
ess ment
^* $-
{$ {\
ĠG A
St and
norm als
ĠLear n
D om
uplo ads
+ {
g iving
ne ed
)} )$
ĠPit tsburgh
Ġsub stit
Ġbelie fs
Ġmain stream
ĠAfghan istan
ro c
ĠD ak
ĠSte wart
ĠT el
Ġdet ections
ĠVir t
Ġfl ip
Ġdel iber
Ġdemand ing
u ce
Ġg overning
Ġdis orders
Ġca ption
eral d
> }[
Ġinter faces
f ine
ĠU pper
Ġun ve
15 7
am ount
ĠCom ment
small er
Ġmis take
ubb les
stud y
ĠVal ue
Ġplaus ible
Ġtre ating
ĠD ance
Ġrel ay
ing ers
ĠColl abor
ag onal
) ]$
\| _\
Te chn
Ġre cycl
Ġg ear
Ġreported ly
T rack
}\ !\
ĠSc i
Ġperm its
Ġappropri ately
Ã º
ĠĠĠĠĠĠĠĠĠĠĠĠĠĠĠĠ ĠĠĠĠĠĠĠĠĠĠ
vect ive
Ġac ute
ĠHun ter
an te
36 5
ĠB og
19 18
Ġinduct ive
ĠI oT
ĠS ay
ĠG C
ĠTele vision
Ġfro zen
Ġfil ament
ĠCo hen
ro le
Ex amples
ĠAl bert
lot te
to o
Ġreflect ing
nod enum
ĠOk lahoma
ĠBit coin
R NA
ĠP hoenix
Ġch ances
Ġland ing
ĠPolit ics
th al
ffic ial
Ġtw in
ĠAb d
ĠApp lication
Ġcryst als
Ġh ip
ĠHel p
ĠM ind
v t
ij ing
Ġcod imension
ust ration
Ġincorpor ating
ĠEd ge
ĠL R
B esides
Ġunde rest
ĠEx amples
ĠM ab
ĠF low
hol m
ĠBang ladesh
Ġdimension ality
Ġcred its
Ġb ot
ey er
ac o
ĠMajor ana
b end
in ar
Ġv essel
lass ical
Ġped est
Ġcap tain
Ġc razy
pro f
Ġco in
ĠT M
Ġfil tered
ke ep
Ġb ike
Ġed ited
P relim
Ġgu ided
Ġlif ting
ĠPat ri
Ġh ide
ĠBru ce
v ct
ĠAn c
Ġde formations
Ġdeliver ing
ĠP os
Ġf ert
Ġdegrad ation
Ġaltern ating
ol en
Ġcl othes
Ġfair ness
Ġic onic
ul u
Ġchar m
Ġdes per
@ \
Ġpar a
}{! }{
K n
ir ts
Ġ$< $
ĠC over
ho se
Ġemot ions
be fore
16 2
he v
Ġn ic
Ġj urisd
al ia
jour nals
ĠAnd y
Ġp iv
s gn
........ ........
ĠStrateg y
Ġemer gence
Ã ¸
Ġal arm
ann ot
ĠS now
m or
ĠPl ant
ĠCon vention
Ġth ro
f mf
n r
ĠM ust
Ġpract ically
F ollow
fra id
swe red
f ive
Ġt ent
15 3
ĠA y
Ġqu ote
arc ia
ĠN SF
Ġinv al
Ġcl othing
be en
Ġlaw yers
Ġmut ually
Ġdepend encies
Ġfragment ation
ĠUr ban
) }_\
K T
Ġoff line
ĠB ou
Ġinitial ization
Ġarrang ements
Ġincred ibly
big wedge
ĠN EW
ĠP ublished
k u
n ull
}$ \,
pr ising
ĠS V
t ogether
ĠCar ter
d at
ĠPl atform
dif ference
ĠMa ine
in verse
ĠP O
ĠObs erve
aw s
refe rence
ac ular
Ġbeg un
+ (\
ĠM B
Ġjournal ists
b ay
2 17
Ġer u
K B
Ġag gressive
' })
Ġed iting
Ġt ape
ĠIndones ia
b ridge
ĠP SF
ĠO il
co e
ĠComm and
Ġdim in
ĠB ishop
ĠU ser
Ġlif ted
p al
Ġaccommod ate
Ġcomple ting
ĠBel ow
C opyright
ur u
Ġview ers
C lick
utr ino
C am
ol id
ĠT D
cont rolled
Ġtransp arency
Ġparametriz ation
wit ch
Ġpo ison
Ġm oon
Ġpa ren
i w
)( -
cl ock
Fil ms
t im
}\, {\
Ġposs ession
function al
- |
Ġr hythm
Ġple ased
] )$
Ġorgan isations
irect ed
Ġpro l
Ġstrugg ling
am ine
ĠL ock
âĢĿ )
normals ize
red shift
Ġwarm ing
Ġanomal ies
ass o
Ġsu ited
est one
Ġgu ilty
ĠPro b
ĠB h
- {
inc ial
ĠImp ort
pl as
Sm ith
c ool
ĠR ap
Mean while
[ ]{\
Ġrest ored
Plan ck
}_{ +
B al
v ir
Ġ& $\
fl ation
Ġ&= &\
) }}{\
ĠF BI
Ġaband oned
Ġtext ure
Ġsurprising ly
Ġcon ject
Ġfavour ite
is i
pro gram
Ġbirth day
ĠB ene
Ġsub mission
Ġsimilar ities
Ġvalid ate
Ġbreak down
r put
s ho
ĠÂ ±
ol as
Ġcur rency
Ġexp ense
Ġcompat ibility
h ill
Ġmanufacture r
con text
Ġt rem
Ġs ons
Ġlaw suit
;\;\ ;
ĠP resent
P ower
à¤ ¾
Ġroll ing
ac cept
Ġsh or
Ġspok en
U se
Ġ$\ ,
inos ity
Ġmed i
Ġtransl ations
Ġpl acing
Ġin set
is ible
ĠO cc
Ġbur den
Ġs aving
Ġbon us
ĠCre ative
ĠT rue
+\ !
ick ets
ĠAl ber
at io
Ġh ill
F ore
c ology
M g
IR E
weg ian
Ġf ought
Ġveter an
anc ouver
Ch ina
dot sc
ĠComp an
Over all
Ġb esides
Ġle mm
bib item
bi as
le ans
Per formance
ry ing
Ġbl ur
M pc
ĠR isk
Ġser ial
dom inated
ess els
Ġnon local
op ter
}' _
ĠC BS
Ġjud ges
Ġsu ite
Ġshould n
Ġm ad
ĠCh a
as is
de composition
Ġentreprene ur
Ġt uple
or ia
che l
t uple
Ġaltern ate
Ġmet ast
ĠTechn ical
Ġcollabor ative
it on
Ġoppon ent
Ġst up
Ġtrig gered
| (
ld er
}| ^{
Ġval uation
ta ges
ĠJ ob
in ous
19 4
ĠL anka
Ġdiam ond
Ġde put
000 1
ĠSe lect
Ġtarget ing
Ġsubt raction
pre ced
Ġemploy er
ingu ish
plan es
Ġcas ual
ĠB eyond
Ġsat urated
T ab
M ad
20 4
Ġartif acts
Ġre tained
Ġevalu ations
d k
amp ed
Ġcomm utes
R ay
ĠPe ak
19 38
Ġhel ium
T ilde
Ġche m
R ic
}) )$
q n
Un fortunately
ag ers
Ġdivid ing
ĠG ary
M us
Ġf uck
ĠB ERT
ĠKenn edy
a qu
ĠL if
Ġliber al
Ġex otic
Ġrest oration
Ġl iv
Ġspecial ized
Ġde emed
ĠHa us
F B
od ox
ĠB ed
appro ach
paramet ric
Mem bers
Ġtoler ance
Ġl ibraries
Ġpat ent
Pl ot
am y
Ġal phabet
Ġsav ings
ĠF ollow
ord ial
Ġs ink
en ia
ab ad
14 1
Ġ ).
Ġam en
ĠM g
Ġper ceived
Ġresol utions
ĠN eb
Ġa est
Ġt ale
], [
Ġrom antic
Ġre nt
anc ell
3 75
A ir
Ġsurv iv
rad iation
Ġmult ivariate
Ġsound track
) ^{(
te es
Ġart istic
inf o
he art
}) (\
Ġcon ce
C AR
p red
Ġlock down
Ġour s
ĠA u
Ġc ave
I ts
Ġback bone
Ġbuil ds
Ġimm igration
at op
og on
E lect
ĠâĢ Ŀ
ĠBrook lyn
Ġpersist ent
Ġfle et
ĠW W
N M
in finite
ĠD VD
ĠD ublin
Ġph osph
Th ough
Ġtet ra
are r
normal font
ĠDep uty
sh ore
Ġsh ipping
Ġla pt
ĠCol on
à ¯
Ġc ock
arcel ona
ĠRec ent
he alth
ĠG il
ampl itude
ĠK err
str ut
ĠGra ham
Ġh ired
ĠK an
Ġdie lectric
Ġvort ices
compat ible
Ġcalcul us
ĠBre ak
le tt
tab colsep
Ġen compass
Ġra ises
ĠSen ator
Ġw elfare
ĠL oss
Ġspeak s
it ational
Ġpow ered
ĠâĨ Ĵ
B ern
Ġassoci ations
}( (
}^{ *}
ĠJust in
Ġen umer
Ġagric ulture
Ġcrit ics
10 24
ĠMari e
pos al
Ġwe ird
int ing
Ġcontrovers ial
ĠSl ov
B usiness
f ather
i racy
B on
Ġle ts
ĠN BC
part ition
19 10
ĠU pon
Ġinstant aneous
Ġan swered
ĠL M
Rober t
ĠT rib
3 25
Ġin ject
ac cur
psh ire
du ality
Ġresc ue
H on
ad er
ll l
ĠAl bum
rotate box
P F
AT O
Ġprot ests
Ġlo ading
Com ment
Ġh ull
AS E
Ġl ingu
osp heric
Ġup grade
ĠBl u
Ġab ilities
Ġre vised
Al tern
Ġrecur rence
ĠBe at
con nection
Ġre dd
ĠTh ailand
Ġen force
ĠNC AA
ol der
we b
or us
Ġrecording s
Ġdocument ation
ĠHig her
ĠSt ructure
T ur
Ġ$ >
Ġpract ition
Ġp icks
var nothing
Ġd ash
ĠD oc
Ġp ul
Ġsh ifting
)} -\
h ape
Ġdi abetes
Ġachie vable
ĠConnect icut
ĠP el
cur ves
Ġind oor
Ġt ort
fil ter
Ġstay ed
our t
Ġpack ages
ogn ition
Â »
mat rices
ĠK ra
Ġevol ves
Ġceleb ration
iduc ial
Ġtw elve
p n
Ġanxi ety
Ġlo ose
17 6
ĠP il
ĠK ol
ĠK ids
23 4
Ġfru str
Ġhead quarters
Left rightarrow
in j
ĠG OP
Ġequiv ariant
ĠL F
The ir
ick ed
Ġaccompl ish
b g
t v
Ġcontradict s
ot ypes
Ġbut ter
Ġax ion
cent ric
p any
ĠT ig
' }}
ann ah
Ġpers pectives
Ġst adium
ĠM illion
19 6
Ġdist ribut
Ġb ills
Ġn ights
ex plicit
ĠVi ol
Ā Ā
ĠCh ile
ĠRich ards
Ġdenomin ator
Ġcal endar
ĠC her
Ġtrust ed
ĠSpe ed
19 37
Ġro oted
ĠW oman
Ġfollow ers
method s
Ġpropag ating
Å Ĥ
Ġphotograph s
oper ators
ĠTurk ish
p orts
ĠCamp aign
Ġrom ance
Ġinfinites imal
ab stract
17 8
ĠAut om
k ee
Ġbul ge
Ġven ue
ĠB ag
Ġmiss ions
ĠRob in
Ġindex ed
Ġ }^{
ĠOper ations
am ic
lo ads
Ġm ood
Ġmulti plied
N AS
Ġfun ctors
Ġche st
Ġprov isions
B ER
Ġmon oton
b log
ĠBe aut
ĠV eter
Ġ )^
ĠB uy
ĠStat istics
Ġinteg rand
ue z
ĠFac ulty
Th ank
ĠJ osh
Ġear liest
Ġobst acles
Ġgather ing
c ies
N I
ĠArch itecture
ĠThe ater
ĠN H
S NR
ĠN ar
ĠF le
Ġacc re
16 4
marg in
Ġencourag ing
im s
y ang
h aw
ĠDou glas
Ġpregn ancy
8 50
ll a
par box
V E
g ences
mak ec
ĠMur ray
Ġe u
ĠL E
ress ions
ĠN ord
ĠLouis iana
, ~\
d ig
Ġphot ography
ĠSte ven
Ġbenchmark s
ĠW ikipedia
A u
bes gue
bor ne
R oy
l ocation
ĠProfess ional
22 2
Ġaccom pany
i ov
Ġsem icon
spe ople
ĠBlo om
on ts
he at
Ġbur sts
5 50
Ġsmooth ly
IM E
sum mary
Ġpa ired
p ublic
man ifolds
log y
Ġupd ating
Ġfunction als
A W
Ġc s
Ġlater al
Ġsu icide
W in
Ġan nu
ĠEv ans
p here
Ġmer ge
ĠE dd
g le
Ġv enture
D escription
P riv
Ġtend ency
Ġwork flow
ĠCent ury
ĠSh an
i ref
Ad v
Ġg ym
Ġarray s
at able
w avelength
Ġtom orrow
Ġh olograph
ob j
ĠNig er
ĠWal ter
U D
ĠAst ro
Ġpro xy
ĠF ine
Ġthe ater
Ġb ron
Ġarriv es
itro gen
ĠMalays ia
Ġde cent
Ġstake holders
M il
Ġinn oc
Ġenorm ous
3 45
Ġaud iences
Ġd B
Ġelect roweak
Ġhand ed
ĠM eta
10 16
Ġexplo ited
ĠMil ky
red uction
Ġc oc
ir ds
ĠE L
T w
et ti
ĠT urn
Ġconcept ual
fill ed
ĠShe l
ĠK os
pr ises
}+ {\
| >
rent s
ang les
er ting
v phantom
Ġsolit on
Ġen emies
Ġco h
O l
Ġcontext ual
Ġmathemat ics
s ug
Wh ich
ĠFred er
Ġ\ [\
ĠP oll
0 30
Ġcomm ands
27 5
Ġa uction
ĠSu ccess
Ġdraw s
ift y
obs erv
T i
Spec ial
Ġpro s
Ġsmart phone
W el
abel ian
Ġsyn chrotron
T erm
Ġd eta
align at
Ġgro ss
Ġsus pic
Ġvill ages
ĠPet ers
Ġanaly tics
ĠF robenius
Ġlink ing
Ġmer ged
ĠFor ces
Ġpath way
}) \,
un ion
plo ys
ĠS oul
Ġmay or
ĠD rug
S ocial
larg er
z one
ĠMit chell
Ġc rop
ĠP ant
Ġclaim ing
^* _{\
Ġquas ars
ĠH il
ĠPro duction
17 7
ĠIn surance
Ġposit ively
add plot
15 1
Ġh op
ig ating
av al
Ġm art
ĠPubl ishing
ĠIn stit
$ +$
Ġover se
ĠClass ic
ĠO range
Ġhigh way
Ġdoll ar
ut er
ĠPal ace
makec ell
D ifferent
ĠJ oy
)= {\
k r
re ason
ĠF el
sim pl
station ary
Ġsu gar
Ġeffic acy
Ġkne e
ĠL ot
Ġopt imum
b uilding
c ub
ĠC ensus
Ġaccount ed
D esign
R uss
heim er
ĠL L
Ġass ert
pow ered
M Hz
ĠU AV
Ġre vol
' _\
le igh
we alth
ĠLead er
ab ases
Ġannot ations
Ġconcent rate
ass ador
iss ance
' )$.
Ġanalys ed
ĠInterest ingly
P ersonal
Ġin jected
Con v
opt ical
Assum ing
Ġ[ (
Ġsymbol ic
fe ature
Ġappro ached
ĠA qu
Ġtra d
Ġpoll ution
Ġex empl
ĠK el
ĠLe besgue
H en
S l
Ġen rich
Ġparticip ant
Ġneighborhood s
a ire
pat tern
n ames
Ġb orders
Ġm ice
g m
ĠC leveland
ec ker
ĠCamp bell
ĠB ond
Ġsp ike
Ġs igma
pon s
Ġvis cous
Ġin aug
20 9
ah a
ĠProgram me
Ġ+ (
Ġd ad
Ġdemon stration
T B
Ġcrypt ocur
Ġsub stituting
" ;
Ġis ometry
ĠRog er
IF A
Ġpaint ings
Ġcert ified
^- _
ĠExper ience
T W
fe ction
Ġdevel ops
r ise
set up
ran ean
== ==
ĠC ut
ĠJacob ian
b ank
Ġkn ots
Ġc rown
ĠAl ong
3 40
ĠN ur
ĠSt ream
Ġhuman ity
ĠI l
plic ation
ĠTrans former
ĠPort land
Ġf ate
Ġj azz
ĠEm ploy
at omic
tempor al
' |
Ġ Ï
ĠB in
Ġambig uity
Ġframework s
Ġlept ons
pl ess
W alk
16 9
} &=
Ġsc reens
Ġoccasion ally
Ġp ounds
Eu Script
202 4
le ep
Ġpri ors
bo xt
n ament
Ġun w
Ġtransl ates
up date
Ġmountain s
Ġcert ificate
array stretch
on st
ĠD FT
R M
effect s
Ġsepar ating
S n
ir ie
ist ence
ph p
Ġastro physical
19 35
Ġrect angular
Ġdifferent iation
Ġprotect ing
Ġdead line
Ġgeodes ics
Ġmanip ulation
J ul
Ġcl ump
Ġsurve illance
f alse
ĠK lein
ĠBud dh
},\ ,
dom in
Ġ\| _
she et
Ġjud gment
Ġrep ly
Ġviol ated
obs ervations
f ocus
Ġmod elled
Ġa u
atas ets
O K
St ation
ĠSte in
Ġt y
Ġton ight
Ġ\ >
ins ki
Ġpoint wise
K er
c M
ĠO DI
F D
Ġunder ground
ĠIn v
d iver
Ġg ri
ĠB att
orig in
& +\
un iversal
/ (\
), $$
Ġlog o
Ġattempt ing
Ġjo ins
Con f
d iss
Ġrece ption
Ġviol ations
Ġatt ending
Ġengine ers
Ġd ys
ĠBelg ium
us ually
ĠSh are
ĠTown ship
Ġhelic ity
]{ $\
Ġde ck
K W
ĠMe eting
Ġfin ishing
ĠW D
Ġlegit imate
c ible
ĠCom parison
mon ot
ular ity
ĠY u
Ġfoot print
Ġexec ute
Ġerg odic
Lear ning
Ġvers a
Ġlif estyle
Ġlock ed
Ġl uck
ĠG ulf
D iv
V A
mm ode
s al
Ġf ounding
ĠSt ra
** **
oding er
I X
re k
Ġjun ior
Ġaff airs
ĠInt roduction
Ġimp ression
uten ant
Ġm utation
ĠCom plex
AN T
Ġfol k
b R
Ġwork shop
d ataset
ĠT esla
rom y
Ġconsist ed
ern al
ĠKe pler
elect ric
z es
Ġvir al
Ġdam aged
] ^-
Ġcho oses
Ġacceler ate
ib n
d est
Ġper ipher
Ġanaly se
bra ket
ĠArgent ina
ub ert
s us
diff usion
ĠI an
ĠT ask
ĠOpt im
m k
Ġ( {
Ġne b
g ly
Ġab ortion
Ġprom ised
A x
Ġevery body
ĠF act
Ġflo ating
follow s
l it
Ġd uties
ĠG ill
Ġf ool
ĠR C
Ġweight ing
ef ault
Ġazimuth al
}{ @{}
ĠComp ared
G erman
Ġ }}\
P y
F rench
d oc
st eps
19 19
Ġins erted
Ġst unning
0000 00
A rm
Ġmaintain s
Hig gs
ĠH end
Ġshow er
ĠMiss issippi
ĠAgain st
in z
z ens
sc apes
Ġsecret ary
b A
Ġprior it
20 3
20 7
Ġbehav es
ĠS ent
18 4
s pl
Con tact
ĠL en
quest ion
Ġint ensities
Ġswim ming
T ele
ĠR ather
ĠOr leans
C ity
e ither
P ic
as a
Ġin sufficient
fe fe
ĠN ormal
Ġdec ides
99 9
Ġeccentric ity
amb ers
Ġweak ness
Ġcompos itions
M el
if mmode
iv o
m otion
ĠT s
ĠCh amber
ĠBet ter
the m
ĠMag ic
comp ress
Pres ident
ited efault
mc itedefault
t is
Ġflav our
ĠApp lying
c H
Ġst ocks
Ġr ally
is im
Ġd ub
Ġdis h
Ġsm ile
ĠMor ris
poss ibly
Ġenthus i
ĠT un
Al g
boxt imes
gl ob
Ġcylind rical
S earch
Ġobst acle
_{ _{
Ġqu iver
23 1
| ^{-
it ual
ĠO w
Ġinter stellar
Ġconf used
Ġdecay ing
ĠP odcast
Ġep ic
deriv ative
if ford
ĠEx cell
Ġfrag ments
ĠMad rid
ĠAust ria
Ġdiffe omorphism
f are
othe rapy
ic ates
ĠJ a
semb les
ĠCont ent
t l
general ized
abul ary
le matic
S chool
approp riate
2 12
Ġad verse
Ġpre t
Ġquas ipart
CO VID
arting ale
| |\
Ġcapt uring
19 33
intend o
Ġcalib rated
E instein
de velop
ĠAl b
ĠPark er
alt ies
Ġvir ial
Ġsent iment
Y S
im ag
ĠO wn
ĠKn ight
B uilding
}_{ [
Ġfac ial
Ġdemonstr ating
22 8
H K
v f
18 3
0 50
a ffect
x p
Ġj ury
ĠNe ural
j p
Ġint elligent
}^* \
Ġdecomp ose
AR D
Ġion ized
ĠK ate
Ġtour ism
33 3
text subscript
ĠGu y
ĠE mm
Ġ ''
ĠT X
ĠUnivers al
for th
Ġpsych ological
' },
in frared
18 8
tablen ot
or ov
Ġsh aped
ĠK il
ĠConsider ing
p ole
ĠS ide
M ills
Ġgall ery
i encing
/ $
add y
ĠGib bs
F unction
J ournal
Ġannot ation
etail ed
Ġab road
Ġwoman DYBAG
ur ate
ĠFre edom
plet ion
F ar
m el
ĠBo ys
P B
ire ctor
Ġn ar
Ġend point
Ä į
Ġwe igh
Ġm ounted
u cc
ĠCy ber
Ġcasc ade
charg ed
id ew
Ġd ressed
iat ric
Ġter rible
ĠSet ting
T hose
ĠPortug al
press ure
se lection
ĠJ up
Ġdo zen
ĠR acing
ĠB ose
Ġtem plates
g cd
Ġcomp ressed
Ġdecl ined
Ġexec ut
ĠVis ual
6 50
ĠForm ula
}' (
K ar
Ġextra ordinary
18 7
c F
le f
st ock
fun ding
Ġpubl isher
Ġpick ing
Ñģ ÑĤ
Ġdepict s
0 13
up ole
ĠFrank lin
ĠC ou
z hou
Ġgold en
Ġstreng then
measure d
Ġcompr ising
ele ments
d S
Ġlo aded
Ġethn ic
( .
Ġsp ite
ĠH orn
sh ows
ixt ures
? }
class ification
j ournal
Ġl iver
Ġcount ed
div ision
Prof ess
ĠQ uality
ĠSh ah
ĠStan ley
iv als
ĠJu an
- (\
Ġ _\
Ġdel ivers
ĠPan el
ID S
ĠH ud
Ind ia
sim ulation
ĠB rew
Ġconver gent
sol utions
cor ding
preced ented
ĠD est
Ġf iscal
ĠK L
Ġglob e
Ġcomp elling
B rown
ĠV ision
= &\
ext ension
ĠT ob
th ose
Ġfail ures
Ġstay ing
ĠM es
}+ (
18 9
ĠR ule
2 11
Ġa fraid
ĠLead ership
gener ic
# #
ĠH im
Ġprev ents
Ġpro poses
or ange
Ġcourt esy
ĠR ud
v ideo
Ġun biased
ib liography
ĠKen ya
Ġestabl ishes
NN s
ĠF ly
Ġn ick
Ġactiv ated
Ġsil icon
V ec
IN T
Ġinv olution
30 4
ĠT ik
lim inf
im ents
ran e
Ġb acteria
Ġco ordination
P age
ĠC hel
ie v
Sing le
b ounds
B ob
Ġexplo iting
Ġinter ventions
pro ject
ĠG ran
ee a
Ġsal ary
gl uon
og s
n old
the refore
St r
R en
Ġle an
Ġrest ore
00 9
ĠMy r
V S
Ġlo ans
Ph il
ifferen ti
Ġcoast al
Ġnomin ated
m v
p ure
ens pace
m ask
Ġspec im
ri ors
Ġh orses
}} )$.
Ġaccess ed
m ont
Ġnever theless
ĠS ony
ĠBar bara
Ġchar ity
Ġme al
Ġclean ing
M n
ang el
ĠFl ore
Ġl ane
Ġlemm as
al an
Ġv essels
Sc ott
Ġcomp iled
Ġingred ient
un certaint
SF R
Ġconjug ation
G reat
normal ized
, +\
Ġbl ast
r ors
Ġem power
N s
Ġnil potent
qu er
h ref
ĠTechn ologies
Ġfood s
ĠM ack
Ġtechn ological
Ġadopt ing
Ġstar ring
Ġw ings
ĠQ ual
Ġcompet itors
Ġparametriz ed
Ġrel ativity
Ġfasc inating
Ġnon empty
Ġcomplic ations
ĠIndust rial
Ġpro gression
ĠSob olev
ĠP un
ĠC lick
om al
ĠC ould
ok a
ta ur
flu ct
Ġblock ed
ins ky
ĠE SP
Ġde x
re b
ĠF alls
4 80
k el
A verage
Ö ¼
od s
he avy
Ġb ump
oc ate
ĠAd ditional
ĠD ie
Ġgovern ance
ys on
ju ana
^- (
as ive
. ''
ĠHistor ical
Ġdisput e
amp a
eg el
s ay
ic iency
Ġpack ing
ĠH ST
Ġj ail
Ġemploy ers
18 6
16 1
Ġdedu ced
ĠSt orm
ogen ous
ĠS ad
ph ic
V C
ĠB A
) })\
Ġmit igate
Ġb a
om i
N evertheless
ĠAll ah
h ind
Y ang
ĠColl ins
enc hed
ĠSus an
m other
b h
Th omas
ĠIss ue
Ġcult ures
ĠIR S
Ġs its
quir y
Ġ$ {{\
Ġprevent ing
ĠLe ave
}\ }$.
em ail
id ays
Ġsatisf action
Ġthreat ened
ĠInvest ment
Ġj ew
m ust
Ch ild
ĠS r
Ġenerg etic
ĠBase ball
Ġst roke
re vers
Ġinflu ential
ut ers
Ġr he
ĠDen ver
Sm all
\ (
ĠCommunic ation
ĠE state
Ġu plo
k al
Ġbr ut
ĠGal ois
ĠM all
Ġpr imes
d ense
Ġhe aling
AG E
ell ers
Ġbank ing
ĠBe ijing
Ġde formed
Ġlinear ized
Ġspecific ations
ĠJacob i
rab ility
bo ards
H ard
ĠStr ong
ĠE ST
sc ribe
Ġdon or
ĠMus k
ĠB ody
Ġexpl ores
d w
Ġp ist
Ġmunic ipality
Ġc ust
Ġt ennis
Ġforb idden
Ġm ount
ĠDen mark
Ġemb od
ĠSh op
Ġin homogeneous
o ples
Ġtrans fers
}} :
Ġfoss il
ĠR ing
] -
Ġell ips
arc s
ĠSam uel
Ġoverwhel ming
Ġp up
con cept
sl ashed
mic ron
ĠZ one
Ġdis advanta
Ġc usp
ĠF ame
l isted
ĠM unic
Ġdro pping
Ġinter cept
Ġro ster
ren ormal
he ro
Ġco aching
C ost
n est
c ould
ĠJ oint
ogen esis
Ġport s
ymmet ries
Ġlic ensed
Ġoppon ents
ĠV oice
ĠF an
g alaxies
ĠD ig
ĠDisc ussion
Ġexhib ited
{\ '
H erm
K ing
fill draw
ĠEv olution
G re
un ique
De ath
ĠThrough out
ĠWar ren
L inear
ĠCar ib
ain ed
Ġi OS
Ġhabit at
et ed
Ġtrad emark
Ġwar ned
ĠC ome
Sh ort
Ġl ucky
ĠN ep
Ġp ink
Ġbo ards
eg ree
Ġco pper
ch ap
rie ved
Ġcar riers
Ġfoot age
sign al
ĠB O
Ġempir ically
ced es
m outh
Ġad mission
] }(
uzz y
}) ^\
ĠE valuation
ĠG yr
ĠDrag on
ĠH ost
ĠD elta
Ġdenot ing
ĠS ug
Ġtal ented
+ |\
Ġab bre
Ġcompos er
Ġblock ing
ĠS B
ĠB P
ill ery
in burgh
17 3
Ġmon om
ĠĠĠĠĠĠĠĠĠĠĠĠĠĠĠĠ ĠĠĠĠĠĠĠĠĠĠĠĠ
Do es
so le
22 6
Ġr ic
19 29
Ġgl ad
)=\ {
rac es
Ġw age
h is
Pa per
ator ies
Ġpref ix
conver ted
L STM
Ġcan nab
Ġcoal ition
hi er
Ġassign ments
Ġsubsc ription
ĠG rowth
ĠN J
Ġ$ *
ag ent
Ġfeed ing
Ġaccum ulation
ĠV R
m ixed
id ual
Ġsil ent
L ab
ox ide
establ ished
ok en
Ġd ictionary
x u
ĠHon or
ĠG round
Ġsurv ived
ens itive
ĠK rist
Ġsevent h
ip se
ĠE lection
}] ,
Ġeigen functions
ĠPre c
l on
s elling
Ġin formative
con formal
Ġ- (
Ġmic rowave
Ġhor iz
ĠCra ig
it ively
22 3
Ġagre ements
experim ent
ĠMet ro
arab ic
ĠN ever
h fil
19 34
ex cit
Ġst yl
Ġpress ures
re ctions
Ġs ne
as pect
em en
Ġdisc s
Ġorb ifold
» ¿
ĠL isa
ĠE rror
Ġsh ops
- ,
k ers
L F
p rom
Ġmal icious
Ġto urs
ĠA x
ring e
Ġwe aken
Ġro yal
ĠAl aska
Ġex clusion
Ġsmooth ness
Ġisomorphism s
ĠCho ose
ĠP f
Ġte eth
ĠRou te
1 200
_{ |\
2 13
ĠI d
Ġmark ers
vari ables
Ġnews letter
Ġe ject
}} }_
{ ,
Ġtra iler
Ġsw ing
Ġfail ing
\ })
ma ch
24 6
ĠEx hib
Ġrenormal ized
Ġob l
ï »¿
z h
Ġout liers
ĠGener ation
ĠPract ice
P eter
ĠT oy
ĠV ancouver
ĠIm per
Q R
ro cal
k le
Ġsch olar
ĠD S
r ific
U B
)= (\
Ġconv in
ĠIs a
ĠPut in
Ġscul pt
19 28
dis pers
Ġint ensive
Ġfix es
Ġoptim ality
C as
19 14
Ġgre edy
lb rack
Ġt ags
Ġpossess es
ot ics
g am
ĠFin land
C amp
Ġin consistent
ĠFellow ship
Ġjust ify
conj ug
B u
ĠF ight
ĠG ate
Ġbl ame
maxim um
fore ach
t ru
band s
4 000
18 00
ĠNot es
bf series
Ġv oid
11 11
Ġm ilit
air y
or ious
ĠCondition s
ĠCh an
17 2
ĠH awaii
B ol
ĠB arcelona
Ġtrem end
Ġf ict
Ġpubl ish
Q C
ident ified
other mal
Ġmusic ian
3 80
Ġsupp lied
Ġtri ps
q w
orne ys
s ymbol
amil ies
accur ate
M u
3 70
ĠG rad
ĠM ak
ĠA aron
ocy cle
Ġpen al
Ġro uting
)} ;
sa fe
ĠC W
Ù ħ
Ġf ur
Ġorig ins
Ġdif fraction
ĠAm y
elesc opes
ul ators
th ird
Ġannot ated
ĠW C
ĠP ictures
Ġreg ards
Ġ\ {(
ar Xiv
ĠMarsh all
ĠM F
EN D
vis ual
Ġf ocal
Ġwork force
Ġgot ten
ĠEmer gency
Ġre ign
ĠR M
R ank
ĠN ad
m os
Ġan ime
ar ct
26 5
ĠCommission er
O ld
mat ching
ĠN one
Ġhospit ality
Mart in
Ġmon omial
Experim ents
y i
Ġfulfill ed
ĠT ower
Ġh ung
er vers
I ES
Ġdev ast
ĠAv ailable
}} &
list ing
Ġn utrition
ĠMov ies
Ġsus pected
Ġswit ched
supp ort
d yn
Ġbifur cation
Ġb es
ues e
20 6
^+ ,
iter ranean
Ġacknowled ged
Ġcondition ed
IM O
ĠPy thon
ĠH ubbard
Ġmis takes
Ġ\! \
Ġcon verse
B orn
Ġsupernov a
}\| _
Ġconflict s
ĠCol lect
Ġnecess ity
ĠPart icip
roll ing
Ge orge
Ex pl
Rec ent
Ġin sect
Ġexp at
¬ Ļ
Ġn ose
ĠPhil ip
Ġdistinct ive
ĠEvery thing
ĠC opyright
rog ate
av oid
gl ass
a is
Ġconstit utes
ĠF riends
ĠC B
Ġcent res
Ġpark s
ĠJ ennifer
Ġactiv ists
ĠVirt ual
We b
Ġpo em
ĠV ar
ĠA bs
Y au
Lear n
D U
28 8
ĠProduct s
ub s
ĠArch ive
g f
h art
Ġhypersur face
ĠFW HM
ĠT itle
Ġintersection s
em ployment
Ġexper iencing
c S
Ġvirt ue
g b
Ġoptim izing
uer to
re call
Ġcon vey
ĠD ocument
Ġmon ol
Ġexp enses
et on
ĠIniti ative
'' \
ĠCon versely
Ġplate au
Ġm app
Ġal ien
^* )$
vary ing
ĠSe an
Ġpur ple
ĠCh ron
ĠSal v
}. )
Ġfootball er
? )
N etwork
}) )\
ĠK id
ke ley
Ġf ibration
be at
arian ces
Ġworld s
Ġrecurs ion
Ġt ap
ps fig
C art
V an
19 32
ĠM atter
ĠDo ppler
Ġneur on
op a
ĠN R
ho ff
m ove
ish a
Ġquas ar
ĠDist ribution
Ġadjust ment
' }(\
asympt otic
Ġcur riculum
ĠHaus dorff
Ġearthqu ake
Fig s
ĠPr incess
ĠHam pshire
Ġimplic ation
p atch
s z
Ġarriv ing
Ġcontain er
Ġ( ``
Ġinst abilities
ĠCont ract
Ġwork place
i ably
Ġeigen vector
ĠS ometimes
acc uracy
polynom ial
ĠC ultural
Ġcompet ed
un ting
Ġmultipl ier
ĠS ym
ĠS quad
de creasing
yp ically
ik o
ĠP le
Ġexam ining
Ġcon ventions
) }^{\
bas eline
usal em
Ġcon vection
hat tan
m ind
ĠR io
ĠHy per
Tra ining
× Ļ
ĠN an
Ġtimes cales
E vent
L ink
uth ors
ars on
b ie
Ġg ard
Ġre lying
Ġprob lematic
97 8
Ġegg s
Ġexp ed
Ġdef ence
ĠComm ons
Ġbi om
Ġhyper parameters
ĠF u
Ġproduct ivity
19 27
Ġbr ighter
Ġsustain ed
Ġshell s
B K
R un
Ġelev ated
ĠO P
Ġca ution
Ġprim ordial
Ġpet ition
st ory
ĠB right
ĠR A
ĠRam an
Ġintersect s
Ġcook ing
100 00
ĠDown load
experim ental
Ġch urches
Ġpregn ant
fin d
Ġk a
em ics
ĠPhys ical
Ġannu ally
Ġw ishes
Ġgraph ic
Q Q
ĠChar lotte
Ġc argo
sp arse
ĠAg ent
Ġm s
Ġcompr ised
P ark
Sp ort
ath on
ĠMuslim s
Ġclar ify
mate ur
ĠC ant
Ġcon es
Categ ories
Ġem ploys
ĠWay ne
Ġs ail
Ġcon duction
Ġsk i
Ðµ Ð½
Ġpool ing
ver gence
ĠH odge
im et
assum ing
Ġboot strap
Ġl os
AC S
! }\
Ġun seen
c B
m ut
ĠA the
Ġdesign ers
Ġaccept ing
Ġhun ting
Ġf iducial
ĠF at
_- $
ĠVis it
r p
Ġt ons
ĠT ak
N or
Ġhe ights
Ġs la
Ġrender ing
Ġre combination
ĠO K
Ġvolunte er
os hi
ĠSh a
M ath
ĠC old
V ir
g ender
24 8
^{* }$
text sl
Ġemail s
irl ines
mod al
Ġorient ations
ĠBen jamin
Ġdis rupt
Ġfinger print
Ġmult is
Ad ditional
Ġsh it
*}[ !
Ġmultip lying
Ġin nings
Ġformer ly
Ġl ighter
g ie
pro jection
ex plain
ĠArk ansas
Ġheav ier
i pt
" ]
Ġh ype
ĠLiter ature
} &=&\
ac i
ĠS EC
P os
ĠR av
Ġd ated
J P
ĠR ate
rac ies
ĠK K
17 1
ĠAb u
Ġins ertion
Ġextrapol ation
expon ential
Ġwild life
Ġbe ating
_+ ^
ad ata
Ġun precedented
Ġg y
o es
ĠOrig inal
Ġannih il
Ġcal m
}. \\
Ma jor
2 16
T X
Ġend owed
det ection
Q ue
PR L
Ġth irty
side red
c P
Ġch ir
magn itude
Ch ris
Ġhyper plane
Ġfund ament
ĠImage Net
Ù Ĩ
M id
F amily
d ie
l q
Ġc ous
structure s
ann es
ĠC AR
ham mad
Ġd rew
Ġlocal ity
j s
Ġdat abases
n z
Ġpreval ence
n k
Or der
Ġsm oke
L ight
i Äĩ
st ochastic
the tic
ĠM RI
Ġelabor ate
Ġo ve
Ġow ing
L ive
Ġpar ish
Ġsc ar
Ġl in
{\ ,
In f
j ee
Ġex changes
-------- --------
de cess
ĠC el
Ġper pet
G rad
ov ic
oper ative
ha us
Ġeduc ated
Ã ł
ĠF err
ĠSpr ings
ĠCro at
im ates
ĠP ope
ĠAgric ulture
ĠM n
Ñ ĩ
}, $$
ĠLy apunov
m og
Ġcur ious
ĠX box
s il
Ġshe aves
Ġess ence
Ġcondition ing
Pro v
Ġbran es
I dent
ren ds
ĠO H
ĠPrim ary
val id
ĠR ules
ev ol
Eq n
ĠIn itial
Sh ow
ra h
prov ided
ĠM ade
Qu antum
Ġrefe ree
ol ine
Ġline up
ĠMur phy
Ġal tered
Ġall ocated
: -
= |
Ġm ouse
ĠBo olean
Ġpredomin antly
ass ment
ĠOther s
over view
Ġhand ful
theore tic
Ġlad der
H op
ugh ter
23 8
ĠS K
Ġinhab it
ad ows
hab ilit
I LL
Ġreveal ing
Ġscr atch
st ore
ac cording
Ġball ot
ĠN FT
17 9
eut ic
ĠCost a
Ġemer ges
ĠY am
ĠT ables
Ġbroad ening
k w
Ġch ips
Ġhist ories
ĠLiver pool
mat ory
ĠR oche
ĠMor ning
adapt ive
22 1
V R
19 25
Ġsl ip
m oving
Ġh oney
). \]
Ph ase
b rand
ac ute
Un like
Ġsucceed ed
F N
ĠM aking
ĠL aura
Ġth rown
equival ence
ĠJ our
' :
ent a
ĠCart esian
[ [
ĠR H
Dan iel
ĠOb viously
v id
ĠI da
Ġprom ises
Ä ±
c L
Ġrein forcement
Ġpath ways
Ġ um
Ġal umin
ĠArt ist
A h
Ġscholars hip
s P
ix on
ĠCarl os
Ġbene ath
ĠEth iop
lum inosity
ĠT rain
Ġdep ths
Ġc inema
ĠE OS
ĠH ind
30 5
Ġ esc
ĠCo al
ĠN W
or on
Ù Ĭ
Ġ icon
Ġcorrel ator
pir atory
Ġmet abol
}/ {\
ĠLu ke
19 26
ĠCol omb
Th ird
Ġw is
Ġsur gical
reg ions
Ġpack ed
g d
Ġbott le
ĠMarg aret
, {
Bl ock
ĠP E
ling ton
Ġst er
om o
Ġbel t
Ġbar rel
Ġfavor able
ĠStan ford
Ġg amb
mat ical
Ġan ch
Ġgraph ical
ĠArab ia
p unct
n f
de comp
supers cript
d ip
Ġhad n
Â ±
ĠW H
Ġinvest ing
y z
ĠJim my
IS A
ĠFin n
ĠL ED
enn ett
ĠGra ce
t f
}}\ ,\
19 3
Ġviol ating
Ġdiver gent
Ġsec ured
Po isson
Ġal beit
y x
~ .
ĠT reatment
ore tical
Ġsynchron ization
vis or
ĠWeek ly
Ġen sembles
it eness
19 22
Jo in
ĠK ath
ibr ational
O B
ou ville
ĠB our
Ġencoun ters
ĠU RL
Ġrenew able
be a
Ġalle vi
Ġtransform ing
Ġnob ody
19 11
19 15
He ad
ric hed
b right
}} }(\
Ġquarter back
Ġadvoc ate
ĠF ro
ocol ate
Ġn est
Ġsk ip
ĠBrother s
ĠKir k
Ġcomprom ise
Ġn um
Ġinc idents
im als
ruct ive
b ted
set ting
Ġel ite
l k
t ies
sh ock
Europ ean
& -\
t c
up ta
On line
ĠSchwarz schild
Ġfree ze
ĠU E
Ġstri kes
Ġlum inous
Ġmyster ious
ĠM M
Ġ esp
ĠLag range
al tern
F lor
Ġwor ried
d an
og y
ĠBrazil ian
Af ric
) &=&\
Or gan
Ġcross ings
Ġelim ination
Ġcount ies
ĠH S
ĠPer iod
Ġcitiz en
it ime
ac co
Ġconv ol
ort ions
eg er
ĠB B
Ġsubs idi
ĠTransport ation
ĠC ole
ol ly
ĠZ ero
m us
cy cles
Ġr iding
Ġspecial ist
Ġadjac ency
as g
od ers
ĠW R
Ġl ith
Ġbi ology
ĠT ed
ret urn
× ķ
Ġprospect s
Ġfall en
C ode
Ġg onna
s ong
k p
Ġsk et
che t
Ġanim ated
s amples
av ier
ĠCart an
$ |\
id ad
L ead
k ed
ĠB erg
ĠG ot
obs ervation
ĠL D
we i
G ame
ou x
ĠM AR
Ġtor ic
b atch
Ġin cur
x size
Ġactiv ist
b ia
ĠK in
Ġcomp ly
Ġwhere in
22 7
ĠPre vious
Ġcon vective
uel a
oun ces
Ġven ues
Ġcond em
iz ability
& $\
sc ious
epsf xsize
19 24
wart z
}{! }{\
m ess
re ck
Ġm ature
ud ge
Ġsol vable
J im
Ġl ady
polar ized
}} }^{
ash a
Ġcol oring
plan et
Ġfeas ibility
ming ham
v r
ĠG host
Ġv ar
Ġear nings
ĠHamilton ians
\ }}\
ĠA verage
gu ide
ĠDou ble
Ġquant ized
constra ints
ĠW E
18 2
ou lli
as ta
sub ject
ĠV A
Ġscan ning
by e
rem y
ĠE N
iz za
Ġi ii
D es
Ġg i
se ver
p hen
ĠTh an
S K
Ġt weets
bin ding
Ġdocument ed
ĠLe ban
Ġtre asure
So ft
Ġsimple x
23 7
Ġb ubbles
et itive
st ro
L ip
Ġdepart ments
enc oder
ĠDak ota
ĠComput ing
ĠN ap
Ġpost er
ol er
Ġpos itivity
}\ {\
ĠT it
ĠMed al
Ġdiscrimin ator
othes is
Ġsc ra
Ġcomp ilation
Ġsupp lementary
g ives
ĠNor wegian
OR T
c D
ce ive
Ġun necessary
Ġtrans cript
Ġlack ing
Ġcat aly
> {\
Ñ Į
U RE
ĠG onz
ak u
exp ression
^+ _{
g rowth
cont ribution
D a
ortun ately
R ock
ĠM ig
Ġsimpl ifies
d etails
B lo
ĠMet al
arm s
Ġd ining
sp atial
ac re
ident ity
}) |
Ġ )}
}] $.
Ġproceed ings
Ġprof ound
Ġstack ed
Eq s
Ġcooper ative
R andom
Ret urn
ĠL ost
ho o
Ġscient ist
m skip
Ġn erv
ug ging
ĠK ur
ia z
ĠChe mical
Can adian
Ġsc ream
widet ext
ding ton
Ġeconom ics
Ġachieve ment
IG HT
am med
ĠLet ter
Ġaw esome
Ġat tained
c O
Ġca us
Ġprec ip
Ġpropag ate
iv ia
A H
ier ra
ull ivan
With in
df n
t ang
pro ving
: {\
19 31
}) ).
Ġprop ri
acc eler
ĠRep orts
ĠBroad way
Ġintrig uing
ĠSol id
Ġthread s
Ġd ans
Ġn u
ĠG ay
Ġen larg
ĠRepresent atives
ĠComp etition
ĠCap itol
Ø ±
Ġautom ation
math ord
ich i
Ġbott len
ĠV eh
is ol
de cor
ext ended
A J
Ġr ises
Ġquadr ature
Ġcompact ness
ÑĢ Ð°
Ġcomplaint s
class es
Ġaccum ulated
ect ure
cur y
o j
p ract
ph oto
M ur
Ġrep os
Ġpolyt ope
ol ute
ĠP rad
Ġdro ve
as ters
Ġhad rons
23 6
ĠS G
Ġtail s
iv ic
ull er
d ens
ĠSub section
ival ent
Ġcon gress
\{ (
}[ {\
ĠF DA
ĠJ azz
Ġvis ually
Ġang ry
ass ign
Ġshe ets
ĠCamp us
ĠCit iz
ĠJohn ny
$ }{
Ġ( [
Ġre med
onic a
j l
ĠP CA
ne red
Ġa qu
âĢ¦âĢ¦ âĢ¦âĢ¦
cccc c
ĠCarib bean
ĠL l
fram ework
Ġex cluding
Ġwave function
L ou
Ġw orm
ĠB egin
ss s
ĠCh i
ca ps
Ġk iss
ĠEd inburgh
Ġcon gest
ov al
U I
Ġfil aments
ine e
Ġove rest
r ather
D id
ĠB ird
ĠKe ep
ĠS z
! \!
ĠCon jecture
categ or
bor ough
Ġmonoton ically
ĠSt ri
reng th
tem p
Bel ow
pri or
Ġport al
Ġalleg ations
Ġd ying
ĠÃ ł
Ġal ert
})$ -
et able
ĠSt arting
ĠL ux
}. \]
L ove
Ġse am
Ġw ars
Ġpaint ed
\,\ ,
g ive
S ect
ĠCor p
P ass
Ġf iring
ĠB illy
ĠKe ith
ĠInd igenous
Ġmapp ings
rest ricted
Ġalleged ly
nucle on
F rank
r ase
Ġsp ans
Ġdis ruption
ĠNev ada
Ġre jection
ĠF IR
Ġg ig
Ġmin istry
Ġmon oidal
Ġsevere ly
Ġt err
ĠB aby
* ,
E valuation
^+ $,
Ġr ice
ĠC ay
ĠE li
ĠD W
Ġess ay
Ġd oping
ĠB ear
ĠF iction
Ġclass room
Y oung
Ġcon current
Ġexist ed
nam ely
ub a
Ġdoub let
et ter
[- >]
T a
irt ual
Ġgrid s
Ġhaz ard
0 14
ĠCo ach
ĠP la
Ġsho es
AN S
un i
ĠP rix
ĠV acc
Con dition
38 4
Ġtest im
ĠC emetery
ane ously
ĠR ole
ed e
ĠE mail
M iss
Ġsearc hed
A bs
os calar
Ġcl umps
ĠTur ner
ĠMult iple
f air
H or
ĠLin ux
B W
ĠL C
Ġre vis
Ġcol linear
28 5
P W
olog ic
Ġcompet itions
Ġund ers
as p
ĠT amil
red ited
Ġiter atively
Ġcancell ed
ĠHealth care
T ax
3 15
ba um
Ġtox ic
he ld
x z
Ġdivid es
Ġde central
Ġinitial ized
ĠSum mit
Ind ian
ass y
{- }\
ak is
d um
ĠB asketball
Ġappe aling
}, ~\
Ġch ord
ke ys
Ġhom eless
N ormal
Ġprof its
Ġag ing
Ġextract ing
ol ding
Ġflav ors
sp ring
ĠMove ment
ian ces
ĠEn c
] %
3 10
Ġmat h
Ġspect ro
Ġd oses
Ġep it
19 12
h in
.~ (
ĠCom b
Î ¿
Americ a
ĠN ak
ĠRac hel
Ġpre decess
text superscript
Ġinvent ory
ĠOpp ortun
Ġn urs
Ġu pset
Ġslic es
Ġwant ing
19 16
ĠH ousing
ope z
Ġman ages
29 0
Ġanten nas
Ġn ested
ĠEnter prise
Ġs orry
com par
Consider ing
Ġal pha
Ġinstitution al
ĠBlo ch
Ġsc iences
Ġfin ancing
A BC
Qu est
Com paring
T aylor
Ġl ap
ac s
vers arial
ĠFe atures
ĠRod rig
ĠAssoci ated
ĠD B
F ield
Ġb ab
Fil m
Ġpol ym
Ġu pl
ĠC lean
Ġback ing
ĠOl iver
Ġimpact ed
' }^
Ġcre am
Ġdissip ative
bo ys
ĠÐ ¿
ĠR AM
w ig
Ġcert ification
em ption
ĠB M
lo ading
Ġcirc ulation
Ġlegisl ative
}& =\
Ġl on
24 1
ĠQuest ion
Sh are
prec ision
Ġorgan ised
correct ed
Ġvol can
uk a
I SS
ast ing
}] .
ca ptions
sur vey
Ġresemb les
Ġfurther more
ĠNe uro
Ġpresum ably
ĠCru z
}$ (
Ġun s
Ġbut t
op ath
ec onomic
Ġb ags
}}$ )
an ne
Ġpuls ars
bra ham
Ġg ad
Ġtransform er
Ġsummar izes
id y
con sidered
im er
ĠBer ry
19 21
Ġl iability
Over view
Ġeth ical
Ġpuzz le
Ġf u
st ab
Ġde alt
land o
ding er
inter val
Ġsystem ic
Ġinvest or
ĠCh ampion
Ġpredict or
g alaxy
P rior
Ġch ron
pol icy
C ard
b w
Ġam ple
ort on
p relim
Ġdis ability
)] .
Ġdrum s
ili ation
Ġholograph ic
ul k
ĠCom bining
Ġresil ience
23 2
Ġf ingers
Ġr ated
Ġis ospin
Ġqu ar
b inary
H V
S ar
Ġselect s
Ġmaxim ally
Ġpull ing
Ġtag ged
ĠH yp
Ġhe mis
ĠA round
ĠW or
et ta
Ġat tain
Ġder iving
ĠV ik
Ġspect acular
id ency
ĠP V
fig ref
clip se
Ġcos ine
ĠAltern atively
Ġredu ctions
Ġstup id
ĠMed iterranean
_{ _
Ġse cular
ĠV ersion
ĠN u
De partment
ĠAccording ly
H uman
rast ically
ĠT arget
Sc ience
ĠH P
asym p
oc o
^{\ ,
fl ush
Ġhot els
R V
p ref
ĠIn n
] }{
m ol
Ġres et
ĠPlay ers
ĠLink ed
Ġmaxim izing
A X
24 3
il ayer
Ġfin ishes
Ġelectron ics
ĠL arry
ĠLe vi
se lected
30 1
ĠJer usalem
Ġtriang ulation
thresh old
ik ov
24 7
le ave
Ġ }.
ear ly
az ines
Ġnation wide
ph al
Ġc ob
Ġelev ation
i encies
ĠN V
M ah
den oted
in ery
Ġlo ads
non linear
,\ ,\,
nice frac
ĠAssoci ate
ĠS itter
ĠH O
ĠCour se
ĠS ize
22 9
ĠBir th
Ġsm oking
Ġcoinc idence
Ġfund ra
Ġexp ort
ĠBi ology
Ġconvin ced
Ġa er
Ġro cks
ĠReg iment
L ondon
ut z
ĠA irlines
pr ison
Cent ral
Ġres caling
erm ost
arch y
ĠMathemat ics
In itial
Ġcom ics
Ġ> >
Ġtrav elling
Ġt anks
Ġvulner ability
f u
ĠA A
ĠF ish
Ġsh ore
Ġown s
ĠEquation s
k b
Ġdetect able
K D
w r
ĠMC MC
Sto kes
ĠChrist ians
neut ral
cl oud
Fe ature
pret ation
N ode
Ġ\ }$,
Ġback ed
Ġdon ation
ĠBl ues
ĠGl ass
Sub stituting
ĠMont real
9 11
ĠTr uth
ĠLem mas
Ġn itrogen
m illion
Ġprint ing
á Ī
it ially
ig ue
Ġsub system
ĠCustom er
Ġautomorphism s
D ev
in berg
ĠA part
ĠSh ar
Ġste pped
4 95
Ġsil ence
Ġcomp ass
Ġpre st
Ġtradition s
Ġv ig
ĠA ve
rac ing
Ġen jo
Ġh iring
bul k
cir cled
Ġview point
Ġcomment ed
ĠStat ement
Ġenc ryption
Ġdomin ance
ĠL ad
ĠC MS
Ġdes erve
ĠCh arg
3 90
Ġf ut
ĠY e
ĠHar rison
ĠH i
Ġr itual
Ġm os
ĠB ound
_- (
empor al
Ġmand atory
ach t
}^{ +\
19 08
Ġram p
iel der
Ġh orn
ĠK umar
min o
Ġredund ant
Di rac
ĠApp lications
rop ies
Ġcomput able
T itle
Ġ rivers
ĠRe ve
2 14
T em
Ġres caled
Ġjournal ism
R am
ĠS ure
ore sc
ens on
ĠT on
ĠSw ift
pseud o
eg al
\% }
Ġrac ism
am matory
rest rial
Ġjud g
ĠMan hattan
ĠR osen
ing ham
ho e
Ġm arch
Ġch icken
con clusions
/ -
ĠR NA
ĠWat son
clust ers
Ġf t
ir s
Ġexpress ing
Ġsignal ing
ĠC G
P ath
Is ra
ĠM HD
bu ild
ĠBuff alo
ĠK ay
ri en
text backslash
Ġed it
h orn
Ġh ire
represent ed
W H
sim ulations
ĠC oun
ĠD G
ĠH at
Ġdo zens
Ġprob es
AS P
R ussian
[ (\
Ġs orts
IT H
ĠNe u
' )}
w oman
ĠDe velop
fin itely
ĠT u
Ġworks hops
19 23
}\ }$,
cross ing
Ù İ
ul ent
4 35
Ġid em
Ġatten uation
Ġgra ding
In vest
ĠM SE
en vironment
Ġbroad ly
ĠR idge
Ġlaun ching
Ġbary ons
Ġinert ial
Ġdiagn osed
Ġrevers al
T ree
Ġun ions
Ġcontrovers y
Ġdeput y
Ġdec o
ĠP ix
pp y
ĠH indu
Sp orts
ĠMad ison
Ġbe aring
ain ter
her ically
Ġcom ed
l ive
Ġst olen
ĠO scar
reg ation
Ġrevers ed
ĠP U
B ell
Ġne u
J on
}$ &$
Ġmultip ly
Ġz oom
Mark ov
ĠEd wards
Ġan ger
4 75
}$ =
p ay
ant is
)\ }
Ġa mm
st d
Ġgl uons
integ ration
mathb old
ĠMa ur
ĠCons ervation
Ġthorough ly
Ġalgorithm ic
Ġsl iding
Ġarch ae
N H
n ia
Ġb anned
ĠV enez
l iving
ĠQueens land
Ġp ocket
Ġdon ations
ĠJer ry
Ġretrie ved
W ave
val idation
Ġsuccess or
-- (
AM S
B ase
pen cer
Ġconfirm ation
re a
ian i
ĠPlan et
t ar
ĠL inear
Sch warz
Ġshock ed
Ġg erm
}{ {
à ½
Ġconsp iracy
ens is
Ġsuff ers
ĠV a
Ġterm ination
ĠB rain
bos on
az ar
AT ED
ĠHess ian
Ġdis ordered
24 9
Ġel ong
mass ive
umb ai
Ġprob able
Ġr ms
Ġfriend ship
Ġsl ots
Ġspok es
0 35
ĠG PS
3 35
ĠEconom y
ĠN intendo
ĠâĢ º
Ġoption al
Ġepid emic
s low
product ive
ch apter
ĠC er
ĠV ent
rot ation
* [
ĠD raft
Ġinvest ed
^+ }
Ġcorrel ators
et erm
Ġal ike
equ ality
ug s
ĠPer ry
Ġemphas ized
Ġr if
Ġanim ation
coordin ates
mb le
st rom
: #
cite alp
] \,
Ġk iller
!! !
qu as
Ġhe ated
s chool
comp ared
ĠW igner
ĠCom merce
'' }
the astern
Ġadv ised
per fect
ict ions
L ocation
Ġpos ed
c ro
c ence
Ġ\; ,
'' _
Ġcreat ivity
2 18
Ġ($ (
d R
che mical
ĠF ashion
produ ced
Ġqual ify
Ġcro ps
Ġrecon c
o ct
)) _{
Ġt ile
con sum
ou ter
ax ial
23 3
ag h
ĠAss essment
33 6
Ġrandom ness
Ġrel ic
D iamond
Ġsc ans
ar bit
Ġup ward
ari ates
ist inguish
ĠSe ven
ĠMed ic
it ary
Ġarchitect ural
ĠEm ily
Ġp ad
calcul ated
ampl ed
PC A
c amp
ĠVal ent
Ġspons ored
] },
j ump
24 4
ĠSher iff
Ġrecept or
ĠTh or
E ll
20 30
Ġcorrect ness
Ġunivers ality
Ġe ager
Ġnegoti ations
50 1
Ch ang
ec ke
con tact
Ġincorpor ates
ĠGi ants
w right
Ġcomm od
Ġmon od
ah l
ĠGh ana
pon ent
strong ly
ĠCompan ies
Ġinter play
ĠBar ry
Ġminim izes
ant om
^* =
Ġin elastic
osp el
Ġre named
Ġpass word
ĠA dapt
0 16
ogon ality
Ġarch ive
sens itive
Ġ\ |^
ĠA rena
oc cup
Ġregular ized
ĠW ould
Ġsy mp
ĠAr c
ĠL G
Ġtub es
N B
Ġdaugh ters
Ġfer romagnetic
bm od
Ġbl end
ï ¼
trans form
Ġste am
W a
pop ulation
Ġbel oved
Ġoccas ions
S elf
Ġb om
Ġb ench
Ġmask ed
ĠEdu c
as ible
mem ory
Ġpropag ators
v on
ĠW onder
11 00
25 3
ĠRes taur
ĠPat ients
ac er
Ġoverse as
c ube
Ġopt ics
Ġlab our
Ġsp ell
ĠL an
eg u
ĠMin or
Ġlaun ches
Ġrid ic
n ai
ĠU T
str ateg
ĠWar ner
Pol y
d q
St ill
Ġcentral ity
av ity
^{+ }
Ġenjoy ing
R W
Ġ /\
ĠCal cul
|}{ }
ĠC ry
Ġall ies
o U
non ym
Ġd rastically
Edu cation
ig o
sol ved
ĠFlore nce
ĠDe al
ĠQu arter
\! -\!
Ġfl ares
ĠL amb
leg end
Ġpull back
T rump
Ġsur f
Ġrecip e
Ġst ems
Ġsubt racted
Ġto ll
r Ã©
ed i
Ġgame play
ION S
0 20
cor ner
Ġt iles
ĠW rite
}^* (
ĠL ate
ĠT S
ĠSe qu
US E
Ġharmon ics
Ġ }^{\
ĠC CD
9 80
ĠR ange
og an
Ġpers u
Ġgeneral izes
Ġwood en
Ġauthor ized
=\ {\
oc ations
Ġloc om
add ed
Ġpassion ate
ĠK er
Ġhum or
Ġvoc abulary
0 40
el ic
Ġfl our
ĠChar acter
Ġconvex ity
v et
om ical
Ġlog istic
4 40
Ġk g
ĠMem ory
Ġ& \\
)$ ).
Ġobs ervers
Ġair line
ari ous
Ġtra ded
}}$ }
Ġmet res
Ġantis ymmetric
Ġaut oc
Ġpost ing
Ġtrac ed
ĠUl tra
ĠB achelor
ob a
ac hers
Ġcomm ander
Ġout look
Ġbreak fast
Ġp orn
ĠG S
mod ified
ster dam
ĠNewton ian
Ġconstitu ent
g athered
is ch
as ury
se g
Ġresearc her
A ccess
Ġmon oid
acter ial
ĠFant asy
b ee
Ġpres ervation
ĠR ES
ult ra
Ġw orship
Ġlegend ary
trans formation
s ix
ĠĠĠĠĠĠĠĠĠĠĠĠĠĠĠĠ ĠĠĠĠĠĠĠĠĠĠĠĠĠĠĠ
Ġd ancing
mit t
Ġvacc inated
C ong
ĠH ab
Ġinter change
an im
ĠMon itor
k im
ĠCare er
z el
Ġbul let
ĠF ocus
Ġmonop ole
Ġphys ician
ĠCam eron
}} }_{
ĠCom ics
o ons
ed back
ĠM ann
ĠPre vention
compos able
b eck
Ġsumm ing
con volution
AS H
Ġpeak ed
Ġgi ants
19 05
isim ple
h dots
ĠM ix
Ġtempor arily
ĠQ ED
h c
26 4
ram id
Ġafter wards
Ġless on
Ġlov ely
Ġass ists
ĠFram ework
ĠA LL
AT A
ĠMu hammad
ĠP I
y alty
Ġpray er
Ġsl it
Ġlif ts
Ġt elescopes
ĠB ranch
att y
ĠEm peror
ON D
Ġkey board
Ġbron ze
st en
com merce
bro ken
Down load
Ġr ugby
Ġround ed
Ġbuy ers
Ġis ometric
E ast
ĠConsum er
Ġrestric ting
ion ic
nat i
Ġcannab is
ĠG D
ĠIn side
ĠM ob
Ġcolle ges
19 13
Ġjour nals
complex ity
Ġf m
Ġper col
Ġless er
met all
K O
Ġtra uma
Ġd ump
Ġeject a
25 8
he ating
ĠInd ividual
Ġflu ids
ĠKar l
ĠM ans
Ġsur pass
lect ing
it ic
ĠQue bec
Ġde position
ĠExperim ental
Ġre called
ĠCirc uit
Ġpe ers
}| _{
ĠMe et
Ù Ī
ĠP uerto
Ġgra ce
ĠCas imir
ĠCh and
ĠMa j
Ġg ases
ph or
ĠSy rian
ĠInvest ig
ĠTh ink
Ġremov es
D ate
Ġgener ically
dist ributed
Ġste ering
[ ][
ĠF E
og raphics
Ġdiver gences
Ġnav igate
ĠP sy
Ġc ree
Ġeleg ant
roll er
H ave
L Y
b ons
iz a
Ġco ins
inter actions
ĠT odd
19 1
Rich ard
Ġspace craft
Ġdil aton
item ent
Ġapplic ability
Ġsurv iving
ĠBrook s
}| }
Ġswit ches
, '
Ġcomment ary
Ed ge
Ġcan on
ut ton
Ġcost ly
ĠAn imal
respon se
29 5
algebra ic
Ġenjo ys
es ters
Ġdes ert
Ġwin ding
Ġheart s
unt ary
is p
Ġsu bf
30 3
23 9
\% $.
H ouse
v ark
Ġbatt les
ĠK l
Ġutil ization
ĠB eth
fe atures
Ġ ub
inc in
ĠF itz
Ġcompan ions
B ill
ĠH ockey
Ġw are
il ia
ĠM ED
fact ors
Ġt orn
comple t
ĠM ason
We ek
ĠP G
Ġprior ities
dist ributions
ĠF light
ag ar
ĠAct ually
s rc
ĠD yn
Ġvot er
}( {
fer red
Ġstart up
Ġdr one
Ġampl ification
_{\ !
im edia
ĠIran ian
Ġ& :=
ĠGra duate
b ys
}} )$,
Ġrapid ity
W ed
Ġ| {\
vention al
ub Med
ĠC le
Ġdu plic
Ġprogram mes
f ounder
' /
3 12
ĠI EEE
Ġcl ique
Ġsatisf actory
M ake
abl ation
ĠS alt
ch air
ĠR ivers
erm ont
In formation
k it
Ã ´
ott i
Ġ. \
J ones
ĠH em
Ġcons erv
ĠAt tack
ĠĠĠĠĠĠĠĠĠĠĠĠĠĠĠĠ ĠĠĠĠĠĠĠĠĠĠĠĠĠ
Ġo c
Ġign oring
G od
Ġhang ing
ĉ ĠĠ
Ġcal c
Look ing
ĠBas ic
Ġforgot ten
ĠPro tocol
Ġcondens ation
Ġcommission ed
}$ }}
deg r
Out put
Qu ant
Ġexcess ive
Ġtem pt
Ġnom ination
ĠW ire
Ġpo ems
h um
m eter
id th
eng es
Ġannoun ces
al ion
ĠApp lied
Ġoffer ings
l ived
v w
Ġcare ers
t ran
ĠJul ia
coe fficients
Ġneighb ours
Ġaxi oms
ho v
Ġshel ter
g om
r ators
ĠN y
ĠEar l
F ermi
Ġg ly
ĠMin i
ĠW ag
ID E
ĠMe chan
& \\
p ark
ĠMan ufact
Ġwis dom
% ),
Ġth rew
med ium
}] $,
Ġrepl ied
J S
Ġant ifer
energ ies
Ġun fortunately
ĠRe ference
Ġeditor ial
< $
e ing
ie u
Ġpro long
structure d
Ġun ital
ov o
\ (\
Ġsuper potential
spec ified
Ġsc rew
Ġflat ten
ĠL ith
R oman
19 09
H i
Ġre calling
ĠC ot
Ġthrow ing
ã Ģ
Ġ$\ #
In v
Ġpr ide
Ġattack ing
Ġtremend ous
- >
oc co
ment ation
Ġforth coming
n ick
Ġdef icit
me chan
Ġmonotonic ity
M V
ĠProgram s
ĠBar on
ber y
arp oon
Ġnetwork ing
ĠM ut
ĠN ATO
h owever
ĠB ass
Ġdead ly
er gy
Ġcast le
Ġminim izer
ĠRog ers
Ġmut ations
Ġinstant on
f arcs
ĠTy ler
use box
Ġpip e
18 1
ĠRespon se
ĠP in
19 07
con jecture
Ġem itting
ĠUpd ated
ĠV lad
M ary
ĠTik Tok
Ġoutflow s
ĠSur v
Ġast ero
ĠK S
ĠChe mistry
ĠBer keley
it ance
ĠNe il
ud ed
H istor
ĠS ale
Ã Ĺ
ĠDec ision
uff le
ĠCele br
ĠI van
ĠA ld
ĠAud io
6 25
Ġcomm uting
Ġmin eral
incin nati
R u
Ġflow er
_{ [\
Ġref lections
& (
}_{ (\
Ġart work
ĠInd ians
p her
Cross Ref
ĠEag les
y ellow
ĠAbd ul
ĠD IS
Prelim inaries
Ġvolat ility
am inated
ul atory
ĠM ario
Ġtransmit ter
ĠY a
iling ual
al one
Ġgain ing
M aster
cer y
ĠTer rit
ĉĉĉĉ ĉĉ
Ġt ired
Ġsuggest ion
Ġchemical s
P Q
ins ula
g old
ĠG rey
ip olar
cer pt
Ġavoid s
b lo
art icles
Ġconjug acy
Ġtra ditionally
osc ill
ĠN othing
pe ople
ĠVin cent
Ġm ari
30 6
ĠE ight
ĠFirst ly
}\ |^
Ġasymptot ics
Ġsl ide
Ġfarm ing
Car thy
ĠHy dro
E rror
ĠH app
ĠR an
Ġmot if
ft en
Ġy ard
W ind
Ġnod al
rib ing
Ġformat s
Î ½
Ġdef ending
ĠB eck
ann els
Ġauthentic ation
Ġperiod icity
* }{
ĠDan ish
Ġm akers
im an
Ġcru ise
arat us
ex change
rif ice
Ġo kay
; {\
Ġp t
f usion
ĠC riminal
ĠProf ile
l iter
3 48
J ose
Ġ ^\
Ġact ed
Ġleak age
Ġ }(\
Ġabund ant
ĠGuard ian
ĠD I
4 60
S pr
ĠO DE
correspon ds
ĠLe v
ĠPortug uese
p oor
" ).
App le
ĠAcad emic
Ġwitness ed
ĠCurrent ly
n ar
Ġc ig
Ġb rick
ĠH old
Ġex pend
Ġnonlinear ity
fol ding
ort ium
oll ar
}$ '
Ġwra pped
~$ {\
Ġpartners hips
n h
ĠC ob
Ġtour ist
ine a
ose x
oul os
Ġnon profit
Ġac res
Ass ociation
ĠEffect s
R est
Ġsubject ed
R D
Ġdu o
Ġg al
ĠSe y
Ġmorph ological
z t
Ġtri ples
c E
s ort
Ġdr inks
T an
à¤ °
he matic
Ġdec oupling
Me asure
ent i
oche mical
r q
Ġt ong
)| ^{
Ġorigin ated
Ġvers at
Ġthermod ynamics
m ation
Ġ$[ -
spect ive
Ġsub manifold
ĠImper ial
Dist ribution
am o
Ġorigin ating
ĠC arm
correspon d
Ġremn ant
H B
ĠNash ville
Ä «
Ġmultip let
Ġc us
Ġform ulations
cell s
Ġg ifts
ĠBa pt
all ed
tex cmd
approxim ate
qu is
ĠN HL
AM P
Ġv ox
Ġtravel s
Ġeight h
Ġadmin istered
ĠH F
ĠWe ather
Ġtra pping
Ġb ending
ade qu
Ġnotice able
ĠG ross
ĠCal abi
en o
Ġs isters
Ġcomm utation
' )$,
e enth
Ġed itors
Ġtop ologically
Ġvalid ated
Ġb ridges
m ons
us k
)| $
ĠPart ner
Ġdepos it
ĠI F
ĠSch midt
perturb ed
Ġpr uning
ĠH T
ĠH alf
st raction
ĠPark s
Ġref lex
Ġbatter ies
Ġlapt op
M ike
ap oration
ĠRe ed
Ġdon ated
plan ar
Ġhero es
s ervice
ĠF IFA
ĠN icol
Ġconscious ness
Ġtravel ed
Ġposition ed
tagon ist
oc cur
part s
Ġquant itatively
Ġst ressed
Ġutil izes
Ġfol iation
19 06
ĠBir mingham
Ġ )$.
)) ^{
ĠBay es
text qu
_* (\
Ġl ymph
d it
G ordon
Ġdis connected
iod iversity
riz ation
W N
h b
ĠSp in
Ġup stream
ĠS ample
se min
Ġlob by
u art
Ġprison ers
Ġc ad
ĠĠĠĠĠĠĠĠĠĠĠĠĠĠĠĠ ĠĠĠĠĠĠĠĠĠĠĠĠĠĠ
e i
Ġinterpret ations
Ġmention ing
ĠVi enna
ĠA ra
Ġsome body
d ict
e lection
Ġab normal
27 9
os ity
Ø§ ÙĦ
E U
K h
L ater
Ġstrugg les
e valuation
satisf ies
ĠCommon wealth
Ġf ears
ĠP ok
ĠRe LU
Ġout s
Ġdown ward
Ġbl ues
Ġforecast ing
ĠE lementary
)\ }_{
e fficiency
pro per
f iction
e ys
j ets
am ation
gh ai
19 04
ĠGre ater
Ġcon figure
Ġqu atern
ĠElect ron
Ġbehavior al
Ġw ounded
maxim al
Ġport ions
W ater
W itten
] ^{-
sen al
ĠAdvent ure
$. )
Ġ\; .
Bas ic
Ġt ribute
eg e
irection al
ac a
ĠB D
ĠK ind
Ġexcept ions
ĠH ob
Ġoblig ations
av an
Ġassist ed
Ġpro c
ĠAl pha
Ġelder ly
Ġconf ront
Ġdivis ors
{ }_
Ġbe ings
ĠCas ino
H ot
p ublished
Ġterror ist
S ize
ged y
cast ing
Ġnewsp apers
Ac ad
ĠA w
)} }$
arg min
Ġnow here
Ġcov ariates
vark appa
Ġcolon ial
A ud
m its
ĠP DE
Ġthere of
ĠCh ain
Ġde let
ĠK nowledge
ĠPhil osophy
ĠÃ ¢
Ġinert ia
ĠE le
ex c
ard less
ĠS VM
' }$.
squ ares
ĠExcell ence
st rict
ĠWork ers
ĠNav al
ĠIn j
Ġev ac
W al
yn chron
m eta
ĠForm er
Ġoper a
Ġaim ing
k T
ĠC off
0 60
H aw
k an
Ġh oped
ress es
W F
Ġcou rage
Austral ian
t elling
ON E
ĠAlf red
Ġnur sing
Ġg rat
Ġunit arity
ar u
Ġrep ulsive
Ġtele phone
B an
ĠW A
Ġdeb ris
ell ation
29 6
ĠEgypt ian
ot er
is omorphism
ĠTig ers
Ġremark ably
ĠEv idence
ĠRes ource
Ġrot ate
integ er
Ġem it
cel and
Î ¹
ox y
ow itz
en ko
} ]{
Ġf ont
Ġd rain
ism ic
Ġoptim izer
em ploy
Ġsh ame
Ġshow case
discuss ed
+ ,
ĠChar l
Ġt ar
st ill
Ġsever ity
Ġpow der
Ġgeneral ised
Ġmim ic
in ces
th lete
Ġpay off
ĠNe ighb
0 45
I a
ĠLuc as
Ġt ilt
ĠJ ar
fin ing
A bel
integ rated
if ference
ĠF ernand
Ġtra vers
ange vin
be havior
Ġenc odes
0000 0000
Ġout ward
Ġst a
r aska
Ġche ese
ĠDisc overy
nu clear
Ġbad ly
oc c
J eff
Ġalt itude
j ac
ĠM AP
ĠDub ai
ĠC DF
' ),
ĠR ah
| )
ĠF riend
Ġautomat on
24 2
Ġdem ol
Ġdoub ly
Ġabsor bing
Ġ ,\\
Ġp ig
Ġl oses
Ġloc ate
Ġfun eral
Let t
Ġpri est
Ġwhe els
ĠCom mercial
Ġattend ance
ĠK yle
Ġmed ieval
27 3
ĠB ian
Ġsmoot hed
Ġelim inating
U k
Ġrep orters
Ġdim er
u ities
em b
pl aced
ĠM end
ĠCon v
P redict
ĠE S
inter cal
Ġl as
ĠI SO
iz ational
Ġdet erior
au kee
Ġarg ues
A ction
ĠMont ana
p ip
Sim ons
Ġwitness es
ga ussian
Ġexecut ives
ĠTour nament
Ġstabil ization
19 01
ĠH az
Ġtim ely
q a
Ġexp ands
Ġl un
er ie
mu ch
ĠQu ant
Ġrecip ient
Ġmult ic
Ġd yn
26 7
Ġnerv ous
D igital
ad ays
Å «
tw isted
6 40
F r
\! =\!
ĠFil ms
La TeX
stud ied
Ġimp ressed
ĠTo o
con cent
est on
ail ure
Ġun t
ĠCl ay
Ġsum mit
res pective
Ġbal ancing
Ġdis closure
ob tain
ra de
ĠU g
26 8
ent e
Ġdec iding
Ġinver ted
ĠD y
ST AR
Ġrid ge
av in
ĠSte vens
ĠIss ues
Ġhistogram s
Ġpack aging
Ġreprodu ces
ĠBern ard
Ġlens es
_ -\
f d
Ġn erve
ĠJ ake
Ġchalleng ed
Ġres piratory
w d
ac ies
Ġun lock
F ive
O UR
ĠDe ut
Ġ )^{
habilit ation
cl ing
bas elines
ub le
cent ered
theore tical
ĠSou theast
m cite
ĠCl ifford
Method s
ĠQuest ions
Ġme als
ĠAlex and
ĠC lear
Ġreg ulated
Ġanaly st
ĠUs ers
ĠMor se
oresc ence
ĠChel sea
ĠT ol
Ġbe ars
: (
sk a
Ġap olog
Ġsemic lassical
Ġind igenous
H ey
Ġr iders
ĠB rief
ĠL uther
Ġgu ides
Ġsan ctions
ĠE ye
Ġprem iere
ĠArch itect
Ã¼ r
}' )
del ay
J D
ĠM AC
Ġrepe ating
Ġâ ĪĴ
ĠCho ice
Ġf ires
ob ic
m x
Ġpractition ers
G ar
te o
p z
em or
Ġbra id
ĠP F
Ġprogen itor
log ical
Ġrear rang
Ġjurisd iction
ĠR NN
Ġemb race
Ġsh ield
ok i
30 7
Q M
b les
in stead
n umer
Ġvac ation
Ġachieve ments
akes pe
Ġcoh ort
Ġcam ps
h all
t ypes
Ġres p
ell ite
IM P
isc her
' ]
Ġcl a
orb ital
ilibri a
hyper ref
B st
L ittle
hu ang
rupt cy
}^+ $
Ġvend ors
ĠM SSM
19 03
V ER
And rew
d E
Ġrestric ts
object s
ĠT reat
Ġpop ulated
scal es
tr ig
ĠN ancy
ĠG ive
18 90
ĠPier re
z ier
ĠL ex
pro ton
' }{\
: $
L I
p k
st ad
ĠM az
ĠĠĠĠĠĠĠĠĠĠĠĠĠĠĠĠĠĠĠĠĠĠĠĠĠĠĠĠĠĠĠĠĠĠĠĠĠĠĠĠĠĠĠĠĠĠĠĠĠĠĠĠĠĠĠĠĠĠĠĠĠĠĠĠ ĠĠĠĠĠĠĠĠĠĠĠĠĠĠĠĠĠĠĠĠĠĠĠĠĠĠĠĠĠĠĠĠĠĠĠĠĠĠĠĠĠĠĠĠĠĠĠĠĠĠĠĠĠĠĠĠĠĠĠĠĠĠĠĠ
Ġprol ifer
ge on
ĠU P
ĠLook ing
Ġswe ep
nod ata
Ġdis ent
ĠMN IST
Ġ\ }_{
ĠZ ar
) ;\
AM E
\!\! \
Ġcharacter izing
O lymp
p se
Ġt ric
ĠChe m
Ð¾Ð ²
Ġdis charge
ĠSc ore
}( -\
AG N
}) .}
Ġmaxim a
Ġtru cks
enc il
Ġimmig rants
un ding
à¥ į
Ġinv ention
Ġele ven
, *
w i
J e
ad ditional
ĠL ions
ĠAct ive
M i
H and
Ġf ading
ĠB T
ĠB row
Ġgl uc
Bbb k
Ġnew est
stat istical
Ġretail ers
p it
affect ed
ĠN IR
jo in
Ġrespons ibilities
Ġforecast s
c g
ĠT W
ĠW ave
Ġab rupt
Ġmo ist
N LO
ĠSh aw
Ġcategor ical
orth ogonal
{\ ,\
Ġsub category
Ġdomin ating
akespe are
ĠWe ight
spec ies
categ ories
Ġdest ro
Ġfarm s
w ear
Ġke en
S ample
at al
Ġw ors
Ġlat itude
Ġ$ &$
mat ched
Ġquart ic
Ġtour ists
P ER
n x
Ġin ch
ĠD raw
ĠB EC
$ ''
C U
c N
ĠF S
ast ics
Ad am
Ġrecurs ively
ler ight
Ġrele asing
m ega
ĠSu ite
Ġexpat riate
ĠK on
v u
ĠStand ards
Ġcompens ate
ĠDra ma
hol omorphic
ĠS ame
expand after
en es
ĠCh andra
Ġseason al
mix ing
E conom
{ .}
fl align
ĠB ottom
bec ca
it ored
com ed
Ġremin is
0 17
ĠAb elian
K o
ist le
Ġsp urious
Big gl
Stand ard
Ġstabil izer
Ġ$ +$
ĠTrans fer
Ġconsult ation
ĠN uclear
ĠB ert
pp e
align ment
Ġqual ifying
u ously
Ġfl ags
Ġland ed
ĠJup iter
Ġl iqu
40 5
Ġign or
ish i
Ġcor ona
ĠM ail
Ġsp o
Ġhe d
Ob viously
Ġor g
Ġdiscontin uity
r cl
ĠC ricket
Ġdist ribute
Ġansw ering
it us
ĠO ri
Ġment ions
& #
E mail
Ġmag ical
acknowledg ements
Ġcre ator
ĠArab ic
O PT
b ial
ĠCorpor ate
d N
{ ,}
Ġneg atively
h im
rad ial
ol ph
ĠB ot
Ġtang ential
ĠL abel
ram s
ĠN I
29 8
}} [\
P unct
ig ion
Ġrank ings
ers en
d al
ĠÐ ²
ĠLiber al
ĠR IS
n odes
ĠP erm
Ġcru st
Ġrot ated
ĠSustain able
& {\
Ġdisc arded
Ġover d
i ological
ab we
ine quality
Ġsh out
aur us
}}, {\
Con stra
ine z
}/ {
Ġcompact ification
ĠH arm
] ^\
S und
ĠJeff erson
}' ,
Ġworth y
Con nect
Ġ| ^
cor rection
Ġinsp ire
osc opic
T ex
y en
qu ist
ist ent
con ductor
cer t
ĠA CT
ge ometry
Ġorigin ate
ĠP ent
t owards
Ġf ier
he ll
ĠNY C
V ill
ĠB essel
Ġrock et
g ro
av our
Ġremem bered
Ã ¥
Ġfor tun
w y
ĠN athan
Ġencoura ges
erc ise
Ġb end
ĠRet rieved
Ġw ages
ĠL MC
ĠD D
Ġqu ies
ick et
Ġtra its
.} ~\
St art
Ġdes erves
ev ents
Ġrespond ents
ogram s
Ġcor on
c oupled
th ia
Ġamb itious
ro ids
Ġm P
ach y
year s
ĠIda ho
pan ic
W u
Ġdele ted
ĠK r
ĠOr chestra
Ġdiv isions
ĠP or
=\ ;
and o
ĠY OU
Ġmark ing
Ġcrit ically
Ġmer it
Ġce iling
Ġ\ `
Ã Ĥ
Ġphr ases
ĠAdvis ory
ĠS ays
w aukee
Ġj e
xt on
Ġint end
Ġmon ster
ĠG amb
Ġprotect ive
Ġintern ationally
Ġassess ing
problem s
M atch
ĠEqu ity
Ġon t
ĠOrth odox
Ġdam ages
l g
7 20
ĠB oh
Ġsuper fluid
Ġsim ulator
Ġmet adata
Ġconsum ed
| .
quad ratic
az y
Ġquadr upole
ĠD od
Ġcre atures
satisf ying
Ima ges
Long rightarrow
Ġinev itable
Le vel
ĠDet ection
Ġbreath ing
: \,
l ib
H ilbert
ur st
)$. }
ĠEvery one
Ġentreprene urs
}\, (
I mm
Ġint imate
ĠAn a
S eries
ĠMater ial
ess ed
ap i
imb abwe
oc on
med ia
ren cies
omet ries
um s
Ġ\ }.
esp erson
ĠCD C
Ġcommut ator
Ġdemoc ratic
cast le
rust ration
re ts
ceed ings
over ing
Ġend e
ĠHor izon
Ġsecre ts
Ö °
Ġa ired
iz ar
}= [
ĠBrand on
F a
Y et
Ġm ud
Ġsuscept ible
h ler
Ġpar as
ĠHard y
$ )}
Ã ª
ai ro
ĠHud son
40 1
Ġren owned
ĠSpe aker
ĠPhot os
Ġthro at
depend ing
b z
27 6
Upd ated
40 8
H N
}} |\
Ġdem ographic
Ġveter ans
Ġdiv orce
Ġw aven
ing ular
ĠV el
ĠY ank
Ġann oy
Ġsumm and
b ast
rist ol
i T
Ġst om
Ġhistor ically
Ġsk illed
Big gr
Ġproduct ive
ĠH ub
16 00
Ġfil ing
ste matic
Ġver b
i int
re action
ĠW es
app ear
Ġbright est
0 18
v k
s uc
Ġp ile
ĠS id
ph il
Ġillum ination
Face book
r w
ĠJ S
ĠT ang
ĠSt op
W D
rac ed
Ġfl aw
ĠSo on
St rong
B all
Ġharm ful
Ġcont ra
Ġout lets
ĠI BM
Ġalt ogether
asg ow
Ġhope fully
Ġcon ductor
ĠB PS
Ġrecogn ised
Ġcorpor ations
ur as
Ġb uses
on ium
Ġflow ing
27 8
ĠMichel le
Ġprocess ors
Ġlack s
Ġ$ >$
ĠL is
up quote
ax ter
Ġreal m
Ġg ut
ST R
ĠSer ge
Ġprospect ive
act ivity
Ġpurch asing
direct ed
Ġass ass
Ġind istinguish
26 1
product s
,\ ]
Ġroll ed
Set ting
Ġadvert is
sphinx upquote
Ġdis abled
propag ation
Ġres erves
order ing
in line
ĠP oss
B rand
run ning
Ġover look
Ġtrac ing
Ġpen alties
ĠScholars hip
J un
Ġo ught
$\ ;
b ary
Ġdecomposition s
ĠS Y
N am
ĠCrow d
ĠF ock
ĠWood s
ear chers
e at
Ġhol idays
Ġsnapsh ot
Ġmari juana
)) )
}- (
Ġapproxim ating
ne ural
b low
ĠJ ama
Ġj am
Ġquot es
ale z
aff ine
bour g
Ġdiscipl ine
$ ^+$
L im
ĠB un
hy brid
)$ ]
ĠArt icles
P erson
Ġmis match
Ġcab in
ĠS or
Z ero
18 80
Ġinv isible
Sim ulation
config uration
Ġrestrict ive
b X
l ang
ĠH unt
Con versely
Ġpur suit
Ġassign s
Ġcontract ed
Ġshr ink
Ġinher ited
in as
Ġun correlated
f ib
Ġquant ified
measure ments
Ġviol ate
ĠRe id
/ [
ab und
ĠHe avy
ĠGRB s
ĠAr nold
Ġunder going
Work s
ĠY ellow
ĠFran ces
S eg
4 20
_{ ,
Ġsp herically
ĠNorm an
te p
mark ed
n umbers
ĠBut ler
ĠPar ad
Ġi Pad
ĠLe o
Ġgener ous
Ġconver ging
Ð ·
Ġlast ing
D irect
ĠC atherine
IC S
epsf box
Ġmand ate
v m
C FT
Ġs ulf
ĠJ obs
Ġbre ach
Ġh iding
ĠJess ica
ĠL B
Ġcas ino
oth s
w at
ĠDef ence
Ã «
ĠC yp
Ġim prison
Ġatt ractions
ĠC AN
ĠFa ith
Ġconcaten ation
Ġabbre vi
ĠSt yle
ĠCom plete
ĠGra de
Ġre vel
Ġclin ic
Ġfurn iture
ĠD iamond
Ġsche matic
ĠK ap
ess a
ĠK un
detect ed
Ġb ounce
pan el
ating s
' )^
Ġv ibrational
29 9
Ġconf idential
ER N
all ax
ĠPalest inian
l os
Ġtail ored
ĠB omb
Ġhapp iness
s ed
rit ies
rad io
ĠMil an
ĠTre k
Ġcryptocur rency
ah an
Ġstrugg led
ĠB ee
L HC
Q s
ĠO T
ĠMat rix
pi res
W i
ĠDe b
M om
Ġconf ron
Ġbo ats
ĠOper ation
ĠHung ary
compress ible
ren der
ful ness
ol in
Ġtransport ed
Ġd ile
if th
Ġretrie ve
Ġcharacter izes
Ġco ales
ĠTh under
ĠWell s
Ġlever aging
ĠAl t
ĠA braham
Ġplay off
ĠAl ban
26 6
em er
25 7
Ġtherap eutic
Ġwonder ing
O A
O G
f ew
Ġpersist ence
W ould
ĠMountain s
ĠLGBT Q
St arting
Ġm ant
Ġconc ave
ĠM ate
ĠT T
oc entric
Ġwave form
Ġj oke
are to
Ġaggreg ated
and e
$, $
where as
I Z
&+ &
ĠS yl
Ġle ather
measure ment
let ters
Ġcard iac
b ird
os i
Ġw ise
l if
ell ular
Ġe ig
ĠIn to
Ġcust ody
Ġe ars
Ġplay offs
andid ate
curs ion
Ġr ush
Ġrespect s
dis ci
pack age
Ġinval id
)} |
ĠCont emporary
28 6
ag i
Ġun labeled
Ġinsp iring
Ġf ighter
ĠL ov
Ġassoci ative
Ġtra ils
Ġconv icted
Ġobst ruction
L ipschitz
Ġske leton
ĠK ill
Ġexceed ing
Ġsynthe sized
arc min
Ġim balance
Ġspin ning
30 2
Ġtight ly
Pro ject
C os
p ion
t ransp
ar us
et e
rom ov
ĠBud get
Ġultra violet
ĠNich olas
Ġrun ner
ĠS GD
Ġhalo es
ĠNep al
Ö ¸
um i
Ġdig its
Vis ual
Ġrefuge es
ĠFem ale
iz ard
Ġimag ination
ĠPrad esh
ĠAT LAS
}} ),
Ġprevent ed
ĠM ick
ĠGl en
f am
con tains
Ġpartition ing
disci pl
ch iral
ĠL ud
Ġadjust ing
gom ery
cre ase
Ġheter ogeneity
H all
Ġred ist
St ructure
ĠRes erved
Rad io
pre hens
AM A
ob jective
ĠPoint s
Ġparameter ization
Ġcondens ed
Ġare na
29 7
Ġsw ap
Ġhighlight ing
ĠAm sterdam
Ġadvoc ates
ĠDel aware
ĠPro perties
J M
Val ue
ĠQ atar
N V
ĠG E
T rue
Ġunf air
Ġdismiss ed
f box
place ments
ĠE mma
PYG Z
al ias
{ =
Ġdef ender
Ġcru de
als h
Ġvort icity
Ġalgebra ically
exist ing
We ight
ĠESP N
c els
ĠS old
ĠLik ewise
Ġenc rypt
r uled
ck er
bre w
c ott
Ġqu enched
Ġdepos ited
Hy per
Ġperipher al
3 95
y ll
}} }}\
J oe
Orig inal
Ġinv ite
Ġhand les
ĠI a
de z
enc ia
Ġdifferent iate
Ġsl ab
~ }
Ġw ound
Ġmod ifying
Ġab lation
Ġt ears
qu ery
ĠB uch
ĠS hen
cur vature
Ġstiff ness
ĠK or
hed ra
Ġdiver ges
Ġwave let
0 33
Ġm aker
ol ia
ĠIm prove
ĠCirc le
Ġassemb led
P f
Ġmult id
28 7
b age
Ġinhabit ants
l ia
ĠOper a
Ġassign ing
Ġqual ities
ĠWall ace
um ble
oc ese
ĠAGN s
Ġselect ive
* -
ĠW ing
ĠR ural
Ġpre view
Char les
S ources
25 4
Christ ian
E mb
\ -\
ĠSecond ly
ĠH C
Ġeth ics
Ġp ale
and ing
Ġche aper
plot point
ĠGrass mann
Ġrel iably
Ġsl ave
Ġaest hetic
it ably
ach i
27 7
Ġw it
Ġb ay
Ġnormal ised
)] ,
Ġub iqu
Ġen closed
Ġstring ent
zy me
= {(
el ong
Ġrecip rocal
Ġburn ed
IG O
on de
ĠL it
ĠY eah
Ġshor tage
les h
Ġ\ },
Ġsing ers
Ġdoub led
supset eq
F ac
ä ¸
Ġf oster
Ġg lim
ĠSoc cer
ĠDat abase
id able
ĠV as
IN D
Ġsupp liers
Ġmal ware
orth y
Ġgeomet rically
Ġredd ening
Ġaccompany ing
Ġp ays
ĠBat man
trans lation
ĠHar vey
Ġren dered
charg es
W C
ĠP av
Ġpain ter
Ġear ning
Ġexc itement
ĠPhill ips
ĠCo ordin
Ġlik ewise
ĠK itt
Ġdest inations
Ġcritic ized
te in
uss els
Ġimp air
0 80
at tack
Ġall iance
M G
ĠUn til
ĠPro phe
ĠHill ary
Ġadvoc acy
under standing
Ġint im
Ġro d
ĠAstron omy
ĠR ol
.. ...
ĠSt re
ĠS weet
Ġpersonal ized
$- -$
r ally
y outube
ĠW ant
Ġunder taken
Ġb en
s ocial
)\ |^
ff icking
Ġtechn ically
Whe ther
ou in
) *{
Ġgl ue
Ã© n
}_ -
b ud
] +\
b ag
Ġb ones
30 8
Ġgrad es
ĠS ens
Ġ= -
ĠUS B
cle an
Ġgroup oid
Ġkick ed
ĠSp ider
im proved
Ġinflation ary
ĠM IT
Ġtax p
Ġhistor ian
ĠI CM
}} }^
ote chn
cont ributions
ro e
ĠB ath
~~~~~~~~ ~~~~~~~~
Ġlect ure
Ġde ce
x iv
in ates
Ġur ged
ĠMarc us
ĠF I
ine es
ĠMet ropolitan
Ġsu pre
ĠScre en
Ġgras p
ĠBet he
Ġchap ters
Ġlaw makers
Ġcor rid
ĠOr lando
er als
in ternal
Ġsur rogate
Ġcelebr ating
Ġcent roid
Ġminim ized
fund amental
lst listing
Ġmag azines
F uture
con ditional
Ġemb arr
m ans
Ġwor n
Ġcrow ds
ĠNon etheless
ĠKa ren
Ġtestim ony
g ins
AN G
or relation
}/ (
' )=
u racies
it ous
Ġbroad band
Ġphot ographer
ro ots
ĠMus ical
clear page
process es
rot ating
IEEE eqnarray
Ġsc andal
g rim
ĠM ine
mt x
ta wa
ĠJ in
Ġenh ancing
Ġpoly gon
Ġcle ver
Ġconstitu ents
0 24
ast ed
Ġas pir
ind ividual
ne ider
ett es
ĠD ennis
ĠAppro xim
g ic
ĠCor respon
^{( -
ĠHol land
id ian
Ġmon itored
Ġmod alities
Ġtrans itive
unit ary
Ġtransc ription
Ġlingu istic
Wel come
ĠSupp lementary
Y eah
D irector
ĠR ut
ĠD h
an cer
ĠA viation
ĠC ash
ĠP icture
ĠG aming
line color
child ren
K R
Ġres ur
vert ical
> <
ĠT erry
Ġarg uing
Ġsepar ates
isot ropic
Ġpsych ology
z ag
ĠM ale
ĠRem ember
ĠSch w
25 9
Ġart ic
âĢ¦ âĢĿ
ĠDou g
an alog
Ġe cl
ĠPop ulation
Ġby pass
W at
Ġt ender
vert ices
C irc
Ġc itation
Ġdeco herence
hel p
ĠCons ervative
Mat rix
Inter view
app lication
Ġcal or
be hav
CO M
Ġhome omorphism
cont ract
ĠB ren
et ext
ud er
a ired
un s
ĠLu is
Ġmark er
comput ed
Ġrein for
d ivid
En ter
ĠIn sp
fin ity
Ġtrans plant
fer t
Ġg am
}}_{ {\
am ard
iel sen
vere ign
ĠÃ Ĺ
Ġsort ed
Ġwel comed
rest riction
ĠReg ulation
Ġyield ed
ĠSaint s
Ġto ss
mon ary
aspect ratio
Ġcongest ion
Ġsimpl ification
ĠBrad y
á »
ĠC risis
P ay
per cent
I AL
b box
us a
}= "
Ġinnoc ent
ine matic
S ha
ĠD ES
Ġcentral ized
Ġsecur ities
Ġresist ivity
Ġoptim istic
acc ount
C ut
L G
Ġf uzzy
rodu cing
}~ (
ĠF ile
Ġdispl aced
Ġrecon nection
Ġgra b
ĠS ak
Ġpra ised
Ġc ra
Ġh unt
Ġapp aratus
v rule
ind ic
Ġeffic iencies
ĠRich mond
Ġ\| _{\
Ġc ats
ĠSur gery
ĠTest ing
bur sts
M edia
b ic
ĠB ak
ĠA CC
ĠC raw
Ġexpect ing
work ing
" |
ĠM ental
ĠSh annon
rat s
v or
tt i
Ġhe aven
Pro perty
Ġh arsh
ch art
An t
Ġrel ational
/ }
ĠV e
Ġoccup ancy
Upd ate
ĠOak land
rib ers
Ġexpos ures
Ġscal ability
A wards
Ġstim ulus
Ġch lor
Ġchar ter
D ataset
ĠR ice
Ġa mino
ĠI celand
Pol ice
ĠRepresent ative
T ransport
col ored
Ġnic ely
P ubl
n ut
ext rem
real istic
C ore
25 2
den ote
rimin als
hard t
L INE
Be ing
ĠB und
Ġscal able
ĠC ool
Ġtiss ues
)\ !
ig ated
Ġorigin ates
bro ok
re ra
us ers
Ġ\, {\
M yr
ĠT ell
ĠV L
ĠDep ending
Ġcod ew
Ġ Ñģ
Ġf art
ĠD iff
Ġqu int
cos m
Ġmanufact ured
ple ments
Ġcollaps ed
ĠCoun sel
Ġatt orneys
35 7
Ġgroup ed
Ġant ip
b rown
ĠT error
path s
Ġneut rons
ĠNeb raska
ĠFreder ick
q p
An aly
rom eter
Pl us
T y
emph is
ĠContin ue
): \
Ġgram mar
] }{\
av i
Ġsw ord
Ġsum med
f uture
r lap
ĠF oster
Can ada
rr bracket
ĠAm endment
ast rop
PR B
vari ety
Ġdecl are
s ources
Ġ ĉĉ
Ġde ar
Russ ia
ĠD ynamics
ĠDire ctors
ĠR B
ces ter
K u
ll bracket
any on
Ġins erting
Ġconv inc
sign ific
Ġmemor able
Ġde lete
riv al
Ġsup rem
Ġexcell ence
L ower
Ġpred icate
Bi ography
ĠLiber ty
ĠAnaly tics
Ġh int
ĠG ang
squ ared
P rim
in variance
ost ics
ĠCar bon
Ġmed ication
Ġcollect ively
ma re
Ġcom oving
Ġmach inery
Ġcreat ors
ĠPow ell
â ĸ
Ġdon ors
ĠLic ense
Ġrecruit ment
ĠR angers
n ob
Ġrac ist
Ġdiscrimin ant
Ġell ipse
Ġnur se
Ġback up
Ġcompact ly
ĠWrit er
az i
Ġpercol ation
ĠT ampa
: [
Ġrece ivers
sequ ences
Ġconfir ming
}} }$.
Cho ose
Ġun resolved
Austral ia
Ġrecover ing
ĠTri p
26 9
ĠSong s
Ġsac rifice
ĠK as
Ġfin est
local ly
Ġstack s
H ub
}$ --
ann ers
uc le
ĠHug hes
eder ated
D AR
Ġl i
Ġreview ing
ĠEl se
mog orov
( )
Ġcook ie
Ġconstitution al
M ic
Ġwealth y
0 75
Ġoscill atory
Rep ort
it ives
Ġpe oples
log arithm
ah u
ĠMc Carthy
B ad
k now
t oc
he ter
is se
B ru
ari um
Ġund irected
ograp hers
{ <
res a
ley ball
ĠProject s
Ġimag ery
ĠAd ult
ock ets
tun ed
}_{\ {
Ġdou bling
ĠMun ich
ĠAlber ta
Ġthe at
F rance
ĠCom pl
37 8
or f
rop olis
Ġsem isimple
ĠGa ia
Ġbet ting
ĠI g
not es
top ological
iss ue
Ġreprodu ction
ĠS ox
us c
F iled
v ation
ĠM AT
$- $\
inter section
ĠClass ification
ĠBr ill
L am
w iki
ta k
AR Y
ĠAnn ounces
split ting
ra ment
ĠS ierra
Ġcor onal
Ġoff sets
em ann
read ing
mes on
Ġyoung est
Te am
Ġa viation
Ġdis hes
3 21
icy cle
Ġcub es
Ġtact ics
Ġinfect ious
p ire
M ill
Ġen roll
Ġfe ver
Ġprov incial
is ure
P roduct
z ig
IC K
Ġmir rors
sphinx code
Ġdisturb ance
Ġcontract ing
Ġappreci ated
sign ificant
c x
d il
osoph ical
Ġpr imal
Ġaccess ibility
iov ascular
ke eping
Ġterm ed
Ġattract or
ĠE ug
do ors
Ġ }^
Ġdec oupled
De cl
App lication
Ġoccas ional
Ġoccup y
Ġsoc io
Ġdisag ree
Ġbottlen eck
ĠK ron
\% $,
ĠWild life
s ent
ĠM umbai
Ġun employment
Ġlight est
Ġpun ishment
G i
IT E
L oss
) *{\
if fin
ĠR ams
27 2
D W
ut ors
um ph
48 5
ĠEsp ecially
er ner
Ġro ok
Wil son
Ġmonod romy
u matic
Ġcon sole
Ġdiff usive
Res ult
Ġstre ak
ĠJe remy
Ġb ust
ro us
Ġcons olid
whe ther
Ġscr ut
ĠL ives
Ġh orm
Ġdel icious
Ġ Ä
en v
E SS
Et Al
ĠF ra
Ġneighbour ing
F riday
ĠCom ing
Ġinherent ly
N W
ĠC ad
Ġapplic ants
ĠC inema
enn ial
Ġincrement al
j m
ĠÂ §
Ġstret ched
Const ruction
on ian
ĠK ash
Ġperm e
Ġdisapp eared
Ġb ell
l ip
se gment
}\ }\
tact ic
oted bl
ĠHor se
Ġnan op
Ġentertain ing
Ġam end
Ġpresent ations
u ably
on ce
35 5
ĠRel ated
... ]
Ġcontrast ive
ĠF F
\, }
ĠP ul
ring ton
U pper
Ġw ore
op oulos
textqu otedbl
eg an
ĠProcess ing
" ),
Ġc her
ĠS OC
cor rections
op ol
sp herical
Ġflood ing
H s
Ġ Ã©
om ers
ĠHall ow
Ġimm ersion
Ġle ase
Ġd irty
Ġend orse
Ġ- {\
ĠTro phy
Ġob eys
Ġd S
ĠSe lection
anc ers
] :
vi er
Ġmother s
o ard
Ġex changed
Ġdiscret ized
ĠTri ple
4 10
is he
Ġaff air
ĠSh akespeare
ĠInf rastructure
ĠT B
ĠR MS
29 3
inv ol
Ġ\! \!
Ġcor rupt
Ġsoci eties
Ġunder way
Ġreg ener
ĠCom edy
SO s
Ġter rain
Ġro pe
ĠA UC
N eg
Ġ$ }
com bin
F red
i otic
Ġconstruct s
sub fig
scal ed
ĠHop kins
Ġimp ed
Ġc ens
Ġst ir
Ġstra ins
Ġindirect ly
D ark
ĠM Ps
ĠR ico
] (\
in de
Ġtop ologies
H il
W ashington
r ar
Ġc iting
Ġover night
Ġsubst ructure
ne ys
Ġdivis ible
F ast
Ġkid ney
ĠB ald
ĠG ender
W ood
ess ential
^+ $.
Ġsequential ly
10 80
... "
Ġlight weight
asser stein
Ġdist illation
30 9
Ġmonom ials
ĠS ara
big vee
60 6
Ġd ensely
ĠD anny
Ġequ ilibria
33 9
un ted
ĠF o
op ening
if ully
Ġspot ted
calcul ations
Interest ingly
Ġreg ulator
Ġgen ome
ĠHur ricane
____ ____
ĠP P
Ab stract
Ġaff ir
i ary
Ġdisc ourse
ĠCon cept
Ġcycl ing
ĠO tt
ĠV PN
Ġsac red
ĠN as
am oto
ĠT ips
Ġbin omial
Ġeq s
Ġaccept s
ĠShan ghai
ĠS pencer
ĠV ic
fol k
Ġglass es
Ġneb ula
ĠR ash
Ġprem ise
Ġ iv
Ġjust ification
d ar
ĠHol iday
ĠPrinc ipal
ĠI A
Ġres ume
Ġinnov ations
tablenot emark
H art
Ġf rustration
Ġstret ching
Ġd ens
ĠN HS
ĠSand ers
G K
pi le
en za
A ff
Ġp raise
eng ine
ĠPDF s
ĠExperim ent
dim ensions
Ġdecor ated
determin istic
Ġcelebr ity
e ur
T witter
Ġanaly sts
ĠSer ver
en ian
}$ ~\
0 70
Ġsu cc
ĠSch ur
stitution al
Ġcous in
Î µ
late x
ĠI SS
Ġs odium
ĠB ears
25 00
Rep resent
S us
rag on
$\% $
Ġhyper parameter
Ġspac etimes
Ġsurviv ors
ĠC incinnati
rit is
is te
}\| _{\
ĠG H
Ġ( #
ch in
}} }$,
ĠHe at
um my
ĠOb ject
ag g
oy le
ĠHel en
ĠCol umn
Ġvac ua
33 8
Ġcos et
Ear th
Ġreminis cent
Ġpos et
ĠAppro ach
Ġw edge
[ ][]{
Ġv apor
Ġmem orial
Ġdark ness
Ġconsult ant
d og
Ġso vereign
fl ip
Ġdecentral ized
> =
Ġpr one
Cal ifornia
Ġsubsidi ary
~ ~\
}, ...,
prising ly
ĠR at
Ġfin anc
Tag ged
ĠM ong
triang leright
Ġint ric
bro ad
ĠJo in
dispers ion
le en
Ġlength y
tor ic
ĠA DM
Ġtext ual
F K
Ġspec ially
28 3
ass ume
Ġnucle ons
{ +}
w ent
ut t
ĠE oS
Ġoblig ation
4 70
Ġen riched
ond ers
Ġhere after
na ire
Ġun ambig
Ġrenew ed
Ġsp ray
Ġfav ored
worth y
c R
im i
Per haps
ĠBob by
DA Y
bb ed
Ġlear ner
Ġcongru ence
d uring
Abel ian
ĠThe rm
Ġpost al
ĠÎ ¼
are l
Ġcor n
Ġproceed ing
um m
Ġspec ifies
Ġlog istics
Ġexpress es
39 6
Ġposition ing
Ġathlet ic
Ġfold ed
Ġcla uses
ing e
polar ization
Ġm artingale
ĠCat hedral
Ġfundament ally
ĠW HO
Ġdis abilities
Ġinstant ly
Ġwhere by
bec omes
off set
Ġtor oidal
Ġpeace ful
\ }^{
Ġor che
ne ctions
Ġfl ed
I r
ĠP ain
Ġdel icate
ĠT ib
Ġcompar ative
ĠM DP
on ies
ĠPet e
V ery
m ov
ĠGl asgow
ĠBern oulli
Par ameter
a ft
i our
t xt
ĠRes ort
Ġdiff us
Ġthr iller
Ġspec ifying
[- >,
Co V
H as
p airs
ĠP ink
ĠCh ase
Ġref ine
ĠSwit ch
ĠCrit ical
ancell or
Ġsupers cript
og g
Ġfirst ly
OR D
ans om
Ġnor theast
Ġdesk top
ĠWel sh
0 22
ĠT F
202 5
Ġgard ens
Ġmet er
Ġbre eding
G all
Ġp ent
Ġcontroll ers
Car lo
ĠChristian ity
Ġref use
Ġexplo itation
ĠCollabor ation
ĠV ers
A sh
face book
we ights
ram er
Ġmet eor
Ġassoci ates
Ġl ig
Ġth rust
Ġgod s
lef te
atin um
Ġab straction
' }$,
c ity
Ġrespect ed
Ġhon our
lap se
M att
an ic
ĠS ARS
Ġinteg rability
Ġ$ )
am ura
ĠFl u
Olymp ic
] )\
ĠS olution
Ġbreak through
Ġunder graduate
le af
}) ),
in corpor
col our
Ġac ids
C hat
ĠR uth
o ising
25 1
Ġdraw ings
Ġdro plet
phon on
ential s
in ely
Me et
domin ant
Ġnum bered
M ASS
Ġbounded ness
C hi
in da
Ġequ atorial
plic ations
Ġl anes
Ġhon ored
Ġlower ing
Ġalumin um
Ġcon ferences
pol it
ĠNov a
ĠArt ists
Ġfest ivals
A z
] _\
ĠB anks
Ġc attle
(\ |
ari e
ri ans
ĠD ad
Ġme V
[- ]
ĠR oth
Ġcar cin
Ġur gent
0 23
ne um
ĠX X
m and
âĢ ²
G rand
sub st
$\ ,\
ĠM otion
Ġrecip ients
Ġreplic a
ĠH appy
Ġpol ls
Ġmetallic ities
Ġvib rant
ĠGo ing
Ð ¹
od o
U ser
ĠC IA
ĠD OS
Ġdisapp ears
a q
ĠE A
Ġtreat s
Ġlov ing
!! !!
g ain
ĠM ul
35 6
Ġconstruct ive
ĠIn ternal
similar ity
F lo
os ion
Ġ. $$
s aw
os ov
ĠInf o
ĠLin da
Ġexerc ises
T er
ct ive
c G
im o
Ar row
Ġw ard
ĠH B
id is
il o
defin ite
Q P
and ro
Ġread out
E volution
ĠHar per
Ġf are
Ġtable t
V ict
Ġvisual ize
Ġtouc hed
Ġconv ince
Ġtong ue
ĠG DP
con taining
ĠSum mary
IS M
zz i
Ġdoub les
Ġking dom
ĠD ataset
Ġpur ity
ĠM ills
Ġoscill ators
Ġtrig gers
Ġrecover s
pin label
Ġsac rific
ol esc
4 68
yl an
met al
ĠT at
Ġsm ell
Ġshar ply
F ootball
c T
Ġcit ations
Le ave
ĠU SS
ors che
Ġen rolled
i ating
as aki
ĠM LP
ĠN T
IS O
Ġlow ered
ĠBl ake
Ġdirection al
approxim ately
Ġconsult ing
re rs
Ġin tact
Opt im
ĠNaz i
, ''
B or
}} )^
Ġprob ing
Ġsepar ations
Ġes cal
F ourier
19 02
Ġtract able
b uilt
un ed
ĠG arcia
atter y
us on
Ġenter prises
L V
in ters
anc el
Ġsnapsh ots
18 70
38 7
al ys
Ġra pe
40 4
Ġdepos its
Ġsp aced
Ġrel atives
mod ular
S Z
)\ |_{\
rig er
Ġterrit ories
, &
\ }\\
Ġret reat
ĠAh med
Ġmet h
Ġresemb le
ĠP N
Ġhere in
Ġorgan ize
f urther
Ġemb ry
Ġa erial
Ġclimb ing
ir ling
cut s
ĠCub a
ĠEag le
ĠGard ens
Ġb arg
ĠD rop
tor us
Ġjump ed
Ġopp osing
Ġadjust ments
ĠM ell
Ġpump ing
Ġd Ã©
ĠN M
Ġas ymmetries
G rant
G ro
Ġpat ri
Ġprom otes
Z e
ĠS MC
}\, ,\
ĠHung arian
}, {
go ogle
Ġdefend ant
Ġaccommod ation
Ġincent ives
4 65
26 3
ĠPar ish
Ġresign ed
contin uum
v at
Ġrob otic
g low
** *
ĠCom paring
Ġcard inal
Ġsh irt
ĠZ imbabwe
Ġfract ure
Categ ory
B eyond
ĠJ et
plot one
Ġc oded
mat ure
33 7
ĠZ el
Ġfol ding
t bp
l f
ĠF oot
Ġsoft max
, (\
Ġmed iated
ĠT rial
ĠK end
h bt
ĠEll is
Ġcle ared
ĠDO I
pre vious
ĠNorth west
ĠPr ison
Ġsupernov ae
ak y
Ġun ification
Ġjump ing
ĠUs ed
develop ed
Ġdo ct
_{ _{\
Ġal i
Ġbary onic
S up
Ġre forms
ĠG MT
it ations
ĠC ities
Ġgreen house
comb ined
)] ^
h phantom
ve k
ĠO B
Ġj er
En c
Ġh ints
Ġk icks
rib es
Ġsp ine
ĠSc ar
abs orption
imp act
ĠW rest
Ġelect oral
Ġleg ally
ĠAd vert
ĠComm ander
CV PR
Ġy eah
Ġwhere ver
a uc
)$ \\
n ational
et z
c art
Ġb reat
ĠR P
Ġbe ats
Ġc and
Ġhy pert
Ġsuperconduct ivity
com for
Ġanth rop
st orm
R ot
29 4
_+ ,
Ġg orge
ind ices
T our
ĠB rid
Ġoscill ating
Supp ort
ĠB V
de velopment
Ġfound ations
fil m
Ġreal ised
Ġfunction ing
Ġsub division
ĠColomb ia
Ġsubt racting
ĠGab riel
v mode
ĠS cale
g c
ĠRe qu
Ġlast ed
Ġstress es
con fin
Ġins ensitive
ĠCNN s
ĠD T
Ġann ulus
or ously
Ġam endment
Ġde pletion
Ġst ance
ĠJ ets
0 34
un ks
Ġgu ards
ĠBeng al
: \\
Ġd ive
80 2
fill ing
ita ev
ĠWork shop
R iemann
Ġout let
Ġobserv es
Ġdemand ed
n is
Ġ )$,
ĠPro gress
*} %
18 97
fore st
g ine
Ġpre curs
Ġout burst
there um
Get ty
te rex
ĠD iversity
H an
ru de
Ġsc int
D ar
Ġde form
4 90
represent ations
ĠFac ility
ĠM ik
ĠC rystal
Ġph y
Ġret ention
Cl oud
Ġreven ues
O k
Ġren tal
Ġkn ife
ĠLl oyd
P en
Ġim plements
M arc
cal culation
ring ing
}| =
Ġarc sec
)) (
Ġpurch ases
Ġprefe rent
leave vmode
par ams
ont in
Se ason
+\ ,
Ġelectro de
t ight
ĠAr ctic
ÃŃ n
ĠNiger ian
ĠD ame
B and
Ġste al
Spe aking
ĠA id
45 6
Ġprob ed
Ġdiam onds
O F
ib les
v n
ĠA chie
Ġgl ance
om ics
3 28
ĠH M
ĠComput e
Ġprest igious
ĠMo z
Ġbas in
st ick
ĠA ctor
Ġshe ep
art en
ĠFun ding
Ġn inth
com pl
Ġprodu ctions
q i
ĠLorentz ian
m ith
26 2
w ire
x shift
Ġp ension
Ġtrack ed
Ġgl u
Ġ= =
ĠSche dule
Ġnon etheless
Ġrepos itory
th ood
separ ated
Dem oc
m usic
33 1
ĠHar bor
B ud
Ġaud it
ĠSche me
Ġdial og
p rice
Ġgl uing
p ad
lear n
umb ent
perturb ation
ĠVari ous
M ont
Ġb ail
ĠSte phan
typ ically
Ġfer ro
F ood
ĠB ach
ĠG amma
^* )\
Rep ublic
Ġsol vers
Ġten ure
Ġmit igation
iff ith
ĠS ed
P acific
ĠT urb
Ġexplo its
baselines kip
d ia
Ġthe ta
Ġtim eline
Ġrig idity
b Z
Ġany body
ograph s
ĠSim ple
Ġend less
ĠElect ronic
Ġp ending
% ).
Ġpre cession
on so
Ġpre y
sol ar
ĠVictor ian
Ġsin us
ĠGPU s
Ã¨ re
Ġf ainter
ĠAust rian
Ġspok esperson
â Ī
)) -
ĠCl uster
optim ization
G overnment
ĠB ristol
supp orted
ĠMer cedes
S b
Ġin take
ign e
ex per
Ġgen res
Ġacc idents
ĠP and
Ġremin der
Ġpursu ing
Ġf ights
Ġsolit ons
Ġremind ed
introdu ced
Ġdist orted
ĠMark ets
Ġmuseum s
comput e
Song s
ĠK P
Ï Ħ
ĠGro ve
mass es
Ġstack ing
6 75
Ġpsy chiat
Ġf ame
ĠM olecular
Ġcount less
ĠLinked In
ba ij
Char acter
categor ized
ou ple
38 5
z heimer
Q ual
ĠV ermont
Ġcharacter ised
ĠĠĠ čĊ
Ġindistinguish able
Book s
ĠAn sw
Ġinterview ed
ambig uation
Ġinfl aton
Ġkid n
Ġlo yal
AN N
Ġstar burst
imod ule
Ġ& &&
ĠLegisl ative
Ġabsor b
gener ating
ĠRay leigh
os yn
en ching
inc ome
re search
Com b
ĠJ ung
oper ation
ĠHallow een
Com mon
ĠG em
op ard
Ġresid ues
Ġsubject ive
Ġp upp
Ġtransl ational
Ġpoly g
Ġtouch ing
ĠFour th
Ġcart oon
S qu
m rm
ĠO PE
ĠHol mes
whe el
Ð ¿
Ġquasipart icle
ian e
pin ion
Ġinter fe
US D
Ġec ological
che m
ĠCent ers
ĠG Cs
Ġc raw
ĠPal m
Ġaxi om
ingu ished
Ġser um
Ġconject ured
ĠB MW
fin als
pro c
pro posed
ĠBill board
ĠDe cl
Ġrepl aces
in clude
Ġch ocolate
38 8
l ater
Ġattach ment
ĠRichards on
Ġin adequ
Ġ`` \
Ġarg uably
Ġprompt ed
ibl ings
ĠB F
44 7
sub t
)} [
F ried
L es
Ġmaxim ization
Ġreal izing
Ġenh ances
ĠB ennett
Ġco ars
han ol
Ġmarg ins
ĠS oci
ĠFl ash
ĠGener ally
Ch inese
ĠBu ild
Ġperiod ically
ific ates
ract able
Ġposit ives
\ ^
ro ut
ne apolis
ĠSur face
ĠLeon ard
Ġin formal
}} }.
0 90
ĠB CS
Ġma j
ari us
d ated
Ġequival ences
anche z
Ġst ones
ios ity
ĠG and
Stud y
3 99
K en
Ġ }_
all a
Ġsh aping
Ġprem ie
Comp ared
Ġredu cible
pos ium
3 27
ass ing
Ġincent ive
Ġnurs es
Ġn aked
Ġpenet ration
a ul
ip ot
^- ,
multi plic
zer baij
inst ance
Ġcontact ed
id ences
Ġassess ments
present ed
}$ ]
ĠO bl
Ġmultiple ts
Ġfat al
Crit ical
ol an
nik ov
F er
ĠMil waukee
Ġadvent ures
Ġk ills
Ġcompr ise
ec a
Ġmar ry
Ġfru its
ip ation
Ġdis continuous
R ail
arent ly
allow ed
Ġrece ipt
Ġorth ogonality
Y u
R s
Ġthreat ening
Ġinde composable
ĠLeg acy
ta ch
read s
Ġhab its
Ġcompass ion
à¥ ĩ
D am
w ald
9 90
ĠMc Donald
Ġclick ing
Ġstri ps
Ġrecycl ing
Ġfict ional
ĠK ondo
rep orted
hol es
S z
Ġresult ant
ĠLa un
phi e
ĠZ oom
Ġdemonstr ations
on ov
land er
> }
Ġexhib iting
Ġmur dered
L ED
Ġd ich
bin ar
Ġfif teen
Ġlit igation
Ġretain ing
Ġpress ing
ĠCons erv
success ful
Ġsent enced
ĠRoman ia
Sch midt
Imp ort
ĠC U
ne utrino
B Z
Ġw ires
ĠFil ip
Ġcancel ed
agn ostic
:\ :\
Ġdiffer ing
ĠR he
| /
re cent
ak ar
K lein
Ġenfor ced
ĠAthlet ic
ract or
Ġf ifty
re q
ĠW ick
Ġsyn tax
Ġpartition ed
4 36
Ġs el
May be
ĠEll i
ĠAnc ient
ĠP eng
ĠO z
Ġz er
Ġprogress ively
ĠPartners hip
le ast
Ġim poses
ĠY an
Ġacceler ating
Ġperman ently
Ġpharma ceutical
P t
ĠSu z
bet ter
Ġpropag anda
ĠTour ism
ĠH ack
Experim ent
p ent
Ġimm unity
amm ation
uc id
eb ook
Pr inc
op edia
Ġrel ied
) '
Ġh ills
Ġnumer ator
Ġp el
ĠWar riors
O fficial
Ġsa fer
< [
ĠMan aging
M aking
pl ays
Ġvulner abilities
Ġles ions
Ġtu ples
28 9
Ġin con
ew s
uck land
Ġen act
Ġprec ious
ĠFor ward
ĠPsych ology
ma pping
pl acing
gent a
Ġv ariances
t orsion
{ ``
own ers
ĠAthe ns
ĠLeban on
Ġp ions
ĠPh one
Ġemer gent
grav itational
inter pol
Ġindex es
Ġsle eping
ĠU TC
ear th
sh ifted
ĠÂ «
Pro cess
? âĢĻ
ĠA W
! (
B Y
ĠCommun ist
5 40
cor relations
Ġunve iled
ĠVeter ans
34 9
andid ates
ĠM V
Ġtra gedy
C ond
M arg
ĠD escription
}) --
Ġdesper ate
ĠBuddh ist
ĠA cknowledg
Ġbes ide
dem and
Ġphys icians
Ġneglect ing
3 11
ĠU L
ok u
Ġb out
Ġstat ue
Ġoccur rences
Ġhol y
em pir
C Y
Â «
ĠCateg ory
B it
ĠA da
Ġcon cluding
ĠStrateg ic
Ġadvis or
ĠE ston
se ctor
ĠD F
Ġthere after
Writ ten
oun ge
r ime
Ġm ist
Ġpros per
Ġ[ {\
C AL
ĠS ullivan
track ing
Ġintersect ing
Ġlocal s
Ġw al
Ġt ear
Ġexec uting
F ont
ĠDet erm
ĠLet ters
ĠBe havior
Ġthe ft
D NA
ĠRe form
Ġcalc ium
inf all
Ġo pi
Ġanalog ously
ee k
Ġass ured
orph ism
M ilitary
ĠF actor
Ġelectro static
| _\
ĠEthiop ia
Ġfac ets
predict ion
Ġ( ),
Ġwas h
Ġ} %
ĠEnt reprene
morph ism
A Y
ĠT rends
Ġsy nonym
ĠK oh
Ġmult if
Ġnorth west
ĠML B
gg ing
ĠProdu ctions
Ġre ck
Ġs of
}) }.
estim ation
Ġcab inet
Ġin quiry
Ġmake up
Ġge ographical
| ^\
Ġg el
un da
|}{ $
Ġdrop out
ĠJam ie
Ġdis par
lem m
Ġrib bon
Ġin hom
ct uary
ĠL ac
ĠS ER
Ġre active
Ġaffili ated
ir ical
os ely
)\ ]
Ġmel ting
Tele vision
Ġ\ *
ma ck
ole y
Ġrub ber
Ġin clusions
ĠTh r
ĠBar nes
mean ing
ex ec
Ġgra ve
EN TS
Ġtw ists
ĠUlt imate
Ġprivile ge
ec m
Ġrec oil
Ġbu zz
ĠR ugby
ok o
A mazon
v ich
Ġast rom
ĠPlay Station
Ġrespon ding
IC A
end y
ĠH ours
oth ic
Ġsuit ably
ĠQu ick
Ġcivil ian
Â ½
Con nell
Ġelectro des
sug gest
Ġgeneral izations
i eck
ĠE DT
ĠL ines
Ġlim b
Ġphys ic
ĠIsa ac
Ġsp are
Ġ`` $
pdf string
[...]
