{
  "version": "1.0",
  "truncation": null,
  "padding": null,
  "added_tokens": [
    {
      "id": 0,
      "content": "[UNK]",
      "single_word": false,
      "lstrip": false,
      "rstrip": false,
      "normalized": false,
      "special": true
    }
  ],
  "normalizer": null,
  "pre_tokenizer": {
    "type": "Sequence",
    "pretokenizers": [
      {
        "type": "Digits",
        "individual_digits": false
      },
      {
        "type": "ByteLevel",
        "add_prefix_space": false,
        "trim_offsets": true,
        "use_regex": true
      }
    ]
  },
  "post_processor": null,
  "decoder": null,
  "model": {
    "type": "BPE",
    "dropout": null,
    "unk_token": "[UNK]",
    "continuing_subword_prefix": null,
    "end_of_word_suffix": null,
    "fuse_unk": false,
    "byte_fallback": false,
    "vocab": {
      "[UNK]": 0,
      "!": 1,
      "\"": 2,
      "#": 3,
      "$": 4,
      "%": 5,
      "&": 6,
      "'": 7,
      "(": 8,
      ")": 9,
      "*": 10,
      "+": 11,
      ",": 12,
      "-": 13,
      ".": 14,
      "/": 15,
      "0": 16,
      "1": 17,
      "2": 18,
      "3": 19,
      "4": 20,
      "5": 21,
      "6": 22,
      "7": 23,
      "8": 24,
      "9": 25,
      ":": 26,
      ";": 27,
      "<": 28,
      "=": 29,
      ">": 30,
      "?": 31,
      "@": 32,
      "A": 33,
      "B": 34,
      "C": 35,
      "D": 36,
      "E": 37,
      "F": 38,
      "G": 39,
      "H": 40,
      "I": 41,
      "J": 42,
      "K": 43,
      "L": 44,
      "M": 45,
      "N": 46,
      "O": 47,
      "P": 48,
      "Q": 49,
      "R": 50,
      "S": 51,
      "T": 52,
      "U": 53,
      "V": 54,
      "W": 55,
      "X": 56,
      "Y": 57,
      "Z": 58,
      "[": 59,
      "\\": 60,
      "]": 61,
      "^": 62,
      "_": 63,
      "`": 64,
      "a": 65,
      "b": 66,
      "c": 67,
      "d": 68,
      "e": 69,
      "f": 70,
      "g": 71,
      "h": 72,
      "i": 73,
      "j": 74,
      "k": 75,
      "l": 76,
      "m": 77,
      "n": 78,
      "o": 79,
      "p": 80,
      "q": 81,
      "r": 82,
      "s": 83,
      "t": 84,
      "u": 85,
      "v": 86,
      "w": 87,
      "x": 88,
      "y": 89,
      "z": 90,
      "{": 91,
      "|": 92,
      "}": 93,
      "~": 94,
      "¡": 95,
      "¢": 96,
      "£": 97,
      "¤": 98,
      "¥": 99,
      "¦": 100,
      "§": 101,
      "¨": 102,
      "©": 103,
      "ª": 104,
      "«": 105,
      "¬": 106,
      "®": 107,
      "¯": 108,
      "°": 109,
      "±": 110,
      "²": 111,
      "³": 112,
      "´": 113,
      "µ": 114,
      "¶": 115,
      "·": 116,
      "¸": 117,
      "¹": 118,
      "º": 119,
      "»": 120,
      "¼": 121,
      "½": 122,
      "¾": 123,
      "¿": 124,
      "Â": 125,
      "Ã": 126,
      "Ä": 127,
      "Å": 128,
      "Æ": 129,
      "Ç": 130,
      "È": 131,
      "É": 132,
      "Ê": 133,
      "Ë": 134,
      "Ì": 135,
      "Í": 136,
      "Î": 137,
      "Ï": 138,
      "Ð": 139,
      "Ñ": 140,
      "Ò": 141,
      "Ó": 142,
      "Ô": 143,
      "Õ": 144,
      "Ö": 145,
      "×": 146,
      "Ø": 147,
      "Ù": 148,
      "Ú": 149,
      "Û": 150,
      "Ü": 151,
      "Ý": 152,
      "Þ": 153,
      "ß": 154,
      "à": 155,
      "á": 156,
      "â": 157,
      "ã": 158,
      "ä": 159,
      "å": 160,
      "æ": 161,
      "ç": 162,
      "è": 163,
      "é": 164,
      "ê": 165,
      "ë": 166,
      "ì": 167,
      "í": 168,
      "î": 169,
      "ï": 170,
      "ð": 171,
      "ò": 172,
      "ó": 173,
      "ô": 174,
      "Ā": 175,
      "Ă": 176,
      "Ĉ": 177,
      "ĉ": 178,
      "Ċ": 179,
      "Č": 180,
      "č": 181,
      "ď": 182,
      "ē": 183,
      "Ĕ": 184,
      "Ě": 185,
      "ě": 186,
      "Ġ": 187,
      "ġ": 188,
      "Ģ": 189,
      "ģ": 190,
      "Ĥ": 191,
      "ĥ": 192,
      "Ħ": 193,
      "ħ": 194,
      "Ĩ": 195,
      "ĩ": 196,
      "Ī": 197,
      "ī": 198,
      "Ĭ": 199,
      "ĭ": 200,
      "Į": 201,
      "į": 202,
      "İ": 203,
      "ı": 204,
      "Ĳ": 205,
      "ĳ": 206,
      "Ĵ": 207,
      "ĵ": 208,
      "Ķ": 209,
      "ķ": 210,
      "ĸ": 211,
      "Ĺ": 212,
      "ĺ": 213,
      "Ļ": 214,
      "ļ": 215,
      "Ľ": 216,
      "ľ": 217,
      "Ŀ": 218,
      "ŀ": 219,
      "Ł": 220,
      "ł": 221,
      "Ń": 222,
      "Ġt": 223,
      "in": 224,
      "he": 225,
      "Ġa": 226,
      "on": 227,
      "re": 228,
      "at": 229,
      "Ġthe": 230,
      "er": 231,
      "en": 232,
      "Ġs": 233,
      "Ġo": 234,
      "al": 235,
      "it": 236,
      "or": 237,
      "is": 238,
      "Ġc": 239,
      "ion": 240,
      "es": 241,
      "Ġ\\": 242,
      "an": 243,
      "Ġw": 244,
      "ar": 245,
      "Ġf": 246,
      "ed": 247,
      "ĠĠ": 248,
      "Ġof": 249,
      "Ġp": 250,
      "Ġ$": 251,
      "Ġan": 252,
      "Ġin": 253,
      "Ġb": 254,
      "le": 255,
      "ing": 256,
      "ic": 257,
      "ro": 258,
      "Ġd": 259,
      "Ġm": 260,
      "Ġand": 261,
      "Ġto": 262,
      "ct": 263,
      "as": 264,
      "el": 265,
      "ig": 266,
      "et": 267,
      "{\\": 268,
      "ent": 269,
      "Ġth": 270,
      "ou": 271,
      "ra": 272,
      "ation": 273,
      "om": 274,
      "Ġe": 275,
      "im": 276,
      "il": 277,
      "Ġre": 278,
      "st": 279,
      "Ġh": 280,
      "Ġis": 281,
      "ot": 282,
      "Ġn": 283,
      "ol": 284,
      "am": 285,
      "Ġl": 286,
      "ĠT": 287,
      "ve": 288,
      "_{": 289,
      "Ġ(": 290,
      "id": 291,
      "ce": 292,
      "Ġfor": 293,
      "Ġg": 294,
      "ut": 295,
      "se": 296,
      "ĠS": 297,
      "qu": 298,
      "ow": 299,
      "ĠĠĠĠ": 300,
      "Ġ$\\": 301,
      "ly": 302,
      "ch": 303,
      "eg": 304,
      "un": 305,
      "ver": 306,
      "ab": 307,
      "mat": 308,
      "ul": 309,
      "Ġon": 310,
      "ur": 311,
      "Ġthat": 312,
      "ĠA": 313,
      "ith": 314,
      "ĠC": 315,
      "âĢ": 316,
      "math": 317,
      "um": 318,
      "Ġbe": 319,
      "Ġst": 320,
      "Ġcon": 321,
      "us": 322,
      "end": 323,
      "ĠI": 324,
      "Ġwith": 325,
      "}\\": 326,
      "od": 327,
      "ta": 328,
      "Ġ&": 329,
      "Ġas": 330,
      "em": 331,
      "Ġwe": 332,
      "if": 333,
      "ĠM": 334,
      "ĠĊ": 335,
      "}$": 336,
      "ph": 337,
      "igh": 338,
      "^{": 339,
      "ction": 340,
      "20": 341,
      "ir": 342,
      "ad": 343,
      "Ġpro": 344,
      "ure": 345,
      "čĊ": 346,
      "Ġal": 347,
      "ay": 348,
      "ri": 349,
      "ge": 350,
      "ter": 351,
      "ĠP": 352,
      "ma": 353,
      "ĠB": 354,
      "ĠThe": 355,
      "ight": 356,
      "ĠF": 357,
      "pp": 358,
      "os": 359,
      "Ġby": 360,
      "Ġare": 361,
      "Ġex": 362,
      "th": 363,
      "ity": 364,
      "Ġv": 365,
      "te": 366,
      "her": 367,
      "}}": 368,
      "ref": 369,
      "ist": 370,
      "(\\": 371,
      "ite": 372,
      "cal": 373,
      "ĠH": 374,
      "and": 375,
      "iv": 376,
      "ore": 377,
      "Ġwh": 378,
      "egin": 379,
      "Ġcom": 380,
      "ate": 381,
      "ĠR": 382,
      "begin": 383,
      "ĠW": 384,
      "ect": 385,
      "ĠL": 386,
      "Ġit": 387,
      "res": 388,
      "ine": 389,
      "ĠD": 390,
      "ers": 391,
      "Ġat": 392,
      "pt": 393,
      "Ġde": 394,
      "art": 395,
      "rom": 396,
      "ial": 397,
      "ac": 398,
      "rac": 399,
      "_{\\": 400,
      ")$": 401,
      "Ġsu": 402,
      "ies": 403,
      "pl": 404,
      "per": 405,
      "est": 406,
      "ft": 407,
      "Ġse": 408,
      "ill": 409,
      "ĠN": 410,
      "ĠE": 411,
      "}{": 412,
      "ive": 413,
      "ps": 414,
      "ant": 415,
      "de": 416,
      "Ġfrom": 417,
      "xt": 418,
      "ĠG": 419,
      "ess": 420,
      "Ġor": 421,
      "The": 422,
      "Ġr": 423,
      "Ġy": 424,
      "frac": 425,
      "eq": 426,
      "ment": 427,
      ",\\": 428,
      "iz": 429,
      "Ġ=": 430,
      "Ġthis": 431,
      "oun": 432,
      "âĢĻ": 433,
      "ical": 434,
      "quation": 435,
      "cite": 436,
      "Ġsh": 437,
      "ag": 438,
      "ave": 439,
      "})": 440,
      "ren": 441,
      "ew": 442,
      "ld": 443,
      "Ġsp": 444,
      "ak": 445,
      "op": 446,
      "ich": 447,
      "rm": 448,
      "oc": 449,
      "ell": 450,
      "all": 451,
      "int": 452,
      "ult": 453,
      "Ġhe": 454,
      "right": 455,
      "Ġcan": 456,
      "for": 457,
      "ud": 458,
      "abel": 459,
      "ition": 460,
      "ub": 461,
      "Ġcomp": 462,
      "text": 463,
      "ĠĠĠĠĠĠĠĠ": 464,
      "Ġun": 465,
      "Ġnot": 466,
      "mathb": 467,
      "Ġwas": 468,
      "ens": 469,
      "Ġ-": 470,
      "19": 471,
      "og": 472,
      "Ġle": 473,
      "ated": 474,
      "red": 475,
      "Ġch": 476,
      "ĠĠĠ": 477,
      "},": 478,
      "the": 479,
      "our": 480,
      "ign": 481,
      "$,": 482,
      "ran": 483,
      "label": 484,
      "up": 485,
      "Ġres": 486,
      "equation": 487,
      "$.": 488,
      "Ġhave": 489,
      "ort": 490,
      "ĠIn": 491,
      "ĠO": 492,
      "cl": 493,
      "du": 494,
      "ds": 495,
      "00": 496,
      "ff": 497,
      "mathcal": 498,
      "eta": 499,
      "Ġus": 500,
      "ber": 501,
      "ations": 502,
      "}.": 503,
      "ĠJ": 504,
      "Ġk": 505,
      "der": 506,
      "Ġwhich": 507,
      "}(": 508,
      "ass": 509,
      "left": 510,
      "ace": 511,
      "Ġwhe": 512,
      "ru": 513,
      "201": 514,
      "ary": 515,
      "low": 516,
      "able": 517,
      "to": 518,
      "}^": 519,
      "ec": 520,
      "~\\": 521,
      "ide": 522,
      "}_": 523,
      "fig": 524,
      "Ġim": 525,
      "ust": 526,
      "cc": 527,
      "act": 528,
      "ĠâĢ": 529,
      "ener": 530,
      "ast": 531,
      "Ġcl": 532,
      "da": 533,
      "ong": 534,
      "ime": 535,
      "Ġmod": 536,
      "ost": 537,
      "ase": 538,
      "ence": 539,
      "ther": 540,
      "pha": 541,
      "Ġab": 542,
      "ĠU": 543,
      "alpha": 544,
      "ap": 545,
      "ib": 546,
      "Ġapp": 547,
      "Ġhas": 548,
      "amb": 549,
      "ork": 550,
      "Ġpl": 551,
      "ip": 552,
      "ach": 553,
      "ĠK": 554,
      "ard": 555,
      "fe": 556,
      ")\\": 557,
      "ain": 558,
      "ions": 559,
      "form": 560,
      "ear": 561,
      "ous": 562,
      "ue": 563,
      "$\\": 564,
      "Ġall": 565,
      "10": 566,
      "gh": 567,
      "line": 568,
      "so": 569,
      "ian": 570,
      "ambda": 571,
      "ack": 572,
      "ould": 573,
      "con": 574,
      "ely": 575,
      "ang": 576,
      "are": 577,
      "elta": 578,
      "Ġob": 579,
      "Ġme": 580,
      "ome": 581,
      "sum": 582,
      "pro": 583,
      "ric": 584,
      "ĠTh": 585,
      "over": 586,
      "amma": 587,
      "Ġ+": 588,
      "ame": 589,
      "Ġone": 590,
      "_\\": 591,
      "Ġqu": 592,
      "),": 593,
      "use": 594,
      "imes": 595,
      ").": 596,
      "av": 597,
      "row": 598,
      "'s": 599,
      "Ġad": 600,
      "age": 601,
      "out": 602,
      "erm": 603,
      "Ġpart": 604,
      "mu": 605,
      "wo": 606,
      "Ġ\\\\": 607,
      "ia": 608,
      "Ġwill": 609,
      "ĠV": 610,
      "Ġdis": 611,
      "feren": 612,
      "igma": 613,
      "=\\": 614,
      "Ġcont": 615,
      "sp": 616,
      "ents": 617,
      "dot": 618,
      "In": 619,
      "}^{": 620,
      "ik": 621,
      "}_{": 622,
      "mathbb": 623,
      "ance": 624,
      "rib": 625,
      "ho": 626,
      "-\\": 627,
      "ors": 628,
      "tain": 629,
      "Ġalso": 630,
      "Ġper": 631,
      "ega": 632,
      "Ġj": 633,
      "ose": 634,
      "ple": 635,
      "ry": 636,
      "Ġsy": 637,
      "sub": 638,
      "ding": 639,
      "Ġne": 640,
      "mb": 641,
      "ree": 642,
      "phi": 643,
      "own": 644,
      "we": 645,
      "ular": 646,
      "hat": 647,
      "ates": 648,
      "^{\\": 649,
      "Ġfun": 650,
      "ire": 651,
      "ally": 652,
      "com": 653,
      "Ġ{\\": 654,
      "ution": 655,
      "ics": 656,
      "Ġev": 657,
      "..": 658,
      "ok": 659,
      "lambda": 660,
      "of": 661,
      "ice": 662,
      "Ġmodel": 663,
      "ark": 664,
      "erv": 665,
      "Ġout": 666,
      "Ġtwo": 667,
      "ound": 668,
      "bf": 669,
      "ari": 670,
      "ov": 671,
      "Ġdif": 672,
      "Ġour": 673,
      "Ġbut": 674,
      "Ġyou": 675,
      "ray": 676,
      "oint": 677,
      "ie": 678,
      "Ġmore": 679,
      "ĠWe": 680,
      "ollow": 681,
      "fin": 682,
      "Ġtheir": 683,
      "ces": 684,
      "ress": 685,
      "200": 686,
      "ind": 687,
      "ory": 688,
      "irst": 689,
      "mathbf": 690,
      "part": 691,
      "cent": 692,
      "Ġdo": 693,
      "Ġset": 694,
      "ilon": 695,
      "raph": 696,
      "psilon": 697,
      "Ġar": 698,
      "sigma": 699,
      "pi": 700,
      "âĢĿ": 701,
      "section": 702,
      "Ġen": 703,
      "und": 704,
      "Ġif": 705,
      "Ġinter": 706,
      "Ġother": 707,
      "ile": 708,
      "wid": 709,
      "Ġfollow": 710,
      "}{\\": 711,
      "ys": 712,
      "Ġcons": 713,
      "Ġ(\\": 714,
      "Ġtime": 715,
      "Ġits": 716,
      "Ġbet": 717,
      "Ġover": 718,
      "umber": 719,
      "^{-": 720,
      "Ġform": 721,
      "Ġsim": 722,
      "vel": 723,
      "Ġresult": 724,
      "Ġso": 725,
      "Ġsuch": 726,
      "iel": 727,
      "very": 728,
      "pect": 729,
      "rans": 730,
      "Ġro": 731,
      "dition": 732,
      "beta": 733,
      "Ġwhere": 734,
      "app": 735,
      "Ġcor": 736,
      "one": 737,
      "clud": 738,
      "ilde": 739,
      "Ġfunction": 740,
      "Ġdat": 741,
      "12": 742,
      "ption": 743,
      "Ġsc": 744,
      "ature": 745,
      "ob": 746,
      "Ġsub": 747,
      "ca": 748,
      "align": 749,
      "ove": 750,
      "gamma": 751,
      "Ġthere": 752,
      "Ġhis": 753,
      "vers": 754,
      "sc": 755,
      "ĠSt": 756,
      "ll": 757,
      "Ġint": 758,
      "Ġrep": 759,
      "Ġgener": 760,
      "Ġthan": 761,
      "Ġonly": 762,
      "Ġthey": 763,
      "Ġrel": 764,
      "pos": 765,
      "ne": 766,
      "+\\": 767,
      "lem": 768,
      "Ġman": 769,
      "Ġval": 770,
      "Ġdist": 771,
      "mathrm": 772,
      "Ġwere": 773,
      "Ġdifferen": 774,
      "Ġup": 775,
      "ative": 776,
      "resent": 777,
      "pon": 778,
      "ĠY": 779,
      "ject": 780,
      "Ġfirst": 781,
      "Ġdes": 782,
      "ep": 783,
      "*}": 784,
      "Ġacc": 785,
      "We": 786,
      "Ġwork": 787,
      "Ġany": 788,
      "ram": 789,
      "ox": 790,
      "rho": 791,
      "^\\": 792,
      "stem": 793,
      "Ġshow": 794,
      "vi": 795,
      "ced": 796,
      "Ġbeen": 797,
      "Ġreg": 798,
      "bar": 799,
      "Ġph": 800,
      "Ġag": 801,
      "lect": 802,
      "ĠThis": 803,
      "Ġte": 804,
      "Ġpre": 805,
      "ize": 806,
      "Ġmat": 807,
      "ific": 808,
      ")}": 809,
      "ility": 810,
      "oth": 811,
      "$-": 812,
      "ax": 813,
      "Ġpos": 814,
      "theta": 815,
      "Ġthen": 816,
      "Ġmet": 817,
      "Ġtra": 818,
      "delta": 819,
      "array": 820,
      "orm": 821,
      "]{": 822,
      "ĠCh": 823,
      "ugh": 824,
      "Ġlo": 825,
      "tau": 826,
      "figure": 827,
      "ual": 828,
      "Ġsome": 829,
      "ween": 830,
      "ix": 831,
      "ount": 832,
      "ake": 833,
      "Ġco": 834,
      "cre": 835,
      "leq": 836,
      "\\\\": 837,
      "cdot": 838,
      "ied": 839,
      "ex": 840,
      "Ġeach": 841,
      "ks": 842,
      "set": 843,
      "Ġsol": 844,
      "ish": 845,
      "Ġconst": 846,
      "Ġwhen": 847,
      "Ġthese": 848,
      "ict": 849,
      "Ġgiv": 850,
      "}$,": 851,
      "les": 852,
      "Ġtrans": 853,
      "}$.": 854,
      "yp": 855,
      "ĠIt": 856,
      "Ġinto": 857,
      "rit": 858,
      "ating": 859,
      "Ġbetween": 860,
      "Ġgo": 861,
      "Ġcol": 862,
      "}(\\": 863,
      "ased": 864,
      "Ġprob": 865,
      "ĠâĢľ": 866,
      "ise": 867,
      "|\\": 868,
      "11": 869,
      "Ġpar": 870,
      "ĠAn": 871,
      "ays": 872,
      "nu": 873,
      "Ġfin": 874,
      "width": 875,
      "olog": 876,
      "Ġ[": 877,
      "ince": 878,
      "partial": 879,
      "Ġdata": 880,
      "big": 881,
      "ning": 882,
      "ities": 883,
      "Ġnew": 884,
      "ike": 885,
      "hed": 886,
      "times": 887,
      "Ġ\"": 888,
      "Ġsystem": 889,
      "Ġpoint": 890,
      "arg": 891,
      "eqref": 892,
      "ible": 893,
      "iss": 894,
      "here": 895,
      "ans": 896,
      "Ġabout": 897,
      "18": 898,
      "202": 899,
      "ss": 900,
      "ffect": 901,
      "omega": 902,
      "ational": 903,
      "ator": 904,
      "Ġwho": 905,
      "item": 906,
      "its": 907,
      "ck": 908,
      "Ġno": 909,
      "arrow": 910,
      "fter": 911,
      "Ġx": 912,
      "ruct": 913,
      "rad": 914,
      "eqn": 915,
      "Ġsm": 916,
      "Ġdifferent": 917,
      "Ġ{": 918,
      "ons": 919,
      "tilde": 920,
      "fty": 921,
      "pend": 922,
      "Ġunder": 923,
      "ote": 924,
      "ĉĉ": 925,
      "Ġappro": 926,
      "ues": 927,
      "Ġuse": 928,
      "15": 929,
      "infty": 930,
      "Ġcase": 931,
      "ments": 932,
      "Ġstud": 933,
      "Ġprov": 934,
      "Ġcomm": 935,
      "rt": 936,
      "ient": 937,
      "Ġkn": 938,
      "ord": 939,
      "ĠĠĠĠĠĠĠĠĠĠĠĠĠĠĠĠ": 940,
      "Ġfe": 941,
      "pr": 942,
      "ĠHe": 943,
      "amet": 944,
      "Delta": 945,
      "Ġwould": 946,
      "ield": 947,
      "Ġ|": 948,
      "lic": 949,
      "ough": 950,
      "Ġi": 951,
      "Ġnon": 952,
      "Th": 953,
      "tt": 954,
      "ident": 955,
      "aw": 956,
      "Ġinv": 957,
      "mm": 958,
      "ath": 959,
      "Ġused": 960,
      "old": 961,
      "quad": 962,
      "ization": 963,
      "ĠFor": 964,
      "Ġpa": 965,
      "rough": 966,
      "uss": 967,
      "Ġpol": 968,
      "yn": 969,
      "Ġgro": 970,
      "Ġext": 971,
      "Ġnumber": 972,
      "Ġoff": 973,
      "Ġusing": 974,
      "Ġfl": 975,
      "cy": 976,
      "Ġvari": 977,
      "ral": 978,
      "Ġmay": 979,
      "Ġyear": 980,
      "ctions": 981,
      "ized": 982,
      "par": 983,
      "ron": 984,
      "put": 985,
      "ower": 986,
      "sim": 987,
      "space": 988,
      "16": 989,
      "ting": 990,
      "mer": 991,
      "\\,": 992,
      "Ġpartic": 993,
      "13": 994,
      "Ġher": 995,
      "ever": 996,
      "gy": 997,
      "Ġhad": 998,
      "ode": 999,
      "ample": 1000,
      "ail": 1001,
      "ĠUn": 1002,
      "pm": 1003,
      "Ġdet": 1004,
      "xi": 1005,
      "Ġline": 1006,
      "tern": 1007,
      "ider": 1008,
      "ically": 1009,
      "orem": 1010,
      "Ġprodu": 1011,
      "}}\\": 1012,
      "Ġgiven": 1013,
      "Ġdefin": 1014,
      "}[": 1015,
      "min": 1016,
      "Ġbl": 1017,
      "sec": 1018,
      "Ġterm": 1019,
      ")$.": 1020,
      "ots": 1021,
      "Ġpe": 1022,
      "ick": 1023,
      "hen": 1024,
      "olds": 1025,
      "Ġsame": 1026,
      "Ġsign": 1027,
      "cess": 1028,
      "Ġwell": 1029,
      "Ġcur": 1030,
      "ffic": 1031,
      "hod": 1032,
      "Ġfact": 1033,
      "Ġest": 1034,
      "Ġmost": 1035,
      ".,": 1036,
      "rang": 1037,
      "Ġcomple": 1038,
      "14": 1039,
      "eqnarray": 1040,
      "Ġact": 1041,
      "arge": 1042,
      "ange": 1043,
      "Ġimp": 1044,
      "Ġobs": 1045,
      "Ġclass": 1046,
      "Ġsa": 1047,
      "ively": 1048,
      "io": 1049,
      "ism": 1050,
      "Ġhow": 1051,
      "Ġthem": 1052,
      "rent": 1053,
      "var": 1054,
      "la": 1055,
      "ases": 1056,
      "epsilon": 1057,
      "where": 1058,
      "ĠX": 1059,
      "$$": 1060,
      "ater": 1061,
      "Ġ$(": 1062,
      "Ġsupp": 1063,
      "ĠSe": 1064,
      "Ġz": 1065,
      "Ġequ": 1066,
      "irc": 1067,
      "ings": 1068,
      "Ġobtain": 1069,
      "als": 1070,
      "Ġsee": 1071,
      "Om": 1072,
      "--": 1073,
      "asure": 1074,
      "}_{\\": 1075,
      "Ġresults": 1076,
      "Ġsur": 1077,
      "sq": 1078,
      "Ġeffect": 1079,
      "ock": 1080,
      "Ġam": 1081,
      "Ġanal": 1082,
      "ĠâĢĵ": 1083,
      "hes": 1084,
      "center": 1085,
      "ann": 1086,
      "Ġparamet": 1087,
      "uch": 1088,
      "psi": 1089,
      "ential": 1090,
      "Ġorder": 1091,
      "Ġboth": 1092,
      "Omega": 1093,
      "hi": 1094,
      "rix": 1095,
      "ĠPro": 1096,
      "Ġfollowing": 1097,
      "199": 1098,
      "Ġdisc": 1099,
      "ĠQ": 1100,
      "ability": 1101,
      "Ġu": 1102,
      "formation": 1103,
      "17": 1104,
      "ĠFig": 1105,
      "ract": 1106,
      "Ġhigh": 1107,
      "Ġass": 1108,
      "25": 1109,
      "^*": 1110,
      "ily": 1111,
      "Ġthrough": 1112,
      "Ġstr": 1113,
      "ĠRe": 1114,
      "Ġstate": 1115,
      "Ġoper": 1116,
      "Ġem": 1117,
      "energy": 1118,
      "Ġexp": 1119,
      "Gamma": 1120,
      "ĠDe": 1121,
      "oy": 1122,
      "angle": 1123,
      "ists": 1124,
      ")$,": 1125,
      "eng": 1126,
      "rel": 1127,
      "Ġwor": 1128,
      "Ġent": 1129,
      "Ġget": 1130,
      "ins": 1131,
      "sqrt": 1132,
      "Ġafter": 1133,
      "ines": 1134,
      "Ġexper": 1135,
      "Ġmethod": 1136,
      "round": 1137,
      "Ġshe": 1138,
      "ink": 1139,
      "Ġmass": 1140,
      "arch": 1141,
      "Ġmin": 1142,
      "Ġ${\\": 1143,
      "uring": 1144,
      "Ġsmall": 1145,
      "ner": 1146,
      "Ġneed": 1147,
      "Ġspec": 1148,
      "Ġlike": 1149,
      "ĠĠĠĠĠĠĠ": 1150,
      "subsection": 1151,
      "Ġ}": 1152,
      "Ġyour": 1153,
      "ars": 1154,
      "col": 1155,
      "riv": 1156,
      "ople": 1157,
      "ful": 1158,
      "Ġperform": 1159,
      "Ġind": 1160,
      "textbf": 1161,
      "30": 1162,
      "Ġdire": 1163,
      "ension": 1164,
      "ality": 1165,
      "respon": 1166,
      "Ġplay": 1167,
      "Ġinst": 1168,
      "ices": 1169,
      ")=": 1170,
      "lo": 1171,
      "ĠZ": 1172,
      "}=": 1173,
      "vare": 1174,
      "ts": 1175,
      "fra": 1176,
      "Ġmeasure": 1177,
      "rightarrow": 1178,
      "ĠAs": 1179,
      "^{(": 1180,
      "varepsilon": 1181,
      "ted": 1182,
      "urn": 1183,
      "Ġevery": 1184,
      "ined": 1185,
      "Ġobserv": 1186,
      "includ": 1187,
      "ribution": 1188,
      "ug": 1189,
      "Ġback": 1190,
      "Ġrec": 1191,
      "rop": 1192,
      "reat": 1193,
      "ĠAl": 1194,
      "}^{\\": 1195,
      "ude": 1196,
      "not": 1197,
      "rangle": 1198,
      "raphics": 1199,
      "ited": 1200,
      "ctor": 1201,
      "Ġ\\,": 1202,
      "Ġcondition": 1203,
      "ructure": 1204,
      "Ġdec": 1205,
      "Ġfield": 1206,
      "mbol": 1207,
      "Ġrespect": 1208,
      "ton": 1209,
      "work": 1210,
      "Ġbound": 1211,
      "omet": 1212,
      "ining": 1213,
      "ĠCom": 1214,
      "Ġexpl": 1215,
      "Ġsaid": 1216,
      "ull": 1217,
      "Ġrequ": 1218,
      "Ġthree": 1219,
      "Ġnow": 1220,
      "Ġspace": 1221,
      "ade": 1222,
      "oci": 1223,
      "Ġdi": 1224,
      "caption": 1225,
      "Ġenergy": 1226,
      "Ġinclud": 1227,
      "cond": 1228,
      "ilar": 1229,
      "Ġproblem": 1230,
      "ithm": 1231,
      "ross": 1232,
      "egraphics": 1233,
      "includegraphics": 1234,
      "Ġassum": 1235,
      "Ġtyp": 1236,
      "ulation": 1237,
      "pert": 1238,
      "Ġdesc": 1239,
      "ook": 1240,
      "Ġwhat": 1241,
      "ĠĠĊ": 1242,
      "Ġequation": 1243,
      "Ġjust": 1244,
      "Ġprocess": 1245,
      "Ġed": 1246,
      "rest": 1247,
      "This": 1248,
      "led": 1249,
      "ier": 1250,
      "For": 1251,
      "ond": 1252,
      "vert": 1253,
      "Ġcorrespon": 1254,
      "bm": 1255,
      "Ġcould": 1256,
      "tab": 1257,
      "Ġlead": 1258,
      "oot": 1259,
      "elf": 1260,
      "ute": 1261,
      "ets": 1262,
      "Ġsing": 1263,
      "iqu": 1264,
      "cm": 1265,
      "non": 1266,
      "cer": 1267,
      "Ġwhile": 1268,
      "50": 1269,
      "Ġscal": 1270,
      "Ġmult": 1271,
      "Ġac": 1272,
      "Ġconsider": 1273,
      ".~\\": 1274,
      "Ġbel": 1275,
      "ĠčĊ": 1276,
      "ten": 1277,
      "Ġpresent": 1278,
      "sh": 1279,
      "uc": 1280,
      "varphi": 1281,
      "ool": 1282,
      "ild": 1283,
      ".}": 1284,
      "Ġvery": 1285,
      "emph": 1286,
      "Ġpeople": 1287,
      "Ġrepresent": 1288,
      "ency": 1289,
      "ivers": 1290,
      "velop": 1291,
      "24": 1292,
      "Ġeven": 1293,
      ")^": 1294,
      "Ġele": 1295,
      "Ġdoes": 1296,
      "ĠNew": 1297,
      "utions": 1298,
      "Ġincre": 1299,
      "Ġlim": 1300,
      "ash": 1301,
      "ology": 1302,
      "val": 1303,
      "ensure": 1304,
      "gor": 1305,
      "''": 1306,
      "geq": 1307,
      "overline": 1308,
      "Ġden": 1309,
      "Ġcent": 1310,
      "Ġmany": 1311,
      "ward": 1312,
      "Ġposs": 1313,
      "chi": 1314,
      "Ġestim": 1315,
      "Ġopt": 1316,
      "Ġpr": 1317,
      "cause": 1318,
      "Ġlarge": 1319,
      "&\\": 1320,
      "frak": 1321,
      "etwork": 1322,
      "Ġbecause": 1323,
      "aking": 1324,
      "Ġcal": 1325,
      "ee": 1326,
      "ement": 1327,
      "chn": 1328,
      "Ġend": 1329,
      "Re": 1330,
      "...": 1331,
      "ood": 1332,
      "proof": 1333,
      "},\\": 1334,
      "itive": 1335,
      "Ġgeneral": 1336,
      "gorithm": 1337,
      "Ġshould": 1338,
      "ĠCon": 1339,
      "vec": 1340,
      "Ġright": 1341,
      "raw": 1342,
      "Ġaut": 1343,
      "Ġvalue": 1344,
      "log": 1345,
      "Ġlong": 1346,
      "Ġve": 1347,
      "fore": 1348,
      "equ": 1349,
      "ymbol": 1350,
      "[\\": 1351,
      "Ġsecond": 1352,
      "Ġsince": 1353,
      "olution": 1354,
      "Ġlocal": 1355,
      "fl": 1356,
      "me": 1357,
      "ason": 1358,
      "ision": 1359,
      "agn": 1360,
      "ages": 1361,
      "Ġagain": 1362,
      "Ġreal": 1363,
      "ural": 1364,
      "fer": 1365,
      "000": 1366,
      "umer": 1367,
      "land": 1368,
      "}).": 1369,
      "Ġspect": 1370,
      "rodu": 1371,
      "Ġca": 1372,
      "owever": 1373,
      "ensity": 1374,
      "ness": 1375,
      "Ġinteg": 1376,
      "Ġinde": 1377,
      "Ġcontin": 1378,
      "Ġdef": 1379,
      "Ġcall": 1380,
      "hline": 1381,
      "Ġmy": 1382,
      "22": 1383,
      "bolds": 1384,
      "Ġatt": 1385,
      "Big": 1386,
      "Ġabove": 1387,
      "boldsymbol": 1388,
      "Ġway": 1389,
      "Ġquant": 1390,
      "ants": 1391,
      "mathfrak": 1392,
      "Ġbu": 1393,
      "ĠĠĠĠĠ": 1394,
      "Ġmon": 1395,
      "Ġknow": 1396,
      "ey": 1397,
      "ved": 1398,
      "Ġfound": 1399,
      "Ġbeing": 1400,
      "Ġrad": 1401,
      "any": 1402,
      "mmet": 1403,
      "other": 1404,
      "Ġstructure": 1405,
      "imension": 1406,
      "langle": 1407,
      "view": 1408,
      "ared": 1409,
      "urther": 1410,
      "Ġsat": 1411,
      "Ġvalues": 1412,
      "}}$": 1413,
      "ified": 1414,
      "Ġfeature": 1415,
      "lear": 1416,
      "23": 1417,
      "position": 1418,
      "Lambda": 1419,
      "vious": 1420,
      "ene": 1421,
      "au": 1422,
      "mbox": 1423,
      "Ġmodels": 1424,
      "ldots": 1425,
      "Ġident": 1426,
      "def": 1427,
      "refore": 1428,
      "ampl": 1429,
      "Ġthose": 1430,
      "Ġinformation": 1431,
      "man": 1432,
      "err": 1433,
      "amp": 1434,
      "Ġshown": 1435,
      "ormal": 1436,
      "ateg": 1437,
      "Ġ,": 1438,
      "Ġchar": 1439,
      "Let": 1440,
      "umn": 1441,
      "Ġgroup": 1442,
      "Ġsupport": 1443,
      "els": 1444,
      "inal": 1445,
      "Ġfil": 1446,
      "lim": 1447,
      "pen": 1448,
      "Ġstart": 1449,
      "Ġ.": 1450,
      "Ġfollows": 1451,
      "Ġdepend": 1452,
      "Ġyears": 1453,
      "less": 1454,
      "ather": 1455,
      "ero": 1456,
      "cept": 1457,
      "ention": 1458,
      "Ġet": 1459,
      "As": 1460,
      "Ġcomput": 1461,
      "ĠEn": 1462,
      "Ġ`": 1463,
      "ane": 1464,
      "Ġtop": 1465,
      "ards": 1466,
      "ole": 1467,
      "ves": 1468,
      "Phi": 1469,
      "cor": 1470,
      "xim": 1471,
      "appa": 1472,
      "Ġser": 1473,
      "ij": 1474,
      "Ġra": 1475,
      "Ġelect": 1476,
      "ublic": 1477,
      "ration": 1478,
      "ĠIf": 1479,
      "att": 1480,
      "ior": 1481,
      "Ġmake": 1482,
      "ience": 1483,
      "Ġdescrib": 1484,
      "rum": 1485,
      "orph": 1486,
      "ert": 1487,
      "Ġmain": 1488,
      "ission": 1489,
      "It": 1490,
      "citep": 1491,
      "Ġsimilar": 1492,
      "yle": 1493,
      "ger": 1494,
      "ife": 1495,
      "Ġhere": 1496,
      "Ġtem": 1497,
      "ĠSp": 1498,
      "Ġnetwork": 1499,
      "plit": 1500,
      "ank": 1501,
      "ired": 1502,
      "Ġtest": 1503,
      "ven": 1504,
      "Ġmem": 1505,
      "Ġlear": 1506,
      "Ġhand": 1507,
      "Ġdevelop": 1508,
      "sk": 1509,
      "cul": 1510,
      "Ġstand": 1511,
      "day": 1512,
      "Ġdefined": 1513,
      "med": 1514,
      "gg": 1515,
      "kappa": 1516,
      ".\\": 1517,
      "Ġcre": 1518,
      "ysis": 1519,
      "Ġstat": 1520,
      "Ġallow": 1521,
      "otimes": 1522,
      "Ġlevel": 1523,
      "oh": 1524,
      "40": 1525,
      "Ġbased": 1526,
      "sf": 1527,
      "bra": 1528,
      "âĢĵ": 1529,
      "Ġhel": 1530,
      "textit": 1531,
      "otential": 1532,
      "Ġpropert": 1533,
      "Ġhim": 1534,
      "circ": 1535,
      "Ġfind": 1536,
      "by": 1537,
      "oss": 1538,
      "ify": 1539,
      "Ġprovid": 1540,
      "nonumber": 1541,
      "Ġdistribution": 1542,
      "âĢľ": 1543,
      "let": 1544,
      "air": 1545,
      "ually": 1546,
      "Ġterms": 1547,
      "be": 1548,
      "Ġlet": 1549,
      "isf": 1550,
      "meric": 1551,
      "Ġbas": 1552,
      "see": 1553,
      "})$": 1554,
      "wh": 1555,
      "ynam": 1556,
      "Ġdiscuss": 1557,
      "nab": 1558,
      "Ġmuch": 1559,
      "wn": 1560,
      "Ġvi": 1561,
      ".âĢĿ": 1562,
      "ensuremath": 1563,
      "erson": 1564,
      "Ġparticular": 1565,
      "Ġserv": 1566,
      "subset": 1567,
      "imal": 1568,
      "Ġcontain": 1569,
      "21": 1570,
      "terest": 1571,
      "tal": 1572,
      "\\%": 1573,
      "Ġfam": 1574,
      "Ġexample": 1575,
      "ah": 1576,
      "ength": 1577,
      "Ġdeterm": 1578,
      "etic": 1579,
      "gram": 1580,
      "Ġredu": 1581,
      "no": 1582,
      "Ġgu": 1583,
      "Ġpres": 1584,
      "ĠSh": 1585,
      "Ġlow": 1586,
      "Ġsection": 1587,
      "Ġpower": 1588,
      "ators": 1589,
      "rid": 1590,
      "Ġart": 1591,
      "Ġav": 1592,
      "mult": 1593,
      "Ġimport": 1594,
      "eps": 1595,
      "alth": 1596,
      "Ġduring": 1597,
      "Ġcharact": 1598,
      "ern": 1599,
      "Ġaddition": 1600,
      "redict": 1601,
      "Ġgl": 1602,
      "chool": 1603,
      "Ġsum": 1604,
      "read": 1605,
      "Ġmed": 1606,
      "Ġear": 1607,
      "Ġexpect": 1608,
      "Ġdue": 1609,
      "way": 1610,
      "Ġstudy": 1611,
      "Ġbefore": 1612,
      "nabla": 1613,
      "2020": 1614,
      "Ġlast": 1615,
      "ival": 1616,
      "Ġcount": 1617,
      "Ġrest": 1618,
      "An": 1619,
      "198": 1620,
      "27": 1621,
      "60": 1622,
      "mod": 1623,
      "Ġmade": 1624,
      "Ġdown": 1625,
      "with": 1626,
      "ital": 1627,
      "Ġtechn": 1628,
      "Ġpat": 1629,
      "ives": 1630,
      "Ġread": 1631,
      "Ġsour": 1632,
      "Sigma": 1633,
      "Ġadd": 1634,
      "Ġmagn": 1635,
      "\\|": 1636,
      "))": 1637,
      "Ġshows": 1638,
      "Ġinit": 1639,
      "Ġcontro": 1640,
      "}),": 1641,
      "100": 1642,
      "Ġbeh": 1643,
      "ript": 1644,
      "Ġcho": 1645,
      "Ġalgorithm": 1646,
      "}}{": 1647,
      "Ġder": 1648,
      "ĠThen": 1649,
      "\\!": 1650,
      "Ġ<": 1651,
      "Ġma": 1652,
      "ke": 1653,
      "Ġsatisf": 1654,
      "Ġlook": 1655,
      "bers": 1656,
      "rem": 1657,
      "2018": 1658,
      "2019": 1659,
      "Ġtake": 1660,
      "fficient": 1661,
      "oper": 1662,
      "2022": 1663,
      "Ġ:": 1664,
      "dots": 1665,
      "akes": 1666,
      "ately": 1667,
      "bs": 1668,
      "28": 1669,
      "bl": 1670,
      "orn": 1671,
      "ĠHowever": 1672,
      "ection": 1673,
      "plic": 1674,
      "Ġsingle": 1675,
      "Ġdom": 1676,
      "istic": 1677,
      "ĠSc": 1678,
      "Ġdirect": 1679,
      "ially": 1680,
      "Ġfre": 1681,
      "Ġgood": 1682,
      "Ġpotential": 1683,
      "ification": 1684,
      "Ġdensity": 1685,
      "ĠLe": 1686,
      "ĠOn": 1687,
      "Ġhig": 1688,
      "Ġstill": 1689,
      "ges": 1690,
      "Ġpoints": 1691,
      ";\\": 1692,
      "/\\": 1693,
      "Ġcar": 1694,
      "Ġrem": 1695,
      "Ġreport": 1696,
      "inc": 1697,
      "Ġparameters": 1698,
      "Ġobtained": 1699,
      "\\[": 1700,
      "hip": 1701,
      "Ġmean": 1702,
      "ished": 1703,
      "Ġmatrix": 1704,
      "Ġexperim": 1705,
      "Ġrun": 1706,
      "Ġvis": 1707,
      "etail": 1708,
      "Ġindu": 1709,
      "cap": 1710,
      "Ġwithin": 1711,
      "Ġaround": 1712,
      "cit": 1713,
      "2021": 1714,
      "Ġche": 1715,
      "St": 1716,
      "26": 1717,
      "Ġinterest": 1718,
      "ĠTo": 1719,
      "Ġfour": 1720,
      "box": 1721,
      "Fig": 1722,
      "}-": 1723,
      "Ġsolution": 1724,
      "Ġdid": 1725,
      "su": 1726,
      "Ġcurrent": 1727,
      "2017": 1728,
      "table": 1729,
      "{-": 1730,
      "ĠAnd": 1731,
      "Ġcommun": 1732,
      "Ġpossible": 1733,
      "pendent": 1734,
      "Ġmust": 1735,
      "ames": 1736,
      "widet": 1737,
      "get": 1738,
      "face": 1739,
      "ients": 1740,
      "Ġrele": 1741,
      "Ġbest": 1742,
      "ters": 1743,
      "ST": 1744,
      "ures": 1745,
      "Ġpredict": 1746,
      "comm": 1747,
      "gan": 1748,
      "centering": 1749,
      "Ġgra": 1750,
      "Ġcompon": 1751,
      "Ġstrong": 1752,
      "Ġ``": 1753,
      "rict": 1754,
      "Ġq": 1755,
      "Ġpaper": 1756,
      "ording": 1757,
      "iversity": 1758,
      "Ġobject": 1759,
      "Ġorig": 1760,
      "ĠLet": 1761,
      "prime": 1762,
      "Ġtri": 1763,
      "Ġflu": 1764,
      "45": 1765,
      "Ġstates": 1766,
      "widetilde": 1767,
      "Ġret": 1768,
      "Ġdesign": 1769,
      "Ġlarg": 1770,
      "ym": 1771,
      "aces": 1772,
      "co": 1773,
      "Ġopen": 1774,
      "Ġtheory": 1775,
      "Ġworld": 1776,
      "Ġhelp": 1777,
      "Ġfunctions": 1778,
      "Ġapproxim": 1779,
      "andom": 1780,
      "ĠAmeric": 1781,
      "Ġleft": 1782,
      "Ġcou": 1783,
      "sm": 1784,
      "//": 1785,
      "ring": 1786,
      ")(": 1787,
      "Ġlimit": 1788,
      "ift": 1789,
      "ixed": 1790,
      "Ġintrodu": 1791,
      "ivity": 1792,
      "ale": 1793,
      "Ġmax": 1794,
      "ination": 1795,
      "posed": 1796,
      "iness": 1797,
      "ĠAd": 1798,
      "Ġanalysis": 1799,
      "dis": 1800,
      "come": 1801,
      "iod": 1802,
      "Ġgraph": 1803,
      "ields": 1804,
      "Ġincluding": 1805,
      "ense": 1806,
      "29": 1807,
      "ental": 1808,
      "Ġsequ": 1809,
      "Ġcharacter": 1810,
      "Ġcontinu": 1811,
      "az": 1812,
      "Ġsl": 1813,
      "âĢ¦": 1814,
      "ived": 1815,
      "Ps": 1816,
      "2016": 1817,
      "Ġmark": 1818,
      "Ġproduct": 1819,
      "Ġrema": 1820,
      "Ġcorresponding": 1821,
      "Ġapproach": 1822,
      "Ġwithout": 1823,
      "Ġconstant": 1824,
      "urb": 1825,
      "Ġexpress": 1826,
      "ĠEq": 1827,
      "tabular": 1828,
      "reen": 1829,
      "Ġmom": 1830,
      "Ġcomplex": 1831,
      "ories": 1832,
      "ii": 1833,
      "perature": 1834,
      "35": 1835,
      "ised": 1836,
      "clude": 1837,
      "Ġlinear": 1838,
      ");": 1839,
      "Ġinvest": 1840,
      "wide": 1841,
      "oll": 1842,
      "verse": 1843,
      "atter": 1844,
      "Ġcalcul": 1845,
      "action": 1846,
      "Ġsize": 1847,
      "Ġdeg": 1848,
      "He": 1849,
      "arm": 1850,
      "Ġassoci": 1851,
      ")=\\": 1852,
      "imum": 1853,
      "Ġpop": 1854,
      "Ġknown": 1855,
      "Ġteam": 1856,
      "ĠRes": 1857,
      "Ġdem": 1858,
      "Ġprof": 1859,
      "Ġsuper": 1860,
      "Ġclos": 1861,
      "}+": 1862,
      "ivid": 1863,
      "bit": 1864,
      "zeta": 1865,
      "75": 1866,
      "gl": 1867,
      "overn": 1868,
      "ek": 1869,
      "ble": 1870,
      "ER": 1871,
      "'t": 1872,
      "nect": 1873,
      "Ġcomb": 1874,
      "Ġregion": 1875,
      "Ġimportant": 1876,
      "Ġalong": 1877,
      "ĠCl": 1878,
      "\\{": 1879,
      "Ġrespectively": 1880,
      "Ġexist": 1881,
      "Ġrate": 1882,
      "clus": 1883,
      ",âĢĿ": 1884,
      "side": 1885,
      "pd": 1886,
      "Ġocc": 1887,
      "};": 1888,
      "Ġwrit": 1889,
      "ĠEx": 1890,
      "Con": 1891,
      "Ġerr": 1892,
      "Ġprevious": 1893,
      "Ġlit": 1894,
      "ott": 1895,
      "ison": 1896,
      "new": 1897,
      "33": 1898,
      "Ġphot": 1899,
      "matrix": 1900,
      "Ġsignific": 1901,
      "Ġ&=": 1902,
      "Ġaver": 1903,
      "anc": 1904,
      "ĠTheorem": 1905,
      "Ġphase": 1906,
      "ety": 1907,
      "Ġtotal": 1908,
      "play": 1909,
      "ouse": 1910,
      "://": 1911,
      "alax": 1912,
      "Ġeas": 1913,
      "90": 1914,
      "mber": 1915,
      ")^{": 1916,
      "Ġdetail": 1917,
      "ret": 1918,
      "alk": 1919,
      "ww": 1920,
      ")}\\": 1921,
      "ables": 1922,
      "ious": 1923,
      "omen": 1924,
      "}=\\": 1925,
      "2015": 1926,
      "\\]": 1927,
      "}]": 1928,
      "Ġadv": 1929,
      "$)": 1930,
      "Ġ--": 1931,
      "Ġnear": 1932,
      "ique": 1933,
      "Ġimpro": 1934,
      "{(": 1935,
      "If": 1936,
      "ste": 1937,
      "ĠPh": 1938,
      "Ġown": 1939,
      "omorph": 1940,
      "Ġparameter": 1941,
      "amples": 1942,
      "rack": 1943,
      "Ġpair": 1944,
      "70": 1945,
      "emma": 1946,
      "thm": 1947,
      "Ġloc": 1948,
      "Ġrespon": 1949,
      "Ġperformance": 1950,
      "str": 1951,
      "Ġproof": 1952,
      "99": 1953,
      "ference": 1954,
      "Ġ/": 1955,
      "lection": 1956,
      ".~": 1957,
      "ope": 1958,
      "Ġsymmet": 1959,
      "Ġcrit": 1960,
      "80": 1961,
      "Ġsystems": 1962,
      "Ġfull": 1963,
      "Ġtru": 1964,
      "Ġref": 1965,
      "usiness": 1966,
      "son": 1967,
      "ask": 1968,
      "Ġprogram": 1969,
      "Ġpost": 1970,
      "Ġnext": 1971,
      "Ġ($": 1972,
      "Ġfinite": 1973,
      "orth": 1974,
      "cur": 1975,
      "~~": 1976,
      "ium": 1977,
      "ule": 1978,
      "ĠPl": 1979,
      "ĠTe": 1980,
      "style": 1981,
      "ances": 1982,
      "Ġ>": 1983,
      "}^\\": 1984,
      "por": 1985,
      "Ġindic": 1986,
      "}_\\": 1987,
      "AR": 1988,
      "To": 1989,
      "reg": 1990,
      "ither": 1991,
      "ences": 1992,
      "Ġmap": 1993,
      "sequ": 1994,
      "cdots": 1995,
      "outh": 1996,
      "draw": 1997,
      "Ġide": 1998,
      "Ġsay": 1999,
      "Ġfurther": 2000,
      "stand": 2001,
      "Ġtype": 2002,
      "Ġtemperature": 2003,
      "Ġgame": 2004,
      "Ġrandom": 2005,
      "Ġapplic": 2006,
      "Ġphys": 2007,
      "iple": 2008,
      "ĠSection": 2009,
      "exp": 2010,
      "Ex": 2011,
      "Ġproject": 2012,
      "Ġwant": 2013,
      "ological": 2014,
      "aving": 2015,
      "icle": 2016,
      "Ġtimes": 2017,
      "{{\\": 2018,
      "Ġhy": 2019,
      "ody": 2020,
      "ĠIs": 2021,
      "ina": 2022,
      "Ġappear": 2023,
      "Ġsignificant": 2024,
      "Ġrange": 2025,
      "Ġless": 2026,
      "eb": 2027,
      "Ġfree": 2028,
      "Ġhigher": 2029,
      "Ġconditions": 2030,
      "name": 2031,
      "ploy": 2032,
      "AS": 2033,
      "Ġprop": 2034,
      "Ġpass": 2035,
      "Ġagainst": 2036,
      "2014": 2037,
      "Ġrese": 2038,
      "ways": 2039,
      "max": 2040,
      "Ġdynam": 2041,
      "Ġvector": 2042,
      "Ġthough": 2043,
      "cos": 2044,
      "Ġfew": 2045,
      "atch": 2046,
      "Ġlight": 2047,
      "ries": 2048,
      "ĠBut": 2049,
      "AT": 2050,
      "Ġgrow": 2051,
      "Pro": 2052,
      "Ġinitial": 2053,
      "mit": 2054,
      "Ġchange": 2055,
      "Ġlower": 2056,
      "ĠĠĠĠĠĠ": 2057,
      "}|": 2058,
      "ĠâĢĶ": 2059,
      "iron": 2060,
      "Ġsever": 2061,
      "Ġcalled": 2062,
      "Ġel": 2063,
      "ĠWh": 2064,
      "Ġposition": 2065,
      "}\\,": 2066,
      "ĠUniversity": 2067,
      "ailable": 2068,
      "Ġmot": 2069,
      "^+": 2070,
      "05": 2071,
      "back": 2072,
      "Ġke": 2073,
      "ĠCol": 2074,
      "ccess": 2075,
      "Ġcases": 2076,
      "Ġaction": 2077,
      "hor": 2078,
      "Ġver": 2079,
      "imensional": 2080,
      "scal": 2081,
      "hing": 2082,
      "Ġleast": 2083,
      "textwidth": 2084,
      "Ġbetter": 2085,
      "})\\": 2086,
      "ups": 2087,
      "odes": 2088,
      "Ġdel": 2089,
      "Ġbuil": 2090,
      "tle": 2091,
      "qquad": 2092,
      "asing": 2093,
      "uation": 2094,
      "Al": 2095,
      "Ġfram": 2096,
      "obal": 2097,
      "Ġcontrol": 2098,
      "Ġchang": 2099,
      "oid": 2100,
      "Ġperiod": 2101,
      "ĠâĢĺ": 2102,
      "Ġanother": 2103,
      "Ġlist": 2104,
      "Ġrecent": 2105,
      "Ġlaw": 2106,
      "&=": 2107,
      "Ġseveral": 2108,
      "Ġrece": 2109,
      "which": 2110,
      "lemma": 2111,
      "ley": 2112,
      "Ġmov": 2113,
      "Ġplan": 2114,
      "Ġlength": 2115,
      "ĠBy": 2116,
      "Ġobserved": 2117,
      "gebra": 2118,
      "mathsf": 2119,
      "Ġpositive": 2120,
      "ata": 2121,
      "Ġtraining": 2122,
      "Ġvers": 2123,
      "Ġsit": 2124,
      "Ġdon": 2125,
      "Ġcour": 2126,
      "II": 2127,
      "under": 2128,
      "({\\": 2129,
      "Ġhist": 2130,
      "Ġstandard": 2131,
      "widehat": 2132,
      "48": 2133,
      "Ġcorre": 2134,
      "rand": 2135,
      "Ġview": 2136,
      "Ġcap": 2137,
      "By": 2138,
      "Ġmoment": 2139,
      "ĠThey": 2140,
      "Ġmethods": 2141,
      "Ch": 2142,
      "ering": 2143,
      ",-": 2144,
      "Ġ\\{": 2145,
      "ĠAll": 2146,
      "Ġdiff": 2147,
      "ird": 2148,
      "ĠFigure": 2149,
      "Ġperson": 2150,
      "ruction": 2151,
      "Ġprovide": 2152,
      "Ġweight": 2153,
      "Ġquest": 2154,
      "Ġclear": 2155,
      "Ġpublic": 2156,
      "Ġpur": 2157,
      "01": 2158,
      "jor": 2159,
      "}^{(": 2160,
      "36": 2161,
      "Ġconstra": 2162,
      "Ġgalax": 2163,
      "abl": 2164,
      "Ġfamily": 2165,
      "Ġ||": 2166,
      "32": 2167,
      "Ġfactor": 2168,
      "ball": 2169,
      "Ġbro": 2170,
      "Ġfeatures": 2171,
      "color": 2172,
      "Psi": 2173,
      "Ġzero": 2174,
      "Ġseries": 2175,
      "ocus": 2176,
      "Ġimage": 2177,
      "ĠAt": 2178,
      "2013": 2179,
      "xspace": 2180,
      "Ġhal": 2181,
      "Ġplace": 2182,
      "ĠAr": 2183,
      "appro": 2184,
      "Ġclust": 2185,
      "Ġcoupl": 2186,
      "Ġabs": 2187,
      "Ġconf": 2188,
      "Ġnormal": 2189,
      "Ġfrequ": 2190,
      "Ġbelow": 2191,
      "duct": 2192,
      "Ġsk": 2193,
      "Ġthink": 2194,
      "Ġneg": 2195,
      "ĠInd": 2196,
      "pper": 2197,
      "ising": 2198,
      "Ġthus": 2199,
      "ĠThese": 2200,
      "sl": 2201,
      "Ġlay": 2202,
      "Ġavailable": 2203,
      "ĠShe": 2204,
      "Ġbehav": 2205,
      "based": 2206,
      "Ġbre": 2207,
      "Ġdefine": 2208,
      "Ġang": 2209,
      "sing": 2210,
      "Ġturn": 2211,
      "Ġconsist": 2212,
      "Ġquantum": 2213,
      "Ġcross": 2214,
      "rat": 2215,
      "}}(": 2216,
      "ĠSu": 2217,
      "chie": 2218,
      "34": 2219,
      "Ġvol": 2220,
      "cup": 2221,
      "IN": 2222,
      "ently": 2223,
      "Ġproperties": 2224,
      "ury": 2225,
      "Ġpath": 2226,
      "Ġprobability": 2227,
      "Ġ$(\\": 2228,
      "ograph": 2229,
      "tex": 2230,
      "}\\\\": 2231,
      "che": 2232,
      "Ġge": 2233,
      "Ġlife": 2234,
      "une": 2235,
      "ended": 2236,
      "foot": 2237,
      "ext": 2238,
      "Ġfilm": 2239,
      "usic": 2240,
      "sy": 2241,
      "95": 2242,
      "aim": 2243,
      "ably": 2244,
      "AN": 2245,
      "Ġaverage": 2246,
      "ĠApp": 2247,
      "Ġday": 2248,
      "ordin": 2249,
      "mid": 2250,
      "indent": 2251,
      "2012": 2252,
      "Ġfit": 2253,
      "Ġmeans": 2254,
      "Ġcost": 2255,
      "Ġopp": 2256,
      "Ġloss": 2257,
      "Ġeval": 2258,
      "Ġband": 2259,
      "lying": 2260,
      "operator": 2261,
      "wards": 2262,
      "SS": 2263,
      "ohn": 2264,
      "Ġradi": 2265,
      "ĠThere": 2266,
      "]$": 2267,
      "Ġgive": 2268,
      "Ġcy": 2269,
      "Ġcompar": 2270,
      "Ġorgan": 2271,
      "Ġmulti": 2272,
      "Ġlines": 2273,
      "onal": 2274,
      "illion": 2275,
      "Ġassociated": 2276,
      "osp": 2277,
      "Ġ&\\": 2278,
      "sin": 2279,
      "tic": 2280,
      "viron": 2281,
      "ĠCar": 2282,
      "Ġanaly": 2283,
      "uture": 2284,
      "Ġproposed": 2285,
      "Ġseen": 2286,
      "Ġexists": 2287,
      "orld": 2288,
      "Ġdescribed": 2289,
      "31": 2290,
      "citet": 2291,
      "ober": 2292,
      "ĠBl": 2293,
      "ember": 2294,
      "):": 2295,
      "script": 2296,
      "small": 2297,
      "pdf": 2298,
      "roup": 2299,
      "ground": 2300,
      "ĠMore": 2301,
      "ulations": 2302,
      "Ġchild": 2303,
      "Ġann": 2304,
      "Ġindependent": 2305,
      "ĠLemma": 2306,
      "Ġsimple": 2307,
      "Ġequival": 2308,
      "Ġconnect": 2309,
      "Ġlearning": 2310,
      "Ġspin": 2311,
      "38": 2312,
      "Ġflow": 2313,
      "Ġgreat": 2314,
      "ertain": 2315,
      "idered": 2316,
      "arc": 2317,
      "equiv": 2318,
      "Ġhom": 2319,
      "Ġspe": 2320,
      "Ġevent": 2321,
      "Ġhum": 2322,
      "65": 2323,
      "ĠJan": 2324,
      "Ġfixed": 2325,
      "ev": 2326,
      "Ġwin": 2327,
      ".\"": 2328,
      "Ġinvol": 2329,
      "Ġsem": 2330,
      "ributions": 2331,
      "Ġassume": 2332,
      "Ġstar": 2333,
      "ream": 2334,
      "skip": 2335,
      "Ġcorrel": 2336,
      "Ġconsidered": 2337,
      "ubl": 2338,
      "Ġcirc": 2339,
      "Ġsepar": 2340,
      "Ġrelations": 2341,
      "ides": 2342,
      "Ġexact": 2343,
      "Ġside": 2344,
      "ĠYou": 2345,
      "ris": 2346,
      "ional": 2347,
      "nal": 2348,
      "ĠMay": 2349,
      "now": 2350,
      "Ġarg": 2351,
      "idence": 2352,
      "igen": 2353,
      "Ġrat": 2354,
      "dd": 2355,
      "Ġshort": 2356,
      "ino": 2357,
      "ling": 2358,
      "prop": 2359,
      "Com": 2360,
      "ula": 2361,
      "chan": 2362,
      "ocial": 2363,
      "time": 2364,
      "though": 2365,
      "Ġalways": 2366,
      "Ġaccount": 2367,
      "inally": 2368,
      "ored": 2369,
      "Ġinput": 2370,
      "ribut": 2371,
      "empt": 2372,
      "On": 2373,
      "ĠBe": 2374,
      "Ġachie": 2375,
      "Ġscale": 2376,
      "Ġdefinition": 2377,
      "Ġdiag": 2378,
      "ha": 2379,
      "Ġlik": 2380,
      "Ġsurface": 2381,
      "Ġnat": 2382,
      "}}{\\": 2383,
      "Ġmight": 2384,
      "Ġarea": 2385,
      "ID": 2386,
      "urs": 2387,
      "}:": 2388,
      "ĠSince": 2389,
      "Ġsource": 2390,
      "aut": 2391,
      "enn": 2392,
      "Ġhead": 2393,
      "most": 2394,
      "wise": 2395,
      ")]": 2396,
      "Ġfocus": 2397,
      "Ġiss": 2398,
      "til": 2399,
      "ividual": 2400,
      "rist": 2401,
      "ends": 2402,
      "Ġtoo": 2403,
      "ving": 2404,
      "opt": 2405,
      "defin": 2406,
      "37": 2407,
      "Ġsequence": 2408,
      "2011": 2409,
      "2010": 2410,
      "Ġ)": 2411,
      "ument": 2412,
      "Ġequations": 2413,
      "enc": 2414,
      "plies": 2415,
      "}+\\": 2416,
      "Ġfinal": 2417,
      "iam": 2418,
      "Ġdetect": 2419,
      "inary": 2420,
      "Ġeither": 2421,
      "iance": 2422,
      "hspace": 2423,
      "Ġdatas": 2424,
      "Ġgovern": 2425,
      "operatorname": 2426,
      "'$": 2427,
      "Ġschool": 2428,
      "Ġcoll": 2429,
      "Ġsugg": 2430,
      "ery": 2431,
      "197": 2432,
      "Ġsuggest": 2433,
      "eloc": 2434,
      "Ã©": 2435,
      "âĢĶ": 2436,
      "Ġnumer": 2437,
      "Ġoperator": 2438,
      "ariant": 2439,
      "ĠCent": 2440,
      ")-": 2441,
      "Ġdistance": 2442,
      "Ġtransition": 2443,
      "Ġcare": 2444,
      "Ġcover": 2445,
      "ape": 2446,
      "Ġconver": 2447,
      "raction": 2448,
      "Ġla": 2449,
      "neq": 2450,
      "Ġsche": 2451,
      "ĠUS": 2452,
      "Ġcell": 2453,
      "ecess": 2454,
      "lected": 2455,
      "Ġsample": 2456,
      "ĠCO": 2457,
      "Ġlater": 2458,
      "ials": 2459,
      "Ġbook": 2460,
      "ferences": 2461,
      "off": 2462,
      "ibility": 2463,
      "ty": 2464,
      "Ġvia": 2465,
      "44": 2466,
      "ready": 2467,
      "}-\\": 2468,
      "rim": 2469,
      "Ġenc": 2470,
      "Ġbusiness": 2471,
      "Ġ-\\": 2472,
      "ths": 2473,
      "Ġdenote": 2474,
      "Ġacross": 2475,
      ")}{": 2476,
      "ĠĠĠĠĠĠĠĠĠĠĠĠĠĠĠĠĠĠĠĠĠĠĠĠĠĠĠĠĠĠĠĠ": 2477,
      "ĠGe": 2478,
      "iver": 2479,
      "Ġhome": 2480,
      "esp": 2481,
      "~$": 2482,
      "order": 2483,
      "Ġsuccess": 2484,
      "noindent": 2485,
      "plement": 2486,
      "|^": 2487,
      "Ġbi": 2488,
      "arget": 2489,
      "icol": 2490,
      "cont": 2491,
      "Ġinclude": 2492,
      "ĠSo": 2493,
      "Ġveloc": 2494,
      "Ġstep": 2495,
      "Ġbo": 2496,
      "ĠThus": 2497,
      "Ġerror": 2498,
      "Ġlarger": 2499,
      "scale": 2500,
      "ĠAmerican": 2501,
      "bb": 2502,
      "Ġboundary": 2503,
      "umerate": 2504,
      "Ġexpected": 2505,
      "$}": 2506,
      "Ġgives": 2507,
      "aken": 2508,
      "ler": 2509,
      "top": 2510,
      "ead": 2511,
      "Ġpract": 2512,
      "ussian": 2513,
      "Ġsolutions": 2514,
      "ĠWith": 2515,
      "stit": 2516,
      "Ġ'": 2517,
      "ĠEu": 2518,
      "ean": 2519,
      "ĠSec": 2520,
      "dag": 2521,
      "Ġemb": 2522,
      "ĠCan": 2523,
      "64": 2524,
      "flu": 2525,
      "39": 2526,
      "Ġseem": 2527,
      "04": 2528,
      "Ġatta": 2529,
      "aster": 2530,
      "enumerate": 2531,
      "mp": 2532,
      "Ġins": 2533,
      "star": 2534,
      "theorem": 2535,
      "Ġhard": 2536,
      "Ġlog": 2537,
      "Ġleg": 2538,
      "Ġsens": 2539,
      "55": 2540,
      "Ġrelated": 2541,
      "Ġsomet": 2542,
      "Ġresearch": 2543,
      "idd": 2544,
      "vspace": 2545,
      "Ġwr": 2546,
      "rary": 2547,
      "ours": 2548,
      "Ġelements": 2549,
      "Ġinvestig": 2550,
      "Ġhapp": 2551,
      "Ġhealth": 2552,
      "angu": 2553,
      "Ġindividual": 2554,
      "iven": 2555,
      ")}$": 2556,
      "Ġgoing": 2557,
      "08": 2558,
      "Ġspecial": 2559,
      "]\\": 2560,
      "vent": 2561,
      "Ġalready": 2562,
      "Ġeffects": 2563,
      "icy": 2564,
      "itemize": 2565,
      "erve": 2566,
      "ef": 2567,
      "Ġaccess": 2568,
      "gether": 2569,
      "Ġtogether": 2570,
      "iving": 2571,
      "Ġblack": 2572,
      "Ġrequire": 2573,
      "comes": 2574,
      "point": 2575,
      "ttps": 2576,
      "edge": 2577,
      "ules": 2578,
      "2009": 2579,
      "Ġedge": 2580,
      "Ġwid": 2581,
      "Ġvarious": 2582,
      "wit": 2583,
      "dimensional": 2584,
      "IC": 2585,
      "Ġable": 2586,
      "Ġcoe": 2587,
      "const": 2588,
      "2023": 2589,
      "vironment": 2590,
      "Ġmetric": 2591,
      "02": 2592,
      "Ġeffective": 2593,
      "ilities": 2594,
      "Ġamong": 2595,
      "ches": 2596,
      "Ġconstraint": 2597,
      "Ġdenot": 2598,
      "AC": 2599,
      "ai": 2600,
      "Ġhowever": 2601,
      "br": 2602,
      "Ġfar": 2603,
      "Ġmajor": 2604,
      "Ġdomain": 2605,
      "Ġenough": 2606,
      "Ġelement": 2607,
      "Ġreason": 2608,
      "Ġnode": 2609,
      "fun": 2610,
      "Ġdev": 2611,
      "Ġemploy": 2612,
      "Sp": 2613,
      "ĠOr": 2614,
      "06": 2615,
      "Ġimplies": 2616,
      "cle": 2617,
      "Ġfuture": 2618,
      "ĠMar": 2619,
      "Ġfields": 2620,
      "izing": 2621,
      "Ġchann": 2622,
      "ype": 2623,
      "ĠNo": 2624,
      "ont": 2625,
      "Ġappl": 2626,
      "Ġcommon": 2627,
      "}}_": 2628,
      "Ġtherefore": 2629,
      "Ġestabl": 2630,
      "rap": 2631,
      "scr": 2632,
      "ighb": 2633,
      "Ġunderstand": 2634,
      "pre": 2635,
      "that": 2636,
      "Ġregular": 2637,
      "acy": 2638,
      "Ġseason": 2639,
      "Ġconstruct": 2640,
      "Ġpri": 2641,
      "approx": 2642,
      "onic": 2643,
      "Ġclose": 2644,
      "Ġtr": 2645,
      "49": 2646,
      "Ġnecess": 2647,
      "uary": 2648,
      "Ġself": 2649,
      "astic": 2650,
      "ooth": 2651,
      "inter": 2652,
      "Ġmagnetic": 2653,
      "ware": 2654,
      "ket": 2655,
      "Ġcompany": 2656,
      "ĠRep": 2657,
      "Ġsays": 2658,
      "07": 2659,
      "note": 2660,
      "Ġoften": 2661,
      "node": 2662,
      "ES": 2663,
      "03": 2664,
      "more": 2665,
      "multicol": 2666,
      "Ġill": 2667,
      "ON": 2668,
      "amil": 2669,
      "Ġfac": 2670,
      "2008": 2671,
      "Ġbig": 2672,
      "IS": 2673,
      "Ġcertain": 2674,
      "omorphism": 2675,
      "\\,\\": 2676,
      "ged": 2677,
      "Ġaccording": 2678,
      "ĠCo": 2679,
      "Ġprote": 2680,
      "racy": 2681,
      "Ġput": 2682,
      "ney": 2683,
      "Ġvert": 2684,
      "Ġstars": 2685,
      "multicolumn": 2686,
      "Ġdifference": 2687,
      "Ġcompared": 2688,
      "ĠPol": 2689,
      "ĠMan": 2690,
      "Ġeng": 2691,
      "Ġ\\;": 2692,
      "ĠMed": 2693,
      "ults": 2694,
      "68": 2695,
      "(-": 2696,
      "Ġoriginal": 2697,
      "Ġnote": 2698,
      "Ġold": 2699,
      "Ġoptim": 2700,
      "Ġwave": 2701,
      "ĠComm": 2702,
      "Ġalgebra": 2703,
      "conom": 2704,
      "Ġreview": 2705,
      "ĠUnited": 2706,
      "ĠJohn": 2707,
      "fill": 2708,
      "Ġsetting": 2709,
      "ĠSte": 2710,
      "Un": 2711,
      "Ġweak": 2712,
      "}}}": 2713,
      "medi": 2714,
      "comp": 2715,
      "Ġbecome": 2716,
      "^-": 2717,
      "Ġunit": 2718,
      "Pi": 2719,
      "Ġspectrum": 2720,
      "Ġpan": 2721,
      "\\}$": 2722,
      "ĠOne": 2723,
      "abor": 2724,
      "Ġlearn": 2725,
      "ĉĊ": 2726,
      "ĠNational": 2727,
      "ume": 2728,
      "ideo": 2729,
      "ched": 2730,
      "Ġimages": 2731,
      "Ġtaken": 2732,
      "Ġmechan": 2733,
      "och": 2734,
      "67": 2735,
      "Ġmanag": 2736,
      "Ġstrateg": 2737,
      "matic": 2738,
      "gen": 2739,
      "oung": 2740,
      "47": 2741,
      "icro": 2742,
      "Ġprove": 2743,
      "{$": 2744,
      "09": 2745,
      "pped": 2746,
      "Ġmatter": 2747,
      "Ġprec": 2748,
      "Ġearly": 2749,
      "iff": 2750,
      "Ġgas": 2751,
      "ransp": 2752,
      "Ġadditional": 2753,
      "Ġimplement": 2754,
      "af": 2755,
      "Ġuntil": 2756,
      "Ġreturn": 2757,
      "hood": 2758,
      "Ġglobal": 2759,
      "Ġfig": 2760,
      "plus": 2761,
      "zz": 2762,
      "AL": 2763,
      "ternal": 2764,
      "Ġweek": 2765,
      "Ġreally": 2766,
      "ĠCor": 2767,
      "Ġ_{": 2768,
      "na": 2769,
      "Ġclaim": 2770,
      "Ġwon": 2771,
      "oor": 2772,
      "Ġbelie": 2773,
      "Ġimprove": 2774,
      "aches": 2775,
      "Ġport": 2776,
      "Ġdep": 2777,
      "Ġprom": 2778,
      "Ġlabel": 2779,
      "Ġrelation": 2780,
      "Ġsets": 2781,
      "NN": 2782,
      "Ġholds": 2783,
      "mathscr": 2784,
      "aries": 2785,
      "Ġgroups": 2786,
      "Ġpress": 2787,
      "ze": 2788,
      "ians": 2789,
      "ĠCount": 2790,
      "like": 2791,
      "Ġcannot": 2792,
      "iform": 2793,
      "Ġcut": 2794,
      "cing": 2795,
      "Ġexplain": 2796,
      "Ġmove": 2797,
      "Ġmultiple": 2798,
      "Ġtarget": 2799,
      "Ġmater": 2800,
      "Ġoffic": 2801,
      "Ġcome": 2802,
      "auge": 2803,
      "atively": 2804,
      "Ġkey": 2805,
      "Ġwhether": 2806,
      "Ġ\\|": 2807,
      ")+": 2808,
      "ti": 2809,
      "Ġevolution": 2810,
      "Ġhaving": 2811,
      "ĠĠĠĠĠĠĠĠĠĠĠ": 2812,
      "Ġtrue": 2813,
      "ription": 2814,
      "Ġsqu": 2815,
      "ching": 2816,
      "Ġvelocity": 2817,
      "Ġrepresentation": 2818,
      "OR": 2819,
      "ered": 2820,
      "Ġep": 2821,
      "Ġcoordin": 2822,
      "ĠTherefore": 2823,
      "Ġnever": 2824,
      "Ġestimate": 2825,
      "&&": 2826,
      "Ġevents": 2827,
      "Ġpresented": 2828,
      "Ġrepl": 2829,
      "98": 2830,
      "ĠOct": 2831,
      "ĠWhen": 2832,
      "ED": 2833,
      "Ġnatural": 2834,
      "ĠFran": 2835,
      "}'": 2836,
      "linear": 2837,
      "Ġwater": 2838,
      "Ġcomponents": 2839,
      "actions": 2840,
      "Ġgenerated": 2841,
      "Ġeigen": 2842,
      "Ġbegin": 2843,
      "Since": 2844,
      "Ġbasis": 2845,
      "texttt": 2846,
      "command": 2847,
      "rees": 2848,
      "Ġspecific": 2849,
      "gence": 2850,
      "Ġcomponent": 2851,
      "Ġdegree": 2852,
      "Ġconv": 2853,
      "Ġrequired": 2854,
      "rast": 2855,
      "lin": 2856,
      "ĠFeb": 2857,
      "Ġred": 2858,
      "Ġtransform": 2859,
      "Ġname": 2860,
      "AM": 2861,
      "split": 2862,
      "Ġproperty": 2863,
      "ĠAug": 2864,
      "Ġmaking": 2865,
      "PS": 2866,
      "2007": 2867,
      "org": 2868,
      "ires": 2869,
      "Ġthird": 2870,
      "Ġtheorem": 2871,
      "ights": 2872,
      "gn": 2873,
      "ĠThat": 2874,
      "resh": 2875,
      "icture": 2876,
      "ĠWorld": 2877,
      "Ġrole": 2878,
      "Ġfore": 2879,
      "}^{-": 2880,
      "isk": 2881,
      "ying": 2882,
      "CD": 2883,
      "Ġdimension": 2884,
      "Ġwhose": 2885,
      "Ġmarket": 2886,
      "Ġdou": 2887,
      "Ġequal": 2888,
      "ression": 2889,
      "Ġincrease": 2890,
      "ĠMin": 2891,
      "Ġkeep": 2892,
      "itor": 2893,
      "ounds": 2894,
      "Ġcateg": 2895,
      "Ġneut": 2896,
      "ĠSch": 2897,
      "Theta": 2898,
      "2006": 2899,
      "Ġprim": 2900,
      "rule": 2901,
      "Ġtreat": 2902,
      "ried": 2903,
      "hy": 2904,
      "ending": 2905,
      "ister": 2906,
      "ĠTable": 2907,
      "Then": 2908,
      "rated": 2909,
      "alle": 2910,
      "ledge": 2911,
      "inks": 2912,
      "Ġrather": 2913,
      "lor": 2914,
      "subseteq": 2915,
      "Ġratio": 2916,
      "go": 2917,
      "uration": 2918,
      "Ġground": 2919,
      "Ġprovided": 2920,
      "hib": 2921,
      "mark": 2922,
      "rain": 2923,
      "Ġmakes": 2924,
      "){\\": 2925,
      "Ġland": 2926,
      "Ġcontains": 2927,
      "ones": 2928,
      "),\\": 2929,
      "Ġhuman": 2930,
      "EN": 2931,
      "ogn": 2932,
      "<\\": 2933,
      "ung": 2934,
      "Ġcomplete": 2935,
      "uck": 2936,
      "itude": 2937,
      "clusion": 2938,
      "tr": 2939,
      "li": 2940,
      "Ġcommunity": 2941,
      "Ġrot": 2942,
      "There": 2943,
      "ustom": 2944,
      "textrm": 2945,
      "Ġvariables": 2946,
      "Ġchall": 2947,
      "pping": 2948,
      "iles": 2949,
      "Ġtext": 2950,
      "Ġevalu": 2951,
      "97": 2952,
      "tact": 2953,
      "ĠGu": 2954,
      "Ġmusic": 2955,
      "Ġflux": 2956,
      "ĠApr": 2957,
      "ynom": 2958,
      "Ġworks": 2959,
      "Ġalmost": 2960,
      "Ġfive": 2961,
      "ĠJanuary": 2962,
      "Ġimpact": 2963,
      "pol": 2964,
      "umbers": 2965,
      "ms": 2966,
      "Ġdone": 2967,
      "Ġ$|": 2968,
      "}}_{": 2969,
      "Ġmembers": 2970,
      "icult": 2971,
      "sw": 2972,
      "Ġcheck": 2973,
      "Ġdirection": 2974,
      "Ġunique": 2975,
      "Ġ$\\{": 2976,
      "underline": 2977,
      "Ġneighb": 2978,
      "bigg": 2979,
      "ĠYork": 2980,
      "rant": 2981,
      "nd": 2982,
      "Ġauthor": 2983,
      "uk": 2984,
      "attice": 2985,
      "cell": 2986,
      "ctors": 2987,
      "66": 2988,
      "Ġdays": 2989,
      "footnote": 2990,
      "Ġsumm": 2991,
      "thing": 2992,
      "ales": 2993,
      "minus": 2994,
      "Ġcontinuous": 2995,
      "Ġplayers": 2996,
      "ĠJu": 2997,
      "head": 2998,
      "Ġlittle": 2999,
      "Ġwar": 3000,
      "Ġsocial": 3001,
      "ĠCal": 3002,
      "izes": 3003,
      "Ġdecre": 3004,
      "oman": 3005,
      "ele": 3006,
      "ĠArt": 3007,
      "down": 3008,
      "Ġhalf": 3009,
      "_+": 3010,
      "ĠĠĠĊ": 3011,
      "Ġdemon": 3012,
      "Ġmaximum": 3013,
      "anguage": 3014,
      "rices": 3015,
      "ensor": 3016,
      "Ġaway": 3017,
      "ili": 3018,
      "Ġprovides": 3019,
      "prod": 3020,
      "Ġquestion": 3021,
      "Ġsignal": 3022,
      "85": 3023,
      "used": 3024,
      "Ġphysical": 3025,
      "Ġ($\\": 3026,
      "AP": 3027,
      "aves": 3028,
      "fit": 3029,
      "lex": 3030,
      "Ġpay": 3031,
      "taint": 3032,
      "fect": 3033,
      "anta": 3034,
      "self": 3035,
      "nce": 3036,
      "Ġrefer": 3037,
      "Ġversion": 3038,
      "istics": 3039,
      "field": 3040,
      "dagger": 3041,
      "eneral": 3042,
      "Ġcompos": 3043,
      "Ġchanges": 3044,
      "ĠMarch": 3045,
      "Ġgalaxies": 3046,
      "eter": 3047,
      "orts": 3048,
      "ĠAust": 3049,
      "aced": 3050,
      "Ġenvironment": 3051,
      "MS": 3052,
      "Ġvac": 3053,
      "ump": 3054,
      "Ġchoice": 3055,
      "Ġfoot": 3056,
      ")|": 3057,
      "{}": 3058,
      "di": 3059,
      "opy": 3060,
      "Ġcentral": 3061,
      "Ġpolit": 3062,
      "Ġscen": 3063,
      "amilton": 3064,
      "Ġgre": 3065,
      "Ġtaking": 3066,
      "ht": 3067,
      "map": 3068,
      "ĠGa": 3069,
      "esc": 3070,
      "Ġcritical": 3071,
      "icit": 3072,
      "call": 3073,
      "Ġnam": 3074,
      "Ġdevelopment": 3075,
      "ada": 3076,
      "Ġgovernment": 3077,
      "Ġgeomet": 3078,
      "Ġnuc": 3079,
      "Ġbuilding": 3080,
      "norm": 3081,
      "Ġproblems": 3082,
      "bo": 3083,
      "ĠNote": 3084,
      "Ġcompet": 3085,
      "ĠSchool": 3086,
      "ply": 3087,
      "ĠEurop": 3088,
      "Ġfrequency": 3089,
      "Ġwritten": 3090,
      "Ġelectron": 3091,
      "Ġsmaller": 3092,
      "Ġreported": 3093,
      "ĠState": 3094,
      "Ġhol": 3095,
      "Ġconcer": 3096,
      "Ġsoft": 3097,
      "^{-\\": 3098,
      "ront": 3099,
      "tical": 3100,
      "ores": 3101,
      "Ġoutput": 3102,
      "ulated": 3103,
      "Ġperm": 3104,
      "ĠOur": 3105,
      "Ġgauge": 3106,
      "Ġstory": 3107,
      "setminus": 3108,
      "}/": 3109,
      "Ġapplied": 3110,
      "Ġinteraction": 3111,
      "ework": 3112,
      "Ġask": 3113,
      "rag": 3114,
      "Ġcourse": 3115,
      "Ġbecomes": 3116,
      "Ġdetails": 3117,
      "Ġobservations": 3118,
      "ffor": 3119,
      "ully": 3120,
      "oms": 3121,
      "ners": 3122,
      "References": 3123,
      "Ph": 3124,
      "Ġclosed": 3125,
      "ng": 3126,
      "Ġupd": 3127,
      "Ġpast": 3128,
      "Ġbehavior": 3129,
      "cember": 3130,
      "Ġemission": 3131,
      "ush": 3132,
      "46": 3133,
      "elling": 3134,
      "Ġproduction": 3135,
      "Ġnoise": 3136,
      "Ġsymmetry": 3137,
      "Ġsources": 3138,
      "ĠPart": 3139,
      "Ġarch": 3140,
      "Ġupper": 3141,
      "earch": 3142,
      "ĠMe": 3143,
      "kn": 3144,
      "ruary": 3145,
      "certaint": 3146,
      "display": 3147,
      "Ġdirectly": 3148,
      "Vert": 3149,
      "ceed": 3150,
      "Ġtw": 3151,
      "Ġindust": 3152,
      "Ġprior": 3153,
      "ptember": 3154,
      "ĠStates": 3155,
      "Ġ$-": 3156,
      "Ġpriv": 3157,
      "Ġintegral": 3158,
      "ln": 3159,
      "Ġrecord": 3160,
      "Ġcontext": 3161,
      "Ġderiv": 3162,
      "normal": 3163,
      "otic": 3164,
      "ana": 3165,
      "Ġincreasing": 3166,
      "Ġwomen": 3167,
      "rate": 3168,
      "Ġexperience": 3169,
      "ĠÂ": 3170,
      "ishing": 3171,
      "Ġoperators": 3172,
      "}},": 3173,
      "Ġdiagram": 3174,
      "Ġdifficult": 3175,
      "CC": 3176,
      "ovember": 3177,
      "ster": 3178,
      "2005": 3179,
      "Ġequivalent": 3180,
      "Ġhor": 3181,
      "Ġstudies": 3182,
      "ĠMc": 3183,
      "Ġservice": 3184,
      "\\}": 3185,
      "Ġdetermined": 3186,
      "linewidth": 3187,
      "wedge": 3188,
      "*{": 3189,
      "Ġallows": 3190,
      "oplus": 3191,
      "uracy": 3192,
      "Ġmillion": 3193,
      "lege": 3194,
      "Ġwords": 3195,
      "What": 3196,
      "ham": 3197,
      "turb": 3198,
      "ounter": 3199,
      "96": 3200,
      "Ġhistory": 3201,
      "aly": 3202,
      "Ġleading": 3203,
      "Ġgen": 3204,
      "fact": 3205,
      "ellar": 3206,
      "ĠChrist": 3207,
      "IT": 3208,
      "IR": 3209,
      "Ġsmooth": 3210,
      "42": 3211,
      "ĠĠĠĠĠĠĠĠĠ": 3212,
      "Ġpolynom": 3213,
      "OS": 3214,
      "Ġaddress": 3215,
      "ĠPa": 3216,
      "gs": 3217,
      "ids": 3218,
      "ĠFrom": 3219,
      "ilit": 3220,
      "Ġindex": 3221,
      "Ġamount": 3222,
      "Note": 3223,
      "Ġblock": 3224,
      "det": 3225,
      "Ġfail": 3226,
      "Ġtry": 3227,
      "inos": 3228,
      "Ġaffect": 3229,
      "43": 3230,
      "usion": 3231,
      "_{(": 3232,
      "Ġinstead": 3233,
      "ĠJune": 3234,
      ",\"": 3235,
      "Ġ$[": 3236,
      "ansion": 3237,
      "Ġentire": 3238,
      "Ġvalid": 3239,
      "pers": 3240,
      "ĠCity": 3241,
      "Ġtakes": 3242,
      "partment": 3243,
      "Ġrob": 3244,
      "size": 3245,
      "ĠAss": 3246,
      "Ġmeet": 3247,
      "Ġpubl": 3248,
      "Ġcountry": 3249,
      "Ġlot": 3250,
      "Int": 3251,
      "ĠAg": 3252,
      "Ġpopulation": 3253,
      "Ġproced": 3254,
      "Ġworking": 3255,
      "ips": 3256,
      "reng": 3257,
      "Ġwhy": 3258,
      "Ġrelative": 3259,
      "vant": 3260,
      "Ġwrite": 3261,
      "ottom": 3262,
      "Ġbackground": 3263,
      "dist": 3264,
      "obs": 3265,
      "Ġcurve": 3266,
      "Ġsufficient": 3267,
      "itect": 3268,
      "Ġhence": 3269,
      "De": 3270,
      "yl": 3271,
      "Ġconfig": 3272,
      "anced": 3273,
      "Ġsearch": 3274,
      "Ġcorrect": 3275,
      "ĠSouth": 3276,
      "Ġcompact": 3277,
      "iting": 3278,
      "Ġregions": 3279,
      "Ġadj": 3280,
      "Ġair": 3281,
      "EC": 3282,
      "Ġlikely": 3283,
      "oney": 3284,
      "eries": 3285,
      "Ġfund": 3286,
      "ille": 3287,
      "Ġprinc": 3288,
      "rown": 3289,
      "2000": 3290,
      "Ġdemonstr": 3291,
      "ause": 3292,
      "Ġthings": 3293,
      "Ġparticles": 3294,
      "Ġcity": 3295,
      "58": 3296,
      "Ġformula": 3297,
      "ĠHere": 3298,
      "Ġparticle": 3299,
      "ĠAfter": 3300,
      "Ġdataset": 3301,
      "subfigure": 3302,
      "Ġnumbers": 3303,
      "Ġcomplet": 3304,
      "ĠSim": 3305,
      "Ġdiscussed": 3306,
      "$_": 3307,
      "Ġembed": 3308,
      "ĠApril": 3309,
      "Ġvir": 3310,
      "osen": 3311,
      "Ġsense": 3312,
      "Ġapproximation": 3313,
      "\\'": 3314,
      "Ġinfin": 3315,
      "ĠMon": 3316,
      "Ġchildren": 3317,
      "57": 3318,
      "ĠMark": 3319,
      "raft": 3320,
      "Ġinequ": 3321,
      "{$\\": 3322,
      "Ġgrav": 3323,
      "Ġ(-": 3324,
      "ats": 3325,
      "ĠPar": 3326,
      "Ġcode": 3327,
      "Ġsomething": 3328,
      "ĠCounty": 3329,
      "Ġdiscre": 3330,
      "allel": 3331,
      "Ġ#": 3332,
      "Ġcoupling": 3333,
      "Ġperturb": 3334,
      "Ġonline": 3335,
      "ĠQu": 3336,
      "ariance": 3337,
      "Ġactiv": 3338,
      "Ġgot": 3339,
      "ĠLa": 3340,
      "Ġonce": 3341,
      "alt": 3342,
      "iber": 3343,
      "Ġsent": 3344,
      "Ġformer": 3345,
      "Ġwind": 3346,
      "AA": 3347,
      "Ġgrad": 3348,
      "_*": 3349,
      "ĠReg": 3350,
      "ĠAb": 3351,
      "Ġfeel": 3352,
      "Ġconstruction": 3353,
      "ĠNe": 3354,
      "dom": 3355,
      "uth": 3356,
      "Ġage": 3357,
      "Ġdraw": 3358,
      "Ġdeath": 3359,
      "rep": 3360,
      "book": 3361,
      "limits": 3362,
      "Ġstudents": 3363,
      "arily": 3364,
      ")\\,": 3365,
      "Ġuniform": 3366,
      "aff": 3367,
      "bul": 3368,
      "Ġconnected": 3369,
      "ĠFebruary": 3370,
      "_{{\\": 3371,
      "ĠDecember": 3372,
      "Ġperformed": 3373,
      "ournal": 3374,
      "utes": 3375,
      "Ġtransp": 3376,
      "Ġagre": 3377,
      "ĠIntern": 3378,
      "Ġbene": 3379,
      "xy": 3380,
      "sel": 3381,
      "Ġut": 3382,
      "Ġobjects": 3383,
      "ĠOctober": 3384,
      "ĠSeptember": 3385,
      "Ġbounded": 3386,
      "Ġexpression": 3387,
      "Ġfri": 3388,
      "ĠJuly": 3389,
      "Ġdynamics": 3390,
      "Ġsix": 3391,
      "Ġdomin": 3392,
      "Ġess": 3393,
      "Ġoccur": 3394,
      "ecially": 3395,
      "Ġsamples": 3396,
      "Ġshall": 3397,
      "Ġgames": 3398,
      "Ġmention": 3399,
      "Ġothers": 3400,
      "Ġpeak": 3401,
      "Ġvertex": 3402,
      "ging": 3403,
      "2004": 3404,
      "Ġvideo": 3405,
      "ills": 3406,
      "andid": 3407,
      "ropy": 3408,
      "long": 3409,
      "Ġprot": 3410,
      "Ġsite": 3411,
      "oud": 3412,
      "ĠHar": 3413,
      "tered": 3414,
      "Ġincluded": 3415,
      "ĠNovember": 3416,
      "ĠMa": 3417,
      "Ġ|\\": 3418,
      "ĠWar": 3419,
      "BC": 3420,
      "Ġuncertaint": 3421,
      "bre": 3422,
      "Here": 3423,
      "cast": 3424,
      "Ġexplicit": 3425,
      "Ġax": 3426,
      "ography": 3427,
      "',": 3428,
      "Ġintroduced": 3429,
      "ises": 3430,
      "atic": 3431,
      "ollary": 3432,
      "ĠWill": 3433,
      "Ġexperiments": 3434,
      "ĠAugust": 3435,
      "Ġmomentum": 3436,
      "imate": 3437,
      "Ġapply": 3438,
      "sup": 3439,
      "www": 3440,
      "Ġlat": 3441,
      "Ġvan": 3442,
      "rivial": 3443,
      "ĠSy": 3444,
      "vey": 3445,
      "Ġ\\(": 3446,
      "~$\\": 3447,
      "_{-": 3448,
      "ĠEd": 3449,
      "Sh": 3450,
      "Our": 3451,
      "Ġtherm": 3452,
      "eral": 3453,
      "],": 3454,
      "When": 3455,
      "Ġcustom": 3456,
      "ague": 3457,
      "ensions": 3458,
      "Ġplot": 3459,
      "Ġuser": 3460,
      "atives": 3461,
      "aligned": 3462,
      "\\!\\!": 3463,
      "56": 3464,
      "atory": 3465,
      "Ġnumerical": 3466,
      "Ġtask": 3467,
      "Ġpattern": 3468,
      "Ġsyn": 3469,
      "ota": 3470,
      "ĠRec": 3471,
      "colon": 3472,
      "Ġcomes": 3473,
      ",\\,": 3474,
      "41": 3475,
      "light": 3476,
      "era": 3477,
      "Ġcolumn": 3478,
      "Ġsimply": 3479,
      "Ġmeasured": 3480,
      "Ġsubject": 3481,
      "Ġrank": 3482,
      "ashed": 3483,
      "jection": 3484,
      "tra": 3485,
      "Ġcontribution": 3486,
      "Ġ}\\": 3487,
      "Ġlattice": 3488,
      "77": 3489,
      "Ġhyper": 3490,
      "ario": 3491,
      "Ġspectral": 3492,
      "Ġmaps": 3493,
      "Ġsubset": 3494,
      "88": 3495,
      "bound": 3496,
      "ĉĉĉĉ": 3497,
      "ured": 3498,
      "Ġtypes": 3499,
      "band": 3500,
      "Ġnegative": 3501,
      "Ġcamp": 3502,
      ".)": 3503,
      "icles": 3504,
      "Ġillust": 3505,
      "Ġservices": 3506,
      "Ġspat": 3507,
      "ĠFirst": 3508,
      "Ġintern": 3509,
      "emic": 3510,
      "Ġconduct": 3511,
      "textsc": 3512,
      "Ġamplit": 3513,
      "pa": 3514,
      "ords": 3515,
      "ĠBar": 3516,
      "ony": 3517,
      "avy": 3518,
      "add": 3519,
      "][": 3520,
      "ĠHamilton": 3521,
      "ĠAf": 3522,
      "Ġclassical": 3523,
      "ĠBo": 3524,
      "Ġinteresting": 3525,
      "ĠProposition": 3526,
      "oring": 3527,
      ")}(": 3528,
      "Ġtrack": 3529,
      "Ġcult": 3530,
      "Ġtool": 3531,
      "Ġwhole": 3532,
      "Ġbar": 3533,
      "Ġinflu": 3534,
      "Ġbroad": 3535,
      "Ġexpon": 3536,
      "Ġregard": 3537,
      "Ġinc": 3538,
      "Ġframework": 3539,
      "EE": 3540,
      "Ġconne": 3541,
      "Ġsimulations": 3542,
      "ortun": 3543,
      "ĠTra": 3544,
      "Ġmotion": 3545,
      "Ġscheme": 3546,
      "Ġstreng": 3547,
      "definition": 3548,
      "Ġir": 3549,
      "}}(\\": 3550,
      "overed": 3551,
      "Ġoptimal": 3552,
      "Ġarbit": 3553,
      "ĠEng": 3554,
      "ming": 3555,
      "Ġpolicy": 3556,
      "Ġiter": 3557,
      "Ġbran": 3558,
      "Ġpolar": 3559,
      "ĠNorth": 3560,
      "Ġcenter": 3561,
      "Ġleads": 3562,
      "Ġaccuracy": 3563,
      "rier": 3564,
      "ĠPer": 3565,
      "irl": 3566,
      "Ġneeds": 3567,
      "Ġdeep": 3568,
      ".~(\\": 3569,
      "Ġchannel": 3570,
      "Ġcos": 3571,
      "ĠII": 3572,
      "iction": 3573,
      "Ġeconom": 3574,
      "abs": 3575,
      "king": 3576,
      "isc": 3577,
      "fficients": 3578,
      "PR": 3579,
      "Ġannoun": 3580,
      "ymmet": 3581,
      "US": 3582,
      "reet": 3583,
      "Ġcontent": 3584,
      "\",": 3585,
      "aring": 3586,
      "Ġyet": 3587,
      "aging": 3588,
      "hers": 3589,
      "Ġtook": 3590,
      "perp": 3591,
      "subsubsection": 3592,
      "ĠMod": 3593,
      "Now": 3594,
      "Ġhost": 3595,
      "With": 3596,
      "ĠNot": 3597,
      "ympt": 3598,
      "Ġquality": 3599,
      "ided": 3600,
      "Ġradius": 3601,
      "Ġjo": 3602,
      "Ġresulting": 3603,
      "Ġcomparison": 3604,
      "ĠWhat": 3605,
      "ensive": 3606,
      "Ġvariable": 3607,
      "Ġmiss": 3608,
      "gra": 3609,
      "Ġneeded": 3610,
      "Ġlink": 3611,
      "Ġyoung": 3612,
      "gress": 3613,
      "especially": 3614,
      "Ġlayer": 3615,
      "At": 3616,
      "ĠPr": 3617,
      ")_{": 3618,
      "Ġmer": 3619,
      "endix": 3620,
      "MC": 3621,
      "known": 3622,
      "Ġcharge": 3623,
      "Ġcompan": 3624,
      "bur": 3625,
      "dapt": 3626,
      "Ġnecessary": 3627,
      "nov": 3628,
      "Ġeasy": 3629,
      "Ġsatisfies": 3630,
      "Ġviol": 3631,
      "Ġmechanism": 3632,
      "bum": 3633,
      "One": 3634,
      "state": 3635,
      "can": 3636,
      "Ġinf": 3637,
      "Ġinstance": 3638,
      "'\\": 3639,
      "ĠPres": 3640,
      "Eq": 3641,
      "Ġparticip": 3642,
      "69": 3643,
      "Ġliter": 3644,
      "Ġchain": 3645,
      "Ġdiv": 3646,
      "Ġsong": 3647,
      "FT": 3648,
      "ites": 3649,
      "ource": 3650,
      "Ġknowledge": 3651,
      "Ġ+\\": 3652,
      "Ġwidth": 3653,
      "Ġeduc": 3654,
      "eline": 3655,
      "Wh": 3656,
      "}%": 3657,
      "Ġlove": 3658,
      "Ġ&=&": 3659,
      "Ġpack": 3660,
      "Ġspeed": 3661,
      "ĠHence": 3662,
      "Su": 3663,
      "ributed": 3664,
      "ĠNews": 3665,
      "Ġchoose": 3666,
      ")^{\\": 3667,
      "Ġdecay": 3668,
      "500": 3669,
      "Ġmar": 3670,
      "hom": 3671,
      "Ġlinks": 3672,
      "'_": 3673,
      "Ġmeasurements": 3674,
      "Ġdoc": 3675,
      "AG": 3676,
      "$^{-": 3677,
      "}$-": 3678,
      "Ġpresence": 3679,
      "And": 3680,
      "semb": 3681,
      "but": 3682,
      "Ġcharg": 3683,
      "Ġderived": 3684,
      "Ġmanif": 3685,
      "rence": 3686,
      "Ġgrowth": 3687,
      "rive": 3688,
      "Ġnetworks": 3689,
      "Ġtransfer": 3690,
      "from": 3691,
      "Ġlevels": 3692,
      "simeq": 3693,
      ")/": 3694,
      "trans": 3695,
      "Ġbody": 3696,
      "rr": 3697,
      "Ġcapt": 3698,
      "Ġbase": 3699,
      "forall": 3700,
      "ops": 3701,
      "Ġactually": 3702,
      "Ġhyp": 3703,
      "Ġresponse": 3704,
      "ns": 3705,
      "Ġ:=": 3706,
      "ux": 3707,
      "Ġbir": 3708,
      "Ġmedia": 3709,
      "ĠDi": 3710,
      "Ġcorrelation": 3711,
      "From": 3712,
      "deg": 3713,
      "ocal": 3714,
      "berg": 3715,
      "Ġnews": 3716,
      "Ġconsistent": 3717,
      "mon": 3718,
      "Res": 3719,
      "ditional": 3720,
      "Ġusers": 3721,
      "Ġminimum": 3722,
      "Ġvertices": 3723,
      "ĠRef": 3724,
      "Ġrespons": 3725,
      "Ġdark": 3726,
      "].": 3727,
      "Ġcluster": 3728,
      "Ġdeal": 3729,
      "tin": 3730,
      "spect": 3731,
      "ening": 3732,
      "Ġtoday": 3733,
      "Ġexpansion": 3734,
      "igital": 3735,
      "ĠGl": 3736,
      "More": 3737,
      "Ġcalculated": 3738,
      "ken": 3739,
      "Ġcorresponds": 3740,
      "level": 3741,
      "ĠAm": 3742,
      ")^{-": 3743,
      "Ġdeveloped": 3744,
      "Ġcommunic": 3745,
      "Ġcolor": 3746,
      "Ad": 3747,
      "Ġcandid": 3748,
      "Ġminim": 3749,
      "Ġbreak": 3750,
      "encies": 3751,
      "Ġadded": 3752,
      "However": 3753,
      "ĠPe": 3754,
      ":\\": 3755,
      "hel": 3756,
      "2003": 3757,
      "Ġfraction": 3758,
      "change": 3759,
      "roduction": 3760,
      "Ġcorrespond": 3761,
      "Ġseg": 3762,
      "pri": 3763,
      "Ġitself": 3764,
      "dependent": 3765,
      "Ġeasily": 3766,
      "Ġreduced": 3767,
      "Ġsimpl": 3768,
      "87": 3769,
      "met": 3770,
      "dro": 3771,
      "Ġhold": 3772,
      "Ġidea": 3773,
      "Ġensure": 3774,
      "\\_": 3775,
      "Ġpanel": 3776,
      "Ġfactors": 3777,
      "lier": 3778,
      "Ġscatter": 3779,
      "urch": 3780,
      "Ġlanguage": 3781,
      "Ġrisk": 3782,
      "ae": 3783,
      "Ġmode": 3784,
      "Ġapplication": 3785,
      "Figure": 3786,
      "Ġfall": 3787,
      "Ġplane": 3788,
      "Ġpercent": 3789,
      "Ġincludes": 3790,
      "Ġ_": 3791,
      "urthermore": 3792,
      "ĠEl": 3793,
      "Ġrecogn": 3794,
      "59": 3795,
      "New": 3796,
      "Ġstudied": 3797,
      "ĠGo": 3798,
      "ky": 3799,
      "Ġprocesses": 3800,
      "Ġassumption": 3801,
      "Ġcoefficients": 3802,
      "$).": 3803,
      "ecause": 3804,
      "Ġmen": 3805,
      "ĠStud": 3806,
      "ĠBrit": 3807,
      "avor": 3808,
      "atform": 3809,
      "Ġface": 3810,
      "sto": 3811,
      "Ġprofess": 3812,
      "CO": 3813,
      "}^*": 3814,
      "Ġquite": 3815,
      "Ġtit": 3816,
      "pe": 3817,
      "Ġremains": 3818,
      "Ġattack": 3819,
      "Ġespecially": 3820,
      "Ġwebs": 3821,
      "flo": 3822,
      "erc": 3823,
      "glish": 3824,
      "spec": 3825,
      "ĠMoreover": 3826,
      "Ġexec": 3827,
      "ĠGerm": 3828,
      "Ġuses": 3829,
      "Ġreach": 3830,
      "Ġconsequ": 3831,
      "Ġresid": 3832,
      "ĠMy": 3833,
      "=(": 3834,
      "Ġaltern": 3835,
      "Ġhouse": 3836,
      "Ġproducts": 3837,
      "Ġdim": 3838,
      "Ġfigure": 3839,
      "newcommand": 3840,
      "=-": 3841,
      "Ġgoal": 3842,
      "Ġkind": 3843,
      "Ġchosen": 3844,
      "black": 3845,
      "Ġconstraints": 3846,
      "ker": 3847,
      "AB": 3848,
      "inv": 3849,
      "Ġnodes": 3850,
      "class": 3851,
      "ously": 3852,
      "bullet": 3853,
      "LE": 3854,
      "54": 3855,
      "ocks": 3856,
      "tee": 3857,
      "Ġexperimental": 3858,
      "ĠDo": 3859,
      "Ġcame": 3860,
      "52": 3861,
      "Ġcompute": 3862,
      "Ġreve": 3863,
      "ned": 3864,
      "ands": 3865,
      "DE": 3866,
      "Ġparts": 3867,
      "ĠWest": 3868,
      "ĠSm": 3869,
      "ief": 3870,
      "Net": 3871,
      "Ġcontact": 3872,
      "ĠComp": 3873,
      "Ġrelevant": 3874,
      "ources": 3875,
      "Ġdetection": 3876,
      "ĠNow": 3877,
      ")}{\\": 3878,
      "Ġclasses": 3879,
      "Ġautom": 3880,
      "year": 3881,
      "ĠAustral": 3882,
      "Ġmis": 3883,
      "$$\\": 3884,
      "Ġbit": 3885,
      "Ġtransl": 3886,
      "png": 3887,
      "ault": 3888,
      "Ġapplications": 3889,
      "Ġslow": 3890,
      "illed": 3891,
      "Ġscalar": 3892,
      "^{+": 3893,
      "came": 3894,
      "Ġidentify": 3895,
      "lease": 3896,
      "Ġpers": 3897,
      "Ġexperiment": 3898,
      "onsider": 3899,
      "}}^": 3900,
      "Ġstra": 3901,
      "isation": 3902,
      "ĠDav": 3903,
      "Ġdetermine": 3904,
      "ares": 3905,
      "ford": 3906,
      "zero": 3907,
      "ara": 3908,
      "Ġste": 3909,
      "={": 3910,
      "Ġexactly": 3911,
      "Ġtree": 3912,
      "Ġforce": 3913,
      "VID": 3914,
      "Ġpref": 3915,
      "ĠWhile": 3916,
      "nes": 3917,
      "iency": 3918,
      "cases": 3919,
      "Ġdual": 3920,
      "IM": 3921,
      "izon": 3922,
      "ĠPark": 3923,
      "Ġforward": 3924,
      "Ġissue": 3925,
      "pmatrix": 3926,
      "iques": 3927,
      "Ġrates": 3928,
      "ppose": 3929,
      "Ġvolume": 3930,
      "63": 3931,
      "ogene": 3932,
      "Cl": 3933,
      "Ġprocedure": 3934,
      "Ġmess": 3935,
      "eV": 3936,
      "rice": 3937,
      "Ġnorm": 3938,
      "cons": 3939,
      "eler": 3940,
      "Ġsw": 3941,
      "Ġbecame": 3942,
      "ttp": 3943,
      "coming": 3944,
      "Ġessential": 3945,
      "olic": 3946,
      "ccording": 3947,
      "Ġuseful": 3948,
      "Ġdistributions": 3949,
      "Ġones": 3950,
      "ama": 3951,
      "isions": 3952,
      "Ġcreate": 3953,
      "ilib": 3954,
      "53": 3955,
      "Ġarchitect": 3956,
      "Ġstructures": 3957,
      "51": 3958,
      "ued": 3959,
      "https": 3960,
      "Ġsimulation": 3961,
      "Ġrecently": 3962,
      "Ġrow": 3963,
      "Ġreceived": 3964,
      "ows": 3965,
      "Ġadapt": 3966,
      "ci": 3967,
      "Ġspectra": 3968,
      "Ġdependence": 3969,
      "Ġever": 3970,
      "Ġissues": 3971,
      "Ġdenotes": 3972,
      "resents": 3973,
      "Ġcurves": 3974,
      "Ġexamples": 3975,
      "Ġrequires": 3976,
      "Ġ=\\": 3977,
      "Ġimmedi": 3978,
      "dt": 3979,
      "Ġedges": 3980,
      "osed": 3981,
      "Ġaim": 3982,
      "do": 3983,
      "Ġtable": 3984,
      "78": 3985,
      "Ġarm": 3986,
      "oul": 3987,
      "Ġdr": 3988,
      "Ġfully": 3989,
      "Ġproduced": 3990,
      "Ġdescribe": 3991,
      "Ġsignificantly": 3992,
      "Ġgain": 3993,
      "model": 3994,
      "Ġinequality": 3995,
      "Ġarticle": 3996,
      "Ġmaterial": 3997,
      "Ġstarted": 3998,
      "Ġeffor": 3999,
      ")\\\\": 4000,
      "Ġnov": 4001,
      "izations": 4002,
      "Ġpatients": 4003,
      "Ġaccept": 4004,
      "Ġinvariant": 4005,
      "Ġproper": 4006,
      "HE": 4007,
      "$(": 4008,
      "Ġsteps": 4009,
      "vex": 4010,
      "inct": 4011,
      "eff": 4012,
      "ĠRo": 4013,
      "ĠChe": 4014,
      "ements": 4015,
      "Ġsure": 4016,
      "Ġconcept": 4017,
      "Ġtowards": 4018,
      "Ġavoid": 4019,
      "Ġbox": 4020,
      "range": 4021,
      "stein": 4022,
      "aged": 4023,
      "Ġstation": 4024,
      "uations": 4025,
      "....": 4026,
      "Ġlive": 4027,
      "asks": 4028,
      "Ġquas": 4029,
      "bert": 4030,
      "Ġformation": 4031,
      "Ġpressure": 4032,
      "Ġmodes": 4033,
      "pc": 4034,
      "Ġincreases": 4035,
      "ĉĉĉ": 4036,
      "Ġmicro": 4037,
      "ector": 4038,
      "Ġresolution": 4039,
      "Ġchalleng": 4040,
      "So": 4041,
      "Ġdriv": 4042,
      "Ġdepends": 4043,
      "Ġnight": 4044,
      "Ġstage": 4045,
      "displaystyle": 4046,
      "Ġassign": 4047,
      "})$.": 4048,
      "ened": 4049,
      "ĠResearch": 4050,
      "Ġstrategy": 4051,
      "Ġmach": 4052,
      "Ġattention": 4053,
      "ounc": 4054,
      "Ġcontrast": 4055,
      "Ġsplit": 4056,
      "Ġinside": 4057,
      "rs": 4058,
      "Ġtechnology": 4059,
      "2002": 4060,
      "Ġtensor": 4061,
      "rig": 4062,
      "Ġlonger": 4063,
      "Ġnature": 4064,
      "62": 4065,
      "Ġaud": 4066,
      "ĠServ": 4067,
      "Ġshape": 4068,
      "apan": 4069,
      "Ġareas": 4070,
      "Ġemer": 4071,
      "vision": 4072,
      "How": 4073,
      "Ġrestrict": 4074,
      ")$-": 4075,
      "eli": 4076,
      "Ġopportun": 4077,
      "my": 4078,
      "ĠHealth": 4079,
      "Ġbeg": 4080,
      "Ġoutside": 4081,
      "Thus": 4082,
      "Ġlatter": 4083,
      "Ġlocated": 4084,
      "ams": 4085,
      "SO": 4086,
      "Ġball": 4087,
      "ura": 4088,
      "Ġstellar": 4089,
      "ondon": 4090,
      "Ġindustry": 4091,
      "Ġintroduce": 4092,
      "ender": 4093,
      "Ġevidence": 4094,
      "Ġangle": 4095,
      "dim": 4096,
      "stack": 4097,
      "Ġfinding": 4098,
      "AD": 4099,
      "rew": 4100,
      "ET": 4101,
      "uls": 4102,
      "Ġtreatment": 4103,
      "ĠAct": 4104,
      "Le": 4105,
      "Ġspaces": 4106,
      "uff": 4107,
      "group": 4108,
      ")_": 4109,
      "Ġmonths": 4110,
      "iddle": 4111,
      "ĠGaussian": 4112,
      "Ġorigin": 4113,
      "Ġremov": 4114,
      "Ġslight": 4115,
      "Ġalbum": 4116,
      "Ġadopt": 4117,
      "94": 4118,
      "Ġapproaches": 4119,
      "omorphic": 4120,
      "sol": 4121,
      "){": 4122,
      "Ġblue": 4123,
      "hips": 4124,
      "Ġrepresents": 4125,
      "eth": 4126,
      "port": 4127,
      "ĠBro": 4128,
      "Ġspatial": 4129,
      "All": 4130,
      "\".": 4131,
      "Ġcry": 4132,
      "ube": 4133,
      "Ġdidn": 4134,
      "Ġsupported": 4135,
      "Ġfood": 4136,
      "Ġalgorithms": 4137,
      "selves": 4138,
      "ilibri": 4139,
      "ios": 4140,
      "ĠHow": 4141,
      "Ġlimited": 4142,
      "Ġorb": 4143,
      "ĠAfric": 4144,
      "Ġsecur": 4145,
      "ratic": 4146,
      "bin": 4147,
      "hors": 4148,
      "Ġthought": 4149,
      "Ġseems": 4150,
      "remark": 4151,
      "Ġextended": 4152,
      "Ġinteractions": 4153,
      "Ġconsum": 4154,
      "uments": 4155,
      "Ġord": 4156,
      "mapsto": 4157,
      "Ġoverall": 4158,
      "Ġword": 4159,
      "ĠHis": 4160,
      "Ġestimated": 4161,
      "paramet": 4162,
      "Ġcontract": 4163,
      "Sim": 4164,
      "Ġconfir": 4165,
      "odot": 4166,
      "SP": 4167,
      "ancial": 4168,
      "Ġsymmetric": 4169,
      "93": 4170,
      "itz": 4171,
      "ads": 4172,
      "Pl": 4173,
      "aran": 4174,
      "Ġdecision": 4175,
      "Ġreleased": 4176,
      "Ġtheore": 4177,
      "dsh": 4178,
      "Ġplayed": 4179,
      "Ġupon": 4180,
      "Ġcomputed": 4181,
      "DF": 4182,
      "LL": 4183,
      "Ġattempt": 4184,
      "Ġshare": 4185,
      "ptions": 4186,
      "Ġcore": 4187,
      "neg": 4188,
      "Ġaff": 4189,
      "Ġsus": 4190,
      "ĠMet": 4191,
      "Ġcreated": 4192,
      "ĠHouse": 4193,
      "_-": 4194,
      "hbox": 4195,
      "Ġsampl": 4196,
      "othes": 4197,
      "ĠDist": 4198,
      "acity": 4199,
      "apping": 4200,
      "Ġusually": 4201,
      "}}^{": 4202,
      "mail": 4203,
      "ĠCenter": 4204,
      "main": 4205,
      "Ġbuilt": 4206,
      "ĠHigh": 4207,
      "ĠHamiltonian": 4208,
      "But": 4209,
      "Ġansw": 4210,
      "Ġsingular": 4211,
      "Ġmatrices": 4212,
      "Ġquark": 4213,
      "Ġpublished": 4214,
      "Ġpopular": 4215,
      "Ġextract": 4216,
      "$;": 4217,
      "Ġgalaxy": 4218,
      "61": 4219,
      "Ġtalk": 4220,
      "mission": 4221,
      "Ġfront": 4222,
      "Ġlooking": 4223,
      "Ġ~": 4224,
      "ouncil": 4225,
      "Theorem": 4226,
      "Ġheld": 4227,
      "Ġthing": 4228,
      "Ġbring": 4229,
      "tri": 4230,
      "Ġasympt": 4231,
      "dx": 4232,
      "Ġidentity": 4233,
      "Ġsuccessful": 4234,
      "vis": 4235,
      "You": 4236,
      "Ġmole": 4237,
      "nt": 4238,
      "Ġmember": 4239,
      "Ġnational": 4240,
      "abilities": 4241,
      "Ġappropri": 4242,
      "Ġtell": 4243,
      "Ġreference": 4244,
      "Ġexhib": 4245,
      "multi": 4246,
      "ernel": 4247,
      "Ġplatform": 4248,
      "Ġdecom": 4249,
      "Ġpropag": 4250,
      "alg": 4251,
      "oted": 4252,
      "ingu": 4253,
      "ĠFe": 4254,
      "ociety": 4255,
      "cles": 4256,
      "Ġlate": 4257,
      "Ġagreement": 4258,
      "Ġsituation": 4259,
      "\\|_{": 4260,
      "Ġoptical": 4261,
      "place": 4262,
      "Ġcommit": 4263,
      "Ġdouble": 4264,
      "Ġwhite": 4265,
      "Ġbehind": 4266,
      "graph": 4267,
      "2001": 4268,
      "Ġded": 4269,
      "Ġfast": 4270,
      "Ġstarting": 4271,
      "\\{\\": 4272,
      "ĠMich": 4273,
      "Ġrule": 4274,
      "Ġyields": 4275,
      "cular": 4276,
      "type": 4277,
      "Ġachieve": 4278,
      "Ġquick": 4279,
      "Ġstatement": 4280,
      "Ġarbitrary": 4281,
      "ception": 4282,
      "iences": 4283,
      "Ġestimates": 4284,
      "uel": 4285,
      "dered": 4286,
      "free": 4287,
      "augh": 4288,
      "uses": 4289,
      "unch": 4290,
      "Ġselected": 4291,
      "Ġspecies": 4292,
      "Ġeigenval": 4293,
      "$~": 4294,
      "Ġenh": 4295,
      "Ġexistence": 4296,
      "ĠChar": 4297,
      "prob": 4298,
      "cks": 4299,
      "aint": 4300,
      "ĠInternational": 4301,
      "hest": 4302,
      "ĠKing": 4303,
      "Ġpersonal": 4304,
      "Ġthresh": 4305,
      "}({\\": 4306,
      "Ġradio": 4307,
      "Ġsolid": 4308,
      "\\\"": 4309,
      "Ġdiscussion": 4310,
      "inf": 4311,
      "van": 4312,
      "These": 4313,
      "Ġhot": 4314,
      "Ġop": 4315,
      "Ġmoney": 4316,
      "Ġquad": 4317,
      "Ġstri": 4318,
      "Ġauthors": 4319,
      "cr": 4320,
      "Ġ$$": 4321,
      "CS": 4322,
      "92": 4323,
      "anks": 4324,
      "rient": 4325,
      "mes": 4326,
      "Ġcompanies": 4327,
      "minist": 4328,
      "Ġappears": 4329,
      "Ġbul": 4330,
      "proposition": 4331,
      "Ġalthough": 4332,
      "App": 4333,
      "Ġtax": 4334,
      "Ġpairs": 4335,
      "function": 4336,
      "hbar": 4337,
      "nowled": 4338,
      "bold": 4339,
      "Ġbin": 4340,
      "OT": 4341,
      "tik": 4342,
      "ĠPresident": 4343,
      "produ": 4344,
      "arp": 4345,
      "Ġperfect": 4346,
      "stitute": 4347,
      "Ġstraight": 4348,
      "Ġeffic": 4349,
      "ĠIndia": 4350,
      "Ġmeasurement": 4351,
      "Ġlocation": 4352,
      "Ġwent": 4353,
      "Ġremain": 4354,
      "deed": 4355,
      "itable": 4356,
      "Ġfootball": 4357,
      "Ġdest": 4358,
      "Ġcosm": 4359,
      "culation": 4360,
      "magn": 4361,
      "Ġpolynomial": 4362,
      "Ġtravel": 4363,
      "Ġmonth": 4364,
      "Ġengine": 4365,
      "Ġdisk": 4366,
      "ilibrium": 4367,
      "oe": 4368,
      "Ġwebsite": 4369,
      "Ġargument": 4370,
      "Ġstable": 4371,
      "'}": 4372,
      "ĠSan": 4373,
      "à¤": 4374,
      "pret": 4375,
      "Ġsecurity": 4376,
      "'(": 4377,
      "Ġhours": 4378,
      "NR": 4379,
      "Ġdoesn": 4380,
      "Ġefficient": 4381,
      "Ġcontributions": 4382,
      "ĠHol": 4383,
      "Ġcat": 4384,
      "Ġsymbol": 4385,
      "|_{": 4386,
      "Ġfeed": 4387,
      "omb": 4388,
      "')": 4389,
      "ĠLaw": 4390,
      "Ġobserve": 4391,
      "Ġprofile": 4392,
      "Ġtransport": 4393,
      "ĠCollege": 4394,
      "ĠEar": 4395,
      "Ġestablished": 4396,
      "Ġpartition": 4397,
      "Ġcr": 4398,
      "SU": 4399,
      "Ġembedding": 4400,
      "&=&": 4401,
      "Ġanalog": 4402,
      "Ġwalk": 4403,
      "Ġflat": 4404,
      "Ġlargest": 4405,
      "mma": 4406,
      "Ġtransformation": 4407,
      "Ġimm": 4408,
      "Ġconvergence": 4409,
      "Ġbr": 4410,
      "Ġtold": 4411,
      "ĠHer": 4412,
      "Ġscattering": 4413,
      "Ġbelong": 4414,
      "Ġmasses": 4415,
      "ĠAmerica": 4416,
      "ese": 4417,
      "Ġclassification": 4418,
      "ĠLondon": 4419,
      "ading": 4420,
      "Ġabsor": 4421,
      ")+\\": 4422,
      "mc": 4423,
      "Ġmatch": 4424,
      "pose": 4425,
      "Ġproduce": 4426,
      "ĠEnglish": 4427,
      "energ": 4428,
      "Ġpo": 4429,
      "Ġredsh": 4430,
      "ĠPat": 4431,
      "Ġreduce": 4432,
      "ĠĠĠĠĊ": 4433,
      "oon": 4434,
      "RE": 4435,
      "ellow": 4436,
      "Ġconsists": 4437,
      "bi": 4438,
      "amental": 4439,
      "Ġcompare": 4440,
      "mass": 4441,
      "erved": 4442,
      "ampions": 4443,
      "Ġrunning": 4444,
      "ĠSw": 4445,
      "ĠOf": 4446,
      "Ġlum": 4447,
      "utive": 4448,
      "ĠInt": 4449,
      "89": 4450,
      "agraph": 4451,
      "Ġexam": 4452,
      "scill": 4453,
      "acing": 4454,
      "Ġbey": 4455,
      "PT": 4456,
      "Ġcollection": 4457,
      "ridge": 4458,
      "iral": 4459,
      "PC": 4460,
      "Be": 4461,
      "Ġplayer": 4462,
      "ded": 4463,
      "Ġdescription": 4464,
      "Ġbeyond": 4465,
      "Ġidentified": 4466,
      "Ġdesigned": 4467,
      "Ġsound": 4468,
      "Ġvisit": 4469,
      "Ġcategory": 4470,
      "Ġpractice": 4471,
      "umb": 4472,
      "ĠVal": 4473,
      "Ġerrors": 4474,
      "Ġcomputation": 4475,
      "Ġalign": 4476,
      "Ġactive": 4477,
      "ĠCont": 4478,
      "Ġhighly": 4479,
      "tikz": 4480,
      "Ġframe": 4481,
      "ĠBlack": 4482,
      "Ġallowed": 4483,
      "Ġforms": 4484,
      "}&": 4485,
      "flow": 4486,
      "Ġbasic": 4487,
      "Ġcontinue": 4488,
      "ĠRed": 4489,
      "Ġtechniques": 4490,
      "aign": 4491,
      "Ġsquare": 4492,
      "}{|": 4493,
      "Ġcoming": 4494,
      "Ġreson": 4495,
      "Ġrules": 4496,
      "86": 4497,
      "Ġ...": 4498,
      "72": 4499,
      "Ġdoing": 4500,
      "Ġveh": 4501,
      "Hz": 4502,
      "mical": 4503,
      "Ġcollect": 4504,
      "Ġways": 4505,
      "picture": 4506,
      "Ġ*": 4507,
      "Ġey": 4508,
      "rief": 4509,
      "ĠSta": 4510,
      "bon": 4511,
      "ifically": 4512,
      "See": 4513,
      "Ġvectors": 4514,
      "LS": 4515,
      "Ġappe": 4516,
      "Ġmemory": 4517,
      "ades": 4518,
      "Ġcareer": 4519,
      "ĠMor": 4520,
      "Ġmeasures": 4521,
      "ĠDem": 4522,
      "Ġinvolved": 4523,
      "osing": 4524,
      "Ġcontroll": 4525,
      "Ġpure": 4526,
      "iet": 4527,
      "ĠScience": 4528,
      "Ġcompletely": 4529,
      "Ġquestions": 4530,
      "GC": 4531,
      "using": 4532,
      "Ġmorph": 4533,
      "-$": 4534,
      "LP": 4535,
      ")}_{": 4536,
      "Ġthroughout": 4537,
      "Ġconnection": 4538,
      "ĠCOVID": 4539,
      "ribute": 4540,
      "Ġbelieve": 4541,
      "Ġmix": 4542,
      "Ġmentioned": 4543,
      "body": 4544,
      "Ġant": 4545,
      "Ġoperations": 4546,
      "Ġaccur": 4547,
      "rons": 4548,
      "war": 4549,
      "Ġexcit": 4550,
      "Ġclearly": 4551,
      "Ġshowed": 4552,
      "Ġregime": 4553,
      "Ġcru": 4554,
      "Ġincreased": 4555,
      "Ġinsp": 4556,
      "Ġprotect": 4557,
      "76": 4558,
      "cation": 4559,
      "}$)": 4560,
      "oto": 4561,
      "Ġconcent": 4562,
      "Âł": 4563,
      "LO": 4564,
      "Sc": 4565,
      "Ġoscill": 4566,
      "roll": 4567,
      "1998": 4568,
      "ocol": 4569,
      "Not": 4570,
      "ishes": 4571,
      "ĠPo": 4572,
      "Ġsatisfy": 4573,
      ")-\\": 4574,
      "ĠWork": 4575,
      "}}$,": 4576,
      "Ġearlier": 4577,
      "elt": 4578,
      "oding": 4579,
      "Ġgenerally": 4580,
      "ĠJapan": 4581,
      "asons": 4582,
      "}{(": 4583,
      "Ġmeaning": 4584,
      "Ġselection": 4585,
      "$),": 4586,
      "}}$.": 4587,
      "ancy": 4588,
      "})$,": 4589,
      "Ġprediction": 4590,
      "den": 4591,
      "icity": 4592,
      "irect": 4593,
      "Ġvs": 4594,
      "Ġexpand": 4595,
      "ĠAir": 4596,
      "ington": 4597,
      "Ġextension": 4598,
      "ĠAng": 4599,
      "iforn": 4600,
      "Ġvisual": 4601,
      "SC": 4602,
      "seud": 4603,
      "Ġcombination": 4604,
      "MR": 4605,
      "Ġassumed": 4606,
      ")},": 4607,
      "Ġhttps": 4608,
      "Ġstring": 4609,
      "istical": 4610,
      "ius": 4611,
      "Ġamplitude": 4612,
      "Ġhit": 4613,
      "Ġmag": 4614,
      "Ġbuild": 4615,
      "84": 4616,
      "eck": 4617,
      "ĠCour": 4618,
      "Ġround": 4619,
      "udes": 4620,
      "Ġoffer": 4621,
      "Ġcoordinates": 4622,
      "Ġbal": 4623,
      "Ġliterature": 4624,
      "Ġled": 4625,
      "Ġselect": 4626,
      "ĠAc": 4627,
      "Ġcells": 4628,
      "ĠFin": 4629,
      "Ġcalculations": 4630,
      "hand": 4631,
      "After": 4632,
      "Ġrelease": 4633,
      ":}": 4634,
      "Ġvariety": 4635,
      "Ġago": 4636,
      "ests": 4637,
      "cref": 4638,
      "Ġcounter": 4639,
      "Ġqual": 4640,
      "Ġtown": 4641,
      "EM": 4642,
      "ipage": 4643,
      "Ġextra": 4644,
      "))$": 4645,
      "Ġdifferential": 4646,
      "Ar": 4647,
      "cong": 4648,
      "Ġformal": 4649,
      "Ġphen": 4650,
      "minipage": 4651,
      "ressed": 4652,
      "aj": 4653,
      "Ġmagnitude": 4654,
      "Introduction": 4655,
      "ĠDepartment": 4656,
      "300": 4657,
      "Ġ$|\\": 4658,
      "Ġconfiguration": 4659,
      "Ġpreviously": 4660,
      "Ġmid": 4661,
      "Ġprimary": 4662,
      "ael": 4663,
      ")}}": 4664,
      "79": 4665,
      "term": 4666,
      "ĠĠĠĠĠĠĠĠĠĠ": 4667,
      "itely": 4668,
      "Ġparent": 4669,
      "Ġstrength": 4670,
      "ples": 4671,
      "Ġinterval": 4672,
      "Ġnucle": 4673,
      "Ġelectric": 4674,
      "Ġrelationship": 4675,
      "Ġbur": 4676,
      "ifornia": 4677,
      "ogle": 4678,
      "Ġ\\&": 4679,
      "ibly": 4680,
      "Ġrecomm": 4681,
      "well": 4682,
      "Ġlack": 4683,
      "oph": 4684,
      "attle": 4685,
      "ĠGroup": 4686,
      "Ġexisting": 4687,
      "ached": 4688,
      "Ġclusters": 4689,
      "ervation": 4690,
      "'re": 4691,
      "Ġlif": 4692,
      "Ġfluct": 4693,
      "Ġstyle": 4694,
      "Ġcle": 4695,
      "Ġwide": 4696,
      "ĠTV": 4697,
      "Ġinner": 4698,
      "Ġinduced": 4699,
      "DA": 4700,
      "Ġhorizon": 4701,
      "Ġbegan": 4702,
      "Ġscore": 4703,
      "ĠTrans": 4704,
      "SM": 4705,
      "Ġcalculation": 4706,
      "que": 4707,
      "Ġgeneration": 4708,
      "ĠAssoci": 4709,
      "pid": 4710,
      ",\\\\": 4711,
      "Ġwa": 4712,
      "ogeneous": 4713,
      "ĠDr": 4714,
      "Ġbehavi": 4715,
      "Ġgreater": 4716,
      "Ġdistinct": 4717,
      "Ġorient": 4718,
      "ĠUK": 4719,
      "Ġadvanta": 4720,
      "Ġsaf": 4721,
      "Ġobservation": 4722,
      "Ġkin": 4723,
      "[(": 4724,
      "iter": 4725,
      "Ġcam": 4726,
      "Ġmanagement": 4727,
      "ĠSub": 4728,
      "ini": 4729,
      "omic": 4730,
      "ĠChina": 4731,
      "ems": 4732,
      "ĠGreen": 4733,
      "Ġunits": 4734,
      "Ġmaintain": 4735,
      "Ġwall": 4736,
      "ifying": 4737,
      "overy": 4738,
      "Ġgenerate": 4739,
      "Ġdevi": 4740,
      "Ġfix": 4741,
      "rench": 4742,
      "Ġgetting": 4743,
      "Ġconclude": 4744,
      "Ġabsol": 4745,
      "Ġult": 4746,
      "Ġring": 4747,
      "istory": 4748,
      "ifferen": 4749,
      "ĠTechn": 4750,
      "antic": 4751,
      "~~~~": 4752,
      "comple": 4753,
      "ayer": 4754,
      "Ġdetailed": 4755,
      "Ġheart": 4756,
      "Ġnotation": 4757,
      ".$": 4758,
      "Ġnovel": 4759,
      "ya": 4760,
      "Ġtheoretical": 4761,
      "ĠOff": 4762,
      "Ġminimal": 4763,
      "net": 4764,
      "ĠFl": 4765,
      "Ġtrain": 4766,
      "edom": 4767,
      "Is": 4768,
      "ien": 4769,
      "91": 4770,
      "omin": 4771,
      "ĠĠĠĠĠĠĠĠĠĠĠĠĠĠĠ": 4772,
      "perim": 4773,
      "Ġthick": 4774,
      "uit": 4775,
      "Ġpolitical": 4776,
      "Ġassess": 4777,
      "Ġcurrently": 4778,
      "opic": 4779,
      "Ġreduction": 4780,
      "arter": 4781,
      "Ġdifferences": 4782,
      "Ġtre": 4783,
      "Ġacqu": 4784,
      "Ġaccom": 4785,
      "83": 4786,
      "Ġgap": 4787,
      "Therefore": 4788,
      "Ġpick": 4789,
      "Ġappropriate": 4790,
      "joy": 4791,
      "74": 4792,
      "arent": 4793,
      "ĠSur": 4794,
      "illing": 4795,
      "Ġanti": 4796,
      "Ġ[\\": 4797,
      "73": 4798,
      "Ġstrongly": 4799,
      "Ġpoly": 4800,
      "Ġideal": 4801,
      "Ġbeam": 4802,
      "Ġoperation": 4803,
      "erg": 4804,
      "Ġrelatively": 4805,
      "Ġvary": 4806,
      "this": 4807,
      "Ġbinary": 4808,
      "Ġdisplay": 4809,
      "Ġtrac": 4810,
      "ĠSpec": 4811,
      "ros": 4812,
      "iece": 4813,
      "local": 4814,
      "ulate": 4815,
      "Ġrepresented": 4816,
      "Se": 4817,
      "82": 4818,
      "Ġtele": 4819,
      "Ġwatch": 4820,
      "Ġremark": 4821,
      "Ġenerg": 4822,
      "rot": 4823,
      "Ġslightly": 4824,
      "Ġthermal": 4825,
      "Ġdise": 4826,
      "ville": 4827,
      "Ġcov": 4828,
      "ometric": 4829,
      "Ġpage": 4830,
      "Ġexcept": 4831,
      "Ġreveal": 4832,
      "IF": 4833,
      "estern": 4834,
      "ĠSen": 4835,
      "1999": 4836,
      "Ġ@": 4837,
      "mann": 4838,
      "Ġgradient": 4839,
      "eria": 4840,
      "ĠStreet": 4841,
      "height": 4842,
      "\\;": 4843,
      "Ġstream": 4844,
      "Ġtasks": 4845,
      "Finally": 4846,
      "Ġuncertainty": 4847,
      "column": 4848,
      "elli": 4849,
      "Ġoptimization": 4850,
      "ilitary": 4851,
      "IG": 4852,
      "Ġthreshold": 4853,
      "Ġannounced": 4854,
      "Ġgraphs": 4855,
      "Ġrepe": 4856,
      "iable": 4857,
      "rd": 4858,
      "esign": 4859,
      "ny": 4860,
      "${\\": 4861,
      "ĠWilliam": 4862,
      "Ġunivers": 4863,
      "dex": 4864,
      "Ġdocument": 4865,
      "Ġconsidering": 4866,
      "Ġ%": 4867,
      "Ġsegment": 4868,
      "Ġnamed": 4869,
      "ĠRepublic": 4870,
      "ĠBritish": 4871,
      "ĠFinally": 4872,
      "Ġreconst": 4873,
      "maz": 4874,
      "unic": 4875,
      "ament": 4876,
      "}\\,\\": 4877,
      "rol": 4878,
      "Ġfollowed": 4879,
      "force": 4880,
      "Ġfunctional": 4881,
      "BS": 4882,
      "DM": 4883,
      "Ġdecl": 4884,
      "Ġhighest": 4885,
      "ĠMat": 4886,
      "Ġscaling": 4887,
      "itivity": 4888,
      "rick": 4889,
      "Ġbottom": 4890,
      "Ġmassive": 4891,
      "Ġability": 4892,
      "Ġleaders": 4893,
      "CP": 4894,
      "Ġdate": 4895,
      "wood": 4896,
      "sect": 4897,
      "Ġinteger": 4898,
      "ka": 4899,
      "tfrac": 4900,
      "Ġsubst": 4901,
      "ĠEuropean": 4902,
      "ench": 4903,
      "ani": 4904,
      "Ġaspect": 4905,
      "Ġscales": 4906,
      "example": 4907,
      "Ġtypical": 4908,
      "Ġetc": 4909,
      "Ġlost": 4910,
      "iring": 4911,
      "]}": 4912,
      "Ġworth": 4913,
      "Ġparticularly": 4914,
      "tun": 4915,
      "Ġbad": 4916,
      "ĠBay": 4917,
      "Ġjoint": 4918,
      "Ġjob": 4919,
      "Sec": 4920,
      "abil": 4921,
      "enge": 4922,
      "Ġparallel": 4923,
      "Ġcoefficient": 4924,
      "Ġparty": 4925,
      "]{\\": 4926,
      "Ġremaining": 4927,
      "Ġunderstanding": 4928,
      "Ġtraject": 4929,
      "Ġinterpret": 4930,
      "Ġinternational": 4931,
      "Ġexponential": 4932,
      "Ġlayers": 4933,
      "Ġobvious": 4934,
      "witter": 4935,
      "Ġprivate": 4936,
      "Ġactivity": 4937,
      "uge": 4938,
      "Ġsubsequ": 4939,
      "$:": 4940,
      "Ġmes": 4941,
      "rump": 4942,
      "ĠAut": 4943,
      "Ġneighbor": 4944,
      "Ġproport": 4945,
      "riz": 4946,
      "1997": 4947,
      "alysis": 4948,
      "Ġtor": 4949,
      "cccc": 4950,
      "Ġfair": 4951,
      "ĠCalifornia": 4952,
      "OM": 4953,
      "ederal": 4954,
      "Ġhistor": 4955,
      "alog": 4956,
      "Ġheavy": 4957,
      "Ġproved": 4958,
      "sur": 4959,
      "Ġdro": 4960,
      "ĠArm": 4961,
      "ba": 4962,
      "No": 4963,
      "Ġgreen": 4964,
      "urity": 4965,
      "Ġcool": 4966,
      "Ġvirt": 4967,
      "$_{": 4968,
      "NA": 4969,
      "Ġhydro": 4970,
      "Ġdimensions": 4971,
      "Ġgoes": 4972,
      "Ġcircle": 4973,
      "ipal": 4974,
      "uli": 4975,
      "olar": 4976,
      "Mod": 4977,
      "Ġfundamental": 4978,
      "81": 4979,
      "1996": 4980,
      "CH": 4981,
      "^*$": 4982,
      "ĠJust": 4983,
      "ĠDis": 4984,
      "]$.": 4985,
      "Ġorth": 4986,
      "ollowing": 4987,
      "Ġcred": 4988,
      "Ġsil": 4989,
      "While": 4990,
      "Ġcycle": 4991,
      "Ġmind": 4992,
      "Ġstaff": 4993,
      "Ġdiscrete": 4994,
      "Ġ${": 4995,
      "Ġangular": 4996,
      "ĠGovern": 4997,
      "ĠDay": 4998,
      "Ġbrand": 4999,
      "wa": 5000,
      "vol": 5001,
      "bel": 5002,
      "Ġexc": 5003,
      "Ġotherwise": 5004,
      "Ġharm": 5005,
      "Ġroom": 5006,
      ",{\\": 5007,
      "Ġdatasets": 5008,
      "[-": 5009,
      "oice": 5010,
      "Ġgrid": 5011,
      "Ġhope": 5012,
      "Ġexpressed": 5013,
      "hal": 5014,
      "Ġkernel": 5015,
      "Ġhole": 5016,
      "ĠInter": 5017,
      "diag": 5018,
      "Ġinfinite": 5019,
      "Ne": 5020,
      "ĠSome": 5021,
      "Ġshift": 5022,
      "hern": 5023,
      "ĠAlso": 5024,
      "First": 5025,
      "Ġefficiency": 5026,
      "ĠHig": 5027,
      "Ġthemselves": 5028,
      "gu": 5029,
      "Ġluminos": 5030,
      "lig": 5031,
      "aker": 5032,
      "Ġnearly": 5033,
      "Ġhypothes": 5034,
      "Ġdepth": 5035,
      "Ġprice": 5036,
      "miss": 5037,
      "Ġentropy": 5038,
      "blue": 5039,
      "pto": 5040,
      "Ġdecomposition": 5041,
      "Ġaxis": 5042,
      "oke": 5043,
      "TS": 5044,
      "Ġsoftware": 5045,
      "Fe": 5046,
      "istry": 5047,
      "Ġrotation": 5048,
      "ĠFurthermore": 5049,
      "Ġindicates": 5050,
      "pir": 5051,
      "Ġcountries": 5052,
      "ĠSM": 5053,
      "ilarly": 5054,
      "Ġprobably": 5055,
      "Ġinj": 5056,
      "orge": 5057,
      "Ġwoman": 5058,
      "ida": 5059,
      "Ġphenomen": 5060,
      "Ġacceler": 5061,
      "Ġstay": 5062,
      "rab": 5063,
      ",$": 5064,
      "|}{": 5065,
      "ĠDavid": 5066,
      "External": 5067,
      "=\"": 5068,
      "Ġsector": 5069,
      "Ġcomplexity": 5070,
      "Ġevaluation": 5071,
      "cat": 5072,
      "iverse": 5073,
      "Ġexternal": 5074,
      "0000": 5075,
      "Ġdenoted": 5076,
      "Ġhon": 5077,
      "Ġscreen": 5078,
      "emark": 5079,
      "Ġcampaign": 5080,
      "dfrac": 5081,
      "dy": 5082,
      "Ġscenario": 5083,
      "Ġtrained": 5084,
      "ĠOther": 5085,
      "Ġfinancial": 5086,
      "ki": 5087,
      "Ġconvex": 5088,
      "Ġapproximately": 5089,
      "bigl": 5090,
      "Ġguaran": 5091,
      "Ġsex": 5092,
      "Ġimag": 5093,
      "Ġextrem": 5094,
      "obile": 5095,
      "Ġcause": 5096,
      "oder": 5097,
      "load": 5098,
      ",\\,\\": 5099,
      "scriptstyle": 5100,
      "ĠUsing": 5101,
      "71": 5102,
      "Bl": 5103,
      "ĠÐ": 5104,
      "ica": 5105,
      "onical": 5106,
      "Ġeducation": 5107,
      "pg": 5108,
      "IP": 5109,
      "Ġferm": 5110,
      "ĠIndian": 5111,
      ";\\;\\": 5112,
      "\\}$.": 5113,
      "lands": 5114,
      "ivil": 5115,
      "rian": 5116,
      "Ġelse": 5117,
      "Ġepis": 5118,
      "Ġpurpose": 5119,
      "\\)": 5120,
      "))\\": 5121,
      "bt": 5122,
      "Ġclub": 5123,
      "Ġrobust": 5124,
      "ospital": 5125,
      "Ġion": 5126,
      "Ġbund": 5127,
      "GB": 5128,
      "Using": 5129,
      "Ġincor": 5130,
      "Ġtun": 5131,
      "Ġgravit": 5132,
      "ĠInstitute": 5133,
      "Ġsatisfying": 5134,
      "brace": 5135,
      "uil": 5136,
      "scriptsize": 5137,
      "ĠCanada": 5138,
      "Ġutil": 5139,
      "bigr": 5140,
      "Ġbright": 5141,
      "vature": 5142,
      "Ġonto": 5143,
      "Ġâ": 5144,
      "Ġfire": 5145,
      "kes": 5146,
      "Ġsolve": 5147,
      "Ġcontaining": 5148,
      "Ġloop": 5149,
      "Ġdigital": 5150,
      "Ġcombined": 5151,
      "Ġsoon": 5152,
      "Ġreflect": 5153,
      "ras": 5154,
      "Ġlemma": 5155,
      "etime": 5156,
      "UR": 5157,
      "ĠDec": 5158,
      "Ġgirl": 5159,
      "Ġgets": 5160,
      "acc": 5161,
      "ĠCa": 5162,
      "Ġbounds": 5163,
      "Ġcard": 5164,
      "Ġbos": 5165,
      "rie": 5166,
      "clusions": 5167,
      "]$,": 5168,
      "Ġprogress": 5169,
      "case": 5170,
      "Ġinternal": 5171,
      "then": 5172,
      "Ġasked": 5173,
      "Ġsurv": 5174,
      "mas": 5175,
      "Ġtren": 5176,
      "SI": 5177,
      "sat": 5178,
      "two": 5179,
      "ifferent": 5180,
      "itions": 5181,
      "ĠCouncil": 5182,
      "kin": 5183,
      "|-": 5184,
      "Ġdam": 5185,
      "Ã¡": 5186,
      ":=": 5187,
      "Ġ\\!": 5188,
      "floor": 5189,
      "Ġlimits": 5190,
      "}}_{\\": 5191,
      "Te": 5192,
      "Ġconstructed": 5193,
      "En": 5194,
      "Ġheight": 5195,
      "ologies": 5196,
      "ĠLeague": 5197,
      "Ġassist": 5198,
      "utation": 5199,
      "Ġroad": 5200,
      "ĠOut": 5201,
      "Ġmor": 5202,
      "Ġestablish": 5203,
      "Ġmachine": 5204,
      "Ġrights": 5205,
      "Ġphysics": 5206,
      "hol": 5207,
      "faces": 5208,
      "Ġruns": 5209,
      "Ġimmediately": 5210,
      "ĠLie": 5211,
      "ĠEach": 5212,
      "Ġ\\]": 5213,
      "Ġtitle": 5214,
      "Ġwriting": 5215,
      "Ġfem": 5216,
      "Ġenjoy": 5217,
      "Ġcalculate": 5218,
      "lesssim": 5219,
      "herent": 5220,
      "lement": 5221,
      "Ġindicate": 5222,
      "reme": 5223,
      "ĠFound": 5224,
      "cknowled": 5225,
      "Ġinfluence": 5226,
      "Ġresources": 5227,
      "agement": 5228,
      "ĠPre": 5229,
      "Ġfine": 5230,
      "Ġmoving": 5231,
      "ĠGod": 5232,
      "ĠST": 5233,
      "Ġneutr": 5234,
      "Ġrapid": 5235,
      "idden": 5236,
      "Ġarriv": 5237,
      "avel": 5238,
      "ico": 5239,
      "Ġpolice": 5240,
      "Ġsuff": 5241,
      "Ġbenef": 5242,
      "^{*": 5243,
      "}})": 5244,
      "ĠSat": 5245,
      "Ġ&&": 5246,
      "requ": 5247,
      "Ġusual": 5248,
      "Ġeight": 5249,
      "Ġvict": 5250,
      "Ġdemand": 5251,
      ")--": 5252,
      "IV": 5253,
      "}[\\": 5254,
      "$&": 5255,
      "ĠĠĠĠĠĠĠĠĠĠĠĠ": 5256,
      "ĠReview": 5257,
      "Ġtesting": 5258,
      "ĠHall": 5259,
      "path": 5260,
      "ĠPal": 5261,
      "Ġnothing": 5262,
      "Ġagent": 5263,
      "yset": 5264,
      "Sch": 5265,
      "Ġfinally": 5266,
      "iant": 5267,
      "circle": 5268,
      "Ġmultiplic": 5269,
      "400": 5270,
      "Ġpen": 5271,
      "Ġactions": 5272,
      "Ġachieved": 5273,
      "Next": 5274,
      "vised": 5275,
      "Ġpartial": 5276,
      "aily": 5277,
      "Ġoppos": 5278,
      "Ġmodern": 5279,
      "ĠVir": 5280,
      "CM": 5281,
      "DP": 5282,
      "uum": 5283,
      "Ġdust": 5284,
      "ih": 5285,
      "amily": 5286,
      "algorithm": 5287,
      "Ġcourt": 5288,
      "ibrary": 5289,
      "Ġplaying": 5290,
      "BA": 5291,
      "Ġequilibrium": 5292,
      "Ġrepresentations": 5293,
      "real": 5294,
      "Ġrac": 5295,
      "ĠLag": 5296,
      "Ġbrief": 5297,
      "roun": 5298,
      "Ġsections": 5299,
      "such": 5300,
      "SE": 5301,
      "Ġborn": 5302,
      "Ġliving": 5303,
      "bran": 5304,
      "ĠWil": 5305,
      "Ġoffice": 5306,
      "Ġgeometry": 5307,
      "forward": 5308,
      "Ġpresident": 5309,
      "bmatrix": 5310,
      "related": 5311,
      "Ġ;": 5312,
      "Ġspread": 5313,
      "Ġestimation": 5314,
      "emptyset": 5315,
      "Ġrise": 5316,
      "Ġtypically": 5317,
      "Ġtempor": 5318,
      "Ġweights": 5319,
      "Ġminutes": 5320,
      "gent": 5321,
      "iding": 5322,
      "Col": 5323,
      "data": 5324,
      "Ġcollabor": 5325,
      "Ġodd": 5326,
      "}}}\\": 5327,
      "Ġvot": 5328,
      "Ġfight": 5329,
      "Ġisomorphism": 5330,
      "ĠGeneral": 5331,
      "Ġsurpr": 5332,
      "ees": 5333,
      "while": 5334,
      "Ġshowing": 5335,
      "Ġconvers": 5336,
      "Ġcele": 5337,
      "Ġrecall": 5338,
      "Ġworked": 5339,
      "][]{": 5340,
      "Ġten": 5341,
      "ĠBel": 5342,
      "mathop": 5343,
      "cd": 5344,
      "ĠProgram": 5345,
      "Ġinteract": 5346,
      "Ġproviding": 5347,
      "ĠSuper": 5348,
      "Ġsites": 5349,
      "Ġpix": 5350,
      "bed": 5351,
      "run": 5352,
      "Ġprojection": 5353,
      "useum": 5354,
      "eks": 5355,
      "defined": 5356,
      "oo": 5357,
      "Ġcomment": 5358,
      "ufact": 5359,
      "})=": 5360,
      "ona": 5361,
      "check": 5362,
      "ĠMal": 5363,
      "joint": 5364,
      "raz": 5365,
      "river": 5366,
      "Ġstatistical": 5367,
      "Ġnoted": 5368,
      "Ġgiving": 5369,
      "squ": 5370,
      "hemat": 5371,
      "SF": 5372,
      "ĠEast": 5373,
      "Ġcommunication": 5374,
      "ensities": 5375,
      "Ġcoordinate": 5376,
      "Ġindeed": 5377,
      "})}": 5378,
      "ashington": 5379,
      "Ġinfl": 5380,
      "Qu": 5381,
      "han": 5382,
      "Ġjud": 5383,
      "Ġsummar": 5384,
      "inger": 5385,
      "Ġsaw": 5386,
      "ĠGal": 5387,
      "Ġevaluate": 5388,
      "||": 5389,
      "isely": 5390,
      "Ġfilms": 5391,
      "Ġbeginning": 5392,
      "Ġstrict": 5393,
      "Ġpredicted": 5394,
      "leg": 5395,
      "Ġstress": 5396,
      "Ġenergies": 5397,
      "Ġresol": 5398,
      "Ġoffers": 5399,
      "poses": 5400,
      "vest": 5401,
      "yr": 5402,
      "mitted": 5403,
      "...,": 5404,
      "{{": 5405,
      "ifts": 5406,
      "Ġfamil": 5407,
      "Ġsurvey": 5408,
      "ĠCourt": 5409,
      "za": 5410,
      "xx": 5411,
      "ĠAssum": 5412,
      "longrightarrow": 5413,
      "vee": 5414,
      "apers": 5415,
      "apter": 5416,
      "Ġheat": 5417,
      "Ġdevice": 5418,
      "Ġconstit": 5419,
      "Ġanswer": 5420,
      "Ġeverything": 5421,
      "formal": 5422,
      "Ġsemi": 5423,
      "nel": 5424,
      "$};": 5425,
      "MM": 5426,
      "Ġcm": 5427,
      "PP": 5428,
      "Ġarchitecture": 5429,
      "Ġ$.": 5430,
      "ĠAlthough": 5431,
      "aur": 5432,
      "ĠAppendix": 5433,
      "ĠThom": 5434,
      "Ġleave": 5435,
      "ION": 5436,
      "Ġinverse": 5437,
      "Ġvill": 5438,
      "1995": 5439,
      "haps": 5440,
      "Ġorbit": 5441,
      "Ġintegration": 5442,
      "Ġsolar": 5443,
      "Ġtechnique": 5444,
      "Ġexchange": 5445,
      "ĠYear": 5446,
      "Co": 5447,
      "Ġvacc": 5448,
      "Ġsufficiently": 5449,
      "phant": 5450,
      "Ġtrying": 5451,
      "Ġstop": 5452,
      "rosc": 5453,
      "gener": 5454,
      "ston": 5455,
      "Ġfir": 5456,
      "Ġson": 5457,
      "}}.": 5458,
      "Ġvariation": 5459,
      "ĠDan": 5460,
      "ĠAustralia": 5461,
      "Ġwhereas": 5462,
      "asc": 5463,
      "CT": 5464,
      "Ġredshift": 5465,
      "ga": 5466,
      "ĠIR": 5467,
      "EO": 5468,
      "ils": 5469,
      "Ġconj": 5470,
      "jective": 5471,
      "Ġdepending": 5472,
      "Ġfather": 5473,
      "Ġalternative": 5474,
      "alse": 5475,
      "Ġabund": 5476,
      "Ġneural": 5477,
      "Ġimplic": 5478,
      "Ġfriend": 5479,
      "SR": 5480,
      "Ġfavor": 5481,
      "ĠBest": 5482,
      "ether": 5483,
      "})^": 5484,
      "ĠEurope": 5485,
      "Ġcapacity": 5486,
      "ĠEv": 5487,
      "Ġteams": 5488,
      "ĠBook": 5489,
      "Ġstability": 5490,
      "Ab": 5491,
      "algebra": 5492,
      "Ġpseud": 5493,
      "ander": 5494,
      "Ġcontained": 5495,
      "Ġreplace": 5496,
      "Ġdetected": 5497,
      "CA": 5498,
      "Ġtraditional": 5499,
      "win": 5500,
      "Ġscient": 5501,
      "Ġsynthe": 5502,
      "Ġfamilies": 5503,
      "Ġdistributed": 5504,
      "ĠRuss": 5505,
      "Ġcharacteristic": 5506,
      "stead": 5507,
      "iota": 5508,
      "Ġmaxim": 5509,
      "Ġpicture": 5510,
      "Ġkm": 5511,
      "Ġgradu": 5512,
      "Ġoccurs": 5513,
      "150": 5514,
      "paragraph": 5515,
      "rote": 5516,
      "Ġbeaut": 5517,
      "ĠSystem": 5518,
      "ano": 5519,
      "Ġdiagonal": 5520,
      "Ġpositions": 5521,
      "Ġmother": 5522,
      ")}_": 5523,
      "Ġforces": 5524,
      "ĠMr": 5525,
      "ĠEngland": 5526,
      "Ġtrade": 5527,
      "Ġaward": 5528,
      "Ġmanifold": 5529,
      "Ġfreedom": 5530,
      "Ġinterested": 5531,
      "results": 5532,
      "Americ": 5533,
      "Ġcloud": 5534,
      "unction": 5535,
      "Ġpredictions": 5536,
      "}~": 5537,
      "cret": 5538,
      "ĠProf": 5539,
      "ĠPost": 5540,
      "ochastic": 5541,
      "ĠData": 5542,
      "Pr": 5543,
      "sch": 5544,
      "Ġhimself": 5545,
      "Ġthank": 5546,
      "Ġbias": 5547,
      "contin": 5548,
      "Cor": 5549,
      "poss": 5550,
      "Ġamb": 5551,
      "Ġanything": 5552,
      "Ġchannels": 5553,
      "Ġrelax": 5554,
      "Ġmedical": 5555,
      "Ġformed": 5556,
      "ĠLeg": 5557,
      "Ġscience": 5558,
      "super": 5559,
      "ountain": 5560,
      "tiny": 5561,
      "ĠFrench": 5562,
      "pton": 5563,
      "Ġdegrees": 5564,
      "Ġtour": 5565,
      "Ġ^": 5566,
      "Ġmotiv": 5567,
      "Ġassumptions": 5568,
      "ĠVol": 5569,
      "Ġnamely": 5570,
      "ĠPort": 5571,
      "}}^{\\": 5572,
      "Ġ$,": 5573,
      "|}": 5574,
      "Ġ({\\": 5575,
      "Ġprinciple": 5576,
      "----": 5577,
      "actic": 5578,
      "Ġcharacters": 5579,
      "phys": 5580,
      "Ġpartners": 5581,
      "Ġboard": 5582,
      "Ġoccup": 5583,
      "Ste": 5584,
      "ĠAre": 5585,
      "Ġphoton": 5586,
      "ING": 5587,
      "vention": 5588,
      "Ġapplying": 5589,
      "Ġ\\(\\": 5590,
      "plot": 5591,
      "trivial": 5592,
      "ĠJames": 5593,
      "ifies": 5594,
      "Ġsampling": 5595,
      "Ġconsequence": 5596,
      "rought": 5597,
      "Ġlatest": 5598,
      "ski": 5599,
      "Ġ{$": 5600,
      "Ġradiation": 5601,
      "ND": 5602,
      "ags": 5603,
      "}_{-": 5604,
      "arse": 5605,
      "Ġgave": 5606,
      "tem": 5607,
      "Ġdra": 5608,
      "bras": 5609,
      "Ġactual": 5610,
      "Ġdevices": 5611,
      "system": 5612,
      "ĠPlan": 5613,
      "km": 5614,
      "rial": 5615,
      "Ġfriends": 5616,
      "Ġnuclear": 5617,
      "LA": 5618,
      "cf": 5619,
      "Ġimplementation": 5620,
      "Ġaccurate": 5621,
      "Ġexplained": 5622,
      "ita": 5623,
      "ĠRober": 5624,
      "vect": 5625,
      "chang": 5626,
      "Ġes": 5627,
      "ĠOb": 5628,
      "ĠMart": 5629,
      "Ġmaximal": 5630,
      "ĠCap": 5631,
      "uman": 5632,
      "Ġthreat": 5633,
      "Section": 5634,
      "Ġ^{": 5635,
      "Ġsomeone": 5636,
      "Ġdivid": 5637,
      "nam": 5638,
      "ĠJack": 5639,
      "rich": 5640,
      "Ġsyste": 5641,
      "ĠAG": 5642,
      "Ġpull": 5643,
      "Ġreading": 5644,
      "ĠUnder": 5645,
      "ago": 5646,
      "Ġquickly": 5647,
      "Ġtim": 5648,
      "born": 5649,
      "}$}": 5650,
      "Ġcaused": 5651,
      "+(": 5652,
      "itative": 5653,
      "writ": 5654,
      "Ġasymptotic": 5655,
      "olf": 5656,
      "Ġluminosity": 5657,
      "error": 5658,
      "Ġconven": 5659,
      "UT": 5660,
      "Ġcurvature": 5661,
      "ĠIndeed": 5662,
      "Ġunderlying": 5663,
      "avelength": 5664,
      "Ġroot": 5665,
      "ĠTex": 5666,
      "Ġproceed": 5667,
      "Ġadvantage": 5668,
      "Ġlegal": 5669,
      "That": 5670,
      "Ġnonlinear": 5671,
      "Ġmarg": 5672,
      "ĠClass": 5673,
      "Ġcarry": 5674,
      "ĠDire": 5675,
      "DS": 5676,
      "Ġprevent": 5677,
      "ĠRich": 5678,
      "Ġderivative": 5679,
      "edy": 5680,
      "Ġdispers": 5681,
      "Ġtopological": 5682,
      "ĠBer": 5683,
      "}}=": 5684,
      "weight": 5685,
      "gebras": 5686,
      "Ġevol": 5687,
      "ĠAnn": 5688,
      "ĠWhite": 5689,
      "Ġdiver": 5690,
      "cial": 5691,
      "Im": 5692,
      "Sub": 5693,
      "Ġtrivial": 5694,
      "Ġmaterials": 5695,
      "emy": 5696,
      "Ġconstants": 5697,
      "\\}\\": 5698,
      "length": 5699,
      "Ġchemical": 5700,
      "Ġcoinc": 5701,
      "Ġstudent": 5702,
      "Ġelectro": 5703,
      "Ġcentury": 5704,
      "1990": 5705,
      "Ġeveryone": 5706,
      "Ġmiddle": 5707,
      "Ġactivities": 5708,
      "Ġwanted": 5709,
      "Ġcandidate": 5710,
      "ror": 5711,
      "ĠDistrict": 5712,
      "magnetic": 5713,
      "Ġrace": 5714,
      "1000": 5715,
      "ship": 5716,
      "columnwidth": 5717,
      "uting": 5718,
      "Ġstated": 5719,
      "rug": 5720,
      "ĠFil": 5721,
      "ira": 5722,
      "Ġrough": 5723,
      "Ġplanet": 5724,
      "Ġ}{": 5725,
      "Ġisn": 5726,
      "sis": 5727,
      "Ġcomputational": 5728,
      "Ġtools": 5729,
      "rust": 5730,
      "isl": 5731,
      "Ġdead": 5732,
      "multirow": 5733,
      "called": 5734,
      "tage": 5735,
      "Ġsafety": 5736,
      "mosp": 5737,
      "ĠGra": 5738,
      "unt": 5739,
      "Ġlives": 5740,
      "Set": 5741,
      "ourier": 5742,
      "otion": 5743,
      "arr": 5744,
      "Ġweeks": 5745,
      "she": 5746,
      "Ð¾": 5747,
      "Ġdistingu": 5748,
      "aching": 5749,
      "Ġcomputer": 5750,
      "izer": 5751,
      "Ġradial": 5752,
      "Ġmapping": 5753,
      "Ġattract": 5754,
      "Ġderive": 5755,
      "Ġeq": 5756,
      "Proof": 5757,
      "FL": 5758,
      "figures": 5759,
      "Ġimportance": 5760,
      "/(": 5761,
      "awa": 5762,
      "ession": 5763,
      "rical": 5764,
      "cho": 5765,
      "Ġmodule": 5766,
      "Ġseparate": 5767,
      "ĠRob": 5768,
      "SL": 5769,
      "MA": 5770,
      "\\}$,": 5771,
      "heta": 5772,
      "PA": 5773,
      "RO": 5774,
      "ĠEdu": 5775,
      "Ġdisease": 5776,
      "Ġshared": 5777,
      "Ġcouple": 5778,
      "Ġswit": 5779,
      "ĠFoundation": 5780,
      "slash": 5781,
      "ĠOver": 5782,
      "ĠArch": 5783,
      "Ġindividuals": 5784,
      "vart": 5785,
      "rect": 5786,
      "ĠSeries": 5787,
      "inated": 5788,
      "Ġinvestigate": 5789,
      "aven": 5790,
      "1994": 5791,
      "ĠPaul": 5792,
      "HS": 5793,
      "Ġprojects": 5794,
      "gest": 5795,
      "Ġconvention": 5796,
      "ĠWashington": 5797,
      "Ġprograms": 5798,
      "Ġgeneralized": 5799,
      "ĠGeV": 5800,
      "ĠYour": 5801,
      "ĠKe": 5802,
      "ĠBi": 5803,
      "Pe": 5804,
      "Ġtheories": 5805,
      "Ġfilter": 5806,
      "ocation": 5807,
      "Ġdynamical": 5808,
      "going": 5809,
      "State": 5810,
      "Ġtro": 5811,
      "anned": 5812,
      "&=\\": 5813,
      "Ġpropose": 5814,
      "mar": 5815,
      "airs": 5816,
      "ĠEm": 5817,
      "ĠTrump": 5818,
      "Ġsuggests": 5819,
      "ĠSun": 5820,
      "integ": 5821,
      "ĠInc": 5822,
      "Ġstudio": 5823,
      ".;": 5824,
      "Ġarc": 5825,
      "Ġclin": 5826,
      "Consider": 5827,
      "Ġpiece": 5828,
      "Ġdimensional": 5829,
      "^{(\\": 5830,
      "Ġadding": 5831,
      "CE": 5832,
      "Ġcosts": 5833,
      "Ġrang": 5834,
      "Ġprecisely": 5835,
      "Ġprotocol": 5836,
      "oration": 5837,
      "mathit": 5838,
      "}|\\": 5839,
      "Ġobjective": 5840,
      "va": 5841,
      "Ġexplicitly": 5842,
      "^*\\": 5843,
      "ultane": 5844,
      "Ġimproved": 5845,
      "cript": 5846,
      "ropic": 5847,
      "plan": 5848,
      "ibration": 5849,
      "Ġpurch": 5850,
      "sey": 5851,
      "ĠModel": 5852,
      "Ġlocally": 5853,
      "Lemma": 5854,
      "Ġinterview": 5855,
      "bas": 5856,
      "Hence": 5857,
      ":=\\": 5858,
      "Ġsym": 5859,
      "etal": 5860,
      "Ġcarried": 5861,
      "andemic": 5862,
      "Ġgrant": 5863,
      "Ġextend": 5864,
      "'m": 5865,
      "ser": 5866,
      "perform": 5867,
      "vector": 5868,
      "idel": 5869,
      "iller": 5870,
      "=.": 5871,
      "ynamic": 5872,
      "aser": 5873,
      "Ġtal": 5874,
      "Ġvariance": 5875,
      "Ġpoor": 5876,
      "Ġrequest": 5877,
      "MP": 5878,
      ")})": 5879,
      "Ġter": 5880,
      "elihood": 5881,
      "Ġplant": 5882,
      "Ġdied": 5883,
      "tikzpicture": 5884,
      "slant": 5885,
      "rank": 5886,
      "Ġlisted": 5887,
      "supp": 5888,
      "Ġnotice": 5889,
      "Ġbooks": 5890,
      "Ġdetermin": 5891,
      "Ġupdate": 5892,
      "Ġcomputing": 5893,
      "ymmetric": 5894,
      "Ġmovie": 5895,
      "ĠNov": 5896,
      "ĠDef": 5897,
      "Ġdesired": 5898,
      "ĠDemoc": 5899,
      "IA": 5900,
      "hu": 5901,
      "Ġbehaviour": 5902,
      "Ġign": 5903,
      "Ġinstrum": 5904,
      "inese": 5905,
      "Ġexplore": 5906,
      "Ġdashed": 5907,
      "ĠPublic": 5908,
      "brid": 5909,
      "unity": 5910,
      "Ġjet": 5911,
      "Ġvertical": 5912,
      "Ġdesp": 5913,
      "Ġadminist": 5914,
      "lam": 5915,
      "Ġdirector": 5916,
      "fs": 5917,
      "ĠDon": 5918,
      "ĠAssociation": 5919,
      "ĠSing": 5920,
      "verb": 5921,
      "dec": 5922,
      "ĠChampions": 5923,
      "Ġsom": 5924,
      "Ġcontrad": 5925,
      "uous": 5926,
      "Ġbulk": 5927,
      "ĠBusiness": 5928,
      "Tr": 5929,
      "NS": 5930,
      "subsec": 5931,
      "120": 5932,
      "Ġpark": 5933,
      "GL": 5934,
      "Ġpow": 5935,
      "PU": 5936,
      "Ġmorphism": 5937,
      "Ġdynamic": 5938,
      "ĠMag": 5939,
      "urations": 5940,
      "Ġcorrections": 5941,
      "Ġquantities": 5942,
      "Ġquarter": 5943,
      "Ġsatisfied": 5944,
      "ĠIm": 5945,
      "fully": 5946,
      "ĠLi": 5947,
      "Ġoption": 5948,
      "Ġculture": 5949,
      "Ġopportunity": 5950,
      "Ġreached": 5951,
      "Ġcompl": 5952,
      "ĠRad": 5953,
      "Ġcop": 5954,
      "Ġmoved": 5955,
      "ptic": 5956,
      "mediate": 5957,
      "ĠDel": 5958,
      "Ġmodified": 5959,
      "Ġmeeting": 5960,
      "Rec": 5961,
      "stable": 5962,
      "Ġsuitable": 5963,
      "omy": 5964,
      "isted": 5965,
      "Ġmut": 5966,
      "itch": 5967,
      "Ġcomplic": 5968,
      "Ġclean": 5969,
      "Right": 5970,
      "ĠCur": 5971,
      "bib": 5972,
      "Ġreceive": 5973,
      "Ġmilitary": 5974,
      "Ġgravity": 5975,
      "Ġfluctuations": 5976,
      "ĠPress": 5977,
      "Ġyield": 5978,
      "ifier": 5979,
      "Ġinstit": 5980,
      "ĠSal": 5981,
      "ancing": 5982,
      "irit": 5983,
      "urning": 5984,
      "FC": 5985,
      "ĠMac": 5986,
      "Ġ]": 5987,
      "Ġhar": 5988,
      "Ġsec": 5989,
      "rey": 5990,
      "medskip": 5991,
      "ĠRiver": 5992,
      "Ġquasi": 5993,
      "tty": 5994,
      "Ġintensity": 5995,
      "Ġsequences": 5996,
      "Ġreprodu": 5997,
      "Ġcanonical": 5998,
      "ĠRel": 5999,
      "Ġseven": 6000,
      "mn": 6001,
      "Ġ,\\": 6002,
      "Ġprep": 6003,
      "Ġsometimes": 6004,
      "ĠAlex": 6005,
      "__": 6006,
      "lap": 6007,
      "outher": 6008,
      "Ġserved": 6009,
      "Ġshock": 6010,
      "nergy": 6011,
      "Ġstatistics": 6012,
      "\\|\\": 6013,
      "oura": 6014,
      "footnot": 6015,
      "key": 6016,
      "velopment": 6017,
      "Pre": 6018,
      "Ġneighborhood": 6019,
      "finition": 6020,
      "Ġnorth": 6021,
      "http": 6022,
      "inner": 6023,
      "'ve": 6024,
      "reduc": 6025,
      "ĠFace": 6026,
      "Ġdrive": 6027,
      "Given": 6028,
      "ĠJournal": 6029,
      "ĠSuch": 6030,
      "roid": 6031,
      "urally": 6032,
      "Ġmanufact": 6033,
      "ett": 6034,
      "SD": 6035,
      "CR": 6036,
      "Ġwrote": 6037,
      "otal": 6038,
      "Ġreports": 6039,
      "Ġincorpor": 6040,
      "ĠNetwork": 6041,
      "arian": 6042,
      "Ġrestric": 6043,
      "FF": 6044,
      "stain": 6045,
      "ML": 6046,
      "Ġast": 6047,
      "phantom": 6048,
      "((": 6049,
      "Ġgr": 6050,
      "vari": 6051,
      "Ġeconomic": 6052,
      "stra": 6053,
      "ellig": 6054,
      "Ġprofessional": 6055,
      "Ġplays": 6056,
      "ĠMusic": 6057,
      "ilbert": 6058,
      "vartheta": 6059,
      "Ġunknown": 6060,
      "ĠHiggs": 6061,
      "Ġmus": 6062,
      "ĠCong": 6063,
      "ĠMichael": 6064,
      "Ġadjust": 6065,
      "ĠAccording": 6066,
      "disc": 6067,
      "greg": 6068,
      "ĠRoy": 6069,
      "equations": 6070,
      "Ġrequirements": 6071,
      "Ġstories": 6072,
      "Ġrock": 6073,
      "Ġelection": 6074,
      "ĠMo": 6075,
      "They": 6076,
      "Ġtemperatures": 6077,
      "itation": 6078,
      "elled": 6079,
      "ifications": 6080,
      "process": 6081,
      "ĠCup": 6082,
      "ĠGold": 6083,
      "Ġcustomers": 6084,
      "Ġprocessing": 6085,
      "parison": 6086,
      "ĠTexas": 6087,
      "Ġpatterns": 6088,
      "riday": 6089,
      "Ġchanged": 6090,
      "Ġserious": 6091,
      "ĠSee": 6092,
      "outhern": 6093,
      "ĠDiv": 6094,
      "Ġmedium": 6095,
      "iation": 6096,
      "volution": 6097,
      "ĠMost": 6098,
      "venue": 6099,
      "Ġgrowing": 6100,
      "gin": 6101,
      "Ġ\\,\\": 6102,
      "\\%$": 6103,
      "ĠGerman": 6104,
      "ĠGoogle": 6105,
      "Ġtruth": 6106,
      "Xi": 6107,
      "rupt": 6108,
      "Ġcapital": 6109,
      "Ġbuy": 6110,
      "Ġintersection": 6111,
      "eds": 6112,
      "aa": 6113,
      "Ġapproximate": 6114,
      "ĠIma": 6115,
      "Ġemail": 6116,
      "Ġpossibility": 6117,
      "ĠPhil": 6118,
      "Ġcomposition": 6119,
      "Ġnor": 6120,
      "Ġplaces": 6121,
      "Ġsimplic": 6122,
      "board": 6123,
      "itt": 6124,
      "phas": 6125,
      "Ġcontinued": 6126,
      "Ðµ": 6127,
      "Ġdelay": 6128,
      "ĠVi": 6129,
      "~(\\": 6130,
      "Ġperturbation": 6131,
      "Suppose": 6132,
      "Ġlaun": 6133,
      "law": 6134,
      "oupl": 6135,
      "Ġstochastic": 6136,
      "anger": 6137,
      "ĠSum": 6138,
      "loop": 6139,
      "ĠAfrica": 6140,
      "gr": 6141,
      "Ġcorrection": 6142,
      "Ġdu": 6143,
      "ĠRussian": 6144,
      "FR": 6145,
      "Ġmagnet": 6146,
      "**": 6147,
      "step": 6148,
      "Ġofficial": 6149,
      "Ġlearned": 6150,
      "Table": 6151,
      "orter": 6152,
      "eech": 6153,
      "Ġisol": 6154,
      "ometry": 6155,
      "ĠTwo": 6156,
      "Ġinnov": 6157,
      "(-\\": 6158,
      "ought": 6159,
      "Ġstru": 6160,
      "iers": 6161,
      "Ġreplaced": 6162,
      "ĠAngel": 6163,
      "Moreover": 6164,
      "ĠMus": 6165,
      "vere": 6166,
      "diff": 6167,
      "Ġmajority": 6168,
      "Ġsal": 6169,
      "1993": 6170,
      "Ġalone": 6171,
      "notag": 6172,
      "\\!\\": 6173,
      "Ġlies": 6174,
      "tan": 6175,
      "Ġmessage": 6176,
      "ĠAward": 6177,
      "Ġhypothesis": 6178,
      "Ġjournal": 6179,
      "Ġbrought": 6180,
      ".\\\\": 6181,
      "ogen": 6182,
      "ĠPhys": 6183,
      "ĠTur": 6184,
      "Ð°": 6185,
      "finite": 6186,
      "}{*": 6187,
      "Ġanom": 6188,
      "verage": 6189,
      "Ga": 6190,
      "etween": 6191,
      ")^\\": 6192,
      "La": 6193,
      "Ġeigenvalues": 6194,
      "after": 6195,
      "Ġreasons": 6196,
      "ĠPM": 6197,
      "Ġplans": 6198,
      "ATE": 6199,
      "Ġfarm": 6200,
      "inations": 6201,
      "Ġtechnical": 6202,
      "ĠBrown": 6203,
      "Ġspac": 6204,
      "rue": 6205,
      "ĠTom": 6206,
      "iem": 6207,
      "rangian": 6208,
      "Ġchallenge": 6209,
      "pan": 6210,
      "Ġbank": 6211,
      "My": 6212,
      "Ġsustain": 6213,
      "Ġwindow": 6214,
      "ogonal": 6215,
      "Ġ$\\{\\": 6216,
      "osis": 6217,
      "1992": 6218,
      "grad": 6219,
      "Ġassuming": 6220,
      "bp": 6221,
      "Ġmainly": 6222,
      "char": 6223,
      "Ġhalo": 6224,
      "ashion": 6225,
      "$-$": 6226,
      "Ġcharged": 6227,
      "tail": 6228,
      "Ġsaying": 6229,
      "Ġabsolute": 6230,
      "Ġapparent": 6231,
      "Ġscene": 6232,
      "^*(": 6233,
      "Ġturns": 6234,
      "unk": 6235,
      "Ġmissing": 6236,
      "ditionally": 6237,
      "Ġsubgroup": 6238,
      "Ġdirected": 6239,
      "downarrow": 6240,
      "ĠÃ": 6241,
      "Ġfluid": 6242,
      "Car": 6243,
      "ĠLand": 6244,
      "orthern": 6245,
      "roy": 6246,
      "Ġanalyz": 6247,
      "Ġgravitational": 6248,
      "pective": 6249,
      "Ġatmosp": 6250,
      "renew": 6251,
      "Ġworkers": 6252,
      "ĠSol": 6253,
      "CL": 6254,
      "ĠSupp": 6255,
      "Ġenter": 6256,
      "ĠCM": 6257,
      "She": 6258,
      "icks": 6259,
      "Ġinstall": 6260,
      "Ġmatching": 6261,
      "Ġagents": 6262,
      "Ġresponsible": 6263,
      "ibr": 6264,
      "ĠSam": 6265,
      "ĠHa": 6266,
      "Ġmostly": 6267,
      "Ġanim": 6268,
      "ĠEven": 6269,
      "there": 6270,
      "](": 6271,
      "isot": 6272,
      "ipped": 6273,
      "Ġturned": 6274,
      "Ġmetal": 6275,
      "OP": 6276,
      "Aut": 6277,
      "EL": 6278,
      "Ġbands": 6279,
      "Ġchallenges": 6280,
      "ĠTr": 6281,
      "estival": 6282,
      "mathtt": 6283,
      "axis": 6284,
      "ĠGr": 6285,
      "ĠEarth": 6286,
      "RR": 6287,
      "Ġspeak": 6288,
      "ado": 6289,
      "Ġfol": 6290,
      "Ġteac": 6291,
      "plane": 6292,
      "Ġtend": 6293,
      "ĠĠĠĠĠĠĠĠĠĠĠĠĠ": 6294,
      "ĠBecause": 6295,
      "Ġclimate": 6296,
      "American": 6297,
      "$\\\\": 6298,
      "ĠWed": 6299,
      "Ġtests": 6300,
      "Ġcategories": 6301,
      "Ġcomments": 6302,
      "Ġequivalence": 6303,
      "ĠCons": 6304,
      "Ġbundle": 6305,
      "Ġcast": 6306,
      "hang": 6307,
      "Ġmixed": 6308,
      "Ġwrong": 6309,
      "Ġfa": 6310,
      "undred": 6311,
      "rob": 6312,
      "Ġren": 6313,
      "fi": 6314,
      "Ġblocks": 6315,
      "input": 6316,
      "ĠNor": 6317,
      "}\\|": 6318,
      "arios": 6319,
      "Ġunion": 6320,
      "arma": 6321,
      "Ġabsorption": 6322,
      "Ġplaced": 6323,
      "Ġvacuum": 6324,
      "Ġoptions": 6325,
      "ĠMax": 6326,
      "Ġsouth": 6327,
      "Ġcompleted": 6328,
      "Ġprofiles": 6329,
      "Ġevaluated": 6330,
      "Ġmixing": 6331,
      "backslash": 6332,
      "Per": 6333,
      "IL": 6334,
      "ĠZe": 6335,
      "indu": 6336,
      "Ġschools": 6337,
      "ĠBur": 6338,
      "Ġdrop": 6339,
      "ĠGiven": 6340,
      "Ġefforts": 6341,
      "lines": 6342,
      "eness": 6343,
      "sign": 6344,
      "ĠDen": 6345,
      "ĠCD": 6346,
      "Ġeffort": 6347,
      "Ġshot": 6348,
      "test": 6349,
      "Ġlov": 6350,
      "iveness": 6351,
      "ĠChurch": 6352,
      "Ġacts": 6353,
      "ĠFore": 6354,
      "ĠSa": 6355,
      "ensus": 6356,
      "ĠOpen": 6357,
      "Ġsupers": 6358,
      "Ġplas": 6359,
      "vs": 6360,
      "Ġdespite": 6361,
      "ĠSecond": 6362,
      "Ġorders": 6363,
      "Ã³": 6364,
      "rait": 6365,
      "Ġsimultane": 6366,
      "isson": 6367,
      "ĠTime": 6368,
      "ĠSund": 6369,
      "!!": 6370,
      "---": 6371,
      "Ġcommunities": 6372,
      "$^": 6373,
      "Ġlooks": 6374,
      "Ġminor": 6375,
      "nat": 6376,
      "Ġbillion": 6377,
      "ronic": 6378,
      "del": 6379,
      "Ġce": 6380,
      "sets": 6381,
      "textcolor": 6382,
      "boldmath": 6383,
      "ĠFrance": 6384,
      "acter": 6385,
      "dr": 6386,
      "110": 6387,
      "structure": 6388,
      "general": 6389,
      "corollary": 6390,
      "Ġresist": 6391,
      "Ġsignals": 6392,
      "Ġdetector": 6393,
      "iii": 6394,
      "Ġideas": 6395,
      "Ġdaugh": 6396,
      "Ġorganization": 6397,
      "bal": 6398,
      "ĠStar": 6399,
      "Ġagree": 6400,
      "connect": 6401,
      "clusive": 6402,
      "Ġdemonstrate": 6403,
      "$.}": 6404,
      "Ġexplo": 6405,
      "RA": 6406,
      "ager": 6407,
      "Ġcook": 6408,
      "Ġsubt": 6409,
      "Ġdescribes": 6410,
      "ÃŃ": 6411,
      "Ġcond": 6412,
      "Ġpandemic": 6413,
      "Ġcryst": 6414,
      "relation": 6415,
      "house": 6416,
      "Ġrecommend": 6417,
      "Ġblood": 6418,
      "renewcommand": 6419,
      "Ġquantity": 6420,
      "Ġspot": 6421,
      "Ġhous": 6422,
      "Ġdx": 6423,
      "!\\": 6424,
      "ĠParty": 6425,
      "soft": 6426,
      "Ġlic": 6427,
      "Ġpowerful": 6428,
      "Ġappeared": 6429,
      "!]": 6430,
      "Ġlabels": 6431,
      "ĠAcad": 6432,
      "ĠTwitter": 6433,
      "icine": 6434,
      "ĠLou": 6435,
      "Ġwaves": 6436,
      "ĠSet": 6437,
      "iders": 6438,
      "ixt": 6439,
      "ulse": 6440,
      "Ġimplemented": 6441,
      "fil": 6442,
      "Ġelim": 6443,
      "Ġpropos": 6444,
      "Ġconfidence": 6445,
      "Ġmanner": 6446,
      "Ġregarding": 6447,
      "ĠBoth": 6448,
      "has": 6449,
      "Ġrational": 6450,
      "ĠGeorge": 6451,
      "Ġeventually": 6452,
      "ĠCompany": 6453,
      "consist": 6454,
      "Ġrecorded": 6455,
      "osc": 6456,
      "zer": 6457,
      "condition": 6458,
      "orage": 6459,
      "Ġsomew": 6460,
      "rins": 6461,
      "stream": 6462,
      "Ġcontinuum": 6463,
      "Ġbud": 6464,
      "Ġcopy": 6465,
      "formed": 6466,
      "ĠMary": 6467,
      "esize": 6468,
      "ermi": 6469,
      "ĠPet": 6470,
      "Ġwavelength": 6471,
      "ĠSociety": 6472,
      "ativ": 6473,
      "Ġtoward": 6474,
      "Ġperiodic": 6475,
      "Ġdriving": 6476,
      "div": 6477,
      "hold": 6478,
      "ĠMad": 6479,
      "Ġtrust": 6480,
      "reducible": 6481,
      "Ġdecided": 6482,
      "ĠBre": 6483,
      "Ġgeneric": 6484,
      "Ġparents": 6485,
      "uparrow": 6486,
      "ĠChinese": 6487,
      "hfill": 6488,
      "ena": 6489,
      "Ġmovement": 6490,
      "ko": 6491,
      "chen": 6492,
      "enchmark": 6493,
      "Ġpaths": 6494,
      "desc": 6495,
      "Ġdiss": 6496,
      "Ġcelebr": 6497,
      "Do": 6498,
      "Ġpolarization": 6499,
      "uon": 6500,
      ")--(": 6501,
      "SA": 6502,
      "ĠUk": 6503,
      "Ġtail": 6504,
      "Ġsen": 6505,
      "break": 6506,
      "Ġcoupled": 6507,
      "Ġfourth": 6508,
      "Ġrare": 6509,
      "ĠâĢ¦": 6510,
      "textup": 6511,
      "Ġtransmission": 6512,
      "âĢĿ.": 6513,
      "Ġintegrated": 6514,
      "ĠSmith": 6515,
      "uted": 6516,
      "ĠMer": 6517,
      "tag": 6518,
      "Ġdensities": 6519,
      "Ġisot": 6520,
      "pendence": 6521,
      "ĠService": 6522,
      "opes": 6523,
      "Ġsuggested": 6524,
      "Ġphases": 6525,
      "Ġsuppose": 6526,
      "Ġexpressions": 6527,
      "According": 6528,
      "ursday": 6529,
      "Ġsold": 6530,
      "Ġidentical": 6531,
      "Ġdecrease": 6532,
      "RB": 6533,
      "Ġplus": 6534,
      "Ġcycl": 6535,
      "wave": 6536,
      "ĠAP": 6537,
      "ĠTheir": 6538,
      "Ġprime": 6539,
      "Ġpolic": 6540,
      "Ġallowing": 6541,
      ")}(\\": 6542,
      "Ġpain": 6543,
      "effect": 6544,
      "&=&\\": 6545,
      "Ġchance": 6546,
      "EP": 6547,
      "âĢĺ": 6548,
      "erior": 6549,
      "Ġsizes": 6550,
      "Ġwife": 6551,
      "Ġuncertainties": 6552,
      "ĠIN": 6553,
      "ĠTHE": 6554,
      "ĠOffice": 6555,
      "Ge": 6556,
      "ĠTop": 6557,
      "001": 6558,
      "nn": 6559,
      "Ġrig": 6560,
      "arithm": 6561,
      "Ġbenefit": 6562,
      "HC": 6563,
      "Li": 6564,
      "Ġlens": 6565,
      "uled": 6566,
      "elect": 6567,
      "Ġemphas": 6568,
      "stract": 6569,
      "ections": 6570,
      "Ġfans": 6571,
      "negative": 6572,
      "Def": 6573,
      "reek": 6574,
      "Ġfeedback": 6575,
      "ĠBig": 6576,
      "ĠDirector": 6577,
      "Ġuniversal": 6578,
      "|^{": 6579,
      "ĠBoard": 6580,
      "iful": 6581,
      "ml": 6582,
      "ĠSU": 6583,
      "icated": 6584,
      "adian": 6585,
      "Ġdense": 6586,
      "Ġtrace": 6587,
      "ĠJer": 6588,
      "ĠSuppose": 6589,
      "'ll": 6590,
      "atures": 6591,
      "ĠEconom": 6592,
      "Ġstrategies": 6593,
      "ĠRoad": 6594,
      ">\\": 6595,
      "Ap": 6596,
      "jecture": 6597,
      "Ġequality": 6598,
      "iden": 6599,
      "uro": 6600,
      "Ġdegener": 6601,
      "$^{": 6602,
      "weet": 6603,
      "yan": 6604,
      "isher": 6605,
      "Ð¸": 6606,
      "Ġnecessarily": 6607,
      "footnotesize": 6608,
      "Ġdistrict": 6609,
      "Ġlowest": 6610,
      "ĠLife": 6611,
      "ache": 6612,
      "Ġbranch": 6613,
      "Ġmoments": 6614,
      "kl": 6615,
      "Ġcandidates": 6616,
      "icular": 6617,
      "Ġroll": 6618,
      "ĠPlay": 6619,
      "Ġlocations": 6620,
      "ĠLy": 6621,
      "only": 6622,
      "Ġque": 6623,
      "sem": 6624,
      "Ġchanging": 6625,
      "ĠGermany": 6626,
      "mom": 6627,
      "parallel": 6628,
      "Ġatoms": 6629,
      "Ġturb": 6630,
      "Ġdirections": 6631,
      "burg": 6632,
      "ĠFlor": 6633,
      "enty": 6634,
      "Ġple": 6635,
      "annel": 6636,
      "Ġaffected": 6637,
      "ĠIts": 6638,
      "tw": 6639,
      "ymmetry": 6640,
      "aded": 6641,
      "Ġreduces": 6642,
      "ĠIsra": 6643,
      "Ġresearc": 6644,
      "Ġcapture": 6645,
      "Ġgold": 6646,
      "ulture": 6647,
      "Ġdot": 6648,
      "ĠFourier": 6649,
      "ĠDM": 6650,
      "Ġtrees": 6651,
      "quant": 6652,
      "*}[": 6653,
      "iling": 6654,
      "_{+": 6655,
      "Ġdeb": 6656,
      "Ġsort": 6657,
      "Ġsubstant": 6658,
      "propto": 6659,
      "Ġconfigurations": 6660,
      "nesday": 6661,
      "Ġbirth": 6662,
      "page": 6663,
      "index": 6664,
      "istor": 6665,
      "Ġmeas": 6666,
      "Ġdependent": 6667,
      "Ġtriang": 6668,
      "Ġindicated": 6669,
      "iquid": 6670,
      "Ġremoved": 6671,
      "ĠEducation": 6672,
      "Ġmolecular": 6673,
      "ĠFriday": 6674,
      "Rel": 6675,
      "flict": 6676,
      "Ġsummer": 6677,
      "Ġstarts": 6678,
      "value": 6679,
      "stackrel": 6680,
      "Ġnet": 6681,
      "standing": 6682,
      "Ġdedu": 6683,
      "Ġinfer": 6684,
      "Ġhttp": 6685,
      "ĠFacebook": 6686,
      "Ġstatus": 6687,
      "|$": 6688,
      "cluded": 6689,
      "Assum": 6690,
      "ĠQue": 6691,
      "Ġiniti": 6692,
      "Ġquadratic": 6693,
      "Ġnormalized": 6694,
      "Ġleader": 6695,
      "pat": 6696,
      "ĠDuring": 6697,
      "Ġserve": 6698,
      "Ġvirtual": 6699,
      "Ġnotion": 6700,
      "Ġstore": 6701,
      "gers": 6702,
      "itors": 6703,
      "arity": 6704,
      "iment": 6705,
      "invariant": 6706,
      "ola": 6707,
      "Ġtrig": 6708,
      "ĠMil": 6709,
      "Ġfitting": 6710,
      "ĠHy": 6711,
      "ĠBen": 6712,
      "Ġarray": 6713,
      "leftarrow": 6714,
      "Ġow": 6715,
      "Ġbenefits": 6716,
      "Ġuniformly": 6717,
      "Ġenhance": 6718,
      "{(\\": 6719,
      "ette": 6720,
      "Ġhands": 6721,
      "ierarch": 6722,
      "Ġtraffic": 6723,
      "Ġadopted": 6724,
      "Ġwonder": 6725,
      "Ġanyone": 6726,
      "icon": 6727,
      "ester": 6728,
      "Ġcamera": 6729,
      "Ġdiffusion": 6730,
      "Ġcit": 6731,
      "Ġopposite": 6732,
      "Ġpuls": 6733,
      "Ġnation": 6734,
      "'_{": 6735,
      "ĠRussia": 6736,
      "ĠJac": 6737,
      "crete": 6738,
      "Ġextremely": 6739,
      "Pa": 6740,
      "Ġinvolving": 6741,
      "Ġvehicle": 6742,
      "PM": 6743,
      "ĠEquation": 6744,
      "ĠConsider": 6745,
      "cline": 6746,
      "ls": 6747,
      "Ġdiagn": 6748,
      "$\\,": 6749,
      "}^{+": 6750,
      "module": 6751,
      "Ġcompat": 6752,
      "Ġdepict": 6753,
      "print": 6754,
      "?âĢĿ": 6755,
      "rimin": 6756,
      "ĠLu": 6757,
      "GeV": 6758,
      "unct": 6759,
      "onday": 6760,
      "Ġessentially": 6761,
      "ĠForm": 6762,
      "ĠAcc": 6763,
      "Ġneutrino": 6764,
      "ears": 6765,
      "Ġimprovement": 6766,
      "Ġanalytic": 6767,
      "never": 6768,
      "Ġprem": 6769,
      "Ġscenarios": 6770,
      "Ġgenerating": 6771,
      "Ġstraightforward": 6772,
      "ĠGreat": 6773,
      "ĠJul": 6774,
      "cis": 6775,
      "Ġquot": 6776,
      "room": 6777,
      "Ġintegr": 6778,
      "Ġready": 6779,
      "Ġelectrons": 6780,
      "Ġconjug": 6781,
      "ĠCommission": 6782,
      "chain": 6783,
      "cut": 6784,
      "Ġcommerc": 6785,
      ")}.": 6786,
      "tained": 6787,
      "ĠCamp": 6788,
      "aylor": 6789,
      "Ġarguments": 6790,
      "cher": 6791,
      "Ġbrother": 6792,
      "ĠTechnology": 6793,
      "ĠUSA": 6794,
      "Ġsensitive": 6795,
      "Post": 6796,
      "ĠSer": 6797,
      "ĠHill": 6798,
      "Ġinterpretation": 6799,
      "ĠTor": 6800,
      "}$\\": 6801,
      "sequently": 6802,
      "Ġrelig": 6803,
      "Ġpretty": 6804,
      "}/\\": 6805,
      "semble": 6806,
      "Ġcoverage": 6807,
      "Ġlab": 6808,
      "bottom": 6809,
      "ald": 6810,
      "ĠSl": 6811,
      "Ġproportional": 6812,
      "dust": 6813,
      "ussion": 6814,
      "urday": 6815,
      "Cref": 6816,
      "Ġempir": 6817,
      "Ġga": 6818,
      "OL": 6819,
      "lymp": 6820,
      "ographic": 6821,
      "ĠIsland": 6822,
      "Ġouter": 6823,
      "Ġexcell": 6824,
      "1991": 6825,
      "Ġthous": 6826,
      "Ġintermediate": 6827,
      "Ġnames": 6828,
      "Ġfile": 6829,
      "ubble": 6830,
      "ĠCommit": 6831,
      "Ġitems": 6832,
      "bor": 6833,
      ")(\\": 6834,
      "symmet": 6835,
      "Pol": 6836,
      "Me": 6837,
      "ĠAM": 6838,
      "Ġgrand": 6839,
      "ĠMiss": 6840,
      "Ġdeviation": 6841,
      "Ġcharacteristics": 6842,
      "ĠCarol": 6843,
      "Ġconclusion": 6844,
      "Ġtrial": 6845,
      "ĠLin": 6846,
      "Ġtelevision": 6847,
      "Ġinvestigation": 6848,
      "Ġconfirmed": 6849,
      "ounding": 6850,
      "ĠInst": 6851,
      "Ġinterface": 6852,
      "first": 6853,
      "ĠTour": 6854,
      "Ġepisode": 6855,
      "ĠGovernment": 6856,
      "fram": 6857,
      "ĠRock": 6858,
      "ĠCentral": 6859,
      "Ġgeometric": 6860,
      "ĠIII": 6861,
      "century": 6862,
      "Ġneutral": 6863,
      "Ġprefer": 6864,
      "Ġfirm": 6865,
      "Ġsafe": 6866,
      "ĠClub": 6867,
      "Ġnarrow": 6868,
      "ingly": 6869,
      "Ġreferred": 6870,
      "Ġsensitivity": 6871,
      "Ind": 6872,
      "Ġmale": 6873,
      "Ġhuge": 6874,
      "herical": 6875,
      "ĠHistory": 6876,
      "Ġhappen": 6877,
      "Ġfrequencies": 6878,
      "ĠMem": 6879,
      "Ġseparation": 6880,
      "ĠUnion": 6881,
      "inear": 6882,
      "Ġvoice": 6883,
      "Ġreaction": 6884,
      "&&\\": 6885,
      "Ġdispersion": 6886,
      "sts": 6887,
      "Ġorbital": 6888,
      "]^": 6889,
      "ĠHel": 6890,
      "regular": 6891,
      "Ġformulation": 6892,
      "DR": 6893,
      "Spec": 6894,
      "Ġopening": 6895,
      "Bbb": 6896,
      "Ġanc": 6897,
      "claim": 6898,
      "Ġattacks": 6899,
      "car": 6900,
      "Ġcollected": 6901,
      "rite": 6902,
      "Ġhundred": 6903,
      "Or": 6904,
      "Ġshoot": 6905,
      "ĠLat": 6906,
      "Ġexcited": 6907,
      "ĠĠĠĠĠĠĠĠĠĠĠĠĠĠ": 6908,
      "Ġindices": 6909,
      "Ġ_{\\": 6910,
      "Ġfelt": 6911,
      "hens": 6912,
      "espite": 6913,
      "1980": 6914,
      "cale": 6915,
      "Ġmission": 6916,
      "Ġhomogeneous": 6917,
      "Ġcorrelations": 6918,
      "ameter": 6919,
      "ĠMex": 6920,
      "ĠDevelopment": 6921,
      "Ġmetrics": 6922,
      "vals": 6923,
      "ady": 6924,
      "Ġinstant": 6925,
      "Ġtouch": 6926,
      "oday": 6927,
      "abase": 6928,
      "Ġresidual": 6929,
      "illa": 6930,
      "DB": 6931,
      "Ġdiagrams": 6932,
      "Ġbreaking": 6933,
      "oses": 6934,
      "stood": 6935,
      "Ġsales": 6936,
      "Ġconvolution": 6937,
      "mal": 6938,
      "Ġgun": 6939,
      "Ġmonitor": 6940,
      "uler": 6941,
      "Ġbaseline": 6942,
      "ĠHam": 6943,
      "ativistic": 6944,
      "instein": 6945,
      "Ġtreated": 6946,
      "ĠProject": 6947,
      "Ġsto": 6948,
      "ĠInformation": 6949,
      "Ġdecreases": 6950,
      "ĠEvery": 6951,
      "Ġprivacy": 6952,
      "OC": 6953,
      "Ġpatient": 6954,
      "Ġsides": 6955,
      "Ġsolving": 6956,
      "sep": 6957,
      "Ġexplan": 6958,
      "Ġplanning": 6959,
      "esian": 6960,
      "{.": 6961,
      "Ġlie": 6962,
      "scriptscriptstyle": 6963,
      "Ġleaves": 6964,
      "fol": 6965,
      "Ġsmart": 6966,
      "Ġprecision": 6967,
      "Ġadvers": 6968,
      "sych": 6969,
      "ĠMass": 6970,
      "$'": 6971,
      "ĠAlgorithm": 6972,
      "ĠCR": 6973,
      "LC": 6974,
      "Ġsystematic": 6975,
      "}.}": 6976,
      "iled": 6977,
      "Ġweb": 6978,
      "Ġpaint": 6979,
      "Ġhidden": 6980,
      "Ġcreating": 6981,
      "Ġtransitions": 6982,
      "Ġspent": 6983,
      "Ġcrucial": 6984,
      "Ġvariations": 6985,
      "Ġversus": 6986,
      "Ã¼": 6987,
      "Ġelli": 6988,
      "Ġtested": 6989,
      "ĠChristian": 6990,
      "Ġcancer": 6991,
      "ias": 6992,
      "Although": 6993,
      "ĠServices": 6994,
      "Ġiteration": 6995,
      "Ġprint": 6996,
      "Ġfaster": 6997,
      "ĠSunday": 6998,
      "Ġadm": 6999,
      "Reg": 7000,
      "Ġsettings": 7001,
      "aling": 7002,
      "Ġfocused": 7003,
      "Ġgoals": 7004,
      "crit": 7005,
      "Ġincident": 7006,
      "Ġaspects": 7007,
      "DY": 7008,
      "uesday": 7009,
      "ĠJose": 7010,
      "Ġbus": 7011,
      "possible": 7012,
      "anda": 7013,
      "Ġmetall": 7014,
      "ĠTimes": 7015,
      "Ġpolynomials": 7016,
      "ributes": 7017,
      "ipp": 7018,
      "Ġalgebraic": 7019,
      "erving": 7020,
      "Ġcontrols": 7021,
      "Ġhappens": 7022,
      "gather": 7023,
      "Ġpossibly": 7024,
      "large": 7025,
      "Ġappoint": 7026,
      "Ġwasn": 7027,
      "ria": 7028,
      "ĠScott": 7029,
      "Ġaccret": 7030,
      "Ġeffectively": 7031,
      "Ġexpert": 7032,
      "Ġsky": 7033,
      "``": 7034,
      "Ġhighlight": 7035,
      "ĠThomas": 7036,
      "Ġsle": 7037,
      "TT": 7038,
      "Ġ$^{": 7039,
      "ĠBank": 7040,
      "high": 7041,
      "Ġconducted": 7042,
      ")[": 7043,
      "uster": 7044,
      "ĠSocial": 7045,
      "lik": 7046,
      "Ġrecover": 7047,
      "DC": 7048,
      "=\\{": 7049,
      "Ġentry": 7050,
      "\\,{\\": 7051,
      "uzz": 7052,
      "Ġmodeling": 7053,
      "uilding": 7054,
      "Rep": 7055,
      "ĠThursday": 7056,
      "Ġcompetition": 7057,
      "density": 7058,
      "Ġbalance": 7059,
      "Ġsigned": 7060,
      "parameter": 7061,
      "osh": 7062,
      "End": 7063,
      "Ġsupply": 7064,
      "Ġexception": 7065,
      "Ġabsence": 7066,
      "Ġmathemat": 7067,
      "Ġexpectation": 7068,
      "asy": 7069,
      "Ġphoto": 7070,
      "Ġbra": 7071,
      "Ġportrait": 7072,
      "binom": 7073,
      "pty": 7074,
      "ilation": 7075,
      "Ġund": 7076,
      "Ġdemonstrated": 7077,
      "ĠSP": 7078,
      "Ġlaws": 7079,
      "Ġpractical": 7080,
      "Ġsun": 7081,
      "Ġsecret": 7082,
      "Ġjoined": 7083,
      "-(": 7084,
      "ĠRobert": 7085,
      "Ġderivatives": 7086,
      "ĠBill": 7087,
      "Ġcivil": 7088,
      "Ġcontinues": 7089,
      "Ġprecise": 7090,
      "Ġshell": 7091,
      "len": 7092,
      "Ġperhaps": 7093,
      "Ġdominant": 7094,
      "\\|_": 7095,
      "250": 7096,
      "Ġcovered": 7097,
      "Ġbill": 7098,
      "icago": 7099,
      "istan": 7100,
      "Ġpolicies": 7101,
      "Ġreasonable": 7102,
      "Ġmobile": 7103,
      "Ġordered": 7104,
      "Ġopened": 7105,
      "roups": 7106,
      "Ġsn": 7107,
      "stitution": 7108,
      "ĠObs": 7109,
      "care": 7110,
      "Box": 7111,
      "Ġirreducible": 7112,
      "imits": 7113,
      "Ġadjac": 7114,
      "Ġ---": 7115,
      "ĠCongress": 7116,
      "ĠSpace": 7117,
      "Ġwidely": 7118,
      "theless": 7119,
      "code": 7120,
      "Some": 7121,
      "Ġcontribute": 7122,
      "textsf": 7123,
      "ĠOffic": 7124,
      "ĠâĢ¢": 7125,
      "Ġformat": 7126,
      "azine": 7127,
      "ĠLagrangian": 7128,
      "shift": 7129,
      "ji": 7130,
      "Ġorthogonal": 7131,
      "Ġsurfaces": 7132,
      "ao": 7133,
      "usal": 7134,
      "Ġanalys": 7135,
      "Ġthin": 7136,
      "ĠWednesday": 7137,
      "Ġplease": 7138,
      "ĠJo": 7139,
      "Ġexpos": 7140,
      "Ġkept": 7141,
      "Ġ\\[": 7142,
      "raine": 7143,
      "ĠJew": 7144,
      "FA": 7145,
      "itness": 7146,
      "{|": 7147,
      "ĠMel": 7148,
      "ĠGrand": 7149,
      "Ġratios": 7150,
      "Ġ~\\": 7151,
      "urt": 7152,
      "represent": 7153,
      "Ġtransverse": 7154,
      "Ġletter": 7155,
      "Hom": 7156,
      "ĠBob": 7157,
      "Ġtemporal": 7158,
      "Ġinclusion": 7159,
      "Ġhierarch": 7160,
      "ipment": 7161,
      "Ġemployees": 7162,
      "Ġrevealed": 7163,
      "ĠGood": 7164,
      "Ġdaughter": 7165,
      "Two": 7166,
      "cknowledg": 7167,
      "lections": 7168,
      "rinsic": 7169,
      "Ġcold": 7170,
      "Ġspecifically": 7171,
      "Ġdaily": 7172,
      "ĠLear": 7173,
      "nol": 7174,
      "Ġreturned": 7175,
      "Ġthanks": 7176,
      "})^{": 7177,
      "resp": 7178,
      "Ġjump": 7179,
      "ipart": 7180,
      "ideos": 7181,
      "iny": 7182,
      "Ġaggreg": 7183,
      "Ġcharges": 7184,
      "Ġautomat": 7185,
      "Ġrect": 7186,
      "Ġbirths": 7187,
      "Ġclaims": 7188,
      "square": 7189,
      "Ġkilled": 7190,
      "Ġpred": 7191,
      "stat": 7192,
      "Ġcomplement": 7193,
      "ĉĉĊ": 7194,
      "Ġjoin": 7195,
      "ĠMinister": 7196,
      "Ġ\\{\\": 7197,
      ")_{\\": 7198,
      "Ġpassed": 7199,
      "Ġmaster": 7200,
      "have": 7201,
      "ella": 7202,
      "LR": 7203,
      "Ġtang": 7204,
      "atre": 7205,
      "Ġexcess": 7206,
      "ĠFlorida": 7207,
      "Ġopin": 7208,
      "BH": 7209,
      "ĠBr": 7210,
      "Ġphone": 7211,
      "cel": 7212,
      "Ġtight": 7213,
      "Ġ\\|\\": 7214,
      "Ġtranslation": 7215,
      "ĠCorollary": 7216,
      "Ġaccretion": 7217,
      "Ġid": 7218,
      "cs": 7219,
      "Ġdistances": 7220,
      "Ġcentre": 7221,
      "Ġchoices": 7222,
      "smallskip": 7223,
      "Ġfermion": 7224,
      "kern": 7225,
      "Ġfav": 7226,
      "Ġjour": 7227,
      "dash": 7228,
      "Ġappearance": 7229,
      "Can": 7230,
      "rounding": 7231,
      "list": 7232,
      "ĠPeople": 7233,
      "Ġtopology": 7234,
      "TE": 7235,
      "Sm": 7236,
      "ĠStat": 7237,
      "particle": 7238,
      "Ġer": 7239,
      "ĠWomen": 7240,
      "Ġrich": 7241,
      "TV": 7242,
      "ĠEngine": 7243,
      "Ġtriple": 7244,
      "Ġmill": 7245,
      "Ġsongs": 7246,
      "}{{\\": 7247,
      "Ġpages": 7248,
      "Ġarrang": 7249,
      "Ġemployed": 7250,
      "Ġinterpre": 7251,
      "Ġrecords": 7252,
      "west": 7253,
      "Ġvote": 7254,
      "eless": 7255,
      "Part": 7256,
      "ua": 7257,
      "Ġscores": 7258,
      "Ġelectronic": 7259,
      "ĠMarket": 7260,
      "Ġentries": 7261,
      "ĠSil": 7262,
      "III": 7263,
      "pected": 7264,
      "Ġinitially": 7265,
      "ructural": 7266,
      "measure": 7267,
      "Ġwarm": 7268,
      "ctic": 7269,
      "Ġvillage": 7270,
      "Ġinvestigated": 7271,
      "ĠVer": 7272,
      "multline": 7273,
      "correspon": 7274,
      "ynamics": 7275,
      "Ġfemale": 7276,
      "NE": 7277,
      "Ġolder": 7278,
      "Ġpip": 7279,
      "Ġdeliver": 7280,
      "ĠPan": 7281,
      "agram": 7282,
      "Ġdisapp": 7283,
      "Ġuniverse": 7284,
      "Ġregression": 7285,
      "ĠStep": 7286,
      "lower": 7287,
      "Ġpm": 7288,
      "fortun": 7289,
      "BM": 7290,
      "Ġcarbon": 7291,
      "ĠMuseum": 7292,
      "power": 7293,
      "Ġflex": 7294,
      "bot": 7295,
      "ulating": 7296,
      "ĠCommittee": 7297,
      "Ġeyes": 7298,
      "Go": 7299,
      "Ġschemes": 7300,
      "Ġreality": 7301,
      "Ġfits": 7302,
      "Ġcaref": 7303,
      "empor": 7304,
      "Ġdig": 7305,
      "Ġmarried": 7306,
      "Ġacting": 7307,
      "fered": 7308,
      "overset": 7309,
      "Ġfib": 7310,
      "eder": 7311,
      "ĠAtt": 7312,
      "functions": 7313,
      "Ġcouplings": 7314,
      "Ġsports": 7315,
      "Ð½": 7316,
      "ĠCla": 7317,
      "Ġwants": 7318,
      "Ġtrajectory": 7319,
      "ortion": 7320,
      "Par": 7321,
      "Ġsubspace": 7322,
      "oma": 7323,
      "Ġrepeated": 7324,
      "vin": 7325,
      "odies": 7326,
      "ĠGlobal": 7327,
      "Ġdebut": 7328,
      "Ġur": 7329,
      "Ġreader": 7330,
      "rapy": 7331,
      "Mar": 7332,
      "Bar": 7333,
      "Ġquery": 7334,
      "TC": 7335,
      "Ġperforming": 7336,
      "AE": 7337,
      "unit": 7338,
      "Ġmorning": 7339,
      "erves": 7340,
      "nm": 7341,
      "elesc": 7342,
      ".$$": 7343,
      "ĠMonday": 7344,
      "Ġrandomly": 7345,
      "ĠEnergy": 7346,
      "plo": 7347,
      "igan": 7348,
      "Ġnaturally": 7349,
      "180": 7350,
      "asion": 7351,
      "ĠNat": 7352,
      ")}$.": 7353,
      "Ġannual": 7354,
      "version": 7355,
      "ĠAfrican": 7356,
      "Ġsimilarly": 7357,
      ",...,": 7358,
      "ĠHome": 7359,
      "Ġpanels": 7360,
      "Ġoperating": 7361,
      "apped": 7362,
      "Ġfalse": 7363,
      "oton": 7364,
      "Ġhospital": 7365,
      "subequations": 7366,
      "Results": 7367,
      "Ġ..": 7368,
      "Ġstack": 7369,
      "Ġfinds": 7370,
      "igation": 7371,
      "Ġartist": 7372,
      "Ġsimulated": 7373,
      "Ġcollege": 7374,
      "ĠUs": 7375,
      "Ġinvestment": 7376,
      "Ġheard": 7377,
      "anish": 7378,
      "1989": 7379,
      "midrule": 7380,
      "Ġwild": 7381,
      "Ġchiral": 7382,
      "Ġopportunities": 7383,
      "Ġtransformations": 7384,
      "ĠAGN": 7385,
      "Ġphotons": 7386,
      "also": 7387,
      "Ġfederal": 7388,
      "gency": 7389,
      "Ġsetup": 7390,
      "Ġtot": 7391,
      "Ġsociety": 7392,
      "Ġstrictly": 7393,
      "ugment": 7394,
      "ĠQCD": 7395,
      "^+$": 7396,
      "\\}.": 7397,
      "apes": 7398,
      "Ġrestriction": 7399,
      "Ġweighted": 7400,
      "df": 7401,
      "file": 7402,
      "Ġhear": 7403,
      "Rightarrow": 7404,
      "PD": 7405,
      "Ġstatic": 7406,
      "Ġcloser": 7407,
      "Ġhorizontal": 7408,
      "Other": 7409,
      "mean": 7410,
      "ban": 7411,
      "Ġinflation": 7412,
      "rastructure": 7413,
      "Ġchurch": 7414,
      "Ġcircum": 7415,
      "Ġskills": 7416,
      "varrho": 7417,
      "Ġrestricted": 7418,
      "Ġdog": 7419,
      "Ġprincipal": 7420,
      "Ġbusinesses": 7421,
      "Ġ{$\\": 7422,
      "ĠBa": 7423,
      "Ġstrugg": 7424,
      "Ġmur": 7425,
      "host": 7426,
      "num": 7427,
      "Ġfrag": 7428,
      "Ġfunding": 7429,
      "Var": 7430,
      "ĠSaturday": 7431,
      "istered": 7432,
      "NC": 7433,
      "tz": 7434,
      "_{-\\": 7435,
      "ato": 7436,
      "iemann": 7437,
      "Ġrenormal": 7438,
      "Ġguarante": 7439,
      "ĠHen": 7440,
      "ĠLos": 7441,
      "Ġpurposes": 7442,
      "ĠTown": 7443,
      "Ġcommut": 7444,
      "Ġoil": 7445,
      "Ġroughly": 7446,
      "Ġvarying": 7447,
      "Ġpresents": 7448,
      "nother": 7449,
      "ĠMicro": 7450,
      "raise": 7451,
      "Ġexceed": 7452,
      "ĠFermi": 7453,
      "OD": 7454,
      "igration": 7455,
      "points": 7456,
      "Ġresonance": 7457,
      "Over": 7458,
      "Ġcommercial": 7459,
      "Another": 7460,
      "Ġspirit": 7461,
      "Ġlikelihood": 7462,
      "Ġpaid": 7463,
      "Ġsch": 7464,
      "Ġdeaths": 7465,
      "bigcup": 7466,
      "eller": 7467,
      "ĠManagement": 7468,
      "Ġstorage": 7469,
      "Mark": 7470,
      "ceil": 7471,
      "gal": 7472,
      "Bigg": 7473,
      "âĢĿ,": 7474,
      "ĠFrancis": 7475,
      "ĠIr": 7476,
      "Ġclosely": 7477,
      "ÑĤ": 7478,
      "ĠChild": 7479,
      "unds": 7480,
      "look": 7481,
      "Ġmarked": 7482,
      "assum": 7483,
      "alty": 7484,
      "ĠExp": 7485,
      "ĠStand": 7486,
      "Ġcertainly": 7487,
      "Ġunderstood": 7488,
      "ifted": 7489,
      "edia": 7490,
      "ĠEqs": 7491,
      "iy": 7492,
      "Ġanalyze": 7493,
      "Ġkids": 7494,
      "rec": 7495,
      "phase": 7496,
      "AV": 7497,
      "ĠVis": 7498,
      "ĠSimilarly": 7499,
      "$}}": 7500,
      "ĠVirgin": 7501,
      "128": 7502,
      "ĠCare": 7503,
      "rows": 7504,
      "itudes": 7505,
      "leqslant": 7506,
      "Home": 7507,
      "Ed": 7508,
      "alian": 7509,
      "Ġwish": 7510,
      "Ġpapers": 7511,
      "Ġalgebras": 7512,
      "GM": 7513,
      "Ġparticipants": 7514,
      "AU": 7515,
      "Ġperspective": 7516,
      "ogram": 7517,
      "onald": 7518,
      "ĠJun": 7519,
      "Ġescap": 7520,
      "ĠSN": 7521,
      "Ġsched": 7522,
      "ApJ": 7523,
      "Ġcollision": 7524,
      "eces": 7525,
      "Ġcir": 7526,
      ";\\;": 7527,
      "amin": 7528,
      "Ġstead": 7529,
      "Ġconflict": 7530,
      "risis": 7531,
      "Ġrepresenting": 7532,
      "spin": 7533,
      "ĠPolicy": 7534,
      "ĠDisc": 7535,
      "Ġahead": 7536,
      "Ġstronger": 7537,
      "Ġempty": 7538,
      "esides": 7539,
      "Ġuniqu": 7540,
      "Ġextracted": 7541,
      "active": 7542,
      "world": 7543,
      "inction": 7544,
      "Ġbenchmark": 7545,
      "ifold": 7546,
      "ighter": 7547,
      "ĠGames": 7548,
      "thick": 7549,
      "Ġwat": 7550,
      "pot": 7551,
      "Ġlabor": 7552,
      "Ġdefines": 7553,
      "ĠDet": 7554,
      "ĠMedia": 7555,
      "Ġacad": 7556,
      "Ġinterior": 7557,
      "Ġvision": 7558,
      "ĠlP": 7559,
      "*\\": 7560,
      "Ġkinetic": 7561,
      "HT": 7562,
      "ĠAR": 7563,
      "ĠKore": 7564,
      "Ġcosmological": 7565,
      "ĠElect": 7566,
      "newline": 7567,
      "ĠUV": 7568,
      "ĠHilbert": 7569,
      "âĢī": 7570,
      "Ġremove": 7571,
      "ĠYoung": 7572,
      "ruit": 7573,
      "Ġartists": 7574,
      "ĠWestern": 7575,
      "Ġcalls": 7576,
      "uy": 7577,
      "\\},": 7578,
      "Ġ{};": 7579,
      "Proposition": 7580,
      "Ġwel": 7581,
      "Ġ\\}": 7582,
      "ĠĠĠĠĠĠĠĠĠĠĠĠĠĠĠĠĠĠĠĠĠĠĠĠĠĠĠĠĠĠĠĠĠĠĠĠĠĠĠĠĠĠĠĠĠĠĠĠĠĠĠĠĠĠĠĠĠĠĠĠĠĠĠĠ": 7583,
      "Ġpartner": 7584,
      "sembly": 7585,
      "Ġcorpor": 7586,
      "Ġupdated": 7587,
      "}^+": 7588,
      "ĠOF": 7589,
      "Ġdivers": 7590,
      "Ġinduction": 7591,
      "Ġmask": 7592,
      "Ġplasma": 7593,
      "Ġinvolve": 7594,
      "different": 7595,
      "}},\\": 7596,
      "ĠLake": 7597,
      "ĠTuesday": 7598,
      "ructions": 7599,
      "ĠOh": 7600,
      "Ġbroken": 7601,
      "sche": 7602,
      "Ġdomains": 7603,
      "orial": 7604,
      "Tra": 7605,
      "zen": 7606,
      "Ġdominated": 7607,
      "}[!": 7608,
      "ĠFrank": 7609,
      "Ġclinical": 7610,
      "alities": 7611,
      "Ġsea": 7612,
      "Ġcrow": 7613,
      "Ġfailure": 7614,
      "Ġinvolves": 7615,
      "Ġencoura": 7616,
      "Ġfigures": 7617,
      "Ġcontrolled": 7618,
      "kins": 7619,
      "ĠRead": 7620,
      "Ã¶": 7621,
      "Ġalle": 7622,
      "har": 7623,
      "fold": 7624,
      "ja": 7625,
      "mf": 7626,
      "Ġsimplicity": 7627,
      "Ġviews": 7628,
      "Ġconsisting": 7629,
      "600": 7630,
      "Ġatomic": 7631,
      "respect": 7632,
      "Ġleaving": 7633,
      "Ġhelped": 7634,
      "@{": 7635,
      "ĠKn": 7636,
      "Ġorientation": 7637,
      "erman": 7638,
      "Ġsecondary": 7639,
      "Ġeigenvalue": 7640,
      "Ġnone": 7641,
      "ĠRoman": 7642,
      "anglement": 7643,
      "ĠMult": 7644,
      "Ġdefinitions": 7645,
      "td": 7646,
      "Ġextent": 7647,
      "($": 7648,
      "ĠProfess": 7649,
      "oded": 7650,
      "ĠAv": 7651,
      "Ġorganizations": 7652,
      "ĠRam": 7653,
      "Ġcatalog": 7654,
      "Ġgenerator": 7655,
      "hn": 7656,
      "Ġvisible": 7657,
      "ĠPeter": 7658,
      "aby": 7659,
      "Ġhybrid": 7660,
      "Ġparties": 7661,
      "})=\\": 7662,
      "ala": 7663,
      "current": 7664,
      "Ġchallenging": 7665,
      "Ġsphere": 7666,
      "Ġbon": 7667,
      "ĠCat": 7668,
      "Ġlock": 7669,
      "conduct": 7670,
      "bro": 7671,
      "ĠArmy": 7672,
      "jo": 7673,
      "}>": 7674,
      "Ġfeet": 7675,
      "Ġspeech": 7676,
      "Ġspan": 7677,
      "Ġfashion": 7678,
      "Ġhelps": 7679,
      "Ġsurrounding": 7680,
      "Ġpool": 7681,
      "comput": 7682,
      "Ġdeveloping": 7683,
      "Ġconcentration": 7684,
      "Ġdip": 7685,
      "Ġcharacterized": 7686,
      "chron": 7687,
      "Ġremember": 7688,
      "ittle": 7689,
      "Ġinfe": 7690,
      "Ġknew": 7691,
      "Ġbrain": 7692,
      "Ġcert": 7693,
      "jected": 7694,
      "Ġassigned": 7695,
      "tect": 7696,
      "Ġcomparable": 7697,
      "Ġcodes": 7698,
      "Ġcoach": 7699,
      "Ġinference": 7700,
      "Ġimply": 7701,
      "Ġwinning": 7702,
      "ĠOlymp": 7703,
      "Ġdiscovered": 7704,
      "ifer": 7705,
      "odd": 7706,
      "Man": 7707,
      "\\[\\": 7708,
      "Ġboost": 7709,
      "Ġdeploy": 7710,
      ")}$,": 7711,
      "Ġlooked": 7712,
      "riend": 7713,
      "ï¿": 7714,
      "1988": 7715,
      "ĠNext": 7716,
      "IST": 7717,
      "lm": 7718,
      "Ġillustrated": 7719,
      "Ġspecified": 7720,
      "ĠLee": 7721,
      "Ġenvironmental": 7722,
      "defn": 7723,
      "Ġlogarithm": 7724,
      "ĠCre": 7725,
      "ĠApple": 7726,
      "\\}_{": 7727,
      "Ġsolved": 7728,
      "ĠDivision": 7729,
      "Ġcovering": 7730,
      ")&": 7731,
      "ĠCase": 7732,
      "zy": 7733,
      "ĠWeek": 7734,
      "ĠAustralian": 7735,
      "Ġeconomy": 7736,
      "problem": 7737,
      "Ġnull": 7738,
      "url": 7739,
      "Ġrespective": 7740,
      "1987": 7741,
      "cean": 7742,
      "rency": 7743,
      "Ġlegisl": 7744,
      "Ġpi": 7745,
      "ĠLong": 7746,
      "BI": 7747,
      "Ġdiscussions": 7748,
      "}{*}{": 7749,
      "ĠCEO": 7750,
      "Ġearth": 7751,
      "Ġreconstruction": 7752,
      "init": 7753,
      "ĠRoyal": 7754,
      "Ġintroduction": 7755,
      "grav": 7756,
      "Ġliquid": 7757,
      "conds": 7758,
      "Ġsubsequent": 7759,
      "Ġoriginally": 7760,
      "Ġmac": 7761,
      "_{[": 7762,
      "othing": 7763,
      "ĠBas": 7764,
      "ĠGen": 7765,
      "Ġidentification": 7766,
      "ĠSD": 7767,
      "green": 7768,
      "Ġice": 7769,
      "Ġbeautiful": 7770,
      "HD": 7771,
      "ĠUp": 7772,
      "coh": 7773,
      "elligence": 7774,
      "Ġdivided": 7775,
      "strong": 7776,
      "Ġends": 7777,
      "Ġexcellent": 7778,
      "Ġrepresentative": 7779,
      "spe": 7780,
      "ĠMany": 7781,
      "ĠWay": 7782,
      "Ġverify": 7783,
      "ĠTeam": 7784,
      "}\\;": 7785,
      "ĠStr": 7786,
      "Met": 7787,
      "ounder": 7788,
      "PY": 7789,
      "ĠHot": 7790,
      "Ġpotentially": 7791,
      "Ġslope": 7792,
      "ĠIll": 7793,
      "|_{\\": 7794,
      "conf": 7795,
      "hab": 7796,
      "take": 7797,
      "Ġreferences": 7798,
      "aming": 7799,
      "wt": 7800,
      "ï¿½": 7801,
      "GR": 7802,
      "ĠDesign": 7803,
      "Ġstabil": 7804,
      "ĠCommunity": 7805,
      "TH": 7806,
      "Ġrestaur": 7807,
      "ĠSi": 7808,
      "Ġepoch": 7809,
      "ĠProv": 7810,
      "Ġcriteria": 7811,
      "pass": 7812,
      "Ġsplitting": 7813,
      "Ġdiffer": 7814,
      "word": 7815,
      "Ġconvenient": 7816,
      "Ġguide": 7817,
      "Ġrecognition": 7818,
      "thlet": 7819,
      "Ġamplitudes": 7820,
      "ĠMC": 7821,
      "Ġclustering": 7822,
      "just": 7823,
      "Ġsatell": 7824,
      "Ġdefe": 7825,
      "Ġsend": 7826,
      "Ġextreme": 7827,
      "ĠAtl": 7828,
      "oles": 7829,
      "Ġreward": 7830,
      "ĠLo": 7831,
      "mazon": 7832,
      "Ġtrend": 7833,
      "Ġunless": 7834,
      "Ġzone": 7835,
      "ĠCNN": 7836,
      "BAG": 7837,
      "Ġmechanisms": 7838,
      "inst": 7839,
      "ĠAngeles": 7840,
      "lies": 7841,
      "uing": 7842,
      "ĠDu": 7843,
      "Ġcomplicated": 7844,
      "apse": 7845,
      "aland": 7846,
      "ogether": 7847,
      "irt": 7848,
      "ĠJapanese": 7849,
      "Ġprepar": 7850,
      "Ġrefin": 7851,
      "Furthermore": 7852,
      "Ġtried": 7853,
      "erion": 7854,
      "Ġadvert": 7855,
      "ĠAI": 7856,
      "ĠMur": 7857,
      "ĠLore": 7858,
      "Ġoffered": 7859,
      "Ġfill": 7860,
      "mary": 7861,
      "Ġdrawn": 7862,
      "Ġturbul": 7863,
      "Ġvehicles": 7864,
      "Ġflows": 7865,
      "hskip": 7866,
      "states": 7867,
      "Ġissu": 7868,
      "sky": 7869,
      "ĠChicago": 7870,
      "Ġsimultaneously": 7871,
      "Che": 7872,
      "ĠWind": 7873,
      "Ġconformal": 7874,
      "ĠVict": 7875,
      "Ġgeneralization": 7876,
      "ĠExt": 7877,
      "Ġcorner": 7878,
      "ĠLouis": 7879,
      "Ġstationary": 7880,
      "Ġfindings": 7881,
      "Ġproposition": 7882,
      "Ġcomparing": 7883,
      "Ġfiber": 7884,
      "Ġcredit": 7885,
      "'d": 7886,
      "ĠRet": 7887,
      "arest": 7888,
      "Ġintervals": 7889,
      "Ġhappened": 7890,
      "Ġdriven": 7891,
      "Ġanisot": 7892,
      "comb": 7893,
      "DYBAG": 7894,
      "Ġmoves": 7895,
      "\\,,": 7896,
      "Ġpowers": 7897,
      "Ġillustr": 7898,
      "ĠPower": 7899,
      "ĠPC": 7900,
      "Ġhour": 7901,
      "ĠList": 7902,
      "\\/": 7903,
      "clide": 7904,
      "riage": 7905,
      "^*_": 7906,
      "Ġdrug": 7907,
      "uty": 7908,
      "Ġglob": 7909,
      "Ġdream": 7910,
      "Ġsimilarity": 7911,
      "Out": 7912,
      "reland": 7913,
      "ĠWin": 7914,
      "Am": 7915,
      ")>": 7916,
      "parameters": 7917,
      "citealt": 7918,
      "1970": 7919,
      "approxim": 7920,
      "Ġraised": 7921,
      "cross": 7922,
      "ĠSk": 7923,
      "&$": 7924,
      "Ġorbits": 7925,
      "ĠColl": 7926,
      "ystem": 7927,
      "Ġsomewhat": 7928,
      "MT": 7929,
      "Ġeye": 7930,
      "Ġproduces": 7931,
      "post": 7932,
      "loc": 7933,
      "ĠÎ": 7934,
      "Ġbecoming": 7935,
      "Ġwood": 7936,
      "Ġforeign": 7937,
      "when": 7938,
      "ĠCH": 7939,
      "Ġbudget": 7940,
      "Ġmatches": 7941,
      "ĠAnother": 7942,
      "ĠMonte": 7943,
      "}~\\": 7944,
      "since": 7945,
      "Ġisomorphic": 7946,
      "arden": 7947,
      "Ġcauses": 7948,
      "gets": 7949,
      "Ġensemble": 7950,
      "Ġrail": 7951,
      "125": 7952,
      "scape": 7953,
      "Ġconcerns": 7954,
      "Ġgeodes": 7955,
      ".(\\": 7956,
      "Ma": 7957,
      "People": 7958,
      "make": 7959,
      "moment": 7960,
      "textnormal": 7961,
      "ĠComput": 7962,
      "Ġfra": 7963,
      "Ġnumerous": 7964,
      "'$.": 7965,
      "Ġempirical": 7966,
      "models": 7967,
      "ĠReport": 7968,
      "nolimits": 7969,
      "ĠOper": 7970,
      "Ġunitary": 7971,
      "Ġplotted": 7972,
      "=-\\": 7973,
      "ĠTaylor": 7974,
      "ulus": 7975,
      "auto": 7976,
      "Ġlaunched": 7977,
      "Cal": 7978,
      "clip": 7979,
      "Ġowners": 7980,
      "Ġconventional": 7981,
      "ĠCanadian": 7982,
      "Ġglass": 7983,
      "Ġdie": 7984,
      "learly": 7985,
      "ĠNet": 7986,
      "ĠAcademy": 7987,
      "Ġpseudo": 7988,
      "Ġlaunch": 7989,
      "ĠInvest": 7990,
      "Ġresource": 7991,
      "ĠMedical": 7992,
      "inking": 7993,
      "BR": 7994,
      "Ġsymbols": 7995,
      "hard": 7996,
      "Ġpixel": 7997,
      "clidean": 7998,
      "ĠGame": 7999,
      "ĠHuman": 8000,
      "ĠĠčĊ": 8001,
      "iced": 8002,
      "ĠPriv": 8003,
      "Ġprices": 8004,
      "ĠNGC": 8005,
      ")=(": 8006,
      "Ġmultip": 8007,
      "MF": 8008,
      "Also": 8009,
      "compon": 8010,
      "Ġoutcome": 8011,
      "Ġcitiz": 8012,
      "vdots": 8013,
      "water": 8014,
      "Ġinstances": 8015,
      "Ġwest": 8016,
      "cycl": 8017,
      "Ġconverges": 8018,
      "elian": 8019,
      "Ġkeeping": 8020,
      "}{}": 8021,
      "Ġcav": 8022,
      "Of": 8023,
      "Ġrequirement": 8024,
      "fortunately": 8025,
      "Ġeasier": 8026,
      "notin": 8027,
      "ĠChief": 8028,
      "even": 8029,
      "Top": 8030,
      "between": 8031,
      "ĠTri": 8032,
      "result": 8033,
      "ĠCam": 8034,
      "PE": 8035,
      "Ġentirely": 8036,
      "ĠDirac": 8037,
      "product": 8038,
      "Ġfamous": 8039,
      "Ġabundance": 8040,
      "usband": 8041,
      "Ġsummary": 8042,
      "determ": 8043,
      "ĠKar": 8044,
      "ĠBet": 8045,
      "Ġdecays": 8046,
      "Why": 8047,
      "Ġstands": 8048,
      "Ġarticles": 8049,
      "Ref": 8050,
      "independent": 8051,
      "Ġrecip": 8052,
      "Ġorganized": 8053,
      "Ġsave": 8054,
      "po": 8055,
      "101": 8056,
      "Ġdt": 8057,
      "ĠMartin": 8058,
      "Ġsubsection": 8059,
      "Ġcommonly": 8060,
      "Ġofficials": 8061,
      "ĠWilson": 8062,
      "ĠSpr": 8063,
      "Ġreads": 8064,
      "ora": 8065,
      "ÑĢ": 8066,
      "Ġgenerators": 8067,
      "dashed": 8068,
      "Ġrelationships": 8069,
      "Upsilon": 8070,
      "open": 8071,
      "Ġprotection": 8072,
      "ician": 8073,
      "Ġcommand": 8074,
      "Ġinterpol": 8075,
      "Ġdedicated": 8076,
      "categ": 8077,
      "Ġkine": 8078,
      "ĠCentre": 8079,
      "atas": 8080,
      "sa": 8081,
      "Ġreturns": 8082,
      "ĠPri": 8083,
      "ĠTim": 8084,
      "Ġdecades": 8085,
      "tically": 8086,
      "Ġincome": 8087,
      "imately": 8088,
      "Ġpassing": 8089,
      "Ġrobot": 8090,
      "prec": 8091,
      "Ġfan": 8092,
      "ĠWell": 8093,
      "Ġprobabilities": 8094,
      "Ġblog": 8095,
      "ĠPoisson": 8096,
      "racket": 8097,
      "phe": 8098,
      "Ġarrest": 8099,
      "ĠShow": 8100,
      "argets": 8101,
      "Ġcolumns": 8102,
      "ibilities": 8103,
      "Ġvideos": 8104,
      "how": 8105,
      "}}=\\": 8106,
      "Ġdefect": 8107,
      "1986": 8108,
      "Ġrecording": 8109,
      "ĠTest": 8110,
      "Ġchart": 8111,
      "Ġequipment": 8112,
      "Ġboundaries": 8113,
      "LT": 8114,
      "perturb": 8115,
      "ĠLove": 8116,
      "Ġannot": 8117,
      "olars": 8118,
      "brane": 8119,
      "Ġcomposed": 8120,
      "Ġtick": 8121,
      "Sum": 8122,
      "jpg": 8123,
      "800": 8124,
      "icians": 8125,
      "Ġbary": 8126,
      "Ġdecreasing": 8127,
      "hl": 8128,
      "white": 8129,
      "forming": 8130,
      "ĠDep": 8131,
      "Ġresearchers": 8132,
      "Ġestimator": 8133,
      "ĠArts": 8134,
      "Ġjobs": 8135,
      "|=": 8136,
      "azz": 8137,
      "aste": 8138,
      "Ġdiscover": 8139,
      "Ġroots": 8140,
      "connected": 8141,
      "life": 8142,
      "]=": 8143,
      "unc": 8144,
      "Ġdamage": 8145,
      "Ġmodules": 8146,
      ".}\\": 8147,
      "anguages": 8148,
      "ĠAgain": 8149,
      "oting": 8150,
      "\\|^": 8151,
      "Ġangles": 8152,
      "Ġdoor": 8153,
      "Ġposterior": 8154,
      "ĠSciences": 8155,
      "ses": 8156,
      "Ġforced": 8157,
      "itle": 8158,
      "rg": 8159,
      "Ġtwice": 8160,
      "dule": 8161,
      "Ġspacetime": 8162,
      "Ġcreation": 8163,
      "arial": 8164,
      "nowledge": 8165,
      "Ġhandle": 8166,
      "Ġcritic": 8167,
      "period": 8168,
      "Ġdecisions": 8169,
      "Ġvictim": 8170,
      "alls": 8171,
      "Disc": 8172,
      "Ġfeas": 8173,
      "ĠGet": 8174,
      "Ġthinking": 8175,
      "pres": 8176,
      "ĠRem": 8177,
      "Ġdefining": 8178,
      "gar": 8179,
      "Ġneutron": 8180,
      "John": 8181,
      "Ġgate": 8182,
      "pic": 8183,
      "Ġlaser": 8184,
      "Ġdatabase": 8185,
      "Ġfaith": 8186,
      "BO": 8187,
      "itar": 8188,
      "ĠFamily": 8189,
      "Ext": 8190,
      "ĠBack": 8191,
      "$_{\\": 8192,
      "Ġconservation": 8193,
      "Ġsurve": 8194,
      "GA": 8195,
      "estic": 8196,
      "ĠInstead": 8197,
      "quote": 8198,
      "ervative": 8199,
      "Ġbiggest": 8200,
      "ircraft": 8201,
      "Ġfresh": 8202,
      "Ġcompre": 8203,
      "Ġconditional": 8204,
      "Ġsenior": 8205,
      "Ġresidents": 8206,
      "Ġtopic": 8207,
      "ĠHor": 8208,
      "Ġspherical": 8209,
      "Ġsevere": 8210,
      "theory": 8211,
      "ĠIsrael": 8212,
      "above": 8213,
      "ĠFree": 8214,
      "ĠDefinition": 8215,
      "Ġmir": 8216,
      "ĠCP": 8217,
      "Ġcompatible": 8218,
      "valued": 8219,
      "ĠAny": 8220,
      "Ġinputs": 8221,
      "mak": 8222,
      "heric": 8223,
      "ima": 8224,
      "ĠWho": 8225,
      "Ġseparated": 8226,
      "}_{{\\": 8227,
      "Ġmedian": 8228,
      "ĠBal": 8229,
      "ĠJud": 8230,
      "inate": 8231,
      "Ġstock": 8232,
      "Ġbattle": 8233,
      "ĠJohnson": 8234,
      "Ġvanishes": 8235,
      "Ġautomatically": 8236,
      "Ġdivis": 8237,
      "conver": 8238,
      "irus": 8239,
      "second": 8240,
      "roscopic": 8241,
      "ĠWood": 8242,
      "|_": 8243,
      "number": 8244,
      "Ġexhibit": 8245,
      "ĠTO": 8246,
      "Ġflight": 8247,
      "bec": 8248,
      "({": 8249,
      "Ġcolour": 8250,
      "LM": 8251,
      "Ġsharing": 8252,
      "Ġship": 8253,
      "%)": 8254,
      "ught": 8255,
      "Ġconference": 8256,
      "ĠSC": 8257,
      "BB": 8258,
      "liam": 8259,
      "intro": 8260,
      "Ġcub": 8261,
      "Ġfinished": 8262,
      "Bigl": 8263,
      "ligible": 8264,
      "special": 8265,
      "AF": 8266,
      "Ġnine": 8267,
      "reci": 8268,
      "Ġcontradiction": 8269,
      "El": 8270,
      "Ġaugment": 8271,
      "alaxy": 8272,
      "ĠDown": 8273,
      "learning": 8274,
      "image": 8275,
      "ĠSecret": 8276,
      "Red": 8277,
      "urance": 8278,
      "constra": 8279,
      "Ġfloor": 8280,
      "Ġplots": 8281,
      "EV": 8282,
      "Ñģ": 8283,
      "vskip": 8284,
      "ENT": 8285,
      "Ġcities": 8286,
      "Ġheter": 8287,
      "Ġdanger": 8288,
      "Ġconnections": 8289,
      "liography": 8290,
      "ĠMethod": 8291,
      "ĠCy": 8292,
      "Ġblow": 8293,
      "}<": 8294,
      "ulas": 8295,
      "Phys": 8296,
      "Ġhistorical": 8297,
      "Ġdefense": 8298,
      "Ġpulse": 8299,
      "psh": 8300,
      "ribe": 8301,
      "Ġholes": 8302,
      "}})$": 8303,
      "Ġlabeled": 8304,
      "Ġwriter": 8305,
      "arting": 8306,
      "Gu": 8307,
      "lick": 8308,
      "Ġray": 8309,
      "Ġcovariance": 8310,
      "ĠCho": 8311,
      "orted": 8312,
      "urable": 8313,
      "Ġexperiences": 8314,
      "Ġadjacent": 8315,
      "1984": 8316,
      "Ġsuccessfully": 8317,
      "inity": 8318,
      "vironments": 8319,
      "ĠBlo": 8320,
      "rene": 8321,
      "Ġeast": 8322,
      "Ġheav": 8323,
      "lie": 8324,
      "Ġreb": 8325,
      "ĠMarkov": 8326,
      "method": 8327,
      "Ġseeing": 8328,
      "ĠJones": 8329,
      "Ġcondens": 8330,
      "ĠNon": 8331,
      "Ġadvanced": 8332,
      "Ġcircuit": 8333,
      "tor": 8334,
      "Ġdocuments": 8335,
      "ĠAT": 8336,
      "Ġsell": 8337,
      "Ġembedded": 8338,
      "Mat": 8339,
      "frared": 8340,
      "Ġupdates": 8341,
      "')$": 8342,
      "mode": 8343,
      "ĠParis": 8344,
      "wan": 8345,
      "Ġguess": 8346,
      "Ġapplies": 8347,
      "Ġnormalization": 8348,
      "ĠAst": 8349,
      "Ġpackage": 8350,
      "Ġmeta": 8351,
      "Ġexerc": 8352,
      "font": 8353,
      "iro": 8354,
      "Ġstatements": 8355,
      "Ġreconstruct": 8356,
      "Ġcustomer": 8357,
      "Ġversions": 8358,
      "Ġpropagation": 8359,
      "Bigr": 8360,
      "uv": 8361,
      "Ġconsult": 8362,
      "Ġunc": 8363,
      "forms": 8364,
      "Ġnice": 8365,
      "liament": 8366,
      "Eu": 8367,
      "Ima": 8368,
      "ĠEU": 8369,
      "riminal": 8370,
      "ĠZealand": 8371,
      "([": 8372,
      "ĠFurther": 8373,
      "matically": 8374,
      "herence": 8375,
      "ĠUkraine": 8376,
      "ĠWeb": 8377,
      "Ġtracks": 8378,
      "Ġtrajectories": 8379,
      "ĠCr": 8380,
      "Model": 8381,
      "Ġplate": 8382,
      "Ġdoub": 8383,
      "Ġnearby": 8384,
      "Ġprefe": 8385,
      "'}\\": 8386,
      "Ġhappy": 8387,
      "des": 8388,
      "uction": 8389,
      "orb": 8390,
      "Ġperturbations": 8391,
      "Ġdial": 8392,
      "ĠDC": 8393,
      "Ġindependently": 8394,
      "ented": 8395,
      "Ġaudience": 8396,
      "ĠRiemann": 8397,
      "ĠOl": 8398,
      "ubb": 8399,
      "RI": 8400,
      "triang": 8401,
      "Di": 8402,
      "Recall": 8403,
      ")|\\": 8404,
      "tb": 8405,
      ".},": 8406,
      "Trans": 8407,
      "dual": 8408,
      "ĠJim": 8409,
      "Ġsegmentation": 8410,
      "Ġintrinsic": 8411,
      "cules": 8412,
      "1985": 8413,
      "Ġmeant": 8414,
      "Ġlargely": 8415,
      "Ġpus": 8416,
      "triangle": 8417,
      "ĠCharles": 8418,
      "gery": 8419,
      "ribed": 8420,
      "ixture": 8421,
      "HO": 8422,
      "yer": 8423,
      "plate": 8424,
      "ĠSpecial": 8425,
      "Acknowledg": 8426,
      "ĠImp": 8427,
      "ĠÂ£": 8428,
      "rics": 8429,
      "ĠBud": 8430,
      "Cont": 8431,
      "ootball": 8432,
      "ĠBol": 8433,
      "Ġchief": 8434,
      "float": 8435,
      "Ġatom": 8436,
      "ĠWhy": 8437,
      "forcement": 8438,
      "Ġbatter": 8439,
      "Ġenable": 8440,
      "bolic": 8441,
      "ntz": 8442,
      "orrow": 8443,
      "ĠMont": 8444,
      "Ġimmediate": 8445,
      "Ġarise": 8446,
      "STATE": 8447,
      "Ġwhenever": 8448,
      "urban": 8449,
      "Ġfunctor": 8450,
      "Ġclients": 8451,
      "ictures": 8452,
      "iner": 8453,
      "ĠFre": 8454,
      "full": 8455,
      "below": 8456,
      "unders": 8457,
      "ĠWater": 8458,
      "ĠIP": 8459,
      "Ġprotein": 8460,
      "centerline": 8461,
      "Ġbelongs": 8462,
      "jk": 8463,
      "potential": 8464,
      "FS": 8465,
      "Ġdisjoint": 8466,
      "Ġanalytical": 8467,
      "ĠChristmas": 8468,
      "Ġsentence": 8469,
      "Ġitem": 8470,
      "ĠResults": 8471,
      "ĠRa": 8472,
      "Ġrealized": 8473,
      "Ġvelocities": 8474,
      "phone": 8475,
      "ulner": 8476,
      "Ġcollisions": 8477,
      "Ġobst": 8478,
      "ouds": 8479,
      "ĠCath": 8480,
      "Ġattend": 8481,
      "Ġadvance": 8482,
      "lb": 8483,
      "sen": 8484,
      "ĠDou": 8485,
      "rivers": 8486,
      "ĠSports": 8487,
      "mathbbm": 8488,
      "enture": 8489,
      "Ġdepart": 8490,
      "Ġleague": 8491,
      "Inter": 8492,
      "will": 8493,
      "Ġcoherent": 8494,
      "evertheless": 8495,
      "ĠIreland": 8496,
      "})_{": 8497,
      "Ġsupporting": 8498,
      "Ġful": 8499,
      "weak": 8500,
      "Ġdoll": 8501,
      "utr": 8502,
      "ĠVirginia": 8503,
      "ĠOnce": 8504,
      "Ġcovers": 8505,
      "blem": 8506,
      "ĠAbout": 8507,
      "Ġcomfor": 8508,
      "ĠType": 8509,
      "ĠIndust": 8510,
      "ĠBra": 8511,
      "iana": 8512,
      "Ġfacilities": 8513,
      "Ġseconds": 8514,
      "Ġbeat": 8515,
      "ĠEnter": 8516,
      "Ġdistinguish": 8517,
      "itted": 8518,
      "ni": 8519,
      "ĠGeorg": 8520,
      "aneous": 8521,
      "Ġboy": 8522,
      "ĠHead": 8523,
      "ultural": 8524,
      "Ġdiscret": 8525,
      "Art": 8526,
      "RS": 8527,
      "ĠPenn": 8528,
      "Ġpartially": 8529,
      "Ġmanager": 8530,
      "Ġcolors": 8531,
      "Ġsigns": 8532,
      "aka": 8533,
      "Ġ{{\\": 8534,
      "aper": 8535,
      "anche": 8536,
      "ĠFilm": 8537,
      "ĠOnly": 8538,
      "ĠJacob": 8539,
      "requency": 8540,
      "Ġstructural": 8541,
      "'$,": 8542,
      "Ġscientific": 8543,
      "Ġrapidly": 8544,
      "Ġcultural": 8545,
      "displaymath": 8546,
      "ĠLast": 8547,
      "ĠAdv": 8548,
      "Ġprojective": 8549,
      "ĠAsia": 8550,
      "substack": 8551,
      "ĠFestival": 8552,
      "Ġinspired": 8553,
      "Ġmm": 8554,
      "Ġframes": 8555,
      "hav": 8556,
      "ĠOld": 8557,
      "owski": 8558,
      "exist": 8559,
      "Ġbriefly": 8560,
      "Ġload": 8561,
      "ĠMS": 8562,
      "Ġiterations": 8563,
      "Ġrealistic": 8564,
      "Ġended": 8565,
      "Ġleadership": 8566,
      "Ġran": 8567,
      "Ear": 8568,
      "iples": 8569,
      "Ġpion": 8570,
      "ĠLead": 8571,
      "Ġfilled": 8572,
      "Ġsteady": 8573,
      "than": 8574,
      "Ġintegers": 8575,
      "Ġpeaks": 8576,
      "ĠItaly": 8577,
      "NT": 8578,
      "Ġtells": 8579,
      "astern": 8580,
      "Ġoutcomes": 8581,
      "EW": 8582,
      "Under": 8583,
      "ĠJoe": 8584,
      "Ġsho": 8585,
      "Ġbuildings": 8586,
      "Ġfailed": 8587,
      "Ġaccounts": 8588,
      "Ġperiods": 8589,
      "Ġcooling": 8590,
      "ye": 8591,
      "Gl": 8592,
      "Ġpieces": 8593,
      "ĠEqu": 8594,
      "razil": 8595,
      "erry": 8596,
      "DD": 8597,
      "antly": 8598,
      "Ġcomprehens": 8599,
      "Ġsmallest": 8600,
      "Ĥ¬": 8601,
      "Ġsport": 8602,
      "Ġsecure": 8603,
      "Ġcars": 8604,
      "Ġ$[\\": 8605,
      "Ġadministration": 8606,
      "Ġsuffic": 8607,
      "Ġaffine": 8608,
      "acific": 8609,
      "Ġconsideration": 8610,
      "ordan": 8611,
      "Ġcounterpart": 8612,
      "{[": 8613,
      "Ġpointed": 8614,
      "Ġtargets": 8615,
      "specific": 8616,
      "images": 8617,
      "Ġchoosing": 8618,
      "ĠRichard": 8619,
      "ĠCas": 8620,
      "Ġpopulations": 8621,
      "Mon": 8622,
      "Ġcone": 8623,
      "iability": 8624,
      "May": 8625,
      "ĠCast": 8626,
      "ĠML": 8627,
      "Ġ\\:": 8628,
      ")}=": 8629,
      "Ġboson": 8630,
      "Ġbegins": 8631,
      "ĠSecurity": 8632,
      "Ġdwar": 8633,
      "Ġinfrastructure": 8634,
      "Ġeditor": 8635,
      "Ġdiscrimin": 8636,
      "ĠMov": 8637,
      "closed": 8638,
      "aver": 8639,
      "Ġnan": 8640,
      "Ġconfirm": 8641,
      "Ġstages": 8642,
      "Ġpractices": 8643,
      "Ġ}{\\": 8644,
      "Ġexposure": 8645,
      "Ġconfin": 8646,
      "Ġcircular": 8647,
      "bour": 8648,
      "Ġdescribing": 8649,
      "ĠGre": 8650,
      "Ġworst": 8651,
      "Ġdissip": 8652,
      "perty": 8653,
      "ĠItalian": 8654,
      "Ġsupports": 8655,
      "ublished": 8656,
      "ĠSar": 8657,
      "road": 8658,
      "Ġclaimed": 8659,
      "Data": 8660,
      "]^{": 8661,
      "bc": 8662,
      "ĠValley": 8663,
      "Ġnav": 8664,
      "uries": 8665,
      "true": 8666,
      "ĠAnalysis": 8667,
      "Ġextensive": 8668,
      "ĠChampionship": 8669,
      "Ġ&$": 8670,
      "Comp": 8671,
      "}.\\": 8672,
      "ĠPolice": 8673,
      "BL": 8674,
      "MD": 8675,
      ")).": 8676,
      "ĠMexico": 8677,
      "Ġanalyzed": 8678,
      "ĠOrgan": 8679,
      "Ġreducing": 8680,
      "Ġstandards": 8681,
      "Ġharmonic": 8682,
      "aton": 8683,
      "ĠSand": 8684,
      "men": 8685,
      "Ġentanglement": 8686,
      "Ġsubsets": 8687,
      "ĠBlue": 8688,
      "Ġsharp": 8689,
      "Ġweap": 8690,
      "Ġwhom": 8691,
      "Med": 8692,
      "stone": 8693,
      "}}\\,": 8694,
      "Ġweather": 8695,
      "oz": 8696,
      "eties": 8697,
      "Ag": 8698,
      "ĠAwards": 8699,
      "Ġnom": 8700,
      "idal": 8701,
      "Ġdil": 8702,
      "including": 8703,
      "pmb": 8704,
      "uity": 8705,
      "Ġexecution": 8706,
      "Ġtrip": 8707,
      "~(": 8708,
      "ĠNY": 8709,
      "Ġwitness": 8710,
      "Ġroute": 8711,
      "eld": 8712,
      "ĠLim": 8713,
      "ĠLibrary": 8714,
      "Ġisolated": 8715,
      "Ġfuel": 8716,
      "Ġapplicable": 8717,
      "Ġsav": 8718,
      "ĠID": 8719,
      "Ġweakly": 8720,
      ")}_{\\": 8721,
      "}&\\": 8722,
      "ĠCarolina": 8723,
      "Ġrecovery": 8724,
      "nings": 8725,
      "Ġprimarily": 8726,
      "Ġhusband": 8727,
      "Ġsexual": 8728,
      "Ġmoder": 8729,
      "Ġsignature": 8730,
      "ativity": 8731,
      "Ġtalking": 8732,
      "Ġbed": 8733,
      "ienced": 8734,
      "Ġordinary": 8735,
      "Ġfacilit": 8736,
      "Ġenvironments": 8737,
      "PYG": 8738,
      "ĠĠĠĠĠĠĠĠĠĠĠĠĠĠĠĠĠĠĠ": 8739,
      "Ġcooper": 8740,
      "ĠIran": 8741,
      "Ġpeace": 8742,
      "lfloor": 8743,
      "complete": 8744,
      "Ġcorrelated": 8745,
      "isen": 8746,
      "ulator": 8747,
      "ĠConference": 8748,
      "ĠArab": 8749,
      "Ġanalogous": 8750,
      "Ġentertain": 8751,
      "Ġproperly": 8752,
      "Ġanomal": 8753,
      "umps": 8754,
      "Ġenhanced": 8755,
      "Ġpsych": 8756,
      "Ġcollaboration": 8757,
      "ificial": 8758,
      "_{{": 8759,
      "Ġcohom": 8760,
      "ĠEnd": 8761,
      "complex": 8762,
      "Ġwire": 8763,
      "Ġ$<": 8764,
      "Ġcrisis": 8765,
      "Ġexplanation": 8766,
      "RC": 8767,
      "Ġ$\\|": 8768,
      "Ġdriver": 8769,
      "lt": 8770,
      "ĠJoseph": 8771,
      "Ġreliable": 8772,
      "Ġexponent": 8773,
      "iler": 8774,
      "ĠBern": 8775,
      "Ġemot": 8776,
      "HM": 8777,
      "Ġtechnologies": 8778,
      "Ġstre": 8779,
      "Ġprison": 8780,
      "ĠChris": 8781,
      "Ġreflection": 8782,
      "Ġrelaxation": 8783,
      "Ġworse": 8784,
      "Ġgone": 8785,
      "alf": 8786,
      "Assume": 8787,
      "was": 8788,
      "unte": 8789,
      "ĠVan": 8790,
      "ĠFood": 8791,
      "Ġoverlap": 8792,
      "Ġguarantee": 8793,
      "Ġphil": 8794,
      "123": 8795,
      "mic": 8796,
      "Ġappreci": 8797,
      "ĠCov": 8798,
      "}_+": 8799,
      "Ġantic": 8800,
      "physical": 8801,
      "Ġlatent": 8802,
      "Ġpush": 8803,
      "Ġapart": 8804,
      "Ġpossess": 8805,
      "Ġreviews": 8806,
      "ori": 8807,
      "amm": 8808,
      "Ġassociation": 8809,
      "values": 8810,
      "Ġcoast": 8811,
      "iliary": 8812,
      "ccc": 8813,
      "Ġformalism": 8814,
      "dep": 8815,
      "Ġoffering": 8816,
      "sample": 8817,
      "ulty": 8818,
      "Ġthousands": 8819,
      "Ġflag": 8820,
      "OV": 8821,
      "utely": 8822,
      "hered": 8823,
      "ĠBow": 8824,
      "âĢ¢": 8825,
      "Because": 8826,
      "orig": 8827,
      "abet": 8828,
      "1983": 8829,
      "fford": 8830,
      "Ġisland": 8831,
      "who": 8832,
      "GS": 8833,
      "Ġintegrals": 8834,
      "Ġneither": 8835,
      "ĠRemark": 8836,
      "&-": 8837,
      "uable": 8838,
      "ĠCard": 8839,
      "Ġduration": 8840,
      "160": 8841,
      "Ġknows": 8842,
      "DT": 8843,
      "rfloor": 8844,
      "Ġbrings": 8845,
      "iano": 8846,
      "ĠInternet": 8847,
      "BE": 8848,
      "ERT": 8849,
      "fr": 8850,
      "uer": 8851,
      "dent": 8852,
      "Gr": 8853,
      "Ġ$-$": 8854,
      "Ġnonzero": 8855,
      "Ġmaybe": 8856,
      "Ġlinearly": 8857,
      "uan": 8858,
      "core": 8859,
      "loss": 8860,
      "Ġnotes": 8861,
      "rog": 8862,
      "Ġtruly": 8863,
      "osoph": 8864,
      "}))": 8865,
      "ĠHon": 8866,
      "Ġcircles": 8867,
      "Ġimaging": 8868,
      "ĠUN": 8869,
      "Ġexamine": 8870,
      "Ġdiverse": 8871,
      "Ġmarketing": 8872,
      "Ġhomot": 8873,
      "Ġdestroy": 8874,
      "ĠFund": 8875,
      "etry": 8876,
      "Ġ^{\\": 8877,
      "Ġfacts": 8878,
      "Ã¤": 8879,
      "ĠGall": 8880,
      "Ġproven": 8881,
      "phy": 8882,
      "Ġimpossible": 8883,
      "Ġaveraged": 8884,
      "ressive": 8885,
      "odcast": 8886,
      "Ġfaces": 8887,
      "Gs": 8888,
      "},{\\": 8889,
      "Ġconsistency": 8890,
      "Ġcorrespondence": 8891,
      "pin": 8892,
      "oche": 8893,
      "]{.": 8894,
      "ĠAmazon": 8895,
      "Ġ}$": 8896,
      "Ġjourney": 8897,
      "Ġprogramming": 8898,
      "ĠDigital": 8899,
      "Ġfavorite": 8900,
      "Ġadmits": 8901,
      "Ġcriterion": 8902,
      "Ġpromin": 8903,
      "ĠKingdom": 8904,
      "ĠMajor": 8905,
      "ĠLike": 8906,
      "oidal": 8907,
      "Ġsituations": 8908,
      "Ġpil": 8909,
      "ĠMen": 8910,
      "Ġstreet": 8911,
      "final": 8912,
      "Ġinduces": 8913,
      "ĠSpanish": 8914,
      "Ġextends": 8915,
      "groups": 8916,
      "Ġintended": 8917,
      "Ġfif": 8918,
      "iser": 8919,
      "pset": 8920,
      "bounded": 8921,
      "Ġdivision": 8922,
      "Ġbasket": 8923,
      "Ġconstrained": 8924,
      "Fl": 8925,
      "Ġdiversity": 8926,
      "Ġpp": 8927,
      "ersonal": 8928,
      "through": 8929,
      "aus": 8930,
      "Ġmanaged": 8931,
      "PN": 8932,
      "Ġpotentials": 8933,
      "ĠMeV": 8934,
      "Ġpet": 8935,
      "Ġĉ": 8936,
      "ĠAssume": 8937,
      "istically": 8938,
      "Ġbars": 8939,
      "ĠTre": 8940,
      "Ġstations": 8941,
      "Ġmarkets": 8942,
      "ĠEll": 8943,
      "track": 8944,
      "})-": 8945,
      "Ġaudio": 8946,
      "orney": 8947,
      "oston": 8948,
      "Ġclassic": 8949,
      "Ġfamili": 8950,
      "Ġsurprising": 8951,
      "Ġcha": 8952,
      "Ġofficer": 8953,
      "Ġvocal": 8954,
      "ints": 8955,
      "experim": 8956,
      "ĠCA": 8957,
      "enced": 8958,
      "Ġclick": 8959,
      "Ġviewed": 8960,
      "Ass": 8961,
      "Ġdepartment": 8962,
      "elines": 8963,
      "ĠBell": 8964,
      "ransport": 8965,
      "Ġlanguages": 8966,
      "Ġ$$\\": 8967,
      "Ġanimals": 8968,
      "urrent": 8969,
      "ivery": 8970,
      "arsh": 8971,
      "isy": 8972,
      "Ġillustrate": 8973,
      "Min": 8974,
      "orders": 8975,
      "Ġconcerned": 8976,
      "ĠNS": 8977,
      "}=(": 8978,
      "Ð¾Ð": 8979,
      "Ġmal": 8980,
      "\\,.": 8981,
      "uling": 8982,
      "ĠMot": 8983,
      "Ġoutperform": 8984,
      "exists": 8985,
      "Ġviolence": 8986,
      "ĠFar": 8987,
      "Ġmiles": 8988,
      "Ġsuffices": 8989,
      "ava": 8990,
      "'',": 8991,
      "ĠLab": 8992,
      "CN": 8993,
      "doi": 8994,
      "dif": 8995,
      "Ġpresc": 8996,
      "Ġrout": 8997,
      "Ġindicating": 8998,
      "ĠVictor": 8999,
      "ĠDue": 9000,
      "}}}$": 9001,
      "=(\\": 9002,
      "Ġexcitation": 9003,
      "ĠMike": 9004,
      "dz": 9005,
      "utch": 9006,
      "elescope": 9007,
      "quark": 9008,
      "Ġplants": 9009,
      "Ġprobe": 9010,
      "Ġprepared": 9011,
      "short": 9012,
      "enger": 9013,
      "Ġsale": 9014,
      "atever": 9015,
      "ĠThrough": 9016,
      "prov": 9017,
      "Mult": 9018,
      "Ġtriangle": 9019,
      "hyper": 9020,
      "Ġcycles": 9021,
      "temperature": 9022,
      "Similarly": 9023,
      "$(\\": 9024,
      "given": 9025,
      "Ġborder": 9026,
      "Ġnumerically": 9027,
      "Ġseparately": 9028,
      "Ġcalibration": 9029,
      "Ġforest": 9030,
      "driv": 9031,
      "Ġrefers": 9032,
      "ĠÂ»": 9033,
      "ĠBan": 9034,
      "Ġhydrogen": 9035,
      "ĠWal": 9036,
      "During": 9037,
      "Form": 9038,
      "onav": 9039,
      "Ġ}}": 9040,
      "Ġfiles": 9041,
      "entric": 9042,
      "distribution": 9043,
      "Ġcompens": 9044,
      "Ġwait": 9045,
      "1982": 9046,
      "Ġopinion": 9047,
      "ema": 9048,
      "ĠDev": 9049,
      "'}$": 9050,
      "ĠJeff": 9051,
      "Ġlibrary": 9052,
      "Ġ\\,,": 9053,
      "source": 9054,
      "Ġeff": 9055,
      "Ġexperts": 9056,
      "Ġserver": 9057,
      "Ġdeduce": 9058,
      "stud": 9059,
      "Ġmental": 9060,
      "}(-": 9061,
      "aux": 9062,
      "PL": 9063,
      "Ġpit": 9064,
      "Ġthermod": 9065,
      "umerical": 9066,
      "adow": 9067,
      "yself": 9068,
      "aped": 9069,
      "ĠPoint": 9070,
      "issions": 9071,
      "supervised": 9072,
      "Ġasymptot": 9073,
      "Ġrating": 9074,
      ").}": 9075,
      "Ġcrossing": 9076,
      "Back": 9077,
      "Ġap": 9078,
      "Ġfunds": 9079,
      "Ġrely": 9080,
      "Don": 9081,
      "ĠPR": 9082,
      "respectively": 9083,
      "Jan": 9084,
      "mazing": 9085,
      "}^{(\\": 9086,
      "Ġportion": 9087,
      "Ġcounts": 9088,
      "ranch": 9089,
      "Ġtracking": 9090,
      "Ġfat": 9091,
      "ilipp": 9092,
      "oir": 9093,
      "Ġrevers": 9094,
      "))$.": 9095,
      "Ġsemantic": 9096,
      "Ġgiant": 9097,
      "Ġengineering": 9098,
      "^-$": 9099,
      "Ġremained": 9100,
      "Ġinstability": 9101,
      "Ġmit": 9102,
      "ĠDes": 9103,
      "1960": 9104,
      "oupling": 9105,
      "ĠRay": 9106,
      ")|^": 9107,
      "ĠNa": 9108,
      "Ġquotient": 9109,
      "umul": 9110,
      "oping": 9111,
      "Ġinterpreted": 9112,
      "Ġdeformation": 9113,
      "Ġspeaking": 9114,
      "ĠMedicine": 9115,
      "Ġconjecture": 9116,
      "Ġfacility": 9117,
      "Ġlosses": 9118,
      "Read": 9119,
      "256": 9120,
      "ĠForce": 9121,
      "ĠBH": 9122,
      "Ġhomomorphism": 9123,
      "Ġmessages": 9124,
      "ĠEuclidean": 9125,
      "ĠMu": 9126,
      "Ca": 9127,
      "Ġdelivery": 9128,
      "ĠNig": 9129,
      "ĠLight": 9130,
      "atorial": 9131,
      "Ġtourn": 9132,
      "ĠSpe": 9133,
      "ĠBir": 9134,
      "Ġstudying": 9135,
      "Po": 9136,
      "Ġacceleration": 9137,
      "Ġpresentation": 9138,
      "Ġclosure": 9139,
      "pack": 9140,
      "ucky": 9141,
      "ĠJon": 9142,
      "ĠIS": 9143,
      "ĠWilliams": 9144,
      "Ġcuts": 9145,
      "Ġvulner": 9146,
      "Ġsight": 9147,
      "Ġaux": 9148,
      "lementary": 9149,
      "Ġfinitely": 9150,
      "subfloat": 9151,
      "Ġstret": 9152,
      "Ġseed": 9153,
      "Ġordering": 9154,
      "Ġproposal": 9155,
      "Ġretail": 9156,
      "rance": 9157,
      "Dec": 9158,
      "empty": 9159,
      "Ġvalidation": 9160,
      "ĠPop": 9161,
      "VD": 9162,
      "ĠKen": 9163,
      "ĠMiddle": 9164,
      "wer": 9165,
      "domain": 9166,
      "Ġtag": 9167,
      "ĠPak": 9168,
      "inson": 9169,
      "Ġclient": 9170,
      "Ġcosmic": 9171,
      "Ġmarginal": 9172,
      "Ġswe": 9173,
      "Ġedition": 9174,
      "Ġteacher": 9175,
      "ĠCross": 9176,
      "protect": 9177,
      "Ġcombinations": 9178,
      "Ġyourself": 9179,
      "ĠReal": 9180,
      "ĠWall": 9181,
      "}}}{": 9182,
      "Ġhab": 9183,
      "Ġmonot": 9184,
      "Ġforecast": 9185,
      "Ġconsumption": 9186,
      "RL": 9187,
      "Ġenables": 9188,
      "Ġpixels": 9189,
      "single": 9190,
      "plectic": 9191,
      "imod": 9192,
      "Ġissued": 9193,
      "ĠSaint": 9194,
      "Ġrows": 9195,
      "Ġsynthetic": 9196,
      "Ġretrie": 9197,
      "Ġcollapse": 9198,
      "ĠHistor": 9199,
      "Ġsensor": 9200,
      "perties": 9201,
      "Ġfrequently": 9202,
      "umes": 9203,
      "iti": 9204,
      "Book": 9205,
      "Each": 9206,
      "Ġchains": 9207,
      "emporary": 9208,
      "ĠSign": 9209,
      "ertion": 9210,
      "Ġkick": 9211,
      "fast": 9212,
      "ĠCarlo": 9213,
      "ĠGrant": 9214,
      "ocy": 9215,
      "Ġbroadcast": 9216,
      "Ġelementary": 9217,
      "Ġunstable": 9218,
      "rele": 9219,
      "ĠAdminist": 9220,
      "imb": 9221,
      "ĠIT": 9222,
      "ĠStudies": 9223,
      "everal": 9224,
      "Ġfeeling": 9225,
      "Ġlinked": 9226,
      "frame": 9227,
      "Ġholding": 9228,
      "Ġcaptured": 9229,
      "Vi": 9230,
      "ogue": 9231,
      "osa": 9232,
      "ĠSO": 9233,
      "KS": 9234,
      "ĠGar": 9235,
      ",~": 9236,
      "ova": 9237,
      "layer": 9238,
      "ĠAND": 9239,
      "Ġcapable": 9240,
      "Ġfounded": 9241,
      "Ġinjury": 9242,
      "Ġgenus": 9243,
      "Ġsparse": 9244,
      "ĠEinstein": 9245,
      "Ġcrime": 9246,
      "Fil": 9247,
      "count": 9248,
      "omer": 9249,
      "Obs": 9250,
      "Ġcouldn": 9251,
      "Ġfitted": 9252,
      "Ġranges": 9253,
      "Ġreplacing": 9254,
      "clos": 9255,
      "ypes": 9256,
      "bu": 9257,
      "\\-": 9258,
      "chitz": 9259,
      "ĠWrit": 9260,
      "Ġgenerality": 9261,
      "asi": 9262,
      "Ġrecurs": 9263,
      "Ġatmosphere": 9264,
      "si": 9265,
      "EEE": 9266,
      "eman": 9267,
      "Ġiron": 9268,
      "adi": 9269,
      "Ġconcepts": 9270,
      "coordin": 9271,
      "Ġsession": 9272,
      "inn": 9273,
      "Ġrestrictions": 9274,
      "ĠFederal": 9275,
      "General": 9276,
      "vy": 9277,
      "athan": 9278,
      "Ġrev": 9279,
      "Ġseek": 9280,
      "Ġoutputs": 9281,
      "ĠMean": 9282,
      "}_{(": 9283,
      "Ġpercentage": 9284,
      "Ġhardware": 9285,
      "ĠSE": 9286,
      "ortex": 9287,
      "rome": 9288,
      "Ġstuff": 9289,
      "Ġspring": 9290,
      "Ġaccepted": 9291,
      "CF": 9292,
      "link": 9293,
      "Ġinterference": 9294,
      "ĠRun": 9295,
      "Ġchampions": 9296,
      "::": 9297,
      "Ġexperienced": 9298,
      "ĠColor": 9299,
      "Get": 9300,
      "Ġfant": 9301,
      "ĠRE": 9302,
      "^+\\": 9303,
      "Ġmountain": 9304,
      "Ġanalyses": 9305,
      "ĠPDF": 9306,
      "Ġproton": 9307,
      "phin": 9308,
      ")!": 9309,
      "Ġclassified": 9310,
      "Ġmel": 9311,
      "gray": 9312,
      "Dist": 9313,
      "Ġaren": 9314,
      "tes": 9315,
      "TA": 9316,
      "Ġimplicit": 9317,
      "aked": 9318,
      "aki": 9319,
      "Ġinvariance": 9320,
      "Ġamounts": 9321,
      "Ġdetermines": 9322,
      "ĠPS": 9323,
      "Ġannounce": 9324,
      "'=": 9325,
      "Ġmotor": 9326,
      "izable": 9327,
      "Ġhelping": 9328,
      "Ġmoduli": 9329,
      "Ġmyself": 9330,
      "Ġconclusions": 9331,
      "History": 9332,
      "Mc": 9333,
      "140": 9334,
      "Ġmathematical": 9335,
      "ĠLorentz": 9336,
      "Ġadvoc": 9337,
      "Ġproves": 9338,
      "simple": 9339,
      "}$).": 9340,
      "ĠNC": 9341,
      "Ġformulas": 9342,
      "Ġprojected": 9343,
      "Ġconsec": 9344,
      "Ġneur": 9345,
      "factor": 9346,
      "teness": 9347,
      "Ġaircraft": 9348,
      "induced": 9349,
      "Living": 9350,
      "three": 9351,
      "Ġlived": 9352,
      "analysis": 9353,
      "Ġelastic": 9354,
      "Ġaims": 9355,
      "ĠTem": 9356,
      "ĠLog": 9357,
      "}}+": 9358,
      "Ġinfinity": 9359,
      "Ġfinish": 9360,
      "Ġmanip": 9361,
      "ĠRepublican": 9362,
      "leftrightarrow": 9363,
      "Ġobservables": 9364,
      "Ġtack": 9365,
      "Ġowner": 9366,
      "........": 9367,
      "Ġhelpful": 9368,
      "Ġhair": 9369,
      "onavirus": 9370,
      "friend": 9371,
      "ĠAdditionally": 9372,
      "Ġfusion": 9373,
      "\\|_{\\": 9374,
      "130": 9375,
      "Dr": 9376,
      "sharp": 9377,
      "GE": 9378,
      "ĠIslam": 9379,
      "Ġdiameter": 9380,
[...]
