#version: 0.2
Ġ t
i n
h e
Ġ a
o n
r e
Ġt he
e r
a t
Ġ o
e n
Ġ s
i t
o r
a l
Ġ Ġ
i s
a n
Ġ w
e s
Ġ c
e d
a r
Ġ f
Ġo f
i on
n d
Ġ p
Ġ in
Ġ b
in g
i c
l e
Ġa nd
r o
Ġ m
a s
Ġ d
Ġt o
Ġ \
o u
en t
c t
e l
Ġt h
Ġ h
Ġ $
i l
e t
o m
s t
Ġ re
i g
ĠĠ ĠĠ
at ion
r a
Ġ e
Ġ n
o l
Ġ S
Ġ T
i m
Ġ l
o t
â Ģ
Ġ is
a m
Ġ C
Ġ A
i d
v e
c e
Ġ (
u t
Ġf or
Ġ g
c h
u r
l y
s e
Ġ I
Ġ on
v er
o w
Ġb e
{ \
Ġ M
Ġth at
u l
it h
a d
Ġs t
2 0
u s
i r
a y
Ġa s
Ġ P
Ġ B
a b
u m
q u
Ġc on
e m
Ġw ith
u n
t er
i f
Ġ H
Ġp ro
Ġa l
o d
is t
Ġa n
he r
r i
_ {
Ġ F
ĠT he
t h
Ġw e
g e
Ġ R
e g
en d
Ġ D
at h
Ġw h
Ġ L
Ġ W
Ġb y
er s
ig h
an d
re s
it y
Ġ$ \
Ġw as
e ct
Ġ it
p p
1 9
Ġ N
a c
at e
o s
Ġa t
Ġ v
o p
Ġc om
i v
es t
Ġ G
Ġe x
m ath
Ġa re
ro m
Ġd e
Ġ E
t a
o re
âĢ Ļ
il l
i es
o c
u re
ar t
igh t
č Ċ
m ent
p h
Ġ he
es s
u b
Ġo r
Ġ &
Ġf rom
t e
ct ion
e w
ĠĠ Ġ
Ġ y
l d
ĠĠĠĠ ĠĠĠĠ
i al
Ġ Ċ
u d
i ve
} \
Ġ J
an t
p t
} $
Ġs e
in e
or t
n t
^ {
al l
a k
u p
a g
Ġ O
Ġ r
T he
it e
Ġ âĢ
m a
a ve
ou r
ic h
p l
b er
Ġth is
Ġn ot
Ġ U
Ġs h
20 1
re d
re f
Ġc h
u nd
ic al
ar d
el l
u st
i z
o g
Ġ le
at ed
Ġs p
p er
ar y
( \
e c
} }
ra c
Ġh ave
0 0
ul t
x t
' s
f f
Ġs u
it ion
f t
Ġcom p
e ar
c l
an s
Ġ =
in t
or m
ig n
ĠI n
eg in
Ġ k
b egin
Ġ K
ation s
Ġp l
on g
Ġwh ich
a p
o st
i a
i p
as s
Ġre s
or k
as t
u e
t her
Ġc an
g h
Ġh as
Ġw he
c al
en s
) $
_ {\
d u
e p
i an
Ġa b
Ġc l
id e
. .
am e
c c
a in
ou ld
ac k
Ġ -
Ġal l
} {
or d
) ,
Ġh is
e re
im e
an g
ou s
a re
Ġ un
om e
Ġ us
Ġ "
ou t
Ġ im
ab le
ion s
s o
ĠS t
a v
en ce
r u
a ce
Ġin t
âĢ Ŀ
Ġa d
i b
r m
f rac
Ġ V
Ġ j
a ge
a ct
) .
} ,
Ġa pp
e q
ic e
o k
20 0
te xt
e f
r y
as e
a ch
on d
c ite
u se
ĠC h
ĠT h
r ight
i re
an ce
e qu
Ġ en
il d
Ġal so
Ġon e
in d
Ġp art
r ic
f orm
ab el
math b
o ver
Ġm e
ol l
Ġp er
i k
Ġthe ir
m er
al ly
t he
Ġwe re
Ġcon t
el y
er v
Ġy ou
ent s
o v
1 0
Ġd is
or y
Ġb ut
c es
Ġw ill
o se
is h
at es
ĠâĢ ľ
ou nd
or s
ol d
i e
l abel
w o
ir st
, \
Ġa r
ow n
$ ,
et a
cl ud
re e
Ġo ut
ver s
$ .
math cal
res s
Ġit s
Ġd o
Ġn e
ou nt
Ġthe y
Ġe v
ar k
Ġo ther
er m
Ġwh o
\ \
1 8
Ġm ore
Ġ qu
I n
p ort
} .
i le
ta in
Ġm od
ro w
Ġw ork
on e
r it
equ ation
Ġm an
ri b
ter n
} )
Ġa g
if f
Ġt r
l ic
Ġ Y
le ft
Ġbe en
f ig
Ġt e
v el
w e
Ġre c
p ro
} (
ĠU n
Ġo b
Ġh ad
o ve
ĠI t
o b
ĠĠĠĠ ĠĠĠ
en er
ation al
ic s
Ġy ear
Ġ ro
Ġf irst
} ^
p s
Ġt wo
~ \
u gh
s p
ĠH e
Ġ up
ver y
j ect
} _
Ġt ime
Ġo ver
ĉ ĉ
on s
l l
p le
und er
Ġs c
Ġs o
a w
Ġ if
Ġbe c
im es
he d
ul ar
am b
Ġthe re
Ġ |
Ġcon s
Ġs y
o ok
e op
ut ion
n e
o int
ak e
Ġab out
ph a
Ġo ur
ra d
ing s
Ġg o
f ter
Ġin d
Ġn ew
l ine
p e
n g
eop le
at er
al pha
k s
Ġth an
ar i
Ġsu ch
m b
Ġof f
Ġd es
s s
Ġs ub
c ed
ra m
Ġan y
Ġcom m
Ġb et
Ġ her
y s
Ġas s
1 2
u al
oll ow
d a
is s
Ġp re
Ġ +
Ġa cc
Ġre l
i ed
ay s
Ġd iff
Ġs et
Ġw ould
Ġwhe re
ur n
Ġde f
at ive
Ġwhe n
le ct
Ġre g
ra ph
v i
Ġ under
ĠW e
) \
e x
Ġs a
Ġon ly
Ġ {
Ġint o
h at
Ġs ome
c on
c om
it ies
as ed
h o
ĠâĢ ĵ
l es
Ġex p
Ġk n
el ta
ol og
if ic
i el
ic t
it ed
Ġf ollow
19 9
amb da
at a
Ġin clud
ou gh
id ent
ere n
ik e
et h
ot h
_ \
c ent
am ma
mathb b
res ent
o ol
$ \
- -
at ing
o f
un ction
Ġp eople
a pp
ĠĠĠĠĠĠĠĠ ĠĠĠĠĠĠĠĠ
pt ion
ro ugh
Ġpro v
st em
Ġn um
Ġp ol
ĠTh is
t o
} ^{
= \
Ġ\ \
} _{
d ot
Ġtr ans
Ġfor m
1 5
s ub
Ġpl ay
o y
Ġp os
w ard
Ġa ct
ar g
il ity
) ;
i x
in ed
ĠC om
Ġthe n
we en
Ġd ist
or n
in ce
Ġres ult
iel d
Ġthe m
Ġmod el
c re
is e
Ġin ter
ro und
âĢ ĵ
ig ma
Ġst ud
mer ic
m u
i vers
Ġg ener
a il
1 1
Ġn o
ment s
p os
Ġp h
Ġs im
or ld
Ġin v
ect ion
Ġthe se
Ġsh ow
- \
u c
t t
in al
Ġ <
le m
ub lic
a x
Ġbet ween
ur ing
l and
ra y
u res
eg a
Ġs he
ro up
^ {\
/ /
Ġv al
p r
ar ch
Ġsa id
Ġc o
Ġ [
Ġm ost
1 6
d ition
a use
ĠN ew
s c
Ġat t
iz e
r an
Ġm ay
n ing
Ġa fter
Ġf l
Ġf e
oc k
s h
Ġt ra
u g
Ġcon st
u es
ph i
Ġc or
re at
Ġe ff
Ġe qu
Ġres p
ib le
it s
p art
ic k
ad e
1 7
i ent
Ġf unction
is m
il y
l ambda
Ġe ach
mathb f
al s
Ġa m
ou n
in k
ow er
Ġcl ass
Ġpro du
1 3
b f
Ġl oc
Ġsy stem
se ction
ĠP ro
ist s
Ġc ol
r al
al ign
r on
od e
re n
Ġyear s
i o
d er
t s
Ġsu pp
c y
Ġth rough
ĠA l
W e
ĠA meric
Ġ {\
= "
1 4
Ġpro b
Ġw ell
Ġh ow
w n
Ġb l
Ġ use
a ir
in s
t y
us s
o x
ere nt
Ġwh at
il on
ch ool
Ġ est
an y
Ġse c
Ġg iv
Ġp ar
el f
Ġus ed
ru ct
Ġp oint
oc i
at ure
ire ct
Ġ ent
Ġa c
p i
it t
Ġapp ro
e ver
Ġf il
ra ct
s igma
math rm
he n
g an
ĠF or
w id
Ġm at
iz ed
Ġ }
u ch
he s
m an
in es
is ion
Ġex t
T h
ri v
19 8
2 1
vel op
ab l
m in
Ġl ike
. ,
an ge
s et
Ġ| |
Ġsp ec
* }
Ġd ata
Ġs erv
Ġs m
if e
Ġj ust
Ġnum ber
p ar
Ġdiff erent
s um
t on
ivers ity
e y
Ġre f
^{ -
e e
Ġe m
Ġre p
Ġp r
ul l
ild e
Ġg et
Ġc ase
ĠD e
am p
b eta
} {\
ĠA r
o ot
over n
he re
Ġs ign
Ġ( \
Ġin st
2 5
Ġm em
Ġs ame
h ip
3 0
Ġs ol
ang le
er g
Ġde c
ot e
as on
ic es
Ġpart ic
. âĢĿ
Ġag ain
Ġse e
Ġc ur
Ġh im
Ġb u
c er
Ġ ed
o h
Ġman y
iz ation
+ \
o od
c ess
ut e
Ġs ur
as h
] {
r ing
Ġ end
ers on
ical ly
g amma
Ġst ate
Ġre t
ep s
Ġb oth
Ġb ack
ut h
le t
Ġ ra
i er
Ġc ent
re st
b ar
Ġc ount
er ing
ĠC on
Ġm y
s y
Ġc ould
f ul
Ġh igh
em ent
Ġle ad
the ta
Ġv ari
Ġne ed
an n
Ġf act
at or
^ \
Ġr ight
le q
is hed
) }
e v
Ġ Z
00 0
Ġre qu
Ġg roup
r ho
Ġ Q
Ġo per
Ġdis c
Ġf ound
Ġth ree
Ġbec ause
Ġ *
form ation
Ġn on
Ġbe ing
ot her
Ġt erm
ĠA n
.. ..
ĠA s
Ġe very
c dot
in ing
Ġc all
Ġf am
as es
en g
fig ure
Ġf in
Ġin f
ar s
Ġd et
Ġex per
ta u
$ -
t en
d elta
Ġn ow
a h
p ut
19 7
ĠĠĠĠ Ġ
se c
am ple
al th
Ġar t
m ber
olog y
ar ge
or th
Ġs er
}$ ,
Ġ x
eq ref
ion al
Ġm ade
Ġper form
Ġb el
g et
Ġl ine
Ġde velop
< /
2 2
}$ .
r at
ur al
Ġ very
ak ing
Ġm in
Ġe ar
} (\
5 0
it em
am es
Ġus ing
b ig
iv ely
ir c
Ġp ublic
Ġwh ile
ĠI nd
ĠĠĠĠĠĠĠĠ ĠĠĠ
Ġkn ow
ant s
ĠS e
al ity
f ore
at her
f or
y n
Ġfollow ing
Ġth ose
ro ss
eren ces
Ġl ong
ĠUn iversity
i ence
Ġd uring
ar ray
t imes
eth od
ect ed
Ġ i
Ġgiv en
le ction
g ram
an k
c k
Ġev en
ĠS h
Ġm on
ft y
Ġeff ect
w ay
Ġsec ond
S t
et s
in fty
ou se
Ġfil m
ĠS c
Ġw orld
Ġc re
Ġor der
ch n
Ġo p
Ġt y
ag es
Ġm ed
l ed
vi ew
ar row
Ġd id
a j
id er
Ġs ing
c ol
ĠA nd
Ġcont in
wid th
n er
ur y
ĠL e
Ġd irect
t ing
ou th
am et
Ġf ield
ent ial
Ġ X
âĢ ľ
Ġbe fore
ĠC l
re nt
ĠUn ited
Ġy our
2 4
a z
, âĢĿ
ter s
Ġsupp ort
ul ation
Ġo wn
ab ility
Ġsh ould
en cy
ot s
n u
n ess
ĠAmeric an
Ġ .
Ġw ay
| \
iv es
overn ment
i red
p m
Ġsm all
Ġcomm un
e red
d ay
er t
Ġst art
Ġdo es
w ork
qu ad
Ġ '
v ed
b ers
Ġex pl
iss ion
part ial
al e
Ġs ince
Ġv i
20 20
m m
Ġdes c
Ġst at
a red
Ġm ake
19 6
om ega
Ġad d
t ilde
Ġg u
b all
ĠS p
ce pt
ĠCom m
in ess
Ġp res
ric t
Ġpro cess
Ġw rit
Ġl aw
in a
Ġinclud ing
2 3
ĠC ol
om en
Ġin cre
e b
r um
Ġf ind
Ġhe l
ĠI s
Ġch ar
r ation
ore m
at t
v ent
c a
R ef
s on
it al
v ar
u ally
Ġob s
Ġre le
Ġan al
E x
Ġp resent
D elta
Ġde p
us ic
eren ce
Ġresult s
Ġte am
m e
er n
* *
. "
Ġcon f
Ġ z
Ġprob lem
i qu
v en
ist ory
sp ace
Ġm ain
an c
Ġme as
oh n
iv ed
ĠA d
Ġm uch
Ġret urn
Ġm ethod
Ġc our
x i
Th is
if ied
} [
o ber
em ber
Ġp op
eq n
r id
et y
ĠH ow
Ġpos s
re t
Ġp erson
te rest
i or
i ous
Ġob tain
res p
Ġin formation
Ġl ast
Ġre port
r t
Ġs chool
Ġprov id
Ġrep resent
er r
Ġim port
ĠS he
4 0
en se
_ _
ff ic
ill ion
b y
Ġre m
erg y
us iness
u ro
Ġre al
ĠSt ates
I t
re ad
Ġagain st
v al
n ot
Ġresp ect
le ar
\ ,
w here
Ġpro per
)$ .
201 8
ver t
201 7
l i
ĠR e
Ġd i
il ar
d ef
20 19
} }\
Ġl ife
Ġf our
Ġc a
Ġpro gram
Ġ u
Ġcon dition
Ġb ound
ri x
Ġre ad
Ġch ild
el s
v es
r ong
ĠâĢ Ķ
le x
201 6
ction s
Ġ$ (
le y
Ref erences
vi ous
un e
Ġp a
ĠE ng
Ġc ar
ĠB l
a u
ĠP h
et work
in clud
p or
.. .
ar m
Ġe lect
Ġpro f
2 7
ur ther
Ġrec ord
an e
$ $
Ġhel p
ra w
Ġl im
Ġm ult
Ġloc al
\\ \\
Ġs l
Ġor ig
2 8
Ġin terest
Ġst and
ĠO n
in c
2 6
Ġb ased
Ġpar amet
Ġre ce
g g
Ġdist rib
Ġm et
Ġl arge
Ġkn own
al k
en n
w w
l ess
Ġc are
F or
ut ions
O m
Ġgo od
os s
our ce
} _{\
Ġp ower
ial ly
eps ilon
Ġst ill
is ed
ol ution
Ġh and
Ġre st
tern ational
Ġth ink
Ġval ue
Ġm ark
e k
uth or
Ġt ake
Ġt est
ĠM ay
201 5
Ġa round
Ġgener al
at ely
Ġm ass
ro du
mb ol
pl oy
Ġhe re
Ġop en
Ġis s
ro p
it ive
Ġall ow
s q
Ġto p
ot t
Ġb ook
Ġg l
ag n
Ã ©
ĠB ut
Ġdes ign
Ġbu ild
r ist
ĠF ig
Ġfam ily
Om ega
Ġb as
Ġor gan
Ġsp ace
ĠM ar
Ġm ov
âĢ Ķ
ent ly
Ġcont ro
Ġpro ject
text bf
Ġa v
tern al
Ġchar act
re l
Ġd own
ak es
ub l
Ġr un
iv id
Ġl ook
um n
Ġg overnment
l o
cc ess
^ *
Ġv is
raph ics
Ġte chn
s im
201 4
Ġdesc rib
Ġp ur
Ġst ruct
C on
Ġ ident
m ed
Ġcur rent
Ġre se
Ġin c
if y
ĠJ an
ps i
r is
Ġn ame
ĠE x
k e
ĠJ ohn
)$ ,
' t
Ġd em
: //
Ġle g
P h
y le
2 9
ir d
ĠThe y
ĠP l
Ġwith in
Ġobs erv
b s
Ġinv est
Ġw ant
ĠW h
th s
Ġle ar
ĠC an
Ġpol it
" >
Ġle vel
Ġad dition
ĠI f
ep end
Ġpro t
Ġl ater
b m
ps ilon
um an
ri es
Ġ /
Ġ ve
Ġass um
Ġ el
Ġs ay
ĠC ent
Ġen ergy
t r
resp ond
C h
Ġpartic ular
sub section
Ġm ust
ct or
er y
Ġo pt
Ġim p
Ġp at
Ġoff ic
a im
Ġc ap
G amma
aj or
r and
" ,
201 3
) )
Ġest im
oc ial
Ġad v
ĠN ational
Ġp ass
Ġpl ace
Ġ čĊ
ord ing
Ġe le
sq rt
ĠR es
1 00
o le
Ġre ma
og raph
od y
eqn array
con om
av ing
ith m
ĠY ork
Ġth ough
Ġ rad
Ġs om
i od
Ġb ro
Ġl ist
in ation
iv ing
Ġcall ed
Ġb est
Ġ :
v are
Ġd on
ĠU S
eg raphics
includ egraphics
ĠT e
b old
201 2
ĠC ar
Ġser ies
ens ure
Ġs ection
e ad
i ans
c o
b l
o ard
}^ {\
s ide
vare psilon
Ġbe h
Ġex ample
Ġle t
E R
u ary
201 0
end ed
Ġd ue
Ġo cc
iv al
Ġo pp
t il
Ġb usiness
g or
ca ption
^{ (
Ġcons ider
Ġd en
ĠA ll
Ġt ri
A s
Ġd ay
Ġcon tain
right arrow
19 4
Ġab ove
Ġcor respond
Ġse ver
Ġle ft
f ra
Ġin it
Ġest abl
Ġwith out
ĠW orld
or ies
Ġmeas ure
Ġt rad
Ġimport ant
Ġan n
Ġa ff
} =
os ed
201 1
re en
end s
Ġsim ilar
ĠJ u
ĠO r
ĠHow ever
ĠC ount
t ab
ent ion
c m
Ġn ear
ĠY ou
ĠâĢ ĺ
l og
em ph
) =
Ġ ,
ac es
Ġl arg
Ġs um
Ġal ong
Ġsever al
st and
Ġs at
Ġp ost
Ġn etwork
im ens
ĠE uro
re m
Ġg ra
Ġstud y
ĠA t
Ġt em
s k
6 0
Ġg reat
l im
g es
st it
Ġm usic
Ġsing le
Ġf re
i ver
19 5
t al
Ġs cal
Ġs up
Ġan other
3 3
ĠO ct
ĠA ss
is ter
ĠW ar
i um
Ġ$ {\
ĠĠ Ċ
at ch
Ġc he
ge q
ch i
Ġc al
gor ithm
ward s
ri pt
b e
ĠSt ate
ĠR ep
o id
Ġse ason
Ġre du
pl es
b um
Ġdet erm
ent al
ĠS ec
S T
ĠM arch
ĠA ug
ref ore
Ġhe alth
a i
Ġh old
Ġcomp ut
Ġint eg
Ġh ome
pos ition
r angle
Ġme an
an ces
ific ation
as k
en e
Ġdisc uss
is on
u ed
en ces
ir on
Ġob ject
3 5
Ġ\ ,
pro of
in ks
w ays
ĠSe pt
il it
ĠA ust
pr il
es p
= =
A R
w h
Ġne xt
c he
Ġh ig
Ġg ame
Ġcon n
-- --
Ġf ew
rac k
op e
Ġare a
y m
oot ball
Ġg row
& \
O n
Ġc rit
var phi
Ġ ide
ĠJan uary
Ġun til
. ~\
ĠS chool
. }
ĠT o
ĠP ol
ic le
Ġper iod
Ġm ajor
ĠThe re
Ġsu ccess
Ġcomp any
at ors
Ġcount ry
Ġgo ing
Ġd om
e ed
um ber
ĠJ une
' '
P ro
Ġcharact er
sy mbol
Ġterm s
Ġqu est
ce mber
ĠG e
Ġval ues
Ġhe ad
Ġch ang
Ġk e
le ge
Ġd el
200 9
ĠEuro pe
orm al
x im
ist ic
Ġ- -
ĠM an
Ġa uthor
at ic
Ġm illion
um ent
Ġapp ear
Ġw ar
Ġmem bers
Ġw omen
Ġpl an
Ġl ow
Ġp ot
if t
ĠB rit
Ġsh own
se e
er al
ĠJu ly
g in
Ġev ent
Ġl ess
Ġ `
Ġshow s
re g
B ig
Ġvi ew
ĠS outh
Ġpos ition
i am
ove mber
Ġfollow s
Ġex ist
Ġde ath
u le
Ġch ange
os p
bold symbol
Ġh y
l u
Ġprodu ct
n on
ne y
ys is
ord s
ang u
âĢ ¦
Ġch o
4 5
Ġp red
Ġst rong
Ġplay ers
ĠSept ember
are nt
Ġen g
200 8
ĠN o
ur ch
Ġf inal
Ġpre vious
Ġbec ame
Ġd eg
ĠB e
Ġrese arch
fra k
eta il
Ġw in
h line
Ġear ly
ĠA pril
om an
}, \
8 0
er o
ĠAug ust
i j
ob al
9 0
ĠC o
Ġf ac
oc us
ĠM in
m p
Ġf und
Ġsp ect
Ġt urn
m od
ivid ual
Ġposs ible
as ter
Ġ et
Ġass oci
im al
er tain
Ġman ag
ĠOct ober
Ġem ploy
Ġ Â
) ^
id d
Ġinv ol
A T
ag ue
du ct
Ġst re
ĠA f
ĠCh rist
over line
Ġf ull
b ack
Ġmodel s
Ġcont rib
" .
Ġpoint s
Ġl and
I N
[ \
in ition
ĠDe cember
ĠT r
Ġint rodu
Ġty pe
ens ity
g er
ore d
3 1
ĠP res
Ġsign ific
ru ction
A n
it her
or g
ĠE n
Ġt imes
ur s
Ġh istory
ight s
Ġal bum
Ġs ong
Ġst ates
Ġact iv
Ġe conom
L et
Ġo ld
b le
Ġc ity
our ces
ic y
ĠG erm
ĠĠĠĠĠĠĠĠ ĠĠĠĠĠĠĠ
ist or
Ġim pro
C om
id ence
ĠN ovember
Ġdef ined
i ents
ail able
ab ly
r im
at ures
A l
Ġp ubl
ĠC al
is f
Ġed uc
Ġqu ant
Ġinclud e
Ġs it
Ġ vers
err or
} ).
Ġcom b
l ing
Ġapp lic
Ġm ap
Ġf urther
3 4
g ed
Ġto tal
th ough
our n
Ġb re
l in
Ġp ract
pos ed
i ef
O N
} }$
ĠCount y
ut ure
olog ical
it le
Ġre ally
ĠF eb
Ġl a
al f
Ġc ost
math frak
Ġchild ren
v iron
Ġpro m
am ed
ict ion
) (
om et
ĠA ct
.... ....
Ġpot ential
ĠC ity
A S
ĠM ed
7 5
l er
pl ay
Ġs k
200 7
op er
a f
ve c
Ġb and
eng th
Ġcl aim
ĠS te
it er
3 2
c ul
is ing
f ace
Ġind ividual
Ġdistrib ution
end ing
Ġfor mer
Ġcontro l
se qu
ur b
b ra
Ġl inks
I D
ĠP ar
Ġle ast
itt le
Ġcommun ity
Ġm ar
or ph
3 6
20 21
s elf
iqu e
ie ve
ĠCan ad
u ation
cite p
cl us
ĠN orth
n ed
Ġbet ter
ĠS o
Ġam ong
Ġe as
Ġh app
ĠG u
Ġprov ide
Ġar g
Ġs ocial
et ic
Ġh uman
is c
on t
Ġexp ress
Ġsh ort
pl ic
s f
ru ary
Ġph ot
ĠB y
Ġp riv
Ġd er
Ġrel ations
Ġc ou
Ġf ore
Ġph ys
Ġcomp let
7 0
Ġperform ance
n ew
l angle
yn am
em pt
n abl
text it
Ġa ver
Ġstruct ure
ld ots
l or
Ġty p
Ġm ove
c ap
Ġof ten
Ġc at
Â ł
Ġf ocus
Ġc ases
Ġstand ard
u pp
Ġne ver
ĠP art
app a
m ult
) :
Ġs elf
g round
Ġin s
Ġbec ome
nabl a
H e
ĠI I
a ction
Ġc lear
Ġp ut
Ġav ailable
w ide
Ġsignific ant
ensure math
Ġf ree
200 6
Ġs ize
\ |
cent er
epend ent
T o
Ġa ction
w ith
at ter
pl it
ĠThe n
al es
Ġappro ach
e ak
ri ed
us h
Ġspec ial
Ġal ways
Ġreg ion
il t
Ġv ol
Ph i
Ġs ays
col or
Ġst ory
Ġdevelop ment
Ġcomp et
3 8
Ġm ot
ix ed
Ġsat isf
mm et
ak en
ial s
a int
Ġpa per
ĠW ill
Ġto o
Ġme ans
Ġm ight
Ġn ational
ĠS y
ur ity
ĠFeb ruary
e le
ĠM c
ĠC or
en c
Ġr ate
Ġ >
ĠH ar
ĠE d
ĠR eg
Ġd etail
ab or
il le
on y
ec ess
ĠTh at
Ġcomp lex
ud e
Ġstud ents
Ġm om
ĠC our
ĠAust ral
n o
as ing
p d
ĠB ar
Ġh ard
d raw
Ġal gorithm
Ġp ri
viron ment
Ġmem ber
on st
l ish
, "
in o
3 9
Ġtra ining
Ġp o
oun c
r ant
ĠThe se
k appa
op t
Ġac ross
Ġcon cer
Ġcom e
Ġa ut
sub set
B y
Ġprof ess
Ġf ive
Ġl ik
ĠF ran
i pp
t ies
og n
c hes
im um
s m
c it
et er
Ġab le
Ġacc ount
3 7
Ġs ide
Ġw on
ĠD ep
Ġm ax
h am
Ġc irc
Ġorig inal
ĉĉ ĉĉ
od es
Ġwork ing
Ġappro xim
Ġro le
L ambda
Ġf ootball
get her
Ġto gether
Ġse em
} ;
Ġexper im
Ġde b
} )$
\ %
ĠPres ident
min ist
Ġind ic
i i
Ġserv ice
Ġdescrib ed
m ost
it or
A N
Ġc ult
p ect
ip le
Ġp ay
( )
I f
Ġre d
ac y
Ġh aving
ĠA pp
ot imes
u k
Ġto ok
Ġyou ng
Ġse en
ut ed
uc k
Ġc oll
Ġind ust
ide red
Ġc over
Ġn eg
Ġanal ysis
un g
h old
um er
ĠAf ric
Ġ @
Ġm agn
Ġc amp
angu age
z e
Ġb ir
ĠL et
Ġcomm on
ĠCom p
read y
E S
Ġacc ess
0 5
lect ed
rat eg
Ex ternal
Ġsystem s
Ġb ig
ĠH is
Ġf uture
Ġobtain ed
ort un
t able
Ġth ings
Ġlim it
b it
Ġan t
ing ton
Ġc ertain
Ġb en
Ġcomp on
eth ing
r ated
0 1
Ġsol ution
Ġb i
tt ps
Ġse qu
Ġg ive
Ġl ight
il ities
at ural
ĠP r
i ber
Ġwe ek
Ġr ange
itt ed
ĠA m
t ime
Ġme et
Ġunder stand
ener al
ĠR uss
9 9
oci ety
Ġcons idered
cent ering
n ow
ort s
re w
Ġhe ld
Ġw ater
on es
ĠA g
} ),
Ġth ird
Ġd ays
ra ft
Ġa ge
ib ility
Ġf ar
mb ox
m at
in ary
Ġen c
dot s
Ġhig her
am ent
Ġl o
Ġwhe ther
Ġsh all
ĠW ith
Ġre ason
Ġh om
ir m
Ġcondition s
Ġvari ous
a ul
Ġa ch
200 5
ĠW est
Ġe p
e xt
4 8
Ġj o
ĠA b
c irc
um e
O R
st er
us ed
ĠK ing
e al
ĠA fter
}} {
Ġplay ed
Ġg raph
ad em
ĠBrit ish
s el
ut es
Ġm aking
' ,
at s
Ġserv ices
ĠO ne
b ased
Ġm en
ĠW hen
Ġal ready
v ing
our s
Ġpop ulation
Ġparamet ers
Ġpolit ical
Ġm ater
am ples
w are
ilit ary
ĠH ouse
ap an
. \
ap e
Ġcare er
Ġrece ived
c hed
id es
Ġtr ue
\ [
Ġthe ory
o ff
th ing
ide o
in ally
Ġhow ever
Ġag re
Ġc ame
Ġrequ ire
S igma
ograph y
Ġh ouse
one y
ĠAr t
Ġl oss
Ġrele ased
ab les
le v
Ġfunction s
ĠĠĠĠĠĠĠĠĠĠĠĠĠĠĠĠ ĠĠĠĠĠĠĠĠĠĠĠĠĠĠĠĠ
Ġ //
te e
ourn al
h t
ounc il
Ġatt ack
ĠAmeric a
a e
Ġl ot
Ġf ri
Ġmark et
ure d
20 00
Ġconst ant
Ġas k
\\\\ \\\\
Ġs ix
op h
ĠR ec
Ġ ver
Ġl ower
Ġre view
P s
an a
ĠCour t
Ġrespect ively
Ġe ither
Ġsom ething
ac ed
Ġmat rix
a ut
Ġbe gan
ĠM e
Ġaver age
ra p
Ġp ast
Ġ( $
F ig
Ġab s
ĠD av
ron t
\ !
b ox
a ugh
Ġf ail
Ġt aken
Ġt re
Ġbuild ing
r ate
Ġk ey
Ġsu gg
ond on
Ġsugg est
Ġd ensity
U n
ĠS ection
Ġse par
wid et
ur g
on al
Ġ #
h ib
non umber
Ġinvest ig
f l
arg et
Ġs ent
i us
ord er
ex p
Ġbl ack
ed eral
ul ations
Ġvi ol
u x
Ġfe ature
a ff
f ield
r ary
iv il
Ġl ittle
Ġc y
d e
ers hip
Ġother s
{ -
Ġ )
Ġt ry
Ġprovid ed
Ġcons ist
4 4
6 5
Ġk ind
ly ing
ce ed
amp ions
Ġn ecess
and om
Ġa ir
C l
ul es
Ġpubl ished
widet ilde
200 4
il es
Ġwork s
ĠS ch
I C
tab ular
Ġpos itive
Ġar ch
th m
Ġf ram
Ġev ents
E N
b or
- >
Ġde v
Ġcour t
ar ies
A L
ĠCol lege
Ġc ross
Ġwrit ten
9 5
Ġacc ording
Ġg ot
Ġw id
ra in
Ġgroup s
Ġl ay
Ġinit ial
ple ment
ĠS an
is k
Ġd oc
A C
re am
ĠA rm
Ġt ax
Ġst ar
Ġp ath
Ġd at
Ġpro posed
Ġcorrespond ing
ĠIn ternational
} -
I S
a ult
Ġsub ject
k et
Ġ ill
pp er
f er
ot es
Ġt itle
/ \
Ġequ ation
Ġquest ion
Ġpr im
con t
g ress
Ġpro of
ar ian
ffic ient
Ġp air
Ġ` `
l ation
6 4
Ġfe atures
Ġt reat
Ġbel ow
her s
Ġproper ty
ĠD ist
ĠThe orem
n a
c or
Ġe mb
Ġre pl
Ġcour se
Ġper cent
Ġch all
d om
ĠM ore
Ġline ar
tt p
Ġa way
Ġg round
ĠEng lish
ar ing
ĉĉ ĉ
Ġth us
Ġto wn
Ġfre qu
ren ch
y pe
Ġgl obal
ho od
Ġt w
Ġ q
Ġcal cul
Ġs w
er ve
Ġim age
ĠS w
im ate
am a
Ġright s
an ies
Ġcontin u
ill ed
Ġexper ience
Ġinclud ed
art ment
on se
Ġann oun
Ġin ternational
ition s
0 8
n s
Ġg en
: :
Ġj ob
Ġen ough
g o
Ġc ell
Ġp ress
ad d
Ġp ort
ĠG l
ĠL ondon
\ ]
Ġbec om
ww w
iv ity
Ġbeh av
Ġe lection
ĠP ark
0 6
ĠE l
ĠJ apan
d d
ĠL aw
Ġlear ning
Ġh alf
ĠC O
ce ption
he ad
Ġrequ ired
em ma
0 4
Ġs em
Ġestabl ished
} +
Ġrel ated
Ġcl ose
Ġfe el
Ġref er
Ġst rateg
i et
sh ip
I I
Ġw ent
r ite
le ment
st yle
ot ed
Ġmom ent
Ġs ource
Ġd one
Ġmethod s
Ġph ase
ĠCh ina
r ance
Ġbe gin
Ġrec ogn
pr ime
ĠCh ar
5 5
ver se
a pt
Ġtem per
Ġresp ons
) }\
al y
\ {
iz ing
Ġg ames
op s
Ġke ep
Ġreg ard
y ear
ect or
Ġde al
ear ch
) =\
Ġstart ed
ell ing
Ġassoci ated
ir l
ap s
ĠB ro
Ġd imens
rac y
ic ult
Ġto day
Ġdeg ree
Ġen vironment
f ord
Ġpartic ip
w ise
Ġa rm
Ġg e
s w
ĠĠĠĠĠĠĠĠ Ġ
ma x
ĠM on
ĠQ u
Ġimp act
es e
ill s
} ]
Ġpol icy
200 3
p re
Ġprodu ction
Ġte xt
m l
Ġsup er
ish ing
if orn
The re
it ing
es tern
le te
z eta
d is
Ġn amed
ĠAss oci
0 7
Ġreport ed
s cal
Ġinf lu
Ġr andom
u ff
4 9
Ġparamet er
Ġreg ular
Ġf ig
0 9
E C
Ġam ount
ow s
Ġvers ion
s l
Ġex ec
Ġr ather
id ed
Ġpres ident
Ġal most
Ġcent ury
op y
Ġd ou
ĠP er
com m
Ġcor re
anc ial
| -
Ġd iv
Ġeduc ation
p ose
ĠM ich
led ge
iforn ia
um b
Ġl og
ch an
Ġbu ilt
rum p
} =\
Ġadd ress
Ġpriv ate
ra g
Ġben ef
ĠWill iam
it tee
ĠA ng
c ast
Ġexp ected
ĠDep artment
Ġdep end
Ġd ynam
Ġ< /
{ (
Ġwh ose
ĠS ince
ĠĠĠĠ ĠĠ
y l
I T
om orph
med i
Ġor d
ĠH er
Ġon ce
ĠLe ague
Ġev al
oc al
ĠL a
at ives
ĠH igh
Ġcl os
0 2
ust om
text width
Ġcount ries
idd le
ess age
200 2
Ġloc ated
en ed
ĠR o
4 7
Ġl ines
ĠS up
Ġl ive
ĠS erv
Ġnum er
ut ive
Ġc r
Ġs ite
Ġn ormal
row n
Ġb o
es c
it ect
ord in
at ory
Ġapp l
Ġan g
Ġwh y
Ġpred ict
Ġexpl ain
Ġsc he
B C
Ġserv ed
) ^{
ĠCent er
ac hes
ĠIn stit
Ġv ia
ĠSt ud
Ġrec ent
S p
Ġd ire
Ġpri or
Ġim plement
use um
Ġcan not
ri ption
Ġn ov
ĠS m
t op
}_ \
Ġent ire
200 1
wh ich
Ġh istor
Ġmed ia
0 3
ĠH am
b orn
Ġmult i
ĠPh il
ĠM r
Ġn atural
W h
du c
Ġbro ad
Ġm akes
ĠE q
i res
itt ing
Ġh ost
Ġind ependent
Ġsa f
ul a
ĠS er
Ġj ud
; \
Ġfilm s
com p
A meric
ĠM y
Ġb orn
Ġiss ues
Ġve ctor
Ġl ove
Ġmon ths
Ġcomp anies
H ow
Ġmat ter
Ġl ed
A M
is ions
Ġin put
Ġ& =
Ġst ep
in ter
ĠCal ifornia
Ġcre ated
Ġpr inc
Ġincre ase
Ġrelations hip
S h
Ġt aking
}^ \
Ġfin ite
ac hed
pd f
v an
Ġdiff icult
il m
$ )
Ġaddition al
** **
Ġcont ract
ove red
Ġproper ties
Ġanal y
Ġ error
ampions hip
. )
Ġex act
S ee
ec ially
c le
Ġt alk
c os
Ġobserv ed
Ġup on
ard s
Ġspec ific
ash ington
ĠU K
lem ma
Ġare as
6 6
Ġsim ple
Ġe ver
ĠRep ublic
ĠC he
ĠF irst
Ġimpro ve
Ġl ate
} |
um p
wide hat
Ġex ists
or ge
il i
av y
u f
ul ly
Ġp ers
Ġcon duct
E D
Ġexp ect
ĠEurope an
er a
~ ~
c ell
Ġcl ub
Ġm ilitary
8 5
rid ge
al t
Ġdef inition
ta ct
ic les
Ġv ir
c is
un ic
Ġiss ue
cdot s
att le
m it
r ast
ru g
Ġst ation
ig en
Ġdef ine
Ġc ut
Ġm oney
Ġdec ision
Ġm iss
Ġb ody
ĠS en
r ang
Ġwork ed
Ġt arget
Ġopp ortun
s u
iv en
o ch
Ġp arent
Ġw ind
al ax
Ġsy mmet
ar c
Ġchang es
a ign
ĠInd ia
f oot
Ġ\ {
se mb
Ġfact or
Ġv ideo
ĠC ouncil
ĠF rench
Ġbas is
math sf
Ġl ength
m ark
ĠCanad a
ar ily
ect ions
re et
Ġequ ival
A r
ĠM ark
ĠA ir
ac he
cl ass
Ġr at
ĠHe alth
cc ording
A P
ens ion
id s
o on
a el
Ġl anguage
Ġindust ry
ol ic
Ġlarg er
ĠG od
Ġad minist
4 6
ĠFig ure
Ġto ld
ann el
lev ision
Ġd ied
Ġlik ely
Ġlead ing
Ġsur face
d iv
Ġdid n
}) \
Ġw ords
Ġ esp
u el
9 7
y ing
, -
ress ion
Ġthe refore
bs ite
Ġconst ruct
m ore
pp ed
oc rat
A nd
Ġact ually
Ġre v
Ġf all
ra ction
Ġd est
om b
Ġele ments
Ġeffect ive
Ġproblem s
and s
c up
Ġatt empt
Ġne igh
ĠT rump
g l
ĠD em
sel ves
Ġde cl
}^{ (
N ew
Ġf ather
ult s
Ġprovid es
Ġthough t
al se
ra el
ic ol
Ġev idence
Ġprob ability
Ġac cept
pl ing
Ġperson al
Ġpop ular
ĠE ast
and id
Ġb ase
ens ive
ĠF rom
ĠD o
ĠA c
}} (
ed d
Ġset t
m y
m on
S S
Ġz ero
ĠCh urch
Ã ¡
Ġwho le
Ġs ens
Ġdevelop ed
Ġl abel
e ff
ic ro
ĠS im
Ġn ode
n own
nd er
om s
ac c
ĠW hat
Ġdist ance
end er
s ing
av es
d en
Ġgiv es
Ġeffect s
it z
Ġb ar
Ġpart y
in ated
ĠEng land
em ents
ĠW ashington
Ġp e
Ġeng ine
ist ics
Ġth ing
Ġf ixed
at rix
Ġits elf
Ġs ense
d own
Ġst yle
Ġl iter
Ġmat ch
ĠInd ian
Ġs old
Ġcat eg
Ġele ment
ul ated
ve y
ĠG eneral
Ġs on
ge bra
sc ript
l ike
) ]
Ġspec ies
ĠDist rict
ĠC ong
q quad
Ġim m
r ig
Ġpresent ed
Ġscal e
__ __
it ch
Ġconst ruction
Ġadd ed
Ġv ill
ta ge
Americ an
Ġ ess
am s
ic o
Ġprodu ced
p oint
Ġel se
. ~
ĠC ons
R es
9 8
Ġnot e
Ġp an
ĠV al
tr ans
Ġim pl
Ġ$ (\
ell ow
}\ \
Ġcomp lete
n ode
ĠL emma
Ġs ound
Ġoff ice
b b
& =
Ġassum e
s up
Ps i
ĠD irect
h a
n es
Ġplay er
Ġinclud es
Ġun it
Ġesp ecially
Ġa ud
ra int
R E
sp an
ĠD r
et t
b ook
i ences
p ly
Ġf av
Ġmult iple
th is
Ġh on
Ġcre ate
g y
Ġcomp ared
.. /
^ +
Ġdo ing
ĠDav id
g en
ari o
Ġcent ral
ĠV ol
c ing
ur ation
Ġsuccess ful
st ar
Ġgra du
ach ing
sm all
Ġcon text
qu are
Ġcomp ar
---- ----
ĠP al
Ġy et
oun ter
ĠN ot
ic a
o e
6 7
ĠGerm an
p ri
}\ ,
Ġa ward
5 00
ro te
Ġocc ur
le g
Ġeff ic
te x
ip s
A t
Ġinvol ved
Ġnew s
ĠF l
c ial
ĠD ef
Ġstud ies
Ġide a
en ing
Ġhold s
Ġinst ead
Ġdat as
Ġdem onst
Ġsequ ence
x space
( );
R e
Ġt rack
ĠBl ack
ĠCon t
is es
Ġeconom ic
Ġannoun ced
Ġrel ig
ar a
app ro
at ively
ĠAustral ia
Ġcl ust
ĠP aul
ĠH ol
cit et
8 8
Ġincre asing
C C
ĠInstit ute
ĠNew s
cent ury
Ġtrad ition
( "
b r
o res
ĠP at
l ier
ĠE ar
Ġback ground
ad es
Ġg as
Ġdirect or
ĠTh us
as ons
u ild
Ġh or
ast ic
W hen
land s
Ġneed s
m ar
4 2
pro p
re c
m id
Ġresp onse
Ġfl ow
Ġcom es
Ġass ist
it es
Ġv ict
Ġ& \
Ġcontin ue
Ġpol ice
Ġro und
Ġcol lection
Ġal ign
ĠComp any
] $
W ith
Ġme chan
Ġt ell
Ġinst it
Ġse x
B ut
ĠJ ames
ol ar
) -
ou d
Ġbre ak
Ġfin ancial
ra b
n ers
Ġdiff erence
T r
Ġfor ce
ĠWh ile
Ġt akes
Ġg rad
Ġcommun ic
Ġleg al
ro ll
Ġcontain s
Ġtemper ature
oy al
Ġsu ff
ot a
ber g
Ġs ample
her n
Ġcon v
} :
v ille
el t
Ġb ring
Ġm ention
| ^
Ġon line
Ġe mer
st e
Ġl iving
Ġsh are
Ġc andid
clus ion
Ġcamp aign
ĠSt reet
ĠAssoci ation
Ġtechn ology
Ġr isk
Ġd ri
Ġfor ward
C O
I nd
b and
Ġr ank
ĠTr ans
6 8
Ġoper ator
enc ies
199 9
Ġun ique
ĠJ ust
Ġim ages
o or
e es
ĠF rance
Ġwe ight
7 7
iz es
Ġb oard
iz ations
sc r
Ġin sp
Ġf un
Ġg alax
Ġout side
ĠRes earch
Ġnecess ary
{ {\
Ġquant um
Ġsol utions
ĠO ff
Ġ rac
Ġart icle
n ote
Ġbir ths
Ġrequ est
ĠR ober
ie ved
Ġmov ed
Ġsec urity
i en
Ġf em
Ġperform ed
Ġphys ical
Ġdoc ument
P l
Ġbel ieve
Ġopt im
ag ed
n ov
Ġw rote
k y
us es
ĠG roup
Ġcon ver
Ġdirect ly
om m
Ġdom ain
Ġn ight
if orm
Ġcomp os
r r
ĠSc ience
t d
ĠIs rael
Ġset s
L E
ĠM or
an ks
S E
cre t
Ġsp in
Ġed ge
Ġte levision
199 0
Ġconst it
a res
Ġ und
Ġf ace
Ġknow ledge
Ġro ad
n eq
Ġcl osed
Ġcurrent ly
Ġarch itect
Ġl ost
a ctions
h space
Ġc ustom
ĠD i
Ġequ al
on ic
Ġthrough out
Ġf ood
Ġneed ed
Ġestabl ish
Ġres id
id a
9 6
ĠG o
Ġwe bsite
Ġfield s
and er
in f
um ents
ou l
4 3
Ġg re
} +\
Ġlarg est
ĠR ich
A ll
wo od
Ġcont ent
ĠTh om
Ġg ain
ict ure
Ġgrow th
Ġst ars
ĠN e
Ġst age
ĠE m
Ġcent er
il ies
st ate
4 1
Ġpro ve
A A
== ==
Ġintrodu ced
Ġc red
Ġbound ary
Ġw rite
Ġde ep
Ġmater ial
Ġche ck
Ġrele ase
ĠA ward
ak er
ous ly
Ġd ate
Ġdire ction
ran ch
al le
Ġden ote
Ġtra vel
ĠPart y
Ġbl ock
Ġm other
}} {\
Ġrest rict
Ġrec ently
Ġwh ite
he l
W hat
Ġmon th
Ġ* /
ĠJ ew
Ġ ut
ed ge
m ing
he t
Ġn uc
Ġdi ag
Ġc ivil
ĠI m
] ,
N N
Ġse arch
Ġca pt
Ġad j
k nown
Ġmod ern
Ġhim self
Ġnov el
ĠR ef
Ġs ure
it ude
ĠA nt
l ight
Ġtrans fer
ĠGe orge
S ince
Ġla un
199 8
Ġsim ply
ch ange
umer ate
ist ry
ric k
ĉ Ċ
Ġtrans form
ĠComm ission
d imens
Ġinter p
Ġcrit ical
osp ital
o oth
Ġsc en
Ġpract ice
ind ent
re me
Ġgo al
Ġs us
ty pe
Ġn orth
Ġac qu
sk ip
scal e
e an
Ġchall eng
A fter
m ission
mult icol
Ġde part
Ġre ve
' $
Ġcor rel
u ge
ov ed
ĠO ur
Ġal though
the orem
Ġwrit ing
A d
} -\
ip al
Ġdist rict
Ġsc ient
ag ing
) }{
ĠD iv
Ġadv an
Ġt en
Ġpro ced
Ġf ront
f ill
Ġup d
Ġso ft
Ġbeh ind
i ation
S c
multicol umn
Ġapp oint
Ġpart s
Ġnum bers
U S
ew ork
5 8
5 7
Ġm ag
Ġproduct s
Ġg overn
en umerate
Ġp le
ĠV ir
lo ad
ht ml
ĠM al
Ġm id
Ġappl ied
Ġmanag ement
ĠR iver
Ġim medi
Ġn ature
vent ion
equ iv
ĠCong ress
ĠP ort
ĠH all
ĠGerm any
h an
ber t
ag o
m itted
ines e
Ġqu ality
Ġbook s
or ing
math scr
I nt
Ġst aff
ĠM od
Ġch arg
Ġbecom es
ĠC up
f ess
l a
el oc
Ġacc om
Ġvis it
ĠM a
ri an
n ame
ĠP ress
C ol
ĠR ed
Ġs ources
ĠAr ch
Ġrel ation
Ġmet ric
Ġcap ital
item ize
is ation
l am
v space
an ish
ra z
( {\
Ġdetail s
Ġqu al
Ġc ode
Ġthem selves
ĠF ound
ott om
P S
b re
Ġequ ations
ĠT ra
Ġschool s
Ġco ordin
ok e
Ġ _
k ey
ĠĠĠĠĠĠĠĠĠĠĠĠĠĠĠĠ ĠĠĠ
O ne
Ġapp ly
ĠF in
Ġstud ent
Ġmed ical
Ġl ink
Ġtrans ition
' re
ĠUn ion
y a
Ġw ord
ĠT V
rough t
Ġcho ice
Ġ vert
Ġb it
k en
ĠB el
ari ant
ly mp
Ġlong er
Ġtrad e
Ġsub st
Ġ- \
Ġprofess ional
Ġqu ite
i ers
Ġst ri
Ġimpl ies
qu e
Ġcontin ued
V ID
Ġmain tain
Ġrema ins
] \
il ton
Ġex hib
Ġag o
Ġm ind
ĠAfric a
F rom
he st
s er
oper at
os en
Ġl ives
Ġd ig
~ $
Ġlim ited
ort hern
ou ther
Ġcon cept
pp ing
Ġstat ement
> </
Ġf ederal
Ġdoes n
Ġad opt
Ġ\ |
h ttps
Ġpro p
Ġrepresent ation
Ġin j
Ġinst ance
it iz
ĠI nt
Ġapplic ation
ac ity
ĠWh ite
operat orn
5 6
ec k
Ġep is
Ġgener ated
r s
199 6
ar ter
Ġagre ement
port s
for ce
Ġconst raint
Ġto wards
duc ation
m ary
operatorn ame
Ġs outh
Ġset ting
Ġsc ience
ĠG reen
ĠThe refore
n ce
ib rary
st on
Ġstre ng
k ing
c ome
Ġdeterm ined
Ġv eloc
at ur
ĠB oard
Ġf ight
199 7
as c
P R
Ġdis e
Ġoper ations
Ġev olution
g ing
Ġout put
ic it
D E
oun tain
Ġelect ron
Ġcon clud
Ġd am
Ġbehav ior
s in
L e
N ame
Ġde cre
Ġprogram s
Ġeval u
ma p
outher n
text tt
ĠD ay
Ġch urch
Ġcon tact
air s
Y ou
g ence
ed y
Ġmax imum
Ġw ife
ct ors
er ation
$ }
Ġdesign ed
Ġcompon ent
Ġt ask
p ot
ĠM ary
all ed
ĠCh ampionship
Ġsmall er
8 7
] [
ĠC ap
Ġcom ing
Ġestim ate
Ġd ed
Ġfri end
I d
Ġlevel s
) }$
Ġcompon ents
ist an
Ġallow s
ĠS ociety
Ġatt ention
ĠM art
Ġr ule
Ġval id
dimens ional
Ġp ref
Ġplay ing
Ġal tern
Ġseem s
Ġa im
em ic
Ġw ave
ĠO b
Ġco e
Ġy ield
I R
Ġfl u
th at
ĠS ome
c ur
Ġs aw
ĠT ex
Ġfam ilies
Ġth reat
Ġve h
Ġallow ed
e ared
Ġact ive
Ġtreat ment
Ġask ed
Ġw ays
Ġt ro
ans ion
}} _
198 0
ri ef
ec ause
Ġlook ing
ĠM usic
ĠL ou
ĠQ ue
Ġro b
Ġb r
Ġhe art
Ġsit uation
ric es
Ġtyp es
199 5
Ġw or
Ġn ation
Ġcorre ct
H E
Ġh ours
le vel
Ġwant ed
ian ce
un t
ĠComm ittee
omorph ism
Ġsign al
b ody
Ġrad io
h ing
Ġf ire
T ype
ĠArm y
no indent
Ġinterest ing
ĠB ook
Ġoffic ial
Ġh ous
ĠW ork
Ġl at
Ã ³
\ ,\
ĠP ublic
id th
Ġus ually
Ġl ack
Ġd raw
ĠIn ter
b ound
ag ement
Ġcol or
ough t
Ġra ce
ĠTe chn
Ġg ave
Ġwe ak
ĠO f
ĠB ay
el ine
Ġfollow ed
Ġparticular ly
Ġmean ing
uf act
Ġus es
Ġt er
r d
\ }$
Ġf it
ess ion
ign ed
ta int
ĠJ ack
Ġus er
Ġu pper
ĠM ex
Ġmov ie
ify ing
Ġsur v
Ġear lier
M S
Ġsp eak
d ag
Ġqu ick
ĠL eg
L ist
op l
under line
n y
Ġst e
........ ........
ĠAng el
ĠAfric an
' )
o ice
se y
ĠJ er
at form
Ġh ttps
Ġp ack
Ġin du
Ġrele v
ĠChrist ian
Ġro t
ĠG overnment
ĠSec ret
Ġcult ure
Ġjo ined
Ġw oman
val ue
Ġd rug
Ġinter view
h y
g roup
ĠB er
Ġmagn etic
all s
i os
a per
Ġun cer
Ġe ight
ĠN ow
a it
ed om
Ġill ust
Ġcol umn
Ġfor ces
Ġc ause
Ġtrans port
us ion
ru le
ĠCh inese
Ġs ociety
ro l
9 3
Ġr ules
Ġsu fficient
in ct
ĠMich ael
ĠR ev
Ġincre ased
A D
Ġb rought
Ġach ieve
Ġto ur
er c
Ġf irm
ĠO p
Ġd ra
Ġind ex
Ġpat tern
Ġcol lect
The n
s ize
9 4
Ġad apt
text rm
Ġactiv ities
Ġopp os
Ġen j
ĠH ere
ing u
Ġt able
Ġspect rum
( -
Ġleg is
ant ic
em s
ĠY ear
> <
ter m
Ġto ol
Ġappro pri
7 8
ĠT able
Ġpre c
ri al
Ġbro ther
u ra
c at
Ġav oid
] .
Ġg rant
\\\\\\\\ \\\\\\\\
s plit
Ġs en
n orm
ĠM useum
O S
ĠH istory
ma il
Ġbegin ning
Ġc ele
Ġconn ected
f ect
Ġpro gress
Ġch arge
9 2
ste in
Ġj ournal
Ġreg ions
f unction
Ġsp eed
re y
. [
Ġf alse
Ġprevious ly
ĠR oman
Ġd riv
m iss
Ã Ń
L L
ri a
Ġ ensure
Ã ¼
ĠDem ocrat
Ġvill age
Ġd augh
Ġal gebra
ĠMin ister
Ġar riv
on a
ap ter
ĠAc adem
in ite
ĠTex as
con st
Ġ ir
Ġorgan ization
Ġst ay
ĠCon f
Ġne ut
Ġan sw
Ġquest ions
M A
5 4
d s
Ġb illion
Ġess ential
5 1
Ġthe orem
Ġrec omm
z z
est s
in it
Ġsong s
7 6
Ġso on
Ġgener ally
Ġst ru
C D
Ġcom mer
Ġant i
ri er
appro x
Ġcon sequ
c an
Ġget ting
ĠM us
A pp
Ġin equ
| |
ĠD is
sy ch
l ong
Ġlear n
ĠG a
Ġ ri
Ġm ach
R ec
5 2
im port
Ġmeet ing
Ġexp and
Ġsupport ed
199 4
Ġw alk
Ġequival ent
d o
Ġteam s
Ġd r
) +
ĠDirect or
l ig
ĠIn c
Ġrat io
u it
ir it
Ġmove ment
{ }
P i
oc ation
Ġfig ure
Ġb ank
S e
est ival
Ġtry ing
w ell
ot ic
Ġrun ning
Ġro ck
Ġfore ign
ree k
Ġrel ative
Ġstud ied
D e
Ġf ully
ĠS ing
og le
Ġb ox
Ġm ale
ĠD uring
ec ial
Ġneg ative
ĠT ur
G e
Ġprob ably
ĠS um
ĠSt at
Ġprim ary
us ing
S o
Ġprot ect
Ġdeath s
Ġpres ence
ĠRober t
n el
pl ace
ĠM at
Ġindividual s
en ge
Ġex am
Ġover all
ĠB ill
Ġobject s
Ġcon fig
ĠD an
ĠD ec
Ġreturn ed
Ġcom pl
ĠS ub
ran ge
Ġg irl
5 3
Ġse ven
v is
v est
over y
Ġab ility
Ġcomplet ed
e ks
am ily
Ġh it
Ġst ring
}} }
ot o
ag raph
w rit
Ġmar ried
Ġpur pose
Ġloc ation
Ġnear ly
oc ks
ie ce
8 6
& &
c ode
Ġb ad
Ġsign ed
ĠCO VID
ĠG reat
ĠN ote
199 2
ro y
ĠM iss
uss ian
Ġwork ers
Ġd ark
subset eq
9 1
it able
in i
Ġch annel
Ġres ources
O T
Ġinterp ret
ar an
ĠComm un
t ra
ĠN or
Ġp eak
I s
alle l
Ġ _{
b our
k a
Ġstrateg y
ew idth
r as
Ġ( -
E T
Ġdiscuss ed
ĠC ath
Ġe igen
Ġh ol
B l
Ġoff er
yn om
ĠB en
Ġ row
Ġresult ing
Ġ: =
ĠRuss ian
ĠO lymp
ĠE ducation
I M
f rom
ir ing
Ġsub sequ
Ġon es
r ative
o o
Ġr ates
Ġb ur
ot ing
ruct ure
20 22
ens or
Ġst ated
Ġeas y
h ttp
ĠK ore
{ $
Ġbe y
Ġvari ables
Ġaut om
Ġfact ors
min us
Ġh ot
ust ain
rad e
ol f
Ġparent s
197 0
Ġpur ch
Ġbey ond
Ġdec ided
Ġn om
Ġ$\ {
a ur
Ġfrequ ency
O ur
Ġp age
Ġse lected
}^{ -
Ġveloc ity
ĠR oyal
ub e
- $
ĠS am
Ġcom ment
Ġs il
rim inal
ĠT w
in y
ĠG old
Ġread ing
ĠO ther
velop ment
Ġf air
Ġmot ion
Ġrecord ed
Ġform s
Ġpat ients
Ġform ed
Ġpa int
Ġun iform
ĠSy stem
ill ing
ĠF lor
Ġref erence
ĠF ore
Ġpl aces
li ament
Ġfri ends
et her
Ġclass es
Ġopen ed
3 00
erv ation
et imes
< \
Ġe y
ĠM et
Ġhigh ly
Ġnot hing
Ġfram ework
Ġapp eared
u racy
ĠCar ol
ab s
ell ig
line ar
( '
ag er
uth ors
ĠPro gram
ĠCent ral
../ ../
ĠS ee
Ġany thing
Ġc itiz
Ġin side
Ġopportun ity
Ġpre vent
Ġs eg
Ġb al
Ġb all
ĠA lex
Ġdirect ed
Ġstart ing
M ore
d ro
Ġm us
ĠS upp
ĠR et
Ġmeas ures
V al
im ent
b on
199 3
Ġchang ed
Ġc ast
ĠW estern
Ġdimens ion
Ġappear s
x y
Ġhig hest
Ġm is
Ġstruct ures
7 2
ĠDiv ision
P eople
ol it
A B
Ġrelev ant
Ġ ult
Ġoper ation
Ġcommun ities
ĠĠĠĠ Ċ
big g
Ġcharact ers
ĠP ost
ĠD es
t urb
ĠThom as
Ġredu ced
Ġrequ ires
Ġproject s
Ġex cept
er ia
ĠH en
Ġsay ing
ĠFound ation
Ġsome one
ĠServ ice
lin ewidth
Ġman ufact
Ġp en
Ġ err
ĠCanad ian
Ġaff ect
p an
Ġc le
Ġbir th
l ist
Ġle ave
Ġro om
N ote
ĠAustral ian
I ON
Ġestim ated
Ġp ark
Ġpress ure
Ġno ise
Ġte ac
ĠS al
Ġst ories
V ert
ĠRo ad
ĠVir gin
Ġst ra
ĠAn n
Ġmajor ity
Ġcol lege
a ith
Ġobserv ations
ret urn
Ġgre ater
d i
Ġw ide
in os
sub figure
5 9
Ġinflu ence
E E
al ian
it ter
Ġass ess
Ġdeterm ine
A ss
d ata
M C
ĠOff ice
Ġge omet
foot note
ĠB o
ĠSm ith
Ġlead s
ail y
il s
N ow
Ġsche me
Ġneigh bor
b oard
por ary
Ġn orm
Ġun its
az ine
Ġwe eks
b urg
The ta
Ġche m
Ġre pe
8 9
h aps
Ġser ious
Ġevery thing
Ġocc up
Ġexist ing
t ical
Ġenj oy
Ġnetwork s
Ġnot ed
pos es
ou ra
iqu es
n ormal
Ġl atter
ab ilities
ĠG ra
if ically
Ġbel ong
Ġpolit ic
ĠA ccording
Ġpro ceed
Ġdatas et
Ġreve al
ib ly
ĠM ag
Ġresp ond
Ġcoll abor
Ġre ach
6 3
Ġvari ety
r ants
ĠL at
Ġcho ose
ĠB ank
Ġuncer taint
Ġch ain
Q u
Ġcontro ll
ĠM ad
cre te
Ġdou ble
Ġexpress ion
ĠJ ournal
ĠIs land
set minus
ĠE v
Ġident ity
ĠSc ott
Ġeff orts
Ġmin imum
te red
w ar
r un
ĠFran cis
ĠP et
Ġsp ent
m es
pro d
Ġc ounter
ĠÂ §
Ġh um
Ġ !
Ġclass ical
Ġk illed
ĠD el
Ġext ended
ĠS ur
U R
bl ack
ĠRuss ia
ĠM ac
D ef
8 4
Ġhe nce
Ġ ...
d ist
os ing
ĠD on
Ġlead er
N o
ĠB est
ĠCl ub
Ġunderstand ing
ĠPro fess
) |
Ġprodu ce
ĠT imes
Ġcontinu ous
Ġtradition al
erv ed
as hed
ma z
E n
Ġsm ooth
i ew
dis play
ĠW il
Ġpl atform
ad a
ay er
ad o
Ġch osen
Ġ\ ;
ĠL ist
} '
M od
Ġus ers
Ġder iv
Ġapplic ations
S P
Ġ( $\
as ks
Ġn ull
ro ad
res ents
Ġan im
199 1
Ġrepresent ed
ang er
ill er
ic ago
^{ -\
Ġar bit
Ġpl ans
}} _{
pt ions
Ġlay er
ac ing
Ġexact ly
Ġpol ic
Ġac adem
Ġ$ |
ĠT om
6 2
Ġw atch
ĠR el
N ot
b ur
Ġf arm
Ġinter action
Ġas pect
Ġsy mbol
b ul
ĠAl though
Ġapproxim ately
}} ,
Ġsom etimes
Ġp ick
ĠF urther
Ġcontrib ution
tern et
Ġmechan ism
Ġs amples
Ġpan el
Ġrema in
Ġtra in
ĠO ut
Ġex amples
Ġc am
Ġinc ome
Ġs ch
or al
Ġpol ynom
Ġmention ed
Ġexpl icit
Ġfl ux
Ġst eps
Ġeas ily
ĠI r
Ġf ast
ar p
Ġarg ument
Ġt rac
Ġw orth
Ġconn ection
align ed
Ġl ic
Ġdem and
Ġg rand
Ġun ivers
b o
Ġpre m
Ġwid th
Ġcor por
" )
Ġcons id
Ġra il
Ġstat us
Ġhy per
Ġfav or
Ġt al
I F
at re
onal d
w in
Ġprovid ing
Ġelect ric
Ġsc reen
Ġdef e
g s
6 1
How ever
Ġpl ant
i ency
Ġbas ic
ĠFlor ida
Ġevent ually
Ġsc ore
B S
Ġ Ã
Ġn ames
Ġgo es
un k
b t
Ġexp ansion
Ġprocess es
Ġredu ce
Ġh ref
Ġcur ve
Ġbl ue
ult ure
Ġa x
Ġa ctions
ĠCl ass
ĠLou is
\ }
ow ers
ĠA re
s ource
Ġh arm
Ġactiv ity
Ġoper ators
âĢĿ .
au ge
Ġcomplet ely
ĠIn st
ed ia
Ġcost s
h i
or por
_ +
id ing
Ġdaugh ter
Ġdis play
ann ed
I P
I V
Ġart ists
Ġexperim ents
Ġh op
par am
sp ect
ĠAcadem y
Ġsp read
ĠM o
und red
ĠL os
Ġdes p
7 4
ĠSecret ary
Ġbound ed
Ġcar ry
ĠP re
rodu ction
ĠRich ard
ĠR ad
ress ed
Ġst op
Ġre ached
ĠW omen
ĠH ill
ens us
Ġ$ [
ĠĠĠ Ċ
ĠP o
ot ion
6 9
ĠM ass
Ġother wise
Ġh ope
ven ue
ell ar
Ġb rief
w edge
Ġpre p
Ġk m
Ġart ist
Ġlaw s
it ar
ĠT or
Ġmap s
Ġpart ies
Ġdise ase
Ġlead ers
ĠPro v
ĠHam ilton
ĠKing dom
Ġident ified
Ġpass ed
ĠB re
L iving
ĠR ock
if old
it ation
ren ce
ĠR ob
opl us
_ *
' m
Ġt ree
Ġcomp act
ĠP eople
A b
Ġde ad
Ġmin or
Ġra p
an i
ur t
I G
lim its
ĠSec ond
7 3
semb ly
B A
Ġliter ature
av en
Ġfin ally
ĠB usiness
Ġrep resents
h and
Ġsh ape
Ġdeb ut
Ġh ttp
ĠO ffic
col on
Ġsl ow
H ere
p ng
Ġ& &
Ġrespons ible
} /
c ons
ĠM em
ef ore
Ġvol ume
cl es
ĠS ocial
Ġgener ation
Ġder ived
Ġemb edd
Ġcont rast
H istory
Ġca used
8 3
Ġmem ory
Ġconsist ent
ud get
re land
Ġcompar ison
Ġappropri ate
ĠP eter
ul ate
ur d
ĠPro position
D F
D A
it led
Ġeconom y
Ġdis p
ĠJ ud
Ġs ector
Ã ¶
Ġexist ence
ic ine
arian ce
S C
ri ev
ĠAr ts
ict or
d t
* {
Ġ eth
Ġ id
Ġd ro
ĠP ri
T hat
Ġem ission
Ġrelig ious
Ġm ission
Ġcon vers
ĠU nder
Ġj oint
Ġconn ect
d ec
is hes
f lo
Ġp ain
Ġorig in
Ġpr ison
Ġrece ive
Ġdiscuss ion
ĠJ ose
Ġfe ed
Ġm iddle
8 2
Ġvir t
Ġsl ight
Ġelect ed
Ġext ra
Ġm icro
ĠFran k
Ġ es
St ring
196 0
Ġg un
Ġin form
Ġacc uracy
Ġdynam ics
), \
Ġv ote
Ġmeasure d
ĠA tt
un c
Ġinst rum
iz on
it a
Ġevery one
ul s
ĠSer ies
Ġc ore
Ġth ous
stit ution
Ġsaf ety
ĠJapan ese
7 9
ap ers
Ġv an
ĠPl an
Ġcateg ory
m s
ut y
Ġmov ing
oll ary
anc ing
Wh ile
Ġopt imal
_{ (
ĠChar les
Ġoffic er
$ _
ĠT own
Ġconf lic
ĠS un
F L
198 9
Ġm ob
Ġsignificant ly
ĠG rand
in n
Ġdescrib e
Ġdiag ram
om a
' ve
P ar
l n
Ġfound ed
8 1
Ġimmedi ately
p ath
re es
ĠM ost
E O
om y
7 1
Ġtri al
ru pt
i ra
Ġres olution
Ġfem ale
U T
Ġcl imate
Ġcap acity
a ud
ĠF ilm
Ġsh ift
Ġgra v
Ġmin utes
Ġclear ly
ĠS l
Ġa uthors
ollow ing
ĠI ran
S ub
Ġcou ple
z a
Ġgiv ing
Ġop in
S O
Ġcons ists
an cy
ag s
c el
i h
rop y
S he
Ġet c
att ice
Ġorgan izations
Ġuse ful
il ed
ĠSt ar
dag ger
ĠMore over
b ut
Ġper fect
Ġsol id
Ġan c
Ġa mb
os m
Ġse lection
Ġvari able
Ġpo or
and a
Ġpl ane
ĠAngel es
ĠH uman
ĠC at
ri age
ĠCath olic
Ġshow ed
Ġmin im
Ġwrit er
Ġg reen
Ġb ill
Ġsub set
Ġtr ust
Ġann ual
I A
ĠRe view
Ġqu arter
Ġsur pr
Ġinit i
N et
y p
P C
ĠCh icago
Ġs quare
ing er
Ġ\ (
Ġpr ice
Ġref lect
Ġsum mer
Ġcons um
Ġ %
Ġf ile
Ġbe aut
ĠO ver
Ġcrit ic
Ġmod e
ĠP e
I m
ad ing
Ġt im
Ġproced ure
Ġexperim ent
Ġsus p
Ġsp at
Ġreport s
Ġse cret
Ġgalax ies
Ġpl aced
am ental
Ġ| \
m as
Ġadminist ration
ĠL ife
en a
Ġthe rm
Ġ= >
^ -
Ġform ula
ĠPar is
Ġinequ ality
Ġ Ð
Ġcon cent
Ġgrow ing
Ġtrans l
ĠĠĠĠĠĠĠĠ ĠĠĠĠĠ
ond er
Ġver tex
ut ing
Ġpol ar
S ec
ent y
Ġc opy
Ġoffic ials
Ġext rem
Ġcommer cial
Ġim ag
end ix
Ġpartic les
def inition
Com p
à ¤
w est
Ġappoint ed
198 8
F F
Ġsur round
Ġph il
Ġser ve
Con t
ur ance
Ġpe ace
erm an
Ġc ru
oc ol
R O
as tern
ĠDe velopment
in em
Ġwh om
Ġl if
Ġcomm it
stand ing
ig an
Ġ }\
f it
Ġabs ol
Ġf elt
d et
Ġn odes
ĠH ence
ro s
pl ed
or ial
Ġclaim s
Ġlist ed
ris is
Ġrema ining
L O
C H
ĠCh ild
Ġsymmet ry
Ġquick ly
an o
Ġrecord s
Ġhelp ed
olog ies
T e
and emic
}} (\
Ġsp aces
ĠK e
S im
IN G
i ant
ĠVirgin ia
ul ed
ĠE conom
Ġt ru
Ġb rand
Ġrun s
Ġse lect
ĠF ederal
Ġsatisf ies
ĠIs lam
th let
Ġturn ed
ĠH istor
on ent
P A
Ġbuild ings
ĠM er
ic ated
Ġm essage
S et
Ġpr int
Ġnuc lear
Ġfre edom
app ing
Ġincre ases
ĠMex ico
Ġapproxim ation
Ġemploy ees
Ġo il
g est
text sc
in ant
Ġcompet ition
Ġre asons
Ġdef end
ĠA rab
k i
Ġfour th
Ġg old
og ue
Ġappro aches
T S
Ġform ation
in ations
E M
al o
g u
Ġstra ight
{ $\
ĠC amp
ĠI reland
ĠAmeric ans
Ġrem ark
ĠL and
ĠD en
Ġsim pl
t est
Ġsim ulations
Ġob vious
Ġatt rib
ĠB i
ĠN ov
h ouse
Ġd ivid
res hold
riv ial
The se
ĠZ eal
M an
Ġb ul
ĠS und
Ġsepar ate
i able
Ġpa id
Ġinterest ed
D ata
Ġpl ays
av a
Ġvis ual
Ġepis ode
E d
ĠEng ine
ĠCh ief
Ġdesp ite
Ġr ise
ĠB rown
Ġdist inct
ĠU N
Ġstru gg
Ġh undred
for all
m en
re qu
Ġpartic le
ĠP enn
c ases
or ation
Ġpl ot
Ġsen ior
\ '
4 00
)\ ,
ĠF e
ĠAt l
ig ration
Ġis n
ol ved
orn ing
b an
ol a
irc raft
) ^{\
c her
I L
ĠUS A
ind er
Ġrel atively
Ġeff ort
Ġident ify
Ġex c
Ġassum ption
st ring
ĠSup er
ĠZeal and
198 7
Ġcontrib utions
Ġmoment um
Ġw rong
comm and
Ġcomput er
Ġnumer ical
now led
O r
ĠP an
ri z
Ġdet ection
St ate
ĠT wo
ĠB ur
Ġcar ried
ol k
}$ -
N A
Ġnot ice
198 6
Ġrad ius
Ġwas n
Ġch ief
ĠI ll
Ġdet ect
ma in
Ġoff ers
ee ch
Ġco ach
Ġrefer red
Ġsh ip
ĠAl so
b i
ĠW al
D P
ent ed
Ġprof ile
ĠO per
Ġw est
Ġsh ot
R A
ĠM el
Ġs am
F irst
Ġin ternal
âĢĿ ,
Ġs ustain
f ile
Ġorig inally
y r
Ġcitiz ens
Ġrepl aced
d eg
Ġcomm and
ĠO h
Ġm arg
k er
Ġv oid
F T
et te
Ġin nov
Ġinvest ment
Ġcell s
Ġtechn iques
ĠG ames
) }(
_{ {\
: \
Ġcult ural
u ations
Ġend ed
al a
Ġsc ene
Ġmeasure ments
ĠR em
Ġg auge
ro om
mod el
Ġdig ital
Ġhe ard
ur l
u a
Ġv ar
Ġreg ist
Ġansw er
Ġper turb
ĠIt alian
Ġspect ral
hes is
Ġar rest
Ġsoft ware
om ic
ud d
b a
S A
sub subsection
Ġent er
Ġdesc ription
it ness
g ra
Ġrequire ments
Ġp iece
od ay
Ġcalcul ated
Ġact ual
Ġpolic ies
tt y
ellig ence
Ġ â
r ich
Ġm ix
Ġgu itar
l aw
Ġestim ates
ro id
g ent
Ġal one
Ġexperim ental
198 4
Ġt rib
or ney
Ġs al
ĠT ime
Ġhe avy
r or
raz il
ffic ients
os oph
C A
as ure
Ġcandid ate
Ġlead ership
Ġeffic ient
U N
Ġfund ing
Ġ= =
Ġatt ract
**** ****
p c
Ġs ales
n eg
Ġun ion
or ter
Ġdep ends
Ġcomb ination
Ġposition s
Ġag ent
Ġra ised
Ġh ospital
is her
st o
Ġc ry
Ġem p
h ab
ir med
re al
ĠJust ice
) _{
ĠW ell
in ity
# #
ĠE qu
Ġe ast
Fig ure
ult ural
B e
\! \!
Ġreg ime
us band
al g
Ġvict im
Ġcele b
ve re
Ġgo als
Ġide as
ĠAd minist
O b
Ġmater ials
Ġhistor ical
ĠIt aly
ĠT est
Ġle ague
Ġimport ance
ĠIt s
Ġexec utive
Ġform al
che ck
amet er
Ġopen ing
Ġtr uth
ob s
ĠEar th
est ic
az z
ĠFor ce
= {
es h
Ġd ual
Ġregard ing
Ġexpress ed
Ġf raction
ĠSp anish
n et
Ġc ard
he mat
Ġs ort
Ġclass ification
Ġm ole
Ġbe g
ĠCarol ina
Ġsp irit
umn i
Ġex cit
Ġcorrespond s
C S
198 5
Ġm er
Ġcommunic ation
Ġcou pling
Ġp et
ult y
ĠGe org
Ġc riminal
ĠS T
_{ -
as ion
com ing
Ġvert ices
ell ed
' \
Ġf if
Ġp andemic
Ġlet ter
Ġstreng th
Ġdis s
Ġbenef its
en ced
ĠJew ish
) /
Ġintrodu ce
Ġf oot
Ġl ived
Ġmost ly
Ġrepl ace
Ġcl in
Ġviol ence
' _
Ġcomb ined
Ġd u
Ġa ware
Ġcomp ute
ent h
E q
ĠÂ £
C o
Ġbl ood
ĠMart in
P r
ĠV ictor
Ġch art
Ġconstraint s
= (
Ġ+ \
Ġmiss ing
S te
Ġp hen
g color
Ġc ities
sh ift
f ree
et ime
Ġdec ay
C T
âĢ ħ
rel ated
ĠHen ry
Ġpur poses
man n
ir us
ĠPro ject
l ength
Ġnumer ous
Ġoffic ers
ĠServ ices
Ġl iber
Ġsh ared
ĠM ont
k in
ĠS ta
,\ ,
Ġsp orts
ym pt
Ġarchitect ure
ir al
Ġed ges
ad y
Ġtest ing
Ġinteg ral
ĠMan agement
act ive
ĠG en
~ $\
Ġalgorithm s
N e
Ġal le
Ġf aith
per p
Ġar rang
y er
ph as
ve x
go ing
Ġchall enge
Ġsim ulation
Ġauthor ity
Ġext ension
J ohn
Ġkn ew
ĠB ig
Ġbenef it
Ġre b
Ġiss ued
Ġfin ished
M y
Ġrema ined
ĠE ach
Ġstat ic
ĠĠĠĠĠĠĠĠ ĠĠĠĠ
O ver
Ġget s
ed s
G B
esp ite
ak ers
Ġfail ed
Ġsh oot
Ġf ine
ĠF re
ĠYou ng
ĠF orm
Ġdistrib utions
Ġlear ned
Ġdiff erences
Ġm ill
Ġdepart ment
Ġh ar
pm atrix
pro du
Ġext ract
Ġprop ag
Ġhe ight
am ing
F C
he m
Ġacc ur
G et
ĠAs ia
Ġcirc um
idd en
Ġprot ection
Ġclust er
P ost
ĠL ake
ĠI N
ĠR ights
Ġun iversity
M P
Ġsit es
Ġrap id
ind ex
Ġfram e
ĠTechn ology
ĠRec ords
L P
Ġany one
ĠThe ir
Ġde com
Ġcirc le
rid ay
Ġcan cer
Ġfam ous
Ġpro pos
Ġgu aran
ĠW ood
Ġaltern ative
Ġalbum s
L S
Ġ ign
ig ation
ĠC ur
Ġsex ual
Ġb order
ĠE ven
ĠS aint
Ġbecom ing
c ond
av al
g n
^{ +
Ġtyp ically
198 3
Ġp sych
M ar
ĠK ar
Ġex change
Ġtra ined
st ra
Ġcoe fficients
rem ark
Ġb gcolor
Ġrese arc
Ġc ert
og ene
pr int
Ġprov ed
it ors
as i
os h
air man
ĠU p
Ġach ieved
Ġinc orpor
Ġbusiness es
Ġfund amental
ĠI S
ĠSen ate
il ing
ĠL iber
ĠSec urity
Ġden otes
Ġang le
\| _{
Ġre form
Ġind epend
ĠS u
Ġed itor
Ġfor ced
Ġchalleng es
Ġfind ing
n ership
in ate
sp ec
hen s
Ġst able
Ġwe b
k ins
Ġconstruct ed
m essage
Ġfl at
ĠJ es
ĠD u
Ġsur vey
ĠH el
h om
Ġc orn
Ġm ut
Ġc op
Ġam plit
Ġb ranch
d iff
ĠC ivil
C E
ĠF estival
k m
Ġoff ered
19 50
Ġv oice
15 0
}^ *
Ġto ward
ĠM any
\ _
os ure
Ġh usband
Ġshow ing
Ġmanag er
Ġcontin ues
Ġm aster
em porary
ĠM il
l ink
ĠB r
ĠT op
Ġb udget
L A
st ack
Ġb ottom
Ġcomm ission
ĠĠĠĠĠĠĠĠ ĠĠ
m c
wh ile
) ^{-
Ġsubst ant
Ġ( )
Ġv acc
w a
Ġold er
Ġl attice
ic on
Ġmach ine
sk i
Ġun f
Ġdec ades
}} ^
$ ).
C ar
Ġinvestig ation
Ġv ac
Ġpower ful
Ġcons ult
Tr ans
ime q
Ġo ption
ĠA ff
y an
Ġaward ed
A ccording
Ġthe ore
Ġter rit
Ġdetail ed
ac ific
00 00
Ġa part
c ript
s imeq
Ġbehav i
Ġv s
Ġassum ed
ic ity
Ġl abor
ĠG ood
198 2
Ġcorrel ation
z ero
Ġsy n
Ġb attle
od ing
ov iet
Ġenc oura
ĠJ im
Ġp oll
re p
Ġmass ive
ĠS il
Ġhe ar
ĠN etwork
al d
i as
iver se
m et
urb an
Ġw a
il ib
Ġjob s
) }{\
ĠJohn son
ĠR ail
ĠJ o
Ġslight ly
st ream
Ġth reshold
Ġexplain ed
ĠSc ot
Ġcur ves
Ġ$ -
ĠL ee
Ġsp eech
ĠL ove
Ġst ock
r ates
res h
Ġconduct ed
Ġpers pect
on av
P T
Ġa ircraft
Ġenvironment al
ic an
f e
ĠC D
Ġhouse hold
] ;
ul f
Cl ass
Ġre ality
Ġresid ents
Ġra re
g reg
ian a
ill a
Ġopt ions
id el
Ġmus ical
ĠSup reme
Ġplan ning
Ġredu ction
ĠII I
F orm
ĠM iddle
ĠBrit ain
ĠCol umb
Ð °
ĠB ob
ĠB ecause
ĠL u
Ġv ary
ĠA N
The orem
Ġs ections
if ul
= -
Ġpol y
Ġsp ort
Ġ ~
Ġag ree
bul let
Ġhand s
ri um
( $
Ġconsid ering
Ð ¾
Ġcl oud
ĠCor por
ĠS ol
Ġs n
Ġst ore
Ġth ick
Ġspat ial
cl aim
C an
ĠIn f
Ġcontain ed
Ġc risis
Ġp ure
Ġfocus ed
ro t
i pl
el i
Ġobs erve
S upp
) \\
v a
se ct
Ġhapp ened
Ġfeature d
ĠL ord
Ġinstit utions
Ġcre ating
ost on
Ġper haps
ra q
all ery
Ġlaun ched
l ow
Ġstrong ly
un ch
197 9
} )$.
ens es
p ol
Ġo ri
vi ation
ĠL ie
T V
ĠT er
Ġinter actions
The y
er red
Ġqu ad
Ġnew sp
Ġch ance
$ $\
Ġcy cle
ĠY our
ish op
Ġass ert
ers ion
Ġpair s
Ġrec onst
ĠM os
pos s
ĠT re
ist ical
Th us
ĠS pe
Ġcent re
Ġpolit ics
ĠMus lim
Ġtre nd
sy l
Ġadopt ed
Ġcontain ing
Ġgener ate
M M
c ase
Ġp ull
ĠF ace
ĠJose ph
d x
Ġf ans
ĠA wards
Ġm unic
am ely
Ġdest roy
E ng
ern el
Ġr ing
Ġin ner
ian o
Ġm erg
b in
E ar
Ġon to
Ġwe ap
198 1
ĠL ong
Ġhapp en
Ġdevelop ing
ĠO ld
Ġsc atter
Ġwin ning
S y
Ġh uge
Ġcomput ed
gy pt
ab il
ĠOp en
ĠProfess or
ans as
ell a
Ġpro port
ud es
ch o
Ġc ool
Ġt error
Ġoper ating
ak istan
R ep
Ġrecomm end
Ġlat est
P P
Ġdri ve
ur ies
Ġut il
ĠSund ay
Ġinterest s
Ġt asks
ĠOr der
Ġc overed
Ġst ations
at ically
Ġhy dro
Ġem phas
Ġag ency
ĠC a
Ġth row
Ġst ellar
)$ -
Ġcr ime
C ons
Ġexper t
ĠK n
$ ^{-
Ġcle an
ut ch
ĠCent re
Ġtechn ical
Ġpar allel
// //
onav irus
ĠSum mer
k l
re ct
Ġveh icle
the n
le ase
ĠO nt
Ġn ine
Ġequ ip
ĠF und
Ġt end
ĠĠĠĠĠĠĠĠĠĠĠĠĠĠĠĠ ĠĠĠĠĠĠĠ
map sto
Ġent ry
se ud
Ġact s
F urther
ict ed
ell er
Ġapp arent
B ar
M R
-------- --------
mat rix
con n
in et
p ost
Ġp p
Ġf ear
ĠE U
ĠA cc
Ġattack s
Ġimplement ation
ĠB razil
Ġopportun ities
Ġmain ly
Ġre ject
ĠH aw
Ġapp eal
ĠB et
Ġconver gence
Ġke pt
H S
ĠC ast
es ter
ĠPol icy
mult i
al ysis
ĠJ ones
Ġjo in
Ġphen omen
van ia
Ġ ens
Ġacadem ic
ĠT im
pro b
ĠH y
ĠG overn
g raph
Ġmod es
R eg
r ical
ĠM ax
ran k
ĠJ ul
p a
ĠE mp
if ier
Ġtrans formation
ĠC am
ĠIn formation
ĠCommun ity
ce an
i ro
Ġw ood
ash ion
Ġc osm
Ġcomp are
Ġn or
Ġt ensor
Ġerr ors
Ġscient ific
in v
S U
ĠSw ed
Ġto urn
ĠB oth
Ġim plic
Ġopin ion
Ġp icture
Ġsem i
or age
Ġle aving
Ġm orph
Ġ= \
Ġchem ical
ec utive
ic ks
Ġscal ar
b ed
Ġprinc iple
Ġabs or
Ġarbit rary
Ġst rict
ĠD ata
Ġrem oved
Ġart icles
is ters
c are
ĠGa ussian
ĠC re
Ġadvan tage
Ġpre tty
Ġsing ular
Ġl ab
ĠSte p
in ner
Ġaff ected
ta g
Ġman ner
at ers
g ency
t ik
ĠVal ley
ĠF riday
d im
ĠL y
Ġun known
Ġtri ed
r ass
ok en
Ġfund s
Ġco ast
Ġmot iv
S I
ĠT HE
Ġconf erence
N R
Ġadv oc
ay lor
ĠSp ace
Ġdepend ence
i ate
Ġt un
Ġsy m
Ġdev ice
Ġmeasure ment
Ġneighbor hood
force ment
Ġfac ilities
Ġse a
Ġdistrib uted
pro position
com ple
ĠD ou
) {
at o
ov ing
ĠâĢ ¦
ĠM ond
Ġf ix
197 8
197 6
iz er
Ġtyp ical
Ġb us
col umn
Ġmar riage
ĠPl ay
Ġyield s
} %
f ort
as y
Ġcred it
Ġind eed
Ġjust ice
Ġappear ance
Ġspect ra
Ġs qu
Ġseg ment
Ġdiv ision
Ġsymmet ric
Ġ$ $
us al
Ġdist ingu
ri ve
el er
Ġide al
Ġstud io
atur day
Ġsing er
1 20
ĠF ootball
r ons
Ġhy pot
Ġs plit
ĠIr ish
F A
id en
}} ^{
are n
Ã ¤
ĠS pr
it age
un ct
ĠOr gan
ĠGl obal
ell i
) {\
od er
riev ed
ĠH ome
Ġpolynom ial
ĠJ ac
Ġmat rices
ĠG al
Ġres ist
Ġact or
uild ing
ĠH a
ĠSp ain
ĠSp ecial
ĠE lect
Ġex ternal
Ġr an
od ot
i xt
Ġdep th
ĠPar liament
Ġconflic t
ific ations
Ġbel ieved
Ġo dd
' (
r ating
ĠMed ical
pt on
Ġw ild
Ġstandard s
if ies
od ies
s ch
Ġthink ing
per ty
Ġlim its
Ġro ugh
C P
Ġatt end
ĠB as
we ight
omorph ic
197 2
D uring
Ġex ception
Ġdisc overed
ĠM ur
Ġbroad cast
Ġcom ments
ch ang
ĠI raq
Ġfail ure
Ġcertain ly
Ġl ies
Ġrem ember
i ples
syl vania
Ġme ant
ĠI ss
tik z
Ġcomput ation
t ri
ĠE nd
Ġel im
Ġsatisf y
Ġwrit ers
p at
ograph ic
Ġint ended
\ {\
ĠH ot
ĠF inally
Ġconclud e
ind ing
N ext
im ately
Ġinv ariant
end ment
Ġindic ates
197 7
Ġeval uation
Ġreg ional
Ġprofess or
Ġclaim ed
.~ (\
H z
Ġass ign
p x
M L
he ight
Ġac k
Ġv oc
ĠMed ia
ĠH ig
ard en
Ġinit ially
Ġk ing
Ġdeg rees
Ġsk ills
}{ (
ie ves
Ġent ered
Ġdec isions
Ġobserv ation
ĠCon n
ĠL ibrary
197 4
Ġsaf e
S R
ĠStud ies
Ġd aily
ĠE very
Ġg ap
Ġn et
Ġhor izon
Ġas ympt
/ >
Ġd oll
Ġto uch
O ther
k o
ock ey
ĠW ay
Ġdisc rim
Ġbu y
ĠDemocrat ic
ĠJ eff
$ ;
display style
ound s
Ġact ing
a o
w an
O f
ĠK h
197 5
P er
ĠT our
Ġwid ely
ma ge
) },
ĠL i
t ic
Ġte aching
m ond
Ġuncertaint y
ta il
ĠV er
ĠOb ama
Ġview s
Ġindic ate
m ma
Ġro ll
r ations
ĠN orthern
Ġw all
Ġc ov
Ġeffic iency
Ġfore st
Ġconfig uration
here nt
erv ative
Ġc row
sh ire
un te
Ġdis app
Ġis land
ĠN avy
bre ak
Ġsc hed
el ess
ĠMich igan
Ġa st
ut ation
} &
ĠFrancis co
Ġcount y
ĠE gypt
val ues
ĠEx p
rast ructure
Ġord ers
Ġaud ience
ĠA ut
Ġp ages
? âĢĿ
en ess
Ġor b
ĠOlymp ics
P re
G C
Ġt or
al og
ilib rium
ĠS k
Ġed ition
Ġcol le
ĠH on
E L
Ġit er
M e
c ref
Ġcandid ates
or a
Ġcall s
Ġyou th
Ġm orning
Ġsupp ly
Ġsuggest ed
Ġconcer ns
ful ly
ĠB oston
in st
\ "
ĠF ort
ĠW all
Ġatt ended
Ġconf irmed
ĠS oviet
==== ====
Ġauthor ities
iven ess
ĠD et
197 3
Ġw itness
at us
ĠS outhern
on ential
ĠFurther more
Ġspec ifically
Ġr ang
O ut
ĠPol it
Ġded icated
ĠConf erence
. $
m osp
ott ed
Ġp il
Ġsuggest s
g ar
Ġagre ed
u an
Ġprocess ing
O M
ĠF amily
Ġ&= &
Ġpo et
ĠC are
ĠO F
Ġequip ment
Ġm ixed
Ġd anger
Ġst ress
ĠA v
ĠP M
Ġreveal ed
Ġcomm ittee
| _{
ĠKore a
Ġserv ing
ĠD om
196 8
Ġsom ew
fl ow
A m
Ð µ
ĠOnt ario
Ġlay ers
ipp ed
Ġplan et
n b
}{ |
$ (
ĠSh ow
Ġ ;
Ġown ed
ĠC y
Ġoptim ization
ad er
Ġbas ket
bl ue
Ġdoc uments
ĠJ oe
Ġthous ands
Ġdef ense
ann els
Ġcircum st
em pl
Ġdis k
inal s
ĠC ross
Ġocc urs
Ġf ellow
Ġ er
Ġfig ures
Val ue
Ġthan k
Ġstat ements
ĠP akistan
abl ed
Ġhous ing
Ġopt ical
ĠPro t
Ġm iles
in put
Ġcre ation
Ġcomplex ity
Ġad m
ĠJer sey
D S
Ġes cap
Ġve ctors
Ġpred iction
ĠS ar
ro ph
Ġpen al
' ll
Ġcharg ed
angu ages
ot al
Ġhe at
Ġtool s
rib ution
ĠS uch
g ment
Ã ¨
Ġord ered
Ġm useum
Ġext ent
Ġallow ing
R S
"> <
id ents
) +\
Ġw ants
ĠPenn sylvania
g rad
) _
ĠS and
Ġis ol
Ġm ur
Ġm ental
Ġmag azine
Ġbel ief
ab y
cont in
ing ly
Ġadd ing
Ġear th
Ġb rain
rr or
c ong
Ġwind ow
ad ed
Ġm ess
ĠA uthor
Ġlegis l
ip age
ĠPol ice
Ġown er
A G
ilar ly
Ġcal c
Ġobject ive
s he
ĠL in
min ipage
Ġe mail
p icture
Ġimpro ved
EN T
Ġgrad ient
u ous
n am
ri e
ĠB u
Ġpart ner
Ġstat istics
Ġb inary
het ic
ĠTe am
Ġinter val
Ġdel ay
ĠWilliam s
Ġgalax y
Ġtra ffic
Ġst o
Ġlarg ely
1 10
Ġcomm itted
Ġcon d
clus ive
Ġman ifold
p g
Ġexpl ore
P art
new command
F ilm
Ġal umni
Ġsol ve
} )$,
ĠP acific
Ġdev ices
Ġneg ot
Ġinvol ve
F inally
Ġdep ending
) -\
} }$,
Ġelection s
Ġco oper
ed nes
Ġg rid
Ġover l
u i
ad or
he ast
d frac
ino is
= #
Ġsy nt
Ġaspect s
Ġtalk ing
ĠF ed
Ġextrem ely
ĠGo ogle
ĠC amb
Ġmin imal
S ection
h ost
Ġper m
b el
y mmet
In f
a ug
ĠL im
Ġ ]
Ġtheore tical
Ġor th
ĠSt and
ĠFace book
E nd
Ġag ents
Ġen h
ĠG reek
) --
os is
$ ~
g ener
Ġcustom ers
ic ial
ĠGeorg ia
Ġex cell
Ġri ver
ĠL o
Ġteac her
k es
Ġprodu cer
Ġsol ar
ab ase
ad el
Ġp owers
Ġchang ing
E qu
Ġar ray
ĠEn ergy
Ġpro min
P E
Ġprim arily
we et
Ġrec all
Ġlaun ch
ex ample
ĠG et
Ġadj ust
Ġmagn itude
l ife
ĠRepublic an
ĠOh io
197 1
ad s
Ġcoordin ates
op ic
init ely
pro t
w ord
" );
Ġj ur
r ust
ĠA M
less sim
Ġread y
ab eth
ploy ment
S ch
r c
Ġmanag ed
Ð ¸
Ġres on
Ġrecogn ized
u er
et ts
Ġtest s
Ġrob ust
Ġear ned
Ġit ems
pt y
ĠH or
ĠC EO
ĠSc iences
Ġmet al
Ġs ell
ol ve
Ġ ice
Ġposs ibility
1 000
ĠChar l
Ġw onder
Ġb ond
Ġfil ed
Ġ/ **
ĠJ r
\\\\\\\\\\\\\\\\ \\\\\\\\\\\\\\\\
ic ip
og rap
vert ed
Ġdriv ing
Ġvict ory
} }$.
Ġcom plic
ĠAs sembly
ĠCon st
ĠM en
l ocal
Ġv ision
esc ription
w ater
196 9
D o
Ġtechn ique
Ġcy cl
s uch
Ġscen ario
Ġex erc
ĠIn vest
ec es
T able
c ular
c alled
Ġbig gest
sc ill
ĠS aturday
Ġn orthern
z er
Ġpart nership
S ome
ric s
ĠQue en
Ġresearc hers
Ġfe et
ris on
Ġnot es
ĠU k
ĠF ar
Ġor g
Ġpur su
ad ium
}$ )
s en
urs day
Ġinvol ving
F e
ev en
C L
ĠEx ecutive
Ġinter f
' }
S M
oun sel
Ġcol on
ĠE p
Ġfunction al
Ġdi agn
Ġaccept ed
Ġlegis lation
Ġp m
Ġupd ate
ĠE ll
ĠB ern
Ġdifferent ial
ĠK ong
ĠG re
Ġarm y
Ġanal og
Ġs outhern
ednes day
Ġprinc ipal
" />
Ġw el
er ies
Ġhe aring
ĠV an
Ġk ids
Ġinstit ution
M r
x ford
u ing
196 7
Ġb oy
Ġmod ule
Ġs ides
h bar
Ġcover age
Ġpat ient
ĠG ar
Ġn ar
ĠMond ay
ĠC oll
b ury
Ġd raft
Ġd og
Ġp ush
a fter
ĠAs ian
ĠF red
ĠR am
Ġad vert
Ġperspect ive
) )$
ĠHamilton ian
if ts
Ġstre et
Ġpract ices
ĠB ow
Ġre tain
our ney
Ġg rew
Ġmass es
ĠAnd rew
Int roduction
Ġnot ation
The refore
Ġloc ations
Ġcharg es
ogene ous
Ġ( "
Ġsub section
ĠW ater
Ġdom estic
ach us
ĠTr ust
on to
: }
Ġbasket ball
Ġsub t
Ġun less
ues day
Ġadv ance
Ġinteg er
Ġconcer ned
ĠL ab
ĠJack son
Ġsub s
ic ed
Ġ era
d isc
ĠV i
Ġus ual
it ivity
19 40
Ġr ich
Ġpre par
ugh t
h box
g al
Ġserv es
st ract
par agraph
Ġdam age
ĠRep ort
Ġres ource
Ġdescrib es
osoph y
Ġinc ident
ĠEngine ering
Ġsup erv
i y
oc racy
ĠC r
G L
T ime
ir t
ĠCon stitution
Ġreason able
ook ing
Ġ$ {
c ar
Ġlook s
Ġro ot
Ġindu ced
Ġm ountain
) }_{
erson al
Ġtra ject
erv ice
$ };
Ġorgan ized
A rt
C R
ĠW ales
Ġa head
ĠSt an
Ġfil ter
Ġfac ility
Ġob lig
ĠIn ternet
Ġc ouncil
ĠH ospital
v in
Ġconstit ution
Ġform at
Ġst ability
ĠPh ys
h ar
Ġphys ics
! !
Ġmed al
_ -
ener gy
l ines
uck y
Ġengine ering
Ġpart ial
C or
In ter
Ġro ute
ĠS ir
s upp
Ġsu c
$ ),
f act
Ġrecogn ition
Ġcompos ition
ĠP ower
j a
Ġen erg
Ġ// /
Ġse asons
ri end
Ġsc ored
T R
achus etts
sk y
H O
ol es
Ġn ative
Ġwe alth
int on
19 30
ĠF ield
Ġdatas ets
Ġemploy ed
Ġtourn ament
Ġfootball ers
Ġb right
Ġcon ven
" ;
re hens
Ġo scill
Ġwhere as
Ġs le
ĠM u
Ġbe am
ĠW ind
Ġ$ |\
on ed
igh ter
Ġnuc le
or row
amp ion
o ir
Ġmark ed
Ġnecess arily
ĠEmp ire
Ġext end
Al though
ĠEn ter
Ġfor t
AT E
Ġest ate
Ġdel iver
b al
ov a
ĠW ho
( (
Ġsh ock
ĠU sing
ĠIll inois
ĠF our
ĠS et
T est
Ġjud ge
p age
Ġact ress
at i
ĠInd eed
ĠMin istry
ĠAdminist ration
Ġindust rial
Ġsupport ing
Ġtherm al
p ack
ĠL ine
clus ions
Ġl um
R el
Ġgraph s
er ior
ĠRep resent
ident ial
und le
194 5
c d
Ġmat ches
ins on
Ġb in
Ġfl oor
Ġco al
Ġbal ance
b as
Ġperform ing
F R
Ġscatter ing
e aking
" :
Ġc reat
as er
B I
Ġappro ved
ol id
Ġtre ated
Ġunder lying
Ġh ole
Ġapp lying
Ġp i
Ġrespons ibility
Ġpr ime
25 0
Ġspec ified
a ver
Ġrecord ing
st one
du le
Ġch annels
Ġanc ient
Ġh our
Ġrest aur
ors hip
196 4
Ġbound s
Ġh ab
Ġn one
ĠR ay
Ġd ial
ĠB ra
aw a
cc cc
Ġaccur ate
ĠC irc
oth ing
flo or
Ġax is
em b
Ġsp ot
sum mary
Ġent ertain
ys elf
ĠLat in
Ġass igned
ĠThe atre
Ġmed ium
Ġf le
in ating
ĠPal est
Ġhon or
Ġro les
N S
z en
ĠCar l
Ġinteg ration
ĠG r
Ġper man
Ġveh icles
ĠN ig
Ġcol lected
Ġband s
Ġd ream
Ġpers ons
O C
bur gh
ĠN ations
Ġr ul
ark s
Ġexper iences
av el
Ġmin ister
ĠP rem
~~ ~~
augh t
Ġl it
Ġat mosp
Ġsch olar
ust er
g a
Ġimplement ed
ĠJ on
os es
Ġdivid ed
Ġevalu ate
Ġa wards
Ġmax im
ĠM aster
trans lation
rap y
ĠColumb ia
ĠT ri
Ġl ie
t an
ĠInd ust
Ġstart s
L C
Ġ ?
Ġanim als
ĠE astern
Ġrepe ated
Ġconf idence
Ġexpl o
Ġs ister
olog ist
ron ic
al i
Ġs pl
p ublic
ĠJ un
ate ver
Ġbeaut iful
ĠRad io
Ġle aves
anc he
ortun ately
Ġsuc ceed
ĠK enn
Ġca uses
i ary
ĠScot land
ĠPhil ipp
n ings
ĠBl ue
Ġ urban
Ġalle ged
ĠN Y
am ber
196 5
iz abeth
Ġestim ation
Ġbl og
Ġprofess ion
K ey
Ġs an
ĠM ike
Ġdimens ions
Ġsatisf ying
ect ive
ĠI d
Ġdecom position
` `
Ġelectron ic
s es
Ġg ender
Ġcon vex
ĠWil son
ĠCo ast
Ġrelig ion
Ġrelationship s
M T
sc ape
ĠE r
Ġch ampionship
Ġturn s
Ġmod ified
ĠComm on
Ġhom es
Ġrepresent ative
l t
Ġrec ip
con f
Ġoccur red
] {\
ok es
[ (
ĠDan iel
sy stem
ĠM ajor
Ġc ars
Ġcon j
6 00
Ġn arrow
ĠK en
Ġmur der
Ġk ernel
Ġcalcul ations
Ġinsp ired
O P
}( {\
ear s
te en
Ġconf irm
Ġn amely
Ġtem por
Ġclos ely
Ġg one
s ur
enn is
R ead
m ass
Ġs av
Ġhigh light
Ġpart ition
L a
Ġl ock
ĠCorpor ation
od d
ib li
Ġp ix
Ġhapp ens
Ġcateg ories
tr ue
ien ced
ĠHe ad
Ġse vere
et ing
Ġexp onential
Ġoppos ite
Ġc ere
itz er
Ġtrac ks
ĠD isc
Ġtell s
ĠH ong
Ġconsequ ence
Ġposs ibly
Ġcircumst ances
Ġcomp osed
ĠMass achusetts
Ġclust ers
Ġprot ected
ĠM id
Ġmark ets
ro g
ult ane
Ġdec ade
poss ible
Ġtre es
ĠT aylor
omet ric
ĠChrist mas
Ġdynam ic
ĠM ot
ĠV iet
cis ely
E P
ĠV is
Ġem ot
st ood
z h
Ġcon clusion
d es
Ġact ors
c ks
ĠO l
st r
Ġs ale
) }}
V iew
Ġle mma
oc ument
Ã³ n
o om
ĠSt ring
Ġentire ly
Ġscal es
ord ers
Ġph one
ĠBro ad
Ä ģ
ion e
ĠJes us
M B
for ward
ig rants
âĢ ĺ
ĠP op
Ġne ural
Ġacqu ired
ak a
Ġlook ed
Ġarg uments
im b
Ġassoci ation
Ġlo op
Ġrot ation
19 20
Ġag ric
c oh
p ass
Ġsubsequ ent
Ġpattern s
Ġdra ma
c hen
f irst
it ative
Ġbi as
ĠL ag
Ġstat istical
Ġarriv ed
ĠM ah
] $.
Ġch apter
Ġw estern
ĠM ountain
Ġeffect ively
Ġag encies
Ġd rop
vers ion
Ġadv is
ĠS ong
p o
Ġden oted
\ )
eli hood
Ġinvestig ate
Ġcont rad
Ġcomp ens
j i
Ġl anguages
is d
act er
Ġinf rastructure
ĠP riv
Ġ[ \
ĠCol or
Ġm ist
ĠL uc
Ġmat ters
ĠC ode
bra ce
ĠMc C
Ġpredict ed
Ġrepresent ing
aint iff
ch ar
as ters
bm atrix
Ġsee ing
c s
ĠE st
ink ing
Com m
ru it
Ġdef ault
il ation
^* $
ar ters
ĠK ent
Ġm yself
ath an
Ġphys ic
ĠAn other
ĠEd ward
ĠA D
Ġtw ice
j o
ĠPr ince
Ġmon itor
Ġsum mar
Ġvis ited
S L
est ed
Ġsee k
Ġpolitic ian
Ġd ram
so ft
l anguage
ĠDes ign
Ġbeg ins
Ġs end
Ġassum ptions
ĠM ount
Ġfind s
Ġloc ally
Ġin ject
ĠA P
ĠB ul
196 6
up s
ict ures
Ġreg ulations
Ġamplit ude
Ġfact s
f ram
ĠPr ime
Ġsent ence
al gorithm
t rack
Ġcalc ulation
ĠW ednesday
Ġreg ul
am in
Ġs ave
ĠSe a
ĠTw itter
r ator
Ex ception
A tt
t w
Ġs un
Ġint elligence
ri ate
Ġprov isions
Ġindic ated
Ġco inc
Ġex ceed
ĠTh ursday
Ġinter section
Ġinf inite
el a
Ġt it
Ġ{ $
B ack
ĠDe v
c f
t wo
ve e
{ {
Ġcapt ure
Ġeduc ational
n ic
Ġcon vent
Ġple ase
Ġstrateg ies
ĠD onald
ĠBro ok
: =
ĠF ree
ĠB ol
Ġprot ocol
ar ity
h as
Ġv ot
Ġ\ ]
,\ \
Ġdis crete
Ġcor onavirus
O L
erv es
Ġvir us
ĠÂ »
Ġw arm
Ġflu ct
Ġcoe fficient
Ġmov ies
Ġadvan ced
Ġfac ulty
Ġvari ation
Ġor bit
on ents
M ay
Ġhapp y
og en
Ob ject
&= &
\ }$.
ĠWe ek
ĠT em
Ġrepresent ations
Ġex clud
ob e
or ough
op en
ĠL abor
] }
Ġpl anned
Ġhe ro
Ġgrant ed
Ġwe ights
ens ions
Ġra ise
ird s
on ical
ly wood
ph ia
Ġen em
D r
ĠT uesday
Ġhelp ing
ph ant
Ġmat hemat
Ġfe at
Ġp un
ĠMod el
E l
ĠN ight
g r
Ġtrans mission
Ġsufficient ly
Ġdeb ate
ĠR a
Ġequ ality
Ġdisc over
pro cess
Ġext ensive
ĠC ard
ĠP ub
Ġgreat est
| }
ĠGu ard
ĠB al
Ġpract ical
id ae
or ters
Ġsu itable
Ġhe av
U sing
ĠG ame
ĠO xford
Ġsh ares
Ġt ail
Ġhous es
Ġexpl an
ĠCh ris
Ġacc ord
, $
ĠB attle
Ġf ashion
ar se
Ġinst all
p ace
Ġpro te
ĠRet rieved
is l
il er
Ġcorpor ate
ĠL ittle
}[ \
Ġscal ing
w er
Ġp seud
Ġ ion
ĠL ike
____ ____
il a
ĠW ild
Ġse at
Ġcharacter istic
ĠG irl
Ġent ropy
ĠD ar
Ġte le
Ġrad iation
Ġcamp us
Ġabsol ute
ĠAb out
A dd
ĠC ro
Ġcre w
ĠGovern or
Ġw ish
Ġsurround ing
et al
Ġsam pling
adel phia
. âĢĻ
Ġfl ag
ĠAd dition
eng er
ound ed
Ġj ump
Ġend s
b ase
ĠS her
}) ;
Ġf an
Ġpro sec
ĠEn vironment
ĠL ast
P ol
Ġf ell
| }{
Ġori ent
per form
Ġins urance
ost er
l ik
.. .,
Ġdo ctor
] $,
on n
Ġp ip
G u
Ġl ibrary
Ġprep ared
c r
Ġbehavi our
Ġcontro vers
Ġab und
. _
Ġprov ince
ĠBel g
Ġconcer n
ag ram
t ed
ĠMed icine
Ġr ational
rib ed
Ġcar bon
Ġassist ance
Ġmanufact ure
,\ ,\
ĠB ell
Ġd rum
Ġpl ants
] (
c ount
ĠC ub
Ġphot o
Ġfl ight
Ġnear by
Ġm ere
agn etic
Ġ ille
O p
) );
Ġdeb t
Ear ly
Ġreturn s
S D
Ġemploy ment
h ire
ĠS ports
Ġstre am
Ġport ion
ĠT oday
V D
ĠA G
ĠAg ain
ĠH om
Ġa id
+ +
y e
Ġdo or
ĠB ack
Ġcommon ly
Ġsecond ary
T H
Ġab use
Ġsold iers
10 1
Ġf ra
Ġclin ical
t frac
il ly
D ec
S m
Ġb ridge
te es
Ġar ts
8 00
Ġtr ig
com es
Ġb ra
ĠJew s
Ġr is
Ġre new
Ġapp rec
$ :
$ _{
res ults
Ġang ular
T E
}} _{\
Ġhold ing
Ġrem ove
Ġdes ired
gh an
Ġbe at
big l
Ġult imately
Ġvirt ual
ĠAff airs
Ġre action
Ġmob ile
Ch ar
Ġca ref
Ġproject ion
Ġey es
196 3
Ġvol unte
ap se
ĠW rit
ĠP ubl
Ġexper ienced
ĠB rad
Ġcl ients
n n
b rid
Ġsuccessful ly
Ġtrans lation
II I
Ġpre cisely
am m
ĠD ig
][ ]{
Ġintrodu ction
Ġey e
Ġgirl s
Ġpl us
Ġc ash
ys et
Ġmom ents
n i
du ate
Ġperson nel
cur rent
Ġrev olution
O D
ct ic
ĠU s
ĠF air
ĠAn y
C M
Ġr ural
Ġcoordin ate
Con n
j oint
W ill
Ġf uel
ob ject
ĠWe b
an ta
el d
Ġthe ories
ĠChild ren
ĠB ase
Ġpar agraph
wh ite
N ational
ric ket
Ġd ie
ĠS a
ĠW alk
Ġl iqu
Ġsatisf ied
Ġequ ilibrium
big r
Ġs ac
on ly
Ġp apers
ut or
ed u
Ġsub stit
eg o
Ġfight ing
Ġinj ury
ĠB a
Ġprom ote
Ġd ust
ĠChampionship s
18 0
ord an
em bers
Ġhistor ic
Ġcomput ing
Ġis omorphism
h ol
Ġparticip ants
Ġret ired
Ġpublic ation
Ġqu e
p arent
ĠApp endix
Ġmulti plic
Ġvert ical
Ġwin ner
Ġcontroll ed
ĠR h
Ġs oc
ort ion
H ome
Ġcont emporary
c ious
Ġcalcul ate
In st
ist ent
eg ory
\ ;
) )\
ĠTor onto
Ġcam era
not es
Ġm ent
Ġreview s
Ġinterpret ation
Ġoppos ition
Ġb urn
Ġessential ly
Ġpass ing
Ġ\ !
st rong
Ġrec over
Ġnewsp aper
ĠTh rough
Ġcour ts
ĠL ear
Ġpolitic ians
Ġcl ient
Ġgeomet ry
se x
Ġent itled
ĠE xt
en ant
Ġoper ated
ĠB oy
$ &
Ġ! =
ĠB ang
196 2
ain s
h ow
ran e
Ġit em
ip ality
Ġtro ops
er ry
Ġdra wn
R C
ps on
Ġmay be
Ġdet ected
och astic
c ut
ĠOffic er
Ġrel ax
Ġdemonst rate
Ð ½
T C
Ġt aught
Ġm and
Ġemer gency
i ated
w ing
ic ation
Ġsupp osed
Ġpro pose
Ġst r
Ġsub group
ĠD un
M ed
Ġrece iving
Ġstand s
Ġd uty
= .
Ġbl ocks
}} ^{\
Ġsim ultane
empt yset
ism s
Ġded u
Ġthan ks
Ġmot or
i ability
on ia
f aces
E rror
Ġaccom pl
Ġsp ons
Ġ$ .
ug by
ĠFore ign
ib ilities
Ġcould n
Ġweap ons
v ol
Ġexplicit ly
Ã §
ĠL ew
Ġpart ners
E xt
}} )
ier arch
Ġprinc iples
pl an
Ġf resh
Ġsubsequ ently
Ġc old
Ġpromin ent
Ġcall ing
o z
ĠG i
Ġprov ision
b ottom
includ ing
ĠRe al
rat ic
Ġadv ice
Ġt ick
Ġunivers al
Ġneut r
}_{ -
el lect
Ġc m
}} .
ĠP en
T wo
P U
Eng lish
Ġadminist rative
t es
Ġsp ring
Ġpredict ions
Ġinteg rated
at al
im a
Ġcorn er
ĠD C
ĠR os
Ġk ill
Ġdecl ared
Ġunder stood
amet ers
ĠRev olution
ĠC ase
Ġd ance
lement ary
Ġcom edy
osp it
Ġr ig
ache lor
ĠEl izabeth
ĠSp ec
pt ic
ad ow
in er
d el
Ġp rices
ĠDef ense
Ġabs ence
ĠK im
ĠHistor ic
ĠSe ason
Ġin tern
c ore
Ġcomp rehens
d y
Ġj et
D B
il bert
Post ed
ect s
ĠA maz
ĠPort ug
Ġaccount s
Ġth r
ne ver
âĢ ¢
ul i
Ġscient ists
Ġsc ript
Ġf iction
Ġdou bt
Ġimprove ment
Ġinter act
ĠA sh
ist ed
% )
the less
act ic
Res ults
Ġs ession
Ġnot ion
Ġv ice
ĠV ice
Ġ ur
Ġalong side
ĠWh y
Ġsh ap
nb sp
ul ner
cont ent
i very
ru ption
Ġ\ (\
Ġcontrib ute
ve ct
ĠR un
og ether
Ġex cess
}) }
ĠS om
ĠN et
}\ ,\
Ġcomput ational
Ġm apping
Ġr id
on ym
Ġext reme
Ġoff ering
Ġtru ly
' d
Ġvoc als
Ġfeel ing
ev in
Ġpi eces
Ġa thlet
ĠSte ve
Ġenh ance
Ġj ourney
Ġpurch ase
ĠTh ree
Ġint ensity
Ġass ets
as te
Ġassist ant
G eneral
Ġfif th
Ġa w
Ġc atch
multi row
fig ures
Ġst orage
ĠTur key
A ct
ide os
Ġgood s
Ġapplic able
in ction
ir ty
C are
d f
Ġcapt ured
n amed
Ġv eter
ain ed
ric ts
Ġestablish ments
i em
Ġcharacter istics
Ġre venue
Ġso le
ĠR ome
An other
ili ar
er ate
D R
Ġag greg
ĠCl ark
Ñ Ģ
Ġkeep ing
ĠInst ead
w art
Pro of
ph one
Ġexerc ise
op her
R ight
M s
Ġemploy ee
Ġret ire
I ST
l oc
ay a
j ust
Ġfind ings
t iny
et ies
Ġacc ident
C he
G iven
Ġexpand ed
Ġjur isd
ag ues
pro duct
)-- (
Ġc e
ĠW in
Ġdri ver
ĠD own
ĠOn ly
Ñ Ĥ
th ur
H T
Ġperform ances
Ġp ra
re pre
h igh
over ty
mod ule
ĠE th
Ä ĩ
Ġb an
app ed
Ġfrequ ently
Ġpres c
Ġexper ts
Ġb omb
Ġhel ps
D av
us er
Ġdi ver
Ġbro ken
ĠO bs
Ġmarket ing
in du
Ġposs ess
Ġdrug s
ĠUn ivers
Ġcru cial
ĠD utch
Ġresult ed
Ġarm s
repre ne
A E
Ġst uff
an ced
ĠR og
ĠN on
Ġregist ered
Ġaff ord
ĠAlex ander
math op
ĠEx per
Ġlabel s
ĠR om
G l
Ġsh ut
Ġsign als
Ġread er
A ust
column width
Ġexc ited
196 1
ynam ic
ra ine
ĠA T
lection s
tikz picture
iss ions
ĠS us
ĠR en
semb le
nes ota
Ġf ib
Ġsp ending
Sp ec
ĠP oint
Ġembedd ing
Ġclass ic
ĠG iven
n um
Ġworld wide
ĠReg ister
ou ri
ĠBer lin
Ġmed ian
Ġcover ing
Ġteac hers
Ġimmedi ate
C al
el ly
sec ond
ĠProv ince
Ġpriv acy
, {\
ĠPol and
C ur
Ġto t
ch ild
uss ion
ĠS M
ĠPhil adelphia
H is
Ġdemonst rated
Ġen forcement
Ġun able
u ated
Ġclos er
Ġv en
ac ent
ul pt
Ġdi verse
ol is
ud den
Ġsp eaking
st able
ĠD espite
e z
Ġrail way
od ed
ap ore
Ġin verse
âĢ¦ âĢ¦
Ġvictim s
Ġstand ing
b ec
d ney
Â °
ĠAn th
re ement
ĠC orn
Ġdimens ional
v art
Ġben ch
Ġcover s
Ġincreasing ly
Ġnew ly
Ġseem ed
}) =
Ġtest ed
medi ate
Ġh idden
194 4
Ġf lex
Ġpass ion
Ġtri p
ibli ography
u um
Ġprogram ming
T op
Ġb odies
ĠW he
h ard
Ġg ar
i ota
Ġdecre ase
Ġgovern ments
Ġgradu ate
Ġrequire ment
ĠM ember
ĠL ight
Ġan imal
Ġknow s
ĠA st
ĠBe ach
Ġcre ative
Ġsequ ences
bl ock
Ġvers ions
Ġre tail
Ġcollabor ation
Ġtechn ologies
Ġderiv ative
he ta
enn es
e lect
ĠT al
Ġfor th
Ġhundred s
C at
ether lands
Ġyoung er
Ġinter face
ov es
Ġsp end
B i
back ground
Ġtw enty
lic k
Ġal t
he im
Ġgl ass
Ġt urb
Ġdefe ated
H C
Ġlum inos
riz ona
Ġqu asi
math it
Ġb ass
pl om
Ġher self
ĠDav is
ĠPri ze
Ġ rom
Ġsum mary
enc ing
Ġv ent
Ġterrit ory
b ot
ive red
Ġsh ips
ĠS af
Ġf rag
Ġthem e
ut ely
ĠJ ean
Ġsc ope
Ġsw itch
[ -
ow a
ii i
Ġref uge
Ġepis odes
Ġtemper atures
l ers
Ġv ariance
ĠAg ency
rop ic
text color
ĠAf ghan
D is
x x
ĠB BC
Ġbul k
Ġdis cl
A F
-- -
erv ing
h u
Ġanaly z
y ers
Ġconsider ation
Ġs ought
Ġpre ced
ĠH un
N otes
Ġchalleng ing
S ource
v ard
}) ^
atur ally
Ġs oci
Ġrough ly
sl ash
ĠA venue
ons in
Ġ iron
Ġdepend ent
ĉĉĉĉ ĉ
S F
ĠAd d
or ig
res ult
a is
ivers ary
Ġcommit ment
isc onsin
int eg
Ġtransfer red
Ġ$ ,
cy cl
Ġfeed back
A V
E W
Ġa maz
ir ical
ĠH ung
Ġw ww
Ġsee king
v ature
Ġsm art
ĠN C
Ġm ort
Ġarrest ed
ĠR od
Ġwill ing
is cal
Ġsupp l
or i
Ġl oved
Ġpropos al
Ġtop ic
u able
Ġlow est
Ġa p
w orth
Ġmax imal
ĠIn it
D C
Ġinvol ves
Ġpro hib
Ġsec ure
\ |\
Ġdiag onal
EC T
ĠM ic
ĠF ox
Ġhum ans
................ ................
ĠH ard
Ġp ool
M in
ask a
L emma
ĠM icro
Mod el
Ġne ither
Ġfac ilit
ĠG ree
R em
pro fit
ĠM arg
M on
Ġpotential ly
Ġexcell ent
) }_
194 8
d ate
ĠB C
s at
ĠF ollowing
Ġder ive
Ġattempt s
Ġcop ies
Ġfin ish
12 5
. </
Ġwh atever
ou rier
ĠA ud
sequ ently
pl ot
a a
Ġcon sec
H ence
Ġfound er
Ġsur ve
Ġsomew hat
ĠB ru
Ġw aves
ĠF ire
Ġc ensus
ru ctions
Ġf ant
() );
um es
Ġopp osed
ole an
Ġbring ing
Ġref erences
H L
Ġun c
+ (
W ork
sub sec
Ġgradu ated
( ).
ens ed
ĠBook s
ul se
Ġfeat uring
Ġre produ
h l
ĠB ush
Ġim possible
Ġlet ters
ĠU r
Ġannoun ce
195 8
195 6
Ġt rivial
um ption
Ġf ill
Ġon going
ĠV ill
Ġwe ather
Ġgrav it
\ }$,
Ġarg ued
Ġsuff ered
Ġgen us
ĠN az
Ġrec overy
Ġv otes
H ar
Ġvis ible
Ġaff ili
or gan
Ġsol o
z y
w orld
^{ *
Ġd iversity
Ġcontrol s
& =\
a us
S w
Ġare n
B M
ĠIslam ic
Ġhypot hesis
ĠF C
T ext
ĠI V
P ath
ce ived
ĠComm unic
Ġem pty
Ġassess ment
re ll
che stra
Ġbase ball
}$ }
Ġack nowled
Ġrespect ive
writ er
pl ane
Ġtop ological
n av
195 9
ty p
Ġpath s
ĠStep hen
Ġclub s
Ġint ent
ĠKore an
st ep
y o
ĠL ive
J an
ĠF ord
Ġab and
Ġpres ents
Ġend ing
19 39
ĠA R
Ġz one
Ġdriv en
Ġpur s
r ine
st art
b ro
A g
Ġf illed
Ġdes cent
Ġsett lement
he red
\ }\
Ñ ģ
ĠĠĠĠĠĠĠĠ ĠĠĠĠĠĠ
Ġd ens
ĠCamb ridge
Ġconst ants
G A
out s
ĠM ethod
ĠB and
More over
Ġsett ings
Ġpay ment
ep ing
Ġ ^
per ial
ur ches
: =\
v ision
Ġhand le
E vent
Ġdis miss
ve ctor
Ġf aster
Un ited
D M
us hed
an th
Ġpercent age
B O
ge br
F ile
Ġp ray
g reen
if er
Ġwor st
im ents
Ġsupport s
Ġbr ings
Ġnon linear
Ġ }{
Ġfl o
ĠR ight
Ġb att
l ock
Ġst orm
Ġmatch ing
ĠS P
Ġprogram me
Ġdel ivered
l ocation
ĠScott ish
ocrat ic
omet ry
ann a
ĠOn ce
ure au
st ruct
Ġref ers
long rightarrow
ĠA p
ĠB efore
Ġconsist ing
R equ
m ethod
ĠM P
Ex p
Ġproced ures
Ġwould n
im age
Ġcompl aint
Ġfl ood
Ġp al
ari os
ĠM ill
Ġpet ition
l s
; "
Ġdec ide
ĠĠĠĠĠĠĠĠĠĠĠĠĠĠĠĠĠĠĠĠĠĠĠĠĠĠĠĠĠĠĠĠ ĠĠĠĠĠĠĠĠĠĠĠĠĠĠĠĠĠĠĠĠĠĠĠĠĠĠĠĠĠĠĠĠ
Ġdou b
Ġcon form
ur ities
ĠL ocal
Ġenerg ies
Ġad vers
m n
ĠVictor ia
Ġconsequ ences
ĠF ood
Ġv on
Ġk id
Ġqu ery
le ts
ĠM ain
Ġgeneral ized
Ġsat ell
Ġcrit eria
Ġc as
ra ined
d r
Ġv ulner
Ġident ical
m i
Ġp it
sc he
Ġw ait
Ġgu ide
es ides
Ġgrav ity
e ah
ib r
ĠSt ation
Ġshe ll
ĠAd am
Ġg ather
Å į
195 7
y les
Ġsing les
Ġpresident ial
Ġown ers
}} }\
s ign
Ġout er
Ġgain ed
hold ers
ow nt
Ġsepar ation
ak h
194 2
Ġdire ctions
are t
par ison
Ġappl ies
Ġvers us
j s
ĠN ext
Ġassum ing
Ġun iverse
Ġb ed
Ġint r
F l
is a
Ġinter ior
the w
12 8
ic ide
ĠL ater
ĠW ars
Ġrestrict ions
ĠH o
g ers
Ġ ^{
Ġ );
Ġquant ities
ĠSan ta
Ġsc ores
vart heta
ap i
b en
Ġsubstant ial
ro sc
ĠL og
Ġlo an
Ġ },
Ġn ations
ĠO s
P op
is ition
ur ations
ĉĉ Ċ
Ġgu ard
ĠEconom ic
Ġfavor ite
ER T
L T
ĠMin nesota
Ġindepend ence
E X
f il
Ġsens itive
ĠâĢ ¢
Ab out
rop ical
Ġeng aged
med skip
Ġatt orney
R et
Ġre nt
ĠT rade
Ġcap able
D isc
Ġs quad
Ġupd ated
Ġperman ent
}} =
Ġconcer ning
ĠColor ado
ĠL ind
Ġlist en
ir ation
Ġv ast
Ġst ead
p et
t rivial
ĠB iden
ĠAir port
Ġsubs id
Ġlink ed
gebr as
Ġar c
tain ment
ever al
Ġasympt otic
\% $
Ġcom fort
ĠIn s
Ġphot ograph
Ġacc eler
Ġcry st
Ġdestroy ed
ĠP ers
Ġdoll ars
Ġrad ial
Ġred shift
Ġsp an
Ġle ct
rib e
qu arters
ĠSt ock
G o
M ap
at on
ellect ual
Ġcho ices
now ledge
Ġparticip ate
v ari
ob ile
Ġdel ivery
Ġsk y
ik i
194 1
Ġinst ant
av or
pt o
ĠSpr ing
ĠN etherlands
Ġpost ed
ze ch
em an
ĠPr inc
ĠW isconsin
Ġwor se
ĠOlymp ic
C ount
Ġinc red
B rit
Ġjud gment
red it
t itle
Ġocc asion
ĠC as
ĠM ult
Ġbre aking
Ġsched uled
ĠK ansas
Ġsh aring
Ġl osing
} |\
ĠPro du
script style
Ġmill ions
g eneral
Ġris ks
n ight
id ance
Ġin clusion
al so
Ġdat abase
L ast
ot ype
reg ular
194 6
' .
D ist
ĠN ever
Ġeas tern
Ġc ounsel
Ġeas ier
Ġdiscuss ions
ĠN AS
Ġcrow d
ĠCor ps
en ance
def ined
t em
Ġre ward
r ide
ĠG rant
Wh y
d ependent
ress ive
ir k
ĠP ass
Ġt ight
Ġapproxim ate
Ġf ish
ĠM iller
ĠFore st
lic ation
Ġd ashed
ĠA rizona
Ġcan onical
Un iversity
Ġreal ized
Ġoper ate
arg ets
a uthor
b et
Ġen able
Ã ±
195 5
Ġdocument ary
Ġflu id
ĠH ay
ĠB udd
B uild
ĠSta ff
Ġpaint ing
ĠF ac
- (
Ġgu ess
Ġp ed
ĠIsrael i
in ian
1 15
Ġsign s
ar ma
ĠHol lywood
ta ges
ĠW at
ish ment
ĠSt ory
ipp ing
Ġscen es
Ġcons ervation
ĠTur k
ĠC ov
Ġc art
ĠAr gent
/ (
W orld
ian g
rit ical
Ġtra ce
ĠCount ry
Ġconn ections
Ġreport ing
Ġjo ining
Ġsim plic
Ġaccord ance
oc ated
ut ies
Ġtro ub
Ġconstit u
er ver
Ġamount s
ĠL td
Ġdom inant
Ġad vent
Ġext ends
Ġrestrict ed
Ġele v
Ġfl ows
Ġpoint ed
Ġstudy ing
Ġsupp ose
ra ce
Ġpop ulations
olit an
ing ham
ĠCom put
Ġstrateg ic
) })
Ġequival ence
ĠIs lands
194 7
u v
Ġout come
Ġexhib ition
Ġsp oke
Ġent ries
ic ular
Ġpro ud
ĠPer form
Ġn ob
in stein
Ġb anks
ĠT y
Ġneut ral
ĠAss ist
Ġcomp at
Ġstrong er
H om
ĠP age
ag an
Ġfound ation
n ames
Ġphot on
Ġst ages
Ġquant ity
Ch rist
Ġperiod s
Ġconcent ration
ĠHol y
] )
Ġoffic ially
ĠI D
Ġsur g
al ing
A c
ĠA k
194 3
Ġmusic ians
Ġmix ing
Supp ose
Ġtit les
the re
. '
Ġcomprehens ive
Ġpurch ased
ĠSy dney
u zz
Ġ __
reg on
G R
ĠR ou
Ġre ct
;\ ;\
p ool
19 18
U nder
ĠAtl antic
Ġprodu cing
195 4
Ġprof iles
Ġl ose
Ġst ochastic
Ġv ess
ick ing
195 2
ĠViet nam
ĠSing apore
iss on
ĠAre a
ul ating
Ġevalu ated
P M
Ġ riv
or ne
Ġfil es
Ġ Î
Ġcol our
Ġcontrib uted
Ġdro pped
rom e
! \
p res
Ġinteg r
Ġappro val
back slash
con fig
Ġloss es
Ġcorre ction
ĠS at
i ative
Ġmagn et
ak i
Ġrel ief
ĠAmaz on
sl ant
igh th
Ġh all
Ġs izes
ĠB ad
ĠRe ad
ĠArt icle
ĠN a
P res
! ]
ĠS i
Ġad ult
Ġb os
ĠG allery
A p
ĠJ ordan
Ġacc used
ou ston
Ġexec ution
ĠAN D
Ġgener ating
B ox
ĠG ro
og onal
f in
Ġsu it
Ġuncertaint ies
igen ous
Ġel ig
Ġv ideos
f riend
( ))
Ġconcer t
Ġsubject s
am i
ow ed
AT ION
Ġlic ense
L i
f ound
le ments
ra ge
Ġro ots
| ^{
Ġmanufact uring
ĠI R
Ġinst ances
ĠR E
ĠC NN
coh ol
Ġm ask
Ġconclud ed
Ġgener ic
} ~
Ġl y
b at
Ġad ults
un it
Ġhot el
Ġdisc overy
f i
al gebra
ĠLew is
Ġf erm
194 9
Ġs udden
Care er
Ġfam iliar
Ġwas te
m ad
not ag
Ġyour self
Ġsh o
Ġbeh alf
y al
ĠC H
ĠAnt on
M at
Ġgu y
Ġsc ulpt
Ġprom pt
ition al
ar ia
Ġn av
Ġmed icine
ĠF act
) ^\
ax is
ĠS em
( ),
ĠBro ther
ĠRes p
Ġ$\ {\
Ġmov es
ĠAm ong
Ġal leg
ĠT O
Ġconvers ation
ĠM ach
Ġdom inated
ĠSen ior
Ġhab it
Ġcou pled
b ell
ĠJac ob
G roup
ĠV en
Ð¾ Ð
Ġlaw yer
195 3
ĠF ellow
Ġmole cular
row s
X i
Ġm el
E m
er on
ĠG ener
f inal
ect ors
Ġent ity
Ġread ers
ĠĠĠĠĠĠĠĠĠĠĠĠĠĠĠĠ ĠĠĠĠĠĠĠĠĠĠĠ
D on
ie ving
Ġcomb at
Ġe c
Ġmunic ipal
1 12
ĠS oc
ĠD am
ĠLe ad
ĠA ge
M ark
Ġte en
Ġfac ed
Ġcele br
Ġproper ly
j an
Ġd ense
ĠMar sh
ig ious
Ġliqu id
Ġrapid ly
ĠHe art
Ġtop ics
phant om
S W
âĢĻ ,
ĠMiss ouri
^* \
ĠS ant
f ont
eng ers
v s
Ġbel ieves
D i
Ġt ack
and y
M ost
Ġa f
Ġw alls
Ġsecond s
Inf o
Ġvacc ine
ĠC reek
es ian
ĠMem orial
ĠT ype
ĠA ction
o ys
ĠM ilitary
Ġ{ };
c ow
Ġinstrum ent
ĠL ady
Ġput ting
Ġexp osure
Ġrel ating
Ġre nd
( -\
if est
ixt ure
ĠMod ern
Ġc ook
ĠCont rol
ĠM ov
Ġview ed
ĠCl inton
Ġexplain s
p op
' );
Ġvari ations
ol ving
Ġredu cing
Ġb ought
Ġs oul
ĠC ost
ub ble
Ġbrief ly
Ġsit uations
ĠH op
ĠR oss
d ep
script size
ual ity
Col or
ĠT erm
ĠOr ig
Ġcur vature
Ġp overty
Ġpar liament
Ġ/ >
Ġescap e
ĠHar ry
' :
ĠT urn
Ġpack age
V ol
Ġweek end
it arian
ĠC all
ri ers
Ġresist ance
Ġcollect ive
D em
in ator
E nt
Ġreturn ing
he nt
ĠS U
ship s
ĠMary land
v als
ĠGold en
ĠB all
ant ry
Ġch ampion
b u
ort ed
Ġpl aintiff
cal e
Ġsol ving
Ġstrugg le
B N
red uc
col n
ĠTh ose
Ġsimilar ly
et ary
Ġd x
Ġsepar ated
ĠW here
S outh
Ġass ault
Ġb ran
Ġpenal ty
are st
ĠE ric
ĠDu ke
L ine
Ġcons umer
ĠB ridge
point s
o is
ĠS on
J ust
Ġask ing
Ġscen arios
Ġch ose
ĠPrem ier
F ollowing
Ġluminos ity
Ġeigen values
ĠE nt
Ġv oting
bour ne
Ġcent ers
un a
Ġdef initely
ĠS av
ov al
Ġaccom mod
it o
^{ (\
au x
Ġre in
ra it
ĠCom mer
Ġn ice
195 1
Ġsym pt
Ġunivers ities
Ġcharacter ized
Ġprom oted
R I
ĠI mm
% .
P L
F ield
Ġfav our
Ġnot able
Ġh ierarch
ĠD M
P D
oc a
Ġille gal
Ġoff ices
Ġexpress ions
ĠM oh
it udes
Ġref used
Ġsto pped
per ties
Ġph ases
we b
S um
ĠMag azine
Ġn aturally
Ġbound aries
Ġst ores
idel ines
Ġcommunic ations
ĠR ose
Ġdynam ical
Ġman age
ch ron
j pg
U C
Ġord inary
Ġdanger ous
Ġident ification
( [
ĠH art
ĠSy ria
ĠCap ital
âĢĻ .
Ġwin ter
Ġredu ces
pr ise
Ġleg end
Ġdi plom
ĠLe on
ch or
"> </
Ġdirect ors
ord on
ĠFin ancial
Ġat oms
Ġrank ed
Ġf asc
Ġs we
O W
Film s
Ġreconst ruction
Ġmeet ings
ĠP ot
l en
inf o
aw are
Ġmetric s
ĠT ok
Ġst one
10 5
Ġconvent ional
Ġmembers hip
Ġse vent
opy right
a ire
em et
is ations
Ġch a
Ġprot est
Ġh ospit
ab et
Ġh ockey
Ġth in
Ġexpl os
ĠS N
ĠO t
ĠB uilding
Ġdisc ipl
Ġphil osophy
nowled g
ĠW el
Ġarg ue
Ġ\ &
7 00
Ġk illing
Ġst ack
Ġheav ily
Ġcomplic ated
Ġshoot ing
Ġpro spect
Ġcompet itive
ell o
Ġf estival
Ġwa iting
Ġpil ot
c i
roll ed
Ġsum m
e en
ĠS C
Sy stem
Ġparticip ation
ĠAtt orney
ĠM A
Ġdis cret
Ġan om
ĠTrans port
Ġappear ances
}\ |
Ġstrict ly
cor ollary
ĠL ow
. \\
ĠL es
olog ists
neg ative
Ġprodu ces
on na
Ġf ranch
ut her
*} [
ĠPol ish
Ġcustom er
Ġcirc uit
T A
Ġeven ing
Ġs elling
A ut
Ġis ot
Ġjournal ist
Ġmodel ing
M c
Ġperiod ic
ennes see
Ġst ret
ĠK ey
Ġwatch ing
$ {\
Ġp iano
Ġsimultane ously
AS S
ver age
ĠAuthor ity
ĠH and
hed ral
ĠMon te
Ġstre ets
old s
Ġf itting
M any
foot notes
ag ged
Ġdesign ated
Ġcontinu ing
f lu
B efore
el and
ĠP y
Ġqu ark
E very
ĠT am
Ġre aching
e h
Ġnegot i
c ard
Ġh air
Ġres c
Ġcons ervative
g t
we alth
pro ject
ĠSim ilarly
L og
ly n
p ower
Ġdes ire
$ ^{
Ġt argets
Ġhost ed
Ġcour ses
f ol
c ers
13 0
Ġfac ing
Dav id
u z
Ġstri ke
ĠO regon
ĠReg ion
ess ions
Ġit eration
st ic
Ġparticip ated
ĠG R
ĠO cean
ĠLeg isl
* }{
Sec ond
Ġregard ed
ag a
Ġ( {\
ar ation
ĠIndian a
sp eople
iam i
Ġsw im
l av
ĠAnd erson
Ġgeomet ric
Ġadj acent
Ġgovern or
footnotes ize
Ġsche mes
Cons ider
B E
exp ected
Ġte ach
Ġshe l
m al
el le
Ġprec ise
Ġvot ers
Ġc ab
Ġamaz ing
id ay
ĠD ra
16 0
T T
Ġkind s
Ġsil ver
Ġt ang
ĠB an
Ġdown load
Ġb undle
Ġwrit es
Ġ\ ,\
Ġanal ys
Ġvary ing
Ġuniform ly
Ġser ver
m aking
Ġpan els
ak ed
Ġsche dule
Ġtempor al
Ġinvest ors
at as
Ġexplan ation
Ġillust rated
Ġestablish ment
ict ions
Ġneigh b
ol ars
Ġsub mitted
cl ine
Ġdet ector
ĠL em
end a
\| _
ĠA mb
ĠD er
Ġg ate
ĠDe ath
os a
ou red
. ;
ul us
G E
Ġnov els
Ġorient ation
enn a
Ġca ught
Ġh aven
ile y
Ġmarg in
G en
Ġtri ple
h av
Ġinnov ation
Ġemot ional
ĠSwed en
Ġinvestig ated
j u
Ġch air
on om
Ġpl as
ĠT ro
Ġjurisd iction
P at
id al
ĠR est
ul er
Ġcont est
ĠDi ego
Ġland scape
um a
Ġdefe at
ic ate
s i
Ġconsum ption
Ġ( âĢľ
ĠD ue
ĠGree ce
Ġch airman
ĠPro b
Ġde ploy
I mage
ĠMe an
ĠB ureau
Ġdefend ant
Ġin ternet
Ġaim s
^* (
ch ing
Ġf aces
ĠI owa
B ook
emet ery
Ġdeal ing
han ced
equ ations
Ġexp ensive
ĠR aj
Ġcarry ing
ER S
tri angle
ĠRail way
ĠAl gorithm
eng ths
ĠHar ris
rep resent
Ġsound s
Ġpolar ization
ĠT ax
ph y
( {
Ġtransport ation
Ġl ift
ĠCo oper
ĠS ab
ĠDig ital
Ġrecogn ize
> \
Ġconsec utive
ol i
\! \
ĠS ky
Ġm ac
per or
ĠP it
Ġrac es
G a
Ġsurpr ising
edd ing
19 36
ĠT ony
Ġabsol utely
aint enance
D T
Ġbo ost
h fill
ĠSur vey
Ġsur faces
u ction
ĠA h
Ġy ards
p red
Ġoff set
cre en
Ġinter mediate
O per
ific ial
b p
m d
ĠUk raine
ren cy
U p
ĠH al
U E
Ġbas eline
Ġtri ang
Ġmess ages
def ine
ĠHig gs
Ġthe atre
l arge
Ġw avel
Ġclass ified
ĠAddition ally
******** ********
bin om
Al so
$. }
ym ph
ject ure
Ġinv ited
Ġunder ta
Ġw at
ĠV iew
y ard
L o
00 1
el esc
Ġk in
Ġm oral
ĠB rand
Ġhy p
Ġlik elihood
ĠDemocrat s
Ġmechanism s
Ġcolumn s
L R
Ġcomplet ion
Ġmaintain ed
lo op
Ġc odes
Ġaut o
C ode
Ġatt ached
Ġpresent ation
f s
ĠS ign
ĠB rian
ĠApp le
Ġin hab
ĠSt rateg
Ġsystem atic
Ġe q
ograp her
aud i
ac her
itzer land
ĠN FL
Ġarm ed
Ġd im
Ġform ulation
Ġcal ib
$- $
S ing
Ġexhib it
ĠN ick
Ġv o
ĠO ak
Ġsignific ance
Ġro ut
Ġdem ocracy
ĠAm endment
Ġdef ines
Ġregular ly
m ony
s quare
M ethod
N ode
ri p
rop olitan
19 38
v o
Ġprec ision
elf are
Ġgu ys
Ġgrow n
Ġtax es
Ġenjoy ed
Ġstraight forward
ĠSupp ose
var rho
par allel
text up
Ġviol ation
19 17
ĠC R
n umber
ĠJ ane
Ġv oted
Ġattempt ed
Ġm eta
Ġatmosp here
anche ster
Ġgu idance
Ġretire ment
)} (\
Ġhon est
M ax
Ġfocus es
ad i
Ġgravit ational
Ġqual ified
/ **
Ġfrequ encies
Ġm al
Ġent reprene
Ġill ness
ĠC ulture
az a
ĠL iter
11 1
Ġaddress ed
Ġexpect ation
flo at
Ġsens itivity
[ '
Ġt elling
iction ary
Ġw ins
Ġconv olution
Ġbro ke
A ug
Y ear
% ,
go ogle
h r
ĠMr s
Ġt itled
Ġfluct uations
Ġdeg ener
C ent
ĠY es
Ġdeterm ination
Ġad mitted
ik a
ab ama
ĠSupp ort
ĠI T
Ġqu ot
Ġh un
Ġca using
od ge
ar n
M ich
d irect
ĠB on
ow ered
text sf
ific ate
Ġse es
Ġencoura ge
g ather
ĠP rim
ĠC ru
ĠPe ace
tain ed
Ġpro position
out heast
Ġproport ional
M F
Ġde viation
Ġcr imes
Ġin n
oy d
l ay
ĠT a
th ick
ĠP a
ĠH ouston
ĠSc he
Ġw ire
@ {
W rit
ĠHar vard
Ġconfig urations
Ġgu est
Ġpublic ly
ĠConn ect
Ġassoci ate
N C
rel ation
ĠY et
og ram
rang ian
Ġre ly
ear ing
Ġhorizon tal
kl ah
Ġfe els
ĠDis ney
ĠB at
Ġc ro
19 00
Ġguaran tee
19 14
ĠInd ones
g ov
Ġm it
Ġph r
st atic
Ġre act
Ġm es
ĠG ib
us cript
Ġcompar able
Ġrac ial
Ġsp ac
ĠM it
Ġw ing
Ġdecl ine
Ġcorre ctions
B L
ĠCh airman
gress ive
ĠP R
' ]
Ġval uable
Con fig
Ġro yal
Ġnormal ized
se ason
Ġtal ks
ens ing
ĠSim on
Aust ral
st at
ĠF inal
u cl
ĠB os
ĠQue ens
is ot
Ġconcept s
ĠSc ient
st s
ĠG h
ĠPl aces
ow ski
par ameter
Ġse ats
}. }
ĠE mer
Ġb atter
it ure
Ġbrother s
Ġst abil
{ (\
ĠB alt
Ġour selves
il ty
Ġ ..
Ġden ied
ĠAr thur
Ġins ert
ĉ Ġ
Ġcompens ation
op es
Ġstruct ural
Ġcent uries
Ġresid ual
Brit ish
ĠC ond
epend ence
ĠTh ird
el son
ir th
ol utions
Ġob st
ĠK at
ĠAg reement
ĠS D
ĠC ab
N on
Ġwin ners
Ġneigh bour
Ġpart ially
ĠAfghan istan
Ġst im
Ġhealth y
f ortunately
Ġvac uum
ĠLin coln
Ġn urs
Ġvisit ors
ĠB ible
Ġground s
sh op
ĠM att
ĠI P
e als
ang el
Ġperturb ation
ĠR oll
ĠSh ort
Ġun s
Ġre vers
ĠD ark
ĠP C
Ġreg ulation
or ous
ĠW y
ĠC A
om ent
Ġset up
ĠT ennessee
ĠL ore
? "
St ar
S up
ar ithm
ro it
S ervice
Ġk ick
ĠÂ ·
Ġhousehold s
E v
Ġla id
H er
E ach
ol ation
miss ions
Ġcons ent
Ġsh arp
Ġread s
ownt own
19 37
Ġun us
ast y
Å ¡
Ġant icip
k h
qu ir
M embers
Ġdis pl
off s
Ġabsor ption
ĠMar ia
Ġde pos
left arrow
Ass oci
ĠF ourier
Ġisol ated
Ġobvious ly
Ġhealth care
Ġim posed
ĠD aily
rib ute
ĠT reat
Ġautom atically
ĠPh ot
ĠA I
klah oma
ĠA ccess
ĠSt one
ĠMos cow
ut enant
Ġfor g
Ġbelong s
Ġanaly ze
Ġquad ratic
R R
ich ol
ĠAl f
Ġport ray
G M
ĠC zech
Con text
Ġdecre ases
Ġaccess ible
equ ate
Ġgrad e
Ġsim ulated
Ġhor se
ag en
AR T
Ġhy brid
Ġrestrict ion
val id
M usic
Ġdefinition s
Ġdise ases
Ġenem y
Ġman ip
id ers
/ *
ĠP sych
ĠAd vis
ĠF uture
//// ////
ol ly
w eg
ock et
| $
19 33
Ġde leg
ĠAll en
Ġl ists
Ġout comes
Ġind ices
ubl ished
t z
F I
Ġd ates
im ages
Ġaud io
Ġc inem
eral d
pl us
Ġpl ate
Ġlo ad
Ġimpro ving
Ġreal ize
w atch
qu ot
at iv
Ġfra ud
ys ical
ie v
new s
H and
d em
Ġdescrib ing
ĠMex ican
P ublic
Ġpre gn
ins ic
pro v
ĠM L
ĠJud ge
Ġinflu enced
Ġh alo
ĠOn line
ĠW inter
Ġtal ent
IN E
i ot
S N
Ġequ ally
m ember
Ġse ed
Ġcut s
10 2
Ġp uls
Ġinv ent
ar on
cl ip
Ġreg ression
Ġtown s
Ġrul ing
$ ^
Ġmin ute
Ġn il
ourn als
yp es
Ġreject ed
Ġinform ed
Ġdist ricts
Ġsuff ering
' _{
[ ]
mid rule
W est
ĠS quare
Ġste el
ic ious
) }.
Ġint ellectual
Ġcan cell
Ġbo ys
Ġann iversary
over s
aw n
ĠJ am
ĠHow ard
her ical
ĠTh ough
Ġoccup ied
ĠDe ad
C ase
Ġp od
B est
Ġv ocal
al ed
Ġimm igration
f ast
ĠAn ne
Ġ$ ^{
ir cles
per t
ig a
all as
Ġun iqu
reduc ible
B ecause
Ġtop ology
ĠMal ays
T ube
ist ence
Ġrecomm ended
od ox
Ġsymbol s
Ġc ited
w ind
ĠP ut
ĠMat thew
Ġfew er
w ave
qu es
ant um
] ^
10 4
Ġalgebra ic
ic ut
ĠH an
Ġcoll apse
Ġs ight
Ġwhe never
th rough
ik ip
M E
h ang
Ġb ow
Ġk il
iam ond
Ġout l
Ġsett led
) (\
Ġsp here
l ights
ĠS ri
ĠD NA
down arrow
viron ments
Ġm ine
vious ly
Ġturn ing
ĠCon vention
ĠM un
Ġcon verted
w estern
ĠPro p
ĠM C
M en
$\ ,
Ġg iant
ĠP ier
f old
Ġm urd
di ag
w ho
ĠP ope
em ed
Ġmere ly
Ġspirit ual
ĠD ream
R ev
C ref
}$ \
Ġconsum ers
Ġmult ip
Ġapparent ly
Ġtraject ory
In ternational
12 3
Ġf iscal
ig er
Ġm ir
Ġa ug
w hen
19 35
Ġd uties
ĠPat rick
Ġadapt ed
le an
' ;
Ġch ap
ĠT ai
end ar
Ġold est
est abl
Ġiniti ative
ĠEnter tainment
Ġc raft
se p
Ġcounter part
Ġinf erence
Ġemp irical
ĠChe m
ĠSt adium
Ġentertain ment
=" ../../
ĠFed eration
ev ent
ĠB ishop
Ġderiv atives
ĠMo ore
Ġcooper ation
c raft
er ion
Â ©
Ġengine er
if act
ĠU se
ub b
Ġbench mark
Ġm ilit
Ġg ift
ob by
w rite
Ġliter ary
ĠMar c
ut r
Ġmunic ipality
is er
Ġpublic ations
ĠSystem s
Ġdis order
ĠReg ional
Ġst ake
cul es
Ġtri als
Ġaware ness
Ġweight ed
d oor
Ġh its
Ġpriv ile
ĠD or
sh ot
O ct
Ġmet all
ĠN orm
Ġem issions
al ities
Ã¡ n
B B
19 34
v oid
b es
os ition
ĠPhilipp ines
Ġm il
ĠN ob
Will iam
Ġmon ot
ok ing
ail ed
Ġfootball er
Ġcomm ut
ta h
E lement
or b
ikip edia
Ġhapp ening
our se
ĠAr k
ne xt
Ġhom ogeneous
Ġelect rons
Ġy ellow
r in
s is
Ġacc ret
19 19
14 0
mod els
Ġsustain able
~ (\
Ġrandom ly
f ull
Ġcon crete
ĠN atural
Ġsus pect
H ead
ĠCast le
O ff
w as
sp ecial
ater al
Ġ/ *
el ve
P olit
ĠProt ection
Ġphot os
Ġrepresent atives
ann er
Ġneutr ino
Ġtrans itions
ĠLab our
M ult
ĠG all
ron ze
Ġver ify
p resent
m o
Ġcrit ics
ĠĠĠĠĠĠĠĠĠĠĠĠĠĠĠĠ Ġ
p ur
Ġg ene
Ġsympt oms
ar ry
ĠH ur
P o
Ġan not
B en
s ince
Ġfe as
ĠDo ctor
. /
Ġfin ance
ey n
im ation
Ġsk in
Ġ\ [
ĠT en
ipp i
U K
ĠComm and
Ġj ury
Ġfe es
ia h
=\ {
ĠDef inition
L ong
ĠR yan
Ġrem ind
Ġsh op
ĠL ic
! âĢĿ
ĠGu ide
Ġinstrum ents
Ġmove ments
ĠM iami
Ġchild hood
bold math
Ġep och
iff erent
conn ected
ĠG reg
! --
ib l
ene z
Ġmorph ism
Ġd uration
R L
Ġindepend ently
ĠCor ollary
ĠWh it
ĠN ev
Ġat omic
M D
n m
Ġtra v
Ind ex
l ie
ĠGe V
ch a
Ġdef ining
Ġcompos er
s a
con duct
ĠP rom
L abel
ĠSw itzerland
19 29
ov en
Ġ Å
Ġab stract
Ġtot ally
ynam ics
{ |
Ar ray
Ġsign ature
Ġadvert ising
Ġ\ |\
ers et
ĠAn alysis
Ġcere mony
Ġint ention
ĠCap tain
Ġac id
ĠA L
ĠF il
ĠOrgan ization
Ġacqu isition
ĠE P
Ġrem ote
S H
C all
ant ine
Ġdiscrim ination
ik h
Ġaccom pan
uro pe
un ity
sc ope
Ġst ood
Ġstru ck
w ill
T ra
Ġphenomen on
10 3
T D
) ).
inc ial
and ra
Ġprof it
Ġleg it
ĠAl abama
Ġ ,\
L ocal
ĠP ay
Ġ{ $\
con v
Ġs itting
mult line
im p
ĠR eb
Ġthe rapy
R esp
Ġpolynom ials
ĠA thlet
Ġdesign s
Ġeng age
Ġen semble
Ġdens ities
Ġh ang
Ġfair ly
Ġappear ing
ĠG rey
Ġorth ogonal
Ġdist ances
me an
ĠOffic ial
? ?
Ġplatform s
ĠE ff
Ã© e
Ġmonitor ing
ĠRepresent atives
Ġhead s
t i
E ven
Ġbu ff
Ġtrad ing
Ġr uled
Ġd ry
j e
in th
Ġf its
uff er
Ġneg lig
Ġarriv al
ĠRet urn
ĠK al
ask et
Ã ¢
ĠSer b
ĠE c
P aul
Ġb aby
Ġra in
ruct ed
Ġcross ing
A nt
Ġl es
Ġc ricket
K e
se arch
Ġout standing
Ġair port
ĠHot el
Ġcontinu um
Ġre ar
ES S
Ġs in
st ery
Ġfound ing
ĠL ib
h us
her ic
Bl ack
l ast
or se
ĠY outh
Ġcol ors
ĠCh annel
art ing
Ġdri vers
ard o
GB T
Ã £
Ġdisplay ed
Ġown ership
d am
ĠF all
Ġ ram
gl as
Ġregard less
} /\
ĠW olf
Ġprov en
Ġthous and
Ġrestaur ant
Ġfor get
Ġr ising
Ġdifficult y
ĠR oy
Ġprom otion
ĠEar ly
Ġj azz
ĠM anchester
ĠB rig
ul um
Ġexam ine
ĠD O
Ġnar rative
Ġreg ister
Ġm ining
Ġal cohol
Ġwalk ing
Ġg ay
ĠMar ine
ĠC L
Ġgreat ly
f ront
l an
ĠB ab
ymmet ric
Ġin her
Ġorb ital
ĠJ oh
re a
r g
H on
Ġbig ger
ĠSwed ish
Ġfund ed
Ġmanag ers
Ġmarg inal
Ġimprove ments
Ġpoet ry
ad ian
}) ^{
Ġf ly
Ġelectric ity
ĠFor ces
ous es
W omen
Ġpass es
B R
Ġtrans action
Ġfall s
Ġprote in
ĠS ite
pd ate
ĠK evin
Ġcontract s
ĠS ound
ura ble
Ġf ought
ĠMiss iss
ĠC ook
en berg
st an
ĠKenn edy
os c
Ġdiff usion
up arrow
Ġch urches
}{ }
I O
V ar
form er
stack rel
ĠLear ning
ict s
Ġinj ured
Ġexp osed
Con st
ĠAnth ony
do i
Ġprofession als
ĠCh all
d ra
ce il
ĠAd v
d ev
at hered
comple te
Ġliber al
Ġshort ly
z o
Ġsup ers
d ash
Ġreve als
G S
Ġextract ed
ĠF ront
rack et
Ġlimit ations
Ġconsider able
Ġproceed ings
ĠPri or
Ġsol ved
ĠNor way
lik ely
Ġag ed
Ġdec or
\ },
Ġanaly tic
Ġincorpor ated
ĠD E
ĠMark et
n c
Ġdraw ing
Ġlog ic
Ġ} ;
Ġprior ity
Ġeth nic
ĠM ir
Ġrel iable
Ġdisp ersion
circ le
ĠCom ple
ĠPl ace
Ġsc oring
ĠArch itect
$ \\
W here
Ġsimilar ity
ĠA z
ĠI mp
Ġm aintenance
Ġexp at
Ġconj ug
ĠPh oto
Ġev ident
O h
Ġelect ro
Ġnom inated
F act
af e
Ġthough ts
Requ est
um ps
Ġc ub
St ud
19 10
ĠG un
Ġprep are
text normal
ĠB ry
Ġout break
An y
Ġclos ure
Ġtem porary
ĠJ ay
Ġequ ipped
F M
ĠCh ap
Ġent ities
ĠD ick
Ġrepl acing
Ġo vers
Ġbur ied
W ell
ane ous
Ġen vironments
Ge V
v y
Ġsub sc
r l
D irect
Ġent ering
re tt
ĠFin ance
10 6
Ġcon vention
ĠF arm
Ġdistingu ish
Ġaff airs
Ġconstitution al
Ġst ored
arg o
Ġpar ish
Pro position
ĠS ix
O V
ĠCh ange
Ġcompet ed
um ing
g ate
19 28
Ġadapt ation
Ġindic ating
Ġg od
Ġ\ {\
il st
Ġelig ible
Ġinnov ative
Ġp ictures
Ġcoll ision
ĠL ev
Ġsecret ary
ĠM D
ĠV in
Ġgu ilty
Ġpref er
S ize
ĠB urn
Ġlist ing
Ġfun ctor
ap ache
Ġne uro
ĠO klahoma
enn y
c oll
ĠTra ining
Ġrad ical
ĠCommon wealth
Ġs and
Ġd il
Ġwith draw
Ġexcit ing
&= &\
ĠB ah
ĠN umber
H igh
Ġ( !
Ġindust ries
Ġcomp aring
Ġdomain s
Ġupd ates
Ġl aser
ĠP A
Ġpre v
, ...,
is ons
ĠStand ard
Ġdiff er
ĠRel ations
p riv
ĠMed al
. $$
im ental
ri or
Ġs ons
ar ial
p ed
19 32
Ġrep utation
el ian
d oc
ĠW atch
Ġrob ot
ĠCur rent
ĠM ove
25 5
Ġ- --
ĠAl bert
J u
rom agnetic
ĠF ull
w ick
Ġpay ments
: #
ĠCol lection
A f
ot ten
Ġag es
n est
Ĥ ¬
ĠCh apter
Ġproport ion
fram e
Ġslow ly
Ġsurpr ise
Ġinf lation
Ġinput s
Ġform ul
Ġimp ly
ĠStud y
Ġform ally
\ }.
ĠG ram
u y
Ġb ars
ĠL ank
Ġfranch ise
Ġocc as
10 8
ĠPh D
}[ !
Ġqu as
usal em
Ġf olk
}{ *}{
C re
Ġcre ates
Ġb id
ĠT H
D espite
nov ation
Ġgener ator
Ġsix th
Ġfirm s
Ġacc um
Ġrequ iring
Ġro of
m akers
pro pto
Ar ch
ĠL yn
i at
empt y
Ġcolle agues
ub er
\\\\\\\\\\\\\\\\\\\\\\\\\\\\\\\\ \\\\\\\\\\\\\\\\\\\\\\\\\\\\\\\\
ograph ical
sy mmet
l arg
ed er
Ġ elli
Ġdeterm ining
â Ĩ
Ġd ip
ag on
Ġmark s
" "
ist ing
ĠHer itage
Ġaim ed
Cur rent
Ġsatell ite
\ }_{
etail s
ĠMay or
Ġpass age
az e
Ġsurg ery
ĠCol on
ĠU C
Ġaug ment
Ġland s
ĠH as
Ġsimplic ity
ĠCons ider
ĠCont in
eg as
ra v
Ġsub space
R ober
ang a
Ġen act
def ault
Ġwel come
Ġfe e
Ġhead quarters
Ġh ist
ĠN ative
im ore
Ġexec uted
Ġra w
& &\
Ġj un
Ġover se
angle ment
Ġwonder ful
est ion
Ġgun s
omet imes
Ġdeep ly
Ġcho osing
ĠB or
ĠTurk ish
Ġcon sp
ĠS audi
ĠD ave
Ġexpect ations
ĠNig eria
19 15
ĠTem ple
Ġrespons es
ĠYou Tube
Ġdis ag
ip e
Ġcap tain
Ġcomp ris
ĠKent ucky
Ġins ight
ĠEqu ation
ater n
sh ort
Ġrac ing
Ġappoint ment
ĠF ame
and al
ĠM as
ĠL as
Ġhe ter
Ġar ise
ĠAg ric
Further more
Ġgen etic
Ġref ere
, .
un es
Ġan th
lear ning
ĠHaw ai
Ġ âĢĻ
Ġcompet e
ĠF ather
3 60
ĠE s
Ġsmall est
Ġeffect iveness
ra ys
ĠHigh way
25 6
F S
on i
Ġconven ient
Ġinst alled
ather ine
Ġfocus ing
ĠM s
ie val
iem ann
B el
}^{ +
Ġviol ent
1 18
ire ction
ĠEnvironment al
Ġembedd ed
ove re
D ep
Ġw aters
spec ific
ĠB h
ok ed
ĠK han
ĠT rib
k ov
Ġreplace ment
Ġequ ity
Ġanc est
Ġto wer
Ġpubl ishing
f ather
M et
d riv
if ting
10 7
Ġe at
Ġcons cious
Ġinvolve ment
c ross
inv ariant
Ġcorrel ations
Ġr u
r ish
ut ors
writ ten
19 16
ĠLa ure
ĠRef orm
AN D
li est
Ġman uscript
Ġs ectors
Ġast ron
Ġmiss ed
con tain
19 27
av ity
ass ert
Ġtem pl
Ġturb ul
" ).
ĠCent ury
w all
ch arge
Ġfore cast
ĠAl i
ĠMc G
Ġcompl iance
ĠH old
P ort
H D
ver b
k ern
Ġemploy er
ol y
ĠV ideo
Ġb at
Ġdem ands
Ġcy l
big cup
ĠH ug
Ġcondition al
ĠR ab
u ity
Ġs ick
S port
ĠChrist ians
Ġf at
Ġ ~\
Ġ _{\
Ġin aug
fol io
new line
Ġf ol
Ġwork er
Ġemer ging
Ġinterpret ed
Ġtrend s
Ġcritic ism
ar o
Ġpost s
v ia
Ġinter vals
ĠAust ria
cite alt
un ing
Ġregist ration
Ġregul atory
ass ador
ĠPolit ical
) >
ith ub
math tt
Ġs ad
\| ^
Ste p
ĠB ased
ĠT an
Ġcl ar
weg ian
it ol
Ġlabel ed
ĠAll iance
ĠG ab
Ġdevelop ments
ĠWith out
Ġsing ing
Ġpay ing
Ġn an
Ġf ault
Ġinj uries
Ġir reducible
Ġher itage
19 22
19 31
claim ed
Å Ĥ
Ġcount s
Ġindu ction
ap olis
Ġd ict
Ġstead y
ĠPh ill
J ames
ĠC art
Ph il
Ġserious ly
Ġagric ultural
ĠH ans
w ich
ĠAtl anta
Ġjud ges
Ġrecommend ations
Ġrequest ed
Ġut ility
Ġtrans verse
su ccess
ur i
A cc
Ġelse where
" ),
ĠG ard
Ġcorrespond ence
ĠDep uty
Ġal ter
_{ +
Ġreal istic
Ġpost erior
w t
G ener
ow ing
par ameters
Ġelement ary
Ġorgan isation
Ġper mission
Ġpix el
}} ,\
ĠYear s
oun ced
Ġdo ctors
ĠMel bourne
Ġoper ational
) [
ĠT rad
hy thm
ĠN ation
Ġimag ine
Ġa er
ch ain
ĠĠĠĠĠĠĠĠ Ċ
Ġro oms
N orth
f alse
ĠCon cer
ĠDet roit
=" #
Ġvis iting
def n
ĠMor gan
on omy
Ġadd s
ĠTok yo
$ '
Ġ= ==
ĠLag rangian
ST ATE
Ġbo at
ĠS E
Ġbran ches
Ġcirc ular
Ap J
ĠP ract
) }$.
Ġf iber
R ed
ĉĉĉĉ ĉĉĉĉ
Le ft
Ġh a
d on
M ain
small skip
ail ability
che ll
Ġestim ator
Ġt all
ot te
Ġproject ed
Ġgl ob
^+ $
ap ed
Ġlaw su
ĠRober ts
Ġinterf erence
Ġre plic
Ġtra ins
G O
Ġhard ware
S er
ĠU V
Ã ¸
an es
Ġc ircles
ĠDe an
Ġde put
rid ges
Ġm m
Ġlif etime
Ġly rics
Ġhol es
ta ch
k ee
ph ase
ĠAG N
ĠConnect icut
Ġrequest s
W ind
3 50
in cess
ĠWal ter
O rig
ord inary
Ġthere by
is or
Ġencoura ged
Ġm or
Ġcap abilities
ast s
et ch
Ġattack ed
Ġsupp orters
ip art
Ġref lection
Ġdiagram s
om er
Ġm ail
ĠM S
ĠM oon
ĠĠ čĊ
c hers
v as
19 25
ĠN ash
ĠSe attle
m ake
Ġref lected
m ode
Ġpres erve
ĠCl in
Ġrat ios
is p
ĠR ick
ubl in
ĠP rad
ĠH it
Ġen hanced
T rack
h ave
Ġeng agement
ĠK elly
Ġroad s
Ġw ider
sub equations
Ġpurs ue
ig m
ili ary
D es
Ġagre ements
V is
uer to
ex per
Ġres idence
19 24
ĠCommission er
ĠCh air
\ [\
Ġsepar ately
Ġpaint ings
Ġexpand ing
H el
Ġhospit als
ĠCol omb
om ing
Ġgener ations
Ġs now
Ġgen re
ĠSil ver
et he
Ġdesc ript
ĠO R
ĠE ss
Ġfram es
Ġw rest
Ġmay or
l m
er k
Ph oto
erm i
19 12
. -
ĠS O
Ġmod ules
p ay
Ġdiv or
Ġsch olars
{ .
Ã£ o
uc lear
19 21
Ġex port
T O
ol o
l ad
Ġrec ur
Ġ });
est yle
Ġrese mb
i Äĩ
Ġimplic ations
ount ed
ĠSchool s
ĠOr th
y stem
Ġre aches
ag h
iss ue
l iving
Ġwe ar
Ġhelp ful
Ġexpert ise
Ġres idential
19 26
d b
Ġun ity
Ġinf ection
ĠLouis iana
art s
ĠMississ ippi
G P
It em
l ov
Ġto ler
ĠB att
Ġdest ruction
Ġvulner able
Ġmusic ian
prob lem
m t
Ġremark able
Ġperform s
Ġsuper ior
Ġev il
}^ +
rag on
Ġme ets
Ġprom ise
un ning
Ġcont rary
ĠSar ah
Ġlegisl ative
ĠRec ord
N E
Ġexpl oration
Ġt ens
}) =\
ph an
ĠCirc uit
Ġdial ogue
ĠJer usalem
Ġsurv ive
Ġpref erred
ĠHistor ical
ag g
gra duate
ĠE vent
al ion
g ood
ey ond
lear ly
ĠReg iment
R ad
aw ay
le ton
ac on
Ä ±
el eration
Ġbe ar
ĠAssist ant
Big g
Ġfact ory
ĠD allas
tern oon
Ġeduc ated
ĠMc K
Ġmem or
C ap
f all
Ġcollection s
e per
w p
Ġaccret ion
V er
Pl ay
Ġform ing
Ġmanag ing
Ġpl ots
Ġdecre asing
ĠRes ults
Ġb are
Ġsu icide
ĠRes ources
ĠC ra
ĠBe at
l oss
ĠSp irit
Ġun like
Ġtransl ated
chang ed
Ġmechan ical
Ġprovid ers
int end
Ġcompat ible
Ġprov ider
end ers
ij ing
ab ric
L ife
at in
Ġc od
Ġconvers ion
ĠS ud
k ay
d ensity
Ġth read
Ġcopy right
Ġprot ests
Ġconver ges
ro ke
ĠW W
Ġde als
Ġsle ep
ac le
N O
Ä į
Ġprepar ation
in ance
ed ing
M arch
Ġs oph
Ġlaw yers
Ġsl ope
Ġres ident
cre ate
Ġpick ed
ĠN ichol
Ġminor ity
t arget
i ors
9 00
ĠC ape
Ġcomp an
Ġmy th
Ġdep icted
Ġl ots
ĠAcc ount
Ã© s
ann y
Ġmathemat ical
ist ically
Ġpar ad
Ġdist urb
at ivity
Rec all
Ġstation ary
ĠRes erve
ĠD ub
Ġup coming
Ġhop es
ine ar
) _{\
J o
ou rag
be ing
G erman
p aren
Ġp itch
ĠWalk er
er ick
Ġrang ing
ĠR ub
ĠAl ice
ĠG ordon
Ġbeaut y
ent ry
Ġcat alog
Ã º
ĠP ear
Ġy es
Ġh ur
Ġb ath
Ġmer ch
Qu ery
Ġansw ers
ĠMan ager
ĠMem bers
Ġre ven
Ġoper ates
R ich
or ient
P ersonal
Se pt
Ġh ired
ĠDe ep
C ast
re nd
Ġtrack ing
ff ee
D I
Ġjournal ists
Ġcom ic
} >
Ġcontrad iction
Ġal gebras
sy m
Ġeigen value
Ġfem in
Ġt on
Ġabund ance
ĠL am
p erson
L eg
ou stic
U LL
ĠW as
Ġv ital
ol ves
ĠB ox
Ġar rive
ict ional
ĠSt ill
Ġphot ons
Ġprodu cers
Ġto ugh
H am
Ġus age
F O
ĠEx pl
Ġcon clusions
ĠBru ce
ĠR ic
g ithub
ĠB erg
Ġp ulse
ĠMuslim s
y ou
Ġ\ }
Ġexp enses
P oint
Ġr ating
Ġrank ing
Ġrang es
um in
Ġab road
Ġenc oun
pr ison
Ġt ort
w hel
i est
## ##
Ġstar ring
et ition
Ġfail s
be an
Ġunus ual
ation ally
Ġleg acy
ĠM ission
ĠAl an
ou ble
im ony
Ġpursu ant
win ning
ĠF er
Ġas sembly
Ġknow ing
Ġdev oted
ĠNew ton
ĠRepublic ans
ak s
Ġnot ing
) }$,
B ased
Ġg rants
ĠH um
level and
ĠP S
U V
ĠS port
19 23
im its
Ġaccompan ied
Ġrec overed
du ctor
ĠSpe aker
Ġimm igrants
Ġdeterm ines
ĠLaw rence
$ }}
ĠCh amber
rat ors
resp ect
m ates
ĠG ulf
Ġre verse
Ġdisapp oint
com put
B H
Ġadm its
Ġoccup ation
t or
Ġd a
ig rant
Ġgeneral ization
Ġcr ash
ab ove
Ġex clusive
diff erent
Ġo cean
Ġconnect ing
ut il
ĠAust in
Ġplas ma
over ning
W ar
J apan
Ġd ress
ĠS quad
Ġrece ives
ĠTai wan
Th rough
ĠBelg ium
Ġinterview s
d ale
13 5
Ġinter vention
ativ istic
Ġsy nd
cl osed
ues e
Ġwind ows
Ġneighb ors
Ch ild
Ġge odes
ĠC ON
Ġp ione
Ġne ur
gl obal
Ġen ables
ĠG er
U L
ĠD al
Ġtransform ations
ĠE dition
Ġaband oned
ĠM unic
c all
Ġang les
Ġco aches
v dots
ĠH IV
d l
Ex per
Ġc um
Ġbas ically
l ass
Ġp ron
p y
Ġspeak er
ĠS n
rib le
esp read
Ġf urn
ort heast
ĠM ap
ors es
Ġdistingu ished
10 9
Ġre named
Ġc ards
Ġart istic
Ġst ating
pl ings
m ers
J une
Ġrem oval
Ġaver aged
Ġcaref ully
ĉ ĠĠĠ
Ġat om
w en
Ġfall ing
V I
Ġlog arithm
hold er
Ġbi ological
Ð º
======== ========
Ġal ive
ell s
miss ible
ĠOr chestra
el ines
Ġformer ly
ut s
Ġiter ations
Ġun em
on c
ĠBow l
ĠEd itor
Mich ael
Ġf itted
ĠV ari
Ġpropag ation
11 4
K S
includ e
Ġdeterm in
D escription
iz able
Ġconsid ers
Ġhor ror
chi at
l ower
Ġmut ual
enez uel
Ġun likely
ĠSch olar
int ro
Ġprob abilities
ucl ide
Ġfarm ers
ĠB uck
re v
Ġchart s
erv ised
ĠB run
ĠArm en
bar a
Ġmerg er
Ġf lying
ĠSen ator
ĠA C
Ġsac r
Ġwe aring
" (
Ġde emed
Ġunit ary
Ġm outh
Ġt um
B ase
ffic ial
lem an
Ġcl ock
ĠT ar
Ġqu iet
Ġover come
j ud
F P
e enth
ĠH oll
Ġperson ality
" |
ĠU tah
Ġpri ze
ut t
rac ks
Ġclos ing
Ġs ending
Ġtarget ed
i ac
Ġd y
ĠN av
Ġpseud o
. :
Ġorgan isations
b urn
ĠBase ball
ĠF ri
ens ively
Ġtalk ed
l ades
iss ance
ail s
ĠSm all
Ġvill ages
ĠFre edom
is hers
Res ult
ure r
Ġestabl ishing
Ġnorm ally
ĠInd ependent
Pre vious
Ġb inding
B D
Ġent rance
âĢĿ )
F rench
Ġcontroll er
D onald
Ġinvest ments
B o
if iers
Ġgu idelines
Ġreson ance
ĠDom in
ĠTe levision
ĠEx change
à ¥
ĠHon or
Ġfem ales
Ġceleb rated
ĠD ur
ĠC P
Ġpre lim
d esc
Ġmach ines
X X
Ġevery where
ĠCh ang
_{ [
Ġweek ly
se lect
con text
ĠAl bum
St at
ĠJun ior
amb ig
Ġf old
le ans
ĠI mage
Ġper mit
ot he
ts burgh
ĠD a
Ġtransform ed
Ġimpact s
Ġt ries
sp in
ĠDou glas
ct rine
Ġident ifying
h ist
ĠChrist opher
ĠF BI
pre c
Ġv ib
ĠÂ ©
ĠCh ile
ĠAl ber
Ġt ied
In put
he rence
ĠD VD
ph ot
b c
it ory
Ġassign ment
ex ists
Ġintrodu cing
ic ians
ĠAnn ual
Ġan nu
Ġ urg
ter y
Ġcan cel
Ġ ic
Ġra ising
Ġf rust
Back ground
ĠF le
get s
ele ment
ĠS ho
D en
ĠT ake
ĠP lease
ĠB ou
ĠVill age
ĠC ustom
Ġtrans actions
oid al
Ġaut hent
ordin ate
igh ters
Ġsucceed ed
Ġb ott
Ġdi ameter
st ud
ĠP eak
at ics
ĠOb ject
Ġw al
place ment
Ġsub mit
Ġpass engers
i ere
ail and
eop les
Ġanalyz ed
app y
Ġmaintain ing
am an
Ġm ixture
b olic
ĠTe ch
Ġde vi
E urope
v ens
Ġsit uated
ĠInt elligence
Ġro se
ĠR ace
Ġemer ged
Ġcool ing
ost ic
roll er
bel ow
Ġthreat s
ĠK now
Ġinst ruction
ist a
uclide an
D an
ĠPhil ip
W A
Ġp ump
Ġman ifest
Ġpip eline
Ġkin etic
U s
M O
ed ition
Ġep id
Ġimp ressive
ĠH ilbert
ab out
Ġin duct
om as
19 13
A ng
ill ery
ĠPro cess
Ġfrequ ent
Ġb irds
script scriptstyle
i ology
ĠMic hel
ĠP ur
ĠN aval
not in
B P
Ġimplic it
d ie
E F
Ġillust rate
Ġreflect s
Ġco herent
f unc
ha ust
ĠA BC
ĠN one
pack age
Ġfin it
l ayer
ĠP ed
| _
Aug ust
c over
Ġsp herical
oc ent
sub stack
Ġl iability
ig ate
st ructure
Ġpat ent
Ġt ends
ĠStud ents
ĠF ive
Ġso il
om ot
M essage
t ree
ĠG arden
ĠD ak
Ġa ux
ig e
elesc ope
cycl op
Ġactiv ists
Ġf ired
Ġam ended
Ġthe ater
Ġattrib uted
Ġne arest
Ġiniti atives
ĠD rug
Ġauthor ized
ĠLiber al
ĠMark ov
Ġcov ariance
Ġart ificial
Ġcosm ological
Ġconsist ently
ĠCommunic ations
at omy
A ck
se m
h arm
n ol
On ce
in ces
Ġcon gress
n ik
is ode
Ġb on
val ued
Ġwar rant
Ġim aging
om p
ĠGra ham
S em
Ġanaly tical
) ),
se a
ant ly
ang ers
ĠPolit ics
ir ates
O bs
Jan uary
Ġriv al
Ġoff ensive
New s
ĠNever theless
ef e
a id
19 11
ĠS el
Ġsurv ival
Ġbl ind
Ġis omorphic
ĠPriv acy
ĠIn terest
at ar
Ġcent ered
Ġseg ments
) &
ro se
Ġhistor ian
ĠK y
Ġprov es
ĠLeg al
m ag
ĠN BA
Ġprob e
Ġwid espread
ĠPalest inian
Ġarrang ement
A pril
Ġpopular ity
Ġclust ering
T oday
eg er
P O
Ġaccount ing
anc ell
Ġtem ple
th an
Ġg ang
clus ively
ĠArgent ina
ĠL GBT
ĠStud ent
Ġphotograph s
st ates
Ġvol umes
ĠEconom ics
Ġexpl ored
ess ed
ĠCar ter
es is
M art
Ġr anks
Ġaf ternoon
Ġt ag
b uild
Ġtrans mit
j amin
ĠEar l
Ġf ruit
ĠTown ship
Ġprom oting
Ġvalid ation
ĠUn it
requ ency
Ġcy cles
S pe
Ġmole cules
ul ative
Ġcomm ander
sy chiat
ĠMicro soft
em p
ĠW right
ĠH ills
Ġf ul
Ġd ating
Ġhydro gen
Ġsurv ived
M I
Ġs urn
ou ver
---------------- ----------------
ul ous
Ju ly
ĠW oman
Ġinflu ential
ĠPo isson
Ġsole ly
Ġnegoti ations
row ser
ĠS in
back s
Ġb rown
^* _
leq slant
em en
Ġintr insic
am y
ion ed
Ġres erved
ĠSpec ifically
cond ition
ĠTer rit
ĠF A
f amily
Ġinhab it
Ġbelong ing
ĠF ried
Ġlist ening
ĠH erm
Ġcorrect ly
ĠP as
Ġtw elve
Ġd ies
ĠV o
ĠJ ason
m ay
ĠVol ume
C N
ic ing
ĠD ance
ĠS everal
Ġgrow s
ĠC ow
ĠI l
ĠL A
Ġtraject ories
a uc
Ġcor ruption
S ong
Ġcompet ing
ĠThom pson
Ġcl ick
Ġt ank
Ġt ies
Ġobtain ing
u j
ĠSam uel
ed a
11 3
ĠOr leans
Ġrec ru
ĠSaf ety
Ġcitiz en
Ġ-- >
Ġla ugh
Ġve get
Ġdisp ute
Ġh ate
ĠAd ams
per iod
ĠK o
Ġ$ -$
T ags
Ġorder ing
ah n
11 6
opt ion
Man ager
og g
Ġstay ed
Ġcomb ining
F eb
Pro perty
ĠAb b
Ġcrit erion
ĠN ature
ĠRuss ell
ĠP uerto
Ġ$\ |
Ġathlet es
Ġthreat ened
Ġlimit ing
' $.
Ġconsist ency
Ġposs ession
\, {\
Ġdifficult ies
iz ers
Ġd owntown
Ġw elfare
K E
ch t
ĠCl imate
ĠM and
Ġk it
E st
ĠAnton io
ag u
cont rol
Ġcomp lement
Ġdis joint
Ġent hus
Ġattrib ute
z i
d ashed
19 08
ÃŃ a
function s
D D
ĠSw iss
ĠDen mark
Ġrema inder
i op
Ġpass enger
eg ories
ĠH ad
ĠT it
y cl
Ġmeaning ful
Ġover whel
}\ ;
ĠD id
Pro b
Right arrow
or ry
Ġexpat riate
Ġin g
b d
Ġh at
Ġwar ning
an ia
ĠH u
. ),
Ġprison ers
ĠRou te
} ~\
Ġgen u
Ġsuff er
ĠU l
\, ,
Ġcommission ed
ĠSo ft
Ġsuppl ies
Ġdis put
Ġres erve
ject ion
ĠJ os
er as
am ents
Ġterm in
P G
}} =\
Ġper mitted
cy cle
âĢ ī
ĠM other
ho en
ĠF isher
ĠAb d
Ġbelief s
Ġlat ent
Ġpropos als
er ts
Ġb its
Ġhead ed
=" +
Ġse ar
Ġpres erved
ĠM ess
ĠBalt imore
ĠAd vent
ĠBe ijing
Ġp y
Ġent anglement
R T
E V
W ho
] =
M a
ate ur
ĠLim ited
} <
Ġdem ocratic
ĠMalays ia
Ġw ine
ev al
Ġg rass
oid s
f are
Ġspl itting
l ate
Ġobject ives
Ġannounce ment
Ġdram atic
ĠO pp
og s
Ġst range
| _{\
Ġs ke
ater ial
Ġjun ior
Ġg ross
ĠN ik
Ġrow s
Ġhol iday
ĠIndust ry
Ġr ugby
yn asty
id ge
pr im
ĠR ule
Ġconstant ly
Ġin cent
Ġr ide
Ġres olved
Ġbre ath
raz y
in ement
Ġim prison
Ġout perform
Ġb il
Ġg ro
ac cess
Ġd war
ph p
Ġsegment ation
Ġrespond ed
Associ ation
ĠE X
ack s
ibr aries
ĠBar on
iv a
ard ing
D ate
Ġd ated
ĠB uff
Ġpure ly
ĠP DF
oc he
Ġsp arse
Ġb oot
Ġâ Ĩ
ĠI C
> >
F il
Ġcomp rom
EE E
Ġperfect ly
ĠE ag
Ġaffect s
Ġp ose
Ġrec re
Ð »
Ġind irect
Ġam endment
im g
Ġceleb rate
Ġhost s
;\ ;
Ġtroub le
Ġdis aster
Ġspect rosc
Ġthem es
le ading
o a
Ġpeak s
Ġsubset s
ann on
ĠCan cer
ester day
Ġan xi
St ream
h n
Ġprom ising
Ġrefuge es
Ġjud icial
ĠP aper
Ġinv asion
bor ough
Ġconv icted
ĠK am
Ġear liest
Ġpos it
d escription
}} )$
Ġsoc cer
ĠK a
Ġam end
Ġsubst ance
ĠL anc
Ġb atch
Ġs essions
ab ad
Ġattrib utes
du al
U M
ID S
ĠA S
_{ -\
Ġch iral
l ib
al ia
Ġdecl ined
ro b
Ġsp oken
olog ically
m aster
Ġpl otted
Ġtru ck
Ġc ogn
Ġinteg ers
Ġperson ally
Ġis lands
Ġchain s
Ġgradu ally
Ġpix els
Ġb orrow
Ġas ide
A v
Ġcut ting
onom ous
ap es
m aker
ĠSte wart
B orn
Ġapart ment
ĠV egas
com ment
C V
ĠS ac
ĠN eg
Ġcond em
Ġt ropical
ĠJ osh
empl ate
j k
appro xim
Ġagric ulture
Ġres olve
Ġth orough
ĠR y
sc ar
ĠEq s
ĠL anguage
ĠD ublin
Ġel der
ĠR iemann
Oct ober
Ġl ake
Ġed ited
ĠUn iverse
oc ese
$ _{\
T ER
H R
Ġsynt hetic
re ction
ry st
Ġh al
ĠJ enn
' )$
ĠC S
Ġemphas is
, âĢĻ
h our
Ġwhe el
Ġfeel ings
sup ervised
on ing
m f
ĠE mb
T ax
Ġevery body
mon th
N umber
Ġcon c
d ir
ĠR ow
ĠN elson
Ġcolon ial
un s
Ġg arden
xy gen
ond s
Ġd t
Ġpl enty
Ġconf ront
ol ph
Ġtri angle
Ġsav ed
ĠRob inson
Ġplan ets
it ations
Ġm ales
ĠIndones ia
Ġkil omet
B oth
U psilon
Ġchar ity
ps hire
Pres ident
ĠCro at
ĠIm ages
driv en
ĠA le
Ġvari ant
Ġenc ourag
Ġre ign
ĠBet ween
Ġinsp iration
H A
ĠPet ers
asket ball
in burgh
Ġin herent
ash i
Ġ à¤
AL L
= -\
quir y
Ġgener ators
Ġneut ron
Q ue
ĠWork s
ut ory
Ġcontrovers ial
Sept ember
F unction
) |\
l ang
ĠE instein
Ġdesign er
ĠPrad esh
Ġcan n
onym ous
id ity
Ġdep ression
T im
Sim ilarly
ĠCommer ce
ch arg
tag on
ort on
ĠT un
ern and
19 05
Ġmotiv ated
Ġactiv ist
Ad dition
ĠPortug al
Ġl oyal
ĠLe ban
au ra
Ġe gg
qu ality
Ġrestaur ants
ĠCr ime
im ated
) |^
is y
ib bean
ĠF OR
. ]
Ġcomb ine
Ġstat ute
ĠCommun ist
Ġaff ine
ĠD ate
Ġpain ter
Ġre cept
Ġde eper
Ġsuggest ing
ĠF r
} &\
ĠPro duct
ĠB achelor
Ġhe lic
det erm
Ġtext s
r floor
Ġorb its
Ġ- >
st age
ĠL LC
ĠH ave
ic he
b oth
k ind
ĠC leveland
id ency
ric ulum
ĠCub a
18 90
rain ian
ĠNAS A
Ġb ases
ath y
Ġopin ions
ĠOr d
Ġinter sect
Ġsem antic
M al
Ġan isot
l at
}} }{
Ġbroad er
Ġens uring
b ow
ta ke
Ġnot iced
t ically
Ġp ushed
ĠBroad way
Ġcred its
P rop
n an
& $
| =
Ġcy ber
ĠB art
Ġport folio
Can adian
De cember
ĠCap itol
load s
Ġbeg un
ĠTh anks
ĠL iver
Ġp in
ĠQue bec
ĠBill board
ym n
anc ouver
)= (
ĠC E
ta x
b ad
Ġdis contin
n ull
Ġar ising
Ġanalys es
ĠSing h
ĠBang lades
Ġrece iver
Form er
Ġact ively
Ġdedu ce
orig inal
bet ween
Ġanalog ous
b est
cat egory
D et
Rober t
Ġoper a
Ġinstrum ental
ĠC rit
ĠFrank lin
Ġf est
et ry
up le
ĠIn sp
ic ian
ser ies
D own
ĠD ise
m oment
c ient
osp el
Ġdest ination
Ã¼ r
Ġparticip ating
B as
i racy
let ter
Ġmet res
Ġeconom ics
~ (
Ġany where
is an
Ġlo ans
ain ing
Ġo x
Ġphys ically
G D
oc y
Ġpull ed
iv ation
ĠV enezuel
Ġcolle ges
Ġterm inal
ĠI ron
}) _{
ĠR ound
A uthor
ri k
Ġle af
ĠExp ress
Ġwavel ength
us p
ĠE C
l floor
ĠM ind
th a
comm unic
ĠBrook lyn
rac le
ill ance
ĠV I
Ġm o
Ġelect rical
G reen
In it
Ġoverl ap
Ġvis its
add ing
ĠF am
com b
ĠM ath
te ed
f n
ĠCar lo
ĠThe ory
Ġdo ors
th ree
ĠP ack
Ġnot ably
ĠMarsh all
'' ,
g ray
ĠN ag
ĠMov ie
T ele
Ġdiss ip
ous ing
Ġnormal ization
ind ependent
' }\
ex pl
Ġbur den
ĠR equ
part icle
comm on
Ġhuman ity
ĠPubl ishing
le e
Ġweap on
od a
Ret urn
ĠNC AA
ĠOrth odox
Ġg rate
Ġarrang ed
ymmet ry
ĠLe ft
own ed
Ġb old
ab is
mathbb m
2 20
s ome
it is
S ign
Ġstri p
d est
h or
Ġhand ling
Ass ume
Y es
f a
m outh
Pro fess
Ġrem oving
Ġn a
A lex
Ġt act
Ġreview ed
Def inition
ment ioned
Ġkn ock
Ġexception al
ĠTh ailand
Ġrecord ings
Ġfle et
Ġun stable
ĠPal ace
Ġincred ible
ĠC C
Ġf oss
ĠW ard
Ġprelim inary
P al
ro d
Ġag enda
ĠM ars
Ġsign ing
math ds
Ġc ul
H y
ĠAn na
Ġsubstant ially
Ġb ronze
ĠC ultural
ĠK ings
Ġtra il
Ġdist inction
ĠLank a
Ġconst rained
ĠEm peror
Ġlabor atory
L M
Ph ys
ĠH ell
Ġtrans it
g ame
Ġprint ed
Ġc ust
l b
] ^{
pos ing
Ġst em
11 7
Ġaddress es
Ġover view
Ġdel iber
n ia
ro ck
Ġh am
ĠAl b
bound ed
Ġex haust
ĠZ e
S u
Ġround s
Ġannu ally
or us
i Ã³n
U ser
Ġcon e
ST M
Ġinvestig ations
em or
Ġimp ose
ĠArk ansas
ĠFor um
ef ined
Ġcomp r
Ġsam pled
cor respond
ĠC emetery
Ġshift ed
ul ator
Ġ& $
ĠComm ons
iv als
Ġ }}
)} _{\
Ġphr ase
oth y
hat tan
âĢ ĭ
ĠN ic
R ob
Ġop ens
ĠMarg aret
Ġamong st
Ī Ĵ
ject ive
Ġsk ill
ĠT itle
ill iant
' $,
Ġrele ases
f inite
ob j
Ġterror ist
Ġphysic ian
Ġinst ructions
Ġmain stream
ĠB apt
ric ane
Ġpart ly
Ġke eps
Ġex clusively
Ġrare ly
Ġst adium
ĠCon sequently
O lymp
b its
ĠL iving
s ol
Ġth irty
S i
k g
Ġtest imony
Bi ography
Ġhas n
Ġcon vert
ĠN eed
Ġsurround ed
. }\
Ġliter ally
L aw
Ġt ables
ĠNor wegian
ĠCov id
Ġpri est
sup er
Ġweak ly
t x
Ġexam ination
Ġro utes
oun ce
Pro v
ĠNot ice
D om
Ġsh r
ere r
Ġint ense
Ġser ial
Ġnewsp apers
sim ple
Ġmar ine
Ġres ign
Ġad mit
Ġen orm
Resp onse
Ġt ennis
V ideo
ĠC IA
Ġexclud ed
Ġdrum s
ĠPit tsburgh
Ġful fill
Ġrep air
ĠCharl ie
ĠĠĠĠĠĠĠĠĠĠĠĠĠĠĠĠ ĠĠĠĠĠĠĠĠĠĠĠĠĠĠĠ
Ġmin i
Ġcou plings
ĠP ap
Ġsee ks
ĠK u
Ġt ension
c ost
Ġpl ain
row th
Ġinst ruct
ĠArab ia
Ġfacilit ate
G r
ĠT el
ĠStud ios
deg ree
b n
fl at
Ġgener ates
Ġrepeated ly
Ġbreak s
ĠOper a
comple x
19 07
Ġcons ensus
Ġw ond
et ics
Ġwere n
sub float
ĠPerform ance
Ġm igration
E p
Ġp ole
ĠK az
ra ise
D el
S ur
ĠM i
Ġsh ifts
Ġfeas ible
ĠC hen
az ines
Ġj ava
Ġcomb inations
Ġput s
Ġmet ers
ĠL P
sh ow
t own
Ġoblig ations
p us
sec urity
S am
S an
ĠAss ume
& -
ĠMa ine
Ġsens or
Ġse p
Ġsh orter
Ġbar rier
ã ĥ
Ġ ____
ĠPortug uese
im od
ĠArch ives
man ifold
al ph
Ġemploy ers
Ġconform al
ĠRog er
Ġentreprene ur
van ced
Ġto x
Ġoutput s
Ġferm ion
B F
Ġtun nel
Ġre normal
19 09
ĠN E
L ike
Ġdemonst rates
ĠH D
sh ape
Ġav ailability
Ġconsist ed
cl ose
t b
Ġaccept ance
n etwork
ob i
Ġ$ [\
Ġexist ed
Ġult ra
Ġinst ability
ĠB eng
Ġharm onic
Ġexam ined
Ġexhib its
ud a
ho le
Ġmeas uring
ĠCh ampions
ĠCh o
Ġatt ending
. },
Ġsurv iv
ore f
ĠS ex
Ġs rc
op ter
ĠUr ban
ĠE sp
, ~
ã ģ
Ġsent ences
Ġg olf
Ġgain s
cent ral
Ġmod ification
ĠM agn
Ġattract ive
Ġwor ry
17 0
Ġbe ach
de ep
Ġperturb ations
h alf
Ġamplit udes
Ġbl ow
ra ctions
ad ata
ĠB ull
N P
Ġing red
ĠQueens land
ĠO tt
Ġmonth ly
Ġm art
Ġcontrib uting
ĠApp ro
Ġcoll isions
Ġrepe at
Op en
Ġs overe
Ġcaref ul
Ġ ĉ
ĠL ink
Ġcontinu ity
H M
Ġass et
Ġpark ing
H P
Ġb orders
Ġsusp ended
f our
ĠC ensus
Ġtouch down
ĠS ep
hoen ix
27 0
Ġcampaign s
S che
f r
d or
bl ing
Ġcorpor ation
ĠN GC
s n
Ġdef ence
ache l
Ġlinear ly
ĠH end
ĠBrother s
Ġext ending
ce ut
Ġfriend ly
Ġpl astic
writ ing
out put
form ed
ĠUp on
ĠN eb
Ġmod erate
Ġdeput y
19 06
it ime
Ġlik ed
U P
Ġ }$
ĠMont real
Ø §
Ġefficient ly
g i
ou ch
Ġg overning
Ġtr unc
. ).
Ġclass ifier
ĠUn fortunately
Ġack nowledge
= (\
iv an
ĠG ill
Ġhigh lights
cos ystem
Ġc avity
ĠIran ian
w ords
ĠO N
ĠL uther
red ited
arma ceut
ĠWar ren
Ġear n
Ġres erv
Ġpro s
ĠN O
M ean
Ġper pet
Ġdef ensive
Ġfrag ment
og a
Ġab ortion
Ġindu ces
I B
u ition
Ġwat ched
20 23
Ġir re
ĠMor ris
ĠC riminal
rupt ed
l on
ĠĠĠĠĠĠĠĠĠĠĠĠĠĠĠĠ ĠĠĠĠ
Ġeng ines
Ġg athered
Ġmin istry
ro oms
ĠGirl s
Ġproject ive
ĠPl ayer
M us
em ark
ĠSy rian
ĠDi rac
ĠMove ment
at tered
ĠCamp bell
Ġcl im
nt il
Ġb ary
ĠL ane
Ġspac etime
ĠE T
Ġrel ate
Ġdesc end
os lav
Ġen velop
ĠN ame
G s
an alysis
Ġadopt ion
ĠEd inburgh
ĠJon athan
Ġev olved
12 7
z ing
w he
Ġdi am
ĠObs erv
ĠChristian ity
Ġfinit ely
Ġv aries
Ġglob ally
ĠN S
Ġst ick
Ġco hom
Ġ$ $\
ĠF ermi
ĠTr ue
Ġar ises
Ġarrang ements
d z
Ġenc ounter
Ġvan ishes
Ġcon qu
ent er
Ġn ick
Ġad equate
Ġc ot
f ire
Ġalleg ations
Ġsudden ly
duc ational
ter ior
Ġcar rier
ĠEx ample
Ġre actions
N ovember
Ġbatter y
int s
s ite
}. \
ĠPat ri
ĠMur ray
nol imits
ren a
Ġess ay
Ġas ks
ĠNaz i
Ġreported ly
ĠCar ibbean
Ġsurve ys
ĠProb lem
F OR
ĠBrazil ian
it ious
b one
field s
Ġarch ae
ĠBo ys
Ġattract ed
Ġhom ot
m atch
on omic
Ġh az
the y
we ek
Ġclos est
ari ans
t urn
ĠR on
Ġte ch
ĠN ar
ol ished
Ġr um
Ġcorrel ated
Ġf er
Ġsurpr ised
ac re
ĠO pt
Ġpe er
2 10
ĠFac ulty
h s
Ġclaim ing
ĠElect ric
Ġk inem
Ġprogress ive
dom ain
Ġj ail
d ing
Ġcon jecture
ant i
ĠV eter
ĠRem ark
b ecause
Ġdepart ments
Ġcl ause
th on
ĠKn ight
I E
ĠG ary
ĠWith in
irm ingham
he astern
Ġsuff ices
// /
Ġfin ishing
we ak
Ġwh ilst
Ġens ures
ch itz
ĠP ast
ĠDirect ors
Ġgener ality
Ġvari ed
Ġach ieving
Ġen abled
c ou
Ġg all
as ury
Ġo xygen
ĠF ro
ĠS ymph
p ing
ĠS F
M o
Ġl ens
ĠStan ley
ĠC redit
Ġless ons
ĠB aker
Ġsur ge
Ġw age
p in
Ġfant asy
Ġch amber
u ct
__ _
12 4
b rane
ĠInd ians
en ame
Ġreason ing
ĠC ert
uch y
Ġin cl
ĠTe xt
ĠOper ations
Ġsupp lement
Ġshap es
ĠC T
cell color
Ġm ile
Ġun expected
b ib
Ġaccur ately
ĠInd ex
ĠP un
Ġlic ensed
ev a
Ġmiss ions
ĠE uclidean
armaceut ical
iv ated
ĠN OT
nt z
art icle
Ġcount ies
d rop
Ġcar ries
Ġvolunte ers
S en
ĠF ind
Ġrom antic
Ġinequ alities
Ġscreen ing
ĠB us
Ġsyn chron
ĠProfess ional
Ġhyper bolic
Ġrest ored
form ing
Ġâ Ĥ¬
Ġcont am
ĠT R
Ġb om
Ġvirt ually
ard ed
F ran
Ġhard er
Ġrep orter
= '
Ġins ights
h al
Olymp ic
f iles
sh arp
De ath
12 1
ĠC rown
eb ox
an ne
for ced
ĠQ CD
+ $
Ġatt itude
roph y
V P
b ridge
Ġveter an
st ory
ĠM ake
19 04
Ġcompet itions
Ġw ake
ĠJu an
ĠDak ota
Ġphot ography
ĠK it
Ã© t
ch annel
ĠWay ne
Ġcontrovers y
u is
g rade
Ġextra ordinary
ari ate
Ġacc eleration
Ġenc oding
Che ck
qu ery
tt ing
Ġremark s
Ġf usion
Ġhe ating
Ġass ass
ĠS S
o il
}_{ (
Big l
Ġdr ink
ant ed
c p
alax y
Ġrel ies
e fficient
Ġbox es
Ġl ying
Ġbrand s
m ate
Th ree
ĠComput er
C ON
ĠR ain
Ġvol unt
S ty
ĠN i
ira ble
li ver
B bb
ge red
ram e
18 80
IC E
ĠB H
Big r
on z
ĠP ersonal
Ġign ored
as ant
Ġrefer ring
Ġagre es
Ġhom omorphism
ĠW ord
Ġ( .
n ecess
ips chitz
Ġguaran tees
el se
}_{ {\
B T
ew ise
ĠSt ars
im ir
ran ean
Ġdam aged
ra ble
comp onent
Ġadvoc ate
Ġstr ings
ĠWe bsite
Ġvo ices
Ġ} {\
Ġconstit ute
24 0
Ġguaran teed
me as
or ious
Ġ( (
\ }}
4 50
ish ops
ac co
Ġgu ests
ĠHung ary
ip her
ĠPr ice
et o
Ġcou ples
over set
um ed
Ġhigh way
ĠMot or
Ġcoal ition
ĠP ath
u on
am ps
}{ {\
Ġtrans c
L ink
Ġnom ination
A ction
A wards
Ġlong est
Ġem otion
T Y
Ġtravel ing
)} =
Ġscient ist
list ed
) )$.
c ounter
aut oref
Ġveloc ities
Ġthrow s
ĠP erson
ĠMan hattan
an aly
ĠMar ie
Ġcult ures
x rightarrow
Ġsevent h
b ai
bre aking
ke ley
Ġactiv ation
ĠA the
Ġrec urs
ix on
Ġe cho
Ġexp ense
Bl ock
ĠCat al
Ġstre aming
Rel ated
s ervice
Ġphenomen a
Austral ian
ĠAl aska
ill o
Ġrelax ation
Ġw orship
ĠDo es
Ġst yles
ĠV ancouver
Ġtempl ate
rect ed
Ġcryst al
Ġrac ism
M ac
19 01
ok er
ĠMean while
Ch ina
Ġdevelop ers
Ġcateg or
Ġac oustic
h uman
ĠRec all
Ġmem ories
A U
Ġcloud s
Ġquot ient
Ġvent ure
Ack nowledg
Ġrece ption
Ġdeploy ed
ĠC old
Ġretain ed
Ġminim ize
Ġaux iliary
). }
Ġmerg ed
Ġult imate
}) )
ĠA ch
ĠTra vel
le in
Ġsho pping
Ġin ev
ri el
pot ential
Ġlab our
e ast
}) -
ect ure
c ov
\| _{\
st op
Ġexp onent
Ġmy ster
b ach
s ong
Ġpresc ribed
he res
ig ion
Ex ample
Ġcosm ic
ad ic
ĠL ang
Ġim per
Ġa ired
ĠWind ows
m atic
ĠF un
Ġtrig ger
F ree
hy per
Ġrest oration
@ {}
R o
Ġinhabit ants
Ġdo i
Ġnon zero
ĠT ogether
' =
Ġcons olid
Ġpubl isher
Ġext ensively
er os
Ġc ous
12 6
Ind eed
ĠComm ander
ĠP ref
Ġcount ing
ĠLiver pool
Ġtour ism
ĠG L
ĠF al
au er
Ġbond s
ĠT ower
ĠFin land
ut ter
ĠAr n
ĠK ra
ĠS yn
pl er
ĠS earch
ass y
Ġapprec iate
) !
Ġposs ibilities
Ġbus y
Ġbank ing
12 2
Ġl engths
ĠP i
Ġex it
Ġmedal ists
Ġanom al
equ ival
ĠBen jamin
Ġmulti pl
y es
Ġmir ror
] _{
Ġdev ast
Ġsing ers
Ġstri king
Ġpred om
Ġant ib
Ġquad r
ĠVi ol
Ġde formation
pro perty
Ġext raction
om ed
ĠBanglades h
Ġkey board
Ġdam ages
ĠAnd y
ĠL ook
Ġdr inking
ĠR and
ĠHawai i
ĠSte ven
Ġinv al
Ġelim inate
Ġin hib
D O
Ġpre st
f und
Ġaccom p
Ġas semb
so le
! "
ĠJ azz
ir i
Ġpaint ed
) "
Ġst rain
cc c
Ġdec ays
Ġt v
Ġlawsu it
ĠD R
abl ing
Ġcoll aps
Ġwalk ed
B et
2 30
ĠAl tern
Ġj oy
uk i
Ġinf ected
Ġexpl oring
Ġscholar ship
Ġmag ic
ĠM eg
Ge orge
ant on
ne e
ĠMet ropolitan
Ġt ur
ĠM aj
is en
B s
Ġfor cing
ĠS elf
Ind ian
Ġpsych ological
ĠChe ck
Ġdispl ays
per ature
ĠDel hi
Ġph on
ĠC ass
T oken
Con f
t ensor
Ġcas ual
Ġequ als
Ġresc ue
s or
Ġvari ability
Ġcomput ers
the ory
work s
Ġg r
Ġshe et
US A
ĠPro perty
Ġaud iences
Ġg host
ĠC row
Ġf ishing
q q
Ġv ic
Ġdaugh ters
ĠS R
Ġw ounded
ĠN BC
iz z
Ġalign ment
w ang
Ġj ournals
Ġenc oder
Ġpl ug
O O
Ġdis ability
Cl ient
umer ical
S l
Ġinf inity
Ġinflu ences
ĠH ockey
ail ing
fl ix
Ġorgan ic
b oy
Ġadvent ure
ud son
ĠA qu
$ {
Ġdog s
K L
; &
Ġb le
Ġco ffee
Ġmanufacture rs
ĠJeff erson
atas et
Ġtrad itions
P age
Ġtim ing
re ach
Ġformul as
p ret
Ġcontinu ously
Ġhar ass
ĠPhys ics
Ġintern ationally
bs ites
}= (
ĠPlan ning
Ġvol tage
E ducation
19 03
}\ }$
as g
Ġconflic ts
ab olic
em ption
Ġcert ificate
ĠNev ada
Ġto m
Ġarg ues
S k
ĠR io
19 02
Ġvalid ity
S ources
Ġasympt ot
Ġprepar ing
Sc ott
Ġcomfort able
ĠPort land
ĠMad rid
im pl
it ro
Ġviol ations
Ġb ird
ĠMit chell
s d
Ġdepart ure
Ġact ed
Ġam pl
Ġall ies
P e
Ġback ing
Ġadvan tages
Ġcap ability
Ġprotect ing
s un
Ġgovern ance
F amily
opt imal
/ .
x it
an im
Ġh ill
ĠInt eg
und erset
Ġprov incial
14 4
og an
ĠF em
h ot
Ġembedd ings
Ġsw it
Ġext ensions
ord ination
' }$
ĠL ock
AT O
Ġpro xim
ple ctic
g rid
ĠSquad ron
B ur
ĠLic ense
Ġto ken
Ġth inks
Ġbirth day
ow ell
Ġh o
d epend
Tr ue
Ġhighlight ed
Ġign ore
Ġde let
ĠHam pshire
Ġan ten
ang ular
Ġsc iences
s ample
ĠP il
Ġg allery
ĠBl oom
Ġdiv isions
> &
ym p
Ġall ocation
Ġval ley
ĠIm perial
Ġp ace
Ġt iny
ann ot
m illion
p ress
Ġpo em
ĠBar bara
Ġ$ <
Ġt ie
Ġh ip
ur se
ĠBl ood
our t
Ġr hythm
7 50
T om
Ġc up
T P
ĠO il
h skip
Ġtick et
ĠF el
Ġadvers arial
ĠC BS
ĠPriv ate
ĠF ile
Ġautom atic
Ġp up
Ġaddress ing
ins ula
s ort
ey er
ĠF M
l ied
Ġread ily
ĠTh ank
Ġshe ar
tra ining
paren cy
Ġlik es
sing le
Ġking dom
Ġforest s
Ġrecommend ation
ic i
ag ers
Ġpre vention
ord ered
19 0
Ġconf ident
d at
ĠH orn
Ġcalib ration
ĠTh ings
ĠEgypt ian
Ġlit igation
Ġpod cast
ĠT ig
ool s
e ch
R un
ĠE N
gg ed
ens is
Ġal ien
Ġel abor
}\ !
F inal
Ġh urt
Ġdifferent ly
ĠW ang
Ġaggreg ate
book s
in formation
Â §
ĠF R
Ġfun ny
17 5
Ġoccur ring
Ġbr illiant
O pt
ĠJ oint
pd ated
Ġrail road
ĠHis pan
ĠT ib
Ġf abric
Ġple ased
Ġto w
Ġcorpor ations
min ute
iv ic
Ġmethod ology
; </
Ġrecip ient
ĠThe ater
L and
rand om
Ġb ool
ĠW orth
Ġdismiss ed
> (
Ġflex ible
Ġsc an
Ġprom ised
Ġmed ic
ose x
p he
ĠPol y
Ġspeak s
Ġvari ants
ol t
Ġinc idents
Ġterror ism
ĠT ob
ĠS ource
ĠH ind
ĠW ikipedia
akes pe
cyclop edia
ĠH aving
Ġdis cre
Ġconduct ing
ĠInf antry
ĠL l
ĠĠĠĠĠĠĠĠ ĠĠĠĠĊ
Ġper ceived
ĠEv ans
ĠRo om
Ġw et
ĠLead ership
add le
ab i
Over ride
Ġcom ed
Ġ< <
Ġvess els
14 5
is dom
Ġprov ing
um s
ĠR ico
ik ing
dist ance
G ood
ol en
ĠY ang
ĠO d
Ġob sc
Ġreason ably
e ach
Ġb ills
ĠVi enna
Ġconsider ations
An n
ĠL ad
ĠJim my
}^{ (\
Ġpers u
ĠCons ervative
Ġpotential s
Ġas p
Ġexcit ation
Ġste am
ĠL ower
ĉĉĉĉ ĉĉ
in ch
es y
Ġdeg rad
ĠGu y
ĠAnt i
it ud
akespe are
="../../ ../../
ĠĠĠĠĠĠĠĠĠĠĠĠĠĠĠĠ ĠĠĠĠĠ
ĠSh an
Ġcheck ed
ĠCom ments
T rump
a very
Ġoverse as
ĠS W
s am
Ġcomp ly
Sp ace
k it
ĠJ ess
cl ient
g on
Ġimag inary
Ġr ings
ĠIs a
p mb
ĠB ed
ry pt
ĠSt re
P an
rel im
ric ing
e lection
or tex
Ġsure ly
Ġg ent
sp eed
Ġcl othing
Ġm as
ĠBl ues
Ġcast le
Ġmountain s
bra ham
Ġc rack
Ġsoci eties
Ġmathemat ics
ĠSte el
Ġachieve ment
Ġland mark
ĠMat hemat
ĠColl ins
Pl ot
Ġimplement ing
ĠC her
M ass
ll i
on line
ĠSp ect
st ers
ham mad
comp ass
Ġcur rency
im m
ethe less
sh aped
Ġmy stery
\, .
av ed
Ġview ers
un iform
Ġgrate ful
Ġdiv ide
Ġint ens
ee per
J ack
Ġmechan ics
con ver
ĠN ap
priv ate
Ġnumer ically
ĠP ad
Ġconf usion
Ġf ulf
Ġhead ing
iter ranean
ue z
Ġ{ }
ĠM es
Ġt one
augh ter
ĠLegisl ative
fra id
Out put
Ġs ake
ay an
Ġven ues
iff s
E Q
Ġoblig ation
ĠĠĠĠĠĠĠĠĠĠĠĠĠĠĠĠ ĠĠ
Ġunem ployment
ĠHe b
B r
Ġcommunic ate
in cre
t im
Ġelect oral
G G
Ġaccompl ish
Ġbu ying
Ġt rem
ĠNig er
l ooking
est one
Ġach ieves
Ġhop ing
Ġvess el
se par
tra ined
Ġanim ated
Ġtherm od
Ġcivil ian
ĠH ero
Ġsent enced
Ġp eoples
as a
Ġst ere
part y
Ġstreng the
ĠTe le
Ġelim inated
Ġme at
but ton
as hes
Ġe cosystem
ĠD ie
qu al
or o
Ġbuff er
Ġsomew here
Ġ\ #
Ġst d
Ġadapt ive
S al
Ġsh adow
k ar
ĠB irmingham
Ġprom ot
B re
Ġl i
Is rael
ĠD anish
g age
Ġunder ground
ĠO wn
}{ $
Ġabs ent
ĠBl ock
d ays
Ġch rom
Ġiniti ated
zer bai
Ġc able
V ari
Ġper ception
et on
ĠPark er
c ss
ush ing
}$ ).
bor ne
Ġw ars
Ġw edding
ul o
Ġacqu ire
Ġlegit imate
Ġdiagn osis
m ade
ĠO ri
Ġf ed
Ġinstitution al
ĠF if
en cer
ig s
opt ions
t re
Ġperm utation
ĠFred erick
mod ules
Ġhom eless
u its
R oman
no ise
Ġsuccess or
Ġoff ense
en z
ĠK ir
Ġmed ieval
ĠP ent
f ind
up date
ĠUn like
Ġneglig ible
Com parison
Ġspeak ers
Ġqu oted
N av
as m
ĠF ant
Å «
Ġpat ch
ĠOper ation
Ñ ĥ
Ġm ild
ĠS A
names pace
T w
Ġf ro
ĠO cc
ine e
Ġch ampions
eq q
form s
ĠF ine
Ġsequ el
us ive
Ġland ing
$& $
Ġfore ver
* \
Ġeng aging
P ub
t ics
ĠPr incess
ĠLiter ature
ĠCl aim
ĠSymph ony
Ġmotiv ation
hip s
ĠChall enge
Ġsome how
pol y
Ġchem istry
ĠIndust rial
Ġsummar ized
We b
ent ity
ul ing
ĠInst agram
Ġcoast al
E lect
Ġrespons ibilities
Feb ruary
Ġ{ {\
Ġret ro
Ġand roid
ĠB orn
ĠI an
à ¸
ĠSal v
gra v
Ġelli ptic
ov o
ut able
ĠUnivers al
Ġsh ots
ĠR ud
18 00
Fig ures
ĠAn atomy
ĠB illy
Ġs weet
Ġdiver gence
ĠAssoci ate
top rule
Ġd otted
ĠR ot
ent i
ĠF L
um ar
fig s
Ġd rew
ĠBar ry
Ġproceed s
Ġintegr ity
ĠM asters
Ġceleb ration
Ġpract ition
ĠAlf red
ĠD ays
os ph
d ig
ang led
Ġlog ical
ĠShe l
ĠK os
{ [
Ġcal endar
O ptions
Ġun ions
ĠA y
Ġdel ight
ĠG as
Ġven ue
ĠMon th
he w
Build er
b ibliography
om atic
Ġstrugg ling
ĠN ep
t otal
Ġm i
C a
ĠC itiz
Ġm asks
indu ced
per turb
St atus
N Y
Ġt ar
13 2
Ġattempt ing
ĠT rack
Ġw ra
g iven
ĠO range
Ġres igned
ĠCo al
Ġj ets
ĠS ay
ĠW a
f ly
}) (
T I
Ġch ronic
Ġ ^{\
in ced
}}\ \
IT Y
Ġcritic ized
ĠG ran
uc ks
H istor
Ġbr ut
T M
ĠE ver
Ġconvers ations
B ibliography
Ġenorm ous
j et
) }^
ĠFin n
m other
Ġident ities
ĠR ules
Ġaccompl ished
Ġfil ters
ĠP hoenix
ĠJ oy
ract ed
c ule
Sport speople
eck er
Ġinc ons
rict ion
Ġcam ps
Ġl iv
Ġfail ing
Ġintegr als
G old
ĠM ason
ĠV erm
18 70
+ |
ĠI ce
Ġind igenous
Ġcert ified
sim ilar
Ġhabit at
sh ould
ĠD rive
Ġmod ify
Ġmob ility
ĠPro test
Ġveter ans
Ġen force
ath on
op ing
vers ely
stand ard
val uation
Ġf a
iss a
Ġvolunte er
Ġtack le
m ill
Ġpra ised
int o
Ġgre y
ĠP rix
Ġ\, ,
ĠL O
ling ton
eth yl
ĠApp eals
D ue
Ġh orses
ĠF ight
Ġpreced ing
U I
ef ully
ro le
resp onse
Ġvan ishing
Ġuniqu ely
Ġaccept able
ĠM uch
Ġhe ll
12 9
]{ ./
): =\
Ġm esh
Ġunder graduate
ĠLe ader
" ]
hab ilit
Ġ ________
riv ing
g p
Ġamb ig
ĠU nd
iv ities
Th omas
F ore
establ ished
ĠC ore
Wh ite
ĠCh ron
Or der
ra pe
Ġart ifact
child ren
Ġfor b
ĠIn novation
Ġorig ins
ĠM ack
Ġwind s
eff ective
ĠBern ard
vent ions
re r
Ġsome body
IF A
ĠN A
fact or
Ġsl ave
C am
ĠE li
w right
um ann
ub s
^{ [
Ġab elian
N ull
ĠBl og
lev ant
dist ribution
A re
aw s
ĠMad ison
es ters
ĠStan ford
F ull
ac o
sat isf
ĠMet ro
te ch
ĠTurn er
o ft
Ġsp r
Ġtrans mitted
Ġrem emb
Sc ript
}} }$
ĠR u
ĠY eah
ann ah
Ġcompos ite
n one
ĠB S
dep th
s v
abet es
ĠR ap
Ġaffect ing
r ut
Ġmultiplic ation
Af ric
li ers
Rich ard
U til
Ġtravel ed
ple t
Ġbank rupt
ĠTransport ation
ag ger
che st
ĠWar ner
in ates
Ġearth qu
ĠD ame
Ġterrit ories
ĠTra il
C ity
Ġoccasion ally
Ġinteract ing
Ġo w
om on
eg u
Ġimpro ves
ĠBapt ist
Ġl obby
\ /
ĠMa ur
ear ly
On ly
P N
( |
Ġrev ised
Ġdecre ased
Ġcinem a
Ġbal anced
ator ial
ĠBe aut
2 25
Ġden om
ann es
18 98
Ġsustain ed
Ġsurn ame
oth s
ĠP ictures
Ġac res
ĠUk rainian
if ice
He alth
Ġas c
1 19
p ers
ab e
Ġste ep
Ġun w
ĠP oll
Ġconver ge
Ġg ram
Ġpoint ing
Ġbar riers
L D
ĠU pper
Ġsoph istic
ss on
Ġdoll ar
ĠC ele
A rm
}( -
Ġl ights
ĠMar x
Ġplan es
Ġhierarch y
all ow
Ġpre val
st ock
Ġsy mp
Ġcomplet ing
Ġprem ie
ĠBatt alion
)\ ,\
Pro t
k t
Ġe ase
Ġconv inced
Â ®
Ġri vers
Ġcomp ound
Ġpoll ution
v skip
Ġproof s
ĠP ra
ĠStud io
Ġneighbor ing
Ġdelay ed
Ġj u
Ġl ux
s g
ug oslav
Ġcl ot
ĠF ly
ĠLie utenant
Î ±
bound s
ith uan
^ *}
ĠConst ruction
Ġb oss
ĠMar vel
ĠSim ilar
ĠConf ed
ul u
ĠAd m
ces ter
re view
z one
Ġgeodes ic
respect ively
Ġsec ured
equ al
ĠHig her
ĠR an
ellig ent
Ġpark s
ren ew
set length
ĠO scar
Ġpro ton
hav ior
Ġn eck
Ġpred ecess
}| ^
Ġrest ore
}, {\
ĠAgain st
ĠAb u
On line
upp er
ĠD eg
an te
Ġver ified
ĠâĨ Ĵ
Ġad op
Ġcl ip
Ġunc lear
Ġboard s
Ġacknowled ged
e or
f requency
ab ul
Ġf inger
13 4
asg ow
ĠS oul
}$ ;
M ajor
Ġcompan ion
ĠN ULL
he ld
Ġre un
U D
te chn
Ġsus cept
Ġmar ry
Cont ent
m ont
13 3
port ed
Ge ography
ĠD J
V M
Ġcont ents
or rect
orne ys
Ġwe bsites
Ġquant itative
Ġsurve illance
Pop ulated
}}\ ,
m em
Ã ´
ro c
ĠScient ific
Ġoccas ions
P I
13 6
Ġsold ier
Ġg ard
Ġsequ ential
Ġcub ic
Ġderiv ation
m arg
Ġregular ization
}] $
Ġenter prise
. (\
P lease
Ġche cks
Ġconven ience
Ġneg lect
G AN
ĠWork ing
ĠBer keley
ĠE uler
ĠB ec
ĠG il
Ġel ite
it ual
}} +
ac les
Ġhard ly
\\ \
Ġmag azines
ress ing
hes es
Ġdes per
we red
Ġintrodu ces
sp aces
ancell or
text style
pro ve
Ġd inner
g om
ĠF itz
ĠLabor atory
ber ry
ĠCh art
Ġexplos ion
s olid
ed ed
S earch
ĠS tage
Ġengine ers
f iction
Ġtang ent
Ġprocess ed
Ġtele phone
Ġinf o
ur red
ĠHun ter
T ag
ĠIn v
te enth
th y
ju ana
Europe an
Ġm ock
}$ $
pos itive
cept ions
h ook
) ~\
ari juana
Ġres ort
Ġdo zen
Ġsp okes
ĠTechn ical
' (\
ĠB ond
Ġbre ast
Re view
ĠRich mond
ĠWel sh
og y
ĠH ope
hem atic
ĠRail road
Ġwealth y
ĠF unction
Ġuncer tain
Ġsqu ares
Ġconv iction
ht bp
Ġl ad
Ġcond ens
Ġconsider ably
Ġformal ism
Ġ\\ [
Ġmanufacture r
Ġori ented
Ġport rait
Ġbehavi ors
] _
Ġs ends
Ġsa il
ĠS now
z ens
Ġany more
Ġj unction
Ġobserv ing
Ġsup ern
Ġexp end
ĠCamp aign
id i
pre ced
f g
ĠG ray
S chool
Ġconsp iracy
Ġaver aging
od ic
k n
Ġaccomp any
ĠR ank
utr ition
ĠInvest ment
Ġsil ent
ĠT ree
scal ebox
ĠSh akespeare
Ġmodel ed
Ġm ic
ĠT alk
Ġmetall icity
Ġpubl ish
Ġflow ers
M W
Ġy esterday
ĠK itt
Ġinstall ation
R eal
Ġbo olean
ĠL ess
Ġ ),
Ġopp onents
Ġcharacter ization
Ġfol ks
ĉ čĊ
rad ius
' )\
ĠR at
ar us
Ġfl av
ambig uation
Ġcomp ilation
init ial
Ġm os
pp ers
ĠC ir
ab a
ĠSt ories
uss ia
Ġd ivers
18 99
Ġval ued
Sup er
res olution
ĠMach ine
Ġlocal ization
ĠC inem
Ġillust rates
Ġphysic ians
Ġun re
AM E
Ġdes ert
ĠJohn ny
Ġalleged ly
comp act
itud inal
st rap
Ġafford able
Ġtreat y
Ġreform s
ĠSh ah
Ġcon ce
Ġm ig
Ġcomp ression
ĠInter view
Ġsl avery
Comp onent
D eb
K K
ĠLore ntz
ĠCor p
ĠP el
on ian
Ġb ot
Ġany way
, [
Ġext inction
ĠB R
ĠF lo
ov ich
Ġchalleng ed
ĠSus an
ĠCharl otte
p f
Ġqual ify
Ġtick ets
Ġsec urities
Ġcur riculum
ine a
Ġthick ness
Ġmist ake
T HE
f ive
Ġjoint ly
Ġb ag
ut ives
Ġs ed
ĠSt ra
Ġtechn ological
ro ot
ĠU E
ĠDen ver
Ġsp ots
ĠKar l
ĠSt orm
p ush
C AR
Ġ erg
Ġam id
Ġsubstit ute
ĠAdvis ory
b ishop
Ġsynt hesis
uck er
M edia
d ynamic
me asure
war z
D esc
Ġevalu ating
ĠNorm an
S yn
Ġlimit ation
Ġmat ched
ĠBe ing
ur ious
fil ter
Ġalign ed
Ġtreat ments
row ing
Ġst rang
$ (\
Ġf ert
Sum mary
Ġimportant ly
Ġmem orial
ta wa
AB LE
Ġt ale
ĠG W
ĠS ustain
ĠC u
ĠHar rison
h ad
St art
Ġfin ancing
Ġfraction al
ĠS L
Ġcohom ology
Ġsearch ing
Ġarchitect ural
op ed
plic it
el ing
ĠA ld
Ġlo ops
ĠAlber ta
Ġsav ings
se en
ĠP od
ĠMe V
Ġpun ishment
Ġcl imb
Ġpush ing
res ize
ĠMark eting
ĠSt art
ĠM all
ĠB ud
F lor
ĠP ic
M ilitary
}} -
Ġappro ached
ĠMay be
Ġdiscuss ing
Ġcust ody
pro file
Ġphil os
Ġpsych ology
Ġb rick
ĠMountain s
ĠB A
M aster
oc ate
r ically
Pl an
ĠRog ers
Ġswim ming
h ill
Ġconcent rated
Con clusion
Ġspecial ized
Ġenem ies
P eter
Gl obal
ym atrix
Ġband width
tain ing
N L
ĠKen ya
Ġevery day
p iece
Ġpre t
Ġobs erver
ĠIns urance
Ġim perial
Ġwire less
Ġg ran
ĠH indu
ã Ĥ
Ġdist ant
h op
18 95
Ġbos on
Ġdo ctrine
Ġd s
Ġg al
ĠCons ult
, (
ĠDef ence
p eople
Ġgovern ed
ĠH ousing
ĠU lt
Ġdis orders
Ġt ip
Or gan
ĠK an
id ation
ĠB esides
ors ion
ad van
bottom rule
Ġs alt
ĠA rena
t ask
ĠL arry
ĠHit ler
id ering
prot ect
Ġassum es
hol m
ĠH R
ĠCom ics
h ome
R ele
Ġf ract
Ġbatt les
ĠT ask
Ġst ops
Ġwar ned
Ġprof its
}} ^{(
med ia
Ġe ating
h ou
l r
tr im
ĠT s
Ġqu eries
w hat
Ġthe sis
Ġcam eras
Ġdetermin istic
Ġcross ed
ri en
Ġleg s
ur u
}{ $\
ĠB enn
ĠGr iff
s elling
}} +\
Ġman ual
osoph ical
Ġb ull
ĠReg ist
ĠAssoci ated
b ian
ĠBay esian
des ign
Ġspec ify
Ġf ate
ĠCom b
Ð ²
Ġsto pping
ĠGre ater
H I
ĠBrig ade
Ġel astic
Ġor al
, '
18 97
E ff
ĠB row
D ay
Ġproject ions
ĠGuard ian
ĠAust rian
ĠPer haps
Ġsimpl ified
r aska
Ġassoci ations
15 5
3 20
J ac
f ocus
Ġple asure
ĠG P
18 60
display math
ĠG ay
Ġco aching
Ġsurv iving
ĠD ocument
Ġal arm
Ġreprodu ce
R ail
ĠLu ke
Ġrec ruit
Ġt ons
Ġs hed
S uch
ro v
Sty le
P ublished
ĠClass ic
Ġsuperv ised
Ġf ake
Ġsum s
D iv
Ġwitness es
p end
Inst ance
ik es
ĠM I
ĠLe vel
Ġl ingu
ĠJ en
Ġcomput ations
Ġprotocol s
C oll
Ġpray er
Ġguitar ist
ĠLeg end
Ġprof ound
ĠA B
t ot
Ġt issue
ir ts
Ġinvestig ating
chang es
ri ver
Ġincorpor ate
f an
pl ain
Ġsp ark
set s
ĠC op
f ef
Ġharm on
ĠRoman ia
ĠPer ry
P rior
idel ity
w oman
u art
Ġrel ates
Se lect
Ġc os
ug s
ourn ament
es ome
ier ra
she ll
Ġwal ks
Ġr ub
^ -$
Ġm arch
ĠS ad
ric ks
ic iary
colon eqq
Ġconj unction
ĠK irk
Ã «
ĠG arc
ens en
Tele vision
R ussian
Ġh ook
Ġfl ights
uls ion
Ġnorm s
Ġimpl ied
ne x
ĠH im
Ġprogram mes
ĠBar cel
sh ops
ĠMed iterranean
ĠY ale
Ġt ab
ĠAl ong
Ġconclud es
ĠEx cell
0000 00
A ir
igh bor
ut o
13 7
j ar
Ġdis abilities
bibliography style
ĠNe il
m eta
Ġoscill ations
play er
preced ented
Ġpo ems
L ocation
re nder
Ġb anned
16 5
H en
ĠA ra
char acter
ĠCo hen
Ġann ih
ĠT ab
}] \
Ġtor us
ĠMin or
am ount
DB LP
Ġfall en
ĠCons erv
Ġtrem end
Ġten ure
pr ises
ĠJer ry
Ġjournal ism
ĠQu arter
Ġa fraid
d ocument
ĠCom ment
ĠImp act
ĠRepresent ative
Ġdon ated
' ,\
Ġthe at
m ic
ig roup
b ing
id o
ĠCat hedral
ĠPl ant
Ġt ill
Ġtw in
Ġrout ine
C ond
Ġobserv ables
ĠE ve
Ġr iding
Ġen compass
18 96
le tt
Ġdip ole
Ġsusp ension
Ġimp ression
E G
ĠF alls
M ad
Ġsan ctions
Ġobserv ational
bour g
ĠE state
ĠSh ould
ash ing
Ġmin isters
ĠZ one
ĠColomb ia
Ġinf er
lic t
N ov
rat io
Ġinv ariance
C ho
Ġbe ings
ĠB ranch
ĠEth iop
}) }\
l brace
ĠVictor ian
sy n
Ġencourag ing
ĠHung arian
Ġneighbour hood
ĠCra ig
Ġ\| _{
T otal
Ġd amp
cel and
ĠWhe ther
Ġbi ology
Th m
Ġcomm emor
ĠB uild
Ġg ray
lim it
om es
u cc
Ġd ub
u ate
ĠL ost
ĠStat istics
Ġimm une
Ġmind s
Ġsal ary
ĠL ot
) /\
Ġspons ored
Ġ\ }$
fef efe
lic ations
Ġadv ances
ĠJ e
ĠG ot
Ã ¥
Ġpredom inant
ĠM Ps
M or
Ġcon greg
ur ate
ĠJ ere
Ġfre ely
con vex
V ill
lim ited
Ġhand led
Ġdivor ce
Ġinc orrect
rist ol
ĠM ust
W S
F i
re ck
ĠAgric ulture
Ġcollect ing
k k
ass oci
ĠTreat y
Ġpres erving
* {-
Ġcred ited
Ġnurs ing
Ġthere in
requ est
act eria
p olar
v v
l ab
Ar g
J ew
' -
ĠA zerbai
Ġag gressive
Ġobserv able
Ġsol it
sequ ence
ĠP ant
Ġw ages
ĠPalest ine
G raph
K ing
ol ition
app end
less ly
Ġstructure d
Ġb ishop
O K
ĠS olar
Ġg aps
Ġout door
Ġin ad
ĠRe ading
Ġc er
ĠK ath
Ġstre ams
ster dam
st ore
ĠS even
Ġhas h
process ing
) <
it i
ĠC opyright
Ġor ange
ob a
ĠAl ban
Ġca usal
L ay
Ġl oves
heim er
p q
Ġtrib ute
AC T
ĠInit iative
5 12
ull ivan
ĠNichol as
st d
var pi
Ġm oon
Ġsens ors
ver tex
C opyright
or ic
E ast
Ġreven ues
13 8
b efore
Ġn aval
Ġgather ing
ĠGra ce
Ġdis placement
ett i
ĠD at
ĠG round
ĠCarl os
Ġche ap
ĠFl ore
IN T
20 2
ars ity
L ou
f ish
ĠArchitect ure
Ġoutl ined
ĠM O
Ġcard inal
}, \\
Ġto uc
ĠN N
ia o
Ġmanifold s
ĠWrit ing
Ġshould n
Ġut ter
Ġ Ä
in ely
Ġevolution ary
ĠH udson
F our
Ġd rag
p ref
~~~~ ~~~~
x ymatrix
T ur
op al
Ġprim itive
f un
big oplus
Ġhomot opy
Ġapp ell
N or
Ġbenef icial
ict ing
Ġear nings
z es
ĠC arm
cast ing
Ġstreng then
Ġflex ibility
ĠArt ist
Ġmod ifications
est on
ĠGl asgow
ipl inary
ĠE lection
ĠNet flix
Ġent ers
ĠN ord
Ġ( ,
ol s
Ġs isters
), (
F ootball
d ouble
âĢ¦ .
ĠEm ploy
Y our
ĠA braham
ili ation
Ġmid field
ĠAn aly
ro us
Ġdream s
ĠM ans
ound ing
Ac adem
Ġfil ing
Ġc oun
Ġplace ment
ĠO liver
Form at
Ġincred ibly
Ġutil ize
Ġ$ -\
ĠPhil osophy
ĠC M
ĠBarcel ona
pos al
ĠD og
gl s
g un
gom ery
Not ice
am er
ĠI da
18 91
in ar
Ġsuppl ied
Ġgenu ine
Ġdetect ors
cl osure
big gl
Ġd ynasty
Ġthere of
Ġtw ist
L ear
ron es
ak u
f ar
g tr
Ġc ow
ĠT ed
f ixed
ĠB ron
arm ac
W in
p air
Ġseem ingly
Ġop acity
Ġp ill
ĠSe lect
rodu ct
Ġinteg rate
all ing
C F
Ġd ot
ĠW es
ress es
L in
ĠSec urities
d v
Ġbre ach
Ġsynt hes
Ġno isy
Ġcomplet es
ĠC V
Am ong
Ġpref erence
st ation
Ġisol ation
bigg r
he art
um m
Ġqu art
big skip
M iss
d ict
Ġg ates
Ġmuseum s
Ã ł
are r
Ġcommut ative
Ġinsp ection
ĠPh ase
Ġlocal ized
ĠS ide
j ava
Ġoverwhel ming
ĠMu hammad
Ġtrans parent
] ^{\
le ased
ĠU g
Ġcycl ic
ĠC ou
B uffer
Ġsupp ressed
Ġresearc her
left rightarrow
Ġqu ote
ĠS NR
Ġelect romagnetic
Ġregular ity
Ġemot ions
Ġmod elling
= {\
h ig
Ġreconst ructed
ĠMur phy
ol ver
Ġa fore
ys ics
OR T
$ --
Ġup grad
ĠKe ith
Ġgen es
Ġfoss il
i u
ĠIn n
ĠV ent
Ġear ning
Ġb unch
Ġ( ;
ĠN at
OR E
Ġb io
P et
\' {
b us
Ġreal ization
rib utions
r h
Ġr ally
ĠSud an
ond a
ĠG ate
ĠTib et
i pt
ĠDel aware
Ġdim in
Res ource
T or
F ar
ĠTre asury
ĠP resent
Ġdis abled
ĠPer u
Ġdiscl osure
Ġdef ending
ĠDise ase
Ġhon our
Ġd ying
Ġfaith ful
ĠCons ervation
Ġhistor ians
Ġnucle i
Ġfasc inating
Ġmon op
Ġcontroll ing
ins ky
ĠGal actic
}_ +
se q
Ġgrad ed
Ġgl obe
div ision
Ġproceed ing
Ġyoung est
Ġprivile ge
dis ambiguation
ĠC ot
ber y
ul ates
âĢ¦ ]
Ġdec ides
ĠM erc
Ġexponential ly
Ġburn ing
O ld
Ġst rat
m und
s qu
ĠPsych ology
Ġgrad ients
ĠFri ends
ĠAd vanced
th al
sh ore
ĠB io
R a
ĠS outheast
D L
Ġtra ff
Ġcon g
Ġanticip ated
harm onic
Ġadvert is
ĠEx hib
Ġutil ized
^ +\
Ġrad ii
Ġsingular ity
F rance
ir s
iv ariate
Ġdr ift
g overnment
in ery
ĠCh a
Ġ rib
ĠS r
Ġfl ed
Ġsubstit uted
Ġsymmet ries
ĠC N
og raphics
Ġpo ison
Ġde ce
13 1
Ġprem iere
Ġf ictional
Ġnation wide
ĠR ather
ĠW u
c ritical
ĠP RO
] ]
ĠVenezuel a
ĠO k
_{ {
Ġlock down
Ġtrac es
reg ation
rape ut
Pro ject
Com b
ĠD est
Ġdef inite
ars on
ĠH em
ĉĉĉ Ċ
necess ary
Ġs aving
center line
Ġadjust ed
amb ers
d ue
ĠJ ama
m ir
Ġnon profit
U ST
F rank
ĠCont emporary
AC K
Ġwe aker
algorithm ic
ĠD ifferent
Ġlegend ary
Ġsubsid iary
L ondon
Not able
Ġrenew able
Ġfun eral
z b
Ġqual ifying
Trans port
ĠFour th
h um
Ġgraph ic
Ġbackground s
ĠN ad
14 7
Ġtal ented
im s
Ġsec ular
Ġpregn ant
ĠCl ay
ĠWork ers
Ġmon arch
supp ort
pt r
Ġindic ator
Ġt weet
18 93
n al
Ġvacc ines
Ġdecl aration
Ġvari eties
Ġb read
Ġsuperv ision
ged y
w alk
Ġlegisl ature
Ġprote ins
F s
Ġsl ot
Ġke ys
ĠR ural
Ġt une
qu et
P riv
Ġund erm
Ġcook ies
Ġb ins
Ġto ll
ĠC ounsel
Ġencoun tered
it atively
Ġh ide
Ġpat ri
Ġchar ter
ĠT ru
M N
un al
Ġen abling
Ġfast est
Ġ" ""
Ġpl acing
. âĢĶ
ater ials
f re
Ġfl avor
con j
Ġemphas ize
Ġhon ors
iv ia
H ER
ĠC PU
ĠF ab
Ġclass room
orient ed
& +
if iable
sp ot
Ġle ase
Ġl ung
j or
Ġspecial ist
Ġafter wards
ĠBuff alo
Ġcogn itive
18 65
inc orpor
Ġhistor ically
Ġrecogn ised
Ġadvoc acy
ĠMe chan
Ġ icon
Ġrevolution ary
Ġanxi ety
Ġcou rage
with out
ĠB ird
Ġ )$
Ġgradu ating
f inals
Ġsh ops
}} }{\
m ind
ĠSe an
ĠAlex and
Ġdual ity
Ġrec alled
f olk
Ġh ack
Ġl ibraries
rg b
ĠS ev
ac ular
Ġscal ed
Ġwood en
oc hem
Ġdocument ed
vert ible
ĠS EC
Ġaff irm
h is
ä ¸
Ġc ache
Ġ{ @
symmet ric
he ro
Ġt ube
Ġcon vey
Ġatmosp heric
Ġanim ation
Ġbl ues
r Ã©
ator ies
] \\
ĠMor oc
C NN
Ġf atal
ĠEn cyclopedia
ĠK rist
ĠCl oud
w al
ĠT rophy
18 50
Ġleg ally
). $$
ĠL en
Ġun precedented
ĠArch ive
I X
Ġexplo it
Ġachieve ments
Ġrobust ness
ĠC ox
Ġen roll
ht b
head er
ĠN ATO
Ġcap s
ĠCre ative
Ġdefend ants
Ġt aste
Ġrel ativistic
E A
Ġto urs
Ġv in
ĠEd wards
ĠVin cent
Ġlay out
Ġf ont
Ġse eds
p aper
ĠN am
Ġsimpl er
Char les
Ġafore mentioned
Ġinv ari
P erson
Ġter rible
}} _\
am ous
Ġdisapp ear
c z
Ġen rolled
Ġcoinc ides
ĠCost a
ĠSong s
et ric
ĠC atherine
Ġinf ring
Ġpros per
S ocial
Ġcomment ed
f ers
Ġm ath
Ġsn ap
Ġsophistic ated
Ġinv ention
Ġqu bit
w ig
Ġra pe
B usiness
l ies
ĠS eg
Ġab ilities
Ġin clusive
Ġat tach
18 89
ĠJust in
b x
ĠR ugby
ĠW or
ĠSt ore
ne red
ĠSaint s
iev able
Ġinject ion
Ġcomp ounds
Ġdiscipl ine
ĠPrim ary
ore l
Ġsynd rome
ĠInd igenous
end or
Ġcann abis
Ġfollow ers
Ġeditor ial
st atus
Ġre nown
Ġoptim ized
ĠForm er
l as
A ccess
omet er
h ind
Ġsub graph
ĠSh aw
ĠRob in
Ġ( ),
Ġhol omorphic
Ġorgan ised
Ġpro l
Ġa uction
Ġe ighth
Ġreg imes
ĠS ometimes
Ġrot ating
ĠQu est
Ġsusp ected
Ä «
Ġle tting
): =
Ġsuper conduct
ĠTer ry
Ġl oud
Ġmaintain s
Ġfant astic
EN D
ĠSte vens
ĠP in
ĠM ak
Ġst uck
Ġstar red
Ġinf ections
St ation
ĠÃ ī
Ġchap ters
Ġth rown
S everal
ĠU ser
ĠMil an
ĠLeban on
ĠCh ampion
Ġcent res
Ġwild life
Ġloc omot
}$ ),
ĠE V
Ġpar ity
Ġeth ical
Ġdiplom atic
Ġcontrib utes
Ġaut omorphism
reg ion
j av
ĠTh or
eyn olds
Ġinter active
Ġcompet itors
ĠGh ana
Equ al
2 15
ĠM oney
Ġall iance
Ġn inet
Ġic onic
Fact ory
% ),
am ation
ĠR ing
g ender
ĠW i
14 3
ent ric
Ġan s
ĠD ictionary
Ġcomp iled
Ġstat utory
Ġlif estyle
âĢ¦âĢ¦ âĢ¦âĢ¦
ĠĠĠĠĠĠĠ Ċ
S un
Ġmil k
ĠNash ville
Ġlast ed
T erm
ĠT otal
Ġrememb ered
S il
ĠD iamond
15 00
s ay
Ġpack et
Ġview ing
Ġad mission
ok a
Ġexec utives
Ġflux es
Ġgrand father
r brace
Ġf illing
ob b
Ġcancell ed
Ġd ad
Ä ĥ
Ġdiscret ion
B ro
Att ribute
gtr sim
Ġstret ch
ĠY ugoslav
ĠSpr ings
Ġcare ers
[ {\
Ġsl aves
ĠT ol
Ġhand ed
Ġb ipart
Ġse cre
ĠRe lease
ĠĠĠĠ ĠĊ
e u
ĠL ud
par ams
Ġcharacter ize
}\ )
ist le
Ġparliament ary
ĠSte in
ĠN HL
qu ant
Ġsym plectic
bl og
cl uster
Ġn ortheast
ĠOtt oman
ĠArm ed
ĠR osen
Ġcou p
Sub sec
Ġprevent ing
inst ance
Ã© n
Ġsub mar
Ġmeas urable
ak ia
ĠNeb raska
ĠW ing
Ġoccur rence
Ġconscious ness
ĠLem mon
18 85
par a
ĠSerb ia
g rim
Ġsh ield
Ġmod est
Ġbright ness
ĠMe eting
Ġenhance ment
o pp
Japan ese
ĠV lad
18 88
Ġp sychiat
ĠL isa
Ġshap ed
ĠCont ract
Ġbut ton
Ġb one
mid t
Ġt et
D ev
Ġown s
Ġinteg rating
Ġdro ve
C s
Ġcom ics
is ible
U pdate
umb ent
Ġun success
ĠP ick
ĠL aura
Ġmod ular
ĠHeb rew
Ġfest ivals
ĠN icol
Ġill um
Ġpremie red
Ġloc ality
18 94
Ġfriend ship
Ġassist ed
Ġdis par
Ġdram atically
const ant
Ġfavour ite
Ġrelev ance
inc inn
Ch ang
Ġportray ed
B ill
Sh ort
Ġtrib es
ol ine
ĠAP I
Ġv it
Ġconsult ation
Ġpresent ing
Ġlogarithm ic
Ġexplain ing
e a
Ġch ron
abil istic
Ġswitch ing
20 5
Ġmyster ious
ĠTam il
ĠB omb
L u
Z Z
if le
Ġaccommod ate
om ial
Ġconcer ts
ĠC ole
Ġt ub
IV E
Ġactress es
ĠSoft ware
ĠIS BN
Ġgra in
ĠD ir
Ġdisp ers
Ġcoinc ide
L U
Ġex empt
ĠSing le
Ġmicro sc
~ {\
ĠOt tawa
Ġcomplaint s
Ġemb od
Ġcivil ians
Ġwork force
Ġprosec ution
AC E
Ġrat ings
Ġcorrect ed
W he
or ia
resize box
ĠB asketball
ĠGerm ans
Ġdiagn osed
P H
Ġball ot
form al
im eter
Ġlear ns
duc ing
Ġconvolution al
amp a
Ġp ounds
renew command
ĠL an
F re
F E
}; \
ĠN urs
ĠPro of
ĠHoll and
Ñ ı
ĠSer ge
Ġv anish
sm ooth
ĠStrateg y
> $
Ġcounterpart s
ĠJ ava
ĠF aith
}. $
Ġin coming
A I
H a
Ġemb rac
Ġrad ar
Ġepoch s
Ġdevelop er
Ġaltern ate
}} )\
Ġcitizens hip
Ġ ions
Ġconsult ant
Ġprest igious
ĠCommunic ation
Ġex ports
ri ors
Ġmot ions
Ġtransl ate
18 92
Ġfilm ed
ĠâĢ Ŀ
ĠĠĠĠĠĠĠĠĠĠĠĠĠĠĠĠĠĠĠĠĠĠĠĠĠĠĠĠĠĠĠĠ ĠĠĠ
J S
ĠPier re
Ġviol ated
Ġmunicipal ities
ach ment
Ġd ign
Ġnob ody
l ag
Sm ith
Ġp ul
Label s
Ġamend ments
Ġt rick
Ġsear ches
z ed
Ġdriv es
Ġexhib ited
s ized
Ġo mitted
plement ation
Ġdiff ers
ĠFl ight
Ġinvest ed
y ll
ĠK ate
Ġnorth west
incinn ati
\!\! \!\!
F in
ĠT ak
ĠVal ue
enti eth
( .
$ =
13 9
Ġqual itative
typ es
Ġres erves
ĠB Y
NR AS
ra h
Ġcompos ers
Ġstay ing
Ġreserv oir
\ -
Ġviol in
Ġarchitect ures
Def ault
th in
Q L
Ġqu ar
ĠProdu ction
ĠC ome
Ġdemand ing
L ie
ĠEv ents
n atural
ve ctors
Ġrun ner
b uilding
Ġin quiry
Ġrig id
ĠL ux
Ġor chestra
old er
Ġattend ance
d in
P ass
ma xim
Ġcompris es
K ar
ĠOver all
Ġenthus i
nd um
Ġt orn
Ġdocument ation
m ix
Ġarriv ing
Ġtre ating
Ġpeace ful
ĠHar vey
Ġfoot age
om o
C I
bt n
{ }\
Ġad min
n at
Ġde ployment
Ġmod uli
G N
le ep
ĠF DA
Ġjud g
Ġenvelop e
i encing
< !--
u u
or ro
ibl ical
und les
Ġclot hes
ĠCh an
col head
Ġr itual
th lete
under brace
Ġhuman itarian
C y
en um
Ġw ishes
ĠB rew
ĠW onder
ĠAthe ns
il ia
ĠF u
Ġcab inet
ed ly
ĠAm sterdam
Ġc razy
ĠPro f
St and
Ġhon ored
Ġstreng ths
ĠFellow ship
ĠSl ov
rib uted
n ational
ĠEmer gency
Ġhop ed
Ġtrans parency
Ġp ian
Ġcous in
Ġdef ect
@{ }}
C lick
Ġin comp
ol ia
ĠWat son
'' .
Ġconsequ ently
G al
Ġwarm ing
O fficial
ick en
Ġmurd ered
Ġsustain ability
Ġsc attered
Ġcollabor ative
ĠTerm s
Ġnom inations
ĠS oph
uc le
ĠColon el
Ġadd itive
ens itive
h all
ĠB eyond
ĠMont ana
he alth
ĠM end
ĠP L
set t
ĠJenn ifer
form at
14 9
Ġhost ing
c rit
Ġwork shop
Ġparamet riz
Ġanom aly
H aving
Ġep ic
Ġ* *
ĠCl are
Ġsound track
ĠGi ants
H H
Ġconf erences
}$ :
o ons
Th ough
Ġconstitu ency
Ġdeal t
Ġdeliver ing
ber ger
osp here
J im
Ġbl ame
[ ->
Ġrec onc
Ġ\, .
ĠVir t
l ia
Ġenc oded
Ġc argo
n l
Ġfl ash
ĠCru z
o es
Hand ler
ĠE ug
l aration
Ġstat ue
Ġdi et
ĠE le
Polit ical
import ant
3 30
Ġsk ew
co ordinate
Ġspread ing
Ġneur ons
Ġsum mit
ĠBre xit
cho ose
ens on
al ogue
ĠK el
Ġstrugg les
ĠAm y
ĠE lementary
Ġd up
Ġn ut
14 6
Ġfit ness
) },\
ine es
ener ate
Ġferm ions
ur st
rel ax
ĠSpace watch
ĠB eth
M ag
Ġte a
ut ers
ĠR idge
Ġtr im
r arily
ĠG onz
P os
Res earch
Ġz ones
ec ca
ĠV ict
Ġcomp elling
ryst al
di agram
c v
Ġfl ower
Ġjust ify
oca ust
19 2
Ġnav igation
C ell
Ġadv ised
Ġaut onomous
Ġbusiness man
Ġeth ics
Ġf oster
as ia
ĠTerrit ory
Ġtra pped
L ater
Ġp uzz
Ġover head
Ġsh ore
Ġemp ower
] }\
ĠC oul
sp ring
Ġrep orters
Ġsp ont
arg s
ore r
ij k
ĠG PU
ĠL ithuan
taint y
Ġa est
Ġsport speople
ĠO bl
ĠN ancy
Ġdegener ate
Ġdec oder
ffic iency
d eb
ich let
Ġunder go
Ġbi ography
ĠAnd re
F ix
Ġjust ified
ĠLl oyd
be at
}^{ *
B U
ĠDub ai
14 2
14 8
}) ^{\
Ġsubt le
ounc ing
Ġwork place
Ġshel ter
Ġdo zens
ced ure
Ġtradition ally
Ġsc andal
Ġh itting
ps y
Ġisot ropic
' ),
Ġp or
ĠG DP
ec onomic
W il
ĠP red
ĠM orning
Ġform ulated
ĠC ant
Ġdraw s
ĠTr inity
ĠS ett
Ġlight ing
ĠB oe
Ġint rig
app rop
G ra
J ose
Ġcommit tees
r b
ĠPar ish
Ġassert ion
ĠGra duate
ĠHop kins
AT A
Ġsurviv ors
ast rop
ĠAss umption
ĠC F
) ~
Ġhun ting
ĠS id
ĠLiber ty
26 0
Ġpro c
Ġadvoc ates
Ġconf used
Ã¨ re
ĠClin ical
c od
ĠSpe ed
ĠC er
ĠYork shire
ex act
Ġmeta ph
Ġ{ {
ĠD A
Ġj ew
Ġpol es
Ġcompar isons
Ġv ig
)} =\
Ġsp iral
}. $$
Ġinsert ed
I EEE
ï ¿
ĠP le
ect ing
cc entric
s b
Ġtra ct
ac hers
Ġ esc
R ay
ĠChe l
Ġtrib e
^* (\
ĠMax well
, }
writ ers
ĠAdm iral
Ġb is
ĠFle et
au kee
d p
id ad
s ys
Ġpost p
M el
Ġb ridges
( $\
Ġsp ins
Ġland ed
Ġwor ried
ur ated
found er
ĠWh ich
| {\
Ġbo ats
ĠVerm ont
ĠS oci
Ġev ac
Ġrep ublic
Ġf ighter
Ġhad n
Ġi i
Ġdistinct ive
ai ro
18 61
Ġreg ret
Ġall ocated
ĠInd ependence
Ġm a
ĠD oc
Ġv ortex
Ġkit chen
Ġpres erves
ĠG ov
It alian
Ġillust ration
vol ume
Ġcomment ary
ĠI van
ĠL ion
Ġphot ographer
Ġsimpl est
enn ial
as is
ĠSh ar
ris k
ĠI celand
Ġmand atory
Ġwe aken
ĠS ony
ĠCam eron
ĠHispan ic
M er
Ġbl ank
Ġg onna
irl ines
Ġdemonst ration
Ġdevi ations
P DF
ĠF ast
ĠA w
ON T
Ġpres ervation
ĠB og
M SE
ĠPart ners
S n
M ary
Ġle ver
Ġnucle us
ĠFran ces
Ġinterp olation
Ġdescript ions
ĠL ate
Ġobtain s
ÃŃ n
is o
Ġsh ipping
am ic
Ġele ven
Ġsu gar
moment um
Ġun cle
s creen
Ġvari ational
Christ ian
ĠPhill ips
arm s
Ð ´
ref erence
ĠS ax
vel t
Ġatt raction
out ube
trans form
Ġbur st
Ġrenown ed
ak ov
Ed itor
Ġdon ations
gh ai
Ã ª
Ġdwar f
ĠL INE
Ġp ion
ĠDe ut
ĠG raph
anc ies
ĠM obile
Ġle verage
}) }{
Ġcontact s
Ġdef ects
ograp hers
ang o
ĠV oice
Ġrel ay
ena issance
Ġcert ification
S ym
incorpor ated
ĠP arent
end if
Ġthere after
ĠH unt
Ġke V
Ġinf erred
Ġev olve
ĠDe b
g iving
Ġex terior
ER R
c lear
ĠA pr
ĠM ong
s rc
Ġpro xy
Ġpair ing
Ġemer ge
Ġsett lements
{ |\
up loads
G reat
Ġb achelor
th ood
| }{\
Ġb ubble
ĠT ournament
ĠArab ic
Ġad missible
habilit ation
p olit
Ġneg lected
che m
e very
il ateral
)- (
Ġres il
Ġp ending
T ake
Ġh ub
S ports
Ġpen et
ĠA round
Ġprom ises
ĠPract ice
ce q
Ġpoor ly
ur istic
ĠT on
Ġsub mission
Ġqu arks
Ġtour ist
//////// ////////
ĠAthlet ic
in ion
Ġconnect s
ingu ished
L em
Ġfarm ing
Ġg aming
ĠRes ource
Ġs its
ell ers
Ġped est
ot ypes
T ask
ĠMont gomery
iz ational
J ul
Ġconnect ivity
ess ment
Ġdro ps
r ar
ah u
uth ored
Ġinher ited
^* ,
d ied
ĠH at
b ast
l st
ĠAl t
ĠJos Ã©
Ġaffili ated
ĠB ach
)$ }
Ġapproxim ations
Ġ+ =
Ġm ad
eff ect
Ġan chor
Ġfif ty
Ġvot er
Ġproxim ity
par se
i w
Ġans wered
ĠNot re
Com put
ĠN uclear
Ġeth n
Ġcons erv
ĠProgram me
w aukee
R est
Ġtra p
Cl ub
M NRAS
ï¿ ½
Ġgot ten
Ġlog o
Sp ecial
Ġdis advan
Ġ url
sh ifts
G ame
Ġwrit ings
Ġbare ly
Ġb uck
Ġdisput es
L ength
ind a
28 0
Ġide als
Ġemp ire
ĠHor se
ĠHel en
Ġad verse
ĠAn cient
cons cious
q ed
ĠB our
Ġsaf ely
Ġexper iencing
uss els
ĠF ram
tem perature
ĠF IFA
K A
Ġm ood
ĠB ristol
Ġcalcul ating
Ġcheck ing
Ġapproxim ated
Ġpassion ate
ĠSh a
or bit
opt im
ma ps
Ġstri kes
U se
qu antum
_{ (\
ĠB E
Ġp ension
m ot
ĠE M
ĠCon tact
ĠM ort
Ġconstruct ing
ĠD ennis
Ġopp onent
h aw
Ġaccess ed
D u
AR S
ĠI o
ie ge
ĠD elta
ĠR acing
Ġtremend ous
ĠR uth
ĠE mm
Ġinf ra
Ġass ists
d ens
Le vel
ĠE SP
18 87
be it
Ġw isdom
por al
G overnment
Ġindic ation
ĠBl u
ph abet
Ġgra ce
Ġur ged
im it
\" {
B a
Å Ł
16 8
Ġdeb uted
15 6
Ġr ated
ĠL ipschitz
aval ry
Work s
' ).
ĠS ug
}{ !
ub a
ed it
cast le
ĠOther wise
Ġhar vest
us k
make box
Ġexpl ores
Ġdu o
l ive
Ġequival ently
Ġin sect
OR D
Ġtempor arily
as p
AS E
Ġapplic ant
ĠK ay
ĠB ass
Ġpre jud
tain s
Ġresp ected
O U
Ġsingular ities
Ġsummar ize
Ġautom ated
ĠAr ctic
Un ivers
ĠB egin
ell ion
V ersion
ĠIraq i
Ġgu ided
' }(
Ġnecess ity
ĠU pdate
at ial
Ġb es
L ive
ĠB right
Ġlect ure
v c
ĠM aced
ĠY ank
Ġ$\ |\
En c
ĠN otes
Ġprint ing
Ġwe igh
ic z
non ym
ĠR oth
and roid
L y
30 1
Ġmand ate
ĠPr int
ĠS ales
am med
T ree
Ġs orry
pro perties
red u
Ġgl ad
ĠMult i
Ġe ccentric
ĠC urt
ĠPresident ial
Ġ\ \\
Ġadj oint
Cont in
Ġele g
Ġrom ance
ĠAmb assador
ĠG olf
Ġinc hes
97 8
Ġconf ined
Ġ ray
\\\\\\\\\\\\\\\\\\\\\\\\\\\\\\\\\\\\\\\\\\\\\\\\\\\\\\\\\\\\\\\\ \\\\\\\\\\\\\\\\\\\\\\\\\\\\\\\\\\\\\\\\\\\\\\\\\\\\\\\\\\\\\\\\
W al
00 5
R ock
Ġm arijuana
ĠReg ulations
$ ^{\
s it
ĠNe uro
ĠT rain
ĠC learly
p en
18 86
Ġfor ty
Ph ot
V A
re z
Ġins u
Ġinter ven
ĠLegisl ature
ac cept
Ġdiscuss es
Ġspan ning
ĠG alaxy
ash a
ĠThrough out
18 64
Ġcap ac
Ġr ic
Ġch ances
inc ome
Ġunf air
G T
ar ound
Ġweak ness
Ġprohib ited
Ġmort ality
Ġbon us
Ġturbul ent
Ġbe er
W W
Ġver ification
Ġhe m
ĠOrig inal
Ġcapt ures
ĠGu inea
cat en
Ġun con
âĨ ĳ
Ġperspect ives
ĠAut o
ĠB aby
L ove
Ġdel ays
Ġstrong est
* /
Ġphot ometric
Ġw ings
Ġpolit ically
Ġir regular
Ġcurrent s
ik o
ĠWell s
ĠL HC
pl ac
ĠHug hes
P ress
ĠA da
Ġdig it
ĠA aron
ha us
Î ¿
Ġcomp ass
om i
Ġtri ps
Ġst eal
Ġdecl are
is i
ĠS alt
ĠK il
Ġmem oir
ĠR ivers
Ġcyl ind
Ġvol at
Ġl ucky
Ġselect ing
Ġadvis or
m itting
14 1
M icro
az i
ĠInstit ution
Ġcontain er
is ch
ĠM E
ĠMo z
N ever
Ġthe rap
Ġcross es
RE F
ag ar
Can ada
correspond ing
g ue
Ġe uro
Ġregard s
Ġanth rop
ĠS H
J ud
r n
Ġprov inces
th ird
in us
Ġsouth west
ĠPart nership
Mean while
ĠM ade
ĠM ut
ĠReg ulation
i ref
Bl ue
Ġt ape
Ġtrad ed
ĠT u
Ġb rowser
Ġback ed
ant ics
Ġst olen
ĠNob el
@ {\
asc ular
Ġqu bits
Ġcompos itions
D s
oph one
Ġfl our
Ġcol ored
Com ple
Ġneighborhood s
am o
ĠSm art
Ġpeak ed
ĠF oot
pr ising
Ġn m
Ġfif teen
Ġdis ks
Ġpregn ancy
ro at
ĠSoc cer
ð Ł
Ġout line
Ġlong itudinal
Ġprem ium
gar ia
ĠK ur
18 5
im edia
Ġaff air
ĠEp isode
Ġsevere ly
Ġnation ally
00 2
Ġvolunt ary
Th anks
Ġcompr ised
Ġf ighters
com parison
W rite
Ġharass ment
Ġrend ered
L arge
)) =
Ġstake holders
c ott
ĠZ hang
par ing
ĠL arge
ĠArt ists
cur ve
ick ets
W ashington
ĠH E
F W
ĠV II
Ġorig inated
ĠPre vention
ĠD od
ĠBut ler
Ġfre ed
ĠComp anies
Ġsp ite
ĠDra ma
hom ogeneous
ap or
j son
ĠB it
Ġgra ve
Ġoption al
ĠArch ived
const raint
et ta
ĠW rest
Ch apter
Ġun ve
l ook
vi ol
ĠT aking
Ġpres idency
[ "
Ġprot otype
5 000
Ġo ct
}} ^\
Ġm amm
ĠCh i
st ad
act ing
Ġperm its
ivid ually
Ġepid emic
Ġexp ans
ounc ill
ĠTr uth
Ġdet ention
C ross
Ġcomb inator
15 4
- $\
ĠBar n
ĠT oy
ad apt
uk a
Ġrad iative
ĠBre ak
mult ip
Ġrespond ents
em e
Ġfund ra
ĠMag ic
ĠV el
B ob
in ians
Ġf ame
ĠFig s
Ġinterview ed
Ġpresc ription
ĠR F
ĠR eynolds
}) :
ĠS ent
Ġcontin uation
Ġsimpl ify
Ġtend ency
ĠNov a
ĠMun ich
aster y
ab we
ĠL it
off set
Ġconjug ate
Ġsp ir
ĠS z
R F
Com ment
Ġman ages
io x
ĠReview s
ĠV ery
s outh
Â »
ro e
m iddle
Ġvi able
Ġsh or
Ġburn ed
ring ton
Ġrenew ed
Ġext rap
Ġexcept ions
ĠBar ack
ĠJ a
Ġrel atives
Ġden y
zh ou
Com mon
eg or
D iff
r f
pl ug
Ġlux ury
Ġs outheast
H F
b ie
in j
ĠA viation
Ġm ounted
Ġcorn ers
ĠV ik
Ġneutr inos
Ġa viation
Ġ[ -
ĠK ind
res a
Ġarbit rarily
Ġfinal s
), \\
Ġed itors
Ġret riev
Ġg amb
Ġvirt ue
Ġcongress ional
Ġmon ument
ĠJ ar
Al bum
Ġrect angle
Ġsett le
c am
Song s
g re
Ġc oding
ã Ģ
ĠĠĠĠĠĠĠĠĠĠĠĠĠĠĠĠ ĠĠĠĠĠĠ
15 2
) </
D ou
Ġtun ing
Ġelder ly
ĠY u
F ind
ĠL ik
Ġcontext s
ser ver
Ġre write
Ġasymptot ically
Ġpr ide
ley ball
ra ment
ĠM ick
15 7
Ġapp endix
Ġrot ational
Ġanalyz ing
L ee
Ġkid n
ific ant
Ġpartnership s
Ġindu ce
18 63
Ġback ward
Ġmaxim ize
pend icular
Ġpropag anda
ĠP os
ĠCurrent ly
am ine
imb abwe
ĠĠĠĠĠĠĠĠĠĠĠĠĠĠĠĠ ĠĠĠĠĠĠĠĠ
O B
s chool
ĠD raft
ĠM IT
Ġint elligent
Ġd ots
=" ../
d irection
Ġsk etch
Ġrel iability
Ġsac red
Ġturbul ence
$ }\
f eld
Ġst er
Ġan onymous
i ov
Ġsculpt ure
n p
Ġwork shops
we ets
min ster
ĠF iction
Ġaccording ly
ĠP rison
Th ose
Oper ation
F ound
qu ote
Ġcl arity
Ġsqu ared
Ġcha os
F ollow
ĠF ish
n orth
G W
ĠY am
Ġinvest ing
RO M
the o
irt ual
ĠVeter ans
ĠH ait
Ag ain
Ġexec ute
Ġess ence
un ting
B er
Ġprevent ed
ĠWeek ly
Ġl ib
ĠCo ach
b racket
clud ing
) )$,
Ġwant ing
Ġup set
Ġpe ers
ĠN an
Ġmem brane
ĠT error
ĠR isk
E conom
Ġpron ounced
Ġprodu ctions
at z
N orm
ĠEm ily
Ġp ec
M ot
c u
Ġre vel
ĠAnt ar
ose velt
qu ark
G od
Q U
C r
pro j
Ġartifact s
in terest
cal cul
ĠApp lication
e as
Ġchampionship s
Ġrefere ndum
yl an
Ex pat
Ġcharg ing
Ġgold en
Ġvic inity
Ġassess ed
ĠMunic ipal
ig g
Ġmanufact ured
3 000
c ussion
Ġend e
ĠLINE AR
r k
ĠMc L
Dan iel
ĠL ions
Ġtour ists
ĠSo on
á ĥ
an chor
Ġprem ises
Ġenj oys
co in
ĠComp etition
Ġexp edition
Ġdes irable
ĠApp eal
D er
S B
= }
chang ing
Ġadminist ered
Ġoptim ize
Ġin ert
Ġpar a
ĠR av
Ġcomplet eness
chn ology
ele te
Re ception
ĠP ul
ĠWall ace
ĠCan al
ĠDe al
_{ |
Ġaltern atives
Ġamb itious
men u
S ep
Ġex clusion
}$ &
Ġmiss ile
Ġemer gence
Ġg est
k ens
Ġg amma
ĠG ene
w ait
ĠTig ers
ĠB urg
ĠAzerbai jan
Ġjo ins
Ġmole cule
o i
m art
it ian
Ġdesign ing
ĠSum mit
Ġpro tagon
16 7
Ġarg uing
ĠRel igion
N a
ol an
Ġbl ess
Ġp owered
Ġm ature
Ġang ry
ĠAr ray
ĠSand ers
sc ience
oth ic
5 50
ĠF a
Ġto b
Ġtom orrow
ĠK l
Ġdes k
Ġdef icit
ĠChap el
â ĪĴ
Ġmus cle
ĠR angers
log y
Ġreflect ing
Ġhierarch ical
ĠC le
ĠFe ature
Ġgradu ation
u ilt
Ġt elescope
Ġa qu
ĠN L
U LT
G Hz
Ġspeed s
ĠV ic
Ġam ateur
Ġminim izing
K im
Ġacknowled ges
ĠS ierra
Ġbranch ing
the se
ĠB ody
Ġcry pt
Ġcomm od
ĠDef ine
Ġun changed
ĠM ann
ĠSu ccess
Through out
Ġcyl inder
ĠR oche
% ;
Ġexhib itions
ĠGl en
Ind ia
H ol
20 8
ĠN athan
ent e
ĠPl us
Ġpursu ing
ĠT ag
Ġhum or
L at
Ġfor um
Ġ[ ]
Ġsup rem
al in
ĠG host
ĠW ag
ĠBelg ian
Ġaccept ing
v ation
ĠAddition al
ĠOther s
Ġinval id
ĠRe ed
Rec ord
Ġp our
ĠC incinnati
Ġavoid ed
UR L
e V
Expat riate
ĠE ston
Ġsupp ression
Ġer u
ĠQ ual
Ġvis cos
ll a
ĠAthlet ics
Ġestim ating
}) ^{-
ult an
I H
ĠC ricket
ass er
Ġf iring
Ġb ol
Ġg ear
Ġo ught
18 62
Ġconf idential
Ġsuggest ions
Ġshare holders
alth ough
cor r
Ġdemand ed
ĠLe ave
Ġpo ets
Comm and
P Y
Ġexcell ence
Ġfin anc
r ceil
im mer
ĠB eck
T itle
ĠObserv atory
ĠPart icip
Ġmod ulation
Ġ[ âĢ¦]
18 84
nav bar
Ġimm un
Ġcommer c
Ġt anks
Ġprot esters
ĠCh and
ĠCl iff
ĠCroat ia
ĠR alph
Ġb alls
Ġre nder
el o
Ġco arse
+ }
18 81
Ġh orn
ab atic
Ġliber ty
cor relation
ĠAst ron
Ġflo at
s al
Ġcol ours
ĠGe or
ĠP icture
Ġcum ulative
Ġ ).
act or
uch i
b ank
ĠIda ho
ĠHar bor
ene ath
ĠE ld
Ġra ises
Ġc ave
Ġtra iler
qu er
ĠSoc orro
20 3
erv ous
ĠCamp us
Ġconsult ing
ĠComple x
Ġper pendicular
Ġed iting
as ures
Ġwitness ed
ĠR achel
ĠY e
it us
ĠIm port
c n
ĠPark s
Ġgain ing
hand ed
l ceil
Ġdef ic
ĠStat ement
I ll
oc ide
Ġreconst ruct
Ġpro pri
ĠV ersion
sin h
à ¦
Ġh ire
Ġcomb ines
;" |
ĠS ah
Ġearthqu ake
Ġterm ination
}, $
Ġal ert
d dot
ĠCol lect
Ġbe ating
ĠGreg ory
}) +
G re
Ġprior ities
Ġcount ed
ĠS old
ĠZ ion
N etwork
u h
unt ed
Ġnon trivial
Ġb acteria
ĠH ob
ix el
Ġincre ment
ĠArn old
Ġhand ful
Ġvol can
Ġarriv es
Ġwe ird
ĠN othing
Ġsa x
ĠD ragon
um ably
Ġ )\
Ġh ung
ĠR enaissance
ch air
sch ild
Ġl unch
Ġor chest
Ġco ordination
16 3
ump ing
Ġinter im
h art
an ic
Build ings
} --
land o
Ġtarget ing
ole cular
requ ire
2 12
Ð ¼
ĠE R
)} ]
Ġbe ars
ĠP O
Ġmultiplic ity
W atch
Ġcol ony
- {\
el ong
ĠHer z
Ġpain ters
Ġa xi
ĠLeon ard
Ġpat ron
eng u
Ġinn ocent
Pro cess
We ek
Ġhyp ers
ĠChem ical
Ġpenal ties
Ġinsu fficient
Ġpat rol
ĠK ids
H uman
ĠHar per
ib an
Ġj ack
22 4
Ġdown stream
n od
AN T
ĠF ernand
Ġex empl
Ġte aches
M ode
ass umption
c b
ĠMah ar
Ġl os
Ġtravel s
ĠB ald
Ġinter pre
ĠB ir
Ġconstit utes
Ġunderta ken
ĠBob by
.\ ,\
x ml
pan cy
ĠR ice
Ġinf ect
R ou
Ġd ancing
ĠB uch
Ġ ell
ĠM N
Ġinvest or
ĠCub an
E s
ĠPlan ck
}\, ,
ĠF O
}} ;
Ġto uring
^{ {\
Ġper sec
Pro perties
h on
ĠG A
Ġart work
ĠB ath
24 5
Ġtw isted
ĠL ives
T arget
ĠN y
Ġingred ients
Ġcompris ing
Ġfavor able
M ah
imens ion
Ġco pper
Ġodd s
Ġcancell ation
Ġfound ations
Ġst roke
Ġdead line
Ġmist akes
Ġcomp lementary
an cer
ĠPan el
16 9
ĠAnd roid
av an
sc ription
R en
Ġadvis ory
weight ed
15 3
ST AR
Ġatt orneys
V C
ĠFilm s
Mult i
ĠH az
at om
Ġany body
Ġphil anth
os ures
Ġforg otten
Ġan ger
yl um
Ġm ount
Ġtra gedy
ĠMed ic
Ġtob acco
Ġpursu it
Ġs orts
ĠCorpor ate
ange red
Ġfair ness
Ġb arg
ĠC ad
Ġabsor bed
lu ence
AR Y
geq slant
}}{ (
N one
Ġre n
rec ord
d ark
Ġuniqu eness
Ġpredominant ly
l vert
m ak
ĠHol mes
ĠB ert
rag ue
mark et
* {\
Ġp iv
Ġch at
Ġident ifies
O H
Ġm apped
Ġapp s
Ġpair wise
ĠK in
it ic
Ġcont our
Cat egory
) _\
tain er
ĠR C
15 1
att ices
m ans
ĠĠĠĠ ĠĠĊ
). $
ĠG az
Ġoutperform s
S ir
Ġsm oke
return s
} '$
ĠColumb us
Ġad s
á »
le igh
Ġev olving
Ref erence
ĠResp onse
os hi
Ġsacr ifice
Ġsign atures
Ġc iting
iz a
ĠInvest ig
ĠF riend
IS E
f itting
ph al
old ing
ĠY uk
Ġcommer ce
Ġquarter back
15 8
ĠWood s
ĠGen eva
ĠLuc as
Ġcontin ent
erv ices
Ġhom osex
Ġsk i
Ġar row
Ġint im
\\ [
Ġmorph isms
ĠBeng al
ĠShan ghai
T ab
ĠC ell
B G
ĠÃ ł
Ġinaug ural
ĠEd ge
sur face
y y
Con clusions
ig nt
ĠI L
ĠâĢ ł
Ġapp eals
ĠK ill
ĠWild life
qu is
Ġbroadcast ing
ĠTest ament
N AS
ĠK id
ac ial
communic ations
Ġmed als
raise box
Ġrep ly
charg ed
Ġtox ic
b rand
ab ol
dra wn
ĠEconom y
ĠV A
Ġco res
}} }}
Ġfactor ization
v dash
f its
W C
ĠSt uart
in aries
ĠD iff
par amet
Ġcreat ivity
eg al
)$ )
Ġdest ro
] }$
Ġag gress
ĠPlan et
Ġbankrupt cy
Col umn
Ġinject ive
D ig
pt ical
Ġarch ive
ĠT odd
Ġcomplex es
Cre ate
ĠA irlines
Ġe ject
Ġexclud e
W ang
)) ^
18 82
Ġtra g
ĠL is
Ġste pped
Ġwithdraw al
ĠB irth
ĠN om
b is
p her
Ġc ens
Ġque ue
Ġre nov
ĠEvery thing
2 13
ĠL amb
Ġplay offs
att r
Ġimp ressed
ĠAng lo
ĠNep al
23 5
Ġenact ed
ĠCanad ians
K O
16 6
ĠF oster
Ġ\ :
Ġacceler ated
Ġlast ing
Ġapproach ing
ĠM ental
18 76
Ġn urse
Ġred e
( (\
T L
Â ·
Ph one
Ġind ividually
Ġprec ip
Ġparticip ant
ĠS or
Se lected
Ġhaz ard
m usic
Ġal tered
18 40
phot on
ut er
Ġke en
s end
ess a
N G
Ġsim ulate
ĠDe velop
ĠRep orts
le w
ĠAcadem ic
is ive
pr us
Ġdevelop s
Ch inese
)\ |_{
he nd
Ġdi abetes
AR D
Ġt ap
ed e
50 1
ĠA F
Ï Ħ
Ġhist ogram
ĠRo osevelt
ĠS ale
Ġsl ower
ĠB ot
Ġroll ing
S at
H o
ĠH ab
se min
ick er
comp are
ĠBudd hist
atter ing
Ch ris
Ġsil ence
Ġfear s
ĠOak land
H as
Ġare na
P rom
Ġplan ar
D ocument
v ideo
Ġide ology
Ġl uck
class ical
Ġm eth
Ġe V
ĠVen ice
ĠHill ary
al go
.\ ]
i ating
u els
Ġdep icts
Ġcourt esy
Ġrac ist
lect ric
B ay
er cis
ĠC ut
Ġrece ipt
Ġcomprom ise
18 75
Ġf ur
ĠS hip
Ġlock ed
Ġl ap
Ġb ike
Ġra ys
Ġdef in
Ġpref erences
ĠFlore nce
}$ };
ĠM atter
ĠGl ass
Ġund ers
ĠFinn ish
Ġm igrants
Ġred und
ĠSher iff
Ġviscos ity
Ġm ines
ĠProgram s
K n
sc apes
ĠNorth west
Ġdefe ating
Ġdraft ed
Ġparad igm
ard i
ern els
Ġemploy ing
en ue
ich i
Ġco in
b ran
ĠLi u
ĠT i
Ġa ster
Ġl on
Ġdesign ation
period ic
sen al
Ġin nings
Go ogle
Ġco herence
Ġcut off
Ġpractition ers
&& &&
Ġg ras
m agn
ĠLat ino
ĠLu is
P roduction
ĠPen insula
Ġexperiment ally
Ġd ose
ĠA part
Ġless er
}\ |\
small matrix
ull ah
Ġpra ise
Ġcro ps
Ġm im
Ġbut ter
umb ai
Ġdom inate
Ġpredict ive
met ric
Ġn ights
Ġsw ing
ups ilon
W el
ĠC osm
ĠF at
ĠRe agan
Ġcat alogue
G H
v or
Ġblock ed
Ġver se
ol ics
ĠM ig
Ġas ymmetry
Ġreg ulated
m r
ĠC hern
Ġd rast
22 2
Ġun ified
ĠH amb
ĠBenn ett
ĠProtest ant
ĠStrateg ic
ĠS ullivan
ut ton
16 2
Ġth rew
Ġar rows
Ġrele g
cont rolled
ĠBro s
ĠR ey
od s
le ad
18 83
ex ec
Ġser vers
Ġinfra red
cos h
C amp
P ower
ke ys
ĠLet ter
am as
ick ed
Ġair line
hy dro
ĠExcell ence
Ġwar fare
Ġsatisf action
Ġimpact ed
ĠJul ia
p es
Ġdis charge
ut ations
Ġport ions
ĠD aw
Ġsuccess ive
\% ,
G F
com ed
Ġgradu ates
Ġavoid ing
Ġquant ization
ĠK ol
Ent ity
Ġr het
check mark
intend o
You ng
ĠDou ble
Ġnot ions
W E
t ar
Ġlo aded
ig o
Ġb rig
m un
el astic
ow ards
rem ove
Ġelev ation
A K
Ġc rown
ul atory
)$ $
ĠVis ual
pp e
Ġh alt
Ġeconom ies
are a
Ġimprison ment
Fil ter
l ater
anc el
Ġhero es
Ġtraff icking
ond o
Ġrevers ed
id ays
ve ction
Ġspokes man
Ġg raphics
F ace
ĠA x
gener ation
Ġiter ative
Rad io
) {$
de velop
ĠCons umer
15 9
F IG
Ġt err
Ġcur ious
Ġinter ventions
N ames
}= -
t rain
ĠK un
Ġshould er
Ġadd iction
M em
ĠB udget
Ġsl ice
ĠJ S
bo ys
class es
ĠFig ures
ipp er
f p
^* _{
6 50
produ ction
P rim
ĠHer bert
oll o
Ġsimilar ities
ĠHol ocaust
n as
Ġun anim
Ġgrad es
h istor
Ġa z
ag i
Cor ollary
)$ ;
Sim ilar
ĠConfed erate
com fort
Ġ( +
18 68
ĠWe yl
in ternal
ĠChar ter
Ġdiam ond
Ġegg s
Ġacc us
ĠS ect
ĠBrook s
Ga ussian
ta king
Ġopen ly
Ġfarm s
ĠI de
rel ations
Ġl en
33 3
oper ator
Ġpref ix
ĠGl obe
k ers
air y
AS H
g as
pl ant
ĠG M
Ġcont raction
Ġpredecess or
ĠA er
App lication
ĠP ere
Ġpredict s
Ġtoler ance
Ġd ressed
Ġtr ump
Ġt idal
h h
Ġg rat
Ġhe aven
ex cept
Ġdoub les
prot otype
Fe ature
b order
^{ *}
ĠH ugh
Ġdis rupt
ĠC risis
Ġtrav elling
Ġexpect s
C K
ĠV ision
v et
d g
Ġl ady
ĠPut in
ish a
fra g
Ġexc av
p ic
Ġth ir
Ġstrugg led
d ynamics
ĠQ uality
ĠGener ation
ced es
Ġph ones
Ġille g
Ġatt itudes
Ġt ent
Equ als
Ġsc re
ven ile
ĠV as
Ġrec ycl
i ens
ĠM ix
od ore
is ors
ĠCab inet
ail ure
T own
Ġnever theless
d an
ĠDec ision
Ġconcent rations
Ġac claimed
20 4
Ġrem n
r vert
27 5
Ġtown ship
Par ameter
, ...
_ .
ha o
Med al
ĠM ul
Ġb icy
bound ary
ĠS ob
lic an
ĠRod rig
ĠPl aintiff
ĠM ills
app endix
ĠH ost
ĠCont ent
**************** ****************
_{\ {
Ġmod er
ĠHar old
c op
17 7
18 67
Ġtim ely
ĠIsa ac
Ñ ĭ
ĠG ilbert
Ġf isher
ĠR onald
17 6
D raw
R ow
ros so
Ġre ass
Ġbomb ing
20 9
| }\
Ġim posing
)} }\
ud s
ĠM aking
ĠCommer cial
ĠM atch
ĠH ess
ĠCre ate
Ġinvari ants
ac a
ĠForm ula
angel ical
Ġdet erior
Ġinstit ute
Ġfail ures
r us
Ġcor pus
ST R
Ġart ic
ĠFif th
Ġdef ended
Ġb ind
ĠU ntil
ĠCirc le
J eff
m icro
ĠRh ode
T s
aj a
Ġfle e
al ong
ĠJ ur
ĠTe V
Mart in
Ġdiff e
ĠInd ividual
*} {\
Ġal ike
ĠSp encer
ĠPun j
ph ones
Def ine
Ġcul min
Ġbar rel
ĠSu z
20 7
\, $
re b
leg raph
ĠP or
ĠCoal ition
Ġrel ied
4 80
ub ert
ĠL ex
: (
Ġin vertible
diag onal
R oyal
Ġrecip ients
Ġshall ow
Ġbound ing
Ġcere mon
Ġro cks
S ar
18 78
ĠR ange
Ġdead ly
ĠSy l
ri ans
Ġimport s
ĠM ail
Ġrob ots
Ġin complete
A ud
ce ive
ĠI F
ĠN ear
Ġon set
Ġca ution
ĠNor folk
ĠAbb ey
Ġdeterm inant
man uel
M ex
l attice
Ġatt ractions
. ][]{
ĠM illion
Ġ }_{
ack nowledg
p ublished
Ġdiv isor
Ġless on
ĠF ix
st eps
ĠB und
ĠCa uchy
Ġtort ure
rie ve
Rail way
Ġun ited
ĠPhys ical
Ġsent iment
Ġtact ics
S V
b eck
Ġconcept ual
Jew ish
Ġs id
plac ian
IG N
ĠM R
v ity
Ch ange
T ypes
h m
p ayer
Se ason
ploy ed
r ise
Ġle ak
Ġpos es
17 8
Ġgard ens
M ur
Ġref use
Â ½
Ġf ut
ĠIn ternal
ĠMet al
Ġb undles
pl ots
Ġcapital ism
el ia
Ġfund ament
gener ated
ure auc
ĠB ak
16 4
Cont rol
der iv
ĠI SO
Ġv ort
ĠS ey
Des ign
im ates
Ġfood s
Ã³ w
stitution al
s olution
Ġte eth
tabular newline
Ġcont ested
Ġcirc ulation
Ġk iller
ĠMil waukee
ela ide
n ear
ĠK ash
Ġoff ence
ĠStand ards
Lay out
Ġw ard
ou x
ĠM ol
Ġpri ests
Ġmerch ant
Ġn inth
Ġa thlete
qu art
ĠRec ently
ĠBr ussels
Ġmort gage
ignt y
ĠImm igration
Ġswit ched
U RE
eg el
Ġto mb
App endix
Ġdepend ency
With out
Ġout lets
Ġsymbol ic
Ù Ħ
Ġhold er
B al
s pl
ĠSol utions
H ig
ĠN P
Ġdisc ount
p rom
18 79
Ġtra uma
vel oc
ĠJul ian
b ane
equ ilibrium
ĠPeters burg
= $
Sp anish
Ġdes erve
Ġout s
pro port
Art icle
ĠMus ical
ĠK on
Ġh ind
k ip
Ġcell ular
ĠP av
ĠM ari
a ired
ĠB orough
count ry
Ġaccount ed
Ġoscill ation
P y
P ack
Ġp unct
ĠO K
ogene ity
ĠLe o
Ġb ab
Ġcon caten
}$ ~
Ġcrit ically
bal ance
ĠY ellow
Ġdec ou
Ġpoly mer
ON E
represent ation
e lected
M ill
ĠB ris
ach i
Ġrig orous
Ġplay off
s ig
ĠInt roduction
Ġobst acles
ug g
ĠZ imbabwe
onn ie
18 71
ĠBl ake
Ġmob il
Ġc attle
Ġpost er
Ġm aj
Ġsong writer
Ġabund ances
abul ary
Ġsc ar
ke V
ï ¼
3 25
Ġbel oved
ĠC over
l it
ĠAr g
Ġche st
d m
Ġun necessary
Å Ħ
ĠAg ent
ĠB orel
Ġdesign ers
Ġpurs ued
Ġrefuge e
ĠReturn s
Ġproduct ivity
Ġbad ly
ĠSt ream
Ġpl ates
er vers
ĠP T
ĠSc ar
ĠTy ler
ibl ings
ĠEv olution
er ie
Ġmod ulo
ĠJo an
Ġimm igrant
}\, .
ĠResp ons
Ġelev ated
Ġspec ification
L oc
T ok
Ġ\ )
ĠHe avy
ĠP om
Th ank
ĠEx amples
M id
Ġsoc io
sy nc
bor o
ĠH av
ac er
ĠPhilipp ine
ĠGro ve
en os
ĠE ducational
pro gram
ĠCom edy
Ġsk illed
Ġcomm ands
Rep ublic
Ġfilm ing
N um
ĠF err
ĠD oll
f m
Ġ }(
prim ary
W idth
ĠO S
Ġess ays
du ction
Ġamb assador
+ {\
r ors
Ġpolar ized
Ġathlet ic
ĠBos nia
Ġb ail
em a
Ġint ensive
ĠPrinc eton
ĠE ight
ĠH alf
Ġlift ed
ĠAl ger
d al
ĠEd die
ach t
sc ore
ĠIss ue
Ġdissip ation
Ġfilter ing
ĠL oss
Ġmart ial
ĠD rag
$ ~\
Th ird
Ġed itions
,- .
ĠEm ma
itt en
Ġmagn itudes
3 40
Ġthr iller
, $$
g ap
Ġf aint
L ittle
Ġattack ing
ĠDem ocracy
18 77
Ġrel uct
Ġqual ities
bro ok
own er
Ġdisapp eared
os ity
ĠW alt
Ġrele asing
Ġhom ology
ore n
J on
h orn
ĠR L
Ġred es
ĠP owell
Pl ace
Ġgener a
Ġap olog
Ġph armaceutical
emph is
in as
mod al
ĠPers ian
leg iate
ĠArmen ian
Ġs ew
ĠClark e
ne ut
TY PE
Ġbroad ly
W R
uli ar
ĠD anny
ĠA IDS
ne apolis
Ġn ervous
Ġperman ently
oy le
ĠM iles
Ġtriang ular
Ġb esides
C ong
Ġanalog y
marg in
to o
bur st
ur c
G rand
Ġdec iding
res olved
Ġz eros
........ ....
ĠAll ah
But ton
ĠBat man
iat ric
Ġco ins
Con tact
as ive
Ġdiscre pancy
Vill ages
Ġmoment a
ĠS uff
Ġfl ags
Ġmac ro
Ġcon ductor
Ġsc ra
Ġinv ented
Ġpubl ishers
Ġwrest ling
Ġbe aring
res ource
ĠSt rong
Americ a
ed uc
ĠBul garia
perform ance
pl oys
Ġdrum mer
Disc ussion
Ġtransl ations
t v
Ġc rop
ĠL E
ast ics
f ilm
ĠSe bast
T aking
ĠDir ichlet
\ @
The ir
hook rightarrow
un i
Ġsc rut
eng ine
ĠSur v
Ġquestion ed
Ġg ifts
iss ues
B ound
ress ions
cer pt
|\ ,
ĠBi ology
Ġprompt ed
st ellar
ĠL ov
h ra
ĠN HS
ĠK err
., ][]{
L ead
Ġproduct ive
Ġpil ots
Ġind oor
ĠM is
HT ML
Ġsurprising ly
Ġe ager
Ġgeneral ize
ĠLaw s
ĠBen ef
product s
Ġe rected
And rew
ow der
a qu
ĠS ox
Ġheart s
Add ress
Ġcricket ers
k an
ell ows
18 30
Wind ow
ĠChe ster
Ġhot els
k w
ement ia
Ġtransform s
ĠR andom
Ġd ictionary
ĠX X
Ġpract ically
Jose ph
ĠSc ript
J oe
the ir
le en
Ġincorpor ating
18 66
Ġpl aus
ĠNetwork s
Ġbreak down
Ġst up
Ġart illery
Ġtrig gered
18 72
S aint
Ġemb race
ĠBi ography
}\ |_{
ĠB ear
ĠG aza
at em
ot er
Ġro ster
ĠG T
Ġestim ators
[ ]{
ĠSh are
h im
16 1
ĠPet e
Ġcat aly
Ġwel comed
' +
q l
Ġlo ose
ĠPalest inians
al most
ĠB order
yp ical
ĠA ctor
Ġpass ive
Ġthr one
ĠBroad casting
term s
Ġcreat or
! )
ĠA bs
. (
h agen
ĠCh oice
Ġsatell ites
ys on
k el
pot ent
ĠMarc us
ad ows
ĠBeat les
Ġb uses
Ġse ized
ercis es
system s
ĠPrinc ipal
Cent ral
Ġo kay
Per form
ĠG ospel
ĠTechn ologies
T ex
Ġhar sh
En ergy
Ġpos ed
Ġ: :
Ġbelong ed
ĠVal ent
Ġign or
Ġfib ers
uc he
st ead
Ġoppos ing
ĠMunic ipality
Ġelabor ate
ĠInd ies
ĠLe eds
23 2
ĠG amb
dot ted
jo in
Ġexceed s
aut o
Ġsport ing
Ġemb ark
}{ .
triangle q
Ġc emetery
Ġret reat
'' $
ĠFran co
ĠTom my
Ġc asc
}: =\
3 75
Ġal umin
ĠPer iod
zh ang
C B
V E
Ġsubgroup s
impl ies
ĠS ym
Ġbel t
ĠGram my
er ness
atic an
Me V
17 1
ĠJohn s
ĠNiger ian
ithm etic
product ive
ri ages
ĠF an
Ġrid ic
18 8
H ost
Ġb if
Ġimag ination
Ġk ernels
Ġprob abilistic
ĠC ould
ĠD rum
ur as
Ġdifferent iable
Afric an
10 16
Ch ief
Ġcar riers
ĠMov ies
er ting
ĠIss ues
et erm
c ock
ann i
Ġstat istically
}), \
ov an
ĠFant asy
at ra
not ation
ĠCong o
ust ers
Ġpat ches
ĠPear l
ĠEm ployment
Ġcooper ative
lay out
Ġperform ers
Ġexplan ations
ĠMethod ist
ĠN EW
18 9
Ġm akers
ĠG and
ra its
Ġro oted
Ġchemical s
av ier
Id ent
* }\
Ġpione er
ĠGab riel
}$ \\
ential s
Ġf el
c aster
Ġf t
Ġsched uling
o qu
ĠO P
om ers
ĠH us
ĠMan ufact
20 6
pe red
ĠGu ild
Sing le
17 3
ĠLib ya
Ġlab elled
Ġnom inal
ĠI BM
ĠĠĠĠĠĠĠĠĠĠĠĠĠĠĠĠ ĠĠĠĠĠĠĠĠĠ
ur ally
Ġdec oding
c ence
ĠCon v
Ġn ep
Ġdecor ated
Ġphil osophical
erg us
p b
Ġw ore
ev olution
contin uous
Ġ! ==
ĠEm irates
ov sky
aver age
A x
Ġin version
ĠMathemat ics
ĠR aw
ĠE rror
Ġs ang
Ġf ron
Ġreal m
ĠProduct s
Ġw ors
Ġprotect ive
Ġb ishops
Ġfix ing
Ġentreprene urs
ĠCare er
n ie
18 74
c ot
ĠSocial ist
Ġexcess ive
Ġspectrosc opic
ĠPal mer
] :
Ġpop ulated
av ailable
ĠDou g
N T
is se
anc ers
cal ing
ĠAv ailable
Book s
pg f
ĠRiemann ian
ĠV ar
Ġsubject ed
role um
Ġf ier
M atch
Î ¹
Ġp orts
ĠN ak
rac ies
I Z
u ating
yn c
Ġsh ifting
17 2
Ġbuild s
sup set
ass o
Ġref ined
Ġred shifts
Ġtre asure
Ġlect ures
ar re
ĠCy ber
ah l
= [
ĠESP N
Ġperturb ative
Ġworld s
}} -\
ĠP H
ĠA ve
ĠAccording ly
Ġpal ace
ĠE PA
ond e
Ġto kens
add y
ran o
intend ent
ĠK aren
ĠConst ant
Austral ia
Ġint ra
ĠS FR
Ġinf initely
Ġend orse
ke ep
Ġemphas ized
E U
)}\ \
cl ock
ĠTh an
2 11
In v
ĠB ent
ok o
ĠArt icles
Ġcustom s
17 4
oc o
Ġhous ed
ĠG rade
Å ¾
Ġaccommod ation
ĠEag les
ĠHel p
ĠY emen
ĠM W
ĠG rass
Ġreject ion
st own
M ike
am pton
Ġdec k
Ġcor rupt
ed i
ĠB anks
ĠPlay ers
Ġdemonst rating
ĠM umbai
Ġfound ers
ogen ic
ĠP ink
Ġanaly st
Ġtrav elled
ins ki
ric ting
Ġsur pass
comm ut
Ġas h
ry s
ĠEll is
Ġl iable
fin ished
Ġal phabet
Ġmer ge
k u
Ġn ons
ruct ive
Ġtermin ology
Ġn ic
Ġre op
ĠG ent
Ġf ires
Ġnot ations
Ġbe ams
over rightarrow
a que
Ġexam ining
Un it
ĠCongress ional
0 10
m ons
ĠCh ase
Ġac ute
Ġpart itions
ĠSp ot
sat z
ĠDisc overy
B razil
Over view
ĠA id
ĠK ap
Ġsh ar
ole v
ie u
Ġreg iment
obs erv
rib utes
cl oud
ious ly
Ġindic ators
Rec ently
I ES
m itt
ĠConcer t
) )}
Ġirre levant
Ġpack ages
e igen
Ġob ey
bas is
d n
Ġcor ollary
18 73
Ġsu ited
Ġrepl ied
De ep
Ġc ad
B ERT
In formation
Ġstat istic
ĠTun is
inter pret
ĠM ario
ixt ures
Ġk nee
d c
and o
Ġab st
ĠT D
Ġadop ting
IM E
l ined
m ac
v ary
Dist ribution
he y
min ent
Ġdraw ings
Ġtrib al
erm any
pan el
Ġbul let
Ġt orsion
Ġresign ation
Ġaccompany ing
Ġm erc
xt on
t m
um i
ĠBet ter
stit ute
Ġb ay
r v
ĠProdu ctions
bat im
ĠJ in
Ġcirc uits
Ġb eta
Ġsh ame
ist ance
H ouse
mb f
ph ysical
Ġres olutions
em ail
ĠD y
ij i
om position
uck land
ĠEnter prise
ib n
disc iplinary
Ġincons istent
Ġb eneath
ent ropy
ĠTh under
omet own
Ġhang ing
Ġthermod ynamic
el in
conn ection
ĠL akes
C ache
m ut
}: \
ĠK i
Ġbi ased
al ymp
Ġadjust ment
Ġment ions
18 4
Ġfle w
W ater
Ġas ylum
ill es
Inst ead
Ġcont ours
Ġtriang les
ĠRay mond
wind ow
by ter
00 3
18 69
ĠMichel le
B ern
Ġtrans cript
us a
Ã Ł
ft en
Ġreveal ing
C rit
18 7
Ġc ock
17 9
L ight
Ġsan ct
Ġsm oking
V s
ĠJere my
L uc
Ġhol y
Ġunf ortunately
Ġapplic ants
Ġdiagn ostic
Ġcon sole
Ġco at
Ev ents
ĠT ell
Ġquant ify
o j
ĠN J
40 1
n or
od ia
Ġsett lers
Ġescap ed
Ġinteg rable
I LL
Ġspat ially
Ġc ig
Ġl ip
c ity
Ġorgan ize
ĠArch bishop
Ġf ru
Ġmother s
Ġprison er
Ġy ard
Ġaddition ally
b eq
Ġst ocks
Ġgrand mother
elect ron
ĠBer ry
tra ce
Ġaband on
App ro
Î ½
ĠO w
sk a
s ocial
ĠPop ulation
Ġh iring
com mer
Le ague
Ġdescend ants
ĠRev enue
H ard
ĠApp lied
Ġre organ
18 48
Ġdisag ree
ĠVlad imir
r ath
Ġconst rain
ĠM BA
ĠP ont
ĠK er
p ine
Ġpl ed
Ġsaf egu
Te am
ĠCitiz ens
Ġw are
Ġs addle
Ġab bre
elect ric
ĠBrad ley
Ġprospect s
Ġinher it
Ġposit ively
ah an
| $.
D ir
V ir
}) }{\
ĠRoman ian
Ġvis ibility
rosc opic
r ational
ex istence
hel m
L AS
F ONT
ĠViol ence
ĠAmeric as
Ġproblem atic
Ġg ig
Ġpress ures
leg al
Ġsp ell
Ġmon etary
ab ases
ĠPar ad
V V
Ġcomplic ations
................................ ................................
Ġd elta
ee k
Ġph osph
ĠCL ASS
Ġsc rat
Ġsy nonym
ĠLind a
[ $
$ ]
Ġun e
Ġle an
C hen
Ġterror ists
iz ard
18 3
flu x
Ġcontam ination
Ġrem ed
T ri
Ham ilton
ĠY a
pay ers
ere st
Ġl oving
ĠA A
Ġtri um
B ad
Ġaccount ability
urs or
ort ium
23 4
ĠJ ob
ĠFl oyd
? )
ĠAn imal
Config uration
B rown
ore tical
00 4
Ġdimension less
Ġes cal
grad ient
re ne
Ġtw entieth
IG HT
te am
ĠCy cl
im en
âĢĿ ).
cess ion
Ġanomal ous
ĠPro file
Ġt ips
Ġp ic
Ġcont ra
| ^{\
et ed
M il
ine q
conn ect
Ġrespond ent
Ġnom inee
ov ic
ĠU T
ĠId ent
ĠEvent ually
ĠC elt
by e
f ix
30 5
Ġb ureauc
ĠWrest ling
ĠM otion
ĠE ye
re ts
P a
Ġwavel engths
ĠFil ip
Ġtransport ed
ou bt
Ġre he
approp riate
c amp
ĠInter ior
ĠU RL
ff ield
Ġw orn
Ġn est
) ]{
bas ic
m any
ĠAh med
ĠH i
ĠBoe ing
Ġde cent
ĠBudd h
ĠG ates
Ġappropri ately
ĠCoul omb
Ġde form
Ġtrust ed
in z
H ung
ĠCy prus
ry ing
ĠCon c
Ġnurs es
ĠWest minster
Ġworth y
ĠUE FA
? :
Ġsuggest ion
Ġrelax ed
Direct or
( &
Ġlink ing
names e
ĠAr c
Ġhe aling
Ġlaunch ing
s ided
ĠR ush
B rien
Ġwhere in
ĠRec ent
Ġinc idence
ĠOr lando
isc her
ĠH arm
Phys Rev
ark er
Ġch ore
Ġadminist rator
ex pect
Al gorithm
ĠHe aven
Ġdign ity
s ame
Ġcompass ion
ĠG ang
}^{ -\
Ġh ull
hel p
ist ant
un ed
flu id
Ġtrad emark
Ġcelebr ating
I J
** *
b oot
Ġr ice
ĠAll ied
ĠBy z
t f
ur face
Ġt ensions
Ġpro poses
Ġab oard
ple ments
Ġfunction ing
Ġorgan izing
ĠCath olics
Ġlat ency
Ġcart oon
ĠC ities
b ay
Ġconfirm s
Ġprior i
Ġb racket
other wise
z heimer
, +
Ġp unk
10 24
Ġkilomet ers
oc c
Ġy eah
Ġutil izing
V an
Ġcall back
ar rass
Ġconv ince
Ġdiv ine
Ġl un
ĠP D
18 6
ĠAd elaide
ess el
Ġcycl ing
Ã ¦
ĠS creen
Ġhapp iness
{- }
Ġanten na
az ar
Ġc f
Ġgra phe
st ret
Ġpers istent
ĠTre k
ĠSerb ian
ĠB elf
ĠCa uc
P acific
l ated
ĠM ob
ĠMc Donald
Orig inal
Ñ Į
ĠEr nest
Init ial
C t
Ġdefend ers
Ġthe ology
Ġconvent ions
y ang
Ġins isted
ur bs
I sl
Ġflo ating
on ce
ing ers
chi ef
ĠDeg ree
Ġp ricing
ĠR ise
Ġcal m
rict ed
Ġhypot heses
18 1
ĠM ull
Ġle agues
pr inc
Ġtrans fers
Ġre lying
ĠA post
ch ant
Ġsacr ific
^* $.
Ġphot ometry
l c
ag ain
Ġcons erved
ĠTh ink
im an
Ġdem olished
Ġlack ing
Ġsup ra
Rele ase
Ġt ram
Ġk pc
Ġsur f
sup ers
Ġcount less
t le
est imate
Ġsem igroup
Ġsens ing
Ġl in
ĠR ams
UT C
ĠHur ricane
Ġbos ons
L ow
n othing
ĠGard ens
ĠR A
tw itter
n om
S G
ĠN R
ĠG rowth
f am
Ġclean ing
Ġbl ast
Ġdon ation
Ġthe ft
ĠH ubble
ĠB P
Ġapprec iation
Ġnum b
An alysis
ĠPot ter
id uc
O s
with in
C ore
22 3
Ġout flow
Ġfra ctions
ĠMethod s
^+ _
Ġtourn aments
ĠH erald
Ġsocial ist
ĠEag le
b ird
enn ium
Ġaugment ed
u itive
Ġcapt uring
ĠCinem a
t emplate
ec a
ĠG rad
Ġdist ortion
Addition al
app er
X Y
ĠEth ics
Ġcomp ares
P ut
h istory
Ġfemin ist
c ro
che l
Ġrenormal ization
Ġp icks
rack ets
ĠB ened
W alk
al gebras
ĠEs sex
ĠH ER
M ember
Ġper f
}^ -
ad j
Ġc ooking
ĠG ross
Ġinsp ire
dec ay
ĠHe ights
Ġmark ing
bu ilt
stan bul
Bet ween
IF AR
Ġan arch
In terest
ĠH T
rodu ced
Ġvir al
Ġper cussion
ĠIn side
Ġa pert
ĠK or
I ts
ial og
22 7
ĠP rague
Ġdevast ating
Ġcivil ization
ĠN H
d iamond
es ar
ĠC AR
] _{\
Ġan ime
Ġprem ier
Ġst ays
ĠSt ri
Ġtrans ient
ist ency
Ġtr illion
form ula
ĠK as
Ġapp ar
im on
ĠInit ial
ign ment
Ġdirect ing
ĠSD SS
Hen ry
ĠUg anda
ĠSw ift
Ġdiscipl ines
ĠC raw
ĠWe ather
ĠP rest
Ġimm unity
Ġ ×
\ ).
er als
Ġstud ios
us c
Ġchap el
Ġanal ogue
Ġinc umbent
$ /
ĠCour se
ĠChel sea
F rame
Ġa u
C G
ĠS ED
ĠB rain
F red
Ġmet ropolitan
comp onents
Ġpuls es
p it
âĢ ĥ
Ġval uation
Ġexpress ing
ĠCour ts
ol ute
Ġtest ified
Ġmake up
Ġhop efully
Ġsqu ee
a eda
ĠExper ience
Ġem ploys
Ġtun ed
S a
Ġshort est
~~ ~
Col lege
ĠPop ular
ĠM orm
}-- \
ĠO m
Ġst ressed
ĠBan ach
ĠF ollow
ĠD NN
Ġion ization
Ġend ors
ĠSp ider
w ere
the m
s ix
Cat egories
Ġstory t
friend ly
b os
Ġgener ous
Ġhe x
oc on
asc ript
R ange
g ie
aw i
ĠMoroc co
Ġen rich
Ġconfirm ation
Ġinev itable
) *
Ġestabl ishes
Ġded ication
Ġassemb led
ĠB ever
Ġfrag ments
Ġexplo itation
ĠHealth care
re x
Ġl ov
ĠC ertain
contain er
ĠAng els
Ġ\ %
ĠTal iban
ĠL enn
ĠEthiop ia
36 5
Ġf are
ĠMin neapolis
im er
Ġprior it
ĠRef s
ĠT as
ov iÄĩ
Ġpoll s
an ch
âĢĿ ),
Ġdeb ates
ĠB rief
ĠL if
++ )
ĠRevolution ary
Ġmanip ulation
ĠEX P
ĠO wen
Ġimp air
Ġnews letter
Ġacc idents
f urt
Ġlie utenant
p al
ĠC lean
Ġqu it
26 4
Ġgen res
ĠSl oven
19 3
Ġkn ot
Ġencoura ges
pred ict
con c
Ġpost ing
L ag
ĠBel arus
Ġst amp
A BC
Addition ally
ĠProt ocol
ĠO z
Ġpar abolic
Ex ec
Ġs iblings
ian ces
ĠQ atar
^* $,
a ft
Ġh int
bi ased
Sh ow
ĠRe id
Ġtrag ic
an mar
P arent
m ask
at ible
Ġch ip
conver gence
Ġpriv ately
ĠChem istry
oc cup
Ġet ern
isc opal
i ol
Ġdemonst rations
ina e
ĠDep ression
Ġanisot ropy
Ġspons or
ĠL oc
Ġmet als
Ġoccas ional
for cing
ĠBry an
Ġax es
Ġinvestig ators
ĠD iana
Conn ection
ĠT at
ĠG ust
Ġsp anned
Ġbehavior al
Ġpick ing
Profess or
ch apter
Ġc ivic
ĠDec laration
Ġthreat ening
Ġan nex
Ġpec uliar
Ġinterp ol
Ġag ing
Ġgirl friend
Ġmut ually
w ould
Ġprob able
ĠG Hz
Ġant is
ĠOcc up
Ġfurn iture
ĠTo o
Ġp ale
Sc ience
`` `
ne um
ĠAdminist rative
U B
Ġtru cks
Ġcollaps ed
Ġimport ed
Ab stract
Over all
Ġce ased
Ġmetall ic
Ġcl ergy
RE E
Ġmer it
ĠCl a
Ġsovere ignty
C ost
s ight
Ġen larg
ĠEc u
Ġinsp iring
Ġlic ence
f ollow
Ġas ymmetric
At l
b les
Al umni
ĠLet ters
Ġlong time
29 0
! }
Ġpredict ing
i ological
Ġre wards
ĠDun can
ma jor
ĠD ylan
pat tern
Ġgraphe ne
Ġle pton
ĠR ut
Ġdro pping
ĠAng lican
ĠCorn ell
Ġsub division
Ġn od
ĠCor onavirus
Ġcommand ed
ag ent
z ig
Al tern
rot ate
ĠI RS
ĠIn cre
Ġemb arrass
Child ren
18 59
^* )
Ġpup ils
out heastern
im et
Ġend emic
ĠObl ast
8 50
ĠW HO
Ġ iff
plan es
Ġm anga
ĠColl abor
F G
f b
Ġsub script
\ ),
Ġrev ival
Ġfeed ing
out ing
Ġinform al
ĠC MB
). \
f eed
en za
ĠAndrew s
CO VID
ĠPref ecture
ĠN ixon
ĠM B
ah a
Ġalt ogether
ĠJama ica
) }}{
ĠPro gress
veloc ity
ad joint
ops is
pi res
Ġharm ful
3 10
L ab
Ġoverl ook
g arian
Ġt riv
ĠK lein
ari ous
ĠT ang
ĠE sc
ices ter
Get ty
Ġ" [
Ġgra ins
rapeut ic
ĠH off
kins on
ĠNurs ing
Ġmen u
Ġdef ender
hor izon
Ġst ance
ĠArm strong
ĠCol in
ĠSalv ador
Ġafter math
or ate
Ġshe af
Ġelim ination
Ġbeh ave
Ġenter prises
ĠM aterials
ĠIndian apolis
ĠV a
Ġactiv ated
Ġd ys
az y
Ġdece ased
ak ar
18 2
Ġover see
enc ia
18 57
Ġsup erm
Ġsimultane ous
Ġcombinator ial
Ġadvis er
s z
Sm all
Equ ation
rab ility
ĠT all
Ġat tained
w ent
Ġst iff
» ¿
Ġint imate
rel ative
en v
3 70
ish ments
F oot
3 80
ĠSch r
Ġsupport ive
Ġcon current
ens ation
hy p
est e
Ġper ipher
ari um
Ġn ose
f ollowing
is ers
var sigma
ih ad
r ub
ud ed
Ġclass ify
Ġmass less
rug u
group s
A z
ĠWag ner
ic ion
in ent
Ġ= &
Ġb apt
rog ate
Q CD
Ġdispl aced
22 6
y u
ĠN SW
rid or
scal ing
Ġtext ure
ĠE L
ĠSch warz
f air
ec hes
Ġrel ocated
in vest
Ġst unning
Ġdetect ing
{- .
rit ies
Ġvalid ate
atin um
Ġad equ
ĠT rial
cy l
Ġfil t
sw ick
Ġar ithmetic
ĠC ob
ĠEngine ers
ĠJo el
ĠJess ica
g rand
fram ework
l ived
Ġ( '
mod ern
Ġlo ading
ian i
ract ing
}= -\
Un fortunately
Ġ })
Ġh ills
Q A
ĠD ol
Ġsystem atically
ĠB L
i eg
ĠW aters
Ġcommun ist
Ġreson ant
List ener
Ġcov ariant
Ġliter acy
Ġu ph
Ġmemor able
)) )
CO L
Ġinter cept
Ġexcit ations
ĠV atican
Ġcont ing
H u
ĠN GO
ĠE D
Ġr ises
Ġcoordin ator
Ġcolon ies
Ġthorough ly
il inear
former ly
les h
ĠC lear
ther mal
ION S
Ġf ool
ĠW ould
ph on
Ġinf antry
ĠH app
Ġdiscrim in
n ick
ï »¿
Ġamb ient
cons istent
30 3
ĠMot ors
ĠWrit ers
cer y
B ra
ask at
ĠM ead
um en
load ed
ĠCh ancellor
Ġmit igate
et e
Ġclin ic
Ġbeat en
Ġsho es
}=\ {
w s
ĠRel igious
ĠAgric ultural
k ed
ĠE W
Ġst ip
ian e
Ġsat uration
30 4
r ans
ge on
Ġnob le
Ġd rain
b v
Ġdon or
it ably
ĠR T
ĠD raw
ĠF ul
esp erson
ĠPal m
Ġdistrib ute
Ġsubst ances
t n
Ñģ ÑĤ
W estern
Ġcontract ed
ol er
ogn ition
sq cup
M u
Ġspect acular
ĠNe umann
Ġinfect ious
end ant
Ġline up
Y S
Y et
pro ved
Ġfl ip
ĠR s
ĠV eh
Ġgu ards
ĠPublic ations
il ogy
ĠM emphis
Ġle x
do es
Ġal beit
ĠF I
ill ation
osp ace
Ġsubst rate
ĠN as
23 1
Ġmagnet ization
ĠI MF
Ġinter change
Ġmat hematic
ĠDer by
Ġdem ographic
ĠCent ers
Ġcolle ague
Ġdepos it
Ġelectron ics
Ġmin eral
ĠDur ham
ar cer
sm ith
ĠHen ri
it an
ĠAn a
Ġcru el
ic ism
ĠM ine
Ġsk et
Ġst ones
iff e
Cont roller
Ġobs ervers
ĠRoll ing
ĠW inn
ĠN intendo
Ġsupp ress
col m
Ġcommun e
Ġsl opes
Ġdepos its
ĠD ow
ash tra
Sw ed
ĠG C
ĠEx ception
Ġincent ives
ĠG O
Cal ifornia
ad v
ĠP apers
ĠPubl ished
Ġnow here
Ġadv ancing
fe ature
iling ual
Ġform ulate
ĠAd S
ig ue
DE s
ĠI M
Ġevent ual
ĠSol omon
ĠBas ic
ĠJ ung
ope z
ĠP aint
ĠD ale
Ġparamet ric
ĠLyn n
Ġ( @
Ġannih ilation
un ov
Ġprocess or
] ,\
Ġenc ode
Ġunsuccess ful
I mp
ĠCh uck
Ġrecru ited
b ands
ĠA ges
ĠW E
Ġour s
Ġqual ification
im uth
Ġcondem ned
Rem ark
Ġt ired
ĠR ah
) }^{
Ġde lete
ĠH ass
ĠÂ «
en burg
Ġform ats
Ġen v
Ġsovere ign
Ã Ĺ
ĠC ash
Ġovers ight
ĠWy oming
ĠEcu ador
f orth
Ġcho oses
ul ent
IN D
roll ing
Ġacadem ics
Ġninet eenth
S pr
ĠKaz akh
ras er
Ġminim ization
us hes
Ġsepar able
ĠGl enn
ĠOut standing
ĠNew castle
d ependence
Ġtra its
Ġst rand
ĠWars aw
e eq
ĠConstitution al
Ġhist ories
ram id
Ġsu ite
Ġchar itable
ou p
ĠR O
$ ^\
ĠDav ies
Ġtheorem s
Ste ve
ig ating
Ġaud it
Ġfilt ration
Ġrock et
rm k
Ġ< !--
Ġmin us
uls ive
}} |
ĠVirt ual
ost ics
Ġp adding
ĠKn ights
Ġfro zen
spect rum
fl ows
ĠEvery one
22 8
iod iversity
st yles
Ġsem antics
Ġdepend encies
ĠS ections
g ary
ĠD etails
idd ing
' }{
pt ed
$ ^{+
m orph
Ġs lic
et ically
Ġphilos opher
Ã ī
ĠPo etry
d rew
,\,\ ,\,\
D oc
Ġ> =
Ġrev ision
ĠVol unte
Ġpack ed
S elf
Ġbreak through
Ġsubsc ription
sc ribe
itect ure
C learly
Ġn erve
Ġevalu ations
ĠA uckland
Ġgovernment al
Ġexclud ing
Ġsquad ron
Ġorgan izational
Ġbi ases
ĠBa iley
Ġl akes
um my
Ġto ured
Ġmerg ers
2 16
ĠF ra
Ġcan on
ant om
ĠCond itions
È Ļ
l iter
( |\
ĠN ormal
\% .
Ġthrow ing
ĠS qu
ap ing
Ġlaw makers
riv ed
Ġcommit ments
he v
Ġnovel ist
ul in
Ġcryst all
clud e
urg ery
ĠSim pson
let te
oy age
ĠAss essment
oura ble
Te ch
Ġshock ed
rest rial
ĠRef erence
any on
ĠN W
M eta
ric ia
ograph ies
Ġenjoy ing
Ġkinem atic
ĠV e
ĠPan ama
\ >
ere k
{ %
Ġad i
Ġbas elines
ĠMos es
ĠC ec
em bourg
Ġref eren
pt ons
Ġk iss
Ä Ł
Ġun law
Ġdec ree
_+ $
ho e
{ #
ĠC e
Ġgl uon
Ġdom inates
P osition
Ġpack ets
Rep ort
cat egor
Ġcle ared
ar r
ĠB rid
sp eaking
ov ina
ĠCat egory
m el
Ġcreat ures
ĠD P
Ġplay wright
Ġfulf illed
work ing
M arg
v d
Ġb ell
ĠIll ust
Ġflood ing
clud ed
Ġ' '
ĠDes ert
col sep
ĠIS IS
act ory
ĠQu estion
ĠRichard son
Ġminor ities
Ġcasual ties
qu est
ĠH aven
Ġinf lam
S ta
oper ation
Ġdegrad ation
Ġplaintiff s
Ġnep hew
ĠN ine
Ġreg ulate
Ġnon negative
en es
Ġcelebr ity
ĠOpp ortun
Ġyield ing
lev ard
G ermany
Ġtax payer
Ġl ag
ĠUS D
ĠCard inals
ĠUnd erg
Ġrespect s
Ġw it
Ġ\ ,\,
tr uth
' _{\
p atch
c orn
sche me
oc aly
ĠO g
Ġam en
22 9
En vironment
li u
Ġfunction ality
f c
ob ic
ho o
Ġast roph
ĠWrit er
V ec
ĠT ampa
ĠK umar
esp ecially
const ruct
rosso ver
Ġtim ber
ĠAch ieve
ĠR af
$\ %
ĠMod els
y d
ĠV III
23 8
part icular
ĠMan aging
T reat
Ġl iver
ĠTour ism
os i
oot s
Ġsol ver
ĠB ag
ai res
Ġ& -
vi o
)\ |
Ġassign ments
Ġmach inery
Ġfoot print
ing o
Ġsuccess ion
ĠM onst
z el
Ġs ung
Ġrecogn izes
Ġscre ens
Ġdamp ing
pa id
ĠGib son
mathb in
24 7
Ġden ial
ĠTreat ment
i q
ĠA U
ĠDist inguished
Ġprev ents
Ġinv itation
D id
ip eline
ĠĠĠĠĠĠĠĠĠĠĠĠĠĠĠĠ ĠĠĠĠĠĠĠĠĠĠ
IS S
T our
m g
ĠL ac
1 200
th us
ars er
ir atory
Ġcontract or
Ġen umer
ĠCom pl
29 5
Ġpast or
ĠW end
En ter
ĠR us
ĠJ up
ur rection
Ġto y
Ġhost ile
Ġem itted
ĠMan uel
ĠTh ai
L Y
un ion
Ġbin aries
I mm
Ġaugment ation
ĠW ant
arc sec
Ġarchitect s
IS A
Ġwh olly
im ag
ĠDat abase
B undle
ill on
ĠAl zheimer
Ġ Ø
m us
Ġcriminal s
C ard
Ġex ercises
Ġdisc ourse
is ure
ĠS weet
ra ining
mon ton
oura ge
ĠWell ington
t p
Ġh ometown
m ove
ĠK r
Ġancest ors
Y eah
ip ients
F K
Ġmod ulus
G rad
Ġfort un
Academ ic
Ġh iding
u ably
art en
ĠBris bane
}{ -
^+ (
Ġcontact ed
=\ ,
ruct ures
Ġton ight
Ġurg ent
ĠArch ae
T agged
Ġ ...,
ynam ical
Ġincent ive
equival ent
math ring
ess ential
Ġconduct ivity
Ġgreen house
Ġaffili ate
at able
ps frag
Ġp ink
ĠM az
ĠElect ronic
as ta
pos able
ĠRes olution
ĠMc Car
Ġc ube
IT E
)} +
Ġrun ners
ĠSte phan
it ars
ĠM om
Ġpres umably
St ill
ick et
ĠF olk
vent ional
Ġreb uilt
ĠP erm
Ġcomputation ally
play ing
Ġout going
Ġcomm enced
an ol
Ex amples
Ġd ining
vers al
)} +\
ĠRes erved
Lou is
B esides
$ _\
Ġmore over
Ġindirect ly
ĠSw an
Ġdiscl osed
h d
ĠS ultan
ĠInt el
p ent
Ġexplo ited
ĠYugoslav ia
Ġwhere ver
c ies
F ort
Ġp ays
Ġed it
ĠA ber
ĠI gn
Ġme al
ĠK urd
Ġrespond ing
ĠÃ Ĺ
V ER
ho ff
Col lection
Ġtum or
Ġconcent rate
ergus on
c as
ĠS ak
eral a
produ ced
Ġaccum ulated
Ġment or
ting ham
R P
Ġsoc ially
âĢ Ĥ
ĠL ed
Ġauthent ic
Ġhol idays
inf all
song writer
ĠBal let
ĠQu antum
b atch
M ake
ic us
Ġfe ver
k al
Ġtheat rical
ĠA CT
omorphism s
Ġaer ial
ĠNap ole
. }}
ba um
Ġdivid ing
Ġge ographical
ĠS ure
Ġrelig ions
prop ag
Ġr h
With in
H op
M ont
Ġor n
Ġmerg ing
Ġ[ [
{ -\
Ġres ume
Ġ" \
h ref
ĠSt op
ĠTw enty
ĠR S
ari at
spec ies
ĠC B
Ġincl ination
ĠAdvent ure
F ont
ĠA ur
Ġ+ (
Ġrend ering
ch art
ort heastern
ĠS V
Ġencoun ters
S erver
n ar
ĠAdminist rator
Ġeduc ators
AN S
Ġresid ing
co e
he ll
Ġpl ural
Ġbre eding
Ġgod s
Ġremind ed
S ett
an ium
Ġreprodu ced
ĠAbd ul
Ġre min
ĠPakistan i
P red
18 54
ace ae
Ġdis semin
Ġdiss ent
ĠHard y
in sp
trans ition
Supp ort
Ġcollect ively
Ġsur jective
ew ard
Ġup grade
st ars
Ġpro gen
ĠSus sex
w i
ĠGib bs
ru ed
Eng ine
b id
ĠMem ory
l Vert
Ġcollabor ated
Pro gram
Ġtow ers
ĠGa uss
t uning
t ons
Ġcan al
Ġre pos
ri o
lim sup
ĠM ik
Rec ent
Ġfl aw
Ġlabel ing
Ġaltern ating
ĠH REF
iv o
40 4
Ġmurd ers
Ġfac ial
Ġspectrosc opy
Ġca ption
Ġmar itime
< ?
Ġsub stitution
Ġdom inance
tz mann
ĠCar roll
ĠEmm y
Ġb ones
S om
bo at
Ġinterf aces
00 7
Ġmonot onic
t ool
w iki
Ġcur ved
i ott
ĠB O
Ã© l
Ġterrit orial
ow itz
Ġviol ate
Ġpro long
Prob lem
Ġb eds
ĠR ee
ĠLear n
Ġdisappoint ed
n is
2 14
ES CO
Ġlif ting
Ġinvent ory
Ġarchae ological
Ġspl its
Ġpit cher
var iance
ĠBar nes
g auge
Ġem peror
ĠH ack
Ġnot orious
Ġcru ise
Ġcrow ds
on ts
ĠT iger
}) \\
roph ic
. \,
ir cl
Ġtouc hed
Ġsub urb
Ġvis itor
)^{ -\
E mail
se lected
ĠPro ceed
Ġsumm ation
ĠDev on
Ġ$ ^
* ,
v m
ĠCh ad
à¤ ¾
| ,
18 56
Ġvis a
Profess ional
US Y
ĠR GB
Ġvict ories
opl an
ĠGe off
Comb ining
c in
Ġthe aters
Ġre bounds
ers en
Ġ& =\
18 58
Ġcl erk
ĠF ocus
Ġfin est
Que en
ure ment
I ran
Ġge ographic
ÑĢ Ð°
ct r
Ġmes on
Ġfar mer
Ġbrut al
ill ary
Ġpian ist
ĠG ender
J ournal
W ood
ĠIm ag
M oths
ĠE t
Ġimp lying
integ ral
H aw
ĠJeff rey
,\ ;
ns ic
F un
Ġs ink
Ġcho ir
Ġrent al
C ritical
Ġl ane
Ġtri o
Ġperform er
open hagen
Ex pl
Ġcor ps
Con v
al is
et itive
sub ject
ĠJul ie
ĠJam ie
Ġplanet ary
ĠG or
U rl
Ġterm inated
Ġaggreg ation
ĠArmen ia
Ġce iling
Ġthrough put
18 51
Ġaver ages
Album s
s ed
Ġcot ton
ĠG y
own ers
ph r
Ġlength y
Ġque en
Ġqu otes
99 9
18 55
Ġsol ves
16 00
ot ics
Ġanaly sts
ud er
ĠSt okes
Ġre lic
lu x
Par ameters
isp here
Ġreview ing
Ġtens ors
Z hang
Ġacadem y
ixt y
Ġappro ve
ĠW IT
Ġobst acle
A H
Ġt ong
Ġthe or
im o
Ġqu arters
section s
cm id
Ġhonor ary
ĠB in
Ġsur render
Ġc ure
Ġun rest
Ġhere in
Ġalt itude
ĠComple te
Ġentertain ing
ĠInsp ector
Ġpurch asing
Ġtal ents
cmid rule
ĠPaul o
ĠDi ocese
on ormal
Ġmicrosc opic
Ġmed i
ĠMc D
Ġf o
ĠEst abl
AT H
Ġund efined
Ġprem ise
3 15
}\ {
eyn man
Ġind ef
Ġref inement
Ġdeleg ation
Ġo wing
ĠMor rison
ĠD j
Ġfil tered
ĠPent agon
ĠL ay
ear chers
Ġrun time
CO M
Ġattack er
Ġpossess es
Ġover ride
Ġemail s
b ool
Ġp ap
ĠT ags
Ġint end
S ol
Ġsecre ts
w yn
ĠArgent ine
Ġdes erves
Ġforb idden
Ġpar am
Ġvisual ization
orth y
no align
Off set
Ġre written
ĠU pdated
t ml
ĠViet namese
ĠK yle
Ġmed ication
Ġimprison ed
Ġhelic opter
R N
Acknowledg ements
Ġlic ensing
que z
R ank
ĠS hen
Ġsp ans
ĠStock holm
T em
ĠCo ordin
ĠFem ale
Ġappeal ing
ĠĠĠĠĠĠĠĠĠĠĠĠĠĠĠĠĠĠĠĠĠĠĠĠĠĠĠĠĠĠĠĠ ĠĠĠĠĠĠĠ
ĠEv idence
F alse
ĠRh odes
Ġaw esome
Ġrandom ized
inc ar
Ð½ Ð¸
ari us
Ġsimplic ial
he ng
p se
Ġacceler ate
Ġhold ers
byter ian
24 8
ĠSh adow
ĠC ay
ĠSecond ary
Ġretriev al
New ton
ĠSh ield
ref n
ĠQu art
Ġcost ly
Ġanaly tically
ĠFor bes
othe rapy
ĠW er
const rained
}} ]
d ad
Ġan ch
ĠW A
c opy
ĠF o
Ġec ological
Ġrec k
Ġarch ives
F ederal
hand le
ĠAb original
B ody
ol ith
ĠB un
), $
Ġdon ors
le ges
ĠOrig inally
Ġsm ile
Ġtrac ed
T F
Ġforth coming
ĠLyn ch
Perform ance
Ġdub bed
B ul
Ġin acc
Ġsp acing
ap est
ĠSol id
ĠP rec
23 7
est y
Ġsem if
ĠRef uge
Ġshe ep
Ġg ymn
ĠAnn iversary
Ġapprec iated
ĠK nowledge
ort ions
Ġm ism
Ġd iox
S eries
ĠFor ward
Ġman ually
ĠKenn eth
Ġprotagon ist
J P
cer t
Ï ģ
ĠGrand e
av i
B Y
ĠClass ical
ol and
and ro
ĠP orter
ĠHend erson
)\ ;
Ġbom bs
m ile
arch ive
ar u
label ed
ĠE b
pol icy
In vest
pm od
Ġconsum ed
Ð¾Ð ²
Ġch lor
Ġinterpret ations
ĠL or
Ġbas in
ant le
math rel
ĠBrun swick
Ġimm ers
ĠF P
Ġsupp orter
Ġinc urred
23 6
o in
Ġw ise
ĠSc i
re ma
Ġbuy ers
Ġrul er
f ac
Ġex changes
ok esperson
Ġrem edy
Ġrank ings
Ġhe d
Ġc ris
run ning
Inter face
dev ice
Ġvac ation
Ġcongreg ation
Int eg
M Hz
ĠF alse
23 3
Ġbi om
or um
ĠS aw
Ġsex ually
Ġn ond
Ġwhere by
Ġredu ctions
ĠC lick
ĠP rat
ry ption
d B
Ġoutl ook
J ones
ĠSh i
ĠH appy
Ġbel ieving
Ġreson ances
ĠBor is
Ġexp ed
Ġt enth
Ġassess ments
position s
ĠS Ã£o
Ġrect angular
I refn
she et
Ġh orm
ĠShe ffield
Ġinj ust
Ġtrunc ated
ular ity
26 5
Ġim pe
Ã± a
ĠC yr
Dem ographics
mark s
Ġconv inc
ĠG OP
Ġj umps
ĠS ic
o fficial
Ġdirect ory
\ `
im als
ĠLuc y
ĠGarc ia
i ably
ĠFran Ã§
Ġunder way
ĠSac rament
Ġnumb ered
Ġt ales
Ġdiscret ization
Ġneighbour ing
Mod ule
ific ates
ĠFl ag
Ġloyal ty
ters on
aur us
ol esc
symmet ry
Ġin ability
Ġintent ions
Ġram p
Ġmorph ology
Ġflo ors
f red
)$ :
l if
ĠAct ress
Ġl attices
bal anced
ut z
is le
ĠA way
Ġtransl ates
ĠEff ect
. }.
s r
Ġprogress ion
ĠSustain able
Ġblock ing
ay ette
} ''
In s
big cap
Ġcontrib utor
ĠGu atem
h ash
Ġext inct
Ġmain land
c one
l ift
ĠExhib ition
3 45
ĠB av
ish i
ĠDO I
Ġb orough
ĠC anyon
ĠTe aching
Ġwith drew
Ġeduc ator
Ar thur
Ġcont empl
Ġa pi
Ġprosec utor
Ġen forced
Ġph armac
tt ar
t ry
Ġf riction
Ġim plements
rib ing
ne ys
C ov
N ormal
ĠA ub
ring e
ĠS askat
Ġgal actic
b org
resp ons
Ġviol ating
y i
Ġout reach
ĠT elescope
Ġapp rent
im ization
Ġex otic
_* \
log ical
ĠAct s
F ac
Ġfore ground
r ina
ĠK iss
Ġhear ings
is enberg
ĠL STM
19 1
EX T
j ournal
ĠNY C
Q ual
Pol y
n ucle
N i
h urst
Ġfort une
ĠP ain
Ġund erest
Ġpetition er
multip ut
P ay
it ures
ish able
Ġnetwork ing
Ġsub spaces
Ġimplicit ly
dimens ion
Ġcoordin ated
M AP
trans fer
F iled
Ġorgan isms
f ounded
\% )
Person nel
Ġdel ivers
with standing
]{ @{}
ĠQ ur
B road
ag onal
Par ams
Ġanisot ropic
ĠMan it
d etails
ĠP iano
]{ $
V ector
L ock
ĠT es
Ġver dict
itro gen
enz ie
Ġf uck
ĠS of
ĠEll en
ma ch
Ġpract iced
ason able
â Ħ
spect ive
Ġimag ery
Ġdist ancing
Ġcancel ed
k ernel
Ñ ĩ
Ġf r
Ġcap ita
L es
r Vert
Car l
\ #
set up
hard t
t rad
Ġserv ant
Ġinf ant
() ->
ĠL S
deg enerate
Em pty
Ġ{ (
Ġdesper ate
associ ated
' ^
l ord
20 30
ĠL odge
Ġeffic acy
Pol icy
23 9
ĠK end
Ġl oses
Ġpur ple
Ġsw ord
ĠCard inal
Ġfilm maker
ev ents
ĠH od
ĠSt arting
Ġplaus ible
che t
H ash
uit ively
Head er
Ġl ensing
ĠL ar
T ON
#### ####
Ġcon cur
ann ers
Ġg reet
ĠW ere
ĠK urt
Ġdeliber ately
b g
ĠUnivers ities
con clusion
Ġbary on
Ġspont aneous
over view
Ġexpect ing
ĠF lem
tikz cd
Ġbif urc
I ter
list ing
K M
- )
Ġp ist
Ġdis posal
sh a
Ġp orn
fra red
}{ (\
os ion
h p
ĠAssoci ates
R ound
Ġby pass
ĠHe at
ĠLa placian
j j
const ruction
H ey
ch oice
Ġax ial
Ġassass ination
Ġfluct uation
S pect
Ġpreval ence
ĠPlay Station
g reat
Ġteen ager
re q
Ġform ations
Ġaut obi
Ġmid st
ĠE rd
Ġk ings
Ġent angled
ĠV ers
Ġsk ip
Ġmag ical
Ġg ly
)= -
Ġcl a
Ġcommission er
Ġoverl apping
Ã ¯
ĠZ ero
Ġdest inations
Ġcast ing
Ent ry
ĠH P
ĠJ ake
ĠScholar ship
Medal ists
ell ation
ĠV ern
ĠAl pha
Ġjust ification
ack ed
Ġloc als
Ġsystem ic
ĠTrib une
Ġcon ceived
un ique
ĠE ST
ĠOffic ers
Ġfact ories
Ġspace craft
Ġemb ry
Ġvacc ination
ĠCal gary
op a
ĠRuss ians
Ġd ock
A h
ĠL iga
Im port
n ut
y outube
Ġclar ify
Ġserv ants
ĠRes Net
ĠIndust ries
ĠF ashion
)\ )
^{- (
)\, ,
_* $
Ġa rose
it ism
Ġoff shore
ĠD esc
ans on
bran es
I rish
Ad am
30 2
hen ce
Ġb ust
ĠBl air
Ġprom otes
om ical
ĠHe ath
Ġc of
Ġreven ge
Ġob j
40 5
I AL
L ook
Ġconf inement
Ġcol span
Ġt ender
30 6
Ġdelet ed
ad ays
c A
ĠMon roe
al p
ie vers
ĠĠĠĠĠĠĠĠĠĠĠĠĠĠĠĠ ĠĠĠĠĠĠĠĠĠĠĠĠĠ
ĠSt rat
doc s
Dep artment
quart ered
| +
Ġdelight ed
hold s
}} [
F ive
c H
d ia
il o
ĠB G
________ ________
ĠAh mad
Con ver
Ġbur ial
Ġver b
ĠC av
Ġt agged
ĠK erry
Ġi Phone
Ġrev is
Ġfl are
Ġassoci ates
ĠE valuation
ĠMar tha
Ġmultiplic ative
p owered
Ġexam ines
Ġj oke
Ġmiss iles
path y
Ġinduct ed
omed ical
- .
Ġenroll ment
Ġwid ow
Ġsepar ating
j ee
ĠAnd rea
ĠArt illery
Ġra infall
Ġarbit ration
ĠCond ition
ĠFram ework
Ġarg uably
Ġlisten ers
ĠR um
ĠTe h
b ons
Ġcha otic
ĠBelf ast
ĠCD C
as ympt
Ġint uition
ef ault
ĠJosh ua
ĠPunj ab
Ġg a
Ġaest hetic
ĠMy anmar
Ġf idelity
Ġdoub led
e i
ang les
yp ically
Ġalle vi
ĠKe ep
L ower
M arc
ĠE isen
Ġrid ers
ĠSh ore
un ivers
28 5
M att
U pdated
eop ard
wh ose
ĠIndones ian
imod al
Ġat tain
ĠAr ist
Ġport al
Ġp ocket
ug u
Ġ> >
ĠInit ially
i ants
b ol
Ġp ub
Ġinc arcer
Ġsupposed ly
ĠPy thon
K T
qu estion
Th read
= &
ĠC W
ĠN u
Exper imental
pl ess
ĠBel ow
ĠAp ollo
c M
Ġcl an
Mod ern
ĠEn c
Ġarg s
Ġsp heres
ip se
Ġopp ose
Ġp ig
Ġnot ification
cycl ic
i ya
att ention
ma re
ĠRev ival
ĠO st
R ule
Ġperm utations
ĠWes ley
C lim
Ch annel
: </
on er
Ġre habilitation
Ġdiff use
| <
ĠDev il
Ġdestro ying
ĠSche dule
ĠL R
Ġsubmar ine
Ġmonot one
D IF
i ago
en ary
ĠJes se
ĠâĢ º
ocol ate
T rad
Ġrhet oric
ograph s
Wind ows
Ġb acter
q a
18 49
Ġse iz
Ġpar se
Un like
zy me
He ight
head ed
Ġinstruct or
D ifferent
Ġl ighter
orm s
4 40
Ġpull ing
âĢĶ âĢĶ
Ġexceed ing
Ġinv oke
Priv ate
ĠT arget
Ġfinanc ially
Ġrec alls
mu gg
at ta
ident ified
)} -
Ġdat abases
b ys
z t
pl oma
Val ues
K P
ĠV illa
we i
Ġair ports
arm acy
Ġsolid arity
ec he
ĠIn g
18 52
Ġupd ating
ĠProp het
en o
av ia
ĠYank ees
umber land
eg an
Ġan satz
ke eping
AM P
h ouses
ĠT E
se mi
Ġpip e
F lo
ĠLou ise
min imum
AT ED
Ġepid em
ĠT ong
ĠN orton
Ġspecific ations
!! !!
D a
ĠOb viously
al one
ab c
M ale
ĠSing les
ag le
ast ed
ĠRe ich
m rm
ac ional
}$. }
st ed
Ġresid ue
Ġo mit
F low
Ġpar as
ĠPl atform
ĠLes lie
h ift
Ġt ear
Ġsem ester
function al
F und
Ġg ospel
L im
m eter
ĠS ons
proport ion
ett es
Ġf iduc
ext ension
ĉĉĉĉ ĉĉĉ
ott i
Ġp c
4 10
=\ !
ats u
second ary
Ġdup lic
Ġse al
^{ '
á ¹
ĠT agged
Ġretail ers
ĠP ac
ĠLeg acy
N F
ĠPed ro
Prov ider
ĠR AF
eg ovina
Ġrow span
ub le
ĠE aster
3 12
p ract
ĠT X
ĠC ounter
ĠP and
vari able
Ġkick ed
S ession
ĠD L
Ġpat ents
ok u
Ġinform ative
R ussia
t oken
ar in
Ġb ug
cou pling
ĠCurt is
pre ceq
ĠW ords
l ore
AP I
ĠMerc ury
L iber
l g
if a
gl ass
ĠF W
Ġr ush
ed o
!! :
ĠMedic are
Ġriv als
ath olic
Ġinnov ations
ĠRoberts on
ĠFried rich
Ġtim est
ĠBrown ian
neg ie
ĠP am
Con tainer
Ġgen ius
em ia
op hers
ited efault
Ġref usal
mc itedefault
ĠEll iott
Ġtimes cale
Ġthreshold s
Ġdiscl ose
ĠI stanbul
Ġhe uristic
ord ial
J ean
Con sequently
R h
our ced
ĠJac ques
Ġprosper ity
p seud
ĠW rite
24 4
Ġposition ed
% ).
ĠDist ribution
ĠAssist ance
sh ine
ĠBur ton
k pc
inter face
Ġk ills
rob ust
ĠC ork
ĠW ol
================ ================
Ġin tact
Ġgl ory
ias m
oubt edly
ER N
pri or
Ġaut onomy
ĠI X
ter ror
ĠLe icester
) &=
}) +\
Ġ$( {\
H or
Ġm ouse
Ġmet eor
Ġel dest
Ġfundra ising
ĠS Ne
ĠSu ite
l ar
Ġscholar ly
ĠC openhagen
ht m
ĠEn forcement
u ance
ov i
24 6
Ġlater al
Ġshe ets
Ġhead er
ĠTh r
Ġlack s
ĠI O
av g
sh ots
Ġcosm ology
4 20
ĠL ak
ast ro
Ġinv ite
0 25
Ã¶ n
Ġnucle on
Ġliv est
ĠW ire
Ġat he
i ast
ĠR ole
pp y
Ġm aker
Hon ours
ll ll
ĠMon itor
ĠJoh annes
ĠP oss
Ġcar ing
por a
scal ar
ĠLanc aster
Ġt ears
Ġn aming
Ġchar m
icult ural
ĠDen ote
ĠBou levard
mind ed
t bl
] =\
ĠSt yle
ĠBe havior
acc ount
33 7
ĠVis it
* )
ĠG ren
Ġstrengthe ning
Ġtax payers
ĠMer cedes
wart z
Ġsuff ers
c ourse
Sec ret
Ġf als
Ġteen age
Ġbipart ite
Ġtra ils
rell a
T y
ĠA u
ĠW H
art icles
Ġfundament ally
Ġcontract ing
ĠĠĠĠĠĠĠĠĠĠĠĠĠĠĠĠ ĠĠĠĠĠĠĠĠĠĠĠĠ
ĠHamb urg
c ience
in ational
Ġapert ure
Ġback bone
ĠDomin ican
d ed
l p
Ġdet ained
H ot
Ġkeyboard s
h over
in ous
ĠC ool
ons ored
Ġstre ak
ĠJud a
Ġcardinal ity
ĠM ell
Writ ten
am l
ĠR ate
ĠSing er
Scott ish
St an
Ġsmooth ing
ĠA ri
ib ration
Sc ient
se lection
ĠF E
Ġconst ructions
ĠSh op
ĠF ighter
ans k
Ġharm ony
ĠFact ory
\ ;\
Ġrefere e
it ated
ri pp
Ġsp o
N D
Ġw ound
ĠĠĠĠĠĠĠĠĠĠĠĠĠĠĠĠĠĠĠĠĠĠĠĠĠĠĠĠĠĠĠĠĠĠĠĠĠĠĠĠĠĠĠĠĠĠĠĠĠĠĠĠĠĠĠĠĠĠĠĠĠĠĠĠ ĠĠĠĠĠĠĠĠĠĠĠĠĠĠĠĠĠĠĠĠĠĠĠĠĠĠĠĠĠĠĠĠĠĠĠĠĠĠĠĠĠĠĠĠĠĠĠĠĠĠĠĠĠĠĠĠĠĠĠĠĠĠĠĠ
int roduction
Ġh ug
ĠD w
}\ ;\
Act ive
FF FF
ĠKh al
T a
app lication
ĠBul let
Ġround ed
Ġsp are
.. ."
Ġm oth
et us
sam pling
Ġexp onents
A thlet
e ur
un finished
} <\
an z
)}{ (
ĠPl aza
M ic
Ġt ags
ĠK rish
Ġadvers ary
ĠAll an
rr rr
Ġbe ats
Ġtheore tically
Ġbatter ies
Ġassert ed
in qu
ĠW id
ĠW ool
Ġd oses
ĠM idd
Ġrecre ational
Ġresil ience
art ifact
ĠK erala
Ġcomm ute
t abl
Ġeigen vectors
F uture
18 53
Ġeduc ate
ĠDar win
ĠC ord
Ġch orus
Flor a
ĠM TV
24 2
Te V
Ġdiox ide
P ref
ĠCar r
ĠBur ke
jav ascript
ph ib
up ta
dec re
M G
att i
Ġdis ruption
Ġreb els
ĠInst rum
Ġbill ions
ĠA CC
ĠM eyer
Ġvers a
N EW
ĠT ales
Ġche ss
So ft
ĠA j
Ġtransform ing
ĠScot ia
ĠS cal
Ġdetect ive
Ġcomm ence
Ġwond ering
P relim
ĠH BO
ĠG B
26 7
ĠSuper ior
] +
Ġst yl
Ġpa ired
Ġcompet ent
ĠPer th
28 8
Ġapart ments
Ġde ar
stret ch
am ination
v on
inter action
Ġsm oot
ĠEd mund
Ġter rain
orig in
ir ie
ighbor hood
s om
ĠTim othy
ĠB od
E rr
Ġtor que
ĠSebast ian
Ġw reck
Ġb rackets
ĠU AE
-\ !
Ġpar ade
Ġfirm ly
l um
ĠF lying
ĠPar alymp
ĠCustom er
o que
al amy
Ġl ith
ph oto
ĠA ires
Ġoffer ings
Ġdies el
Ġgu ilt
Ġtechn ically
ĠP f
on so
ook ie
ge ometric
ĠB ound
/ {\
th ouse
18 47
c C
2 17
ĠN um
ĠSouth west
Ġs iege
Ġaccept s
A mb
Ġprop he
B rian
min a
c ache
ĠB alk
Ġpre y
Up on
}\ !\
Ġind ict
dis abled
2 21
c ustom
Î µ
Ġport raits
Ã¼ n
V ictor
end ors
ĠEngine er
E u
ĠLeg ion
}: =
Util s
ĠComm it
Ġpersonal ities
im ath
ĠLore n
Ġprospect ive
Ġsol v
Ġflow ing
Ġconsolid ated
Ġmut ation
ĠCele b
J un
ex amples
Ġfinal e
n ice
Ġcompar ative
ĠD h
ĠRom ans
S und
Ġre pro
Ġlocomot ives
av in
OR Y
ica id
? âĢĻ
Ġm asters
Ġgener ative
art on
row ave
á º
ĠPre vious
Ġrec on
Ġgen ocide
K h
Ġoptim istic
l ap
Ġbott le
ĠEmb assy
al am
ĠPers pect
Ġg ases
}) _{\
Ġpropag ator
Ġsh ocks
Ġnick name
ĠG erald
Ġ| ___
ĠBurn s
our cing
Ġinitial ization
Ġhab its
E th
P b
Ge org
d ated
obs erved
Li u
ĠP U
amp ire
us ions
24 9
Ġprot ections
Ġoccup y
Ġbet ray
ah ler
ĠCarol ine
ĠRic ci
rop olis
ĠMig uel
0 15
Ġactiv ism
ĠAtt ack
Ġwra pped
Ġbi jection
ĠLiter ary
ĠHold ings
Ġh olog
Ġelim inating
ro ots
PR O
Ġnegot iate
Ġreb ellion
30 7
ĠGre ens
Ġsp ouse
ĠMe et
Ġannoun ces
}}( {\
Ġsp y
ctor al
Ġseason al
v p
ĠTre asure
N I
Ġcan vas
Ġfre ight
Ġcompat ibility
âĨ Ĳ
T urn
Ġste ering
N umerical
Ġorg ans
}} }(
3 90
- ,
ĠJ ourney
Ġcryst als
Ġcontract ors
rateg y
ĠChron icle
D b
Â Ń
Ġend angered
ubb ard
00 6
Ġall oc
Ġcondens ate
Ġinter fer
S oviet
ĠH ood
che wan
25 4
UN D
ĠNew man
Ġpract icing
Ġdiss olved
ĠHait i
ĠMin isters
Ġrecur rent
Ġs ulf
b k
)+ (
Ġwhe els
Ġsen iors
H ave
ĠM ink
Ġsupp liers
) <\
Ġcomput es
r ice
ĠS isters
Ġmon ster
Ġsurg ical
Ġpain ful
Tax a
o S
Ġfin ishes
R ic
j ournals
semb les
Ġresidual s
rom atic
ard less
on ge
24 3
Ġstart up
ĠLe vi
Ġaz imuth
Ġstup id
Ġrec ession
Pol ice
Ġgo alk
Ġmon astery
ĠAnd hra
Ġplant ed
ut a
exp ansion
ĠHy dro
N OT
ĠChar acter
Ġrec omb
ere rs
ĠTan z
Ġsl ip
ĠMahar ashtra
Ġa wa
AM S
l ot
gest ion
L os
E ll
E ducational
j oy
29 6
ĠMorm on
Ġf ocal
Ġende av
S eg
ĠML B
ĠHom eland
Ġbab ies
Ġadi abatic
rel ativistic
ĠD awn
Ġcompl ain
bur se
f erm
ew ay
ĠTe acher
Ġaut umn
add ress
Ġdegener acy
Ġtim eline
ful ness
Ġvoc abulary
ams ung
b age
online cite
ĠMe asure
Ġsu cc
Ġprejud ice
ed ges
Ġsuperconduct ing
Ġf uels
ĠF erguson
ide al
ĠC rist
f ri
Ġ umb
ĠLaw yers
y en
Ġdis band
ol in
Ġshell s
ĠE DT
Exp ression
al tern
Pr inc
Le ave
Ġple a
van ishing
r ings
ĠLGBT Q
Ġframework s
ĉ ĠĠ
w ald
18 12
Ġass ured
ron ics
Ġpath way
ĠLux embourg
Ġar cs
Pr int
ĠH odge
ĠR V
fore ach
Ġloc ate
ĠChurch ill
K w
Ġtrans gender
ote chnology
?? ??
a ine
Ġex emption
Ġsem icon
] ^-
id y
Ġby te
law s
U r
ĠR oh
ign er
ĠFran z
Ġlic enses
Ġrecept or
Ġst ems
ĠAchieve ment
ĠB ears
Ġr ifle
ĠHa us
f illed
ĠAd vert
F B
t xt
prob ability
Ġtriple t
Ġsec uring
d ers
im i
ĠTas man
in ites
Ġinad equate
Ġillust rations
}^* $
ĠMal ta
Ch icago
ĠRem ember
Ġincorpor ates
Ġro ok
Ġrad i
Ġdepart ed
S ample
Ġmot if
L B
cl ick
Ġdis reg
ĠL ooking
sh i
epend ing
ĠM Ã©
ĠMoh ammed
ĠL il
bo olean
n ation
ĠR ica
Ġathlet ics
Mus ical
Ġsup erg
Ġdiscover s
Ġsan ction
ĠBened ict
{ +
ĠL t
N orthern
m ation
Ġimplic ation
ĠAlexand ria
ĠC airo
Ġorth onormal
ĠField s
Ġredes ign
Ġtouchdown s
ĠWar riors
ĠResp ond
Ġhur ricane
Y M
Ġt ier
Ġn utrition
v b
olog ic
Ġt uition
Ġa post
on te
Ġend owed
Te chn
ĠNot tingham
{ }{
] );
ĠMal colm
ob tained
Ġhad ron
Ġdecl ining
cm d
em ale
ograp hed
web kit
Ġmanuscript s
ĠC reat
Ġcomp ressed
ĠC apt
P ool
Ġaccount able
Ġfermion ic
Ġlist ened
âĢ¦ âĢĿ
Ġu int
Sec urity
ĠIs le
ĠInterest ingly
Jo in
Ġd ancer
Ġun t
Ġme als
38 4
ĠBrad y
Ġal pha
Ġmon uments
Ġteach ings
O ption
)= -\
Ġabund ant
Ġfor wards
approxim ation
T aylor
Ġloc us
ob ia
Ġover night
m agnetic
... ]
Ġvis ually
be am
ĠEug ene
ĠD G
Ġmet adata
Ġstim ulus
f d
Ġp upp
os lov
ĠMar in
Obs erve
ĠS ave
Ġperturb ed
ĠHuman ities
ĠStat us
Ġf ung
qu bit
Ġret rieved
rim ination
ĠBuddh ism
ĠF raser
Ġlingu istic
us ers
35 5
Ġrot ate
P resent
w u
18 37
Ġtax able
Ġpione ering
ed itor
spect ral
Ġshor tage
Ġlo os
om ach
w itz
CD M
Ġjump ed
A sh
ĠP owers
Ġsc ream
ĠMc N
Ġlov ely
Ġres ides
at omic
ĠAct ing
Ġunve iled
Ġcomed ian
P roduct
ĠÃ ģ
Ġal ly
get own
ur ring
ĠAss uming
ĠLa place
rick eter
Ġfre el
Ġ ðŁ
ert ation
S K
ic ates
S equ
b ind
and ed
cor por
Ġproceed ed
che ster
Â Ģ
Ġo ath
ant o
ĠWal sh
ĠZ ar
ĠSher man
p ark
Ġcab in
27 3
X iv
25 3
ad just
Ġcomp ress
ĠSom erset
K ind
ĠPres byterian
Ġvol leyball
Ġaim ing
Ġre per
cl amation
ĠI v
Ġf ights
dor ff
edd y
ordin ates
}} %
Ġcr ude
Ġshow case
Ġbreak fast
Ġpit ched
U k
ec ell
Ġe lem
ĠRe uters
ĠBul garian
is che
Te X
Ġpostp oned
ire ment
Ġlist ings
ĠD iet
Ġhe ights
ox y
Ġso ap
4 75
U ntil
18 20
Ġ$ +
Ð ¹
Ġc her
Ġexcit ement
m om
Ġsp e
mm as
Ġrecogn izing
Wh ich
T i
or ange
ĠB B
Do es
ĠE RA
ac ency
Ġprec ious
ine z
ĠEnt reprene
Ġconstit uted
Ġappoint ments
pos ium
Col umb
Ġdark ness
Ġdiscover ies
A st
H all
Ġgrand children
ĠByz antine
incre asing
Ġra pper
Ġs her
Ġappeal ed
ĠDay ton
Ġfellow ship
Ġd ash
Ġte ens
ĠC os
Ġreprodu ction
rib es
x p
Ġoscill ator
ĠIn come
ĠAdv ance
ĠVo iv
ado op
Ġru ins
G allery
Ġendors ed
Ġcat s
u int
ĠJ obs
30 8
29 9
Ġdep ths
Ġorigin ating
Spec ifically
um atic
Ġpr ince
au f
Ġep it
Ġsen ators
Ð ·
00 000
Ġacqu is
Ġres umed
Ġmyth ology
ĠSt alin
(\ {
Ġequ iv
Ġscrut iny
C ustom
ĠInvest igation
ĠM T
Ġl over
Ġsing let
Comp anies
Ġign oring
Ġref uses
m kern
Ġbro ker
ĠD B
n ob
28 6
Ġneg atively
Ġ+ +
Ġprinc ip
ĠIm prove
ĠEd gar
atern ity
Ġheter ogeneous
ro ve
Ġce ase
ĠG AN
up les
qu ire
18 46
Ġbo om
Ġover d
ĠAss ert
oper ative
Ġmeant ime
ĠC ritical
dot sc
Ġide ological
ĠContin ental
sh all
Ġgu itars
M ath
in line
ĠU P
Disc ography
Ġambig uity
Ġpres idents
Ġra id
le ys
Ġdivor ced
Ġna ive
ĠCom ing
Ġatt en
Ġsu ed
Ġbl end
ĠNAS CAR
bb ed
Ġret iring
Ġsexual ity
Ġc ope
ĠSt rip
ĠMan ila
Ġpurch ases
Ġeconom ist
Ġfav ored
Line ar
Ġc ement
ĠCl aire
Ġnav igate
cer tain
Ġreal ised
ĠSup erv
raph ic
atter y
Ï ĥ
}) -\
Ġra bb
;\;\ ;\;\
d ataset
ard e
m and
ĠB agh
Ġex ile
d k
rit z
Ġcondition ing
g ae
Ġen listed
th ink
ĠAud io
Ġo st
ast ing
w y
ĠUS S
Const ruction
Ġphr ases
ĠSe oul
ely n
ĠHor izon
Ġsp okesperson
play ed
ract ive
Ġstand ings
Ġprosec utors
om ore
ĠO ber
ĠHerz egovina
: "
nt hesis
Ġasp ir
qu asi
ĠTrans it
Ġsl ide
Val id
Ġremin is
P ers
ck er
s an
Ġland scapes
ĠFrank furt
ĠLin ux
ia z
ĠBu enos
th row
E r
he id
ell ite
B on
Ġsculpt ures
Be ing
ĠG othic
ild a
Ġcalcul us
Ġexpans ions
Ġin con
Ġle ts
Ġsp arsity
25 7
st re
tem p
Ġhe ated
Ġsen ator
atern al
w d
he et
Ġneighb ours
Ġkilomet res
ĠArm s
j ah
ens itivity
' ))
ĠM aterial
)\, .
Ġsa iling
Ġsuper hero
Conn or
ĠW ave
ĠLithuan ia
mak ecell
Ġ$( -
Ġvocal ist
ĠK illing
ĠBe hind
f u
rac es
Ġant iqu
c O
Ø ±
Ġst aged
Ġb out
tr ig
v t
ĠCert ificate
ĠN atal
ĠM ale
Ġblack s
ĠSum mary
ĠP engu
2 18
A li
ĠF est
Ġ[ (
ĠÐ ¿
at ched
s il
F N
Ġan onym
Ġcre am
re port
od or
eng es
figure d
n il
Ġrem inder
Ġbit ter
Ġenthus iasm
od ium
tt i
cle an
Ù ħ
ĠT rent
ver batim
Ġexplos ive
load ing
> ,
Ġsuspect s
Ġcontin ually
Ġunlaw ful
min imal
Ġspec ulation
ĠSup erman
method s
Ġout rage
udd y
odes hip
ĠCroat ian
[ ]{\
ogg le
ĠB il
ra k
ĠReb ecca
Ġmass acre
Ġlif elong
Ġd z
ĠPro perties
ĠEd monton
Per haps
b h
Ġview point
ĠReg ular
ly mouth
ĠMaur ice
9 11
R andom
Def unct
ĠLuther an
ĠF inals
Ġmark ers
Ġassess ing
Ġdoctor al
ĠMy stery
Ġsuccess es
Ġthir teen
Ġsle eping
MA X
ĠWhit ney
Ġob l
Ġinter rog
Ġint ends
Rec ipients
D G
Ġb ore
ĠKn ox
Ġrecover ing
Ġun bounded
lik elihood
Ġin mates
sh own
Ġenerg etic
Ġpreced ed
year s
Ġhospit ality
Ġt weets
pl aced
Ġpublic ity
Ã¡ s
Ġs li
ĠWin ston
Ġdis asters
Ġindex ed
Ġcontext ual
ĠAl most
Ġbil inear
ĠManit oba
c ool
Ġqual itatively
ben ius
Ġjurisd ictions
Ġfeas ibility
Ġpresent ations
Al g
vis ual
L I
ll er
w ear
ĠSch midt
ĠComput ing
ĠBrand on
it ored
Ġover turn
Ġimplement ations
ĠB ran
oun ces
27 9
arent ly
uff le
Ġfour teen
Sp in
=" _
Ġbas ement
cond itional
ĠCorn wall
Ġunderta ke
equ als
C ert
ĠCh in
ĠZ h
Ġobject ion
ĠC IFAR
ĠTrans fer
Ġjew el
M AN
Ġhand les
ĠAlbum s
ĠM ang
Ġfun ctors
ter bury
per m
Ġsix teen
O A
k j
il ion
hed ron
Ġhighlight ing
ĠShort ly
Ġprofess ors
Ġrenew al
ĠP ray
Ġd well
ĠL ip
ram s
ĠC G
ath a
\, (
Ġvulner ability
Ġev id
28 3
Ġre productive
Ġse am
Cl ose
Ġvib rant
ĠB elt
sub script
ĠR M
Inter view
ĠSant iago
ĠKos ovo
sp here
Ġgrand son
ĠN LO
ific ent
Ġcle ver
Ġroll ed
Ġfrust ration
Bas ic
are l
stit uting
ĠSpe ech
cent ric
i ph
poss ibly
Ġby tes
Ġstat utes
ĠT roy
18 45
Ġ å
Ġche aper
N V
Ġend point
Ġwilling ness
Ġs el
Ġterm ed
commut ative
N ick
ou cester
ĠS ter
ĠL uck
Vol ume
P od
gg ing
c ourt
ar ab
ĠAr senal
Ġelig ibility
d og
y on
ot i
}{ *}{\
Ġcl ay
AG E
ĠQuest ions
Ġbe et
Ġswe pt
âĦ ¢
4 60
w rap
Ġach ievable
Count ry
K en
Ġpay able
M atrix
/ ?
ĠL ines
umb ered
Ġcla uses
em por
Ġannot ations
O UR
ain es
25 2
Ġexplo iting
âĢ ²
Ġresemb les
Ġtar iffs
Ġappar atus
Ġem it
ĠS ister
}\ ]
ĠSpring field
Ġex cerpt
N GC
C ivil
ak is
IC S
Ġrecruit ment
ĠS ara
24 1
Ġeconom ically
Ġmet ro
]{ $\
Com mer
Sy mbol
as aki
ef ul
G ET
ĠS it
Ġcorrespond ent
ĠGu itar
Ġbreath ing
ĠMcCar thy
Ġdet er
Ġconclud ing
Ġcontrad icts
Ġmo ist
Ġadequ ately
Ġlect urer
Ġwith drawn
App lying
ĠBas in
d dots
}}{ {\
ĠVoiv odeship
ĠD W
Ġinject ed
Ġbuild er
A bs
Ã© g
Ġmis leading
abl o
A ff
iz za
:\ :\
Ġpress ing
Ġceleb rities
ĠF ROM
ĠP ars
Ad v
el ic
L en
ru ce
ump ed
Cent er
| $,
Ġin ception
ĠE ra
dom inated
ĠLand au
}) ]
ĠCar negie
ĠKe pler
gra ined
graph s
ent a
ct x
Ġdial ect
ĠAd ult
Ġlik ewise
ĠSh annon
33 6
Ġf rank
ig rated
ĠB ren
ĠA LL
Ġf iref
h aul
ĠPod cast
Ġinv isible
ile e
ĠPhot ography
}\ }
ĠMed icaid
oul os
ĠProject s
represent ed
Ġc rossover
ĠTheorem s
Ġdep icting
An th
Ġâ ĪĴ
ĠBry ant
s sec
st en
Ġquestion ing
face book
N atural
und a
ĠFact s
="../../ ../
Ġsp ike
Ġautom obile
en ic
Ġcompl ained
yl on
Ġtrib ut
4 30
ĠC ry
Ġred ist
Ġselect ive
Ġquar antine
L ooking
dis crete
18 35
St ack
clip se
Ġtax ation
Sh are
ĠBo olean
ĠM oss
Ġpath ways
Ġabbre vi
ĠR out
Ġsh aded
Ġintrig uing
ĠL ok
Ġca f
supp orted
Ġacquis itions
Ġoff line
t racks
Ġs ne
lo an
ĠAut om
su cc
ĠGreat est
Ġunder went
Ġrestrict ive
ĠS ach
_* (
ĠCom pton
Ġthread s
ĠH ers
og o
ĠM Hz
p ole
it Ã©
}^{ [
parent s
ĠHun ting
Ġgame play
ĠAd rian
ĠWil helm
18 44
E t
D ar
Ġthe rapeutic
all a
Ġur ge
Ġ( -\
pol ynom
Ġgamb ling
m ust
ĠHay es
ĠS I
ib a
Ġtrust ees
ĠCr us
ĠC ed
ĠG D
Ġint uitive
ĠCl aud
R at
Ġhor r
Ġresid ency
ĠSand y
ĠN g
ĠFran c
Ġingred ient
c ats
Ġcompan ions
ĠCl ose
ym es
Ġinev itably
ĠSub ject
18 36
Ġbal ancing
Ġpil grim
Ġmist aken
stud y
Ġpass word
ĠB end
ĠH ear
ĠSacrament o
Ġlegit im
ĠPear son
ĠHy per
ubb les
25 8
Art icles
C art
Ġbre ed
if ully
ĠRoche ster
000 1
Ġacc redited
ĠT her
Ġun supervised
L STM
ĠPart ner
Ġsubsequ ence
B ank
ĠCh arg
Ġam mun
Ġtransmit ter
b right
Ġshow er
28 9
da ugh
en ario
Ġplate au
Ġab rupt
ĠUN ESCO
tt es
Ġconstitu ents
p hen
ĠU ttar
Ġgu ides
ĠW R
ĠT ables
ce ans
ĠRec re
Ġadvent ures
ĠMer it
hig her
th irds
bra ket
Ġgen ome
oy a
11 11
Ġqual ifications
om ar
3 21
Ġabs urd
ĠSh in
I reland
ĠT rum
}) _
ĠCol leges
E mb
.... .
analy tic
S EC
ĠJoh ann
e ous
j in
Ġb ags
Ġbe aches
ĠP G
cccc cccc
ĠJup iter
Ġdeleg ates
ĠFl ash
B ol
er re
Ġres ide
es se
G overn
^ -\
Ġdepos ited
Ġspir its
ĠO H
Ġclass ifiers
ĠAnn ie
Ġimpro per
ĠFight ing
4 95
ĠLik ewise
S us
26 6
C W
18 39
ĠPro cedure
ĠLog an
d h
ĠCar n
ĠS ame
ĠS ang
4 000
Ġcr ashed
Ù Ĩ
ĠI sh
ĠC rystal
ĠW ak
urn iture
Ġch ord
arm ed
p n
00 8
le ases
Ar gent
Ġri ot
qu isition
og on
Ġheav ier
Ġbox ing
Ġdwar fs
Ġadmin ister
z on
Ġc usp
Ġadminist rators
Ġsem ic
Ġw ished
Ġdis m
Ġsubstit uting
v ac
ĠS ul
18 41
c F
y g
Ġd w
Ġdynam ically
Ġnames pace
c D
ĠK oh
ios ity
Ġexc use
Ġl ig
Ġexpend iture
b usiness
m ixed
Ġfresh man
uis ine
Ġd ent
D ouble
aint ed
b uffer
m its
Ġsear ched
27 7
33 5
Ġwh oles
100 00
SS M
e ref
Ġgras p
lem en
M ENT
Ġjump ing
ath i
Ġad ul
\ &
Ġt uple
Ġd Ã©
ortun ate
Ġh unt
pe z
config uration
25 1
F D
P ier
it als
pher d
Ġview er
P ot
ĠL iv
ĠO ption
A W
27 2
ĠU rugu
aj i
ĠCons idering
C as
Ġpreval ent
Ġnon etheless
ĠPubl ishers
res on
Ġhor iz
ess es
b inary
ĠRest aur
ĠD iversity
ĠIn j
ĠJuda ism
le af
ĠT M
y t
Ġbroadcast s
27 8
Ġemer ges
Tra ining
Ġvin yl
Ġtrac ing
ĠHind i
Ġdeb ris
Ġgar age
Ġju venile
. ''
ĠA V
Sc ope
ĠC I
Ġsu its
Ġrem ix
cond itions
Ġsuscept ible
over ing
sm ash
vis ible
ad min
ock ets
Ġquadr up
I l
\ },\
ĠSaskat chewan
G reek
Ġstead ily
light en
Rou te
ten eg
whe el
Step hen
Ġbl amed
Ġaut ism
Ġfrust rated
ik er
ĠÅ ł
Ġnew est
ĠF uk
Ġun comfort
d etail
ra pper
Ġterm inate
ĠNaz is
ĠGet ty
ĠAltern ative
Ġf right
'' (
}| $
ogen ous
Ġind ie
vect ive
ĠTe achers
Ġpuls ar
Ġrese ar
FT A
Ġspe eches
ĠHug o
Q C
v ik
Ġc ouncill
def i
Ġsp ends
ring ing
rat ives
Ġammun ition
ĠComp ared
disc ussion
Ġintersection s
act ivity
Su ccess
D utch
ĠH S
Ġm s
ĠW on
ĠG rim
ĠRel ief
Ġp neum
Ġab olished
Ġspec ially
Ġalumin um
ĠS ou
Ġann ouncing
Conn ell
Ġmod elled
ĠSy nd
gu ide
Ġfortun ate
Ġ( #
28 7
Ġche er
Ġnot ified
Ne ill
Ġspecial ists
v x
Ġbos onic
R eb
}, {
Call back
Ġpack aging
Ġcred ible
Ġdis established
ĠRich ards
Ġveget ation
ta ker
Ġgall eries
Tex as
v irtual
ir ically
ar ag
ot ive
ĠPro gressive
B egin
ĠAdvent ures
in ters
Ġunderstand s
Ġhat red
ĠJen kins
Ġt ilt
Ġadvoc ated
Never theless
Ġc and
ne ider
Ġwid ths
Ġf ond
fund ed
Ġmilit ia
ĠW elfare
Ġsa iled
ĠElect oral
5 40
ig i
Ġsub urban
L F
Ġm all
R ES
b inding
Ġspons ors
ĠUS C
ob uf
amp ed
Ġanaly tics
Ġpersec ution
ĠM AR
ren ces
ĠT ennis
ĠB ras
ĠLy on
ĠB rent
ĠHol iday
ĠDra ke
Ġaccum ulation
Ġsuscept ibility
26 3
Ġcred ibility
Ġs mugg
}{ @{}
ĠA verage
ĠG ets
Ġlog istics
ĠClin ic
pp ler
}_ *
ĠPr ide
Ġmidfield er
m k
Ġresp iratory
ĠBas il
ĠAsh ley
Ġinfring ement
! ,
Ġretain ing
k ok
Ġ }^{
le z
ĠSh ir
Ġbil ateral
iel sen
Ġrecur ring
p unct
ul ators
Ġmission ary
Ġrein force
av ian
Ġval ence
Ġmarg ins
ĠU AV
ĠS tern
Ġgrant ing
Lear ning
Ġsh it
Ã© r
O l
18 38
ĠF irm
end ants
ĠChief s
iz arre
ĠTri ple
ĠFam ilies
B achelor
ĠGi ov
m ology
m or
Ġlack ed
Ph ase
ĠRec overy
Den ote
ĠR ib
Writ er
Ġphon on
Ġco h
ir ling
urg ical
Ġhal os
Dig ital
Ġ\| _
ĠJournal ism
ist ries
ph ys
Ġimm ense
Ġm ansion
iv ier
ĠD rew
ĠUS SR
g irl
18 32
categor ized
Ġd ancers
Ġe ars
)}\ ,
Ġunder going
amb o
ĠX i
amm ad
ĠR ising
Ġinf erior
ĠCast ro
ĠC lem
Ġsat urated
Ġtem ples
ĠLiber ation
ch in
26 8
Ï Ĥ
ĠS K
andid ate
ĠL opez
Ġdr one
ĠPo incar
Ġsurge on
ĠT ate
}\ }_{
ĠMar riage
t u
ĠY an
att ack
Ġsa fer
Ġcru c
direct ed
ĠS B
ĠCont est
ĠD as
onst ruction
Ġbes ide
B rad
Ġac ids
Ġconvinc ing
g ang
Ġc ra
ĠO DI
ĠOt to
Ġ( [
ĠProv incial
25 9
Ġtet ra
G ar
Ġs ab
cap s
Ġbatt alion
ĠS equ
Ġ( ).
35 7
ĠEp iscopal
30 9
con verted
6 40
Ġpray ers
al an
Ġprof itable
Ġcult iv
Char acter
Ġem igrants
ĠUC LA
Ġexpend itures
Ġto ile
ĠD ob
Ġdivid es
Ġiss uing
Ġend less
Ġarm ies
es que
ĠPet erson
ĠAlb any
k le
ĠP E
( _
- }
Ġrecogn ise
st rom
ap unov
ex ports
ĠTeh ran
26 9
P erm
Ġne o
ĠAct ive
mat ory
ĠInt o
Ġrep airs
ĠCon cept
W id
m atter
ure rs
Ġrecurs ive
v ir
ĠH annah
Ġcompr ise
red itation
ĠP itt
ac ies
Ġca us
print s
pat ient
ĠHero es
ĠG em
Ġmultipl ied
Ġcondition ed
at hetic
ĠD in
Ġk g
ID E
Ġsubject ive
Ġin set
ĠNot able
Ġblock chain
AR E
Americ ans
Ġfru its
ĠQu inn
S ex
Ġaccus ations
ar is
E ric
ĠRe ally
Ġdec isive
Method s
at op
ĠMar itime
und ers
ĠRel ated
Clim ate
Ġopt imum
ĠWind sor
ĠK ane
me ans
Ġst y
Ġen closed
Ġref using
Ġliber ation
26 2
âĢ ĳ
oc ene
Ġprot ons
ĠGreen e
P W
ĠApp lications
ĠHop f
ĠM ilton
S ound
pres erving
Ġpar ams
Ġannot ated
Ġscrat ch
ĠP ine
ĠDet erm
ad ers
ĠSim ple
ĠT S
Ġten ants
B ER
A verage
Ġbicy cle
c ue
Ġte lev
Ġmater nal
Ġc ater
ĠHe in
ĠL abel
ĠCele br
Ġab normal
Ġinsect s
se ver
ĠP sychiat
ms g
Ġn itrogen
ĠV il
col lect
ĠPatri ots
Ġnew er
27 6
Ġanomal ies
Ġm uon
Ġen sembles
ĠEqu ity
Ġcas ino
Ġwh ites
object s
Ġdisput ed
k ill
ĠColon ial
Ġret rieve
Ġflag ship
ĠHT ML
ĠEXP ECT
cal es
Ġapp end
Ġm elt
Ġbroad band
ag ogue
33 33
ad ors
Ġacqu iring
ĠGaz ette
Ġeigen states
Ġclimb ing
Ġdeleg ate
R oy
ep age
ĠBre nd
Ġimag ined
4 70
ĠH ank
Ġspec imens
+\ !
ĠBeaut y
Ġshar ply
R am
d V
ĠF ut
pt ive
Ġrevers al
Ġsom etime
ĠWe bb
us ch
ĠH ook
ight ing
ood y
orem ost
Ġanalys ed
Acknowledg ments
V AL
Â «
ĠG ive
ant is
Ġann oy
Ġl as
add plot
ĠMon ica
av oid
p enter
ĠH ir
Ġdecom posed
or p
ERR OR
Ġmet er
Al ong
Ġupgrad ed
t uple
Ġf ingers
la us
STAR RS
Ġmon itored
ivid ed
ĠInter state
Ġreb el
Ġsp otted
ĠFac ility
sp arse
rav ity
ĠS ession
um ptions
ĠMur der
Ġdefin itive
t l
Whe ther
I con
ĠC i
Ġbal let
rib ers
Ġsever ity
Ġgre edy
ĠD ad
[...]
