{
  "version": "1.0",
  "truncation": null,
  "padding": null,
  "added_tokens": [
    {
      "id": 0,
      "content": "[UNK]",
      "single_word": false,
      "lstrip": false,
      "rstrip": false,
      "normalized": false,
      "special": true
    }
  ],
  "normalizer": null,
  "pre_tokenizer": {
    "type": "Sequence",
    "pretokenizers": [
      {
        "type": "Digits",
        "individual_digits": false
      },
      {
        "type": "ByteLevel",
        "add_prefix_space": false,
        "trim_offsets": true,
        "use_regex": true
      }
    ]
  },
  "post_processor": null,
  "decoder": null,
  "model": {
    "type": "BPE",
    "dropout": null,
    "unk_token": "[UNK]",
    "continuing_subword_prefix": null,
    "end_of_word_suffix": null,
    "fuse_unk": false,
    "byte_fallback": false,
    "vocab": {
      "[UNK]": 0,
      "!": 1,
      "\"": 2,
      "#": 3,
      "$": 4,
      "%": 5,
      "&": 6,
      "'": 7,
      "(": 8,
      ")": 9,
      "*": 10,
      "+": 11,
      ",": 12,
      "-": 13,
      ".": 14,
      "/": 15,
      "0": 16,
      "1": 17,
      "2": 18,
      "3": 19,
      "4": 20,
      "5": 21,
      "6": 22,
      "7": 23,
      "8": 24,
      "9": 25,
      ":": 26,
      ";": 27,
      "<": 28,
      "=": 29,
      ">": 30,
      "?": 31,
      "@": 32,
      "A": 33,
      "B": 34,
      "C": 35,
      "D": 36,
      "E": 37,
      "F": 38,
      "G": 39,
      "H": 40,
      "I": 41,
      "J": 42,
      "K": 43,
      "L": 44,
      "M": 45,
      "N": 46,
      "O": 47,
      "P": 48,
      "Q": 49,
      "R": 50,
      "S": 51,
      "T": 52,
      "U": 53,
      "V": 54,
      "W": 55,
      "X": 56,
      "Y": 57,
      "Z": 58,
      "[": 59,
      "\\": 60,
      "]": 61,
      "^": 62,
      "_": 63,
      "`": 64,
      "a": 65,
      "b": 66,
      "c": 67,
      "d": 68,
      "e": 69,
      "f": 70,
      "g": 71,
      "h": 72,
      "i": 73,
      "j": 74,
      "k": 75,
      "l": 76,
      "m": 77,
      "n": 78,
      "o": 79,
      "p": 80,
      "q": 81,
      "r": 82,
      "s": 83,
      "t": 84,
      "u": 85,
      "v": 86,
      "w": 87,
      "x": 88,
      "y": 89,
      "z": 90,
      "{": 91,
      "|": 92,
      "}": 93,
      "~": 94,
      "¡": 95,
      "¢": 96,
      "£": 97,
      "¤": 98,
      "¥": 99,
      "¦": 100,
      "§": 101,
      "¨": 102,
      "©": 103,
      "ª": 104,
      "«": 105,
      "¬": 106,
      "®": 107,
      "¯": 108,
      "°": 109,
      "±": 110,
      "²": 111,
      "³": 112,
      "´": 113,
      "µ": 114,
      "¶": 115,
      "·": 116,
      "¸": 117,
      "¹": 118,
      "º": 119,
      "»": 120,
      "¼": 121,
      "½": 122,
      "¾": 123,
      "¿": 124,
      "Â": 125,
      "Ã": 126,
      "Ä": 127,
      "Å": 128,
      "Æ": 129,
      "Ç": 130,
      "È": 131,
      "É": 132,
      "Ê": 133,
      "Ë": 134,
      "Ì": 135,
      "Í": 136,
      "Î": 137,
      "Ï": 138,
      "Ð": 139,
      "Ñ": 140,
      "Ò": 141,
      "Ó": 142,
      "Ô": 143,
      "Õ": 144,
      "Ö": 145,
      "×": 146,
      "Ø": 147,
      "Ù": 148,
      "Ú": 149,
      "Û": 150,
      "Ü": 151,
      "Ý": 152,
      "Þ": 153,
      "ß": 154,
      "à": 155,
      "á": 156,
      "â": 157,
      "ã": 158,
      "ä": 159,
      "å": 160,
      "æ": 161,
      "ç": 162,
      "è": 163,
      "é": 164,
      "ê": 165,
      "ë": 166,
      "ì": 167,
      "í": 168,
      "î": 169,
      "ï": 170,
      "ð": 171,
      "ó": 172,
      "ô": 173,
      "Ā": 174,
      "ā": 175,
      "Ă": 176,
      "ă": 177,
      "Ą": 178,
      "ą": 179,
      "Ć": 180,
      "ć": 181,
      "Ĉ": 182,
      "ĉ": 183,
      "Ċ": 184,
      "ċ": 185,
      "Č": 186,
      "č": 187,
      "Ď": 188,
      "ď": 189,
      "Đ": 190,
      "đ": 191,
      "Ē": 192,
      "ē": 193,
      "Ĕ": 194,
      "ĕ": 195,
      "Ė": 196,
      "ė": 197,
      "Ę": 198,
      "ę": 199,
      "Ě": 200,
      "ě": 201,
      "Ĝ": 202,
      "ĝ": 203,
      "Ğ": 204,
      "ğ": 205,
      "Ġ": 206,
      "ġ": 207,
      "Ģ": 208,
      "ģ": 209,
      "Ĥ": 210,
      "ĥ": 211,
      "Ħ": 212,
      "ħ": 213,
      "Ĩ": 214,
      "ĩ": 215,
      "Ī": 216,
      "ī": 217,
      "Ĭ": 218,
      "ĭ": 219,
      "Į": 220,
      "į": 221,
      "İ": 222,
      "ı": 223,
      "Ĳ": 224,
      "ĳ": 225,
      "Ĵ": 226,
      "ĵ": 227,
      "Ķ": 228,
      "ķ": 229,
      "ĸ": 230,
      "Ĺ": 231,
      "ĺ": 232,
      "Ļ": 233,
      "ļ": 234,
      "Ľ": 235,
      "ľ": 236,
      "Ŀ": 237,
      "ŀ": 238,
      "Ł": 239,
      "ł": 240,
      "Ń": 241,
      "Ġt": 242,
      "in": 243,
      "he": 244,
      "Ġa": 245,
      "on": 246,
      "re": 247,
      "Ġthe": 248,
      "er": 249,
      "at": 250,
      "Ġo": 251,
      "en": 252,
      "Ġs": 253,
      "it": 254,
      "or": 255,
      "al": 256,
      "ĠĠ": 257,
      "is": 258,
      "an": 259,
      "Ġw": 260,
      "es": 261,
      "Ġc": 262,
      "ed": 263,
      "ar": 264,
      "Ġf": 265,
      "Ġof": 266,
      "ion": 267,
      "nd": 268,
      "Ġp": 269,
      "Ġin": 270,
      "Ġb": 271,
      "ing": 272,
      "ic": 273,
      "le": 274,
      "Ġand": 275,
      "ro": 276,
      "Ġm": 277,
      "as": 278,
      "Ġd": 279,
      "Ġto": 280,
      "Ġ\\": 281,
      "ou": 282,
      "ent": 283,
      "ct": 284,
      "el": 285,
      "Ġth": 286,
      "Ġh": 287,
      "Ġ$": 288,
      "il": 289,
      "et": 290,
      "om": 291,
      "st": 292,
      "Ġre": 293,
      "ig": 294,
      "ĠĠĠĠ": 295,
      "ation": 296,
      "ra": 297,
      "Ġe": 298,
      "Ġn": 299,
      "ol": 300,
      "ĠS": 301,
      "ĠT": 302,
      "im": 303,
      "Ġl": 304,
      "ot": 305,
      "âĢ": 306,
      "Ġis": 307,
      "am": 308,
      "ĠC": 309,
      "ĠA": 310,
      "id": 311,
      "ve": 312,
      "ce": 313,
      "Ġ(": 314,
      "ut": 315,
      "Ġfor": 316,
      "Ġg": 317,
      "ch": 318,
      "ur": 319,
      "ly": 320,
      "se": 321,
      "ĠI": 322,
      "Ġon": 323,
      "ver": 324,
      "ow": 325,
      "Ġbe": 326,
      "{\\": 327,
      "ĠM": 328,
      "Ġthat": 329,
      "ul": 330,
      "ith": 331,
      "ad": 332,
      "Ġst": 333,
      "20": 334,
      "us": 335,
      "ir": 336,
      "ay": 337,
      "Ġas": 338,
      "ĠP": 339,
      "ĠB": 340,
      "ab": 341,
      "um": 342,
      "qu": 343,
      "Ġcon": 344,
      "em": 345,
      "Ġwith": 346,
      "un": 347,
      "ter": 348,
      "if": 349,
      "ĠH": 350,
      "Ġpro": 351,
      "Ġal": 352,
      "od": 353,
      "ist": 354,
      "Ġan": 355,
      "her": 356,
      "ri": 357,
      "_{": 358,
      "ĠF": 359,
      "ĠThe": 360,
      "th": 361,
      "Ġwe": 362,
      "ge": 363,
      "ĠR": 364,
      "eg": 365,
      "end": 366,
      "ĠD": 367,
      "ath": 368,
      "Ġwh": 369,
      "ĠL": 370,
      "ĠW": 371,
      "Ġby": 372,
      "ers": 373,
      "igh": 374,
      "and": 375,
      "res": 376,
      "ity": 377,
      "Ġ$\\": 378,
      "Ġwas": 379,
      "ect": 380,
      "Ġit": 381,
      "pp": 382,
      "19": 383,
      "ĠN": 384,
      "ac": 385,
      "ate": 386,
      "os": 387,
      "Ġat": 388,
      "Ġv": 389,
      "op": 390,
      "Ġcom": 391,
      "iv": 392,
      "est": 393,
      "ĠG": 394,
      "Ġex": 395,
      "math": 396,
      "Ġare": 397,
      "rom": 398,
      "Ġde": 399,
      "ĠE": 400,
      "ta": 401,
      "ore": 402,
      "âĢĻ": 403,
      "ill": 404,
      "ies": 405,
      "oc": 406,
      "ure": 407,
      "art": 408,
      "ight": 409,
      "čĊ": 410,
      "ment": 411,
      "ph": 412,
      "Ġhe": 413,
      "ess": 414,
      "ub": 415,
      "Ġor": 416,
      "Ġ&": 417,
      "Ġfrom": 418,
      "te": 419,
      "ction": 420,
      "ew": 421,
      "ĠĠĠ": 422,
      "Ġy": 423,
      "ld": 424,
      "ĠĠĠĠĠĠĠĠ": 425,
      "ial": 426,
      "ĠĊ": 427,
      "ud": 428,
      "ive": 429,
      "}\\": 430,
      "ĠJ": 431,
      "ant": 432,
      "pt": 433,
      "}$": 434,
      "Ġse": 435,
      "ine": 436,
      "ort": 437,
      "nt": 438,
      "^{": 439,
      "all": 440,
      "ak": 441,
      "up": 442,
      "ag": 443,
      "ĠO": 444,
      "Ġr": 445,
      "The": 446,
      "ite": 447,
      "ĠâĢ": 448,
      "ma": 449,
      "ave": 450,
      "our": 451,
      "ich": 452,
      "pl": 453,
      "ber": 454,
      "Ġthis": 455,
      "Ġnot": 456,
      "ĠU": 457,
      "Ġsh": 458,
      "201": 459,
      "red": 460,
      "ref": 461,
      "Ġch": 462,
      "und": 463,
      "ical": 464,
      "ard": 465,
      "ell": 466,
      "ust": 467,
      "iz": 468,
      "og": 469,
      "Ġle": 470,
      "ated": 471,
      "Ġsp": 472,
      "per": 473,
      "ary": 474,
      "(\\": 475,
      "ec": 476,
      "}}": 477,
      "rac": 478,
      "Ġhave": 479,
      "00": 480,
      "ult": 481,
      "xt": 482,
      "'s": 483,
      "ff": 484,
      "Ġsu": 485,
      "ition": 486,
      "ft": 487,
      "Ġcomp": 488,
      "ear": 489,
      "cl": 490,
      "ans": 491,
      "Ġ=": 492,
      "int": 493,
      "orm": 494,
      "ign": 495,
      "ĠIn": 496,
      "egin": 497,
      "Ġk": 498,
      "begin": 499,
      "ĠK": 500,
      "ations": 501,
      "Ġpl": 502,
      "ong": 503,
      "Ġwhich": 504,
      "ap": 505,
      "ost": 506,
      "ia": 507,
      "ip": 508,
      "ass": 509,
      "Ġres": 510,
      "ork": 511,
      "ast": 512,
      "ue": 513,
      "ther": 514,
      "Ġcan": 515,
      "gh": 516,
      "Ġhas": 517,
      "Ġwhe": 518,
      "cal": 519,
      "ens": 520,
      ")$": 521,
      "_{\\": 522,
      "du": 523,
      "ep": 524,
      "ian": 525,
      "Ġab": 526,
      "Ġcl": 527,
      "ide": 528,
      "..": 529,
      "ame": 530,
      "cc": 531,
      "ain": 532,
      "ould": 533,
      "ack": 534,
      "Ġ-": 535,
      "Ġall": 536,
      "}{": 537,
      "ord": 538,
      "),": 539,
      "Ġhis": 540,
      "ere": 541,
      "ime": 542,
      "ang": 543,
      "ous": 544,
      "are": 545,
      "Ġun": 546,
      "ome": 547,
      "Ġus": 548,
      "Ġ\"": 549,
      "out": 550,
      "Ġim": 551,
      "able": 552,
      "ions": 553,
      "so": 554,
      "ĠSt": 555,
      "av": 556,
      "ence": 557,
      "ru": 558,
      "ace": 559,
      "Ġint": 560,
      "âĢĿ": 561,
      "Ġad": 562,
      "ib": 563,
      "rm": 564,
      "frac": 565,
      "ĠV": 566,
      "Ġj": 567,
      "age": 568,
      "act": 569,
      ").": 570,
      "},": 571,
      "Ġapp": 572,
      "eq": 573,
      "ice": 574,
      "ok": 575,
      "200": 576,
      "text": 577,
      "ef": 578,
      "ry": 579,
      "ase": 580,
      "ach": 581,
      "ond": 582,
      "cite": 583,
      "use": 584,
      "ĠCh": 585,
      "ĠTh": 586,
      "right": 587,
      "ire": 588,
      "ance": 589,
      "equ": 590,
      "Ġen": 591,
      "ild": 592,
      "Ġalso": 593,
      "Ġone": 594,
      "ind": 595,
      "Ġpart": 596,
      "ric": 597,
      "form": 598,
      "abel": 599,
      "mathb": 600,
      "over": 601,
      "Ġme": 602,
      "oll": 603,
      "Ġper": 604,
      "ik": 605,
      "Ġtheir": 606,
      "mer": 607,
      "ally": 608,
      "the": 609,
      "Ġwere": 610,
      "Ġcont": 611,
      "ely": 612,
      "erv": 613,
      "Ġyou": 614,
      "ents": 615,
      "ov": 616,
      "10": 617,
      "Ġdis": 618,
      "ory": 619,
      "Ġbut": 620,
      "ces": 621,
      "Ġwill": 622,
      "ose": 623,
      "ish": 624,
      "ates": 625,
      "ĠâĢľ": 626,
      "ound": 627,
      "ors": 628,
      "old": 629,
      "ie": 630,
      "label": 631,
      "wo": 632,
      "irst": 633,
      ",\\": 634,
      "Ġar": 635,
      "own": 636,
      "$,": 637,
      "eta": 638,
      "clud": 639,
      "ree": 640,
      "Ġout": 641,
      "vers": 642,
      "$.": 643,
      "mathcal": 644,
      "ress": 645,
      "Ġits": 646,
      "Ġdo": 647,
      "Ġne": 648,
      "ount": 649,
      "Ġthey": 650,
      "Ġev": 651,
      "ark": 652,
      "Ġother": 653,
      "erm": 654,
      "Ġwho": 655,
      "\\\\": 656,
      "18": 657,
      "Ġmore": 658,
      "Ġqu": 659,
      "In": 660,
      "port": 661,
      "}.": 662,
      "ile": 663,
      "tain": 664,
      "Ġmod": 665,
      "row": 666,
      "Ġwork": 667,
      "one": 668,
      "rit": 669,
      "equation": 670,
      "Ġman": 671,
      "rib": 672,
      "tern": 673,
      "})": 674,
      "Ġag": 675,
      "iff": 676,
      "Ġtr": 677,
      "lic": 678,
      "ĠY": 679,
      "left": 680,
      "Ġbeen": 681,
      "fig": 682,
      "Ġte": 683,
      "vel": 684,
      "we": 685,
      "Ġrec": 686,
      "pro": 687,
      "}(": 688,
      "ĠUn": 689,
      "Ġob": 690,
      "Ġhad": 691,
      "ove": 692,
      "ĠIt": 693,
      "ob": 694,
      "ĠĠĠĠĠĠĠ": 695,
      "ener": 696,
      "ational": 697,
      "ics": 698,
      "Ġyear": 699,
      "Ġro": 700,
      "Ġfirst": 701,
      "}^": 702,
      "ps": 703,
      "Ġtwo": 704,
      "~\\": 705,
      "ugh": 706,
      "sp": 707,
      "ĠHe": 708,
      "Ġup": 709,
      "very": 710,
      "ject": 711,
      "}_": 712,
      "Ġtime": 713,
      "Ġover": 714,
      "ĉĉ": 715,
      "ons": 716,
      "ll": 717,
      "ple": 718,
      "under": 719,
      "Ġsc": 720,
      "Ġso": 721,
      "aw": 722,
      "Ġif": 723,
      "Ġbec": 724,
      "imes": 725,
      "hed": 726,
      "ular": 727,
      "amb": 728,
      "Ġthere": 729,
      "Ġ|": 730,
      "Ġcons": 731,
      "Ġsy": 732,
      "ook": 733,
      "eop": 734,
      "ution": 735,
      "ne": 736,
      "oint": 737,
      "ake": 738,
      "Ġabout": 739,
      "pha": 740,
      "Ġour": 741,
      "rad": 742,
      "ings": 743,
      "Ġgo": 744,
      "fter": 745,
      "Ġind": 746,
      "Ġnew": 747,
      "line": 748,
      "pe": 749,
      "ng": 750,
      "eople": 751,
      "ater": 752,
      "alpha": 753,
      "ks": 754,
      "Ġthan": 755,
      "ari": 756,
      "Ġsuch": 757,
      "mb": 758,
      "Ġoff": 759,
      "Ġdes": 760,
      "ss": 761,
      "Ġsub": 762,
      "ced": 763,
      "ram": 764,
      "Ġany": 765,
      "Ġcomm": 766,
      "Ġbet": 767,
      "Ġher": 768,
      "ys": 769,
      "Ġass": 770,
      "12": 771,
      "ual": 772,
      "ollow": 773,
      "da": 774,
      "iss": 775,
      "Ġpre": 776,
      "Ġ+": 777,
      "Ġacc": 778,
      "Ġrel": 779,
      "ied": 780,
      "ays": 781,
      "Ġdiff": 782,
      "Ġset": 783,
      "Ġwould": 784,
      "Ġwhere": 785,
      "urn": 786,
      "Ġdef": 787,
      "ative": 788,
      "Ġwhen": 789,
      "lect": 790,
      "Ġreg": 791,
      "raph": 792,
      "vi": 793,
      "Ġunder": 794,
      "ĠWe": 795,
      ")\\": 796,
      "ex": 797,
      "Ġsa": 798,
      "Ġonly": 799,
      "Ġ{": 800,
      "Ġinto": 801,
      "hat": 802,
      "Ġsome": 803,
      "con": 804,
      "com": 805,
      "ities": 806,
      "ased": 807,
      "ho": 808,
      "ĠâĢĵ": 809,
      "les": 810,
      "Ġexp": 811,
      "Ġkn": 812,
      "elta": 813,
      "olog": 814,
      "ific": 815,
      "iel": 816,
      "ict": 817,
      "ited": 818,
      "Ġfollow": 819,
      "199": 820,
      "ambda": 821,
      "ata": 822,
      "Ġinclud": 823,
      "ough": 824,
      "ident": 825,
      "eren": 826,
      "ike": 827,
      "eth": 828,
      "oth": 829,
      "_\\": 830,
      "cent": 831,
      "amma": 832,
      "mathbb": 833,
      "resent": 834,
      "ool": 835,
      "$\\": 836,
      "--": 837,
      "ating": 838,
      "of": 839,
      "unction": 840,
      "Ġpeople": 841,
      "app": 842,
      "ĠĠĠĠĠĠĠĠĠĠĠĠĠĠĠĠ": 843,
      "ption": 844,
      "rough": 845,
      "Ġprov": 846,
      "stem": 847,
      "Ġnum": 848,
      "Ġpol": 849,
      "ĠThis": 850,
      "to": 851,
      "}^{": 852,
      "=\\": 853,
      "Ġ\\\\": 854,
      "}_{": 855,
      "dot": 856,
      "Ġtrans": 857,
      "Ġform": 858,
      "15": 859,
      "sub": 860,
      "Ġplay": 861,
      "oy": 862,
      "Ġpos": 863,
      "ward": 864,
      "Ġact": 865,
      "arg": 866,
      "ility": 867,
      ");": 868,
      "ix": 869,
      "ined": 870,
      "ĠCom": 871,
      "Ġthen": 872,
      "ween": 873,
      "Ġdist": 874,
      "orn": 875,
      "ince": 876,
      "Ġresult": 877,
      "ield": 878,
      "Ġthem": 879,
      "Ġmodel": 880,
      "cre": 881,
      "ise": 882,
      "Ġinter": 883,
      "round": 884,
      "âĢĵ": 885,
      "igma": 886,
      "Ġstud": 887,
      "meric": 888,
      "mu": 889,
      "ivers": 890,
      "Ġgener": 891,
      "ail": 892,
      "11": 893,
      "Ġno": 894,
      "ments": 895,
      "pos": 896,
      "Ġph": 897,
      "Ġsim": 898,
      "orld": 899,
      "Ġinv": 900,
      "ection": 901,
      "Ġthese": 902,
      "Ġshow": 903,
      "-\\": 904,
      "uc": 905,
      "tt": 906,
      "inal": 907,
      "Ġ<": 908,
      "lem": 909,
      "ublic": 910,
      "ax": 911,
      "Ġbetween": 912,
      "uring": 913,
      "land": 914,
      "ray": 915,
      "ures": 916,
      "ega": 917,
      "Ġshe": 918,
      "roup": 919,
      "^{\\": 920,
      "//": 921,
      "Ġval": 922,
      "pr": 923,
      "arch": 924,
      "Ġsaid": 925,
      "Ġco": 926,
      "Ġ[": 927,
      "Ġmost": 928,
      "16": 929,
      "dition": 930,
      "ause": 931,
      "ĠNew": 932,
      "sc": 933,
      "Ġatt": 934,
      "ize": 935,
      "ran": 936,
      "Ġmay": 937,
      "ning": 938,
      "Ġafter": 939,
      "Ġfl": 940,
      "Ġfe": 941,
      "ock": 942,
      "sh": 943,
      "Ġtra": 944,
      "ug": 945,
      "Ġconst": 946,
      "ues": 947,
      "phi": 948,
      "Ġcor": 949,
      "reat": 950,
      "Ġeff": 951,
      "Ġequ": 952,
      "Ġresp": 953,
      "ible": 954,
      "its": 955,
      "part": 956,
      "ick": 957,
      "ade": 958,
      "17": 959,
      "ient": 960,
      "Ġfunction": 961,
      "ism": 962,
      "ily": 963,
      "lambda": 964,
      "Ġeach": 965,
      "mathbf": 966,
      "als": 967,
      "Ġam": 968,
      "oun": 969,
      "ink": 970,
      "ower": 971,
      "Ġclass": 972,
      "Ġprodu": 973,
      "13": 974,
      "bf": 975,
      "Ġloc": 976,
      "Ġsystem": 977,
      "section": 978,
      "ĠPro": 979,
      "ists": 980,
      "Ġcol": 981,
      "ral": 982,
      "align": 983,
      "ron": 984,
      "ode": 985,
      "ren": 986,
      "Ġyears": 987,
      "io": 988,
      "der": 989,
      "ts": 990,
      "Ġsupp": 991,
      "cy": 992,
      "Ġthrough": 993,
      "ĠAl": 994,
      "We": 995,
      "ĠAmeric": 996,
      "Ġ{\\": 997,
      "=\"": 998,
      "14": 999,
      "Ġprob": 1000,
      "Ġwell": 1001,
      "Ġhow": 1002,
      "wn": 1003,
      "Ġbl": 1004,
      "Ġuse": 1005,
      "air": 1006,
      "ins": 1007,
      "ty": 1008,
      "uss": 1009,
      "ox": 1010,
      "erent": 1011,
      "Ġwhat": 1012,
      "ilon": 1013,
      "chool": 1014,
      "Ġest": 1015,
      "any": 1016,
      "Ġsec": 1017,
      "Ġgiv": 1018,
      "Ġpar": 1019,
      "elf": 1020,
      "Ġused": 1021,
      "ruct": 1022,
      "Ġpoint": 1023,
      "oci": 1024,
      "ature": 1025,
      "irect": 1026,
      "Ġent": 1027,
      "Ġac": 1028,
      "pi": 1029,
      "itt": 1030,
      "Ġappro": 1031,
      "ever": 1032,
      "Ġfil": 1033,
      "ract": 1034,
      "sigma": 1035,
      "mathrm": 1036,
      "hen": 1037,
      "gan": 1038,
      "ĠFor": 1039,
      "wid": 1040,
      "Ġmat": 1041,
      "ized": 1042,
      "Ġ}": 1043,
      "uch": 1044,
      "hes": 1045,
      "man": 1046,
      "ines": 1047,
      "ision": 1048,
      "Ġext": 1049,
      "Th": 1050,
      "riv": 1051,
      "198": 1052,
      "21": 1053,
      "velop": 1054,
      "abl": 1055,
      "min": 1056,
      "Ġlike": 1057,
      ".,": 1058,
      "ange": 1059,
      "set": 1060,
      "Ġ||": 1061,
      "Ġspec": 1062,
      "*}": 1063,
      "Ġdata": 1064,
      "Ġserv": 1065,
      "Ġsm": 1066,
      "ife": 1067,
      "Ġjust": 1068,
      "Ġnumber": 1069,
      "par": 1070,
      "Ġdifferent": 1071,
      "sum": 1072,
      "ton": 1073,
      "iversity": 1074,
      "ey": 1075,
      "Ġref": 1076,
      "^{-": 1077,
      "ee": 1078,
      "Ġem": 1079,
      "Ġrep": 1080,
      "Ġpr": 1081,
      "ull": 1082,
      "ilde": 1083,
      "Ġget": 1084,
      "Ġcase": 1085,
      "ĠDe": 1086,
      "amp": 1087,
      "beta": 1088,
      "}{\\": 1089,
      "ĠAr": 1090,
      "oot": 1091,
      "overn": 1092,
      "here": 1093,
      "Ġsign": 1094,
      "Ġ(\\": 1095,
      "Ġinst": 1096,
      "25": 1097,
      "Ġmem": 1098,
      "Ġsame": 1099,
      "hip": 1100,
      "30": 1101,
      "Ġsol": 1102,
      "angle": 1103,
      "erg": 1104,
      "Ġdec": 1105,
      "ote": 1106,
      "ason": 1107,
      "ices": 1108,
      "Ġpartic": 1109,
      ".âĢĿ": 1110,
      "Ġagain": 1111,
      "Ġsee": 1112,
      "Ġcur": 1113,
      "Ġhim": 1114,
      "Ġbu": 1115,
      "cer": 1116,
      "Ġed": 1117,
      "oh": 1118,
      "Ġmany": 1119,
      "ization": 1120,
      "+\\": 1121,
      "ood": 1122,
      "cess": 1123,
      "ute": 1124,
      "Ġsur": 1125,
      "ash": 1126,
      "]{": 1127,
      "ring": 1128,
      "Ġend": 1129,
      "erson": 1130,
      "ically": 1131,
      "gamma": 1132,
      "Ġstate": 1133,
      "Ġret": 1134,
      "eps": 1135,
      "Ġboth": 1136,
      "Ġback": 1137,
      "uth": 1138,
      "let": 1139,
      "Ġra": 1140,
      "ier": 1141,
      "Ġcent": 1142,
      "rest": 1143,
      "bar": 1144,
      "Ġcount": 1145,
      "ering": 1146,
      "ĠCon": 1147,
      "Ġmy": 1148,
      "sy": 1149,
      "Ġcould": 1150,
      "ful": 1151,
      "Ġhigh": 1152,
      "ement": 1153,
      "Ġlead": 1154,
      "theta": 1155,
      "Ġvari": 1156,
      "Ġneed": 1157,
      "ann": 1158,
      "Ġfact": 1159,
      "ator": 1160,
      "^\\": 1161,
      "Ġright": 1162,
      "leq": 1163,
      "ished": 1164,
      ")}": 1165,
      "ev": 1166,
      "ĠZ": 1167,
      "000": 1168,
      "Ġrequ": 1169,
      "Ġgroup": 1170,
      "rho": 1171,
      "ĠQ": 1172,
      "Ġoper": 1173,
      "Ġdisc": 1174,
      "Ġfound": 1175,
      "Ġthree": 1176,
      "Ġbecause": 1177,
      "Ġ*": 1178,
      "formation": 1179,
      "Ġnon": 1180,
      "Ġbeing": 1181,
      "other": 1182,
      "Ġterm": 1183,
      "ĠAn": 1184,
      "....": 1185,
      "ĠAs": 1186,
      "Ġevery": 1187,
      "cdot": 1188,
      "ining": 1189,
      "Ġcall": 1190,
      "Ġfam": 1191,
      "ases": 1192,
      "eng": 1193,
      "figure": 1194,
      "Ġfin": 1195,
      "Ġinf": 1196,
      "ars": 1197,
      "Ġdet": 1198,
      "Ġexper": 1199,
      "tau": 1200,
      "$-": 1201,
      "ten": 1202,
      "delta": 1203,
      "Ġnow": 1204,
      "ah": 1205,
      "put": 1206,
      "197": 1207,
      "ĠĠĠĠĠ": 1208,
      "sec": 1209,
      "ample": 1210,
      "alth": 1211,
      "Ġart": 1212,
      "mber": 1213,
      "ology": 1214,
      "arge": 1215,
      "orth": 1216,
      "Ġser": 1217,
      "}$,": 1218,
      "Ġx": 1219,
      "eqref": 1220,
      "ional": 1221,
      "Ġmade": 1222,
      "Ġperform": 1223,
      "Ġbel": 1224,
      "get": 1225,
      "Ġline": 1226,
      "Ġdevelop": 1227,
      "</": 1228,
      "22": 1229,
      "}$.": 1230,
      "rat": 1231,
      "ural": 1232,
      "Ġvery": 1233,
      "aking": 1234,
      "Ġmin": 1235,
      "Ġear": 1236,
      "}(\\": 1237,
      "50": 1238,
      "item": 1239,
      "ames": 1240,
      "Ġusing": 1241,
      "big": 1242,
      "ively": 1243,
      "irc": 1244,
      "Ġpublic": 1245,
      "Ġwhile": 1246,
      "ĠInd": 1247,
      "ĠĠĠĠĠĠĠĠĠĠĠ": 1248,
      "Ġknow": 1249,
      "ants": 1250,
      "ĠSe": 1251,
      "ality": 1252,
      "fore": 1253,
      "ather": 1254,
      "for": 1255,
      "yn": 1256,
      "Ġfollowing": 1257,
      "Ġthose": 1258,
      "ross": 1259,
      "erences": 1260,
      "Ġlong": 1261,
      "ĠUniversity": 1262,
      "ience": 1263,
      "Ġduring": 1264,
      "array": 1265,
      "times": 1266,
      "ethod": 1267,
      "ected": 1268,
      "Ġi": 1269,
      "Ġgiven": 1270,
      "lection": 1271,
      "gram": 1272,
      "ank": 1273,
      "ck": 1274,
      "Ġeven": 1275,
      "ĠSh": 1276,
      "Ġmon": 1277,
      "fty": 1278,
      "Ġeffect": 1279,
      "way": 1280,
      "Ġsecond": 1281,
      "St": 1282,
      "ets": 1283,
      "infty": 1284,
      "ouse": 1285,
      "Ġfilm": 1286,
      "ĠSc": 1287,
      "Ġworld": 1288,
      "Ġcre": 1289,
      "Ġorder": 1290,
      "chn": 1291,
      "Ġop": 1292,
      "Ġty": 1293,
      "ages": 1294,
      "Ġmed": 1295,
      "led": 1296,
      "view": 1297,
      "arrow": 1298,
      "Ġdid": 1299,
      "aj": 1300,
      "ider": 1301,
      "Ġsing": 1302,
      "col": 1303,
      "ĠAnd": 1304,
      "Ġcontin": 1305,
      "width": 1306,
      "ner": 1307,
      "ury": 1308,
      "ĠLe": 1309,
      "Ġdirect": 1310,
      "ting": 1311,
      "outh": 1312,
      "amet": 1313,
      "Ġfield": 1314,
      "ential": 1315,
      "ĠX": 1316,
      "âĢľ": 1317,
      "Ġbefore": 1318,
      "ĠCl": 1319,
      "rent": 1320,
      "ĠUnited": 1321,
      "Ġyour": 1322,
      "24": 1323,
      "az": 1324,
      ",âĢĿ": 1325,
      "ters": 1326,
      "Ġsupport": 1327,
      "ulation": 1328,
      "Ġown": 1329,
      "ability": 1330,
      "Ġshould": 1331,
      "ency": 1332,
      "ots": 1333,
      "nu": 1334,
      "ness": 1335,
      "ĠAmerican": 1336,
      "Ġ.": 1337,
      "Ġway": 1338,
      "|\\": 1339,
      "ives": 1340,
      "overnment": 1341,
      "ired": 1342,
      "pm": 1343,
      "Ġsmall": 1344,
      "Ġcommun": 1345,
      "ered": 1346,
      "day": 1347,
      "ert": 1348,
      "Ġstart": 1349,
      "Ġdoes": 1350,
      "work": 1351,
      "quad": 1352,
      "Ġ'": 1353,
      "ved": 1354,
      "bers": 1355,
      "Ġexpl": 1356,
      "ission": 1357,
      "partial": 1358,
      "ale": 1359,
      "Ġsince": 1360,
      "Ġvi": 1361,
      "2020": 1362,
      "mm": 1363,
      "Ġdesc": 1364,
      "Ġstat": 1365,
      "ared": 1366,
      "Ġmake": 1367,
      "196": 1368,
      "omega": 1369,
      "Ġadd": 1370,
      "tilde": 1371,
      "Ġgu": 1372,
      "ball": 1373,
      "ĠSp": 1374,
      "cept": 1375,
      "ĠComm": 1376,
      "iness": 1377,
      "Ġpres": 1378,
      "rict": 1379,
      "Ġprocess": 1380,
      "Ġwrit": 1381,
      "Ġlaw": 1382,
      "ina": 1383,
      "Ġincluding": 1384,
      "23": 1385,
      "ĠCol": 1386,
      "omen": 1387,
      "Ġincre": 1388,
      "eb": 1389,
      "rum": 1390,
      "Ġfind": 1391,
      "Ġhel": 1392,
      "ĠIs": 1393,
      "Ġchar": 1394,
      "ration": 1395,
      "orem": 1396,
      "att": 1397,
      "vent": 1398,
      "ca": 1399,
      "Ref": 1400,
      "son": 1401,
      "ital": 1402,
      "var": 1403,
      "ually": 1404,
      "Ġobs": 1405,
      "Ġrele": 1406,
      "Ġanal": 1407,
      "Ex": 1408,
      "Ġpresent": 1409,
      "Delta": 1410,
      "Ġdep": 1411,
      "usic": 1412,
      "erence": 1413,
      "Ġresults": 1414,
      "Ġteam": 1415,
      "me": 1416,
      "ern": 1417,
      "**": 1418,
      ".\"": 1419,
      "Ġconf": 1420,
      "Ġz": 1421,
      "Ġproblem": 1422,
      "iqu": 1423,
      "ven": 1424,
      "istory": 1425,
      "space": 1426,
      "Ġmain": 1427,
      "anc": 1428,
      "Ġmeas": 1429,
      "ohn": 1430,
      "ived": 1431,
      "ĠAd": 1432,
      "Ġmuch": 1433,
      "Ġreturn": 1434,
      "Ġmethod": 1435,
      "Ġcour": 1436,
      "xi": 1437,
      "This": 1438,
      "ified": 1439,
      "}[": 1440,
      "ober": 1441,
      "ember": 1442,
      "Ġpop": 1443,
      "eqn": 1444,
      "rid": 1445,
      "ety": 1446,
      "ĠHow": 1447,
      "Ġposs": 1448,
      "ret": 1449,
      "Ġperson": 1450,
      "terest": 1451,
      "ior": 1452,
      "ious": 1453,
      "Ġobtain": 1454,
      "resp": 1455,
      "Ġinformation": 1456,
      "Ġlast": 1457,
      "Ġreport": 1458,
      "rt": 1459,
      "Ġschool": 1460,
      "Ġprovid": 1461,
      "Ġrepresent": 1462,
      "err": 1463,
      "Ġimport": 1464,
      "ĠShe": 1465,
      "40": 1466,
      "ense": 1467,
      "__": 1468,
      "ffic": 1469,
      "illion": 1470,
      "by": 1471,
      "Ġrem": 1472,
      "ergy": 1473,
      "usiness": 1474,
      "uro": 1475,
      "Ġreal": 1476,
      "ĠStates": 1477,
      "It": 1478,
      "read": 1479,
      "Ġagainst": 1480,
      "val": 1481,
      "not": 1482,
      "Ġrespect": 1483,
      "lear": 1484,
      "\\,": 1485,
      "where": 1486,
      "Ġproper": 1487,
      ")$.": 1488,
      "2018": 1489,
      "vert": 1490,
      "2017": 1491,
      "li": 1492,
      "ĠRe": 1493,
      "Ġdi": 1494,
      "ilar": 1495,
      "def": 1496,
      "2019": 1497,
      "}}\\": 1498,
      "Ġlife": 1499,
      "Ġfour": 1500,
      "Ġca": 1501,
      "Ġprogram": 1502,
      "Ġu": 1503,
      "Ġcondition": 1504,
      "Ġbound": 1505,
      "rix": 1506,
      "Ġread": 1507,
      "Ġchild": 1508,
      "els": 1509,
      "ves": 1510,
      "rong": 1511,
      "ĠâĢĶ": 1512,
      "lex": 1513,
      "2016": 1514,
      "ctions": 1515,
      "Ġ$(": 1516,
      "ley": 1517,
      "References": 1518,
      "vious": 1519,
      "une": 1520,
      "Ġpa": 1521,
      "ĠEng": 1522,
      "Ġcar": 1523,
      "ĠBl": 1524,
      "au": 1525,
      "ĠPh": 1526,
      "etwork": 1527,
      "includ": 1528,
      "por": 1529,
      "...": 1530,
      "arm": 1531,
      "Ġelect": 1532,
      "Ġprof": 1533,
      "27": 1534,
      "urther": 1535,
      "Ġrecord": 1536,
      "ane": 1537,
      "$$": 1538,
      "Ġhelp": 1539,
      "raw": 1540,
      "Ġlim": 1541,
      "Ġmult": 1542,
      "Ġlocal": 1543,
      "\\\\\\\\": 1544,
      "Ġsl": 1545,
      "Ġorig": 1546,
      "28": 1547,
      "Ġinterest": 1548,
      "Ġstand": 1549,
      "ĠOn": 1550,
      "inc": 1551,
      "26": 1552,
      "Ġbased": 1553,
      "Ġparamet": 1554,
      "Ġrece": 1555,
      "gg": 1556,
      "Ġdistrib": 1557,
      "Ġmet": 1558,
      "Ġlarge": 1559,
      "Ġknown": 1560,
      "alk": 1561,
      "enn": 1562,
      "ww": 1563,
      "less": 1564,
      "Ġcare": 1565,
      "For": 1566,
      "utions": 1567,
      "Om": 1568,
      "Ġgood": 1569,
      "oss": 1570,
      "ource": 1571,
      "}_{\\": 1572,
      "Ġpower": 1573,
      "ially": 1574,
      "epsilon": 1575,
      "Ġstill": 1576,
      "ised": 1577,
      "olution": 1578,
      "Ġhand": 1579,
      "Ġrest": 1580,
      "ternational": 1581,
      "Ġthink": 1582,
      "Ġvalue": 1583,
      "Ġmark": 1584,
      "ek": 1585,
      "uthor": 1586,
      "Ġtake": 1587,
      "Ġtest": 1588,
      "ĠMay": 1589,
      "2015": 1590,
      "Ġaround": 1591,
      "Ġgeneral": 1592,
      "ately": 1593,
      "Ġmass": 1594,
      "rodu": 1595,
      "mbol": 1596,
      "ploy": 1597,
      "Ġhere": 1598,
      "Ġopen": 1599,
      "Ġiss": 1600,
      "rop": 1601,
      "itive": 1602,
      "Ġallow": 1603,
      "sq": 1604,
      "Ġtop": 1605,
      "ott": 1606,
      "Ġbook": 1607,
      "Ġgl": 1608,
      "agn": 1609,
      "Ã©": 1610,
      "ĠBut": 1611,
      "Ġdesign": 1612,
      "Ġbuild": 1613,
      "rist": 1614,
      "ĠFig": 1615,
      "Ġfamily": 1616,
      "Omega": 1617,
      "Ġbas": 1618,
      "Ġorgan": 1619,
      "Ġspace": 1620,
      "ĠMar": 1621,
      "Ġmov": 1622,
      "âĢĶ": 1623,
      "ently": 1624,
      "Ġcontro": 1625,
      "Ġproject": 1626,
      "textbf": 1627,
      "Ġav": 1628,
      "ternal": 1629,
      "Ġcharact": 1630,
      "rel": 1631,
      "Ġdown": 1632,
      "akes": 1633,
      "ubl": 1634,
      "Ġrun": 1635,
      "ivid": 1636,
      "Ġlook": 1637,
      "umn": 1638,
      "Ġgovernment": 1639,
      "lo": 1640,
      "ccess": 1641,
      "^*": 1642,
      "Ġvis": 1643,
      "raphics": 1644,
      "Ġtechn": 1645,
      "sim": 1646,
      "2014": 1647,
      "Ġdescrib": 1648,
      "Ġpur": 1649,
      "Ġstruct": 1650,
      "Con": 1651,
      "Ġident": 1652,
      "med": 1653,
      "Ġcurrent": 1654,
      "Ġrese": 1655,
      "Ġinc": 1656,
      "ify": 1657,
      "ĠJan": 1658,
      "psi": 1659,
      "ris": 1660,
      "Ġname": 1661,
      "ĠEx": 1662,
      "ke": 1663,
      "ĠJohn": 1664,
      ")$,": 1665,
      "'t": 1666,
      "Ġdem": 1667,
      "://": 1668,
      "Ġleg": 1669,
      "Ph": 1670,
      "yle": 1671,
      "29": 1672,
      "ird": 1673,
      "ĠThey": 1674,
      "ĠPl": 1675,
      "Ġwithin": 1676,
      "Ġobserv": 1677,
      "bs": 1678,
      "Ġinvest": 1679,
      "Ġwant": 1680,
      "ĠWh": 1681,
      "ths": 1682,
      "Ġlear": 1683,
      "ĠCan": 1684,
      "Ġpolit": 1685,
      "\">": 1686,
      "Ġlevel": 1687,
      "Ġaddition": 1688,
      "ĠIf": 1689,
      "epend": 1690,
      "Ġprot": 1691,
      "Ġlater": 1692,
      "bm": 1693,
      "psilon": 1694,
      "uman": 1695,
      "ries": 1696,
      "Ġ/": 1697,
      "Ġve": 1698,
      "Ġassum": 1699,
      "Ġel": 1700,
      "Ġsay": 1701,
      "ĠCent": 1702,
      "Ġenergy": 1703,
      "tr": 1704,
      "respond": 1705,
      "Ch": 1706,
      "Ġparticular": 1707,
      "subsection": 1708,
      "Ġmust": 1709,
      "ctor": 1710,
      "ery": 1711,
      "Ġopt": 1712,
      "Ġimp": 1713,
      "Ġpat": 1714,
      "Ġoffic": 1715,
      "aim": 1716,
      "Ġcap": 1717,
      "Gamma": 1718,
      "ajor": 1719,
      "rand": 1720,
      "\",": 1721,
      "2013": 1722,
      "))": 1723,
      "Ġestim": 1724,
      "ocial": 1725,
      "Ġadv": 1726,
      "ĠNational": 1727,
      "Ġpass": 1728,
      "Ġplace": 1729,
      "ĠčĊ": 1730,
      "ording": 1731,
      "Ġele": 1732,
      "sqrt": 1733,
      "ĠRes": 1734,
      "100": 1735,
      "ole": 1736,
      "Ġrema": 1737,
      "ograph": 1738,
      "ody": 1739,
      "eqnarray": 1740,
      "conom": 1741,
      "aving": 1742,
      "ithm": 1743,
      "ĠYork": 1744,
      "Ġthough": 1745,
      "Ġrad": 1746,
      "Ġsom": 1747,
      "iod": 1748,
      "Ġbro": 1749,
      "Ġlist": 1750,
      "ination": 1751,
      "iving": 1752,
      "Ġcalled": 1753,
      "Ġbest": 1754,
      "Ġ:": 1755,
      "vare": 1756,
      "Ġdon": 1757,
      "ĠUS": 1758,
      "egraphics": 1759,
      "includegraphics": 1760,
      "ĠTe": 1761,
      "bold": 1762,
      "2012": 1763,
      "ĠCar": 1764,
      "Ġseries": 1765,
      "ensure": 1766,
      "Ġsection": 1767,
      "ead": 1768,
      "ians": 1769,
      "co": 1770,
      "bl": 1771,
      "oard": 1772,
      "}^{\\": 1773,
      "side": 1774,
      "varepsilon": 1775,
      "Ġbeh": 1776,
      "Ġexample": 1777,
      "Ġlet": 1778,
      "ER": 1779,
      "uary": 1780,
      "2010": 1781,
      "ended": 1782,
      "Ġdue": 1783,
      "Ġocc": 1784,
      "ival": 1785,
      "Ġopp": 1786,
      "til": 1787,
      "Ġbusiness": 1788,
      "gor": 1789,
      "caption": 1790,
      "^{(": 1791,
      "Ġconsider": 1792,
      "Ġden": 1793,
      "ĠAll": 1794,
      "Ġtri": 1795,
      "As": 1796,
      "Ġday": 1797,
      "Ġcontain": 1798,
      "rightarrow": 1799,
      "194": 1800,
      "Ġabove": 1801,
      "Ġcorrespond": 1802,
      "Ġsever": 1803,
      "Ġleft": 1804,
      "fra": 1805,
      "Ġinit": 1806,
      "Ġestabl": 1807,
      "Ġwithout": 1808,
      "ĠWorld": 1809,
      "ories": 1810,
      "Ġmeasure": 1811,
      "Ġtrad": 1812,
      "Ġimportant": 1813,
      "Ġann": 1814,
      "Ġaff": 1815,
      "}=": 1816,
      "osed": 1817,
      "2011": 1818,
      "reen": 1819,
      "ends": 1820,
      "Ġsimilar": 1821,
      "ĠJu": 1822,
      "ĠOr": 1823,
      "ĠHowever": 1824,
      "ĠCount": 1825,
      "tab": 1826,
      "ention": 1827,
      "cm": 1828,
      "Ġnear": 1829,
      "ĠYou": 1830,
      "ĠâĢĺ": 1831,
      "log": 1832,
      "emph": 1833,
      ")=": 1834,
      "Ġ,": 1835,
      "aces": 1836,
      "Ġlarg": 1837,
      "Ġsum": 1838,
      "Ġalong": 1839,
      "Ġseveral": 1840,
      "stand": 1841,
      "Ġsat": 1842,
      "Ġpost": 1843,
      "Ġnetwork": 1844,
      "imens": 1845,
      "ĠEuro": 1846,
      "rem": 1847,
      "Ġgra": 1848,
      "Ġstudy": 1849,
      "ĠAt": 1850,
      "Ġtem": 1851,
      "sk": 1852,
      "60": 1853,
      "Ġgreat": 1854,
      "lim": 1855,
      "ges": 1856,
      "stit": 1857,
      "Ġmusic": 1858,
      "Ġsingle": 1859,
      "Ġfre": 1860,
      "iver": 1861,
      "195": 1862,
      "tal": 1863,
      "Ġscal": 1864,
      "Ġsup": 1865,
      "Ġanother": 1866,
      "33": 1867,
      "ĠOct": 1868,
      "ĠAss": 1869,
      "ister": 1870,
      "ĠWar": 1871,
      "ium": 1872,
      "Ġ${\\": 1873,
      "ĠĠĊ": 1874,
      "atch": 1875,
      "Ġche": 1876,
      "geq": 1877,
      "chi": 1878,
      "Ġcal": 1879,
      "gorithm": 1880,
      "wards": 1881,
      "ript": 1882,
      "be": 1883,
      "ĠState": 1884,
      "ĠRep": 1885,
      "oid": 1886,
      "Ġseason": 1887,
      "Ġredu": 1888,
      "ples": 1889,
      "bum": 1890,
      "Ġdeterm": 1891,
      "ental": 1892,
      "ĠSec": 1893,
      "ST": 1894,
      "ĠMarch": 1895,
      "ĠAug": 1896,
      "refore": 1897,
      "Ġhealth": 1898,
      "ai": 1899,
      "Ġhold": 1900,
      "Ġcomput": 1901,
      "Ġinteg": 1902,
      "Ġhome": 1903,
      "position": 1904,
      "rangle": 1905,
      "Ġmean": 1906,
      "ances": 1907,
      "ification": 1908,
      "ask": 1909,
      "ene": 1910,
      "Ġdiscuss": 1911,
      "ison": 1912,
      "ued": 1913,
      "ences": 1914,
      "iron": 1915,
      "Ġobject": 1916,
      "35": 1917,
      "Ġ\\,": 1918,
      "proof": 1919,
      "inks": 1920,
      "ways": 1921,
      "ĠSept": 1922,
      "ilit": 1923,
      "ĠAust": 1924,
      "pril": 1925,
      "esp": 1926,
      "==": 1927,
      "AR": 1928,
      "wh": 1929,
      "Ġnext": 1930,
      "che": 1931,
      "Ġhig": 1932,
      "Ġgame": 1933,
      "Ġconn": 1934,
      "----": 1935,
      "Ġfew": 1936,
      "rack": 1937,
      "ope": 1938,
      "Ġarea": 1939,
      "ym": 1940,
      "ootball": 1941,
      "Ġgrow": 1942,
      "&\\": 1943,
      "On": 1944,
      "Ġcrit": 1945,
      "varphi": 1946,
      "Ġide": 1947,
      "ĠJanuary": 1948,
      "Ġuntil": 1949,
      ".~\\": 1950,
      "ĠSchool": 1951,
      ".}": 1952,
      "ĠTo": 1953,
      "ĠPol": 1954,
      "icle": 1955,
      "Ġperiod": 1956,
      "Ġmajor": 1957,
      "ĠThere": 1958,
      "Ġsuccess": 1959,
      "Ġcompany": 1960,
      "ators": 1961,
      "Ġcountry": 1962,
      "Ġgoing": 1963,
      "Ġdom": 1964,
      "eed": 1965,
      "umber": 1966,
      "ĠJune": 1967,
      "''": 1968,
      "Pro": 1969,
      "Ġcharacter": 1970,
      "symbol": 1971,
      "Ġterms": 1972,
      "Ġquest": 1973,
      "cember": 1974,
      "ĠGe": 1975,
      "Ġvalues": 1976,
      "Ġhead": 1977,
      "Ġchang": 1978,
      "Ġke": 1979,
      "lege": 1980,
      "Ġdel": 1981,
      "2009": 1982,
      "ĠEurope": 1983,
      "ormal": 1984,
      "xim": 1985,
      "istic": 1986,
      "Ġ--": 1987,
      "ĠMan": 1988,
      "Ġauthor": 1989,
      "atic": 1990,
      "Ġmillion": 1991,
      "ument": 1992,
      "Ġappear": 1993,
      "Ġwar": 1994,
      "Ġmembers": 1995,
      "Ġwomen": 1996,
      "Ġplan": 1997,
      "Ġlow": 1998,
      "Ġpot": 1999,
      "ift": 2000,
      "ĠBrit": 2001,
      "Ġshown": 2002,
      "see": 2003,
      "eral": 2004,
      "ĠJuly": 2005,
      "gin": 2006,
      "Ġevent": 2007,
      "Ġless": 2008,
      "Ġ`": 2009,
      "Ġshows": 2010,
      "reg": 2011,
      "Big": 2012,
      "Ġview": 2013,
      "ĠSouth": 2014,
      "Ġposition": 2015,
      "iam": 2016,
      "ovember": 2017,
      "Ġfollows": 2018,
      "Ġexist": 2019,
      "Ġdeath": 2020,
      "ule": 2021,
      "Ġchange": 2022,
      "osp": 2023,
      "boldsymbol": 2024,
      "Ġhy": 2025,
      "lu": 2026,
      "Ġproduct": 2027,
      "non": 2028,
      "ney": 2029,
      "ysis": 2030,
      "ords": 2031,
      "angu": 2032,
      "âĢ¦": 2033,
      "Ġcho": 2034,
      "45": 2035,
      "Ġpred": 2036,
      "Ġstrong": 2037,
      "Ġplayers": 2038,
      "ĠSeptember": 2039,
      "arent": 2040,
      "Ġeng": 2041,
      "2008": 2042,
      "ĠNo": 2043,
      "urch": 2044,
      "Ġfinal": 2045,
      "Ġprevious": 2046,
      "Ġbecame": 2047,
      "Ġdeg": 2048,
      "ĠBe": 2049,
      "Ġresearch": 2050,
      "frak": 2051,
      "etail": 2052,
      "Ġwin": 2053,
      "hline": 2054,
      "Ġearly": 2055,
      "ĠApril": 2056,
      "oman": 2057,
      "},\\": 2058,
      "80": 2059,
      "ero": 2060,
      "ĠAugust": 2061,
      "ij": 2062,
      "obal": 2063,
      "90": 2064,
      "ĠCo": 2065,
      "Ġfac": 2066,
      "ocus": 2067,
      "ĠMin": 2068,
      "mp": 2069,
      "Ġfund": 2070,
      "Ġspect": 2071,
      "Ġturn": 2072,
      "mod": 2073,
      "ividual": 2074,
      "Ġpossible": 2075,
      "aster": 2076,
      "Ġet": 2077,
      "Ġassoci": 2078,
      "imal": 2079,
      "ertain": 2080,
      "Ġmanag": 2081,
      "ĠOctober": 2082,
      "Ġemploy": 2083,
      "ĠÂ": 2084,
      ")^": 2085,
      "idd": 2086,
      "Ġinvol": 2087,
      "AT": 2088,
      "ague": 2089,
      "duct": 2090,
      "Ġstre": 2091,
      "ĠAf": 2092,
      "ĠChrist": 2093,
      "overline": 2094,
      "Ġfull": 2095,
      "back": 2096,
      "Ġmodels": 2097,
      "Ġcontrib": 2098,
      "\".": 2099,
      "Ġpoints": 2100,
      "Ġland": 2101,
      "IN": 2102,
      "[\\": 2103,
      "inition": 2104,
      "ĠDecember": 2105,
      "ĠTr": 2106,
      "Ġintrodu": 2107,
      "Ġtype": 2108,
      "ensity": 2109,
      "ger": 2110,
      "ored": 2111,
      "31": 2112,
      "ĠPres": 2113,
      "Ġsignific": 2114,
      "ruction": 2115,
      "An": 2116,
      "ither": 2117,
      "org": 2118,
      "ĠEn": 2119,
      "Ġtimes": 2120,
      "urs": 2121,
      "Ġhistory": 2122,
      "ights": 2123,
      "Ġalbum": 2124,
      "Ġsong": 2125,
      "Ġstates": 2126,
      "Ġactiv": 2127,
      "Ġeconom": 2128,
      "Let": 2129,
      "Ġold": 2130,
      "ble": 2131,
      "Ġcity": 2132,
      "ources": 2133,
      "icy": 2134,
      "ĠGerm": 2135,
      "ĠĠĠĠĠĠĠĠĠĠĠĠĠĠĠ": 2136,
      "istor": 2137,
      "Ġimpro": 2138,
      "Com": 2139,
      "idence": 2140,
      "ĠNovember": 2141,
      "Ġdefined": 2142,
      "ients": 2143,
      "ailable": 2144,
      "ably": 2145,
      "rim": 2146,
      "atures": 2147,
      "Al": 2148,
      "Ġpubl": 2149,
      "ĠCal": 2150,
      "isf": 2151,
      "Ġeduc": 2152,
      "Ġquant": 2153,
      "Ġinclude": 2154,
      "Ġsit": 2155,
      "Ġvers": 2156,
      "error": 2157,
      "}).": 2158,
      "Ġcomb": 2159,
      "ling": 2160,
      "Ġapplic": 2161,
      "Ġmap": 2162,
      "Ġfurther": 2163,
      "34": 2164,
      "ged": 2165,
      "Ġtotal": 2166,
      "though": 2167,
      "ourn": 2168,
      "Ġbre": 2169,
      "lin": 2170,
      "Ġpract": 2171,
      "posed": 2172,
      "ief": 2173,
      "ON": 2174,
      "}}$": 2175,
      "ĠCounty": 2176,
      "uture": 2177,
      "ological": 2178,
      "itle": 2179,
      "Ġreally": 2180,
      "ĠFeb": 2181,
      "Ġla": 2182,
      "alf": 2183,
      "Ġcost": 2184,
      "mathfrak": 2185,
      "Ġchildren": 2186,
      "viron": 2187,
      "Ġprom": 2188,
      "amed": 2189,
      "iction": 2190,
      ")(": 2191,
      "omet": 2192,
      "ĠAct": 2193,
      "........": 2194,
      "Ġpotential": 2195,
      "ĠCity": 2196,
      "AS": 2197,
      "ĠMed": 2198,
      "75": 2199,
      "ler": 2200,
      "play": 2201,
      "Ġsk": 2202,
      "2007": 2203,
      "oper": 2204,
      "af": 2205,
      "vec": 2206,
      "Ġband": 2207,
      "ength": 2208,
      "Ġclaim": 2209,
      "ĠSte": 2210,
      "iter": 2211,
      "32": 2212,
      "cul": 2213,
      "ising": 2214,
      "face": 2215,
      "Ġindividual": 2216,
      "Ġdistribution": 2217,
      "ending": 2218,
      "Ġformer": 2219,
      "Ġcontrol": 2220,
      "sequ": 2221,
      "urb": 2222,
      "bra": 2223,
      "Ġlinks": 2224,
      "ID": 2225,
      "ĠPar": 2226,
      "Ġleast": 2227,
      "ittle": 2228,
      "Ġcommunity": 2229,
      "Ġmar": 2230,
      "orph": 2231,
      "36": 2232,
      "2021": 2233,
      "self": 2234,
      "ique": 2235,
      "ieve": 2236,
      "ĠCanad": 2237,
      "uation": 2238,
      "citep": 2239,
      "clus": 2240,
      "ĠNorth": 2241,
      "ned": 2242,
      "Ġbetter": 2243,
      "ĠSo": 2244,
      "Ġamong": 2245,
      "Ġeas": 2246,
      "Ġhapp": 2247,
      "ĠGu": 2248,
      "Ġprovide": 2249,
      "Ġarg": 2250,
      "Ġsocial": 2251,
      "etic": 2252,
      "Ġhuman": 2253,
      "isc": 2254,
      "ont": 2255,
      "Ġexpress": 2256,
      "Ġshort": 2257,
      "plic": 2258,
      "sf": 2259,
      "ruary": 2260,
      "Ġphot": 2261,
      "ĠBy": 2262,
      "Ġpriv": 2263,
      "Ġder": 2264,
      "Ġrelations": 2265,
      "Ġcou": 2266,
      "Ġfore": 2267,
      "Ġphys": 2268,
      "Ġcomplet": 2269,
      "70": 2270,
      "Ġperformance": 2271,
      "new": 2272,
      "langle": 2273,
      "ynam": 2274,
      "empt": 2275,
      "nabl": 2276,
      "textit": 2277,
      "Ġaver": 2278,
      "Ġstructure": 2279,
      "ldots": 2280,
      "lor": 2281,
      "Ġtyp": 2282,
      "Ġmove": 2283,
      "cap": 2284,
      "Ġoften": 2285,
      "Ġcat": 2286,
      "Âł": 2287,
      "Ġfocus": 2288,
      "Ġcases": 2289,
      "Ġstandard": 2290,
      "upp": 2291,
      "Ġnever": 2292,
      "ĠPart": 2293,
      "appa": 2294,
      "mult": 2295,
      "):": 2296,
      "Ġself": 2297,
      "ground": 2298,
      "Ġins": 2299,
      "Ġbecome": 2300,
      "nabla": 2301,
      "He": 2302,
      "ĠII": 2303,
      "action": 2304,
      "Ġclear": 2305,
      "Ġput": 2306,
      "Ġavailable": 2307,
      "wide": 2308,
      "Ġsignificant": 2309,
      "ensuremath": 2310,
      "Ġfree": 2311,
      "2006": 2312,
      "Ġsize": 2313,
      "\\|": 2314,
      "center": 2315,
      "ependent": 2316,
      "To": 2317,
      "Ġaction": 2318,
      "with": 2319,
      "atter": 2320,
      "plit": 2321,
      "ĠThen": 2322,
      "ales": 2323,
      "Ġapproach": 2324,
      "eak": 2325,
      "ried": 2326,
      "ush": 2327,
      "Ġspecial": 2328,
      "Ġalways": 2329,
      "Ġregion": 2330,
      "ilt": 2331,
      "Ġvol": 2332,
      "Phi": 2333,
      "Ġsays": 2334,
      "color": 2335,
      "Ġstory": 2336,
      "Ġdevelopment": 2337,
      "Ġcompet": 2338,
      "38": 2339,
      "Ġmot": 2340,
      "ixed": 2341,
      "Ġsatisf": 2342,
      "mmet": 2343,
      "aken": 2344,
      "ials": 2345,
      "aint": 2346,
      "Ġpaper": 2347,
      "ĠWill": 2348,
      "Ġtoo": 2349,
      "Ġmeans": 2350,
      "Ġmight": 2351,
      "Ġnational": 2352,
      "ĠSy": 2353,
      "urity": 2354,
      "ĠFebruary": 2355,
      "ele": 2356,
      "ĠMc": 2357,
      "ĠCor": 2358,
      "enc": 2359,
      "Ġrate": 2360,
      "Ġ>": 2361,
      "ĠHar": 2362,
      "ĠEd": 2363,
      "ĠReg": 2364,
      "Ġdetail": 2365,
      "abor": 2366,
      "ille": 2367,
      "ony": 2368,
      "ecess": 2369,
      "ĠThat": 2370,
      "Ġcomplex": 2371,
      "ude": 2372,
      "Ġstudents": 2373,
      "Ġmom": 2374,
      "ĠCour": 2375,
      "ĠAustral": 2376,
      "no": 2377,
      "asing": 2378,
      "pd": 2379,
      "ĠBar": 2380,
      "Ġhard": 2381,
      "draw": 2382,
      "Ġalgorithm": 2383,
      "Ġpri": 2384,
      "vironment": 2385,
      "Ġmember": 2386,
      "onst": 2387,
      "lish": 2388,
      ",\"": 2389,
      "ino": 2390,
      "39": 2391,
      "Ġtraining": 2392,
      "Ġpo": 2393,
      "ounc": 2394,
      "rant": 2395,
      "ĠThese": 2396,
      "kappa": 2397,
      "opt": 2398,
      "Ġacross": 2399,
      "Ġconcer": 2400,
      "Ġcome": 2401,
      "Ġaut": 2402,
      "subset": 2403,
      "By": 2404,
      "Ġprofess": 2405,
      "Ġfive": 2406,
      "Ġlik": 2407,
      "ĠFran": 2408,
      "ipp": 2409,
      "ties": 2410,
      "ogn": 2411,
      "ches": 2412,
      "imum": 2413,
      "sm": 2414,
      "cit": 2415,
      "eter": 2416,
      "Ġable": 2417,
      "Ġaccount": 2418,
      "37": 2419,
      "Ġside": 2420,
      "Ġwon": 2421,
      "ĠDep": 2422,
      "Ġmax": 2423,
      "ham": 2424,
      "Ġcirc": 2425,
      "Ġoriginal": 2426,
      "ĉĉĉĉ": 2427,
      "odes": 2428,
      "Ġworking": 2429,
      "Ġapproxim": 2430,
      "Ġrole": 2431,
      "Lambda": 2432,
      "Ġfootball": 2433,
      "gether": 2434,
      "Ġtogether": 2435,
      "Ġseem": 2436,
      "};": 2437,
      "Ġexperim": 2438,
      "Ġdeb": 2439,
      "})$": 2440,
      "\\%": 2441,
      "ĠPresident": 2442,
      "minist": 2443,
      "Ġindic": 2444,
      "ii": 2445,
      "Ġservice": 2446,
      "Ġdescribed": 2447,
      "most": 2448,
      "itor": 2449,
      "AN": 2450,
      "Ġcult": 2451,
      "pect": 2452,
      "iple": 2453,
      "Ġpay": 2454,
      "()": 2455,
      "If": 2456,
      "Ġred": 2457,
      "acy": 2458,
      "Ġhaving": 2459,
      "ĠApp": 2460,
      "otimes": 2461,
      "uk": 2462,
      "Ġtook": 2463,
      "Ġyoung": 2464,
      "Ġseen": 2465,
      "uted": 2466,
      "uck": 2467,
      "Ġcoll": 2468,
      "Ġindust": 2469,
      "idered": 2470,
      "Ġcover": 2471,
      "Ġneg": 2472,
      "Ġanalysis": 2473,
      "ung": 2474,
      "hold": 2475,
      "umer": 2476,
      "ĠAfric": 2477,
      "Ġ@": 2478,
      "Ġmagn": 2479,
      "Ġcamp": 2480,
      "anguage": 2481,
      "ze": 2482,
      "Ġbir": 2483,
      "ĠLet": 2484,
      "Ġcommon": 2485,
      "ĠComp": 2486,
      "ready": 2487,
      "ES": 2488,
      "Ġaccess": 2489,
      "05": 2490,
      "lected": 2491,
      "rateg": 2492,
      "External": 2493,
      "Ġsystems": 2494,
      "Ġbig": 2495,
      "ĠHis": 2496,
      "Ġfuture": 2497,
      "Ġobtained": 2498,
      "ortun": 2499,
      "table": 2500,
      "Ġthings": 2501,
      "Ġlimit": 2502,
      "bit": 2503,
      "Ġant": 2504,
      "ington": 2505,
      "Ġcertain": 2506,
      "Ġben": 2507,
      "Ġcompon": 2508,
      "ething": 2509,
      "rated": 2510,
      "01": 2511,
      "Ġsolution": 2512,
      "Ġbi": 2513,
      "ttps": 2514,
      "Ġsequ": 2515,
      "Ġgive": 2516,
      "Ġlight": 2517,
      "ilities": 2518,
      "atural": 2519,
      "ĠPr": 2520,
      "iber": 2521,
      "Ġweek": 2522,
      "Ġrange": 2523,
      "itted": 2524,
      "ĠAm": 2525,
      "time": 2526,
      "Ġmeet": 2527,
      "Ġunderstand": 2528,
      "eneral": 2529,
      "ĠRuss": 2530,
      "99": 2531,
      "ociety": 2532,
      "Ġconsidered": 2533,
      "centering": 2534,
      "now": 2535,
      "orts": 2536,
      "rew": 2537,
      "Ġheld": 2538,
      "Ġwater": 2539,
      "ones": 2540,
      "ĠAg": 2541,
      "}),": 2542,
      "Ġthird": 2543,
      "Ġdays": 2544,
      "raft": 2545,
      "Ġage": 2546,
      "ibility": 2547,
      "Ġfar": 2548,
      "mbox": 2549,
      "mat": 2550,
      "inary": 2551,
      "Ġenc": 2552,
      "dots": 2553,
      "Ġhigher": 2554,
      "ament": 2555,
      "Ġlo": 2556,
      "Ġwhether": 2557,
      "Ġshall": 2558,
      "ĠWith": 2559,
      "Ġreason": 2560,
      "Ġhom": 2561,
      "irm": 2562,
      "Ġconditions": 2563,
      "Ġvarious": 2564,
      "aul": 2565,
      "Ġach": 2566,
      "2005": 2567,
      "ĠWest": 2568,
      "Ġep": 2569,
      "ext": 2570,
      "48": 2571,
      "Ġjo": 2572,
      "ĠAb": 2573,
      "circ": 2574,
      "ume": 2575,
      "OR": 2576,
      "ster": 2577,
      "used": 2578,
      "ĠKing": 2579,
      "eal": 2580,
      "ĠAfter": 2581,
      "}}{": 2582,
      "Ġplayed": 2583,
      "Ġgraph": 2584,
      "adem": 2585,
      "ĠBritish": 2586,
      "sel": 2587,
      "utes": 2588,
      "Ġmaking": 2589,
      "',": 2590,
      "ats": 2591,
      "Ġservices": 2592,
      "ĠOne": 2593,
      "based": 2594,
      "Ġmen": 2595,
      "ĠWhen": 2596,
      "Ġalready": 2597,
      "ving": 2598,
      "ours": 2599,
      "Ġpopulation": 2600,
      "Ġparameters": 2601,
      "Ġpolitical": 2602,
      "Ġmater": 2603,
      "amples": 2604,
      "ware": 2605,
      "ilitary": 2606,
      "ĠHouse": 2607,
      "apan": 2608,
      ".\\": 2609,
      "ape": 2610,
      "Ġcareer": 2611,
      "Ġreceived": 2612,
      "ched": 2613,
      "ides": 2614,
      "Ġtrue": 2615,
      "\\[": 2616,
      "Ġtheory": 2617,
      "off": 2618,
      "thing": 2619,
      "ideo": 2620,
      "inally": 2621,
      "Ġhowever": 2622,
      "Ġagre": 2623,
      "Ġcame": 2624,
      "Ġrequire": 2625,
      "Sigma": 2626,
      "ography": 2627,
      "Ġhouse": 2628,
      "oney": 2629,
      "ĠArt": 2630,
      "Ġloss": 2631,
      "Ġreleased": 2632,
      "ables": 2633,
      "lev": 2634,
      "Ġfunctions": 2635,
      "ĠĠĠĠĠĠĠĠĠĠĠĠĠĠĠĠĠĠĠĠĠĠĠĠĠĠĠĠĠĠĠĠ": 2636,
      "Ġ//": 2637,
      "tee": 2638,
      "ournal": 2639,
      "ht": 2640,
      "ouncil": 2641,
      "Ġattack": 2642,
      "ĠAmerica": 2643,
      "ae": 2644,
      "Ġlot": 2645,
      "Ġfri": 2646,
      "Ġmarket": 2647,
      "ured": 2648,
      "2000": 2649,
      "Ġconstant": 2650,
      "Ġask": 2651,
      "\\\\\\\\\\\\\\\\": 2652,
      "Ġsix": 2653,
      "oph": 2654,
      "ĠRec": 2655,
      "Ġver": 2656,
      "Ġlower": 2657,
      "Ġreview": 2658,
      "Ps": 2659,
      "ana": 2660,
      "ĠCourt": 2661,
      "Ġrespectively": 2662,
      "Ġeither": 2663,
      "Ġsomething": 2664,
      "aced": 2665,
      "Ġmatrix": 2666,
      "aut": 2667,
      "Ġbegan": 2668,
      "ĠMe": 2669,
      "Ġaverage": 2670,
      "rap": 2671,
      "Ġpast": 2672,
      "Ġ($": 2673,
      "Fig": 2674,
      "Ġabs": 2675,
      "ĠDav": 2676,
      "ront": 2677,
      "\\!": 2678,
      "box": 2679,
      "augh": 2680,
      "Ġfail": 2681,
      "Ġtaken": 2682,
      "Ġtre": 2683,
      "Ġbuilding": 2684,
      "rate": 2685,
      "Ġkey": 2686,
      "Ġsugg": 2687,
      "ondon": 2688,
      "Ġsuggest": 2689,
      "Ġdensity": 2690,
      "Un": 2691,
      "ĠSection": 2692,
      "Ġsepar": 2693,
      "widet": 2694,
      "urg": 2695,
      "onal": 2696,
      "Ġ#": 2697,
      "hib": 2698,
      "nonumber": 2699,
      "Ġinvestig": 2700,
      "fl": 2701,
      "arget": 2702,
      "Ġsent": 2703,
      "ius": 2704,
      "order": 2705,
      "exp": 2706,
      "Ġblack": 2707,
      "ederal": 2708,
      "ulations": 2709,
      "Ġviol": 2710,
      "ux": 2711,
      "Ġfeature": 2712,
      "aff": 2713,
      "field": 2714,
      "rary": 2715,
      "ivil": 2716,
      "Ġlittle": 2717,
      "Ġcy": 2718,
      "de": 2719,
      "ership": 2720,
      "Ġothers": 2721,
      "{-": 2722,
      "Ġ)": 2723,
      "Ġtry": 2724,
      "Ġprovided": 2725,
      "Ġconsist": 2726,
      "44": 2727,
      "65": 2728,
      "Ġkind": 2729,
      "lying": 2730,
      "ceed": 2731,
      "ampions": 2732,
      "Ġnecess": 2733,
      "andom": 2734,
      "Ġair": 2735,
      "Cl": 2736,
      "ules": 2737,
      "Ġpublished": 2738,
      "widetilde": 2739,
      "2004": 2740,
      "iles": 2741,
      "Ġworks": 2742,
      "ĠSch": 2743,
      "IC": 2744,
      "tabular": 2745,
      "Ġpositive": 2746,
      "Ġarch": 2747,
      "thm": 2748,
      "Ġfram": 2749,
      "Ġevents": 2750,
      "EN": 2751,
      "bor": 2752,
      "->": 2753,
      "Ġdev": 2754,
      "Ġcourt": 2755,
      "aries": 2756,
      "AL": 2757,
      "ĠCollege": 2758,
      "Ġcross": 2759,
      "Ġwritten": 2760,
      "95": 2761,
      "Ġaccording": 2762,
      "Ġgot": 2763,
      "Ġwid": 2764,
      "rain": 2765,
      "Ġgroups": 2766,
      "Ġlay": 2767,
      "Ġinitial": 2768,
      "plement": 2769,
      "ĠSan": 2770,
      "isk": 2771,
      "Ġdoc": 2772,
      "AC": 2773,
      "ream": 2774,
      "ĠArm": 2775,
      "Ġtax": 2776,
      "Ġstar": 2777,
      "Ġpath": 2778,
      "Ġdat": 2779,
      "Ġproposed": 2780,
      "Ġcorresponding": 2781,
      "ĠInternational": 2782,
      "}-": 2783,
      "IS": 2784,
      "ault": 2785,
      "Ġsubject": 2786,
      "ket": 2787,
      "Ġill": 2788,
      "pper": 2789,
      "fer": 2790,
      "otes": 2791,
      "Ġtitle": 2792,
      "/\\": 2793,
      "Ġequation": 2794,
      "Ġquestion": 2795,
      "Ġprim": 2796,
      "cont": 2797,
      "gress": 2798,
      "Ġproof": 2799,
      "arian": 2800,
      "fficient": 2801,
      "Ġpair": 2802,
      "Ġ``": 2803,
      "lation": 2804,
      "64": 2805,
      "Ġfeatures": 2806,
      "Ġtreat": 2807,
      "Ġbelow": 2808,
      "hers": 2809,
      "Ġproperty": 2810,
      "ĠDist": 2811,
      "ĠTheorem": 2812,
      "na": 2813,
      "cor": 2814,
      "Ġemb": 2815,
      "Ġrepl": 2816,
      "Ġcourse": 2817,
      "Ġpercent": 2818,
      "Ġchall": 2819,
      "dom": 2820,
      "ĠMore": 2821,
      "Ġlinear": 2822,
      "ttp": 2823,
      "Ġaway": 2824,
      "Ġground": 2825,
      "ĠEnglish": 2826,
      "aring": 2827,
      "ĉĉĉ": 2828,
      "Ġthus": 2829,
      "Ġtown": 2830,
      "Ġfrequ": 2831,
      "rench": 2832,
      "ype": 2833,
      "Ġglobal": 2834,
      "hood": 2835,
      "Ġtw": 2836,
      "Ġq": 2837,
      "Ġcalcul": 2838,
      "Ġsw": 2839,
      "erve": 2840,
      "Ġimage": 2841,
      "ĠSw": 2842,
      "imate": 2843,
      "ama": 2844,
      "Ġrights": 2845,
      "anies": 2846,
      "Ġcontinu": 2847,
      "illed": 2848,
      "Ġexperience": 2849,
      "Ġincluded": 2850,
      "artment": 2851,
      "onse": 2852,
      "Ġannoun": 2853,
      "Ġinternational": 2854,
      "itions": 2855,
      "08": 2856,
      "ns": 2857,
      "Ġgen": 2858,
      "::": 2859,
      "Ġjob": 2860,
      "Ġenough": 2861,
      "go": 2862,
      "Ġcell": 2863,
      "Ġpress": 2864,
      "add": 2865,
      "Ġport": 2866,
      "ĠGl": 2867,
      "ĠLondon": 2868,
      "\\]": 2869,
      "Ġbecom": 2870,
      "www": 2871,
      "ivity": 2872,
      "Ġbehav": 2873,
      "Ġelection": 2874,
      "ĠPark": 2875,
      "06": 2876,
      "ĠEl": 2877,
      "ĠJapan": 2878,
      "dd": 2879,
      "ĠLaw": 2880,
      "Ġlearning": 2881,
      "Ġhalf": 2882,
      "ĠCO": 2883,
      "ception": 2884,
      "head": 2885,
      "Ġrequired": 2886,
      "emma": 2887,
      "04": 2888,
      "Ġsem": 2889,
      "Ġestablished": 2890,
      "}+": 2891,
      "Ġrelated": 2892,
      "Ġclose": 2893,
      "Ġfeel": 2894,
      "Ġrefer": 2895,
      "Ġstrateg": 2896,
      "iet": 2897,
      "ship": 2898,
      "II": 2899,
      "Ġwent": 2900,
      "rite": 2901,
      "lement": 2902,
      "style": 2903,
      "oted": 2904,
      "Ġmoment": 2905,
      "Ġsource": 2906,
      "Ġdone": 2907,
      "Ġmethods": 2908,
      "Ġphase": 2909,
      "ĠChina": 2910,
      "rance": 2911,
      "Ġbegin": 2912,
      "Ġrecogn": 2913,
      "prime": 2914,
      "ĠChar": 2915,
      "55": 2916,
      "verse": 2917,
      "apt": 2918,
      "Ġtemper": 2919,
      "Ġrespons": 2920,
      ")}\\": 2921,
      "aly": 2922,
      "\\{": 2923,
      "izing": 2924,
      "Ġgames": 2925,
      "ops": 2926,
      "Ġkeep": 2927,
      "Ġregard": 2928,
      "year": 2929,
      "ector": 2930,
      "Ġdeal": 2931,
      "earch": 2932,
      ")=\\": 2933,
      "Ġstarted": 2934,
      "elling": 2935,
      "Ġassociated": 2936,
      "irl": 2937,
      "aps": 2938,
      "ĠBro": 2939,
      "Ġdimens": 2940,
      "racy": 2941,
      "icult": 2942,
      "Ġtoday": 2943,
      "Ġdegree": 2944,
      "Ġenvironment": 2945,
      "ford": 2946,
      "Ġparticip": 2947,
      "wise": 2948,
      "Ġarm": 2949,
      "Ġge": 2950,
      "sw": 2951,
      "ĠĠĠĠĠĠĠĠĠ": 2952,
      "max": 2953,
      "ĠMon": 2954,
      "ĠQu": 2955,
      "Ġimpact": 2956,
      "ese": 2957,
      "ills": 2958,
      "}]": 2959,
      "Ġpolicy": 2960,
      "2003": 2961,
      "pre": 2962,
      "Ġproduction": 2963,
      "Ġtext": 2964,
      "ml": 2965,
      "Ġsuper": 2966,
      "ishing": 2967,
      "iforn": 2968,
      "There": 2969,
      "iting": 2970,
      "estern": 2971,
      "lete": 2972,
      "zeta": 2973,
      "dis": 2974,
      "Ġnamed": 2975,
      "ĠAssoci": 2976,
      "07": 2977,
      "Ġreported": 2978,
      "scal": 2979,
      "Ġinflu": 2980,
      "Ġrandom": 2981,
      "uff": 2982,
      "49": 2983,
      "Ġparameter": 2984,
      "Ġregular": 2985,
      "Ġfig": 2986,
      "09": 2987,
      "EC": 2988,
      "Ġamount": 2989,
      "ows": 2990,
      "Ġversion": 2991,
      "sl": 2992,
      "Ġexec": 2993,
      "Ġrather": 2994,
      "ided": 2995,
      "Ġpresident": 2996,
      "Ġalmost": 2997,
      "Ġcentury": 2998,
      "opy": 2999,
      "Ġdou": 3000,
      "ĠPer": 3001,
      "comm": 3002,
      "Ġcorre": 3003,
      "ancial": 3004,
      "|-": 3005,
      "Ġdiv": 3006,
      "Ġeducation": 3007,
      "pose": 3008,
      "ĠMich": 3009,
      "ledge": 3010,
      "ifornia": 3011,
      "umb": 3012,
      "Ġlog": 3013,
      "chan": 3014,
      "Ġbuilt": 3015,
      "rump": 3016,
      "}=\\": 3017,
      "Ġaddress": 3018,
      "Ġprivate": 3019,
      "rag": 3020,
      "Ġbenef": 3021,
      "ĠWilliam": 3022,
      "ittee": 3023,
      "ĠAng": 3024,
      "cast": 3025,
      "Ġexpected": 3026,
      "ĠDepartment": 3027,
      "Ġdepend": 3028,
      "Ġdynam": 3029,
      "Ġ</": 3030,
      "{(": 3031,
      "Ġwhose": 3032,
      "ĠSince": 3033,
      "ĠĠĠĠĠĠ": 3034,
      "yl": 3035,
      "IT": 3036,
      "omorph": 3037,
      "medi": 3038,
      "Ġord": 3039,
      "ĠHer": 3040,
      "Ġonce": 3041,
      "ĠLeague": 3042,
      "Ġeval": 3043,
      "ocal": 3044,
      "ĠLa": 3045,
      "atives": 3046,
      "ĠHigh": 3047,
      "Ġclos": 3048,
      "02": 3049,
      "ustom": 3050,
      "textwidth": 3051,
      "Ġcountries": 3052,
      "iddle": 3053,
      "essage": 3054,
      "2002": 3055,
      "Ġlocated": 3056,
      "ened": 3057,
      "ĠRo": 3058,
      "47": 3059,
      "Ġlines": 3060,
      "ĠSup": 3061,
      "Ġlive": 3062,
      "ĠServ": 3063,
      "Ġnumer": 3064,
      "utive": 3065,
      "Ġcr": 3066,
      "Ġsite": 3067,
      "Ġnormal": 3068,
      "rown": 3069,
      "Ġbo": 3070,
      "esc": 3071,
      "itect": 3072,
      "ordin": 3073,
      "atory": 3074,
      "Ġappl": 3075,
      "Ġang": 3076,
      "Ġwhy": 3077,
      "Ġpredict": 3078,
      "Ġexplain": 3079,
      "Ġsche": 3080,
      "BC": 3081,
      "Ġserved": 3082,
      ")^{": 3083,
      "ĠCenter": 3084,
      "aches": 3085,
      "ĠInstit": 3086,
      "Ġvia": 3087,
      "ĠStud": 3088,
      "Ġrecent": 3089,
      "Sp": 3090,
      "Ġdire": 3091,
      "Ġprior": 3092,
      "Ġimplement": 3093,
      "useum": 3094,
      "Ġcannot": 3095,
      "ription": 3096,
      "Ġnov": 3097,
      "ĠSm": 3098,
      "top": 3099,
      "}_\\": 3100,
      "Ġentire": 3101,
      "2001": 3102,
      "which": 3103,
      "Ġhistor": 3104,
      "Ġmedia": 3105,
      "03": 3106,
      "ĠHam": 3107,
      "born": 3108,
      "Ġmulti": 3109,
      "ĠPhil": 3110,
      "ĠMr": 3111,
      "Ġnatural": 3112,
      "Wh": 3113,
      "duc": 3114,
      "Ġbroad": 3115,
      "Ġmakes": 3116,
      "ĠEq": 3117,
      "ires": 3118,
      "itting": 3119,
      "Ġhost": 3120,
      "Ġindependent": 3121,
      "Ġsaf": 3122,
      "ula": 3123,
      "ĠSer": 3124,
      "Ġjud": 3125,
      ";\\": 3126,
      "Ġfilms": 3127,
      "comp": 3128,
      "Americ": 3129,
      "ĠMy": 3130,
      "Ġborn": 3131,
      "Ġissues": 3132,
      "Ġvector": 3133,
      "Ġlove": 3134,
      "Ġmonths": 3135,
      "Ġcompanies": 3136,
      "How": 3137,
      "Ġmatter": 3138,
      "Ġled": 3139,
      "AM": 3140,
      "isions": 3141,
      "Ġinput": 3142,
      "Ġ&=": 3143,
      "Ġstep": 3144,
      "inter": 3145,
      "ĠCalifornia": 3146,
      "Ġcreated": 3147,
      "Ġprinc": 3148,
      "Ġincrease": 3149,
      "Ġrelationship": 3150,
      "Sh": 3151,
      "Ġtaking": 3152,
      "}^\\": 3153,
      "Ġfinite": 3154,
      "ached": 3155,
      "pdf": 3156,
      "van": 3157,
      "Ġdifficult": 3158,
      "ilm": 3159,
      "$)": 3160,
      "Ġadditional": 3161,
      "****": 3162,
      "Ġcontract": 3163,
      "overed": 3164,
      "Ġproperties": 3165,
      "Ġanaly": 3166,
      "Ġerror": 3167,
      "ampionship": 3168,
      ".)": 3169,
      "Ġexact": 3170,
      "See": 3171,
      "ecially": 3172,
      "cle": 3173,
      "Ġtalk": 3174,
      "cos": 3175,
      "Ġobserved": 3176,
      "Ġupon": 3177,
      "ards": 3178,
      "Ġspecific": 3179,
      "ashington": 3180,
      "ĠUK": 3181,
      "lemma": 3182,
      "Ġareas": 3183,
      "66": 3184,
      "Ġsimple": 3185,
      "Ġever": 3186,
      "ĠRepublic": 3187,
      "ĠChe": 3188,
      "ĠFirst": 3189,
      "Ġimprove": 3190,
      "Ġlate": 3191,
      "}|": 3192,
      "ump": 3193,
      "widehat": 3194,
      "Ġexists": 3195,
      "orge": 3196,
      "ili": 3197,
      "avy": 3198,
      "uf": 3199,
      "ully": 3200,
      "Ġpers": 3201,
      "Ġconduct": 3202,
      "ED": 3203,
      "Ġexpect": 3204,
      "ĠEuropean": 3205,
      "era": 3206,
      "~~": 3207,
      "cell": 3208,
      "Ġclub": 3209,
      "Ġmilitary": 3210,
      "85": 3211,
      "ridge": 3212,
      "alt": 3213,
      "Ġdefinition": 3214,
      "tact": 3215,
      "icles": 3216,
      "Ġvir": 3217,
      "cis": 3218,
      "unic": 3219,
      "Ġissue": 3220,
      "cdots": 3221,
      "attle": 3222,
      "mit": 3223,
      "rast": 3224,
      "rug": 3225,
      "Ġstation": 3226,
      "igen": 3227,
      "Ġdefine": 3228,
      "Ġcut": 3229,
      "Ġmoney": 3230,
      "Ġdecision": 3231,
      "Ġmiss": 3232,
      "Ġbody": 3233,
      "ĠSen": 3234,
      "rang": 3235,
      "Ġworked": 3236,
      "Ġtarget": 3237,
      "Ġopportun": 3238,
      "su": 3239,
      "iven": 3240,
      "och": 3241,
      "Ġparent": 3242,
      "Ġwind": 3243,
      "alax": 3244,
      "Ġsymmet": 3245,
      "arc": 3246,
      "Ġchanges": 3247,
      "aign": 3248,
      "ĠIndia": 3249,
      "foot": 3250,
      "Ġ\\{": 3251,
      "semb": 3252,
      "Ġfactor": 3253,
      "Ġvideo": 3254,
      "ĠCouncil": 3255,
      "ĠFrench": 3256,
      "Ġbasis": 3257,
      "mathsf": 3258,
      "Ġlength": 3259,
      "mark": 3260,
      "ĠCanada": 3261,
      "arily": 3262,
      "ections": 3263,
      "reet": 3264,
      "Ġequival": 3265,
      "Ar": 3266,
      "ĠMark": 3267,
      "ĠAir": 3268,
      "ache": 3269,
      "class": 3270,
      "Ġrat": 3271,
      "ĠHealth": 3272,
      "ccording": 3273,
      "AP": 3274,
      "ension": 3275,
      "ids": 3276,
      "oon": 3277,
      "ael": 3278,
      "Ġlanguage": 3279,
      "Ġindustry": 3280,
      "olic": 3281,
      "Ġlarger": 3282,
      "ĠGod": 3283,
      "Ġadminist": 3284,
      "46": 3285,
      "ĠFigure": 3286,
      "Ġtold": 3287,
      "annel": 3288,
      "levision": 3289,
      "Ġdied": 3290,
      "Ġlikely": 3291,
      "Ġleading": 3292,
      "Ġsurface": 3293,
      "div": 3294,
      "Ġdidn": 3295,
      "})\\": 3296,
      "Ġwords": 3297,
      "Ġesp": 3298,
      "uel": 3299,
      "97": 3300,
      "ying": 3301,
      ",-": 3302,
      "ression": 3303,
      "Ġtherefore": 3304,
      "bsite": 3305,
      "Ġconstruct": 3306,
      "more": 3307,
      "pped": 3308,
      "ocrat": 3309,
      "And": 3310,
      "Ġactually": 3311,
      "Ġrev": 3312,
      "Ġfall": 3313,
      "raction": 3314,
      "Ġdest": 3315,
      "omb": 3316,
      "Ġelements": 3317,
      "Ġeffective": 3318,
      "Ġproblems": 3319,
      "ands": 3320,
      "cup": 3321,
      "Ġattempt": 3322,
      "Ġneigh": 3323,
      "ĠTrump": 3324,
      "gl": 3325,
      "ĠDem": 3326,
      "selves": 3327,
      "Ġdecl": 3328,
      "}^{(": 3329,
      "New": 3330,
      "Ġfather": 3331,
      "ults": 3332,
      "Ġprovides": 3333,
      "Ġthought": 3334,
      "alse": 3335,
      "rael": 3336,
      "icol": 3337,
      "Ġevidence": 3338,
      "Ġprobability": 3339,
      "Ġaccept": 3340,
      "pling": 3341,
      "Ġpersonal": 3342,
      "Ġpopular": 3343,
      "ĠEast": 3344,
      "andid": 3345,
      "Ġbase": 3346,
      "ensive": 3347,
      "ĠFrom": 3348,
      "ĠDo": 3349,
      "ĠAc": 3350,
      "}}(": 3351,
      "edd": 3352,
      "Ġsett": 3353,
      "my": 3354,
      "mon": 3355,
      "SS": 3356,
      "Ġzero": 3357,
      "ĠChurch": 3358,
      "Ã¡": 3359,
      "Ġwhole": 3360,
      "Ġsens": 3361,
      "Ġdeveloped": 3362,
      "Ġlabel": 3363,
      "eff": 3364,
      "icro": 3365,
      "ĠSim": 3366,
      "Ġnode": 3367,
      "nown": 3368,
      "nder": 3369,
      "oms": 3370,
      "acc": 3371,
      "ĠWhat": 3372,
      "Ġdistance": 3373,
      "ender": 3374,
      "sing": 3375,
      "aves": 3376,
      "den": 3377,
      "Ġgives": 3378,
      "Ġeffects": 3379,
      "itz": 3380,
      "Ġbar": 3381,
      "Ġparty": 3382,
      "inated": 3383,
      "ĠEngland": 3384,
      "ements": 3385,
      "ĠWashington": 3386,
      "Ġpe": 3387,
      "Ġengine": 3388,
      "istics": 3389,
      "Ġthing": 3390,
      "Ġfixed": 3391,
      "atrix": 3392,
      "Ġitself": 3393,
      "Ġsense": 3394,
      "down": 3395,
      "Ġstyle": 3396,
      "Ġliter": 3397,
      "Ġmatch": 3398,
      "ĠIndian": 3399,
      "Ġsold": 3400,
      "Ġcateg": 3401,
      "Ġelement": 3402,
      "ulated": 3403,
      "vey": 3404,
      "ĠGeneral": 3405,
      "Ġson": 3406,
      "gebra": 3407,
      "script": 3408,
      "like": 3409,
      ")]": 3410,
      "Ġspecies": 3411,
      "ĠDistrict": 3412,
      "ĠCong": 3413,
      "qquad": 3414,
      "Ġimm": 3415,
      "rig": 3416,
      "Ġpresented": 3417,
      "Ġscale": 3418,
      "____": 3419,
      "itch": 3420,
      "Ġconstruction": 3421,
      "Ġadded": 3422,
      "Ġvill": 3423,
      "tage": 3424,
      "American": 3425,
      "Ġess": 3426,
      "ams": 3427,
      "ico": 3428,
      "Ġproduced": 3429,
      "point": 3430,
      "Ġelse": 3431,
      ".~": 3432,
      "ĠCons": 3433,
      "Res": 3434,
      "98": 3435,
      "Ġnote": 3436,
      "Ġpan": 3437,
      "ĠVal": 3438,
      "trans": 3439,
      "Ġimpl": 3440,
      "Ġ$(\\": 3441,
      "ellow": 3442,
      "}\\\\": 3443,
      "Ġcomplete": 3444,
      "node": 3445,
      "ĠLemma": 3446,
      "Ġsound": 3447,
      "Ġoffice": 3448,
      "bb": 3449,
      "&=": 3450,
      "Ġassume": 3451,
      "sup": 3452,
      "Psi": 3453,
      "ĠDirect": 3454,
      "ha": 3455,
      "nes": 3456,
      "Ġplayer": 3457,
      "Ġincludes": 3458,
      "Ġunit": 3459,
      "Ġespecially": 3460,
      "Ġaud": 3461,
      "raint": 3462,
      "RE": 3463,
      "span": 3464,
      "ĠDr": 3465,
      "ett": 3466,
      "book": 3467,
      "iences": 3468,
      "ply": 3469,
      "Ġfav": 3470,
      "Ġmultiple": 3471,
      "this": 3472,
      "Ġhon": 3473,
      "Ġcreate": 3474,
      "gy": 3475,
      "Ġcompared": 3476,
      "../": 3477,
      "^+": 3478,
      "Ġdoing": 3479,
      "ĠDavid": 3480,
      "gen": 3481,
      "ario": 3482,
      "Ġcentral": 3483,
      "ĠVol": 3484,
      "cing": 3485,
      "uration": 3486,
      "Ġsuccessful": 3487,
      "star": 3488,
      "Ġgradu": 3489,
      "aching": 3490,
      "small": 3491,
      "Ġcontext": 3492,
      "quare": 3493,
      "Ġcompar": 3494,
      "--------": 3495,
      "ĠPal": 3496,
      "Ġyet": 3497,
      "ounter": 3498,
      "ĠNot": 3499,
      "ica": 3500,
      "oe": 3501,
      "67": 3502,
      "ĠGerman": 3503,
      "pri": 3504,
      "}\\,": 3505,
      "Ġaward": 3506,
      "500": 3507,
      "rote": 3508,
      "Ġoccur": 3509,
      "leg": 3510,
      "Ġeffic": 3511,
      "tex": 3512,
      "ips": 3513,
      "At": 3514,
      "Ġinvolved": 3515,
      "Ġnews": 3516,
      "ĠFl": 3517,
      "cial": 3518,
      "ĠDef": 3519,
      "Ġstudies": 3520,
      "Ġidea": 3521,
      "ening": 3522,
      "Ġholds": 3523,
      "Ġinstead": 3524,
      "Ġdatas": 3525,
      "Ġdemonst": 3526,
      "Ġsequence": 3527,
      "xspace": 3528,
      "();": 3529,
      "Re": 3530,
      "Ġtrack": 3531,
      "ĠBlack": 3532,
      "ĠCont": 3533,
      "ises": 3534,
      "Ġeconomic": 3535,
      "Ġannounced": 3536,
      "Ġrelig": 3537,
      "ara": 3538,
      "appro": 3539,
      "atively": 3540,
      "ĠAustralia": 3541,
      "Ġclust": 3542,
      "ĠPaul": 3543,
      "ĠHol": 3544,
      "citet": 3545,
      "88": 3546,
      "Ġincreasing": 3547,
      "CC": 3548,
      "ĠInstitute": 3549,
      "ĠNews": 3550,
      "century": 3551,
      "Ġtradition": 3552,
      "(\"": 3553,
      "br": 3554,
      "ores": 3555,
      "ĠPat": 3556,
      "lier": 3557,
      "ĠEar": 3558,
      "Ġbackground": 3559,
      "ades": 3560,
      "Ġgas": 3561,
      "Ġdirector": 3562,
      "ĠThus": 3563,
      "asons": 3564,
      "uild": 3565,
      "Ġhor": 3566,
      "astic": 3567,
      "When": 3568,
      "lands": 3569,
      "Ġneeds": 3570,
      "mar": 3571,
      "42": 3572,
      "prop": 3573,
      "rec": 3574,
      "mid": 3575,
      "Ġresponse": 3576,
      "Ġflow": 3577,
      "Ġcomes": 3578,
      "Ġassist": 3579,
      "ites": 3580,
      "Ġvict": 3581,
      "Ġ&\\": 3582,
      "Ġcontinue": 3583,
      "Ġpolice": 3584,
      "Ġround": 3585,
      "Ġcollection": 3586,
      "Ġalign": 3587,
      "ĠCompany": 3588,
      "]$": 3589,
      "With": 3590,
      "Ġmechan": 3591,
      "Ġtell": 3592,
      "Ġinstit": 3593,
      "Ġsex": 3594,
      "But": 3595,
      "ĠJames": 3596,
      "olar": 3597,
      ")-": 3598,
      "oud": 3599,
      "Ġbreak": 3600,
      "Ġfinancial": 3601,
      "rab": 3602,
      "ners": 3603,
      "Ġdifference": 3604,
      "Tr": 3605,
      "Ġforce": 3606,
      "ĠWhile": 3607,
      "Ġtakes": 3608,
      "Ġgrad": 3609,
      "Ġcommunic": 3610,
      "Ġlegal": 3611,
      "roll": 3612,
      "Ġcontains": 3613,
      "Ġtemperature": 3614,
      "oyal": 3615,
      "Ġsuff": 3616,
      "ota": 3617,
      "berg": 3618,
      "Ġsample": 3619,
      "hern": 3620,
      "Ġconv": 3621,
      "}:": 3622,
      "ville": 3623,
      "elt": 3624,
      "Ġbring": 3625,
      "Ġmention": 3626,
      "|^": 3627,
      "Ġonline": 3628,
      "Ġemer": 3629,
      "ste": 3630,
      "Ġliving": 3631,
      "Ġshare": 3632,
      "Ġcandid": 3633,
      "clusion": 3634,
      "Ġcampaign": 3635,
      "ĠStreet": 3636,
      "ĠAssociation": 3637,
      "Ġtechnology": 3638,
      "Ġrisk": 3639,
      "Ġdri": 3640,
      "Ġforward": 3641,
      "CO": 3642,
      "Ind": 3643,
      "band": 3644,
      "Ġrank": 3645,
      "ĠTrans": 3646,
      "68": 3647,
      "Ġoperator": 3648,
      "encies": 3649,
      "1999": 3650,
      "Ġunique": 3651,
      "ĠJust": 3652,
      "Ġimages": 3653,
      "oor": 3654,
      "ees": 3655,
      "ĠFrance": 3656,
      "Ġweight": 3657,
      "77": 3658,
      "izes": 3659,
      "Ġboard": 3660,
      "izations": 3661,
      "scr": 3662,
      "Ġinsp": 3663,
      "Ġfun": 3664,
      "Ġgalax": 3665,
      "Ġoutside": 3666,
      "ĠResearch": 3667,
      "Ġnecessary": 3668,
      "{{\\": 3669,
      "Ġquantum": 3670,
      "Ġsolutions": 3671,
      "ĠOff": 3672,
      "Ġrac": 3673,
      "Ġarticle": 3674,
      "note": 3675,
      "Ġbirths": 3676,
      "Ġrequest": 3677,
      "ĠRober": 3678,
      "ieved": 3679,
      "Ġmoved": 3680,
      "Ġsecurity": 3681,
      "ien": 3682,
      "Ġfem": 3683,
      "Ġperformed": 3684,
      "Ġphysical": 3685,
      "Ġdocument": 3686,
      "Pl": 3687,
      "Ġbelieve": 3688,
      "Ġoptim": 3689,
      "aged": 3690,
      "nov": 3691,
      "Ġwrote": 3692,
      "ky": 3693,
      "uses": 3694,
      "ĠGroup": 3695,
      "Ġconver": 3696,
      "Ġdirectly": 3697,
      "omm": 3698,
      "Ġdomain": 3699,
      "Ġnight": 3700,
      "iform": 3701,
      "Ġcompos": 3702,
      "rr": 3703,
      "ĠScience": 3704,
      "td": 3705,
      "ĠIsrael": 3706,
      "Ġsets": 3707,
      "LE": 3708,
      "ĠMor": 3709,
      "anks": 3710,
      "SE": 3711,
      "cret": 3712,
      "Ġspin": 3713,
      "Ġedge": 3714,
      "Ġtelevision": 3715,
      "1990": 3716,
      "Ġconstit": 3717,
      "ares": 3718,
      "Ġund": 3719,
      "Ġface": 3720,
      "Ġknowledge": 3721,
      "Ġroad": 3722,
      "neq": 3723,
      "Ġclosed": 3724,
      "Ġcurrently": 3725,
      "Ġarchitect": 3726,
      "Ġlost": 3727,
      "actions": 3728,
      "hspace": 3729,
      "Ġcustom": 3730,
      "ĠDi": 3731,
      "Ġequal": 3732,
      "onic": 3733,
      "Ġthroughout": 3734,
      "Ġfood": 3735,
      "Ġneeded": 3736,
      "Ġestablish": 3737,
      "Ġresid": 3738,
      "ida": 3739,
      "96": 3740,
      "ĠGo": 3741,
      "Ġwebsite": 3742,
      "Ġfields": 3743,
      "ander": 3744,
      "inf": 3745,
      "uments": 3746,
      "oul": 3747,
      "43": 3748,
      "Ġgre": 3749,
      "}+\\": 3750,
      "Ġlargest": 3751,
      "ĠRich": 3752,
      "All": 3753,
      "wood": 3754,
      "Ġcontent": 3755,
      "ĠThom": 3756,
      "Ġgain": 3757,
      "icture": 3758,
      "Ġgrowth": 3759,
      "Ġstars": 3760,
      "ĠNe": 3761,
      "Ġstage": 3762,
      "ĠEm": 3763,
      "Ġcenter": 3764,
      "ilies": 3765,
      "state": 3766,
      "41": 3767,
      "Ġprove": 3768,
      "AA": 3769,
      "====": 3770,
      "Ġintroduced": 3771,
      "Ġcred": 3772,
      "Ġboundary": 3773,
      "Ġwrite": 3774,
      "Ġdeep": 3775,
      "Ġmaterial": 3776,
      "Ġcheck": 3777,
      "Ġrelease": 3778,
      "ĠAward": 3779,
      "aker": 3780,
      "ously": 3781,
      "Ġdate": 3782,
      "Ġdirection": 3783,
      "ranch": 3784,
      "alle": 3785,
      "Ġdenote": 3786,
      "Ġtravel": 3787,
      "ĠParty": 3788,
      "Ġblock": 3789,
      "Ġmother": 3790,
      "}}{\\": 3791,
      "Ġrestrict": 3792,
      "Ġrecently": 3793,
      "Ġwhite": 3794,
      "hel": 3795,
      "What": 3796,
      "Ġmonth": 3797,
      "Ġ*/": 3798,
      "ĠJew": 3799,
      "Ġut": 3800,
      "edge": 3801,
      "ming": 3802,
      "het": 3803,
      "Ġnuc": 3804,
      "Ġdiag": 3805,
      "Ġcivil": 3806,
      "ĠIm": 3807,
      "],": 3808,
      "NN": 3809,
      "Ġsearch": 3810,
      "Ġcapt": 3811,
      "Ġadj": 3812,
      "known": 3813,
      "Ġmodern": 3814,
      "Ġhimself": 3815,
      "Ġnovel": 3816,
      "ĠRef": 3817,
      "Ġsure": 3818,
      "itude": 3819,
      "ĠAnt": 3820,
      "light": 3821,
      "Ġtransfer": 3822,
      "ĠGeorge": 3823,
      "Since": 3824,
      "Ġlaun": 3825,
      "1998": 3826,
      "Ġsimply": 3827,
      "change": 3828,
      "umerate": 3829,
      "istry": 3830,
      "rick": 3831,
      "ĉĊ": 3832,
      "Ġtransform": 3833,
      "ĠCommission": 3834,
      "dimens": 3835,
      "Ġinterp": 3836,
      "Ġcritical": 3837,
      "ospital": 3838,
      "ooth": 3839,
      "Ġscen": 3840,
      "Ġpractice": 3841,
      "indent": 3842,
      "reme": 3843,
      "Ġgoal": 3844,
      "Ġsus": 3845,
      "type": 3846,
      "Ġnorth": 3847,
      "Ġacqu": 3848,
      "skip": 3849,
      "scale": 3850,
      "ean": 3851,
      "Ġchalleng": 3852,
      "After": 3853,
      "mission": 3854,
      "multicol": 3855,
      "Ġdepart": 3856,
      "Ġreve": 3857,
      "'$": 3858,
      "Ġcorrel": 3859,
      "uge": 3860,
      "oved": 3861,
      "ĠOur": 3862,
      "Ġalthough": 3863,
      "theorem": 3864,
      "Ġwriting": 3865,
      "Ad": 3866,
      "}-\\": 3867,
      "ipal": 3868,
      "Ġdistrict": 3869,
      "Ġscient": 3870,
      "aging": 3871,
      ")}{": 3872,
      "ĠDiv": 3873,
      "Ġadvan": 3874,
      "Ġten": 3875,
      "Ġproced": 3876,
      "Ġfront": 3877,
      "fill": 3878,
      "Ġupd": 3879,
      "Ġsoft": 3880,
      "Ġbehind": 3881,
      "iation": 3882,
      "Sc": 3883,
      "multicolumn": 3884,
      "Ġappoint": 3885,
      "Ġparts": 3886,
      "Ġnumbers": 3887,
      "US": 3888,
      "ework": 3889,
      "58": 3890,
      "57": 3891,
      "Ġmag": 3892,
      "Ġproducts": 3893,
      "Ġgovern": 3894,
      "enumerate": 3895,
      "Ġple": 3896,
      "ĠVir": 3897,
      "load": 3898,
      "html": 3899,
      "ĠMal": 3900,
      "Ġmid": 3901,
      "Ġapplied": 3902,
      "Ġmanagement": 3903,
      "ĠRiver": 3904,
      "Ġimmedi": 3905,
      "Ġnature": 3906,
      "vention": 3907,
      "equiv": 3908,
      "ĠCongress": 3909,
      "ĠPort": 3910,
      "ĠHall": 3911,
      "ĠGermany": 3912,
      "han": 3913,
      "bert": 3914,
      "ago": 3915,
      "mitted": 3916,
      "inese": 3917,
      "Ġquality": 3918,
      "Ġbooks": 3919,
      "oring": 3920,
      "mathscr": 3921,
      "Int": 3922,
      "Ġstaff": 3923,
      "ĠMod": 3924,
      "Ġcharg": 3925,
      "Ġbecomes": 3926,
      "ĠCup": 3927,
      "fess": 3928,
      "la": 3929,
      "eloc": 3930,
      "Ġaccom": 3931,
      "Ġvisit": 3932,
      "ĠMa": 3933,
      "rian": 3934,
      "name": 3935,
      "ĠPress": 3936,
      "Col": 3937,
      "ĠRed": 3938,
      "Ġsources": 3939,
      "ĠArch": 3940,
      "Ġrelation": 3941,
      "Ġmetric": 3942,
      "Ġcapital": 3943,
      "itemize": 3944,
      "isation": 3945,
      "lam": 3946,
      "vspace": 3947,
      "anish": 3948,
      "raz": 3949,
      "({\\": 3950,
      "Ġdetails": 3951,
      "Ġqual": 3952,
      "Ġcode": 3953,
      "Ġthemselves": 3954,
      "ĠFound": 3955,
      "ottom": 3956,
      "PS": 3957,
      "bre": 3958,
      "Ġequations": 3959,
      "ĠTra": 3960,
      "Ġschools": 3961,
      "Ġcoordin": 3962,
      "oke": 3963,
      "Ġ_": 3964,
      "key": 3965,
      "ĠĠĠĠĠĠĠĠĠĠĠĠĠĠĠĠĠĠĠ": 3966,
      "One": 3967,
      "Ġapply": 3968,
      "ĠFin": 3969,
      "Ġstudent": 3970,
      "Ġmedical": 3971,
      "Ġlink": 3972,
      "Ġtransition": 3973,
      "'re": 3974,
      "ĠUnion": 3975,
      "ya": 3976,
      "Ġword": 3977,
      "ĠTV": 3978,
      "rought": 3979,
      "Ġchoice": 3980,
      "Ġvert": 3981,
      "Ġbit": 3982,
      "ken": 3983,
      "ĠBel": 3984,
      "ariant": 3985,
      "lymp": 3986,
      "Ġlonger": 3987,
      "Ġtrade": 3988,
      "Ġsubst": 3989,
      "Ġ-\\": 3990,
      "Ġprofessional": 3991,
      "Ġquite": 3992,
      "iers": 3993,
      "Ġstri": 3994,
      "Ġimplies": 3995,
      "que": 3996,
      "Ġcontinued": 3997,
      "VID": 3998,
      "Ġmaintain": 3999,
      "Ġremains": 4000,
      "]\\": 4001,
      "ilton": 4002,
      "Ġexhib": 4003,
      "Ġago": 4004,
      "Ġmind": 4005,
      "ĠAfrica": 4006,
      "From": 4007,
      "hest": 4008,
      "ser": 4009,
      "operat": 4010,
      "osen": 4011,
      "Ġlives": 4012,
      "Ġdig": 4013,
      "~$": 4014,
      "Ġlimited": 4015,
      "orthern": 4016,
      "outher": 4017,
      "Ġconcept": 4018,
      "pping": 4019,
      "Ġstatement": 4020,
      "></": 4021,
      "Ġfederal": 4022,
      "Ġdoesn": 4023,
      "Ġadopt": 4024,
      "Ġ\\|": 4025,
      "https": 4026,
      "Ġprop": 4027,
      "Ġrepresentation": 4028,
      "Ġinj": 4029,
      "Ġinstance": 4030,
      "itiz": 4031,
      "ĠInt": 4032,
      "Ġapplication": 4033,
      "acity": 4034,
      "ĠWhite": 4035,
      "operatorn": 4036,
      "56": 4037,
      "eck": 4038,
      "Ġepis": 4039,
      "Ġgenerated": 4040,
      "rs": 4041,
      "1996": 4042,
      "arter": 4043,
      "Ġagreement": 4044,
      "ports": 4045,
      "force": 4046,
      "Ġconstraint": 4047,
      "Ġtowards": 4048,
      "ducation": 4049,
      "mary": 4050,
      "operatorname": 4051,
      "Ġsouth": 4052,
      "Ġsetting": 4053,
      "Ġscience": 4054,
      "ĠGreen": 4055,
      "ĠTherefore": 4056,
      "nce": 4057,
      "ibrary": 4058,
      "ston": 4059,
      "Ġstreng": 4060,
      "king": 4061,
      "come": 4062,
      "Ġdetermined": 4063,
      "Ġveloc": 4064,
      "atur": 4065,
      "ĠBoard": 4066,
      "Ġfight": 4067,
      "1997": 4068,
      "asc": 4069,
      "PR": 4070,
      "Ġdise": 4071,
      "Ġoperations": 4072,
      "Ġevolution": 4073,
      "ging": 4074,
      "Ġoutput": 4075,
      "icit": 4076,
      "DE": 4077,
      "ountain": 4078,
      "Ġelectron": 4079,
      "Ġconclud": 4080,
      "Ġdam": 4081,
      "Ġbehavior": 4082,
      "sin": 4083,
      "Le": 4084,
      "Name": 4085,
      "Ġdecre": 4086,
      "Ġprograms": 4087,
      "Ġevalu": 4088,
      "map": 4089,
      "outhern": 4090,
      "texttt": 4091,
      "ĠDay": 4092,
      "Ġchurch": 4093,
      "Ġcontact": 4094,
      "airs": 4095,
      "You": 4096,
      "gence": 4097,
      "edy": 4098,
      "Ġmaximum": 4099,
      "Ġwife": 4100,
      "ctors": 4101,
      "eration": 4102,
      "$}": 4103,
      "Ġdesigned": 4104,
      "Ġcomponent": 4105,
      "Ġtask": 4106,
      "pot": 4107,
      "ĠMary": 4108,
      "alled": 4109,
      "ĠChampionship": 4110,
      "Ġsmaller": 4111,
      "87": 4112,
      "][": 4113,
      "ĠCap": 4114,
      "Ġcoming": 4115,
      "Ġestimate": 4116,
      "Ġded": 4117,
      "Ġfriend": 4118,
      "Id": 4119,
      "Ġlevels": 4120,
      ")}$": 4121,
      "Ġcomponents": 4122,
      "istan": 4123,
      "Ġallows": 4124,
      "ĠSociety": 4125,
      "Ġattention": 4126,
      "ĠMart": 4127,
      "Ġrule": 4128,
      "Ġvalid": 4129,
      "dimensional": 4130,
      "Ġpref": 4131,
      "Ġplaying": 4132,
      "Ġaltern": 4133,
      "Ġseems": 4134,
      "Ġaim": 4135,
      "emic": 4136,
      "Ġwave": 4137,
      "ĠOb": 4138,
      "Ġcoe": 4139,
      "Ġyield": 4140,
      "IR": 4141,
      "Ġflu": 4142,
      "that": 4143,
      "ĠSome": 4144,
      "cur": 4145,
      "Ġsaw": 4146,
      "ĠTex": 4147,
      "Ġfamilies": 4148,
      "Ġthreat": 4149,
      "Ġveh": 4150,
      "Ġallowed": 4151,
      "eared": 4152,
      "Ġactive": 4153,
      "Ġtreatment": 4154,
      "Ġasked": 4155,
      "Ġways": 4156,
      "Ġtro": 4157,
      "ansion": 4158,
      "}}_": 4159,
      "1980": 4160,
      "rief": 4161,
      "ecause": 4162,
      "Ġlooking": 4163,
      "ĠMusic": 4164,
      "ĠLou": 4165,
      "ĠQue": 4166,
      "Ġrob": 4167,
      "Ġbr": 4168,
      "Ġheart": 4169,
      "Ġsituation": 4170,
      "rices": 4171,
      "Ġtypes": 4172,
      "1995": 4173,
      "Ġwor": 4174,
      "Ġnation": 4175,
      "Ġcorrect": 4176,
      "HE": 4177,
      "Ġhours": 4178,
      "level": 4179,
      "Ġwanted": 4180,
      "iance": 4181,
      "unt": 4182,
      "ĠCommittee": 4183,
      "omorphism": 4184,
      "Ġsignal": 4185,
      "body": 4186,
      "Ġradio": 4187,
      "hing": 4188,
      "Ġfire": 4189,
      "Type": 4190,
      "ĠArmy": 4191,
      "noindent": 4192,
      "Ġinteresting": 4193,
      "ĠBook": 4194,
      "Ġofficial": 4195,
      "Ġhous": 4196,
      "ĠWork": 4197,
      "Ġlat": 4198,
      "Ã³": 4199,
      "\\,\\": 4200,
      "ĠPublic": 4201,
      "idth": 4202,
      "Ġusually": 4203,
      "Ġlack": 4204,
      "Ġdraw": 4205,
      "ĠInter": 4206,
      "bound": 4207,
      "agement": 4208,
      "Ġcolor": 4209,
      "ought": 4210,
      "Ġrace": 4211,
      "ĠTechn": 4212,
      "Ġgave": 4213,
      "Ġweak": 4214,
      "ĠOf": 4215,
      "ĠBay": 4216,
      "eline": 4217,
      "Ġfollowed": 4218,
      "Ġparticularly": 4219,
      "Ġmeaning": 4220,
      "ufact": 4221,
      "Ġuses": 4222,
      "Ġter": 4223,
      "rd": 4224,
      "\\}$": 4225,
      "Ġfit": 4226,
      "ession": 4227,
      "igned": 4228,
      "taint": 4229,
      "ĠJack": 4230,
      "Ġuser": 4231,
      "Ġupper": 4232,
      "ĠMex": 4233,
      "Ġmovie": 4234,
      "ifying": 4235,
      "Ġsurv": 4236,
      "Ġearlier": 4237,
      "MS": 4238,
      "Ġspeak": 4239,
      "dag": 4240,
      "Ġquick": 4241,
      "ĠLeg": 4242,
      "List": 4243,
      "opl": 4244,
      "underline": 4245,
      "ny": 4246,
      "Ġste": 4247,
      "................": 4248,
      "ĠAngel": 4249,
      "ĠAfrican": 4250,
      "')": 4251,
      "oice": 4252,
      "sey": 4253,
      "ĠJer": 4254,
      "atform": 4255,
      "Ġhttps": 4256,
      "Ġpack": 4257,
      "Ġindu": 4258,
      "Ġrelev": 4259,
      "ĠChristian": 4260,
      "Ġrot": 4261,
      "ĠGovernment": 4262,
      "ĠSecret": 4263,
      "Ġculture": 4264,
      "Ġjoined": 4265,
      "Ġwoman": 4266,
      "value": 4267,
      "Ġdrug": 4268,
      "Ġinterview": 4269,
      "hy": 4270,
      "group": 4271,
      "ĠBer": 4272,
      "Ġmagnetic": 4273,
      "alls": 4274,
      "ios": 4275,
      "aper": 4276,
      "Ġuncer": 4277,
      "Ġeight": 4278,
      "ĠNow": 4279,
      "ait": 4280,
      "edom": 4281,
      "Ġillust": 4282,
      "Ġcolumn": 4283,
      "Ġforces": 4284,
      "Ġcause": 4285,
      "Ġtransport": 4286,
      "usion": 4287,
      "rule": 4288,
      "ĠChinese": 4289,
      "Ġsociety": 4290,
      "rol": 4291,
      "93": 4292,
      "Ġrules": 4293,
      "Ġsufficient": 4294,
      "inct": 4295,
      "ĠMichael": 4296,
      "ĠRev": 4297,
      "Ġincreased": 4298,
      "AD": 4299,
      "Ġbrought": 4300,
      "Ġachieve": 4301,
      "Ġtour": 4302,
      "erc": 4303,
      "Ġfirm": 4304,
      "ĠOp": 4305,
      "Ġdra": 4306,
      "Ġindex": 4307,
      "Ġpattern": 4308,
      "Ġcollect": 4309,
      "Then": 4310,
      "size": 4311,
      "94": 4312,
      "Ġadapt": 4313,
      "textrm": 4314,
      "Ġactivities": 4315,
      "Ġoppos": 4316,
      "Ġenj": 4317,
      "ĠHere": 4318,
      "ingu": 4319,
      "Ġtable": 4320,
      "Ġspectrum": 4321,
      "(-": 4322,
      "Ġlegis": 4323,
      "antic": 4324,
      "ems": 4325,
      "ĠYear": 4326,
      "><": 4327,
      "term": 4328,
      "Ġtool": 4329,
      "Ġappropri": 4330,
      "78": 4331,
      "ĠTable": 4332,
      "Ġprec": 4333,
      "rial": 4334,
      "Ġbrother": 4335,
      "ura": 4336,
      "cat": 4337,
      "Ġavoid": 4338,
      "].": 4339,
      "Ġgrant": 4340,
      "\\\\\\\\\\\\\\\\\\\\\\\\\\\\\\\\": 4341,
      "split": 4342,
      "Ġsen": 4343,
      "norm": 4344,
      "ĠMuseum": 4345,
      "OS": 4346,
      "ĠHistory": 4347,
      "mail": 4348,
      "Ġbeginning": 4349,
      "Ġcele": 4350,
      "Ġconnected": 4351,
      "fect": 4352,
      "Ġprogress": 4353,
      "Ġcharge": 4354,
      "92": 4355,
      "stein": 4356,
      "Ġjournal": 4357,
      "Ġregions": 4358,
      "function": 4359,
      "Ġspeed": 4360,
      "rey": 4361,
      ".[": 4362,
      "Ġfalse": 4363,
      "Ġpreviously": 4364,
      "ĠRoman": 4365,
      "Ġdriv": 4366,
      "miss": 4367,
      "ÃŃ": 4368,
      "LL": 4369,
      "ria": 4370,
      "Ġensure": 4371,
      "Ã¼": 4372,
      "ĠDemocrat": 4373,
      "Ġvillage": 4374,
      "Ġdaugh": 4375,
      "Ġalgebra": 4376,
      "ĠMinister": 4377,
      "Ġarriv": 4378,
      "ona": 4379,
      "apter": 4380,
      "ĠAcadem": 4381,
      "inite": 4382,
      "ĠTexas": 4383,
      "const": 4384,
      "Ġir": 4385,
      "Ġorganization": 4386,
      "Ġstay": 4387,
      "ĠConf": 4388,
      "Ġneut": 4389,
      "Ġansw": 4390,
      "Ġquestions": 4391,
      "MA": 4392,
      "54": 4393,
      "ds": 4394,
      "Ġbillion": 4395,
      "Ġessential": 4396,
      "51": 4397,
      "Ġtheorem": 4398,
      "Ġrecomm": 4399,
      "zz": 4400,
      "ests": 4401,
      "init": 4402,
      "Ġsongs": 4403,
      "76": 4404,
      "Ġsoon": 4405,
      "Ġgenerally": 4406,
      "Ġstru": 4407,
      "CD": 4408,
      "Ġcommer": 4409,
      "Ġanti": 4410,
      "rier": 4411,
      "approx": 4412,
      "Ġconsequ": 4413,
      "can": 4414,
      "Ġgetting": 4415,
      "ĠMus": 4416,
      "App": 4417,
      "Ġinequ": 4418,
      "||": 4419,
      "ĠDis": 4420,
      "sych": 4421,
      "long": 4422,
      "Ġlearn": 4423,
      "ĠGa": 4424,
      "Ġri": 4425,
      "Ġmach": 4426,
      "Rec": 4427,
      "52": 4428,
      "import": 4429,
      "Ġmeeting": 4430,
      "Ġexpand": 4431,
      "Ġsupported": 4432,
      "1994": 4433,
      "Ġwalk": 4434,
      "Ġequivalent": 4435,
      "do": 4436,
      "Ġteams": 4437,
      "Ġdr": 4438,
      ")+": 4439,
      "ĠDirector": 4440,
      "lig": 4441,
      "ĠInc": 4442,
      "Ġratio": 4443,
      "uit": 4444,
      "irit": 4445,
      "Ġmovement": 4446,
      "{}": 4447,
      "Pi": 4448,
      "ocation": 4449,
      "Ġfigure": 4450,
      "Ġbank": 4451,
      "Se": 4452,
      "estival": 4453,
      "Ġtrying": 4454,
      "well": 4455,
      "otic": 4456,
      "Ġrunning": 4457,
      "Ġrock": 4458,
      "Ġforeign": 4459,
      "reek": 4460,
      "Ġrelative": 4461,
      "Ġstudied": 4462,
      "De": 4463,
      "Ġfully": 4464,
      "ĠSing": 4465,
      "ogle": 4466,
      "Ġbox": 4467,
      "Ġmale": 4468,
      "ĠDuring": 4469,
      "ecial": 4470,
      "Ġnegative": 4471,
      "ĠTur": 4472,
      "Ge": 4473,
      "Ġprobably": 4474,
      "ĠSum": 4475,
      "ĠStat": 4476,
      "Ġprimary": 4477,
      "using": 4478,
      "So": 4479,
      "Ġprotect": 4480,
      "Ġdeaths": 4481,
      "Ġpresence": 4482,
      "ĠRobert": 4483,
      "nel": 4484,
      "place": 4485,
      "ĠMat": 4486,
      "Ġindividuals": 4487,
      "enge": 4488,
      "Ġexam": 4489,
      "Ġoverall": 4490,
      "ĠBill": 4491,
      "Ġobjects": 4492,
      "Ġconfig": 4493,
      "ĠDan": 4494,
      "ĠDec": 4495,
      "Ġreturned": 4496,
      "Ġcompl": 4497,
      "ĠSub": 4498,
      "range": 4499,
      "Ġgirl": 4500,
      "53": 4501,
      "Ġseven": 4502,
      "vis": 4503,
      "vest": 4504,
      "overy": 4505,
      "Ġability": 4506,
      "Ġcompleted": 4507,
      "eks": 4508,
      "amily": 4509,
      "Ġhit": 4510,
      "Ġstring": 4511,
      "}}}": 4512,
      "oto": 4513,
      "agraph": 4514,
      "writ": 4515,
      "Ġmarried": 4516,
      "Ġpurpose": 4517,
      "Ġlocation": 4518,
      "Ġnearly": 4519,
      "ocks": 4520,
      "iece": 4521,
      "86": 4522,
      "&&": 4523,
      "code": 4524,
      "Ġbad": 4525,
      "Ġsigned": 4526,
      "ĠCOVID": 4527,
      "ĠGreat": 4528,
      "ĠNote": 4529,
      "1992": 4530,
      "roy": 4531,
      "ĠMiss": 4532,
      "ussian": 4533,
      "Ġworkers": 4534,
      "Ġdark": 4535,
      "subseteq": 4536,
      "91": 4537,
      "itable": 4538,
      "ini": 4539,
      "Ġchannel": 4540,
      "Ġresources": 4541,
      "OT": 4542,
      "Ġinterpret": 4543,
      "aran": 4544,
      "ĠCommun": 4545,
      "tra": 4546,
      "ĠNor": 4547,
      "Ġpeak": 4548,
      "Is": 4549,
      "allel": 4550,
      "Ġ_{": 4551,
      "bour": 4552,
      "ka": 4553,
      "Ġstrategy": 4554,
      "ewidth": 4555,
      "ras": 4556,
      "Ġ(-": 4557,
      "ET": 4558,
      "Ġdiscussed": 4559,
      "ĠCath": 4560,
      "Ġeigen": 4561,
      "Ġhol": 4562,
      "Bl": 4563,
      "Ġoffer": 4564,
      "ynom": 4565,
      "ĠBen": 4566,
      "Ġrow": 4567,
      "Ġresulting": 4568,
      "Ġ:=": 4569,
      "ĠRussian": 4570,
      "ĠOlymp": 4571,
      "ĠEducation": 4572,
      "IM": 4573,
      "from": 4574,
      "iring": 4575,
      "Ġsubsequ": 4576,
      "Ġones": 4577,
      "rative": 4578,
      "oo": 4579,
      "Ġrates": 4580,
      "Ġbur": 4581,
      "oting": 4582,
      "ructure": 4583,
      "2022": 4584,
      "ensor": 4585,
      "Ġstated": 4586,
      "Ġeasy": 4587,
      "http": 4588,
      "ĠKore": 4589,
      "{$": 4590,
      "Ġbey": 4591,
      "Ġvariables": 4592,
      "Ġautom": 4593,
      "Ġfactors": 4594,
      "minus": 4595,
      "Ġhot": 4596,
      "ustain": 4597,
      "rade": 4598,
      "olf": 4599,
      "Ġparents": 4600,
      "1970": 4601,
      "Ġpurch": 4602,
      "Ġbeyond": 4603,
      "Ġdecided": 4604,
      "Ġnom": 4605,
      "Ġ$\\{": 4606,
      "aur": 4607,
      "Ġfrequency": 4608,
      "Our": 4609,
      "Ġpage": 4610,
      "Ġselected": 4611,
      "}^{-": 4612,
      "Ġvelocity": 4613,
      "ĠRoyal": 4614,
      "ube": 4615,
      "-$": 4616,
      "ĠSam": 4617,
      "Ġcomment": 4618,
      "Ġsil": 4619,
      "riminal": 4620,
      "ĠTw": 4621,
      "iny": 4622,
      "ĠGold": 4623,
      "Ġreading": 4624,
      "ĠOther": 4625,
      "velopment": 4626,
      "Ġfair": 4627,
      "Ġmotion": 4628,
      "Ġrecorded": 4629,
      "Ġforms": 4630,
      "Ġpatients": 4631,
      "Ġformed": 4632,
      "Ġpaint": 4633,
      "Ġuniform": 4634,
      "ĠSystem": 4635,
      "illing": 4636,
      "ĠFlor": 4637,
      "Ġreference": 4638,
      "ĠFore": 4639,
      "Ġplaces": 4640,
      "liament": 4641,
      "Ġfriends": 4642,
      "ether": 4643,
      "Ġclasses": 4644,
      "Ġopened": 4645,
      "300": 4646,
      "ervation": 4647,
      "etimes": 4648,
      "<\\": 4649,
      "Ġey": 4650,
      "ĠMet": 4651,
      "Ġhighly": 4652,
      "Ġnothing": 4653,
      "Ġframework": 4654,
      "Ġappeared": 4655,
      "uracy": 4656,
      "ĠCarol": 4657,
      "abs": 4658,
      "ellig": 4659,
      "linear": 4660,
      "('": 4661,
      "ager": 4662,
      "uthors": 4663,
      "ĠProgram": 4664,
      "ĠCentral": 4665,
      "../../": 4666,
      "ĠSee": 4667,
      "Ġanything": 4668,
      "Ġcitiz": 4669,
      "Ġinside": 4670,
      "Ġopportunity": 4671,
      "Ġprevent": 4672,
      "Ġseg": 4673,
      "Ġbal": 4674,
      "Ġball": 4675,
      "ĠAlex": 4676,
      "Ġdirected": 4677,
      "Ġstarting": 4678,
      "More": 4679,
      "dro": 4680,
      "Ġmus": 4681,
      "ĠSupp": 4682,
      "ĠRet": 4683,
      "Ġmeasures": 4684,
      "Val": 4685,
      "iment": 4686,
      "bon": 4687,
      "1993": 4688,
      "Ġchanged": 4689,
      "Ġcast": 4690,
      "ĠWestern": 4691,
      "Ġdimension": 4692,
      "Ġappears": 4693,
      "xy": 4694,
      "Ġhighest": 4695,
      "Ġmis": 4696,
      "Ġstructures": 4697,
      "72": 4698,
      "ĠDivision": 4699,
      "People": 4700,
      "olit": 4701,
      "AB": 4702,
      "Ġrelevant": 4703,
      "Ġult": 4704,
      "Ġoperation": 4705,
      "Ġcommunities": 4706,
      "ĠĠĠĠĊ": 4707,
      "bigg": 4708,
      "Ġcharacters": 4709,
      "ĠPost": 4710,
      "ĠDes": 4711,
      "turb": 4712,
      "ĠThomas": 4713,
      "Ġreduced": 4714,
      "Ġrequires": 4715,
      "Ġprojects": 4716,
      "Ġexcept": 4717,
      "eria": 4718,
      "ĠHen": 4719,
      "Ġsaying": 4720,
      "ĠFoundation": 4721,
      "Ġsomeone": 4722,
      "ĠService": 4723,
      "linewidth": 4724,
      "Ġmanufact": 4725,
      "Ġpen": 4726,
      "Ġerr": 4727,
      "ĠCanadian": 4728,
      "Ġaffect": 4729,
      "pan": 4730,
      "Ġcle": 4731,
      "Ġbirth": 4732,
      "list": 4733,
      "Ġleave": 4734,
      "Ġroom": 4735,
      "Note": 4736,
      "ĠAustralian": 4737,
      "ION": 4738,
      "Ġestimated": 4739,
      "Ġpark": 4740,
      "Ġpressure": 4741,
      "Ġnoise": 4742,
      "Ġteac": 4743,
      "ĠSal": 4744,
      "Ġstories": 4745,
      "Vert": 4746,
      "ĠRoad": 4747,
      "ĠVirgin": 4748,
      "Ġstra": 4749,
      "ĠAnn": 4750,
      "Ġmajority": 4751,
      "Ġcollege": 4752,
      "aith": 4753,
      "Ġobservations": 4754,
      "return": 4755,
      "Ġgreater": 4756,
      "di": 4757,
      "Ġwide": 4758,
      "inos": 4759,
      "subfigure": 4760,
      "59": 4761,
      "Ġinfluence": 4762,
      "EE": 4763,
      "alian": 4764,
      "itter": 4765,
      "Ġassess": 4766,
      "Ġdetermine": 4767,
      "Ass": 4768,
      "data": 4769,
      "MC": 4770,
      "ĠOffice": 4771,
      "Ġgeomet": 4772,
      "footnote": 4773,
      "ĠBo": 4774,
      "ĠSmith": 4775,
      "Ġleads": 4776,
      "aily": 4777,
      "ils": 4778,
      "Now": 4779,
      "Ġscheme": 4780,
      "Ġneighbor": 4781,
      "board": 4782,
      "porary": 4783,
      "Ġnorm": 4784,
      "Ġunits": 4785,
      "azine": 4786,
      "Ġweeks": 4787,
      "burg": 4788,
      "Theta": 4789,
      "Ġchem": 4790,
      "Ġrepe": 4791,
      "89": 4792,
      "haps": 4793,
      "Ġserious": 4794,
      "Ġeverything": 4795,
      "Ġoccup": 4796,
      "Ġexisting": 4797,
      "tical": 4798,
      "Ġenjoy": 4799,
      "Ġnetworks": 4800,
      "Ġnoted": 4801,
      "poses": 4802,
      "oura": 4803,
      "iques": 4804,
      "normal": 4805,
      "Ġlatter": 4806,
      "abilities": 4807,
      "ĠGra": 4808,
      "ifically": 4809,
      "Ġbelong": 4810,
      "Ġpolitic": 4811,
      "ĠAccording": 4812,
      "Ġproceed": 4813,
      "Ġdataset": 4814,
      "Ġreveal": 4815,
      "ibly": 4816,
      "ĠMag": 4817,
      "Ġrespond": 4818,
      "Ġcollabor": 4819,
      "Ġreach": 4820,
      "63": 4821,
      "Ġvariety": 4822,
      "rants": 4823,
      "ĠLat": 4824,
      "Ġchoose": 4825,
      "ĠBank": 4826,
      "Ġuncertaint": 4827,
      "Ġchain": 4828,
      "Qu": 4829,
      "Ġcontroll": 4830,
      "ĠMad": 4831,
      "crete": 4832,
      "Ġdouble": 4833,
      "Ġexpression": 4834,
      "ĠJournal": 4835,
      "ĠIsland": 4836,
      "setminus": 4837,
      "ĠEv": 4838,
      "Ġidentity": 4839,
      "ĠScott": 4840,
      "Ġefforts": 4841,
      "Ġminimum": 4842,
      "tered": 4843,
      "war": 4844,
      "run": 4845,
      "ĠFrancis": 4846,
      "ĠPet": 4847,
      "Ġspent": 4848,
      "mes": 4849,
      "prod": 4850,
      "Ġcounter": 4851,
      "ĠÂ§": 4852,
      "Ġhum": 4853,
      "Ġ!": 4854,
      "Ġclassical": 4855,
      "Ġkilled": 4856,
      "ĠDel": 4857,
      "Ġextended": 4858,
      "ĠSur": 4859,
      "UR": 4860,
      "black": 4861,
      "ĠRussia": 4862,
      "ĠMac": 4863,
      "Def": 4864,
      "84": 4865,
      "Ġhence": 4866,
      "Ġ...": 4867,
      "dist": 4868,
      "osing": 4869,
      "ĠDon": 4870,
      "Ġleader": 4871,
      "No": 4872,
      "ĠBest": 4873,
      "ĠClub": 4874,
      "Ġunderstanding": 4875,
      "ĠProfess": 4876,
      ")|": 4877,
      "Ġproduce": 4878,
      "ĠTimes": 4879,
      "Ġcontinuous": 4880,
      "Ġtraditional": 4881,
      "erved": 4882,
      "ashed": 4883,
      "maz": 4884,
      "En": 4885,
      "Ġsmooth": 4886,
      "iew": 4887,
      "display": 4888,
      "ĠWil": 4889,
      "Ġplatform": 4890,
      "ada": 4891,
      "ayer": 4892,
      "ado": 4893,
      "Ġchosen": 4894,
      "Ġ\\;": 4895,
      "ĠList": 4896,
      "}'": 4897,
      "Mod": 4898,
      "Ġusers": 4899,
      "Ġderiv": 4900,
      "Ġapplications": 4901,
      "SP": 4902,
      "Ġ($\\": 4903,
      "asks": 4904,
      "Ġnull": 4905,
      "road": 4906,
      "resents": 4907,
      "Ġanim": 4908,
      "1991": 4909,
      "Ġrepresented": 4910,
      "anger": 4911,
      "iller": 4912,
      "icago": 4913,
      "^{-\\": 4914,
      "Ġarbit": 4915,
      "Ġplans": 4916,
      "}}_{": 4917,
      "ptions": 4918,
      "Ġlayer": 4919,
      "acing": 4920,
      "Ġexactly": 4921,
      "Ġpolic": 4922,
      "Ġacadem": 4923,
      "Ġ$|": 4924,
      "ĠTom": 4925,
      "62": 4926,
      "Ġwatch": 4927,
      "ĠRel": 4928,
      "Not": 4929,
      "bur": 4930,
      "Ġfarm": 4931,
      "Ġinteraction": 4932,
      "Ġaspect": 4933,
      "Ġsymbol": 4934,
      "bul": 4935,
      "ĠAlthough": 4936,
      "Ġapproximately": 4937,
      "}},": 4938,
      "Ġsometimes": 4939,
      "Ġpick": 4940,
      "ĠFurther": 4941,
      "Ġcontribution": 4942,
      "ternet": 4943,
      "Ġmechanism": 4944,
      "Ġsamples": 4945,
      "Ġpanel": 4946,
      "Ġremain": 4947,
      "Ġtrain": 4948,
      "ĠOut": 4949,
      "Ġexamples": 4950,
      "Ġcam": 4951,
      "Ġincome": 4952,
      "Ġsch": 4953,
      "oral": 4954,
      "Ġpolynom": 4955,
      "Ġmentioned": 4956,
      "Ġexplicit": 4957,
      "Ġflux": 4958,
      "Ġsteps": 4959,
      "Ġeasily": 4960,
      "ĠIr": 4961,
      "Ġfast": 4962,
      "arp": 4963,
      "Ġargument": 4964,
      "Ġtrac": 4965,
      "Ġworth": 4966,
      "Ġconnection": 4967,
      "aligned": 4968,
      "Ġlic": 4969,
      "Ġdemand": 4970,
      "Ġgrand": 4971,
      "Ġunivers": 4972,
      "bo": 4973,
      "Ġprem": 4974,
      "Ġwidth": 4975,
      "Ġcorpor": 4976,
      "\")": 4977,
      "Ġconsid": 4978,
      "Ġrail": 4979,
      "Ġstatus": 4980,
      "Ġhyper": 4981,
      "Ġfavor": 4982,
      "Ġtal": 4983,
      "IF": 4984,
      "atre": 4985,
      "onald": 4986,
      "win": 4987,
      "Ġproviding": 4988,
      "Ġelectric": 4989,
      "Ġscreen": 4990,
      "Ġdefe": 4991,
      "gs": 4992,
      "61": 4993,
      "However": 4994,
      "Ġplant": 4995,
      "iency": 4996,
      "Ġbasic": 4997,
      "ĠFlorida": 4998,
      "Ġeventually": 4999,
      "Ġscore": 5000,
      "BS": 5001,
      "ĠÃ": 5002,
      "Ġnames": 5003,
      "Ġgoes": 5004,
      "unk": 5005,
      "bt": 5006,
      "Ġexpansion": 5007,
      "Ġprocesses": 5008,
      "Ġreduce": 5009,
      "Ġhref": 5010,
      "Ġcurve": 5011,
      "Ġblue": 5012,
      "ulture": 5013,
      "Ġax": 5014,
      "Ġactions": 5015,
      "ĠClass": 5016,
      "ĠLouis": 5017,
      "\\}": 5018,
      "owers": 5019,
      "ĠAre": 5020,
      "source": 5021,
      "Ġharm": 5022,
      "Ġactivity": 5023,
      "Ġoperators": 5024,
      "âĢĿ.": 5025,
      "auge": 5026,
      "Ġcompletely": 5027,
      "ĠInst": 5028,
      "edia": 5029,
      "Ġcosts": 5030,
      "hi": 5031,
      "orpor": 5032,
      "_+": 5033,
      "iding": 5034,
      "Ġdaughter": 5035,
      "Ġdisplay": 5036,
      "anned": 5037,
      "IP": 5038,
      "IV": 5039,
      "Ġartists": 5040,
      "Ġexperiments": 5041,
      "Ġhop": 5042,
      "param": 5043,
      "spect": 5044,
      "ĠAcademy": 5045,
      "Ġspread": 5046,
      "ĠMo": 5047,
      "undred": 5048,
      "ĠLos": 5049,
      "Ġdesp": 5050,
      "74": 5051,
      "ĠSecretary": 5052,
      "Ġbounded": 5053,
      "Ġcarry": 5054,
      "ĠPre": 5055,
      "roduction": 5056,
      "ĠRichard": 5057,
      "ĠRad": 5058,
      "ressed": 5059,
      "Ġstop": 5060,
      "Ġreached": 5061,
      "ĠWomen": 5062,
      "ĠHill": 5063,
      "ensus": 5064,
      "Ġ$[": 5065,
      "ĠĠĠĊ": 5066,
      "ĠPo": 5067,
      "otion": 5068,
      "69": 5069,
      "ĠMass": 5070,
      "Ġotherwise": 5071,
      "Ġhope": 5072,
      "venue": 5073,
      "ellar": 5074,
      "Ġbrief": 5075,
      "wedge": 5076,
      "Ġprep": 5077,
      "Ġkm": 5078,
      "Ġartist": 5079,
      "Ġlaws": 5080,
      "itar": 5081,
      "ĠTor": 5082,
      "Ġmaps": 5083,
      "Ġparties": 5084,
      "Ġdisease": 5085,
      "Ġleaders": 5086,
      "ĠProv": 5087,
      "ĠHamilton": 5088,
      "ĠKingdom": 5089,
      "Ġidentified": 5090,
      "Ġpassed": 5091,
      "ĠBre": 5092,
      "Living": 5093,
      "ĠRock": 5094,
      "ifold": 5095,
      "itation": 5096,
      "rence": 5097,
      "ĠRob": 5098,
      "oplus": 5099,
      "_*": 5100,
      "'m": 5101,
      "Ġtree": 5102,
      "Ġcompact": 5103,
      "ĠPeople": 5104,
      "Ab": 5105,
      "Ġdead": 5106,
      "Ġminor": 5107,
      "Ġrap": 5108,
      "ani": 5109,
      "urt": 5110,
      "IG": 5111,
      "limits": 5112,
      "ĠSecond": 5113,
      "73": 5114,
      "sembly": 5115,
      "BA": 5116,
      "Ġliterature": 5117,
      "aven": 5118,
      "Ġfinally": 5119,
      "ĠBusiness": 5120,
      "Ġrepresents": 5121,
      "hand": 5122,
      "Ġshape": 5123,
      "Ġdebut": 5124,
      "Ġhttp": 5125,
      "ĠOffic": 5126,
      "colon": 5127,
      "Ġslow": 5128,
      "Here": 5129,
      "png": 5130,
      "Ġ&&": 5131,
      "Ġresponsible": 5132,
      "}/": 5133,
      "cons": 5134,
      "ĠMem": 5135,
      "efore": 5136,
      "Ġvolume": 5137,
      "cles": 5138,
      "ĠSocial": 5139,
      "Ġgeneration": 5140,
      "Ġderived": 5141,
      "Ġembedd": 5142,
      "Ġcontrast": 5143,
      "History": 5144,
      "Ġcaused": 5145,
      "83": 5146,
      "Ġmemory": 5147,
      "Ġconsistent": 5148,
      "udget": 5149,
      "reland": 5150,
      "Ġcomparison": 5151,
      "Ġappropriate": 5152,
      "ĠPeter": 5153,
      "ulate": 5154,
      "urd": 5155,
      "ĠProposition": 5156,
      "DF": 5157,
      "DA": 5158,
      "itled": 5159,
      "Ġeconomy": 5160,
      "Ġdisp": 5161,
      "ĠJud": 5162,
      "Ġsector": 5163,
      "Ã¶": 5164,
      "Ġexistence": 5165,
      "icine": 5166,
      "ariance": 5167,
      "SC": 5168,
      "riev": 5169,
      "ĠArts": 5170,
      "ictor": 5171,
      "dt": 5172,
      "*{": 5173,
      "Ġeth": 5174,
      "Ġid": 5175,
      "Ġdro": 5176,
      "ĠPri": 5177,
      "That": 5178,
      "Ġemission": 5179,
      "Ġreligious": 5180,
      "Ġmission": 5181,
      "Ġconvers": 5182,
      "ĠUnder": 5183,
      "Ġjoint": 5184,
      "Ġconnect": 5185,
      "dec": 5186,
      "ishes": 5187,
      "flo": 5188,
      "Ġpain": 5189,
      "Ġorigin": 5190,
      "Ġprison": 5191,
      "Ġreceive": 5192,
      "Ġdiscussion": 5193,
      "ĠJose": 5194,
      "Ġfeed": 5195,
      "Ġmiddle": 5196,
      "82": 5197,
      "Ġvirt": 5198,
      "Ġslight": 5199,
      "Ġelected": 5200,
      "Ġextra": 5201,
      "Ġmicro": 5202,
      "ĠFrank": 5203,
      "Ġes": 5204,
      "String": 5205,
      "1960": 5206,
      "Ġgun": 5207,
      "Ġinform": 5208,
      "Ġaccuracy": 5209,
      "Ġdynamics": 5210,
      "),\\": 5211,
      "Ġvote": 5212,
      "Ġmeasured": 5213,
      "ĠAtt": 5214,
      "unc": 5215,
      "Ġinstrum": 5216,
      "izon": 5217,
      "ita": 5218,
      "Ġeveryone": 5219,
      "uls": 5220,
      "ĠSeries": 5221,
      "Ġcore": 5222,
      "Ġthous": 5223,
      "stitution": 5224,
      "Ġsafety": 5225,
      "ĠJapanese": 5226,
      "79": 5227,
      "apers": 5228,
      "Ġvan": 5229,
      "ĠPlan": 5230,
      "Ġcategory": 5231,
      "ms": 5232,
      "uty": 5233,
      "Ġmoving": 5234,
      "ollary": 5235,
      "ancing": 5236,
      "While": 5237,
      "Ġoptimal": 5238,
      "_{(": 5239,
      "ĠCharles": 5240,
      "Ġofficer": 5241,
      "$_": 5242,
      "ĠTown": 5243,
      "Ġconflic": 5244,
      "ĠSun": 5245,
      "FL": 5246,
      "1989": 5247,
      "Ġmob": 5248,
      "Ġsignificantly": 5249,
      "ĠGrand": 5250,
      "inn": 5251,
      "Ġdescribe": 5252,
      "Ġdiagram": 5253,
      "oma": 5254,
      "'ve": 5255,
      "Par": 5256,
      "ln": 5257,
      "Ġfounded": 5258,
      "81": 5259,
      "Ġimmediately": 5260,
      "path": 5261,
      "rees": 5262,
      "ĠMost": 5263,
      "EO": 5264,
      "omy": 5265,
      "71": 5266,
      "Ġtrial": 5267,
      "rupt": 5268,
      "ira": 5269,
      "Ġresolution": 5270,
      "Ġfemale": 5271,
      "UT": 5272,
      "Ġclimate": 5273,
      "Ġcapacity": 5274,
      "aud": 5275,
      "ĠFilm": 5276,
      "Ġshift": 5277,
      "Ġgrav": 5278,
      "Ġminutes": 5279,
      "Ġclearly": 5280,
      "ĠSl": 5281,
      "Ġauthors": 5282,
      "ollowing": 5283,
      "ĠIran": 5284,
      "Sub": 5285,
      "Ġcouple": 5286,
      "za": 5287,
      "Ġgiving": 5288,
      "Ġopin": 5289,
      "SO": 5290,
      "Ġconsists": 5291,
      "ancy": 5292,
      "ags": 5293,
      "cel": 5294,
      "ih": 5295,
      "ropy": 5296,
      "She": 5297,
      "Ġetc": 5298,
      "attice": 5299,
      "Ġorganizations": 5300,
      "Ġuseful": 5301,
      "iled": 5302,
      "ĠStar": 5303,
      "dagger": 5304,
      "ĠMoreover": 5305,
      "but": 5306,
      "Ġperfect": 5307,
      "Ġsolid": 5308,
      "Ġanc": 5309,
      "Ġamb": 5310,
      "osm": 5311,
      "Ġselection": 5312,
      "Ġvariable": 5313,
      "Ġpoor": 5314,
      "anda": 5315,
      "Ġplane": 5316,
      "ĠAngeles": 5317,
      "ĠHuman": 5318,
      "ĠCat": 5319,
      "riage": 5320,
      "ĠCatholic": 5321,
      "Ġshowed": 5322,
      "Ġminim": 5323,
      "Ġwriter": 5324,
      "Ġgreen": 5325,
      "Ġbill": 5326,
      "Ġsubset": 5327,
      "Ġtrust": 5328,
      "Ġannual": 5329,
      "IA": 5330,
      "ĠReview": 5331,
      "Ġquarter": 5332,
      "Ġsurpr": 5333,
      "Ġiniti": 5334,
      "Net": 5335,
      "yp": 5336,
      "PC": 5337,
      "ĠChicago": 5338,
      "Ġsquare": 5339,
      "inger": 5340,
      "Ġ\\(": 5341,
      "Ġprice": 5342,
      "Ġreflect": 5343,
      "Ġsummer": 5344,
      "Ġconsum": 5345,
      "Ġ%": 5346,
      "Ġfile": 5347,
      "Ġbeaut": 5348,
      "ĠOver": 5349,
      "Ġcritic": 5350,
      "Ġmode": 5351,
      "ĠPe": 5352,
      "Im": 5353,
      "ading": 5354,
      "Ġtim": 5355,
      "Ġprocedure": 5356,
      "Ġexperiment": 5357,
      "Ġsusp": 5358,
      "Ġspat": 5359,
      "Ġreports": 5360,
      "Ġsecret": 5361,
      "Ġgalaxies": 5362,
      "Ġplaced": 5363,
      "amental": 5364,
      "Ġ|\\": 5365,
      "mas": 5366,
      "Ġadministration": 5367,
      "ĠLife": 5368,
      "ena": 5369,
      "Ġtherm": 5370,
      "Ġ=>": 5371,
      "^-": 5372,
      "Ġformula": 5373,
      "ĠParis": 5374,
      "Ġinequality": 5375,
      "ĠÐ": 5376,
      "Ġconcent": 5377,
      "Ġgrowing": 5378,
      "Ġtransl": 5379,
      "ĠĠĠĠĠĠĠĠĠĠĠĠĠ": 5380,
      "onder": 5381,
      "Ġvertex": 5382,
      "uting": 5383,
      "Ġpolar": 5384,
      "Sec": 5385,
      "enty": 5386,
      "Ġcopy": 5387,
      "Ġofficials": 5388,
      "Ġextrem": 5389,
      "Ġcommercial": 5390,
      "Ġimag": 5391,
      "endix": 5392,
      "Ġparticles": 5393,
      "definition": 5394,
      "Comp": 5395,
      "à¤": 5396,
      "west": 5397,
      "Ġappointed": 5398,
      "1988": 5399,
      "FF": 5400,
      "Ġsurround": 5401,
      "Ġphil": 5402,
      "Ġserve": 5403,
      "Cont": 5404,
      "urance": 5405,
      "Ġpeace": 5406,
      "erman": 5407,
      "Ġcru": 5408,
      "ocol": 5409,
      "RO": 5410,
      "astern": 5411,
      "ĠDevelopment": 5412,
      "inem": 5413,
      "Ġwhom": 5414,
      "Ġlif": 5415,
      "Ġcommit": 5416,
      "standing": 5417,
      "igan": 5418,
      "Ġ}\\": 5419,
      "fit": 5420,
      "Ġabsol": 5421,
      "Ġfelt": 5422,
      "det": 5423,
      "Ġnodes": 5424,
      "ĠHence": 5425,
      "ros": 5426,
      "pled": 5427,
      "orial": 5428,
      "Ġclaims": 5429,
      "Ġlisted": 5430,
      "risis": 5431,
      "Ġremaining": 5432,
      "LO": 5433,
      "CH": 5434,
      "ĠChild": 5435,
      "Ġsymmetry": 5436,
      "Ġquickly": 5437,
      "ano": 5438,
      "Ġrecords": 5439,
      "Ġhelped": 5440,
      "ologies": 5441,
      "Te": 5442,
      "andemic": 5443,
      "}}(\\": 5444,
      "Ġspaces": 5445,
      "ĠKe": 5446,
      "Sim": 5447,
      "ING": 5448,
      "iant": 5449,
      "ĠVirginia": 5450,
      "uled": 5451,
      "ĠEconom": 5452,
      "Ġtru": 5453,
      "Ġbrand": 5454,
      "Ġruns": 5455,
      "Ġselect": 5456,
      "ĠFederal": 5457,
      "Ġsatisfies": 5458,
      "ĠIslam": 5459,
      "thlet": 5460,
      "Ġturned": 5461,
      "ĠHistor": 5462,
      "onent": 5463,
      "PA": 5464,
      "Ġbuildings": 5465,
      "ĠMer": 5466,
      "icated": 5467,
      "Ġmessage": 5468,
      "Set": 5469,
      "Ġprint": 5470,
      "Ġnuclear": 5471,
      "Ġfreedom": 5472,
      "apping": 5473,
      "Ġincreases": 5474,
      "ĠMexico": 5475,
      "Ġapproximation": 5476,
      "Ġemployees": 5477,
      "Ġoil": 5478,
      "gest": 5479,
      "textsc": 5480,
      "inant": 5481,
      "Ġcompetition": 5482,
      "Ġreasons": 5483,
      "Ġdefend": 5484,
      "ĠArab": 5485,
      "ki": 5486,
      "Ġfourth": 5487,
      "Ġgold": 5488,
      "ogue": 5489,
      "Ġapproaches": 5490,
      "TS": 5491,
      "Ġformation": 5492,
      "inations": 5493,
      "EM": 5494,
      "alo": 5495,
      "gu": 5496,
      "Ġstraight": 5497,
      "{$\\": 5498,
      "ĠCamp": 5499,
      "ĠIreland": 5500,
      "ĠAmericans": 5501,
      "Ġremark": 5502,
      "ĠLand": 5503,
      "ĠDen": 5504,
      "Ġsimpl": 5505,
      "test": 5506,
      "Ġsimulations": 5507,
      "Ġobvious": 5508,
      "Ġattrib": 5509,
      "ĠBi": 5510,
      "ĠNov": 5511,
      "house": 5512,
      "Ġdivid": 5513,
      "reshold": 5514,
      "rivial": 5515,
      "These": 5516,
      "ĠZeal": 5517,
      "Man": 5518,
      "Ġbul": 5519,
      "ĠSund": 5520,
      "Ġseparate": 5521,
      "iable": 5522,
      "Ġpaid": 5523,
      "Ġinterested": 5524,
      "Data": 5525,
      "Ġplays": 5526,
      "ava": 5527,
      "Ġvisual": 5528,
      "Ġepisode": 5529,
      "Ed": 5530,
      "ĠEngine": 5531,
      "ĠChief": 5532,
      "Ġdespite": 5533,
      "Ġrise": 5534,
      "ĠBrown": 5535,
      "Ġdistinct": 5536,
      "ĠUN": 5537,
      "Ġstrugg": 5538,
      "Ġhundred": 5539,
      "forall": 5540,
      "men": 5541,
      "requ": 5542,
      "Ġparticle": 5543,
      "ĠPenn": 5544,
      "cases": 5545,
      "oration": 5546,
      "Ġplot": 5547,
      "Ġsenior": 5548,
      "\\'": 5549,
      "400": 5550,
      ")\\,": 5551,
      "ĠFe": 5552,
      "ĠAtl": 5553,
      "igration": 5554,
      "Ġisn": 5555,
      "olved": 5556,
      "orning": 5557,
      "ban": 5558,
      "ola": 5559,
      "ircraft": 5560,
      ")^{\\": 5561,
      "cher": 5562,
      "IL": 5563,
      "ĠUSA": 5564,
      "inder": 5565,
      "Ġrelatively": 5566,
      "Ġeffort": 5567,
      "Ġidentify": 5568,
      "Ġexc": 5569,
      "Ġassumption": 5570,
      "string": 5571,
      "ĠSuper": 5572,
      "ĠZealand": 5573,
      "1987": 5574,
      "Ġcontributions": 5575,
      "Ġmomentum": 5576,
      "Ġwrong": 5577,
      "command": 5578,
      "Ġcomputer": 5579,
      "Ġnumerical": 5580,
      "nowled": 5581,
      "Or": 5582,
      "ĠPan": 5583,
      "riz": 5584,
      "Ġdetection": 5585,
      "State": 5586,
      "ĠTwo": 5587,
      "ĠBur": 5588,
      "Ġcarried": 5589,
      "olk": 5590,
      "}$-": 5591,
      "NA": 5592,
      "Ġnotice": 5593,
      "1986": 5594,
      "Ġradius": 5595,
      "Ġwasn": 5596,
      "Ġchief": 5597,
      "ĠIll": 5598,
      "Ġdetect": 5599,
      "main": 5600,
      "Ġoffers": 5601,
      "eech": 5602,
      "Ġcoach": 5603,
      "Ġreferred": 5604,
      "Ġship": 5605,
      "ĠAlso": 5606,
      "bi": 5607,
      "ĠWal": 5608,
      "DP": 5609,
      "ented": 5610,
      "Ġprofile": 5611,
      "ĠOper": 5612,
      "Ġwest": 5613,
      "Ġshot": 5614,
      "RA": 5615,
      "ĠMel": 5616,
      "Ġsam": 5617,
      "First": 5618,
      "Ġinternal": 5619,
      "âĢĿ,": 5620,
      "Ġsustain": 5621,
      "file": 5622,
      "Ġoriginally": 5623,
      "yr": 5624,
      "Ġcitizens": 5625,
      "Ġreplaced": 5626,
      "deg": 5627,
      "Ġcommand": 5628,
      "ĠOh": 5629,
      "Ġmarg": 5630,
      "ker": 5631,
      "Ġvoid": 5632,
      "FT": 5633,
      "ette": 5634,
      "Ġinnov": 5635,
      "Ġinvestment": 5636,
      "Ġcells": 5637,
      "Ġtechniques": 5638,
      "ĠGames": 5639,
      ")}(": 5640,
      "_{{\\": 5641,
      ":\\": 5642,
      "Ġcultural": 5643,
      "uations": 5644,
      "Ġended": 5645,
      "ala": 5646,
      "Ġscene": 5647,
      "Ġmeasurements": 5648,
      "ĠRem": 5649,
      "Ġgauge": 5650,
      "room": 5651,
      "model": 5652,
      "Ġdigital": 5653,
      "Ġheard": 5654,
      "url": 5655,
      "ua": 5656,
      "Ġvar": 5657,
      "Ġregist": 5658,
      "Ġanswer": 5659,
      "Ġperturb": 5660,
      "ĠItalian": 5661,
      "Ġspectral": 5662,
      "hesis": 5663,
      "Ġarrest": 5664,
      "Ġsoftware": 5665,
      "omic": 5666,
      "udd": 5667,
      "ba": 5668,
      "SA": 5669,
      "subsubsection": 5670,
      "Ġenter": 5671,
      "Ġdescription": 5672,
      "itness": 5673,
      "gra": 5674,
      "Ġrequirements": 5675,
      "Ġpiece": 5676,
      "oday": 5677,
      "Ġcalculated": 5678,
      "Ġactual": 5679,
      "Ġpolicies": 5680,
      "tty": 5681,
      "elligence": 5682,
      "Ġâ": 5683,
      "rich": 5684,
      "Ġmix": 5685,
      "Ġguitar": 5686,
      "law": 5687,
      "Ġestimates": 5688,
      "roid": 5689,
      "gent": 5690,
      "Ġalone": 5691,
      "Ġexperimental": 5692,
      "1984": 5693,
      "Ġtrib": 5694,
      "orney": 5695,
      "Ġsal": 5696,
      "ĠTime": 5697,
      "Ġheavy": 5698,
      "ror": 5699,
      "razil": 5700,
      "fficients": 5701,
      "osoph": 5702,
      "CA": 5703,
      "asure": 5704,
      "Ġcandidate": 5705,
      "Ġleadership": 5706,
      "Ġefficient": 5707,
      "UN": 5708,
      "Ġfunding": 5709,
      "Ġ==": 5710,
      "Ġattract": 5711,
      "********": 5712,
      "pc": 5713,
      "Ġsales": 5714,
      "neg": 5715,
      "Ġunion": 5716,
      "orter": 5717,
      "Ġdepends": 5718,
      "Ġcombination": 5719,
      "Ġpositions": 5720,
      "Ġagent": 5721,
      "Ġraised": 5722,
      "Ġhospital": 5723,
      "isher": 5724,
      "sto": 5725,
      "Ġcry": 5726,
      "Ġemp": 5727,
      "hab": 5728,
      "irmed": 5729,
      "real": 5730,
      "ĠJustice": 5731,
      ")_{": 5732,
      "ĠWell": 5733,
      "inity": 5734,
      "##": 5735,
      "ĠEqu": 5736,
      "Ġeast": 5737,
      "Figure": 5738,
      "ultural": 5739,
      "Be": 5740,
      "\\!\\!": 5741,
      "Ġregime": 5742,
      "usband": 5743,
      "alg": 5744,
      "Ġvictim": 5745,
      "Ġceleb": 5746,
      "vere": 5747,
      "Ġgoals": 5748,
      "Ġideas": 5749,
      "ĠAdminist": 5750,
      "Ob": 5751,
      "Ġmaterials": 5752,
      "Ġhistorical": 5753,
      "ĠItaly": 5754,
      "ĠTest": 5755,
      "Ġleague": 5756,
      "Ġimportance": 5757,
      "ĠIts": 5758,
      "Ġexecutive": 5759,
      "Ġformal": 5760,
      "check": 5761,
      "ameter": 5762,
      "Ġopening": 5763,
      "Ġtruth": 5764,
      "obs": 5765,
      "ĠEarth": 5766,
      "estic": 5767,
      "azz": 5768,
      "ĠForce": 5769,
      "={": 5770,
      "esh": 5771,
      "Ġdual": 5772,
      "Ġregarding": 5773,
      "Ġexpressed": 5774,
      "Ġfraction": 5775,
      "ĠSpanish": 5776,
      "net": 5777,
      "Ġcard": 5778,
      "hemat": 5779,
      "Ġsort": 5780,
      "Ġclassification": 5781,
      "Ġmole": 5782,
      "Ġbeg": 5783,
      "ĠCarolina": 5784,
      "Ġspirit": 5785,
      "umni": 5786,
      "Ġexcit": 5787,
      "Ġcorresponds": 5788,
      "CS": 5789,
      "1985": 5790,
      "Ġmer": 5791,
      "Ġcommunication": 5792,
      "Ġcoupling": 5793,
      "Ġpet": 5794,
      "ulty": 5795,
      "ĠGeorg": 5796,
      "Ġcriminal": 5797,
      "ĠST": 5798,
      "_{-": 5799,
      "asion": 5800,
      "coming": 5801,
      "Ġvertices": 5802,
      "elled": 5803,
      "'\\": 5804,
      "Ġfif": 5805,
      "Ġpandemic": 5806,
      "Ġletter": 5807,
      "Ġstrength": 5808,
      "Ġdiss": 5809,
      "Ġbenefits": 5810,
      "enced": 5811,
      "ĠJewish": 5812,
      ")/": 5813,
      "Ġintroduce": 5814,
      "Ġfoot": 5815,
      "Ġlived": 5816,
      "Ġmostly": 5817,
      "Ġreplace": 5818,
      "Ġclin": 5819,
      "Ġviolence": 5820,
      "'_": 5821,
      "Ġcombined": 5822,
      "Ġdu": 5823,
      "Ġaware": 5824,
      "Ġcompute": 5825,
      "enth": 5826,
      "Eq": 5827,
      "ĠÂ£": 5828,
      "Co": 5829,
      "Ġblood": 5830,
      "ĠMartin": 5831,
      "Pr": 5832,
      "ĠVictor": 5833,
      "Ġchart": 5834,
      "Ġconstraints": 5835,
      "=(": 5836,
      "Ġ+\\": 5837,
      "Ġmissing": 5838,
      "Ste": 5839,
      "Ġphen": 5840,
      "gcolor": 5841,
      "Ġcities": 5842,
      "shift": 5843,
      "free": 5844,
      "etime": 5845,
      "Ġdecay": 5846,
      "CT": 5847,
      "âĢħ": 5848,
      "related": 5849,
      "ĠHenry": 5850,
      "Ġpurposes": 5851,
      "mann": 5852,
      "irus": 5853,
      "ĠProject": 5854,
      "length": 5855,
      "Ġnumerous": 5856,
      "Ġofficers": 5857,
      "ĠServices": 5858,
      "Ġliber": 5859,
      "Ġshared": 5860,
      "ĠMont": 5861,
      "kin": 5862,
      "ĠSta": 5863,
      ",\\,": 5864,
      "Ġsports": 5865,
      "ympt": 5866,
      "Ġarchitecture": 5867,
      "iral": 5868,
      "Ġedges": 5869,
      "ady": 5870,
      "Ġtesting": 5871,
      "Ġintegral": 5872,
      "ĠManagement": 5873,
      "active": 5874,
      "ĠGen": 5875,
      "~$\\": 5876,
      "Ġalgorithms": 5877,
      "Ne": 5878,
      "Ġalle": 5879,
      "Ġfaith": 5880,
      "perp": 5881,
      "Ġarrang": 5882,
      "yer": 5883,
      "phas": 5884,
      "vex": 5885,
      "going": 5886,
      "Ġchallenge": 5887,
      "Ġsimulation": 5888,
      "Ġauthority": 5889,
      "Ġextension": 5890,
      "John": 5891,
      "Ġknew": 5892,
      "ĠBig": 5893,
      "Ġbenefit": 5894,
      "Ġreb": 5895,
      "Ġissued": 5896,
      "Ġfinished": 5897,
      "My": 5898,
      "Ġremained": 5899,
      "ĠEach": 5900,
      "Ġstatic": 5901,
      "ĠĠĠĠĠĠĠĠĠĠĠĠ": 5902,
      "Over": 5903,
      "Ġgets": 5904,
      "eds": 5905,
      "GB": 5906,
      "espite": 5907,
      "akers": 5908,
      "Ġfailed": 5909,
      "Ġshoot": 5910,
      "Ġfine": 5911,
      "ĠFre": 5912,
      "ĠYoung": 5913,
      "ĠForm": 5914,
      "Ġdistributions": 5915,
      "Ġlearned": 5916,
      "Ġdifferences": 5917,
      "Ġmill": 5918,
      "Ġdepartment": 5919,
      "Ġhar": 5920,
      "pmatrix": 5921,
      "produ": 5922,
      "Ġextract": 5923,
      "Ġpropag": 5924,
      "Ġheight": 5925,
      "aming": 5926,
      "FC": 5927,
      "hem": 5928,
      "Ġaccur": 5929,
      "Get": 5930,
      "ĠAsia": 5931,
      "Ġcircum": 5932,
      "idden": 5933,
      "Ġprotection": 5934,
      "Ġcluster": 5935,
      "Post": 5936,
      "ĠLake": 5937,
      "ĠIN": 5938,
      "ĠRights": 5939,
      "Ġuniversity": 5940,
      "MP": 5941,
      "Ġsites": 5942,
      "Ġrapid": 5943,
      "index": 5944,
      "Ġframe": 5945,
      "ĠTechnology": 5946,
      "ĠRecords": 5947,
      "LP": 5948,
      "Ġanyone": 5949,
      "ĠTheir": 5950,
      "Ġdecom": 5951,
      "Ġcircle": 5952,
      "riday": 5953,
      "Ġcancer": 5954,
      "Ġfamous": 5955,
      "Ġpropos": 5956,
      "Ġguaran": 5957,
      "ĠWood": 5958,
      "Ġalternative": 5959,
      "Ġalbums": 5960,
      "LS": 5961,
      "Ġign": 5962,
      "igation": 5963,
      "ĠCur": 5964,
      "Ġsexual": 5965,
      "Ġborder": 5966,
      "ĠEven": 5967,
      "ĠSaint": 5968,
      "Ġbecoming": 5969,
      "cond": 5970,
      "aval": 5971,
      "gn": 5972,
      "^{+": 5973,
      "Ġtypically": 5974,
      "1983": 5975,
      "Ġpsych": 5976,
      "Mar": 5977,
      "ĠKar": 5978,
      "Ġexchange": 5979,
      "Ġtrained": 5980,
      "stra": 5981,
      "Ġcoefficients": 5982,
      "remark": 5983,
      "Ġbgcolor": 5984,
      "Ġresearc": 5985,
      "Ġcert": 5986,
      "ogene": 5987,
      "print": 5988,
      "Ġproved": 5989,
      "itors": 5990,
      "asi": 5991,
      "osh": 5992,
      "airman": 5993,
      "ĠUp": 5994,
      "Ġachieved": 5995,
      "Ġincorpor": 5996,
      "Ġbusinesses": 5997,
      "Ġfundamental": 5998,
      "ĠIS": 5999,
      "ĠSenate": 6000,
      "iling": 6001,
      "ĠLiber": 6002,
      "ĠSecurity": 6003,
      "Ġdenotes": 6004,
      "Ġangle": 6005,
      "\\|_{": 6006,
      "Ġreform": 6007,
      "Ġindepend": 6008,
      "ĠSu": 6009,
      "Ġeditor": 6010,
      "Ġforced": 6011,
      "Ġchallenges": 6012,
      "Ġfinding": 6013,
      "nership": 6014,
      "inate": 6015,
      "spec": 6016,
      "hens": 6017,
      "Ġstable": 6018,
      "Ġweb": 6019,
      "kins": 6020,
      "Ġconstructed": 6021,
      "message": 6022,
      "Ġflat": 6023,
      "ĠJes": 6024,
      "ĠDu": 6025,
      "Ġsurvey": 6026,
      "ĠHel": 6027,
      "hom": 6028,
      "Ġcorn": 6029,
      "Ġmut": 6030,
      "Ġcop": 6031,
      "Ġamplit": 6032,
      "Ġbranch": 6033,
      "diff": 6034,
      "ĠCivil": 6035,
      "CE": 6036,
      "ĠFestival": 6037,
      "km": 6038,
      "Ġoffered": 6039,
      "1950": 6040,
      "Ġvoice": 6041,
      "150": 6042,
      "}^*": 6043,
      "Ġtoward": 6044,
      "ĠMany": 6045,
      "\\_": 6046,
      "osure": 6047,
      "Ġhusband": 6048,
      "Ġshowing": 6049,
      "Ġmanager": 6050,
      "Ġcontinues": 6051,
      "Ġmaster": 6052,
      "emporary": 6053,
      "ĠMil": 6054,
      "link": 6055,
      "ĠBr": 6056,
      "ĠTop": 6057,
      "Ġbudget": 6058,
      "LA": 6059,
      "stack": 6060,
      "Ġbottom": 6061,
      "Ġcommission": 6062,
      "ĠĠĠĠĠĠĠĠĠĠ": 6063,
      "mc": 6064,
      "while": 6065,
      ")^{-": 6066,
      "Ġsubstant": 6067,
      "Ġ()": 6068,
      "Ġvacc": 6069,
      "wa": 6070,
      "Ġolder": 6071,
      "Ġlattice": 6072,
      "icon": 6073,
      "Ġmachine": 6074,
      "ski": 6075,
      "Ġunf": 6076,
      "Ġdecades": 6077,
      "}}^": 6078,
      "$).": 6079,
      "Car": 6080,
      "Ġinvestigation": 6081,
      "Ġvac": 6082,
      "Ġpowerful": 6083,
      "Ġconsult": 6084,
      "Trans": 6085,
      "imeq": 6086,
      "Ġoption": 6087,
      "ĠAff": 6088,
      "yan": 6089,
      "Ġawarded": 6090,
      "According": 6091,
      "Ġtheore": 6092,
      "Ġterrit": 6093,
      "Ġdetailed": 6094,
      "acific": 6095,
      "0000": 6096,
      "Ġapart": 6097,
      "cript": 6098,
      "simeq": 6099,
      "Ġbehavi": 6100,
      "Ġvs": 6101,
      "Ġassumed": 6102,
      "icity": 6103,
      "Ġlabor": 6104,
      "ĠGood": 6105,
      "1982": 6106,
      "Ġcorrelation": 6107,
      "zero": 6108,
      "Ġsyn": 6109,
      "Ġbattle": 6110,
      "oding": 6111,
      "oviet": 6112,
      "Ġencoura": 6113,
      "ĠJim": 6114,
      "Ġpoll": 6115,
      "rep": 6116,
      "Ġmassive": 6117,
      "ĠSil": 6118,
      "Ġhear": 6119,
      "ĠNetwork": 6120,
      "ald": 6121,
      "ias": 6122,
      "iverse": 6123,
      "met": 6124,
      "urban": 6125,
      "Ġwa": 6126,
      "ilib": 6127,
      "Ġjobs": 6128,
      ")}{\\": 6129,
      "ĠJohnson": 6130,
      "ĠRail": 6131,
      "ĠJo": 6132,
      "Ġslightly": 6133,
      "stream": 6134,
      "Ġthreshold": 6135,
      "Ġexplained": 6136,
      "ĠScot": 6137,
      "Ġcurves": 6138,
      "Ġ$-": 6139,
      "ĠLee": 6140,
      "Ġspeech": 6141,
      "ĠLove": 6142,
      "Ġstock": 6143,
      "rates": 6144,
      "resh": 6145,
      "Ġconducted": 6146,
      "Ġperspect": 6147,
      "onav": 6148,
      "PT": 6149,
      "Ġaircraft": 6150,
      "Ġenvironmental": 6151,
      "ican": 6152,
      "fe": 6153,
      "ĠCD": 6154,
      "Ġhousehold": 6155,
      "];": 6156,
      "ulf": 6157,
      "Class": 6158,
      "Ġreality": 6159,
      "Ġresidents": 6160,
      "Ġrare": 6161,
      "greg": 6162,
      "iana": 6163,
      "illa": 6164,
      "Ġoptions": 6165,
      "idel": 6166,
      "Ġmusical": 6167,
      "ĠSupreme": 6168,
      "Ġplanning": 6169,
      "Ġreduction": 6170,
      "ĠIII": 6171,
      "Form": 6172,
      "ĠMiddle": 6173,
      "ĠBritain": 6174,
      "ĠColumb": 6175,
      "Ð°": 6176,
      "ĠBob": 6177,
      "ĠBecause": 6178,
      "ĠLu": 6179,
      "Ġvary": 6180,
      "ĠAN": 6181,
      "Theorem": 6182,
      "Ġsections": 6183,
      "iful": 6184,
      "=-": 6185,
      "Ġpoly": 6186,
      "Ġsport": 6187,
      "Ġ~": 6188,
      "Ġagree": 6189,
      "bullet": 6190,
      "Ġhands": 6191,
      "rium": 6192,
      "($": 6193,
      "Ġconsidering": 6194,
      "Ð¾": 6195,
      "Ġcloud": 6196,
      "ĠCorpor": 6197,
      "ĠSol": 6198,
      "Ġsn": 6199,
      "Ġstore": 6200,
      "Ġthick": 6201,
      "Ġspatial": 6202,
      "claim": 6203,
      "Can": 6204,
      "ĠInf": 6205,
      "Ġcontained": 6206,
      "Ġcrisis": 6207,
      "Ġpure": 6208,
      "Ġfocused": 6209,
      "rot": 6210,
      "ipl": 6211,
      "eli": 6212,
      "Ġobserve": 6213,
      "Supp": 6214,
      ")\\\\": 6215,
      "va": 6216,
      "sect": 6217,
      "Ġhappened": 6218,
      "Ġfeatured": 6219,
      "ĠLord": 6220,
      "Ġinstitutions": 6221,
      "Ġcreating": 6222,
      "oston": 6223,
      "Ġperhaps": 6224,
      "raq": 6225,
      "allery": 6226,
      "Ġlaunched": 6227,
      "low": 6228,
      "Ġstrongly": 6229,
      "unch": 6230,
      "1979": 6231,
      "})$.": 6232,
      "enses": 6233,
      "pol": 6234,
      "Ġori": 6235,
      "viation": 6236,
      "ĠLie": 6237,
      "TV": 6238,
      "ĠTer": 6239,
      "Ġinteractions": 6240,
      "They": 6241,
      "erred": 6242,
      "Ġquad": 6243,
      "Ġnewsp": 6244,
      "Ġchance": 6245,
      "$$\\": 6246,
      "Ġcycle": 6247,
      "ĠYour": 6248,
      "ishop": 6249,
      "Ġassert": 6250,
      "ersion": 6251,
      "Ġpairs": 6252,
      "Ġreconst": 6253,
      "ĠMos": 6254,
      "poss": 6255,
      "ĠTre": 6256,
      "istical": 6257,
      "Thus": 6258,
      "ĠSpe": 6259,
      "Ġcentre": 6260,
      "Ġpolitics": 6261,
      "ĠMuslim": 6262,
      "Ġtrend": 6263,
      "syl": 6264,
      "Ġadopted": 6265,
      "Ġcontaining": 6266,
      "Ġgenerate": 6267,
      "MM": 6268,
      "case": 6269,
      "Ġpull": 6270,
      "ĠFace": 6271,
      "ĠJoseph": 6272,
      "dx": 6273,
      "Ġfans": 6274,
      "ĠAwards": 6275,
      "Ġmunic": 6276,
      "amely": 6277,
      "Ġdestroy": 6278,
      "Eng": 6279,
      "ernel": 6280,
      "Ġring": 6281,
      "Ġinner": 6282,
      "iano": 6283,
      "Ġmerg": 6284,
      "bin": 6285,
      "Ear": 6286,
      "Ġonto": 6287,
      "Ġweap": 6288,
      "1981": 6289,
      "ĠLong": 6290,
      "Ġhappen": 6291,
      "Ġdeveloping": 6292,
      "ĠOld": 6293,
      "Ġscatter": 6294,
      "Ġwinning": 6295,
      "Sy": 6296,
      "Ġhuge": 6297,
      "Ġcomputed": 6298,
      "gypt": 6299,
      "abil": 6300,
      "ĠOpen": 6301,
      "ĠProfessor": 6302,
      "ansas": 6303,
      "ella": 6304,
      "Ġproport": 6305,
      "udes": 6306,
      "cho": 6307,
      "Ġcool": 6308,
      "Ġterror": 6309,
      "Ġoperating": 6310,
      "akistan": 6311,
      "Rep": 6312,
      "Ġrecommend": 6313,
      "Ġlatest": 6314,
      "PP": 6315,
      "Ġdrive": 6316,
      "uries": 6317,
      "Ġutil": 6318,
      "ĠSunday": 6319,
      "Ġinterests": 6320,
      "Ġtasks": 6321,
      "ĠOrder": 6322,
      "Ġcovered": 6323,
      "Ġstations": 6324,
      "atically": 6325,
      "Ġhydro": 6326,
      "Ġemphas": 6327,
      "Ġagency": 6328,
      "ĠCa": 6329,
      "Ġthrow": 6330,
      "Ġstellar": 6331,
      ")$-": 6332,
      "Ġcrime": 6333,
      "Cons": 6334,
      "Ġexpert": 6335,
      "ĠKn": 6336,
      "$^{-": 6337,
      "Ġclean": 6338,
      "utch": 6339,
      "ĠCentre": 6340,
      "Ġtechnical": 6341,
      "Ġparallel": 6342,
      "////": 6343,
      "onavirus": 6344,
      "ĠSummer": 6345,
      "kl": 6346,
      "rect": 6347,
      "Ġvehicle": 6348,
      "then": 6349,
      "lease": 6350,
      "ĠOnt": 6351,
      "Ġnine": 6352,
      "Ġequip": 6353,
      "ĠFund": 6354,
      "Ġtend": 6355,
      "ĠĠĠĠĠĠĠĠĠĠĠĠĠĠĠĠĠĠĠĠĠĠĠ": 6356,
      "mapsto": 6357,
      "Ġentry": 6358,
      "seud": 6359,
      "Ġacts": 6360,
      "Further": 6361,
      "icted": 6362,
      "eller": 6363,
      "Ġapparent": 6364,
      "Bar": 6365,
      "MR": 6366,
      "----------------": 6367,
      "matrix": 6368,
      "conn": 6369,
      "inet": 6370,
      "post": 6371,
      "Ġpp": 6372,
      "Ġfear": 6373,
      "ĠEU": 6374,
      "ĠAcc": 6375,
      "Ġattacks": 6376,
      "Ġimplementation": 6377,
      "ĠBrazil": 6378,
      "Ġopportunities": 6379,
      "Ġmainly": 6380,
      "Ġreject": 6381,
      "ĠHaw": 6382,
      "Ġappeal": 6383,
      "ĠBet": 6384,
      "Ġconvergence": 6385,
      "Ġkept": 6386,
      "HS": 6387,
      "ĠCast": 6388,
      "ester": 6389,
      "ĠPolicy": 6390,
      "multi": 6391,
      "alysis": 6392,
      "ĠJones": 6393,
      "Ġjoin": 6394,
      "Ġphenomen": 6395,
      "vania": 6396,
      "Ġens": 6397,
      "Ġacademic": 6398,
      "ĠTim": 6399,
      "prob": 6400,
      "ĠHy": 6401,
      "ĠGovern": 6402,
      "graph": 6403,
      "Ġmodes": 6404,
      "Reg": 6405,
      "rical": 6406,
      "ĠMax": 6407,
      "rank": 6408,
      "ĠJul": 6409,
      "pa": 6410,
      "ĠEmp": 6411,
      "ifier": 6412,
      "Ġtransformation": 6413,
      "ĠCam": 6414,
      "ĠInformation": 6415,
      "ĠCommunity": 6416,
      "cean": 6417,
      "iro": 6418,
      "Ġwood": 6419,
      "ashion": 6420,
      "Ġcosm": 6421,
      "Ġcompare": 6422,
      "Ġnor": 6423,
      "Ġtensor": 6424,
      "Ġerrors": 6425,
      "Ġscientific": 6426,
      "inv": 6427,
      "SU": 6428,
      "ĠSwed": 6429,
      "Ġtourn": 6430,
      "ĠBoth": 6431,
      "Ġimplic": 6432,
      "Ġopinion": 6433,
      "Ġpicture": 6434,
      "Ġsemi": 6435,
      "orage": 6436,
      "Ġleaving": 6437,
      "Ġmorph": 6438,
      "Ġ=\\": 6439,
      "Ġchemical": 6440,
      "ecutive": 6441,
      "icks": 6442,
      "Ġscalar": 6443,
      "bed": 6444,
      "Ġprinciple": 6445,
      "Ġabsor": 6446,
      "Ġarbitrary": 6447,
      "Ġstrict": 6448,
      "ĠData": 6449,
      "Ġremoved": 6450,
      "Ġarticles": 6451,
      "isters": 6452,
      "care": 6453,
      "ĠGaussian": 6454,
      "ĠCre": 6455,
      "Ġadvantage": 6456,
      "Ġpretty": 6457,
      "Ġsingular": 6458,
      "Ġlab": 6459,
      "ĠStep": 6460,
      "inner": 6461,
      "Ġaffected": 6462,
      "tag": 6463,
      "Ġmanner": 6464,
      "aters": 6465,
      "gency": 6466,
      "tik": 6467,
      "ĠValley": 6468,
      "ĠFriday": 6469,
      "dim": 6470,
      "ĠLy": 6471,
      "Ġunknown": 6472,
      "Ġtried": 6473,
      "rass": 6474,
      "oken": 6475,
      "Ġfunds": 6476,
      "Ġcoast": 6477,
      "Ġmotiv": 6478,
      "SI": 6479,
      "ĠTHE": 6480,
      "Ġconference": 6481,
      "NR": 6482,
      "Ġadvoc": 6483,
      "aylor": 6484,
      "ĠSpace": 6485,
      "Ġdependence": 6486,
      "iate": 6487,
      "Ġtun": 6488,
      "Ġsym": 6489,
      "Ġdevice": 6490,
      "Ġmeasurement": 6491,
      "Ġneighborhood": 6492,
      "forcement": 6493,
      "Ġfacilities": 6494,
      "Ġsea": 6495,
      "Ġdistributed": 6496,
      "proposition": 6497,
      "comple": 6498,
      "ĠDou": 6499,
      "){": 6500,
      "ato": 6501,
      "oving": 6502,
      "ĠâĢ¦": 6503,
      "ĠMond": 6504,
      "Ġfix": 6505,
      "1978": 6506,
      "1976": 6507,
      "izer": 6508,
      "Ġtypical": 6509,
      "Ġbus": 6510,
      "column": 6511,
      "Ġmarriage": 6512,
      "ĠPlay": 6513,
      "Ġyields": 6514,
      "}%": 6515,
      "fort": 6516,
      "asy": 6517,
      "Ġcredit": 6518,
      "Ġindeed": 6519,
      "Ġjustice": 6520,
      "Ġappearance": 6521,
      "Ġspectra": 6522,
      "Ġsqu": 6523,
      "Ġsegment": 6524,
      "Ġdivision": 6525,
      "Ġsymmetric": 6526,
      "Ġ$$": 6527,
      "usal": 6528,
      "Ġdistingu": 6529,
      "rive": 6530,
      "eler": 6531,
      "Ġideal": 6532,
      "Ġstudio": 6533,
      "aturday": 6534,
      "Ġsinger": 6535,
      "120": 6536,
      "ĠFootball": 6537,
      "rons": 6538,
      "Ġhypot": 6539,
      "Ġsplit": 6540,
      "ĠIrish": 6541,
      "FA": 6542,
      "iden": 6543,
      "}}^{": 6544,
      "aren": 6545,
      "Ã¤": 6546,
      "ĠSpr": 6547,
      "itage": 6548,
      "unct": 6549,
      "ĠOrgan": 6550,
      "ĠGlobal": 6551,
      "elli": 6552,
      "){\\": 6553,
      "oder": 6554,
      "rieved": 6555,
      "ĠHome": 6556,
      "Ġpolynomial": 6557,
      "ĠJac": 6558,
      "Ġmatrices": 6559,
      "ĠGal": 6560,
      "Ġresist": 6561,
      "Ġactor": 6562,
      "uilding": 6563,
      "ĠHa": 6564,
      "ĠSpain": 6565,
      "ĠSpecial": 6566,
      "ĠElect": 6567,
      "Ġexternal": 6568,
      "Ġran": 6569,
      "odot": 6570,
      "ixt": 6571,
      "Ġdepth": 6572,
      "ĠParliament": 6573,
      "Ġconflict": 6574,
      "ifications": 6575,
      "Ġbelieved": 6576,
      "Ġodd": 6577,
      "'(": 6578,
      "rating": 6579,
      "ĠMedical": 6580,
      "pton": 6581,
      "Ġwild": 6582,
      "Ġstandards": 6583,
      "ifies": 6584,
      "odies": 6585,
      "sch": 6586,
      "Ġthinking": 6587,
      "perty": 6588,
      "Ġlimits": 6589,
      "Ġrough": 6590,
      "CP": 6591,
      "Ġattend": 6592,
      "ĠBas": 6593,
      "weight": 6594,
      "omorphic": 6595,
      "1972": 6596,
      "During": 6597,
      "Ġexception": 6598,
      "Ġdiscovered": 6599,
      "ĠMur": 6600,
      "Ġbroadcast": 6601,
      "Ġcomments": 6602,
      "chang": 6603,
      "ĠIraq": 6604,
      "Ġfailure": 6605,
      "Ġcertainly": 6606,
      "Ġlies": 6607,
      "Ġremember": 6608,
      "iples": 6609,
      "sylvania": 6610,
      "Ġmeant": 6611,
      "ĠIss": 6612,
      "tikz": 6613,
      "Ġcomputation": 6614,
      "tri": 6615,
      "ĠEnd": 6616,
      "Ġelim": 6617,
      "Ġsatisfy": 6618,
      "Ġwriters": 6619,
      "pat": 6620,
      "ographic": 6621,
      "Ġintended": 6622,
      "\\{\\": 6623,
      "ĠHot": 6624,
      "ĠFinally": 6625,
      "Ġconclude": 6626,
      "inding": 6627,
      "Next": 6628,
      "imately": 6629,
      "Ġinvariant": 6630,
      "endment": 6631,
      "Ġindicates": 6632,
      "1977": 6633,
      "Ġevaluation": 6634,
      "Ġregional": 6635,
      "Ġprofessor": 6636,
      "Ġclaimed": 6637,
      ".~(\\": 6638,
      "Hz": 6639,
      "Ġassign": 6640,
      "px": 6641,
      "ML": 6642,
      "height": 6643,
      "Ġack": 6644,
      "Ġvoc": 6645,
      "ĠMedia": 6646,
      "ĠHig": 6647,
      "arden": 6648,
      "Ġinitially": 6649,
      "Ġking": 6650,
      "Ġdegrees": 6651,
      "Ġskills": 6652,
      "}{(": 6653,
      "ieves": 6654,
      "Ġentered": 6655,
      "Ġdecisions": 6656,
      "Ġobservation": 6657,
      "ĠConn": 6658,
      "ĠLibrary": 6659,
      "1974": 6660,
      "Ġsafe": 6661,
      "SR": 6662,
      "ĠStudies": 6663,
      "Ġdaily": 6664,
      "ĠEvery": 6665,
      "Ġgap": 6666,
      "Ġnet": 6667,
      "Ġhorizon": 6668,
      "Ġasympt": 6669,
      "/>": 6670,
      "Ġdoll": 6671,
      "Ġtouch": 6672,
      "Other": 6673,
      "ko": 6674,
      "ockey": 6675,
      "ĠWay": 6676,
      "Ġdiscrim": 6677,
      "Ġbuy": 6678,
      "ĠDemocratic": 6679,
      "ĠJeff": 6680,
      "$;": 6681,
      "displaystyle": 6682,
      "ounds": 6683,
      "Ġacting": 6684,
      "ao": 6685,
      "wan": 6686,
      "Of": 6687,
      "ĠKh": 6688,
      "1975": 6689,
      "Per": 6690,
      "ĠTour": 6691,
      "Ġwidely": 6692,
      "mage": 6693,
      ")},": 6694,
      "ĠLi": 6695,
      "tic": 6696,
      "Ġteaching": 6697,
      "mond": 6698,
      "Ġuncertainty": 6699,
      "tail": 6700,
      "ĠVer": 6701,
      "ĠObama": 6702,
      "Ġviews": 6703,
      "Ġindicate": 6704,
      "mma": 6705,
      "Ġroll": 6706,
      "rations": 6707,
      "ĠNorthern": 6708,
      "Ġwall": 6709,
      "Ġcov": 6710,
      "Ġefficiency": 6711,
      "Ġforest": 6712,
      "Ġconfiguration": 6713,
      "herent": 6714,
      "ervative": 6715,
      "Ġcrow": 6716,
      "shire": 6717,
      "unte": 6718,
      "Ġdisapp": 6719,
      "Ġisland": 6720,
      "ĠNavy": 6721,
      "break": 6722,
      "Ġsched": 6723,
      "eless": 6724,
      "ĠMichigan": 6725,
      "Ġast": 6726,
      "utation": 6727,
      "}&": 6728,
      "ĠFrancisco": 6729,
      "Ġcounty": 6730,
      "ĠEgypt": 6731,
      "values": 6732,
      "ĠExp": 6733,
      "rastructure": 6734,
      "Ġorders": 6735,
      "Ġaudience": 6736,
      "ĠAut": 6737,
      "Ġpages": 6738,
      "?âĢĿ": 6739,
      "eness": 6740,
      "Ġorb": 6741,
      "ĠOlympics": 6742,
      "Pre": 6743,
      "GC": 6744,
      "Ġtor": 6745,
      "alog": 6746,
      "ilibrium": 6747,
      "ĠSk": 6748,
      "Ġedition": 6749,
      "Ġcolle": 6750,
      "ĠHon": 6751,
      "EL": 6752,
      "Ġiter": 6753,
      "Me": 6754,
      "cref": 6755,
      "Ġcandidates": 6756,
      "ora": 6757,
      "Ġcalls": 6758,
      "Ġyouth": 6759,
      "Ġmorning": 6760,
      "Ġsupply": 6761,
      "Ġsuggested": 6762,
      "Ġconcerns": 6763,
      "fully": 6764,
      "ĠBoston": 6765,
      "inst": 6766,
      "\\\"": 6767,
      "ĠFort": 6768,
      "ĠWall": 6769,
      "Ġattended": 6770,
      "Ġconfirmed": 6771,
      "ĠSoviet": 6772,
      "========": 6773,
      "Ġauthorities": 6774,
      "iveness": 6775,
      "ĠDet": 6776,
      "1973": 6777,
      "Ġwitness": 6778,
      "atus": 6779,
      "ĠSouthern": 6780,
      "onential": 6781,
      "ĠFurthermore": 6782,
      "Ġspecifically": 6783,
      "Ġrang": 6784,
      "Out": 6785,
      "ĠPolit": 6786,
      "Ġdedicated": 6787,
      "ĠConference": 6788,
      ".$": 6789,
      "mosp": 6790,
      "otted": 6791,
      "Ġpil": 6792,
      "Ġsuggests": 6793,
      "gar": 6794,
      "Ġagreed": 6795,
      "uan": 6796,
      "Ġprocessing": 6797,
      "OM": 6798,
      "ĠFamily": 6799,
      "Ġ&=&": 6800,
      "Ġpoet": 6801,
      "ĠCare": 6802,
      "ĠOF": 6803,
      "Ġequipment": 6804,
      "Ġmixed": 6805,
      "Ġdanger": 6806,
      "Ġstress": 6807,
      "ĠAv": 6808,
      "ĠPM": 6809,
      "Ġrevealed": 6810,
      "Ġcommittee": 6811,
      "|_{": 6812,
      "ĠKorea": 6813,
      "Ġserving": 6814,
      "ĠDom": 6815,
      "1968": 6816,
      "Ġsomew": 6817,
      "flow": 6818,
      "Am": 6819,
      "Ðµ": 6820,
      "ĠOntario": 6821,
      "Ġlayers": 6822,
      "ipped": 6823,
      "Ġplanet": 6824,
      "nb": 6825,
      "}{|": 6826,
      "$(": 6827,
      "ĠShow": 6828,
      "Ġ;": 6829,
      "Ġowned": 6830,
      "ĠCy": 6831,
      "Ġoptimization": 6832,
      "ader": 6833,
      "Ġbasket": 6834,
      "blue": 6835,
      "Ġdocuments": 6836,
      "ĠJoe": 6837,
      "Ġthousands": 6838,
      "Ġdefense": 6839,
      "annels": 6840,
      "Ġcircumst": 6841,
      "empl": 6842,
      "Ġdisk": 6843,
      "inals": 6844,
      "ĠCross": 6845,
      "Ġoccurs": 6846,
      "Ġfellow": 6847,
      "Ġer": 6848,
      "Ġfigures": 6849,
      "Value": 6850,
      "Ġthank": 6851,
      "Ġstatements": 6852,
      "ĠPakistan": 6853,
      "abled": 6854,
      "Ġhousing": 6855,
      "Ġoptical": 6856,
      "ĠProt": 6857,
      "Ġmiles": 6858,
      "input": 6859,
      "Ġcreation": 6860,
      "Ġcomplexity": 6861,
      "Ġadm": 6862,
      "ĠJersey": 6863,
      "DS": 6864,
      "Ġescap": 6865,
      "Ġvectors": 6866,
      "Ġprediction": 6867,
      "ĠSar": 6868,
      "roph": 6869,
      "Ġpenal": 6870,
      "'ll": 6871,
      "Ġcharged": 6872,
      "anguages": 6873,
      "otal": 6874,
      "Ġheat": 6875,
      "Ġtools": 6876,
      "ribution": 6877,
      "ĠSuch": 6878,
      "gment": 6879,
      "Ã¨": 6880,
      "Ġordered": 6881,
      "Ġmuseum": 6882,
      "Ġextent": 6883,
      "Ġallowing": 6884,
      "RS": 6885,
      "\"><": 6886,
      "idents": 6887,
      ")+\\": 6888,
      "Ġwants": 6889,
      "ĠPennsylvania": 6890,
      "grad": 6891,
      ")_": 6892,
      "ĠSand": 6893,
      "Ġisol": 6894,
      "Ġmur": 6895,
      "Ġmental": 6896,
      "Ġmagazine": 6897,
      "Ġbelief": 6898,
      "aby": 6899,
      "contin": 6900,
      "ingly": 6901,
      "Ġadding": 6902,
      "Ġearth": 6903,
      "Ġbrain": 6904,
      "rror": 6905,
      "cong": 6906,
      "Ġwindow": 6907,
      "aded": 6908,
      "Ġmess": 6909,
      "ĠAuthor": 6910,
      "Ġlegisl": 6911,
      "ipage": 6912,
      "ĠPolice": 6913,
      "Ġowner": 6914,
      "AG": 6915,
      "ilarly": 6916,
      "Ġcalc": 6917,
      "Ġobjective": 6918,
      "she": 6919,
      "ĠLin": 6920,
      "minipage": 6921,
      "Ġemail": 6922,
      "picture": 6923,
      "Ġimproved": 6924,
      "ENT": 6925,
      "Ġgradient": 6926,
      "uous": 6927,
      "nam": 6928,
      "rie": 6929,
      "ĠBu": 6930,
      "Ġpartner": 6931,
      "Ġstatistics": 6932,
      "Ġbinary": 6933,
      "hetic": 6934,
      "ĠTeam": 6935,
      "Ġinterval": 6936,
      "Ġdelay": 6937,
      "ĠWilliams": 6938,
      "Ġgalaxy": 6939,
      "Ġtraffic": 6940,
      "Ġsto": 6941,
      "Ġlargely": 6942,
      "110": 6943,
      "Ġcommitted": 6944,
      "Ġcond": 6945,
      "clusive": 6946,
      "Ġmanifold": 6947,
      "pg": 6948,
      "Ġexplore": 6949,
      "Part": 6950,
      "newcommand": 6951,
      "Film": 6952,
      "Ġalumni": 6953,
      "Ġsolve": 6954,
      "})$,": 6955,
      "ĠPacific": 6956,
      "Ġdevices": 6957,
      "Ġnegot": 6958,
      "Ġinvolve": 6959,
      "Finally": 6960,
      "Ġdepending": 6961,
      ")-\\": 6962,
      "}}$,": 6963,
      "Ġelections": 6964,
      "Ġcooper": 6965,
      "ednes": 6966,
      "Ġgrid": 6967,
      "Ġoverl": 6968,
      "ui": 6969,
      "ador": 6970,
      "heast": 6971,
      "dfrac": 6972,
      "inois": 6973,
      "=#": 6974,
      "Ġsynt": 6975,
      "Ġaspects": 6976,
      "Ġtalking": 6977,
      "ĠFed": 6978,
      "Ġextremely": 6979,
      "ĠGoogle": 6980,
      "ĠCamb": 6981,
      "Ġminimal": 6982,
      "Section": 6983,
      "host": 6984,
      "Ġperm": 6985,
      "bel": 6986,
      "ymmet": 6987,
      "Inf": 6988,
      "aug": 6989,
      "ĠLim": 6990,
      "Ġ]": 6991,
      "Ġtheoretical": 6992,
      "Ġorth": 6993,
      "ĠStand": 6994,
      "ĠFacebook": 6995,
      "End": 6996,
      "Ġagents": 6997,
      "Ġenh": 6998,
      "ĠGreek": 6999,
      ")--": 7000,
      "osis": 7001,
      "$~": 7002,
      "gener": 7003,
      "Ġcustomers": 7004,
      "icial": 7005,
      "ĠGeorgia": 7006,
      "Ġexcell": 7007,
      "Ġriver": 7008,
      "ĠLo": 7009,
      "Ġteacher": 7010,
      "kes": 7011,
      "Ġproducer": 7012,
      "Ġsolar": 7013,
      "abase": 7014,
      "adel": 7015,
      "Ġpowers": 7016,
      "Ġchanging": 7017,
      "Equ": 7018,
      "Ġarray": 7019,
      "ĠEnergy": 7020,
      "Ġpromin": 7021,
      "PE": 7022,
      "Ġprimarily": 7023,
      "weet": 7024,
      "Ġrecall": 7025,
      "Ġlaunch": 7026,
      "example": 7027,
      "ĠGet": 7028,
      "Ġadjust": 7029,
      "Ġmagnitude": 7030,
      "life": 7031,
      "ĠRepublican": 7032,
      "ĠOhio": 7033,
      "1971": 7034,
      "ads": 7035,
      "Ġcoordinates": 7036,
      "opic": 7037,
      "initely": 7038,
      "prot": 7039,
      "word": 7040,
      "\");": 7041,
      "Ġjur": 7042,
      "rust": 7043,
      "ĠAM": 7044,
      "lesssim": 7045,
      "Ġready": 7046,
      "abeth": 7047,
      "ployment": 7048,
      "Sch": 7049,
      "rc": 7050,
      "Ġmanaged": 7051,
      "Ð¸": 7052,
      "Ġreson": 7053,
      "Ġrecognized": 7054,
      "uer": 7055,
      "etts": 7056,
      "Ġtests": 7057,
      "Ġrobust": 7058,
      "Ġearned": 7059,
      "Ġitems": 7060,
      "pty": 7061,
      "ĠHor": 7062,
      "ĠCEO": 7063,
      "ĠSciences": 7064,
      "Ġmetal": 7065,
      "Ġsell": 7066,
      "olve": 7067,
      "Ġice": 7068,
      "Ġpossibility": 7069,
      "1000": 7070,
      "ĠCharl": 7071,
      "Ġwonder": 7072,
      "Ġbond": 7073,
      "Ġfiled": 7074,
      "Ġ/**": 7075,
      "ĠJr": 7076,
      "\\\\\\\\\\\\\\\\\\\\\\\\\\\\\\\\\\\\\\\\\\\\\\\\\\\\\\\\\\\\\\\\": 7077,
      "icip": 7078,
      "ograp": 7079,
      "verted": 7080,
      "Ġdriving": 7081,
      "Ġvictory": 7082,
      "}}$.": 7083,
      "Ġcomplic": 7084,
      "ĠAssembly": 7085,
      "ĠConst": 7086,
      "ĠMen": 7087,
      "local": 7088,
      "Ġvision": 7089,
      "escription": 7090,
      "water": 7091,
      "1969": 7092,
      "Do": 7093,
      "Ġtechnique": 7094,
      "Ġcycl": 7095,
      "such": 7096,
      "Ġscenario": 7097,
      "Ġexerc": 7098,
      "ĠInvest": 7099,
      "eces": 7100,
      "Table": 7101,
      "cular": 7102,
      "called": 7103,
      "Ġbiggest": 7104,
      "scill": 7105,
      "ĠSaturday": 7106,
      "Ġnorthern": 7107,
      "zer": 7108,
      "Ġpartnership": 7109,
      "Some": 7110,
      "rics": 7111,
      "ĠQueen": 7112,
      "Ġresearchers": 7113,
      "Ġfeet": 7114,
      "rison": 7115,
      "Ġnotes": 7116,
      "ĠUk": 7117,
      "ĠFar": 7118,
      "Ġorg": 7119,
      "Ġpursu": 7120,
      "adium": 7121,
      "}$)": 7122,
      "sen": 7123,
      "ursday": 7124,
      "Ġinvolving": 7125,
      "Fe": 7126,
      "even": 7127,
      "CL": 7128,
      "ĠExecutive": 7129,
      "Ġinterf": 7130,
      "'}": 7131,
      "SM": 7132,
      "ounsel": 7133,
      "Ġcolon": 7134,
      "ĠEp": 7135,
      "Ġfunctional": 7136,
      "Ġdiagn": 7137,
      "Ġaccepted": 7138,
      "Ġlegislation": 7139,
      "Ġpm": 7140,
      "Ġupdate": 7141,
      "ĠEll": 7142,
      "ĠBern": 7143,
      "Ġdifferential": 7144,
      "ĠKong": 7145,
      "ĠGre": 7146,
      "Ġarmy": 7147,
      "Ġanalog": 7148,
      "Ġsouthern": 7149,
      "ednesday": 7150,
      "Ġprincipal": 7151,
      "\"/>": 7152,
      "Ġwel": 7153,
      "eries": 7154,
      "Ġhearing": 7155,
      "ĠVan": 7156,
      "Ġkids": 7157,
      "Ġinstitution": 7158,
      "Mr": 7159,
      "xford": 7160,
      "uing": 7161,
      "1967": 7162,
      "Ġboy": 7163,
      "Ġmodule": 7164,
      "Ġsides": 7165,
      "hbar": 7166,
      "Ġcoverage": 7167,
      "Ġpatient": 7168,
      "ĠGar": 7169,
      "Ġnar": 7170,
      "ĠMonday": 7171,
      "ĠColl": 7172,
      "bury": 7173,
      "Ġdraft": 7174,
      "Ġdog": 7175,
      "Ġpush": 7176,
      "after": 7177,
      "ĠAsian": 7178,
      "ĠFred": 7179,
      "ĠRam": 7180,
      "Ġadvert": 7181,
      "Ġperspective": 7182,
      "))$": 7183,
      "ĠHamiltonian": 7184,
      "ifts": 7185,
      "Ġstreet": 7186,
      "Ġpractices": 7187,
      "ĠBow": 7188,
      "Ġretain": 7189,
      "ourney": 7190,
      "Ġgrew": 7191,
      "Ġmasses": 7192,
      "ĠAndrew": 7193,
      "Introduction": 7194,
      "Ġnotation": 7195,
      "Therefore": 7196,
      "Ġlocations": 7197,
      "Ġcharges": 7198,
      "ogeneous": 7199,
      "Ġ(\"": 7200,
      "Ġsubsection": 7201,
      "ĠWater": 7202,
      "Ġdomestic": 7203,
      "achus": 7204,
      "ĠTrust": 7205,
      "onto": 7206,
      ":}": 7207,
      "Ġbasketball": 7208,
      "Ġsubt": 7209,
      "Ġunless": 7210,
      "uesday": 7211,
      "Ġadvance": 7212,
      "Ġinteger": 7213,
      "Ġconcerned": 7214,
      "ĠLab": 7215,
      "ĠJackson": 7216,
      "Ġsubs": 7217,
      "iced": 7218,
      "Ġera": 7219,
      "disc": 7220,
      "ĠVi": 7221,
      "Ġusual": 7222,
      "itivity": 7223,
      "1940": 7224,
      "Ġrich": 7225,
      "Ġprepar": 7226,
      "ught": 7227,
      "hbox": 7228,
      "gal": 7229,
      "Ġserves": 7230,
      "stract": 7231,
      "paragraph": 7232,
      "Ġdamage": 7233,
      "ĠReport": 7234,
      "Ġresource": 7235,
      "Ġdescribes": 7236,
      "osophy": 7237,
      "Ġincident": 7238,
      "ĠEngineering": 7239,
      "Ġsuperv": 7240,
      "iy": 7241,
      "ocracy": 7242,
      "ĠCr": 7243,
      "GL": 7244,
      "Time": 7245,
      "irt": 7246,
      "ĠConstitution": 7247,
      "Ġreasonable": 7248,
      "ooking": 7249,
      "Ġ${": 7250,
      "car": 7251,
      "Ġlooks": 7252,
      "Ġroot": 7253,
      "Ġinduced": 7254,
      "Ġmountain": 7255,
      ")}_{": 7256,
      "ersonal": 7257,
      "Ġtraject": 7258,
      "ervice": 7259,
      "$};": 7260,
      "Ġorganized": 7261,
      "Art": 7262,
      "CR": 7263,
      "ĠWales": 7264,
      "Ġahead": 7265,
      "ĠStan": 7266,
      "Ġfilter": 7267,
      "Ġfacility": 7268,
      "Ġoblig": 7269,
      "ĠInternet": 7270,
      "Ġcouncil": 7271,
      "ĠHospital": 7272,
      "vin": 7273,
      "Ġconstitution": 7274,
      "Ġformat": 7275,
      "Ġstability": 7276,
      "ĠPhys": 7277,
      "har": 7278,
      "Ġphysics": 7279,
      "!!": 7280,
      "Ġmedal": 7281,
      "_-": 7282,
      "energy": 7283,
      "lines": 7284,
      "ucky": 7285,
      "Ġengineering": 7286,
      "Ġpartial": 7287,
      "Cor": 7288,
      "Inter": 7289,
      "Ġroute": 7290,
      "ĠSir": 7291,
      "supp": 7292,
      "Ġsuc": 7293,
      "$),": 7294,
      "fact": 7295,
      "Ġrecognition": 7296,
      "Ġcomposition": 7297,
      "ĠPower": 7298,
      "ja": 7299,
      "Ġenerg": 7300,
      "Ġ///": 7301,
      "Ġseasons": 7302,
      "riend": 7303,
      "Ġscored": 7304,
      "TR": 7305,
      "achusetts": 7306,
      "sky": 7307,
      "HO": 7308,
      "oles": 7309,
      "Ġnative": 7310,
      "Ġwealth": 7311,
      "inton": 7312,
      "1930": 7313,
      "ĠField": 7314,
      "Ġdatasets": 7315,
      "Ġemployed": 7316,
      "Ġtournament": 7317,
      "Ġfootballers": 7318,
      "Ġbright": 7319,
      "Ġconven": 7320,
      "\";": 7321,
      "rehens": 7322,
      "Ġoscill": 7323,
      "Ġwhereas": 7324,
      "Ġsle": 7325,
      "ĠMu": 7326,
      "Ġbeam": 7327,
      "ĠWind": 7328,
      "Ġ$|\\": 7329,
      "oned": 7330,
      "ighter": 7331,
      "Ġnucle": 7332,
      "orrow": 7333,
      "ampion": 7334,
      "oir": 7335,
      "Ġmarked": 7336,
      "Ġnecessarily": 7337,
      "ĠEmpire": 7338,
      "Ġextend": 7339,
      "Although": 7340,
      "ĠEnter": 7341,
      "Ġfort": 7342,
      "ATE": 7343,
      "Ġestate": 7344,
      "Ġdeliver": 7345,
      "bal": 7346,
      "ova": 7347,
      "ĠWho": 7348,
      "((": 7349,
      "Ġshock": 7350,
      "ĠUsing": 7351,
      "ĠIllinois": 7352,
      "ĠFour": 7353,
      "ĠSet": 7354,
      "Test": 7355,
      "Ġjudge": 7356,
      "page": 7357,
      "Ġactress": 7358,
      "ati": 7359,
      "ĠIndeed": 7360,
      "ĠMinistry": 7361,
      "ĠAdministration": 7362,
      "Ġindustrial": 7363,
      "Ġsupporting": 7364,
      "Ġthermal": 7365,
      "pack": 7366,
      "ĠLine": 7367,
      "clusions": 7368,
      "Ġlum": 7369,
      "Rel": 7370,
      "Ġgraphs": 7371,
      "erior": 7372,
      "ĠRepresent": 7373,
      "idential": 7374,
      "undle": 7375,
      "1945": 7376,
      "cd": 7377,
      "Ġmatches": 7378,
      "inson": 7379,
      "Ġbin": 7380,
      "Ġfloor": 7381,
      "Ġcoal": 7382,
      "Ġbalance": 7383,
      "bas": 7384,
      "Ġperforming": 7385,
      "FR": 7386,
      "Ġscattering": 7387,
      "eaking": 7388,
      "\":": 7389,
      "Ġcreat": 7390,
      "aser": 7391,
      "BI": 7392,
      "Ġapproved": 7393,
      "olid": 7394,
      "Ġtreated": 7395,
      "Ġunderlying": 7396,
      "Ġhole": 7397,
      "Ġapplying": 7398,
      "Ġpi": 7399,
      "Ġresponsibility": 7400,
      "Ġprime": 7401,
      "250": 7402,
      "Ġspecified": 7403,
      "aver": 7404,
      "Ġrecording": 7405,
      "stone": 7406,
      "dule": 7407,
      "Ġchannels": 7408,
      "Ġancient": 7409,
      "Ġhour": 7410,
      "Ġrestaur": 7411,
      "orship": 7412,
      "1964": 7413,
      "Ġbounds": 7414,
      "Ġhab": 7415,
      "Ġnone": 7416,
      "ĠRay": 7417,
      "Ġdial": 7418,
      "ĠBra": 7419,
      "awa": 7420,
      "cccc": 7421,
      "Ġaccurate": 7422,
      "ĠCirc": 7423,
      "othing": 7424,
      "floor": 7425,
      "Ġaxis": 7426,
      "emb": 7427,
      "Ġspot": 7428,
      "summary": 7429,
      "Ġentertain": 7430,
      "yself": 7431,
      "ĠLatin": 7432,
      "Ġassigned": 7433,
      "ĠTheatre": 7434,
      "Ġmedium": 7435,
      "Ġfle": 7436,
      "inating": 7437,
      "ĠPalest": 7438,
      "Ġhonor": 7439,
      "Ġroles": 7440,
      "NS": 7441,
      "zen": 7442,
      "ĠCarl": 7443,
      "Ġintegration": 7444,
      "ĠGr": 7445,
      "Ġperman": 7446,
      "Ġvehicles": 7447,
      "ĠNig": 7448,
      "Ġcollected": 7449,
      "Ġbands": 7450,
      "Ġdream": 7451,
      "Ġpersons": 7452,
      "OC": 7453,
      "burgh": 7454,
      "ĠNations": 7455,
      "Ġrul": 7456,
      "arks": 7457,
      "Ġexperiences": 7458,
      "avel": 7459,
      "Ġminister": 7460,
      "ĠPrem": 7461,
      "~~~~": 7462,
      "aught": 7463,
      "Ġlit": 7464,
      "Ġatmosp": 7465,
      "Ġscholar": 7466,
      "uster": 7467,
      "ga": 7468,
      "Ġimplemented": 7469,
      "ĠJon": 7470,
      "oses": 7471,
      "Ġdivided": 7472,
      "Ġevaluate": 7473,
      "Ġawards": 7474,
      "Ġmaxim": 7475,
      "ĠMaster": 7476,
      "translation": 7477,
      "rapy": 7478,
      "ĠColumbia": 7479,
      "ĠTri": 7480,
      "Ġlie": 7481,
      "tan": 7482,
      "ĠIndust": 7483,
      "Ġstarts": 7484,
      "LC": 7485,
      "Ġ?": 7486,
      "Ġanimals": 7487,
      "ĠEastern": 7488,
      "Ġrepeated": 7489,
      "Ġconfidence": 7490,
      "Ġexplo": 7491,
      "Ġsister": 7492,
      "ologist": 7493,
      "ronic": 7494,
      "ali": 7495,
      "Ġspl": 7496,
      "public": 7497,
      "ĠJun": 7498,
      "atever": 7499,
      "Ġbeautiful": 7500,
      "ĠRadio": 7501,
      "Ġleaves": 7502,
      "anche": 7503,
      "ortunately": 7504,
      "Ġsucceed": 7505,
      "ĠKenn": 7506,
      "Ġcauses": 7507,
      "iary": 7508,
      "ĠScotland": 7509,
      "ĠPhilipp": 7510,
      "nings": 7511,
      "ĠBlue": 7512,
      "Ġurban": 7513,
      "Ġalleged": 7514,
      "ĠNY": 7515,
      "amber": 7516,
      "1965": 7517,
      "izabeth": 7518,
      "Ġestimation": 7519,
      "Ġblog": 7520,
      "Ġprofession": 7521,
      "Key": 7522,
      "Ġsan": 7523,
      "ĠMike": 7524,
      "Ġdimensions": 7525,
      "Ġsatisfying": 7526,
      "ective": 7527,
      "ĠId": 7528,
      "Ġdecomposition": 7529,
      "``": 7530,
      "Ġelectronic": 7531,
      "ses": 7532,
      "Ġgender": 7533,
      "Ġconvex": 7534,
      "ĠWilson": 7535,
      "ĠCoast": 7536,
      "Ġreligion": 7537,
      "Ġrelationships": 7538,
      "MT": 7539,
      "scape": 7540,
      "ĠEr": 7541,
      "Ġchampionship": 7542,
      "Ġturns": 7543,
      "Ġmodified": 7544,
      "ĠCommon": 7545,
      "Ġhomes": 7546,
      "Ġrepresentative": 7547,
      "lt": 7548,
      "Ġrecip": 7549,
      "conf": 7550,
      "Ġoccurred": 7551,
      "]{\\": 7552,
      "okes": 7553,
      "[(": 7554,
      "ĠDaniel": 7555,
      "system": 7556,
      "ĠMajor": 7557,
      "Ġcars": 7558,
      "Ġconj": 7559,
      "600": 7560,
      "Ġnarrow": 7561,
      "ĠKen": 7562,
      "Ġmurder": 7563,
      "Ġkernel": 7564,
      "Ġcalculations": 7565,
      "Ġinspired": 7566,
      "OP": 7567,
      "}({\\": 7568,
      "ears": 7569,
      "teen": 7570,
      "Ġconfirm": 7571,
      "Ġnamely": 7572,
      "Ġtempor": 7573,
      "Ġclosely": 7574,
      "Ġgone": 7575,
      "sur": 7576,
      "ennis": 7577,
      "Read": 7578,
      "mass": 7579,
      "Ġsav": 7580,
      "Ġhighlight": 7581,
      "Ġpartition": 7582,
      "La": 7583,
      "Ġlock": 7584,
      "ĠCorporation": 7585,
      "odd": 7586,
      "ibli": 7587,
      "Ġpix": 7588,
      "Ġhappens": 7589,
      "Ġcategories": 7590,
      "true": 7591,
      "ienced": 7592,
      "ĠHead": 7593,
      "Ġsevere": 7594,
      "eting": 7595,
      "Ġexponential": 7596,
      "Ġopposite": 7597,
      "Ġcere": 7598,
      "itzer": 7599,
      "Ġtracks": 7600,
      "ĠDisc": 7601,
      "Ġtells": 7602,
      "ĠHong": 7603,
      "Ġconsequence": 7604,
      "Ġpossibly": 7605,
      "Ġcircumstances": 7606,
      "Ġcomposed": 7607,
      "ĠMassachusetts": 7608,
      "Ġclusters": 7609,
      "Ġprotected": 7610,
      "ĠMid": 7611,
      "Ġmarkets": 7612,
      "rog": 7613,
      "ultane": 7614,
      "Ġdecade": 7615,
      "possible": 7616,
      "Ġtrees": 7617,
      "ĠTaylor": 7618,
      "ometric": 7619,
      "ĠChristmas": 7620,
      "Ġdynamic": 7621,
      "ĠMot": 7622,
      "ĠViet": 7623,
      "cisely": 7624,
      "EP": 7625,
      "ĠVis": 7626,
      "Ġemot": 7627,
      "stood": 7628,
      "zh": 7629,
      "Ġconclusion": 7630,
      "des": 7631,
      "Ġactors": 7632,
      "cks": 7633,
      "ĠOl": 7634,
      "str": 7635,
      "Ġsale": 7636,
      ")}}": 7637,
      "View": 7638,
      "Ġlemma": 7639,
      "ocument": 7640,
      "Ã³n": 7641,
      "oom": 7642,
      "ĠString": 7643,
      "Ġentirely": 7644,
      "Ġscales": 7645,
      "orders": 7646,
      "Ġphone": 7647,
      "ĠBroad": 7648,
      "Äģ": 7649,
      "ione": 7650,
      "ĠJesus": 7651,
      "MB": 7652,
      "forward": 7653,
      "igrants": 7654,
      "âĢĺ": 7655,
      "ĠPop": 7656,
      "Ġneural": 7657,
      "Ġacquired": 7658,
      "aka": 7659,
      "Ġlooked": 7660,
      "Ġarguments": 7661,
      "imb": 7662,
      "Ġassociation": 7663,
      "Ġloop": 7664,
      "Ġrotation": 7665,
      "1920": 7666,
      "Ġagric": 7667,
      "coh": 7668,
      "pass": 7669,
      "Ġsubsequent": 7670,
      "Ġpatterns": 7671,
      "Ġdrama": 7672,
      "chen": 7673,
      "first": 7674,
      "itative": 7675,
      "Ġbias": 7676,
      "ĠLag": 7677,
      "Ġstatistical": 7678,
      "Ġarrived": 7679,
      "ĠMah": 7680,
      "]$.": 7681,
      "Ġchapter": 7682,
      "Ġwestern": 7683,
      "ĠMountain": 7684,
      "Ġeffectively": 7685,
      "Ġagencies": 7686,
      "Ġdrop": 7687,
      "version": 7688,
      "Ġadvis": 7689,
      "ĠSong": 7690,
      "po": 7691,
      "Ġdenoted": 7692,
      "\\)": 7693,
      "elihood": 7694,
      "Ġinvestigate": 7695,
      "Ġcontrad": 7696,
      "Ġcompens": 7697,
      "ji": 7698,
      "Ġlanguages": 7699,
      "isd": 7700,
      "acter": 7701,
      "Ġinfrastructure": 7702,
      "ĠPriv": 7703,
      "Ġ[\\": 7704,
      "ĠColor": 7705,
      "Ġmist": 7706,
      "ĠLuc": 7707,
      "Ġmatters": 7708,
      "ĠCode": 7709,
      "brace": 7710,
      "ĠMcC": 7711,
      "Ġpredicted": 7712,
      "Ġrepresenting": 7713,
      "aintiff": 7714,
      "char": 7715,
      "asters": 7716,
      "bmatrix": 7717,
      "Ġseeing": 7718,
      "cs": 7719,
      "ĠEst": 7720,
      "inking": 7721,
      "Comm": 7722,
      "ruit": 7723,
      "Ġdefault": 7724,
      "ilation": 7725,
      "^*$": 7726,
      "arters": 7727,
      "ĠKent": 7728,
      "Ġmyself": 7729,
      "athan": 7730,
      "Ġphysic": 7731,
      "ĠAnother": 7732,
      "ĠEdward": 7733,
      "ĠAD": 7734,
      "Ġtwice": 7735,
      "jo": 7736,
      "ĠPrince": 7737,
      "Ġmonitor": 7738,
      "Ġsummar": 7739,
      "Ġvisited": 7740,
      "SL": 7741,
      "ested": 7742,
      "Ġseek": 7743,
      "Ġpolitician": 7744,
      "Ġdram": 7745,
      "soft": 7746,
      "language": 7747,
      "ĠDesign": 7748,
      "Ġbegins": 7749,
      "Ġsend": 7750,
      "Ġassumptions": 7751,
      "ĠMount": 7752,
      "Ġfinds": 7753,
      "Ġlocally": 7754,
      "Ġinject": 7755,
      "ĠAP": 7756,
      "ĠBul": 7757,
      "1966": 7758,
      "ups": 7759,
      "ictures": 7760,
      "Ġregulations": 7761,
      "Ġamplitude": 7762,
      "Ġfacts": 7763,
      "fram": 7764,
      "ĠPrime": 7765,
      "Ġsentence": 7766,
      "algorithm": 7767,
      "track": 7768,
      "Ġcalculation": 7769,
      "ĠWednesday": 7770,
      "Ġregul": 7771,
      "amin": 7772,
      "Ġsave": 7773,
      "ĠSea": 7774,
      "ĠTwitter": 7775,
      "rator": 7776,
      "Exception": 7777,
      "Att": 7778,
      "tw": 7779,
      "Ġsun": 7780,
      "Ġintelligence": 7781,
      "riate": 7782,
      "Ġprovisions": 7783,
      "Ġindicated": 7784,
      "Ġcoinc": 7785,
      "Ġexceed": 7786,
      "ĠThursday": 7787,
      "Ġintersection": 7788,
      "Ġinfinite": 7789,
      "ela": 7790,
      "Ġtit": 7791,
      "Ġ{$": 7792,
      "Back": 7793,
      "ĠDev": 7794,
      "cf": 7795,
      "two": 7796,
      "vee": 7797,
      "{{": 7798,
      "Ġcapture": 7799,
      "Ġeducational": 7800,
      "nic": 7801,
      "Ġconvent": 7802,
      "Ġplease": 7803,
      "Ġstrategies": 7804,
      "ĠDonald": 7805,
      "ĠBrook": 7806,
      ":=": 7807,
      "ĠFree": 7808,
      "ĠBol": 7809,
      "Ġprotocol": 7810,
      "arity": 7811,
      "has": 7812,
      "Ġvot": 7813,
      "Ġ\\]": 7814,
      ",\\\\": 7815,
      "Ġdiscrete": 7816,
      "Ġcoronavirus": 7817,
      "OL": 7818,
      "erves": 7819,
      "Ġvirus": 7820,
      "ĠÂ»": 7821,
      "Ġwarm": 7822,
      "Ġfluct": 7823,
      "Ġcoefficient": 7824,
      "Ġmovies": 7825,
      "Ġadvanced": 7826,
      "Ġfaculty": 7827,
      "Ġvariation": 7828,
      "Ġorbit": 7829,
      "onents": 7830,
      "May": 7831,
      "Ġhappy": 7832,
      "ogen": 7833,
      "Object": 7834,
      "&=&": 7835,
      "\\}$.": 7836,
      "ĠWeek": 7837,
      "ĠTem": 7838,
      "Ġrepresentations": 7839,
      "Ġexclud": 7840,
      "obe": 7841,
      "orough": 7842,
      "open": 7843,
      "ĠLabor": 7844,
      "]}": 7845,
      "Ġplanned": 7846,
      "Ġhero": 7847,
      "Ġgranted": 7848,
      "Ġweights": 7849,
      "ensions": 7850,
      "Ġraise": 7851,
      "irds": 7852,
      "onical": 7853,
      "lywood": 7854,
      "phia": 7855,
      "Ġenem": 7856,
      "Dr": 7857,
      "ĠTuesday": 7858,
      "Ġhelping": 7859,
      "phant": 7860,
      "Ġmathemat": 7861,
      "Ġfeat": 7862,
      "Ġpun": 7863,
      "ĠModel": 7864,
      "El": 7865,
      "ĠNight": 7866,
      "gr": 7867,
      "Ġtransmission": 7868,
      "Ġsufficiently": 7869,
      "Ġdebate": 7870,
      "ĠRa": 7871,
      "Ġequality": 7872,
      "Ġdiscover": 7873,
      "process": 7874,
      "Ġextensive": 7875,
      "ĠCard": 7876,
      "ĠPub": 7877,
      "Ġgreatest": 7878,
      "|}": 7879,
      "ĠGuard": 7880,
      "ĠBal": 7881,
      "Ġpractical": 7882,
      "idae": 7883,
      "orters": 7884,
      "Ġsuitable": 7885,
      "Ġheav": 7886,
      "Using": 7887,
      "ĠGame": 7888,
      "ĠOxford": 7889,
      "Ġshares": 7890,
      "Ġtail": 7891,
      "Ġhouses": 7892,
      "Ġexplan": 7893,
      "ĠChris": 7894,
      "Ġaccord": 7895,
      ",$": 7896,
      "ĠBattle": 7897,
      "Ġfashion": 7898,
      "arse": 7899,
      "Ġinstall": 7900,
      "pace": 7901,
      "Ġprote": 7902,
      "ĠRetrieved": 7903,
      "isl": 7904,
      "iler": 7905,
      "Ġcorporate": 7906,
      "ĠLittle": 7907,
      "}[\\": 7908,
      "Ġscaling": 7909,
      "wer": 7910,
      "Ġpseud": 7911,
      "Ġion": 7912,
      "ĠLike": 7913,
      "________": 7914,
      "ila": 7915,
      "ĠWild": 7916,
      "Ġseat": 7917,
      "Ġcharacteristic": 7918,
      "ĠGirl": 7919,
      "Ġentropy": 7920,
      "ĠDar": 7921,
      "Ġtele": 7922,
      "Ġradiation": 7923,
      "Ġcampus": 7924,
      "Ġabsolute": 7925,
      "ĠAbout": 7926,
      "Add": 7927,
      "ĠCro": 7928,
      "Ġcrew": 7929,
      "ĠGovernor": 7930,
      "Ġwish": 7931,
      "Ġsurrounding": 7932,
      "etal": 7933,
      "Ġsampling": 7934,
      "adelphia": 7935,
      ".âĢĻ": 7936,
      "Ġflag": 7937,
      "ĠAddition": 7938,
      "enger": 7939,
      "ounded": 7940,
      "Ġjump": 7941,
      "Ġends": 7942,
      "base": 7943,
      "ĠSher": 7944,
      "});": 7945,
      "Ġfan": 7946,
      "Ġprosec": 7947,
      "ĠEnvironment": 7948,
      "ĠLast": 7949,
      "Pol": 7950,
      "Ġfell": 7951,
      "|}{": 7952,
      "Ġorient": 7953,
      "perform": 7954,
      "Ġinsurance": 7955,
      "oster": 7956,
      "lik": 7957,
      "...,": 7958,
      "Ġdoctor": 7959,
      "]$,": 7960,
      "onn": 7961,
      "Ġpip": 7962,
      "Gu": 7963,
      "Ġlibrary": 7964,
      "Ġprepared": 7965,
      "cr": 7966,
      "Ġbehaviour": 7967,
      "Ġcontrovers": 7968,
      "Ġabund": 7969,
      "._": 7970,
      "Ġprovince": 7971,
      "ĠBelg": 7972,
      "Ġconcern": 7973,
      "agram": 7974,
      "ted": 7975,
      "ĠMedicine": 7976,
      "Ġrational": 7977,
      "ribed": 7978,
      "Ġcarbon": 7979,
      "Ġassistance": 7980,
      "Ġmanufacture": 7981,
      ",\\,\\": 7982,
      "ĠBell": 7983,
      "Ġdrum": 7984,
      "Ġplants": 7985,
      "](": 7986,
      "count": 7987,
      "ĠCub": 7988,
      "Ġphoto": 7989,
      "Ġflight": 7990,
      "Ġnearby": 7991,
      "Ġmere": 7992,
      "agnetic": 7993,
      "Ġille": 7994,
      "Op": 7995,
      "));": 7996,
      "Ġdebt": 7997,
      "Early": 7998,
      "Ġreturns": 7999,
      "SD": 8000,
      "Ġemployment": 8001,
      "hire": 8002,
      "ĠSports": 8003,
      "Ġstream": 8004,
      "Ġportion": 8005,
      "ĠToday": 8006,
      "VD": 8007,
      "ĠAG": 8008,
      "ĠAgain": 8009,
      "ĠHom": 8010,
      "Ġaid": 8011,
      "++": 8012,
      "ye": 8013,
      "Ġdoor": 8014,
      "ĠBack": 8015,
      "Ġcommonly": 8016,
      "Ġsecondary": 8017,
      "TH": 8018,
      "Ġabuse": 8019,
      "Ġsoldiers": 8020,
      "101": 8021,
      "Ġfra": 8022,
      "Ġclinical": 8023,
      "tfrac": 8024,
      "illy": 8025,
      "Dec": 8026,
      "Sm": 8027,
      "Ġbridge": 8028,
      "tees": 8029,
      "Ġarts": 8030,
      "800": 8031,
      "Ġtrig": 8032,
      "comes": 8033,
      "Ġbra": 8034,
      "ĠJews": 8035,
      "Ġris": 8036,
      "Ġrenew": 8037,
      "Ġapprec": 8038,
      "$:": 8039,
      "$_{": 8040,
      "results": 8041,
      "Ġangular": 8042,
      "TE": 8043,
      "}}_{\\": 8044,
      "Ġholding": 8045,
      "Ġremove": 8046,
      "Ġdesired": 8047,
      "ghan": 8048,
      "Ġbeat": 8049,
      "bigl": 8050,
      "Ġultimately": 8051,
      "Ġvirtual": 8052,
      "ĠAffairs": 8053,
      "Ġreaction": 8054,
      "Ġmobile": 8055,
      "Char": 8056,
      "Ġcaref": 8057,
      "Ġprojection": 8058,
      "Ġeyes": 8059,
      "1963": 8060,
      "Ġvolunte": 8061,
      "apse": 8062,
      "ĠWrit": 8063,
      "ĠPubl": 8064,
      "Ġexperienced": 8065,
      "ĠBrad": 8066,
      "Ġclients": 8067,
      "nn": 8068,
      "brid": 8069,
      "Ġsuccessfully": 8070,
      "Ġtranslation": 8071,
      "III": 8072,
      "Ġprecisely": 8073,
      "amm": 8074,
      "ĠDig": 8075,
      "][]{": 8076,
      "Ġintroduction": 8077,
      "Ġeye": 8078,
      "Ġgirls": 8079,
      "Ġplus": 8080,
      "Ġcash": 8081,
      "yset": 8082,
      "Ġmoments": 8083,
      "ni": 8084,
      "duate": 8085,
      "Ġpersonnel": 8086,
      "current": 8087,
      "Ġrevolution": 8088,
      "OD": 8089,
      "ctic": 8090,
      "ĠUs": 8091,
      "ĠFair": 8092,
      "ĠAny": 8093,
      "CM": 8094,
      "Ġrural": 8095,
      "Ġcoordinate": 8096,
      "Conn": 8097,
      "joint": 8098,
      "Will": 8099,
      "Ġfuel": 8100,
      "object": 8101,
      "ĠWeb": 8102,
      "anta": 8103,
      "eld": 8104,
      "Ġtheories": 8105,
      "ĠChildren": 8106,
      "ĠBase": 8107,
      "Ġparagraph": 8108,
      "white": 8109,
      "National": 8110,
      "ricket": 8111,
      "Ġdie": 8112,
      "ĠSa": 8113,
      "ĠWalk": 8114,
      "Ġliqu": 8115,
      "Ġsatisfied": 8116,
      "Ġequilibrium": 8117,
      "bigr": 8118,
      "Ġsac": 8119,
      "only": 8120,
      "Ġpapers": 8121,
      "utor": 8122,
      "edu": 8123,
      "Ġsubstit": 8124,
      "ego": 8125,
      "Ġfighting": 8126,
      "Ġinjury": 8127,
      "ĠBa": 8128,
      "Ġpromote": 8129,
      "Ġdust": 8130,
      "ĠChampionships": 8131,
      "180": 8132,
      "ordan": 8133,
      "embers": 8134,
      "Ġhistoric": 8135,
      "Ġcomputing": 8136,
      "Ġisomorphism": 8137,
      "hol": 8138,
      "Ġparticipants": 8139,
      "Ġretired": 8140,
      "Ġpublication": 8141,
      "Ġque": 8142,
      "parent": 8143,
      "ĠAppendix": 8144,
      "Ġmultiplic": 8145,
      "Ġvertical": 8146,
      "Ġwinner": 8147,
      "Ġcontrolled": 8148,
      "ĠRh": 8149,
      "Ġsoc": 8150,
      "ortion": 8151,
      "Home": 8152,
      "Ġcontemporary": 8153,
      "cious": 8154,
      "Ġcalculate": 8155,
      "Inst": 8156,
      "istent": 8157,
      "egory": 8158,
      "\\;": 8159,
      "))\\": 8160,
      "ĠToronto": 8161,
      "Ġcamera": 8162,
      "notes": 8163,
      "Ġment": 8164,
      "Ġreviews": 8165,
      "Ġinterpretation": 8166,
      "Ġopposition": 8167,
      "Ġburn": 8168,
      "Ġessentially": 8169,
      "Ġpassing": 8170,
      "Ġ\\!": 8171,
      "strong": 8172,
      "Ġrecover": 8173,
      "Ġnewspaper": 8174,
      "ĠThrough": 8175,
      "Ġcourts": 8176,
      "ĠLear": 8177,
      "Ġpoliticians": 8178,
      "Ġclient": 8179,
      "Ġgeometry": 8180,
      "sex": 8181,
      "Ġentitled": 8182,
      "ĠExt": 8183,
      "enant": 8184,
      "Ġoperated": 8185,
      "ĠBoy": 8186,
      "$&": 8187,
      "Ġ!=": 8188,
      "ĠBang": 8189,
      "1962": 8190,
      "ains": 8191,
      "how": 8192,
      "rane": 8193,
      "Ġitem": 8194,
      "ipality": 8195,
      "Ġtroops": 8196,
      "erry": 8197,
      "Ġdrawn": 8198,
      "RC": 8199,
      "pson": 8200,
      "Ġmaybe": 8201,
      "Ġdetected": 8202,
      "ochastic": 8203,
      "cut": 8204,
      "ĠOfficer": 8205,
      "Ġrelax": 8206,
      "Ġdemonstrate": 8207,
      "Ð½": 8208,
      "TC": 8209,
      "Ġtaught": 8210,
      "Ġmand": 8211,
      "Ġemergency": 8212,
      "iated": 8213,
      "wing": 8214,
      "ication": 8215,
      "Ġsupposed": 8216,
      "Ġpropose": 8217,
      "Ġstr": 8218,
      "Ġsubgroup": 8219,
      "ĠDun": 8220,
      "Med": 8221,
      "Ġreceiving": 8222,
      "Ġstands": 8223,
      "Ġduty": 8224,
      "=.": 8225,
      "Ġblocks": 8226,
      "}}^{\\": 8227,
      "Ġsimultane": 8228,
      "emptyset": 8229,
      "isms": 8230,
      "Ġdedu": 8231,
      "Ġthanks": 8232,
      "Ġmotor": 8233,
      "iability": 8234,
      "onia": 8235,
      "faces": 8236,
      "Error": 8237,
      "Ġaccompl": 8238,
      "Ġspons": 8239,
      "Ġ$.": 8240,
      "ugby": 8241,
      "ĠForeign": 8242,
      "ibilities": 8243,
      "Ġcouldn": 8244,
      "Ġweapons": 8245,
      "vol": 8246,
      "Ġexplicitly": 8247,
      "Ã§": 8248,
      "ĠLew": 8249,
      "Ġpartners": 8250,
      "Ext": 8251,
      "}})": 8252,
      "ierarch": 8253,
      "Ġprinciples": 8254,
      "plan": 8255,
      "Ġfresh": 8256,
      "Ġsubsequently": 8257,
      "Ġcold": 8258,
      "Ġprominent": 8259,
      "Ġcalling": 8260,
      "oz": 8261,
      "ĠGi": 8262,
      "Ġprovision": 8263,
      "bottom": 8264,
      "including": 8265,
      "ĠReal": 8266,
      "ratic": 8267,
      "Ġadvice": 8268,
      "Ġtick": 8269,
      "Ġuniversal": 8270,
      "Ġneutr": 8271,
      "}_{-": 8272,
      "ellect": 8273,
      "Ġcm": 8274,
      "}}.": 8275,
      "ĠPen": 8276,
      "Two": 8277,
      "PU": 8278,
      "English": 8279,
      "Ġadministrative": 8280,
      "tes": 8281,
      "Ġspring": 8282,
      "Ġpredictions": 8283,
      "Ġintegrated": 8284,
      "atal": 8285,
      "ima": 8286,
      "Ġcorner": 8287,
      "ĠDC": 8288,
      "ĠRos": 8289,
      "Ġkill": 8290,
      "Ġdeclared": 8291,
      "Ġunderstood": 8292,
      "ameters": 8293,
      "ĠRevolution": 8294,
      "ĠCase": 8295,
      "Ġdance": 8296,
      "lementary": 8297,
      "Ġcomedy": 8298,
      "ospit": 8299,
      "Ġrig": 8300,
      "achelor": 8301,
      "ĠElizabeth": 8302,
      "ĠSpec": 8303,
      "ptic": 8304,
      "adow": 8305,
      "iner": 8306,
      "del": 8307,
      "Ġprices": 8308,
      "ĠDefense": 8309,
      "Ġabsence": 8310,
      "ĠKim": 8311,
      "ĠHistoric": 8312,
      "ĠSeason": 8313,
      "Ġintern": 8314,
      "core": 8315,
      "Ġcomprehens": 8316,
      "dy": 8317,
      "Ġjet": 8318,
      "DB": 8319,
      "ilbert": 8320,
      "Posted": 8321,
      "ects": 8322,
      "ĠAmaz": 8323,
      "ĠPortug": 8324,
      "Ġaccounts": 8325,
      "Ġthr": 8326,
      "never": 8327,
      "âĢ¢": 8328,
      "uli": 8329,
      "Ġscientists": 8330,
      "Ġscript": 8331,
      "Ġfiction": 8332,
      "Ġdoubt": 8333,
      "Ġimprovement": 8334,
      "Ġinteract": 8335,
      "ĠAsh": 8336,
      "isted": 8337,
      "%)": 8338,
      "theless": 8339,
      "actic": 8340,
      "Results": 8341,
      "Ġsession": 8342,
      "Ġnotion": 8343,
      "Ġvice": 8344,
      "ĠVice": 8345,
      "Ġur": 8346,
      "Ġalongside": 8347,
      "ĠWhy": 8348,
      "Ġshap": 8349,
      "nbsp": 8350,
      "ulner": 8351,
      "content": 8352,
      "ivery": 8353,
      "ruption": 8354,
      "Ġ\\(\\": 8355,
      "Ġcontribute": 8356,
      "vect": 8357,
      "ĠRun": 8358,
      "ogether": 8359,
      "Ġexcess": 8360,
      "})}": 8361,
      "ĠSom": 8362,
      "ĠNet": 8363,
      "}\\,\\": 8364,
      "Ġcomputational": 8365,
      "Ġmapping": 8366,
      "Ġrid": 8367,
      "onym": 8368,
      "Ġextreme": 8369,
      "Ġoffering": 8370,
      "Ġtruly": 8371,
      "'d": 8372,
      "Ġvocals": 8373,
      "Ġfeeling": 8374,
      "evin": 8375,
      "Ġpieces": 8376,
      "Ġathlet": 8377,
      "ĠSteve": 8378,
      "Ġenhance": 8379,
      "Ġjourney": 8380,
      "Ġpurchase": 8381,
      "ĠThree": 8382,
      "Ġintensity": 8383,
      "Ġassets": 8384,
      "aste": 8385,
      "Ġassistant": 8386,
      "General": 8387,
      "Ġfifth": 8388,
      "Ġaw": 8389,
      "Ġcatch": 8390,
      "multirow": 8391,
      "figures": 8392,
      "Ġstorage": 8393,
      "ĠTurkey": 8394,
      "Act": 8395,
      "ideos": 8396,
      "Ġgoods": 8397,
      "Ġapplicable": 8398,
      "inction": 8399,
      "irty": 8400,
      "Care": 8401,
      "df": 8402,
      "Ġcaptured": 8403,
      "named": 8404,
      "Ġveter": 8405,
      "ained": 8406,
      "ricts": 8407,
      "Ġestablishments": 8408,
      "iem": 8409,
      "Ġcharacteristics": 8410,
      "Ġrevenue": 8411,
      "Ġsole": 8412,
      "ĠRome": 8413,
      "Another": 8414,
      "iliar": 8415,
      "erate": 8416,
      "DR": 8417,
      "Ġaggreg": 8418,
      "ĠClark": 8419,
      "ÑĢ": 8420,
      "Ġkeeping": 8421,
      "ĠInstead": 8422,
      "wart": 8423,
      "Proof": 8424,
      "phone": 8425,
      "Ġexercise": 8426,
      "opher": 8427,
      "Right": 8428,
      "Ms": 8429,
      "Ġemployee": 8430,
      "Ġretire": 8431,
      "IST": 8432,
      "loc": 8433,
      "aya": 8434,
      "just": 8435,
      "Ġfindings": 8436,
      "tiny": 8437,
      "eties": 8438,
      "Ġaccident": 8439,
      "Che": 8440,
      "Given": 8441,
      "Ġexpanded": 8442,
      "Ġjurisd": 8443,
      "agues": 8444,
      "product": 8445,
      ")--(": 8446,
      "Ġce": 8447,
      "ĠWin": 8448,
      "Ġdriver": 8449,
      "ĠDown": 8450,
      "ĠOnly": 8451,
      "ÑĤ": 8452,
      "thur": 8453,
      "HT": 8454,
      "Ġperformances": 8455,
      "Ġpra": 8456,
      "repre": 8457,
      "high": 8458,
      "overty": 8459,
      "module": 8460,
      "ĠEth": 8461,
      "Äĩ": 8462,
      "Ġban": 8463,
      "apped": 8464,
      "Ġfrequently": 8465,
      "Ġpresc": 8466,
      "Ġexperts": 8467,
      "Ġbomb": 8468,
      "Ġhelps": 8469,
      "Dav": 8470,
      "user": 8471,
      "Ġdiver": 8472,
      "Ġbroken": 8473,
      "ĠObs": 8474,
      "Ġmarketing": 8475,
      "indu": 8476,
      "Ġpossess": 8477,
      "Ġdrugs": 8478,
      "ĠUnivers": 8479,
      "Ġcrucial": 8480,
      "ĠDutch": 8481,
      "Ġresulted": 8482,
      "Ġarms": 8483,
      "reprene": 8484,
      "AE": 8485,
      "Ġstuff": 8486,
      "anced": 8487,
      "ĠRog": 8488,
      "ĠNon": 8489,
      "Ġregistered": 8490,
      "Ġafford": 8491,
      "ĠAlexander": 8492,
      "mathop": 8493,
      "ĠExper": 8494,
      "Ġlabels": 8495,
      "ĠRom": 8496,
      "Gl": 8497,
      "Ġshut": 8498,
      "Ġsignals": 8499,
      "Ġreader": 8500,
      "Aust": 8501,
      "columnwidth": 8502,
      "Ġexcited": 8503,
      "1961": 8504,
      "ynamic": 8505,
      "raine": 8506,
      "ĠAT": 8507,
      "lections": 8508,
      "tikzpicture": 8509,
      "issions": 8510,
      "ĠSus": 8511,
      "ĠRen": 8512,
      "semble": 8513,
      "nesota": 8514,
      "Ġfib": 8515,
      "Ġspending": 8516,
      "Spec": 8517,
      "ĠPoint": 8518,
      "Ġembedding": 8519,
      "Ġclassic": 8520,
      "ĠGiven": 8521,
      "num": 8522,
      "Ġworldwide": 8523,
      "ĠRegister": 8524,
      "ouri": 8525,
      "ĠBerlin": 8526,
      "Ġmedian": 8527,
      "Ġcovering": 8528,
      "Ġteachers": 8529,
      "Ġimmediate": 8530,
      "Cal": 8531,
      "elly": 8532,
      "second": 8533,
      "ĠProvince": 8534,
      "Ġprivacy": 8535,
      ",{\\": 8536,
      "ĠPoland": 8537,
      "Cur": 8538,
      "Ġtot": 8539,
      "child": 8540,
      "ussion": 8541,
      "ĠSM": 8542,
      "ĠPhiladelphia": 8543,
      "His": 8544,
      "Ġdemonstrated": 8545,
      "Ġenforcement": 8546,
      "Ġunable": 8547,
      "uated": 8548,
      "Ġcloser": 8549,
      "Ġven": 8550,
      "acent": 8551,
      "ulpt": 8552,
      "Ġdiverse": 8553,
      "olis": 8554,
      "udden": 8555,
      "Ġspeaking": 8556,
      "stable": 8557,
      "ĠDespite": 8558,
      "ez": 8559,
      "Ġrailway": 8560,
      "oded": 8561,
      "apore": 8562,
      "Ġinverse": 8563,
      "âĢ¦âĢ¦": 8564,
      "Ġvictims": 8565,
      "Ġstanding": 8566,
      "bec": 8567,
      "dney": 8568,
      "Â°": 8569,
      "ĠAnth": 8570,
      "reement": 8571,
      "ĠCorn": 8572,
      "Ġdimensional": 8573,
      "vart": 8574,
      "Ġbench": 8575,
      "Ġcovers": 8576,
      "Ġincreasingly": 8577,
      "Ġnewly": 8578,
      "Ġseemed": 8579,
      "})=": 8580,
      "Ġtested": 8581,
      "mediate": 8582,
      "Ġhidden": 8583,
      "1944": 8584,
      "Ġflex": 8585,
      "Ġpassion": 8586,
      "Ġtrip": 8587,
      "ibliography": 8588,
      "uum": 8589,
      "Ġprogramming": 8590,
      "Top": 8591,
      "Ġbodies": 8592,
      "ĠWhe": 8593,
      "hard": 8594,
      "Ġgar": 8595,
      "iota": 8596,
      "Ġdecrease": 8597,
      "Ġgovernments": 8598,
      "Ġgraduate": 8599,
      "Ġrequirement": 8600,
      "ĠMember": 8601,
      "ĠLight": 8602,
      "Ġanimal": 8603,
      "Ġknows": 8604,
      "ĠAst": 8605,
      "ĠBeach": 8606,
      "Ġcreative": 8607,
      "Ġsequences": 8608,
      "block": 8609,
      "Ġversions": 8610,
      "Ġretail": 8611,
      "Ġcollaboration": 8612,
      "Ġtechnologies": 8613,
      "Ġderivative": 8614,
      "heta": 8615,
      "ennes": 8616,
      "elect": 8617,
      "ĠTal": 8618,
      "Ġforth": 8619,
      "Ġhundreds": 8620,
      "Cat": 8621,
      "etherlands": 8622,
      "Ġyounger": 8623,
      "Ġinterface": 8624,
      "oves": 8625,
      "Ġspend": 8626,
      "Bi": 8627,
      "background": 8628,
      "Ġtwenty": 8629,
      "lick": 8630,
      "Ġalt": 8631,
      "heim": 8632,
      "Ġglass": 8633,
      "Ġturb": 8634,
      "Ġdefeated": 8635,
      "HC": 8636,
      "Ġluminos": 8637,
      "rizona": 8638,
      "Ġquasi": 8639,
      "mathit": 8640,
      "Ġbass": 8641,
      "plom": 8642,
      "Ġherself": 8643,
      "ĠDavis": 8644,
      "ĠPrize": 8645,
      "Ġrom": 8646,
      "Ġsummary": 8647,
      "encing": 8648,
      "Ġvent": 8649,
      "Ġterritory": 8650,
      "bot": 8651,
      "ivered": 8652,
      "Ġships": 8653,
      "ĠSaf": 8654,
      "Ġfrag": 8655,
      "Ġtheme": 8656,
      "utely": 8657,
      "ĠJean": 8658,
      "Ġscope": 8659,
      "Ġswitch": 8660,
      "[-": 8661,
      "owa": 8662,
      "iii": 8663,
      "Ġrefuge": 8664,
      "Ġepisodes": 8665,
      "Ġtemperatures": 8666,
      "lers": 8667,
      "Ġvariance": 8668,
      "ĠAgency": 8669,
      "ropic": 8670,
      "textcolor": 8671,
      "ĠAfghan": 8672,
      "Dis": 8673,
      "xx": 8674,
      "ĠBBC": 8675,
      "Ġbulk": 8676,
      "Ġdiscl": 8677,
      "AF": 8678,
      "---": 8679,
      "erving": 8680,
      "hu": 8681,
      "Ġanalyz": 8682,
      "yers": 8683,
      "Ġconsideration": 8684,
      "Ġsought": 8685,
      "Ġpreced": 8686,
      "ĠHun": 8687,
      "Notes": 8688,
      "Ġchallenging": 8689,
      "Source": 8690,
      "vard": 8691,
      "})^": 8692,
      "aturally": 8693,
      "Ġsoci": 8694,
      "Ġroughly": 8695,
      "slash": 8696,
      "ĠAvenue": 8697,
      "onsin": 8698,
      "Ġiron": 8699,
      "Ġdependent": 8700,
      "ĉĉĉĉĉ": 8701,
      "SF": 8702,
      "ĠAdd": 8703,
      "orig": 8704,
      "result": 8705,
      "ais": 8706,
      "iversary": 8707,
      "Ġcommitment": 8708,
      "isconsin": 8709,
      "integ": 8710,
      "Ġtransferred": 8711,
      "Ġ$,": 8712,
      "cycl": 8713,
      "Ġfeedback": 8714,
      "AV": 8715,
      "EW": 8716,
      "Ġamaz": 8717,
      "irical": 8718,
      "ĠHung": 8719,
      "Ġwww": 8720,
      "Ġseeking": 8721,
      "vature": 8722,
      "Ġsmart": 8723,
      "ĠNC": 8724,
      "Ġmort": 8725,
      "Ġarrested": 8726,
      "ĠRod": 8727,
      "Ġwilling": 8728,
      "iscal": 8729,
      "Ġsuppl": 8730,
      "ori": 8731,
      "Ġloved": 8732,
      "Ġproposal": 8733,
      "Ġtopic": 8734,
      "uable": 8735,
      "Ġlowest": 8736,
      "Ġap": 8737,
      "worth": 8738,
      "Ġmaximal": 8739,
      "ĠInit": 8740,
      "DC": 8741,
      "Ġinvolves": 8742,
      "Ġprohib": 8743,
      "Ġsecure": 8744,
      "\\|\\": 8745,
      "Ġdiagonal": 8746,
      "ECT": 8747,
      "ĠMic": 8748,
      "ĠFox": 8749,
      "Ġhumans": 8750,
      "................................": 8751,
      "ĠHard": 8752,
      "Ġpool": 8753,
      "Min": 8754,
      "aska": 8755,
      "Lemma": 8756,
      "ĠMicro": 8757,
      "Model": 8758,
      "Ġneither": 8759,
      "Ġfacilit": 8760,
      "ĠGree": 8761,
      "Rem": 8762,
      "profit": 8763,
      "ĠMarg": 8764,
      "Mon": 8765,
      "Ġpotentially": 8766,
      "Ġexcellent": 8767,
      ")}_": 8768,
      "1948": 8769,
      "date": 8770,
      "ĠBC": 8771,
      "sat": 8772,
      "ĠFollowing": 8773,
      "Ġderive": 8774,
      "Ġattempts": 8775,
      "Ġcopies": 8776,
      "Ġfinish": 8777,
      "125": 8778,
      ".</": 8779,
      "Ġwhatever": 8780,
      "ourier": 8781,
      "ĠAud": 8782,
      "sequently": 8783,
      "plot": 8784,
      "aa": 8785,
      "Ġconsec": 8786,
      "Hence": 8787,
      "Ġfounder": 8788,
      "Ġsurve": 8789,
      "Ġsomewhat": 8790,
      "ĠBru": 8791,
      "Ġwaves": 8792,
      "ĠFire": 8793,
      "Ġcensus": 8794,
      "ructions": 8795,
      "Ġfant": 8796,
      "());": 8797,
      "umes": 8798,
      "Ġopposed": 8799,
      "olean": 8800,
      "Ġbringing": 8801,
      "Ġreferences": 8802,
      "HL": 8803,
      "Ġunc": 8804,
      "+(": 8805,
      "Work": 8806,
      "subsec": 8807,
      "Ġgraduated": 8808,
      "().": 8809,
      "ensed": 8810,
      "ĠBooks": 8811,
      "ulse": 8812,
      "Ġfeaturing": 8813,
      "Ġreprodu": 8814,
      "hl": 8815,
      "ĠBush": 8816,
      "Ġimpossible": 8817,
      "Ġletters": 8818,
      "ĠUr": 8819,
      "Ġannounce": 8820,
      "1958": 8821,
      "1956": 8822,
      "Ġtrivial": 8823,
      "umption": 8824,
      "Ġfill": 8825,
      "Ġongoing": 8826,
      "ĠVill": 8827,
      "Ġweather": 8828,
      "Ġgravit": 8829,
      "\\}$,": 8830,
      "Ġargued": 8831,
      "Ġsuffered": 8832,
      "Ġgenus": 8833,
      "ĠNaz": 8834,
      "Ġrecovery": 8835,
      "Ġvotes": 8836,
      "Har": 8837,
      "Ġvisible": 8838,
      "Ġaffili": 8839,
      "organ": 8840,
      "Ġsolo": 8841,
      "zy": 8842,
      "world": 8843,
      "^{*": 8844,
      "Ġdiversity": 8845,
      "Ġcontrols": 8846,
      "&=\\": 8847,
      "aus": 8848,
      "Sw": 8849,
      "Ġaren": 8850,
      "BM": 8851,
      "ĠIslamic": 8852,
      "Ġhypothesis": 8853,
      "ĠFC": 8854,
      "Text": 8855,
      "ĠIV": 8856,
      "Path": 8857,
      "ceived": 8858,
      "ĠCommunic": 8859,
      "Ġempty": 8860,
      "Ġassessment": 8861,
      "rell": 8862,
      "chestra": 8863,
      "Ġbaseball": 8864,
      "}$}": 8865,
      "Ġacknowled": 8866,
      "Ġrespective": 8867,
      "writer": 8868,
      "plane": 8869,
      "Ġtopological": 8870,
      "nav": 8871,
      "1959": 8872,
      "typ": 8873,
      "Ġpaths": 8874,
      "ĠStephen": 8875,
      "Ġclubs": 8876,
      "Ġintent": 8877,
      "ĠKorean": 8878,
      "step": 8879,
      "yo": 8880,
      "ĠLive": 8881,
      "Jan": 8882,
      "ĠFord": 8883,
      "Ġaband": 8884,
      "Ġpresents": 8885,
      "Ġending": 8886,
      "1939": 8887,
      "ĠAR": 8888,
      "Ġzone": 8889,
      "Ġdriven": 8890,
      "Ġpurs": 8891,
      "rine": 8892,
      "start": 8893,
      "bro": 8894,
      "Ag": 8895,
      "Ġfilled": 8896,
      "Ġdescent": 8897,
      "Ġsettlement": 8898,
      "hered": 8899,
      "\\}\\": 8900,
      "Ñģ": 8901,
      "ĠĠĠĠĠĠĠĠĠĠĠĠĠĠ": 8902,
      "Ġdens": 8903,
      "ĠCambridge": 8904,
      "Ġconstants": 8905,
      "GA": 8906,
      "outs": 8907,
      "ĠMethod": 8908,
      "ĠBand": 8909,
      "Moreover": 8910,
      "Ġsettings": 8911,
      "Ġpayment": 8912,
      "eping": 8913,
      "Ġ^": 8914,
      "perial": 8915,
      "urches": 8916,
      ":=\\": 8917,
      "vision": 8918,
      "Ġhandle": 8919,
      "Event": 8920,
      "Ġdismiss": 8921,
      "vector": 8922,
      "Ġfaster": 8923,
      "United": 8924,
      "DM": 8925,
      "ushed": 8926,
      "anth": 8927,
      "Ġpercentage": 8928,
      "BO": 8929,
      "gebr": 8930,
      "File": 8931,
      "Ġpray": 8932,
      "green": 8933,
      "ifer": 8934,
      "Ġworst": 8935,
      "iments": 8936,
      "Ġsupports": 8937,
      "Ġbrings": 8938,
      "Ġnonlinear": 8939,
      "Ġ}{": 8940,
      "Ġflo": 8941,
      "ĠRight": 8942,
      "Ġbatt": 8943,
      "lock": 8944,
      "Ġstorm": 8945,
      "Ġmatching": 8946,
      "ĠSP": 8947,
      "Ġprogramme": 8948,
      "Ġdelivered": 8949,
      "location": 8950,
      "ĠScottish": 8951,
      "ocratic": 8952,
      "ometry": 8953,
      "anna": 8954,
      "ĠOnce": 8955,
      "ureau": 8956,
      "struct": 8957,
      "Ġrefers": 8958,
      "longrightarrow": 8959,
      "ĠAp": 8960,
      "ĠBefore": 8961,
      "Ġconsisting": 8962,
      "Requ": 8963,
      "method": 8964,
      "ĠMP": 8965,
      "Exp": 8966,
      "Ġprocedures": 8967,
      "Ġwouldn": 8968,
      "image": 8969,
      "Ġcomplaint": 8970,
      "Ġflood": 8971,
      "Ġpal": 8972,
      "arios": 8973,
      "ĠMill": 8974,
      "Ġpetition": 8975,
      "ls": 8976,
      ";\"": 8977,
      "Ġdecide": 8978,
      "ĠĠĠĠĠĠĠĠĠĠĠĠĠĠĠĠĠĠĠĠĠĠĠĠĠĠĠĠĠĠĠĠĠĠĠĠĠĠĠĠĠĠĠĠĠĠĠĠĠĠĠĠĠĠĠĠĠĠĠĠĠĠĠĠ": 8979,
      "Ġdoub": 8980,
      "Ġconform": 8981,
      "urities": 8982,
      "ĠLocal": 8983,
      "Ġenergies": 8984,
      "Ġadvers": 8985,
      "mn": 8986,
      "ĠVictoria": 8987,
      "Ġconsequences": 8988,
      "ĠFood": 8989,
      "Ġvon": 8990,
      "Ġkid": 8991,
      "Ġquery": 8992,
      "lets": 8993,
      "ĠMain": 8994,
      "Ġgeneralized": 8995,
      "Ġsatell": 8996,
      "Ġcriteria": 8997,
      "Ġcas": 8998,
      "rained": 8999,
      "dr": 9000,
      "Ġvulner": 9001,
      "Ġidentical": 9002,
      "mi": 9003,
      "Ġpit": 9004,
      "sche": 9005,
      "Ġwait": 9006,
      "Ġguide": 9007,
      "esides": 9008,
      "Ġgravity": 9009,
      "eah": 9010,
      "ibr": 9011,
      "ĠStation": 9012,
      "Ġshell": 9013,
      "ĠAdam": 9014,
      "Ġgather": 9015,
      "Åį": 9016,
      "1957": 9017,
      "yles": 9018,
      "Ġsingles": 9019,
      "Ġpresidential": 9020,
      "Ġowners": 9021,
      "}}}\\": 9022,
      "sign": 9023,
      "Ġouter": 9024,
      "Ġgained": 9025,
      "holders": 9026,
      "ownt": 9027,
      "Ġseparation": 9028,
      "akh": 9029,
      "1942": 9030,
      "Ġdirections": 9031,
      "aret": 9032,
      "parison": 9033,
      "Ġapplies": 9034,
      "Ġversus": 9035,
      "js": 9036,
      "ĠNext": 9037,
      "Ġassuming": 9038,
      "Ġuniverse": 9039,
      "Ġbed": 9040,
      "Ġintr": 9041,
      "Fl": 9042,
      "isa": 9043,
      "Ġinterior": 9044,
      "thew": 9045,
      "128": 9046,
      "icide": 9047,
      "ĠLater": 9048,
      "ĠWars": 9049,
      "Ġrestrictions": 9050,
      "ĠHo": 9051,
      "gers": 9052,
      "Ġ^{": 9053,
      "Ġ);": 9054,
      "Ġquantities": 9055,
      "ĠSanta": 9056,
      "Ġscores": 9057,
      "vartheta": 9058,
      "api": 9059,
      "ben": 9060,
      "Ġsubstantial": 9061,
      "rosc": 9062,
      "ĠLog": 9063,
      "Ġloan": 9064,
      "Ġ},": 9065,
      "Ġnations": 9066,
      "ĠOs": 9067,
      "Pop": 9068,
      "isition": 9069,
      "urations": 9070,
      "ĉĉĊ": 9071,
      "Ġguard": 9072,
      "ĠEconomic": 9073,
      "Ġfavorite": 9074,
      "ERT": 9075,
      "LT": 9076,
      "ĠMinnesota": 9077,
      "Ġindependence": 9078,
      "EX": 9079,
      "fil": 9080,
      "Ġsensitive": 9081,
      "ĠâĢ¢": 9082,
      "About": 9083,
      "ropical": 9084,
      "Ġengaged": 9085,
      "medskip": 9086,
      "Ġattorney": 9087,
      "Ret": 9088,
      "Ġrent": 9089,
      "ĠTrade": 9090,
      "Ġcapable": 9091,
      "Disc": 9092,
      "Ġsquad": 9093,
      "Ġupdated": 9094,
      "Ġpermanent": 9095,
      "}}=": 9096,
      "Ġconcerning": 9097,
      "ĠColorado": 9098,
      "ĠLind": 9099,
      "Ġlisten": 9100,
      "iration": 9101,
      "Ġvast": 9102,
      "Ġstead": 9103,
      "pet": 9104,
      "trivial": 9105,
      "ĠBiden": 9106,
      "ĠAirport": 9107,
      "Ġsubsid": 9108,
      "Ġlinked": 9109,
      "gebras": 9110,
      "Ġarc": 9111,
      "tainment": 9112,
      "everal": 9113,
      "Ġasymptotic": 9114,
      "\\%$": 9115,
      "Ġcomfort": 9116,
      "ĠIns": 9117,
      "Ġphotograph": 9118,
      "Ġacceler": 9119,
      "Ġcryst": 9120,
      "Ġdestroyed": 9121,
      "ĠPers": 9122,
      "Ġdollars": 9123,
      "Ġradial": 9124,
      "Ġredshift": 9125,
      "Ġspan": 9126,
      "Ġlect": 9127,
      "ribe": 9128,
      "quarters": 9129,
      "ĠStock": 9130,
      "Go": 9131,
      "Map": 9132,
      "aton": 9133,
      "ellectual": 9134,
      "Ġchoices": 9135,
      "nowledge": 9136,
      "Ġparticipate": 9137,
      "vari": 9138,
      "obile": 9139,
      "Ġdelivery": 9140,
      "Ġsky": 9141,
      "iki": 9142,
      "1941": 9143,
      "Ġinstant": 9144,
      "avor": 9145,
      "pto": 9146,
      "ĠSpring": 9147,
      "ĠNetherlands": 9148,
      "Ġposted": 9149,
      "zech": 9150,
      "eman": 9151,
      "ĠPrinc": 9152,
      "ĠWisconsin": 9153,
      "Ġworse": 9154,
      "ĠOlympic": 9155,
      "Count": 9156,
      "Ġincred": 9157,
      "Brit": 9158,
      "Ġjudgment": 9159,
      "redit": 9160,
      "title": 9161,
      "Ġoccasion": 9162,
      "ĠCas": 9163,
      "ĠMult": 9164,
      "Ġbreaking": 9165,
      "Ġscheduled": 9166,
      "ĠKansas": 9167,
      "Ġsharing": 9168,
      "Ġlosing": 9169,
      "}|\\": 9170,
      "ĠProdu": 9171,
      "scriptstyle": 9172,
      "Ġmillions": 9173,
      "general": 9174,
      "Ġrisks": 9175,
      "night": 9176,
      "idance": 9177,
      "Ġinclusion": 9178,
      "also": 9179,
      "Ġdatabase": 9180,
      "Last": 9181,
      "otype": 9182,
      "regular": 9183,
      "1946": 9184,
      "'.": 9185,
      "Dist": 9186,
      "ĠNever": 9187,
      "Ġeastern": 9188,
      "Ġcounsel": 9189,
      "Ġeasier": 9190,
      "Ġdiscussions": 9191,
      "ĠNAS": 9192,
      "Ġcrowd": 9193,
      "ĠCorps": 9194,
      "enance": 9195,
      "defined": 9196,
      "tem": 9197,
      "Ġreward": 9198,
      "ride": 9199,
      "ĠGrant": 9200,
      "Why": 9201,
      "dependent": 9202,
      "ressive": 9203,
      "irk": 9204,
      "ĠPass": 9205,
      "Ġtight": 9206,
      "Ġapproximate": 9207,
      "Ġfish": 9208,
      "ĠMiller": 9209,
      "ĠForest": 9210,
      "lication": 9211,
      "Ġdashed": 9212,
      "ĠArizona": 9213,
      "Ġcanonical": 9214,
      "University": 9215,
      "Ġrealized": 9216,
      "Ġoperate": 9217,
      "argets": 9218,
      "author": 9219,
      "bet": 9220,
      "Ġenable": 9221,
      "Ã±": 9222,
      "1955": 9223,
      "Ġdocumentary": 9224,
      "Ġfluid": 9225,
      "ĠHay": 9226,
      "ĠBudd": 9227,
      "Build": 9228,
      "ĠStaff": 9229,
      "Ġpainting": 9230,
      "ĠFac": 9231,
      "-(": 9232,
      "Ġguess": 9233,
      "Ġped": 9234,
      "ĠIsraeli": 9235,
      "inian": 9236,
      "115": 9237,
      "Ġsigns": 9238,
      "arma": 9239,
      "ĠHollywood": 9240,
      "tages": 9241,
      "ĠWat": 9242,
      "ishment": 9243,
      "ĠStory": 9244,
      "ipping": 9245,
      "Ġscenes": 9246,
      "Ġconservation": 9247,
      "ĠTurk": 9248,
      "ĠCov": 9249,
      "Ġcart": 9250,
      "ĠArgent": 9251,
      "/(": 9252,
      "World": 9253,
      "iang": 9254,
      "ritical": 9255,
      "Ġtrace": 9256,
      "ĠCountry": 9257,
      "Ġconnections": 9258,
      "Ġreporting": 9259,
      "Ġjoining": 9260,
      "Ġsimplic": 9261,
      "Ġaccordance": 9262,
      "ocated": 9263,
      "uties": 9264,
      "Ġtroub": 9265,
      "Ġconstitu": 9266,
      "erver": 9267,
      "Ġamounts": 9268,
      "ĠLtd": 9269,
      "Ġdominant": 9270,
      "Ġadvent": 9271,
      "Ġextends": 9272,
      "Ġrestricted": 9273,
      "Ġelev": 9274,
      "Ġflows": 9275,
      "Ġpointed": 9276,
      "Ġstudying": 9277,
      "Ġsuppose": 9278,
      "race": 9279,
      "Ġpopulations": 9280,
      "olitan": 9281,
      "ingham": 9282,
      "ĠComput": 9283,
      "Ġstrategic": 9284,
      ")})": 9285,
      "Ġequivalence": 9286,
      "ĠIslands": 9287,
      "1947": 9288,
      "uv": 9289,
      "Ġoutcome": 9290,
      "Ġexhibition": 9291,
      "Ġspoke": 9292,
      "Ġentries": 9293,
      "icular": 9294,
      "Ġproud": 9295,
      "ĠPerform": 9296,
      "Ġnob": 9297,
      "instein": 9298,
      "Ġbanks": 9299,
      "ĠTy": 9300,
      "Ġneutral": 9301,
      "ĠAssist": 9302,
      "Ġcompat": 9303,
      "Ġstronger": 9304,
      "Hom": 9305,
      "ĠPage": 9306,
      "agan": 9307,
      "Ġfoundation": 9308,
      "names": 9309,
      "Ġphoton": 9310,
      "Ġstages": 9311,
      "Ġquantity": 9312,
      "Christ": 9313,
      "Ġperiods": 9314,
      "Ġconcentration": 9315,
      "ĠHoly": 9316,
      "])": 9317,
      "Ġofficially": 9318,
      "ĠID": 9319,
      "Ġsurg": 9320,
      "aling": 9321,
      "Ac": 9322,
      "ĠAk": 9323,
      "1943": 9324,
      "Ġmusicians": 9325,
      "Ġmixing": 9326,
      "Suppose": 9327,
      "Ġtitles": 9328,
      "there": 9329,
      ".'": 9330,
      "Ġcomprehensive": 9331,
      "Ġpurchased": 9332,
      "ĠSydney": 9333,
      "uzz": 9334,
      "Ġ__": 9335,
      "regon": 9336,
      "GR": 9337,
      "ĠRou": 9338,
      "Ġrect": 9339,
      ";\\;\\": 9340,
      "pool": 9341,
      "1918": 9342,
      "Under": 9343,
      "ĠAtlantic": 9344,
      "Ġproducing": 9345,
      "1954": 9346,
      "Ġprofiles": 9347,
      "Ġlose": 9348,
      "Ġstochastic": 9349,
      "Ġvess": 9350,
      "icking": 9351,
      "1952": 9352,
      "ĠVietnam": 9353,
      "ĠSingapore": 9354,
      "isson": 9355,
      "ĠArea": 9356,
      "ulating": 9357,
      "Ġevaluated": 9358,
      "PM": 9359,
      "Ġriv": 9360,
      "orne": 9361,
      "Ġfiles": 9362,
      "ĠÎ": 9363,
      "Ġcolour": 9364,
      "Ġcontributed": 9365,
      "Ġdropped": 9366,
      "rome": 9367,
      "!\\": 9368,
      "pres": 9369,
      "Ġintegr": 9370,
      "Ġapproval": 9371,
      "backslash": 9372,
      "config": 9373,
      "Ġlosses": 9374,
      "Ġcorrection": 9375,
      "ĠSat": 9376,
      "iative": 9377,
      "Ġmagnet": 9378,
      "aki": 9379,
      "Ġrelief": 9380,
      "ĠAmazon": 9381,
      "slant": 9382,
      "ighth": 9383,
      "Ġhall": 9384,
      "Ġsizes": 9385,
      "ĠBad": 9386,
      "ĠRead": 9387,
      "ĠArticle": 9388,
[...]
