#version: 0.2
Ġ Ġ
ĠĠ ĠĠ
i n
Ġ t
e r
o n
Ġ a
h e
r e
a t
e n
o r
s t
ĠĠ Ġ
Ġt he
a l
a n
ĠĠĠĠ ĠĠĠĠ
i t
a r
Ġ c
l e
i on
Ġ s
e d
e s
Ġ o
i s
Ġ f
Ġ w
i c
in g
r o
Ġ p
a s
Ġ in
Ġ b
n d
e t
c t
Ġo f
Ġ d
o u
a m
en t
Ġ m
e l
ĠĠĠĠ ĠĠĠ
Ġa nd
Ġt o
i l
Ġ re
o m
Ġ n
i d
Ġ h
Ġ =
Ġ (
o l
a c
Ġ S
at ion
u r
i g
ĉ ĉ
i m
Ġt h
< /
u t
Ġ T
o t
a d
e x
Ġ C
s e
= "
Ġ l
) ;
i v
o d
Ġ A
c e
a g
u l
Ġ {
- -
i f
e m
Ġ $
Ġ <
t h
u n
Ġ \
ĠĠĠĠĠĠĠĠ ĠĠĠ
p e
Ġ v
Ġ is
c h
a y
u m
a b
Ġ M
Ġ g
o w
č Ċ
at e
u s
/ /
Ġf or
er s
Ġ st
Ġ I
Ġ *
t r
u e
i st
a p
o c
as s
Ġ P
l y
i r
t er
am e
Ġ B
Ġ on
it h
ct ion
p t
h t
Ġc on
Ġ }
e f
Ġ "
a v
" >
2 0
Ġb e
an d
Ġ R
u b
en d
Ġ e
v er
Ġa s
e w
Ġ D
q u
re s
Ġ H
l ass
Ġ F
Ġ L
u p
r i
es s
ag e
â Ģ
or t
ĠĠĠĠĠĠĠĠ ĠĠĠĠĠĠĠĠ
Ġ N
ĠĠĠĠ Ġ
o p
( )
Ġw ith
1 9
ou r
a in
Ġa l
Ġth at
Ġ G
o s
l i
e st
ur n
* *
e ct
ro m
ex t
n t
Ġ E
Ġ W
ĠT he
in e
Ġw as
Ġp ro
Ġw h
Ġa n
at h
ar t
it y
Ġb y
s p
c on
m ent
o re
t urn
Ġ r
= =
-- --
. .
i z
y pe
Ġc om
o g
ac k
_ {
al l
ab le
Ġc lass
Ġ it
p l
k e
ul t
Ġa t
e g
er e
ig ht
Ġ '
p ort
od e
Ġ or
i le
Ġ O
g et
Ġth is
Ġ if
Ġ &
Ġ ex
u re
Ġ Ċ
an g
er t
an s
i al
re f
st r
i es
Ġf rom
Ġ J
e c
ĠĠĠĠĠĠĠĠ ĠĠĠĠĠĠĠ
iv e
u d
in t
an t
Ġt r
e p
0 0
or m
il l
I n
l d
pt ion
Ġa re
l ic
b er
at a
- >
ar y
a ct
a st
Ġ he
Ġ U
Ġ //
in d
Ġ y
as e
i p
Ġre turn
Ġs e
' s
at ed
o v
u nd
: :
or d
ar d
Ġc h
{ \
i b
a re
c om
ac e
al ue
Ġ -
ig n
i re
j ect
ĉĉ ĉĉ
Ġ </
e v
) ,
p ro
it e
u g
Ġ le
it ion
.. /
t o
im e
C on
ou t
Ġ K
our ce
Ġn ot
i a
20 1
Ġs h
Ġw e
a k
c l
ub lic
o st
el l
T he
un ction
f f
Ġ$ \
ic h
p h
) .
on g
t ext
Ġ @
Ġ [
ar am
p le
" ,
il d
p er
ic e
id e
er v
S t
g e
Ġp l
u st
Ġ V
l oc
ĠI n
Ġ |
av e
Ġn ew
s s
or k
o b
Ġ +
f t
c ri
m l
m a
( "
ic al
c c
( );
d d
en s
m ath
s et
o k
Ġ /
p ut
Ġ us
f orm
or y
Ġ j
E x
el f
an ce
ess age
en c
ro w
Ġre s
ul l
âĢ ĵ
d iv
iz e
Ġa r
> </
ĠS t
tr ing
' ,
i an
r a
en ce
---- ----
sp an
s o
s h
res s
q ue
Ġ un
d u
on e
e ar
} }
er r
> <
ac h
ation s
20 0
ĠT h
en er
i el
f ig
im port
Ġ k
th er
l ow
Ġwh ich
Ġ .
Ġ* /
Ġn ame
Ġc an
u se
in k
** **
ou nt
Ġst r
ou ld
^ {
Ġa p
l o
a il
Ġh is
== ==
is h
Ġ :
../ ../
c he
e le
iel d
Ġp ublic
ent s
ow n
ĠC h
f r
Ġh as
Ġcon t
Ġf unction
ĉĉ ĉ
ĠĠĠĠĠĠĠĠ ĠĠĠĠĠĠĠĠĠĠĠ
Ġd ef
l l
t e
ter n
} \
i ew
ir st
} $
Ġh ave
c al
in al
ht ml
et h
p on
he n
ou s
n ame
( '
1 8
r ay
e b
ou nd
P ro
o id
1 0
ĠĠĠĠĠĠĠĠ Ġ
Ġh ref
âĢ Ļ
re e
) )
at or
Ġin t
th is
N ame
Ġa b
p r
y st
le s
cl ud
er m
c k
o ver
Ġs et
p s
Ġp r
o ol
E R
u al
s ource
ab el
Ġ| |
Ġv ar
m essage
ic t
m er
ro up
T ype
n e
b ject
r y
l ation
ol d
ar k
t a
od el
p aram
r it
i x
f er
Ġal so
at es
tr ans
Ġ _
O N
S tring
que st
( \
eg in
Ġ #
ke y
I d
Ġg et
Ġw ere
yst em
en g
Ġ= >
i o
r ap
} ,
le d
Ġ ro
Ġ im
er y
Ġo ut
om e
o int
c ol
Ġt ype
pe c
al se
I N
Ġal l
at ic
b egin
v ent
Ġd is
re turn
ion s
ot h
r ight
pe ct
t d
Ġon e
e qu
Ġp art
Ġb ut
b o
s um
c ode
at ch
ing s
Ġ up
a x
Ġv alue
Ġcom p
am es
l ine
w o
Ġd o
/ >
n g
c re
he d
ar g
Ġs u
Ġ Y
f o
loc k
cri pt
eth od
ĠU n
le ct
um ber
ic s
or s
R e
Ġy ou
u ild
Ġc ol
Ġw ill
p ert
f ter
C om
Ġf irst
d ef
u ct
# #
R es
_{ \
Ġl ine
1 2
" />
Ġ !
ap p
s er
on t
at er
R E
a w
o se
is s
Ġs elf
ce ption
ic k
ĠI t
ad d
Ġcon st
el y
} {
w e
oc k
Ġd ata
t ype
L ist
ĠH e
c lass
trans lation
ig h
Ġthe ir
) $
a ult
Ġd e
t he
Ġpl ay
Ġit s
an n
ang e
Ġp re
ur re
Ġd es
a ke
em ber
Ġ el
Ġ i
ut e
Ġ= =
t on
Ġp er
: //
v al
ov e
Ġo ver
S T
Ġs p
C h
Ġc l
t t
l abel
Ġm e
1 6
et a
m s
y n
p os
T h
Ġ end
ation al
19 9
Ġh ad
Ġa dd
Ġ id
Ġt ime
Ġ âĢĵ
v ar
an y
i e
am p
Ġn ull
ĠA r
it le
ro und
ac he
A T
e y
o ok
Ġa g
le ment
Ġres ult
if ic
fr ac
y m
o f
Ġas s
al s
c ent
ers ion
R ef
rap h
i ed
Ġv oid
ar ch
Ġt wo
le ft
Ġw ork
_ _
t ain
e q
"> <
Ġin ter
Ġo ther
at ive
id th
Ġwh o
ht t
Ġ `
A r
Ġw hen
Ġ âĢ
s on
an c
ad er
tr ib
Ġ qu
erv ice
enc es
Ġcom m
as k
) );
Ġm ore
Ġ und
y le
u es
O R
iv ate
Ġbe en
c o
ou n
str ing
Ġs up
Ġs o
ul ar
Ġ >
Ġh er
1 5
y s
Ġs ub
g r
con d
Ġ err
as h
Ġa d
L E
um ent
y p
urre nt
ut ion
Ġf alse
l and
c ess
ĠTh is
re ad
ĠĠĠĠĠĠĠĠĠĠĠĠĠĠĠĠ ĠĠĠĠĠĠĠ
) :
Ġ en
Ġthe y
as ed
Ġn e
ad e
ire ct
A R
-------- --------
T r
d er
r r
b ack
tern al
is e
it ed
ĠĠĠĠĠĠĠĠ ĠĠĠĠĠ
" );
Ġre g
I D
am ple
**** ****
ĠC om
on s
Ġtr ue
av a
Ġin clud
Ġon ly
1 1
Ġc re
Ġl oc
d ata
ol low
Ġf il
op le
ption s
Ġin to
eng th
cc ess
or g
or n
Ġy ear
Ġor g
u le
m in
Ġfor m
er n
// //
is hed
Ġof f
s ub
at ing
V alue
Ġt e
f ile
Ġin d
an ag
ef ore
b ar
e e
D ata
s elf
w ork
c ite
Ġ )
Ġv al
w ard
t em
in ed
Ġin st
Ġtr ans
math b
} )
C ol
Ġo b
Ġel se
A L
res ent
ug h
Ġp os
$ .
Ġa ct
r m
Ġs pec
o le
T o
$ ,
ic an
le ction
it s
1 7
ut h
Ġb et
pl ic
Ġ use
Ġp e
ĠP ro
ou g
v alue
Ġg o
Ġan y
S S
b le
" )
id er
Ġwh ere
pert y
E N
it em
li ent
Ġf inal
i ous
at ure
Ġa fter
in s
} .
ĠĠĠĠ ĠĠ
ay s
Ġ em
an k
am b
ar get
==== ====
Ġus ed
Ġ --
ĠĠĠĠĠĠĠĠĠĠĠĠĠĠĠĠ ĠĠĠĠĠĠĠĠĠĠĠĠĠĠĠĠ
Ġ/ **
Ġs c
, \
im es
ĠN ew
ag es
2 5
a ction
p re
Ref er
S et
Ex ception
Ġre c
l og
i er
Ġn o
Ġ x
equ ation
1 3
Ġt est
o ot
em ent
iv ers
1 4
Ġf ollow
u ff
t s
loc ation
Ġstr ing
Ġo p
Ġe v
n ew
Ġc ase
Ġthe n
Ġth ere
in ce
19 8
E rr
Ġc o
v e
ur ing
Ġund er
ist s
p x
n b
o y
ib le
it ies
ol og
w n
u res
Ġab out
Ġd ec
d ate
i k
( $
ĠA l
] ;
E n
math cal
Ġ& &
od y
n ot
Ġst atic
Ġre m
il ity
Ġch ar
c ed
Ġd ist
ro id
Ġf ile
ar n
ĠC on
et er
ef f
Ġd if
Ġg ener
at us
O bject
we en
re am
a ir
Ġb ack
v iew
Ġ// /
Ġw ould
3 2
Ġn umber
Ġp ol
t est
is ion
qu ire
Ġ ent
ĠS tring
b r
Ġcon s
um n
ph a
m ary
Ġs he
d a
nb sp
Ġs ome
con t
ic es
Ġth an
ep end
ĠS h
T est
or ld
re d
Ġ! =
' )
Ġ Q
Ġpro v
f or
re n
r u
iz ed
ar s
ev el
Ġre l
' ]
} (
s ize
D E
Ġsu ch
p ress
s c
() .
ment s
Ġk n
Ġ %
C T
Ġpr ivate
il y
G et
pl ay
a z
Ġl ist
in es
Ġm odel
p p
ow er
Refer ences
() );
Ġf e
âĢ Ŀ
Ġm ay
Ġp h
I T
at t
are nt
Err or
w w
Ġsh ow
Con t
U n
Ġbet ween
r c
ĠA n
Ġs er
. </
al ly
S E
3 0
ch ool
h o
l ink
} ^
ĠT r
mer ican
he ck
~ \
ro ugh
ĉĉĉĉ ĉ
Ġpro du
. _
str uct
al pha
v el
Ġbe c
as on
ot t
ĠS e
i ent
b e
f ace
19 7
m e
b y
} _
K ey
l er
i ke
Ġg r
ro l
b all
g er
1 00
Ġo bject
l ang
M E
s cript
F ile
Ġm od
Ġpe ople
Ġf ield
I m
oc i
Ġo per
ĠE x
ro ll
Ġs im
ord er
Ġm ethod
[ '
le t
Ġ Z
" ;
Ġa c
m od
Ġst art
iv er
el ta
et s
l ist
ap t
t il
p i
2 2
p ublic
p ace
A t
H e
Ġin v
ind ow
B y
I nd
Ġb o
C lass
w h
if y
a use
Ġ key
Ġc al
it t
V iew
Ġa m
Ġs ystem
c es
a h
ur l
on d
Ġg iv
"> </
Ġ ext
n av
Ġ ed
Ġp aram
ut il
g o
sum mary
ind ex
ĠĠĠĠ Ċ
ot e
' );
A N
Ġh igh
p ar
5 0
cri ption
m all
in n
f unction
j s
.. .
in ter
2 1
o h
iz ation
Ġst ud
oug h
Ġf ound
Ġa cc
al e
S h
ou se
Ġm ost
Ġdif fer
Ġe st
C O
Ġe ach
Ġp oint
Ġap p
Ġst ate
t ime
l ay
oc ument
htt p
Ġo ur
Ġl ink
Ġd et
if ied
ĠF or
amb da
f ield
ĠC ol
Ġm in
6 4
Ġg roup
r ite
pon ent
() ,
ĠW e
w idth
lo ad
$ \
Ġs ign
Ġth rough
d is
r ic
Ġc or
m an
se ction
e ver
ist er
Ġ X
a id
Ġt itle
in clud
re g
t op
Ġr un
Ã ©
id ent
tr y
a j
w ay
oth er
O n
Ġus ing
U L
ivers ity
A n
Ġag ain
ce pt
ĠA s
v oid
Ġsh ould
Ġre p
g round
ect or
Ġc ent
t able
us s
c le
Ġf l
Ġc all
Ġthe m
Ġe qu
! --
al ign
ĠI nd
col or
uff er
l ish
) \
re ak
r on
] ,
Ġar g
Ġthe se
sh ip
ra w
o ad
ou th
Ġh im
=" ../../
g roup
or th
ĠR e
Ġl ong
2 4
if e
pon se
com m
evel op
enc y
ur y
=" +
T ime
are d
F or
con st
ot s
a f
Ġd r
it ial
qu ot
ack age
Ġwh ile
am ma
l ob
p ath
en se
= \
ess ion
Re quest
Ġse cond
f l
Ġc urrent
Ġs ame
ar ray
ur ation
h at
Ġ/ >
Ġd irect
R O
Ġcom ple
us h
anag er
' t
m u
ant s
Ġw ell
Ġs ing
og le
" :
ers on
ĠâĢ ľ
ect ed
Ġ eff
b ers
19 6
bo x
op y
us er
p art
00 0
Ġ\ \
A dd
A l
. "
un c
m ed
Ġne ed
` `
ri b
Ġh and
is m
I ON
re m
re at
L A
In fo
m p
T ext
I nt
m d
E vent
N ode
P E
Ġs ol
Ġf r
T E
] .
ĠL e
ig ma
Ġ u
Ġth row
Ġy our
Ġ );
Ġass ert
Ġb efore
Ġs ize
P ath
Ġyear s
} ^{
trib ute
Ġ ?
_ \
/ *
ut ton
s erv
ate g
A s
Ġre sp
Ġb r
t ing
} ;
h er
over n
P aram
() )
port s
form ation
Ġ z
E lement
/ **
eg a
ĠF r
et ers
it or
f ul
Ġb uild
Ġerr or
ens ion
et work
ames pace
ro p
Ġth ree
iv ed
ĠA merican
mathb b
} _{
t en
ĠI f
E qu
Ġex pect
Ġd uring
' :
Ġre quire
ical ly
Ġs erv
Ġb oth
Ġbe ing
ole an
l ength
Ġcont ain
3 3
Ġw rit
A C
Ġre le
Con text
r ide
D ef
Ġh ow
Con fig
gr am
Ġre quest
con fig
ĠS c
4 0
Ġfollow ing
Ġgiv en
Ġn on
Ġr ight
Ind ex
St ate
M ap
Ġp ass
- \
Ġl ike
ath er
b f
o x
Ġ import
Ġre ad
ĠD e
d es
Ġe vent
m y
F ield
Ġte am
Ġar t
P I
u ch
w ord
Ġor der
ition s
Ġe lement
Ġe ver
ap i
at s
I tem
Ġat t
Ġs ur
ph i
an e
d t
ist ory
Q u
ver t
Ġm em
T R
Ġper form
Ġ/ *
a pe
Ġm ed
ro ss
htt ps
Ġ( !
ĠĠĠĠĠĠĠĠĠĠĠĠĠĠĠĠ ĠĠĠĠĠĠĠĠĠĠĠ
Ġdiffer ent
^ {\
ĠI s
iss ion
am ily
N ot
2 3
ĠUn iversity
m ap
Ġ-- >
F orm
D es
st ance
O ver
S ervice
W ith
Ġm ade
res ult
Â ł
yp es
Ġj ust
Ġar ray
o ff
ĠUn ited
Ġap pro
at ri
Ar ray
ur al
us ic
pt y
ĠO n
l ambda
n ode
Ġp ar
ar ly
c d
W e
ap ache
Ġn ow
C ode
in a
ĠĠ Ċ
e k
Ġstr uct
Ġdef ault
' ;
" "
u f
Ġm ain
l ished
Ġsup port
Ġo wn
[ ]
uth or
m odel
ne ction
se arch
f in
\ \
Ġ} );
it er
Ġpro cess
Ġm on
//// ////
ir t
l p
b ed
Ġpart ic
tr ue
tt p
as es
Ġlink s
Ġloc al
Ġa ut
Ġl ast
O r
u c
ob ject
ign ed
## ##
Ġt erm
og raph
Ġm any
ig inal
ep s
id d
I C
n er
Ġrec ord
Ġc ould
ist r
ĠM ar
b lock
" .
Ex ternal
******** ********
u i
um er
ac es
oot ball
Ġ{ \
in put
Ġp op
U R
ĠR es
Res ult
plic ation
en n
S ize
r al
olog y
Ġdo es
Ġt arget
if t
f rom
ic on
oh n
Ġb el
el s
ĠE ng
yn c
b ol
t itle
il ter
Ġm y
Ġt em
Ġm ake
ul ation
Ġt ext
Ġs aid
iv ing
n ext
B uild
Ġ} ,
od es
ust om
Ġbe g
l t
o od
ar i
val id
a it
ĠC l
Ġcont in
M essage
19 4
ic a
ĠCom m
err or
H and
s k
Ġ: =
ut es
ar m
Ġto p
Ġvar i
ass ert
end s
Ġd evelop
Ġus er
g t
en u
Ġl og
cre ate
le ss
F r
ual ly
et urn
pl ate
Th is
2 7
Ġwh at
+ +
iv es
ain t
se c
Ġm et
2 8
Ġop en
Ġm ov
b eta
v ersion
u str
ag s
Ġc oun
F F
ur s
ĠP r
Ġplay ers
Ġdis c
i or
ar ge
w it
Ġcont ent
S ystem
able d
al ity
m b
mathb f
ĠS he
O f
ent ial
Ġb l
un e
ific ation
le y
Ġch ild
19 5
= '
Ġf act
s igma
Ġst yle
Ġle ft
Ġre f
ile d
os s
j ava
n et
il on
2 6
am ed
p oint
Ġj ava
A D
lo at
i ev
he ad
n o
pert ies
b um
U T
Ġbec ause
Ġ( \
Ġb ro
ĠP h
def ault
Ġm an
ev ice
om en
Ġal low
L O
b ody
Ġcon fig
Ġf ind
Ġv ersion
Ġap pe
V al
Ġ ,
ĠA ss
u age
g y
s ide
co pe
ym bol
u ck
a i
Ġle ad
Ġf in
i um
im it
="../../ ../../
ĠS ystem
re t
and roid
Ġre ce
st art
Ġkn own
com p
ĠO r
Ġl ater
b l
cent er
in fo
} {\
I s
Ġs ince
Ġpro t
Ġse e
^{ -
ast er
v ious
act er
ou ble
ir c
L oc
> &
Ġc heck
ire d
M odel
ild e
Com m
Ġf our
ma x
cal e
iv ely
our ces
I G
Ġs rc
Ġc ode
6 0
re ate
ch n
Ġinclud ing
ĠM ay
ak ing
Ġever y
lob al
lect ed
S er
Ġs mall
p or
m et
Ġcal led
Ġp ath
ĠB r
O ut
st ate
Ġcons ider
tr act
d ay
Ġb lock
nd er
2 9
Ġfil m
id ed
Ġ= ==
Ġv is
en e
---------------- ----------------
ĠSt ates
Ġagain st
M A
ar ri
Ġval ues
L og
b s
ĠG r
il t
id es
M L
Ġin put
T able
ir d
Ġdes cri
che s
ag ue
Ġm ust
def ine
Ġre fer
ail s
Ġg u
includ e
it al
cont ent
i ence
ĠA t
IN G
ab ility
Ġse ason
th s
ount y
Ġb reak
201 7
. ,
go ogle
u ro
UL L
b ase
al k
re c
tain er
E D
ele te
se e
; &
Ġrep resent
Ġresult s
Ġn ode
201 8
P h
us ing
Ġd id
en ame
ction s
ĠG et
math rm
Ġm ult
atri x
M anager
ict ion
Ġex ample
ĠA nd
Ġcre ate
U ser
sp ace
Ġser ies
u k
Ġs chool
on y
Ġb ased
I S
* }
ĉĉĉĉ ĉĉ
Ġn ext
Ġ} ;
E T
Ġb ase
t n
Ġm ax
roll er
Ġ_ _
t es
at ter
Ġcon text
Ġp resent
r ho
M P
l a
orm al
U p
g amma
t ings
c ss
l ing
ĠA d
p ackage
s up
P l
ĠS p
du ct
Ġd own
C H
con text
in ation
20 19
Ġn il
Col or
Ġeff ect
Ġin formation
F rom
ĠJ ohn
+ \
ur ch
Ġc r
ĠH ow
press ion
ition al
ar row
======== ========
Ġle vel
Ġ Ð
Ġind ex
Ġex p
pro t
ain ing
ott om
201 6
Ġev en
w ith
8 0
d own
Ġhe ad
Ġinst ance
201 5
t ab
p m
In ter
o in
ĠW orld
ww w
G roup
Ġm ap
ele ct
u x
Ġp res
st yle
v en
b ig
tern ational
Ġcon d
end ed
Ġd ep
Ġtr y
Tr ans
ak es
m ethod
Ġ( )
d oc
o ption
ĠC an
Ġv ery
Ġg ame
n amespace
ĠĠĠĠĠĠĠĠ ĠĠ
d elta
Ġm ark
N ew
w are
Ð °
T D
Res ponse
end er
a ut
eb ug
=" ../
ith ub
Pro perty
201 4
in c
Ġv iew
f alse
^ \
Ġg overn
k en
A B
Ġf ootball
che d
ore d
R eg
U N
iv al
pos ition
n ess
d e
al th
Qu ery
the ta
Ġsing le
) }
Ġpos s
Ġ$ (
Ġal bum
3 4
d b
ur ity
s q
ĠĠĠĠĠĠĠĠ ĠĠĠĠ
ĠN ational
ĠJ ul
l ight
=" #
D O
Ġb ool
D is
Ġs ource
w eb
Ġle t
C all
Ġw ay
iv ity
C lient
Ġpro ject
fig ure
an sp
ĠP l
ĠJ an
qu ad
ol v
Ar g
; </
che ck
c ast
Ġest ab
ide o
9 9
is ed
ain s
ĠâĢ Ķ
A ll
Over ride
c ount
ir on
Ġpro gram
in ess
Ġa v
Ġin cre
c ore
P r
Ġun til
ĠE n
ok en
C ount
Ġit em
ix ed
st atic
if ier
g ithub
ail able
r t
Ġst d
com e
Ġp ost
> (
Ġo ld
ta u
ĠP ar
Ġcomm un
ĠL ist
Ġid ent
str u
Ġo cc
Ġin itial
Ġse ver
ol ution
ĠW h
A S
pr int
EN T
ann el
201 0
anc es
ad i
R ec
et y
E S
ĠC ar
$ -
] {
is on
Build er
Ġf amily
201 3
ang le
Ġo ptions
eg er
ĠS chool
c all
] (
Ġth ose
res pon
ic y
ĠR eg
Ġc le
ĠY ou
Ġor iginal
s l
s w
u les
Ġdist rib
l in
um ents
Ġt able
3 5
ĠB l
ref er
Ġsu ccess
Ġpl ace
aj or
er o
li am
Ġh ere
Ġw orld
M ethod
Ġb ir
Ġd i
) </
ĠY ork
T H
irt ual
ward s
le q
Ð ¾
Ġs ervice
pl oy
t imes
Ġst and
Ġpos ition
old s
M od
Ġan al
ĠN ov
r ist
Ġc are
201 1
lic k
201 2
< !--
um p
on se
t al
ple ment
ĠC ent
u ary
part ial
oc us
act ory
arg in
Ġm atch
le m
Ġwith in
om et
Ġcol or
our n
b uild
ĠA ll
d om
ib r
um e
Ġbec ame
ĠB rit
at ures
A ss
i od
Ġresp onse
I L
ator s
av ing
St ream
Ġan n
A d
ustr al
ĠC ounty
Ġhe lp
C ell
f unc
Ġl arge
Ġs ong
ĠP ol
Ġ enc
Ġkn ow
Ġl ife
Ġch ang
ĠS et
Ġw on
C E
Ġb ound
Ġb ook
at ab
ater ial
Ġa round
p en
Ġc ap
ĠW est
Ġand roid
Ġex per
ear ch
6 6
A nd
Ġare a
Ð µ
Ġl ook
} (\
Ġp ub
B ar
Ġre al
n u
re quest
at ely
Ġpol it
C l
n ing
Ġm essage
Ġst ill
A ME
qu ery
ĠW ar
ĠS outh
Ġm usic
c urrent
o ptions
G ener
ev ent
b utton
ĠC al
ĠA ug
he s
ĠĠĠĠĠĠĠĠĠĠĠĠĠĠĠĠ ĠĠĠĠĠĠĠĠĠĠĠĠĠĠĠ
Ġp rom
In put
e ction
Ġob tain
wh ere
n ull
erm an
ac y
U S
i que
e ad
Ġt ri
Ġp o
ĠG e
U til
ord ing
n ect
D ate
9 0
Ġorg an
O T
a ff
ĠI m
Ġcom put
St atus
al t
eq ref
ur ther
c lient
as ure
i ans
n s
Ġp ower
ord s
] )
ĠO ct
Ġinclud e
li b
ĠĠĠĠĠĠĠĠĠĠĠĠĠĠĠĠ Ġ
re l
Ġl ang
us iness
Ġde ath
Ġd ocument
Ġw idth
Ġadd ress
un g
ain ed
ou d
Ġcon f
ic ial
Ġex pl
Ġback ground
Ġb order
Ġwith out
arg s
pt ember
Ġn ear
a e
ĠN ULL
E nd
s im
7 5
Ġs k
o ber
Ġpro ble
Ġm uch
v iron
S ub
m ember
Ġd el
ĠG u
I P
om an
ic le
Ġal ong
g ress
o op
lo se
it ive
le x
a u
Im age
fin ished
( (
Ġcont rol
Ġn etwork
Ġw ant
respon d
Ġre port
P ar
v ision
amp ion
h and
3 9
im age
Ġs um
Ġ< <
ph p
om ega
se mb
d ir
m ber
Ġre t
Ġl aw
D elta
Ġp at
Ġob serv
Ġd ue
Ġp erson
Ġa ction
ut ed
}$ ,
B e
S tr
Ġsever al
Ġout put
ist or
ĉ Ċ
Ġo pt
Ġcomm and
r am
t ed
}$ .
Ġpro perty
ĠM arch
3 1
0 1
Ġ( $
pr il
ĠThe y
Ġr ange
ft y
B lock
in ition
Y PE
Ġl a
ON T
t ilde
Ġ ->
ĠB e
h as
4 5
r un
pl ace
ac ed
| \
ĠW il
Ġb u
old er
che ma
200 9
T oken
arn ing
| -
ĠSt ate
Ġsp ace
Ġm ag
read y
ĠU S
ser ver
Ġex ist
ĠE d
u ed
in fty
und le
Ġt ake
an el
end ing
ar r
or ies
Ġgener al
un finished
stru ction
ĠJan uary
ĠT o
3 6
ĠAug ust
rit er
z e
Ġ eng
ĠJ une
Ġs ec
Ġf a
in it
Com ponent
ĠJul y
Res ource
al es
ut ions
I R
Ġa ccess
Ġan other
st it
ug g
ap er
Ġd epend
200 8
ĠSe ptember
Ġbe st
Ġ" ""
I t
he ight
ust er
ĠT e
ro du
le ge
and om
Ġpre vious
L ay
A ct
Ġc our
Ġ čĊ
E d
Ġbe h
S c
Ġ et
b it
le g
im um
Ġgo od
il ar
Equ al
yn am
Ġis s
w ays
j av
Ġim p
atab ase
d ec
Ġchar acter
ic ro
o pt
P os
t x
B ase
ra ft
In stance
3 7
d l
ard s
Ġin s
add ing
Ġsh ort
Ġd ay
O ptions
N ull
Ġass oci
ch o
ĠA ustral
c it
ĠN o
Ã ¡
l s
Ġbo olean
3 8
im al
Ġd em
a im
E X
ĠOct ober
uro pe
Ġad v
N S
Ġex ec
[ "
p age
pro v
ith er
ĠHow ever
5 5
x y
row s
Ġto tal
O ff
eq n
re en
tr a
Ġim age
L ine
Ġreg ion
ur g
ce mber
o ke
ĠC ity
ĠA pril
N av
\ ,
Ġd on
Ġfor mer
Ġp arent
Ġres pect
N o
c apt
S ource
fr ame
Hand ler
ug in
act ive
S ee
ad ata
wit ch
app end
y les
Ġ+ =
( {
Ġle g
Ġd iv
Ġch ange
B uffer
pos ed
Ġdef ined
Ġrele ased
raph ics
T O
Ġsup er
200 7
cre en
R un
Ġab ove
A ction
Ġc ar
Ġm ass
ĠN orth
RE F
Ġc ell
ĠR ep
A pp
D ec
oc ial
Ġmem bers
or age
Ġf ull
Ġe arly
he ader
Ġh ttp
op er
Ġst at
Ġb as
Ġ es
in ary
ill ion
ac hed
ĠB y
) {
00 00
an ch
Ġdes ign
id get
un k
Ġe lect
Ġval id
t arget
ener gy
ad a
Ġplay ed
im ent
Ġl ength
E L
ic ense
Ð ¸
ĠĠĠĠĠĠĠĠ Ċ
ĠM in
im ation
ĠC o
200 6
i j
Cont ent
At tribute
c er
Ġd om
h am
Ġc ity
ĠA b
b tn
ip le
Ġh ome
viron ment
g or
Com p
er g
O S
Ġs ide
p arent
Ġb and
pec ial
C K
ot o
il it
ograph y
Ġal ign
ch ild
os ed
Ġav ailable
x i
al f
E E
F A
ĠT est
ĠA dd
ateg ory
T ask
Ġc a
Ġ ke
Ġv ol
Ġp ort
Ġs pe
ĠNov ember
ĠI I
b orn
ĠP art
St yle
ĠS up
m ark
um b
ther n
O per
able s
Ġc ount
Ġf ore
Ġl arg
st er
S elect
Ġte chn
f low
n own
ot ype
ĠĠĠĠĠĠĠĠ ĠĠĠĠĠĠ
L ink
se lect
Ġf re
Ġl abel
y l
ĠG ener
j son
an a
S P
ĠDe cember
ĠF eb
ys is
im ate
0 5
Ġexpect ed
20 00
Ġl and
im ary
Comm and
Ġp age
us ed
ut ure
Ġm ember
s rc
trib utes
" ]
ĠB o
F actory
O L
St art
E m
iz er
Ġh ost
if f
A p
s g
c m
ru ary
pro perty
W indow
Ġrequire d
Def ault
Ġpro f
I f
20 20
p ost
Ġm ajor
A P
ĠBrit ish
ib ility
Ġcor respond
x ml
st atus
h ip
e ed
ore m
ne y
oc ol
ĠE urope
LA SS
n on
Ġwe ek
l or
F unction
op s
Ġas sum
um an
ud e
Ġc ur
U E
id ge
Ġtr ack
Ġro le
Ġw omen
er a
$ $
n ow
} [
capt ion
c ase
Ġgovern ment
ĠM ed
Ñ Ĥ
on es
A G
d f
mod ule
V ersion
ĠLe ague
ure d
nav bar
ĠN one
M S
pon ents
}} \
op en
7 0
ap an
Ġt urn
ĠS er
4 4
ial og
gor ith
r l
c ul
in o
p tr
d o
w rite
AT E
res h
Ġcomp et
f irst
ĠO bject
Ġt yp
ent ion
ĠK ing
at form
ad io
S p
c or
am a
O P
re ct
Ġdis play
p ol
P oint
li ed
G L
des cription
ele ment
b ottom
Ġpoint s
Ġcomp any
ĠM an
b uf
P ol
Fr ame
ĠR ec
d r
Ġm at
it es
Ġparam eter
Ð ½
Ġinter est
H T
cd ot
Ġa ff
se qu
ĠCh rist
epend ent
ĠĠĠĠĠĠĠĠ ĠĠĠĠĊ
ampion ship
Ġf ew
Ġpartic ular
Ġparam eters
semb ly
P art
Ġ{ @
m eta
our s
re st
g le
row ser
ep ar
Ġper iod
Ġn amed
Ġc lient
Tr ue
Ġre st
200 5
ig ation
str ong
Ġs l
V ER
ĠM c
' '
Ġd est
Ġt ele
N umber
p ush
Ġthrow s
U s
ps i
ri or
ĠA fter
Ġt ask
Ġchild ren
he m
* /
f ind
O D
am il
Ġe p
ĠTh ere
end if
$ {
ansp ort
Ġl ow
Ġse ction
ĠFeb ruary
~ ~
ĠI nt
ĠF ig
re w
g ener
ĠI N
pr ivate
eg r
Ġbir ths
Ġprot ected
p ed
Ġcre ated
ch ar
ren ch
( &
p c
Ġsim ilar
h ost
R ow
F ilter
Ġn um
Ġt imes
ist ic
l en
Pro v
s i
4 8
Ġh istory
l ast
Ġfe ature
cent ury
H el
dis play
Ġ energy
bo ok
Ġd er
} );
Ġhe ight
Ġ q
ĠD es
o ice
ac ing
m o
Ġl ay
ĠR eturn
Ġrece ived
ĠC lass
l im
Ġcol umn
Ġdet erm
Ġal ready
p ng
Ġpr int
fo ot
Ġf ree
c y
C C
Ġto wn
Ġposs ible
st ream
)$ .
st d
im g
P RO
eps ilon
Ġl oad
oug ht
F I
Ġcom b
âĢ ľ
Equ als
s igned
Ġres ource
er ed
Ġre du
, "
on ly
Ġa uthor
ap s
ad em
st and
Ġfil ms
n a
0 7
Ġs at
om ic
Ġdescri bed
e ople
ĠR ob
F l
C reate
Ġprodu ct
Ġcare er
L abel
ĠD r
er ing
c ell
Ġw he
F ONT
m t
Ġd en
anag ement
} _{\
Ġev ents
ight s
im ension
v ers
u ation
R eturn
ĉĉĉĉ ĉĉĉĉ
lay out
Ġme asure
Ġb ody
200 4
f ont
O m
m ult
loc al
li p
) (
pro ject
b m
he et
ĠD ef
if act
ĠC ont
Ġ( (
0 4
cl ose
pect ed
Ġto ok
p y
//////// ////////
0 8
ĠB ar
re et
eqn array
so le
app ing
Re ad
Ġspec ial
Ġhe ld
Ġa nt
Ġpro b
es e
C heck
Ġle ss
d et
ĠH igh
p ose
th ough
Cont roller
av es
. âĢĿ
v is
as cript
id ual
ud io
ĠQ u
ob j
re quire
q l
m ar
Ñ Ģ
Ġmodel s
Ġc over
ĠC or
in st
Ġo ption
sq rt
Ġind ic
Ġext ends
al let
B utton
ch ange
Ġw indow
ock et
Ġm ove
ens or
d raw
Ã ³
Ġbu ilt
th ers
it ory
// /
p ack
lection s
M et
Ġar ch
Ġc ert
il er
O b
ent ry
âĢ Ķ
cl us
ĠM e
at al
Ġbeg an
Ġint rodu
ĠEng lish
el ine
a ul
le vel
od ing
ig ger
Ġe ither
il le
0 2
S up
itt le
li es
Ġst atus
ed er
ĠH is
s ol
i et
Ġ url
Ġr a
Ch ild
param s
n um
Ex t
0 6
Ġh ouse
Ġme an
ĠA ct
Ġinv est
op h
ĠCom p
Ġb usiness
g es
F irst
Ġstud y
m it
Ġg ames
d ict
ĠCh ar
res ponse
AB LE
con tainer
S C
Ġd eb
text bf
form at
P age
Ġcl ub
m em
Ġsh own
ond on
y nt
sub section
S ON
ens ity
ing ton
Ġp ut
Ġl ate
Ġar r
up date
G r
s mall
ĠW hen
A merican
Form at
at tr
" ).
Ġplay er
ist ry
IN T
Ġm argin
u id
Ġappe ar
ĠV al
Ġre d
ab ly
Ġth ird
List ener
ref ix
Ġs ample
Ġshow s
Ġinclud ed
Out put
is ing
^ *
Ġloc ated
idd en
ro y
idd le
Ġpop ulation
ĠA p
c an
inn er
ug ht
_ .
ibr ary
al y
Ġs ite
Ġs ay
so ft
bo ard
B ig
ch i
og n
Ġc atch
c il
ĠA ir
ann ot
ent ly
Ġacc ount
f ilter
art ment
B ox
Ġim plement
Ġ< !--
Ġmod ule
Om ega
Ġstr ong
Ġproble m
Ġestab lished
ĠB ut
T YPE
ĠA fr
B undle
B ack
Ġp ot
ĠJ apan
s ervice
ĠC oun
m enu
Ġv ill
" ),
u ccess
m on
ak en
Ġimport ant
U I
ER T
str act
p o
row n
Ġf ive
pro to
H E
Ġs ix
G amma
istr ict
ĠW ith
Ġl imit
Ġa ge
Ġd ouble
Ġreturn ed
L ast
Ġn ational
ĠS o
m m
Ġfr ame
Ġlang uage
am ent
Ġcon nection
ire ction
Ġcon struct
I M
T P
N O
M em
L ength
Val id
Ġs ent
c el
ens ure
Ġc lose
ir m
U M
Ġv ert
Ġth ink
Add ress
< ?
A M
w ise
0 9
Col umn
jav ascript
Ġup date
Ġc rit
olv ed
y d
ap ter
un ic
Ġse qu
E nt
B U
ex p
Ġle ast
UR L
Ġpub lished
ĠE ast
Ch ar
Ġc amp
ps ilon
Ġstruct ure
Ġ ]
200 3
Ġst ation
Ġre lation
Ġaut o
6 5
c ap
Ġre search
ĉ ĠĠĠ
ĠO ff
var i
R ep
g l
)$ ,
i i
d ev
0 3
Ġw ater
ã ģ
ĠA mer
Ġ` `
Ġspec ified
Ġser ver
o o
T em
f ord
Ġc opy
ĠP res
P re
Ġh app
Ġl ight
m ain
itt ed
inn ing
Ġelement s
pro cess
ig in
ĠC LASS
ĠH REF
ĠR uss
Ã Ń
Ġa ir
r s
Ġprov ided
Ġmethod s
M ode
ĠPh il
ĠP ark
A ut
Ġg l
Ġf urther
Ġed uc
Ġ ide
h a
C ON
ĠCol lege
he l
ĠThe se
ĠL ondon
ig r
D et
Ġterm s
er efore
att le
cle ar
n umber
r ing
Ġqu ant
200 1
g en
ĠD av
Ġcon c
ER R
st yles
Ġin ternal
ĠS w
r angle
ĠD is
ef ined
} =
`` `
ĠAr t
Ġs epar
Ġa ver
ĠM on
ĠO ne
ot ion
Ġof ten
Ġwrit ten
C ache
Ġc ustom
action s
I O
g ing
A b
rem ove
p ass
Ġto o
at as
Ser ver
Ġbuild ing
Ġse arch
i ef
: </
W eb
ĠL a
Ġatt ack
A cc
v es
t ag
S pec
ĠP er
Ġperform ance
ĠG o
ang ed
8 8
Ġw rite
k s
al d
ab or
i as
ou ch
in stance
prot otype
gorith m
Lay out
ĠG L
to ol
ft ware
Ġs om
Ġp ay
W h
' ).
f e
ĠH ouse
^{ (
or ph
olog ical
Ġst ates
f inal
B C
col umn
Ġdisc uss
Ġpro perties
Ġv ideo
am l
k nown
Ġam ong
Ġd ate
em ph
Ġf ont
Ġv er
A A
Ġfunction s
off set
Ġob j
}^ {\
Ġoff icial
ĠA m
ĠB ro
Ġne ver
9 5
ur b
Ġh aving
ĠN ot
Ġcol l
++ )
ĠI D
ac ity
ilit ary
un it
Ġd ev
20 21
Ġ[ ]
out put
Ġcall back
ĠS ch
ugg est
sh ow
Ġcoun try
c s
ult ure
ĠWil liam
Ġv ia
fer ence
Ġph ys
i ol
eg raphics
Ġann oun
6 7
includ egraphics
Ġm en
Ġform at
> >
Ġf ri
P er
Ġfe atures
v are
Ġadd ed
m ost
Ð¾ Ð
CO L
arri ed
r ict
Ġ! ==
S e
s cope
Ġal ways
el se
4 7
Ġgr ad
ele g
Ġsign ific
refer ence
Ġm iss
Ġd eg
Ġd one
ĠF rench
p ly
Ġbe come
U rl
200 2
Ġcl aim
ĠD o
Ġg reat
Ñ ģ
A fter
Ġvar ious
Ġs pect
ce ed
ol l
i res
Ã ¼
ĠE X
I Z
le ase
Ġg en
Ġwork s
adi us
med i
ry pt
Ġ$ {\
ĠH er
Prov ider
Ġro und
em ents
Ġc ross
b or
ĠU p
ĠS tr
oci ation
ri es
comm and
w rap
Up date
ex ec
Ġ row
Ġfield s
id ence
Ġe as
Ġserv ed
ĠA PI
R em
**************** ****************
ĠH T
ord in
S ec
Ġspec ies
Ġfollow s
i ber
ourn al
P C
Ġassoci ated
N AME
Ġinter face
ic ient
cript or
Ġcent ury
Ġwhe ther
l it
Ġprov ide
Ġ quest
) =
ĠĠĠĠĠĠĠĠĠĠĠĠĠĠĠĠ ĠĠĠĠĠĠĠĠĠĠĠĠĠĠĠĠĠĠĠ
s m
T arget
( _
vare psilon
Ġs che
ens ions
4 9
Ġn av
ĠH ar
return s
Ġbel ow
ic o
Ġf ac
ar ies
Off set
D B
Ġtr ad
Ġg lobal
comm on
Ġdevelop ment
ĠS im
Ġdistrib ution
ĠF ile
Ġt w
ag n
Ġn one
Ġinst ead
Ġl ower
Param eter
is f
N D
Ġre cent
Ġspec ific
Ġeng ine
Ġin div
Ġn ormal
Ġst ory
ã ĥ
id s
b ind
ly ing
i qu
Ġcontain s
Ġcle ar
or iz
Ġ ...
s f
l ong
Ġstart ed
A ccess
ĠA c
Ġme ans
Ġsu ff
ĠD istrict
ĠCh ampionship
y ear
Ġqu ery
Ġbet ter
ĠD ep
} ).
pl it
Ġf low
W idth
ul a
v ec
t ask
Ġc ost
Ġb orn
right arrow
lay er
. ~\
u int
Ġm ight
ĠL icense
Ġto get
Ġre pl
Ġse lect
ĠR ev
b ool
ĠIn ternational
T ypes
Ġtoget her
Ġdif f
Ġf ail
Ġm ode
util s
C L
oc r
ĠS ec
Ġ* *
ĠO F
ĠAr ray
sup port
d epend
Ġcon trib
as ing
ĠR ed
V is
k a
Ġon ce
#### ####
Ġ\ ,
Ġfile s
Ġs em
Ġcomple x
tem plate
Ġc ou
Ġbl ack
ĠN or
() ->
Ġconsider ed
H istory
Ġpr act
Ġoper ation
at ural
k it
ĠM ich
ĠG erman
Ġmed ia
Ġdist rict
Ġg raph
f loat
[ \
w indow
ex ample
Ġarg s
M ax
Ġt ypes
it ect
Ġtele vision
Con tainer
em pty
C ase
Ġcommun ity
plic it
pro p
Ġcomm on
Ġpot ential
L et
ill s
ĠC up
Ġp erm
tem pt
ĠQ ue
var phi
Ġst ream
min istr
enc ies
Ġyou ng
Ent ity
ĠTr ans
al le
t y
sk ip
is es
ing le
b a
Ġd ays
par se
Ġw ar
Ġf und
Ġin it
ol ve
s pec
Ġm illion
M in
av el
if orn
I I
7 7
ĠIn ter
] );
Ġh ard
ge q
om ent
Ġloc ation
Ġgroup s
En try
art ifact
T ag
Ġj ob
il ities
Ġre view
f a
m atch
199 9
ĠT ype
ess ages
He ader
Ġse en
back ground
ist ics
ly mp
Ġfil ter
ĠA g
W rite
and id
Ġindiv idual
ã Ĥ
Ġpl an
Ġac ross
Ġf ar
Ġhow ever
Ġg e
af e
Ġn eg
Ġu int
Ġun it
d ep
h ib
iforn ia
Ġappro x
th ing
Ġ ::
or ge
c ache
b ased
Ġl en
4 2
ag ed
) ]
. }
Ġstand ard
id ing
ĠE m
Ġgo ing
Util s
Ġin f
O pen
ov ed
Pro cess
ĠS an
ar a
Ġc ame
ver se
Ġph ot
que ue
ic ation
s d
oci ety
Ġh alf
4 6
. /
e h
Ġp air
8 5
Config uration
Ã ¤
Ġs w
iv en
pro of
ĠM y
Ġserv ices
Ġn ov
ĠE l
ĠI r
.. ..
Ġm atrix
Ġin du
Ġs ym
="../../../../ ../
one y
Ġr ate
Cont rol
Con nection
Ġrefer ence
o on
over line
Ġ{ }
Ġap plication
un ch
Ġsignific ant
Ġadd ition
Ġsystem s
; ->
Ġn orth
ĠInd ian
' ),
a el
iz ing
Ġab le
=" -
Ġtr aining
Ġf loat
T ree
. \
T op
av y
w ait
P O
os p
CO DE
Ġd a
ĠâĢ ĺ
Ġe ar
M ed
Ġst ep
B o
ell ow
D e
" ))
em s
Inter face
u el
ak er
b uffer
UL T
Ġt re
Ġd ied
Ġb uffer
U P
Ġg row
Th read
Ġm aking
N ext
Ġc ases
Ġcent er
J son
ot a
ĠAustral ia
& \
Ġchang es
ĉĉĉĉ ĉĉĉ
ĠD ata
ot al
Ġat tempt
Ġoff set
Ġaver age
sh ould
Ġreturn s
L evel
I V
W ork
Ġro ot
i ers
C D
ĠA cc
Ġsh ip
om b
li er
Ġs on
Ġwork ing
G e
ad es
, âĢĿ
L oad
Ġst op
}, \
Ġn ec
g ed
ound s
Ġf ocus
R ange
Ġse lected
Ġrele ase
r is
Ġs ocial
land s
Ġke ep
av en
Ġmult iple
Ġprodu ction
i ents
s cale
Ġl ines
class es
d ocument
A V
ĠThe n
ro ot
fl u
Ġcom ponent
Ġact ive
=" _
use um
Ġinst all
Ġ Ã
w ide
Call back
} /
A PI
du c
Ġcons ist
Ġac cept
Ex ec
ch an
( [
Ġent ry
Ġs it
H ttp
Ġl ik
Ġr andom
9 6
Ġle d
eth ing
res ource
ex pected
} ),
] [
th on
Des cription
ĠEng land
ĠCal ifornia
Ġs uggest
ĠD iv
t yp
Ġ Â
. $
ar ing
Ġconst ant
h line
et ch
o pe
cont rol
Ġh istor
ĠAss ert
Ġdec l
ĠR em
Ġbo x
Ġs cal
O ne
l ate
: "
Ġs cale
Ġsuccess ful
Ġw ent
He ight
Ġh uman
Loc ation
b in
t ree
Ġc y
ĠReturn s
Ġm aterial
D r
a uthor
ĠRep ublic
Ġex press
Ġl im
Ġcond itions
8 7
t ml
Ġsim ple
b urg
Em pty
ĠR iver
p ing
ut able
an ish
Ġof fer
iz es
ĠR ef
artifact Id
Ġprodu ced
ĠG roup
Ġb it
ch iev
Ġact iv
Ġanal ysis
ef t
ob ile
Ġag re
iv il
9 7
p atch
Ġmov ed
ĠF irst
Ġvill age
Ġs outh
Ġhigh er
E ng
Q L
Ġt ag
il led
ĠM ark
ma il
) ^
Ser ial
Ġa way
Ġp aper
Param s
r ics
Ġtrans form
li ke
Ġcal cul
Ġt aken
Ġg ive
ĠS k
Ġn umer
ĠInd ia
file s
Ġn ames
Ã ¶
ĠAmer ica
od er
c r
d ist
Mod ule
ĉ Ġ
ĠP ort
Ġl oss
v ey
Ġf uture
ĠL og
Ġadd itional
Q ue
B r
V AL
ĠW eb
C urrent
P eople
b reak
AT ION
% ;
ĠC our
ent ity
K E
Ġme et
Ġw in
Ġ( "
Ġcol lection
b b
he nt
val ues
Ġin ternational
at tern
ic les
5 00
m at
ct x
a ign
8 6
ĠPart y
> ,
Ġcan not
act ers
199 0
N one
ĠH ol
str ap
F e
P ort
Ġcond ition
Ġth ough
ĠPres ident
Ġb g
A g
lang le
ad ow
Ġcontin ue
ĠĠĠĠĠĠĠĠĠĠĠĠĠĠĠĠ ĠĠĠĠĠ
Ġp ress
C o
Ġv irtual
Ġam ount
t im
ession al
Ġthe ory
S D
Ġex ception
S cript
ST R
ĠS m
Ġc irc
b olds
Ġep is
group Id
{ {
to ken
S earch
lic e
Ġsat isf
IG N
Ġbe com
st ant
icro soft
20 22
s ign
n ab
Ġappro ach
h an
Ġfre qu
="../../../../ ../../
D irect
ĠS ub
con f
ĠC reate
L iving
O ption
ag ing
Ġobtain ed
ab s
bo ot
à ¤
ĠGener al
Ġsol ution
Un it
c a
ug e
âĢ ¦
Ġs m
Ġl iter
Ġstud ents
Ġsub ject
Ġat tribute
ĠR oy
Ġrem ove
s v
Ġt im
od ed
Ġs s
Ġoper ator
Ġv ector
R el
Ġbeh av
199 8
ri ef
H ash
ynam ic
Ġg round
ms g
Ġwe bs
Pos ition
Ġem ploy
sp lit
Ġen vironment
Ġ> =
y a
d ated
D ocument
Ġreg ular
Ġobject s
Ġit er
ĠD em
Ġ* )
and s
I F
Ġd ensity
Ġpolit ical
5 7
un n
i os
b ert
ir cle
R L
ank s
Ġs old
Ġhe alth
Ġestab lish
Ġcorrespond ing
en v
ĠS um
gr ad
model s
app a
IZ E
Ġo thers
d evice
ĠL et
S H
ot ed
ri a
Ġd evice
un t
& #
AR T
r d
C opy
Ġp ast
ach ine
Ġb ig
bolds ymbol
En c
P tr
Ġbel iev
Ġw est
Ġf em
L ambda
tain s
Ġf ather
Ġk ind
u a
ers hip
Ġh om
c i
Set tings
Ġ" \
a ur
Ġd oc
ul ated
E CT
S im
st ack
Ġe con
Ġdes cription
ag ment
ĠM al
Ġl ive
ĠA pp
styles heet
}} $
Ġg ot
ĠS ee
ad ian
Ġc apt
Ġm er
F O
in ternal
Ġcomp os
ho od
9 8
Ġannoun ced
Ġpartic ip
COL OR
ĠCh urch
ĠB el
ĠD i
ĠA nt
d ebug
S O
Ġf all
Ġp ur
ĠD on
u it
ĠF rom
Im pl
Ġcom e
Ġrun ning
im ated
Ġre ason
it te
Ġparam s
Ġfa iled
O p
c ert
Ġdef ine
m ing
ell ing
Loc al
ĠP al
ile s
Ġre ally
Ġpro p
Ġrel ated
Ġl ittle
fr ak
Ġre nder
S ession
ro te
ĠG overn
Ġcomple te
Ġreport ed
Ġb en
tt ps
Ġbro ad
Ġover ride
ub e
z er
Ġj o
ir it
Ġhand le
cit ep
Ġst ar
Ġp adding
ip al
n ected
Ġas k
Ġ ~
b efore
ion al
e al
F ont
id a
stit ute
M enu
mod al
Ġm ale
As ync
ĠF l
im ages
anc ed
Rec ord
at ives
tr ies
ĠCoun cil
ain ts
5 6
" ));
ast ic
Col lection
T I
Ex pression
PE CT
L I
Ġe val
Ġfil ename
Ġto ol
Pro t
Ġ ;
Ġ[ '
Ġs ays
B l
Ġ ill
Ġf ig
d rop
ur i
if orm
b order
Ġa ward
Ġen ough
Ġind ependent
it ude
ct or
n ap
Ġa chiev
Ch ange
Ġp rior
OR T
ĠSt reet
Ph i
Ġe ast
ar io
ĠG erm
at ory
St at
ut or
Ġtem per
Ġsol id
: (
Ġx ml
ĠA ward
an ies
Ġh ttps
se cond
qu are
Pro perties
ĉĉ Ċ
ĠEurope an
Ġent ire
Ġex ists
ĠP aul
Ġacc ording
4 3
Ġset s
h ash
ĠCan ada
D D
L e
================ ================
K ind
Ġrespect ively
Ġconfig uration
ĠFr ance
ont al
urs or
Ġcl os
ache s
C P
Ġbg color
Ġinclud es
f s
ĠJ ames
Pro ject
ĠEx ception
Int eger
ag on
Ġem pty
ag o
a a
ĠS en
und er
'] ,
E Q
it ing
U B
c p
Ġcert ain
d ot
ark s
S chema
ĠTh om
. )
l n
Ġpop ular
m box
AL L
Ġpart y
Th ere
Ġt ree
nab la
ict ure
u z
Nav Bar
Ġresp ons
Ġmark et
lang uage
T ER
ĠN S
ateg y
ach ing
Ġcurrent ly
text it
Tr ack
Ġd raw
C an
O M
a uth
Ġcon v
Ġdet ails
ĠO lymp
c ard
ĠDav id
ĠRob ert
= {
Ġaut om
Ġdeath s
Ġp ack
Ġs cope
ad o
P o
Ġex cept
4 1
ĠO ut
wh ich
il m
Ġh old
Ġth us
iction ary
Ġch annel
ma ke
f g
ĠM od
erv e
() :
Ġcor rect
d elete
Ġch o
Y ou
Ġpres ident
s ystem
o ch
V ert
% %
ld ots
Ġe lection
Ġr ather
AC K
M on
i ation
un ity
Ġsupport ed
ix t
k ind
w est
math frak
h r
ra z
Ġnec ess
Ġint egr
Oper ation
ĠM ore
Ġarg uments
w s
ug ins
Ġro ad
k appa
g n
Ġwh ite
Ġb ar
j oin
ol ume
Ġequ al
ru pt
199 6
ĠC r
ĠR ich
199 7
om y
ĠR oman
Ġsom ething
Par ser
C al
us es
Hel per
D ir
AT A
en a
Ġright s
we ight
ĠN e
5 8
p op
Ġwork ed
Ġc ut
Ġrec ogn
ĠAr my
ERR OR
s in
7 6
ĠM et
ang es
ber g
ĠS ervice
198 0
Ġph ase
struct or
ĠE rr
Ġt reat
re nder
an i
N ames
Ġfor ce
Ġm id
Ġl ost
Ġreg ister
d est
u ous
am s
as ons
Ġwh ose
Ġtem plate
m ode
Ġpos itive
\ %
oriz ontal
ĠTh at
Ġallow ed
o om
Ġsequ ence
s y
trans form
ĠO pen
add ress
V ari
ens ive
at io
Ġchar acters
c opy
Ġare as
ĠCent er
Refer ence
( :
Ġz ero
err y
} )$
V ector
Ġst age
B A
c irc
I ter
en ed
inter face
ĠC heck
Ġline ar
ot imes
H O
IN E
Ġus es
D own
Ġs ure
tr ack
c ustom
g reg
Ġy et
Ġb i
d at
c os
ple te
F alse
Ġfr ont
Ġto ken
ĠT O
eleg ate
_ ;
C R
Ġin flu
Ġund efined
an ia
d i
b and
ri an
Ġap plic
in ated
Ġhas h
Ġwebs ite
St ore
i us
to String
In st
Ġcon str
itt ing
Ġperform ed
Ġneed ed
ĠGe orge
ĠSt ud
ex port
b ra
ĠU s
ĠB uild
M atch
Hand le
ĠD E
ou thern
Ġgener ated
Ġap i
f ill
ick et
C A
wo od
Ġm akes
yn ch
P ass
Ġpat tern
out e
Ġin fo
Ġcl osed
Ġpass ed
it ar
Param eters
h i
doc s
( -
P ost
ĠB G
Ġm anag
ĠT ime
ail way
Ġw rote
Ġmem ory
Ġm ilitary
ĠL aw
Ġs end
s end
v ille
ic ons
ĠO R
j o
ĠCh ina
ic ult
? :
Ġarg ument
Ġvari able
Ġro t
omet ry
5 9
ĠAss ociation
8 9
D o
ol ic
ĠS ince
ĠEX PECT
as ic
Ġdevelop ed
Ġdist ance
v as
Ġs ession
\ |
Ġs witch
Ġdoes n
eg ment
M ult
L eft
S k
ĠBl ack
og gle
equ al
T im
Ġf ire
Ġm oment
equ als
w idget
Ġcomple ted
G ET
t hen
Ġv iol
{ }
P R
sub set
Ġim prov
Or der
Ġ( '
ri p
Ġex pression
W hen
z on
Ġst ore
=" /
j ust
ĠAr ch
ĠW ork
Ġsur face
Ġde al
25 5
( *
d s
Ġse lection
Th at
, -
Ġset ting
and er
non umber
Ġrel ative
Ġits elf
c at
ĠS T
r ange
Ġpol icy
G o
ĠT V
ut ive
H ost
ul ly
j ection
by te
d irect
fo o
R ight
re a
R ender
urre n
Ġcon tract
Ġlead ing
M O
Ġpolit ic
Ġf lo
ud d
Ġpart s
h ad
Ġc andid
atas et
g in
Ġc ast
c ial
Ġapp oint
B O
S ign
-- -
iss ions
Ġal t
ind ing
199 5
Ġm ot
ĠUn ion
ree k
st on
ĠĠĠĠĠĠĠĠĠĠĠĠĠĠĠĠ ĠĠĠĠ
c ur
ash ington
Ġwrit ing
E v
In valid
v m
ĠM art
A pi
ann er
Ġun ique
cri be
enc ed
ĠP e
F ig
ot es
S L
re q
Ġinv oke
Ġn amespace
ynt ax
Ġcour se
Ġj av
Ġf ixed
he st
' re
& &
c ing
oc al
or ing
ang er
## #
Tem plate
is k
Ġp ers
im ately
Ġqu al
n ormal
Ġopen ed
Ġso ftware
itte e
Ġs creen
ĠAr g
Ġarch itect
St ack
m ission
c lick
m ore
ä ¸
it ch
R ect
hand le
Ð »
Ġwe ight
param eter
pl ugin
C ore
ac cess
erv ed
ant ic
med ia
not e
Ġcon struction
ex ception
Ġv ers
Ġr ank
proto buf
led ge
ick er
$ (
erv ices
o e
foot er
Ġchang ed
Ġjo ined
v ector
ĠL ou
t ion
D ebug
Ġex act
ul ations
f ony
in i
T ool
ĠGerm any
Ġal most
Ġt en
Ġth ings
Ġd ig
Ġequ ation
ĠM ap
h over
Ex p
Ġh on
Ġf av
H as
Ġprov ides
a fter
Ġmult i
5 1
s uccess
} -
ess or
ĠH all
He ad
ĠC ON
s cal
x is
ĠU K
Ġw ord
Ġoper ations
Ġpar se
Ġcon tr
Ġro ck
Met adata
om s
L ong
Ġmax imum
ĠA ng
Ġdirect or
end ar
D evice
o ader
ĠM ount
> ();
Ġgo al
197 0
C S
Ġsign ed
ym fony
Ġoff ic
Ġby te
ĠBG COLOR
R A
U se
ĠPro v
a o
Ġpro posed
S igma
est amp
ĠTr ue
str ict
t ypes
ĠM ag
D IR
as c
w id
Ġdeg ree
Ġne igh
D om
g lobal
Ġeduc ation
an o
Ġcon duct
ig en
199 4
OR D
ĠDiv ision
Ġlarg er
}} {
am era
web kit
R ev
Ġr ule
Ġal gorithm
H ow
Ġdirect ly
ĠS ome
ĠRoy al
M M
oun ter
ĠL em
ĠCour t
5 4
ĠM usic
Test s
ugh ter
/ \
N et
Ġm arried
Ġiss ue
Val ues
m es
u ate
ĠF orm
ar ter
str y
Arg s
Ġd elete
AN D
| |
Ass ert
Ġmon ths
ĠD irect
s ite
Ġth ought
Ġs cript
N on
{ -
s ession
M ar
Ġact ual
ound ation
ĠR oad
Ġed ge
Ġ ign
Ġteam s
Ġc ache
Ġcre d
ĠO per
D F
cl oud
T itle
Ġcontain er
Ġg re
D raw
Ġtrans fer
ĠB ase
Re ader
v irtual
t ic
="../../ ../
Ġdef e
Ġle arn
Ġcl uster
p ite
boot strap
100 0
annot ation
Ġin c
Ġt akes
ĠP re
Ġv ict
\ "
e in
Ġs ort
Ø §
Ġn ight
ar p
ĠP ublic
Ġreg ard
Ġpro of
ins ert
s ort
Ob j
Ġwrit er
ro s
ĠE nd
pr ime
199 2
-------------------------------- --------------------------------
ĠDep artment
8 2
By tes
ĠM or
g u
V er
Ġpr imary
Ġcomp ar
Ġd irection
ex ports
liam ent
5 2
Ġsong s
Ġn atural
Ġt aking
ĠD ec
Ġcent ral
8 4
m id
com ponent
E M
ĠB er
Arg ument
S ION
set tings
dis abled
N um
ĠM ac
ĠS am
X X
Ġth read
ĠD ate
Ġcomp anies
Ġch urch
p g
ĠAustral ian
rom e
Ġe cho
con nect
ern el
ĠO b
Ġ} )
ou l
Ġquest ion
Ġcom ment
Ġprof essional
et ime
ag ram
ines e
S l
\ [
et t
d ots
p anel
S A
Ġw ait
frame work
Ġhe ader
ar ily
f n
Ġunder stand
Ġin line
b ound
sh ire
depend ency
; /
` .
Class es
SE T
Ġup on
ĠSe ction
y es
ill a
Ġcamp aign
Ġset t
Ġn odes
Ġwe b
D ep
ĠJ ack
Ġrelation ship
y r
Ġra ise
Ġr adio
ĠM ary
Ġcon nect
199 3
ip p
st ore
clud e
Ġs ymbol
Ġd atabase
eder al
ĠN ote
Ġneed s
Ġout side
Ġun signed
al a
c over
art s
Ġmon th
Ġw ords
ĠC re
at tribute
Ġo s
Result s
Ġl ove
ask et
center ing
oper ator
Ap plication
Ġfri end
` ,
ĠR E
P arent
ĠComp any
ed it
ĠB ay
f ree
ed ef
th m
re place
ĠC ap
Ġcontin ued
b on
ĠSc ott
Ġitem s
ĠM ex
ĠB ook
f ocus
Ġexper iment
I con
OR M
z a
bo olean
p ub
ĠW ashington
D oc
Ġnov el
Ġhim self
5 3
x x
Ġr ace
Ġper cent
se y
ro ad
ĠJ ust
Ġim ages
p adding
Ġk m
AT H
ĠC ons
est ival
act or
B ody
Ġdef inition
al ax
wid et
Ġde ep
Ġpre c
Ġfact or
Ġt our
pecial ly
-- >
ĠR un
Ġoff ice
u ated
Ġ+ +
Ġad ministr
3 00
on ic
M e
Ġdeb ut
Ġs il
up le
Ġintrodu ced
en um
ic ate
Ġplay ing
Ġvis it
sq l
M ock
W riter
ĠE q
U RE
ĠAc adem
ĠD uring
ĠD ay
b our
Des criptor
d el
Ġerr ors
rec ated
ĠIn stitute
Ġallow s
Ġset tings
ĠĠĠĠĠĠĠĠĠĠĠĠĠĠĠĠ ĠĠĠĠĠĠĠĠĠĠĠĠĠĠĠĠĠĠĠĠĠĠĠ
Ġf ight
Ð º
Ġexist ing
ĠF re
ĠV ir
aw s
l ap
Ġ& =
Ġt ro
ap plication
ĠFr anc
' .
I X
field s
tab ular
block List
ain e
all s
Ġf ace
Ġs ound
Bo olean
P T
Ġre v
ur a
ĠP ress
9 4
D elete
Ġm ar
wh ite
call back
7 2
a iled
ĠP y
Ġiss ues
TE ST
; <
En abled
Ġt alk
Ġpre dict
vent ion
F T
ĠM o
Ġdisc over
ify ing
Ġcon vert
D L
R oot
Ġal though
p df
ĠG reen
Ġa void
ed y
in line
d ouble
al led
Ġj son
Ġact ually
7 8
widet ilde
Ġme chan
umn i
4 00
} ]
Ġl ot
Ġby tes
w rit
all ow
ĠS ociety
Ġfollow ed
W E
ĠJ SON
O K
Ġnum bers
Ġobserv ed
ĠL eg
; \
By te
ĠNew s
Dec l
Ġequ ival
m aterial
Ġpl atform
Ġpr inc
ic ol
Ġrecord ed
Ġdirect ory
Ġass ist
Ġmiss ing
Ġp ackage
pl ing
Ġtr ansport
Ġtrans action
l as
at ively
Ġch all
Ġt ax
g raph
in ing
Ġab s
en ing
F L
ĠA lex
Ġother wise
Ġnew s
ĠCl ub
Ġeffect s
P S
199 1
Ġin side
Ġfe el
ĠG ames
h igh
st ep
ter m
equ iv
Ġdes igned
Ġtrans ition
Ġmod ern
ens us
Ġw ife
he lp
> .
Ġre qu
i pe
ĠM ath
Ġclass es
ail y
ĠI S
Ġf amil
re al
ĠP at
Ġ' /
Ġcom ponents
= #
Ġsec urity
Ġexp and
for ce
* )
ĠB est
ĠI O
ĠT ex
P L
Ġst re
air s
Ġnot e
Ġto day
St orage
Ġdom ain
Pol icy
Ġed itor
M y
Ġpro gress
Ġle arning
ann ing
ĠM at
ĠMich ael
atal og
A m
Ġco ordin
} "
Ġbut ton
P op
Ġun its
In s
G E
ĠIs land
ensure math
Ġconc ern
Ġspe ed
ynch ron
' ))
9 2
Ġrepresent ation
ĠC ong
Ġor igin
Ġdirect ed
ec k
M eta
ee k
Ġbeh ind
th at
9 3
ill ing
Ġus ually
Ġwho le
reg ister
Ġd am
R ed
Ġn or
Ġlong er
pr ing
r ule
Ġgiv es
Ġb ad
ĠT able
Ġm ount
' >
con nection
ĠWh ile
w in
ĠE v
6 8
Ġ{ };
Ġincre ase
ĠM iss
ĠĠĠĠĠĠ Ċ
T e
9 1
y e
ĠT ur
m ock
F C
st ar
Ġc ref
av ed
ip s
ĠDem ocr
ĠH el
Ġfin ished
p ers
L java
Ġapp ly
ĠT own
Ġup per
por ary
ĠV er
D i
Ġform ed
Ġanal y
r um
ult ural
f il
ĠN ame
Ġn u
ra el
im s
ĠL O
E l
CT ION
Ġs us
ĠD et
ĠM em
Ġim medi
ĠY ear
ĠHT ML
ĠAfr ica
Ġext ension
Def inition
sum er
Ġus ers
Ġt ell
C lick
ri al
ĠO ther
h s
leg al
ĠH en
Ġl iving
Ġm anager
m en
f ull
Ġm other
est ed
W rap
ĠM ad
P A
ĠIt al
Ġlarg est
M D
Ġj oin
ĠĠĠĠĠĠĠĠĠĠĠĠĠĠĠĠ ĠĠ
Ġdiff icult
m as
Ġpresent ed
D ialog
Ġat tr
Ġinv olved
anc ial
ĠErr or
ĠAs sembly
Ġn et
Sec urity
c ategory
Ġm sg
ĠA L
Ġassert Equals
Ġ< =
ĠF ield
ed ge
ul ate
R equ
ĠKing dom
ĠM er
H P
ĠCent ral
Ġexper ience
Ġsh ape
net ic
pass word
ĠC ath
ĠCan adian
ĠAfr ican
Ġappe ared
Ġread ing
Ġproble ms
P ackage
Ġsign al
ĠA ut
rom ise
a res
oc ity
Ġpro te
clus ion
il i
FA ULT
M sg
is ation
} +
M ark
Ġd imension
com ment
Ġp ick
ly ph
Ġh it
Ġeff ort
\ {
Ġfinal ly
J ob
ĠT om
Ġal tern
Ġapp lied
uck et
ĠThom as
EX T
C re
X ml
ĠS l
ĠJ er
Ġacc ur
Ġj ud
sh ape
av er
ĠV alue
iz ations
osp ital
Ġstud ies
196 0
Ġs ex
Ġn om
Ġsym met
Ġschool s
nap sh
EN D
Ġlik ely
em ail
Ġg ave
Ġbo ard
Ġfor ward
Que ue
w ell
\ ]
Ġvari ables
ĠRe ad
y per
ad min
Ch anged
Ġl ibrary
Ġwh y
Field s
Ġthrough out
] ]
Ġst ack
key word
in ct
ĠG old
co in
i ences
aut o
ĠJ ew
sh ort
S o
g an
T ab
Ġsub s
ĠS al
Ġcomp ared
Ġre ve
ĠM ethod
ict or
TE D
pl ugins
or se
ĠĠĠĠĠĠĠĠĠĠĠĠĠĠĠĠ ĠĠĠĠĠĠĠĠĠ
el t
ĠWh ite
Ġe ight
Ġmat ches
P RE
ĠAcc ording
Ġs ources
ĠC he
ir l
wit ter
D atabase
Ġth erefore
t oggle
__ (
h older
Con st
Ġpol ice
ov ers
ind ent
Ġtemper ature
Ġy ield
198 9
Ġcou ple
pro x
Ġcontain ing
y ing
ple ments
Ġbehav ior
; "
E ach
Ġm oney
ĠM useum
key s
SS ERT
om a
AG E
se m
al ysis
uf act
Ġstart ing
Ġr ules
Trans action
ĠReg ister
6 3
A c
Ġprevious ly
ac ement
P si
Ġrepl aced
Ġbir th
ĠGr and
G B
ĠT or
Ġalbum s
ĠE ar
ele ction
} =\
o res
Ġst ars
on str
Ġg as
c md
Ġvol ume
et te
Ġh ous
$ )
in itial
ĠU ser
Ġbook s
duc ation
id ers
ĠH istor
Ġlay er
had oop
Ġdescri be
le v
Ġes pecially
item s
print f
ĠL ong
ĠM ont
Ġim m
os en
Act ive
ĠO ver
Ġl i
6 2
ge bra
\ !
id ents
Ġepis ode
c ar
IT Y
Ġan g
R ule
add r
asket ball
Ġser ial
z eta
Ġperson al
Ġ" /
Ġm anagement
Ġn ative
ĠU se
it a
6 1
Ġv el
ourn ament
Ġex tra
Ġ$ {
ĠP ost
Ñ ĥ
Ġopt im
Ġbas is
Ġf ood
ĠJapan ese
Ġs ens
Ġdistrib uted
Ġm ention
Ġcont act
L S
Ġjav ax
Dis play
un signed
Ġpl aces
") ]
In itial
Ġm atter
us ion
at ur
N etwork
Ġpro file
Ġindu stry
az ine
ĠChrist ian
Ġrem oved
Act ivity
ip eline
ĠD el
ub y
c pp
J ECT
el ves
ĠB en
ock er
M an
Ġm us
Ġor d
ĠMin ister
S end
Ã §
Ġsub sequ
ĠRes earch
ĠRuss ian
198 8
Ġw alk
ign ment
FI LE
omet imes
if est
ĠGo ogle
az z
Ġro ute
Ġc ause
k i
ĠC O
her it
ĠRec ords
ĠTe chn
Ġqu ick
Ġfin ite
mer cial
Ext ension
ans ion
Time out
R I
co q
ĠTex as
alle l
ĠP o
Ġe lected
ĠG od
ĠSc ience
8 3
pro duct
S cope
rec ord
Ġ ),
eth er
ĠAcadem y
Ġh tml
ĠS ing
ĠK ey
n ov
Ġsc en
S he
bed d
8 1
ĠWest ern
Ġc op
An y
Ġle ague
th read
J SON
R et
p ool
T C
W S
CH E
l am
Sh ow
) =\
Acc ount
Ġin j
Ġcon ver
Ġphys ical
ĠN OT
Ġfound ed
ĠU RL
ol ver
ĠM us
Ġon line
th let
ang uage
Ġfl ag
agn ost
om orph
Ġdest roy
Ġcour t
Id ent
st at
D ist
ĠZ eal
S w
ist an
M ain
A tt
ĠSup er
Ġpart ial
m argin
ĠCh inese
Ġint eger
al ed
Ġassum e
Ġ( *
Ġsc ore
r ong
Ġs aw
inst all
VER SION
Ġnecess ary
ĠIn c
Ġrel ig
HT ML
ĠD an
ĠVir gin
Ġres ources
es h
Ġl oop
Ġex hib
ĠG reat
Ġp ain
ĠCar ol
ut ing
ĠF ore
N E
Ġst e
ix el
7 4
Ġj ournal
ig hest
Ġro om
ind er
k m
ĠDef ault
re land
N ote
ĠZeal and
Ġa uth
Ġw allet
Ġs ports
Ġfor ces
j a
ĠLou is
s che
KE Y
re lation
Ġtest s
ĠSm ith
Ġsmall er
Ġto wards
at re
Ġda ughter
is ions
ul er
) /
Ġ ir
ing u
W idget
Ġk illed
Ġcon cept
Ġconst it
C ustom
put e
Ġquant um
Ġet c
ĠPro ject
ro t
) ^{
r adius
Ġrun s
Ġd b
ĠK e
F il
Ġimp act
Ġprob ability
sol ute
n ames
ixt ure
Ġw rap
Ġdiffer ence
ĠE vent
Ġh ot
n one
T S
Ġ Î
ie ce
Ġcom es
S um
Ġcoun tries
ol ar
ĠItal ian
ĠF e
Ġ ess
ver y
S ince
Ġv eh
7 9
Ġappoint ed
k er
ĠFranc is
ue st
Ġh olds
Ġl ock
Ġc ore
Ġ er
P ool
ĠChar les
ĠSum mer
Ġh ours
b ot
mod ules
im pl
Ġimplement ation
ann ed
Ġart icle
l ers
Ch annel
Ed it
ill er
l ines
Ġm ock
ĠSc ot
Ġstr ict
V ar
Ġgener ate
Ġeffect ive
Ġgu itar
N A
res ents
reg ion
16 0
198 7
Ġide a
pr imary
line ar
el li
Ġcol lect
at ically
! [
Ġa ud
{ (
le ep
Ġlist ed
M ember
evelop ment
h ing
N ow
ĠK ore
ĠV AL
Ġm iddle
7 3
Ġb ottom
g s
Ġad apt
Ġse ven
Ġlevel s
Ġhand ler
irc raft
=" "
at in
S ymfony
ĠS ur
du le
Ġco ach
L ock
Ġbecom es
B R
Ã³ n
G S
ĠH and
if ies
) }\
Ġst aff
6 9
Str uct
tt y
Ġsh are
lem ma
ĠH istory
( !
sp ring
ĠThe orem
k r
Ġdem onstr
re y
n umer
ĠĠĠĠĠĠĠĠĠĠĠĠĠĠĠĠ ĠĠĠĠĠĠĠĠ
ĠF lor
ĠFig ure
B S
~~ ~~
Ġinstance of
in v
c up
Ġst ri
Ġfootball ers
Ġso on
D I
Ġsur v
ĉĉĉ Ċ
Ġc he
Ġb all
gr id
Ġcoun ter
set s
ol k
ag ger
Ar t
er ies
lo od
vari ant
ĠR el
[ :
Ġdec ision
k y
st op
. *
ĠF inal
ent er
Ġcon sole
is l
Ġt it
result s
ĠF ootball
Fl ags
app ed
Ġex plicit
On ly
@ "
ĠL android
D A
Ġd ro
() ));
P AR
re me
ĠFr ank
ĠOr der
p are
ic i
d en
Ġsim ply
c ut
Ġs en
25 6
ev ents
Ġbuild ings
en umer
Ġbeg in
Ġre ached
Ġdid n
7 1
^ +
import ant
st ats
Ġre pe
all oc
not ation
in et
In it
se ct
Ġinvest ig
text width
ĠSe cond
or ation
_ ,
TE X
cd ots
Ġbeg inning
Med ia
Ġ â
Ġbel ong
im ents
m ove
ang o
=" ">
==== ==
Ġinst it
tx t
ĠJ ose
anc el
s ample
. ~
_ ->
ook ie
Se cond
m aster
m itted
Ġpl ant
pro perties
198 6
form s
li ance
//////////////// ////////////////
Window s
Ġcle an
E C
P erm
Log ger
Ġb tn
f aces
hent ication
Ev ents
Des c
Ġear lier
r or
pp ed
S ymbol
ĠP eter
ĠF alse
os ing
)) )
ĠM odel
198 4
Ġincre asing
M ENT
p resent
Sup port
k g
Ġbound ary
Ġfem ale
th rows
ol f
"> &
Ġmin utes
Ġben ef
Ġf it
Ð° Ð
} :
ann els
ific ations
Y ear
Ġte ach
ur t
Ġcon nected
ous ly
N N
anc y
Ġqu ality
ass ets
Ġkey s
ĠP ri
Ġstat ement
ad s
Iter ator
Ġtr ain
he ast
point s
AD D
ut f
ev e
Ġd ynam
ĠB ig
all ery
Ġt err
Ġc ivil
) "
Ġal umni
Ġs ave
Ġlim ited
ele br
or ter
ĠW hat
sc roll
=" @
x space
Ġd ark
en ge
Ġg old
Ġbr ing
Con str
am i
Ġstruct ures
v ed
LO G
Mem bers
arg ument
Ġsp in
A uth
ĠT ext
B it
Ġent ity
mo oth
Ġp y
r b
ĠTh us
Ġ% }
d imension
ic ated
W hat
ĠPar is
ĠA v
Ġch ain
Ġgr ant
Ġs ense
Ġrepresent ed
j query
ĠF in
ĠC opy
ĠOlymp ics
U ID
d im
Ġg alax
G raph
ic ago
Ġto ld
198 5
ang ular
P erson
ĠT em
b i
a ud
Ã ¨
Pro p
ĠT im
ĠL ake
C le
Ġun known
} |
rel ated
}_ \
ĠIs rael
Ġ[ ];
N G
Ġpro per
ac c
drop down
= >
Ġe lem
s ave
Ġfe ed
wide hat
() {
T V
Ġtr avel
}^ \
Ġelect ron
f amily
ĠFor ce
ĠHe alth
sup er
du ction
s chema
Ex pr
ĠM el
resh old
) -
Direct ory
ĠRich ard
Con f
ĠH ill
Ġst ated
Ġfor ms
q quad
Ġs low
Ġw oman
Ġproduct s
p ay
Ġw atch
h av
ĠB ill
ĠC all
Ġ ensure
ĠM ass
e es
n ce
Pro xy
fl ags
T ABLE
sh all
Ġtechn ology
Ġev idence
Ġ icon
ollow ing
Ġinter pre
() ).
)) );
sh ift
pe ed
Ġart ists
Ġat tributes
Ġf ast
ĠCath olic
ĠN ow
Ġpl aced
Back ground
L oader
pe ople
By Id
R est
m i
ĠSh ow
Ġprob ably
math sf
t ip
ĠI P
A v
wh ile
ĠO ption
Ġrem ains
d x
P ORT
Item s
Ġcall s
cre te
S U
ir ing
p ri
ĠR ock
and ra
Not Null
ell a
os itory
Ġv oc
Ġp aint
ĠĠĠĠĠĠĠĠĠĠĠĠĠĠĠĠ ĠĠĠĠĠĠ
se lected
ĠM ax
assert Equal
Ġsh ared
napsh ot
cont roller
Re ce
Ġbroad cast
e ch
AR Y
Ġin cor
Ġhe l
Ġpract ice
assert Equals
AC E
op ed
ĠPro f
at o
ĠComm ission
Run time
Ġpre vent
Ġevent ually
In ternal
Ġcap ital
ĠW omen
li e
Ġpe ak
Ġc ulture
pro file
Ġch arg
ig an
ect ors
MA X
ĠT HE
F loat
ĠC amp
= (
O ther
tern et
ev en
con trib
Ġact ivity
Ġpo inter
Ġth ing
] :
Ġ\ {
Ġins ert
}) \
Ġal loc
Ġrequ ires
ĠM il
F R
En um
ant a
Ġch oice
Ġd u
-> _
raz il
w ar
D S
F ound
Ġst ations
f ore
Ġc ategory
B efore
ing er
Ġf un
ĠV ictor
Ġd ed
ĠD u
Ġsec ret
ĠL os
Select or
Ġart ist
_ (
g it
Ġrece ive
} </
Ġrem ain
Ġl ack
Ġan sw
Ġbro ther
Ġa wait
ĠL ine
ĠN O
f ect
ut ch
}^{ (
Ġnot hing
C I
ĠI reland
P ATH
S IZE
b ul
. __
Ġp urch
Ġle ader
O wn
ĠAn n
n etwork
: #
Ġoriginal ly
i h
Ġc ard
g a
sec urity
Ġh ighest
Ä ģ
Ġinv olv
Lay er
al ance
ĠIn st
ig er
Ġb ank
Ed itor
ĠC ast
ĠI ll
}\ ,
Ġl o
re es
ut y
In v
Ġtr ansp
ĠA N
Con d
Ġsc ient
Ġcrit ical
'] )
type of
Ad apter
Ġf unc
el er
19 50
Ġsh ift
u an
198 3
F inal
Ġsp ent
Ġgener ally
ĠEng ine
it z
ĠGovern ment
ou b
k o
Ġp or
Ġdec ided
ĠF unction
ĠSt ar
Ġdo ing
Ġ io
ec ause
) ">
Ġmin imum
ĠN ode
ĠA ust
ĠGe org
j ob
At tributes
tain ed
ish op
Ġappe ars
Ġw ide
Ġs n
ĠT wo
ĠV ersion
L P
Ġbas ic
in y
com ponents
Ġchar ge
re v
ut er
ad y
Ġfin ish
org an
Ġd im
ple x
Ġmed al
ent al
Ġstud ied
m iss
Ġfour th
C lose
and a
I B
j i
To String
in ate
ĠP ub
Ġext ended
Ġrem aining
cit et
uss ian
Ġm ut
. '
ap prox
Ġocc up
Ġst orage
Ġresult ing
ar ian
ĠF oundation
Pl ugin
s creen
os h
ĠĠĠĠĠĠĠĠĠĠĠĠĠĠĠĠĠĠĠĠĠĠĠĠĠĠĠĠĠĠĠĠ ĠĠĠĠĠĠĠĠĠĠĠĠĠĠĠĠĠĠĠĠĠĠĠĠĠĠĠĠĠĠĠĠ
Ġin str
N e
i en
Par se
ĠV iew
Ġover all
or a
h old
Ġre comm
Ġf ully
Ġm unic
f ly
++ ;
Trans form
ress ion
ĠP lay
Fe ature
igr ation
Ġse em
def ined
Ġown er
ĠĠĠ Ċ
Ġrecord s
ĠI d
Aut o
k w
D el
ab it
ĠT ask
Mem ory
as y
ac count
Ġpre d
yl v
l imit
as er
ar ation
ens es
M atrix
des c
n el
Ġfamil ies
Ġde ad
Ġwe ak
Ġex port
eng ine
Ġn g
ç ļ
Ġbr anch
Ġreg ions
struct ure
Ġp anel
Ġneg ative
X ML
P anel
dom ain
m anager
NavBar Cell
ĠTO DO
c b
ĠW indow
id ay
Ġcompet ition
) ),
Ġ util
Ġbro ught
Ġin valid
Ġoption al
ploy ment
ĠT op
Ġ$ (\
Ġv s
198 2
ĠP an
ĠN etwork
= -
Ġm aster
cont in
P lay
ĠO f
h ouse
ĠO p
Ġbuild er
ra ction
' m
ĠC ode
Gener ic
Ġstre ng
F unc
M OD
Ñ ı
", "
c f
Ġex ternal
Ġh idden
Ġ" "
çļ Ħ
ĠSp anish
am ing
Ä ±
ĠN umber
Ġtr ade
log ger
ï ¼
}\ \
j ar
ĠM essage
res et
t ex
il s
[ $
Ġdeterm ine
ms elves
Ġas ync
Ġmean ing
Ġs plit
Ġdeterm ined
Ġill ustr
v a
P ack
ĠAl so
Ġpub lish
Ġdec re
Ġp ark
ick s
Ġl ib
ific ate
im a
Ġen abled
Ġbl ue
ir med
ĠF ilm
Ġ ip
Ġorgan ization
ĠL ife
ist ers
hand ler
bit r
er ial
ĠAr ts
af ety
Pr int
Ġmov ement
ĠSt ep
W A
L IC
Ġg un
Ġm ur
Ġb ur
Ġle ave
oc key
Ġ> >
os ph
ĠL and
Ġsol utions
ĠH ere
Ġrec over
e cho
Ġmin or
il ation
ro om
Ġf oot
197 9
Prot ocol
ĠP enn
Ġad opt
ĠIt s
Ġincre ased
ch annel
are t
Ġfig ure
Ġthe mselves
ĠFlor ida
e an
om ial
Ġcol lege
e ach
r ine
Ġuse ful
& =
ist ent
) ).
ĠCong ress
al i
iter ator
ĠLem ma
ĠIn itial
Ġrep resents
t otal
Ġr ap
Pro file
ĠVirgin ia
urren cy
b ad
urre d
ab ilities
RO M
Ġcrit ic
ĠD en
BU G
" `
id ae
Ġgrow th
ĠCol or
File s
CHE CK
ts d
Ġequival ent
Ġsc ience
Ġop port
Ġ{ '
h ome
ib ly
by tes
ĠComm ittee
Ġim plements
S QL
ĠPar liament
Ġask ed
ateg ories
Ġlook ing
Ġt ab
ov iet
v ant
Ġman ufact
met adata
ĠP eople
######## ########
Ġp ri
I MP
Ġst ay
Ġfeature d
Ġcom ing
Ġinter val
pon s
d ates
}} (
tr igger
ge les
ĠC D
sc r
in em
M ore
F IG
un ched
Ġg a
S R
ĠMex ico
Ġpro ced
s witch
s ur
UT F
n es
Ġget ting
Ġpres ence
Ġf n
Ġknow ledge
app ly
Ġrecent ly
R oute
Ġs ch
J ava
Ġstud ent
Ġrem ained
ĠS un
Ġ( _
ag er
Ġa ircraft
Ġn ature
ĠV is
b rowser
Ġr atio
Ġtrad itional
Ġgr and
ĠSw ed
h y
ĠHen ry
Ä ĩ
con tains
Ġenc oding
Ġp en
ĠSer ies
Ġre strict
ĠO ur
S ER
ĠCh icago
ĠV ol
Ġco eff
c ape
sub s
ed itor
pos itory
ĠUp date
S ection
ĠPro gram
Ġt ouch
f ort
ĠEx ec
ĠA ND
Po inter
Ġant i
Ġident ity
Ġs ometimes
Ġleg al
Ġl atter
h ol
d eg
$ /
h orizontal
gr ade
get Name
b es
ON E
at tributes
Ġre q
Ġgre ater
Not es
n orm
ential s
and ard
Ġatt ention
iver se
Ġth reat
S ocket
Ġopen ing
Ġsh ot
Ġcell s
t mp
ĠCon fig
Ġsepar ate
ĠIt aly
Ġ& \
com ing
Ġcom mercial
ĠM r
ĠIO Exception
pro ve
198 1
Ġm icro
ĠAn geles
Ġev olution
F ail
l g
Ġw aves
IT E
Ġpro ve
h idden
ir a
erv ation
on ym
Ġfin ancial
P attern
Ġme as
ĠU nder
St ep
E O
Reg ister
Ġca used
orn er
Ġprodu ce
ĠA R
ĠG en
à ¸
B rowser
get Element
M apping
P ay
Ġpass word
ĠS il
it o
u ilt
Ġa ctions
T erm
Ġup dated
{ {\
Ġinter view
ĠG l
Key s
| ^
ole c
eff ect
Ġhe art
Ġb re
Ġapprox imately
Ġun less
Ġqu ite
ov es
n odes
n amed
con s
D est
C ar
at ible
Ġaward ed
Ġimmedi ately
m utable
12 8
ĠG ame
oc ation
config uration
Ġeas y
Ġfrequ ency
ĠM ur
197 2
Ġ" <
Ġd ebug
ĠM ost
Ġsc ored
ĠSec ret
ot ic
Ġwant ed
tool s
33 33
Ġplay s
yd ro
Ġget s
D uration
Ġe arn
ed s
Ġcomput er
L a
b ing
Ġder ived
Ġab solute
Ġequ ations
w a
Ġ= ========
d p
t ely
', '
D ouble
n il
ex pr
Ġp ul
p refix
pos ite
ĠP et
ĠT imes
Ġapplic ations
ĠG ets
u ages
are a
Ġun ion
Ġequ ip
Ġappro pri
ĠJ ava
Vari able
] $
Ġdes c
}} {\
Ġex tract
! !
or al
ian a
Ġr isk
Ġm ind
Ġc elebr
n y
M C
Ġparticular ly
ĠF estival
Ġag ent
R AN
ĠBo ard
Ġm ix
ol a
Comm on
Gr id
Ġtreat ment
Ġsc ene
197 6
Ġblock s
ven ue
f it
IN FO
Ġframe work
S ync
ĠL in
Ġsche me
w er
Ġh um
Ġcons ists
amil ton
ex ists
f ail
Stat ement
I E
Ġprot ocol
ĠTe am
Ġfail ure
The n
Ġvis ible
Ġxml ns
Rep ository
ad or
Ġin ner
N ULL
E arly
tr iev
ĠRuss ia
C ap
ma zon
D C
Ġse ems
Ġc hem
ĠD om
P ublic
197 8
Ġb inary
s ys
> :
Const ants
S che
id x
build er
Ġmeet ing
Ġf ix
Ġmov ie
Ġm essages
o z
ĠG a
r ase
ex ternal
ook s
Ġm achine
Ġmet ric
Ġapp end
Ġany thing
ĠP aram
ĠO ld
c ircle
Ġem erg
Ġnot ed
Ġact or
h space
Select ed
Ġc it
ou ri
param eters
Ġch art
pl atform
F ull
Ġpolitic ian
Ġtrans l
ele ase
ĉĉĉĉ ĉĉĉĉĉ
IP T
} +\
Ġb rowser
ik i
197 4
Ġs egment
ĠT our
ĠScot land
ĠM P
Ġem ail
head ers
Ġne ut
ars ed
am m
Ġsh all
U LE
ĠTh erefore
Ġent er
At tr
in f
Ġm is
ch or
Ġcre ating
-------- ----
ser ial
y an
Ġsing er
Ġb attle
ĠĠĠĠĠĠĠĠĠĠĠĠĠĠĠĠ ĠĠĠĠĠĠĠĠĠĠ
ens ed
Ġre ach
f ound
Ġ" ,
Ġn orm
S Y
Ġproject s
} '
ĠMart in
Ġprogram s
prot ected
Gener ator
lap se
it able
ph one
par ser
Sc roll
Pro duct
i ro
ident ifier
Ġsur round
Ġdet ail
Ab stract
ĠĠĠĠĠĠĠĠĠĠĠĠĠĠĠĠ ĠĠĠĠĠĠĠĠĠĠĠĠĠ
Ġest im
ĠK ar
Ġp ool
Ġsum mer
are er
Ġt ournament
istr ation
the me
bl ack
Ġredu ced
ne q
ĠE ducation
Ġtyp ename
Ġsample s
ĠA tt
Ġ$ .
RE AD
Ġtry ing
am er
15 0
Ġr ad
' ll
Ġneigh bor
am ous
ĠE r
Ġcandid ate
Ġmed ical
Det ails
Ġf ish
test s
Ġin sp
se ud
li br
Ġon es
ĠO h
J ohn
T A
Ġset up
F ailed
Ġgo als
ĉ ĠĠĠĠĠ
Ġm ixed
O UT
S ingle
Eng ine
dimension al
Ġestablish ments
ĠAl though
ĠI l
fil ename
Ġvert ex
ĠChampionship s
at i
ov a
Ġsize of
197 5
197 7
Ġcontin uous
Eng lish
Ġr adi
al o
V ideo
Ġc tx
Go ogle
' ve
FF FF
ĠM a
Ġag o
Ġvari ety
Rem ove
r ift
Ġw inning
ar c
ian o
ro ke
cal led
ĠP oint
Ġdr iver
con n
D epend
k in
ĠS aint
ĠB O
er c
196 8
ST AT
sk i
} -\
sh adow
Ġ[ [
par a
p a
Ġg reen
Ġactiv ities
as hed
Ġdis e
Ġtest ing
Ex ample
Å ¡
ĠB ur
AL SE
G lobal
ĠD ev
H igh
M B
ĠS ocial
Col lections
Ġvel ocity
am el
H R
Ġ queue
Ġwrit ers
w riter
Ġpr im
ĠC le
F LA
ĠMed ia
if def
ac ro
Ġinst alled
Ġcon sum
j oy
prot ocol
y g
Ġwh om
S uccess
ĠK n
Ġ ul
ap os
ĠB re
r ate
C or
stit ution
Ġtype of
ĠS y
Ġden ote
Ġcoll abor
) }{
ri end
S cale
tab s
ĠE mp
ĠB rown
Ġfri ends
con struct
ev al
Ġexample s
ĠU N
L android
g reen
D on
Ġgo es
Ġent ered
Ġconstruct or
Ġclass ical
p an
Ġmag netic
ug by
A F
Ġab ility
Ġsecond s
m ut
Ġparent s
at ial
Ġb ul
child ren
Ġ- \
irt y
Ð ´
Ġun iform
j unit
Ġdiv ision
Cl uster
Ġj Query
Ġrel ations
197 3
Ġw id
iqu es
Ġd ataset
ĠM ain
Ġend ed
ĠA wards
S pace
dec l
av ity
wrap per
Ġweek s
typ edef
ĠL u
h ide
ĠL ibrary
Ġb us
Ġs light
=" ${
u ing
1 20
Ġpress ure
Ġeas ily
item ize
no indent
V M
g ame
ĠCarol ina
Ġvis ual
Ġch osen
{ $
sy ch
Ġp refer
Ġtr igger
Ident ifier
ĠP ac
ĠH ot
nav List
Ġturn ed
ed om
C ast
TI ME
ĠB razil
Ġd rop
str a
Ġb asketball
Ġmet adata
ff ff
( __
ĠK h
Ġprodu cer
P refix
Ġest imate
lo ok
the orem
ĠB ank
def inition
Ġhe avy
Ġcho ose
Ġhigh ly
Ġdep th
Ġr g
Ġfav or
Ġr aw
B P
ĠL i
Ġh yp
S equ
Pass word
ĠN avy
ro le
fr ont
Ġocc ur
. ");
is hes
Ġw or
Ġcomput e
pre v
riter ia
W orld
Ġnear ly
em on
Gener ated
: \
196 9
j e
Ġre ject
HT TP
Ġecon omic
Ġv an
b rief
Ġmov ing
ĠAt l
Ġcomple tely
Ġp ush
ell ig
pect s
Ġimp lies
prov ider
G u
un ct
web pack
um s
$ }
] \
orn ing
Ġp refix
own er
Ġpr ison
Ġa xis
ĠĠĠĠĠĠĠĠĠĠĠĠĠĠĠĠĠĠĠĠĠĠĠĠĠĠĠĠĠĠĠĠ ĠĠĠĠĠĠĠĠĠĠĠ
d ialog
ĠYou ng
Ġac adem
P y
CE SS
J S
Ġpl ot
ax is
) +
Ġfact ory
z z
ir ls
ad ium
Ag ent
$ _
ot ing
iz able
B E
Ġla unched
Ġen able
ĠInd ex
( {\
197 1
w an
pro ps
N OT
P i
Ġint eg
ap ers
in os
Ġ" -
Ã £
ĠDirect or
Ġh arm
Ġcap acity
ĠO l
err ors
() </
Ġsay ing
Ġfore ign
Reg ion
ĠM A
Ġvert ical
Ġd ir
Ġm ission
Ġsh oot
Ġagre ement
ak ers
tem p
Ġvers ions
Ġed ition
serv ices
ĠH ash
ĠS ol
IC E
å ı
g lyph
Ġgener ation
(' .
N odes
S ample
Ġ= ======
Ġab stract
s ingle
B ut
ĠS O
19 40
Ġw ave
O pt
F S
A uthor
ĠIr ish
enumer ate
Ġt x
Tr ace
Ġmajor ity
m ask
Ġse ek
ĠL ove
c ient
Ġold er
ĠH on
Ġst ra
bl ue
Ġest imated
ĠE ach
M at
Sim ple
D em
Com ment
Ġcompar ison
r ich
exec ute
C ert
Ġbeliev e
Ġdis k
as ion
z ero
Ġsup p
Ġw ood
ym met
}} }
j pg
ĠHT TP
Ġdr ug
) ->
ar ia
Ġrequest s
Ġmap s
ĠRe act
W R
Ġb rief
it ation
s pecial
Ġmost ly
? >
I ST
Ġs quare
\ ,\
Ġar bitr
Ġvoc als
D uring
Ġstr ategy
IN S
Ġfl ags
Ġco ast
Ġexp ansion
ĠCh ild
194 5
Com par
ĠE li
w ild
sequ ence
ĠJose ph
P layer
TEX T
Ġspect rum
Ġact ress
ent y
v space
O ST
ĠJ im
G en
IN D
Ġelect ric
col Last
z one
Ġph il
Ġpar ser
Ġsit uation
Style ID
ĠOn ly
UR I
Ġ[ "
> ::
t ags
Ġar m
oun try
Ġst eps
it ter
ip ality
Wrap per
P ub
M icrosoft
Ġ ],
Ġpo or
\ '
Ġre place
iter al
b al
ig a
b its
in ations
ĠRe quest
st one
ĠN AME
her ited
Reg istry
Ġre li
S ervices
ĠT ra
ext ension
t ical
Ġex c
k l
Ġ ..
ã Ģ
et ween
Ġse asons
Ġch ief
19 30
Ġv ote
ĠAr ab
Ġac quire
all classes
Ġk ing
ĠW ales
igh ter
R ole
Ġm otion
aj ax
">< !--
ĠC ross
Ġnav igation
ĠCh ief
ĠY our
und red
Ġ{ "
Ġr iver
Ġm ask
rib ution
Ġex am
ĠComm and
ĠJ ournal
ylv ania
Ġra ised
r f
ĠJ un
Ġchall eng
ind s
Ġw ays
Date Time
en abled
ĠP ass
ĠM os
ĠP op
is ms
pr ise
Ġinflu ence
ĠF ort
Ġal gebra
ĠG i
Ġident ified
Ġcomp are
o les
col First
ĠH ttp
Ġpre m
U D
ac le
M ay
Ġ _{
m aven
U SE
ĠS ir
196 7
; )
Ġem bedd
Ġstud io
i ate
ĠN av
Ġredu ce
det ail
f ixed
Ġmus ical
Ġre ct
ier arch
Ġappear ance
it ors
ĠVal ley
ĠEn ter
pos es
Ġdel ay
b el
Ġcre ation
Ð ²
eta iled
N amed
m atrix
ĠNor thern
ĠIr an
Ġthe me
L in
G ame
oth ing
ĠJ o
Ġr adius
The ta
Ġqu arter
Ġpur pose
s ymbol
ĠP ath
ĠB i
Ġlet ter
end or
Ġl ives
Ġpo et
: `
ĠInt eger
IV E
ĠOff ice
k ins
ĠB attle
Ar ch
ĠL ee
Ġexact ly
Ġm enu
LE CT
Ġis n
Ġpr ice
Ġtask s
Ġpr iv
ct rine
ĠT ri
Ġcar ry
C ategory
ow ers
ar ant
A CT
ele ted
on a
ĠM icrosoft
ĠA ction
Ġoper ators
ĠB ack
Ġdepend s
Ġdel iver
ĠSt art
ĠD evelopment
ĠII I
Ġstr ings
ĠTr ump
b as
m ann
Ġlate st
f d
r andom
st orage
ov ing
Ġres olution
ĠJ ud
Pro ps
r id
pro gress
Ġinterest ing
w ig
ĠProv ince
sp irit
ĠH amilton
ans as
it an
Ġv oice
Ġw rong
ff ect
mult icol
Ġmanag ed
Dom ain
j ango
ĠEx t
Ġst ories
Ġevery thing
N amespace
t ers
Ġass igned
Ġform ation
Ġ[ ],
ĠG ood
G R
w hen
Ġ que
ic ip
Ġsur vey
play er
Ġref lect
ĠH aw
d one
od ay
Ġagre ed
Ġla unch
Ġcall ing
Im port
col lapse
Ġj oint
ĠS pec
Ġmod ified
. <
det ails
res ources
19 64
am az
Ġquick ly
ast e
t or
Ġmention ed
cre d
RE S
p ower
ĠW ood
Ġgiv ing
S election
nd ef
Ġno ise
p u
col lection
ak a
Ġcent re
t body
Ġen v
comp iler
C red
ĠW ill
Ġre triev
Ġtr aff
Head ers
Ġrespons ible
C RE
Ġ? >
en ers
Ġis land
O B
ĠI E
Ġtime out
w all
ð Ł
Ġconstruct ed
ĠB ob
ĠIm age
Ġ( -
if fer
' $
ĠHistor ic
ĠP ak
" /
ud get
Ġlay out
multicol umn
Ġown ed
Ġ eth
we et
Hel p
ĠS oviet
Sh ape
Ġpl ane
Ġc lick
< !
ĠS und
' ));
che n
Ġs outhern
Ġim prove
Res ources
inn ers
iv ation
arri age
~ $
ach ment
ĠB usiness
Char acter
L en
Ġpos itions
ĠCol umb
ĠB ul
en able
sh ared
Ġpl ans
Ġresp ond
op l
Ġinitial ly
gener ated
Ġsign ature
Ġprocess es
) }$
ĠW al
Å į
Ġlog ger
Ġatt ended
Ġinter action
Pro gress
Ġstra ight
ĠR et
h om
Ġcon cent
Ġcont roller
os oph
Frame work
Ġhead ers
S M
Ġf arm
un ique
Ġrem ote
Ġm ill
Ġr an
or iginal
Ġconf lic
Ġlead s
Ġfore ach
log in
U ri
ĠF I
s ince
f ix
Ġch ampionship
Ġbe y
bo ost
sv g
Ġf if
Ġex it
Ġnew sp
Text ure
th row
en ant
Ġp ages
Ġsuff icient
ĠG al
Ġnor thern
v s
{ %
Ġdown load
at ers
cl aim
ograph ic
il ing
Ġsp read
ell o
Ġmag n
St ats
por ation
D T
H ER
n ers
olog ies
Ġcomb ined
ĠRev iew
ic ed
oc aml
Ã£ o
196 5
Ġliter ature
rior ity
ost on
ĠT ele
r ick
Ġf air
ĠĠĠĠĠĠĠĠĠĠĠĠĠĠĠĠ ĠĠĠĠĠĠĠĠĠĠĠĠ
Ġ\ |
; }
under line
Ġann ual
Ġse a
ay lor
Ġprot ect
ĠCopy right
ad ing
H ere
Ġsome one
ĠEmp ire
Ġaff ect
T x
ceed ed
el a
Ġfor ced
19 20
Ġmur der
ĠJ ac
Ġd raft
C areer
atri ate
ĠIn v
ĠW AR
user name
press ed
Ñ ĭ
B AR
in valid
196 6
Ġmatch ing
Ġt ensor
Ġbey ond
ell er
Ġsum mary
Ġtem p
__ __
Ġserv e
Ġhigh light
Ġdist inct
Ġs mooth
operator name
is c
Ġoffic er
if ically
s he
Ð ¼
Ñ Į
Ġcolumn s
Ġprocess ing
Ġf le
Ġpro xy
Î ¿
us ers
Ġan im
Ġs al
index Of
Ġc arried
Ġgr id
s ylvania
Ġon to
Ġc os
Ġarchitect ure
pro d
Ġ Å
ĠScott ish
H S
Î ±
L L
us band
ust rial
s afe
ĠE qu
Ġs ites
Ġsu c
Ġ Ø
Ġver ify
ard en
Ġappropri ate
sc ape
Ġsen ior
du led
ĠEar th
if iers
ap es
M T
st able
ĠE lement
ir al
N T
ĠU I
ĠLO G
Return s
Ġ ut
dep th
C F
Ġbecom ing
y er
h ar
ri ed
'] ['
Ġf ederal
Ġnetwork s
yn omial
clus ive
e er
Pro to
ate way
cl uster
Ġ{ {
Ġpre v
spring framework
d y
Ġdem and
ĠE lect
up lic
ex tern
ĠSp ain
Ġsk ip
ĠRes ult
ĠS ar
Wh ile
Ġo k
F urther
ou ter
cond ition
Ġcontr ast
z en
Ðµ Ð½
Ġar rest
Ġcl oud
fe ature
h ere
p icture
ĠT re
}} ,
Ġr ailway
R ob
u v
Ġco q
atic s
C G
Ġc li
test ing
Ġan gle
TR UE
Mult i
f ire
op es
clud ed
d em
(' /
Ġin fin
Ġsp aces
ĠM anagement
%% %%
p at
P P
Ġcomm ission
ĠM ult
Ġprov iding
v ideo
ĠDemocr atic
Ġin form
ang ing
e z
Ġmag azine
Ġwork ers
Ġe q
ĠCon ference
aw n
Ġre ports
Ġtyp ically
art icle
x s
Ġnull ptr
Ġocc urred
mult i
Ġ' <
as sembly
Tr ansport
up load
RE Q
x html
Ġcommun ities
g g
Ġc ensus
ĠP age
ĠL ab
as ync
re qu
ĠS pecial
Å Ĥ
time out
w p
Vis ible
Ġdes pite
Ġc ru
ĠĠĠĠĠĠĠĠĠĠĠĠĠĠĠĠ Ċ
Ġen joy
Ġshow ed
ĠR adio
Re port
k t
min us
VAL UE
Ġdev ices
ĠT H
Fil ms
S ql
p attern
ic ies
ĠH ome
Ġex change
^ -
P air
air man
Ġun cert
hen s
Ġdiscuss ed
PO ST
ĠL ord
Inter val
B ound
b ury
Ġl icense
D elegate
Ġtrack s
EE EE
ĠC ard
Ġh ope
cd n
ĠA SSERT
Sk ip
ĠH a
Ġl ived
ĠG reek
Ġper fect
rop y
Ġcover ed
ched uler
Con n
Ġquest ions
Ġre ader
En umer
ĠRes ource
require d
E V
ĠBl ue
ĠWindow s
n n
ivers al
se g
Ġdr ama
Ġchar set
ĠHe ad
et ic
ĠL ocal
iss ues
Ġlaw s
Ġess ential
ĠCent re
ad r
form ance
Ġnot ice
ĠComm on
m ond
pl us
n am
Ġindividual s
Id s
ag raph
at ar
S I
p icker
Ġcomp act
st ein
bl ank
numer us
ĠEx ample
Ġu i
numerus form
ĠBrit ain
ĠÂ £
Ġdep artment
ĠM en
Ġsuccessful ly
Ġa udio
Ġent ries
Ġf irm
Ġrefer red
Ġocc urs
w orld
Ġle aving
b g
s ocket
Ġh yper
Ġh ar
Ġread only
fl ag
py thon
g est
Ġad j
M ath
i ated
s el
pl ates
ĠR h
Ġtrans late
ĠArray List
il li
Ġbe aut
ell ar
D R
b en
ino is
ĠG re
Ġdig ital
Ġrele vant
ĠB lock
Ġobserv ations
um my
( @
ĠAn y
W N
Ġoff ers
Ġdefe ated
ĠF ree
T T
B i
mo z
ĠF ace
ĠJ ones
Ġexec ution
ĠThe ir
T wo
enn is
ib li
Ġd ict
sk y
T otal
Ġ ^
t k
Ġpl ugin
or ial
Ġsus p
anc er
cle an
ĠM ah
ĠV ector
(' #
Ġpartic le
Ġp an
Ġw ild
F ORM
Ġcal c
Sh ort
Ġfl ux
ĠP ower
ent h
in ant
u ations
ĠS outhern
Ġr ates
amaz on
Vert ex
F ind
ĠF urther
ĠAs ia
() ))
hes is
Ġl ab
Ġf ill
s a
re port
pt on
Ġal leg
Ġar my
f lex
k ens
ĠS ong
Ġnumer ous
Ġe lections
b ro
M I
Ġcur ve
Ġc md
B ind
check box
Ġst ored
W allet
Ġ ice
g ence
CT YPE
Ġcomm it
Ġse at
Ġlist ing
e a
iv ery
anc ing
ĠPenn sylvania
t c
DE FAULT
ĠC amb
ep er
ĠS QL
aw a
ab y
Ġen um
Ġhelp ed
ce an
Ġan imation
Ġn p
est er
n eg
Ġl ic
lo ader
Ġrelig ious
.. .</
Ġc ounty
Ġcomb ination
L anguage
Ġfact ors
medi ate
IG HT
s ch
print ln
LO CK
ME TH
res olve
ust ers
ĠM ake
US ER
S ome
Ġrepresent ing
l arge
V olume
ĠMich igan
Ġautom atically
z ure
il a
sw arm
p ull
ĠC ivil
Ġr ail
imit ive
Ġs ociety
ch ain
Ġsp an
"" "
ĠT R
eng er
Ġd at
Ġvict ory
Ġfore st
ew idth
ĠP rem
Ġl if
math scr
6 00
us et
pro xy
Ġmain ly
wild fly
option al
ĠIs lam
) {\
Ġser ious
196 3
R R
od s
196 2
Ġpat ients
r idge
up s
s pect
Ġconstr aints
Sum mary
h ref
Ġh usband
Ġsing les
text tt
Ġw all
ĠJohn son
ĠU kr
Ġview s
ĠM iddle
Ġadd ing
check ed
* {
Ġdi agram
12 3
ag ent
\ }$
Ġp ull
IT ION
Ġo il
Ġp ert
Cl oud
ĠL uc
il ly
r g
Ġth erm
Ġhe nce
Ġfl at
EEEE FF
Ġread y
Ġorder ed
l at
Ġdet ection
Ġn ine
Sub s
stand ing
group s
ul f
Ġro b
ilt ers
Ġth r
ĠM ajor
ul y
p et
M ask
Method s
pe ar
j d
DO CTYPE
=" $
Ġr u
Ġaccept ed
burg h
ult y
lim its
25 0
omet ric
Ġcit iz
gorith ms
Gener al
oper ation
Ġindic ates
Ġexec ute
ĠL com
pl ot
Ġcom ments
Com ple
EN SE
Ġt mp
End point
ĠE p
Acc ording
Ġdis abled
An imation
ĠWilliam s
Ġhistor ical
r ical
F low
Ġadv ant
Ġaltern ative
Ġoffer ed
t wo
ĠO x
Ġcontain ed
il arly
Ġf lex
f x
METH OD
ott ed
A rea
Ġa im
Ġp il
ĠD ocument
Ġrg ba
h aps
ĠQue en
I gn
Ġt or
ĠUS A
ID TH
ĠC EL
ph y
arri er
is er
Ġsp irit
ĠM i
in itions
Ġin come
ĠJer sey
urb an
Ġclaim ed
Ġed ges
ĠC ro
ĠIn put
ĠPac ific
Ġr ing
in ity
ĠF C
Ġass ign
Ġp p
M iss
P ER
ĠC a
N ational
iv ial
ĠSec urity
od d
% ,
Ġ ).
i ar
Ġm erg
Sequ ence
ĠB oth
}^{ -
gy pt
Ġre set
E ST
Ġac com
Ġpair s
em y
Ġcontrib ution
Ġp iece
Ġstart s
u ite
Ġm olec
Ä į
Ad min
Ġw orth
Ġ' ./
Ġdet ect
ĠR am
M ake
Ġrecord ing
Ġf ine
Ġconsist ent
VAL ID
(" /
Ġh ol
ay a
F in
Ġpart ies
Ġt rib
Ġlabel s
ĠOh io
ĠT ro
( .
ĠH am
OR TED
libr ary
align ed
V ID
MOD ULE
Fr agment
ĠCar l
' d
N ative
Ġre b
Ġ ];
ĠJew ish
L INE
lo op
Ġtool s
he tic
im inal
re act
ra wn
ĠW ay
M ouse
ash ion
Ġmet al
Ġtr a
Ġshow ing
Ġval ign
ST ATE
n ic
. ",
Ġexist ence
ĠÐ ¿
H ome
Ġtr ust
Ġpart ition
Ġd oub
Ġg uest
ur er
Ġs afe
ĠSt at
es ian
Ġm apping
Ġmeasure d
ĠA S
ys ical
ĠB ern
stru ctions
ad el
ĠL ink
und efined
ici ency
ĠB ow
Be an
on to
um es
Ġid x
Ġassert That
ĠM ov
ĠP RO
g oto
Ġe igen
Ġh undred
NavBar Font
ĠVal id
t f
Ã ±
Ġcol on
ro ute
Ġlead ers
< \
Ġdr ive
Ġm eta
O ur
ĠAN Y
ĠS ervices
Ġstat istics
r uby
and on
Id entity
w arning
Ġmaterial s
Element s
ful ly
s en
; ">
Ġgen us
Inst all
t ics
for ward
ĠSo ftware
alt y
Ġslight ly
ass andra
ist ence
The se
ĠTechn ology
Ġ\ "
foot note
em ic
d ig
uz z
Ġb ass
att ice
Not ification
Ġf amous
amp ions
Ġthe orem
A re
S erv
ĠRep resent
are n
How ever
Ġem b
ĠK ent
Ġsem i
ĠAs ian
cl one
Ġtraff ic
}} _
) |
ĠB as
Ġimplement ed
Ġmark ed
Ġexper iments
' ];
Ġpro ps
Ġregister ed
******************************** ********************************
ĠSt e
ĠD own
194 4
Ġexperiment al
Ġcalcul ated
Ġp i
P H
sim ple
u y
, '
Ġform ula
I A
if ndef
ĠC y
Us ers
n i
Ġem ission
P U
Ġdocument ation
go ing
not es
un a
uset ts
Ġf elt
Ġ rows
Ġin struction
ĠCo ast
ach usetts
ĠB oston
196 1
if i
Ġc ities
ĠW he
v c
SS L
Ġsignificant ly
Ġsc atter
Fl ag
ab eth
Ġrel atively
Ġb uf
Ġconcent r
run time
Ġcan cel
Ġf iction
con sole
ĠK r
ĠAnd roid
M er
Ġconnection s
g ers
Ġcomp osed
R PC
hel per
Ġsc roll
Ġorgan izations
G C
10 1
Ġlang uages
ĠEd ward
Ġserv ing
G O
{ "
Ġint ended
Ġun iversity
ĠIll inois
side bar
d iff
ĠS D
ic ine
Ġd uration
Child ren
com plete
Ġs ynt
qu is
r ad
Ġpartic les
ec es
Ġex pert
Ġsup ports
Ġoffic ers
pos s
Ġv ac
Ġr are
p erson
Ġs afety
Requ ired
ĠFrancis co
trans ition
Ġm d
App end
En vironment
Ġim ag
ck now
DE BUG
á ĥ
T ra
lo or
» ¿
D ay
ĠBo olean
Ġbr idge
Ġprop ag
ĠPro cess
Ġopt s
ĠOption al
ĠOr iginal
li k
8 00
ĠThe atre
ĠGeorg ia
Argument Exception
ĠS and
al g
anc ell
ur ies
Ġs quad
En ter
ĠPol and
Ġs chema
ĠA uthor
c atch
ï »¿
i Äĩ
E mail
Ġs ister
S ort
ĠSen ate
ĠG lobal
Ġaccur acy
b at
ix els
INT ER
b ut
" ],
ĠM any
support ed
ĠIn formation
Ġtri al
Ġro ll
ĠV an
an imation
down load
Ġc amera
Ġin tr
ĠAl bert
f c
ul ator
Ġform al
S cal
Ġn ation
l an
A ng
Ġen h
pl er
Ġarbitr ary
Ġat tract
N V
Ġpol y
Ġbr and
Ġansw er
Ġvert ices
ch a
Ġus age
Ġproced ure
Ġfe at
EL D
Sh ould
Ġdiscover ed
Ġ" $
Ġdis s
Ġassum ed
rodu ction
h u
Ġd ynamic
p res
Ġg irl
os a
epend ence
s b
Ġship s
Ġre asons
Ġor ient
ĠCol lection
Ġoper ating
Ġs ql
Ġincor por
lip se
St op
Ġ( $\
od ies
E q
Ġl at
Ġlist ener
Ġstreng th
o ir
ell s
Ġload ed
ed ia
n p
B rit
Ġpre p
F N
es ome
Ġmain tain
pl an
D ictionary
ĠH uman
as i
Ġas sembly
Ġhand s
sign ature
Ġl ies
195 6
/ _
ĠĠĠĠĠĠĠĠĠĠĠĠĠĠĠĠ ĠĠĠĠĠĠĠĠĠĠĠĠĠĠ
az y
' }
Ġz one
b old
Ġinst ances
Ġ( [
Ġh ospital
Ġindic ate
ĠSup port
RE G
Ġign ore
å Ī
Ø ±
ĠE ND
Ġdec om
Ġcoun cil
Ġb att
f i
Ġact ors
195 9
h ard
t ar
get Value
F UN
IO Exception
Q U
ess ions
se q
sc ss
word s
L imit
in ent
ĠR o
Ġpol ynomial
Ġal one
ĠReg ion
194 2
PRO JECT
it ness
Ġenc our
Ġ$ |
Ġga uge
Ġhapp y
Ġis ol
Ġeffort s
typ ename
lin ewidth
Ġf mt
am ps
ĠAir port
ĠW all
T ags
it age
Ġdise ase
pro du
ĠS IZE
Ġ il
dr iver
arn ings
Ġtechn iques
Ġoper ated
Ġle aves
at omic
Ġth ous
Ġpar allel
/ "
Ġcont em
m ouse
che ster
ĠL ie
p air
B B
al m
SC R
v in
L eg
ĠS ource
Ġcy cle
Ġm obile
Ġtransp arent
Ġconc ert
ĉĉĉĉĉ Ċ
Ġs ys
Ġprov ider
ist ance
el d
Ġregion al
ĠD aily
ĠK ong
Ġs eg
s lice
tr m
d agger
Ġall Classes
c uss
195 8
k et
Ġw inner
F E
Ġident ify
Ġgalax ies
ĠM id
Ġwest ern
ĠK en
Ġs ales
in herit
ĠW ater
Pro gram
Ġauth ors
s es
Ġcom edy
select or
ĠallClasses Link
Ġs ph
ĠN ight
ĠD utch
N ormal
Ġpolitic ians
S K
uck y
Ġext rem
Ġres olve
on ce
Ġdynam ics
Ġvalid ate
ĠA mazon
Ġtrans lation
Ġwe ap
Ġad just
ĠPhil ipp
ĠR ay
Ġcomput ed
og ram
ĠN AV
d c
con structor
P UT
æ ľ
av or
art ers
Ġd etailed
s n
18 0
ĠPl an
ĠJ on
al so
on ical
Ġel im
Ġb lood
Ġiss ued
} %
ĠPr ince
set up
con str
Ġallow ing
kw args
Ï Ħ
S ports
ĠW ild
En v
ĠL y
w atch
ĠBro ad
Ġmult ip
W arning
ap is
^ ^
194 8
Ġpro pos
Ġfootball er
Ġbeliev ed
pe at
ab out
Ġke pt
ĠL ight
ĠF ar
W rit
ĠM u
S creen
ot on
Ġs pl
ĠSt an
Ġ ens
Ġexpand ed
Ġmin im
G ER
D iv
Ġreve aled
Ġdep art
ac cept
Ġpre tty
Ġsett lement
ĠC ustom
Ġ\ ;
tex trm
ĉ ĠĠĠĠĠĠĠ
B est
ĠAnd rew
z ip
ĠE con
Ġflo or
tr ace
Ġad ult
Ġp lease
Ġmon itor
S V
W ORD
R C
ĠB it
Ġclass ification
B egin
ele m
ĠS oc
ĠA li
Ġp ure
Ġspec ify
y y
re lease
S ave
Ġhapp en
Ġtr ace
% "
F older
.... ....
ĠOff icial
Ġcont ents
Ġp le
Serial izer
be an
Ġconf irmed
ĠMass achusetts
ĠM ot
Ġc ultural
Ġsecond ary
R elease
ing ham
Ġdest ination
Ġr ac
t i
Ġc at
M usic
Ġse ctions
ĠJ r
ord ers
Ġch annels
ellig ence
Ġrap id
Ġloc ations
Ġ" ",
pol icy
m c
st o
Ġass ess
195 7
Ð° Ð½
Ġacquire d
% )
Ġ$\ {
ĠT aylor
vis ible
Input Stream
M ove
u um
ĠSecret ary
L ook
sh al
ver ter
19 39
Ġexpress ed
Un ited
Ġcorrespond s
Ġret ired
Ñģ ÑĤ
Ġselect or
CO MP
Un known
Ġshe ll
dest roy
}} _{
Ġf raction
er ence
N C
ĠW is
Ġs ector
mon th
m f
ch anged
Ġst able
v o
ĠGovern or
ĠB ad
Ġm useum
Ġgrow ing
opt s
Event Listener
ird s
ĠS i
194 1
ĠIn f
D b
Ġfr ag
Ġst ock
or ough
ĠAl b
ex pect
ĠS ign
valid ate
B atch
ĠJack son
co res
Ġprof essor
ĠA ff
Pr ivate
' \
L ower
Ġex tr
ic ans
Ġbound ed
ĠB ang
view s
ĠPort ug
B ook
Ġscal ar
plement ation
Ġrequest ed
plic ations
DE F
194 6
Ġd ual
eder ation
Ġpol ar
Ġepis odes
Dr iver
ic ients
ä »
ĠF our
M IN
() ),
ĠB ol
Ñ ĩ
Ġle tt
Ġb atch
Ġsymmet ry
Con stant
f actory
ĠL ittle
Us ing
W ait
195 5
Ġder iv
ĠSe a
Ġcapt ure
pect ive
_ );
ĠB BC
Valid ation
Ġeff icient
object s
ĠCont rol
r an
u ency
ĠComm unity
ĠCon f
b atch
ĠF ire
te en
subset eq
enn a
Ġart icles
ict ed
Ġcommun ication
Ġ_ ,
Ġattack s
" ].
ĠS om
B asic
ĠD ub
NS String
ir ror
ĠDes ign
Ġcon n
is Empty
h l
iber al
Ġdiscuss ion
Ġbound s
MO DE
ĠJ es
Al low
Ġfr agment
w ater
Ġassoci ation
Ġclub s
Ġclaim s
ĠEast ern
Ġp et
opl us
SE LECT
Ġtr ail
Ġh ydro
Ġb illion
exp and
Form s
Ù Ħ
Ġnear by
Ġ' ',
Ġag greg
194 3
ĠOr gan
f old
ition ally
f ast
D ATA
Ġm arriage
ĠM ock
ĠPol ice
Ġcon ference
Ġs b
Ġc ursor
Ġro les
ĠL java
Ġevery one
Ġpath s
Ġconduct ed
ĠM ember
Ġachiev ed
Ġinstr ument
Ġdecl ared
Exec ution
Ġadministr ation
os is
Ã ¢
Con nect
C LASS
v olume
ĠA ri
Ġsh ut
CH AR
Ġbehav i
Ġdoc uments
if ul
ĠDan iel
ath an
ex it
Ġso ft
ĠJ eff
Ġd ialog
Ġpart ner
Ġtri ed
Ġm orning
ĠE nt
se par
ss l
ble m
- $
ĠC lient
ĠE gypt
ĠD O
ĠL atin
Ġv on
Ġf ans
ĠR ailway
Ġcoordin ates
N UM
arg uments
ĠNAV BAR
ĠPro perty
ĠR est
Ġt ags
Ġc ool
ĠC ount
per iment
ament al
ĠJ oe
ire ment
Ġrefer ences
ĠH arr
ress ed
Ġveh icle
agnost ics
ĠL ib
Ġv ary
Ġp od
Ġnot es
d atabase
Ass ociation
ĠMus lim
ĠAL IGN
D P
Ġcan cer
Det ail
Ġst reet
ch er
C apt
c li
comm ons
D IS
ry ption
Pl atform
F ocus
Ġ' \
Ġbo ost
12 5
Ġpor tr
ul pt
P ers
ĠSund ay
Ġincre ases
am ber
ext end
Ġdam age
hav ior
AN T
ĠE st
on ia
ĠSt ation
d uration
Ġres idents
s ync
^{ -\
Ġded icated
ĠW eek
p ag
="../../../../../../ ../
195 2
tr l
Us age
b log
W est
ĠPl aces
Ġc er
ĠW alk
Ġ" ";
et o
Ġmot or
ĠD ig
H ub
Ġrem ember
Ġch ance
F ore
Ġh our
Ġyou th
Ġ ig
# {
Ġmeas ures
N ET
Ġstr ateg
Ġtop ic
194 7
Ġb in
re ce
Ġs ynchron
our se
/ .
S ur
Ġsubsequ ently
iss ue
ĠD ar
Ġgu arant
ĠS ports
Ġbe at
em pt
d ependent
low er
Ġcandid ates
mem ory
ĠCh annel
Comp iler
Ġs port
D ev
ĠL im
put er
Ġcol span
am in
i Ã³n
Ġf ellow
S N
." ""
method s
) [
fl at
F ree
Ġdiv ided
Ġmat hem
or igin
Ġ@ "
ĠT w
ĠOx ford
cre ated
Cond ition
Ġregard ing
H z
Oper ator
comp ile
tr im
al ing
Con structor
Û Į
ĠV ari
r im
B inding
Ġv en
pr iv
ĠCor poration
th ur
Ġ' '
An notation
Ġw ind
Err ors
ĠQue ens
A li
ĠRepublic an
O F
ĠW rite
R T
R aw
mer ge
OR Y
Ġb ind
o es
ĠBro ok
Test Case
Ġth ick
over view
dep recated
Ġcontrib utions
Ġdes cent
A udio
Ġapprox imation
ĠC H
Ġnu clear
Ġexec utive
ĠColumb ia
Ġ' ';
act s
atur day
Ġperson nel
ĠJust ice
> )
ro vers
Ġt a
y cle
Ġres erved
Ġfor t
Ġext end
Ġsuggest ed
Add r
or i
yd ney
Ġend s
m apping
Ġconf irm
Ġatt end
set minus
y o
out heast
Sp an
Ġ ×
res p
C ard
rit ical
AN CE
Brit ish
M essages
Ġsp atial
Ġk ernel
Ġreturn ing
it ical
ab il
ist ing
Cle ar
Ġinterpre t
Ġd ie
Object s
Ġp aid
Not Found
face book
=\ "
Ġl abor
ĠRe port
z abeth
ĠL ast
M ill
195 3
ĠCh ris
Ġtyp ical
ict ures
sub mit
Task s
ĠIl legal
_ +
Ġc ars
Ġrec ip
Ġmoment um
Ġp icture
Ġp urs
Ġuncert aint
Ġprogram ming
Ġearn ed
Ġpro ceed
Depend ency
og en
ĠF ROM
as m
Ġnew ly
ORD ER
Ġhous es
P G
C B
Ġes cape
Ġdiffer ences
ĠR oute
_ *
/ {
CD ATA
j Query
ĠA rea
w edge
as is
ation Token
res ize
Ġconstr aint
ile vel
Ġcop ies
Ġ" %
F n
Î µ
c ases
Ġunderstand ing
Ġtw ice
195 4
Ġdepend encies
ĠH ung
s ome
Ġf ru
Ġthe ore
å ®
Ġp hen
S m
ist ed
act ivity
ĠKore a
ĉ čĊ
Ġs yn
Ġadopt ed
ĠFace book
Ġpower ful
is set
Î ¹
ç Ķ
n ative
Ġb oy
Ġcontin ues
'] );
I AL
ĠPol ish
Ġvalid ation
l ife
Ġopport unity
STR ING
m ag
al ert
sub figure
Ġtre es
per m
a is
ater n
Ã© e
ĠM ike
est ic
Ġs y
ĠS pring
Ġsh op
Ġsup ply
> \
Ġopt imal
Ð¾Ð ²
ĠJ ean
Ġhe ard
P Y
Ġstr ugg
: [
Ġarr ived
t w
Ġofficial s
Th row
Ġcle arly
int elli
Ġnumer ical
ar se
Ġph one
Ġmechan ism
Ġs aved
Map per
ĠA sh
LO C
B Y
const ant
el i
Ġmeasure ments
Ġconvert ed
ĠS E
an z
f mt
66 66
ĠProf essor
ĠM aster
enn es
or ient
Ġapp arent
ĠAp ache
Ġa x
Ġaddress es
Ġinterest ed
Rem ote
In ternational
Valid ator
Ġme ant
Ġd og
Un iversity
vari able
Nav igation
Ġj ump
\ }
1 10
ĠPr ime
ge o
con vert
U ES
ist ical
r ons
intelli j
ack s
DO M
ĠC A
assert True
Ġprim arily
C ALL
Ã ¸
d k
Ã º
Ġsatisf ies
ĠG ar
ĠA ccess
ĠH ong
ok ed
Ins ert
Ġr ise
Ġtr ained
S egment
ĠH ospital
Ġrece iving
Ġgener ic
Ġtrans formation
aps ed
Ġact ing
Ġac comp
V D
w d
Ġc orner
ĠGu ard
Ġprov ed
Ġa wards
cl osed
ĠT y
big g
Con sumer
Ġ} }
qu ote
rop ol
L C
r v
Ġang ular
un te
M any
ĠB ecause
nt ario
ĠTh ree
Ġr at
Ġcapt ured
B inary
Ã¡ n
Ġg ain
Ġ ult
ĠS a
ĠSt atus
W il
ĠC reek
! "
Ġdist ingu
for Each
Ġabs or
ro g
Ġfif th
Ð ¿
b ec
AR N
cre ens
Ġdepend ing
C ONT
in ion
agnost ic
agon al
ou red
H tml
v ol
Ġequip ment
Ġth reshold
ap h
ir ation
' _
Ed ge
Ġw arning
et ing
ĠS em
on al
ĠVictor ia
on om
Ġmod es
t ensor
am pling
ĠB a
Ġ$ [
Ġ> >>
Ġb its
Ġpass ing
Ġel if
Ġro ugh
æ ĸ
Ġb alance
Ġphot ograph
B order
ĠAlex ander
comm it
Ġreview s
ierarch y
Ġsim ulation
Constr aint
equ ality
Com plete
Ġk ill
ag a
b asic
C md
ĠSup reme
Ù Ĩ
Str ategy
Ġident ifier
high light
Ġc ircle
l ig
Ġmer ge
Ġh ockey
ĠR og
ĠRec ord
ĠS earch
ĠIs lands
Ġrequire ments
in ator
pl oad
p ur
Ġunder lying
Ġc ook
ĠR om
Ġcor relation
trans action
ĠE ven
ed u
G ui
z ing
ĠS ets
cal endar
dis able
F amily
Null able
ze ch
194 9
f ol
og ene
ex tra
r ices
S em
Ġc lock
ĠP en
Ġ| \
ĠF ederal
Ġ\ (
Ġad vert
b c
Ġwid ely
Ġo dd
\ _
S yntax
ĠB and
Ġord ers
ON G
Ġch unk
r adio
Ġbase ball
Over view
ĠL ater
Ġpl us
g re
Ġdestroy ed
ĠL oad
inn es
str ings
195 1
ak i
ĠPak istan
ac ent
Ġexpl an
ĠH ence
: @"
Fig ure
Ġc ult
Ġp sych
Ġrot ation
Ġcre w
ak s
Ġlook s
/ ">
Ġ' .
k es
Ġap ilevel
Ġreg ime
getElement ById
Ġex ponent
Ġfocus ed
Ġspect ral
Ġbeg ins
ĠA M
ĠK enn
an th
b us
Ġcomm only
" },
Res olver
Ġtransfer red
ĠH as
ĠD B
Ġ ðŁ
f etch
ĠF il
ĠS pace
Process or
Ġt al
ud es
ĠBer lin
Ġhe at
olog ist
an try
Ph one
T ile
Ġinteg ral
Ġcor re
Ġfl ight
ide os
R ate
Ġdim ensions
el le
ph ia
ack et
l aw
V AR
Ġapplic able
Ġt sd
ĠR os
Ġsim ulations
Ġs ides
Ġdec ay
Ġfeat uring
s ig
ĠRem ove
ass ign
ĠN on
ĠRes ponse
ĠR ail
br and
Ġp itch
ĠSc iences
Ġachiev e
Ġan cient
id i
Con s
Ġpr ime
Ġdes ired
ĠBel g
p kg
z h
ĠS elect
Ġ_ .
ĠD ist
ĠDes cription
J oin
Ġinst ant
C M
m essages
sp acing
bo se
Set ting
Ġcost s
P red
ĠD er
ĠIn ternet
Ġhon or
og y
con sin
P HP
Ġp al
Ġalong side
f eed
ĠW IT
vert ical
Ġre con
ip her
Ġprov ince
c u
D ATE
Ġm iles
Ġdeg rees
direct ory
2 13
Ġal gorithms
Ġ" .
Ġspe ech
Ġb ill
Ġp ra
LO W
p aper
Ġappro aches
Ġide as
Ġneighbor hood
pol y
omorph ism
b d
gener ate
? "
is a
Ġeast ern
ĠCon nect
s uch
Ġmod ify
Ġst ats
ĠUs ing
19 36
can vas
Ġj s
av ailable
Ġad min
Ġadv anced
Q ual
ic er
> "
Ġlay ers
Ġinput s
innes ota
Am ount
Ġfind ing
id el
v an
ic ator
Ġn arrow
LE D
ĠAb stract
Ġcl in
St atic
Pl an
UM M
Ġadvant age
Ġge ometry
sem ble
ĠR en
un es
Ġg ap
ĠW ed
if er
Y Y
The me
adel phia
Ġsex ual
A ustral
Ġop acity
Ġse ed
Comp at
Ġperform ing
cre t
Ġgrant ed
Ġrepe ated
Ġappear ances
Ġ era
Ġassum ption
col lect
Ġtro ops
Ġ' %
ĠMore over
P M
ra q
Al loc
Ġsubsequ ent
ĠMed ical
F act
ev in
s heet
h ow
Ġpl anned
ĠM ic
Ġperm issions
ĠArg ent
Ġlim its
C enter
Ġto ward
ĠAd ministr
P resent
ĠQu ery
c les
Ġstrong ly
ĠA k
å Ĳ
ĠF amily
log o
Ġacadem ic
ĠWil son
col l
12 7
ĠWAR RAN
ĠL ive
ĠP ers
Ġcou pling
Ġperm ission
Ġob vious
Ġact s
ĠAp ple
Ġfac ilities
y ard
ship s
Ġpro to
int on
Ġcalcul ate
Ġlead ership
L ibrary
ps on
Ġsom ew
Ġorgan ized
IN ST
f all
S ources
ann a
Ġd ance
Ġs and
SCR IPT
Ġnav bar
Ġtell s
ĠX ML
comp are
Ġdescri bes
Ġprinc ipal
A xis
Ġpolit ics
00 1
scal a
ĠRe al
ĠA ge
ub ble
CON FIG
ĠOlymp ic
ĠO s
ad ed
INS ERT
Ġd aily
ether lands
con v
Ġnewsp aper
U nder
S ch
HE AD
Ġtr av
Ġintrodu ce
it led
eg o
new command
ĠR a
Ġmeasure ment
Ġcitiz ens
to Be
T ele
, $
Ġpur poses
evelop er
ĠB al
Ġcoeff icients
Ġig et
ĠOb serv
atter y
c fg
ĠGu ide
Ġchall enge
ĠSh ort
Ġad m
D ig
ĠV ill
Ġs qu
ra structure
th rift
rypt ed
We ight
glyph icon
Ġsp ot
il ib
Ġposs ibly
E val
pl ain
Ġbu y
Ġe yes
Ġcover age
reate st
ul s
Person al
Ġmed ium
bul let
Ġin variant
ag g
ĠS ydney
j ack
ĠAn other
_{ (
Ġt ail
Ġsil ver
ĠA venue
Ġdo or
S outh
Ġany one
ĠC at
Ġc e
m ic
ĉ ĠĠĠĠ
el ly
ĠO S
ĠO C
pro gram
ĠStud ies
B ounds
Ġprote ction
Ġsold iers
n ob
Ġout er
he im
os ure
Ġmass ive
Ġmunic ipality
ĠPro position
ĠN a
ĠP R
Ġrun time
C ur
PRO C
Ġport ion
Ġaud ience
ĠC SS
Ġexec uted
Ġend point
Group s
AT ED
ĠR od
ĠK im
Ġe le
Ġben ch
Ġwas n
act ic
Ġtechn ical
- (
Ġb undle
H L
Ġs izes
and o
ĠSer ver
ĠB C
In formation
AN G
A nt
get Id
ĠL ew
Ġteach er
in x
ĠMin istry
ĠCor ps
19 18
) _
on omy
ĠB ell
V E
Ġimport ance
Ġfre edom
Row s
et es
Ġfig ures
M aster
ele ments
Ġcompet ed
Render er
ĠB on
ï¼ Į
Ġp m
Ġchem ical
Ġs un
Ġdis pl
ut s
Con vert
unn el
ĠG ro
ĠDE FAULT
Ġm ouse
ear s
Ġprom oted
Ġrest aur
K e
Ġb urn
P od
Fail ure
t witter
p id
à ¥
k top
T F
ym pt
ĠV iet
not ations
ĠEn vironment
ĠC ur
Ġnu cle
Ġimprov ed
Ġal ert
Ġassist ant
Ġcr ime
NO DE
ĠUn it
pr ising
A UT
Ġam plit
M aterial
Ġs ocket
Ġmin ister
Ġprom ise
ap ed
ong o
C ursor
Ġa thlet
ĉĉ ĠĠĠ
AR D
ĠC art
bour ne
ound ed
Ġturn s
Ġcl imate
ĠĠĠĠĠĠĠĠĠĠĠĠĠĠĠĠĠĠĠĠĠĠĠĠĠĠĠĠĠĠĠĠ Ġ
ĠTor onto
Ġchang ing
AT TR
ĠF air
ĠW rit
W IN
B I
patch er
ĠL ay
}} (\
Î ½
nav igation
FI ELD
Pl ace
Ġa ware
Ġs ync
19 38
Ġaff ected
ĠC G
ĠM arg
_{ -
ĠĠĠĠĠĠĠĠ ĠĠĊ
p ot
Ġpl anning
re po
Ġpl ants
Ġredu ction
l ab
al ias
f riend
grad le
re ader
W ord
U ST
Ġe lev
Ġb log
Ġsol o
ĠEli zabeth
Ġcol lected
ab ric
ph rase
Ġp seud
ron ic
Ġpre par
a ired
ĠE very
ur ations
Ġear th
ĠPri ze
ĠH ard
Ġfe et
Ġload ing
el come
U AL
Ġp erman
ĠS ant
V ICE
N ov
ĠSim ple
] ))
Ġlarg ely
B ottom
Z one
rupt ed
19 37
ĠR equ
Pre v
h olds
Ġg ather
Ġl ists
RE E
Ch ain
Ġtr uth
Ġsub stant
Ġs ending
ĠL o
ĉ ĠĠ
Ġr ich
Ġm orph
us hed
u j
function s
ĠW IDTH
Ġw ants
Array List
ĠCl oud
Ġ} \
ĠA re
Error f
ĠB oy
rem arks
P lease
Ġs an
cont ents
Ġin h
Ġmod al
in son
sub subsection
Ġcommand s
im b
ef e
å ħ
Ġb ug
Ġb right
Ġl attice
.* ;
ys ics
ph ant
in er
Ġdi am
ĠR ow
n ership
ĠA D
or ney
ut enant
Ex port
op her
Ġmod ules
Sign ature
Ġpay load
p ages
ĠKore an
ce st
ĠC ub
Ġt end
Ġpro port
Ġtit les
Ġl y
ow a
Ġv ir
Ġcomple tion
erv ative
7 00
Ġinc ident
Ġem ph
Ġ$ _
Ġcon sec
D rop
{ $\
ik a
L ight
ĠR ome
; |
Arg uments
~ $\
Ġc row
lic ense
ER S
Ġc art
Ġst yles
int eger
con tain
Ġs ust
ĠL es
Dep th
oll ary
anch or
Ġveh icles
= [
text sc
Ġa head
ĠN Y
ĠC urrent
Ġb inding
ĠI R
Col l
Ġup load
re du
L oop
el astic
Ġconflic t
b p
LI ST
Ġ< -
> ()
Ġpattern s
Ġlog ging
(" %
ĠC ore
ĠW ars
un ities
Ġjob s
z o
Ġengine ering
Ab out
ĠF OR
che stra
Ġsub set
enc ode
ĠF ollowing
are st
Log in
i ant
Ġcompos ition
Ġdet ected
Ġg rew
Ġcon version
Ð ·
Ġecon omy
ĠI V
Ġwon der
ĠN C
ĠAp plication
Tim er
Ġinvest igation
ĠR aj
Ġf resh
for all
) ^{\
H is
tr i
ĠO ntario
Ġmed ian
ĠS on
Ġde ploy
ist ant
ser ies
ĠN ations
bind ing
ades h
ag ma
anag ed
Ġhistor ic
UN D
AT CH
ĠIN TO
ort heast
ial ly
onym ous
ost er
ĠH un
ĠBe ach
Ob serv
Ġa f
Ġtem por
), \
Ġcont est
Ġpol l
Ġb udget
C r
Ġadv ance
per or
Ġhost ed
Enc oding
ĠS N
Ġinter actions
a ug
d ing
ra ham
BU IL
Ġserv es
The y
) }(
ãĢ Ĥ
ff f
ĠT ok
Ġ ----------------------------------------------------------------
ron ze
ĠV en
B L
ir k
Ġinstit utions
d ash
R andom
Ġpert urb
ĠN E
Ġtechn ique
ri e
w eg
Ġhous ing
rt l
$ ^{-
)\ ,
Ã© s
Ġs pring
Ġdisplay ed
Ġcons ult
Ġexplicit ly
Ġgu ard
ĠRev olution
le ts
ph ony
ĠF ox
n ight
ul ing
Con sole
F uture
ĠPol icy
rop ical
Ġw inners
Ġr ain
ĠF ind
j et
ĠS pe
c ue
ak ed
m osph
ask a
ĠW in
Ġsurround ing
ĠC am
Ġed it
ĠM ond
R out
Ġmount ain
ĠAd v
ibr aries
Ġca uses
cknow led
V ec
qu arters
Ġl ie
Ġestim ates
sub ject
Ġph oto
ĉĉĉĉ ĉĉĉĉĉĉ
Ġ| =
Ġfind s
W atch
arr ing
Ġcur ves
Ġmusic ians
Con tains
ĠP M
ĠR ights
ĠD elete
im m
ch art
Ġw x
ĠWis consin
HER E
ĠN et
Ġatt ached
Ġv ectors
BP ACK
an aly
Ġent r
ast ers
ĠS aturday
Ġre ality
Ġdec or
Ġ rom
ĠAr m
( --
Ex ists
Ġcon vers
Name Link
Ġfunction al
h ave
ĠAn th
Ġ{ },
atas ets
c ounter
Ġrecogn ized
c assandra
u uid
j ax
Ġcompos er
[] {
T ax
Ġdr ink
b lob
Ġin equality
Ġv otes
Ġag ree
link s
ak h
ur able
per ial
Ġ+ \
Ġcomp atible
S ame
Ġcont rovers
ud a
av id
Ġw ire
iv ated
19 35
t p
ap ol
Ġopt ical
ĠC ase
gener al
Ġprom inent
(" #
Ġdistrib utions
ĠF und
Ġcon ven
w ing
A SSERT
Ġattempt s
ĠOut put
F OR
a udio
Ù ħ
Ġup dates
E ffect
Ġp owers
ĠTh read
ĠL ike
Ġbro ken
ĠN etherlands
rem ote
Ġhapp ened
ĠN ext
Ġsc ulpt
ĠCh ange
Be en
ĠS ab
valid ation
ĠPub lish
Ġh ers
Ġf ee
Ġw ing
ĠBr idge
ĠSt eve
Ġofficial ly
Ġw ish
_{ {\
an es
ru les
est ab
Ġdro pped
A bs
ĠAnt on
T Y
ele d
( ()
Ġc atalog
ĠFr iday
Ġprior ity
i y
Ġspec ifically
create Element
Ġden otes
U C
Ġhe av
M s
Ġinsp ired
Ġf ell
Ġind ustrial
ĠM innesota
Ġh abit
;| &
ĠW at
Ġp arsed
d on
H older
se ason
ic ity
Ġide al
Perm ission
ĠJac ob
col on
head ing
C ancel
ĠEngine ering
S W
Ġfund ing
Ġsing ular
DE X
Tim estamp
Ġinter section
19 19
Sh ared
Ac cept
Ġhyp ot
Ġphil osoph
cri ptions
.~ (\
Ġpol icies
E st
Ġag ric
spec ific
Ġr ural
ast y
ĠL ic
ex pression
Ġdis able
p b
ĠCoun try
Ġg lob
Ob server
ĠĠĠĠĠĠĠĠĠĠĠĠĠĠĠĠĠĠĠĠĠĠĠĠĠĠĠĠĠĠĠĠ ĠĠĠĠĠĠĠĠĠĠĠĠĠĠĠ
Ġclass Name
Ġexp atriate
Ġb ond
String Builder
l int
ĠCol l
ĠConfig uration
rypt o
Ġpi eces
r ame
AT OR
Ġun able
ap ore
top ic
Ġcoordin ate
R UN
ĠJ son
t ouch
( ['
ĠS anta
s ym
ĠCamb ridge
Ġ$ $
ĠAb out
Option al
or row
J ust
Ï ĥ
att ers
ä ½
Ġcontrol led
Ġh uge
se lection
En able
Ġinitial ize
ĠS at
Ġtyp edef
Ġf ashion
ĠOper ation
Ġexpl ained
Ġadministr ative
Ġind ices
Cont ents
ĠL ady
our ney
po inter
19 00
m ac
w orth
Fr ames
Ġlearn ed
V irtual
And roid
grad ient
19 33
view port
M anagement
act ual
Ġsepar ated
Ġgrad uated
ĠA thlet
12 34
ĠH ind
T y
Ġb ow
li bs
isl ative
UMM ARY
Ġr aces
Ġim g
a us
ĠE ner
Ġd st
= %
Ġex ports
AC H
Ġintegr ation
ĠIn s
Ġcr iminal
class Name
< <
ĠL at
w x
Draw ing
M R
u ce
ion e
Ġf ails
Ġfund s
Ġrecogn ition
EN V
ly n
ĠN ative
ĠS che
od ot
> ;
ip h
ri um
ĠĠĠĠ čĊ
p end
ac on
) ",
w t
TR Y
de ep
Sh ader
A ST
Ġacc ident
t ik
reg on
des ign
OP T
poss ible
f b
ĠRef erence
Ġmin imal
Enc oded
Ġco al
ĠBr ig
Ġfac ility
ĠFinal ly
Ġscient ific
Ġch ampion
er red
ĠVAL UES
ĠW ho
Ġband s
Ġtrans actions
19 14
P res
if old
Ġest ate
RE D
Dep recated
Ġg oto
Ġphen omen
Ġtre nd
ĠBuild er
del ay
pre c
ĠTr ansport
ad oc
ĠD or
Ġlink ed
Ġres ident
list ing
Ġ urban
Ġ" >
Ġp ref
ĠI raq
por ter
Part ition
ob serv
Dr ag
ĠH y
Ġhold ing
Ġ` ``
ord an
o or
D ynamic
ag en
ĠPro t
ĠW ell
Serial ization
ĠB ru
m obile
Ġre named
ok es
**** **
ĠM ir
ap se
Id x
ord on
Ġs pons
Ã ¥
f ake
Ġdr iving
FF ER
uff ers
Ġper haps
ong s
Ġf s
tain ment
zon a
Ġst ellar
ch ant
ĠL abor
Ġh or
ret ch
Ġex cit
ĠC OL
Ġgener ator
re pository
ĠT witter
Column s
al ion
Group Name
ist ogram
Ġin ject
m k
Ġrecomm end
w arn
ĠT urn
19 34
ĠO N
out s
Ġ{ %
ĠH ay
ĠTr ust
Run ner
L ib
B ool
Ġsh ock
STAT US
ĠT erm
S G
em an
Ġs leep
om ics
Ġconst ants
ly wood
' =>
P romise
form ed
Ġc ategories
Ġsuggest s
Ï ģ
Ġgrad ient
ĠPrem ier
ĠH om
0000 00
Ġmagn itude
Â °
j an
Ġf etch
Ġg lass
ur ches
ĠTur k
19 29
T ouch
C oin
Copy right
================================ ================================
G erman
RES ULT
Ġeval uation
_ )
On ce
ĠDes pite
Ġt d
Ġenvironment al
ĠDu ke
ĠD ouble
ĠStep hen
ibli ography
Ġop posite
Ġinvolv ing
F rench
Ġemploy ed
Ġprom pt
part s
Re al
get Type
com pute
Ġm igr
ĠSt andard
Ġprom otion
ä º
S witch
Ġs ell
âĢĿ .
Ġloc ally
Ġm anner
Ġinj ury
Ġf older
Miss ing
St ub
Ġsupport ing
Ġc ab
get Instance
Ġcomp iler
Ġm el
Ġobserv e
Ġplan et
}$ -
ĠB et
[ (
ĠB udd
19 10
Ġus ual
Ġdef end
pre vious
cuss ion
Ġdef ense
Ġdevelop ing
ĠCont ent
ĠPhil adelphia
it ivity
ĠB att
Ġcomm ittee
F ALSE
br id
Ġv ess
Ġcheck ed
Ġcon j
Ġfil led
w ill
Ġnot able
d ark
cc cc
itor ies
ĠCre ates
Ġk new
An alysis
Ġscen ario
ĠSwed ish
B IT
Ġcharg ed
M ut
Res et
ĠFore st
A SE
lin ux
Ġcan cell
ĠT ai
Ġ= \
refer red
d irection
UN T
WE BPACK
Ġanim als
ĠMc C
: '
Ġd elegate
igh th
Ġin nov
Des ign
Ġperform ances
Met rics
Ġcon vent
AR G
Ver ify
Rel ation
Ġn arr
ĠSt ream
Ġconsider ing
B ad
ĠG reg
,\ ,
50 9
ov al
RA Y
Ġlett ers
" |
S plit
w ik
Point s
St andard
cri bed
Or igin
Ġd anger
ap ple
ĠDav is
Down load
C ounter
ĠD oug
s un
Ġmet rics
19 17
c ow
if ts
Ġam b
iffer ent
Ġan chor
Ġd elta
put ation
Ġlook ed
ang a
ten ance
Ġent ert
Pl ot
Ġdr ag
ent ed
ars ing
$ ).
Ġdepend ence
Ġlog ic
Ġhe ar
ĠSt adium
Ġin vent
g z
ĠP lease
ĠC as
Ġauthor ities
IMP ORTED
ixt ures
pp ing
ĠI ter
ĠStr uct
Ä ĥ
f older
Ġin n
Ġtre ated
ur ance
m ms
Ġst ress
Ġcom pl
Ġre pository
ĠR on
ĠChrist mas
"/ ></
ĠC orn
Output Stream
Ġh y
um a
ĠCon text
Ġm om
he t
Ex pected
ĠE ric
second ary
Ġar ms
ĠS UMMARY
Ġfund amental
ag r
ĠE th
or er
Ġh ole
ĠG er
p ad
Ġacc eler
Ġmunic ipal
Ġelectron ic
Decl aration
clud es
ĠPy thon
ĠL anguage
Ġen umer
Bl ack
U pload
Ġsche duled
O W
z ed
Ġcol ors
os l
sh op
Ġo sc
19 32
LE TE
fol io
Ġwe ather
Ġend ing
Ġthrow n
log ging
ĠB all
h pp
Ġspect ra
= &
Ġwait ing
g i
= $
ĠBook s
b ug
Ġap pre
Ġauthor ity
n c
19 28
loc ale
Ġtarget s
Ġar c
ĠB u
Ġexpl ain
qu es
ap y
Ġal ias
al ink
Ġsymmet ric
d st
Ġcontem porary
Ġdefe at
LA Y
Ġresult ed
Ġth er
ĠB ishop
ing ly
Ġentire ly
arch ive
Ġcontrol s
ĠPr int
ĠÐ ²
) _{
Con verter
% .
Ġl osing
Ġwhere as
Ġv m
ĠSur vey
T AG
Ġe ye
) },
Ġcustom ers
pl om
ĠP romise
Ġf ake
Ġhers elf
form er
inc ipal
Ġsol ar
Ġal ter
OR K
Ġparticip ated
qu ant
Ġmat rices
In f
Ġsu itable
gener ator
Ġphys ics
ĠO t
ĠT ag
Ġign ored
Ġmay be
Ġobserv ation
Ġc overs
ĠReg iment
Ġp ipeline
ennes see
us al
L iteral
ĠPe ak
Ġd rawn
sw ing
Ġhand ling
ĠSwed en
Ġ Ñģ
P ower
Line ar
SO UR
Ġindic ating
jav ax
Ġb oot
MA P
Ġexplan ation
Ġsk ills
S ol
Ġrem ark
Ign ore
ĠG allery
> %
c ross
p in
ult ane
lic enses
r pc
cl s
Ġover flow
c ountry
Ġpurch ased
m ad
tim estamp
Serv let
Ġg irls
ĠF ish
ert o
Ġ ion
em et
Ġfight ing
ĠN az
Ġc b
av it
Ġwork er
Ġc m
column s
CO M
O C
alt Color
ig ate
t re
Ġyield s
weg ian
UE ST
S epar
ĠL td
ĠQueens land
map s
ĠGold en
cont act
å ¤
enc ing
Ġsm art
Ġm o
includ ing
ĠH al
Ġpublic ation
Ġst one
HO ME
m ass
r ank
ĠS H
ĠSt ock
ĠK al
Ġeval uate
| }
ĠĠĠĠĠĠĠĠĠĠĠĠĠĠĠĠĠĠĠĠĠĠĠĠĠĠĠĠĠĠĠĠ ĠĠ
ĠP os
ĠPar se
Ġref ers
Ġb omb
ĠCo q
am ely
ĠD am
Ġ&= &
S F
Ġassert True
example s
Ġag ents
ool s
ĠClass es
f p
un lock
st rip
h d
St ar
Wh ere
IL ITY
Pro f
19 22
cre ment
z y
Ġpack et
Ġtim estamp
LE MENT
c ancel
Ġrepresent ative
B en
ĠP u
Ġterr itory
Ġproper ly
I tal
fore ach
Ġ" '
ĠG ree
ĠVAL IGN
v ing
m ime
) ^{-
Ġm ach
Ġre action
T uple
p rom
Do ctrine
and y
ĠE ll
ĠP erson
ĠW inter
Ġpar ish
An aly
con nected
ĠV ideo
Ġwe ights
ĠCap tain
Ġtem ple
ĠBy te
Ġemploy ees
LIC ENSE
ĠB uffer
inter pre
ĠHand le
ign ore
Ġpred iction
ĠL ow
Ġf an
] +
A X
s ime
uplic ate
In ner
st ates
Ġstand ards
ĠST ART
ĠD OM
Ġab andon
Ġst uff
O ld
stand ard
M ount
Ġb ed
Ġ& #
Ġanal og
T ex
Ġ uri
ilib rium
Ġextrem ely
IM IT
sime q
B el
l u
od o
Ġcl usters
Ġst orm
Ġsim pl
M ac
Ġ- =
t l
Ġst ores
T ok
Ġh ide
II I
Ġviol ence
Ġl um
omorph ic
Ġex erc
Al though
Ġw ins
Ġbr ain
ro uter
mer ce
Ġ' "
ĠP ay
get String
L ife
Ġqual ified
Ġcharg es
Ġg ained
Ġvis ited
Ġ à¤
Ġdr am
ic ode
load ing
Ġsche dule
Ser ies
Ġeff iciency
Ġgu ide
K it
Ġadv oc
o a
ĠAd am
Ġsatisf y
Ø ¯
n os
Ġcre ates
Ġte aching
ops is
il bert
ĠÐ ½
sh a
c ursor
sequ ently
st an
ĠD a
ĠJ S
ĠBr ad
Ġcred it
eng ers
tik z
os es
J an
inter val
Ġ( ;
19 31
ĠK a
]] ></
Ġm yst
Ġmin ute
__ )
Ġfound er
ĠB ox
Cont act
UB LIC
Ġoptim ization
d ocker
A I
TI ES
Ġy ellow
k h
w br
PRO P
e ast
19 24
Ch art
ÑĢ Ðµ
ĠT err
ĠIndian a
em it
ĠEner gy
ĠE V
ĠL ang
Ġdecl are
ut ors
Ġhapp ens
"> (
R ules
L Y
ke ep
Ġm and
ĠGa ussian
Ġc as
ĠM oh
19 27
(' <
G N
cover y
Ġocc asion
ĠN iger
ĠOn ce
Ġsup erv
ĠM un
u er
Ġpe ace
Ġyoung er
ail ability
Ġn s
ar ry
Ġy ards
amazon aws
emet ery
Ġreject ed
ĠR ose
Ġdec ades
an im
ĠV irtual
E P
ach er
Ġsupp lied
Ġfl uid
Ext ensions
W omen
ĠM ill
av al
erv es
Ġh air
Ġgalax y
Ġindic ated
Ġmerg ed
f air
( /
Ġse ats
Ġp iano
b x
^{ +
rel ative
d am
Ġplace holder
< >();
ĠL oc
Th us
Ġappro ved
Ġdo ctor
ĠColor ado
U K
ĠA ws
Ġr ugby
t ile
Aut hentication
Ġiter ator
Ġp ending
Ġn a
ant asy
ist a
G P
k ing
Ġn ob
g if
p n
ĠWARRAN TIES
Col lect
pm atrix
ĠAdd ress
h ot
Å ¾
Ġar ts
Ġcomput ation
ĠS quad
ph ase
per p
(" \
Ġm ist
Ġnot ation
Ġdes criptor
Ġjud ge
ĠC zech
Ġsec ure
Ġengine er
} ))
Ġtit led
Ġm ys
ĠS C
pr agma
F P
N orth
v endor
L IN
Ġaccur ate
Ġsuff ered
g ov
Ġfrequ ently
L icense
ĠSer b
Ġneg ot
? âĢĿ
ĠHol y
ox y
CO MM
ĠW el
Ġarrest ed
ĠR ad
13 0
ĠP ut
Ġhouse holds
Ġstop ped
Ġ$ -
ĠB efore
ĠMed al
inal s
ic ian
Ġa st
SS ION
sol r
enc oding
F ixed
e en
Ġinit i
ĠH art
annot ations
od a
Ġw idget
ĠSer ial
ir th
an ches
rem ark
Us es
Ġcl one
Ġtrans mission
Ġta ught
ropol itan
amb ig
Ġpre ced
> '
G LE
ĠS end
op ic
10 24
m n
ĠAmer icans
M ag
ĠÐ ¸
iven ess
Ġtown s
end point
ĠM it
me an
ĠJ oh
ĠInd ones
è ¯
ĠO regon
er al
\| _{
us r
Loc ale
Ġl iqu
\! \!
s quare
Ġw rest
Del ay
hed ral
ct ic
om ot
Ġsol ve
Ġres on
Ġin herit
og ether
ĠBO OST
C ent
Ġ-- ></
[ -
Ġclos ely
ĠTur key
Av ailable
ĠN orm
Ġ{ $
ĠE ss
not ify
clus ions
Ġk ick
Ġre verse
get Class
~~~~ ~~~~
Vis ual
Ġcol our
Ġsc oring
Ġenc ounter
egr ation
P ane
Ġfac ulty
Ġcalc ulation
Ġd ire
Ġqu adr
ĠU til
}} ^
Ġexper i
ab c
Exec utor
Ġgovern or
ain er
} ",
Ġintrodu ction
Ġbenef it
tr ansport
am ount
ĠF ull
Ġpar liament
L at
Ġw itness
P at
im p
Ġ' _
po i
ĠCast le
D irection
Ġfav our
TR AN
sc ore
st age
Ġv ent
m iddle
F eed
ĠJew s
Bi ography
ĠM ilitary
is is
Ġbig gest
ell ite
it i
in cess
Ġb al
Ġcorrect ly
br ace
D M
oop er
ĠSt ory
run ner
ĠV i
Ġbehavi our
Ġfa ith
ĠT ree
S ite
ic ing
get Message
} &
ĠH an
U CT
Ġs urn
ĠS ound
iv als
Ġc old
tool tip
Ġa w
F ollowing
ĠA T
Ch anges
s at
dist ance
H er
Ġd yn
Ġosc ill
Ġat mosph
al gorithm
G A
Ġro utes
RE CT
ordin ate
} )$.
an alysis
b ell
Or gan
Ġcamp us
unk nown
Ù Ī
m oment
ĠD C
ĠU RI
ĠS in
BA SE
3 60
w allet
G EN
R ot
Z ero
Ġpass es
ac o
M ost
d jango
ĠA h
Ġdef ines
Ġinfin ite
ĠLab our
ĠH o
ick y
Ġnov els
ĠC EO
ip les
u ction
ĠChild ren
Ġcomplex ity
vert ex
ĠCol on
Ġpro jection
f w
ĠCol umn
re peat
æ ķ
19 21
Ġind eed
Ġscal es
IN VALID
urs day
Ġimp lied
Ġdifferent ial
ĠAr thur
Ġlimit ations
Ġconsist ing
Ġse vent
O ct
t le
Ġex cell
ĠMar ia
Ġdocument ary
ov en
ĠE P
Pr imary
s z
Ġs oc
ĠAut o
ĠC ost
err ing
ĠFurther more
U A
ĠK han
99 99
19 23
u ating
ĠJ ob
Ġinvest ment
T ube
Ġc lip
ĠCom ponent
m ount
ĠP layer
Ġro y
F M
process or
is or
Ġaccount s
ah oma
) }{\
Ġd t
w ich
Ġcustom er
D at
Ġtri p
ĠMount ain
Own er
ĠF ord
ĠAtl antic
ĠApp end
Sup er
19 25
ĠR oss
ĠFore ign
Ġa ria
Ġpri est
Ġ iron
Re ason
Ġad vent
Ġtherm al
Ġprote in
Ġcopy right
BU FFER
ĠB at
por ate
Ġrank ed
E p
Ġv ice
off s
sd k
Ġs i
Ġcirc uit
Ġf uel
Ġbe am
Ġcirc um
Ġw arm
S napshot
ĠP it
Ġh all
A ctions
Pack et
19 26
Ġpat ient
h bar
ĠB E
ĠG h
display style
MP L
is ode
m ay
In struction
ĠC R
Ġuser name
W eek
b undle
Ġrecomm ended
Ġtext ure
l oss
Ġpain ting
Ġext ensive
D TD
ĠS uch
Ġ( %
ĠLog ger
ĠLew is
ick ets
Or iginal
Ġscal ing
ĠT ennessee
Ġas pects
in ject
new s
Ġcon sumer
west ern
">< ![
W in
Ġem p
cp u
writ ten
Ġ ing
19 12
ens is
$ $\
go og
Ġsch olar
Ġb ias
h ook
Dec imal
Ġcould n
urs ive
Ġg one
Ch rist
O lymp
Ġsequ ences
Ġposs ibility
Ã¼ r
c raft
>< !--
Sh ift
FN GL
ile y
Ġd ates
Ġr ational
Ġf estival
f uture
D en
um ps
d anger
iz ers
Ġt error
Di agnostics
Ġca ught
arn er
Ġd ream
L R
Table Row
ĠT ony
tim er
g ar
Ġexpress ions
v ard
An other
ĠHar ry
Ġf aster
File Name
Ġm al
le ton
ail ing
Ġop position
fr ag
l ot
ĠMiss ouri
db c
Ġgo ogle
s peed
ĠD ark
ig e
ĠS av
ymmet ric
ĠIn ternal
nt il
Ġro ut
ĠFr ont
Ġarr ang
ĠS us
Ġconver gence
pr ite
requ ency
-------- --
Ġadj acent
ĠMex ican
BO OL
l iving
ĠH ou
ĠF ederation
Ġd eleted
h istory
we alth
D iff
Re act
Ġth ank
ĠPhilipp ines
TO M
AR B
refer ences
ĠSh er
d n
er es
Ġ' ''
Ġcalcul ations
Ġcli ents
Ġgovern ing
Support ed
Ġsc r
ĠL ev
}} ^{
Ġtest ed
Ġtw enty
pub lish
Ġp atch
Cal endar
$ ~
)\ \
Ġdistrict s
col n
å Ĭ
H C
ĠTown ship
Mon th
f ef
ĠPro p
ĠK itt
Ġpe er
er os
ĠĠĠĠĠĠĠĠĠĠĠĠĠĠĠĠĠĠĠĠĠĠĠĠĠĠĠĠĠĠĠĠ ĠĠĠĠ
Ġwindow s
ĠEnter tainment
ĠP ier
G IN
Ã ł
re ll
Ġind ependence
ĠAnd erson
, .
nes day
g raphics
y ou
D id
] }
ĠK ansas
Ð° ÑĤ
è ¿
plic ated
Ġv ot
Ġinter ior
ĠG ab
Ġtem porary
u h
Ġ ener
ĠV o
Hash Map
> ${
Ġd oll
Ex pect
Ġident ical
ĠIm mutable
c od
Ġtheore tical
ĠD eb
Ġsp ac
ĠAri zona
Ġpro test
ĠF ix
ibr ation
Run ning
ĠF ac
Ġprom ote
ĠP ot
B ro
w as
ang el
ĠComm unic
fr agment
H ave
ĠT al
" ];
ĠBuild ing
ert y
ues day
Ġc ached
f red
19 15
Ġprinc iple
Ġrepl acement
ĠCon vert
Ġal pha
Ġown ers
B reak
decl are
itect ure
Ġtable s
pl ane
Ġb old
ott en
Exec ute
ren a
B its
ĠSing apore
Ġb ought
ul ating
Ġap art
c lip
ĠM iller
Ġop posed
ĠMem orial
Enumer able
A wards
Ġcan vas
J apan
b inary
c ou
ĠS M
Ġprep ared
Ġp ixel
pre d
Ġrece iver
ver ify
ant e
ogene ous
Ġ# {
Ġe ase
ate ver
Ġgraph s
Ġjournal ist
k ernel
S elf
10 2
ur st
Code c
Ġhot el
ivers ities
s pe
ĠHigh way
r as
Load ing
ĠRun time
Ġalleg ed
ul p
pos ing
Ġlo an
cept or
Int ent
19 16
ĠDate Time
Lin q
ĠL ear
com ple
ĠT a
Ġor bit
Ġcomp liance
Ġsuc ceeded
Sec ret
ro it
Ġp ed
te am
Ġw inter
ow nt
Ġw a
S ide
æ ĺ
Ġfr ames
com plex
d ays
d ynamic
Ġvari ation
t ail
li a
Ġpay ment
ĠS P
ĠR ight
I p
Ġs ale
Ġfem ales
IC ATION
c ers
Ġb odies
Ġsum mar
dec ode
wit zer
Ġconcern s
ĠAff airs
all enge
Ġp ixels
Ġext ent
Ġcomm itted
Ġbeaut iful
Ġc ov
ri ent
ru ption
Ġobject ive
Ġleg end
Ġab ort
` )
Ġstat ements
Ġb ucket
Ġw alls
mem bers
ĠSt aff
Ñ ĸ
sh are
she ll
Ġh orse
W ill
L ike
ĠLe on
Ġpurch ase
g overn
Ġop inion
Fe atures
Ġconsec utive
he ets
}^ *
Å Ł
Ġh op
ĠS ym
() ">
ÃŃ a
mult ip
put ed
a ux
fl ush
ĠF ALSE
Br idge
l ined
o i
$ ;
Ġw at
con current
m ont
ĠMal ays
Ġv ocal
Ġhel ps
Ġcy cl
Ag greg
Ġprint f
Ġmedal ists
ĠInv est
ĉĉĉĉ Ċ
**************************************************************** ********
ivers ary
ĠIn valid
oc ese
Ġdis ap
app y
ĠP A
Ġv ideos
As sembly
Ex tra
ĠĠĠĠĠĠĠĠĠĠĠĠĠĠĠĠĠĠĠĠĠĠĠĠĠĠĠĠĠĠĠĠ ĠĠĠĠĠ
M ust
ou st
)$ -
ur d
Ġ' #
St ud
Ġg ene
ur r
Int roduction
Ġrot ate
ĠPhil ip
Ġlow est
ad v
ĠAg ain
nob r
we ek
Ġle ct
ident ity
Ġsim ultane
Ġmass es
c amel
ID E
Ġult imately
witzer land
/* !
Ġman age
p ref
RE T
ĠSe ver
Ġbenef its
ĠUkr aine
ĠL ind
ĠFr ame
Ġag ency
in ating
ĠI F
Ġd ictionary
SP AN
at ical
Ġr acing
ĠNor way
' (
1 15
Ġcomp ilation
ĠT oday
Ġh its
Ġpart nership
Ġmanag ers
FLA G
P ut
T yp
De ath
er ic
b t
Olymp ic
Ġcheck s
f loor
ĠB h
ial s
w ick
Ġor ig
ĠAr k
ang ers
ĠMond ay
ben ch
ĠN ick
ĠInst ead
M achine
reg ular
Ġas ympt
Ġex ceed
Ġc odes
b urn
ise cond
Ġf old
ĠA ud
ch unk
ĠMel bourne
F ilm
att ed
ĠC irc
ĠC ab
Control s
Ġes cap
Named Cell
ich ol
ĠBar on
ĠMod ern
ĠEd itor
ĠC ru
pe ction
ĠB urn
ĠM unic
ĠRepresent atives
Ġaff ili
C CESS
ĠF ellow
map sto
Ġsl ot
Ġsign als
E Y
ĠSh ould
tim eline
ĠJun ior
Can adian
Ġstand s
EV ENT
ar on
pro duction
Ġqu eries
Final ly
11 1
iv a
ĠOff icer
ill ery
Con tract
ĠPub lished
ĠB or
Model s
ĠDon ald
Ġb an
c are
ess aging
ĠR eb
h al
Ġbel ief
ĠU l
local host
at ibility
Ġdesign ated
ĠB rian
Ġmov es
P riority
B M
ouri er
Ġattempt ed
Ġh orizontal
Pre vious
Ï Ģ
Ġto t
arg o
u ity
b uilt
Ġs ac
V ol
l on
ub ern
ens itive
ph oton
M ajor
Ġm ent
h box
Ġexpl o
ĠHamilton ian
br idge
Ġcell padding
SP ACE
19 13
ĠSk y
! </
in us
LO AD
ĠAcc ount
Ġsup posed
az a
Ġrec ru
Ġthe atre
HO UT
Ġscen es
F ac
Ġw arn
Ġ[ \
ues e
Cre ated
A ug
ĠC are
ĠMary land
Ġcharacter istic
Ġto kens
Per iod
ĠP a
fr ames
Ġwe alth
UR N
á »
ĠD ebug
Ch unk
P REF
riter ion
Ġim plicit
ĠĠĠĠĠĠĠĠĠĠĠĠĠĠĠĠ ĠĠĠĠĊ
Ġca using
Ġca ref
Ġrec all
Ġeffect ively
fef efe
EN ABLE
ac ew
C trl
Ġbusiness es
Ġenc oded
Ġindu ced
ĠF uture
Ġdepend ent
Ġvari ant
stats models
ĠN FL
Trans ition
Ġch airman
Ġ/* !
Ġcomb at
Ġre str
Ġtrad ition
med ium
ĠE U
Ġat trib
ĠJ ane
Filter Database
ut ies
Ġor th
Look up
ĠTh rough
55 5
ĠIllegal ArgumentException
ĠGr ant
Ġcoeff icient
ĠC OM
ĠP ack
Ø ª
Ġab und
. ',
Ġ" [
ĠMan chester
ub le
s r
Ge ometry
pear ance
Ġweap ons
Ġcl s
Wil liam
Ġ ri
ĠL ook
ug ar
text ure
Ġpredict ed
mat ches
inem a
Ġrob ust
Label s
Ġcharacter istics
ĠM att
ĠGree ce
ĠC hen
ic ut
ĠMag azine
c n
ver age
com b
CRE ATE
Ġfeed back
z i
At trib
ĠBase ball
Ġ-- -
ĠE RR
Ġext ensions
ĠT ABLE
Ġc ub
Ġto wer
yst al
Rece ived
Ġdr ivers
Ġcr ick
Ġk illing
pro b
ĠFre der
b one
aa aa
Ġem it
unn y
ĠC op
ĠG iven
Ġac id
ĠB ah
r ink
st ud
Pop ulated
uff ix
ĠC ulture
ab ama
code c
Ġbul k
Ġis instance
Ġco inc
enn y
Ġfil ters
Ġth anks
Ġle af
udd en
eli hood
un ing
] ->
Ġan imal
0000 000
ĠSt ore
Ġprec ision
ĠP C
Ġapp lying
Ã© t
Ġprogram me
ĠDig ital
M utable
Ġg ender
google apis
Ġsw im
Ġst ability
oun ce
yg on
Ġeas ier
Ġst ages
Data Type
t z
ĠMos cow
F ace
list ener
m ma
Ġp un
ari os
pro position
Ġint ent
plement ed
Ġstat istical
Ġt uple
Ġold est
Ġintegr ated
link ed
j b
ĠF all
th umb
Ġst rip
i ations
late st
Menu Item
per iod
Ġr ating
ĠSim on
v et
Ġres olved
Ġc riteria
aw esome
Ġtri ple
Ġd ry
}} $,
Ġk id
im ize
ĠDi ego
ĠA mb
C annot
M al
i ors
Ġcar bon
end o
AV E
OL D
çĶ ¨
ĠExec utive
uth er
SOUR CE
Ð ¹
ock s
Ġs cores
Ġliter al
fa iled
ĠS ite
% "><
def er
Ġvill ages
Ġcell spacing
Ġdom estic
sl ide
ĠHe art
ĠĠĠĠĠĠĠĠĠĠĠĠĠĠĠĠĠĠĠĠĠĠĠĠĠĠĠĠĠĠĠĠ ĠĠĠĠĠĠ
_ [
ag ues
Ġpil ot
ous es
ĠV ar
ĠM as
Ġso le
": "
Ġradi ation
fe atures
ĠN ull
Ġ* ,
Ġn amely
par agraph
B ibliography
Ġprefer red
ss ue
Ġcap tain
Ġthink ing
Ġconf idence
ĠF ood
f av
Ġ' -
Ġf ly
C ity
Ġa id
w iki
Bit map
P OS
Ġt f
ĠPro du
ĠDo ctor
C amera
Ġtr ains
in ch
F actor
jack son
(' ./
ag u
go od
ĠWhe ther
ĠO cean
ĠPl ace
Ġg reatest
fg han
inc ial
R a
el son
19 11
includ es
B ER
Ġf ear
ĠD ictionary
at on
Ġv ision
no frame
F etch
Ġthous ands
o is
ig o
M en
Ġoper ate
Ġbro ke
Ġstand ing
f ish
mark s
Ġsix th
Ġadd r
it ative
ĠD est
D er
iber n
az e
Ġbur ied
ab a
EX PORT
ĠN um
ur is
Form atter
at en
Ġf i
ann y
ar ity
var s
Ġkeep ing
b ucket
P ush
qu al
Ġrelig ion
') ->
Ġclass ic
Ġin verse
In jection
Ġnom inated
ĠRet ri
B ucket
dat etime
om m
kl ahoma
Ġrun ner
ac er
m ix
ate ur
SS AGE
Ġpost ed
Ġhom es
Ġamplit ude
ĠD ream
exec ution
viron ments
}} $.
s u
Ġstri ke
Ġscatter ing
Ġc ro
ap el
shall er
B ased
Ġwrit es
ĠI owa
ren ce
AP P
Ġvol unte
ĠEx press
Match er
Ġpercent age
d m
P al
Ġco ins
Ġco aches
force ment
Ġprem ier
ĠOC aml
ĠKent ucky
pos ure
Sports people
des criptor
Ġfl uct
1 16
Ġb ronze
ĠMA X
Ġ" ${
Ġbelong s
ag an
Ġbreak ing
Has Been
as p
F ixture
Met ric
up dated
Ġuncertaint y
l ad
Ġ' ,
ĠB os
ĠArg ument
oy al
th rough
1 12
The orem
M ich
ĠT ry
Ġdeliver ed
ĠJ am
? ?
Ġ Ä
ĠC ape
ĠM and
Ġcontrib uted
ĠB eng
Ġim pl
ĠAct ive
Ġdef initions
Ġhost s
contin ue
âĢĿ ,
ĠCl ark
Ġpers ons
Ġcon clude
ĠL eb
]( #
Det ector
Ġprodu cing
S pecial
He alth
Ġsymbol s
ĠD un
Ġk w
Dis k
Ġexhib ition
ĠAss oci
Ġcommun ic
/ )
te ction
Ġinvestig ate
Ġcr ash
Ġs ed
Ġpre pare
Ġclos er
E ast
U nd
ĠR ol
Ġspe ak
ocr atic
ĠM O
pay load
}$ )
ĠB Y
> [
member NameLink
em ony
re le
Ġsent ence
Ġan imated
T ensor
n ie
s ass
et ies
Ġred irect
Ġst arring
cl ine
Ġin fer
Ġd ust
Ġpresident ial
Ġ======= =
c ached
j oint
ene z
ĠK y
Ġsh adow
Ġacc um
Ġcrit ics
Ġdisc rim
ĠB arn
con cat
ec lipse
L em
Ph il
respon s
Ġtemper atures
Ġequ als
S am
ir y
Ġsatisf ied
erial ize
t ele
ĠH or
Ġperman ent
Ġinter act
h ill
Ġcol lections
Ġeduc ated
T X
ĠN ever
Ġcap able
Ġlog in
u ent
Ġrelationship s
I ME
Ġp apers
Ġcr isis
Î ·
Ġ å
14 0
g ies
== =
ure au
D avid
Ġre form
Ġcomput ational
label s
urren ce
re p
id o
ĠPro duct
el ve
Thread ing
Ġsee ing
ĠIt em
Ġparticip ants
ĠViet nam
iss ip
N ECT
part y
ab i
ri k
Ġquant ity
ĠB an
Sup press
Ġm ail
do or
Ġoffer ing
Ġcomput ing
red irect
Ġch arts
not ification
ĠJ ordan
str ument
Ġc arri
un ior
C ulture
Ġas sets
ĠSen ior
ADD ING
c mp
Ġf olk
l ive
sp in
Ġf oo
sl ider
Compar ison
R S
\ {\
ĠS u
ache lor
Ġbrief ly
eg as
Ġtra ject
ĠJ ay
ateg or
oth s
Cont in
ĠB ra
om er
ut down
ĠSt one
Ġpack ages
St age
WA RE
Ġex cess
add Class
Ġs ampling
ol i
> `
ĠPr ivate
G it
Ġe c
19 08
oc om
ĠL INE
ĠL iter
pr ises
in th
ref resh
ĠK at
Ġportr ay
ĠComm un
un ately
az ure
Ġref used
Ġro of
Ġm ales
ex cept
Ġtri es
N or
... )
Ġseg ments
ĠPat rick
HasBeen Set
plic ity
dis patch
Ġa apt
- ">
Ġan notation
el led
) }_{
run ning
Ġcoll apse
10 5
Ġsomew hat
Ġmat ched
> {
Ġre tain
Ġpers pective
A MP
Ġk il
Ġdel ivery
roll ers
v art
H on
T ry
Ġterm inal
] ['
serv let
ĠS to
ig ator
Ġcollabor ation
A E
Ġinterest s
t v
Y our
OT TOM
Ġcover ing
| _{
ic ular
: }
Ð¾Ð »
Ġprof ession
ri ends
Ch o
Ġen emy
get Attribute
TER N
Work er
Ġf ired
seg ment
ain ian
ĠHash Map
gle w
g ems
M c
L D
Ġch apter
N a
ĠCon d
Part y
Ġhel per
Ġ ĉ
Part icip
cul ate
AR RAY
ĠDe ad
ĠLin coln
Austral ian
' },
Ġs ender
Ġin structions
ĠSe ason
ĠSil ver
AT URE
ĠDe ep
ul us
draw able
D ict
ĠAdministr ation
op am
ĠS quare
m anagement
Ġchalleng es
ĠR ange
li ps
Access or
tool bar
set Text
c urrency
Ġ' @
ĠN ik
C UR
Ġflow s
L i
Ðµ ÑĤ
work s
K ernel
c ity
Ġjust ice
ĠS witzerland
Ass et
ĠM atch
Ġsk in
c ref
ĠD ue
æ Ī
or ro
id ges
Ġinf rastructure
value Of
ĠS ix
20 23
is o
IT LE
__ ["
F ix
y ll
Ġinstit ution
Qu ant
Ġd atasets
f ilters
load ed
Ġvers us
Com ponents
av is
Ġdep os
pi pe
W ORK
ĠB alt
Ġass ignment
Ġshoot ing
DE D
ate st
Å «
ĠR yan
Ġrepresent ations
Ġair port
ext ensions
N umer
Ġh un
ĠN ev
Ġc p
ĠU P
Ġworld wide
Ġformer ly
Ġd ense
$ ),
SP AC
igen ous
ĠGener ated
Ge ography
B uf
Ġrel ax
) }}
O k
rib uted
G iven
R ich
ĠS SL
bum s
Ġman ip
oriz on
Ġhum ans
View Controller
ic ians
Ġadd s
" ])
Ġres istance
ir i
Ġbro thers
Ġequ ality
se cret
ĠA z
Ġv o
er d
G RO
X Y
ĠM ust
Ġs we
ĠâĢ ł
Ġem otion
Ġg it
" ?>
ĠM anager
ĠT en
Ġgu ess
Ġeduc ational
SU CCESS
start s
ĠFor ces
Ġdr ums
Ali as
Ġread s
Ġexpl ore
P ixel
x sd
ĠL I
ĠA C
Ġare n
Th erefore
be ans
G overn
ĠB asic
re nt
ĠK EY
O FF
Ġheav ily
pop up
Ġoccup ied
} )$,
Ġr ig
re ason
Set up
ap l
Ġimmedi ate
is lation
S an
__ ,
An im
Ġro ots
Ġdi plom
0000 0000
Ġre aching
C SS
Ġdepend ency
Te am
sub string
min ip
display Name
Dist ance
p ic
MA GE
Ġsp end
Ġcert ificate
N ONE
Ñ Ĩ
AR GET
ĠT ab
h our
i em
Ġrough ly
. ")
ĠTr ack
ip er
Mod ifier
=" {{
Ġb low
Ġthe ories
Ġ. =
st ances
Ġmay or
Track er
Path s
Cert ificate
Ġm es
Ġdep ict
Ġhard ware
ĠJ os
TH ER
Ġb id
ĠâĢ ¦
Ġman ifest
Al ert
Second s
ĠTh ird
S UP
W I
Ġadapt ed
en ess
Ġret ail
ĠS ri
Ġint elligence
B lob
d ers
y cl
; ,
igr ants
Ġn ice
Test ing
ym n
ĠMar c
ard o
s ent
IN IT
b iz
Ġl ake
Ġpropos al
Ġpl ate
Ġconfig ured
A zure
d elegate
p aces
ĠH ans
Ġsur g
Ġtr ivial
ĠT OP
ĠN AS
ĠAll en
Ġabs ence
ĠE uro
Ġmembers hip
TableRow Color
ĠG ordon
ĠWIT HOUT
Sh arp
ĠCon stitution
Ġrespons ibility
ĠM oon
18 90
B us
ĠS V
Po jo
ĠA P
Ġh ook
ĠAust ria
Mod ified
B al
Ġeven ing
olog ists
Ġprodu ces
Ġcommand er
Ġs yntax
Ġ" #
/ (
ĠK now
Ġrespons es
ul i
Ġin herited
}{ |
Struct ure
pro c
Ġpract ices
Ġopport unities
Ù ĩ
) +\
ĠAl abama
w i
Ġint ensity
ĠReg ional
andid ate
Ġent itled
Ðµ ÑĢ
order ed
Ġdefault s
C ountry
attr s
ĠMar ine
Ġ( ,
ĠF M
ĠB ORDER
ĠD al
trans late
ĠVer ify
Ġacc used
Ġd x
met ic
Ġmix ing
re present
Ġwrap per
Ġm arg
minip age
st ood
ĠP HP
L ive
D ITION
Ġmain tained
ĠHow ard
G a
Ġtransl ated
Ġplatform s
m ov
ro ck
Tr igger
'] .
des cribe
Ġsh ares
Ġr anges
Ġsch ol
alle st
ĠZ h
Ġch ose
ĠR ender
ĠAm ong
Ġm ort
d td
ĠÃ ł
Ġfr anch
Ġ" ;
Ġsett led
in ction
Ġdis miss
10 4
ĠHot el
t oc
Ġmom ents
Ġl ift
Ġiter ation
Ġdis p
Ġdis crete
me asure
5 12
ial ect
Ġnot ification
st ub
cript ors
aw ay
ĠS yntax
M F
Ġoutput s
Ġt ight
ke e
w ho
Ġhead quarters
Ġir re
at iv
C la
ĠIslam ic
ĠTh ursday
Ġly rics
C LA
ĠH u
L ines
Ġsk y
pl acement
Constr aints
ST ART
Wh ite
T l
ĠG ib
W ARN
od ge
âĢ ĺ
ĠS mall
ro ph
RE SS
>( <
to Equal
ĠDis ney
P ending
ĠEx pression
B ACK
p ending
Ġle s
it ics
Ġag ed
Ġown ership
Ġf aced
################ ################
a ui
b est
Al pha
st ion
st e
Ġs in
s ure
cri ber
ta h
st ory
plic a
pack ages
ĠS n
M IT
Ġne ural
phant om
%%%% %%%%
v i
CO UNT
Ġent ropy
ambig uation
ch at
ĠM rs
Ġnormal ized
Ġ$ |\
ĠMod al
ul o
$ };
Ġdr um
sub Nav
L com
ins ic
ĠF a
Ġcrow d
ĠV ice
ĠD A
Ġm ac
Ġk ids
ab ad
project s
elastic search
man ifest
mut ex
et c
ĠAnth ony
gu ide
ul ner
Ġcon clusion
Ġarg ued
Ġj ourney
Ġdec ade
Tem p
task s
Ġpar a
ĠOther wise
Ġs ought
m x
Ġjoin ing
is ely
A SS
Ġv irt
Ġun iverse
Ġro bot
ĠG ard
ĠÐ ´
aw are
n l
Ġg ar
Ġannoun ce
Ġcon sequence
Ġdescri bing
Ġsit uated
ug u
b ow
}( {\
Ġcertain ly
ĠSquad ron
Ġ< ?
FUN CTION
N eed
Ġ( ),
Ġt ack
row se
S core
ĠG raph
Rev iew
Text View
Ġf ra
os er
max cdn
Ġknow s
FLA GS
ĠP ur
Ġreg istration
ĠTok yo
ĠS el
iv idual
char acter
Ġinterpret ation
item pty
40 4
Ġc ards
Ġex pr
ĠTem ple
eg et
Ġconstit ution
ĠOb ama
Ġincor rect
g p
add ed
ĠNor wegian
Ġb rown
am an
om itempty
}} )
ĠD CHECK
CR IPT
Ġm it
Ġhouse hold
ĠHou ston
T L
lo om
=- =-
Ġretriev e
ust ed
ĠF A
Ġm acro
w en
Ġsc an
Trans fer
Ġback ing
LA B
Ġtalk ing
ov ak
File Path
Stat istics
Ġgener ating
Ġj azz
! =
is en
pre pare
ĠV olume
all as
ĠTR UE
ab stract
ĠTele vision
ĠT oken
Ġ" );
up per
19 05
ĠB ry
Ġ æ
Ġhelp ing
ownt own
sc an
ĠMethod s
ĠÐ º
ĠK IND
ĉĉ čĊ
× ķ
ub b
olv es
li est
Ġrepl acing
Ġm ile
el and
ĠC ooper
Ġdiscover y
Ġinter mediate
Ġsort ed
WR ITE
iz ard
tr ain
neg ative
ĠSp acew
Ġshort ly
Oper and
OB JECT
Ġorient ation
ĠF le
es is
Ġregard ed
ĠWed nesday
ĠF ame
Ġl ose
styles heets
Ġher o
Ġtr im
Ġpract ical
Ġre new
Ġr c
1 18
N I
mod ifier
olv ing
ĠCon stant
Ġcho ices
Mon itor
Mark er
Ġdeb ate
Ġden oted
ĠM S
Trans lation
let ter
Ġnecess arily
Ġste el
depend encies
on i
ĠJes us
ĠT YPE
f ac
ĠMod ule
Ġsubject s
ĠPal est
et r
ish ing
se p
Ġweek end
è ®
( `
he x
ĠL ank
ĠQ ual
S ing
Pro c
Ã ´
ĠCEL L
Ġpain ter
ĠSystem s
SPAC ING
script s
Ġexperi enced
: %
issip pi
Can vas
V O
! (
Ġessential ly
Ġloc ale
Ġre ar
aw t
REQ UEST
ad apter
* ,
Ġrest ore
ĠSpacew atch
ĠEnt ity
ĠD atabase
sl ash
ĠS port
Ġs v
stit uency
Ġinv ited
ĠK evin
il k
Ġattack ed
j or
N ON
An chor
Ġconcentr ation
ch rome
Ġfavor ite
pag ination
Read y
Ġresearch ers
Ġne ither
Ġbo at
ibern ate
Ã ª
Ġt s
Ġpost s
h base
Ġenc ode
O cc
ĠL evel
Ġconcern ed
L ite
ĠT er
Ġf ought
Ġgr ade
Ġgun s
Ġexper iences
ĠLic ensed
pr ice
B ul
Comm it
Ġcl im
ac ht
ĠM IT
ap ps
Ġrespect ive
Ġaccom mod
Ġ" _
Ã «
Ġest imation
R adio
Al t
ĠF ilter
Ġcan onical
Function s
Ġend if
Ġlist en
Ġsatisf ying
met rics
Dest roy
ĠCro at
; %
Ġm m
M ix
Ġd iver
Ġsuc ceed
th ree
Ġsubs cription
Ġs ons
rop ic
ĠA st
Scal ar
ĠÂ ©
Ġmolec ular
ĠWh it
Ġdis patch
ok ing
g lob
arg v
s ources
&= &
19 2
ĠEm peror
ĠO klahoma
Mer ge
ĠA fghan
Ġv oted
Ġprocess ed
Ġt er
ĠT uesday
S rc
as a
yn opsis
Ġt urb
M r
G reen
Ġent ities
Ġbring ing
Ġex posed
N R
set ting
â Ķ
as hes
ĉĉĉĉĉĉĉĉ ĉĉĉ
Ġdraw ing
N orm
19 07
Ref lection
H AND
Ġj et
Separ ator
Tele vision
the less
Sc ene
ĠConnect icut
ĠD VD
ic ates
es ides
ch anges
Ġsign s
j u
Ġ\ &
ĠCont in
I l
Ġoff ices
ĠWal ter
> .</
Ġderiv ative
ĠCon nection
ĠCon sole
="../ _
Ġimprov ement
lo pe
ĠO P
Ġc orn
Ġp up
Ġs now
ĠA le
b ounds
Oper ations
Lower Case
id al
H ar
ĠR ound
19 06
ex ual
ãģ ®
Ġrestrict ed
_ -
S afe
ow ski
ĠHol lywood
Ġd ies
Ġ" )
Tool s
Ass ign
Ġfound ation
path s
ĠD ave
ĠMe an
E urope
ĠDe ath
: &
ĠP ear
Vis itor
Be havior
T ri
å Ń
am ond
ect ure
separ ator
i pl
ĠCh ile
sp ort
ĠC ert
Ġn ortheast
E very
ĠB us
ĠS ingle
ent ries
ĠAb b
S UB
ĠP UBLIC
E ducation
P ress
us cript
her ent
Ġs lice
Ph oto
Ġte en
ik h
ĠY outh
L ang
H ol
Ġlist ening
) *
ograph ical
Ġart ifact
ĠH op
Ġsign ing
Ġliqu id
Ġmov ies
Ġoper a
LP ADDING
fl uid
S ent
Ġexcell ent
ĠAn ne
ĠOn line
$ :
Ġres erve
ip edia
D one
Ġmod er
Ġrep ly
M esh
="@ +
$ _{
Ġlaw yer
Ġpotential ly
* >(
Ġmark er
Ġgr avit
Ġbound aries
pe g
S uite
Ġequ ilibrium
quis ition
] </
19 09
R adius
Ġtr uck
ĠĠ čĊ
ous el
Ex it
ĠCommon wealth
ĠBul g
P rom
un iform
Ġembedd ed
ĠI T
S eg
Ġs a
az el
w alk
ĠCELL SPACING
ĠIsrael i
sur face
ĠCEL LPADDING
ĠB uck
Ġeval uated
Ġinj ured
Up dated
in ces
ME SSAGE
con g
St d
) -\
ĠW atch
Ġtim er
he el
att ach
m ys
Ġmusic ian
ĠK er
Ġexpl os
Ġapp lies
Ġcon crete
Ġn ested
Ġgood s
Ġp it
ub er
Ġ// !
Ġmark ets
Ġ$ ('#
ĠMo ore
osp it
est ure
ane ous
dir name
19 04
RO OT
initial ize
Ġ Ø§
et al
Ġext reme
Top ic
f actor
ĠI gn
ĠMot or
ĠNS String
Ġaut hentication
append Child
Ġneigh bour
+ "
Ġposs ess
ĠD ir
Ġmet res
Ġth in
ĠÂ »
ĠP as
ĠB AS
ĠTr aining
Ġcomp re
'] ))
ĠInitial ize
h alf
ĠC P
10 6
Ġrem oves
ĠO ak
Ġpartial ly
Ġperiod s
Class Name
Ġrev olution
ut ter
Ġun iversal
Un ique
ĠS ize
P ipeline
Ġm ob
cond itions
c op
ĠĠĠĠĠ Ċ
ĠMark et
10 3
G raphics
st eps
Ġl aid
Ġpr ices
M o
ar o
Dist ribution
sample s
Ġch air
Ġdec isions
Ġs oci
Al so
Ġclos ing
ĠMed icine
U V
ic ide
Ġa ired
__ .
ĠWh y
Ġaccom pl
app ings
iev al
Pop up
t one
Ġsu it
Ġappear ing
ubern etes
SD K
Ġclos ure
look up
ext ype
Ġpro files
P ref
Pr ice
Ġdecre ase
ĠP ed
ĠYou Tube
Ġm ental
ĠMat the
Mill is
Ġl it
pt ic
Ġv ec
D ry
ĠTurk ish
rg b
act iv
IN DEX
Ġaccess ible
i able
redu ce
Ġdi agn
D im
RE NT
C ould
n an
Ġ} ).
ME M
ge ometry
ãĥ ¼
ĠDet roit
af ari
ss on
Ind ian
Pro du
E LEMENT
constr aint
Ġsoc cer
r uct
Ġt ip
ĠC ow
Ġm ath
ĠP ope
Ġdec ide
Ġleg acy
dis ambiguation
ĠPh ot
at ile
P aint
ĠD ick
ct ree
ce ived
ĠHarr is
Ġm ine
Ġeng aged
over ride
ref lect
Th rough
ĠJava Script
ĠD raw
Ġas pect
FORM AT
Ġentert ain
inos ity
ĠM obile
V ill
Ġpl ain
Ġsing ers
: /
ĠO ptions
Ġenh ance
MS G
ĠCh ampions
com ments
se a
md c
ĠC ache
s is
ĠBr un
-------------------------------- ----------------
Ġs udden
ĠF i
Dec oder
ĉĉ Ġ
Ġhand led
c v
t uple
Ġv eter
en vironment
ĠC F
Ġconv ex
Ġr ival
M us
ĠO tt
Ġeng ines
t ol
Gr ad
Ġm art
S eq
Ġmarket ing
F ootball
Ġembedd ing
cy cle
init ely
pr ised
ĠMi ami
Ġch urches
Pro of
N eg
Ġbr anches
10 7
ĠT reat
avel ength
Ġs ounds
bar a
hel lo
Ġfall s
op acity
in burgh
ĠInf antry
ĠAg ency
Ġgr avity
av ia
Pay load
ĠVill age
Ġdesign s
d ataset
v ia
AS H
____ ____
ĠD ur
ĠO k
Ġder ive
Ġcre ative
periment al
ĠâĢ ¢
Ġdi agonal
Ġs napshot
Ġcom fort
Block s
EN TRY
Ġed ited
Ġw ww
Ġret irement
æķ °
Ġparticip ate
External Task
Sche me
f aster
Ġspe aking
Ġsh aring
Ġliter ary
P adding
ĠT arget
Ġpoet ry
+ (
br anch
subs cribe
Ġdr iven
H istor
ĠEar l
Ġh a
Ġcer emony
met ric
T ip
Ġcompet itions
Prot otype
Ġc raft
A K
W alk
] ).
Ġdirect ors
ĠC ook
ast s
Ġcon vention
R ound
Ġdecom position
isecond s
ĠW HERE
FFFF FF
Ġcon cluded
ĠN ichol
Ġl ob
et ary
Ġinflu enced
FA IL
AB ILITY
Ġint ention
Ġhistor ian
ĠWalk er
ok er
Ġcross ing
on der
Ġg ro
Ġcr icket
stream ing
Ġrad ial
Ġf lying
ĠBatt alion
Ġsufficient ly
r ides
u able
ĠSoc orro
ĠLINE AR
F ire
ĠAl an
f m
ĠF inn
Ġre ception
Ġst ub
SER VER
: =
Sc an
Ġrepe at
cl ock
}\ ,\
Ġbo ys
H ello
Ġseem ed
ĠR ab
( []
ĠU r
Un iform
Status Code
ar ith
Ġm s
ĠP i
Ġinvolv es
ĠD ol
C art
ĠSt op
li x
) --
back end
Ġsubstant ial
ĠTai wan
Ġroy al
ĠC hem
Dest ination
S n
ant on
Ġg ate
ump y
ib ilities
und ers
Ġsens itive
ĠL abel
Ġdemonstr ated
Ġb ot
Ġh am
ig ious
Ġor b
am ar
ĠSw iss
Ġle mma
Ġinstall ation
sche mas
Ġeth nic
is ations
ĠString Builder
I ES
P eer
ro b
ĠC ole
Pay ment
Sl ot
lo yd
H int
Ġcent uries
9 00
Ġm outh
ma zing
nos cript
Ġn ick
F ill
Comple tion
ĠPro file
Ġincorpor ated
c ookie
Ä «
Ġpost er
Ġsurn ame
Ġpy thon
ĠG it
Ġe g
ĠL as
un ion
Î »
ĠK az
ĠParam eters
ancell ationToken
}{ (
inc or
ĠHer itage
ĠArgent ina
Ġat omic
Ġfac ilit
Ex tract
Ġshe et
Ġp tr
ĠDub lin
ĠEx pl
Ġwor st
Cl ub
n est
road cast
P an
âĢ ¢
end a
com es
Ġpredict ions
Ġscient ists
ĠOper a
ĠW y
[ <
ex tract
Ġs elling
ĠN ap
Ġd ele
Ġd ens
Ġnorm ally
B orn
ĠĠĠĠĠĠĠĠĠĠĠĠĠĠĠĠĠĠĠĠĠĠĠĠĠĠĠĠĠĠĠĠ ĠĠĠĠĠĠĠĠĠĠĠĠĠĠĠĠĠĠĠ
ĠV in
ĠB ureau
th ere
Ġinh abit
Ã© r
ĠE arly
Ġprov ision
bo ards
Ġfile d
Rel ative
Sche dule
14 4
Ġtop ics
ĠAn alysis
(" .
Ġvict ims
Ġcomp iled
m ill
sp ark
Ġcount s
respons ive
Ġcons ervation
Ð¾ ÑĢ
hash Code
ĠH ost
ĠGr id
Ġwhe el
FT WARE
Ġcos m
In line
iss on
SH A
ĠE u
STR UCT
Ġcom ic
M arch
Ġsever e
Ġres cue
ĠIm port
Ġcontr ad
Valid ate
S peed
Ġsust ain
Ġattr s
ĠL ore
tikz picture
ĠK elly
V C
Ġrequire ment
Ġrecover y
n ail
Ġdire ctions
att ing
ExternalTask Pojo
m aml
ĠNC AA
Z oom
En tries
Ġaut hent
Ġemph as
Ġcor rel
B T
Ġ( `
Ġstrateg ies
ver b
cl osure
A ir
we ak
Own Property
Ġl l
parent Node
ĠCon struct
ol ute
Str ip
Ġvol umes
ĠL L
r and
ĠPri x
With out
Ġs ensor
Ġrestaur ant
g ate
ĠSc ient
Ġsub group
ĠH ig
iz z
ĠBill board
ĠMult i
ĠLe ad
y ers
Ġa ux
Ġleg islation
cs v
Ġconfig ure
Ġappre ci
at om
11 4
ĠLa ure
ĠBelg ium
che ll
Re place
? (
Ġt on
Ġroad s
Ġcommission ed
ĠStud ios
Ġpoint ed
Ġabandon ed
Ġs outheast
us ual
vers ions
Set s
) &
Ġpresent ation
19 02
Ġto String
Up per
Ġhe aring
Ġdis estab
Ġentr ance
ĠN ob
00 5
row Color
ĠLem mon
re tt
Ġlook up
op ter
ĠDoug las
Not able
ĠSing h
ĠR ap
Ġst ood
Ġfound ing
Ġcon tribute
ĠB ab
a ire
ĠD NA
P aul
ĠHon or
PAR AM
al gebra
es cape
Ġil legal
Ġloss es
Rob ert
Ġconfig urations
a que
Ġclass ified
ĠPl ant
ol ished
ĠCle ar
19 03
g ray
us age
en o
ĠW ord
ep age
Ġfew er
Ġ ^{
Ġt ennis
ĠĠĠĠĠĠĠĠĠĠĠĠĠĠĠĠĠĠĠĠĠĠĠĠĠĠĠĠĠĠĠĠ ĠĠĠĠĠĠĠĠ
Ġt ank
gener ic
Cle an
Load ed
Ġre nt
P e
Ġteach ers
p ipeline
Ġphot os
Ġestablish ment
C ookie
c as
Ġstre ets
apt ers
Ġcompet e
Ġaccomp an
ĠN ag
ĠGr am
}) }
Ġfl ash
int o
ĠDef ense
pect or
ĠG irl
ĠAdd itionally
en ix
or us
ĠQue bec
iv o
C amp
ĠD ak
ĠO pt
Ġab use
19 01
D ao
m aker
Event Args
ĠC C
at ype
Ġmin ing
FR AME
t frac
ĠIm Gui
Ġcred entials
ash i
n ia
u its
ĠD og
ĠH D
ĠUs ed
M ail
por ated
Ġdesign er
Ġtrack ing
S mall
^* $
ist ol
×ķ ×
over flow
Ġconsist ed
st ri
" }
l arg
im ore
Q t
Ġalign ment
ĠWh ere
n ik
sect s
T imes
ts burgh
Comp are
Form er
ĠS R
ĠA gr
ĠInd eed
Ġhead s
Ġp ray
Ġreport ing
W arnings
' ):
ĠE ag
Ġro uter
Ġconnect ing
ĠTr ade
------------ -
ĠSt ew
Ġf aces
ĠP rom
k ov
Ġadv ice
ĠL ock
// !
hens ive
Ġpublic ations
Ġdemonstr ate
... ,
ĠMem ory
ĠHaw ai
Ġcharacter ized
GB T
b re
vis it
Ġassum ing
U UID
Ġsepar ation
Ġst adium
fav icon
ĠAd vent
Ġdesc end
ib ling
Con tain
Vis ibility
Ġst ead
Ġpass enger
pro f
Ġp in
// ----------------------------------------------------------------
é Ģ
ĠB OTTOM
ĠS ession
Ġ} {
vel ope
ĠRem arks
Ġdecl aration
Data Source
J une
Ġfeel ing
sh arp
ĠS W
stat ement
ĠT EST
work er
Key word
Ġillustr ated
Ð¾Ð ´
Ġin ternet
render er
ind ices
il st
Ġcov ari
ram a
atur ally
Ġd eleg
om as
ĠC S
sp i
urr ican
T wig
s ame
ĠL eft
Ġcour ses
dem o
k n
less sim
M ilitary
Ġcon form
Ġassum ptions
Ī Ĵ
Ġland scape
Ġass ault
ĠI ron
ĠP si
ĠAnton io
ĠS ud
ĠP ackage
Re q
() [
å ľ
el lect
Ġsy nd
Ġro oms
3 50
] ),
For ward
ific ial
Ï Ĥ
@ {
ĠC HE
g ather
Ġarray s
clud ing
h w
Ġre ward
Back up
ipp et
Ġfle et
,\ ,\
ĠMiss issippi
$ {\
Ġc ash
trans l
Ð ±
ust ries
ĠInd ependent
Ġmag net
ab ul
Rec ip
Ġdevelop ers
ĠO K
Ġneut ral
ĠAt tribute
Ġpres ents
F W
Ġrender ed
Ġr hs
uk i
R oman
Ġcomple ment
enez uel
Ġarr ival
AUT H
Are Equal
id ad
}} .
ĠMay or
t iny
Ġsports people
av ers
Check ed
Ġthread s
Ġcal endar
Ġhypot hesis
ĠN atural
level and
> ../
ĠB ush
Ġwh atever
Sh adow
tra its
Ġre vers
U Int
Ġre in
pon d
ĠLouis iana
ic he
oc he
Ġregular ly
part ition
Ġd uty
gr pc
Ġ" +
ĠH ills
Ġfinish ing
Me asure
Back end
ĠEn c
ex pl
se ed
ĠM ol
ĠSar ah
100 00
L B
Ġru led
ph ab
Ġhigh way
C he
Ġat om
Off icial
fin ite
reg istry
d frac
Rep ly
Ġse es
ather ine
\ )
J uly
ĠSam uel
Ġde ployment
Ġcheck ing
Ġexp ensive
/ '
Ġocc as
ĠM aur
ĉĉĉĉĉĉ Ċ
to LowerCase
Ġhe x
Ġunder stood
ĠWork s
h ist
ag ement
ĠM achine
Ġa cknowled
Ġb irds
)) $
Ġassist ance
ĠSt udio
Pub lish
Array s
L and
` :
Ġref resh
Ĩ Ĵ
24 0
J ames
Ġsem antic
OR S
10 9
J s
St yles
f v
df s
Ġassoci ate
hy thm
Ġrapid ly
ĠP ref
ĠIndones ia
B usiness
first row
c ord
è ¡
s ong
Ġdom inant
S ound
com par
Enc oder
Ġexception s
Java Script
ail and
Ġquant ities
pos er
ynam ics
empty set
ĠSt and
Bl ue
c ourse
Ġm esh
ĠUn less
Ġcarry ing
New ton
co hol
ĠT rib
Ġyour self
ĠBow l
G T
set Attribute
allow ed
Ġund ert
Ġvari ations
ir ms
Ġin aug
ĠM D
Ñ ħ
ĠPortug uese
par allel
Al ign
Conn ector
ĠBrazil ian
Ġ// -->
æ Ĺ
ĠE ver
ol ate
r x
Conf irm
B D
ok u
ĠNav al
Ġclin ical
. ');
Ġt ile
Mult iple
G ood
c aret
y c
c rs
ymmet ry
d ump
Ġdom inated
Ġs ight
ĠD im
ĠH amp
ors es
New s
P icker
Ġch ampions
ustr y
Ġg iant
s creens
is ons
ĠH ockey
ud o
ct ors
Ġa str
Ġvari ance
ites pace
subs cription
PROP ERT
ĠM es
id en
h int
qu o
AME TER
Ġpart ners
St mt
NG TH
ut r
M obile
u eto
Ġl ibraries
Ġtouch down
ĠAr men
faster xml
Ġturn ing
Des cribe
oust ic
t m
Ġb on
Ġd ot
==== =
//////////////////////////////// ////////////////////////////////
ĠEd inburgh
app oint
ir ical
ĠDen mark
d ag
Stack Trace
ĠOr th
post s
m ust
pre view
10 8
ĠPortug al
ĠRes erve
ĠW ard
loc als
ĠG arden
Ġsecret ary
S lice
pro fit
Ġident ification
fort unately
ut ation
ĠPro perties
Ġc c
b n
Ġstudy ing
Ġsimultane ously
Ġpan els
Ġpop ulations
ĠB ou
h us
Ġpro pose
size of
Ġb anks
> ()</
Ġw ed
per ature
Ġprec isely
Aug ust
Ġincreasing ly
U int
Ġst ating
Ġreg istry
Ġr m
Ġim possible
ĠN eed
Ġinter pol
18 80
Al gorithm
Ġappro val
n io
Ġsub mitted
Ġf ib
Ġview ed
dest ination
p f
u art
Ġdef orm
u is
to ctree
Ac adem
Ġ} ),
Ġbas eline
st mt
Ġhundred s
w ave
op ol
ĠH ug
S ig
Open Tl
2 20
In ject
Ġw aters
Ġred shift
aud i
] <
od ox
gress ive
er gy
L ow
p riority
] =
block s
Ġisol ated
C ross
Ġcomp ile
Ġrestr iction
Ï ħ
Ġne arest
Ref resh
inn ed
G M
ĠA V
,\ \
Ġst roke
Ġ ì
BY TE
m outh
Ġman ual
ĠMar shall
ut t
List eners
dis k
s leep
ĠĠĠĠĠĠĠĠĠĠĠĠĠĠĠĠĠĠĠĠĠĠĠĠĠĠĠĠĠĠĠĠ ĠĠĠĠĠĠĠĠĠ
dr ag
Ġacc ord
For ce
at able
ant ed
Ġinstr uments
ĠAb d
Ġcon sequ
ĠG all
ĠS cal
Ġcorre ction
Ġcoll ision
Ġs essions
ĠPu erto
5 000
quest ion
ĠF arm
o il
i ota
ass ador
Subs cription
Ġpublish ing
Wh y
p k
over lay
Ġ"- //
Ġpaint ings
ĠL P
f ather
ĠDe an
m illion
Ġut ility
Sur face
H D
ĠAppend ix
c py
Al ignment
c art
over ty
leg es
PREF IX
;\ ;\
or ne
ro tt
ĠMem bers
an ion
ah n
a ac
Ġep och
ĠS pr
Ġkn ock
Att empt
o j
re pre
v y
Ġappe al
Ġmag ic
NotFound Exception
Y S
ex clude
ĠN ash
Ġreason able
ĠAng el
ĠMalays ia
G ateway
Capt ure
Ġre start
Ġh int
An notations
z oom
if ference
Ġemerg ency
Ġphilosoph y
F lor
Ġar med
ĠSe attle
Ġpen alty
g ow
Ġalloc ated
Rece ive
Ġconvent ional
ĠM ission
b ors
he ta
ĠPal ace
I FI
ĠL ane
Ġf ixture
Ġgrad uate
Ġfamil iar
press ions
r ig
---- ---
ĠT i
std err
Cred entials
ĠH it
ĠB reak
Ġd ress
Sub ject
Ġj unior
iss ance
Ġa ug
Ġman ifold
Ġcomp ens
to kens
Ġcru cial
Ġh ired
bor ough
vis ibility
k ar
cast le
{ },
ĠB erg
ĠBrig ade
Any Ref
Ġnon linear
v ature
iver pool
ueto oth
H ook
ul um
? </
vent ory
Ġbl ank
tr ivial
ĠW ait
Ġgr pc
ĠL iberal
i ac
! \
ff ee
Ġ/ ></
non atomic
serial ize
Ġlic ensed
} >
ĠCre ated
ĠE mer
ĠCh art
t age
ĠZ end
ĠÐ ¾
Ġgu y
Ġmain tenance
Ġv ast
Cal led
Ġen vironments
D imension
ĠO wn
Ret ry
oun ced
Ar r
Ġneut r
ĠCol omb
Ġmiss ed
Ġre ign
Ġ urg
ĠY an
ĠF red
ud son
Ġmys elf
C V
<? >
ĠWeb site
tr ansp
Ġform ally
ĠBru ce
Ġp ip
Comple ted
ai ro
Def ined
ĠCons ider
sc ene
LO B
ĠN othing
Ġrep o
c ost
as ma
im plementation
Per cent
Ġd s
ec ycle
Ġvis ibility
BUIL D
ĠSum mary
Ġfranch ise
ĠP ad
\ }$.
St ation
\ /
p us
ĠYear s
Ġprodu cers
pack et
Ġsub mit
Ġener gies
ĠH ad
Ġwatch ing
LIN K
ĠK on
repre ne
ĠC emetery
ĠArk ansas
= .
Ġadapt ation
A pril
ĠJ ason
ĠZ one
S heet
Block ly
Ġvary ing
ĠRequ ired
Ġ\ ]
Ġsing ing
Ġb os
roll ing
ĠM atrix
ĠMc G
ĠR andom
Ad v
ĠP ap
R IGHT
S chool
Ġmanufact uring
N OS
ĠOr chestra
ĠCON FIG
IE W
Ġprint ed
; ]
ke leton
S cheduler
ĠP red
Ġpass engers
d ied
ĠÃ ī
B ag
Ġag encies
Ġdrug s
ĠS witch
Ġon going
Dis abled
Ð¸ ÑĤ
p al
ĠU SE
Ġ/*! <
13 5
B g
ĠRes ources
ĠLaw rence
ĠFe ature
um in
s ender
Ġloc omot
Ġsp ending
Ĥ ¬
S pe
Ġout come
F eb
hib ition
S al
Link ed
ĠAl low
sl f
ĠB art
p od
t bl
d ating
st roke
ĠF oot
Ġ' ')
Ġind ent
sign al
af ka
Ġmid field
ic ious
ĠD oc
Ġwhen ever
Ġdat etime
M ov
Ġf ault
h ab
list ed
Ø ³
ĠT el
Ġbe ar
Ġes c
config ure
Ġmax imal
Ġc url
Ġinter rupt
++ ++
ĠAn na
ret val
TO OL
User name
pt o
Ġad mitted
ĠT ax
ĠCHE CK
v ee
F oot
x f
B LOCK
b oth
ĠHar vard
ĠSO FTWARE
Ġt y
ed ing
ĠS ymbol
ĠCh rome
Ġm atters
ĠG C
Ġrest ored
i ator
Reg istration
Y es
Work s
LE V
Ġann iversary
ĠL ower
ĠAust in
input s
ĠK am
Ġmed icine
p d
Ġpro sec
Cons ider
ay an
ĠC red
oc a
pi res
] $.
Ġrele ases
ĠD anish
Ġas set
min ute
ith metic
Ġcent ers
Ù Ĭ
ĠP erm
ĠSchool s
ch annels
Sc ott
ĠA WS
Requ ire
l r
Ã³ w
az ines
ĠMc K
Ġread ers
p ixel
ynchron ous
S PE
ĠT ar
i q
}[ \
Ġan th
R outer
ĠG irls
form ing
ĠCon st
ĠF ive
ç »
Mod al
ĠE C
Ġt ied
ili ary
mark er
second s
s ocial
ĠEd ition
iv ia
back s
ĠAdd ed
sw ap
Ġin clusion
short cut
Ġm oth
v est
Ġent ering
18 98
Equal To
Ġb ars
Ġecon om
per mission
Ġarch ive
Ġfunction ality
ĠCom par
T ITLE
ĠCap ital
ffff ff
âĶ Ģ
] {\
Ġnot ify
et he
Ġex posure
Ġmin i
:: $
Ġis lands
INST ANCE
el ines
Request s
ĠComm ander
Ġsat ellite
Ġapprox imate
m ate
Ġnot ion
Ġamount s
Ġrece ives
W ell
\ ":
enc il
Ġseek ing
bo y
Ġcouple d
Ġshe l
Ġpick ed
Ġc od
ĠD ance
ha us
Ġequip ped
ĠM organ
ĠJ uan
Ġs av
Mich ael
et ition
Ġgr ass
res olved
Ġs ink
O h
reg ex
och astic
() ]
F ROM
Re ception
Ġman uscript
A lex
H om
ĠN elson
ĠP atri
Ġwe ar
Ġsp oke
ĠAtl anta
Ġgu ilt
Ġpres erve
F ake
Ġre produ
ĠM C
Ġtr unc
ru ction
Ġactress es
g ui
end ment
Ġapparent ly
ĠCO VID
R GB
ĠIm perial
Ġc up
ens ing
---- -
Ġc ss
F oo
ne ed
final s
ĠCON DITION
C tx
Th ree
in herited
con duct
Ġground s
) }_
ĠF ound
ĠMarg aret
st ers
Ġf erm
ĠG on
ĠAl liance
Ġflo ating
ĠEx p
inv oke
the ad
m ir
g un
k an
ĠN eg
erv ing
end region
om p
Ġland s
File System
Ġins urance
ab e
Ġp and
ĠS ave
App ly
ĠF ern
S ongs
ĠS ymfony
Write Line
ĠA lice
ĠSt orage
'=> '
Ġg ang
AC CE
="# ">
inst ein
n m
Ġat oms
place holder
Ġinitial ized
Ġ(! (
N ested
Dis patcher
Ital ian
Ġph ases
3 20
Ġre try
ĠPublish ing
Ġbr ings
Ph ase
ĠS ep
ob i
Ġtw elve
c ill
Ġput s
Ġqu asi
ĠI ce
Ġear liest
DE P
sp l
AA AA
ĠAuthor ity
ĠCh airman
lock ed
d ensity
Ġexerc ise
}} _{\
Us ed
pan ic
Ex cel
Ġkw args
à ¦
tr ait
wh at
Ġcast le
Ġvisit ors
] $,
Exp and
hold ers
Ġw ine
ĠG ray
miss ing
Ġlist eners
: -
Ġk it
c amera
Ass ignment
in ian
ia h
ĠThom pson
Ġwould n
Ġpri ze
ĠSt age
Ġask ing
Inst ances
ic ht
it udes
ĠLin ux
if rame
Ã© n
en ario
i est
ĠG las
re ement
an Ã§
CL I
Ġsim ilarly
Ġtechn ologies
d eveloper
ÃŃ n
Ġwrap ped
27 0
ĠL anc
ĠFreder ick
;" |
big l
ĠB uff
Table s
Ġgeneral ized
Ġs alt
ĠU tah
Ġoper ates
M AN
ĠT ool
ĠA uth
String s
Ġup grade
Ġim pr
Ġc s
18 99
Ġd ashed
Ġspec ifies
Gener ate
c am
Ġremain der
con tract
Ġ# #
Ġsche mes
ĠParam eter
ol o
Ġprocess or
Ġregard less
Ġ$ ,
Ġphot on
Ġst im
Ġinv asion
Ġlog ical
Ġcompet itive
ĠBang l
Î ¼
U ntil
it is
ĠBAS IS
Ġrecord ings
ĠMet ro
Ġweek ly
ĠLim ited
="# "
ĠGr ad
on ed
Ġh ill
ĠTh ough
i op
mult iple
Ġon click
help ers
Ġrep orter
en z
=" //
Ġrem oving
ĠR PC
ĠOrgan ization
ĠSh ar
ĠHistor ical
C AL
Ñ Ī
Ġt ropical
Ġsu ite
/** */
ĠC atalog
ĠC os
Ġcall er
ĠI mp
Ġdimension al
Ġdef ining
MA SK
ID ENT
Ġmach ines
Ġprot otype
multi row
Ġcancel led
Ġp ictures
Pro duction
ens ors
ur ers
ĠNew ton
ĠLie utenant
with out
Ġelect ro
Ä Ł
w ind
um ed
Ġin fl
ĠCONDITION S
Ġh al
ĠG R
Ġstrong er
ĠT s
per cent
ĠN ep
math op
Ġtop ological
ourn als
ec ess
Ġtr uly
at ivity
L ater
Ġextract ed
es c
th ird
Ġun iversities
Ġme ets
Ġl in
A ud
ĠChrist opher
ĠP eters
CH AN
text color
cast ing
ĠA BC
Ġgu id
w ire
Ġvot ers
E lect
}$ }
Ġt icket
F IL
e or
Ġg rown
* >
Ġb ott
dec oration
Ġaggreg ate
ĠF low
g iven
Ġm igration
Ġautom atic
Ġex clusive
Ġre venue
Ġpass phrase
am ents
ĠQ String
Ġden ied
Ġredu ces
process ing
ĠK ings
ĠSever al
s By
Ġform ing
ä¸ Ń
Ġ' $
Ġb om
Ġs af
ĠPe ace
Ġdef ensive
Fore ign
L ONG
Ġfriend ly
ĠCont ainer
ĠF al
und les
ĠTh row
12 4
Ġto ler
Ġsit uations
Ġ/ ><
ta x
ĠR ot
ĠDep uty
Ġr ide
q q
M ass
ĠR oom
interpre t
AR CH
ĠH AL
Ġv eget
ick ing
PA SS
Ġsuff ix
M iddle
Sw ift
ge on
ch arge
Ġdist ances
S il
it ro
Ġsynchron ized
eg e
ĠMP s
Ġentertain ment
Ġd ol
ĠUkr ainian
ĠRog er
Ġd iverse
and al
F B
Ġap ps
Ġf urn
om al
ĠEcon omic
Ġadvert ising
bad ge
Ġinhabit ants
sl ot
Ġconsum ption
P K
C ost
Ġout line
List s
J o
p referred
Co ord
XX XX
T or
t ility
ĠS cript
ĠDom in
Oct ober
Ġaccompan ied
Ġcons ervative
Ġres igned
ific ates
ag netic
pe ated
Build ings
Ġv oting
Ġagric ultural
ĠN u
Ġscen arios
Ġm eters
ur se
l ua
le af
sc opic
default s
le ans
ine a
ĠG un
ĠD allas
Ġdiam eter
ĠFin land
ĠH eb
Ġx si
Ġorgan isation
Exp atriate
Ġs wit
Author ization
N d
å Ľ
Ġincre ment
writ ing
Ġperform s
>: ]<
} "/>
ĠP ho
is ot
Ġdoub t
oid s
or ange
Dis c
Ġprec ise
ĠC lose
Ġredu cing
ĠKn ight
\ ;
i ot
J ack
ĠH erm
ĠS ET
Ġst y
ĠLeg islative
Rece iver
| }{
Japan ese
ab b
ĠF ight
c ategories
ĠK ir
De ep
Ġcirc ular
Draw able
Ġmod ification
Don ald
ĠT an
Un able
ĠTrans itional
Ġarr anged
prec ision
ĠTh ailand
col ors
ĠM B
text sf
lik ely
Ġexc ited
A ff
ĠB etween
ught ers
ĠSh ah
NE W
ĠS ac
tri angle
u ced
Ġval ley
I r
Ġhead ed
ĠG ET
ĠCon n
ĠH um
ĠT ig
Ġdet ector
ph an
R ussian
ĠC ensus
f our
Ġdef ect
Ġob server
em en
Ġback up
' +
Ġal location
Ġr aid
Log ging
ĠO d
ĠM eg
Ġd ump
F i
Ġfall ing
r atio
ĠK o
Ġro se
Ġorder ing
Ġun expected
Ġcor porate
Pred icate
. &
}) =
(" -
Ġres idence
Ġstruct ural
pt s
ĠW right
Ġdom ains
ort on
ra ig
ĠCon structor
Ġmonitor ing
og a
att an
M art
r at
OPT ION
ĠS ide
3 000
re ply
Ġ ur
) >
re view
fig ures
Ġsevent h
part icle
Ġf acing
g c
Ġmark s
ĠId ent
Ġw orse
ter ior
Custom er
Ġrecip ient
vari ables
Ġo x
oot strap
ĠResult s
add EventListener
] *
ĠPr inc
Ġb aby
le tt
× Ļ
ov o
Ġput ting
LE NGTH
Ġen ables
ĠB ody
Ġatt ach
ĠD evice
m icrosoft
Vari ant
ĠB rowser
Ġres ign
ace ae
Ġdanger ous
U i
ge br
long rightarrow
N P
er ical
ĠM icro
Ġfru it
Ġ[ #
Ġm ilit
18 70
ĠS A
apol is
ĠN ic
big r
ĠRuss ell
Ġexp ed
Rel ated
Ġdynam ical
Ġperiod ic
ĠSet tings
ans wer
GRO UP
ir ates
Ġhash Code
or ce
Ġtrans itions
Ġcommunic ations
ĠN i
ĠSy ria
ĠDemocr ats
H ex
or o
Ġs oul
18 95
Ġstrict ly
get Key
. (
ï ¿
B etween
Âł Âł
ĠVis ual
ĠTest s
"> &#
int ro
Ġf est
Ġfind ings
Ang le
le e
Ã¶ r
ch arts
Ġv ulner
ĠDis play
qu ick
Fr ont
ĠTe ch
v t
ĠMo z
Ġ! !
m g
ter y
}) ^
field set
m ates
ĠKenn edy
Im mutable
ĠS chema
V P
ĠR ule
12 1
ĠEn able
---- --
Ġc ookie
Ġgravit ational
ĠMin or
ĠStruct ure
ĠH ell
ort ed
ĠT ake
ĠR io
Ġpriv acy
f requency
R ank
Un mar
ĠMur ray
og onal
}_{ -
ĠMov ie
ĠF ried
D an
cor rect
ou ver
ĠB ed
sm art
Ġre aches
Ġschol ars
our t
det erm
Ġpr on
Ġ[ {
Ġso il
ĠStew art
ĠBo ys
ĠD ie
App Compat
ĠMat hem
Ġjud ges
is co
ĠAd ams
; -
Ġs ig
Ġlum inosity
Over lay
b ach
b etween
Ġoff ensive
^^ ^^
ul ates
get Text
Meta Data
ma jor
Ġpres erved
b ower
Ġround s
Ġsph ere
H ence
dec or
18 97
if ting
remove Class
incor porated
> ');
h is
um ar
Ġin duct
ĠS elf
Ġhor ror
n pm
IT H
Ġbreak s
Ġsignific ance
MA IN
ev ed
Ġprinc iples
ob s
Ġre act
ĠB eck
ĠU rb
C lip
ĠG O
table s
R atio
D ataset
ra ise
E r
Ġo vers
Initial ize
RO W
Ġr id
bal ena
Ġal ive
Ã ¦
Ġkey board
ĠB ull
Ġsur faces
Ġd jango
isl ature
Ġpublish er
Art ifact
Ġf itting
ĠG T
) '
de als
Ġconcept s
m acro
Ä Ļ
Ġt unnel
Ġmy th
Ġcour ts
S ever
18 96
Ġmar ine
Ġcontin uing
../../ ../
Ġqu iet
Ġatmosph ere
ac ion
ber ry
ĠIP v
Ġan cest
Ġb lob
eb r
T om
Ġpra ised
ut ely
ĠE le
c atalog
Ġslow ly
Ġtrad ing
be at
HO ST
l ings
conf irm
Ġp s
ĠG il
H ide
Ġcap abilities
. ;
Im ages
ann on
Ġdyn asty
Ġp a
ct rl
enc er
Ġtransform ed
is i
F ilters
{ |
ish ops
Ġexhib it
ĠCom puter
CL U
column width
Ġrecover ed
CON NECT
ĠPer formance
Ġexpl ains
ĠCamp bell
Ġvac uum
He ap
Ġinteg ers
ĠPl atform
C over
s and
ar us
å ¯
ĠV ik
irm ingham
UM N
Ġlif etime
ĠS peed
bl ast
ĠA UT
script style
Ġreal ized
im iter
ĠC rown
Ġ\ (\
T ARGET
ĠU TC
tern ative
F D
ĠForm at
t cp
-> {
ĠIN T
DE LETE
ĠCent ury
Ġtalk s
Ġcomp ression
Ġthem es
Ġinterpre ted
Dependency Injection
Ġd ating
ĠTrans action
F oundation
ĠArt icle
claim ed
> $
V ote
ev a
l b
Ġd ip
ĠCl inton
le arning
Ġre tained
00 2
Ġimprov ements
tem plates
ro se
Ġcritic ism
Ġh oles
Se ptember
Allow ed
ch t
ĠP DF
ellect ual
n ed
Ġadult s
Ġ' ../
> /
ex isting
Ġg lyph
ĠEx change
ï¿ ½
f act
th a
Ã¨ re
e i
Ġstr uck
Part ial
mod ified
et ric
text area
Ġ( #
ĠBr anch
Ġreve als
Lem ma
Ġfrequ encies
ener ate
om atic
S printf
Ġ" --
Ġl oader
ĠS S
ĠGener ate
ĠUp per
C MD
Ġ= ================================================================
Fil ename
Ġb attery
Ġt all
Pr imitive
Ġrestrict ions
f are
Ġrecon struction
bel ow
P ACK
Ġhy brid
ring tone
Ġresident ial
****** /
S IGN
ĠM ars
in verse
t b
Ġf itted
Co ins
ĠMont real
)) \
Ġcut s
m v
Å Ħ
ĠERR OR
ra f
Ġdev iation
Ġaff ord
Ġwalk ing
11 7
Ã ½
ne ut
Ġconvers ation
ĠInst all
Ġw avelength
read cr
ĠBrook lyn
Ġm apped
Ġh ip
Ind icator
equ ations
ĠB egin
h ai
" </
bm atrix
Ġord inary
trans fer
MA KE
ĠU V
Ġz ip
ĠL iber
C ritical
T LS
m usic
ĠPit tsburgh
av atar
Ġgener ates
Ġste am
ĠGab ri
LEV EL
ÑĢ Ð°Ð
Ġdam aged
Ġcom plicated
Type Name
Ġperm itted
y aml
Par cel
Ġmodel ing
h p
ĠT amil
Ġmechan isms
i ang
Rec ords
Ġvir us
th ick
PAR AMETER
ii i
ĠBern ard
Ġthous and
\ -
Ġmov ements
Em itter
DI RECT
Particip ant
Ġqu ot
b ai
Ġtop ology
ĠF ixed
go al
( ",
N ING
Ġb are
u pt
c z
ĠRef orm
T M
ĠP un
qu et
ĠC atal
ĠL iverpool
Ġinj uries
custom er
ĠF el
ĠJud ge
Ġcom ed
Sh are
vart heta
re verse
Th reshold
ĠOr leans
ĠE N
ograph ics
ĠH ero
ard ing
È Ļ
C AC
t icket
Ġcol le
Vari ables
ĠC leveland
Ġc ited
Ġc urrency
ĠPr imary
im its
ang les
em ale
Ġ" ")
Ġdisc ipl
Ġcub ic
Ġcircum stances
Ġcond itional
d al
ĠRob inson
Ġ(! $
, {\
Ġindependent ly
ĠW ol
Ap is
T oggle
ĠJ u
ant ics
Ġb igger
ĠM ak
Ġt ar
ĠHung ary
Rev ision
R oom
t an
LE S
Ġenjoy ed
Ġinvestig ated
Ġathlet es
aut ore
Ġco in
Ġne uro
ĠMon te
tr aining
Ġs pr
ĠG ulf
ĠH end
Ġscript s
ĠIn it
y arn
Ġres id
ĠMet ropolitan
Ġpro x
ĠPr incess
font s
contain ers
ĠCom ics
ĠB utton
ĠF R
ev ens
EN CE
ĠO THER
L o
ĠMor ris
ĠRoman ia
Ġpublic ly
Ġg arden
Ġanaly ze
ow s
G uid
Ġhe lic
un its
Ġ utils
Ġgreat ly
Ġsh arp
ob a
Ġf iber
Ġen semble
g h
prot oc
ĠĠĠĠĠĠĠĠĠĠĠĠĠĠĠĠĠĠĠĠĠĠĠĠĠĠĠĠĠĠĠĠ ĠĠĠĠĠĠĠĠĠĠ
Ġb at
ĠStud y
xy gen
ĠWel sh
Ġwill ing
sol id
12 2
ĠAust rian
j amin
Ġh aven
ĠC it
ĠCar ter
ĠJon athan
et ry
ol ia
Ġst abil
Ġinitial ization
Ġbelong ing
gu ard
ĠR ugby
Ġpre gn
ĠV enezuel
Ġsup pose
Ġland ing
Ġarch ae
Ġfor get
ĠC PU
Ġc yl
Serial izable
UN K
Ġreli ef
Jan uary
ass oci
Rep resent
ĠJ osh
ĠTr igger
DO CK
L ER
ear ing
att en
Ġover view
ĠG raham
ug s
ĠCh amber
press ive
f un
Ġj uris
. ";
Ġin coming
( @"
Ġsup ers
ĠHamp shire
Ġn aturally
ĠTra il
ĠY e
Ġsurg ery
tern oon
Ġinv oked
erv oir
Ġn ations
Ġb ishop
ĠSen ator
Ġch rome
Con version
ĠA udio
A fr
an ian
inet ic
for ge
ĠDr ive
Ñ Ħ
Ġun iqu
ĠT ak
ok a
ĠX ml
ab ling
ĠI MP
Ġoper ational
Sub mit
ĠValid ate
ĠR ain
ĠCh allenge
res olution
Cap acity
Ġher itage
Ge orge
ĠCh ampion
S in
Th an
E MP
m any
Ġh alo
Ġis omorphism
Ġparticip ation
l iteral
=" <?
U TE
ĠĠĠĠĠĠĠĠ čĊ
ick en
Ġtransport ation
car bon
Ġtal ent
Ġrank ing
ĠW oman
Ġt um
ĠValue Error
TO DO
ĠR elease
end ers
Ġpopular ity
Ġconcern ing
dd ie
ĠSh ip
Ġbeh alf
ĠSt yle
Ġpseud o
ĠD IS
Ġwith draw
Ġs el
T i
Ġinterval s
Pr iv
18 93
å ¼
ĠP od
ĠV el
ĠW H
ĠD ATA
ph ere
ro v
ĠA zure
B oth
Ġâ ĨĴ
et ype
ĠLear ning
C a
Ġre putation
in ist
Ġb ath
> )</
Ġdiscuss ions
ĠH old
on line
[ _
Ġsurv ived
ĠF ont
us c
AR K
ig ible
Ġ@ @
x l
sub sec
First Name
Ġst retch
Ġd y
over y
Last Name
LO AT
Ġsens itivity
window s
ĠF actory
Ġassess ment
ag greg
ĠD M
}} ^{\
B ur
Error Code
G UI
P ad
(" <
LE N
ĠF ast
ĠMount ains
Br anch
Ġg ay
p lier
ĠY es
Ġsub str
Vert ical
Ð¸ Ñı
Med al
Ġz oom
B ecause
ill o
C ss
Collect or
il ine
ĠMar ie
ĠCommun ist
Ġconstit uency
Ġenc ryption
ordin ates
war f
ĠBalt imore
ĠG P
oxy gen
ĠNO TE
ul ative
Mod ules
Ġm k
: @
() `
An n
ĠInter face
ĠO UT
V I
Ġt ur
Ġfor g
NUM BER
T ick
Vill ages
WARN ING
Arch ive
M argin
EE E
ĠA rena
Ġ' </
anc ouver
dist ribution
prov ed
Ġoccup ation
ane an
R M
ĠPr iv
Ġchalleng ing
ast ery
/ #
Int o
ĠSim ilarly
Head ing
Ġstream s
Ġhand les
ant i
Un ion
end um
ĠE ffect
Ġdispl ays
ĠAl fred
or ous
ĠKar l
Ġge ometric
ĠM aterial
C op
ĠI L
type param
h ibernate
comm unic
Ġgen re
Ġre loc
ĠR aw
lo ating
ug osl
Ġsym pt
ĠDak ota
Ġrac ial
ĠV ert
Ġ( <
* .
ĠV AR
Ġf ol
Ġvis iting
d ale
Ġdiv isions
ĠM aine
Ġb ases
Ġfor th
ĠA pi
m aking
ĠDec l
ĠK it
A CTION
Ġcomp aring
he alth
Ġfl ush
ĠDef inition
ins ula
Ġtempor al
G re
out ube
lic t
Com pute
ĠK u
S en
IR T
Part s
ĠR O
Ġthe ater
Ġeigen values
Ġf at
qu er
ĠP resent
Ġp arsing
MPL ATE
T ur
ĠN BA
ĠCol lections
ĠN ation
ass et
R ay
ĠB aker
Ġr s
Ġ" ./
sub str
p arsed
TE GER
NOS CRIPT
ĠD I
ou p
K EN
command s
Ġrender ing
........ ........
Ġabsor ption
or b
O rient
Ġserv ers
Ġsp arse
bit coin
Ġbe ach
Ġac qu
re ck
S uch
not ag
C atalog
comp act
Ġspirit ual
Ġfact s
N U
Ġl ambda
Ġsepar ately
z es
Post ed
Ġm ess
ann es
Ġanal ys
Ġst em
ĠL E
Ġspec ification
Nov ember
ul u
Ġconsider able
Ġdec line
g em
Ġs urre
iv ot
Ġchild hood
Ġlocal ity
H orizontal
em bed
fair biz
fairbiz deals
Ġproced ures
\ |\
pre vent
h yper
Ġb ird
Ġserial ized
Ġpr imitive
ĠR y
Ġg ift
sp aces
ĠSt ars
17 0
Mat ches
Ġrem oval
Ġsum m
A IN
Ġ' {
Ġdep uty
ign er
ĠCon vention
pub lished
Ġwith d
11 3
ĠS equ
exception s
Ġdeal ing
ĠRail road
Ġ} .
Ġt elling
Ġtri als
M Q
In clude
Reg ular
: **
X i
Ġreve al
18 92
ĠC er
ĠG ot
rol led
Ġcomb ine
ol id
H idden
it ure
ĠDel hi
R ailway
Ġemploy ment
Ġnot ably
ĠBl ues
Ġh at
Ġactiv ation
s ock
ĠM ET
Ġf oc
build ing
Ġt ill
Add ed
18 60
Fr ag
; =
numer ic
/ %
d v
19 0
Ġpul led
Ġasympt otic
UP DATE
ath on
m atic
PO INT
ĠNiger ia
E lem
Ġad apter
Ġfluct uations
ĠBro thers
re ach
Ġf ul
l c
Ġdeb t
ĠA qu
Con struct
ĉĉĉĉĉĉĉĉ ĉĉĉĉ
z ym
ĠD h
Ġc rown
ik es
ĠN ature
ion ic
Ġrail road
ĠMov ement
Ġg ray
og ue
Ch at
Ġour s
m icro
Ġmeet ings
en kins
ĠAfghan istan
}} }\
] -->
ĠElect ric
ĠHung arian
phab et
\% $
Ġs ends
Record ed
. :
De ployment
ograph er
lot te
Ġ( );
Ġsystem atic
Ġref lection
Ġfish ing
ĠB ey
Ġlong est
ol t
}} =
sh iv
Ġn an
ĠR ub
ĠL iving
Rout ing
Un lock
at um
ĠV egas
opt im
ĠGlas gow
} |\
Ġw aste
Ġjournal ists
mys ql
ĠG ary
Ñ İ
18 94
Ġharm ony
book s
Ġcur vature
Ġweap on
it err
Cre ation
ur u
Ġop ens
apt ist
DE V
ĠMit chell
Ġc fg
Ġdifficult y
) })
Ġt ang
Ġdistingu ish
ĠB ible
ĠN am
x c
pos al
Ġvict im
ĠA I
18 89
Ġexponent ial
Ġcon front
Ġdep recated
ĠN an
Ġs ep
PI O
ĠGu y
Debug ger
Ġgre y
Ġport s
Ġkind s
ĠC L
control s
Ġcolon ial
. $$
Ġl aser
ĠĠĠĠĠĠĠĠĠĠĠĠĠĠĠĠĠĠĠĠĠĠĠĠĠĠĠĠĠĠĠĠ ĠĠĠĠĠĠĠĠĠĠĠĠ
Pol itical
ĠR ud
sche me
gebr as
ĠM enu
pre dict
Ð ³
Ġf its
Ġmanag ing
ĠFI LE
ject ure
EN C
re ts
ĠR T
Ġbeaut y
Ġ ib
Ġ/ .
Ġn est
Ġther apy
iv an
ĠPort land
I BU
b ishop
Ġmet all
ĠU pon
^* \
Ġacc ret
f iction
ĠB illy
sp ir
f ar
m al
Add itional
Ġpass ion
ĠH E
A mazon
alax y
el n
se en
Ġl oved
ĠR and
ro zen
it ime
Ġal cohol
ĠDet erm
Ġdis order
Ġproport ional
er k
ĠTh ose
ley ball
get Property
Ġsm allest
Example s
ĠHun ter
st ock
ĠC E
ĠT ob
Ä ħ
PT ION
h op
Ġconven ient
Ġprov iders
N EL
Ġsusp ended
Perm issions
ĠT otal
ĠN ord
Th rows
Ġ. /
Ġmechan ical
ĠLank a
Ġy es
mem Item
ak u
De cember
ä¸ Ģ
99 9
ĠEv ans
fail ure
Ġp ushed
Tag Name
zer bai
Ġdeploy ed
S at
Ġev il
Ġp ump
Ġexpert s
Ġguarant ee
CC CC
Ġven ues
get Default
Ġinter faces
ĠPol itical
St ates
SD L
thread s
D ot
om es
f mf
leg end
Ġb acter
Ġre lying
math it
Ġo cean
ĠF loat
en ium
ĠPol y
ĠArg s
log ue
18 88
Ġclose st
Ġdes ire
G old
ĠCommunic ations
Ġarr ive
Ġattrib uted
ĠH ope
Ġpro be
á º
Ġ( {\
ul se
ĠW ind
^{ *
Ġpremier ed
og g
ĠT F
Prov ince
ar ound
Ġ{ $\
agr ang
4 50
ra ke
ĠInd ustry
Ġtot ally
Ġ( +
ĠAr n
M icro
P D
Ð° Ð»
ac ef
Ġexpect ation
is Array
Ġp overty
' _{
u ke
igh bor
i at
valid ator
' "
S ink
et ri
ib bean
c x
tab End
ocr acy
has OwnProperty
}{ *
ĠÐ ·
Ġcl ar
Ġd owntown
ĠI an
Pl us
M a
ĠChar lie
ĠJim my
Ġsound track
Py thon
Ġac quisition
ĠMatthe w
am o
Red irect
act ice
ĠFrank lin
ut o
F at
im ir
Check er
Ġcompre hensive
t own
Ġsc oped
ĠS ER
ĠM aj
ĠB ased
cy cl
C N
Ġback end
add on
ING S
P ages
ind ependent
as ide
Ġgu ys
] >
pe er
uc ene
> ("
elf are
Ġreg ression
Ġelse where
Ġpro c
G l
ĠLeb an
** *
æ ī
ĠC ell
! ]
2 30
ik o
M AC
} `
Ġdef ence
ĠR ural
ĠT ower
Ġcompet ing
og s
Ġcompar able
Ġrom antic
Ġh ack
Ġdeterm ines
ard ed
Event Handler
Ġsuccess or
Ġun usual
Ġbr ick
ĠAnd y
ĠMad rid
$ &
Ġre nov
m und
Ã§ Ã£o
Ġd uties
amp ed
) }.
or ry
Se ason
Ġs ail
F ast
Component Model
D a
18 85
Me an
sh aped
2 11
ĠW as
govern or
ĠL IMIT
Is Null
Ġst ochastic
\ }$,
Ġd iversity
ĠB ron
uk a
High light
ĠPos ition
Ġsu icide
ĠGener ic
Ġaccess key
Suppress Warnings
urrican e
ĠC arn
or acle
By Name
Ġj unction
l ater
Ġar row
Ġdoll ars
N il
ch arg
ĠL ith
sp ot
RET URN
Ġ Ã©
Ġa ims
text up
Ġsil ent
Ġsurround ed
Ġw ounded
Ġprepar ation
Ġsl ave
Ġfe els
More over
Ġprison ers
Ġab b
TEXT URE
em pl
Ġdevelop er
duc ational
ĠVi enna
Ġelement ary
on ian
ed a
Ġpaint ed
ĠBangl adesh
. \\
C lock
Ġm ir
Ġequival ence
Ġcook ies
Ġr ising
> ';
Ġcrick eters
Ġp sy
\ }\
act ivate
atab ases
ĠW rest
success ful
ĠEv ents
ant ly
own ed
Ġg rows
Link s
Ġs lope
Ġent ang
ĠRes pond
Ġ ÑĤ
ke ley
x e
^{ (\
Ġsuper ior
ĠIn stance
Ġt ort
job s
h attan
ĠE sp
ĠSt ill
ĠHel p
Ġfrequ ent
å º
Ġatt orney
Ġnorth west
l m
h um
Ġrandom ly
Ġrepresent atives
18 91
w inning
Ġt ie
Ġimpr ison
Ġas c
Ġs itting
Ġlog o
onom ous
Ġas semb
om ing
ĠCl ar
Ġch a
ers h
al ph
Ġobtain ing
ĠSp irit
Ġconv olution
ĠSt orm
Ġcorre ctions
bedd ed
ele ss
an ne
Ġaltern ate
ĠĠĠĠ ĉ
Ġtext s
ĠCom ment
iv ities
33 3
comp iled
Ġse ar
La unch
ĠAt omic
w right
t ot
ĠS r
widget s
Ġmax im
Ġf abric
ĠLay out
P ipe
Ġc ous
Ġsimilar ity
th an
Ġres idual
Ġhand lers
MA G
last ic
te ch
Dec ode
FO RE
re ject
ĠR ic
ĠBe at
Ġre ly
ĠNaz i
Sign al
W H
ĠDef ence
car ousel
ish ment
iss a
ched uling
Ġtrigger ed
ploy ee
ev t
Ġstay ed
Tok ens
ĠSch olar
Ġa mazing
(" [
Command s
oth y
V oid
Ġstrugg le
ĠM ack
Ġag es
__ _
U INT
d w
get Time
Rec ogn
Ġvess els
0 100
5 67
Ġis ot
Ġover lap
ser if
vert ed
Ġcompos ers
med skip
? )
S i
Ġr ub
ĠMay be
al ia
">( </
s napshot
ĠBr and
O s
Ch oice
UM ENT
do es
F re
V IEW
b uck
Ġ ../
Ġform ats
Instance Of
Ġrect angle
usal em
c lic
in ite
Ġh ierarchy
ex tr
Ġflow ers
comp atible
Ġbutton s
A Y
Ġc um
Ġch rom
Ġr ivers
Ġb one
Ġcelebr ated
act ical
Ġcollect ive
Ġb rows
br ane
Ġconsider ation
ĠB irmingham
p ine
uff le
ĠL ag
ne e
var rho
ij ing
ĠComm ons
> -
it ely
Ġrel ay
H ard
ĠT itle
itar ian
Ġneut ron
Ġhead ing
A WS
å Į
b ank
mon itor
ĠP or
ĠDocument ation
jb oss
ĠBar ry
Ġactiv ist
ext ends
Ġqu ark
ĠJ azz
Ġas ks
ĠKe ep
ĠW a
Ġperm it
ĠS uccess
ĠElement ary
A W
ig gers
Ap pearance
Ġorb ital
if le
Ġappoint ment
G G
om ething
cur r
ĠFin ancial
Ġsol ving
($ _
Ġdest ruction
Ġlock ed
ĠProt ocol
Ġstreng then
ro d
ĠD ays
Loc ator
Ġlab eled
d ater
le ading
Ġdistingu ished
erg i
Europe an
Ġun like
ĠCl uster
op les
ĠP ictures
Ġsl ide
ĠB ound
18 65
cho ice
. ),
Ġ um
Ġsur prise
ab solute
CON F
P TED
[ ],
ĠBroad way
cc c
ov iÄĩ
Ġsynt hetic
Ġpo em
ĠJ e
Ġaim ed
f re
et on
Ġp ole
ĠMic hel
Ġ/** <
wall paper
ĠDef ine
16 9
ENT ER
um per
g gle
16 8
V S
}\ |
amer on
ĠColon el
ĠP in
in formation
pol l
Ġ{ })
I ll
O RE
Ġcap s
Initial ized
Ġb io
AS K
Operation Exception
Ġf antasy
Ġfair ly
IBU TE
Ġg allery
s an
Ġelim inated
ĠB ag
Ġstraight forward
F IN
ac l
Ġdep icted
Type Def
d evelop
13 6
Ġperson ality
orient ation
ĠAthlet ic
Ġsp ark
She ll
get s
ĠJ enn
p read
P atch
amil ies
( <
d ummy
M W
ĠDr agon
Act or
ĠR ico
Ġvari ants
ams ung
pers istence
Ġsh orter
Ġs ock
ĠAss istant
En code
Ġc able
ĠL ess
pay ment
ĠPr ice
Ġoccasion ally
Not ify
ĠStud ent
aval ry
ĠT yp
Ġfocus es
Ġgener a
Ġpred icate
C odes
ĠY ang
PROPERT Y
ĠSte el
ĠDo es
XML Schema
Ġm i
Ġm ixture
ĠUS B
Ġm irror
UT C
NO WN
ĠTem plate
e enth
Ġrep air
tern ate
! âĢĿ
ce il
å į
I MAGE
Ġg olf
ĠThe ater
Cl one
Ġart istic
Ġstream ing
log ic
Ġr uling
D ash
ĠF ly
ifi able
Ġsp oken
q a
ig s
ke eper
Read Only
ĠM ess
Ġaff airs
ĠPro tection
Ġperturb ation
Ġwe aring
Ġbeliev es
ens ively
/ $
ĠJos Ã©
utor ial
iterr anean
Ġout standing
ĠWith out
s yntax
ĠCh ron
ĠAd vis
Input s
Ġweight ed
< >(
FA I
sc ar
ĠStan ley
ĠR ace
ĠMag ic
ĠOper ations
Ġw et
ĠU E
sec ure
K ing
Ġg od
ĠW ing
ĠF ine
Ġdef initely
} ~
ĠP sych
å °
qu ality
Ġhabit at
ĠPh oto
rom agnetic
Abs olute
Ġpl ural
Ġid s
Ġpriv ile
, ,
Ġvess el
ct l
le te
inter action
Ġsh apes
Ġarrang ement
W ire
ĠA y
Ġsk ill
Ð Ł
Ġmem orial
Ġreli able
Ġf asc
Ġto w
Pers istent
section s
Ġderiv atives
ĠWar ren
Ġtro uble
ĠK ath
Ġpaint ers
A mer
u ates
Ġpro hib
button s
ĠRE G
Ġv anish
Ġdec ode
ĠW ang
Ġreg ulations
Ġsupport ers
Ġphot ography
Ġinvolv ement
ĠL ocation
or ia
Ġcr imes
de ploy
OP ER
g uid
Ġaccomp any
ĠF erm
ĠL GBT
Ġ} ));
ĠYork shire
Ġs cre
the mes
-- ;
Ġval uable
ic ulture
host s
LI B
ious ly
iff s
[] )
Ġmount ains
ĠT ournament
ĠĠĠĠĠĠĠĠĠĠĠĠĠĠ Ċ
copy right
duc ible
Ø ¨
18 87
Ġspe aker
s il
z ier
fl ash
Ġll vm
ĠP il
L T
inner HTML
ĠFin ance
Ġst ops
play back
Ġaddress ed
ot ions
rot ate
ol s
op ens
l ists
ĠB asketball
c ov
clus ively
Nd Ex
g res
re z
im o
Pol y
ĠM ong
Ġstar red
ĠAtt orney
)-- (
re ports
w b
Ġelect rons
ospit als
d iction
ĠC arm
ĠZ e
elect ric
Ġpl asma
um ption
ert on
(' \
Ġcritic ized
ĠD epend
Ġgr am
d eb
sche dule
ĠOrth odox
im er
Ġd ialect
ĠT ib
Ġrout ine
string ify
Ġt orn
Ġpl astic
Ġpe ers
Ġsur prising
a ho
Ġenc oder
std out
Ġover l
Default s
getElement sBy
Ġb ag
pre tty
ĠClass ic
L ab
g mail
mar ine
ĠAl gorithm
Ġinsert ed
bor ne
Res olution
ST RE
Ġconj ug
Un expected
ĠB enn
ref ox
ĠBar bara
ĠA f
ĠS ql
ab br
la unch
S ender
HEAD ER
ĠRes et
E ven
Ġd w
ĠSh a
Ġw av
for ced
al one
Ġcoast al
Ġnewsp apers
ĠEd ge
, </
Ġwh ilst
OD Y
Ġdens ities
à¤ ¾
Ġf er
h ole
Ġjud g
Ġpl ugins
c amp
Ġin vari
ac iÃ³n
ver bose
Ġbox es
ĠExample s
B N
ĠL amb
Ġcur r
Ġdecre ases
AS C
( -\
OP EN
ĠWay ne
Ġg raphics
Ġmer ger
. [
Un its
IF Y
ĠCons ervative
ĠSt ack
Ġe at
ĠN icol
P DF
r h
Ġsim ulated
ers ions
ĠD id
ĠS now
Ġto ggle
Ġdiff usion
Z end
i u
Ġre construct
Ġtri angle
Des pite
ĠPark er
ĠCOL SPAN
em p
Ġab sol
av i
Ġgovern ments
Im g
ĠM E
ĠP O
Ġexist ed
Ġel der
s ap
ent ities
ch rom
Ġalgebra ic
V IS
Ġvis itor
ĠC el
Ġr is
Ġrow span
Ġelect rical
ĠM ach
Ġdis contin
Ġfinal s
sl ant
sw er
Ġaug ment
analy tics
Ġel li
sw ift
n r
Ġcancell ationToken
Ġmount ed
Res olve
Ġthreat ened
T own
p iece
Ġc ul
Sup pose
F ar
18 61
agrang ian
idel ines
18 86
Ġgen etic
ult an
ĠDr ag
ro oms
const ants
Ġemploy ee
Key board
Ġswim ming
us k
ĠST AT
Ġiter ations
ur ring
> ";
ç ½
Ġaf ternoon
ĠI C
Sp anish
Ġsuff ering
writ ers
P reference
Cl osed
raz y
Feb ruary
ĠN ad
ĠS ax
ĠProf essional
Con v
Ġmarg inal
ced ure
Ġemb od
ĠC ass
ĠM ove
uff icient
G allery
S pring
em ed
Ġtrans mit
30 4
or ig
open api
Com posite
ĠB ud
Ġ" :
te chn
DO WN
em a
Ġref uge
ĠNorm an
ph oto
ĠW olf
18 50
ĠSh adow
ina e
Max imum
Ġforest s
ĠN BC
G H
L M
V A
ĠO blast
Ġrequ iring
PL ICATION
in variant
ol en
ĠMuslim s
Ġsol ved
ĠM ix
Ġqual ifying
ãĤ Ĵ
Browser Detector
ĠCarl os
get C
Ã Ł
f ee
ĠC NN
Pre view
Ġdeb uted
J ew
or um
rec v
en berg
Ġprov en
{ })
st ation
Ġpark ing
Ġany where
Ġdec imal
ĠAl bum
Newton soft
Ġkey word
grad uate
ĠU g
H it
In c
ev es
ĠF alls
Ġenh anced
ĠC ultural
ĠP AR
Ġa ws
ĠE s
pos itions
Ġsurv ive
Ġpolar ization
Ġac oustic
S ocial
Ġprov incial
Ġl ots
Ġw ider
ĠD ocker
ĠF ourier
ĠPr adesh
am pton
Ġincre d
Art icle
Ġr um
: =\
Ġdis appoint
Ġl t
sup ports
ĠM ind
ĠAthlet ics
ess ment
Ġcons c
n it
Ġnom ination
ĠA ld
Ġhe ter
ob e
Ġstart up
Ġd ated
Ġw ides
ĠSoc cer
im edia
ge om
Ġsh a
Reg ex
ĠF IX
ĠR ect
ĠJ ess
an imate
ĠB log
2 10
b ie
Man ifest
Ġleg s
Ġtr ump
B F
Att achment
H EL
Ġadv ers
grad ed
Ġup coming
ĠEn try
'' '
ĠOtt oman
Ġp t
ache l
L arge
é ĩ
ĠDE BUG
Ġill ness
Byte Array
Ġnav al
cel and
w so
ift y
cal c
Ġinform ed
ĠV erm
ĠCart esian
ub a
ĠFre edom
ĠS ay
18 64
ĠD J
Ġch amber
ĠM ans
Ġcent ered
ĠR angers
ĠN ar
ov y
ĠH orn
Ġrender er
dim en
] ];
ID s
h fill
Ġlik elihood
Ġnull able
ĠM ut
Pr incipal
arri ors
ĠB ot
ĠGre ater
insert ion
au er
b u
ĠM other
Ġf o
char set
Leg acy
om on
Le ague
i am
Ġlocal ized
ue z
aj a
ĠQ t
is ch
. ]
Ġcy cles
Ð¾Ð ¼
em or
ĠK ur
Dis able
Ġguest s
ĠTig ers
Ġver ification
[ [
ĠSm art
Ġr anks
Ġform ulation
el m
V T
load s
ĠCh apter
Ġman ually
Ġcontin uum
Ġt ick
Ġ" (
Ġs weet
Ġcred ited
ĠUn ivers
ster dam
Ġf inger
Ġdecl ined
Ġp index
Ġsouth west
Ġr anging
c g
Ġtrans f
MS earch
Ġp ipe
T oday
Ġequ ally
Ġattempt ing
ac re
Over flow
DOCK ED
Ġ- &
al og
umb ent
spec ies
Dec or
ĠF ather
al ter
Ġcomp ound
capt ure
ip art
Ġpass age
ĠB ond
Process ing
æĸ ĩ
âĶĢ âĶĢ
m anaged
ĠV ancouver
Perm alink
Ġb es
æ ł
Ġo ct
Ġda ughters
ĠĠĠĠĠĠĠĠĠĠĠĠĠĠĠĠĠĠĠĠĠĠĠĠĠĠĠĠĠĠĠĠ ĠĠĠĠĠĠĠĠĠĠĠĠĠĠĠĠĠĠĠĠĠĠĠ
b idden
x ff
View s
gr avity
ĠSal v
Ġescap ed
request s
Å Ľ
Ġd ub
get Logger
[ ];
Ġgrad ually
Ind ices
nav Bar
set Value
ĠCat hedral
ĠS creen
Ġarg v
Ġfund ed
ĠNov a
Ġw arnings
oc o
ath ers
S us
ĠShe l
ĠK ind
ta ke
Ġenc rypted
in istic
... "
Ġm or
ĠDes cribe
f olk
Ġuniform ly
ĠC M
Ġke eps
b io
Ġw elcome
Ġreg iment
Ġdelay ed
H ot
s aved
ush ing
is y
Ġph rase
ĠJer usalem
pro blem
ym an
Ex change
r int
Ġres ort
cel ona
ĠL IC
ĠAl aska
ĠJohn ny
Ġpre dec
ĠS even
ĠC BS
date picker
ham mad
Ġguilt y
B as
12 6
fl ux
Ph aser
Î ¯
Ġass ass
Ġhydro gen
inter faces
Ġl iberal
ĠK an
S prite
back slash
bl ing
15 5
add le
Ġencounter ed
t ick
Ġguitar ist
ĠHe ader
Ġcomp atibility
æĺ ¯
um ing
ĠNev ada
C at
Ġamong st
as ant
ab ove
Com b
y our
ĠGL enum
/ </
L F
S yn
is an
Ġhealth y
enc oded
Ġoper and
Ġcontrovers ial
Ġnarr ative
L ittle
Ġmathem atical
p ent
Ġen forcement
ĠFI FA
Ġexpl oration
Ġc arrier
mes h
ir s
ir us
om eter
Produ cer
get Data
ĠCr icket
ĠT alk
ĠA pr
ĠGL int
ĠCar ibbean
il o
or f
Ġ/// <
) ^\
" +
Com plex
Th omas
Ġstrateg ic
F atal
m issions
ĠF err
script size
ĠPh ys
ĠUn iversal
PRO TO
Tool bar
Ġven ue
Ġre vision
ST EM
** :
ĠL ud
Ġh older
Ġadvent ure
Ġcallback s
U r
h arm
ĠP attern
et ics
Ġconsequ ences
ACCE PTED
od b
Ġ ,\
Ġhom ogeneous
cent ral
Ġt body
Ġor ange
ebr aska
he art
Ġp ag
Ġemotion al
V R
ĠN ames
Ġ _{\
ĠS TR
ĠF LA
B ot
FAI LED
Ġse q
por al
Ġpul se
oc c
ĠR ing
qu arter
Q UE
ĠCom put
call s
ĠP arent
che str
Ġprote ins
iv ari
ĠUn iverse
Ġph arm
ĠR ank
Ġimprov ing
ĠS K
pos able
ĠPier re
Ġre semb
------------ --
screens aver
Ġcirc les
Ġmag azines
18 00
Ġpand emic
un stable
Ġ* _
F ee
cred ited
=" ./
USE D
FE ATURE
Ġdise ases
Ġdepart ure
sl ug
L ou
14 5
define Property
ĠCol lect
ĠR acing
Cl ause
Icon Error
Throw able
t ls
vel ocity
Ðº Ð°
ĠL yn
Ġdig it
mu x
Ġcl ause
poly mer
se ek
get Current
ier ra
Ġang les
Ġsupp lies
Govern ment
ĠF light
18 62
re nd
ul atory
ĠMil an
ĠIter ator
Ġcon gress
Ġhon est
Ġar ithmetic
ism atch
Ġphenomen on
L ear
V el
TE MPLATE
B AD
ival ent
Ġcommit ment
Ġwed ding
-------- -
18 84
oper ating
Ġap artment
M X
Ġactiv ists
ecess ary
14 7
ot ton
][ <
ĠHind u
Ġqu ote
Ġquadr atic
ĠCom plex
new line
Ġexpand ing
Inv oke
get Context
ĠCommission er
B tn
') ).
ĠLink ed
ĠE val
Ġmed ieval
M LE
Ã¡ s
ĠMunic ipality
Ġf atal
ĠH unt
Ġmiss ions
Ġpat ent
Ġi i
ĠGr an
Ġref lected
NAME SPACE
down arrow
n ol
Ġex clude
M ot
Ġcool ing
IC K
Ġanaly tic
tensor flow
Json Property
F inder
ĠAnd re
as se
ĠT am
ĠOr ange
S B
Ġcompos ite
Ġcap ability
ri er
Ġsub stit
Ġelect oral
ocom plete
Ġlength s
) (\
Ġfilter ed
) ',
Ġelectric ity
m r
ĠS aints
Ġking dom
Ġart ificial
Ġant icip
Ġb le
ĠInd ians
ĠRuntime Exception
s ing
organ ization
Res ize
Ġconst expr
GEN ER
ĠC ategory
un ning
Ġpop ulated
Ġh orizon
SE CON
Ġcouple s
ĠT ed
Ġinv olve
ĠF er
ĠP rior
Ġaccess ed
Ġbr ands
ĠIm m
ĠCal led
F it
F our
O ps
Ġrefer enced
off icial
Ġ$ ("#
M or
Ġpay ments
Ġrecogn ize
ĠMar vel
Ġent reprene
ĠCamp aign
Orient ation
Ġcount ies
ĠHawai i
ĠV a
15 00
Ġtraject ory
| $
Ġt ou
ĠSh im
v ect
F X
g ulp
-------- ---
ORM AL
Ġencour aged
C ached
18 81
Ġp our
j p
ĠP ic
rest ore
ion eer
IconError Encoded
orient ed
ĠPho enix
ĠR u
Ġex ha
Ġbusiness man
ad os
Å Ļ
ĠThe ory
13 2
Ġ" ");
bour g
Ġad res
18 63
M igration
op al
ĠK os
ĠV I
ĠSt re
K G
Ph ysical
ĠH ave
Ġin hib
W ar
Ġiniti ative
cons istent
st ad
M ad
ĠAlex and
å® ļ
ĠMan hattan
dash board
b an
li ers
p romise
ent e
um bs
p el
ort ex
Att ach
Ġwor ship
ann ah
Ġassert False
ĠSD K
ĠObserv able
Ġstead y
ĠE D
he ap
Ġspect ro
Typ ed
l ag
Sl ider
Ġs oph
Ġemerg ed
sub title
Ġarg ue
ac a
Inv ocation
R G
ok ia
Ġp ad
ç ±
Ġw er
$- $
16 5
Ġinit With
hol m
ance led
ĠP ast
Ġi OS
C s
Image View
Ġq ub
Prot os
we ather
ident ial
Ġcol leges
id y
c id
ad just
I ssue
H en
dom inant
{ (\
ĠJ a
Ġd type
à ¹
Ġlaw yers
1 19
ĠB omb
Ġb orders
ĠV M
SER VICE
Ġbus y
lay ers
ield s
c odes
Ġst ake
17 5
Ġdeterm ining
Ġretriev ed
ĠC OP
Ġinflu ential
TR A
Ġelev ation
] ));
Ġvol tage
Ġd rew
TR ACT
ĠQu ant
ĠA B
Ġgr an
Ġc rypt
ĠU SS
o ft
EO F
Ġex tern
Ar n
navBar Cell
Ġg ard
Ġwood en
Ġv acc
Ġbur st
M anaged
Rep o
Ġfiction al
Ġl ap
Ġbr ig
e ing
IL L
Ġwides pread
Ġim aging
. -
ĠBen jamin
u ator
ac cur
match er
ĠExt ension
Res earch
Ġend emic
Ġrel ating
ĠFor um
Ġindic ator
Ġm ic
ĠSerb ia
ĠT u
IT ER
> ',
Ġdisp ersion
r ag
Ġinstrument al
ad ic
Ġdefe ating
ĠP ow
cre ation
Ġed iting
Ġgr ab
m achine
Ġrespond ed
ĠM I
re strict
Ġd il
div ider
ĠB lood
assert False
d z
art z
Il legal
0 10
ĠDirect ory
HAND LE
Ġf d
Ġshop ping
Ġtown ship
Ġcop ied
D AT
Ġext ending
k ubernetes
ĠP aper
Ġaware ness
Ġf usion
vis ual
Ġb oss
Ġul tr
Î º
ĠC hel
Ġis set
asc ade
ĠM yst
ia o
C AP
rit ic
ol utions
Ġsympt oms
ĠR ick
bar s
ĠBO OL
Ġaccret ion
Ġfl av
CK ET
Ġth irty
ĠCle an
ĠC row
ter ms
Ġne ur
ĠC apt
Ġle x
b ird
up arrow
Ġv ic
Ġcontrovers y
Ġbench mark
S ym
ĠL uther
P eter
Ġorgan isations
m el
p ick
P N
av ery
Ġav ailability
ĠO cc
$. }
Ã¼ n
P references
ad ers
c ook
Te chn
Ġtem plates
Ġdocument ed
ĠGu inea
ĠBeng al
ater al
Ġlog s
s izing
Ġpeak s
ac les
Ġover se
Ġvis its
R pc
~ (\
ĠG round
ĠTurn er
ĠL ad
M ont
ĠDer by
L if
ĠP FNGL
Http Request
ĠA zerbai
un ed
Ġin ference
Ġdem ands
Ġb eta
20 2
Ġp ian
ĠD raft
Ġ! (
ĠY ugosl
Trans l
/ ******/
c rypto
conf irmed
Ġconsum ers
ĠAs ync
Ġv e
Ġfarm ers
ach i
Ġcomm une
fin ish
ĠS audi
Ġj e
T w
r ans
"> Â
ent i
et ta
unit test
B ooks
Ġcred its
ey er
depend s
ĠFl ore
Ġbi ological
ĠV iol
H A
Ġdisap pe
M oths
Ġrare ly
ĠColl ins
Ġ$\ {\
ĠLIC ENSE
f und
Ġproject ed
urch ase
Ġm p
ĠS ample
GL enum
Ext ended
ĠBelg ian
Ġh orses
Sh ip
Al bums
n oc
Ġconsist ency
Ġreported ly
ĠRich mond
D ER
list en
ĠTro phy
Ġex cluded
F LOAT
Ġfl u
ĠPref ecture
æ ³
ĠW ik
Ġproport ion
port folio
n x
Ġmolec ules
IN PUT
aver se
ĠChar lotte
ĠArch ive
g om
ĠHarr ison
Ġrat ios
*} [
Ġl os
Ġspec im
Ġinit iated
T ON
Ġrad ical
13 7
ĠVal ues
au kee
! ");
ĠP ART
ãģ Ļ
Al umni
Ġtrans it
Ġdiagram s
Ġprof it
Linear Layout
Ġunder ground
Observ able
S ys
et ter
Ġhol iday
N EXT
k le
20 4
$\ ,
Ġabsol utely
Ġaver aged
ĠAct or
Ġch ains
w m
Ġsub stitute
Ġ) {
Ġconv icted
ent o
Ġpl ots
] ",
ĠAn aly
Ass oci
W ater
Hand lers
Util ities
c url
Ġd f
Ġclaim ing
Ġw el
h m
v p
c out
NO TE
Ġwat ched
Ġuncertaint ies
h ind
Ġattract ed
n ested
ĠW allet
Start ed
Ġrele g
TIME OUT
Ġthere by
amp a
em ies
ĠPro duction
Ġex clusively
Ġdes ert
Ġfoc using
ĠUn like
Ġsubs idi
N ay
Y P
ĠN ormal
ĠUrb an
Ġhon our
Ġs le
Ġf oss
ĠR oot
ĠCon cert
Ġsim plicity
S dk
h dr
ex ist
Or d
Ġal igned
ĠIran ian
P FNGL
Serial ize
18 82
æ İ
Ġbl ind
Ġsold ier
Ġ{ :
DE VICE
in ery
ĠI van
Ġs ad
ff ic
WIN DO
ĠSer ge
Ġform ul
Fin ished
Ġdis cre
Ġmon ument
ĠHig gs
ĠĠĠĠĠĠĠĠĠĠĠĠĠĠĠĠĠĠĠĠĠĠĠĠĠĠĠĠĠĠĠĠ ĠĠĠĠĠĠĠĠĠĠĠĠĠ
ĠI SO
f ollow
ADD R
ĠVictor ian
ç± »
Ġ\ !
Ġmer chant
ĠCon struction
Ġfrag ments
Tra its
Ke ep
Ġpart ly
e ur
18 75
Ġinvest ors
LE AN
oss ible
Ġl ights
ĠP le
ter min
13 4
ĠStat istics
ĠChrist ians
Prop ag
12 9
Ġsequ el
ĠP L
AC CESS
re try
Get ter
und a
out line
ĠCl in
Ġposter ior
S el
on na
g ent
ar th
Ġmod ifications
Ġdefault Value
Ġcon fer
cor ollary
Dem ographics
Opt s
U X
ĠEn um
D X
(' ../
Ġint ellectual
Ġnumer ic
=" {
P aired
(( (
ĠRobert s
ĠS outheast
Ġb arrier
Ġport ions
ĠF ab
Ġph on
Ġra ising
Ġtransform ations
ĠRE AD
ĠD WORD
u cc
Ġs aving
Block Index
^* (
Ġimport ed
Ġreg ex
d id
ĠR ole
âĢĻ ,
ĠBe aut
Alloc ator
size i
ar ations
Ġn urs
ow ed
q t
ester day
ĠM ode
RE C
it us
ĠForm ula
Ġshift ed
ĠSong s
Ġann ually
Ġun lock
Ġcho osing
ĠFle et
ĠGi ants
Ġpolynomial s
al ym
Ġabund ance
7 50
AT IVE
b age
Ġencour age
LE FT
TH READ
ĠTr avel
Ġpay ing
Ġ$ ('.
ak t
Ġdo ors
l iga
Ġ( {
ĠB inary
Ġafter wards
Ġbeg un
ĠS eb
Ġfail ing
s qu
is Valid
CP U
ro c
Ġfil med
ĠCub a
Ġagric ulture
Ġorth ogonal
param ref
ĠJ ama
ĠAdv anced
lin ing
So ft
V IRT
ĠB rew
ĠUtil s
) ?
Ġsuggest ing
Ġview ers
W ho
ĠC T
P ull
ĠS ah
ĠPer u
k u
Ġab road
ĠM ason
ĠPhil osoph
Numer ic
Ġind igenous
Ġgen es
H H
Ġfra ud
Ġme at
pro pto
ĠGe V
Ġtarget ed
ĠAlbert a
) ";
ĠB urg
ĠSk ip
ĠS DL
ĠS id
Ġde als
ĠS afety
mark et
P in
Ġset Up
D ue
() "
vet ica
User Agent
ĠB row
Ex ist
ĠAdd itional
ĠEgypt ian
ĠBe ijing
cl ide
Ġcarri es
prevent Default
ass y
Ġc inema
read only
Ġm eth
lim ited
Ġo c
000 1
Ġident ifying
Ġcas ual
div ision
Ġcom ics
stack rel
ĠIns ert
ĠConf eder
×Ļ ×
n om
"> "
ri ble
Ġdev oted
ĠC raig
Ġfin ance
Ġt ough
ãĥ ³
Ġmin isters
Ġpo ems
s outh
Î ³
ĠG ra
Ġphotograph s
ĠSup pose
ĠO il
co ins
Ġcontract s
18 78
Ġsearch ing
Ġd Ã©
ĠK le
Ġmed als
ĠInt elligence
int endo
min imum
r adi
ot he
Project s
Ġmanufact urer
in ates
r ain
cover ed
ĠA F
18 83
Person nel
ĠO ri
ĠCr ime
d h
ide a
ĠTechn ical
ĠE ug
det ect
deg ree
ĠSet ting
ĠParliament ary
ĠOl iver
Ġdoc s
Call able
Ġthought s
all ing
Ġor chestra
ĠFr ances
Ġviol ation
Ġserious ly
des cr
Ġ" </
2 25
ID S
c ock
Ġco ffee
print StackTrace
Ġing red
ĠS ans
x ref
ĠWith in
ĠCirc uit
eg en
Ġl azy
ĠSt ein
Rich ard
b ash
inc inn
ä ¿
Comp any
ĠAnn ual
B ODY
j q
ew ay
ä¸ ª
os hi
< '
}) (
Ġdoub les
th reshold
Ġsh ore
Ġdef erred
query Selector
J ul
ĠT ensor
Ġbe er
Ar row
(" ")]
ĠTh or
Get String
ĠPh D
Ch arts
Ġan onymous
Ġfe as
Ġant ib
14 3
13 1
m ade
Ġl iber
ĠP S
Ġpro ud
N atural
}$ \
ĠS U
ĠÐ ±
cat Desc
Non Null
Ġclean up
Ġdebug ging
w aukee
on aut
int ent
11 11
")) );
Ġinterview s
ĠTh ings
Ġchar ity
ĠFl ag
Ġcut ting
Ġop ponents
Ġ ):
y ml
Ge o
Ġguarant eed
ĠFinn ish
Ġpeak ed
o auth
Ġd ummy
Con stituency
ĠM ail
du al
Ġinf lation
oc on
ĠEnvironment al
, (
h it
lo ose
ĠB achelor
ĠCo al
ement ia
um inate
Ġmer ely
et e
direct ive
Ġterr itories
ĠS erv
Ġpre mi
Play ers
cred entials
ĠCl are
c aster
block quote
Ġpar agraph
ĠSub s
o ct
log ical
ĠAr c
Ġpo ets
Com ments
d g
ĠArt ist
out ing
ĠCh air
Ġte ch
IT S
ĠL ost
ĠAp pe
v r
ĠSet up
napsh ots
L aw
P OL
IN LINE
ĠLe ader
ĉ ĠĠĠĠĠĠĠĠĠĠĠ
int egr
Ex pl
rele ased
ĠJ oy
ĠPro test
Ġre ven
ĠS z
ĠSt atic
âĢĻ .
Ġpropag ation
Ġsac r
ĠEV ENT
ĠT un
UD ING
B in
Ġm oral
document ation
ĠH ugh
Out come
ĠStud ents
2 64
CL UDING
W rong
ĠG rey
ĠBer keley
pos itive
Ġindu ction
13 3
Ġreal istic
ĠB our
Ġr hythm
18 76
ĠWrest ling
at che
CON ST
Ġestablish ing
ct ype
ĠCom pute
Null Exception
CLI ENT
h n
Ġt one
ĠKen ya
> ]
Ú ©
ĠPr im
"> '
ĠF itz
ver ts
br ains
Ġ" {
Ġtr ick
ĠCont roller
Ġcon current
ment ion
Ġcaref ul
Hel pers
Ġviol ent
Ġparse Int
ĠMean while
comp any
Ġcorrespond ence
l ift
ĠH udson
Ġpro tests
amer as
ĠColomb ia
Ġshould n
Ġmunicipal ities
Ġsp ell
y ellow
file Name
Y ea
Fr ank
B uilt
AT T
15 2
Ġspl itting
Ġdec oder
j dbc
ich i
ĠV lad
Ġind irect
ĠB und
ĠK ap
Ġcontrib uting
b id
d type
Ġto x
incinn ati
ĠJ erry
product s
Ġh ub
Ġimp ly
j sp
Ġmill ions
sh ot
Ġcomment ed
iv ic
ĠP ush
Map s
ĠP H
foot notes
Ð ¶
ot er
Ġw arr
Ġexam ine
n P
Ġl ens
Ġdirect ive
Ġp c
form ula
it ud
ĠS Y
ĠM eta
f ade
ĠC ameron
b os
f lix
Ġintrodu cing
Ġdecre asing
pro port
Ġse aled
ĠFac ulty
Ġcl othing
Ġ$ ^{
aut hentication
ĠVin cent
Ġt iny
ativ istic
aut hent
Que stion
un i
Ġcomb ining
ĠBar celona
oped ia
Ġop ponent
Ġf ighter
Cre ator
Rec ent
ĠLeg end
ĠBit coin
Q R
ĠSw ift
ĠP el
us ive
ĠNot es
Ġansw ers
="../../../../../../ ../../
ĠMed iterranean
h h
Fl ush
æ Ŀ
ĠSt even
en h
or ship
ĠG as
Ġent hus
Aut hent
T ake
Ġstr ange
ĠT on
unt u
h yp
Ġw inds
cal cul
Ġam ateur
Ġsent enced
ĠNichol as
V ars
ĠF riend
Transform er
Ġearth qu
Ġdis ag
B ob
Ġcomb inations
Ġ\ ,\
per form
Ġinc idents
ĠK irk
ry ing
el ist
Ð½ Ð¸
Text Field
ĠRoman ian
Ġreson ance
mat htt
St udio
ĠB ird
ĠV as
ÑĢ Ð¸
Doc s
Ġs z
Ġs ax
el ian
Im plementation
ĠD NS
Ġsp okes
ĠChar acter
DEF IN
TH E
cor respond
Ð½ Ð°
Ġl p
equ ate
ĠCh and
Ġre actions
if s
Ġmon arch
uss ia
Ġchampionship s
Ġt issue
Ġd ocker
ĠBuff alo
ĠT ogether
Ġout comes
ĠAl loc
Number Of
L ead
Ġin tern
v ik
ph ot
ĠLiter ature
Ġd ash
ĠW i
ĠS pect
ĠG lob
tem perature
eff icient
ĠS TD
Ġintr insic
Ġact ed
ĠV ic
Min imum
Ġarchitect ural
it ual
Ġcor ruption
Config ure
d ro
ĠTH IS
P s
ĠF riends
Ġminor ity
Ġcorrel ations
Char les
sh ader
ĠS ad
current Time
host name
() }
pro logue
Ġe ighth
Ignore Case
Ġth umb
comp ass
Ġprint ing
K nown
ĠD rop
ĠE SP
ĠC ov
over e
Ġw ings
Ġs ans
it r
Ġ\ |\
url s
pres erve
Ġor bits
Ġpre lim
UL AR
LOB AL
m akers
ro st
Ġch at
ĠMad ison
ĠB og
W ild
om i
ER Y
Ġan ime
Ġpar ad
Ġstation ary
ĠL LC
ex act
Lin ux
p ip
Ã ī
ĠK ay
Dis patch
atern ion
is b
sup erv
Ġmonth ly
m ine
ov ich
BE GIN
Recorded Vote
B IN
ĠRob in
ĠN ear
Ġden om
qu iry
ave led
Ġens ures
Ġspec ifying
Ġaccord ance
20 3
S pl
Start ing
ĠBr istol
E t
ĠC old
f oundation
16 6
Ġsw ap
ph ysical
fin ity
Ġprob abilities
G ed
Ġfor cing
prop ri
ĠMu hammad
Ġcross ed
ĠPh ysics
ĠÐ ¼
ĠVari able
User Id
Ġtax es
Target s
ĠPl ugin
Im plemented
ĠE ston
COL UMN
Ġcr ystal
F ollow
ĠP ra
ĠB arr
Ġob lig
map per
ĠT erry
ix on
ĠL ex
ĠArab ic
CONT ENT
azel cast
ĠSyntax Kind
enc ia
Ġdem o
x r
Ù ģ
Ġnot ing
ĠN HL
Ġ rib
enn ial
ĠI celand
Ġportray ed
ĠAnt ar
Ġcous in
ĠN ebraska
sh ake
Ġscient ist
en os
Ġch ip
ss h
un ix
icult ural
STAT IC
h ou
Spec ific
Ġcab inet
Col ors
ON LY
I OS
ĠCont em
ol ly
Ġobserv able
Ġsurv iving
Ġ< ![
ĠB aptist
ĠP NG
Z ip
eg u
ĠPl anning
b readcr
R en
ĠT ypes
Ġemp irical
Ġrec urs
Ġanaly zed
P LAY
Ġe cc
ĠCh ap
st own
Ġany way
ĠC lay
& &\
inherit Doc
he ll
ort ion
Ġdi agnostic
Ġt ub
Ġt ape
g ap
ra id
Ġexpect ations
ĠNAS A
Ġg all
View ById
Ġsph erical
Ġpower ed
Ġhistor ians
F ACE
ro les
Ar c
$ ^
AR GS
ĠB ug
C LO
ĠCar lo
Ġop am
ĠCan al
ĠW E
æ į
st orm
Ġbirth day
rip ple
th y
18 67
p ure
ĠU nd
Ġshut down
Ġth orough
ever y
ist ani
Qu ick
ĠC ob
ri en
Ð½ Ñĭ
ĠB ass
Ġdialog ue
NE SS
Ġneigh bors
H AL
Ġen zym
l ar
ash a
R oyal
= </
m q
14 6
Ġexped ition
T our
" <
ĠSt evens
Ġparliament ary
Ġj u
Ġg fx
Ġpet ition
Ġscr atch
> ",
ack ets
:// $
C li
Ġtim ing
Ġtrans verse
Requ irement
ĠL ux
ä» ¶
Ġposs ession
r ub
ĠInd ustrial
Ġatt ending
Rot ation
aff e
Ġdec ides
ut a
18 79
Ġinter ference
Ġdu o
Ġrestaur ants
F K
J ac
:: _
Ġhelp ful
ep h
Ġflo od
Ġthe at
Ġbon us
ĠM agn
ok emon
ĠR ou
Ġk inetic
Ġparticip ating
ĠAm sterdam
> #
Ġun set
| ^{
class path
Ġbre ath
ĠSt ories
w l
Ġmeas uring
M acro
spec ified
y t
Rect angle
fr ared
ĠC ant
ĠM is
18 71
ĠSpr ings
per ience
Ġdog s
Per formance
ĠM all
M el
P icture
Ġestim ator
Ġim pressive
ĠPro gress
Ġreal ize
ç Ľ
ĠCost a
Ġcampaign s
ĠG ay
ĠW arner
z ant
Ġbo ats
}{ }
ĠFrame work
c nt
und ef
ov an
re vision
Ġs ugar
"> #
ĠAg ent
clide an
d yn
ĠK i
Ġannounce ment
Ġknow ing
ĠC over
ĠSh aw
eb ox
Ġ( @
' </
Ġ ));
elect ed
in crement
is p
ĠRepublic ans
J P
DE SC
Ġlab our
Medal ists
Ġun ity
erm ark
El se
jet brains
; :
Ġt ons
Ch inese
g ro
ĠB right
get Parent
Ġele ven
t ies
uck land
iem ann
ir ts
VIRT UAL
Ġref erring
r ac
Ġver bose
ATTR IBUTE
pro j
R ad
p ow
Ġreg ulation
b ecause
Ġc f
id ity
Ġcomp anion
uch y
Ġ[ -
ĠL ot
ĠPar ish
H F
g ender
Ġtab index
Ġt ies
s ites
Ġver ified
Ġv it
keyword s
Mix in
ĠMur phy
F ixtures
it les
Ġco aching
Let ter
' }),
ĠMor oc
Ġhas n
d atab
Ð» Ð¸
L G
ĠS afari
T urn
Ġob st
il inx
s ound
ĠM asters
Ã µ
he ld
å ĩ
Ġleg it
ro at
scal ar
Ġs cheduler
Ġev ident
Ġ ))
ĠL A
Ġ[ (
Ġsurv iv
Cent ral
ig ion
res pect
Ġcr ack
com press
A ws
v b
S ong
oth ic
Ġdistrib ute
)} (\
$ ^{
Ġb anned
Ġu uid
jav ase
M ON
A ge
ĠL en
ovak ia
Ġset Timeout
ĠW rap
k ill
ĠL ion
Ġsynd rome
ist ically
ĠMon th
Ġan notations
Ġst ere
Ġportr ait
Ġcoal ition
ĠL ate
ĠSh ang
Ġco operation
Ġcheck sum
Recip ients
Opt im
b az
ĉĉĉ ĠĠĠ
Ð¾ ÑĤ
Ġc ogn
ĠG arc
al is
Ġ( ((
Ġcomm ut
ĠH ilbert
op ing
Ġins ight
oper ations
ĠEn sure
Ġchar ter
oph one
M ULT
Sup plier
read able
Content Type
ĠAdd s
Ġqu ota
Ġadmin ister
Ġm u
Flor a
40 1
SE SSION
c ritical
Ġrest oration
Ġo ps
Ġmaintain ing
Ðº Ð¸
3 75
Ġto m
ĠK rist
> @
g row
Ġt ube
n ear
ag ar
pl ating
Ġc riterion
Ġobvious ly
ĠIn fo
ential ly
Ġsurre nder
Ġo xygen
ĠS oph
ĠRead ing
Ġconven ience
ter rit
View Model
Ġblock ed
Ġcomple ting
N ORMAL
S aint
Ġnec k
Ġsudden ly
ic it
ĠU INT
ĠArch itecture
Ġcluster ing
Al ready
ĠVis it
ĠGh ana
set Name
tele phony
RO P
Ġlast ed
& =\
B alance
ĠB orough
ĠT ol
Ġmathem atics
ĠSym phony
ĠTr inity
Ġinflu ences
ent ine
Ġsub space
Ġspe akers
cover age
ĠKe ith
re start
mod ern
Ġinsp iration
Ġun likely
Depend encies
D eb
h istor
St amp
Ġro uting
18 77
Ġpre view
Ġcomput ers
Ġengine ers
ĠAnt i
ĠD R
Ġvar ies
Ġdon ated
normal ize
Ġ* */
H y
Def ine
= }
Ġpro ton
Ġstat ue
LOC AL
al ways
Ġg ear
K S
it ol
Ġo mitted
}. }
Academ ic
n orth
ator ial
ĠY ES
ĠPol itics
s mooth
May be
ĠC ONT
Address es
æľ ī
18 72
;& #
ah l
ĠL ions
Ġ& $
am ine
iv odes
Do es
Ġjav adoc
$ '
W ITH
P B
Ġw ake
S uffix
Ġar ise
att achment
back up
Ġdifficult ies
Ġbroadcast ing
Ġel igible
chi at
ĠDi amond
Ġb ike
Ġco oper
bound ed
ĠB ir
ĠB uch
ta wa
Ġorgan ic
cons ider
18 68
US A
ĠS ony
ĠD S
ĠAnd r
Ġhe ap
Ġyoung est
j k
n od
Ġl ingu
Ġaccept s
ĠGr ace
feed back
ĠD ialog
ĠCont act
CLU DE
Ġf iring
Ġguid ance
Ġtw in
getElementsBy TagName
ĠC ad
Aut om
Ġinf ection
ĠL iga
r ab
Ġsh ots
Ġinter cept
o ard
Ġp arks
elect ron
rece ive
Ġinter active
Ġev olved
aw k
ĠSy rian
ĠCurrent ly
C riteria
Ent ities
) ](
ordin ator
Ĺ ãģ
Rep ublic
F un
Ġturb ul
ĠS ent
Ġassum es
Ñ ī
="../ ..
TO KEN
$\ \
Ġcancell ation
Ġ' [
ĠWrit ing
P a
m other
Ġcr ude
M id
Ġgrad uating
ynt hetic
Ġs id
te enth
Ġsurv ival
ĠTerr itory
ĠField s
os c
So ftware
ĠNever theless
Ġnot iced
Ġgather ed
Ġship ping
Ġm anga
Ġm arch
int egration
} ")
N L
Ġc v
in ja
as ia
ĠOver all
Ġgener ators
Ġmoder ate
In stant
Ġfe es
ex c
Tax a
es lint
ĠArch ives
he w
Ġloop s
the y
Ġrepeated ly
R X
ĠSerb ian
% );
cl osing
}/ \
ĠMET H
ob ar
Ġdis pute
mk dir
F iction
Ġnom inations
Ġ nd
je ctions
ivodes hip
ĠH orse
Ġent ers
Table Name
Hon ours
Ġpoint ing
)) {
ĠDen ver
Con nected
val ued
Ġpurs ue
w ang
Ġcontain ers
J im
EX P
ĠY am
Ch rome
Ġspecial ized
ĠEth iop
v n
ĠWat son
ĠS F
Ġst ick
lic an
IF T
B and
W F
Ġ] );
ĠH ob
id ency
Ġatt achment
C irc
Ġ è
ĠR oll
ĠB ath
Ġun stable
Ġbr idges
es ch
ĠHash Set
i pt
Ġmut ual
Ġg ross
Ġ\ [
Ġqu oted
AP PLICATION
Ġr ay
Ġin set
Ġim posed
Ġcomm emor
18 74
) _{\
i ology
min a
ast ed
ĠY et
' })
tr on
andid ates
m ot
uzz le
iv ar
Ġs ick
ela ide
B roadcast
hand lers
then Return
Ġt ension
if th
Ġreal m
Ġeng agement
>{ @
is se
CO PY
Ġdram atic
sim ilar
Ġpremi ere
Com bo
EN S
hel m
Ġ( .
Ġp id
Ġpers istent
A st
Ġp reference
Ġprom oting
d an
Ġsh allow
Ġpl acement
ing e
Symbol s
h uman
Ġal i
× ª
lic es
ENABLE D
ĠG len
13 8
CON TEXT
ĠT oy
Ġg ateway
al am
ĠL loyd
Im p
Mod ify
ĠEd wards
18 66
15 1
Fat alf
ap k
Ġun e
om o
ĠGr ade
Ġapprox im
ij i
Ġneg lig
Ġband width
ĠMun ich
Ġcons ent
end l
Ġnormal ize
Ġharm onic
CONT RO
add itional
? .
D ele
Click Listener
Ġconflic ts
Ġfile Name
H uman
d ifferent
Ġoccas ions
eg al
ĠMont ana
Ġtr aveled
ĠRes erved
ent ric
ĠĠĠĠĠĠĠ Ċ
Ġind ustries
Cred ential
{ .
GL uint
n able
ext ended
eg ral
SE D
VAR I
Ġh ate
man ual
neut ral
Ġirre ducible
Ġext ensively
Ġinnov ation
ĠVenezuel a
æ ŀ
Ġm os
28 0
C XX
ĠB UT
Ġeng age
is ers
TO P
ĠN A
ect ive
Ġassoci ations
ĠL arry
ĠMer c
ot hes
Ġess ay
s ex
ĠType Error
Ġorig ins
Ġexpl ored
footnotes ize
Compar ator
Ġmorph ism
Ġgr ain
Ġperfect ly
Ã± a
ĠCOP Y
( %
hen g
Ð¾Ð ³
Ä Ľ
=" '
Ġsp ots
rec ogn
ĠJeff erson
Ġcosm ological
Ġneutr ino
writ eln
âĢ ī
N AL
OFF SET
plic as
vious ly
Le ave
s it
Ð½ Ð¾
ib lings
OUT PUT
}} </
has Next
IFI ER
av an
Scott ish
Ġinn ings
ĠGon z
Ġd uplicate
Ġ' )
S un
Get Type
ĠFil ip
C am
f on
min is
Ġam pl
Ġfl ights
Ġdevelop ments
Ġjuris diction
FIL TER
Ġactiv ated
m iral
ĠIn nov
ĠG em
Ã¤ r
Ġbut ter
Ġin struct
Ġm a
Ġout break
abul ary
O VER
ĠCal endar
ĠC atherine
Ġextr action
P rec
Ġf led
Ged mo
Ġart illery
ĠSh op
sp h
x a
ar an
ĠF un
ĠNe il
b ay
Ġdeterm ination
Id le
Ġreview ed
× Ķ
Ġb ay
k ern
on er
ĠT as
ĠFish er
L ondon
Ġs am
Ġ{ !
std lib
Ġa qu
TR ACE
Ġdig est
Mut ex
F all
26 0
Ġbrows ers
E con
. ')
Ġpos it
Ġrat ings
ĠHer z
ĠC urt
ĠTrans form
Â »
W M
Ġemerg ing
Attr s
ĠD yn
ĠTre as
ri x
ant astic
Is rael
ĠY u
15 4
as List
_{ -\
ĠL agrangian
Ġwrest ling
18 73
ĠIm ages
Ġm ilk
Ġexcit ing
D K
Ġconstit u
\ .
sub equations
d eps
tr ight
00 3
Ġcond em
Cur ve
ĠTib et
user Id
A mb
requ ires
EQ UAL
ĠTH REE
ĠEp isode
P ac
Ġrock s
Ġco ord
node Type
ĠEm pty
&= &\
S eed
g ol
Ġa pt
Ġh opes
Ġper cussion
Ġre fin
Ġtri be
Ġre nd
Ã Ĺ
> *
B er
Ġgovern ed
ĠHol land
Ġd egr
ress es
ĠG olf
Cred it
Ġpure ly
CAC HE
ĠCons erv
Trans actions
up les
Ġm as
ad itional
Ġcom prises
ĠVo ivodeship
Ġr h
ĠI M
Ġj ournals
Ġinter vention
ĠLu ke
Ġro ster
"> ,</
f ixture
Ġpl otted
Ġgo og
Disc ography
ink s
Work space
Ġsec ured
play ing
d eleted
w heel
Ġconsist ently
ĠK l
Mar shal
Ġbre ast
col s
ĠCh a
Ġt ickets
Connection s
Ġdef ending
ĠCheck s
L ess
il ia
ĠEd it
Ġspons ored
Ġnormal ization
initial ized
Ġgener ations
atern al
m ong
b rowse
uck er
Ġin cl
ĠK un
publish er
Ġdo ctors
go als
m ith
territ ory
Ġtrad ed
ot ypes
ĠI da
Ġ ~\
ĠCru z
oc ities
State Exception
4 80
ed ges
Ġint ense
B razil
Represent ation
ad apt
tr action
ĠHigh er
ipher al
Ġ* **
ĠDet ails
* (
ĠCar r
Ġaux iliary
in el
h ang
ĠC ircle
Ġimplement ations
Ġvol can
b z
in ance
we ights
Byte String
Ġfor wards
og ical
Ð» Ñı
Ġtempor arily
STRE AM
ancell or
p ared
Ġleg islative
Ġsup press
w y
ĠS eq
Organ ization
+ $
ess a
Ġdis aster
ĠEl li
seud o
Prof essional
Ġcaref ully
s am
Ġs sl
Ġfest ivals
un ches
ten ant
expand ed
cknowled g
Ġphot ons
Ġr v
Grad ient
Ġ ].
B ill
ĠH at
18 40
Ġwebs ites
ST M
Ġunit ary
Pub Key
ĠEcon omics
ol ph
Sample s
Ġhun ting
om eters
ĠP ick
Def unct
Ret ri
inherit doc
Ġch ron
F s
D ead
ud ge
ĠCh o
Mus ical
Ġt ends
Ph ot
open ed
Ġste ep
ed e
ĠĠĠĠĠĠĠĠĠĠĠĠĠĠĠĠĠĠĠĠĠĠĠĠĠĠĠĠĠĠĠĠ ĠĠĠĠĠĠĠĠĠĠĠĠĠĠ
Ġsquad ron
ĠGuard ian
K n
Ġg al
rupted Exception
P ur
ME DI
loc ations
Th umb
\| _
Afr ican
ĠM OD
str ategy
ĠSh ared
aren cy
ĠS IL
SE C
to o
Ġdec k
Ġloc als
source forge
rot ation
at ra
le ave
h ls
j ab
Ġâ Ĥ¬
Ġchem istry
ĠAbb ey
ĠN R
bold math
k k
14 9
C OR
ĠS L
ĠSe an
Ġexec utor
Ġaffect s
U tility
S ir
Ġlocomot ives
) ];
ĠL am
Ġlog arith
Ġcons iders
ierarch ical
K ar
ch ars
Ġconj unction
({ },
Dem o
Ġfun ctor
"> :
Ġvar s
Ġanal yst
ĠThe me
n ick
um i
Ġhon ors
Ġdismiss ed
ack er
ĠF L
}^{ +
Ġabs ent
W P
ne z
ling ton
ĠR ey
left arrow
ens en
18 69
dr iven
Sw ed
In crement
Ġpat rol
Ġse eds
Ġcelebr ate
ell ion
cap acity
Ġel astic
Ġmanufact urers
Ġl hs
J O
ĠM ort
M ale
in tr
perm alink
ĠJ ar
akes pe
Ġphys ician
Ġc argo
Sm art
Ġlog ged
Hash Code
oid al
b alance
b ib
ĠD elta
eq z
ĠInd ependence
ym ore
Ġdeep ly
N ER
ine e
ĠUE FA
ĠAt hens
ex e
/ :
Ġb ubble
Ġdrink ing
Ġarrang ements
ĠJ oint
pl ays
Ġperson ally
Ġm oon
IC S
Ġadm its
Ġprofession als
Ġmart ial
us a
Ġsc rap
Ġqu as
Des criptors
Ġcre ator
/ ************************************************************************
At omic
20 8
Ġsp y
' ',
ĠHe avy
rec ords
Christ ian
> =
Ġr ated
On line
ĠP ont
Ġeg gs
_{ +
ĠRepresent ative
ĠRem ote
az i
Ġassert ion
Ġb t
Ġphys ically
Vis it
ĠL ar
Work flow
W ay
IS O
ĠLu is
S and
is cal
ĠM ann
PO SE
v g
ĠCall back
ĠSus an
ĠK ate
ĠU lt
Na N
^ (
ĠD ynamic
ĠContem porary
mid i
ĠRe yn
ular ity
pl ings
Ġorgan ised
b usiness
ADD RESS
D ays
red is
ĠT ang
ĠScient ific
aur us
mid rule
" =>
ĠE mail
s ess
Callback s
ĠG TEST
Ġauthor ized
ĠLeg al
Ġp ic
Ġun cle
ĠM oney
ĠDefault s
W ords
ĠB B
H ung
P ORTED
Gr and
ull ivan
=\ {
IR ST
osp el
resource GroupName
SY S
Ġcon e
Ġfeel ings
ĠDom ain
ì Ŀ
ing ers
Ġoptim ized
Comp atible
ĠB order
To Array
Ġhapp ening
m ers
Ġqual ify
Ġfast est
Ġl ying
cho ose
enc oder
ie u
m os
Ġlik es
Ġmechan ics
Comp ile
ĠFerm i
d ims
A thlet
ĠEx pr
Ġplay offs
min or
effect ive
UNK NOWN
e u
B log
Ġv i
Ġours elves
Ġas ide
}{ $\
P rior
z ig
On Search
Ġbuild s
ib us
Ġc ategor
cite alt
h ub
Jew ish
Ġfoot er
track s
( ',
ĠM uch
Ġsk i
Ð¸ Ðµ
ĠDemocr at
Ġvent ure
Ġc amps
* \
ãĤ ¹
Ġh ang
ir q
ĠLabor atory
ĠB ear
olog ically
sql ite
22 2
Ã© d
Off ice
ev ille
max imum
!! !!
y u
ost ream
Ġh i
ari ans
Ġmuseum s
ĠAl ong
Ġrefer endum
ĠCroat ia
Ġwork space
C ircle
x FF
be havior
t wig
ĠP OST
Ġcolle agues
30 1
Ġf irms
Ġl iv
D ark
sp er
Ġsub t
D istrict
O O
M ex
Ġf ur
rel ax
Ġfru str
ah an
B ank
ĠPl us
ĠSocial ist
ĠK ol
\! \
che m
Code Attribute
Ġ* =
ht m
akespe are
ĠK ash
start ed
ĠNor folk
ĠPy Object
EX CE
us b
Err s
ĠPh one
ĠSt uart
Ġremark able
L ove
rece ived
s uggest
ĠA SC
Ġcle ared
T W
ĠWIT H
ic z
Ġev ac
"] ["
ĠA ber
type Name
Git Hub
. âĢĻ
æ Ķ
im ity
rib utions
no ise
Ġdecor ated
fold ing
Neg ative
ĠN ak
Ġr iding
ĠInitial izes
h dfs
arri or
o ons
col ogy
Ġlabor atory
ĠExec ute
ĠCom plete
itor ial
Ġemph asis
å Ĩ
AL LOW
Ġtrend s
Ġbas ically
ond s
ĠM aced
di ag
Match ers
Ġl ux
ĠP erry
J ose
ur ities
Ġpe oples
Ġcoun sel
Ġpl enty
). </
ĠRel ations
act ed
P ART
ĠI ss
Thread s
ĠS ak
th lete
ĠS alt
ĠH H
Ġvar ied
, ...,
Ġsus pect
^+ $
ra h
s uffix
U uid
Ġpro spect
ett i
Comp ilation
ĠObject s
Ġdisestab lished
ĠH amb
Ġappro ached
ĠChristian ity
\, {\
ĠS ox
ĠArab ia
Ġsaf ely
Ġ* (
Ġpl acing
mult line
ĠB U
Ġdes erial
Ġpack ed
tright arrow
I o
Ġf ade
Ġcons ensus
Ġscal ed
18 57
Code Dom
ĠCon tract
Ġbe ating
Ġfl avor
ĠPhilipp ine
work ing
Ġ( ).
Ġ"\ "
Ġ( &
ĠU ri
Ġup dating
Ġten ure
Ġ' --
Ġcount ing
ĠS oul
ĠV ent
D eleted
Pro position
Ġfilter ing
Ġel abor
Ġip ut
ar ial
Ġun w
ĠMark ov
Ġstr ain
c ern
d og
FAIL URE
ä¸ į
Ġfr act
auth ors
Direct ive
u o
Ġper ception
Â Ģ
ast ro
Ġiter ate
Ġintegr ity
r us
Ġcal ibration
Ġconnect s
Ġagre ements
Ġitem Members
get Node
Ġcomp ress
Bal ancer
ĠV oice
contrib s
Ġarg c
W T
Ġs q
Ra ises
ĠN g
Log ical
\, ,
Q T
Ġelse if
ah a
al bum
Ġcomp ounds
Act ual
R ock
s id
Ġplan ets
Ġcoll isions
V ersions
ĠF E
ÏĦ Î¿
le arn
W IDTH
up iter
est yle
Ġover w
ourn aments
Ġanaly tical
Further more
H a
Ġpul s
ĠA uckland
R ew
ĠAc cept
Ġsole ly
Ġin vention
ĠDi ocese
C ref
Ġres ervoir
ĠAct ivity
Ġd otted
ĠRe ce
Ġbound ing
BU F
not ated
H ouse
it ations
ĠP D
Ġwork flow
Ġlimit ing
Ġhighlight ed
ĠRog ers
Ġwire less
sort ed
Th ird
Ġte a
be ing
TH ON
Ġsample d
\ }.
c ence
Ġartifact s
ĠMunic ipal
Ġh orn
ÂĢ Â
Ġd uplic
xx xx
Ġb ary
ĠApp ly
Ġpo ison
Ġh ooks
Ð ¡
ĠHer bert
Sm ith
ĠR uby
key board
Al location
D irty
un s
IC AL
ous ing
her o
Ġlie utenant
ĠG alaxy
Ġgraph ic
or able
Ġen emies
14 1
ĠDown load
ov sky
former ly
ĠVerm ont
d ns
Ġinnov ative
ĠWork ers
ĠNep al
ond o
ĠI v
border ed
ĠB loom
ia z
access or
bin om
ar ms
ist ency
f ive
s cheduler
y led
Un icode
ĠH ub
R oll
Ġhe ating
m ixed
am ation
Ġh istogram
Ġover come
ĠCatalog ue
ĠCon trib
b ian
4 000
Ġeffect iveness
Ġcompos itions
\ },
CO RE
P en
Ġsup plement
t ec
Big g
Ġp ione
ĠA w
}) ^{
SET T
N ever
}[ !
Ġdep ression
Ġmurder ed
P LA
und o
18 48
arn ess
Cal cul
è ¦
ĠBroad casting
ĠHel en
Cal c
Ġ{ ?
Ġprogress ive
ĠPers ian
ĠV k
ĠEq s
Ġev t
Ġf p
eb ook
For Key
Ġliter ally
ĠWeek ly
ĠH em
C y
Ġnegot iations
ĠS yn
M ary
LI ED
Ġam big
Ph ys
Ġdiv ide
ĠMar shal
ĠValid ation
Ġnumer us
G esture
á ¹
ĠK el
CP P
:: ~
ĠAn imation
Ġb orrow
Ġph osph
t ap
sole te
Print f
Ġthreat s
transp arent
åľ ¨
ĠL is
exec utor
Mar shaller
ĠSh ape
dig est
ins ky
class v
perm issions
R oles
Ġswit ched
. ).
t odo
g ot
add er
ĠÎ ¼
S uggest
é ¡
ĠD ES
( |
ĠS olar
ĠC WE
ĠM orning
h all
Ġins pect
Ġgr ants
Ġaffili ated
â ĪĴ
Ġeigen value
'] [
Ġlik ed
ĠC ox
ord inary
ĠT ru
L ex
K K
d ue
ĠInter est
Ġsomew here
in ar
av ier
ĠHeb rew
Ġg ent
Ġconcert s
ĠAss ume
Ġhighlight s
Ġtr ap
Or Empty
INTER NAL
il io
Ġprom ising
ingu ished
Ġform atted
80 80
ĠModel s
Ġtrad itions
Ġe u
res olver
s yn
Pres ident
- %
Ġres c
M ur
alloc ate
ĠS ultan
Ġm ines
ä ¼
Direct or
on ing
} ',
Ġres ize
W D
ĠR ah
Ġvolunte ers
Ġviol in
Ġp b
= _
r hs
ĠCor ollary
Ġprelim inary
Ġout door
el ia
P TR
Relation ship
Ġreg isters
con struction
ric ulum
gener ation
work flow
Ver ification
Ġneighbor ing
ĠT IM
re load
Ġdist inction
IN X
13 9
D ocker
C AT
Fin ish
ĠForm er
ĠS ales
REQ UI
ĠA str
Ġ\ }
Ġbe an
Ġdig its
d ashed
ac co
Ġan isot
Ġde emed
ĠW ells
Loc ations
Ġact ively
ĠEn cycl
t pl
Ġswitch ing
Ġcor rupt
t om
Ġo d
ĠH aving
Ġmyst ery
) ");
ag h
Ġgeneral ization
Ġc d
Ġc ow
Ġin jection
ĠA aron
15 7
Ġmain stream
Ġconstant ly
small skip
Ġimplement ing
Ġs ectors
ul ous
ĠMETH OD
ĠD ennis
ob server
An swer
ï¼ ļ
P AGE
ĠSl oven
Ġtrib es
r idden
ch ip
ĠN at
ĠAd elaide
Ġo l
ĠP rest
ĠA DD
Ġvalid ity
ĠSing les
ĠPo isson
Ġp ose
Ġgrand father
Ġfail ures
à ®
ex clusion
Ġab ilities
ĠAl pha
work space
ĠWAR NING
Z Z
ĠI o
om ed
ĠA round
Ġimm igrants
Ġgold en
Project Path
ĠR at
ĠD od
ĠP anel
Ġisol ate
ĠG ilbert
14 2
Ġecon omics
ĠW idget
ĠStan ford
Ġ` --
ĠAzerbai jan
ĠF ake
Ġad s
EMP TY
ĠZ ero
Ġo m
ĠT E
vers ation
Ġsusp ension
Ġla ugh
Ġis omorphic
ap on
ãĤ ĭ
if olds
Ġland ed
w al
Ġdel iber
ĠI de
Ġcloud s
Ġs isters
L uc
UB LE
ĠØ§ ÙĦ
> ")
ann i
Ġpre dominant
A ML
D TO
c riteria
m eth
add y
St e
Ġpre t
Request ed
pred icate
ĠTreat y
Ch apter
char At
Ġmill iseconds
ĠAb u
Pack ages
Ġf printf
DE SCRIPT
R eb
s ized
Ġdem olished
aw ait
Ġal ien
2 32
S CHE
Ġas ynchronous
ĠM ER
Ġpropos als
n ets
ĠC incinnati
tt ify
15 3
ĠAv iation
l iter
Ġreprodu ce
ind a
Ġst eal
PRE SS
Ġsegment ation
ĠW es
eng u
IS H
ĠPol l
"> @
Im plicit
ew ise
ish a
ĠBut ler
s olution
Ġaccept able
Ġc am
S y
ĠP att
R TC
Ġun used
B IND
Î ®
im eter
ĠÎ ±
Ġr itual
Ġcompet itors
Ġnob le
ĠAl t
Ġexhib its
Ġc hest
Ġsettlement s
Ġc ameras
ag i
Ġflex ible
ĠM ul
Sort ed
Ġdepart ments
Ġax es
Ġcons olid
Ġveter an
ĠF ed
ĠR an
ĠR ES
S ens
w oman
ace ut
ĠM s
. {
get User
ĠCom ple
ĠH av
ĠHel per
ĠEqu ation
ic us
d irty
at trib
act ics
Ġdeep er
flu ence
Ã¶ n
] ^
inst ances
p ause
ĠB aby
anc o
am ination
Ġvari eties
ĠBulg aria
gom ery
m itt
at em
child node
Ġ} {\
LE ASE
Cl osure
20 5
Ġgr ave
Ġcoll apsed
Ġthick ness
Ġcovari ance
ĠS uz
Ġacceler ation
Ġj ury
Ġris ks
Ar m
ifest yle
Ġp ow
ĠW onder
ĠC raw
18 59
Pub lished
3333 3333
DIS ABLE
Ġcom prising
+ -
to k
y ield
Str ict
Ġm ature
Ġillustr ate
y outube
B ay
ĠSim ilar
g allery
22 4
p ix
Ġz ones
) <
Ġ\ {\
ens on
ĠB orn
Serial ized
get Path
p it
ĠAir lines
Ġg em
Ġun safe
ci pl
15 6
Ġprov es
ĠEx ternal
N s
ol ine
ĠAl ert
Ġblock ing
ĠĠĠĠĠĠĠĠĠĠĠĠĠĠĠĠĠĠĠĠĠĠĠĠĠĠĠĠĠĠĠĠ ĠĠĠĠĠĠĠĠĠĠĠĠĠĠĠĠ
Ġview ing
ĠI ssue
Dis covery
D NS
Ġreflect s
Ġaccompany ing
" ):
m igr
ĠW R
At l
l st
ĠC lick
ĠS ask
assert That
e ctions
ĠD y
ĠH RESULT
Ġtravel ing
ĠG host
RE L
lo ver
Ġcon greg
ĠQu arter
Ġcivil ian
ĠĠĠĠĠĠĠĠ ĠĊ
her its
Austral ia
hes es
status Code
3 30
Ġ[] *
agon ist
ĠN AT
Get Value
h or
Ġs printf
Ġcert ified
2 12
D J
U tf
Ġp ng
che l
ap ing
LOC ATION
Ġimm igration
åı ĸ
Ġwonder ful
ĠTransport ation
el ing
ĠF ail
ED IT
constr aints
Ġrun ners
Sl ide
Ġa uction
bo ys
Ins pector
is EqualTo
Ġh ospitals
ort s
ME TA
PHP Excel
18 30
List View
be am
Ġconstr ained
ĠR ivers
j as
cu ador
f eld
ĠWork ing
starts With
Ġan ymore
Ġcomple tes
M irror
Ġcol ony
Ġ ----------------
MO VE
$ _{\
d up
g ie
Des erial
Ġtour ism
Ġwalk ed
Y ES
Ġc pu
power ed
ĠPhil lips
s uite
ĠCom b
author ized
ä ¹
o ys
] "
Ġr ings
Ġpre st
Button s
Pro jection
ig ue
Out Of
oc y
) }$.
Ex act
sh im
Sin ergi
Ge V
ĠArray s
ãĥ Ī
ĠCh i
mem item
Ġjo ins
tr ained
n th
ĠId entity
in ology
76 8
Display Name
ene ath
ĠU TF
ĠFl ash
Ġconver ges
We ak
arr ison
ĠS Ã£o
Â ·
ĠNot ice
ref s
Ġaff ine
default Value
track er
Ġsynt hesis
orph ism
Ġfavour ite
ĠW alt
Character Offset
A MS
Ġw ard
Ġalloc ate
ĠJust in
ĠBob by
ĠB SD
ĠTh er
Up dates
Ġarr ives
Ġrad ar
(' -
ãĢ ģ
ĠI con
ec raft
Å ¿
Ġlight ing
i ating
S a
ĠI Enumerable
us ually
Ġcor related
================ ========
ĠEag les
G F
Sh op
ĠExec ution
H I
r n
Ġdem ocracy
Pro b
EN SION
h orn
node Name
} &\
get Int
ĠR unn
Ġd warf
un used
ĠB ach
Ad s
Ġinaug ural
CA SE
Ġfun eral
im ag
ĠP E
Par allel
Ġten ant
r w
Ġdiscrim ination
Ġd inner
Ġg ates
art et
r age
ĠNash ville
Ġd eter
J ournal
ĠM IN
Ġmanag es
eval uate
Ġimag ine
ç½ ®
oot ing
Ġs creens
be hav
ĠSud an
Ġful fill
FO UND
ĠS EC
% ">
m eter
Ġt ours
Ġsuff er
Ġscholar ship
ĠH im
ĠG UI
M N
ab ol
Ġfoot age
uls ion
ĠS or
Ġpers u
14 8
ĠD rama
16 7
>& #
h c
Ġfore cast
ĠMil waukee
s chool
50 1
ex pects
O UR
Ġconf usion
Ġdiss ip
; "><
N ear
ber ger
ĠLe o
ers et
Sever al
an che
ĠC ancer
ĠB R
6666 66
ĠPen insula
Ġtrav ers
or p
Ġh urt
Ġorigin ated
Ġtrail ing
Ġglob ally
Ġt anks
SV G
l ane
Ġprotocol s
38 4
Ġcross es
Ġphotograph er
uch i
az ard
\ [\
n f
å ¾
Ġown s
ĠBudd hist
ot yp
Ġun n
umb ai
Ġconsc ious
E scape
ak ef
SP H
ĠTh under
Ġpat ron
comm unity
eh icle
Ġstop ping
ry s
des ktop
Ġtele phone
Ġagre es
Ġ ic
Dis pose
ĠRE ST
é Ļ
Ġa u
B G
ĠGu id
FI X
ur bed
Ġed itions
Ġmulti plication
Hash Set
om aly
min ster
inter est
el o
Ġprepar ing
Ġn inth
t ically
Bo ard
ĠPlay ers
Ġoverse as
Ġadjust ed
ĠL an
dr ive
7 20
en es
Ġsustain able
/ ?
Ġrev ised
C urrency
Ġb uck
Gener ation
aver age
G LOBAL
}} ,\
ĠC ut
assert Raises
ec ca
Pos itive
Ġanalys es
T IM
Ġsql ite
ĠHug hes
ĠR ever
") ).
per formance
ĠGL uint
ĠCons ervation
m art
DA O
con sumer
ĠSp ider
system s
Buffer ed
60 1
Rem oved
ĠG row
AR M
l ucene
com puter
Ġfacilit ate
r ating
ĠCred it
f ilm
lic h
List en
Ġassist ed
he ther
Ġround ed
Ġle ts
Ġsent ences
ical s
ĠP ent
ĠN intendo
pl aced
Ġre n
ĠR oche
Ġm ild
Ġh itting
Ġfor um
l ishes
Ġe arning
ĠCom merce
Stud ent
+ '
ĠAR M
Ġal liance
Ad just
Ġt ear
imm ers
oc hem
Ġreb uilt
m is
Ġc ust
sh utdown
Ġexam ined
Football ers
k b
)) :
ĠArch itect
Ġoccur ring
Ġcon vey
Ġdisc ount
Ġg enu
Ġcelebr ation
Ġtrib ute
Ġm utable
Ġcont ested
R anges
i ov
G reat
ĠX XX
ĠC ris
in ions
Ġpreced ing
COM PI
ĠF iction
\| ^
Ġc ave
ĠM L
Ġhand ed
Ġlimit ation
C AN
Re plication
å ½
Ġf unny
mar shall
L y
ĠAPI s
anc ers
et ched
Ad ministr
Ġentang lement
Ġl ua
') [
the ory
Ġbl ues
adi ents
Work ing
PT S
Ġcontinuous ly
EX EC
Ġresource GroupName
ĠF oo
Job s
port let
ok i
de ad
ĠProdu ctions
Ġinfin ity
ĠCre ative
ĠG M
Pl ugins
Ġx hr
user Agent
A ust
Ġsens ors
D N
amp ing
ĠGerm ans
Ġre dis
Ġbe et
Ġback ward
Initial izer
Ġgu idelines
Ġc rop
Ġap ple
C ut
val s
Tr im
Ġhost ing
}{* }{
Ġg rap
Ġcommun icate
ĠCong o
ĠSpec ifically
ĠFile s
ĠĠĠĠĠĠĠĠĠĠĠĠ čĊ
Ġ'/ '
ĠG B
Ġend points
Ġa z
ĠAL L
T CP
ĠK id
ĠArn old
b ur
add All
At Index
Data Set
Ġdist urb
L IMIT
Ġdescri ptions
Ġindex ed
Sc anner
friend ly
Ġsum mit
cur ve
M i
Ġg host
ĠL oop
en burg
em e
Sh utdown
D to
ĠIn stit
Ġrecommend ations
l ighter
Ġal gebras
io let
Ġvol atile
ĠØ ¨
Ġt aste
Ġform ations
ĠMe chan
Inter op
Action Bar
Ġnew er
im i
g b
ĠN GC
ĠBro ther
ĠReg Exp
ĠCO MP
ĠÐ½ Ð°
ĠR uth
ĠInt ent
ĠArch bishop
Ġco herent
Part icle
Non null
) `
ĠO scar
ST AMP
for um
M ime
ĠB A
ast rop
Ġconf used
Ġexhib ited
G I
Fr ance
Ġlaws uit
ĠHar vey
ĠThrow able
C andidate
ĠA ST
Re peat
Ġsh ifts
l v
ĠM ik
ĠK ill
di agram
art icles
Ġkey boards
Ġsubsidi ary
Ġhe ll
Ġrem arks
Ġevery where
ĠGro ve
mention ed
Ġspac etime
arri ers
LE T
Ġ{} ",
F old
å ·
Ġen abling
ik ing
Ġmand atory
ant om
}) =\
to Array
ĠLe eds
output s
ĠM az
Ġmin istry
Ġsur prised
Ġatt itude
uby te
in cre
sp lice
normal ized
Ġv ital
ĠD ementia
ĠArt illery
H W
math comp
Gu ard
x d
-- ">
Sh ard
H ierarchy
ĠE asy
Ġcos mic
SY STEM
Ch ars
Ġb ull
Ġcontact s
Ġprom ised
ĠSh akespeare
*) "
ĠW orth
Pro blem
s us
list eners
ĠC I
ĠR idge
B bb
id ays
url ing
Ġge odes
M gr
Tr ansp
Ġmatch er
Ġcontin uation
Ġcontrad iction
ĠE g
ok o
è ¨
ĠLIMIT ED
ĠU UID
$/ .
Ï Į
Ġsh ops
Ġrecip ients
Film ography
T reat
Ġprov inces
Ġtranslate Y
ag ers
ĠThe od
Install ation
ĠR ules
script scriptstyle
Ġmake up
Ġefficient ly
Ġpal ace
ĠBy zant
wik ipedia
ir able
ĠÂ ·
Ġexplos ion
ĠO m
ab we
Ġcommand ed
Ġsurvey s
Ġsynt hes
nit method
Ġn ut
ĠM ouse
Ġsub mission
Qu ota
Ġattract ive
K O
uss els
Ġtrib ut
d oxygen
Ġst olen
ĠF ighter
act ivation
Ġbi ography
Inf os
' ></
AB C
View er
en i
Ġ# [
Ġport folio
SH OT
r ust
ĠG NU
ĠLeban on
ĠS ierra
Ġv ibr
Ġ[ &
Ġinst ability
ĠAng lican
RE ST
Ġb rew
ĠPeters burg
ĠP icture
ĠW u
g ency
Ġs ang
ĠN athan
mid t
Ġj ail
GR AM
} <
eg an
x si
ĠUs age
B attle
Ġcapt ion
19 3
ur ated
Qu ote
æ Ń
ord ion
leg iate
Ġanalog ous
ĉĉĉ čĊ
SN AP
Ð¾Ð ±
Ġmanufact ured
Ġabb rev
Ġconduct or
ack ed
cknow ledge
am med
Ġpredec essor
R x
le f
\| _{\
Ġwalk s
Ġfall back
Ġp ill
Ġsl aves
Ġal phabet
p ark
Ġauthor ization
ĠE instein
DE C
Ġdr ives
Ġindex es
Ġrecogn ised
> ");
ĠE ddie
Ġplan es
at z
Ġcl an
ust ain
rott le
Ġt ale
18 58
ĠEnter prise
ol ition
36 5
ĠCo ach
Ch ina
Field Value
ĠIn spect
ac ements
ĠG ene
Inter faces
IT EM
ĠSp ark
ph al
Ġac res
Ġinf antry
ellig ent
ĠC u
ĠB ert
æĹ ¶
ac ional
Ġref ere
ĠTh ai
Ġd atabases
ĠG uild
Ġover head
Ġshe ar
H AS
Ġb less
COMM AND
A verage
G lob
Ġocc urrence
adem ark
Ġb uffers
Ġqu it
Ġw elfare
Ġpod cast
linked External
re comm
Tem plates
ĠAut om
sp y
acef ul
S port
x hr
Second ary
f ork
Ġhealth care
Ġr pc
ĠMark eting
Ġcon clusions
Ġt m
Ġattr actions
15 8
Ġd irty
Spec ies
ĠQue st
und ant
;-> <
Enumer ator
20 6
ĠClar ke
Ġp kg
ĠM ig
reg istration
Ġsculpt ure
Em it
Ġw ars
Ġ$ <
Ġinter sect
Ġr ally
Ġf ert
Ġpro position
j ournal
ĠSt ef
est im
ĠUn supported
ĠOt tawa
ĠSecond ary
Ġcomp ressed
Ġp ale
Ep isode
Ġre lies
Comp anies
per iments
Ġcitiz en
Ap J
Ġch apel
Ġas h
Ġattend ance
ĠP UR
Ġim plications
ad m
nt z
] ):
ĠR alph
Ġon Click
Ġdefend ers
g ateway
is che
Ġ" *
Ġshould er
1 200
ĠV ict
: ",
Ġim per
sc opy
Ġ ------------------------------------------------
ro uting
Or g
Ġarr iving
@ @
Ġthr one
rece iver
ĠFlore nce
ul ators
Cla im
r ated
Ġf illing
ĠC es
ĠG ate
ĠDis covery
D MA
Ð¾Ð º
Ġass ists
X R
Ġm im
Ġend l
Writ able
Ġe ating
Ġre fr
Ġare na
ĠMah ar
Http Servlet
linkedExternal ProjectPath
Ġt ier
=" .
ĠL arge
ĠG PU
Sw ap
Ġexec ut
ocol ate
With in
Ġre write
av ern
ĠH amm
ĠGit Hub
Ġfor k
G al
00 7
Op acity
ro utes
ĠGener ation
18 8
r ss
col lections
Ġ} }</
Ġl as
D ump
++ ]
") ),
ĠG ang
Ġbelong ed
Ġelim inate
x it
Ġcorn ers
p ane
con cept
Ġer ected
ĠLuc as
re b
Ġthink s
con sum
ĠK il
ĠHar old
Ġim perial
ĠDis able
ĉ ĠĠĠĠĠĠĠĠĠ
ĠTh anks
In ventory
ĠCour se
Ġvel ocities
g al
ĠR us
Ġref id
ĠG ust
imb abwe
Ġdist ant
cos ystem
ĠWall ace
Ġn aming
ĠUn ity
illi ant
ĠS ang
ll vm
ĠArgent ine
Ġbelief s
ĠMar io
ACT IVE
ĠCl iff
] ],
Ġdraft ed
SUP PORTED
in ced
Exception s
S IG
c ott
nol imits
ĠA my
Ġport al
Byte Buffer
P et
ĠK umar
18 54
im an
Ġ' *
ac ular
Spec ify
T s
R ivers
le ad
Ġsup ern
min i
ĠAn cient
Å ¼
vent ions
Ġtrans mitted
Ġco at
mall oc
Tim eline
ĠSpec ifies
Ġun ions
}{ {\
ĠPro blem
Det ection
l hs
Ġ} $
Ġart work
Ġtransl ations
re ction
Ġge omet
Com puter
Ġmem ories
O Auth
ĠN y
1234 567
sk a
ĠLay er
Con struction
Ġserial ize
Ġcon jecture
"> )</
C ENTER
av g
ĠL ov
As String
\ }_{
dev ices
Con cept
ĠPar alym
ĠAd min
Ġed itors
parent s
ĠMathem atics
ro ach
To o
ij k
C U
Ġem issions
U ng
set Property
R ele
' ",
) }$,
N Y
Ġun successful
Con serv
Play ing
s amp
15 9
prov ided
Ġm amm
Ġth rew
Di agram
Ġaccommod ate
Ġstr len
Ġadministr ator
à¥ į
es igner
Ġto mb
mock ito
ĠDel aware
g rey
it zer
ĠArt ists
Ġbu ying
ĠAgr iculture
DE CL
= -\
log s
Ġdiff ers
>> >
sat isf
Ġdr ift
single ton
ĠDe ut
=-=- =-=-
spir acy
Ġminim ize
om ar
ĠInt el
Ġnow rap
ĠHen ri
18 55
FUN C
Heading Color
B uffers
ic as
autore f
>: <
ĠC B
l if
IN TEGER
ĠStr ateg
W W
up pet
ble ms
Ġrec ursive
j vm
/* .
C ategories
ĠPlan et
Ġor n
overs et
S ensor
K B
ĠL isa
Ġ? ?
Ġc ock
Ġj ew
ĠLa ura
ĠF u
Ġhop ing
cr im
Ġn umpy
ĠS ex
r p
table block
Ġ<!-- [
prom pt
ĠLine ar
filter ed
rec ip
account s
. #
Ġb read
ãģ Ĺãģ
ĠCit iz
> }
"> {{
Ġcontext s
Ġuniqu ely
Di agnostic
Contin ue
ĠL if
Und efined
is ible
break ing
t lement
ĠSo on
ĠB uilt
ĠNav igation
ĠSeb ast
Ġthe sis
ing en
Ġl ip
Ġf ed
m un
el if
LA ST
Ġreloc ated
f link
ĠP av
Ġident ifies
ĠConst ants
ĠR out
Ġexc av
Ġcult ures
ĠR ele
View port
/ ,
Ġshel ter
Ġex terior
Ġem igrants
Ġg ains
ab olic
Ġr ab
ĠUn fortunately
ĠB eth
Cho ose
Ġf ires
ĠÐ °
Ġphenomen a
ĠR av
Ġob sc
os exual
B uck
Ġc attle
Ġaff air
ĠArmen ian
ind ed
ĠIn n
Event Type
ital ic
Ġprodu ctions
Ġdecre ased
thumb nail
I ce
M u
d istrict
Ġre public
ĠMet al
ĠVen ice
Ġbond s
> ".
s elling
ad j
CUR RENT
Ġ= =====
ay er
ĠN HS
ri o
im ited
Ġch ronic
ä¸ º
ĠAng lo
Ġthr iller
ĠZh ang
D evelopment
ĠLi u
? ,
Ġpop up
L azy
Ġinternational ly
ĠF eed
at an
Ġbatt les
B a
t ou
Ġpack ets
ĠFil ms
Ġp ace
ĠF unc
Ex plicit
Ġtrad itionally
Track ing
Can ada
Ġget Name
6 55
Pl ain
Ġtranslate X
Def initions
Â ©
it on
Col lege
ĠÅ ł
ll a
s ix
Ġt c
> ?
w yn
Ġwealth y
Ġpress ed
Right arrow
def n
ĠÃ ģ
Ġexam ination
bol ic
ind uced
ĠP ain
Ġle ase
ĠAl ger
ĠB ind
IT NESS
Ġ iv
ĠR AF
parse Int
sw ick
Ð° Ðº
ĠF oster
compar ison
Ġselect ing
e ah
ĠB ald
ĠE mb
Ġle agues
Ġintrodu ces
Ġtool tip
N an
18 52
Ġcop per
ad vert
ch r
Ġjust ify
de ployment
bat im
HEL P
re pos
ps y
Bind ings
Ġwarr ant
ĠR iemann
ĠLeon ard
m and
æ Į
Ġneighbour hood
Ġconstitution al
it ize
ĠB ak
O G
im on
ĠPh ysical
q view
ĠCo hen
Ġcompens ation
Ġplay off
Ġcent res
ĠEx tract
level s
Ġvulner able
comp atibility
aaaa aaaa
30 2
as ures
ĠSV G
pr us
sk in
og o
ĠOr d
Ġscreen ing
Ġdemonstr ates
ĠRe ed
LO T
8 75
f illed
p es
Ind ent
In side
ĠCon sequently
ĠS ig
un credited
Ġinn oc
/ ',
Propag ation
MA IL
E le
Ġburn ed
ex change
18 56
Aggreg ate
H istogram
ĠT X
ãģ «
Ġvo ices
P rem
atche wan
P ak
Ġ@ {
Ġr ice
se ver
Ġtr aces
Ġcont rolling
Ġl n
ve ill
Ġdrum mer
ĠHe in
Ġt ournaments
ĠE state
Ġper ceived
Ġdro ve
ĠTr ain
cal culate
Ad apt
ĠPo inter
Ġsub sets
ĠM ills
aut om
Ġab c
Ġcr yst
%%%%%%%% %%%%%%%%
CK S
t ension
Ġby pass
ĠCh anges
ĠSc ar
Ass ume
ĠE ld
ak ov
A U
ĠT CP
ĠUn known
Ġce ased
Ġmain tains
isb ane
big cup
Ø ´
er ious
unc an
Property Name
Ġem er
å ¹
Ġtable Name
inal ity
Ġtraject ories
\ ">
ĠN amed
ĠJul ian
Ġtack le
P ag
å Ģ
ist le
00 4
Ġsub section
iz ar
St roke
amb ers
Ġcontin uity
Pl ane
Ġclass ifier
source Line
ĠAg reement
| =
ĠNew castle
Ġdr ain
Ġcollect ing
ĠÐ½ Ðµ
eg ov
S to
Ġun ve
Ir ish
end ent
ĠD anny
Ġy ard
Ġi Phone
Ġkit chen
Extract or
ff ield
ĠGabri el
Ġc oc
i our
ass ignment
ĠY ale
R o
Ġfall en
Ġuncert ain
Ġsimpl ified
Ġas p
M ah
ro e
us hes
}} =\
ink ing
Ġperturb ations
ĠY ellow
ĠWell ington
ĠBel arus
Ġboot strap
Ġpro l
Ġt abs
ĠC V
ĠB il
18 7
> {{
Ġroll ing
Death s
2 16
it ars
D am
h skip
Ġf ut
ĠCons ult
ER O
e o
Ġb atter
less ly
M il
S u
we ets
Com position
Sec ure
ur as
ĠN ancy
C AR
ĠC LI
At A
Ġm ad
Ġfight ers
Ġcollect or
Ġdescend ants
Ġmar ry
æį ®
17 6
Ġelev ated
ĠBr isbane
bo at
ĠGreg ory
m essaging
v oice
da o
Ġentreprene ur
Bound ing
ĠCh apel
ĠGL sizei
acc um
sh ops
ĠPar ser
ft p
D utch
ĠBos nia
ĠM ine
ĠD aw
ele t
ul ers
Ġpitch er
n at
. },
Red uce
itud inal
ĠU int
Ġbright ness
: .
ĠK in
Start Time
A cknowledg
Ġor chestr
AN Y
ph ones
Ġfem in
ig g
ere k
ĠV ER
Ġancest or
Ġin complete
Ġprov isions
Call s
Ġattack ing
Ġmeaning ful
Ġinteract ing
Object Type
Ġsc iences
am y
Ġdec ent
ph on
ĠĠĠĠĠĠĠĠĠĠĠĠĠĠĠĠĠĠĠĠĠĠĠĠĠĠĠĠĠĠĠĠ ĠĠĠĠĠĠĠĠĠĠĠĠĠĠĠĠĠ
ĠHis panic
icy cle
comple tion
Not ice
er ase
C ycle
ĠShang hai
Render ing
ap id
Ġpick s
Ġinterpol ation
contain ing
Ġcontr ary
if ice
DD IR
Ġaccur ately
clean up
ĠRe ader
ĠMan uel
co ordinate
w ifi
Tool tip
Ġvalid ator
utr ition
sup p
Ġalleged ly
Ġstand ings
Ġt une
( _.
ĠEr nest
ur istic
Ġ' ;
F ort
I ts
ĠPed ro
hl js
\ ",
er i
In herited
ĠE mber
Ġprogram mes
Ġt ap
h ooks
ĠJ oin
Ġharm on
he nd
Ġ================================================================= ========
m otion
Ġcheck point
Ġmot ivated
Ġexceed s
In strument
Ġfre ed
PE G
Ġthrow ing
Ġaut ore
S ibling
tr unc
ĠAb raham
ĠMet adata
Ġlink ing
bound ary
Ġre called
ĠW ag
ĠR ena
Ġcol ours
ĠDi agnostic
L ANG
ĠE lection
ĠStr ong
ĠFr anÃ§
Ġre interpret
P ot
Ġpart itions
Ġimport s
h in
Ġfif teen
Ġearthqu ake
Ġf lip
Ġ" __
Ġ[ `
Ð° ÑĢ
Ġg ymn
18 5
vert ices
ĠS ort
ĠID s
Ï ī
ĠW riter
sh ore
ern ess
udd y
Ġalter ed
Rec all
erm al
ĠPerson al
ĠM otion
Fl ash
h agen
ĠPer iod
Ġad mit
Ġbel t
Ġweak ly
Quant ity
- "
Ġdirect ories
Ġtour ing
R oad
Ġplay wright
Ġint ens
Ġsqu ares
veill ance
. (\
n ell
Ġun changed
Ch annels
Ġequal To
! )
Ġdraw s
pot ential
l od
Ġconv inced
conn ector
ĠDir ac
ap pe
Ġconc aten
N ick
land o
Ġless ons
unic ode
m ile
ĠC K
Enc ryption
b is
f urt
art a
Analy zer
B s
Ġinter change
end ors
ĠAd ult
Ġ Ñĥ
d ac
ĠF ri
ĠH il
sen al
st ed
is olate
Un supported
Ġbo ards
asm ine
ĠE M
Ġun clear
alt ies
ĠH alf
Ġph p
Con trib
Ã ¯
_ ),
cell s
Ġoverw hel
sp ired
Ġpoly mer
Ġen compass
prot ect
Ġalleg ations
itte es
Get s
Ap ple
zh ou
Ġtim eline
ĠCh ang
Ġt weet
ĠÃ Ĺ
Ġsust ained
MAG ES
Ġback ed
n v
ĠL akes
Out er
Ġserial izer
Ġconsider ably
R ing
ij a
ĠFunction s
ĠR osen
Ġbank rupt
ĠCon v
Ġgram mar
Ġl ig
Ġcou plings
ĠTas man
ess ors
az ar
Int egration
Ġal lies
ell ers
Ġver b
un til
Ġfarm ing
Ġr t
Ġpol ling
Ġdifferent ly
at ched
ĠS ou
ach ers
Analy tics
ĠEx port
[ ^
ĠF BI
é Ĺ
Ġ" ../
23 4
J av
ĠA bs
ĠStat ement
Ġb orough
Ġn ep
18 47
ugg ed
Ġdrop down
SPH INX
superv ised
ĠT odd
CH ANT
ĠS ey
com pressed
Mod ern
ĠNot ification
r ice
BO X
Ġoff ense
00 000
Prot ected
Ġaccept ance
Ġsus pected
B inder
V ir
sp arse
Ġaccount ing
Ġexha ust
ĠB av
am as
b anner
Ġdead line
Subs criber
0 22
Ġh unt
Ġb uses
i NdEx
Â ®
leq slant
uzz y
' $.
a qu
Char Field
olec ular
] []{
Ġl ung
ĠB io
Pol ygon
ron es
ĠCroat ian
ĠTom my
Ġb a
Ġh o
ĠHar bor
Ġd ish
ĠS part
um ann
ĠG az
Ġclos es
Ġa ster
ĠS ter
Spec ification
Result Set
ĠC ome
ĠE S
Ġact ivate
sourceLine No
à¤ °
Ġlat ent
Ġ' ');
ĠF antasy
ĠCon str
Ġan omal
ĠQu ick
rele ases
Ġm eter
ĠCom ments
ĠHol mes
ten ess
Mult ip
Doc uments
Ġcomfort able
M otion
Q Name
k el
not in
ĠCommunic ation
VER TEX
l azy
er ance
Ġprefer ences
err no
ik er
US H
Ġcomment ary
Build ing
Ġm eg
ĠBe ing
ĠPUR POSE
MLE lement
em b
Ġstd out
M AT
Char acters
Ġadv is
ĠColumb us
ĠSh are
bro ok
ĠRay mond
names e
Ġlearn s
h im
Ġtro ub
ĠV eter
Ġget ter
Ġa est
est imate
Ġsem if
ĠOpen SSL
v v
ra ises
wrap ped
="# !"
Ġv in
ĠCh oice
Ġc inem
Ġh over
Ġte eth
\, .
q s
Ind ia
Sim ilarly
ĠD ame
Lay ers
Ġcrick eter
Ġdesign ation
ĠMont gomery
Ġb ishops
ĠA GN
be it
ro ut
Ġsk etch
Ġmathem atic
Ġrelax ation
r ases
v k
v ation
Ġexec uting
D ie
Ġterm inated
ON ENT
ĉĉ ĠĠĠĠĠĠĠ
focus ed
ĠS election
---------------------------------------------------------------- ----------
term inal
Ġch iral
r te
Config s
Ġn od
Ġvol leyball
Ġaud iences
Ġconcentr ated
act ing
Ġfollow ers
stat istics
18 49
Ġsp ir
H ASH
c ms
ĠAgain st
BUIL DDIR
l w
enc rypted
Ġtour ist
A ware
ĠK or
roup ed
ĠFe atures
ĠNorth west
ĠF T
ĠUs ers
C rypt
Ġdeterm inistic
ject ive
ĠCamp us
ag le
op eng
Ġl od
ĠPh arm
Ġsubstant ially
J MS
18 9
Ġenter prise
ĠImmutable List
ĠTh ank
ish i
Res erved
illi an
Ġswe ep
ĠA CT
hand ed
scal atest
D IV
st re
Ġwithd rew
get All
Ġorient ed
Foreign Key
ĠE R
Ġv endor
tim ing
Ġmer ch
d atas
ĠLib erty
Ġastr onom
West ern
ĠJ ak
Ġsub urb
AUT O
Ġtherm od
Ġcl othes
Ġsong writer
Ġdro ps
P referred
b org
ol y
Ġsh ader
ĠWars aw
Ġexcit ation
| _{\
Ġstri king
Ġf ate
Ġc oding
ĠQue stion
Index Of
ĠPro to
Ġnon zero
Ġg amma
17 2
PRO CESS
illa ume
Ġdistinct ive
ip v
Ġep id
Ġw orn
form atter
Ġt ent
ĠK as
ĠCond ition
' )$
Ġsepar ator
produ cer
Amer ica
Ġup stream
Ġre plication
Ġsign atures
CA ST
ĠPhilosoph y
x t
in as
Î ¬
~~~~~~~~ ~~~~~~~~
ĠL ac
ĠAr med
l ov
ĠE T
ĠB lo
At om
xx x
Mov ie
ĠR ac
Ġair line
Ġsearch Box
S ar
Ġp ink
ĠM umbai
Ġsw ing
Ġline arly
ĠAl lied
i ast
Ġfit ness
pon t
ott ingham
Tr ust
c orner
f req
Ġpotential s
k al
ĠT ul
sp rint
tes y
ĠProp Types
Ġp unct
ĠCom edy
Ġs word
ĠF at
Ġper f
ĠT uple
Ġ' &
map red
ĠN om
p q
iter ation
dec imal
w ent
IL S
Ġprom ises
Ġcer emon
SNAP SHOT
Ġtoler ance
ĠPr incipal
or bit
ĠO B
ĠJ O
ĠDo ctrine
Ġv tk
Ġ' __
fe at
Ġquarter back
Ġk inem
ĠDr iver
Co ordinate
"> .</
sh rink
st ead
ond e
ĉĉĉĉĉĉĉĉ ĉĉĉĉĉ
ĠCustom er
H i
ĠR achel
Fl at
ĠPet e
ĠLat ino
ĠT ouch
Ġres ume
sand box
= ${
Ġexception al
Ġclip board
Rest ore
il ian
iz a
ĠShe ll
Ġnick name
Ġadvant ages
40 3
Ġtreat y
Ð¸ Ñģ
Ġpl ates
Ġconform al
Ġens uring
ĠAmb assador
18 53
g ary
ç ī
ĠR af
is abs
ĠEx cell
Ġvan ishes
Ġnot ifications
2 33
ap a
dec oder
Ġquot ient
ĠC ec
aw i
Ġres erves
ib a
ĠSh ir
omb re
RA W
ĠBenn ett
ark er
Ġav iation
S leep
ĠM aps
Ġun em
ET A
Ġsuggest ions
30 3
{ };
l is
st ellar
ĠDiv is
Ġmark up
ĠUg anda
C ities
J NI
ĉĉĉ Ġ
Ġrecru it
5 50
pare n
B all
ĠIs aac
Ġdown stream
qual ified
) !
Con sum
er ie
ator ies
Sim ilar
Ġ"/ "
Dan iel
B on
ĠD T
Ġload s
, &
Ġthere after
ĠPalest ine
ĠR F
fl are
Ġmap per
bor o
Ġamplit udes
ĠC inema
Key Value
ĠInst agram
ĠL oss
[ @
ĠIn stitution
ĠHit ler
Ext ent
ĠPass word
Dig est
c ro
ĠP T
Ġfilm ing
Ge org
ĠS weet
Ġoffset s
S ynchron
ĠStr ategy
Rep orter
ĠRem ember
ĠSp encer
ĠPer th
T err
Ġs hed
Â ½
Ġreason ing
Ġlo ose
resize box
Ġun icode
Ġstruct ured
eck o
ĠScot ia
Proc Address
as io
ab ar
20 9
ĠH IV
ĠH AVE
prov iders
Object Meta
Ġth ir
ãĤ ¤
ĠPal mer
Ġv a
oy age
hom epage
. }\
ec a
form al
Ġk not
Gr ant
real m
ĠGrand e
Ġc ant
ĠR FC
control led
Lock ed
ĠAv ailable
YY YY
**************** ********
Ġt oured
at ta
Ġtr ait
Ġrele asing
ĠSTAT US
Ġut ter
Ġimag inary
ep per
ĠSch w
ĠDev on
Ġco res
... ]
Ġen velope
with in
Cart esian
16 1
Ġmark ers
ÑĢ Ñĥ
Ġeditor ial
: ]
rec ation
ĠPlay Station
Ġresign ation
h ir
ĠB ened
, ~
/ ${
Ġinvestig ations
Ġburn ing
ing o
ĠK ids
`` .
Dim ensions
Ġfraction al
ĠT ong
ĠT ags
Ġem itted
Instance State
Ġleg islature
j ud
ĠG y
top ology
Ġ? ></
ĠPaul o
ĠA pol
ym ph
Ġdi et
Ġachiev ement
Ġ' :
Ġn m
Ġel ite
ĠDis c
lev ant
Ġpsych ological
ĠAr r
Ġfle w
k v
Ġmon astery
Ġm g
Ġdef ender
Ġcontrib utors
b urst
root Scope
ill on
ĠT it
ull ah
ĠJo an
cel ld
ĠGL ubyte
Ġ ë
ac ies
ss f
18 51
IF ICATION
Ġir regular
Ġd os
design ated
Ġd ancing
sub menu
Ġor al
En ergy
Ġch apters
Ġ[ _
Ġc ad
Ġst reak
uss ex
Ġg aming
ĠRev ision
DA Y
PO M
W elcome
ĠS old
Ġtravel led
ab ort
L iter
r ise
Ġvis bl
files ystem
Hen ry
man uel
ĠPar ad
ĠQue ue
Item Id
Ġmus cle
ĠSequ ence
R D
IC ULAR
con ver
ĠSo ft
pe st
ĠC UR
ĠReyn olds
Ġult imate
z ens
LAB EL
ĠOff set
Lou is
Ġsem antics
ĠTre k
CHANT ABILITY
vel t
Arch itecture
Writ ers
(" ");
Ġnucle us
F OS
are l
Ġtim ber
ĠB S
Ġmem o
Ġfore ver
} ~\
ĠS urre
IM ARY
Ġexhib itions
ĠS oci
ĠB ent
~~ ~
DO C
Ġoptim ize
Ġf t
ĠV K
ĠIMP LIED
k now
ĠT S
ĠA ur
Ġflow er
ĠEm ma
ĠS of
cess ion
ĠC ord
ĠE ight
Ġsub tract
ĠMus ical
Ġr iders
var pi
ĠChe ster
ig i
re newcommand
ĠBrun swick
Ġb alls
w av
orph ic
Qual ified
ĠP and
Sing les
Ġlob by
Ġel dest
ours es
PRE C
Ġb b
Ġen force
Is Valid
un checked
Ġgard ens
Ġb eneath
Ġqu otes
:: __
ĠV ision
Ġinv ocation
ĠFa ith
ou x
Ġy esterday
t u
RE SOURCE
Ġper pet
Ġche ap
callback s
get Resource
ĠRetri eved
Ġdeform ation
ĠBat man
Ġb uff
Ġsh aped
Ġsh ield
bl ur
ĠX I
Ġs overe
Ġdis joint
ess el
ĠW inn
K HR
celld esigner
m pi
ĠL it
aw ks
IP S
ĠComp are
air y
Ġremember ed
r in
Ġtrans ient
Assert ion
ĠE cuador
Ġrefuge es
lev ard
Ġst uck
d ie
====== =
Ind ividual
um m
ĠP ul
Ġr b
Ġcan al
ĠTechn ologies
Comm unes
Ġsim pler
Ġd ans
Ġb er
ĠĠĠĠĠĠĠĠĠĠĠĠĠĠĠĠ ĠĠĠĠĠĠĠĠĊ
Pr inter
ĠHer ald
Ġ$ ('
PI X
ĠFour th
O LEAN
cou pon
Ġal arm
Ġle an
Ġmist ake
Ġf Ã¼r
Ġn ose
_{ {
Ġaccompl ished
w ear
ĠC ou
Ġfl our
num bers
Ġcou p
Ġh ills
Int Ptr
Ġhonor ary
Ġhard er
| _
æĪ Ĳ
Ð Ĵ
or ian
; ",
Ġem peror
n ut
WI SE
iev e
ĠMin i
ĠðŁ ĳ
ĠS ync
Ġfriend ship
st udio
Ġbro ker
ĠMethod ist
à ´
Ġc emetery
ĠS ic
ĠN ine
ĠComp etition
O GLE
te in
t oday
ĠOper ator
Ġa thlete
è §
Ġdiplom atic
pop over
ur bs
ĠProtest ant
V L
ĠD eveloper
ĠKer ala
R F
Ġ\ #
ĠG lass
Ġindu ces
Ġpoor ly
P F
f u
um ble
ific ant
ĠTo o
J on
ath y
ĠMer ge
Need ed
b uffers
æ Ģ
Ġw ore
ĠC rit
ĠN UM
Ġbul let
F requency
Ġvolunte er
SCHE MA
ĠSp ot
st a
ĠS plit
ir ate
G erm
P ick
WA IT
be zier
c ards
ĠH O
Ðµ Ð»
ĠLet ter
ĠWood s
ĠS ocket
ĠBy tes
ol in
ĠMult iple
ke es
Ġint u
Vertex Attrib
Ġinc umbent
iline ar
CCCC FF
Ġre nown
EN UM
all Errs
ĠL ists
Ġle ak
Ġtrav els
6 50
Ġsett lers
OB J
ĠWild life
jav adoc
Ġdispl acement
Ġpsych ology
@ {}
is cher
Ġread ily
Ġscatter ed
ivari ate
Ġconn ector
Ġposs ibilities
Ġar ises
å ¸
ĠW IN
Ġrot ational
chrom ium
Ġt ex
found er
Th anks
Num bers
Ġfeas ible
K ER
ott ing
ĠMar x
Min or
Ġtrail er
Ġvirt ually
U IT
}$ &
PR I
ple d
Stream s
register ed
Full Name
DEF INE
M ixed
17 4
Ã© g
Ġs f
Ġcy clic
atin um
ig uous
Ġdesign ers
ĠCard inals
Dev ices
' ><
g pu
Th rift
null able
CLA RE
Ġlocal ization
sc apes
ĠPr ague
Ġ" #{
represent ation
w ed
Ġd ock
d ll
EX TERN
Manager Service
Ð¾ Ð½
Cor rect
Ġcon ce
ĠEss ex
G ap
sub stack
Ġdo zen
ĠCel tic
g id
T icket
Ġconfirm ation
è¡ Į
Bl ank
look ing
ĠAd miral
libr aries
64 0
bit map
Ġgrad es
l bl
Ġachiev ing
Ġb ol
ath a
Ġtransform s
Ġrot ating
comple ted
ĠM ask
Ġconduct ing
Ġelli ptic
}^ +
ĠTr ace
ĠRev ival
WE B
L es
S pect
S olution
Ġl oud
ard i
ĠPalest inian
datab ind
ĠI NS
ĠK re
cl over
Ġattr action
Ġsup pressed
m isc
Ġc avity
ĠG and
Ġag gressive
23 5
ethe less
Ġcontrib utor
up grade
Ġm oll
ĠRevolution ary
er ver
=' #
Ġprevent ed
S PI
ĠMax imum
ĠC ould
light s
Ġe gg
Ġsl ider
Ñ į
S on
o led
Ġ ist
ng th
Ġthe ad
Q String
ĠĠĠĠĠĠĠĠĠĠĠĠĠĠĠĠĠĠĠĠĠĠĠĠĠĠĠĠĠĠĠĠ ĠĠĠĠĠĠĠĠĠĠĠĠĠĠĠĠĠĠ
} ">
00 8
Big l
serial izer
( ::
Ġwh itespace
model Version
ÅĤ aw
S izes
str action
ĠRh ode
ĠC amera
print s
Ġchalleng ed
Ġtra its
ĠF lying
P ager
v dots
(' _
Ġconnect ivity
ro bot
A cl
Ġ" ]
Ġhelp ers
2 15
D ummy
ĠP ool
Sp y
Ġguarant ees
ĠAh med
hab ilit
ef orm
con j
i ago
Ġgu ards
H over
L int
ĠPark s
Ġbehavi ors
ĠD ise
draw er
ĠVAL UE
Ġhous ed
roll ment
Ġcy ber
Ġenumer able
Inter action
ĠCoun ter
ĠS afe
Ġlist ings
24 5
Ġdest ruct
mat ched
uis ine
ĠPRO VID
ĠCON TRACT
A w
H am
Ġj oy
can onical
æ³ ķ
Ġdel ight
× ľ
Ġn inet
ĠW ire
ar x
Ï Ĩ
Ġre plica
OP TS
ĠKn ights
Ġrock et
il ateral
G D
ĠW arriors
eg ree
Ġtri ps
Ġspecial ist
des erialize
ĠBey ond
ĠTh an
#### #
T abs
Ġc atal
ic ast
E ducational
Ġr uler
^* _
Ġtensor flow
H ouses
ĠK ra
45 6
associ ated
lish ments
ĠTrans it
Ġmiss ile
Ġwhere in
Ġadvoc ate
ĠCh an
Ġs ou
Ġn ic
G uest
O l
Ġglyph icon
20 7
ĠSw an
åĲ į
ĠBulg arian
A wait
ĉĉ ĠĠ
so ap
ĠCon stituency
Ġelect romagnetic
Ġgather ing
z el
ĠC ork
Ġmed ic
Group Id
im ap
Ġdec ays
Sp acing
ĠTri ple
ĠJ ung
Ġs ung
Ex ports
Im ports
Call ing
ĠB esides
ĠSh in
Ġjournal ism
cl ub
Ġep ic
ĠB atch
Ġrem ix
ĠAl ways
Ġobject ives
ĠMER CHANTABILITY
Ġin vert
ĠTest ing
Ġan ch
Tax onomy
Ã °
ĠJ in
Ġcontrad ict
M and
c in
ĠM end
St and
Ġmolec ule
ĠLead ership
3 80
Ġs ake
Ġdis band
Ġso ap
Ġque en
28 8
Ġb ins
em bourg
Ġwarn ed
ber y
Ġdef ended
ass igned
ĠD in
E s
40 5
contains Key
Ġder ivation
S ING
18 2
Pol it
ĠHamb urg
Y M
null ptr
Ġbank ing
FORE ACH
ĠI BM
Ġsur f
ĠHand ler
ĠAUT H
ĠInspect or
Ġ' ../../
bas is
CT RL
Ġhost name
ĠWh ich
L ee
Ġbatt alion
mark down
F ault
fo od
Ġrecommend ation
Ġinternal ly
Inter ceptor
Ġident ities
bul k
Jose ph
I reland
Ġst ret
**** *
Mart in
Ġrom ance
}) _{
Ġam id
ĠS leep
Ġview port
Ġp as
ĠV ery
Ġembedd ings
Ġd ying
Ġv ault
Ġen rolled
f name
ah u
ÑĢ Ð°
Eval uation
all a
Ġpre val
proport ion
Ġhistor ically
Ġp atri
ĠS ame
19 1
Ġr ape
Res pons
16 4
Ġfre ely
St ock
IG H
Ap ache
Ġmut ation
moz illa
ĠIda ho
ann ers
typ ed
Ġk iss
Ġsome how
Ġhar ass
ĠD ynam
Set ter
26 3
Ġexp ired
ĠC oul
Register ed
av ian
ener ated
Ġaut onomous
ĠAm endment
ĠA j
Ġintegr ate
- }
Ġprox imity
Access ibility
String Utils
Ġund ers
Ġnav igate
Ġhuman ity
get Content
Ġab oard
Ġre forms
Ġp ause
Ġim pression
ĠJ et
Ġexpl oring
iz za
ST AR
00 6
ose velt
ĠX X
He art
Ġexpert ise
16 2
Ġbar rel
Ġa er
Ðµ Ð¼
Ġsm oke
ĠCon sumer
ĠNot able
ĠConfeder ate
ĠN umer
bootstrap cdn
Ġl ac
ãĤ ¯
ĠTun is
Ġf ifty
J ean
ĠOak land
) |\
Ġc trl
' $,
Ġche ss
Fiction al
S IL
Ġbit map
ĠJenn ifer
Ung rouped
Ġfor ty
') \
ĠV ec
ĠRe ich
Ġvari ability
text normal
}} )$
Dig ital
Ġb ell
ĠDec ision
Ġassert NotNull
Ġcorrect ed
or r
ĠR EQ
Writ ten
List Item
Ġcount ed
lip so
Ġutil ized
Ġacknowled ged
al ib
e asy
h on
Ġl akes
17 3
st retch
Camp aign
C atch
con tr
Up grade
= */
Con current
an imated
Start up
y ang
Des ktop
f amilies
cor relation
F ish
Ġf uck
ĠS eg
Ġmem brane
dig it
>: ][<
ĠSE LECT
>? [<
ENT IAL
Ġu id
Ġp ounds
Ġre build
ĠIn iti
Ġ$ -$
align ment
Sc oped
A x
h azelcast
(" {
Un ary
PR INT
g ue
ĠTy ler
ĠFIX ME
Ġ% (
SQL ite
Ġcart oon
Ġnumer ically
å Ŀ
anc a
Ġmode led
ĠEag le
ol oad
ĠTh r
Ġball ot
I Enumerable
il iation
Ġnucle i
S oviet
ĠG ill
Ġam et
ĠF olk
Ġsub stance
it ic
ĠS ources
ĠMon o
Am ong
Ġb unch
Ġcl azz
Ġdev ast
ap or
ĠW ey
I ss
ĠA G
Ġperman ently
IP v
ĠS ed
IL D
ĠEm ily
ern er
un set
ĠMon itor
ĠBrook s
ĠWe ather
Ð¾ Ñģ
co ord
na issance
re name
Ġpil ots
Ġconsum ed
' }\
P t
åĬ ł
Ġbr ut
Ġ{ {\
17 9
Î Ń
ĠT all
li um
17 8
Ġun a
G ram
Ġ ub
th in
pl aces
Ġnom inal
ĠEngine ers
ĠH arm
ĠRh odes
Ġex iting
x b
Ġtang ent
t ier
Ġh ull
Ġtorn ado
RO WS
Ġparticip ant
p ics
ĠJul ia
Pos itions
Ġphys ic
QU ERY
W arn
Ġcompar isons
Ð ŀ
Ġc iting
Value Type
Ġpat ches
Ġback wards
L ost
Ġop inions
Ġsear ches
ĠR GB
Inter pol
Ġsc andal
ĠTrans fer
ĠPriv acy
17 7
Ġa cknowledge
r ison
ĠP ink
Ġpr ince
= &#
ĠH ur
Ch ris
Ġrep lied
Ġarg ues
ĠVol unte
st ars
ad ier
ĠPro xy
Ġh iding
//////// ////
Ġgl u
ĠPART ICULAR
od ia
M ATCH
ĠCab inet
if a
egov ina
3 40
P IN
the se
Ġs iblings
av o
ĠM AC
ĠMarc us
harm onic
R IDE
Ġes lint
ĠChel sea
D U
x ilinx
it ian
Ġproof s
d ictionary
ersh ire
Ġnovel ist
L atest
h art
n or
Ġcounter part
ĠSask atchewan
ST OP
ĠCert ificate
Ġh alt
ĠIllegal StateException
Ġ$ [\
cri bers
ĠCy prus
'] :
æĸ °
ĠO wen
render ing
------------ ---
W all
ç ¤
¼ </
Ġp d
Ġâ ĪĴ
d ed
LE X
Ġperm utation
ĠFried rich
m ans
v iol
od ic
25 4
IB LE
ĠM ade
con c
Ġuser Id
Ġjoint ly
ä½ ¿
v iv
ow l
http Request
Ġachiev ements
n h
Ġwor ry
H op
Que st
Ġpush ing
Ġformul as
Ġimpact s
isc opal
}^{ (\
ĠðŁĳ ¼</
" })
I CT
target s
Ġdiagn osis
e pt
ĠIn sur
ĠCor p
yl an
alloc ator
quant um
) ")
ĠM UST
ĠA CTION
im ony
S parse
Coll ision
i ya
Descriptor Proto
18 46
Trans late
B ootstrap
Ġdem ocratic
B UT
pack ed
È Ľ
full comment
Sp ot
ĠEu clidean
R ugby
ĠP aint
Single ton
Ġz eros
lic al
ĠCal culate
ĠB ool
ats u
c ot
ĠPr ison
chi ef
Ġvic inity
ch ing
Ġch ore
)} _{\
Ġlic enses
ut ility
che v
exec utions
Ġspeed s
unders et
' -
] /
Ġp ioneer
St ory
Ġun s
ĠG ael
by ter
Dep artment
} ):
Ġres umed
W ashington
ĠA er
ĠOriginal ly
ĠU ntil
Ġanth rop
n ai
ĠEll is
ĠM W
ĠB elf
Adv anced
ac i
effect s
u ario
up id
Ġk iller
cont rollers
æĸ ¹
v skip
ĠRetri eve
ĠMal ay
ĠT IME
Cap abilities
key frames
Ġpract ition
Ã ²
ch air
ĠR aid
Element Type
Ġsim ulate
O U
m ob
Ġin clusive
ĠL iv
Ġsub marine
Gre ater
Ġview er
song writer
oc ene
~ (
M ARK
pt a
Ġalt itude
it he
Ġded uce
Ġmk dir
Ġbacter ia
ĠSpe aker
Ġl oves
ĠJ unction
ĠA ires
)= (
Bul k
k ers
AT FORM
Ġext inction
ĠPal m
________ ________
al ong
Ġtyp ed
Ġre load
Ġsav ings
ĠS PE
Ġenc rypt
L u
Ġc ele
22 6
inst alled
umber land
rid or
ä ¾
ar v
ĠR C
Mon o
DL L
ĠM T
est one
Ġsuper conduct
Ġbal anced
ĠFellow ship
Big r
open hagen
å ±
P ing
al an
ĠM idd
D uplicate
(" _
ash ing
D Y
Ġto ll
Ġabsor bed
ast ics
Iter able
C LE
et ches
Ġsport ing
Ġdisestab lishments
Ġmidfield er
N u
ST D
ple ctic
Ġpoll ution
Ġan ce
ore l
Ġbefore Each
ĠJer emy
ol ation
Face book
De ploy
ject ed
Ġag enda
ĠBro s
({ '
V iol
Ġwrit ings
Ġcond ens
_{ [
Ġdes ktop
Ġdis pers
Ġb is
ĠB ootstrap
ĠB ib
Ġe cosystem
Ġp g
un ting
Ġsum s
unt ary
E F
Ġde ce
Decl ared
Ġt il
;\ ;
Ġe leg
Ġmethod ology
Public ations
em o
em ption
up al
= (\
J oint
ĠE ve
Ġdemand ed
ĠT ools
TRAN S
A h
ra pe
ĠLeg ion
Ġn ights
66 6
Pers istence
Ġexecut ives
act ivated
ĠQ CD
Ġobserv ables
Ġh oped
ĠVlad imir
os opher
ast ing
Ġreg ulatory
Ph p
ux er
ak o
ĠPh ase
soft ware
ĠHar per
} ],
ĠS ussex
and ro
Ġdes per
Comp act
Ø ²
author ization
rog ate
stan bul
Ġpray er
p ym
ĠCon figure
') ),
Ġbi ology
ĠESP N
Ġexport ed
"> =</
Ġver se
ĠStock holm
ĠV il
Ġen orm
ape st
Ġ_ ("
Ġad option
path y
}) -
her ence
Ġsl ots
ĠR TC
sc atter
w r
transl ated
Ġf ung
Ġwork shop
Generated Message
è¡ ¨
ĠJama ica
è¦ ģ
Ġret reat
ĠAuth ors
H ours
Ġpredominant ly
any on
SR C
Ġun con
Ġins pection
Gu ide
c ats
"/> .
K V
opt imal
ĠIn side
Ex pressions
17 1
ack ing
18 43
AD ER
Ġincorpor ate
year s
ĠK arn
Ġdebut s
Ġpriest s
q p
ĠF an
ĠF ul
Ġt ips
ĠZ imbabwe
Ġk nee
subNav List
s ensor
Ġexpect s
Ġadminister ed
Ġ ])
urren ces
Text Box
Ġspe aks
h ydro
Ġre un
Ġbro ader
Ġon mouse
li pped
Ġped est
Ġt i
ĠMoroc co
et erm
ch mark
Ġtr apped
Ġcor por
ĠEngine er
ĠLOG GER
f lip
tern atively
ĠL ak
Ġprev ents
p ager
ĠN il
Ġsh rink
ĠC elebr
ĠDes ert
Ġaffect ing
åı ¯
connection s
Ġrevers ed
Ġsp acing
gr and
find er
ĠT iger
Ġ' \\
process ed
le z
Ġdiv orce
Vel ocity
Ġterm inate
Col umb
AL TER
ĠWik ipedia
al ternate
ĠS uff
hen e
Ġover lay
Stream ing
Ġathlet ic
ĠEncycl opedia
M essaging
ĠD evelop
S ep
s ynchron
Ġsever ely
Ġterr ain
ĠNap ole
G i
Ġ[ ])
ĠD as
ĠS aw
Ġtr act
oll ar
og an
ĠAng els
ĠText ure
[...]
