{
  "version": "1.0",
  "truncation": null,
  "padding": null,
  "added_tokens": [
    {
      "id": 0,
      "content": "[UNK]",
      "single_word": false,
      "lstrip": false,
      "rstrip": false,
      "normalized": false,
      "special": true
    }
  ],
  "normalizer": null,
  "pre_tokenizer": {
    "type": "Sequence",
    "pretokenizers": [
      {
        "type": "Digits",
        "individual_digits": false
      },
      {
        "type": "ByteLevel",
        "add_prefix_space": false,
        "trim_offsets": true,
        "use_regex": true
      }
    ]
  },
  "post_processor": null,
  "decoder": null,
  "model": {
    "type": "BPE",
    "dropout": null,
    "unk_token": "[UNK]",
    "continuing_subword_prefix": null,
    "end_of_word_suffix": null,
    "fuse_unk": false,
    "byte_fallback": false,
    "vocab": {
      "[UNK]": 0,
      "!": 1,
      "\"": 2,
      "#": 3,
      "$": 4,
      "%": 5,
      "&": 6,
      "'": 7,
      "(": 8,
      ")": 9,
      "*": 10,
      "+": 11,
      ",": 12,
      "-": 13,
      ".": 14,
      "/": 15,
      "0": 16,
      "1": 17,
      "2": 18,
      "3": 19,
      "4": 20,
      "5": 21,
      "6": 22,
      "7": 23,
      "8": 24,
      "9": 25,
      ":": 26,
      ";": 27,
      "<": 28,
      "=": 29,
      ">": 30,
      "?": 31,
      "@": 32,
      "A": 33,
      "B": 34,
      "C": 35,
      "D": 36,
      "E": 37,
      "F": 38,
      "G": 39,
      "H": 40,
      "I": 41,
      "J": 42,
      "K": 43,
      "L": 44,
      "M": 45,
      "N": 46,
      "O": 47,
      "P": 48,
      "Q": 49,
      "R": 50,
      "S": 51,
      "T": 52,
      "U": 53,
      "V": 54,
      "W": 55,
      "X": 56,
      "Y": 57,
      "Z": 58,
      "[": 59,
      "\\": 60,
      "]": 61,
      "^": 62,
      "_": 63,
      "`": 64,
      "a": 65,
      "b": 66,
      "c": 67,
      "d": 68,
      "e": 69,
      "f": 70,
      "g": 71,
      "h": 72,
      "i": 73,
      "j": 74,
      "k": 75,
      "l": 76,
      "m": 77,
      "n": 78,
      "o": 79,
      "p": 80,
      "q": 81,
      "r": 82,
      "s": 83,
      "t": 84,
      "u": 85,
      "v": 86,
      "w": 87,
      "x": 88,
      "y": 89,
      "z": 90,
      "{": 91,
      "|": 92,
      "}": 93,
      "~": 94,
      "¡": 95,
      "¢": 96,
      "£": 97,
      "¤": 98,
      "¥": 99,
      "¦": 100,
      "§": 101,
      "¨": 102,
      "©": 103,
      "ª": 104,
      "«": 105,
      "¬": 106,
      "®": 107,
      "¯": 108,
      "°": 109,
      "±": 110,
      "²": 111,
      "³": 112,
      "´": 113,
      "µ": 114,
      "¶": 115,
      "·": 116,
      "¸": 117,
      "¹": 118,
      "º": 119,
      "»": 120,
      "¼": 121,
      "½": 122,
      "¾": 123,
      "¿": 124,
      "Â": 125,
      "Ã": 126,
      "Ä": 127,
      "Å": 128,
      "Æ": 129,
      "Ç": 130,
      "È": 131,
      "É": 132,
      "Ê": 133,
      "Ë": 134,
      "Ì": 135,
      "Í": 136,
      "Î": 137,
      "Ï": 138,
      "Ð": 139,
      "Ñ": 140,
      "Ò": 141,
      "Ó": 142,
      "Ô": 143,
      "Õ": 144,
      "Ö": 145,
      "×": 146,
      "Ø": 147,
      "Ù": 148,
      "Ú": 149,
      "Û": 150,
      "Ü": 151,
      "Ý": 152,
      "Þ": 153,
      "ß": 154,
      "à": 155,
      "á": 156,
      "â": 157,
      "ã": 158,
      "ä": 159,
      "å": 160,
      "æ": 161,
      "ç": 162,
      "è": 163,
      "é": 164,
      "ê": 165,
      "ë": 166,
      "ì": 167,
      "í": 168,
      "î": 169,
      "ï": 170,
      "ð": 171,
      "ñ": 172,
      "ó": 173,
      "ô": 174,
      "Ā": 175,
      "ā": 176,
      "Ă": 177,
      "ă": 178,
      "Ą": 179,
      "ą": 180,
      "Ć": 181,
      "ć": 182,
      "Ĉ": 183,
      "ĉ": 184,
      "Ċ": 185,
      "ċ": 186,
      "Č": 187,
      "č": 188,
      "Ď": 189,
      "ď": 190,
      "Đ": 191,
      "đ": 192,
      "Ē": 193,
      "ē": 194,
      "Ĕ": 195,
      "ĕ": 196,
      "Ė": 197,
      "ė": 198,
      "Ę": 199,
      "ę": 200,
      "Ě": 201,
      "ě": 202,
      "Ĝ": 203,
      "ĝ": 204,
      "Ğ": 205,
      "ğ": 206,
      "Ġ": 207,
      "ġ": 208,
      "Ģ": 209,
      "ģ": 210,
      "Ĥ": 211,
      "ĥ": 212,
      "Ħ": 213,
      "ħ": 214,
      "Ĩ": 215,
      "ĩ": 216,
      "Ī": 217,
      "ī": 218,
      "Ĭ": 219,
      "ĭ": 220,
      "Į": 221,
      "į": 222,
      "İ": 223,
      "ı": 224,
      "Ĳ": 225,
      "ĳ": 226,
      "Ĵ": 227,
      "ĵ": 228,
      "Ķ": 229,
      "ķ": 230,
      "ĸ": 231,
      "Ĺ": 232,
      "ĺ": 233,
      "Ļ": 234,
      "ļ": 235,
      "Ľ": 236,
      "ľ": 237,
      "Ŀ": 238,
      "ŀ": 239,
      "Ł": 240,
      "ł": 241,
      "Ń": 242,
      "ĠĠ": 243,
      "ĠĠĠĠ": 244,
      "in": 245,
      "Ġt": 246,
      "er": 247,
      "on": 248,
      "Ġa": 249,
      "he": 250,
      "re": 251,
      "at": 252,
      "en": 253,
      "or": 254,
      "st": 255,
      "ĠĠĠ": 256,
      "Ġthe": 257,
      "al": 258,
      "an": 259,
      "ĠĠĠĠĠĠĠĠ": 260,
      "it": 261,
      "ar": 262,
      "Ġc": 263,
      "le": 264,
      "ion": 265,
      "Ġs": 266,
      "ed": 267,
      "es": 268,
      "Ġo": 269,
      "is": 270,
      "Ġf": 271,
      "Ġw": 272,
      "ic": 273,
      "ing": 274,
      "ro": 275,
      "Ġp": 276,
      "as": 277,
      "Ġin": 278,
      "Ġb": 279,
      "nd": 280,
      "et": 281,
      "ct": 282,
      "Ġof": 283,
      "Ġd": 284,
      "ou": 285,
      "am": 286,
      "ent": 287,
      "Ġm": 288,
      "el": 289,
      "ĠĠĠĠĠĠĠ": 290,
      "Ġand": 291,
      "Ġto": 292,
      "il": 293,
      "Ġre": 294,
      "om": 295,
      "Ġn": 296,
      "id": 297,
      "Ġh": 298,
      "Ġ=": 299,
      "Ġ(": 300,
      "ol": 301,
      "ac": 302,
      "ĠS": 303,
      "ation": 304,
      "ur": 305,
      "ig": 306,
      "ĉĉ": 307,
      "im": 308,
      "Ġth": 309,
      "</": 310,
      "ut": 311,
      "ĠT": 312,
      "ot": 313,
      "ad": 314,
      "ex": 315,
      "ĠC": 316,
      "se": 317,
      "=\"": 318,
      "Ġl": 319,
      ");": 320,
      "iv": 321,
      "od": 322,
      "ĠA": 323,
      "ce": 324,
      "ag": 325,
      "ul": 326,
      "Ġ{": 327,
      "--": 328,
      "if": 329,
      "em": 330,
      "Ġ$": 331,
      "Ġ<": 332,
      "th": 333,
      "un": 334,
      "Ġ\\": 335,
      "ĠĠĠĠĠĠĠĠĠĠĠ": 336,
      "pe": 337,
      "Ġv": 338,
      "Ġis": 339,
      "ch": 340,
      "ay": 341,
      "um": 342,
      "ab": 343,
      "ĠM": 344,
      "Ġg": 345,
      "ow": 346,
      "čĊ": 347,
      "ate": 348,
      "us": 349,
      "//": 350,
      "Ġfor": 351,
      "ers": 352,
      "Ġst": 353,
      "ĠI": 354,
      "Ġ*": 355,
      "tr": 356,
      "ue": 357,
      "ist": 358,
      "ap": 359,
      "oc": 360,
      "ass": 361,
      "ĠP": 362,
      "ly": 363,
      "ir": 364,
      "ter": 365,
      "ame": 366,
      "ĠB": 367,
      "Ġon": 368,
      "ith": 369,
      "ction": 370,
      "pt": 371,
      "ht": 372,
      "Ġcon": 373,
      "Ġ}": 374,
      "ef": 375,
      "Ġ\"": 376,
      "av": 377,
      "\">": 378,
      "20": 379,
      "Ġbe": 380,
      "and": 381,
      "ĠR": 382,
      "ub": 383,
      "end": 384,
      "Ġe": 385,
      "ver": 386,
      "Ġas": 387,
      "ew": 388,
      "ĠD": 389,
      "qu": 390,
      "res": 391,
      "ĠH": 392,
      "lass": 393,
      "ĠF": 394,
      "ĠL": 395,
      "up": 396,
      "ri": 397,
      "ess": 398,
      "age": 399,
      "âĢ": 400,
      "ort": 401,
      "ĠĠĠĠĠĠĠĠĠĠĠĠĠĠĠĠ": 402,
      "ĠN": 403,
      "ĠĠĠĠĠ": 404,
      "op": 405,
      "()": 406,
      "Ġwith": 407,
      "19": 408,
      "our": 409,
      "ain": 410,
      "Ġal": 411,
      "Ġthat": 412,
      "ĠG": 413,
      "os": 414,
      "li": 415,
      "est": 416,
      "urn": 417,
      "**": 418,
      "ect": 419,
      "rom": 420,
      "ext": 421,
      "nt": 422,
      "ĠE": 423,
      "ĠW": 424,
      "ĠThe": 425,
      "ine": 426,
      "Ġwas": 427,
      "Ġpro": 428,
      "Ġwh": 429,
      "Ġan": 430,
      "ath": 431,
      "art": 432,
      "ity": 433,
      "Ġby": 434,
      "sp": 435,
      "con": 436,
      "ment": 437,
      "ore": 438,
      "turn": 439,
      "Ġr": 440,
      "==": 441,
      "----": 442,
      "..": 443,
      "iz": 444,
      "ype": 445,
      "Ġcom": 446,
      "og": 447,
      "ack": 448,
      "_{": 449,
      "all": 450,
      "able": 451,
      "Ġclass": 452,
      "Ġit": 453,
      "pl": 454,
      "ke": 455,
      "ult": 456,
      "Ġat": 457,
      "eg": 458,
      "ere": 459,
      "ight": 460,
      "Ġ'": 461,
      "port": 462,
      "ode": 463,
      "Ġor": 464,
      "ile": 465,
      "ĠO": 466,
      "get": 467,
      "Ġthis": 468,
      "Ġif": 469,
      "Ġ&": 470,
      "Ġex": 471,
      "ure": 472,
      "ĠĊ": 473,
      "ang": 474,
      "ert": 475,
      "ans": 476,
      "ial": 477,
      "ref": 478,
      "str": 479,
      "ies": 480,
      "Ġfrom": 481,
      "ĠJ": 482,
      "ec": 483,
      "ĠĠĠĠĠĠĠĠĠĠĠĠĠĠĠ": 484,
      "ive": 485,
      "ud": 486,
      "int": 487,
      "ant": 488,
      "Ġtr": 489,
      "ep": 490,
      "00": 491,
      "orm": 492,
      "ill": 493,
      "In": 494,
      "ld": 495,
      "ption": 496,
      "Ġare": 497,
      "lic": 498,
      "ber": 499,
      "ata": 500,
      "->": 501,
      "ary": 502,
      "act": 503,
      "ast": 504,
      "Ġhe": 505,
      "ĠU": 506,
      "Ġ//": 507,
      "ind": 508,
      "Ġy": 509,
      "ase": 510,
      "ip": 511,
      "Ġreturn": 512,
      "Ġse": 513,
      "'s": 514,
      "ated": 515,
      "ov": 516,
      "und": 517,
      "::": 518,
      "ord": 519,
      "ard": 520,
      "Ġch": 521,
      "{\\": 522,
      "ib": 523,
      "are": 524,
      "com": 525,
      "ace": 526,
      "alue": 527,
      "Ġ-": 528,
      "ign": 529,
      "ire": 530,
      "ject": 531,
      "ĉĉĉĉ": 532,
      "Ġ</": 533,
      "ev": 534,
      "),": 535,
      "pro": 536,
      "ite": 537,
      "ug": 538,
      "Ġle": 539,
      "ition": 540,
      "../": 541,
      "to": 542,
      "ime": 543,
      "Con": 544,
      "out": 545,
      "ĠK": 546,
      "ource": 547,
      "Ġnot": 548,
      "ia": 549,
      "201": 550,
      "Ġsh": 551,
      "Ġwe": 552,
      "ak": 553,
      "cl": 554,
      "ublic": 555,
      "ost": 556,
      "ell": 557,
      "The": 558,
      "unction": 559,
      "ff": 560,
      "Ġ$\\": 561,
      "ich": 562,
      "ph": 563,
      ").": 564,
      "ong": 565,
      "text": 566,
      "Ġ@": 567,
      "Ġ[": 568,
      "aram": 569,
      "ple": 570,
      "\",": 571,
      "ild": 572,
      "per": 573,
      "ice": 574,
      "ide": 575,
      "erv": 576,
      "St": 577,
      "ge": 578,
      "Ġpl": 579,
      "ust": 580,
      "ĠV": 581,
      "loc": 582,
      "ĠIn": 583,
      "Ġ|": 584,
      "ave": 585,
      "Ġnew": 586,
      "ss": 587,
      "ork": 588,
      "ob": 589,
      "Ġ+": 590,
      "ft": 591,
      "cri": 592,
      "ml": 593,
      "ma": 594,
      "(\"": 595,
      "ical": 596,
      "cc": 597,
      "();": 598,
      "dd": 599,
      "ens": 600,
      "math": 601,
      "set": 602,
      "ok": 603,
      "Ġ/": 604,
      "put": 605,
      "Ġus": 606,
      "form": 607,
      "ory": 608,
      "Ġj": 609,
      "Ex": 610,
      "elf": 611,
      "ance": 612,
      "essage": 613,
      "enc": 614,
      "row": 615,
      "Ġres": 616,
      "ull": 617,
      "âĢĵ": 618,
      "div": 619,
      "ize": 620,
      "Ġar": 621,
      "></": 622,
      "ĠSt": 623,
      "tring": 624,
      "',": 625,
      "ian": 626,
      "ra": 627,
      "ence": 628,
      "--------": 629,
      "span": 630,
      "so": 631,
      "sh": 632,
      "ress": 633,
      "que": 634,
      "Ġun": 635,
      "du": 636,
      "one": 637,
      "ear": 638,
      "}}": 639,
      "err": 640,
      "><": 641,
      "ach": 642,
      "ations": 643,
      "200": 644,
      "ĠTh": 645,
      "ener": 646,
      "iel": 647,
      "fig": 648,
      "import": 649,
      "Ġk": 650,
      "ther": 651,
      "low": 652,
      "Ġwhich": 653,
      "Ġ.": 654,
      "Ġ*/": 655,
      "Ġname": 656,
      "Ġcan": 657,
      "use": 658,
      "ink": 659,
      "****": 660,
      "ount": 661,
      "Ġstr": 662,
      "ould": 663,
      "^{": 664,
      "Ġap": 665,
      "lo": 666,
      "ail": 667,
      "Ġhis": 668,
      "====": 669,
      "ish": 670,
      "Ġ:": 671,
      "../../": 672,
      "che": 673,
      "ele": 674,
      "ield": 675,
      "Ġpublic": 676,
      "ents": 677,
      "own": 678,
      "ĠCh": 679,
      "fr": 680,
      "Ġhas": 681,
      "Ġcont": 682,
      "Ġfunction": 683,
      "ĉĉĉ": 684,
      "ĠĠĠĠĠĠĠĠĠĠĠĠĠĠĠĠĠĠĠ": 685,
      "Ġdef": 686,
      "ll": 687,
      "te": 688,
      "tern": 689,
      "}\\": 690,
      "iew": 691,
      "irst": 692,
      "}$": 693,
      "Ġhave": 694,
      "cal": 695,
      "inal": 696,
      "html": 697,
      "eth": 698,
      "pon": 699,
      "hen": 700,
      "ous": 701,
      "name": 702,
      "('": 703,
      "18": 704,
      "ray": 705,
      "eb": 706,
      "ound": 707,
      "Pro": 708,
      "oid": 709,
      "10": 710,
      "ĠĠĠĠĠĠĠĠĠ": 711,
      "Ġhref": 712,
      "âĢĻ": 713,
      "ree": 714,
      "))": 715,
      "ator": 716,
      "Ġint": 717,
      "this": 718,
      "Name": 719,
      "Ġab": 720,
      "pr": 721,
      "yst": 722,
      "les": 723,
      "clud": 724,
      "erm": 725,
      "ck": 726,
      "over": 727,
      "Ġset": 728,
      "ps": 729,
      "Ġpr": 730,
      "ool": 731,
      "ER": 732,
      "ual": 733,
      "source": 734,
      "abel": 735,
      "Ġ||": 736,
      "Ġvar": 737,
      "message": 738,
      "ict": 739,
      "mer": 740,
      "roup": 741,
      "Type": 742,
      "ne": 743,
      "bject": 744,
      "ry": 745,
      "lation": 746,
      "old": 747,
      "ark": 748,
      "ta": 749,
      "odel": 750,
      "param": 751,
      "rit": 752,
      "ix": 753,
      "fer": 754,
      "Ġalso": 755,
      "ates": 756,
      "trans": 757,
      "Ġ_": 758,
      "ON": 759,
      "String": 760,
      "quest": 761,
      "(\\": 762,
      "egin": 763,
      "Ġ#": 764,
      "key": 765,
      "Id": 766,
      "Ġget": 767,
      "Ġwere": 768,
      "ystem": 769,
      "eng": 770,
      "Ġ=>": 771,
      "io": 772,
      "rap": 773,
      "},": 774,
      "led": 775,
      "Ġro": 776,
      "Ġim": 777,
      "ery": 778,
      "Ġout": 779,
      "ome": 780,
      "oint": 781,
      "col": 782,
      "Ġtype": 783,
      "pec": 784,
      "alse": 785,
      "IN": 786,
      "Ġall": 787,
      "atic": 788,
      "begin": 789,
      "vent": 790,
      "Ġdis": 791,
      "return": 792,
      "ions": 793,
      "oth": 794,
      "right": 795,
      "pect": 796,
      "td": 797,
      "Ġone": 798,
      "equ": 799,
      "Ġpart": 800,
      "Ġbut": 801,
      "bo": 802,
      "sum": 803,
      "code": 804,
      "atch": 805,
      "ings": 806,
      "Ġup": 807,
      "ax": 808,
      "Ġvalue": 809,
      "Ġcomp": 810,
      "ames": 811,
      "line": 812,
      "wo": 813,
      "Ġdo": 814,
      "/>": 815,
      "ng": 816,
      "cre": 817,
      "hed": 818,
      "arg": 819,
      "Ġsu": 820,
      "ĠY": 821,
      "fo": 822,
      "lock": 823,
      "cript": 824,
      "ethod": 825,
      "ĠUn": 826,
      "lect": 827,
      "umber": 828,
      "ics": 829,
      "ors": 830,
      "Re": 831,
      "Ġyou": 832,
      "uild": 833,
      "Ġcol": 834,
      "Ġwill": 835,
      "pert": 836,
      "fter": 837,
      "Com": 838,
      "Ġfirst": 839,
      "def": 840,
      "uct": 841,
      "##": 842,
      "Res": 843,
      "_{\\": 844,
      "Ġline": 845,
      "12": 846,
      "\"/>": 847,
      "Ġ!": 848,
      "app": 849,
      "ser": 850,
      "ont": 851,
      "ater": 852,
      "RE": 853,
      "aw": 854,
      "ose": 855,
      "iss": 856,
      "Ġself": 857,
      "ception": 858,
      "ick": 859,
      "ĠIt": 860,
      "add": 861,
      "Ġconst": 862,
      "ely": 863,
      "}{": 864,
      "we": 865,
      "ock": 866,
      "Ġdata": 867,
      "type": 868,
      "List": 869,
      "ĠHe": 870,
      "class": 871,
      "translation": 872,
      "igh": 873,
      "Ġtheir": 874,
      ")$": 875,
      "ault": 876,
      "Ġde": 877,
      "the": 878,
      "Ġplay": 879,
      "Ġits": 880,
      "ann": 881,
      "ange": 882,
      "Ġpre": 883,
      "urre": 884,
      "Ġdes": 885,
      "ake": 886,
      "ember": 887,
      "Ġel": 888,
      "Ġi": 889,
      "ute": 890,
      "Ġ==": 891,
      "ton": 892,
      "Ġper": 893,
      "://": 894,
      "val": 895,
      "ove": 896,
      "Ġover": 897,
      "ST": 898,
      "Ġsp": 899,
      "Ch": 900,
      "Ġcl": 901,
      "tt": 902,
      "label": 903,
      "Ġme": 904,
      "16": 905,
      "eta": 906,
      "ms": 907,
      "yn": 908,
      "pos": 909,
      "Th": 910,
      "Ġend": 911,
      "ational": 912,
      "199": 913,
      "Ġhad": 914,
      "Ġadd": 915,
      "Ġid": 916,
      "Ġtime": 917,
      "ĠâĢĵ": 918,
      "var": 919,
      "any": 920,
      "ie": 921,
      "amp": 922,
      "Ġnull": 923,
      "ĠAr": 924,
      "itle": 925,
      "round": 926,
      "ache": 927,
      "AT": 928,
      "ey": 929,
      "ook": 930,
      "Ġag": 931,
      "lement": 932,
      "Ġresult": 933,
      "ific": 934,
      "frac": 935,
      "ym": 936,
      "of": 937,
      "Ġass": 938,
      "als": 939,
      "cent": 940,
      "ersion": 941,
      "Ref": 942,
      "raph": 943,
      "ied": 944,
      "Ġvoid": 945,
      "arch": 946,
      "Ġtwo": 947,
      "left": 948,
      "Ġwork": 949,
      "__": 950,
      "tain": 951,
      "eq": 952,
      "\"><": 953,
      "Ġinter": 954,
      "Ġother": 955,
      "ative": 956,
      "idth": 957,
      "Ġwho": 958,
      "htt": 959,
      "Ġ`": 960,
      "Ar": 961,
      "Ġwhen": 962,
      "ĠâĢ": 963,
      "son": 964,
      "anc": 965,
      "ader": 966,
      "trib": 967,
      "Ġqu": 968,
      "ervice": 969,
      "ences": 970,
      "Ġcomm": 971,
      "ask": 972,
      "));": 973,
      "Ġmore": 974,
      "Ġund": 975,
      "yle": 976,
      "ues": 977,
      "OR": 978,
      "ivate": 979,
      "Ġbeen": 980,
      "co": 981,
      "oun": 982,
      "string": 983,
      "Ġsup": 984,
      "Ġso": 985,
      "ular": 986,
      "Ġ>": 987,
      "Ġher": 988,
      "15": 989,
      "ys": 990,
      "Ġsub": 991,
      "gr": 992,
      "cond": 993,
      "Ġerr": 994,
      "ash": 995,
      "Ġad": 996,
      "LE": 997,
      "ument": 998,
      "yp": 999,
      "urrent": 1000,
      "ution": 1001,
      "Ġfalse": 1002,
      "land": 1003,
      "cess": 1004,
      "ĠThis": 1005,
      "read": 1006,
      "ĠĠĠĠĠĠĠĠĠĠĠĠĠĠĠĠĠĠĠĠĠĠĠ": 1007,
      "):": 1008,
      "Ġen": 1009,
      "Ġthey": 1010,
      "ased": 1011,
      "Ġne": 1012,
      "ade": 1013,
      "irect": 1014,
      "AR": 1015,
      "----------------": 1016,
      "Tr": 1017,
      "der": 1018,
      "rr": 1019,
      "back": 1020,
      "ternal": 1021,
      "ise": 1022,
      "ited": 1023,
      "ĠĠĠĠĠĠĠĠĠĠĠĠĠ": 1024,
      "\");": 1025,
      "Ġreg": 1026,
      "ID": 1027,
      "ample": 1028,
      "********": 1029,
      "ĠCom": 1030,
      "ons": 1031,
      "Ġtrue": 1032,
      "ava": 1033,
      "Ġinclud": 1034,
      "Ġonly": 1035,
      "11": 1036,
      "Ġcre": 1037,
      "Ġloc": 1038,
      "data": 1039,
      "ollow": 1040,
      "Ġfil": 1041,
      "ople": 1042,
      "ptions": 1043,
      "Ġinto": 1044,
      "ength": 1045,
      "ccess": 1046,
      "org": 1047,
      "orn": 1048,
      "Ġyear": 1049,
      "Ġorg": 1050,
      "ule": 1051,
      "min": 1052,
      "Ġform": 1053,
      "ern": 1054,
      "////": 1055,
      "ished": 1056,
      "Ġoff": 1057,
      "sub": 1058,
      "ating": 1059,
      "Value": 1060,
      "Ġte": 1061,
      "file": 1062,
      "Ġind": 1063,
      "anag": 1064,
      "efore": 1065,
      "bar": 1066,
      "ee": 1067,
      "Data": 1068,
      "self": 1069,
      "work": 1070,
      "cite": 1071,
      "Ġ)": 1072,
      "Ġval": 1073,
      "ward": 1074,
      "tem": 1075,
      "ined": 1076,
      "Ġinst": 1077,
      "Ġtrans": 1078,
      "mathb": 1079,
      "})": 1080,
      "Col": 1081,
      "Ġob": 1082,
      "Ġelse": 1083,
      "AL": 1084,
      "resent": 1085,
      "ugh": 1086,
      "Ġpos": 1087,
      "$.": 1088,
      "Ġact": 1089,
      "rm": 1090,
      "Ġspec": 1091,
      "ole": 1092,
      "To": 1093,
      "$,": 1094,
      "ican": 1095,
      "lection": 1096,
      "its": 1097,
      "17": 1098,
      "uth": 1099,
      "Ġbet": 1100,
      "plic": 1101,
      "Ġuse": 1102,
      "Ġpe": 1103,
      "ĠPro": 1104,
      "oug": 1105,
      "value": 1106,
      "Ġgo": 1107,
      "Ġany": 1108,
      "SS": 1109,
      "ble": 1110,
      "\")": 1111,
      "ider": 1112,
      "Ġwhere": 1113,
      "perty": 1114,
      "EN": 1115,
      "item": 1116,
      "lient": 1117,
      "Ġfinal": 1118,
      "ious": 1119,
      "ature": 1120,
      "Ġafter": 1121,
      "ins": 1122,
      "}.": 1123,
      "ĠĠĠĠĠĠ": 1124,
      "ays": 1125,
      "Ġem": 1126,
      "ank": 1127,
      "amb": 1128,
      "arget": 1129,
      "========": 1130,
      "Ġused": 1131,
      "Ġ--": 1132,
      "ĠĠĠĠĠĠĠĠĠĠĠĠĠĠĠĠĠĠĠĠĠĠĠĠĠĠĠĠĠĠĠĠ": 1133,
      "Ġ/**": 1134,
      "Ġsc": 1135,
      ",\\": 1136,
      "imes": 1137,
      "ĠNew": 1138,
      "ages": 1139,
      "25": 1140,
      "action": 1141,
      "pre": 1142,
      "Refer": 1143,
      "Set": 1144,
      "Exception": 1145,
      "Ġrec": 1146,
      "log": 1147,
      "ier": 1148,
      "Ġno": 1149,
      "Ġx": 1150,
      "equation": 1151,
      "13": 1152,
      "Ġtest": 1153,
      "oot": 1154,
      "ement": 1155,
      "ivers": 1156,
      "14": 1157,
      "Ġfollow": 1158,
      "uff": 1159,
      "ts": 1160,
      "location": 1161,
      "Ġstring": 1162,
      "Ġop": 1163,
      "Ġev": 1164,
      "new": 1165,
      "Ġcase": 1166,
      "Ġthen": 1167,
      "Ġthere": 1168,
      "ince": 1169,
      "198": 1170,
      "Err": 1171,
      "Ġco": 1172,
      "ve": 1173,
      "uring": 1174,
      "Ġunder": 1175,
      "ists": 1176,
      "px": 1177,
      "nb": 1178,
      "oy": 1179,
      "ible": 1180,
      "ities": 1181,
      "olog": 1182,
      "wn": 1183,
      "ures": 1184,
      "Ġabout": 1185,
      "Ġdec": 1186,
      "date": 1187,
      "ik": 1188,
      "($": 1189,
      "ĠAl": 1190,
      "];": 1191,
      "En": 1192,
      "mathcal": 1193,
      "Ġ&&": 1194,
      "ody": 1195,
      "not": 1196,
      "Ġstatic": 1197,
      "Ġrem": 1198,
      "ility": 1199,
      "Ġchar": 1200,
      "ced": 1201,
      "Ġdist": 1202,
      "roid": 1203,
      "Ġfile": 1204,
      "arn": 1205,
      "ĠCon": 1206,
      "eter": 1207,
      "eff": 1208,
      "Ġdif": 1209,
      "Ġgener": 1210,
      "atus": 1211,
      "Object": 1212,
      "ween": 1213,
      "ream": 1214,
      "air": 1215,
      "Ġback": 1216,
      "view": 1217,
      "Ġ///": 1218,
      "Ġwould": 1219,
      "32": 1220,
      "Ġnumber": 1221,
      "Ġpol": 1222,
      "test": 1223,
      "ision": 1224,
      "quire": 1225,
      "Ġent": 1226,
      "ĠString": 1227,
      "br": 1228,
      "Ġcons": 1229,
      "umn": 1230,
      "pha": 1231,
      "mary": 1232,
      "Ġshe": 1233,
      "da": 1234,
      "nbsp": 1235,
      "Ġsome": 1236,
      "cont": 1237,
      "ices": 1238,
      "Ġthan": 1239,
      "epend": 1240,
      "ĠSh": 1241,
      "Test": 1242,
      "orld": 1243,
      "red": 1244,
      "Ġ!=": 1245,
      "')": 1246,
      "ĠQ": 1247,
      "Ġprov": 1248,
      "for": 1249,
      "ren": 1250,
      "ru": 1251,
      "ized": 1252,
      "ars": 1253,
      "evel": 1254,
      "Ġrel": 1255,
      "']": 1256,
      "}(": 1257,
      "size": 1258,
      "DE": 1259,
      "Ġsuch": 1260,
      "press": 1261,
      "sc": 1262,
      "().": 1263,
      "ments": 1264,
      "Ġkn": 1265,
      "Ġ%": 1266,
      "CT": 1267,
      "Ġprivate": 1268,
      "ily": 1269,
      "Get": 1270,
      "play": 1271,
      "az": 1272,
      "Ġlist": 1273,
      "ines": 1274,
      "Ġmodel": 1275,
      "pp": 1276,
      "ower": 1277,
      "References": 1278,
      "());": 1279,
      "Ġfe": 1280,
      "âĢĿ": 1281,
      "Ġmay": 1282,
      "Ġph": 1283,
      "IT": 1284,
      "att": 1285,
      "arent": 1286,
      "Error": 1287,
      "ww": 1288,
      "Ġshow": 1289,
      "Cont": 1290,
      "Un": 1291,
      "Ġbetween": 1292,
      "rc": 1293,
      "ĠAn": 1294,
      "Ġser": 1295,
      ".</": 1296,
      "ally": 1297,
      "SE": 1298,
      "30": 1299,
      "chool": 1300,
      "ho": 1301,
      "link": 1302,
      "}^": 1303,
      "ĠTr": 1304,
      "merican": 1305,
      "heck": 1306,
      "~\\": 1307,
      "rough": 1308,
      "ĉĉĉĉĉ": 1309,
      "Ġprodu": 1310,
      "._": 1311,
      "struct": 1312,
      "alpha": 1313,
      "vel": 1314,
      "Ġbec": 1315,
      "ason": 1316,
      "ott": 1317,
      "ĠSe": 1318,
      "ient": 1319,
      "be": 1320,
      "face": 1321,
      "197": 1322,
      "me": 1323,
      "by": 1324,
      "}_": 1325,
      "Key": 1326,
      "ler": 1327,
      "ike": 1328,
      "Ġgr": 1329,
      "rol": 1330,
      "ball": 1331,
      "ger": 1332,
      "100": 1333,
      "Ġobject": 1334,
      "lang": 1335,
      "ME": 1336,
      "script": 1337,
      "File": 1338,
      "Ġmod": 1339,
      "Ġpeople": 1340,
      "Ġfield": 1341,
      "Im": 1342,
      "oci": 1343,
      "Ġoper": 1344,
      "ĠEx": 1345,
      "roll": 1346,
      "Ġsim": 1347,
      "order": 1348,
      "Ġmethod": 1349,
      "['": 1350,
      "let": 1351,
      "ĠZ": 1352,
      "\";": 1353,
      "Ġac": 1354,
      "mod": 1355,
      "Ġstart": 1356,
      "iver": 1357,
      "elta": 1358,
      "ets": 1359,
      "list": 1360,
      "apt": 1361,
      "til": 1362,
      "pi": 1363,
      "22": 1364,
      "public": 1365,
      "pace": 1366,
      "At": 1367,
      "He": 1368,
      "Ġinv": 1369,
      "indow": 1370,
      "By": 1371,
      "Ind": 1372,
      "Ġbo": 1373,
      "Class": 1374,
      "wh": 1375,
      "ify": 1376,
      "ause": 1377,
      "Ġkey": 1378,
      "Ġcal": 1379,
      "itt": 1380,
      "View": 1381,
      "Ġam": 1382,
      "Ġsystem": 1383,
      "ces": 1384,
      "ah": 1385,
      "url": 1386,
      "ond": 1387,
      "Ġgiv": 1388,
      "\"></": 1389,
      "Ġext": 1390,
      "nav": 1391,
      "Ġed": 1392,
      "Ġparam": 1393,
      "util": 1394,
      "go": 1395,
      "summary": 1396,
      "index": 1397,
      "ĠĠĠĠĊ": 1398,
      "ote": 1399,
      "');": 1400,
      "AN": 1401,
      "Ġhigh": 1402,
      "par": 1403,
      "50": 1404,
      "cription": 1405,
      "mall": 1406,
      "inn": 1407,
      "function": 1408,
      "js": 1409,
      "...": 1410,
      "inter": 1411,
      "21": 1412,
      "oh": 1413,
      "ization": 1414,
      "Ġstud": 1415,
      "ough": 1416,
      "Ġfound": 1417,
      "Ġacc": 1418,
      "ale": 1419,
      "Sh": 1420,
      "ouse": 1421,
      "Ġmost": 1422,
      "Ġdiffer": 1423,
      "Ġest": 1424,
      "CO": 1425,
      "Ġeach": 1426,
      "Ġpoint": 1427,
      "Ġapp": 1428,
      "Ġstate": 1429,
      "time": 1430,
      "lay": 1431,
      "ocument": 1432,
      "http": 1433,
      "Ġour": 1434,
      "Ġlink": 1435,
      "Ġdet": 1436,
      "ified": 1437,
      "ĠFor": 1438,
      "ambda": 1439,
      "field": 1440,
      "ĠCol": 1441,
      "Ġmin": 1442,
      "64": 1443,
      "Ġgroup": 1444,
      "rite": 1445,
      "ponent": 1446,
      "(),": 1447,
      "ĠWe": 1448,
      "width": 1449,
      "load": 1450,
      "$\\": 1451,
      "Ġsign": 1452,
      "Ġthrough": 1453,
      "dis": 1454,
      "ric": 1455,
      "Ġcor": 1456,
      "man": 1457,
      "section": 1458,
      "ever": 1459,
      "ister": 1460,
      "ĠX": 1461,
      "aid": 1462,
      "Ġtitle": 1463,
      "includ": 1464,
      "reg": 1465,
      "top": 1466,
      "Ġrun": 1467,
      "Ã©": 1468,
      "ident": 1469,
      "try": 1470,
      "aj": 1471,
      "way": 1472,
      "other": 1473,
      "On": 1474,
      "Ġusing": 1475,
      "UL": 1476,
      "iversity": 1477,
      "An": 1478,
      "Ġagain": 1479,
      "cept": 1480,
      "ĠAs": 1481,
      "void": 1482,
      "Ġshould": 1483,
      "Ġrep": 1484,
      "ground": 1485,
      "ector": 1486,
      "Ġcent": 1487,
      "table": 1488,
      "uss": 1489,
      "cle": 1490,
      "Ġfl": 1491,
      "Ġcall": 1492,
      "Ġthem": 1493,
      "Ġequ": 1494,
      "!--": 1495,
      "align": 1496,
      "ĠInd": 1497,
      "color": 1498,
      "uffer": 1499,
      "lish": 1500,
      ")\\": 1501,
      "reak": 1502,
      "ron": 1503,
      "],": 1504,
      "Ġarg": 1505,
      "Ġthese": 1506,
      "ship": 1507,
      "raw": 1508,
      "oad": 1509,
      "outh": 1510,
      "Ġhim": 1511,
      "=\"../../": 1512,
      "group": 1513,
      "orth": 1514,
      "ĠRe": 1515,
      "Ġlong": 1516,
      "24": 1517,
      "ife": 1518,
      "ponse": 1519,
      "comm": 1520,
      "evelop": 1521,
      "ency": 1522,
      "ury": 1523,
      "=\"+": 1524,
      "Time": 1525,
      "ared": 1526,
      "For": 1527,
      "const": 1528,
      "ots": 1529,
      "af": 1530,
      "Ġdr": 1531,
      "itial": 1532,
      "quot": 1533,
      "ackage": 1534,
      "Ġwhile": 1535,
      "amma": 1536,
      "lob": 1537,
      "path": 1538,
      "ense": 1539,
      "=\\": 1540,
      "ession": 1541,
      "Request": 1542,
      "Ġsecond": 1543,
      "fl": 1544,
      "Ġcurrent": 1545,
      "Ġsame": 1546,
      "array": 1547,
      "uration": 1548,
      "hat": 1549,
      "Ġ/>": 1550,
      "Ġdirect": 1551,
      "RO": 1552,
      "Ġcomple": 1553,
      "ush": 1554,
      "anager": 1555,
      "'t": 1556,
      "mu": 1557,
      "ants": 1558,
      "Ġwell": 1559,
      "Ġsing": 1560,
      "ogle": 1561,
      "\":": 1562,
      "erson": 1563,
      "ĠâĢľ": 1564,
      "ected": 1565,
      "Ġeff": 1566,
      "bers": 1567,
      "196": 1568,
      "box": 1569,
      "opy": 1570,
      "user": 1571,
      "part": 1572,
      "000": 1573,
      "Ġ\\\\": 1574,
      "Add": 1575,
      "Al": 1576,
      ".\"": 1577,
      "unc": 1578,
      "med": 1579,
      "Ġneed": 1580,
      "``": 1581,
      "rib": 1582,
      "Ġhand": 1583,
      "ism": 1584,
      "ION": 1585,
      "rem": 1586,
      "reat": 1587,
      "LA": 1588,
      "Info": 1589,
      "mp": 1590,
      "Text": 1591,
      "Int": 1592,
      "md": 1593,
      "Event": 1594,
      "Node": 1595,
      "PE": 1596,
      "Ġsol": 1597,
      "Ġfr": 1598,
      "TE": 1599,
      "].": 1600,
      "ĠLe": 1601,
      "igma": 1602,
      "Ġu": 1603,
      "Ġthrow": 1604,
      "Ġyour": 1605,
      "Ġ);": 1606,
      "Ġassert": 1607,
      "Ġbefore": 1608,
      "Ġsize": 1609,
      "Path": 1610,
      "Ġyears": 1611,
      "}^{": 1612,
      "tribute": 1613,
      "Ġ?": 1614,
      "_\\": 1615,
      "/*": 1616,
      "utton": 1617,
      "serv": 1618,
      "ateg": 1619,
      "As": 1620,
      "Ġresp": 1621,
      "Ġbr": 1622,
      "ting": 1623,
      "};": 1624,
      "her": 1625,
      "overn": 1626,
      "Param": 1627,
      "())": 1628,
      "ports": 1629,
      "formation": 1630,
      "Ġz": 1631,
      "Element": 1632,
      "/**": 1633,
      "ega": 1634,
      "ĠFr": 1635,
      "eters": 1636,
      "itor": 1637,
      "ful": 1638,
      "Ġbuild": 1639,
      "Ġerror": 1640,
      "ension": 1641,
      "etwork": 1642,
      "amespace": 1643,
      "rop": 1644,
      "Ġthree": 1645,
      "ived": 1646,
      "ĠAmerican": 1647,
      "mathbb": 1648,
      "}_{": 1649,
      "ten": 1650,
      "ĠIf": 1651,
      "Equ": 1652,
      "Ġexpect": 1653,
      "Ġduring": 1654,
      "':": 1655,
      "Ġrequire": 1656,
      "ically": 1657,
      "Ġserv": 1658,
      "Ġboth": 1659,
      "Ġbeing": 1660,
      "olean": 1661,
      "length": 1662,
      "Ġcontain": 1663,
      "33": 1664,
      "Ġwrit": 1665,
      "AC": 1666,
      "Ġrele": 1667,
      "Context": 1668,
      "ride": 1669,
      "Def": 1670,
      "Ġhow": 1671,
      "Config": 1672,
      "gram": 1673,
      "Ġrequest": 1674,
      "config": 1675,
      "ĠSc": 1676,
      "40": 1677,
      "Ġfollowing": 1678,
      "Ġgiven": 1679,
      "Ġnon": 1680,
      "Ġright": 1681,
      "Index": 1682,
      "State": 1683,
      "Map": 1684,
      "Ġpass": 1685,
      "-\\": 1686,
      "Ġlike": 1687,
      "ather": 1688,
      "bf": 1689,
      "ox": 1690,
      "Ġimport": 1691,
      "Ġread": 1692,
      "ĠDe": 1693,
      "des": 1694,
      "Ġevent": 1695,
      "my": 1696,
      "Field": 1697,
      "Ġteam": 1698,
      "Ġart": 1699,
      "PI": 1700,
      "uch": 1701,
      "word": 1702,
      "Ġorder": 1703,
      "itions": 1704,
      "Ġelement": 1705,
      "Ġever": 1706,
      "api": 1707,
      "ats": 1708,
      "Item": 1709,
      "Ġatt": 1710,
      "Ġsur": 1711,
      "phi": 1712,
      "ane": 1713,
      "dt": 1714,
      "istory": 1715,
      "Qu": 1716,
      "vert": 1717,
      "Ġmem": 1718,
      "TR": 1719,
      "Ġperform": 1720,
      "Ġ/*": 1721,
      "ape": 1722,
      "Ġmed": 1723,
      "ross": 1724,
      "https": 1725,
      "Ġ(!": 1726,
      "ĠĠĠĠĠĠĠĠĠĠĠĠĠĠĠĠĠĠĠĠĠĠĠĠĠĠĠ": 1727,
      "Ġdifferent": 1728,
      "^{\\": 1729,
      "ĠIs": 1730,
      "ission": 1731,
      "amily": 1732,
      "Not": 1733,
      "23": 1734,
      "ĠUniversity": 1735,
      "map": 1736,
      "Ġ-->": 1737,
      "Form": 1738,
      "Des": 1739,
      "stance": 1740,
      "Over": 1741,
      "Service": 1742,
      "With": 1743,
      "Ġmade": 1744,
      "result": 1745,
      "Âł": 1746,
      "ypes": 1747,
      "Ġjust": 1748,
      "Ġarray": 1749,
      "off": 1750,
      "ĠUnited": 1751,
      "Ġappro": 1752,
      "atri": 1753,
      "Array": 1754,
      "ural": 1755,
      "usic": 1756,
      "pty": 1757,
      "ĠOn": 1758,
      "lambda": 1759,
      "node": 1760,
      "Ġpar": 1761,
      "arly": 1762,
      "cd": 1763,
      "We": 1764,
      "apache": 1765,
      "Ġnow": 1766,
      "Code": 1767,
      "ina": 1768,
      "ĠĠĊ": 1769,
      "ek": 1770,
      "Ġstruct": 1771,
      "Ġdefault": 1772,
      "';": 1773,
      "\"\"": 1774,
      "uf": 1775,
      "Ġmain": 1776,
      "lished": 1777,
      "Ġsupport": 1778,
      "Ġown": 1779,
      "[]": 1780,
      "uthor": 1781,
      "model": 1782,
      "nection": 1783,
      "search": 1784,
      "fin": 1785,
      "\\\\": 1786,
      "Ġ});": 1787,
      "iter": 1788,
      "Ġprocess": 1789,
      "Ġmon": 1790,
      "////////": 1791,
      "irt": 1792,
      "lp": 1793,
      "bed": 1794,
      "Ġpartic": 1795,
      "true": 1796,
      "ttp": 1797,
      "ases": 1798,
      "Ġlinks": 1799,
      "Ġlocal": 1800,
      "Ġaut": 1801,
      "Ġlast": 1802,
      "Or": 1803,
      "uc": 1804,
      "object": 1805,
      "igned": 1806,
      "####": 1807,
      "Ġterm": 1808,
      "ograph": 1809,
      "Ġmany": 1810,
      "iginal": 1811,
      "eps": 1812,
      "idd": 1813,
      "IC": 1814,
      "ner": 1815,
      "Ġrecord": 1816,
      "Ġcould": 1817,
      "istr": 1818,
      "ĠMar": 1819,
      "block": 1820,
      "\".": 1821,
      "External": 1822,
      "****************": 1823,
      "ui": 1824,
      "umer": 1825,
      "aces": 1826,
      "ootball": 1827,
      "Ġ{\\": 1828,
      "input": 1829,
      "Ġpop": 1830,
      "UR": 1831,
      "ĠRes": 1832,
      "Result": 1833,
      "plication": 1834,
      "enn": 1835,
      "Size": 1836,
      "ral": 1837,
      "ology": 1838,
      "Ġdoes": 1839,
      "Ġtarget": 1840,
      "ift": 1841,
      "from": 1842,
      "icon": 1843,
      "ohn": 1844,
      "Ġbel": 1845,
      "els": 1846,
      "ĠEng": 1847,
      "ync": 1848,
      "bol": 1849,
      "title": 1850,
      "ilter": 1851,
      "Ġmy": 1852,
      "Ġtem": 1853,
      "Ġmake": 1854,
      "ulation": 1855,
      "Ġtext": 1856,
      "Ġsaid": 1857,
      "iving": 1858,
      "next": 1859,
      "Build": 1860,
      "Ġ},": 1861,
      "odes": 1862,
      "ustom": 1863,
      "Ġbeg": 1864,
      "lt": 1865,
      "ood": 1866,
      "ari": 1867,
      "valid": 1868,
      "ait": 1869,
      "ĠCl": 1870,
      "Ġcontin": 1871,
      "Message": 1872,
      "194": 1873,
      "ica": 1874,
      "ĠComm": 1875,
      "error": 1876,
      "Hand": 1877,
      "sk": 1878,
      "Ġ:=": 1879,
      "utes": 1880,
      "arm": 1881,
      "Ġtop": 1882,
      "Ġvari": 1883,
      "assert": 1884,
      "ends": 1885,
      "Ġdevelop": 1886,
      "Ġuser": 1887,
      "gt": 1888,
      "enu": 1889,
      "Ġlog": 1890,
      "create": 1891,
      "less": 1892,
      "Fr": 1893,
      "ually": 1894,
      "eturn": 1895,
      "plate": 1896,
      "This": 1897,
      "27": 1898,
      "Ġwhat": 1899,
      "++": 1900,
      "ives": 1901,
      "aint": 1902,
      "sec": 1903,
      "Ġmet": 1904,
      "28": 1905,
      "Ġopen": 1906,
      "Ġmov": 1907,
      "beta": 1908,
      "version": 1909,
      "ustr": 1910,
      "ags": 1911,
      "Ġcoun": 1912,
      "FF": 1913,
      "urs": 1914,
      "ĠPr": 1915,
      "Ġplayers": 1916,
      "Ġdisc": 1917,
      "ior": 1918,
      "arge": 1919,
      "wit": 1920,
      "Ġcontent": 1921,
      "System": 1922,
      "abled": 1923,
      "ality": 1924,
      "mb": 1925,
      "mathbf": 1926,
      "ĠShe": 1927,
      "Of": 1928,
      "ential": 1929,
      "Ġbl": 1930,
      "une": 1931,
      "ification": 1932,
      "ley": 1933,
      "Ġchild": 1934,
      "195": 1935,
      "='": 1936,
      "Ġfact": 1937,
      "sigma": 1938,
      "Ġstyle": 1939,
      "Ġleft": 1940,
      "Ġref": 1941,
      "iled": 1942,
      "oss": 1943,
      "java": 1944,
      "net": 1945,
      "ilon": 1946,
      "26": 1947,
      "amed": 1948,
      "point": 1949,
      "Ġjava": 1950,
      "AD": 1951,
      "loat": 1952,
      "iev": 1953,
      "head": 1954,
      "no": 1955,
      "perties": 1956,
      "bum": 1957,
      "UT": 1958,
      "Ġbecause": 1959,
      "Ġ(\\": 1960,
      "Ġbro": 1961,
      "ĠPh": 1962,
      "default": 1963,
      "Ġman": 1964,
      "evice": 1965,
      "omen": 1966,
      "Ġallow": 1967,
      "LO": 1968,
      "body": 1969,
      "Ġconfig": 1970,
      "Ġfind": 1971,
      "Ġversion": 1972,
      "Ġappe": 1973,
      "Val": 1974,
      "Ġ,": 1975,
      "ĠAss": 1976,
      "uage": 1977,
      "gy": 1978,
      "side": 1979,
      "cope": 1980,
      "ymbol": 1981,
      "uck": 1982,
      "ai": 1983,
      "Ġlead": 1984,
      "Ġfin": 1985,
      "ium": 1986,
      "imit": 1987,
      "=\"../../../../": 1988,
      "ĠSystem": 1989,
      "ret": 1990,
      "android": 1991,
      "Ġrece": 1992,
      "start": 1993,
      "Ġknown": 1994,
      "comp": 1995,
      "ĠOr": 1996,
      "Ġlater": 1997,
      "bl": 1998,
      "center": 1999,
      "info": 2000,
      "}{\\": 2001,
      "Is": 2002,
      "Ġsince": 2003,
      "Ġprot": 2004,
      "Ġsee": 2005,
      "^{-": 2006,
      "aster": 2007,
      "vious": 2008,
      "acter": 2009,
      "ouble": 2010,
      "irc": 2011,
      "Loc": 2012,
      ">&": 2013,
      "Ġcheck": 2014,
      "ired": 2015,
      "Model": 2016,
      "ilde": 2017,
      "Comm": 2018,
      "Ġfour": 2019,
      "max": 2020,
      "cale": 2021,
      "ively": 2022,
      "ources": 2023,
      "IG": 2024,
      "Ġsrc": 2025,
      "Ġcode": 2026,
      "60": 2027,
      "reate": 2028,
      "chn": 2029,
      "Ġincluding": 2030,
      "ĠMay": 2031,
      "aking": 2032,
      "Ġevery": 2033,
      "lobal": 2034,
      "lected": 2035,
      "Ser": 2036,
      "Ġsmall": 2037,
      "por": 2038,
      "met": 2039,
      "Ġcalled": 2040,
      "Ġpath": 2041,
      "ĠBr": 2042,
      "Out": 2043,
      "state": 2044,
      "Ġconsider": 2045,
      "tract": 2046,
      "day": 2047,
      "Ġblock": 2048,
      "nder": 2049,
      "29": 2050,
      "Ġfilm": 2051,
      "ided": 2052,
      "Ġ===": 2053,
      "Ġvis": 2054,
      "ene": 2055,
      "--------------------------------": 2056,
      "ĠStates": 2057,
      "Ġagainst": 2058,
      "MA": 2059,
      "arri": 2060,
      "Ġvalues": 2061,
      "Log": 2062,
      "bs": 2063,
      "ĠGr": 2064,
      "ilt": 2065,
      "ides": 2066,
      "ML": 2067,
      "Ġinput": 2068,
      "Table": 2069,
      "ird": 2070,
      "Ġdescri": 2071,
      "ches": 2072,
      "ague": 2073,
      "Ġmust": 2074,
      "define": 2075,
      "Ġrefer": 2076,
      "ails": 2077,
      "Ġgu": 2078,
      "include": 2079,
      "ital": 2080,
      "content": 2081,
      "ience": 2082,
      "ĠAt": 2083,
      "ING": 2084,
      "ability": 2085,
      "Ġseason": 2086,
      "ths": 2087,
      "ounty": 2088,
      "Ġbreak": 2089,
      "2017": 2090,
      ".,": 2091,
      "google": 2092,
      "uro": 2093,
      "ULL": 2094,
      "base": 2095,
      "alk": 2096,
      "rec": 2097,
      "tainer": 2098,
      "ED": 2099,
      "elete": 2100,
      "see": 2101,
      ";&": 2102,
      "Ġrepresent": 2103,
      "Ġresults": 2104,
      "Ġnode": 2105,
      "2018": 2106,
      "Ph": 2107,
      "using": 2108,
      "Ġdid": 2109,
      "ename": 2110,
      "ctions": 2111,
      "ĠGet": 2112,
      "mathrm": 2113,
      "Ġmult": 2114,
      "atrix": 2115,
      "Manager": 2116,
      "iction": 2117,
      "Ġexample": 2118,
      "ĠAnd": 2119,
      "Ġcreate": 2120,
      "User": 2121,
      "space": 2122,
      "Ġseries": 2123,
      "uk": 2124,
      "Ġschool": 2125,
      "ony": 2126,
      "Ġbased": 2127,
      "IS": 2128,
      "*}": 2129,
      "ĉĉĉĉĉĉ": 2130,
      "Ġnext": 2131,
      "Ġ};": 2132,
      "ET": 2133,
      "Ġbase": 2134,
      "tn": 2135,
      "Ġmax": 2136,
      "roller": 2137,
      "Ġ__": 2138,
      "tes": 2139,
      "atter": 2140,
      "Ġcontext": 2141,
      "Ġpresent": 2142,
      "rho": 2143,
      "MP": 2144,
      "la": 2145,
      "ormal": 2146,
      "Up": 2147,
      "gamma": 2148,
      "tings": 2149,
      "css": 2150,
      "ling": 2151,
      "ĠAd": 2152,
      "package": 2153,
      "sup": 2154,
      "Pl": 2155,
      "ĠSp": 2156,
      "duct": 2157,
      "Ġdown": 2158,
      "CH": 2159,
      "context": 2160,
      "ination": 2161,
      "2019": 2162,
      "Ġnil": 2163,
      "Color": 2164,
      "Ġeffect": 2165,
      "Ġinformation": 2166,
      "From": 2167,
      "ĠJohn": 2168,
      "+\\": 2169,
      "urch": 2170,
      "Ġcr": 2171,
      "ĠHow": 2172,
      "pression": 2173,
      "itional": 2174,
      "arrow": 2175,
      "================": 2176,
      "Ġlevel": 2177,
      "ĠÐ": 2178,
      "Ġindex": 2179,
      "Ġexp": 2180,
      "prot": 2181,
      "aining": 2182,
      "ottom": 2183,
      "2016": 2184,
      "Ġeven": 2185,
      "with": 2186,
      "80": 2187,
      "down": 2188,
      "Ġhead": 2189,
      "Ġinstance": 2190,
      "2015": 2191,
      "tab": 2192,
      "pm": 2193,
      "Inter": 2194,
      "oin": 2195,
      "ĠWorld": 2196,
      "www": 2197,
      "Group": 2198,
      "Ġmap": 2199,
      "elect": 2200,
      "ux": 2201,
      "Ġpres": 2202,
      "style": 2203,
      "ven": 2204,
      "big": 2205,
      "ternational": 2206,
      "Ġcond": 2207,
      "ended": 2208,
      "Ġdep": 2209,
      "Ġtry": 2210,
      "Trans": 2211,
      "akes": 2212,
      "method": 2213,
      "Ġ()": 2214,
      "doc": 2215,
      "option": 2216,
      "ĠCan": 2217,
      "Ġvery": 2218,
      "Ġgame": 2219,
      "namespace": 2220,
      "ĠĠĠĠĠĠĠĠĠĠ": 2221,
      "delta": 2222,
      "Ġmark": 2223,
      "New": 2224,
      "ware": 2225,
      "Ð°": 2226,
      "TD": 2227,
      "Response": 2228,
      "ender": 2229,
      "aut": 2230,
      "ebug": 2231,
      "=\"../": 2232,
      "ithub": 2233,
      "Property": 2234,
      "2014": 2235,
      "inc": 2236,
      "Ġview": 2237,
      "false": 2238,
      "^\\": 2239,
      "Ġgovern": 2240,
      "ken": 2241,
      "AB": 2242,
      "Ġfootball": 2243,
      "ched": 2244,
      "ored": 2245,
      "Reg": 2246,
      "UN": 2247,
      "ival": 2248,
      "position": 2249,
      "ness": 2250,
      "de": 2251,
      "alth": 2252,
      "Query": 2253,
      "theta": 2254,
      "Ġsingle": 2255,
      ")}": 2256,
      "Ġposs": 2257,
      "Ġ$(": 2258,
      "Ġalbum": 2259,
      "34": 2260,
      "db": 2261,
      "urity": 2262,
      "sq": 2263,
      "ĠĠĠĠĠĠĠĠĠĠĠĠ": 2264,
      "ĠNational": 2265,
      "ĠJul": 2266,
      "light": 2267,
      "=\"#": 2268,
      "DO": 2269,
      "Ġbool": 2270,
      "Dis": 2271,
      "Ġsource": 2272,
      "web": 2273,
      "Ġlet": 2274,
      "Call": 2275,
      "Ġway": 2276,
      "ivity": 2277,
      "Client": 2278,
      "Ġproject": 2279,
      "figure": 2280,
      "ansp": 2281,
      "ĠPl": 2282,
      "ĠJan": 2283,
      "quad": 2284,
      "olv": 2285,
      "Arg": 2286,
      ";</": 2287,
      "check": 2288,
      "cast": 2289,
      "Ġestab": 2290,
      "ideo": 2291,
      "99": 2292,
      "ised": 2293,
      "ains": 2294,
      "ĠâĢĶ": 2295,
      "All": 2296,
      "Override": 2297,
      "count": 2298,
      "iron": 2299,
      "Ġprogram": 2300,
      "iness": 2301,
      "Ġav": 2302,
      "Ġincre": 2303,
      "core": 2304,
      "Pr": 2305,
      "Ġuntil": 2306,
      "ĠEn": 2307,
      "oken": 2308,
      "Count": 2309,
      "Ġitem": 2310,
      "ixed": 2311,
      "static": 2312,
      "ifier": 2313,
      "github": 2314,
      "ailable": 2315,
      "rt": 2316,
      "Ġstd": 2317,
      "come": 2318,
      "Ġpost": 2319,
      ">(": 2320,
      "Ġold": 2321,
      "tau": 2322,
      "ĠPar": 2323,
      "Ġcommun": 2324,
      "ĠList": 2325,
      "Ġident": 2326,
      "stru": 2327,
      "Ġocc": 2328,
      "Ġinitial": 2329,
      "Ġsever": 2330,
      "olution": 2331,
      "ĠWh": 2332,
      "AS": 2333,
      "print": 2334,
      "ENT": 2335,
      "annel": 2336,
      "2010": 2337,
      "ances": 2338,
      "adi": 2339,
      "Rec": 2340,
      "ety": 2341,
      "ES": 2342,
      "ĠCar": 2343,
      "$-": 2344,
      "]{": 2345,
      "ison": 2346,
      "Builder": 2347,
      "Ġfamily": 2348,
      "2013": 2349,
      "angle": 2350,
      "Ġoptions": 2351,
      "eger": 2352,
      "ĠSchool": 2353,
      "call": 2354,
      "](": 2355,
      "Ġthose": 2356,
      "respon": 2357,
      "icy": 2358,
      "ĠReg": 2359,
      "Ġcle": 2360,
      "ĠYou": 2361,
      "Ġoriginal": 2362,
      "sl": 2363,
      "sw": 2364,
      "ules": 2365,
      "Ġdistrib": 2366,
      "lin": 2367,
      "uments": 2368,
      "Ġtable": 2369,
      "35": 2370,
      "ĠBl": 2371,
      "refer": 2372,
      "Ġsuccess": 2373,
      "Ġplace": 2374,
      "ajor": 2375,
      "ero": 2376,
      "liam": 2377,
      "Ġhere": 2378,
      "Ġworld": 2379,
      "Method": 2380,
      "Ġbir": 2381,
      "Ġdi": 2382,
      ")</": 2383,
      "ĠYork": 2384,
      "TH": 2385,
      "irtual": 2386,
      "wards": 2387,
      "leq": 2388,
      "Ð¾": 2389,
      "Ġservice": 2390,
      "ploy": 2391,
      "times": 2392,
      "Ġstand": 2393,
      "Ġposition": 2394,
      "olds": 2395,
      "Mod": 2396,
      "Ġanal": 2397,
      "ĠNov": 2398,
      "rist": 2399,
      "Ġcare": 2400,
      "2011": 2401,
      "lick": 2402,
      "2012": 2403,
      "<!--": 2404,
      "ump": 2405,
      "onse": 2406,
      "tal": 2407,
      "plement": 2408,
      "ĠCent": 2409,
      "uary": 2410,
      "partial": 2411,
      "ocus": 2412,
      "actory": 2413,
      "argin": 2414,
      "Ġmatch": 2415,
      "lem": 2416,
      "Ġwithin": 2417,
      "omet": 2418,
      "Ġcolor": 2419,
      "ourn": 2420,
      "build": 2421,
      "ĠAll": 2422,
      "dom": 2423,
      "ibr": 2424,
      "ume": 2425,
      "Ġbecame": 2426,
      "ĠBrit": 2427,
      "atures": 2428,
      "Ass": 2429,
      "iod": 2430,
      "Ġresponse": 2431,
      "IL": 2432,
      "ators": 2433,
      "aving": 2434,
      "Stream": 2435,
      "Ġann": 2436,
      "Ad": 2437,
      "ustral": 2438,
      "ĠCounty": 2439,
      "Ġhelp": 2440,
      "Cell": 2441,
      "func": 2442,
      "Ġlarge": 2443,
      "Ġsong": 2444,
      "ĠPol": 2445,
      "Ġenc": 2446,
      "Ġknow": 2447,
      "Ġlife": 2448,
      "Ġchang": 2449,
      "ĠSet": 2450,
      "Ġwon": 2451,
      "CE": 2452,
      "Ġbound": 2453,
      "Ġbook": 2454,
      "atab": 2455,
      "aterial": 2456,
      "Ġaround": 2457,
      "pen": 2458,
      "Ġcap": 2459,
      "ĠWest": 2460,
      "Ġandroid": 2461,
      "Ġexper": 2462,
      "earch": 2463,
      "66": 2464,
      "And": 2465,
      "Ġarea": 2466,
      "Ðµ": 2467,
      "Ġlook": 2468,
      "}(\\": 2469,
      "Ġpub": 2470,
      "Bar": 2471,
      "Ġreal": 2472,
      "nu": 2473,
      "request": 2474,
      "ately": 2475,
      "Ġpolit": 2476,
      "Cl": 2477,
      "ning": 2478,
      "Ġmessage": 2479,
      "Ġstill": 2480,
      "AME": 2481,
      "query": 2482,
      "ĠWar": 2483,
      "ĠSouth": 2484,
      "Ġmusic": 2485,
      "current": 2486,
      "options": 2487,
      "Gener": 2488,
      "event": 2489,
      "button": 2490,
      "ĠCal": 2491,
      "ĠAug": 2492,
      "hes": 2493,
      "ĠĠĠĠĠĠĠĠĠĠĠĠĠĠĠĠĠĠĠĠĠĠĠĠĠĠĠĠĠĠĠ": 2494,
      "Ġprom": 2495,
      "Input": 2496,
      "ection": 2497,
      "Ġobtain": 2498,
      "where": 2499,
      "null": 2500,
      "erman": 2501,
      "acy": 2502,
      "US": 2503,
      "ique": 2504,
      "ead": 2505,
      "Ġtri": 2506,
      "Ġpo": 2507,
      "ĠGe": 2508,
      "Util": 2509,
      "ording": 2510,
      "nect": 2511,
      "Date": 2512,
      "90": 2513,
      "Ġorgan": 2514,
      "OT": 2515,
      "aff": 2516,
      "ĠIm": 2517,
      "Ġcomput": 2518,
      "Status": 2519,
      "alt": 2520,
      "eqref": 2521,
      "urther": 2522,
      "client": 2523,
      "asure": 2524,
      "ians": 2525,
      "ns": 2526,
      "Ġpower": 2527,
      "ords": 2528,
      "])": 2529,
      "ĠOct": 2530,
      "Ġinclude": 2531,
      "lib": 2532,
      "ĠĠĠĠĠĠĠĠĠĠĠĠĠĠĠĠĠ": 2533,
      "rel": 2534,
      "Ġlang": 2535,
      "usiness": 2536,
      "Ġdeath": 2537,
      "Ġdocument": 2538,
      "Ġwidth": 2539,
      "Ġaddress": 2540,
      "ung": 2541,
      "ained": 2542,
      "oud": 2543,
      "Ġconf": 2544,
      "icial": 2545,
      "Ġexpl": 2546,
      "Ġbackground": 2547,
      "Ġborder": 2548,
      "Ġwithout": 2549,
      "args": 2550,
      "ptember": 2551,
      "Ġnear": 2552,
      "ae": 2553,
      "ĠNULL": 2554,
      "End": 2555,
      "sim": 2556,
      "75": 2557,
      "Ġsk": 2558,
      "ober": 2559,
      "Ġproble": 2560,
      "Ġmuch": 2561,
      "viron": 2562,
      "Sub": 2563,
      "member": 2564,
      "Ġdel": 2565,
      "ĠGu": 2566,
      "IP": 2567,
      "oman": 2568,
      "icle": 2569,
      "Ġalong": 2570,
      "gress": 2571,
      "oop": 2572,
      "lose": 2573,
      "itive": 2574,
      "lex": 2575,
      "au": 2576,
      "Image": 2577,
      "finished": 2578,
      "((": 2579,
      "Ġcontrol": 2580,
      "Ġnetwork": 2581,
      "Ġwant": 2582,
      "respond": 2583,
      "Ġreport": 2584,
      "Par": 2585,
      "vision": 2586,
      "ampion": 2587,
      "hand": 2588,
      "39": 2589,
      "image": 2590,
      "Ġsum": 2591,
      "Ġ<<": 2592,
      "php": 2593,
      "omega": 2594,
      "semb": 2595,
      "dir": 2596,
      "mber": 2597,
      "Ġret": 2598,
      "Ġlaw": 2599,
      "Delta": 2600,
      "Ġpat": 2601,
      "Ġobserv": 2602,
      "Ġdue": 2603,
      "Ġperson": 2604,
      "Ġaction": 2605,
      "uted": 2606,
      "}$,": 2607,
      "Be": 2608,
      "Str": 2609,
      "Ġseveral": 2610,
      "Ġoutput": 2611,
      "istor": 2612,
      "ĉĊ": 2613,
      "Ġopt": 2614,
      "Ġcommand": 2615,
      "ram": 2616,
      "ted": 2617,
      "}$.": 2618,
      "Ġproperty": 2619,
      "ĠMarch": 2620,
      "31": 2621,
      "01": 2622,
      "Ġ($": 2623,
      "pril": 2624,
      "ĠThey": 2625,
      "Ġrange": 2626,
      "fty": 2627,
      "Block": 2628,
      "inition": 2629,
      "YPE": 2630,
      "Ġla": 2631,
      "ONT": 2632,
      "tilde": 2633,
      "Ġ->": 2634,
      "ĠBe": 2635,
      "has": 2636,
      "45": 2637,
      "run": 2638,
      "place": 2639,
      "aced": 2640,
      "|\\": 2641,
      "ĠWil": 2642,
      "Ġbu": 2643,
      "older": 2644,
      "chema": 2645,
      "2009": 2646,
      "Token": 2647,
      "arning": 2648,
      "|-": 2649,
      "ĠState": 2650,
      "Ġspace": 2651,
      "Ġmag": 2652,
      "ready": 2653,
      "ĠUS": 2654,
      "server": 2655,
      "Ġexist": 2656,
      "ĠEd": 2657,
      "ued": 2658,
      "infty": 2659,
      "undle": 2660,
      "Ġtake": 2661,
      "anel": 2662,
      "ending": 2663,
      "arr": 2664,
      "ories": 2665,
      "Ġgeneral": 2666,
      "unfinished": 2667,
      "struction": 2668,
      "ĠJanuary": 2669,
      "ĠTo": 2670,
      "36": 2671,
      "ĠAugust": 2672,
      "riter": 2673,
      "ze": 2674,
      "Ġeng": 2675,
      "ĠJune": 2676,
      "Ġsec": 2677,
      "Ġfa": 2678,
      "init": 2679,
      "Component": 2680,
      "ĠJuly": 2681,
      "Resource": 2682,
      "ales": 2683,
      "utions": 2684,
      "IR": 2685,
      "Ġaccess": 2686,
      "Ġanother": 2687,
      "stit": 2688,
      "ugg": 2689,
      "aper": 2690,
      "Ġdepend": 2691,
      "2008": 2692,
      "ĠSeptember": 2693,
      "Ġbest": 2694,
      "Ġ\"\"\"": 2695,
      "It": 2696,
      "height": 2697,
      "uster": 2698,
      "ĠTe": 2699,
      "rodu": 2700,
      "lege": 2701,
      "andom": 2702,
      "Ġprevious": 2703,
      "Lay": 2704,
      "Act": 2705,
      "Ġcour": 2706,
      "ĠčĊ": 2707,
      "Ed": 2708,
      "Ġbeh": 2709,
      "Sc": 2710,
      "Ġet": 2711,
      "bit": 2712,
      "leg": 2713,
      "imum": 2714,
      "Ġgood": 2715,
      "ilar": 2716,
      "Equal": 2717,
      "ynam": 2718,
      "Ġiss": 2719,
      "ways": 2720,
      "jav": 2721,
      "Ġimp": 2722,
      "atabase": 2723,
      "dec": 2724,
      "Ġcharacter": 2725,
      "icro": 2726,
      "opt": 2727,
      "Pos": 2728,
      "tx": 2729,
      "Base": 2730,
      "raft": 2731,
      "Instance": 2732,
      "37": 2733,
      "dl": 2734,
      "ards": 2735,
      "Ġins": 2736,
      "adding": 2737,
      "Ġshort": 2738,
      "Ġday": 2739,
      "Options": 2740,
      "Null": 2741,
      "Ġassoci": 2742,
      "cho": 2743,
      "ĠAustral": 2744,
      "cit": 2745,
      "ĠNo": 2746,
      "Ã¡": 2747,
      "ls": 2748,
      "Ġboolean": 2749,
      "38": 2750,
      "imal": 2751,
      "Ġdem": 2752,
      "aim": 2753,
      "EX": 2754,
      "ĠOctober": 2755,
      "urope": 2756,
      "Ġadv": 2757,
      "NS": 2758,
      "Ġexec": 2759,
      "[\"": 2760,
      "page": 2761,
      "prov": 2762,
      "ither": 2763,
      "ĠHowever": 2764,
      "55": 2765,
      "xy": 2766,
      "rows": 2767,
      "Ġtotal": 2768,
      "Off": 2769,
      "eqn": 2770,
      "reen": 2771,
      "tra": 2772,
      "Ġimage": 2773,
      "Line": 2774,
      "Ġregion": 2775,
      "urg": 2776,
      "cember": 2777,
      "oke": 2778,
      "ĠCity": 2779,
      "ĠApril": 2780,
      "Nav": 2781,
      "\\,": 2782,
      "Ġdon": 2783,
      "Ġformer": 2784,
      "Ġparent": 2785,
      "Ġrespect": 2786,
      "No": 2787,
      "capt": 2788,
      "Source": 2789,
      "frame": 2790,
      "Handler": 2791,
      "ugin": 2792,
      "active": 2793,
      "See": 2794,
      "adata": 2795,
      "witch": 2796,
      "append": 2797,
      "yles": 2798,
      "Ġ+=": 2799,
      "({": 2800,
      "Ġleg": 2801,
      "Ġdiv": 2802,
      "Ġchange": 2803,
      "Buffer": 2804,
      "posed": 2805,
      "Ġdefined": 2806,
      "Ġreleased": 2807,
      "raphics": 2808,
      "TO": 2809,
      "Ġsuper": 2810,
      "2007": 2811,
      "creen": 2812,
      "Run": 2813,
      "Ġabove": 2814,
      "Action": 2815,
      "Ġcar": 2816,
      "Ġmass": 2817,
      "ĠNorth": 2818,
      "REF": 2819,
      "Ġcell": 2820,
      "ĠRep": 2821,
      "App": 2822,
      "Dec": 2823,
      "ocial": 2824,
      "Ġmembers": 2825,
      "orage": 2826,
      "Ġfull": 2827,
      "Ġearly": 2828,
      "header": 2829,
      "Ġhttp": 2830,
      "oper": 2831,
      "Ġstat": 2832,
      "Ġbas": 2833,
      "Ġes": 2834,
      "inary": 2835,
      "illion": 2836,
      "ached": 2837,
      "ĠBy": 2838,
      "){": 2839,
      "0000": 2840,
      "anch": 2841,
      "Ġdesign": 2842,
      "idget": 2843,
      "unk": 2844,
      "Ġelect": 2845,
      "Ġvalid": 2846,
      "target": 2847,
      "energy": 2848,
      "ada": 2849,
      "Ġplayed": 2850,
      "iment": 2851,
      "Ġlength": 2852,
      "EL": 2853,
      "icense": 2854,
      "Ð¸": 2855,
      "ĠĠĠĠĠĠĠĠĊ": 2856,
      "ĠMin": 2857,
      "imation": 2858,
      "ĠCo": 2859,
      "2006": 2860,
      "ij": 2861,
      "Content": 2862,
      "Attribute": 2863,
      "cer": 2864,
      "Ġdom": 2865,
      "ham": 2866,
      "Ġcity": 2867,
      "ĠAb": 2868,
      "btn": 2869,
      "iple": 2870,
      "Ġhome": 2871,
      "vironment": 2872,
      "gor": 2873,
      "Comp": 2874,
      "erg": 2875,
      "OS": 2876,
      "Ġside": 2877,
      "parent": 2878,
      "Ġband": 2879,
      "pecial": 2880,
      "CK": 2881,
      "oto": 2882,
      "ilit": 2883,
      "ography": 2884,
      "Ġalign": 2885,
      "child": 2886,
      "osed": 2887,
      "Ġavailable": 2888,
      "xi": 2889,
      "alf": 2890,
      "EE": 2891,
      "FA": 2892,
      "ĠTest": 2893,
      "ĠAdd": 2894,
      "ategory": 2895,
      "Task": 2896,
      "Ġca": 2897,
      "Ġke": 2898,
      "Ġvol": 2899,
      "Ġport": 2900,
      "Ġspe": 2901,
      "ĠNovember": 2902,
      "ĠII": 2903,
      "born": 2904,
      "ĠPart": 2905,
      "Style": 2906,
      "ĠSup": 2907,
      "mark": 2908,
      "umb": 2909,
      "thern": 2910,
      "Oper": 2911,
      "ables": 2912,
      "Ġcount": 2913,
      "Ġfore": 2914,
      "Ġlarg": 2915,
      "ster": 2916,
      "Select": 2917,
      "Ġtechn": 2918,
      "flow": 2919,
      "nown": 2920,
      "otype": 2921,
      "ĠĠĠĠĠĠĠĠĠĠĠĠĠĠ": 2922,
      "Link": 2923,
      "select": 2924,
      "Ġfre": 2925,
      "Ġlabel": 2926,
      "yl": 2927,
      "ĠGener": 2928,
      "json": 2929,
      "ana": 2930,
      "SP": 2931,
      "ĠDecember": 2932,
      "ĠFeb": 2933,
      "ysis": 2934,
      "imate": 2935,
      "05": 2936,
      "Ġexpected": 2937,
      "2000": 2938,
      "Ġland": 2939,
      "imary": 2940,
      "Command": 2941,
      "Ġpage": 2942,
      "used": 2943,
      "uture": 2944,
      "Ġmember": 2945,
      "src": 2946,
      "tributes": 2947,
      "\"]": 2948,
      "ĠBo": 2949,
      "Factory": 2950,
      "OL": 2951,
      "Start": 2952,
      "Em": 2953,
      "izer": 2954,
      "Ġhost": 2955,
      "iff": 2956,
      "Ap": 2957,
      "sg": 2958,
      "cm": 2959,
      "ruary": 2960,
      "property": 2961,
      "Window": 2962,
      "Ġrequired": 2963,
      "Default": 2964,
      "Ġprof": 2965,
      "If": 2966,
      "2020": 2967,
      "post": 2968,
      "Ġmajor": 2969,
      "AP": 2970,
      "ĠBritish": 2971,
      "ibility": 2972,
      "Ġcorrespond": 2973,
      "xml": 2974,
      "status": 2975,
      "hip": 2976,
      "eed": 2977,
      "orem": 2978,
      "ney": 2979,
      "ocol": 2980,
      "ĠEurope": 2981,
      "LASS": 2982,
      "non": 2983,
      "Ġweek": 2984,
      "lor": 2985,
      "Function": 2986,
      "ops": 2987,
      "Ġassum": 2988,
      "uman": 2989,
      "ude": 2990,
      "Ġcur": 2991,
      "UE": 2992,
      "idge": 2993,
      "Ġtrack": 2994,
      "Ġrole": 2995,
      "Ġwomen": 2996,
      "era": 2997,
      "$$": 2998,
      "now": 2999,
      "}[": 3000,
      "caption": 3001,
      "case": 3002,
      "Ġgovernment": 3003,
      "ĠMed": 3004,
      "ÑĤ": 3005,
      "ones": 3006,
      "AG": 3007,
      "df": 3008,
      "module": 3009,
      "Version": 3010,
      "ĠLeague": 3011,
      "ured": 3012,
      "navbar": 3013,
      "ĠNone": 3014,
      "MS": 3015,
      "ponents": 3016,
      "}}\\": 3017,
      "open": 3018,
      "70": 3019,
      "apan": 3020,
      "Ġturn": 3021,
      "ĠSer": 3022,
      "44": 3023,
      "ialog": 3024,
      "gorith": 3025,
      "rl": 3026,
      "cul": 3027,
      "ino": 3028,
      "ptr": 3029,
      "do": 3030,
      "write": 3031,
      "ATE": 3032,
      "resh": 3033,
      "Ġcompet": 3034,
      "first": 3035,
      "ĠObject": 3036,
      "Ġtyp": 3037,
      "ention": 3038,
      "ĠKing": 3039,
      "atform": 3040,
      "adio": 3041,
      "Sp": 3042,
      "cor": 3043,
      "ama": 3044,
      "OP": 3045,
      "rect": 3046,
      "Ġdisplay": 3047,
      "pol": 3048,
      "Point": 3049,
      "lied": 3050,
      "GL": 3051,
      "description": 3052,
      "element": 3053,
      "bottom": 3054,
      "Ġpoints": 3055,
      "Ġcompany": 3056,
      "ĠMan": 3057,
      "buf": 3058,
      "Pol": 3059,
      "Frame": 3060,
      "ĠRec": 3061,
      "dr": 3062,
      "Ġmat": 3063,
      "ites": 3064,
      "Ġparameter": 3065,
      "Ð½": 3066,
      "Ġinterest": 3067,
      "HT": 3068,
      "cdot": 3069,
      "Ġaff": 3070,
      "sequ": 3071,
      "ĠChrist": 3072,
      "ependent": 3073,
      "ĠĠĠĠĠĠĠĠĠĠĠĠĊ": 3074,
      "ampionship": 3075,
      "Ġfew": 3076,
      "Ġparticular": 3077,
      "Ġparameters": 3078,
      "sembly": 3079,
      "Part": 3080,
      "Ġ{@": 3081,
      "meta": 3082,
      "ours": 3083,
      "rest": 3084,
      "gle": 3085,
      "rowser": 3086,
      "epar": 3087,
      "Ġperiod": 3088,
      "Ġnamed": 3089,
      "Ġclient": 3090,
      "True": 3091,
      "Ġrest": 3092,
      "2005": 3093,
      "igation": 3094,
      "strong": 3095,
      "Ġsl": 3096,
      "VER": 3097,
      "ĠMc": 3098,
      "''": 3099,
      "Ġdest": 3100,
      "Ġtele": 3101,
      "Number": 3102,
      "push": 3103,
      "Ġthrows": 3104,
      "Us": 3105,
      "psi": 3106,
      "rior": 3107,
      "ĠAfter": 3108,
      "Ġtask": 3109,
      "Ġchildren": 3110,
      "hem": 3111,
      "*/": 3112,
      "find": 3113,
      "OD": 3114,
      "amil": 3115,
      "Ġep": 3116,
      "ĠThere": 3117,
      "endif": 3118,
      "${": 3119,
      "ansport": 3120,
      "Ġlow": 3121,
      "Ġsection": 3122,
      "ĠFebruary": 3123,
      "~~": 3124,
      "ĠInt": 3125,
      "ĠFig": 3126,
      "rew": 3127,
      "gener": 3128,
      "ĠIN": 3129,
      "private": 3130,
      "egr": 3131,
      "Ġbirths": 3132,
      "Ġprotected": 3133,
      "ped": 3134,
      "Ġcreated": 3135,
      "char": 3136,
      "rench": 3137,
      "(&": 3138,
      "pc": 3139,
      "Ġsimilar": 3140,
      "host": 3141,
      "Row": 3142,
      "Filter": 3143,
      "Ġnum": 3144,
      "Ġtimes": 3145,
      "istic": 3146,
      "len": 3147,
      "Prov": 3148,
      "si": 3149,
      "48": 3150,
      "Ġhistory": 3151,
      "last": 3152,
      "Ġfeature": 3153,
      "century": 3154,
      "Hel": 3155,
      "display": 3156,
      "Ġenergy": 3157,
      "book": 3158,
      "Ġder": 3159,
      "});": 3160,
      "Ġheight": 3161,
      "Ġq": 3162,
      "ĠDes": 3163,
      "oice": 3164,
      "acing": 3165,
      "mo": 3166,
      "Ġlay": 3167,
      "ĠReturn": 3168,
      "Ġreceived": 3169,
      "ĠClass": 3170,
      "lim": 3171,
      "Ġcolumn": 3172,
      "Ġdeterm": 3173,
      "Ġalready": 3174,
      "png": 3175,
      "Ġprint": 3176,
      "foot": 3177,
      "Ġfree": 3178,
      "cy": 3179,
      "CC": 3180,
      "Ġtown": 3181,
      "Ġpossible": 3182,
      "stream": 3183,
      ")$.": 3184,
      "std": 3185,
      "img": 3186,
      "PRO": 3187,
      "epsilon": 3188,
      "Ġload": 3189,
      "ought": 3190,
      "FI": 3191,
      "Ġcomb": 3192,
      "âĢľ": 3193,
      "Equals": 3194,
      "signed": 3195,
      "Ġresource": 3196,
      "ered": 3197,
      "Ġredu": 3198,
      ",\"": 3199,
      "only": 3200,
      "Ġauthor": 3201,
      "aps": 3202,
      "adem": 3203,
      "stand": 3204,
      "Ġfilms": 3205,
      "na": 3206,
      "07": 3207,
      "Ġsat": 3208,
      "omic": 3209,
      "Ġdescribed": 3210,
      "eople": 3211,
      "ĠRob": 3212,
      "Fl": 3213,
      "Create": 3214,
      "Ġproduct": 3215,
      "Ġcareer": 3216,
      "Label": 3217,
      "ĠDr": 3218,
      "ering": 3219,
      "cell": 3220,
      "Ġwhe": 3221,
      "FONT": 3222,
      "mt": 3223,
      "Ġden": 3224,
      "anagement": 3225,
      "}_{\\": 3226,
      "Ġevents": 3227,
      "ights": 3228,
      "imension": 3229,
      "vers": 3230,
      "uation": 3231,
      "Return": 3232,
      "ĉĉĉĉĉĉĉĉ": 3233,
      "layout": 3234,
      "Ġmeasure": 3235,
      "Ġbody": 3236,
      "2004": 3237,
      "font": 3238,
      "Om": 3239,
      "mult": 3240,
      "local": 3241,
      "lip": 3242,
      ")(": 3243,
      "project": 3244,
      "bm": 3245,
      "heet": 3246,
      "ĠDef": 3247,
      "ifact": 3248,
      "ĠCont": 3249,
      "Ġ((": 3250,
      "04": 3251,
      "close": 3252,
      "pected": 3253,
      "Ġtook": 3254,
      "py": 3255,
      "////////////////": 3256,
      "08": 3257,
      "ĠBar": 3258,
      "reet": 3259,
      "eqnarray": 3260,
      "sole": 3261,
      "apping": 3262,
      "Read": 3263,
      "Ġspecial": 3264,
      "Ġheld": 3265,
      "Ġant": 3266,
      "Ġprob": 3267,
      "ese": 3268,
      "Check": 3269,
      "Ġless": 3270,
      "det": 3271,
      "ĠHigh": 3272,
      "pose": 3273,
      "though": 3274,
      "Controller": 3275,
      "aves": 3276,
      ".âĢĿ": 3277,
      "vis": 3278,
      "ascript": 3279,
      "idual": 3280,
      "udio": 3281,
      "ĠQu": 3282,
      "obj": 3283,
      "require": 3284,
      "ql": 3285,
      "mar": 3286,
      "ÑĢ": 3287,
      "Ġmodels": 3288,
      "Ġcover": 3289,
      "ĠCor": 3290,
      "inst": 3291,
      "Ġoption": 3292,
      "sqrt": 3293,
      "Ġindic": 3294,
      "Ġextends": 3295,
      "allet": 3296,
      "Button": 3297,
      "change": 3298,
      "Ġwindow": 3299,
      "ocket": 3300,
      "Ġmove": 3301,
      "ensor": 3302,
      "draw": 3303,
      "Ã³": 3304,
      "Ġbuilt": 3305,
      "thers": 3306,
      "itory": 3307,
      "///": 3308,
      "pack": 3309,
      "lections": 3310,
      "Met": 3311,
      "Ġarch": 3312,
      "Ġcert": 3313,
      "iler": 3314,
      "Ob": 3315,
      "entry": 3316,
      "âĢĶ": 3317,
      "clus": 3318,
      "ĠMe": 3319,
      "atal": 3320,
      "Ġbegan": 3321,
      "Ġintrodu": 3322,
      "ĠEnglish": 3323,
      "eline": 3324,
      "aul": 3325,
      "level": 3326,
      "oding": 3327,
      "igger": 3328,
      "Ġeither": 3329,
      "ille": 3330,
      "02": 3331,
      "Sup": 3332,
      "ittle": 3333,
      "lies": 3334,
      "Ġstatus": 3335,
      "eder": 3336,
      "ĠHis": 3337,
      "sol": 3338,
      "iet": 3339,
      "Ġurl": 3340,
      "Ġra": 3341,
      "Child": 3342,
      "params": 3343,
      "num": 3344,
      "Ext": 3345,
      "06": 3346,
      "Ġhouse": 3347,
      "Ġmean": 3348,
      "ĠAct": 3349,
      "Ġinvest": 3350,
      "oph": 3351,
      "ĠComp": 3352,
      "Ġbusiness": 3353,
      "ges": 3354,
      "First": 3355,
      "Ġstudy": 3356,
      "mit": 3357,
      "Ġgames": 3358,
      "dict": 3359,
      "ĠChar": 3360,
      "response": 3361,
      "ABLE": 3362,
      "container": 3363,
      "SC": 3364,
      "Ġdeb": 3365,
      "textbf": 3366,
      "format": 3367,
      "Page": 3368,
      "Ġclub": 3369,
      "mem": 3370,
      "Ġshown": 3371,
      "ondon": 3372,
      "ynt": 3373,
      "subsection": 3374,
      "SON": 3375,
      "ensity": 3376,
      "ington": 3377,
      "Ġput": 3378,
      "Ġlate": 3379,
      "Ġarr": 3380,
      "update": 3381,
      "Gr": 3382,
      "small": 3383,
      "ĠWhen": 3384,
      "American": 3385,
      "Format": 3386,
      "attr": 3387,
      "\").": 3388,
      "Ġplayer": 3389,
      "istry": 3390,
      "INT": 3391,
      "Ġmargin": 3392,
      "uid": 3393,
      "Ġappear": 3394,
      "ĠVal": 3395,
      "Ġred": 3396,
      "ably": 3397,
      "Ġthird": 3398,
      "Listener": 3399,
      "refix": 3400,
      "Ġsample": 3401,
      "Ġshows": 3402,
      "Ġincluded": 3403,
      "Output": 3404,
      "ising": 3405,
      "^*": 3406,
      "Ġlocated": 3407,
      "idden": 3408,
      "roy": 3409,
      "iddle": 3410,
      "Ġpopulation": 3411,
      "ĠAp": 3412,
      "can": 3413,
      "inner": 3414,
      "ught": 3415,
      "_.": 3416,
      "ibrary": 3417,
      "aly": 3418,
      "Ġsite": 3419,
      "Ġsay": 3420,
      "soft": 3421,
      "board": 3422,
      "Big": 3423,
      "chi": 3424,
      "ogn": 3425,
      "Ġcatch": 3426,
      "cil": 3427,
      "ĠAir": 3428,
      "annot": 3429,
      "ently": 3430,
      "Ġaccount": 3431,
      "filter": 3432,
      "artment": 3433,
      "Box": 3434,
      "Ġimplement": 3435,
      "Ġ<!--": 3436,
      "Ġmodule": 3437,
      "Omega": 3438,
      "Ġstrong": 3439,
      "Ġproblem": 3440,
      "Ġestablished": 3441,
      "ĠBut": 3442,
      "TYPE": 3443,
      "ĠAfr": 3444,
      "Bundle": 3445,
      "Back": 3446,
      "Ġpot": 3447,
      "ĠJapan": 3448,
      "service": 3449,
      "ĠCoun": 3450,
      "menu": 3451,
      "Ġvill": 3452,
      "\"),": 3453,
      "uccess": 3454,
      "mon": 3455,
      "aken": 3456,
      "Ġimportant": 3457,
      "UI": 3458,
      "ERT": 3459,
      "stract": 3460,
      "po": 3461,
      "rown": 3462,
      "Ġfive": 3463,
      "proto": 3464,
      "HE": 3465,
      "Ġsix": 3466,
      "Gamma": 3467,
      "istrict": 3468,
      "ĠWith": 3469,
      "Ġlimit": 3470,
      "Ġage": 3471,
      "Ġdouble": 3472,
      "Ġreturned": 3473,
      "Last": 3474,
      "Ġnational": 3475,
      "ĠSo": 3476,
      "mm": 3477,
      "Ġframe": 3478,
      "Ġlanguage": 3479,
      "ament": 3480,
      "Ġconnection": 3481,
      "irection": 3482,
      "Ġconstruct": 3483,
      "IM": 3484,
      "TP": 3485,
      "NO": 3486,
      "Mem": 3487,
      "Length": 3488,
      "Valid": 3489,
      "Ġsent": 3490,
      "cel": 3491,
      "ensure": 3492,
      "Ġclose": 3493,
      "irm": 3494,
      "UM": 3495,
      "Ġvert": 3496,
      "Ġthink": 3497,
      "Address": 3498,
      "<?": 3499,
      "AM": 3500,
      "wise": 3501,
      "09": 3502,
      "Column": 3503,
      "javascript": 3504,
      "Ġupdate": 3505,
      "Ġcrit": 3506,
      "olved": 3507,
      "yd": 3508,
      "apter": 3509,
      "unic": 3510,
      "Ġsequ": 3511,
      "Ent": 3512,
      "BU": 3513,
      "exp": 3514,
      "Ġleast": 3515,
      "URL": 3516,
      "Ġpublished": 3517,
      "ĠEast": 3518,
      "Char": 3519,
      "Ġcamp": 3520,
      "psilon": 3521,
      "Ġstructure": 3522,
      "Ġ]": 3523,
      "2003": 3524,
      "Ġstation": 3525,
      "Ġrelation": 3526,
      "Ġauto": 3527,
      "65": 3528,
      "cap": 3529,
      "Ġresearch": 3530,
      "ĉĠĠĠ": 3531,
      "ĠOff": 3532,
      "vari": 3533,
      "Rep": 3534,
      "gl": 3535,
      ")$,": 3536,
      "ii": 3537,
      "dev": 3538,
      "03": 3539,
      "Ġwater": 3540,
      "ãģ": 3541,
      "ĠAmer": 3542,
      "Ġ``": 3543,
      "Ġspecified": 3544,
      "Ġserver": 3545,
      "oo": 3546,
      "Tem": 3547,
      "ford": 3548,
      "Ġcopy": 3549,
      "ĠPres": 3550,
      "Pre": 3551,
      "Ġhapp": 3552,
      "Ġlight": 3553,
      "main": 3554,
      "itted": 3555,
      "inning": 3556,
      "Ġelements": 3557,
      "process": 3558,
      "igin": 3559,
      "ĠCLASS": 3560,
      "ĠHREF": 3561,
      "ĠRuss": 3562,
      "ÃŃ": 3563,
      "Ġair": 3564,
      "rs": 3565,
      "Ġprovided": 3566,
      "Ġmethods": 3567,
      "Mode": 3568,
      "ĠPhil": 3569,
      "ĠPark": 3570,
      "Aut": 3571,
      "Ġgl": 3572,
      "Ġfurther": 3573,
      "Ġeduc": 3574,
      "Ġide": 3575,
      "ha": 3576,
      "CON": 3577,
      "ĠCollege": 3578,
      "hel": 3579,
      "ĠThese": 3580,
      "ĠLondon": 3581,
      "igr": 3582,
      "Det": 3583,
      "Ġterms": 3584,
      "erefore": 3585,
      "attle": 3586,
      "clear": 3587,
      "number": 3588,
      "ring": 3589,
      "Ġquant": 3590,
      "2001": 3591,
      "gen": 3592,
      "ĠDav": 3593,
      "Ġconc": 3594,
      "ERR": 3595,
      "styles": 3596,
      "Ġinternal": 3597,
      "ĠSw": 3598,
      "rangle": 3599,
      "ĠDis": 3600,
      "efined": 3601,
      "}=": 3602,
      "```": 3603,
      "ĠArt": 3604,
      "Ġsepar": 3605,
      "Ġaver": 3606,
      "ĠMon": 3607,
      "ĠOne": 3608,
      "otion": 3609,
      "Ġoften": 3610,
      "Ġwritten": 3611,
      "Cache": 3612,
      "Ġcustom": 3613,
      "actions": 3614,
      "IO": 3615,
      "ging": 3616,
      "Ab": 3617,
      "remove": 3618,
      "pass": 3619,
      "Ġtoo": 3620,
      "atas": 3621,
      "Server": 3622,
      "Ġbuilding": 3623,
      "Ġsearch": 3624,
      "ief": 3625,
      ":</": 3626,
      "Web": 3627,
      "ĠLa": 3628,
      "Ġattack": 3629,
      "Acc": 3630,
      "ves": 3631,
      "tag": 3632,
      "Spec": 3633,
      "ĠPer": 3634,
      "Ġperformance": 3635,
      "ĠGo": 3636,
      "anged": 3637,
      "88": 3638,
      "Ġwrite": 3639,
      "ks": 3640,
      "ald": 3641,
      "abor": 3642,
      "ias": 3643,
      "ouch": 3644,
      "instance": 3645,
      "prototype": 3646,
      "gorithm": 3647,
      "Layout": 3648,
      "ĠGL": 3649,
      "tool": 3650,
      "ftware": 3651,
      "Ġsom": 3652,
      "Ġpay": 3653,
      "Wh": 3654,
      "').": 3655,
      "fe": 3656,
      "ĠHouse": 3657,
      "^{(": 3658,
      "orph": 3659,
      "ological": 3660,
      "Ġstates": 3661,
      "final": 3662,
      "BC": 3663,
      "column": 3664,
      "Ġdiscuss": 3665,
      "Ġproperties": 3666,
      "Ġvideo": 3667,
      "aml": 3668,
      "known": 3669,
      "Ġamong": 3670,
      "Ġdate": 3671,
      "emph": 3672,
      "Ġfont": 3673,
      "Ġver": 3674,
      "AA": 3675,
      "Ġfunctions": 3676,
      "offset": 3677,
      "Ġobj": 3678,
      "}^{\\": 3679,
      "Ġofficial": 3680,
      "ĠAm": 3681,
      "ĠBro": 3682,
      "Ġnever": 3683,
      "95": 3684,
      "urb": 3685,
      "Ġhaving": 3686,
      "ĠNot": 3687,
      "Ġcoll": 3688,
      "++)": 3689,
      "ĠID": 3690,
      "acity": 3691,
      "ilitary": 3692,
      "unit": 3693,
      "Ġdev": 3694,
      "2021": 3695,
      "Ġ[]": 3696,
      "output": 3697,
      "Ġcallback": 3698,
      "ĠSch": 3699,
      "uggest": 3700,
      "show": 3701,
      "Ġcountry": 3702,
      "cs": 3703,
      "ulture": 3704,
      "ĠWilliam": 3705,
      "Ġvia": 3706,
      "ference": 3707,
      "Ġphys": 3708,
      "iol": 3709,
      "egraphics": 3710,
      "Ġannoun": 3711,
      "67": 3712,
      "includegraphics": 3713,
      "Ġmen": 3714,
      "Ġformat": 3715,
      ">>": 3716,
      "Ġfri": 3717,
      "Per": 3718,
      "Ġfeatures": 3719,
      "vare": 3720,
      "Ġadded": 3721,
      "most": 3722,
      "Ð¾Ð": 3723,
      "COL": 3724,
      "arried": 3725,
      "rict": 3726,
      "Ġ!==": 3727,
      "Se": 3728,
      "scope": 3729,
      "Ġalways": 3730,
      "else": 3731,
      "47": 3732,
      "Ġgrad": 3733,
      "eleg": 3734,
      "Ġsignific": 3735,
      "reference": 3736,
      "Ġmiss": 3737,
      "Ġdeg": 3738,
      "Ġdone": 3739,
      "ĠFrench": 3740,
      "ply": 3741,
      "Ġbecome": 3742,
      "Url": 3743,
      "2002": 3744,
      "Ġclaim": 3745,
      "ĠDo": 3746,
      "Ġgreat": 3747,
      "Ñģ": 3748,
      "After": 3749,
      "Ġvarious": 3750,
      "Ġspect": 3751,
      "ceed": 3752,
      "oll": 3753,
      "ires": 3754,
      "Ã¼": 3755,
      "ĠEX": 3756,
      "IZ": 3757,
      "lease": 3758,
      "Ġgen": 3759,
      "Ġworks": 3760,
      "adius": 3761,
      "medi": 3762,
      "rypt": 3763,
      "Ġ${\\": 3764,
      "ĠHer": 3765,
      "Provider": 3766,
      "Ġround": 3767,
      "ements": 3768,
      "Ġcross": 3769,
      "bor": 3770,
      "ĠUp": 3771,
      "ĠStr": 3772,
      "ociation": 3773,
      "ries": 3774,
      "command": 3775,
      "wrap": 3776,
      "Update": 3777,
      "exec": 3778,
      "Ġrow": 3779,
      "Ġfields": 3780,
      "idence": 3781,
      "Ġeas": 3782,
      "Ġserved": 3783,
      "ĠAPI": 3784,
      "Rem": 3785,
      "********************************": 3786,
      "ĠHT": 3787,
      "ordin": 3788,
      "Sec": 3789,
      "Ġspecies": 3790,
      "Ġfollows": 3791,
      "iber": 3792,
      "ournal": 3793,
      "PC": 3794,
      "Ġassociated": 3795,
      "NAME": 3796,
      "Ġinterface": 3797,
      "icient": 3798,
      "criptor": 3799,
      "Ġcentury": 3800,
      "Ġwhether": 3801,
      "lit": 3802,
      "Ġprovide": 3803,
      "Ġquest": 3804,
      ")=": 3805,
      "ĠĠĠĠĠĠĠĠĠĠĠĠĠĠĠĠĠĠĠĠĠĠĠĠĠĠĠĠĠĠĠĠĠĠĠ": 3806,
      "sm": 3807,
      "Target": 3808,
      "(_": 3809,
      "varepsilon": 3810,
      "Ġsche": 3811,
      "ensions": 3812,
      "49": 3813,
      "Ġnav": 3814,
      "ĠHar": 3815,
      "returns": 3816,
      "Ġbelow": 3817,
      "ico": 3818,
      "Ġfac": 3819,
      "aries": 3820,
      "Offset": 3821,
      "DB": 3822,
      "Ġtrad": 3823,
      "Ġglobal": 3824,
      "common": 3825,
      "Ġdevelopment": 3826,
      "ĠSim": 3827,
      "Ġdistribution": 3828,
      "ĠFile": 3829,
      "Ġtw": 3830,
      "agn": 3831,
      "Ġnone": 3832,
      "Ġinstead": 3833,
      "Ġlower": 3834,
      "Parameter": 3835,
      "isf": 3836,
      "ND": 3837,
      "Ġrecent": 3838,
      "Ġspecific": 3839,
      "Ġengine": 3840,
      "Ġindiv": 3841,
      "Ġnormal": 3842,
      "Ġstory": 3843,
      "ãĥ": 3844,
      "ids": 3845,
      "bind": 3846,
      "lying": 3847,
      "iqu": 3848,
      "Ġcontains": 3849,
      "Ġclear": 3850,
      "oriz": 3851,
      "Ġ...": 3852,
      "sf": 3853,
      "long": 3854,
      "Ġstarted": 3855,
      "Access": 3856,
      "ĠAc": 3857,
      "Ġmeans": 3858,
      "Ġsuff": 3859,
      "ĠDistrict": 3860,
      "ĠChampionship": 3861,
      "year": 3862,
      "Ġquery": 3863,
      "Ġbetter": 3864,
      "ĠDep": 3865,
      "}).": 3866,
      "plit": 3867,
      "Ġflow": 3868,
      "Width": 3869,
      "ula": 3870,
      "vec": 3871,
      "task": 3872,
      "Ġcost": 3873,
      "Ġborn": 3874,
      "rightarrow": 3875,
      "layer": 3876,
      ".~\\": 3877,
      "uint": 3878,
      "Ġmight": 3879,
      "ĠLicense": 3880,
      "Ġtoget": 3881,
      "Ġrepl": 3882,
      "Ġselect": 3883,
      "ĠRev": 3884,
      "bool": 3885,
      "ĠInternational": 3886,
      "Types": 3887,
      "Ġtogether": 3888,
      "Ġdiff": 3889,
      "Ġfail": 3890,
      "Ġmode": 3891,
      "utils": 3892,
      "CL": 3893,
      "ocr": 3894,
      "ĠSec": 3895,
      "Ġ**": 3896,
      "ĠOF": 3897,
      "ĠArray": 3898,
      "support": 3899,
      "depend": 3900,
      "Ġcontrib": 3901,
      "asing": 3902,
      "ĠRed": 3903,
      "Vis": 3904,
      "ka": 3905,
      "Ġonce": 3906,
      "########": 3907,
      "Ġ\\,": 3908,
      "Ġfiles": 3909,
      "Ġsem": 3910,
      "Ġcomplex": 3911,
      "template": 3912,
      "Ġcou": 3913,
      "Ġblack": 3914,
      "ĠNor": 3915,
      "()->": 3916,
      "Ġconsidered": 3917,
      "History": 3918,
      "Ġpract": 3919,
      "Ġoperation": 3920,
      "atural": 3921,
      "kit": 3922,
      "ĠMich": 3923,
      "ĠGerman": 3924,
      "Ġmedia": 3925,
      "Ġdistrict": 3926,
      "Ġgraph": 3927,
      "float": 3928,
      "[\\": 3929,
      "window": 3930,
      "example": 3931,
      "Ġargs": 3932,
      "Max": 3933,
      "Ġtypes": 3934,
      "itect": 3935,
      "Ġtelevision": 3936,
      "Container": 3937,
      "empty": 3938,
      "Case": 3939,
      "Ġcommunity": 3940,
      "plicit": 3941,
      "prop": 3942,
      "Ġcommon": 3943,
      "Ġpotential": 3944,
      "Let": 3945,
      "ills": 3946,
      "ĠCup": 3947,
      "Ġperm": 3948,
      "tempt": 3949,
      "ĠQue": 3950,
      "varphi": 3951,
      "Ġstream": 3952,
      "ministr": 3953,
      "encies": 3954,
      "Ġyoung": 3955,
      "Entity": 3956,
      "ĠTrans": 3957,
      "alle": 3958,
      "ty": 3959,
      "skip": 3960,
      "ises": 3961,
      "ingle": 3962,
      "ba": 3963,
      "Ġdays": 3964,
      "parse": 3965,
      "Ġwar": 3966,
      "Ġfund": 3967,
      "Ġinit": 3968,
      "olve": 3969,
      "spec": 3970,
      "Ġmillion": 3971,
      "Min": 3972,
      "avel": 3973,
      "iforn": 3974,
      "II": 3975,
      "77": 3976,
      "ĠInter": 3977,
      "]);": 3978,
      "Ġhard": 3979,
      "geq": 3980,
      "oment": 3981,
      "Ġlocation": 3982,
      "Ġgroups": 3983,
      "Entry": 3984,
      "artifact": 3985,
      "Tag": 3986,
      "Ġjob": 3987,
      "ilities": 3988,
      "Ġreview": 3989,
      "fa": 3990,
      "match": 3991,
      "1999": 3992,
      "ĠType": 3993,
      "essages": 3994,
      "Header": 3995,
      "Ġseen": 3996,
      "background": 3997,
      "istics": 3998,
      "lymp": 3999,
      "Ġfilter": 4000,
      "ĠAg": 4001,
      "Write": 4002,
      "andid": 4003,
      "Ġindividual": 4004,
      "ãĤ": 4005,
      "Ġplan": 4006,
      "Ġacross": 4007,
      "Ġfar": 4008,
      "Ġhowever": 4009,
      "Ġge": 4010,
      "afe": 4011,
      "Ġneg": 4012,
      "Ġuint": 4013,
      "Ġunit": 4014,
      "dep": 4015,
      "hib": 4016,
      "ifornia": 4017,
      "Ġapprox": 4018,
      "thing": 4019,
      "Ġ::": 4020,
      "orge": 4021,
      "cache": 4022,
      "based": 4023,
      "Ġlen": 4024,
      "42": 4025,
      "aged": 4026,
      ")]": 4027,
      ".}": 4028,
      "Ġstandard": 4029,
      "iding": 4030,
      "ĠEm": 4031,
      "Ġgoing": 4032,
      "Utils": 4033,
      "Ġinf": 4034,
      "Open": 4035,
      "oved": 4036,
      "Process": 4037,
      "ĠSan": 4038,
      "ara": 4039,
      "Ġcame": 4040,
      "verse": 4041,
      "Ġphot": 4042,
      "queue": 4043,
      "ication": 4044,
      "sd": 4045,
      "ociety": 4046,
      "Ġhalf": 4047,
      "46": 4048,
      "./": 4049,
      "eh": 4050,
      "Ġpair": 4051,
      "85": 4052,
      "Configuration": 4053,
      "Ã¤": 4054,
      "Ġsw": 4055,
      "iven": 4056,
      "proof": 4057,
      "ĠMy": 4058,
      "Ġservices": 4059,
      "Ġnov": 4060,
      "ĠEl": 4061,
      "ĠIr": 4062,
      "....": 4063,
      "Ġmatrix": 4064,
      "Ġindu": 4065,
      "Ġsym": 4066,
      "=\"../../../../../": 4067,
      "oney": 4068,
      "Ġrate": 4069,
      "Control": 4070,
      "Connection": 4071,
      "Ġreference": 4072,
      "oon": 4073,
      "overline": 4074,
      "Ġ{}": 4075,
      "Ġapplication": 4076,
      "unch": 4077,
      "Ġsignificant": 4078,
      "Ġaddition": 4079,
      "Ġsystems": 4080,
      ";->": 4081,
      "Ġnorth": 4082,
      "ĠIndian": 4083,
      "'),": 4084,
      "ael": 4085,
      "izing": 4086,
      "Ġable": 4087,
      "=\"-": 4088,
      "Ġtraining": 4089,
      "Ġfloat": 4090,
      "Tree": 4091,
      ".\\": 4092,
      "Top": 4093,
      "avy": 4094,
      "wait": 4095,
      "PO": 4096,
      "osp": 4097,
      "CODE": 4098,
      "Ġda": 4099,
      "ĠâĢĺ": 4100,
      "Ġear": 4101,
      "Med": 4102,
      "Ġstep": 4103,
      "Bo": 4104,
      "ellow": 4105,
      "De": 4106,
      "\"))": 4107,
      "ems": 4108,
      "Interface": 4109,
      "uel": 4110,
      "aker": 4111,
      "buffer": 4112,
      "ULT": 4113,
      "Ġtre": 4114,
      "Ġdied": 4115,
      "Ġbuffer": 4116,
      "UP": 4117,
      "Ġgrow": 4118,
      "Thread": 4119,
      "Ġmaking": 4120,
      "Next": 4121,
      "Ġcases": 4122,
      "Ġcenter": 4123,
      "Json": 4124,
      "ota": 4125,
      "ĠAustralia": 4126,
      "&\\": 4127,
      "Ġchanges": 4128,
      "ĉĉĉĉĉĉĉ": 4129,
      "ĠData": 4130,
      "otal": 4131,
      "Ġattempt": 4132,
      "Ġoffset": 4133,
      "Ġaverage": 4134,
      "should": 4135,
      "Ġreturns": 4136,
      "Level": 4137,
      "IV": 4138,
      "Work": 4139,
      "Ġroot": 4140,
      "iers": 4141,
      "CD": 4142,
      "ĠAcc": 4143,
      "Ġship": 4144,
      "omb": 4145,
      "lier": 4146,
      "Ġson": 4147,
      "Ġworking": 4148,
      "Ge": 4149,
      "ades": 4150,
      ",âĢĿ": 4151,
      "Load": 4152,
      "Ġstop": 4153,
      "},\\": 4154,
      "Ġnec": 4155,
      "ged": 4156,
      "ounds": 4157,
      "Ġfocus": 4158,
      "Range": 4159,
      "Ġselected": 4160,
      "Ġrelease": 4161,
      "ris": 4162,
      "Ġsocial": 4163,
      "lands": 4164,
      "Ġkeep": 4165,
      "aven": 4166,
      "Ġmultiple": 4167,
      "Ġproduction": 4168,
      "ients": 4169,
      "scale": 4170,
      "Ġlines": 4171,
      "classes": 4172,
      "document": 4173,
      "AV": 4174,
      "ĠThen": 4175,
      "root": 4176,
      "flu": 4177,
      "Ġcomponent": 4178,
      "Ġactive": 4179,
      "=\"_": 4180,
      "useum": 4181,
      "Ġinstall": 4182,
      "ĠÃ": 4183,
      "wide": 4184,
      "Callback": 4185,
      "}/": 4186,
      "API": 4187,
      "duc": 4188,
      "Ġconsist": 4189,
      "Ġaccept": 4190,
      "Exec": 4191,
      "chan": 4192,
      "([": 4193,
      "Ġentry": 4194,
      "Ġsit": 4195,
      "Http": 4196,
      "Ġlik": 4197,
      "Ġrandom": 4198,
      "96": 4199,
      "Ġled": 4200,
      "ething": 4201,
      "resource": 4202,
      "expected": 4203,
      "}),": 4204,
      "][": 4205,
      "thon": 4206,
      "Description": 4207,
      "ĠEngland": 4208,
      "ĠCalifornia": 4209,
      "Ġsuggest": 4210,
      "ĠDiv": 4211,
      "typ": 4212,
      "ĠÂ": 4213,
      ".$": 4214,
      "aring": 4215,
      "Ġconstant": 4216,
      "hline": 4217,
      "etch": 4218,
      "ope": 4219,
      "control": 4220,
      "Ġhistor": 4221,
      "ĠAssert": 4222,
      "Ġdecl": 4223,
      "ĠRem": 4224,
      "Ġbox": 4225,
      "Ġscal": 4226,
      "One": 4227,
      "late": 4228,
      ":\"": 4229,
      "Ġscale": 4230,
      "Ġsuccessful": 4231,
      "Ġwent": 4232,
      "Height": 4233,
      "Ġhuman": 4234,
      "Location": 4235,
      "bin": 4236,
      "tree": 4237,
      "Ġcy": 4238,
      "ĠReturns": 4239,
      "Ġmaterial": 4240,
      "Dr": 4241,
      "author": 4242,
      "ĠRepublic": 4243,
      "Ġexpress": 4244,
      "Ġlim": 4245,
      "Ġconditions": 4246,
      "87": 4247,
      "tml": 4248,
      "Ġsimple": 4249,
      "burg": 4250,
      "Empty": 4251,
      "ĠRiver": 4252,
      "ping": 4253,
      "utable": 4254,
      "anish": 4255,
      "Ġoffer": 4256,
      "izes": 4257,
      "ĠRef": 4258,
      "artifactId": 4259,
      "Ġproduced": 4260,
      "ĠGroup": 4261,
      "Ġbit": 4262,
      "chiev": 4263,
      "Ġactiv": 4264,
      "Ġanalysis": 4265,
      "eft": 4266,
      "obile": 4267,
      "Ġagre": 4268,
      "ivil": 4269,
      "97": 4270,
      "patch": 4271,
      "Ġmoved": 4272,
      "ĠFirst": 4273,
      "Ġvillage": 4274,
      "Ġsouth": 4275,
      "Ġhigher": 4276,
      "Eng": 4277,
      "QL": 4278,
      "Ġtag": 4279,
      "illed": 4280,
      "ĠMark": 4281,
      "mail": 4282,
      ")^": 4283,
      "Serial": 4284,
      "Ġaway": 4285,
      "Ġpaper": 4286,
      "Params": 4287,
      "rics": 4288,
      "Ġtransform": 4289,
      "like": 4290,
      "Ġcalcul": 4291,
      "Ġtaken": 4292,
      "Ġgive": 4293,
      "ĠSk": 4294,
      "Ġnumer": 4295,
      "ĠIndia": 4296,
      "files": 4297,
      "Ġnames": 4298,
      "Ã¶": 4299,
      "ĠAmerica": 4300,
      "oder": 4301,
      "cr": 4302,
      "dist": 4303,
      "Module": 4304,
      "ĉĠ": 4305,
      "ĠPort": 4306,
      "Ġloss": 4307,
      "vey": 4308,
      "Ġfuture": 4309,
      "ĠLog": 4310,
      "Ġadditional": 4311,
      "Que": 4312,
      "Br": 4313,
      "VAL": 4314,
      "ĠWeb": 4315,
      "Current": 4316,
      "People": 4317,
      "break": 4318,
      "ATION": 4319,
      "%;": 4320,
      "ĠCour": 4321,
      "entity": 4322,
      "KE": 4323,
      "Ġmeet": 4324,
      "Ġwin": 4325,
      "Ġ(\"": 4326,
      "Ġcollection": 4327,
      "bb": 4328,
      "hent": 4329,
      "values": 4330,
      "Ġinternational": 4331,
      "attern": 4332,
      "icles": 4333,
      "500": 4334,
      "mat": 4335,
      "ctx": 4336,
      "aign": 4337,
      "86": 4338,
      "ĠParty": 4339,
      ">,": 4340,
      "Ġcannot": 4341,
      "acters": 4342,
      "1990": 4343,
      "None": 4344,
      "ĠHol": 4345,
      "strap": 4346,
      "Fe": 4347,
      "Port": 4348,
      "Ġcondition": 4349,
      "Ġthough": 4350,
      "ĠPresident": 4351,
      "Ġbg": 4352,
      "Ag": 4353,
      "langle": 4354,
      "adow": 4355,
      "Ġcontinue": 4356,
      "ĠĠĠĠĠĠĠĠĠĠĠĠĠĠĠĠĠĠĠĠĠ": 4357,
      "Ġpress": 4358,
      "Co": 4359,
      "Ġvirtual": 4360,
      "Ġamount": 4361,
      "tim": 4362,
      "essional": 4363,
      "Ġtheory": 4364,
      "SD": 4365,
      "Ġexception": 4366,
      "Script": 4367,
      "STR": 4368,
      "ĠSm": 4369,
      "Ġcirc": 4370,
      "bolds": 4371,
      "Ġepis": 4372,
      "groupId": 4373,
      "{{": 4374,
      "token": 4375,
      "Search": 4376,
      "lice": 4377,
      "Ġsatisf": 4378,
      "IGN": 4379,
      "Ġbecom": 4380,
      "stant": 4381,
      "icrosoft": 4382,
      "2022": 4383,
      "sign": 4384,
      "nab": 4385,
      "Ġapproach": 4386,
      "han": 4387,
      "Ġfrequ": 4388,
      "=\"../../../../../../": 4389,
      "Direct": 4390,
      "ĠSub": 4391,
      "conf": 4392,
      "ĠCreate": 4393,
      "Living": 4394,
      "Option": 4395,
      "aging": 4396,
      "Ġobtained": 4397,
      "abs": 4398,
      "boot": 4399,
      "à¤": 4400,
      "ĠGeneral": 4401,
      "Ġsolution": 4402,
      "Unit": 4403,
      "ca": 4404,
      "uge": 4405,
      "âĢ¦": 4406,
      "Ġsm": 4407,
      "Ġliter": 4408,
      "Ġstudents": 4409,
      "Ġsubject": 4410,
      "Ġattribute": 4411,
      "ĠRoy": 4412,
      "Ġremove": 4413,
      "sv": 4414,
      "Ġtim": 4415,
      "oded": 4416,
      "Ġss": 4417,
      "Ġoperator": 4418,
      "Ġvector": 4419,
      "Rel": 4420,
      "Ġbehav": 4421,
      "1998": 4422,
      "rief": 4423,
      "Hash": 4424,
      "ynamic": 4425,
      "Ġground": 4426,
      "msg": 4427,
      "Ġwebs": 4428,
      "Position": 4429,
      "Ġemploy": 4430,
      "split": 4431,
      "Ġenvironment": 4432,
      "Ġ>=": 4433,
      "ya": 4434,
      "dated": 4435,
      "Document": 4436,
      "Ġregular": 4437,
      "Ġobjects": 4438,
      "Ġiter": 4439,
      "ĠDem": 4440,
      "Ġ*)": 4441,
      "ands": 4442,
      "IF": 4443,
      "Ġdensity": 4444,
      "Ġpolitical": 4445,
      "57": 4446,
      "unn": 4447,
      "ios": 4448,
      "bert": 4449,
      "ircle": 4450,
      "RL": 4451,
      "anks": 4452,
      "Ġsold": 4453,
      "Ġhealth": 4454,
      "Ġestablish": 4455,
      "Ġcorresponding": 4456,
      "env": 4457,
      "ĠSum": 4458,
      "grad": 4459,
      "models": 4460,
      "appa": 4461,
      "IZE": 4462,
      "Ġothers": 4463,
      "device": 4464,
      "ĠLet": 4465,
      "SH": 4466,
      "oted": 4467,
      "ria": 4468,
      "Ġdevice": 4469,
      "unt": 4470,
      "&#": 4471,
      "ART": 4472,
      "rd": 4473,
      "Copy": 4474,
      "Ġpast": 4475,
      "achine": 4476,
      "Ġbig": 4477,
      "boldsymbol": 4478,
      "Enc": 4479,
      "Ptr": 4480,
      "Ġbeliev": 4481,
      "Ġwest": 4482,
      "Ġfem": 4483,
      "Lambda": 4484,
      "tains": 4485,
      "Ġfather": 4486,
      "Ġkind": 4487,
      "ua": 4488,
      "ership": 4489,
      "Ġhom": 4490,
      "ci": 4491,
      "Settings": 4492,
      "Ġ\"\\": 4493,
      "aur": 4494,
      "Ġdoc": 4495,
      "ulated": 4496,
      "ECT": 4497,
      "Sim": 4498,
      "stack": 4499,
      "Ġecon": 4500,
      "Ġdescription": 4501,
      "agment": 4502,
      "ĠMal": 4503,
      "Ġlive": 4504,
      "ĠApp": 4505,
      "stylesheet": 4506,
      "}}$": 4507,
      "Ġgot": 4508,
      "ĠSee": 4509,
      "adian": 4510,
      "Ġcapt": 4511,
      "Ġmer": 4512,
      "FO": 4513,
      "internal": 4514,
      "Ġcompos": 4515,
      "hood": 4516,
      "98": 4517,
      "Ġannounced": 4518,
      "Ġparticip": 4519,
      "COLOR": 4520,
      "ĠChurch": 4521,
      "ĠBel": 4522,
      "ĠDi": 4523,
      "ĠAnt": 4524,
      "debug": 4525,
      "SO": 4526,
      "Ġfall": 4527,
      "Ġpur": 4528,
      "ĠDon": 4529,
      "uit": 4530,
      "ĠFrom": 4531,
      "Impl": 4532,
      "Ġcome": 4533,
      "Ġrunning": 4534,
      "imated": 4535,
      "Ġreason": 4536,
      "itte": 4537,
      "Ġparams": 4538,
      "Ġfailed": 4539,
      "Op": 4540,
      "cert": 4541,
      "Ġdefine": 4542,
      "ming": 4543,
      "elling": 4544,
      "Local": 4545,
      "ĠPal": 4546,
      "iles": 4547,
      "Ġreally": 4548,
      "Ġprop": 4549,
      "Ġrelated": 4550,
      "Ġlittle": 4551,
      "frak": 4552,
      "Ġrender": 4553,
      "Session": 4554,
      "rote": 4555,
      "ĠGovern": 4556,
      "Ġcomplete": 4557,
      "Ġreported": 4558,
      "Ġben": 4559,
      "ttps": 4560,
      "Ġbroad": 4561,
      "Ġoverride": 4562,
      "ube": 4563,
      "zer": 4564,
      "Ġjo": 4565,
      "irit": 4566,
      "Ġhandle": 4567,
      "citep": 4568,
      "Ġstar": 4569,
      "Ġpadding": 4570,
      "ipal": 4571,
      "nected": 4572,
      "Ġask": 4573,
      "Ġ~": 4574,
      "before": 4575,
      "ional": 4576,
      "eal": 4577,
      "Font": 4578,
      "ida": 4579,
      "stitute": 4580,
      "Menu": 4581,
      "modal": 4582,
      "Ġmale": 4583,
      "Async": 4584,
      "ĠFl": 4585,
      "images": 4586,
      "anced": 4587,
      "Record": 4588,
      "atives": 4589,
      "tries": 4590,
      "ĠCouncil": 4591,
      "aints": 4592,
      "56": 4593,
      "\"));": 4594,
      "astic": 4595,
      "Collection": 4596,
      "TI": 4597,
      "Expression": 4598,
      "PECT": 4599,
      "LI": 4600,
      "Ġeval": 4601,
      "Ġfilename": 4602,
      "Ġtool": 4603,
      "Prot": 4604,
      "Ġ;": 4605,
      "Ġ['": 4606,
      "Ġsays": 4607,
      "Bl": 4608,
      "Ġill": 4609,
      "Ġfig": 4610,
      "drop": 4611,
      "uri": 4612,
      "iform": 4613,
      "border": 4614,
      "Ġaward": 4615,
      "Ġenough": 4616,
      "Ġindependent": 4617,
      "itude": 4618,
      "ctor": 4619,
      "nap": 4620,
      "Ġachiev": 4621,
      "Change": 4622,
      "Ġprior": 4623,
      "ORT": 4624,
      "ĠStreet": 4625,
      "Phi": 4626,
      "Ġeast": 4627,
      "ario": 4628,
      "ĠGerm": 4629,
      "atory": 4630,
      "Stat": 4631,
      "utor": 4632,
      "Ġtemper": 4633,
      "Ġsolid": 4634,
      ":(": 4635,
      "Ġxml": 4636,
      "ĠAward": 4637,
      "anies": 4638,
      "Ġhttps": 4639,
      "second": 4640,
      "quare": 4641,
      "Properties": 4642,
      "ĉĉĊ": 4643,
      "ĠEuropean": 4644,
      "Ġentire": 4645,
      "Ġexists": 4646,
      "ĠPaul": 4647,
      "Ġaccording": 4648,
      "43": 4649,
      "Ġsets": 4650,
      "hash": 4651,
      "ĠCanada": 4652,
      "DD": 4653,
      "Le": 4654,
      "================================": 4655,
      "Kind": 4656,
      "Ġrespectively": 4657,
      "Ġconfiguration": 4658,
      "ĠFrance": 4659,
      "ontal": 4660,
      "ursor": 4661,
      "Ġclos": 4662,
      "aches": 4663,
      "CP": 4664,
      "Ġbgcolor": 4665,
      "Ġincludes": 4666,
      "fs": 4667,
      "ĠJames": 4668,
      "Project": 4669,
      "ĠException": 4670,
      "Integer": 4671,
      "agon": 4672,
      "Ġempty": 4673,
      "ago": 4674,
      "aa": 4675,
      "ĠSen": 4676,
      "under": 4677,
      "'],": 4678,
      "EQ": 4679,
      "iting": 4680,
      "UB": 4681,
      "cp": 4682,
      "Ġcertain": 4683,
      "dot": 4684,
      "arks": 4685,
      "Schema": 4686,
      "ĠThom": 4687,
      ".)": 4688,
      "ln": 4689,
      "Ġpopular": 4690,
      "mbox": 4691,
      "ALL": 4692,
      "Ġparty": 4693,
      "There": 4694,
      "Ġtree": 4695,
      "nabla": 4696,
      "icture": 4697,
      "uz": 4698,
      "NavBar": 4699,
      "Ġrespons": 4700,
      "Ġmarket": 4701,
      "language": 4702,
      "TER": 4703,
      "ĠNS": 4704,
      "ategy": 4705,
      "aching": 4706,
      "Ġcurrently": 4707,
      "textit": 4708,
      "Track": 4709,
      "Ġdraw": 4710,
      "Can": 4711,
      "OM": 4712,
      "auth": 4713,
      "Ġconv": 4714,
      "Ġdetails": 4715,
      "ĠOlymp": 4716,
      "card": 4717,
      "ĠDavid": 4718,
      "ĠRobert": 4719,
      "={": 4720,
      "Ġautom": 4721,
      "Ġdeaths": 4722,
      "Ġpack": 4723,
      "Ġscope": 4724,
      "ado": 4725,
      "Po": 4726,
      "Ġexcept": 4727,
      "41": 4728,
      "ĠOut": 4729,
      "which": 4730,
      "ilm": 4731,
      "Ġhold": 4732,
      "Ġthus": 4733,
      "ictionary": 4734,
      "Ġchannel": 4735,
      "make": 4736,
      "fg": 4737,
      "ĠMod": 4738,
      "erve": 4739,
      "():": 4740,
      "Ġcorrect": 4741,
      "delete": 4742,
      "Ġcho": 4743,
      "You": 4744,
      "Ġpresident": 4745,
      "system": 4746,
      "och": 4747,
      "Vert": 4748,
      "%%": 4749,
      "ldots": 4750,
      "Ġelection": 4751,
      "Ġrather": 4752,
      "ACK": 4753,
      "Mon": 4754,
      "iation": 4755,
      "unity": 4756,
      "Ġsupported": 4757,
      "ixt": 4758,
      "kind": 4759,
      "west": 4760,
      "mathfrak": 4761,
      "hr": 4762,
      "raz": 4763,
      "Ġnecess": 4764,
      "Ġintegr": 4765,
      "Operation": 4766,
      "ĠMore": 4767,
      "Ġarguments": 4768,
      "ws": 4769,
      "ugins": 4770,
      "Ġroad": 4771,
      "kappa": 4772,
      "gn": 4773,
      "Ġwhite": 4774,
      "Ġbar": 4775,
      "join": 4776,
      "olume": 4777,
      "Ġequal": 4778,
      "rupt": 4779,
      "1996": 4780,
      "ĠCr": 4781,
      "ĠRich": 4782,
      "1997": 4783,
      "omy": 4784,
      "ĠRoman": 4785,
      "Ġsomething": 4786,
      "Parser": 4787,
      "Cal": 4788,
      "uses": 4789,
      "Helper": 4790,
      "Dir": 4791,
      "ATA": 4792,
      "ena": 4793,
      "Ġrights": 4794,
      "weight": 4795,
      "ĠNe": 4796,
      "58": 4797,
      "pop": 4798,
      "Ġworked": 4799,
      "Ġcut": 4800,
      "Ġrecogn": 4801,
      "ĠArmy": 4802,
      "ERROR": 4803,
      "sin": 4804,
      "76": 4805,
      "ĠMet": 4806,
      "anges": 4807,
      "berg": 4808,
      "ĠService": 4809,
      "1980": 4810,
      "Ġphase": 4811,
      "structor": 4812,
      "ĠErr": 4813,
      "Ġtreat": 4814,
      "render": 4815,
      "ani": 4816,
      "Names": 4817,
      "Ġforce": 4818,
      "Ġmid": 4819,
      "Ġlost": 4820,
      "Ġregister": 4821,
      "dest": 4822,
      "uous": 4823,
      "ams": 4824,
      "asons": 4825,
      "Ġwhose": 4826,
      "Ġtemplate": 4827,
      "mode": 4828,
      "Ġpositive": 4829,
      "\\%": 4830,
      "orizontal": 4831,
      "ĠThat": 4832,
      "Ġallowed": 4833,
      "oom": 4834,
      "Ġsequence": 4835,
      "sy": 4836,
      "transform": 4837,
      "ĠOpen": 4838,
      "address": 4839,
      "Vari": 4840,
      "ensive": 4841,
      "atio": 4842,
      "Ġcharacters": 4843,
      "copy": 4844,
      "Ġareas": 4845,
      "ĠCenter": 4846,
      "Reference": 4847,
      "(:": 4848,
      "Ġzero": 4849,
      "erry": 4850,
      "})$": 4851,
      "Vector": 4852,
      "Ġstage": 4853,
      "BA": 4854,
      "circ": 4855,
      "Iter": 4856,
      "ened": 4857,
      "interface": 4858,
      "ĠCheck": 4859,
      "Ġlinear": 4860,
      "otimes": 4861,
      "HO": 4862,
      "INE": 4863,
      "Ġuses": 4864,
      "Down": 4865,
      "Ġsure": 4866,
      "track": 4867,
      "custom": 4868,
      "greg": 4869,
      "Ġyet": 4870,
      "Ġbi": 4871,
      "dat": 4872,
      "cos": 4873,
      "plete": 4874,
      "False": 4875,
      "Ġfront": 4876,
      "Ġtoken": 4877,
      "ĠTO": 4878,
      "elegate": 4879,
      "_;": 4880,
      "CR": 4881,
      "Ġinflu": 4882,
      "Ġundefined": 4883,
      "ania": 4884,
      "di": 4885,
      "band": 4886,
      "rian": 4887,
      "Ġapplic": 4888,
      "inated": 4889,
      "Ġhash": 4890,
      "Ġwebsite": 4891,
      "Store": 4892,
      "ius": 4893,
      "toString": 4894,
      "Inst": 4895,
      "Ġconstr": 4896,
      "itting": 4897,
      "Ġperformed": 4898,
      "Ġneeded": 4899,
      "ĠGeorge": 4900,
      "ĠStud": 4901,
      "export": 4902,
      "bra": 4903,
      "ĠUs": 4904,
      "ĠBuild": 4905,
      "Match": 4906,
      "Handle": 4907,
      "ĠDE": 4908,
      "outhern": 4909,
      "Ġgenerated": 4910,
      "Ġapi": 4911,
      "fill": 4912,
      "icket": 4913,
      "CA": 4914,
      "wood": 4915,
      "Ġmakes": 4916,
      "ynch": 4917,
      "Pass": 4918,
      "Ġpattern": 4919,
      "oute": 4920,
      "Ġinfo": 4921,
      "Ġclosed": 4922,
      "Ġpassed": 4923,
      "itar": 4924,
      "Parameters": 4925,
      "hi": 4926,
      "docs": 4927,
      "(-": 4928,
      "Post": 4929,
      "ĠBG": 4930,
      "Ġmanag": 4931,
      "ĠTime": 4932,
      "ailway": 4933,
      "Ġwrote": 4934,
      "Ġmemory": 4935,
      "Ġmilitary": 4936,
      "ĠLaw": 4937,
      "Ġsend": 4938,
      "send": 4939,
      "ville": 4940,
      "icons": 4941,
      "ĠOR": 4942,
      "jo": 4943,
      "ĠChina": 4944,
      "icult": 4945,
      "?:": 4946,
      "Ġargument": 4947,
      "Ġvariable": 4948,
      "Ġrot": 4949,
      "ometry": 4950,
      "59": 4951,
      "ĠAssociation": 4952,
      "89": 4953,
      "Do": 4954,
      "olic": 4955,
      "ĠSince": 4956,
      "ĠEXPECT": 4957,
      "asic": 4958,
      "Ġdeveloped": 4959,
      "Ġdistance": 4960,
      "vas": 4961,
      "Ġsession": 4962,
      "\\|": 4963,
      "Ġswitch": 4964,
      "Ġdoesn": 4965,
      "egment": 4966,
      "Mult": 4967,
      "Left": 4968,
      "Sk": 4969,
      "ĠBlack": 4970,
      "oggle": 4971,
      "equal": 4972,
      "Tim": 4973,
      "Ġfire": 4974,
      "Ġmoment": 4975,
      "equals": 4976,
      "widget": 4977,
      "Ġcompleted": 4978,
      "GET": 4979,
      "then": 4980,
      "Ġviol": 4981,
      "{}": 4982,
      "PR": 4983,
      "subset": 4984,
      "Ġimprov": 4985,
      "Order": 4986,
      "Ġ('": 4987,
      "rip": 4988,
      "Ġexpression": 4989,
      "When": 4990,
      "zon": 4991,
      "Ġstore": 4992,
      "=\"/": 4993,
      "just": 4994,
      "ĠArch": 4995,
      "ĠWork": 4996,
      "Ġsurface": 4997,
      "Ġdeal": 4998,
      "255": 4999,
      "(*": 5000,
      "ds": 5001,
      "Ġselection": 5002,
      "That": 5003,
      ",-": 5004,
      "Ġsetting": 5005,
      "ander": 5006,
      "nonumber": 5007,
      "Ġrelative": 5008,
      "Ġitself": 5009,
      "cat": 5010,
      "ĠST": 5011,
      "range": 5012,
      "Ġpolicy": 5013,
      "Go": 5014,
      "ĠTV": 5015,
      "utive": 5016,
      "Host": 5017,
      "ully": 5018,
      "jection": 5019,
      "byte": 5020,
      "direct": 5021,
      "foo": 5022,
      "Right": 5023,
      "rea": 5024,
      "Render": 5025,
      "urren": 5026,
      "Ġcontract": 5027,
      "Ġleading": 5028,
      "MO": 5029,
      "Ġpolitic": 5030,
      "Ġflo": 5031,
      "udd": 5032,
      "Ġparts": 5033,
      "had": 5034,
      "Ġcandid": 5035,
      "ataset": 5036,
      "gin": 5037,
      "Ġcast": 5038,
      "cial": 5039,
      "Ġappoint": 5040,
      "BO": 5041,
      "Sign": 5042,
      "---": 5043,
      "issions": 5044,
      "Ġalt": 5045,
      "inding": 5046,
      "1995": 5047,
      "Ġmot": 5048,
      "ĠUnion": 5049,
      "reek": 5050,
      "ston": 5051,
      "ĠĠĠĠĠĠĠĠĠĠĠĠĠĠĠĠĠĠĠĠ": 5052,
      "cur": 5053,
      "ashington": 5054,
      "Ġwriting": 5055,
      "Ev": 5056,
      "Invalid": 5057,
      "vm": 5058,
      "ĠMart": 5059,
      "Api": 5060,
      "anner": 5061,
      "Ġunique": 5062,
      "cribe": 5063,
      "enced": 5064,
      "ĠPe": 5065,
      "Fig": 5066,
      "otes": 5067,
      "SL": 5068,
      "req": 5069,
      "Ġinvoke": 5070,
      "Ġnamespace": 5071,
      "yntax": 5072,
      "Ġcourse": 5073,
      "Ġjav": 5074,
      "Ġfixed": 5075,
      "hest": 5076,
      "'re": 5077,
      "&&": 5078,
      "cing": 5079,
      "ocal": 5080,
      "oring": 5081,
      "anger": 5082,
      "###": 5083,
      "Template": 5084,
      "isk": 5085,
      "Ġpers": 5086,
      "imately": 5087,
      "Ġqual": 5088,
      "normal": 5089,
      "Ġopened": 5090,
      "Ġsoftware": 5091,
      "ittee": 5092,
      "Ġscreen": 5093,
      "ĠArg": 5094,
      "Ġarchitect": 5095,
      "Stack": 5096,
      "mission": 5097,
      "click": 5098,
      "more": 5099,
      "ä¸": 5100,
      "itch": 5101,
      "Rect": 5102,
      "handle": 5103,
      "Ð»": 5104,
      "Ġweight": 5105,
      "parameter": 5106,
      "plugin": 5107,
      "Core": 5108,
      "access": 5109,
      "erved": 5110,
      "antic": 5111,
      "media": 5112,
      "note": 5113,
      "Ġconstruction": 5114,
      "exception": 5115,
      "Ġvers": 5116,
      "Ġrank": 5117,
      "protobuf": 5118,
      "ledge": 5119,
      "icker": 5120,
      "$(": 5121,
      "ervices": 5122,
      "oe": 5123,
      "footer": 5124,
      "Ġchanged": 5125,
      "Ġjoined": 5126,
      "vector": 5127,
      "ĠLou": 5128,
      "tion": 5129,
      "Debug": 5130,
      "Ġexact": 5131,
      "ulations": 5132,
      "fony": 5133,
      "ini": 5134,
      "Tool": 5135,
      "ĠGermany": 5136,
      "Ġalmost": 5137,
      "Ġten": 5138,
      "Ġthings": 5139,
      "Ġdig": 5140,
      "Ġequation": 5141,
      "ĠMap": 5142,
      "hover": 5143,
      "Exp": 5144,
      "Ġhon": 5145,
      "Ġfav": 5146,
      "Has": 5147,
      "Ġprovides": 5148,
      "after": 5149,
      "Ġmulti": 5150,
      "51": 5151,
      "success": 5152,
      "}-": 5153,
      "essor": 5154,
      "ĠHall": 5155,
      "Head": 5156,
      "ĠCON": 5157,
      "scal": 5158,
      "xis": 5159,
      "ĠUK": 5160,
      "Ġword": 5161,
      "Ġoperations": 5162,
      "Ġparse": 5163,
      "Ġcontr": 5164,
      "Ġrock": 5165,
      "Metadata": 5166,
      "oms": 5167,
      "Long": 5168,
      "Ġmaximum": 5169,
      "ĠAng": 5170,
      "Ġdirector": 5171,
      "endar": 5172,
      "Device": 5173,
      "oader": 5174,
      "ĠMount": 5175,
      ">();": 5176,
      "Ġgoal": 5177,
      "1970": 5178,
      "CS": 5179,
      "Ġsigned": 5180,
      "ymfony": 5181,
      "Ġoffic": 5182,
      "Ġbyte": 5183,
      "ĠBGCOLOR": 5184,
      "RA": 5185,
      "Use": 5186,
      "ĠProv": 5187,
      "ao": 5188,
      "Ġproposed": 5189,
      "Sigma": 5190,
      "estamp": 5191,
      "ĠTrue": 5192,
      "strict": 5193,
      "types": 5194,
      "ĠMag": 5195,
      "DIR": 5196,
      "asc": 5197,
      "wid": 5198,
      "Ġdegree": 5199,
      "Ġneigh": 5200,
      "Dom": 5201,
      "global": 5202,
      "Ġeducation": 5203,
      "ano": 5204,
      "Ġconduct": 5205,
      "igen": 5206,
      "1994": 5207,
      "ORD": 5208,
      "ĠDivision": 5209,
      "Ġlarger": 5210,
      "}}{": 5211,
      "amera": 5212,
      "webkit": 5213,
      "Rev": 5214,
      "Ġrule": 5215,
      "Ġalgorithm": 5216,
      "How": 5217,
      "Ġdirectly": 5218,
      "ĠSome": 5219,
      "ĠRoyal": 5220,
      "MM": 5221,
      "ounter": 5222,
      "ĠLem": 5223,
      "ĠCourt": 5224,
      "54": 5225,
      "ĠMusic": 5226,
      "Tests": 5227,
      "ughter": 5228,
      "/\\": 5229,
      "Net": 5230,
      "Ġmarried": 5231,
      "Ġissue": 5232,
      "Values": 5233,
      "mes": 5234,
      "uate": 5235,
      "ĠForm": 5236,
      "arter": 5237,
      "stry": 5238,
      "Args": 5239,
      "Ġdelete": 5240,
      "AND": 5241,
      "||": 5242,
      "Assert": 5243,
      "Ġmonths": 5244,
      "ĠDirect": 5245,
      "site": 5246,
      "Ġthought": 5247,
      "Ġscript": 5248,
      "Non": 5249,
      "{-": 5250,
      "session": 5251,
      "Mar": 5252,
      "Ġactual": 5253,
      "oundation": 5254,
      "ĠRoad": 5255,
      "Ġedge": 5256,
      "Ġign": 5257,
      "Ġteams": 5258,
      "Ġcache": 5259,
      "Ġcred": 5260,
      "ĠOper": 5261,
      "DF": 5262,
      "cloud": 5263,
      "Title": 5264,
      "Ġcontainer": 5265,
      "Ġgre": 5266,
      "Draw": 5267,
      "Ġtransfer": 5268,
      "ĠBase": 5269,
      "Reader": 5270,
      "virtual": 5271,
      "tic": 5272,
      "=\"../../../": 5273,
      "Ġdefe": 5274,
      "Ġlearn": 5275,
      "Ġcluster": 5276,
      "pite": 5277,
      "bootstrap": 5278,
      "1000": 5279,
      "annotation": 5280,
      "Ġinc": 5281,
      "Ġtakes": 5282,
      "ĠPre": 5283,
      "Ġvict": 5284,
      "\\\"": 5285,
      "ein": 5286,
      "Ġsort": 5287,
      "Ø§": 5288,
      "Ġnight": 5289,
      "arp": 5290,
      "ĠPublic": 5291,
      "Ġregard": 5292,
      "Ġproof": 5293,
      "insert": 5294,
      "sort": 5295,
      "Obj": 5296,
      "Ġwriter": 5297,
      "ros": 5298,
      "ĠEnd": 5299,
      "prime": 5300,
      "1992": 5301,
      "----------------------------------------------------------------": 5302,
      "ĠDepartment": 5303,
      "82": 5304,
      "Bytes": 5305,
      "ĠMor": 5306,
      "gu": 5307,
      "Ver": 5308,
      "Ġprimary": 5309,
      "Ġcompar": 5310,
      "Ġdirection": 5311,
      "exports": 5312,
      "liament": 5313,
      "52": 5314,
      "Ġsongs": 5315,
      "Ġnatural": 5316,
      "Ġtaking": 5317,
      "ĠDec": 5318,
      "Ġcentral": 5319,
      "84": 5320,
      "mid": 5321,
      "component": 5322,
      "EM": 5323,
      "ĠBer": 5324,
      "Argument": 5325,
      "SION": 5326,
      "settings": 5327,
      "disabled": 5328,
      "Num": 5329,
      "ĠMac": 5330,
      "ĠSam": 5331,
      "XX": 5332,
      "Ġthread": 5333,
      "ĠDate": 5334,
      "Ġcompanies": 5335,
      "Ġchurch": 5336,
      "pg": 5337,
      "ĠAustralian": 5338,
      "rome": 5339,
      "Ġecho": 5340,
      "connect": 5341,
      "ernel": 5342,
      "ĠOb": 5343,
      "Ġ})": 5344,
      "oul": 5345,
      "Ġquestion": 5346,
      "Ġcomment": 5347,
      "Ġprofessional": 5348,
      "etime": 5349,
      "agram": 5350,
      "inese": 5351,
      "Sl": 5352,
      "\\[": 5353,
      "ett": 5354,
      "dots": 5355,
      "panel": 5356,
      "SA": 5357,
      "Ġwait": 5358,
      "framework": 5359,
      "Ġheader": 5360,
      "arily": 5361,
      "fn": 5362,
      "Ġunderstand": 5363,
      "Ġinline": 5364,
      "bound": 5365,
      "shire": 5366,
      "dependency": 5367,
      ";/": 5368,
      "`.": 5369,
      "Classes": 5370,
      "SET": 5371,
      "Ġupon": 5372,
      "ĠSection": 5373,
      "yes": 5374,
      "illa": 5375,
      "Ġcampaign": 5376,
      "Ġsett": 5377,
      "Ġnodes": 5378,
      "Ġweb": 5379,
      "Dep": 5380,
      "ĠJack": 5381,
      "Ġrelationship": 5382,
      "yr": 5383,
      "Ġraise": 5384,
      "Ġradio": 5385,
      "ĠMary": 5386,
      "Ġconnect": 5387,
      "1993": 5388,
      "ipp": 5389,
      "store": 5390,
      "clude": 5391,
      "Ġsymbol": 5392,
      "Ġdatabase": 5393,
      "ederal": 5394,
      "ĠNote": 5395,
      "Ġneeds": 5396,
      "Ġoutside": 5397,
      "Ġunsigned": 5398,
      "ala": 5399,
      "cover": 5400,
      "arts": 5401,
      "Ġmonth": 5402,
      "Ġwords": 5403,
      "ĠCre": 5404,
      "attribute": 5405,
      "Ġos": 5406,
      "Results": 5407,
      "Ġlove": 5408,
      "asket": 5409,
      "centering": 5410,
      "operator": 5411,
      "Application": 5412,
      "Ġfriend": 5413,
      "`,": 5414,
      "ĠRE": 5415,
      "Parent": 5416,
      "ĠCompany": 5417,
      "edit": 5418,
      "ĠBay": 5419,
      "free": 5420,
      "edef": 5421,
      "thm": 5422,
      "replace": 5423,
      "ĠCap": 5424,
      "Ġcontinued": 5425,
      "bon": 5426,
      "ĠScott": 5427,
      "Ġitems": 5428,
      "ĠMex": 5429,
      "ĠBook": 5430,
      "focus": 5431,
      "Ġexperiment": 5432,
      "Icon": 5433,
      "ORM": 5434,
      "za": 5435,
      "boolean": 5436,
      "pub": 5437,
      "ĠWashington": 5438,
      "Doc": 5439,
      "Ġnovel": 5440,
      "Ġhimself": 5441,
      "53": 5442,
      "xx": 5443,
      "Ġrace": 5444,
      "Ġpercent": 5445,
      "sey": 5446,
      "road": 5447,
      "ĠJust": 5448,
      "Ġimages": 5449,
      "padding": 5450,
      "Ġkm": 5451,
      "ATH": 5452,
      "ĠCons": 5453,
      "estival": 5454,
      "actor": 5455,
      "Body": 5456,
      "Ġdefinition": 5457,
      "alax": 5458,
      "widet": 5459,
      "Ġdeep": 5460,
      "Ġprec": 5461,
      "Ġfactor": 5462,
      "Ġtour": 5463,
      "pecially": 5464,
      "-->": 5465,
      "ĠRun": 5466,
      "Ġoffice": 5467,
      "uated": 5468,
      "Ġ++": 5469,
      "Ġadministr": 5470,
      "300": 5471,
      "onic": 5472,
      "Me": 5473,
      "Ġdebut": 5474,
      "Ġsil": 5475,
      "uple": 5476,
      "Ġintroduced": 5477,
      "enum": 5478,
      "icate": 5479,
      "Ġplaying": 5480,
      "Ġvisit": 5481,
      "sql": 5482,
      "Mock": 5483,
      "Writer": 5484,
      "ĠEq": 5485,
      "URE": 5486,
      "ĠAcadem": 5487,
      "ĠDuring": 5488,
      "ĠDay": 5489,
      "bour": 5490,
      "Descriptor": 5491,
      "del": 5492,
      "Ġerrors": 5493,
      "recated": 5494,
      "ĠInstitute": 5495,
      "Ġallows": 5496,
      "Ġsettings": 5497,
      "ĠĠĠĠĠĠĠĠĠĠĠĠĠĠĠĠĠĠĠĠĠĠĠĠĠĠĠĠĠĠĠĠĠĠĠĠĠĠĠ": 5498,
      "Ġfight": 5499,
      "Ðº": 5500,
      "Ġexisting": 5501,
      "ĠFre": 5502,
      "ĠVir": 5503,
      "aws": 5504,
      "lap": 5505,
      "Ġ&=": 5506,
      "Ġtro": 5507,
      "application": 5508,
      "ĠFranc": 5509,
      "'.": 5510,
      "IX": 5511,
      "fields": 5512,
      "tabular": 5513,
      "blockList": 5514,
      "aine": 5515,
      "alls": 5516,
      "Ġface": 5517,
      "Ġsound": 5518,
      "Boolean": 5519,
      "PT": 5520,
      "Ġrev": 5521,
      "ura": 5522,
      "ĠPress": 5523,
      "94": 5524,
      "Delete": 5525,
      "Ġmar": 5526,
      "white": 5527,
      "callback": 5528,
      "72": 5529,
      "ailed": 5530,
      "ĠPy": 5531,
      "Ġissues": 5532,
      "TEST": 5533,
      ";<": 5534,
      "Enabled": 5535,
      "Ġtalk": 5536,
      "Ġpredict": 5537,
      "vention": 5538,
      "FT": 5539,
      "ĠMo": 5540,
      "Ġdiscover": 5541,
      "ifying": 5542,
      "Ġconvert": 5543,
      "DL": 5544,
      "Root": 5545,
      "Ġalthough": 5546,
      "pdf": 5547,
      "ĠGreen": 5548,
      "Ġavoid": 5549,
      "edy": 5550,
      "inline": 5551,
      "double": 5552,
      "alled": 5553,
      "Ġjson": 5554,
      "Ġactually": 5555,
      "78": 5556,
      "widetilde": 5557,
      "Ġmechan": 5558,
      "umni": 5559,
      "400": 5560,
      "}]": 5561,
      "Ġlot": 5562,
      "Ġbytes": 5563,
      "writ": 5564,
      "allow": 5565,
      "ĠSociety": 5566,
      "Ġfollowed": 5567,
      "WE": 5568,
      "ĠJSON": 5569,
      "OK": 5570,
      "Ġnumbers": 5571,
      "Ġobserved": 5572,
      "ĠLeg": 5573,
      ";\\": 5574,
      "Byte": 5575,
      "ĠNews": 5576,
      "Decl": 5577,
      "Ġequival": 5578,
      "material": 5579,
      "Ġplatform": 5580,
      "Ġprinc": 5581,
      "icol": 5582,
      "Ġrecorded": 5583,
      "Ġdirectory": 5584,
      "Ġassist": 5585,
      "Ġmissing": 5586,
      "Ġpackage": 5587,
      "pling": 5588,
      "Ġtransport": 5589,
      "Ġtransaction": 5590,
      "las": 5591,
      "atively": 5592,
      "Ġchall": 5593,
      "Ġtax": 5594,
      "graph": 5595,
      "ining": 5596,
      "Ġabs": 5597,
      "ening": 5598,
      "FL": 5599,
      "ĠAlex": 5600,
      "Ġotherwise": 5601,
      "Ġnews": 5602,
      "ĠClub": 5603,
      "Ġeffects": 5604,
      "PS": 5605,
      "1991": 5606,
      "Ġinside": 5607,
      "Ġfeel": 5608,
      "ĠGames": 5609,
      "high": 5610,
      "step": 5611,
      "term": 5612,
      "equiv": 5613,
      "Ġdesigned": 5614,
      "Ġtransition": 5615,
      "Ġmodern": 5616,
      "ensus": 5617,
      "Ġwife": 5618,
      "help": 5619,
      ">.": 5620,
      "Ġrequ": 5621,
      "ipe": 5622,
      "ĠMath": 5623,
      "Ġclasses": 5624,
      "aily": 5625,
      "ĠIS": 5626,
      "Ġfamil": 5627,
      "real": 5628,
      "ĠPat": 5629,
      "Ġ'/": 5630,
      "Ġcomponents": 5631,
      "=#": 5632,
      "Ġsecurity": 5633,
      "Ġexpand": 5634,
      "force": 5635,
      "*)": 5636,
      "ĠBest": 5637,
      "ĠIO": 5638,
      "ĠTex": 5639,
      "PL": 5640,
      "Ġstre": 5641,
      "airs": 5642,
      "Ġnote": 5643,
      "Ġtoday": 5644,
      "Storage": 5645,
      "Ġdomain": 5646,
      "Policy": 5647,
      "Ġeditor": 5648,
      "My": 5649,
      "Ġprogress": 5650,
      "Ġlearning": 5651,
      "anning": 5652,
      "ĠMat": 5653,
      "ĠMichael": 5654,
      "atalog": 5655,
      "Am": 5656,
      "Ġcoordin": 5657,
      "}\"": 5658,
      "Ġbutton": 5659,
      "Pop": 5660,
      "Ġunits": 5661,
      "Ins": 5662,
      "GE": 5663,
      "ĠIsland": 5664,
      "ensuremath": 5665,
      "Ġconcern": 5666,
      "Ġspeed": 5667,
      "ynchron": 5668,
      "'))": 5669,
      "92": 5670,
      "Ġrepresentation": 5671,
      "ĠCong": 5672,
      "Ġorigin": 5673,
      "Ġdirected": 5674,
      "eck": 5675,
      "Meta": 5676,
      "eek": 5677,
      "Ġbehind": 5678,
      "that": 5679,
      "93": 5680,
      "illing": 5681,
      "Ġusually": 5682,
      "Ġwhole": 5683,
      "register": 5684,
      "Ġdam": 5685,
      "Red": 5686,
      "Ġnor": 5687,
      "Ġlonger": 5688,
      "pring": 5689,
      "rule": 5690,
      "Ġgives": 5691,
      "Ġbad": 5692,
      "ĠTable": 5693,
      "Ġmount": 5694,
      "'>": 5695,
      "connection": 5696,
      "ĠWhile": 5697,
      "win": 5698,
      "ĠEv": 5699,
      "68": 5700,
      "Ġ{};": 5701,
      "Ġincrease": 5702,
      "ĠMiss": 5703,
      "ĠĠĠĠĠĠĊ": 5704,
      "Te": 5705,
      "91": 5706,
      "ye": 5707,
      "ĠTur": 5708,
      "mock": 5709,
      "FC": 5710,
      "star": 5711,
      "Ġcref": 5712,
      "aved": 5713,
      "ips": 5714,
      "ĠDemocr": 5715,
      "ĠHel": 5716,
      "Ġfinished": 5717,
      "pers": 5718,
      "Ljava": 5719,
      "Ġapply": 5720,
      "ĠTown": 5721,
      "Ġupper": 5722,
      "porary": 5723,
      "ĠVer": 5724,
      "Di": 5725,
      "Ġformed": 5726,
      "Ġanaly": 5727,
      "rum": 5728,
      "ultural": 5729,
      "fil": 5730,
      "ĠName": 5731,
      "Ġnu": 5732,
      "rael": 5733,
      "ims": 5734,
      "ĠLO": 5735,
      "El": 5736,
      "CTION": 5737,
      "Ġsus": 5738,
      "ĠDet": 5739,
      "ĠMem": 5740,
      "Ġimmedi": 5741,
      "ĠYear": 5742,
      "ĠHTML": 5743,
      "ĠAfrica": 5744,
      "Ġextension": 5745,
      "Definition": 5746,
      "sumer": 5747,
      "Ġusers": 5748,
      "Ġtell": 5749,
      "Click": 5750,
      "rial": 5751,
      "ĠOther": 5752,
      "hs": 5753,
      "legal": 5754,
      "ĠHen": 5755,
      "Ġliving": 5756,
      "Ġmanager": 5757,
      "men": 5758,
      "full": 5759,
      "Ġmother": 5760,
      "ested": 5761,
      "Wrap": 5762,
      "ĠMad": 5763,
      "PA": 5764,
      "ĠItal": 5765,
      "Ġlargest": 5766,
      "MD": 5767,
      "Ġjoin": 5768,
      "ĠĠĠĠĠĠĠĠĠĠĠĠĠĠĠĠĠĠ": 5769,
      "Ġdifficult": 5770,
      "mas": 5771,
      "Ġpresented": 5772,
      "Dialog": 5773,
      "Ġattr": 5774,
      "Ġinvolved": 5775,
      "ancial": 5776,
      "ĠError": 5777,
      "ĠAssembly": 5778,
      "Ġnet": 5779,
      "Security": 5780,
      "category": 5781,
      "Ġmsg": 5782,
      "ĠAL": 5783,
      "ĠassertEquals": 5784,
      "Ġ<=": 5785,
      "ĠField": 5786,
      "edge": 5787,
      "ulate": 5788,
      "Requ": 5789,
      "ĠKingdom": 5790,
      "ĠMer": 5791,
      "HP": 5792,
      "ĠCentral": 5793,
      "Ġexperience": 5794,
      "Ġshape": 5795,
      "netic": 5796,
      "password": 5797,
      "ĠCath": 5798,
      "ĠCanadian": 5799,
      "ĠAfrican": 5800,
      "Ġappeared": 5801,
      "Ġreading": 5802,
      "Ġproblems": 5803,
      "Package": 5804,
      "Ġsignal": 5805,
      "ĠAut": 5806,
      "romise": 5807,
      "ares": 5808,
      "ocity": 5809,
      "Ġprote": 5810,
      "clusion": 5811,
      "ili": 5812,
      "FAULT": 5813,
      "Msg": 5814,
      "isation": 5815,
      "}+": 5816,
      "Mark": 5817,
      "Ġdimension": 5818,
      "comment": 5819,
      "Ġpick": 5820,
      "lyph": 5821,
      "Ġhit": 5822,
      "Ġeffort": 5823,
      "\\{": 5824,
      "Ġfinally": 5825,
      "Job": 5826,
      "ĠTom": 5827,
      "Ġaltern": 5828,
      "Ġapplied": 5829,
      "ucket": 5830,
      "ĠThomas": 5831,
      "EXT": 5832,
      "Cre": 5833,
      "Xml": 5834,
      "ĠSl": 5835,
      "ĠJer": 5836,
      "Ġaccur": 5837,
      "Ġjud": 5838,
      "shape": 5839,
      "aver": 5840,
      "ĠValue": 5841,
      "izations": 5842,
      "ospital": 5843,
      "Ġstudies": 5844,
      "1960": 5845,
      "Ġsex": 5846,
      "Ġnom": 5847,
      "Ġsymmet": 5848,
      "Ġschools": 5849,
      "napsh": 5850,
      "END": 5851,
      "Ġlikely": 5852,
      "email": 5853,
      "Ġgave": 5854,
      "Ġboard": 5855,
      "Ġforward": 5856,
      "Queue": 5857,
      "well": 5858,
      "\\]": 5859,
      "Ġvariables": 5860,
      "ĠRead": 5861,
      "yper": 5862,
      "admin": 5863,
      "Changed": 5864,
      "Ġlibrary": 5865,
      "Ġwhy": 5866,
      "Fields": 5867,
      "Ġthroughout": 5868,
      "]]": 5869,
      "Ġstack": 5870,
      "keyword": 5871,
      "inct": 5872,
      "ĠGold": 5873,
      "coin": 5874,
      "iences": 5875,
      "auto": 5876,
      "ĠJew": 5877,
      "short": 5878,
      "So": 5879,
      "gan": 5880,
      "Tab": 5881,
      "Ġsubs": 5882,
      "ĠSal": 5883,
      "Ġcompared": 5884,
      "Ġreve": 5885,
      "ĠMethod": 5886,
      "ictor": 5887,
      "TED": 5888,
      "plugins": 5889,
      "orse": 5890,
      "ĠĠĠĠĠĠĠĠĠĠĠĠĠĠĠĠĠĠĠĠĠĠĠĠĠ": 5891,
      "elt": 5892,
      "ĠWhite": 5893,
      "Ġeight": 5894,
      "Ġmatches": 5895,
      "PRE": 5896,
      "ĠAccording": 5897,
      "Ġsources": 5898,
      "ĠChe": 5899,
      "irl": 5900,
      "witter": 5901,
      "Database": 5902,
      "Ġtherefore": 5903,
      "toggle": 5904,
      "__(": 5905,
      "holder": 5906,
      "Const": 5907,
      "Ġpolice": 5908,
      "overs": 5909,
      "indent": 5910,
      "Ġtemperature": 5911,
      "Ġyield": 5912,
      "1989": 5913,
      "Ġcouple": 5914,
      "prox": 5915,
      "Ġcontaining": 5916,
      "ying": 5917,
      "plements": 5918,
      "Ġbehavior": 5919,
      ";\"": 5920,
      "Each": 5921,
      "Ġmoney": 5922,
      "ĠMuseum": 5923,
      "keys": 5924,
      "SSERT": 5925,
      "oma": 5926,
      "AGE": 5927,
      "sem": 5928,
      "alysis": 5929,
      "ufact": 5930,
      "Ġstarting": 5931,
      "Ġrules": 5932,
      "Transaction": 5933,
      "ĠRegister": 5934,
      "63": 5935,
      "Ac": 5936,
      "Ġpreviously": 5937,
      "acement": 5938,
      "Psi": 5939,
      "Ġreplaced": 5940,
      "Ġbirth": 5941,
      "ĠGrand": 5942,
      "GB": 5943,
      "ĠTor": 5944,
      "Ġalbums": 5945,
      "ĠEar": 5946,
      "election": 5947,
      "}=\\": 5948,
      "ores": 5949,
      "Ġstars": 5950,
      "onstr": 5951,
      "Ġgas": 5952,
      "cmd": 5953,
      "Ġvolume": 5954,
      "ette": 5955,
      "Ġhous": 5956,
      "$)": 5957,
      "initial": 5958,
      "ĠUser": 5959,
      "Ġbooks": 5960,
      "ducation": 5961,
      "iders": 5962,
      "ĠHistor": 5963,
      "Ġlayer": 5964,
      "hadoop": 5965,
      "Ġdescribe": 5966,
      "lev": 5967,
      "Ġespecially": 5968,
      "items": 5969,
      "printf": 5970,
      "ĠLong": 5971,
      "ĠMont": 5972,
      "Ġimm": 5973,
      "osen": 5974,
      "Active": 5975,
      "ĠOver": 5976,
      "Ġli": 5977,
      "62": 5978,
      "gebra": 5979,
      "\\!": 5980,
      "idents": 5981,
      "Ġepisode": 5982,
      "car": 5983,
      "ITY": 5984,
      "Ġang": 5985,
      "Rule": 5986,
      "addr": 5987,
      "asketball": 5988,
      "Ġserial": 5989,
      "zeta": 5990,
      "Ġpersonal": 5991,
      "Ġ\"/": 5992,
      "Ġmanagement": 5993,
      "Ġnative": 5994,
      "ĠUse": 5995,
      "ita": 5996,
      "61": 5997,
      "Ġvel": 5998,
      "ournament": 5999,
      "Ġextra": 6000,
      "Ġ${": 6001,
      "ĠPost": 6002,
      "Ñĥ": 6003,
      "Ġoptim": 6004,
      "Ġbasis": 6005,
      "Ġfood": 6006,
      "ĠJapanese": 6007,
      "Ġsens": 6008,
      "Ġdistributed": 6009,
      "Ġmention": 6010,
      "Ġcontact": 6011,
      "LS": 6012,
      "Ġjavax": 6013,
      "Display": 6014,
      "unsigned": 6015,
      "Ġplaces": 6016,
      "\")]": 6017,
      "Initial": 6018,
      "Ġmatter": 6019,
      "usion": 6020,
      "atur": 6021,
      "Network": 6022,
      "Ġprofile": 6023,
      "Ġindustry": 6024,
      "azine": 6025,
      "ĠChristian": 6026,
      "Ġremoved": 6027,
      "Activity": 6028,
      "ipeline": 6029,
      "ĠDel": 6030,
      "uby": 6031,
      "cpp": 6032,
      "JECT": 6033,
      "elves": 6034,
      "ĠBen": 6035,
      "ocker": 6036,
      "Man": 6037,
      "Ġmus": 6038,
      "Ġord": 6039,
      "ĠMinister": 6040,
      "Send": 6041,
      "Ã§": 6042,
      "Ġsubsequ": 6043,
      "ĠResearch": 6044,
      "ĠRussian": 6045,
      "1988": 6046,
      "Ġwalk": 6047,
      "ignment": 6048,
      "FILE": 6049,
      "ometimes": 6050,
      "ifest": 6051,
      "ĠGoogle": 6052,
      "azz": 6053,
      "Ġroute": 6054,
      "Ġcause": 6055,
      "ki": 6056,
      "ĠCO": 6057,
      "herit": 6058,
      "ĠRecords": 6059,
      "ĠTechn": 6060,
      "Ġquick": 6061,
      "Ġfinite": 6062,
      "mercial": 6063,
      "Extension": 6064,
      "ansion": 6065,
      "Timeout": 6066,
      "RI": 6067,
      "coq": 6068,
      "ĠTexas": 6069,
      "allel": 6070,
      "ĠPo": 6071,
      "Ġelected": 6072,
      "ĠGod": 6073,
      "ĠScience": 6074,
      "83": 6075,
      "product": 6076,
      "Scope": 6077,
      "record": 6078,
      "Ġ),": 6079,
      "ether": 6080,
      "ĠAcademy": 6081,
      "Ġhtml": 6082,
      "ĠSing": 6083,
      "ĠKey": 6084,
      "nov": 6085,
      "Ġscen": 6086,
      "She": 6087,
      "bedd": 6088,
      "81": 6089,
      "ĠWestern": 6090,
      "Ġcop": 6091,
      "Any": 6092,
      "Ġleague": 6093,
      "thread": 6094,
      "JSON": 6095,
      "Ret": 6096,
      "pool": 6097,
      "TC": 6098,
      "WS": 6099,
      "CHE": 6100,
      "lam": 6101,
      "Show": 6102,
      ")=\\": 6103,
      "Account": 6104,
      "Ġinj": 6105,
      "Ġconver": 6106,
      "Ġphysical": 6107,
      "ĠNOT": 6108,
      "Ġfounded": 6109,
      "ĠURL": 6110,
      "olver": 6111,
      "ĠMus": 6112,
      "Ġonline": 6113,
      "thlet": 6114,
      "anguage": 6115,
      "Ġflag": 6116,
      "agnost": 6117,
      "omorph": 6118,
      "Ġdestroy": 6119,
      "Ġcourt": 6120,
      "Ident": 6121,
      "stat": 6122,
      "Dist": 6123,
      "ĠZeal": 6124,
      "Sw": 6125,
      "istan": 6126,
      "Main": 6127,
      "Att": 6128,
      "ĠSuper": 6129,
      "Ġpartial": 6130,
      "margin": 6131,
      "ĠChinese": 6132,
      "Ġinteger": 6133,
      "aled": 6134,
      "Ġassume": 6135,
      "Ġ(*": 6136,
      "Ġscore": 6137,
      "rong": 6138,
      "Ġsaw": 6139,
      "install": 6140,
      "VERSION": 6141,
      "Ġnecessary": 6142,
      "ĠInc": 6143,
      "Ġrelig": 6144,
      "HTML": 6145,
      "ĠDan": 6146,
      "ĠVirgin": 6147,
      "Ġresources": 6148,
      "esh": 6149,
      "Ġloop": 6150,
      "Ġexhib": 6151,
      "ĠGreat": 6152,
      "Ġpain": 6153,
      "ĠCarol": 6154,
      "uting": 6155,
      "ĠFore": 6156,
      "NE": 6157,
      "Ġste": 6158,
      "ixel": 6159,
      "74": 6160,
      "Ġjournal": 6161,
      "ighest": 6162,
      "Ġroom": 6163,
      "inder": 6164,
      "km": 6165,
      "ĠDefault": 6166,
      "reland": 6167,
      "Note": 6168,
      "ĠZealand": 6169,
      "Ġauth": 6170,
      "Ġwallet": 6171,
      "Ġsports": 6172,
      "Ġforces": 6173,
      "ja": 6174,
      "ĠLouis": 6175,
      "sche": 6176,
      "KEY": 6177,
      "relation": 6178,
      "Ġtests": 6179,
      "ĠSmith": 6180,
      "Ġsmaller": 6181,
      "Ġtowards": 6182,
      "atre": 6183,
      "Ġdaughter": 6184,
      "isions": 6185,
      "uler": 6186,
      ")/": 6187,
      "Ġir": 6188,
      "ingu": 6189,
      "Widget": 6190,
      "Ġkilled": 6191,
      "Ġconcept": 6192,
      "Ġconstit": 6193,
      "Custom": 6194,
      "pute": 6195,
      "Ġquantum": 6196,
      "Ġetc": 6197,
      "ĠProject": 6198,
      "rot": 6199,
      ")^{": 6200,
      "radius": 6201,
      "Ġruns": 6202,
      "Ġdb": 6203,
      "ĠKe": 6204,
      "Fil": 6205,
      "Ġimpact": 6206,
      "Ġprobability": 6207,
      "solute": 6208,
      "names": 6209,
      "ixture": 6210,
      "Ġwrap": 6211,
      "Ġdifference": 6212,
      "ĠEvent": 6213,
      "Ġhot": 6214,
      "none": 6215,
      "TS": 6216,
      "ĠÎ": 6217,
      "iece": 6218,
      "Ġcomes": 6219,
      "Sum": 6220,
      "Ġcountries": 6221,
      "olar": 6222,
      "ĠItalian": 6223,
      "ĠFe": 6224,
      "Ġess": 6225,
      "very": 6226,
      "Since": 6227,
      "Ġveh": 6228,
      "79": 6229,
      "Ġappointed": 6230,
      "ker": 6231,
      "ĠFrancis": 6232,
      "uest": 6233,
      "Ġholds": 6234,
      "Ġlock": 6235,
      "Ġcore": 6236,
      "Ġer": 6237,
      "Pool": 6238,
      "ĠCharles": 6239,
      "ĠSummer": 6240,
      "Ġhours": 6241,
      "bot": 6242,
      "modules": 6243,
      "impl": 6244,
      "Ġimplementation": 6245,
      "anned": 6246,
      "Ġarticle": 6247,
      "lers": 6248,
      "Channel": 6249,
      "Edit": 6250,
      "iller": 6251,
      "lines": 6252,
      "Ġmock": 6253,
      "ĠScot": 6254,
      "Ġstrict": 6255,
      "Var": 6256,
      "Ġgenerate": 6257,
      "Ġeffective": 6258,
      "Ġguitar": 6259,
      "NA": 6260,
      "resents": 6261,
      "region": 6262,
      "160": 6263,
      "1987": 6264,
      "Ġidea": 6265,
      "primary": 6266,
      "linear": 6267,
      "elli": 6268,
      "Ġcollect": 6269,
      "atically": 6270,
      "![": 6271,
      "Ġaud": 6272,
      "{(": 6273,
      "leep": 6274,
      "Ġlisted": 6275,
      "Member": 6276,
      "evelopment": 6277,
      "hing": 6278,
      "Now": 6279,
      "ĠKore": 6280,
      "ĠVAL": 6281,
      "Ġmiddle": 6282,
      "73": 6283,
      "Ġbottom": 6284,
      "gs": 6285,
      "Ġadapt": 6286,
      "Ġseven": 6287,
      "Ġlevels": 6288,
      "Ġhandler": 6289,
      "ircraft": 6290,
      "=\"\"": 6291,
      "atin": 6292,
      "Symfony": 6293,
      "ĠSur": 6294,
      "dule": 6295,
      "Ġcoach": 6296,
      "Lock": 6297,
      "Ġbecomes": 6298,
      "BR": 6299,
      "Ã³n": 6300,
      "GS": 6301,
      "ĠHand": 6302,
      "ifies": 6303,
      ")}\\": 6304,
      "Ġstaff": 6305,
      "69": 6306,
      "Struct": 6307,
      "tty": 6308,
      "Ġshare": 6309,
      "lemma": 6310,
      "ĠHistory": 6311,
      "(!": 6312,
      "spring": 6313,
      "ĠTheorem": 6314,
      "kr": 6315,
      "Ġdemonstr": 6316,
      "rey": 6317,
      "numer": 6318,
      "ĠĠĠĠĠĠĠĠĠĠĠĠĠĠĠĠĠĠĠĠĠĠĠĠ": 6319,
      "ĠFlor": 6320,
      "ĠFigure": 6321,
      "BS": 6322,
      "~~~~": 6323,
      "Ġinstanceof": 6324,
      "inv": 6325,
      "cup": 6326,
      "Ġstri": 6327,
      "Ġfootballers": 6328,
      "Ġsoon": 6329,
      "DI": 6330,
      "Ġsurv": 6331,
      "ĉĉĉĊ": 6332,
      "Ġche": 6333,
      "Ġball": 6334,
      "grid": 6335,
      "Ġcounter": 6336,
      "sets": 6337,
      "olk": 6338,
      "agger": 6339,
      "Art": 6340,
      "eries": 6341,
      "lood": 6342,
      "variant": 6343,
      "ĠRel": 6344,
      "[:": 6345,
      "Ġdecision": 6346,
      "ky": 6347,
      "stop": 6348,
      ".*": 6349,
      "ĠFinal": 6350,
      "enter": 6351,
      "Ġconsole": 6352,
      "isl": 6353,
      "Ġtit": 6354,
      "results": 6355,
      "ĠFootball": 6356,
      "Flags": 6357,
      "apped": 6358,
      "Ġexplicit": 6359,
      "Only": 6360,
      "@\"": 6361,
      "ĠLandroid": 6362,
      "DA": 6363,
      "Ġdro": 6364,
      "()));": 6365,
      "PAR": 6366,
      "reme": 6367,
      "ĠFrank": 6368,
      "ĠOrder": 6369,
      "pare": 6370,
      "ici": 6371,
      "den": 6372,
      "Ġsimply": 6373,
      "cut": 6374,
      "Ġsen": 6375,
      "256": 6376,
      "events": 6377,
      "Ġbuildings": 6378,
      "enumer": 6379,
      "Ġbegin": 6380,
      "Ġreached": 6381,
      "Ġdidn": 6382,
      "71": 6383,
      "^+": 6384,
      "important": 6385,
      "stats": 6386,
      "Ġrepe": 6387,
      "alloc": 6388,
      "notation": 6389,
      "inet": 6390,
      "Init": 6391,
      "sect": 6392,
      "Ġinvestig": 6393,
      "textwidth": 6394,
      "ĠSecond": 6395,
      "oration": 6396,
      "_,": 6397,
      "TEX": 6398,
      "cdots": 6399,
      "Ġbeginning": 6400,
      "Media": 6401,
      "Ġâ": 6402,
      "Ġbelong": 6403,
      "iments": 6404,
      "move": 6405,
      "ango": 6406,
      "=\"\">": 6407,
      "======": 6408,
      "Ġinstit": 6409,
      "txt": 6410,
      "ĠJose": 6411,
      "ancel": 6412,
      "sample": 6413,
      ".~": 6414,
      "_->": 6415,
      "ookie": 6416,
      "Second": 6417,
      "master": 6418,
      "mitted": 6419,
      "Ġplant": 6420,
      "properties": 6421,
      "1986": 6422,
      "forms": 6423,
      "liance": 6424,
      "////////////////////////////////": 6425,
      "Windows": 6426,
      "Ġclean": 6427,
      "EC": 6428,
      "Perm": 6429,
      "Logger": 6430,
      "Ġbtn": 6431,
      "faces": 6432,
      "hentication": 6433,
      "Events": 6434,
      "Desc": 6435,
      "Ġearlier": 6436,
      "ror": 6437,
      "pped": 6438,
      "Symbol": 6439,
      "ĠPeter": 6440,
      "ĠFalse": 6441,
      "osing": 6442,
      ")))": 6443,
      "ĠModel": 6444,
      "1984": 6445,
      "Ġincreasing": 6446,
      "MENT": 6447,
      "present": 6448,
      "Support": 6449,
      "kg": 6450,
      "Ġboundary": 6451,
      "Ġfemale": 6452,
      "throws": 6453,
      "olf": 6454,
      "\">&": 6455,
      "Ġminutes": 6456,
      "Ġbenef": 6457,
      "Ġfit": 6458,
      "Ð°Ð": 6459,
      "}:": 6460,
      "annels": 6461,
      "ifications": 6462,
      "Year": 6463,
      "Ġteach": 6464,
      "urt": 6465,
      "Ġconnected": 6466,
      "ously": 6467,
      "NN": 6468,
      "ancy": 6469,
      "Ġquality": 6470,
      "assets": 6471,
      "Ġkeys": 6472,
      "ĠPri": 6473,
      "Ġstatement": 6474,
      "ads": 6475,
      "Iterator": 6476,
      "Ġtrain": 6477,
      "heast": 6478,
      "points": 6479,
      "ADD": 6480,
      "utf": 6481,
      "eve": 6482,
      "Ġdynam": 6483,
      "ĠBig": 6484,
      "allery": 6485,
      "Ġterr": 6486,
      "Ġcivil": 6487,
      ")\"": 6488,
      "Ġalumni": 6489,
      "Ġsave": 6490,
      "Ġlimited": 6491,
      "elebr": 6492,
      "orter": 6493,
      "ĠWhat": 6494,
      "scroll": 6495,
      "=\"@": 6496,
      "xspace": 6497,
      "Ġdark": 6498,
      "enge": 6499,
      "Ġgold": 6500,
      "Ġbring": 6501,
      "Constr": 6502,
      "ami": 6503,
      "Ġstructures": 6504,
      "ved": 6505,
      "LOG": 6506,
      "Members": 6507,
      "argument": 6508,
      "Ġspin": 6509,
      "Auth": 6510,
      "ĠText": 6511,
      "Bit": 6512,
      "Ġentity": 6513,
      "mooth": 6514,
      "Ġpy": 6515,
      "rb": 6516,
      "ĠThus": 6517,
      "Ġ%}": 6518,
      "dimension": 6519,
      "icated": 6520,
      "What": 6521,
      "ĠParis": 6522,
      "ĠAv": 6523,
      "Ġchain": 6524,
      "Ġgrant": 6525,
      "Ġsense": 6526,
      "Ġrepresented": 6527,
      "jquery": 6528,
      "ĠFin": 6529,
      "ĠCopy": 6530,
      "ĠOlympics": 6531,
      "UID": 6532,
      "dim": 6533,
      "Ġgalax": 6534,
      "Graph": 6535,
      "icago": 6536,
      "Ġtold": 6537,
      "1985": 6538,
      "angular": 6539,
      "Person": 6540,
      "ĠTem": 6541,
      "bi": 6542,
      "aud": 6543,
      "Ã¨": 6544,
      "Prop": 6545,
      "ĠTim": 6546,
      "ĠLake": 6547,
      "Cle": 6548,
      "Ġunknown": 6549,
      "}|": 6550,
      "related": 6551,
      "}_\\": 6552,
      "ĠIsrael": 6553,
      "Ġ[];": 6554,
      "NG": 6555,
      "Ġproper": 6556,
      "acc": 6557,
      "dropdown": 6558,
      "=>": 6559,
      "Ġelem": 6560,
      "save": 6561,
      "Ġfeed": 6562,
      "widehat": 6563,
      "(){": 6564,
      "TV": 6565,
      "Ġtravel": 6566,
      "}^\\": 6567,
      "Ġelectron": 6568,
      "family": 6569,
      "ĠForce": 6570,
      "ĠHealth": 6571,
      "super": 6572,
      "duction": 6573,
      "schema": 6574,
      "Expr": 6575,
      "ĠMel": 6576,
      "reshold": 6577,
      ")-": 6578,
      "Directory": 6579,
      "ĠRichard": 6580,
      "Conf": 6581,
      "ĠHill": 6582,
      "Ġstated": 6583,
      "Ġforms": 6584,
      "qquad": 6585,
      "Ġslow": 6586,
      "Ġwoman": 6587,
      "Ġproducts": 6588,
      "pay": 6589,
      "Ġwatch": 6590,
      "hav": 6591,
      "ĠBill": 6592,
      "ĠCall": 6593,
      "Ġensure": 6594,
      "ĠMass": 6595,
      "ees": 6596,
      "nce": 6597,
      "Proxy": 6598,
      "flags": 6599,
      "TABLE": 6600,
      "shall": 6601,
      "Ġtechnology": 6602,
      "Ġevidence": 6603,
      "Ġicon": 6604,
      "ollowing": 6605,
      "Ġinterpre": 6606,
      "()).": 6607,
      ")));": 6608,
      "shift": 6609,
      "peed": 6610,
      "Ġartists": 6611,
      "Ġattributes": 6612,
      "Ġfast": 6613,
      "ĠCatholic": 6614,
      "ĠNow": 6615,
      "Ġplaced": 6616,
      "Background": 6617,
      "Loader": 6618,
      "people": 6619,
      "ById": 6620,
      "Rest": 6621,
      "mi": 6622,
      "ĠShow": 6623,
      "Ġprobably": 6624,
      "mathsf": 6625,
      "tip": 6626,
      "ĠIP": 6627,
      "Av": 6628,
      "while": 6629,
      "ĠOption": 6630,
      "Ġremains": 6631,
      "dx": 6632,
      "PORT": 6633,
      "Items": 6634,
      "Ġcalls": 6635,
      "crete": 6636,
      "SU": 6637,
      "iring": 6638,
      "pri": 6639,
      "ĠRock": 6640,
      "andra": 6641,
      "NotNull": 6642,
      "ella": 6643,
      "ository": 6644,
      "Ġvoc": 6645,
      "Ġpaint": 6646,
      "ĠĠĠĠĠĠĠĠĠĠĠĠĠĠĠĠĠĠĠĠĠĠ": 6647,
      "selected": 6648,
      "ĠMax": 6649,
      "assertEqual": 6650,
      "Ġshared": 6651,
      "napshot": 6652,
      "controller": 6653,
      "Rece": 6654,
      "Ġbroadcast": 6655,
      "ech": 6656,
      "ARY": 6657,
      "Ġincor": 6658,
      "Ġhel": 6659,
      "Ġpractice": 6660,
      "assertEquals": 6661,
      "ACE": 6662,
      "oped": 6663,
      "ĠProf": 6664,
      "ato": 6665,
      "ĠCommission": 6666,
      "Runtime": 6667,
      "Ġprevent": 6668,
      "Ġeventually": 6669,
      "Internal": 6670,
      "Ġcapital": 6671,
      "ĠWomen": 6672,
      "lie": 6673,
      "Ġpeak": 6674,
      "Ġculture": 6675,
      "profile": 6676,
      "Ġcharg": 6677,
      "igan": 6678,
      "ectors": 6679,
      "MAX": 6680,
      "ĠTHE": 6681,
      "Float": 6682,
      "ĠCamp": 6683,
      "=(": 6684,
      "Other": 6685,
      "ternet": 6686,
      "even": 6687,
      "contrib": 6688,
      "Ġactivity": 6689,
      "Ġpointer": 6690,
      "Ġthing": 6691,
      "]:": 6692,
      "Ġ\\{": 6693,
      "Ġinsert": 6694,
      "})\\": 6695,
      "Ġalloc": 6696,
      "Ġrequires": 6697,
      "ĠMil": 6698,
      "FR": 6699,
      "Enum": 6700,
      "anta": 6701,
      "Ġchoice": 6702,
      "Ġdu": 6703,
      "->_": 6704,
      "razil": 6705,
      "war": 6706,
      "DS": 6707,
      "Found": 6708,
      "Ġstations": 6709,
      "fore": 6710,
      "Ġcategory": 6711,
      "Before": 6712,
      "inger": 6713,
      "Ġfun": 6714,
      "ĠVictor": 6715,
      "Ġded": 6716,
      "ĠDu": 6717,
      "Ġsecret": 6718,
      "ĠLos": 6719,
      "Selector": 6720,
      "Ġartist": 6721,
      "_(": 6722,
      "git": 6723,
      "Ġreceive": 6724,
      "}</": 6725,
      "Ġremain": 6726,
      "Ġlack": 6727,
      "Ġansw": 6728,
      "Ġbrother": 6729,
      "Ġawait": 6730,
      "ĠLine": 6731,
      "ĠNO": 6732,
      "fect": 6733,
      "utch": 6734,
      "}^{(": 6735,
      "Ġnothing": 6736,
      "CI": 6737,
      "ĠIreland": 6738,
      "PATH": 6739,
      "SIZE": 6740,
      "bul": 6741,
      ".__": 6742,
      "Ġpurch": 6743,
      "Ġleader": 6744,
      "Own": 6745,
      "ĠAnn": 6746,
      "network": 6747,
      ":#": 6748,
      "Ġoriginally": 6749,
      "ih": 6750,
      "Ġcard": 6751,
      "ga": 6752,
      "security": 6753,
      "Ġhighest": 6754,
      "Äģ": 6755,
      "Ġinvolv": 6756,
      "Layer": 6757,
      "alance": 6758,
      "ĠInst": 6759,
      "iger": 6760,
      "Ġbank": 6761,
      "Editor": 6762,
      "ĠCast": 6763,
      "ĠIll": 6764,
      "}\\,": 6765,
      "Ġlo": 6766,
      "rees": 6767,
      "uty": 6768,
      "Inv": 6769,
      "Ġtransp": 6770,
      "ĠAN": 6771,
      "Cond": 6772,
      "Ġscient": 6773,
      "Ġcritical": 6774,
      "'])": 6775,
      "typeof": 6776,
      "Adapter": 6777,
      "Ġfunc": 6778,
      "eler": 6779,
      "1950": 6780,
      "Ġshift": 6781,
      "uan": 6782,
      "1983": 6783,
      "Final": 6784,
      "Ġspent": 6785,
      "Ġgenerally": 6786,
      "ĠEngine": 6787,
      "itz": 6788,
      "ĠGovernment": 6789,
      "oub": 6790,
      "ko": 6791,
      "Ġpor": 6792,
      "Ġdecided": 6793,
      "ĠFunction": 6794,
      "ĠStar": 6795,
      "Ġdoing": 6796,
      "Ġio": 6797,
      "ecause": 6798,
      ")\">": 6799,
      "Ġminimum": 6800,
      "ĠNode": 6801,
      "ĠAust": 6802,
      "ĠGeorg": 6803,
      "job": 6804,
      "Attributes": 6805,
      "tained": 6806,
      "ishop": 6807,
      "Ġappears": 6808,
      "Ġwide": 6809,
      "Ġsn": 6810,
      "ĠTwo": 6811,
      "ĠVersion": 6812,
      "LP": 6813,
      "Ġbasic": 6814,
      "iny": 6815,
      "components": 6816,
      "Ġcharge": 6817,
      "rev": 6818,
      "uter": 6819,
      "ady": 6820,
      "Ġfinish": 6821,
      "organ": 6822,
      "Ġdim": 6823,
      "plex": 6824,
      "Ġmedal": 6825,
      "ental": 6826,
      "Ġstudied": 6827,
      "miss": 6828,
      "Ġfourth": 6829,
      "Close": 6830,
      "anda": 6831,
      "IB": 6832,
      "ji": 6833,
      "ToString": 6834,
      "inate": 6835,
      "ĠPub": 6836,
      "Ġextended": 6837,
      "Ġremaining": 6838,
      "citet": 6839,
      "ussian": 6840,
      "Ġmut": 6841,
      ".'": 6842,
      "approx": 6843,
      "Ġoccup": 6844,
      "Ġstorage": 6845,
      "Ġresulting": 6846,
      "arian": 6847,
      "ĠFoundation": 6848,
      "Plugin": 6849,
      "screen": 6850,
      "osh": 6851,
      "ĠĠĠĠĠĠĠĠĠĠĠĠĠĠĠĠĠĠĠĠĠĠĠĠĠĠĠĠĠĠĠĠĠĠĠĠĠĠĠĠĠĠĠĠĠĠĠĠĠĠĠĠĠĠĠĠĠĠĠĠĠĠĠĠ": 6852,
      "Ġinstr": 6853,
      "Ne": 6854,
      "ien": 6855,
      "Parse": 6856,
      "ĠView": 6857,
      "Ġoverall": 6858,
      "ora": 6859,
      "hold": 6860,
      "Ġrecomm": 6861,
      "Ġfully": 6862,
      "Ġmunic": 6863,
      "fly": 6864,
      "++;": 6865,
      "Transform": 6866,
      "ression": 6867,
      "ĠPlay": 6868,
      "Feature": 6869,
      "igration": 6870,
      "Ġseem": 6871,
      "defined": 6872,
      "Ġowner": 6873,
      "ĠĠĠĊ": 6874,
      "Ġrecords": 6875,
      "ĠId": 6876,
      "Auto": 6877,
      "kw": 6878,
      "Del": 6879,
      "abit": 6880,
      "ĠTask": 6881,
      "Memory": 6882,
      "asy": 6883,
      "account": 6884,
      "Ġpred": 6885,
      "ylv": 6886,
      "limit": 6887,
      "aser": 6888,
      "aration": 6889,
      "enses": 6890,
      "Matrix": 6891,
      "desc": 6892,
      "nel": 6893,
      "Ġfamilies": 6894,
      "Ġdead": 6895,
      "Ġweak": 6896,
      "Ġexport": 6897,
      "engine": 6898,
      "Ġng": 6899,
      "çļ": 6900,
      "Ġbranch": 6901,
      "Ġregions": 6902,
      "structure": 6903,
      "Ġpanel": 6904,
      "Ġnegative": 6905,
      "XML": 6906,
      "Panel": 6907,
      "domain": 6908,
      "manager": 6909,
      "NavBarCell": 6910,
      "ĠTODO": 6911,
      "cb": 6912,
      "ĠWindow": 6913,
      "iday": 6914,
      "Ġcompetition": 6915,
      ")),": 6916,
      "Ġutil": 6917,
      "Ġbrought": 6918,
      "Ġinvalid": 6919,
      "Ġoptional": 6920,
      "ployment": 6921,
      "ĠTop": 6922,
      "Ġ$(\\": 6923,
      "Ġvs": 6924,
      "1982": 6925,
      "ĠPan": 6926,
      "ĠNetwork": 6927,
      "=-": 6928,
      "Ġmaster": 6929,
      "contin": 6930,
      "Play": 6931,
      "ĠOf": 6932,
      "house": 6933,
      "ĠOp": 6934,
      "Ġbuilder": 6935,
      "raction": 6936,
      "'m": 6937,
      "ĠCode": 6938,
      "Generic": 6939,
      "Ġstreng": 6940,
      "Func": 6941,
      "MOD": 6942,
      "Ñı": 6943,
      "\",\"": 6944,
      "cf": 6945,
      "Ġexternal": 6946,
      "Ġhidden": 6947,
      "Ġ\"\"": 6948,
      "çļĦ": 6949,
      "ĠSpanish": 6950,
      "aming": 6951,
      "Ä±": 6952,
      "ĠNumber": 6953,
      "Ġtrade": 6954,
      "logger": 6955,
      "ï¼": 6956,
      "}\\\\": 6957,
      "jar": 6958,
      "ĠMessage": 6959,
      "reset": 6960,
      "tex": 6961,
      "ils": 6962,
      "[$": 6963,
      "Ġdetermine": 6964,
      "mselves": 6965,
      "Ġasync": 6966,
      "Ġmeaning": 6967,
      "Ġsplit": 6968,
      "Ġdetermined": 6969,
      "Ġillustr": 6970,
      "va": 6971,
      "Pack": 6972,
      "ĠAlso": 6973,
      "Ġpublish": 6974,
      "Ġdecre": 6975,
      "Ġpark": 6976,
      "icks": 6977,
      "Ġlib": 6978,
      "ificate": 6979,
      "ima": 6980,
      "Ġenabled": 6981,
      "Ġblue": 6982,
      "irmed": 6983,
      "ĠFilm": 6984,
      "Ġip": 6985,
      "Ġorganization": 6986,
      "ĠLife": 6987,
      "isters": 6988,
      "handler": 6989,
      "bitr": 6990,
      "erial": 6991,
      "ĠArts": 6992,
      "afety": 6993,
      "Print": 6994,
      "Ġmovement": 6995,
      "ĠStep": 6996,
      "WA": 6997,
      "LIC": 6998,
      "Ġgun": 6999,
      "Ġmur": 7000,
      "Ġbur": 7001,
      "Ġleave": 7002,
      "ockey": 7003,
      "Ġ>>": 7004,
      "osph": 7005,
      "ĠLand": 7006,
      "Ġsolutions": 7007,
      "ĠHere": 7008,
      "Ġrecover": 7009,
      "echo": 7010,
      "Ġminor": 7011,
      "ilation": 7012,
      "room": 7013,
      "Ġfoot": 7014,
      "1979": 7015,
      "Protocol": 7016,
      "ĠPenn": 7017,
      "Ġadopt": 7018,
      "ĠIts": 7019,
      "Ġincreased": 7020,
      "channel": 7021,
      "aret": 7022,
      "Ġfigure": 7023,
      "Ġthemselves": 7024,
      "ĠFlorida": 7025,
      "ean": 7026,
      "omial": 7027,
      "Ġcollege": 7028,
      "each": 7029,
      "rine": 7030,
      "Ġuseful": 7031,
      "&=": 7032,
      "istent": 7033,
      ")).": 7034,
      "ĠCongress": 7035,
      "ali": 7036,
      "iterator": 7037,
      "ĠLemma": 7038,
      "ĠInitial": 7039,
      "Ġrepresents": 7040,
      "total": 7041,
      "Ġrap": 7042,
      "Profile": 7043,
      "ĠVirginia": 7044,
      "urrency": 7045,
      "bad": 7046,
      "urred": 7047,
      "abilities": 7048,
      "ROM": 7049,
      "Ġcritic": 7050,
      "ĠDen": 7051,
      "BUG": 7052,
      "\"`": 7053,
      "idae": 7054,
      "Ġgrowth": 7055,
      "ĠColor": 7056,
      "Files": 7057,
      "CHECK": 7058,
      "tsd": 7059,
      "Ġequivalent": 7060,
      "Ġscience": 7061,
      "Ġopport": 7062,
      "Ġ{'": 7063,
      "home": 7064,
      "ibly": 7065,
      "bytes": 7066,
      "ĠCommittee": 7067,
      "Ġimplements": 7068,
      "SQL": 7069,
      "ĠParliament": 7070,
      "Ġasked": 7071,
      "ategories": 7072,
      "Ġlooking": 7073,
      "Ġtab": 7074,
      "oviet": 7075,
      "vant": 7076,
      "Ġmanufact": 7077,
      "metadata": 7078,
      "ĠPeople": 7079,
      "################": 7080,
      "Ġpri": 7081,
      "IMP": 7082,
      "Ġstay": 7083,
      "Ġfeatured": 7084,
      "Ġcoming": 7085,
      "Ġinterval": 7086,
      "pons": 7087,
      "dates": 7088,
      "}}(": 7089,
      "trigger": 7090,
      "geles": 7091,
      "ĠCD": 7092,
      "scr": 7093,
      "inem": 7094,
      "More": 7095,
      "FIG": 7096,
      "unched": 7097,
      "Ġga": 7098,
      "SR": 7099,
      "ĠMexico": 7100,
      "Ġproced": 7101,
      "switch": 7102,
      "sur": 7103,
      "UTF": 7104,
      "nes": 7105,
      "Ġgetting": 7106,
      "Ġpresence": 7107,
      "Ġfn": 7108,
      "Ġknowledge": 7109,
      "apply": 7110,
      "Ġrecently": 7111,
      "Route": 7112,
      "Ġsch": 7113,
      "Java": 7114,
      "Ġstudent": 7115,
      "Ġremained": 7116,
      "ĠSun": 7117,
      "Ġ(_": 7118,
      "ager": 7119,
      "Ġaircraft": 7120,
      "Ġnature": 7121,
      "ĠVis": 7122,
      "browser": 7123,
      "Ġratio": 7124,
      "Ġtraditional": 7125,
      "Ġgrand": 7126,
      "ĠSwed": 7127,
      "hy": 7128,
      "ĠHenry": 7129,
      "Äĩ": 7130,
      "contains": 7131,
      "Ġencoding": 7132,
      "Ġpen": 7133,
      "ĠSeries": 7134,
      "Ġrestrict": 7135,
      "ĠOur": 7136,
      "SER": 7137,
      "ĠChicago": 7138,
      "ĠVol": 7139,
      "Ġcoeff": 7140,
      "cape": 7141,
      "subs": 7142,
      "editor": 7143,
      "pository": 7144,
      "ĠUpdate": 7145,
      "Section": 7146,
      "ĠProgram": 7147,
      "Ġtouch": 7148,
      "fort": 7149,
      "ĠExec": 7150,
      "ĠAND": 7151,
      "Pointer": 7152,
      "Ġanti": 7153,
      "Ġidentity": 7154,
      "Ġsometimes": 7155,
      "Ġlegal": 7156,
      "Ġlatter": 7157,
      "hol": 7158,
      "deg": 7159,
      "$/": 7160,
      "horizontal": 7161,
      "grade": 7162,
      "getName": 7163,
      "bes": 7164,
      "ONE": 7165,
      "attributes": 7166,
      "Ġreq": 7167,
      "Ġgreater": 7168,
      "Notes": 7169,
      "norm": 7170,
      "entials": 7171,
      "andard": 7172,
      "Ġattention": 7173,
      "iverse": 7174,
      "Ġthreat": 7175,
      "Socket": 7176,
      "Ġopening": 7177,
      "Ġshot": 7178,
      "Ġcells": 7179,
      "tmp": 7180,
      "ĠConfig": 7181,
      "Ġseparate": 7182,
      "ĠItaly": 7183,
      "Ġ&\\": 7184,
      "coming": 7185,
      "Ġcommercial": 7186,
      "ĠMr": 7187,
      "ĠIOException": 7188,
      "prove": 7189,
      "1981": 7190,
      "Ġmicro": 7191,
      "ĠAngeles": 7192,
      "Ġevolution": 7193,
      "Fail": 7194,
      "lg": 7195,
      "Ġwaves": 7196,
      "ITE": 7197,
      "Ġprove": 7198,
      "hidden": 7199,
      "ira": 7200,
      "ervation": 7201,
      "onym": 7202,
      "Ġfinancial": 7203,
      "Pattern": 7204,
      "Ġmeas": 7205,
      "ĠUnder": 7206,
      "Step": 7207,
      "EO": 7208,
      "Register": 7209,
      "Ġcaused": 7210,
      "orner": 7211,
      "Ġproduce": 7212,
      "ĠAR": 7213,
      "ĠGen": 7214,
      "à¸": 7215,
      "Browser": 7216,
      "getElement": 7217,
      "Mapping": 7218,
      "Pay": 7219,
      "Ġpassword": 7220,
      "ĠSil": 7221,
      "ito": 7222,
      "uilt": 7223,
      "Ġactions": 7224,
      "Term": 7225,
      "Ġupdated": 7226,
      "{{\\": 7227,
      "Ġinterview": 7228,
      "ĠGl": 7229,
      "Keys": 7230,
      "|^": 7231,
      "olec": 7232,
      "effect": 7233,
      "Ġheart": 7234,
      "Ġbre": 7235,
      "Ġapproximately": 7236,
      "Ġunless": 7237,
      "Ġquite": 7238,
      "oves": 7239,
      "nodes": 7240,
      "named": 7241,
      "cons": 7242,
      "Dest": 7243,
      "Car": 7244,
      "atible": 7245,
      "Ġawarded": 7246,
      "Ġimmediately": 7247,
      "mutable": 7248,
      "128": 7249,
      "ĠGame": 7250,
      "ocation": 7251,
      "configuration": 7252,
      "Ġeasy": 7253,
      "Ġfrequency": 7254,
      "ĠMur": 7255,
      "1972": 7256,
      "Ġ\"<": 7257,
      "Ġdebug": 7258,
      "ĠMost": 7259,
      "Ġscored": 7260,
      "ĠSecret": 7261,
      "otic": 7262,
      "Ġwanted": 7263,
      "tools": 7264,
      "3333": 7265,
      "Ġplays": 7266,
      "ydro": 7267,
      "Ġgets": 7268,
      "Duration": 7269,
      "Ġearn": 7270,
      "eds": 7271,
      "Ġcomputer": 7272,
      "La": 7273,
      "bing": 7274,
      "Ġderived": 7275,
      "Ġabsolute": 7276,
      "Ġequations": 7277,
      "wa": 7278,
      "Ġ=========": 7279,
      "dp": 7280,
      "tely": 7281,
      "','": 7282,
      "Double": 7283,
      "nil": 7284,
      "expr": 7285,
      "Ġpul": 7286,
      "prefix": 7287,
      "posite": 7288,
      "ĠPet": 7289,
      "ĠTimes": 7290,
      "Ġapplications": 7291,
      "ĠGets": 7292,
      "uages": 7293,
      "area": 7294,
      "Ġunion": 7295,
      "Ġequip": 7296,
      "Ġappropri": 7297,
      "ĠJava": 7298,
      "Variable": 7299,
      "]$": 7300,
      "Ġdesc": 7301,
      "}}{\\": 7302,
      "Ġextract": 7303,
      "!!": 7304,
      "oral": 7305,
      "iana": 7306,
      "Ġrisk": 7307,
      "Ġmind": 7308,
      "Ġcelebr": 7309,
      "ny": 7310,
      "MC": 7311,
      "Ġparticularly": 7312,
      "ĠFestival": 7313,
      "Ġagent": 7314,
      "RAN": 7315,
      "ĠBoard": 7316,
      "Ġmix": 7317,
      "ola": 7318,
      "Common": 7319,
      "Grid": 7320,
      "Ġtreatment": 7321,
      "Ġscene": 7322,
      "1976": 7323,
      "Ġblocks": 7324,
      "venue": 7325,
      "fit": 7326,
      "INFO": 7327,
      "Ġframework": 7328,
      "Sync": 7329,
      "ĠLin": 7330,
      "Ġscheme": 7331,
      "wer": 7332,
      "Ġhum": 7333,
      "Ġconsists": 7334,
      "amilton": 7335,
      "exists": 7336,
      "fail": 7337,
      "Statement": 7338,
      "IE": 7339,
      "Ġprotocol": 7340,
      "ĠTeam": 7341,
      "Ġfailure": 7342,
      "Then": 7343,
      "Ġvisible": 7344,
      "Ġxmlns": 7345,
      "Repository": 7346,
      "ador": 7347,
      "Ġinner": 7348,
      "NULL": 7349,
      "Early": 7350,
      "triev": 7351,
      "ĠRussia": 7352,
      "Cap": 7353,
      "mazon": 7354,
      "DC": 7355,
      "Ġseems": 7356,
      "Ġchem": 7357,
      "ĠDom": 7358,
      "Public": 7359,
      "1978": 7360,
      "Ġbinary": 7361,
      "sys": 7362,
      ">:": 7363,
      "Constants": 7364,
      "Sche": 7365,
      "idx": 7366,
      "builder": 7367,
      "Ġmeeting": 7368,
      "Ġfix": 7369,
      "Ġmovie": 7370,
      "Ġmessages": 7371,
      "oz": 7372,
      "ĠGa": 7373,
      "rase": 7374,
      "external": 7375,
      "ooks": 7376,
      "Ġmachine": 7377,
      "Ġmetric": 7378,
      "Ġappend": 7379,
      "Ġanything": 7380,
      "ĠParam": 7381,
      "ĠOld": 7382,
      "circle": 7383,
      "Ġemerg": 7384,
      "Ġnoted": 7385,
      "Ġactor": 7386,
      "hspace": 7387,
      "Selected": 7388,
      "Ġcit": 7389,
      "ouri": 7390,
      "parameters": 7391,
      "Ġchart": 7392,
      "platform": 7393,
      "Full": 7394,
      "Ġpolitician": 7395,
      "Ġtransl": 7396,
      "elease": 7397,
      "ĉĉĉĉĉĉĉĉĉ": 7398,
      "IPT": 7399,
      "}+\\": 7400,
      "Ġbrowser": 7401,
      "iki": 7402,
      "1974": 7403,
      "Ġsegment": 7404,
      "ĠTour": 7405,
      "ĠScotland": 7406,
      "ĠMP": 7407,
      "Ġemail": 7408,
      "headers": 7409,
      "Ġneut": 7410,
      "arsed": 7411,
      "amm": 7412,
      "Ġshall": 7413,
      "ULE": 7414,
      "ĠTherefore": 7415,
      "Ġenter": 7416,
      "Attr": 7417,
      "inf": 7418,
      "Ġmis": 7419,
      "chor": 7420,
      "Ġcreating": 7421,
      "------------": 7422,
      "serial": 7423,
      "yan": 7424,
      "Ġsinger": 7425,
      "Ġbattle": 7426,
      "ĠĠĠĠĠĠĠĠĠĠĠĠĠĠĠĠĠĠĠĠĠĠĠĠĠĠ": 7427,
      "ensed": 7428,
      "Ġreach": 7429,
      "found": 7430,
      "Ġ\",": 7431,
      "Ġnorm": 7432,
      "SY": 7433,
      "Ġprojects": 7434,
      "}'": 7435,
      "ĠMartin": 7436,
      "Ġprograms": 7437,
      "protected": 7438,
      "Generator": 7439,
      "lapse": 7440,
      "itable": 7441,
      "phone": 7442,
      "parser": 7443,
      "Scroll": 7444,
      "Product": 7445,
      "iro": 7446,
      "identifier": 7447,
      "Ġsurround": 7448,
      "Ġdetail": 7449,
      "Abstract": 7450,
      "ĠĠĠĠĠĠĠĠĠĠĠĠĠĠĠĠĠĠĠĠĠĠĠĠĠĠĠĠĠ": 7451,
      "Ġestim": 7452,
      "ĠKar": 7453,
      "Ġpool": 7454,
      "Ġsummer": 7455,
      "areer": 7456,
      "Ġtournament": 7457,
      "istration": 7458,
      "theme": 7459,
      "black": 7460,
      "Ġreduced": 7461,
      "neq": 7462,
      "ĠEducation": 7463,
      "Ġtypename": 7464,
      "Ġsamples": 7465,
      "ĠAtt": 7466,
      "Ġ$.": 7467,
      "READ": 7468,
      "Ġtrying": 7469,
      "amer": 7470,
      "150": 7471,
      "Ġrad": 7472,
      "'ll": 7473,
      "Ġneighbor": 7474,
      "amous": 7475,
      "ĠEr": 7476,
      "Ġcandidate": 7477,
      "Ġmedical": 7478,
      "Details": 7479,
      "Ġfish": 7480,
      "tests": 7481,
      "Ġinsp": 7482,
      "seud": 7483,
      "libr": 7484,
      "Ġones": 7485,
      "ĠOh": 7486,
      "John": 7487,
      "TA": 7488,
      "Ġsetup": 7489,
      "Failed": 7490,
      "Ġgoals": 7491,
      "ĉĠĠĠĠĠ": 7492,
      "Ġmixed": 7493,
      "OUT": 7494,
      "Single": 7495,
      "Engine": 7496,
      "dimensional": 7497,
      "Ġestablishments": 7498,
      "ĠAlthough": 7499,
      "ĠIl": 7500,
      "filename": 7501,
      "Ġvertex": 7502,
      "ĠChampionships": 7503,
      "ati": 7504,
      "ova": 7505,
      "Ġsizeof": 7506,
      "1975": 7507,
      "1977": 7508,
      "Ġcontinuous": 7509,
      "English": 7510,
      "Ġradi": 7511,
      "alo": 7512,
      "Video": 7513,
      "Ġctx": 7514,
      "Google": 7515,
      "'ve": 7516,
      "FFFF": 7517,
      "ĠMa": 7518,
      "Ġago": 7519,
      "Ġvariety": 7520,
      "Remove": 7521,
      "rift": 7522,
      "Ġwinning": 7523,
      "arc": 7524,
      "iano": 7525,
      "roke": 7526,
      "called": 7527,
      "ĠPoint": 7528,
      "Ġdriver": 7529,
      "conn": 7530,
      "Depend": 7531,
      "kin": 7532,
      "ĠSaint": 7533,
      "ĠBO": 7534,
      "erc": 7535,
      "1968": 7536,
      "STAT": 7537,
      "ski": 7538,
      "}-\\": 7539,
      "shadow": 7540,
      "Ġ[[": 7541,
      "para": 7542,
      "pa": 7543,
      "Ġgreen": 7544,
      "Ġactivities": 7545,
      "ashed": 7546,
      "Ġdise": 7547,
      "Ġtesting": 7548,
      "Example": 7549,
      "Å¡": 7550,
      "ĠBur": 7551,
      "ALSE": 7552,
      "Global": 7553,
      "ĠDev": 7554,
      "High": 7555,
      "MB": 7556,
      "ĠSocial": 7557,
      "Collections": 7558,
      "Ġvelocity": 7559,
      "amel": 7560,
      "HR": 7561,
      "Ġqueue": 7562,
      "Ġwriters": 7563,
      "writer": 7564,
      "Ġprim": 7565,
      "ĠCle": 7566,
      "FLA": 7567,
      "ĠMedia": 7568,
      "ifdef": 7569,
      "acro": 7570,
      "Ġinstalled": 7571,
      "Ġconsum": 7572,
      "joy": 7573,
      "protocol": 7574,
      "yg": 7575,
      "Ġwhom": 7576,
      "Success": 7577,
      "ĠKn": 7578,
      "Ġul": 7579,
      "apos": 7580,
      "ĠBre": 7581,
      "rate": 7582,
      "Cor": 7583,
      "stitution": 7584,
      "Ġtypeof": 7585,
      "ĠSy": 7586,
      "Ġdenote": 7587,
      "Ġcollabor": 7588,
      ")}{": 7589,
      "riend": 7590,
      "Scale": 7591,
      "tabs": 7592,
      "ĠEmp": 7593,
      "ĠBrown": 7594,
      "Ġfriends": 7595,
      "construct": 7596,
      "eval": 7597,
      "Ġexamples": 7598,
      "ĠUN": 7599,
      "Landroid": 7600,
      "green": 7601,
      "Don": 7602,
      "Ġgoes": 7603,
      "Ġentered": 7604,
      "Ġconstructor": 7605,
      "Ġclassical": 7606,
      "pan": 7607,
      "Ġmagnetic": 7608,
      "ugby": 7609,
      "AF": 7610,
      "Ġability": 7611,
      "Ġseconds": 7612,
      "mut": 7613,
      "Ġparents": 7614,
      "atial": 7615,
      "Ġbul": 7616,
      "children": 7617,
      "Ġ-\\": 7618,
      "irty": 7619,
      "Ð´": 7620,
      "Ġuniform": 7621,
      "junit": 7622,
      "Ġdivision": 7623,
      "Cluster": 7624,
      "ĠjQuery": 7625,
      "Ġrelations": 7626,
      "1973": 7627,
      "Ġwid": 7628,
      "iques": 7629,
      "Ġdataset": 7630,
      "ĠMain": 7631,
      "Ġended": 7632,
      "ĠAwards": 7633,
      "Space": 7634,
      "decl": 7635,
      "avity": 7636,
      "wrapper": 7637,
      "Ġweeks": 7638,
      "typedef": 7639,
      "ĠLu": 7640,
      "hide": 7641,
      "ĠLibrary": 7642,
      "Ġbus": 7643,
      "Ġslight": 7644,
      "=\"${": 7645,
      "uing": 7646,
      "120": 7647,
      "Ġpressure": 7648,
      "Ġeasily": 7649,
      "itemize": 7650,
      "noindent": 7651,
      "VM": 7652,
      "game": 7653,
      "ĠCarolina": 7654,
      "Ġvisual": 7655,
      "Ġchosen": 7656,
      "{$": 7657,
      "sych": 7658,
      "Ġprefer": 7659,
      "Ġtrigger": 7660,
      "Identifier": 7661,
      "ĠPac": 7662,
      "ĠHot": 7663,
      "navList": 7664,
      "Ġturned": 7665,
      "edom": 7666,
      "Cast": 7667,
      "TIME": 7668,
      "ĠBrazil": 7669,
      "Ġdrop": 7670,
      "stra": 7671,
      "Ġbasketball": 7672,
      "Ġmetadata": 7673,
      "ffff": 7674,
      "(__": 7675,
      "ĠKh": 7676,
      "Ġproducer": 7677,
      "Prefix": 7678,
      "Ġestimate": 7679,
      "look": 7680,
      "theorem": 7681,
      "ĠBank": 7682,
      "definition": 7683,
      "Ġheavy": 7684,
      "Ġchoose": 7685,
      "Ġhighly": 7686,
      "Ġdepth": 7687,
      "Ġrg": 7688,
      "Ġfavor": 7689,
      "Ġraw": 7690,
      "BP": 7691,
      "ĠLi": 7692,
      "Ġhyp": 7693,
      "Sequ": 7694,
      "Password": 7695,
      "ĠNavy": 7696,
      "role": 7697,
      "front": 7698,
      "Ġoccur": 7699,
      ".\");": 7700,
      "ishes": 7701,
      "Ġwor": 7702,
      "Ġcompute": 7703,
      "prev": 7704,
      "riteria": 7705,
      "World": 7706,
      "Ġnearly": 7707,
      "emon": 7708,
      "Generated": 7709,
      ":\\": 7710,
      "1969": 7711,
      "je": 7712,
      "Ġreject": 7713,
      "HTTP": 7714,
      "Ġeconomic": 7715,
      "Ġvan": 7716,
      "brief": 7717,
      "Ġmoving": 7718,
      "ĠAtl": 7719,
      "Ġcompletely": 7720,
      "Ġpush": 7721,
      "ellig": 7722,
      "pects": 7723,
      "Ġimplies": 7724,
      "provider": 7725,
      "Gu": 7726,
      "unct": 7727,
      "webpack": 7728,
      "ums": 7729,
      "$}": 7730,
      "]\\": 7731,
      "orning": 7732,
      "Ġprefix": 7733,
      "owner": 7734,
      "Ġprison": 7735,
      "Ġaxis": 7736,
      "ĠĠĠĠĠĠĠĠĠĠĠĠĠĠĠĠĠĠĠĠĠĠĠĠĠĠĠĠĠĠĠĠĠĠĠĠĠĠĠĠĠĠĠ": 7737,
      "dialog": 7738,
      "ĠYoung": 7739,
      "Ġacadem": 7740,
      "Py": 7741,
      "CESS": 7742,
      "JS": 7743,
      "Ġplot": 7744,
      "axis": 7745,
      ")+": 7746,
      "Ġfactory": 7747,
      "zz": 7748,
      "irls": 7749,
      "adium": 7750,
      "Agent": 7751,
      "$_": 7752,
      "oting": 7753,
      "izable": 7754,
      "BE": 7755,
      "Ġlaunched": 7756,
      "Ġenable": 7757,
      "ĠIndex": 7758,
      "({\\": 7759,
      "1971": 7760,
      "wan": 7761,
      "props": 7762,
      "NOT": 7763,
      "Pi": 7764,
      "Ġinteg": 7765,
      "apers": 7766,
      "inos": 7767,
      "Ġ\"-": 7768,
      "Ã£": 7769,
      "ĠDirector": 7770,
      "Ġharm": 7771,
      "Ġcapacity": 7772,
      "ĠOl": 7773,
      "errors": 7774,
      "()</": 7775,
      "Ġsaying": 7776,
      "Ġforeign": 7777,
      "Region": 7778,
      "ĠMA": 7779,
      "Ġvertical": 7780,
      "Ġdir": 7781,
      "Ġmission": 7782,
      "Ġshoot": 7783,
      "Ġagreement": 7784,
      "akers": 7785,
      "temp": 7786,
      "Ġversions": 7787,
      "Ġedition": 7788,
      "services": 7789,
      "ĠHash": 7790,
      "ĠSol": 7791,
      "ICE": 7792,
      "åı": 7793,
      "glyph": 7794,
      "Ġgeneration": 7795,
      "('.": 7796,
      "Nodes": 7797,
      "Sample": 7798,
      "Ġ=======": 7799,
      "Ġabstract": 7800,
      "single": 7801,
      "But": 7802,
      "ĠSO": 7803,
      "1940": 7804,
      "Ġwave": 7805,
      "Opt": 7806,
      "FS": 7807,
      "Author": 7808,
      "ĠIrish": 7809,
      "enumerate": 7810,
      "Ġtx": 7811,
      "Trace": 7812,
      "Ġmajority": 7813,
      "mask": 7814,
      "Ġseek": 7815,
      "ĠLove": 7816,
      "cient": 7817,
      "Ġolder": 7818,
      "ĠHon": 7819,
      "Ġstra": 7820,
      "blue": 7821,
      "Ġestimated": 7822,
      "ĠEach": 7823,
      "Mat": 7824,
      "Simple": 7825,
      "Dem": 7826,
      "Comment": 7827,
      "Ġcomparison": 7828,
      "rich": 7829,
      "execute": 7830,
      "Cert": 7831,
      "Ġbelieve": 7832,
      "Ġdisk": 7833,
      "asion": 7834,
      "zero": 7835,
      "Ġsupp": 7836,
      "Ġwood": 7837,
      "ymmet": 7838,
      "}}}": 7839,
      "jpg": 7840,
      "ĠHTTP": 7841,
      "Ġdrug": 7842,
      ")->": 7843,
      "aria": 7844,
      "Ġrequests": 7845,
      "Ġmaps": 7846,
      "ĠReact": 7847,
      "WR": 7848,
      "Ġbrief": 7849,
      "itation": 7850,
      "special": 7851,
      "Ġmostly": 7852,
      "?>": 7853,
      "IST": 7854,
      "Ġsquare": 7855,
      "\\,\\": 7856,
      "Ġarbitr": 7857,
      "Ġvocals": 7858,
      "During": 7859,
      "Ġstrategy": 7860,
      "INS": 7861,
      "Ġflags": 7862,
      "Ġcoast": 7863,
      "Ġexpansion": 7864,
      "ĠChild": 7865,
      "1945": 7866,
      "Compar": 7867,
      "ĠEli": 7868,
      "wild": 7869,
      "sequence": 7870,
      "ĠJoseph": 7871,
      "Player": 7872,
      "TEXT": 7873,
      "Ġspectrum": 7874,
      "Ġactress": 7875,
      "enty": 7876,
      "vspace": 7877,
      "OST": 7878,
      "ĠJim": 7879,
      "Gen": 7880,
      "IND": 7881,
      "Ġelectric": 7882,
      "colLast": 7883,
      "zone": 7884,
      "Ġphil": 7885,
      "Ġparser": 7886,
      "Ġsituation": 7887,
      "StyleID": 7888,
      "ĠOnly": 7889,
      "URI": 7890,
      "Ġ[\"": 7891,
      ">::": 7892,
      "tags": 7893,
      "Ġarm": 7894,
      "ountry": 7895,
      "Ġsteps": 7896,
      "itter": 7897,
      "ipality": 7898,
      "Wrapper": 7899,
      "Pub": 7900,
      "Microsoft": 7901,
      "Ġ],": 7902,
      "Ġpoor": 7903,
      "\\'": 7904,
      "Ġreplace": 7905,
      "iteral": 7906,
      "bal": 7907,
      "iga": 7908,
      "bits": 7909,
      "inations": 7910,
      "ĠRequest": 7911,
      "stone": 7912,
      "ĠNAME": 7913,
      "herited": 7914,
      "Registry": 7915,
      "Ġreli": 7916,
      "Services": 7917,
      "ĠTra": 7918,
      "extension": 7919,
      "tical": 7920,
      "Ġexc": 7921,
      "kl": 7922,
      "Ġ..": 7923,
      "ãĢ": 7924,
      "etween": 7925,
      "Ġseasons": 7926,
      "Ġchief": 7927,
      "1930": 7928,
      "Ġvote": 7929,
      "ĠArab": 7930,
      "Ġacquire": 7931,
      "allclasses": 7932,
      "Ġking": 7933,
      "ĠWales": 7934,
      "ighter": 7935,
      "Role": 7936,
      "Ġmotion": 7937,
      "ajax": 7938,
      "\"><!--": 7939,
      "ĠCross": 7940,
      "Ġnavigation": 7941,
      "ĠChief": 7942,
      "ĠYour": 7943,
      "undred": 7944,
      "Ġ{\"": 7945,
      "Ġriver": 7946,
      "Ġmask": 7947,
      "ribution": 7948,
      "Ġexam": 7949,
      "ĠCommand": 7950,
      "ĠJournal": 7951,
      "ylvania": 7952,
      "Ġraised": 7953,
      "rf": 7954,
      "ĠJun": 7955,
      "Ġchalleng": 7956,
      "inds": 7957,
      "Ġways": 7958,
      "DateTime": 7959,
      "enabled": 7960,
      "ĠPass": 7961,
      "ĠMos": 7962,
      "ĠPop": 7963,
      "isms": 7964,
      "prise": 7965,
      "Ġinfluence": 7966,
      "ĠFort": 7967,
      "Ġalgebra": 7968,
      "ĠGi": 7969,
      "Ġidentified": 7970,
      "Ġcompare": 7971,
      "oles": 7972,
      "colFirst": 7973,
      "ĠHttp": 7974,
      "Ġprem": 7975,
      "UD": 7976,
      "acle": 7977,
      "May": 7978,
      "Ġ_{": 7979,
      "maven": 7980,
      "USE": 7981,
      "ĠSir": 7982,
      "1967": 7983,
      ";)": 7984,
      "Ġembedd": 7985,
      "Ġstudio": 7986,
      "iate": 7987,
      "ĠNav": 7988,
      "Ġreduce": 7989,
      "detail": 7990,
      "fixed": 7991,
      "Ġmusical": 7992,
      "Ġrect": 7993,
      "ierarch": 7994,
      "Ġappearance": 7995,
      "itors": 7996,
      "ĠValley": 7997,
      "ĠEnter": 7998,
      "poses": 7999,
      "Ġdelay": 8000,
      "bel": 8001,
      "Ġcreation": 8002,
      "Ð²": 8003,
      "etailed": 8004,
      "Named": 8005,
      "matrix": 8006,
      "ĠNorthern": 8007,
      "ĠIran": 8008,
      "Ġtheme": 8009,
      "Lin": 8010,
      "Game": 8011,
      "othing": 8012,
      "ĠJo": 8013,
      "Ġradius": 8014,
      "Theta": 8015,
      "Ġquarter": 8016,
      "Ġpurpose": 8017,
      "symbol": 8018,
      "ĠPath": 8019,
      "ĠBi": 8020,
      "Ġletter": 8021,
      "endor": 8022,
      "Ġlives": 8023,
      "Ġpoet": 8024,
      ":`": 8025,
      "ĠInteger": 8026,
      "IVE": 8027,
      "ĠOffice": 8028,
      "kins": 8029,
      "ĠBattle": 8030,
      "Arch": 8031,
      "ĠLee": 8032,
      "Ġexactly": 8033,
      "Ġmenu": 8034,
      "LECT": 8035,
      "Ġisn": 8036,
      "Ġprice": 8037,
      "Ġtasks": 8038,
      "Ġpriv": 8039,
      "ctrine": 8040,
      "ĠTri": 8041,
      "Ġcarry": 8042,
      "Category": 8043,
      "owers": 8044,
      "arant": 8045,
      "ACT": 8046,
      "eleted": 8047,
      "ona": 8048,
      "ĠMicrosoft": 8049,
      "ĠAction": 8050,
      "Ġoperators": 8051,
      "ĠBack": 8052,
      "Ġdepends": 8053,
      "Ġdeliver": 8054,
      "ĠStart": 8055,
      "ĠDevelopment": 8056,
      "ĠIII": 8057,
      "Ġstrings": 8058,
      "ĠTrump": 8059,
      "bas": 8060,
      "mann": 8061,
      "Ġlatest": 8062,
      "fd": 8063,
      "random": 8064,
      "storage": 8065,
      "oving": 8066,
      "Ġresolution": 8067,
      "ĠJud": 8068,
      "Props": 8069,
      "rid": 8070,
      "progress": 8071,
      "Ġinteresting": 8072,
      "wig": 8073,
      "ĠProvince": 8074,
      "spirit": 8075,
      "ĠHamilton": 8076,
      "ansas": 8077,
      "itan": 8078,
      "Ġvoice": 8079,
      "Ġwrong": 8080,
      "ffect": 8081,
      "multicol": 8082,
      "Ġmanaged": 8083,
      "Domain": 8084,
      "jango": 8085,
      "ĠExt": 8086,
      "Ġstories": 8087,
      "Ġeverything": 8088,
      "Namespace": 8089,
      "ters": 8090,
      "Ġassigned": 8091,
      "Ġformation": 8092,
      "Ġ[],": 8093,
      "ĠGood": 8094,
      "GR": 8095,
      "when": 8096,
      "Ġque": 8097,
      "icip": 8098,
      "Ġsurvey": 8099,
      "player": 8100,
      "Ġreflect": 8101,
      "ĠHaw": 8102,
      "done": 8103,
      "oday": 8104,
      "Ġagreed": 8105,
      "Ġlaunch": 8106,
      "Ġcalling": 8107,
      "Import": 8108,
      "collapse": 8109,
      "Ġjoint": 8110,
      "ĠSpec": 8111,
      "Ġmodified": 8112,
      ".<": 8113,
      "details": 8114,
      "resources": 8115,
      "1964": 8116,
      "amaz": 8117,
      "Ġquickly": 8118,
      "aste": 8119,
      "tor": 8120,
      "Ġmentioned": 8121,
      "cred": 8122,
      "RES": 8123,
      "power": 8124,
      "ĠWood": 8125,
      "Ġgiving": 8126,
      "Selection": 8127,
      "ndef": 8128,
      "Ġnoise": 8129,
      "pu": 8130,
      "collection": 8131,
      "aka": 8132,
      "Ġcentre": 8133,
      "tbody": 8134,
      "Ġenv": 8135,
      "compiler": 8136,
      "Cred": 8137,
      "ĠWill": 8138,
      "Ġretriev": 8139,
      "Ġtraff": 8140,
      "Headers": 8141,
      "Ġresponsible": 8142,
      "CRE": 8143,
      "Ġ?>": 8144,
      "eners": 8145,
      "Ġisland": 8146,
      "OB": 8147,
      "ĠIE": 8148,
      "Ġtimeout": 8149,
      "wall": 8150,
      "ðŁ": 8151,
      "Ġconstructed": 8152,
      "ĠBob": 8153,
      "ĠImage": 8154,
      "Ġ(-": 8155,
      "iffer": 8156,
      "'$": 8157,
      "ĠHistoric": 8158,
      "ĠPak": 8159,
      "\"/": 8160,
      "udget": 8161,
      "Ġlayout": 8162,
      "multicolumn": 8163,
      "Ġowned": 8164,
      "Ġeth": 8165,
      "weet": 8166,
      "Help": 8167,
      "ĠSoviet": 8168,
      "Shape": 8169,
      "Ġplane": 8170,
      "Ġclick": 8171,
      "<!": 8172,
      "ĠSund": 8173,
      "'));": 8174,
      "chen": 8175,
      "Ġsouthern": 8176,
      "Ġimprove": 8177,
      "Resources": 8178,
      "inners": 8179,
      "ivation": 8180,
      "arriage": 8181,
      "~$": 8182,
      "achment": 8183,
      "ĠBusiness": 8184,
      "Character": 8185,
      "Len": 8186,
      "Ġpositions": 8187,
      "ĠColumb": 8188,
      "ĠBul": 8189,
      "enable": 8190,
      "shared": 8191,
      "Ġplans": 8192,
      "Ġrespond": 8193,
      "opl": 8194,
      "Ġinitially": 8195,
      "generated": 8196,
      "Ġsignature": 8197,
      "Ġprocesses": 8198,
      ")}$": 8199,
      "ĠWal": 8200,
      "Åį": 8201,
      "Ġlogger": 8202,
      "Ġattended": 8203,
      "Ġinteraction": 8204,
      "Progress": 8205,
      "Ġstraight": 8206,
      "ĠRet": 8207,
      "hom": 8208,
      "Ġconcent": 8209,
      "Ġcontroller": 8210,
      "osoph": 8211,
      "Framework": 8212,
      "Ġheaders": 8213,
      "SM": 8214,
      "Ġfarm": 8215,
      "unique": 8216,
      "Ġremote": 8217,
      "Ġmill": 8218,
      "Ġran": 8219,
      "original": 8220,
      "Ġconflic": 8221,
      "Ġleads": 8222,
      "Ġforeach": 8223,
      "login": 8224,
      "Uri": 8225,
      "ĠFI": 8226,
      "since": 8227,
      "fix": 8228,
      "Ġchampionship": 8229,
      "Ġbey": 8230,
      "boost": 8231,
      "svg": 8232,
      "Ġfif": 8233,
      "Ġexit": 8234,
      "Ġnewsp": 8235,
      "Texture": 8236,
      "throw": 8237,
      "enant": 8238,
      "Ġpages": 8239,
      "Ġsufficient": 8240,
      "ĠGal": 8241,
      "Ġnorthern": 8242,
      "vs": 8243,
      "{%": 8244,
      "Ġdownload": 8245,
      "aters": 8246,
      "claim": 8247,
      "ographic": 8248,
      "iling": 8249,
      "Ġspread": 8250,
      "ello": 8251,
      "Ġmagn": 8252,
      "Stats": 8253,
      "poration": 8254,
      "DT": 8255,
      "HER": 8256,
      "ners": 8257,
      "ologies": 8258,
      "Ġcombined": 8259,
      "ĠReview": 8260,
      "iced": 8261,
      "ocaml": 8262,
      "Ã£o": 8263,
      "1965": 8264,
      "Ġliterature": 8265,
      "riority": 8266,
      "oston": 8267,
      "ĠTele": 8268,
      "rick": 8269,
      "Ġfair": 8270,
      "ĠĠĠĠĠĠĠĠĠĠĠĠĠĠĠĠĠĠĠĠĠĠĠĠĠĠĠĠ": 8271,
      "Ġ\\|": 8272,
      ";}": 8273,
      "underline": 8274,
      "Ġannual": 8275,
      "Ġsea": 8276,
      "aylor": 8277,
      "Ġprotect": 8278,
      "ĠCopyright": 8279,
      "ading": 8280,
      "Here": 8281,
      "Ġsomeone": 8282,
      "ĠEmpire": 8283,
      "Ġaffect": 8284,
      "Tx": 8285,
      "ceeded": 8286,
      "ela": 8287,
      "Ġforced": 8288,
      "1920": 8289,
      "Ġmurder": 8290,
      "ĠJac": 8291,
      "Ġdraft": 8292,
      "Career": 8293,
      "atriate": 8294,
      "ĠInv": 8295,
      "ĠWAR": 8296,
      "username": 8297,
      "pressed": 8298,
      "Ñĭ": 8299,
      "BAR": 8300,
      "invalid": 8301,
      "1966": 8302,
      "Ġmatching": 8303,
      "Ġtensor": 8304,
      "Ġbeyond": 8305,
      "eller": 8306,
      "Ġsummary": 8307,
      "Ġtemp": 8308,
      "____": 8309,
      "Ġserve": 8310,
      "Ġhighlight": 8311,
      "Ġdistinct": 8312,
      "Ġsmooth": 8313,
      "operatorname": 8314,
      "isc": 8315,
      "Ġofficer": 8316,
      "ifically": 8317,
      "she": 8318,
      "Ð¼": 8319,
      "ÑĮ": 8320,
      "Ġcolumns": 8321,
      "Ġprocessing": 8322,
      "Ġfle": 8323,
      "Ġproxy": 8324,
      "Î¿": 8325,
      "users": 8326,
      "Ġanim": 8327,
      "Ġsal": 8328,
      "indexOf": 8329,
      "Ġcarried": 8330,
      "Ġgrid": 8331,
      "sylvania": 8332,
      "Ġonto": 8333,
      "Ġcos": 8334,
      "Ġarchitecture": 8335,
      "prod": 8336,
      "ĠÅ": 8337,
      "ĠScottish": 8338,
      "HS": 8339,
      "Î±": 8340,
      "LL": 8341,
      "usband": 8342,
      "ustrial": 8343,
      "safe": 8344,
      "ĠEqu": 8345,
      "Ġsites": 8346,
      "Ġsuc": 8347,
      "ĠØ": 8348,
      "Ġverify": 8349,
      "arden": 8350,
      "Ġappropriate": 8351,
      "scape": 8352,
      "Ġsenior": 8353,
      "duled": 8354,
      "ĠEarth": 8355,
      "ifiers": 8356,
      "apes": 8357,
      "MT": 8358,
      "stable": 8359,
      "ĠElement": 8360,
      "iral": 8361,
      "NT": 8362,
      "ĠUI": 8363,
      "ĠLOG": 8364,
      "Returns": 8365,
      "Ġut": 8366,
      "depth": 8367,
      "CF": 8368,
      "Ġbecoming": 8369,
      "yer": 8370,
      "har": 8371,
      "ried": 8372,
      "']['": 8373,
      "Ġfederal": 8374,
      "Ġnetworks": 8375,
      "ynomial": 8376,
      "clusive": 8377,
      "eer": 8378,
      "Proto": 8379,
      "ateway": 8380,
      "cluster": 8381,
      "Ġ{{": 8382,
      "Ġprev": 8383,
      "springframework": 8384,
      "dy": 8385,
      "Ġdemand": 8386,
      "ĠElect": 8387,
      "uplic": 8388,
      "extern": 8389,
      "ĠSpain": 8390,
      "Ġskip": 8391,
      "ĠResult": 8392,
      "ĠSar": 8393,
      "While": 8394,
      "Ġok": 8395,
      "Further": 8396,
      "outer": 8397,
      "condition": 8398,
      "Ġcontrast": 8399,
      "zen": 8400,
      "ÐµÐ½": 8401,
      "Ġarrest": 8402,
      "Ġcloud": 8403,
      "feature": 8404,
      "here": 8405,
      "picture": 8406,
      "ĠTre": 8407,
      "}},": 8408,
      "Ġrailway": 8409,
      "Rob": 8410,
      "uv": 8411,
      "Ġcoq": 8412,
      "atics": 8413,
      "CG": 8414,
      "Ġcli": 8415,
      "testing": 8416,
      "Ġangle": 8417,
      "TRUE": 8418,
      "Multi": 8419,
      "fire": 8420,
      "opes": 8421,
      "cluded": 8422,
      "dem": 8423,
      "('/": 8424,
      "Ġinfin": 8425,
      "Ġspaces": 8426,
      "ĠManagement": 8427,
      "%%%%": 8428,
      "pat": 8429,
      "PP": 8430,
      "Ġcommission": 8431,
      "ĠMult": 8432,
      "Ġproviding": 8433,
      "video": 8434,
      "ĠDemocratic": 8435,
      "Ġinform": 8436,
      "anging": 8437,
      "ez": 8438,
      "Ġmagazine": 8439,
      "Ġworkers": 8440,
      "Ġeq": 8441,
      "ĠConference": 8442,
      "awn": 8443,
      "Ġreports": 8444,
      "Ġtypically": 8445,
      "article": 8446,
      "xs": 8447,
      "Ġnullptr": 8448,
      "Ġoccurred": 8449,
      "multi": 8450,
      "Ġ'<": 8451,
      "assembly": 8452,
      "Transport": 8453,
      "upload": 8454,
      "REQ": 8455,
      "xhtml": 8456,
      "Ġcommunities": 8457,
      "gg": 8458,
      "Ġcensus": 8459,
      "ĠPage": 8460,
      "ĠLab": 8461,
      "async": 8462,
      "requ": 8463,
      "ĠSpecial": 8464,
      "ÅĤ": 8465,
      "timeout": 8466,
      "wp": 8467,
      "Visible": 8468,
      "Ġdespite": 8469,
      "Ġcru": 8470,
      "ĠĠĠĠĠĠĠĠĠĠĠĠĠĠĠĠĊ": 8471,
      "Ġenjoy": 8472,
      "Ġshowed": 8473,
      "ĠRadio": 8474,
      "Report": 8475,
      "kt": 8476,
      "minus": 8477,
      "VALUE": 8478,
      "Ġdevices": 8479,
      "ĠTH": 8480,
      "Films": 8481,
      "Sql": 8482,
      "pattern": 8483,
      "icies": 8484,
      "ĠHome": 8485,
      "Ġexchange": 8486,
      "^-": 8487,
      "Pair": 8488,
      "airman": 8489,
      "Ġuncert": 8490,
      "hens": 8491,
      "Ġdiscussed": 8492,
      "POST": 8493,
      "ĠLord": 8494,
      "Interval": 8495,
      "Bound": 8496,
      "bury": 8497,
      "Ġlicense": 8498,
      "Delegate": 8499,
      "Ġtracks": 8500,
      "EEEE": 8501,
      "ĠCard": 8502,
      "Ġhope": 8503,
      "cdn": 8504,
      "ĠASSERT": 8505,
      "Skip": 8506,
      "ĠHa": 8507,
      "Ġlived": 8508,
      "ĠGreek": 8509,
      "Ġperfect": 8510,
      "ropy": 8511,
      "Ġcovered": 8512,
      "cheduler": 8513,
      "Conn": 8514,
      "Ġquestions": 8515,
      "Ġreader": 8516,
      "Enumer": 8517,
      "ĠResource": 8518,
      "required": 8519,
      "EV": 8520,
      "ĠBlue": 8521,
      "ĠWindows": 8522,
      "nn": 8523,
      "iversal": 8524,
      "seg": 8525,
      "Ġdrama": 8526,
      "Ġcharset": 8527,
      "ĠHead": 8528,
      "etic": 8529,
      "ĠLocal": 8530,
      "issues": 8531,
      "Ġlaws": 8532,
      "Ġessential": 8533,
      "ĠCentre": 8534,
      "adr": 8535,
      "formance": 8536,
      "Ġnotice": 8537,
      "ĠCommon": 8538,
      "mond": 8539,
      "plus": 8540,
      "nam": 8541,
      "Ġindividuals": 8542,
      "Ids": 8543,
      "agraph": 8544,
      "atar": 8545,
      "SI": 8546,
      "picker": 8547,
      "Ġcompact": 8548,
      "stein": 8549,
      "blank": 8550,
      "numerus": 8551,
      "ĠExample": 8552,
      "Ġui": 8553,
      "numerusform": 8554,
      "ĠBritain": 8555,
      "ĠÂ£": 8556,
      "Ġdepartment": 8557,
      "ĠMen": 8558,
      "Ġsuccessfully": 8559,
      "Ġaudio": 8560,
      "Ġentries": 8561,
      "Ġfirm": 8562,
      "Ġreferred": 8563,
      "Ġoccurs": 8564,
      "world": 8565,
      "Ġleaving": 8566,
      "bg": 8567,
      "socket": 8568,
      "Ġhyper": 8569,
      "Ġhar": 8570,
      "Ġreadonly": 8571,
      "flag": 8572,
      "python": 8573,
      "gest": 8574,
      "Ġadj": 8575,
      "Math": 8576,
      "iated": 8577,
      "sel": 8578,
      "plates": 8579,
      "ĠRh": 8580,
      "Ġtranslate": 8581,
      "ĠArrayList": 8582,
      "illi": 8583,
      "Ġbeaut": 8584,
      "ellar": 8585,
      "DR": 8586,
      "ben": 8587,
      "inois": 8588,
      "ĠGre": 8589,
      "Ġdigital": 8590,
      "Ġrelevant": 8591,
      "ĠBlock": 8592,
      "Ġobservations": 8593,
      "ummy": 8594,
      "(@": 8595,
      "ĠAny": 8596,
      "WN": 8597,
      "Ġoffers": 8598,
      "Ġdefeated": 8599,
      "ĠFree": 8600,
      "TT": 8601,
      "Bi": 8602,
      "moz": 8603,
      "ĠFace": 8604,
      "ĠJones": 8605,
      "Ġexecution": 8606,
      "ĠTheir": 8607,
      "Two": 8608,
      "ennis": 8609,
      "ibli": 8610,
      "Ġdict": 8611,
      "sky": 8612,
      "Total": 8613,
      "Ġ^": 8614,
      "tk": 8615,
      "Ġplugin": 8616,
      "orial": 8617,
      "Ġsusp": 8618,
      "ancer": 8619,
      "clean": 8620,
      "ĠMah": 8621,
      "ĠVector": 8622,
      "('#": 8623,
      "Ġparticle": 8624,
      "Ġpan": 8625,
      "Ġwild": 8626,
      "FORM": 8627,
      "Ġcalc": 8628,
      "Short": 8629,
      "Ġflux": 8630,
      "ĠPower": 8631,
      "enth": 8632,
      "inant": 8633,
      "uations": 8634,
      "ĠSouthern": 8635,
      "Ġrates": 8636,
      "amazon": 8637,
      "Vertex": 8638,
      "Find": 8639,
      "ĠFurther": 8640,
      "ĠAsia": 8641,
      "()))": 8642,
      "hesis": 8643,
      "Ġlab": 8644,
      "Ġfill": 8645,
      "sa": 8646,
      "report": 8647,
      "pton": 8648,
      "Ġalleg": 8649,
      "Ġarmy": 8650,
      "flex": 8651,
      "kens": 8652,
      "ĠSong": 8653,
      "Ġnumerous": 8654,
      "Ġelections": 8655,
      "bro": 8656,
      "MI": 8657,
      "Ġcurve": 8658,
      "Ġcmd": 8659,
      "Bind": 8660,
      "checkbox": 8661,
      "Ġstored": 8662,
      "Wallet": 8663,
      "Ġice": 8664,
      "gence": 8665,
      "CTYPE": 8666,
      "Ġcommit": 8667,
      "Ġseat": 8668,
      "Ġlisting": 8669,
      "ea": 8670,
      "ivery": 8671,
      "ancing": 8672,
      "ĠPennsylvania": 8673,
      "tc": 8674,
      "DEFAULT": 8675,
      "ĠCamb": 8676,
      "eper": 8677,
      "ĠSQL": 8678,
      "awa": 8679,
      "aby": 8680,
      "Ġenum": 8681,
      "Ġhelped": 8682,
      "cean": 8683,
      "Ġanimation": 8684,
      "Ġnp": 8685,
      "ester": 8686,
      "neg": 8687,
      "Ġlic": 8688,
      "loader": 8689,
      "Ġreligious": 8690,
      "...</": 8691,
      "Ġcounty": 8692,
      "Ġcombination": 8693,
      "Language": 8694,
      "Ġfactors": 8695,
      "mediate": 8696,
      "IGHT": 8697,
      "sch": 8698,
      "println": 8699,
      "LOCK": 8700,
      "METH": 8701,
      "resolve": 8702,
      "usters": 8703,
      "ĠMake": 8704,
      "USER": 8705,
      "Some": 8706,
      "Ġrepresenting": 8707,
      "large": 8708,
      "Volume": 8709,
      "ĠMichigan": 8710,
      "Ġautomatically": 8711,
      "zure": 8712,
      "ila": 8713,
      "swarm": 8714,
      "pull": 8715,
      "ĠCivil": 8716,
      "Ġrail": 8717,
      "imitive": 8718,
      "Ġsociety": 8719,
      "chain": 8720,
      "Ġspan": 8721,
      "\"\"\"": 8722,
      "ĠTR": 8723,
      "enger": 8724,
      "Ġdat": 8725,
      "Ġvictory": 8726,
      "Ġforest": 8727,
      "ewidth": 8728,
      "ĠPrem": 8729,
      "Ġlif": 8730,
      "mathscr": 8731,
      "600": 8732,
      "uset": 8733,
      "proxy": 8734,
      "Ġmainly": 8735,
      "wildfly": 8736,
      "optional": 8737,
      "ĠIslam": 8738,
      "){\\": 8739,
      "Ġserious": 8740,
      "1963": 8741,
      "RR": 8742,
      "ods": 8743,
      "1962": 8744,
      "Ġpatients": 8745,
      "ridge": 8746,
      "ups": 8747,
      "spect": 8748,
      "Ġconstraints": 8749,
      "Summary": 8750,
      "href": 8751,
      "Ġhusband": 8752,
      "Ġsingles": 8753,
      "texttt": 8754,
      "Ġwall": 8755,
      "ĠJohnson": 8756,
      "ĠUkr": 8757,
      "Ġviews": 8758,
      "ĠMiddle": 8759,
      "Ġadding": 8760,
      "checked": 8761,
      "*{": 8762,
      "Ġdiagram": 8763,
      "123": 8764,
      "agent": 8765,
      "\\}$": 8766,
      "Ġpull": 8767,
      "ITION": 8768,
      "Ġoil": 8769,
      "Ġpert": 8770,
      "Cloud": 8771,
      "ĠLuc": 8772,
      "illy": 8773,
      "rg": 8774,
      "Ġtherm": 8775,
      "Ġhence": 8776,
      "Ġflat": 8777,
      "EEEEFF": 8778,
      "Ġready": 8779,
      "Ġordered": 8780,
      "lat": 8781,
      "Ġdetection": 8782,
      "Ġnine": 8783,
      "Subs": 8784,
      "standing": 8785,
      "groups": 8786,
      "ulf": 8787,
      "Ġrob": 8788,
      "ilters": 8789,
      "Ġthr": 8790,
      "ĠMajor": 8791,
      "uly": 8792,
      "pet": 8793,
      "Mask": 8794,
      "Methods": 8795,
      "pear": 8796,
      "jd": 8797,
      "DOCTYPE": 8798,
      "=\"$": 8799,
      "Ġru": 8800,
      "Ġaccepted": 8801,
      "burgh": 8802,
      "ulty": 8803,
      "limits": 8804,
      "250": 8805,
      "ometric": 8806,
      "Ġcitiz": 8807,
      "gorithms": 8808,
      "General": 8809,
      "operation": 8810,
      "Ġindicates": 8811,
      "Ġexecute": 8812,
      "ĠLcom": 8813,
      "plot": 8814,
      "Ġcomments": 8815,
      "Comple": 8816,
      "ENSE": 8817,
      "Ġtmp": 8818,
      "Endpoint": 8819,
      "ĠEp": 8820,
      "According": 8821,
      "Ġdisabled": 8822,
      "Animation": 8823,
      "ĠWilliams": 8824,
      "Ġhistorical": 8825,
      "rical": 8826,
      "Flow": 8827,
      "Ġadvant": 8828,
      "Ġalternative": 8829,
      "Ġoffered": 8830,
      "two": 8831,
      "ĠOx": 8832,
      "Ġcontained": 8833,
      "ilarly": 8834,
      "Ġflex": 8835,
      "fx": 8836,
      "METHOD": 8837,
      "otted": 8838,
      "Area": 8839,
      "Ġaim": 8840,
      "Ġpil": 8841,
      "ĠDocument": 8842,
      "Ġrgba": 8843,
      "haps": 8844,
      "ĠQueen": 8845,
      "Ign": 8846,
      "Ġtor": 8847,
      "ĠUSA": 8848,
      "IDTH": 8849,
      "ĠCEL": 8850,
      "phy": 8851,
      "arrier": 8852,
      "iser": 8853,
      "Ġspirit": 8854,
      "ĠMi": 8855,
      "initions": 8856,
      "Ġincome": 8857,
      "ĠJersey": 8858,
      "urban": 8859,
      "Ġclaimed": 8860,
      "Ġedges": 8861,
      "ĠCro": 8862,
      "ĠInput": 8863,
      "ĠPacific": 8864,
      "Ġring": 8865,
      "inity": 8866,
      "ĠFC": 8867,
      "Ġassign": 8868,
      "Ġpp": 8869,
      "Miss": 8870,
      "PER": 8871,
      "ĠCa": 8872,
      "National": 8873,
      "ivial": 8874,
      "ĠSecurity": 8875,
      "odd": 8876,
      "%,": 8877,
      "Ġ).": 8878,
      "iar": 8879,
      "Ġmerg": 8880,
      "Sequence": 8881,
      "ĠBoth": 8882,
      "}^{-": 8883,
      "gypt": 8884,
      "Ġreset": 8885,
      "EST": 8886,
      "Ġaccom": 8887,
      "Ġpairs": 8888,
      "emy": 8889,
      "Ġcontribution": 8890,
      "Ġpiece": 8891,
      "Ġstarts": 8892,
      "uite": 8893,
      "Ġmolec": 8894,
      "Äį": 8895,
      "Admin": 8896,
      "Ġworth": 8897,
      "Ġ'./": 8898,
      "Ġdetect": 8899,
      "ĠRam": 8900,
      "Make": 8901,
      "Ġrecording": 8902,
      "Ġfine": 8903,
      "Ġconsistent": 8904,
      "VALID": 8905,
      "(\"/": 8906,
      "Ġhol": 8907,
      "aya": 8908,
      "Fin": 8909,
      "Ġparties": 8910,
      "Ġtrib": 8911,
      "Ġlabels": 8912,
      "ĠOhio": 8913,
      "ĠTro": 8914,
      "(.": 8915,
      "ĠHam": 8916,
      "ORTED": 8917,
      "library": 8918,
      "aligned": 8919,
      "VID": 8920,
      "MODULE": 8921,
      "Fragment": 8922,
      "ĠCarl": 8923,
      "'d": 8924,
      "Native": 8925,
      "Ġreb": 8926,
      "Ġ];": 8927,
      "ĠJewish": 8928,
      "LINE": 8929,
      "loop": 8930,
      "Ġtools": 8931,
      "hetic": 8932,
      "iminal": 8933,
      "react": 8934,
      "rawn": 8935,
      "ĠWay": 8936,
      "Mouse": 8937,
      "ashion": 8938,
      "Ġmetal": 8939,
      "Ġtra": 8940,
      "Ġshowing": 8941,
      "Ġvalign": 8942,
      "STATE": 8943,
      "nic": 8944,
      ".\",": 8945,
      "Ġexistence": 8946,
      "ĠÐ¿": 8947,
      "Home": 8948,
      "Ġtrust": 8949,
      "Ġpartition": 8950,
      "Ġdoub": 8951,
      "Ġguest": 8952,
      "urer": 8953,
      "Ġsafe": 8954,
      "ĠStat": 8955,
      "esian": 8956,
      "Ġmapping": 8957,
      "Ġmeasured": 8958,
      "ĠAS": 8959,
      "ysical": 8960,
      "ĠBern": 8961,
      "structions": 8962,
      "adel": 8963,
      "ĠLink": 8964,
      "undefined": 8965,
      "iciency": 8966,
      "ĠBow": 8967,
      "Bean": 8968,
      "onto": 8969,
      "umes": 8970,
      "Ġidx": 8971,
      "ĠassertThat": 8972,
      "ĠMov": 8973,
      "ĠPRO": 8974,
      "goto": 8975,
      "Ġeigen": 8976,
      "Ġhundred": 8977,
      "NavBarFont": 8978,
      "ĠValid": 8979,
      "tf": 8980,
      "Ã±": 8981,
      "Ġcolon": 8982,
      "route": 8983,
      "Ġleaders": 8984,
      "<\\": 8985,
      "Ġdrive": 8986,
      "Ġmeta": 8987,
      "Our": 8988,
      "ĠANY": 8989,
      "ĠServices": 8990,
      "Ġstatistics": 8991,
      "ruby": 8992,
      "andon": 8993,
      "Identity": 8994,
      "warning": 8995,
      "Ġmaterials": 8996,
      "Elements": 8997,
      "fully": 8998,
      "sen": 8999,
      ";\">": 9000,
      "Ġgenus": 9001,
      "Install": 9002,
      "tics": 9003,
      "forward": 9004,
      "ĠSoftware": 9005,
      "alty": 9006,
      "Ġslightly": 9007,
      "assandra": 9008,
      "istence": 9009,
      "These": 9010,
      "ĠTechnology": 9011,
      "Ġ\\\"": 9012,
      "footnote": 9013,
      "emic": 9014,
      "dig": 9015,
      "uzz": 9016,
      "Ġbass": 9017,
      "attice": 9018,
      "Notification": 9019,
      "Ġfamous": 9020,
      "ampions": 9021,
      "Ġtheorem": 9022,
      "Are": 9023,
      "Serv": 9024,
      "ĠRepresent": 9025,
      "aren": 9026,
      "However": 9027,
      "Ġemb": 9028,
      "ĠKent": 9029,
      "Ġsemi": 9030,
      "ĠAsian": 9031,
      "clone": 9032,
      "Ġtraffic": 9033,
      "}}_": 9034,
      ")|": 9035,
      "ĠBas": 9036,
      "Ġimplemented": 9037,
      "Ġmarked": 9038,
      "Ġexperiments": 9039,
      "'];": 9040,
      "Ġprops": 9041,
      "Ġregistered": 9042,
      "****************************************************************": 9043,
      "ĠSte": 9044,
      "ĠDown": 9045,
      "1944": 9046,
      "Ġexperimental": 9047,
      "Ġcalculated": 9048,
      "Ġpi": 9049,
      "PH": 9050,
      "simple": 9051,
      "uy": 9052,
      ",'": 9053,
      "Ġformula": 9054,
      "IA": 9055,
      "ifndef": 9056,
      "ĠCy": 9057,
      "Users": 9058,
      "ni": 9059,
      "Ġemission": 9060,
      "PU": 9061,
      "Ġdocumentation": 9062,
      "going": 9063,
      "notes": 9064,
      "una": 9065,
      "usetts": 9066,
      "Ġfelt": 9067,
      "Ġrows": 9068,
      "Ġinstruction": 9069,
      "ĠCoast": 9070,
      "achusetts": 9071,
      "ĠBoston": 9072,
      "1961": 9073,
      "ifi": 9074,
      "Ġcities": 9075,
      "ĠWhe": 9076,
      "vc": 9077,
      "SSL": 9078,
      "Ġsignificantly": 9079,
      "Ġscatter": 9080,
      "Flag": 9081,
      "abeth": 9082,
      "Ġrelatively": 9083,
      "Ġbuf": 9084,
      "Ġconcentr": 9085,
      "runtime": 9086,
      "Ġcancel": 9087,
      "Ġfiction": 9088,
      "console": 9089,
      "ĠKr": 9090,
      "ĠAndroid": 9091,
      "Mer": 9092,
      "Ġconnections": 9093,
      "gers": 9094,
      "Ġcomposed": 9095,
      "RPC": 9096,
      "helper": 9097,
      "Ġscroll": 9098,
      "Ġorganizations": 9099,
      "GC": 9100,
      "101": 9101,
      "Ġlanguages": 9102,
      "ĠEdward": 9103,
      "Ġserving": 9104,
      "GO": 9105,
      "{\"": 9106,
      "Ġintended": 9107,
      "Ġuniversity": 9108,
      "ĠIllinois": 9109,
      "sidebar": 9110,
      "diff": 9111,
      "ĠSD": 9112,
      "icine": 9113,
      "Ġduration": 9114,
      "Children": 9115,
      "complete": 9116,
      "Ġsynt": 9117,
      "quis": 9118,
      "rad": 9119,
      "Ġparticles": 9120,
      "eces": 9121,
      "Ġexpert": 9122,
      "Ġsupports": 9123,
      "Ġofficers": 9124,
      "poss": 9125,
      "Ġvac": 9126,
      "Ġrare": 9127,
      "person": 9128,
      "Ġsafety": 9129,
      "Required": 9130,
      "ĠFrancisco": 9131,
      "transition": 9132,
      "Ġmd": 9133,
      "Append": 9134,
      "Environment": 9135,
      "Ġimag": 9136,
      "cknow": 9137,
      "DEBUG": 9138,
      "áĥ": 9139,
      "Tra": 9140,
      "loor": 9141,
      "»¿": 9142,
      "Day": 9143,
      "ĠBoolean": 9144,
      "Ġbridge": 9145,
      "Ġpropag": 9146,
      "ĠProcess": 9147,
      "Ġopts": 9148,
      "ĠOptional": 9149,
      "ĠOriginal": 9150,
      "lik": 9151,
      "800": 9152,
      "ĠTheatre": 9153,
      "ĠGeorgia": 9154,
      "ArgumentException": 9155,
      "ĠSand": 9156,
      "alg": 9157,
      "ancell": 9158,
      "uries": 9159,
      "Ġsquad": 9160,
      "Enter": 9161,
      "ĠPoland": 9162,
      "Ġschema": 9163,
      "ĠAuthor": 9164,
      "catch": 9165,
      "ï»¿": 9166,
      "iÄĩ": 9167,
      "Email": 9168,
      "Ġsister": 9169,
      "Sort": 9170,
      "ĠSenate": 9171,
      "ĠGlobal": 9172,
      "Ġaccuracy": 9173,
      "bat": 9174,
      "ixels": 9175,
      "INTER": 9176,
      "but": 9177,
      "\"],": 9178,
      "ĠMany": 9179,
      "supported": 9180,
      "ĠInformation": 9181,
      "Ġtrial": 9182,
      "Ġroll": 9183,
      "ĠVan": 9184,
      "animation": 9185,
      "download": 9186,
      "Ġcamera": 9187,
      "Ġintr": 9188,
      "ĠAlbert": 9189,
      "fc": 9190,
      "ulator": 9191,
      "Ġformal": 9192,
      "Scal": 9193,
      "Ġnation": 9194,
      "lan": 9195,
      "Ang": 9196,
      "Ġenh": 9197,
      "pler": 9198,
      "Ġarbitrary": 9199,
      "Ġattract": 9200,
      "NV": 9201,
      "Ġpoly": 9202,
      "Ġbrand": 9203,
      "Ġanswer": 9204,
      "Ġvertices": 9205,
      "cha": 9206,
      "Ġusage": 9207,
      "Ġprocedure": 9208,
      "Ġfeat": 9209,
      "ELD": 9210,
      "Should": 9211,
      "Ġdiscovered": 9212,
      "Ġ\"$": 9213,
      "Ġdiss": 9214,
      "Ġassumed": 9215,
      "roduction": 9216,
      "hu": 9217,
      "Ġdynamic": 9218,
      "pres": 9219,
      "Ġgirl": 9220,
      "osa": 9221,
      "ependence": 9222,
      "sb": 9223,
      "Ġships": 9224,
      "Ġreasons": 9225,
      "Ġorient": 9226,
      "ĠCollection": 9227,
      "Ġoperating": 9228,
      "Ġsql": 9229,
      "Ġincorpor": 9230,
      "lipse": 9231,
      "Stop": 9232,
      "Ġ($\\": 9233,
      "odies": 9234,
      "Eq": 9235,
      "Ġlat": 9236,
      "Ġlistener": 9237,
      "Ġstrength": 9238,
      "oir": 9239,
      "ells": 9240,
      "Ġloaded": 9241,
      "edia": 9242,
      "np": 9243,
      "Brit": 9244,
      "Ġprep": 9245,
      "FN": 9246,
      "esome": 9247,
      "Ġmaintain": 9248,
      "plan": 9249,
      "Dictionary": 9250,
      "ĠHuman": 9251,
      "asi": 9252,
      "Ġassembly": 9253,
      "Ġhands": 9254,
      "signature": 9255,
      "Ġlies": 9256,
      "1956": 9257,
      "/_": 9258,
      "ĠĠĠĠĠĠĠĠĠĠĠĠĠĠĠĠĠĠĠĠĠĠĠĠĠĠĠĠĠĠ": 9259,
      "azy": 9260,
      "'}": 9261,
      "Ġzone": 9262,
      "bold": 9263,
      "Ġinstances": 9264,
      "Ġ([": 9265,
      "Ġhospital": 9266,
      "Ġindicate": 9267,
      "ĠSupport": 9268,
      "REG": 9269,
      "Ġignore": 9270,
      "åĪ": 9271,
      "Ø±": 9272,
      "ĠEND": 9273,
      "Ġdecom": 9274,
      "Ġcouncil": 9275,
      "Ġbatt": 9276,
      "fi": 9277,
      "Ġactors": 9278,
      "1959": 9279,
      "hard": 9280,
      "tar": 9281,
      "getValue": 9282,
      "FUN": 9283,
      "IOException": 9284,
      "QU": 9285,
      "essions": 9286,
      "seq": 9287,
      "scss": 9288,
      "words": 9289,
      "Limit": 9290,
      "inent": 9291,
      "ĠRo": 9292,
      "Ġpolynomial": 9293,
      "Ġalone": 9294,
      "ĠRegion": 9295,
      "1942": 9296,
      "PROJECT": 9297,
      "itness": 9298,
      "Ġencour": 9299,
      "Ġ$|": 9300,
      "Ġgauge": 9301,
      "Ġhappy": 9302,
      "Ġisol": 9303,
      "Ġefforts": 9304,
      "typename": 9305,
      "linewidth": 9306,
      "Ġfmt": 9307,
      "amps": 9308,
      "ĠAirport": 9309,
      "ĠWall": 9310,
      "Tags": 9311,
      "itage": 9312,
      "Ġdisease": 9313,
      "produ": 9314,
      "ĠSIZE": 9315,
      "Ġil": 9316,
      "driver": 9317,
      "arnings": 9318,
      "Ġtechniques": 9319,
      "Ġoperated": 9320,
      "Ġleaves": 9321,
      "atomic": 9322,
      "Ġthous": 9323,
      "Ġparallel": 9324,
      "/\"": 9325,
      "Ġcontem": 9326,
      "mouse": 9327,
      "chester": 9328,
      "ĠLie": 9329,
      "pair": 9330,
      "BB": 9331,
      "alm": 9332,
      "SCR": 9333,
      "vin": 9334,
      "Leg": 9335,
      "ĠSource": 9336,
      "Ġcycle": 9337,
      "Ġmobile": 9338,
      "Ġtransparent": 9339,
      "Ġconcert": 9340,
      "ĉĉĉĉĉĊ": 9341,
      "Ġsys": 9342,
      "Ġprovider": 9343,
      "istance": 9344,
      "eld": 9345,
      "Ġregional": 9346,
      "ĠDaily": 9347,
      "ĠKong": 9348,
      "Ġseg": 9349,
      "slice": 9350,
      "trm": 9351,
      "dagger": 9352,
      "ĠallClasses": 9353,
      "cuss": 9354,
      "1958": 9355,
      "ket": 9356,
      "Ġwinner": 9357,
      "FE": 9358,
      "Ġidentify": 9359,
      "Ġgalaxies": 9360,
      "ĠMid": 9361,
      "Ġwestern": 9362,
      "ĠKen": 9363,
      "Ġsales": 9364,
      "inherit": 9365,
      "ĠWater": 9366,
      "Program": 9367,
      "Ġauthors": 9368,
      "ses": 9369,
      "Ġcomedy": 9370,
      "selector": 9371,
      "ĠallClassesLink": 9372,
      "Ġsph": 9373,
      "ĠNight": 9374,
      "ĠDutch": 9375,
      "Normal": 9376,
      "Ġpoliticians": 9377,
      "SK": 9378,
      "ucky": 9379,
      "Ġextrem": 9380,
      "Ġresolve": 9381,
      "once": 9382,
      "Ġdynamics": 9383,
      "Ġvalidate": 9384,
      "ĠAmazon": 9385,
      "Ġtranslation": 9386,
      "Ġweap": 9387,
      "Ġadjust": 9388,
      "ĠPhilipp": 9389,
      "ĠRay": 9390,
      "Ġcomputed": 9391,
      "ogram": 9392,
      "ĠNAV": 9393,
      "dc": 9394,
      "constructor": 9395,
      "PUT": 9396,
      "æľ": 9397,
      "avor": 9398,
      "arters": 9399,
      "Ġdetailed": 9400,
      "sn": 9401,
      "180": 9402,
      "ĠPlan": 9403,
      "ĠJon": 9404,
      "also": 9405,
      "onical": 9406,
      "Ġelim": 9407,
      "Ġblood": 9408,
      "Ġissued": 9409,
      "}%": 9410,
      "ĠPrince": 9411,
      "setup": 9412,
      "constr": 9413,
      "Ġallowing": 9414,
      "kwargs": 9415,
      "ÏĦ": 9416,
      "Sports": 9417,
      "ĠWild": 9418,
      "Env": 9419,
      "ĠLy": 9420,
      "watch": 9421,
      "ĠBroad": 9422,
      "Ġmultip": 9423,
      "Warning": 9424,
      "apis": 9425,
      "^^": 9426,
      "1948": 9427,
      "Ġpropos": 9428,
      "Ġfootballer": 9429,
      "Ġbelieved": 9430,
      "peat": 9431,
      "about": 9432,
      "Ġkept": 9433,
      "ĠLight": 9434,
      "ĠFar": 9435,
      "Writ": 9436,
      "ĠMu": 9437,
      "Screen": 9438,
      "oton": 9439,
      "Ġspl": 9440,
      "ĠStan": 9441,
      "Ġens": 9442,
      "Ġexpanded": 9443,
      "Ġminim": 9444,
      "GER": 9445,
      "Div": 9446,
      "Ġrevealed": 9447,
      "Ġdepart": 9448,
      "accept": 9449,
      "Ġpretty": 9450,
      "Ġsettlement": 9451,
      "ĠCustom": 9452,
      "Ġ\\;": 9453,
      "textrm": 9454,
      "ĉĠĠĠĠĠĠĠ": 9455,
      "Best": 9456,
      "ĠAndrew": 9457,
      "zip": 9458,
      "ĠEcon": 9459,
      "Ġfloor": 9460,
      "trace": 9461,
      "Ġadult": 9462,
      "Ġplease": 9463,
      "Ġmonitor": 9464,
      "SV": 9465,
      "WORD": 9466,
      "RC": 9467,
      "ĠBit": 9468,
      "Ġclassification": 9469,
      "Begin": 9470,
      "elem": 9471,
      "ĠSoc": 9472,
      "ĠAli": 9473,
      "Ġpure": 9474,
      "Ġspecify": 9475,
      "yy": 9476,
      "release": 9477,
      "Save": 9478,
      "Ġhappen": 9479,
      "Ġtrace": 9480,
      "%\"": 9481,
      "Folder": 9482,
      "........": 9483,
      "ĠOfficial": 9484,
      "Ġcontents": 9485,
      "Ġple": 9486,
      "Serializer": 9487,
      "bean": 9488,
      "Ġconfirmed": 9489,
      "ĠMassachusetts": 9490,
      "ĠMot": 9491,
      "Ġcultural": 9492,
      "Ġsecondary": 9493,
      "Release": 9494,
      "ingham": 9495,
      "Ġdestination": 9496,
      "Ġrac": 9497,
      "ti": 9498,
      "Ġcat": 9499,
      "Music": 9500,
      "Ġsections": 9501,
      "ĠJr": 9502,
      "orders": 9503,
      "Ġchannels": 9504,
      "elligence": 9505,
      "Ġrapid": 9506,
      "Ġlocations": 9507,
      "Ġ\"\",": 9508,
      "policy": 9509,
      "mc": 9510,
      "sto": 9511,
      "Ġassess": 9512,
      "1957": 9513,
      "Ð°Ð½": 9514,
      "Ġacquired": 9515,
      "%)": 9516,
      "Ġ$\\{": 9517,
      "ĠTaylor": 9518,
      "visible": 9519,
      "InputStream": 9520,
      "Move": 9521,
      "uum": 9522,
      "ĠSecretary": 9523,
      "Look": 9524,
      "shal": 9525,
      "verter": 9526,
      "1939": 9527,
      "Ġexpressed": 9528,
      "United": 9529,
      "Ġcorresponds": 9530,
      "Ġretired": 9531,
      "ÑģÑĤ": 9532,
      "Ġselector": 9533,
      "COMP": 9534,
      "Unknown": 9535,
      "Ġshell": 9536,
      "destroy": 9537,
      "}}_{": 9538,
      "Ġfraction": 9539,
      "erence": 9540,
      "NC": 9541,
      "ĠWis": 9542,
[...]
