#version: 0.2
Ġ t
Ġ a
i n
h e
o n
e r
r e
Ġ Ġ
Ġt he
a t
Ġ s
e n
o r
Ġ w
a n
Ġ o
i t
i s
e s
Ġ c
a l
e d
a r
Ġ f
in g
n d
Ġ b
Ġ p
Ġo f
o u
Ġ in
i c
i on
Ġ m
Ġa nd
Ġt o
a s
l e
Ġ d
o m
ĠĠ ĠĠ
Ġ h
â Ģ
en t
Ġt h
i l
e l
s t
r o
c t
Ġ S
Ġ re
e t
Ġ n
Ġ T
Ġ l
Ġ C
Ġ A
Ġ e
i d
a m
o l
Ġ I
o t
u t
Ġ g
v e
i g
i m
at ion
c e
u r
a d
Ġ is
Ġ M
l y
a y
Ġ on
Ġf or
c h
o w
u s
Ġb e
v er
Ġ (
Ġ P
Ġ B
Ġth at
i r
Ġs t
it h
t er
âĢ Ļ
r a
u l
s e
u n
Ġ he
Ġw ith
Ġ D
Ġ H
Ġ R
Ġa s
2 0
Ġ y
e m
Ġ it
i f
Ġ F
a g
Ġ W
Ġa n
Ġw h
o d
er s
r i
Ġa l
Ġc on
ĠĠ Ġ
es t
u m
Ġ L
is t
t h
a c
il l
Ġ N
ĠT he
an d
ĠĠĠĠ ĠĠĠĠ
a b
o p
at e
he r
Ġp ro
Ġ G
Ġ E
Ġw as
Ġa t
e w
h t
re s
es s
p p
it y
r om
l d
Ġ v
q u
Ġc om
Ġ âĢ
o c
o re
ou r
k e
o s
e ct
Ġb y
Ġa re
Ġd e
Ġ J
m ent
Ġ or
Ġe x
or t
i v
i es
a in
ar t
an t
en d
Ġ O
Ġs e
Ġf rom
Ġh a
Ġ r
Ġs u
i ve
20 1
ig ht
u d
al l
Ġ $
u st
Ġw e
Ġth is
p t
Ġn ot
ar d
Ġs h
n t
Ġy ou
i al
Ġc h
Ġ U
u re
Ġ \
. .
e ar
T he
o g
g e
p e
Ġha ve
Ġ u
el l
âĢ Ŀ
ou t
Ġ le
1 9
in e
ou ld
' s
o st
r ou
b er
as t
p l
ct ion
a k
p er
ic h
i a
as s
Ġa b
Ġ us
am e
an s
Ġp l
f f
Ġ K
om e
Ġw or
ĠS t
u b
o k
ac k
a re
0 0
ag e
Ġh as
ic al
ar y
at ed
u e
Ġh is
Ġc l
Ġ j
on g
ĠI n
i z
e x
Ġ "
ĠĠĠĠ ĠĠĠ
Ġ k
Ġal l
id e
i re
Ġc an
a p
i p
c l
ic e
t her
Ġw he
ĠâĢ ľ
or m
r y
ul t
en ce
ou s
Ġ =
e p
i e
Ġb ut
Ġw ill
in d
ion s
g h
Ġg o
Ġcom p
Ġ V
c c
Ġa d
Ġ -
ab le
Ġd o
er e
a v
Ġcon t
Ġthe ir
Ġin t
im e
it e
Ġthe y
a ct
ig n
ation s
on e
Ġm e
Ġwh ich
ĠC h
Ġ un
Ġ im
i b
Ġ en
Ġre s
Ġo ut
Ġwh o
an ce
or d
at h
< /
r u
ĠT h
o ok
Ġon e
al ly
a ce
f er
p h
p ort
c on
ĉ ĉ
Ġm ore
as e
= "
s o
d u
Ġu p
k s
in t
i an
Ġa r
e g
or y
Ġw ere
an g
Ġs a
f orm
o v
Ġab out
ver y
it ion
Ġt r
i le
en s
Ġ Y
a ch
ou nt
res s
Ġa pp
a ke
ent s
Ġs o
Ġm an
a il
Ġhe r
{ \
Ġp er
m er
l ic
) ;
Ġd is
č Ċ
/ /
ver s
- -
Ġ &
Ġa g
l l
Ġn e
Ġn ew
el y
o b
Ġy ear
ow n
Ġe v
ay s
er v
Ġl i
c om
Ġp art
il d
o se
is h
Ġh ad
Ġo ther
Ġs p
ou nd
1 0
re e
Ġbe en
) .
or s
Ġ <
Ġit s
v el
ar k
Ġal so
Ġ if
) ,
Ġs c
20 0
ur n
ex t
c k
ing s
r ic
ir st
Ġ {
Ġin ter
re at
Ġ qu
Ġp re
Ġw ould
ĠI t
Ġthe re
c es
f t
Ġt e
Ġp e
r it
Ġo ver
ol l
n e
w o
ro w
at es
us e
ĠH e
Ġo ur
nd er
Ġwor k
Ġt ime
ol d
o ve
op le
Ġan y
f ter
j ect
ĠU n
a w
Ġth an
he d
Ġs ome
Ġthe m
t e
Ġk n
l i
I n
Ġm y
Ġwhe n
Ġsa id
ĠâĢ ĵ
in k
ĠĠĠĠĠĠĠĠ ĠĠĠ
cl ud
o y
Ġof f
v i
Ġy our
am p
e c
n g
on d
Ġint o
ation al
Ġs he
Ġ ro
Ġre c
on s
Ġ *
Ġf irst
ad e
u al
is s
Ġli ke
Ġwh at
s s
w e
ic k
o ol
Ġcom m
at er
e f
Ġg et
Ġpe ople
Ġbe c
ig h
Ġa cc
g et
_ {
on t
ri b
t y
Ġj ust
1 8
ub lic
et h
r am
er m
Ġd es
Ġn o
p s
o od
ol og
Ġa m
Ġin d
s p
Ġt wo
pe c
ic s
er t
le ct
Ġb et
el f
ĠC om
Ġu nder
Ġon ly
u g
c ed
at a
1 2
n ing
r ing
oc k
o int
l es
Ġa ct
id ent
Ġf e
Ġ }
it ies
Ġt ra
" >
o ver
Ġh ow
en er
y st
ter n
ĠN ew
rou nd
Ġb l
ĠW e
re d
Ġin clud
a use
Ġcl ass
Ġcon s
Ġa fter
rou gh
Ġh im
ic t
is e
. âĢĿ
if ic
Ġpl ay
Ġ$ \
Ġ Ċ
Ġ [
ou gh
Ġex p
w ard
Ġas s
Ġ |
Ġat t
it ed
Ġre g
at ing
Ġre t
or k
w n
Ġm ost
al s
ĠA r
Ġin v
Ġm ay
Ġe m
y s
1 1
ĠR e
as ed
Ġ '
od e
ot h
Ġpro v
.. .
âĢ ľ
Ġre l
Ġwhe re
i vers
Ġyear s
l and
ar ch
p ro
it t
Ġp ol
ul l
T h
i o
re f
ment s
t he
ĠP ro
at ive
Ġb ack
ul ar
Ġth rough
Ġsu b
S t
ĠTh is
Ġad d
Ġ ra
yst em
Ġc ould
i el
u nd
r an
Ġst ud
if e
Ġd if
Ġo b
h ip
m a
i ed
ĠĠĠĠĠĠĠĠ ĠĠĠĠĠĠĠĠ
Ġthe se
ow er
pp ort
* *
m ath
c re
1 5
Ġf l
Ġs et
Ġp h
Ġde f
os s
re n
c y
Ġkn ow
i x
ur ing
d ay
ĠD e
il y
ĠS e
ri v
Ġse e
Ġsu ch
il ity
mer ic
u p
in al
' t
i ous
Ġre m
Ġp res
m an
p r
ut ion
Ġw ell
pt ion
ar s
c ess
u ch
ĠĠĠĠ Ġ
c he
Ġne ed
Ġd id
Ġsh ow
an y
t s
u res
u es
Ġb u
Ġthe n
ib le
Ġtr ans
Ġag ain
a h
ch ool
vel op
Ġc ol
ĠW h
Ġp r
Ġa c
f ul
t t
Ġm od
as h
a x
it s
Ġe very
ĠA l
ers on
i ent
Ġ ent
Ġ end
ou n
Ġpro du
Ġn ow
n er
1 6
in s
ra ct
iel d
oll ow
3 0
Ġc o
f ore
is m
a ir
Ġman y
ot her
vi ew
ĠS h
Ġev en
ĠA nd
al e
g an
Ġr ight
o h
we en
as on
Ġs erv
an ge
ĠA n
ak ing
Ġbe ing
1 7
} \
w w
Ġbec ause
ut h
i ence
he n
em ent
s c
ĠA meric
in ce
ar g
b le
ire ct
im es
Ġw ay
Ġm ake
Ġe ff
ic es
1 4
em ber
le t
Ġ very
Ġl ook
a u
Ġwor ld
, âĢĿ
Ġn um
Ġres p
d er
Ġsh ould
Ġdif fer
Ġw ant
iz e
ist s
: //
Ġbet ween
Ġp ublic
19 9
al th
Ġs pec
Ġar t
ivers ity
Ġus e
Ġc all
1 3
oc i
Ġv al
in es
Ġin st
Ġo wn
am es
} $
Ġs ur
Ġc ount
t ing
^ {
Ġf il
Ġl oc
Ġg u
t on
us s
v en
Ġ ke
Ġs m
-- --
at ch
form ation
el s
m s
a z
rou p
Ġth ink
or n
iv es
ĠL e
l ed
w ay
Ġf un
Ġde c
Ġl ong
Ġret urn
Ġm ade
ĠC l
Ġdo es
Ġth ose
. ,
Ġhe l
Ġf ollow
ou se
con d
= =
Ġb el
olog y
Ġs ystem
a ve
âĢ ¦
at her
at ure
in ess
Ġm uch
is ion
Ġh igh
Ġst art
y pe
Ġle ad
p le
Ġex per
ut e
our ce
Ġbe fore
e k
p en
r al
r ight
v ent
Ġd et
o x
Ġus ed
2 5
ĠA s
Ġgo od
Ġm on
Ġf am
id er
Ġs ign
Ġd on
l ine
Ġs er
o ot
Ġde velop
Ġ .
E R
in ed
ĠT r
ĠS c
ĠF or
t en
g ram
Ġe ar
00 0
Ġre qu
Ġre ad
et s
ter s
Ġp oint
ra ph
Ġc ur
Ġs im
( )
ĠI s
Ġ /
er n
ch n
an n
201 9
ĠI nd
ect ion
al k
ag es
Ġd own
Ġg ener
re nt
c ent
Ġ ed
Ġex t
Ġd ata
ction s
Ġl ast
Ġfor m
Ġch ar
an k
ĠâĢ ĺ
Ġm ed
is hed
u c
t o
Ġd ist
Ġv ar
re ad
Ġg r
y m
Ġhe re
e ver
Ġf ound
} }
W e
Ġm in
Ġres ult
Ġdis c
p os
R e
iz ed
âĢ ĵ
u ally
ĠY ou
Ġwh ile
p ar
Ġ Q
ĠB ut
Ġs ame
us iness
Ġb oth
ĠA d
Ġ Z
it al
Ġhel p
Ġv i
Ġg reat
t r
g ht
ical ly
a pp
n ess
en g
ru ct
Ġc ent
Ġe ach
Ġcomm un
\ \
I t
. "
Ġth ree
ĠB l
Ġsu pport
i er
Ġcon st
_ _
Ġre p
ro ss
m ber
Ġp erson
en ces
Ġf ind
Ġs om
at or
Ġ +
v ed
a j
ĠUn iversity
g y
Ġc or
ĠâĢ Ķ
ĠE x
Ġl ife
Ġst ill
Ġs ay
ce pt
ĠP h
5 0
Ġte am
Ġre al
an c
( \
Ġc ar
o f
ur al
ant s
i k
Ġt ake
eg in
us ic
201 8
ĠC on
Ġdiffer ent
ak es
at t
Ġst r
Ġd uring
W h
s on
.. ..
Ġf in
re t
ect ed
Ġin f
Ġc our
Ġre port
y n
in a
Ġn ame
Ġc re
ĠC ol
b ers
ar m
Ġapp ro
Ġin formation
Ġf act
ĠS he
ĠCom m
O N
ĠĠĠĠĠĠĠĠ ĠĠĠĠĠĠĠ
ire d
r on
Ġch ild
I N
Ġh and
" ,
are d
en se
n ment
ou th
s elf
2 4
e b
Ġst at
Ġb ook
ĠS p
Ġa round
Ġnum ber
p ut
ra c
Ġ el
Ġpart ic
b egin
Ġagain st
Ġcon f
oh n
et y
o ad
- >
od y
om en
Ġgo ver
Ġm em
Ġd ay
or th
Ġw rit
r id
er y
Ġcont in
âĢ Ķ
t a
ill ion
er r
r ist
Ġg l
ot e
t ext
Ġst ate
s h
Ġse cond
ĠP l
Ġex pl
b y
m in
2 2
ion al
Ġl aw
Ġs l
Ġm ark
Th is
C h
u ro
le y
ĠU S
r ay
Ġr un
Ġinclud ing
ab el
b e
Ġper form
iss ion
Ġre ally
ĠM ar
Ġc are
he s
ur y
Ġo per
Ġv is
Ġ @
Ġs ays
Ġgo ing
ĠR es
201 7
Ġpro gram
r ation
Ġh ist
Ġs ol
19 8
Ġs chool
Ġ est
r is
v ing
en cy
Ġb est
E x
ĠM ay
Ġc ase
Ġg ame
Ġa v
Ġp ar
b s
Ġm ov
ial ly
Ġd irect
en n
c al
Ġre le
o ber
Ġis s
iz ation
i ver
m l
ĠThe y
_ {\
ĠB e
ro l
) $
uth or
Ġc he
le ar
e qu
um an
um p
Ġim port
2 1
Ġo pen
Ġpro cess
Ġp ost
Ġp ass
Ġde p
A T
Ġp ower
ĠJ an
201 6
Ġc a
as es
v es
g g
l ess
Ġ i
Ġpl ace
Ġs ince
2 3
cc ess
Ġl ist
Ġim p
Ġ </
Ġ #
ĠI f
iv ing
v al
R E
Ġprov id
S T
un e
Ġe le
Ġ //
m ed
Ġp at
Ġinter est
c o
ar n
Ġhe ad
Ġeff ect
ĠH ow
Ġbu ild
he re
iv en
Ġ Â
Ġm ain
Ġe qu
ĠA ll
ĠC ent
.. /
ou ght
ĠT e
ot t
Ġb usiness
Ġp op
ĠO n
Ġp oss
is ter
ess age
Ġp os
Ġpro t
s ide
ir d
Ġle g
} ,
Ġha pp
am b
ri end
Ġl ine
Ġan n
} {
ĠAmeric an
ĠM an
Ġus ing
Ġte chn
in ing
Ġre ce
Ġto o
Ġst and
: :
oc ial
o id
ain s
s et
um ent
m e
or ld
Ġan other
l ish
i or
Ġinv est
Ġdes ign
w ays
201 5
o ard
Ġor gan
Ġin cre
ĠE ng
ĉĉ ĉĉ
e e
if ied
eth od
Ġd el
A R
ĠUn ited
Ġm ust
y p
Ġad v
at ic
itt le
ĠJ ohn
ot s
Ġrec ord
l ing
or g
4 0
Ġp ur
Ġto p
Ġt est
al ity
pl oy
amp le
ht t
re am
Ġh ome
Ġd em
Ġpro ject
P ro
con om
is ed
Ġf ew
ert ain
Ġpro f
it ions
iv ed
Ġm at
p or
ĠO r
Ġcur rent
et er
Ġre f
Ġfun ction
Ġs ing
o le
at ely
Ġre st
Ġf our
eth ing
2 7
Ġt ri
Ġre se
Ġt erm
Ġ :
201 4
Ġcons ider
f rac
re en
2 6
Ġsm all
Ġne ver
Ġg roup
Ġn ext
or ies
st and
ĠR ep
i um
Ġor der
Ġfam ily
A N
vi ous
Ġall ow
2 8
res ent
Ġmon th
a im
Ġwith out
Ġpres ent
th ing
ain ed
f ig
iv ely
Ġb re
Ġchar act
are nt
Ġle vel
Ġqu est
en e
Ġbel ie
ic le
Ġs pe
qu e
Ġb ig
Ġm et
ĠC ar
f or
n al
Ġo ld
an e
ne y
Ġse em
at s
Ġt urn
Ġgover nment
O R
r m
if y
Ġn on
ir c
19 7
Ġb ro
Ġin c
Ġpol it
Ġst ory
Ġg row
in c
Ġoff ic
ri pt
g ed
Ġwe ek
w ork
le x
i ans
ab ility
Ġp ut
er ing
Ġhe alth
Ġbe h
ĠC an
ul ation
Ġm usic
Ġsom ething
Ġth ings
e q
Ġcom e
2 9
H e
ent ly
l ished
aj or
ir on
6 0
Ġw in
r ad
Ġdes c
1 00
Ġc ap
us h
b all
ent ion
ĠThe re
ri es
Ġcomp any
op e
t il
Ġpro ble
iv id
201 3
Ġval ue
Ġg ot
Ġfil m
Ġle t
og raph
Ġ X
a i
Ġs k
Ġle ft
g er
l ation
ab ly
d d
Ġvi ew
in ation
ĠP ol
r and
Ġcount ry
Ġbet ter
Ġwith in
l abel
Ġ ide
fer ence
, "
ĠCh rist
ĠM ed
Ġm ight
c ur
Ġor ig
A s
ac y
Ġman ag
ar ge
ail able
as k
ĠN o
Ġloc al
ric t
Ġh tt
' ,
ĠT o
ĠC o
E N
ww w
Ġse ver
ĠO ct
Ġp rom
ent ial
> </
ĠTh at
u ck
as ter
Ġl ess
ord ing
ĠY ork
Ġs elf
A L
Ġen g
Ġl ittle
Ġf ac
Ġt ry
Ġa ff
ĠE uro
u ary
ht ml
Ġt ype
id d
ĠSt ates
e le
ic y
ro p
i am
Ġan al
Ġal ways
Ġch ange
201 2
ĠA t
( "
Ġfollow ing
Ġcall ed
ight s
C om
ĠS u
it le
Ġpl an
ĠW orld
d iv
Ġch ang
Ġn ear
A S
Ġe lect
Ġpro per
Ġimport ant
e v
Ġc r
Ġl ot
Ã ©
Ġfe el
c er
ĠA ss
Ġf ield
le ft
Ġh ard
ĠSt ate
ĠG u
Ġg iven
Ġas k
ate g
u ly
ĠN ational
A n
Ġp riv
Ġsu pp
Ġw omen
ward s
y l
c ite
ĠS o
ĠA pr
m y
Ġl and
sp an
a f
ĠF l
n ot
ĠA ug
et a
---- ----
Ġchild ren
ut ure
Ġf ull
> <
is ing
( );
Ġm illion
** **
math b
b l
Ġcon d
B y
Ġse ason
end ed
ff ic
om an
Ġb ased
Ġh uman
b ack
et ing
Ġsu ccess
Ġ ident
g in
st it
E S
Ġo cc
os p
p art
Ġprodu ct
Ġev ent
Ġwor d
us ed
w are
Ġf riend
Ġ et
ĠS chool
Ġke ep
Ġm ar
one y
ob al
on y
le ction
Ġm ajor
ard s
Ġm il
) :
Ġact iv
ur ther
ĠC ount
ĠP res
rib ut
Ġm ove
Ġl ater
Ġal ong
Ġkn own
it or
v iron
du ct
Ġl a
Ġf ar
Ġav ailable
Ġf und
ĠEuro pe
Ġcommun ity
Ġser ies
al f
ĠIn tern
Ġme an
ĠE d
os ed
y le
Ġin s
im ate
al es
ition al
Ġp ay
Ġw ar
$ ,
o or
it ing
Ġa uthor
ver t
Ġl ove
, \
Ġf ore
Ġ >
Ġf ree
ĠA ust
our s
Ġs it
ide o
ure d
Ġm ult
end ing
ra w
201 1
ĠM arch
Ġe as
Ġare a
ĠM c
ĠP r
Ġc ity
F or
ĠM in
le ge
Ġun til
equ ation
Ġd ays
ĠS outh
ĠG e
Ġstud y
Ġmem bers
Ġc amp
Ġrese arch
Ġw ater
O n
a ff
i ke
Ġc ost
e ad
$ .
Ġp ast
Ġ es
Ġwh y
it ive
I T
Ġhist ory
i ents
er al
20 20
ĠE n
pl ay
ir l
ro ll
ĠA b
201 0
ur s
r ont
ĠA pp
id ence
Ġyou ng
re m
a ult
ĠC ity
ap s
Ġl im
C on
read y
Ġs ocial
Ġth ought
w it
it her
Ġof fer
Ġa way
che s
I C
Ġacc ess
ĠW ar
} )
ore d
ĠA f
Ġdid n
Ġp ract
Ġmod el
b ar
w h
ĠSe pt
ĠJ une
ow s
ĠW ith
il ar
Ġn et
Ġc ult
i od
Ġde v
is on
ust om
Ġcont rol
ra p
an ces
Ġle ast
A C
math cal
ĠJ uly
Ġh ref
Ġserv ice
re g
Ġm ethod
c ol
Ġe conom
ĠJan uary
Ġear ly
Ġcon n
c hed
Ġc lear
../ ../
Ġli k
ĠI m
ĠC al
Ġ vers
Ġwork ing
ĠF eb
} .
Ġm aking
Ġtr ue
Ġf inal
m b
Ġpartic ular
3 3
a ut
Ġm en
on es
Ġexper ience
u ed
ĠW ill
Ġcl aim
um m
d a
A r
u ff
Ġb as
Ġind ust
ar get
Ġac ross
p ect
Ġp ub
Ġsever al
Ġsh ort
com m
ove mber
ĠApr il
Ġinv ol
iv al
Ġbec ome
Ġinter n
Ġt ell
viron ment
Ġex ample
re w
ur ch
Ġunder stand
ĠP ar
Ġto day
Ġem ploy
ang u
ce mber
l er
our ces
ĠP art
Ġl arge
st r
il le
Ġc ame
ad d
Ġk ind
Ġg ive
u le
Ġab le
Ġrep resent
Ġt imes
ĠN orth
ol ution
Ġph ot
a per
4 5
Ġal ready
a pe
Ġstud ents
== ==
st er
ep end
Ġdevelop ment
Ġim pro
3 5
Ġinclud e
tr ans
Ġth ing
ak en
ĠH ar
Ġha ving
Ġ z
Ġth ough
ivid ual
s el
ĠM e
o ice
A l
Ġel se
con t
Ġa ut
err or
Ġo pt
3 1
er ed
Ġ ve
un g
Ġe ver
ra ft
i pp
I D
ag n
ph a
Ġ x
A nd
I S
ater ial
ĠB rit
at ors
it er
ĠOct ober
Ġan t
re et
Ġof ten
Ġcour se
Ġc over
Ġcharact er
Ġed uc
Ġapp lic
Ġf oc
Ġh old
t d
art ment
Ġf re
19 6
Ġto get
Ġtoget her
Ġspec ial
ce ption
s ource
Ġapp ear
) )
if t
Ġw r
id es
Ġto ok
Ġf uture
Ġprov ide
I f
s w
T o
8 0
Ġ* /
Ġvar i
Ġp ot
Ġam ong
l u
Ġtr ad
Ġc rit
m ost
am a
Ġt alk
al se
Ġs ong
Ġd i
ar i
ĠC ont
Ġme as
f ace
ĠA g
ĠSept ember
Wh at
Ġdisc uss
C l
ĠWh at
} (
Ġa ir
ĠNew s
ĠA ct
Ġc ertain
ĉĉ ĉ
h am
ab or
ĠAug ust
E D
u k
Ġs ide
ra g
Ġt em
P h
s ub
c il
Ġen ough
Ġin it
Ġj ob
he ad
un ity
C ont
Ġposs ible
ĠAr t
our nal
Ġstr ong
th is
Ġother s
og n
Ġc reat
Ġde ath
Ġob ject
ĠPres ident
Ġw on
b ook
ĠN ovember
ific ation
ad a
Ġre view
ail s
Ġse en
Ġme ans
ke y
am ent
on se
ĠB ar
Ġb en
g o
he l
Y ou
Ġk ill
} _
e y
ĠDe cember
ress ion
ear ch
ĠD av
Ġf ive
Ġl arg
} ^
ĠG l
200 9
n ew
ra in
Ġdesc rib
m od
le ase
op y
Ġserv ices
m essage
Ġind ividual
Ġto t
b r
ĠE m
ac es
R es
Ġresult s
c ing
Ġc ell
ĠF ran
port s
Ġke y
~ \
Ġde b
a ul
ĠO ne
Ġex c
Ġcon c
Ġsp ace
Ġsing le
d e
ain t
i que
Ġnew s
Ġen er
ar ing
Ġl ight
Ġre du
Ġh ig
Ġm om
n ers
( '
ĠW hen
U n
um e
s erv
op h
Ġhapp en
d ef
Ġmed ia
ĠD ep
Ġ- -
Ġpro b
' re
ĠĠĠĠĠĠĠĠ ĠĠĠĠĠĠĠĠĠĠĠ
pl es
Ġv ol
n ow
S h
ru ary
ie f
ing ton
ĠĠĠĠĠĠĠĠ Ġ
n ame
Ġar g
ĠAmeric a
Ġdoes n
3 2
0 1
s er
ĠR eg
Ġ| |
em pt
ĠCom p
Ġd oc
Ġt reat
Ġj o
Ġd one
Ġl ive
Ġsu re
ĠH ouse
Ġsu per
Ġper iod
id s
ĠHow ever
Ġto ld
Ġst ruct
Ġn ight
ĠW est
E C
Ġre ason
Ġd ue
Ġde al
Ġh ouse
ĠM r
Ġsign ific
ri ed
B ut
and s
Ġm akes
ĠR uss
est s
ĠC or
at ures
l in
o ff
Ġr ad
Ġacc ount
b um
ĠA m
a ction
ro du
Ġcomp let
au gh
U S
Ġm oney
is k
/ >
id th
Ġw ent
al pha
A M
an a
200 8
ess ion
Ġresp ect
ĠCount y
Ġrel ations
Ġp ort
Ġf oot
Ġmark et
Ġgener al
ĠS erv
ĠAf ric
Ġon ce
ond on
ys is
ĠAust ral
Ġest ab
th ough
Ġfor mer
Ġcom b
Ġst op
ain ing
o on
Ġf urther
Ġex ist
t ime
ĠQ u
Ġquest ion
Ġl ow
Ġab ove
oci ety
Ġpriv ate
ill s
her s
Ġro le
Ġwhe ther
Ġwor ks
c ode
olog ical
Ġs ound
9 0
row n
Ġt ax
Ġg en
7 0
N ew
H ow
N ame
s u
il t
ĠH is
if f
ĠP e
Ġatt ack
Ġn ational
ĠG o
Ġc ou
eng th
Ġe p
Ġs ite
u ation
Ġact ually
ist ic
Ġpre vious
op t
Ġadd ress
3 6
ib ility
Ġper cent
ib r
it ary
ict ion
um b
Ġt re
ag ue
ĠB y
ĠE l
Ġ= >
itt ed
ĠP er
Ġproble m
el ta
Ġann oun
ul es
Ġpolit ical
ĠA ir
Ġy et
oun cil
Ġass oci
Ġa ction
Ġb it
her n
Ġp ri
htt p
" .
ĠM y
Ġen c
Ġener gy
ĠS ec
cl ass
I d
f l
Ġd r
The re
cl us
il ities
Ġsim ilar
ĠN ot
Ġs ix
a pt
3 4
bs ite
in ks
ĠD is
ĠFeb ruary
Ġsa f
ĠG erm
am ed
y ear
Ġp ress
Ġle arn
al d
Ġth ird
ĠT ra
in o
Ġdet erm
Ġcomp et
ru ction
um n
Ġstart ed
Ġdo ing
Ġag o
angu age
ĠH er
g round
ĠC our
" />
ir m
im port
ur g
ĠS m
3 9
3 7
Ġcont ent
amb da
f ield
Ġm ass
Ġb o
h ib
H E
p re
ĠSt ud
Ġshow s
Ġg ames
Ġ ,
Ġt yp
Ġs ent
Ġb ody
L E
pl ic
Ġa ge
ĠD o
Ġd om
ĠB ro
ĠK ing
u ild
c ast
ĠL aw
e ed
\\ \\
n a
end s
Ġm ot
ĠC he
Ġplay ers
Ġbuild ing
g ress
an ies
Ġsignific ant
ĠIntern ational
Ġch all
Ġf ail
ĠP ark
Ġv ideo
Ġm aterial
Ġo pport
Ġc ustom
at ter
Ġpos ition
z e
.... ....
as ing
og le
3 8
St ring
Ġorig inal
a id
par am
ĠG od
Ġph ys
im ent
min ist
o e
Ġa ud
ĠThe se
Ġmonth s
Ġsu gg
un ch
Ġh alf
Ġc al
ad em
Ġbec ame
ĠL ondon
ep s
ic ro
a el
Ġse x
Ġvi ol
it te
Ġt itle
e al
oc ation
Ġe ither
Ġresp ons
Ġo pp
Ġt aken
T ype
Ġperform ance
ec ut
ĠA fter
re st
ud e
fer ences
ĠTr ump
Ġt arget
Ġcomm on
Ġf av
Ġoffic ial
Ġm or
am ma
Ġbelie ve
ĠCh ar
sel ves
lect ed
Ġf ood
) \
at ural
Ġm ind
ĠM ark
ĠM ich
Ġperson al
r or
Ġben ef
ĠCent er
ord er
Ġd ri
Ġlook ing
Ġm iss
Ġhe ld
. )
j oy
a ign
ĠS ch
le g
Ġright s
4 4
Ġb ring
Ġcre ate
Ġsub ject
9 9
Ġindust ry
Ġcom es
ĠA ng
Ġpoint s
ĠHe alth
s y
Ġd ou
Ġc oll
er a
ty pe
Ġinvest ig
200 7
L ist
iv il
cur ity
rou ps
ĠU K
Ġal most
Ġbe gin
A P
le ment
a ur
ru g
Ġr ather
ĠM on
ver age
ap an
Ġe y
at ory
Ġbl ack
ir t
se c
ĠS er
Ġal bum
B C
Ġbre ak
i et
Ġacc ording
re l
Ġs w
Ġt our
5 5
Ġvis it
Ġhtt p
Ġt ext
ĠD r
Ġm ember
ct or
O M
Ġen vironment
ret urn
Ġiss ues
oc r
res p
Ġf all
Ġwho le
se ction
it es
ch ie
Ġrequ ire
Ġro om
h ing
Ġt w
4 8
end er
Ġpro pos
w here
ur b
anc ial
Ġexp ect
es c
Ġtot al
Ġb i
Ġdif f
Ġp arent
ĠI I
d ate
$ \
ut es
p m
pec ially
Ġev ents
T r
Ġent ire
p i
l oad
ut ions
Ġs at
ĠD em
Ġf ace
ell ing
Ġcour t
ĠCol lege
u f
el t
Ġd est
Ġcomp ut
op s
E T
l im
idd le
htt ps
Ġw ind
Ġc irc
le te
Ġfoc us
ĠO b
h old
Ġ !
ic les
Ġab s
ri ption
Ġh ost
Ġag re
m u
ou d
Ġsh all
Ġo p
rib ution
ed eral
ig ma
O T
Ġvers ion
Ġb r
Ġeff ort
Ġget ting
id ed
y d
ens ion
= \
I ON
Ġcl ose
et t
Ġrece ived
i ew
ĠR ec
Ġpartic ip
_ \
Ġhe art
Ġr ange
Ġpres ident
Ġpre d
Ġrec ogn
al t
ener al
b or
it em
0 5
trans lation
f ord
ip le
' m
Ġh om
Ġpol icy
Ġb ad
Ġhow ever
Ġterm s
v ar
Ġcomp anies
ĠD on
ĠM ore
Ġc ut
Ġvar ious
Ġde g
ĠH igh
Ġt aking
Ġtechn ology
Ġiss ue
Ġto wn
A ll
att le
Ġbeh ind
V al
u el
Ġf alse
ag s
an ks
Ġs ym
Ġw atch
Ġneed s
in ter
Ġrec ent
200 6
h at
Ġintern ational
Ġg round
ra el
L L
Ġ _
ĠInd ia
op er
if orn
um ber
Ġimp act
ĠCour t
ĠJ ust
led ge
is es
Ġen joy
un ction
in ary
Ġgl obal
Ġind ic
tern al
ĠS an
Ġprovid ed
as c
um mer
Ġpart y
Ġwe bsite
ĠT V
Ġim m
Ġf ront
ĠDav id
v ision
ĠH ist
Ġany thing
Ġide a
Ġp o
ĠP at
c ial
Ġp ath
Ġl og
Ġ ill
ak er
ĠS en
Ġart icle
Ġint rodu
im al
Ġw a
i res
b ased
ac ed
ĠEng lish
Ġs ize
ir th
# #
A D
t ain
Ġlik ely
i j
i en
4 7
Ġsh are
ic ult
Ġh on
Ġplay ed
ip s
itte e
ce ed
ect or
ĠCh ina
Ġ\ \
ĠO ff
Ġlead ers
4 6
4 9
iforn ia
at ur
Ġne cess
pl ace
ĠV al
0 7
} ^{
Ġrelations hip
ĠPh il
Ġam ount
ĠAss oci
} _{
Ġ `
0 8
Ġbe gan
Ġn eg
Ġint eg
Ġprodu ction
ĠIn stit
av ing
ens ive
r ang
com ing
ig ure
Ġseem s
ĠDep artment
Ġac cept
se e
ĠG over
Ġpot ential
ĠF in
W hen
ĠBrit ish
o o
Ġcl os
W ith
IN G
b ol
Ġmat ter
al ign
n es
Ġsome one
or ks
Ġon line
Ġword s
Ġpr im
Ġfriend s
Ġcount ries
ĠN et
Ġb ar
orm al
] .
Ġare as
0 6
a e
- \
ach ing
ĠO f
Ġrele ased
mathb b
n ov
Ġnet work
Ġprof ess
ul ly
Ġup on
Ġche ck
Ġask ed
ĠI nt
Ġpol ice
Ġnot hing
ĠH ol
Ġsystem s
ig ital
o res
or ge
ĠWill iam
Ġs ection
oc al
Ġcom ing
Ġbel ow
Ġcare er
Ġex am
0 9
ra b
med i
ĠJ apan
um ents
U R
Ġcontin ue
I nd
Ġhim self
Ġst re
Ġb and
d om
se qu
ĠD es
19 5
Ġchang es
ac hed
Ġpub lished
' ve
Ġeduc ation
i ences
u ge
Ġp ers
Ġreport ed
Ġh ours
il i
S c
h ood
Ġgr ad
Ġa chie
es e
ĠD irect
Ġqu ite
Ġl ate
Ġes pecially
at ives
k y
Ġadd ition
Ġs ense
ash ington
f ort
Ġse curity
S e
v is
rid ge
Ġp age
Ġtry ing
Ġcamp aign
I m
Ġconc ern
Ġr isk
Ġrequ ired
Ġreg ard
Ġwant ed
y ing
ĠRep ublic
^ {\
C ol
Ġg roups
ar ter
Ġr ate
Ġ )
ograph y
ĠD ay
ĠA c
7 5
u x
ph i
Ġf ire
b f
Ġw alk
c ome
Ġprob ably
Ġmom ent
Ġwrit ten
Ġob serv
Ġinf lu
Ġan sw
Ġg irl
Ġc ases
Ġfe ature
Ġadd ed
Ġst ates
ov ed
g ing
ĠS w
Ġpre t
l ambda
use um
Ġs ource
i ber
et ic
c le
ĠTr ans
Ġf ight
es tern
ĠC ons
Ġevery thing
f ect
Ġd en
I s
o ke
Ġproper ty
Ġj ud
il es
iv ity
Ġits elf
Ġro ad
Ġv ot
p ly
ĠE ast
du c
ĠL a
Ġp ie
l og
ĠSt reet
re c
Ġqu ick
Ġme et
Ġtra ck
Ġar ch
Ġreg ion
ĠM or
Ġv ict
Ġcre ated
Ġhig her
ĠBl ack
Ġfor ward
ĠIn ter
Ġis n
I G
Ġfe atures
Ġatt empt
Ġtra ining
Ġre d
Ġl o
l a
r im
epend ent
ple ment
ar ies
Ġ {\
ĠC ouncil
itt ing
0 3
Ġpat ients
Ġev idence
Ġcom ment
ĠP al
O S
ot o
Ġimpro ve
Ġoff ice
Ġresp onse
en c
Ġc red
l ight
ĠB ook
at est
Ġt akes
Ġcont ract
Ġeng ine
0 2
iz ing
Ġin sp
ab les
Ġwh ite
Ġinclud ed
Ġdef in
ĠCal ifornia
0 4
n y
t ies
Ġ ...
Ġsugg est
Ġ id
h o
Ġdec ision
ren ch
Ġem b
r ance
O D
Ġdoc ument
Ġb ase
wo od
Ġtra vel
ag ement
Ġw oman
ĠD ist
am s
Ġhist or
ĠP aul
A t
Ġen s
Ġrele ase
Ġs us
ĠF rom
Ġthem selves
Ġcan not
Ġdiff icult
or ing
Ġl iving
"> <
h a
ac he
Ġanal ysis
ĠSt e
S o
Ġv ia
ĠR ed
ag er
Ġ= =
av a
ou l
Ġsa w
ar c
Ġf ather
osp ital
ric k
Ġmov ie
com p
ĠIs rael
200 5
om b
us es
Ġpop ular
l am
ĠG roup
ĠEurope an
ĠRes earch
g es
ad es
pp ed
av es
Ġout side
Ġc y
e es
Ġm er
ay er
ic ation
ar a
un t
Ġwrit ing
Ġb oard
ic a
at form
b it
Ġmanag ement
Ġappro ach
Ġd am
m it
Ġw ond
ĠA cc
] ,
Ġh or
Ġn ov
Ġl oss
Ġso ft
li er
rib ute
Ġbu ilt
om et
Ġl ost
Ġhtt ps
ri e
p ite
Ġinclud es
Ġcont act
Ġevery one
v ille
Ġspec ific
ro te
Ġl ink
Ġre fer
Ġch o
Ġqu ality
Ġwork ed
Ġte le
Ġp aper
ĠE ar
oun ter
Ġm other
Ġl ed
od es
ful ly
ĠJ ames
! !
Ġc ele
Ġmil itary
b ody
in clud
Ġproduct s
ĠF irst
? âĢĿ
Ġin j
an ced
Ġcor re
f o
Ġv oid
Ġexp ected
ĠR et
ĠS ystem
O L
ro id
ag ing
Ġd ate
Ġneed ed
Ġh ot
Ġl anguage
Ġs ens
Ġleg al
Ġst aff
Ġl ives
" )
sy ch
C C
Ġrel ig
Ġn ull
Ġde cl
ĠW ashington
Ġrec ently
ĠIn c
ĠN e
Ġcomp lex
20 00
Ġpop ulation
Ġconsider ed
Ġbook s
Ġim age
N o
à ¤
6 4
rou ght
Ġrequ est
Ġincre ase
ul ations
um er
Ġsh own
ord s
Ġcond itions
U T
Ġbro ad
ch an
im um
Ġbe aut
ĠRe view
he m
ĠCan ada
Ġinvol ved
air s
Ġp ack
ĠU p
il on
on ent
Ġplay ing
Ġ Ã
er o
Ġh it
Ġs old
Ġus er
ress ed
ac hes
Ġcon duct
ibr ary
Ġde ep
**** ****
is c
ic o
qu est
ĠInd ian
Ġc ross
Ġso on
com es
ail y
em s
Ġval ues
Ġgrow th
P l
Ġst ay
Ġset t
Ġse par
ix ed
ar row
Ġth reat
l ist
Ġa verage
c d
__ __
Ġp ain
all s
d own
O P
p ose
Ġ ess
Th at
Ġs on
ĠTe chn
m p
I M
ug ht
mathb f
Ġt al
Ġre ve
ra z
Ġrel ated
ĠInstit ute
Ġm ag
Ġpri or
Ġl ower
as ons
Ġbl ock
Ġb ound
land s
Ġpar am
al y
ag ed
ĠA nt
ve y
G et
L e
Ġwho se
av y
umm ary
B l
P ost
and id
w idth
Ġst yle
ĠS im
yn am
Ġn atural
Ġcurrent ly
Ġh ope
Ġw ays
ĠAustral ia
Ġst ri
Ġfin ancial
ar ray
Ġse arch
r ig
. [
Ġprovid es
c a
un k
ĠC ong
r ant
ang er
Ġd iv
ra ck
ĠĠĠĠ ĠĠ
ĠN ow
it ation
Ġst e
5 00
Ġquest ions
Ġinter view
ĠE v
Ġlead ing
il m
pp er
wit ter
ly ing
Ġe mer
m ission
ĠO ur
Ġca pt
N ot
h aps
6 5
li ke
4 2
Ġf em
Ġp ick
ist ry
ĠR ich
ĠR ober
Ġdis e
Ġcomp lete
Ġmod ern
ĠG eneral
Ġproble ms
Ġwas n
amp ions
e ks
Ġst ar
ĠP ost
n o
resp ond
ro om
t op
Ġw rote
Ġplay er
n ed
ĠB en
Ġinst ead
ĠCh urch
Ġsay ing
Ġc le
i us
m en
Ġcent ury
E L
-------- --------
b eta
b t
Ġsim ply
ul ated
ast ic
Ġannoun ced
Ġr ound
Ġass ist
en ing
E n
ri an
ic on
200 4
Ġre v
et ers
ĠP ress
' ll
ĠAr ch
Ġdescrib ed
w ith
Ġb orn
Ġeconom ic
id a
ar ning
ut il
Ġpret ty
Ġcom pl
b ox
Ġm ention
Ġf ile
em ents
ĠĠĠĠĠĠĠĠĠĠĠĠĠĠĠĠ ĠĠĠĠĠĠĠĠĠĠĠĠĠĠĠĠ
Ġtreat ment
qu ad
Ġme eting
Ġim plement
ag o
con st
Ġ( \
Ġcult ure
ĠWh ite
6 6
ĠMich ael
N D
ob ile
ĠJ ack
r ated
Ġto ol
ĠAn n
Ġve h
O ne
} {\
Ġd rug
cre t
e ch
D ata
Ġacc om
Ġrun ning
Ġn amed
ild e
Ġh op
Ġb irth
v est
Ġm atch
r ast
âĢĿ .
g l
ĠP ublic
ĠĠĠĠĠĠĠĠ ĠĠĠĠĠ
ĠTh om
Ġlong er
Ġt ou
d ata
Ġdirect or
Ġstand ard
ir it
ĠM od
ĠJ e
i qu
ĠG reen
m ing
9 5
O b
S S
ĠM usic
g a
Ġad minist
Ġmin utes
ill ed
ĠSc ience
a res
Ġsc ient
Ġde ad
ĠJ er
sc ript
ĠPro f
it iz
Ġst ep
Ġprot ect
w ide
m et
Ġa ward
Ġt able
Ġthrough out
ĠM art
ri x
Ġg ave
k i
n own
Ġst age
ĠJ ew
Ġp ict
s igma
Ġany one
ĠP ort
it ar
Ġbeh av
s um
g en
ĠS ome
ent al
Ġex act
Ġcl ub
Ġst ring
m ark
z on
Ġdem on
at al
Ġfoot ball
p x
Ġl iter
Ġst ories
Ġwr ong
ecut ive
ĠWh ile
Ġknow ledge
is ode
ĠY ear
he t
rid ay
in ated
Ġser ious
ĠO ut
ĠEng land
ĠO F
it ect
ĠF ound
Ġread ing
Ġfav or
ĠA re
us ing
M an
st on
m ore
I V
is ions
ĠD an
Ġs il
I L
A b
Ġb oy
ĠB er
o om
ĠM al
Ġb rand
^{ -
uf act
ĠH all
4 1
y ond
Ġsc ience
c ks
ĠV ol
ĠP M
augh ter
n b
D e
ĠY our
4 3
F rom
Ġsc reen
Ġsur pr
Ġpract ice
z z
id ents
Ġchall eng
im ately
Ġlevel s
c is
est ival
Ġfor ce
Ġinterest ing
Ġn ature
oy al
ĠAng el
Ġ â
C H
Ġassoci ated
Ġm ax
vent ion
ĠThe n
A A
ĠT HE
ber g
Ġcap ital
Ġch arg
Ġst ru
Ġeas y
Ġm id
Ġinst it
A d
I P
Ġreg ular
Ġdis play
Ġmeas ure
and er
b ig
m on
Ġp m
m itted
Ġcons ist
ur ation
ist ics
ĠF rench
ann el
Ġstruct ure
ĠB re
Ġdevelop ed
Re ferences
Ġdel iver
Ġc ivil
S p
ic ip
Ġm is
y a
n et
Ġopport unity
Ġrem ember
Ġsim ple
ĠAfric a
Ġspe ak
Ġt en
Ġle ave
Ġb rought
ace book
200 3
Ġgo es
il ies
Ġl inks
p ri
Ġim medi
Ġc ause
Ġd riv
Ġt ru
Ġwor th
ell ow
5 9
Ġcharact ers
Ġgo al
Ġmed ical
u ate
Ġmod els
p ed
math rm
M y
ĠE duc
s m
7 8
Ġc ode
Ġloc ated
Ġun ique
g amma
ĠAssoci ation
d o
Ġstud ies
ĠG reat
Ġl ack
Ġadd itional
ar ily
ult s
ĠDem ocr
ĠB usiness
A fter
Q u
Ġpr inc
li ed
ĠM us
ign ed
Ġra ce
Ġwe eks
Ġu nd
O C
Ġper fect
Ġd raw
Ġv ill
ist an
ĠA M
ur t
Ġn ation
Ġ ver
ub e
ol ic
Ġsur v
ĠPro gram
+ \
ĠD ef
ex as
Ġre comm
' )
l or
Ġd ire
ri a
Ġdet ails
Ġsu ff
Ġd er
val ue
Ġc andid
Ġl atest
Ġf air
Ġp an
Ġg e
w ise
i ation
l ocation
ĠS und
Ġeffect s
Val ue
Ġh um
A B
Ġt er
st ring
Ġto wards
ĠI N
* }
Ġs ort
Ġcont ext
Ġocc ur
I I
ĠD ec
ĠDe velop
ĠGe orge
Ġfre qu
Ġapplic ation
i ers
Ġac qu
Ġcont ribut
Ġro ck
Ġd ied
Ġm us
Ġget s
k ing
M od
Ġconn ect
ch ange
ĠS y
Ġf elt
ĠB oard
Ġcent er
ra ce
Ġstud ent
Ġle arning
b oard
Ġparent s
ell ig
al ed
ri ef
Ġmult iple
Ġestab lished
ri al
Ġtr ade
ĠP re
ĠLe ague
r ho
ĠÂ £
Ġr out
at us
Ġpl atform
p oint
Ġpart ners
E M
Ġw ife
Ġth row
ap ter
A pp
Ġhe ard
ed y
Ġne igh
st ate
ĠN ov
all ed
ines e
the ta
ĠRe ad
Ġcol or
v ant
d elta
Ġin side
Ġstat ement
] {
am ily
Ġan g
Ġwr ite
Ġpur ch
b and
ĠU s
ott om
Ġatt ention
ĠGo ogle
200 1
ĠS am
er c
^ \
Ġp le
ĠB el
Ġdesign ed
Ġb illion
mer cial
ĠComm ission
ĠL eg
er ve
r ame
for ce
Ġ %
Ġm essage
Ġschool s
Ġnecess ary
ĠT om
Ġkn ew
n s
ĠJ ournal
ĠL et
Ġd ark
Ġs ociety
ĠHist ory
E r
Ġcou ple
se y
Ġb all
ĠĠĠĠĠĠĠĠĠĠĠĠĠĠĠĠ ĠĠĠĠĠĠĠ
ĠSu per
7 7
it ude
ĠChrist ian
Ġcon v
I R
ĠComp any
ĠR oad
ĠM ag
atur day
Ġb ank
en ed
i i
200 2
ĠUS A
ĠCl ass
Ġcor respond
en ge
Ġcol lect
Ġest im
N A
S he
if ul
P R
ĠM at
Ġturn ed
Ġan im
Ġh ous
is f
ĠDirect or
Ġpr ice
ot a
Ġus ers
Ġbl ood
" );
it ch
ol f
ĠGover nment
I nt
r ate
ran ge
os ition
Ġhe ar
Ġhand s
p ath
hip s
Ġactiv ities
Ġab ility
Ġa im
Ġcon cept
t ained
Ġpart s
ĠR el
Ġbu y
Ġprogram s
os ing
ĠM em
ir ing
b ut
st e
m as
Ġcele br
ĠM ary
// //
V iew
Ġsp ect
Ġear lier
Ġproject s
A G
ĠG et
ĠF riday
Ġse qu
i ant
Ġc opy
Ġet c
Ġcal c
t au
8 8
ous ly
ĠServ ice
d is
ĠCong ress
Ġmov ed
Ġb ox
Ġpl ans
Ġm ach
Ġcol lection
Ġs en
fig ure
Ġc ast
k en
Ġdev ice
re y
Ġorig in
ĠS ub
==== ====
Ã ¡
Ġserv ed
ĠD el
EN T
ex p
r c
Ġar riv
Ġnov el
Ġs em
âĢĿ ,
Ġoff ers
Ġst ation
nb sp
ĠG old
ĠM ac
Ġspec ies
t est
" :
oc ks
ĠIn st
Ġg as
Ġback ground
ĠR ob
Ġincre asing
Ġres ources
und red
ĠI S
ow ers
x i
ĠM il
ĠB ill
Ġtem per
w in
i ance
ro y
Ġnear ly
Ġdec ided
il ed
Ġfil ms
Ġant i
ĠâĢ ¦
ĠOff ice
Ġpos itive
ĠS ing
Ġim ag
res h
ĠDist rict
Ġparticular ly
j ust
E O
Ġ ri
Ġsit uation
Ġsom et
iz ations
Ġ error
Ġg ives
Ġext ra
Ġpr int
ur ity
) }
Ġl ines
Ġpro gress
Ġf ast
ĠL ou
ib ly
ĠPart y
Com p
ed om
ĠK e
Ġf a
it ness
Ġdet ail
Ġresp ond
ĠB i
ber t
ĠT exas
ĠB r
Ġf ans
ĠM et
Ġme chan
5 8
] ;
Ġele ction
ĠF acebook
il s
Ġh ol
ĠSt ar
Ġbl og
ud d
an cy
ĠH ere
ĠS ur
O r
Ġwond er
Ġdisc over
ven ue
Ġe ight
out hern
Ġallow ed
Ġstre ng
Ġprofess ional
ĠQ ue
re me
Ġlarg est
ĠB est
g est
ĠS pec
Ġl ic
Ġdeg ree
b on
Ġdirect ly
ĠF rance
er ia
Ġbe yond
5 6
Ġaut om
ĠAd d
ent y
Ġopt ions
ĠA lex
Ġprodu ced
Ġv oice
Ġlim ited
iver se
Ġcell s
Ġfam ilies
l ink
s ize
id ing
Ġpre p
Ġphys ical
ec ause
m ar
Ġv ote
A meric
Ġteam s
ĠComm ittee
Ġl ength
ish ing
ĠS ociety
Ġg un
Ġinit ial
Ġey es
Ġreport s
Ġal though
ul a
Ġorgan ization
ĠPe ople
Ġfore ign
ĠW ed
ig ation
Ġth ous
ĠCar ol
Ġsol ution
B e
Ġbro ther
E d
Ġch ance
Ġf ederal
Ġstat ic
Ġ/ **
S P
T R
l o
ĠSund ay
he st
ad o
enc ies
le q
Ġj ournal
Ġn ames
w ell
Ġmean ing
Ġass ess
Ġman ufact
Ġrece ive
ĠA ward
Ġem ail
}$ ,
U N
Ġqu ant
ĠF ore
Ġst ra
Ġm ur
Ġp ark
Ġs n
Ġg iving
Ġdiffer ence
Ġfin ally
ĠO ver
Ġincre ased
Ġr ules
Ġprom ot
ĠH ill
t able
Ġ Ð
Ġcomp ared
ĠEduc ation
os h
( $
ĠSm ith
t imes
l ang
P ar
Ex ception
5 7
Ġus ually
Ġstat us
ĠR iver
ĠT imes
ĠA tt
Ġc ook
qu are
Ġestab lish
ind ex
Ġnot e
Ġnum bers
Ġcond ition
ĠFl or
Ġsur face
ĠV ir
Ġmove ment
Ġsp ent
S u
ĠH am
p ing
Ġbegin ning
Ġav oid
Ġp lease
ond ay
ron ic
p ublic
ru pt
Ġsuccess ful
h ouse
Ġb ill
ĠM iss
e ared
Ġdef ined
od ay
Ġqu al
Ġens ure
Ġlook s
\\\\ \\\\
ify ing
Ġa w
ed ia
Ġus es
Ġthe ory
ran ch
Ġn ormal
$ -
Ġp ull
Ġdise ase
Ġcontin u
ĠL ife
el ine
g or
Ġfollow ed
Ġeff ic
Ġeffect ive
Ġd igital
and om
Ġse ven
on ents
ult ure
S C
Ġcl imate
Ġex hib
Ġsh oot
ĠServ ices
f ile
ĠO ther
ĠI ran
Ġbas is
) );
ĠCh inese
Re ad
ateg ory
Ġsh ot
} (\
Ġsc ene
ed s
Ġb al
ĠM useum
Ġm agn
m iss
ĠD iv
b re
Ġactiv ity
Ġm ap
es ter
Ġkill ed
un c
eq ref
Ġenc ou
Ġcon vers
Ġre pl
ĠĠĠĠ Ċ
Ġd at
i os
Ġs ummer
ĠRober t
Ġtr ust
Ġsaf ety
Ġcontin ued
ĠM ex
ĠS al
Ġon es
f rom
}$ .
Ġdist ribution
ur ance
ĠJ ul
Ġpre vent
f in
Ġp en
Ġhappen ed
O ver
ort hern
A dd
ac ity
Ġc am
Ġdemon str
Ġmor ning
Ġchang ed
iz es
a it
Ġ ult
Ġ& &
Ġind ependent
Ġsl ow
Cl ass
The y
ul ate
Ġlead er
Ġin nov
ĠS ol
se mb
Ġth us
Ġte ac
ĠS aturday
n u
Ġp oor
Ġb ur
ĠâĢ ¢
Ġcent ral
Ġev al
ĠW ork
ĠB ank
Ġsc he
ĠGerm any
ĠGerm an
Ġcost s
ud get
Ġrem ain
r d
az ine
6 8
at ively
Ġpl aces
Ġ err
Ġdem and
Ġop in
i pl
Ġwant s
I A
Ġc itiz
ĠSc ott
Ġquick ly
ic ks
ĠCh ild
S E
ĠC amp
ĠUn ion
Ġpropos ed
âĢ ĺ
Ġsomet imes
por ary
Ġsoft ware
Ġpred ict
ĠM ad
Ġpre m
is ation
ĠRuss ia
Ġch oice
Ġact ive
sp ace
Ġal tern
k a
urs day
un ities
L et
S et
per ty
ak ers
Ġloc ation
part ial
ĠU nder
Ġpl ant
Ġo il
ĠB ig
Ġass um
ac c
Ġgrow ing
ĠSt ring
Ġse cret
ft y
ĠT ime
ar r
ĠPl an
Ġcomplet ely
and a
Ġmethod s
Ġk ids
ĠDevelop ment
ĠIs land
Ġhigh ly
ĠOb ama
Ġcorre ct
Ġd ro
ĠB ay
Ġtrans fer
m m
Ġch urch
ĠM o
qu ot
Ġor g
Ġpresent ed
Ob ject
Ġcom ments
Ġse c
Ġin put
Ġf irm
Ġw ild
Ġsong s
Ġrem ains
Ġ ?
Ġlook ed
ĠMin ister
o es
ĠW ell
Ġconst ant
Ġele ments
Ġansw er
g r
en a
erv ed
Ġh uge
con s
Ġs y
Ġc ard
ĠSe e
ĠC ap
ĠRep ort
ĠG r
' d
om a
Ġpie ce
h an
ĠAfric an
ĠCl ub
Ġg ra
Ġtyp es
Ġgr and
ĠS T
Ġh undred
Ġd ed
ur l
c her
Ġgover n
Ġfollow s
Ġin form
Ġtrans port
k nown
Ġappro x
Ġconst ruction
Ġw ide
Ġcan cer
ĠPro ject
Ġthink ing
at re
Ġn orth
a ctions
Ġcl in
Ġqu arter
r t
Ġtrad itional
Ġstart ing
Ġag ree
Ġachie ve
M ore
Ġm iddle
Ġd ram
ic ine
Ġsc en
Ġpur pose
ĠR ock
ic ago
Ġdri ve
s q
6 7
ues day
f unction
ĠG ood
ĠMan agement
n av
Ġprim ary
Ġele ment
Ġcar ry
ĠMed ia
Ġcoll abor
ef ore
ree k
Ġre ach
Ġapp oint
ĠS ocial
ens ity
K ey
Ġst ream
Ġunderstand ing
Ġeffort s
Ġsat isf
O ur
Ġappro pri
Ġo ption
ĠFound ation
ĠÂ »
Ġf arm
Ġconst it
Ġs ales
Ġl ay
Ġcomput er
Ġm ount
Ġindividual s
eg a
ant ic
O W
ĠM ost
Ġexp and
Ġass ert
o ch
col or
ĠThom as
ro s
D on
ann ed
3 00
ra ge
ad ian
ĠS un
Ġal one
ĠS l
Ġstru gg
w orks
ĠB rown
( ).
Ġcons um
w ord
Ġb us
Ġa ware
Ġthere fore
Ġt im
Ġpro p
Ġun it
Ġr at
ill er
9 8
Ġcor por
ĠAc adem
Ġor d
Ġgr ant
Ġmov ing
Ġlim it
st ance
Ġpass ed
Ġem ot
Ġwe b
ĠPol icy
ed d
gor ith
Ġcommun ities
Ġim ages
Ġlet ter
a ud
Ġph one
Ġwork ers
Ġ eth
F L
Ġp sych
P S
ĠSec ret
ab led
pos ition
Ġtr uth
it z
it able
olog ies
ab y
we et
ĠFran cis
Ġleg is
Ġm icro
Ġent er
C T
ĠFlor ida
ĠF e
ĠĠ Ċ
Ġf ully
Ġf ear
t ilde
p ack
ĠT op
v an
ĠW omen
F F
in i
ĠR ad
C E
5 2
Ġcol lege
Ġv s
ĠIs lam
ĠP eter
Ġnum er
ĠT ur
ound s
Ġg raph
ruct ure
ĠCent ral
Ġart ist
T ime
Ġp aid
ic ations
Ġallow s
Ġgreat er
Ġs outh
O f
ĠL ist
Ġinst ance
' '
or age
u nder
Ġprovid ing
Ġ! =
ok en
al ing
Ġsu st
Ġreg ister
" ;
nes day
199 9
ĠE ven
in n
Ġclaim s
Ġoper ations
l is
M S
in fty
U p
Ġtou ch
s k
ĠU N
Ġro b
Ġn uc
B A
Ġpe ace
Ġfor ces
z a
Ġdou ble
Ġexact ly
9 7
Ġd im
Ġeconom y
| \
Ġcrit ical
clus ion
ĠJ ud
Ġob vious
Ġre pe
j s
Ġup d
Ġdire ction
Ġr ule
ĠS k
act ive
ĠSer ies
Ġvict im
Ġ ir
Ġtalk ing
Ġun c
A cc
ĠRich ard
Ġsp irit
ul f
A Y
ffic ient
in ate
5 1
Ġanal y
ĠW il
Ġre b
ĠL os
Ġg old
ĠM onday
ĠM er
Ġper haps
ĠH ome
Ġann ual
ĠO pen
Post ed
ĠT or
ĠE conom
"> </
d t
ĠAir port
Ġche m
ĠH uman
b our
Ġw el
Ġwe ight
ter m
ĠI r
Ġep isode
Ġd ream
f ra
Ġpol ic
ĠRuss ian
ĠK ore
d en
M e
Ġbeaut iful
lic k
Ġcle an
ant a
ĠEar th
ill ing
im b
ĠPl ay
g u
B S
ĠH el
w rit
s im
c ell
. </
Ġs al
Ġread y
l t
ew ork
Ġaff ect
ess or
in y
Ġhapp y
Ġ ign
Ġide as
Ġlarg er
or ter
Ġsus p
Ġm ix
wit ch
Ġ er
ĠA P
us ion
old s
ver se
ĠSt at
Ġstr ateg
pr int
ĠN or
Ġcom mercial
Ġfe ed
5 4
Ð °
Ġs le
Ġart ists
ĠAngel es
5 3
Ġcomp ar
g roup
Ġperform ed
ĠW estern
S ee
Ġshow ed
ri age
ĠG rand
Ġofficial s
Ġarch itect
Ġro ll
Ġas pect
Ġl oad
ĠE very
d f
ĠW ind
Ġcustom ers
ĠT witter
ĠS ince
Ġm ission
wh ich
h and
T est
Ġcertain ly
an o
Ġst ore
ic ated
Ġex cept
Ġprevious ly
F orm
Ġinit i
Ġrad io
Ġb order
Ġj our
eq n
D elta
oc ol
Ġd ynam
Ġd og
Ġpat tern
Ġv irt
ĠC up
Ġcont roll
anc ing
ig ration
as y
Ġagre ement
Ġtele vision
ĉĉĉĉ ĉ
Ġover all
Ġspe ed
ĠC are
sp ect
Ġf igure
S ub
In ter
y er
Ġsex ual
os is
Ġopen ing
Ġpress ure
Ġchar ge
........ ........
le vel
Ġhelp ed
ĠTh ursday
Ġbe comes
ĠFran k
Ġsc ale
! --
st ant
ĠD et
T S
Ġar rest
Ġbe g
ĠVir gin
ĠD ata
Ġopen ed
Ġh ospital
ĠT re
Ð ¾
y an
Ġg reen
Ġdo or
ĠT own
ĠR em
Ġdes pite
or ial
Ġan c
Ġtri ed
Ġl if
Ġd aughter
Ġacc ur
i as
Ġf ine
p an
p ace
ellig ence
in ct
Ġfem ale
ĠB ur
ĠWe b
ĠC ath
Ġmil es
Ġac adem
Ġs ources
it ors
ĠWe ek
Ġs ell
m at
ĠT our
S erv
Ġrespons ible
c el
ro ad
Ġappear s
Ġset ting
Ġmajor ity
Er ror
Ġ$ (
Ġval id
Ġpart ies
p ret
Ġad opt
Ġmy self
Ġmult i
Ġimmedi ately
9 6
Ġw at
ash ion
ome ga
Ġrecord s
Ġreal ity
Ġt error
() );
ĠJ ose
ĠTechn ology
ĠM el
Ġmay be
Ġinvest ment
Ġaud ience
c m
s l
Ġr ank
ĠH ot
ĠM ont
et te
Ġst uff
Ġn om
[ '
Wh ile
Ġdep end
Ġoper ation
ĠM ount
Ġvari ety
Ġc ru
Americ an
Ġre asons
Ġ// /
le m
Ġabs ol
Ġconn ection
ch ol
. _
li ament
Ġm ess
Ġcould n
ĠRe v
erv ation
Ġexist ing
Ġreturn ed
st yle
ra q
ĠCh ampions
al a
ĠJ o
Ġdis app
Â ł
ĠT uesday
199 0
ĠCh icago
ars h
ĠL and
ri ve
Ġext rem
ate gy
pl it
Ġapp ly
lic t
D ef
Ġh ar
ĠA rab
Ġpower ful
A tt
Ġpres ence
ĠIn formation
Ġexp ress
Ġwe ap
ĠE nd
Ġeas ily
il ing
Ġsur round
Ġapp eared
Ġd anger
ĠF ilm
Ġpart ner
Ġinterest ed
m ail
Ġtri al
Ġexper iment
Ġr ates
ĠAr my
F ile
ĠC D
Ġmur der
P re
Ġpr ison
Ġfl ow
Ġmem ory
ĠWh y
ĠV ict
Ġjo ined
ac ing
Ġs ports
Ġlaw s
ent ially
Ġpro ced
ĠAr ts
Ġtra in
Ġfe et
Ġcr im
ĠComm unity
Ġcont ain
T H
Ġp ric
Ġsit es
Ġp p
Ġf ig
Ġconf ig
g n
ĠL u
Ġg one
Ġd oll
ĠC ur
ĠSh ow
C A
ĠLou is
Ġwrit er
Ġelect ric
Ġp oll
ĠF re
Ġsh op
stand ing
N ow
) (
ĠO ffic
St ate
Ġa part
Ġtrans form
em pl
ar io
Ġind ex
Ġh y
Tr ans
Ġproper ties
n ect
E E
Ġstra ight
Ġrelig ious
Ġemploy ees
Ġviol ence
ate ver
it ely
ĠM ur
Ġc ool
199 8
Ġsk ills
ĠM ass
Ġre ference
C L
R ec
Ġbenef its
Ġclear ly
ĠI D
Ġob tained
Ġdist rict
ore m
Ġsh ared
Ġconst ruct
ff ect
âĢ ¢
Ġm ill
ol it
ĠH en
} }\
Ġinflu ence
Ġser ve
=" +
b orn
Ġh arm
ĠJ im
u it
ing er
Ġla unch
in ner
ip ment
o very
Ġto ward
Ġsign ed
Ġstr ategy
ris is
P A
ĠO h
Ġchall enge
Ġam az
os ure
Ġhig hest
Ġgener ally
R ep
ef ul
Ġgu y
Ġl ab
Ġc ounter
Ġfund ing
Ġa ctions
Ġsol id
ĠP et
Ġcomplet ed
Ġsaf e
ĠWed nesday
Ġf ram
ĠMart in
h i
ĠS il
at in
Ġcl osed
us er
Ġcontin ues
Ġinc ome
cd ot
ĠP ub
c are
} ;
ut y
u ated
ĠEng ine
idd en
Ġla un
Ġfun ctions
Ġ> >
Ġc at
s ummary
Ã ³
b an
Wh y
Ġcult ural
rib e
og ue
ĠL ove
Ġadminist ration
el ess
I F
ad y
Ġact ual
ap ers
il er
ĠT wo
row d
Ġb attle
n on
ĠT im
Ġt ick
b urg
p ost
M A
Ġs end
ĠSec urity
Ġplan ning
Ġcont ains
ag ram
Ġs ector
Ġprodu ce
n el
Ġs un
Ġwh om
ol k
Ġfor ms
Ġear th
ĠE p
Ġco ach
ĠR oyal
\ ,
Ġbenef it
ĠGl obal
E vent
t ab
ol a
Ġbehav ior
R A
Ġ( $
ĠSt ep
Ġcall s
ĠF estival
Ġcreat ing
Ġm aster
Ġsa ve
ĠF und
ĠAustral ian
er ation
D A
Ġopport unities
7 6
semb ly
$ $
ust er
Ġout put
az z
Ġh us
Ġse lected
ĠCent re
Ġother wise
p at
Ã Ń
so ft
pp ing
ĠA ut
Ġc ry
Ġref lect
Ġc op
ĠC O
ĠB o
Ġse lect
C an
Ġb rain
Ġre ached
Ġorgan izations
Ġjo in
ad er
Ġcon ference
Ġcomm it
Ġa head
in em
ĠT est
Ġme ant
Ġf an
Ð µ
Ġad vert
ig an
Ġs am
as ion
Ġsol utions
Ġwould n
g rad
r um
Ġbig gest
Ġra ised
Ġfail ed
ly mp
Ġca used
Ġke pt
' );
or ney
Ġexp ression
Ġown ers
g ment
ste in
ym bol
ot ic
Ġgener ation
M L
Ġapplic ations
ard en
ĠAmeric ans
t es
ner gy
est ic
Ġmin or
Ġph il
ĠW ood
Ġsp read
riv ate
Ġknow s
re land
ĠO per
ĠR ights
it a
ĠL ong
ĠR oman
ĠAt l
uth ors
Ġexc ell
Ġcred it
} [
ma zon
Ġfl u
ĠI raq
rap y
=" ../../
Ġh our
Ġcomm and
Ġm obile
Ġm ale
Ġc atch
Ġp et
Ġmaterial s
r ite
ĠP ower
ĠChrist mas
Ġsp ot
Ġadv ant
Ġill ust
Ġoffer ed
st ream
Ġ- ->
Ġar ray
Ġb rief
Ġr andom
Ġfa ith
' ]
Ġcho ose
Ġra re
F irst
O ut
Ġfact ors
f oot
R eg
Ġintrodu ced
Ġbas ic
ĠF amily
or row
ce an
S A
n ight
Ġcons ult
Ġes c
Ġsen ior
Ġview s
J ohn
Ex ternal
om s
Ġocc up
Ġexper t
Ġcompet ition
d oc
Ġt it
h ost
ĠMus lim
Ġad apt
Ġpict ure
ist ance
Ġd aily
Ġinst r
Ġdist ance
Ġinst all
os en
Ġb udget
T ext
ĠF orm
Ġch ief
ĠE U
Ġleaders hip
le ctions
ĠLe e
Ġw ood
Ġdef ault
an ish
ĠAl so
)$ .
ri er
er ry
ĠM icro
Ġcitiz ens
6 9
t itle
al le
ĠG en
Ġcrit ic
ĠCarol ina
ĠWh o
ĠPar is
P e
Ġd u
ul ed
ĠJ es
D o
ĠD en
Ġmention ed
ĠE r
ma x
Ġveh icle
b i
( ),
h ab
am ing
8 5
ĠGe org
Ġregard ing
ab ase
Ġp ush
4 00
b o
Ġrun s
Ġsupport ed
ĠP ri
Ġw arm
or por
A ct
ĠP R
x y
Ġpro te
Ġra p
Ġt ask
Ġsl ight
ĠJohn son
Ġ ut
ĠCan adian
Ġent ry
Ġm ut
Ġfam ous
Ġsh ip
P art
A ss
u a
Ġredu ce
Ġbl ue
Ġnot ed
Ġjob s
Ġ/ >
av en
Ġph ase
U L
Ġset s
Ġed itor
Ġnot ice
p ress
are n
Ġl abel
ing ly
Ġrest aur
Ġdist ribut
Ġsc ore
ĠB u
Ġpat ient
ĠF ree
Ġevent ually
Ġst ock
ĠL ord
Ġhe ro
ĠG ame
Ġpre c
Ġfield s
ĠS ection
b ur
ĠC am
Ġcol umn
al ian
Ġmanag er
Ġbusiness es
6 1
ell a
eps ilon
an i
l ife
l ength
Ġp ages
Ġrele vant
ig en
Ġsm art
en ced
Ġen h
D F
b ed
ĠCh ief
Ġstreng th
cont ent
Ġgo als
M ar
Ġappropri ate
' :
Ġdiscuss ion
ic ians
Ġc ities
Ġdeterm ined
em porary
ĠD u
Ġatt end
Ġcr ime
z er
or ation
ĠMex ico
8 7
Ġmar ried
E qu
Ġopin ion
ĠW ater
Ġw id
ĠComm un
Ġseem ed
ps i
B ig
ĠS pe
ĠL ake
S er
! âĢĿ
Ġrecomm end
199 7
Ġpl ays
Ġf it
Ġinvestig ation
c it
Ġsee ing
ric s
ĠO ld
ĠTe am
ab ilities
rie ved
ĠC EO
Ġatt ract
ĠIntern et
ĠN Y
Ġfact or
row s
Ġli ber
Ġinter nal
Ġf ra
m ega
ĠThe ir
Ġfre edom
ĠI ll
v a
Ġ Î
Ġpolit ics
Ġare n
ĠMc C
Ġse a
Ġoffic er
Ġlearn ed
H ome
ĠAs ia
Ġfeel ing
ĠJapan ese
ĠJ un
199 6
198 0
Ð ¸
od ies
ĠR E
Ġfavor ite
g ar
Ġtal ent
Ġn ice
ag on
ur ies
Ġsom ew
ĠPol it
6 3
Ġent ertain
Ġrecord ed
Ġdeb ut
ĠHe ad
ateg ories
ĠEn ter
Ġpolic ies
Ġst ated
Ġcap acity
stit ution
ĠAb out
k ins
ĠAcadem y
os oph
Ġw ish
ĠSpec ial
Ġrespect ively
D E
th at
Ġchalleng es
} _{\
Ġneigh bor
Ġequ al
if ically
ens ions
M ay
ĠMed ical
os es
all ery
Ġprot ection
Ġr ise
un te
Ġhus band
Ġend ed
Ġm arg
ay lor
ĠL ibrary
Ġdam age
F ield
ĠB oy
ĠE lect
ĠI reland
ĠM a
Ġcon cent
ĠChar les
r ide
ĠAcc ording
rel ated
Ġey e
go ing
ot ed
Ġc ert
Ġyour self
ĠD i
Ġdev ices
ĠC r
Ġt rou
E W
ĠC A
ĠIn vest
th let
Ġit ems
ch i
Ġpl aced
Ġw all
Ġrest rict
ult ural
ĠS and
Ġwa it
P s
Ġtemper ature
Ġobserv ed
G e
Ġc ore
L ast
i h
ask et
ĠDiv ision
p ower
Ġrequire ments
Ġf resh
G o
Ġstand ards
ans ion
Ġenvironment al
H ere
ĠP an
Ġth r
c os
Ġf ant
Ġapp arent
Ġdec ades
ĠCh ris
Ġm ist
Ġl ov
Ġb ed
Ġthous ands
Ġal gorith
Ã ¼
ĠB et
Ġvill age
Ġar m
Ġhe avy
irc raft
Ġst reet
Ġapp lied
Ġshow ing
6 2
Ġpro ceed
Ġbe at
Ġold er
m ap
ĠJust ice
pos es
Ġdeterm ine
Ġident ified
as ure
Ġrequ ires
ar ant
7 2
ĠVal ley
Ġfl oor
Ġexper ien
uild ing
wh ile
ĠAl though
8 9
Ġn or
` `
Ġ čĊ
oth ing
clus ive
Ġspe ech
ĠG al
Ġst ars
Ġbe coming
ĠA wards
P ath
Ġco ord
im ents
i ate
ear s
ok es
c an
con fig
ĠNet work
ĠA ff
Ġpers pect
ps ilon
ing u
Ġdef ense
ĠÂ ·
ĠVirgin ia
Ġcon sequ
Ġal le
ĠD uring
int on
ĠL ab
D T
l ig
st ra
ĠSen ate
ER S
Ġle aving
Ġs av
eqn array
Ġtri p
ole c
Ġtre nd
g ency
Ġtool s
t ra
ĠYou ng
ĠM ot
Ġcl ient
d raw
Ġphot o
Ġtru ly
Ġc ars
ĠJe ff
ĠJ ones
ole an
ĠH aw
ang ing
iqu es
Ġex erc
ĠM ike
ĠM en
ĠV is
du ction
Ġident ity
ĠM any
ĠSe cond
Ġtrans l
Ġvis ual
Ġparam eters
Ġgu ess
l ook
Ġmost ly
Ġmach ine
ĠJew ish
r un
Ġfor ced
ĠC y
Ġt ro
Ġsust ain
esc ription
on ic
G B
Ġrese arc
Ġw ww
s pec
Ġdevelop ing
Com m
ĠB ob
Ġl ived
raph ics
rou d
Ġfund s
w est
f it
hen s
ĠDes ign
Ġart icles
Ġs chol
ĠCor por
ĠF ederal
% )
am in
Ġres idents
ĠPro t
ph one
199 5
Ġhistor ical
ock ed
app ing
E X
C O
em y
ac ific
? "
ĠO lymp
ĠW ay
Ġpre fer
sq rt
Ġob tain
it che
urb an
Ġdou bt
Ġun its
h ow
ill a
Ġfour th
Ġag ency
Ġgu ys
ind ing
as tern
om in
ĠA ND
ĠC ast
Ġp air
g al
c ore
Ġtell s
Ġf ell
P er
ĠM ov
7 9
ĠD ou
ost on
S ome
Ġs ect
. âĢĻ
ĠCath olic
Ġn one
yd ro
n ext
Ġnuc lear
ain e
tr ue
Ġsepar ate
Ġf if
es h
ĠJ on
Re quest
ag ged
p age
ĠKing dom
L C
Ġc rowd
u i
Ġfin ished
cent er
ĠM iddle
p arent
Ġcom fort
Ġequ ipment
Serv ice
Ġar rang
Ġl abor
AT ION
ak istan
ru it
Ġapp eal
v are
Ab out
ĠW all
Ar t
ĠDe v
Ġdest roy
Ġra il
ĠB ack
Ġh yp
s hip
Ġwind ow
Ind ex
Ġconn ected
Ġon to
)$ ,
Ġr ich
B ar
rast ructure
Ġsmall er
ink ing
Ġst eps
Ġex ecutive
U M
U s
Ġdriv ing
g ers
f e
Ġed ge
G amma
or ia
ac hel
Ġp un
pt y
Ġarg ument
ren ce
g t
C he
vers ion
Ġv ision
Ġb ottom
ĠH or
Ġre place
ĠOr gan
Ġdef e
Ġjust ice
at ically
ĠCon ference
ĠApp le
m d
ĠF ort
ĠG ames
cl aim
Ġp aint
i ency
Ġmeas ures
Ġiss ued
cl es
ide os
The se
Ġus eful
n ames
^ *
Ġt end
Ġup date
ĠS ports
os c
ind er
Ġwin ning
Ġcommun ication
ĠS ar
M r
Ġfind ing
gy pt
Ġlaun ched
ers ion
ian a
ĠSc ot
f riend
ĠA mazon
Ġco ast
Ġv ir
ap i
Ġwatch ing
Ġher self
7 1
b ase
Ġform ed
v oid
Ġl in
B I
ir med
EC T
Ġhold s
C R
ca ption
Ġt ree
ĠD own
od d
Ġapp rec
og en
Ġanim als
/ *
ĠI d
anc er
ĠP enn
ĠA uthor
Ġa p
Ġmiss ing
c ase
n ode
Ġmark eting
it age
Ġamaz ing
Ġdep artment
/ **
Ġsym bol
sec ut
C o
Ġwe ak
ĠPol ice
199 4
Ġyou th
ĠSecret ary
Ġw itness
j o
Ġgirl s
Ġun ivers
re al
ĠSt and
H S
ĠS up
ĠT ri
Ġn ode
F A
ĠIt s
Ġj oint
opy right
st ances
ĠFor ce
Ġjour ney
P E
Ġreve aled
pro t
ĠWilliam s
Ġinter pret
ens es
Ġpro of
O mega
Ġown er
ĠS et
Ġoper ating
b m
Ġcrim inal
om y
C D
C S
uck y
sub section
Ġvol ume
D is
Ġmus ical
Ġmanag ed
Ġ );
ic it
ath an
ĠJ oe
Ġcar ried
ĠAn y
n am
ĠE nergy
a o
ar ks
ĠAd minist
Ġde cre
ĠL ike
Ġneg ative
Ġn av
Ġcirc um
P r
8 6
ĠL iber
T V
in put
Ġident ify
i very
on a
Ġs umm
Ġd ra
ra cy
ak s
ic ian
n or
y th
Ġcon clud
O U
id el
ĠPro v
T able
197 0
ism s
Ġbel ong
Ġcl oud
ĠAnd rew
Ġauthor ity
ic ed
******** ********
Ġdi agn
Ġbuild ings
yn c
Ġmov ies
Ġlead s
Ġfoc used
7 4
P L
] [
Ġres ource
Ġl oved
Ġwh atever
Ġhe ight
ĠBrit ain
Ġr an
Ġthan ks
ĠB ecause
art s
ĠL ast
Ġs ale
ograph ic
Con fig
un ately
Ġch annel
ph as
Ġse lection
Ġ ice
il ter
Ġhapp ens
Ġprot ected
i at
bl ock
+ +
ĠChar l
Ġweek end
ar l
ref ore
ĠStud ies
Ġk id
ĠZ eal
Ġattack s
Ġpost ed
pt ions
air man
In fo
ell er
Ġl it
Ġhe aring
b ra
Ġsupp ly
G u
Ġthan k
AT E
= '
R et
Ã ¶
text bf
ly wood
F l
ol ved
ut s
Ġpract ices
Ġfore st
Ġinc red
Ġun less
Ġsign al
Ġim pl
Ġcover ed
Ġoffic ers
S ource
9 3
in fo
T e
ĠN ight
l ong
Ġm ental
Ġf ix
Ġtechn ical
Ġn ine
Ġgu itar
Ġtra ffic
Ġdef end
raz il
Ġb ul
Ġb an
Ġc risis
o z
Ġcl ick
Ġsp end
Ġsupp osed
ch ild
ens us
r as
Ġexper iences
b a
N S
Ġopt im
N ext
ĠF ire
Ġ vert
Ġinterest s
o oth
Ġp il
Ġprocess es
Ġf uel
ell ed
ĠZeal and
ĠP op
ĠH ospital
ot es
u an
Ġnot es
ĠProf essor
ĠInd ust
Ġ$ {\
ili ar
ar p
| |
Ġagre ed
Ġdefin itely
l ies
um s
ĠW rit
ĠK en
Ġre form
7 3
Ġex ception
Ġpur poses
M ap
ot al
~ ~
Ġb urn
ĠG ra
vare psilon
() )
ĠV er
e ah
15 0
Ġextrem ely
Ġra ise
Ġsh ape
ĠIt aly
Ġdec isions
Ġpan el
oss ible
ĠSp ace
ult y
Ġs ession
N ode
z en
ĠB as
pro of
ĠBl ue
ab eth
Ġimport ance
id ers
ĠL im
Ġcent re
Ġlist en
Ġhelp ing
H and
Ġcandid ate
9 4
sc ape
ad ing
Ġs ample
n ab
or ters
g ent
ĠF ox
T op
Ġcomm itted
Ġfac ilities
Ġlist ed
Ġm ode
Ġb ra
ĠE ll
Ġd ie
du le
ĠW in
Ñ Ĥ
Ġdown load
Ġd ial
ĠFrancis co
Ġs rc
ð Ł
Ġaltern ative
Ġtest ing
ĠC oll
Ġmar riage
Ġdoc uments
Ġfail ure
Ġscient ific
Ġcall ing
ĠF ood
Ġa ircraft
Ġoffer ing
ĠT oday
or a
ul s
Ġadvant age
if orm
y les
Ġconcern s
Ġclin ical
right arrow
Ġnumer ous
Ġsur vey
Ġcam era
Cont ext
Ġstart s
Im age
F C
S ize
w ar
Ġha ven
D S
ĠM ax
in ating
Ġexpl ain
is ters
riv acy
Ġpro ve
Ġmax imum
J ust
Ġf ixed
l aw
Ġadv ice
Ġclass es
199 3
li ent
Ġsub sequ
og rap
9 2
Ġredu ced
p o
^{ (
ĠIn s
ĠB ow
ĠP o
. ;
Ġa uthors
Ġsh ift
199 2
Ġk m
Ġsignificant ly
ĠJose ph
Ġdri ver
ĠA ud
ck now
H ist
f ree
re es
p onse
A m
ĠDemocr atic
Ġex change
Ġtrans ition
D r
C ount
Ġdirect ed
Ġd ig
Ġ: =
Ġpass ion
E ng
} =
k er
Ġv an
ĠV iew
Ġconf lict
Ġadv oc
ĠC ard
st ract
Ġdefin ition
Ø §
ct ors
E nt
c ript
ĠRepublic an
Ġmon itor
Â ©
Ġobject s
8 4
Ġdis p
ĠĠĠĠĠĠĠĠĠĠĠĠĠĠĠĠ ĠĠĠĠĠĠĠĠĠĠĠ
ĠT aylor
8 2
Ġsound s
ĠC ivil
ĠI T
ĠF ig
ĠL og
ian o
k in
? ?
8 3
Ġeven ing
ipp ed
ĠF oot
c ount
ĠCol umb
am m
Ġpl ot
Ġcreat ive
Ġapprox imately
D es
ob ject
Ġded icated
ĠW ild
Ġhous ing
ĠEn vironment
Ġz ero
Ġbelie f
Ġexcell ent
r ants
Acc ording
}^ {\
Ġk ing
ĠV an
Ġre ject
S U
Ġequ ival
Ġgu ide
" "
ĠH on
Ġprof ession
ak ed
or ph
Ġrap id
Ġs port
Ġmot ion
in ations
Ġchang ing
y e
ur a
ĠT H
Ġha ir
ob e
W ell
ĠA v
ĠB oston
Ġcomm ission
ĠHen ry
ad ium
Ġf ashion
Ġun iversity
Ġc old
How ever
ut ely
Ġmass ive
Ġprocess ing
ic ate
H T
Ġinj ury
ĠP age
Ġclass ic
ĠSt r
Ġint ended
Ġis land
ĠS af
ĠL ear
ĠDan iel
Ġmark ets
) =
P C
o at
Ġhe at
Ġdeb ate
Ġ rom
il ly
Ġf le
Ġpre par
AS S
id ay
r ust
Ġad just
ĠW al
Ġed ition
ĠE ach
9 1
Ġannoun ce
lish ing
l s
if ier
ĠP akistan
ĠF ield
i ples
Ġrem oved
Ġbr ings
Ġacadem ic
Ġd raft
Ġd rop
Ġex ists
ĠThe atre
' ;
L og
Ġpl us
ĠC re
ĠF ar
Ġw est
ĠTh us
Ġfl ight
is er
ĠT er
ĠM u
ĠG irl
p ire
Ġcomp onents
el ly
Ġro t
ĠT O
Ġsh ut
new s
b b
Ġdesc ription
at i
S ince
R I
Ġte aching
Ġn orm
ad ow
Ġform at
g s
i pe
Ġin n
Ġman ner
eg raphics
includ egraphics
Ġj ump
Ġsle ep
r ical
in et
Ġmet al
Ġn arr
ĠIt alian
Ġcomb ination
Ġam b
ĠDon ald
Ġexpl ained
row ser
erm an
Ġ( !
act er
Ġhel ps
ĠEx per
Ġg ain
Ġpric es
Ġcre w
Ġst orage
N et
ur d
Ġnew sp
ve c
ĠE gypt
ast e
ĠGeorg ia
Ġinstit utions
il ton
Ġbal ance
Ġs an
Ġwe ather
w ater
he nt
Ġrel ative
Ġ ille
Ġad vent
Ġit em
at o
Ġdiscover ed
C ode
âĢĻ .
ĠIn f
Ġcl ients
ĠChild ren
Ġanc ient
Ġwill ing
Ġreturn s
N N
Ġcomm ittee
ĠS outhern
Ġhold ing
Ġcomp onent
rang le
ph p
B uild
Ġveh icles
Ġev olution
p df
ran k
Ġgl ass
Ġcomb ined
st ar
Ġconc ert
Ġag ent
asket ball
## ##
U LL
Ġconduct ed
Ġcorrespond ing
Ġt on
res ents
Ġliter ature
ĠSp anish
ĠU k
ĠV i
het ic
e en
force ment
Ġ q
Ġ\ ,
iz abeth
ĠSte ve
g reg
h op
d im
. }
Ġdiscuss ed
Ġfight ing
Ġp roud
ol es
Ġex ecut
st ruct
ĠRet rieved
ĠPal est
Ð ½
Ġab use
Ġhom es
us hed
Ġind eed
âĢĻ ,
act ory
8 1
Ġreg ional
m ond
Ġc ash
ĠJack son
Ġess ential
ĠCol or
Ġmin imum
ir ty
che ck
ĠSt ory
Ġauthor ities
Ġk ick
ĠB oth
Ġpurch ase
Ġphot os
Ġe ast
Ġpo et
ĠRe al
Ġrespons ibility
T ags
Ġexam ples
G l
m ult
ic an
ot hes
Ġdiffer ences
Ġd ivid
Ġread ers
ĠI ss
Ġs oul
Ġ/ *
Ġle ague
ĠBe ach
Ġadv ance
ĠK h
Ġalle ged
O G
Ġsupport ing
Ġelect ed
ĠÂ ©
oc racy
Ġd ensity
Ġwa iting
E lement
Ġp hen
ploy ment
iz er
Ġorigin ally
Ġrout e
P M
n ament
E m
n ic
Ġcomp os
Ġst ress
ĠSup reme
sc ale
ĠIr ish
Ġcharg es
ĠJ ac
Ġcont rast
Ġwe alth
or ic
ĠJes us
W ill
ĠP acific
> &
ain er
ĠC all
v in
re hens
def ault
E ST
we b
Ġturn s
Ġrel atively
e an
Ġh ab
u ps
Ġdep art
ĠR om
pos ed
Ġdef ine
Ġbeg ins
ig ger
Ġdec ade
ĠW he
Ġ util
as ters
ĠB rad
ĠA R
Ġsequ ence
c oh
ar ian
k es
Ġcustom er
ol ve
Ġgener ated
ut ch
Ġun f
Ġneg ot
p ol
ĠEx ecutive
T C
cre ate
Ġprep ared
ĠL ive
Ġhot el
ang es
Ġconcern ed
Ġd ance
ĠP erson
c or
ip al
ĠM id
ĠJ r
Ġret ail
Ġbelie ved
Ġfe els
Ġperspect ive
Ġal ign
ĠN ig
ĠAd v
cent ury
ĠQue en
ĠW alk
Ġcover age
ĠE qu
m osp
un icip
Ġentire ly
dd en
Ġ} ,
h as
ris on
T Y
ĠM aster
iven ess
Ġdom ain
ĠPh ys
Mod el
u ations
Ġm ent
Ġw ave
ans as
Ġhon est
Ġfund ament
Ñ Ģ
199 1
ĠW at
Ġfil es
ĠH a
Ġvol unte
r ich
ident ial
Ġaff ected
ik i
Ġb ird
Ġrelig ion
Ġu pper
B ack
Ġ} );
ĠG ar
Ġint elligence
ock et
Ġsk in
Ġslight ly
Ġca ught
Ġfac ility
O ther
ch o
Ġg ender
P ub
Ġvict ory
Ġadd ing
is hes
ĠK im
Ġl ose
se arch
Ġrem aining
m es
Ã ¤
l ay
ĠF ed
Ar ray
mod el
Ġins urance
Ġexperien ced
Ġo dd
ĠTr ust
ĠR o
Ġaff ord
Ġsc ript
Ġreg ions
ĠÃ ĥ
Ġwor se
Ġc ategory
Ġass ume
r ative
Ġfig ures
Ph oto
ad or
ap h
Ġtrad ition
ass ert
ad ers
st art
Ġtre ated
rom e
lic ation
Ġan imal
Ġrelationship s
Ġgu arant
ĠH y
19 60
Ġs ac
ins on
Ġpie ces
Ġsee k
Ġter rit
Ġregister ed
Ġb ond
ĠA ri
It em
Ġcorpor ate
a ught
00 00
uff er
Ġmot or
Ġsub s
Ġestim ated
M essage
Ġchem ical
Ĥ ¬
Ġem phas
cur rent
ost er
Ġcre ation
Ġres olution
ĠBook s
Ġallow ing
Ġintern et
Ġresearc hers
Ġy ield
pr ise
Ġarriv ed
ĠKore a
="../../ ../../
ĠC H
Ġsp in
Ġgreat est
ĠD C
//// ////
al ysis
Ġw idth
Ġfound ed
Ġsh ares
Ġ row
Ġrel ation
ĠR un
on ed
ĠN orthern
erv ative
Ġs ister
Ġmain tain
Ġstand ing
Ġt un
or al
Ġmat ters
ĠC ross
ĠII I
Ġ ur
ĠR ef
Ġinf rastructure
Ġreg ul
ĠR am
ord ers
ĠO k
P ol
as hed
Ġc ouncil
Ġsu dden
Ġf rame
ĠM ic
Ġs quare
gh an
ĠCo ast
Ġsc hed
Ġprof ile
se m
ĠB razil
Ġfeature d
Ġsub stant
Ġplan et
S ystem
ĠSe ason
Ġl ibrary
Ġweap ons
N e
Ġacc ident
em ph
Ġrem ove
ĠL ittle
Ġteac her
ro ph
Ġspec ifically
. ~\
Ġre li
igh ter
cre en
at uring
Ġsp ending
Ġrep resents
Ġnet works
Ġdescrib e
Ġcor ner
Ġm ort
ĠPar liament
ur er
ĠD aily
Ġad m
Ġpos itions
Ġfam iliar
J an
A V
Ġa cknow
ĠBro ok
el er
ap ache
ĠGu ide
s f
Ġa st
ĠI P
ev in
Ġg rew
ĠAg ain
Ġp owers
oun sel
Ġparam eter
ind s
ific ations
ut r
Ġfl at
Ġdep th
Ġmat rix
ĠK n
Ġkeep ing
ĠF our
Ġra in
Ġdist inct
Ġexpl ore
Ġfil ed
c ar
ĠP lease
Ġext ended
ĠMich igan
Ġresult ing
ĠA L
d et
re qu
Ġappear ance
Ġtest s
ed u
Ġle aves
av id
Ġear n
B ook
ĠC L
ĠMed icine
ro g
Ġl atter
Ġinvol ve
ak a
Ġadv anced
ĠA T
Ġpl ants
O V
ĠB ush
C all
app a
Ġbring ing
al i
ĠRad io
ĠS ep
over line
Ġposs ibly
Ġfor t
Ġstruct ures
Ġ __
ĠPh ot
Ġserv ing
on ym
Ġs yn
p ass
ĠP C
Ġun s
Ġcount y
[ \
ly n
Ġstud io
1 20
in ally
b ury
c irc
Ġtal ks
w an
Ġcandid ates
Ġaspect s
Ġappro ved
Ġse at
c ss
Ġtre es
Ġjud ge
Ġimp ress
T ER
Ġch osen
Ġask ing
Ġclaim ed
E l
Ġend s
Ġdel ivery
Ġc er
ad el
Ġconvers ation
ĠSc iences
Ġconf irmed
Ġn ative
od ing
osoph y
r s
Ġrem ained
Pe ople
ĠSe a
if er
Ġoper ator
Ġv ac
O h
val id
pl oad
ap ed
Ġs witch
ĠD ar
ro vers
ĠU se
d ev
ï ¿
Ġcom plic
ont o
Ġdet ect
ĠSp ain
cre te
che ster
ĠK enn
ĠF air
Ġtechn iques
Ġexp ressed
ra int
ann a
ĠPr ime
Ġdom estic
ĠO N
Ġp al
ĠS us
Ġexist ence
198 9
or ry
ĠT w
Ġrefer red
Col or
s en
Ġsur g
pre ne
il it
eng er
The n
\\\\\\\\ \\\\\\\\
Ġent ered
Ġinstit ution
Ġlin ear
Ġinc ident
Ġfor g
B L
out s
Ġdis s
Ġdrug s
& \
ĠD ie
Ġsche me
Ġhigh light
Ġto w
Ġsu fficient
u ing
Ġreview s
ĠOn ly
y ers
od cast
ĠĠĠĠĠĠĠĠ ĠĠ
R el
ĠC amb
ĠA ction
ĠP ass
Ġdetail ed
ĠSt an
ĠSp ring
Ġfind s
Ġr is
ĠD ub
ru ption
ĠL ight
ge q
act s
re prene
Ġsp ring
Ġaccept ed
n ce
Ġ era
ĠC ode
ent h
ail ed
l ock
ĠSu pport
res ult
Ġeffic ient
Ġsp ons
ĠE th
Ġinc orpor
Ġact or
Ġv eter
ant ly
h ire
fort unately
Ġthem e
ĠF urther
Ġp ool
E nd
Ġs ides
Ġcar bon
Ġact ing
ï¿ ½
ĠSw ed
ĠB ern
Ġra c
j a
Ġown ed
Ġs qu
Ġinsp ired
Ġthought s
in er
Ġput ting
oc ument
Ġhundred s
} ).
in it
Ġm useum
op en
Ġrepresent ed
ĠF red
ĠA ge
Ġsuggest ed
b olds
Ġb aby
Ġf ish
ĠS ir
Ġcharg ed
S m
T A
Ġexp ansion
and y
ĠM ah
Ġfil ter
e per
Ġp ure
ollow ing
M ed
ĠOr der
in ent
ist ration
b el
aw a
ot he
var phi
Ġdanger ous
ĠT erm
Ñ ģ
ĠBro ad
Ġm el
Ġj ava
}, \
Ġ ;
end ment
Ġact s
Ġbehav i
Ġeas ier
roll er
Ġwrit ers
Ġ icon
Ġr ing
Ġsee king
Ġhand le
Ġf ellow
ff ee
ĠPh oto
Ġmag azine
ot ype
E very
fra k
Ġ urban
Ġdeath s
Ġsub sc
Ġag encies
Ġindust rial
Ġhon or
Ġvictim s
) ^
con text
ual ity
bolds ymbol
ĠS her
Ġser ver
T D
S im
Ġv ent
Ġsol ar
red it
Ġch ampions
Ġbroad cast
ob s
Ġtechn ologies
ict ed
el lect
25 0
Ġe at
Ġtell ing
h ar
ĠT enn
ir a
C ur
ĠY es
ĠCon f
Ġhouse hold
Ġpl anned
Ġloc ations
Ġstop ped
ĠW atch
ĠCl inton
I ST
yp es
Ġex ec
bur gh
ĠS om
Ġrem ov
pl ing
Ġch ain
Ġco oper
---------------- ----------------
Ġri ver
ra ine
Ġwel come
Ġneighbor hood
ĠJer sey
ĠP rem
Ġte en
ĠRec ords
Ġdoll ars
ĠR ay
if ies
ĠC irc
ĠL ew
ĠBl og
l ines
Ġsec ure
os a
Ġexper ts
R C
et ime
ious ly
R ef
Ġwor st
ess ions
ĠN OT
Ġfact s
Ġprom ote
Ġv ideos
Ġstud ied
Ġsp oke
ĠA D
Ġspe aking
ish op
=" ../
G L
as ks
Ġel im
om ic
Ġexc ited
Ġw arn
iss ions
Ġappoint ed
ĠW here
S pec
Ġca uses
AL L
Ġimpro ved
us al
ow nt
Ġsugg ests
urn s
epend ence
u zz
ad s
Ġparticip ants
U ser
ound ed
Ġf illed
man n
Ġal t
ĠS ong
; &
Ġwonder ful
ĠB ra
Ġrecord ing
Ġa id
Ġdeb t
ir ation
Y es
Ġrepresent ation
ens ional
ion e
am ber
B O
ic ial
ĠH un
ri p
D ate
og y
ĠScot land
Ġlarg ely
ester day
Ġshoot ing
Ġaward ed
ĠL o
ĠR on
Ġar ms
< !--
Ġun known
8 00
Ġfav our
Ġdis cl
ang ed
ir ms
Ġs ad
el a
ĠDis c
Ġf asc
Ġest ate
Ġstat ements
Ġy es
6 00
ĠL td
k o
Ġfin ish
New s
it led
ã ĥ
âĢ¦ âĢ¦
Ġr ough
ĠL ic
Â °
Ġcons c
Ġpl ane
Ġre nt
c ap
Ġrecogn ized
Ġconsist ent
Ġimplement ation
il a
Ġclos er
Ġinstr ument
ord an
Ġl ies
Ġdel ay
ĠL ook
ĠEngine ering
Ġm olec
Ġgu ard
l ast
Ġco al
ipp ing
d l
f irst
Ġwin ner
Ġlegis lation
Ġat mosp
ĠL i
ĠD igital
Ġscient ists
est ed
Ġdo ctor
Ġext ent
ist ant
ĠT em
ĠH u
p et
Ġg ar
Ġman age
ĠPhil ipp
the w
Ġhum ans
Ġhealth y
Ġrem ark
AN D
O ff
in ity
ĠP oint
is a
j ava
Ġhistor ic
ĠR ail
Ġteac hers
as er
Ġch apter
ivers ary
Ġmom ents
Ġreport ing
ure au
Ġad ults
Ġengine ering
ĠM att
ĠThe refore
ĠOh io
Ġalgorith m
ĠOn line
Ġp it
Ġr id
Ġtyp ically
Ġprogram me
Ġre new
Ġexerc ise
ĠC reat
Ġst orm
i ated
yl van
ĠS at
Ġcol lected
ĠCl in
st atic
m ember
amp ion
Ġaccom pl
rag on
Ġs we
Ġv en
ĠW is
ĠR od
Ġdiv ision
C ons
A F
M P
Ġmot iv
Ġrece iving
ĠWil son
Ġper man
ĠT al
V D
go ogle
w id
et her
ĠH ard
Ġabsol utely
Ġdeliver ed
Ġcompar ison
Ġb right
Ġc raft
Ġis ol
M ark
Ġb atter
Ġ iron
Ġ` `
ino is
te en
ĠA ccess
Ġtw ice
ent ed
ON T
ĠN ick
Ġim plic
Ġelect ronic
An y
angu ages
1 000
ĠEl izabeth
Ġsh aring
Ġmill ions
ĠN ote
Ġ( )
Ġfor get
ĠO l
ĠMicro soft
pt on
coh ol
a a
erv es
ĠHol lywood
Ġtra cks
[ ]
ĠAn th
Ġinter face
p ers
fin ished
ĠV ideo
Ġv ul
Ġele ctions
Ġcircum stances
i ary
Ġconsider ing
Ġpur su
st one
ĠO x
let ter
Ġre action
ĠPr ince
ĠO p
ap ore
ĠB ell
Ġphot ograph
ĠR h
Ġ ~
ĠE ric
d b
Ġre venue
198 8
Ġcook ies
im ation
Ġsign s
str ong
Ġcommit ment
ĠM ethod
Ġcont emporary
Ġpers ons
Ġschol ars
op her
Ġb odies
Ġbro ken
Ġno ise
h line
ĠT able
C ar
ĉ Ċ
ĠC at
Ġ| ____
ĠU r
Ġf iction
! "
Ð¾ Ð
ĠR en
ĠOn ce
Ġar my
O K
s es
Ġrepl aced
at ics
Ġm ixed
includ e
Ġworld wide
ĠA N
ic ide
Ġpro spect
ĠR yan
ĠG reek
Ġequ ation
ĠS aint
ribut es
F e
Ġenjoy ed
Ġg ather
Ġsing er
ĠN on
o ir
ĠTh ree
Ġoccur red
Ġex ternal
b al
ĠP sych
ĠS ign
Ġf at
Ġr ul
Ġb omb
ĠB rand
Ġmed ium
Ġcol on
Ġaccount s
und le
M C
p ng
Ġdec ide
ĠW ars
Ġun ion
Ġm ir
Ġrepe ated
ĠC ase
ĠAs ian
Ġtop ic
ĠD E
ed ge
ĠTe le
Ġro les
ens ure
I O
Ġarrest ed
Ġpriv acy
ĠK ong
ĠR og
ĠL abor
ap es
Ġ= ==
ou ston
Ġrec over
H el
Ġfram ework
Ġmin ute
Ġcy cle
ĠM A
Ġboy s
Ġunc ertain
ar ters
Ġc art
ĠGu ard
on ly
n oon
ĠAd am
Ġexc iting
ĠM S
p erson
im age
D irect
ĠPer form
v ard
=" #
ĠStep hen
L ab
ĠCont rol
app ed
A re
Ġpay ment
Ġsu c
ĠAs h
Ġstand s
Ġconf idence
Ġar ts
Ġprote in
Ġl ayer
y r
H O
M at
ĠWind ows
Ġmin ister
ple te
} }$
Ġpartners hip
M on
a ver
Ġpict ures
Ġemer gency
Ġprofess or
Ġport ion
Ġfrequ ency
ĠDe ad
A uthor
Ġhe av
Ġpost s
Ġn il
or ough
198 6
Ġh ate
ĠP rivacy
Ġsus pect
ĠH and
ĠM ain
198 7
math frak
ain ts
Ġad ult
Ġhous es
AR T
ĠChampions hip
ĠK ent
Ġn ob
ylvan ia
Man ager
Ġposs ibility
Ġsy nt
w orld
Ġre pro
P D
i ro
Ġear ned
ĠS ummer
aw n
Ġdram a
G roup
ĠCorpor ation
qu ir
g ener
ĠL uc
se x
Ġimp ossible
ĠFoot ball
Ġult imately
Ġa wards
y ou
Ġ ]
Ġwalk ing
ĠMark et
im a
fl ow
V is
Ġspec ified
ĠAdminist ration
R em
ĠR ight
Ġfor th
Ġhy per
Ġcont aining
Ġsecond s
ĠIn it
Ġdat abase
ĠV iet
Ġqu iet
1 10
end a
Ġvirt ual
Ġaut o
Ġupd ated
Ġwas te
Ġl ots
Ġlegis l
Ġwin ter
sh ire
Ġh un
ĠK now
ĠSy ria
ĠB ang
Ġfl ood
Ġve ctor
mer ce
ĠA p
r ations
ĠAn other
a uthor
l ights
le ts
Ġequival ent
Ġimag ine
Ġst ations
d es
ĠV ill
ce ived
Ġus ual
Ġs um
âĢ ĭ
rib le
) </
Ġst ick
ĠE nt
Ġrat io
Ġag ric
ĠCount ry
Ġkill ing
ĠAre a
Ġs now
ĠL atin
Ġscen es
Ġg ift
Ġeduc ational
Ġrev olution
T ube
rehens ive
. '
Ġr ide
Ġserv es
ĠA S
Ġf ol
d ated
Ġemot ional
exp ected
ĉĉĉĉ ĉĉ
Ġv ast
L ambda
he ast
Ġachie ved
Ġrestaur ant
r ary
Ġvisit ors
Ġpl enty
Ġro ot
C al
ĠC ost
ĠCar l
ĠHot el
Ġincre ases
Ġcont rovers
; </
names pace
ĠP en
Ġc as
Ġsurpr ise
pack age
S ec
ĠChe ck
ĠTh rough
ĠM ult
Ġb ought
Ġass ets
ot imes
ĠJew s
ok ing
s he
Ġsam ples
Ġf rag
ig rants
Ġpublic ation
Ġsp aces
ĠH om
t aining
Ġcamp us
u able
T wo
20 21
ĠN C
Ġa x
Ġord ers
f ast
D et
Ġemploy ment
lang le
. \
b ro
ĠR est
Ġsuc ceed
Ġc ab
Ġassess ment
Ġatt ended
Ġev il
we ight
ĠC ro
Ġl ie
p ool
Ġd iverse
Ph i
b uild
gr ade
Ġdes ire
ĠB BC
======== ========
Ġunder st
ar on
Ġlic ense
Ġhappen ing
Ġwid ely
ĠE astern
Ġrecogn ition
Ġarchitect ure
ĠS on
Ġinf o
ul ating
a fter
ĠD NA
Ġopp os
Ġb ow
Ġg al
Ġs itting
Ch rist
ĠB at
ag raph
Ġf lex
f alse
Ġs outhern
u ous
Ġf ly
ap se
Ġcont ribution
end ar
ĠO R
p y
ĠC ook
Ġmarg in
ĠF ord
An other
ã ģ
Ġpol y
ĠJ enn
Ġal leg
Ġassist ance
Ġstre ets
Ġform al
sm all
ĠB all
if ts
Ġ ðŁ
Ġp ed
ac le
ic ious
C re
Ġcon ver
Ġint ent
ĠC apt
M in
ĠDis ney
ĠIslam ic
b ell
ist ed
Par am
ĠM ir
ĠIm m
Ġincreasing ly
Ġend ing
al o
Ġconf irm
ĠC ru
Ġs and
ĠW ales
ig inal
Ġfind ings
Ġon going
ag ues
ĠSt aff
c all
are t
Pro perty
alle l
vi ation
O RE
t ical
Ġag ents
ith ub
ann els
m ethod
ĠUn ivers
ĠE st
the n
olog ist
F ig
Ġocc asion
Ġille gal
P P
ĠCon stitution
Ġcon vert
ol ar
Ġsc ored
ĠB on
ĠDemocr ats
G A
av or
Ġm outh
Ġshe l
adel ph
Ġmain ly
ort ion
Ġform ation
ĠN ations
ĠM ill
ĠT ax
Ġbelie ves
ĠN ext
ut ation
198 4
W rit
Ġexpl ains
ps on
K E
ab et
Ġcons umer
Ġacc ord
ĠDav is
mb ox
D uring
Ġen able
Ġsold iers
Ġs elling
s ylvania
à ¥
ĠD ark
Ġsu it
ĠR ose
Res ponse
ĠĠĠĠĠĠĠĠ ĠĠĠĠ
Ġsurround ing
Ġa thlet
text it
os m
Ġf ill
Ġadvert ising
C lient
ĠMag azine
Ġg od
Ġs oc
ĠB and
ĠL ocal
ĠChe m
Ġfe aturing
ch ar
ĠAff airs
Ġpack age
is odes
Ġapparent ly
Ġinvest ors
M em
Ġli qu
D avid
ib ilities
ĠB ul
ĠF ull
Ġgood s
Ġassoci ation
Ġt aught
Ġem pty
Ġl osing
ial s
ĠHar ry
ld ots
Ġadopt ed
F I
Ġaud io
ĠS P
} ),
ĠP ay
adelph ia
Ġide al
ar ry
li k
Ġc e
Ġf estival
Ġh ydro
( (
cit ep
Ġh all
un ning
ĠTor onto
Ġpre gn
m id
p ir
ĠTh ose
Ġhe ll
Ġt ight
ĠSu pp
Ġext ension
19 50
ask a
re ct
ten ance
Ġb anks
H is
con n
Ġpass ing
ĠB al
] (
Ġst ret
k appa
opt ion
edd ing
ĠB ol
ĠOffic er
def ine
ĠComm on
ĠInst ead
Ġcap able
Ġm ine
ĠM iller
Ġcer em
Ġprodu cer
Ġref uge
Ġfundament al
Hist ory
Ġredu ction
M T
Qu ery
Ġdro pped
idel ines
Ġs plit
Ġopp osition
omet ry
ĠB ase
re ll
over ty
D P
Ġcon ven
Ġtyp ical
ĠD am
Ġm and
W here
ĠF il
ĠDe ath
ĠL ine
Ġtot ally
v y
ĠIll inois
e vent
M ost
ĠOb ject
ell o
P at
\ |
Ġinnov ation
az a
um in
Ġinvol ving
p g
Ġprim arily
Ġrec ip
Ġperform ing
um es
Ch ild
ĠB rian
Ġl augh
Ġcollabor ation
Ġre nder
Ġexpl an
198 5
ĠG i
ul ous
ile y
et ts
K e
Ġacc used
Ġcomp ris
10 1
D ep
ab s
| -
Ġcomp ens
Ġclos ely
M ethod
Ġ} ;
zon a
Ġyoung er
iz z
Ġst ood
ĠB ru
Ġt um
e z
Ġtw enty
S te
Ġand roid
ĠA venue
in als
w orth
Ġphen omen
Ġt ough
Ġne ither
ĠG ener
> (
Ġreg ulations
R S
ĠSystem s
Ġc ro
Ġe c
ĠT ype
Ġal ter
Ġbeaut y
ĠK ir
Ġ ing
Ġdeg rees
r at
Ph one
Ġass ault
Ġbig ger
s pe
al ty
Ġr ural
ĠF igure
ĠAs sembly
Ġsuccess fully
Ġthe rapy
Ġt ack
Ġlink ed
ĠM ajor
raz y
T ra
ĠP ot
ov iet
L a
Ġd ry
Res ult
ĠL y
Ġbu ff
ang le
ĠEx pl
Ġappro aches
ĠColumb ia
U E
Ġv acc
ĠB ad
ĠIsrael i
Ġreason able
Ġcontroll ed
Ġcontribut ions
Ġquant um
Ġn orthern
Ġext ensive
Ġth read
I B
w ing
ĠC le
St art
Ġfac ing
so le
ĠF ac
ĠFin ancial
i est
Ġun iform
er g
âĢ¦ .
Ġemploy ee
H A
ow a
Ġpropos al
Ġafter noon
ov a
L ink
Ġeffect ively
Ġres c
Ġcom edy
if est
ĠColor ado
ov en
= >
empl ate
Ġorder ed
ĠCom put
P res
ĠCap ital
n ull
v ol
ĠL A
ĠAg ency
Ġ riv
ĠL em
ĠN umber
ol is
ellect ual
Ġv oc
Ġh idden
ag an
Ġturn ing
ĠD ate
Ġcol le
h us
Ġprinc iples
Â ®
Ġproced ure
nab la
du ced
Ġsupport s
er ies
pro fit
Che ck
Ġvul ner
Ġact ors
ĠMin istry
ĠS anta
Ã ¢
ack s
g ov
l ib
P oint
Ġgrow n
Ġread er
ĠBro ther
Ġmeas ured
d ot
cons in
Ġinteg r
Ġres istance
ĠL in
Ch ar
ĠG allery
E ar
Ġth ick
Wh o
Ġstri ke
Ġsc ope
im er
se ct
h ist
Ġsche dule
T E
Ġgrant ed
Ġb ridge
] )
Ġconsum ers
% ,
ĠS ite
Ġour selves
ĠC ub
Ġmiss ed
Ġinter action
in ition
ĠCh ange
oc key
ĠFore ign
p a
oc us
Ġab and
Ġpub lis
ĠH ong
Ġw ire
y o
Ġreg ime
or ical
Ġhor se
un s
M en
Ġp ra
Ġpract ical
Ġass ign
Ġstrateg ies
Ġun able
Ġsym pt
ensure math
Ġentertain ment
ast s
j av
ĠPalest in
Ġoppos ite
Ġprot est
Ġris ks
ess ed
ren cy
ĠH ay
ear ing
Ġgener ate
Ġsh ock
Ġw estern
O pen
ĠFore st
O ct
ĠS C
Ġwe ar
aud i
ĠF OR
tain ment
ud es
enn is
Ġw er
ĠM ember
ĠĠĠĠĠĠĠĠ ĠĠĠĠĠĠ
dis play
iam i
Ġw al
ĠT urn
> >
Ã ¨
L A
or i
yd ney
M ich
Al so
S D
Ġte ach
Ġac id
ell s
Ġdynam ic
Ġvot ers
Ġf is
Ġsomew hat
un finished
ĠY et
aw ay
Ġexp osure
il ty
b oy
b rid
Ġst rict
g ithub
Ġdisapp oint
o ices
AC K
Ġbre ath
nes ota
Ġr h
Ġ( "
ĠEd ward
d i
P lease
ob by
Ġstrugg le
Ġalong side
ĠSing apore
} )$
ES S
Ġexhib ition
) {
ĠN ic
ĠE X
it als
ĠC ulture
w ind
Ġtrou ble
ĠA li
Ġn arrow
Ġd ress
ĠSt ation
es ome
B est
um a
ik ip
Ġcons ists
el d
Ġg ene
ĠB efore
ĠK at
ĠS che
ĠN FL
Ġcont ained
Ġmov es
ĠEd ition
Ġbirth s
Ġreal ize
Ġmod ule
c s
Ġl y
ĠM arg
m akers
ach us
ĠW orks
Ġmess ages
J o
th ur
Build er
ĠLew is
hold ers
ĠF all
ĠArt icle
miss ions
c ers
â Ĩ
Ġsubject s
serv ice
Ġen forcement
Ġfac es
ĠEconom ic
d ep
ĠN one
at he
ep ing
og ether
bre ak
ĠMod el
Ġm al
A ction
ĠT ony
Al though
ĠN avy
m aking
Ġwrit es
ĠK evin
N ote
Ġw ins
197 9
Ġvis ited
Ġre in
Ġs ight
P T
Ġsever e
Over ride
ĠF riend
ĠS ym
W orld
ang ers
ĠN ULL
Ġsett ings
Ġd uty
f ront
f ound
ĠF uture
Ġobvious ly
Ġfe e
Ġaccom mod
ĠH ouston
Ġb ool
' .
qu ery
ĠMr s
ĠN av
ĠV ice
N ational
ĠK ar
ownt own
ĠPenn sylvania
ĠYou Tube
Ġal ive
t x
Ġb ranch
Ġcapt ure
ĠL ow
ĠTur key
Ġparticip ate
Ġso le
Ġindic ate
Ġlet ters
Ġnecess arily
Ġenc ounter
ĠK ey
ĠC a
Ġleg end
et ary
Ġest imate
p ub
Ġd iversity
ĠH as
M et
Ġy esterday
ĠIs lands
Ġmark ed
Ġz one
Ġs weet
ĠV en
Y our
Ġatt orney
Ġserious ly
F R
âĢ ī
St ream
non umber
Ġob ser
d s
U til
n ote
ĠEm pire
ĠTr ade
ĠB a
Ġexp ensive
Ġext ract
Ġco vers
A ut
}} {
ĠP ut
ĠE vent
ĠCom ments
f ol
Ġacqu ired
i ot
ĠMay be
Ġland scape
Ġsm ooth
Ġdisc rim
Ġb asketball
ĠMan ager
Ġinit ially
Ġdistribut ed
Ġarg uments
an th
ikip edia
Ġfl ag
ĠN AS
w a
ĠPart ners
ĠCon c
ĠN S
ay a
Ġse asons
Ġn ations
Ġperform ances
Ġv ary
l ers
Ġnear by
iss ue
a ug
ĠS n
cl ient
act or
ĠC ancer
Ġse es
p op
A c
Ġele v
198 3
he ight
Ġst one
Ġstrateg ic
Ġsurpr ising
ĠSo ft
Ġcr ash
ĠJ ordan
Ġnew ly
Ġs oci
Ġattempt s
achus etts
ĠP ers
Ġinnov ative
F igure
em an
Ġesc ape
ac her
Ġcl ar
ĠSt art
Ġbo ost
ĠB udd
ĠP ict
or ne
S igma
Ġfrequ ently
Ġconstit ution
Ġg iant
Ġpull ed
er ate
ol n
t ure
Ġo k
t rack
Ġdra wn
Ġexpl icit
Pro v
ag ger
Ġst ores
r ine
Ġaccur ate
Ġup coming
ad ed
am i
Ġdescrib es
ific ate
ĠE s
ĠL ink
) -
ĠM ach
ĠS ky
ĠR a
\ %
OR T
ul pt
Ġqu e
Ġ- >
g ence
Ġpro port
Ġfun ny
inem a
out e
____ ____
is ition
Ġwat ched
reg on
ĠS em
Ġg ap
Ġg ay
Ġdom in
Ġmount ain
Ġsecond ary
ĠP ract
ĠC R
Ġext ends
Ġstrong ly
f all
Ġmor al
Ġdis miss
Ġm ob
ent er
/ \
ia h
N umber
Ġnewsp aper
ĠAf ghan
Ġprov ed
Ġhead s
Ġvers ions
D R
Ġmy st
Con n
Ġencou rage
ĠR ome
ĠB ox
w atch
Ġtra ined
includ ing
c alled
t ics
id ance
l en
Ġcomp rehensive
ax y
b les
f a
ĠC as
Ġprob ability
pro ject
Ġenh ance
iam ond
Ġex ceed
Ġlim its
S earch
Ġpattern s
v as
ĠG reg
Ġhas n
ach ment
V ER
ry pt
St ud
Ġle ct
ĠEx t
Ġte ch
W E
Ġpresent ation
un a
Ġcommun ications
P age
ĠA st
Ġmeet ings
ĠHe art
ru ctions
ĠD id
az e
ĠD ream
ĠE mer
Ġh its
Ġdr ink
Res ource
ĠS uch
Ġindic ated
O per
pl ed
ĠH ave
ĠP rom
opt ions
h ol
Ġbut ton
ĠV eg
Ġfac ilit
Ġappro val
Ġunderst ood
Ġgu est
cer ning
Ġpot entially
Ġnarr ative
j i
In tern
Ġext reme
ĠĠĠĠĠĠĠĠĠĠĠĠĠĠĠĠ ĠĠĠĠĠĠĠĠĠĠĠĠĠĠĠ
in f
Ġorgan ized
N av
ot ten
Ġpay ing
Ġmy th
ĠTra vel
Ġaff ili
eg er
Ġexpl o
Ġj ur
Ġâ Ĩ
ĠA I
Ġsk y
Ġar bit
ĠStud y
ĠB uilding
ĠA h
Ġsim pl
b ottom
ĠS a
198 2
Ġcon vent
it ory
B R
Ġc ards
og g
ĠTh anks
ĠM P
od ed
D ec
ĠC ustom
Ġfif th
Ġcomb at
Ġret ire
Ġgovern ments
Ġb are
ĠĠĠĠĠĠĠĠĠĠĠĠĠĠĠĠ Ġ
ĠW as
ens or
ut ed
et ch
app y
ĠS ab
Ġeffic iency
f unc
ã Ĥ
ĠJ am
Ġair port
Ġconsequ ences
Ġent itled
Ġto m
Ġst d
t le
ĠH op
Ġpr ime
ĠAnd roid
or gan
Ġaware ness
P ort
ĠJe an
b in
ĠOx ford
Ġy ards
Ġf aster
Ġconst raint
add ing
Ġalbum s
per ties
Ġpur s
ool s
Ġep isodes
Ġpoint ed
A pr
d oor
Ġpresident ial
ind u
Ġimmedi ate
Ġhol iday
Ġeng aged
Ġ( +
ra ged
ens ed
Ġw ine
k ind
B ase
Ġwor ry
x x
Ġpercent age
Ġs ought
ra ction
Ġv el
Ġimpress ive
M s
Ġspect rum
Ġs pl
Ġbe ar
Ġtit les
ou ch
Ġ âĢĻ
ĠM D
Ġfra ud
Ġsched uled
Ġclass ical
Ġmag ic
Ġfe es
ro x
ĠP u
M any
Ġp apers
Ġco ffee
li x
ĠCon nect
Ġsol o
Ġgrad uate
Ġupd ates
Ġcy cl
Ġadv is
sub set
Ġmed icine
Ġsurg ery
Ġbro ke
an while
ĠSar ah
Ġcont ribute
C P
oc ated
Ġencou rag
on na
ist ent
Ġad j
Ġmanufact uring
ĠA k
ĠIm p
Ġsect ions
n ormal
ig ious
p es
ĠD un
i y
ĠR os
Ġpil ot
Ex t
ĠB ible
AM E
Ġsustain able
Ġknow ing
Ġsurpr ised
ĠM s
it o
Ġen emy
c r
Ġpick ed
m ad
Ġres erved
Ġfeed back
Ġin ner
Ġlist ening
ill iant
G ener
Ġsent ence
ĠRep resent
ond er
Ġrem ote
Ġf ulf
ing ham
Ġb es
Ġw alls
Ġvari able
Ġmat ches
ĠG ree
Ġf ab
ĠDef ense
C lick
E ven
Ġtour nament
b ound
itar ian
unicip al
Ġse gment
Ġbeh alf
Ġdisc ipl
Ġhab it
ĠN az
el le
c raft
M E
l ow
Ġintrodu ction
z ing
ĠO s
ĠMod ern
en cing
Ġb ands
Ġfound er
t arget
H L
ro it
ĠPhil adelphia
le ments
Ġvot es
1 30
Ġcontinu ing
ĠRes ources
Ġun iverse
all as
ĠSt ock
if fer
Ġent reprene
ro t
y es
ĠUk raine
Ġreal ized
ran e
ĠMat thew
Ġdo i
Ġtro ops
Ġsur ve
ĠPr inc
Ġprov ision
but ton
Ġdep ending
ĠL ady
an es
ĠTrans port
Ġdriv en
C ell
Ġbo olean
Ġcontrol s
ĠP A
ĠS E
ne ver
ĠS av
Ġlik ed
up id
A ug
ĠVict oria
Ġvis ible
ĠT ake
ĠPro duct
Ġdecl ared
ĠCol lection
ĠCo oper
Ġal cohol
Ġst range
ĠM ap
Ġunder t
W ork
ĠB attle
ĠAri zona
ist ical
ĠHam ilton
Ġl anguages
Ġcons ent
Ġt ag
Ġp ip
Ġm aps
Ġpres ents
ĠL iter
\ [
Ġproper ly
ĠRev olution
ĠF inal
Ġout come
f ire
d at
Ġinform ed
ĠGover nor
Ġexper iments
Ġ à¤
Ġproced ures
a ire
Ġthrow s
Ġerr ors
ĠGold en
Ġprofession als
st ruction
en ame
Ġsuff ered
od ge
Ġtax es
bl og
ro ke
Ġinv ited
ur ers
itche n
Ġass igned
Ġdist ingu
Ġmagn etic
Ġch annels
ĠJan e
Ġcour ts
Ġr ig
ĠM ake
Ġsw im
Ġcon clusion
ĠH o
c up
Ġder ived
A ust
Ġbo at
B ox
ĠĠĠĠĠĠĠĠ ĠĠĠĠĊ
ug in
Ġrec overy
m em
S ty
ĠU t
Ġsur f
ĠÂ §
Ġdep ends
) ]
es see
a is
Ġtra il
ĠL ind
su pport
ĠSt ill
Ġh at
Ġch air
Ġt or
ĠS U
ĠS oviet
Ġvari ables
Ġt ail
Ġs ick
ĠT reat
Ġeng age
ott ed
ĠSen ior
Ġ ×
Ġbre aking
ĠDo ctor
Ġadd s
ĠR oss
v ity
he rent
O B
ĠG rant
ĠM arsh
h igh
Ġne uro
ow ed
S I
Ġant icip
Ġtop ics
Ù Ħ
ĠSt one
Ġb att
ad ata
Ġthe rm
ĠSh ort
b u
ĠEd itor
Ã³ n
i ac
Ġth inks
Ġrecomm ended
B N
Ġprov ider
Ġprinc ipal
U nder
% .
ĠF R
Ġinteg rated
Ġj oy
ĠP ack
Ġc atal
Ġh urt
ĠN ever
Ġcharacter istics
st all
198 1
We b
aw s
Ġlaw yer
Ġwalk ed
se lect
Ġr ub
ph y
ĠEnter tainment
on ia
Ġv ess
ay ers
ĠC rit
Ġcele b
Ġprof it
ĠEx p
Ġpark ing
ĠG re
, âĢĻ
Ġthous and
Ġrepresent ative
l ocal
St atus
st ers
[ "
ol id
Ex p
ĠBer lin
Ġaut hent
Ġexpl os
G E
Ġatmosp here
Ġpolit icians
ĠN eed
ĠO cean
St ar
Ġst ake
ocr atic
h av
Ġprinc iple
ĠD om
Ġansw ers
In put
inc oln
ĠMin nesota
ĠDes pite
A g
Ġprom pt
G C
ĠPl ace
( {
Ġmechan ism
Ġany where
v o
omet imes
Ġincred ible
ĠS ydney
S R
ĠC ond
ĠJ osh
ĠTe ch
ĠMass achusetts
Ġcont est
ĠAr m
Ġobject ive
en z
m o
h r
let on
Ġhor ror
Ġoper ate
ĠS earch
Ġtrans action
Ġ( âĢľ
ĠAlex ander
uss ian
S O
n ie
ĠS ant
L ine
Ġcr imes
Ġsym met
rib ed
Ġbound ary
Ġc ounsel
c ard
Ġbus y
Ġv ice
ol ly
af e
ow ing
ess ional
Ġprop ag
Ġroom s
M D
u ction
ĠPat rick
Ġcompet itive
B U
Ġwer en
pro p
p resent
Ġcour ses
ĠJ ason
Ġprom ise
head er
st atus
z ed
Pro ject
ĠLe on
Ġent ity
cent ering
Ġimprove ment
re quest
w rite
Ġdel ight
Ġspirit ual
\ !
Ġcho ices
Ġro of
Ġelect ron
Ġs in
Ġne ut
ĠC ON
Ġexperiment al
ĠWis consin
ograp her
ĠN ame
res hold
ĠL ib
ĠAn alysis
W ind
Ġhop es
Ġfair ly
Ġf ranch
Ġdestroy ed
m ain
Ġfac ulty
ĠR oy
Ġwar ning
Ġdi pl
ĠJ ay
Ġprot ocol
her lands
el and
els on
ĠM oon
OD E
it is
ent ry
ĠT R
ĠQu est
Ġdri vers
Ġrecogn ize
Ġdat as
ĠHol y
Ġg ro
ĠT am
Ġperman ent
Ġkind s
Comp onent
or se
Ġr u
Ġfound ation
Ġinj ured
Ġb ott
Ġst able
Ġsub mitted
Ġper mission
Ġre ar
Ġc ategories
Ġabsol ute
ie ce
Ġel ig
ĠM oh
o en
{ -
ĠO nt
do i
Ġp itch
oc ity
Ġval uable
Ġas ks
E v
Ġgu ests
" =>
Ġwe aring
Ġacknow led
Ġl ock
ag g
ĠS ound
old er
ab il
ĠC orn
U K
Ġbl ocks
c ut
ri ers
Ġdocument ary
Î ±
ĠH ig
ou red
ag a
" ).
and al
Ġex cess
Ġ urg
Ġrel ief
ann y
IN E
Ġchalleng ing
x ml
Ġestim ates
ĠAnt on
U I
Ġexp osed
Ġtechn ique
F O
re ement
S outh
Ġapplic able
Cont ent
Ġhealth care
and roid
ĠF un
197 5
Tr ue
ĠDo es
Ġhor iz
T oday
Ġocc urs
ram ework
ĠG a
7 00
as m
c ul
ĠK elly
Ġst im
Ġch art
Ġem issions
Ġcopy right
L ook
Bl ock
Ġinj uries
Ġcarry ing
S ON
Ġsubs id
pro cess
ik a
ĠM iami
Ġpres c
re nder
Ġtick ets
Ġbas ically
Ġinv ent
Ġslow ly
ĠSim on
ind ed
igen ous
er on
Ġcelebr ate
G en
p rivate
e h
Ġopp osed
Ġun us
Ġsp okes
Ġfunction al
ĠMem orial
Ġconsider ation
Ġb ass
Ġor ient
Ġfac ed
ĠR oom
ĠPolit ics
ĠR oll
ĠA mb
Ġjo ining
Ġabs or
ĠC ab
ĠCont in
Ġpro hib
bt n
umn i
Ġiniti ative
ĠS quare
Ġpl ate
Ġperson nel
ĠLab our
Ġstat istics
ĠAtt orney
Ġpain ting
Ġconnect ions
ĠS ix
nov ation
ĠAcc ount
in ator
Ġfin ite
Ġo cean
ĠInst agram
Ġact ress
rodu ction
Ġcl imb
es is
ĠUs ing
g ate
is d
C opyright
bour ne
T P
re tt
ou ri
Ġsuff ering
ĠAnd erson
sh ow
Ġaccord ance
D C
app end
Ġinst alled
Ġse ats
Ġh ur
197 8
Ġob lig
Ġrepresent ing
Ġresult ed
Ġcon cerning
ĠSc ient
Ġmonitor ing
Ġdisc overy
Un iversity
Ġbase ball
Ġterrit ory
q l
d ec
Ġeval uation
Ġgu ilty
Ġdeal ing
ar ia
Ġrel ax
Ġsudden ly
Ġrec all
z eta
Ġimm igration
ĠS ex
ĠReg ister
Att ribute
ĠG ro
Ġex clud
ra it
ĠB ridge
ag en
Ġreturn ing
gress ive
ĠL es
wh o
arg s
bs ites
Ġtarget s
ĠE ffect
mod ule
Ġemb od
ĠAtl antic
ĠAnn ual
il st
se ason
Ġsubsequ ent
ak h
ĠD ave
Ġsc ores
d ir
Ġlik es
Ġcover ing
ĠMar c
ĠIm ages
Ġdivid ed
Ġsem i
Ġoper ators
ĠCamb ridge
ĠDie go
ar ation
Cur rent
p c
ĠE ver
Ġca using
st al
eng ers
Ġvot ing
196 8
Ġt act
n umber
Ġr ising
ific ial
Ġin hib
Ġregular ly
Ġcontinu ous
Ġcomp are
ĠS audi
ĠT en
Ġperson ally
Ġ" ""
Go ogle
Ġany way
IC E
k m
et ies
Ġout comes
Ġro y
Ġimplement ed
ĠSt adium
Ġdeep ly
c hers
Ġent hus
ĠO regon
Ġin ject
IT Y
197 6
ĠReview s
Ġgr ade
Ġmain tenance
Ġprov isions
Ġprodu cing
Pre vious
ĠMount ain
ĠRel ations
D own
Ġsh ips
writ er
is ations
Ġbehavi our
Ġd ates
Ġkeep s
ĠB ry
Ġann iversary
ĠH T
nav bar
Ġad mitted
ĠF ind
Ġbe ach
} +
Ġobserv ations
Ġm ac
ok ed
ĠHaw ai
Ã ±
Ġw aves
dim ensional
irt ual
Ã §
im g
Ġf uck
197 2
r ase
Ġtest ed
int end
per ial
Ġprogram ming
Ġoff ices
ĠLe aders
Ġtru ck
Ġ+ =
C or
Ġparticip ation
Ġre ward
P aul
Ġvot ed
Ġch ose
Ġsympt oms
pr ime
} -
S ign
ĠB C
ĠAuthor ity
Ġtrad ing
Ġtransport ation
ĠE q
Ġpe ak
ge bra
ĠPe ace
Ġtalk ed
ĠViet nam
ish ment
Ġdise ases
Ġsol ve
b ing
Ġcapt ured
Ġb rowser
Ġess entially
F eb
G O
se a
Ġassist ant
Ġ< <
Ġconsum ption
Ġemploy ed
ĠAnth ony
197 7
ĠTh ings
ab ama
Ġphil osophy
Ġcrit eria
ĠPri ze
con f
Ġconfig uration
B M
ast y
Ġext end
Ġfin ance
Ġp overty
P H
ord on
ition ally
ĠSaf ety
Ġprep are
atur ally
ĠMal ays
Ġchild hood
197 3
leg es
Ġpurch ased
Ġt rib
H er
Ġgen etic
ĠHar ris
Ġaccur acy
ĠF arm
en ess
Ġf rust
Ġdet ection
Ġnegot i
ug s
Ġf lying
el i
an ing
M ax
Ġabs ence
ĠMem bers
j son
ell ite
Equ al
elf are
Ġsil ver
om orph
Ġoffic ially
is l
T oken
Lab els
Ġde pos
ĠI V
Ġtrans mission
N C
Ġvis iting
Ġex clusive
ĠScott ish
T HE
Ġnot iced
Ġbrand s
L ocation
Ġaccess ible
Ġinvestig ate
= &
G ood
y ard
ari ant
ĠW ord
Ġfol ks
Ä ģ
ĠN ob
Ġv ital
196 9
Ġconstruct ed
Ġb ath
U D
Ġd inner
Ġexpand ed
c at
ĠCur rent
ĠCh apter
qu arters
Ġh ole
roll ed
Ġprovid ers
Ġtrans formation
art icle
Ġwhe el
ĠD er
S L
s ign
\ ]
ĠSe attle
Ġl ift
fol io
ĠCh all
fer red
Ġaim s
ĠProt ection
Ġst ead
Ġg arden
G eneral
h u
Ġperfect ly
Ġmer ely
B efore
n i
ĠSchool s
Ġbr illiant
ak i
ĠĠĠĠĠĠĠĠ Ċ
Ġla id
X X
onym ous
ĠM L
ic ity
Ġreve al
ĠMov ie
197 4
our se
ĠEnvironment al
Ġpl astic
Ġlo an
Ġb on
Ġmat hem
ĠMo ore
ĠN a
ĠMan chester
ĠAd vis
d on
ir al
In stance
Ġdemonstr ated
ĠJud ge
Ġpoet ry
ĠR ick
................ ................
I E
Ġcons ervative
d isc
Ġe gg
Ġleg it
Ġapp s
Ġexpect ations
ig er
Ġcomfort able
ĠH art
ol as
Ġintrodu ce
Ġcreat es
wh ite
Ġref used
ĠCl imate
Ī Ĵ
R ed
Ġdem ocracy
Mich ael
ĠYear s
M c
s ite
Ġt all
V ol
Ġplatform s
H igh
es y
it ure
ĠA z
op l
Ġamount s
Pro f
Ġrespons es
Ġindic ates
ĠG h
it ative
ĠRepublic ans
ang el
Ġse vent
che stra
Ġcut ting
Ġste el
Bl ack
i ology
ĠT ok
Ġcirc uit
M arch
Ġsit uations
Ġtr igger
A nt
ĠMil itary
Ġcop ies
Ġtra v
Ġde ploy
ed ing
Ġinter ior
Ġdynam ics
ĠBel g
Ġag es
iff s
g ame
tab ular
Ġill ness
Ġautom atically
Ġrequ ests
Ġfeel ings
Ġliqu id
ĠFor um
Ġs ending
RE F
ĠF is
Ġsomew here
ä ¸
ĠP itt
U r
Ġman ip
Ġs ummary
ĠW inter
Ġper m
Ġf ault
12 5
x it
Ġint ellectual
ĠF ront
ĠI owa
S H
T ag
pro perty
J uly
Ġch ampion
ĠG ard
Ġt asks
Ġliter ally
Se lect
Ġheav ily
om atic
( -
Hand ler
s is
Ġgu idance
Ġcalc ulated
cl ose
ĠMc G
ĠTra ining
Ġreg istration
Ġcommon ly
Ġconsc ious
Ġde als
Ġeng agement
ĠPro cess
Ġhop ing
Ġg ate
wid et
R un
U RE
Ġv it
al g
Ġwat ers
Ġso il
Ġcerem ony
ĠNet herlands
Ġgen re
Ġinteg ration
as p
b led
ĠF a
ather ine
ult ane
Ġl ux
ĠD utch
Ġad min
olog ists
N ull
Ġm o
Ġrep utation
Ġsupp orters
Ġvers us
ĠF L
achel or
ĠKore an
sp ir
ck er
ĠTr ue
Re view
Comm and
Ġcru cial
R L
m eta
Ġk il
$ {
ĠLic ense
ple x
Ġexpert ise
ĠT an
ĠD O
\ {
T O
Ġint ention
r ating
Ġg ained
ĠF ather
Ġcol our
ĠM ove
r ator
Ġra w
Ġm ail
Ġret ired
ĠPort ug
ĠStud ents
Ġcut s
ĠL yn
Ġput s
ot te
Ġsc r
Ġdraw ing
Ġin equ
ef ully
St ep
at ial
ĠD or
Ġdis ag
ĠReg ional
US A
Ġcom ic
it ter
ĠG rad
Ġfall ing
Ġins ight
ut her
Ġch a
Ġgr ass
Ġas ide
Ġc rack
Ġexplan ation
Ġfew er
Ġbu ying
P ublic
Ġst ages
ĠL ie
16 0
Ġsett lement
Ġph arm
ĠM ars
Ġstru ck
F ree
Ġop ens
Ġben ch
Ġve get
Ġout standing
w hel
uss ion
ou st
Ġprom inent
Ġbe er
ĠE ss
Ġinterview s
Ġt ort
Ġsk ill
ĠW olf
ell i
19 30
aw are
un es
Ġmen u
ĠYou th
ri ver
Ġbrother s
Ġconstant ly
3 60
D em
L ike
J une
ĠDu ke
Ġhost ed
Ġsurv ival
ĠHer itage
ĠH IV
Ġfant asy
Ġmin im
Ġimpro ving
Un ited
Ġinn oc
Ġins ert
ĠAll en
Ġj un
ĠTur k
ĠFin ally
ĠCh airman
S pe
oc a
osp itals
ut ies
Ġatt ached
ĠThe orem
Ġdog s
Ġg ang
Ġst ored
in ch
R ight
ĠB ab
ĠL LC
Ġfall s
lik ely
Ġcompl iance
Ġfl o
ors hip
ont al
) }\
Ġviol ent
" ]
ent le
ĠArch itect
ĠK ansas
ĠIndust ry
Ġdest ination
IV E
ĠCh annel
F ind
Ġweap on
h ard
st ep
Ġinter actions
Ġpre ced
Ġb le
N on
ĠLim ited
Ġpriv ile
Ġconf ront
Ġmusic ians
ĠL as
Ġme ets
Ġadvent ure
Ġr ating
Ġde leg
ĠL incoln
Ġinvol ves
Ġmar ks
Ġreve als
ĠD VD
ug g
d ots
ĠP ath
ĠF ile
ct ic
in cess
cont in
e ffect
Ġres id
ĠO ak
197 1
widet ilde
t ag
Ð º
el come
ĠH ur
GB T
ust ain
Ġ( @
a us
N Y
Ġapprec iate
ĠAust in
Ġdemonstr ate
ĠC redit
Ġsome how
ĠE T
196 7
ur ches
Ġf irms
in ction
Ġsc ulpt
Ġpar allel
ou ble
end ers
Ġsurv ive
Ġtrans lation
Ġlaw su
ĠSp irit
Ġliber al
D ev
ot ion
ĠN atural
Ġsing ing
Ġrel ating
Ġsav ed
Ġmod ified
Ġeth nic
Ġar med
ars er
F T
ĠO bs
Ġal ert
TY PE
Ġarg ue
u pp
ĠFin ance
ĠVeg as
ĠB an
Th anks
Ġemer ging
Sty le
Ġmembers hip
Ġreg ulation
Ġequ ally
se cond
Ġocc as
ĠO tt
Ġcomp osition
Ġfant astic
d em
ĠB arn
Ġsub mit
ĠCapt ain
OR D
Ġwhere as
uro pe
W est
L ocal
f s
Ġassum ed
ĠAd vent
Ġsac r
ĠG arden
ing le
Ġshould n
w ords
or ous
Ġf ired
Ġform ula
Ġc razy
st an
j pg
Ġg rab
Ġs quad
Ġstrong er
) =\
Ġbatter y
Ġprior ity
s or
Ġdo ors
l ah
ĠPro p
arg o
y cl
âĢ¦ ]
asc ript
AC T
Ġgen u
ĠI M
Ġcolle agues
ĠP S
Ġrep orter
d el
ĠSil ver
ĠTh ank
Ġrad ical
Ġfriend ly
ER E
Ġdo ctors
Se pt
med ia
Ġfarm ers
Ġclub s
Ġcontribut ed
ad i
ĠN orm
Ġt y
Ġb oss
riv ing
Ġn urs
19 40
comm on
f ind
ĠMore over
Ġthe ore
Ġtick et
ĠG ene
ĠG il
ĠOnt ario
Ġmanag ing
Ġdecl ine
Ġqu ery
er as
} ]
Ġcl uster
Ġtri als
Ġoff ensive
Ġpre v
Ġprov en
ĠAfghan istan
V I
Ġpop ulations
ĠTenn essee
Ġf ont
ĠLeg al
Ġf ruit
ric ts
Ġang le
Ġpet ition
Ġrapid ly
col umn
Ġcons ervation
Ġoper ated
Ġshop ping
ĠN ature
ian g
ĠF BI
im ary
ĠMark eting
ĠHow ard
ĠOlymp ic
L oad
ĠG all
D an
Ġv ocal
ri or
b ec
ĠIndian a
N orth
ĠN ation
ĠSh ould
Ġs oph
Ġroad s
ĠE c
ĠR aj
ĠVict or
S l
ĠRec ord
Ġst upid
in ates
ĠL at
ĠâĨ Ĵ
Ġd ust
t ic
Ġcirc le
ay ing
f lix
ĠCom ment
at ar
ĠF A
ĠPl us
Ġt iny
Ġdis pl
; \
ĠF ive
P O
Ġb at
Apr il
ĠG ab
Ġ Ø
let ed
Ġwe bsites
Ġconcent ration
ĠPerson al
ĠD allas
ĠSm all
il ation
On ce
er k
ĠDet roit
" ),
it ivity
G R
ĠMor gan
b at
th m
Ġche ap
Ġex port
b ul
ic ing
Ġth in
Ġelectric ity
Ġsu itable
Up date
ĠMic hel
L ong
ĠTh ough
O ptions
S che
Ġtrend s
, -
Ġgun s
ĠEv ents
th rough
I LL
ĠLear ning
u ating
ĠMon th
Ġcare fully
Def ault
ist ing
Ġredu cing
ĠS port
u ana
ĠA C
Ġr um
} =\
w ich
ĠC reek
AB LE
Ġthreat s
Ġi Phone
ick ing
. -
b ow
igh th
Ġfore ver
Ġinterpret ation
V ersion
aur a
se curity
20 22
ent ity
Ġre aching
m aker
Ġto x
Ġmem ories
ĠR ub
Ġdevelop ers
ĠArch ives
hold er
cy cl
iction ary
Ġthe atre
* /
Ġdefe at
olit an
Ġd ict
Ġcollect ive
Ġsubstant ial
ĠPh ill
amp s
ag u
$ )
-- -
Ġt aste
ap ing
ol ph
Ġl ights
pl ate
m t
ĠCl ark
ĠOlymp ics
Ġd ies
ĠB ureau
Ġjournal ist
Ġhe nce
C ON
D esc
ict ions
B re
18 0
Ġcent ers
d irect
Ġtri es
Ġinter act
Ġden ied
P op
Ġrul ing
and ra
Ġmove ments
ĠDe an
ĠChrist ians
ĠStud ent
Ġregard less
ĠMuslim s
ail ability
ĠN ich
d escription
AG E
us cript
Cre ate
ord inary
ĠAm ong
ĠD rive
ib l
Ġg re
Ġpay ments
ĠD rug
ĠEar ly
Ġm it
athe red
Ġimpl ies
Ġelse where
Ġadminist rative
ĠGree ce
win ning
Ġn ic
Ġdem ands
b as
D I
Q L
Ġannounce ment
Ġowners hip
ĠM other
ĠBe at
Ġro se
Ġdiscuss ions
Ġunder lying
Ġpublic ly
ĠH al
U C
ĠInd ones
F actory
Ġinst ruct
Ġevery body
Ġdial ogue
Ġacc eler
Ġl es
ĠAl abama
ĠF ant
st op
Ġm m
ter y
F P
Ġw ra
Add ress
ĠMed ic
ateg or
arch y
Ġf urn
ĠO sc
Ġne ck
Ġre ven
ĠAll iance
ĠL iving
ele te
ĠH an
ĠCh ap
Ġt one
Ġcon j
Ġdim ension
be an
as ant
Ġcy ber
ab out
ĠN O
Ġl ists
or able
Ġcontract s
ĠJac ob
Ġunivers ities
Ġam pl
Ġmy ster
Ġag enda
ra ig
ĠCommun ications
Ġfl ash
B o
ch or
Ġhead ed
Ġk ne
ĠPr ice
19 20
an ning
ĠP L
Ġcomp osed
ĠC OM
m ates
Ġn odes
os ph
ĠCent ury
Ġaim ed
Ð »
ul um
co in
claim ed
Ġy ellow
ĠSwed en
Don ald
z y
cont rol
Ġp ushed
mon th
{ {
H ar
i ere
ĠPhilipp ines
ER T
Ġaddress ed
Ġst ability
ig e
Ġmain tained
Ġdes k
Ġ( (
Ġdes per
Ġground s
B ecause
Ġsens itive
over nment
Ġse ed
if ting
enn a
v it
ĠB alt
ĠD og
Ġre act
ĠG row
Ġcritic ism
au ge
Ġequ ations
L iving
Ġcent uries
ĠRober ts
eb ug
ĠAtl anta
um ps
ou ver
ĠP ier
Ġacqu isition
Ġre ferences
Ġdest ruction
Ġt ank
U ST
M R
Ġrestaur ants
Ġjud gment
Ġus age
equ iv
Ġo vers
! )
1 12
ag h
Ġord inary
per t
g ra
p ush
Ġinf ection
Ġder iv
Ġphotograph s
Ġrele ases
utr ition
Ġleg acy
ĠTh ird
ĠT rib
osc ow
Ġpar agraph
ick en
Ġcap abilities
R ober
ort s
Ġre cept
e ff
Ġb id
S w
ĠT ai
Ġfem in
ĠAr thur
Ġpen alty
Ġto ler
am ples
pl us
E ach
D ay
ĠSoft ware
Ġfranch ise
Ġra cing
ĠP ed
d eg
ut en
Ġapart ment
196 5
Ġregul atory
Ġant ib
Ġsign ature
Ġcomplic ated
E A
s rc
ĠSm art
ĠWh ich
P erson
Ġher itage
ĠNig eria
Ġsim ultane
Se cond
oun ce
ĠMay or
ect ions
Ġton ight
E P
Ar ch
Ġme at
Ġhuman ity
ĠPolit ical
room s
B uffer
Ġindust ries
IG N
Ġdr inking
F i
Ġro ots
ĠV in
u y
ver e
lement ary
) ^{
ĠQue ens
ater al
Ġcompens ation
h att
Ġf olk
Th ank
ĠLa ure
om as
Ġt urb
St at
Ġe ating
i ors
ĠAP I
ĠAr gent
Ġscen ario
Ġweek ly
Ġpol ar
r in
à ¸
ĠVill age
Ġvir us
ĠK ath
R ich
Ġloss es
Ġsign als
D B
Ġinvolve ment
d ist
ann ot
Ġunus ual
Ġr ational
d rop
Ġhad n
d am
ĠT it
Ġple ased
Ġfact ory
ĠMar ine
Ġevery where
Ġorgan isation
Jan uary
Ġtarget ed
rou s
sk ip
Ġtom orrow
ĠRes p
Ġc orn
ĠPh D
Ġconclud ed
ĠInd ex
Ġchampions hip
{ (
g i
ĠL anguage
Ġgener ations
Ġtr ick
ĠCont act
ors es
Ġperson ality
ĠAn ne
nd rome
Ġover se
igh ters
k it
ĠChrist opher
f ilter
t witter
D escription
ĠD ick
J ames
â Ħ
est yle
Ġb oot
ĠB uild
Ġag ed
ĠP ast
Ġh ack
ur se
Ġdisplay ed
Ġexec ution
Pres ident
ĠC rim
Ġsh ots
id em
ĠAl an
Ġw ing
P U
ĠWh it
Ġrequest ed
Ġp ace
end if
ĠMary land
List ener
ĠBru ce
Ġwin ners
f inal
ĠE DT
Ġrequire ment
abet es
Ġdis aster
Ġarg ued
ap olis
Ġqual ified
Ġra ising
Ġclos ing
A ng
Ġbl ind
Ar g
Ġind ependence
ol ving
ĠH ung
Ġpro secut
Ġbre ast
S en
d ers
Ġl oud
off s
n um
epend ency
i able
ch a
H R
M usic
Ġwe ird
ram a
A ccess
Ġchar ity
Ġgl ad
Ġsu icide
ĠBow l
w en
UR L
19 45
ĠStand ard
ic ol
Ġpub lishing
ist a
F ollow
Ġrespect ive
196 4
}^ \
Ġcon crete
Ġoff set
less ly
ĠH ous
ĠM ission
Ġaddress es
f ather
Ġport ray
b ad
av ed
9 00
w all
ĠO wn
ĠS ri
ĠKenn edy
Ġrecommend ations
con nect
ĠCast le
em ed
Ġch ap
Ġth reshold
Ġany more
Ġover whel
Ġpar liament
Ġconcept s
ĠP aper
. ~
W atch
Ġw edding
on ing
n an
Ġc m
fra id
Ġshe ll
Ġt ied
Ġjur isd
Ġbird s
ert o
}_ \
Ps i
ĠWith out
ĠAg ric
b urn
Ġra ces
Ġdirect ors
resp onse
S M
Ġhard ware
be ing
u z
Ġinter vention
Ġsc atter
P G
ĠC opyright
S k
Ġdesign s
const ruct
Ġco e
Ġcompet e
Ġref ers
Ġmeasure ments
ug by
sc ribe
II I
wit zer
pro v
ĠD ise
Ġanal ys
Ġrec ru
Ġcur ve
gl as
ĠSen ator
T im
ell ar
ĠF le
ibr aries
se ud
ur i
Ġestablish ment
Ġmoment um
Ġd ating
C OM
Ġlov es
ĠT alk
ĠG L
Ġinsp iration
im ore
Ġgr id
O rig
w ill
Ġa fraid
Ġdec or
anc ouver
Ġcooper ation
m aster
Ġth orough
ĠH ell
ĠM ess
ĠBl ood
Ġm ad
t ed
el ve
Ġp ul
ĠE ST
Ġwith draw
ĠT ext
ĠH old
Ph il
n amed
âĢĿ )
em ies
irl ines
ĠK a
Ġprov ince
Ġres ident
ĠIm age
M ENT
m ont
comm and
Ġdist urb
ĠSt ories
Ġinstr uments
Ġencou raged
Ġp odcast
ĠMc K
up date
Ġcor ruption
Ġpass es
Ġd owntown
Tr ump
ĠG un
W A
Ġanal yst
o a
ĠN ev
g ly
Ġent ering
ĠI L
B rit
o vers
ĠPol and
lah oma
Pro t
Ġpri ze
Q ue
text width
Ġeas tern
le ans
Ġmechan isms
Ġb ag
ĠMar ia
Ġstret ch
B undle
ac on
Ġir re
Ġp iano
ĠEp isode
Ġmyst ery
ĠAm endment
14 0
Ġun likely
Ġt ab
Ġrad iation
Ġad equ
Ġgovern or
P ress
ump ed
as hes
men u
Ġd ual
Ġview ed
ĠU ser
og a
Ġtown s
ĠJon athan
P I
quir y
ĠTerm s
ig rant
Ġstudy ing
B E
ĠCons ult
ĠU lt
Ġlog ic
Ġj azz
ĠT y
h y
s uch
Ġcompl aint
Ġh ook
Equ als
w ick
} |
od er
ER R
i op
f ly
r ass
Ġfocus es
^ +
10 2
Ġpass engers
im m
Ġconvent ional
196 6
ĠFurther more
ĠSt ew
ĠPrem ier
Intern ational
ĠS umm
// /
ĠCh air
Ġmonth ly
Ġperiod s
Ġl unch
am er
au x
im p
Ġattempt ed
Ġh ide
C ase
AN T
Ġt ale
ĠMiss ouri
witzer land
rop ical
q quad
f ont
Ġch airman
Ġtemper atures
ĠG ib
ĠTra il
Ġvert ical
Ġmist ake
ĠOrgan ization
ĠM and
out ube
ĠCr ime
ĠCl oud
Ġdram atic
F ilter
sem ble
l an
Ġsett led
ix el
ĠAr k
ĠInter view
Ġnov els
ĠL am
}\ ,
rate gy
I ES
per form
V ideo
w as
Ġin her
Ġb one
ĠPer haps
ynam ic
ĠD ur
Ġrespond ed
usal em
clus ions
Ġg ig
Ġw is
âĦ ¢
ĠFre edom
Ġreli able
Ġnorm ally
Ġter rible
Ġorgan ic
Ġrank ed
Ġbirth day
Ġa er
{ {\
} );
ribut ed
ĠWalk er
ch ant
Ġfavour ite
Ġmeasure ment
Ġliter ary
c over
Will iam
l n
ĠHar vard
Ġmach ines
Ġtransfer red
al ia
bar a
Ġf ought
st ory
ĠH it
omet ric
ĠCon vention
Ġb ull
ĠC ele
â Ĥ¬
ĠInt elligence
Ġopin ions
Out put
Ġres on
Ġb unch
Ġdec ent
ĠB ah
u ct
Ġpartic les
Ġrepresent atives
Ġs orry
10 5
em p
ĠC ou
Ġsuff er
Ġdream s
Ġorgan isations
s ur
ĠUn it
Ġad mit
sc ope
ter ed
s ki
Ġj ail
sh ot
Ġlaw yers
ir ates
bl ack
ut ers
i ative
Ġless ons
Ġunivers al
ĠR ound
if act
ph ony
e als
F unction
ĠS O
el se
Ġspe aker
Ġmin ing
Ġsp r
ĠPlan ning
ĠJ oh
Ġelig ible
rick et
ch ron
ĠPalestin ian
s in
Ġt issue
IN T
Ġsuper ior
j ud
F urther
Ġoff ense
the less
ol y
Ġd ad
Ġhand ling
ĠM om
Ġaw esome
D isc
Cont roller
ĠReg ion
ĠR ace
Ġvel ocity
Ġb in
Ġk itchen
Î ¿
Ġgu idelines
Ġwind ows
ĠK han
Ġs essions
ik es
g ments
ĠB M
ĠAnd re
ha ust
Ġmanag ers
ĠRep ly
Ġatt itude
Ġexpl oration
Ġgen es
form at
Ġinv ention
t ree
Oct ober
L ength
grad uate
12 8
ra pe
Ret urn
ĠP H
ĠG ary
Ġan th
Ġtem porary
In it
ĠL GBT
Ġspeak s
Ġconf ident
D el
Ġhelp ful
oy d
a ed
ĠAd ams
G reat
Des pite
R O
Ġh am
}) \
oun ced
em et
Ġf ake
Ġm oon
yth on
Ġpart ial
Ġab und
ĠC ert
ot ing
Ġclass ification
Ġbi ological
& &
Ġple asure
ĠS ac
Ġvis its
F ONT
Ġaff airs
Ġult imate
ĠNAS A
cos ystem
ĠPerform ance
val ues
M ult
ĠAg reement
cc a
Ġhead ing
Ġb ike
ac ent
Ġaccom pan
o is
l anguage
u h
ri ate
Ġhigh lights
On ly
Ġrough ly
Ġremark able
Ġde eper
ele ment
12 3
ob j
ĠH D
et ition
ene z
ĠP ur
enn y
st yles
C ent
ĠH oll
ĠComm and
s plit
Ġ< !--
B en
ĠM ath
ĠH ans
ĠA G
ru le
!! !!
ĠAnd y
ĠThom pson
Ġsh it
ĠEx press
am ous
Ġf inger
Ġt ur
ĠE ag
v ia
Ġeval uate
Aug ust
Ġvoc als
ush ing
pt ic
viron ments
n eg
ĠB uff
at ers
d est
ay out
lin ear
Ġdevelop ments
Aust ral
Ġun expected
Pub lished
et he
un ct
Ġwar rant
Ġl oyal
Ġin hab
Cont act
He alth
Eng lish
ank a
ial og
Ġt rem
um ph
Ġinst ructions
Ġguarant ee
Ġf ro
Ġvulner able
ĠL iver
Ġapp lies
ĠB ird
oth y
ar o
st ead
3 50
ĠSh op
T om
ĠR ow
Ġnot ion
Ġarriv al
Ġimprove ments
lem ma
Ġcomp act
back s
Ġphys ics
f i
ĠM un
Ġprepar ation
ĠN ash
Ġbl ame
r ates
Ġab stract
Ġdef ensive
Ġint ense
Ġmin imal
Ġtem por
Ġc able
ass ador
Ġincred ibly
g ood
Ġsh arp
Ġte a
ĠEconom ics
Ġprefer red
Ġthem es
jav ascript
ĠCon n
st ore
ĠTem ple
Ġhy brid
Ġmain stream
Ġretire ment
h ome
s creen
U se
Ġf est
Ġre plic
s che
F ull
ĠSt ore
ĠWe bsite
Ġlo op
su ccess
Ġobserv ation
ĠOr leans
im ony
Ġlow est
at tr
Ġcol ors
p res
ĠE mb
ĠDel hi
w p
Ġemot ion
Ġreject ed
d ale
r ons
Ġpublic ations
eral d
j an
Ġhyp othes
O p
Ġre ly
Ġtit led
ac cess
u ber
Ġst uck
Ġlay ers
Ġmind s
ij uana
Ġw ake
ĠS H
Ġrep ly
un it
T ree
ick ets
Ġdes ired
ĠO il
ĠM obile
ĠRe lease
cd ots
ant e
Ġwork er
ig ate
ill ance
B P
ut ical
Ġw ider
Ġn aturally
Ġsign ing
iat ric
ed it
ĠD omin
ĠLaw rence
Ġâ Ĥ¬
f rame
ĠJ ess
in os
lay out
Ġc osm
ern el
ĠR ab
ĠC ore
ron es
ĠS ource
ol ves
ble m
ĠC ell
ĠI l
ĠG ordon
Ġc ul
ser ver
ĠN BA
ĠRuss ell
Ġc ock
Ġjud ges
Ġdesign er
at ible
ĠB E
Ġrob ust
oen ix
Ġh ang
P ass
Ġsc oring
ĠH ills
ens ing
Ġdel iber
pro duct
the re
Ġiniti atives
hes is
Ġgreat ly
Ġfund ed
h our
P o
ort ed
we ek
Ġreplace ment
Ġfocus ing
AC E
ĠS N
EN D
F S
ĠW oman
z an
Ġar rive
Ġpromot ing
Ġg olf
oper at
Ġs ke
Ġf ib
. /
ĠC T
Ġb rown
Ġ url
ĠR ic
Ġqu ote
qu es
ĠInd eed
Ġattack ed
e ven
ĠP rivate
Ġequ ity
ĠMar vel
ost ic
level and
Ġc ogn
Ġl uck
196 3
Ġsm ile
Ġab road
ĠB or
Ġhard er
L P
Ġpl ain
: </
ard o
Ġdefe ated
ĠC ole
cont ainer
L ife
St r
tt ing
Ġident ification
ĠS pr
Ġfl oat
ĠT el
m i
Ġent rance
ĠSur vey
ipp i
Ġpost er
wide hat
ĠT OD
ĠN ative
Ġcomp rom
ĠAn na
ĠM ind
operat orn
10 4
Ġf ishing
ĠB rig
] ]
sec ution
ĠInt eg
ĠI ron
Ġdi et
ĠV eter
De cember
Ġd uties
app rox
ro ck
ĠM oscow
ĠS in
Ġl ad
ind ent
c f
}} (
- $
m ic
Ġdesc ript
op ic
S an
ĉĉĉĉ ĉĉĉĉ
ch ain
Ġb io
ĠK ate
ĠP ear
A f
ĠUp date
Ġe cho
d y
che n
ing ers
RE E
ĠC ape
ĠB h
Ġthe ories
math sf
ĠBrook lyn
operatorn ame
ĠP y
Ġcomplet ion
he et
rop y
Ġprodu cers
Ġco inc
ĠRead ing
ol i
N ovember
Ġsub stance
im ages
Ġland s
uc ks
M ain
ĠEx change
R ad
ĠM agn
Ġch ronic
A lex
s ystem
\\\\\\\\\\\\\\\\ \\\\\\\\\\\\\\\\
Ġj u
ĠSe ver
u pload
Ġess ay
ĠC atal
Q U
Ġ\ {
ĠCor ps
M ode
it udes
f ill
op les
Ġeng aging
out heast
Ġv oices
iffer ent
pt r
Ġstream ing
ĠGra ham
Ġrep air
Ġdi agram
ĠS D
in ar
st ack
Ġra cial
Ġnob ody
Ġbuff er
Ġneut ral
Ġanc est
ĠC ome
Sc ript
emet ery
Ch ina
Ġb ars
Ġfra ction
Ġas sembly
ĠB L
ĠFed eration
Ġpurs ue
ĠY an
ĠL ane
ĠW H
wh at
Ent ity
Ġly rics
Ġpro s
ĠArab ia
c i
d esc
Ġ* *
? )
Ġag greg
ĠSt ars
t wo
em en
Ġtrack ing
Ġp ione
Ġamong st
ust ers
ĠH ug
ĠL ater
AR D
ag ers
ĠS elf
Ġser ial
Ġsubsequ ently
S ur
Ġdiagn osis
Ġsub stit
' ).
T ypes
ĠAss istant
j amin
ĠS EC
Ġm ile
Ġterror ist
Ġf ed
Ġmet ric
Ġsignific ance
ĠJer usalem
ĠF C
ĠSe lect
Ġres idential
Ġimplic ations
Ġfl ags
( &
ĠBl oom
ĠC C
ĠMalays ia
od ox
Ġsc al
Ġold est
ĠVi ol
d ing
}\ \
Sept ember
ĠMot or
Ġc ited
are st
ĠUr ban
Ġst ack
ation ally
ĠCharl ie
b es
, '
Ġb orrow
Ġequ ality
ĠCor p
e lect
ĠMex ican
Ġg all
Ġsp ark
D id
Ġrare ly
Ġflu id
Or der
ĠW W
N G
s i
Ġgrad uated
ĠS ales
Ġun like
L eg
Su pport
Ġdesign ated
yl er
ct rine
ĠBe aut
Ġa ver
Ġstay ed
ã Ģ
Ġcelebr ated
ĠRet urn
Ġposs ess
Ġappoint ment
ace utical
ĠM as
ĠK ings
ĠR at
Ġwh ilst
ĠW right
Ġcitiz en
spec ific
L ear
Ġun con
Ġneigh b
rop olitan
10 3
ĠN elson
Ġvari ation
Ġvolunte ers
Ġw et
l ad
oc y
h uman
ĠBre xit
Ġfore cast
Ġaband oned
de velop
Ġg athered
} :
ĠMel bourne
ĠWar ren
Ġdes ert
Ġh ip
Ġing red
ik ing
Ġtrans actions
empt y
el ing
Ġpredict ed
out put
ĠM aterial
ant ry
ac ular
25 5
Ġdoll ar
Ġcomplex ity
ĠPro du
ĠInd ependent
pe ople
ĠP resent
ĠB ond
ĠG ulf
Ġinvest ments
le e
iss a
ĠC op
m ade
ĠB ull
Ġch at
Ġal ien
Ġcrit ics
**************** ****************
ĠHist oric
Ġign ore
ĠG R
But ton
Ġm g
Ġcond em
ze ch
Ġob l
Ġh ired
Ġcl othes
ellig ent
10 6
Ġaud iences
Ġdep ression
Ġth rown
iv a
Ġl at
hed ral
Ġfasc inating
Ġen emies
Ġbr ut
Ġpar ad
Ġart istic
Ġoper ational
ĠW y
look ing
ie val
Ġshort ly
book s
ĠN EW
Ġresc ue
Ġpromot ion
ĠD J
Ġg aming
ol s
Ġtrans c
medi ate
Ġass et
C are
ĠD ays
Ġbelief s
Ġh ill
ĠP a
Ġres idence
Ġgot ten
Ġceleb ration
. $
ĠP DF
Ġopt imal
ĠSim ilar
Ġport folio
sh ould
the y
N T
rac ks
in v
li ver
Ġjournal ists
Ġinflu enced
Ġg onna
M M
g reen
Val id
we alth
in stance
Ġpush ing
Ġed ited
ĠCL ASS
f ull
ĠA BC
Ġo x
> ,
Ġveter an
ĠJust in
Ġh ospitals
ra ham
Ġbl ow
} /
x space
//////// ////////
Ġpass enger
t w
Ġprem ier
ĠB Y
F inally
ot er
Ġhard ly
Ġthe ater
on om
id en
eli hood
Ġj ury
Ġdiscrim ination
Ġen orm
ĠVol ume
OC K
doc ument
ĠOF F
196 2
ĠB ron
Ġexam ine
rem ove
tt p
Ġmil k
Ġdepend ent
ic ular
Ġper mit
B el
p aren
Ġmed al
ĠD ragon
ĠL E
Ġsp oken
Ġco aches
iss ippi
Ġv on
o il
ke e
Ġr uled
part y
ĠC NN
AR Y
Ġsat ellite
ĠR achel
as i
ĠA my
ĠA le
ĠTok yo
c oll
P ack
Ġbi as
Ġdiv or
ĠR oc
Ġposs ession
ĠRog er
Ġphot ography
ĠMor ris
ĠR u
Ġper t
on al
Ġapp lying
ĠB R
L abel
Ġd uration
ĠSh are
ĠF ollowing
Ġleg s
S am
Gl obal
Ġj ack
ĠNor way
ail and
ĠPro perty
Ġriv al
Ġopt ical
Ġcl ock
ĠM E
ĠH ad
Ġdeterm ination
ĠElect ric
d r
Ġt ies
xi ety
S ch
Ġar c
le ep
ĠE le
A nal
Ġ[ âĢ¦]
H z
M art
ĠV ancouver
Ġextra ordinary
EX T
Ù ħ
ĠW i
ĠS witzerland
ĠIran ian
Ġinst ant
ĠP as
j e
Ġprint ed
ke ys
Ġmin i
Ġcult ures
ĠAl bert
T itle
is an
ym met
Ġcorre lation
ĠBe ing
ĠS oc
Ġex it
Ġmolec ular
om ed
R ow
P al
ĠH im
Ġacc um
ĠB es
ĠA thlet
Ġscreen ing
or ious
ĠB ishop
ĠKent ucky
Ġm ask
Ġbur ied
Ġhost s
ĠZ h
AT H
ĠD ak
asc ular
ĠBe ck
F OR
ĠGirl s
ĠS now
int s
vious ly
Z E
d ays
Ġen abled
Form at
ĠNet flix
ĠM oney
ĠT oy
ĠC ow
am ely
ĠLe vel
Ġcont rad
Ï Ħ
Ġper pet
ĠSte ven
d ict
Ġrom antic
Ġathlet es
{ }
ĠLe ft
ĠM C
ĠWhe ther
r us
M O
Ġview ers
Ġtalent ed
Ġuncertain ty
Ġsurv iv
Ġw ars
at abase
em ail
Su per
% ;
ĠMur ray
ĠS A
og ene
Ġ$ (\
Ġel der
ane ous
ows ki
Ġshe et
u er
Ġin ev
ĠH REF
Ġevery day
ip her
Ġenter prise
S ection
Ġc ow
W S
for ward
Ġtow er
Ġun w
Ġl ucky
Ġinteg ral
Ġsecret ary
ann on
ĠShe l
Ġdet ected
m ake
ik h
z o
pl an
Ġdecre ase
Ġins ights
ĠG er
Ġman uscript
Ġviol ation
Rober t
ef ined
Ġrestrict ions
Ġex haust
ĠRob inson
rid ges
ell ows
ĠOk lahoma
n orm
ĠP il
ĠO S
ic ut
ĠM ort
Ġrece ives
Ġbreak s
ann ah
su per
ĠD ance
ash ing
Ġsix th
Ġcomput ing
Ġnuc le
ex ample
ĠBl ock
R ob
od a
Ġrec re
Ġsc hem
ĠE P
s d
ĠS ud
b en
s ession
Su pp
Ġhar ass
1 18
g ression
ĠWeek ly
Ġc up
uc lear
Le vel
ID S
Ġicon ic
et ry
E urope
Ġb read
umer ate
Ġre verse
f are
Ġtem plate
ĠDe ep
Ġconv in
ĠL ess
Th ree
ĠCar ter
Ġp in
Ġimm igrants
Ġb old
Ġassum ption
Ġs ed
ĠRes ults
u v
Ġshould er
V ert
ĠUt ah
ĠUn fortunately
UL T
ĠE C
Ġw elfare
.. ...
Ġstat istical
Ġread s
Ġassoci ate
ĠAgain st
N E
P an
ric es
k h
ĠD ocument
Ġcred its
Ġfis cal
f ix
Ġd a
Ġemploy er
ĠP ope
Ġm ice
f red
ov ing
w estern
i ar
u ates
w s
Ġl ying
pl ant
ang a
Ġl ake
Ġcur rency
Ġnot able
IG HT
ge on
Ø ±
ĠComput er
V er
per or
Ġsupp lies
Ġt err
op ath
ĠIn novation
Ġlux ury
m ay
ĠHel p
ett ings
ĠPal ace
Ġprom ised
Ġthreat ened
ĠâĢ Ŀ
itche ll
Ġprem ium
edd ed
Ġfab ric
Ġsc ream
ĠRet urns
osp el
f iles
Ġs ons
ĠC hen
b est
s ky
Ġdire ctions
à ¦
Ġ{ @
Ġcon spir
Ġinstall ation
M edia
Ġconstraint s
ĠPh arm
ĠThe ater
st at
Ġalleg ations
ĠC art
ĠS i
b efore
Y ear
co very
r ish
Ġbare ly
b ling
n als
Ġelect ro
Ġcan cell
Ġcare ful
Ġm unicipal
ĠB O
Ġt ips
ĠMe eting
Ġrom ance
Ġagric ultural
ĠAnton io
Ġrid ic
Ġwhe never
Ġwarm ing
m outh
Ġimpact s
m al
in th
Ġem power
ail ing
ĠLe ave
he im
ĠPub lishing
Ġafford able
ĠDub lin
secut ive
ut ter
v ised
Ġsupp ose
t own
Ġk iss
Ġpe er
< ?
Ġexpand ing
Ġcampaign s
Ġt ill
Ġbound aries
ch arge
Ġpolit ician
Ġden ote
Ġev ident
Ġconf lic
Ġsepar ated
Ñ ĥ
Ġisol ated
196 1
ĠNe uro
Ġstruct ural
M B
Ġreview ed
path y
ij ing
ass y
Ġp y
ĠN ik
ĠK al
Ġcontrovers ial
Ġpass age
R T
Ġclaim ing
Ġ& \
Ġab ortion
Ġin clusion
Ġe ase
Ġinequ ality
Ġpaint ings
ov es
Ġcontroll er
ĠSus an
im ated
ĠO pt
Ġke ys
Ġdist ricts
Ġ ::
Ġstrugg ling
Ġdev ast
O k
Ġin cent
. ),
Ġsee ks
ĠDou glas
Ġprot ests
h ot
Ġlif etime
Ġen vironments
Ġalgorith ms
Ġang ry
ric ane
Ġconsider able
ĠOffic ial
Ġent ries
Ġad s
Ġparticip ated
Ġdis order
Â ·
Ġret ro
Ġminor ity
ĠB urn
Ġre vers
Ġcontain er
}^{ (
ar th
a ired
ĠN eg
Ġcomput ers
ĠM yst
E p
F ound
ĠT ower
l ined
ĠR id
Ġact ively
Ġspeak ers
Ġd rag
Ġengine er
comm un
ĠB us
Ġemphas is
d x
ĠHill ary
ĠG ill
11 1
ac les
Ġent ities
olit ical
Ġprodu ces
Col umn
ol en
ĠN E
Ġd il
Ġinv al
ac co
P RE
ĠO K
ro le
`` `
Le ave
ot ive
ĠLu ke
Ġexpl oring
Ġinf in
Ġactiv ists
Ġlawsu it
qu ire
Ġint ensity
const ruction
ĠI an
Ġe cosystem
ĠH ence
ĠB ased
Ġloc ally
Ġp ounds
ĠPl ant
19 18
Ġpo em
Ġaccompan ied
Ġcol lections
ĠLem ma
ograph ical
F in
Ġx ml
f il
_ .
ĠH ope
ĠHist orical
ĠA qu
Ġintegr ity
ĠSy rian
ick ed
Ġexam ination
Ġh ung
ang o
gg ed
Ġreported ly
M al
Ġven ue
point s
fl oat
b ian
Ġrec ruit
ĠCre ate
ce ive
Ġg entle
ĠT ro
ĠAl ice
Ġlab our
N ames
ĠIns urance
et ics
Ġmount ains
Ġatt ending
ĠG ram
cis ely
Ġpr on
Ġhead quarters
Ġche st
cit et
Ġf old
ĠG iven
Ch ange
un ate
Ġdo zen
Ġmatch ing
ĠPub lished
Ġst em
Ġcl othing
Ġok ay
ĠLe ban
11 5
Ġbeg un
Ġex clus
ĠChampions hips
Ġch urches
ĉ Ġ
li est
Ġres olve
Ġr ally
s a
Ġdifficult y
ĠM ust
ĠIn sp
Ġed ges
ĠWork ing
ĠTurk ish
st d
ĠR ain
z es
Ġm ood
m ate
Ġc ust
Ġprepar ing
Ġl ung
Ġt ie
Ġst eal
Ġdisp ute
ister ed
nt il
he ro
Sh ow
ĠVal ue
ĠB art
Ġdisc ount
Ġcon gress
Ġrail way
ric ulum
Ġvent ure
ĠClin ical
Ġmod es
Ġman ifest
ĠD a
Ġmeaning ful
B ased
Ġagre ements
Ġregard ed
Ġsome body
Ġsim ulation
Ġf t
cl oud
on i
ĠE V
ĠMarsh all
own ed
N one
ĠB uck
ĠF em
âĢ¦ âĢĿ
Ġav ailability
Ġcon sole
s ome
erv ing
ĠStew art
Ġg ear
ber ry
param s
ĠC leveland
Ġd iver
ĠJenn ifer
Ġmain taining
ĠP oll
ĠCreat ive
ĠStud io
ĠLeaders hip
ĠCol omb
ĠI C
ĠGu y
g raph
Ġn an
Ġf ate
ï ¼
Ġs izes
Ġobser ve
A v
Ġin ches
N O
Ġproceed ings
ĠLouis iana
Ġemer ged
Ġmus cle
Ġinst ances
Ġmil it
Ġde put
l ie
ĠH amp
ĠF iction
ĠSing h
ok er
or iginal
ĠCamp aign
Cont rol
Ġexp enses
S W
ĠC ry
ĠD est
Ġse cre
av an
ĠRes erve
Un it
Ġrepl ied
b et
ĠR ules
ĠWrit ing
ĠT a
Î ¹
Pro cess
du ce
ĠPat ri
z ens
ĠJ ava
ffic ial
ĠCh amber
Ġrefuge es
Ġprogress ive
Ġcommun icate
} +\
end or
rape ut
C ap
ĠPhil ip
ĠCont ent
Ġexhib it
oc hem
mark et
h or
AS E
Ġth irty
ĠO cc
s burgh
Ġdo se
T rack
Ġconstit u
bre aking
Ġs alt
id al
ra ctions
ro ot
Ġpre cisely
L aw
k g
ĠIss ue
Ġb inding
Ġcont ents
Ġpres um
Â »
Ġp ic
u is
ĠOr th
Ġep ic
Ġb ab
Ġappear ances
Ġtra iler
L ayout
Ġremov al
Ġst ere
ĠT ob
Ġover come
ĠD al
act eria
ĠV ersion
M I
face book
ol o
( {\
m ir
Ser ver
Ġgr ants
J ack
ĠFrank lin
Ġsect ors
mat rix
G reen
Ġsp atial
ĠPort land
ĠOr ig
B D
ĠS ustain
ĠRe form
Ġfor um
Ġcas ual
Feb ruary
Ġal gebra
r ise
Ġb ene
ĠM os
b oot
ĠCol on
Ġdatas et
Ġcam eras
iment al
Ġh ub
Ġan ger
Ġtheore tical
Ġal umni
ï »
ĠW ard
ib bean
Ġimp ression
Ġsurround ed
ĠCamp bell
Ġwor ried
Ġpat ent
Ġwor ship
ĠK ids
ĠDep uty
ĠSch ol
}} _
ĠN ort
Ġr anging
Ġst yles
ĠBrother s
Ġcoll apse
Ġst unning
ul us
Ù Ĩ
Ġm eth
ĠMov ies
hatt an
xy gen
Ġelect rical
I AL
w hen
Ġfall en
Ġrepe at
Ġexecut ed
Ġen ables
ĠClass ic
Ed it
riv en
ams ung
Form er
Ġwant ing
Ġlimit ations
Ġrob ot
Ġequ ipped
Ġs aving
ĠLe ader
ĠSt ev
ĠDen ver
" ))
F ollowing
T ask
Ġun em
Ġdef ence
ĠBre ak
Ġrh yth
Ġterm inal
Ġmax im
gl obal
qu is
F ilm
Ġart ificial
l oc
Ġg host
Ġdim ensions
Ġprotect ing
if ice
W ar
Ġt ip
ĠInd ians
at on
A K
av el
min ute
T arget
Ġtra ce
B et
Ġsuggest ing
Ġconvers ion
D ist
Ġas c
ĠBoy s
Ġfle et
in burgh
ĠB ed
ĠProf essional
Ġn a
ĠBalt imore
ĠJ oy
Ġprote ins
= {
ĠEv ans
ĠK night
Ġproport ion
19 48
ĠStr ateg
ĠA ren
G ame
ĠG as
A U
Ġsimultane ously
Ġattract ive
Ġtra ins
n atural
=" -
Ġpromot ed
ĠIndones ia
ĠFriend s
ir s
p iece
ĠAnt i
10 8
Ġt ables
ĠLiver pool
f old
Ġstri king
r ors
ĠD ra
f ish
Ġcal endar
Ġparticip ating
Ġp uzz
p read
ST R
ele ction
Ġcon secutive
Ġgl ob
Ġatt ribute
oust ic
at ical
is ons
class es
Ġm ock
it ual
ĠOsc ar
ound ing
ĠTre as
Ġlif estyle
S N
b ot
Ġb ran
ĠRe le
Ġj ew
Ġpath s
Ġansw ered
B B
00 1
ĠC ould
ĠC lick
Ġfrequ ent
ol ver
Ġra pe
Ġdis abled
ph ones
ub ble
ĠB os
ĠHigh way
Ġp airs
ir k
ĠC raig
ĠStud ios
ĠPri or
Ġadvert is
A E
re ens
Ġenh anced
ON E
Ġl ady
ern and
Ġg ross
ĠCl ar
ĠThe ory
Ġpre vention
Ġsure ly
ĠF IG
ĠSh ar
ic ons
Ġmechan ical
Ġem ission
in stein
Ġt we
rupt ed
Ġv ibr
Ġtem ple
Ġign ored
Ġdomin ant
Ġjun ior
ĠAl tern
!! !
ond a
Ġg auge
W rite
st age
Ġmar ine
Ġmor ph
B i
ĠK y
ĠSt re
Ġwarn ed
enez uel
Ġtravel ing
iv als
Ġbank ing
c ies
Ġut ility
b id
om er
am l
195 9
ĠS oul
ig ion
Ġsm oke
Ġlist ing
Ġsh adow
ĠC IA
Ġw rest
ĠC lear
ĠComm ons
ĠL ag
Ġterror ism
Ġch ances
Ġpropos als
av al
Ġ- \
pr ison
19 44
Ġconvin ced
Ġb om
c ases
Ġha z
H C
cl ick
ĠP ap
Ġdem ocratic
ĠWal ter
Ġoper ates
Ġconsist ently
ĠBl u
Ġtrad em
ĠH aving
Ġens uring
ist ence
ĠF al
ĠJim my
Ġwire less
} -\
Ġsatisf ied
Ġbl ank
( [
irm ingham
Ġmanufact urers
Ġpri est
sp ring
Ġcapt ain
anc ell
Res ults
ĠC itiz
Ġ[ [
ĠB aker
10 7
Ġf ails
Ġl obby
ĠR ule
Ġeng ines
ig g
Ġmay or
Ġpan els
Ġut ter
Ġconvert ed
Î ½
Ġsil ent
D ocument
ĠW ould
l ades
Ġax is
Ġsupp lement
Ġwild life
child ren
Ġob st
st able
Ġemot ions
set t
F il
ĠL anc
op es
25 6
ĠLeg isl
ĠC ultural
Ġoccup ied
ides pread
ĠC ass
be at
19 39
m other
Ã¡ n
Ġland ing
Ġseem ingly
ĠInter est
Ġph rase
ram s
w eg
qu er
Y eah
) /
he art
ĠApp lication
Ur l
Ġdet er
Ġgr ate
] $
Ġrout es
Ġp ill
Ġimm un
Ġtele phone
Ġpsych ological
ĠFor ces
cept ions
ĠQu ick
op ter
ĠAl ber
v m
W he
h ind
out ing
est y
Rec ord
o op
Ġlov ely
ĠL isa
ĠMiss issippi
Ġper mitted
ĠC over
Ġast ron
Ġbreak fast
Ear ly
writ ing
ĠL ang
Ġenthus i
m atch
Ġsil ence
ab ling
back ground
ĠWay ne
W omen
ĠE state
Ġreflect s
( _
ĠS ide
Ġm igration
ĠPr int
Ġb ills
Ġnegoti ations
H D
ĠM ason
ĠN at
ĠR ap
ĠN ear
E mail
ĠĠĠĠĠĠĠĠĠĠĠĠĠĠĠĠ ĠĠĠĠĠĠĠĠĠĠĠĠĠĠĠĠĠĠĠ
t im
ĠJ azz
Ġpartic le
. :
p ur
Ġli ability
Ġre con
ĠMet ro
Ġcompos er
et al
or ient
en umerate
Ġb its
Ġel ite
Ġim pe
ol t
end ix
ĠT ar
ri k
Ġm art
IM E
Mem bers
ĠAn c
b ridge
Ġagric ulture
ĠC E
Ġinnoc ent
ass ion
paren cy
Ġsh ame
Ġto ken
10 9
ri um
O ld
Ù Ī
~~ ~~
Ġhom eless
Ġt weet
ĠTele vision
Ġdevelop er
am an
ĠBr un
ĠAl bum
\ "
Ed itor
Ġpre val
Ġlight ing
ĠS el
Le ft
Ġclass ified
ĠBroad way
ĠN BC
Ġd ying
Ġint rig
our t
Ġnav igation
g age
Ġroy al
ĠT s
im s
Ġim aging
Ġtext s
b ool
th a
| ^
Ġrepeated ly
Ġst adium
ĠHun ter
Ġj et
id ency
ĠK az
Ġc ir
ĠB io
ĠS ony
uss ia
Ġout er
Ġdef ect
195 8
unt ed
oc ate
ĠCons ider
Ġsearch ing
ĠE lection
w he
ĠAdd itionally
: "
Ġmet ers
st rap
Ġrefer ring
Us ing
ĠCh ile
om ing
ĠCont ract
Ġtax p
\ ,\
ĠI ce
Ġneigh bour
ir ts
Ġconven ient
ĠHawai i
Ph ot
Ġcount s
Ġconvers ations
augh ters
Ġhero es
B as
}} {\
akes pe
ist ically
ĠL ad
Ġfoot age
ĠIS BN
Ġphenomen on
ĠCommission er
oid s
J ul
Ġg allery
Ġbu ck
Ġarrang ements
ĠF ame
Ã© s
ĠW IT
Ġpl ug
ĠColl ins
F rame
Ġor th
ĠK rist
ĠSch olar
the orem
ĠN othing
Ġbe ings
s elling
Ġsp ots
orne ys
S ym
ĠPract ice
ud a
Ġnom inated
Ġvolunte er
ĠMad ison
s end
ĠM eg
ĠIn n
ĠN eb
Ġqu ad
Ġ[ ]
ĠBl ues
Ġexam ined
Ġtr ump
Ġkn ock
b ird
ose x
chn ology
Ġd rew
off set
Ġis lands
ĠBat man
item ize
ĠSe an
Ġident ical
ĠOper ations
ĠB oe
as ma
Th rough
ĠBet ween
Ġn ut
Ġdeliver ing
ĠL aura
B usiness
akespe are
ĠDe b
Ġr anks
Ġkil omet
h ops
Ġn amely
Ġinter active
Prov ider
B ro
Ġsing les
++ )
Ġdecl ined
. ]
-- >
ĠPh oenix
Ġh ockey
Ġdis put
ĠV ent
ĠS W
V P
ĠCo al
Ġman ual
O UR
in ternal
Ġtest imony
ĠI de
Ġinst ruction
Ġfound ing
Ġpub lish
Ġrestrict ed
Ġpublis her
r ays
Ġsh ops
ature d
Ġinvestig ated
t age
util s
id ays
iv an
Ġde lete
Ġh orses
ĠTh ailand
ĠInvest ment
Ġbul k
Ġpres erve
ĠM itchell
ĠUnivers al
ĠA verage
Ġph ones
Ġl en
s up
mod els
Ġth ro
ĠBar bara
ĠP red
ĠR and
ĠDown load
v ation
ib li
Ġalleged ly
ĠT itle
z h
eng ine
t ml
ĠS ometimes
195 6
ĠSp ot
B oth
al so
ĠF er
ĠRes ource
19 00
it i
Ġgl obe
âĢ ħ
ĠKen ya
Ġlab els
ĠEm ploy
ĠPark er
intend o
u ce
Ġemploy ers
Ġconclud e
em ption
Ġschol ar
ĠM uch
ĠSt rategy
in ely
Ġwis dom
y outube
Ġatt ributes
ĠCharl otte
Ġc rown
Ġres erve
au c
f amily
ged y
Ġpre st
ne q
Ġpr ayer
P i
Ġf ool
play er
Ù Ĭ
ast ing
Ġcult iv
Ġstop s
ous es
ac o
Wh ite
Ġfl ights
ĠH ost
M iss
Ġal arm
Ġimm une
Ġpopular ity
Ġcomp an
ĠPro duction
Ġearn ings
Ġmet ab
ĠJ u
S y
H ost
Ġl ip
Ġrac ist
Ġp ig
ĠConnect icut
Ġor al
le tt
En ter
Ġrequ iring
Ġentreprene urs
ĠA aron
ĠOper a
ĠV ery
Ġobject ives
ĠJ en
ĠB att
Ġsu gar
Ġenorm ous
ĠB it
on z
ĠSam uel
Ġf ur
Ġmanufact urer
H ave
Ġ( -
Ġm ere
ĠE R
ul u
Ġcourt esy
ens on
Ġhol es
ement ia
Ġadopt ion
Ġm apping
ĠTra ck
Ġachieve ment
om es
Ġcou rage
Ġprom ises
sh ore
Ġm ic
Ġ& =
ict ure
Ġover t
ul ator
195 7
ath on
ed ly
Ġtw elve
W idth
ĠT un
Ġtour ism
Ġsens or
Ġfl ux
k et
M icro
Ġg ard
Ġf ert
ĠBen jamin
Ġam id
Ġforg otten
ĠA the
Ġo w
ro se
Ġcert ificate
pro file
ĠC hel
og s
An n
cl ip
A ir
Ġdis k
ĠJun ior
ĠAct iv
ie ve
vent ions
ire ction
requ ire
ĠBelg ium
ĠT ru
J apan
itte es
Ġrece iver
Ġover l
Ġpr ide
ĠC BS
Ġjurisd iction
Ġtrad itions
Ġconsequ ence
Ġt ons
ant ed
Ġfl ows
Ġres ign
) }$
Ġmir ror
Ġm ath
Ġlic ensed
ut t
Ġset up
ĠBar ry
M ac
S em
ĠP eters
Ġrac ism
Ġbur den
ĠSt orm
Ġconstitution al
ess ment
ĠH end
Ġmagn itude
ĠD eg
Ġh itting
ĠC ars
Ġob j
Ġadapt ation
ĠT ree
A ud
Ġw idespread
Ġeffect iveness
M il
Ġpoll ution
ĠF el
iz able
Ġex ch
uk i
ĠIs a
ĠRes erved
ĠC zech
Ġtack le
="../../../../ ../
Ġpregn ancy
Ġcorrect ly
Ġcon vention
ry ing
' $
G S
Ġthere by
ĠB ou
ĠCirc uit
ĠChristian ity
Ġc ensus
ĠSt op
ĠBe ijing
b n
ĠO d
Ġun ve
Ġag gressive
ab ad
D D
ĠF u
C ity
ĠAut o
Ġsurv ived
Ġunder ground
ur u
ĠB rew
Ġworks hop
ĠMarg aret
ĠSu ccess
T T
Ġy eah
Ġburn ing
ĠR isk
ĠPl ayer
Ġkey board
h l
ĠB illy
mod al
ĠG ot
Ġco aching
ĠP el
sc r
est one
ĠJohn ny
ĠChall enge
Ġfil ename
Ġcomp eting
Ġinter val
Ġmass es
ty pes
", "
dev ice
P eter
Ġde emed
ĠF ollow
Ġc inema
b us
ĠG race
param eter
Ġdescrib ing
Ġident ifying
Ġt ar
Ġaccom p
Ð ²
ĠAb d
Ġlabor atory
ie v
ar ity
Ġh ire
p in
19 55
D i
Ġse ar
Ġup set
="../../../../ ../../
og an
Ġf oss
trans form
Ã© e
Ġup grad
Ġm arch
Ġpip eline
Ġout door
Ġarrang ed
Ġphys ically
t ains
Ġres ort
ĠEvery thing
L S
ĠPer ry
ĠRail way
Ġsh r
Ġload ed
Ġdocument ation
iss ance
Ġcompl aints
Ġch amber
Ġattempt ing
Ġit er
ĠMag ic
ĠE li
ĠCrim inal
Ġdispl ays
ĠCar ibbean
Ġwal ks
Ġexclus ively
ĠG ate
Ġarrang ement
ĠCh ron
ĠLiter ature
Ġsoc cer
or us
ĠO range
ĠImp act
ĠTai wan
Ġcur ious
Ġan xiety
Ġd ated
ĠOr chestra
Ġre actions
othe rapy
Ġoverse as
ĠMan hattan
Ġsy ndrome
He ight
ĠRob in
ĠPut in
â ĪĴ
w alk
am med
Ġdro ve
Con f
Ġlegisl ative
) +
Ġkill er
ĠP arent
Ġp up
Ġt ension
Ġall ies
ĠF alls
Ġmusic ian
ĠB ody
Ġindic ating
b order
Ġfail ing
ĠC old
19 47
ĠK am
Ġmar ijuana
M AN
Ġam endment
bor ough
Ġmyster ious
e conom
h ill
] \
ĠFant asy
ick er
ĠP ant
Ġ! ==
Ġm es
Ġbe am
con duct
Ġgovern ance
i pt
ac re
Ġvirt ually
D om
Ġw age
Ġm ouse
ĠMove ment
pl ane
Ġem bar
ari os
ĠS M
Ġpregn ant
L D
p red
Ġconv icted
ĉĉĉĉ ĉĉĉ
ĠDemocr at
En c
ĠH E
Ġveter ans
Ġautom atic
Ġsusp ended
Ã £
Ġte eth
ĠOr iginal
Ġbrief ly
Ġcal m
Ġg est
Ġhand ed
ĠGr iff
Sp ace
ĠD R
ĠC rown
Ġdev oted
Ġle tting
re ach
Ġg race
Ġsequ ences
Ġle ts
enn ial
Ġref lected
ĠAn aly
ĠL anka
ĠAl aska
ĠMach ine
ĠM aj
Ġspecial ist
Ġin duced
P DF
ĠSt ra
Is rael
L Y
ĠP ra
Ġcharacter istic
Ġr iding
ĠN i
Ġi P
ĠDe al
Ġsatisf y
ĠK ind
ĉĉ Ċ
ĠCom merce
Ġrot ation
Ġn erv
ĠV A
no indent
ĠNC AA
ĠIn v
Ġc odes
Ġcon form
ĠIm pro
Ġp ump
IN D
AT A
ĠEx hib
ĠG ov
C ache
ot ton
Rich ard
Ġg ains
Ġb orders
L ive
Ġre ct
b ie
Ġlegend ary
ĠC S
Ġlo ans
Ġdep ict
Ġdriv es
ĠG ray
im mer
ĠI R
Ġbut t
ĠGal axy
Ġass ass
ĠSand ers
ĠM ade
Ġaccept ance
ĠDak ota
ri ors
OR K
Ġgather ing
iz ers
r h
C ategory
Ġlegit imate
art ifact
re ference
ĠAust ria
g ow
ĠW a
od ium
ĠFac ulty
on ies
ct x
z one
ĠAv ailable
w oman
à ®
ĠEd inburgh
Ġmin istry
ĠC er
ĠL oc
Ġdom inated
ĠJ our
Ġadj acent
th an
Ġche cks
Ġarbit rary
Ġtouch down
Ġcar ries
Ġb g
F ore
ter ior
' ),
Ġsp ir
ĠN ep
Ch ris
b uffer
ĠS ay
Ġab ilities
ĠL ost
ĠKe ith
Ġearth qu
qu ality
19 17
$ }
ch ing
Ġless on
Ġcheck ed
f ers
Ġfl owers
ential s
ĠFred er
Ġcl im
Ġhum or
Ġper ception
Ġpers u
ĠF ab
os ity
Ass oci
par se
yn om
H as
T otal
it ol
Ġem ails
Ġsumm ar
Ent ry
Ġexplicit ly
Ġrad ius
lades h
ĠW onder
Ġcry pt
Ġcont rary
Rel ated
T ake
Ġt ired
Ġmed ian
Ġgenu ine
v space
ĠLear n
Ġactiv ist
ys ical
Ġaccompl ish
alt ies
ĠW ikipedia
Ġcar rier
ĠMar ie
Ġn ights
Ġfacilit ate
o ft
Ġscient ist
Cont ainer
sp ot
ym e
id ae
Ġboard s
#### ####
Ġanim ation
Ġsole ly
AS H
19 41
pro f
Ġsav ings
he alth
ĠSwed ish
Ġcan cel
qu ired
j ar
Ġbox es
Ġprom ising
Ġprof ound
ĠJ ob
ĠTh ink
ĠSumm it
riv ial
Ġillust rated
Ġjo ke
19 46
}} }
ĠAb u
ï» ¿
h ave
ĠExper ience
Pl ay
field s
inter face
Ġexc it
all ow
, ...
ategor ized
Ġcomp elling
un ting
Ġdam aged
ĠBase ball
ĠT ask
Ġsustain ability
Ġcom ed
Ġso vere
ION S
Ġl aser
Ġh ier
ĠSh an
Ġprison ers
Ġsoph istic
Ġinvestig ations
~ $
ĠA LL
Ġview ing
Ġin aug
ke ley
ĠSte el
Ġsepar ation
ĠMur phy
I RE
h al
ĠM aine
ĠPr incess
) }{
Ġn it
ĠPitt sburgh
Ġrece ption
Ġaccept able
ĠArgent ina
th al
Ġconspir acy
Ġexception al
Ġmem b
Ġor b
Ġtim ing
Ġvill ages
ĠG olf
ĠF ight
Ġtum or
Â Ń
Ġsh oes
Ġann ually
ĠMe anwhile
ĠFa ith
Ġdis h
he ld
11 4
Ġtrans parent
Ġste pped
Ġstay ing
ĠAr ray
ard ing
Ġcall back
her ic
Ġm os
ĠHT ML
Ġbroad er
195 4
Ġconnect ing
c in
Ġnumer ical
Ġpaint ed
Ġtrem end
ĠP rad
Ġdepart ments
Ġdi abetes
Ġim posed
com plete
Ġtreat ments
Ġsens itivity
M ad
Ge orge
Ġme al
19 42
ĠW ang
Ġconscious ness
Ġstead y
ĠAl b
Ġsp an
Ġrout ine
Ã º
ĠE D
f lu
ra ined
Ġpred iction
ym ph
He ader
Ġrat ings
Ġc ous
Ġimportant ly
Ġsurve illance
ĠL arry
Ġaccount ing
friend ly
Ġtherm al
Ġgrate ful
ĠU g
ari able
Ġdeterm ining
u ke
Ġpassion ate
ĠSchol ars
h space
Ġauthor ized
Ġexp ense
Th ose
AT O
Ġann oy
ĠF ine
L ondon
9 78
ĠA B
ĠSol utions
ud ge
Ġrep orters
Ġm ater
ĠP ent
Ġvol unt
N ov
ĠS ad
Ġapp ar
ĠUn iverse
Mod ule
p ot
Ġst roke
Ġg ri
Ø§ ÙĦ
Ġhousehold s
Ġsc andal
ĠHous ing
Ã «
v als
ĠN HS
styles heet
Ġdes erve
c lear
Ġne ur
Ġdifferent ly
Ġind epend
ĠB aby
Ġdiscuss ing
Wh ich
ĠĠĠ Ċ
Ġdef ic
ol utions
ĠM asters
× Ļ
Ġwond ering
Ġ _{
St and
Ġking dom
S chool
ĠJer ry
ĠNig er
ĠTransport ation
ĠR an
Ġcomp ly
Ġcho osing
ĠCam eron
ĠH us
Ġs hed
mult icol
Ġopp onents
Ġbur st
Ġanalys es
Ġinv asion
19 49
bor ne
arg ed
or er
Ġhe lic
Ġeconom ics
ĠGover n
g un
c p
ĠL uther
ĠB apt
n n
Ġlog o
ĠSol ar
ĠGuard ian
al ph
B ill
Ġdis ability
ĠIndust rial
Ġpro l
ow ell
Î µ
Ġn ose
ĠArch ive
Ġa est
Ġeval uated
Ġpart ially
M us
Ġp seud
Ġoverwhel ming
ĠDise ase
}} _{
Ġign or
Ġvacc ine
? :
inc ial
ud son
ĠG ay
Ġconf used
writ ten
re port
Ġe igen
Ġdo zens
In s
pr ises
Ġoccasion ally
Ġb inary
P osition
Ġl ens
Ġtransl ated
Ġsan ctions
Ġinstitution al
ĠĠĠĠĠĠĠĠĠĠĠĠĠĠĠĠ ĠĠĠĠĠ
Art icle
ĠL ot
Ġexist ed
Ġl ib
com fort
uck er
e enth
re ck
Ġl iv
Ġconsist ing
Ġprof its
ĠC row
act ic
Ġob sc
Ġbene ath
um ar
Ġfund ra
w ait
ĠF ellows
Ġincorpor ated
Ġwhere in
ph ant
Ġcharacter ized
ĠEnter prise
u um
Ġsh ipping
Ġad mission
Ġpost ing
ĠProv ince
Ġf ingers
ra h
all ing
ĠSt age
Ġm s
ill o
Ġflex ible
Ġfood s
Ġmist akes
Off set
Ġap olog
Ġ ion
P ower
ell ers
le en
Ġim per
F IG
Ġd ancing
Ġprec ise
il ib
ĠDirect ors
Brit ish
z ero
ĠTh or
Ġtransl ate
iv ic
Ġremember ed
Config uration
Ġam end
Ġpar ks
ĠTurn er
F iled
ĠP un
ĠUp dated
Ġheart s
int age
multicol umn
Th read
Ġgener ating
ĠCommon wealth
view s
Ġstri kes
I X
Ġcre am
ĠG round
ĠG M
Ġcross ing
Ġestablish ing
ĠG OP
Rep ort
res ource
Ġres erv
Ġdis orders
11 6
Ġaddress ing
ĠA ve
ĠUn c
Ġany body
om i
ĠU RL
Ġoper a
Ġim prison
Ġt ape
il ateral
W H
Ġenjoy ing
ne cess
Jo in
z i
ĠTr uth
ier ra
ĠC her
ĠS ure
doc s
Ġsa ke
P os
Re ference
Ġsal ary
ĠNe il
ĠReport s
Ġencourag ing
r ators
p ay
ocol ate
2 20
E lect
Ġappear ing
Ġmut ual
ĠB irmingham
le ading
ĠTechn ical
l arge
Ġfollow ers
ps y
ĠDe cl
Eng ine
Ġch rom
Ġint r
ĠF ro
OL OR
. ).
ĠG ran
Ġmod erate
Ġadvoc ate
Ġret ain
Ġreal istic
Ġposs ibilities
12 7
u ity
Ġpass word
ĠV ar
ix on
Ġnewsp apers
ĠZ e
om on
cycl op
S un
m n
s chool
Ġo xygen
m atic
Ġpart ly
Ġform ing
k ed
ul ative
ĠH R
Ġinflu ential
ĠB enn
ĠC arn
ĠSh akespeare
lis her
Ġaffect s
Ġpo ison
cl osure
prot otype
Ġcou pled
ĠD ue
Ġcons ensus
ig a
ĠV enezuel
Ġassum ptions
def ined
l ate
Ġl ocked
Ġre aches
Ġint elligent
Ġcoal ition
m ode
hav ior
C ODE
Ġun t
e u
Ġin herent
C apt
ĠAssoci ate
Ġper ceived
ĠEx cell
ra pper
Ġhun ting
T erm
bl ue
spe ed
ĠA y
Ind ia
Ġre vel
Ġbel oved
ĠJ oint
Ġnews letter
il itation
Ġm ig
Men u
R ange
R est
Ġimp ressed
ast ed
ist le
Ġorient ation
Util s
dep th
P ORT
end um
rist ol
Ġinhab it
Ġoblig ations
Ġref lection
t ask
Ġcorpor ations
l ive
ul ates
ax ies
"=> "
Ġh al
Ġt ears
ĠR s
Ġengine ers
ĠT ib
L ove
Ġgraph ic
C ategories
195 3
Ġhe aven
Ñ ı
Ġrec ycl
ĠR oute
Ġsu p
Ġarg s
ri el
17 0
ĠPict ures
Ġaccompl ished
as a
Ġvol umes
Ġjournal ism
M er
ĠM ORE
Ġpro pose
artifact Id
ĠT otal
Ä ĩ
Ġhe ter
ĠK arl
Ġsc reens
Ġc ub
Ġvari ations
ĠCon struction
He y
P ER
ress ing
ĠF ried
ran ean
ĠApp ro
ind a
els h
ĠH em
ĠY OU
S ocial
Spec ial
Ġsing ular
Ġvess el
ĠSpe ed
Ġcomp ute
he ll
am ine
ĠN J
ĠArt ist
erv atives
o i
ĠFis her
ĠHe b
u u
ĠCru z
ĠKe ep
V A
ĠM all
Ġodd s
L in
ro gen
Ġmet aph
t emplate
az ines
P arent
) "
Ġswim ming
ĠM O
Ġcon ce
Ġs its
$ (
4 50
C ustom
amp a
ĠBet ter
Ġmort ality
Ġb ron
ĠS L
ĠT ogether
ĠN ag
Ġsim ulations
Ġhost ing
Ġu int
ĉ ĠĠĠ
h is
ĠM aur
ĠSever al
ĠFil ms
Ġp adding
Ġsusp ected
ĠSpr ings
Ġw ishes
Ġev olved
f aces
G od
Ġcap ability
Ġdifficult ies
D oes
F amily
19 43
Ġb reat
N OT
ĠMor ning
ĠPol ish
Ġth rew
Ġgraph ics
Ġac res
Ġed iting
an im
Ġsw ing
Ġround s
ue z
Ġtransform ed
ĠA ld
ur able
ern ame
ĠB irth
Ġbran ches
ĠQ uality
U P
13 5
Ġtarget ing
ĠR io
Ġre ign
Col lection
Ġyield s
wind ow
Direct or
Ġsam pling
as ia
Ġhar vest
h aw
Ġdepart ure
J im
n ik
Ġele g
Ġcounter part
Ġle af
ogg le
Ġimag ination
Ġv ig
Ġman if
get s
Ġinf lam
11 3
Ġfl av
ĠR y
Ġo ught
Ġr itual
ah u
ĠF r
ate ur
ĠF ish
T agged
onom ous
ĠFl ight
Ġh anging
Ġl on
ĠSw iss
ĠS urg
Ġsumm it
Ġroll ing
ĠUS D
Ġspect acular
st orm
uten ant
Ġpe oples
Ġappro ached
Ġt ribute
pos al
Ġcolumn s
w iki
195 2
Ġexp ed
is en
ens ively
O ption
Ġscholars hip
Ġbond s
Ġwitness es
h ash
ar ms
ĠPu erto
Ġsort s
ĠEvery one
Ġtri ps
Ġs isters
ĠAdv anced
Ġf itness
Ġhead er
iv ia
Ð ´
ĠApp lic
Ġlo ose
Ġbg color
et o
Ġadequ ate
ĠEm ily
ĠD oc
Ġmiss ions
Ġfriends hip
az y
st ud
Ġanaly ze
ĠProduct s
te ch
Ġprogram mes
ve ctor
Ġd ub
Ġacknow ledge
Ġph osph
Ġf er
Ġn ick
Ġhe aling
ling ton
F M
V AL
Ġadapt ed
Ġmag ical
Ġsubsc ription
Ġbon us
Ġcl ip
Ġm amm
ĠAr men
Ġeth ical
Ġanaly zed
=" _
Ġt ennis
Ġcoast al
rec ord
f und
Ġke en
Sh ort
oun ters
ĠG ive
w er
ĠT error
Ġcon ve
Re al
ĠK id
Ġhas h
Ġu pload
S ports
ĠK u
ine e
ĠĠĠĠĠĠĠĠĠĠĠĠĠĠĠĠ ĠĠĠĠ
Ġin fer
G M
Ġcom ics
: (
Ġdiscl osure
add ress
ham mad
Ġc ache
ĠDen mark
return s
Ġpract ition
P rivate
Ġoccup ation
o ons
ĠCorpor ate
Ġcorrespond s
Ġbelong s
or rect
text rm
Ġcamp s
if le
un ion
ĠL l
Ġhot els
Ġqu oted
11 7
ĠF err
ĠV ision
B ER
Ġstar ring
ĠO liver
Ġinflu ences
group Id
s v
ĠBe yond
B ody
ĠCom edy
ar se
Ġsit uated
Ġm ales
upload s
ash i
cy cle
cur ities
st ock
Ã£ o
ĠB eng
ĠTre k
Ġsm oking
es ters
Ġback ed
as gow
ab a
Ġbl ess
ĠStan ley
Å į
Ġfem ales
Ġrem arks
Ġt ang
ĠCamp us
Ġde ck
Ġpack ed
ĠSe ven
as ures
Ġcogn itive
Ġprof iles
Em pty
IT E
weg ian
M ake
ĠLiber al
O H
ĠPl aces
Ġrel ate
ĠCl ay
Ġembar rass
ĠT X
ĠCom pl
F our
Th us
E duc
Ġt agged
Ġro cks
ĠR ot
in ery
Ġgener ic
Ġhypothes is
equ al
ĠMar x
ĠMont real
ĠKir k
it ime
ms g
Ġdistribut ions
ab e
Ġ rib
ĠNev ada
Ġt ap
olog ically
Ġst om
Ġcomb ine
Me anwhile
ĠWar ner
ĠSp ect
Ġf atal
J son
iz ard
Ġpl aint
ĠV oice
am ination
ah n
ann es
ĠE dd
arg ument
G old
Ġb acteria
Ġcontribut ing
Ġcert ified
Ġst olen
th ird
Ġcare ers
ĠV I
Ġcontrovers y
w al
ĠReg iment
\ }$
mar ks
iss ues
âĨ ĳ
st ration
... ]
ĠP ick
ĠTo o
Ġgra vity
May be
ro c
Ġsold ier
Ġpoint ing
hand le
UT C
ĠW orth
Ġsymmet ry
N AS
ĠH um
ĠBar cel
× ķ
Ġmem orial
Ġanal og
Ġhop ed
Ġper f
im edia
if iers
g ic
Ġs wit
ĠP ad
sc ience
hel p
re present
ĠE N
ĠS ale
ĠBar ack
ĠStat istics
Ġtrans it
Ġa uction
Ġcan nab
Ex pl
ert s
pro d
val uation
ĠNot es
Ġcust ody
ĠL P
Ġopp onent
Ġtechn ological
Ġconf usion
Ġm ild
Ġgrad ually
Ġfil ing
Ġup grade
Ġwe igh
195 1
Ġlog ical
ĠT ig
ĠU l
A p
ĠK ay
Ġd ivers
Oper ation
ĠJ uan
ĠFR OM
Ġpo ems
Ġweak ness
Ġinf lation
Ġrest ore
ri en
C ast
Ġcan on
Ġvar ied
r aska
Ġconflic ts
Ġt ours
Ġbre ach
ern ess
ĠCol lect
1 19
Ġcons olid
ĠJer emy
] );
u int
i Ã³n
/ .
ĠNash ville
S al
ĠL ore
Re v
c ache
ĠBi ology
Ġf iber
ĠTechn ologies
ĠLeban on
ĠM ack
ĠK l
Ġcon vey
F rank
ĠWith in
i ol
t ail
Ġnerv ous
text tt
ot ypes
ĠL it
Ġrank ing
Ġfin ishing
Ġintern ationally
Ġpredict ions
ĠS ug
ĠQu arter
to o
lim ited
ĠF ast
Ġwork place
E st
ĠR ank
Ġor bit
Ġfrag ment
ĠG host
Ġinc idents
Ġwind s
v ance
AT ED
Å ¡
place ment
les h
Child ren
Ġthrow ing
Ġinflam m
Ġsp ell
Ġst ating
unicip ality
Ġthe orem
Ġh o
ipl inary
}} ,
t oken
ĠMat hem
Ġcorpor ation
Param eter
d riven
ul ent
Ġcomment ary
Ġmet res
ĠP ul
Ġsupp lied
Ġd iam
ĠSt ream
Ġcou pling
ĠA irlines
Ġanim ated
Ġcolon ial
Ġcross ed
v ideo
ĠM illion
ĠL ux
Ġal ike
under line
Ġs id
ĠMad rid
Ġb anned
Ġaccomp any
ah a
land o
Ġinvestig ating
Ġout s
leg al
ĠVis it
Ġneighb ors
act iv
Ġp ension
Ġre hab
19 14
Ġmix ture
ĠT odd
ĠR ou
Ġcreat ivity
Ġquant ity
Ġbatt les
F ran
cast le
Ġattract ed
T ele
ĠAren a
M ike
Ġsa il
Ġsub tle
Ġdon ations
ard ed
) {\
duct ive
Ġchem istry
Ġgold en
Ġsl a
Ġt une
ĠK it
Ġeditor ial
Ġdefend ant
ĠT erry
def inition
Ġver ify
Ġhigh way
Ġsurf aces
Ġingred ients
ĠCo hen
ĠPsych ology
u art
Ġrec ur
ĠProgram s
c am
ĠG aza
ir i
Ġli ver
Ġcol leges
Ġvess els
ĠN ap
is p
ul in
Ġown s
Ġear liest
ic he
Ġsevent h
H ttp
() ->
Ġcook ing
F ont
od s
Ġdis cret
Ġpower ed
ed er
Ġsec ured
Ġsl ave
App lication
Ġdecre ased
|| ||
s n
agn etic
Ġspons ored
Ġtox ic
Ġf its
ict ional
li ers
et e
ĠL inks
min us
Ġstreng the
ĠPr imary
Ġrespons ibilities
Ġf ract
ĠS ent
roll ing
ĠR ing
f ony
ac cept
ĠSc i
Ġdepend ence
ĠTr ad
Ġres olved
be y
ĠS oph
cer pt
ĠCub a
io x
Ġdec ay
ĠAss ert
ĠF if
Ġacqu ire
ĠT ed
Ġworld s
ĠB eth
ĠTh an
Ġpun ishment
Ġdec ides
d ependent
Ġtra gedy
ĠT yler
Ġrecord ings
ass es
Res earch
Ġconsult ation
Ġschem es
ĠW or
ĠCons ervation
Ġpar ish
Sc ott
g rid
ĠBarcel ona
Ġover view
Ġembod iment
Ġre nown
eg u
Ġphys ician
ah l
ĠC ut
rain ian
Ġad vers
Ġac ute
in ces
Ġint im
ĠP i
19 16
Ġc oc
ip h
ĠEth iop
Wind ow
K ing
Ġclass room
ĠPortug al
ie g
Ġassum ing
ĠBen ef
Ġp or
at ile
ĠHall ow
Ġlay out
re ction
Ġsecre ts
ĠM aking
Ġbar rel
Ġstrugg les
Ġsusp ension
Ġe ager
ener gy
ĠArt icles
iz on
iz ar
Ġanticip ated
conn ected
Ġsimilar ly
Ġpro x
ex ec
The ta
ob i
ĠÎ ¼
ĠJeff erson
ĠS old
Ï ģ
au kee
Ġsc ar
Ġback ing
Ġmon ster
D O
ĠB right
eth yl
B T
H ash
24 0
Ġdirect ory
ĠP odcast
Ġch arts
Ġhighlight ed
ĠF itz
Ġsc an
om al
Ġclos est
Ġdisag ree
ĠLet ter
Ġt el
align ed
ĠNaz i
Ġ{ }
Ġdead ly
sh ort
N EW
Conn ection
Ġcreat ures
à¤ ¾
10 16
Ġsub t
Ġpol ynom
Ġdam ages
Ġrecover ed
Ġd aughters
yl um
Ġsla very
Ġind igenous
Ġegg s
et on
ĠGrow th
Ġover ride
add y
gorith m
Ġforest s
ow der
Ġobl igation
l on
() :
ĠN ancy
ĠY eah
ĠEm ma
ĠInit iative
19 38
F E
Ġdist inction
Sche ma
Ġp atch
ĠBang ladesh
ol ine
p air
Ġst rain
Ġeth ics
ĠCommun ication
ĠEm ail
Ġbott le
Ġhand ful
ĠH orn
Ġcheck ing
Ġdis rupt
ĠA w
ĠD ig
Ġport rait
Ġaffect ing
Ġdemand ing
ĠM erc
ĠHon or
he imer
Ġprint ing
Ġadv ised
ĠArchitect ure
ĠJ obs
Ġch icken
J on
= -
jo in
form ed
aps ed
Ġphot ographer
Ġeduc ated
iz za
ĠL ock
Ġpros per
Ġprocess ed
ad ows
form er
ĠCom ics
let ion
ĠAgric ulture
g rim
ĠD iamond
for ced
Ġinteg er
Ġwh is
Ġg ifts
ĠM ail
S ession
Ġdeput y
ced es
Ġprem iere
N AME
ĠH ub
Ġformer ly
ĠP ain
Ġk in
ĠPict ure
anc el
Th omas
Inter face
Ġf ut
19 36
reg ular
Ġel abor
Ġj e
Ġcalc ulation
Ġpat ri
Ġden y
& #
ĠT rain
Ġd ys
g ender
Ġcalc ulate
ĠN intendo
f un
C am
Ġe uro
Ġrecip ient
Ġt ub
Ġentertain ing
ut able
Ġdismiss ed
ĠF O
M ary
Ġind irect
Ġw ounded
red ited
Ġen act
Ġpeace ful
A h
Ð ¼
< \
pp ers
air y
Ġemb edded
ĠCom mercial
Ġcomment ed
Ġf ier
Ġstreng then
Ġfear s
ĠRest aur
ĠP ic
foot note
ĠWat son
t elling
Ġcollect ing
ĠC ensus
ĠRes ponse
Ġviol ations
ĠK aren
Pro perties
ĠComp anies
b ably
Ġbe ating
ĠMin or
in ion
art z
Ġrenew able
b uilding
Ġnom ination
ĠD rama
ir able
Ġsust ained
ĠVin cent
ĠU C
Ġindepend ently
u ition
ĠIss ues
att ice
Ġshel ter
Dan iel
ic iary
t or
ĠArk ansas
ĠHamp shire
om ething
Ġhand led
Ġin quiry
Ġp orn
app rop
V ar
Ġland ed
7 50
ĠCy ber
S ettings
Ġinter section
Ġinvest ed
Ġ\ |
Ġref use
Ġsatisf ying
ĠStat ement
Ġexp end
ĠMethod s
com ed
ĠCro at
au er
Ġdark ness
P ay
Ġexpl ores
lim its
ĠUp on
$ _
ĠLiber ty
AN S
Ġstr ings
d ouble
Ġcor rupt
Ġgal axies
Ġcur riculum
ĠJ os
C ore
t ry
Ġimplement ing
t ri
M or
V E
ĠW E
ĠV erm
ĠAr n
Ġsc ales
w ild
pen cer
G iven
Ġnot ing
Ġrest ored
AC H
cl osed
Ġcou ples
ĠF ashion
ĠP erm
ĠZ one
ĠEconom y
Ġdiscipl ine
p al
t n
Ġt ent
De velop
ĠM es
Ġbi ology
Ġremov ing
Ġep idem
ĠNY C
D oc
Ġsystem atic
C reat
Ġlit igation
rapeut ic
Ġl ibraries
Ġworks hops
ĠHar rison
Ġste am
f eed
ĠLabor atory
ĠC arm
ĠH ind
Ġhapp iness
ĠEmer gency
IC K
Ġdam n
w aukee
ĠT agged
Ġchalleng ed
Ġcap s
ĠM i
em or
Ġult ra
Ġappar atus
ff icking
d ebug
ĠAut om
Ġres ist
Ġjo ins
com ment
Ġglob ally
ĠC u
ĠG A
Ġ* )
over ed
o ose
Ġelim inate
Ġt ong
Ġoccas ions
Ġc ave
C oll
Ġd ining
Ġbar riers
Ġdr unk
Ġsequ el
ĠCont emporary
Ġwood en
ĠB our
Ġoption al
ĠN athan
E U
ĠCons ervative
ĠEx ception
Ġvary ing
ĠAud io
ĠRepresent atives
Down load
Ġsoci eties
Ġstrict ly
Ġpl ural
Ġin sect
ĠCost a
row se
Ġvot er
Ġc ig
Ġpsych ology
le in
ĠC atherine
Ġsc iences
arg in
ĠProgram me
M el
it ations
Ġspokes man
ew s
Par ams
Ġdisapp ear
ĠNich olas
ĠH indu
ĠB achelor
em ic
= (
KE Y
Ġb ug
Ġcons iders
re le
Ġarch ae
Ġh ug
Ġdead line
Ġfin ancing
Ġfun eral
Ġg ym
est ing
ax is
{ $
Ġdisappoint ed
Ġt ens
Ġwal let
Ġs ne
F oot
Ġprivile ge
Ġen abling
Ġdr inks
amp ed
ĠK an
Bl ue
Ġdel ivers
ĠN ad
int eg
ĠPol y
Ġc rop
Ġexpress ions
2 30
l av
m ma
Ġworth y
Ġun pre
Ġscen arios
Ġcivil ian
ĠBern ard
ĠIn clud
est ab
foot er
Ġcur ves
Sh are
ĠD oll
Ġredu ces
Ġcle ver
ĠEgypt ian
it ively
Ġprec ision
ĠM ans
i ov
ĠB udget
Ġwealth y
ĠX box
ĠRog ers
ine a
Ġf ires
ah o
vis or
Ġam bit
Ġemb race
Ġdef ending
be cca
Ġser vers
Ġb ureau
B Y
12 1
T w
ĠAn imal
ĠAb raham
ĠDou ble
app er
ilib rium
ad min
Ġapprox imation
Ġjud icial
Ġcomm ander
Ġbound ed
Ġdraw s
ĠQueens land
ess a
Ġsh ore
sc ious
o j
S end
att ribute
ch t
ĠH unt
ĠG T
Ġhe s
Ġge ometry
Ġdivor ce
m ers
Ġrem ind
Ġ ^
19 37
Ġs li
Ġdes cent
Ġflu ct
C rit
ĠH az
ĠPar ks
Ġpick ing
Ġquarter back
Ġcon clusions
Ġbad ly
list ed
ĠIm perial
Ġinval id
Ġperform s
Ġse curities
Ġchap ters
M aster
Ġd ressed
Ġexpl aining
iter ranean
Ġkne e
Ġprocess or
Ġguarant eed
ĠT ags
W elcome
ĠE ve
ĠCo ord
Ï ĥ
Ġtour ist
res pect
V ector
P erm
e i
m ag
Ġde ar
Not es
ĠN an
Ġcorre ction
us ive
Ġrem inded
ĠHallow een
Ġpro c
Ġpr ay
__ _
12 2
Ġsacr ifice
ut o
") );
plic ity
ĠAssoci ated
d ig
b one
Ġsn ap
roph y
ĠCons umer
Ġtour ists
ĠSing le
Ġacknowled ged
ĠE ld
Ġthe rap
Ġbut ter
Ġarg ues
Ġsophistic ated
Com ment
sen al
Ġed it
Ġcor rel
ĠCo ach
Ġb ases
Ġdelay ed
Ġcomp ound
ou p
Ġmodel ing
Ġentreprene ur
Cont in
19 33
Ġbas eline
ĠSud an
Ġact ed
ĠAl t
Ġachie ving
ĠCom par
Ġfor cing
ç ļ
ber y
ss on
Ġlov ing
Ġp ocket
Ġ' '
Ġbank rupt
ĠCh a
Ġman ages
Ġreform s
ac hers
He ad
Ġactiv ation
Ġconduct ing
Ġmix ing
Ġgover ning
A I
Dep artment
ick et
ull ivan
Ġdist ant
ai ro
Ġrev ised
Ġinstrument al
M ag
ĠL en
Ġsmart phone
G F
ook ie
> .
US E
Ġ( $\
ĠD im
ĠGl ass
ĠSh aw
ĠCele br
Ġro ster
ĠForm er
c opy
G ET
Ġattend ance
m und
ew ise
Ġres erves
Ġcomp aring
Ġ> =
Ġexpect ing
Ġlong est
ĠS amsung
Ġn ort
Ġm akers
Pol ice
Ġsh orter
Ġadvant ages
Ġgrow s
Ġhop efully
ĠMichel le
Ġsub mission
H ouse
ĠAd vert
b ind
Ġra ises
Ġinfin ite
ĠR ather
Ġassign ment
ĠG P
ynam ics
Ġex ports
ĠCl aim
pan el
ĠB rain
AR K
ĠH app
ash a
Ġdifferent ial
Ġsent enced
ĠP O
ĠW es
W ashington
Ġw ise
Ġrep ublic
ĠD aw
ster dam
est on
ĠSh ah
Ġaccommod ation
ĠF DA
ĠLin ux
Ġproject ed
ĠF am
ogen ic
Ġd ign
ĠL ower
ĠEd wards
ĠBer keley
Ġw it
Ġvert ex
Ġexecut ives
e or
Ġcoord inate
ĠK el
comp onent
}^{ -
Ġsymbol s
Ġpresent ing
Ġnon profit
Ġrad ar
ant i
Ġcoord inates
r ong
C ong
H on
ĠSpe aker
Ġv ib
ve ment
OM E
ur ities
Ġcalc ulations
em on
Ġfl our
Ġinvest ing
S ep
Ġa ug
Ġdon ation
Dev ice
ĠStand ards
Ġrecogn ised
Ġfunction ality
Ġdesc end
Ġle an
Th ough
Ġcharg ing
Ġpert urb
RE S
ial ize
âĢĿ :
* {
ĠResp ons
R ock
m ill
Ġfl aw
h um
ĠL ion
Ġorig ins
Ġcontroll ing
D raw
Ġl os
Ġst abil
c ustom
Ġ ),
ĠComp etition
Ġsucceed ed
h ole
ĠR ud
Ġcomp atible
Ã ¸
Ġst ocks
) |
Sec urity
ĠHar vey
ĠR T
Ġrest oration
Ġj av
Ġpre lim
Ġcompar able
ail ure
a uth
Ġar ise
Ġrenown ed
ĠS S
Ġsett le
Ġdipl om
ĠScient ific
ĠPhys ics
Con nect
Ġmiss ile
Ġven ues
ĠGi ants
Ġh yd
ĠTOD AY
^{ -\
ERR OR
Ġchar ter
Ġcelebr ating
Ġexec ute
Ġtremend ous
er ver
ffic ients
Ġsh aped
ĠCarl os
b ank
Ġdiscuss es
AP I
Ġcollabor ative
olec ular
f ar
D en
ah oo
ii i
ref ix
Ġ Å
Ġf u
ĠMe chan
rop ic
Ġy ard
Ġgirl friend
indu ced
c ategory
sequ ently
Ġtrans parency
az i
Ġvol tage
çļ Ħ
Ġpull ing
Ġ$\ {
=" /
ĠK ill
RE AD
f ive
S il
Ġprest igious
che m
ĠC ant
H aving
Ġlect ure
Ġagre es
Ġrepresent ations
Ġri vers
Ġcru ise
F acebook
Ġdelight ed
ĠFin land
Ġexpl ored
ĠH at
Ġcount ies
ĠCond itions
ic ating
ĠðŁ Ļ
IS H
} '
OR Y
Ġmurder ed
Ġstop ping
ĠN am
Ġst ellar
Ġi OS
L oc
W ed
Ā Ā
Ġpropag anda
on omy
Ġ" \
Ġreven ues
Ġleg ally
St ore
Ġt orn
Ġterror ists
ill ery
res ults
19 19
ĠFin n
b c
n ational
? âĢĻ
et ed
c ott
S ummary
Ġt ut
ch annel
ĠMaterial s
row ing
Ã¼ r
ĠEX P
Ġoptim ization
Ġtun nel
T ur
T ech
ĠOper ation
ĠS ays
Ġwork force
b rand
Ġin cl
Ġr ated
ĠVis ual
Ġse gments
ĠP le
19 34
F rench
Ġtrans mit
Ġdeploy ed
ĠO ri
Int eger
cel and
ĠHig her
Ġc um
yl an
ion ed
Ġdiagn osed
Ġstake holders
12 4
j u
Ġp icks
AN G
19 10
ĠGl asgow
ĠAdd ress
: \
ĠM essage
Ġob s
Ñ ĭ
Ġsh ield
ĠAdvent ure
Ġen z
Ġbul let
Ġd iamond
Ġproject ion
Ġinterview ed
L ou
Af ric
Ġelder ly
Ġridic ulous
Ġor ange
In formation
g ie
ĠG arc
Ġco h
d elete
Ġad verse
Ġmolec ules
M ill
or o
Ġcomput ed
sq l
- (
L O
Ġde ce
ues e
ĠS F
ĠL an
& =
Ġresp ected
Ch apter
L ead
ĠB ear
Ġmarg inal
ĠF an
17 5
ĠG rey
ĠStan ford
ĠS quad
if ully
E ast
ĠAdvis ory
Ġpart ition
Ġpursu ant
Ġharass ment
Ġbar rier
ĠGrad uate
ĠH udson
Ġstri p
19 15
Ġinter ference
ĠTib et
j ournal
Ġfoss il
ĠAl ong
big g
Ġdef ines
h over
ĠIraq i
I ter
Ġrepl acing
l ab
C ross
ex pl
ol er
ang ular
Ġambit ious
ĠJ ake
Ġo sc
ĠWell s
ĠC P
ĠB ristol
Ġl ap
Writ er
Ġval ley
pl ug
ĠHit ler
ĠT arget
ĠEm peror
ĠIm port
Ġnow here
ins ula
Ġmother s
sc ription
ĠS alt
ĠI F
ĠDef ence
St ill
Ġdemonstr ates
Ġwel comed
Ġtw ist
Ġaff air
dis abled
ĠD M
Ġsac red
ĠS id
sh ift
ig o
ĠEd ge
Ġp ose
if iable
ĠBoe ing
u its
m ount
Ġintrodu cing
ĠN urs
Ġdesper ate
ym pt
an alysis
Ġclos ure
ring e
Ġhon ored
umb led
f n
ĠOrth odox
Ġburn ed
ĠD anny
v d
ĠPlan et
Qu est
ĠMet al
ĠWe ather
s ince
Ġb other
ĠT ell
m ass
Or gan
Ġst er
Ġgra ve
Ġball ot
ĠL atest
inc inn
ĠMan ufact
Hand le
Ġc ov
Ġexperien cing
ĠF at
Ġdistingu ished
ĠFl ore
ĠHel en
th lete
Ġsufficient ly
Ġac oustic
D L
ĠCour se
ĠH ob
Ġw ings
ĠSur v
Ġe ars
ra ble
Ġf itting
Ġun ity
ĠR C
found er
Ġw ages
ĠE SP
Ġs ends
ĠM I
ĠAcadem ic
Ġachieve ments
Ġdocument ed
id ation
ĠW ire
Ex per
ĠT es
ĠMo z
ĠInvest ig
Ġcl er
Ġassess ed
B ur
ĠC ities
Ġpe ers
W al
Ġne ural
necess ary
amp ire
Ġkid n
ĠR acing
ĠWood s
Ġnation wide
Ġdesign ers
ĠIn side
ĠB ranch
AR R
Ġpartners hips
Ġtw in
ĠHor se
Ġcloud s
g iving
Ġmod ules
ĠUg anda
Ġfulf ill
Ġ\ ;
Ġc inem
================ ================
g ies
Ġsc rew
ĠAr ctic
Ġtravel ed
3 20
Ġdef ining
Ġend e
uss els
ced ented
ĠPalest ine
eng u
Ġadv ances
G P
ĠR ole
oth s
ĠRel igion
ĠR A
Ġsuggest ions
ĠId ent
Ġf ighter
us hes
ĠPal m
ĠRem ember
ĠDub ai
am az
Ġcast le
n ia
ĠChem ical
f our
ĠNew ton
ĠPl atform
J eff
m c
al ion
Ġpack ages
Ġgal axy
i eth
Ġline up
ÃŃ a
d agger
Ġmem orable
Ġinc orrect
oca ust
Act ual
Ġtra ject
Europe an
Ġf iring
ĠTreat ment
g overnment
Ġsaf ely
Ġencounter ed
Ġacc us
p rom
m aterial
Ġt ropical
] :
incinn ati
O bs
Ġste ep
Ġestablish ments
Ñ Į
qu al
Ġdem ol
Ġd ense
ph ot
Ġsurviv ors
Ġfarm ing
ĠJ a
T emplate
Ġt ear
ĠY u
ĠArt ists
ur red
ĠJess ica
S at
Ġatt ributed
Ġblock ed
S n
iv o
Ġcompet itors
Ġhabit at
Ġconsult ant
F un
Ġexc use
l it
Ġthere of
Ġcha os
ĠC emetery
ew idth
Ġ ..
Ġdes erves
Ġk ernel
e ast
Ġr ice
ul i
Ġspect ral
ĠC ounsel
ĠL odge
ĠMe et
Ġc od
19 35
Ġret rie
Ġassoci ations
an ne
Ġfl ower
Ġhon our
ĠN ATO
ĠA F
Ġcomp assion
ibl ical
pos ing
And rew
f iction
Ġinsp ire
ĠSh a
m itting
p atch
ĠB ak
F alse
12 6
ĠNeb raska
Ġg ram
Ġcannab is
ry ption
Ġr ush
Ġsl ot
ĠTer rit
ĠW ant
ĠPhil osophy
Ġmed ic
Ġjour nals
Ġb ust
ĠF ellow
Ġgr at
ĠC lient
Ġpro be
Ġcommission ed
ĠGreat er
Ġed itors
ut ing
H uman
ript or
ethe less
Ġunem ployment
Ġch ains
Writ ten
Ġb rows
ĠPrad esh
Ġexcit ement
Ġpl asma
Ġproduct ivity
ĠVeter ans
Ġcir cles
Ġgu ided
Ġtra uma
ĠSu ite
Get ty
Ġdeg rad
ov ic
am bers
Ġunc lear
Ġresearc her
12 9
f ocus
Ġmer ch
ke es
ĠVi enna
St ation
ĠR av
OW N
Ġtact ics
umb ai
ĠE ye
ĠNorm an
T ON
are a
Ġroll ed
ĠAss essment
ĠD raw
T ab
Ġtrust ed
v s
Ġsub set
ĠHar per
M ember
ĠW elsh
ĠB orn
W in
as is
Ġg ly
Ġfast est
2 10
Ġhol y
Ġsw ord
Ġart work
ĠM ix
ĠCustom er
N BC
ag ine
BU G
Ġr amp
ĠSt ri
Ġmet a
Ġconv ince
Ġexplos ion
Call back
Ġdim in
Ġse eds
Ġend orse
Ġa qu
ul atory
ĠBu y
ĠT ab
Ġexcell ence
Ġtort ure
opl us
ĠMar io
Ġinsp iring
C ard
Ġreg ards
ĠOther s
14 4
ĠE PA
Ġconv iction
i em
Ġconcent rations
Ġmag azines
Ġpra ise
Ġtri ple
or ig
ĠQ ual
Ġmed ieval
Ġsubstant ially
Ġmob ility
Def inition
Ġsatisf action
ĠG ets
ĠHoll and
N um
block List
Ġh arsh
Ġhydro gen
agon ist
Ġsu ck
Ġcomplet ing
Ġint imate
Ġs ch
Ġhol idays
ĠMu hammad
ĠSc ript
Acc ount
Ġhoriz ontal
Ġaccess ed
ra v
âĢ¦âĢ¦ âĢ¦âĢ¦
Ġflex ibility
g om
ut ory
19 29
Ġg ran
er ie
Ġr anges
ĠC risis
M ass
Ġle ase
K ind
Ġarriv es
ĠCh oice
Ġo h
Ġmort gage
Ġbl ues
im ir
ĠN ord
ĠRe ed
d in
Ġb arg
Â «
re view
ĠL ate
ĠU pper
Ġn ons
r r
Ġr het
Ġch ip
agon al
L and
Ġdu o
Ġphil osoph
v or
Ġpolit ically
ĠF M
ĠO pport
ex port
um ble
ĠDet ails
down load
ĠLuc as
s ong
c rit
he astern
ĠM ol
il ia
Ġcomp ounds
Ø§ Ø
i w
Ġthe sis
AR S
Id ent
Ġsent ences
ect ive
Ġadvoc ates
Ġjust ify
ĠLe v
ĠR uth
C ond
op ing
ĠC inema
oot s
w ear
re q
Ġthe at
Ġt ends
ĠH erm
ET H
Ġbal anced
k ar
Ġr ic
ĠHealth care
ĠWrit er
V R
ĠY ang
Pro duct
Ġem pir
Ġfif ty
S ever
Ġs s
Ġto b
ĠVal ent
Hel per
it an
Ġcivil ians
Ġer u
W R
in st
Ġauthent ic
ĠH P
ĠR ivers
Ġform ally
Ġh int
Ġ[ -
ĠLeg end
Ġdr ums
al ink
ent o
Ġcomm od
not es
ĠF alse
ĠMon te
Ġdis g
am ation
ogene ous
Ġsatisf ies
Ġneg lig
p icture
Pol icy
Ġbab ies
Ġbel t
Ġam ended
Ġunf air
Ġsk illed
Ġabs ent
Ġcorrespond ence
Ġfram es
f ilm
A pi
ĠPar am
ĠPan el
Ġcompris ing
Ġmotiv ated
Ġmon ument
M o
app lication
T ests
t ags
Ġch ron
Ġsh irt
ĠArch ived
ĠM is
ĠFl ash
form s
e a
ĠBuff alo
boot strap
C amp
Ġqu it
Ä ±
c amp
Ġet ern
Ġfuck ing
19 0
ĠðŁ ĺ
Ġqu otes
H ot
Ġadvoc acy
ĠD ennis
L im
ĠPro test
Ġess ence
Ġtou ched
ign ment
et ta
( :
Ġiniti ated
ĠF unction
C r
F inal
ĠPresident ial
Sm ith
Ġne arest
Ġf o
Ġ$ [
Ġinf ections
ĠAnc ient
Ġindic ation
G r
S ar
ĠRich mond
Ġbenef icial
ĠPhill ips
ĠA er
Ġthreat ening
Ġvac ation
Ġmeas uring
ĠSym phony
F riday
Ġclean ing
ĠT on
greg ation
ĠAll ah
Ġhonest ly
ĠV eh
Ġfootball ers
ad vant
J P
c ross
ĠR ico
Int roduction
Ġh iding
Ġinv ite
Ġadjust ed
P rom
ĠH alf
Ġpl acing
Ġqual ify
ĠNor wegian
sc apes
J ournal
Ġto ll
Com mon
ul ing
Ġprov es
Ġprior ities
ĠA id
Ġcou p
ĠM ob
ĠB ach
Ġsol ving
Net work
conn ection
. *
Ġdon ated
Ġm ature
Ġun ited
Ġair line
us p
Ġw ound
Ġby tes
14 5
Dis play
Ġdest ro
pos itory
ĠSo on
In vest
ac er
Ġnot ably
ĠPet e
Ġd irty
ĠLeon ard
Ġun ions
Ġprevent ing
ĠS ierra
pan ic
H en
Ġdro ps
20 2
J ose
op ed
Ġf ame
Ġaccept ing
Ġh iring
ro d
Ġcl usters
ĠHor ror
Ġwitness ed
ĠSimilar ly
S ql
um my
Ġm i
Nav Bar
ĠMed iterranean
Ġfre ely
B ob
ĠM ak
ĠL ect
g on
ĠObs erv
Ġtra gic
Ġlik elihood
Ġb ail
Ġhe m
ĠO t
Christ ian
ĠChel sea
Ġb alls
ĠMed al
Hel p
Ġche er
Vis it
co q
Ġmotiv ation
com b
m illion
Ġun fortunately
ens en
Ste ve
Ġp ending
Ġ$ |
oll ary
w ikipedia
Ġsl aves
h alf
Ġ$ {
ih ad
Ġprelim inary
Ġpen et
Ġcent res
Ġg rey
ĠCle an
Ġfe as
Ġbrut al
iz ational
Ġret reat
Ġmult ip
ĠBapt ist
Ġint ens
Ġkick ed
Ġdefin itions
Ġcru el
bs ol
ĠPre vention
ĠReg ulation
ĠN HL
ĠAr c
Ġt ensor
ĠPart icip
est amp
ĠO ption
ĠAl fred
Ġperspect ives
ĠB rid
b ecause
Ġsh ifts
Ġf ighters
Ġpoll s
ĠM end
count ry
ĠS yn
ĠHer o
ĠRon ald
Ġb ags
Ġbo ats
Ġtreat ing
is ure
ĠI SS
Ġafter wards
ĠG onz
ĠMet ropolitan
N R
b ia
ĠInstit ution
Ġund efined
Ġdiam eter
g ement
Ġann ot
Ġlaunch ing
ĠUn like
Ġdeal t
Ġcount less
Ġapplic ant
ancell or
ĠLink ed
ĠN A
Ġur ged
ĠSong s
' >
Ġstream s
t alk
Pro gram
y on
Ġsurprising ly
c od
em ia
Ġs ew
Ġrecommend ation
D ir
g it
S und
ĠApp lied
Ġpres erved
ĠTreas ury
ĠĠĠĠĠĠĠĠĠĠĠĠĠĠĠĠĠĠĠĠĠĠĠĠĠĠĠĠĠĠĠĠ ĠĠĠĠĠĠĠ
Ġattack ing
Ġfurn iture
Ġnew est
ĠZ ion
ĠT rial
ex per
Ġgod s
Ġtradem ark
s ort
ĠBut ler
unc an
om o
m are
ĠV el
Ġosc ill
Ġg orge
ĠGl en
ĠNot ice
St op
Ġgener ous
Ġreason ably
Ġ[ '
ĠSc oring
ĠChem istry
Ġpred ec
eb ook
Ġf ond
Ġlaun ches
Ġaud it
Ġproceed s
t ar
Ġmemb rane
ac ies
h all
Ġf ru
re ts
Ġarch ive
ĠS ter
Ġ} )
ĠS ave
Ġche ese
ĠUk rainian
Ġext ending
Ġz ones
19 32
As ync
Ġ( '
web kit
ale y
Ġsurve ys
pl er
cond ition
Ġcompris es
Ġatt orneys
ĠðŁĻ Ĥ
R ay
ĠMon itor
ĠA part
end ors
Ġfl ed
ic ism
ĠF ly
ol an
Ġcomp lement
s ized
ix els
Ġend less
us c
Ġev ac
ĠE L
ĠPro position
ĠBl ake
ĠOr lando
ĠNav al
H ol
Ev ents
ograp hers
ed ed
ĠC urt
s un
i u
ĠPlay ers
ĠV P
ĠK yle
Ġb ay
ĠB ass
ĠP E
ract ed
arent ly
Ġbelong ing
ĠS cre
ĠP rison
Ġcatal og
atch ing
ov o
ĠPot ter
Ġsepar ately
Ġem pire
Ġstrugg led
Ġla pt
We ek
Ġres il
Ġtob acco
sub figure
Ġfeed ing
ĠS aints
Ġdr illing
ĠB ath
N ever
Ġdistingu ish
Ġw ore
import ant
Ġcry stal
ĠTre nd
Ġcreat or
Ġqual ities
Ġenjoy s
Ġall iance
at rix
Cl oud
Ġbound s
Ġdisapp eared
2 25
in formation
Ġcoe fficients
ĠEar l
ĠA round
Ġclin ic
\ }
ĠG O
Ġcert ification
Ġc argo
Ġp our
ĠPh one
19 22
Lear n
ĠAlber ta
' ],
ĠAlex and
S ing
Ġreal m
Ġmet rics
ĠF ace
iz ontal
ĠBob by
ik o
Ġelement ary
f ramework
Ġf oster
A BC
Ġaccur ately
, [
ĠP in
ĠPartners hip
Ġchemical s
ĠO pp
Ġjump ed
R NA
ĠS pencer
gh ai
N ET
Ġfest ivals
ĠPhot os
H am
ĠF act
Ġfor ty
ĠS or
Ġpred omin
ĠCat hedral
subset eq
ĠN ar
w right
Read er
Ġh orn
ĠT u
L ight
ĠA ra
ere k
Ġexclud ed
d ates
) ).
Ġwra pped
ipp er
ĠCap itol
t re
## #
h arm
lin ewidth
Ġsur render
ĠC ategories
Ġas semb
Let ter
ĠB egin
uk a
Ġinhabit ants
Back ground
b age
Ġorgan ised
Ġcontact s
th ree
ĠEr n
ĠRod rig
Ġb ones
c ert
Ġsk i
en v
ĠH appy
Ġatt raction
st ation
ĠEr ror
Ġre ck
H i
I ran
Ġin comp
ul er
Ġm ph
rit ies
Ġl un
id o
ĠJ ama
99 9
Ġcook ie
ĠMount ains
ĠQu ant
Ġpl ates
Ġex empl
18 00
Ġpric ing
Ġped est
Ġf illing
Com par
Ġtrans cript
ĠIn j
f olk
Ġp ink
ĠS creen
ĠB asketball
Ġpoor ly
âĢ Ĭ
Ġinter ventions
Ġgrand father
R ule
ĠAm sterdam
; <
ĠGet ty
ater n
oc ese
reg ion
olog ic
ĠGh ana
k n
Ġhistor ian
19 31
ĠConc ert
Ġtru cks
Act ive
Ġliber ty
ĠS r
Ġunpre cedented
plic it
ĠPar ad
Ġtem pt
Ġpro pri
Ġin clusive
Ġp upp
pen se
ris k
ĠT ak
ach t
g irl
Ġthorough ly
Ġrele asing
F ort
Ġp unch
m art
19 11
ID E
Ġqu ot
Ġc ere
Ġg rain
ĠQue bec
Can ada
Ġsh ocked
Ġsub str
mult i
Ġg am
Ġprospect s
ac ial
Person al
ĠK ash
gom ery
Ġmar ry
Ġmechan ics
AN CE
Ser ial
ĠHeb rew
Ġb ol
t ool
VI EW
Ġrock et
Ġinter mediate
G erman
Ġshift ed
Ġsens ors
ĠH ab
av ailable
Ġinvestig ators
ĠAnt ar
Ġn g
id i
) [
id ity
Ġbe ars
ĠR ice
ĠCirc le
ĠJ ar
Ġarchitect ural
Cons ider
ĠGard ens
ĠV ik
ĠM ental
Ġen force
Ab stract
Ġcelebr ity
ram es
Sh ould
to String
ĠCoal ition
H P
Ġen semble
Ġproduct ive
ĠR osen
Ġconf idential
Ġh orm
ĠL ex
ĠN uclear
Ġes cal
Ï Ģ
Ġpure ly
ĠPart ner
oun ces
Ġear ning
resp ons
Ġrel atives
Ġpublis hers
Ġt ube
Ġdram atically
Ġearthqu ake
B r
; "
ĠM ut
Ġmod ify
Ġaw ful
ĠSom ething
ĠB rief
i ological
b oth
Ġreve aling
19 28
R oyal
ple ments
Ġrece ipt
Ġapprec iated
Ġhor r
ĠM ul
Ġass ists
ĠWork ers
ĠInd igenous
ĠLind a
ĠInt o
mod ules
ĠTig ers
Ġtrans mitted
Ġplace ment
cyclop edia
ĠPh ase
ĠWild life
Ġ{ {
Ind ian
ĠBrazil ian
id ad
ĠB ot
oc ide
Ġlaw makers
; ->
Ġpursu it
ĠColomb ia
rac ing
vert ed
Ġbre w
W ater
m ans
15 5
ĠB omb
Ġph ases
l at
ĠB order
Ġflo ating
Ġf are
Ġill um
Ġex empt
Ġre vis
Ġco at
oot ing
k ers
Class es
ĠStr ong
)\ ,
ĠPalestin ians
ĠImm igration
Ġrecept or
IS S
Ġannoun ces
In valid
Per haps
Ġspecial ized
Ġoccas ional
Ġte ens
qu in
Ġle ather
Ġdis abilities
Û Į
Ġob taining
13 7
Ġb ot
J ECT
B orn
Ġnetwork ing
D IR
Ġconstit ute
econom ic
ĠRepresent ative
ke eper
ĠCom plete
math scr
Ġgl ory
Ġprec ious
Pr int
Ġread ily
Ġcreat ure
ĠS outheast
izar re
ĠMil waukee
Ġf el
Ġbuild er
v irtual
ĠGener ation
Ä į
Ġshe ep
Ġcl ause
ĠE lementary
ĠT ickets
Ġimpe achment
ĠA viation
B it
ro v
Ġdig it
ĠD rag
Ġmat ched
Ġf lesh
Ġint ro
oun ge
Ġconj unction
Ġanaly tics
ï¿½ ï¿½
ĠLe o
Ġpre ference
ĠMus ical
net work
C M
m un
Ġan chor
ĠA ven
Ġte aches
Ã ł
amb ling
k ward
ian ces
Ġinv oke
ĠĠĠĠĠĠĠĠĠĠĠĠĠĠĠĠ ĠĠ
Ġaltern ate
Ġt ales
Ġsub section
ress ive
Ġdistinct ive
V ict
Ġautom ated
Ġunder graduate
om eter
Ġpain ful
P ing
Ġm aj
Ġload ing
Ġcy cles
Ġmuseum s
Des ign
Ġto ss
Ġcirc ular
Ġinsp ection
Ġg ut
Ġp ole
Ġprot esters
ĠOak land
Ġvir al
Ġtrav elling
Ġn urse
clip se
13 6
C opy
ĠPop ular
Ġvis itor
O F
Ġk it
Ġn utrition
ĠI celand
Ġcitizens hip
p her
ĠF ri
d ra
De ath
Ġstraight forward
im pl
ou ter
ĠJ SON
Ġsp here
Ġoccur ring
Ġ rows
ĠW A
Ġw are
ĠRe ally
ĠR angers
ĠJam ie
\ '
13 8
Ġp ays
t z
Ġbes ides
Look ing
ish a
le an
ĠV lad
el ia
Im pl
Book s
Ġb icy
ov ak
Ġsleep ing
Ġsh apes
ator ies
Ġdro pping
F ire
ĠG DP
Ġan onymous
ĠR alph
ĠDis covery
ĠColumb us
ĠB ud
ĠRe yn
S aturday
ĠVenezuel a
em a
ĠRe quest
Ġestim ation
Ġdom ains
ĠD ipl
ĠT ry
19 12
Ġinterpret ed
ew ay
Ġfin est
De cl
ĠMult i
Ġstom ach
W orks
Ġh unt
Ġs our
acter ial
bro ok
ĠE M
Ġover night
Ġdo ctrine
Char les
ay an
-------------------------------- --------------------------------
Ġmod est
Ġ Ø§ÙĦ
Ġpro xy
ĠTh r
Ġc yl
olit ics
Ġret ained
Ġpro secution
Ġbuild s
ĠÂ ±
Ġin line
ver b
Ġnurs ing
Ġpresc ribed
E q
rit is
Ġconsult ing
Y et
Ġun iqu
ĠBrook s
Ġcool ing
Ġcop per
ac ious
qu arter
N or
( *
ĠV ari
Ġsec ular
ĠM ann
Ġconver gence
Ġde com
ĠC ob
ĠCommun ist
Ġquant ities
ph an
pr ising
role um
Ġbet a
dom ain
pub lished
p it
ĠVictor ian
ĠMor oc
aut o
Ġc her
ĠCom b
Ġrevolution ary
Ġsl ide
19 25
orks hire
V M
ĠBry an
ab ul
Ġrel uct
ub a
ĠSp ider
AT CH
h h
Ġuns igned
Ġinput s
Ġapprec iation
c ill
Ġexpect ation
ond e
pl ugin
Ġinst antly
c ost
Ġhor rible
iz a
ĠUnc ategorized
ĠAn al
Ġhoriz on
ĠHug hes
Ġgard ens
ĠHol iday
ĠC M
Ġst ir
Ġmount ed
Ġatt itudes
old ing
Ġtri umph
se en
ĠR ES
ĠBroad cast
ĠA x
Ġinev itable
Ġl ymph
C I
Ġo s
n umer
Ġpre jud
Ġan ime
Ġexpect s
Ġrefer endum
Ġb rick
ĠTour ism
Ġspec ify
En vironment
Ġcab in
Ġadm its
ĠS R
z b
t otal
Val ues
G T
ett i
Ġbed room
d ie
Ġbuy ers
ĠSt atus
å ı
Ġval ued
ĠClin ic
ĠB GC
ĠCh ampion
ĠLe ad
Ġdef icit
Ġarg uing
m el
Ġstat s
idd ing
Ġwond ered
13 2
Ġcelebr ates
Ġart ic
ĠS ox
Ġdecl aration
ĠLook ing
Ġbe aring
ĠA CT
), \
udd y
Ġoffer ings
ob uf
re ason
Ġa viation
ĠD elta
Ġdiscret ion
ĠY ellow
ĠBro s
acc ount
rag ment
F ive
Ġopen ly
Ġaccommod ate
anc ies
ĠS oci
ur ations
Ġcro ps
Ġscal ar
Ġinvest or
Ġbet ray
ĠSher iff
Ġwe ights
ĠSh adow
ĠRid ge
âĢ ²
ĠJul ian
k now
inc ome
Ġst y
Ġshow case
Ġtravel s
d ependency
own ers
yn asty
Ġto ile
Ġc ricket
Ġlist ener
ĠDou g
ev ents
Ġcomm ands
ĠInd ependence
ĠMc Donald
Ġc os
Ġdiv ine
ch air
Ġyour s
ĠCon vers
Ġcell ular
ĠSte in
Ġwhe els
D M
Ġve ctors
k t
36 5
ĠTown ship
th s
g roups
hol m
ou bt
Ġh ilar
ro sc
Ġtrad ed
Ġto y
Ġst ones
ĠB anks
On line
Ġpar ams
Ġphil os
Ġg aining
ĠHol mes
Ġmand atory
Ġcontin ent
Ġhistor ically
C y
Ġf right
am ic
sett ings
Ġabund ance
ĠM iles
any on
Ġco in
ĠF est
The refore
Ġden otes
y ll
Ġe ighth
ĠBes ides
Field s
13 3
ĠIS IS
Ġcous in
K S
ĠBrad ley
vit ational
Ġsusp ic
ĠH ack
th ink
og ram
Ġf usion
Ġin cons
IC S
19 21
Ġgen ius
ĠJul ia
ĠB ald
? !
ĠG MT
Ġanalyst s
ĠOcc up
Ġrail road
Ġsyn chron
Ġfig ured
ar us
Ġtong ue
I ss
ĠHung ary
Ġrhyth m
Ġco ins
Ġpre ferences
Ġvill ain
ys ics
^ -
er als
ĠComm ander
ĠD raft
ĠRe uters
ĠPer iod
Ġlift ed
Ġbe aches
annot ation
Ġappro aching
ĠCare er
equ als
Ġgr ay
J ob
O wn
ĠU T
Ġemer ge
Ġscr ut
_{ {\
Ġsh ar
ĠBrand on
on line
Ġdevast ating
ĠCitiz ens
Ġcomb ining
ĠU P
Ġcontact ed
Ġpar se
ĠSer ver
orient ed
Ġdecl are
Param eters
ĠCom plex
Ġadd iction
omorph ism
Ġag ing
ĠS weet
ĠBul gar
Ġmagn et
Ġc ats
Ġre construction
Ġab ol
Ġcon ferences
13 4
M ur
am on
Ġsp ite
Ġsil ly
ĠHe aven
Ġbron ze
m ove
ov i
ĠAmb assador
Ġdemon stration
ĠL ith
th ood
aed a
ĠViol ence
ĠF oster
Ġdiv isions
Ġinf ected
Ġpain ter
Ġinn ings
19 27
Ġstart up
Ġre ass
ĠE sc
Ġcab inet
J oe
Ġde ployment
ac a
_ +
ĠCh uck
Ġund ers
ĠQuest ions
ex ports
L ittle
ĠSp ons
R ussian
l ia
ĠIn cre
EL D
Ġtim ely
Ġsu ite
Ġlist ened
O pt
Ġperm its
Ġbu zz
Ġt anks
he nd
Ġout lets
qu et
Ġrem inds
Ġhuman itarian
h n
Ġrel ates
Up dated
ab we
ĠBM W
19 24
Fe ature
Ġsh ower
ĠY e
19 26
Ġconcert s
anc ers
ĠC ox
Ġenc oding
Ġreason ing
_{ (
ĠChar acter
ĠH il
ĠLib ya
oll o
set minus
os i
ud s
Am ong
Ġse am
F re
g eneral
ig m
ment ioned
Ġmin eral
St ack
Ġent ers
RE D
ĠBGC OLOR
el eration
out ed
ĠSe b
ĠPortug uese
ut er
Ġbi om
ĠTom my
Ġrent al
Ġvac uum
D est
T or
Ġc ra
an ic
ĠS hip
M a
ĠEn c
ĠJul ie
P AR
aw i
oun cill
} "
Ġconven ience
ĠCom ing
own er
Ġanth rop
Ġphys icians
Ġlack ing
Ġvert ices
ins ert
Ġarriv ing
Ġl ips
Ġabs urd
ĠH ait
ock er
Ġlast ing
effect ive
d p
Ġaltern atives
G H
Ġaw a
ex ternal
Ġvari ant
Te am
ĠStrateg ic
ĠE ug
ĠCh i
C F
os itory
cur s
Ġcontinu ously
ĠC ategory
Ġcy t
ort ex
arm ing
ĠH ockey
ĠW alt
ĠU ntil
Ġlic ence
Ġsuggest ion
Ġbeat en
ĠM B
ĠW ing
Pl an
P tr
Ġwas h
ĠA SS
ĠN ine
ĠI BM
ĠP ret
ĠG oth
ĠHar bor
imb abwe
Ġp ond
Det ails
ur st
Ġs inc
ful ness
Ġcivil ization
N P
Ï Ĥ
Ġnot ification
int o
ĠM T
ĠSt uart
Ġloc als
ĠS I
Ġen velop
ĠO P
Ã ´
Ġless er
f oo
P rior
Ġalter ed
ĠAg ent
Ġinf ect
ĠNorth west
ĠSc ar
Ġhom osex
Cal ifornia
p ages
Ġl attice
Ġsur ge
bour g
sh ine
ĠCol in
Ad v
ĠGu ild
Ġmed i
Ġbes ide
ĠP ink
Ġthe ft
ar in
D iv
You ng
Ġc ord
ĠClar ke
in sp
Ġdipl omatic
Ġdemand ed
et ric
Ġdiv ide
w ave
="../../ ../
ĠP T
Ġisol ation
col on
Ġassist ed
ĠPhys ical
HT ML
and ed
ov ie
ĠR ange
ov ich
ĠS ummary
ĠY emen
ĠEv il
Ġb uses
ens itive
ed uc
M att
In v
Ġspec im
atic an
Ġc attle
} %
Ġsp are
in stall
Ġt ribe
Ġquestion ed
Ġhaz ard
Ġnames pace
13 1
ĠM IT
m usic
Ġen comp
ok a
Ġbath room
ĠEXP ECT
UT H
Ġpursu ing
ĠMont ana
C lear
am as
S ong
Ġ( *
ĠDel aware
ot yp
ĠSt yle
Ġgen us
Ġcount ing
________ ________
Prof essor
H y
pos ium
it us
Ġcrim inals
Sub scribe
Ġspread ing
Americ a
Ġport al
c pp
Ġcomprom ise
Ġpharm aceutical
ĠWIT H
Ġg ast
Ġhe ating
ian e
power ed
art icles
Ġcle ared
h idden
ĠAnn iversary
D ouble
Ġvibr ant
×ķ ×
ĠPro gress
ĠP os
ring ing
Ġout rage
ud ed
be it
ĠF eed
S QL
Ġt ags
in is
) ),
âĨ Ĳ
Micro soft
ĠE aster
Ġfar ms
T ax
A rm
ĠV oter
ĠK urd
ĠCurrent ly
Ġmethod ology
Ġinject ion
m g
ct uary
Ġh ills
Ġover look
P arser
Ġare na
Ġmod er
Ser ies
Ġun cle
... "
ĠD ad
Ġneighborhood s
v et
Ġgener ator
** *
Ġdr um
ĠAdd itional
P ut
t em
J er
sh ape
ias m
ĠTh ought
Ġunder m
ĠR O
Â §
Ġfle e
M ajor
19 13
ro e
ich i
ĠQuest ion
Ġelev ated
EE E
ĠAn a
ĠiP ad
_ *
Ġgrad ient
Sym fony
av ier
ĠL ED
ĠM umbai
ĠD A
Ġpreval ence
ric ks
Ġim perial
aint ed
Arg ument
B ad
k w
ĠSer ge
t i
ĠS witch
ĠM R
ol ia
ap or
ĠC ash
en berg
ct r
h art
Ġadvent ures
B log
n one
ĠEth ics
Ġf ights
Ġback up
he w
By tes
ĠAthe ns
e ach
ĠBar on
Ġep it
ĠEag les
Ġdeterm ines
Ġrender ed
16 5
ĠĠĠĠĠĠ Ċ
Ġtra pped
Ġwor n
Ġsynt hesis
Ġb oring
IN S
Ġperform ers
Ġcat ast
Ġ+ +
un al
Ġsurg ical
Ġun necessary
se lected
Ġca ution
b ach
Ġquiet ly
Ġa f
Ġby te
et own
yl on
ĠWall ace
ĠK o
Ġme als
Ġbl ast
Exp ression
ur ious
Ġpack et
al in
Ġfle w
ĠO w
vel t
Ġmain tains
ĠProject s
Ġc ris
gg ing
N ick
p aper
Ġsc aling
ĠCar r
w edge
circ le
Ġan ten
P resent
Ġfell ows
L R
Ġpro gression
Ġnob le
ĠApp eals
Ġplay off
ĠInt roduction
it ate
um i
ĠFran ces
ren nan
ry s
um ing
Ã Ĺ
Ġp ipe
Ġten ure
ish ops
ĠEm ployment
Ġm igrants
ĠL ions
Ġplan es
Ġch ocolate
Ġprevent ed
Ġimpl ied
×Ļ ×
ht m
str ument
F lor
od ia
Wind ows
Ġgrand mother
19 23
Ġkn ife
Ġvolunt ary
Ġfif teen
æ ľ
\! \!
D elete
ment ed
Ġad op
Ġthr iller
Ġreven ge
ĠFour th
Ġnation ally
ap os
p ic
Ġtable t
ĠInd ividual
Ġcompl ain
ĠRoman ia
Ġsol ved
ch anged
Ġar ising
. (
ar ound
Ġr ings
ĠIntern al
Ġtal ents
ĠSec urities
Bo olean
V C
fl oor
div ision
am y
Ġ>> >
ĠC ad
Ġr ugby
Å Ĥ
3 30
Ġgu ards
Ñģ ÑĤ
ĠNever theless
bor o
ĠK os
oph ob
il ogy
Sim ilar
ĠRoc he
Ġcoll ision
by te
approp riate
ĠVen ice
ĠEv olution
Ġcomm emor
s quare
cons ider
Ġrefuge e
ĠD atabase
ung le
uls ion
ĠM ong
ĠC incinnati
ess ages
by e
ar an
ĠFreder ick
ĠAN Y
Ġv ic
ĠCon stant
Ġpath way
13 9
Ġimp ose
f r
Ġprem ises
14 7
Ġbl end
in yl
Ġterrit ories
Cl ose
Ġsm ell
ĠChar ter
ĠLl oyd
ab i
V ID
Ġrec alled
ĠY am
Ġcart oon
umb ling
ĠSub ject
I con
ĠJosh ua
á ĥ
J un
Ġdis advant
Ġbit ter
ĠJeff rey
ĠPier re
Ġsc ary
Ġport s
ĠEffect s
and o
ĠP D
P rim
ĠY orkshire
U CT
Ġmetab ol
i ens
ĠMot ion
Ġb ully
ne ys
Ġmanufact ured
Ġinher it
d og
ĠZ ero
ĠMan aging
Ġcompet itions
e ur
Ġvi able
Ġw ard
Pro p
ox y
Ġdep icted
Ġshare holders
AR N
ĠC F
ĠRe ference
Ġspect ra
15 00
ĠChap el
B ay
up le
ĠC OP
ĠP apers
Ġmathem atical
OU ND
IF A
Ġboy friend
Austral ia
9 11
ĠT ampa
pr imary
ĠC ool
Ġmand ate
S B
Ġlad ies
ĠG ates
ĠCh an
Ġal umin
ific ent
ĠGu est
ĠHur ricane
ĠESP N
Ġretail ers
Ġdis par
B er
Ġsacr ific
Ġd rain
Ġconfirm ation
ĠK il
ĠSh ows
as ive
= #
Ġche aper
' _
R ussia
n ell
Ġcomp iled
ĠYan kees
p adding
is ive
Ġfro zen
ĠMil an
Ġh tml
Ġpil ots
s ocial
Ġs el
ĠUs ed
ĠPo etry
Ġcoe fficient
% ),
Sund ay
ump ing
Ġlabel ed
Ġd ens
um ption
ĠE t
Ġtrib es
Ġmer ger
ON G
boy s
Ġintrodu ces
ĠV R
ĠElect ronic
ach ine
Ġsound track
ĠM ull
ĠNe igh
Ġf itted
Ġt ender
ĠMc L
og ical
Ġsynt hetic
f eld
ĠH erald
ĠInf antry
T unes
Ġnecess ity
Ġn u
ĠW ag
Ġdet ention
oy le
s ch
Ġin ch
ĠGl obe
Ġwhere ver
Ġfor b
is ible
Ġsp o
Ġaw kward
14 9
Ġcomb ines
m argin
Ġfl avor
ĠP DT
Ġdescript ions
rec ated
ring ton
Ġpre view
D ependency
Ġdu plic
spec ial
J SON
erg us
um at
Ġvalid ation
Ġelect oral
Ġconsist ed
add le
y our
se min
Trans action
Ġce iling
MA X
ĠArab ic
ĠC anyon
Ġshould ers
Ġprohib ited
Spe aking
ĠFil ip
h ad
ĠD od
ĠM ine
for all
ĠOtt awa
n c
) _{
Ġf rank
The ir
ors che
50 1
s ave
leg raph
2 12
Ġd umb
Â Ģ
ĠK ra
ĠSal v
vi ol
Ġatt ractions
sub subsection
Ġdraw ings
ens ation
ĠC I
Ġgrad uates
ĠOver all
ĠK on
work ing
' \
ĠIsa ac
Ch arl
ah an
re place
Ġ| \
Ġover d
ĠNep al
Ġvit amin
ĠV irtual
c ity
ĠAr g
n l
ĠJour ney
Ġor che
ĠR ise
Ġrun ner
ĠTh under
ops is
Ġn aked
h im
ok o
Ġtra p
ĠMedic are
Ġeconom ies
ĠJo in
Ġen roll
Ġde leted
g ary
ĠE ight
ĠCl ose
ĠFe atures
ne apolis
Can adian
T ool
Ġbehavi ors
em b
Ġl ane
Ġdon ors
min ster
Ġu ph
ĠG az
EN CE
ĠPro ceed
Me et
ĠJ ur
ig hed
b usiness
Ġp ale
Ġequ ilibrium
ios ity
Ch annel
an mar
Ġse al
Ġpack aging
Ġinv ented
ex ception
ĠB iden
DE BUG
ĠGu inea
est e
ed itor
ĠCh ase
By te
Ġcompris ed
Ġmathem atics
Ġn odd
Ġspe eds
Ġmed ication
ĠBl air
L os
V ERS
am pton
I Z
omorph ic
st o
Ġded ication
ĠC raw
ĠB ever
ĠAd ult
ĠEm irates
' }
Ġr iders
Ġapp eals
Ġbeaut ifully
S ingle
ig s
ĠMarc us
,\ ,
ĠCh and
Ġpen alties
Ġass ured
ĠEdd ie
ar ma
ĠExcell ence
in line
Ġspir its
Ġsc ared
Ã ¥
Ġapplic ants
Ġb atch
Ġsupport ive
Ġhab its
Ġbreath ing
ĠF E
Ġopp osing
Ġmin isters
ĠL arge
Ġderiv ative
Ġsubsc rib
ĠW ine
ĠMin i
Ġj er
Ġreli ability
pass word
D ialog
Ġide ology
ĠBenn ett
ĠHol ocaust
rict ion
Ġac claimed
Ġrespond ents
Ġstrong est
F ix
us ers
ĠJo el
s ol
14 3
sh are
Ġthe rapeutic
Ġstat ue
Ġfirm ly
Ġdr one
Ġefficient ly
Ġfe ver
Ġform ats
S Y
G overnment
M id
he rence
20 5
ĠE sp
Ġc ure
OL D
M ont
Ġper ipher
ek ing
ak y
ĠDem ocracy
Ġvis a
ru p
T re
Ġre ver
j or
ĠPhot ography
Ġsculpt ure
Ġdis crete
Ġsurv iving
Ġelim inated
}} ^
Ġbe ef
Ġemb ra
ĠA CC
Ġp uls
man uel
Mart in
ĠA IDS
ĠFlore nce
ĠGreg ory
Ġdisput es
K A
ĠShan ghai
Ġreg ulated
ark er
ĠEag le
Ġgu ides
FOR M
t ip
ox ic
> ();
Ġsupposed ly
ĠB ent
Ġp a
ĠEv idence
t oggle
At l
P y
Ġth y
Ġn inet
Ġd in
Ġfrequ encies
Ġtend ency
Ġcompan ion
ĠR S
Ġrad i
Ġinvent ory
Ġmet adata
Ġclar ity
ĠH arm
ĠG and
Ġavoid ed
ĠIn come
Ġang ular
Ġmat rices
Ġa ired
14 8
ĠMu eller
st ats
Ġtempor al
ĠF ernand
Ġm unicipality
ĠÐ ¿
ĠB B
Ġaff irm
ĠMer cedes
ĠBr ussels
Educ ation
ĠK er
ĠPre p
ĠT N
Ġple asant
ĠRes ort
Ġemb ry
ĠB ert
ron ics
M arc
Ġm aker
com put
M ic
o T
ĠTour nament
bo olean
ĠF resh
Ġun comfort
Ġguitar ist
Ġcomput ational
D eb
Ġyoung est
Ġgorge ous
Ġmet all
ĠLet ters
Ġtradition ally
Ġtreat y
Ġsuper b
inter est
Ġexcept ions
des ign
op ard
Ġhead lines
Ġhon ors
ĠM ills
ĠRe becca
ĠM ig
Austral ian
ĠD uncan
ts d
ĠCry stal
Ġlim iting
20 3
ĠSustain able
ill es
ĠM oses
) ^{\
c reat
Ġ[- ]
D ou
Ġremain der
O s
item s
Ġsubsid iary
rad ius
Ġdis hes
Ġ ).
Ġrestrict ion
ĠRe agan
h om
ĠInit ial
ĠT D
ĠB S
Ġ' /
Inter view
ĠIn fo
Ġst ays
ĠPar ish
Ġb undle
Ġgrad es
ĠCy cl
Ġincorpor ate
omb ie
in her
Ġsh ifting
ĠR ush
Ġrem inder
En abled
Ġsp otted
Ġg aps
Ġinteg rate
ĠM atch
ĠPat ients
Ġcre ep
; /
stit ute
Ġvirt ue
Ġtr im
ĠTreat y
Ġm a
Ġl ingu
Ġsl ip
ĠGl enn
ener ation
avel ength
k el
Ġpurch asing
Ġas h
ĠGr ade
Stat ement
ĠS eg
ut ton
Ġpract ically
ĠProf ile
Ġbomb ing
App le
re a
C ert
à¥ į
c ue
Ġ å
Ġc ater
Ġj okes
2 15
m ons
æ ĸ
ĠK re
Ġtoler ance
Ġadmin istered
m inded
Ġf ictional
Ġmer c
Ġn erve
ĠHe at
han ie
ĠKnow ledge
D igital
ir us
A li
ĠTri p
plug ins
Ġport ions
Ġab oard
ĠZh ang
27 0
it ic
Ġdou b
ĠWat ers
Ġqu een
Ġkill s
Ġ$ .
ĠAnaly tics
i aries
Ġlast ed
C ome
ĠT ol
Ġcorn ers
Ġlo vers
Ã© t
Ġpress ed
ĠSu ff
ft en
Ġenjoy able
ĠMem ory
Ð¾Ð ²
Ġcapital ism
E ffect
Ġsuper hero
Ġn od
Ġimag ined
T alk
ak u
Ġshe er
am o
Ag ain
ĠS ullivan
ke ep
ĠDef ault
Ġwood s
Ġbill ions
Ġtra its
l arg
Ġâ ĪĴ
ject ion
Ġsupp liers
Ġhe d
Ġdeterm in
Ġv o
ĠA ub
Ġspons or
C AR
fl at
K im
Ġins isted
Ġrecruit ment
ol esc
ĠD esc
In f
ĠTam il
Ġd rought
oy s
t v
Ġsp y
Ex ec
Ġden ial
rem ark
Ġsport ing
ĠÃ ī
F ar
Ġfavor ites
Ġpra ised
ang ered
St orage
Ġloyal ty
Ġinter ven
Ġh alt
Ġinv ariant
ator ial
ĠPer u
ĠToy ota
ÑĢ Ð°
Ġthro at
Ġsubstit ute
Ġpl ed
Ġl oses
ĠBer g
Ass ert
er ion
Ġcomplic ations
}^ *
M OD
angel ical
che z
o qu
ĠWorks hop
I ll
Ġmod ification
S ave
ĠThe rapy
Ġsmall est
ers et
Ġtra ils
Ġpres ervation
reg ister
ĠRel ated
M atch
ĠÃ ł
_ ;
Ġhold er
Ġpup ils
ĠMont gomery
r ina
ĠN H
Ġess ays
ĠL ac
ĠPublic ations
Ġver se
Ġpar ade
Ġconfig ured
ĠAssoci ates
ĠE S
ĠBe hind
Ġen rolled
Ġp ixel
Ġcomput ation
ĠUs ers
ĠWrit ers
ant on
Ġa meric
Ġc ens
Ġcrit ically
Ð½ Ð¸
per p
16 8
Ġillust rate
Ġm asc
Ġas ympt
ĠJo an
ce ans
Ġmem or
ĠSim ple
ĠAn im
ser ies
=" ">
ĠF acts
Ġstory telling
â ĸ
pl ot
ount ain
ĠBa iley
Ġpl ots
c ery
Ġinv itation
Ġfin anc
Ġtrans plant
Ġwa ited
Ġprospect ive
en es
ĠP av
Ġv endors
th row
Ġle verage
ost alg
Ġ} \
Ġenthus iasm
ĠBas ic
Ø ¯
ĠI gn
ĠN om
Ġconnect ivity
yst er
Ġreg ression
Ext ension
X ml
ĠGene va
ĠBrig ade
ĠB ag
ĠFellows hip
18 90
Ġdest inations
ĠSoc cer
Ġexcess ive
G I
F und
H ard
Ġ+ \
ĠN I
ĠÂ «
Ġrespond ing
in ology
Ġaccount ability
z heimer
Ġsex ually
ĠC ir
Ġtra fficking
stit u
Ġbom bs
Ġl over
per ed
Ġundert aken
ĠRe venue
Vol ume
Ġfinal e
AM P
ĠPe ak
ĠO z
Ġteen age
Ġrese mb
ĠProp het
Ġfunction ing
Ġbreak down
Ġempir ical
ab ases
Ġb ip
c b
Ġint ra
Ġpractition ers
Ġbra ve
ĠLi u
_{ -
Ġswitch ing
Ġout lined
Sever al
w rap
Ġaest hetic
sh aped
ĠRom ney
Ġat omic
ph is
Ġtour ing
Ġconsist ency
Ġalt ogether
ub s
ĠAct ive
Ð ·
Ġaut onomous
14 1
ĠR ugby
EN S
Pan el
ĠC elt
Ġprov incial
re p
Ġst ance
Ch anged
ĠProdu ctions
Ġment ions
ĠN um
Ġc ref
ĠF ra
Ġdel ays
Ġnav igate
ch at
Rad io
ĠD ylan
ĠTe acher
Ġpresc ription
ĠL akes
Ġsu its
ĠK umar
if ference
) ?
Ġc ake
ĠS ession
Ġn ep
ĠPr ide
Ġens ures
G rand
Ġaw ait
Ġdesign ing
Ġjew el
Ġext ensively
Ġexhib ited
ĠW end
28 0
Ġque ue
g b
G erm
lo op
Su ccess
ef e
j ack
M ock
Ġsound ed
Ġgrad uation
Ġdiscl osed
Be ing
14 6
R a
ific ant
Ġtri o
f act
26 0
Ġgen res
Ġcast ing
Ġwithdraw al
ĠL is
Ġfaith ful
T L
s at
Ġg ates
Ġembod iments
Ġwe aken
Ġharm ful
ĠR af
ĠDan ish
Ġs ink
Ġcor rid
W alk
ĠW ere
3 000
ĠAngel a
l ayer
Ġpress ing
ear ly
ĠR ena
ĠMah ar
Ġpul se
Ġsuspect s
Ġdatas ets
J ac
Ġsus cept
Ġrob ots
ĠGro ve
Ġampl itude
Im port
Ġur ge
Ġalign ment
Ġins ult
ĠAr med
Ġpres idency
T witter
ĠD awn
is ers
Ġplan ets
Ġbackground s
Ġdevelop s
ĠD I
Ġland mark
19 08
Ġrenew ed
Ġg reet
m ock
ĠR ah
ĠL ik
Ġconsider ably
ast ics
Ġtim eline
c ology
Ġscatter ing
Ġthr illed
d iff
ie ces
ĠR aw
Ġblog s
ĠM az
ĠInt el
Ġesc aped
ĠT at
ĠPost ed
ĠTr inity
ÂĢ Â
act ivity
ĠM idd
Ġfundra ising
um atic
riv ed
ER V
ric ia
ymmet ric
g mail
Ping back
} &
Ġconv inc
ĠParliament ary
ĠHe ights
ĠG ospel
EL ECT
{ "
ĠAthlet ic
ĠL ives
ĠW R
Ġb izarre
Ġcritic ized
ig nt
Ġclimb ing
Met adata
ĠP U
ine es
ĠLu is
g reat
AR CH
W O
im ity
Whe ther
Ġas ylum
gr at
ig ue
ĠSw an
ĠMot ors
Care er
Ġsing ers
Sc ience
ĠRestaur ant
as se
ĠâĢ º
Ġgraph s
ĠRele ases
ĠStev ens
Ġp ist
Ġdeal ers
k l
Ġacc idents
B ank
ĠNew castle
ĠT E
ĠP am
ĠR ural
Ġnot ation
Ġb ind
ĠTest ament
C V
Ġcar ing
Ġaband on
Ġce ase
}} (\
Ġassert Equals
Ġcancell ed
Ġrem em
An not
su pp
Ġmark er
m ut
Ġb ell
tx t
D ebug
P ool
ĠDeg ree
Ġrandom ly
Ġb ugs
ĠG y
a que
Ġsm iled
ug hed
Ġphenomen a
hist ory
Ġprompt ed
e very
ĠC os
ade qu
ear chers
Ġvalid ity
Ġdel icious
ĠC ertain
ĠML B
te chn
wid get
ĠP om
ĠY ale
ĠG ender
ĠH ERE
ĠV ic
ĠPr im
ĠBeaut y
ĠCl aire
Ġd ragon
ĠT iger
h ma
art et
G raph
Ġdiagn ostic
ĠP owell
Ġharm ony
Ġdist ances
Ġs ang
Ġle ver
Ġall ocated
ĠCh ang
s al
s ing
Ġfil med
Ġtext ure
Ġall ocation
L ee
b ishop
f re
Ġp ars
Ġdign ity
E conom
Ġexerc ises
ĠColl abor
) }(
Ù ĩ
à¤ °
Ġqu arters
ĠProt ocol
Ġprotect ive
Ġplay offs
ass oci
ord ered
ĠRom ance
ob a
ĠBudd hist
Ġencourag es
r Ã©
ĠNet works
{ $\
ed e
Ar gs
H ub
ĠBill board
Ġw and
ĠSche dule
Ġsh ake
Ġm ate
quir ies
m ac
ĠTe en
ĠR NA
Ġl umin
Ġcont ra
H u
t ures
Ġimm igrant
ĠCong o
ĠVol unte
__ (
Ġwrit ings
ĠReyn olds
15 7
cont rolled
Ġindic ator
ĠB og
ĠV AL
b ane
ĠLe eds
ins ic
ij i
Ġblock ing
rand om
Ġbo om
ope z
oper ative
Ġdeliber ately
Ġoff shore
Ġinst inct
Sub ject
ĠFle et
Cent ral
Un fortunately
ĠTe a
Ġqual ifying
A mazon
Ġc av
AD D
Ġu gly
Un ivers
âĢ ³
es ity
b its
Ġim plements
Ġflood ing
Ġelectron ics
Ġdepos it
d c
Ġintent ions
ĠT ips
ĠMur der
do ors
ĠC AN
Ġurg ent
ĠD ame
ĠPal mer
Ġadvis ory
par agraph
l ated
Ġinter vals
Ġinc idence
pl atform
Ġunder way
Ġcor p
Ġhelic opter
ĠHe ather
it ated
Ġcoord inator
Ġextract ed
ĠMyst ery
Ġc and
Ġd ip
ĠĠĠĠĠĠĠĠĠĠĠĠĠĠĠĠ ĠĠĠĠĠĠ
ĠVerm ont
ĠWar riors
ON D
ib an
Ġdeb ates
Ġbow l
Ġpolynom ial
el ines
Th ursday
ĠQ atar
Ġhead line
ĠH annah
te enth
ĠA chie
Ch ief
E ll
Ġ- --
ĠL ov
ĠSch w
J S
Ġp owder
gener ation
os ures
ĠNS W
Ġmob il
ĠI van
ĠLu cy
Ġaffili ated
Ġlim itation
Sm all
Ġ$ -
Ġconsider ations
15 2
ĠD ementia
ĠSw ift
H a
ĠP rix
ST AT
Ġprodu ctions
Ġst ab
)) )
ĠM Ps
$ ).
Ġind ie
Ġstruct ured
Ġsent iment
ĠĠĠĠĠĠĠĠĠĠĠĠĠĠĠĠ ĠĠĠĠĠĠĠĠĠ
Ġr ats
Ġk g
Ġ| ___
Ġanaly tical
Ġchar ming
commun ications
Ġdis charge
Ġadvis or
Ġcount ed
Ġlaugh ing
Ġd irt
ass ets
re v
u ably
ĠApp endix
\ _
ĠDes ert
Ġprot otype
Ġla ughed
Ġcost ume
ĠTe aching
ograph s
Ġsuccess or
Ġparticip ant
an che
Ġb ush
b uf
Ġathlet ic
ent ieth
Ġang les
pro gram
k ov
ĠA way
ĠGarc ia
Ġo ct
M onday
ast ian
OS E
display style
19 2
osp ace
Ġexhib its
Ġcent ered
Ġ< =
Ġblood y
ĠB row
Ġview er
Ġbutt ons
ar ians
Ġhat red
Ġ{ };
ĠQ ur
T M
or ian
ort ium
ĠL amb
Ġstat ute
amaz on
Ġre nd
Ġbi ography
Ġfar mer
ĠD ale
he y
ĠK erry
Ġenter prises
ent ric
m ile
Ġg rief
Ġfail ures
ia o
ĠRo ose
es ian
G rad
th read
15 1
Ex ample
te am
` .
14 2
Ġdec iding
fort unate
ĠSuper man
ac cur
ĠB in
ock ets
Ġhere in
R ender
Comm unity
Ġteen ager
ĠS aw
bul let
Ġinher ited
e ous
plement ation
ar u
Ġdis contin
ä º
Ġback s
Ġlic ensing
E ric
ĠRec ent
Ġ ul
Ġt ast
\\\\\\\\\\\\\\\\\\\\\\\\\\\\\\\\ \\\\\\\\\\\\\\\\\\\\\\\\\\\\\\\\
âĢĶ âĢĶ
ĠArn old
F rance
ĠA ma
rol ogy
Ġsymmet ric
ĠG ang
M apping
ĠTH IS
Ġtr illion
Ġrecip ients
type of
itz er
Ġmark ers
Ġfort une
ĠW el
Ġstrength s
Ġamend ments
Ã Ĥ
roph ic
us a
Ġse ized
ack ed
p aid
ibl ings
ress es
ivid ually
ĠRes olution
ĠGa ussian
Ġportray ed
Is lam
Ġas pir
Ġrecru iting
Ġbe ats
ĠK ap
ĠSt ef
Î ·
Î »
Ġsever ely
ĠLaw s
Ġb ridges
B rian
ploy ed
ĠD iana
Ġimpact ed
B al
ĠPro ced
ĠApplic ations
at ivity
ari ance
R oot
st eps
Act ivity
ĠA V
iss on
ĠAb stract
Ġcompet ed
Ġcontrad ict
C ost
Ġunderstand s
Ġcycl ing
Ġu pt
ĠCom ic
ĠPear l
Jose ph
Ġres ur
ĠAm anda
Ġsup rem
Ġele ven
b ott
ĠEmb assy
ĠP ray
i ott
he tt
ĠEthiop ia
ĠO wen
Ġpers istent
l ord
Ġutter ly
ĠExper t
ĠEll is
Ġaggreg ate
19 05
Â £
C redit
N I
Ġgreen house
Ġsoc io
ĠLyn ch
ĠEduc ational
Ġriv als
Ġch ore
ag ar
IC T
ĠEnt reprene
cont roller
c ock
ĠF REE
Ø ª
Ġclick ing
prot ected
List en
alth ough
n ut
ĠAl pha
Ġmem oir
Ġra b
iod iversity
ĠHop kins
u id
ven ile
on ce
ĠDe leg
ĠW HO
Ġcomm ittees
20 4
oc o
ĠR oth
Rem ember
ĠF ocus
Ġperman ently
ĠMcC ain
ent e
Ġexpress ing
Ġp unk
M ex
ĠG raph
ĠMathem atics
Ġbre eding
Ġbelie ving
Ġsa fer
ili ated
Ġmiss iles
ĠEll en
Ġappro ve
Ġor chestra
m om
Ġprov ing
b ial
Ġsp ray
ĠW u
ĠRe ve
Ġconnect s
ir ate
Ġinter pre
With out
Ġinf ant
Ġorder ing
ĠT all
Desc riptor
Ġj son
ro b
Ġpat rol
Ġmid st
ĠR F
Ġd ot
Sec ret
Ġtempor arily
ĠAh med
z el
ĠScholars hip
Ġappeal ing
Ġcontract or
Ġw rap
Ġun e
ĠD j
Ġch lor
ĠCon fig
T rad
R oman
Ġth under
Ġca f
bl ank
ĠCongress ional
C ould
ach i
18 80
ĠBeat les
ignt y
) ^{-
ĠMem phis
âĢĿ ).
Ġd st
Ġpresum ably
ĠI O
ĠSurg ery
ours es
ph abet
30 1
ĠOther wise
Ġnom inee
M obile
ĠP ac
ĠT ool
Ġpar a
Ġspons ors
Ġb out
avor ite
Ġres et
ĠD iet
Ġdies el
Ġdisc ourse
n ai
stitution al
Ġunve iled
Ġout break
Ġre un
19 06
Ġdon or
sw orth
ĠCh ad
Ġrel ies
uis ine
6 50
Ġgu ilt
Ġsol ic
Ġcar riers
ĠUS B
ĠW rite
R en
ĠCl iff
ra its
ĠF actory
ĠSh ield
s ets
Ġwar fare
ĠD ol
Ġemb ark
Ġtrigger ed
Ġuncomfort able
ĠB ir
ĠLyn n
ure ment
j ob
Ġdisturb ing
Ġp iv
Ġro ok
Ġsl ope
ad ians
ĠJes se
ĠV atican
Ġi Tunes
Ġimp ly
ĠGab riel
Ġre named
oper ation
Ġimm ers
Ġle ak
bu ilt
Ġat oms
Ġactiv ated
Ġms g
ĠB A
L atest
Ġa thlete
Ġcul min
spect ive
he res
Ġt at
ĠD escription
Ġmac ro
ĠBe havior
Ġener gies
Ġeleg ant
b p
f c
ĠC andid
Ġlisten ers
ĠL uck
vis ible
j et
Ġpri ests
ĠPrinc ipal
ergus on
serv ices
Sim ple
Ġ& =&
ĠG C
Ġrhet oric
Ġveget ables
Ġshock ing
ĠR d
ĠZ imbabwe
ĠBarn es
Ġviol ated
Ġde port
Ġpurch ases
c as
FA ULT
Ã ª
Ġt ensions
Ġcr ude
Ġe q
Ġfound ations
Ġhilar ious
F iles
Ġhe al
Ġ" /
Ġshe ets
Ġtre asure
==== ==
Ġcan vas
Ġimplic it
W C
S ET
Ġst ressed
ĠL ud
Ġout line
Ġc iting
let te
Ad am
word press
O UT
ĠInf lu
is i
Ġres ume
Ġimag ery
Ġres igned
ĠC V
ili ary
Ġam big
Ġvari ance
s ime
Ġ$ $
=" "
M ah
col m
Ġpath ways
Ġb tn
Ġspec ulation
disc iplinary
F ood
Ġt rivial
Ġjust ified
Ġreg ret
Ġpar as
Ġsqu ee
ĠRoose velt
Ġnurs es
r ar
Ġsk ip
Ġdiscl ose
âĢ¦ ..
Ġsign aling
ia z
S ix
Ġdist ribute
Ġgame play
Ġche f
ĠGet ting
Ġex terior
pr us
Stand ard
S uch
av in
15 6
es a
ĠSac ram
ĠC raft
ĠT ag
u cc
CL A
ĠS ett
20 8
Ms g
h s
ĠIndust ries
ĠBul let
Ġtra ct
ĠFem ale
Ġmarket place
Ġcoord ination
et itive
18 5
ĠK in
Ġrele vance
ang led
ĠGil bert
Ġfilm ing
Ġassemb led
Ã¶ r
ĠB urg
sime q
Ġw reck
ĠPop ulation
Trans port
nam ents
Ġgener ates
Ġpat ron
Ġavoid ing
Ġexhib itions
ec hes
Fil ms
ĠN GO
un ique
Ġref res
Ġprec ip
âĢ ĥ
Ġmid field
Ġp ixels
Ġfemin ist
ĠI g
Ġreserv oir
ĠB uch
Ġtouch ing
Ġillust rates
ans on
ur ally
?? ??
ĠGo ing
ĠTrib une
ER Y
C enter
cl ock
Pack age
Ġvari ants
ĠAsh ley
call back
at ibility
ĠV ers
de ep
Se lected
Ġm eter
Ġra ck
Ġsk etch
J ew
Ġder ive
20 6
c aster
Ġpresent ations
ha us
Ġconcent rated
ĠGe off
E Q
ĠD IS
ip eline
40 1
Ġto ys
uck land
ex cept
Ġcustom s
ĠBern ie
ĠNov a
Ġcon grat
at as
atin um
Ġdesk top
Ġal pha
ffic iency
ĠLaure n
pl ess
ĠMin neapolis
lyn n
Ġbankrupt cy
ĠS end
Ġnut ri
st ad
Ġ[ ...]
iov ascular
Ġprop he
Ġsoul s
ĠS ah
ĠG ift
vent h
AV E
on er
od ic
en um
ĠÃ Ĺ
ĠId aho
Ġjav ax
an aly
ĠF ou
ĠP ere
ĠB ris
ĠAb bey
ĠDev il
ann ers
}$ -
Ġnom inations
Ġscatter ed
ĠMor rison
el ong
duct or
prot obuf
ĠC it
d n
ĠGib son
ĠAct or
es pecially
Ġpromot es
ĠHe ath
man ager
IP T
Ġlit eral
Ġam en
l oss
oc used
3 70
id get
Ġjump ing
H ello
Ġcred ited
rom agnetic
te in
ĠAng els
if acts
Ġcontribut es
ch ard
Pro file
ĠRet ail
r il
ific ates
O fficial
Ac adem
Ġfil ters
Ġev olving
ĠW als
Ġconcept ual
Ġsc roll
Ġcontract ors
Ġquestion ing
deg ree
ĠA ber
Ġcongress ional
) }{\
ĠK as
atter ed
erm ined
Ġconsum ed
add r
an ol
ĠC B
ĠPers pect
Ġcomp ilation
C at
` ,
VERS ION
ĠH aven
Ġchar m
Ġident ifies
ble ms
Î ¼
Ġvis ibility
ĠPhilipp ine
ĠC ord
ĠMark ets
Ġintrig uing
Ġsaf egu
Ġlegisl ature
5 50
pol icy
ĠT ow
im eter
ĠApp eal
ĠLa unch
Ġm asters
ĠH ours
Ġcomb inations
he ars
n as
it ars
Ġr ifle
ĠĠĠĠĠĠĠĠĠĠĠĠĠĠĠĠ ĠĠĠĠĠĠĠĠ
Ġelabor ate
Ġunder go
ĠD B
Ġtaxp ayers
Re lease
ruct ive
Ġ( #
st own
ĠO g
Ġfair y
Ġcom merce
Ġang el
ĠRef uge
Ġadjust ment
[ (
ĠNob el
ic ator
ĠD rew
ri ages
Ġ= \
t urn
el in
") ]
Ñ ĩ
ĠHu gh
) ">
~ $\
ĠKash mir
he ries
ane y
ri pp
Ġtrib al
Ġb ite
Ġreflect ing
b old
Ġre vision
Pl ayer
b ay
ĠT aking
ew ater
h ran
cm d
ĠSol omon
Ch inese
Ġvol can
E V
ul se
Ġend ors
Stud ents
Ġmanufact ure
ard i
Ġsub stances
ĠGerm ans
ou x
ie u
Ġviol in
ĠU nd
Ġdes ires
Ġeduc ate
ĠTes la
âĢĿ ?
Ġnav ig
Ġamb assador
ĠL if
Ġarch ives
Ġver dict
Ġmon etary
Ġ{ "
inds ay
f ac
ĠO C
vol ume
ĠLaw yers
ĠExhib ition
ĠW elcome
ĠBre nd
j oint
Ġsubject ed
E s
ok u
S elf
ĠIn fin
5 000
j query
Ġd b
l g
ĠBatt alion
ĠTh rones
Aut o
Ġtrans fers
Ġt witter
id y
ĠN R
ag ain
Ð ¿
ĠR ate
ĠRec ogn
15 3
ĠRuss ians
S ir
ĠCase y
Ġb ubble
ĠForm ula
ĠAl zheimer
W il
15 8
Ġassess ments
Ġbench mark
Ġstre ak
j ah
b ai
Ġrub ber
ill ary
ĠC ricket
mar ine
Ġcrowd s
av our
ĠCrit ical
P F
Ġat he
ert on
Ġprotocol s
ch ief
Ġbatter ies
V ery
or p
Ġgrab bed
^{ +
ars et
ĠS QL
ĠA ur
h p
ĠTrans fer
Ġident ities
[ :
Ġdem ographic
T uesday
Ġevolution ary
Ġsp ont
ĠG PS
Ġexp at
Â ´
W ood
Ġopp ose
19 09
Ġphilosoph ical
in as
OR S
S ite
om ore
Ġver ified
re ne
Ġmod ifications
det ail
C a
Ġmer ged
Ġdepos its
Ġpun ish
Ġincent ives
Mat rix
Ġcontin ually
Ġfu els
f ixed
B rien
G rid
ing o
Ġindic ators
ĠAtt ack
Ġutil ized
Ġen v
comp onents
Ġin duction
ex ists
Ġcol ours
Ġc ute
Ġarg uably
det ails
Ġsu ited
FI LE
ĠS yl
Ġnodd ed
ĠNov el
T our
ĠM atter
an ium
Ġcap ac
ĠSt ay
ĠL ed
c ro
ĠD ictionary
Ġovers ight
pro perties
pat hetic
Ġsear ches
ĠCent ers
W ould
ĠCh anges
Ġreal ise
Ġint ensive
Ġqu eries
Ġdim ensional
s ingle
ff ield
Ġvar ies
Ġorgan izing
ĠEngine er
ĠM ead
Ġv intage
V ir
ri ans
arch ive
Ġint end
ag ne
ĠS ax
Ġcompos ite
Ġmon sters
Ġmagn ificent
M aterial
2 24
Ġsh ook
clud e
Ġrem ed
Ð ¹
ĠD ifferent
S us
Ġp el
Ġload s
ĠN ames
Ġsim plicity
ĠIll ust
ĠRena issance
s ymbol
Ġatmosp heric
u ilt
form ing
ĠReg ulations
Ġst amp
PR O
Ġdestro ying
ĠO H
ĠK i
Ġgl uc
R on
Ġf ence
ĠH ass
ĠW ords
pl ain
Ġtechn ically
ph ase
mod ern
Ġaccount able
ĠConf ed
Ġstat utory
or f
Ġph r
ĠIndian apolis
F ac
Ġfac ial
} )$.
ĠP rest
Ġneg lect
ĠCroat ia
ĠBloom berg
writ ers
ĠCh arg
ĠM t
Com put
ĠLie utenant
imp se
Ġhand ler
Ġdig est
A z
Ġind ividually
ĠSaf e
ĠM unicipal
intend ent
it ably
ĠB elt
Ġind ices
Ġre nov
Ġinter im
Ġreview ing
ri o
o fficial
Ġlong time
Ġplural ity
l ibrary
16 1
OV E
ĠAnn ounces
Ġille g
Ġr ises
" ?
ĠG roups
." ,
ull ah
EC K
Ġ\ (
Ġsubsc ribe
Ġc otton
ĠBre tt
S orry
ĠT ex
Ġec ological
c ong
ĠTim othy
eal ous
K en
urch ase
ĠPl aza
Ġam ateur
L anguage
Ġli able
Ġca res
33 33
whe el
ĠS V
Ġpr ayers
K evin
osp here
ĠB un
ĠM ets
ĠPlay Station
ĠF olk
Ġseason al
ĠS Y
Ġal igned
as ht
IG H
Ġpropos ition
Ġmid night
ĠTh ai
ĠK urt
Ġoccur rence
ĠMar riage
Ġrese m
Ġlink ing
mid t
Ġp ian
Ke ep
Ġbl essed
Ġord in
ins ky
ĠSpe ech
ĠT yp
ĠLGBT Q
ĠSh ore
Ġb rack
ul k
ock ing
ĠSex ual
Ġd read
Ġshall ow
In ternal
L ow
hor izontal
Ġ" "
ĠL ily
\| _{
enz ie
Ġcapt ures
W W
Ġev olve
Ġreb ell
ol ics
Count ry
ĠG ross
Ġpuzz le
Ġstr anger
um en
Ġd ash
16 9
stand ard
Ġaccompany ing
19 01
atter y
rypt ed
ru ce
19 07
ĠM oss
ĠLeg acy
ĠDisc ussion
Ġconf using
Serv ices
ĠRail road
Ġc ad
Ġperiod ic
lim it
Ġj am
the m
drop down
Ġn inth
ĠK end
re z
ĠTh ing
ĠDec ision
Ġkid ney
Ġout look
Ġorgan ize
ĠAl ban
Ġv inyl
ĠMedic aid
ĠCal if
w ig
ĠP rec
ĠResp ond
Ġlect ures
Ġconclud es
ov an
cil iation
Ġeffic acy
Ġnav al
oubt edly
Ġprox imity
ote chnology
ĠU ber
Ġdet ector
ick y
Ġtr ash
pm atrix
) _
R ect
ä »
Ġcreat ors
Ġin verse
Ġcry ing
sub ject
B rand
ĠZ ach
ela ide
ĠD olph
Ġquant itative
le vard
Ġmer it
ĠRel igious
Ġsexual ity
ĠM Y
param eters
r b
ĠMy anmar
Ġprem ise
Ġin k
ĠP orsche
B uy
ĠSh ir
Ġun fortunate
ur as
K n
ĠCol lections
ay ed
ER N
ĠBen ed
Ġceleb rities
15 4
Ġins u
Ġderiv atives
ograp hed
19 04
ĠFe ature
Ġp ile
ĠCab inet
Ġsuper vision
ĠRem ove
ĠEn cyclopedia
ĠÃ ¢
% %
Ġment or
Ġabsor ption
ĠNiger ian
ĠAd m
ic z
Ġsell s
ĠB eg
re lease
ĠH off
Ġex cerpt
Ġne at
neg ative
Ġun to
Ġreal ised
amb ia
Ġlearn s
ĠK ick
Ġexplo itation
new command
ĠH S
Ġwrest ling
ĠC ov
se par
Ġpal ace
Ġdeter ior
Ġdr ift
ĠAndrew s
ĠPro blem
Ġvari eties
Ġmus cles
Ġpan ic
Ġperform er
Ġgar age
ĠArm strong
le vant
Ġinnov ations
ĠCl are
ter ror
P acific
ĠW ays
g ae
c ourse
ĠEn forcement
h appy
ĠG B
Ġkn ocked
16 6
Ġselect ing
' ))
G reg
J es
ĠH ood
ĠAl most
Ġsett lements
ĠV ideos
Ġposition ed
Ġdece ased
ĠI E
Ġcont empl
ot ics
rad io
Ġun anim
() {
ĠSer bia
Ġfresh man
Ġcolle ague
r ans
ĠRe id
support ed
ĠP ok
ĠA RE
ĠHar old
Ġkilomet ers
15 9
Ġobst acles
ES CO
Ġint ake
16 7
ĠD erek
Anal y
G N
Ġd ive
Ġrelig ions
Ġr ides
=" @
c ook
w ent
F act
ĠON E
Ġnort heast
Ġspot light
U ID
Ġth umb
ĠN atal
ĠWeek end
ĠW ool
Ġsid ew
Ġde er
Ġutil ize
Ġwh istle
ĠAn at
T en
p u
ĠDar win
Ġh oney
Ġg rip
Ġrel ie
Step hen
ber ger
arth y
os lav
ĠAr senal
Ġt ire
F uture
ĠH ook
ĠR andom
kins on
gener ated
ge x
Ġgenu inely
v on
Ġa ston
Ġch ase
Ġpass ive
Ġpoly mer
Ġsp ends
ĠR us
B ey
Ġment ally
Ġin coming
Ġlapt op
W T
Ġscr atch
Ġa ux
sc roll
Ġrec alls
ĠInf rastructure
Ġan x
l b
im on
ĠM AN
d ark
it ud
Ġre wards
Ġsynt hes
Ġexp ose
ĠCo ffee
Ġexam ines
Th ird
ĠM M
Ġcol ony
ll a
ograph ics
H op
ĠO UT
ĠJ in
u ador
Ġfoot print
Ġpriv ately
Ġl akes
m il
ĠS ara
ĠEx tra
Ġsoon er
ĠW on
IT ION
ĠAmeric as
aj a
Ġimp air
ĠR ams
n ings
Ġro d
ĠSim pson
In st
ĠSand y
ast ically
Ġcommit ments
ĠH ash
n om
Ġminim ize
W as
ĠS K
ĠT as
pen ame
Ġir rit
n ick
Ġmake up
Mem ory
Ġextra ction
Î º
F riend
ĠRay mond
ĠM ik
I AN
Ġforth coming
um per
board s
Ġorgan izational
al ities
Ġmicro sc
ĠUn less
Ġswit ched
Ġinter fer
M eta
T urn
att a
ĠAb use
qu o
Pl us
Ġinsp ect
It ems
ĠT ales
In stead
gu ard
Ġwh olly
Ġprot agonist
in us
Ġw avelength
ant o
Ġind oor
Ġfrust ration
Ob j
al one
Ġafter math
Ġexam ining
å ħ
ed i
ĠBeng al
if i
ard less
Ġbro ker
ĠSn ap
ĠS ame
ĠU I
Sc ale
w yn
ĠF ear
B AR
ĠPer fect
Ġin con
I ts
ĠA A
16 3
ĠH our
d ad
requ ency
Ġref uses
ĠD ow
Con st
ĠBel le
Ġhost ile
ke eping
ĠInvest igation
v oc
ĠFran co
19 03
ĠB ec
ĠRodrig uez
ĠM BA
Ġm our
ost ics
ip es
N othing
IC A
Ġgover ned
Ġdisg ust
Ġbreak through
ĠId entity
sche ma
ĠDecl aration
ĠL il
ĠPost s
Ġproport ional
ĠF ramework
Ġpre fix
Rec ent
om ics
Ġre construct
Ġaccording ly
ĠP orter
enn ium
ĠPre vious
Ġmeant ime
Iter ator
ĠMon ica
Every thing
ĠCon cept
Ġcorre ctions
cess ion
X ML
c ano
log o
More over
ay ette
develop ment
Â ½
art en
Ġinv isible
ĠFor ward
ĠTra iler
$ $\
are tt
ĠN y
ĠV it
year s
ĠIS O
Ġsu cc
ĠFl ag
bet ween
ĠC ult
th rows
Ġhung ry
ogen esis
ĠN as
Mult i
ĠM ale
Ġancest ors
Ġthick ness
ĠHamilton ian
Ġn uts
t ools
ro ots
on ential
D atabase
Ġver b
ĠW inn
Add itional
ir teen
pat ient
v able
Ġr ushed
G s
ĠTh reat
in ters
Part icip
ĠKn ights
L INE
Ġbehavior al
Ġsu pers
ĠC osm
ym es
IC AL
Ġm ines
du cing
Ġfru its
re ed
ĠR M
Ġm im
el m
C arl
ĠM ight
Pl ace
ĠE asy
ĠD river
ĠV e
Prot ocol
20 7
Ġv ivid
ot or
Ġat om
Ġn est
ĠW rest
re lation
assert Equals
f ox
i otic
Ġc ement
osh i
Ġhier archy
ĠBrad y
ĠN Z
ĠK r
Ġnorm s
Se ason
N a
ĠContin ue
ĠP it
ING S
h bar
ĠEx ample
Ġimpro ves
t ik
Ġpro long
Ġste ering
Ġcontribut or
âĢĿ ),
h aul
ĠP and
ĠMun ich
T exas
D OC
Ġreson ance
Ġen rich
Ġc raw
Ġland scapes
Ġdecre ases
ĠCan al
ad ays
Ġgen ome
b ard
ĠSouth west
O O
Ġeval uating
ĠMoroc co
Ġm ud
}} ^{
ãĢ Ĥ
ins ki
Ġst raw
ĠCar bon
esc ope
s witch
Wed nesday
Ġorg ans
ĠSh in
.~ (\
Ġtraject ory
Ã© n
ĠH av
ĠZ en
ĠPatri ots
Ġdiscipl ines
Ġw ished
Â Ĵ
ĠH ear
Ok ay
T er
Ġillust rations
F lo
S ometimes
ibli ography
IN K
Hen ry
Ġdes irable
Ġinf ring
Ġgl impse
V an
Ġhistor ians
z yn
ĠTh u
ĠHom es
iox ide
Ġs q
ĠNic ole
ĠC el
ĠBeaut iful
Ġc rap
ĠD ir
par a
Ġl ately
Ġinaug ural
ĠT ours
ĠF ut
ĠPrinc eton
Ġpreced ing
: #
ri ber
Ġcred ibility
Ġharm on
ley ball
Ġfl ip
Ġimport ed
ĠChe ster
Ġsl ower
Ġsimilar ity
ed ar
ĠNews letter
head ed
it ism
Ġrecycl ing
F ederal
sequ ence
Ġbott les
per ature
Ġmo ist
Ġstud ios
ĠPl ans
ĠImm un
Ch icago
ĠN ode
Ġdef ended
ĠAl ways
Ġsh y
ĠHer oes
ĠD iversity
Ġp ap
W estern
Ġm ant
.... ..
ĠL oad
cle an
Ġch ips
Ġaver aged
st ates
Ġint act
Ġnew er
Ġham mer
18 70
Ġb eds
ĠE ND
Ġenc ounters
ĠL oss
U LE
Ġto oth
By Id
config uration
L iber
Att ributes
ĠL I
ĠĠĠĠĠĠĠĠĠĠĠĠĠĠĠĠ ĠĠĠĠĠĠĠĠĠĠ
ĠAp ollo
Init ial
S ync
ĠA W
ĠN ak
Ġed itions
ĠPen insula
at able
P ers
ĠĠĠĠĠĠĠĠĠĠĠĠĠĠĠĠ ĠĠĠĠĠĠĠĠĠĠĠĠĠ
Not Null
Ġdis posal
Ob ama
Orig inal
Ġemotion ally
ces ter
Ġcompl iment
ĠLegisl ature
Ġfort unate
Ġs iblings
ĠC ounter
Ġmon op
Ġc ops
ĠP ont
ĠAn sw
S ex
p ent
Ġle ar
ĠV o
Ġlength s
We bsite
Ġrat ios
ĠBudd h
)$ -
pro position
L uc
m ask
ĠI ND
ur bs
Ġgr asp
Ġlog ging
) \\
Ġc ents
B uilding
Ġflow ing
Ġin adequ
Ġpos ed
Ġfis her
Ġapprox imate
Sar ah
ĠS it
Ġg ospel
se ctions
Que ue
y en
ĠCh art
ne ath
Ġcompet ent
ĠProceed ings
Ġadv iser
Ġover head
" ],
Ġdis semin
J ud
ĠU AE
Ġcl ue
Ġwarn ings
Ġv ine
L ock
18 60
Ï ħ
Ġrender ing
ĠDav ies
ĠKaz akh
op al
ran o
Bas ic
if eration
riv es
ĉĉĉ Ċ
ĠH onda
ĠK un
Ġpast or
Ġre lying
abul ary
ĠNo ah
Ġconf irms
ĠAndre a
Ġcont ing
pher d
l ower
ĠRe ality
script ions
Ġexped ition
ĠField s
Ġsoc ially
ĠAb original
ian i
ĠInter ior
Ġplant ed
st airs
Ġrecogn izes
Ġillust ration
Ġignor ance
p ine
Ġdirect ing
ine z
Ã ¦
16 2
Ġgrad uating
Ġexplos ive
Ġrehab ilitation
Ġh ike
Ġparliament ary
pred ict
Ġflo ors
ĠH O
Ġadminist rator
Ġp ants
16 4
with out
och astic
Ġen light
Ġprosecut ors
que z
Ġbook ing
Ġse as
c ially
Ġf et
itt en
ĠJ et
Ġthr ust
r ift
Ġstra ins
Ġacc ent
ĠT rophy
ĠWest minster
Ġre per
3 40
worth y
Ġmanip ulation
Ġconst ants
Ġext ensions
Ġnons ense
Ġmer ge
Ġne utr
im an
Sp ring
ĠFif th
ch anging
parent s
Ġneighbor ing
ĠCont ribut
h box
Every one
Pro xy
Ġt x
we ets
Ġdeb ug
ĠPeters burg
ĠM olecular
ĠCert ificate
en za
T EST
Ġserv ants
Ġtrou bles
Ġter rain
Ġour s
ne um
Ġsw ift
ĠMe yer
script style
i ants
in el
ĠAdvent ures
Ġhop eful
Ġconvinc ing
G irl
ĠRichard son
D ear
Ġwh ites
Ġnot ify
Ġin ability
To o
ĠAust rian
Ġlack s
ĠMe asure
Ġphil anth
dra wn
Ġglass es
ĠWalk ing
ĠS ites
ĠW ins
sem bl
B road
Ġref und
Tra vel
ĠH BO
ĠColon el
ĠG rim
Ġde vi
Ġins ane
Ġcirc ulation
in vest
ĠS B
Ġliter acy
ĠReg istration
Ġb er
ir atory
So ft
nt ax
Ġpo ets
Ġs ung
os ion
ĠK or
hent ication
Ġsubstr ate
) },
ĠHis panic
ĺ ħ
W ild
h ouses
5 12
ult an
Ġhold ers
Ġhom etown
ĠVlad imir
Ġd angers
Ġatt ain
Ġwond ers
orpor ated
Ġacc eleration
Ġrecogn ise
cc cc
ord inate
h orn
ĠM aps
ĠSc ore
ĠF erguson
U G
Ġf ancy
Ġver ification
Ġser um
ĠPent agon
ĠW ait
17 8
ĠI RS
c ounter
ut ral
ĠG em
Ġfin als
ĠKenn eth
Rem ove
Ġcred entials
Rep ublic
23 5
A x
Ġguarant ees
Ġco herent
PD ATE
ĠT i
Ġlength y
30 4
zer bai
Ġneighbour hood
ro ve
Ġent ropy
ĠHe avy
ĠP iano
res ources
Fl ags
Ġc oding
H or
oy age
Ġtaxp ayer
Ġtable ts
Ġvulner ability
ĠS ak
ĠHe y
Ġprosecut or
im ag
Ġapp end
build er
ub y
f air
ĠT ouch
Ġus eless
att ed
A H
Ġinsert ed
Ġplaint iff
Ġfootball er
\ {\
Ġexch anges
ĠDi agn
ĠW ake
Ġexplo it
[ [
at em
ut f
ĠQu inn
Ġsex y
Ġw itch
ed a
Ġfrag ments
17 6
ĠFam ilies
Ġconfig urations
b rowser
Ġa uth
ĠC li
Ġspokes person
F red
ĠKat ie
ns ic
Ġpron ounced
Ġcr ashed
ĠL or
ĠRen ew
uns igned
com merce
vent ional
ĠG E
m itt
Ġfluct uations
u cl
ĠV as
RE SS
Ġn ostalg
ag le
Ġst iff
at iv
ĠT ools
c ussion
ĠSpec ifically
en ary
ĠÂ °
M IN
Ġf r
Ġas p
us ions
Ġhand les
ĠF ix
stan bul
Ġn ar
pro duction
Ġtra ces
à¥ ĩ
an ia
Ġwh oles
P et
est ock
Ġimport s
Ġsl ice
see ing
ĠCurt is
b ral
ie ge
ĠRe comm
ĠPro perties
ĠArch ae
Ġab used
Ġproblem atic
D im
Ġd ent
Ġh i
@ "
An th
et ically
pos itive
ĠT roy
ĠF Y
Ġpur ple
ĠHer bert
Ġuncertain ties
Î ²
å ¤
ĠCol umn
ol ation
Ġout reach
Ġsur pass
ĠMcC arthy
ĠG or
18 50
Ġcondem n
ĠD in
Ġis ot
un ts
B rad
Ġste pping
Ġsupp orter
hand ler
Ġthr one
IL D
il ion
ĠDur ham
G al
ĠTH AT
L i
icult ural
ener y
Ġsystem ic
Ġsc rap
ĠAltern ative
3 10
Ge org
$ ;
d one
Ġfrust rated
ĠF IFA
art a
ĠSt ruct
Ġwat ches
Ġhun ger
Ġdem o
in ian
tr igger
Ġsusp icious
Ġtwe ets
st orage
Ġit eration
man agement
Ġpal m
Ġsk ull
Ġblock chain
B egin
e val
Ġpos itively
K now
ĠL opez
ĠK lein
Ġrank ings
L ib
ag ent
A sh
Ġtrans itions
Ġcounterpart s
Ġtum ors
22 2
Ġsl aughter
Ġspecial ists
Ġcompos itions
K at
Ġdr ill
L I
Ġfilm maker
L ater
per m
ĠHold ings
zan ia
in ical
Ġa fore
Ġnot ified
Ġchar ities
ocr ats
en abled
ĠR oh
Ġinform al
ĠUlt imate
ĠDra ke
Ġl od
27 5
ett es
ele gate
ĠCub an
Ġde viation
ĠCan adians
Ġconstit utes
Ġpress ures
lis hers
Ġbe ast
NY SE
Ġinj ust
ĠS ue
ĠH ip
s ample
ĠP ython
Ġhum ble
B rowser
s ix
ĠGu itar
i per
ow itz
17 4
L es
p ark
Ġforg ot
ĠEs pecially
link ed
Ġdraft ed
ĠV illa
Ġswe at
ĠM N
ĠB elf
Ġwel coming
20 23
sh irt
ĠAs k
Load er
40 4
f u
od ot
Ġscrut iny
Ġchar itable
Ġreg ulate
ï¼ Į
Ġcoll apsed
Ġar row
rell a
ĠL SU
Ġinter rog
A X
ib les
ok ia
ĠLog an
Ġincent ive
Ġst ew
Ġcost ly
St ruct
20 30
Ġtransport ed
Ġdecor ated
Ind eed
Ġcancell ation
Ġrepro ductive
ĠAr ms
Ġdeleg ation
Ġform ulation
plic ation
ĠM aced
ĠR ut
ĠCh in
Ġt issues
rac le
ĠD W
Ġall oc
Ġtou g
sm ith
Ġtax i
pol y
Ġsp ine
S ources
T ri
op ping
ĠIn nov
ĠA j
% ).
L ess
Ġrec ipe
text sc
UT F
Ġapp rent
Ġdisc overs
c ence
ĠRe ce
å ®
Ġw ounds
ĠE instein
Ġmark ing
Ġp sy
ĠCour ts
x s
ĠKath leen
uc le
Ġch airs
v ine
Direct ory
Ã¨ re
Ġbre ed
Ġpit cher
ĠS qu
ĠE yes
ĠGre ens
Ġpe aks
Time out
G a
Ġtw isted
ĠConsult ing
h ide
M aking
Ġun rest
Ġun lock
ĠChrist ine
Ġcontinu ity
ĠR um
ĠMult iple
ros so
Ġimprison ment
H om
=" ${
ĠDep ression
pro to
res a
Ġ% }
Ġrelax ed
Ġst yl
ĠCal endar
Ġdat abases
S aint
Ġprint s
v t
pt ical
Ġab normal
ab lo
ant om
Ġetern al
Ġpharm ac
ĠHend erson
B IT
Ep isode
19 02
ik er
im o
ĠL ars
Ġdon ate
Ġl ighter
ĠV ern
Col lege
Ġmach inery
ĠC ann
op p
Ġresid ual
ĠAd rian
Sen ior
L ED
Ġneur ons
ĠLith uan
ĠJ umped
ĠSt ructure
ĠNurs ing
Ġa u
30 2
ĠGu idelines
ĠPet erson
Ġar th
S F
Ġdef ender
Ġcharacter ization
Ġrecre ational
over ing
ĠFound er
Ġc ant
Ġequ als
Ġteen agers
Ġs ulf
Ġmist aken
Ġcolor ful
ĠTw enty
" `
AP P
ĠLat ino
ĠCar roll
Ġinstance of
ĠR ising
ĠK iss
S ample
Ġdiff usion
ĠT rou
Ġsle e
Ġpos es
Ġdemonstr ating
ĠSing er
Ġs urn
ĠK oh
ĠBur ke
F eed
ĠPan ama
ĠE UR
ĠB ears
Ġsupp lier
ĠLinked In
ĠW ald
ĠQ B
Ġl ob
Ġpr ince
Ġsovere ign
ĠC av
Ġra ge
by tes
ĠO ptions
P olitical
f an
Ġbuy er
ĠAg es
om p
ĠL ocation
stitu ency
ĠA K
ĠA uckland
Ġf als
Ġfre el
Ġshort age
Ġcommission er
f ight
ĠJ ets
Ġsymbol ic
ĠBit coin
ch arged
ETH OD
de al
Ġprison er
so ever
ĠBe ast
Ġhe ated
20 9
C ele
Ġtow ers
Pr ice
ĠC ul
ĠW er
ĠN utrition
Sc ient
Sc ope
Ġlic enses
Ġin ning
ĠCarol ine
Ġdial og
ĠCru ise
Ġcoh ort
Ġsubscrib ers
ĠGriff in
B rown
ĠFed er
Ġmut ations
ĠCy prus
un ks
Ġcar cin
Ġdetect ive
Ġmet als
P red
que ue
Ġb os
Ġf art
st ed
L em
Japan ese
Ġcons ervatives
ĠAct ivity
ĠE valuation
Ġg odd
ĠH od
ĠMoh ammed
Ġg em
T ABLE
Ġresign ation
Ġpredec essor
S eg
ol ith
Ġr am
A uth
ĠEqu ity
Ġh ated
Ġaccept s
app ly
Ġs aves
Ġmur ders
The orem
print f
de cl
Ġsen ator
a ft
Ġdisappoint ing
ĠSol id
Ġassum es
M ath
w d
Aud io
Ġm all
U B
Ġs her
Ġst arter
Ġmis under
Ġwilling ness
ochem ical
ĠE ston
ĠE lections
Ġacadem ics
ĠW ave
Ġannoun cing
Ġs ab
ĠW ik
Ġbl own
Ġsomet ime
H I
names e
Ġprior it
Ġd well
Ġadv ancing
ĠGram my
ma ha
in itely
Ġpurs ued
e fficient
Ġprov inces
17 7
Ġ} }
Ġign oring
Reg ister
Ġcomp ression
ib ration
Ġuniqu ely
S K
R R
Ġdefend ants
Cl imate
à ½
//////////////// ////////////////
Ġaffili ate
3 80
Ġatt ach
ĠTun is
Ġcatch ing
Ġexc av
Ġsec uring
Ġsovere ignty
( !
D uration
m icro
isc her
Ġoptim istic
Ġthere after
Ġjoint ly
ĠC auc
Que en
Germ any
i ya
Ġon set
f illed
Ġimm ense
ĠBer ry
Ġtoile t
C G
ĠC ay
, ,
Ġac ids
ĠRec re
ĠTrend s
col lection
od ore
ĠCam era
play ing
R oute
Ġemer gence
ĠL ar
Ġsen iors
Ġlog istics
ĠF I
Ġa pt
ĠWord Press
ĠCont est
il ight
ĠS eth
ĠB od
Ġge ographic
$ ^{-
s hips
Ġair ports
ĠBu zz
y y
Ġro oted
is se
18 2
Ġcompar isons
Ġse aled
Ġrec ount
eng es
Ġspecial ty
Ġan ch
W ait
blog spot
Ġcol ored
ĠAlexand ria
Ġb apt
ĠEx pect
Ġcor related
Mil itary
Ġaccus ations
Ġbas ement
ud er
F ramework
L en
Ġle isure
Ġstar red
ĠÎ ±
ĠD h
oc ur
Ġpract icing
reat ment
Ġdesign ation
map sto
cl er
Ġjack et
Ġc ivic
ĠV a
V s
ĠAdminist rative
av is
um ed
Ġadv ise
Ġtim ber
E nergy
ĠBel ow
Ġexp onent
ĠMc N
ish i
ĠK ane
Ġdr ummer
H ER
et ooth
ĠDist ribution
ĠH uff
h agen
-------- ----
ari at
Ġwhe at
Ġloc ate
Ġmart ial
b is
car bon
ras er
ĠF o
ĠWh atever
Ġsens es
Ġsem ester
38 8
ĠCars on
M Y
en os
Ġfound ers
amb ig
h m
assert Equal
Ġinf amous
ĠEvent ually
ol and
Ġcontext s
ĠB T
Off ice
Work ing
ond o
A Z
Ġh ood
ĠJama ica
ĠRep orter
h ydro
Ġout let
IS A
Ġdys function
Ġ ip
Ġapart ments
ĠIn g
l as
ĠNor folk
ĠL enn
Ġpri zes
ĠChe f
Ġautom otive
l ining
in ers
N eed
AR C
oc cup
st ructure
ĠTerrit ory
Ġtun ed
ĠH amb
R yan
Ġd war
ĠAst ron
Ġtrav elled
st ick
á »
head s
Ġcl ay
IS E
Ġirre levant
ĠAnn ie
Te chn
erc ise
in cre
ĠISS N
ĠA post
Ġdom inate
Ġthread s
Ġdeb ris
ĠP eg
Ġprosper ity
ĠS ets
OS S
Ġret ention
ĠU V
Ġg aze
Ġrepro duction
du cer
Ġpun ct
Ġm ol
ĠNe ither
... )
Ġal beit
Ġapp l
ĠShe ll
Ġport able
Ġpione er
qu ant
aid en
L OG
ĠD owntown
Ġex otic
er d
ĠN W
ĠR ac
ĠMan ual
ĠB end
Ġexp ans
at che
Ġtrou bled
Ġr ust
ĠBenef its
Ġcanon ical
E th
ur ated
Ġcompl ained
fe ature
b d
J ava
ĠSt orage
Mat thew
Ġm elt
ĠAh mad
Ġdet ained
ĠWe ap
ĠDev on
h ou
ĠP ages
Ġnic ely
In c
Ġflags hip
ill on
ĠBi ography
ĠTest ing
Orig inally
17 2
Ġswe pt
og o
spec ies
ĠParent s
ĠM ist
ĠEll iott
Ġreject ion
Ġshel f
ĠB und
Ġdial ect
Ġinstruct or
Ġd airy
Ġex clusion
ado op
i ago
se cret
Ġun law
Anal ysis
Ġinter f
ting ham
Ġscream ing
ĠCele b
ĠF irm
run ning
aster y
Ġrecru ited
M ove
Ã ī
Ġaff ection
Ġpo inter
ĠPers ian
ĠEx amples
Ġar ises
Ġmel an
ĠLegisl ative
Ġal ly
Ġal iens
24 5
Ġsever ity
Ġcatal ogue
ĠHait i
A st
Ġpre y
Ġ io
ĠHung arian
n is
ĠV ac
K K
N F
Ġme g
Ġdeal er
Ġm esh
Ġind ict
ĠC e
are l
Ġre pository
ĠH ydro
ĠS ector
ĠC rist
r atic
Ġb ore
ĠRe act
Ġrook ie
Ġshow c
Ġannoy ing
ch art
Ġb ishop
Ġprom in
Ġelect rons
Ġfavor able
y g
omed ical
. <
ĠLe af
Lou is
Ġbra ins
Ġtransc ription
ĠDiv ine
ĠNEW S
30 3
cd n
ĠMethod ist
ĠP engu
Ġvalid ate
Ġb urg
Ġproceed ing
ĠN ixon
Ġle ap
Log ger
Ġhe y
Ġgl ance
Ġfather s
Ġreb ounds
Conn ell
duct ed
ĠAct ually
Over all
ĠEst ab
Select or
app le
Ġpat ience
R ole
ĠM add
ĠRock y
H appy
U ntil
' (
v ari
ĠS ize
Ġcondem ned
Ġinflamm ation
re pe
Ġl ith
ĠMon ster
ĠDer by
l ings
Ġ Ñģ
Ġorig inated
Ġl as
Ġorgan isms
Ġsuspic ion
_ ,
"> &
Ġtem p
ĠClass ical
Ġaim ing
Rep ository
el o
Ġsa iling
Ġnon linear
ĠÐ ²
at oes
init ial
al ism
rib ly
Ġserv ant
ĠBelg ian
Ġtrans gender
ĠSh aron
Ġdou bles
act ers
Ġpl ugin
Ġinc ub
2 13
Ġp ound
cre ated
Ġtou ches
Reg ion
il tr
ĠR ica
Ġafore mentioned
ĠT rent
c ourt
ĠS par
Ġre lied
ĠAd elaide
Ġrun ners
Ġdesper ately
reg n
Ġeduc ators
fore st
v ens
ĠTop ics
av i
Ġnorth west
Ġbroad ly
D ark
Ġin appropriate
Ġbl amed
Ġk icks
ĠEv an
Ġche ss
ĠAven gers
Ġp ause
Ġnegot iate
A gent
Ġfilm makers
ĠUnder standing
Ġund oubtedly
33 3
Ġan onym
Ġreb uild
AC C
ĠMerc ury
ĠAny one
ĠNew man
w t
ĠOffic ers
Ġminor ities
Ġc uisine
ĠW iki
ĠShe ffield
I l
ĠC ec
tab s
ĠCh ancellor
ĠSh ane
R oll
Ġin complete
ĠS um
ir ie
ĠT ale
ĠLiter ary
18 9
Associ ation
Ġan at
oc he
Ġdecom position
ĠSome one
ĠBur ton
claim er
Ġelev ation
ĠBou levard
Ġb achelor
ĠTra ffic
Ġbr ush
ĠK arn
ĠComm unities
ĠAgric ultural
Ġd are
} )$,
hand ed
, $
umm ing
Ġnever theless
TER N
Ġd ioxide
B oard
ĠDe uts
Ġreb els
Ġrum ors
cl air
k al
re search
Ġreg ist
ĠSt range
In side
Ġroll s
Ġthe aters
ĠMar tha
Ġgr in
Ġbroadcast ing
Ġso ap
Ġind ul
17 3
IC ATION
f ood
Ġatt achment
Ġxml ns
Ġlay ing
ĠRe quire
ĠLe vi
Ġsimilar ities
Ġf lick
ĠD ust
17 9
ĠR B
FF FF
ĠHun ting
Ġepidem ic
Ġc emetery
estab lished
Ġl ending
arn ings
SI ZE
pro ps
G ER
Ġno on
in tern
em por
ĠĠĠĠĠĠĠĠĠĠĠĠĠĠĠĠĠĠĠĠĠĠĠĠĠĠĠĠĠĠĠĠ ĠĠĠĠĠĠĠĠĠĠĠĠĠĠĠĠĠĠĠĠĠĠĠĠĠĠĠĠĠĠĠĠ
t ax
Ġpersonal ities
Bet ween
ĠCal gary
ç Ķ
Ġtweet ed
Ġthreat en
S EC
} }$,
Ä «
char acter
Ġoff ence
Ġbo asts
Ġo d
Ġy e
Ġpe cul
Ġl anes
ĠThrough out
2 11
F K
W ord
orm an
ĠG ren
EN C
ĠBor is
Res p
ĠThe me
Ġpublic ity
Ġtre as
Ġapp ell
ĠCor b
ĠCan on
ĠRE AD
ĠB urns
Ġbuck et
1 200
ĠR andy
ĠV II
Ġsteal ing
ĠT win
ĠG am
ex pect
Ġenc ryption
bo at
ECT ION
iff e
Ġmis conduct
G D
b rief
ĠN amed
Ġ= ========
Ġun success
Ġden oted
ĠSug ar
Ġl ig
ĠOpen ing
ot ional
att i
UN T
Char acter
Ġpecul iar
Ġse iz
Ġart ifacts
ĠRe b
Ġt ide
Ġtheat rical
Over view
ĠSh i
Ġcorrect ed
ĠChron icle
tik z
es ar
Ġterm ination
Ġo ste
ĠB rent
ĠFood s
l iving
Ġimm unity
requ ired
ĠR aid
uck et
ĠD S
ĠManufact uring
ĠW itness
ĠD rop
Ġb ored
est inal
18 7
Ġhear ings
om ical
Ġdis cre
w x
ĠH i
Further more
any ahu
ĠC and
Ġqu asi
Ġfinanc ially
at ility
ĠF ul
18 8
c ultural
ĠRec overy
Stud ent
Ġple a
In stall
k ens
× Ķ
Ġattend ees
end ant
Ġhapp ily
Ġpost ers
idel ity
Ġman kind
or um
Ġcl oth
Ġfe ared
perform ance
iv ities
Ġcalc ium
Ġamb ition
ĠAR T
cl amation
B es
Ġ umb
Ġt v
st rom
ĠS z
im ming
ĠCol leges
Mod ern
Ġsolid arity
Ġvacc ines
ĠRh ode
g io
AM ES
Ġautom ation
ys on
web pack
Ġteam mates
j ab
Ġs ync
i ating
ĠH ann
oy a
ĠKenn y
p ract
Ġprev ents
ĠMel issa
W ay
ĠThanks giving
T race
in ars
Ġaccident ally
Ġ[ ];
ĠAthlet ics
Ġcrit ique
Ġmer cy
Ġcost umes
ĠE ither
Ġs outheast
Ġsub missions
rodu ced
Ġsad ly
ar ium
Ġtravel ers
ĠJournal ism
w ik
Ġsocial ist
cur sor
land er
ĠRoll ing
coll apse
ĠMod els
ĠMal colm
ĠSc ene
ĠZ immer
Ġgu itars
T imes
Ġdist ress
Ġsub division
Ġadminist rators
Ġexpend iture
Ġwhat soever
ĠGrand e
ĠT ue
ĠG aming
Ġext inction
ĠOp inion
J ason
aret te
at um
ing e
Ġener get
miss ible
Ġru ins
Afric an
ĠS ally
Ke ys
k le
Ġstat istically
os ome
ĠE gg
lect ic
be ck
ĠEd it
Ġout fit
ĠBas in
Ġl ined
ĠEld er
ĠCom pos
Ġre n
ars ity
Ġcar b
F ast
ĠRoche ster
Ġmed itation
17 1
arm ed
oven ant
ĠTe hran
f ires
ĠAc cept
Ġsc i
Al tern
Ġobser ver
Ġdecre asing
Ġoverl ap
Ġpres erving
ind ependent
udd en
ĠAdvert ising
Å «
Ġregul ators
Ġbelong ed
Ġl azy
ph al
ĠW ol
ĠTal iban
> \
W ow
Ġch ol
Ġfert il
Ġrec ession
th y
ĠSt rip
Ġanaly zing
g em
Ġch orus
Ġad olesc
Ġref using
ch urch
S ummer
ĠTra vis
ĠCom bat
ĠTrans it
ĠFund ing
Ġdefect s
lear ning
ĠPoint s
ĠCor ner
us k
Ġc ran
Ġp ier
ĠFor bes
Ġw olf
ĠLe ices
Ġred es
Ġcompos ers
Ġinsu fficient
++ ;
Ġb acterial
Ġne o
Ġsurround ings
ĠH M
SP AN
Ġdev il
umb ent
uch i
Ġhous ed
Ġcar pet
het ics
ĠLeg ion
nav List
Ġhighlight ing
f est
ĠP owers
ĠP ars
em bourg
ĠâĢ ĭ
UR I
app ro
18 4
ĠKh al
Ġref ere
cont rib
Ind ust
ĠEug ene
Ad apter
Ġpret end
r ade
Ù İ
ros se
it ored
ĠCamb odia
Ġdou bled
Ġadd ict
m ys
Ġspace craft
Ġarchitect s
Trans form
Ġn m
Ġinstit ute
Ġpredomin antly
Ġd ental
Ġconsc ience
if a
ĠSacram ento
Ġmor ality
ĠÐ ½
k ill
Ġmis leading
Ġoutput s
Ġsign atures
Ġassert ion
ĠD w
pro gress
Ġmer chant
f g
Res ources
ĠPat ent
Ġteach ings
. âĢĶ
ĠT ut
Ġt uition
37 5
Cons umer
ĠAng lo
Ġclar ify
ph icon
is co
Th ings
Ġcapt uring
Ġbusiness man
fl ags
D ue
D er
met adata
ochem istry
le w
Ġspec ification
ĠAss istance
ĠCorn ell
E lements
Ġinter rupt
ĠLaw yer
18 98
d al
ĠT ang
Ġs ights
Ġdemonstr ations
ĠFA Q
Ġmanif old
ĠBry ant
ry n
ĠC BC
Ġrem inis
G ive
ott age
ĠPakistan i
it ives
ad ic
cont ains
N ic
ĠJohn s
E Y
ĠY OUR
Ġsouth west
Ġsim ulated
ĠConn ection
A ge
le ys
Ġrevers ed
l iter
/ "
F ocus
r ice
Ġkind a
T ok
ĠS hen
Ġloc om
ĠHot els
Ear th
) +\
ĠJ ill
arett es
ul ously
Ġtr icks
ell ular
n il
Ġcon ceived
Ġex agger
ĠPol ic
Ġcountry side
ell ites
Ġz oom
Ġfl ies
hel ial
Ġremem bers
. __
t mp
) }_{
Ġunder neath
Ġprof itable
Ġsear ched
Ġprim itive
ĠGovern ance
ens is
Ġmed ications
Ġappropri ately
Event Listener
Ġref usal
ath y
L java
ĠSupp ly
Ġrevel ation
p ython
oun s
c apt
un ge
ĠN ice
ĠCath olics
Ġf oul
Ġresil ience
ĠMy ers
Ġtr ig
ĠChrist ie
ĠTe achers
ĠC rew
AN C
ech o
f alls
Ġdisp ers
R h
u itive
Ġu pl
iot ics
sh it
b inding
ĠR EC
ĠNot re
Ġd ictionary
J enn
ĠR iley
Ġtun es
ip age
Ġresp iratory
V EL
col lect
yp se
Get ting
3 25
Ġmater nal
Ġapp le
ĠRes cue
ĠAdv ance
Ġy oga
Ġar rog
Ġblack s
ĠV ote
ĠHam as
Ġc ope
ĠRel ief
D ead
ul ence
ov sky
* )
Ġl ou
Ġthought ful
) -\
ograph ies
Ġgra vitational
ag i
Run time
22 1
sim ple
Ġpost p
Ġident ifier
Ġdisc ou
10 80
v c
ĠL ak
ĠEngine ers
rag ue
Ġir regular
Ġn urt
ien cies
Ġacceler ate
Ar thur
h ref
ĠBened ict
D ave
ĠChurch ill
Ġb ent
Ġdel icate
ĠClaim s
ĠWy oming
ĠL t
in ement
ĠGr ass
post ed
oc on
A ST
Ġch rist
Ġinfect ious
ENT S
Ġrad ial
ovak ia
ĠLanc aster
G G
Ġl uc
M u
}{ |
ĠBris bane
Ġshoot er
ĠWals h
oss ibly
Ġa pi
ĠSt a
T I
Ġexclud e
}\ ,\
ĠN in
ov al
Ġsu pre
L it
ĠDem on
Im m
f d
Ġpract iced
Ġnot ices
itud inal
ĠS ou
atter ing
ĠCons erv
Ġh ij
Ġby pass
ĠDay ton
ĠST AT
Ġgar bage
Ġsh ine
U t
f am
ĠAbd ul
Ġaer ial
Ġdil ig
Ġpro ps
pre p
ph oto
Ġinev itably
ĠL aur
Ġcur iosity
C B
is her
4 80
| _{
Ġweight ed
ĠValent ine
res et
30 5
Ġdisappoint ment
uber cul
ĠG D
qu isition
Ġmotor cycle
ĠR SS
/ _
ĠProdu cer
ĠTOD O
ĠM ode
Ġfe at
Ġh iking
Ġout right
te le
Ġg ambling
Ġcomm ence
n m
Ġwas hed
D am
Pat tern
n ar
19 3
Ġdes erved
sp in
$ ),
ass ing
Ġcard iac
ĠK ur
ĠAnim als
D aily
Ġ( _
Ġa irlines
Ġcan al
m and
ain es
vas ive
ĠL on
fl amm
ĠKn ox
Ġarbit ration
Ġanten na
Ġd amp
L u
Y Y
ĠT B
sc al
Ġcontribut ors
ĠPro c
Ġp ad
H H
Ġa in
Ġge ometric
pro port
ĠCont ext
Ġdegrad ation
Ġcl ips
mon ary
M ount
Ġun limited
Ġpull s
ĠS ister
Ġclear ing
ĠChar ity
Gener ic
Ġdeleg ates
Per form
col Last
Ġst airs
utr itional
Ġinter cept
18 1
l ag
å Ĳ
re hend
J osh
00 2
Ġkilomet res
Ġproject ions
å Ī
Ġl ion
ĠB P
Ġcred ible
ĠBudd ha
Ġware house
ĠVeh icle
Ġpil grim
Ġst ub
ĠMon roe
aud io
op us
ĠIn put
Ġfun c
Ġa ka
) }}
B ra
ĠAp ache
Ġread ings
Ġp iss
ĠB oss
M ir
Pro of
test ing
S ure
Ġsupre me
Ġpseud o
ĠI Q
22 3
Ġalumin um
ĠS ons
Ġgen ocide
N ative
ĠEss ay
Ġdiscover ing
S creen
[ $
d an
Ġr ushing
ĠP ine
arsh all
ĠP ool
Ġconve x
Ġb od
anth a
c ref
cl ub
Mus lim
M IT
ĠG ear
ĠD y
ĠCard inals
ĠNaz is
lin ks
19 4
Ġnight mare
ĠErn est
ĠSus sex
att ributes
ocal ypse
if def
Ġparad igm
ĠJos Ã©
Ġw ines
F D
L ic
ĠGen esis
Ġdis ruption
Ġcur v
ĠR AF
H aw
w ire
AN K
Ġvari ability
o que
ĠRes istance
na ire
ĠJ ak
ĠMar co
18 6
Ġtreat s
Ġch unk
Ġauthent ication
the ir
ĠNob le
Ġbicy cle
S equ
row th
)) );
Ġfeas ible
d river
Ġh ind
ĠL LP
Ġmetaph or
Ġpop ul
ff ff
ĠWag ner
Ġint ric
sv g
mem bers
Ġw rist
ĠCon sequently
ĠRun ning
ĠS leep
() ).
che ss
Ġspe eches
23 2
Ġcond itional
ĠC PU
Ġphot on
Ġmolec ule
Med ical
ĠCard inal
ĠEc uador
ĠN OW
ment al
Ġapp et
Ġaut umn
Ġdi agonal
Ġd ump
ĠSte am
d eb
Ġd w
fund ed
L ayer
Ġinst ability
ĠJen kins
ari us
ĠL indsay
oc ative
18 95
Ġobserv ing
ram id
Ġaut ism
Ġpremier ed
) )$
c ats
ĠD ial
Ġth rive
Ġstrengthe ning
read ing
Ġd ir
() ));
Ġin duce
Ġfrust rating
ĠM akes
ar cer
Ġhospital ity
iss an
iv ier
ic us
ĠR ating
ĠKir by
ĠEm my
ĠBut ter
Ġk ings
col First
ĠChe v
bol a
ĠStep hanie
any a
al ore
Ġstorm s
} }$.
Ġa ster
B on
4 20
t ake
ĠF ans
ĠPer th
S a
Sk ip
ĠS ach
if les
_ (
at ra
h urst
ĠCh rome
uck ed
cont act
_ ->
ĠHe in
Ġs ir
comm ons
Ġdam aging
S on
F s
Ġcollect ively
Ġthe ology
ĠG ir
ters on
ĠJan et
ann i
ĠJack ie
ĠB il
Ġgar ner
NavBar Cell
Ġre q
26 4
Ġre hears
Ġcar ved
enc ia
Ġassess ing
ĠLou ise
ĠParad ise
Ġ[ "
J ean
ĠL ines
Ġpropri etary
is y
Pl ugin
Ġj ets
Ġconf ined
Ġselect ive
Ġcrowd ed
L o
ĠCon duct
yn chron
p ull
und ers
min ipage
ĠApp arently
ĠPat ient
up iter
bor hood
ĠS ens
18 3
ĠSat an
Ġundert ake
ĠCoord inator
Ġob esity
Ear lier
T ony
ĠG ore
Ġdefin ite
P ark
Ġrespond s
en o
ĠAtl as
man y
ap est
ĠP or
Ġb ats
ĠEnt ry
29 0
Ã ¯
ĠIt em
ĠGreat est
t ically
y cle
Par se
Ġadapt ive
Ġsuccess ion
less ness
sw arm
and ro
Ġpop ulated
To String
Ġsmart phones
Ġmut ation
ĠT um
ĠI EEE
ST ATE
B BC
ĠS ig
Ġreal ization
Ġgl orious
ĠSecond ary
Sm art
ĠSquad ron
Ġint ends
sc ore
Ġalt itude
ï ¬
Mr s
an ie
ĠP G
Are a
Ġprotect ions
ip ation
ĠFre eman
Ù ģ
er os
ĠOb viously
ĠE ra
ĠTh ous
Ġtrad es
Ġcho ir
ĠClass es
S ol
ĠR out
Ġgeneral ized
* ,
Ġref ined
ĠDream s
ĠH ilton
ĠF lying
Ġcollabor ate
Ġp izza
al ias
ats u
Ġstory line
am ents
Ġg erm
Ġneed ing
l ocked
ĠLes lie
per iod
ĠSt rang
ĠAud i
P ATH
ĠU til
Ġrel ent
ely n
sh adow
nt hesis
Ġad ul
Ġdepth s
Ġgall eries
V ariable
Ġv endor
ĠWW II
ĠSant iago
Pass word
Ġun ified
Ġ Ä
ĠE y
Ġrep airs
ĠC able
Ġsh adows
U lt
ĠMan ila
ÃŃ n
ĠCOM P
accept able
iat ry
ĠC ort
ĠWes ley
fl ag
cont ract
Ġdownload ed
ĠPre view
ĠSalv ador
ĠY ug
Comm un
Ġrig id
Ġble eding
W rapper
ĠN AME
27 3
Ġembra ced
Pro gress
/ (
s omething
av ia
Ġclass ics
ĠPharm aceutical
ĠSeb astian
Ġun le
ĠR ide
ĠK atherine
................................ ................................
Ġd ont
Ġv ague
Ġpl aus
Ġspec ially
Ġge ographical
Ġsoph omore
ĠInj ury
$ ~
Ġd ancers
ĠStart ing
g rand
ĠI A
Ġru in
ru ck
Ġf older
Ġn aming
< !
O lymp
Ġcolon ies
Ġmult ipl
ĠRec ently
s an
m obile
s r
ĠJoy ce
Ġendors ed
Ġbully ing
on so
Ġmaxim ize
Ġn asty
ĠB ash
ous ing
Ġpromot ional
Ġarm or
w ould
ĠConstitution al
aw ei
C RE
Ġrespect s
Ġconduct or
Ġgest ure
Ġcl ust
Ġboot s
quis ite
Ġb ikes
FI ELD
ĠY ahoo
22 6
id ge
Ġvit ro
Ġcar n
55 5
S ame
Ġden ying
ĠSl oven
ĠW WE
ack ing
ĠCraw ford
is ch
os er
ĠJava Script
ag ination
ep h
Ġswe eping
m us
AM A
ĠPed ro
log ger
ĠE z
ĠAl ger
B ern
ĠEn joy
Ġun stable
ident ified
Ġband width
Ġaccess ories
N U
g ard
ul ance
ĠZ oo
AL SE
aj ax
Ġrev ival
Ġposter ior
Ġra id
Ġmarg ins
Ġactiv ism
8 50
a ude
Con stra
ĠBroadcast ing
ĠBulgar ia
Ġcon qu
Ġdest ructive
Ø ©
Ġrig orous
Ġhed ge
Ġcons ume
Ġes p
Rep resent
L ower
io id
Ġbroad band
Ġcompar ative
19 1
'] )
Ġtar iffs
ĠK ab
18 99
ĠTh read
az ar
2 14
Ġcl iff
roll s
ĠProtest ant
c ular
ĠActiv ities
person al
Ġkne es
ĠHom eland
Ġlog ger
ert ation
Jew ish
ĠOpt im
ĠNob ody
ĠSil icon
ĠV ander
ĠEl se
ri z
gr ass
c z
ING TON
Ġin accur
ĠC ork
oc aml
Bey ond
opt ional
Ġsp ouse
ĠUS C
ĠL iz
con v
ch arg
ĠS ymbol
ĠTe legraph
ä ½
ĠA gg
ĠM use
ĠH yp
ocy tes
Ġdel ta
Ġthe or
Im p
quest ion
math op
Com plete
ĠMart inez
Ġconcent rate
ĠH ers
Ġsa uce
F ox
Ġback wards
ĠSe qu
ĠUN ESCO
Ġnic he
Ġinsect s
b g
Ġqual ifications
Ġt ier
ol in
Ġdebut ed
C irc
ĠC W
Man agement
ubercul osis
- )
f urt
Ġs lic
Flor ida
ord e
18 88
wh y
pre c
}$ )
Ġ ï¿½
Ġr all
}( {\
St ory
Ġcas ino
ard on
Ġcub ic
ĠW ade
ec a
ĠHy per
ĠX ML
A ff
Ġsimpl er
em er
ĠV otes
Ġpropos es
Ġg ently
un n
ÑĢ Ðµ
ĠHay es
Ġdispl aced
Ġdevelopment al
Ġle agues
yn es
spring framework
Ġdis asters
ĠT ong
Ġmil estone
wild fly
ĠG ru
S ELECT
g as
Ġs ums
du ces
Ġstart ups
ET A
Ġb arn
Ġ$ |\
ĠDev ice
Ġcoord inated
ou rable
Ġf ines
Ġdefin itive
ĠW itch
Ġrandom ized
Ġabsor bed
Ġend angered
Ġstri ve
Ġas ync
Ġenc oded
Ġnarr atives
oph one
T y
ĠRoberts on
ĠO ften
be e
D ar
Ġmean while
Ġprejud ice
ood y
Ġvig il
Ġfier ce
Sc roll
B razil
w br
ĠFl oor
Ġorient ed
br as
Ġthreat ens
RE L
ĠJud a
Ġban ner
Ġback ward
az ing
Ġprofess ors
bel iev
ĠDise ases
m iddle
ĠCas ino
Ġo l
zyn ski
Ġappoint ments
Con struct
check ed
Ġ= ======
Ġswe ep
He art
all owed
Ġrenew al
am inated
Ġp ine
Ġg y
Ġassass ination
Ġsal aries
Ġdeliber ate
Ġevent ual
Ġredu nd
aur us
ĠSym posium
ĠD ent
000 1
ĠKind le
R oy
Ġemploy s
oc c
Ġvis ually
Ġscript s
ie ves
Ġd rones
sh op
Ġcelebr ations
ĠEqu ipment
ĠC od
ĠBright on
rest rial
c op
C N
Ġwell s
Ġpass port
ĠSur rey
ĠMal ta
De ep
Ġbudget s
Ġperipher al
b ons
Ġd os
ĠG RE
duc ible
Ġcatal yst
Ġhyp oc
ĠF ont
ĠN AV
Ġsong writer
-> _
ĠTas man
Ġspecific ations
T own
Ġout doors
ĠRe ason
ean nt
en vironment
ic ates
Ġansw ering
Ġconvent ions
Fl ag
Ġse ating
Ġcosm ic
ĠMat ters
Ġcrew s
ĠD uty
Ġmyth ology
Ġtri angle
gl ass
w rapper
ĠP oor
el man
Ġb ree
less sim
W all
Î ³
F ailed
Ġdub bed
ĠI v
for cing
ĠG ust
Ġpot ent
k an
Ġrequest ing
Ġw ip
Ġcomp rise
Ġhar ness
k ip
Ġmar itime
ĠA zerbai
ĠG W
Ġju ice
Ġcontain ers
Ġintr insic
Ġemb edding
Ġenz yme
f lex
eg an
ĠViet namese
M ust
ĠTan zania
ale z
Ġilleg ally
Ġpe pt
ĠBank ing
ĠFac ility
Ġe go
Ä ĥ
ĠRe y
script size
ĠRom ans
Ġexplan ations
ĠFl ow
hel per
Ġaccount ed
: }
en ic
ith m
à¤ ¿
O x
Ġse af
ĠN u
Ġenact ed
EM A
ĠDirect ory
S ound
Ġf n
st en
Ġ: )
ver ter
aa aa
ĠCar lo
Ġlight ning
ĠKazakh stan
Ġst ro
Ġjud ged
ĠStock holm
Ġsub group
et z
Ġl ag
ĠC eannt
Ġg el
ĠD ana
ĠL ay
ĠUp dates
Ġnormal ized
Qu ote
Ġsuper natural
oll ah
sw ick
ĠUnder ground
Ġdis gu
m or
ĠR w
Ġreal ities
TH ER
ĠFerr ari
Ġsche ma
ymmet ry
ĠO maha
? '
g one
Ġback drop
Ġgro cery
ment ation
Ġide als
as sembly
ul as
ĠO mar
ĠRich ards
ĠL iv
Ġvict ories
ĠU TC
Ġround ed
ap a
ĠS TR
ĠIs le
sign ature
and ise
Ġaccess ibility
op hers
Ġwho ever
w ife
Ġabund ant
se in
Ġnit rogen
ath olic
Ġind ef
prot ocol
ĠS ask
ort al
print s
ĠG erald
n ative
re li
ĠGand hi
Ġhe pat
Ġinv ites
Ġwild erness
hab i
Ġbless ing
Col lections
Ġchampions hips
rim ination
b ag
ĠK ol
ĠDis play
Ġfundament ally
16 00
open hagen
######## ########
Ġin ference
ĠI stanbul
A W
Ġtransform ing
|||| ||||
ĠA sc
ĠK B
Ġst icks
ren cies
ĠApp ly
ĠN SA
Ġover ly
H arry
h ook
fil ename
f em
V en
she et
Ġunder going
Ne ill
Ġfl aws
Ġterr ifying
oler ance
ed o
ĠGod s
Phot os
ĠSu z
Ġfre ight
', '
ĠCal vin
Pr inc
Part y
Ġenvelop e
Ġcom eb
Ġlog in
sl ash
Ġtro phy
ĠD oor
ord able
Ġsl ides
Ġdoub ts
Ġnot orious
ĠMir ror
Ġjust ification
PO ST
ĠO DI
Int eg
ĠC AR
Ġr ider
Ġsm iling
}} _{\
ad vert
yn ote
) --
24 7
Ġmet ast
Ġlif ting
18 96
Ġintention ally
Ġuncon scious
ĠSustain ability
] }
Ġl ang
Ġmar vel
Ġeconom ically
ĠSher man
s ys
Ġleg ends
N ob
ĠUlt ra
ĠW id
Ġsh aping
ĠOver view
ĠWhe el
Ġre de
all classes
ĠZ el
Â ±
at z
Ġsu ed
w art
22 7
N L
ĠJoh annes
ons ored
Ġfact ories
Ġtw entieth
C ulture
ĠU FC
og e
second ary
Ġneg lected
och ond
L ibrary
En um
Ġd oses
p enter
sh ared
trans ition
ace y
Ġsupp ress
Ġemphas ized
ĠC ards
ĠLa un
Ġun aware
ĠL af
?? ?
Intern et
Ġmax imal
ĠCook ies
ĠT ah
22 8
Ġdecl ining
| }
pre v
23 4
Ġgovernment al
Ġo ath
Ġl aughter
rele ased
ĠBro ck
ĠHT TP
Ġtr ilogy
ĠSh annon
Ġobsc ure
ĠW inner
ĠOut side
ion ic
23 1
d istance
ĠFe atured
ĠPerform ing
Ġpay load
30 6
ĠMar athon
Ġcor ps
Ġhist ories
ĠG iant
b ath
is al
ĠR PG
ĠCorn wall
Ġignor ant
pt a
ĠWe ight
S ymbol
ĠWin ston
ĠTe ams
ĠAdv oc
ĠX ia
Ġdomin ance
Ġphr ases
i q
ĠR ib
at omic
ĠV iv
ĠTenn is
Method s
Ġprob able
I gn
ĠB agh
ĠElect ronics
El izabeth
Ġf erm
Ġsett lers
ass o
ĠWell ington
ĠW OR
Ġcontin uation
b iqu
10 24
Ġrout inely
2 16
ey ed
AN N
v id
Ġinteract ing
Current ly
W ant
Ġp H
Com ments
ĠAb bott
Ac cept
ĠBullet in
pr ice
Dom ain
ĠSocial ist
Rec ently
B ound
Ġd ull
Ġenthusi astic
Ġc yn
do es
ĠHer z
Form s
Ġrecre ation
ĠAr ist
Qu ant
B us
c n
Ġat e
ĠTal ent
Ġbeh ave
ĠInsp ector
T F
Ġst ip
ok i
comp iler
l ot
Ġinf iltr
ĠUS S
Ġsell er
Ġintim id
Ġpl edge
Ġcooper ative
ĠEs sex
h it
ist ries
Ġassoci ates
F IN
Ġf ost
ĠP ione
Ġvir uses
Ġle mma
ĠTre vor
Ġmon itored
IT ED
icon ductor
is o
ĠD anger
k ok
Ġst aged
ĠBi ol
ĠT ank
ge o
Com b
c ass
d ialog
h on
Ġj ealous
Ġmind set
Ø ³
R ail
ab stract
Ġup side
Ġut ilities
script scriptstyle
() </
ĠM orm
Ġfrank ly
Ġpr incess
ĠRh odes
s b
bal ance
Ġf li
Ġp enn
26 5
me an
ĠWorld wide
âĢĻ :
leg iate
,\ ,\
f ighters
ĠC airo
Ġres istant
ALL Y
Ġman eu
Ġinform ative
Ġover time
Av ailable
$ _{
ll i
Ġstead ily
Ġgo ogle
ĠBe er
Ġcho oses
ĠAlb any
Ġfore most
Ġredu ctions
Ġcirc uits
ĠCast ro
ĠIde as
ĠSpe aking
ĠL O
ĠL ip
uss ions
Ġsuccess es
": "
Ġconj ug
ess ing
ĠMy th
he id
pat tern
Ġincorpor ating
Ġdis placement
Ġupgrad ed
uff y
ĠP ure
Ġide ological
ĠB ran
ĠNew sp
Ġenroll ment
Ġpit ched
Ġqu o
Ġst aring
ĠMid west
St an
Ġins ist
Ġbox ing
an ner
al ong
Ġshut down
ĠM W
ru gg
ĠWe iss
Ġport raits
ĠL av
red itation
ĠBelf ast
Ġg rap
ĉ ĠĠ
Ġsan ction
mun ition
aj i
ĠAct s
Ġd orm
Ġmedic ines
as per
Ġred irect
ĠDom estic
orpor ate
Vir gin
ĠS olution
Ġcon gregation
J ones
ĠFl oyd
Ġinadequ ate
od o
Ġcross es
ĠRead er
Y S
h yd
ĠSc ale
ĠJenn y
ĠF iles
Ġa post
Ġp aired
oun cing
Ġp anc
Ġins ulin
lick r
Ġemphas ize
ĠI oT
ĠAub urn
ĠSk ills
ir ling
Ġenh ancing
E ver
ĠSc and
ĠK rish
Ġlater al
Ġastron aut
R od
ĠN L
ĠHol ly
w at
Ġg iants
im i
23 7
ĠĠĠĠĠĠĠĠĠĠĠĠĠĠĠĠĠĠĠĠĠĠĠĠĠĠĠĠĠĠĠĠ ĠĠĠĠĠĠĠĠĠĠĠ
ĠST EM
ĠT M
Ġnon etheless
ĠFe el
ĠW ong
ĠMod i
Ġwhere by
eral a
ĠWire less
ĠKu wait
Ġco q
in j
inter pret
Ġinv iting
m ind
ĠC afe
ĠB ug
Ġto mb
à ¯
Ġwe aker
Fl ow
Quest ion
Ø ¨
Ġhum our
23 6
Ġfire arms
ĠPub lishers
Ġund ated
ĠRead y
Ġgluc ose
ĠT ate
Ġperf ection
ĠT akes
ould er
Ġun int
Ġmed als
W idget
s burg
Re quired
ĠHuman ities
Ġelim ination
ad h
Ġcomm itting
Ġdeg ener
Ã¡ s
ĠComput ing
Ġ æ
ar is
get Name
at aka
ĠV ector
ess ors
Ġ[ \
Ġflu ores
Ġcraft ed
ex isting
ĠApp s
ĠChap man
Flo at
Ġd ementia
ul ators
ĠK itt
St aff
err ors
D NA
F all
Ġcomed ian
ĠAd apt
rown ed
K R
med ium
ĠSuper ior
ile e
Ġh ipp
aff e
Leg al
oint ed
ĠS essions
Ġ\ !
or get
res olution
ĠAl f
Ġcat ches
Fore ign
× ¨
k u
11 11
Ġreal izes
O l
key word
Ġmess aging
ĠMax well
Ġutil izing
Ġadjust ments
ĠCole man
ĠR ig
Ġan omal
Foot ball
T aking
ĠB oom
cl uster
18 65
ĠM ining
ly mouth
Ġj unction
}{ (
Ġgas oline
con scious
Ġref resh
rict ed
Ġclin ics
ba um
Ġelig ibility
b org
Ġo ceans
ĠPro bably
ĠS of
ĠK och
Ġsub urban
Ġpoll ing
Ġsur geon
Ġwarn s
Ġaut onomy
Ġb ub
Ġrem ot
Pub lisher
othe red
Ġreal izing
Ġsym pathy
Ġhe ights
Mic hel
author ized
ĠLit igation
pp y
icular ly
ĠB oot
ĠL un
OR M
ĠCelt ic
Ġinter faces
P a
ĠA uthors
R am
Ġp and
asht ra
p ad
ĠP OL
Ġtest ified
Ad min
- ,
ĠL ights
oid al
ĠMc Cl
Ġt ile
opath y
ĠMig uel
Ġstr at
fun ctions
b ands
Ġsc anning
Ġf ox
cal c
Ġflaw ed
Ġl ively
Ġresc ued
Ġany time
ĠGard ner
O cc
Ġinflamm atory
ĠAl leg
Ġgram mar
Ġdev ote
45 6
k ish
Ġb ilateral
uff le
i ota
ĠPat ricia
Ant i
ra f
Ġeru pt
Ġjewel ry
ĠProt ect
en i
Ġdefend ers
ĠIl legal
S election
ĠHard y
t iny
ĠReport ing
or ate
Ġv ag
Ġcor on
Ġt et
Ġclos es
ĠFinn ish
w omen
ĠC rypt
Ġpedest rian
Ġimp art
Ġintegr ating
L at
and um
With in
Ġbur ial
Ġjud gement
bel ow
Ġsa x
aw ays
ĠSche me
mont on
ĠL ibraries
Ph ys
W arning
">< !--
ĠAnth rop
Ð ±
is ot
ĠM ang
ĠInst all
ĠCard iff
AL E
ug ged
t c
Ġpl ag
AY S
ĠCitiz en
Ġmet eor
Ġelect r
Ġlif elong
ew orks
AL S
Ġmot if
g ot
ĠR he
Ġ" ,
ĠRecre ation
ĠAnd ers
at io
Ġcl ues
Ġimag inary
ut a
$ /
og h
ĠSur face
^ ^
th ouse
18 94
ĠStand ing
Ġneuro log
Ġble w
Ġd iving
ĠMan ning
ĠEp ic
ĠF raser
Ġver bal
Ġd ashed
18 61
Do ctor
Ġforb idden
ĠC OL
Ġpro se
Ġsens ation
ĠL OG
Ġwar rior
Ġid i
Ġcon gest
Ġ" -
ĠGreen e
Ġfor ums
ĠFl at
Ġsy nd
Ġb und
fin als
Ġreb el
Ġprompt ly
ĠW rong
Ġmin erals
f b
Ġcounsel ing
Ġpitch ing
ĠK itchen
oles cent
Ġb is
ĠO racle
ig ator
se ys
18 97
In sp
Us ers
DA Q
ĠHawai ian
ĠK w
Ġsal mon
ĠTri ple
ĠWhit ney
ĠS ed
ĠSac red
u j
ĠC SS
Ġpat ents
ĠStr at
ne e
Ġdis able
Ġindirect ly
Ġover flow
ad os
Ġmunicipal ities
RE T
M arg
ĠList en
Ġ um
ĠEven ing
pl aced
Ġsh oe
Ġdiscover ies
2 17
ĠDom ain
ind ust
An imation
p riv
Ġd ynasty
lis hes
Ġupd ating
ĠHen ri
re nd
um ann
Ġtour naments
Ġgift ed
rib ing
ĠDO I
ĠG rid
Ġsen ators
Ġsh ipped
Ġcan cers
Ġcorrid or
C NN
qu ote
Ġbl oom
Ġrefres hing
Ġro pe
ĠSpring field
che l
g ue
Ġab rupt
Ġopp ression
edd ings
Ġrain fall
Ġrem edy
23 9
au f
Tr ust
V ill
if ax
Ġim posing
exec ute
Ġinfer ior
H ence
L y
ĠA Z
Reg istry
Ġelim inating
/ ?
Ġto pped
T el
Ġmain land
ear th
best os
N ULL
S omething
Ġreward ing
ot on
ĠW it
We ight
ĀĀ ĀĀ
Ġinstall ations
ul o
ĠD iane
Z ero
Ġsecret ly
Ġacadem y
Ġsubject ive
ĠDef inition
ve e
Ġcon ced
ĠMan uel
numer us
ĠSol o
Ġf og
ocr at
ĠOl ivia
w y
Ġc tx
ĠF ew
." );
Ġadop ting
numerus form
ys et
Ġd awn
ant ine
Ġsp arse
Ġas leep
Ġacqu iring
ĠSil va
Ġst alk
exp ression
ingu ished
Ġcirc a
ĠBel arus
Ġposs essed
ĠG ri
Ġsp anning
ĠEurope ans
ĠEd en
ĠPrem ium
iling ual
Ġwas ted
t emp
cc entric
ex us
Ġacqu is
Ġpredict able
H o
al is
Ġinf ants
Ġfore front
ar ial
Ġimag in
Ġtrain er
Ġadd itions
23 8
H F
Ġinc ap
Ġst ole
cent ral
Ġb asket
Ġbl owing
Expl ore
Att r
yn th
CL ASS
U k
Ġoverlook ed
Ġch ick
Ġcl ash
Ġsp oil
ĠNot tingham
ĠAre as
g ba
}) }
Ġsem antic
Ġarrest s
M uch
Ġv ampire
ĠÃ ģ
Ġhands ome
ĠAn imation
sm art
ob o
P ast
Ġscholar ly
f ocused
Ġcommun ist
Con nor
Ġcard iovascular
ĠFund s
Ġpreval ent
ĠM ick
s am
Ġveget ation
Ġrepro duce
l ar
ĠP BS
Ġrel ay
Ġterr ific
Ġm old
Ġ" <
ĠSur ve
G U
ĠW elfare
It alian
ĠCount ries
ĠCharl eston
m ant
ater nal
ai res
ĠProm ise
b irth
l ove
Ġw ishing
Ġreg imes
ĠJ ung
rack ing
23 3
Ġaffili ation
Ð° ÑĤ
Ġdefic iency
G over
R om
ĠBet ty
est ly
Ġlower ed
18 89
ĠMay a
atern ity
Vis ible
Ġcont amination
P akistan
OT T
ĠNort on
ĠD ew
Ġc ared
R o
ra ise
Ġair plane
7 20
Ġam ino
Ġwid ow
ĠTom orrow
Ġab ort
ng th
min ent
Ġclear ance
Ġcertain ty
Ġpartner ed
Ġincons istent
insp ired
ad ia
Ġpol ym
ĠBi ological
Stud y
Ġrese ar
Ġabsor b
R andom
Ġtransl ations
Ġpat ches
Ġs odium
ĠPier ce
Ġcomeb ack
Ġp od
Art icles
ĠN g
ĠInt eger
Ne il
! ,
T yp
ĠS aid
ĠSt alin
Ġobject ion
4 10
ĠClay ton
D u
ĠT OP
ĠP AR
ĠB orough
ob serv
F W
ĠM itch
l ists
ĠUn cle
ĠFilip ino
ĠA ware
ĠCh ain
Ġper ceptions
Ġcraft s
Ġexp onential
ĠArmen ian
it as
ĠSc out
v ic
p refix
ĠE RA
ĠĠĠĠĠĠĠĠĠĠĠĠĠĠĠĠ Ċ
Ġ ],
Ġg rit
Ġman ually
ĠUnivers ities
G EN
Ġsh ark
spe aking
S and
re ated
ĠA ctions
Ġbe ans
Ġcommand ed
Ġfel ony
ess es
B ron
Ġb ump
ĠS ans
ter ing
Ġimprison ed
s afe
Ġexpl or
ĠVal ues
ĠDes k
ĠOper ating
Ġlawsu its
Ġdescend ants
ĠB le
a q
ac iÃ³n
Ġdisplay ing
Pr ince
Ġprol iferation
ch in
t an
Ġl ord
R Y
Ġd ried
Ġg ases
ind y
Ġgener ators
Ġgl ac
(' .
al an
ĠL iam
Ġex emption
Ġdis reg
Ġsc ram
Ġsuff ers
out heastern
fig ures
ĠS isters
Ġphot ographers
road s
W ORK
ĠGo es
ĠW I
ĠX X
Ġproceed ed
ĠAr row
Ġfab ulous
Ġinjust ice
Ġlegit im
d k
Ġstret ched
B at
7 37
en h
ĠSpecial ist
ĠThe rm
Americ ans
AT T
Ġpar an
B order
ĠFl a
ĠOk ay
t body
Ġremov es
D IS
ĠG ast
Ġdifferent iation
ĠTra cy
Ġadvertis ements
ĠMil ton
Ġinstruct ed
ĠS onic
ĠN est
ĠHand book
f actory
g ames
Ġundert aking
ĠExp ression
ĠRub y
Ġspecim ens
ty ped
ĠAll an
U V
Ġr ay
N ER
Ġfin ishes
ĠSy ndrome
ĠE ur
ĠEng agement
Ġcon current
Ġex h
Ġaccum ulation
Ġcler gy
Ġrele g
Ġlon ely
ĠVict ory
ĠBird s
ĠL abel
tr ad
ĠBo at
Ġv ivo
Ġhur ricane
Ġretrie ve
ĠR AM
ĠMe an
ure n
Ġp ockets
ĠI CC
Ġst ochastic
ĠR osa
song writer
nt on
ĠOpport unity
ĠAl ert
Ġfair ness
Tele vision
Ġstation ary
ĠS ic
f its
Ġre ef
ĠO m
comm ittee
Ġovert urn
st ri
ĠCourt esy
Ġtouchdown s
ut z
Eng land
ĠMar l
× ª
Ġrecip es
D river
ĠC ogn
ĠU E
f actor
Ġm d
Ġro de
Ġca ption
ĠWind sor
ĠB ast
ĠG ur
ĠHor izon
R ound
Ġ\ ]
Ġprotect s
Ġcert ificates
ĠF lynn
Ġinv asive
l ass
Ġtherap ies
Ġrecogn izing
Ġs or
Ġcasual ties
Ġge ography
Ġliv estock
Ġboard ing
ĠLouis ville
22 9
ĠNet anyahu
pl aces
ib a
ĠP osition
Ġag gress
ĠPract ices
ĠM ile
t race
Ġag gression
Ġcurrent s
ĠEd mund
Ġcreep y
Ġantib ody
Ġcorrel ations
mom ent
ĠF itness
Ġv ide
Ġcollect or
Ġcl erk
ĠGriff ith
S ocket
ĠIm agine
J ay
le igh
4 40
ĠC aval
Ġfe eds
30 8
ĠDomin ican
T ell
Ġc el
Ġwe ars
Ġorb ital
ĠBuddh ism
Ġb iblical
ĠBald win
y ang
Ġquarter ly
Ġsens ing
ĠLeg ends
ĠC BD
her ical
ĠTrad itional
Ġincl ined
r oute
Ġhead ers
Ġm ast
ĠG ul
ĠRevolution ary
18 93
C over
Ġbr ass
Ġresid ency
Ġenerget ic
Ġrecomm ends
Ġtack les
Ġc it
our cing
ĠSch midt
Ġkick ing
Ġpool s
C our
Ġris en
ĠPart ies
ĠFl ood
N ight
ĠW ife
ĠN ormal
Ġiss uing
Ġspl itting
ĠMin utes
Ġdra gged
ĠPar ade
Ã± a
ĠLore n
ĠJ P
Ġph on
ĠAccount ing
m oz
ĠA ch
ĠGu atem
Ġdark er
T aylor
Ġfat igue
m ouse
Ġobser vers
Ġbreat he
Ġunlaw ful
ĠAd obe
eg ie
St ock
ĠEx cept
A ri
es se
Ġconstruct or
ĠA J
ab is
Gener ator
ĠD at
ĠBl vd
on ian
ĠView s
Ġex ert
orth y
Ġunder went
') );
Ġgood ness
ee le
ĠArch bishop
Å Ł
Ġey eb
Ġcon sp
ĠY E
th reat
Ġreluct ant
ra k
w ere
Ġmass acre
ĠLux embourg
Ġhomosex ual
Ġinc arcer
Ġconfront ed
ant ing
Ġele phant
ĠPant hers
Ġcontinu um
ĠOtt oman
ĠTon ight
Ġc ried
Comp any
ĠM ell
Ġaccess ing
Ġprinc ip
Ġmight y
Ġtact ical
Ġphilos opher
J ess
Ġp ets
ex tern
Ġec ology
S cal
b matrix
M iddle
ĠSoph ie
ĠV ert
ĠSh ut
ĠBever ly
t frac
pp e
ĠCor respond
ild a
ĠC red
Ġemploy ing
, .
Ġhard est
Ġor phan
J am
op ia
Ġecosystem s
}} )
ĠSh ot
at isf
Ġun changed
Ġw ives
ĠF T
ne ider
Ġo mitted
Ġcondition ing
Ġinsp ir
Ġstri pped
al gebra
ĠAl umni
Ġurg ing
Ġdem ons
Ġtast es
ĠS tern
Ġrepl ies
E mer
Ġles bian
Ġcon ception
rec ogn
Ġrefer enced
Ġsize of
Ġprivile ged
Ġd ug
Ġhe els
Ġbas in
osa urs
Ġadmin ister
ĠCon struct
Ġbi ased
B enz
Ġl av
por ter
ĠPat rol
ĠIr ving
ĠHug o
V O
ĠCr us
Ġbet ting
ĠNort heast
Ġst akes
Ġsat ellites
id x
Ġacceler ated
n ate
ĠW ii
ĠLe one
Ġsupp ression
Ġgrand children
Ġdiss ent
Cond ition
40 5
Ġer ected
al am
> :
Ġir rig
Ġdepend encies
B G
row ave
lu x
Ġaver aging
re x
Ġcommun icating
Ident ifier
ĠComm ittees
Ġrot ate
Ġaccomplish ments
E ss
ĠLad en
ĠAdm iral
Ġp neum
24 8
Ġqual ification
Ġtype of
Ġcompan ions
Jon athan
c ot
d id
ĠP ST
Ġendorse ment
o S
Ġint ellect
Ġ{ $
Ġsuccess ive
Ġproc urement
c ou
ĠT ucker
Ġmod elling
Ġassign ments
Ġninet eenth
Ġs ins
P UT
Ġstr ang
Ġturn over
bsol ute
Col lect
ĠFro st
ĠWrit ten
an ical
ĠS add
Ġwel comes
Ġpolar ization
ĠO dd
U ES
rib es
BL IC
ĠBu ilt
us ername
Ġadm ire
D OM
Ġthere in
ger ald
Ġtax ation
Ġten ant
M other
Ġauthor ization
s pl
Ġill usion
j unit
eg al
ĠE E
ĠCh ambers
ĠCl ara
ĠBe a
Ġquestion able
od i
Ġcont empt
Ġsc are
ĠUn ity
ath a
ĠHigh lights
Ġsli pped
ĠSt ark
ĠWh ole
itor ium
Ġproud ly
F unc
Ġkind ness
T x
ĠSom erset
ĠCustom s
ire ment
Ġra pper
ĠÐ ¸
h ra
Ġl ac
Ġtransform ations
ĠEx ped
t ests
ĠMov ing
2 18
C ivil
us age
Ġtem ples
Bi ography
EN SE
ouncill or
J O
] {\
D ub
rosso ver
Ġground ed
Ġtrack ed
ĠBrun swick
Ġf erry
ĠR as
Ġmet ropolitan
Ġcr ashes
hib ition
Ġdress ing
ĠDog s
Ġst air
se ver
Ġunderm ine
O ffic
Ġsn ake
Ġt urt
ĠMar ian
ct ica
ĠR N
cept ive
Ġsem inar
ma jor
rug u
Ġclimb ed
prof its
ĠBirth day
Ġgr im
ĠAll ied
in ist
oll ar
Ġfe ather
bi ology
Ġgrat itude
! ).
Ġa rose
ĠF uk
for get
par allel
ĠBar rett
ĠFort une
Ġamb ient
Ġsp inal
Ġbook ed
ĠA ircraft
Ġher b
law s
ĠMonitor ing
Ġcook ed
w arning
Ġt sd
ĠInter active
Ġinf ra
Ġcrit erion
EE EE
H M
rim inal
ov ies
Ġsh aking
R oad
Ġbl ade
ĠWed ding
ob ic
Sp anish
Act ually
Ġpric ed
Ġton nes
elect ric
z ip
Ġo ak
Ġb iodiversity
ĠH undred
Ġsub mitting
orig in
ĠGold man
ĠDel ivery
el ian
ĠC ave
ĠO le
ĠSe oul
Ġoptim ize
ĠA u
ĠL iqu
ĠN PR
ĠSpot ify
N V
Ġar range
ĠWeb b
_ -
t ouch
Ġj ohn
ĠP od
Ġacquis itions
An ne
Ġmis er
p olitical
x html
Ġre imb
ru ed
Ġarchae ological
Ġde af
Ġ{ '
ĠSpec ies
ĠS we
ĠThe m
the me
ĠGl ad
Ġten ants
m ust
ĠFun eral
Ġsc am
he ed
dat as
n esty
eb e
Ġmyth s
Ġth riving
ĠYug oslav
Ġem pathy
Ġupgrad es
h adoop
Ġj umps
ĠCooper ation
ĠProcess ing
ĠBreak fast
back ed
ms on
Ġmos que
s il
ĠMeg an
24 2
el ed
Ġy a
28 5
run ner
ĠEd gar
Ġop ener
head ing
C OP
def ense
rat ulations
Ġc row
y t
ĠV ista
R og
iter ator
Ġviol ate
hard t
ĠWend y
ĠD ies
Through out
ath am
ĠTor res
it ures
Ġpres idents
ĠAct ress
log in
ĠVen us
ĠPret ty
Ġb og
ĠD L
Ġlik ewise
ĠExpl orer
Lear ning
Ġd ile
let ters
ĠTr ading
associ ated
24 6
gu ide
object s
Ġt a
Ġeat en
Ġorche str
oot er
ĠPl ate
ĠIns ider
Ġaw aken
Ġdynam ical
ĠArmen ia
Ġcum ulative
l ore
ĠM it
ĠAss ad
load ed
C amb
ra pped
ĠAn ime
ĠEv a
Any way
ha o
el ic
Ġoccup y
Ġdepict s
\ /
Ġann ex
Ġin mates
Ġst ark
ĠD habi
ĠB ound
$ :
au i
in qu
am ac
Ġle aked
Ġnarr ator
Sim on
Ġres olutions
proport ion
Ġass ure
h ang
ux e
Ġcompl aining
ĠK aw
ĠBre aking
Î ¯
ĠPrinc iples
[...]
