{
  "version": "1.0",
  "truncation": null,
  "padding": null,
  "added_tokens": [
    {
      "id": 0,
      "content": "[UNK]",
      "single_word": false,
      "lstrip": false,
      "rstrip": false,
      "normalized": false,
      "special": true
    }
  ],
  "normalizer": null,
  "pre_tokenizer": {
    "type": "Sequence",
    "pretokenizers": [
      {
        "type": "Digits",
        "individual_digits": false
      },
      {
        "type": "ByteLevel",
        "add_prefix_space": false,
        "trim_offsets": true,
        "use_regex": true
      }
    ]
  },
  "post_processor": null,
  "decoder": null,
  "model": {
    "type": "BPE",
    "dropout": null,
    "unk_token": "[UNK]",
    "continuing_subword_prefix": null,
    "end_of_word_suffix": null,
    "fuse_unk": false,
    "byte_fallback": false,
    "vocab": {
      "[UNK]": 0,
      "!": 1,
      "\"": 2,
      "#": 3,
      "$": 4,
      "%": 5,
      "&": 6,
      "'": 7,
      "(": 8,
      ")": 9,
      "*": 10,
      "+": 11,
      ",": 12,
      "-": 13,
      ".": 14,
      "/": 15,
      "0": 16,
      "1": 17,
      "2": 18,
      "3": 19,
      "4": 20,
      "5": 21,
      "6": 22,
      "7": 23,
      "8": 24,
      "9": 25,
      ":": 26,
      ";": 27,
      "<": 28,
      "=": 29,
      ">": 30,
      "?": 31,
      "@": 32,
      "A": 33,
      "B": 34,
      "C": 35,
      "D": 36,
      "E": 37,
      "F": 38,
      "G": 39,
      "H": 40,
      "I": 41,
      "J": 42,
      "K": 43,
      "L": 44,
      "M": 45,
      "N": 46,
      "O": 47,
      "P": 48,
      "Q": 49,
      "R": 50,
      "S": 51,
      "T": 52,
      "U": 53,
      "V": 54,
      "W": 55,
      "X": 56,
      "Y": 57,
      "Z": 58,
      "[": 59,
      "\\": 60,
      "]": 61,
      "^": 62,
      "_": 63,
      "`": 64,
      "a": 65,
      "b": 66,
      "c": 67,
      "d": 68,
      "e": 69,
      "f": 70,
      "g": 71,
      "h": 72,
      "i": 73,
      "j": 74,
      "k": 75,
      "l": 76,
      "m": 77,
      "n": 78,
      "o": 79,
      "p": 80,
      "q": 81,
      "r": 82,
      "s": 83,
      "t": 84,
      "u": 85,
      "v": 86,
      "w": 87,
      "x": 88,
      "y": 89,
      "z": 90,
      "{": 91,
      "|": 92,
      "}": 93,
      "~": 94,
      "¡": 95,
      "¢": 96,
      "£": 97,
      "¤": 98,
      "¥": 99,
      "¦": 100,
      "§": 101,
      "¨": 102,
      "©": 103,
      "ª": 104,
      "«": 105,
      "¬": 106,
      "®": 107,
      "¯": 108,
      "°": 109,
      "±": 110,
      "²": 111,
      "³": 112,
      "´": 113,
      "µ": 114,
      "¶": 115,
      "·": 116,
      "¸": 117,
      "¹": 118,
      "º": 119,
      "»": 120,
      "¼": 121,
      "½": 122,
      "¾": 123,
      "¿": 124,
      "Â": 125,
      "Ã": 126,
      "Ä": 127,
      "Å": 128,
      "Æ": 129,
      "Ç": 130,
      "È": 131,
      "É": 132,
      "Ê": 133,
      "Ë": 134,
      "Ì": 135,
      "Í": 136,
      "Î": 137,
      "Ï": 138,
      "Ð": 139,
      "Ñ": 140,
      "Ò": 141,
      "Ó": 142,
      "Ô": 143,
      "Õ": 144,
      "Ö": 145,
      "×": 146,
      "Ø": 147,
      "Ù": 148,
      "Ú": 149,
      "Û": 150,
      "Ü": 151,
      "Ý": 152,
      "Þ": 153,
      "ß": 154,
      "à": 155,
      "á": 156,
      "â": 157,
      "ã": 158,
      "ä": 159,
      "å": 160,
      "æ": 161,
      "ç": 162,
      "è": 163,
      "é": 164,
      "ê": 165,
      "ë": 166,
      "ì": 167,
      "í": 168,
      "î": 169,
      "ï": 170,
      "ð": 171,
      "ñ": 172,
      "ó": 173,
      "ô": 174,
      "Ā": 175,
      "ā": 176,
      "Ă": 177,
      "ă": 178,
      "Ą": 179,
      "ą": 180,
      "Ć": 181,
      "ć": 182,
      "Ĉ": 183,
      "ĉ": 184,
      "Ċ": 185,
      "ċ": 186,
      "Č": 187,
      "č": 188,
      "Ď": 189,
      "ď": 190,
      "Đ": 191,
      "đ": 192,
      "Ē": 193,
      "ē": 194,
      "Ĕ": 195,
      "ĕ": 196,
      "Ė": 197,
      "ė": 198,
      "Ę": 199,
      "ę": 200,
      "Ě": 201,
      "ě": 202,
      "Ĝ": 203,
      "ĝ": 204,
      "Ğ": 205,
      "ğ": 206,
      "Ġ": 207,
      "ġ": 208,
      "Ģ": 209,
      "ģ": 210,
      "Ĥ": 211,
      "ĥ": 212,
      "Ħ": 213,
      "ħ": 214,
      "Ĩ": 215,
      "ĩ": 216,
      "Ī": 217,
      "ī": 218,
      "Ĭ": 219,
      "ĭ": 220,
      "Į": 221,
      "į": 222,
      "İ": 223,
      "ı": 224,
      "Ĳ": 225,
      "ĳ": 226,
      "Ĵ": 227,
      "ĵ": 228,
      "Ķ": 229,
      "ķ": 230,
      "ĸ": 231,
      "Ĺ": 232,
      "ĺ": 233,
      "Ļ": 234,
      "ļ": 235,
      "Ľ": 236,
      "ľ": 237,
      "Ŀ": 238,
      "ŀ": 239,
      "Ł": 240,
      "ł": 241,
      "Ń": 242,
      "Ġt": 243,
      "Ġa": 244,
      "in": 245,
      "he": 246,
      "on": 247,
      "er": 248,
      "re": 249,
      "ĠĠ": 250,
      "Ġthe": 251,
      "at": 252,
      "Ġs": 253,
      "en": 254,
      "or": 255,
      "Ġw": 256,
      "an": 257,
      "Ġo": 258,
      "it": 259,
      "is": 260,
      "es": 261,
      "Ġc": 262,
      "al": 263,
      "ed": 264,
      "ar": 265,
      "Ġf": 266,
      "ing": 267,
      "nd": 268,
      "Ġb": 269,
      "Ġp": 270,
      "Ġof": 271,
      "ou": 272,
      "Ġin": 273,
      "ic": 274,
      "ion": 275,
      "Ġm": 276,
      "Ġand": 277,
      "Ġto": 278,
      "as": 279,
      "le": 280,
      "Ġd": 281,
      "om": 282,
      "ĠĠĠĠ": 283,
      "Ġh": 284,
      "âĢ": 285,
      "ent": 286,
      "Ġth": 287,
      "il": 288,
      "el": 289,
      "st": 290,
      "ro": 291,
      "ct": 292,
      "ĠS": 293,
      "Ġre": 294,
      "et": 295,
      "Ġn": 296,
      "ĠT": 297,
      "Ġl": 298,
      "ĠC": 299,
      "ĠA": 300,
      "Ġe": 301,
      "id": 302,
      "am": 303,
      "ol": 304,
      "ĠI": 305,
      "ot": 306,
      "ut": 307,
      "Ġg": 308,
      "ve": 309,
      "ig": 310,
      "im": 311,
      "ation": 312,
      "ce": 313,
      "ur": 314,
      "ad": 315,
      "Ġis": 316,
      "ĠM": 317,
      "ly": 318,
      "ay": 319,
      "Ġon": 320,
      "Ġfor": 321,
      "ch": 322,
      "ow": 323,
      "us": 324,
      "Ġbe": 325,
      "ver": 326,
      "Ġ(": 327,
      "ĠP": 328,
      "ĠB": 329,
      "Ġthat": 330,
      "ir": 331,
      "Ġst": 332,
      "ith": 333,
      "ter": 334,
      "âĢĻ": 335,
      "ra": 336,
      "ul": 337,
      "se": 338,
      "un": 339,
      "Ġhe": 340,
      "Ġwith": 341,
      "ĠD": 342,
      "ĠH": 343,
      "ĠR": 344,
      "Ġas": 345,
      "20": 346,
      "Ġy": 347,
      "em": 348,
      "Ġit": 349,
      "if": 350,
      "ĠF": 351,
      "ag": 352,
      "ĠW": 353,
      "Ġan": 354,
      "Ġwh": 355,
      "od": 356,
      "ers": 357,
      "ri": 358,
      "Ġal": 359,
      "Ġcon": 360,
      "ĠĠĠ": 361,
      "est": 362,
      "um": 363,
      "ĠL": 364,
      "ist": 365,
      "th": 366,
      "ac": 367,
      "ill": 368,
      "ĠN": 369,
      "ĠThe": 370,
      "and": 371,
      "ĠĠĠĠĠĠĠĠ": 372,
      "ab": 373,
      "op": 374,
      "ate": 375,
      "her": 376,
      "Ġpro": 377,
      "ĠG": 378,
      "ĠE": 379,
      "Ġwas": 380,
      "Ġat": 381,
      "ew": 382,
      "ht": 383,
      "res": 384,
      "ess": 385,
      "pp": 386,
      "ity": 387,
      "rom": 388,
      "ld": 389,
      "Ġv": 390,
      "qu": 391,
      "Ġcom": 392,
      "ĠâĢ": 393,
      "oc": 394,
      "ore": 395,
      "our": 396,
      "ke": 397,
      "os": 398,
      "ect": 399,
      "Ġby": 400,
      "Ġare": 401,
      "Ġde": 402,
      "ĠJ": 403,
      "ment": 404,
      "Ġor": 405,
      "Ġex": 406,
      "ort": 407,
      "iv": 408,
      "ies": 409,
      "ain": 410,
      "art": 411,
      "ant": 412,
      "end": 413,
      "ĠO": 414,
      "Ġse": 415,
      "Ġfrom": 416,
      "Ġha": 417,
      "Ġr": 418,
      "Ġsu": 419,
      "ive": 420,
      "201": 421,
      "ight": 422,
      "ud": 423,
      "all": 424,
      "Ġ$": 425,
      "ust": 426,
      "Ġwe": 427,
      "Ġthis": 428,
      "pt": 429,
      "Ġnot": 430,
      "ard": 431,
      "Ġsh": 432,
      "nt": 433,
      "Ġyou": 434,
      "ial": 435,
      "Ġch": 436,
      "ĠU": 437,
      "ure": 438,
      "Ġ\\": 439,
      "..": 440,
      "ear": 441,
      "The": 442,
      "og": 443,
      "ge": 444,
      "pe": 445,
      "Ġhave": 446,
      "Ġu": 447,
      "ell": 448,
      "âĢĿ": 449,
      "out": 450,
      "Ġle": 451,
      "19": 452,
      "ine": 453,
      "ould": 454,
      "'s": 455,
      "ost": 456,
      "rou": 457,
      "ber": 458,
      "ast": 459,
      "pl": 460,
      "ction": 461,
      "ak": 462,
      "per": 463,
      "ich": 464,
      "ia": 465,
      "ass": 466,
      "Ġab": 467,
      "Ġus": 468,
      "ame": 469,
      "ans": 470,
      "Ġpl": 471,
      "ff": 472,
      "ĠK": 473,
      "ome": 474,
      "Ġwor": 475,
      "ĠSt": 476,
      "ub": 477,
      "ok": 478,
      "ack": 479,
      "are": 480,
      "00": 481,
      "age": 482,
      "Ġhas": 483,
      "ical": 484,
      "ary": 485,
      "ated": 486,
      "ue": 487,
      "Ġhis": 488,
      "Ġcl": 489,
      "Ġj": 490,
      "ong": 491,
      "ĠIn": 492,
      "iz": 493,
      "ex": 494,
      "Ġ\"": 495,
      "ĠĠĠĠĠĠĠ": 496,
      "Ġk": 497,
      "Ġall": 498,
      "ide": 499,
      "ire": 500,
      "Ġcan": 501,
      "ap": 502,
      "ip": 503,
      "cl": 504,
      "ice": 505,
      "ther": 506,
      "Ġwhe": 507,
      "ĠâĢľ": 508,
      "orm": 509,
      "ry": 510,
      "ult": 511,
      "ence": 512,
      "ous": 513,
      "Ġ=": 514,
      "ep": 515,
      "ie": 516,
      "Ġbut": 517,
      "Ġwill": 518,
      "ind": 519,
      "ions": 520,
      "gh": 521,
      "Ġgo": 522,
      "Ġcomp": 523,
      "ĠV": 524,
      "cc": 525,
      "Ġad": 526,
      "Ġ-": 527,
      "able": 528,
      "Ġdo": 529,
      "ere": 530,
      "av": 531,
      "Ġcont": 532,
      "Ġtheir": 533,
      "Ġint": 534,
      "ime": 535,
      "ite": 536,
      "Ġthey": 537,
      "act": 538,
      "ign": 539,
      "ations": 540,
      "one": 541,
      "Ġme": 542,
      "Ġwhich": 543,
      "ĠCh": 544,
      "Ġun": 545,
      "Ġim": 546,
      "ib": 547,
      "Ġen": 548,
      "Ġres": 549,
      "Ġout": 550,
      "Ġwho": 551,
      "ance": 552,
      "ord": 553,
      "ath": 554,
      "</": 555,
      "ru": 556,
      "ĠTh": 557,
      "ook": 558,
      "Ġone": 559,
      "ally": 560,
      "ace": 561,
      "fer": 562,
      "ph": 563,
      "port": 564,
      "con": 565,
      "ĉĉ": 566,
      "Ġmore": 567,
      "ase": 568,
      "=\"": 569,
      "so": 570,
      "du": 571,
      "Ġup": 572,
      "ks": 573,
      "int": 574,
      "ian": 575,
      "Ġar": 576,
      "eg": 577,
      "ory": 578,
      "Ġwere": 579,
      "ang": 580,
      "Ġsa": 581,
      "form": 582,
      "ov": 583,
      "Ġabout": 584,
      "very": 585,
      "ition": 586,
      "Ġtr": 587,
      "ile": 588,
      "ens": 589,
      "ĠY": 590,
      "ach": 591,
      "ount": 592,
      "ress": 593,
      "Ġapp": 594,
      "ake": 595,
      "ents": 596,
      "Ġso": 597,
      "Ġman": 598,
      "ail": 599,
      "Ġher": 600,
      "{\\": 601,
      "Ġper": 602,
      "mer": 603,
      "lic": 604,
      ");": 605,
      "Ġdis": 606,
      "čĊ": 607,
      "//": 608,
      "vers": 609,
      "--": 610,
      "Ġ&": 611,
      "Ġag": 612,
      "ll": 613,
      "Ġne": 614,
      "Ġnew": 615,
      "ely": 616,
      "ob": 617,
      "Ġyear": 618,
      "own": 619,
      "Ġev": 620,
      "ays": 621,
      "erv": 622,
      "Ġli": 623,
      "com": 624,
      "Ġpart": 625,
      "ild": 626,
      "ose": 627,
      "ish": 628,
      "Ġhad": 629,
      "Ġother": 630,
      "Ġsp": 631,
      "ound": 632,
      "10": 633,
      "ree": 634,
      "Ġbeen": 635,
      ").": 636,
      "ors": 637,
      "Ġ<": 638,
      "Ġits": 639,
      "vel": 640,
      "ark": 641,
      "Ġalso": 642,
      "Ġif": 643,
      "),": 644,
      "Ġsc": 645,
      "200": 646,
      "urn": 647,
      "ext": 648,
      "ck": 649,
      "ings": 650,
      "ric": 651,
      "irst": 652,
      "Ġ{": 653,
      "Ġinter": 654,
      "reat": 655,
      "Ġqu": 656,
      "Ġpre": 657,
      "Ġwould": 658,
      "ĠIt": 659,
      "Ġthere": 660,
      "ces": 661,
      "ft": 662,
      "Ġte": 663,
      "Ġpe": 664,
      "rit": 665,
      "Ġover": 666,
      "oll": 667,
      "ne": 668,
      "wo": 669,
      "row": 670,
      "ates": 671,
      "use": 672,
      "ĠHe": 673,
      "Ġour": 674,
      "nder": 675,
      "Ġwork": 676,
      "Ġtime": 677,
      "old": 678,
      "ove": 679,
      "ople": 680,
      "Ġany": 681,
      "fter": 682,
      "ject": 683,
      "ĠUn": 684,
      "aw": 685,
      "Ġthan": 686,
      "hed": 687,
      "Ġsome": 688,
      "Ġthem": 689,
      "te": 690,
      "Ġkn": 691,
      "li": 692,
      "In": 693,
      "Ġmy": 694,
      "Ġwhen": 695,
      "Ġsaid": 696,
      "ĠâĢĵ": 697,
      "ink": 698,
      "ĠĠĠĠĠĠĠĠĠĠĠ": 699,
      "clud": 700,
      "oy": 701,
      "Ġoff": 702,
      "vi": 703,
      "Ġyour": 704,
      "amp": 705,
      "ec": 706,
      "ng": 707,
      "ond": 708,
      "Ġinto": 709,
      "ational": 710,
      "Ġshe": 711,
      "Ġro": 712,
      "Ġrec": 713,
      "ons": 714,
      "Ġ*": 715,
      "Ġfirst": 716,
      "ade": 717,
      "ual": 718,
      "iss": 719,
      "Ġlike": 720,
      "Ġwhat": 721,
      "ss": 722,
      "we": 723,
      "ick": 724,
      "ool": 725,
      "Ġcomm": 726,
      "ater": 727,
      "ef": 728,
      "Ġget": 729,
      "Ġpeople": 730,
      "Ġbec": 731,
      "igh": 732,
      "Ġacc": 733,
      "get": 734,
      "_{": 735,
      "ont": 736,
      "rib": 737,
      "ty": 738,
      "Ġjust": 739,
      "18": 740,
      "ublic": 741,
      "eth": 742,
      "ram": 743,
      "erm": 744,
      "Ġdes": 745,
      "Ġno": 746,
      "ps": 747,
      "ood": 748,
      "olog": 749,
      "Ġam": 750,
      "Ġind": 751,
      "sp": 752,
      "Ġtwo": 753,
      "pec": 754,
      "ics": 755,
      "ert": 756,
      "lect": 757,
      "Ġbet": 758,
      "elf": 759,
      "ĠCom": 760,
      "Ġunder": 761,
      "Ġonly": 762,
      "ug": 763,
      "ced": 764,
      "ata": 765,
      "12": 766,
      "ning": 767,
      "ring": 768,
      "ock": 769,
      "oint": 770,
      "les": 771,
      "Ġact": 772,
      "ident": 773,
      "Ġfe": 774,
      "Ġ}": 775,
      "ities": 776,
      "Ġtra": 777,
      "\">": 778,
      "over": 779,
      "Ġhow": 780,
      "ener": 781,
      "yst": 782,
      "tern": 783,
      "ĠNew": 784,
      "round": 785,
      "Ġbl": 786,
      "ĠWe": 787,
      "red": 788,
      "Ġinclud": 789,
      "ause": 790,
      "Ġclass": 791,
      "Ġcons": 792,
      "Ġafter": 793,
      "rough": 794,
      "Ġhim": 795,
      "ict": 796,
      "ise": 797,
      ".âĢĿ": 798,
      "ific": 799,
      "Ġplay": 800,
      "Ġ$\\": 801,
      "ĠĊ": 802,
      "Ġ[": 803,
      "ough": 804,
      "Ġexp": 805,
      "ward": 806,
      "Ġass": 807,
      "Ġ|": 808,
      "Ġatt": 809,
      "ited": 810,
      "Ġreg": 811,
      "ating": 812,
      "Ġret": 813,
      "ork": 814,
      "wn": 815,
      "Ġmost": 816,
      "als": 817,
      "ĠAr": 818,
      "Ġinv": 819,
      "Ġmay": 820,
      "Ġem": 821,
      "ys": 822,
      "11": 823,
      "ĠRe": 824,
      "ased": 825,
      "Ġ'": 826,
      "ode": 827,
      "oth": 828,
      "Ġprov": 829,
      "...": 830,
      "âĢľ": 831,
      "Ġrel": 832,
      "Ġwhere": 833,
      "ivers": 834,
      "Ġyears": 835,
      "land": 836,
      "arch": 837,
      "pro": 838,
      "itt": 839,
      "Ġpol": 840,
      "ull": 841,
      "Th": 842,
      "io": 843,
      "ref": 844,
      "ments": 845,
      "the": 846,
      "ĠPro": 847,
      "ative": 848,
      "Ġback": 849,
      "ular": 850,
      "Ġthrough": 851,
      "Ġsub": 852,
      "St": 853,
      "ĠThis": 854,
      "Ġadd": 855,
      "Ġra": 856,
      "ystem": 857,
      "Ġcould": 858,
      "iel": 859,
      "und": 860,
      "ran": 861,
      "Ġstud": 862,
      "ife": 863,
      "Ġdif": 864,
      "Ġob": 865,
      "hip": 866,
      "ma": 867,
      "ied": 868,
      "ĠĠĠĠĠĠĠĠĠĠĠĠĠĠĠĠ": 869,
      "Ġthese": 870,
      "ower": 871,
      "pport": 872,
      "**": 873,
      "math": 874,
      "cre": 875,
      "15": 876,
      "Ġfl": 877,
      "Ġset": 878,
      "Ġph": 879,
      "Ġdef": 880,
      "oss": 881,
      "ren": 882,
      "cy": 883,
      "Ġknow": 884,
      "ix": 885,
      "uring": 886,
      "day": 887,
      "ĠDe": 888,
      "ily": 889,
      "ĠSe": 890,
      "riv": 891,
      "Ġsee": 892,
      "Ġsuch": 893,
      "ility": 894,
      "meric": 895,
      "up": 896,
      "inal": 897,
      "'t": 898,
      "ious": 899,
      "Ġrem": 900,
      "Ġpres": 901,
      "man": 902,
      "pr": 903,
      "ution": 904,
      "Ġwell": 905,
      "ption": 906,
      "ars": 907,
      "cess": 908,
      "uch": 909,
      "ĠĠĠĠĠ": 910,
      "che": 911,
      "Ġneed": 912,
      "Ġdid": 913,
      "Ġshow": 914,
      "any": 915,
      "ts": 916,
      "ures": 917,
      "ues": 918,
      "Ġbu": 919,
      "Ġthen": 920,
      "ible": 921,
      "Ġtrans": 922,
      "Ġagain": 923,
      "ah": 924,
      "chool": 925,
      "velop": 926,
      "Ġcol": 927,
      "ĠWh": 928,
      "Ġpr": 929,
      "Ġac": 930,
      "ful": 931,
      "tt": 932,
      "Ġmod": 933,
      "ash": 934,
      "ax": 935,
      "its": 936,
      "Ġevery": 937,
      "ĠAl": 938,
      "erson": 939,
      "ient": 940,
      "Ġent": 941,
      "Ġend": 942,
      "oun": 943,
      "Ġprodu": 944,
      "Ġnow": 945,
      "ner": 946,
      "16": 947,
      "ins": 948,
      "ract": 949,
      "ield": 950,
      "ollow": 951,
      "30": 952,
      "Ġco": 953,
      "fore": 954,
      "ism": 955,
      "air": 956,
      "Ġmany": 957,
      "other": 958,
      "view": 959,
      "ĠSh": 960,
      "Ġeven": 961,
      "ĠAnd": 962,
      "ale": 963,
      "gan": 964,
      "Ġright": 965,
      "oh": 966,
      "ween": 967,
      "ason": 968,
      "Ġserv": 969,
      "ange": 970,
      "ĠAn": 971,
      "aking": 972,
      "Ġbeing": 973,
      "17": 974,
      "}\\": 975,
      "ww": 976,
      "Ġbecause": 977,
      "uth": 978,
      "ience": 979,
      "hen": 980,
      "ement": 981,
      "sc": 982,
      "ĠAmeric": 983,
      "ince": 984,
      "arg": 985,
      "ble": 986,
      "irect": 987,
      "imes": 988,
      "Ġway": 989,
      "Ġmake": 990,
      "Ġeff": 991,
      "ices": 992,
      "14": 993,
      "ember": 994,
      "let": 995,
      "Ġvery": 996,
      "Ġlook": 997,
      "au": 998,
      "Ġworld": 999,
      ",âĢĿ": 1000,
      "Ġnum": 1001,
      "Ġresp": 1002,
      "der": 1003,
      "Ġshould": 1004,
      "Ġdiffer": 1005,
      "Ġwant": 1006,
      "ize": 1007,
      "ists": 1008,
      "://": 1009,
      "Ġbetween": 1010,
      "Ġpublic": 1011,
      "199": 1012,
      "alth": 1013,
      "Ġspec": 1014,
      "Ġart": 1015,
      "iversity": 1016,
      "Ġuse": 1017,
      "Ġcall": 1018,
      "13": 1019,
      "oci": 1020,
      "Ġval": 1021,
      "ines": 1022,
      "Ġinst": 1023,
      "Ġown": 1024,
      "ames": 1025,
      "}$": 1026,
      "Ġsur": 1027,
      "Ġcount": 1028,
      "ting": 1029,
      "^{": 1030,
      "Ġfil": 1031,
      "Ġloc": 1032,
      "Ġgu": 1033,
      "ton": 1034,
      "uss": 1035,
      "ven": 1036,
      "Ġke": 1037,
      "Ġsm": 1038,
      "----": 1039,
      "atch": 1040,
      "formation": 1041,
      "els": 1042,
      "ms": 1043,
      "az": 1044,
      "roup": 1045,
      "Ġthink": 1046,
      "orn": 1047,
      "ives": 1048,
      "ĠLe": 1049,
      "led": 1050,
      "way": 1051,
      "Ġfun": 1052,
      "Ġdec": 1053,
      "Ġlong": 1054,
      "Ġreturn": 1055,
      "Ġmade": 1056,
      "ĠCl": 1057,
      "Ġdoes": 1058,
      "Ġthose": 1059,
      ".,": 1060,
      "Ġhel": 1061,
      "Ġfollow": 1062,
      "ouse": 1063,
      "cond": 1064,
      "==": 1065,
      "Ġbel": 1066,
      "ology": 1067,
      "Ġsystem": 1068,
      "ave": 1069,
      "âĢ¦": 1070,
      "ather": 1071,
      "ature": 1072,
      "iness": 1073,
      "Ġmuch": 1074,
      "ision": 1075,
      "Ġhigh": 1076,
      "Ġstart": 1077,
      "ype": 1078,
      "Ġlead": 1079,
      "ple": 1080,
      "Ġexper": 1081,
      "ute": 1082,
      "ource": 1083,
      "Ġbefore": 1084,
      "ek": 1085,
      "pen": 1086,
      "ral": 1087,
      "right": 1088,
      "vent": 1089,
      "Ġdet": 1090,
      "ox": 1091,
      "Ġused": 1092,
      "25": 1093,
      "ĠAs": 1094,
      "Ġgood": 1095,
      "Ġmon": 1096,
      "Ġfam": 1097,
      "ider": 1098,
      "Ġsign": 1099,
      "Ġdon": 1100,
      "line": 1101,
      "Ġser": 1102,
      "oot": 1103,
      "Ġdevelop": 1104,
      "Ġ.": 1105,
      "ER": 1106,
      "ined": 1107,
      "ĠTr": 1108,
      "ĠSc": 1109,
      "ĠFor": 1110,
      "ten": 1111,
      "gram": 1112,
      "Ġear": 1113,
      "000": 1114,
      "Ġrequ": 1115,
      "Ġread": 1116,
      "ets": 1117,
      "ters": 1118,
      "Ġpoint": 1119,
      "raph": 1120,
      "Ġcur": 1121,
      "Ġsim": 1122,
      "()": 1123,
      "ĠIs": 1124,
      "Ġ/": 1125,
      "ern": 1126,
      "chn": 1127,
      "ann": 1128,
      "2019": 1129,
      "ĠInd": 1130,
      "ection": 1131,
      "alk": 1132,
      "ages": 1133,
      "Ġdown": 1134,
      "Ġgener": 1135,
      "rent": 1136,
      "cent": 1137,
      "Ġed": 1138,
      "Ġext": 1139,
      "Ġdata": 1140,
      "ctions": 1141,
      "Ġlast": 1142,
      "Ġform": 1143,
      "Ġchar": 1144,
      "ank": 1145,
      "ĠâĢĺ": 1146,
      "Ġmed": 1147,
      "ished": 1148,
      "uc": 1149,
      "to": 1150,
      "Ġdist": 1151,
      "Ġvar": 1152,
      "read": 1153,
      "Ġgr": 1154,
      "ym": 1155,
      "Ġhere": 1156,
      "ever": 1157,
      "Ġfound": 1158,
      "}}": 1159,
      "We": 1160,
      "Ġmin": 1161,
      "Ġresult": 1162,
      "Ġdisc": 1163,
      "pos": 1164,
      "Re": 1165,
      "ized": 1166,
      "âĢĵ": 1167,
      "ually": 1168,
      "ĠYou": 1169,
      "Ġwhile": 1170,
      "par": 1171,
      "ĠQ": 1172,
      "ĠBut": 1173,
      "Ġsame": 1174,
      "usiness": 1175,
      "Ġboth": 1176,
      "ĠAd": 1177,
      "ĠZ": 1178,
      "ital": 1179,
      "Ġhelp": 1180,
      "Ġvi": 1181,
      "Ġgreat": 1182,
      "tr": 1183,
      "ght": 1184,
      "ically": 1185,
      "app": 1186,
      "ness": 1187,
      "eng": 1188,
      "ruct": 1189,
      "Ġcent": 1190,
      "Ġeach": 1191,
      "Ġcommun": 1192,
      "\\\\": 1193,
      "It": 1194,
      ".\"": 1195,
      "Ġthree": 1196,
      "ĠBl": 1197,
      "Ġsupport": 1198,
      "ier": 1199,
      "Ġconst": 1200,
      "__": 1201,
      "Ġrep": 1202,
      "ross": 1203,
      "mber": 1204,
      "Ġperson": 1205,
      "ences": 1206,
      "Ġfind": 1207,
      "Ġsom": 1208,
      "ator": 1209,
      "Ġ+": 1210,
      "ved": 1211,
      "aj": 1212,
      "ĠUniversity": 1213,
      "gy": 1214,
      "Ġcor": 1215,
      "ĠâĢĶ": 1216,
      "ĠEx": 1217,
      "Ġlife": 1218,
      "Ġstill": 1219,
      "Ġsay": 1220,
      "cept": 1221,
      "ĠPh": 1222,
      "50": 1223,
      "Ġteam": 1224,
      "Ġreal": 1225,
      "anc": 1226,
      "(\\": 1227,
      "Ġcar": 1228,
      "of": 1229,
      "ural": 1230,
      "ants": 1231,
      "ik": 1232,
      "Ġtake": 1233,
      "egin": 1234,
      "usic": 1235,
      "2018": 1236,
      "ĠCon": 1237,
      "Ġdifferent": 1238,
      "akes": 1239,
      "att": 1240,
      "Ġstr": 1241,
      "Ġduring": 1242,
      "Wh": 1243,
      "son": 1244,
      "....": 1245,
      "Ġfin": 1246,
      "ret": 1247,
      "ected": 1248,
      "Ġinf": 1249,
      "Ġcour": 1250,
      "Ġreport": 1251,
      "yn": 1252,
      "ina": 1253,
      "Ġname": 1254,
      "Ġcre": 1255,
      "ĠCol": 1256,
      "bers": 1257,
      "arm": 1258,
      "Ġappro": 1259,
      "Ġinformation": 1260,
      "Ġfact": 1261,
      "ĠShe": 1262,
      "ĠComm": 1263,
      "ON": 1264,
      "ĠĠĠĠĠĠĠĠĠĠĠĠĠĠĠ": 1265,
      "ired": 1266,
      "ron": 1267,
      "Ġchild": 1268,
      "IN": 1269,
      "Ġhand": 1270,
      "\",": 1271,
      "ared": 1272,
      "ense": 1273,
      "nment": 1274,
      "outh": 1275,
      "self": 1276,
      "24": 1277,
      "eb": 1278,
      "Ġstat": 1279,
      "Ġbook": 1280,
      "ĠSp": 1281,
      "Ġaround": 1282,
      "Ġnumber": 1283,
      "put": 1284,
      "rac": 1285,
      "Ġel": 1286,
      "Ġpartic": 1287,
      "begin": 1288,
      "Ġagainst": 1289,
      "Ġconf": 1290,
      "ohn": 1291,
      "ety": 1292,
      "oad": 1293,
      "->": 1294,
      "ody": 1295,
      "omen": 1296,
      "Ġgover": 1297,
      "Ġmem": 1298,
      "Ġday": 1299,
      "orth": 1300,
      "Ġwrit": 1301,
      "rid": 1302,
      "ery": 1303,
      "Ġcontin": 1304,
      "âĢĶ": 1305,
      "ta": 1306,
      "illion": 1307,
      "err": 1308,
      "rist": 1309,
      "Ġgl": 1310,
      "ote": 1311,
      "text": 1312,
      "Ġstate": 1313,
      "sh": 1314,
      "Ġsecond": 1315,
      "ĠPl": 1316,
      "Ġexpl": 1317,
      "by": 1318,
      "min": 1319,
      "22": 1320,
      "ional": 1321,
      "Ġlaw": 1322,
      "Ġsl": 1323,
      "Ġmark": 1324,
      "This": 1325,
      "Ch": 1326,
      "uro": 1327,
      "ley": 1328,
      "ĠUS": 1329,
      "ray": 1330,
      "Ġrun": 1331,
      "Ġincluding": 1332,
      "abel": 1333,
      "be": 1334,
      "Ġperform": 1335,
      "ission": 1336,
      "Ġreally": 1337,
      "ĠMar": 1338,
      "Ġcare": 1339,
      "hes": 1340,
      "ury": 1341,
      "Ġoper": 1342,
      "Ġvis": 1343,
      "Ġ@": 1344,
      "Ġsays": 1345,
      "Ġgoing": 1346,
      "ĠRes": 1347,
      "2017": 1348,
      "Ġprogram": 1349,
      "ration": 1350,
      "Ġhist": 1351,
      "Ġsol": 1352,
      "198": 1353,
      "Ġschool": 1354,
      "Ġest": 1355,
      "ris": 1356,
      "ving": 1357,
      "ency": 1358,
      "Ġbest": 1359,
      "Ex": 1360,
      "ĠMay": 1361,
      "Ġcase": 1362,
      "Ġgame": 1363,
      "Ġav": 1364,
      "Ġpar": 1365,
      "bs": 1366,
      "Ġmov": 1367,
      "ially": 1368,
      "Ġdirect": 1369,
      "enn": 1370,
      "cal": 1371,
      "Ġrele": 1372,
      "ober": 1373,
      "Ġiss": 1374,
      "ization": 1375,
      "iver": 1376,
      "ml": 1377,
      "ĠThey": 1378,
      "_{\\": 1379,
      "ĠBe": 1380,
      "rol": 1381,
      ")$": 1382,
      "uthor": 1383,
      "Ġche": 1384,
      "lear": 1385,
      "equ": 1386,
      "uman": 1387,
      "ump": 1388,
      "Ġimport": 1389,
      "21": 1390,
      "Ġopen": 1391,
      "Ġprocess": 1392,
      "Ġpost": 1393,
      "Ġpass": 1394,
      "Ġdep": 1395,
      "AT": 1396,
      "Ġpower": 1397,
      "ĠJan": 1398,
      "2016": 1399,
      "Ġca": 1400,
      "ases": 1401,
      "ves": 1402,
      "gg": 1403,
      "less": 1404,
      "Ġi": 1405,
      "Ġplace": 1406,
      "Ġsince": 1407,
      "23": 1408,
      "ccess": 1409,
      "Ġlist": 1410,
      "Ġimp": 1411,
      "Ġ</": 1412,
      "Ġ#": 1413,
      "ĠIf": 1414,
      "iving": 1415,
      "val": 1416,
      "RE": 1417,
      "Ġprovid": 1418,
      "ST": 1419,
      "une": 1420,
      "Ġele": 1421,
      "Ġ//": 1422,
      "med": 1423,
      "Ġpat": 1424,
      "Ġinterest": 1425,
      "co": 1426,
      "arn": 1427,
      "Ġhead": 1428,
      "Ġeffect": 1429,
      "ĠHow": 1430,
      "Ġbuild": 1431,
      "here": 1432,
      "iven": 1433,
      "ĠÂ": 1434,
      "Ġmain": 1435,
      "Ġequ": 1436,
      "ĠAll": 1437,
      "ĠCent": 1438,
      "../": 1439,
      "ought": 1440,
      "ĠTe": 1441,
      "ott": 1442,
      "Ġbusiness": 1443,
      "Ġpop": 1444,
      "ĠOn": 1445,
      "Ġposs": 1446,
      "ister": 1447,
      "essage": 1448,
      "Ġpos": 1449,
      "Ġprot": 1450,
      "side": 1451,
      "ird": 1452,
      "Ġleg": 1453,
      "},": 1454,
      "Ġhapp": 1455,
      "amb": 1456,
      "riend": 1457,
      "Ġline": 1458,
      "Ġann": 1459,
      "}{": 1460,
      "ĠAmerican": 1461,
      "ĠMan": 1462,
      "Ġusing": 1463,
      "Ġtechn": 1464,
      "ining": 1465,
      "Ġrece": 1466,
      "Ġtoo": 1467,
      "Ġstand": 1468,
      "::": 1469,
      "ocial": 1470,
      "oid": 1471,
      "ains": 1472,
      "set": 1473,
      "ument": 1474,
      "me": 1475,
      "orld": 1476,
      "Ġanother": 1477,
      "lish": 1478,
      "ior": 1479,
      "Ġinvest": 1480,
      "Ġdesign": 1481,
      "ways": 1482,
      "2015": 1483,
      "oard": 1484,
      "Ġorgan": 1485,
      "Ġincre": 1486,
      "ĠEng": 1487,
      "ĉĉĉĉ": 1488,
      "ee": 1489,
      "ified": 1490,
      "ethod": 1491,
      "Ġdel": 1492,
      "AR": 1493,
      "ĠUnited": 1494,
      "Ġmust": 1495,
      "yp": 1496,
      "Ġadv": 1497,
      "atic": 1498,
      "ittle": 1499,
      "ĠJohn": 1500,
      "ots": 1501,
      "Ġrecord": 1502,
      "ling": 1503,
      "org": 1504,
      "40": 1505,
      "Ġpur": 1506,
      "Ġtop": 1507,
      "Ġtest": 1508,
      "ality": 1509,
      "ploy": 1510,
      "ample": 1511,
      "htt": 1512,
      "ream": 1513,
      "Ġhome": 1514,
      "Ġdem": 1515,
      "Ġproject": 1516,
      "Pro": 1517,
      "conom": 1518,
      "ised": 1519,
      "Ġfew": 1520,
      "ertain": 1521,
      "Ġprof": 1522,
      "itions": 1523,
      "ived": 1524,
      "Ġmat": 1525,
      "por": 1526,
      "ĠOr": 1527,
      "Ġcurrent": 1528,
      "eter": 1529,
      "Ġref": 1530,
      "Ġfunction": 1531,
      "Ġsing": 1532,
      "ole": 1533,
      "ately": 1534,
      "Ġrest": 1535,
      "Ġfour": 1536,
      "ething": 1537,
      "27": 1538,
      "Ġtri": 1539,
      "Ġrese": 1540,
      "Ġterm": 1541,
      "Ġ:": 1542,
      "2014": 1543,
      "Ġconsider": 1544,
      "frac": 1545,
      "reen": 1546,
      "26": 1547,
      "Ġsmall": 1548,
      "Ġnever": 1549,
      "Ġgroup": 1550,
      "Ġnext": 1551,
      "ories": 1552,
      "stand": 1553,
      "ĠRep": 1554,
      "ium": 1555,
      "Ġorder": 1556,
      "Ġfamily": 1557,
      "AN": 1558,
      "vious": 1559,
      "Ġallow": 1560,
      "28": 1561,
      "resent": 1562,
      "Ġmonth": 1563,
      "aim": 1564,
      "Ġwithout": 1565,
      "Ġpresent": 1566,
      "thing": 1567,
      "ained": 1568,
      "fig": 1569,
      "ively": 1570,
      "Ġbre": 1571,
      "Ġcharact": 1572,
      "arent": 1573,
      "Ġlevel": 1574,
      "Ġquest": 1575,
      "ene": 1576,
      "Ġbelie": 1577,
      "icle": 1578,
      "Ġspe": 1579,
      "que": 1580,
      "Ġbig": 1581,
      "Ġmet": 1582,
      "ĠCar": 1583,
      "for": 1584,
      "nal": 1585,
      "Ġold": 1586,
      "ane": 1587,
      "ney": 1588,
      "Ġseem": 1589,
      "ats": 1590,
      "Ġturn": 1591,
      "Ġgovernment": 1592,
      "OR": 1593,
      "rm": 1594,
      "ify": 1595,
      "Ġnon": 1596,
      "irc": 1597,
      "197": 1598,
      "Ġbro": 1599,
      "Ġinc": 1600,
      "Ġpolit": 1601,
      "Ġstory": 1602,
      "Ġgrow": 1603,
      "inc": 1604,
      "Ġoffic": 1605,
      "ript": 1606,
      "ged": 1607,
      "Ġweek": 1608,
      "work": 1609,
      "lex": 1610,
      "ians": 1611,
      "ability": 1612,
      "Ġput": 1613,
      "ering": 1614,
      "Ġhealth": 1615,
      "Ġbeh": 1616,
      "ĠCan": 1617,
      "ulation": 1618,
      "Ġmusic": 1619,
      "Ġsomething": 1620,
      "Ġthings": 1621,
      "eq": 1622,
      "Ġcome": 1623,
      "29": 1624,
      "He": 1625,
      "ently": 1626,
      "lished": 1627,
      "ajor": 1628,
      "iron": 1629,
      "60": 1630,
      "Ġwin": 1631,
      "rad": 1632,
      "Ġdesc": 1633,
      "100": 1634,
      "Ġcap": 1635,
      "ush": 1636,
      "ball": 1637,
      "ention": 1638,
      "ĠThere": 1639,
      "ries": 1640,
      "Ġcompany": 1641,
      "ope": 1642,
      "til": 1643,
      "Ġproble": 1644,
      "ivid": 1645,
      "2013": 1646,
      "Ġvalue": 1647,
      "Ġgot": 1648,
      "Ġfilm": 1649,
      "Ġlet": 1650,
      "ograph": 1651,
      "ĠX": 1652,
      "ai": 1653,
      "Ġsk": 1654,
      "Ġleft": 1655,
      "ger": 1656,
      "lation": 1657,
      "ably": 1658,
      "dd": 1659,
      "Ġview": 1660,
      "ination": 1661,
      "ĠPol": 1662,
      "rand": 1663,
      "Ġcountry": 1664,
      "Ġbetter": 1665,
      "Ġwithin": 1666,
      "label": 1667,
      "Ġide": 1668,
      "ference": 1669,
      ",\"": 1670,
      "ĠChrist": 1671,
      "ĠMed": 1672,
      "Ġmight": 1673,
      "cur": 1674,
      "Ġorig": 1675,
      "As": 1676,
      "acy": 1677,
      "Ġmanag": 1678,
      "arge": 1679,
      "ailable": 1680,
      "ask": 1681,
      "ĠNo": 1682,
      "Ġlocal": 1683,
      "rict": 1684,
      "Ġhtt": 1685,
      "',": 1686,
      "ĠTo": 1687,
      "ĠCo": 1688,
      "EN": 1689,
      "www": 1690,
      "Ġsever": 1691,
      "ĠOct": 1692,
      "Ġprom": 1693,
      "ential": 1694,
      "></": 1695,
      "ĠThat": 1696,
      "uck": 1697,
      "aster": 1698,
      "Ġless": 1699,
      "ording": 1700,
      "ĠYork": 1701,
      "Ġself": 1702,
      "AL": 1703,
      "Ġeng": 1704,
      "Ġlittle": 1705,
      "Ġfac": 1706,
      "Ġtry": 1707,
      "Ġaff": 1708,
      "ĠEuro": 1709,
      "uary": 1710,
      "html": 1711,
      "Ġtype": 1712,
      "idd": 1713,
      "ĠStates": 1714,
      "ele": 1715,
      "icy": 1716,
      "rop": 1717,
      "iam": 1718,
      "Ġanal": 1719,
      "Ġalways": 1720,
      "Ġchange": 1721,
      "2012": 1722,
      "ĠAt": 1723,
      "(\"": 1724,
      "Ġfollowing": 1725,
      "Ġcalled": 1726,
      "ights": 1727,
      "Com": 1728,
      "ĠSu": 1729,
      "itle": 1730,
      "Ġplan": 1731,
      "ĠWorld": 1732,
      "div": 1733,
      "Ġchang": 1734,
      "Ġnear": 1735,
      "AS": 1736,
      "Ġelect": 1737,
      "Ġproper": 1738,
      "Ġimportant": 1739,
      "ev": 1740,
      "Ġcr": 1741,
      "Ġlot": 1742,
      "Ã©": 1743,
      "Ġfeel": 1744,
      "cer": 1745,
      "ĠAss": 1746,
      "Ġfield": 1747,
      "left": 1748,
      "Ġhard": 1749,
      "ĠState": 1750,
      "ĠGu": 1751,
      "Ġgiven": 1752,
      "Ġask": 1753,
      "ateg": 1754,
      "uly": 1755,
      "ĠNational": 1756,
      "An": 1757,
      "Ġpriv": 1758,
      "Ġsupp": 1759,
      "Ġwomen": 1760,
      "wards": 1761,
      "yl": 1762,
      "cite": 1763,
      "ĠSo": 1764,
      "ĠApr": 1765,
      "my": 1766,
      "Ġland": 1767,
      "span": 1768,
      "af": 1769,
      "ĠFl": 1770,
      "not": 1771,
      "ĠAug": 1772,
      "eta": 1773,
      "--------": 1774,
      "Ġchildren": 1775,
      "uture": 1776,
      "Ġfull": 1777,
      "><": 1778,
      "ising": 1779,
      "();": 1780,
      "Ġmillion": 1781,
      "****": 1782,
      "mathb": 1783,
      "bl": 1784,
      "Ġcond": 1785,
      "By": 1786,
      "Ġseason": 1787,
      "ended": 1788,
      "ffic": 1789,
      "oman": 1790,
      "Ġbased": 1791,
      "Ġhuman": 1792,
      "back": 1793,
      "eting": 1794,
      "Ġsuccess": 1795,
      "Ġident": 1796,
      "gin": 1797,
      "stit": 1798,
      "ES": 1799,
      "Ġocc": 1800,
      "osp": 1801,
      "part": 1802,
      "Ġproduct": 1803,
      "Ġevent": 1804,
      "Ġword": 1805,
      "used": 1806,
      "ware": 1807,
      "Ġfriend": 1808,
      "Ġet": 1809,
      "ĠSchool": 1810,
      "Ġkeep": 1811,
      "Ġmar": 1812,
      "oney": 1813,
      "obal": 1814,
      "ony": 1815,
      "lection": 1816,
      "Ġmajor": 1817,
      "ards": 1818,
      "Ġmil": 1819,
      "):": 1820,
      "Ġactiv": 1821,
      "urther": 1822,
      "ĠCount": 1823,
      "ĠPres": 1824,
      "ribut": 1825,
      "Ġmove": 1826,
      "Ġlater": 1827,
      "Ġalong": 1828,
      "Ġknown": 1829,
      "itor": 1830,
      "viron": 1831,
      "duct": 1832,
      "Ġla": 1833,
      "Ġfar": 1834,
      "Ġavailable": 1835,
      "Ġfund": 1836,
      "ĠEurope": 1837,
      "Ġcommunity": 1838,
      "Ġseries": 1839,
      "alf": 1840,
      "ĠIntern": 1841,
      "Ġmean": 1842,
      "ĠEd": 1843,
      "osed": 1844,
      "yle": 1845,
      "Ġins": 1846,
      "imate": 1847,
      "ales": 1848,
      "itional": 1849,
      "Ġpay": 1850,
      "Ġwar": 1851,
      "$,": 1852,
      "oor": 1853,
      "iting": 1854,
      "Ġauthor": 1855,
      "vert": 1856,
      "Ġlove": 1857,
      ",\\": 1858,
      "Ġfore": 1859,
      "Ġ>": 1860,
      "Ġfree": 1861,
      "ĠAust": 1862,
      "ours": 1863,
      "Ġsit": 1864,
      "ideo": 1865,
      "ured": 1866,
      "Ġmult": 1867,
      "ending": 1868,
      "raw": 1869,
      "2011": 1870,
      "ĠMarch": 1871,
      "Ġeas": 1872,
      "Ġarea": 1873,
      "ĠMc": 1874,
      "ĠPr": 1875,
      "Ġcity": 1876,
      "For": 1877,
      "ĠMin": 1878,
      "lege": 1879,
      "Ġuntil": 1880,
      "equation": 1881,
      "Ġdays": 1882,
      "ĠSouth": 1883,
      "ĠGe": 1884,
      "Ġstudy": 1885,
      "Ġmembers": 1886,
      "Ġcamp": 1887,
      "Ġresearch": 1888,
      "Ġwater": 1889,
      "On": 1890,
      "aff": 1891,
      "ike": 1892,
      "Ġcost": 1893,
      "ead": 1894,
      "$.": 1895,
      "Ġpast": 1896,
      "Ġes": 1897,
      "Ġwhy": 1898,
      "itive": 1899,
      "IT": 1900,
      "Ġhistory": 1901,
      "ients": 1902,
      "eral": 1903,
      "2020": 1904,
      "ĠEn": 1905,
      "play": 1906,
      "irl": 1907,
      "roll": 1908,
      "ĠAb": 1909,
      "2010": 1910,
      "urs": 1911,
      "ront": 1912,
      "ĠApp": 1913,
      "idence": 1914,
      "Ġyoung": 1915,
      "rem": 1916,
      "ault": 1917,
      "ĠCity": 1918,
      "aps": 1919,
      "Ġlim": 1920,
      "Con": 1921,
      "ready": 1922,
      "Ġsocial": 1923,
      "Ġthought": 1924,
      "wit": 1925,
      "ither": 1926,
      "Ġoffer": 1927,
      "Ġaway": 1928,
      "ches": 1929,
      "IC": 1930,
      "Ġaccess": 1931,
      "ĠWar": 1932,
      "})": 1933,
      "ored": 1934,
      "ĠAf": 1935,
      "Ġdidn": 1936,
      "Ġpract": 1937,
      "Ġmodel": 1938,
      "bar": 1939,
      "wh": 1940,
      "ĠSept": 1941,
      "ĠJune": 1942,
      "ows": 1943,
      "ĠWith": 1944,
      "ilar": 1945,
      "Ġnet": 1946,
      "Ġcult": 1947,
      "iod": 1948,
      "Ġdev": 1949,
      "ison": 1950,
      "ustom": 1951,
      "Ġcontrol": 1952,
      "rap": 1953,
      "ances": 1954,
      "Ġleast": 1955,
      "AC": 1956,
      "mathcal": 1957,
      "ĠJuly": 1958,
      "Ġhref": 1959,
      "Ġservice": 1960,
      "reg": 1961,
      "Ġmethod": 1962,
      "col": 1963,
      "Ġeconom": 1964,
      "ĠJanuary": 1965,
      "Ġearly": 1966,
      "Ġconn": 1967,
      "ched": 1968,
      "Ġclear": 1969,
      "../../": 1970,
      "Ġlik": 1971,
      "ĠIm": 1972,
      "ĠCal": 1973,
      "Ġvers": 1974,
      "Ġworking": 1975,
      "ĠFeb": 1976,
      "}.": 1977,
      "Ġmaking": 1978,
      "Ġtrue": 1979,
      "Ġfinal": 1980,
      "mb": 1981,
      "Ġparticular": 1982,
      "33": 1983,
      "aut": 1984,
      "Ġmen": 1985,
      "ones": 1986,
      "Ġexperience": 1987,
      "ued": 1988,
      "ĠWill": 1989,
      "Ġclaim": 1990,
      "umm": 1991,
      "da": 1992,
      "Ar": 1993,
      "uff": 1994,
      "Ġbas": 1995,
      "Ġindust": 1996,
      "arget": 1997,
      "Ġacross": 1998,
      "pect": 1999,
      "Ġpub": 2000,
      "Ġseveral": 2001,
      "Ġshort": 2002,
      "comm": 2003,
      "ovember": 2004,
      "ĠApril": 2005,
      "Ġinvol": 2006,
      "ival": 2007,
      "Ġbecome": 2008,
      "Ġintern": 2009,
      "Ġtell": 2010,
      "vironment": 2011,
      "Ġexample": 2012,
      "rew": 2013,
      "urch": 2014,
      "Ġunderstand": 2015,
      "ĠPar": 2016,
      "Ġtoday": 2017,
      "Ġemploy": 2018,
      "angu": 2019,
      "cember": 2020,
      "ler": 2021,
      "ources": 2022,
      "ĠPart": 2023,
      "Ġlarge": 2024,
      "str": 2025,
      "ille": 2026,
      "Ġcame": 2027,
      "add": 2028,
      "Ġkind": 2029,
      "Ġgive": 2030,
      "ule": 2031,
      "Ġable": 2032,
      "Ġrepresent": 2033,
      "Ġtimes": 2034,
      "ĠNorth": 2035,
      "olution": 2036,
      "Ġphot": 2037,
      "aper": 2038,
      "45": 2039,
      "Ġalready": 2040,
      "ape": 2041,
      "Ġstudents": 2042,
      "====": 2043,
      "ster": 2044,
      "epend": 2045,
      "Ġdevelopment": 2046,
      "Ġimpro": 2047,
      "35": 2048,
      "Ġinclude": 2049,
      "trans": 2050,
      "Ġthing": 2051,
      "aken": 2052,
      "ĠHar": 2053,
      "Ġhaving": 2054,
      "Ġz": 2055,
      "Ġthough": 2056,
      "ividual": 2057,
      "sel": 2058,
      "ĠMe": 2059,
      "oice": 2060,
      "Al": 2061,
      "Ġelse": 2062,
      "cont": 2063,
      "Ġaut": 2064,
      "error": 2065,
      "Ġopt": 2066,
      "31": 2067,
      "ered": 2068,
      "Ġve": 2069,
      "ung": 2070,
      "Ġever": 2071,
      "raft": 2072,
      "ipp": 2073,
      "ID": 2074,
      "agn": 2075,
      "pha": 2076,
      "Ġx": 2077,
      "And": 2078,
      "IS": 2079,
      "aterial": 2080,
      "ĠBrit": 2081,
      "ators": 2082,
      "iter": 2083,
      "ĠOctober": 2084,
      "Ġant": 2085,
      "reet": 2086,
      "Ġoften": 2087,
      "Ġcourse": 2088,
      "Ġcover": 2089,
      "Ġcharacter": 2090,
      "Ġeduc": 2091,
      "Ġapplic": 2092,
      "Ġfoc": 2093,
      "Ġhold": 2094,
      "td": 2095,
      "artment": 2096,
      "Ġfre": 2097,
      "196": 2098,
      "Ġtoget": 2099,
      "Ġtogether": 2100,
      "Ġspecial": 2101,
      "ception": 2102,
      "source": 2103,
      "Ġappear": 2104,
      "))": 2105,
      "ift": 2106,
      "Ġwr": 2107,
      "ides": 2108,
      "Ġtook": 2109,
      "Ġfuture": 2110,
      "Ġprovide": 2111,
      "If": 2112,
      "sw": 2113,
      "To": 2114,
      "80": 2115,
      "Ġ*/": 2116,
      "Ġvari": 2117,
      "Ġpot": 2118,
      "Ġamong": 2119,
      "lu": 2120,
      "Ġtrad": 2121,
      "Ġcrit": 2122,
      "most": 2123,
      "ama": 2124,
      "Ġtalk": 2125,
      "alse": 2126,
      "Ġsong": 2127,
      "Ġdi": 2128,
      "ari": 2129,
      "ĠCont": 2130,
      "Ġmeas": 2131,
      "face": 2132,
      "ĠAg": 2133,
      "ĠSeptember": 2134,
      "What": 2135,
      "Ġdiscuss": 2136,
      "Cl": 2137,
      "ĠWhat": 2138,
      "}(": 2139,
      "Ġair": 2140,
      "ĠNews": 2141,
      "ĠAct": 2142,
      "Ġcertain": 2143,
      "ĉĉĉ": 2144,
      "ham": 2145,
      "abor": 2146,
      "ĠAugust": 2147,
      "ED": 2148,
      "uk": 2149,
      "Ġside": 2150,
      "rag": 2151,
      "Ġtem": 2152,
      "Ph": 2153,
      "sub": 2154,
      "cil": 2155,
      "Ġenough": 2156,
      "Ġinit": 2157,
      "Ġjob": 2158,
      "head": 2159,
      "unity": 2160,
      "Cont": 2161,
      "Ġpossible": 2162,
      "ĠArt": 2163,
      "ournal": 2164,
      "Ġstrong": 2165,
      "this": 2166,
      "Ġothers": 2167,
      "ogn": 2168,
      "Ġcreat": 2169,
      "Ġdeath": 2170,
      "Ġobject": 2171,
      "ĠPresident": 2172,
      "Ġwon": 2173,
      "book": 2174,
      "ĠNovember": 2175,
      "ification": 2176,
      "ada": 2177,
      "Ġreview": 2178,
      "ails": 2179,
      "Ġseen": 2180,
      "Ġmeans": 2181,
      "key": 2182,
      "ament": 2183,
      "onse": 2184,
      "ĠBar": 2185,
      "Ġben": 2186,
      "go": 2187,
      "hel": 2188,
      "You": 2189,
      "Ġkill": 2190,
      "}_": 2191,
      "ey": 2192,
      "ĠDecember": 2193,
      "ression": 2194,
      "earch": 2195,
      "ĠDav": 2196,
      "Ġfive": 2197,
      "Ġlarg": 2198,
      "}^": 2199,
      "ĠGl": 2200,
      "2009": 2201,
      "new": 2202,
      "rain": 2203,
      "Ġdescrib": 2204,
      "mod": 2205,
      "lease": 2206,
      "opy": 2207,
      "Ġservices": 2208,
      "message": 2209,
      "Ġindividual": 2210,
      "Ġtot": 2211,
      "br": 2212,
      "ĠEm": 2213,
      "aces": 2214,
      "Res": 2215,
      "Ġresults": 2216,
      "cing": 2217,
      "Ġcell": 2218,
      "ĠFran": 2219,
      "ports": 2220,
      "Ġkey": 2221,
      "~\\": 2222,
      "Ġdeb": 2223,
      "aul": 2224,
      "ĠOne": 2225,
      "Ġexc": 2226,
      "Ġconc": 2227,
      "Ġspace": 2228,
      "Ġsingle": 2229,
      "de": 2230,
      "aint": 2231,
      "ique": 2232,
      "Ġnews": 2233,
      "Ġener": 2234,
      "aring": 2235,
      "Ġlight": 2236,
      "Ġredu": 2237,
      "Ġhig": 2238,
      "Ġmom": 2239,
      "ners": 2240,
      "('": 2241,
      "ĠWhen": 2242,
      "Un": 2243,
      "ume": 2244,
      "serv": 2245,
      "oph": 2246,
      "Ġhappen": 2247,
      "def": 2248,
      "Ġmedia": 2249,
      "ĠDep": 2250,
      "Ġ--": 2251,
      "Ġprob": 2252,
      "'re": 2253,
      "ĠĠĠĠĠĠĠĠĠĠĠĠĠĠĠĠĠĠĠ": 2254,
      "ples": 2255,
      "Ġvol": 2256,
      "now": 2257,
      "Sh": 2258,
      "ruary": 2259,
      "ief": 2260,
      "ington": 2261,
      "ĠĠĠĠĠĠĠĠĠ": 2262,
      "name": 2263,
      "Ġarg": 2264,
      "ĠAmerica": 2265,
      "Ġdoesn": 2266,
      "32": 2267,
      "01": 2268,
      "ser": 2269,
      "ĠReg": 2270,
      "Ġ||": 2271,
      "empt": 2272,
      "ĠComp": 2273,
      "Ġdoc": 2274,
      "Ġtreat": 2275,
      "Ġjo": 2276,
      "Ġdone": 2277,
      "Ġlive": 2278,
      "Ġsure": 2279,
      "ĠHouse": 2280,
      "Ġsuper": 2281,
      "Ġperiod": 2282,
      "ids": 2283,
      "ĠHowever": 2284,
      "Ġtold": 2285,
      "Ġstruct": 2286,
      "Ġnight": 2287,
      "ĠWest": 2288,
      "EC": 2289,
      "Ġreason": 2290,
      "Ġdue": 2291,
      "Ġdeal": 2292,
      "Ġhouse": 2293,
      "ĠMr": 2294,
      "Ġsignific": 2295,
      "ried": 2296,
      "But": 2297,
      "ands": 2298,
      "Ġmakes": 2299,
      "ĠRuss": 2300,
      "ests": 2301,
      "ĠCor": 2302,
      "atures": 2303,
      "lin": 2304,
      "off": 2305,
      "Ġrad": 2306,
      "Ġaccount": 2307,
      "bum": 2308,
      "ĠAm": 2309,
      "action": 2310,
      "rodu": 2311,
      "Ġcomplet": 2312,
      "augh": 2313,
      "US": 2314,
      "Ġmoney": 2315,
      "isk": 2316,
      "/>": 2317,
      "idth": 2318,
      "Ġwent": 2319,
      "alpha": 2320,
      "AM": 2321,
      "ana": 2322,
      "2008": 2323,
      "ession": 2324,
      "Ġrespect": 2325,
      "ĠCounty": 2326,
      "Ġrelations": 2327,
      "Ġport": 2328,
      "Ġfoot": 2329,
      "Ġmarket": 2330,
      "Ġgeneral": 2331,
      "ĠServ": 2332,
      "ĠAfric": 2333,
      "Ġonce": 2334,
      "ondon": 2335,
      "ysis": 2336,
      "ĠAustral": 2337,
      "Ġestab": 2338,
      "though": 2339,
      "Ġformer": 2340,
      "Ġcomb": 2341,
      "Ġstop": 2342,
      "aining": 2343,
      "oon": 2344,
      "Ġfurther": 2345,
      "Ġexist": 2346,
      "time": 2347,
      "ĠQu": 2348,
      "Ġquestion": 2349,
      "Ġlow": 2350,
      "Ġabove": 2351,
      "ociety": 2352,
      "Ġprivate": 2353,
      "ills": 2354,
      "hers": 2355,
      "Ġrole": 2356,
      "Ġwhether": 2357,
      "Ġworks": 2358,
      "code": 2359,
      "ological": 2360,
      "Ġsound": 2361,
      "90": 2362,
      "rown": 2363,
      "Ġtax": 2364,
      "Ġgen": 2365,
      "70": 2366,
      "New": 2367,
      "How": 2368,
      "Name": 2369,
      "su": 2370,
      "ilt": 2371,
      "ĠHis": 2372,
      "iff": 2373,
      "ĠPe": 2374,
      "Ġattack": 2375,
      "Ġnational": 2376,
      "ĠGo": 2377,
      "Ġcou": 2378,
      "ength": 2379,
      "Ġep": 2380,
      "Ġsite": 2381,
      "uation": 2382,
      "Ġactually": 2383,
      "istic": 2384,
      "Ġprevious": 2385,
      "opt": 2386,
      "Ġaddress": 2387,
      "36": 2388,
      "ibility": 2389,
      "Ġpercent": 2390,
      "ibr": 2391,
      "itary": 2392,
      "iction": 2393,
      "umb": 2394,
      "Ġtre": 2395,
      "ague": 2396,
      "ĠBy": 2397,
      "ĠEl": 2398,
      "Ġ=>": 2399,
      "itted": 2400,
      "ĠPer": 2401,
      "Ġproblem": 2402,
      "elta": 2403,
      "Ġannoun": 2404,
      "ules": 2405,
      "Ġpolitical": 2406,
      "ĠAir": 2407,
      "Ġyet": 2408,
      "ouncil": 2409,
      "Ġassoci": 2410,
      "Ġaction": 2411,
      "Ġbit": 2412,
      "hern": 2413,
      "Ġpri": 2414,
      "http": 2415,
      "\".": 2416,
      "ĠMy": 2417,
      "Ġenc": 2418,
      "Ġenergy": 2419,
      "ĠSec": 2420,
      "class": 2421,
      "Id": 2422,
      "fl": 2423,
      "Ġdr": 2424,
      "There": 2425,
      "clus": 2426,
      "ilities": 2427,
      "Ġsimilar": 2428,
      "ĠNot": 2429,
      "Ġsix": 2430,
      "apt": 2431,
      "34": 2432,
      "bsite": 2433,
      "inks": 2434,
      "ĠDis": 2435,
      "ĠFebruary": 2436,
      "Ġsaf": 2437,
      "ĠGerm": 2438,
      "amed": 2439,
      "year": 2440,
      "Ġpress": 2441,
      "Ġlearn": 2442,
      "ald": 2443,
      "Ġthird": 2444,
      "ĠTra": 2445,
      "ino": 2446,
      "Ġdeterm": 2447,
      "Ġcompet": 2448,
      "ruction": 2449,
      "umn": 2450,
      "Ġstarted": 2451,
      "Ġdoing": 2452,
      "Ġago": 2453,
      "anguage": 2454,
      "ĠHer": 2455,
      "ground": 2456,
      "ĠCour": 2457,
      "\"/>": 2458,
      "irm": 2459,
      "import": 2460,
      "urg": 2461,
      "ĠSm": 2462,
      "39": 2463,
      "37": 2464,
      "Ġcontent": 2465,
      "ambda": 2466,
      "field": 2467,
      "Ġmass": 2468,
      "Ġbo": 2469,
      "hib": 2470,
      "HE": 2471,
      "pre": 2472,
      "ĠStud": 2473,
      "Ġshows": 2474,
      "Ġgames": 2475,
      "Ġ,": 2476,
      "Ġtyp": 2477,
      "Ġsent": 2478,
      "Ġbody": 2479,
      "LE": 2480,
      "plic": 2481,
      "Ġage": 2482,
      "ĠDo": 2483,
      "Ġdom": 2484,
      "ĠBro": 2485,
      "ĠKing": 2486,
      "uild": 2487,
      "cast": 2488,
      "ĠLaw": 2489,
      "eed": 2490,
      "\\\\\\\\": 2491,
      "na": 2492,
      "ends": 2493,
      "Ġmot": 2494,
      "ĠChe": 2495,
      "Ġplayers": 2496,
      "Ġbuilding": 2497,
      "gress": 2498,
      "anies": 2499,
      "Ġsignificant": 2500,
      "ĠInternational": 2501,
      "Ġchall": 2502,
      "Ġfail": 2503,
      "ĠPark": 2504,
      "Ġvideo": 2505,
      "Ġmaterial": 2506,
      "Ġopport": 2507,
      "Ġcustom": 2508,
      "atter": 2509,
      "Ġposition": 2510,
      "ze": 2511,
      "........": 2512,
      "asing": 2513,
      "ogle": 2514,
      "38": 2515,
      "String": 2516,
      "Ġoriginal": 2517,
      "aid": 2518,
      "param": 2519,
      "ĠGod": 2520,
      "Ġphys": 2521,
      "iment": 2522,
      "minist": 2523,
      "oe": 2524,
      "Ġaud": 2525,
      "ĠThese": 2526,
      "Ġmonths": 2527,
      "Ġsugg": 2528,
      "unch": 2529,
      "Ġhalf": 2530,
      "Ġcal": 2531,
      "adem": 2532,
      "Ġbecame": 2533,
      "ĠLondon": 2534,
      "eps": 2535,
      "icro": 2536,
      "ael": 2537,
      "Ġsex": 2538,
      "Ġviol": 2539,
      "itte": 2540,
      "Ġtitle": 2541,
      "eal": 2542,
      "ocation": 2543,
      "Ġeither": 2544,
      "Ġrespons": 2545,
      "Ġopp": 2546,
      "Ġtaken": 2547,
      "Type": 2548,
      "Ġperformance": 2549,
      "ecut": 2550,
      "ĠAfter": 2551,
      "rest": 2552,
      "ude": 2553,
      "ferences": 2554,
      "ĠTrump": 2555,
      "Ġtarget": 2556,
      "Ġcommon": 2557,
      "Ġfav": 2558,
      "Ġofficial": 2559,
      "Ġmor": 2560,
      "amma": 2561,
      "Ġbelieve": 2562,
      "ĠChar": 2563,
      "selves": 2564,
      "lected": 2565,
      "Ġfood": 2566,
      ")\\": 2567,
      "atural": 2568,
      "Ġmind": 2569,
      "ĠMark": 2570,
      "ĠMich": 2571,
      "Ġpersonal": 2572,
      "ror": 2573,
      "Ġbenef": 2574,
      "ĠCenter": 2575,
      "order": 2576,
      "Ġdri": 2577,
      "Ġlooking": 2578,
      "Ġmiss": 2579,
      "Ġheld": 2580,
      ".)": 2581,
      "joy": 2582,
      "aign": 2583,
      "ĠSch": 2584,
      "leg": 2585,
      "Ġrights": 2586,
      "44": 2587,
      "Ġbring": 2588,
      "Ġcreate": 2589,
      "Ġsubject": 2590,
      "99": 2591,
      "Ġindustry": 2592,
      "Ġcomes": 2593,
      "ĠAng": 2594,
      "Ġpoints": 2595,
      "ĠHealth": 2596,
      "sy": 2597,
      "Ġdou": 2598,
      "Ġcoll": 2599,
      "era": 2600,
      "type": 2601,
      "Ġinvestig": 2602,
      "2007": 2603,
      "List": 2604,
      "ivil": 2605,
      "curity": 2606,
      "roups": 2607,
      "ĠUK": 2608,
      "Ġalmost": 2609,
      "Ġbegin": 2610,
      "AP": 2611,
      "lement": 2612,
      "aur": 2613,
      "rug": 2614,
      "Ġrather": 2615,
      "ĠMon": 2616,
      "verage": 2617,
      "apan": 2618,
      "Ġey": 2619,
      "atory": 2620,
      "Ġblack": 2621,
      "irt": 2622,
      "sec": 2623,
      "ĠSer": 2624,
      "Ġalbum": 2625,
      "BC": 2626,
      "Ġbreak": 2627,
      "iet": 2628,
      "Ġaccording": 2629,
      "rel": 2630,
      "Ġsw": 2631,
      "Ġtour": 2632,
      "55": 2633,
      "Ġvisit": 2634,
      "Ġhttp": 2635,
      "Ġtext": 2636,
      "ĠDr": 2637,
      "Ġmember": 2638,
      "ctor": 2639,
      "OM": 2640,
      "Ġenvironment": 2641,
      "return": 2642,
      "Ġissues": 2643,
      "ocr": 2644,
      "resp": 2645,
      "Ġfall": 2646,
      "Ġwhole": 2647,
      "section": 2648,
      "ites": 2649,
      "chie": 2650,
      "Ġrequire": 2651,
      "Ġroom": 2652,
      "hing": 2653,
      "Ġtw": 2654,
      "48": 2655,
      "ender": 2656,
      "Ġpropos": 2657,
      "where": 2658,
      "urb": 2659,
      "ancial": 2660,
      "Ġexpect": 2661,
      "esc": 2662,
      "Ġtotal": 2663,
      "Ġbi": 2664,
      "Ġdiff": 2665,
      "Ġparent": 2666,
      "ĠII": 2667,
      "date": 2668,
      "$\\": 2669,
      "utes": 2670,
      "pm": 2671,
      "pecially": 2672,
      "Ġevents": 2673,
      "Tr": 2674,
      "Ġentire": 2675,
      "pi": 2676,
      "load": 2677,
      "utions": 2678,
      "Ġsat": 2679,
      "ĠDem": 2680,
      "Ġface": 2681,
      "elling": 2682,
      "Ġcourt": 2683,
      "ĠCollege": 2684,
      "uf": 2685,
      "elt": 2686,
      "Ġdest": 2687,
      "Ġcomput": 2688,
      "ops": 2689,
      "ET": 2690,
      "lim": 2691,
      "iddle": 2692,
      "https": 2693,
      "Ġwind": 2694,
      "Ġcirc": 2695,
      "lete": 2696,
      "Ġfocus": 2697,
      "ĠOb": 2698,
      "hold": 2699,
      "Ġ!": 2700,
      "icles": 2701,
      "Ġabs": 2702,
      "ription": 2703,
      "Ġhost": 2704,
      "Ġagre": 2705,
      "mu": 2706,
      "oud": 2707,
      "Ġshall": 2708,
      "Ġop": 2709,
      "ribution": 2710,
      "ederal": 2711,
      "igma": 2712,
      "OT": 2713,
      "Ġversion": 2714,
      "Ġbr": 2715,
      "Ġeffort": 2716,
      "Ġgetting": 2717,
      "ided": 2718,
      "yd": 2719,
      "ension": 2720,
      "=\\": 2721,
      "ION": 2722,
      "Ġclose": 2723,
      "ett": 2724,
      "Ġreceived": 2725,
      "iew": 2726,
      "ĠRec": 2727,
      "Ġparticip": 2728,
      "_\\": 2729,
      "Ġheart": 2730,
      "Ġrange": 2731,
      "Ġpresident": 2732,
      "Ġpred": 2733,
      "Ġrecogn": 2734,
      "alt": 2735,
      "eneral": 2736,
      "bor": 2737,
      "item": 2738,
      "05": 2739,
      "translation": 2740,
      "ford": 2741,
      "iple": 2742,
      "'m": 2743,
      "Ġhom": 2744,
      "Ġpolicy": 2745,
      "Ġbad": 2746,
      "Ġhowever": 2747,
      "Ġterms": 2748,
      "var": 2749,
      "Ġcompanies": 2750,
      "ĠDon": 2751,
      "ĠMore": 2752,
      "Ġcut": 2753,
      "Ġvarious": 2754,
      "Ġdeg": 2755,
      "ĠHigh": 2756,
      "Ġtaking": 2757,
      "Ġtechnology": 2758,
      "Ġissue": 2759,
      "Ġtown": 2760,
      "All": 2761,
      "attle": 2762,
      "Ġbehind": 2763,
      "Val": 2764,
      "uel": 2765,
      "Ġfalse": 2766,
      "ags": 2767,
      "anks": 2768,
      "Ġsym": 2769,
      "Ġwatch": 2770,
      "Ġneeds": 2771,
      "inter": 2772,
      "Ġrecent": 2773,
      "2006": 2774,
      "hat": 2775,
      "Ġinternational": 2776,
      "Ġground": 2777,
      "rael": 2778,
      "LL": 2779,
      "Ġ_": 2780,
      "ĠIndia": 2781,
      "oper": 2782,
      "iforn": 2783,
      "umber": 2784,
      "Ġimpact": 2785,
      "ĠCourt": 2786,
      "ĠJust": 2787,
      "ledge": 2788,
      "ises": 2789,
      "Ġenjoy": 2790,
      "unction": 2791,
      "inary": 2792,
      "Ġglobal": 2793,
      "Ġindic": 2794,
      "ternal": 2795,
      "ĠSan": 2796,
      "Ġprovided": 2797,
      "asc": 2798,
      "ummer": 2799,
      "Ġparty": 2800,
      "Ġwebsite": 2801,
      "ĠTV": 2802,
      "Ġimm": 2803,
      "Ġfront": 2804,
      "ĠDavid": 2805,
      "vision": 2806,
      "ĠHist": 2807,
      "Ġanything": 2808,
      "Ġidea": 2809,
      "Ġpo": 2810,
      "ĠPat": 2811,
      "cial": 2812,
      "Ġpath": 2813,
      "Ġlog": 2814,
      "Ġill": 2815,
      "aker": 2816,
      "ĠSen": 2817,
      "Ġarticle": 2818,
      "Ġintrodu": 2819,
      "imal": 2820,
      "Ġwa": 2821,
      "ires": 2822,
      "based": 2823,
      "aced": 2824,
      "ĠEnglish": 2825,
      "Ġsize": 2826,
      "irth": 2827,
      "##": 2828,
      "AD": 2829,
      "tain": 2830,
      "Ġlikely": 2831,
      "ij": 2832,
      "ien": 2833,
      "47": 2834,
      "Ġshare": 2835,
      "icult": 2836,
      "Ġhon": 2837,
      "Ġplayed": 2838,
      "ips": 2839,
      "ittee": 2840,
      "ceed": 2841,
      "ector": 2842,
      "ĠChina": 2843,
      "Ġ\\\\": 2844,
      "ĠOff": 2845,
      "Ġleaders": 2846,
      "46": 2847,
      "49": 2848,
      "ifornia": 2849,
      "atur": 2850,
      "Ġnecess": 2851,
      "place": 2852,
      "ĠVal": 2853,
      "07": 2854,
      "}^{": 2855,
      "Ġrelationship": 2856,
      "ĠPhil": 2857,
      "Ġamount": 2858,
      "ĠAssoci": 2859,
      "}_{": 2860,
      "Ġ`": 2861,
      "08": 2862,
      "Ġbegan": 2863,
      "Ġneg": 2864,
      "Ġinteg": 2865,
      "Ġproduction": 2866,
      "ĠInstit": 2867,
      "aving": 2868,
      "ensive": 2869,
      "rang": 2870,
      "coming": 2871,
      "igure": 2872,
      "Ġseems": 2873,
      "ĠDepartment": 2874,
      "Ġaccept": 2875,
      "see": 2876,
      "ĠGover": 2877,
      "Ġpotential": 2878,
      "ĠFin": 2879,
      "When": 2880,
      "ĠBritish": 2881,
      "oo": 2882,
      "Ġclos": 2883,
      "With": 2884,
      "ING": 2885,
      "bol": 2886,
      "Ġmatter": 2887,
      "align": 2888,
      "nes": 2889,
      "Ġsomeone": 2890,
      "orks": 2891,
      "Ġonline": 2892,
      "Ġwords": 2893,
      "Ġprim": 2894,
      "Ġfriends": 2895,
      "Ġcountries": 2896,
      "ĠNet": 2897,
      "Ġbar": 2898,
      "ormal": 2899,
      "].": 2900,
      "Ġareas": 2901,
      "06": 2902,
      "ae": 2903,
      "-\\": 2904,
      "aching": 2905,
      "ĠOf": 2906,
      "Ġreleased": 2907,
      "mathbb": 2908,
      "nov": 2909,
      "Ġnetwork": 2910,
      "Ġprofess": 2911,
      "ully": 2912,
      "Ġupon": 2913,
      "Ġcheck": 2914,
      "Ġasked": 2915,
      "ĠInt": 2916,
      "Ġpolice": 2917,
      "Ġnothing": 2918,
      "ĠHol": 2919,
      "Ġsystems": 2920,
      "igital": 2921,
      "ores": 2922,
      "orge": 2923,
      "ĠWilliam": 2924,
      "Ġsection": 2925,
      "ocal": 2926,
      "Ġcoming": 2927,
      "Ġbelow": 2928,
      "Ġcareer": 2929,
      "Ġexam": 2930,
      "09": 2931,
      "rab": 2932,
      "medi": 2933,
      "ĠJapan": 2934,
      "uments": 2935,
      "UR": 2936,
      "Ġcontinue": 2937,
      "Ind": 2938,
      "Ġhimself": 2939,
      "Ġstre": 2940,
      "Ġband": 2941,
      "dom": 2942,
      "sequ": 2943,
      "ĠDes": 2944,
      "195": 2945,
      "Ġchanges": 2946,
      "ached": 2947,
      "Ġpublished": 2948,
      "'ve": 2949,
      "Ġeducation": 2950,
      "iences": 2951,
      "uge": 2952,
      "Ġpers": 2953,
      "Ġreported": 2954,
      "Ġhours": 2955,
      "ili": 2956,
      "Sc": 2957,
      "hood": 2958,
      "Ġgrad": 2959,
      "Ġachie": 2960,
      "ese": 2961,
      "ĠDirect": 2962,
      "Ġquite": 2963,
      "Ġlate": 2964,
      "Ġespecially": 2965,
      "atives": 2966,
      "ky": 2967,
      "Ġaddition": 2968,
      "Ġsense": 2969,
      "ashington": 2970,
      "fort": 2971,
      "Ġsecurity": 2972,
      "Se": 2973,
      "vis": 2974,
      "ridge": 2975,
      "Ġpage": 2976,
      "Ġtrying": 2977,
      "Ġcampaign": 2978,
      "Im": 2979,
      "Ġconcern": 2980,
      "Ġrisk": 2981,
      "Ġrequired": 2982,
      "Ġregard": 2983,
      "Ġwanted": 2984,
      "ying": 2985,
      "ĠRepublic": 2986,
      "^{\\": 2987,
      "Col": 2988,
      "Ġgroups": 2989,
      "arter": 2990,
      "Ġrate": 2991,
      "Ġ)": 2992,
      "ography": 2993,
      "ĠDay": 2994,
      "ĠAc": 2995,
      "75": 2996,
      "ux": 2997,
      "phi": 2998,
      "Ġfire": 2999,
      "bf": 3000,
      "Ġwalk": 3001,
      "come": 3002,
      "Ġprobably": 3003,
      "Ġmoment": 3004,
      "Ġwritten": 3005,
      "Ġobserv": 3006,
      "Ġinflu": 3007,
      "Ġansw": 3008,
      "Ġgirl": 3009,
      "Ġcases": 3010,
      "Ġfeature": 3011,
      "Ġadded": 3012,
      "Ġstates": 3013,
      "oved": 3014,
      "ging": 3015,
      "ĠSw": 3016,
      "Ġpret": 3017,
      "lambda": 3018,
      "useum": 3019,
      "Ġsource": 3020,
      "iber": 3021,
      "etic": 3022,
      "cle": 3023,
      "ĠTrans": 3024,
      "Ġfight": 3025,
      "estern": 3026,
      "ĠCons": 3027,
      "Ġeverything": 3028,
      "fect": 3029,
      "Ġden": 3030,
      "Is": 3031,
      "oke": 3032,
      "Ġproperty": 3033,
      "Ġjud": 3034,
      "iles": 3035,
      "ivity": 3036,
      "Ġitself": 3037,
      "Ġroad": 3038,
      "Ġvot": 3039,
      "ply": 3040,
      "ĠEast": 3041,
      "duc": 3042,
      "ĠLa": 3043,
      "Ġpie": 3044,
      "log": 3045,
      "ĠStreet": 3046,
      "rec": 3047,
      "Ġquick": 3048,
      "Ġmeet": 3049,
      "Ġtrack": 3050,
      "Ġarch": 3051,
      "Ġregion": 3052,
      "ĠMor": 3053,
      "Ġvict": 3054,
      "Ġcreated": 3055,
      "Ġhigher": 3056,
      "ĠBlack": 3057,
      "Ġforward": 3058,
      "ĠInter": 3059,
      "Ġisn": 3060,
      "IG": 3061,
      "Ġfeatures": 3062,
      "Ġattempt": 3063,
      "Ġtraining": 3064,
      "Ġred": 3065,
      "Ġlo": 3066,
      "la": 3067,
      "rim": 3068,
      "ependent": 3069,
      "plement": 3070,
      "aries": 3071,
      "Ġ{\\": 3072,
      "ĠCouncil": 3073,
      "itting": 3074,
      "03": 3075,
      "Ġpatients": 3076,
      "Ġevidence": 3077,
      "Ġcomment": 3078,
      "ĠPal": 3079,
      "OS": 3080,
      "oto": 3081,
      "Ġimprove": 3082,
      "Ġoffice": 3083,
      "Ġresponse": 3084,
      "enc": 3085,
      "Ġcred": 3086,
      "light": 3087,
      "ĠBook": 3088,
      "atest": 3089,
      "Ġtakes": 3090,
      "Ġcontract": 3091,
      "Ġengine": 3092,
      "02": 3093,
      "izing": 3094,
      "Ġinsp": 3095,
      "ables": 3096,
      "Ġwhite": 3097,
      "Ġincluded": 3098,
      "Ġdefin": 3099,
      "ĠCalifornia": 3100,
      "04": 3101,
      "ny": 3102,
      "ties": 3103,
      "Ġ...": 3104,
      "Ġsuggest": 3105,
      "Ġid": 3106,
      "ho": 3107,
      "Ġdecision": 3108,
      "rench": 3109,
      "Ġemb": 3110,
      "rance": 3111,
      "OD": 3112,
      "Ġdocument": 3113,
      "Ġbase": 3114,
      "wood": 3115,
      "Ġtravel": 3116,
      "agement": 3117,
      "Ġwoman": 3118,
      "ĠDist": 3119,
      "ams": 3120,
      "Ġhistor": 3121,
      "ĠPaul": 3122,
      "At": 3123,
      "Ġens": 3124,
      "Ġrelease": 3125,
      "Ġsus": 3126,
      "ĠFrom": 3127,
      "Ġthemselves": 3128,
      "Ġcannot": 3129,
      "Ġdifficult": 3130,
      "oring": 3131,
      "Ġliving": 3132,
      "\"><": 3133,
      "ha": 3134,
      "ache": 3135,
      "Ġanalysis": 3136,
      "ĠSte": 3137,
      "So": 3138,
      "Ġvia": 3139,
      "ĠRed": 3140,
      "ager": 3141,
      "Ġ==": 3142,
      "ava": 3143,
      "oul": 3144,
      "Ġsaw": 3145,
      "arc": 3146,
      "Ġfather": 3147,
      "ospital": 3148,
      "rick": 3149,
      "Ġmovie": 3150,
      "comp": 3151,
      "ĠIsrael": 3152,
      "2005": 3153,
      "omb": 3154,
      "uses": 3155,
      "Ġpopular": 3156,
      "lam": 3157,
      "ĠGroup": 3158,
      "ĠEuropean": 3159,
      "ĠResearch": 3160,
      "ges": 3161,
      "ades": 3162,
      "pped": 3163,
      "aves": 3164,
      "Ġoutside": 3165,
      "Ġcy": 3166,
      "ees": 3167,
      "Ġmer": 3168,
      "ayer": 3169,
      "ication": 3170,
      "ara": 3171,
      "unt": 3172,
      "Ġwriting": 3173,
      "Ġboard": 3174,
      "ica": 3175,
      "atform": 3176,
      "bit": 3177,
      "Ġmanagement": 3178,
      "Ġapproach": 3179,
      "Ġdam": 3180,
      "mit": 3181,
      "Ġwond": 3182,
      "ĠAcc": 3183,
      "],": 3184,
      "Ġhor": 3185,
      "Ġnov": 3186,
      "Ġloss": 3187,
      "Ġsoft": 3188,
      "lier": 3189,
      "ribute": 3190,
      "Ġbuilt": 3191,
      "omet": 3192,
      "Ġlost": 3193,
      "Ġhttps": 3194,
      "rie": 3195,
      "pite": 3196,
      "Ġincludes": 3197,
      "Ġcontact": 3198,
      "Ġeveryone": 3199,
      "ville": 3200,
      "Ġspecific": 3201,
      "rote": 3202,
      "Ġlink": 3203,
      "Ġrefer": 3204,
      "Ġcho": 3205,
      "Ġquality": 3206,
      "Ġworked": 3207,
      "Ġtele": 3208,
      "Ġpaper": 3209,
      "ĠEar": 3210,
      "ounter": 3211,
      "Ġmother": 3212,
      "Ġled": 3213,
      "odes": 3214,
      "fully": 3215,
      "ĠJames": 3216,
      "!!": 3217,
      "Ġcele": 3218,
      "Ġmilitary": 3219,
      "body": 3220,
      "includ": 3221,
      "Ġproducts": 3222,
      "ĠFirst": 3223,
      "?âĢĿ": 3224,
      "Ġinj": 3225,
      "anced": 3226,
      "Ġcorre": 3227,
      "fo": 3228,
      "Ġvoid": 3229,
      "Ġexpected": 3230,
      "ĠRet": 3231,
      "ĠSystem": 3232,
      "OL": 3233,
      "roid": 3234,
      "aging": 3235,
      "Ġdate": 3236,
      "Ġneeded": 3237,
      "Ġhot": 3238,
      "Ġlanguage": 3239,
      "Ġsens": 3240,
      "Ġlegal": 3241,
      "Ġstaff": 3242,
      "Ġlives": 3243,
      "\")": 3244,
      "sych": 3245,
      "CC": 3246,
      "Ġrelig": 3247,
      "Ġnull": 3248,
      "Ġdecl": 3249,
      "ĠWashington": 3250,
      "Ġrecently": 3251,
      "ĠInc": 3252,
      "ĠNe": 3253,
      "Ġcomplex": 3254,
      "2000": 3255,
      "Ġpopulation": 3256,
      "Ġconsidered": 3257,
      "Ġbooks": 3258,
      "Ġimage": 3259,
      "No": 3260,
      "à¤": 3261,
      "64": 3262,
      "rought": 3263,
      "Ġrequest": 3264,
      "Ġincrease": 3265,
      "ulations": 3266,
      "umer": 3267,
      "Ġshown": 3268,
      "ords": 3269,
      "Ġconditions": 3270,
      "UT": 3271,
      "Ġbroad": 3272,
      "chan": 3273,
      "imum": 3274,
      "Ġbeaut": 3275,
      "ĠReview": 3276,
      "hem": 3277,
      "ĠCanada": 3278,
      "Ġinvolved": 3279,
      "airs": 3280,
      "Ġpack": 3281,
      "ĠUp": 3282,
      "ilon": 3283,
      "onent": 3284,
      "Ġplaying": 3285,
      "ĠÃ": 3286,
      "ero": 3287,
      "Ġhit": 3288,
      "Ġsold": 3289,
      "Ġuser": 3290,
      "ressed": 3291,
      "aches": 3292,
      "Ġconduct": 3293,
      "ibrary": 3294,
      "Ġdeep": 3295,
      "********": 3296,
      "isc": 3297,
      "ico": 3298,
      "quest": 3299,
      "ĠIndian": 3300,
      "Ġcross": 3301,
      "Ġsoon": 3302,
      "comes": 3303,
      "aily": 3304,
      "ems": 3305,
      "Ġvalues": 3306,
      "Ġgrowth": 3307,
      "Pl": 3308,
      "Ġstay": 3309,
      "Ġsett": 3310,
      "Ġsepar": 3311,
      "ixed": 3312,
      "arrow": 3313,
      "Ġthreat": 3314,
      "list": 3315,
      "Ġaverage": 3316,
      "cd": 3317,
      "____": 3318,
      "Ġpain": 3319,
      "alls": 3320,
      "down": 3321,
      "OP": 3322,
      "pose": 3323,
      "Ġess": 3324,
      "That": 3325,
      "Ġson": 3326,
      "ĠTechn": 3327,
      "mp": 3328,
      "IM": 3329,
      "ught": 3330,
      "mathbf": 3331,
      "Ġtal": 3332,
      "Ġreve": 3333,
      "raz": 3334,
      "Ġrelated": 3335,
      "ĠInstitute": 3336,
      "Ġmag": 3337,
      "Ġprior": 3338,
      "Ġlower": 3339,
      "asons": 3340,
      "Ġblock": 3341,
      "Ġbound": 3342,
      "lands": 3343,
      "Ġparam": 3344,
      "aly": 3345,
      "aged": 3346,
      "ĠAnt": 3347,
      "vey": 3348,
      "Get": 3349,
      "Le": 3350,
      "Ġwhose": 3351,
      "avy": 3352,
      "ummary": 3353,
      "Bl": 3354,
      "Post": 3355,
      "andid": 3356,
      "width": 3357,
      "Ġstyle": 3358,
      "ĠSim": 3359,
      "ynam": 3360,
      "Ġnatural": 3361,
      "Ġcurrently": 3362,
      "Ġhope": 3363,
      "Ġways": 3364,
      "ĠAustralia": 3365,
      "Ġstri": 3366,
      "Ġfinancial": 3367,
      "array": 3368,
      "Ġsearch": 3369,
      "rig": 3370,
      ".[": 3371,
      "Ġprovides": 3372,
      "ca": 3373,
      "unk": 3374,
      "ĠCong": 3375,
      "rant": 3376,
      "anger": 3377,
      "Ġdiv": 3378,
      "rack": 3379,
      "ĠĠĠĠĠĠ": 3380,
      "ĠNow": 3381,
      "itation": 3382,
      "Ġste": 3383,
      "500": 3384,
      "Ġquestions": 3385,
      "Ġinterview": 3386,
      "ĠEv": 3387,
      "Ġleading": 3388,
      "ilm": 3389,
      "pper": 3390,
      "witter": 3391,
      "lying": 3392,
      "Ġemer": 3393,
      "mission": 3394,
      "ĠOur": 3395,
      "Ġcapt": 3396,
      "Not": 3397,
      "haps": 3398,
      "65": 3399,
      "like": 3400,
      "42": 3401,
      "Ġfem": 3402,
      "Ġpick": 3403,
      "istry": 3404,
      "ĠRich": 3405,
      "ĠRober": 3406,
      "Ġdise": 3407,
      "Ġcomplete": 3408,
      "Ġmodern": 3409,
      "ĠGeneral": 3410,
      "Ġproblems": 3411,
      "Ġwasn": 3412,
      "ampions": 3413,
      "eks": 3414,
      "Ġstar": 3415,
      "ĠPost": 3416,
      "no": 3417,
      "respond": 3418,
      "room": 3419,
      "top": 3420,
      "Ġwrote": 3421,
      "Ġplayer": 3422,
      "ned": 3423,
      "ĠBen": 3424,
      "Ġinstead": 3425,
      "ĠChurch": 3426,
      "Ġsaying": 3427,
      "Ġcle": 3428,
      "ius": 3429,
      "men": 3430,
      "Ġcentury": 3431,
      "EL": 3432,
      "----------------": 3433,
      "beta": 3434,
      "bt": 3435,
      "Ġsimply": 3436,
      "ulated": 3437,
      "astic": 3438,
      "Ġannounced": 3439,
      "Ġround": 3440,
      "Ġassist": 3441,
      "ening": 3442,
      "En": 3443,
      "rian": 3444,
      "icon": 3445,
      "2004": 3446,
      "Ġrev": 3447,
      "eters": 3448,
      "ĠPress": 3449,
      "'ll": 3450,
      "ĠArch": 3451,
      "Ġdescribed": 3452,
      "with": 3453,
      "Ġborn": 3454,
      "Ġeconomic": 3455,
      "ida": 3456,
      "arning": 3457,
      "util": 3458,
      "Ġpretty": 3459,
      "Ġcompl": 3460,
      "box": 3461,
      "Ġmention": 3462,
      "Ġfile": 3463,
      "ements": 3464,
      "ĠĠĠĠĠĠĠĠĠĠĠĠĠĠĠĠĠĠĠĠĠĠĠĠĠĠĠĠĠĠĠĠ": 3465,
      "Ġtreatment": 3466,
      "quad": 3467,
      "Ġmeeting": 3468,
      "Ġimplement": 3469,
      "ago": 3470,
      "const": 3471,
      "Ġ(\\": 3472,
      "Ġculture": 3473,
      "ĠWhite": 3474,
      "66": 3475,
      "ĠMichael": 3476,
      "ND": 3477,
      "obile": 3478,
      "ĠJack": 3479,
      "rated": 3480,
      "Ġtool": 3481,
      "ĠAnn": 3482,
      "Ġveh": 3483,
      "One": 3484,
      "}{\\": 3485,
      "Ġdrug": 3486,
      "cret": 3487,
      "ech": 3488,
      "Data": 3489,
      "Ġaccom": 3490,
      "Ġrunning": 3491,
      "Ġnamed": 3492,
      "ilde": 3493,
      "Ġhop": 3494,
      "Ġbirth": 3495,
      "vest": 3496,
      "Ġmatch": 3497,
      "rast": 3498,
      "âĢĿ.": 3499,
      "gl": 3500,
      "ĠPublic": 3501,
      "ĠĠĠĠĠĠĠĠĠĠĠĠĠ": 3502,
      "ĠThom": 3503,
      "Ġlonger": 3504,
      "Ġtou": 3505,
      "data": 3506,
      "Ġdirector": 3507,
      "Ġstandard": 3508,
      "irit": 3509,
      "ĠMod": 3510,
      "ĠJe": 3511,
      "iqu": 3512,
      "ĠGreen": 3513,
      "ming": 3514,
      "95": 3515,
      "Ob": 3516,
      "SS": 3517,
      "ĠMusic": 3518,
      "ga": 3519,
      "Ġadminist": 3520,
      "Ġminutes": 3521,
      "illed": 3522,
      "ĠScience": 3523,
      "ares": 3524,
      "Ġscient": 3525,
      "Ġdead": 3526,
      "ĠJer": 3527,
      "script": 3528,
      "ĠProf": 3529,
      "itiz": 3530,
      "Ġstep": 3531,
      "Ġprotect": 3532,
      "wide": 3533,
      "met": 3534,
      "Ġaward": 3535,
      "Ġtable": 3536,
      "Ġthroughout": 3537,
      "ĠMart": 3538,
      "rix": 3539,
      "Ġgave": 3540,
      "ki": 3541,
      "nown": 3542,
      "Ġstage": 3543,
      "ĠJew": 3544,
      "Ġpict": 3545,
      "sigma": 3546,
      "Ġanyone": 3547,
      "ĠPort": 3548,
      "itar": 3549,
      "Ġbehav": 3550,
      "sum": 3551,
      "gen": 3552,
      "ĠSome": 3553,
      "ental": 3554,
      "Ġexact": 3555,
      "Ġclub": 3556,
      "Ġstring": 3557,
      "mark": 3558,
      "zon": 3559,
      "Ġdemon": 3560,
      "atal": 3561,
      "Ġfootball": 3562,
      "px": 3563,
      "Ġliter": 3564,
      "Ġstories": 3565,
      "Ġwrong": 3566,
      "ecutive": 3567,
      "ĠWhile": 3568,
      "Ġknowledge": 3569,
      "isode": 3570,
      "ĠYear": 3571,
      "het": 3572,
      "riday": 3573,
      "inated": 3574,
      "Ġserious": 3575,
      "ĠOut": 3576,
      "ĠEngland": 3577,
      "ĠOF": 3578,
      "itect": 3579,
      "ĠFound": 3580,
      "Ġreading": 3581,
      "Ġfavor": 3582,
      "ĠAre": 3583,
      "using": 3584,
      "Man": 3585,
      "ston": 3586,
      "more": 3587,
      "IV": 3588,
      "isions": 3589,
      "ĠDan": 3590,
      "Ġsil": 3591,
      "IL": 3592,
      "Ab": 3593,
      "Ġboy": 3594,
      "ĠBer": 3595,
      "oom": 3596,
      "ĠMal": 3597,
      "Ġbrand": 3598,
      "^{-": 3599,
      "ufact": 3600,
      "ĠHall": 3601,
      "41": 3602,
      "yond": 3603,
      "Ġscience": 3604,
      "cks": 3605,
      "ĠVol": 3606,
      "ĠPM": 3607,
      "aughter": 3608,
      "nb": 3609,
      "De": 3610,
      "ĠYour": 3611,
      "43": 3612,
      "From": 3613,
      "Ġscreen": 3614,
      "Ġsurpr": 3615,
      "Ġpractice": 3616,
      "zz": 3617,
      "idents": 3618,
      "Ġchalleng": 3619,
      "imately": 3620,
      "Ġlevels": 3621,
      "cis": 3622,
      "estival": 3623,
      "Ġforce": 3624,
      "Ġinteresting": 3625,
      "Ġnature": 3626,
      "oyal": 3627,
      "ĠAngel": 3628,
      "Ġâ": 3629,
      "CH": 3630,
      "Ġassociated": 3631,
      "Ġmax": 3632,
      "vention": 3633,
      "ĠThen": 3634,
      "AA": 3635,
      "ĠTHE": 3636,
      "berg": 3637,
      "Ġcapital": 3638,
      "Ġcharg": 3639,
      "Ġstru": 3640,
      "Ġeasy": 3641,
      "Ġmid": 3642,
      "Ġinstit": 3643,
      "Ad": 3644,
      "IP": 3645,
      "Ġregular": 3646,
      "Ġdisplay": 3647,
      "Ġmeasure": 3648,
      "ander": 3649,
      "big": 3650,
      "mon": 3651,
      "Ġpm": 3652,
      "mitted": 3653,
      "Ġconsist": 3654,
      "uration": 3655,
      "istics": 3656,
      "ĠFrench": 3657,
      "annel": 3658,
      "Ġstructure": 3659,
      "ĠBre": 3660,
      "Ġdeveloped": 3661,
      "References": 3662,
      "Ġdeliver": 3663,
      "Ġcivil": 3664,
      "Sp": 3665,
      "icip": 3666,
      "Ġmis": 3667,
      "ya": 3668,
      "net": 3669,
      "Ġopportunity": 3670,
      "Ġremember": 3671,
      "Ġsimple": 3672,
      "ĠAfrica": 3673,
      "Ġspeak": 3674,
      "Ġten": 3675,
      "Ġleave": 3676,
      "Ġbrought": 3677,
      "acebook": 3678,
      "2003": 3679,
      "Ġgoes": 3680,
      "ilies": 3681,
      "Ġlinks": 3682,
      "pri": 3683,
      "Ġimmedi": 3684,
      "Ġcause": 3685,
      "Ġdriv": 3686,
      "Ġtru": 3687,
      "Ġworth": 3688,
      "ellow": 3689,
      "59": 3690,
      "Ġcharacters": 3691,
      "Ġgoal": 3692,
      "Ġmedical": 3693,
      "uate": 3694,
      "Ġmodels": 3695,
      "ped": 3696,
      "mathrm": 3697,
      "My": 3698,
      "ĠEduc": 3699,
      "sm": 3700,
      "78": 3701,
      "Ġcode": 3702,
      "Ġlocated": 3703,
      "Ġunique": 3704,
      "gamma": 3705,
      "ĠAssociation": 3706,
      "do": 3707,
      "Ġstudies": 3708,
      "ĠGreat": 3709,
      "Ġlack": 3710,
      "Ġadditional": 3711,
      "arily": 3712,
      "ults": 3713,
      "ĠDemocr": 3714,
      "ĠBusiness": 3715,
      "After": 3716,
      "Qu": 3717,
      "Ġprinc": 3718,
      "lied": 3719,
      "ĠMus": 3720,
      "igned": 3721,
      "Ġrace": 3722,
      "Ġweeks": 3723,
      "Ġund": 3724,
      "OC": 3725,
      "Ġperfect": 3726,
      "Ġdraw": 3727,
      "Ġvill": 3728,
      "istan": 3729,
      "ĠAM": 3730,
      "urt": 3731,
      "Ġnation": 3732,
      "Ġver": 3733,
      "ube": 3734,
      "olic": 3735,
      "Ġsurv": 3736,
      "ĠProgram": 3737,
      "+\\": 3738,
      "ĠDef": 3739,
      "exas": 3740,
      "Ġrecomm": 3741,
      "')": 3742,
      "lor": 3743,
      "Ġdire": 3744,
      "ria": 3745,
      "Ġdetails": 3746,
      "Ġsuff": 3747,
      "Ġder": 3748,
      "value": 3749,
      "Ġcandid": 3750,
      "Ġlatest": 3751,
      "Ġfair": 3752,
      "Ġpan": 3753,
      "Ġge": 3754,
      "wise": 3755,
      "iation": 3756,
      "location": 3757,
      "ĠSund": 3758,
      "Ġeffects": 3759,
      "Value": 3760,
      "Ġhum": 3761,
      "AB": 3762,
      "Ġter": 3763,
      "string": 3764,
      "Ġtowards": 3765,
      "ĠIN": 3766,
      "*}": 3767,
      "Ġsort": 3768,
      "Ġcontext": 3769,
      "Ġoccur": 3770,
      "II": 3771,
      "ĠDec": 3772,
      "ĠDevelop": 3773,
      "ĠGeorge": 3774,
      "Ġfrequ": 3775,
      "Ġapplication": 3776,
      "iers": 3777,
      "Ġacqu": 3778,
      "Ġcontribut": 3779,
      "Ġrock": 3780,
      "Ġdied": 3781,
      "Ġmus": 3782,
      "Ġgets": 3783,
      "king": 3784,
      "Mod": 3785,
      "Ġconnect": 3786,
      "change": 3787,
      "ĠSy": 3788,
      "Ġfelt": 3789,
      "ĠBoard": 3790,
      "Ġcenter": 3791,
      "race": 3792,
      "Ġstudent": 3793,
      "Ġlearning": 3794,
      "board": 3795,
      "Ġparents": 3796,
      "ellig": 3797,
      "aled": 3798,
      "rief": 3799,
      "Ġmultiple": 3800,
      "Ġestablished": 3801,
      "rial": 3802,
      "Ġtrade": 3803,
      "ĠPre": 3804,
      "ĠLeague": 3805,
      "rho": 3806,
      "ĠÂ£": 3807,
      "Ġrout": 3808,
      "atus": 3809,
      "Ġplatform": 3810,
      "point": 3811,
      "Ġpartners": 3812,
      "EM": 3813,
      "Ġwife": 3814,
      "Ġthrow": 3815,
      "apter": 3816,
      "App": 3817,
      "Ġheard": 3818,
      "edy": 3819,
      "Ġneigh": 3820,
      "state": 3821,
      "ĠNov": 3822,
      "alled": 3823,
      "inese": 3824,
      "theta": 3825,
      "ĠRead": 3826,
      "Ġcolor": 3827,
      "vant": 3828,
      "delta": 3829,
      "Ġinside": 3830,
      "Ġstatement": 3831,
      "]{": 3832,
      "amily": 3833,
      "Ġang": 3834,
      "Ġwrite": 3835,
      "Ġpurch": 3836,
      "band": 3837,
      "ĠUs": 3838,
      "ottom": 3839,
      "Ġattention": 3840,
      "ĠGoogle": 3841,
      "2001": 3842,
      "ĠSam": 3843,
      "erc": 3844,
      "^\\": 3845,
      "Ġple": 3846,
      "ĠBel": 3847,
      "Ġdesigned": 3848,
      "Ġbillion": 3849,
      "mercial": 3850,
      "ĠCommission": 3851,
      "ĠLeg": 3852,
      "erve": 3853,
      "rame": 3854,
      "force": 3855,
      "Ġ%": 3856,
      "Ġmessage": 3857,
      "Ġschools": 3858,
      "Ġnecessary": 3859,
      "ĠTom": 3860,
      "Ġknew": 3861,
      "ns": 3862,
      "ĠJournal": 3863,
      "ĠLet": 3864,
      "Ġdark": 3865,
      "Ġsociety": 3866,
      "ĠHistory": 3867,
      "Er": 3868,
      "Ġcouple": 3869,
      "sey": 3870,
      "Ġball": 3871,
      "ĠĠĠĠĠĠĠĠĠĠĠĠĠĠĠĠĠĠĠĠĠĠĠ": 3872,
      "ĠSuper": 3873,
      "77": 3874,
      "itude": 3875,
      "ĠChristian": 3876,
      "Ġconv": 3877,
      "IR": 3878,
      "ĠCompany": 3879,
      "ĠRoad": 3880,
      "ĠMag": 3881,
      "aturday": 3882,
      "Ġbank": 3883,
      "ened": 3884,
      "ii": 3885,
      "2002": 3886,
      "ĠUSA": 3887,
      "ĠClass": 3888,
      "Ġcorrespond": 3889,
      "enge": 3890,
      "Ġcollect": 3891,
      "Ġestim": 3892,
      "NA": 3893,
      "She": 3894,
      "iful": 3895,
      "PR": 3896,
      "ĠMat": 3897,
      "Ġturned": 3898,
      "Ġanim": 3899,
      "Ġhous": 3900,
      "isf": 3901,
      "ĠDirector": 3902,
      "Ġprice": 3903,
      "ota": 3904,
      "Ġusers": 3905,
      "Ġblood": 3906,
      "\");": 3907,
      "itch": 3908,
      "olf": 3909,
      "ĠGovernment": 3910,
      "Int": 3911,
      "rate": 3912,
      "range": 3913,
      "osition": 3914,
      "Ġhear": 3915,
      "Ġhands": 3916,
      "path": 3917,
      "hips": 3918,
      "Ġactivities": 3919,
      "Ġability": 3920,
      "Ġaim": 3921,
      "Ġconcept": 3922,
      "tained": 3923,
      "Ġparts": 3924,
      "ĠRel": 3925,
      "Ġbuy": 3926,
      "Ġprograms": 3927,
      "osing": 3928,
      "ĠMem": 3929,
      "iring": 3930,
      "but": 3931,
      "ste": 3932,
      "mas": 3933,
      "Ġcelebr": 3934,
      "ĠMary": 3935,
      "////": 3936,
      "View": 3937,
      "Ġspect": 3938,
      "Ġearlier": 3939,
      "Ġprojects": 3940,
      "AG": 3941,
      "ĠGet": 3942,
      "ĠFriday": 3943,
      "Ġsequ": 3944,
      "iant": 3945,
      "Ġcopy": 3946,
      "Ġetc": 3947,
      "Ġcalc": 3948,
      "tau": 3949,
      "88": 3950,
      "ously": 3951,
      "ĠService": 3952,
      "dis": 3953,
      "ĠCongress": 3954,
      "Ġmoved": 3955,
      "Ġbox": 3956,
      "Ġplans": 3957,
      "Ġmach": 3958,
      "Ġcollection": 3959,
      "Ġsen": 3960,
      "figure": 3961,
      "Ġcast": 3962,
      "ken": 3963,
      "Ġdevice": 3964,
      "rey": 3965,
      "Ġorigin": 3966,
      "ĠSub": 3967,
      "========": 3968,
      "Ã¡": 3969,
      "Ġserved": 3970,
      "ĠDel": 3971,
      "ENT": 3972,
      "exp": 3973,
      "rc": 3974,
      "Ġarriv": 3975,
      "Ġnovel": 3976,
      "Ġsem": 3977,
      "âĢĿ,": 3978,
      "Ġoffers": 3979,
      "Ġstation": 3980,
      "nbsp": 3981,
      "ĠGold": 3982,
      "ĠMac": 3983,
      "Ġspecies": 3984,
      "test": 3985,
      "\":": 3986,
      "ocks": 3987,
      "ĠInst": 3988,
      "Ġgas": 3989,
      "Ġbackground": 3990,
      "ĠRob": 3991,
      "Ġincreasing": 3992,
      "Ġresources": 3993,
      "undred": 3994,
      "ĠIS": 3995,
      "owers": 3996,
      "xi": 3997,
      "ĠMil": 3998,
      "ĠBill": 3999,
      "Ġtemper": 4000,
      "win": 4001,
      "iance": 4002,
      "roy": 4003,
      "Ġnearly": 4004,
      "Ġdecided": 4005,
      "iled": 4006,
      "Ġfilms": 4007,
      "Ġanti": 4008,
      "ĠâĢ¦": 4009,
      "ĠOffice": 4010,
      "Ġpositive": 4011,
      "ĠSing": 4012,
      "Ġimag": 4013,
      "resh": 4014,
      "ĠDistrict": 4015,
      "Ġparticularly": 4016,
      "just": 4017,
      "EO": 4018,
      "Ġri": 4019,
      "Ġsituation": 4020,
      "Ġsomet": 4021,
      "izations": 4022,
      "Ġerror": 4023,
      "Ġgives": 4024,
      "Ġextra": 4025,
      "Ġprint": 4026,
      "urity": 4027,
      ")}": 4028,
      "Ġlines": 4029,
      "Ġprogress": 4030,
      "Ġfast": 4031,
      "ĠLou": 4032,
      "ibly": 4033,
      "ĠParty": 4034,
      "Comp": 4035,
      "edom": 4036,
      "ĠKe": 4037,
      "Ġfa": 4038,
      "itness": 4039,
      "Ġdetail": 4040,
      "Ġrespond": 4041,
      "ĠBi": 4042,
      "bert": 4043,
      "ĠTexas": 4044,
      "ĠBr": 4045,
      "Ġfans": 4046,
      "ĠMet": 4047,
      "Ġmechan": 4048,
      "58": 4049,
      "];": 4050,
      "Ġelection": 4051,
      "ĠFacebook": 4052,
      "ils": 4053,
      "Ġhol": 4054,
      "ĠStar": 4055,
      "Ġblog": 4056,
      "udd": 4057,
      "ancy": 4058,
      "ĠHere": 4059,
      "ĠSur": 4060,
      "Or": 4061,
      "Ġwonder": 4062,
      "Ġdiscover": 4063,
      "venue": 4064,
      "Ġeight": 4065,
      "outhern": 4066,
      "Ġallowed": 4067,
      "Ġstreng": 4068,
      "Ġprofessional": 4069,
      "ĠQue": 4070,
      "reme": 4071,
      "Ġlargest": 4072,
      "ĠBest": 4073,
      "gest": 4074,
      "ĠSpec": 4075,
      "Ġlic": 4076,
      "Ġdegree": 4077,
      "bon": 4078,
      "Ġdirectly": 4079,
      "ĠFrance": 4080,
      "eria": 4081,
      "Ġbeyond": 4082,
      "56": 4083,
      "Ġautom": 4084,
      "ĠAdd": 4085,
      "enty": 4086,
      "Ġoptions": 4087,
      "ĠAlex": 4088,
      "Ġproduced": 4089,
      "Ġvoice": 4090,
      "Ġlimited": 4091,
      "iverse": 4092,
      "Ġcells": 4093,
      "Ġfamilies": 4094,
      "link": 4095,
      "size": 4096,
      "iding": 4097,
      "Ġprep": 4098,
      "Ġphysical": 4099,
      "ecause": 4100,
      "mar": 4101,
      "Ġvote": 4102,
      "Americ": 4103,
      "Ġteams": 4104,
      "ĠCommittee": 4105,
      "Ġlength": 4106,
      "ishing": 4107,
      "ĠSociety": 4108,
      "Ġgun": 4109,
      "Ġinitial": 4110,
      "Ġeyes": 4111,
      "Ġreports": 4112,
      "Ġalthough": 4113,
      "ula": 4114,
      "Ġorganization": 4115,
      "ĠPeople": 4116,
      "Ġforeign": 4117,
      "ĠWed": 4118,
      "igation": 4119,
      "Ġthous": 4120,
      "ĠCarol": 4121,
      "Ġsolution": 4122,
      "Be": 4123,
      "Ġbrother": 4124,
      "Ed": 4125,
      "Ġchance": 4126,
      "Ġfederal": 4127,
      "Ġstatic": 4128,
      "Ġ/**": 4129,
      "SP": 4130,
      "TR": 4131,
      "lo": 4132,
      "ĠSunday": 4133,
      "hest": 4134,
      "ado": 4135,
      "encies": 4136,
      "leq": 4137,
      "Ġjournal": 4138,
      "Ġnames": 4139,
      "well": 4140,
      "Ġmeaning": 4141,
      "Ġassess": 4142,
      "Ġmanufact": 4143,
      "Ġreceive": 4144,
      "ĠAward": 4145,
      "Ġemail": 4146,
      "}$,": 4147,
      "UN": 4148,
      "Ġquant": 4149,
      "ĠFore": 4150,
      "Ġstra": 4151,
      "Ġmur": 4152,
      "Ġpark": 4153,
      "Ġsn": 4154,
      "Ġgiving": 4155,
      "Ġdifference": 4156,
      "Ġfinally": 4157,
      "ĠOver": 4158,
      "Ġincreased": 4159,
      "Ġrules": 4160,
      "Ġpromot": 4161,
      "ĠHill": 4162,
      "table": 4163,
      "ĠÐ": 4164,
      "Ġcompared": 4165,
      "ĠEducation": 4166,
      "osh": 4167,
      "($": 4168,
      "ĠSmith": 4169,
      "times": 4170,
      "lang": 4171,
      "Par": 4172,
      "Exception": 4173,
      "57": 4174,
      "Ġusually": 4175,
      "Ġstatus": 4176,
      "ĠRiver": 4177,
      "ĠTimes": 4178,
      "ĠAtt": 4179,
      "Ġcook": 4180,
      "quare": 4181,
      "Ġestablish": 4182,
      "index": 4183,
      "Ġnote": 4184,
      "Ġnumbers": 4185,
      "Ġcondition": 4186,
      "ĠFlor": 4187,
      "Ġsurface": 4188,
      "ĠVir": 4189,
      "Ġmovement": 4190,
      "Ġspent": 4191,
      "Su": 4192,
      "ĠHam": 4193,
      "ping": 4194,
      "Ġbeginning": 4195,
      "Ġavoid": 4196,
      "Ġplease": 4197,
      "onday": 4198,
      "ronic": 4199,
      "public": 4200,
      "rupt": 4201,
      "Ġsuccessful": 4202,
      "house": 4203,
      "Ġbill": 4204,
      "ĠMiss": 4205,
      "eared": 4206,
      "Ġdefined": 4207,
      "oday": 4208,
      "Ġqual": 4209,
      "Ġensure": 4210,
      "Ġlooks": 4211,
      "\\\\\\\\\\\\\\\\": 4212,
      "ifying": 4213,
      "Ġaw": 4214,
      "edia": 4215,
      "Ġuses": 4216,
      "Ġtheory": 4217,
      "ranch": 4218,
      "Ġnormal": 4219,
      "$-": 4220,
      "Ġpull": 4221,
      "Ġdisease": 4222,
      "Ġcontinu": 4223,
      "ĠLife": 4224,
      "eline": 4225,
      "gor": 4226,
      "Ġfollowed": 4227,
      "Ġeffic": 4228,
      "Ġeffective": 4229,
      "Ġdigital": 4230,
      "andom": 4231,
      "Ġseven": 4232,
      "onents": 4233,
      "ulture": 4234,
      "SC": 4235,
      "Ġclimate": 4236,
      "Ġexhib": 4237,
      "Ġshoot": 4238,
      "ĠServices": 4239,
      "file": 4240,
      "ĠOther": 4241,
      "ĠIran": 4242,
      "Ġbasis": 4243,
      "));": 4244,
      "ĠChinese": 4245,
      "Read": 4246,
      "ategory": 4247,
      "Ġshot": 4248,
      "}(\\": 4249,
      "Ġscene": 4250,
      "eds": 4251,
      "Ġbal": 4252,
      "ĠMuseum": 4253,
      "Ġmagn": 4254,
      "miss": 4255,
      "ĠDiv": 4256,
      "bre": 4257,
      "Ġactivity": 4258,
      "Ġmap": 4259,
      "ester": 4260,
      "Ġkilled": 4261,
      "unc": 4262,
      "eqref": 4263,
      "Ġencou": 4264,
      "Ġconvers": 4265,
      "Ġrepl": 4266,
      "ĠĠĠĠĊ": 4267,
      "Ġdat": 4268,
      "ios": 4269,
      "Ġsummer": 4270,
      "ĠRobert": 4271,
      "Ġtrust": 4272,
      "Ġsafety": 4273,
      "Ġcontinued": 4274,
      "ĠMex": 4275,
      "ĠSal": 4276,
      "Ġones": 4277,
      "from": 4278,
      "}$.": 4279,
      "Ġdistribution": 4280,
      "urance": 4281,
      "ĠJul": 4282,
      "Ġprevent": 4283,
      "fin": 4284,
      "Ġpen": 4285,
      "Ġhappened": 4286,
      "Over": 4287,
      "orthern": 4288,
      "Add": 4289,
      "acity": 4290,
      "Ġcam": 4291,
      "Ġdemonstr": 4292,
      "Ġmorning": 4293,
      "Ġchanged": 4294,
      "izes": 4295,
      "ait": 4296,
      "Ġult": 4297,
      "Ġ&&": 4298,
      "Ġindependent": 4299,
      "Ġslow": 4300,
      "Class": 4301,
      "They": 4302,
      "ulate": 4303,
      "Ġleader": 4304,
      "Ġinnov": 4305,
      "ĠSol": 4306,
      "semb": 4307,
      "Ġthus": 4308,
      "Ġteac": 4309,
      "ĠSaturday": 4310,
      "nu": 4311,
      "Ġpoor": 4312,
      "Ġbur": 4313,
      "ĠâĢ¢": 4314,
      "Ġcentral": 4315,
      "Ġeval": 4316,
      "ĠWork": 4317,
      "ĠBank": 4318,
      "Ġsche": 4319,
      "ĠGermany": 4320,
      "ĠGerman": 4321,
      "Ġcosts": 4322,
      "udget": 4323,
      "Ġremain": 4324,
      "rd": 4325,
      "azine": 4326,
      "68": 4327,
      "atively": 4328,
      "Ġplaces": 4329,
      "Ġerr": 4330,
      "Ġdemand": 4331,
      "Ġopin": 4332,
      "ipl": 4333,
      "Ġwants": 4334,
      "IA": 4335,
      "Ġcitiz": 4336,
      "ĠScott": 4337,
      "Ġquickly": 4338,
      "icks": 4339,
      "ĠChild": 4340,
      "SE": 4341,
      "ĠCamp": 4342,
      "ĠUnion": 4343,
      "Ġproposed": 4344,
      "âĢĺ": 4345,
      "Ġsometimes": 4346,
      "porary": 4347,
      "Ġsoftware": 4348,
      "Ġpredict": 4349,
      "ĠMad": 4350,
      "Ġprem": 4351,
      "isation": 4352,
      "ĠRussia": 4353,
      "Ġchoice": 4354,
      "Ġactive": 4355,
      "space": 4356,
      "Ġaltern": 4357,
      "ka": 4358,
      "ursday": 4359,
      "unities": 4360,
      "Let": 4361,
      "Set": 4362,
      "perty": 4363,
      "akers": 4364,
      "Ġlocation": 4365,
      "partial": 4366,
      "ĠUnder": 4367,
      "Ġplant": 4368,
      "Ġoil": 4369,
      "ĠBig": 4370,
      "Ġassum": 4371,
      "acc": 4372,
      "Ġgrowing": 4373,
      "ĠString": 4374,
      "Ġsecret": 4375,
      "fty": 4376,
      "ĠTime": 4377,
      "arr": 4378,
      "ĠPlan": 4379,
      "Ġcompletely": 4380,
      "anda": 4381,
      "Ġmethods": 4382,
      "Ġkids": 4383,
      "ĠDevelopment": 4384,
      "ĠIsland": 4385,
      "Ġhighly": 4386,
      "ĠObama": 4387,
      "Ġcorrect": 4388,
      "Ġdro": 4389,
      "ĠBay": 4390,
      "Ġtransfer": 4391,
      "mm": 4392,
      "Ġchurch": 4393,
      "ĠMo": 4394,
      "quot": 4395,
      "Ġorg": 4396,
      "Ġpresented": 4397,
      "Object": 4398,
      "Ġcomments": 4399,
      "Ġsec": 4400,
      "Ġinput": 4401,
      "Ġfirm": 4402,
      "Ġwild": 4403,
      "Ġsongs": 4404,
      "Ġremains": 4405,
      "Ġ?": 4406,
      "Ġlooked": 4407,
      "ĠMinister": 4408,
      "oes": 4409,
      "ĠWell": 4410,
      "Ġconstant": 4411,
      "Ġelements": 4412,
      "Ġanswer": 4413,
      "gr": 4414,
      "ena": 4415,
      "erved": 4416,
      "Ġhuge": 4417,
      "cons": 4418,
      "Ġsy": 4419,
      "Ġcard": 4420,
      "ĠSee": 4421,
      "ĠCap": 4422,
      "ĠReport": 4423,
      "ĠGr": 4424,
      "'d": 4425,
      "oma": 4426,
      "Ġpiece": 4427,
      "han": 4428,
      "ĠAfrican": 4429,
      "ĠClub": 4430,
      "Ġgra": 4431,
      "Ġtypes": 4432,
      "Ġgrand": 4433,
      "ĠST": 4434,
      "Ġhundred": 4435,
      "Ġded": 4436,
      "url": 4437,
      "cher": 4438,
      "Ġgovern": 4439,
      "Ġfollows": 4440,
      "Ġinform": 4441,
      "Ġtransport": 4442,
      "known": 4443,
      "Ġapprox": 4444,
      "Ġconstruction": 4445,
      "Ġwide": 4446,
      "Ġcancer": 4447,
      "ĠProject": 4448,
      "Ġthinking": 4449,
      "atre": 4450,
      "Ġnorth": 4451,
      "actions": 4452,
      "Ġclin": 4453,
      "Ġquarter": 4454,
      "rt": 4455,
      "Ġtraditional": 4456,
      "Ġstarting": 4457,
      "Ġagree": 4458,
      "Ġachieve": 4459,
      "More": 4460,
      "Ġmiddle": 4461,
      "Ġdram": 4462,
      "icine": 4463,
      "Ġscen": 4464,
      "Ġpurpose": 4465,
      "ĠRock": 4466,
      "icago": 4467,
      "Ġdrive": 4468,
      "sq": 4469,
      "67": 4470,
      "uesday": 4471,
      "function": 4472,
      "ĠGood": 4473,
      "ĠManagement": 4474,
      "nav": 4475,
      "Ġprimary": 4476,
      "Ġelement": 4477,
      "Ġcarry": 4478,
      "ĠMedia": 4479,
      "Ġcollabor": 4480,
      "efore": 4481,
      "reek": 4482,
      "Ġreach": 4483,
      "Ġappoint": 4484,
      "ĠSocial": 4485,
      "ensity": 4486,
      "Key": 4487,
      "Ġstream": 4488,
      "Ġunderstanding": 4489,
      "Ġefforts": 4490,
      "Ġsatisf": 4491,
      "Our": 4492,
      "Ġappropri": 4493,
      "Ġoption": 4494,
      "ĠFoundation": 4495,
      "ĠÂ»": 4496,
      "Ġfarm": 4497,
      "Ġconstit": 4498,
      "Ġsales": 4499,
      "Ġlay": 4500,
      "Ġcomputer": 4501,
      "Ġmount": 4502,
      "Ġindividuals": 4503,
      "ega": 4504,
      "antic": 4505,
      "OW": 4506,
      "ĠMost": 4507,
      "Ġexpand": 4508,
      "Ġassert": 4509,
      "och": 4510,
      "color": 4511,
      "ĠThomas": 4512,
      "ros": 4513,
      "Don": 4514,
      "anned": 4515,
      "300": 4516,
      "rage": 4517,
      "adian": 4518,
      "ĠSun": 4519,
      "Ġalone": 4520,
      "ĠSl": 4521,
      "Ġstrugg": 4522,
      "works": 4523,
      "ĠBrown": 4524,
      "().": 4525,
      "Ġconsum": 4526,
      "word": 4527,
      "Ġbus": 4528,
      "Ġaware": 4529,
      "Ġtherefore": 4530,
      "Ġtim": 4531,
      "Ġprop": 4532,
      "Ġunit": 4533,
      "Ġrat": 4534,
      "iller": 4535,
      "98": 4536,
      "Ġcorpor": 4537,
      "ĠAcadem": 4538,
      "Ġord": 4539,
      "Ġgrant": 4540,
      "Ġmoving": 4541,
      "Ġlimit": 4542,
      "stance": 4543,
      "Ġpassed": 4544,
      "Ġemot": 4545,
      "Ġweb": 4546,
      "ĠPolicy": 4547,
      "edd": 4548,
      "gorith": 4549,
      "Ġcommunities": 4550,
      "Ġimages": 4551,
      "Ġletter": 4552,
      "aud": 4553,
      "Ġphone": 4554,
      "Ġworkers": 4555,
      "Ġeth": 4556,
      "FL": 4557,
      "Ġpsych": 4558,
      "PS": 4559,
      "ĠSecret": 4560,
      "abled": 4561,
      "position": 4562,
      "Ġtruth": 4563,
      "itz": 4564,
      "itable": 4565,
      "ologies": 4566,
      "aby": 4567,
      "weet": 4568,
      "ĠFrancis": 4569,
      "Ġlegis": 4570,
      "Ġmicro": 4571,
      "Ġenter": 4572,
      "CT": 4573,
      "ĠFlorida": 4574,
      "ĠFe": 4575,
      "ĠĠĊ": 4576,
      "Ġfully": 4577,
      "Ġfear": 4578,
      "tilde": 4579,
      "pack": 4580,
      "ĠTop": 4581,
      "van": 4582,
      "ĠWomen": 4583,
      "FF": 4584,
      "ini": 4585,
      "ĠRad": 4586,
      "CE": 4587,
      "52": 4588,
      "Ġcollege": 4589,
      "Ġvs": 4590,
      "ĠIslam": 4591,
      "ĠPeter": 4592,
      "Ġnumer": 4593,
      "ĠTur": 4594,
      "ounds": 4595,
      "Ġgraph": 4596,
      "ructure": 4597,
      "ĠCentral": 4598,
      "Ġartist": 4599,
      "Time": 4600,
      "Ġpaid": 4601,
      "ications": 4602,
      "Ġallows": 4603,
      "Ġgreater": 4604,
      "Ġsouth": 4605,
      "Of": 4606,
      "ĠList": 4607,
      "Ġinstance": 4608,
      "''": 4609,
      "orage": 4610,
      "under": 4611,
      "Ġproviding": 4612,
      "Ġ!=": 4613,
      "oken": 4614,
      "aling": 4615,
      "Ġsust": 4616,
      "Ġregister": 4617,
      "\";": 4618,
      "nesday": 4619,
      "1999": 4620,
      "ĠEven": 4621,
      "inn": 4622,
      "Ġclaims": 4623,
      "Ġoperations": 4624,
      "lis": 4625,
      "MS": 4626,
      "infty": 4627,
      "Up": 4628,
      "Ġtouch": 4629,
      "sk": 4630,
      "ĠUN": 4631,
      "Ġrob": 4632,
      "Ġnuc": 4633,
      "BA": 4634,
      "Ġpeace": 4635,
      "Ġforces": 4636,
      "za": 4637,
      "Ġdouble": 4638,
      "Ġexactly": 4639,
      "97": 4640,
      "Ġdim": 4641,
      "Ġeconomy": 4642,
      "|\\": 4643,
      "Ġcritical": 4644,
      "clusion": 4645,
      "ĠJud": 4646,
      "Ġobvious": 4647,
      "Ġrepe": 4648,
      "js": 4649,
      "Ġupd": 4650,
      "Ġdirection": 4651,
      "Ġrule": 4652,
      "ĠSk": 4653,
      "active": 4654,
      "ĠSeries": 4655,
      "Ġvictim": 4656,
      "Ġir": 4657,
      "Ġtalking": 4658,
      "Ġunc": 4659,
      "Acc": 4660,
      "ĠRichard": 4661,
      "Ġspirit": 4662,
      "ulf": 4663,
      "AY": 4664,
      "fficient": 4665,
      "inate": 4666,
      "51": 4667,
      "Ġanaly": 4668,
      "ĠWil": 4669,
      "Ġreb": 4670,
      "ĠLos": 4671,
      "Ġgold": 4672,
      "ĠMonday": 4673,
      "ĠMer": 4674,
      "Ġperhaps": 4675,
      "ĠHome": 4676,
      "Ġannual": 4677,
      "ĠOpen": 4678,
      "Posted": 4679,
      "ĠTor": 4680,
      "ĠEconom": 4681,
      "\"></": 4682,
      "dt": 4683,
      "ĠAirport": 4684,
      "Ġchem": 4685,
      "ĠHuman": 4686,
      "bour": 4687,
      "Ġwel": 4688,
      "Ġweight": 4689,
      "term": 4690,
      "ĠIr": 4691,
      "Ġepisode": 4692,
      "Ġdream": 4693,
      "fra": 4694,
      "Ġpolic": 4695,
      "ĠRussian": 4696,
      "ĠKore": 4697,
      "den": 4698,
      "Me": 4699,
      "Ġbeautiful": 4700,
      "lick": 4701,
      "Ġclean": 4702,
      "anta": 4703,
      "ĠEarth": 4704,
      "illing": 4705,
      "imb": 4706,
      "ĠPlay": 4707,
      "gu": 4708,
      "BS": 4709,
      "ĠHel": 4710,
      "writ": 4711,
      "sim": 4712,
      "cell": 4713,
      ".</": 4714,
      "Ġsal": 4715,
      "Ġready": 4716,
      "lt": 4717,
      "ework": 4718,
      "Ġaffect": 4719,
      "essor": 4720,
      "iny": 4721,
      "Ġhappy": 4722,
      "Ġign": 4723,
      "Ġideas": 4724,
      "Ġlarger": 4725,
      "orter": 4726,
      "Ġsusp": 4727,
      "Ġmix": 4728,
      "witch": 4729,
      "Ġer": 4730,
      "ĠAP": 4731,
      "usion": 4732,
      "olds": 4733,
      "verse": 4734,
      "ĠStat": 4735,
      "Ġstrateg": 4736,
      "print": 4737,
      "ĠNor": 4738,
      "Ġcommercial": 4739,
      "Ġfeed": 4740,
      "54": 4741,
      "Ð°": 4742,
      "Ġsle": 4743,
      "Ġartists": 4744,
      "ĠAngeles": 4745,
      "53": 4746,
      "Ġcompar": 4747,
      "group": 4748,
      "Ġperformed": 4749,
      "ĠWestern": 4750,
      "See": 4751,
      "Ġshowed": 4752,
      "riage": 4753,
      "ĠGrand": 4754,
      "Ġofficials": 4755,
      "Ġarchitect": 4756,
      "Ġroll": 4757,
      "Ġaspect": 4758,
      "Ġload": 4759,
      "ĠEvery": 4760,
      "df": 4761,
      "ĠWind": 4762,
      "Ġcustomers": 4763,
      "ĠTwitter": 4764,
      "ĠSince": 4765,
      "Ġmission": 4766,
      "which": 4767,
      "hand": 4768,
      "Test": 4769,
      "Ġcertainly": 4770,
      "ano": 4771,
      "Ġstore": 4772,
      "icated": 4773,
      "Ġexcept": 4774,
      "Ġpreviously": 4775,
      "Form": 4776,
      "Ġiniti": 4777,
      "Ġradio": 4778,
      "Ġborder": 4779,
      "Ġjour": 4780,
      "eqn": 4781,
      "Delta": 4782,
      "ocol": 4783,
      "Ġdynam": 4784,
      "Ġdog": 4785,
      "Ġpattern": 4786,
      "Ġvirt": 4787,
      "ĠCup": 4788,
      "Ġcontroll": 4789,
      "ancing": 4790,
      "igration": 4791,
      "asy": 4792,
      "Ġagreement": 4793,
      "Ġtelevision": 4794,
      "ĉĉĉĉĉ": 4795,
      "Ġoverall": 4796,
      "Ġspeed": 4797,
      "ĠCare": 4798,
      "spect": 4799,
      "Ġfigure": 4800,
      "Sub": 4801,
      "Inter": 4802,
      "yer": 4803,
      "Ġsexual": 4804,
      "osis": 4805,
      "Ġopening": 4806,
      "Ġpressure": 4807,
      "Ġcharge": 4808,
      "................": 4809,
      "level": 4810,
      "Ġhelped": 4811,
      "ĠThursday": 4812,
      "Ġbecomes": 4813,
      "ĠFrank": 4814,
      "Ġscale": 4815,
      "!--": 4816,
      "stant": 4817,
      "ĠDet": 4818,
      "TS": 4819,
      "Ġarrest": 4820,
      "Ġbeg": 4821,
      "ĠVirgin": 4822,
      "ĠData": 4823,
      "Ġopened": 4824,
      "Ġhospital": 4825,
      "ĠTre": 4826,
      "Ð¾": 4827,
      "yan": 4828,
      "Ġgreen": 4829,
      "Ġdoor": 4830,
      "ĠTown": 4831,
      "ĠRem": 4832,
      "Ġdespite": 4833,
      "orial": 4834,
      "Ġanc": 4835,
      "Ġtried": 4836,
      "Ġlif": 4837,
      "Ġdaughter": 4838,
      "Ġaccur": 4839,
      "ias": 4840,
      "Ġfine": 4841,
      "pan": 4842,
      "pace": 4843,
      "elligence": 4844,
      "inct": 4845,
      "Ġfemale": 4846,
      "ĠBur": 4847,
      "ĠWeb": 4848,
      "ĠCath": 4849,
      "Ġmiles": 4850,
      "Ġacadem": 4851,
      "Ġsources": 4852,
      "itors": 4853,
      "ĠWeek": 4854,
      "Ġsell": 4855,
      "mat": 4856,
      "ĠTour": 4857,
      "Serv": 4858,
      "Ġresponsible": 4859,
      "cel": 4860,
      "road": 4861,
      "Ġappears": 4862,
      "Ġsetting": 4863,
      "Ġmajority": 4864,
      "Error": 4865,
      "Ġ$(": 4866,
      "Ġvalid": 4867,
      "Ġparties": 4868,
      "pret": 4869,
      "Ġadopt": 4870,
      "Ġmyself": 4871,
      "Ġmulti": 4872,
      "Ġimmediately": 4873,
      "96": 4874,
      "Ġwat": 4875,
      "ashion": 4876,
      "omega": 4877,
      "Ġrecords": 4878,
      "Ġreality": 4879,
      "Ġterror": 4880,
      "());": 4881,
      "ĠJose": 4882,
      "ĠTechnology": 4883,
      "ĠMel": 4884,
      "Ġmaybe": 4885,
      "Ġinvestment": 4886,
      "Ġaudience": 4887,
      "cm": 4888,
      "sl": 4889,
      "Ġrank": 4890,
      "ĠHot": 4891,
      "ĠMont": 4892,
      "ette": 4893,
      "Ġstuff": 4894,
      "Ġnom": 4895,
      "['": 4896,
      "While": 4897,
      "Ġdepend": 4898,
      "Ġoperation": 4899,
      "ĠMount": 4900,
      "Ġvariety": 4901,
      "Ġcru": 4902,
      "American": 4903,
      "Ġreasons": 4904,
      "Ġ///": 4905,
      "lem": 4906,
      "Ġabsol": 4907,
      "Ġconnection": 4908,
      "chol": 4909,
      "._": 4910,
      "liament": 4911,
      "Ġmess": 4912,
      "Ġcouldn": 4913,
      "ĠRev": 4914,
      "ervation": 4915,
      "Ġexisting": 4916,
      "Ġreturned": 4917,
      "style": 4918,
      "raq": 4919,
      "ĠChampions": 4920,
      "ala": 4921,
      "ĠJo": 4922,
      "Ġdisapp": 4923,
      "Âł": 4924,
      "ĠTuesday": 4925,
      "1990": 4926,
      "ĠChicago": 4927,
      "arsh": 4928,
      "ĠLand": 4929,
      "rive": 4930,
      "Ġextrem": 4931,
      "ategy": 4932,
      "plit": 4933,
      "Ġapply": 4934,
      "lict": 4935,
      "Def": 4936,
      "Ġhar": 4937,
      "ĠArab": 4938,
      "Ġpowerful": 4939,
      "Att": 4940,
      "Ġpresence": 4941,
      "ĠInformation": 4942,
      "Ġexpress": 4943,
      "Ġweap": 4944,
      "ĠEnd": 4945,
      "Ġeasily": 4946,
      "iling": 4947,
      "Ġsurround": 4948,
      "Ġappeared": 4949,
      "Ġdanger": 4950,
      "ĠFilm": 4951,
      "Ġpartner": 4952,
      "Ġinterested": 4953,
      "mail": 4954,
      "Ġtrial": 4955,
      "Ġexperiment": 4956,
      "Ġrates": 4957,
      "ĠArmy": 4958,
      "File": 4959,
      "ĠCD": 4960,
      "Ġmurder": 4961,
      "Pre": 4962,
      "Ġprison": 4963,
      "Ġflow": 4964,
      "Ġmemory": 4965,
      "ĠWhy": 4966,
      "ĠVict": 4967,
      "Ġjoined": 4968,
      "acing": 4969,
      "Ġsports": 4970,
      "Ġlaws": 4971,
      "entially": 4972,
      "Ġproced": 4973,
      "ĠArts": 4974,
      "Ġtrain": 4975,
      "Ġfeet": 4976,
      "Ġcrim": 4977,
      "ĠCommunity": 4978,
      "Ġcontain": 4979,
      "TH": 4980,
      "Ġpric": 4981,
      "Ġsites": 4982,
      "Ġpp": 4983,
      "Ġfig": 4984,
      "Ġconfig": 4985,
      "gn": 4986,
      "ĠLu": 4987,
      "Ġgone": 4988,
      "Ġdoll": 4989,
      "ĠCur": 4990,
      "ĠShow": 4991,
      "CA": 4992,
      "ĠLouis": 4993,
      "Ġwriter": 4994,
      "Ġelectric": 4995,
      "Ġpoll": 4996,
      "ĠFre": 4997,
      "Ġshop": 4998,
      "standing": 4999,
      "Now": 5000,
      ")(": 5001,
      "ĠOffic": 5002,
      "State": 5003,
      "Ġapart": 5004,
      "Ġtransform": 5005,
      "empl": 5006,
      "ario": 5007,
      "Ġindex": 5008,
      "Ġhy": 5009,
      "Trans": 5010,
      "Ġproperties": 5011,
      "nect": 5012,
      "EE": 5013,
      "Ġstraight": 5014,
      "Ġreligious": 5015,
      "Ġemployees": 5016,
      "Ġviolence": 5017,
      "atever": 5018,
      "itely": 5019,
      "ĠMur": 5020,
      "Ġcool": 5021,
      "1998": 5022,
      "Ġskills": 5023,
      "ĠMass": 5024,
      "Ġreference": 5025,
      "CL": 5026,
      "Rec": 5027,
      "Ġbenefits": 5028,
      "Ġclearly": 5029,
      "ĠID": 5030,
      "Ġobtained": 5031,
      "Ġdistrict": 5032,
      "orem": 5033,
      "Ġshared": 5034,
      "Ġconstruct": 5035,
      "ffect": 5036,
      "âĢ¢": 5037,
      "Ġmill": 5038,
      "olit": 5039,
      "ĠHen": 5040,
      "}}\\": 5041,
      "Ġinfluence": 5042,
      "Ġserve": 5043,
      "=\"+": 5044,
      "born": 5045,
      "Ġharm": 5046,
      "ĠJim": 5047,
      "uit": 5048,
      "inger": 5049,
      "Ġlaunch": 5050,
      "inner": 5051,
      "ipment": 5052,
      "overy": 5053,
      "Ġtoward": 5054,
      "Ġsigned": 5055,
      "Ġstrategy": 5056,
      "risis": 5057,
      "PA": 5058,
      "ĠOh": 5059,
      "Ġchallenge": 5060,
      "Ġamaz": 5061,
      "osure": 5062,
      "Ġhighest": 5063,
      "Ġgenerally": 5064,
      "Rep": 5065,
      "eful": 5066,
      "Ġguy": 5067,
      "Ġlab": 5068,
      "Ġcounter": 5069,
      "Ġfunding": 5070,
      "Ġactions": 5071,
      "Ġsolid": 5072,
      "ĠPet": 5073,
      "Ġcompleted": 5074,
      "Ġsafe": 5075,
      "ĠWednesday": 5076,
      "Ġfram": 5077,
      "ĠMartin": 5078,
      "hi": 5079,
      "ĠSil": 5080,
      "atin": 5081,
      "Ġclosed": 5082,
      "user": 5083,
      "Ġcontinues": 5084,
      "Ġincome": 5085,
      "cdot": 5086,
      "ĠPub": 5087,
      "care": 5088,
      "};": 5089,
      "uty": 5090,
      "uated": 5091,
      "ĠEngine": 5092,
      "idden": 5093,
      "Ġlaun": 5094,
      "Ġfunctions": 5095,
      "Ġ>>": 5096,
      "Ġcat": 5097,
      "summary": 5098,
      "Ã³": 5099,
      "ban": 5100,
      "Why": 5101,
      "Ġcultural": 5102,
      "ribe": 5103,
      "ogue": 5104,
      "ĠLove": 5105,
      "Ġadministration": 5106,
      "eless": 5107,
      "IF": 5108,
      "ady": 5109,
      "Ġactual": 5110,
      "apers": 5111,
      "iler": 5112,
      "ĠTwo": 5113,
      "rowd": 5114,
      "Ġbattle": 5115,
      "non": 5116,
      "ĠTim": 5117,
      "Ġtick": 5118,
      "burg": 5119,
      "post": 5120,
      "MA": 5121,
      "Ġsend": 5122,
      "ĠSecurity": 5123,
      "Ġplanning": 5124,
      "Ġcontains": 5125,
      "agram": 5126,
      "Ġsector": 5127,
      "Ġproduce": 5128,
      "nel": 5129,
      "Ġsun": 5130,
      "Ġwhom": 5131,
      "olk": 5132,
      "Ġforms": 5133,
      "Ġearth": 5134,
      "ĠEp": 5135,
      "Ġcoach": 5136,
      "ĠRoyal": 5137,
      "\\,": 5138,
      "Ġbenefit": 5139,
      "ĠGlobal": 5140,
      "Event": 5141,
      "tab": 5142,
      "ola": 5143,
      "Ġbehavior": 5144,
      "RA": 5145,
      "Ġ($": 5146,
      "ĠStep": 5147,
      "Ġcalls": 5148,
      "ĠFestival": 5149,
      "Ġcreating": 5150,
      "Ġmaster": 5151,
      "Ġsave": 5152,
      "ĠFund": 5153,
      "ĠAustralian": 5154,
      "eration": 5155,
      "DA": 5156,
      "Ġopportunities": 5157,
      "76": 5158,
      "sembly": 5159,
      "$$": 5160,
      "uster": 5161,
      "Ġoutput": 5162,
      "azz": 5163,
      "Ġhus": 5164,
      "Ġselected": 5165,
      "ĠCentre": 5166,
      "Ġotherwise": 5167,
      "pat": 5168,
      "ÃŃ": 5169,
      "soft": 5170,
      "pping": 5171,
      "ĠAut": 5172,
      "Ġcry": 5173,
      "Ġreflect": 5174,
      "Ġcop": 5175,
      "ĠCO": 5176,
      "ĠBo": 5177,
      "Ġselect": 5178,
      "Can": 5179,
      "Ġbrain": 5180,
      "Ġreached": 5181,
      "Ġorganizations": 5182,
      "Ġjoin": 5183,
      "ader": 5184,
      "Ġconference": 5185,
      "Ġcommit": 5186,
      "Ġahead": 5187,
      "inem": 5188,
      "ĠTest": 5189,
      "Ġmeant": 5190,
      "Ġfan": 5191,
      "Ðµ": 5192,
      "Ġadvert": 5193,
      "igan": 5194,
      "Ġsam": 5195,
      "asion": 5196,
      "Ġsolutions": 5197,
      "Ġwouldn": 5198,
      "grad": 5199,
      "rum": 5200,
      "Ġbiggest": 5201,
      "Ġraised": 5202,
      "Ġfailed": 5203,
      "lymp": 5204,
      "Ġcaused": 5205,
      "Ġkept": 5206,
      "');": 5207,
      "orney": 5208,
      "Ġexpression": 5209,
      "Ġowners": 5210,
      "gment": 5211,
      "stein": 5212,
      "ymbol": 5213,
      "otic": 5214,
      "Ġgeneration": 5215,
      "ML": 5216,
      "Ġapplications": 5217,
      "arden": 5218,
      "ĠAmericans": 5219,
      "tes": 5220,
      "nergy": 5221,
      "estic": 5222,
      "Ġminor": 5223,
      "Ġphil": 5224,
      "ĠWood": 5225,
      "Ġspread": 5226,
      "rivate": 5227,
      "Ġknows": 5228,
      "reland": 5229,
      "ĠOper": 5230,
      "ĠRights": 5231,
      "ita": 5232,
      "ĠLong": 5233,
      "ĠRoman": 5234,
      "ĠAtl": 5235,
      "uthors": 5236,
      "Ġexcell": 5237,
      "Ġcredit": 5238,
      "}[": 5239,
      "mazon": 5240,
      "Ġflu": 5241,
      "ĠIraq": 5242,
      "rapy": 5243,
      "=\"../../": 5244,
      "Ġhour": 5245,
      "Ġcommand": 5246,
      "Ġmobile": 5247,
      "Ġmale": 5248,
      "Ġcatch": 5249,
      "Ġpet": 5250,
      "Ġmaterials": 5251,
      "rite": 5252,
      "ĠPower": 5253,
      "ĠChristmas": 5254,
      "Ġspot": 5255,
      "Ġadvant": 5256,
      "Ġillust": 5257,
      "Ġoffered": 5258,
      "stream": 5259,
      "Ġ-->": 5260,
      "Ġarray": 5261,
      "Ġbrief": 5262,
      "Ġrandom": 5263,
      "Ġfaith": 5264,
      "']": 5265,
      "Ġchoose": 5266,
      "Ġrare": 5267,
      "First": 5268,
      "Out": 5269,
      "Ġfactors": 5270,
      "foot": 5271,
      "Reg": 5272,
      "Ġintroduced": 5273,
      "Ġbasic": 5274,
      "ĠFamily": 5275,
      "orrow": 5276,
      "cean": 5277,
      "SA": 5278,
      "night": 5279,
      "Ġconsult": 5280,
      "Ġesc": 5281,
      "Ġsenior": 5282,
      "Ġviews": 5283,
      "John": 5284,
      "External": 5285,
      "oms": 5286,
      "Ġoccup": 5287,
      "Ġexpert": 5288,
      "Ġcompetition": 5289,
      "doc": 5290,
      "Ġtit": 5291,
      "host": 5292,
      "ĠMuslim": 5293,
      "Ġadapt": 5294,
      "Ġpicture": 5295,
      "istance": 5296,
      "Ġdaily": 5297,
      "Ġinstr": 5298,
      "Ġdistance": 5299,
      "Ġinstall": 5300,
      "osen": 5301,
      "Ġbudget": 5302,
      "Text": 5303,
      "ĠForm": 5304,
      "Ġchief": 5305,
      "ĠEU": 5306,
      "Ġleadership": 5307,
      "lections": 5308,
      "ĠLee": 5309,
      "Ġwood": 5310,
      "Ġdefault": 5311,
      "anish": 5312,
      "ĠAlso": 5313,
      ")$.": 5314,
      "rier": 5315,
      "erry": 5316,
      "ĠMicro": 5317,
      "Ġcitizens": 5318,
      "69": 5319,
      "title": 5320,
      "alle": 5321,
      "ĠGen": 5322,
      "Ġcritic": 5323,
      "ĠCarolina": 5324,
      "ĠWho": 5325,
      "ĠParis": 5326,
      "Pe": 5327,
      "Ġdu": 5328,
      "uled": 5329,
      "ĠJes": 5330,
      "Do": 5331,
      "ĠDen": 5332,
      "Ġmentioned": 5333,
      "ĠEr": 5334,
      "max": 5335,
      "Ġvehicle": 5336,
      "bi": 5337,
      "(),": 5338,
      "hab": 5339,
      "aming": 5340,
      "85": 5341,
      "ĠGeorg": 5342,
      "Ġregarding": 5343,
      "abase": 5344,
      "Ġpush": 5345,
      "400": 5346,
      "bo": 5347,
      "Ġruns": 5348,
      "Ġsupported": 5349,
      "ĠPri": 5350,
      "Ġwarm": 5351,
      "orpor": 5352,
      "Act": 5353,
      "ĠPR": 5354,
      "xy": 5355,
      "Ġprote": 5356,
      "Ġrap": 5357,
      "Ġtask": 5358,
      "Ġslight": 5359,
      "ĠJohnson": 5360,
      "Ġut": 5361,
      "ĠCanadian": 5362,
      "Ġentry": 5363,
      "Ġmut": 5364,
      "Ġfamous": 5365,
      "Ġship": 5366,
      "Part": 5367,
      "Ass": 5368,
      "ua": 5369,
      "Ġreduce": 5370,
      "Ġblue": 5371,
      "Ġnoted": 5372,
      "Ġjobs": 5373,
      "Ġ/>": 5374,
      "aven": 5375,
      "Ġphase": 5376,
      "UL": 5377,
      "Ġsets": 5378,
      "Ġeditor": 5379,
      "Ġnotice": 5380,
      "press": 5381,
      "aren": 5382,
      "Ġlabel": 5383,
      "ingly": 5384,
      "Ġrestaur": 5385,
      "Ġdistribut": 5386,
      "Ġscore": 5387,
      "ĠBu": 5388,
      "Ġpatient": 5389,
      "ĠFree": 5390,
      "Ġeventually": 5391,
      "Ġstock": 5392,
      "ĠLord": 5393,
      "Ġhero": 5394,
      "ĠGame": 5395,
      "Ġprec": 5396,
      "Ġfields": 5397,
      "ĠSection": 5398,
      "bur": 5399,
      "ĠCam": 5400,
      "Ġcolumn": 5401,
      "alian": 5402,
      "Ġmanager": 5403,
      "Ġbusinesses": 5404,
      "61": 5405,
      "ella": 5406,
      "epsilon": 5407,
      "ani": 5408,
      "life": 5409,
      "length": 5410,
      "Ġpages": 5411,
      "Ġrelevant": 5412,
      "igen": 5413,
      "Ġsmart": 5414,
      "enced": 5415,
      "Ġenh": 5416,
      "DF": 5417,
      "bed": 5418,
      "ĠChief": 5419,
      "Ġstrength": 5420,
      "content": 5421,
      "Ġgoals": 5422,
      "Mar": 5423,
      "Ġappropriate": 5424,
      "':": 5425,
      "Ġdiscussion": 5426,
      "icians": 5427,
      "Ġcities": 5428,
      "Ġdetermined": 5429,
      "emporary": 5430,
      "ĠDu": 5431,
      "Ġattend": 5432,
      "Ġcrime": 5433,
      "zer": 5434,
      "oration": 5435,
      "ĠMexico": 5436,
      "87": 5437,
      "Ġmarried": 5438,
      "Equ": 5439,
      "Ġopinion": 5440,
      "ĠWater": 5441,
      "Ġwid": 5442,
      "ĠCommun": 5443,
      "Ġseemed": 5444,
      "psi": 5445,
      "Big": 5446,
      "ĠSpe": 5447,
      "ĠLake": 5448,
      "Ser": 5449,
      "!âĢĿ": 5450,
      "Ġrecommend": 5451,
      "1997": 5452,
      "Ġplays": 5453,
      "Ġfit": 5454,
      "Ġinvestigation": 5455,
      "cit": 5456,
      "Ġseeing": 5457,
      "rics": 5458,
      "ĠOld": 5459,
      "ĠTeam": 5460,
      "abilities": 5461,
      "rieved": 5462,
      "ĠCEO": 5463,
      "Ġattract": 5464,
      "ĠInternet": 5465,
      "ĠNY": 5466,
      "Ġfactor": 5467,
      "rows": 5468,
      "Ġliber": 5469,
      "Ġinternal": 5470,
      "Ġfra": 5471,
      "mega": 5472,
      "ĠTheir": 5473,
      "Ġfreedom": 5474,
      "ĠIll": 5475,
      "va": 5476,
      "ĠÎ": 5477,
      "Ġpolitics": 5478,
      "Ġaren": 5479,
      "ĠMcC": 5480,
      "Ġsea": 5481,
      "Ġofficer": 5482,
      "Ġlearned": 5483,
      "Home": 5484,
      "ĠAsia": 5485,
      "Ġfeeling": 5486,
      "ĠJapanese": 5487,
      "ĠJun": 5488,
      "1996": 5489,
      "1980": 5490,
      "Ð¸": 5491,
      "odies": 5492,
      "ĠRE": 5493,
      "Ġfavorite": 5494,
      "gar": 5495,
      "Ġtalent": 5496,
      "Ġnice": 5497,
      "agon": 5498,
      "uries": 5499,
      "Ġsomew": 5500,
      "ĠPolit": 5501,
      "63": 5502,
      "Ġentertain": 5503,
      "Ġrecorded": 5504,
      "Ġdebut": 5505,
      "ĠHead": 5506,
      "ategories": 5507,
      "ĠEnter": 5508,
      "Ġpolicies": 5509,
      "Ġstated": 5510,
      "Ġcapacity": 5511,
      "stitution": 5512,
      "ĠAbout": 5513,
      "kins": 5514,
      "ĠAcademy": 5515,
      "osoph": 5516,
      "Ġwish": 5517,
      "ĠSpecial": 5518,
      "Ġrespectively": 5519,
      "DE": 5520,
      "that": 5521,
      "Ġchallenges": 5522,
      "}_{\\": 5523,
      "Ġneighbor": 5524,
      "Ġequal": 5525,
      "ifically": 5526,
      "ensions": 5527,
      "May": 5528,
      "ĠMedical": 5529,
      "oses": 5530,
      "allery": 5531,
      "Ġprotection": 5532,
      "Ġrise": 5533,
      "unte": 5534,
      "Ġhusband": 5535,
      "Ġended": 5536,
      "Ġmarg": 5537,
      "aylor": 5538,
      "ĠLibrary": 5539,
      "Ġdamage": 5540,
      "Field": 5541,
      "ĠBoy": 5542,
      "ĠElect": 5543,
      "ĠIreland": 5544,
      "ĠMa": 5545,
      "Ġconcent": 5546,
      "ĠCharles": 5547,
      "ride": 5548,
      "ĠAccording": 5549,
      "related": 5550,
      "Ġeye": 5551,
      "going": 5552,
      "oted": 5553,
      "Ġcert": 5554,
      "Ġyourself": 5555,
      "ĠDi": 5556,
      "Ġdevices": 5557,
      "ĠCr": 5558,
      "Ġtrou": 5559,
      "EW": 5560,
      "ĠCA": 5561,
      "ĠInvest": 5562,
      "thlet": 5563,
      "Ġitems": 5564,
      "chi": 5565,
      "Ġplaced": 5566,
      "Ġwall": 5567,
      "Ġrestrict": 5568,
      "ultural": 5569,
      "ĠSand": 5570,
      "Ġwait": 5571,
      "Ps": 5572,
      "Ġtemperature": 5573,
      "Ġobserved": 5574,
      "Ge": 5575,
      "Ġcore": 5576,
      "Last": 5577,
      "ih": 5578,
      "asket": 5579,
      "ĠDivision": 5580,
      "power": 5581,
      "Ġrequirements": 5582,
      "Ġfresh": 5583,
      "Go": 5584,
      "Ġstandards": 5585,
      "ansion": 5586,
      "Ġenvironmental": 5587,
      "Here": 5588,
      "ĠPan": 5589,
      "Ġthr": 5590,
      "cos": 5591,
      "Ġfant": 5592,
      "Ġapparent": 5593,
      "Ġdecades": 5594,
      "ĠChris": 5595,
      "Ġmist": 5596,
      "Ġlov": 5597,
      "Ġbed": 5598,
      "Ġthousands": 5599,
      "Ġalgorith": 5600,
      "Ã¼": 5601,
      "ĠBet": 5602,
      "Ġvillage": 5603,
      "Ġarm": 5604,
      "Ġheavy": 5605,
      "ircraft": 5606,
      "Ġstreet": 5607,
      "Ġapplied": 5608,
      "Ġshowing": 5609,
      "62": 5610,
      "Ġproceed": 5611,
      "Ġbeat": 5612,
      "Ġolder": 5613,
      "map": 5614,
      "ĠJustice": 5615,
      "poses": 5616,
      "Ġdetermine": 5617,
      "Ġidentified": 5618,
      "asure": 5619,
      "Ġrequires": 5620,
      "arant": 5621,
      "72": 5622,
      "ĠValley": 5623,
      "Ġfloor": 5624,
      "Ġexperien": 5625,
      "uilding": 5626,
      "while": 5627,
      "ĠAlthough": 5628,
      "89": 5629,
      "Ġnor": 5630,
      "``": 5631,
      "ĠčĊ": 5632,
      "othing": 5633,
      "clusive": 5634,
      "Ġspeech": 5635,
      "ĠGal": 5636,
      "Ġstars": 5637,
      "Ġbecoming": 5638,
      "ĠAwards": 5639,
      "Path": 5640,
      "Ġcoord": 5641,
      "iments": 5642,
      "iate": 5643,
      "ears": 5644,
      "okes": 5645,
      "can": 5646,
      "config": 5647,
      "ĠNetwork": 5648,
      "ĠAff": 5649,
      "Ġperspect": 5650,
      "psilon": 5651,
      "ingu": 5652,
      "Ġdefense": 5653,
      "ĠÂ·": 5654,
      "ĠVirginia": 5655,
      "Ġconsequ": 5656,
      "Ġalle": 5657,
      "ĠDuring": 5658,
      "inton": 5659,
      "ĠLab": 5660,
      "DT": 5661,
      "lig": 5662,
      "stra": 5663,
      "ĠSenate": 5664,
      "ERS": 5665,
      "Ġleaving": 5666,
      "Ġsav": 5667,
      "eqnarray": 5668,
      "Ġtrip": 5669,
      "olec": 5670,
      "Ġtrend": 5671,
      "gency": 5672,
      "Ġtools": 5673,
      "tra": 5674,
      "ĠYoung": 5675,
      "ĠMot": 5676,
      "Ġclient": 5677,
      "draw": 5678,
      "Ġphoto": 5679,
      "Ġtruly": 5680,
      "Ġcars": 5681,
      "ĠJeff": 5682,
      "ĠJones": 5683,
      "olean": 5684,
      "ĠHaw": 5685,
      "anging": 5686,
      "iques": 5687,
      "Ġexerc": 5688,
      "ĠMike": 5689,
      "ĠMen": 5690,
      "ĠVis": 5691,
      "duction": 5692,
      "Ġidentity": 5693,
      "ĠMany": 5694,
      "ĠSecond": 5695,
      "Ġtransl": 5696,
      "Ġvisual": 5697,
      "Ġparameters": 5698,
      "Ġguess": 5699,
      "look": 5700,
      "Ġmostly": 5701,
      "Ġmachine": 5702,
      "ĠJewish": 5703,
      "run": 5704,
      "Ġforced": 5705,
      "ĠCy": 5706,
      "Ġtro": 5707,
      "Ġsustain": 5708,
      "escription": 5709,
      "onic": 5710,
      "GB": 5711,
      "Ġresearc": 5712,
      "Ġwww": 5713,
      "spec": 5714,
      "Ġdeveloping": 5715,
      "Comm": 5716,
      "ĠBob": 5717,
      "Ġlived": 5718,
      "raphics": 5719,
      "roud": 5720,
      "Ġfunds": 5721,
      "west": 5722,
      "fit": 5723,
      "hens": 5724,
      "ĠDesign": 5725,
      "Ġarticles": 5726,
      "Ġschol": 5727,
      "ĠCorpor": 5728,
      "ĠFederal": 5729,
      "%)": 5730,
      "amin": 5731,
      "Ġresidents": 5732,
      "ĠProt": 5733,
      "phone": 5734,
      "1995": 5735,
      "Ġhistorical": 5736,
      "ocked": 5737,
      "apping": 5738,
      "EX": 5739,
      "CO": 5740,
      "emy": 5741,
      "acific": 5742,
      "?\"": 5743,
      "ĠOlymp": 5744,
      "ĠWay": 5745,
      "Ġprefer": 5746,
      "sqrt": 5747,
      "Ġobtain": 5748,
      "itche": 5749,
      "urban": 5750,
      "Ġdoubt": 5751,
      "Ġunits": 5752,
      "how": 5753,
      "illa": 5754,
      "Ġfourth": 5755,
      "Ġagency": 5756,
      "Ġguys": 5757,
      "inding": 5758,
      "astern": 5759,
      "omin": 5760,
      "ĠAND": 5761,
      "ĠCast": 5762,
      "Ġpair": 5763,
      "gal": 5764,
      "core": 5765,
      "Ġtells": 5766,
      "Ġfell": 5767,
      "Per": 5768,
      "ĠMov": 5769,
      "79": 5770,
      "ĠDou": 5771,
      "oston": 5772,
      "Some": 5773,
      "Ġsect": 5774,
      ".âĢĻ": 5775,
      "ĠCatholic": 5776,
      "Ġnone": 5777,
      "ydro": 5778,
      "next": 5779,
      "Ġnuclear": 5780,
      "aine": 5781,
      "true": 5782,
      "Ġseparate": 5783,
      "Ġfif": 5784,
      "esh": 5785,
      "ĠJon": 5786,
      "Request": 5787,
      "agged": 5788,
      "page": 5789,
      "ĠKingdom": 5790,
      "LC": 5791,
      "Ġcrowd": 5792,
      "ui": 5793,
      "Ġfinished": 5794,
      "center": 5795,
      "ĠMiddle": 5796,
      "parent": 5797,
      "Ġcomfort": 5798,
      "Ġequipment": 5799,
      "Service": 5800,
      "Ġarrang": 5801,
      "Ġlabor": 5802,
      "ATION": 5803,
      "akistan": 5804,
      "ruit": 5805,
      "Ġappeal": 5806,
      "vare": 5807,
      "About": 5808,
      "ĠWall": 5809,
      "Art": 5810,
      "ĠDev": 5811,
      "Ġdestroy": 5812,
      "Ġrail": 5813,
      "ĠBack": 5814,
      "Ġhyp": 5815,
      "ship": 5816,
      "Ġwindow": 5817,
      "Index": 5818,
      "Ġconnected": 5819,
      "Ġonto": 5820,
      ")$,": 5821,
      "Ġrich": 5822,
      "Bar": 5823,
      "rastructure": 5824,
      "Ġsmaller": 5825,
      "inking": 5826,
      "Ġsteps": 5827,
      "Ġexecutive": 5828,
      "UM": 5829,
      "Us": 5830,
      "Ġdriving": 5831,
      "gers": 5832,
      "fe": 5833,
      "Ġedge": 5834,
      "Gamma": 5835,
      "oria": 5836,
      "achel": 5837,
      "Ġpun": 5838,
      "pty": 5839,
      "Ġargument": 5840,
      "rence": 5841,
      "gt": 5842,
      "Che": 5843,
      "version": 5844,
      "Ġvision": 5845,
      "Ġbottom": 5846,
      "ĠHor": 5847,
      "Ġreplace": 5848,
      "ĠOrgan": 5849,
      "Ġdefe": 5850,
      "Ġjustice": 5851,
      "atically": 5852,
      "ĠConference": 5853,
      "ĠApple": 5854,
      "md": 5855,
      "ĠFort": 5856,
      "ĠGames": 5857,
      "claim": 5858,
      "Ġpaint": 5859,
      "iency": 5860,
      "Ġmeasures": 5861,
      "Ġissued": 5862,
      "cles": 5863,
      "ideos": 5864,
      "These": 5865,
      "Ġuseful": 5866,
      "names": 5867,
      "^*": 5868,
      "Ġtend": 5869,
      "Ġupdate": 5870,
      "ĠSports": 5871,
      "osc": 5872,
      "inder": 5873,
      "Ġwinning": 5874,
      "Ġcommunication": 5875,
      "ĠSar": 5876,
      "Mr": 5877,
      "Ġfinding": 5878,
      "gypt": 5879,
      "Ġlaunched": 5880,
      "ersion": 5881,
      "iana": 5882,
      "ĠScot": 5883,
      "friend": 5884,
      "ĠAmazon": 5885,
      "Ġcoast": 5886,
      "Ġvir": 5887,
      "api": 5888,
      "Ġwatching": 5889,
      "Ġherself": 5890,
      "71": 5891,
      "base": 5892,
      "Ġformed": 5893,
      "void": 5894,
      "Ġlin": 5895,
      "BI": 5896,
      "irmed": 5897,
      "ECT": 5898,
      "Ġholds": 5899,
      "CR": 5900,
      "caption": 5901,
      "Ġtree": 5902,
      "ĠDown": 5903,
      "odd": 5904,
      "Ġapprec": 5905,
      "ogen": 5906,
      "Ġanimals": 5907,
      "/*": 5908,
      "ĠId": 5909,
      "ancer": 5910,
      "ĠPenn": 5911,
      "ĠAuthor": 5912,
      "Ġap": 5913,
      "Ġmissing": 5914,
      "case": 5915,
      "node": 5916,
      "Ġmarketing": 5917,
      "itage": 5918,
      "Ġamazing": 5919,
      "Ġdepartment": 5920,
      "/**": 5921,
      "Ġsymbol": 5922,
      "secut": 5923,
      "Co": 5924,
      "Ġweak": 5925,
      "ĠPolice": 5926,
      "1994": 5927,
      "Ġyouth": 5928,
      "ĠSecretary": 5929,
      "Ġwitness": 5930,
      "jo": 5931,
      "Ġgirls": 5932,
      "Ġunivers": 5933,
      "real": 5934,
      "ĠStand": 5935,
      "HS": 5936,
      "ĠSup": 5937,
      "ĠTri": 5938,
      "Ġnode": 5939,
      "FA": 5940,
      "ĠIts": 5941,
      "Ġjoint": 5942,
      "opyright": 5943,
      "stances": 5944,
      "ĠForce": 5945,
      "Ġjourney": 5946,
      "PE": 5947,
      "Ġrevealed": 5948,
      "prot": 5949,
      "ĠWilliams": 5950,
      "Ġinterpret": 5951,
      "enses": 5952,
      "Ġproof": 5953,
      "Omega": 5954,
      "Ġowner": 5955,
      "ĠSet": 5956,
      "Ġoperating": 5957,
      "bm": 5958,
      "Ġcriminal": 5959,
      "omy": 5960,
      "CD": 5961,
      "CS": 5962,
      "ucky": 5963,
      "subsection": 5964,
      "Ġvolume": 5965,
      "Dis": 5966,
      "Ġmusical": 5967,
      "Ġmanaged": 5968,
      "Ġ);": 5969,
      "icit": 5970,
      "athan": 5971,
      "ĠJoe": 5972,
      "Ġcarried": 5973,
      "ĠAny": 5974,
      "nam": 5975,
      "ĠEnergy": 5976,
      "ao": 5977,
      "arks": 5978,
      "ĠAdminist": 5979,
      "Ġdecre": 5980,
      "ĠLike": 5981,
      "Ġnegative": 5982,
      "Ġnav": 5983,
      "Ġcircum": 5984,
      "Pr": 5985,
      "86": 5986,
      "ĠLiber": 5987,
      "TV": 5988,
      "input": 5989,
      "Ġidentify": 5990,
      "ivery": 5991,
      "ona": 5992,
      "Ġsumm": 5993,
      "Ġdra": 5994,
      "racy": 5995,
      "aks": 5996,
      "ician": 5997,
      "nor": 5998,
      "yth": 5999,
      "Ġconclud": 6000,
      "OU": 6001,
      "idel": 6002,
      "ĠProv": 6003,
      "Table": 6004,
      "1970": 6005,
      "isms": 6006,
      "Ġbelong": 6007,
      "Ġcloud": 6008,
      "ĠAndrew": 6009,
      "Ġauthority": 6010,
      "iced": 6011,
      "****************": 6012,
      "Ġdiagn": 6013,
      "Ġbuildings": 6014,
      "ync": 6015,
      "Ġmovies": 6016,
      "Ġleads": 6017,
      "Ġfocused": 6018,
      "74": 6019,
      "PL": 6020,
      "][": 6021,
      "Ġresource": 6022,
      "Ġloved": 6023,
      "Ġwhatever": 6024,
      "Ġheight": 6025,
      "ĠBritain": 6026,
      "Ġran": 6027,
      "Ġthanks": 6028,
      "ĠBecause": 6029,
      "arts": 6030,
      "ĠLast": 6031,
      "Ġsale": 6032,
      "ographic": 6033,
      "Config": 6034,
      "unately": 6035,
      "Ġchannel": 6036,
      "phas": 6037,
      "Ġselection": 6038,
      "Ġice": 6039,
      "ilter": 6040,
      "Ġhappens": 6041,
      "Ġprotected": 6042,
      "iat": 6043,
      "block": 6044,
      "++": 6045,
      "ĠCharl": 6046,
      "Ġweekend": 6047,
      "arl": 6048,
      "refore": 6049,
      "ĠStudies": 6050,
      "Ġkid": 6051,
      "ĠZeal": 6052,
      "Ġattacks": 6053,
      "Ġposted": 6054,
      "ptions": 6055,
      "airman": 6056,
      "Info": 6057,
      "eller": 6058,
      "Ġlit": 6059,
      "Ġhearing": 6060,
      "bra": 6061,
      "Ġsupply": 6062,
      "Gu": 6063,
      "Ġthank": 6064,
      "ATE": 6065,
      "='": 6066,
      "Ret": 6067,
      "Ã¶": 6068,
      "textbf": 6069,
      "lywood": 6070,
      "Fl": 6071,
      "olved": 6072,
      "uts": 6073,
      "Ġpractices": 6074,
      "Ġforest": 6075,
      "Ġincred": 6076,
      "Ġunless": 6077,
      "Ġsignal": 6078,
      "Ġimpl": 6079,
      "Ġcovered": 6080,
      "Ġofficers": 6081,
      "Source": 6082,
      "93": 6083,
      "info": 6084,
      "Te": 6085,
      "ĠNight": 6086,
      "long": 6087,
      "Ġmental": 6088,
      "Ġfix": 6089,
      "Ġtechnical": 6090,
      "Ġnine": 6091,
      "Ġguitar": 6092,
      "Ġtraffic": 6093,
      "Ġdefend": 6094,
      "razil": 6095,
      "Ġbul": 6096,
      "Ġban": 6097,
      "Ġcrisis": 6098,
      "oz": 6099,
      "Ġclick": 6100,
      "Ġspend": 6101,
      "Ġsupposed": 6102,
      "child": 6103,
      "ensus": 6104,
      "ras": 6105,
      "Ġexperiences": 6106,
      "ba": 6107,
      "NS": 6108,
      "Ġoptim": 6109,
      "Next": 6110,
      "ĠFire": 6111,
      "Ġvert": 6112,
      "Ġinterests": 6113,
      "ooth": 6114,
      "Ġpil": 6115,
      "Ġprocesses": 6116,
      "Ġfuel": 6117,
      "elled": 6118,
      "ĠZealand": 6119,
      "ĠPop": 6120,
      "ĠHospital": 6121,
      "otes": 6122,
      "uan": 6123,
      "Ġnotes": 6124,
      "ĠProfessor": 6125,
      "ĠIndust": 6126,
      "Ġ${\\": 6127,
      "iliar": 6128,
      "arp": 6129,
      "||": 6130,
      "Ġagreed": 6131,
      "Ġdefinitely": 6132,
      "lies": 6133,
      "ums": 6134,
      "ĠWrit": 6135,
      "ĠKen": 6136,
      "Ġreform": 6137,
      "73": 6138,
      "Ġexception": 6139,
      "Ġpurposes": 6140,
      "Map": 6141,
      "otal": 6142,
      "~~": 6143,
      "Ġburn": 6144,
      "ĠGra": 6145,
      "varepsilon": 6146,
      "())": 6147,
      "ĠVer": 6148,
      "eah": 6149,
      "150": 6150,
      "Ġextremely": 6151,
      "Ġraise": 6152,
      "Ġshape": 6153,
      "ĠItaly": 6154,
      "Ġdecisions": 6155,
      "Ġpanel": 6156,
      "ossible": 6157,
      "ĠSpace": 6158,
      "ulty": 6159,
      "Ġsession": 6160,
      "Node": 6161,
      "zen": 6162,
      "ĠBas": 6163,
      "proof": 6164,
      "ĠBlue": 6165,
      "abeth": 6166,
      "Ġimportance": 6167,
      "iders": 6168,
      "ĠLim": 6169,
      "Ġcentre": 6170,
      "Ġlisten": 6171,
      "Ġhelping": 6172,
      "Hand": 6173,
      "Ġcandidate": 6174,
      "94": 6175,
      "scape": 6176,
      "ading": 6177,
      "Ġsample": 6178,
      "nab": 6179,
      "orters": 6180,
      "gent": 6181,
      "ĠFox": 6182,
      "Top": 6183,
      "Ġcommitted": 6184,
      "Ġfacilities": 6185,
      "Ġlisted": 6186,
      "Ġmode": 6187,
      "Ġbra": 6188,
      "ĠEll": 6189,
      "Ġdie": 6190,
      "dule": 6191,
      "ĠWin": 6192,
      "ÑĤ": 6193,
      "Ġdownload": 6194,
      "Ġdial": 6195,
      "ĠFrancisco": 6196,
      "Ġsrc": 6197,
      "ðŁ": 6198,
      "Ġalternative": 6199,
      "Ġtesting": 6200,
      "ĠColl": 6201,
      "Ġmarriage": 6202,
      "Ġdocuments": 6203,
      "Ġfailure": 6204,
      "Ġscientific": 6205,
      "Ġcalling": 6206,
      "ĠFood": 6207,
      "Ġaircraft": 6208,
      "Ġoffering": 6209,
      "ĠToday": 6210,
      "ora": 6211,
      "uls": 6212,
      "Ġadvantage": 6213,
      "iform": 6214,
      "yles": 6215,
      "Ġconcerns": 6216,
      "Ġclinical": 6217,
      "rightarrow": 6218,
      "Ġnumerous": 6219,
      "Ġsurvey": 6220,
      "Ġcamera": 6221,
      "Context": 6222,
      "Ġstarts": 6223,
      "Image": 6224,
      "FC": 6225,
      "Size": 6226,
      "war": 6227,
      "Ġhaven": 6228,
      "DS": 6229,
      "ĠMax": 6230,
      "inating": 6231,
      "Ġexplain": 6232,
      "isters": 6233,
      "rivacy": 6234,
      "Ġprove": 6235,
      "Ġmaximum": 6236,
      "Just": 6237,
      "Ġfixed": 6238,
      "law": 6239,
      "Ġadvice": 6240,
      "Ġclasses": 6241,
      "1993": 6242,
      "lient": 6243,
      "Ġsubsequ": 6244,
      "ograp": 6245,
      "92": 6246,
      "Ġreduced": 6247,
      "po": 6248,
      "^{(": 6249,
      "ĠIns": 6250,
      "ĠBow": 6251,
      "ĠPo": 6252,
      ".;": 6253,
      "Ġauthors": 6254,
      "Ġshift": 6255,
      "1992": 6256,
      "Ġkm": 6257,
      "Ġsignificantly": 6258,
      "ĠJoseph": 6259,
      "Ġdriver": 6260,
      "ĠAud": 6261,
      "cknow": 6262,
      "Hist": 6263,
      "free": 6264,
      "rees": 6265,
      "ponse": 6266,
      "Am": 6267,
      "ĠDemocratic": 6268,
      "Ġexchange": 6269,
      "Ġtransition": 6270,
      "Dr": 6271,
      "Count": 6272,
      "Ġdirected": 6273,
      "Ġdig": 6274,
      "Ġ:=": 6275,
      "Ġpassion": 6276,
      "Eng": 6277,
      "}=": 6278,
      "ker": 6279,
      "Ġvan": 6280,
      "ĠView": 6281,
      "Ġconflict": 6282,
      "Ġadvoc": 6283,
      "ĠCard": 6284,
      "stract": 6285,
      "Ġdefinition": 6286,
      "Ø§": 6287,
      "ctors": 6288,
      "Ent": 6289,
      "cript": 6290,
      "ĠRepublican": 6291,
      "Ġmonitor": 6292,
      "Â©": 6293,
      "Ġobjects": 6294,
      "84": 6295,
      "Ġdisp": 6296,
      "ĠĠĠĠĠĠĠĠĠĠĠĠĠĠĠĠĠĠĠĠĠĠĠĠĠĠĠ": 6297,
      "ĠTaylor": 6298,
      "82": 6299,
      "Ġsounds": 6300,
      "ĠCivil": 6301,
      "ĠIT": 6302,
      "ĠFig": 6303,
      "ĠLog": 6304,
      "iano": 6305,
      "kin": 6306,
      "??": 6307,
      "83": 6308,
      "Ġevening": 6309,
      "ipped": 6310,
      "ĠFoot": 6311,
      "count": 6312,
      "ĠColumb": 6313,
      "amm": 6314,
      "Ġplot": 6315,
      "Ġcreative": 6316,
      "Ġapproximately": 6317,
      "Des": 6318,
      "object": 6319,
      "Ġdedicated": 6320,
      "ĠWild": 6321,
      "Ġhousing": 6322,
      "ĠEnvironment": 6323,
      "Ġzero": 6324,
      "Ġbelief": 6325,
      "Ġexcellent": 6326,
      "rants": 6327,
      "According": 6328,
      "}^{\\": 6329,
      "Ġking": 6330,
      "ĠVan": 6331,
      "Ġreject": 6332,
      "SU": 6333,
      "Ġequival": 6334,
      "Ġguide": 6335,
      "\"\"": 6336,
      "ĠHon": 6337,
      "Ġprofession": 6338,
      "aked": 6339,
      "orph": 6340,
      "Ġrapid": 6341,
      "Ġsport": 6342,
      "Ġmotion": 6343,
      "inations": 6344,
      "Ġchanging": 6345,
      "ye": 6346,
      "ura": 6347,
      "ĠTH": 6348,
      "Ġhair": 6349,
      "obe": 6350,
      "Well": 6351,
      "ĠAv": 6352,
      "ĠBoston": 6353,
      "Ġcommission": 6354,
      "ĠHenry": 6355,
      "adium": 6356,
      "Ġfashion": 6357,
      "Ġuniversity": 6358,
      "Ġcold": 6359,
      "However": 6360,
      "utely": 6361,
      "Ġmassive": 6362,
      "Ġprocessing": 6363,
      "icate": 6364,
      "HT": 6365,
      "Ġinjury": 6366,
      "ĠPage": 6367,
      "Ġclassic": 6368,
      "ĠStr": 6369,
      "Ġintended": 6370,
      "Ġisland": 6371,
      "ĠSaf": 6372,
      "ĠLear": 6373,
      "ĠDaniel": 6374,
      "Ġmarkets": 6375,
      ")=": 6376,
      "PC": 6377,
      "oat": 6378,
      "Ġheat": 6379,
      "Ġdebate": 6380,
      "Ġrom": 6381,
      "illy": 6382,
      "Ġfle": 6383,
      "Ġprepar": 6384,
      "ASS": 6385,
      "iday": 6386,
      "rust": 6387,
      "Ġadjust": 6388,
      "ĠWal": 6389,
      "Ġedition": 6390,
      "ĠEach": 6391,
      "91": 6392,
      "Ġannounce": 6393,
      "lishing": 6394,
      "ls": 6395,
      "ifier": 6396,
      "ĠPakistan": 6397,
      "ĠField": 6398,
      "iples": 6399,
      "Ġremoved": 6400,
      "Ġbrings": 6401,
      "Ġacademic": 6402,
      "Ġdraft": 6403,
      "Ġdrop": 6404,
      "Ġexists": 6405,
      "ĠTheatre": 6406,
      "';": 6407,
      "Log": 6408,
      "Ġplus": 6409,
      "ĠCre": 6410,
      "ĠFar": 6411,
      "Ġwest": 6412,
      "ĠThus": 6413,
      "Ġflight": 6414,
      "iser": 6415,
      "ĠTer": 6416,
      "ĠMu": 6417,
      "ĠGirl": 6418,
      "pire": 6419,
      "Ġcomponents": 6420,
      "elly": 6421,
      "Ġrot": 6422,
      "ĠTO": 6423,
      "Ġshut": 6424,
      "news": 6425,
      "bb": 6426,
      "Ġdescription": 6427,
      "ati": 6428,
      "Since": 6429,
      "RI": 6430,
      "Ġteaching": 6431,
      "Ġnorm": 6432,
      "adow": 6433,
      "Ġformat": 6434,
      "gs": 6435,
      "ipe": 6436,
      "Ġinn": 6437,
      "Ġmanner": 6438,
      "egraphics": 6439,
      "includegraphics": 6440,
      "Ġjump": 6441,
      "Ġsleep": 6442,
      "rical": 6443,
      "inet": 6444,
      "Ġmetal": 6445,
      "Ġnarr": 6446,
      "ĠItalian": 6447,
      "Ġcombination": 6448,
      "Ġamb": 6449,
      "ĠDonald": 6450,
      "Ġexplained": 6451,
      "rowser": 6452,
      "erman": 6453,
      "Ġ(!": 6454,
      "acter": 6455,
      "Ġhelps": 6456,
      "ĠExper": 6457,
      "Ġgain": 6458,
      "Ġprices": 6459,
      "Ġcrew": 6460,
      "Ġstorage": 6461,
      "Net": 6462,
      "urd": 6463,
      "Ġnewsp": 6464,
      "vec": 6465,
      "ĠEgypt": 6466,
      "aste": 6467,
      "ĠGeorgia": 6468,
      "Ġinstitutions": 6469,
      "ilton": 6470,
      "Ġbalance": 6471,
      "Ġsan": 6472,
      "Ġweather": 6473,
      "water": 6474,
      "hent": 6475,
      "Ġrelative": 6476,
      "Ġille": 6477,
      "Ġadvent": 6478,
      "Ġitem": 6479,
      "ato": 6480,
      "Ġdiscovered": 6481,
      "Code": 6482,
      "âĢĻ.": 6483,
      "ĠInf": 6484,
      "Ġclients": 6485,
      "ĠChildren": 6486,
      "Ġancient": 6487,
      "Ġwilling": 6488,
      "Ġreturns": 6489,
      "NN": 6490,
      "Ġcommittee": 6491,
      "ĠSouthern": 6492,
      "Ġholding": 6493,
      "Ġcomponent": 6494,
      "rangle": 6495,
      "php": 6496,
      "Build": 6497,
      "Ġvehicles": 6498,
      "Ġevolution": 6499,
      "pdf": 6500,
      "rank": 6501,
      "Ġglass": 6502,
      "Ġcombined": 6503,
      "star": 6504,
      "Ġconcert": 6505,
      "Ġagent": 6506,
      "asketball": 6507,
      "####": 6508,
      "ULL": 6509,
      "Ġconducted": 6510,
      "Ġcorresponding": 6511,
      "Ġton": 6512,
      "resents": 6513,
      "Ġliterature": 6514,
      "ĠSpanish": 6515,
      "ĠUk": 6516,
      "ĠVi": 6517,
      "hetic": 6518,
      "een": 6519,
      "forcement": 6520,
      "Ġq": 6521,
      "Ġ\\,": 6522,
      "izabeth": 6523,
      "ĠSteve": 6524,
      "greg": 6525,
      "hop": 6526,
      "dim": 6527,
      ".}": 6528,
      "Ġdiscussed": 6529,
      "Ġfighting": 6530,
      "Ġproud": 6531,
      "oles": 6532,
      "Ġexecut": 6533,
      "struct": 6534,
      "ĠRetrieved": 6535,
      "ĠPalest": 6536,
      "Ð½": 6537,
      "Ġabuse": 6538,
      "Ġhomes": 6539,
      "ushed": 6540,
      "Ġindeed": 6541,
      "âĢĻ,": 6542,
      "actory": 6543,
      "81": 6544,
      "Ġregional": 6545,
      "mond": 6546,
      "Ġcash": 6547,
      "ĠJackson": 6548,
      "Ġessential": 6549,
      "ĠColor": 6550,
      "Ġminimum": 6551,
      "irty": 6552,
      "check": 6553,
      "ĠStory": 6554,
      "Ġauthorities": 6555,
      "Ġkick": 6556,
      "ĠBoth": 6557,
      "Ġpurchase": 6558,
      "Ġphotos": 6559,
      "Ġeast": 6560,
      "Ġpoet": 6561,
      "ĠReal": 6562,
      "Ġresponsibility": 6563,
      "Tags": 6564,
      "Ġexamples": 6565,
      "Gl": 6566,
      "mult": 6567,
      "ican": 6568,
      "othes": 6569,
      "Ġdifferences": 6570,
      "Ġdivid": 6571,
      "Ġreaders": 6572,
      "ĠIss": 6573,
      "Ġsoul": 6574,
      "Ġ/*": 6575,
      "Ġleague": 6576,
      "ĠBeach": 6577,
      "Ġadvance": 6578,
      "ĠKh": 6579,
      "Ġalleged": 6580,
      "OG": 6581,
      "Ġsupporting": 6582,
      "Ġelected": 6583,
      "ĠÂ©": 6584,
      "ocracy": 6585,
      "Ġdensity": 6586,
      "Ġwaiting": 6587,
      "Element": 6588,
      "Ġphen": 6589,
      "ployment": 6590,
      "izer": 6591,
      "Ġoriginally": 6592,
      "Ġroute": 6593,
      "PM": 6594,
      "nament": 6595,
      "Em": 6596,
      "nic": 6597,
      "Ġcompos": 6598,
      "Ġstress": 6599,
      "ĠSupreme": 6600,
      "scale": 6601,
      "ĠIrish": 6602,
      "Ġcharges": 6603,
      "ĠJac": 6604,
      "Ġcontrast": 6605,
      "Ġwealth": 6606,
      "oric": 6607,
      "ĠJesus": 6608,
      "Will": 6609,
      "ĠPacific": 6610,
      ">&": 6611,
      "ainer": 6612,
      "ĠCall": 6613,
      "vin": 6614,
      "rehens": 6615,
      "default": 6616,
      "EST": 6617,
      "web": 6618,
      "Ġturns": 6619,
      "Ġrelatively": 6620,
      "ean": 6621,
      "Ġhab": 6622,
      "ups": 6623,
      "Ġdepart": 6624,
      "ĠRom": 6625,
      "posed": 6626,
      "Ġdefine": 6627,
      "Ġbegins": 6628,
      "igger": 6629,
      "Ġdecade": 6630,
      "ĠWhe": 6631,
      "Ġutil": 6632,
      "asters": 6633,
      "ĠBrad": 6634,
      "ĠAR": 6635,
      "Ġsequence": 6636,
      "coh": 6637,
      "arian": 6638,
      "kes": 6639,
      "Ġcustomer": 6640,
      "olve": 6641,
      "Ġgenerated": 6642,
      "utch": 6643,
      "Ġunf": 6644,
      "Ġnegot": 6645,
      "pol": 6646,
      "ĠExecutive": 6647,
      "TC": 6648,
      "create": 6649,
      "Ġprepared": 6650,
      "ĠLive": 6651,
      "Ġhotel": 6652,
      "anges": 6653,
      "Ġconcerned": 6654,
      "Ġdance": 6655,
      "ĠPerson": 6656,
      "cor": 6657,
      "ipal": 6658,
      "ĠMid": 6659,
      "ĠJr": 6660,
      "Ġretail": 6661,
      "Ġbelieved": 6662,
      "Ġfeels": 6663,
      "Ġperspective": 6664,
      "Ġalign": 6665,
      "ĠNig": 6666,
      "ĠAdv": 6667,
      "century": 6668,
      "ĠQueen": 6669,
      "ĠWalk": 6670,
      "Ġcoverage": 6671,
      "ĠEqu": 6672,
      "mosp": 6673,
      "unicip": 6674,
      "Ġentirely": 6675,
      "dden": 6676,
      "Ġ},": 6677,
      "has": 6678,
      "rison": 6679,
      "TY": 6680,
      "ĠMaster": 6681,
      "iveness": 6682,
      "Ġdomain": 6683,
      "ĠPhys": 6684,
      "Model": 6685,
      "uations": 6686,
      "Ġment": 6687,
      "Ġwave": 6688,
      "ansas": 6689,
      "Ġhonest": 6690,
      "Ġfundament": 6691,
      "ÑĢ": 6692,
      "1991": 6693,
      "ĠWat": 6694,
      "Ġfiles": 6695,
      "ĠHa": 6696,
      "Ġvolunte": 6697,
      "rich": 6698,
      "idential": 6699,
      "Ġaffected": 6700,
      "iki": 6701,
      "Ġbird": 6702,
      "Ġreligion": 6703,
      "Ġupper": 6704,
      "Back": 6705,
      "Ġ});": 6706,
      "ĠGar": 6707,
      "Ġintelligence": 6708,
      "ocket": 6709,
      "Ġskin": 6710,
      "Ġslightly": 6711,
      "Ġcaught": 6712,
      "Ġfacility": 6713,
      "Other": 6714,
      "cho": 6715,
      "Ġgender": 6716,
      "Pub": 6717,
      "Ġvictory": 6718,
      "Ġadding": 6719,
      "ishes": 6720,
      "ĠKim": 6721,
      "Ġlose": 6722,
      "search": 6723,
      "Ġremaining": 6724,
      "mes": 6725,
      "Ã¤": 6726,
      "lay": 6727,
      "ĠFed": 6728,
      "Array": 6729,
      "model": 6730,
      "Ġinsurance": 6731,
      "Ġexperienced": 6732,
      "Ġodd": 6733,
      "ĠTrust": 6734,
      "ĠRo": 6735,
      "Ġafford": 6736,
      "Ġscript": 6737,
      "Ġregions": 6738,
      "ĠÃĥ": 6739,
      "Ġworse": 6740,
      "Ġcategory": 6741,
      "Ġassume": 6742,
      "rative": 6743,
      "Ġfigures": 6744,
      "Photo": 6745,
      "ador": 6746,
      "aph": 6747,
      "Ġtradition": 6748,
      "assert": 6749,
      "aders": 6750,
      "start": 6751,
      "Ġtreated": 6752,
      "rome": 6753,
      "lication": 6754,
      "Ġanimal": 6755,
      "Ġrelationships": 6756,
      "Ġguarant": 6757,
      "ĠHy": 6758,
      "1960": 6759,
      "Ġsac": 6760,
      "inson": 6761,
      "Ġpieces": 6762,
      "Ġseek": 6763,
      "Ġterrit": 6764,
      "Ġregistered": 6765,
      "Ġbond": 6766,
      "ĠAri": 6767,
      "Item": 6768,
      "Ġcorporate": 6769,
      "aught": 6770,
      "0000": 6771,
      "uffer": 6772,
      "Ġmotor": 6773,
      "Ġsubs": 6774,
      "Ġestimated": 6775,
      "Message": 6776,
      "Ġchemical": 6777,
      "Ĥ¬": 6778,
      "Ġemphas": 6779,
      "current": 6780,
      "oster": 6781,
      "Ġcreation": 6782,
      "Ġresolution": 6783,
      "ĠBooks": 6784,
      "Ġallowing": 6785,
      "Ġinternet": 6786,
      "Ġresearchers": 6787,
      "Ġyield": 6788,
      "prise": 6789,
      "Ġarrived": 6790,
      "ĠKorea": 6791,
      "=\"../../../../": 6792,
      "ĠCH": 6793,
      "Ġspin": 6794,
      "Ġgreatest": 6795,
      "ĠDC": 6796,
      "////////": 6797,
      "alysis": 6798,
      "Ġwidth": 6799,
      "Ġfounded": 6800,
      "Ġshares": 6801,
      "Ġrow": 6802,
      "Ġrelation": 6803,
      "ĠRun": 6804,
      "oned": 6805,
      "ĠNorthern": 6806,
      "ervative": 6807,
      "Ġsister": 6808,
      "Ġmaintain": 6809,
      "Ġstanding": 6810,
      "Ġtun": 6811,
      "oral": 6812,
      "Ġmatters": 6813,
      "ĠCross": 6814,
      "ĠIII": 6815,
      "Ġur": 6816,
      "ĠRef": 6817,
      "Ġinfrastructure": 6818,
      "Ġregul": 6819,
      "ĠRam": 6820,
      "orders": 6821,
      "ĠOk": 6822,
      "Pol": 6823,
      "ashed": 6824,
      "Ġcouncil": 6825,
      "Ġsudden": 6826,
      "Ġframe": 6827,
      "ĠMic": 6828,
      "Ġsquare": 6829,
      "ghan": 6830,
      "ĠCoast": 6831,
      "Ġsched": 6832,
      "Ġprofile": 6833,
      "sem": 6834,
      "ĠBrazil": 6835,
      "Ġfeatured": 6836,
      "Ġsubstant": 6837,
      "Ġplanet": 6838,
      "System": 6839,
      "ĠSeason": 6840,
      "Ġlibrary": 6841,
      "Ġweapons": 6842,
      "Ne": 6843,
      "Ġaccident": 6844,
      "emph": 6845,
      "Ġremove": 6846,
      "ĠLittle": 6847,
      "Ġteacher": 6848,
      "roph": 6849,
      "Ġspecifically": 6850,
      ".~\\": 6851,
      "Ġreli": 6852,
      "ighter": 6853,
      "creen": 6854,
      "aturing": 6855,
      "Ġspending": 6856,
      "Ġrepresents": 6857,
      "Ġnetworks": 6858,
      "Ġdescribe": 6859,
      "Ġcorner": 6860,
      "Ġmort": 6861,
      "ĠParliament": 6862,
      "urer": 6863,
      "ĠDaily": 6864,
      "Ġadm": 6865,
      "Ġpositions": 6866,
      "Ġfamiliar": 6867,
      "Jan": 6868,
      "AV": 6869,
      "Ġacknow": 6870,
      "ĠBrook": 6871,
      "eler": 6872,
      "apache": 6873,
      "ĠGuide": 6874,
      "sf": 6875,
      "Ġast": 6876,
      "ĠIP": 6877,
      "evin": 6878,
      "Ġgrew": 6879,
      "ĠAgain": 6880,
      "Ġpowers": 6881,
      "ounsel": 6882,
      "Ġparameter": 6883,
      "inds": 6884,
      "ifications": 6885,
      "utr": 6886,
      "Ġflat": 6887,
      "Ġdepth": 6888,
      "Ġmatrix": 6889,
      "ĠKn": 6890,
      "Ġkeeping": 6891,
      "ĠFour": 6892,
      "Ġrain": 6893,
      "Ġdistinct": 6894,
      "Ġexplore": 6895,
      "Ġfiled": 6896,
      "car": 6897,
      "ĠPlease": 6898,
      "Ġextended": 6899,
      "ĠMichigan": 6900,
      "Ġresulting": 6901,
      "ĠAL": 6902,
      "det": 6903,
      "requ": 6904,
      "Ġappearance": 6905,
      "Ġtests": 6906,
      "edu": 6907,
      "Ġleaves": 6908,
      "avid": 6909,
      "Ġearn": 6910,
      "Book": 6911,
      "ĠCL": 6912,
      "ĠMedicine": 6913,
      "rog": 6914,
      "Ġlatter": 6915,
      "Ġinvolve": 6916,
      "aka": 6917,
      "Ġadvanced": 6918,
      "ĠAT": 6919,
      "Ġplants": 6920,
      "OV": 6921,
      "ĠBush": 6922,
      "Call": 6923,
      "appa": 6924,
      "Ġbringing": 6925,
      "ali": 6926,
      "ĠRadio": 6927,
      "ĠSep": 6928,
      "overline": 6929,
      "Ġpossibly": 6930,
      "Ġfort": 6931,
      "Ġstructures": 6932,
      "Ġ__": 6933,
      "ĠPhot": 6934,
      "Ġserving": 6935,
      "onym": 6936,
      "Ġsyn": 6937,
      "pass": 6938,
      "ĠPC": 6939,
      "Ġuns": 6940,
      "Ġcounty": 6941,
      "[\\": 6942,
      "lyn": 6943,
      "Ġstudio": 6944,
      "120": 6945,
      "inally": 6946,
      "bury": 6947,
      "circ": 6948,
      "Ġtalks": 6949,
      "wan": 6950,
      "Ġcandidates": 6951,
      "Ġaspects": 6952,
      "Ġapproved": 6953,
      "Ġseat": 6954,
      "css": 6955,
      "Ġtrees": 6956,
      "Ġjudge": 6957,
      "Ġimpress": 6958,
      "TER": 6959,
      "Ġchosen": 6960,
      "Ġasking": 6961,
      "Ġclaimed": 6962,
      "El": 6963,
      "Ġends": 6964,
      "Ġdelivery": 6965,
      "Ġcer": 6966,
      "adel": 6967,
      "Ġconversation": 6968,
      "ĠSciences": 6969,
      "Ġconfirmed": 6970,
      "Ġnative": 6971,
      "oding": 6972,
      "osophy": 6973,
      "rs": 6974,
      "Ġremained": 6975,
      "People": 6976,
      "ĠSea": 6977,
      "ifer": 6978,
      "Ġoperator": 6979,
      "Ġvac": 6980,
      "Oh": 6981,
      "valid": 6982,
      "pload": 6983,
      "aped": 6984,
      "Ġswitch": 6985,
      "ĠDar": 6986,
      "rovers": 6987,
      "ĠUse": 6988,
      "dev": 6989,
      "ï¿": 6990,
      "Ġcomplic": 6991,
      "onto": 6992,
      "Ġdetect": 6993,
      "ĠSpain": 6994,
      "crete": 6995,
      "chester": 6996,
      "ĠKenn": 6997,
      "ĠFair": 6998,
      "Ġtechniques": 6999,
      "Ġexpressed": 7000,
      "raint": 7001,
      "anna": 7002,
      "ĠPrime": 7003,
      "Ġdomestic": 7004,
      "ĠON": 7005,
      "Ġpal": 7006,
      "ĠSus": 7007,
      "Ġexistence": 7008,
      "1989": 7009,
      "orry": 7010,
      "ĠTw": 7011,
      "Ġreferred": 7012,
      "Color": 7013,
      "sen": 7014,
      "Ġsurg": 7015,
      "prene": 7016,
      "ilit": 7017,
      "enger": 7018,
      "Then": 7019,
      "\\\\\\\\\\\\\\\\\\\\\\\\\\\\\\\\": 7020,
      "Ġentered": 7021,
      "Ġinstitution": 7022,
      "Ġlinear": 7023,
      "Ġincident": 7024,
      "Ġforg": 7025,
      "BL": 7026,
      "outs": 7027,
      "Ġdiss": 7028,
      "Ġdrugs": 7029,
      "&\\": 7030,
      "ĠDie": 7031,
      "Ġscheme": 7032,
      "Ġhighlight": 7033,
      "Ġtow": 7034,
      "Ġsufficient": 7035,
      "uing": 7036,
      "Ġreviews": 7037,
      "ĠOnly": 7038,
      "yers": 7039,
      "odcast": 7040,
      "ĠĠĠĠĠĠĠĠĠĠ": 7041,
      "Rel": 7042,
      "ĠCamb": 7043,
      "ĠAction": 7044,
      "ĠPass": 7045,
      "Ġdetailed": 7046,
      "ĠStan": 7047,
      "ĠSpring": 7048,
      "Ġfinds": 7049,
      "Ġris": 7050,
      "ĠDub": 7051,
      "ruption": 7052,
      "ĠLight": 7053,
      "geq": 7054,
      "acts": 7055,
      "reprene": 7056,
      "Ġspring": 7057,
      "Ġaccepted": 7058,
      "nce": 7059,
      "Ġera": 7060,
      "ĠCode": 7061,
      "enth": 7062,
      "ailed": 7063,
      "lock": 7064,
      "ĠSupport": 7065,
      "result": 7066,
      "Ġefficient": 7067,
      "Ġspons": 7068,
      "ĠEth": 7069,
      "Ġincorpor": 7070,
      "Ġactor": 7071,
      "Ġveter": 7072,
      "antly": 7073,
      "hire": 7074,
      "fortunately": 7075,
      "Ġtheme": 7076,
      "ĠFurther": 7077,
      "Ġpool": 7078,
      "End": 7079,
      "Ġsides": 7080,
      "Ġcarbon": 7081,
      "Ġacting": 7082,
      "ï¿½": 7083,
      "ĠSwed": 7084,
      "ĠBern": 7085,
      "Ġrac": 7086,
      "ja": 7087,
      "Ġowned": 7088,
      "Ġsqu": 7089,
      "Ġinspired": 7090,
      "Ġthoughts": 7091,
      "iner": 7092,
      "Ġputting": 7093,
      "ocument": 7094,
      "Ġhundreds": 7095,
      "}).": 7096,
      "init": 7097,
      "Ġmuseum": 7098,
      "open": 7099,
      "Ġrepresented": 7100,
      "ĠFred": 7101,
      "ĠAge": 7102,
      "Ġsuggested": 7103,
      "bolds": 7104,
      "Ġbaby": 7105,
      "Ġfish": 7106,
      "ĠSir": 7107,
      "Ġcharged": 7108,
      "Sm": 7109,
      "TA": 7110,
      "Ġexpansion": 7111,
      "andy": 7112,
      "ĠMah": 7113,
      "Ġfilter": 7114,
      "eper": 7115,
      "Ġpure": 7116,
      "ollowing": 7117,
      "Med": 7118,
      "ĠOrder": 7119,
      "inent": 7120,
      "istration": 7121,
      "bel": 7122,
      "awa": 7123,
      "othe": 7124,
      "varphi": 7125,
      "Ġdangerous": 7126,
      "ĠTerm": 7127,
      "Ñģ": 7128,
      "ĠBroad": 7129,
      "Ġmel": 7130,
      "Ġjava": 7131,
      "},\\": 7132,
      "Ġ;": 7133,
      "endment": 7134,
      "Ġacts": 7135,
      "Ġbehavi": 7136,
      "Ġeasier": 7137,
      "roller": 7138,
      "Ġwriters": 7139,
      "Ġicon": 7140,
      "Ġring": 7141,
      "Ġseeking": 7142,
      "Ġhandle": 7143,
      "Ġfellow": 7144,
      "ffee": 7145,
      "ĠPhoto": 7146,
      "Ġmagazine": 7147,
      "otype": 7148,
      "Every": 7149,
      "frak": 7150,
      "Ġurban": 7151,
      "Ġdeaths": 7152,
      "Ġsubsc": 7153,
      "Ġagencies": 7154,
      "Ġindustrial": 7155,
      "Ġhonor": 7156,
      "Ġvictims": 7157,
      ")^": 7158,
      "context": 7159,
      "uality": 7160,
      "boldsymbol": 7161,
      "ĠSher": 7162,
      "Ġserver": 7163,
      "TD": 7164,
      "Sim": 7165,
      "Ġvent": 7166,
      "Ġsolar": 7167,
      "redit": 7168,
      "Ġchampions": 7169,
      "Ġbroadcast": 7170,
      "obs": 7171,
      "Ġtechnologies": 7172,
      "icted": 7173,
      "ellect": 7174,
      "250": 7175,
      "Ġeat": 7176,
      "Ġtelling": 7177,
      "har": 7178,
      "ĠTenn": 7179,
      "ira": 7180,
      "Cur": 7181,
      "ĠYes": 7182,
      "ĠConf": 7183,
      "Ġhousehold": 7184,
      "Ġplanned": 7185,
      "Ġlocations": 7186,
      "Ġstopped": 7187,
      "ĠWatch": 7188,
      "ĠClinton": 7189,
      "IST": 7190,
      "ypes": 7191,
      "Ġexec": 7192,
      "burgh": 7193,
      "ĠSom": 7194,
      "Ġremov": 7195,
      "pling": 7196,
      "Ġchain": 7197,
      "Ġcooper": 7198,
      "--------------------------------": 7199,
      "Ġriver": 7200,
      "raine": 7201,
      "Ġwelcome": 7202,
      "Ġneighborhood": 7203,
      "ĠJersey": 7204,
      "ĠPrem": 7205,
      "Ġteen": 7206,
      "ĠRecords": 7207,
      "Ġdollars": 7208,
      "ĠRay": 7209,
      "ifies": 7210,
      "ĠCirc": 7211,
      "ĠLew": 7212,
      "ĠBlog": 7213,
      "lines": 7214,
      "Ġsecure": 7215,
      "osa": 7216,
      "Ġexperts": 7217,
      "RC": 7218,
      "etime": 7219,
      "iously": 7220,
      "Ref": 7221,
      "Ġworst": 7222,
      "essions": 7223,
      "ĠNOT": 7224,
      "Ġfacts": 7225,
      "Ġpromote": 7226,
      "Ġvideos": 7227,
      "Ġstudied": 7228,
      "Ġspoke": 7229,
      "ĠAD": 7230,
      "Ġspeaking": 7231,
      "ishop": 7232,
      "=\"../": 7233,
      "GL": 7234,
      "asks": 7235,
      "Ġelim": 7236,
      "omic": 7237,
      "Ġexcited": 7238,
      "Ġwarn": 7239,
      "issions": 7240,
      "Ġappointed": 7241,
      "ĠWhere": 7242,
      "Spec": 7243,
      "Ġcauses": 7244,
      "ALL": 7245,
      "Ġimproved": 7246,
      "usal": 7247,
      "ownt": 7248,
      "Ġsuggests": 7249,
      "urns": 7250,
      "ependence": 7251,
      "uzz": 7252,
      "ads": 7253,
      "Ġparticipants": 7254,
      "User": 7255,
      "ounded": 7256,
      "Ġfilled": 7257,
      "mann": 7258,
      "Ġalt": 7259,
      "ĠSong": 7260,
      ";&": 7261,
      "Ġwonderful": 7262,
      "ĠBra": 7263,
      "Ġrecording": 7264,
      "Ġaid": 7265,
      "Ġdebt": 7266,
      "iration": 7267,
      "Yes": 7268,
      "Ġrepresentation": 7269,
      "ensional": 7270,
      "ione": 7271,
      "amber": 7272,
      "BO": 7273,
      "icial": 7274,
      "ĠHun": 7275,
      "rip": 7276,
      "Date": 7277,
      "ogy": 7278,
      "ĠScotland": 7279,
      "Ġlargely": 7280,
      "esterday": 7281,
      "Ġshooting": 7282,
      "Ġawarded": 7283,
      "ĠLo": 7284,
      "ĠRon": 7285,
      "Ġarms": 7286,
      "<!--": 7287,
      "Ġunknown": 7288,
      "800": 7289,
      "Ġfavour": 7290,
      "Ġdiscl": 7291,
      "anged": 7292,
      "irms": 7293,
      "Ġsad": 7294,
      "ela": 7295,
      "ĠDisc": 7296,
      "Ġfasc": 7297,
      "Ġestate": 7298,
      "Ġstatements": 7299,
      "Ġyes": 7300,
      "600": 7301,
      "ĠLtd": 7302,
      "ko": 7303,
      "Ġfinish": 7304,
      "News": 7305,
      "itled": 7306,
      "ãĥ": 7307,
      "âĢ¦âĢ¦": 7308,
      "Ġrough": 7309,
      "ĠLic": 7310,
      "Â°": 7311,
      "Ġconsc": 7312,
      "Ġplane": 7313,
      "Ġrent": 7314,
      "cap": 7315,
      "Ġrecognized": 7316,
      "Ġconsistent": 7317,
      "Ġimplementation": 7318,
      "ila": 7319,
      "Ġcloser": 7320,
      "Ġinstrument": 7321,
      "ordan": 7322,
      "Ġlies": 7323,
      "Ġdelay": 7324,
      "ĠLook": 7325,
      "ĠEngineering": 7326,
      "Ġmolec": 7327,
      "Ġguard": 7328,
      "last": 7329,
      "Ġcoal": 7330,
      "ipping": 7331,
      "dl": 7332,
      "first": 7333,
      "Ġwinner": 7334,
      "Ġlegislation": 7335,
      "Ġatmosp": 7336,
      "ĠLi": 7337,
      "ĠDigital": 7338,
      "Ġscientists": 7339,
      "ested": 7340,
      "Ġdoctor": 7341,
      "Ġextent": 7342,
      "istant": 7343,
      "ĠTem": 7344,
      "ĠHu": 7345,
      "pet": 7346,
      "Ġgar": 7347,
      "Ġmanage": 7348,
      "ĠPhilipp": 7349,
      "thew": 7350,
      "Ġhumans": 7351,
      "Ġhealthy": 7352,
      "Ġremark": 7353,
      "AND": 7354,
      "Off": 7355,
      "inity": 7356,
      "ĠPoint": 7357,
      "isa": 7358,
      "java": 7359,
      "Ġhistoric": 7360,
      "ĠRail": 7361,
      "Ġteachers": 7362,
      "aser": 7363,
      "Ġchapter": 7364,
      "iversary": 7365,
      "Ġmoments": 7366,
      "Ġreporting": 7367,
      "ureau": 7368,
      "Ġadults": 7369,
      "Ġengineering": 7370,
      "ĠMatt": 7371,
      "ĠTherefore": 7372,
      "ĠOhio": 7373,
      "Ġalgorithm": 7374,
      "ĠOnline": 7375,
      "Ġpit": 7376,
      "Ġrid": 7377,
      "Ġtypically": 7378,
      "Ġprogramme": 7379,
      "Ġrenew": 7380,
      "Ġexercise": 7381,
      "ĠCreat": 7382,
      "Ġstorm": 7383,
      "iated": 7384,
      "ylvan": 7385,
      "ĠSat": 7386,
      "Ġcollected": 7387,
      "ĠClin": 7388,
      "static": 7389,
      "member": 7390,
      "ampion": 7391,
      "Ġaccompl": 7392,
      "ragon": 7393,
      "Ġswe": 7394,
      "Ġven": 7395,
      "ĠWis": 7396,
      "ĠRod": 7397,
      "Ġdivision": 7398,
      "Cons": 7399,
      "AF": 7400,
      "MP": 7401,
      "Ġmotiv": 7402,
      "Ġreceiving": 7403,
      "ĠWilson": 7404,
      "Ġperman": 7405,
      "ĠTal": 7406,
      "VD": 7407,
      "google": 7408,
      "wid": 7409,
      "ether": 7410,
      "ĠHard": 7411,
      "Ġabsolutely": 7412,
      "Ġdelivered": 7413,
      "Ġcomparison": 7414,
      "Ġbright": 7415,
      "Ġcraft": 7416,
      "Ġisol": 7417,
      "Mark": 7418,
      "Ġbatter": 7419,
      "Ġiron": 7420,
      "Ġ``": 7421,
      "inois": 7422,
      "teen": 7423,
      "ĠAccess": 7424,
      "Ġtwice": 7425,
      "ented": 7426,
      "ONT": 7427,
      "ĠNick": 7428,
      "Ġimplic": 7429,
      "Ġelectronic": 7430,
      "Any": 7431,
      "anguages": 7432,
      "1000": 7433,
      "ĠElizabeth": 7434,
      "Ġsharing": 7435,
      "Ġmillions": 7436,
      "ĠNote": 7437,
      "Ġ()": 7438,
      "Ġforget": 7439,
      "ĠOl": 7440,
      "ĠMicrosoft": 7441,
      "pton": 7442,
      "cohol": 7443,
      "aa": 7444,
      "erves": 7445,
      "ĠHollywood": 7446,
      "Ġtracks": 7447,
      "[]": 7448,
      "ĠAnth": 7449,
      "Ġinterface": 7450,
      "pers": 7451,
      "finished": 7452,
      "ĠVideo": 7453,
      "Ġvul": 7454,
      "Ġelections": 7455,
      "Ġcircumstances": 7456,
      "iary": 7457,
      "Ġconsidering": 7458,
      "Ġpursu": 7459,
      "stone": 7460,
      "ĠOx": 7461,
      "letter": 7462,
      "Ġreaction": 7463,
      "ĠPrince": 7464,
      "ĠOp": 7465,
      "apore": 7466,
      "ĠBell": 7467,
      "Ġphotograph": 7468,
      "ĠRh": 7469,
      "Ġ~": 7470,
      "ĠEric": 7471,
      "db": 7472,
      "Ġrevenue": 7473,
      "1988": 7474,
      "Ġcookies": 7475,
      "imation": 7476,
      "Ġsigns": 7477,
      "strong": 7478,
      "Ġcommitment": 7479,
      "ĠMethod": 7480,
      "Ġcontemporary": 7481,
      "Ġpersons": 7482,
      "Ġscholars": 7483,
      "opher": 7484,
      "Ġbodies": 7485,
      "Ġbroken": 7486,
      "Ġnoise": 7487,
      "hline": 7488,
      "ĠTable": 7489,
      "Car": 7490,
      "ĉĊ": 7491,
      "ĠCat": 7492,
      "Ġ|____": 7493,
      "ĠUr": 7494,
      "Ġfiction": 7495,
      "!\"": 7496,
      "Ð¾Ð": 7497,
      "ĠRen": 7498,
      "ĠOnce": 7499,
      "Ġarmy": 7500,
      "OK": 7501,
      "ses": 7502,
      "Ġreplaced": 7503,
      "atics": 7504,
      "Ġmixed": 7505,
      "include": 7506,
      "Ġworldwide": 7507,
      "ĠAN": 7508,
      "icide": 7509,
      "Ġprospect": 7510,
      "ĠRyan": 7511,
      "ĠGreek": 7512,
      "Ġequation": 7513,
      "ĠSaint": 7514,
      "ributes": 7515,
      "Fe": 7516,
      "Ġenjoyed": 7517,
      "Ġgather": 7518,
      "Ġsinger": 7519,
      "ĠNon": 7520,
      "oir": 7521,
      "ĠThree": 7522,
      "Ġoccurred": 7523,
      "Ġexternal": 7524,
      "bal": 7525,
      "ĠPsych": 7526,
      "ĠSign": 7527,
      "Ġfat": 7528,
      "Ġrul": 7529,
      "Ġbomb": 7530,
      "ĠBrand": 7531,
      "Ġmedium": 7532,
      "Ġcolon": 7533,
      "Ġaccounts": 7534,
      "undle": 7535,
      "MC": 7536,
      "png": 7537,
      "Ġdecide": 7538,
      "ĠWars": 7539,
      "Ġunion": 7540,
      "Ġmir": 7541,
      "Ġrepeated": 7542,
      "ĠCase": 7543,
      "ĠAsian": 7544,
      "Ġtopic": 7545,
      "ĠDE": 7546,
      "edge": 7547,
      "ĠTele": 7548,
      "Ġroles": 7549,
      "ensure": 7550,
      "IO": 7551,
      "Ġarrested": 7552,
      "Ġprivacy": 7553,
      "ĠKong": 7554,
      "ĠRog": 7555,
      "ĠLabor": 7556,
      "apes": 7557,
      "Ġ===": 7558,
      "ouston": 7559,
      "Ġrecover": 7560,
      "Hel": 7561,
      "Ġframework": 7562,
      "Ġminute": 7563,
      "Ġcycle": 7564,
      "ĠMA": 7565,
      "Ġboys": 7566,
      "Ġuncertain": 7567,
      "arters": 7568,
      "Ġcart": 7569,
      "ĠGuard": 7570,
      "only": 7571,
      "noon": 7572,
      "ĠAdam": 7573,
      "Ġexciting": 7574,
      "ĠMS": 7575,
      "person": 7576,
      "image": 7577,
      "Direct": 7578,
      "ĠPerform": 7579,
      "vard": 7580,
      "=\"#": 7581,
      "ĠStephen": 7582,
      "Lab": 7583,
      "ĠControl": 7584,
      "apped": 7585,
      "Are": 7586,
      "Ġpayment": 7587,
      "Ġsuc": 7588,
      "ĠAsh": 7589,
      "Ġstands": 7590,
      "Ġconfidence": 7591,
      "Ġarts": 7592,
      "Ġprotein": 7593,
      "Ġlayer": 7594,
      "yr": 7595,
      "HO": 7596,
      "Mat": 7597,
      "ĠWindows": 7598,
      "Ġminister": 7599,
      "plete": 7600,
      "}}$": 7601,
      "Ġpartnership": 7602,
      "Mon": 7603,
      "aver": 7604,
      "Ġpictures": 7605,
      "Ġemergency": 7606,
      "Ġprofessor": 7607,
      "Ġportion": 7608,
      "Ġfrequency": 7609,
      "ĠDead": 7610,
      "Author": 7611,
      "Ġheav": 7612,
      "Ġposts": 7613,
      "Ġnil": 7614,
      "orough": 7615,
      "1986": 7616,
      "Ġhate": 7617,
      "ĠPrivacy": 7618,
      "Ġsuspect": 7619,
      "ĠHand": 7620,
      "ĠMain": 7621,
      "1987": 7622,
      "mathfrak": 7623,
      "aints": 7624,
      "Ġadult": 7625,
      "Ġhouses": 7626,
      "ART": 7627,
      "ĠChampionship": 7628,
      "ĠKent": 7629,
      "Ġnob": 7630,
      "ylvania": 7631,
      "Manager": 7632,
      "Ġpossibility": 7633,
      "Ġsynt": 7634,
      "world": 7635,
      "Ġrepro": 7636,
      "PD": 7637,
      "iro": 7638,
      "Ġearned": 7639,
      "ĠSummer": 7640,
      "awn": 7641,
      "Ġdrama": 7642,
      "Group": 7643,
      "ĠCorporation": 7644,
      "quir": 7645,
      "gener": 7646,
      "ĠLuc": 7647,
      "sex": 7648,
      "Ġimpossible": 7649,
      "ĠFootball": 7650,
      "Ġultimately": 7651,
      "Ġawards": 7652,
      "you": 7653,
      "Ġ]": 7654,
      "Ġwalking": 7655,
      "ĠMarket": 7656,
      "ima": 7657,
      "flow": 7658,
      "Vis": 7659,
      "Ġspecified": 7660,
      "ĠAdministration": 7661,
      "Rem": 7662,
      "ĠRight": 7663,
      "Ġforth": 7664,
      "Ġhyper": 7665,
      "Ġcontaining": 7666,
      "Ġseconds": 7667,
      "ĠInit": 7668,
      "Ġdatabase": 7669,
      "ĠViet": 7670,
      "Ġquiet": 7671,
      "110": 7672,
      "enda": 7673,
      "Ġvirtual": 7674,
      "Ġauto": 7675,
      "Ġupdated": 7676,
      "Ġwaste": 7677,
      "Ġlots": 7678,
      "Ġlegisl": 7679,
      "Ġwinter": 7680,
      "shire": 7681,
      "Ġhun": 7682,
      "ĠKnow": 7683,
      "ĠSyria": 7684,
      "ĠBang": 7685,
      "Ġflood": 7686,
      "Ġvector": 7687,
      "merce": 7688,
      "ĠAp": 7689,
      "rations": 7690,
      "ĠAnother": 7691,
      "author": 7692,
      "lights": 7693,
      "lets": 7694,
      "Ġequivalent": 7695,
      "Ġimagine": 7696,
      "Ġstations": 7697,
      "des": 7698,
      "ĠVill": 7699,
      "ceived": 7700,
      "Ġusual": 7701,
      "Ġsum": 7702,
      "âĢĭ": 7703,
      "rible": 7704,
      ")</": 7705,
      "Ġstick": 7706,
      "ĠEnt": 7707,
      "Ġratio": 7708,
      "Ġagric": 7709,
      "ĠCountry": 7710,
      "Ġkilling": 7711,
      "ĠArea": 7712,
      "Ġsnow": 7713,
      "ĠLatin": 7714,
      "Ġscenes": 7715,
      "Ġgift": 7716,
      "Ġeducational": 7717,
      "Ġrevolution": 7718,
      "Tube": 7719,
      "rehensive": 7720,
      ".'": 7721,
      "Ġride": 7722,
      "Ġserves": 7723,
      "ĠAS": 7724,
      "Ġfol": 7725,
      "dated": 7726,
      "Ġemotional": 7727,
      "expected": 7728,
      "ĉĉĉĉĉĉ": 7729,
      "Ġvast": 7730,
      "Lambda": 7731,
      "heast": 7732,
      "Ġachieved": 7733,
      "Ġrestaurant": 7734,
      "rary": 7735,
      "Ġvisitors": 7736,
      "Ġplenty": 7737,
      "Ġroot": 7738,
      "Cal": 7739,
      "ĠCost": 7740,
      "ĠCarl": 7741,
      "ĠHotel": 7742,
      "Ġincreases": 7743,
      "Ġcontrovers": 7744,
      ";</": 7745,
      "namespace": 7746,
      "ĠPen": 7747,
      "Ġcas": 7748,
      "Ġsurprise": 7749,
      "package": 7750,
      "Sec": 7751,
      "ĠCheck": 7752,
      "ĠThrough": 7753,
      "ĠMult": 7754,
      "Ġbought": 7755,
      "Ġassets": 7756,
      "otimes": 7757,
      "ĠJews": 7758,
      "oking": 7759,
      "she": 7760,
      "Ġsamples": 7761,
      "Ġfrag": 7762,
      "igrants": 7763,
      "Ġpublication": 7764,
      "Ġspaces": 7765,
      "ĠHom": 7766,
      "taining": 7767,
      "Ġcampus": 7768,
      "uable": 7769,
      "Two": 7770,
      "2021": 7771,
      "ĠNC": 7772,
      "Ġax": 7773,
      "Ġorders": 7774,
      "fast": 7775,
      "Det": 7776,
      "Ġemployment": 7777,
      "langle": 7778,
      ".\\": 7779,
      "bro": 7780,
      "ĠRest": 7781,
      "Ġsucceed": 7782,
      "Ġcab": 7783,
      "Ġassessment": 7784,
      "Ġattended": 7785,
      "Ġevil": 7786,
      "weight": 7787,
      "ĠCro": 7788,
      "Ġlie": 7789,
      "pool": 7790,
      "Ġdiverse": 7791,
      "Phi": 7792,
      "build": 7793,
      "grade": 7794,
      "Ġdesire": 7795,
      "ĠBBC": 7796,
      "================": 7797,
      "Ġunderst": 7798,
      "aron": 7799,
      "Ġlicense": 7800,
      "Ġhappening": 7801,
      "Ġwidely": 7802,
      "ĠEastern": 7803,
      "Ġrecognition": 7804,
      "Ġarchitecture": 7805,
      "ĠSon": 7806,
      "Ġinfo": 7807,
      "ulating": 7808,
      "after": 7809,
      "ĠDNA": 7810,
      "Ġoppos": 7811,
      "Ġbow": 7812,
      "Ġgal": 7813,
      "Ġsitting": 7814,
      "Christ": 7815,
      "ĠBat": 7816,
      "agraph": 7817,
      "Ġflex": 7818,
      "false": 7819,
      "Ġsouthern": 7820,
      "uous": 7821,
      "Ġfly": 7822,
      "apse": 7823,
      "Ġcontribution": 7824,
      "endar": 7825,
      "ĠOR": 7826,
      "py": 7827,
      "ĠCook": 7828,
      "Ġmargin": 7829,
      "ĠFord": 7830,
      "Another": 7831,
      "ãģ": 7832,
      "Ġpoly": 7833,
      "ĠJenn": 7834,
      "Ġalleg": 7835,
      "Ġassistance": 7836,
      "Ġstreets": 7837,
      "Ġformal": 7838,
      "small": 7839,
      "ĠBall": 7840,
      "ifts": 7841,
      "ĠðŁ": 7842,
      "Ġped": 7843,
      "acle": 7844,
      "icious": 7845,
      "Cre": 7846,
      "Ġconver": 7847,
      "Ġintent": 7848,
      "ĠCapt": 7849,
      "Min": 7850,
      "ĠDisney": 7851,
      "ĠIslamic": 7852,
      "bell": 7853,
      "isted": 7854,
      "Param": 7855,
      "ĠMir": 7856,
      "ĠImm": 7857,
      "Ġincreasingly": 7858,
      "Ġending": 7859,
      "alo": 7860,
      "Ġconfirm": 7861,
      "ĠCru": 7862,
      "Ġsand": 7863,
      "ĠWales": 7864,
      "iginal": 7865,
      "Ġfindings": 7866,
      "Ġongoing": 7867,
      "agues": 7868,
      "ĠStaff": 7869,
      "call": 7870,
      "aret": 7871,
      "Property": 7872,
      "allel": 7873,
      "viation": 7874,
      "ORE": 7875,
      "tical": 7876,
      "Ġagents": 7877,
      "ithub": 7878,
      "annels": 7879,
      "method": 7880,
      "ĠUnivers": 7881,
      "ĠEst": 7882,
      "then": 7883,
      "ologist": 7884,
      "Fig": 7885,
      "Ġoccasion": 7886,
      "Ġillegal": 7887,
      "PP": 7888,
      "ĠConstitution": 7889,
      "Ġconvert": 7890,
      "olar": 7891,
      "Ġscored": 7892,
      "ĠBon": 7893,
      "ĠDemocrats": 7894,
      "GA": 7895,
      "avor": 7896,
      "Ġmouth": 7897,
      "Ġshel": 7898,
      "adelph": 7899,
      "Ġmainly": 7900,
      "ortion": 7901,
      "Ġformation": 7902,
      "ĠNations": 7903,
      "ĠMill": 7904,
      "ĠTax": 7905,
      "Ġbelieves": 7906,
      "ĠNext": 7907,
      "utation": 7908,
      "1984": 7909,
      "Writ": 7910,
      "Ġexplains": 7911,
      "pson": 7912,
      "KE": 7913,
      "abet": 7914,
      "Ġconsumer": 7915,
      "Ġaccord": 7916,
      "ĠDavis": 7917,
      "mbox": 7918,
      "During": 7919,
      "Ġenable": 7920,
      "Ġsoldiers": 7921,
      "Ġselling": 7922,
      "sylvania": 7923,
      "à¥": 7924,
      "ĠDark": 7925,
      "Ġsuit": 7926,
      "ĠRose": 7927,
      "Response": 7928,
      "ĠĠĠĠĠĠĠĠĠĠĠĠ": 7929,
      "Ġsurrounding": 7930,
      "Ġathlet": 7931,
      "textit": 7932,
      "osm": 7933,
      "Ġfill": 7934,
      "Ġadvertising": 7935,
      "Client": 7936,
      "ĠMagazine": 7937,
      "Ġgod": 7938,
      "Ġsoc": 7939,
      "ĠBand": 7940,
      "ĠLocal": 7941,
      "ĠChem": 7942,
      "Ġfeaturing": 7943,
      "char": 7944,
      "ĠAffairs": 7945,
      "Ġpackage": 7946,
      "isodes": 7947,
      "Ġapparently": 7948,
      "Ġinvestors": 7949,
      "Mem": 7950,
      "Ġliqu": 7951,
      "David": 7952,
      "ibilities": 7953,
      "ĠBul": 7954,
      "ĠFull": 7955,
      "Ġgoods": 7956,
      "Ġassociation": 7957,
      "Ġtaught": 7958,
      "Ġempty": 7959,
      "Ġlosing": 7960,
      "ials": 7961,
      "ĠHarry": 7962,
      "ldots": 7963,
      "Ġadopted": 7964,
      "FI": 7965,
      "Ġaudio": 7966,
      "ĠSP": 7967,
      "}),": 7968,
      "ĠPay": 7969,
      "adelphia": 7970,
      "Ġideal": 7971,
      "arry": 7972,
      "lik": 7973,
      "Ġce": 7974,
      "Ġfestival": 7975,
      "Ġhydro": 7976,
      "((": 7977,
      "citep": 7978,
      "Ġhall": 7979,
      "unning": 7980,
      "ĠToronto": 7981,
      "Ġpregn": 7982,
      "mid": 7983,
      "pir": 7984,
      "ĠThose": 7985,
      "Ġhell": 7986,
      "Ġtight": 7987,
      "ĠSupp": 7988,
      "Ġextension": 7989,
      "1950": 7990,
      "aska": 7991,
      "rect": 7992,
      "tenance": 7993,
      "Ġbanks": 7994,
      "His": 7995,
      "conn": 7996,
      "Ġpassing": 7997,
      "ĠBal": 7998,
      "](": 7999,
      "Ġstret": 8000,
      "kappa": 8001,
      "option": 8002,
      "edding": 8003,
      "ĠBol": 8004,
      "ĠOfficer": 8005,
      "define": 8006,
      "ĠCommon": 8007,
      "ĠInstead": 8008,
      "Ġcapable": 8009,
      "Ġmine": 8010,
      "ĠMiller": 8011,
      "Ġcerem": 8012,
      "Ġproducer": 8013,
      "Ġrefuge": 8014,
      "Ġfundamental": 8015,
      "History": 8016,
      "Ġreduction": 8017,
      "MT": 8018,
      "Query": 8019,
      "Ġdropped": 8020,
      "idelines": 8021,
      "Ġsplit": 8022,
      "Ġopposition": 8023,
      "ometry": 8024,
      "ĠBase": 8025,
      "rell": 8026,
      "overty": 8027,
      "DP": 8028,
      "Ġconven": 8029,
      "Ġtypical": 8030,
      "ĠDam": 8031,
      "Ġmand": 8032,
      "Where": 8033,
      "ĠFil": 8034,
      "ĠDeath": 8035,
      "ĠLine": 8036,
      "Ġtotally": 8037,
      "vy": 8038,
      "ĠIllinois": 8039,
      "event": 8040,
      "Most": 8041,
      "ĠObject": 8042,
      "ello": 8043,
      "Pat": 8044,
      "\\|": 8045,
      "Ġinnovation": 8046,
      "aza": 8047,
      "umin": 8048,
      "Ġinvolving": 8049,
      "pg": 8050,
      "Ġprimarily": 8051,
      "Ġrecip": 8052,
      "Ġperforming": 8053,
      "umes": 8054,
      "Child": 8055,
      "ĠBrian": 8056,
      "Ġlaugh": 8057,
      "Ġcollaboration": 8058,
      "Ġrender": 8059,
      "Ġexplan": 8060,
      "1985": 8061,
      "ĠGi": 8062,
      "ulous": 8063,
      "iley": 8064,
      "etts": 8065,
      "Ke": 8066,
      "Ġaccused": 8067,
      "Ġcompris": 8068,
      "101": 8069,
      "Dep": 8070,
      "abs": 8071,
      "|-": 8072,
      "Ġcompens": 8073,
      "Ġclosely": 8074,
      "Method": 8075,
      "Ġ};": 8076,
      "zona": 8077,
      "Ġyounger": 8078,
      "izz": 8079,
      "Ġstood": 8080,
      "ĠBru": 8081,
      "Ġtum": 8082,
      "ez": 8083,
      "Ġtwenty": 8084,
      "Ste": 8085,
      "Ġandroid": 8086,
      "ĠAvenue": 8087,
      "inals": 8088,
      "worth": 8089,
      "Ġphenomen": 8090,
      "Ġtough": 8091,
      "Ġneither": 8092,
      "ĠGener": 8093,
      ">(": 8094,
      "Ġregulations": 8095,
      "RS": 8096,
      "ĠSystems": 8097,
      "Ġcro": 8098,
      "Ġec": 8099,
      "ĠType": 8100,
      "Ġalter": 8101,
      "Ġbeauty": 8102,
      "ĠKir": 8103,
      "Ġing": 8104,
      "Ġdegrees": 8105,
      "rat": 8106,
      "Phone": 8107,
      "Ġassault": 8108,
      "Ġbigger": 8109,
      "spe": 8110,
      "alty": 8111,
      "Ġrural": 8112,
      "ĠFigure": 8113,
      "ĠAssembly": 8114,
      "Ġsuccessfully": 8115,
      "Ġtherapy": 8116,
      "Ġtack": 8117,
      "Ġlinked": 8118,
      "ĠMajor": 8119,
      "razy": 8120,
      "Tra": 8121,
      "ĠPot": 8122,
      "oviet": 8123,
      "La": 8124,
      "Ġdry": 8125,
      "Result": 8126,
      "ĠLy": 8127,
      "Ġbuff": 8128,
      "angle": 8129,
      "ĠExpl": 8130,
      "Ġapproaches": 8131,
      "ĠColumbia": 8132,
      "UE": 8133,
      "Ġvacc": 8134,
      "ĠBad": 8135,
      "ĠIsraeli": 8136,
      "Ġreasonable": 8137,
      "Ġcontrolled": 8138,
      "Ġcontributions": 8139,
      "Ġquantum": 8140,
      "Ġnorthern": 8141,
      "Ġextensive": 8142,
      "Ġthread": 8143,
      "IB": 8144,
      "wing": 8145,
      "ĠCle": 8146,
      "Start": 8147,
      "Ġfacing": 8148,
      "sole": 8149,
      "ĠFac": 8150,
      "ĠFinancial": 8151,
      "iest": 8152,
      "Ġuniform": 8153,
      "erg": 8154,
      "âĢ¦.": 8155,
      "Ġemployee": 8156,
      "HA": 8157,
      "owa": 8158,
      "Ġproposal": 8159,
      "Ġafternoon": 8160,
      "ova": 8161,
      "Link": 8162,
      "Ġeffectively": 8163,
      "Ġresc": 8164,
      "Ġcomedy": 8165,
      "ifest": 8166,
      "ĠColorado": 8167,
      "oven": 8168,
      "=>": 8169,
      "emplate": 8170,
      "Ġordered": 8171,
      "ĠComput": 8172,
      "Pres": 8173,
      "ĠCapital": 8174,
      "null": 8175,
      "vol": 8176,
      "ĠLA": 8177,
      "ĠAgency": 8178,
      "Ġriv": 8179,
      "ĠLem": 8180,
      "ĠNumber": 8181,
      "olis": 8182,
      "ellectual": 8183,
      "Ġvoc": 8184,
      "Ġhidden": 8185,
      "agan": 8186,
      "Ġturning": 8187,
      "ĠDate": 8188,
      "Ġcolle": 8189,
      "hus": 8190,
      "Ġprinciples": 8191,
      "Â®": 8192,
      "Ġprocedure": 8193,
      "nabla": 8194,
      "duced": 8195,
      "Ġsupports": 8196,
      "eries": 8197,
      "profit": 8198,
      "Check": 8199,
      "Ġvulner": 8200,
      "Ġactors": 8201,
      "ĠMinistry": 8202,
      "ĠSanta": 8203,
      "Ã¢": 8204,
      "acks": 8205,
      "gov": 8206,
      "lib": 8207,
      "Point": 8208,
      "Ġgrown": 8209,
      "Ġreader": 8210,
      "ĠBrother": 8211,
      "Ġmeasured": 8212,
      "dot": 8213,
      "consin": 8214,
      "Ġintegr": 8215,
      "Ġresistance": 8216,
      "ĠLin": 8217,
      "Char": 8218,
      "ĠGallery": 8219,
      "Ear": 8220,
      "Ġthick": 8221,
      "Who": 8222,
      "Ġstrike": 8223,
      "Ġscope": 8224,
      "imer": 8225,
      "sect": 8226,
      "hist": 8227,
      "Ġschedule": 8228,
      "TE": 8229,
      "Ġgranted": 8230,
      "Ġbridge": 8231,
      "])": 8232,
      "Ġconsumers": 8233,
      "%,": 8234,
      "ĠSite": 8235,
      "Ġourselves": 8236,
      "ĠCub": 8237,
      "Ġmissed": 8238,
      "Ġinteraction": 8239,
      "inition": 8240,
      "ĠChange": 8241,
      "ockey": 8242,
      "ĠForeign": 8243,
      "pa": 8244,
      "ocus": 8245,
      "Ġaband": 8246,
      "Ġpublis": 8247,
      "ĠHong": 8248,
      "Ġwire": 8249,
      "yo": 8250,
      "Ġregime": 8251,
      "orical": 8252,
      "Ġhorse": 8253,
      "uns": 8254,
      "Men": 8255,
      "Ġpra": 8256,
      "Ġpractical": 8257,
      "Ġassign": 8258,
      "Ġstrategies": 8259,
      "Ġunable": 8260,
      "Ġsympt": 8261,
      "ensuremath": 8262,
      "Ġentertainment": 8263,
      "asts": 8264,
      "jav": 8265,
      "ĠPalestin": 8266,
      "Ġopposite": 8267,
      "Ġprotest": 8268,
      "Ġrisks": 8269,
      "essed": 8270,
      "rency": 8271,
      "ĠHay": 8272,
      "earing": 8273,
      "Ġgenerate": 8274,
      "Ġshock": 8275,
      "Ġwestern": 8276,
      "Open": 8277,
      "ĠForest": 8278,
      "Oct": 8279,
      "ĠSC": 8280,
      "Ġwear": 8281,
      "audi": 8282,
      "ĠFOR": 8283,
      "tainment": 8284,
      "udes": 8285,
      "ennis": 8286,
      "Ġwer": 8287,
      "ĠMember": 8288,
      "ĠĠĠĠĠĠĠĠĠĠĠĠĠĠ": 8289,
      "display": 8290,
      "iami": 8291,
      "Ġwal": 8292,
      "ĠTurn": 8293,
      ">>": 8294,
      "Ã¨": 8295,
      "LA": 8296,
      "ori": 8297,
      "ydney": 8298,
      "Mich": 8299,
      "Also": 8300,
      "SD": 8301,
      "Ġteach": 8302,
      "Ġacid": 8303,
      "ells": 8304,
      "Ġdynamic": 8305,
      "Ġvoters": 8306,
      "Ġfis": 8307,
      "Ġsomewhat": 8308,
      "unfinished": 8309,
      "ĠYet": 8310,
      "away": 8311,
      "Ġexposure": 8312,
      "ilty": 8313,
      "boy": 8314,
      "brid": 8315,
      "Ġstrict": 8316,
      "github": 8317,
      "Ġdisappoint": 8318,
      "oices": 8319,
      "ACK": 8320,
      "Ġbreath": 8321,
      "nesota": 8322,
      "Ġrh": 8323,
      "Ġ(\"": 8324,
      "ĠEdward": 8325,
      "di": 8326,
      "Please": 8327,
      "obby": 8328,
      "Ġstruggle": 8329,
      "Ġalongside": 8330,
      "ĠSingapore": 8331,
      "})$": 8332,
      "ESS": 8333,
      "Ġexhibition": 8334,
      "){": 8335,
      "ĠNic": 8336,
      "ĠEX": 8337,
      "itals": 8338,
      "ĠCulture": 8339,
      "wind": 8340,
      "Ġtrouble": 8341,
      "ĠAli": 8342,
      "Ġnarrow": 8343,
      "Ġdress": 8344,
      "ĠStation": 8345,
      "esome": 8346,
      "Best": 8347,
      "uma": 8348,
      "ikip": 8349,
      "Ġconsists": 8350,
      "eld": 8351,
      "Ġgene": 8352,
      "ĠBefore": 8353,
      "ĠKat": 8354,
      "ĠSche": 8355,
      "ĠNFL": 8356,
      "Ġcontained": 8357,
      "Ġmoves": 8358,
      "ĠEdition": 8359,
      "Ġbirths": 8360,
      "Ġrealize": 8361,
      "Ġmodule": 8362,
      "cs": 8363,
      "Ġly": 8364,
      "ĠMarg": 8365,
      "makers": 8366,
      "achus": 8367,
      "ĠWorks": 8368,
      "Ġmessages": 8369,
      "Jo": 8370,
      "thur": 8371,
      "Builder": 8372,
      "ĠLewis": 8373,
      "holders": 8374,
      "ĠFall": 8375,
      "ĠArticle": 8376,
      "missions": 8377,
      "cers": 8378,
      "âĨ": 8379,
      "Ġsubjects": 8380,
      "service": 8381,
      "Ġenforcement": 8382,
      "Ġfaces": 8383,
      "ĠEconomic": 8384,
      "dep": 8385,
      "ĠNone": 8386,
      "athe": 8387,
      "eping": 8388,
      "ogether": 8389,
      "break": 8390,
      "ĠModel": 8391,
      "Ġmal": 8392,
      "Action": 8393,
      "ĠTony": 8394,
      "Although": 8395,
      "ĠNavy": 8396,
      "making": 8397,
      "Ġwrites": 8398,
      "ĠKevin": 8399,
      "Note": 8400,
      "Ġwins": 8401,
      "1979": 8402,
      "Ġvisited": 8403,
      "Ġrein": 8404,
      "Ġsight": 8405,
      "PT": 8406,
      "Ġsevere": 8407,
      "Override": 8408,
      "ĠFriend": 8409,
      "ĠSym": 8410,
      "World": 8411,
      "angers": 8412,
      "ĠNULL": 8413,
      "Ġsettings": 8414,
      "Ġduty": 8415,
      "front": 8416,
      "found": 8417,
      "ĠFuture": 8418,
      "Ġobviously": 8419,
      "Ġfee": 8420,
      "Ġaccommod": 8421,
      "ĠHouston": 8422,
      "Ġbool": 8423,
      "'.": 8424,
      "query": 8425,
      "ĠMrs": 8426,
      "ĠNav": 8427,
      "ĠVice": 8428,
      "National": 8429,
      "ĠKar": 8430,
      "owntown": 8431,
      "ĠPennsylvania": 8432,
      "ĠYouTube": 8433,
      "Ġalive": 8434,
      "tx": 8435,
      "Ġbranch": 8436,
      "Ġcapture": 8437,
      "ĠLow": 8438,
      "ĠTurkey": 8439,
      "Ġparticipate": 8440,
      "Ġsole": 8441,
      "Ġindicate": 8442,
      "Ġletters": 8443,
      "Ġnecessarily": 8444,
      "Ġencounter": 8445,
      "ĠKey": 8446,
      "ĠCa": 8447,
      "Ġlegend": 8448,
      "etary": 8449,
      "Ġestimate": 8450,
      "pub": 8451,
      "Ġdiversity": 8452,
      "ĠHas": 8453,
      "Met": 8454,
      "Ġyesterday": 8455,
      "ĠIslands": 8456,
      "Ġmarked": 8457,
      "Ġzone": 8458,
      "Ġsweet": 8459,
      "ĠVen": 8460,
      "Your": 8461,
      "Ġattorney": 8462,
      "Ġseriously": 8463,
      "FR": 8464,
      "âĢī": 8465,
      "Stream": 8466,
      "nonumber": 8467,
      "Ġobser": 8468,
      "ds": 8469,
      "Util": 8470,
      "note": 8471,
      "ĠEmpire": 8472,
      "ĠTrade": 8473,
      "ĠBa": 8474,
      "Ġexpensive": 8475,
      "Ġextract": 8476,
      "Ġcovers": 8477,
      "Aut": 8478,
      "}}{": 8479,
      "ĠPut": 8480,
      "ĠEvent": 8481,
      "ĠComments": 8482,
      "fol": 8483,
      "Ġacquired": 8484,
      "iot": 8485,
      "ĠMaybe": 8486,
      "Ġlandscape": 8487,
      "Ġsmooth": 8488,
      "Ġdiscrim": 8489,
      "Ġbasketball": 8490,
      "ĠManager": 8491,
      "Ġinitially": 8492,
      "Ġdistributed": 8493,
      "Ġarguments": 8494,
      "anth": 8495,
      "ikipedia": 8496,
      "Ġflag": 8497,
      "ĠNAS": 8498,
      "wa": 8499,
      "ĠPartners": 8500,
      "ĠConc": 8501,
      "ĠNS": 8502,
      "aya": 8503,
      "Ġseasons": 8504,
      "Ġnations": 8505,
      "Ġperformances": 8506,
      "Ġvary": 8507,
      "lers": 8508,
      "Ġnearby": 8509,
      "issue": 8510,
      "aug": 8511,
      "ĠSn": 8512,
      "client": 8513,
      "actor": 8514,
      "ĠCancer": 8515,
      "Ġsees": 8516,
      "pop": 8517,
      "Ac": 8518,
      "Ġelev": 8519,
      "1983": 8520,
      "height": 8521,
      "Ġstone": 8522,
      "Ġstrategic": 8523,
      "Ġsurprising": 8524,
      "ĠSoft": 8525,
      "Ġcrash": 8526,
      "ĠJordan": 8527,
      "Ġnewly": 8528,
      "Ġsoci": 8529,
      "Ġattempts": 8530,
      "achusetts": 8531,
      "ĠPers": 8532,
      "Ġinnovative": 8533,
      "Figure": 8534,
      "eman": 8535,
      "Ġescape": 8536,
      "acher": 8537,
      "Ġclar": 8538,
      "ĠStart": 8539,
      "Ġboost": 8540,
      "ĠBudd": 8541,
      "ĠPict": 8542,
      "orne": 8543,
      "Sigma": 8544,
      "Ġfrequently": 8545,
      "Ġconstitution": 8546,
      "Ġgiant": 8547,
      "Ġpulled": 8548,
      "erate": 8549,
      "oln": 8550,
      "ture": 8551,
      "Ġok": 8552,
      "track": 8553,
      "Ġdrawn": 8554,
      "Ġexplicit": 8555,
      "Prov": 8556,
      "agger": 8557,
      "Ġstores": 8558,
      "rine": 8559,
      "Ġaccurate": 8560,
      "Ġupcoming": 8561,
      "aded": 8562,
      "ami": 8563,
      "Ġdescribes": 8564,
      "ificate": 8565,
      "ĠEs": 8566,
      "ĠLink": 8567,
      ")-": 8568,
      "ĠMach": 8569,
      "ĠSky": 8570,
      "ĠRa": 8571,
      "\\%": 8572,
      "ORT": 8573,
      "ulpt": 8574,
      "Ġque": 8575,
      "Ġ->": 8576,
      "gence": 8577,
      "Ġproport": 8578,
      "Ġfunny": 8579,
      "inema": 8580,
      "oute": 8581,
      "________": 8582,
      "isition": 8583,
      "Ġwatched": 8584,
      "regon": 8585,
      "ĠSem": 8586,
      "Ġgap": 8587,
      "Ġgay": 8588,
      "Ġdomin": 8589,
      "Ġmountain": 8590,
      "Ġsecondary": 8591,
      "ĠPract": 8592,
      "ĠCR": 8593,
      "Ġextends": 8594,
      "Ġstrongly": 8595,
      "fall": 8596,
      "Ġmoral": 8597,
      "Ġdismiss": 8598,
      "Ġmob": 8599,
      "enter": 8600,
      "/\\": 8601,
      "iah": 8602,
      "Number": 8603,
      "Ġnewspaper": 8604,
      "ĠAfghan": 8605,
      "Ġproved": 8606,
      "Ġheads": 8607,
      "Ġversions": 8608,
      "DR": 8609,
      "Ġmyst": 8610,
      "Conn": 8611,
      "Ġencourage": 8612,
      "ĠRome": 8613,
      "ĠBox": 8614,
      "watch": 8615,
      "Ġtrained": 8616,
      "including": 8617,
      "called": 8618,
      "tics": 8619,
      "idance": 8620,
      "len": 8621,
      "Ġcomprehensive": 8622,
      "axy": 8623,
      "bles": 8624,
      "fa": 8625,
      "ĠCas": 8626,
      "Ġprobability": 8627,
      "project": 8628,
      "Ġenhance": 8629,
      "iamond": 8630,
      "Ġexceed": 8631,
      "Ġlimits": 8632,
      "Search": 8633,
      "Ġpatterns": 8634,
      "vas": 8635,
      "ĠGreg": 8636,
      "Ġhasn": 8637,
      "achment": 8638,
      "VER": 8639,
      "rypt": 8640,
      "Stud": 8641,
      "Ġlect": 8642,
      "ĠExt": 8643,
      "Ġtech": 8644,
      "WE": 8645,
      "Ġpresentation": 8646,
      "una": 8647,
      "Ġcommunications": 8648,
      "Page": 8649,
      "ĠAst": 8650,
      "Ġmeetings": 8651,
      "ĠHeart": 8652,
      "ructions": 8653,
      "ĠDid": 8654,
      "aze": 8655,
      "ĠDream": 8656,
      "ĠEmer": 8657,
      "Ġhits": 8658,
      "Ġdrink": 8659,
      "Resource": 8660,
      "ĠSuch": 8661,
      "Ġindicated": 8662,
      "Oper": 8663,
      "pled": 8664,
      "ĠHave": 8665,
      "ĠProm": 8666,
      "options": 8667,
      "hol": 8668,
      "Ġbutton": 8669,
      "ĠVeg": 8670,
      "Ġfacilit": 8671,
      "Ġapproval": 8672,
      "Ġunderstood": 8673,
      "Ġguest": 8674,
      "cerning": 8675,
      "Ġpotentially": 8676,
      "Ġnarrative": 8677,
      "ji": 8678,
      "Intern": 8679,
      "Ġextreme": 8680,
      "ĠĠĠĠĠĠĠĠĠĠĠĠĠĠĠĠĠĠĠĠĠĠĠĠĠĠĠĠĠĠĠ": 8681,
      "inf": 8682,
      "Ġorganized": 8683,
      "Nav": 8684,
      "otten": 8685,
      "Ġpaying": 8686,
      "Ġmyth": 8687,
      "ĠTravel": 8688,
      "Ġaffili": 8689,
      "eger": 8690,
      "Ġexplo": 8691,
      "Ġjur": 8692,
      "ĠâĨ": 8693,
      "ĠAI": 8694,
      "Ġsky": 8695,
      "Ġarbit": 8696,
      "ĠStudy": 8697,
      "ĠBuilding": 8698,
      "ĠAh": 8699,
      "Ġsimpl": 8700,
      "bottom": 8701,
      "ĠSa": 8702,
      "1982": 8703,
      "Ġconvent": 8704,
      "itory": 8705,
      "BR": 8706,
      "Ġcards": 8707,
      "ogg": 8708,
      "ĠThanks": 8709,
      "ĠMP": 8710,
      "oded": 8711,
      "Dec": 8712,
      "ĠCustom": 8713,
      "Ġfifth": 8714,
      "Ġcombat": 8715,
      "Ġretire": 8716,
      "Ġgovernments": 8717,
      "Ġbare": 8718,
      "ĠĠĠĠĠĠĠĠĠĠĠĠĠĠĠĠĠ": 8719,
      "ĠWas": 8720,
      "ensor": 8721,
      "uted": 8722,
      "etch": 8723,
      "appy": 8724,
      "ĠSab": 8725,
      "Ġefficiency": 8726,
      "func": 8727,
      "ãĤ": 8728,
      "ĠJam": 8729,
      "Ġairport": 8730,
      "Ġconsequences": 8731,
      "Ġentitled": 8732,
      "Ġtom": 8733,
      "Ġstd": 8734,
      "tle": 8735,
      "ĠHop": 8736,
      "Ġprime": 8737,
      "ĠAndroid": 8738,
      "organ": 8739,
      "Ġawareness": 8740,
      "Port": 8741,
      "ĠJean": 8742,
      "bin": 8743,
      "ĠOxford": 8744,
      "Ġyards": 8745,
      "Ġfaster": 8746,
      "Ġconstraint": 8747,
      "adding": 8748,
      "Ġalbums": 8749,
      "perties": 8750,
      "Ġpurs": 8751,
      "ools": 8752,
      "Ġepisodes": 8753,
      "Ġpointed": 8754,
      "Apr": 8755,
      "door": 8756,
      "Ġpresidential": 8757,
      "indu": 8758,
      "Ġimmediate": 8759,
      "Ġholiday": 8760,
      "Ġengaged": 8761,
      "Ġ(+": 8762,
      "raged": 8763,
      "ensed": 8764,
      "Ġwine": 8765,
      "kind": 8766,
      "Base": 8767,
      "Ġworry": 8768,
      "xx": 8769,
      "Ġpercentage": 8770,
      "Ġsought": 8771,
      "raction": 8772,
      "Ġvel": 8773,
      "Ġimpressive": 8774,
      "Ms": 8775,
      "Ġspectrum": 8776,
      "Ġspl": 8777,
      "Ġbear": 8778,
      "Ġtitles": 8779,
      "ouch": 8780,
      "ĠâĢĻ": 8781,
      "ĠMD": 8782,
      "Ġfraud": 8783,
      "Ġscheduled": 8784,
      "Ġclassical": 8785,
      "Ġmagic": 8786,
      "Ġfees": 8787,
      "rox": 8788,
      "ĠPu": 8789,
      "Many": 8790,
      "Ġpapers": 8791,
      "Ġcoffee": 8792,
      "lix": 8793,
      "ĠConnect": 8794,
      "Ġsolo": 8795,
      "Ġgraduate": 8796,
      "Ġupdates": 8797,
      "Ġcycl": 8798,
      "Ġadvis": 8799,
      "subset": 8800,
      "Ġmedicine": 8801,
      "Ġsurgery": 8802,
      "Ġbroke": 8803,
      "anwhile": 8804,
      "ĠSarah": 8805,
      "Ġcontribute": 8806,
      "CP": 8807,
      "ocated": 8808,
      "Ġencourag": 8809,
      "onna": 8810,
      "istent": 8811,
      "Ġadj": 8812,
      "Ġmanufacturing": 8813,
      "ĠAk": 8814,
      "ĠImp": 8815,
      "Ġsections": 8816,
      "normal": 8817,
      "igious": 8818,
      "pes": 8819,
      "ĠDun": 8820,
      "iy": 8821,
      "ĠRos": 8822,
      "Ġpilot": 8823,
      "Ext": 8824,
      "ĠBible": 8825,
      "AME": 8826,
      "Ġsustainable": 8827,
      "Ġknowing": 8828,
      "Ġsurprised": 8829,
      "ĠMs": 8830,
      "ito": 8831,
      "Ġenemy": 8832,
      "cr": 8833,
      "Ġpicked": 8834,
      "mad": 8835,
      "Ġreserved": 8836,
      "Ġfeedback": 8837,
      "Ġinner": 8838,
      "Ġlistening": 8839,
      "illiant": 8840,
      "Gener": 8841,
      "Ġsentence": 8842,
      "ĠRepresent": 8843,
      "onder": 8844,
      "Ġremote": 8845,
      "Ġfulf": 8846,
      "ingham": 8847,
      "Ġbes": 8848,
      "Ġwalls": 8849,
      "Ġvariable": 8850,
      "Ġmatches": 8851,
      "ĠGree": 8852,
      "Ġfab": 8853,
      "ĠDefense": 8854,
      "Click": 8855,
      "Even": 8856,
      "Ġtournament": 8857,
      "bound": 8858,
      "itarian": 8859,
      "unicipal": 8860,
      "Ġsegment": 8861,
      "Ġbehalf": 8862,
      "Ġdiscipl": 8863,
      "Ġhabit": 8864,
      "ĠNaz": 8865,
      "elle": 8866,
      "craft": 8867,
      "ME": 8868,
      "low": 8869,
      "Ġintroduction": 8870,
      "zing": 8871,
      "ĠOs": 8872,
      "ĠModern": 8873,
      "encing": 8874,
      "Ġbands": 8875,
      "Ġfounder": 8876,
      "target": 8877,
      "HL": 8878,
      "roit": 8879,
      "ĠPhiladelphia": 8880,
      "lements": 8881,
      "Ġvotes": 8882,
      "130": 8883,
      "Ġcontinuing": 8884,
      "ĠResources": 8885,
      "Ġuniverse": 8886,
      "allas": 8887,
      "ĠStock": 8888,
      "iffer": 8889,
      "Ġentreprene": 8890,
      "rot": 8891,
      "yes": 8892,
      "ĠUkraine": 8893,
      "Ġrealized": 8894,
      "rane": 8895,
      "ĠMatthew": 8896,
      "Ġdoi": 8897,
      "Ġtroops": 8898,
      "Ġsurve": 8899,
      "ĠPrinc": 8900,
      "Ġprovision": 8901,
      "button": 8902,
      "Ġdepending": 8903,
      "ĠLady": 8904,
      "anes": 8905,
      "ĠTransport": 8906,
      "Ġdriven": 8907,
      "Cell": 8908,
      "Ġboolean": 8909,
      "Ġcontrols": 8910,
      "ĠPA": 8911,
      "ĠSE": 8912,
      "never": 8913,
      "ĠSav": 8914,
      "Ġliked": 8915,
      "upid": 8916,
      "Aug": 8917,
      "ĠVictoria": 8918,
      "Ġvisible": 8919,
      "ĠTake": 8920,
      "ĠProduct": 8921,
      "Ġdeclared": 8922,
      "ĠCollection": 8923,
      "ĠCooper": 8924,
      "Ġalcohol": 8925,
      "Ġstrange": 8926,
      "ĠMap": 8927,
      "Ġundert": 8928,
      "Work": 8929,
      "ĠBattle": 8930,
      "ĠArizona": 8931,
      "istical": 8932,
      "ĠHamilton": 8933,
      "Ġlanguages": 8934,
      "Ġconsent": 8935,
      "Ġtag": 8936,
      "Ġpip": 8937,
      "Ġmaps": 8938,
      "Ġpresents": 8939,
      "ĠLiter": 8940,
      "\\[": 8941,
      "Ġproperly": 8942,
      "ĠRevolution": 8943,
      "ĠFinal": 8944,
      "Ġoutcome": 8945,
      "fire": 8946,
      "dat": 8947,
      "Ġinformed": 8948,
      "ĠGovernor": 8949,
      "Ġexperiments": 8950,
      "Ġà¤": 8951,
      "Ġprocedures": 8952,
      "aire": 8953,
      "Ġthrows": 8954,
      "Ġerrors": 8955,
      "ĠGolden": 8956,
      "Ġprofessionals": 8957,
      "struction": 8958,
      "ename": 8959,
      "Ġsuffered": 8960,
      "odge": 8961,
      "Ġtaxes": 8962,
      "blog": 8963,
      "roke": 8964,
      "Ġinvited": 8965,
      "urers": 8966,
      "itchen": 8967,
      "Ġassigned": 8968,
      "Ġdistingu": 8969,
      "Ġmagnetic": 8970,
      "Ġchannels": 8971,
      "ĠJane": 8972,
      "Ġcourts": 8973,
      "Ġrig": 8974,
      "ĠMake": 8975,
      "Ġswim": 8976,
      "Ġconclusion": 8977,
      "ĠHo": 8978,
      "cup": 8979,
      "Ġderived": 8980,
      "Aust": 8981,
      "Ġboat": 8982,
      "Box": 8983,
      "ĠĠĠĠĠĠĠĠĠĠĠĠĊ": 8984,
      "ugin": 8985,
      "Ġrecovery": 8986,
      "mem": 8987,
      "Sty": 8988,
      "ĠUt": 8989,
      "Ġsurf": 8990,
      "ĠÂ§": 8991,
      "Ġdepends": 8992,
      ")]": 8993,
      "essee": 8994,
      "ais": 8995,
      "Ġtrail": 8996,
      "ĠLind": 8997,
      "support": 8998,
      "ĠStill": 8999,
      "Ġhat": 9000,
      "Ġchair": 9001,
      "Ġtor": 9002,
      "ĠSU": 9003,
      "ĠSoviet": 9004,
      "Ġvariables": 9005,
      "Ġtail": 9006,
      "Ġsick": 9007,
      "ĠTreat": 9008,
      "Ġengage": 9009,
      "otted": 9010,
      "ĠSenior": 9011,
      "Ġ×": 9012,
      "Ġbreaking": 9013,
      "ĠDoctor": 9014,
      "Ġadds": 9015,
      "ĠRoss": 9016,
      "vity": 9017,
      "herent": 9018,
      "OB": 9019,
      "ĠGrant": 9020,
      "ĠMarsh": 9021,
      "high": 9022,
      "Ġneuro": 9023,
      "owed": 9024,
      "SI": 9025,
      "Ġanticip": 9026,
      "Ġtopics": 9027,
      "ÙĦ": 9028,
      "ĠStone": 9029,
      "Ġbatt": 9030,
      "adata": 9031,
      "Ġtherm": 9032,
      "ĠShort": 9033,
      "bu": 9034,
      "ĠEditor": 9035,
      "Ã³n": 9036,
      "iac": 9037,
      "Ġthinks": 9038,
      "Ġrecommended": 9039,
      "BN": 9040,
      "Ġprovider": 9041,
      "Ġprincipal": 9042,
      "Under": 9043,
      "%.": 9044,
      "ĠFR": 9045,
      "Ġintegrated": 9046,
      "Ġjoy": 9047,
      "ĠPack": 9048,
      "Ġcatal": 9049,
      "Ġhurt": 9050,
      "ĠNever": 9051,
      "Ġcharacteristics": 9052,
      "stall": 9053,
      "1981": 9054,
      "Web": 9055,
      "aws": 9056,
      "Ġlawyer": 9057,
      "Ġwalked": 9058,
      "select": 9059,
      "Ġrub": 9060,
      "phy": 9061,
      "ĠEntertainment": 9062,
      "onia": 9063,
      "Ġvess": 9064,
      "ayers": 9065,
      "ĠCrit": 9066,
      "Ġceleb": 9067,
      "Ġprofit": 9068,
      "ĠExp": 9069,
      "Ġparking": 9070,
      "ĠGre": 9071,
      ",âĢĻ": 9072,
      "Ġthousand": 9073,
      "Ġrepresentative": 9074,
      "local": 9075,
      "Status": 9076,
      "sters": 9077,
      "[\"": 9078,
      "olid": 9079,
      "Exp": 9080,
      "ĠBerlin": 9081,
      "Ġauthent": 9082,
      "Ġexplos": 9083,
      "GE": 9084,
      "Ġatmosphere": 9085,
      "Ġpoliticians": 9086,
      "ĠNeed": 9087,
      "ĠOcean": 9088,
      "Star": 9089,
      "Ġstake": 9090,
      "ocratic": 9091,
      "hav": 9092,
      "Ġprinciple": 9093,
      "ĠDom": 9094,
      "Ġanswers": 9095,
      "Input": 9096,
      "incoln": 9097,
      "ĠMinnesota": 9098,
      "ĠDespite": 9099,
      "Ag": 9100,
      "Ġprompt": 9101,
      "GC": 9102,
      "ĠPlace": 9103,
      "({": 9104,
      "Ġmechanism": 9105,
      "Ġanywhere": 9106,
      "vo": 9107,
      "ometimes": 9108,
      "Ġincredible": 9109,
      "ĠSydney": 9110,
      "SR": 9111,
      "ĠCond": 9112,
      "ĠJosh": 9113,
      "ĠTech": 9114,
      "ĠMassachusetts": 9115,
      "Ġcontest": 9116,
      "ĠArm": 9117,
      "Ġobjective": 9118,
      "enz": 9119,
      "mo": 9120,
      "hr": 9121,
      "leton": 9122,
      "Ġhorror": 9123,
      "Ġoperate": 9124,
      "ĠSearch": 9125,
      "Ġtransaction": 9126,
      "Ġ(âĢľ": 9127,
      "ĠAlexander": 9128,
      "ussian": 9129,
      "SO": 9130,
      "nie": 9131,
      "ĠSant": 9132,
      "Line": 9133,
      "Ġcrimes": 9134,
      "Ġsymmet": 9135,
      "ribed": 9136,
      "Ġboundary": 9137,
      "Ġcounsel": 9138,
      "card": 9139,
      "Ġbusy": 9140,
      "Ġvice": 9141,
      "olly": 9142,
      "afe": 9143,
      "owing": 9144,
      "essional": 9145,
      "Ġpropag": 9146,
      "Ġrooms": 9147,
      "MD": 9148,
      "uction": 9149,
      "ĠPatrick": 9150,
      "Ġcompetitive": 9151,
      "BU": 9152,
      "Ġweren": 9153,
      "prop": 9154,
      "present": 9155,
      "Ġcourses": 9156,
      "ĠJason": 9157,
      "Ġpromise": 9158,
      "header": 9159,
      "status": 9160,
      "zed": 9161,
      "Project": 9162,
      "ĠLeon": 9163,
      "Ġentity": 9164,
      "centering": 9165,
      "Ġimprovement": 9166,
      "request": 9167,
      "write": 9168,
      "Ġdelight": 9169,
      "Ġspiritual": 9170,
      "\\!": 9171,
      "Ġchoices": 9172,
      "Ġroof": 9173,
      "Ġelectron": 9174,
      "Ġsin": 9175,
      "Ġneut": 9176,
      "ĠCON": 9177,
      "Ġexperimental": 9178,
      "ĠWisconsin": 9179,
      "ographer": 9180,
      "ĠName": 9181,
      "reshold": 9182,
      "ĠLib": 9183,
      "ĠAnalysis": 9184,
      "Wind": 9185,
      "Ġhopes": 9186,
      "Ġfairly": 9187,
      "Ġfranch": 9188,
      "Ġdestroyed": 9189,
      "main": 9190,
      "Ġfaculty": 9191,
      "ĠRoy": 9192,
      "Ġwarning": 9193,
      "Ġdipl": 9194,
      "ĠJay": 9195,
      "Ġprotocol": 9196,
      "herlands": 9197,
      "eland": 9198,
      "elson": 9199,
      "ĠMoon": 9200,
      "ODE": 9201,
      "itis": 9202,
      "entry": 9203,
      "ĠTR": 9204,
      "ĠQuest": 9205,
      "Ġdrivers": 9206,
      "Ġrecognize": 9207,
      "Ġdatas": 9208,
      "ĠHoly": 9209,
      "Ġgro": 9210,
      "ĠTam": 9211,
      "Ġpermanent": 9212,
      "Ġkinds": 9213,
      "Component": 9214,
      "orse": 9215,
      "Ġru": 9216,
      "Ġfoundation": 9217,
      "Ġinjured": 9218,
      "Ġbott": 9219,
      "Ġstable": 9220,
      "Ġsubmitted": 9221,
      "Ġpermission": 9222,
      "Ġrear": 9223,
      "Ġcategories": 9224,
      "Ġabsolute": 9225,
      "iece": 9226,
      "Ġelig": 9227,
      "ĠMoh": 9228,
      "oen": 9229,
      "{-": 9230,
      "ĠOnt": 9231,
      "doi": 9232,
      "Ġpitch": 9233,
      "ocity": 9234,
      "Ġvaluable": 9235,
      "Ġasks": 9236,
      "Ev": 9237,
      "Ġguests": 9238,
      "\"=>": 9239,
      "Ġwearing": 9240,
      "Ġacknowled": 9241,
      "Ġlock": 9242,
      "agg": 9243,
      "ĠSound": 9244,
      "older": 9245,
      "abil": 9246,
      "ĠCorn": 9247,
      "UK": 9248,
      "Ġblocks": 9249,
      "cut": 9250,
      "riers": 9251,
      "Ġdocumentary": 9252,
      "Î±": 9253,
      "ĠHig": 9254,
      "oured": 9255,
      "aga": 9256,
      "\").": 9257,
      "andal": 9258,
      "Ġexcess": 9259,
      "Ġurg": 9260,
      "Ġrelief": 9261,
      "anny": 9262,
      "INE": 9263,
      "Ġchallenging": 9264,
      "xml": 9265,
      "Ġestimates": 9266,
      "ĠAnton": 9267,
      "UI": 9268,
      "Ġexposed": 9269,
      "Ġtechnique": 9270,
      "FO": 9271,
      "reement": 9272,
      "South": 9273,
      "Ġapplicable": 9274,
      "Content": 9275,
      "Ġhealthcare": 9276,
      "android": 9277,
      "ĠFun": 9278,
      "1975": 9279,
      "True": 9280,
      "ĠDoes": 9281,
      "Ġhoriz": 9282,
      "Today": 9283,
      "Ġoccurs": 9284,
      "ramework": 9285,
      "ĠGa": 9286,
      "700": 9287,
      "asm": 9288,
      "cul": 9289,
      "ĠKelly": 9290,
      "Ġstim": 9291,
      "Ġchart": 9292,
      "Ġemissions": 9293,
      "Ġcopyright": 9294,
      "Look": 9295,
      "Block": 9296,
      "Ġinjuries": 9297,
      "Ġcarrying": 9298,
      "SON": 9299,
      "Ġsubsid": 9300,
      "process": 9301,
      "ika": 9302,
      "ĠMiami": 9303,
      "Ġpresc": 9304,
      "render": 9305,
      "Ġtickets": 9306,
      "Ġbasically": 9307,
      "Ġinvent": 9308,
      "Ġslowly": 9309,
      "ĠSimon": 9310,
      "inded": 9311,
      "igenous": 9312,
      "eron": 9313,
      "Ġcelebrate": 9314,
      "Gen": 9315,
      "private": 9316,
      "eh": 9317,
      "Ġopposed": 9318,
      "Ġunus": 9319,
      "Ġspokes": 9320,
      "Ġfunctional": 9321,
      "ĠMemorial": 9322,
      "Ġconsideration": 9323,
      "Ġbass": 9324,
      "Ġorient": 9325,
      "Ġfaced": 9326,
      "ĠRoom": 9327,
      "ĠPolitics": 9328,
      "ĠRoll": 9329,
      "ĠAmb": 9330,
      "Ġjoining": 9331,
      "Ġabsor": 9332,
      "ĠCab": 9333,
      "ĠContin": 9334,
      "Ġprohib": 9335,
      "btn": 9336,
      "umni": 9337,
      "Ġinitiative": 9338,
      "ĠSquare": 9339,
      "Ġplate": 9340,
      "Ġpersonnel": 9341,
      "ĠLabour": 9342,
      "Ġstatistics": 9343,
      "ĠAttorney": 9344,
      "Ġpainting": 9345,
      "Ġconnections": 9346,
      "ĠSix": 9347,
      "novation": 9348,
      "ĠAccount": 9349,
      "inator": 9350,
      "Ġfinite": 9351,
      "Ġocean": 9352,
      "ĠInstagram": 9353,
      "Ġactress": 9354,
      "roduction": 9355,
      "Ġclimb": 9356,
      "esis": 9357,
      "ĠUsing": 9358,
      "gate": 9359,
      "isd": 9360,
      "Copyright": 9361,
      "bourne": 9362,
      "TP": 9363,
      "rett": 9364,
      "ouri": 9365,
      "Ġsuffering": 9366,
      "ĠAnderson": 9367,
      "show": 9368,
      "Ġaccordance": 9369,
      "DC": 9370,
      "append": 9371,
      "Ġinstalled": 9372,
      "Ġseats": 9373,
      "Ġhur": 9374,
      "1978": 9375,
      "Ġoblig": 9376,
      "Ġrepresenting": 9377,
      "Ġresulted": 9378,
      "Ġconcerning": 9379,
      "ĠScient": 9380,
      "Ġmonitoring": 9381,
      "Ġdiscovery": 9382,
      "University": 9383,
      "Ġbaseball": 9384,
      "Ġterritory": 9385,
      "ql": 9386,
      "dec": 9387,
      "Ġevaluation": 9388,
      "Ġguilty": 9389,
      "Ġdealing": 9390,
      "aria": 9391,
      "Ġrelax": 9392,
      "Ġsuddenly": 9393,
      "Ġrecall": 9394,
      "zeta": 9395,
      "Ġimmigration": 9396,
      "ĠSex": 9397,
      "ĠRegister": 9398,
      "Attribute": 9399,
      "ĠGro": 9400,
      "Ġexclud": 9401,
      "rait": 9402,
      "ĠBridge": 9403,
      "agen": 9404,
      "Ġreturning": 9405,
      "gressive": 9406,
      "ĠLes": 9407,
      "who": 9408,
      "args": 9409,
      "bsites": 9410,
      "Ġtargets": 9411,
      "ĠEffect": 9412,
      "module": 9413,
      "Ġembod": 9414,
      "ĠAtlantic": 9415,
      "ĠAnnual": 9416,
      "ilst": 9417,
      "season": 9418,
      "Ġsubsequent": 9419,
      "akh": 9420,
      "ĠDave": 9421,
      "Ġscores": 9422,
      "dir": 9423,
      "Ġlikes": 9424,
      "Ġcovering": 9425,
      "ĠMarc": 9426,
      "ĠImages": 9427,
      "Ġdivided": 9428,
      "Ġsemi": 9429,
      "Ġoperators": 9430,
      "ĠCambridge": 9431,
      "ĠDiego": 9432,
      "aration": 9433,
      "Current": 9434,
[...]
