#version: 0.2
Ġ Ġ
t h
ĠĠ ĠĠ
i n
o n
e r
Ġ a
Ġ th
r e
t i
e n
Ġth e
o r
a l
Ġ s
t e
Ġ c
Ġ \
i s
l e
ti on
a r
Ġ o
a n
Ġ $
e s
Ġ f
ĠĠ Ġ
ĠĠĠĠ ĠĠĠĠ
Ġ t
Ġ w
Ġ p
m a
r o
d e
in g
Ġ in
Ġo f
Ġ b
t a
Ġa n
s e
l a
r a
i c
m e
i g
{ \
Ġan d
a t
i t
Ġt o
s t
e l
en t
Ġ d
Ġ re
Ġ n
Ġ e
o u
c e
Ġ (
Ġ h
e c
e d
o l
Ġ is
s i
m p
Ġ =
_ {
g e
c h
q u
č Ċ
Ġ m
ĠĠĠĠ ĠĠĠ
l o
u n
t r
T h
Ġ$ \
a tion
u r
ĉ ĉ
a s
Ġf or
i l
v e
t er
v er
ma th
i d
u l
l y
s s
i f
en d
o t
u m
e t
Ġc on
Ġ &
i th
Ġ S
Ġ g
) ;
Ġth at
Ġ v
} \
te d
Ġ {
c tion
Ġ <
h t
b e
Ġ on
} $
- -
i te
o m
^ {
p h
c al
a d
c t
a m
Th e
Ġb e
Ġ A
Ġ C
Ġ Ċ
u s
Ġ de
= "
x t
u t
u re
re f
o w
Ġ l
Ġ I
b le
Ġp ro
Ġw h
r i
Ġw ith
p p
g in
a me
ĠĠĠĠĠĠĠĠ ĠĠĠ
Ġ *
} }
/ /
ig ht
s p
u b
Ġw e
( \
i r
Ġa l
< /
in e
o d
t s
a te
o de
i m
Ġ ma
c k
Ġ }
er e
2 0
be gin
Ġa s
o p
Ġb y
f ra
an d
it y
d i
o re
u e
Ġa re
Ġe x
Ġ M
) $
_ {\
f t
Ġ F
Ġc o
p er
Ġth is
d er
Ġ P
} {
ti c
ĠĠĠĠĠĠĠĠ ĠĠĠĠĠĠĠĠ
m ent
e qu
ro m
e w
p e
te xt
Ġ The
m b
fra c
Ġ B
l i
} ,
ec t
ĠĠĠĠ Ġ
a se
Ġ L
Ġ or
u p
c ite
es s
r ight
Ġ R
i z
Ġ it
Ġ i
b el
d a
la ss
e q
} )
Ġ H
Ġ T
t o
Ġa t
Ġ "
Ġ D
si on
is t
* *
" >
f or
ou n
re s
â Ģ
la bel
in t
r an
Ġ W
tion s
I n
Ġ me
Ġ -
( )
ur n
Ġ E
, \
Ġ N
ou r
p a
Ġf rom
y s
math b
l u
Ġs h
Ġ if
ge t
p ar
ig n
0 0
c on
lo w
f ig
t y
le ft
Ġ G
Ġc h
$ ,
Ġ +
f f
$ .
k e
l ic
r m
math cal
un ction
o me
i v
Ġco mp
Ġ un
d s
ic h
Ġc an
. .
t urn
u se
Ġs t
equ ation
Ġs u
a ve
or t
th er
th e
Ġp ar
en ce
} .
a p
al l
a ge
= =
ti ve
es t
o s
-- --
tr i
i le
er s
p ro
} (
g a
l d
ti al
ar y
c c
Ġ '
d u
en er
l ine
an t
Ġc lass
Ġ Th
} ^
Ġ le
~ \
} _
Ġs e
Ġs ta
a ch
a ble
20 1
a re
m u
a ta
ph a
a v
) ,
) .
se t
Ġn ot
o c
al pha
el l
s er
ti m
Ġ y
Ġwh ich
ĠI n
ti l
ul t
ĠĠĠĠĠĠĠĠ ĠĠĠĠĠĠĠ
Ġo b
ro w
al ue
Ġh ave
st r
Ġ O
Ġf unction
) \
an g
f er
mp le
y pe
b u
o g
ode l
il l
Ġd is
Ġre s
b er
p si
m s
an ce
Ġ lo
ra y
f in
a b
ta in
a g
Ġ [
Ġ //
ar i
Ġ r
Ġa pp
ĉĉ ĉĉ
or k
c lu
Ġp o
Ġre turn
ic al
$ \
i de
1 0
Ġs p
am ma
c ri
f a
on g
en s
_ \
Ġ us
Ġw as
d ing
a y
s ub
1 9
- >
p o
i re
Ġ U
p t
ou t
s o
Ġ k
v el
= \
mathb b
la tion
Ġ\ \
h o
Ġn e
Ġs et
d ot
Ġex p
j ect
tr ing
} _{
Ġ use
C on
i al
o f
} ^{
i el
e x
i es
ti me
ig ma
: :
a ck
tim es
Ġal l
Ġ te
- \
c o
p ut
Ġh as
Ġ qu
Ġ @
Ġ la
our ce
in d
ph i
s um
re e
i on
Ġa d
a c
te s
^ {\
g ra
or y
Ġa r
Ġd ata
Ġ j
ou s
ent s
a ct
a ted
p i
b o
ou ld
e m
w e
um ber
Ġin ter
a k
Ġ< /
mb da
id th
re n
la mbda
Ġ {\
c es
Ġp er
Ġ ra
l on
Ġm odel
b f
ta tion
Ġon e
Ġn ew
Ġ J
s h
Ġn o
ar d
ow n
ul ar
ation s
at or
w o
mathb f
Ġ /
m in
a pp
Ġ V
se ction
Ġp re
an s
ub lic
om m
" ,
ys te
p s
al ign
Ġd o
Ġ en
âĢ Ļ
psi lon
Ġe v
o ver
tri bu
ul l
Ġa ss
de d
b ar
h at
Ġ :
iz e
r or
' ,
( );
v i
ol low
Ġw ill
t ing
( "
p tion
l l
s igma
.. /
n e
ol u
Ġ K
ic e
ig h
ti es
Ġd if
) )
ir st
} {\
ite m
c ol
Ġ( \
u al
be ta
e ta
a st
c re
Ġ |
Ġs a
^{ -
i p
un d
y n
v ar
Ġ .
R e
1 2
Ġb o
i x
ĠW e
til de
th od
Ġh e
oun d
Ġf ollow
Ġm o
Ġcon t
Ġi mp
on e
n o
Ġt wo
Ġ* /
Ġal so
math rm
se d
Ġ x
iel d
u st
---- ----
** **
ti t
ĉĉ ĉ
ro up
di v
+ \
* }
Ġe qu
g amma
' s
le ment
m l
i mp
ic s
w idth
\ \
de l
o k
ec tion
ess age
Ġ ver
w h
Ġs ub
c ent
the ta
or re
la y
n ame
g h
ar k
x i
ar ray
u le
Ġt ran
for m
Ġg ener
Ġsu ch
Ġth ere
Ġ time
Ġcon st
] {
20 0
Ġo ut
al u
or m
^ \
Ġv alue
m o
si tion
fig ure
s c
P ro
a ce
e ar
r ho
Ġp a
W e
del ta
Ġre p
at ure
le d
le q
th is
Ġn ame
Ġwh ere
Ġo ur
u ct
ĠĠĠĠĠĠĠĠ Ġ
Ġl ine
ame ter
Ġt r
ta u
) }
clu de
E x
Ġs tr
is h
yste m
c dot
ĠTh is
== ==
Ġo ther
Ġc ase
Ġon ly
Ġdif fer
ma tion
ĠĠĠĠĠĠĠĠ ĠĠĠĠĠĠĠĠĠĠĠ
Ġa b
Ġo ver
s ta
o id
ti cal
Ġc ol
$ -
sp on
Ġin t
Ġb et
Ġf in
}$ ,
}$ .
Ġd es
E R
Ġan y
b ig
g er
sp an
Ġth en
} (\
Ġ _
or d
> </
( '
eq ref
de x
Ġ ro
in k
Ġt ra
Ġo p
Ġb ut
Ġg iv
Ġs o
p end
Ġc orre
Ġe ach
N ame
or s
Ġp ublic
ar t
Ġm ore
Ġre g
Ġ u
Ġp h
Ġsh ow
Ġt ype
c y
ta ble
o se
Ġs ome
en g
c ap
v ed
Ġ `
par tial
il ity
Ġa cc
te x
n u
Ġ âĢ
Ġsp ec
d ic
de f
Ġf irst
Ġwh en
ft y
is e
1 1
in fty
ul ts
Ġ get
ome ga
> <
| \
ar row
f o
we en
Ġ er
di tion
al ly
it s
sp ace
f ore
o b
a mple
ta b
Ġth an
T ype
u d
pa ce
re turn
Ġn umber
D el
e mp
in ce
h e
w ork
Ġ up
g le
en sion
../ ../
n i
Ġit s
Del ta
Ġbet ween
g es
v es
I N
O N
Ġ id
Ġe xt
c om
lo ck
Ġv ari
c ode
ter n
Ġthe ir
al se
eq n
1 6
si der
il d
z e
par am
Ġn on
Ġuse d
Ġw ork
t on
Ġthe se
qu ad
i e
tr ic
t t
Ġre qu
F or
Ġc ur
ty pe
ht ml
Ġus ing
ce d
Ġde fin
s u
ri v
ren t
ke y
Ġme thod
se c
D e
S T
s f
S tring
Ġsta te
s ource
oun t
Ġm an
imp ort
i b
Ġg ra
eng th
1 5
ul ti
m all
c ess
Ġapp ro
u la
u ra
Ġ es
c ted
iz ation
} [
Ġ$ (
} }\
Ġgiv en
el f
Ġ !
ol ds
ti f
olu tion
in clude
Ġbe en
Ġc om
ase d
m essage
re ss
g y
tr ans
Ġ #
le s
cri pt
Ġtran s
Ġh igh
Ġ >
Ġres ult
I d
\ ,
Ġh ref
r t
i a
)$ .
v al
ore m
Ġt er
ĠR e
ec k
en tial
alu es
n ing
E n
lo g
ĠF or
Ġin to
ro und
s q
Ġe ff
Ġun der
gra ph
R es
Ġ X
da ta
tr y
Ġor der
ma in
iz ed
1 3
v ice
C h
1 8
Ġ el
Ġpar ameter
R E
e psilon
Ġ z
t d
Ġs c
cent er
p m
o te
Ġs elf
a u
se l
on d
y mb
$ $
Ġs im
ir c
Ġb ec
Ġv ar
Ġc al
Ġw ere
T o
ymb ol
Ġp res
d d
l an
} _{\
ar ge
Ġthe y
Ġ= >
Ġre la
e xt
Ġcon sider
ĠC h
wh ere
ol d
tri x
ment s
l ang
Ġ )
Ġs ame
i ed
sp ec
me ga
2 5
Ġob tain
p re
e ver
Ġfor m
ar ch
Ġm od
Ġs er
Ġ Y
O mega
1 4
Ġ --
Ġo per
ĠĠĠĠĠĠĠĠĠĠĠĠĠĠĠĠ ĠĠĠĠĠĠĠĠĠĠĠĠĠĠĠĠ
co mp
er t
m an
A T
Ġdiffer ent
Ġde f
eqn array
a x
Ġpar tic
ec ted
c lass
al s
ma t
Ġ čĊ
Ġy ou
Ġres ults
ma ge
S ta
f ter
Ġob ser
: //
Ġf act
Ġma y
r y
Ġfollow ing
)$ ,
ex p
Ġl i
/ >
g or
^ *
text bf
o mp
Ġ end
um n
ch e
if ic
sq rt
y m
ol og
Ġs ec
b ack
Ġpro v
Ġ= =
i an
G amma
ĠĠ Ċ
ĠF ig
h i
ce ption
ate s
Ġp ol
a ction
o x
as es
on s
as ure
on t
g s
le m
ĠI t
ro u
vel y
c ation
si ze
Ġf ield
w ide
sub section
Ġ Q
# #
Ġtr ue
_ _
Ġn ull
re ad
Ġc omm
Ġse e
Ġs ign
le ct
st ra
fa ult
d is
v are
a th
v ent
" />
an ge
n ew
vare psilon
S t
Ġa c
as s
si m
Ġcomp le
A R
Ġrep res
Ġg o
ot s
ic i
a use
Ġf e
i ew
L ist
Ġs ystem
in ts
Ġch ar
s k
graph ics
s on
cap tion
} ;
) :
Ġh is
re d
ver y
Ġv oid
n er
for mation
Ġan al
at ch
Ġpro per
str ing
Ġte st
ra w
L E
^{ (
Ġ$ {\
} =
le ction
Ġd ire
ect or
c m
A r
um er
include graphics
. ,
}^ {\
ti v
3 2
ĠĠĠĠ ĠĠ
b m
D ata
) =
f ile
sel f
âĢ Ŀ
Ġdis tribu
S S
Ġs pace
m ary
cal e
O b
Ġsu pp
ran gle
O R
ti vely
o le
fa ce
i me
Ġs tring
**** ****
1 7
is ts
Ġw ould
er y
trans lation
r it
Ġbo th
ht t
Ġ& &
ener gy
ver s
' )
um ent
Ġf alse
b ra
ad er
Ġd en
Ġer ror
I D
t en
Ġk n
ic k
\ !
at ing
e p
Ġm in
uct ure
im ension
right arrow
emp h
Ġ\ ,
en tation
Ġme asure
Ġg roup
Ġab out
Ġ low
j ec
Ġcorre spon
n on
al ity
Ġv alues
Ġpro du
re qu
Ġde c
am es
et work
Ġw ell
ĠP ro
Ġpo int
gor ith
i ve
ow ever
l it
Ġe lement
var phi
ge q
v alue
ĠA n
ens ure
mb er
l ing
Ġpro ble
3 0
E N
. ~\
st ance
p r
as h
1 00
ĠĠĠĠĠĠĠĠ ĠĠĠĠĠ
A L
// //
-------- --------
si ble
Ġb ack
v ec
n el
. }
rou gh
pro of
Ġel se
) );
Ġdes cri
ĠD e
g o
y p
te st
Ġb u
Ġmo st
riv ate
i tial
ad d
ar get
p ri
5 0
fra k
A n
p d
orm al
b olds
i tion
Ġpro cess
bolds ymbol
over line
" );
Ġin te
ĠI f
S et
st er
am b
me d
Ġf ra
m od
Ġs mall
}, \
Ġin v
Ġs te
P ar
il ar
en cy
ch i
& \
B ig
Ġcon tain
V alue
[ \
ĠĠĠĠĠĠĠĠĠĠĠĠĠĠĠĠ ĠĠĠĠĠĠĠ
"> <
Ġst ar
Ġex ample
a tive
Th is
or der
f unction
Ġs ur
Ġma ss
] ;
] ,
2 2
is ion
Ġes ti
r ite
t ra
Ġd i
Ġass u
Ġcomp u
Ġsh ould
t op
le ar
Ġ energy
ĠC on
c i
}) .
p lay
math frak
le c
19 9
) ^
C ol
Ġs ize
as k
h line
Ġ ran
4 0
Ġm ulti
vi ew
is m
S er
bo x
la s
' '
Ġ/ **
Ġp os
l im
. _
e y
r ror
ro l
u th
Ġl im
av a
se e
d es
Ġlo cal
l er
Ġs ing
in es
} }$
oc i
in ter
ou gh
ĠâĢ ľ
ma x
Ġ Z
Ġc re
Ġor g
S E
m er
==== ====
m is
D E
tit le
res sion
Ġdefin ed
Ġd ist
Ġb ound
er o
ld ots
Ġex per
li ent
Ġp e
on ent
od y
Ġwh ile
lang le
in s
Ġgener al
n ot
Ġdo es
( $
v en
Ġc lo
Ġ ,
st y
am il
L et
Ġth rough
b in
o st
Ġdis c
B y
de pend
la ce
le t
amb da
bo ve
" )
Ġde pend
L ambda
p x
Ġma t
ma te
Ġ %
Ġin clu
ow er
ens ity
b y
A s
ire d
con t
n ode
c ur
Ġa bove
Ġe very
Ġthe m
f ul
iel ds
P hi
Ġfollow s
Ġl arge
il ter
gorith m
Ġof f
re am
ro ss
Ex ception
ac ter
ensure math
ab ility
la te
Ġsta tic
qu e
a ke
Ġa fter
Ġte mp
sty le
or g
Ġ right
Ġle t
i o
2 1
. \
Ġ! =
le ss
ym me
Ġf ile
n ab
a ys
Ġstr ucture
2 4
Ġh ad
w ith
c irc
in u
Ġfin al
s ing
po sition
app a
C T
Ġma x
Ġl ong
m m
Ġin cre
g r
Ġmodel s
Ġb el
lo b
tex tit
A t
la t
yn am
nab la
ro du
Ġsh own
cite p
Ġs ol
Ġn ow
k appa
Ġcon s
c omm
Ġid en
or ph
en ted
Ġh and
w w
I T
Ġw or
str u
ut o
Ġy ear
Ġth ree
u lation
6 4
A N
ical ly
mb ox
Ġne ed
t al
3 3
Ġs ince
ig in
B u
lo cation
Ġ| |
) (
vi ous
m ark
Ġad d
\ |
U n
Ġf a
b it
Ġn etwork
Ob ject
Ġper form
E rror
Ġc ent
Ġcur rent
c er
en ces
Ġpar t
ur ing
Ġre al
Ġproble m
ĉĉĉĉ ĉ
C omp
ic t
u ch
cc ess
Ġsec ond
Ġa g
6 0
Ġwh o
t us
} )$
Ġto p
Ġ ent
a pa
c or
col or
de fin
s cript
a i
o times
Ġimp ort
Ġ// /
ff ici
Ġbec ause
Ġ key
Ġe d
op er
a mp
s te
g roup
Ġparameter s
i er
od es
Ġst ud
and om
ĠA s
Ġcon n
r c
\ %
Ġob ject
en e
Ġin formation
g round
}} {
ur ther
Ġreg ion
M E
}) ,
.. .
Ġpro b
Ġ` `
n t
Ġn ode
l ish
Ġs ection
e e
Ġdistribu tion
n b
fer ence
in dex
Ġc all
ro p
Ġfe ature
Ġoper ator
ix ed
non umber
G et
Ġcal c
str uct
Ġappro ach
ĠS tring
Ġf ound
b r
i ties
ur al
re ak
ti sf
dot s
are d
M e
Ġp r
Ġra di
Ġgra ph
Ġin put
n g
00 0
Ġver y
Ġp ri
ĠĠĠĠ Ċ
Ġp rivate
o v
Ġ q
\ [
Ġma trix
si ve
n ess
Ġ: =
Ġeff ec
ti ty
Ġal low
ind ow
w ar
u di
ar g
d ate
Ġter ms
ing s
ro ll
' );
Ġde ter
ura tion
op e
() .
re g
() );
ga in
Ġma g
Ġ( $
l ink
re at
i j
ra ph
ff er
Ġar g
Ġin itial
ct or
if ied
S igma
ĠA l
la ck
ro id
2 3
] .
ys is
en se
Ġma in
Ġsim ilar
ver t
Ġv al
un c
C O
ti ce
l ength
p ublic
Ġb ased
w ard
Ġsa mple
Ġpartic ular
ĠH e
a in
ĠTh en
Ġc ould
Ġev en
pa th
Ġsu per
Ġtra in
b ase
if t
Ġprov ide
ma p
Ġd er
Ġr un
L o
Ġpa th
b ility
ic es
Ġs um
Ġle ad
center ing
{ -
Ġman y
tic s
Ġsa tisf
K ey
Ġfunction s
Ġf ind
Ġa m
Ġli ke
S h
/ \
ent ly
Ġt ak
) {
8 0
ĠS t
T est
si tive
pp er
ation al
Ġm ust
sum mary
nb sp
d raw
C lass
er ature
m on
Ġma p
wide tilde
F ile
Ġl ist
Con t
ur l
per ty
Ġle vel
es e
P o
v oid
v ing
Ġh ow
ta tions
L L
Ġchar acter
op y
im um
Ġre spec
Sta te
Ġa ction
a w
Ġt yp
Ġre du
Ġpa per
l ist
vel op
~ ~
able s
R equ
Ġobtain ed
tab ular
ty le
Ġs olution
i or
" ;
Ġle ar
olog y
Ġs equ
or ted
Ġpre dic
ot t
Ġequ ation
ma trix
ic ation
ot ential
H e
Ġ left
m odel
A l
Ġsing le
ou p
ĠE x
Ġc oun
} -
ver se
Ġcorrespon ding
Ġd ensity
Ġe mp
Ġop tim
i mple
Ġexper im
Ġwh at
Ġline ar
Ġp lan
Ġre ad
p ec
a pe
ĠTh ere
[ '
il s
O p
an nel
E lement
Ġh y
Ġad dition
Ġshow s
P E
lic ation
us h
A C
T ime
R O
Ġw ay
Ġa ct
mis sion
() ,
con st
if y
htt p
T E
Ġs cal
z eta
F ig
Ġh el
ser t
Ġst and
la ble
em ma
Ġbe ing
ĠL et
Ġde te
Ġh ere
tiv ity
lo ad
\ ]
Ġch o
Ġpo ints
id es
m it
Ġcon dition
Ġma ke
4 5
Ġex ist
P I
\ {
tribu te
Ġin dic
7 5
ual ly
Ġfin ite
in c
et s
Ġth ose
u c
Ġsta tes
} +
ce pt
Ġre spon
/ **
Ġconst ant
Ġdire ct
N ode
pri me
an ts
Ġev ent
ge bra
te mp
\! \!
V iew
lob al
. </
Ġun i
ch o
9 9
u i
op le
Ġd ue
) =\
Ġ ?
ĠW h
se arch
Ġm on
u g
li es
tern al
Ġh er
Ġ/ *
Ġappro xi
O n
Ġa gain
si de
jec ts
j s
iv al
ĠE q
el y
E qu
u te
p os
ĠThe orem
Ġla st
Ġ );
Ġre f
Ġobser v
Ġpos sible
Ġ& =
Ġin dex
Ġs ource
b ed
lo t
o ther
} =\
Ġ ge
"> </
L A
Ġd imension
2 7
/ *
E vent
ĠT o
o ck
ra tion
) }\
' ]
ĠH owever
Ġor igin
di tions
ti s
W ith
n av
Ġbe h
o th
Ġcont inu
th m
Ġi mage
Ġpro of
S I
{ (
Ġthe ory
d t
Ġs yste
Ġme an
pro p
Ġbe fore
Ġrespec tively
Ġkn ow
ĠU ni
is tic
Ġp ower
} ]
) ^{
In dex
pa ck
Ġv ector
9 0
Ġr andom
I t
Ġmulti p
Ġar ray
Ġde ta
sp ect
ĉ Ċ
as on
Ġlo g
ver age
Ġj ust
ole an
; \
Q u
" :
Ġp otential
201 7
Ġint rodu
om orph
ma ges
stru ction
oc ument
un der
Ġv is
Ġal gorithm
Ġran ge
Ġcon text
T R
depend ent
m i
ag er
Ġch eck
Ġ} ,
Ġstud y
ant um
Ġt arget
Ġ text
or ts
I f
Ġf lu
2 8
f rom
' :
Ġpa ir
ĠA r
i od
is ter
Ġc ode
lem ma
}_ \
row s
Ġcalc ula
I C
Ġcomple x
3 5
Ġph ase
ĠS ta
Ġwith in
Ġspec tr
ule s
Ġpro po
$ )
Ġb lock
Ġcon fig
Ġlim it
in put
our ces
M an
} |
Ġanal ysis
Ġass oci
T ext
Ġt ri
Ġl ength
Ġpre vious
iv ed
201 8
i i
Ġin stance
r on
f ield
In fo
Ġp lay
Ġm y
Ġmethod s
Ġb ase
ch ed
text width
+ +
' t
}^ \
c ing
ĠS ection
Ġdef ine
v ir
Ġpres ent
w n
Ġto tal
P ath
Ġde velop
201 9
k s
f e
cri ption
L e
cdot s
2 6
ĠN ew
Ġs ymme
us er
, -
0 1
l in
a si
se qu
Ġer r
b ut
s mall
}} (
Ġ( !
v ari
Ġter m
Ġver sion
In t
l and
` `
Ġstr ong
a us
le cted
Ġne xt
Ġus er
201 6
q quad
Ġ\ {
Ġ= ==
M A
. ~
ure s
l ight
Ġde g
Ġv iew
Ar ray
0 5
Ġwith out
S e
Ġd ynam
}) \
Ġo cc
ou ble
u til
til l
j o
Ġra te
Ġla t
Requ est
are nt
k ing
Ġy our
math sf
sta te
ĠR es
ĠĠĠĠĠĠĠĠ ĠĠĠĠ
Ġb as
on al
def ine
Ġcon ver
Ġ/ >
tt p
me di
Ġproper ties
ord in
ott om
an el
an ces
Ġst ra
Ġe t
ith er
po int
es sion
Ġex ists
ach e
Ġcont rol
ag es
Ġpe ople
Ġla y
Ġass ert
pd f
t ot
oper ator
P si
Ġdeter min
cal l
no te
x space
) ]
Ġconst ra
pa ge
og le
[ ]
r id
201 5
end s
m id
^ +
! --
Ġz ero
}\ ,
w ise
Ġc lu
Ġc oup
u de
******** ********
Con text
Ġcal led
b or
() )
Ġb oun
ign ed
tical ly
er ror
ĠâĢ ĵ
{ {\
gra m
Ġs pa
A pp
}^{ (
L O
ent al
ar is
Ġout put
ames pace
Ġw idth
st ar
ri de
ap i
Ġm om
o ff
Ġm uch
//// ////
ĠĠĠĠĠĠĠĠĠĠĠĠĠĠĠĠ ĠĠĠĠĠĠĠĠĠĠĠ
ra c
Ġ title
ĠL emma
& =
Ġt ask
lo at
Ġin du
mo ve
A dd
Ġn ormal
b ody
tr ue
Ġ} );
Ġte ch
Ġre main
Ġop en
ĠS h
Ġcon ditions
u pp
2 9
I te
Ġperform ance
=" +
htt ps
wide hat
Ġs imp
e ps
th ing
Ġd uring
Ġfra me
Con fig
d o
Ġfor mu
7 0
Ġlow er
Ġprob ability
val id
d en
=" ../../
ĠFig ure
il der
A D
si f
" "
app ro
' ;
Ġsa id
Ġa uth
U R
Ġdi ag
6 6
Ġ times
Ġiden tif
M ap
Ġi mple
ĠN o
c os
3 4
Ġyear s
ic on
Ġst art
Ġ$ (\
}\ \
Ġa v
wh ich
on ents
Ġe lec
O f
Ġmat ch
l us
Ġc ar
c up
Ġc irc
C ode
O ver
se ts
ile d
Ġsh e
Ġexp ected
Ġrequ ire
Ġproper ty
con fig
Ġ& \
ĠO n
sub set
ne tic
la ted
Ġch ange
ens or
g ed
Ġkn own
Ġw rit
Ġqu antum
b lock
Ser vice
it or
g ing
Ġsyste ms
a ti
201 4
V er
Ġback ground
Ġpo sition
p on
ĠB y
ĠE n
Ġde fault
ly ing
lo y
M L
19 8
Ġt ake
N o
F rom
s cale
Ġb reak
M P
al ax
D es
ur b
amil y
or ding
um b
Ġn il
Ġs imple
S ize
E D
Ġfact or
Ġsign ific
Ġpo sitive
fo ot
Ġsequ ence
Ġdisc us
Ġf il
Ġg u
Ġf our
F F
Ġimport ant
Ġp op
equ iv
e ffici
} :
res ult
en c
v is
tr on
ĠĠĠĠĠĠĠĠ ĠĠ
Ġcon f
id er
}} {\
ĠU n
pp ing
l ue
4 8
ran s
ch eck
A B
Ġre le
Ġs till
s w
Ġcont ra
ne xt
e v
il li
Ġal ong
Ġch ang
am s
if e
im al
Ġsupp ort
I ON
at tern
Ġelement s
Ġc ases
k en
Ġph ot
li ed
de fault
Ġhigh er
ĠA ss
at er
ind ent
Ġequ ival
Ġassu me
Ġ ke
Ġbeh av
U T
Ġc lear
Ġi de
Ġtemp erature
O r
Ġ} ;
Ġth us
he ad
] $
Ġf ixed
ting s
qu ot
A S
ol l
las sif
5 5
able d
apa che
lic it
Ġval id
Ġab s
en umer
Ġstand ard
Ġext ra
m ar
i k
oc us
w ord
Ġcont ent
B e
} +\
Ġprodu ct
Ġobser ved
Ġtrain ing
om in
Ġassoci ated
3 9
W h
ser v
Ġf urther
Ġe ar
M odel
| ^
00 00
et urn
si an
Ġinter action
ter s
cre ate
h er
ust om
re p
li p
lo c
I I
Ġev alu
ic y
w ay
d imension
Ġd own
ob ject
Ġph ys
Ġ label
cite t
C H
' $
m d
Ġma de
Ġimp ro
201 3
Ġm ar
( {\
n eq
h space
olu tions
Ġ_ _
3 6
um ents
en u
ver sion
D is
as ing
Ġst udi
re t
r ing
) -
c l
Ġle ast
g ener
u mp
Ġa round
Ġpropo sed
Ex p
x y
Ġcol or
yn c
Ġs cale
T r
mer ic
Ġse ver
me mber
Ġcon tribu
Ġf requ
al le
ai lable
dis play
ĉĉĉĉ ĉĉ
da y
Ġdif f
n et
w ays
as sert
} -\
an y
Ġal gebra
Ġf ields
sp lit
foot note
Ġqu an
H and
Ġden ote
ou se
Ġf ull
3 8
ĠO b
ti g
20 20
Ġin f
read y
s in
defin ed
M essage
Ġl ines
E T
I S
o h
Ġapp ear
Ġper iod
Ġbel ow
the orem
in ed
it ch
w are
ĠL e
er m
Ġm ark
Ġop tions
vir on
Ġre spect
Ġse par
Ġsignific ant
Ġcomple te
i ted
Ġcom bin
u age
R ec
Ġgo od
## ##
c an
operator name
st and
Ġ- \
Ġf ree
me thod
ed ge
tion al
Ġc ross
en ded
n al
Ġste p
it er
il y
ĠS ince
enumer ate
Ite m
b t
Ġanal y
Ġe ither
Ġequ ations
c le
F ield
Ġcomm un
Ġde p
h as
Ġcre ate
r is
Ġ-- >
ta g
Ġsp in
) }{
Ġb in
] \
Ġdist ance
Ġrequ est
Ġg alax
Ġcons ist
ol umn
Ġb est
Ġen c
( -
m ul
f unc
Ġn umer
ar s
Ġin st
y ing
Ġinclu ding
item ize
ĠM e
olog ical
Ġbound ary
le te
da g
sc r
ction s
S ystem
b s
fa ct
Ġre c
tic es
Ġex act
v space
d oc
Ġeff ect
er n
3 7
re ate
Ġw rite
vers ity
p ng
Ġl ink
Ġfeature s
m y
Ġne ar
Ġwe ight
Ġle ss
Ġdo main
E S
tain er
Ġre ce
Ġesti ma
n s
I s
ref er
pon se
Ġlear ning
f ill
In ter
( (
Ġinter est
I G
r ary
{ }
en ame
Ġed ge
4 4
Ġf it
Ġch ild
om ial
no indent
201 2
ig en
Ġlo ss
Ġc ri
Ġsim ula
9 5
con n
Ġb i
Ġa uto
ar ger
p c
Ġcomp onent
Ġme ans
Ġconsider ed
e ther
b ased
T able
st art
C o
s l
---------------- ----------------
Ġdescri bed
ww w
res h
O ut
) }$
Ġrespon se
Ġlo ok
Ġdefin ition
U LL
ti o
P i
Ġav ailable
over n
Ġrequ ired
ĠA pp
Ġcol umn
Ġl ight
U N
Ġa verage
ĠTh ese
\ ,\
}} _
Ġclo se
ĠA d
Ġexp ression
= '
$ }
mb ed
ish ed
Ġimp lies
ĠTh us
in fo
ate g
k n
Ġv el
ch ie
C C
Ġd id
Ġacc ura
r ule
comm and
g l
r al
0 8
3 1
par t
ateg ory
Ġch annel
Ġden o
lo cal
Ġs pe
p or
Th ere
] (
dimension al
6 5
& &
olu me
l t
) {\
ste ad
op tions
Ġsever al
Ġp ers
] [
======== ========
ur ity
r ic
roll er
Ġm is
0 4
Ġj ava
cur rent
0 2
he ight
Ġset s
for med
Ġf low
line ar
Ġc ell
Ġmom ent
\ }$
G roup
IN G
ut ure
mul tic
Col or
N ew
ĠC omp
Ġun it
ang le
if orm
Ġc y
g t
Ġgener ated
Ġa ff
oc ity
an e
P T
math scr
Ġp ass
Ġ im
Ġsur face
D O
al th
ti tion
bu g
Ġit er
lu gin
a h
m ulti
Ġco effici
sk ip
Ġc er
Ġcontain s
ga tive
ĠA t
~ $
Ġpro te
at ter
I R
A ll
Ġla w
Ġs ide
g en
Ġre cent
con text
Ġf la
ra m
f alse
rit er
ĠG et
n ormal
Ġb and
ĠA meric
201 1
multic olumn
ec ess
l n
Ġv ia
Ġre fer
t le
av ing
Pro perty
te q
aris on
d own
C ell
Ġa chie
m entation
cont ent
Ġan other
pp ed
Ġc ap
Ġrepres entation
Ġocc ur
ith ub
b b
appro x
us ing
re en
Ġspec ific
Ġin clude
j or
cho ol
Ġ\ |
Ġhel p
Ġl arger
ch an
mo st
Ġequ al
st o
ĠI s
p ort
Qu ery
ĠS o
end er
i ble
} /
S ub
0 7
ch ar
Res ponse
we b
O T
Man ager
G L
Ġh al
Ġc lassif
Ġvari ables
Ġre lation
Ġco ordin
mo oth
si te
a it
ec u
ĠM ore
Ġs ay
Ġbet ter
Ġal ready
o sition
Ġt able
sta tic
M od
Ġno te
Ġs rc
Ġpro ve
L og
6 7
Ġse arch
C omm
Ġs k
t or
Ġn at
Ġassu mp
f low
Ġs olutions
N N
Ġrela tions
Ġm ode
Ġd iv
) +
Ġh olds
Me thod
h and
o o
um an
th at
Ġqu es
ok en
Ġh im
Ġg lobal
che ma
Re g
si d
E E
text tt
Ġorigin al
EN T
ist ory
ĠS et
go ogle
viron ment
Ġt urn
Ġme di
k es
Ġm essage
Ġf ew
. âĢĿ
Ġwor ld
g g
v ices
201 0
Ġin dependent
et y
du ct
tr m
Ġo wn
tic le
c lo
> &
se teq
la tions
er r
Ġrela ted
En d
g ithub
n ow
Ġse en
t ual
L a
s tit
Ġh om
Ġgiv es
j ava
ic ro
}} }
Ġbo ol
tex trm
S P
c ore
c el
Ġ _{
ĉ ĠĠĠ
e lement
Ġal ways
U ser
tot ype
C D
Ġg ive
m ore
div id
ĠS ec
mod ule
Ġg reat
S ec
c ase
d b
C lient
Ġwe ak
s m
. $
ex ample
Ġmag netic
i mage
ter ial
A ss
4 9
Ġadd ress
ĠĠĠĠĠĠĠĠĠĠĠĠĠĠĠĠ Ġ
under line
^ -
ĠS ystem
la im
le g
Ġcan not
ĠC ol
pack age
Ð ¾
di re
In put
Ġinte gra
Ġwh ether
g ence
fin ite
Ġc l
0 6
Ġthere fore
n ed
Ġsu ccess
="../../ ../../
res sed
r un
jec tive
Ġser ies
ear ch
Ġ$\ {
ĠAn d
al e
0 9
Ġl ang
T D
a de
om en
0 3
An d
a il
M S
A A
l ong
ĠP ar
ĠN ote
sion s
Ġcomp onents
Ġesti mate
min us
] )
Ġclu ster
ir d
ou d
a f
ĠT able
( {
Res ult
C all
F ra
{ $
Ã ©
lish ed
Ġw ave
sub seteq
ce p
Ġreg ular
The ta
Ġi mages
Ġco st
N S
6 8
ore d
Ġtran sition
ĠThere fore
and roid
yn omial
F act
C ount
Ġl it
col umn
che me
Ġ\ ;
Ġc or
c ss
Ġf ilter
a cc
Ġs yn
Ġn ecess
S ince
ĠG L
Ġp la
f s
Ġs tyle
A d
Ġne u
Ġcomm on
th ough
4 7
} '
Ġb ro
or iz
Th en
) ,\
Ġ$ |
Ġp ur
od ing
gin e
ph er
A P
Ġp lace
; &
Ġinv ol
Ġob jects
ict ure
V al
ge ther
or ies
au th
Ġmultip le
}^{ -
h ip
a z
g ment
i ence
Ġexp ect
Ġsh ort
pro d
ck et
Ġprovide d
Ġcoup ling
ol der
or th
Ġspectr um
Ġeffec tive
< \
O S
led ge
Ġre ason
Ġmax imum
Ġaddition al
Ġm en
Ġbu il
ac tive
Ġ( )
y mp
Ġh ttp
g ht
Ġre search
om es
> (
divid ual
und le
e V
e vent
T ra
i res
n orm
T H
T rans
Ġj o
E X
Ġdes ign
Ð °
Ġagain st
Ġ( -
ate ly
Ġth row
me ta
Ġf amily
but ton
Ġpre c
Ġev ents
}} _{
par ameter
Ġb lack
Over ride
Ġst d
Ġvel ocity
o ve
G ener
Ġdiffer ence
Ġat ta
tation al
Bu ilder
Ġinte gr
N ot
ome try
si tions
) |
C E
^{ -\
le vel
}} ,
ma tic
emp ty
8 5
.. ..
qu ery
Ġhe ight
Ġ< <
inc ip
Ġdeg ree
c tive
d ir
li ke
Ġe igen
Ġmo ve
Ġder iv
Sta tus
c ast
St ream
S c
Ġm ight
Ġs w
Ġme tric
Ġthe orem
Re f
p ol
200 9
r r
7 7
og raph
th es
o ot
op tion
Ġspec ial
ĠB ut
kn own
Ġin ves
om ic
B ar
set minus
es ts
Ð µ
Ġn odes
Par ameter
Ġeff ici
T oken
Ġeffec ts
U S
ĠT r
Ġrela tive
Ġinv ari
ĠS er
. "
Ġmod ule
Ġw ant
ĠĠĠĠĠĠĠĠĠĠĠĠĠĠĠĠ ĠĠĠĠĠĠĠĠĠĠĠĠĠĠĠ
âĢ ĵ
it al
Ġbas is
end ing
er nel
E xt
Ġvari able
L ine
in ally
Ġev olution
ch ild
ic tion
AT E
fra me
to col
line width
Ġtr y
ĠĠĠĠĠĠĠĠ ĠĠĠĠĠĠ
ec h
dag ger
a ir
Ġd on
lim its
lic k
S tyle
la p
ĠC omm
Ġme chan
Ġcomp ared
Ġf ar
app end
e f
Ġdire ction
Ġstar s
di ent
v an
ta ge
qu are
N ote
ab s
id ence
Ġ( $\
L T
Ġ ti
if f
Ġcontinu ous
* {
; </
Ġvari ous
Ġla ter
A ME
Ġb order
war ds
Ġ$ [
ĠN ULL
Ġsign al
ĠĠĠ Ċ
Ġdata set
Ġh owever
Ġre ference
P er
n ull
ti z
P S
k et
=" ../
P re
Ġare a
Ġd one
Ġtyp es
b ottom
e ff
in o
w edge
iv en
D ate
Ġd ouble
Ġre str
w rite
omorph ism
Ġin equ
c ell
j ection
n amespace
F I
mb ers
Ġra tio
Ġc our
de ed
_ +
B ut
Ġhy per
B ase
sta ck
Ġpres ented
Ġcent er
ut ing
Ġpol ynomial
V ert
Ġapp lied
sub figure
Ġwh ose
iz es
il ities
A M
iz ing
ĠUni versity
Ġcon struct
\ }
ĠThe y
Ġre mo
Ġp anel
D ec
Ġre ach
ma il
Op tions
P h
umb ers
Ġin dividual
Ġstra te
b lack
Ġlo c
9 8
Ġpo st
F T
iz er
v alues
Ġgroup s
Ġro le
pr int
Ġp ack
Ġ\ (
t urb
Ġmar gin
S U
Ġequival ent
Ġu pper
7 8
Ġset ting
or age
Ġcer tain
Ġin stead
ĠB o
Ġbo olean
Ġ ]
Ġe mbed
Ġa mp
H T
pro totype
Ġg row
ch ange
c lient
B lock
Ġa x
co ver
s up
f irst
Ġli k
Ġlay er
m es
Ġver tex
Ġuni que
A G
e k
re es
Ġacc ording
U til
Ġapp lic
ho od
Ġw ar
In stance
Ġexp licit
ĠP h
ĠC o
l en
Ġbehav ior
B o
ĠA ll
$ _
da p
b ul
Ġ Ð
Ġno ise
Ġme m
ect ors
con d
Ġsp ect
I mage
Ġexp an
ĠWh en
S ource
Ġdeta ils
_ *
op lus
Equ al
se lect
bo ok
Ġ$ -
big g
d le
Y PE
t arget
200 8
_{ (
S p
Ġen ough
Ġrepres ent
ad ding
es ted
Ġclo sed
Ġsta tis
= {
S pec
Ġ+ =
Ġ il
ide o
defin ition
Ġacc ount
Ġne igh
re l
Ġl ife
Ġo pp
b a
Res ource
en ari
d ro
ck s
Ġfrequ ency
Ġs mooth
ig ger
\ "
Ġe mission
Ġboun ded
Ġext ension
oll ary
Ġoperator s
Ġtran sp
Ġf ocus
Ġser vice
Ġflu x
Ġf ig
ta tive
su pp
Ġf uture
l or
Ġth ink
for ms
requ est
ari es
ĠC ar
en tif
=" #
ran ch
Ġnat ural
Ġexp lo
amil ton
in ess
Ġp rac
Ġapp ly
Ġacc ess
Ġh ence
en ti
4 6
ĉ Ġ
or ld
C K
Ġpro file
Ġin c
Ġun cer
) </
Ġg au
ou th
4 2
align ed
S C
Ġf ore
ĠP re
ĠR o
Ġdirect ly
bt n
ran ge
t ure
e ded
F e
Ġes tab
Ġa ble
Ġtak en
Ġs to
alle l
Ġto gether
Ġsymme try
Ġmat ter
ma g
Ġf un
Ġtech ni
c s
âĢ ľ
Ġdis play
Ġformu la
Ġobserv ations
P C
) /
Ġan gle
Ġbe gin
Ġg as
Ġde cre
S upp
= (
)\ ,
li b
u ss
s a
al k
ER T
H E
8 8
_{ {\
Ġpro ject
Ġ item
O O
p ush
}} (\
ON T
M M
9 6
Ġ }\
re spon
tribu tes
' \
R I
Ġapproxi mation
per ties
ial ly
Ġsu ffici
pro perty
R un
L ay
E d
Ġw indow
} );
Ġcho ice
c r
Ġpri or
Ġsmall er
F unction
$ (
op en
I mp
is ed
Ġ- >
_{ -
ator s
text sc
Ġchang es
Ġup date
f ont
n a
Ġorg an
Ġunder stand
Ġdis cre
Ġp attern
f it
c ount
Bu ffer
Ġinter nal
enc ies
Ġcur ve
O per
Ġ ~
Con n
Ġg overn
Ġpro gram
Ġallow s
Ġinter val
re ed
mat ch
Ġd ocument
Ġimpro ve
Ġt ree
N et
Ġs ite
Ġv ir
Ġto o
Ġapp lication
ty p
Ġoptim al
Comp onent
ĠD is
Ġwrit ten
Ġ| \
d l
ĠPro position
p tr
use d
Ġexp la
s g
Ġun iform
Ġh ard
< !--
av es
Ġhe ad
Ġam ong
Ġprov ides
At tribute
Ġframe work
Ġand roid
Ġm er
Ġarg ument
Ġspec ified
rop y
sc ope
id den
tri es
Ġdynam ics
Ġ row
Ġproble ms
ar ing
ĠB e
Ġof ten
Ġsatisf ies
col on
str ong
Ġconfig uration
* /
Hand ler
ol s
200 7
Ġar bit
Ġ" ""
c ity
Ġs it
qu es
Ġstr uct
: \
pro cess
9 7
u k
id get
Ġac ross
Cont ent
pd ate
ser ver
Ġbec omes
j son
ĠP o
Ġre st
ph p
' _
Ġqu ery
pa rent
F irst
Ġres ource
Ġen ti
Ġp age
4 3
Ġar ch
F ilter
I L
bu f
ĠF e
lu stra
Ġpartic le
f ilter
in it
ĠĠĠĠĠĠĠĠ Ċ
mon stra
Ġma jor
Ġcorre ct
Ġpro ced
Ġconn ected
ĠC an
) }(
pa g
m ine
n it
p g
ĠS e
Ġdetermin ed
Ġcon struction
Ġphys ical
Ġra ther
Ġpartic les
an k
des cription
Ġre d
200 6
Ġcompu te
Ġre l
od er
, âĢĿ
ĠR eturn
ic ense
Ġver tices
m t
he ader
n umber
oc ial
and s
al og
ĠL ist
Ġgalax ies
s rc
Ġgau ge
for all
os en
l s
U E
A ction
Ġsample s
\ '
,\ ,
ĠW ith
C ur
Ð ¸
Ġma terial
d im
Ġelec tron
par se
F A
Ġ ir
ll ar
N ow
O ne
Ġnumer ical
Ġun til
ob j
ta ct
Ġp lot
d x
oh n
O ff
aus sian
sub subsection
Ġma ps
ĠO ne
Ġpr incip
cre en
st ream
Fra me
Ġn uc
in te
v ant
re mark
Ġo ld
Ġse lect
= -
in a
De fault
our s
c at
Ġ( (
z ero
Ġde monstra
Ġe asi
Ġh app
P RO
) ^{\
Ġexperim ents
le ase
Ġco ver
Ġradi us
Ġregion s
la st
Ġemp loy
N umber
f il
Ġdiscus sed
per p
S O
{ {
o od
ĠO r
ab ly
ĠH ence
Ver sion
mp ty
For mat
Ġp ut
S D
ref ix
Fact ory
Ġs cheme
v ider
5 7
Ġbo ok
) _{
Ġcol lection
Ġn umbers
Ġincre ase
s cri
al y
Ġoper ation
f la
B ox
[ "
Ġsimula tions
E q
}$ -
Ġbec ome
Ġs ources
Ġso ft
ĠT est
Ġag ree
Ġ! ==
i ous
Ġd oc
ra di
ific ation
Ġclass es
Ġspectr al
u ary
Ġsc atter
f loat
Ġcri tical
Ġen vironment
Ġwor ds
Ġclass ical
T O
Ġcomp act
fo o
8 7
Ġincre asing
and id
r up
ĠD ata
Ġext ends
n um
Ġques tion
ho st
olu te
Ġ+ \
Ġamp lit
M O
Ġ url
ĠI N
fin ished
P r
ve x
d ist
Ġs en
un it
re m
Ġwork s
Ġmoment um
I P
N ull
op s
ĠN one
k ip
r u
Ġlat tice
on ly
un e
Ġman if
g ies
Ġd omin
ome tric
Ġcorrespon ds
5 6
Ġdescri ption
Ġo ption
end if
D B
Ġne gative
co mple
Ġcall back
Ġauth or
Ġf ul
c orre
M eta
ĠR ec
ber t
" .
bul let
for mat
so ft
r s
g ress
Ġconstra ints
u sion
Ġro ot
p matrix
Ġinequ ality
ra g
b i
" ]
Ġdescri be
Ġcomp arison
20 21
Ġlang uage
Ġg round
gorith ms
ite ms
m ic
Ġsc enari
Ñ Ĥ
ide d
Ġcon ven
tr an
Ġc apa
us iness
Ġrepres en
T ask
ĠC oun
su per
N ext
x ml
le y
H el
in ing
Ġc lient
Ġresult ing
) ^{-
La bel
ite ct
ding s
ymp to
ri er
C L
Equ als
Ġb ody
Ġdec ay
Ġscal ar
Ġt ensor
Ġneu tr
Ġaccura cy
ur y
4 1
u ro
Ġerror s
ĠH amilton
Ġconn ection
s es
Ġal most
c ases
Ġspa tial
ĠL o
al t
c d
//////// ////////
Ġh aving
ce ed
Ġr ule
{ $\
T ag
D F
illi on
up date
stra ct
Ġper turb
20 00
il i
5 8
Ġ{ @
Ġmin imum
ĉĉĉĉ ĉĉĉĉ
W indow
b ound
a ma
R ow
Ġper formed
C P
Ġintrodu ced
Tr ue
Ġfor mat
Ġapproxi mate
th en
Ar g
s ur
Ġpar tial
op t
$ {
Ġassump tion
b reak
sta tus
Ġt w
Ġcoeffici ents
Ġcent ral
.~ (\
Ġde comp
el se
Ġed ges
Ġder ived
Ġse lected
) }{\
ĠRe g
Ġf ac
Ġpe ak
u ation
no tation
tric es
Ġinter pre
un finished
j av
h el
o sed
H ere
ĠY ou
Ġd ay
Ġmeasure d
A cc
Ġmeasure ments
lic e
Ġd raw
Ġinter face
ĠOb ject
)\ \
me q
N av
ri es
}^ *
Ġinves tig
Ġarg uments
$ ).
Ġsupp orted
ĠAmeric an
Ġinte ger
\ _
s igned
Ġnetwork s
Ġc ount
Ġmo tion
p rivate
Ġh uman
}} ^
Ġcontribu tion
le x
ĠH ere
l ines
Re ad
Ġlo cation
Ch ild
g ges
Ġp arent
m ma
f ree
Ġcorrespon d
( [
as y
200 5
an i
Ġg ame
V ER
Ġsol id
Ġc opy
an ish
po st
Ġil lustra
si meq
Ġfra ction
( &
sh e
Ġt ag
Ġbel ie
Ġs ense
19 7
Ġfa il
is ing
sequ ence
Ġc ore
la sh
Ġnecess ary
IN T
Ġplan e
bu ild
r l
ĠC or
Ġtech n
im ilar
Ġv olume
Ġprote cted
ĠMore over
s ol
fin d
Ġpol ar
on y
ta te
ĠG ener
row ser
ĠC O
ĠO ur
se mb
t x
Ġpre ss
ĠO p
ance d
P ol
ar gs
re move
is ted
L ink
C reate
Ġse lection
\| _{
L S
} %
p y
in f
~ $\
Ġlo ad
Ġma kes
Ġsp lit
ra te
N O
resh old
Col lection
~~ ~~
li er
L oc
Ġpol icy
P age
a ded
Ġth rows
Ġcalcula ted
lo or
Ġcompu ted
Ġthe ore
Ġdeno tes
Ġdiff ic
I M
Ġ$ {
in ue
Ġpop ulation
Ġn one
Ġin finite
Ġlead ing
Ġsimp ly
Ð ½
Ġne eded
Ch eck
Ġbo x
is ms
} )$.
id ing
P O
h ib
Ġdete ction
Ġs s
in ner
Ġdepend s
Ġintegr al
Ġsim ulation
Ġad ded
v ector
urther more
Ġ ;
g u
Ġdistribu tions
) _
Ġtak es
ma tions
LA SS
6 9
ra p
_ .
ren g
Ġear ly
Ġtak ing
ĠM an
Ġcorre lation
v o
Ġth ird
yp es
age ment
Ġrequ ires
Out put
Ġ= \
out put
Ġc laim
Ġbu ild
)$ -
Ġus es
| _{
ĠU S
M C
param s
Ġs ent
Ġmem ory
ĠL i
Ġlead s
Ġgo ing
fin ition
C om
S ON
h om
}} ^{
$ $\
ĠUni ted
ix el
Ġh ome
Ġconsist ent
L ength
Ġhal f
Ġtra ck
Ġser ver
um in
Ġp ub
Ġc are
Ġke ep
map sto
Ġsh ape
Ġc ause
Ġtrans form
-- -
u ter
Ġch osen
s ue
++ )
return s
Ġ[ ]
ti k
u int
end ix
clu sion
Ġne ver
O ur
Ġh ost
C ase
lay er
Ġ&= &
de p
Ġh ar
rodu ction
il ib
Ġstudi es
respon se
Ġproced ure
im g
5 00
Ġsh all
Ġinvari ant
Ġsu gges
us ic
Ġp as
Ġex ecu
Ġrepres ents
og ene
Ġst ream
Ġre view
> >
t ree
$ ^{-
ĠQ u
Ġs ymbol
or ds
b old
Ġal gorithms
Ġsta tus
Ġ ensure
po se
Ġexperim ental
Ġor bit
ph ere
5 1
sh ow
ĠF rom
pre c
Val id
St art
" ),
v olution
ion s
Ġre n
v ity
' }
Ġme ta
Ġmen tion
nav bar
ĠS ch
Ġon ce
c f
Ġcre ated
M ore
min i
Ġcho ose
Ġuse ful
R L
de c
ash ed
Ġd ate
Ġdisc uss
ĠRe f
Ġk ernel
p res
ĠC ent
Ġch all
List ener
B U
ot o
dition al
Ġs chool
Ġac tive
ag raph
Ġexample s
RE F
Ġenti re
on ic
Ġm id
Ġstudi ed
I O
Ġgener ate
ate gor
5 9
Ġexpan sion
Fig ure
z z
Ġp ay
pro to
ol ve
Ġarbit rary
m enu
S tr
200 4
Ġat ten
p icture
Ġsymme tric
, "
ĠS te
P P
Ġma trices
AB LE
Ġam ount
Comm and
ĠC al
b lue
s ign
Ġinterest ing
Ġcur ves
Ġdeter mine
Ġinclu ded
Ġob j
Ġch arge
new command
ER R
clo se
str ucture
Wh en
ran t
C an
Ġredu ced
ĠS p
Ġ ess
ag ed
pro position
The orem
Ġb it
Ġad j
ri ver
Ġdepend ence
R ight
A uth
\ {\
Ġd ual
Ġme mbers
ĉĉ Ċ
C S
m ented
p le
Ġwe b
^{ +
Ġf ast
Ġreturn s
Ġle g
v ision
Ġ$ .
a uto
Ġpos si
Ġmin im
stru cted
M ax
ri ef
se m
Ġh istory
Ġc ut
ĠG aussian
Po int
st d
st ers
V E
ĠB u
ĠM ar
Ġsub set
Ġprocess es
UR L
Ġmod es
) },
q l
lic ity
c ial
Ġ$ $
R eturn
Ġfor ce
con tainer
ĠĠĠĠĠĠĠĠ ĠĠĠĠĊ
Ġchild ren
Th us
re du
ĠF irst
Ġco me
ou ght
F ONT
tr ics
Ġpar ts
Ġbin ary
Ch ar
// /
Ġspa ces
. /
ĠN e
8 6
Ġcomp are
Ġt reat
Ġb ar
om s
p lace
so le
od ot
5 4
ous ly
M ode
en ch
Ġit self
ti fact
ĠM on
Ġintrodu ce
ilib ri
Ġh o
Ġrele vant
dire ct
$ ;
exp ected
al i
Ġc ustom
con f
p lan
T P
Ġspect ra
res ults
ĠP er
**************** ****************
te ger
W idth
Ġw ord
Ġy ields
in stance
Ġtrans fer
A c
ĠSta te
Ġres olution
refer ence
But ton
Ñ Ģ
Ġexperim ent
Ġpres ence
Ġrep ort
5 2
ĠâĢ Ķ
Ġran k
ser vice
Ġpair s
H owever
Ġf ace
8 9
ent ry
U p
Ġch ain
at tr
C ON
Ġu int
L P
Ġexact ly
i mages
Ġprodu ction
pro du
off set
' (
ĠI D
omorph ic
De f
oriz ont
b its
Ġimp act
su es
Ġl arg
u me
Ġqu ad
: "
U I
ar ds
Ġother wise
u be
ri ed
Ġde ep
Ġfig ure
Ġc andid
Ġma king
Col umn
Ġv o
Ġspe ed
ĠTh at
Ġcompu tation
Ġst reng
R em
ste p
es ti
i ver
ĠT ra
ĠP e
We b
M B
am er
Ġas ympto
_ -
lat form
tif ic
sid ent
p lugin
Ġc atch
ĠJ ohn
Ġconver gence
thes is
requ ire
Ġmag nit
ĠE X
b l
( _
Ġ{ };
S u
d f
or n
Ġdec ision
r ont
Ġth ough
h bar
h y
Ġa ut
de g
k er
ĠHamilton ian
m ode
Ġc ategory
Ġste ps
Ġh old
Ġal tern
Ġre move
Ġl en
tain s
Cont roller
v a
ĠP ol
T emp
tif ication
Ġdis k
ĠC lass
ĠD es
Ġext ended
ta sk
Ġeasi ly
Ġstr ict
Ġneed s
N e
ĠA PI
m c
Ġsc ore
C ache
6 3
Ġapproach es
Se lect
Ġste llar
tik z
Add ress
b all
$ ~
s or
in y
% %
Ġrep orted
ess ages
P os
Ġiden tity
ar p
âĢ Ķ
] );
) +\
ĠS he
Ġquan ti
Ġpers on
Ġre con
Ġin ner
I F
ĠâĢ ĺ
Ġex cept
Ġcomm and
' ).
T YPE
Ġstructure s
Ġapplic ations
Ġknow ledge
Ġstrate gy
ĠT ype
in ary
Ġincre ases
cript or
ve y
Ġlik ely
p ass
display style
Ġre cor
Ġcirc le
Ġdiag ram
ĠM ay
s ystem
Ġlat ter
lay out
Ġobser ve
ĠD o
Ġv ectors
Ð¾ Ð
model s
Ġemp ty
. )
Ġestima tes
ĠN ational
medi ate
5 3
Ġcoordin ates
vers al
Ġl ib
ĠSta tes
Ġexist ing
id ent
ĠĠĠĠĠĠĠĠĠĠĠĠĠĠĠĠ ĠĠĠĠĠĠĠĠĠĠĠĠĠĠĠĠĠĠĠ
Ġan ti
int y
g an
de v
th s
c ref
Ġf ive
Ġp ort
} &
ĠS upp
a o
oun ter
Ġb ranch
Ġw ide
B ack
a ther
6 2
orizont al
s cal
ĠS ee
oun g
Ġmeasure ment
Ġd est
Ġarch itect
on ds
semb ly
Ġn orm
" ).
\ )
} }$,
} }$.
200 3
Ġle mma
ds h
Ġfact ors
Ser ver
Ġwh ole
igh ted
Ġoff set
Ġf und
Ġvir tual
ec ause
Ġpol i
Ġgovern ment
ta inty
mini page
}{ |
Ġdevelop ment
jo int
iv es
x x
) -\
Ġax is
b es
Ġcol l
Ġg ap
ac y
U pdate
Ġremain s
ma ke
Ġf ont
Ġar gs
g ular
en sive
Ġexist ence
sc il
ential ly
fa ces
ra tic
is try
vari ant
R A
N D
bu st
Ġj ob
ilibri um
las tic
al g
Ġabs olute
Ġinteraction s
el er
ti ves
iv ing
an te
w indow
Ġful ly
ign ment
} )$,
L ast
Ġcour se
fin al
Ġon es
Ġinf lu
Ġcontain ing
a a
n os
si ties
r and
sh ould
h igh
Ġ< !--
Ġf ix
Ġpar tition
Ġus ers
Ġclassif ication
: (
Off set
da ted
Ġp ul
ĠH T
Ġconstra int
re me
S M
Ġ ...
ar ily
Ġbu ffer
se ud
il er
Ġcon cer
\!\! \!\!
Ġlo op
ra pper
T op
9 4
in st
cont rol
k it
Ġsatisf y
Ġe asy
it ing
S o
id s
temp late
or al
[ (
er ing
ro ot
< ?
Ġestima ted
Ġ{ }
Ġre ally
Ġk ind
Ġre pe
Ġsta ble
Ġide a
ĠV er
Ġbel ong
tri e
Ġstate ment
Ġappro pri
p ts
ta x
mit ted
Ġt or
Ġpro pag
D o
9 2
is es
g ments
et ch
V is
i um
Ġact ually
Ġ$ |\
Ġgra dient
9 3
D ire
Ġno tation
) )$
Ġb lue
action s
Ġa void
100 0
Ġcoun ter
Ġanal og
ed ia
Ġtrans formation
di ag
Con tainer
Ġ ve
Ġboun ds
as cript
N AME
Ġin side
J son
pro ject
Pro vider
Ġd r
Ġent ry
ĠR em
Ġfile s
Ġsuccess ful
M in
8 4
7 2
Ġsa ys
th on
Ġre t
ol ic
: }
ĠA cc
if fer
Ġo scil
ĠS ub
Ġtask s
on es
Ġg rid
Ġsignificant ly
g ers
ĠG e
Ġfil m
f loor
o site
He ight
M D
p atch
$ ),
T ypes
Ġoptim ization
Ġpredic tion
' ),
Ġcons ists
ang ed
Ġhe alth
ĠM a
Ġgraph s
uro pe
R ange
Ġdiffer ential
ĠS ci
ynam ic
Ġdevelop ed
con g
el i
e le
Ġrep la
M atch
auth or
Ġy et
in ct
Ġfor mation
bo ol
Ġv anish
b ly
ĠE ng
it z
ĠM in
ch ron
) }_{
C A
z ed
ĠJ an
Ġren der
Ġinclu des
she et
W rite
Ġan n
Ġqu ark
du cation
f i
Ġimple mentation
ĠAr ray
}$ )
ĉĉĉĉ ĉĉĉ
al gebra
en ing
Ñ ģ
al let
U rl
Ġde m
Ġdistribu ted
Ġallow ed
Ġs ocial
Ġbas ic
ial og
P R
Ġscatter ing
Lay out
ĠI I
ec ts
N R
Ġoper ations
a fter
S ection
}( {\
ur ch
Ġm orph
tif y
u es
Ġ* *
ber g
8 3
c p
Ġb ottom
Ġhand le
b and
per im
ĠĠĠĠĠĠĠĠĠĠĠĠĠĠĠĠ ĠĠĠĠĠ
Ġma ch
Ġra tes
,\ \
T ree
S H
ĠReturn s
N E
on ical
Inter face
Ġassu med
ma s
m en
ĠF ran
s d
h box
ĠG o
cc cc
E v
ĠA dd
&= &
u ations
`` `
c ome
Ġrun ning
Ġcont inue
li de
Ġa way
less sim
Ġa ge
Ġan sw
D D
Ġcommun ity
ing u
ck now
6 1
Ġb usiness
u gh
Ġact ual
Ġd ark
ĠS c
t w
ro y
stit u
F orm
ti li
ad o
udi o
Ġis sue
is ation
S A
200 1
ĠA fter
}{ (
Ġsw itch
Ġcon clude
ĠĠĠĠĠĠĠĠĠĠĠĠĠĠĠĠ ĠĠĠĠ
Ġres on
f for
Ġop tical
al ysis
re c
ma tically
d r
Ġun defined
ĠL icense
c lear
Int roduction
ul er
: </
ĠIn ter
Ġwork ing
b ot
as tic
an a
Ġco sm
Ġgalax y
Ġb ra
Ġcon vex
Ġbro ad
al es
Ġneigh bor
Ġamplit ude
oun ds
ul y
ogene ous
A b
- $
Ġlevel s
erm al
ĠM ark
in ation
Ġlit tle
ĠT O
P ack
s ist
Ġb ig
Ġauth ors
ĠN ow
Ġex ci
Ġsub ject
$ };
d om
te in
A PI
S L
Ġpres er
, $
iz ations
n d
ĠS pec
) }}
Ġa dap
ec ute
Ġp ixel
8 2
Ġmass es
Ġrec og
Ġgo al
Ġcoun try
Ġpr int
Ġcontra st
lo ts
,\ ,\
ro un
back s
T arget
There fore
am ental
ĠG u
AR T
ma ss
Ġs light
Ġcontribu tions
Ġ[ \
s ample
H z
Ġqu e
sta ble
g ent
L i
ĠC ont
] }
Ġ\ (\
bu ffer
ic ted
ĠF ile
Ġde vi
9 1
Ġsh ift
Ġte am
Ġtemp late
Ġrece ived
en tity
Ġqu ality
Ġdiscus sion
im es
Ġoff ic
Ġs ure
Ġat temp
Ġreg ime
Ġ ^
B C
Ġ ign
Ġstar ting
: =
Ġw on
ymme tric
ad ow
Ġp ast
n ap
res ource
ĠY ork
G C
Ġde al
200 2
Ġb ul
H ash
Ġf loat
7 6
un k
ne y
Ġth reshold
U sing
de ta
He ader
ograph y
Ġpress ure
bo ard
Ġw ater
Ġw in
ad ing
Ġlong er
Config uration
A fter
Ġan gular
le an
Ġhe av
d frac
jav ascript
re la
ist or
Pro cess
Ġhas h
ĠH REF
L D
ir m
Ġlay ers
Ġs quare
P U
Ġi ma
Ġobserv ation
is k
ĠC LASS
Ġat tribute
Ġp ure
Ġwh ite
Ġindu ced
ĠN S
En try
Ġother s
Ġ> =
du al
ĠM odel
in al
Un it
Ġtra ject
E Q
Ġs low
h a
Ġform al
me m
Ġcalcula tions
Ġ ..
d y
Ġhy po
ĠP a
M at
Ġmo lec
\ }$.
Ġset tings
Ġtechni ques
er man
Ġexp on
âĢ ¦
Ġor i
sequ ently
Lo cal
Q L
Ġfor ms
Ġagree ment
Ġs us
K E
Ġsome thing
j ected
Ġde vice
Ġv ol
p la
| |
t frac
Ġm es
pec ially
Ġb al
Ġcalc ulation
ĠO F
Ġd ays
Ġex ternal
il la
ĠE urope
}\ ,\
() ->
for ward
Ġs ix
Ġdete ct
Ġgrow th
Ġuncer tainty
Ġbe am
ĠWh ile
Ġc aus
Ġt riv
Ġdata sets
E mpty
F inally
G B
$ :
Ġdeno ted
en ess
Ġmagnit ude
ar ante
Ġscal ing
Ġlit erature
Op en
3 00
Ġag ent
se ct
] $.
Ġdiscre te
Ġprodu ced
F la
Ġwh y
un i
ter m
Le vel
ĠĠĠĠĠĠĠĠĠĠĠĠĠĠĠĠĠĠĠĠĠĠĠĠĠĠĠĠĠĠĠĠ ĠĠĠĠĠĠĠĠĠĠĠĠĠĠĠĠĠĠĠĠĠĠĠĠĠĠĠĠĠĠĠĠ
}[ \
Ġme mber
Ġmin imal
Ġb ene
Ġr ules
) )\
Ġexper ience
al gorithm
ĠC l
Ġst ore
ĠD E
Ġform er
B undle
#### ####
Ġredu ce
re al
oun ts
sh ip
Ġcomplex ity
Ġdep th
Ġto ken
Ġe con
st s
to ken
R o
n ers
ĠW ar
bra ce
comm on
ga ted
ti an
Ġad v
ed er
Ġsa mp
u x
Ġl and
F O
ch astic
7 4
c ache
Ġv ideo
ma ted
Le ft
ĠS T
Ġqu ite
ĠE d
ig ation
Cont rol
ĠE qu
Mod ule
po ints
ĠAss ert
CO L
Th ese
if ically
Ġlink s
as ic
Ġ{ $
code d
ati ves
Ġlim ited
Ġtheore tical
Ġn ature
Ġent ropy
C al
Ġachie ve
Ġatten tion
S te
Ġrec ord
Ġge ometry
Ġflu ct
we ight
Ġsta ge
a j
^* $
big l
um ing
F R
i ti
en tic
Ġpri mary
AT ION
}} )
Ġreg ister
p op
se cond
Ġus ually
Ġpro gra
ĠF inally
re q
ve e
tribu tion
om an
ct x
Ġmedi a
Ġre dsh
Ġex ception
Ġweight s
Ġrecent ly
Ġdimension s
y l
$ &
a res
Ġcombin ation
Ġsc ope
Ġma pping
back ground
Ġindic ates
empty set
s ure
Ġmechan ism
big r
Ġro tation
ĠW orld
ang ular
en um
Ġe q
oun ded
S R
Ġreturn ed
Ġatta ck
d ocument
Ġsatisf ying
H O
Ġcoeffici ent
Ġ ener
Util s
Ġappear s
" ))
Ġf i
ir al
de t
Ġk ine
Ġev idence
W ork
C R
Ġaccura te
Ġm illion
K ind
ĠD i
ul i
Ġth ings
b matrix
Ġappropri ate
Ġ* )
Ġc li
s v
f ect
k a
i tions
Ġf all
] $,
par agraph
it ory
tt ps
Ġprodu ce
Ġover all
7 9
Ġp l
s y
up le
Ġ\ ]
Ġup on
Ġ ::
Ġfe ed
Ġm ix
8 1
$ _{
for ce
un ch
be fore
t wo
Ġdiffic ult
Ġsing ular
in ternal
sem ble
Ġbehav i
ol ved
N one
I m
}) }
Ġidentif y
Ġabs or
Exp ression
tr iv
Po sition
c ar
V AL
7 3
Ġf lat
}} _{\
PE CT
T I
ud es
Ġcalcula te
Call back
Ġestab lish
Ġg en
OR T
Ġs tri
Ġin verse
Ġsub group
Ġpro ved
sh ape
Ġv ary
Ġremain ing
O ption
M R
Ġfor ward
L I
Ġrepres ented
Th at
Ġto wards
un g
Ġex hib
[ -
}} }\
Ġradi o
Ġclu sters
Z E
\ ;
al low
em an
z ing
Ġout side
g lobal
Ġn av
Ġvis ual
ĠIn di
t ml
class es
wh ite
Ġcap ture
M on
Ġgener ation
Ġn or
D i
Ġpro jection
S cript
e ach
Ġqu asi
CO DE
ĠC reate
comp onent
P A
p id
D oc
Ġe lect
Ġpar allel
En tity
math op
Ġme tal
typ es
ã ģ
Par ams
Ġstrong ly
Ġdeta iled
h am
Ġh ttps
Ġcoll ision
ategor ies
Ġgener ally
Ġstra ight
Ġscal es
Ġide al
dic tion
Th read
) --
Ġidentif ied
Ġx ml
imilar ly
Ġp adding
Ġun its
re w
Ġcom es
Ġre si
> ,
A ccess
Ġrep lace
Ġr ing
os ity
% ;
Ġscenari o
Ġcomp any
are n
Ġcon tact
Ġesti mation
D ir
an ti
Ġes pecially
Ġs m
in ted
ature s
ren der
H ttp
Res ults
Ġis o
}} .
g n
=" _
op ic
v as
Ġmatch ing
Ġmention ed
Ġgu arante
Ġc ity
Ġcom mu
S earch
? :
ri x
Ġpro tocol
Ġal though
ter min
Ġlarg est
Ġsit uation
ĉ ĠĠĠĠĠĠĠ
y ear
jo in
Ġfunction al
Ġth ick
v s
Ġc ache
ch or
ĠU sing
Ġsta tion
w ait
ak ing
Ġsp an
en omen
ra ft
is s
Ġnuc le
ist ration
Ġcoordin ate
E M
Ġg ot
de bug
Ġdecomp osition
Ġmeasure s
u ck
Ġver tical
z on
Ġme et
Ġconst ants
25 5
am l
Ġredu ction
Ġm icro
vis ed
Ġne ural
A V
Ġst ory
Ġth ermal
Ġclear ly
part ment
b al
}) =
i table
y ond
Ġc riter
Ġdeta il
el ine
Conn ection
] {\
Ġis sues
Ġc r
ag ing
f n
Ġstreng th
ĠB ri
h ash
exp orts
Ġtrain ed
, {\
c a
column width
Ġconsider ing
Set tings
Ġas k
Ġ\ !
Ġen h
Ġdoes n
Ġcy cle
l ar
ĠF urthermore
Ġgreat er
b ur
re a
iction ary
f ull
Ġstud ents
lo op
ap s
Ġfund amental
b order
ĠĠĠĠĠĠĠĠĠĠĠĠĠĠĠĠ ĠĠ
p lot
M ulti
one y
Ġg l
Ġon line
ĠCh eck
circ le
u tes
C opy
Ġpro por
Ġsta ck
Ġbuil t
ĠM o
ĠS u
Ġ ^{
script size
199 9
ax is
wh ile
d iff
| }{
Ġe p
entif ier
icro soft
Ġre mark
Ġn ames
st ore
Ġ items
o ke
Ġs ession
Pro perties
}} ^{\
Ġdist inct
amer a
================ ================
Loc ation
io ta
ap ter
Ġevalu ation
Ġma s
Ġsol ve
t un
Ġequ ilibrium
our nal
S ch
4 00
Ġaction s
Ġcomplete ly
Ġsoft ware
Ġrepresen tations
ĠApp endix
Ġent er
equ al
su ch
ĠA f
7 1
ad a
si tivity
Ġset up
pa ir
Ġcon structed
C lo
Cur rent
Ġunder lying
os ing
Ch ange
}) ^
ĠAl so
ĠS ome
Ġpartic ip
Re ference
Ġf ri
Ġmark et
Ġw omen
Ġcurrent ly
tiz ation
by te
Ġm usic
co very
Hel per
E ach
G N
Ġtest s
Ġh ol
ri ve
Ġof fer
pro te
lat or
Parameter s
ĠT rans
ble m
ula tions
X X
ar tifact
long rightarrow
ĠB ar
I ter
Ġpar ams
is sion
Ġro bust
Ġsamp ling
Ġrela tively
="../../../../ ../
G ET
Ġd ig
Ġevalu ate
ula ted
Ġto ol
Ġembed ding
Con st
D ocument
Ġser vices
Ġprevious ly
c us
ch em
Ġet c
ir it
ĠH ar
Ġre ve
Ġsimp l
Ġc ry
b um
Ġte ll
L emma
_ ;
Ġ Â
=" -
c ro
ound ation
Ġinflu ence
Pro of
Ġa im
ĠS chool
to ol
le ge
ĠL a
sl ant
ig gs
ĠM y
Ġmax imal
Ser ial
Ġlear n
Ġcomm it
S chema
tain ed
Ġsee ms
Ġloc ated
Ġphys ics
AN D
Ġsuffici ent
P tr
$ {\
struct or
Ġmean ing
com ment
sh ot
Ġdiffer ences
G R
k y
S ee
Ġter min
for d
V ari
D I
Oper ation
Or der
Ġc amp
Ġad van
V ector
F ont
Ġh ole
Ġcy c
" ));
Ġac tiv
Ġsuffici ently
Ġdiag onal
Ġlo t
G E
Ġdata base
g ian
Ġindic ate
Ġmanif old
Ġpro f
Ġslight ly
Ġchall eng
^{ *
en v
L ong
Ġcontain ed
St ore
form al
Ġp seud
ch annel
ched ule
Ġbuil ding
n es
Ġb r
it ter
Des cription
ĠE ach
ult ure
G e
in i
c opy
Ġi on
figure s
> \
Ġeffici ency
triv ial
sk i
Ġmod ified
ms g
ĠIn tern
stra p
/ (
v ature
Ġexp ressed
i ra
reed om
rom ise
Ġbe yond
Ġexplicit ly
) ).
ĠEX PECT
lap se
math it
ur i
Ġbec ame
om y
Ġpol y
As ync
Ġlim its
Ġte le
Ġ} {
ĠO ct
ĠA ug
Ġassump tions
Ġdes ired
Ext ension
} |\
man n
Ġsec tions
Ġph enomen
R R
Ġcon cent
ex ists
d ouble
Ġpas sed
de vice
D C
Ġwe ek
\ }\
Ġh idden
Ġhigh ly
er mi
ou ch
la tes
Ġ" \
Ġtyp ical
199 8
In teger
ĠA u
D A
de lete
el low
mag netic
P L
Ġqu o
Ġf erm
H ence
ura tions
Ġblock s
f lu
Ġ+ +
Ġv ac
\ }$,
ĠP r
ERR OR
parameter s
) }_
d ash
ĠEx p
ĠL og
sel ves
() :
Ġdepend ing
un ity
S ession
Ġres ources
Ġext reme
gr id
is ely
multi row
tikz picture
| }
Ġover ride
m n
Ġg ain
Ġestab lished
b ilities
Ġsec urity
la bor
Ġno vel
\ |\
Ġre call
g reen
@ {
Ġext end
h ic
av el
ĠN ame
}_{ -
re ated
medi ately
Ġapp lying
or i
Co mple
p anel
cal led
rep lace
ĠS D
in itial
b ing
}$ }
Ġn amespace
M app
Ġ }}
H ost
en ed
ollow ing
O M
Ġe mer
k i
do main
De finition
inter face
Ġjo int
Ġb os
Ġvari ety
ta mp
ĠS outh
Ġcon du
Ġpredic tions
V ar
at ory
ati ble
a ut
Ġpath s
: =\
ĠE rror
Ġstatis tical
& =\
mod al
ff ic
Ġprac tice
Ġoccur s
C F
( *
Ġex am
Ġdi ver
Ġderiv ative
Ġmach ine
ph ys
][ ]{
b ind
Ġphot on
( :
CT ION
Ġar ticle
Ġlabel s
C ore
Ġo dd
Ġcon sequence
b p
Ġcontain er
Ġder ive
m ing
trans form
Ġth ought
Ġname ly
N on
st ri
P ri
Ġtra ce
Ġtriv ial
ĠEx ception
Ġd a
v m
h s
stit ute
Ġpar se
ĠO ther
Ġver ify
sub sec
m os
AC K
leg ate
var theta
bo ot
ou rier
c ategory
D S
Ġs end
ĠL ag
ĉ ĠĠĠĠĠ
util s
ĠL ie
for mations
Ġen gine
Ġe ffor
Ġd x
U s
Ġasympto tic
) ),
R ender
ĠS w
hand le
Ġener gies
B A
Ġvari ation
h older
Ġ math
ti ent
Ġse mi
ĠO R
Ġtop ological
;\ ;\
Ġsta bility
ĠG ra
ĠM c
ĠJan uary
Ġproduct s
; ->
} ~
Ġansw er
Ġright s
g reg
ĠWe b
25 6
t iny
u it
Ġcompu tational
u ge
D own
Ġin s
Ġis omorphism
O P
B S
Ġ$ ,
c il
In valid
U M
Ġdynam ic
ec tions
n n
umin osity
Ġcan cel
Ġcon j
Ġde ath
me ds
Ġfe el
Ġd ust
^{ (\
Ġm u
ĠIn deed
ill s
U LT
Ġdete cted
Ġbi as
il le
Ġnon linear
}} =
Ġun known
Ġf av
ĠCh ris
meds kip
ĠM arch
h r
Ġv i
Ġch em
ho ver
Ġtest ing
Ġcon clu
Ġcan onical
In st
no ther
Ġpredic ted
V alues
N ames
tra ct
an cy
G raph
.... ....
Ġth read
to String
Ġf amil
Ġinvol ved
st ro
ĠA b
if ts
12 8
it le
Ġprincip le
Imp l
Ġwrit ing
web kit
Ġob vious
c ard
ã ĥ
Ġfin ally
D M
.. .,
b ib
Ġachie ved
Ġpub lished
Ġelec tr
w ell
Ġa ir
Ġd riv
m al
Ġear lier
Ġrelations hip
Ġpropo se
f ields
dis abled
artifact Id
ula te
ser ved
ib ration
ĠR E
ĠT ime
Ġin fo
Ġare as
Ġt un
) })
no tag
Â ł
re sp
S um
gg est
Ġexp ec
ĠRes earch
ight s
Ġcharacter istic
Ġfa iled
o ber
p ite
Ġor th
n y
TE ST
}\ |
ti sh
IN E
Ġintegra tion
Ġcon cept
Ġuncer tain
Ġarchitect ure
Hand le
ĠC ity
Ġtransp ort
Ġn um
Ġshow ed
Ġob jective
EX T
ad s
Ġprob ab
Ġlocal ly
m ult
ick er
Ġchannel s
ymme try
Ġon to
ST R
sh ort
mar gin
mod ules
Ġsto chastic
Ġw aves
= .
pr il
Ġy ield
ĠM ath
ier arch
equ als
Ġu tili
ĠL O
l arge
Ġc m
S ign
Ġby te
ĠN orth
ĠCh ar
ĠA c
Ġc op
Ġsum mar
Ġma sk
Ġeffici ent
Ġstar ted
bo olean
Ġc at
si vely
ci ble
P ort
Con sider
u ff
P RE
T ran
Ġto ok
M enu
Ġacc eler
or igin
Ġcombin ed
m f
um entation
Ġn et
` .
Ġcell s
P e
it ary
file s
w s
c ustom
Ġsh are
v alu
X i
Q ue
Ġc ame
Ġfil ename
B ody
g gle
c ut
Ġhigh est
Ob j
lon e
gener al
ga ther
Ġb undle
Ġcomp an
frame work
Ġent ries
Ġelec tric
Ġv io
Ġpack age
Ġmax im
Ġremo ved
Ġsatisf ied
ĠS ep
Ġr isk
COL OR
( -\
Ġmas sive
Ġgeneral ized
Ġvari ance
Ġin deed
b et
Ġ( {\
al f
SS ERT
F alse
B E
te mber
con dition
Ġa pi
Ġw ait
vari ance
f l
AL L
add ress
ce mber
Ġcomp uting
Ġpur pose
Ġsequ ences
G iven
P H
Ġtyp ically
Ġco inc
sp ac
Ġim mediately
d est
Ġc la
Ġwhere as
Ġse man
K e
pd own
re et
ar ding
Ġfollow ed
Ġgener ic
T C
Ġa ver
ther n
Temp late
. \\
in line
Ġname d
Ġs pher
Ġneigh b
ĠJ une
at t
en ta
Ġf ill
ĠG al
group Id
Ġpo sitions
ant om
Pro ject
Ġ$\ {\
radi us
Ġy oung
r d
Ġd ashed
ĠM od
Ġcommun ication
Supp ose
Ġradi al
Ġunderstand ing
Ġdeg rees
M ar
ĠS U
D eta
Ġinter n
Ġdynam ical
op tim
ench mark
str al
lu ster
Ġu til
Ġde lete
ve mber
Ġbul k
Ġel lip
Ġtechni que
Ar gs
Ġsu ff
avel ength
Ġtreat ment
cont inu
ST ATE
Ġprec isely
xt ure
f ocus
row n
Ġdimension al
Ġpop ular
Re ader
Ġsh ared
Ġus ual
Ġdis per
' re
tic les
! ]
Ð° Ð
eli hood
SE T
b il
ĠH igh
Ġchang ed
ast er
et al
Ġper fect
Ġcomp e
Ġeigen values
Ġw ays
if ier
k ind
Ġapproximate ly
Ġde l
Ġd rop
Ġplay er
Ġac tivity
Ġ\ &
ib ility
Ġs qu
Ġconn ect
po ch
` ,
s yn
s end
1 20
tric t
ra ms
s ince
ic ons
Ġextra ct
By tes
ĠN ot
og onal
ĠW ork
Ġhe ader
h ar
Wh ile
cor ollary
C l
^* \
Ġimple mented
ject ure
Ġques tions
serv ation
sp in
pro b
\% $
ĠR un
Ġcur vature
vi tational
Data base
Ġsu ggest
rop ic
ub ble
D R
' ],
p k
Ġdist ingu
M o
ke ys
mat or
ĠD ec
Ex ample
SI ON
er ies
her ent
="../../../../ ../../
doc s
Ġ( "
Ġshow ing
) [
b on
G S
Ġex clu
cri min
Ġdes igned
}{ *
Ġradi ation
rid ge
Ġprocess ing
si a
Ġby tes
Ġparticular ly
More over
Ġpoli tical
Ġhy dro
fer ences
^* (
Ġthrough out
oci ety
Ġperiod ic
S yn
- (
Ġal ign
ĠA ct
n umer
if ies
k in
c lick
Sta ck
Ġ( *
W idget
Ġst op
medi a
15 0
Par ser
ĠJ uly
en ge
Ġcharacter s
ĠD ate
backs lash
Ġse ason
wh en
Ġto day
Ġ ),
ar c
style sheet
ran k
cover ed
ĠH is
Ġp refer
Ġa rm
Ġrele ase
Ġaltern ative
HT ML
an cial
type of
ran gian
ĠG eV
Ġs ong
or ity
M ark
ext ra
an notation
Ġ[ '
call back
+ (
sh ift
ĠR ed
Ġf reedom
) ^\
Ġ ,\
an o
Ġt en
w in
br id
M T
Arg ument
Ġ< =
Ġmo tiv
Ġinter section
ĠĠĠĠĠĠĠĠĠĠĠĠĠĠĠĠ ĠĠĠĠĠĠĠĠ
Ġme trics
as ons
set tings
Ġ( '
C or
Pro p
Ġre produ
Ġre li
ĠB ay
cre te
Ġcl oud
Ġindic es
ing le
ã Ĥ
su ccess
D P
B R
s chema
Ġ} )
Ġredsh ift
ĠM ed
Y ou
ĠTr ue
-------------------------------- --------------------------------
ĠSci ence
E l
' ))
Ġexpla in
IG N
ne gative
Ġde lay
il bert
De vice
Ġquanti ties
lim it
__ (
th ere
t an
Ġequival ence
ist ance
A pi
stack rel
Ġrun s
proto buf
Ġno tice
ĠG iven
Ġrela x
scri pts
Ġtrans action
ĠC om
la ting
Ġden se
Ġgra vity
Ġs creen
G o
Ġun signed
conn ection
ĠG erman
par allel
Ġcandid ate
Pol icy
St orage
Ġex change
ĉĉĉ Ċ
su mp
a e
Ġincre ased
is tics
in v
Ex ternal
a co
U L
Ġref lect
t n
ĠĠĠĠĠĠĠĠĠĠĠĠĠĠĠĠ ĠĠĠĠĠĠĠĠĠ
Ġnormal ized
De bug
ĠA pril
be led
Ġin it
Ġde li
i ent
ĠĠĠĠĠĠĠĠĠĠĠĠĠĠĠĠ ĠĠĠĠĠĠ
N G
Ġla te
ĠOct ober
ult ane
20 22
Ġsu itable
mon ic
ĠAf ric
s ession
Ġre cur
Ġexpression s
Ġo uter
b c
App lication
ĠC ON
Ġequ ality
Ġab und
! \
Ġh ouse
$. }
Ġte ach
C I
Ġac qu
Ġ' /
reg ister
" `
Ġp en
Ġthe ories
end ar
H S
ĠMe thod
Ġ\ ,\
k o
tot al
z y
Des criptor
ra ys
j pg
B in
P a
Ġmid dle
199 7
m om
Ġdo ing
Ġelect ro
at tribute
Ass ert
u id
ĠB G
Ġpro ceed
ĠV alue
ĠĠ čĊ
Ġp ush
Ġin line
se p
Ġke ys
function s
Ġinvestig ate
Bo olean
Ġinst ances
ĠDe cember
z a
ĠF unction
Ġdete ctor
bold math
A uto
P ass
I con
Ġvis ible
E C
Ġli ve
ĠSep tember
Ġre ader
Ġtr igger
ĠD av
T ab
Ġexpon ential
st an
Ġin depend
supp ort
u um
Ġs ector
Ġpo inter
Ġaff ect
Ġiter ation
h ol
$ ^{
or tion
W riter
ĠĠĠĠĠĠĠĠĠĠĠĠĠĠĠĠĠĠĠĠĠĠĠĠĠĠĠĠĠĠĠĠ ĠĠĠĠĠĠĠ
| $
M em
Ġs izes
Ġad op
Ġp ick
l li
footnote size
Ġhypo thesis
Ġra ise
ac tic
Ġat tributes
ĠIn t
Ġin sp
Ġstatis tics
text up
R ed
B L
Ã ¡
cor por
v ect
Ġcons tit
Ġexp ress
a ff
Ġb rief
Ġp i
ĠNo vember
F OR
ver ti
P D
Ġc lean
Ġw all
ĠG roup
Ġent ang
app lication
ĠI R
)-- (
B O
12 3
vi ties
Ġbehavi our
sp ort
ĠW hat
Ġf ine
d ical
ĠP y
Nav Bar
Ġm i
Ġl uminosity
z h
ĠE ar
com ing
A p
En c
C ar
Ġcolumn s
Ġapp e
pro perties
Ġad ding
Ġe ducation
ir ing
Ġacc re
De lete
Ġfluct uations
ĠE xt
prec ated
r ong
ĠS O
pro duct
ĠEx ample
down arrow
ad ers
16 0
ob s
Ġass ign
str y
Ġdirect ory
Ġheav y
U se
ä ¸
Ġint ensity
ĠS un
AT A
ĠR us
R ule
ar ith
En abled
ĠJ SON
Ġg reen
## #
r andom
a ign
M I
Ġpolar ization
Ġf ront
Ġperturb ation
oriz on
ĠS uch
ex ception
p l
Ġbelie ve
S w
| ^{
Ġm ixed
T itle
bel ian
Ġnuc lear
h fill
ph ase
Ġ[ ];
0000 00
lang uage
OR D
> ();
& #
ĠW est
ĠH iggs
ĠAug ust
ĠAmeric a
R ou
Par am
Ġenc oding
Ġass uming
ĠSupp ose
sing le
p adding
app ly
Ġfla g
Ġtrans lation
M y
Be fore
ĠP ri
ĠD ire
un ct
Ġsepar ate
Ġprec ision
Ġle d
Ġt ax
Ġd ot
ph antom
ol ar
te e
Ġth ing
w idget
Ġuniform ly
Ġe ver
ĠO ut
Ġre comm
Ġfin ding
ul us
H as
par ticle
Ġcomp ar
s us
) (\
' _{
cl oud
r ist
Ġassert Equals
Ġfa ir
P arent
D IR
Ġrepla ced
ĠĠĠĠ ĠĠĊ
Ġspec ies
ĠB ra
Ġal bum
Ġpar ame
k m
D raw
Ġinst all
g mentation
Ġv s
ĠM ap
uc ial
con sist
ĠEn d
Ġj et
Ġo s
is son
Rec ord
s quare
Sc ope
' .
Ġmo ving
Ġad min
ip eline
Time out
Meta data
reg ion
Ġra pid
ch ain
) }.
Ġn ational
Dire ct
Ġbegin ning
n etwork
*} [
Ġre ct
pos itory
ĠAl though
w rap
low er
vi e
Ġrele ased
199 6
L R
Ġevalu ated
tr ins
ĠU RL
Ġr ise
Ġcon v
Ġquad ratic
Ġag ents
Ġse m
conn ect
ol ing
Ġg ames
dic t
comple te
the less
Lo ad
Ġrecog n
ĠOp en
ĠM ich
as c
Ġinv oke
ĠI S
text color
Ġconfig urations
ang es
Ġhel d
Ġinter ested
' >
con stra
Ġb ad
Ġcorre ctions
Ġb all
ry p
Ġcontra ct
plan e
mission s
ext ension
)} (\
Ġc ref
tif ied
{ (\
Ġve hic
Ġmis sing
N um
Ġup dated
ĠPre sident
U RE
r ich
ĠAu stral
Ġre trie
dep th
Ġme t
~ (\
Ġd ra
ĠS M
In itial
)) )
ĠK ing
By te
N etwork
& &\
Ġac cept
si mple
Ġpattern s
> .
th ick
Que ue
in sert
Ġimple ment
Ġst ress
Ġgo es
or ter
ĠD r
M ain
ĠCent er
tr al
is ot
Ġcapa city
Ġab ility
ii i
AC E
ĠU se
Ġexpla ined
Ch annel
Ġocc up
Ġge ts
Ġno thing
Ġpri me
Ġal loc
vir tual
up arrow
s ome
ce il
Ġlib rary
h an
ach ed
Ġfor med
ren ce
Style ID
d iffer
ic o
ro ad
me an
EN D
Ġexp and
spec ial
Ġquan tity
Ġsh ock
_ ,
F ields
Ġs ort
co ord
in clu
the tic
ĠR equ
redu cible
On ly
p ub
Ġcomp osition
1 10
Ġcom ment
um es
sc opic
Ġf oot
Ġro ugh
Ġj av
ĠEng lish
Ġla ck
Ġsupp ose
sq l
ro me
Ġj son
Ġin str
ĠC E
f ix
ge ts
Ġcorre ction
Ġac cep
ad y
F a
spec tive
ti vities
Ġdid n
n one
Ġqu ick
ĠI O
text sf
Ġspec ify
ĠB er
Ġconf ir
S ym
Ġcon volution
c line
at s
Ġinput s
Ġph ases
C ref
Ġvis it
ti le
Ġgener ating
u a
ut or
re lated
m its
G ra
Ġuncertain ties
I V
Ġiden tical
ta ch
TE X
F S
$- $
left arrow
ran e
Ġd ro
Ġopp ort
ado op
Ġplay ers
Ġthan k
Ġen tity
ti p
[ $
$\ \
Ġper mu
Ġc i
Ġin fer
S ymbol
W E
to ggle
ĠCoun ty
P attern
R oot
Ġe cho
Ġgra vitational
Ġsc i
Ġis ot
Ġinstance of
ang er
pri mary
w ner
}. }
AT H
Ġa mb
Ġan om
exp ort
ĠS an
}$ \
v ation
Ġhal o
r g
Ġcoup led
\! \
Ġan i
lo ss
ond on
ĠF ourier
Ġth er
Ġp icture
ock et
Ġpro pos
}) ^{
i ers
=\ {
C M
ot al
ag ue
Ġno ted
Ġimport ance
Ġfor ces
V M
Ġ$ ^{
Ġno tion
ĠB ase
$ ^
is on
Ġ-- -
Ġp riv
Ġup d
ad min
ĠAcc ording
Ġsign als
Ġde du
Re p
ot ing
in variant
br uary
T S
M ock
su be
] ]
ĠCon sider
Ġe lem
Ġge ometric
e ma
co in
Ġsim ultane
Ġ{ $\
Ġpolynomial s
fa ults
olog ies
FA ULT
\| _
AG E
Ġcom b
s ch
que ue
ot on
ĠAl gorithm
Ġm il
Ġgener ator
Ġst orage
O K
am ent
Ġdescri bes
po sed
W ar
ĠE ast
foo ter
U ni
ou ra
An y
man if
Ġj us
Ġsur vey
no tations
Ġtop ology
{ |
lic ations
ari ties
Ġm essages
w ave
Ġneutr ino
Class es
D ialog
un signed
Ġbeh ind
. $$
a ins
t ensor
Ġdiff usion
Ġexp lan
Ġ rows
Ġtra de
00 1
v ol
ex ist
Ġnear ly
re y
Ġdepend ent
Ġ" /
ing er
Ġmix ing
c lip
Ġh istor
Ġhand ler
} /\
or ing
ĠSer vice
w hat
w rit
) >
$\ ,
ĠBG COLOR
Ġhe at
Ġpro gress
ent er
ĠGener al
Ġprov iding
Ġadvan tage
CH E
Ġsugges ts
Ġw avelength
im its
ing ton
H C
reg ular
ĠCor ollary
Ġse gment
Ġdefin es
Ġflu id
Ġformu lation
Ġc ategories
mult line
I ST
To ol
ĠF oundation
Ġh ierarch
ĠI m
) &
Ġt ren
si bility
ite s
ap an
Ġdevi ation
&= &\
clu ster
bin om
Ġexecu tion
Ġat oms
=" /
ap es
Ġsol ar
nap shot
-- >
G eV
J o
z er
me asure
Ġsum mary
rep res
ie ce
ĠG reen
pg f
for mu
Ġnecess arily
Ġneighbor hood
Ġun less
ir ical
_{ +
a ccess
Ġbut ton
Ġvalid ation
] ^
Ġprob ably
c b
if or
Ġplan et
ĠP lan
Ġper cent
oci ation
J SON
Ġ\ |\
con ver
R ect
, ...,
ge x
dro pdown
arge ts
an ks
Ġden sities
}^{ +
C lick
i ans
Ġdeg ener
Ġ _{\
ĠHT ML
Ġalgebra ic
Ġtyp ename
I E
Ð »
Ġfail ure
al ities
la m
ma terial
e lec
n ol
ĠM ax
Ġredu ces
Ġm sg
Tra ck
se lected
F unc
el s
Ġcom ing
Ġinv est
b ile
Ġ\ [
$ '
Ġwor th
F C
ĠL aw
199 5
P AR
Ġin struction
Ġreve al
import ant
Ġstring s
Ġtran sitions
Ġact s
f ol
ul ty
Ġra tional
Ġpers onal
W S
ri a
Ġb right
Ġvac uum
Ġs lo
Ġpossi bility
ur ally
t xt
math tt
Ġnew s
Ġhom ogeneous
sum er
ĠDe f
ĠT HE
Ġbase line
ens ors
ĠO ver
Ġanaly tic
ĠG od
Ġun ion
Ġmod ules
t mp
_ ->
f ony
W hat
Ġimpro ved
F in
Mat rix
ĠN OT
_ (
depend ency
imp l
Ġchem ical
N A
s ti
Ġorth ogonal
Ġstraight forward
Ġdemonstra te
A ctive
Ġdefin itions
ĠI mp
Ġb atch
Ġsol ving
Ġbe gan
Ġthem selves
s ys
h av
Ġ Ã
Ġro und
Ġscenari os
sc roll
Ġpredic t
Ġcause d
iz able
Ġab stract
IT Y
Ġ{ {
Select or
} "
Ġfrequ encies
ĠLag rangian
Ġf unc
Ġw ent
d p
sump tion
T ER
Ġrecon struction
re st
Ġprofile s
T e
tr ight
\ },
ĠC our
Ġd t
Ġsta ted
S end
ĠC ur
ster ior
i us
leg al
qu ations
tr igger
J E
Ġs ound
fa ctor
f amily
Ġdire ctions
mid rule
h ave
Ġlook ing
iv il
w ords
a tively
la w
ĠH ouse
Ġin corpor
ni a
ed it
Ġelectr ons
//////////////// ////////////////
y a
ers on
ĠJ o
Ġcorre lations
Ġmon th
entic ation
Ġde vices
ĠR i
}^ +
Dis play
res sive
ĠT e
Ġb its
ĠE vent
f ixed
A v
"" "
} >
Ġpropor tional
Ġexpec tation
Ġte s
tra ck
ĠH er
per s
Ġcompu ter
Ġdis crimin
sube quations
ir ror
T ests
h adoop
P lugin
col lection
y es
ĠV al
Ġlo ve
Ġsub space
st op
leq slant
Ġcoun tries
Ġl ies
FI LE
Ġuni versal
X ml
Ġinter act
ĠU ser
tribu ted
Ġpr ice
ol ver
Ġcall s
chem es
Ġcar ried
Ġme as
Ġplay ed
Ġw atch
B B
Ġinter mediate
Ġm oney
ĠI P
tiv istic
ĠD M
ma sk
ĠH ol
n odes
A ni
ish ing
Ġp atch
Ġg lu
Ġ\ {\
\ }.
Ġar t
h l
ĠBri tish
her it
) _{\
Ġh orizontal
cal c
form ance
var rho
Ġband s
gener ate
prop to
Ġsign ature
ĠN etwork
S im
] =
ig ration
C ustom
and ard
b re
Ġtr uth
ic ies
ĉ ĠĠĠĠĠĠĠĠĠĠĠ
ev ents
Ġ ~\
trins ic
Ġderiv atives
Ġse em
ra t
im er
Ġman agement
Not Null
con v
Ġrepresent ing
ĠM at
Ġv alu
ĠA m
ĠO per
Ġb ur
Ġtype of
J S
loy ment
Ġreg ression
") ]
P lan
Big g
Ġann oun
-> _
j i
Ġto wn
ni an
th read
ok s
Ġadj ac
Ġgiv ing
ĠF in
go ing
B P
Ġfeed back
M a
Ġen semble
ĠEurope an
Ġser ial
Ġsite s
Ġtrans mission
er ial
ure d
Me mber
Ġmedi um
ĠIntern ational
Ġtrans verse
Ġlim i
ver b
Ġrece ive
. __
lic ated
big cup
; <
Ġcont roller
by tes
Lo ck
Ġfit ting
Ġcon duct
mo ck
Ġcontinu um
In it
Ġmodel ing
( !
ĠCh ina
M sg
) }$.
Ġh tml
Ġb ring
Ġmon ths
ser ve
Ġp las
Ġrefer ences
s en
k l
Ġlo ck
Ġen able
ĠW illi
ad es
ĠFe bruary
ĠL ondon
Ġdisper sion
Ch anged
im in
Ã ³
p ower
pa re
ly ph
po le
ĠN ode
h ome
ck ets
}[ !
Re ferences
ĠH ow
ecu tion
ĠIs ra
Ġauto matically
ins tein
Ġp refix
Ġoffic ial
ra ted
C ap
H om
ens es
}{ {\
ĠA R
Ġtra vel
Ġsepar ation
Ġwe ighted
Ph ys
In ternal
\ [\
Ġorder s
Ġto ols
spec ts
ta ted
conn ected
k ens
$ /
F loat
ĠP ublic
Ġc red
Ġsp read
type def
D U
KE Y
Ġh ours
Ġcent ury
Con stra
Ġrestr iction
y coord
fla gs
", "
T A
18 0
Ġc a
33 33
ĠN O
lan k
Ġque ue
Ñ ĥ
Ġir reducible
if ted
ak er
tright arrow
Ġle ave
__ __
E rr
Po inter
ti os
ĠGo ogle
Ġdecre ases
ĠĠĠĠĠĠĠĠĠĠĠĠĠĠĠĠ ĠĠĠĠĠĠĠĠĠĠ
la re
Ġlow est
Ġmain ly
* )
Ġk m
MA X
Ġstrict ly
ĠP ark
tr im
st al
per iod
Ġabsor ption
S ome
tri b
Ste p
Pack age
Ġb ir
Ġtemperature s
Trans action
block List
Ġc odes
Ġf le
ĠK ey
%% %%
Ġd uration
Ġmatch es
v or
199 0
small skip
Ġra w
Ġchar ged
Ġtechn ology
Ġinterpre tation
Ġman ner
ĠDe partment
sta bility
Ġdiag rams
ĠO ff
Ġn ative
Pro position
12 5
Ġmorph ism
Ġess entially
ĠIn itial
F N
assert Equals
Ite ms
Ġrandom ly
sw itch
Ġpseud o
Ġe poch
cm d
; /
add r
v c
d ensity
Ġreg ard
Ġdecre ase
new line
Ġsimula ted
Ġass ess
[ :
ang uage
Ġfin ancial
Ġlear ned
ĠT ech
f d
Ġi o
M F
ib rary
J ob
sk y
mi tive
er c
Ġs cript
sequ ent
ĠG R
s ave
n m
Iter ator
tain ing
ĠIn stitute
oc used
pro file
sp ring
Ġtemp oral
Ġs chema
c ape
eder al
pro v
Ġmod ern
Ġtraject ory
ĠDe finition
Ġh it
Ac tivity
Ġw alk
Ġsen sitivity
e mail
ill ing
W A
Ġin ference
199 4
h aps
Ġass igned
Ġopp osite
ĠEqu ation
ĠF alse
iter ator
C N
ĠV ir
\ /
in du
Ġin ser
Ġlo st
Ġfamil ies
Ġl isted
\ }_{
ĠCol lege
ĠH el
boot strap
Ġreach ed
s cription
Ġr ig
Ġess ential
cknow ledge
k ern
) ">
r b
des c
Ġorbit al
o om
Ev ents
la b
Ġmo ck
ĠH ilbert
En um
Re v
Ġprogra ms
A dap
Ġd b
Ġvari ations
Ġat tra
}} ,\
ren ch
Ġc ra
Ġor d
ĠĠĠĠĠĠĠĠĠĠĠĠĠĠĠĠ ĠĠĠĠĠĠĠĠĠĠĠĠĠ
Ġtra ditional
co ordin
Ġh ope
web pack
def n
at tle
requ ency
y al
Ġpre vent
Fla gs
Ġad vers
ĠC R
li k
Ø §
Ġf n
v ille
Ġar c
Ġto ld
Ġrequire ments
Ġintern ational
' =
ro s
u el
mom ent
par a
Ġre asons
="../../ ../
Ġsyn chron
++ ;
ĠRem ark
_{ -\
re size
Ġin valid
ĉ čĊ
Ġturn s
}{ }
ĠC opy
| _{\
ma ster
Ġsc ience
Ġb l
ig ible
dition ally
De p
cknow led
Ġf ire
Ġcomp atible
Ġmod ify
pass word
b d
n ames
text normal
int ro
Ġat tr
y e
SI ZE
Ġm ind
@ "
P ost
Ġdist ances
Ġindu stry
ĠC ode
ta ting
Ġcar ry
co q
M ENT
g i
^+ $
stan tial
ĠSec ond
tri but
Ġ\ }
Ġprec ise
T T
rup t
ta t
se par
Ġuni qu
Ã ¤
TE D
Ġs il
ĠB ecause
print f
b ad
Ġj ump
Ġcontrol s
Ġt ang
] :
Sec urity
qu o
F E
fin ed
ĠO f
ens ing
Ġextra cted
Ġmajor ity
w t
Ed it
Ġ" "
D L
Ġ( .
S Y
c ross
$ }}
Ġorder ed
av ed
T wo
Ġsen sitive
ura ble
Ġdiffer enti
ow ers
Ġsh ell
c pp
es tern
fin ity
ar ity
}) =\
c ounter
l der
ĠH o
Ġconver ges
ĠW il
Ġg ran
Ġread ing
c en
Ġbene f
Trans form
t z
Element s
ar se
Ġp iece
ĠJ apan
ver tex
ĠS imilarly
Lay er
Ġrequ ests
valu ed
Ġori entation
Bu ild
LO G
ĠB el
() ));
ni tion
sp e
arg ument
) }$,
Ġb enchmark
Ġrestr ic
Ġ( _
ynam ics
Ġpo or
const ant
l g
Ġpro p
a el
Sh ow
f lat
O D
ra se
po lation
pro ps
Ġs chemes
ĠĠĠĠĠĠĠĠĠĠĠĠĠĠĠĠ ĠĠĠĠĠĠĠĠĠĠĠĠ
ĠCoun cil
ĠP al
Ġstrate gies
Ġat omic
JE CT
s ymmetric
p u
tri angle
plugin s
Ġcomp lement
b as
pa city
f g
Di ag
P ORT
Ġp y
^* _
v dots
Ġadop ted
p attern
Ġdomain s
Name d
pa y
Ġconn ections
ree k
H R
con tains
Ġd ir
Ġeigen value
le v
Ġa go
Ġmark ed
is o
Ġc ard
Ġpar ty
Ġmaterial s
Ġattemp t
F IG
Ġchang ing
D T
ok ie
Ġalgebra s
U ID
Ġrefer red
25 0
Ġcon clusion
Des c
Ġcare er
A E
Ġvary ing
es ter
w orld
omorph isms
U P
Ġsub section
s ort
G u
R ad
ĠG overn
tran sition
y r
}{* }{
Ġt al
ĠA L
sh adow
Ġlik elihood
S F
gra dient
Ġsimilar ly
ĠDe fault
ar ded
Ġcol lect
Ġh orizon
Ġt urb
Ġprincip al
\| ^
Ġat mos
de termin
| _
Ġintegra ted
comple x
Ġw ind
Log ger
Clo se
Ġp aren
Ġoption al
Po ol
Ġmolec ular
b rief
Ġtrans formations
Ġprobab ilities
Ġs at
le f
cri be
P art
Ġrestr icted
ĠTO DO
b x
ĠUn der
child ren
s ymbol
Ġde le
)) );
Ġstar ts
Ġcom ments
Ġcandid ates
ra ise
, .
\ -
de te
tab ility
B M
Ġsyste matic
Ġcon sole
ĠD em
Ġimprove ment
ĠEq s
Ke ys
l m
Re ce
Ġre sid
an ted
Rec all
im it
e ven
Ġsa f
Con f
C luster
ti gated
ar r
Ġm ut
id a
_{ [
Ġwork ed
() {
ĠV AL
lo ok
Ġcomple ted
aw s
Ġsur faces
. *
' $.
ime d
Ġaccre tion
Ġindic ated
pos es
At tributes
Ġrepe ated
Ġsimp licity
Ġinst al
cus sion
or ary
ĠD en
r f
we ak
Ġexplo re
Ġconf idence
Ġphot ons
comp onents
or ge
Ġimp ly
Ġimple ments
Reg ister
mm ing
O ther
Run time
p icker
Ġloc ations
| =
Ġep is
i ke
Ġinte gers
c tic
Ġign ore
Ġp ull
sec urity
sa fe
Ġass er
uc lide
ar m
ti ck
Ġjav ax
Ġcondition al
Ġag greg
qu ark
ĠB oth
tific ate
ifor nia
;\ ;
F ail
Sec ond
{ .
Ġse x
un ic
ĠA ir
Ġany thing
Ġs ave
Gener ic
uclide an
Ġh on
Ġanaly ze
p refix
oc ation
Right arrow
Ġdes c
th rows
Window s
op ed
Ġc ub
P anel
ut f
ful ly
ser ies
mu table
Ġinvol ving
Ġra tios
L java
ik i
ĠT ext
Ġunit ary
corre spon
et te
F L
B it
s at
not in
F ull
Ġiter ations
VER SION
Ġge odes
Ġal t
Ġspect ro
ult ra
Ġcho ices
Ġcompan ies
de ep
ur s
Ġt end
meta data
Ġch iral
Ġapp arent
ĠO ption
X ML
AR Y
Ġbu ilder
iter al
Ġt ab
Ġevent ually
fa il
over set
Ġis omorphic
ĠA N
Fe ature
Ġdomin ant
sto od
ti te
ĠU K
h ard
\!\! \!
CHE CK
and er
I A
"> &
Ġin fra
config uration
key word
Lo ader
Ġfri end
Ġmath ema
Ġn ight
Pro xy
sta ts
Ġsome times
ĠT ask
cy c
Ġdiv is
N amespace
alle st
Pro tocol
Ġreson ance
ĠAr ch
ĠN umber
Ġen abled
Ġgra du
Ġ( [
tig ht
Ġfun ctor
Ġlog arith
lec tive
Ġsimilar ity
Pro file
ie f
Ġget ting
Ex pr
g al
Ġemploy ed
ren cy
Ġsur pr
G lobal
Ġsugges ted
cont roller
to ols
G rid
Ġsub stantial
cite alt
Ġacc omp
199 3
Ġcosm ological
ens us
( __
g ray
inst all
=" "
h idden
Ġferm ion
Ġma ster
assert Equal
M u
Ġre q
the me
10 1
Ġgeneral ization
te l
Ġs phere
yste ms
f r
Ġw rong
Ġlead ers
ĠS m
un t
Ġreason able
Ġv or
pol y
() ).
Ġl iving
Ġp lugin
Ġsol ved
Ġat om
Ġimp licit
V olume
mathbb m
Ġw allet
ul lable
Ġh ot
tit ude
se q
w p
Ġro om
S cal
hel p
ĠU V
Ġallow ing
Ġfra mes
Ġt rees
id x
Ġsc ene
Ġcontra diction
Ġst ored
Ġcre ating
Ġsymbol s
Ġco verage
lu g
sur face
Ġcoupling s
ĠC re
\, {\
Ġindu ction
Ġrespon sible
Ġto uch
set up
en a
an n
tr l
Ġcon formal
ĠHe alth
me tric
ti ents
Ġpro ton
N odes
Ġmost ly
Ġpo sterior
Ġpixel s
Ġecon omic
Ġor bits
Ġamplit udes
{ %
ĠI mage
au gh
Ġesti mator
ĠS tr
Ġar ti
Ġtop ic
ti tions
Ġl ie
land s
S ingle
Ġprac tical
Ġtr ying
nol imits
Com ment
Ġkine tic
Ġc amera
an c
} ~\
Ġse ven
ĠG ets
ĠA uth
ĠU pdate
Ġinclu sion
Ġp latform
Ġ icon
Ġsupp orts
i ps
Ġdem and
uni que
lo od
Ġdefin ing
Direct ory
ĠDav id
Ġcr ucial
Ġrecor ds
bel ow
Ġjo in
i lo
Ġfast er
F urthermore
E V
}} )$
t ty
Ġversion s
lear ning
Ġtransp arent
Ġdire cted
Ġindividual s
Frame work
il led
ĠN or
Ã Ń
Ġhapp ens
ang o
Ġco variance
Ġcharacter istics
Ġinterval s
ff ff
ash ington
ed s
Ġapplic able
Ġmil itary
lar ation
C G
\, ,
ch anged
Ġbreak ing
A m
use um
ĠCh urch
Ġneu tron
ĠF ermi
Ġperform ing
ult ural
Ġcamp aign
ĠB lack
Ġre normal
ential s
Ġentang lement
us es
199 2
ĠĠĠĠĠĠĠĠĠĠĠĠĠĠĠĠĠĠĠĠĠĠĠĠĠĠĠĠĠĠĠĠ ĠĠĠĠĠĠĠĠĠĠĠ
Ġmom ents
Ġinves tigated
Ġcol labor
Ġconsist ing
Ġref lection
ĠS en
Ġ{ '
m ix
h ere
ĠB OO
Ġsec onds
hi ps
Ġf its
ĠM r
tri ang
ĠRe public
. }\
. '
Ðµ Ð
p b
ĠCour t
i as
Ġbelong s
al loc
O F
Ġ ĉ
Ġso on
}} =\
Ġemp irical
N ULL
man ager
H o
De pend
TR Y
} <
Ġsuccessful ly
ç ļ
in os
Ġpla ced
d ashed
spec ific
l ers
di alog
Ġtraject ories
S V
ven tion
Ġreg arding
L in
l r
sub stack
ro te
wo od
n il
Ġexp lor
Ġser ved
çļ Ħ
Par se
ine ar
gener ated
tra ce
Ġstation ary
Ġa ug
Ġdire ctor
ĠT H
Ġpossi bly
j k
Ġn arrow
Ġoutput s
Ġeffec tively
Pro to
hand ler
Ġcluster ing
Ġtechn ical
t b
Ġdis e
Ġsc an
ĠS ur
P op
Ġcre ation
RO M
Ġseman tic
Ġrel ig
Ġe lection
ĠS a
il ing
Ġcon jecture
ĠW indow
Ġmo ved
scripts cript
Ġaff ected
at tributes
un defined
s creen
ĠS N
C lear
are st
Ġn g
A ut
Ġhigh light
u ages
= -\
P refix
Ñ ı
Ġs parse
Ġpro mo
ill is
b olic
scriptscript style
Ġs y
~~~~ ~~~~
Ġ& $
ched uler
M ath
) |\
and ra
b ounded
ĠM or
Ġed itor
Ġla beled
ĠQ CD
test ing
Ġchall enge
bo ost
an aly
Ed itor
Ġ$\ |
)= (
Ġcost s
Ġdemonstra ted
Ġabs ence
Ġdistingu ish
Ġb orn
' )$
St ar
Sum mary
'] )
Ġ% }
Char acter
le ep
Ġpur poses
Ġleg al
A X
ĠM ulti
Ġillustra ted
w er
e g
Ġaff ine
ĠS yn
qu id
hy per
Ġ[ ],
I X
Ġhapp en
c oun
ĠReg ister
al so
Big l
p lus
M s
a sible
Ġconj ug
ga cy
Ġbal ance
ĉĉĉĉĉ Ċ
Ġide as
ate ll
Ġenh ance
h u
h ed
v olume
Ġf ib
ĠA GN
ĠA ND
! <
ph y
Ġre action
ĠH all
BU G
To String
ĠA rm
Ġspher ical
h d
Mem ory
b g
Ġconf lic
Ġd u
6 00
ĠU N
ĠPo isson
S G
Ġs on
}) )
Ġp lus
ar a
Ġim m
Ġde bug
ra b
es ian
Ġdec ays
sub float
ra me
W rapper
Ġpanel s
Ġapp end
Ġqu ar
M edia
Ġneutr al
Ġprof ession
char acter
ĠCon fig
ĠS im
& $
ĠL y
Ġstud ent
Ap J
j et
ĠIn c
State ment
sc ore
k ov
Ġpro m
Ġembed ded
S ER
ock er
l floor
Ġsub sequent
ĠC all
Ġcriter ia
de comp
Ġcap ital
Ġnat urally
ĠCal ifornia
Ġtri p
Ġcat alog
Ġc ast
ĠT ri
ĠVer sion
Ġt reated
Ġpropag ation
h ref
appro xi
ĠRe ad
gra de
un iform
P od
pro blem
Pro ps
Sh ape
Ġcol lected
d ynamic
Ġver sus
der s
Al though
B bb
ST AT
Ġb tn
entif ic
Ġsur roun
u ed
par ser
re set
tiz ed
j query
IC E
Do main
, ~
s ig
z one
ĠT wo
UT F
spac es
ne g
r floor
Su ccess
' }\
in ction
G en
p f
v in
Ġuni verse
Ġapp lies
Ġdomin ated
ĠC H
Ġs ides
us ted
i et
S ocket
ĠNew s
Ġmeta data
S QL
Ġcomp aring
ub y
' $,
Ġg ate
view s
Ġgener ators
U V
ĠDi rac
ĠS k
pre v
Sc roll
cep ts
Ġa spects
di ents
S ample
D ouble
N OT
ĠOn ly
Ġplot ted
Acc ount
ab ove
Ġmon itor
Ġa p
J ava
Ġread s
U psilon
sh ell
ĠR ich
Ġcon tribute
Ġpro jects
form ing
Big r
Ġsimultane ously
en able
Ġj ud
ĠAn y
e lastic
H igh
Ġ[ [
cep tions
h ide
ĠIndi a
Ġdecre asing
p mb
Ġask ed
Ġwide ly
ari al
. [
Ġpro xy
Ġf ood
Pr int
Ġpol icies
n p
tab s
Ġpro position
F i
Ġmes h
ĠCan ada
av en
Ġatta cks
Ġf ol
lin ed
C s
it on
ĠH and
" /
S N
ĠS y
I B
id ers
Ġth in
Ġweb site
Ġsub sets
i ma
error s
Ġima gin
Ġconstruct or
Ġma cro
Ġr g
Ġres olve
Ġ ],
}_{ {\
Adap ter
Ġrespec tive
u pper
index Of
Ġ{ {\
C B
s lice
ho ok
ĠPh ys
ĠT w
By Id
id entifier
II I
Ġunder stood
File s
Ġevery thing
dire ction
Ġparame tr
F ound
dis tribution
ex perim
ON E
ĠSt ar
ec ho
i pped
Ġv ic
Ġturb ul
Ġsepar ated
Ver tex
Ġacc es
Ġsent ence
Ġr ich
Ġpar ser
ĠV is
Ġme dical
Ġg ave
ĠL ore
Ġsm allest
Ġcharacter ized
pro tocol
at ural
Ġb ary
', '
ĠAss ume
c are
ĠT ran
ĠT R
fact ory
A x
comp are
en n
Ġg rant
Ġj Query
O UT
h orizontal
P y
Ġquick ly
p tions
ces sed
ĠF ield
Ġprodu ces
ret ch
Se lection
Ass ume
Ġ tim
tab ly
Ġnormal ization
)} _{\
ĠRi eman
RE AD
cc c
au di
the ory
u lo
ĠBo olean
}\ ;
Rem ove
Ġcour t
Ġsk y
Ġequ als
Ġcon vert
H ER
ĠC ase
qu ote
Ġsa fe
At tr
Ġb rowser
li ance
ĠEar th
ĠPro ject
} &\
y y
ĠC NN
ï ¼
Ġpro to
S pace
Ġc tx
Ġt alk
a ver
en ers
Collection s
Ġdis joint
ning s
Ġwrit er
rou ght
Ġas ync
ĠE ven
P ATH
N V
Ġfa ther
Ġcompar able
Mapp ing
math ds
phys ical
Ġan isot
Ġslo pe
g it
ĠL ong
o mas
$ _{\
Un der
Ġfav or
Ġact ing
Ġre cover
Ġpaper s
Ġis n
ĠTech n
d rop
Ġw ish
Ġperturb ations
Ġtri ang
ĠE l
Ġangle s
in er
st on
Comp arison
w ill
Ġf em
Ġwhen ever
equ ence
Id entifier
)} =
Ġinitial ly
. },
war gs
Ġweak ly
Ġoff ice
test s
Ġext ent
ĠC ap
v skip
Ġal one
el t
Ġp ages
Ġ" ,
==== ==
deta il
z en
d ens
Ġpre v
Ġsuper con
f c
Ġbound aries
in ity
am ond
ĠL android
id dle
Ġl ives
Ġscore s
os es
ĠJ ava
Ġvanish es
oci ties
D uration
ec tive
sh arp
Ġmedi an
u v
Ġcriter ion
place ment
Ġrequire ment
Ġfla gs
Ġinvol ves
Ġtra ffic
Ġ$ [\
Tra ce
Ġspec ifically
ser ial
IT E
G P
re pe
Ġrough ly
ĠP ost
sv g
ĠJ ames
if def
Ġex c
Pro duct
B rowser
ref ul
ra d
Ġindic ating
}) _{
Ġz one
Ġsa w
ra tions
W R
Ġe mit
j ust
Ġlog ic
clu sions
Const ants
Ġhar monic
8 00
Ġexplan ation
Ġsta bil
ĠRe act
velop ment
d al
oper ation
Ġidentif ication
Ġsplit ting
Fa iled
Ġadjac ent
sp a
j a
ĠW ashington
ĠIO Exception
Ġo pacity
ĠM ost
d one
s n
> ::
ĠS E
an chor
Ġla ser
ell ing
TEX T
av ity
ess or
e mbed
######## ########
S imple
Ġ} {\
N T
Ġstrong er
L C
Ġex ceed
ta il
ry pt
* \
= $
Ġmove ment
}. \
ĠSu per
Ġextension s
C re
sec u
bet ween
get Name
Ġqu eries
Ġxml ns
Ġro ute
' m
Ġto ward
en tion
ta gs
h al
Ġw rote
Ġne gle
Rou te
hom ology
il t
in dependent
Ġnon zero
C ho
Ġcollision s
prote cted
Ġextreme ly
Ġspe ech
ĠH ash
Ġspace time
Ġpro jective
& -
U SE
! \!\!\!\!
Ġd ie
Ġpla ys
Ġex it
w rapper
Ġp lots
Ġ ).
Ġpres ents
Ġconver sion
' ve
est ing
A F
Ġe mail
Ġresi dual
ex ternal
> $
f x
Ġw anted
B ound
s ym
L en
Ġman ager
-------- ----
Ġmin utes
fil ename
i ta
nos tic
Ġcorrect ly
Ġcon e
O B
A nother
d omin
') );
Ġan ni
ĠA g
ĠIn teger
Ġstate ments
ex ec
Ġdiscus sions
ph one
Ġ$ $\
19 80
ile s
_{ {
po ol
Ġ Î
Ġrecor ded
Ġsecond ary
. (\
ĠC P
Ġtri angle
Ġro ots
Ġen jo
Ġs chedule
S cale
ed itor
Ġdis order
Ġread y
Ġa wait
ĠF rench
deta ils
ĠM il
ĠN ext
UR I
Ġal pha
Ġad opt
re h
ren ew
He aders
Ġdiv ided
ĠT V
Ġdescri bing
ĠMark ov
g iven
an alysis
ĠV iew
ĠS I
] ^{
ps ch
Ex perim
li ography
Ġflow s
th row
nt z
Ġc lock
en gine
vari able
Ġse gmentation
b atch
li br
in cre
ĠM er
199 1
en abled
Ġorgan ization
Ġlaw s
{ [
Ġbo ost
ine ment
Ġin iti
Ġus age
Ġcontrol led
\| _{\
g ate
Ġelectron ic
Ġdedu ce
Ġsuff ices
ĠCon n
R T
ub er
) |^
= (\
Ġser ve
Ġpul se
T ABLE
H D
Ġin stitu
IN D
}} }{
Ġcirc uit
Ġfinite ly
Ġtes ted
Ã ¼
head ers
Ġobserv able
ater ial
gra d
ĠR ad
psch itz
Ġplas ma
Acc ording
Ġmo vie
Vari able
ĠIsra el
P air
AL SE
ct ors
stand ing
e val
G G
Ġm us
Ġinst ant
c oup
Ġlat ent
ĠB ro
Ġ' <
Ġe ight
ĠM ag
b rowser
Ġac tivities
Ġlinear ly
Ġt mp
os sible
M er
TI ME
New ton
Ġt ail
ĠJ ew
gl igible
Ġper spective
Ġrepresen tative
ĉĉĉĉ ĉĉĉĉĉ
Ġremo te
c u
d k
ay lor
S a
ab a
c li
T ri
b asic
Ġin trinsic
ĠW rite
G r
Ġgener ates
Ġadj ust
Ġinter ior
' }$
Ġcomp licated
$& $
p otential
ĠPro gram
Ġt argets
od d
Ġf ocused
W N
Ġphot o
Ġ> >
Ġclose ly
Ġca reful
Ġcoup le
Ġdraw n
En umer
ĠD on
Ġde ad
d z
Ġn orth
Ġpen al
Ġd river
Ġdriv ing
Ġrun time
Ġth reat
mp t
Ġover lap
at al
group s
Ġle pt
ma zon
her ence
Ġd s
ĠTr ump
) !
p ull
Ġel imin
Ġanalog ous
ext end
as sets
stand ard
ne u
Ġf o
inte gra
pi x
H ow
v able
Ġview s
Ġfa ils
Ġeffor t
Ġcheck ed
re mo
ĠWh ite
}} }$
T imes
super vised
A gent
Ġ ill
Ġsur v
Ġhim self
S ync
cen tage
Gener ator
P ER
on om
RI PT
Ġexp onent
Ġdest roy
Ġconcent ration
Ġupd ates
P G
ĠI E
Ġcommun ic
Ġb re
Ġsus p
st orage
Ġrep orts
Ġinc ident
Ġbene fit
th ree
Ġcirc um
Ġbook s
sc ape
Ġgu ide
at omic
for ma
op es
ll ig
Ġpla ces
Ġgener ality
Deta ils
Ġ }$
ĠN av
rec ord
Ġqu ali
g on
Ġorgan ized
\ }}
acc ount
ĠI II
Ġpre sident
IN S
ft ware
}_{ (
}) -
N C
Ġsign ed
Ġsize of
Ġpo ss
Ġanaly tical
Ġconstit u
jec tions
Inter val
@ {}
Ġo k
Ġindepend ently
Ġ tight
y er
cy cle
ĠP ath
Ġpartial ly
F ix
U D
Ġse p
}= (
Ġmin or
ud y
ĠE uclidean
F UN
Ġgrow ing
Ġpar am
Ġpub lish
ĠB r
A meric
i lation
Ġ$ <
par ts
ud get
Ġ ^{\
Ġpass ing
fa st
Ġchalleng es
ĠM C
Ġmechan isms
ĠB it
ines e
Ġintrodu ction
Ġproper ly
Ġpro mis
c tivity
Ġfi ber
S W
es ides
prote ct
inu x
' ',
aw a
ĠH ttp
HT TP
ĠC lear
Ġbo ard
Ġout per
Ġsec ret
Back ground
j ango
log ger
S K
Ġsh arp
Ġa ux
A CT
ĠA SSERT
S imilarly
Ġcontinu ed
f old
Ġquo tient
ĠEng land
B H
Ġid x
}) (
Ġa udio
* {-
ec es
ĠM essage
w all
) )$.
Ġfil ms
ĠI l
D est
si p
n l
Ð º
Ġtrans late
og en
Ġhe art
}_ +
~ (
sp ital
ig u
sp irit
Ġinvestig ation
, (
Ġcomp osed
Ġpower ful
ash ion
amp ling
ĠCol lection
orre ct
s mooth
Ġellip tic
ch er
Ġfour th
lo ader
F low
$ --
lo aded
um ula
Ġclassif ier
Ġcol ors
Ġenc oura
}\ }$
Reg ion
Ġp owers
Ġcirc ular
H istory
Ġ" <
Ġbin ding
ĠV ari
Ġpro be
P Y
ol or
NavBar Cell
). }
ĠS i
Ġexhib it
P s
EN TRY
Ġexci ted
serv able
=" ">
Ġcover ed
Ġlist ener
Ġfilter s
Ġhead ers
Syn tax
Ġch art
Ġorder ing
Ġindu ces
Ġbro ken
fe ature
P M
Ġpa tients
T otal
sh all
comm it
ĠAss ociation
al d
Ġco herent
Ġvel ocities
: [
Ġvalid ate
Ġend s
mate ly
ag o
j unit
}, {\
renew command
Ġlet ter
Ġex ecute
Ġd ied
ili ary
ĠP ress
t ur
Ġran ges
B OO
Ġdes pite
col lapse
ĠA T
( .
ĠPro cess
Ġinf lation
ic ity
ist ent
op tional
ĠIn dex
PRO C
Event Listener
viron ments
Ġin finity
ĠD O
C V
ar ticle
ra tio
Ġcorrespond ence
u tation
ĠS um
fla g
re v
Ġrelax ation
Con dition
Ġrecog nition
Reg istry
se y
ĠM ac
display math
u fact
Ġw ire
[ ]{
Ġeffor ts
Ġconstra ined
Ġpotential ly
Ġto t
E ff
Ġre ward
| -
b en
t c
Ġfore ach
ĠT op
is y
ĠUn ion
LE CT
in valid
ĠL ab
d c
n def
tr um
ic a
Ġcyc les
' )\
on ym
Ġ/* !<
lic ate
Ġop ts
Ġplay ing
Ġchalleng ing
Ġle aves
Ġconsist ency
Ġro ad
Ġout come
pro vider
ĠRec all
En gine
Ġpass word
( |
RE G
f ly
r ift
ĠLo cal
min al
Ġcover ing
à ¤
Ext ra
ĠComm it
O PT
=" @
writ ten
N ormal
com bin
Ġar ise
T x
cle an
ou lo
serv ices
Ġass ignment
ĠD uring
!\!\!\!\! \!\!\!
Ġmo ther
Ġpriv acy
ific ations
ĠS to
ĠF urther
Ġsp ent
Ġad mits
tiv eness
Ġenc oder
Ġp ipeline
Ġexci tation
Ġtime out
ĠL ap
Ġde formation
Ġste ady
D ictionary
Ġsample d
Ġ ultra
p an
ĠC ong
; }
Ġre set
o ta
ex tern
pa ges
198 9
ĠMe V
Ġdefin ite
(' .
s ymmetry
ĠĠĠĠĠĠĠĠĠĠĠĠĠĠĠĠ ĠĠĠĠĠĠĠĠĠĠĠĠĠĠ
Sym fony
Ġintegr als
R AN
es h
ĠCh rist
res olve
F LA
Ġsu ffer
Ab stract
Ġdoc uments
sequ ences
\, .
EE E
Text ure
h skip
f requency
t p
Ġra re
under set
pa per
ever theless
ane ous
optim al
ĠD ay
Ġchar ges
Ġo wner
Ġconven tional
ĠE mp
ty les
R est
k ernel
Ġvi ol
ta ck
ta tes
ĠP O
Ġd ou
N umer
Ġp od
I MP
Ġge ome
) }^
ĠMon te
Ġpermu tation
,\ !\!\!\!\!\!\!\!
Ġdetermin es
M is
ĠAustral ia
ĠIn put
face book
Ġh um
ĠH y
exp ression
Re pository
Ġper forms
oid al
/ .
Ġ" -
Ġse gments
ĠI ts
select or
ro le
Ġch urch
Ġabund ance
Ġ ri
Ġne ur
Ġinterpre ted
L INE
Ġro bot
) ->
Ġnumer ically
$ (\
la tive
z ure
res ources
Ġ ];
}( -
Ġhad ron
H P
Ġen um
ĠIn stead
ĠU p
Ġc ulture
Comm on
TR UE
te sian
Ġser ious
Ġ[ "
Ġh und
Ġrecomm end
dist ance
Ġclo sure
Ġj ournal
Ġho les
Ġhom ot
ĠJ aco
ol ving
roun ds
com es
tra ining
ĠPa ul
^{ [
amp ion
U ri
M icrosoft
Ġillustra te
M AT
A li
ch y
R C
ĠHT TP
ava i
ĠQ ue
Imp ort
no ise
Ġfin ds
L ower
in ds
The y
ĠRes ource
Ġembed dings
ĠCopy right
app ear
FF FF
re le
LO CK
it o
org an
' +
Ñ ĭ
ĠThe ir
O wn
11 1
Ġbrief ly
Ġcop ies
Ġp or
c laim
Oper ator
auto ref
ou thern
Ġcomple tion
ex ecute
Ġsepar ately
Ġhyper bolic
Ġdisplay ed
Ġcaus es
Ġdeli ver
IN FO
te ch
Ġinvol ve
d ig
p in
Ã ¶
Ġcorre lated
Ġcho osing
ĠGe orge
au x
Ġpeak s
ed u
Ġcommon ly
Ġe ast
Ġcoun ts
ĠB ob
Ġla test
requ ired
re ct
g ame
pher ic
' ll
w a
Ġb rought
st one
Ġselect or
ĠChris tian
ĠT er
Ġsome one
ren ts
sol id
Ġappe ared
ĠSt reet
Sta ts
comp act
Ġs atell
Ġa belian
time out
ear ning
Ġcal ibration
Method s
ten ess
if ndef
y cle
S he
Ġmeet ing
M ask
= [
um my
Ġn ation
h ow
AD D
sh ared
la bility
Ġpotential s
. ");
Re al
^- $
{ "
Ġu i
ĠP ort
Ġmathema tical
= {\
ĠS V
Ġbos on
S ur
Ġguarante e
Ġwork ers
Ġformal ism
2 13
e per
ĠL and
Ġstruct ural
th rough
th an
Ġf mt
der iv
Ġ$- $
Ġconven ient
Date Time
Ġsp irit
Ġfig ures
C RE
ĠA lex
ĠP art
Ġpo ol
ST M
ĠVal id
fig s
Pass word
ĠN GC
Ġmon ot
ĠM al
Ġclo ser
d if
Gener al
B ra
t f
! [
Ġhe ter
12 7
F P
}$ ).
] _{
******************************** ********************************
Ġ" $
ĉ ĠĠ
w as
ĠCar lo
d v
x rightarrow
Str uct
= }
Ġdetermin istic
Ġinter sect
I LE
Ġfact ory
mo z
Ġvehic le
^ +\
Ġre ci
Ġ\ #
Ġd y
ĠB ig
go od
ma ps
for tun
Ġv align
Ġformu las
deg ree
ĠĠĠĠ ĠĊ
sh al
element s
Ġobserv ables
re spec
Ġfa ith
ven ue
ĠPar ameter
T F
ĠS QL
Ġcondu cted
ari an
c is
art in
Ġpol ice
ĠF orm
Ġopport unity
ho le
Ġthan ks
Ġc ele
ĠPro f
Ġutil ity
Ġsta y
supp orted
inter val
s un
Ġspe ak
ĠLore ntz
Ġdepend encies
Ġs l
G M
A rea
pol icy
ĠH istory
ĠE instein
Ġsyn thetic
equ ival
Ġmo ves
R S
Ġdriv en
Sp an
D iv
Ġprom ise
Ġsta ff
Con ver
Ġreal istic
er ve
x s
Ġd war
war m
origin al
g re
Ġther mod
run time
) "
mple ctic
Ġinter ference
om ing
bu ilder
her ited
te en
oun ding
Ġpro ves
Ġpack et
de cor
consist ent
> "
ph oton
Ġlimi tations
om b
}| ^
C ategory
Ġinstr ument
Ġ\\ [
si mu
Ġmer ge
Ex ec
}}\ ,
r ink
Ġexp ort
ma tics
Ġturn ed
sim ilar
: `
uto ff
me t
ill er
De legate
Ġun stable
P ay
L M
Ġannoun ced
Ġper haps
ĠK e
s b
ĠSpec ifically
pk g
Q U
Ġcol lapse
ob jects
I VE
Ġregular ization
c v
Ġappear ance
Se lected
Ġconfir med
respec tively
t k
j ar
ou ds
Ġ\, ,
Ġaver aged
ta s
)\ ,\
da tab
coordin ate
Ġcall ing
Ġcombin ations
b an
pro gress
Ġrg ba
Ġsaf ety
ĠM icrosoft
act or
er cial
Ġhy brid
Ġop in
ĠP en
Ġim mediate
Ġd ialog
ĉ ĠĠĠĠ
Ġfin ish
se lection
check box
op ts
Ġsome what
v ideo
ĠM em
on omy
ĠC ons
typ ename
Ġcont ents
Ġtren d
Ġperiod s
Ġres olved
Ani mation
Ġfri ends
ator ial
mis sible
ul arities
ĠA nother
z es
method s
di tive
Ġke pt
Ġle ader
hel per
R ole
Ġlang uages
}} +
effici ent
Ġcommun ities
Ġcent re
o cc
Sh ort
Ġvanish ing
Ġtrans mit
ĠB an
Ġlo ops
ĠF ix
L U
arg uments
Ġderiv ation
' (\
B ased
ĠB i
VAL UE
lo gin
or bit
process ing
Ġinvari ance
Ġe lastic
198 7
Ġ\ }$
Ġs outh
example s
ĠV ector
gl s
): =\
bib liography
S i
Ġ= ========
ĠT imes
center line
Ġfore ign
rela tive
ry ption
e ks
Ġplan ning
ĠJ ack
Ġm enu
ul ing
u zz
Ġex cess
IG HT
) <
Ġman ip
C red
Ġdec ided
AR N
Ġl icense
}}\ \
Ġinequ alities
ĠE ducation
Ġlong it
re ci
r v
to gram
make box
5 12
Ġset t
}^{ (\
p latform
}} +\
over view
ĠDem oc
P res
sta t
ĠWilli am
own er
et ing
ĠMich ael
re str
s olution
Ġmargin al
igin al
INT ER
Ġg lob
Ġoff ers
p ot
con sole
S pe
Ġanom al
å ı
ĠD an
Ġcon servation
con vex
ĠV ol
ĠP DF
ĠT ex
EN SE
B T
Ġs ociety
pre dic
Ġparticip ants
Ġsay ing
ĠAfric a
ĠM us
Ġmultip lication
Ġlay out
Al so
Ġani mation
Ġgeodes ic
( @
f un
oun ted
ow ski
w d
ĠZ e
Ġf ight
Ġref ers
Ġparen ts
Ġa ware
big skip
stri al
ok ing
Res ources
Ġe mo
A SSERT
Ġmo bile
P UT
Pro gress
Ġ' '
ĠComp any
Gener ated
ĠA rt
lef trightarrow
b ro
f ire
Ġpro ps
ag ent
Ġsc roll
load s
Ġo pt
}] $
can cel
Ġs ensor
check ed
Ġnav igation
Ġin sert
p q
r pc
19 70
la in
End point
Ġm ul
Ġth ous
Ġdest ination
u ction
Ser vices
ĠB en
Ġfe asible
Ġd rive
vel ope
P ers
ĠE uler
l b
ut ter
con structor
ĠPro perty
ĠC A
g lyph
CO MP
B inary
13 0
Ġm irror
Ġlog ger
dis c
load ing
Ġreal ized
ĠWindow s
Ġview ed
B F
Ġto ur
Ġs par
Ġmag ne
Ġfle xi
Ġ )$
Ed ge
ĠB ur
}\ )
Ġen umer
Ġn omin
Ðµ Ð½
Ġcirc les
Ġcol our
Ġbu f
end or
AA AA
Ġpul s
eff ect
ot or
ach ine
rela x
D b
T V
us ers
Ġe mb
ĠIn formation
Ġsymme tries
rg b
Ġexp orts
Ġin j
S equence
Ad min
L imit
rou te
Ġtrack ing
ar n
au ght
side bar
ma sh
Ġre verse
ab c
() </
H M
B r
Ġg ir
war ning
Ġen coded
] +
E P
d ark
ĠS ociety
Ġelement ary
mem ory
[ {\
Ġd rag
Ġlo aded
=" ${
Ġqu al
pro xy
ok ed
Ġanal ys
ĠM ary
Ġiso lated
Ġanaly zed
ta ges
Ġdel ta
Ġli quid
ti ties
Ġal ignment
Ġcyc lic
so cket
I gn
Ġg ene
Ġn p
Ġ_ ,
Ġconsider ation
Ġdis covered
ĠU I
}} -
Ġc e
vel oper
ĠC ath
ĠA ction
Ġne gligible
Ġde b
14 0
Ġc ivil
ĠFran ce
Ġex ec
Ġcl ub
Ġdiver gence
serv ative
Ġrepla cing
Ġoper ating
Vis ible
Ġtri ple
Ġprote ct
Bin ding
tis tics
Ġtw ice
Error f
ide l
ĠB H
Ġre ly
res olution
K S
comp iler
ĠGovern ment
Ġde dic
top rule
(' /
G LE
sta tes
exp an
m ouse
ĠĠĠĠĠĠĠĠĠĠĠĠĠĠĠĠ Ċ
ĠB S
RE E
li e
ĠM ake
ma ven
Ġco homology
F n
temp erature
formu la
Ġread only
Ġen vironments
ĠRequ est
ĠCh inese
Ġp at
Ġschool s
ht bp
Ġdig ital
Ġ â
Ġ{ "
it ness
M ove
Ġc lick
DE FAULT
Ġdise ase
ari ant
spring framework
ĠP at
exp and
ograph ic
Ġto kens
Ġ' ';
al ing
Ġre sp
ell er
Ġpo inted
la ter
Fig ures
ou l
Ġn a
198 8
radi o
user name
oc o
d n
) ~\
~ {\
e lem
Ġdi ameter
stra te
' -
IT ION
Ġtang ent
Ġentire ly
Ġcub ic
fer red
Ġf l
ver tical
P ublic
tic ip
Ġinstal led
clo sed
Ġrela tivistic
Ġa spect
Ġorigin ally
Ñ Į
am ous
Ġfraction al
L android
Ġpro g
SS L
Ġcenter ed
. <
Ġ' \
1 12
}) }\
set length
Ġcon c
Can cel
ĠBay esian
MA P
D iff
Ġco oling
Ġcry stal
}} }{\
Ġord inary
w atch
ĠS ource
d at
as sembly
ĠComm ission
ĠA ward
Ġend point
+ |
> :
Ġprov ider
w est
Ġtor us
Ġneighb ors
ump tion
e a
ĠL u
Ġbenef its
o int
vi a
A re
}$ ;
ĠT emp
ĠNew ton
Ġcon figure
Ġin d
q q
f b
lat ors
Ġrece iver
tribu tions
B s
Ġmetal licity
ĠB ack
D en
Ġoccur red
od ay
t body
nos tics
inter pre
Child ren
c n
o ted
am i
ĠBo ard
bo th
Ġla bor
mb f
bor n
T M
D IS
Ġtag s
F ree
Man y
RE Q
Ġoscil lations
ĠP RO
inte lli
$ }\
\' {
Ġdis abled
ME TH
Ġcombin ing
os er
M ac
Î ¿
) /\
() ))
p ress
Ġs ch
Ġensure s
avai lable
intelli j
Auth or
vis ible
L anguage
m or
ĠAs sembly
Ġra ce
s est
ĠPe ter
si ent
Ġp ion
h n
d river
Ġs ql
X Y
Ġro un
ati bility
ab i
S to
ĠE v
Ġstand s
ĠRes ults
bra cket
Ġtri al
........ ........
B I
ta tor
ĠG raph
er al
Ġaccep ted
eq q
Go ogle
f p
Ġne ither
An alysis
l st
igh ter
is sues
" ],
j Query
ĠCol or
j ob
}] \
Ġmis sion
Ġ est
Ġmain tain
Ġb illion
me ter
PO ST
. ",
Ã §
Ġen ables
Ġfoot ball
Ġw oman
G O
Ġmanif olds
Ġmat ched
Ġacceler ation
ĠS tra
pa red
Ġpure ly
Ġassert That
Ġne arest
si mp
Ġimagin ary
od al
Z h
v v
Ġch ance
Sh ared
Th m
Ġeasi er
ĠF ace
Ġdot ted
Ġf an
i os
' ,\
Ġopen ed
T er
Ġcosm ic
Ġconclu sions
d riv
libr ary
aj ax
cri bed
Ġes cape
Ġfit ted
}, \\
Ġexpan ded
ĠR iver
ĠLe ague
ĠS at
Ġactiv ation
_ );
DE BUG
Ġhard ware
tra ined
Tag s
pa che
Ġexam ine
Ġlocal ization
ĠL at
fortun ately
E ST
py thon
}} ^{(
B al
B AR
] _
Ġ\ :
}\ !
Ġal location
Ġobser ver
W ord
De te
Ġcompu tations
und les
cho ose
M ouse
E SS
hav ior
cri tical
inclu ding
ach ing
Be gin
Ġf oo
Ġproof s
Ġ> >>
ĠM L
fra g
esti val
ĠOff ice
Ġp p
Ġcur sor
In v
continu ous
Ġmod ification
? >
C LASS
Ġpre par
ic en
Ġclaim s
co st
r ig
Ġ ing
(' #
Ġprogra mming
Ġlook s
ĠD ue
ĠDef ine
ts d
mer ge
ga z
Ġanni hi
Ġfin dings
Ġadvers arial
ĠL ou
Ġin stability
Ġcross ing
Ġar ises
Ġdoc umentation
ov a
ĠAr g
Ġ ulti
'] ['
Ġintrodu cing
Ġmod uli
con s
an cing
ĠTh omas
Bo ok
ev alu
force ment
inte ger
Ġconf irm
Ġcomp ression
lap sed
Ġen v
10 5
ari a
! !
ani mation
Ġv ision
Valid ation
ĠS C
od ies
FN GL
Ġcor ner
w ild
ĠĠĠĠĠĠĠĠĠĠĠĠĠĠĠĠĠĠĠĠĠĠĠĠĠĠĠĠĠĠĠĠ Ġ
ĠP age
ch en
Ġre member
valid ation
b ecause
ore st
if ting
Be an
ĠD iv
v ectors
vo ke
ame l
Ġferm ions
Ð ²
ma y
Ġbroad cast
} </
big oplus
Ġal le
Ġcor por
Ġaux iliary
Hel p
pla ys
}} _\
Ġre ality
le ts
Ġv illa
ĠN AME
Ġopen ing
our n
ĠCommit tee
ĠX ML
ĠY ear
sta ge
bibliography style
< !
ide os
ĠJ ournal
ĠPar ty
ĠP ub
f ound
Ġaddress es
ĠT ur
Ġfact s
Ġrestr ict
Ġatta ch
S m
Con clusion
ma tes
qu antum
Ġbir th
k t
Ġse ed
cell color
Ġsh ear
Ġvari ant
Ġappear ing
}$ $
Ġlarg ely
Ġtype def
script style
/ {
), (
DE F
Ġex cell
Ġjob s
la d
Ġachie ves
Ġpop ulations
Ġredu cing
mid dle
exp ect
ID E
Ġtele vision
po sitive
U B
ou ter
ĠB A
Ġro ll
Ġcon cepts
are a
Ġphenomen on
Ġcol d
Ġcapture d
Ġw ife
Ġprov en
On ce
B asic
Ġpur ch
Ġpro jected
F ind
h ouse
Ġhol omorphic
Ġp sy
IC ENSE
ĠT aylor
MO DE
Ġm m
g tr
Ġdep icted
ind ic
tran sp
N ative
Ġmag net
" },
Ġhom omorphism
ĠÐ ¿
ĠWil son
Ġlimit ing
Ġsingular ity
Ġs ti
comp ute
Ġstudy ing
Ġa udi
Ġlocal ized
Ġn an
sa tisf
ta ke
ab br
V ir
Ġc avity
}) {\
Ġsk ip
re lease
Ġqu bit
' ];
% ,
re act
R andom
Ġima ging
S k
per son
">< !--
66 66
Ġint ended
B ecause
Ġp in
ĠCh ild
Ġc lip
el d
correspon ding
Ġconver ge
ĠG old
ĠC a
ist ant
ste llar
Ġdiv ision
B atch
] }\
198 6
re ce
ĠG reat
play er
ĠJ er
ĠOther wise
ĠBOO ST
ĠB lock
Fla g
# {
Ġf er
cl s
Ġt ends
ĠR oman
mar ily
Ġfin ished
Ġnull ptr
col Last
VAL ID
com mu
ĠAfric an
Ġjo ined
Ġt x
Ġfil led
ro om
AN T
bottom rule
ĠF ree
H ome
Ġg rand
ab out
ĠSm ith
B ottom
ĠM ock
Ar ch
Ġun ity
Ġnumer ous
Ġf ederal
ht b
A udio
Ġe th
valid ate
Cl oud
Ġcertain ly
Ġla unch
In deed
p es
Ġign ored
Ġneighb our
ĠAN Y
ar di
au chy
en es
ac tiv
onal d
ĠArray List
du ration
me tic
Ġkeep ing
Ġdep loy
par tition
Ġsit uations
Ġexecu ted
nav List
Ġf usion
No tice
multi p
Ġrelations hips
V ideo
ĠCon sequently
ĠE ner
if i
per turb
par tite
y an
I ds
Ġenjo y
Ġtr ust
In f
Ġenh anced
s ync
N a
e es
ĠI ran
string s
]{ ./
Ġb udget
text style
Ġenti ties
= &
' d
con j
big gr
DO M
on ce
ĠOption al
f mt
dest roy
Ġ$ -\
K L
ĠH en
ex act
R ate
St rate
Ġpar ties
ĠSh ow
c lassif
ĠGerman y
ec olor
Ġ= ======
en berg
la c
Ġsub stitu
Ġsimpl ify
g ap
Ġt ables
Supp ort
riv al
ĠRo bert
Ġsur ve
ĠGal actic
B D
ĠPo int
Ar r
Ġcancel lation
Ġcre ates
ĠE lement
pol ar
ĠM any
Requ ired
Ġmolec ules
ama zon
Ġimp ossible
Ġinc ome
G A
men tion
10 24
P romise
with out
l brace
Ġv an
h alf
scri be
ĠNo tice
ma k
sign ature
Ġd augh
P ub
col First
label s
v ance
Ġcontinu ity
Ġprior ity
Ġeffici ently
Ġp lease
Americ an
R a
Ġhierarch y
ĠT or
_{ (\
Ġexp os
Argument Exception
Ġchar set
u ted
t ouch
Ġconver ted
ĠAc ade
] ^{\
moment um
as ync
big gl
ĠC ho
oulo mb
' }(
Ġb ank
il ding
Ġdi pole
z ip
er os
iz ers
Ġlength s
Ġpart ners
Ġcomb ine
Ġcommu tative
gra ms
Ġrequ ested
ã Ģ
ĠSec urity
Jo in
Ġlink ed
Z Z
D ATA
N P
}} )\
Ġsub graph
Î ±
ĠL ife
ĠR ob
Ġb an
ma pping
Ġst ories
ryp to
(" /
Ġb us
for Each
ĠOn ce
var pi
Ġsh ifts
Ġvari ability
Ġsta ges
}$ ),
t l
om ite
Con structor
Ġi i
ri an
ĠRem ove
in herit
Ġradi i
u ma
ĠE very
Ġra ised
algorithm ic
Ġt uple
Ġdis covery
10 2
Ġarg ue
ĠW he
Ð ¼
Ġs ending
Ġh uge
\\ \
ra pped
Ġrapid ly
no v
tri p
ĠD a
ap is
Ġdec ades
up s
Ġdevelop ing
Ġc md
Ġfac es
- {\
Ġqu as
mon th
Ġqu bits
Ġcomple tes
cat en
ak es
DB LP
ad ian
E L
Ġat t
Ġen code
Ġf ashion
Ġcap t
O C
Ġc lin
pro j
ĠM ain
Ġinteract ing
Ġg old
F M
Ġcon dens
Ġatta ched
F ace
ĠG lobal
Ġsqu ares
No tification
ĠA gain
omite mpty
Ġpar ity
Ev alu
m k
stit uting
Ġpl ans
Ġcomp ens
Ġpar a
comp arison
) ~
ĠC PU
Ġh or
n c
s ame
Ġreach es
7 00
a sion
il istic
v p
ĠSte p
ri end
) },\
M ake
con struct
Ġacc ounts
raise box
Ġdec oder
Named Cell
i en
ent y
Ġs la
ĠMin ister
198 4
rep ort
all ery
Ġb low
Ġwe eks
Ġt a
Ġac ade
S creen
; ">
ĠA uto
P rivate
+ $
all classes
ma ch
Ġplan ets
ol f
manif old
ta min
Ġwor st
Ġag reed
exp r
re lation
P layer
Ġp late
ant ly
oun ting
Ġscal ed
ĠY oung
ĠSt andard
; )
Ġcomp reh
verti ble
H H
b lank
differ ent
). $$
ĠS pace
de lay
Ġvol tage
Ġver ified
ĠD B
Al gorithm
Ġl ists
Ġpa int
Ġman ufact
bound ary
Ġdual ity
fe ed
M IN
' },
p riv
tr ine
Ġ" ",
Ġas sembly
Ġtra cks
Ñģ ÑĤ
Ġsu c
ad ap
Ġrect angle
ĠMa jor
Ġam ounts
resize box
fl ush
Ġtr unc
ĠSo ftware
Ġb ars
^{ {\
os h
Test Case
bin ary
Ġreli able
get Value
un ities
CT YPE
cos h
Ġrespon ses
Ġcele bra
âĢĿ .
V AR
Ġv ote
c lone
Ġhistor ical
Com bin
Constra int
ec tivity
& +
sin h
"/ ></
ĠM usic
ĠLO G
Ġle aving
cri pts
ne igh
ra tive
Ġo lder
fra ction
k k
la red
q ed
I mple
Ġj ets
col head
fore ach
Filter Database
N ullable
Line ar
Ob jects
B order
our se
Ġvari ational
Ġm or
Ex ecution
ĠD oc
198 5
Ġenc ounter
bur g
in to
ang ing
Ġdecision s
): =
Ġh ous
Ġsummar ized
Ġresearch ers
Ġs lice
Ġf irm
Re port
En ter
S ame
ĠTex as
{ |\
T L
Ġw est
flu id
00 2
Ġobtain ing
cur sor
Ġconflic t
depend ence
Ġown ers
d on
under brace
lat tice
Ġimp lied
ist an
Set ting
Ġan no
99 99
S uch
m cite
Ġcli mate
Ġed it
Ġs ys
Ġprofession al
B er
ĠL ink
Ġclassif ied
pre vious
Ġwon der
da pt
Ġtrans formed
gtr sim
» ¿
Ġ{ },
Ġpre tty
Ġd amp
Ġevery one
f m
Ġquark s
ter ms
Ġw al
Ġsci entific
Ġcontinu es
pend ing
Ġhel ps
ac le
Ġpri marily
n or
P lay
M ag
it t
Ġdetermin ing
ï »¿
get Element
print ln
Ġext ensive
Un known
us form
c la
di al
ĠBo ok
L Y
numer usform
des ign
B IT
^ ^
i ar
qu ality
c atch
Ġcon tribut
@{ }}
ĠD el
ĠS ets
US ER
W ait
}{ $
Ġguarante es
Ġcaus al
elec tron
Ġgo als
ĠN on
d m
Ġover la
ĠEner gy
Ġtext ure
colon eqq
^{ *}
En vironment
cont ents
esti mate
Ġobserv ational
ud inal
Ġhomot opy
... </
A I
Ġco vers
con sider
indu ced
ig ens
Ġs we
Add r
Ġuniqu ely
po inter
con ditions
B ounds
oc aml
H ub
i ant
f lex
Al loc
Ġcar bon
Ġ til
Ġsu cc
G ame
ĠP M
cur ve
Id entity
ĠDire ctor
S pa
}$ :
SE LECT
App end
ro t
ĠP ack
\" {
h aus
ĠT ele
Ġ@ "
Ġloss es
ĠIndi an
Ñ ĩ
Al low
Ġch ains
Fra gment
T ick
ĠG PU
ĠĠĠĠĠĠĠ Ċ
ach es
OR M
ĠSec ret
secu tive
G D
}} }}
oci ated
Ġsurroun ding
ig roup
Ġoptim ized
ĠAd ditionally
Pro gram
] \\
Ġper centage
> '
Ġpres entation
, }
Ġelectro magnetic
ĠD OM
Th row
Ġcomm ands
is Empty
ĠC lient
- $\
Ġfor ced
Ġm d
Return s
ent ric
H y
}{ $\
Ġsp ot
Ġcl ouds
g p
Ġpri mitive
ĠS al
En coded
Ġload ing
C at
Ġpo se
r brace
Ġnear by
Lo op
Ġh our
Ġremo ving
Ġci tiz
ĠR a
}; \
3 60
I EEE
ĠCont rol
EE EE
Ġanalys es
ĠK en
Sta tic
Input Stream
ĠW ay
ste in
s r
bin ding
ĠPro of
Ġassoci ation
ĠS ol
b ounds
Ġreprodu ce
OR Y
g est
Ġband width
ĠĠĠĠ čĊ
Y ear
p ic
Us ers
tra in
ĠI V
}) :
Ġtell s
Ġtrans actions
F ollowing
Ġf lo
ĠM ass
Ġisot ropic
Const ant
D river
Ġregister ed
rt l
FI X
Ġexplo red
Ġsignific ance
AT TR
Ġcomm ercial
ĠF il
Ġsy mplectic
Ġhydro gen
H A
00 5
Ġle af
Ġpropos al
Cur sor
Ġdepend ency
AN CE
ĠSt art
)} =\
Ġrep os
ĠJ ose
10 4
Ġcoinc ides
ti er
te gra
Ġconcer ns
ord an
ĠG W
w ho
Def ine
ĠS ign
DO CTYPE
Ġregular ity
Ġexpon entially
Ġdedic ated
Ġ\, .
ĠM S
ID TH
() ),
Ġ" %
) *
Ġb ubble
Ġapproxi mations
gra vity
ĠB est
s qu
ĠG r
Ġminim ize
Ġidentif ier
Ġp ortion
ĠC D
UN D
e b
ĠJ ust
Ġis su
w riter
Ġk illed
ĠB a
Ax is
ex it
S ave
g oto
Ġ' %
CH AR
G s
SI S
ĠS am
( $\
Ġgra dients
Ġdetect ors
T X
Ġrig id
| {\
ĉĉ ĠĠĠ
}. $
ch arge
T w
air s
Ġconjug ate
ĠM edia
ĠF ROM
Ġmod ular
ĠF ollowing
Ġwas n
ĠN N
}. $$
Ġhelp ful
War ning
Ġthe me
ou ts
Ġcoun ting
Ġro ck
$ =
**** **
Ġm al
l p
NS String
Ġ" ";
ĠC ustom
b our
Ġ\| _{
Ġextra ction
li ers
2 20
form er
w ang
Ġinitial ize
ĠM ex
Ġinter polation
Ġc utoff
f v
ĠU s
S ql
s cheme
ĠRe trie
icen sed
Ġin su
dis able
Ġpro min
ĠA D
Ġar ticles
Ġbro ther
bo se
ch art
ro tate
A SS
ĠM I
Ġsurpr ising
ac tivity
Ġfac ili
For ms
cal endar
Ġmi xture
ĠLi pschitz
Ġer g
Ġn ine
ĠDis trict
)) =
__ )
ER S
ĠM useum
Ġcli ents
ĠSta tus
Ġsimpl ified
Ġb ins
Ġi p
ĠM O
ĠB ern
driv en
os c
xy matrix
create Element
Ġa cknowled
Ġlogarith mic
k wargs
Ġf if
}^{ *
Ġinter view
ð Ł
u er
Ġthick ness
Ġre covery
Ġan chor
Ġdegener ate
ta tively
An notation
Ġre served
Ġde v
ĠLe g
en tations
ĠD ir
Ġconnect ing
Ġ$\ |\
Ġsing ularities
)$ }
( --
Ġal ter
Ġvio lation
S kip
comp ile
( /
Ġacc um
at o
EX PORT
^* (\
D ay
ĠS earch
ĠC S
ym er
ob ile
Ġma pped
Ġrepe at
Ġasympto tically
U C
ĠA mazon
I AL
Ġpreser ve
C er
=" $
n ic
Ġsh aring
pi p
p od
Ġbra in
Comple te
ass ign
Ġcon vers
ph rase
Ġreveal ed
es sel
Ġc row
Ġconven tion
n ative
Ġmom enta
ĠC lo
] ))
k g
Ġre write
audi o
gin ation
W allet
ĠA S
ĠDe velopment
Ġconvolution al
Ch ain
Ġro ut
f all
Ġwar ning
f ar
Ġconcer ned
Strate gy
Ġrobust ness
rup ted
Lo ok
}) }{
LO C
'' .
sub ject
Ġs in
tr ary
ore l
Ġpar agraph
cep ti
Ġsh apes
Ġcut s
cos ity
f ront
C ONT
ap ed
Ġcheck s
ten cy
ĠFran cis
m essages
}} ^\
B ind
thes es
}) ^{\
198 3
ĠG a
Ġbo ot
ĠW al
order ed
ĠEn gine
am ing
ĠOr der
Ä ±
Us age
Ġnucle i
+ }
ar ma
ra in
t uple
Ġg amma
Fail ure
ĠB ill
\\ [
v dash
x html
Serial izer
y c
ĠB al
Ġequival ently
F s
En v
Ġfra gment
on a
pa ren
gr al
^ *}
ran es
Me mbers
Ġplan ar
à ¸
IO Exception
k ins
R M
W ORD
Ġcan cer
ul ted
G AN
Ġ_ .
Ġdiscre p
Ġhe ar
go v
13 5
DU LE
Ġleg is
å Ī
Ġphenomen a
R aw
11 5
EEEE FF
Ġre lies
Ġmod er
ĠR ight
ce q
] }$
apa city
datab ase
ĠCong ress
Group s
3 50
Ġs b
ari o
Ġsum m
Ġman aged
llig ence
ce eded
V I
Ġ? >
Ġno isy
Ġnon trivial
ĠL ast
Ġtimes tamp
fa ke
Ġte ams
Ġenvironment al
hom ogeneous
class Name
ĠK ore
ap os
Ġre ver
Ġf ake
Ġg ather
Requ ire
Su per
}\, ,
}{ !
Ġequ ipped
diag onal
table s
et o
id entif
ĠL in
-> ]
Ġcon crete
Ġapproxi mated
re ason
Ġsee k
STR ING
G a
ĠS ocial
Dec l
u f
ĠCent ral
Ġcon sumption
Ġneutr inos
b ian
ĠCo mple
can vas
li ament
Ġpro cessed
ĠAn alysis
Ġdetermin ation
Ġd ictionary
Ġsh adow
Th rough
AT OR
Ġdes cent
Ġout comes
ĠA I
Ġdiffic ulty
N ET
Ġcomp osite
ack now
ĠI ter
t bl
ich let
Ġt ension
er ed
> ;
b us
cor r
mention ed
ĠDe ep
Ġtri ed
| }{\
r ust
ĠRus sian
Ġexcell ent
ĠB ol
Not Found
Ï Ħ
k h
}) ^{-
Ġecon omy
B el
Ġp ump
Ġp le
Ġmechan ics
U ES
ĠA rab
Ġgu ess
scal ar
ten tion
Ġtun nel
ĠH ill
Ġobtain s
ual ity
ever al
RA Y
R PC
In dic
al go
F W
Ġcharacter ization
Ġadap tive
Ġw ants
F il
m r
ĠIs land
A bs
Ġg over
Ġwait ing
Sp lit
Ġvari es
2 40
reate st
Ġinsp ired
B Y
ĠN evertheless
Ġdes criptor
Ġprefer red
Ġprote ction
Ġcla imed
ĠF lor
Ġ ul
'] );
men tations
c op
Ġmultip lic
p to
Ġsh ot
Ġflux es
ĠB ased
Ġwh om
la g
ĠF OR
M ed
Ġ )\
be q
geq slant
Ġform ally
Ġmode led
uman n
Ġt d
Ġph on
ĠE ND
W orld
Ġ[ -
de precated
Ġco q
stri p
ff ers
gu ide
Ġgra ded
ad ic
ge o
J ohn
Ġattemp ts
ra s
war z
b ec
ura cy
Ġdis patch
ch a
ĠH ome
vel ocity
< <
cf g
Ġcol lege
Ġbox es
14 4
Ġadv anced
ĠTechn ology
r ules
ss l
Ġp ref
de m
FF ER
19 2
Ġprov ision
Ġas ymmetry
ĠS NR
il inear
Ġcapa ble
Ġm s
tific ial
Ġ Ø
K K
Ġspe aking
NR AS
INS ERT
AT ED
Ġconcer ning
S ol
ĠAd min
col sep
Ġcompe tition
Ġ' .
Ġepoch s
Ġpe ace
Ġadv ance
con tact
Ġar range
ĠA lice
assert True
ĠS pe
Ġa stro
data set
em it
ĠPol icy
ic ago
Ġsupp ressed
ĠS W
ĠH uman
ĠN E
Ġdevi ations
ss ue
Ġori ented
St op
dis k
ĠCE LL
par ame
ĠPro v
Y Y
ĠW AR
ĠW estern
ist ing
ram es
h old
Ġpo le
MP L
ĠB usiness
L ie
E mail
F older
N U
ĠOut put
iel ding
N I
NavBar Font
ä »
rit ory
s is
10 8
sip ation
at tach
l c
Ġover view
Ġwor se
Ġlog ical
Render er
ĠL com
corre lation
)} }\
Ġad mit
Z one
F ocus
Ġex erc
tif ul
Ġvalid ity
u an
Ġadap ted
}$ &
t ar
lim inary
L ight
Ġar r
Ġe ase
Ġcri tic
Ġdivis or
Ġo il
r ick
ĠCur rent
Ġcon sequences
ĠL HC
Ġcon secutive
r ceil
ĠPy thon
ĠN a
RE SU
r arily
D om
). $
ĠSer ies
Ġnew ly
append ix
ĠS pa
Ġvo ice
the o
ĠWe yl
Ġro les
Ġass umes
W atch
Ġconven ience
Ġphot ometric
\ ).
ĠSI ZE
Ġvir t
Ob server
d rag
z o
g el
Ġrelig ious
Ġf elt
ĠP op
}{ -
Ġs al
ch anges
ĠL ibrary
Ġepis ode
ĠM iddle
v let
Ġpar titions
ĠFig s
Ġd im
Ġ\ "
sample s
sc atter
ma ts
) )$,
ai lability
d ynamics
Ġgen us
sc ss
M essages
+ {\
Ġmeas uring
e igen
b one
ab olic
period ic
Ġvic tim
Ġhelp ed
Ġfun ding
Ġph one
G ui
sub mit
Ġser ves
c C
scale box
Dec laration
Ġmechan ical
G aussian
ĠH a
Ġhapp ened
as te
en o
Ġsec ure
aba tic
=\ "
Res olver
sc an
f etch
s warm
Ġeffec tiveness
Ġann ual
Ġhand ling
ĠSer vices
{ }{
),\ \
id entity
b log
ol i
198 2
ĠS pr
Ġ< -
. (
con trib
ict or
Ġd ri
Ġaccurate ly
-- \
> )
V ec
ĠL L
Group Name
Mapp er
Ã³ n
Ġsupp ly
ti tive
/ "
it tle
ĠBu ild
Rem ote
^* _{
udi es
H ar
and a
In formation
F urther
l ceil
Ġ} (
}= -
V O
N L
L ibrary
ĠDes cription
ere f
b est
Ġreg arded
Ġradi ative
Ġcomp ris
Ġe igens
Ġar ising
w ater
l int
_{ |
Ġsong s
ĠC he
cre ated
27 0
Row s
riter ia
verse ly
ĠC oulomb
Ġsupport ing
ĠCre ates
Ġch unk
ĠR ic
: @"
Ġs lot
B l
ran ts
Ġd up
Ġany one
Ġan ten
B i
ic ular
tra ction
H tml
Ġposs ess
ĠJ es
} '$
.\ ]
Ġbec oming
Ġboun ding
HE AD
Par tition
C ounter
Ġequ ally
ryp ted
d h
C NN
Ġsp ins
Ġquanti tative
C md
Ġiter ator
Ġdi versity
Ġanom aly
. """
l ife
Ġad joint
Ġpair wise
T Y
ĠSc ot
Valid ator
p n
Ġpropor tion
Re lated
d dot
bra ck
wild fly
alax y
T imer
ger y
ĠFace book
ĠC F
ĠRes ponse
ĠI r
glyph icon
Ġf amous
Ġrecon structed
ĠIl legal
Ġad ditive
ĠY our
lo v
. ;
* ,
gaz ine
Ġsimple st
ĠRich ard
T ouch
ĠS imple
ĠT ag
the mes
ĠA v
Ġproced ures
ĠAb stract
idel ity
Ġ' ',
cur rency
Ġidentif ying
tr ical
Ġs un
Û Į
or ation
ĠR ock
@ {\
op f
Ġsimp ler
ON G
at ar
Ġexplor ation
up load
Ġmay be
D er
Ġ ice
lic a
Ġpa id
mp s
Ġb la
el come
as sumption
lip se
, '
lect or
$ ^{\
}}{ (
ĠS imilar
Ġso le
Ġindepend ence
(" %
direct ory
Ġatmos phere
th ese
_{\ {
le e
ap t
Ġdr ift
Ġg al
Ġregard less
)$ $
Ġlife time
de generate
ĠD u
Ġad ds
Ġout flow
\ @
Ġmar ried
ore s
ula tor
Ġbright ness
Ġopin ion
ass andra
Ġk new
lo cale
ĠL ine
add le
Ġper mission
ĠAL IGN
Ġasser tion
Ġe le
Ġcoinc ide
Ġ ig
Ġlet ters
Ġc f
Ġpi eces
Ġd st
Ver ify
Ġan notation
ic ode
Ġinvari ants
A ST
is set
j e
] _{\
$ ^\
Ġprov ing
Error s
ri age
pla in
Ġimpro ves
OR TED
000 1
ĠĠĠĠĠĠĠĠĠĠĠĠĠĠĠĠĠĠĠĠĠĠĠĠĠĠĠĠĠĠĠĠ ĠĠĠĠĠĠĠĠĠĠĠĠĠĠĠ
se ll
Ġf light
Ġarchitect ures
Re lease
ĠRo yal
Ġrequ iring
Ġre ti
) _\
Ġimp osed
Ġel if
){ $
Ġinitial ization
Ġremain der
Ġfla vor
spac ing
Ġquan tization
Ġsummar ize
Ġ\\ \
Ġso cket
Ġ ----------------------------------------------------------------
Ġ| =
ĠRus sia
A UT
aris ons
ĉĉĉĉ Ċ
f our
Ġsm art
repe at
ĠM u
Ġre ject
S pr
Ġin coming
%%%% %%%%
ati o
in formation
Ġcharacter ize
B N
Bo ol
te m
oid s
h h
Me V
AR B
class ical
| }\
Ġg rows
ĠC C
RESU LT
high light
Ġover flow
Ġfrequ ently
fe atures
Equ ation
et ro
dis patch
Ġen g
ris on
Ġk inds
/ _
Ġpar ad
Ġpair ing
h olds
Ġhe ur
ish er
Ġre v
col l
ĠW IT
ĠE con
C ard
Î µ
Ġg un
ĠP romise
Ġcred it
\, $
Ġexclu ded
_ )
ĠC amp
ak a
D uring
Ġar rive
L at
ith metic
Ġper missions
tur bed
we ighted
Ġbar rier
ĠP FNGL
19 60
Ġreal ization
trans action
Ġver ification
}} ;
ĠS F
Ġtot ally
h pp
Ã ¨
Tran sport
ĠPe ople
Ġprodu cing
s ho
In d
ĠArm y
ma ting
Ġobser ving
R F
se en
v anced
b undle
Ġs aved
o la
Ġdaugh ter
Enc oding
( (\
th in
h ot
Ġexhib its
Ġnot ing
Ġaim s
ba tim
Ġcont our
ĠC olumn
Ġdr ug
Ġsum s
Ġbranch ing
r k
it ar
æ ľ
Ġmultip licity
Ġimprove ments
Ġsk ew
ĠMan agement
ĠC SS
Ġpa tient
ĠFor ce
~~ ~
Ġreason ing
has er
}) ,\
column s
% )
Over view
ad j
ĠRe al
ĠĠĠĠĠĠĠĠĠĠĠĠĠĠĠĠĠĠĠĠĠĠĠĠĠĠĠĠĠĠĠĠ ĠĠ
M NRAS
197 9
M ay
Ġse a
ĠC ri
Ġmotiv ated
as p
P ut
vari ate
ĉ ĠĠĠĠĠĠĠĠĠĠĠĠĠĠĠ
* {\
Label s
Ġperturb ative
p ref
Ġsign s
Î ¹
Ġv ideos
ke ep
ra q
Ġfactor ization
ffici ent
AR D
Ġsqu ared
ĠD eta
Ġcol lective
DE X
Ġdi verse
pend icular
ĠR O
umula tive
FI E
ĠC auchy
ĠG rant
co v
ĠA pache
/** */
IN ST
ch ro
ro ve
fil led
We ight
Ġn s
198 1
Ġcomp iler
Ġext inction
Ġdetermin ant
ï¼ Į
Ġs up
constra int
Ġinfer red
ge ometry
c mp
NO DE
ĠT eV
ĠD R
Con tains
de fer
ct ing
Ġco arse
Ġfore cast
ĠI d
Ġif f
Con clusions
g ic
SC RIPT
St andard
b lob
Ġmod al
Ġ tit
Ġsatell ite
Ġn m
Ġb id
Ġ" .
Ġmeas urable
Ġenter ed
d or
pres ent
Ġ$ _
en code
Ġke V
Ġorgan izations
Ġf s
lic es
F uture
ĠSpec ial
Ġinfra structure
Con tact
V ol
Ġexp ensive
Ġcheck ing
Ġn ested
ĠReg ion
ĠMe an
Ġro tational
MO DULE
A gg
HER E
Ġcon caten
Sign ature
Ġl iter
Sh ould
Process or
ate ver
^* ,
ĠB ank
ĠS P
ris is
A cknowledge
g ue
h ad
ĠL earning
ign ore
10 7
in ality
V ID
M aterial
}$ ~
G T
Ġt re
Ġarbit rarily
rup tion
ree ment
Ex ists
Ġincre ment
Ġbegin s
be an
au tiful
res olved
d ocker
ist ence
Ġ- =
Ġsto ck
Ġhe ard
Ġar row
Tran sition
ly mp
the ore
Ġpla in
Ġb lood
Ġfem ale
ĠWAR RAN
to Be
Ġc b
er ved
Ġins ight
Ġrestric tions
Ġ rm
)} ]
Ġvehic les
CON FIG
ore ign
}\, .
Ġsh ifted
P latform
\ ),
ĠAustral ian
ĠĠĠĠĠĠĠĠ ĠĊ
)$ )
f ollow
ĠG ame
ff f
Ġtor sion
cent ral
)- (
ĠFran k
METH OD
Ġindic ator
Ġin jective
Z ero
no va
ĠF ind
ut down
urb an
Ġbranch es
Ġprior i
Ġm ouse
local host
R GB
ĠQu ery
Ġstra in
D rag
r uby
l vert
Ġexperiment ally
ĠLou is
ĠAss umption
ĠOb ama
Ġb ind
R el
read er
le ton
enc oding
An aly
pre d
rele vant
Ð° Ð½
es ome
Ġal igned
tific ations
d ue
ĠVir gin
ĉĉĉĉ ĉĉĉĉĉĉ
10 6
Ġglu on
Ġacces sible
P ixel
Ġcal ib
in verse
FIE LD
Newton soft
Ġsta t
ci ent
ORD ER
Ġobvious ly
ĠCon st
Ġ ray
Ġa xi
ac cept
With out
Ġsum mer
Ġrenormal ization
Ġa ctor
s ent
diag ram
Ġvari ants
tain ment
ĠCar ol
Ġdis placement
ĠE V
10 3
Ġc ities
ĠH D
os ted
sat z
get Id
st ances
Ġm ur
ri ers
}, $
Ġext rem
Ġwork er
lik ely
Arg uments
Ġa dapt
ĠC irc
tun ing
Ġhe ating
fol io
ĠDE FAULT
illis ec
Ġstr ug
PRO JECT
B oth
r aries
Exp ected
Ġj s
Ġvis cosity
ĠConfig uration
reed y
Ġpro x
multi ple
Ġdemonstra tes
es tion
sing ular
un ched
Ġch apter
ri e
)$ ;
comm ons
lin der
D imension
" ].
Ġinvest ment
Ġc ultural
top ic
Ġf re
Ġs ensors
Ġdec oup
ĠAnd roid
Ġinc orrect
$ ~\
Ġquar ter
z i
Ġdis able
Ġad missible
Ġb old
10 9
ĠFlor ida
Ġg ender
Ġdec ide
Ġs ched
at re
ent ropy
Ġinitial ized
ĠA P
Ġillustra tes
ĠAmeric ans
f av
% "
ĠDe lete
ud ent
Cor ollary
D r
p ur
ĠH aw
Ġadd ressed
Ġdis trict
Wh ere
ĠIN TO
tran sport
Ġ\ )
Se gment
Ġar ri
ip ment
ĠP lease
Ġfew er
Ġengine ering
Ġin version
Ġconsider s
Ġapp endix
M ost
Ġbelie ved
Ġe V
b ranch
ĠAcade my
Ġda ily
H older
remo te
Dep th
Ġsh orter
Ġpar sed
spe ed
Ġp an
Ġpar ton
}: \
Ġaff ects
ign er
Ġsupercon duct
ever y
link s
lac ian
ĠC L
et c
ĠBy te
C enter
ĠG ood
w ik
Ġmass less
Ġb ridge
Ġa part
11 8
Nav igation
Ġamb igu
Sh ader
Id x
{ }\
e th
Ġ' "
ĠAn n
Ġout line
Ġvis ibility
ĠUS A
Ġdis cover
Ġaver aging
Ġpro jections
Ġz eros
ĠUni verse
LO W
ç Ķ
pro c
Ġlongit udinal
Ġe ye
war ded
olog ically
Ġpreser ves
D ynamic
17 5
ĠSer ver
Ġn ice
ĠB et
Own Property
}) +
Ġre in
ic ial
Op tim
Ġcur rents
ĠCon text
ĠRo ad
sign al
act ual
D em
T erm
Ġdif fe
do or
tain ers
Ġoffer ed
Ġarti st
Ġgover ning
W IN
or a
Ġno tes
ĠApp lication
Ġmut ual
Me trics
Ġtop ics
ĠM i
ĠTh rough
tis m
over rightarrow
100 00
Ø ±
Ġhom ology
au ss
mat ors
w ing
lec tric
ĠRe pres
Ġcomple teness
go ti
ĠL ee
ĠN AV
Ġadap tation
G ER
Ġd ip
flu x
Ġcont roll
ĠL os
Option al
De ep
ĠIntern et
Ġli ber
Ġthink ing
ĠComm on
Ġexpos ure
US Y
(' ./
ex cept
Se par
> [
ĠAd S
p us
Ġclass Name
ce an
)) ^
Ġto ler
R ules
le ading
ĠM artin
vious ly
\% ,
Ġin vertible
us tice
Comp iler
Ġs ends
Ġb ases
Ġvor tex
Str ucture
ro magnetic
Ġcalcula ting
ĠO N
Ġmes on
Ġw ild
Ġexci tations
ig er
ĠR andom
Ġpre pared
Ġ\ %
equ ilibrium
ĠCont ent
g z
g as
Ġpenal ty
Ġs ync
ĠĠĠĠĠĠĠĠĠĠĠĠĠĠĠĠĠĠĠĠĠĠĠĠĠĠĠĠĠĠĠĠ ĠĠĠĠ
Ġguarante ed
ĠW ell
Ġiden tities
b n
le ted
Ġb odies
U ST
Ġm ale
ĠC ore
itect ure
remark s
ĠCath olic
Ġa di
ĠR ay
Cont ents
Ġg iant
Inst all
g overn
PH P
ĠR ights
Ġr ings
ij k
ig an
At tach
ĠP ass
Ġa cknowledge
F ixed
Ġar rays
math rel
å ®
ĠB ell
P lease
Ġweak er
bas is
Man agement
ĠSupp ort
Ġw x
dec ay
Ġo be
Ġthere by
Ġreplace ment
ĠM ad
Ġpay load
Ġexpand ing
Ġc lone
ĠAn ge
r int
algebra s
Ġco variant
que e
Ġtermin al
Pro v
p lots
Ġrece iving
spec trum
T i
si lon
su cc
ĠB row
eff ective
^+ (
T uple
s z
su me
hook rightarrow
ov ing
Ġ ur
en sively
Ġpre ce
g ar
ĠS ect
00 3
ne tes
Ġaut omorphism
gener ator
coup ling
Ġclo sest
G al
D a
Ab out
T ok
The me
Ġarg ued
tic ular
name d
âĢĿ ,
ĠRe port
M N
gener ic
uber netes
Ġv on
Dis patch
rag ma
I Z
Ġa w
{ #
medi um
Ġin sur
ĠF R
o sitions
G Hz
Ġgeneral ize
ĉĉĉĉĉĉ Ċ
I l
Times tamp
Column s
sc opy
e eq
C a
ĠRes ult
ĠCan adian
Conn ect
re land
Pack et
ti a
ri al
Ġintegra ting
}\ |\
Ġall Classes
at om
}{ .
ĠF a
Ġph ilo
ĠW omen
ĠD A
ĠN AS
Ġs ight
)\ |_{
Ġintrodu ces
ĉ ĠĠĠĠĠĠĠĠ
Ġpr ison
Ġcon ference
| ,
}) }{\
ĠI C
ĠI den
Ġter ror
i ro
ĠRe view
Ġg lass
Ġdec oding
serv ations
Ġseman tics
E ven
ques tion
Vir tual
. ]
Ġf etch
Ġadmin istration
ĠComm and
Ġmonitor ing
ĠA M
add Class
Ġb are
UR CE
ĠallClasses Link
ĠT om
p en
w x
lat forms
M c
Ġkernel s
Ġh ex
e ties
o inted
Ġdis ks
Ġamp l
| $.
Ġpart ner
Ġphilo so
H I
U AL
th rift
ĠP res
up silon
d st
Ġc ategor
Ġform ing
Ġcon tamin
Ġdifferenti able
Ġro b
ni e
ĠO ffic
Ġthere in
s ystems
Ġprobab ilistic
Ġin comp
ĠL ay
Ġcent ers
Wh ite
Ġsimula te
cre ens
/ ">
Cal c
Ġb ond
ro ke
Ġtriang les
g rounds
Ġabund ances
ĠS il
Ġbos ons
Ġl ift
s ampling
Ġw itness
Ġf older
Ġrece ives
Ġquali tative
i pher
Scal ar
). \
ĠU til
L arge
si l
Con vert
tool tip
BU FFER
E G
In struction
D ig
! }
iffer ent
Po ints
Ġslow ly
Ġfilter ing
LI ST
Lin q
ĠI raq
Ġro tating
check mark
getElement ById
Ġthous ands
Ġd ict
Ġsupp osed
ĠCh icago
Ġintegra ble
ĠP S
ĠC la
Ġc ached
l its
am ber
ab y
="../../../../../../ ../
Pro b
UN T
ĠC MB
ol ves
Ġv ice
ĠH AL
Ġopport unities
ĠP ower
}} -\
Per iod
================================ ================================
Ġviol ence
d jango
gra ded
Ġlog ging
Sw itch
C la
Ġs old
Ġprincip les
Ġsubgroup s
Ġrepos itory
In sert
Ġar tifact
V ICE
ĠB rown
ck er
Ġinter ests
Ġ ens
Ġm ig
Vis ual
Ġtun ing
ĠN et
irc raft
Ġturbul ence
oun tain
Ð¾Ð ²
D ue
Ġ" '
Ġref lected
repres entation
O pt
____ ____
Ġmorph isms
RE D
Ġco ol
) ",
ĠL java
Res et
}\ |_{
ĠC up
Ġar rows
or tation
no vation
ul ner
Ġp m
11 4
Cap ture
L ib
PRO P
Ġc oding
Ġdeal ing
ĠZ end
Ġresi du
'' $
Ġwrite s
t ors
Ġhar mon
z ation
Ġe cc
}$ };
od o
Ġoutper forms
n atural
om er
Ġdimension less
ĠO S
Ġformu lated
' }{
Depend ency
ater n
se g
Deta il
., ][]{
r ons
b os
ĠChar les
lic ense
B a
Model s
Ġk pc
du c
Ġre covered
Ġab use
Ġpromis ing
ĠWhe ther
Rem ark
man y
ify ing
11 7
} --\
other wise
Per mission
m orph
ĠRe fs
Ġwin ning
ĠD im
do es
Ġmod ulation
Ġarti sts
yn chron
ĠÐ ²
Ġimp lications
ĠP A
* }\
Ġun able
T ex
ĠVAL UES
Ġco herence
Ġi ons
ĠE U
LA S
Ġdele ted
19 77
Ġevalu ating
L iteral
H L
Ġanomal ous
Ġphot os
ĠJose ph
Ġcontinuous ly
Ġopp osed
Ġimpro ving
phys ics
si tes
R et
Ġ' ./
ĠP ut
Phys Rev
å Ĳ
Ġlept on
con cat
ermi tian
f ollowing
P lace
. }}
m v
ma jor
Ġbu y
Ġoscil lation
ip edia
f mf
Ġsurve ys
Array List
is er
C ast
ĠCl oud
Ġabsolute ly
Ġt ro
Ġsequ ential
Ġfla v
Ġs ales
Mon th
er g
M ix
ab stract
Ġme ant
Ġminim izing
Ġsus cepti
Re act
dot ted
ĠRe ference
Ġconcer n
Ġb log
per sist
w orth
**************************************************************** ********
Ġstri p
Ġcapa bilities
ĠCh ange
Ph ase
ĠF rame
Ġv m
Ġrecogn ized
ĠClear ly
re cur
Ġrespon d
Ġmodel ling
S ort
P ower
ura te
Ġimp ose
al ed
nav igation
Ġear th
Ġthermod ynamic
h ab
19 78
Ġ= &
Un iform
ĠR am
re view
Ġback ward
ph en
S can
ration al
ma cro
Ġcon trary
Ġpass es
Ġcon servative
Ġcore s
Ġcorre cted
Ġch e
L ite
ĠNAV BAR
' })
ĠD C
12 4
AR G
}: =\
down load
ĠS R
Ġmin i
Ġmod ifications
Ġme dic
G EN
ict ures
amilton ian
ĠL ord
pro gram
, $$
Ġle ak
Ġext ending
Ġmethod ology
h istory
Ġen velope
Ġplace holder
$ ]
Ġsub sequently
g ressive
Con sumer
Ġper pendicular
t m
conver gence
al ert
incip al
ĠTw itter
ĠS ing
ĠRe p
ĠUn it
al la
xt ures
Ġhierarch ical
Ġtrans forms
Auth entication
p ad
Lo gin
or ial
Ġenhance ment
Ġcompreh ensive
. ][]{
Ġauthor ity
P N
con vert
; "
or ough
int en
In ner
l ighted
onym ous
F inal
}= -\
refer red
ĠCon f
atter y
Ġcomp liance
Ġoptim ize
ga uge
TR AN
)\ )
c x
Ġev ident
enari o
Ġen ded
ph ot
Ġh ide
ĠSt ream
M aster
L IN
= %
De lay
11 6
^+ _
ali as
ĠP l
ĠM el
Pol y
S napshot
Ġreve als
ĠA li
cre d
Ġarm s
ma c
da ys
Ġmagnit udes
b if
Ġdis sipation
Mis sing
ĠD own
un ing
E sti
En able
r n
AC H
H is
F ALSE
Ġspecific ation
ĠRieman nian
æ ĸ
ourn als
E ar
Ġb ath
Î ½
Ġd anger
Ð ¿
cd n
STAT US
Ġuniqu eness
ĠJapan ese
Ġ Ñģ
der r
match es
S elf
in ject
ne ar
Ġremain ed
pag ation
Ġmer ger
¿ ½
bal ance
re ds
j ax
section s
Ġassoci ate
Ġpr ices
Ã £
ome ter
O m
ĠJew ish
( ['
Ġde vo
imp lies
B its
er ce
Ġread ily
Ġredsh ifts
ĠT ree
new s
ĠR GB
ong o
D rop
] ->
CO MM
ru it
E very
}$ \\
ĠCent re
Ġg ates
Ġsent ences
text ure
te ction
LE MENT
Ġinstruction s
> ()
.\ ,\
Ġs ell
Ġb urn
! (
Ġp ending
Ġbu g
Ġb undles
Ġis land
ĠS A
Ġinter fer
Pre v
pix el
spec tral
Ġno tations
|\ ,
i ences
extension s
lement ary
ĠEn ter
refer ences
C oun
Enumer able
u u
op ing
Con sole
P OS
qu et
scal ing
ĠC ross
ous tic
Ġg oto
produ ction
Ġco s
de cl
ĠPar se
Ġcitiz ens
ĠO P
Ġres cal
times tamp
ul se
m icro
tra tion
display Name
get Instance
ok es
s ass
Con tract
, +
Dis cussion
Ġd ots
t v
Ġcollabor ation
trans late
lim in
AN G
ĠĠĠĠĠĠĠĠ ĠĠĊ
ĠP aris
12 2
Ġmod ulo
per t
ĠM eta
Ġestima ting
ch es
ra tes
pp ings
war n
rid ay
Ġnucle us
ĠÂ £
Ġda mage
gr ic
Ġch ose
ĠMethod s
A ct
ĠS FR
L em
tim er
}}{ {\
triang leq
Ġr id
" ];
path s
ile vel
CO M
Ġreg imes
r vert
ur er
Ġp c
e el
if iers
ĠBan ach
Ġfac ilities
Ġpromin ent
di a
Ġra il
Ġsub jects
17 0
the y
a verage
Ġst uff
c table
Ġreturn ing
ĠC G
BOO L
Ġdown load
S eq
Ġexpla ins
M SE
O L
Ġbelong ing
9 00
Ġcontra dic
,\,\ ,\,\
mo bile
ĠMus lim
W I
k top
min imum
log o
T yp
App endix
Ġ' _
ĠHand le
Ġcon sumer
Ġre actions
Ġmon omial
me mbers
ans wer
Ġa ward
AR RAY
T AG
ĠC e
ĠJ S
50 9
n ecess
de cre
ĠProf essor
ĠK E
us r
: '
ĠWith out
ĠBu ilder
m q
ĠP an
Ġb is
Fe atures
Ġs tyles
s ources
ĠF ar
Ġpreser ved
1 19
ĠDir ichlet
un known
Ġ} .
no align
Ġre jected
gra dle
or ange
ss on
Ġl ived
Ġpolar ized
Ġun like
Ġconsider ations
head ing
ĠTh read
ula ting
ĠKing dom
Me tric
ĠD ouble
Ġfair ly
log ging
Me an
Ġs orted
Ġiter ative
ãĢ Ĥ
Ġsem igroup
Diag nostics
A ctions
b v
Ġdwar f
E mit
Ġreson ances
{ },
Ġincreasing ly
V V
ĠEn vironment
Ġover come
Ġstand ards
197 6
Ġar ithmetic
ï ¿½
Ġfilter ed
ĠB orel
Ġdiff ers
Ġneur ons
l ig
road cast
r p
ĠA ff
LE TE
lu x
Ġacade mic
ĠBe fore
Ġsyn tax
Ġl iteral
Ġleaders hip
Comp at
Ġreach ing
dire cted
Output Stream
ĠCor por
Ġwall s
v y
Ġim g
Ġg ray
Ġevery where
F D
ĠJ e
Extension s
å ħ
De v
Ġpur su
{- }
ah ler
ĠThe ore
Ġacqu ired
Ġconsist ently
\% )
(' <
L ow
Ġsh or
Ġdem oc
ol o
Ġfun ds
Ġemploy ees
Constra ints
ni pp
Ġhand s
Ġspatial ly
ad joint
n ight
ĠP lay
Ġdes tr
12 1
Ġgreat ly
tool bar
Ġsk etch
Ġwar m
vari ables
Ġo mitted
Ġsk ills
T y
Ġbreak s
cent ury
lic enses
av g
ac ity
Ġbu cket
.* ;
Ð ´
19 75
ta rea
Ġ& -
c ert
Ġdiv ide
W in
Ġ' -
Ġtw ist
Ġcan vas
Ġsupp lied
Ġin set
an ded
ĠP R
197 4
b is
g ency
pe ak
Ġassert True
Ġmon o
ke leton
ĠĠĠĠĠĠĠĠĠĠĠĠĠĠĠĠĠĠĠĠĠĠĠĠĠĠĠĠĠĠĠĠ ĠĠĠĠĠ
Ġretrie ve
' ].
Ġulti mately
ĠR L
Serial ization
ĠI reland
Ġcor ollary
f older
Task s
A u
Ġpe er
Supp orted
ĠR ou
ĠCl ub
Ġthrow n
Ġconstruct ing
Ġan c
Ġsta ts
is ition
o is
S en
Ġdis plays
zh ang
Ign ore
z im
bel l
. \,
ura ted
ĠCh annel
Ġdef e
Ġpo les
Ġreview s
con tra
ir s
ver ify
$\ %
prec ision
ĠPlan ck
ĠF ilter
(" #
app ed
ĠS L
Ġin direct
oc ia
ĠP U
li bs
ĠHen ry
Ġswitch ing
it ors
Ġran ging
ira ble
Ġf loor
Ġknow s
com b
Comp ar
temp orary
IM IT
Fe ed
ti e
C irc
Re pe
cho ice
st all
n r
Ġpo si
Ġinser ted
par ticles
) ]{
^* $.
Ġteach er
Ġemp ha
Ġin jection
Ġannihi lation
}^ -
Ġpl ant
Ġdro pped
Ġcra sh
u uid
jec tives
xy gen
Ġoscil lator
}\ {
j u
Ġvalu able
BA SE
n am
Me asure
Ġsee ing
) }^{
T ensor
pa ted
12 6
ĠW ill
re po
ĠSun day
Ġaudi ence
ĠAnge les
Ġsol ver
SP ACE
Ġpoint ing
multi put
d w
ĠA ccess
Li ke
AC CE
Ġd oll
ä ½
Ġinter po
Ġsci enti
c lock
ĠM A
ĠAdd ress
h is
Run ner
ĠComp onent
Ã£ o
Ġ{ (
Ġax es
Ġc od
Or igin
ĠM D
Ġanisot ropy
Ġtw isted
Ġm igration
Ġpar abolic
ĠM iss
ĠRieman n
T ile
ak i
ĠJohn son
ver batim
view port
Ġro tate
Ġde legate
ĠP hi
Ġpreser ving
Ï ĥ
Ġclass ic
Can vas
Ġperform ances
Ġpre pare
EN ABLE
RE CT
p ed
Ġw rapper
Ġinfinite ly
FLA G
Ġer a
sw ap
Ġbal anced
ĠF act
Ġauto matic
ĠOr gan
Ġing re
te le
Ġg reatest
o ph
Ġofficial s
Al pha
im als
ĠB re
ĠB lo
ĠN P
et ary
ĠĠĠĠĠĠĠĠĠĠĠĠĠĠĠĠĠĠĠĠĠĠĠĠĠĠĠĠĠĠĠĠ ĠĠĠĠĠĠ
an notations
Ġo mit
Ġmeaning ful
Ġour selves
alle y
se mi
Ġpublic ation
en ger
Ġinfra red
itz er
Ġig et
Ġecon om
inter action
Ġin herit
Ġfra ctions
ĠE li
Ġf ear
11 3
ĠEx perim
ra tor
out ing
Ġoper ate
F oo
EN V
ĠF uture
Ġcustom ers
get Type
es is
Am ount
oth ing
ĠM atch
)}\ \
Ġinstitu tions
to c
197 3
ĠK o
Copy right
Ġremark able
Ġdec ade
ĠF und
Ġ( {
ĠJ ones
up les
Ġal ias
3 20
G LA
ĠA tt
Ġcon served
Ġho spital
Ġreg istration
IL ITY
Ġdamp ing
sp i
dec lare
Ġfe e
Ġtechn ologies
A cknowled
Ġl ens
Ġm ic
Ġpsy ch
j ack
qu bit
ed ges
B G
ĠB C
/* !
Ġconstra in
nu cle
Ġint en
um s
ine q
UE ST
Ġsh ares
Ġover head
Ġt ensors
K it
Ġsa ke
Ġb attle
second ary
ĠC V
on ts
/ $
ogene ity
Ġphot ometry
s lash
c A
Ġth resh
]{ @{}
li ve
Draw ing
ĠT own
le in
Ġfamil iar
Ġbehavi ors
( ()
F it
Ġglob ally
Ġsuper vised
str ict
Ġspectro scopic
Ġde faults
fit ting
qu an
Ġv ast
ĠAr ts
z ier
Ġapp reci
en vironment
yn man
Ġ$ ^
Ġgra te
D av
L ag
Ġ.. .,
}} |
= >
Ġs n
Ġnon negative
W ang
ĠH u
tabular newline
ĠPro blem
Ġbuil dings
Ġcombin atorial
up dated
ĠD ig
p as
pro t
Ġdep loyment
n as
set ting
}^{ -\
ĠJ son
ut ch
ĉĉ Ġ
ste ps
Ġh us
Ġpossi bilities
Ġturbul ent
' _{\
on ed
Ġcon sum
id en
Av ailable
Ġtim ing
Ġs ymp
the ast
Ġt ack
ĠM P
5 000
Ġs napshot
rela tivistic
ĠA V
Ġa de
Ġe lected
RE T
? âĢĿ
get String
P ipeline
ĠE T
ced ure
Ġtal king
2 10
d g
ĠLo ad
ĠW IDTH
ti st
Ġissu ed
Ġs ter
trans fer
l ind
ri table
rat ch
' ^
approxi mation
w iki
Ġcustom er
Ġrecomm ended
Ġtri m
S imilar
Ġnav bar
Conver ter
st retch
Ġspec ifies
z il
Ġuni versity
on to
Ġvilla ge
o tic
illi ons
me trics
U pper
f w
re pository
Ġmagne tization
Ġ" >
Ġadv oc
ĠS H
Ġap ilevel
Ġmo tions
l is
Ġpropag ator
Ġphys ically
Ġar tificial
Ġcondu ctivity
i y
Ġa fore
IL D
Ġreal ize
Ġe mitted
ĠU RI
Lo cale
ĠA C
)^{ -\
ber n
or ous
list ing
Ġob sta
si bly
H u
b ling
Ġempha size
Ġtheore ms
exist ence
D on
&& &&
Ġbelie f
be am
Dire ction
r x
per formance
cp u
u its
Ġf ounded
ĠM AX
Ġreson ant
Ġwe alth
B ad
Dis k
F rames
am ount
{ -\
Ġfall s
{- .
L ICENSE
ĠCon vert
ĠDiv ision
ĠR ow
ke V
Ġ uri
Ġla unched
Ġman age
Ġp ng
S B
Ġbe autiful
Sec ret
Re ason
RE SS
ynam ical
S ite
ĠT im
Ġa apt
ĠMod ule
N d
ĠJ ul
Ġman ually
Ġsex ual
Ġag rees
Ġa head
ĠI mple
Ġse es
Ġres istance
cont inue
Ġdiscrep ancy
ote l
Ġexplo it
fra mes
c as
P al
De precated
ff ix
Ġutili ze
j j
Ġor ig
ĠC T
Ġsearch es
Ġla tency
40 4
Ġper man
ev olution
imple mentation
Be en
C ALL
di e
UR N
TI ES
cript ors
col lect
Ser vlet
od a
\% .
Ġn ar
Ġ{ %
Ġad verti
Ġ`` `
time line
Ġtren ds
ĠParameter s
Ġansw ers
=\ ,
; |
Ġlook ed
ĠMex ico
Ġindu ce
Ġwindow s
Ġhand led
Ġsepar able
Ġbary on
15 5
ib ling
A SE
ĠSp anish
ĠW ood
}}( {\
u ous
ĠP ers
ĠC er
}} }(
s ity
}=\ {
00 4
ĠT en
Ġred und
lic ial
ĠRun time
Look up
)} +
} ],
Ġprotocol s
Ġfi la
Ġdec lared
ĠI ll
Ġpredic tive
Ġanaly tically
2 30
ĠJ ordan
\\ \\
$ _\
_+ $
seud o
u da
la ton
Ġconsider able
Ġsubstantial ly
Ġintegra te
Ġinterpre t
ĠB lue
Hash Map
Ġs ectors
asc ade
Ġn u
Ġtra ces
g ot
ĠIn valid
Ġpredic ts
Ġb igger
Ġpay ment
pop up
ps frag
Ġwe ap
Ġres ulted
Ġcopy right
L icense
: #
Ġlat tices
Ġremo val
. }.
omm od
Ï ģ
sq cup
Ġsta tions
ear t
Ġs leep
ici ans
unic ip
V D
ĠWARRAN TIES
dis crete
Ġpack ages
; ,
ĠA ust
Ser ies
di ted
St ub
Ġran king
ask et
inte gral
Ġexper iences
K M
P b
andid ate
P ush
Ġ' ,
0000 0000
Ġcomp arisons
Ġcri me
Key word
bu cket
Ġoffic er
Ġw idget
Ġconn ectivity
Ġas sets
ĠP HP
ĠV an
Ch anges
sh ots
gle w
ĠSyn tax
ra ting
Ġrecor ding
ĠL anguage
tz mann
Ġauto ma
Ġtrunc ated
Set up
og n
Ġpro totype
Ġex clude
ref resh
Ġsen ior
Ġpoli tics
IF AR
var sigma
ab ric
re gex
ac ific
Sa fe
Ġreflect s
ĠS us
ĠS end
ab ilities
lin ec
c amel
Ġcapa bility
Comm it
ĠSh ort
tr ically
od ic
Ġion ization
h ift
Ġadvan tages
op acity
^* $,
Ġinter faces
ĠS ED
P DF
A zure
cyc lic
P haser
Ù Ĩ
er a
Ġ( %
MB ER
lin ation
ĠMe mber
al a
Ġsucc es
Ġsuggest ing
Ġmod ulus
| <
Ġs ink
Pri ority
em on
Ġdec lare
Ġphot ograph
ĠVirgin ia
fer m
E u
Tr igger
ĠV o
Ġsh ip
ord ance
Ġti le
i tation
Ġcont ours
0 10
v ies
M achine
D istance
ost on
Ġp ed
Ġleg end
Ġselect ing
Ġminim ization
coun try
ur ies
Exec utor
Ġp itch
tw itter
Ge ometry
Ġdef ect
Example s
oun der
list ener
in n
task s
Ġfocus es
con ds
App ro
Ġra d
ĠComm unity
al and
Ġhel per
CC ESS
Bu f
Ġcol on
Ġperfect ly
Ph one
al ian
mu st
ĠZ h
Trans fer
Ġman us
Ġrecur sive
Ġsupp ress
ĠGL int
Ġread ers
Ġcompan ion
Ġdraw ing
Ġassess ment
B est
ok ies
filter s
D G
Ġal ert
ĠL ib
Ġin er
Exp ort
j an
u ition
var s
Ġsur jective
ĠWh ere
Ġstore s
K ernel
r h
Ġt we
]{ $
constra ined
G reen
Pro du
Ġcer tificate
Ġsp iral
ĠIm mutable
re si
ĠG C
ĠSt udies
} ",
Ġpoli tic
Ġf ans
as is
EV ENT
Ġ" ${
tif ier
Pre vious
Ġadmin ist
small matrix
Ġend ing
ĠB Y
ĠSer ial
s tation
ĠP si
Ġ' #
Ġre min
// !
Ġs ender
ur day
ĉĉ čĊ
go og
leg end
Ġ' ''
ĠSD SS
Ġpre liminary
Ġch ief
Ġprac tices
), $
ĠDes pite
P B
Ġv ulner
Ġexper t
ĠS ym
Ġdef ense
` )
Ġtran sient
Ġthread s
R UN
im od
pgf set
ĠE M
Ġstructure d
ut s
19 50
Ġcareful ly
)\, ,
Ġw rap
ti ced
od ge
append Child
ĠH as
Ġgraph ene
state ment
T or
Ġpro mpt
ĠS Y
_ [
arge ted
ĠFig ures
aw are
Ġsyn thesis
li ps
ĠF ro
Ġcould n
}} [
Ġsum mation
Ġnegle cted
}} %
un cation
Ġsto pping
Ġoccup ied
As sembly
Ġtri angular
Ġshe et
Ġspa cing
Ġfocus ing
Ġrela te
Ġmotiv ation
Mod ified
ĠBu ffer
Ġas set
ĠO ld
Ġhum ans
Ġevolution ary
14 5
gr u
Ġafore mentioned
Ġdis appear
Ġtr uly
Ġteach ing
Ġjud ge
Ġ} _{
Ġcons ensus
D id
ĠÐ ½
ĠB asic
v x
ä º
2 25
qu asi
Ġbig gest
Pre dic
MM ARY
ta ur
se gment
Ġde part
Ġcomputation ally
String Builder
lim ited
^ -\
O wner
ĠA re
C reated
S core
rou ter
Ġfac ility
Ġreg ret
Ġ& =\
r ical
ĠH E
esting ly
ĠLe ft
Ġc risis
Ġvo la
D Y
LO AD
B lob
j d
LA Y
d ense
ll ll
ĠK ar
Ġser ving
vis or
. ',
S em
Ġcon sequently
elastic search
Ġkine matic
ĠAm ong
ĠV e
Ġre new
temp t
int on
ob tained
12 9
Run ning
] ,\
Ġcontra ction
Ġc as
Ġwe ather
Ġdevo ted
SO URCE
lim sup
Eff ect
it an
Ġclin ical
F l
ĠH O
ĠT ABLE
to gether
"> (
| +
Ġfor th
Ġmanif est
Ġmur der
Q CD
ĠS ize
19 0
And roid
ĠJes us
}) \\
Ġre written
13 6
v b
ĠCal c
R i
Ġbr ings
ind ices
di amond
197 2
in finite
to s
Ġat tributed
n an
ĠJ im
ĠĠĠĠĠĠĠĠĠĠĠĠĠĠĠĠ ĠĠĠĠĊ
)} +\
C UR
AP P
co h
ad oc
ĠDes ign
Ġti dal
Ġindu strial
Ġoccur rence
Ġcomm ission
y u
ij ection
es sed
ĠLab or
Ġden omin
ĠâĢ ¦
F G
13 4
Re lative
Ġremo ves
g if
es cape
Read y
Ġsub mit
har monic
fa iled
Ðµ ÑĤ
ig gers
arc sec
big cap
de code
R G
Ġde partment
Ġbra cket
se x
Ġtransfer red
Ġhol ding
ĠC ivil
ĠF ederal
con struction
Ðµ ÑĢ
ĠLog ger
ĠM ur
and o
scri ber
Ġcommit ted
F amily
po sitions
t ow
Ġfluct uation
Ġcl ar
Ġmembers hip
ĠM ont
ĠVir tual
ĠS up
[ [
Ġor thon
}{ (\
Ġr is
act ing
Ġpatch es
Ġp reference
Ġful fill
L u
ĠL I
qu ar
Ġa id
Ġwavelength s
Ġd om
w art
con e
L F
Ġp al
In sp
A tt
Ġc umulative
c ers
Ġsuper ior
Ġcounter part
c ategories
Ġlimi tation
)$ :
et t
au i
er gy
scal a
){ $\
sh are
ĠC at
Ġar rival
d up
Ġf resh
Pos ted
ĠDe bug
Ġcompe titive
transp arent
Ġhund red
Ġrecon struct
el le
Ġwh atever
ĠG rand
Ġsp ont
ĠCh ampion
Ġcard inality
(" \
Ġend points
Ġl if
Ġan notations
Acknowledge ments
Sh arp
ĠJ ustice
^* )
Ġalloc ated
run ning
i math
Ġexpec tations
Ġbin aries
}} /
Ġra ys
is a
la beled
ĠGu ide
Ġk ing
ĠNe umann
Ġfra g
Combin ing
Ġfore st
CRE ATE
g un
B ro
ra cy
A K
rit ing
ob served
ĠW ed
Ġparame tric
p ragma
> %
Ġcry pto
ĠCar tesian
inten ance
Ġcol le
Ex ecute
Ġ ðŁ
Ġhus band
Cal endar
Ġdistingu ished
ric tion
Ġle s
des cribe
ĠF ort
tit u
con current
C SS
w i
ĠLi ke
ud it
par k
Ġbi partite
Ġper mit
Ġas ymmetric
Agg reg
N orm
Ġatmos pheric
ĠSecret ary
de mo
Ġremark s
se cre
bur st
c assandra
inc ar
33 3
Ġnorm ally
OR K
ĠSe lect
Ġb ill
be th
ĠĠĠĠĠĠĠĠĠĠĠĠĠĠĠĠĠĠĠĠĠĠĠĠĠĠĠĠĠĠĠĠ ĠĠĠĠĠĠĠĠ
bu ilt
Ġquan tify
Ġesti mators
' ')
al most
ĠSch r
Lower Case
s lide
D u
m x
Ġhadron ic
onom ous
Ġsub spaces
ĠT ab
| ^{\
)) }
al p
sol r
Ġcomplement ary
Ġun changed
ĠL P
AR GET
- }
Ġb lob
] =\
IN VALID
Ġcomp atibility
ĠF riday
mod es
sd k
== =
55 5
) }}{
Ġfermion ic
sw ing
van ishing
t ang
ĠG Hz
un ov
Ġsp orts
Ġt sd
Lo ading
B LE
Ġa ircraft
Ġtr ick
Ġmultiplic ative
n orth
A U
sub string
ord on
b ol
ĠLap lacian
ad ded
d B
de legate
table block
g lu
16 8
ĠD CHECK
FOR M
Ġexperience d
Ġocc asion
NN s
BL IC
la test
la ys
ther mal
Ġp latforms
Ġneighbor ing
Ġflexi ble
Ġauth entication
ĠL ight
A W
Ġf ellow
look up
uk awa
i able
un te
Ġanalog ue
per ture
br and
S cheme
ic ing
ĠH ubble
ec lipse
arch ive
get Message
Ġmor ning
w an
en cing
Ġd raft
ce ived
Ġle x
G H
graph s
Sec onds
ĠG en
pr ise
ad i
Ġint ui
sh ips
W W
ĠA sia
ĠW ater
Ġmaxim ize
Ġcomplex es
Dec imal
h ex
prob ability
D one
t ol
te t
Ġfor get
mod ified
alk er
ĠĠĠĠĠĠĠĠĠĠĠĠĠĠĠĠĠĠĠĠĠĠĠĠĠĠĠĠĠĠĠĠ ĠĠĠĠĠĠĠĠĠĠĠĠĠĠĠĠĠĠĠ
ĠIt aly
vis it
l Vert
;| &
ut y
Ġpredic ate
13 2
ĠPal est
par ty
structure s
ĠDi ag
ĠM IT
with in
Ġcompu tes
sp arse
Ġsc enes
in son
ĠA ut
con c
ĠT re
Ġ[ (
ĠMat rix
d yn
Ġ$( {\
Ġheav ily
Ġf lex
-------- --
Can not
Ġmonot onic
Ġsat uration
Ġnav ig
ap y
Ġon going
Ġexerc ise
in x
Ġan satz
pip eline
[] {\
Ġlo se
Ġregion al
ing ly
ĠG ib
ĠTh ree
ao tic
Ġser vers
Ġimple mentations
ĠC orre
pack ages
D ist
ĠIn ternal
H a
ĠSci ences
rom an
v r
k w
Ġvis ited
Ġm otor
)\, .
nap shots
Ġbos onic
ul ties
ĠD ocument
a ult
ĠL ake
mo tion
Ad S
G W
Ð ·
o ss
th umb
ĠW ord
K n
ĠO C
Ġ urban
4 50
ĠO lymp
FA IL
G ate
P RI
** *
on o
ĠS ky
ĠVAL IGN
po i
Ġgran ted
ĠD ep
< >();
link ed
ĠA ctive
Ġincorpor ate
Q A
ab ling
Ġacc ommod
ĠH ard
parent Node
Path s
Set s
Ġg one
Ġ# {
Ġnucle on
Ġhund reds
C orre
x sd
Ġde eper
Ġsuc ceed
Ġpublic ly
Ġresid ents
Ġco ast
Ch art
Ġmer ely
Ġv ec
Ġprote in
Ġmark s
Ġsa tis
Ġfix ing
Ġm ental
)= -
Ġexam ined
fra gment
Ġvari eties
ĠBri tain
ĠInitial ize
der son
inclu des
ĠH am
Ġte tra
ĠY ang
Data set
L ines
v endor
( |\
æ ķ
let ter
Ġexecu tive
Ġprepar ation
Ġoper ated
ĠDen ote
d anger
dd en
CD M
Ġun likely
Ġcl s
Ġvol umes
O FF
n at
Sur face
\ `
D TD
16 5
date time
Ġmus ical
tr u
ew ise
Ġexper ts
Ġindex ed
ro bust
ME SS
la h
}_{ +
Ġc us
ra ct
,\ ;
Ġmat ters
ron ic
A MP
S mall
Ġmark ets
ab ul
ĠJ eff
Graph ics
Pe ople
omes tic
ter ior
Ġw ider
F etch
os a
Ġprece ding
Ġk ids
ĠM is
ĠF lo
k ar
f uture
block s
bi as
ĠSt an
Ġmi tig
Ġc ube
Format ter
Ġs ensing
G F
or se
m g
} ''
ĠZe aland
Ġm iles
ma king
r Vert
limin aries
pack et
rou ble
it ons
equival ent
24 5
Ġsh rink
me chan
Ġplan es
pa ces
no tify
)\ |
Ġgo ogle
ĠF ALSE
Ġvari ed
ĠV ictor
ish op
lations hip
th reshold
ĠR F
ARN ING
ĠArg ument
Ġpromo te
til ity
Ġade qu
Spec ial
us age
He ad
14 7
_* $
au g
Ġen ga
}} ]
B lack
has OwnProperty
con clusion
Ġcollection s
O ld
Ġconsider ably
ĠC HE
File Name
ĠC are
Ġbase lines
ĠAd am
sh own
ĠSh ould
ĠApp ro
Ġsuperconduct ing
as ympto
>< !--
Ġdesign s
can onical
Ġmolec ule
IC ATION
Ġsign atures
Ġattra ctive
}$. }
Ġmar riage
Ġlook up
Match er
ĠM en
ĠP C
un lock
ole t
Ġorthon ormal
Ġpr on
è ¯
ĠKE Y
b rane
Ġconfigure d
Ġneighbour hood
Ġsub sequence
o e
Ġsupp ression
g row
Ġref inement
HO ME
Ġown ed
Ġins ights
ĠDire ct
V C
)} -
Ġgu itar
ch unk
B reak
Ġtimes cale
pm od
Ġpul ses
Ġmark er
at z
ĠC os
O k
)}{ (
ĠC ast
ĠMed ical
è ¿
me as
linec ite
Ġm and
Ġmach ines
ĠC luster
z oom
ĠFil m
Ġtemp lates
Ġsus tain
fil er
Ġaggreg ate
æ ĺ
Ġapp ointed
ĠS ymbol
in der
pres er
end ant
zim uth
process or
ĠMed ic
In tern
star ts
corre ct
min imal
Ġdestroy ed
l f
Ġfunction ality
Ġwidth s
ĠH on
}: =
get Class
ĠTe am
le xi
Mon itor
Ġaggreg ation
th le
Ġne goti
ĠGener ated
Ġreport ing
ĠG rid
Ġsole ly
enc oder
Ġun expected
the ad
ĠBrow nian
arg ed
sp it
ĠSur vey
ĠRad io
99 9
ĠSU MMARY
pa gination
Ġmetal lic
Ġinv oked
Ġgap s
T eV
ran ce
Ġcontext s
vi ation
Ġex posed
fil ld
GL enum
Rece ived
Ġs addle
igh th
ici ous
est ure
f an
re main
Ġland scape
SS M
Ġfar m
ĠB esides
Ġcapt ures
ĠPol i
Ġb ott
ĠEx ecu
ĠE val
Ġconclu des
av y
Ġb if
ĠC M
Ġuser name
Ġretrie val
expan sion
ĠG P
Ġfa ult
ĠU sed
R ob
ĠC y
filld raw
ox y
s outh
H AL
Ġcircum stances
tili ties
un ks
al tern
Ġdegener acy
Ġanisot ropic
w al
Track er
Ġk ill
get Attribute
illisec onds
Comp are
Ġdeb ate
ref lect
Ġir on
19 68
ir y
est or
P lot
graph ic
A ff
ĠPro p
gener ation
no thing
sp ot
is enberg
ĠGe org
Ġutili zed
HO UT
ire ct
Ġanalog y
over flow
s mash
pub lish
19 69
Ġa u
atern ion
ent ries
Ġj unction
i pe
set counter
Ġc c
Ġstreng ths
allow ed
q a
}) +\
": "
w allet
sh a
Fact or
Ġcy linder
ĠPhys ics
Clear ly
R atio
ur t
) '
Ġgal actic
Sh ift
Ø ¯
ĠRes Net
Te X
Ġa ges
Ġkn ot
Ġnor ms
me l
Ġe m
rm k
DE s
m ixed
bi ased
g c
en h
Ġsp end
ĠOr iginal
Ġrob ots
oun ced
ĠStr ucture
ĠLa bel
H AND
text g
Ð¾Ð »
Ġshe af
Ġpoly top
Ġadi abatic
Ġex ceptions
}^{ {\
GLA PI
Ġthrough put
, -\
Ġspan ning
Ġst retch
ĠT ake
SS ION
ĠAt lan
Ġext ensively
Pro blem
-\ !
Ġnew spa
ĠCol umb
13 7
Ġo xygen
air man
neu tral
] ),
vent ory
ĠRec ords
h ence
ĠAl tern
Ġre gex
C tx
ĠF our
later al
Ġhis togram
Ġdiscre tization
o ved
App ly
Ġ& $\
Ġturn ing
Numer ical
Ġh a
neigh bor
k u
exist ing
ĠG reek
Ġcla use
v ary
Ġgovern ed
ĠThe ory
ĠT i
at ers
ĠF ac
ĠIt alian
ex ecution
ĠGL enum
size i
un ion
ĠÐ ¸
T aking
Ġinst anti
ben ius
S ep
ep ler
Ġrender ing
bre ve
Ġtrans mitted
ĠST ART
res on
GL uint
H F
k pc
197 1
i tage
the ir
DE D
Ġcommunic ations
=\ !
p al
Ġequ iv
ĠWilli ams
Ġb rane
Ġexception al
Ġtele scope
V s
olog raph
ĠCom bin
us ual
Ġb ijection
] ).
pr ice
Ġfil tration
ĠÃ ł
t own
Ġgra in
IN IT
amp lit
ĠD ar
app ing
Ġcaus ing
i pated
F ill
Ġis instance
ĠLi ber
li u
P ress
Ð° ÑĤ
}^{ [
ĠG ar
Ġeigens tates
h c
ĠIn v
Ġequ ipment
Ġint ra
ĠB oston
mis s
Ġre tain
Valid ate
ou red
pol ynomial
Experim ental
o S
ĠIn du
ĠW in
Ġlo gin
| $,
ular ity
Ġav ailability
Ġcri minal
Ġ\ ,\,
Ġ( `
Ġrecogn ize
Ġd og
16 9
Ġecc entric
com ments
dif ference
ĠS SL
az z
ĠF ire
ard en
> `
Pri mary
cm id
Ġen rich
Co in
ĠExp ression
> =
Ġsol ves
en te
Ġsto pped
ĠSen ate
ĠL ove
Up load
d dots
O W
)+ (
u si
sim al
ro zen
Q ual
q w
Ġillustra tion
ĠNS String
Mer ge
ĠF estival
on linecite
de faults
ĠS outhern
Ġag ency
Ï Ģ
Ġbusiness es
commu tative
Ġpers ons
P l
Ġsever e
ĠI tem
Ġmu on
ĠH istor
S ig
Ġin ject
}) ]
Ġhypo theses
N ONE
ass ociated
I p
S ide
g m
ĠI L
Ġupd ating
Ġpermu tations
F un
th ird
} <\
our ney
elec tric
ĠOper ation
to LowerCase
Ġrespon sibility
ĠB R
i u
} ')
ou g
v ct
ĠClass es
Ġparad ig
L ang
ver ted
ct ree
enc il
attr s
bo lev
Ġrela ting
vis ual
* (
Ġjus tice
if er
ĠPh il
C trl
13 3
A gain
h es
Ġide als
mis sing
ĠM ove
14 3
) <\
Ġa ria
ret val
M X
Ġo c
Ġprodu cer
\ :
C ross
Ġsh oot
sign ific
tis tical
Ġmy self
Ġdist ortion
Ġb ilinear
ĠComp ute
is sue
Ġsmooth ing
max imum
cmid rule
ĠF ra
ĠSc ott
Ġ mp
V S
m ond
ĠT a
alt Color
ĠC as
Ġman ual
Ġe yes
Per formance
ĠGener ate
ĠPr ince
Sub scription
Ġs outhern
Ġcontribu tes
Ġb ag
Ġexp onents
da ble
Ġb g
set Attribute
Ġtrans lated
Ġfill ing
Ġdiff use
ĠE rr
az ure
ath an
Ġst reet
Status Code
Ġpar k
ĠB E
ĠI o
ĠE gy
Ġlo cale
Ġre ar
Ġpack ets
Ġpa in
Ġg host
Ġjoint ly
Ġcol ored
... )
Ġy ellow
Ù Ħ
Ġstream s
Ġ' $
ul p
sub scribe
normal ized
ST ART
ar ound
dis cussion
ĠEn c
p is
Ġtemp orary
) &=
ĠA B
Ġax ial
determin ed
amazon aws
ĠD er
Uni que
Ġroun ds
ĠIllegal ArgumentException
Ġmicro scopic
Ġlabel led
Ġmonot one
ĠCarol ina
Ġoccur ring
mat ter
Data Type
Ali as
O cc
Ġsu dden
P ane
Ġac oustic
Ch en
ĠDate Time
[ ],
13 1
pre ad
Ġeigen vectors
Ġ$( -
s ight
ĠE C
Ġint ent
{ +
is ations
ĠC laim
Ġy ielding
Ġspar sity
Ġrele vance
ĠCon struct
Ġshor test
ĠB ul
ĠR el
ch est
pi ent
S l
19 67
-> ,
K w
am big
Ġinte lligence
Test ing
B ACK
****** /
Ġexp r
Ġdynam ically
Mark er
}^* $
Ġsynchron ized
lay ers
Ġadd r
ĠA la
Ġhapp y
}) _
Ġ" _
un ication
\ ;\
ĠS af
Ġ. =
C r
Work er
)}\ ,
Ġgra ins
end point
Ġ+ (
Ġattr s
log ic
C amera
Ġme mb
Ġmin ister
K o
Ġanaly zing
}= {\
c ra
Ġse mic
)= -\
Ù ħ
Ġare n
ĠNor thern
Ġsu ite
Ġsyn thes
pre pare
Ġrest ore
Ġimplicit ly
cept or
Ġelimin ate
}) -\
fix r
ĠCh ern
Ġentang led
s child
Ġan cient
/ )
Ġad vice
Ġ& #
Ġh its
Ġno tification
Ġaccept ance
on i
E mp
I J
le ave
Ġoffic ers
Ġg ar
Re place
0 15
Ob serve
Ġfor cing
Ġdo or
Ġev olve
DE C
el ia
Ġsp lits
Ġpost s
me tal
p romise
ĠN Y
ti ble
su med
K P
Cer tificate
Ġ} ).
ĠIn d
sh ire
fa c
ĠMa the
Ġtrigger ed
ĠCo q
2 11
ur ities
: &
Co ordin
re ach
ot ent
pro jects
Al g
Ġdis continu
Ġno tions
c D
MA GE
(\ {
ĠE ff
^{- (
decor ation
Ġplan ned
Ġexceed s
an cer
Al tern
Table Row
} ',
ĠP L
Ġcomp ac
Ġprocess or
D ict
Ġ-- ></
ĠPr int
Rad ius
mid t
Ġacqu isition
ink owski
Ġmoder ate
abs olute
Ġlist en
ir th
ac l
b ases
perturb ative
Code c
Å ¡
ĠY es
h yp
is Array
h our
Ġput ting
y d
ĠVer ify
b ow
Ġg ains
writ ing
Ġa zimuth
Ġcent r
v g
ĠL STM
Ġsol di
\ (
M ass
ĠImp ort
Ġent ering
ME M
w ind
or row
Ġ$ %
Ġhigh lighted
ĠR ender
Ġmer ged
Ġfeature d
Ġnor thern
? "
Ġdis ag
Ġl ic
k j
Ġsub scription
ĠF ull
00 7
* >(
le af
Ġcol span
ĠTR UE
ĠS ar
Ġaug mentation
z c
Ġdomin ates
govern or
BP ACK
Ġdevelop ers
cor ner
Ġacknowled ges
Ġfif th
u ated
? }
Comp onents
tic a
L G
Ġtri als
Ġinsur ance
k ubernetes
çĶ ¨
tikz cd
Ġk ick
Ġdeath s
no tification
Ġgra v
AT CH
ĠWh y
Ġb rand
ĠAb out
ĠS and
ĠS ingle
Ġ" #
cal ar
Ġpar sing
Pe er
Ġquad rup
ĠW ho
ĠExample s
Ġcar s
ser tion
ĠAnd rew
Ġdescri ptions
Ġ ~~
Ġout lined
Ġsure ly
Ġmain tained
T a
Ġheur istic
å ¤
Ġs i
W rap
pi e
Ġ lying
c ies
H ave
st ub
I mages
Pop up
Ġsh allow
depend encies
ad or
T ry
exp licit
g lob
ĠS quare
Ġhost s
p unct
Ġdec or
def i
no tes
P erson
qu al
Comple tion
Ġun d
N s
Ġend if
tan h
Ġstand ing
N i
ow ed
Ġhous ing
D s
Ġ\ '
hi o
W ill
Ġdro ps
ĠSw ed
$\ {
Ġt s
ĠMon day
\ },\
Dis abled
Ġiter ate
( []
Ch unk
ĠM ari
c oc
ĠM aster
ess aging
00 6
w br
SP AN
å Ĭ
pot ent
Ġclassif y
Ġloc us
Ġuni vers
Ġsubstitu tion
Ġcomp ile
Ġs ister
id gets
ĠB ow
la ps
}} ^{-
k r
vi an
ĠC amb
Ġprint f
Ġf idelity
Ġch ampion
13 8
equiv ariant
Ġdeli very
M r
CO UNT
Q R
b id
ĠR ule
ĠN ov
ĠE W
mu tex
pi pe
Ġcommit tee
U pd
ĠF A
ĠMin istry
at um
{( -
Ġschedule d
De fin
Ġenc lo
ĠCh ief
File Path
ĠMem ory
Ġparameter ized
Ġcosm ology
R ank
2 80
mm ar
Up dated
ĠS ample
Ġencoura ge
ĠP osition
Ġref resh
/ {\
ĠN LO
Ġtra p
dor ff
equation s
le tion
j obs
22 4
Ġ$ +
ach el
Ġes cap
c trl
all enge
x f
sh op
ĠÐ º
An notations
Ġadj usted
b idden
t u
Ġback grounds
ĠT aking
Ġsp ring
RE S
ur is
Ġex emp
A g
mcite default
Ġacc ordance
ru gs
il de
Ġauthor ities
R eq
re verse
ĠEn able
Ġconclu ded
Sp in
cs v
ĠV alley
Ġbe ta
ro d
FUN CTION
con ditional
Ġs ig
In tegra
Ġre venue
} &=&
Ġrep ly
3 000
Ġf id
ian a
h p
Ġrout ine
Supp ress
Ġ( -\
Col l
con figure
)\ ;
< -
ĠSat urday
B en
ĠR T
channel s
] ['
j q
Ġf uel
;\;\ ;\;\
ĠĠĠĠĠĠĠĠĠĠĠĠĠĠĠĠĠĠĠĠĠĠĠĠĠĠĠĠĠĠĠĠ ĠĠĠĠĠĠĠĠĠ
20 8
E s
s chedule
des criptor
Ġpre sid
exp lo
R P
Ġdifferent ly
Ġelse where
Ġfe et
Ġpro hib
ĠT F
Ġvo cal
ĠP ak
Menu Item
combin ation
place holder
t ts
Ġco oper
CL U
Ġinstr uments
ĠHo spital
ĠC ache
' |
ĠF ellow
Bit map
l inux
Ġan tic
ame d
ĠPa uli
Ġp tr
ĠF amily
Sta ge
Ġformu late
i ors
Control s
Ġphon on
c ached
s sec
Ġp t
ĠPro perties
ph an
Ġlist ing
y ers
Con version
}| $
Ġjo ining
H ol
g b
lassif ication
S printf
Ġa ffor
Ġc s
Ġquali tatively
Block s
Ġmes ons
v ac
__ _
Ġun bounded
G RO
y ou
_* \
ĠT YPE
To ols
Th ree
Ġen for
ues day
ĠM W
ĉ ĠĠĠĠĠĠĠĠĠ
sta b
acknow led
m kern
igh test
mark s
s phere
stru ctive
Ġhal os
ĠJack son
Ġcor ners
WA RE
Ġs and
aa aa
erial ize
Ġsuper nova
ĠB la
ĠL ow
e u
ĠTh ose
Ġmo vies
date picker
ĠLe vel
k ra
' }}
Ġoper ational
ĠCon dition
ĠRec ord
Ġdiffic ulties
ĠRic ci
ĠW ales
ĠKore a
Ġmore over
I ME
y o
to Equal
OB JECT
Ġ* ,
Ġimplement ing
Ġc p
Ġgu id
}= (\
: %
Ġfl ush
os able
Name Link
urs day
ch rome
tr uth
ĠNAS A
tis tic
Ġ( #
ol is
ĠN C
Function s
Ġpropos als
m ms
Ġas ynchron
ĠRepublic an
Ġlib raries
as sum
Ġd ream
match ing
pres entation
C laim
Ġsuper symmetric
as m
ĠT oken
Ġcont in
Pr ice
im ity
ĠE valu
N ON
Ġcontinu ation
m ut
Ġcirc uits
separ ator
ĠH ermitian
uff le
Cred entials
ĠO k
: -
google apis
pre ceq
Ġcounter parts
W H
T s
ge ometric
J an
nes day
Ġsched uling
Multi ple
Ġw ww
Ġ\ ;\;
M esh
}} },
Down load
Ġtrip let
Ġim mer
art an
jav ax
Ġdist urb
Ġd ic
_+ (
SD L
man agement
Bu cket
Ġd z
Ġatt end
ĠWIT HOUT
20 2
Con sequently
D ITION
Class Name
add plot
ĉĉĉĉĉĉĉĉ ĉĉĉ
SH A
E LEMENT
Ġtr uncation
Ġfla sh
Ob servable
Par tial
MESS AGE
Nd Ex
oun ce
Ġtriv ially
ĠDemoc ratic
Ġsub mitted
Ġh ero
ĠP rivate
P ending
| (
,- .
An gle
Ġtrans it
b k
ĠR est
ĠLat in
}) (\
ĠTran sition
ĠL icensed
\, (
F B
Ġcomp ilation
Ġ} ),
Ġin herited
Ġsearch ing
, ...
ĠV i
ĠCon ference
tract ing
ans as
pay load
Ġso ph
MA SK
e ast
initial ize
de velop
Ass er
Ġco ach
Ġle ver
\ &
ĠY et
Ġs ac
we ek
du ctor
doc umentation
ĠPar liament
Ġhelp ing
h w
over lay
Ġy es
ĠB ad
d ere
ĠCHE CK
um ented
Ġ[ {
um ino
M LE
ĠN ative
B us
Ġmo bility
necess ary
Ġke eps
R X
15 2
Ġsimp licial
ir k
secre t
Ġ[ #
B et
constra ints
P adding
Ġmanus cript
sk a
Ġretrie ved
ĠG it
ĠF un
Ġmin us
ĠCorpor ation
Ġrelig ion
Ġbur st
n ice
R D
c L
du mp
se conds
ori ented
redu ce
ĠSup reme
}{* }{\
V P
C ent
book s
c it
\ }^
t ory
ĠW HERE
ian o
ul um
la ve
new page
. ")
TO M
Ġa warded
Ġfound ation
In jection
Ġdown stream
Ġenc ryption
$ }.
sl ds
input s
lik elihood
ĠDa ily
Ġste ep
be ans
work s
consist ency
Re lation
AS H
Ġsuff ix
Ġgain ed
defin ite
Ġaccep table
Acknowled gments
ĠT yp
ĠâĢ ¢
Ġgradu ally
ran ged
vi et
Ġch aotic
ĠUn fortunately
Ġper turbed
gr pc
ĠCO L
Ġspan ned
Type Def
si x
Ġsing let
ĠTO P
T ables
Ġanten na
Ġtim er
Ġclo sing
Ġg rey
$ },
Ġr hs
remove Class
> ${
tra cted
ĠD ictionary
C AL
Ġout going
Ġdisc ip
T ube
Ġor ange
Access or
Ġrender ed
spec ified
_{ *
Le f
IN DEX
Ġachie ving
! "
S lice
Ġdeliver ed
Ġg it
Ġe dition
Ġcar rier
eck er
high er
Den ote
si ded
En g
c M
Ġsk in
FOR MAT
ic an
math ring
Ġact ors
c ub
F ac
Ac tiv
Ġa str
ĠD ie
cer tain
Ġro utes
lation Token
Ġarri ved
d V
Ġcomp la
ble ms
ide al
gh an
ex clu
Data Source
, [
X iv
}\ }
to kens
ĠCh apter
S rc
it ten
Ġcoun table
_* (
En ergy
//////////////////////////////// ////////////////////////////////
Ġro uting
. ');
ĠM id
serv o
int roduction
ĠChild ren
2 60
N AL
ĠDe v
ĠN ash
Ġsub tle
ĠF re
Con v
-------------------------------- ----------------
Ġamb ient
N F
at tention
}{ |\
ict ory
S PE
ch apter
mat ched
n is
value Of
Ġstrug gle
ver sities
V e
yl van
Ġ\ }$.
app le
ĠOb serv
ĠF la
ro tation
Ġmin ute
Ġconvers ation
n able
si e
RO OT
! </
og gle
Ġw rapped
l ds
Ġemer ging
00 8
Ġdes irable
ĠF oot
eq no
ap unov
Ġboot strap
ext ended
star s
Fi xture
ga ble
ĠP T
co okie
spa tial
Ġ' ')
Ġwire less
tat ors
aus dorff
ĠUn less
Ġl ensing
ĠLap lace
[ $\
Ġsch olar
Exp ect
ĠEn tity
He alth
D ot
Ġclassif iers
textg reek
ĠModel s
}$ }\
Ġde bt
Ġstatis tically
me ans
}}$ -
ĠH an
pos sible
r ides
> {
ĠD IS
List eners
Ġob jectives
cccc cccc
3 75
eff ects
FR AME
ĠL ittle
ces sion
Ġcont ro
experim ents
go al
Ġill umin
Ġfacili tate
N UM
Ġf inger
ĠM aterial
cap ture
Ġprogram me
Ġs cheduler
Ġb ed
ĠAuth or
ĠP acific
K B
hel lo
Pro c
Ġscal ars
Ġre co
ph e
ren e
Ġre lying
App lying
Vis itor
Ġbe ams
Ġbif ur
Ġemp has
Ġ} ^{
E val
] *
H er
ĠA wards
x b
14 6
PRE FIX
Ġth orough
mu la
ĠĠĠĠĠĠĠĠĠĠĠĠĠĠĠĠĠĠĠĠĠĠĠĠĠĠĠĠĠĠĠĠĠĠĠĠĠĠĠĠĠĠĠĠĠĠĠĠĠĠĠĠĠĠĠĠĠĠĠĠĠĠĠĠ ĠĠĠĠĠĠĠĠĠĠĠĠĠĠĠĠĠĠĠĠĠĠĠĠĠĠĠĠĠĠĠĠĠĠĠĠĠĠĠĠĠĠĠĠĠĠĠĠĠĠĠĠĠĠĠĠĠĠĠĠĠĠĠĠ
Pers istent
M al
lit eral
ĠEngine ering
Ġaddition ally
ĠN ormal
Ġnomin al
AR CH
Al ign
v k
- |
19 64
min im
Ġrep ul
ĠC ra
Ġgener ative
L aw
w ire
ĠLand au
ys ql
nipp et
Ġho ok
ĠBra zil
Ġfra ct
d td
h m
Zh ang
i ation
Ġti p
Ġquad ra
Des pite
Ġincorpor ated
Spe ed
or ters
tit led
Ġcondens ate
__ .
Ġc ss
Ac cept
" }
h or
er en
Ch apter
operator s
0 25
mu x
Ġauth entic
Ġbra ckets
arg v
r times
Ġcor pus
c les
ĠF O
Ġvic inity
ĠC ard
Evalu ation
Ġbi ological
Ġpers istent
Ġsee med
Int ent
ĠFrancis co
pro jection
)) =\
sc ious
Oper ations
differ ential
do i
Ġcell padding
c F
' /
pair s
20 5
ĠOp tim
ĠPro du
la mic
\| _\
Dec oder
ĠI F
Ġte x
Ġdou bt
n pm
Wh y
pre view
Ġre volution
Ġslow er
S un
ĠM E
Ġconcent rated
15 4
Ġsuper symmetry
U ses
Ġmag n
'' (
? (
add EventListener
Ġimp er
b ers
Ġspectro scopy
WR ITE
$ ^{+
ĠN i
Ġsimultane ous
se ed
ĠB on
m ount
ĠJava Script
@ \
I so
ĠB and
$. \\
Ġt argeted
Ġstatis tic
ĠE RR
? ?
H W
Ġde but
Ġ// !
Ġd ates
ĠL S
30 4
ĠS S
') ->
Ġstr ange
sub script
C over
normal size
ĠS ystems
Ġwill ing
SU PP
x c
im ent
Ġyour self
S n
ĠS ession
ĠK IND
Ġ(! (
ĠD L
VE L
Î ·
p ing
Rec ently
Re try
il ly
ĠD NA
Ġrepresen ta
Ġcontribu ted
19 65
ĠB P
__ ,
B LOCK
Ġvalu ed
AT URE
SU CCESS
ĠHash Map
Ġor acle
oh en
analy tic
ĠOp tions
Ġcap tion
Ġg rew
Ġpass age
ili pp
K er
ĠEd itor
Ġne ga
ĠJ r
Ġscreen ing
ĠA ws
P ref
Ġmon op
ĠAss uming
ta ken
################ ################
ion e
han ded
Ġsurv ival
pre vent
13 9
Mar gin
c H
STR U
ĠS Ne
Top ic
ver tices
set Text
ĠMich igan
ber ts
ĠS chema
Ġbas ically
ĠJ on
ĠPo incar
ĠApp le
vi o
Ph oto
ĠA DC
I ES
Rece ive
[ ->]
ĠRetrie ved
Ġprof essor
ĠAt tribute
Ġfore ground
Ġnegle ct
Un mar
ch ester
Ġcre ative
Ġs quee
ĠDan iel
ĠL ater
dest ination
ĠI T
}) _{\
Ġsc oped
shall er
ĠO x
F ake
Ġcomp ressed
Ġcarry ing
em y
c g
}\ }_{
âĢ ĺ
! =
" ?>
ec ycle
ir med
ro b
ffff ff
n x
Ġco al
Ġcoun ty
ext ends
Ġre servo
Ġlist ening
ĠL E
Ġhar m
Ġpiece wise
Ġpredic ting
19 5
S ys
Ġflo ating
14 9
utor ial
TEXT URE
dis tributed
Ġmin ima
Ġdec laration
bes gue
Z oom
Ġthresh olds
Ġde precated
be ing
Ex it
ĠM et
Ġcar ries
Pro totype
}\| _
Ġepis odes
h size
stro ke
ylvan ia
Ġgrate ful
Ġexclu sive
\ #
Dest roy
ad just
Ġhand les
in et
: $
forma tive
ocia tive
ent ang
y ellow
Ġimp lying
ting ale
ves tig
Separ ator
ĠM N
Ġan imals
w ick
re direct
ĠF all
ĠTheore ms
ĠOb serve
Ġadvers ary
n ail
Ġm useum
}\ ]
Ġnormal ize
db c
Ġdr ink
MPL ATE
j ournals
corre lated
20 4
k ine
ĠD ark
XX XX
ĠY ukawa
Lo aded
| |\
bal anced
D im
Ġ" )
U A
=" {{
conver ted
Ġencounter ed
ag ers
Ġput s
ĠT EST
18 5
Ġz oom
Ġvisual ization
s amp
redu ced
O ri
\/ }
R outing
f ine
Ñ ħ
At trib
Ġfun ctors
Ġtri es
Ġresidu als
CD ATA
Ġf riction
Ġmer ging
med y
dot sc
c ue
Ġd ump
ĠJ un
Gener ate
ad v
}' \
Ġaccording ly
Reg istration
SER VER
Ġre direct
p ure
M g
code c
Ġaug mented
Ġ$\ ,
ÐµÐ½ Ð¸
Ġra dical
ĠTr ust
Ġstream ing
Ġmain taining
ĠC FT
Ho ok
S chedule
enti ment
Ġe duc
Ref lection
. ''
Lef trightarrow
T ake
H K
Ġoccup ation
C lean
Th elia
M AN
el ly
ction al
Ġwrit ers
ĠÂ ©
}) /
Ġlogarith m
WE BPACK
REQ UEST
CH AN
S lot
Ġdep ic
Al t
Ġtunnel ing
as hi
exp on
Ġh olograph
ĠT ry
Ġspecify ing
oun ger
le ad
Ġlet ting
Des cribe
weight s
14 1
base line
Ġr c
Ġbi ased
ĠH opf
Ġcomp iled
g ro
Co okie
Ġsh o
ĠQu antum
æ Ī
4 000
Ġscatter ed
ĠG ir
hal o
th us
) ^*
ĠSto kes
Enc oder
stats models
op ens
Ġs an
Dete ctor
Ġan onymous
}[ (
J ust
n f
Ġto String
AB ILITY
ĠK im
View Controller
Ġre current
read only
S an
Ġplanet ary
c ous
PROP ERT
ĠSym fony
ĠSt ore
Ġdis p
ni tive
Ġinfluence d
il st
ate st
) &=\
o ft
Ġcell spacing
reg istry
j us
` :
Ġc le
Ġaccomp an
Ġdef ects
. -
ĠPro duct
V T
c odes
pp ers
rint f
q r
mark er
Ġoffer ing
s ocial
serv let
Ġab stra
Ġemploy ing
Trans lation
P ic
s lo
ĠM R
Mod ifier
Ġval ence
++ ++
Ġw ood
par ticular
)\ }$
Ä ģ
Ġdecomp osed
ĠW all
p ick
Ġcon fined
Ġa perture
du ate
Ġno table
ĠCon sole
Ġpuls ar
V A
Equal To
Ġinvestig ations
N Unit
Ġs tick
Ġsub algebra
Ġop ens
Ġv oc
ĠS ir
ang el
ĠTra ining
Ġfun ded
o tes
int rodu
Ġo u
ĠG ro
Comple x
who se
. &
pt on
Q C
Ġscienti sts
ĠIr ish
ĠO K
]( #
Ġun supervised
15 1
Ġma ppings
Ġt f
ĠC IFAR
Ġreal izations
B ur
ĠS mall
Th reshold
ul f
ĠH art
Ġ" );
ĠS ite
ĠAlex ander
^{ '
pri ority
Ġfaith ful
s al
Ġplace ment
Ġ&& \
hed ral
ĠD al
Ġle verage
j ump
Ġin vi
16 6
Ġacc ounting
ĠUn like
ĠI gn
ĠN ull
off s
() [
Ġcommu te
row e
14 2
Ġfe at
to ctree
fra red
p v
Ġde code
div ision
Ġ< \
ĠÐ ´
Ġe labor
us sian
d ra
ur ious
Ġspe aker
per cent
Ġidentif ies
fa ir
Ġformula e
w u
preser ving
Ġdetect ing
sub str
[ -\
ĠG ames
Ġcommit ment
co herent
Ġar cs
)/ (
c rit
ĠN atural
w b
ĠAn g
tif ies
è ®
Ġ ĉĉ
Co ord
D MA
Ġev olved
)} ;
ĠHe ad
vis ibility
Ġlist eners
ĠSe a
ĠPri me
ma zing
Re gex
Ġconf usion
sp ark
Text View
Ġbe at
ĠE sti
ĠP ay
Ġdevelop ments
Ġextrem al
ĠA rea
ĠC r
C ity
Ġle gacy
ĠF ixed
ĠU SE
Ġla s
Sc ene
Ass ign
clo sure
M IT
Ġin complete
ĠP la
15 8
ori entation
Ġfib ers
Ġno ticed
Sta t
() ">
)} )$
Ġlear ns
ĠCE O
prov ide
}, {
lec tron
\, ,\
Ġdist inction
Ġsp ending
Ð¾ ÑĢ
15 6
OR S
sty les
A verage
ure au
Check ed
U Int
U sed
m ier
Ġin nov
Ġre semble
Ġp ip
) &\
vi ve
dir name
| .
Ġdimension ality
Ġb on
Ġb ol
Ġdomin ate
h asi
ĠIn te
or ption
Ġsw ap
RE NT
C apa
In cre
PA SS
Ġgood s
7 68
G IN
Ġapparent ly
Ġparadig m
prov ided
SU B
Ġexpan sions
Doc trine
M id
M illis
14 8
Ġowners hip
Ġelectr ical
ĠN A
F oundation
Ġmacro scopic
Ġt rouble
Ġprov iders
MS G
Su ite
Ġiden tically
Ġgeome tries
N M
ferm ion
Ġon set
ra ts
Ġm im
sup set
redu ction
S cheduler
he at
Ġcred entials
Ġabs ent
Ġ" [
cur l
AD C
Ġfre ely
ĠV alues
Ġm ild
Ġcon gru
integra tion
In line
Ġreli ability
ĠR G
}( (
SI GN
par ity
ta c
ĠE m
ĠBol tzmann
Ġint uition
Ġpos ted
ĠDeta ils
17 6
l arger
x e
Ġd omestic
ĠJ ob
incre asing
ADD ING
$. \
spect ra
ns ylvania
Ġsett lement
15 7
tr ino
asp ect
For ce
R IGHT
Ġin jected
G it
ĠGL uint
19 66
'] ))
rop ical
od ers
Li u
acknowled gments
C ulture
TableRow Color
T ech
Ġf ish
un its
m ime
tif ying
Ġir relevant
Ġappro ved
Ġwould n
EN CE
Icon Error
manif est
ĠLeg end
Ġc ro
ĠD I
Ġcons ult
imp ro
Ġpla u
run ner
Through out
pe g
ĠĠĠĠĠĠĠĠĠĠĠĠĠĠĠĠĠĠĠĠĠĠĠĠĠĠĠĠĠĠĠĠ ĠĠĠĠĠĠĠĠĠĠĠĠ
P t
ĠSpa in
Ġre vision
Ġg enu
se man
ĠString Builder
Ġlo ader
n oc
break ing
ĠQue en
ĠPa per
ĠOb servable
ly wood
stream ing
Ġstreng then
decomp osition
ĠData base
x p
ĠH ad
M W
G ood
16 4
Ġsee king
Ar rays
aw esome
J y
Ġ" ;
di am
Ġf lip
PT ION
b w
sl ider
vo ice
) ^{(
Ġkine matics
M ich
20 3
Ġcorpor ate
ĠSch warz
ĠT oday
AME TER
Ġpas sive
) &=&
Hel lo
B ay
Ġup load
Ġcontribut ing
})- (\
Oper and
Ñ Ĩ
IconError Encoded
ly n
// ----------------------------------------------------------------
ĠChrist mas
Ġch a
ĠAl low
War nings
parame tric
IT LE
(" .
Back end
Ġcomp ares
render er
Ġde formations
size of
Ġor bif
af ka
Ġs ought
S ent
i pping
F at
Ġunder go
Ġhom es
ĠStra te
Ġinclu sive
hi er
Y es
be havior
ĠP H
Ġinc lination
za beth
n v
Ġla mbda
ĠF isher
Ġre fined
ĠS everal
ĠA ri
ĠI sing
Ġoverla pping
ĠP as
De fined
p et
end a
OT TOM
ĠV ideo
Ġhydro dynamic
f its
Ġre try
Ġ" +
U int
big wedge
Ġutil s
ad apter
% .
Ġtra pped
Ġapp s
ĠS K
brid ge
0 11
Ġstudi o
123 45
\, $\
}{! }{
Ġbeh ave
fail ure
Z end
Ġyou th
Mu table
res sible
En tries
PD ATE
Ġbo y
scatter ing
ag ger
b h
Ġk wargs
Ġ' @
er ry
ti d
c raft
y si
ĠU l
or ig
bul k
Dest ination
Ġbro ader
ĠB ox
Ġk id
ĠRe v
draw able
Back up
ou sel
Ġho spit
mach ine
ĠĠĠĠĠĠĠĠĠĠĠĠĠĠĠĠĠĠĠĠĠĠĠĠĠĠĠĠĠĠĠĠ ĠĠĠĠĠĠĠĠĠĠ
bra ket
Ġmin ing
ĠG auss
/ ******/
ĠMajor ana
es sian
ĠF ILE
Has Been
Ġball s
n k
SP AC
15 9
ĠF W
lu eto
SD K
om o
CP U
Ù Ī
Re view
Eu Script
C ost
Ġsh aded
tic ity
i ration
Ġv acc
LO B
care t
Ġrepresenta tives
H ard
Ġun e
temp oral
lueto oth
ĠT arget
ĠN ations
B ranch
ĠCons titu
BY TE
re dsh
Ġarm y
st als
ĠWe ek
An chor
Ġparametr ization
] </
te ll
Ġas king
C MD
for t
Ġ& +
ad ditional
Ġdeploy ed
in ian
ĠEmp ire
ĠL inear
lim inf
2 32
IE W
Ġqu ote
ĠR ange
ĠD raw
Ġprefer ences
S ci
i h
>( <
des cribed
pro ton
}) )$
f lo
Ġst ub
esti mated
ĠC oll
Ġd ash
aver aged
Ġin her
Red u
ĠH ub
P in
ĠM achine
Ġc ere
no frame
el li
ĠF low
P ages
ĠFe ynman
Rep ly
P ADDING
deriv ative
Ġdo ctor
Spec ifically
bern ate
Cal led
st udy
kn ow
L B
function al
Î »
Ġpol ymer
Ġconstit ute
y z
$ [
ra ce
22 2
Ġkey word
const ants
T ARGET
di ble
ĠName ly
LE N
NG TH
col og
Ġle ague
IMP ORTED
ll l
Ġperman ent
ĠThe atre
Ġhon est
Ġ\ }$,
ah n
Ġemission s
classif ication
P W
AUT H
)$ \
bur gh
' =\
Ġ' </
Ġb onds
ĠFor mat
ĠH I
C li
ĠSec tions
reat er
ĠVis ual
LE S
Plan ck
Ġwal ks
ĠAdmin istration
T im
16 7
ĠSpr ing
Ġfac ulty
W ell
Ġa gric
Ġconstruction s
numer ical
Ġdiscrimin ation
Ġ/ \
be a
to grams
Ġexplan ations
umino sities
Ġreason ably
n od
v t
Ġsynchron ization
Ġpurch ase
f riend
ĠB ound
We ak
C amp
æķ °
Ġ\| _
ĠP anel
Ġspin or
E lem
I o
Ġeducation al
x z
Ġ$ ('#
Ġass istance
Ġti ck
Ġma gazine
al ong
Ġindex es
ter mine
ĠSet ting
ĠC ount
f und
us al
S al
Ġver sa
P F
ĠRec ently
jack son
c amera
aw t
As set
Ġlabor atory
b ench
Ġfeel ing
Ġ# #
Â °
/ #
ĠB in
FT WARE
Ġc ros
Ġdwar fs
) }}{\
rr rr
}{ @{}
ĠE D
}\ !\
y ang
ĠS USY
Ġt um
Ġbi ases
x FF
Ġp s
Ġsoph istic
B ag
Ġt ube
con tainers
M ust
ĠR ail
R ich
Ġp our
w ould
general ized
di um
c P
H ex
sen sitive
ĠJew s
M or
v ard
Ġvol unte
ro gate
Ġex tern
r w
Ġ Ã©
Ġcalc ulus
Ġtw enty
Ġgir l
s lot
~~~~~~~~ ~~~~~~~~
ĠW i
Ġfa int
Ġtra ding
ud ge
ĠMax well
chro tron
P K
ĠT uesday
Ġro uter
% "><
ĠTh ird
Ġinter ven
Q t
ec on
elf are
Ġtoler ance
Ġattemp ted
Ġcommu tes
inu ous
dere q
} &=
ID ENT
Ġmut ually
c ision
h uman
uck y
Ġm illions
den sed
ï¿½ ï¿½
x a
Ù ĩ
ĠM ike
Ġqu ench
ĠK now
Ġra m
M Q
ĠF L
T l
Ġfavor ite
Ġ river
Ġemp hasi
Ġun ified
U UID
ĠRequ ired
Ġfla re
ĠT our
Are Equal
Ġcall er
Ġdist ant
Ġatten ded
+ (\
pp ler
Ġsp ons
23 5
ĠN othing
ĠI SM
Sub ject
or ov
Ġs ale
Ġla g
tt en
f ib
Ġw elcome
Ġco ins
C ri
Ġalle ged
ĠG re
ĠExt ension
u z
Ġoptim ality
ĠS ET
ĠTh ursday
Ġres taur
HasBeen Set
L and
lic t
ĠR R
Ġflexi bility
v f
el lip
ĠO hio
Ġp ec
normal font
she ets
au er
depend s
> .</
23 4
Ġent ers
B K
ch at
simu lation
ĠIm Gui
ĠConn ection
Ġestablish ing
cal es
sub scription
Vis ibility
~ ,
nos is
x ff
$ |
u sive
^* $-
ÑĢ Ð°Ð
ec ell
Ġhar der
Comple ted
h op
spec ies
Ar row
Ġrecur sion
Ġco g
Y our
In to
Ġproton s
ĠB ORDER
ĠW ik
or ne
Ġdefinite ly
Ġalong side
dist ingu
hel pers
) ?
Ġ utter
Ġt iny
ĠB ush
ĠG ET
Ġm ort
phi a
schema s
Ġfix es
st derr
}) }$
Ã© e
Ġaltern ating
j p
Ġ/** <
ĠSt orage
v n
es tab
Imple mentation
Ġpy thon
P icker
Ġat tor
Ġima gine
Ġparticip ate
Ġlegis lation
ĠL ive
Un expected
gu ard
Ġtun ed
Ġsuper position
ĠOC aml
Ġhe aring
Ġlabel ing
M U
W ORK
Ġmulti variate
t cp
Ġhel icity
Ġoff sets
ew is
ĠTh ough
ĠTH REE
Dep loyment
30 1
Dis tribution
tab colsep
Ġ======= =
od rom
Ġd rugs
Un til
â Ķ
Ġal i
experim ent
= ~
ĠL R
Ġequiv ariant
( `
Ġannoun ce
V R
Ġm unicip
non atomic
Ġtheore tically
holder s
Ġna ive
hl js
rowe ak
Ġh aven
as ymp
b ard
Ø ª
Ġn ur
Ġquo ted
box times
N ested
ev in
Ġfrequ ent
Ġtrans lations
ĠPub lished
Ġsucces sive
] &
m icrosoft
19 63
Ġrela tes
ma trices
Ġgener ations
p at
ĠMan ager
ĠT urn
2 64
app s
Ġrecommend ation
ion ization
{$ {\
ĠRou te
ĠWed nesday
ĠM inkowski
ĠPh ase
lst listing
ĠG alaxy
Ġsymbol ic
ĠGeorg ia
ĠE P
ĠCon structor
Ġrandom ized
asi bility
ang les
Ġpriv ile
B ERT
ĠIsra eli
Tag Name
Ġ\ ;\
respon d
di an
ys hift
w ere
> -
end ants
ĠSa int
}) \,
Ġse mis
Ġ(! $
s pher
array stretch
be zier
, &
ĠGL sizei
ĠPU BLIC
Ġro tations
Ġconj unction
c ube
id ity
mathb in
ĠM B
sh aped
ĠEd ward
_{ |\
Ġgeome trical
Ġgir ls
Ġinstant aneous
Ġappe al
ĠSte ve
ĠL arge
asket ball
respon sive
OPT ION
ag greg
Ġw estern
Ġsuscepti bility
V o
cell s
] }(
fa ster
L STM
ro tt
u tational
Ġcon temporary
ĠT y
C ould
aw ay
ĠP NG
Ġlemma s
ne ed
ĠF air
Ġbring ing
TR A
H amiltonian
ul k
o ma
ĠT ensor
TE MPLATE
Ġdete ctions
ĠFe ature
M Hz
r q
B lue
Q Q
Ġ- (
Ġhead s
Ġsing er
tab len
u dic
{ })
Ġpro gen
Event Args
ma tical
Ġdem ands
ĠExecu tive
ino is
Ġpo e
RO W
th ew
sc opes
F ast
Or iginal
------------ -
C U
L com
Ġc aught
12 34
Rou ter
Ġco vari
Ġb io
0000 000
Ġguid ance
ch anging
ex c
ĠCoun try
Ġ å
Ġag encies
Ġr s
ĠOn line
Ġfra gments
or b
ĠB ru
b ranes
x l
Ġ$ {{\
Ġle ct
Ġcontradic ts
ĠHe isenberg
Ġens uring
11 11
Mod al
ĠWith in
al o
ĠRes p
ĠPen nsylvania
ĠSo viet
Ġy ounger
Ġinser tion
Ġcrow d
ĠRemark s
P an
char ts
Ġto wer
; %
EN C
Ġfall ing
ag an
ĠJaco bi
Ġre lay
ĠDe fin
ph oto
define Property
lo ys
L y
ari ate
Ġint ention
Ġrepeated ly
I ENT
Ġw inner
amer as
ĠA U
W he
ĠS em
40 1
strate gy
id ents
Ġh ab
Ġcontract s
ĠEast ern
H i
M pc
ĠĠĠĠ ĉ
ĠM pc
align at
}- {\
gra ined
Meta Data
B ridge
Ġno tify
ĠLe besgue
text subscript
Ġreg ula
ĠF C
Ġacqu ire
C u
U i
K EN
Ġp un
scri ptions
Ġaff ili
Ġv oting
ĠL uc
Po jo
Ġemploy ment
R ew
_ +\
AAAA AAAA
Ġspher es
a gain
Ġs cripts
R ay
ĠC u
Ġc ash
Ġmon oton
y i
B an
ĠT otal
15 3
l brack
Pi pe
A ug
Ġinsp ection
control s
tag on
ĠSum mary
experim ental
over ride
Ġheter ogeneous
- )
Ġf ed
âĢ ¢
Mod ules
ar ab
+ |\
t re
Ġd il
/ (\
C RIPT
æ Ĺ
mes h
valid ator
Ġdecre ased
Ġconj u
Ġoff line
Ġ$< $
+ "
hash Code
Ġevalu ations
Ġg rpc
Ġsyste matically
F IN
Ġ* _
b ury
serial ize
rotate box
ĠDe vice
am in
ĠCon tainer
ĠF M
Ġpart ly
b ay
ĠR PC
Ġcamp us
] -
ĠIs lamic
Ġs ounds
Ġris ks
& +\
Ġil legal
B V
Ġacceler ated
-- ;
)] $
b urn
S el
col ors
Ġener ge
re cor
ĠR V
{ }^
tex tarea
Link ed
Ġparticip ation
Ġdri vers
lind rical
- .
Ġp lug
Elements By
ĠJo e
un a
Ġsol iton
Ġb lo
Par ts
ĠL as
Ġpres cription
Ġanno tated
Ġj ourney
manif olds
Ġs lide
Ġdenomin ator
Ġaut onomous
ĠJer sey
Al ert
ĠG AN
em is
ens en
<? >
="../ _
Requ ests
ĠA F
Ġ= ================================================================
Stack Trace
Ġelection s
Ġg r
c E
Ġarrange ment
ĠL im
Ġax ion
si pa
Ġcontamin ation
S trip
ĠF i
ĠU L
comp uted
di ver
Ġir re
Ġde als
up d
---- ---
Ġra ting
IT ER
BU TE
Ġproceed s
ir ically
F LO
ĠCon ver
Ġinte l
mak ecell
ipher al
ag ues
Ġstrate gic
BU ILD
Ad ditional
Ġex haus
Sign al
Ġcontroll ing
Or gan
Ġrig orous
co herence
38 4
- ">
S NR
T W
p w
ĠB BC
ĠSet up
ĠScot land
Ġen force
18 4
Ġdiag nostic
Ġsub traction
Ġpi lot
\ >
aren cy
Ġw ra
Ġear ned
Ġtermin ology
Ġsub stituting
pre tty
Ġnil potent
Ġgrow n
ĠDig ital
ĠK ong
lock ed
ani mate
n ested
ĠA sh
Ġf d
Ġto urn
SPAC ING
var nothing
}' _
ĠLo ok
In stead
ĠP ur
Ġexplo sion
gre gated
he ap
Ġreg istry
Ġfair ness
tr unc
ĠB ud
ĠT ests
NotFound Exception
E W
E t
w alk
anc ies
Ġvictim s
}\ }$.
3 30
Ġs el
Ġmarket ing
Ġweap ons
00 000
Ġarch ive
M ail
Ġsugges tions
lo s
S ing
ĠV iet
Ġcancellation Token
Ġre mn
ĠDo es
A H
Ġpropag ate
NE W
indic ator
si zing
Ġdec line
}} )$.
" ])
con ven
Ġt y
ĠD P
P riv
] )$
if rame
: **
T ilde
7 50
c ot
LIN K
Ġma il
Sta tistics
ta kes
Ġ ×
Ġrule d
Ġc fg
on line
requ ires
H idden
k ers
STRU CT
Conn ector
INST ANCE
Ġv ictory
), $$
LT ER
Ġth r
}( [
Ġabsor bed
Ġambigu ity
ĠSy ria
ser ving
Ġdanger ous
sc ene
dimension s
ĠSt udy
riter ion
te es
mu lation
der ived
Ġcon current
Ġ&= &\
ex change
ĠP i
work er
Ġpoly gon
. âĢĻ
Ġinter vention
Allow ed
| ^{-
' )$.
re ment
eder ation
I BUTE
temp lates
Ġlong est
J s
ĠA WS
ĠValid ate
amplit ude
Ġknow ing
API ENTRY
circ led
Ġinter rupt
ĠPer formance
ĠC li
C hat
e o
Ġnone mpty
4 80
par box
Ġad vis
Ġex terior
ĠE N
Ġartifact s
Ġdecomp ose
ĠJaco bian
Ġworld wide
Ġtor ic
Ġp ray
back end
17 2
Ġtext s
Ġ ].
ĠL ock
Ġneur on
ĠR h
is tically
ress ing
ĠPub lish
ĠT al
ĠSV G
Ġsub stitute
Ġrelax ed
Ġr ising
Ġin herent
ĠTo ol
)] \
P en
N GC
Ġfunction als
tex pr
ĠV ar
cat alog
id ay
Ġ" ")
comp atible
Sh adow
Ġweight ing
aut y
Ġvo tes
ĠC ub
h base
;\;\ ;
oot strap
enti ties
ĠN L
Ġgene tic
ĠN ight
> ("
ch et
vers ary
ĠUS B
Ġhistor ic
numer ic
}, \,
File System
Th an
Ġacc ident
19 3
ĠMe asure
Ġalbum s
18 8
Ġcross es
Ġfight ing
tri bs
e ither
text backslash
Ġindu ctive
ĠF T
str ut
IN LINE
Ġpoint wise
vary ing
' }(\
Ġinter net
Ġimp urity
su c
Ġmag ic
ĠM as
Ġappropri ately
d ynamical
Ġqual ified
\ }}\
g res
Ġmultip lied
Error Code
t one
ĠI ss
Ch ris
Al ignment
Over lay
ĠA sian
> }
Ġch rom
ĠNav y
ĠK n
abul ary
acc uracy
C ss
Ġv essel
Ð¾ ÑĤ
L ab
P atch
lic as
Ġlo sing
Ġt aught
17 7
version s
cur ves
Ġinstrument al
}_ *
Ġf ell
s ender
Ġg lyph
LE NGTH
ymme tries
divid ually
Ġ/ ><
Ġd uty
Ġconver gent
Ġsession s
: /
op am
o pp
| >
19 62
ti ous
no ck
Dispatch er
il arities
ĠAd ded
re call
\ (\
it ched
Ġfav our
> /
ĠD NN
ime ter
Ġauto mated
Ġan imal
Ġrank ed
é Ģ
eps fig
Ġoper ates
ĠS tyle
Ġjus tified
ĠMil ky
Ġdialog ue
19 6
u ing
ĠF oreign
Ð¸ ÑĤ
ĠX ml
ĠApp lying
Ġab and
ĠP sy
get Time
ber ger
- {
SE D
o led
Ġpropag ating
N at
ile y
Ġsp ort
ĠAn derson
ĠCELL PADDING
Ġconduct ance
b at
Ġaver ages
riv ing
Ġattack er
in ery
alth ough
ac ted
ĠCELL SPACING
Ġs me
Ġco operation
W il
Ï ħ
Ġbuil ds
ĠCON DITION
we et
M AC
s olutions
button s
Ġopp osition
roun ded
ĠSO FTWARE
Ġpri ors
ĠS on
17 4
Ġen abling
+\ !
Ġfail ures
ĠA UT
Ġis ometry
vi olet
TH ER
FFFF FF
Ġoptim izer
R N
Ġh older
Ġbehav es
hy dro
Ġfid ucial
ĠD ifferent
ĠM ach
Ġimportant ly
al ways
ĠÂ »
' )}
HO ST
ĠI MF
ĠClo se
2 16
Ref resh
bib item
Ġgeodes ics
Ġ" --
Ġorbit als
Ma jor
an no
mod ifier
' ):
B g
Ġcod imension
Ġes tate
ĠD FT
Ġmul tic
IN TE
ĠK illing
Ġcoup les
Ġ\ [\
Ġtransp ortation
bar s
Filter s
diff usion
20 6
Ġmer gers
ĠFro benius
2 12
ĠD onald
' _\
in voke
th al
Ġr u
2 75
Ġup grade
s ound
ble s
Ġjump s
Ġc au
ĠP SF
ĠD NS
ĠB ERT
super script
s and
de veloper
R V
par sed
sec ure
Ver tical
Con figure
Ġsub strate
Ġmanip ulation
Ġ ly
- (\
L im
sto chastic
. ).
f box
AR K
Ġl uminosities
n z
= &\
We ek
col n
Ġgu y
ar o
ĠS ER
="@ +
Ġaccompan ied
Ġsophistic ated
sw er
Ġre po
ĠN V
Ġpro fit
Ġas ks
Ġse g
Ġmultip lier
field set
ĠS top
M n
g cd
*}[ !
ĠInter face
E OF
j l
}| ^{
Ġpublic ations
Ġad vent
ex ecu
Ð¾Ð ´
Ġcomp ound
Ġdoll ars
g d
ĠNO TE
Ġt ub
Ġmemb rane
Ġpas sion
Ġdig its
[ _
)} -\
Ġf ron
Ġback end
W T
Th rows
window s
Ġin novation
UN K
ver si
dete ction
ĠColumb ia
ĠE ric
ĠNetwork s
0 30
c ourse
19 61
Ġreview ed
Ġphenomen ological
ĠAn aly
\ })
Fil ename
ĠTele scope
Initial ize
ĠS ong
mon ot
sg n
Ġf estival
nit ude
Ġ' [
Ġinfinite simal
Ġe c
Ġ! !
Ġl l
ĠR og
pos sibly
ĠOx ford
V el
ĠCo ast
] /
Ġde formed
ni k
ro se
ob servation
si zed
x u
^- _
ĠMedic ine
App Compat
ĠIN T
ĠB at
tensor flow
li est
Ġf ired
Ġ($ (
}\, {\
Ġfib re
0 12
Ġin cur
Ġve ter
fol ding
Attach ment
() `
, ~\
p seudo
ĠPak istan
g f
Coun try
e lect
H orizontal
xi ma
Ġregular ly
Ġst roke
Ġa ds
17 3
Rec ur
iv ariate
Ġc ascade
ĠC I
Ġme ets
cr umb
hed ron
o y
Ġ ^{-
ĠA ni
Ġf ly
Ġlo gs
k b
}} }^{
Ġdiv iding
Ġimpact s
Ġho pping
T LS
ĠP E
sub Nav
ee a
ĠTh row
Experim ents
b la
te p
Ġmodel led
es sibility
ĠPol ice
ach use
w ich
ĠIs lam
post s
S ources
Ġmove ments
ech an
Im mutable
MA IN
ĠP erson
Ġis omorphisms
20 7
Re vision
Ġtemp or
Ġpick ed
ĠEli zabeth
17 1
Ġ{ *}
L ee
Ġdiffe omorphism
@ {-
Ġhyper surface
ĠB inary
text sl
19 30
Log ging
Ġcallback s
check er
ĠFrame work
ĠU AV
Max imum
ĠPol y
==== =
Ġ) ^
Ġan tis
Ġev olving
Ġst ops
Pri mitive
iv ot
Ġprox imity
ĠSan ta
Ġar ts
15 00
Ġpec uli
ti ze
ops is
G K
Ġs oci
Ġexplor ing
yn olds
achuse tts
ĠH z
em ission
Ġhel ium
Ġcomb ines
Ġadjac ency
ĠF ast
T OO
Ġrecur sively
^^ ^^
h b
Ġresid ue
th ur
Ġsh ut
Ġhous es
Ġtra dition
ed a
ĠG TEST
feed back
Ġfit ness
command s
Ġdelay ed
Mix in
d an
f lip
rep ly
Ġgo og
Block ly
Ġin tr
ock ey
Ġhighlight s
S everal
Ġg reedy
Ġpo oling
ĠS elf
Ġmorph ology
ĠLy apunov
max cdn
ta king
ti ans
Ġph rase
Ġn ic
adap tive
CON NE
IT S
Ġpri mes
ĠCONDITION S
---- -
MA G
}/ {
ch ap
Ġa imed
Ex act
Ġnumer ic
Ġcl arity
Ä į
LE VEL
own ed
ĠCh rome
P unct
uni versal
end ers
ou lli
Ġpron ounced
ĠCon stra
Ġhand lers
RET URN
Ass uming
S ender
Be havior
Ġastro physical
L ER
] },
Ġexc iting
ar x
Ġb anks
Ġhealth y
h fil
b ach
ob server
Ġextra po
Ġa mazing
Ġcon form
an es
Ġass ist
Des ign
ĠL ang
Sh are
Le g
sipa tive
ĠT ro
PO INT
19 4
Ġsti ff
ĠH un
Ġspont aneous
3 25
Ġb unch
En code
Ġplan ts
19 40
Dav id
ar Xiv
Ġgu est
âĢĻ .
re store
Ġh ull
)= {\
Rec ent
Ass ignment
al one
Ġsur gery
Ñ İ
Ġf rust
Ġh air
ĠM Hz
c id
sur faces
S ink
ĠBA SIS
S td
Ġellip se
ĠF ox
o ol
ĠG er
Ġpr uning
Ġacces sed
Gate way
ĠD ub
Ġper mitted
18 7
Ġinj ury
ĠRes et
Ġgradu ate
te am
st mt
19 20
cur r
M ount
å ľ
="# ">
Ġ' {
DI RECT
tite m
el ve
PI O
Ġco in
Ġp ictures
Ġimp osing
Ġint ense
coordin ates
Ġob sc
0 22
de ps
Ġs ed
28 8
co hol
Ġreprodu ced
Ġcontext ual
Ġcur ved
Ġo x
net t
iz ard
ĠT E
mor dial
Ġmu tation
ĠE r
ĠV AR
TH E
ĠValue Error
+ {
W ave
Ġachie vable
ĠCan cel
so id
Ġw a
Ġro oted
Ġin homogeneous
Comp ute
og on
> ../
ph on
De faults
Ġpol l
ç »
de z
DE LETE
redsh ift
ĠR en
HAND LE
til lation
Ġp ad
Ġbenchmark s
}) ^\
Ġjus tify
Ġvalu ation
Ġdes ire
Ġas c
bu la
Ar tifact
Ġinter active
Ġbl ur
ant ine
R ic
ĠO UT
es sible
User name
She et
ĠCh em
ĠSt ory
pos al
ĠB attle
Work flow
Ġ< ?
16 2
ĠW ang
ĠW atch
[ ];
ĠSo bolev
al ph
Ġfi xture
O s
re ject
Ġdate time
Ġcal endar
be hav
LI B
Emit ter
"> &#
(" <
mt x
Ġbir ths
s leep
en ium
Ġin form
Ġco okie
ID S
min or
Ġfra gmentation
Ġc ensus
be it
Ġtransform er
Ġerg odic
C lock
D up
Ġgran ts
jec ta
Ġparametr ized
am an
ĠD MA
) }_\
ĠC ulture
Ġvis cous
Qu antum
Pay ment
Vari ables
M i
ni o
ĠN umer
ĠNe ural
aw n
math ord
In ject
Ġs igma
Ġd f
Ġcontinu ing
e vi
In str
v id
Ġwin ds
}} &
20 9
Ġden oting
interpre t
Ġtra cing
{\ ,
oding er
ĠIn tel
lines kip
child node
S ound
ST AR
ĠF r
ex clude
3 45
omp son
Ġf asc
Ġeigen functions
c apacity
ĠEd ge
Ġun usual
prevent Default
âĢĻ ,
Ġpion e
Ġframework s
Ġinstal lation
s ay
Ġlo ved
ĠK epler
J aco
Ġse at
Ġ$ >
fin ish
^- (
y le
inner HTML
ĠK al
hic le
N il
re ets
hier arch
ma de
Sta tes
ap or
Ġla b
^* _{\
Ġemo tional
lu sion
Ġfile d
appro ach
end ment
decre asing
os phere
Pay load
}{ {
Ġphiloso phy
ĠSD L
me try
ĠP riv
ĠH ausdorff
Ġpoor ly
Ġshort ly
B ri
17 8
Ġfor mats
ĠIn cre
ĠObserv atory
! }\
st ries
Ġcomp eting
ĠIll inois
Ġsoldi ers
Ġeccentric ity
] ^-
ĉ ĠĠĠĠĠĠĠĠĠĠĠĠ
ds on
}_{ [
he v
Ġf iction
Ġcur l
press ure
Ġsepar ating
Ġre act
) })\
Ġt uples
ĠK ent
inter acting
Ad ditionally
Ġd jango
be en
Java Script
Ġcell ular
Ġlock ed
ren ces
}} }(\
ir ms
structure d
type param
Fat alf
e h
w en
Ġholograph ic
* >
Ġoptim um
ĠIP v
ĠM T
Ġpres cribed
ĠB as
ĠS olar
0 75
E A
ãĥ ¼
u j
Ġs eq
}^{ *}
K T
Ġb lank
pe er
rr bracket
oper ations
open api
Json Property
ad van
ĠAg ency
ĠCamb ridge
v l
Ġport folio
Ġappro val
olog ist
Po isson
ĠBOO L
c B
de li
PAR AMETER
res ted
E mbed
Ġg a
Ġhapp ening
coll ision
APIENTRY P
Ġd ummy
ĠCl inton
se ver
Ġemer gency
Ġsur vive
get Text
Ġre wards
ĠĠĠĠĠĠĠĠĠĠĠĠĠĠĠĠĠĠĠĠĠĠĠĠĠĠĠĠĠĠĠĠ ĠĠĠĠĠĠĠĠĠĠĠĠĠĠĠĠĠĠĠĠĠĠĠ
S tyles
St mt
ER N
Abs olute
stitu tion
H V
ud ents
Ġprev ents
ĠA zure
ival ent
ãģ ®
ing ham
ĠA ge
ro g
Ġhyper parameters
effici ents
}} }_
Ġc lic
Ġmis s
Ġintersect s
ll bracket
ri ends
mon y
ĠR od
pa int
Ġdeep ly
Ġsequ el
f req
f onts
AC HE
ĠAff airs
Ġlo ose
Ġhon or
y aml
Ġenc rypted
Å ¾
mon itor
Ġin spect
ĠS TR
eman tic
ti se
Ġaltern ate
in ecolor
Ġobe y
row ave
RE AM
}_{\ {
ĠGal ois
Cho ice
å Ń
App ear
Ġo d
G UI
ĠB ang
car bon
Ġ( );
* .
C apacity
s napshot
member NameLink
Ġ ut
Ġin dividually
Ġconf inement
Ġfac ing
Ġma intenance
Ge o
du ality
Ġra c
ĠW H
Tra ining
extra ct
ok er
Ġcut ting
h ist
ver bose
. ";
}& =\
Ġtit les
station ary
Ġto ggle
Ġher self
Ġeigen vector
Ġw inter
P ACK
CON ST
ĠSet tings
dial inecolor
lect ual
F ROM
esti mation
row Color
Ġelect roweak
Ġteach ers
Ġp unct
Ġd B
T oggle
c z
b ands
() ]
]{ $\
ĠMod al
p ow
ĠIn dic
Ã ±
string ify
> ';
Inst ances
By Name
GLE W
ĠG LE
Un able
Ġful filled
Ġa wards
ĠG ene
cc i
Ġselect s
Object Meta
, +\
Eq n
Ġbenef icial
Ġwal king
equival ence
ĠF ried
}) )\
String s
Ġsatell ites
, {
Q T
S FR
Ġexplo iting
tific ates
ĠP lace
Ġc ameras
Ġev olves
Ġmis match
grad ation
Ġde ferred
Indic ator
h int
te or
g am
{ ``
clu sters
With in
c ry
ĠS ave
Ġres olutions
Ġen forcement
mathb old
cyc les
PROPERT Y
] ];
ĠB ible
bf series
ul s
sp lice
Ġpre domin
* [
C ut
if ference
ĠM ah
Ġassign ments
Ġshock s
ĠL ik
Ġdis app
alax ies
len eck
fav icon
Ġun clear
g ences
row se
Ġh ist
al led
D N
unic ations
Reg ular
S PI
}+ {\
O h
Ġwork flow
Ġlinear ized
Ġoptim izing
. #
qu anti
ĠPro tocol
B on
Ġk illing
ey ond
Ġ& :=
Ġalpha bet
g ui
TO DO
Ġre formu
ograph ical
ĠB orn
ĠCON FIG
ĠChris to
Ġintui tive
Ġ\ {(
ĠC red
MP TY
ou ville
Ġgra sp
Ġref uge
Ġ( ``
Ġemer gence
Ġwatch ing
Ġh all
{ ,
text superscript
Match es
Ġemploy ee
per mission
Ġdestr uction
ĠMo ore
ĠRe lease
Ġback bone
}| _{
in herited
Ġre use
Ġre pair
H ide
PAR AM
quo ted
pp y
ĠH ong
Ġdec imal
Ġcatalog ue
}] $.
Ġazimuth al
Ġin formed
Ġplau sible
Ġapp oint
Ġvo ters
uzz y
Ġsuper gravity
}^* \
B st
v ic
Ġmis sed
g ly
lu a
Ġsmooth ness
2 33
Ġwas te
)=\ {
Ġ} ));
; -
Ã ¥
Ġa ster
er ts
ĠSta ck
d ummy
Ġconn ects
ra it
theore tic
Ġdecay ing
Ġspeed s
star ting
="# "
Ġgovern ments
D ash
ĠIn stance
asympto tic
Tra its
Ġre m
H aving
}. \\
Ġexclu sively
c ould
Ġop tically
Ġparse Int
Ġadequ ate
ILE D
Ġexp ects
Con struct
pri or
W IT
>> >
). \]
è ¡
Ġcur rency
F ire
Ġcros sed
be at
ĠM iller
domin ated
Character Offset
c nt
ci ties
Ġmedic ine
Ġ! (
en coded
Ġm oral
No tes
}$ \,
Ġconsum ers
ĠR S
}+ (
Ġr ural
follow s
> ');
ĠRe volution
Ġview ing
OP ER
Ġlept ons
S ect
~ .
ic z
: ]
b end
SE C
() }
sl f
Ġaffect ing
c apa
Ġt une
r ics
Ġth ir
ĠF inal
Ġ um
ĠD utch
in str
UM ENT
Ġ"- //
Ġnewspa per
D ry
Ġch amber
18 2
". /
et ched
re vision
Ġreg ulations
Ġhyper plane
Ġc lon
cal ling
ĠD ra
Ġpolytop e
Ġutili zing
q p
Ġf at
lo be
Ġvi able
h on
{\ '
Ġoper and
Ġregister s
Ġen titled
vec tive
Ġc ited
Ġhouse hold
sur vey
Ġhe ap
Clo sed
per m
Ġcent roid
d in
out ube
Ġquadra ture
ĠH om
ĠInter estingly
b az
pro fit
Ġcondition ed
ĠJe an
ĠHamilton ians
F V
M obile
Ġsc oring
ĠPh ilipp
ĠSp orts
si ans
Thread ing
Ġcompens ation
thes ize
Ġimm ig
H s
en ant
---- --
ĠComp arison
ĠG T
co ck
CON F
Ġind ent
Ġindic ation
IS O
ĠF E
ĠW is
)= (\
Dec ode
Ġsec re
F ar
Ġvor tices
ĠM obile
bad ge
M iddle
ĠO THER
S ug
Ġtimes cales
C os
Ġleg iti
Ġdiscuss ing
std out
ĠTor onto
Ex change
Ġdra s
w avelength
re lations
ĠN az
nos cript
Ġasynchron ous
ĠH ay
Ġpopular ity
ĠTh anks
For ward
an non
Ġsyn chrotron
k le
Ġpos es
rows ers
local s
External Task
16 1
Ġinvest ors
ĠP layer
ĠAr ticle
LE D
Ġcross over
incre ment
ver ty
Ġran ks
po les
Ġredund ant
ĠD oug
Ġstri king
Ġcalib rated
it ro
ĠP P
Ġrefer ring
sc ience
Ġnon local
AB C
}. \]
co verage
Ġep ide
6 25
ĠHe ader
:: $
Ġde lays
Ġplugin s
Ġh osted
Ġ@ @
Ġrecur rence
ĠĠĠĠĠĠĠĠ čĊ
Ġvio lated
read crumb
}\ {\
Sh ell
D W
Ġbeh alf
Tok ens
Co ins
Ð ¹
); \
Ġlink ing
ĠPack age
ĠIter ator
Ġdra ma
ĠSh ared
lass ical
Ġiniti ated
C W
ĠF ood
ĠW at
h f
}, $$
}[ {\
ĠB L
cer tainty
IR T
ex ci
Ġf ruit
po on
Ġsub system
lustra tion
he alth
small er
Ad ded
Ġtro ops
Res olve
ĠA udio
Pres ent
ĠMass achusetts
ĠHol lywood
get Key
/ </
Ġcol ours
R x
Ã º
arab ic
ĠIn tegra
unit Pattern
Ġrender er
Lo ss
it eness
(" -
ĠAf ghan
Pub lish
activ ate
Ġs lices
MA KE
ĠĠ ĉ
18 9
ay a
min ute
Ġav o
en sitive
Ġper ception
Ġir regular
Ġadap ter
cut s
Qu estion
r ise
ĠI MP
ĠDav is
c O
C lip
Ġg rounds
eng ers
F our
Ġinvestig ating
Ġsaf ely
Check er
triang ler
es tri
q s
2 90
ĠTH IS
umin ous
Ġra in
Ð¾Ð ¼
Ġpr inted
Ġab bre
at op
th a
ak ov
n umbers
Ġpush ed
ĠI ma
ĠF P
FLA GS
Ġ} }\
ĠM ust
ĠP attern
Ġd Ã©
u y
Man if
ĠHol y
ĠE th
Ġconjug ation
Ġemo tion
reg ions
ĠC ro
ar on
B and
r hs
/ %
A CTION
Ġemp irically
> )</
align ment
mag ne
ĠR ome
\% }
rep rene
Cho ose
Ġcy lindrical
Ġd ry
Ġneu ro
l k
ĠW ait
Comp osite
= |
ĠF loat
ĠPh ot
y arn
ĠH essian
show s
Ġgraph ical
................ ................
Eng lish
id o
}) |
Vari ant
Ġstrong est
L earning
oco mple
Ġsuffer ed
ou lder
ĠS ho
ĠF I
ge om
Ġsw im
V IEW
mp ed
dire ctive
Uni versity
AS C
ui tively
Ġconfir ms
R TC
Ġinv olution
STAT IC
Res ize
Ġsim ilarities
H int
Ġn ations
sta bilities
Ġmin ority
Ġestablish es
00 9
LE FT
P RL
T ip
Ġquan tized
ĠMod ern
mo lec
Ġfeat uring
d type
17 9
ick s
Ġshe aves
Ġc ult
t rees
Ġrela tivity
At A
pub lished
+ }$
per f
ĠChar acter
c tives
Ġsc ratch
Ġtack le
El se
0 13
Ġdisc lo
xx x
ĠB O
el son
ĠBo oks
ĠH ost
ĠB OTTOM
Sub mit
ĠEv ents
)) _{
Write Line
ic ide
la del
}^{ +\
Ġd ans
ĠTemp late
glu on
M il
Ġre form
Ġstri ke
Multi p
Y ang
Ġcry stals
âĶ Ģ
ĠO ri
16 3
Ġtravel ing
Ġb attery
ĠP AR
ĠB rowser
Ġaccep ts
or acle
Im g
lear n
df n
Ġm ess
ĠM ET
ĠH or
product s
Ġsat urated
Ġh int
equ ality
ĠT an
Ġqu iet
dim en
. ),
Ġdie lectric
d S
He ap
})$ -
ĠAt omic
Ġch ip
get Property
Ġ æ
sta tistics
rac le
Ġdedu ced
odrom y
Ġquas ars
Ġcorrect ness
Ġs av
ĠS PI
ĠF red
ĠG A
Ġset Timeout
}' (
ING S
NE L
ĠC ell
Ġany where
H am
si di
ĠGR B
le igh
Ġany more
ĠA stro
Ġincorpor ating
ĠC MS
Ġadv ances
Ġmathema tics
Na N
f h
L ap
/ '
Ġdiscrimin ator
3 40
Ġf ibration
Ġd ance
lic ates
Spr ite
ExternalTask Pojo
ĠBu ilding
pla ced
Ġpe ers
Ġd w
Ġs now
v d
Ġout standing
Ġpro test
IN PUT
comp ass
eler ation
C ov
Ġcon verse
E F
Ġout liers
radi ation
Ġemer ge
Ġintersection s
Rad io
Ġthe sis
Ġinten sities
}\ }$,
Ġ ì
el led
s it
ĠS till
ä¸ Ń
Ġaware ness
S y
âĢ ĥ
23 7
bo ss
Ġcho oses
pro cal
tit udes
O H
Ġpass phrase
Gra dient
chem ical
Ġ ))
Ġth erm
âĢ¦ âĢ¦
Ġ\! \
Ġci pher
ĠH al
Ġmonoton ically
end region
L ife
ĠType Error
" ][
0 24
distingu ish
18 3
Ġexplo ited
ĠA LL
mm ode
Un its
n ets
Ġimp lication
Ġcommunic ate
ĠQ String
copy right
Predic ate
B esides
ĠP lugin
ding er
Id entif
D ER
an ni
b rew
Pa int
clu ding
F oreign
scal ed
$ }{
re action
ĠA str
ST O
Ġmultip lying
Ġiter atively
Ð¾Ð ±
fa ction
Ġrare ly
Ġv ibration
b z
Ġ$ *
k v
bos on
ĠH ur
Per missions
em er
Res p
New s
Ġrecommend ations
C y
Ġmanufact uring
2 15
Ġh i
Ġbe ar
AD DR
Ġthous and
p tive
b X
Ġdis connected
-> {
ĠS cript
plan es
nice frac
D ump
c od
te ad
R en
ĠG ree
Rece iver
Ġface d
Ex cel
Ġter ritory
ĠTrans former
) }^{\
Ġt ar
i q
h it
ĠR A
Ġw ake
up iter
Ġpop ulated
Ġexec uting
Author ization
evalu ate
ĠV a
om ent
E instein
M icro
Ġphys ic
Py thon
Ġcos ine
j it
s creens
Ġ} ^{\
Ġbelie fs
ia o
ordin ary
: {\
om ics
W illi
Ñ Ħ
ĠC reated
ladel phia
Ġcontain ers
oci ate
ĠW ars
k el
Ġun biased
Ġinter stellar
Ġour s
Ġinflu ences
re ll
qu ick
36 5
lat ure
Ġhash Code
ĠAd ditional
'' \
Fl ush
bu ilding
Ï Ĥ
Ġcon es
Ġm k
Dis able
ĠComp ton
P ad
Ġbifur cation
Ġbl ind
ĠD S
Ġsub script
Ġact ress
ĠLa ure
CL K
ĠO nt
ĠTrans action
Ġtell ing
An n
Open Tl
in sp
first row
Ġsla ve
Tran sp
? </
Ġfila ment
In clude
if mmode
ĠE S
ĠDis play
19 45
') ).
ĠV M
Ġ( +
Ġ" :
ĠLin coln
Ġad ults
Un lock
expon ential
ĠBit coin
w r
Ġ@ {
ĠT ony
Ġ' )
ĠFin ancial
ro ut
ens tein
ik es
ĠÂ ·
Ġelectric ity
S at
Cre ation
triangler ight
Ġblock ing
Ġvirt ually
Ġavo ided
ak ed
d id
um ni
ĠCh ap
alla x
Ġ{ })
å ¯
pie ce
ĠCollection s
i vers
Ġmon oidal
ĠL A
Ġinf ection
si o
Ġend owed
å Ľ
Ġd type
dec oder
gin es
Operation Exception
ĠGovern or
A mazon
( ",
li a
Ġ// -->
G uid
class ic
e i
o z
can not
Ġpro ud
Ġback up
Y M
Kn own
Ġcompact ness
ap ore
esti mates
Ġcontact s
s low
acc urate
ĠTrans form
sp er
ĠBay es
, *
Get ter
& -\
i per
Ġtrans lates
ĠComple x
5 50
} "/>
Ġhouse holds
A lex
ra mid
ĠGL float
Ġconvex ity
Ġm ount
ĠCirc le
ĠH R
dete ct
Ġgra de
ĠĠĠĠĠĠĠĠĠĠĠĠĠĠĠĠĠĠĠĠĠĠĠĠĠĠĠĠĠĠĠĠ ĠĠĠĠĠĠĠĠĠĠĠĠĠ
Ġsurpr ise
Ġderiv ing
ĠA ST
ĠE R
ĠK err
TO P
Ġavoid ing
ine ma
Ġat tract
ĠV I
is ible
ĠV ice
Ġmaxim ally
Ġorbif old
] }{
cent ric
Ġminim izer
la tex
Fig s
= {(
}\ |^
Ġc ru
Ġti ed
Ġrect angular
put y
Ġpo verty
DO WN
8 50
NO WN
19 1
Input s
e ah
18 6
control led
Ġeng age
B ern
o vian
ĠChampion ship
thread s
N ational
Ñ Ī
Ġ( <
ĠJ oh
Ġmeet ings
%%%%%%%% %%%%%%%%
du ctivity
K D
Ġsta ke
+ -
e z
b ank
0 100
Ġme mo
Par ticip
Ġl in
ĠCo oper
ĠGra ss
ĠM SE
Ġde t
ĠD est
Ġserial ized
Ġb lu
ĠP ear
Mar shal
Ð½ Ñĭ
Ġpay ments
Ġar ranged
node Type
Ġin evi
get ElementsBy
Ġdra matic
Ġinstitu tion
ĠConst ant
ĠĠĠ čĊ
ĠConsider ing
ĠH A
Ġr v
Ġad ult
d R
Ġingre dients
ĠĠĠĠĠĠĠĠĠĠĠĠ ĠĠĊ
Ġemphas is
ĠL ICENSE
pro cessed
ter ritory
Ġx hr
ĠMe mbers
Ext ended
Col lector
me th
N OS
ĠT X
hi bernate
q t
}. )
ĠEgy pt
Ġ ÑĤ
=- =-
Ġanomal ies
con volution
E B
c R
ĠAn ti
ĠS tation
ĠR om
ĠM F
ĠAcc ount
Ġmultip ly
ĠAd vanced
ĠIn it
if ford
D H
) ],
Ġaccomp lish
node Name
Event Handler
ec ke
expan ded
Ġstart up
V oid
C lone
Ġgu ard
Ġcapt uring
Ġdise ases
ĠLag range
Ġlo ts
19 59
Ġx si
c amp
,\ ,\,
Arch ive
}}$ )
6 55
Ġb t
ĠD ATA
Ġweek end
ĠO B
L ip
Ġtran sitive
Ġcog nitive
> ()</
K im
ST D
ĠC ox
Ġ/ ></
ether lands
Ġcoun cil
Ã© s
c S
Ġintegr and
c T
Ġpri mordial
Ġch ap
AT T
Ġdata bases
wide text
Over flow
thin space
iz ability
Cur ve
& $\
ĠV olume
Op ts
reng th
Ġs oc
Exp and
op tical
Ġchar ts
iel ded
ĠFe b
l ift
Ġsp oke
30 2
Ġide mp
Ġdiv ides
Ġobsta cle
ĠM icro
Ġpre mi
P V
g ger
}}$ }
la unch
\{ (
ĠCon versely
ol y
Ġaddress ing
Ġmaxim izing
32 1
polar ized
F atal
ĉĉĉĉĉĉĉĉ ĉĉĉĉ
A f
G I
S olution
ĠCh en
po si
Ġup coming
OP EN
^* )$
ĠP ic
ĠT ok
ev t
th anks
G old
Ġse asons
Ġ) {
C odes
Ġtor que
ĠM IN
r us
Read Only
it arian
Ġ[] *
Ġmath e
Î ¼
un safe
Ġdesign ing
Ġqu iver
^+ ,
ĠTr igger
Ġin consistent
ĠI ce
ĠTur key
T IM
.. .\
ig e
M V
ĠT ables
bra ins
ĠTra de
Ke ep
ĠPh oto
ĠPol ish
ĠD ynamic
Ġiso lation
Ġf rozen
rit ten
t in
Ġar rested
Ġdesign ated
Ġw ins
ul ly
ĠF IX
ĠLemma s
Fin der
lan e
Ġhead ing
ĠCom ment
iz z
Rec ords
ĠData set
ĠMc C
Ġs entiment
Ġb ow
ĠBe ach
fla sh
sh ader
W ARNING
Ġv ital
ct l
ser vers
ĠWh it
W ords
[ <
level s
gather ed
lat ory
Ġbelie ves
complex ity
Y S
Ġprov ince
ff ee
cri ptions
Cat alog
p edia
ĠSub section
oxy gen
p rom
40 3
ĠRes ources
Ð½ Ð¾
ĠMC MC
Comm ands
ĠH ou
Ġw elfare
'' }
os ph
Ġanaly se
IF Y
ĠH odge
Ġiso late
p orts
measure ment
> ',
Qu ad
measure d
C ached
18 1
Ġconcept ual
Indic es
ĠG B
ĠP DE
]{ .
syn tax
ĠĠĠĠĠĠĠĠĠĠĠĠĠĠĠĠĠĠĠĠĠĠĠĠĠĠĠĠĠĠĠĠ ĠĠĠĠĠĠĠĠĠĠĠĠĠĠ
b R
K G
} ]{
Ġslo pes
track ing
ĠSw itch
t om
spec tives
Ġreservo ir
ho ff
Ġshould n
^* =
Qu an
ro ach
war ding
p referred
" +
lu c
dis p
Ġdistribu te
Q UE
ĠL IMIT
ĠR and
fact ors
Ġe jecta
Ġsimple x
Ġreflect ing
con cept
I r
ĠAn th
Cla use
T B
Ġcour ses
b enchmark
star ted
}} }_{
for th
ĠI mages
Ġsingle ton
Ġin hib
ĠA dap
19 58
Ġtr iggers
Ġcop ied
} ].
Ġrenormal ized
L ive
Ġs keleton
get Data
$ |\
ish es
ĠW igner
ag on
}/ {\
ĠFoot ball
Ġp lastic
mu tation
Ġany way
Ġbar riers
ĠL inux
Ġsp ans
Ġdip lo
0 14
ĠExt ra
evalu ation
ta p
Ġdra matically
ĠBel ow
Ġal ive
cross ing
Ġtal ks
ĠCO MM
I MAGE
NU MBER
O ct
D ao
Ġno tably
^{* }$
Ġ )}
en table
list eners
ou ri
t ens
filter ed
ĠR u
D an
g ol
ĠCont roller
Ġpartners hip
Star ting
ĠR os
)( -
cccc c
Ø ³
Ġmask s
for ge
Ġreti red
Ġpartition ing
7 20
Ġde x
c aus
ar able
Ġres is
po thesis
st ery
Ġpi pe
Sim ulation
}) ).
ig ator
Initial ized
Ġd yn
}\ ;\
F ront
ap ing
_{ [\
Ġun w
ĠS hi
dep loy
ĠGib bs
Ġgenu ine
U PDATE
bit coin
Ġinc idence
) ].
Ġs ali
Ġdire ctive
}^* (
Ġtermin ation
c am
e ter
Dec or
ĠW ild
Ġ' ../
}} )$,
ĠAn ton
Suppress Warnings
ob jective
Ġ" (
ĠCheck s
t up
cite alp
ĠEcon omic
ill en
Ġs ty
Ġcre w
ĠB or
to on
ĠBer lin
_+ ^
x d
occ ur
Ġenga ged
ĠDes cribe
Ġs lots
log ical
Ter min
f ive
ĠKe ep
ĠB ody
si vity
En t
æĺ ¯
Ġactiv ated
teen th
a belian
TR ACT
Ġaccess key
S us
en ko
Ġspecial ized
ĠP I
}} :
ess ment
tw ist
ĠColor ado
ĠCat alog
pro pag
Ġblock chain
Ġf urn
Ðµ Ð»
Ġsc ored
La unch
Am ong
d am
out line
incip le
Ġref id
Sch warz
Ġass istant
Ġcons texpr
Ġsol o
Ġattach ment
Ġflav our
T ele
h az
In te
restr icted
Ġev al
ĠEar ly
ex e
Ġ( ((
pos able
ĠImage Net
ĠBlo ch
m ol
um ul
) &=&\
Ġs elling
int ent
ĠMean while
Ġattra cted
Ġ\ >
Ġsuper vision
ĠAl loc
Ġconven tions
inter section
Com ments
Ġalloc ate
C OR
\ ":
Uni ted
Ġsimpl ifies
ich i
ex ceptions
Ġindic ators
Ġenjoy ed
Ġref ere
P IN
ĠH RESULT
ĠM g
Loc ator
Ġcomp ounds
Ġrever sed
ĠComp ared
B AD
ĠL ady
19 57
Ġro bo
pp le
ĠD ocker
con clusions
Ġelimin ated
k al
ĠĠĠĠĠĠĠĠĠĠĠĠĠĠĠĠĠĠĠĠĠĠĠĠĠĠĠĠĠĠĠĠ ĠĠĠĠĠĠĠĠĠĠĠĠĠĠĠĠ
Ġcolor ing
ĠS ql
ab b
ĠSe lection
Serial izable
olog ists
ĠF o
Type Name
N evertheless
Ġrandom ness
Ġ ^\
is Valid
coup led
A MS
W F
ĠCon jecture
198 87
Ġsuc ceeded
C LE
}}\ ,\
Ġob lig
sim ir
ĠS cal
Ġte en
& (
xi om
0 50
( @"
m illi
] >
ire ctional
Ġfin ance
ĠC ohen
Ġreg ulation
VER TEX
h ill
}$ (
ic it
Ġaccomp any
ogen ous
ĠL ewis
ĠD id
ĠDo ctor
so ck
Ġion ized
ierarch y
Par ty
W P
Ġ Ø§
Re lationship
S il
30 3
AS P
m og
Numer ic
as ta
top ology
aw iki
Ġid s
\,\ ,
Ġh un
ĠPro b
Ġpers istence
Draw able
ti ff
Ġcon ce
Ġaut omorphisms
Ġagree ments
)\ |^
à ¥
View s
rac tical
ĠQ t
Ġm ine
pan ic
ENT ER
> *
Ġdo cker
Ġde gradation
ĠN orm
Ġaltern atives
st ory
"> {
av oid
ĠGener ic
A J
ĠConstitu tion
ĠB ridge
Ġsta ys
ä¸ Ģ
ick ing
ID s
W est
Phys ical
Ġ ub
ĠR H
)} |
Ġp uzz
1 200
Res olution
ĠÐ ¼
} &=&\
Ġa st
ou theast
[] [
ĠT es
Link s
3 80
od b
ĠOffic er
h dr
ĠN um
8 75
ol ars
ĠW el
char set
Ġhealth care
Ġextract ing
ĠR NN
Te am
n ell
Ġpresid ential
j ets
Ġwith draw
ĠCal led
ĠP ra
ĠL ocation
Ġkn ots
^+ $,
Ġman aging
medi awiki
Ġt ens
acknow ledge
ĠT S
Ġvis its
Ġprac tically
TIME OUT
ph ony
lic h
Ex ist
C he
Ġdup licate
Ġrest ored
Ġensemble s
Ġold est
order s
Ġz ones
ĠSte phen
D K
bm od
67 8
ĠMy r
Ġreference d
zon a
ĠH ung
Ġdepic ts
in side
Ġsol vable
Ġwh ilst
ĠLay er
ĠM ask
^+ }
ST EM
Ġadverti sing
Ġaxi oms
ĠIs lands
con jecture
(" [
Ġh otel
j ournal
=\ {\
parame tr
ĠF an
^+ _{
Ġrescal ing
I FI
Ġg fx
persist ence
P ull
ĠSh ape
Fin ished
ĠD ES
So ft
ÑĢ Ð¸
Ġs or
qu is
decomp osable
4 75
Ġ$[ -
ĠD y
Ġminim izes
Ġparticip ant
Ġo cean
ĠE ver
ref ox
Ġanaly sed
Ġfor bidden
ĠGLE W
in j
ĠF F
ĠApp ly
Hy per
ĠP latform
Ġun seen
Ġs alt
}} ),
ĠCho ose
Q P
c rypto
Th ird
}] $,
U TE
ĠValid ation
ĠCombin ing
USE D
ĠLabor atory
Ġla titude
ĠS B
c py
l q
++ ]
F r
S lide
)) ^{
H iggs
Ġper c
At tempt
Ġexpla ining
Ġt body
de cess
quad ratic
Ġsmooth ly
Ġun safe
Imple mented
Ġco medy
Ġconstit utes
ĠBut ton
f ted
f li
M ULT
tiv ated
rop ies
Ġvalid ated
Star ted
ĠDis ney
ĠRe ynolds
C rypto
ĠM ode
Ġ$\ #
order ing
({ },
ĠTra ck
jet brains
) ',
">( </
F ore
Ġex clusion
Ġsome how
Http Request
in frared
ob servations
================ ========
Ġrein forcement
ven ted
supp orts
Ġcor ruption
Experim ent
Ġcol laps
ĠBro ther
Ġb a
Ġn om
den oted
wh el
jec tivity
C are
0 20
Process ing
Ġch ir
Ġdouble t
Ġshoot ing
Ġto y
=" '
ĠMay be
dis per
ar ts
ers tein
Par ticle
ĠSto ck
] ));
_- $
R W
Ġla d
DO CK
Ġfe asibility
Ġhas n
Ð°Ð »
simp l
ch ant
Ġsk ill
b right
Ġh ack
Ġacc ounted
Ear ly
Ä ĥ
39 30
Sw ift
f u
Ġra ising
imp licit
SY S
pay ment
Ġcollect ing
ĠF LA
Ġextra polation
ĠMo on
' }),
ĠRE AD
( <
ti que
Ġm ent
b A
Ġf m
FLO AT
Ġpresent ing
R B
m irror
as er
Ġestablish ment
ĠDe ad
Ġdisc s
ĠSim on
U K
In voke
Ġac tively
Ġval ley
dim s
Ġp orts
ĠLink ed
Ġre tained
get Default
ext ype
[ (\
i NdEx
ĠL es
pro files
Ġwar nings
)\ }_{
Ġs aving
19 56
ĠEqu ations
Ġmonotonic ity
Ġeven ing
restr iction
or tions
ĠDo main
j b
Ġth umb
Ġs mo
Ġgen es
car ousel
ir t
Ġb rown
n P
ter ed
ĠD rag
Ġconflic ts
GRO UP
=" //
SI C
}, ~\
33 5
Ġon click
f ee
h dots
in sertion
23 8
ĠIn sp
Ġemer ged
Ġrele ases
Ġvi rial
syn chron
19 48
Transform er
Ġbur sts
su it
40 5
Ġguide lines
ĠVari able
Ġh align
Ġwh eel
Ġy r
Ġass ociative
Ġoutper form
N B
Custom er
MLE lement
ĠD un
trans formation
ĠOrgan ization
Ġcons ent
.} ~\
ĠG yr
NAME SPACE
Comp aring
[ ->,
exp ec
Ġmain tains
Ġse eds
ĠFW HM
ac ion
k p
s orted
Ġt ac
Ġin stabilities
ĠS itter
Ġfeel s
ĠM HD
Byte Array
Ġaccomp lished
ĠS VM
Ġuni versities
* -
c X
mem Item
Ġl icensed
ĠU P
ĠNS F
26 5
lat in
ocomple te
l ists
r in
ĠAd ds
Ġc up
ĠPort ug
Ġsit ting
ĠP ART
b io
ĠB l
30 8
D X
Ġm ile
Ġl ifting
Ġpol aris
ĠL yn
Pre liminaries
22 1
23 1
Ġh ur
Ġh az
EX P
Ġc ot
Ġe g
ĠD or
ĠF er
name ly
Ġmon oid
im ination
Ġf old
frac tive
N AS
ric ulum
Ġcondu ction
HEAD ER
æ ī
ĠR C
' "
ress or
ge ms
comp utation
A IN
Res earch
W ire
el la
lin ing
or able
ĠEx pr
O ps
inter op
He ading
ĠTransition al
max imal
Ġgeneral izes
de velopment
ĠDe te
t oms
at ta
Ġcompu ters
Ġgu ys
Ġulti mate
ri p
Ġref ine
id ge
us ually
Instance Of
ĠPri ze
st ock
border ed
Tool bar
p zc
Ġres ort
Ġnar rative
Ġo ps
t ls
ĠDo ppler
Symbol s
dis tributions
Ġcour ts
19 55
Ġprovision s
Ġconv ince
CC CC
Ġsign ing
s cheduler
Ġed iting
ĠSh er
29 5
}{! }{\
@ @
ĠAs ync
Do es
ĠTur k
Ġm illiseconds
Ġla zy
Ġear liest
Ġrep utation
non linear
Ġpredic tor
28 5
ĠCO MP
GR AM
calc ulate
cre ation
si le
Ġpaint ing
Sto kes
Exp licit
ic ations
d og
appro pri
L V
rect angle
signific ant
Ġswe ep
ĠB T
Ġattor ney
est ors
Col ors
Re presentation
box ed
Ġcar ds
Ġeast ern
Ġclu mp
char At
Ġun labeled
Ar ticle
Ro tation
Th anks
)) (
re li
ĠC artan
ac ute
_- (
Ġpro mp
bb on
Sub stituting
over y
Ġdif fraction
mo ving
Ġdebug ging
ĠP CA
e poch
Ġhard ly
loy ee
Ġcha os
Ġad mitted
ĠReg Exp
us ta
(' ../
ĠResp ond
ĠH H
AR M
Ġprob es
to o
< >(
the m
ĠT ax
Ġchem istry
llig ent
19 00
Ġbul ge
Ġpropos es
ĠEV ENT
Ġa thle
Comp ilation
ĠA venue
Ġmark ers
Ġbg color
uc lear
Doc s
n h
P lus
short cut
ma pper
ĠK L
there fore
Ġellip tical
23 6
a head
}| }
Ġinf ected
Ġvisit ors
co eff
col s
tw isted
end o
oun tains
Ġintegr ity
C ube
ĠMax imum
Ġpeculi ar
Ġre dis
Ġsp urious
An swer
Ġn ano
Get String
ĠBro ok
= _
Ġ} ^
t g
Ġwar n
Ġcontroll ers
Ġstri de
ĠD T
[] )
sup seteq
Ġrescal ed
Insp ector
Ġla id
Ġsu ited
Ġfurther more
cep ted
s an
3 70
Ġ ----------------
ull er
ĠSt udent
assert False
M ills
Ġpro c
ĠR ES
og nition
sp ira
Ġtre ating
ĠSD K
25 4
Ġserious ly
math pzc
Ġsub manifold
Ġassign s
Ġsett led
0 35
ĠA x
Ġf ounder
C as
Ġb orrow
Over all
W M
i ang
ÐµÐ ¼
bl ur
wik ipedia
ACCE SS
Ġaccum ulated
Ġsp o
Ġa side
ĠPers onal
ĠWik ipedia
Å Ł
Map s
Ġbutton s
s aved
Ġd ia
Ġex otic
-------- ---
! \!
ĠMark et
Ġh ate
Ġb ot
determin istic
Ġvulner able
3 15
{\ "
Vis it
| )
FO RE
V ars
Ġdemoc racy
D ro
as sump
roll ers
< $
c ence
arg min
OUT PUT
U tilities
r er
om al
mo id
mag nitude
Ġsum ming
Ġt ropical
vers arial
ĠSt and
custom er
Ġtourn ament
Ġdig it
A ctor
comp uter
in tern
Ġre combination
Alloc ator
ĠL ower
network s
Ġat tained
ser if
ole c
50 1
Ġe lev
ĠMN IST
mark et
G i
Ġclean up
, </
Ġra ises
app y
Ġwonder ful
Ġpolitic ians
T oday
ÐµÐ ´
re try
ĠN etherlands
Rec on
" </
ĠH i
Ã ¸
pro g
d os
}^+ $
2 17
loc ations
normal ize
Ġre lic
Ġz ip
Ġis lands
um ar
}} |\
all ing
Get Type
Bet ween
Ġre start
Ġharmon ics
iter ation
F ollow
30 5
Typ ed
Pro pagation
ĠEn um
g mail
ar ticles
2 14
Ġapproxi mating
Ġre jection
Ġh ub
faster xml
cccc cc
Ġimp l
ilibri a
P as
33 6
Ġta ils
Ġconcaten ation
ĠAltern atively
Ġtrip les
. :
lin ic
approxi mate
at tack
ĠF oo
S ibling
Ġ âĢĻ
GEN ER
ath y
ci i
Bbb k
Ġm ountain
Bound ary
Appear ance
Ġis set
ĠS av
}( {
separ ated
Ġobser vers
ĠPo inter
Ġm ounted
ĠT D
Ġbroad ening
Ġstack ed
Ġpossess es
ĠM AC
Ġsh ifting
(' \
query Selector
)$ ).
Ġexhib ition
Circ le
ĠT ypes
0 16
Ġwave function
: .
z ar
Ġv ent
ĠRo ss
ORM AL
Ġiner tial
RE ST
Is Null
Ġd p
c rop
T ON
Ġsur rogate
Volume Source
ĠL td
C LA
m h
ĠBe gin
grow th
) ];
SE CON
ĠAg reement
ĠM enu
od s
3 10
Ġan g
Ġplate au
å ¼
ump tions
Ġaut oc
ms kip
ond o
ogon ality
Ġsepar ator
achel or
gra v
Ġjud gment
ĠP RI
FI LTER
Ġcur r
P NG
e asy
Ġge o
er or
Red irect
ĠAr gs
Ġsurroun ded
Ġcolle agues
T ITLE
Ġ till
Ġpre val
rop ol
o val
on der
ĠL ar
Ġret ro
Ġconc ave
er ation
Ġadjust ment
6 40
> ";
get Logger
Ġal cohol
op lan
ĠW D
Ġe at
Ġasympto tics
{ ,}
$ +$
os calar
60 1
Ġconcent rations
C riteria
ref lection
ĠOver all
Ġb ought
man aged
Ġhis tograms
Ġenc odes
Ġpur sue
Ġgrid s
ĠInitial izes
L AT
Y au
f red
Ġcomb at
Ġattra ction
Ġdou bly
inherit Doc
ĠJ en
igen ous
Ġdiver gent
Man aged
C AN
Ġ& \\
CT RL
Ġign oring
ho ma
ch r
non ym
ul pt
Ġtran sf
requ ests
re cent
Ġcoordin ation
ĠM LP
ĠE ss
Ġch at
satisf ies
Ġvirt ue
ch el
Ġv ib
}} [\
Ġvio lations
Spr ing
Ġd ies
Se g
& \\
analy tics
ĠScot tish
in fer
Ġimm igration
ĠC AN
ĠA rc
22 7
Ġfla res
rec v
gra mming
inter faces
[] []{
L uc
ĠG O
ĠCap ital
ĠK a
ges tion
ĠP D
22 3
ĠIn fo
ĠM n
ĠL ind
Ġfra ud
Auth entic
ĠG ran
Ġori entations
Ġconc ert
] ",
Any Ref
ta sy
ct ype
C ert
ATTR IBUTE
ĉĉĉ čĊ
Ġwor ry
Intern ational
z an
por ter
Min imum
Ġn odal
ĠF ord
Ġarg v
al lation
Ġtrack er
ĠT M
n ick
Inv ocation
Ġ* */
ĠHel p
ig a
kra ine
45 6
Ġ\\ [-
f k
Ġsome where
in vert
man ual
Ġdoc s
pher es
Ġthe ta
Defin itions
vi ate
assum ing
tr ust
ĠPhi ladelphia
19887 3930
Ġcent uries
Ġcli que
os cil
RO P
Ġpay ing
Ġinit With
DIS ABLE
S outh
ear ly
Ġautoma ton
worth y
C AP
Ġin verted
f ish
ĠBri an
del im
B lo
per ience
/ [
ĠHar vard
ĠDe pend
De vices
22 9
Ġassoci ations
La TeX
list en
Ġload s
ĠDE BUG
Ġhad rons
ĠD G
Ġcol linear
Ġbott leneck
ĠV illa
\ )-
ow a
Ġpar liament
Ġsta ting
Ġintel lectual
ĠDef ense
VAR I
or di
Ġb esides
ĠR ose
: \\
f oundation
fe asible
is i
ĠS audi
ĠN ick
ĠIn f
Ġpo sitivity
Ġadminist rative
ĠSchwarz schild
ref n
pro pagation
Ġper co
ĠDemoc rats
util ity
ĠThrough out
Ġtax es
REQ UI
itor ies
gal actic
Ġopin ions
c riteria
ĠF orest
PE G
a con
No tify
Ġattemp ting
ĠT itle
On line
Ġ\ |^
ĠNewton ian
C MS
^ (
Ori entation
ĠAll en
Ġasser tions
25 7
Re po
24 7
ĠFunction s
g ree
Ġsac r
ĠIs a
C LO
i int
th ose
Ġtra iling
ĠPri or
Ġst one
et ti
at us
Ġbu ffers
Ġin formative
as set
su ite
24 8
Ġpay off
Ġ" ");
Ġ\| _{\
ĠC MD
å º
P Q
Ġ/ .
w so
ĠRed is
Ġst reets
pro mpt
ĠSum mer
ĠS eq
Ġamong st
Ġcompris es
Ġd oping
un stable
Ġimp ressive
x shift
Ġv ox
Ġvio lating
Ġdis sipative
squ ares
P aren
ĠR ather
enumer ation
L ex
RE C
b ag
ĠK ol
Ġvis iting
NOS CRIPT
ĠB road
k an
Dire ctive
Ġinsu fficient
Ġsummar izes
S Q
Ġgovern or
repe ated
Ġperson nel
acc ording
Ġ. /
Ġsql ite
ĠX X
Ġconju gacy
LOC AL
Ġ* **
Ġpar alle
sho ck
E r
Ġs ad
Ġset Up
inst ances
ĠOffic ial
/ ,
] ^\
The ore
ĠC lean
ĠVictor ia
,\ ]
Ġk ilo
Ġste m
ris k
id i
pop ulation
ol ding
Ġdemonstra tion
andid ates
Ġt c
log ue
ĠE ll
algebra ic
ĠR ect
e mb
Ġcon scious
ĠL F
Ġsub category
Ġb om
19 54
g ives
Ġref used
orth ogonal
ill ary
ula tes
2 99
IS H
Ġspecific ations
ĠDu ke
" ):
S Z
ĠB reak
B W
_{ _
M en
o tion
)| $
dis cus
Ġpul led
rece ive
oc a
22 6
K a
Ġnever theless
ome tries
ne ural
Ġinvi ted
ma ker
ĠI M
col our
ian ts
hol m
Ġtra ins
CK ET
nes ota
B IN
}$ '
Ġde fer
Ġpat ent
success ful
S and
in ations
Ġmask ed
ys on
Ġden ied
{ .}
ĠSu ccess
add on
rep orts
' }$.
Ġcategor ical
er ver
ma d
ĠY ES
sample d
Ġper ceived
Ġgroup ed
is ta
ch k
Ġvis itor
per form
Ġsupp lementary
Ġposi tively
lo gy
termin al
Ġcra ck
Ġspread ing
Ġpull back
Ġavoid s
v phantom
ac i
Ġpen et
ĠLab our
Ġw ing
ord ova
Ġ) );
' )$,
stru c
Ġrun ner
Ġg ro
Ġ" ./
Ġpr icing
big vee
Ġnonlinear ity
Ġ& (
Ġsh ips
Ġt ur
Ġpos it
ak s
Ġro yal
ĠSt one
ast ro
C op
ĠHar ry
Di rac
simu lations
0 27
3 90
Ġliber al
}, ...,
Ġview point
Eq s
m ers
ar bit
Ġthought s
( %
A O
Ġd v
l isted
ĠMem orial
)\ }
Ġ _\
Ġexclu ding
ĠDoc umentation
G PU
Call backs
de e
decor ate
H uman
ĠT LS
22 39
ĠDis able
resource GroupName
la x
Ġk a
Ġproble matic
Ġabstra ction
F requency
] <
ĉ ĠĠĠĠĠĠĠĠĠĠĠĠĠĠĠĠĠĠĠ
Ġdivis ors
F ermi
be h
ĠK K
30 6
Ġaccommod ate
re ma
Consider ing
-------- -
Ġag gregated
Ġre tail
Ġfer romagnetic
b ash
Ġreci pient
Ġf li
as test
ĠM DP
ĠH IV
ear n
Ġapproach ing
mark ed
4 95
D ark
ĠF S
sm art
Ġanten nas
nucle on
R pc
ĉĉĉ ĠĠĠ
------------ --
lec tively
Ġther apy
S hi
ĠAtlan tic
I refn
il ty
CO PY
Throw able
Ġmic rowave
j as
Ġj e
k ed
Ġcoun sel
v u
ER Y
Ġen orm
Ġdi amond
rol led
Bel ow
Ġacc used
bro ken
ens on
Ã ł
D ifferent
Ġregular ized
Ġgather ed
Ġrm s
il ds
Ġani mated
stall ine
fill Color
Ġviol ent
Bo ost
Ã ª
Ġre dd
Ġres cue
Ġsp ike
Ġdiscuss es
Ġfluct u
Hand lers
pol ymer
Ġvir us
; ]
Ã§ Ã£o
Big gl
Ġl ands
ren a
ĠPro file
url s
DE VICE
Ġheight s
F lu
Ġpurch ased
Ġdiag nosis
proto c
Ġmodify ing
w f
Ġti cket
z ech
Al location
Ġcelebra ted
p oll
w y
Ġto ugh
Ġsupp lement
Ġtab index
strong ly
is te
Ġadop ting
/ ************************************************************************
un def
Ġma xima
Ġla ugh
T ax
ore n
S trict
For Key
\% $.
Gener ation
W ER
ter y
Pro f
B ol
Ġde veloper
Ġup stream
ST REAM
Ġtag ged
Vertex Attrib
{ }_
Ġingre dient
Ġb aby
Ġ( âĢľ
B ot
ĠV en
get Current
div ider
$ ^+$
d q
Ġ\; ,
ĠRuntime Exception
Ġtend ency
Ġdefault Value
ĠComp uter
Ġsub tracted
N ER
Ġb omb
ĠMat thew
chest ra
av atar
Un fortunately
Ġcus p
22 8
ĠLo op
k T
call s
Ġas semble
flu ct
d E
A ge
g ene
Ġsub mission
Ġtriang ulation
L ess
ss s
reg ression
] +\
ti les
Ġconstant ly
' }^
2 18
reat ment
ĠP ot
FA ILED
Ġs napshots
amil ies
Ġdoc umented
Bin der
Ġkey words
Ġcovari ates
pro blems
lit z
radi al
Tw ig
ĠUtil s
pe ople
Ġsuffer ing
Ġmar tingale
F ACE
ĠR ate
ĠG i
H it
Ġconv ection
C e
t odo
on ia
Ġs tim
Ġn ullable
PI X
ĠID s
Ġalgorithm ic
Ġmitig ate
ĠC ome
ĠB run
32 7
conf irm
ĠM ars
Ġ/// <
Ġconcent rate
M inu
combin ed
Ġh at
Ġc aching
Ġ* (
Ġdemonstra ting
Ġfo cal
ĠE mpty
Ġcy ber
ĠS G
clu sive
Ġcentr ality
or ney
}) .}
Ġcri mes
UD ING
en z
Ġ\ }_{
b ys
Ġp index
Ġprote ins
Ġperiodic ity
mix ing
fin der
25 3
Ġpuls ars
Ġexper tise
TO KEN
Ġ$ +$
sh ake
\,\ ,\
25 8
Pre view
Ġsusp ect
Ġmod est
CL UDING
ĠT CP
ĠD omin
Ġminim ized
Ġch air
Ġconduct ing
umin ate
å® ļ
D NS
qu it
ĠSy d
Ġs ibling
Ġreal m
.~ (
tablen ote
Ġthem es
19 53
] \,
ins tead
Ġaut orest
b j
ex am
Ġun set
tric ts
typ ed
Ġpre d
ac s
Ġsil ver
ĠEvalu ation
v oc
sc i
tow ards
Ġ++ (
th y
ĠOnt ario
Ġt on
ol id
Ġrapid ity
is omorphism
ĠViet nam
ĠK ansas
clu ded
tun ed
| |_{
../../ ../
ĠY O
Ġpla cing
Su ffix
ĠSta ge
ç ½
}( -\
Ġde e
ĠH ST
Ġres ol
Ġvola tile
Ġmet als
Ġtransp ose
LOB AL
Ġover whel
ĠGold en
L HC
Un ion
Ġbary ons
Ġ\ }.
Ġf irms
Ġbo ys
ĠSing apore
Ġsub sidi
Ġen emy
Ar n
G rant
( ',
pro per
26 2
tic ing
ob tain
gu id
LE X
ro uting
Ġ" </
Ġswitch es
tech n
Ġfe es
D ie
Ġd imin
ĠR on
http Request
å Į
ĠS ide
Ġb asketball
Ġmat roid
ON LY
comp ressed
sp rite
he ating
f ts
su ffix
Ġ' ');
s ink
J et
** :
Ġgraph ics
_ ),
uma bly
du st
ĠEn sure
! âĢĿ
x hr
Ġencoura ged
Ġf iring
Ġtop ologically
19 52
auth ors
] -->
o auth
ĠB B
ĠL am
PRO TO
con sin
l arg
tat tr
Ġeng agement
Ġ} (\
Ġ" {
ĠTo gether
MA SS
Ġoscil lators
ĠVis it
Ġme ters
Ġsem icon
Ġill ness
if ecycle
Ġrep lica
ĠS ound
Ġb ib
defin ecolor
Ġaccum ulation
Ġantis ymmetric
Ġre connection
pi ents
Ġp b
vari ety
Ġtw in
Ġcomp ositions
comple tion
ome d
Ġ\; .
ĠK ra
IEEE eqnarray
j boss
IC K
Or d
Li pschitz
? )
ĠN an
Ġse ats
calc ulated
Ġsurprising ly
" \
O DE
)} }$
32 4
)$. }
bar a
nes see
30 7
ĠERR OR
Ġvoc abulary
aspect ratio
Il legal
M ON
N orth
g rey
Phys ics
cap su
work space
cred entials
ar poon
k im
Ġsp ots
Ġgener ically
")) );
Ġ. \
md c
ĠState ment
Ġc d
IR ST
Ġdocument ary
Helper s
ant on
ĠLe on
A rm
m ia
ĠC over
Ġ| ^
Ġsuper fluid
CL R
ct xt
conf irmed
ĠE E
C Y
, ''
J NI
di o
'' _
Ġv en
for table
Ġsh ed
Ġro oms
con cent
ĠLe vi
ĠA bra
Ġdes criptors
Ġdifferenti ation
g ender
Ġb acter
ĠEx change
ro ck
Ġmal icious
ym orph
vers ing
Ġdri ves
ĠSyntax Kind
set Value
ĠS ame
Ġspeak ers
Ġl ingu
ĠB ureau
gra duate
Ġpublish er
tr ons
pre diction
Ġpor tions
er vation
Ġtreat ments
Ġparticip ating
v iz
Ġtransmit ter
Ġi ii
Ġro tated
Key board
mi tives
aff ected
Ġsu i
th ink
Ġsil icon
4 20
Ġb rowsers
ĠCurrent ly
v w
Ġe mu
Ġis ometric
: @
Ġw ides
Ġll vm
ard o
Id le
ĠWork s
C AT
ĠC i
fa de
ĠO DE
sub fig
ne e
Ġoffic ially
ä¸ ª
T CP
Big gr
Ġti ssue
23 9
T argets
has Next
ref s
Ġemp loys
Ġdiscontinu ity
Ġover lay
Conn ected
Ġquar tic
ĠB all
Ġindu stries
Ġshow er
Ġpack ing
)$ ]
Null Exception
Ġ* =
ab o
vi tation
ned y
Ġgroup oid
Ġblock ed
get Context
Ġlaw yer
Ġc rop
Ġintern ally
ĠRec ent
Ġsort ing
Ġdecoup ling
/ }
t ension
Ġcommu tator
Debug ger
attach ment
ĠU E
24 6
Ġcancel led
ĠW R
24 4
Ġq q
ĠSta tic
sequ ential
Ġbus y
ch arged
co ins
AP PL
Ä ĩ
(" ./
ĠInt roduction
? ,
no br
Let t
Ġcoinc idence
ra ses
Ð¾Ð ³
recor ds
P at
b ower
V i
quar ters
b ubble
ĠOb viously
}$ =
Ġre size
Ġ- &
ĠCl ark
aff ine
getElementsBy TagName
Ġme l
Ġpublish ing
ov ich
l hs
Ġexp ense
Ġface t
ĠFact ory
* }{
"> '
): \
24 3
Ġfree ze
18 00
center ed
Ġti les
[ {
~ &
n om
ĠRe LU
ĠG allery
ĠN iger
re search
Ġinter play
ĠAPI ENTRY
3333 3333
u table
ĠU pon
] |
Ġtwe ets
6 50
ĠI SO
con taining
ĠCO M
VER R
I ssue
Ġre serve
40 8
expand after
ĠA mb
tiv ation
Un defined
k ube
Ġcross ings
C FT
ra ther
auth entication
Match ing
Ġ à¤
ran g
de leted
pa que
=" <?
vis ited
Ġinser ting
g host
ĠYou Tube
0 17
vers es
Ġborder s
Ġenter tainment
initial ized
inter cal
P references
sh iv
ĠH aving
ĠSci entific
ine quality
morph ism
ĠI de
ĠG EN
Ġcomm uting
UL AR
ro bot
Ġiter ated
æ ł
Ġl t
________ ________
R CC
Ġcontra s
activ ation
ĠD iff
20 48
% );
to k
un used
lor er
p ion
ĠKore an
ĠR HS
Ġcorre lator
Ġiniti ative
Ġunivers ality
Ġl n
Ġneighborhood s
Ġnecess ity
Ġin hab
ĠP it
ane ously
ĠP ush
Ġvo ted
Ġpre ced
Ġde leg
optim ization
}\, (
ĠCon vention
Ġgeneral ised
ĠHel per
ass erstein
ĠS in
ĠL ev
Ġsimula tor
Enumer ator
Ġsusp ension
ĠIo T
J O
ĠTran sp
Ġcomp oser
Rep lication
T urn
ĠG reg
XML Schema
ĠHy per
M ul
ĠA pi
}\| _{\
Cre ator
con tribution
mas sive
Ġread out
output s
interop Require
om on
ĠAuth ority
ĠB ottom
organ ization
I ts
tran sient
ĠM ount
}{ }{
button Element
ĠQu estion
}$ }}
Ġport ray
3 12
SI M
ĠS GD
Ġdecomp ositions
ĠSyd ney
i our
Ġqu aternion
25 2
ĠCon tact
Ġdele tion
. %
pp i
Ph ot
host name
DEF INE
ĠPro tection
ĠD D
Ġgen re
ĠH eart
PC A
ch ing
ĠP ier
Ġfall back
Ġtermin ate
F K
ĠRes erved
Ġb ranes
Ġre calling
Ġ ties
id ential
mak ers
Ġsh op
Ġquas ar
m ig
Ġcon vective
Syn chron
g ri
con duct
Ġiso spin
P rom
S parse
ç ±
os hi
Ġspirit ual
gr p
co efficients
per turbed
} `
ĠB oh
ĠAccording ly
Ġan ne
CL IENT
Ne gative
ĠO cean
ump y
um mer
Ġ] );
U INT
ri ble
ĠB log
Ġconvers ations
Ġt an
ĠSch ur
Work ing
ĠZh ang
Depend encies
Ġsumm and
G erman
Ġobsta cles
c G
TR ACE
Ġcontro versi
h orizon
C ra
D iffer
he avy
Ġformat ted
consider ed
N Y
V IRT
Ġdiver gences
m outh
^{\ ,
}}{ {
ĠAri zona
J ack
Ġg ay
}} )}
ata ble
block quote
S tri
ĠE nt
Ġanti fer
L ists
}\ }\
Ġb le
Ġper ipheral
=' #
select font
rem um
E scape
Con d
ber ry
Ġd ial
ĠL ess
DE SC
member Of
] ^{-
ab r
ĠM ix
$- $\
lo so
ĠK lein
ĠDe faults
Q M
qu ant
s lug
ĠFirst ly
å °
Ġle gs
INTER NAL
19 51
read able
Ġconstruct s
M igration
pa use
26 3
bal ena
predic ate
198873930 2239
ĠOb jects
squ ared
EN SION
hand lers
ta ctic
ĠPalest inian
b ary
ag onal
Le ave
Ġ ,\\
ĠC ONT
Ġch rome
so lete
Ġthermod ynamics
am ard
ĠMary land
ĠG M
Ġpol lu
occ up
(\ |
ĠDe termin
ĠAir port
effici ency
EX CE
ĠR CC
ital ic
ĠS TD
es lint
ĠT ai
ĠAn ne
Ġcharacter izing
Ġcoun ted
Ġcommu tation
0 45
Ġs ens
Ġsp ite
'' '
d AtA
CT OR
ĠB rand
de gr
Fin ite
)\ |_
ĠCall back
Attr s
W itten
H B
ĠMulti ple
ĠBern oulli
usal em
X R
le ast
h ub
}$ &$
Ġo wing
st udi
ph ic
Ġtal ent
ĠDe ath
Ġped estri
ĠB SD
Ġbase ball
]] ></
Ġfinish es
in su
Ġun necessary
corre cted
correspon d
} ")
lo ose
Ġtang ential
Ġbin omial
ermal ink
Produ cer
Ġco ales
ĠB lu
orre lation
SE L
SI L
~ }
ta ils
an other
Î ³
in berg
= </
base lineskip
slash ed
u ters
sc enario
19 44
Ġpa ired
til s
match er
g alaxy
xy z
Ġbur den
Ġh os
Requ ested
struction s
CONT ENT
Ġover rid
ĠA verage
ĠR yan
ĠRam an
en ix
Comp ile
Ġhome omorphism
W i
Th umb
R v
Ġdivis ible
R AM
h k
Ġc lim
}} }^
19 47
Ġj uris
> {\
m ysql
{ };
ĠM M
d j
ĠB ose
pos it
Ġpromo ted
repres ent
Ġsymp toms
b box
ĠDis tribution
Ġi v
in el
19 39
Po sitive
Descriptor Proto
Ġen compass
Ġbreak down
Work space
Pro jection
en tative
Compar ator
Ġchar m
ĠM s
EN S
Ġiner tia
ç± »
Ġoff ices
Ġad option
ĠEn try
ĠMal ay
{\ ,\
N u
\! -\!
Ġwor lds
Ġrestric ting
W u
Ġme d
mp l
Ġlater al
Ġvor ticity
Ġdec lar
Av g
Î ¯
}- (
ĠGa ia
are to
33 7
is si
Ġsu it
Ġglu ons
Ġr uling
Ġpre gn
so v
ĠMa gazine
P reference
ver sed
Incre ment
Ġl ifted
and al
$. )
Ex ecu
24 9
[ @
ĠO cc
æ İ
triangle left
Ġra cial
Repe at
Ġc ata
Ġorigin ating
TH READ
& {\
}= [
ĠA BC
Ġprog ressive
Ġes c
Ġfail ing
ĠW ard
Ġkey board
\!\! \
Manif est
an im
ch rom
' }{\
Ġc v
Ġsmooth ed
Ġemer ges
R oman
Ġâ Ĩ
D AT
L IMIT
Ġneighb ours
Ġ$ ("#
Ch rome
^{+ }
isot ropic
Ġmonomial s
in ely
ve tica
pro x
ion ic
Ġdisc arded
Ġw id
Ġbre ath
__ ["
Ġburn ing
Ġin elastic
embed ding
is Function
ĠK evin
ĠL an
Ġev il
25 9
ĠP ope
^{( -
Ġbro ke
Ġver bose
Ġscan ning
b ine
Ġb rid
fig ref
Ġst orm
Ġmon odromy
Ġpl ural
x r
re ve
i at
Ġloc ate
Ġatten uation
$ )}
Ġclar ify
ĠP ick
SER VICE
Ġc ab
Ġ{ !
oura ge
)) {
ifi able
P ART
tag Name
ĠRo y
Dependency Injection
ĠH it
Ġop tics
Block Index
Ġassign ing
ĠM AP
inherit doc
ĠCh ain
Ġinnov ative
I OS
Ġwides pread
BE GIN
Ġsti mu
Ġf abric
19 49
CONT RO
Ġsustain able
}_{ (\
M arch
scal es
ĠSw ift
ĠF ock
Ġ\ },
ĠU pper
Ġmand atory
Ġcon test
ĠCont ract
Ġrep lication
Ġcheck sum
ĠE OS
Con versely
Ġsec ular
GR ect
Ġback wards
28 6
Ġsc ans
auth entic
la zy
measure ments
Ġleak age
Ġrad ar
ange vin
ĠPe ace
Ġ$ >$
ĠCon v
fil ing
i pt
symbol s
ast ers
Coll ision
BOO ST
g ulp
H ilbert
Ġsl iding
Ġcooper ative
L K
L ater
it ude
Re fs
Ġdemand ing
Ġcorre lators
. {
S chool
ĠHash Set
Ġw aven
ĠL LC
Un like
ĠM ER
Ġfla tt
ĠK r
dete cted
ast y
Serial ize
Sub scriber
Ġuint ptr
un s
Ġra tings
w l
q n
ra ge
Ġtr usted
comp iled
Ġquadrup ole
i tive
ĠSe ason
Ġv a
file Name
k d
ĠH ER
ardi an
Y P
Ġu v
Inter faces
ĠA DD
) ";
y x
ga ussian
Ġel imination
pr ising
ĠF ail
ud o
WI SE
ring e
Ġdeli ber
Sm ith
Pro filer
ĠTran sport
Ġair port
Ġequ ilibria
ellip tic
M usic
Ġlo an
ĠOper a
Ġbounded ness
param ref
ĠS lo
en ched
ĠW E
Ġauthor ized
sc ar
Ġtool tip
DEF IN
Ġro ads
A ir
Ġp df
J ames
nu mp
zh ou
! ");
Ġbe auty
WIT H
G esture
Ġinv ocation
ĠT IM
Ġthreat s
' )=
in z
Z ip
l uminosity
get Parent
Ġcondens ation
Ġl ane
In c
ĠU kraine
key words
Ġexam ination
L ONG
Ġre bel
Number Of
is cal
Ġp ot
ĠK ur
27 9
un expected
] _\
âĶĢ âĶĢ
o si
\ }^{
Ġaxi om
ke e
le ans
fl align
ou x
ĠA k
To Array
Å Ĥ
> ",
' <
as ym
ĠStar ting
High light
Ġdepart ure
K ar
Ġg y
clip se
ĠM echan
0 18
Ġregula tory
ĠAfghan istan
R Q
W al
Ġapplic ability
Ġexam ining
T K
ĠC B
Ġent reprene
AS K
At omic
ta h
ĠÐ ·
Ġgradu ated
D ATE
Ġ\, {\
ĠRo berts
ĠD WORD
Ġste el
Ġtyp ed
Ġharmon y
"> Â
, %
9 78
s af
ĠN FL
tim ing
uc l
R u
graph y
ĠAtt orney
ĠM es
Ġactiv ates
Ġfriend ly
data sets
ĠChris tians
ĠHigh er
Ġa mple
Ġat tain
comp ared
ĠW I
satisf ying
s ph
ding ton
IC S
Ġun directed
OFF SET
it ure
Ġm outh
ĠL MC
ĠH ot
fla vor
ĠW as
su gges
') [
remain ing
s ong
o ves
ĠP N
AC S
unt u
t um
ak h
ĠCa simir
D et
E urope
mod ular
NE SS
Ġunit arity
Ġ| {\
sta tistical
conn ections
Ġprac tition
P lain
ĠB og
f eld
comm unity
labor ation
Ġra ces
Ġ` $
cover ing
ĠA bs
Res tric
32 8
corre ction
Ġcla uses
ĠCOL SPAN
Ġsub class
4 60
ac ent
ĠMin nesota
Ġcomple ting
Ġsix th
ang ers
RA W
y outube
Ġin distinguish
back up
C ID
19 46
}}, {\
priv acy
Ġc av
Ġat titude
Ra ises
Ġenerge tic
-- )
ĠF ields
ĠOper ator
; =
] }{\
ĠU TC
Ġneutr ons
ĠB essel
C lassification
0 90
DE CL
The ir
ed ral
(( (
R U
Ġun lock
ag u
comp osition
Qu ota
Ġpromis es
_ -\
di table
ĠL oc
Ġen gines
Ġsequ entially
Ġmultip let
ys cale
urch ase
Ġc able
Ġg allery
ĠK os
N or
BU F
Ver sions
UM N
ic ed
0 60
ĠHar ris
Ġdi laton
Ġl hs
Ġcan ce
si zes
medi an
ap id
}} }$.
ĠR TC
Ġsw itched
ĠF ore
Ġwin ding
Str ong
single ton
H en
ti um
Ġb b
Ġparameter ization
ĠRe ce
Ġclu mps
Ġcondition ing
fin ing
ĠGit Hub
Ġmonop ole
Ġf u
wh eel
defin itions
)| ^{
Ġw it
back ward
Scal ing
0 26
tr uct
Ġg ang
44 4
: \,
arch itecture
N H
Ġresource GroupName
qu er
reg on
Ġampl ification
Ġch unks
tis ation
ĠCorre spon
Sl ider
allow s
Ġdec l
Ġanni versary
Ġlad der
ig ate
ĠT each
inter actions
Ġwave form
29 6
tab End
Ġdo i
Ġpush ing
BO DY
Ġtransp arency
Ġtransf ers
Ġ{ :
Ġclo ses
Out Of
Ġquanti tatively
Ġorgan isation
x it
ĠV in
EQ UAL
R oll
Ġer up
Ġlog istic
qu ire
ur us
Ġa uction
Ġformat ting
Conf irm
Ġorig ins
Ġsub division
_* (\
to f
ĠB atch
27 7
tribut or
Ġdisorder ed
ĠD AG
Ġ[ `
B usiness
ct s
sp read
Ġun correlated
ert z
Imp orts
y our
ĠC ru
Ġfile Name
6666 66
h ler
depend ing
)] (
ĠS ix
US B
ĠJ ane
AL LOW
plan ar
i w
ĠPol and
Ġrepul sive
Ġre versal
ĠF B
E MPTY
Spec ific
ĠEnter tainment
ĠP od
Ġfac ial
ĠCO PY
VIRT UAL
ĠN ation
top ological
Ġlegiti mate
ĠD ialog
Ġst oring
Ġrestric ts
similar ity
r put
ick et
Ġen th
F lo
process es
ENABLE D
0 33
Ġf lying
st p
)\ ]
; {\
Ġoscil latory
Ġ} _
Ġrepe ating
ĠHou ston
A rt
ĠM oh
Ġpo set
PR B
N EXT
N ORMAL
qu iry
Â ©
ĠDiag nostic
style sheets
4 35
Ass ociation
vari ation
G re
ĠN ich
W ho
uck er
)) :
recur sive
- ,
ĠF ather
sw ift
Ġp ow
ĠTh er
ĠCl ifford
ĠB UT
Ġrep orter
Ġattra ctor
Ð Ł
ĠC reek
onom ical
| /
ps line
Ġfasc in
DOCK ED
ĠFe atures
)\ |_{\
Ġwork space
Ġan ticip
ri k
Ġgu ided
32 9
ĠO li
Ġformu lations
Ġtransform ing
il inx
US H
Ġb ass
val s
I ma
hy brid
current Time
cal ib
ring tone
z ag
j m
)) ]
Ġ\! \!
ĠPriv acy
3 64
ren ormal
Ġreprodu ces
x ref
I de
Ġsee ks
Ġsh el
Mod ify
Ġstabil izer
R ound
ma ble
Ġb at
Î º
sc apes
syn thesize
@{- }[
ni kov
\% $,
Ġcar riers
Ġreflection s
Al ready
w c
Ġne g
Ġpl enty
Ġelabor ate
ĠU int
suc ceq
. ')
ĠComp uting
Ġdomin ating
collection s
ĠS EC
ĠD ist
Ġcongru ence
te o
dir ty
re load
Ġsp rite
st en
Ġbu mp
y on
D onald
Ġcon d
Ġcau tion
Ġ )$.
ĠD ick
we ather
ĠG OO
Linear Layout
identif ied
] ],
ĠA belian
Ex isting
80 2
Ġinsp iration
Ġprogen itor
q i
J D
AT IVE
rece iver
$ ''
W ater
ĠG h
de b
Ġd ama
ĉĉ ĠĠ
Ġg ri
') ^
Ġg lue
eder ated
| \\
30 9
ĠCon struction
Ġreti rement
f re
de ad
Ġco okies
Ġcan on
ap tic
Ġso il
Ġview port
Ġmaxim ization
IC AL
ĠR M
ĠD rop
ĠL D
Ġinflu ential
Ġs oul
ĠL C
Ġre actor
ĠP V
ĠE mer
conn ector
ĠR aw
Long rightarrow
Ġschema tic
& \!\!
N LS
ax ial
Dete ction
var kappa
ĠM SSM
Ġdis advan
Ġn eck
Ġshell s
print StackTrace
ĠPh D
Pa per
end i
pro cedure
root Scope
Clo sure
ou sed
qu a
Ġfol k
Ġdefe ated
be y
Ġsearch ed
66 6
MO VE
p late
v ich
Ġmus icians
ãĤ Ĵ
ĠMor se
rom ov
res olver
ĠHow ard
Ġmo on
Ġemit ting
loc ated
Ġpartition ed
Bal ancer
Ġper spectives
ĠPat rick
ĠJ ason
{ }$
æ ³
ĠHub bard
}/ (
Ġfund ament
ĠTen nessee
V an
Pro jects
ĠSwed en
tra its
Ġdete ctable
er ance
80 80
Ġlo s
ĠK er
ĠCan cer
Con struction
Ġalgebra ically
c out
Ġrecor dings
Ġcritic ism
ĠG ab
go als
24 2
Ġdirect ors
ĠSar ah
Util ity
I FT
b age
qu eness
Ġinter views
SI G
re spect
Ġheav ier
Ġun used
ĠPer haps
ordi on
ĠI mm
The ory
Q N
Ð°Ð º
Ġf ranch
4 40
44 3
ma ils
interopRequire Default
ĠN u
ss h
ĠP G
ĠMil itary
ĠAd ams
ĠGree ce
inter sect
local ly
rece ived
c ategor
Ġg lad
big otimes
ĠG ate
MO D
Ġdee med
ab lation
mod ern
appropri ate
ill ance
ĠD ream
ĠArch itecture
D ifference
ĠSen ior
Ġtra pping
ĠJer usalem
}} </
Ġimp ression
Ġtra ced
Ġproto buf
ĠTag s
Ġ= -
Ġvola tility
ke ley
Ġinter cept
vari ants
ĠS el
Con ditions
Ġpre condition
Ġaccompany ing
PI C
dig est
}) },
CO RE
do jo
ig s
it ored
ĠS ie
Ġde coded
li on
sql ite
Ġlongit ude
A WS
ĠPre dic
Ġse aled
ach ie
Ñ ī
ol ly
Ġpoly g
Ġprepar ing
c art
Ġf astest
ĠĠĠĠĠĠĠĠĠĠĠĠĠĠĠĠĠĠĠĠĠĠĠĠĠĠĠĠĠĠĠĠ ĠĠĠĠĠĠĠĠĠĠĠĠĠĠĠĠĠ
32 3
Ġess ence
ol in
Re trie
ĠE uro
ven ues
ad get
Ġcal or
Ġde coherence
Ġgra mmar
Cred it
H N
Ġelse if
sol ar
ĠAPI s
ĠPO ST
h ear
ch ip
ĠG D
the ight
Ġho oks
ÑĨ Ð¸
ili ation
integra ted
($ _
unit ary
Bu ffers
Ġal leg
Content Type
Ġcompact ly
mk dir
é ĩ
Conver gence
ĠFellow ship
Ġbal ancing
G ap
ma tive
Ġb es
Ġvalid ator
access or
un til
Ġgra ding
Sta mp
as List
}~ (
ge b
}} }$,
ĠB urn
' </
ĠK u
F ee
al gorithms
ĠMo vie
Ġver ifies
Ð ±
loy d
0 39
h ai
ass ignment
ĠSch olar
Ġac id
Ġincrement al
M G
NO TE
â Ĩ
pres erve
Diag ram
; .
conj ug
Ġd c
Ġbubble s
Mich ael
re start
log arith
Ġcompu table
Sample s
Ġexemp l
ĠG ordon
Ġdep ression
Ġalter ed
ĠB io
Address es
ti r
ma tr
Con ditional
DI V
Print f
1988739302239 83
}[ ]
osc ow
du ce
Ġcompe te
greg ation
pdf string
Ġproceed ings
ĠĠĠĠĠĠĠĠĠĠĠ Ċ
ag en
N LO
Ġm ime
Ġp id
rb an
Ġar med
ĠAT LAS
ĠC ategory
De leted
Pr incipal
ĠC U
ession al
C ACHE
sp y
mon o
ĠSp lit
g alaxies
box es
d ou
o les
b lo
Ġconver ging
Ġc u
Ġ" \"
ĠRE G
8 85
tex or
Ri eman
ĠU TF
ĠR ank
B ounding
Ġal beit
() "
Ġsto od
Ġdiver ges
ĠA SC
ense m
seman tic
">< ![
ĠPsy ch
Ġchild hood
mix in
ĠTh ompson
CE SS
is EqualTo
Ġres um
po or
AUT O
wart z
U r
z ul
pro be
ĠCom ments
Ġh emis
Ġan t
ĠB PS
Par cel
texor pdfstring
K u
Ġmatch er
Ġsatis factory
Tri m
Ġf printf
Dire ctor
ey er
ex clusion
Ġconstitu ent
Ġpropag ators
K A
Ġsimpl ification
Ġbr ighter
Ġdi am
reg istration
Tool tip
Ġlog ged
sp el
sk in
Ġstrug g
ug ht
get User
Ne u
{ =
color box
soft ware
Pri or
Ġtra ctable
ACT IVE
y ield
con version
Rect angle
Ġforecast ing
B roadcast
Ignore Case
Ġappear ances
Ġpur ple
19 41
ĠCo ordin
Ġmonth ly
C andidate
w or
Ġcharacter izes
S orted
Ġdevelop s
}$ ~\
ĠB U
ĠE L
key board
ĠRe lations
Ġfila ments
Match ers
domain s
Ġsemic lassical
d ns
if false
then Return
K F
ĠS r
Ġsta cks
æľ ī
P TR
un ix
Ġcampaign s
ä» ¶
Ġ[ $
tra ject
Ġwave let
18 43
' }$,
}} }}\
ĠE lectron
ĠN ature
pi o
Ġenumer ation
Ġpro tot
Ġpre decess
play back
meter y
tele phony
ĠLorentz ian
Bal ance
end l
in dividual
ĠBet ween
X S
ot ype
ach er
Ġpress ures
lec table
Ġdesign er
) ");
b eck
Ġ' ;
Ġspher ically
studi ed
B IND
C orrect
J obs
lo on
Ġconfir mation
theore tical
un ed
Ġboun ce
b readcrumb
|| _
ĠMuslim s
UNK NOWN
ĠAr thur
r brack
ĠPre vious
; :
Ġunit al
d ote
Ġtown s
j amin
ĠD imension
Ġsub tree
Ġget ter
Ġengine er
ADD RESS
si bilities
w idgets
P icture
h ero
ĠA gent
IN CLU
32 6
") ).
Ġaccept ing
c andidate
l times
ĠSp ect
Ġabsor bing
ester day
Ġpolitic ian
Ġquan tified
Ġrestric tive
] (\
8 000
ĠM rs
ĠH W
Ġhist ories
In ser
Ġgroup ing
Ġdecoup led
Ġ= (
ĠW riting
cc er
ĉĉĉ Ġ
Ġellip soid
ĠP rom
Ġarrange ments
ĠSta tistics
Ġe dited
in cess
View port
F ran
Ġpop up
ĠWis consin
Ú ©
ĠC DF
od i
ĠW ol
tor us
V a
Analy zer
b C
ĠIn sert
Int ro
Ġequ i
Ġdiscre tized
ĠW inter
E uler
WIN DO
fra med
Ġredu ctions
Ġob s
work ing
Ġsch olars
ay ley
Dis pose
u art
ren d
re dis
Index Of
C ategories
tes ted
Ġpack ed
] "
oc entric
log s
Ġpre defined
Ġtensor flow
ura tor
ĠQ R
estab lished
Ġnormal ised
ĠWIT H
Ġcon sumed
ĠQ ED
Ġlocal ity
Feed back
Ġinvolve ment
Ġbur ied
J e
ĠN IR
ber ta
Ġlear ner
ong s
ĠV L
Ġid le
Ġs lit
AC L
Ġin decomposable
col lapsed
Ñģ Ðº
Ġenorm ous
co ords
ĠDirect ory
ĠIn st
25 1
ĠNo tes
j es
Ġt rem
pro jective
}| |
M as
ĠTri angle
ĠCast le
FE ATURE
e ms
Ġprofession als
Ġmetallic ities
ag le
Ġrepla ces
Ġdir ty
ĠIden tity
Ġan th
im an
ĠC N
M artin
ĠR ole
mog orov
acknowledge ments
Ġinc en
no on
spher ical
other mal
ch ars
Ġso ck
Ġcheck point
ĠD yn
Ġaff airs
Ġdrop out
fra ct
ke mon
Ġinflation ary
itzer land
ĠĠĠĠĠĠĠĠĠĠĠĠĠĠĠĠĠĠĠĠĠĠĠĠĠĠĠĠĠĠĠĠ ĠĠĠĠĠĠĠĠĠĠĠĠĠĠĠĠĠĠ
O uter
{\ #
DE S
Ġins ensitive
W ritable
ĠBe the
C ourse
Ġrelation al
R anges
es pecially
Ġhyper parameter
Ġad res
Ġsuff ers
SV G
rec ogn
Ġco set
t une
pa rents
on na
en cer
Ġr t
mal ink
I ll
ve k
ĠB ou
Ġanc estor
ho o
ropol itan
28 7
Ġb ench
correspon ds
D ocker
Par allel
Ġ( __
Ġfol iation
ĠLay out
Ġdefe at
iv ely
Ĥ ¬
f link
ĠR AM
Ġtop ologies
Ġbrother s
Ġ{ [
Ġde mo
P AGE
X T
VERR IDE
UT C
Ġoccasion ally
Ġ# [
V L
d fs
ĠI Enumerable
Ġent rance
ĠCal abi
: _
Ġfem ales
S olver
"> ,</
40 7
Ġa cyclic
Ġper mits
Ġresemble s
il ers
Ġattack ed
$-- $
ĠPart ners
Ġtit led
fi xture
ĠS n
ĠD F
pr incipal
ch iral
Ġex isted
)\ !
T an
Ġpro jec
et ale
ĠV or
Ġ$\ ,\
ĠI a
Ġsh a
Ġdo ctors
Ġvis ually
0 34
Ġbroad ly
Ġcompac tification
c N
er v
Ġh opes
}) ),
dd y
ĠB ranch
Ġdep ths
z u
Ġdiscrimin ant
LI ED
Ġdele ting
ĠE s
Ġsemis imple
\ }\\
Ġto m
:: ~
'] [
ĠA h
Cont inu
assert Raises
ĠC CD
Ġpla tes
ir l
li ved
Ġcoal ition
Vel ocity
å į
IS A
Ġsoft max
S b
r ub
Ġsol vers
Ġexec utor
ĠG amma
Ġsup remum
Ġrestaur ant
N an
s x
un es
ĠCar l
w g
d W
oun ters
Ġche ap
id al
ĠC ost
ĠIn stall
$\% $
d N
an na
orth and
ti sts
Ġdiff usive
ĠOlymp ic
Ġprob able
DE V
st ress
27 3
}}_{ {\
A belian
C ycle
G ar
ro ots
SUPP ORTED
ag g
Non Null
id ently
Ġexhib ited
ĠC ME
Or Empty
ĠAct ually
ĠCh airman
Dis covery
Ã¡ n
v h
Ġposs ession
Ġperco lation
=" ./
29 7
ĠK ir
æ į
Ġs q
la v
)) -
40 9
status Code
author ized
=" {
åľ ¨
cer ning
G LOBAL
Ġj un
Ġsh utdown
Ġdomin ance
get Node
Ġdis aster
Ġutili zes
ĠAc tivity
track er
Ġauthor ization
Ġclub s
Ġm arch
ĠP or
ĠK elly
29 3
Ġpointer s
ĠM ountain
Ġsuccess or
UB LE
PO SE
ĉ ĠĠĠĠĠĠ
for ced
Ġcap s
æ ŀ
ov y
Ġver b
list Of
35 5
Ġescap ed
C i
S am
gra ding
ĠPer iod
Rem oved
26 7
repres ented
it ants
Ġcol lapsed
å ĩ
Ch ars
ĠJ ay
Ġcom ic
ĠC rypto
hd fs
ener gies
Ġpri mal
ct an
Ġcollabor ative
Ġeth nic
Ġcompris ed
ta tivity
iv o
ĠM ail
ãģ Ļ
Ġantic ipated
s ures
ĠC WE
ĠM art
Event Type
Integra tion
ĠÐ ±
Ġhalo es
ĠDie go
t bp
ĠD iffer
b ors
ĠZ ero
Ġrest oration
ĠW IN
max im
Ð¾ Ð½
V B
ĠK ind
ket ch
hard ware
ĠR an
ĠW A
unic ode
INTE GER
a side
ene z
as sume
roll ing
Ġe leg
29 4
CV PR
d ar
28 4
ĠFin ance
Mu tex
k ill
Conn ections
scri bed
Ġann ulus
Ġl uminous
Ġtarget ing
Ġreli ef
ser ves
26 9
hol omorphic
Ġsynchron ous
ĠV ery
Ġon Click
48 5
FO UND
c w
Ġ ../
b vec
g lass
Ġass ault
Ġcont rac
Ġfore ver
{- }\
^+ $.
hu ang
g old
AR GS
see k
Ġseem ingly
H AS
Ġpre cession
nav Bar
ĠS ymp
ut ors
ĠF ed
oriz ons
arg max
ĠSecond ly
Ġrail way
Ġh r
Ġjournal ist
Ġtw elve
Ġs ans
Ġdes erial
Ġdraw s
R ing
Ġman agers
Ġdras tically
"> "
less ly
xx xx
Render ing
mag net
den ote
ck e
K h
ĠN R
ĠM ul
MAT CH
f ew
Et Al
D LL
Ġremn ant
Ø ¨
Ġprocess ors
rupted Exception
ĠF ont
etro it
s ap
Ġtele scopes
Ġenumer ate
comp ression
ĠNe ed
alloc ate
Ġsudden ly
DO S
Th ough
IN R
h owever
Ġtran si
ro tating
Comp act
z illa
ke p
pro f
Ġev t
W s
an sion
Ar c
ä¸ į
Ġprom oting
/ ?
*} %
Un supported
36 8
ĠTrans fer
Ġoccur rences
Plugin s
ĠComp are
dist inct
S AT
Ġim balance
al ready
ĠS MB
app lications
ĠT I
Lay ers
, (\
ch t
ir ds
Ġsubgraph s
ĠPoli tical
~ ~\
}$ ]
sh rink
Ġsc in
Ġdro pping
user Agent
| =\
× ķ
ĠF lag
ĠTe mple
quark s
Ġord inal
igu ing
chi at
ĠF ake
cor o
ĠCNN s
ĠLi ouville
B tn
sh im
ĠLIMIT ED
Ġob li
=\ ;
Ġacknowled ged
W rong
we i
Ġmention ing
f usion
o on
ĠH amp
Ġcor onal
chro matic
Key Value
Ġ'/ '
far cs
ĠW or
n th
En tities
port folio
Ġhit ting
Ġbre ast
Ġlif es
Asser tion
l v
ai lo
ĠHaw ai
ĠEx ecute
Ġqu ies
co vers
His togram
P ause
Ġsamp ler
ĠRepublic ans
Ġtra v
ĠST AT
Ġ ride
ĠK S
Table Name
Cri tical
M irror
Ġstand ardi
}) }.
Ġ' :
ĠK h
Ġrefere e
ĠC am
ĠN H
ĠH ave
c ms
Ġel igible
}\, ,\
Ġf ading
Ġtr ig
Ġmy th
Sm art
Ġsatis faction
ĠM un
ĠL en
Ġsh aped
AC C
Ġw et
ĠO ak
sh i
Ġintegra bility
33 1
ĠS IL
{\ |
A mp
Ġcode d
MP LE
ish ment
Ġon t
ĠIn iti
FAIL URE
an alog
ip es
Ġgate way
ed ition
thod ox
Un ary
b Z
ĠA lan
26 6
Bin dings
Ġpredomin antly
Ġs cre
M sk
Ġ[ {\
Fa ult
APPL ICATION
ĠM organ
Ġfavor able
Mac ro
Ġs sl
Ġp ra
ĠEq n
Pre cision
: ",
w ifi
9 80
Ġdis continuous
Sh ard
Com bo
F o
A ware
Ġr h
inter est
ĠGener ation
Ġreci pe
nonym ous
de ll
ĠA ra
Inter pre
b q
ee ded
ĠCalc ulate
ost ream
enumer ated
I a
no break
ale ph
Ġcon sume
Icon Success
Track ing
Ġd g
rc l
P ick
Ġpre ci
ED IT
Ad j
ran ging
For mula
K r
per fect
ĠG NU
(" ")]
}\ \\
ĠO PE
29 8
Ġ| |\
er ves
Ġcon densed
"> #
set Name
Upd ates
U l
Ġvocal s
Ġag enda
Ġphotograph s
e ign
f ocused
Ġsub stance
Ġw ine
des cr
G V
Ġar rest
fra structure
Ġab ort
subset neq
Ġp et
ĠC zech
Ġrever sible
W IDTH
os ta
ĠSpec ifies
Organ ization
Pa ul
where as
}}{ }
}\ ).
}} )^
_{ *}
ĠC W
em ale
arc ia
Ġinstant on
new theorem
ĠA gg
fa ther
ĠS imp
' ></
27 4
sk ill
Rec ogn
Ġsc ar
ĠS kip
ĠZ one
_+ ,
^{* }\
extra colsep
Ġu uid
28 1
hed ra
. (*
pattern s
Ġch airman
LE T
uc tive
70 7
Ġti e
format ter
h g
w estern
ĠG az
ĠCh an
33 4
Pe ter
Unmar shal
ĠĠĠĠĠĠĠĠĠĠĠĠĠĠĠĠĠĠĠĠĠĠĠĠĠĠĠĠĠĠĠĠ ĠĠĠĠĠĠĠĠĠĠĠĠĠĠĠĠĠĠĠĠĠĠĠĠĠĠĠ
Ã ½
Per cent
My r
ST Y
? .
ĠU ri
E ast
Ġ$ }
Ġtermin ated
prov ides
æĸ ĩ
ran ges
ĠE oS
long mapsto
ĠLo ss
lexi ve
ig o
ab und
ĠArch ive
j ee
MS earch
28 9
Cred ential
Dec omp
Ġresis tivity
ous es
Ġanalog ously
ĠBer ry
G ordon
Ġconver ts
La zy
Ġ\ $
ch ains
ĠOff set
Ġoutflow s
Ġ$\ {(
w m
INT EN
( [\
è ¦
Ġarri ves
d as
ht m
sub title
al ty
K ing
Ġflu ids
$}} ;
alloc ator
Sc enario
Ġwe ar
ĠRem ote
Ġglu ing
Ġroun ded
m il
ul li
19 42
Ġheter ogeneity
ec tic
dis cre
ĠV ER
ç Ľ
Ġsu icide
[...]
