{"[UNK]":0,"!":1,"\"":2,"#":3,"$":4,"%":5,"&":6,"'":7,"(":8,")":9,"*":10,"+":11,",":12,"-":13,".":14,"/":15,"0":16,"1":17,"2":18,"3":19,"4":20,"5":21,"6":22,"7":23,"8":24,"9":25,":":26,";":27,"<":28,"=":29,">":30,"?":31,"@":32,"A":33,"B":34,"C":35,"D":36,"E":37,"F":38,"G":39,"H":40,"I":41,"J":42,"K":43,"L":44,"M":45,"N":46,"O":47,"P":48,"Q":49,"R":50,"S":51,"T":52,"U":53,"V":54,"W":55,"X":56,"Y":57,"Z":58,"[":59,"\\":60,"]":61,"^":62,"_":63,"`":64,"a":65,"b":66,"c":67,"d":68,"e":69,"f":70,"g":71,"h":72,"i":73,"j":74,"k":75,"l":76,"m":77,"n":78,"o":79,"p":80,"q":81,"r":82,"s":83,"t":84,"u":85,"v":86,"w":87,"x":88,"y":89,"z":90,"{":91,"|":92,"}":93,"~":94,"¡":95,"¢":96,"£":97,"¤":98,"¥":99,"¦":100,"§":101,"¨":102,"©":103,"ª":104,"«":105,"¬":106,"®":107,"¯":108,"°":109,"±":110,"²":111,"³":112,"´":113,"µ":114,"¶":115,"·":116,"¸":117,"¹":118,"º":119,"»":120,"¼":121,"½":122,"¾":123,"¿":124,"Â":125,"Ã":126,"Ä":127,"Å":128,"Æ":129,"Ç":130,"È":131,"É":132,"Ê":133,"Ë":134,"Ì":135,"Í":136,"Î":137,"Ï":138,"Ð":139,"Ñ":140,"Ò":141,"Ó":142,"Ô":143,"Õ":144,"Ö":145,"×":146,"Ø":147,"Ù":148,"Ú":149,"Û":150,"Ü":151,"Ý":152,"Þ":153,"ß":154,"à":155,"á":156,"â":157,"ã":158,"ä":159,"å":160,"æ":161,"ç":162,"è":163,"é":164,"ê":165,"ë":166,"ì":167,"í":168,"î":169,"ï":170,"ð":171,"ó":172,"ô":173,"Ā":174,"ā":175,"Ă":176,"ă":177,"Ą":178,"ą":179,"Ć":180,"ć":181,"Ĉ":182,"ĉ":183,"Ċ":184,"ċ":185,"Č":186,"č":187,"Ď":188,"ď":189,"Đ":190,"đ":191,"Ē":192,"ē":193,"Ĕ":194,"Ė":195,"Ę":196,"ę":197,"Ě":198,"ě":199,"Ĝ":200,"ĝ":201,"Ğ":202,"ğ":203,"Ġ":204,"ġ":205,"Ģ":206,"ģ":207,"Ĥ":208,"ĥ":209,"Ħ":210,"ħ":211,"Ĩ":212,"ĩ":213,"Ī":214,"ī":215,"Ĭ":216,"ĭ":217,"Į":218,"į":219,"İ":220,"ı":221,"Ĳ":222,"ĳ":223,"Ĵ":224,"ĵ":225,"Ķ":226,"ķ":227,"ĸ":228,"Ĺ":229,"ĺ":230,"Ļ":231,"ļ":232,"Ľ":233,"ľ":234,"Ŀ":235,"ŀ":236,"Ł":237,"ł":238,"Ń":239,"ĠĠ":240,"th":241,"ĠĠĠĠ":242,"in":243,"on":244,"er":245,"Ġa":246,"Ġth":247,"re":248,"ti":249,"en":250,"Ġthe":251,"or":252,"al":253,"Ġs":254,"te":255,"Ġc":256,"Ġ\\":257,"is":258,"le":259,"tion":260,"ar":261,"Ġo":262,"an":263,"Ġ$":264,"es":265,"Ġf":266,"ĠĠĠ":267,"ĠĠĠĠĠĠĠĠ":268,"Ġt":269,"Ġw":270,"Ġp":271,"ma":272,"ro":273,"de":274,"ing":275,"Ġin":276,"Ġof":277,"Ġb":278,"ta":279,"Ġan":280,"se":281,"la":282,"ra":283,"ic":284,"me":285,"ig":286,"{\\":287,"Ġand":288,"at":289,"it":290,"Ġto":291,"st":292,"el":293,"ent":294,"Ġd":295,"Ġre":296,"Ġn":297,"Ġe":298,"ou":299,"ce":300,"Ġ(":301,"Ġh":302,"ec":303,"ed":304,"ol":305,"Ġis":306,"si":307,"mp":308,"Ġ=":309,"_{":310,"ge":311,"ch":312,"qu":313,"čĊ":314,"Ġm":315,"ĠĠĠĠĠĠĠ":316,"lo":317,"un":318,"tr":319,"Th":320,"Ġ$\\":321,"ation":322,"ur":323,"ĉĉ":324,"as":325,"Ġfor":326,"il":327,"ve":328,"ter":329,"ver":330,"math":331,"id":332,"ul":333,"ly":334,"ss":335,"if":336,"end":337,"ot":338,"um":339,"et":340,"Ġcon":341,"Ġ&":342,"ith":343,"ĠS":344,"Ġg":345,");":346,"Ġthat":347,"Ġv":348,"}\\":349,"ted":350,"Ġ{":351,"ction":352,"Ġ<":353,"ht":354,"be":355,"Ġon":356,"}$":357,"--":358,"ite":359,"om":360,"^{":361,"ph":362,"cal":363,"ad":364,"ct":365,"am":366,"The":367,"Ġbe":368,"ĠA":369,"ĠC":370,"ĠĊ":371,"us":372,"Ġde":373,"=\"":374,"xt":375,"ut":376,"ure":377,"ref":378,"ow":379,"Ġl":380,"ĠI":381,"ble":382,"Ġpro":383,"Ġwh":384,"ri":385,"Ġwith":386,"pp":387,"gin":388,"ame":389,"ĠĠĠĠĠĠĠĠĠĠĠ":390,"Ġ*":391,"}}":392,"//":393,"ight":394,"sp":395,"ub":396,"Ġwe":397,"(\\":398,"ir":399,"Ġal":400,"</":401,"ine":402,"od":403,"ts":404,"ate":405,"ode":406,"im":407,"Ġma":408,"ck":409,"Ġ}":410,"ere":411,"20":412,"begin":413,"Ġas":414,"op":415,"Ġby":416,"fra":417,"and":418,"ity":419,"di":420,"ore":421,"ue":422,"Ġare":423,"Ġex":424,"ĠM":425,")$":426,"_{\\":427,"ft":428,"ĠF":429,"Ġco":430,"per":431,"Ġthis":432,"der":433,"ĠP":434,"}{":435,"tic":436,"ĠĠĠĠĠĠĠĠĠĠĠĠĠĠĠĠ":437,"ment":438,"equ":439,"rom":440,"ew":441,"pe":442,"text":443,"ĠThe":444,"mb":445,"frac":446,"ĠB":447,"li":448,"},":449,"ect":450,"ĠĠĠĠĠ":451,"ase":452,"ĠL":453,"Ġor":454,"up":455,"cite":456,"ess":457,"right":458,"ĠR":459,"iz":460,"Ġit":461,"Ġi":462,"bel":463,"da":464,"lass":465,"eq":466,"})":467,"ĠH":468,"ĠT":469,"to":470,"Ġat":471,"Ġ\"":472,"ĠD":473,"sion":474,"ist":475,"**":476,"\">":477,"for":478,"oun":479,"res":480,"âĢ":481,"label":482,"int":483,"ran":484,"ĠW":485,"tions":486,"In":487,"Ġme":488,"Ġ-":489,"()":490,"urn":491,"ĠE":492,",\\":493,"ĠN":494,"our":495,"pa":496,"Ġfrom":497,"ys":498,"mathb":499,"lu":500,"Ġsh":501,"Ġif":502,"get":503,"par":504,"ign":505,"00":506,"con":507,"low":508,"fig":509,"ty":510,"left":511,"ĠG":512,"Ġch":513,"$,":514,"Ġ+":515,"ff":516,"$.":517,"ke":518,"lic":519,"rm":520,"mathcal":521,"unction":522,"ome":523,"iv":524,"Ġcomp":525,"Ġun":526,"ds":527,"ich":528,"Ġcan":529,"..":530,"turn":531,"use":532,"Ġst":533,"equation":534,"Ġsu":535,"ave":536,"ort":537,"ther":538,"the":539,"Ġpar":540,"ence":541,"}.":542,"ap":543,"all":544,"age":545,"==":546,"tive":547,"est":548,"os":549,"----":550,"tri":551,"ile":552,"ers":553,"pro":554,"}(":555,"ga":556,"ld":557,"tial":558,"ary":559,"cc":560,"Ġ'":561,"du":562,"ener":563,"line":564,"ant":565,"Ġclass":566,"ĠTh":567,"}^":568,"Ġle":569,"~\\":570,"}_":571,"Ġse":572,"Ġsta":573,"ach":574,"able":575,"201":576,"are":577,"mu":578,"ata":579,"pha":580,"av":581,"),":582,").":583,"set":584,"Ġnot":585,"oc":586,"alpha":587,"ell":588,"ser":589,"tim":590,"Ġy":591,"Ġwhich":592,"ĠIn":593,"til":594,"ult":595,"ĠĠĠĠĠĠĠĠĠĠĠĠĠĠĠ":596,"Ġob":597,"row":598,"alue":599,"Ġhave":600,"str":601,"ĠO":602,"Ġfunction":603,")\\":604,"ang":605,"fer":606,"mple":607,"ype":608,"bu":609,"og":610,"odel":611,"ill":612,"Ġdis":613,"Ġres":614,"ber":615,"psi":616,"ms":617,"ance":618,"Ġlo":619,"ray":620,"fin":621,"ab":622,"tain":623,"ag":624,"Ġ[":625,"Ġ//":626,"ari":627,"Ġr":628,"Ġapp":629,"ĉĉĉĉ":630,"ork":631,"clu":632,"Ġpo":633,"Ġreturn":634,"ical":635,"$\\":636,"ide":637,"10":638,"Ġsp":639,"amma":640,"cri":641,"fa":642,"ong":643,"ens":644,"_\\":645,"Ġus":646,"Ġwas":647,"ding":648,"ay":649,"sub":650,"19":651,"->":652,"po":653,"ire":654,"ĠU":655,"pt":656,"out":657,"so":658,"Ġk":659,"vel":660,"=\\":661,"mathbb":662,"lation":663,"Ġ\\\\":664,"ho":665,"Ġne":666,"Ġset":667,"dot":668,"Ġexp":669,"ject":670,"tring":671,"}_{":672,"Ġuse":673,"Con":674,"ial":675,"of":676,"}^{":677,"iel":678,"ex":679,"ies":680,"time":681,"igma":682,"::":683,"ack":684,"times":685,"Ġall":686,"Ġte":687,"-\\":688,"co":689,"put":690,"Ġhas":691,"Ġqu":692,"Ġ@":693,"Ġla":694,"ource":695,"ind":696,"phi":697,"sum":698,"ree":699,"ion":700,"Ġad":701,"ac":702,"tes":703,"^{\\":704,"gra":705,"ory":706,"Ġar":707,"Ġdata":708,"Ġj":709,"ous":710,"ents":711,"act":712,"ated":713,"pi":714,"bo":715,"ould":716,"em":717,"we":718,"umber":719,"Ġinter":720,"ak":721,"Ġ</":722,"mbda":723,"idth":724,"ren":725,"lambda":726,"Ġ{\\":727,"ces":728,"Ġper":729,"Ġra":730,"lon":731,"Ġmodel":732,"bf":733,"tation":734,"Ġone":735,"Ġnew":736,"ĠJ":737,"sh":738,"Ġno":739,"ard":740,"own":741,"ular":742,"ations":743,"ator":744,"wo":745,"mathbf":746,"Ġ/":747,"min":748,"app":749,"ĠV":750,"section":751,"Ġpre":752,"ans":753,"ublic":754,"omm":755,"\",":756,"yste":757,"ps":758,"align":759,"Ġdo":760,"Ġen":761,"âĢĻ":762,"psilon":763,"Ġev":764,"over":765,"tribu":766,"ull":767,"Ġass":768,"ded":769,"bar":770,"hat":771,"Ġ:":772,"ize":773,"ror":774,"',":775,"();":776,"vi":777,"ollow":778,"Ġwill":779,"ting":780,"(\"":781,"ption":782,"ll":783,"sigma":784,"../":785,"ne":786,"olu":787,"ĠK":788,"ice":789,"igh":790,"ties":791,"Ġdif":792,"))":793,"irst":794,"}{\\":795,"item":796,"col":797,"Ġ(\\":798,"ual":799,"beta":800,"eta":801,"ast":802,"cre":803,"Ġ|":804,"Ġsa":805,"^{-":806,"ip":807,"und":808,"yn":809,"var":810,"Ġ.":811,"Re":812,"12":813,"Ġbo":814,"ix":815,"ĠWe":816,"tilde":817,"thod":818,"Ġhe":819,"ound":820,"Ġfollow":821,"Ġmo":822,"Ġcont":823,"Ġimp":824,"one":825,"no":826,"Ġtwo":827,"Ġ*/":828,"Ġalso":829,"mathrm":830,"sed":831,"Ġx":832,"ield":833,"ust":834,"--------":835,"****":836,"tit":837,"ĉĉĉ":838,"roup":839,"div":840,"+\\":841,"*}":842,"Ġequ":843,"gamma":844,"'s":845,"lement":846,"ml":847,"imp":848,"ics":849,"width":850,"\\\\":851,"del":852,"ok":853,"ection":854,"essage":855,"Ġver":856,"wh":857,"Ġsub":858,"cent":859,"theta":860,"orre":861,"lay":862,"name":863,"gh":864,"ark":865,"xi":866,"array":867,"ule":868,"Ġtran":869,"form":870,"Ġgener":871,"Ġsuch":872,"Ġthere":873,"Ġtime":874,"Ġconst":875,"]{":876,"200":877,"Ġout":878,"alu":879,"orm":880,"^\\":881,"Ġvalue":882,"mo":883,"sition":884,"figure":885,"sc":886,"Pro":887,"ace":888,"ear":889,"rho":890,"Ġpa":891,"We":892,"delta":893,"Ġrep":894,"ature":895,"led":896,"leq":897,"this":898,"Ġname":899,"Ġwhere":900,"Ġour":901,"uct":902,"ĠĠĠĠĠĠĠĠĠ":903,"Ġline":904,"ameter":905,"Ġtr":906,"tau":907,")}":908,"clude":909,"Ex":910,"Ġstr":911,"ish":912,"ystem":913,"cdot":914,"ĠThis":915,"====":916,"Ġother":917,"Ġcase":918,"Ġonly":919,"Ġdiffer":920,"mation":921,"ĠĠĠĠĠĠĠĠĠĠĠĠĠĠĠĠĠĠĠ":922,"Ġab":923,"Ġover":924,"sta":925,"oid":926,"tical":927,"Ġcol":928,"$-":929,"spon":930,"Ġint":931,"Ġbet":932,"Ġfin":933,"}$,":934,"}$.":935,"Ġdes":936,"ER":937,"Ġany":938,"big":939,"ger":940,"span":941,"Ġthen":942,"}(\\":943,"Ġ_":944,"ord":945,"></":946,"('":947,"eqref":948,"dex":949,"Ġro":950,"ink":951,"Ġtra":952,"Ġop":953,"Ġbut":954,"Ġgiv":955,"Ġso":956,"pend":957,"Ġcorre":958,"Ġeach":959,"Name":960,"ors":961,"Ġpublic":962,"art":963,"Ġmore":964,"Ġreg":965,"Ġu":966,"Ġph":967,"Ġshow":968,"Ġtype":969,"cy":970,"table":971,"ose":972,"Ġsome":973,"eng":974,"cap":975,"ved":976,"Ġ`":977,"partial":978,"ility":979,"Ġacc":980,"tex":981,"nu":982,"ĠâĢ":983,"Ġspec":984,"dic":985,"def":986,"Ġfirst":987,"Ġwhen":988,"fty":989,"ise":990,"11":991,"infty":992,"ults":993,"Ġget":994,"omega":995,"><":996,"|\\":997,"arrow":998,"fo":999,"ween":1000,"Ġer":1001,"dition":1002,"ally":1003,"its":1004,"space":1005,"fore":1006,"ob":1007,"ample":1008,"tab":1009,"Ġthan":1010,"Type":1011,"ud":1012,"pace":1013,"return":1014,"Ġnumber":1015,"Del":1016,"emp":1017,"ince":1018,"he":1019,"work":1020,"Ġup":1021,"gle":1022,"ension":1023,"../../":1024,"ni":1025,"Ġits":1026,"Delta":1027,"Ġbetween":1028,"ges":1029,"ves":1030,"IN":1031,"ON":1032,"Ġid":1033,"Ġext":1034,"com":1035,"lock":1036,"Ġvari":1037,"code":1038,"tern":1039,"Ġtheir":1040,"alse":1041,"eqn":1042,"16":1043,"sider":1044,"ild":1045,"ze":1046,"param":1047,"Ġnon":1048,"Ġused":1049,"Ġwork":1050,"ton":1051,"Ġthese":1052,"quad":1053,"ie":1054,"tric":1055,"tt":1056,"Ġrequ":1057,"For":1058,"Ġcur":1059,"type":1060,"html":1061,"Ġusing":1062,"ced":1063,"Ġdefin":1064,"su":1065,"riv":1066,"rent":1067,"key":1068,"Ġmethod":1069,"sec":1070,"De":1071,"ST":1072,"sf":1073,"String":1074,"Ġstate":1075,"source":1076,"ount":1077,"Ġman":1078,"import":1079,"ib":1080,"Ġgra":1081,"ength":1082,"15":1083,"ulti":1084,"mall":1085,"cess":1086,"Ġappro":1087,"ula":1088,"ura":1089,"Ġes":1090,"cted":1091,"ization":1092,"}[":1093,"Ġ$(":1094,"}}\\":1095,"Ġgiven":1096,"elf":1097,"Ġ!":1098,"olds":1099,"tif":1100,"olution":1101,"include":1102,"Ġbeen":1103,"Ġcom":1104,"ased":1105,"message":1106,"ress":1107,"gy":1108,"trans":1109,"Ġ#":1110,"les":1111,"cript":1112,"Ġtrans":1113,"Ġhigh":1114,"Ġ>":1115,"Ġresult":1116,"Id":1117,"\\,":1118,"Ġhref":1119,"rt":1120,"ia":1121,")$.":1122,"val":1123,"orem":1124,"Ġter":1125,"ĠRe":1126,"eck":1127,"ential":1128,"alues":1129,"ning":1130,"En":1131,"log":1132,"ĠFor":1133,"Ġinto":1134,"round":1135,"sq":1136,"Ġeff":1137,"Ġunder":1138,"graph":1139,"Res":1140,"ĠX":1141,"data":1142,"try":1143,"Ġorder":1144,"main":1145,"ized":1146,"13":1147,"vice":1148,"Ch":1149,"18":1150,"Ġel":1151,"Ġparameter":1152,"RE":1153,"epsilon":1154,"Ġz":1155,"td":1156,"Ġsc":1157,"center":1158,"pm":1159,"ote":1160,"Ġself":1161,"au":1162,"sel":1163,"ond":1164,"ymb":1165,"$$":1166,"Ġsim":1167,"irc":1168,"Ġbec":1169,"Ġvar":1170,"Ġcal":1171,"Ġwere":1172,"To":1173,"ymbol":1174,"Ġpres":1175,"dd":1176,"lan":1177,"}_{\\":1178,"arge":1179,"Ġthey":1180,"Ġ=>":1181,"Ġrela":1182,"ext":1183,"Ġconsider":1184,"ĠCh":1185,"where":1186,"old":1187,"trix":1188,"ments":1189,"lang":1190,"Ġ)":1191,"Ġsame":1192,"ied":1193,"spec":1194,"mega":1195,"25":1196,"Ġobtain":1197,"pre":1198,"ever":1199,"Ġform":1200,"arch":1201,"Ġmod":1202,"Ġser":1203,"ĠY":1204,"Omega":1205,"14":1206,"Ġ--":1207,"Ġoper":1208,"ĠĠĠĠĠĠĠĠĠĠĠĠĠĠĠĠĠĠĠĠĠĠĠĠĠĠĠĠĠĠĠĠ":1209,"comp":1210,"ert":1211,"man":1212,"AT":1213,"Ġdifferent":1214,"Ġdef":1215,"eqnarray":1216,"ax":1217,"Ġpartic":1218,"ected":1219,"class":1220,"als":1221,"mat":1222,"ĠčĊ":1223,"Ġyou":1224,"Ġresults":1225,"mage":1226,"Sta":1227,"fter":1228,"Ġobser":1229,"://":1230,"Ġfact":1231,"Ġmay":1232,"ry":1233,"Ġfollowing":1234,")$,":1235,"exp":1236,"Ġli":1237,"/>":1238,"gor":1239,"^*":1240,"textbf":1241,"omp":1242,"Ġend":1243,"umn":1244,"che":1245,"ific":1246,"sqrt":1247,"ym":1248,"olog":1249,"Ġsec":1250,"back":1251,"Ġprov":1252,"Ġ==":1253,"ian":1254,"Gamma":1255,"ĠĠĊ":1256,"ĠFig":1257,"hi":1258,"ception":1259,"ates":1260,"Ġpol":1261,"action":1262,"ox":1263,"ases":1264,"ons":1265,"asure":1266,"ont":1267,"gs":1268,"lem":1269,"ĠIt":1270,"rou":1271,"vely":1272,"cation":1273,"size":1274,"Ġfield":1275,"wide":1276,"subsection":1277,"ĠQ":1278,"##":1279,"Ġtrue":1280,"__":1281,"Ġnull":1282,"read":1283,"Ġcomm":1284,"Ġsee":1285,"Ġsign":1286,"lect":1287,"stra":1288,"fault":1289,"dis":1290,"vare":1291,"ath":1292,"vent":1293,"\"/>":1294,"ange":1295,"new":1296,"varepsilon":1297,"St":1298,"Ġac":1299,"ass":1300,"sim":1301,"Ġcomple":1302,"AR":1303,"Ġrepres":1304,"Ġgo":1305,"ots":1306,"ici":1307,"ause":1308,"Ġfe":1309,"iew":1310,"List":1311,"Ġsystem":1312,"ints":1313,"Ġchar":1314,"sk":1315,"graphics":1316,"son":1317,"caption":1318,"};":1319,"):":1320,"Ġhis":1321,"red":1322,"very":1323,"Ġvoid":1324,"ner":1325,"formation":1326,"Ġanal":1327,"atch":1328,"Ġproper":1329,"string":1330,"Ġtest":1331,"raw":1332,"LE":1333,"^{(":1334,"Ġ${\\":1335,"}=":1336,"lection":1337,"Ġdire":1338,"ector":1339,"cm":1340,"Ar":1341,"umer":1342,"includegraphics":1343,".,":1344,"}^{\\":1345,"tiv":1346,"32":1347,"ĠĠĠĠĠĠ":1348,"bm":1349,"Data":1350,")=":1351,"file":1352,"self":1353,"âĢĿ":1354,"Ġdistribu":1355,"SS":1356,"Ġspace":1357,"mary":1358,"cale":1359,"Ob":1360,"Ġsupp":1361,"rangle":1362,"OR":1363,"tively":1364,"ole":1365,"face":1366,"ime":1367,"Ġstring":1368,"********":1369,"17":1370,"ists":1371,"Ġwould":1372,"ery":1373,"translation":1374,"rit":1375,"Ġboth":1376,"htt":1377,"Ġ&&":1378,"energy":1379,"vers":1380,"')":1381,"ument":1382,"Ġfalse":1383,"bra":1384,"ader":1385,"Ġden":1386,"Ġerror":1387,"ID":1388,"ten":1389,"Ġkn":1390,"ick":1391,"\\!":1392,"ating":1393,"ep":1394,"Ġmin":1395,"ucture":1396,"imension":1397,"rightarrow":1398,"emph":1399,"Ġ\\,":1400,"entation":1401,"Ġmeasure":1402,"Ġgroup":1403,"Ġabout":1404,"Ġlow":1405,"jec":1406,"Ġcorrespon":1407,"non":1408,"ality":1409,"Ġvalues":1410,"Ġprodu":1411,"requ":1412,"Ġdec":1413,"ames":1414,"etwork":1415,"Ġwell":1416,"ĠPro":1417,"Ġpoint":1418,"gorith":1419,"ive":1420,"owever":1421,"lit":1422,"Ġelement":1423,"varphi":1424,"geq":1425,"value":1426,"ĠAn":1427,"ensure":1428,"mber":1429,"ling":1430,"Ġproble":1431,"30":1432,"EN":1433,".~\\":1434,"stance":1435,"pr":1436,"ash":1437,"100":1438,"ĠĠĠĠĠĠĠĠĠĠĠĠĠ":1439,"AL":1440,"////":1441,"----------------":1442,"sible":1443,"Ġback":1444,"vec":1445,"nel":1446,".}":1447,"rough":1448,"proof":1449,"Ġelse":1450,"));":1451,"Ġdescri":1452,"ĠDe":1453,"go":1454,"yp":1455,"test":1456,"Ġbu":1457,"Ġmost":1458,"rivate":1459,"itial":1460,"add":1461,"arget":1462,"pri":1463,"50":1464,"frak":1465,"An":1466,"pd":1467,"ormal":1468,"bolds":1469,"ition":1470,"Ġprocess":1471,"boldsymbol":1472,"overline":1473,"\");":1474,"Ġinte":1475,"ĠIf":1476,"Set":1477,"ster":1478,"amb":1479,"med":1480,"Ġfra":1481,"mod":1482,"Ġsmall":1483,"},\\":1484,"Ġinv":1485,"Ġste":1486,"Par":1487,"ilar":1488,"ency":1489,"chi":1490,"&\\":1491,"Big":1492,"Ġcontain":1493,"Value":1494,"[\\":1495,"ĠĠĠĠĠĠĠĠĠĠĠĠĠĠĠĠĠĠĠĠĠĠĠ":1496,"\"><":1497,"Ġstar":1498,"Ġexample":1499,"ative":1500,"This":1501,"order":1502,"function":1503,"Ġsur":1504,"Ġmass":1505,"];":1506,"],":1507,"22":1508,"ision":1509,"Ġesti":1510,"rite":1511,"tra":1512,"Ġdi":1513,"Ġassu":1514,"Ġcompu":1515,"Ġshould":1516,"top":1517,"lear":1518,"Ġenergy":1519,"ĠCon":1520,"ci":1521,"}).":1522,"play":1523,"mathfrak":1524,"lec":1525,"199":1526,")^":1527,"Col":1528,"Ġsize":1529,"ask":1530,"hline":1531,"Ġran":1532,"40":1533,"Ġmulti":1534,"view":1535,"ism":1536,"Ser":1537,"box":1538,"las":1539,"''":1540,"Ġ/**":1541,"Ġpos":1542,"lim":1543,"._":1544,"ey":1545,"rror":1546,"rol":1547,"uth":1548,"Ġlim":1549,"ava":1550,"see":1551,"des":1552,"Ġlocal":1553,"ler":1554,"Ġsing":1555,"ines":1556,"}}$":1557,"oci":1558,"inter":1559,"ough":1560,"ĠâĢľ":1561,"max":1562,"ĠZ":1563,"Ġcre":1564,"Ġorg":1565,"SE":1566,"mer":1567,"========":1568,"mis":1569,"DE":1570,"title":1571,"ression":1572,"Ġdefined":1573,"Ġdist":1574,"Ġbound":1575,"ero":1576,"ldots":1577,"Ġexper":1578,"lient":1579,"Ġpe":1580,"onent":1581,"ody":1582,"Ġwhile":1583,"langle":1584,"ins":1585,"Ġgeneral":1586,"not":1587,"Ġdoes":1588,"($":1589,"ven":1590,"Ġclo":1591,"Ġ,":1592,"sty":1593,"amil":1594,"Let":1595,"Ġthrough":1596,"bin":1597,"ost":1598,"Ġdisc":1599,"By":1600,"depend":1601,"lace":1602,"let":1603,"ambda":1604,"bove":1605,"\")":1606,"Ġdepend":1607,"Lambda":1608,"px":1609,"Ġmat":1610,"mate":1611,"Ġ%":1612,"Ġinclu":1613,"ower":1614,"ensity":1615,"by":1616,"As":1617,"ired":1618,"cont":1619,"node":1620,"cur":1621,"Ġabove":1622,"Ġevery":1623,"Ġthem":1624,"ful":1625,"ields":1626,"Phi":1627,"Ġfollows":1628,"Ġlarge":1629,"ilter":1630,"gorithm":1631,"Ġoff":1632,"ream":1633,"ross":1634,"Exception":1635,"acter":1636,"ensuremath":1637,"ability":1638,"late":1639,"Ġstatic":1640,"que":1641,"ake":1642,"Ġafter":1643,"Ġtemp":1644,"style":1645,"org":1646,"Ġright":1647,"Ġlet":1648,"io":1649,"21":1650,".\\":1651,"Ġ!=":1652,"less":1653,"ymme":1654,"Ġfile":1655,"nab":1656,"ays":1657,"Ġstructure":1658,"24":1659,"Ġhad":1660,"with":1661,"circ":1662,"inu":1663,"Ġfinal":1664,"sing":1665,"position":1666,"appa":1667,"CT":1668,"Ġmax":1669,"Ġlong":1670,"mm":1671,"Ġincre":1672,"gr":1673,"Ġmodels":1674,"Ġbel":1675,"lob":1676,"textit":1677,"At":1678,"lat":1679,"ynam":1680,"nabla":1681,"rodu":1682,"Ġshown":1683,"citep":1684,"Ġsol":1685,"Ġnow":1686,"kappa":1687,"Ġcons":1688,"comm":1689,"Ġiden":1690,"orph":1691,"ented":1692,"Ġhand":1693,"ww":1694,"IT":1695,"Ġwor":1696,"stru":1697,"uto":1698,"Ġyear":1699,"Ġthree":1700,"ulation":1701,"64":1702,"AN":1703,"ically":1704,"mbox":1705,"Ġneed":1706,"tal":1707,"33":1708,"Ġsince":1709,"igin":1710,"Bu":1711,"location":1712,"Ġ||":1713,")(":1714,"vious":1715,"mark":1716,"Ġadd":1717,"\\|":1718,"Un":1719,"Ġfa":1720,"bit":1721,"Ġnetwork":1722,"Object":1723,"Ġperform":1724,"Error":1725,"Ġcent":1726,"Ġcurrent":1727,"cer":1728,"ences":1729,"Ġpart":1730,"uring":1731,"Ġreal":1732,"Ġproblem":1733,"ĉĉĉĉĉ":1734,"Comp":1735,"ict":1736,"uch":1737,"ccess":1738,"Ġsecond":1739,"Ġag":1740,"60":1741,"Ġwho":1742,"tus":1743,"})$":1744,"Ġtop":1745,"Ġent":1746,"apa":1747,"cor":1748,"color":1749,"defin":1750,"script":1751,"ai":1752,"otimes":1753,"Ġimport":1754,"Ġ///":1755,"ffici":1756,"Ġbecause":1757,"Ġkey":1758,"Ġed":1759,"oper":1760,"amp":1761,"ste":1762,"group":1763,"Ġparameters":1764,"ier":1765,"odes":1766,"Ġstud":1767,"andom":1768,"ĠAs":1769,"Ġconn":1770,"rc":1771,"\\%":1772,"Ġobject":1773,"ene":1774,"Ġinformation":1775,"ground":1776,"}}{":1777,"urther":1778,"Ġregion":1779,"ME":1780,"}),":1781,"...":1782,"Ġprob":1783,"Ġ``":1784,"nt":1785,"Ġnode":1786,"lish":1787,"Ġsection":1788,"ee":1789,"Ġdistribution":1790,"nb":1791,"ference":1792,"index":1793,"Ġcall":1794,"rop":1795,"Ġfeature":1796,"Ġoperator":1797,"ixed":1798,"nonumber":1799,"Get":1800,"Ġcalc":1801,"struct":1802,"Ġapproach":1803,"ĠString":1804,"Ġfound":1805,"br":1806,"ities":1807,"ural":1808,"reak":1809,"tisf":1810,"dots":1811,"ared":1812,"Me":1813,"Ġpr":1814,"Ġradi":1815,"Ġgraph":1816,"Ġinput":1817,"ng":1818,"000":1819,"Ġvery":1820,"Ġpri":1821,"ĠĠĠĠĊ":1822,"Ġprivate":1823,"ov":1824,"Ġq":1825,"\\[":1826,"Ġmatrix":1827,"sive":1828,"ness":1829,"Ġ:=":1830,"Ġeffec":1831,"tity":1832,"Ġallow":1833,"indow":1834,"war":1835,"udi":1836,"arg":1837,"date":1838,"Ġterms":1839,"ings":1840,"roll":1841,"');":1842,"Ġdeter":1843,"uration":1844,"ope":1845,"().":1846,"reg":1847,"());":1848,"gain":1849,"Ġmag":1850,"Ġ($":1851,"link":1852,"reat":1853,"ij":1854,"raph":1855,"ffer":1856,"Ġarg":1857,"Ġinitial":1858,"ctor":1859,"ified":1860,"Sigma":1861,"ĠAl":1862,"lack":1863,"roid":1864,"23":1865,"].":1866,"ysis":1867,"ense":1868,"Ġmain":1869,"Ġsimilar":1870,"vert":1871,"Ġval":1872,"unc":1873,"CO":1874,"tice":1875,"length":1876,"public":1877,"Ġbased":1878,"ward":1879,"Ġsample":1880,"Ġparticular":1881,"ĠHe":1882,"ain":1883,"ĠThen":1884,"Ġcould":1885,"Ġeven":1886,"path":1887,"Ġsuper":1888,"Ġtrain":1889,"base":1890,"ift":1891,"Ġprovide":1892,"map":1893,"Ġder":1894,"Ġrun":1895,"Lo":1896,"Ġpath":1897,"bility":1898,"ices":1899,"Ġsum":1900,"Ġlead":1901,"centering":1902,"{-":1903,"Ġmany":1904,"tics":1905,"Ġsatisf":1906,"Key":1907,"Ġfunctions":1908,"Ġfind":1909,"Ġam":1910,"Ġlike":1911,"Sh":1912,"/\\":1913,"ently":1914,"Ġtak":1915,"){":1916,"80":1917,"ĠSt":1918,"Test":1919,"sitive":1920,"pper":1921,"ational":1922,"Ġmust":1923,"summary":1924,"nbsp":1925,"draw":1926,"Class":1927,"erature":1928,"mon":1929,"Ġmap":1930,"widetilde":1931,"File":1932,"Ġlist":1933,"Cont":1934,"url":1935,"perty":1936,"Ġlevel":1937,"ese":1938,"Po":1939,"void":1940,"ving":1941,"Ġhow":1942,"tations":1943,"LL":1944,"Ġcharacter":1945,"opy":1946,"imum":1947,"Ġrespec":1948,"State":1949,"Ġaction":1950,"aw":1951,"Ġtyp":1952,"Ġredu":1953,"Ġpaper":1954,"list":1955,"velop":1956,"~~":1957,"ables":1958,"Requ":1959,"Ġobtained":1960,"tabular":1961,"tyle":1962,"Ġsolution":1963,"ior":1964,"\";":1965,"Ġlear":1966,"ology":1967,"Ġsequ":1968,"orted":1969,"Ġpredic":1970,"ott":1971,"Ġequation":1972,"matrix":1973,"ication":1974,"otential":1975,"He":1976,"Ġleft":1977,"model":1978,"Al":1979,"Ġsingle":1980,"oup":1981,"ĠEx":1982,"Ġcoun":1983,"}-":1984,"verse":1985,"Ġcorresponding":1986,"Ġdensity":1987,"Ġemp":1988,"Ġoptim":1989,"imple":1990,"Ġexperim":1991,"Ġwhat":1992,"Ġlinear":1993,"Ġplan":1994,"Ġread":1995,"pec":1996,"ape":1997,"ĠThere":1998,"['":1999,"ils":2000,"Op":2001,"annel":2002,"Element":2003,"Ġhy":2004,"Ġaddition":2005,"Ġshows":2006,"PE":2007,"lication":2008,"ush":2009,"AC":2010,"Time":2011,"RO":2012,"Ġway":2013,"Ġact":2014,"mission":2015,"(),":2016,"const":2017,"ify":2018,"http":2019,"TE":2020,"Ġscal":2021,"zeta":2022,"Fig":2023,"Ġhel":2024,"sert":2025,"Ġstand":2026,"lable":2027,"emma":2028,"Ġbeing":2029,"ĠLet":2030,"Ġdete":2031,"Ġhere":2032,"tivity":2033,"load":2034,"\\]":2035,"Ġcho":2036,"Ġpoints":2037,"ides":2038,"mit":2039,"Ġcondition":2040,"Ġmake":2041,"45":2042,"Ġexist":2043,"PI":2044,"\\{":2045,"tribute":2046,"Ġindic":2047,"75":2048,"ually":2049,"Ġfinite":2050,"inc":2051,"ets":2052,"Ġthose":2053,"uc":2054,"Ġstates":2055,"}+":2056,"cept":2057,"Ġrespon":2058,"/**":2059,"Ġconstant":2060,"Ġdirect":2061,"Node":2062,"prime":2063,"ants":2064,"Ġevent":2065,"gebra":2066,"temp":2067,"\\!\\!":2068,"View":2069,"lobal":2070,".</":2071,"Ġuni":2072,"cho":2073,"99":2074,"ui":2075,"ople":2076,"Ġdue":2077,")=\\":2078,"Ġ?":2079,"ĠWh":2080,"search":2081,"Ġmon":2082,"ug":2083,"lies":2084,"ternal":2085,"Ġher":2086,"Ġ/*":2087,"Ġapproxi":2088,"On":2089,"Ġagain":2090,"side":2091,"jects":2092,"js":2093,"ival":2094,"ĠEq":2095,"ely":2096,"Equ":2097,"ute":2098,"pos":2099,"ĠTheorem":2100,"Ġlast":2101,"Ġ);":2102,"Ġref":2103,"Ġobserv":2104,"Ġpossible":2105,"Ġ&=":2106,"Ġindex":2107,"Ġsource":2108,"bed":2109,"lot":2110,"other":2111,"}=\\":2112,"Ġge":2113,"\"></":2114,"LA":2115,"Ġdimension":2116,"27":2117,"/*":2118,"Event":2119,"ĠTo":2120,"ock":2121,"ration":2122,")}\\":2123,"']":2124,"ĠHowever":2125,"Ġorigin":2126,"ditions":2127,"tis":2128,"With":2129,"nav":2130,"Ġbeh":2131,"oth":2132,"Ġcontinu":2133,"thm":2134,"Ġimage":2135,"Ġproof":2136,"SI":2137,"{(":2138,"Ġtheory":2139,"dt":2140,"Ġsyste":2141,"Ġmean":2142,"prop":2143,"Ġbefore":2144,"Ġrespectively":2145,"Ġknow":2146,"ĠUni":2147,"istic":2148,"Ġpower":2149,"}]":2150,")^{":2151,"Index":2152,"pack":2153,"Ġvector":2154,"90":2155,"Ġrandom":2156,"It":2157,"Ġmultip":2158,"Ġarray":2159,"Ġdeta":2160,"spect":2161,"ĉĊ":2162,"ason":2163,"Ġlog":2164,"verage":2165,"Ġjust":2166,"olean":2167,";\\":2168,"Qu":2169,"\":":2170,"Ġpotential":2171,"2017":2172,"Ġintrodu":2173,"omorph":2174,"mages":2175,"struction":2176,"ocument":2177,"under":2178,"Ġvis":2179,"Ġalgorithm":2180,"Ġrange":2181,"Ġcontext":2182,"TR":2183,"dependent":2184,"mi":2185,"ager":2186,"Ġcheck":2187,"Ġ},":2188,"Ġstudy":2189,"antum":2190,"Ġtarget":2191,"Ġtext":2192,"orts":2193,"If":2194,"Ġflu":2195,"28":2196,"from":2197,"':":2198,"Ġpair":2199,"ĠAr":2200,"iod":2201,"ister":2202,"Ġcode":2203,"lemma":2204,"}_\\":2205,"rows":2206,"Ġcalcula":2207,"IC":2208,"Ġcomplex":2209,"35":2210,"Ġphase":2211,"ĠSta":2212,"Ġwithin":2213,"Ġspectr":2214,"ules":2215,"Ġpropo":2216,"$)":2217,"Ġblock":2218,"Ġconfig":2219,"Ġlimit":2220,"input":2221,"ources":2222,"Man":2223,"}|":2224,"Ġanalysis":2225,"Ġassoci":2226,"Text":2227,"Ġtri":2228,"Ġlength":2229,"Ġprevious":2230,"ived":2231,"2018":2232,"ii":2233,"Ġinstance":2234,"ron":2235,"field":2236,"Info":2237,"Ġplay":2238,"Ġmy":2239,"Ġmethods":2240,"Ġbase":2241,"ched":2242,"textwidth":2243,"++":2244,"'t":2245,"}^\\":2246,"cing":2247,"ĠSection":2248,"Ġdefine":2249,"vir":2250,"Ġpresent":2251,"wn":2252,"Ġtotal":2253,"Path":2254,"Ġdevelop":2255,"2019":2256,"ks":2257,"fe":2258,"cription":2259,"Le":2260,"cdots":2261,"26":2262,"ĠNew":2263,"Ġsymme":2264,"user":2265,",-":2266,"01":2267,"lin":2268,"asi":2269,"sequ":2270,"Ġerr":2271,"but":2272,"small":2273,"}}(":2274,"Ġ(!":2275,"vari":2276,"Ġterm":2277,"Ġversion":2278,"Int":2279,"land":2280,"``":2281,"Ġstrong":2282,"aus":2283,"lected":2284,"Ġnext":2285,"Ġuser":2286,"2016":2287,"qquad":2288,"Ġ\\{":2289,"Ġ===":2290,"MA":2291,".~":2292,"ures":2293,"light":2294,"Ġdeg":2295,"Ġview":2296,"Array":2297,"05":2298,"Ġwithout":2299,"Se":2300,"Ġdynam":2301,"})\\":2302,"Ġocc":2303,"ouble":2304,"util":2305,"till":2306,"jo":2307,"Ġrate":2308,"Ġlat":2309,"Request":2310,"arent":2311,"king":2312,"Ġyour":2313,"mathsf":2314,"state":2315,"ĠRes":2316,"ĠĠĠĠĠĠĠĠĠĠĠĠ":2317,"Ġbas":2318,"onal":2319,"define":2320,"Ġconver":2321,"Ġ/>":2322,"ttp":2323,"medi":2324,"Ġproperties":2325,"ordin":2326,"ottom":2327,"anel":2328,"ances":2329,"Ġstra":2330,"Ġet":2331,"ither":2332,"point":2333,"ession":2334,"Ġexists":2335,"ache":2336,"Ġcontrol":2337,"ages":2338,"Ġpeople":2339,"Ġlay":2340,"Ġassert":2341,"pdf":2342,"tot":2343,"operator":2344,"Psi":2345,"Ġdetermin":2346,"call":2347,"note":2348,"xspace":2349,")]":2350,"Ġconstra":2351,"page":2352,"ogle":2353,"[]":2354,"rid":2355,"2015":2356,"ends":2357,"mid":2358,"^+":2359,"!--":2360,"Ġzero":2361,"}\\,":2362,"wise":2363,"Ġclu":2364,"Ġcoup":2365,"ude":2366,"****************":2367,"Context":2368,"Ġcalled":2369,"bor":2370,"())":2371,"Ġboun":2372,"igned":2373,"tically":2374,"error":2375,"ĠâĢĵ":2376,"{{\\":2377,"gram":2378,"Ġspa":2379,"App":2380,"}^{(":2381,"LO":2382,"ental":2383,"aris":2384,"Ġoutput":2385,"amespace":2386,"Ġwidth":2387,"star":2388,"ride":2389,"api":2390,"Ġmom":2391,"off":2392,"Ġmuch":2393,"////////":2394,"ĠĠĠĠĠĠĠĠĠĠĠĠĠĠĠĠĠĠĠĠĠĠĠĠĠĠĠ":2395,"rac":2396,"Ġtitle":2397,"ĠLemma":2398,"&=":2399,"Ġtask":2400,"loat":2401,"Ġindu":2402,"move":2403,"Add":2404,"Ġnormal":2405,"body":2406,"true":2407,"Ġ});":2408,"Ġtech":2409,"Ġremain":2410,"Ġopen":2411,"ĠSh":2412,"Ġconditions":2413,"upp":2414,"29":2415,"Ite":2416,"Ġperformance":2417,"=\"+":2418,"https":2419,"widehat":2420,"Ġsimp":2421,"eps":2422,"thing":2423,"Ġduring":2424,"Ġframe":2425,"Config":2426,"do":2427,"Ġformu":2428,"70":2429,"Ġlower":2430,"Ġprobability":2431,"valid":2432,"den":2433,"=\"../../":2434,"ĠFigure":2435,"ilder":2436,"AD":2437,"sif":2438,"\"\"":2439,"appro":2440,"';":2441,"Ġsaid":2442,"Ġauth":2443,"UR":2444,"Ġdiag":2445,"66":2446,"Ġtimes":2447,"Ġidentif":2448,"Map":2449,"Ġimple":2450,"ĠNo":2451,"cos":2452,"34":2453,"Ġyears":2454,"icon":2455,"Ġstart":2456,"Ġ$(\\":2457,"}\\\\":2458,"Ġav":2459,"which":2460,"onents":2461,"Ġelec":2462,"Of":2463,"Ġmatch":2464,"lus":2465,"Ġcar":2466,"cup":2467,"Ġcirc":2468,"Code":2469,"Over":2470,"sets":2471,"iled":2472,"Ġshe":2473,"Ġexpected":2474,"Ġrequire":2475,"Ġproperty":2476,"config":2477,"Ġ&\\":2478,"ĠOn":2479,"subset":2480,"netic":2481,"lated":2482,"Ġchange":2483,"ensor":2484,"ged":2485,"Ġknown":2486,"Ġwrit":2487,"Ġquantum":2488,"block":2489,"Service":2490,"itor":2491,"ging":2492,"Ġsystems":2493,"ati":2494,"2014":2495,"Ver":2496,"Ġbackground":2497,"Ġposition":2498,"pon":2499,"ĠBy":2500,"ĠEn":2501,"Ġdefault":2502,"lying":2503,"loy":2504,"ML":2505,"198":2506,"Ġtake":2507,"No":2508,"From":2509,"scale":2510,"Ġbreak":2511,"MP":2512,"alax":2513,"Des":2514,"urb":2515,"amily":2516,"ording":2517,"umb":2518,"Ġnil":2519,"Ġsimple":2520,"Size":2521,"ED":2522,"Ġfactor":2523,"Ġsignific":2524,"Ġpositive":2525,"foot":2526,"Ġsequence":2527,"Ġdiscus":2528,"Ġfil":2529,"Ġgu":2530,"Ġfour":2531,"FF":2532,"Ġimportant":2533,"Ġpop":2534,"equiv":2535,"effici":2536,"}:":2537,"result":2538,"enc":2539,"vis":2540,"tron":2541,"ĠĠĠĠĠĠĠĠĠĠ":2542,"Ġconf":2543,"ider":2544,"}}{\\":2545,"ĠUn":2546,"pping":2547,"lue":2548,"48":2549,"rans":2550,"check":2551,"AB":2552,"Ġrele":2553,"Ġstill":2554,"sw":2555,"Ġcontra":2556,"next":2557,"ev":2558,"illi":2559,"Ġalong":2560,"Ġchang":2561,"ams":2562,"ife":2563,"imal":2564,"Ġsupport":2565,"ION":2566,"attern":2567,"Ġelements":2568,"Ġcases":2569,"ken":2570,"Ġphot":2571,"lied":2572,"default":2573,"Ġhigher":2574,"ĠAss":2575,"ater":2576,"indent":2577,"Ġequival":2578,"Ġassume":2579,"Ġke":2580,"Ġbehav":2581,"UT":2582,"Ġclear":2583,"Ġide":2584,"Ġtemperature":2585,"Or":2586,"Ġ};":2587,"Ġthus":2588,"head":2589,"]$":2590,"Ġfixed":2591,"tings":2592,"quot":2593,"AS":2594,"oll":2595,"lassif":2596,"55":2597,"abled":2598,"apache":2599,"licit":2600,"Ġvalid":2601,"Ġabs":2602,"enumer":2603,"Ġstandard":2604,"Ġextra":2605,"mar":2606,"ik":2607,"ocus":2608,"word":2609,"Ġcontent":2610,"Be":2611,"}+\\":2612,"Ġproduct":2613,"Ġobserved":2614,"Ġtraining":2615,"omin":2616,"Ġassociated":2617,"39":2618,"Wh":2619,"serv":2620,"Ġfurther":2621,"Ġear":2622,"Model":2623,"|^":2624,"0000":2625,"eturn":2626,"sian":2627,"Ġinteraction":2628,"ters":2629,"create":2630,"her":2631,"ustom":2632,"rep":2633,"lip":2634,"loc":2635,"II":2636,"Ġevalu":2637,"icy":2638,"way":2639,"dimension":2640,"Ġdown":2641,"object":2642,"Ġphys":2643,"Ġlabel":2644,"citet":2645,"CH":2646,"'$":2647,"md":2648,"Ġmade":2649,"Ġimpro":2650,"2013":2651,"Ġmar":2652,"({\\":2653,"neq":2654,"hspace":2655,"olutions":2656,"Ġ__":2657,"36":2658,"uments":2659,"enu":2660,"version":2661,"Dis":2662,"asing":2663,"Ġstudi":2664,"ret":2665,"ring":2666,")-":2667,"cl":2668,"Ġleast":2669,"gener":2670,"ump":2671,"Ġaround":2672,"Ġproposed":2673,"Exp":2674,"xy":2675,"Ġcolor":2676,"ync":2677,"Ġscale":2678,"Tr":2679,"meric":2680,"Ġsever":2681,"member":2682,"Ġcontribu":2683,"Ġfrequ":2684,"alle":2685,"ailable":2686,"display":2687,"ĉĉĉĉĉĉ":2688,"day":2689,"Ġdiff":2690,"net":2691,"ways":2692,"assert":2693,"}-\\":2694,"any":2695,"Ġalgebra":2696,"Ġfields":2697,"split":2698,"footnote":2699,"Ġquan":2700,"Hand":2701,"Ġdenote":2702,"ouse":2703,"Ġfull":2704,"38":2705,"ĠOb":2706,"tig":2707,"2020":2708,"Ġinf":2709,"ready":2710,"sin":2711,"defined":2712,"Message":2713,"Ġlines":2714,"ET":2715,"IS":2716,"oh":2717,"Ġappear":2718,"Ġperiod":2719,"Ġbelow":2720,"theorem":2721,"ined":2722,"itch":2723,"ware":2724,"ĠLe":2725,"erm":2726,"Ġmark":2727,"Ġoptions":2728,"viron":2729,"Ġrespect":2730,"Ġsepar":2731,"Ġsignificant":2732,"Ġcomplete":2733,"ited":2734,"Ġcombin":2735,"uage":2736,"Rec":2737,"Ġgood":2738,"####":2739,"can":2740,"operatorname":2741,"stand":2742,"Ġ-\\":2743,"Ġfree":2744,"method":2745,"edge":2746,"tional":2747,"Ġcross":2748,"ended":2749,"nal":2750,"Ġstep":2751,"iter":2752,"ily":2753,"ĠSince":2754,"enumerate":2755,"Item":2756,"bt":2757,"Ġanaly":2758,"Ġeither":2759,"Ġequations":2760,"cle":2761,"Field":2762,"Ġcommun":2763,"Ġdep":2764,"has":2765,"Ġcreate":2766,"ris":2767,"Ġ-->":2768,"tag":2769,"Ġspin":2770,")}{":2771,"Ġbin":2772,"]\\":2773,"Ġdistance":2774,"Ġrequest":2775,"Ġgalax":2776,"Ġconsist":2777,"olumn":2778,"Ġbest":2779,"Ġenc":2780,"(-":2781,"mul":2782,"func":2783,"Ġnumer":2784,"ars":2785,"Ġinst":2786,"ying":2787,"Ġincluding":2788,"itemize":2789,"ĠMe":2790,"ological":2791,"Ġboundary":2792,"lete":2793,"dag":2794,"scr":2795,"ctions":2796,"System":2797,"bs":2798,"fact":2799,"Ġrec":2800,"tices":2801,"Ġexact":2802,"vspace":2803,"doc":2804,"Ġeffect":2805,"ern":2806,"37":2807,"reate":2808,"Ġwrite":2809,"versity":2810,"png":2811,"Ġlink":2812,"Ġfeatures":2813,"my":2814,"Ġnear":2815,"Ġweight":2816,"Ġless":2817,"Ġdomain":2818,"ES":2819,"tainer":2820,"Ġrece":2821,"Ġestima":2822,"ns":2823,"Is":2824,"refer":2825,"ponse":2826,"Ġlearning":2827,"fill":2828,"Inter":2829,"((":2830,"Ġinterest":2831,"IG":2832,"rary":2833,"{}":2834,"ename":2835,"Ġedge":2836,"44":2837,"Ġfit":2838,"Ġchild":2839,"omial":2840,"noindent":2841,"2012":2842,"igen":2843,"Ġloss":2844,"Ġcri":2845,"Ġsimula":2846,"95":2847,"conn":2848,"Ġbi":2849,"Ġauto":2850,"arger":2851,"pc":2852,"Ġcomponent":2853,"Ġmeans":2854,"Ġconsidered":2855,"ether":2856,"based":2857,"Table":2858,"start":2859,"Co":2860,"sl":2861,"--------------------------------":2862,"Ġdescribed":2863,"www":2864,"resh":2865,"Out":2866,")}$":2867,"Ġresponse":2868,"Ġlook":2869,"Ġdefinition":2870,"ULL":2871,"tio":2872,"Pi":2873,"Ġavailable":2874,"overn":2875,"Ġrequired":2876,"ĠApp":2877,"Ġcolumn":2878,"Ġlight":2879,"UN":2880,"Ġaverage":2881,"ĠThese":2882,"\\,\\":2883,"}}_":2884,"Ġclose":2885,"ĠAd":2886,"Ġexpression":2887,"='":2888,"$}":2889,"mbed":2890,"ished":2891,"Ġimplies":2892,"ĠThus":2893,"info":2894,"ateg":2895,"kn":2896,"Ġvel":2897,"chie":2898,"CC":2899,"Ġdid":2900,"Ġaccura":2901,"rule":2902,"command":2903,"gl":2904,"ral":2905,"08":2906,"31":2907,"part":2908,"ategory":2909,"Ġchannel":2910,"Ġdeno":2911,"local":2912,"Ġspe":2913,"por":2914,"There":2915,"](":2916,"dimensional":2917,"65":2918,"&&":2919,"olume":2920,"lt":2921,"){\\":2922,"stead":2923,"options":2924,"Ġseveral":2925,"Ġpers":2926,"][":2927,"================":2928,"urity":2929,"ric":2930,"roller":2931,"Ġmis":2932,"04":2933,"Ġjava":2934,"current":2935,"02":2936,"height":2937,"Ġsets":2938,"formed":2939,"Ġflow":2940,"linear":2941,"Ġcell":2942,"Ġmoment":2943,"\\}$":2944,"Group":2945,"ING":2946,"uture":2947,"multic":2948,"Color":2949,"New":2950,"ĠComp":2951,"Ġunit":2952,"angle":2953,"iform":2954,"Ġcy":2955,"gt":2956,"Ġgenerated":2957,"Ġaff":2958,"ocity":2959,"ane":2960,"PT":2961,"mathscr":2962,"Ġpass":2963,"Ġim":2964,"Ġsurface":2965,"DO":2966,"alth":2967,"tition":2968,"bug":2969,"Ġiter":2970,"lugin":2971,"ah":2972,"multi":2973,"Ġcoeffici":2974,"skip":2975,"Ġcer":2976,"Ġcontains":2977,"gative":2978,"ĠAt":2979,"~$":2980,"Ġprote":2981,"atter":2982,"IR":2983,"All":2984,"Ġlaw":2985,"Ġside":2986,"gen":2987,"Ġrecent":2988,"context":2989,"Ġfla":2990,"ram":2991,"false":2992,"riter":2993,"ĠGet":2994,"normal":2995,"Ġband":2996,"ĠAmeric":2997,"2011":2998,"multicolumn":2999,"ecess":3000,"ln":3001,"Ġvia":3002,"Ġrefer":3003,"tle":3004,"aving":3005,"Property":3006,"teq":3007,"arison":3008,"down":3009,"Cell":3010,"Ġachie":3011,"mentation":3012,"content":3013,"Ġanother":3014,"pped":3015,"Ġcap":3016,"Ġrepresentation":3017,"Ġoccur":3018,"ithub":3019,"bb":3020,"approx":3021,"using":3022,"reen":3023,"Ġspecific":3024,"Ġinclude":3025,"jor":3026,"chool":3027,"Ġ\\|":3028,"Ġhelp":3029,"Ġlarger":3030,"chan":3031,"most":3032,"Ġequal":3033,"sto":3034,"ĠIs":3035,"port":3036,"Query":3037,"ĠSo":3038,"ender":3039,"ible":3040,"}/":3041,"Sub":3042,"07":3043,"char":3044,"Response":3045,"web":3046,"OT":3047,"Manager":3048,"GL":3049,"Ġhal":3050,"Ġclassif":3051,"Ġvariables":3052,"Ġrelation":3053,"Ġcoordin":3054,"mooth":3055,"site":3056,"ait":3057,"ecu":3058,"ĠMore":3059,"Ġsay":3060,"Ġbetter":3061,"Ġalready":3062,"osition":3063,"Ġtable":3064,"static":3065,"Mod":3066,"Ġnote":3067,"Ġsrc":3068,"Ġprove":3069,"Log":3070,"67":3071,"Ġsearch":3072,"Comm":3073,"Ġsk":3074,"tor":3075,"Ġnat":3076,"Ġassump":3077,"flow":3078,"Ġsolutions":3079,"NN":3080,"Ġrelations":3081,"Ġmode":3082,"Ġdiv":3083,")+":3084,"Ġholds":3085,"Method":3086,"hand":3087,"oo":3088,"uman":3089,"that":3090,"Ġques":3091,"oken":3092,"Ġhim":3093,"Ġglobal":3094,"chema":3095,"Reg":3096,"sid":3097,"EE":3098,"texttt":3099,"Ġoriginal":3100,"ENT":3101,"istory":3102,"ĠSet":3103,"google":3104,"vironment":3105,"Ġturn":3106,"Ġmedi":3107,"kes":3108,"Ġmessage":3109,"Ġfew":3110,".âĢĿ":3111,"Ġworld":3112,"gg":3113,"vices":3114,"2010":3115,"Ġindependent":3116,"ety":3117,"duct":3118,"trm":3119,"Ġown":3120,"ticle":3121,"clo":3122,">&":3123,"seteq":3124,"lations":3125,"err":3126,"Ġrelated":3127,"End":3128,"github":3129,"now":3130,"Ġseen":3131,"tual":3132,"La":3133,"stit":3134,"Ġhom":3135,"Ġgives":3136,"java":3137,"icro":3138,"}}}":3139,"Ġbool":3140,"textrm":3141,"SP":3142,"core":3143,"cel":3144,"Ġ_{":3145,"ĉĠĠĠ":3146,"element":3147,"Ġalways":3148,"User":3149,"totype":3150,"CD":3151,"Ġgive":3152,"more":3153,"divid":3154,"ĠSec":3155,"module":3156,"Ġgreat":3157,"Sec":3158,"case":3159,"db":3160,"Client":3161,"Ġweak":3162,"sm":3163,".$":3164,"example":3165,"Ġmagnetic":3166,"image":3167,"terial":3168,"Ass":3169,"49":3170,"Ġaddress":3171,"ĠĠĠĠĠĠĠĠĠĠĠĠĠĠĠĠĠ":3172,"underline":3173,"^-":3174,"ĠSystem":3175,"laim":3176,"leg":3177,"Ġcannot":3178,"ĠCol":3179,"package":3180,"Ð¾":3181,"dire":3182,"Input":3183,"Ġintegra":3184,"Ġwhether":3185,"gence":3186,"finite":3187,"Ġcl":3188,"06":3189,"Ġtherefore":3190,"ned":3191,"Ġsuccess":3192,"=\"../../../../":3193,"ressed":3194,"run":3195,"jective":3196,"Ġseries":3197,"earch":3198,"Ġ$\\{":3199,"ĠAnd":3200,"ale":3201,"09":3202,"Ġlang":3203,"TD":3204,"ade":3205,"omen":3206,"03":3207,"And":3208,"ail":3209,"MS":3210,"AA":3211,"long":3212,"ĠPar":3213,"ĠNote":3214,"sions":3215,"Ġcomponents":3216,"Ġestimate":3217,"minus":3218,"])":3219,"Ġcluster":3220,"ird":3221,"oud":3222,"af":3223,"ĠTable":3224,"({":3225,"Result":3226,"Call":3227,"Fra":3228,"{$":3229,"Ã©":3230,"lished":3231,"Ġwave":3232,"subseteq":3233,"cep":3234,"Ġregular":3235,"Theta":3236,"Ġimages":3237,"Ġcost":3238,"NS":3239,"68":3240,"ored":3241,"Ġtransition":3242,"ĠTherefore":3243,"android":3244,"ynomial":3245,"Fact":3246,"Count":3247,"Ġlit":3248,"column":3249,"cheme":3250,"Ġ\\;":3251,"Ġcor":3252,"css":3253,"Ġfilter":3254,"acc":3255,"Ġsyn":3256,"Ġnecess":3257,"Since":3258,"ĠGL":3259,"Ġpla":3260,"fs":3261,"Ġstyle":3262,"Ad":3263,"Ġneu":3264,"Ġcommon":3265,"though":3266,"47":3267,"}'":3268,"Ġbro":3269,"oriz":3270,"Then":3271,"),\\":3272,"Ġ$|":3273,"Ġpur":3274,"oding":3275,"gine":3276,"pher":3277,"AP":3278,"Ġplace":3279,";&":3280,"Ġinvol":3281,"Ġobjects":3282,"icture":3283,"Val":3284,"gether":3285,"ories":3286,"auth":3287,"Ġmultiple":3288,"}^{-":3289,"hip":3290,"az":3291,"gment":3292,"ience":3293,"Ġexpect":3294,"Ġshort":3295,"prod":3296,"cket":3297,"Ġprovided":3298,"Ġcoupling":3299,"older":3300,"orth":3301,"Ġspectrum":3302,"Ġeffective":3303,"<\\":3304,"OS":3305,"ledge":3306,"Ġreason":3307,"Ġmaximum":3308,"Ġadditional":3309,"Ġmen":3310,"Ġbuil":3311,"active":3312,"Ġ()":3313,"ymp":3314,"Ġhttp":3315,"ght":3316,"Ġresearch":3317,"omes":3318,">(":3319,"dividual":3320,"undle":3321,"eV":3322,"event":3323,"Tra":3324,"ires":3325,"norm":3326,"TH":3327,"Trans":3328,"Ġjo":3329,"EX":3330,"Ġdesign":3331,"Ð°":3332,"Ġagainst":3333,"Ġ(-":3334,"ately":3335,"Ġthrow":3336,"meta":3337,"Ġfamily":3338,"button":3339,"Ġprec":3340,"Ġevents":3341,"}}_{":3342,"parameter":3343,"Ġblack":3344,"Override":3345,"Ġstd":3346,"Ġvelocity":3347,"ove":3348,"Gener":3349,"Ġdifference":3350,"Ġatta":3351,"tational":3352,"Builder":3353,"Ġintegr":3354,"Not":3355,"ometry":3356,"sitions":3357,")|":3358,"CE":3359,"^{-\\":3360,"level":3361,"}},":3362,"matic":3363,"empty":3364,"85":3365,"....":3366,"query":3367,"Ġheight":3368,"Ġ<<":3369,"incip":3370,"Ġdegree":3371,"ctive":3372,"dir":3373,"like":3374,"Ġeigen":3375,"Ġmove":3376,"Ġderiv":3377,"Status":3378,"cast":3379,"Stream":3380,"Sc":3381,"Ġmight":3382,"Ġsw":3383,"Ġmetric":3384,"Ġtheorem":3385,"Ref":3386,"pol":3387,"2009":3388,"rr":3389,"77":3390,"ograph":3391,"thes":3392,"oot":3393,"option":3394,"Ġspecial":3395,"ĠBut":3396,"known":3397,"Ġinves":3398,"omic":3399,"Bar":3400,"setminus":3401,"ests":3402,"Ðµ":3403,"Ġnodes":3404,"Parameter":3405,"Ġeffici":3406,"Token":3407,"Ġeffects":3408,"US":3409,"ĠTr":3410,"Ġrelative":3411,"Ġinvari":3412,"ĠSer":3413,".\"":3414,"Ġmodule":3415,"Ġwant":3416,"ĠĠĠĠĠĠĠĠĠĠĠĠĠĠĠĠĠĠĠĠĠĠĠĠĠĠĠĠĠĠĠ":3417,"âĢĵ":3418,"ital":3419,"Ġbasis":3420,"ending":3421,"ernel":3422,"Ext":3423,"Ġvariable":3424,"Line":3425,"inally":3426,"Ġevolution":3427,"child":3428,"iction":3429,"ATE":3430,"frame":3431,"tocol":3432,"linewidth":3433,"Ġtry":3434,"ĠĠĠĠĠĠĠĠĠĠĠĠĠĠ":3435,"ech":3436,"dagger":3437,"air":3438,"Ġdon":3439,"limits":3440,"lick":3441,"Style":3442,"lap":3443,"ĠComm":3444,"Ġmechan":3445,"Ġcompared":3446,"Ġfar":3447,"append":3448,"ef":3449,"Ġdirection":3450,"Ġstars":3451,"dient":3452,"van":3453,"tage":3454,"quare":3455,"Note":3456,"abs":3457,"idence":3458,"Ġ($\\":3459,"LT":3460,"Ġti":3461,"iff":3462,"Ġcontinuous":3463,"*{":3464,";</":3465,"Ġvarious":3466,"Ġlater":3467,"AME":3468,"Ġborder":3469,"wards":3470,"Ġ$[":3471,"ĠNULL":3472,"Ġsignal":3473,"ĠĠĠĊ":3474,"Ġdataset":3475,"Ġhowever":3476,"Ġreference":3477,"Per":3478,"null":3479,"tiz":3480,"PS":3481,"ket":3482,"=\"../":3483,"Pre":3484,"Ġarea":3485,"Ġdone":3486,"Ġtypes":3487,"bottom":3488,"eff":3489,"ino":3490,"wedge":3491,"iven":3492,"Date":3493,"Ġdouble":3494,"Ġrestr":3495,"write":3496,"omorphism":3497,"Ġinequ":3498,"cell":3499,"jection":3500,"namespace":3501,"FI":3502,"mbers":3503,"Ġratio":3504,"Ġcour":3505,"deed":3506,"_+":3507,"But":3508,"Ġhyper":3509,"Base":3510,"stack":3511,"Ġpresented":3512,"Ġcenter":3513,"uting":3514,"Ġpolynomial":3515,"Vert":3516,"Ġapplied":3517,"subfigure":3518,"Ġwhose":3519,"izes":3520,"ilities":3521,"AM":3522,"izing":3523,"ĠUniversity":3524,"Ġconstruct":3525,"\\}":3526,"ĠThey":3527,"Ġremo":3528,"Ġpanel":3529,"Dec":3530,"Ġreach":3531,"mail":3532,"Options":3533,"Ph":3534,"umbers":3535,"Ġindividual":3536,"Ġstrate":3537,"black":3538,"Ġloc":3539,"98":3540,"Ġpost":3541,"FT":3542,"izer":3543,"values":3544,"Ġgroups":3545,"Ġrole":3546,"print":3547,"Ġpack":3548,"Ġ\\(":3549,"turb":3550,"Ġmargin":3551,"SU":3552,"Ġequivalent":3553,"Ġupper":3554,"78":3555,"Ġsetting":3556,"orage":3557,"Ġcertain":3558,"Ġinstead":3559,"ĠBo":3560,"Ġboolean":3561,"Ġ]":3562,"Ġembed":3563,"Ġamp":3564,"HT":3565,"prototype":3566,"Ġgrow":3567,"change":3568,"client":3569,"Block":3570,"Ġax":3571,"cover":3572,"sup":3573,"first":3574,"Ġlik":3575,"Ġlayer":3576,"mes":3577,"Ġvertex":3578,"Ġunique":3579,"AG":3580,"ek":3581,"rees":3582,"Ġaccording":3583,"Util":3584,"Ġapplic":3585,"hood":3586,"Ġwar":3587,"Instance":3588,"Ġexplicit":3589,"ĠPh":3590,"ĠCo":3591,"len":3592,"Ġbehavior":3593,"Bo":3594,"ĠAll":3595,"$_":3596,"dap":3597,"bul":3598,"ĠÐ":3599,"Ġnoise":3600,"Ġmem":3601,"ectors":3602,"cond":3603,"Ġspect":3604,"Image":3605,"Ġexpan":3606,"ĠWhen":3607,"Source":3608,"Ġdetails":3609,"_*":3610,"oplus":3611,"Equal":3612,"select":3613,"book":3614,"Ġ$-":3615,"bigg":3616,"dle":3617,"YPE":3618,"target":3619,"2008":3620,"_{(":3621,"Sp":3622,"Ġenough":3623,"Ġrepresent":3624,"adding":3625,"ested":3626,"Ġclosed":3627,"Ġstatis":3628,"={":3629,"Spec":3630,"Ġ+=":3631,"Ġil":3632,"ideo":3633,"definition":3634,"Ġaccount":3635,"Ġneigh":3636,"rel":3637,"Ġlife":3638,"Ġopp":3639,"ba":3640,"Resource":3641,"enari":3642,"dro":3643,"cks":3644,"Ġfrequency":3645,"Ġsmooth":3646,"igger":3647,"\\\"":3648,"Ġemission":3649,"Ġbounded":3650,"Ġextension":3651,"ollary":3652,"Ġoperators":3653,"Ġtransp":3654,"Ġfocus":3655,"Ġservice":3656,"Ġflux":3657,"Ġfig":3658,"tative":3659,"supp":3660,"Ġfuture":3661,"lor":3662,"Ġthink":3663,"forms":3664,"request":3665,"aries":3666,"ĠCar":3667,"entif":3668,"=\"#":3669,"ranch":3670,"Ġnatural":3671,"Ġexplo":3672,"amilton":3673,"iness":3674,"Ġprac":3675,"Ġapply":3676,"Ġaccess":3677,"Ġhence":3678,"enti":3679,"46":3680,"ĉĠ":3681,"orld":3682,"CK":3683,"Ġprofile":3684,"Ġinc":3685,"Ġuncer":3686,")</":3687,"Ġgau":3688,"outh":3689,"42":3690,"aligned":3691,"SC":3692,"Ġfore":3693,"ĠPre":3694,"ĠRo":3695,"Ġdirectly":3696,"btn":3697,"range":3698,"ture":3699,"eded":3700,"Fe":3701,"Ġestab":3702,"Ġable":3703,"Ġtaken":3704,"Ġsto":3705,"allel":3706,"Ġtogether":3707,"Ġsymmetry":3708,"Ġmatter":3709,"mag":3710,"Ġfun":3711,"Ġtechni":3712,"cs":3713,"âĢľ":3714,"Ġdisplay":3715,"Ġformula":3716,"Ġobservations":3717,"PC":3718,")/":3719,"Ġangle":3720,"Ġbegin":3721,"Ġgas":3722,"Ġdecre":3723,"Supp":3724,"=(":3725,")\\,":3726,"lib":3727,"uss":3728,"sa":3729,"alk":3730,"ERT":3731,"HE":3732,"88":3733,"_{{\\":3734,"Ġproject":3735,"Ġitem":3736,"OO":3737,"push":3738,"}}(\\":3739,"ONT":3740,"MM":3741,"96":3742,"Ġ}\\":3743,"respon":3744,"tributes":3745,"'\\":3746,"RI":3747,"Ġapproximation":3748,"perties":3749,"ially":3750,"Ġsuffici":3751,"property":3752,"Run":3753,"Lay":3754,"Ed":3755,"Ġwindow":3756,"});":3757,"Ġchoice":3758,"cr":3759,"Ġprior":3760,"Ġsmaller":3761,"Function":3762,"$(":3763,"open":3764,"Imp":3765,"ised":3766,"Ġ->":3767,"_{-":3768,"ators":3769,"textsc":3770,"Ġchanges":3771,"Ġupdate":3772,"font":3773,"na":3774,"Ġorgan":3775,"Ġunderstand":3776,"Ġdiscre":3777,"Ġpattern":3778,"fit":3779,"count":3780,"Buffer":3781,"Ġinternal":3782,"encies":3783,"Ġcurve":3784,"Oper":3785,"Ġ~":3786,"Conn":3787,"Ġgovern":3788,"Ġprogram":3789,"Ġallows":3790,"Ġinterval":3791,"reed":3792,"match":3793,"Ġdocument":3794,"Ġimprove":3795,"Ġtree":3796,"Net":3797,"Ġsite":3798,"Ġvir":3799,"Ġtoo":3800,"Ġapplication":3801,"typ":3802,"Ġoptimal":3803,"Component":3804,"ĠDis":3805,"Ġwritten":3806,"Ġ|\\":3807,"dl":3808,"ĠProposition":3809,"ptr":3810,"used":3811,"Ġexpla":3812,"sg":3813,"Ġuniform":3814,"Ġhard":3815,"<!--":3816,"aves":3817,"Ġhead":3818,"Ġamong":3819,"Ġprovides":3820,"Attribute":3821,"Ġframework":3822,"Ġandroid":3823,"Ġmer":3824,"Ġargument":3825,"Ġspecified":3826,"ropy":3827,"scope":3828,"idden":3829,"tries":3830,"Ġdynamics":3831,"Ġrow":3832,"Ġproblems":3833,"aring":3834,"ĠBe":3835,"Ġoften":3836,"Ġsatisfies":3837,"colon":3838,"strong":3839,"Ġconfiguration":3840,"*/":3841,"Handler":3842,"ols":3843,"2007":3844,"Ġarbit":3845,"Ġ\"\"\"":3846,"city":3847,"Ġsit":3848,"ques":3849,"Ġstruct":3850,":\\":3851,"process":3852,"97":3853,"uk":3854,"idget":3855,"Ġacross":3856,"Content":3857,"pdate":3858,"server":3859,"Ġbecomes":3860,"json":3861,"ĠPo":3862,"Ġrest":3863,"php":3864,"'_":3865,"Ġquery":3866,"parent":3867,"First":3868,"Ġresource":3869,"Ġenti":3870,"Ġpage":3871,"43":3872,"Ġarch":3873,"Filter":3874,"IL":3875,"buf":3876,"ĠFe":3877,"lustra":3878,"Ġparticle":3879,"filter":3880,"init":3881,"ĠĠĠĠĠĠĠĠĊ":3882,"monstra":3883,"Ġmajor":3884,"Ġcorrect":3885,"Ġproced":3886,"Ġconnected":3887,"ĠCan":3888,")}(":3889,"pag":3890,"mine":3891,"nit":3892,"pg":3893,"ĠSe":3894,"Ġdetermined":3895,"Ġconstruction":3896,"Ġphysical":3897,"Ġrather":3898,"Ġparticles":3899,"ank":3900,"description":3901,"Ġred":3902,"2006":3903,"Ġcompute":3904,"Ġrel":3905,"oder":3906,",âĢĿ":3907,"ĠReturn":3908,"icense":3909,"Ġvertices":3910,"mt":3911,"header":3912,"number":3913,"ocial":3914,"ands":3915,"alog":3916,"ĠList":3917,"Ġgalaxies":3918,"src":3919,"Ġgauge":3920,"forall":3921,"osen":3922,"ls":3923,"UE":3924,"Action":3925,"Ġsamples":3926,"\\'":3927,",\\,":3928,"ĠWith":3929,"Cur":3930,"Ð¸":3931,"Ġmaterial":3932,"dim":3933,"Ġelectron":3934,"parse":3935,"FA":3936,"Ġir":3937,"llar":3938,"Now":3939,"One":3940,"Ġnumerical":3941,"Ġuntil":3942,"obj":3943,"tact":3944,"Ġplot":3945,"dx":3946,"ohn":3947,"Off":3948,"aussian":3949,"subsubsection":3950,"Ġmaps":3951,"ĠOne":3952,"Ġprincip":3953,"creen":3954,"stream":3955,"Frame":3956,"Ġnuc":3957,"inte":3958,"vant":3959,"remark":3960,"Ġold":3961,"Ġselect":3962,"=-":3963,"ina":3964,"Default":3965,"ours":3966,"cat":3967,"Ġ((":3968,"zero":3969,"Ġdemonstra":3970,"Ġeasi":3971,"Ġhapp":3972,"PRO":3973,")^{\\":3974,"Ġexperiments":3975,"lease":3976,"Ġcover":3977,"Ġradius":3978,"Ġregions":3979,"last":3980,"Ġemploy":3981,"Number":3982,"fil":3983,"Ġdiscussed":3984,"perp":3985,"SO":3986,"{{":3987,"ood":3988,"ĠOr":3989,"ably":3990,"ĠHence":3991,"Version":3992,"mpty":3993,"Format":3994,"Ġput":3995,"SD":3996,"refix":3997,"Factory":3998,"Ġscheme":3999,"vider":4000,"57":4001,"Ġbook":4002,")_{":4003,"Ġcollection":4004,"Ġnumbers":4005,"Ġincrease":4006,"scri":4007,"aly":4008,"Ġoperation":4009,"fla":4010,"Box":4011,"[\"":4012,"Ġsimulations":4013,"Eq":4014,"}$-":4015,"Ġbecome":4016,"Ġsources":4017,"Ġsoft":4018,"ĠTest":4019,"Ġagree":4020,"Ġ!==":4021,"ious":4022,"Ġdoc":4023,"radi":4024,"ification":4025,"Ġclasses":4026,"Ġspectral":4027,"uary":4028,"Ġscatter":4029,"float":4030,"Ġcritical":4031,"Ġenvironment":4032,"Ġwords":4033,"Ġclassical":4034,"TO":4035,"Ġcompact":4036,"foo":4037,"87":4038,"Ġincreasing":4039,"andid":4040,"rup":4041,"ĠData":4042,"Ġextends":4043,"num":4044,"Ġquestion":4045,"host":4046,"olute":4047,"Ġ+\\":4048,"Ġamplit":4049,"MO":4050,"Ġurl":4051,"ĠIN":4052,"finished":4053,"Pr":4054,"vex":4055,"dist":4056,"Ġsen":4057,"unit":4058,"rem":4059,"Ġworks":4060,"Ġmomentum":4061,"IP":4062,"Null":4063,"ops":4064,"ĠNone":4065,"kip":4066,"ru":4067,"Ġlattice":4068,"only":4069,"une":4070,"Ġmanif":4071,"gies":4072,"Ġdomin":4073,"ometric":4074,"Ġcorresponds":4075,"56":4076,"Ġdescription":4077,"Ġoption":4078,"endif":4079,"DB":4080,"Ġnegative":4081,"comple":4082,"Ġcallback":4083,"Ġauthor":4084,"Ġful":4085,"corre":4086,"Meta":4087,"ĠRec":4088,"bert":4089,"\".":4090,"bullet":4091,"format":4092,"soft":4093,"rs":4094,"gress":4095,"Ġconstraints":4096,"usion":4097,"Ġroot":4098,"pmatrix":4099,"Ġinequality":4100,"rag":4101,"bi":4102,"\"]":4103,"Ġdescribe":4104,"Ġcomparison":4105,"2021":4106,"Ġlanguage":4107,"Ġground":4108,"gorithms":4109,"items":4110,"mic":4111,"Ġscenari":4112,"ÑĤ":4113,"ided":4114,"Ġconven":4115,"tran":4116,"Ġcapa":4117,"usiness":4118,"Ġrepresen":4119,"Task":4120,"ĠCoun":4121,"super":4122,"Next":4123,"xml":4124,"ley":4125,"Hel":4126,"ining":4127,"Ġclient":4128,"Ġresulting":4129,")^{-":4130,"Label":4131,"itect":4132,"dings":4133,"ympto":4134,"rier":4135,"CL":4136,"Equals":4137,"Ġbody":4138,"Ġdecay":4139,"Ġscalar":4140,"Ġtensor":4141,"Ġneutr":4142,"Ġaccuracy":4143,"ury":4144,"41":4145,"uro":4146,"Ġerrors":4147,"ĠHamilton":4148,"Ġconnection":4149,"ses":4150,"Ġalmost":4151,"cases":4152,"Ġspatial":4153,"ĠLo":4154,"alt":4155,"cd":4156,"////////////////":4157,"Ġhaving":4158,"ceed":4159,"Ġrule":4160,"{$\\":4161,"Tag":4162,"DF":4163,"illion":4164,"update":4165,"stract":4166,"Ġperturb":4167,"2000":4168,"ili":4169,"58":4170,"Ġ{@":4171,"Ġminimum":4172,"ĉĉĉĉĉĉĉĉ":4173,"Window":4174,"bound":4175,"ama":4176,"Row":4177,"Ġperformed":4178,"CP":4179,"Ġintroduced":4180,"True":4181,"Ġformat":4182,"Ġapproximate":4183,"then":4184,"Arg":4185,"sur":4186,"Ġpartial":4187,"opt":4188,"${":4189,"Ġassumption":4190,"break":4191,"status":4192,"Ġtw":4193,"Ġcoefficients":4194,"Ġcentral":4195,".~(\\":4196,"Ġdecomp":4197,"else":4198,"Ġedges":4199,"Ġderived":4200,"Ġselected":4201,")}{\\":4202,"ĠReg":4203,"Ġfac":4204,"Ġpeak":4205,"uation":4206,"notation":4207,"trices":4208,"Ġinterpre":4209,"unfinished":4210,"jav":4211,"hel":4212,"osed":4213,"Here":4214,"ĠYou":4215,"Ġday":4216,"Ġmeasured":4217,"Acc":4218,"Ġmeasurements":4219,"lice":4220,"Ġdraw":4221,"Ġinterface":4222,"ĠObject":4223,")\\\\":4224,"meq":4225,"Nav":4226,"ries":4227,"}^*":4228,"Ġinvestig":4229,"Ġarguments":4230,"$).":4231,"Ġsupported":4232,"ĠAmerican":4233,"Ġinteger":4234,"\\_":4235,"signed":4236,"Ġnetworks":4237,"Ġcount":4238,"Ġmotion":4239,"private":4240,"Ġhuman":4241,"}}^":4242,"Ġcontribution":4243,"lex":4244,"ĠHere":4245,"lines":4246,"Read":4247,"Ġlocation":4248,"Child":4249,"gges":4250,"Ġparent":4251,"mma":4252,"free":4253,"Ġcorrespond":4254,"([":4255,"asy":4256,"2005":4257,"ani":4258,"Ġgame":4259,"VER":4260,"Ġsolid":4261,"Ġcopy":4262,"anish":4263,"post":4264,"Ġillustra":4265,"simeq":4266,"Ġfraction":4267,"(&":4268,"she":4269,"Ġtag":4270,"Ġbelie":4271,"Ġsense":4272,"197":4273,"Ġfail":4274,"ising":4275,"sequence":4276,"Ġcore":4277,"lash":4278,"Ġnecessary":4279,"INT":4280,"Ġplane":4281,"build":4282,"rl":4283,"ĠCor":4284,"Ġtechn":4285,"imilar":4286,"Ġvolume":4287,"Ġprotected":4288,"ĠMoreover":4289,"sol":4290,"find":4291,"Ġpolar":4292,"ony":4293,"tate":4294,"ĠGener":4295,"rowser":4296,"ĠCO":4297,"ĠOur":4298,"semb":4299,"tx":4300,"Ġpress":4301,"ĠOp":4302,"anced":4303,"Pol":4304,"args":4305,"remove":4306,"isted":4307,"Link":4308,"Create":4309,"Ġselection":4310,"\\|_{":4311,"LS":4312,"}%":4313,"py":4314,"inf":4315,"~$\\":4316,"Ġload":4317,"Ġmakes":4318,"Ġsplit":4319,"rate":4320,"NO":4321,"reshold":4322,"Collection":4323,"~~~~":4324,"lier":4325,"Loc":4326,"Ġpolicy":4327,"Page":4328,"aded":4329,"Ġthrows":4330,"Ġcalculated":4331,"loor":4332,"Ġcomputed":4333,"Ġtheore":4334,"Ġdenotes":4335,"Ġdiffic":4336,"IM":4337,"Ġ${":4338,"inue":4339,"Ġpopulation":4340,"Ġnone":4341,"Ġinfinite":4342,"Ġleading":4343,"Ġsimply":4344,"Ð½":4345,"Ġneeded":4346,"Check":4347,"Ġbox":4348,"isms":4349,"})$.":4350,"iding":4351,"PO":4352,"hib":4353,"Ġdetection":4354,"Ġss":4355,"inner":4356,"Ġdepends":4357,"Ġintegral":4358,"Ġsimulation":4359,"Ġadded":4360,"vector":4361,"urthermore":4362,"Ġ;":4363,"gu":4364,"Ġdistributions":4365,")_":4366,"Ġtakes":4367,"mations":4368,"LASS":4369,"69":4370,"rap":4371,"_.":4372,"reng":4373,"Ġearly":4374,"Ġtaking":4375,"ĠMan":4376,"Ġcorrelation":4377,"vo":4378,"Ġthird":4379,"ypes":4380,"agement":4381,"Ġrequires":4382,"Output":4383,"Ġ=\\":4384,"output":4385,"Ġclaim":4386,"Ġbuild":4387,")$-":4388,"Ġuses":4389,"|_{":4390,"ĠUS":4391,"MC":4392,"params":4393,"Ġsent":4394,"Ġmemory":4395,"ĠLi":4396,"Ġleads":4397,"Ġgoing":4398,"finition":4399,"Com":4400,"SON":4401,"hom":4402,"}}^{":4403,"$$\\":4404,"ĠUnited":4405,"ixel":4406,"Ġhome":4407,"Ġconsistent":4408,"Length":4409,"Ġhalf":4410,"Ġtrack":4411,"Ġserver":4412,"umin":4413,"Ġpub":4414,"Ġcare":4415,"Ġkeep":4416,"mapsto":4417,"Ġshape":4418,"Ġcause":4419,"Ġtransform":4420,"---":4421,"uter":4422,"Ġchosen":4423,"sue":4424,"++)":4425,"returns":4426,"Ġ[]":4427,"tik":4428,"uint":4429,"endix":4430,"clusion":4431,"Ġnever":4432,"Our":4433,"Ġhost":4434,"Case":4435,"layer":4436,"Ġ&=&":4437,"dep":4438,"Ġhar":4439,"roduction":4440,"ilib":4441,"Ġstudies":4442,"response":4443,"Ġprocedure":4444,"img":4445,"500":4446,"Ġshall":4447,"Ġinvariant":4448,"Ġsugges":4449,"usic":4450,"Ġpas":4451,"Ġexecu":4452,"Ġrepresents":4453,"ogene":4454,"Ġstream":4455,"Ġreview":4456,">>":4457,"tree":4458,"$^{-":4459,"ĠQu":4460,"Ġsymbol":4461,"ords":4462,"bold":4463,"Ġalgorithms":4464,"Ġstatus":4465,"Ġensure":4466,"pose":4467,"Ġexperimental":4468,"Ġorbit":4469,"phere":4470,"51":4471,"show":4472,"ĠFrom":4473,"prec":4474,"Valid":4475,"Start":4476,"\"),":4477,"volution":4478,"ions":4479,"Ġren":4480,"vity":4481,"'}":4482,"Ġmeta":4483,"Ġmention":4484,"navbar":4485,"ĠSch":4486,"Ġonce":4487,"cf":4488,"Ġcreated":4489,"More":4490,"mini":4491,"Ġchoose":4492,"Ġuseful":4493,"RL":4494,"dec":4495,"ashed":4496,"Ġdate":4497,"Ġdiscuss":4498,"ĠRef":4499,"Ġkernel":4500,"pres":4501,"ĠCent":4502,"Ġchall":4503,"Listener":4504,"BU":4505,"oto":4506,"ditional":4507,"Ġschool":4508,"Ġactive":4509,"agraph":4510,"Ġexamples":4511,"REF":4512,"Ġentire":4513,"onic":4514,"Ġmid":4515,"Ġstudied":4516,"IO":4517,"Ġgenerate":4518,"ategor":4519,"59":4520,"Ġexpansion":4521,"Figure":4522,"zz":4523,"Ġpay":4524,"proto":4525,"olve":4526,"Ġarbitrary":4527,"menu":4528,"Str":4529,"2004":4530,"Ġatten":4531,"picture":4532,"Ġsymmetric":4533,",\"":4534,"ĠSte":4535,"PP":4536,"Ġmatrices":4537,"ABLE":4538,"Ġamount":4539,"Command":4540,"ĠCal":4541,"blue":4542,"sign":4543,"Ġinteresting":4544,"Ġcurves":4545,"Ġdetermine":4546,"Ġincluded":4547,"Ġobj":4548,"Ġcharge":4549,"newcommand":4550,"ERR":4551,"close":4552,"structure":4553,"When":4554,"rant":4555,"Can":4556,"Ġreduced":4557,"ĠSp":4558,"Ġess":4559,"aged":4560,"proposition":4561,"Theorem":4562,"Ġbit":4563,"Ġadj":4564,"river":4565,"Ġdependence":4566,"Right":4567,"Auth":4568,"\\{\\":4569,"Ġdual":4570,"Ġmembers":4571,"ĉĉĊ":4572,"CS":4573,"mented":4574,"ple":4575,"Ġweb":4576,"^{+":4577,"Ġfast":4578,"Ġreturns":4579,"Ġleg":4580,"vision":4581,"Ġ$.":4582,"auto":4583,"Ġpossi":4584,"Ġminim":4585,"structed":4586,"Max":4587,"rief":4588,"sem":4589,"Ġhistory":4590,"Ġcut":4591,"ĠGaussian":4592,"Point":4593,"std":4594,"sters":4595,"VE":4596,"ĠBu":4597,"ĠMar":4598,"Ġsubset":4599,"Ġprocesses":4600,"URL":4601,"Ġmodes":4602,")},":4603,"ql":4604,"licity":4605,"cial":4606,"Ġ$$":4607,"Return":4608,"Ġforce":4609,"container":4610,"ĠĠĠĠĠĠĠĠĠĠĠĠĊ":4611,"Ġchildren":4612,"Thus":4613,"redu":4614,"ĠFirst":4615,"Ġcome":4616,"ought":4617,"FONT":4618,"trics":4619,"Ġparts":4620,"Ġbinary":4621,"Char":4622,"///":4623,"Ġspaces":4624,"./":4625,"ĠNe":4626,"86":4627,"Ġcompare":4628,"Ġtreat":4629,"Ġbar":4630,"oms":4631,"place":4632,"sole":4633,"odot":4634,"54":4635,"ously":4636,"Mode":4637,"ench":4638,"Ġitself":4639,"tifact":4640,"ĠMon":4641,"Ġintroduce":4642,"ilibri":4643,"Ġho":4644,"Ġrelevant":4645,"direct":4646,"$;":4647,"expected":4648,"ali":4649,"Ġcustom":4650,"conf":4651,"plan":4652,"TP":4653,"Ġspectra":4654,"results":4655,"ĠPer":4656,"********************************":4657,"teger":4658,"Width":4659,"Ġword":4660,"Ġyields":4661,"instance":4662,"Ġtransfer":4663,"Ac":4664,"ĠState":4665,"Ġresolution":4666,"reference":4667,"Button":4668,"ÑĢ":4669,"Ġexperiment":4670,"Ġpresence":4671,"Ġreport":4672,"52":4673,"ĠâĢĶ":4674,"Ġrank":4675,"service":4676,"Ġpairs":4677,"However":4678,"Ġface":4679,"89":4680,"entry":4681,"Up":4682,"Ġchain":4683,"attr":4684,"CON":4685,"Ġuint":4686,"LP":4687,"Ġexactly":4688,"images":4689,"Ġproduction":4690,"produ":4691,"offset":4692,"'(":4693,"ĠID":4694,"omorphic":4695,"Def":4696,"orizont":4697,"bits":4698,"Ġimpact":4699,"sues":4700,"Ġlarg":4701,"ume":4702,"Ġquad":4703,":\"":4704,"UI":4705,"ards":4706,"Ġotherwise":4707,"ube":4708,"ried":4709,"Ġdeep":4710,"Ġfigure":4711,"Ġcandid":4712,"Ġmaking":4713,"Column":4714,"Ġvo":4715,"Ġspeed":4716,"ĠThat":4717,"Ġcomputation":4718,"Ġstreng":4719,"Rem":4720,"step":4721,"esti":4722,"iver":4723,"ĠTra":4724,"ĠPe":4725,"Web":4726,"MB":4727,"amer":4728,"Ġasympto":4729,"_-":4730,"latform":4731,"tific":4732,"sident":4733,"plugin":4734,"Ġcatch":4735,"ĠJohn":4736,"Ġconvergence":4737,"thesis":4738,"require":4739,"Ġmagnit":4740,"ĠEX":4741,"bl":4742,"(_":4743,"Ġ{};":4744,"Su":4745,"df":4746,"orn":4747,"Ġdecision":4748,"ront":4749,"Ġthough":4750,"hbar":4751,"hy":4752,"Ġaut":4753,"deg":4754,"ker":4755,"ĠHamiltonian":4756,"mode":4757,"Ġcategory":4758,"Ġsteps":4759,"Ġhold":4760,"Ġaltern":4761,"Ġremove":4762,"Ġlen":4763,"tains":4764,"Controller":4765,"va":4766,"ĠPol":4767,"Temp":4768,"tification":4769,"Ġdisk":4770,"ĠClass":4771,"ĠDes":4772,"Ġextended":4773,"task":4774,"Ġeasily":4775,"Ġstrict":4776,"Ġneeds":4777,"Ne":4778,"ĠAPI":4779,"mc":4780,"Ġscore":4781,"Cache":4782,"63":4783,"Ġapproaches":4784,"Select":4785,"Ġstellar":4786,"tikz":4787,"Address":4788,"ball":4789,"$~":4790,"sor":4791,"iny":4792,"%%":4793,"Ġreported":4794,"essages":4795,"Pos":4796,"Ġidentity":4797,"arp":4798,"âĢĶ":4799,"]);":4800,")+\\":4801,"ĠShe":4802,"Ġquanti":4803,"Ġperson":4804,"Ġrecon":4805,"Ġinner":4806,"IF":4807,"ĠâĢĺ":4808,"Ġexcept":4809,"Ġcommand":4810,"').":4811,"TYPE":4812,"Ġstructures":4813,"Ġapplications":4814,"Ġknowledge":4815,"Ġstrategy":4816,"ĠType":4817,"inary":4818,"Ġincreases":4819,"criptor":4820,"vey":4821,"Ġlikely":4822,"pass":4823,"displaystyle":4824,"Ġrecor":4825,"Ġcircle":4826,"Ġdiagram":4827,"ĠMay":4828,"system":4829,"Ġlatter":4830,"layout":4831,"Ġobserve":4832,"ĠDo":4833,"Ġvectors":4834,"Ð¾Ð":4835,"models":4836,"Ġempty":4837,".)":4838,"Ġestimates":4839,"ĠNational":4840,"mediate":4841,"53":4842,"Ġcoordinates":4843,"versal":4844,"Ġlib":4845,"ĠStates":4846,"Ġexisting":4847,"ident":4848,"ĠĠĠĠĠĠĠĠĠĠĠĠĠĠĠĠĠĠĠĠĠĠĠĠĠĠĠĠĠĠĠĠĠĠĠ":4849,"Ġanti":4850,"inty":4851,"gan":4852,"dev":4853,"ths":4854,"cref":4855,"Ġfive":4856,"Ġport":4857,"}&":4858,"ĠSupp":4859,"ao":4860,"ounter":4861,"Ġbranch":4862,"Ġwide":4863,"Back":4864,"ather":4865,"62":4866,"orizontal":4867,"scal":4868,"ĠSee":4869,"oung":4870,"Ġmeasurement":4871,"Ġdest":4872,"Ġarchitect":4873,"onds":4874,"sembly":4875,"Ġnorm":4876,"\").":4877,"\\)":4878,"}}$,":4879,"}}$.":4880,"2003":4881,"Ġlemma":4882,"dsh":4883,"Ġfactors":4884,"Server":4885,"Ġwhole":4886,"ighted":4887,"Ġoffset":4888,"Ġfund":4889,"Ġvirtual":4890,"ecause":4891,"Ġpoli":4892,"Ġgovernment":4893,"tainty":4894,"minipage":4895,"}{|":4896,"Ġdevelopment":4897,"joint":4898,"ives":4899,"xx":4900,")-\\":4901,"Ġaxis":4902,"bes":4903,"Ġcoll":4904,"Ġgap":4905,"acy":4906,"Update":4907,"Ġremains":4908,"make":4909,"Ġfont":4910,"Ġargs":4911,"gular":4912,"ensive":4913,"Ġexistence":4914,"scil":4915,"entially":4916,"faces":4917,"ratic":4918,"istry":4919,"variant":4920,"RA":4921,"ND":4922,"bust":4923,"Ġjob":4924,"ilibrium":4925,"lastic":4926,"alg":4927,"Ġabsolute":4928,"Ġinteractions":4929,"eler":4930,"tives":4931,"iving":4932,"ante":4933,"window":4934,"Ġfully":4935,"ignment":4936,"})$,":4937,"Last":4938,"Ġcourse":4939,"final":4940,"Ġones":4941,"Ġinflu":4942,"Ġcontaining":4943,"aa":4944,"nos":4945,"sities":4946,"rand":4947,"should":4948,"high":4949,"Ġ<!--":4950,"Ġfix":4951,"Ġpartition":4952,"Ġusers":4953,"Ġclassification":4954,":(":4955,"Offset":4956,"dated":4957,"Ġpul":4958,"ĠHT":4959,"Ġconstraint":4960,"reme":4961,"SM":4962,"Ġ...":4963,"arily":4964,"Ġbuffer":4965,"seud":4966,"iler":4967,"Ġconcer":4968,"\\!\\!\\!\\!":4969,"Ġloop":4970,"rapper":4971,"Top":4972,"94":4973,"inst":4974,"control":4975,"kit":4976,"Ġsatisfy":4977,"Ġeasy":4978,"iting":4979,"So":4980,"ids":4981,"template":4982,"oral":4983,"[(":4984,"ering":4985,"root":4986,"<?":4987,"Ġestimated":4988,"Ġ{}":4989,"Ġreally":4990,"Ġkind":4991,"Ġrepe":4992,"Ġstable":4993,"Ġidea":4994,"ĠVer":4995,"Ġbelong":4996,"trie":4997,"Ġstatement":4998,"Ġappropri":4999,"pts":5000,"tax":5001,"mitted":5002,"Ġtor":5003,"Ġpropag":5004,"Do":5005,"92":5006,"ises":5007,"gments":5008,"etch":5009,"Vis":5010,"ium":5011,"Ġactually":5012,"Ġ$|\\":5013,"Ġgradient":5014,"93":5015,"Dire":5016,"Ġnotation":5017,"))$":5018,"Ġblue":5019,"actions":5020,"Ġavoid":5021,"1000":5022,"Ġcounter":5023,"Ġanalog":5024,"edia":5025,"Ġtransformation":5026,"diag":5027,"Container":5028,"Ġve":5029,"Ġbounds":5030,"ascript":5031,"NAME":5032,"Ġinside":5033,"Json":5034,"project":5035,"Provider":5036,"Ġdr":5037,"Ġentry":5038,"ĠRem":5039,"Ġfiles":5040,"Ġsuccessful":5041,"Min":5042,"84":5043,"72":5044,"Ġsays":5045,"thon":5046,"Ġret":5047,"olic":5048,":}":5049,"ĠAcc":5050,"iffer":5051,"Ġoscil":5052,"ĠSub":5053,"Ġtasks":5054,"ones":5055,"Ġgrid":5056,"Ġsignificantly":5057,"gers":5058,"ĠGe":5059,"Ġfilm":5060,"floor":5061,"osite":5062,"Height":5063,"MD":5064,"patch":5065,"$),":5066,"Types":5067,"Ġoptimization":5068,"Ġprediction":5069,"'),":5070,"Ġconsists":5071,"anged":5072,"Ġhealth":5073,"ĠMa":5074,"Ġgraphs":5075,"urope":5076,"Range":5077,"Ġdifferential":5078,"ĠSci":5079,"ynamic":5080,"Ġdeveloped":5081,"cong":5082,"eli":5083,"ele":5084,"Ġrepla":5085,"Match":5086,"author":5087,"Ġyet":5088,"inct":5089,"Ġformation":5090,"bool":5091,"Ġvanish":5092,"bly":5093,"ĠEng":5094,"itz":5095,"ĠMin":5096,"chron":5097,")}_{":5098,"CA":5099,"zed":5100,"ĠJan":5101,"Ġrender":5102,"Ġincludes":5103,"sheet":5104,"Write":5105,"Ġann":5106,"Ġquark":5107,"ducation":5108,"fi":5109,"Ġimplementation":5110,"ĠArray":5111,"}$)":5112,"ĉĉĉĉĉĉĉ":5113,"algebra":5114,"ening":5115,"Ñģ":5116,"allet":5117,"Url":5118,"Ġdem":5119,"Ġdistributed":5120,"Ġallowed":5121,"Ġsocial":5122,"Ġbasic":5123,"ialog":5124,"PR":5125,"Ġscattering":5126,"Layout":5127,"ĠII":5128,"ects":5129,"NR":5130,"Ġoperations":5131,"after":5132,"Section":5133,"}({\\":5134,"urch":5135,"Ġmorph":5136,"tify":5137,"ues":5138,"Ġ**":5139,"berg":5140,"83":5141,"cp":5142,"Ġbottom":5143,"Ġhandle":5144,"band":5145,"perim":5146,"ĠĠĠĠĠĠĠĠĠĠĠĠĠĠĠĠĠĠĠĠĠ":5147,"Ġmach":5148,"Ġrates":5149,",\\\\":5150,"Tree":5151,"SH":5152,"ĠReturns":5153,"NE":5154,"onical":5155,"Interface":5156,"Ġassumed":5157,"mas":5158,"men":5159,"ĠFran":5160,"sd":5161,"hbox":5162,"ĠGo":5163,"cccc":5164,"Ev":5165,"ĠAdd":5166,"&=&":5167,"uations":5168,"```":5169,"come":5170,"Ġrunning":5171,"Ġcontinue":5172,"lide":5173,"Ġaway":5174,"lesssim":5175,"Ġage":5176,"Ġansw":5177,"DD":5178,"Ġcommunity":5179,"ingu":5180,"cknow":5181,"61":5182,"Ġbusiness":5183,"ugh":5184,"Ġactual":5185,"Ġdark":5186,"ĠSc":5187,"tw":5188,"roy":5189,"stitu":5190,"Form":5191,"tili":5192,"ado":5193,"udio":5194,"Ġissue":5195,"isation":5196,"SA":5197,"2001":5198,"ĠAfter":5199,"}{(":5200,"Ġswitch":5201,"Ġconclude":5202,"ĠĠĠĠĠĠĠĠĠĠĠĠĠĠĠĠĠĠĠĠ":5203,"Ġreson":5204,"ffor":5205,"Ġoptical":5206,"alysis":5207,"rec":5208,"matically":5209,"dr":5210,"Ġundefined":5211,"ĠLicense":5212,"clear":5213,"Introduction":5214,"uler":5215,":</":5216,"ĠInter":5217,"Ġworking":5218,"bot":5219,"astic":5220,"ana":5221,"Ġcosm":5222,"Ġgalaxy":5223,"Ġbra":5224,"Ġconvex":5225,"Ġbroad":5226,"ales":5227,"Ġneighbor":5228,"Ġamplitude":5229,"ounds":5230,"uly":5231,"ogeneous":5232,"Ab":5233,"-$":5234,"Ġlevels":5235,"ermal":5236,"ĠMark":5237,"ination":5238,"Ġlittle":5239,"ĠTO":5240,"Pack":5241,"sist":5242,"Ġbig":5243,"Ġauthors":5244,"ĠNow":5245,"Ġexci":5246,"Ġsubject":5247,"$};":5248,"dom":5249,"tein":5250,"API":5251,"SL":5252,"Ġpreser":5253,",$":5254,"izations":5255,"nd":5256,"ĠSpec":5257,")}}":5258,"Ġadap":5259,"ecute":5260,"Ġpixel":5261,"82":5262,"Ġmasses":5263,"Ġrecog":5264,"Ġgoal":5265,"Ġcountry":5266,"Ġprint":5267,"Ġcontrast":5268,"lots":5269,",\\,\\":5270,"roun":5271,"backs":5272,"Target":5273,"Therefore":5274,"amental":5275,"ĠGu":5276,"ART":5277,"mass":5278,"Ġslight":5279,"Ġcontributions":5280,"Ġ[\\":5281,"sample":5282,"Hz":5283,"Ġque":5284,"stable":5285,"gent":5286,"Li":5287,"ĠCont":5288,"]}":5289,"Ġ\\(\\":5290,"buffer":5291,"icted":5292,"ĠFile":5293,"Ġdevi":5294,"91":5295,"Ġshift":5296,"Ġteam":5297,"Ġtemplate":5298,"Ġreceived":5299,"entity":5300,"Ġquality":5301,"Ġdiscussion":5302,"imes":5303,"Ġoffic":5304,"Ġsure":5305,"Ġattemp":5306,"Ġregime":5307,"Ġ^":5308,"BC":5309,"Ġign":5310,"Ġstarting":5311,":=":5312,"Ġwon":5313,"ymmetric":5314,"adow":5315,"Ġpast":5316,"nap":5317,"resource":5318,"ĠYork":5319,"GC":5320,"Ġdeal":5321,"2002":5322,"Ġbul":5323,"Hash":5324,"Ġfloat":5325,"76":5326,"unk":5327,"ney":5328,"Ġthreshold":5329,"Using":5330,"deta":5331,"Header":5332,"ography":5333,"Ġpressure":5334,"board":5335,"Ġwater":5336,"Ġwin":5337,"ading":5338,"Ġlonger":5339,"Configuration":5340,"After":5341,"Ġangular":5342,"lean":5343,"Ġheav":5344,"dfrac":5345,"javascript":5346,"rela":5347,"istor":5348,"Process":5349,"Ġhash":5350,"ĠHREF":5351,"LD":5352,"irm":5353,"Ġlayers":5354,"Ġsquare":5355,"PU":5356,"Ġima":5357,"Ġobservation":5358,"isk":5359,"ĠCLASS":5360,"Ġattribute":5361,"Ġpure":5362,"Ġwhite":5363,"Ġinduced":5364,"ĠNS":5365,"Entry":5366,"Ġothers":5367,"Ġ>=":5368,"dual":5369,"ĠModel":5370,"inal":5371,"Unit":5372,"Ġtraject":5373,"EQ":5374,"Ġslow":5375,"ha":5376,"Ġformal":5377,"mem":5378,"Ġcalculations":5379,"Ġ..":5380,"dy":5381,"Ġhypo":5382,"ĠPa":5383,"Mat":5384,"Ġmolec":5385,"\\}$.":5386,"Ġsettings":5387,"Ġtechniques":5388,"erman":5389,"Ġexpon":5390,"âĢ¦":5391,"Ġori":5392,"sequently":5393,"Local":5394,"QL":5395,"Ġforms":5396,"Ġagreement":5397,"Ġsus":5398,"KE":5399,"Ġsomething":5400,"jected":5401,"Ġdevice":5402,"Ġvol":5403,"pla":5404,"||":5405,"tfrac":5406,"Ġmes":5407,"pecially":5408,"Ġbal":5409,"Ġcalculation":5410,"ĠOF":5411,"Ġdays":5412,"Ġexternal":5413,"illa":5414,"ĠEurope":5415,"}\\,\\":5416,"()->":5417,"forward":5418,"Ġsix":5419,"Ġdetect":5420,"Ġgrowth":5421,"Ġuncertainty":5422,"Ġbeam":5423,"ĠWhile":5424,"Ġcaus":5425,"Ġtriv":5426,"Ġdatasets":5427,"Empty":5428,"Finally":5429,"GB":5430,"$:":5431,"Ġdenoted":5432,"eness":5433,"Ġmagnitude":5434,"arante":5435,"Ġscaling":5436,"Ġliterature":5437,"Open":5438,"300":5439,"Ġagent":5440,"sect":5441,"]$.":5442,"Ġdiscrete":5443,"Ġproduced":5444,"Fla":5445,"Ġwhy":5446,"uni":5447,"term":5448,"Level":5449,"ĠĠĠĠĠĠĠĠĠĠĠĠĠĠĠĠĠĠĠĠĠĠĠĠĠĠĠĠĠĠĠĠĠĠĠĠĠĠĠĠĠĠĠĠĠĠĠĠĠĠĠĠĠĠĠĠĠĠĠĠĠĠĠĠ":5450,"}[\\":5451,"Ġmember":5452,"Ġminimal":5453,"Ġbene":5454,"Ġrules":5455,"))\\":5456,"Ġexperience":5457,"algorithm":5458,"ĠCl":5459,"Ġstore":5460,"ĠDE":5461,"Ġformer":5462,"Bundle":5463,"########":5464,"Ġreduce":5465,"real":5466,"ounts":5467,"ship":5468,"Ġcomplexity":5469,"Ġdepth":5470,"Ġtoken":5471,"Ġecon":5472,"sts":5473,"token":5474,"Ro":5475,"ners":5476,"ĠWar":5477,"brace":5478,"common":5479,"gated":5480,"tian":5481,"Ġadv":5482,"eder":5483,"Ġsamp":5484,"ux":5485,"Ġland":5486,"FO":5487,"chastic":5488,"74":5489,"cache":5490,"Ġvideo":5491,"mated":5492,"Left":5493,"ĠST":5494,"Ġquite":5495,"ĠEd":5496,"igation":5497,"Control":5498,"ĠEqu":5499,"Module":5500,"points":5501,"ĠAssert":5502,"COL":5503,"These":5504,"ifically":5505,"Ġlinks":5506,"asic":5507,"Ġ{$":5508,"coded":5509,"atives":5510,"Ġlimited":5511,"Ġtheoretical":5512,"Ġnature":5513,"Ġentropy":5514,"Cal":5515,"Ġachieve":5516,"Ġattention":5517,"Ste":5518,"Ġrecord":5519,"Ġgeometry":5520,"Ġfluct":5521,"weight":5522,"Ġstage":5523,"aj":5524,"^*$":5525,"bigl":5526,"uming":5527,"FR":5528,"iti":5529,"entic":5530,"Ġprimary":5531,"ATION":5532,"}})":5533,"Ġregister":5534,"pop":5535,"second":5536,"Ġusually":5537,"Ġprogra":5538,"ĠFinally":5539,"req":5540,"vee":5541,"tribution":5542,"oman":5543,"ctx":5544,"Ġmedia":5545,"Ġredsh":5546,"Ġexception":5547,"Ġweights":5548,"Ġrecently":5549,"Ġdimensions":5550,"yl":5551,"$&":5552,"ares":5553,"Ġcombination":5554,"Ġscope":5555,"Ġmapping":5556,"background":5557,"Ġindicates":5558,"emptyset":5559,"sure":5560,"Ġmechanism":5561,"bigr":5562,"Ġrotation":5563,"ĠWorld":5564,"angular":5565,"enum":5566,"Ġeq":5567,"ounded":5568,"SR":5569,"Ġreturned":5570,"Ġattack":5571,"document":5572,"Ġsatisfying":5573,"HO":5574,"Ġcoefficient":5575,"Ġener":5576,"Utils":5577,"Ġappears":5578,"\"))":5579,"Ġfi":5580,"iral":5581,"det":5582,"Ġkine":5583,"Ġevidence":5584,"Work":5585,"CR":5586,"Ġaccurate":5587,"Ġmillion":5588,"Kind":5589,"ĠDi":5590,"uli":5591,"Ġthings":5592,"bmatrix":5593,"Ġappropriate":5594,"Ġ*)":5595,"Ġcli":5596,"sv":5597,"fect":5598,"ka":5599,"itions":5600,"Ġfall":5601,"]$,":5602,"paragraph":5603,"itory":5604,"ttps":5605,"Ġproduce":5606,"Ġoverall":5607,"79":5608,"Ġpl":5609,"sy":5610,"uple":5611,"Ġ\\]":5612,"Ġupon":5613,"Ġ::":5614,"Ġfeed":5615,"Ġmix":5616,"81":5617,"$_{":5618,"force":5619,"unch":5620,"before":5621,"two":5622,"Ġdifficult":5623,"Ġsingular":5624,"internal":5625,"semble":5626,"Ġbehavi":5627,"olved":5628,"None":5629,"Im":5630,"})}":5631,"Ġidentify":5632,"Ġabsor":5633,"Expression":5634,"triv":5635,"Position":5636,"car":5637,"VAL":5638,"73":5639,"Ġflat":5640,"}}_{\\":5641,"PECT":5642,"TI":5643,"udes":5644,"Ġcalculate":5645,"Callback":5646,"Ġestablish":5647,"Ġgen":5648,"ORT":5649,"Ġstri":5650,"Ġinverse":5651,"Ġsubgroup":5652,"Ġproved":5653,"shape":5654,"Ġvary":5655,"Ġremaining":5656,"Option":5657,"MR":5658,"Ġforward":5659,"LI":5660,"Ġrepresented":5661,"That":5662,"Ġtowards":5663,"ung":5664,"Ġexhib":5665,"[-":5666,"}}}\\":5667,"Ġradio":5668,"Ġclusters":5669,"ZE":5670,"\\;":5671,"allow":5672,"eman":5673,"zing":5674,"Ġoutside":5675,"global":5676,"Ġnav":5677,"Ġvisual":5678,"ĠIndi":5679,"tml":5680,"classes":5681,"white":5682,"Ġcapture":5683,"Mon":5684,"Ġgeneration":5685,"Ġnor":5686,"Di":5687,"Ġprojection":5688,"Script":5689,"each":5690,"Ġquasi":5691,"CODE":5692,"ĠCreate":5693,"component":5694,"PA":5695,"pid":5696,"Doc":5697,"Ġelect":5698,"Ġparallel":5699,"Entity":5700,"mathop":5701,"Ġmetal":5702,"types":5703,"ãģ":5704,"Params":5705,"Ġstrongly":5706,"Ġdetailed":5707,"ham":5708,"Ġhttps":5709,"Ġcollision":5710,"ategories":5711,"Ġgenerally":5712,"Ġstraight":5713,"Ġscales":5714,"Ġideal":5715,"diction":5716,"Thread":5717,")--":5718,"Ġidentified":5719,"Ġxml":5720,"imilarly":5721,"Ġpadding":5722,"Ġunits":5723,"rew":5724,"Ġcomes":5725,"Ġresi":5726,">,":5727,"Access":5728,"Ġreplace":5729,"Ġring":5730,"osity":5731,"%;":5732,"Ġscenario":5733,"Ġcompany":5734,"aren":5735,"Ġcontact":5736,"Ġestimation":5737,"Dir":5738,"anti":5739,"Ġespecially":5740,"Ġsm":5741,"inted":5742,"atures":5743,"render":5744,"Http":5745,"Results":5746,"Ġiso":5747,"}}.":5748,"gn":5749,"=\"_":5750,"opic":5751,"vas":5752,"Ġmatching":5753,"Ġmentioned":5754,"Ġguarante":5755,"Ġcity":5756,"Ġcommu":5757,"Search":5758,"?:":5759,"rix":5760,"Ġprotocol":5761,"Ġalthough":5762,"termin":5763,"Ġlargest":5764,"Ġsituation":5765,"ĉĠĠĠĠĠĠĠ":5766,"year":5767,"join":5768,"Ġfunctional":5769,"Ġthick":5770,"vs":5771,"Ġcache":5772,"chor":5773,"ĠUsing":5774,"Ġstation":5775,"wait":5776,"aking":5777,"Ġspan":5778,"enomen":5779,"raft":5780,"iss":5781,"Ġnucle":5782,"istration":5783,"Ġcoordinate":5784,"EM":5785,"Ġgot":5786,"debug":5787,"Ġdecomposition":5788,"Ġmeasures":5789,"uck":5790,"Ġvertical":5791,"zon":5792,"Ġmeet":5793,"Ġconstants":5794,"255":5795,"aml":5796,"Ġreduction":5797,"Ġmicro":5798,"vised":5799,"Ġneural":5800,"AV":5801,"Ġstory":5802,"Ġthermal":5803,"Ġclearly":5804,"partment":5805,"bal":5806,"})=":5807,"itable":5808,"yond":5809,"Ġcriter":5810,"Ġdetail":5811,"eline":5812,"Connection":5813,"]{\\":5814,"Ġissues":5815,"Ġcr":5816,"aging":5817,"fn":5818,"Ġstrength":5819,"ĠBri":5820,"hash":5821,"exports":5822,"Ġtrained":5823,",{\\":5824,"ca":5825,"columnwidth":5826,"Ġconsidering":5827,"Settings":5828,"Ġask":5829,"Ġ\\!":5830,"Ġenh":5831,"Ġdoesn":5832,"Ġcycle":5833,"lar":5834,"ĠFurthermore":5835,"Ġgreater":5836,"bur":5837,"rea":5838,"ictionary":5839,"full":5840,"Ġstudents":5841,"loop":5842,"aps":5843,"Ġfundamental":5844,"border":5845,"ĠĠĠĠĠĠĠĠĠĠĠĠĠĠĠĠĠĠ":5846,"plot":5847,"Multi":5848,"oney":5849,"Ġgl":5850,"Ġonline":5851,"ĠCheck":5852,"circle":5853,"utes":5854,"Copy":5855,"Ġpropor":5856,"Ġstack":5857,"Ġbuilt":5858,"ĠMo":5859,"ĠSu":5860,"Ġ^{":5861,"scriptsize":5862,"1999":5863,"axis":5864,"while":5865,"diff":5866,"|}{":5867,"Ġep":5868,"entifier":5869,"icrosoft":5870,"Ġremark":5871,"Ġnames":5872,"store":5873,"Ġitems":5874,"oke":5875,"Ġsession":5876,"Properties":5877,"}}^{\\":5878,"Ġdistinct":5879,"amera":5880,"================================":5881,"Location":5882,"iota":5883,"apter":5884,"Ġevaluation":5885,"Ġmas":5886,"Ġsolve":5887,"tun":5888,"Ġequilibrium":5889,"ournal":5890,"Sch":5891,"400":5892,"Ġactions":5893,"Ġcompletely":5894,"Ġsoftware":5895,"Ġrepresentations":5896,"ĠAppendix":5897,"Ġenter":5898,"equal":5899,"such":5900,"ĠAf":5901,"71":5902,"ada":5903,"sitivity":5904,"Ġsetup":5905,"pair":5906,"Ġconstructed":5907,"Clo":5908,"Current":5909,"Ġunderlying":5910,"osing":5911,"Change":5912,"})^":5913,"ĠAlso":5914,"ĠSome":5915,"Ġparticip":5916,"Reference":5917,"Ġfri":5918,"Ġmarket":5919,"Ġwomen":5920,"Ġcurrently":5921,"tization":5922,"byte":5923,"Ġmusic":5924,"covery":5925,"Helper":5926,"Each":5927,"GN":5928,"Ġtests":5929,"Ġhol":5930,"rive":5931,"Ġoffer":5932,"prote":5933,"lator":5934,"Parameters":5935,"ĠTrans":5936,"blem":5937,"ulations":5938,"XX":5939,"artifact":5940,"longrightarrow":5941,"ĠBar":5942,"Iter":5943,"Ġparams":5944,"ission":5945,"Ġrobust":5946,"Ġsampling":5947,"Ġrelatively":5948,"=\"../../../../../":5949,"GET":5950,"Ġdig":5951,"Ġevaluate":5952,"ulated":5953,"Ġtool":5954,"Ġembedding":5955,"Const":5956,"Document":5957,"Ġservices":5958,"Ġpreviously":5959,"cus":5960,"chem":5961,"Ġetc":5962,"irit":5963,"ĠHar":5964,"Ġreve":5965,"Ġsimpl":5966,"Ġcry":5967,"bum":5968,"Ġtell":5969,"Lemma":5970,"_;":5971,"ĠÂ":5972,"=\"-":5973,"cro":5974,"oundation":5975,"Ġinfluence":5976,"Proof":5977,"Ġaim":5978,"ĠSchool":5979,"tool":5980,"lege":5981,"ĠLa":5982,"slant":5983,"iggs":5984,"ĠMy":5985,"Ġmaximal":5986,"Serial":5987,"Ġlearn":5988,"Ġcommit":5989,"Schema":5990,"tained":5991,"Ġseems":5992,"Ġlocated":5993,"Ġphysics":5994,"AND":5995,"Ġsufficient":5996,"Ptr":5997,"${\\":5998,"structor":5999,"Ġmeaning":6000,"comment":6001,"shot":6002,"Ġdifferences":6003,"GR":6004,"ky":6005,"See":6006,"Ġtermin":6007,"ford":6008,"Vari":6009,"DI":6010,"Operation":6011,"Order":6012,"Ġcamp":6013,"Ġadvan":6014,"Vector":6015,"Font":6016,"Ġhole":6017,"Ġcyc":6018,"\"));":6019,"Ġactiv":6020,"Ġsufficiently":6021,"Ġdiagonal":6022,"Ġlot":6023,"GE":6024,"Ġdatabase":6025,"gian":6026,"Ġindicate":6027,"Ġmanifold":6028,"Ġprof":6029,"Ġslightly":6030,"Ġchalleng":6031,"^{*":6032,"env":6033,"Long":6034,"Ġcontained":6035,"Store":6036,"formal":6037,"Ġpseud":6038,"channel":6039,"chedule":6040,"Ġbuilding":6041,"nes":6042,"Ġbr":6043,"itter":6044,"Description":6045,"ĠEach":6046,"ulture":6047,"Ge":6048,"ini":6049,"copy":6050,"Ġion":6051,"figures":6052,">\\":6053,"Ġefficiency":6054,"trivial":6055,"ski":6056,"Ġmodified":6057,"msg":6058,"ĠIntern":6059,"strap":6060,"/(":6061,"vature":6062,"Ġexpressed":6063,"ira":6064,"reedom":6065,"romise":6066,"Ġbeyond":6067,"Ġexplicitly":6068,")).":6069,"ĠEXPECT":6070,"lapse":6071,"mathit":6072,"uri":6073,"Ġbecame":6074,"omy":6075,"Ġpoly":6076,"Async":6077,"Ġlimits":6078,"Ġtele":6079,"Ġ}{":6080,"ĠOct":6081,"ĠAug":6082,"Ġassumptions":6083,"Ġdesired":6084,"Extension":6085,"}|\\":6086,"mann":6087,"Ġsections":6088,"Ġphenomen":6089,"RR":6090,"Ġconcent":6091,"exists":6092,"double":6093,"Ġpassed":6094,"device":6095,"DC":6096,"Ġweek":6097,"\\}\\":6098,"Ġhidden":6099,"Ġhighly":6100,"ermi":6101,"ouch":6102,"lates":6103,"Ġ\"\\":6104,"Ġtypical":6105,"1998":6106,"Integer":6107,"ĠAu":6108,"DA":6109,"delete":6110,"ellow":6111,"magnetic":6112,"PL":6113,"Ġquo":6114,"Ġferm":6115,"Hence":6116,"urations":6117,"Ġblocks":6118,"flu":6119,"Ġ++":6120,"Ġvac":6121,"\\}$,":6122,"ĠPr":6123,"ERROR":6124,"parameters":6125,")}_":6126,"dash":6127,"ĠExp":6128,"ĠLog":6129,"selves":6130,"():":6131,"Ġdepending":6132,"unity":6133,"Session":6134,"Ġresources":6135,"Ġextreme":6136,"grid":6137,"isely":6138,"multirow":6139,"tikzpicture":6140,"|}":6141,"Ġoverride":6142,"mn":6143,"Ġgain":6144,"Ġestablished":6145,"bilities":6146,"Ġsecurity":6147,"labor":6148,"Ġnovel":6149,"\\|\\":6150,"Ġrecall":6151,"green":6152,"@{":6153,"Ġextend":6154,"hic":6155,"avel":6156,"ĠName":6157,"}_{-":6158,"reated":6159,"mediately":6160,"Ġapplying":6161,"ori":6162,"Comple":6163,"panel":6164,"called":6165,"replace":6166,"ĠSD":6167,"initial":6168,"bing":6169,"}$}":6170,"Ġnamespace":6171,"Mapp":6172,"Ġ}}":6173,"Host":6174,"ened":6175,"ollowing":6176,"OM":6177,"Ġemer":6178,"ki":6179,"domain":6180,"Definition":6181,"interface":6182,"Ġjoint":6183,"Ġbos":6184,"Ġvariety":6185,"tamp":6186,"ĠSouth":6187,"Ġcondu":6188,"Ġpredictions":6189,"Var":6190,"atory":6191,"atible":6192,"aut":6193,"Ġpaths":6194,":=\\":6195,"ĠError":6196,"Ġstatistical":6197,"&=\\":6198,"modal":6199,"ffic":6200,"Ġpractice":6201,"Ġoccurs":6202,"CF":6203,"(*":6204,"Ġexam":6205,"Ġdiver":6206,"Ġderivative":6207,"Ġmachine":6208,"phys":6209,"][]{":6210,"bind":6211,"Ġphoton":6212,"(:":6213,"CTION":6214,"Ġarticle":6215,"Ġlabels":6216,"Core":6217,"Ġodd":6218,"Ġconsequence":6219,"bp":6220,"Ġcontainer":6221,"Ġderive":6222,"ming":6223,"transform":6224,"Ġthought":6225,"Ġnamely":6226,"Non":6227,"stri":6228,"Pri":6229,"Ġtrace":6230,"Ġtrivial":6231,"ĠException":6232,"Ġda":6233,"vm":6234,"hs":6235,"stitute":6236,"Ġparse":6237,"ĠOther":6238,"Ġverify":6239,"subsec":6240,"mos":6241,"ACK":6242,"legate":6243,"vartheta":6244,"boot":6245,"ourier":6246,"category":6247,"DS":6248,"Ġsend":6249,"ĠLag":6250,"ĉĠĠĠĠĠ":6251,"utils":6252,"ĠLie":6253,"formations":6254,"Ġengine":6255,"Ġeffor":6256,"Ġdx":6257,"Us":6258,"Ġasymptotic":6259,")),":6260,"Render":6261,"ĠSw":6262,"handle":6263,"Ġenergies":6264,"BA":6265,"Ġvariation":6266,"holder":6267,"Ġmath":6268,"tient":6269,"Ġsemi":6270,"ĠOR":6271,"Ġtopological":6272,";\\;\\":6273,"Ġstability":6274,"ĠGra":6275,"ĠMc":6276,"ĠJanuary":6277,"Ġproducts":6278,";->":6279,"}~":6280,"Ġanswer":6281,"Ġrights":6282,"greg":6283,"ĠWeb":6284,"256":6285,"tiny":6286,"uit":6287,"Ġcomputational":6288,"uge":6289,"Down":6290,"Ġins":6291,"Ġisomorphism":6292,"OP":6293,"BS":6294,"Ġ$,":6295,"cil":6296,"Invalid":6297,"UM":6298,"Ġdynamic":6299,"ections":6300,"nn":6301,"uminosity":6302,"Ġcancel":6303,"Ġconj":6304,"Ġdeath":6305,"meds":6306,"Ġfeel":6307,"Ġdust":6308,"^{(\\":6309,"Ġmu":6310,"ĠIndeed":6311,"ills":6312,"ULT":6313,"Ġdetected":6314,"Ġbias":6315,"ille":6316,"Ġnonlinear":6317,"}}=":6318,"Ġunknown":6319,"Ġfav":6320,"ĠChris":6321,"medskip":6322,"ĠMarch":6323,"hr":6324,"Ġvi":6325,"Ġchem":6326,"hover":6327,"Ġtesting":6328,"Ġconclu":6329,"Ġcanonical":6330,"Inst":6331,"nother":6332,"Ġpredicted":6333,"Values":6334,"Names":6335,"tract":6336,"ancy":6337,"Graph":6338,"........":6339,"Ġthread":6340,"toString":6341,"Ġfamil":6342,"Ġinvolved":6343,"stro":6344,"ĠAb":6345,"ifts":6346,"128":6347,"itle":6348,"Ġprinciple":6349,"Impl":6350,"Ġwriting":6351,"webkit":6352,"Ġobvious":6353,"card":6354,"ãĥ":6355,"Ġfinally":6356,"DM":6357,"...,":6358,"bib":6359,"Ġachieved":6360,"Ġpublished":6361,"Ġelectr":6362,"well":6363,"Ġair":6364,"Ġdriv":6365,"mal":6366,"Ġearlier":6367,"Ġrelationship":6368,"Ġpropose":6369,"fields":6370,"disabled":6371,"artifactId":6372,"ulate":6373,"served":6374,"ibration":6375,"ĠRE":6376,"ĠTime":6377,"Ġinfo":6378,"Ġareas":6379,"Ġtun":6380,")})":6381,"notag":6382,"Âł":6383,"resp":6384,"Sum":6385,"ggest":6386,"Ġexpec":6387,"ĠResearch":6388,"ights":6389,"Ġcharacteristic":6390,"Ġfailed":6391,"ober":6392,"pite":6393,"Ġorth":6394,"ny":6395,"TEST":6396,"}\\|":6397,"tish":6398,"INE":6399,"Ġintegration":6400,"Ġconcept":6401,"Ġuncertain":6402,"Ġarchitecture":6403,"Handle":6404,"ĠCity":6405,"Ġtransport":6406,"Ġnum":6407,"Ġshowed":6408,"Ġobjective":6409,"EXT":6410,"ads":6411,"Ġprobab":6412,"Ġlocally":6413,"mult":6414,"icker":6415,"Ġchannels":6416,"ymmetry":6417,"Ġonto":6418,"STR":6419,"short":6420,"margin":6421,"modules":6422,"Ġstochastic":6423,"Ġwaves":6424,"=.":6425,"pril":6426,"Ġyield":6427,"ĠMath":6428,"ierarch":6429,"equals":6430,"Ġutili":6431,"ĠLO":6432,"large":6433,"Ġcm":6434,"Sign":6435,"Ġbyte":6436,"ĠNorth":6437,"ĠChar":6438,"ĠAc":6439,"Ġcop":6440,"Ġsummar":6441,"Ġmask":6442,"Ġefficient":6443,"Ġstarted":6444,"boolean":6445,"Ġcat":6446,"sively":6447,"cible":6448,"Port":6449,"Consider":6450,"uff":6451,"PRE":6452,"Tran":6453,"Ġtook":6454,"Menu":6455,"Ġacceler":6456,"origin":6457,"Ġcombined":6458,"mf":6459,"umentation":6460,"Ġnet":6461,"`.":6462,"Ġcells":6463,"Pe":6464,"itary":6465,"files":6466,"ws":6467,"custom":6468,"Ġshare":6469,"valu":6470,"Xi":6471,"Que":6472,"Ġcame":6473,"Ġfilename":6474,"Body":6475,"ggle":6476,"cut":6477,"Ġhighest":6478,"Obj":6479,"lone":6480,"general":6481,"gather":6482,"Ġbundle":6483,"Ġcompan":6484,"framework":6485,"Ġentries":6486,"Ġelectric":6487,"Ġvio":6488,"Ġpackage":6489,"Ġmaxim":6490,"Ġremoved":6491,"Ġsatisfied":6492,"ĠSep":6493,"Ġrisk":6494,"COLOR":6495,"(-\\":6496,"Ġmassive":6497,"Ġgeneralized":6498,"Ġvariance":6499,"Ġindeed":6500,"bet":6501,"Ġ({\\":6502,"alf":6503,"SSERT":6504,"False":6505,"BE":6506,"tember":6507,"condition":6508,"Ġapi":6509,"Ġwait":6510,"variance":6511,"fl":6512,"ALL":6513,"address":6514,"cember":6515,"Ġcomputing":6516,"Ġpurpose":6517,"Ġsequences":6518,"Given":6519,"PH":6520,"Ġtypically":6521,"Ġcoinc":6522,"spac":6523,"Ġimmediately":6524,"dest":6525,"Ġcla":6526,"Ġwhereas":6527,"Ġseman":6528,"Ke":6529,"pdown":6530,"reet":6531,"arding":6532,"Ġfollowed":6533,"Ġgeneric":6534,"TC":6535,"Ġaver":6536,"thern":6537,"Template":6538,".\\\\":6539,"inline":6540,"Ġnamed":6541,"Ġspher":6542,"Ġneighb":6543,"ĠJune":6544,"att":6545,"enta":6546,"Ġfill":6547,"ĠGal":6548,"groupId":6549,"Ġpositions":6550,"antom":6551,"Project":6552,"Ġ$\\{\\":6553,"radius":6554,"Ġyoung":6555,"rd":6556,"Ġdashed":6557,"ĠMod":6558,"Ġcommunication":6559,"Suppose":6560,"Ġradial":6561,"Ġunderstanding":6562,"Ġdegrees":6563,"Mar":6564,"ĠSU":6565,"Deta":6566,"Ġintern":6567,"Ġdynamical":6568,"optim":6569,"enchmark":6570,"stral":6571,"luster":6572,"Ġutil":6573,"Ġdelete":6574,"vember":6575,"Ġbulk":6576,"Ġellip":6577,"Ġtechnique":6578,"Args":6579,"Ġsuff":6580,"avelength":6581,"Ġtreatment":6582,"continu":6583,"STATE":6584,"Ġprecisely":6585,"xture":6586,"focus":6587,"rown":6588,"Ġdimensional":6589,"Ġpopular":6590,"Reader":6591,"Ġshared":6592,"Ġusual":6593,"Ġdisper":6594,"'re":6595,"ticles":6596,"!]":6597,"Ð°Ð":6598,"elihood":6599,"SET":6600,"bil":6601,"ĠHigh":6602,"Ġchanged":6603,"aster":6604,"etal":6605,"Ġperfect":6606,"Ġcompe":6607,"Ġeigenvalues":6608,"Ġways":6609,"ifier":6610,"kind":6611,"Ġapproximately":6612,"Ġdel":6613,"Ġdrop":6614,"Ġplayer":6615,"Ġactivity":6616,"Ġ\\&":6617,"ibility":6618,"Ġsqu":6619,"Ġconnect":6620,"poch":6621,"`,":6622,"syn":6623,"send":6624,"120":6625,"trict":6626,"rams":6627,"since":6628,"icons":6629,"Ġextract":6630,"Bytes":6631,"ĠNot":6632,"ogonal":6633,"ĠWork":6634,"Ġheader":6635,"har":6636,"While":6637,"corollary":6638,"Cl":6639,"^*\\":6640,"Ġimplemented":6641,"jecture":6642,"Ġquestions":6643,"servation":6644,"spin":6645,"prob":6646,"\\%$":6647,"ĠRun":6648,"Ġcurvature":6649,"vitational":6650,"Database":6651,"Ġsuggest":6652,"ropic":6653,"ubble":6654,"DR":6655,"'],":6656,"pk":6657,"Ġdistingu":6658,"Mo":6659,"keys":6660,"mator":6661,"ĠDec":6662,"Example":6663,"SION":6664,"eries":6665,"herent":6666,"=\"../../../../../../":6667,"docs":6668,"Ġ(\"":6669,"Ġshowing":6670,")[":6671,"bon":6672,"GS":6673,"Ġexclu":6674,"crimin":6675,"Ġdesigned":6676,"}{*":6677,"Ġradiation":6678,"ridge":6679,"Ġprocessing":6680,"sia":6681,"Ġbytes":6682,"Ġparticularly":6683,"Moreover":6684,"Ġpolitical":6685,"Ġhydro":6686,"ferences":6687,"^*(":6688,"Ġthroughout":6689,"ociety":6690,"Ġperiodic":6691,"Syn":6692,"-(":6693,"Ġalign":6694,"ĠAct":6695,"numer":6696,"ifies":6697,"kin":6698,"click":6699,"Stack":6700,"Ġ(*":6701,"Widget":6702,"Ġstop":6703,"media":6704,"150":6705,"Parser":6706,"ĠJuly":6707,"enge":6708,"Ġcharacters":6709,"ĠDate":6710,"backslash":6711,"Ġseason":6712,"when":6713,"Ġtoday":6714,"Ġ),":6715,"arc":6716,"stylesheet":6717,"rank":6718,"covered":6719,"ĠHis":6720,"Ġprefer":6721,"Ġarm":6722,"Ġrelease":6723,"Ġalternative":6724,"HTML":6725,"ancial":6726,"typeof":6727,"rangian":6728,"ĠGeV":6729,"Ġsong":6730,"ority":6731,"Mark":6732,"extra":6733,"annotation":6734,"Ġ['":6735,"callback":6736,"+(":6737,"shift":6738,"ĠRed":6739,"Ġfreedom":6740,")^\\":6741,"Ġ,\\":6742,"ano":6743,"Ġten":6744,"win":6745,"brid":6746,"MT":6747,"Argument":6748,"Ġ<=":6749,"Ġmotiv":6750,"Ġintersection":6751,"ĠĠĠĠĠĠĠĠĠĠĠĠĠĠĠĠĠĠĠĠĠĠĠĠ":6752,"Ġmetrics":6753,"asons":6754,"settings":6755,"Ġ('":6756,"Cor":6757,"Prop":6758,"Ġreprodu":6759,"Ġreli":6760,"ĠBay":6761,"crete":6762,"Ġcloud":6763,"Ġindices":6764,"ingle":6765,"ãĤ":6766,"success":6767,"DP":6768,"BR":6769,"schema":6770,"Ġ})":6771,"Ġredshift":6772,"ĠMed":6773,"You":6774,"ĠTrue":6775,"----------------------------------------------------------------":6776,"ĠScience":6777,"El":6778,"'))":6779,"Ġexplain":6780,"IGN":6781,"negative":6782,"Ġdelay":6783,"ilbert":6784,"Device":6785,"Ġquantities":6786,"limit":6787,"__(":6788,"there":6789,"tan":6790,"Ġequivalence":6791,"istance":6792,"Api":6793,"stackrel":6794,"Ġruns":6795,"protobuf":6796,"Ġnotice":6797,"ĠGiven":6798,"Ġrelax":6799,"scripts":6800,"Ġtransaction":6801,"ĠCom":6802,"lating":6803,"Ġdense":6804,"Ġgravity":6805,"Ġscreen":6806,"Go":6807,"Ġunsigned":6808,"connection":6809,"ĠGerman":6810,"parallel":6811,"Ġcandidate":6812,"Policy":6813,"Storage":6814,"Ġexchange":6815,"ĉĉĉĊ":6816,"sump":6817,"ae":6818,"Ġincreased":6819,"istics":6820,"inv":6821,"External":6822,"aco":6823,"UL":6824,"Ġreflect":6825,"tn":6826,"ĠĠĠĠĠĠĠĠĠĠĠĠĠĠĠĠĠĠĠĠĠĠĠĠĠ":6827,"Ġnormalized":6828,"Debug":6829,"ĠApril":6830,"beled":6831,"Ġinit":6832,"Ġdeli":6833,"ient":6834,"ĠĠĠĠĠĠĠĠĠĠĠĠĠĠĠĠĠĠĠĠĠĠ":6835,"NG":6836,"Ġlate":6837,"ĠOctober":6838,"ultane":6839,"2022":6840,"Ġsuitable":6841,"monic":6842,"ĠAfric":6843,"session":6844,"Ġrecur":6845,"Ġexpressions":6846,"Ġouter":6847,"bc":6848,"Application":6849,"ĠCON":6850,"Ġequality":6851,"Ġabund":6852,"!\\":6853,"Ġhouse":6854,"$.}":6855,"Ġteach":6856,"CI":6857,"Ġacqu":6858,"Ġ'/":6859,"register":6860,"\"`":6861,"Ġpen":6862,"Ġtheories":6863,"endar":6864,"HS":6865,"ĠMethod":6866,"Ġ\\,\\":6867,"ko":6868,"total":6869,"zy":6870,"Descriptor":6871,"rays":6872,"jpg":6873,"Bin":6874,"Pa":6875,"Ġmiddle":6876,"1997":6877,"mom":6878,"Ġdoing":6879,"Ġelectro":6880,"attribute":6881,"Assert":6882,"uid":6883,"ĠBG":6884,"Ġproceed":6885,"ĠValue":6886,"ĠĠčĊ":6887,"Ġpush":6888,"Ġinline":6889,"sep":6890,"Ġkeys":6891,"functions":6892,"Ġinvestigate":6893,"Boolean":6894,"Ġinstances":6895,"ĠDecember":6896,"za":6897,"ĠFunction":6898,"Ġdetector":6899,"boldmath":6900,"Auto":6901,"Pass":6902,"Icon":6903,"Ġvisible":6904,"EC":6905,"Ġlive":6906,"ĠSeptember":6907,"Ġreader":6908,"Ġtrigger":6909,"ĠDav":6910,"Tab":6911,"Ġexponential":6912,"stan":6913,"Ġindepend":6914,"support":6915,"uum":6916,"Ġsector":6917,"Ġpointer":6918,"Ġaffect":6919,"Ġiteration":6920,"hol":6921,"$^{":6922,"ortion":6923,"Writer":6924,"ĠĠĠĠĠĠĠĠĠĠĠĠĠĠĠĠĠĠĠĠĠĠĠĠĠĠĠĠĠĠĠĠĠĠĠĠĠĠĠ":6925,"|$":6926,"Mem":6927,"Ġsizes":6928,"Ġadop":6929,"Ġpick":6930,"lli":6931,"footnotesize":6932,"Ġhypothesis":6933,"Ġraise":6934,"actic":6935,"Ġattributes":6936,"ĠInt":6937,"Ġinsp":6938,"Ġstatistics":6939,"textup":6940,"Red":6941,"BL":6942,"Ã¡":6943,"corpor":6944,"vect":6945,"Ġconstit":6946,"Ġexpress":6947,"aff":6948,"Ġbrief":6949,"Ġpi":6950,"ĠNovember":6951,"FOR":6952,"verti":6953,"PD":6954,"Ġclean":6955,"Ġwall":6956,"ĠGroup":6957,"Ġentang":6958,"application":6959,"ĠIR":6960,")--(":6961,"BO":6962,"123":6963,"vities":6964,"Ġbehaviour":6965,"sport":6966,"ĠWhat":6967,"Ġfine":6968,"dical":6969,"ĠPy":6970,"NavBar":6971,"Ġmi":6972,"Ġluminosity":6973,"zh":6974,"ĠEar":6975,"coming":6976,"Ap":6977,"Enc":6978,"Car":6979,"Ġcolumns":6980,"Ġappe":6981,"properties":6982,"Ġadding":6983,"Ġeducation":6984,"iring":6985,"Ġaccre":6986,"Delete":6987,"Ġfluctuations":6988,"ĠExt":6989,"precated":6990,"rong":6991,"ĠSO":6992,"product":6993,"ĠExample":6994,"downarrow":6995,"aders":6996,"160":6997,"obs":6998,"Ġassign":6999,"stry":7000,"Ġdirectory":7001,"Ġheavy":7002,"Use":7003,"ä¸":7004,"Ġintensity":7005,"ĠSun":7006,"ATA":7007,"ĠRus":7008,"Rule":7009,"arith":7010,"Enabled":7011,"ĠJSON":7012,"Ġgreen":7013,"###":7014,"random":7015,"aign":7016,"MI":7017,"Ġpolarization":7018,"Ġfront":7019,"Ġperturbation":7020,"orizon":7021,"ĠSuch":7022,"exception":7023,"pl":7024,"Ġbelieve":7025,"Sw":7026,"|^{":7027,"Ġmixed":7028,"Title":7029,"belian":7030,"Ġnuclear":7031,"hfill":7032,"phase":7033,"Ġ[];":7034,"000000":7035,"language":7036,"ORD":7037,">();":7038,"&#":7039,"ĠWest":7040,"ĠHiggs":7041,"ĠAugust":7042,"ĠAmerica":7043,"Rou":7044,"Param":7045,"Ġencoding":7046,"Ġassuming":7047,"ĠSuppose":7048,"single":7049,"padding":7050,"apply":7051,"Ġflag":7052,"Ġtranslation":7053,"My":7054,"Before":7055,"ĠPri":7056,"ĠDire":7057,"unct":7058,"Ġseparate":7059,"Ġprecision":7060,"Ġled":7061,"Ġtax":7062,"Ġdot":7063,"phantom":7064,"olar":7065,"tee":7066,"Ġthing":7067,"widget":7068,"Ġuniformly":7069,"Ġever":7070,"ĠOut":7071,"Ġrecomm":7072,"Ġfinding":7073,"ulus":7074,"Has":7075,"particle":7076,"Ġcompar":7077,"sus":7078,")(\\":7079,"'_{":7080,"cloud":7081,"rist":7082,"ĠassertEquals":7083,"Ġfair":7084,"Parent":7085,"DIR":7086,"Ġreplaced":7087,"ĠĠĠĠĠĠĊ":7088,"Ġspecies":7089,"ĠBra":7090,"Ġalbum":7091,"Ġparame":7092,"km":7093,"Draw":7094,"Ġinstall":7095,"gmentation":7096,"Ġvs":7097,"ĠMap":7098,"ucial":7099,"consist":7100,"ĠEnd":7101,"Ġjet":7102,"Ġos":7103,"isson":7104,"Record":7105,"square":7106,"Scope":7107,"'.":7108,"Ġmoving":7109,"Ġadmin":7110,"ipeline":7111,"Timeout":7112,"Metadata":7113,"region":7114,"Ġrapid":7115,"chain":7116,")}.":7117,"Ġnational":7118,"Direct":7119,"Ġbeginning":7120,"network":7121,"*}[":7122,"Ġrect":7123,"pository":7124,"ĠAlthough":7125,"wrap":7126,"lower":7127,"vie":7128,"Ġreleased":7129,"1996":7130,"LR":7131,"Ġevaluated":7132,"trins":7133,"ĠURL":7134,"Ġrise":7135,"Ġconv":7136,"Ġquadratic":7137,"Ġagents":7138,"Ġsem":7139,"connect":7140,"oling":7141,"Ġgames":7142,"dict":7143,"complete":7144,"theless":7145,"Load":7146,"Ġrecogn":7147,"ĠOpen":7148,"ĠMich":7149,"asc":7150,"Ġinvoke":7151,"ĠIS":7152,"textcolor":7153,"Ġconfigurations":7154,"anges":7155,"Ġheld":7156,"Ġinterested":7157,"'>":7158,"constra":7159,"Ġbad":7160,"Ġcorrections":7161,"Ġball":7162,"ryp":7163,"Ġcontract":7164,"plane":7165,"missions":7166,"extension":7167,")}(\\":7168,"Ġcref":7169,"tified":7170,"{(\\":7171,"Ġvehic":7172,"Ġmissing":7173,"Num":7174,"Ġupdated":7175,"ĠPresident":7176,"URE":7177,"rich":7178,"ĠAustral":7179,"Ġretrie":7180,"depth":7181,"Ġmet":7182,"~(\\":7183,"Ġdra":7184,"ĠSM":7185,"Initial":7186,")))":7187,"ĠKing":7188,"Byte":7189,"Network":7190,"&&\\":7191,"Ġaccept":7192,"simple":7193,"Ġpatterns":7194,">.":7195,"thick":7196,"Queue":7197,"insert":7198,"Ġimplement":7199,"Ġstress":7200,"Ġgoes":7201,"orter":7202,"ĠDr":7203,"Main":7204,"ĠCenter":7205,"tral":7206,"isot":7207,"Ġcapacity":7208,"Ġability":7209,"iii":7210,"ACE":7211,"ĠUse":7212,"Ġexplained":7213,"Channel":7214,"Ġoccup":7215,"Ġgets":7216,"Ġnothing":7217,"Ġprime":7218,"Ġalloc":7219,"virtual":7220,"uparrow":7221,"some":7222,"ceil":7223,"Ġlibrary":7224,"han":7225,"ached":7226,"Ġformed":7227,"rence":7228,"StyleID":7229,"differ":7230,"ico":7231,"road":7232,"mean":7233,"END":7234,"Ġexpand":7235,"special":7236,"Ġquantity":7237,"Ġshock":7238,"_,":7239,"Fields":7240,"Ġsort":7241,"coord":7242,"inclu":7243,"thetic":7244,"ĠRequ":7245,"reducible":7246,"Only":7247,"pub":7248,"Ġcomposition":7249,"110":7250,"Ġcomment":7251,"umes":7252,"scopic":7253,"Ġfoot":7254,"Ġrough":7255,"Ġjav":7256,"ĠEnglish":7257,"Ġlack":7258,"Ġsuppose":7259,"sql":7260,"rome":7261,"Ġjson":7262,"Ġinstr":7263,"ĠCE":7264,"fix":7265,"gets":7266,"Ġcorrection":7267,"Ġaccep":7268,"ady":7269,"Fa":7270,"spective":7271,"tivities":7272,"Ġdidn":7273,"none":7274,"Ġquick":7275,"ĠIO":7276,"textsf":7277,"Ġspecify":7278,"ĠBer":7279,"Ġconfir":7280,"Sym":7281,"Ġconvolution":7282,"cline":7283,"ats":7284,"Ġinputs":7285,"Ġphases":7286,"Cref":7287,"Ġvisit":7288,"tile":7289,"Ġgenerating":7290,"ua":7291,"utor":7292,"related":7293,"mits":7294,"Gra":7295,"Ġuncertainties":7296,"IV":7297,"Ġidentical":7298,"tach":7299,"TEX":7300,"FS":7301,"$-$":7302,"leftarrow":7303,"rane":7304,"Ġdro":7305,"Ġopport":7306,"adoop":7307,"Ġplayers":7308,"Ġthank":7309,"Ġentity":7310,"tip":7311,"[$":7312,"$\\\\":7313,"Ġpermu":7314,"Ġci":7315,"Ġinfer":7316,"Symbol":7317,"WE":7318,"toggle":7319,"ĠCounty":7320,"Pattern":7321,"Root":7322,"Ġecho":7323,"Ġgravitational":7324,"Ġsci":7325,"Ġisot":7326,"Ġinstanceof":7327,"anger":7328,"primary":7329,"wner":7330,"}.}":7331,"ATH":7332,"Ġamb":7333,"Ġanom":7334,"export":7335,"ĠSan":7336,"}$\\":7337,"vation":7338,"Ġhalo":7339,"rg":7340,"Ġcoupled":7341,"\\!\\":7342,"Ġani":7343,"loss":7344,"ondon":7345,"ĠFourier":7346,"Ġther":7347,"Ġpicture":7348,"ocket":7349,"Ġpropos":7350,"})^{":7351,"iers":7352,"=\\{":7353,"CM":7354,"otal":7355,"ague":7356,"Ġnoted":7357,"Ġimportance":7358,"Ġforces":7359,"VM":7360,"Ġ$^{":7361,"Ġnotion":7362,"ĠBase":7363,"$^":7364,"ison":7365,"Ġ---":7366,"Ġpriv":7367,"Ġupd":7368,"admin":7369,"ĠAccording":7370,"Ġsignals":7371,"Ġdedu":7372,"Rep":7373,"oting":7374,"invariant":7375,"bruary":7376,"TS":7377,"Mock":7378,"sube":7379,"]]":7380,"ĠConsider":7381,"Ġelem":7382,"Ġgeometric":7383,"ema":7384,"coin":7385,"Ġsimultane":7386,"Ġ{$\\":7387,"Ġpolynomials":7388,"faults":7389,"ologies":7390,"FAULT":7391,"\\|_":7392,"AGE":7393,"Ġcomb":7394,"sch":7395,"queue":7396,"oton":7397,"ĠAlgorithm":7398,"Ġmil":7399,"Ġgenerator":7400,"Ġstorage":7401,"OK":7402,"ament":7403,"Ġdescribes":7404,"posed":7405,"War":7406,"ĠEast":7407,"footer":7408,"Uni":7409,"oura":7410,"Any":7411,"manif":7412,"Ġjus":7413,"Ġsurvey":7414,"notations":7415,"Ġtopology":7416,"{|":7417,"lications":7418,"arities":7419,"Ġmessages":7420,"wave":7421,"Ġneutrino":7422,"Classes":7423,"Dialog":7424,"unsigned":7425,"Ġbehind":7426,".$$":7427,"ains":7428,"tensor":7429,"Ġdiffusion":7430,"Ġexplan":7431,"Ġrows":7432,"Ġtrade":7433,"001":7434,"vol":7435,"exist":7436,"Ġnearly":7437,"rey":7438,"Ġdependent":7439,"Ġ\"/":7440,"inger":7441,"Ġmixing":7442,"clip":7443,"Ġhistor":7444,"Ġhandler":7445,"}/\\":7446,"oring":7447,"ĠService":7448,"what":7449,"writ":7450,")>":7451,"$\\,":7452,"ĠBGCOLOR":7453,"Ġheat":7454,"Ġprogress":7455,"enter":7456,"ĠGeneral":7457,"Ġproviding":7458,"Ġadvantage":7459,"CHE":7460,"Ġsuggests":7461,"Ġwavelength":7462,"imits":7463,"ington":7464,"HC":7465,"regular":7466,"ĠCorollary":7467,"Ġsegment":7468,"Ġdefines":7469,"Ġfluid":7470,"Ġformulation":7471,"Ġcategories":7472,"multline":7473,"IST":7474,"Tool":7475,"ĠFoundation":7476,"Ġhierarch":7477,"ĠIm":7478,")&":7479,"Ġtren":7480,"sibility":7481,"ites":7482,"apan":7483,"Ġdeviation":7484,"&=&\\":7485,"cluster":7486,"binom":7487,"Ġexecution":7488,"Ġatoms":7489,"=\"/":7490,"apes":7491,"Ġsolar":7492,"napshot":7493,"-->":7494,"GeV":7495,"Jo":7496,"zer":7497,"measure":7498,"Ġsummary":7499,"repres":7500,"iece":7501,"ĠGreen":7502,"pgf":7503,"formu":7504,"Ġnecessarily":7505,"Ġneighborhood":7506,"Ġunless":7507,"irical":7508,"_{+":7509,"access":7510,"Ġbutton":7511,"Ġvalidation":7512,"]^":7513,"Ġprobably":7514,"cb":7515,"ifor":7516,"Ġplanet":7517,"ĠPlan":7518,"Ġpercent":7519,"ociation":7520,"JSON":7521,"Ġ\\|\\":7522,"conver":7523,"Rect":7524,",...,":7525,"gex":7526,"dropdown":7527,"argets":7528,"anks":7529,"Ġdensities":7530,"}^{+":7531,"Click":7532,"ians":7533,"Ġdegener":7534,"Ġ_{\\":7535,"ĠHTML":7536,"Ġalgebraic":7537,"Ġtypename":7538,"IE":7539,"Ð»":7540,"Ġfailure":7541,"alities":7542,"lam":7543,"material":7544,"elec":7545,"nol":7546,"ĠMax":7547,"Ġreduces":7548,"Ġmsg":7549,"Track":7550,"selected":7551,"Func":7552,"els":7553,"Ġcoming":7554,"Ġinvest":7555,"bile":7556,"Ġ\\[":7557,"$'":7558,"Ġworth":7559,"FC":7560,"ĠLaw":7561,"1995":7562,"PAR":7563,"Ġinstruction":7564,"Ġreveal":7565,"important":7566,"Ġstrings":7567,"Ġtransitions":7568,"Ġacts":7569,"fol":7570,"ulty":7571,"Ġrational":7572,"Ġpersonal":7573,"WS":7574,"ria":7575,"Ġbright":7576,"Ġvacuum":7577,"Ġslo":7578,"Ġpossibility":7579,"urally":7580,"txt":7581,"mathtt":7582,"Ġnews":7583,"Ġhomogeneous":7584,"sumer":7585,"ĠDef":7586,"ĠTHE":7587,"Ġbaseline":7588,"ensors":7589,"ĠOver":7590,"Ġanalytic":7591,"ĠGod":7592,"Ġunion":7593,"Ġmodules":7594,"tmp":7595,"_->":7596,"fony":7597,"What":7598,"Ġimproved":7599,"Fin":7600,"Matrix":7601,"ĠNOT":7602,"_(":7603,"dependency":7604,"impl":7605,"Ġchemical":7606,"NA":7607,"sti":7608,"Ġorthogonal":7609,"Ġstraightforward":7610,"Ġdemonstrate":7611,"Active":7612,"Ġdefinitions":7613,"ĠImp":7614,"Ġbatch":7615,"Ġsolving":7616,"Ġbegan":7617,"Ġthemselves":7618,"sys":7619,"hav":7620,"ĠÃ":7621,"Ġround":7622,"Ġscenarios":7623,"scroll":7624,"Ġpredict":7625,"Ġcaused":7626,"izable":7627,"Ġabstract":7628,"ITY":7629,"Ġ{{":7630,"Selector":7631,"}\"":7632,"Ġfrequencies":7633,"ĠLagrangian":7634,"Ġfunc":7635,"Ġwent":7636,"dp":7637,"sumption":7638,"TER":7639,"Ġreconstruction":7640,"rest":7641,"Ġprofiles":7642,"Te":7643,"tright":7644,"\\},":7645,"ĠCour":7646,"Ġdt":7647,"Ġstated":7648,"Send":7649,"ĠCur":7650,"sterior":7651,"ius":7652,"legal":7653,"quations":7654,"trigger":7655,"JE":7656,"Ġsound":7657,"factor":7658,"family":7659,"Ġdirections":7660,"midrule":7661,"have":7662,"Ġlooking":7663,"ivil":7664,"words":7665,"atively":7666,"law":7667,"ĠHouse":7668,"Ġincorpor":7669,"nia":7670,"edit":7671,"Ġelectrons":7672,"////////////////////////////////":7673,"ya":7674,"erson":7675,"ĠJo":7676,"Ġcorrelations":7677,"Ġmonth":7678,"entication":7679,"Ġdevices":7680,"ĠRi":7681,"}^+":7682,"Display":7683,"ressive":7684,"ĠTe":7685,"Ġbits":7686,"ĠEvent":7687,"fixed":7688,"Av":7689,"\"\"\"":7690,"}>":7691,"Ġproportional":7692,"Ġexpectation":7693,"Ġtes":7694,"track":7695,"ĠHer":7696,"pers":7697,"Ġcomputer":7698,"Ġdiscrimin":7699,"subequations":7700,"irror":7701,"Tests":7702,"hadoop":7703,"Plugin":7704,"collection":7705,"yes":7706,"ĠVal":7707,"Ġlove":7708,"Ġsubspace":7709,"stop":7710,"leqslant":7711,"Ġcountries":7712,"Ġlies":7713,"FILE":7714,"Ġuniversal":7715,"Xml":7716,"Ġinteract":7717,"ĠUser":7718,"tributed":7719,"Ġprice":7720,"olver":7721,"Ġcalls":7722,"chemes":7723,"Ġcarried":7724,"Ġmeas":7725,"Ġplayed":7726,"Ġwatch":7727,"BB":7728,"Ġintermediate":7729,"Ġmoney":7730,"ĠIP":7731,"tivistic":7732,"ĠDM":7733,"mask":7734,"ĠHol":7735,"nodes":7736,"Ani":7737,"ishing":7738,"Ġpatch":7739,"Ġglu":7740,"Ġ\\{\\":7741,"\\}.":7742,"Ġart":7743,"hl":7744,"ĠBritish":7745,"herit":7746,")_{\\":7747,"Ġhorizontal":7748,"calc":7749,"formance":7750,"varrho":7751,"Ġbands":7752,"generate":7753,"propto":7754,"Ġsignature":7755,"ĠNetwork":7756,"Sim":7757,"]=":7758,"igration":7759,"Custom":7760,"andard":7761,"bre":7762,"Ġtruth":7763,"icies":7764,"ĉĠĠĠĠĠĠĠĠĠĠĠ":7765,"events":7766,"Ġ~\\":7767,"trinsic":7768,"Ġderivatives":7769,"Ġseem":7770,"rat":7771,"imer":7772,"Ġmanagement":7773,"NotNull":7774,"conv":7775,"Ġrepresenting":7776,"ĠMat":7777,"Ġvalu":7778,"ĠAm":7779,"ĠOper":7780,"Ġbur":7781,"Ġtypeof":7782,"JS":7783,"loyment":7784,"Ġregression":7785,"\")]":7786,"Plan":7787,"Bigg":7788,"Ġannoun":7789,"->_":7790,"ji":7791,"Ġtown":7792,"nian":7793,"thread":7794,"oks":7795,"Ġadjac":7796,"Ġgiving":7797,"ĠFin":7798,"going":7799,"BP":7800,"Ġfeedback":7801,"Ma":7802,"Ġensemble":7803,"ĠEuropean":7804,"Ġserial":7805,"Ġsites":7806,"Ġtransmission":7807,"erial":7808,"ured":7809,"Member":7810,"Ġmedium":7811,"ĠInternational":7812,"Ġtransverse":7813,"Ġlimi":7814,"verb":7815,"Ġreceive":7816,".__":7817,"licated":7818,"bigcup":7819,";<":7820,"Ġcontroller":7821,"bytes":7822,"Lock":7823,"Ġfitting":7824,"Ġconduct":7825,"mock":7826,"Ġcontinuum":7827,"Init":7828,"Ġmodeling":7829,"(!":7830,"ĠChina":7831,"Msg":7832,")}$.":7833,"Ġhtml":7834,"Ġbring":7835,"Ġmonths":7836,"serve":7837,"Ġplas":7838,"Ġreferences":7839,"sen":7840,"kl":7841,"Ġlock":7842,"Ġenable":7843,"ĠWilli":7844,"ades":7845,"ĠFebruary":7846,"ĠLondon":7847,"Ġdispersion":7848,"Changed":7849,"imin":7850,"Ã³":7851,"power":7852,"pare":7853,"lyph":7854,"pole":7855,"ĠNode":7856,"home":7857,"ckets":7858,"}[!":7859,"References":7860,"ĠHow":7861,"ecution":7862,"ĠIsra":7863,"Ġautomatically":7864,"instein":7865,"Ġprefix":7866,"Ġofficial":7867,"rated":7868,"Cap":7869,"Hom":7870,"enses":7871,"}{{\\":7872,"ĠAR":7873,"Ġtravel":7874,"Ġseparation":7875,"Ġweighted":7876,"Phys":7877,"Internal":7878,"\\[\\":7879,"Ġorders":7880,"Ġtools":7881,"spects":7882,"tated":7883,"connected":7884,"kens":7885,"$/":7886,"Float":7887,"ĠPublic":7888,"Ġcred":7889,"Ġspread":7890,"typedef":7891,"DU":7892,"KEY":7893,"Ġhours":7894,"Ġcentury":7895,"Constra":7896,"Ġrestriction":7897,"ycoord":7898,"flags":7899,"\",\"":7900,"TA":7901,"180":7902,"Ġca":7903,"3333":7904,"ĠNO":7905,"lank":7906,"Ġqueue":7907,"Ñĥ":7908,"Ġirreducible":7909,"ifted":7910,"aker":7911,"trightarrow":7912,"Ġleave":7913,"____":7914,"Err":7915,"Pointer":7916,"tios":7917,"ĠGoogle":7918,"Ġdecreases":7919,"ĠĠĠĠĠĠĠĠĠĠĠĠĠĠĠĠĠĠĠĠĠĠĠĠĠĠ":7920,"lare":7921,"Ġlowest":7922,"Ġmainly":7923,"*)":7924,"Ġkm":7925,"MAX":7926,"Ġstrictly":7927,"ĠPark":7928,"trim":7929,"stal":7930,"period":7931,"Ġabsorption":7932,"Some":7933,"trib":7934,"Step":7935,"Package":7936,"Ġbir":7937,"Ġtemperatures":7938,"Transaction":7939,"blockList":7940,"Ġcodes":7941,"Ġfle":7942,"ĠKey":7943,"%%%%":7944,"Ġduration":7945,"Ġmatches":7946,"vor":7947,"1990":7948,"smallskip":7949,"Ġraw":7950,"Ġcharged":7951,"Ġtechnology":7952,"Ġinterpretation":7953,"Ġmanner":7954,"ĠDepartment":7955,"stability":7956,"Ġdiagrams":7957,"ĠOff":7958,"Ġnative":7959,"Proposition":7960,"125":7961,"Ġmorphism":7962,"Ġessentially":7963,"ĠInitial":7964,"FN":7965,"assertEquals":7966,"Items":7967,"Ġrandomly":7968,"switch":7969,"Ġpseudo":7970,"Ġepoch":7971,"cmd":7972,";/":7973,"addr":7974,"vc":7975,"density":7976,"Ġregard":7977,"Ġdecrease":7978,"newline":7979,"Ġsimulated":7980,"Ġassess":7981,"[:":7982,"anguage":7983,"Ġfinancial":7984,"Ġlearned":7985,"ĠTech":7986,"fd":7987,"Ġio":7988,"MF":7989,"ibrary":7990,"Job":7991,"sky":7992,"mitive":7993,"erc":7994,"Ġscript":7995,"sequent":7996,"ĠGR":7997,"save":7998,"nm":7999,"Iterator":8000,"taining":8001,"ĠInstitute":8002,"ocused":8003,"profile":8004,"spring":8005,"Ġtemporal":8006,"Ġschema":8007,"cape":8008,"ederal":8009,"prov":8010,"Ġmodern":8011,"Ġtrajectory":8012,"ĠDefinition":8013,"Ġhit":8014,"Activity":8015,"Ġwalk":8016,"Ġsensitivity":8017,"email":8018,"illing":8019,"WA":8020,"Ġinference":8021,"1994":8022,"haps":8023,"Ġassigned":8024,"Ġopposite":8025,"ĠEquation":8026,"ĠFalse":8027,"iterator":8028,"CN":8029,"ĠVir":8030,"\\/":8031,"indu":8032,"Ġinser":8033,"Ġlost":8034,"Ġfamilies":8035,"Ġlisted":8036,"\\}_{":8037,"ĠCollege":8038,"ĠHel":8039,"bootstrap":8040,"Ġreached":8041,"scription":8042,"Ġrig":8043,"Ġessential":8044,"cknowledge":8045,"kern":8046,")\">":8047,"rb":8048,"desc":8049,"Ġorbital":8050,"oom":8051,"Events":8052,"lab":8053,"Ġmock":8054,"ĠHilbert":8055,"Enum":8056,"Rev":8057,"Ġprograms":8058,"Adap":8059,"Ġdb":8060,"Ġvariations":8061,"Ġattra":8062,"}},\\":8063,"rench":8064,"Ġcra":8065,"Ġord":8066,"ĠĠĠĠĠĠĠĠĠĠĠĠĠĠĠĠĠĠĠĠĠĠĠĠĠĠĠĠĠ":8067,"Ġtraditional":8068,"coordin":8069,"Ġhope":8070,"webpack":8071,"defn":8072,"attle":8073,"requency":8074,"yal":8075,"Ġprevent":8076,"Flags":8077,"Ġadvers":8078,"ĠCR":8079,"lik":8080,"Ø§":8081,"Ġfn":8082,"ville":8083,"Ġarc":8084,"Ġtold":8085,"Ġrequirements":8086,"Ġinternational":8087,"'=":8088,"ros":8089,"uel":8090,"moment":8091,"para":8092,"Ġreasons":8093,"=\"../../../":8094,"Ġsynchron":8095,"++;":8096,"ĠRemark":8097,"_{-\\":8098,"resize":8099,"Ġinvalid":8100,"ĉčĊ":8101,"Ġturns":8102,"}{}":8103,"ĠCopy":8104,"|_{\\":8105,"master":8106,"Ġscience":8107,"Ġbl":8108,"igible":8109,"ditionally":8110,"Dep":8111,"cknowled":8112,"Ġfire":8113,"Ġcompatible":8114,"Ġmodify":8115,"password":8116,"bd":8117,"names":8118,"textnormal":8119,"intro":8120,"Ġattr":8121,"ye":8122,"SIZE":8123,"Ġmind":8124,"@\"":8125,"Post":8126,"Ġdistances":8127,"Ġindustry":8128,"ĠCode":8129,"tating":8130,"Ġcarry":8131,"coq":8132,"MENT":8133,"gi":8134,"^+$":8135,"stantial":8136,"ĠSecond":8137,"tribut":8138,"Ġ\\}":8139,"Ġprecise":8140,"TT":8141,"rupt":8142,"tat":8143,"separ":8144,"Ġuniqu":8145,"Ã¤":8146,"TED":8147,"Ġsil":8148,"ĠBecause":8149,"printf":8150,"bad":8151,"Ġjump":8152,"Ġcontrols":8153,"Ġtang":8154,"]:":8155,"Security":8156,"quo":8157,"FE":8158,"fined":8159,"ĠOf":8160,"ensing":8161,"Ġextracted":8162,"Ġmajority":8163,"wt":8164,"Edit":8165,"Ġ\"\"":8166,"DL":8167,"Ġ(.":8168,"SY":8169,"cross":8170,"$}}":8171,"Ġordered":8172,"aved":8173,"Two":8174,"Ġsensitive":8175,"urable":8176,"Ġdifferenti":8177,"owers":8178,"Ġshell":8179,"cpp":8180,"estern":8181,"finity":8182,"arity":8183,"})=\\":8184,"counter":8185,"lder":8186,"ĠHo":8187,"Ġconverges":8188,"ĠWil":8189,"Ġgran":8190,"Ġreading":8191,"cen":8192,"Ġbenef":8193,"Transform":8194,"tz":8195,"Elements":8196,"arse":8197,"Ġpiece":8198,"ĠJapan":8199,"vertex":8200,"ĠSimilarly":8201,"Layer":8202,"Ġrequests":8203,"valued":8204,"Ġorientation":8205,"Build":8206,"LOG":8207,"ĠBel":8208,"()));":8209,"nition":8210,"spe":8211,"argument":8212,")}$,":8213,"Ġbenchmark":8214,"Ġrestric":8215,"Ġ(_":8216,"ynamics":8217,"Ġpoor":8218,"constant":8219,"lg":8220,"Ġprop":8221,"ael":8222,"Show":8223,"flat":8224,"OD":8225,"rase":8226,"polation":8227,"props":8228,"Ġschemes":8229,"ĠĠĠĠĠĠĠĠĠĠĠĠĠĠĠĠĠĠĠĠĠĠĠĠĠĠĠĠ":8230,"ĠCouncil":8231,"ĠPal":8232,"Ġstrategies":8233,"Ġatomic":8234,"JECT":8235,"symmetric":8236,"pu":8237,"triangle":8238,"plugins":8239,"Ġcomplement":8240,"bas":8241,"pacity":8242,"fg":8243,"Diag":8244,"PORT":8245,"Ġpy":8246,"^*_":8247,"vdots":8248,"Ġadopted":8249,"pattern":8250,"Ġdomains":8251,"Named":8252,"pay":8253,"Ġconnections":8254,"reek":8255,"HR":8256,"contains":8257,"Ġdir":8258,"Ġeigenvalue":8259,"lev":8260,"Ġago":8261,"Ġmarked":8262,"iso":8263,"Ġcard":8264,"Ġparty":8265,"Ġmaterials":8266,"Ġattempt":8267,"FIG":8268,"Ġchanging":8269,"DT":8270,"okie":8271,"Ġalgebras":8272,"UID":8273,"Ġreferred":8274,"250":8275,"Ġconclusion":8276,"Desc":8277,"Ġcareer":8278,"AE":8279,"Ġvarying":8280,"ester":8281,"world":8282,"omorphisms":8283,"UP":8284,"Ġsubsection":8285,"sort":8286,"Gu":8287,"Rad":8288,"ĠGovern":8289,"transition":8290,"yr":8291,"}{*}{":8292,"Ġtal":8293,"ĠAL":8294,"shadow":8295,"Ġlikelihood":8296,"SF":8297,"gradient":8298,"Ġsimilarly":8299,"ĠDefault":8300,"arded":8301,"Ġcollect":8302,"Ġhorizon":8303,"Ġturb":8304,"Ġprincipal":8305,"\\|^":8306,"Ġatmos":8307,"determin":8308,"|_":8309,"Ġintegrated":8310,"complex":8311,"Ġwind":8312,"Logger":8313,"Close":8314,"Ġparen":8315,"Ġoptional":8316,"Pool":8317,"Ġmolecular":8318,"brief":8319,"Ġtransformations":8320,"Ġprobabilities":8321,"Ġsat":8322,"lef":8323,"cribe":8324,"Part":8325,"Ġrestricted":8326,"ĠTODO":8327,"bx":8328,"ĠUnder":8329,"children":8330,"symbol":8331,"Ġdele":8332,")));":8333,"Ġstarts":8334,"Ġcomments":8335,"Ġcandidates":8336,"raise":8337,",.":8338,"\\-":8339,"dete":8340,"tability":8341,"BM":8342,"Ġsystematic":8343,"Ġconsole":8344,"ĠDem":8345,"Ġimprovement":8346,"ĠEqs":8347,"Keys":8348,"lm":8349,"Rece":8350,"Ġresid":8351,"anted":8352,"Recall":8353,"imit":8354,"even":8355,"Ġsaf":8356,"Conf":8357,"Cluster":8358,"tigated":8359,"arr":8360,"Ġmut":8361,"ida":8362,"_{[":8363,"Ġworked":8364,"(){":8365,"ĠVAL":8366,"look":8367,"Ġcompleted":8368,"aws":8369,"Ġsurfaces":8370,".*":8371,"'$.":8372,"imed":8373,"Ġaccretion":8374,"Ġindicated":8375,"poses":8376,"Attributes":8377,"Ġrepeated":8378,"Ġsimplicity":8379,"Ġinstal":8380,"cussion":8381,"orary":8382,"ĠDen":8383,"rf":8384,"weak":8385,"Ġexplore":8386,"Ġconfidence":8387,"Ġphotons":8388,"components":8389,"orge":8390,"Ġimply":8391,"Ġimplements":8392,"Register":8393,"mming":8394,"Other":8395,"Runtime":8396,"picker":8397,"Ġlocations":8398,"|=":8399,"Ġepis":8400,"ike":8401,"Ġintegers":8402,"ctic":8403,"Ġignore":8404,"Ġpull":8405,"security":8406,"safe":8407,"Ġasser":8408,"uclide":8409,"arm":8410,"tick":8411,"Ġjavax":8412,"Ġconditional":8413,"Ġaggreg":8414,"quark":8415,"ĠBoth":8416,"tificate":8417,"ifornia":8418,";\\;":8419,"Fail":8420,"Second":8421,"{.":8422,"Ġsex":8423,"unic":8424,"ĠAir":8425,"Ġanything":8426,"Ġsave":8427,"Generic":8428,"uclidean":8429,"Ġhon":8430,"Ġanalyze":8431,"prefix":8432,"ocation":8433,"Rightarrow":8434,"Ġdesc":8435,"throws":8436,"Windows":8437,"oped":8438,"Ġcub":8439,"Panel":8440,"utf":8441,"fully":8442,"series":8443,"mutable":8444,"Ġinvolving":8445,"Ġratios":8446,"Ljava":8447,"iki":8448,"ĠText":8449,"Ġunitary":8450,"correspon":8451,"ette":8452,"FL":8453,"Bit":8454,"sat":8455,"notin":8456,"Full":8457,"Ġiterations":8458,"VERSION":8459,"Ġgeodes":8460,"Ġalt":8461,"Ġspectro":8462,"ultra":8463,"Ġchoices":8464,"Ġcompanies":8465,"deep":8466,"urs":8467,"Ġtend":8468,"metadata":8469,"Ġchiral":8470,"Ġapparent":8471,"ĠOption":8472,"XML":8473,"ARY":8474,"Ġbuilder":8475,"iteral":8476,"Ġtab":8477,"Ġeventually":8478,"fail":8479,"overset":8480,"Ġisomorphic":8481,"ĠAN":8482,"Feature":8483,"Ġdominant":8484,"stood":8485,"tite":8486,"ĠUK":8487,"hard":8488,"\\!\\!\\!":8489,"CHECK":8490,"ander":8491,"IA":8492,"\">&":8493,"Ġinfra":8494,"configuration":8495,"keyword":8496,"Loader":8497,"Ġfriend":8498,"Ġmathema":8499,"Ġnight":8500,"Proxy":8501,"stats":8502,"Ġsometimes":8503,"ĠTask":8504,"cyc":8505,"Ġdivis":8506,"Namespace":8507,"allest":8508,"Protocol":8509,"Ġresonance":8510,"ĠArch":8511,"ĠNumber":8512,"Ġenabled":8513,"Ġgradu":8514,"Ġ([":8515,"tight":8516,"Ġfunctor":8517,"Ġlogarith":8518,"lective":8519,"Ġsimilarity":8520,"Profile":8521,"ief":8522,"Ġgetting":8523,"Expr":8524,"gal":8525,"Ġemployed":8526,"rency":8527,"Ġsurpr":8528,"Global":8529,"Ġsuggested":8530,"controller":8531,"tools":8532,"Grid":8533,"Ġsubstantial":8534,"citealt":8535,"Ġaccomp":8536,"1993":8537,"Ġcosmological":8538,"ensus":8539,"(__":8540,"gray":8541,"install":8542,"=\"\"":8543,"hidden":8544,"Ġfermion":8545,"Ġmaster":8546,"assertEqual":8547,"Mu":8548,"Ġreq":8549,"theme":8550,"101":8551,"Ġgeneralization":8552,"tel":8553,"Ġsphere":8554,"ystems":8555,"fr":8556,"Ġwrong":8557,"Ġleaders":8558,"ĠSm":8559,"unt":8560,"Ġreasonable":8561,"Ġvor":8562,"poly":8563,"()).":8564,"Ġliving":8565,"Ġplugin":8566,"Ġsolved":8567,"Ġatom":8568,"Ġimplicit":8569,"Volume":8570,"mathbbm":8571,"Ġwallet":8572,"ullable":8573,"Ġhot":8574,"titude":8575,"seq":8576,"wp":8577,"Ġroom":8578,"Scal":8579,"help":8580,"ĠUV":8581,"Ġallowing":8582,"Ġframes":8583,"Ġtrees":8584,"idx":8585,"Ġscene":8586,"Ġcontradiction":8587,"Ġstored":8588,"Ġcreating":8589,"Ġsymbols":8590,"Ġcoverage":8591,"lug":8592,"surface":8593,"Ġcouplings":8594,"ĠCre":8595,"\\,{\\":8596,"Ġinduction":8597,"Ġresponsible":8598,"Ġtouch":8599,"setup":8600,"ena":8601,"ann":8602,"trl":8603,"Ġconformal":8604,"ĠHealth":8605,"metric":8606,"tients":8607,"Ġproton":8608,"Nodes":8609,"Ġmostly":8610,"Ġposterior":8611,"Ġpixels":8612,"Ġeconomic":8613,"Ġorbits":8614,"Ġamplitudes":8615,"{%":8616,"ĠImage":8617,"augh":8618,"Ġestimator":8619,"ĠStr":8620,"Ġarti":8621,"Ġtopic":8622,"titions":8623,"Ġlie":8624,"lands":8625,"Single":8626,"Ġpractical":8627,"Ġtrying":8628,"nolimits":8629,"Comment":8630,"Ġkinetic":8631,"Ġcamera":8632,"anc":8633,"}~\\":8634,"Ġseven":8635,"ĠGets":8636,"ĠAuth":8637,"ĠUpdate":8638,"Ġinclusion":8639,"Ġplatform":8640,"Ġicon":8641,"Ġsupports":8642,"ips":8643,"Ġdemand":8644,"unique":8645,"lood":8646,"Ġdefining":8647,"Directory":8648,"ĠDavid":8649,"Ġcrucial":8650,"Ġrecords":8651,"below":8652,"Ġjoin":8653,"ilo":8654,"Ġfaster":8655,"Furthermore":8656,"EV":8657,"}})$":8658,"tty":8659,"Ġversions":8660,"learning":8661,"Ġtransparent":8662,"Ġdirected":8663,"Ġindividuals":8664,"Framework":8665,"illed":8666,"ĠNor":8667,"ÃŃ":8668,"Ġhappens":8669,"ango":8670,"Ġcovariance":8671,"Ġcharacteristics":8672,"Ġintervals":8673,"ffff":8674,"ashington":8675,"eds":8676,"Ġapplicable":8677,"Ġmilitary":8678,"laration":8679,"CG":8680,"\\,,":8681,"changed":8682,"Ġbreaking":8683,"Am":8684,"useum":8685,"ĠChurch":8686,"Ġneutron":8687,"ĠFermi":8688,"Ġperforming":8689,"ultural":8690,"Ġcampaign":8691,"ĠBlack":8692,"Ġrenormal":8693,"entials":8694,"Ġentanglement":8695,"uses":8696,"1992":8697,"ĠĠĠĠĠĠĠĠĠĠĠĠĠĠĠĠĠĠĠĠĠĠĠĠĠĠĠĠĠĠĠĠĠĠĠĠĠĠĠĠĠĠĠ":8698,"Ġmoments":8699,"Ġinvestigated":8700,"Ġcollabor":8701,"Ġconsisting":8702,"Ġreflection":8703,"ĠSen":8704,"Ġ{'":8705,"mix":8706,"here":8707,"ĠBOO":8708,"Ġseconds":8709,"hips":8710,"Ġfits":8711,"ĠMr":8712,"triang":8713,"ĠRepublic":8714,".}\\":8715,".'":8716,"ÐµÐ":8717,"pb":8718,"ĠCourt":8719,"ias":8720,"Ġbelongs":8721,"alloc":8722,"OF":8723,"Ġĉ":8724,"Ġsoon":8725,"}}=\\":8726,"Ġempirical":8727,"NULL":8728,"manager":8729,"Ho":8730,"Depend":8731,"TRY":8732,"}<":8733,"Ġsuccessfully":8734,"çļ":8735,"inos":8736,"Ġplaced":8737,"dashed":8738,"specific":8739,"lers":8740,"dialog":8741,"Ġtrajectories":8742,"SV":8743,"vention":8744,"Ġregarding":8745,"Lin":8746,"lr":8747,"substack":8748,"rote":8749,"wood":8750,"nil":8751,"Ġexplor":8752,"Ġserved":8753,"çļĦ":8754,"Parse":8755,"inear":8756,"generated":8757,"trace":8758,"Ġstationary":8759,"Ġaug":8760,"Ġdirector":8761,"ĠTH":8762,"Ġpossibly":8763,"jk":8764,"Ġnarrow":8765,"Ġoutputs":8766,"Ġeffectively":8767,"Proto":8768,"handler":8769,"Ġclustering":8770,"Ġtechnical":8771,"tb":8772,"Ġdise":8773,"Ġscan":8774,"ĠSur":8775,"Pop":8776,"Ġcreation":8777,"ROM":8778,"Ġsemantic":8779,"Ġrelig":8780,"Ġelection":8781,"ĠSa":8782,"iling":8783,"Ġconjecture":8784,"ĠWindow":8785,"Ġmoved":8786,"scriptscript":8787,"Ġaffected":8788,"attributes":8789,"undefined":8790,"screen":8791,"ĠSN":8792,"Clear":8793,"arest":8794,"Ġng":8795,"Aut":8796,"Ġhighlight":8797,"uages":8798,"=-\\":8799,"Prefix":8800,"Ñı":8801,"Ġsparse":8802,"Ġpromo":8803,"illis":8804,"bolic":8805,"scriptscriptstyle":8806,"Ġsy":8807,"~~~~~~~~":8808,"Ġ&$":8809,"cheduler":8810,"Math":8811,")|\\":8812,"andra":8813,"bounded":8814,"ĠMor":8815,"Ġeditor":8816,"Ġlabeled":8817,"ĠQCD":8818,"testing":8819,"Ġchallenge":8820,"boost":8821,"analy":8822,"Editor":8823,"Ġ$\\|":8824,")=(":8825,"Ġcosts":8826,"Ġdemonstrated":8827,"Ġabsence":8828,"Ġdistinguish":8829,"Ġborn":8830,"')$":8831,"Star":8832,"Summary":8833,"'])":8834,"Ġ%}":8835,"Character":8836,"leep":8837,"Ġpurposes":8838,"Ġlegal":8839,"AX":8840,"ĠMulti":8841,"Ġillustrated":8842,"wer":8843,"eg":8844,"Ġaffine":8845,"ĠSyn":8846,"quid":8847,"hyper":8848,"Ġ[],":8849,"IX":8850,"Ġhappen":8851,"coun":8852,"ĠRegister":8853,"also":8854,"Bigl":8855,"plus":8856,"Ms":8857,"asible":8858,"Ġconjug":8859,"gacy":8860,"Ġbalance":8861,"ĉĉĉĉĉĊ":8862,"Ġideas":8863,"atell":8864,"Ġenhance":8865,"hu":8866,"hed":8867,"volume":8868,"Ġfib":8869,"ĠAGN":8870,"ĠAND":8871,"!<":8872,"phy":8873,"Ġreaction":8874,"ĠHall":8875,"BUG":8876,"ToString":8877,"ĠArm":8878,"Ġspherical":8879,"hd":8880,"Memory":8881,"bg":8882,"Ġconflic":8883,"Ġdu":8884,"600":8885,"ĠUN":8886,"ĠPoisson":8887,"SG":8888,"Ġson":8889,"}))":8890,"Ġplus":8891,"ara":8892,"Ġimm":8893,"Ġdebug":8894,"rab":8895,"esian":8896,"Ġdecays":8897,"subfloat":8898,"rame":8899,"Wrapper":8900,"Ġpanels":8901,"Ġappend":8902,"Ġquar":8903,"Media":8904,"Ġneutral":8905,"Ġprofession":8906,"character":8907,"ĠConfig":8908,"ĠSim":8909,"&$":8910,"ĠLy":8911,"Ġstudent":8912,"ApJ":8913,"jet":8914,"ĠInc":8915,"Statement":8916,"score":8917,"kov":8918,"Ġprom":8919,"Ġembedded":8920,"SER":8921,"ocker":8922,"lfloor":8923,"Ġsubsequent":8924,"ĠCall":8925,"Ġcriteria":8926,"decomp":8927,"Ġcapital":8928,"Ġnaturally":8929,"ĠCalifornia":8930,"Ġtrip":8931,"Ġcatalog":8932,"Ġcast":8933,"ĠTri":8934,"ĠVersion":8935,"Ġtreated":8936,"Ġpropagation":8937,"href":8938,"approxi":8939,"ĠRead":8940,"grade":8941,"uniform":8942,"Pod":8943,"problem":8944,"Props":8945,"Shape":8946,"Ġcollected":8947,"dynamic":8948,"Ġversus":8949,"ders":8950,"Although":8951,"Bbb":8952,"STAT":8953,"Ġbtn":8954,"entific":8955,"Ġsurroun":8956,"ued":8957,"parser":8958,"reset":8959,"tized":8960,"jquery":8961,"ICE":8962,"Domain":8963,",~":8964,"sig":8965,"zone":8966,"ĠTwo":8967,"UTF":8968,"spaces":8969,"neg":8970,"rfloor":8971,"Success":8972,"'}\\":8973,"inction":8974,"Gen":8975,"pf":8976,"vin":8977,"Ġuniverse":8978,"Ġapplies":8979,"Ġdominated":8980,"ĠCH":8981,"Ġsides":8982,"usted":8983,"iet":8984,"Socket":8985,"ĠNews":8986,"Ġmetadata":8987,"SQL":8988,"Ġcomparing":8989,"uby":8990,"'$,":8991,"Ġgate":8992,"views":8993,"Ġgenerators":8994,"UV":8995,"ĠDirac":8996,"ĠSk":8997,"prev":8998,"Scroll":8999,"cepts":9000,"Ġaspects":9001,"dients":9002,"Sample":9003,"Double":9004,"NOT":9005,"ĠOnly":9006,"Ġplotted":9007,"Account":9008,"above":9009,"Ġmonitor":9010,"Ġap":9011,"Java":9012,"Ġreads":9013,"Upsilon":9014,"shell":9015,"ĠRich":9016,"Ġcontribute":9017,"Ġprojects":9018,"forming":9019,"Bigr":9020,"Ġsimultaneously":9021,"enable":9022,"Ġjud":9023,"ĠAny":9024,"elastic":9025,"High":9026,"Ġ[[":9027,"ceptions":9028,"hide":9029,"ĠIndia":9030,"Ġdecreasing":9031,"pmb":9032,"Ġasked":9033,"Ġwidely":9034,"arial":9035,".[":9036,"Ġproxy":9037,"Ġfood":9038,"Print":9039,"Ġpolicies":9040,"np":9041,"tabs":9042,"Ġproposition":9043,"Fi":9044,"Ġmesh":9045,"ĠCanada":9046,"aven":9047,"Ġattacks":9048,"Ġfol":9049,"lined":9050,"Cs":9051,"iton":9052,"ĠHand":9053,"\"/":9054,"SN":9055,"ĠSy":9056,"IB":9057,"iders":9058,"Ġthin":9059,"Ġwebsite":9060,"Ġsubsets":9061,"ima":9062,"errors":9063,"Ġimagin":9064,"Ġconstructor":9065,"Ġmacro":9066,"Ġrg":9067,"Ġresolve":9068,"Ġ],":9069,"}_{{\\":9070,"Adapter":9071,"Ġrespective":9072,"upper":9073,"indexOf":9074,"Ġ{{\\":9075,"CB":9076,"slice":9077,"hook":9078,"ĠPhys":9079,"ĠTw":9080,"ById":9081,"identifier":9082,"III":9083,"Ġunderstood":9084,"Files":9085,"Ġeverything":9086,"direction":9087,"Ġparametr":9088,"Found":9089,"distribution":9090,"experim":9091,"ONE":9092,"ĠStar":9093,"echo":9094,"ipped":9095,"Ġvic":9096,"Ġturbul":9097,"Ġseparated":9098,"Vertex":9099,"Ġacces":9100,"Ġsentence":9101,"Ġrich":9102,"Ġparser":9103,"ĠVis":9104,"Ġmedical":9105,"Ġgave":9106,"ĠLore":9107,"Ġsmallest":9108,"Ġcharacterized":9109,"protocol":9110,"atural":9111,"Ġbary":9112,"','":9113,"ĠAssume":9114,"care":9115,"ĠTran":9116,"ĠTR":9117,"factory":9118,"Ax":9119,"compare":9120,"enn":9121,"Ġgrant":9122,"ĠjQuery":9123,"OUT":9124,"horizontal":9125,"Py":9126,"Ġquickly":9127,"ptions":9128,"cessed":9129,"ĠField":9130,"Ġproduces":9131,"retch":9132,"Selection":9133,"Assume":9134,"Ġtim":9135,"tably":9136,"Ġnormalization":9137,")}_{\\":9138,"ĠRieman":9139,"READ":9140,"ccc":9141,"audi":9142,"theory":9143,"ulo":9144,"ĠBoolean":9145,"}\\;":9146,"Remove":9147,"Ġcourt":9148,"Ġsky":9149,"Ġequals":9150,"Ġconvert":9151,"HER":9152,"ĠCase":9153,"quote":9154,"Ġsafe":9155,"Attr":9156,"Ġbrowser":9157,"liance":9158,"ĠEarth":9159,"ĠProject":9160,"}&\\":9161,"yy":9162,"ĠCNN":9163,"ï¼":9164,"Ġproto":9165,"Space":9166,"Ġctx":9167,"Ġtalk":9168,"aver":9169,"eners":9170,"Collections":9171,"Ġdisjoint":9172,"nings":9173,"Ġwriter":9174,"rought":9175,"Ġasync":9176,"ĠEven":9177,"PATH":9178,"NV":9179,"Ġfather":9180,"Ġcomparable":9181,"Mapping":9182,"mathds":9183,"physical":9184,"Ġanisot":9185,"Ġslope":9186,"git":9187,"ĠLong":9188,"omas":9189,"$_{\\":9190,"Under":9191,"Ġfavor":9192,"Ġacting":9193,"Ġrecover":9194,"Ġpapers":9195,"Ġisn":9196,"ĠTechn":9197,"drop":9198,"Ġwish":9199,"Ġperturbations":9200,"Ġtriang":9201,"ĠEl":9202,"Ġangles":9203,"iner":9204,"ston":9205,"Comparison":9206,"will":9207,"Ġfem":9208,"Ġwhenever":9209,"equence":9210,"Identifier":9211,")}=":9212,"Ġinitially":9213,".},":9214,"wargs":9215,"Ġweakly":9216,"Ġoffice":9217,"tests":9218,"Ġextent":9219,"ĠCap":9220,"vskip":9221,"Ġalone":9222,"elt":9223,"Ġpages":9224,"Ġ\",":9225,"======":9226,"detail":9227,"zen":9228,"dens":9229,"Ġprev":9230,"Ġsupercon":9231,"fc":9232,"Ġboundaries":9233,"inity":9234,"amond":9235,"ĠLandroid":9236,"iddle":9237,"Ġlives":9238,"Ġscores":9239,"oses":9240,"ĠJava":9241,"Ġvanishes":9242,"ocities":9243,"Duration":9244,"ective":9245,"sharp":9246,"Ġmedian":9247,"uv":9248,"Ġcriterion":9249,"placement":9250,"Ġrequirement":9251,"Ġflags":9252,"Ġinvolves":9253,"Ġtraffic":9254,"Ġ$[\\":9255,"Trace":9256,"Ġspecifically":9257,"serial":9258,"ITE":9259,"GP":9260,"repe":9261,"Ġroughly":9262,"ĠPost":9263,"svg":9264,"ĠJames":9265,"ifdef":9266,"Ġexc":9267,"Product":9268,"Browser":9269,"reful":9270,"rad":9271,"Ġindicating":9272,"})_{":9273,"Ġzone":9274,"Ġsaw":9275,"rations":9276,"WR":9277,"Ġemit":9278,"just":9279,"Ġlogic":9280,"clusions":9281,"Constants":9282,"Ġharmonic":9283,"800":9284,"Ġexplanation":9285,"Ġstabil":9286,"ĠReact":9287,"velopment":9288,"dal":9289,"operation":9290,"Ġidentification":9291,"Ġsplitting":9292,"Failed":9293,"Ġadjacent":9294,"spa":9295,"ja":9296,"ĠWashington":9297,"ĠIOException":9298,"Ġopacity":9299,"ĠMost":9300,"done":9301,"sn":9302,">::":9303,"ĠSE":9304,"anchor":9305,"Ġlaser":9306,"elling":9307,"TEXT":9308,"avity":9309,"essor":9310,"embed":9311,"################":9312,"Simple":9313,"Ġ}{\\":9314,"NT":9315,"Ġstronger":9316,"LC":9317,"Ġexceed":9318,"tail":9319,"rypt":9320,"*\\":9321,"=$":9322,"Ġmovement":9323,"}.\\":9324,"ĠSuper":9325,"Ġextensions":9326,"Cre":9327,"secu":9328,"between":9329,"getName":9330,"Ġqueries":9331,"Ġxmlns":9332,"Ġroute":9333,"'m":9334,"Ġtoward":9335,"ention":9336,"tags":9337,"hal":9338,"Ġwrote":9339,"Ġnegle":9340,"Route":9341,"homology":9342,"ilt":9343,"independent":9344,"Ġnonzero":9345,"Cho":9346,"Ġcollisions":9347,"protected":9348,"Ġextremely":9349,"Ġspeech":9350,"ĠHash":9351,"Ġspacetime":9352,"Ġprojective":9353,"&-":9354,"USE":9355,"!\\!\\!\\!\\!":9356,"Ġdie":9357,"Ġplays":9358,"Ġexit":9359,"wrapper":9360,"Ġplots":9361,"Ġ).":9362,"Ġpresents":9363,"Ġconversion":9364,"'ve":9365,"esting":9366,"AF":9367,"Ġemail":9368,"Ġresidual":9369,"external":9370,">$":9371,"fx":9372,"Ġwanted":9373,"Bound":9374,"sym":9375,"Len":9376,"Ġmanager":9377,"------------":9378,"Ġminutes":9379,"filename":9380,"ita":9381,"nostic":9382,"Ġcorrectly":9383,"Ġcone":9384,"OB":9385,"Another":9386,"domin":9387,"'));":9388,"Ġanni":9389,"ĠAg":9390,"ĠInteger":9391,"Ġstatements":9392,"exec":9393,"Ġdiscussions":9394,"phone":9395,"Ġ$$\\":9396,"1980":9397,"iles":9398,"_{{":9399,"pool":9400,"ĠÎ":9401,"Ġrecorded":9402,"Ġsecondary":9403,".(\\":9404,"ĠCP":9405,"Ġtriangle":9406,"Ġroots":9407,"Ġenjo":9408,"Ġschedule":9409,"Scale":9410,"editor":9411,"Ġdisorder":9412,"Ġready":9413,"Ġawait":9414,"ĠFrench":9415,"details":9416,"ĠMil":9417,"ĠNext":9418,"URI":9419,"Ġalpha":9420,"Ġadopt":9421,"reh":9422,"renew":9423,"Headers":9424,"Ġdivided":9425,"ĠTV":9426,"Ġdescribing":9427,"ĠMarkov":9428,"given":9429,"analysis":9430,"ĠView":9431,"ĠSI":9432,"]^{":9433,"psch":9434,"Experim":9435,"liography":9436,"Ġflows":9437,"throw":9438,"ntz":9439,"Ġclock":9440,"engine":9441,"variable":9442,"Ġsegmentation":9443,"batch":9444,"libr":9445,"incre":9446,"ĠMer":9447,"1991":9448,"enabled":9449,"Ġorganization":9450,"Ġlaws":9451,"{[":9452,"Ġboost":9453,"inement":9454,"Ġiniti":9455,"Ġusage":9456,"Ġcontrolled":9457,"\\|_{\\":9458,"gate":9459,"Ġelectronic":9460,"Ġdeduce":9461,"Ġsuffices":9462,"ĠConn":9463,"RT":9464,"uber":9465,")|^":9466,"=(\\":9467,"Ġserve":9468,"Ġpulse":9469,"TABLE":9470,"HD":9471,"Ġinstitu":9472,"IND":9473,"}}}{":9474,"Ġcircuit":9475,"Ġfinitely":9476,"Ġtested":9477,"Ã¼":9478,"headers":9479,"Ġobservable":9480,"aterial":9481,"grad":9482,"ĠRad":9483,"pschitz":9484,"Ġplasma":9485,"According":9486,"Ġmovie":9487,"Variable":9488,"ĠIsrael":9489,"Pair":9490,"ALSE":9491,"ctors":9492,"standing":9493,"eval":9494,"GG":9495,"Ġmus":9496,"Ġinstant":9497,"coup":9498,"Ġlatent":9499,"ĠBro":9500,"Ġ'<":9501,"Ġeight":9502,"ĠMag":9503,"browser":9504,"Ġactivities":9505,"Ġlinearly":9506,"Ġtmp":9507,"ossible":9508,"Mer":9509,"TIME":9510,"Newton":9511,"Ġtail":9512,"ĠJew":9513,"gligible":9514,"Ġperspective":9515,"Ġrepresentative":9516,"ĉĉĉĉĉĉĉĉĉ":9517,"Ġremote":9518,"cu":9519,"dk":9520,"aylor":9521,"Sa":9522,"aba":9523,"cli":9524,"Tri":9525,"basic":9526,"Ġintrinsic":9527,"ĠWrite":9528,"Gr":9529,"Ġgenerates":9530,"Ġadjust":9531,"Ġinterior":9532,"'}$":9533,"Ġcomplicated":9534,"$&$":9535,"potential":9536,"ĠProgram":9537,"Ġtargets":9538,"odd":9539,"Ġfocused":9540,"WN":9541,"Ġphoto":9542,"Ġ>>":9543,"Ġclosely":9544,"Ġcareful":9545,"Ġcouple":9546,"Ġdrawn":9547,"Enumer":9548,"ĠDon":9549,"Ġdead":9550,"dz":9551,"Ġnorth":9552,"Ġpenal":9553,"Ġdriver":9554,"Ġdriving":9555,"Ġruntime":9556,"Ġthreat":9557,"mpt":9558,"Ġoverlap":9559,"atal":9560,"groups":9561,"Ġlept":9562,"mazon":9563,"herence":9564,"Ġds":9565,"ĠTrump":9566,")!":9567,"pull":9568,"Ġelimin":9569,"Ġanalogous":9570,"extend":9571,"assets":9572,"standard":9573,"neu":9574,"Ġfo":9575,"integra":9576,"pix":9577,"How":9578,"vable":9579,"Ġviews":9580,"Ġfails":9581,"Ġeffort":9582,"Ġchecked":9583,"remo":9584,"ĠWhite":9585,"}}}$":9586,"Times":9587,"supervised":9588,"Agent":9589,"Ġill":9590,"Ġsurv":9591,"Ġhimself":9592,"Sync":9593,"centage":9594,"Generator":9595,"PER":9596,"onom":9597,"RIPT":9598,"Ġexponent":9599,"Ġdestroy":9600,"Ġconcentration":9601,"Ġupdates":9602,"PG":9603,"ĠIE":9604,"Ġcommunic":9605,"Ġbre":9606,"Ġsusp":9607,"storage":9608,"Ġreports":9609,"Ġincident":9610,"Ġbenefit":9611,"three":9612,"Ġcircum":9613,"Ġbooks":9614,"scape":9615,"Ġguide":9616,"atomic":9617,"forma":9618,"opes":9619,"llig":9620,"Ġplaces":9621,"Ġgenerality":9622,"Details":9623,"Ġ}$":9624,"ĠNav":9625,"record":9626,"Ġquali":9627,"gon":9628,"Ġorganized":9629,"\\}}":9630,"account":9631,"ĠIII":9632,"Ġpresident":9633,"INS":9634,"ftware":9635,"}_{(":9636,"})-":9637,"NC":9638,"Ġsigned":9639,"Ġsizeof":9640,"Ġposs":9641,"Ġanalytical":9642,"Ġconstitu":9643,"jections":9644,"Interval":9645,"@{}":9646,"Ġok":9647,"Ġindependently":9648,"Ġtight":9649,"yer":9650,"cycle":9651,"ĠPath":9652,"Ġpartially":9653,"Fix":9654,"UD":9655,"Ġsep":9656,"}=(":9657,"Ġminor":9658,"udy":9659,"ĠEuclidean":9660,"FUN":9661,"Ġgrowing":9662,"Ġparam":9663,"Ġpublish":9664,"ĠBr":9665,"Americ":9666,"ilation":9667,"Ġ$<":9668,"parts":9669,"udget":9670,"Ġ^{\\":9671,"Ġpassing":9672,"fast":9673,"Ġchallenges":9674,"ĠMC":9675,"Ġmechanisms":9676,"ĠBit":9677,"inese":9678,"Ġintroduction":9679,"Ġproperly":9680,"Ġpromis":9681,"ctivity":9682,"Ġfiber":9683,"SW":9684,"esides":9685,"protect":9686,"inux":9687,"'',":9688,"awa":9689,"ĠHttp":9690,"HTTP":9691,"ĠClear":9692,"Ġboard":9693,"Ġoutper":9694,"Ġsecret":9695,"Background":9696,"jango":9697,"logger":9698,"SK":9699,"Ġsharp":9700,"Ġaux":9701,"ACT":9702,"ĠASSERT":9703,"Similarly":9704,"Ġcontinued":9705,"fold":9706,"Ġquotient":9707,"ĠEngland":9708,"BH":9709,"Ġidx":9710,"})(":9711,"Ġaudio":9712,"*{-":9713,"eces":9714,"ĠMessage":9715,"wall":9716,"))$.":9717,"Ġfilms":9718,"ĠIl":9719,"Dest":9720,"sip":9721,"nl":9722,"Ðº":9723,"Ġtranslate":9724,"ogen":9725,"Ġheart":9726,"}_+":9727,"~(":9728,"spital":9729,"igu":9730,"spirit":9731,"Ġinvestigation":9732,",(":9733,"Ġcomposed":9734,"Ġpowerful":9735,"ashion":9736,"ampling":9737,"ĠCollection":9738,"orrect":9739,"smooth":9740,"Ġelliptic":9741,"cher":9742,"Ġfourth":9743,"loader":9744,"Flow":9745,"$--":9746,"loaded":9747,"umula":9748,"Ġclassifier":9749,"Ġcolors":9750,"Ġencoura":9751,"}\\}$":9752,"Region":9753,"Ġpowers":9754,"Ġcircular":9755,"History":9756,"Ġ\"<":9757,"Ġbinding":9758,"ĠVari":9759,"Ġprobe":9760,"PY":9761,"olor":9762,"NavBarCell":9763,").}":9764,"ĠSi":9765,"Ġexhibit":9766,"Ps":9767,"ENTRY":9768,"Ġexcited":9769,"servable":9770,"=\"\">":9771,"Ġcovered":9772,"Ġlistener":9773,"Ġfilters":9774,"Ġheaders":9775,"Syntax":9776,"Ġchart":9777,"Ġordering":9778,"Ġinduces":9779,"Ġbroken":9780,"feature":9781,"PM":9782,"Ġpatients":9783,"Total":9784,"shall":9785,"commit":9786,"ĠAssociation":9787,"ald":9788,"Ġcoherent":9789,"Ġvelocities":9790,":[":9791,"Ġvalidate":9792,"Ġends":9793,"mately":9794,"ago":9795,"junit":9796,"},{\\":9797,"renewcommand":9798,"Ġletter":9799,"Ġexecute":9800,"Ġdied":9801,"iliary":9802,"ĠPress":9803,"tur":9804,"Ġranges":9805,"BOO":9806,"Ġdespite":9807,"collapse":9808,"ĠAT":9809,"(.":9810,"ĠProcess":9811,"Ġinflation":9812,"icity":9813,"istent":9814,"optional":9815,"ĠIndex":9816,"PROC":9817,"EventListener":9818,"vironments":9819,"Ġinfinity":9820,"ĠDO":9821,"CV":9822,"article":9823,"ratio":9824,"Ġcorrespondence":9825,"utation":9826,"ĠSum":9827,"flag":9828,"rev":9829,"Ġrelaxation":9830,"Condition":9831,"Ġrecognition":9832,"Registry":9833,"sey":9834,"ĠMac":9835,"displaymath":9836,"ufact":9837,"Ġwire":9838,"[]{":9839,"Ġefforts":9840,"Ġconstrained":9841,"Ġpotentially":9842,"Ġtot":9843,"Eff":9844,"Ġreward":9845,"|-":9846,"ben":9847,"tc":9848,"Ġforeach":9849,"ĠTop":9850,"isy":9851,"ĠUnion":9852,"LECT":9853,"invalid":9854,"ĠLab":9855,"dc":9856,"ndef":9857,"trum":9858,"ica":9859,"Ġcycles":9860,"')\\":9861,"onym":9862,"Ġ/*!<":9863,"licate":9864,"Ġopts":9865,"Ġplaying":9866,"Ġchallenging":9867,"Ġleaves":9868,"Ġconsistency":9869,"Ġroad":9870,"Ġoutcome":9871,"provider":9872,"ĠRecall":9873,"Engine":9874,"Ġpassword":9875,"(|":9876,"REG":9877,"fly":9878,"rift":9879,"ĠLocal":9880,"minal":9881,"Ġcovering":9882,"à¤":9883,"Extra":9884,"ĠCommit":9885,"OPT":9886,"=\"@":9887,"written":9888,"Normal":9889,"combin":9890,"Ġarise":9891,"Tx":9892,"clean":9893,"oulo":9894,"services":9895,"Ġassignment":9896,"ĠDuring":9897,"!\\!\\!\\!\\!\\!\\!\\!":9898,"Ġmother":9899,"Ġprivacy":9900,"ifications":9901,"ĠSto":9902,"ĠFurther":9903,"Ġspent":9904,"Ġadmits":9905,"tiveness":9906,"Ġencoder":9907,"Ġpipeline":9908,"Ġexcitation":9909,"Ġtimeout":9910,"ĠLap":9911,"Ġdeformation":9912,"Ġsteady":9913,"Dictionary":9914,"Ġsampled":9915,"Ġultra":9916,"pan":9917,"ĠCong":9918,";}":9919,"Ġreset":9920,"ota":9921,"extern":9922,"pages":9923,"1989":9924,"ĠMeV":9925,"Ġdefinite":9926,"('.":9927,"symmetry":9928,"ĠĠĠĠĠĠĠĠĠĠĠĠĠĠĠĠĠĠĠĠĠĠĠĠĠĠĠĠĠĠ":9929,"Symfony":9930,"Ġintegrals":9931,"RAN":9932,"esh":9933,"ĠChrist":9934,"resolve":9935,"FLA":9936,"Ġsuffer":9937,"Abstract":9938,"Ġdocuments":9939,"sequences":9940,"\\,.":9941,"EEE":9942,"Texture":9943,"hskip":9944,"frequency":9945,"tp":9946,"Ġrare":9947,"underset":9948,"paper":9949,"evertheless":9950,"aneous":9951,"optimal":9952,"ĠDay":9953,"Ġcharges":9954,"Ġowner":9955,"Ġconventional":9956,"ĠEmp":9957,"tyles":9958,"Rest":9959,"kernel":9960,"Ġviol":9961,"tack":9962,"tates":9963,"ĠPO":9964,"Ġdou":9965,"Numer":9966,"Ġpod":9967,"IMP":9968,"Ġgeome":9969,")}^":9970,"ĠMonte":9971,"Ġpermutation":9972,",\\!\\!\\!\\!\\!\\!\\!\\!":9973,"Ġdetermines":9974,"Mis":9975,"ĠAustralia":9976,"ĠInput":9977,"facebook":9978,"Ġhum":9979,"ĠHy":9980,"expression":9981,"Repository":9982,"Ġperforms":9983,"oidal":9984,"/.":9985,"Ġ\"-":9986,"Ġsegments":9987,"ĠIts":9988,"selector":9989,"role":9990,"Ġchurch":9991,"Ġabundance":9992,"Ġri":9993,"Ġneur":9994,"Ġinterpreted":9995,"LINE":9996,"Ġrobot":9997,")->":9998,"Ġnumerically":9999,"$(\\":10000,"lative":10001,"zure":10002,"resources":10003,"Ġ];":10004,"}(-":10005,"Ġhadron":10006,"HP":10007,"Ġenum":10008,"ĠInstead":10009,"ĠUp":10010,"Ġculture":10011,"Common":10012,"TRUE":10013,"tesian":10014,"Ġserious":10015,"Ġ[\"":10016,"Ġhund":10017,"Ġrecommend":10018,"distance":10019,"Ġclosure":10020,"Ġjournal":10021,"Ġholes":10022,"Ġhomot":10023,"ĠJaco":10024,"olving":10025,"rounds":10026,"comes":10027,"training":10028,"ĠPaul":10029,"^{[":10030,"ampion":10031,"Uri":10032,"Microsoft":10033,"Ġillustrate":10034,"MAT":10035,"Ali":10036,"chy":10037,"RC":10038,"ĠHTTP":10039,"avai":10040,"ĠQue":10041,"Import":10042,"noise":10043,"Ġfinds":10044,"Lower":10045,"inds":10046,"They":10047,"ĠResource":10048,"Ġembeddings":10049,"ĠCopyright":10050,"appear":10051,"FFFF":10052,"rele":10053,"LOCK":10054,"ito":10055,"organ":10056,"'+":10057,"Ñĭ":10058,"ĠTheir":10059,"Own":10060,"111":10061,"Ġbriefly":10062,"Ġcopies":10063,"Ġpor":10064,"claim":10065,"Operator":10066,"autoref":10067,"outhern":10068,"Ġcompletion":10069,"execute":10070,"Ġseparately":10071,"Ġhyperbolic":10072,"Ġdisplayed":10073,"Ġcauses":10074,"Ġdeliver":10075,"INFO":10076,"tech":10077,"Ġinvolve":10078,"dig":10079,"pin":10080,"Ã¶":10081,"Ġcorrelated":10082,"Ġchoosing":10083,"ĠGeorge":10084,"aux":10085,"Ġpeaks":10086,"edu":10087,"Ġcommonly":10088,"Ġeast":10089,"Ġcounts":10090,"ĠBob":10091,"Ġlatest":10092,"required":10093,"rect":10094,"game":10095,"pheric":10096,"'ll":10097,"wa":10098,"Ġbrought":10099,"stone":10100,"Ġselector":10101,"ĠChristian":10102,"ĠTer":10103,"Ġsomeone":10104,"rents":10105,"solid":10106,"Ġappeared":10107,"ĠStreet":10108,"Stats":10109,"compact":10110,"Ġsatell":10111,"Ġabelian":10112,"timeout":10113,"earning":10114,"Ġcalibration":10115,"Methods":10116,"teness":10117,"ifndef":10118,"ycle":10119,"She":10120,"Ġmeeting":10121,"Mask":10122,"=[":10123,"ummy":10124,"Ġnation":10125,"how":10126,"ADD":10127,"shared":10128,"lability":10129,"Ġpotentials":10130,".\");":10131,"Real":10132,"^-$":10133,"{\"":10134,"Ġui":10135,"ĠPort":10136,"Ġmathematical":10137,"={\\":10138,"ĠSV":10139,"Ġboson":10140,"Sur":10141,"Ġguarantee":10142,"Ġworkers":10143,"Ġformalism":10144,"213":10145,"eper":10146,"ĠLand":10147,"Ġstructural":10148,"through":10149,"than":10150,"Ġfmt":10151,"deriv":10152,"Ġ$-$":10153,"Ġconvenient":10154,"DateTime":10155,"Ġspirit":10156,"Ġfigures":10157,"CRE":10158,"ĠAlex":10159,"ĠPart":10160,"Ġpool":10161,"STM":10162,"ĠValid":10163,"figs":10164,"Password":10165,"ĠNGC":10166,"Ġmonot":10167,"ĠMal":10168,"Ġcloser":10169,"dif":10170,"General":10171,"Bra":10172,"tf":10173,"![":10174,"Ġheter":10175,"127":10176,"FP":10177,"}$).":10178,"]_{":10179,"****************************************************************":10180,"Ġ\"$":10181,"ĉĠĠ":10182,"was":10183,"ĠCarlo":10184,"dv":10185,"xrightarrow":10186,"Struct":10187,"=}":10188,"Ġdeterministic":10189,"Ġintersect":10190,"ILE":10191,"Ġfactory":10192,"moz":10193,"Ġvehicle":10194,"^+\\":10195,"Ġreci":10196,"Ġ\\#":10197,"Ġdy":10198,"ĠBig":10199,"good":10200,"maps":10201,"fortun":10202,"Ġvalign":10203,"Ġformulas":10204,"degree":10205,"ĠĠĠĠĠĊ":10206,"shal":10207,"elements":10208,"Ġobservables":10209,"respec":10210,"Ġfaith":10211,"venue":10212,"ĠParameter":10213,"TF":10214,"ĠSQL":10215,"Ġconducted":10216,"arian":10217,"cis":10218,"artin":10219,"Ġpolice":10220,"ĠForm":10221,"Ġopportunity":10222,"hole":10223,"Ġthanks":10224,"Ġcele":10225,"ĠProf":10226,"Ġutility":10227,"Ġstay":10228,"supported":10229,"interval":10230,"sun":10231,"Ġspeak":10232,"ĠLorentz":10233,"Ġdependencies":10234,"Ġsl":10235,"GM":10236,"Area":10237,"policy":10238,"ĠHistory":10239,"ĠEinstein":10240,"Ġsynthetic":10241,"equival":10242,"Ġmoves":10243,"RS":10244,"Ġdriven":10245,"Span":10246,"Div":10247,"Ġpromise":10248,"Ġstaff":10249,"Conver":10250,"Ġrealistic":10251,"erve":10252,"xs":10253,"Ġdwar":10254,"warm":10255,"original":10256,"gre":10257,"Ġthermod":10258,"runtime":10259,")\"":10260,"mplectic":10261,"Ġinterference":10262,"oming":10263,"builder":10264,"herited":10265,"teen":10266,"ounding":10267,"Ġproves":10268,"Ġpacket":10269,"decor":10270,"consistent":10271,">\"":10272,"photon":10273,"Ġlimitations":10274,"omb":10275,"}|^":10276,"Category":10277,"Ġinstrument":10278,"Ġ\\\\[":10279,"simu":10280,"Ġmerge":10281,"Exec":10282,"}}\\,":10283,"rink":10284,"Ġexport":10285,"matics":10286,"Ġturned":10287,"similar":10288,":`":10289,"utoff":10290,"met":10291,"iller":10292,"Delegate":10293,"Ġunstable":10294,"Pay":10295,"LM":10296,"Ġannounced":10297,"Ġperhaps":10298,"ĠKe":10299,"sb":10300,"ĠSpecifically":10301,"pkg":10302,"QU":10303,"Ġcollapse":10304,"objects":10305,"IVE":10306,"Ġregularization":10307,"cv":10308,"Ġappearance":10309,"Selected":10310,"Ġconfirmed":10311,"respectively":10312,"tk":10313,"jar":10314,"ouds":10315,"Ġ\\,,":10316,"Ġaveraged":10317,"tas":10318,")\\,\\":10319,"datab":10320,"coordinate":10321,"Ġcalling":10322,"Ġcombinations":10323,"ban":10324,"progress":10325,"Ġrgba":10326,"Ġsafety":10327,"ĠMicrosoft":10328,"actor":10329,"ercial":10330,"Ġhybrid":10331,"Ġopin":10332,"ĠPen":10333,"Ġimmediate":10334,"Ġdialog":10335,"ĉĠĠĠĠ":10336,"Ġfinish":10337,"selection":10338,"checkbox":10339,"opts":10340,"Ġsomewhat":10341,"video":10342,"ĠMem":10343,"onomy":10344,"ĠCons":10345,"typename":10346,"Ġcontents":10347,"Ġtrend":10348,"Ġperiods":10349,"Ġresolved":10350,"Animation":10351,"Ġfriends":10352,"atorial":10353,"missible":10354,"ularities":10355,"ĠAnother":10356,"zes":10357,"methods":10358,"ditive":10359,"Ġkept":10360,"Ġleader":10361,"helper":10362,"Role":10363,"Ġlanguages":10364,"}}+":10365,"efficient":10366,"Ġcommunities":10367,"Ġcentre":10368,"occ":10369,"Short":10370,"Ġvanishing":10371,"Ġtransmit":10372,"ĠBan":10373,"Ġloops":10374,"ĠFix":10375,"LU":10376,"arguments":10377,"Ġderivation":10378,"'(\\":10379,"Based":10380,"ĠBi":10381,"VALUE":10382,"login":10383,"orbit":10384,"processing":10385,"Ġinvariance":10386,"Ġelastic":10387,"1987":10388,"Ġ\\}$":10389,"Ġsouth":10390,"examples":10391,"ĠVector":10392,"gls":10393,"):=\\":10394,"bibliography":10395,"Si":10396,"Ġ=========":10397,"ĠTimes":10398,"centerline":10399,"Ġforeign":10400,"relative":10401,"ryption":10402,"eks":10403,"Ġplanning":10404,"ĠJack":10405,"Ġmenu":10406,"uling":10407,"uzz":10408,"Ġexcess":10409,"IGHT":10410,")<":10411,"Ġmanip":10412,"Cred":10413,"Ġdecided":10414,"ARN":10415,"Ġlicense":10416,"}}\\\\":10417,"Ġinequalities":10418,"ĠEducation":10419,"Ġlongit":10420,"reci":10421,"rv":10422,"togram":10423,"makebox":10424,"512":10425,"Ġsett":10426,"}^{(\\":10427,"platform":10428,"}}+\\":10429,"overview":10430,"ĠDemoc":10431,"Pres":10432,"stat":10433,"ĠWilliam":10434,"owner":10435,"eting":10436,"ĠMichael":10437,"restr":10438,"solution":10439,"Ġmarginal":10440,"iginal":10441,"INTER":10442,"Ġglob":10443,"Ġoffers":10444,"pot":10445,"console":10446,"Spe":10447,"Ġanomal":10448,"åı":10449,"ĠDan":10450,"Ġconservation":10451,"convex":10452,"ĠVol":10453,"ĠPDF":10454,"ĠTex":10455,"ENSE":10456,"BT":10457,"Ġsociety":10458,"predic":10459,"Ġparticipants":10460,"Ġsaying":10461,"ĠAfrica":10462,"ĠMus":10463,"Ġmultiplication":10464,"Ġlayout":10465,"Also":10466,"Ġanimation":10467,"Ġgeodesic":10468,"(@":10469,"fun":10470,"ounted":10471,"owski":10472,"wd":10473,"ĠZe":10474,"Ġfight":10475,"Ġrefers":10476,"Ġparents":10477,"Ġaware":10478,"bigskip":10479,"strial":10480,"oking":10481,"Resources":10482,"Ġemo":10483,"ASSERT":10484,"Ġmobile":10485,"PUT":10486,"Progress":10487,"Ġ''":10488,"ĠCompany":10489,"Generated":10490,"ĠArt":10491,"leftrightarrow":10492,"bro":10493,"fire":10494,"Ġprops":10495,"agent":10496,"Ġscroll":10497,"loads":10498,"Ġopt":10499,"}]$":10500,"cancel":10501,"Ġsensor":10502,"checked":10503,"Ġnavigation":10504,"Ġinsert":10505,"pq":10506,"rpc":10507,"1970":10508,"lain":10509,"Endpoint":10510,"Ġmul":10511,"Ġthous":10512,"Ġdestination":10513,"uction":10514,"Services":10515,"ĠBen":10516,"Ġfeasible":10517,"Ġdrive":10518,"velope":10519,"Pers":10520,"ĠEuler":10521,"lb":10522,"utter":10523,"constructor":10524,"ĠProperty":10525,"ĠCA":10526,"glyph":10527,"COMP":10528,"Binary":10529,"130":10530,"Ġmirror":10531,"Ġlogger":10532,"disc":10533,"loading":10534,"Ġrealized":10535,"ĠWindows":10536,"Ġviewed":10537,"BF":10538,"Ġtour":10539,"Ġspar":10540,"Ġmagne":10541,"Ġflexi":10542,"Ġ)$":10543,"Edge":10544,"ĠBur":10545,"}\\)":10546,"Ġenumer":10547,"Ġnomin":10548,"ÐµÐ½":10549,"Ġcircles":10550,"Ġcolour":10551,"Ġbuf":10552,"endor":10553,"AAAA":10554,"Ġpuls":10555,"effect":10556,"otor":10557,"achine":10558,"relax":10559,"Db":10560,"TV":10561,"users":10562,"Ġemb":10563,"ĠInformation":10564,"Ġsymmetries":10565,"rgb":10566,"Ġexports":10567,"Ġinj":10568,"Sequence":10569,"Admin":10570,"Limit":10571,"route":10572,"Ġtracking":10573,"arn":10574,"aught":10575,"sidebar":10576,"mash":10577,"Ġreverse":10578,"abc":10579,"()</":10580,"HM":10581,"Br":10582,"Ġgir":10583,"warning":10584,"Ġencoded":10585,"]+":10586,"EP":10587,"dark":10588,"ĠSociety":10589,"Ġelementary":10590,"memory":10591,"[{\\":10592,"Ġdrag":10593,"Ġloaded":10594,"=\"${":10595,"Ġqual":10596,"proxy":10597,"oked":10598,"Ġanalys":10599,"ĠMary":10600,"Ġisolated":10601,"Ġanalyzed":10602,"tages":10603,"Ġdelta":10604,"Ġliquid":10605,"tities":10606,"Ġalignment":10607,"Ġcyclic":10608,"socket":10609,"Ign":10610,"Ġgene":10611,"Ġnp":10612,"Ġ_,":10613,"Ġconsideration":10614,"Ġdiscovered":10615,"ĠUI":10616,"}}-":10617,"Ġce":10618,"veloper":10619,"ĠCath":10620,"ĠAction":10621,"Ġnegligible":10622,"Ġdeb":10623,"140":10624,"Ġcivil":10625,"ĠFrance":10626,"Ġexec":10627,"Ġclub":10628,"Ġdivergence":10629,"servative":10630,"Ġreplacing":10631,"Ġoperating":10632,"Visible":10633,"Ġtriple":10634,"Ġprotect":10635,"Binding":10636,"tistics":10637,"Ġtwice":10638,"Errorf":10639,"idel":10640,"ĠBH":10641,"Ġrely":10642,"resolution":10643,"KS":10644,"compiler":10645,"ĠGovernment":10646,"Ġdedic":10647,"toprule":10648,"('/":10649,"GLE":10650,"states":10651,"expan":10652,"mouse":10653,"ĠĠĠĠĠĠĠĠĠĠĠĠĠĠĠĠĊ":10654,"ĠBS":10655,"REE":10656,"lie":10657,"ĠMake":10658,"maven":10659,"Ġcohomology":10660,"Fn":10661,"temperature":10662,"formula":10663,"Ġreadonly":10664,"Ġenvironments":10665,"ĠRequest":10666,"ĠChinese":10667,"Ġpat":10668,"Ġschools":10669,"htbp":10670,"Ġdigital":10671,"Ġâ":10672,"Ġ{\"":10673,"itness":10674,"Move":10675,"Ġclick":10676,"DEFAULT":10677,"Ġdisease":10678,"ariant":10679,"springframework":10680,"ĠPat":10681,"expand":10682,"ographic":10683,"Ġtokens":10684,"Ġ'';":10685,"aling":10686,"Ġresp":10687,"eller":10688,"Ġpointed":10689,"later":10690,"Figures":10691,"oul":10692,"Ġna":10693,"1988":10694,"radio":10695,"username":10696,"oco":10697,"dn":10698,")~\\":10699,"~{\\":10700,"elem":10701,"Ġdiameter":10702,"strate":10703,"'-":10704,"ITION":10705,"Ġtangent":10706,"Ġentirely":10707,"Ġcubic":10708,"ferred":10709,"Ġfl":10710,"vertical":10711,"Public":10712,"ticip":10713,"Ġinstalled":10714,"closed":10715,"Ġrelativistic":10716,"Ġaspect":10717,"Ġoriginally":10718,"ÑĮ":10719,"amous":10720,"Ġfractional":10721,"Landroid":10722,"Ġprog":10723,"SSL":10724,"Ġcentered":10725,".<":10726,"Ġ'\\":10727,"112":10728,"})}\\":10729,"setlength":10730,"Ġconc":10731,"Cancel":10732,"ĠBayesian":10733,"MAP":10734,"Diff":10735,"Ġcooling":10736,"Ġcrystal":10737,"}}}{\\":10738,"Ġordinary":10739,"watch":10740,"ĠSource":10741,"dat":10742,"assembly":10743,"ĠCommission":10744,"ĠAward":10745,"Ġendpoint":10746,"+|":10747,">:":10748,"Ġprovider":10749,"west":10750,"Ġtorus":10751,"Ġneighbors":10752,"umption":10753,"ea":10754,"ĠLu":10755,"Ġbenefits":10756,"oint":10757,"via":10758,"Are":10759,"}$;":10760,"ĠTemp":10761,"ĠNewton":10762,"Ġconfigure":10763,"Ġind":10764,"qq":10765,"fb":10766,"lators":10767,"Ġreceiver":10768,"tributions":10769,"Bs":10770,"Ġmetallicity":10771,"ĠBack":10772,"Den":10773,"Ġoccurred":10774,"oday":10775,"tbody":10776,"nostics":10777,"interpre":10778,"Children":10779,"cn":10780,"oted":10781,"ami":10782,"ĠBoard":10783,"both":10784,"Ġlabor":10785,"mbf":10786,"born":10787,"TM":10788,"DIS":10789,"Ġtags":10790,"Free":10791,"Many":10792,"REQ":10793,"Ġoscillations":10794,"ĠPRO":10795,"intelli":10796,"$}\\":10797,"\\'{":10798,"Ġdisabled":10799,"METH":10800,"Ġcombining":10801,"oser":10802,"Mac":10803,"Î¿":10804,")/\\":10805,"()))":10806,"press":10807,"Ġsch":10808,"Ġensures":10809,"available":10810,"intellij":10811,"Author":10812,"visible":10813,"Language":10814,"mor":10815,"ĠAssembly":10816,"Ġrace":10817,"sest":10818,"ĠPeter":10819,"sient":10820,"Ġpion":10821,"hn":10822,"driver":10823,"Ġsql":10824,"XY":10825,"Ġroun":10826,"atibility":10827,"abi":10828,"Sto":10829,"ĠEv":10830,"Ġstands":10831,"ĠResults":10832,"bracket":10833,"Ġtrial":10834,"................":10835,"BI":10836,"tator":10837,"ĠGraph":10838,"eral":10839,"Ġaccepted":10840,"eqq":10841,"Google":10842,"fp":10843,"Ġneither":10844,"Analysis":10845,"lst":10846,"ighter":10847,"issues":10848,"\"],":10849,"jQuery":10850,"ĠColor":10851,"job":10852,"}]\\":10853,"Ġmission":10854,"Ġest":10855,"Ġmaintain":10856,"Ġbillion":10857,"meter":10858,"POST":10859,".\",":10860,"Ã§":10861,"Ġenables":10862,"Ġfootball":10863,"Ġwoman":10864,"GO":10865,"Ġmanifolds":10866,"Ġmatched":10867,"Ġacceleration":10868,"ĠStra":10869,"pared":10870,"Ġpurely":10871,"ĠassertThat":10872,"Ġnearest":10873,"simp":10874,"Ġimaginary":10875,"odal":10876,"Zh":10877,"vv":10878,"Ġchance":10879,"Shared":10880,"Thm":10881,"Ġeasier":10882,"ĠFace":10883,"Ġdotted":10884,"Ġfan":10885,"ios":10886,"',\\":10887,"Ġopened":10888,"Ter":10889,"Ġcosmic":10890,"Ġconclusions":10891,"driv":10892,"library":10893,"ajax":10894,"cribed":10895,"Ġescape":10896,"Ġfitted":10897,"},\\\\":10898,"Ġexpanded":10899,"ĠRiver":10900,"ĠLeague":10901,"ĠSat":10902,"Ġactivation":10903,"_);":10904,"DEBUG":10905,"Ġhardware":10906,"trained":10907,"Tags":10908,"pache":10909,"Ġexamine":10910,"Ġlocalization":10911,"ĠLat":10912,"fortunately":10913,"EST":10914,"python":10915,"}}^{(":10916,"Bal":10917,"BAR":10918,"]_":10919,"Ġ\\:":10920,"}\\!":10921,"Ġallocation":10922,"Ġobserver":10923,"Word":10924,"Dete":10925,"Ġcomputations":10926,"undles":10927,"choose":10928,"Mouse":10929,"ESS":10930,"havior":10931,"critical":10932,"including":10933,"aching":10934,"Begin":10935,"Ġfoo":10936,"Ġproofs":10937,"Ġ>>>":10938,"ĠML":10939,"frag":10940,"estival":10941,"ĠOffice":10942,"Ġpp":10943,"Ġcursor":10944,"Inv":10945,"continuous":10946,"Ġmodification":10947,"?>":10948,"CLASS":10949,"Ġprepar":10950,"icen":10951,"Ġclaims":10952,"cost":10953,"rig":10954,"Ġing":10955,"('#":10956,"Ġprogramming":10957,"Ġlooks":10958,"ĠDue":10959,"ĠDefine":10960,"tsd":10961,"merge":10962,"gaz":10963,"Ġannihi":10964,"Ġfindings":10965,"Ġadversarial":10966,"ĠLou":10967,"Ġinstability":10968,"Ġcrossing":10969,"Ġarises":10970,"Ġdocumentation":10971,"ova":10972,"ĠArg":10973,"Ġulti":10974,"']['":10975,"Ġintroducing":10976,"Ġmoduli":10977,"cons":10978,"ancing":10979,"ĠThomas":10980,"Book":10981,"evalu":10982,"forcement":10983,"integer":10984,"Ġconfirm":10985,"Ġcompression":10986,"lapsed":10987,"Ġenv":10988,"105":10989,"aria":10990,"!!":10991,"animation":10992,"Ġvision":10993,"Validation":10994,"ĠSC":10995,"odies":10996,"FNGL":10997,"Ġcorner":10998,"wild":10999,"ĠĠĠĠĠĠĠĠĠĠĠĠĠĠĠĠĠĠĠĠĠĠĠĠĠĠĠĠĠĠĠĠĠ":11000,"ĠPage":11001,"chen":11002,"Ġremember":11003,"validation":11004,"because":11005,"orest":11006,"ifting":11007,"Bean":11008,"ĠDiv":11009,"vectors":11010,"voke":11011,"amel":11012,"Ġfermions":11013,"Ð²":11014,"may":11015,"Ġbroadcast":11016,"}</":11017,"bigoplus":11018,"Ġalle":11019,"Ġcorpor":11020,"Ġauxiliary":11021,"Help":11022,"plays":11023,"}}_\\":11024,"Ġreality":11025,"lets":11026,"Ġvilla":11027,"ĠNAME":11028,"Ġopening":11029,"ourn":11030,"ĠCommittee":11031,"ĠXML":11032,"ĠYear":11033,"stage":11034,"bibliographystyle":11035,"<!":11036,"ideos":11037,"ĠJournal":11038,"ĠParty":11039,"ĠPub":11040,"found":11041,"Ġaddresses":11042,"ĠTur":11043,"Ġfacts":11044,"Ġrestrict":11045,"Ġattach":11046,"Sm":11047,"Conclusion":11048,"mates":11049,"quantum":11050,"Ġbirth":11051,"kt":11052,"Ġseed":11053,"cellcolor":11054,"Ġshear":11055,"Ġvariant":11056,"Ġappearing":11057,"}$$":11058,"Ġlargely":11059,"Ġtypedef":11060,"scriptstyle":11061,"/{":11062,"),(":11063,"DEF":11064,"Ġexcell":11065,"Ġjobs":11066,"lad":11067,"Ġachieves":11068,"Ġpopulations":11069,"Ġreducing":11070,"middle":11071,"expect":11072,"IDE":11073,"Ġtelevision":11074,"positive":11075,"UB":11076,"outer":11077,"ĠBA":11078,"Ġroll":11079,"Ġconcepts":11080,"area":11081,"Ġphenomenon":11082,"Ġcold":11083,"Ġcaptured":11084,"Ġwife":11085,"Ġproven":11086,"Once":11087,"Basic":11088,"Ġpurch":11089,"Ġprojected":11090,"Find":11091,"house":11092,"Ġholomorphic":11093,"Ġpsy":11094,"ICENSE":11095,"ĠTaylor":11096,"MODE":11097,"Ġmm":11098,"gtr":11099,"Ġdepicted":11100,"indic":11101,"transp":11102,"Native":11103,"Ġmagnet":11104,"\"},":11105,"Ġhomomorphism":11106,"ĠÐ¿":11107,"ĠWilson":11108,"Ġlimiting":11109,"Ġsingularity":11110,"Ġsti":11111,"compute":11112,"Ġstudying":11113,"Ġaudi":11114,"Ġlocalized":11115,"Ġnan":11116,"satisf":11117,"take":11118,"abbr":11119,"Vir":11120,"Ġcavity":11121,"}){\\":11122,"Ġskip":11123,"release":11124,"Ġqubit":11125,"'];":11126,"%,":11127,"react":11128,"Random":11129,"Ġimaging":11130,"Sk":11131,"person":11132,"\"><!--":11133,"6666":11134,"Ġintended":11135,"Because":11136,"Ġpin":11137,"ĠChild":11138,"Ġclip":11139,"eld":11140,"corresponding":11141,"Ġconverge":11142,"ĠGold":11143,"ĠCa":11144,"istant":11145,"stellar":11146,"Ġdivision":11147,"Batch":11148,"]}\\":11149,"1986":11150,"rece":11151,"ĠGreat":11152,"player":11153,"ĠJer":11154,"ĠOtherwise":11155,"ĠBOOST":11156,"ĠBlock":11157,"Flag":11158,"#{":11159,"Ġfer":11160,"cls":11161,"Ġtends":11162,"ĠRoman":11163,"marily":11164,"Ġfinished":11165,"Ġnullptr":11166,"colLast":11167,"VALID":11168,"commu":11169,"ĠAfrican":11170,"Ġjoined":11171,"Ġtx":11172,"Ġfilled":11173,"room":11174,"ANT":11175,"bottomrule":11176,"ĠFree":11177,"Home":11178,"Ġgrand":11179,"about":11180,"ĠSmith":11181,"Bottom":11182,"ĠMock":11183,"Arch":11184,"Ġunity":11185,"Ġnumerous":11186,"Ġfederal":11187,"htb":11188,"Audio":11189,"Ġeth":11190,"validate":11191,"Cloud":11192,"Ġcertainly":11193,"Ġlaunch":11194,"Indeed":11195,"pes":11196,"Ġignored":11197,"Ġneighbour":11198,"ĠANY":11199,"ardi":11200,"auchy":11201,"enes":11202,"activ":11203,"onald":11204,"ĠArrayList":11205,"duration":11206,"metic":11207,"Ġkeeping":11208,"Ġdeploy":11209,"partition":11210,"Ġsituations":11211,"Ġexecuted":11212,"navList":11213,"Ġfusion":11214,"Notice":11215,"multip":11216,"Ġrelationships":11217,"Video":11218,"ĠConsequently":11219,"ĠEner":11220,"ifi":11221,"perturb":11222,"partite":11223,"yan":11224,"Ids":11225,"Ġenjoy":11226,"Ġtrust":11227,"Inf":11228,"Ġenhanced":11229,"sync":11230,"Na":11231,"ees":11232,"ĠIran":11233,"strings":11234,"]{./":11235,"Ġbudget":11236,"textstyle":11237,"Ġentities":11238,"=&":11239,"'d":11240,"conj":11241,"biggr":11242,"DOM":11243,"once":11244,"ĠOptional":11245,"fmt":11246,"destroy":11247,"Ġ$-\\":11248,"KL":11249,"ĠHen":11250,"exact":11251,"Rate":11252,"Strate":11253,"Ġparties":11254,"ĠShow":11255,"classif":11256,"ĠGermany":11257,"ecolor":11258,"Ġ=======":11259,"enberg":11260,"lac":11261,"Ġsubstitu":11262,"Ġsimplify":11263,"gap":11264,"Ġtables":11265,"Support":11266,"rival":11267,"ĠRobert":11268,"Ġsurve":11269,"ĠGalactic":11270,"BD":11271,"ĠPoint":11272,"Arr":11273,"Ġcancellation":11274,"Ġcreates":11275,"ĠElement":11276,"polar":11277,"ĠMany":11278,"Required":11279,"Ġmolecules":11280,"amazon":11281,"Ġimpossible":11282,"Ġincome":11283,"GA":11284,"mention":11285,"1024":11286,"Promise":11287,"without":11288,"lbrace":11289,"Ġvan":11290,"half":11291,"scribe":11292,"ĠNotice":11293,"mak":11294,"signature":11295,"Ġdaugh":11296,"Pub":11297,"colFirst":11298,"labels":11299,"vance":11300,"Ġcontinuity":11301,"Ġpriority":11302,"Ġefficiently":11303,"Ġplease":11304,"American":11305,"Ra":11306,"Ġhierarchy":11307,"ĠTor":11308,"_{(\\":11309,"Ġexpos":11310,"ArgumentException":11311,"Ġcharset":11312,"uted":11313,"touch":11314,"Ġconverted":11315,"ĠAcade":11316,"]^{\\":11317,"momentum":11318,"async":11319,"biggl":11320,"ĠCho":11321,"oulomb":11322,"'}(":11323,"Ġbank":11324,"ilding":11325,"Ġdipole":11326,"zip":11327,"eros":11328,"izers":11329,"Ġlengths":11330,"Ġpartners":11331,"Ġcombine":11332,"Ġcommutative":11333,"grams":11334,"Ġrequested":11335,"ãĢ":11336,"ĠSecurity":11337,"Join":11338,"Ġlinked":11339,"ZZ":11340,"DATA":11341,"NP":11342,"}})\\":11343,"Ġsubgraph":11344,"Î±":11345,"ĠLife":11346,"ĠRob":11347,"Ġban":11348,"mapping":11349,"Ġstories":11350,"rypto":11351,"(\"/":11352,"Ġbus":11353,"forEach":11354,"ĠOnce":11355,"varpi":11356,"Ġshifts":11357,"Ġvariability":11358,"Ġstages":11359,"}$),":11360,"tl":11361,"omite":11362,"Constructor":11363,"Ġii":11364,"rian":11365,"ĠRemove":11366,"inherit":11367,"Ġradii":11368,"uma":11369,"ĠEvery":11370,"Ġraised":11371,"algorithmic":11372,"Ġtuple":11373,"Ġdiscovery":11374,"102":11375,"Ġargue":11376,"ĠWhe":11377,"Ð¼":11378,"Ġsending":11379,"Ġhuge":11380,"\\\\\\":11381,"rapped":11382,"Ġrapidly":11383,"nov":11384,"trip":11385,"ĠDa":11386,"apis":11387,"Ġdecades":11388,"ups":11389,"Ġdeveloping":11390,"Ġcmd":11391,"Ġfaces":11392,"-{\\":11393,"Ġquas":11394,"month":11395,"Ġqubits":11396,"Ġcompletes":11397,"caten":11398,"akes":11399,"DBLP":11400,"adian":11401,"EL":11402,"Ġatt":11403,"Ġencode":11404,"Ġfashion":11405,"Ġcapt":11406,"OC":11407,"Ġclin":11408,"proj":11409,"ĠMain":11410,"Ġinteracting":11411,"Ġgold":11412,"FM":11413,"Ġcondens":11414,"Ġattached":11415,"Face":11416,"ĠGlobal":11417,"Ġsquares":11418,"Notification":11419,"ĠAgain":11420,"omitempty":11421,"Ġparity":11422,"Evalu":11423,"mk":11424,"stituting":11425,"Ġplans":11426,"Ġcompens":11427,"Ġpara":11428,"comparison":11429,")~":11430,"ĠCPU":11431,"Ġhor":11432,"nc":11433,"same":11434,"Ġreaches":11435,"700":11436,"asion":11437,"ilistic":11438,"vp":11439,"ĠStep":11440,"riend":11441,")},\\":11442,"Make":11443,"construct":11444,"Ġaccounts":11445,"raisebox":11446,"Ġdecoder":11447,"NamedCell":11448,"ien":11449,"enty":11450,"Ġsla":11451,"ĠMinister":11452,"1984":11453,"report":11454,"allery":11455,"Ġblow":11456,"Ġweeks":11457,"Ġta":11458,"Ġacade":11459,"Screen":11460,";\">":11461,"ĠAuto":11462,"Private":11463,"+$":11464,"allclasses":11465,"mach":11466,"Ġplanets":11467,"olf":11468,"manifold":11469,"tamin":11470,"Ġworst":11471,"Ġagreed":11472,"expr":11473,"relation":11474,"Player":11475,"Ġplate":11476,"antly":11477,"ounting":11478,"Ġscaled":11479,"ĠYoung":11480,"ĠStandard":11481,";)":11482,"Ġcompreh":11483,"vertible":11484,"HH":11485,"blank":11486,"different":11487,").$$":11488,"ĠSpace":11489,"delay":11490,"Ġvoltage":11491,"Ġverified":11492,"ĠDB":11493,"Algorithm":11494,"Ġlists":11495,"Ġpaint":11496,"Ġmanufact":11497,"boundary":11498,"Ġduality":11499,"feed":11500,"MIN":11501,"'},":11502,"priv":11503,"trine":11504,"Ġ\"\",":11505,"Ġassembly":11506,"Ġtracks":11507,"ÑģÑĤ":11508,"Ġsuc":11509,"adap":11510,"Ġrectangle":11511,"ĠMajor":11512,"Ġamounts":11513,"resizebox":11514,"flush":11515,"Ġtrunc":11516,"ĠSoftware":11517,"Ġbars":11518,"^{{\\":11519,"osh":11520,"TestCase":11521,"binary":11522,"Ġreliable":11523,"getValue":11524,"unities":11525,"CTYPE":11526,"cosh":11527,"Ġresponses":11528,"Ġcelebra":11529,"âĢĿ.":11530,"VAR":11531,"Ġvote":11532,"clone":11533,"Ġhistorical":11534,"Combin":11535,"Constraint":11536,"ectivity":11537,"&+":11538,"sinh":11539,"\"/></":11540,"ĠMusic":11541,"ĠLOG":11542,"Ġleaving":11543,"cripts":11544,"neigh":11545,"rative":11546,"Ġolder":11547,"fraction":11548,"kk":11549,"lared":11550,"qed":11551,"Imple":11552,"Ġjets":11553,"colhead":11554,"foreach":11555,"FilterDatabase":11556,"Nullable":11557,"Linear":11558,"Objects":11559,"Border":11560,"ourse":11561,"Ġvariational":11562,"Ġmor":11563,"Execution":11564,"ĠDoc":11565,"1985":11566,"Ġencounter":11567,"burg":11568,"into":11569,"anging":11570,"Ġdecisions":11571,"):=":11572,"Ġhous":11573,"Ġsummarized":11574,"Ġresearchers":11575,"Ġslice":11576,"Ġfirm":11577,"Report":11578,"Enter":11579,"Same":11580,"ĠTexas":11581,"{|\\":11582,"TL":11583,"Ġwest":11584,"fluid":11585,"002":11586,"Ġobtaining":11587,"cursor":11588,"Ġconflict":11589,"dependence":11590,"Ġowners":11591,"don":11592,"underbrace":11593,"lattice":11594,"Ġimplied":11595,"istan":11596,"Setting":11597,"Ġanno":11598,"9999":11599,"Such":11600,"mcite":11601,"Ġclimate":11602,"Ġedit":11603,"Ġsys":11604,"Ġprofessional":11605,"Ber":11606,"ĠLink":11607,"Ġclassified":11608,"previous":11609,"Ġwonder":11610,"dapt":11611,"Ġtransformed":11612,"gtrsim":11613,"»¿":11614,"Ġ{},":11615,"Ġpretty":11616,"Ġdamp":11617,"Ġeveryone":11618,"fm":11619,"Ġquarks":11620,"terms":11621,"Ġwal":11622,"Ġscientific":11623,"Ġcontinues":11624,"pending":11625,"Ġhelps":11626,"acle":11627,"Ġprimarily":11628,"nor":11629,"Play":11630,"Mag":11631,"itt":11632,"Ġdetermining":11633,"ï»¿":11634,"getElement":11635,"println":11636,"Ġextensive":11637,"Unknown":11638,"usform":11639,"cla":11640,"dial":11641,"ĠBook":11642,"LY":11643,"numerusform":11644,"design":11645,"BIT":11646,"^^":11647,"iar":11648,"quality":11649,"catch":11650,"Ġcontribut":11651,"@{}}":11652,"ĠDel":11653,"ĠSets":11654,"USER":11655,"Wait":11656,"}{$":11657,"Ġguarantees":11658,"Ġcausal":11659,"electron":11660,"Ġgoals":11661,"ĠNon":11662,"dm":11663,"Ġoverla":11664,"ĠEnergy":11665,"Ġtexture":11666,"coloneqq":11667,"^{*}":11668,"Environment":11669,"contents":11670,"estimate":11671,"Ġobservational":11672,"udinal":11673,"Ġhomotopy":11674,"...</":11675,"AI":11676,"Ġcovers":11677,"consider":11678,"induced":11679,"igens":11680,"Ġswe":11681,"Addr":11682,"Ġuniquely":11683,"pointer":11684,"conditions":11685,"Bounds":11686,"ocaml":11687,"Hub":11688,"iant":11689,"flex":11690,"Alloc":11691,"Ġcarbon":11692,"Ġtil":11693,"Ġsucc":11694,"Game":11695,"ĠPM":11696,"curve":11697,"Identity":11698,"ĠDirector":11699,"Spa":11700,"}$:":11701,"SELECT":11702,"Append":11703,"rot":11704,"ĠPack":11705,"\\\"{":11706,"haus":11707,"ĠTele":11708,"Ġ@\"":11709,"Ġlosses":11710,"ĠIndian":11711,"Ñĩ":11712,"Allow":11713,"Ġchains":11714,"Fragment":11715,"Tick":11716,"ĠGPU":11717,"ĠĠĠĠĠĠĠĊ":11718,"aches":11719,"ORM":11720,"ĠSecret":11721,"secutive":11722,"GD":11723,"}}}}":11724,"ociated":11725,"Ġsurrounding":11726,"igroup":11727,"Ġoptimized":11728,"ĠAdditionally":11729,"Program":11730,"]\\\\":11731,"Ġpercentage":11732,">'":11733,"Ġpresentation":11734,",}":11735,"Ġelectromagnetic":11736,"ĠDOM":11737,"Throw":11738,"Ġcommands":11739,"isEmpty":11740,"ĠClient":11741,"-$\\":11742,"Ġforced":11743,"Ġmd":11744,"Returns":11745,"entric":11746,"Hy":11747,"}{$\\":11748,"Ġspot":11749,"Ġclouds":11750,"gp":11751,"Ġprimitive":11752,"ĠSal":11753,"Encoded":11754,"Ġloading":11755,"Cat":11756,"Ġpose":11757,"rbrace":11758,"Ġnearby":11759,"Loop":11760,"Ġhour":11761,"Ġremoving":11762,"Ġcitiz":11763,"ĠRa":11764,"};\\":11765,"360":11766,"IEEE":11767,"ĠControl":11768,"EEEE":11769,"Ġanalyses":11770,"ĠKen":11771,"Static":11772,"InputStream":11773,"ĠWay":11774,"stein":11775,"sr":11776,"binding":11777,"ĠProof":11778,"Ġassociation":11779,"ĠSol":11780,"bounds":11781,"Ġreproduce":11782,"ORY":11783,"gest":11784,"Ġbandwidth":11785,"ĠĠĠĠčĊ":11786,"Year":11787,"pic":11788,"Users":11789,"train":11790,"ĠIV":11791,"}):":11792,"Ġtells":11793,"Ġtransactions":11794,"Following":11795,"Ġflo":11796,"ĠMass":11797,"Ġisotropic":11798,"Constant":11799,"Driver":11800,"Ġregistered":11801,"rtl":11802,"FIX":11803,"Ġexplored":11804,"Ġsignificance":11805,"ATTR":11806,"Ġcommercial":11807,"ĠFil":11808,"Ġsymplectic":11809,"Ġhydrogen":11810,"HA":11811,"005":11812,"Ġleaf":11813,"Ġproposal":11814,"Cursor":11815,"Ġdependency":11816,"ANCE":11817,"ĠStart":11818,")}=\\":11819,"Ġrepos":11820,"ĠJose":11821,"104":11822,"Ġcoincides":11823,"tier":11824,"tegra":11825,"Ġconcerns":11826,"ordan":11827,"ĠGW":11828,"who":11829,"Define":11830,"ĠSign":11831,"DOCTYPE":11832,"Ġregularity":11833,"Ġexponentially":11834,"Ġdedicated":11835,"Ġ\\,.":11836,"ĠMS":11837,"IDTH":11838,"()),":11839,"Ġ\"%":11840,")*":11841,"Ġbubble":11842,"Ġapproximations":11843,"gravity":11844,"ĠBest":11845,"squ":11846,"ĠGr":11847,"Ġminimize":11848,"Ġidentifier":11849,"Ġportion":11850,"ĠCD":11851,"UND":11852,"eb":11853,"ĠJust":11854,"Ġissu":11855,"writer":11856,"Ġkilled":11857,"ĠBa":11858,"Axis":11859,"exit":11860,"Save":11861,"goto":11862,"Ġ'%":11863,"CHAR":11864,"Gs":11865,"SIS":11866,"ĠSam":11867,"($\\":11868,"Ġgradients":11869,"Ġdetectors":11870,"TX":11871,"Ġrigid":11872,"|{\\":11873,"ĉĉĠĠĠ":11874,"}.$":11875,"charge":11876,"Tw":11877,"airs":11878,"Ġconjugate":11879,"ĠMedia":11880,"ĠFROM":11881,"Ġmodular":11882,"ĠFollowing":11883,"Ġwasn":11884,"ĠNN":11885,"}.$$":11886,"Ġhelpful":11887,"Warning":11888,"Ġtheme":11889,"outs":11890,"Ġcounting":11891,"Ġrock":11892,"$=":11893,"******":11894,"Ġmal":11895,"lp":11896,"NSString":11897,"Ġ\"\";":11898,"ĠCustom":11899,"bour":11900,"Ġ\\|_{":11901,"Ġextraction":11902,"liers":11903,"220":11904,"former":11905,"wang":11906,"Ġinitialize":11907,"ĠMex":11908,"Ġinterpolation":11909,"Ġcutoff":11910,"fv":11911,"ĠUs":11912,"Sql":11913,"scheme":11914,"ĠRetrie":11915,"icensed":11916,"Ġinsu":11917,"disable":11918,"Ġpromin":11919,"ĠAD":11920,"Ġarticles":11921,"Ġbrother":11922,"bose":11923,"chart":11924,"rotate":11925,"ASS":11926,"ĠMI":11927,"Ġsurprising":11928,"activity":11929,"Ġfacili":11930,"Forms":11931,"calendar":11932,"Ġmixture":11933,"ĠLipschitz":11934,"Ġerg":11935,"Ġnine":11936,"ĠDistrict":11937,"))=":11938,"__)":11939,"ERS":11940,"ĠMuseum":11941,"Ġclients":11942,"ĠStatus":11943,"Ġsimplified":11944,"Ġbins":11945,"Ġip":11946,"ĠMO":11947,"ĠBern":11948,"driven":11949,"osc":11950,"xymatrix":11951,"createElement":11952,"Ġacknowled":11953,"Ġlogarithmic":11954,"kwargs":11955,"Ġfif":11956,"}^{*":11957,"Ġinterview":11958,"ðŁ":11959,"uer":11960,"Ġthickness":11961,"Ġrecovery":11962,"Ġanchor":11963,"Ġdegenerate":11964,"tatively":11965,"Annotation":11966,"Ġreserved":11967,"Ġdev":11968,"ĠLeg":11969,"entations":11970,"ĠDir":11971,"Ġconnecting":11972,"Ġ$\\|\\":11973,"Ġsingularities":11974,")$}":11975,"(--":11976,"Ġalter":11977,"Ġviolation":11978,"Skip":11979,"compile":11980,"(/":11981,"Ġaccum":11982,"ato":11983,"EXPORT":11984,"^*(\\":11985,"Day":11986,"ĠSearch":11987,"ĠCS":11988,"ymer":11989,"obile":11990,"Ġmapped":11991,"Ġrepeat":11992,"Ġasymptotically":11993,"UC":11994,"ĠAmazon":11995,"IAL":11996,"Ġpreserve":11997,"Cer":11998,"=\"$":11999,"nic":12000,"Ġsharing":12001,"pip":12002,"pod":12003,"Ġbrain":12004,"Complete":12005,"assign":12006,"Ġconvers":12007,"phrase":12008,"Ġrevealed":12009,"essel":12010,"Ġcrow":12011,"Ġconvention":12012,"native":12013,"Ġmomenta":12014,"ĠClo":12015,"]))":12016,"kg":12017,"Ġrewrite":12018,"audio":12019,"gination":12020,"Wallet":12021,"ĠAS":12022,"ĠDevelopment":12023,"Ġconvolutional":12024,"Chain":12025,"Ġrout":12026,"fall":12027,"Ġwarning":12028,"far":12029,"Ġconcerned":12030,"Strategy":12031,"Ġrobustness":12032,"rupted":12033,"Look":12034,"})}{":12035,"LOC":12036,"''.":12037,"subject":12038,"Ġsin":12039,"trary":12040,"orel":12041,"Ġparagraph":12042,"cepti":12043,"Ġshapes":12044,"Ġcuts":12045,"cosity":12046,"front":12047,"CONT":12048,"aped":12049,"Ġchecks":12050,"tency":12051,"ĠFrancis":12052,"messages":12053,"}}^\\":12054,"Bind":12055,"theses":12056,"})^{\\":12057,"1983":12058,"ĠGa":12059,"Ġboot":12060,"ĠWal":12061,"ordered":12062,"ĠEngine":12063,"aming":12064,"ĠOrder":12065,"Ä±":12066,"Usage":12067,"Ġnuclei":12068,"+}":12069,"arma":12070,"rain":12071,"tuple":12072,"Ġgamma":12073,"Failure":12074,"ĠBill":12075,"\\\\[":12076,"vdash":12077,"xhtml":12078,"Serializer":12079,"yc":12080,"ĠBal":12081,"Ġequivalently":12082,"Fs":12083,"Env":12084,"Ġfragment":12085,"ona":12086,"paren":12087,"gral":12088,"^*}":12089,"ranes":12090,"Members":12091,"Ġplanar":12092,"à¸":12093,"IOException":12094,"kins":12095,"RM":12096,"WORD":12097,"Ġcancer":12098,"ulted":12099,"GAN":12100,"Ġ_.":12101,"Ġdiscrep":12102,"Ġhear":12103,"gov":12104,"135":12105,"DULE":12106,"Ġlegis":12107,"åĪ":12108,"Ġphenomena":12109,"Raw":12110,"115":12111,"EEEEFF":12112,"Ġrelies":12113,"Ġmoder":12114,"ĠRight":12115,"ceq":12116,"]}$":12117,"apacity":12118,"database":12119,"ĠCongress":12120,"Groups":12121,"350":12122,"Ġsb":12123,"ario":12124,"Ġsumm":12125,"Ġmanaged":12126,"lligence":12127,"ceeded":12128,"VI":12129,"Ġ?>":12130,"Ġnoisy":12131,"Ġnontrivial":12132,"ĠLast":12133,"Ġtimestamp":12134,"fake":12135,"Ġteams":12136,"Ġenvironmental":12137,"homogeneous":12138,"className":12139,"ĠKore":12140,"apos":12141,"Ġrever":12142,"Ġfake":12143,"Ġgather":12144,"Require":12145,"Super":12146,"}\\,,":12147,"}{!":12148,"Ġequipped":12149,"diagonal":12150,"tables":12151,"eto":12152,"identif":12153,"ĠLin":12154,"->]":12155,"Ġconcrete":12156,"Ġapproximated":12157,"reason":12158,"Ġseek":12159,"STRING":12160,"Ga":12161,"ĠSocial":12162,"Decl":12163,"uf":12164,"ĠCentral":12165,"Ġconsumption":12166,"Ġneutrinos":12167,"bian":12168,"ĠComple":12169,"canvas":12170,"liament":12171,"Ġprocessed":12172,"ĠAnalysis":12173,"Ġdetermination":12174,"Ġdictionary":12175,"Ġshadow":12176,"Through":12177,"ATOR":12178,"Ġdescent":12179,"Ġoutcomes":12180,"ĠAI":12181,"Ġdifficulty":12182,"NET":12183,"Ġcomposite":12184,"acknow":12185,"ĠIter":12186,"tbl":12187,"ichlet":12188,"Ġtension":12189,"ered":12190,">;":12191,"bus":12192,"corr":12193,"mentioned":12194,"ĠDeep":12195,"Ġtried":12196,"|}{\\":12197,"rust":12198,"ĠRussian":12199,"Ġexcellent":12200,"ĠBol":12201,"NotFound":12202,"ÏĦ":12203,"kh":12204,"})^{-":12205,"Ġeconomy":12206,"Bel":12207,"Ġpump":12208,"Ġple":12209,"Ġmechanics":12210,"UES":12211,"ĠArab":12212,"Ġguess":12213,"scalar":12214,"tention":12215,"Ġtunnel":12216,"ĠHill":12217,"Ġobtains":12218,"uality":12219,"everal":12220,"RAY":12221,"RPC":12222,"Indic":12223,"algo":12224,"FW":12225,"Ġcharacterization":12226,"Ġadaptive":12227,"Ġwants":12228,"Fil":12229,"mr":12230,"ĠIsland":12231,"Abs":12232,"Ġgover":12233,"Ġwaiting":12234,"Split":12235,"Ġvaries":12236,"240":12237,"reatest":12238,"Ġinspired":12239,"BY":12240,"ĠNevertheless":12241,"Ġdescriptor":12242,"Ġpreferred":12243,"Ġprotection":12244,"Ġclaimed":12245,"ĠFlor":12246,"Ġul":12247,"']);":12248,"mentations":12249,"cop":12250,"Ġmultiplic":12251,"pto":12252,"Ġshot":12253,"Ġfluxes":12254,"ĠBased":12255,"Ġwhom":12256,"lag":12257,"ĠFOR":12258,"Med":12259,"Ġ)\\":12260,"beq":12261,"geqslant":12262,"Ġformally":12263,"Ġmodeled":12264,"umann":12265,"Ġtd":12266,"Ġphon":12267,"ĠEND":12268,"World":12269,"Ġ[-":12270,"deprecated":12271,"Ġcoq":12272,"strip":12273,"ffers":12274,"guide":12275,"Ġgraded":12276,"adic":12277,"geo":12278,"John":12279,"Ġattempts":12280,"ras":12281,"warz":12282,"bec":12283,"uracy":12284,"Ġdispatch":12285,"cha":12286,"ĠHome":12287,"velocity":12288,"<<":12289,"cfg":12290,"Ġcollege":12291,"Ġboxes":12292,"144":12293,"Ġadvanced":12294,"ĠTechnology":12295,"rules":12296,"ssl":12297,"Ġpref":12298,"dem":12299,"FFER":12300,"192":12301,"Ġprovision":12302,"Ġasymmetry":12303,"ĠSNR":12304,"ilinear":12305,"Ġcapable":12306,"Ġms":12307,"tificial":12308,"ĠØ":12309,"KK":12310,"Ġspeaking":12311,"NRAS":12312,"INSERT":12313,"ATED":12314,"Ġconcerning":12315,"Sol":12316,"ĠAdmin":12317,"colsep":12318,"Ġcompetition":12319,"Ġ'.":12320,"Ġepochs":12321,"Ġpeace":12322,"Ġadvance":12323,"contact":12324,"Ġarrange":12325,"ĠAlice":12326,"assertTrue":12327,"ĠSpe":12328,"Ġastro":12329,"dataset":12330,"emit":12331,"ĠPolicy":12332,"icago":12333,"Ġsuppressed":12334,"ĠSW":12335,"ĠHuman":12336,"ĠNE":12337,"Ġdeviations":12338,"ssue":12339,"Ġoriented":12340,"Stop":12341,"disk":12342,"ĠCELL":12343,"parame":12344,"ĠProv":12345,"YY":12346,"ĠWAR":12347,"ĠWestern":12348,"isting":12349,"rames":12350,"hold":12351,"Ġpole":12352,"MPL":12353,"ĠBusiness":12354,"Lie":12355,"Email":12356,"Folder":12357,"NU":12358,"ĠOutput":12359,"ielding":12360,"NI":12361,"NavBarFont":12362,"ä»":12363,"ritory":12364,"sis":12365,"108":12366,"sipation":12367,"attach":12368,"lc":12369,"Ġoverview":12370,"Ġworse":12371,"Ġlogical":12372,"Renderer":12373,"ĠLcom":12374,"correlation":12375,")}}\\":12376,"Ġadmit":12377,"Zone":12378,"Focus":12379,"Ġexerc":12380,"tiful":12381,"Ġvalidity":12382,"uan":12383,"Ġadapted":12384,"}$&":12385,"tar":12386,"liminary":12387,"Light":12388,"Ġarr":12389,"Ġease":12390,"Ġcritic":12391,"Ġdivisor":12392,"Ġoil":12393,"rick":12394,"ĠCurrent":12395,"Ġconsequences":12396,"ĠLHC":12397,"Ġconsecutive":12398,"rceil":12399,"ĠPython":12400,"ĠNa":12401,"RESU":12402,"rarily":12403,"Dom":12404,").$":12405,"ĠSeries":12406,"Ġnewly":12407,"appendix":12408,"ĠSpa":12409,"Ġvoice":12410,"theo":12411,"ĠWeyl":12412,"Ġroles":12413,"Ġassumes":12414,"Watch":12415,"Ġconvenience":12416,"Ġphotometric":12417,"\\).":12418,"ĠSIZE":12419,"Ġvirt":12420,"Observer":12421,"drag":12422,"zo":12423,"gel":12424,"Ġreligious":12425,"Ġfelt":12426,"ĠPop":12427,"}{-":12428,"Ġsal":12429,"changes":12430,"ĠLibrary":12431,"Ġepisode":12432,"ĠMiddle":12433,"vlet":12434,"Ġpartitions":12435,"ĠFigs":12436,"Ġdim":12437,"Ġ\\\"":12438,"samples":12439,"scatter":12440,"mats":12441,"))$,":12442,"ailability":12443,"dynamics":12444,"Ġgenus":12445,"scss":12446,"Messages":12447,"+{\\":12448,"Ġmeasuring":12449,"eigen":12450,"bone":12451,"abolic":12452,"periodic":12453,"Ġvictim":12454,"Ġhelped":12455,"Ġfunding":12456,"Ġphone":12457,"Gui":12458,"submit":12459,"Ġserves":12460,"cC":12461,"scalebox":12462,"Declaration":12463,"Ġmechanical":12464,"Gaussian":12465,"ĠHa":12466,"Ġhappened":12467,"aste":12468,"eno":12469,"Ġsecure":12470,"abatic":12471,"=\\\"":12472,"Resolver":12473,"scan":12474,"fetch":12475,"swarm":12476,"Ġeffectiveness":12477,"Ġannual":12478,"Ġhandling":12479,"ĠServices":12480,"{}{":12481,"),\\\\":12482,"identity":12483,"blog":12484,"oli":12485,"1982":12486,"ĠSpr":12487,"Ġ<-":12488,".(":12489,"contrib":12490,"ictor":12491,"Ġdri":12492,"Ġaccurately":12493,"--\\":12494,">)":12495,"Vec":12496,"ĠLL":12497,"GroupName":12498,"Mapper":12499,"Ã³n":12500,"Ġsupply":12501,"titive":12502,"/\"":12503,"ittle":12504,"ĠBuild":12505,"Remote":12506,"^*_{":12507,"udies":12508,"Har":12509,"anda":12510,"Information":12511,"Further":12512,"lceil":12513,"Ġ}(":12514,"}=-":12515,"VO":12516,"NL":12517,"Library":12518,"ĠDescription":12519,"eref":12520,"best":12521,"Ġregarded":12522,"Ġradiative":12523,"Ġcompris":12524,"Ġeigens":12525,"Ġarising":12526,"water":12527,"lint":12528,"_{|":12529,"Ġsongs":12530,"ĠChe":12531,"created":12532,"270":12533,"Rows":12534,"riteria":12535,"versely":12536,"ĠCoulomb":12537,"Ġsupporting":12538,"ĠCreates":12539,"Ġchunk":12540,"ĠRic":12541,":@\"":12542,"Ġslot":12543,"Bl":12544,"rants":12545,"Ġdup":12546,"Ġanyone":12547,"Ġanten":12548,"Bi":12549,"icular":12550,"traction":12551,"Html":12552,"Ġpossess":12553,"ĠJes":12554,"}'$":12555,".\\]":12556,"Ġbecoming":12557,"Ġbounding":12558,"HEAD":12559,"Partition":12560,"Counter":12561,"Ġequally":12562,"rypted":12563,"dh":12564,"CNN":12565,"Ġspins":12566,"Ġquantitative":12567,"Cmd":12568,"Ġiterator":12569,"Ġdiversity":12570,"Ġanomaly":12571,".\"\"\"":12572,"life":12573,"Ġadjoint":12574,"Ġpairwise":12575,"TY":12576,"ĠScot":12577,"Validator":12578,"pn":12579,"Ġproportion":12580,"Related":12581,"ddot":12582,"brack":12583,"wildfly":12584,"alaxy":12585,"Timer":12586,"gery":12587,"ĠFacebook":12588,"ĠCF":12589,"ĠResponse":12590,"ĠIr":12591,"glyphicon":12592,"Ġfamous":12593,"Ġreconstructed":12594,"ĠIllegal":12595,"Ġadditive":12596,"ĠYour":12597,"lov":12598,".;":12599,"*,":12600,"gazine":12601,"Ġsimplest":12602,"ĠRichard":12603,"Touch":12604,"ĠSimple":12605,"ĠTag":12606,"themes":12607,"ĠAv":12608,"Ġprocedures":12609,"ĠAbstract":12610,"idelity":12611,"Ġ'',":12612,"currency":12613,"Ġidentifying":12614,"trical":12615,"Ġsun":12616,"ÛĮ":12617,"oration":12618,"ĠRock":12619,"@{\\":12620,"opf":12621,"Ġsimpler":12622,"ONG":12623,"atar":12624,"Ġexploration":12625,"upload":12626,"Ġmaybe":12627,"Der":12628,"Ġice":12629,"lica":12630,"Ġpaid":12631,"mps":12632,"Ġbla":12633,"elcome":12634,"assumption":12635,"lipse":12636,",'":12637,"lector":12638,"$^{\\":12639,"}}{(":12640,"ĠSimilar":12641,"Ġsole":12642,"Ġindependence":12643,"(\"%":12644,"directory":12645,"Ġatmosphere":12646,"these":12647,"_{\\{":12648,"lee":12649,"apt":12650,"Ġdrift":12651,"Ġgal":12652,"Ġregardless":12653,")$$":12654,"Ġlifetime":12655,"degenerate":12656,"ĠDu":12657,"Ġadds":12658,"Ġoutflow":12659,"\\@":12660,"Ġmarried":12661,"ores":12662,"ulator":12663,"Ġbrightness":12664,"Ġopinion":12665,"assandra":12666,"Ġknew":12667,"locale":12668,"ĠLine":12669,"addle":12670,"Ġpermission":12671,"ĠALIGN":12672,"Ġassertion":12673,"Ġele":12674,"Ġcoincide":12675,"Ġig":12676,"Ġletters":12677,"Ġcf":12678,"Ġpieces":12679,"Ġdst":12680,"Verify":12681,"Ġannotation":12682,"icode":12683,"Ġinvariants":12684,"AST":12685,"isset":12686,"je":12687,"]_{\\":12688,"$^\\":12689,"Ġproving":12690,"Errors":12691,"riage":12692,"plain":12693,"Ġimproves":12694,"ORTED":12695,"0001":12696,"ĠĠĠĠĠĠĠĠĠĠĠĠĠĠĠĠĠĠĠĠĠĠĠĠĠĠĠĠĠĠĠĠĠĠĠĠĠĠĠĠĠĠĠĠĠĠĠ":12697,"sell":12698,"Ġflight":12699,"Ġarchitectures":12700,"Release":12701,"ĠRoyal":12702,"Ġrequiring":12703,"Ġreti":12704,")_\\":12705,"Ġimposed":12706,"Ġelif":12707,"){$":12708,"Ġinitialization":12709,"Ġremainder":12710,"Ġflavor":12711,"spacing":12712,"Ġquantization":12713,"Ġsummarize":12714,"Ġ\\\\\\":12715,"Ġsocket":12716,"Ġ----------------------------------------------------------------":12717,"Ġ|=":12718,"ĠRussia":12719,"AUT":12720,"arisons":12721,"ĉĉĉĉĊ":12722,"four":12723,"Ġsmart":12724,"repeat":12725,"ĠMu":12726,"Ġreject":12727,"Spr":12728,"Ġincoming":12729,"%%%%%%%%":12730,"atio":12731,"information":12732,"Ġcharacterize":12733,"BN":12734,"Bool":12735,"tem":12736,"oids":12737,"hh":12738,"MeV":12739,"ARB":12740,"classical":12741,"|}\\":12742,"Ġgrows":12743,"ĠCC":12744,"RESULT":12745,"highlight":12746,"Ġoverflow":12747,"Ġfrequently":12748,"features":12749,"Equation":12750,"etro":12751,"dispatch":12752,"Ġeng":12753,"rison":12754,"Ġkinds":12755,"/_":12756,"Ġparad":12757,"Ġpairing":12758,"holds":12759,"Ġheur":12760,"isher":12761,"Ġrev":12762,"coll":12763,"ĠWIT":12764,"ĠEcon":12765,"Card":12766,"Îµ":12767,"Ġgun":12768,"ĠPromise":12769,"Ġcredit":12770,"\\,$":12771,"Ġexcluded":12772,"_)":12773,"ĠCamp":12774,"aka":12775,"During":12776,"Ġarrive":12777,"Lat":12778,"ithmetic":12779,"Ġpermissions":12780,"turbed":12781,"weighted":12782,"Ġbarrier":12783,"ĠPFNGL":12784,"1960":12785,"Ġrealization":12786,"transaction":12787,"Ġverification":12788,"}};":12789,"ĠSF":12790,"Ġtotally":12791,"hpp":12792,"Ã¨":12793,"Transport":12794,"ĠPeople":12795,"Ġproducing":12796,"sho":12797,"Ind":12798,"ĠArmy":12799,"mating":12800,"Ġobserving":12801,"RF":12802,"seen":12803,"vanced":12804,"bundle":12805,"Ġsaved":12806,"ola":12807,"Ġdaughter":12808,"Encoding":12809,"((\\":12810,"thin":12811,"hot":12812,"Ġexhibits":12813,"Ġnoting":12814,"Ġaims":12815,"batim":12816,"Ġcontour":12817,"ĠColumn":12818,"Ġdrug":12819,"Ġsums":12820,"Ġbranching":12821,"rk":12822,"itar":12823,"æľ":12824,"Ġmultiplicity":12825,"Ġimprovements":12826,"Ġskew":12827,"ĠManagement":12828,"ĠCSS":12829,"Ġpatient":12830,"ĠForce":12831,"~~~":12832,"Ġreasoning":12833,"haser":12834,"}),\\":12835,"columns":12836,"%)":12837,"Overview":12838,"adj":12839,"ĠReal":12840,"ĠĠĠĠĠĠĠĠĠĠĠĠĠĠĠĠĠĠĠĠĠĠĠĠĠĠĠĠĠĠĠĠĠĠ":12841,"MNRAS":12842,"1979":12843,"May":12844,"Ġsea":12845,"ĠCri":12846,"Ġmotivated":12847,"asp":12848,"Put":12849,"variate":12850,"ĉĠĠĠĠĠĠĠĠĠĠĠĠĠĠĠ":12851,"*{\\":12852,"Labels":12853,"Ġperturbative":12854,"pref":12855,"Ġsigns":12856,"Î¹":12857,"Ġvideos":12858,"keep":12859,"raq":12860,"Ġfactorization":12861,"fficient":12862,"ARD":12863,"Ġsquared":12864,"ĠDeta":12865,"Ġcollective":12866,"DEX":12867,"Ġdiverse":12868,"pendicular":12869,"ĠRO":12870,"umulative":12871,"FIE":12872,"ĠCauchy":12873,"ĠGrant":12874,"cov":12875,"ĠApache":12876,"/***/":12877,"INST":12878,"chro":12879,"rove":12880,"filled":12881,"Weight":12882,"Ġns":12883,"1981":12884,"Ġcompiler":12885,"Ġextinction":12886,"Ġdeterminant":12887,"ï¼Į":12888,"Ġsup":12889,"constraint":12890,"Ġinferred":12891,"geometry":12892,"cmp":12893,"NODE":12894,"ĠTeV":12895,"ĠDR":12896,"Contains":12897,"defer":12898,"cting":12899,"Ġcoarse":12900,"Ġforecast":12901,"ĠId":12902,"Ġiff":12903,"Conclusions":12904,"gic":12905,"SCRIPT":12906,"Standard":12907,"blob":12908,"Ġmodal":12909,"Ġtit":12910,"Ġsatellite":12911,"Ġnm":12912,"Ġbid":12913,"Ġ\".":12914,"Ġmeasurable":12915,"Ġentered":12916,"dor":12917,"present":12918,"Ġ$_":12919,"encode":12920,"ĠkeV":12921,"Ġorganizations":12922,"Ġfs":12923,"lices":12924,"Future":12925,"ĠSpecial":12926,"Ġinfrastructure":12927,"Contact":12928,"Vol":12929,"Ġexpensive":12930,"Ġchecking":12931,"Ġnested":12932,"ĠRegion":12933,"ĠMean":12934,"Ġrotational":12935,"MODULE":12936,"Agg":12937,"HERE":12938,"Ġconcaten":12939,"Signature":12940,"Ġliter":12941,"Should":12942,"Processor":12943,"atever":12944,"^*,":12945,"ĠBank":12946,"ĠSP":12947,"risis":12948,"Acknowledge":12949,"gue":12950,"had":12951,"ĠLearning":12952,"ignore":12953,"107":12954,"inality":12955,"VID":12956,"Material":12957,"}$~":12958,"GT":12959,"Ġtre":12960,"Ġarbitrarily":12961,"ruption":12962,"reement":12963,"Exists":12964,"Ġincrement":12965,"Ġbegins":12966,"bean":12967,"autiful":12968,"resolved":12969,"docker":12970,"istence":12971,"Ġ-=":12972,"Ġstock":12973,"Ġheard":12974,"Ġarrow":12975,"Transition":12976,"lymp":12977,"theore":12978,"Ġplain":12979,"Ġblood":12980,"Ġfemale":12981,"ĠWARRAN":12982,"toBe":12983,"Ġcb":12984,"erved":12985,"Ġinsight":12986,"Ġrestrictions":12987,"Ġrm":12988,")}]":12989,"Ġvehicles":12990,"CONFIG":12991,"oreign":12992,"}\\,.":12993,"Ġshifted":12994,"Platform":12995,"\\),":12996,"ĠAustralian":12997,"ĠĠĠĠĠĠĠĠĠĊ":12998,")$)":12999,"follow":13000,"ĠGame":13001,"fff":13002,"Ġtorsion":13003,"central":13004,")-(":13005,"ĠFrank":13006,"METHOD":13007,"Ġindicator":13008,"Ġinjective":13009,"Zero":13010,"nova":13011,"ĠFind":13012,"utdown":13013,"urban":13014,"Ġbranches":13015,"Ġpriori":13016,"Ġmouse":13017,"localhost":13018,"RGB":13019,"ĠQuery":13020,"Ġstrain":13021,"Drag":13022,"ruby":13023,"lvert":13024,"Ġexperimentally":13025,"ĠLouis":13026,"ĠAssumption":13027,"ĠObama":13028,"Ġbind":13029,"Rel":13030,"reader":13031,"leton":13032,"encoding":13033,"Analy":13034,"pred":13035,"relevant":13036,"Ð°Ð½":13037,"esome":13038,"Ġaligned":13039,"tifications":13040,"due":13041,"ĠVirgin":13042,"ĉĉĉĉĉĉĉĉĉĉ":13043,"106":13044,"Ġgluon":13045,"Ġaccessible":13046,"Pixel":13047,"Ġcalib":13048,"inverse":13049,"FIELD":13050,"Newtonsoft":13051,"Ġstat":13052,"cient":13053,"ORDER":13054,"Ġobviously":13055,"ĠConst":13056,"Ġray":13057,"Ġaxi":13058,"accept":13059,"Without":13060,"Ġsummer":13061,"Ġrenormalization":13062,"Ġactor":13063,"sent":13064,"diagram":13065,"Ġvariants":13066,"tainment":13067,"ĠCarol":13068,"Ġdisplacement":13069,"ĠEV":13070,"103":13071,"Ġcities":13072,"ĠHD":13073,"osted":13074,"satz":13075,"getId":13076,"stances":13077,"Ġmur":13078,"riers":13079,"},$":13080,"Ġextrem":13081,"Ġworker":13082,"likely":13083,"Arguments":13084,"Ġadapt":13085,"ĠCirc":13086,"tuning":13087,"Ġheating":13088,"folio":13089,"ĠDEFAULT":13090,"illisec":13091,"Ġstrug":13092,"PROJECT":13093,"Both":13094,"raries":13095,"Expected":13096,"Ġjs":13097,"Ġviscosity":13098,"ĠConfiguration":13099,"reedy":13100,"Ġprox":13101,"multiple":13102,"Ġdemonstrates":13103,"estion":13104,"singular":13105,"unched":13106,"Ġchapter":13107,"rie":13108,")$;":13109,"commons":13110,"linder":13111,"Dimension":13112,"\"].":13113,"Ġinvestment":13114,"Ġcultural":13115,"topic":13116,"Ġfre":13117,"Ġsensors":13118,"Ġdecoup":13119,"ĠAndroid":13120,"Ġincorrect":13121,"$~\\":13122,"Ġquarter":13123,"zi":13124,"Ġdisable":13125,"Ġadmissible":13126,"Ġbold":13127,"109":13128,"ĠFlorida":13129,"Ġgender":13130,"Ġdecide":13131,"Ġsched":13132,"atre":13133,"entropy":13134,"Ġinitialized":13135,"ĠAP":13136,"Ġillustrates":13137,"ĠAmericans":13138,"fav":13139,"%\"":13140,"ĠDelete":13141,"udent":13142,"Corollary":13143,"Dr":13144,"pur":13145,"ĠHaw":13146,"Ġaddressed":13147,"Ġdistrict":13148,"Where":13149,"ĠINTO":13150,"transport":13151,"Ġ\\)":13152,"Segment":13153,"Ġarri":13154,"ipment":13155,"ĠPlease":13156,"Ġfewer":13157,"Ġengineering":13158,"Ġinversion":13159,"Ġconsiders":13160,"Ġappendix":13161,"Most":13162,"Ġbelieved":13163,"ĠeV":13164,"branch":13165,"ĠAcademy":13166,"Ġdaily":13167,"Holder":13168,"remote":13169,"Depth":13170,"Ġshorter":13171,"Ġparsed":13172,"speed":13173,"Ġpan":13174,"Ġparton":13175,"}:\\":13176,"Ġaffects":13177,"igner":13178,"Ġsuperconduct":13179,"every":13180,"links":13181,"lacian":13182,"ĠCL":13183,"etc":13184,"ĠByte":13185,"Center":13186,"ĠGood":13187,"wik":13188,"Ġmassless":13189,"Ġbridge":13190,"Ġapart":13191,"118":13192,"Navigation":13193,"Ġambigu":13194,"Shader":13195,"Idx":13196,"{}\\":13197,"eth":13198,"Ġ'\"":13199,"ĠAnn":13200,"Ġoutline":13201,"Ġvisibility":13202,"ĠUSA":13203,"Ġdiscover":13204,"Ġaveraging":13205,"Ġprojections":13206,"Ġzeros":13207,"ĠUniverse":13208,"LOW":13209,"çĶ":13210,"proc":13211,"Ġlongitudinal":13212,"Ġeye":13213,"warded":13214,"ologically":13215,"Ġpreserves":13216,"Dynamic":13217,"175":13218,"ĠServer":13219,"Ġnice":13220,"ĠBet":13221,"OwnProperty":13222,"})+":13223,"Ġrein":13224,"icial":13225,"Optim":13226,"Ġcurrents":13227,"ĠContext":13228,"ĠRoad":13229,"signal":13230,"actual":13231,"Dem":13232,"Term":13233,"Ġdiffe":13234,"door":13235,"tainers":13236,"Ġoffered":13237,"Ġartist":13238,"Ġgoverning":13239,"WIN":13240,"ora":13241,"Ġnotes":13242,"ĠApplication":13243,"Ġmutual":13244,"Metrics":13245,"Ġtopics":13246,"ĠMi":13247,"ĠThrough":13248,"tism":13249,"overrightarrow":13250,"10000":13251,"Ø±":13252,"Ġhomology":13253,"auss":13254,"mators":13255,"wing":13256,"lectric":13257,"ĠRepres":13258,"Ġcompleteness":13259,"goti":13260,"ĠLee":13261,"ĠNAV":13262,"Ġadaptation":13263,"GER":13264,"Ġdip":13265,"flux":13266,"Ġcontroll":13267,"ĠLos":13268,"Optional":13269,"Deep":13270,"ĠInternet":13271,"Ġliber":13272,"Ġthinking":13273,"ĠCommon":13274,"Ġexposure":13275,"USY":13276,"('./":13277,"except":13278,"Separ":13279,">[":13280,"ĠAdS":13281,"pus":13282,"ĠclassName":13283,"cean":13284,"))^":13285,"Ġtoler":13286,"Rules":13287,"leading":13288,"ĠMartin":13289,"viously":13290,"\\%,":13291,"Ġinvertible":13292,"ustice":13293,"Compiler":13294,"Ġsends":13295,"Ġbases":13296,"Ġvortex":13297,"Structure":13298,"romagnetic":13299,"Ġcalculating":13300,"ĠON":13301,"Ġmeson":13302,"Ġwild":13303,"Ġexcitations":13304,"iger":13305,"ĠRandom":13306,"Ġprepared":13307,"Ġ\\%":13308,"equilibrium":13309,"ĠContent":13310,"gz":13311,"gas":13312,"Ġpenalty":13313,"Ġsync":13314,"ĠĠĠĠĠĠĠĠĠĠĠĠĠĠĠĠĠĠĠĠĠĠĠĠĠĠĠĠĠĠĠĠĠĠĠĠ":13315,"Ġguaranteed":13316,"ĠWell":13317,"Ġidentities":13318,"bn":13319,"leted":13320,"Ġbodies":13321,"UST":13322,"Ġmale":13323,"ĠCore":13324,"itecture":13325,"remarks":13326,"ĠCatholic":13327,"Ġadi":13328,"ĠRay":13329,"Contents":13330,"Ġgiant":13331,"Install":13332,"govern":13333,"PHP":13334,"ĠRights":13335,"Ġrings":13336,"ijk":13337,"igan":13338,"Attach":13339,"ĠPass":13340,"Ġacknowledge":13341,"Fixed":13342,"Ġarrays":13343,"mathrel":13344,"å®":13345,"ĠBell":13346,"Please":13347,"Ġweaker":13348,"basis":13349,"Management":13350,"ĠSupport":13351,"Ġwx":13352,"decay":13353,"Ġobe":13354,"Ġthereby":13355,"Ġreplacement":13356,"ĠMad":13357,"Ġpayload":13358,"Ġexpanding":13359,"Ġclone":13360,"ĠAnge":13361,"rint":13362,"algebras":13363,"Ġcovariant":13364,"quee":13365,"Ġterminal":13366,"Prov":13367,"plots":13368,"Ġreceiving":13369,"spectrum":13370,"Ti":13371,"silon":13372,"succ":13373,"ĠBrow":13374,"effective":13375,"^+(":13376,"Tuple":13377,"sz":13378,"sume":13379,"hookrightarrow":13380,"oving":13381,"Ġur":13382,"ensively":13383,"Ġprece":13384,"gar":13385,"ĠSect":13386,"003":13387,"netes":13388,"Ġautomorphism":13389,"generator":13390,"coupling":13391,"Ġclosest":13392,"Gal":13393,"Da":13394,"About":13395,"Tok":13396,"Theme":13397,"Ġargued":13398,"ticular":13399,"named":13400,"âĢĿ,":13401,"ĠReport":13402,"MN":13403,"generic":13404,"ubernetes":13405,"Ġvon":13406,"Dispatch":13407,"ragma":13408,"IZ":13409,"Ġaw":13410,"{#":13411,"medium":13412,"Ġinsur":13413,"ĠFR":13414,"ositions":13415,"GHz":13416,"Ġgeneralize":13417,"ĉĉĉĉĉĉĊ":13418,"Il":13419,"Timestamp":13420,"Columns":13421,"scopy":13422,"eeq":13423,"Ca":13424,"ĠResult":13425,"ĠCanadian":13426,"Connect":13427,"reland":13428,"Packet":13429,"tia":13430,"rial":13431,"Ġintegrating":13432,"}\\|\\":13433,"ĠallClasses":13434,"atom":13435,"}{.":13436,"ĠFa":13437,"Ġphilo":13438,"ĠWomen":13439,"ĠDA":13440,"ĠNAS":13441,"Ġsight":13442,")\\|_{":13443,"Ġintroduces":13444,"ĉĠĠĠĠĠĠĠĠ":13445,"Ġprison":13446,"Ġconference":13447,"|,":13448,"})}{\\":13449,"ĠIC":13450,"ĠIden":13451,"Ġterror":13452,"iro":13453,"ĠReview":13454,"Ġglass":13455,"Ġdecoding":13456,"servations":13457,"Ġsemantics":13458,"Even":13459,"question":13460,"Virtual":13461,".]":13462,"Ġfetch":13463,"Ġadministration":13464,"ĠCommand":13465,"Ġmonitoring":13466,"ĠAM":13467,"addClass":13468,"Ġbare":13469,"URCE":13470,"ĠallClassesLink":13471,"ĠTom":13472,"pen":13473,"wx":13474,"latforms":13475,"Mc":13476,"Ġkernels":13477,"Ġhex":13478,"eties":13479,"ointed":13480,"Ġdisks":13481,"Ġampl":13482,"|$.":13483,"Ġpartner":13484,"Ġphiloso":13485,"HI":13486,"UAL":13487,"thrift":13488,"ĠPres":13489,"upsilon":13490,"dst":13491,"Ġcategor":13492,"Ġforming":13493,"Ġcontamin":13494,"Ġdifferentiable":13495,"Ġrob":13496,"nie":13497,"ĠOffic":13498,"Ġtherein":13499,"systems":13500,"Ġprobabilistic":13501,"Ġincomp":13502,"ĠLay":13503,"Ġcenters":13504,"White":13505,"Ġsimulate":13506,"creens":13507,"/\">":13508,"Calc":13509,"Ġbond":13510,"roke":13511,"Ġtriangles":13512,"grounds":13513,"Ġabundances":13514,"ĠSil":13515,"Ġbosons":13516,"Ġlift":13517,"sampling":13518,"Ġwitness":13519,"Ġfolder":13520,"Ġreceives":13521,"Ġqualitative":13522,"ipher":13523,"Scalar":13524,").\\":13525,"ĠUtil":13526,"Large":13527,"sil":13528,"Convert":13529,"tooltip":13530,"BUFFER":13531,"EG":13532,"Instruction":13533,"Dig":13534,"!}":13535,"ifferent":13536,"Points":13537,"Ġslowly":13538,"Ġfiltering":13539,"LIST":13540,"Linq":13541,"ĠIraq":13542,"Ġrotating":13543,"checkmark":13544,"getElementById":13545,"Ġthousands":13546,"Ġdict":13547,"Ġsupposed":13548,"ĠChicago":13549,"Ġintegrable":13550,"ĠPS":13551,"ĠCla":13552,"Ġcached":13553,"lits":13554,"amber":13555,"aby":13556,"=\"../../../../../../../":13557,"Prob":13558,"UNT":13559,"ĠCMB":13560,"olves":13561,"Ġvice":13562,"ĠHAL":13563,"Ġopportunities":13564,"ĠPower":13565,"}}-\\":13566,"Period":13567,"================================================================":13568,"Ġviolence":13569,"django":13570,"graded":13571,"Ġlogging":13572,"Switch":13573,"Cla":13574,"Ġsold":13575,"Ġprinciples":13576,"Ġsubgroups":13577,"Ġrepository":13578,"Insert":13579,"Ġartifact":13580,"VICE":13581,"ĠBrown":13582,"cker":13583,"Ġinterests":13584,"Ġens":13585,"Ġmig":13586,"Visual":13587,"Ġtuning":13588,"ĠNet":13589,"ircraft":13590,"Ġturbulence":13591,"ountain":13592,"Ð¾Ð²":13593,"Due":13594,"Ġ\"'":13595,"Ġreflected":13596,"representation":13597,"Opt":13598,"________":13599,"Ġmorphisms":13600,"RED":13601,"Ġcool":13602,")\",":13603,"ĠLjava":13604,"Reset":13605,"}\\|_{":13606,"ĠCup":13607,"Ġarrows":13608,"ortation":13609,"novation":13610,"ulner":13611,"Ġpm":13612,"114":13613,"Capture":13614,"Lib":13615,"PROP":13616,"Ġcoding":13617,"Ġdealing":13618,"ĠZend":13619,"Ġresidu":13620,"''$":13621,"Ġwrites":13622,"tors":13623,"Ġharmon":13624,"zation":13625,"Ġecc":13626,"}$};":13627,"odo":13628,"Ġoutperforms":13629,"natural":13630,"omer":13631,"Ġdimensionless":13632,"ĠOS":13633,"Ġformulated":13634,"'}{":13635,"Dependency":13636,"atern":13637,"seg":13638,"Detail":13639,".,][]{":13640,"rons":13641,"bos":13642,"ĠCharles":13643,"license":13644,"Ba":13645,"Models":13646,"Ġkpc":13647,"duc":13648,"Ġrecovered":13649,"Ġabuse":13650,"Ġpromising":13651,"ĠWhether":13652,"Remark":13653,"many":13654,"ifying":13655,"117":13656,"}--\\":13657,"otherwise":13658,"Permission":13659,"morph":13660,"ĠRefs":13661,"Ġwinning":13662,"ĠDim":13663,"does":13664,"Ġmodulation":13665,"Ġartists":13666,"ynchron":13667,"ĠÐ²":13668,"Ġimplications":13669,"ĠPA":13670,"*}\\":13671,"Ġunable":13672,"Tex":13673,"ĠVALUES":13674,"Ġcoherence":13675,"Ġions":13676,"ĠEU":13677,"LAS":13678,"Ġdeleted":13679,"1977":13680,"Ġevaluating":13681,"Literal":13682,"HL":13683,"Ġanomalous":13684,"Ġphotos":13685,"ĠJoseph":13686,"Ġcontinuously":13687,"Ġopposed":13688,"Ġimproving":13689,"physics":13690,"sites":13691,"Ret":13692,"Ġ'./":13693,"ĠPut":13694,"PhysRev":13695,"åĲ":13696,"Ġlepton":13697,"concat":13698,"ermitian":13699,"following":13700,"Place":13701,".}}":13702,"mv":13703,"major":13704,"Ġbuy":13705,"Ġoscillation":13706,"ipedia":13707,"fmf":13708,"Ġsurveys":13709,"ArrayList":13710,"iser":13711,"Cast":13712,"ĠCloud":13713,"Ġabsolutely":13714,"Ġtro":13715,"Ġsequential":13716,"Ġflav":13717,"Ġsales":13718,"Month":13719,"erg":13720,"Mix":13721,"abstract":13722,"Ġmeant":13723,"Ġminimizing":13724,"Ġsuscepti":13725,"React":13726,"dotted":13727,"ĠReference":13728,"Ġconcern":13729,"Ġblog":13730,"persist":13731,"worth":13732,"************************************************************************":13733,"Ġstrip":13734,"Ġcapabilities":13735,"ĠChange":13736,"Phase":13737,"ĠFrame":13738,"Ġvm":13739,"Ġrecognized":13740,"ĠClearly":13741,"recur":13742,"Ġrespond":13743,"Ġmodelling":13744,"Sort":13745,"Power":13746,"urate":13747,"Ġimpose":13748,"aled":13749,"navigation":13750,"Ġearth":13751,"Ġthermodynamic":13752,"hab":13753,"1978":13754,"Ġ=&":13755,"Uniform":13756,"ĠRam":13757,"review":13758,"Ġbackward":13759,"phen":13760,"Scan":13761,"rational":13762,"macro":13763,"Ġcontrary":13764,"Ġpasses":13765,"Ġconservative":13766,"Ġcores":13767,"Ġcorrected":13768,"Ġche":13769,"Lite":13770,"ĠNAVBAR":13771,"'})":13772,"ĠDC":13773,"124":13774,"ARG":13775,"}:=\\":13776,"download":13777,"ĠSR":13778,"Ġmini":13779,"Ġmodifications":13780,"Ġmedic":13781,"GEN":13782,"ictures":13783,"amiltonian":13784,"ĠLord":13785,"program":13786,",$$":13787,"Ġleak":13788,"Ġextending":13789,"Ġmethodology":13790,"history":13791,"Ġenvelope":13792,"Ġplaceholder":13793,"$]":13794,"Ġsubsequently":13795,"gressive":13796,"Consumer":13797,"Ġperpendicular":13798,"tm":13799,"convergence":13800,"alert":13801,"incipal":13802,"ĠTwitter":13803,"ĠSing":13804,"ĠRep":13805,"ĠUnit":13806,"alla":13807,"xtures":13808,"Ġhierarchical":13809,"Ġtransforms":13810,"Authentication":13811,"pad":13812,"Login":13813,"orial":13814,"Ġenhancement":13815,"Ġcomprehensive":13816,".][]{":13817,"Ġauthority":13818,"PN":13819,"convert":13820,";\"":13821,"orough":13822,"inten":13823,"Inner":13824,"lighted":13825,"onymous":13826,"Final":13827,"}=-\\":13828,"referred":13829,"ĠConf":13830,"attery":13831,"Ġcompliance":13832,"Ġoptimize":13833,"gauge":13834,"TRAN":13835,")\\)":13836,"cx":13837,"Ġevident":13838,"enario":13839,"Ġended":13840,"phot":13841,"Ġhide":13842,"ĠStream":13843,"Master":13844,"LIN":13845,"=%":13846,"Delay":13847,"116":13848,"^+_":13849,"alias":13850,"ĠPl":13851,"ĠMel":13852,"Poly":13853,"Snapshot":13854,"Ġreveals":13855,"ĠAli":13856,"cred":13857,"Ġarms":13858,"mac":13859,"days":13860,"Ġmagnitudes":13861,"bif":13862,"Ġdissipation":13863,"Missing":13864,"ĠDown":13865,"uning":13866,"Esti":13867,"Enable":13868,"rn":13869,"ACH":13870,"His":13871,"FALSE":13872,"Ġspecification":13873,"ĠRiemannian":13874,"æĸ":13875,"ournals":13876,"Ear":13877,"Ġbath":13878,"Î½":13879,"Ġdanger":13880,"Ð¿":13881,"cdn":13882,"STATUS":13883,"Ġuniqueness":13884,"ĠJapanese":13885,"ĠÑģ":13886,"derr":13887,"matches":13888,"Self":13889,"inject":13890,"near":13891,"Ġremained":13892,"pagation":13893,"Ġmerger":13894,"¿½":13895,"balance":13896,"reds":13897,"jax":13898,"sections":13899,"Ġassociate":13900,"Ġprices":13901,"Ã£":13902,"ometer":13903,"Om":13904,"ĠJewish":13905,"(['":13906,"Ġdevo":13907,"implies":13908,"Bits":13909,"erce":13910,"Ġreadily":13911,"Ġredshifts":13912,"ĠTree":13913,"news":13914,"ĠRGB":13915,"ongo":13916,"Drop":13917,"]->":13918,"COMM":13919,"ruit":13920,"Every":13921,"}$\\\\":13922,"ĠCentre":13923,"Ġgates":13924,"Ġsentences":13925,"texture":13926,"tection":13927,"LEMENT":13928,"Ġinstructions":13929,">()":13930,".\\,\\":13931,"Ġsell":13932,"Ġburn":13933,"!(":13934,"Ġpending":13935,"Ġbug":13936,"Ġbundles":13937,"Ġisland":13938,"ĠSA":13939,"Ġinterfer":13940,"Prev":13941,"pixel":13942,"spectral":13943,"Ġnotations":13944,"|\\,":13945,"iences":13946,"extensions":13947,"lementary":13948,"ĠEnter":13949,"references":13950,"Coun":13951,"Enumerable":13952,"uu":13953,"oping":13954,"Console":13955,"POS":13956,"quet":13957,"scaling":13958,"ĠCross":13959,"oustic":13960,"Ġgoto":13961,"production":13962,"Ġcos":13963,"decl":13964,"ĠParse":13965,"Ġcitizens":13966,"ĠOP":13967,"Ġrescal":13968,"timestamp":13969,"ulse":13970,"micro":13971,"tration":13972,"displayName":13973,"getInstance":13974,"okes":13975,"sass":13976,"Contract":13977,",+":13978,"Discussion":13979,"Ġdots":13980,"tv":13981,"Ġcollaboration":13982,"translate":13983,"limin":13984,"ANG":13985,"ĠĠĠĠĠĠĠĠĠĠĊ":13986,"ĠParis":13987,"122":13988,"Ġmodulo":13989,"pert":13990,"ĠMeta":13991,"Ġestimating":13992,"ches":13993,"rates":13994,"ppings":13995,"warn":13996,"riday":13997,"Ġnucleus":13998,"ĠÂ£":13999,"Ġdamage":14000,"gric":14001,"Ġchose":14002,"ĠMethods":14003,"Act":14004,"ĠSFR":14005,"Lem":14006,"timer":14007,"}}{{\\":14008,"triangleq":14009,"Ġrid":14010,"\"];":14011,"paths":14012,"ilevel":14013,"COM":14014,"Ġregimes":14015,"rvert":14016,"urer":14017,"Ġpc":14018,"eel":14019,"ifiers":14020,"ĠBanach":14021,"Ġfacilities":14022,"Ġprominent":14023,"dia":14024,"Ġrail":14025,"Ġsubjects":14026,"170":14027,"they":14028,"average":14029,"Ġstuff":14030,"ctable":14031,"Ġreturning":14032,"ĠCG":14033,"BOOL":14034,"Ġdownload":14035,"Seq":14036,"Ġexplains":14037,"MSE":14038,"OL":14039,"Ġbelonging":14040,"900":14041,"Ġcontradic":14042,",\\,\\,\\,\\":14043,"mobile":14044,"ĠMuslim":14045,"WI":14046,"ktop":14047,"minimum":14048,"logo":14049,"Typ":14050,"Appendix":14051,"Ġ'_":14052,"ĠHandle":14053,"Ġconsumer":14054,"Ġreactions":14055,"Ġmonomial":14056,"members":14057,"answer":14058,"Ġaward":14059,"ARRAY":14060,"TAG":14061,"ĠCe":14062,"ĠJS":14063,"509":14064,"necess":14065,"decre":14066,"ĠProfessor":14067,"ĠKE":14068,"usr":14069,":'":14070,"ĠWithout":14071,"ĠBuilder":14072,"mq":14073,"ĠPan":14074,"Ġbis":14075,"Features":14076,"Ġstyles":14077,"sources":14078,"ĠFar":14079,"Ġpreserved":14080,"119":14081,"ĠDirichlet":14082,"unknown":14083,"Ġ}.":14084,"noalign":14085,"Ġrejected":14086,"gradle":14087,"orange":14088,"sson":14089,"Ġlived":14090,"Ġpolarized":14091,"Ġunlike":14092,"Ġconsiderations":14093,"heading":14094,"ĠThread":14095,"ulating":14096,"ĠKingdom":14097,"Metric":14098,"ĠDouble":14099,"Ġfairly":14100,"logging":14101,"Mean":14102,"Ġsorted":14103,"Ġiterative":14104,"ãĢĤ":14105,"Ġsemigroup":14106,"Diagnostics":14107,"Actions":14108,"bv":14109,"Ġdwarf":14110,"Emit":14111,"Ġresonances":14112,"{},":14113,"Ġincreasingly":14114,"VV":14115,"ĠEnvironment":14116,"Ġovercome":14117,"Ġstandards":14118,"1976":14119,"Ġarithmetic":14120,"ï¿½":14121,"Ġfiltered":14122,"ĠBorel":14123,"Ġdiffers":14124,"Ġneurons":14125,"lig":14126,"roadcast":14127,"rp":14128,"ĠAff":14129,"LETE":14130,"lux":14131,"Ġacademic":14132,"ĠBefore":14133,"Ġsyntax":14134,"Ġliteral":14135,"Ġleadership":14136,"Compat":14137,"Ġreaching":14138,"directed":14139,"OutputStream":14140,"ĠCorpor":14141,"Ġwalls":14142,"vy":14143,"Ġimg":14144,"Ġgray":14145,"Ġeverywhere":14146,"FD":14147,"ĠJe":14148,"Extensions":14149,"åħ":14150,"Dev":14151,"Ġpursu":14152,"{-}":14153,"ahler":14154,"ĠTheore":14155,"Ġacquired":14156,"Ġconsistently":14157,"\\%)":14158,"('<":14159,"Low":14160,"Ġshor":14161,"Ġdemoc":14162,"olo":14163,"Ġfunds":14164,"Ġemployees":14165,"Constraints":14166,"nipp":14167,"Ġhands":14168,"Ġspatially":14169,"adjoint":14170,"night":14171,"ĠPlay":14172,"Ġdestr":14173,"121":14174,"Ġgreatly":14175,"toolbar":14176,"Ġsketch":14177,"Ġwarm":14178,"variables":14179,"Ġomitted":14180,"Ġskills":14181,"Ty":14182,"Ġbreaks":14183,"century":14184,"licenses":14185,"avg":14186,"acity":14187,"Ġbucket":14188,".*;":14189,"Ð´":14190,"1975":14191,"tarea":14192,"Ġ&-":14193,"cert":14194,"Ġdivide":14195,"Win":14196,"Ġ'-":14197,"Ġtwist":14198,"Ġcanvas":14199,"Ġsupplied":14200,"Ġinset":14201,"anded":14202,"ĠPR":14203,"1974":14204,"bis":14205,"gency":14206,"peak":14207,"ĠassertTrue":14208,"Ġmono":14209,"keleton":14210,"ĠĠĠĠĠĠĠĠĠĠĠĠĠĠĠĠĠĠĠĠĠĠĠĠĠĠĠĠĠĠĠĠĠĠĠĠĠ":14211,"Ġretrieve":14212,"'].":14213,"Ġultimately":14214,"ĠRL":14215,"Serialization":14216,"ĠIreland":14217,"Ġcorollary":14218,"folder":14219,"Tasks":14220,"Au":14221,"Ġpeer":14222,"Supported":14223,"ĠRou":14224,"ĠClub":14225,"Ġthrown":14226,"Ġconstructing":14227,"Ġanc":14228,"Ġstats":14229,"isition":14230,"ois":14231,"Sen":14232,"Ġdisplays":14233,"zhang":14234,"Ignore":14235,"zim":14236,"bell":14237,".\\,":14238,"urated":14239,"ĠChannel":14240,"Ġdefe":14241,"Ġpoles":14242,"Ġreviews":14243,"contra":14244,"irs":14245,"verify":14246,"$\\%":14247,"precision":14248,"ĠPlanck":14249,"ĠFilter":14250,"(\"#":14251,"apped":14252,"ĠSL":14253,"Ġindirect":14254,"ocia":14255,"ĠPU":14256,"libs":14257,"ĠHenry":14258,"Ġswitching":14259,"itors":14260,"Ġranging":14261,"irable":14262,"Ġfloor":14263,"Ġknows":14264,"comb":14265,"Compar":14266,"temporary":14267,"IMIT":14268,"Feed":14269,"tie":14270,"Circ":14271,"Repe":14272,"choice":14273,"stall":14274,"nr":14275,"Ġposi":14276,"Ġinserted":14277,"particles":14278,")]{":14279,"^*$.":14280,"Ġteacher":14281,"Ġempha":14282,"Ġinjection":14283,"Ġannihilation":14284,"}^-":14285,"Ġplant":14286,"Ġdropped":14287,"Ġcrash":14288,"uuid":14289,"jectives":14290,"xygen":14291,"Ġoscillator":14292,"}\\{":14293,"ju":14294,"Ġvaluable":14295,"BASE":14296,"nam":14297,"Measure":14298,"Ġseeing":14299,")}^{":14300,"Tensor":14301,"pated":14302,"126":14303,"ĠWill":14304,"repo":14305,"ĠSunday":14306,"Ġaudience":14307,"ĠAngeles":14308,"Ġsolver":14309,"SPACE":14310,"Ġpointing":14311,"multiput":14312,"dw":14313,"ĠAccess":14314,"Like":14315,"ACCE":14316,"Ġdoll":14317,"ä½":14318,"Ġinterpo":14319,"Ġscienti":14320,"clock":14321,"ĠMA":14322,"ĠAddress":14323,"his":14324,"Runner":14325,"ĠComponent":14326,"Ã£o":14327,"Ġ{(":14328,"Ġaxes":14329,"Ġcod":14330,"Origin":14331,"ĠMD":14332,"Ġanisotropy":14333,"Ġtwisted":14334,"Ġmigration":14335,"Ġparabolic":14336,"ĠMiss":14337,"ĠRiemann":14338,"Tile":14339,"aki":14340,"ĠJohnson":14341,"verbatim":14342,"viewport":14343,"Ġrotate":14344,"Ġdelegate":14345,"ĠPhi":14346,"Ġpreserving":14347,"Ïĥ":14348,"Ġclassic":14349,"Canvas":14350,"Ġperformances":14351,"Ġprepare":14352,"ENABLE":14353,"RECT":14354,"ped":14355,"Ġwrapper":14356,"Ġinfinitely":14357,"FLAG":14358,"Ġera":14359,"swap":14360,"Ġbalanced":14361,"ĠFact":14362,"Ġautomatic":14363,"ĠOrgan":14364,"Ġingre":14365,"tele":14366,"Ġgreatest":14367,"oph":14368,"Ġofficials":14369,"Alpha":14370,"imals":14371,"ĠBre":14372,"ĠBlo":14373,"ĠNP":14374,"etary":14375,"ĠĠĠĠĠĠĠĠĠĠĠĠĠĠĠĠĠĠĠĠĠĠĠĠĠĠĠĠĠĠĠĠĠĠĠĠĠĠ":14376,"annotations":14377,"Ġomit":14378,"Ġmeaningful":14379,"Ġourselves":14380,"alley":14381,"semi":14382,"Ġpublication":14383,"enger":14384,"Ġinfrared":14385,"itzer":14386,"Ġiget":14387,"Ġeconom":14388,"interaction":14389,"Ġinherit":14390,"Ġfractions":14391,"ĠEli":14392,"Ġfear":14393,"113":14394,"ĠExperim":14395,"rator":14396,"outing":14397,"Ġoperate":14398,"Foo":14399,"ENV":14400,"ĠFuture":14401,"Ġcustomers":14402,"getType":14403,"esis":14404,"Amount":14405,"othing":14406,"ĠMatch":14407,")}\\\\":14408,"Ġinstitutions":14409,"toc":14410,"1973":14411,"ĠKo":14412,"Copyright":14413,"Ġremarkable":14414,"Ġdecade":14415,"ĠFund":14416,"Ġ({":14417,"ĠJones":14418,"uples":14419,"Ġalias":14420,"320":14421,"GLA":14422,"ĠAtt":14423,"Ġconserved":14424,"Ġhospital":14425,"Ġregistration":14426,"ILITY":14427,"Ġdamping":14428,"spi":14429,"declare":14430,"Ġfee":14431,"Ġtechnologies":14432,"Acknowled":14433,"Ġlens":14434,"Ġmic":14435,"Ġpsych":14436,"jack":14437,"qubit":14438,"edges":14439,"BG":14440,"ĠBC":14441,"/*!":14442,"Ġconstrain":14443,"nucle":14444,"Ġinten":14445,"ums":14446,"ineq":14447,"UEST":14448,"Ġshares":14449,"Ġoverhead":14450,"Ġtensors":14451,"Kit":14452,"Ġsake":14453,"Ġbattle":14454,"secondary":14455,"ĠCV":14456,"onts":14457,"/$":14458,"ogeneity":14459,"Ġphotometry":14460,"slash":14461,"cA":14462,"Ġthresh":14463,"]{@{}":14464,"live":14465,"Drawing":14466,"ĠTown":14467,"lein":14468,"Ġfamiliar":14469,"Ġbehaviors":14470,"(()":14471,"Fit":14472,"Ġglobally":14473,"Ġsupervised":14474,"strict":14475,"Ġspectroscopic":14476,"Ġdefaults":14477,"fitting":14478,"quan":14479,"Ġvast":14480,"ĠArts":14481,"zier":14482,"Ġappreci":14483,"environment":14484,"ynman":14485,"Ġ$^":14486,"Ġgrate":14487,"Dav":14488,"Lag":14489,"Ġ...,":14490,"}}|":14491,"=>":14492,"Ġsn":14493,"Ġnonnegative":14494,"Wang":14495,"ĠHu":14496,"tabularnewline":14497,"ĠProblem":14498,"Ġbuildings":14499,"Ġcombinatorial":14500,"updated":14501,"ĠDig":14502,"pas":14503,"prot":14504,"Ġdeployment":14505,"nas":14506,"setting":14507,"}^{-\\":14508,"ĠJson":14509,"utch":14510,"ĉĉĠ":14511,"steps":14512,"Ġhus":14513,"Ġpossibilities":14514,"Ġturbulent":14515,"'_{\\":14516,"oned":14517,"Ġconsum":14518,"iden":14519,"Available":14520,"Ġtiming":14521,"Ġsymp":14522,"theast":14523,"Ġtack":14524,"ĠMP":14525,"5000":14526,"Ġsnapshot":14527,"relativistic":14528,"ĠAV":14529,"Ġade":14530,"Ġelected":14531,"RET":14532,"?âĢĿ":14533,"getString":14534,"Pipeline":14535,"ĠET":14536,"cedure":14537,"Ġtalking":14538,"210":14539,"dg":14540,"ĠLoad":14541,"ĠWIDTH":14542,"tist":14543,"Ġissued":14544,
[...]
