#version: 0.2
Ġ Ġ
ĠĠ ĠĠ
i n
e r
Ġ t
o n
r e
ĠĠ Ġ
a t
ĠĠĠĠ ĠĠĠĠ
a n
h e
s t
e n
o r
a l
a r
l e
Ġ c
i on
i t
Ġt he
s e
Ġ a
i s
e s
Ġ f
r o
in g
c t
e d
Ġ o
ĠĠĠĠ ĠĠĠ
Ġ p
i c
Ġ w
d e
Ġ s
Ġ b
a m
Ġ in
Ġ =
e t
a s
en t
u r
ĉ ĉ
an d
u n
) ;
Ġ m
u t
Ġ n
Ġo f
Ġ re
Ġ <
Ġ {
i l
c e
Ġt o
Ġ (
o m
= "
- -
i d
l o
Ġ h
Ġ and
ĠĠĠĠĠĠĠĠ ĠĠĠ
Ġ *
Ġt h
/ /
i m
u l
Ġ d
i f
< /
o l
at ion
e l
Ġ S
a g
e x
a d
i g
i v
p e
o t
Ġ T
a c
Ġ C
at e
Ġ v
t r
u e
č Ċ
Ġ }
Ġ A
t h
e m
p t
am e
u m
as s
a b
a y
c h
Ġ st
Ġ "
Ġ l
ct ion
u s
i st
" >
ĠĠĠĠ Ġ
Ġ I
ĠĠĠĠĠĠĠĠ ĠĠĠĠĠĠĠĠ
Ġ g
( )
* *
er s
a p
Ġ is
ur n
t er
Ġf or
u b
l ass
Ġ M
e w
h t
Ġc on
o d
ag e
al l
r i
o de
or t
Ġ P
t urn
Ġ se
a v
i r
Ġb e
u p
en d
s s
y pe
-- --
it h
= =
â Ģ
v er
Ġ on
Ġ de
e ct
o w
es s
Ġ B
s p
Ġ e
l i
Ġ '
Ġ $
Ġ R
ex t
Ġ D
q u
e st
I n
Ġ if
m ent
o ur
0 0
g et
o c
c on
ĠĠĠĠĠĠĠĠ ĠĠĠĠĠĠĠ
. .
o p
ab le
l y
Ġc lass
Ġ F
Ġ N
l ic
a in
p ort
Ġth is
Ġ L
in e
ac k
Ġ H
ar t
i z
Ġ //
i le
ul t
a se
pt ion
o un
k e
Ġth at
Ġp ro
er t
Ġ E
- >
Ġre turn
Ġ G
Ġ an
Ġw ith
ro m
at a
o re
al ue
: :
st r
it y
Ġ it
Ġa s
Ġ or
om p
Ġ W
Ġw h
ĉĉ ĉĉ
in t
Ġ @
lo c
ĠT he
u re
Ġ r
an s
j ect
un ction
d er
Ġ ex
R e
C on
an g
Ġ< /
Ġt r
u se
Ġ O
or m
1 9
f f
ig ht
Ġw as
at h
" ,
Ġb y
o ut
ar am
re f
ub lic
iv e
o s
2 0
S t
a ct
our ce
se t
er e
( "
( );
p l
Ġ at
i es
n t
u g
.. /
Ġ /
a ce
i re
i al
ar y
i b
Ġ &
Ġ al
o o
il l
Ġ y
a re
Ġ [
p ro
Ġ -
an t
b er
Ġ U
t o
Ġ* /
Ġf rom
Ġn ew
a st
' ,
Ġ J
tr ing
l f
---- ----
Ġ +
re s
i p
ul l
) ,
im e
m l
Ġ \
v e
** **
Ġc h
in d
Ġ he
E x
Ġn ot
) .
ess age
ig n
Ġ un
b ject
d d
ic e
iz e
c l
d iv
t ext
c ri
at ed
Ġa re
p er
er r
it ion
Ġ :
th is
an ce
( '
sp an
ar d
Ġf unction
ĠĠĠĠĠĠĠĠ ĠĠĠĠĠĠĠĠĠĠĠ
ĉĉ ĉ
c om
u st
q ue
> </
im port
v ent
p ut
o st
t e
== ==
ar g
ĠĠĠĠĠĠĠĠ Ġ
Ġn ame
ro w
or d
Ġp ublic
ĠI n
Ġ .
u d
Ġ |
Ġ j
Ġ _
f orm
it e
N ame
er v
Ġ le
or y
Ġs h
c c
on g
n ame
or k
o id
l l
' s
P ro
r r
> <
le ment
i a
i o
av e
on e
a k
Ġst r
E R
) )
T ype
p aram
i el
lo w
âĢ Ļ
a il
Ġv ar
re turn
Ġ V
Ġre s
../ ../
s h
iel d
Ġc om
oun t
de f
e c
e f
re ss
p p
o ul
il d
S tring
Ġ Ċ
O N
t p
20 1
Ġw e
de x
in k
ke y
Ġde f
f ig
ht ml
al se
i ew
T he
I N
oul d
et h
Ġ !
ic h
Ġ #
c he
Ġ âĢ
Ġ K
en ce
en c
I d
Ġc omp
que st
lo g
i de
Ġh ref
Ġg et
at or
o u
c k
Ġt ype
en er
s ource
o g
Ġcon t
am p
m essage
r a
Ġp l
Ġv alue
a x
en s
u ct
_ _
en g
ter n
Ġp r
s o
c ode
f t
at ic
el l
loc k
t ype
Ġse t
tr ans
ro up
le ct
ac h
Ġh as
Ġd o
Ġin t
e g
e ar
ĠT h
e p
f er
o ol
u le
Ġ= >
R E
Ġ k
t d
y st
at ch
er y
l ation
oun d
all y
ow n
a ult
R es
Ġ= =
ac he
un d
um ent
ĠS t
s er
Ġ use
he n
ce ption
Ġse lf
p r
ap p
th er
ar r
p ert
in al
eth od
Ġn ull
c ol
/ >
L ist
# #
S T
pe c
v al
yst em
Ġ el
2 00
Ġc an
Ġh ave
i x
ad d
c re
T o
p h
e b
cri pt
f o
ation s
1 0
re e
E n
ir st
Ġv oid
ut e
Ġcon st
g e
" />
o b
Ġa b
o v
Ġwh ich
am es
o ver
r y
Ġ err
) );
Ġ i
A T
str ing
Ġo ut
Ġh is
y le
o int
: //
ur re
i an
ode l
ption s
pe ct
c lass
C h
ĠC h
Ġ| |
ic al
Ġ `
v ar
Ġ us
e y
ers ion
**** ****
se d
Ġd ata
Ġw ill
it le
ar k
ang e
ad er
a ke
um ber
g r
Ġf alse
Ġ im
O R
r it
h er
ing s
L E
trans lation
-------- --------
ĠĠĠĠĠĠĠĠĠĠĠĠĠĠĠĠ ĠĠĠĠĠĠĠ
qu al
iv ate
Ġ all
" );
Ġ >
// //
con t
Ġ id
V alue
Ġ up
I D
se lf
on t
Ġtr ue
Ġc ol
om e
d ata
at es
l d
"> <
D ata
eng th
tr ib
is h
Ġel se
Ġa ss
b ack
ht tp
u al
oc k
erv ice
Ġ end
um m
ar ch
se s
i e
t em
) :
ĠĠĠĠĠĠĠĠ ĠĠĠĠĠ
n e
Ġy ou
v alue
1 8
A L
le d
Ġ/ **
Con t
A R
Ġl ine
Ġ lo
re ad
Ġb ut
T r
y p
Ġ ro
t on
urre nt
li ent
Ġ& &
Ġa dd
qu ire
Ġstr ing
rr or
Ġ )
y n
u ff
Ġd is
. _
E N
em ber
l ine
] ;
o ve
1 2
as k
ab el
s c
S et
if i
Ġon e
" )
m in
f ile
a w
s on
pert y
Ġp er
Ex ception
ĠU n
ug h
Ġor g
T h
ĠĠĠĠĠĠĠĠĠĠĠĠĠĠĠĠ ĠĠĠĠĠĠĠĠĠĠĠĠĠĠĠĠ
C ol
m er
ion s
id th
Ġ! =
b o
==== ====
O bject
st ance
or s
le t
arr ay
Ġp art
on se
an n
ic k
p x
( $
ĠĠĠĠ ĠĠ
Ġw ere
m a
av a
1 6
f ter
n d
o f
d ate
Ġv al
le ction
Ġres ult
Ġ// /
an ag
ar get
u es
E rror
is s
u de
Ġal so
oo k
m s
Ġt est
if ic
Ġs c
loc ation
S S
T est
Ġ Y
} ,
_ {
r ap
Ġc re
d u
at er
Ġp re
as h
ic s
âĢ Ŀ
le s
or g
t est
ent s
Ġf ile
cc ess
Ġst atic
Ġo ver
umm ary
ire ct
Ġwh o
Ġw hen
ĠS tring
g er
od ule
C omp
p re
G et
' )
c ess
at us
Ġthe ir
() .
] ,
f r
re am
ol d
Ġt ime
3 2
U n
Ġs o
() );
Ġf irst
n ew
A t
an y
C T
e v
u ch
Ġd es
o k
p ace
at ive
K ey
Ġ en
I T
Ġo ther
f unction
' );
are nt
i se
o in
Ġw ork
S e
at ure
D E
Ġ %
Ġcom m
Ġs up
le an
ut h
S E
Ġpr ivate
rr ay
he d
et w
F ile
s ize
Ġc ase
tern al
Ġm e
c es
c a
g le
od y
os ition
ĠTh is
Ġ x
he ck
n b
Ġ --
Ġm ore
it em
Ġa g
c omp
w o
Ġa pp
cl ude
Ġn e
ĠI t
Ġin ter
m b
re n
r c
Ġan y
u ild
Ġthe y
v id
E vent
con d
Ġs pec
s ummary
Ġ key
1 1
ĠH e
. </
ro und
ag es
Ġh ad
Ġit s
w w
on s
ro ll
pl ay
uff er
Ġo bject
Ġbe en
lo ad
oc ument
l ink
Ġs ub
u il
l er
nb sp
Ġf inal
Ġa p
" ;
ĉĉĉĉ ĉ
I m
n ot
M E
[ '
b ar
al e
om m
ut il
E lement
r ight
Ġl ist
Ġre c
Q u
ur l
ro id
() ,
it s
l ist
Ġof f
in dex
ĠâĢ ľ
A N
um n
Ġy ear
f ace
ig h
Ġre g
ind ow
a ction
v iew
/ **
str uct
U L
u i
1 5
p ublic
k en
n er
Ġa d
\ \
Ġn o
un c
aram et
ation al
/ *
B y
b ut
b r
t il
Ġf il
N ode
Ġb ack
V iew
Ġa ct
r ite
n g
Ġt e
Ġ );
el y
p ar
' ]
Ġc l
ĠP ro
p s
is hed
or der
T ime
ay s
Ġc all
2 5
j s
C lass
Ġtr ans
ĠĠĠĠ Ċ
Ġon ly
ĠR e
Ġ arg
Ġ ?
in ed
ĠC on
Ġ/ *
at ing
H e
y s
Ġ em
St ate
le te
t ime
f or
n ing
" :
l ay
l ength
t he
"> </
it ed
d is
C O
Ġp e
p ath
Ġin to
op le
ib le
n av
o se
t tp
ĠE x
v oid
Ġab out
if y
Ġh er
p ack
et a
In dex
Ġg o
Ġch ar
Ġuse d
S h
con st
b e
Ġth ere
p end
Ġpl ay
Ġre m
P ath
Ġass ert
Ġe vent
cri ption
oo lean
ĠâĢ ĵ
s cript
R O
f ield
In fo
{ \
Ġn umber
Re quest
ĠA r
s ub
Ġfor m
T ext
Ġex p
Ġ/ >
ĠS e
P E
in s
19 9
anag er
1 00
A rray
T E
ase d
âĢ ĵ
er n
lo b
Ġ ent
t able
Ġth row
ain er
Ġm ethod
Ġ qu
t s
io us
A r
t op
Ġun der
Ġl i
Ġ array
ur ation
Con fig
amp le
ic es
m d
] .
Ġerr or
ri de
Ġst ate
1 4
I ON
() )
g roup
Ġ} ,
trib ute
op y
o ot
Ġ( !
F ield
' :
I tem
on ent
ul ar
E qual
er m
A dd
a de
cl ud
Con text
6 4
} ;
Ġt wo
Ġst art
ro l
w ard
1 3
Ġsh ould
m ath
M ap
Ġa fter
Ġs er
Ġ} );
D ef
tr y
Ġt itle
com m
an k
Ġ= ==
1 7
re d
c ent
iz ed
m e
g round
Ġ: =
Ġw ould
` `
it ies
us er
ĠN ew
Ġo b
re g
res ent
re ak
p en
" "
P I
loc al
b y
ist er
ap i
! --
Ġs p
m p
us h
ames pace
Ġm ay
ĠĠĠĠĠĠĠĠĠĠĠĠĠĠĠĠ ĠĠĠĠĠĠĠĠĠĠĠ
ĠT r
o us
ifi ed
on d
A C
Ġre quire
enc es
T R
l t
//// ////
C ode
A n
******** ********
Ġc urrent
l and
=" ../../
is ion
Ġre quest
or ld
l ang
Ġ ext
' ;
en se
c ed
o use
mer ic
c o
Ġ$ \
f ore
S ervice
W ith
ut ion
N ot
i ct
ol low
ass ert
Ġth an
con fig
le ft
ap ache
a z
qu ot
pt y
uil der
oo gle
Ġc o
il ity
def ine
l abel
Ġs ome
} }
O ver
Ġthe n
Ġdef ault
Ġwh ere
Ġp ol
' t
ĠI f
ment s
O n
Ġf ield
L A
ist s
S ize
F or
Ġ_ _
pro t
Ġim p
il ter
Ġs a
F orm
a ir
U R
n ode
Ġ ar
A s
w n
ot t
ce pt
a pt
sp onse
iv ers
Ġre l
m ap
val id
col or
H and
port s
res ult
ur ing
yp es
Ġo per
3 0
v el
yn c
e en
Ġex pect
l ag
w ord
tr ue
cre ate
+ +
ign ed
in ce
=" +
Ġn il
o x
v en
o bject
d es
at t
[ ]
S ystem
re m
ĠG et
Ġcon s
Ġpe ople
Ġthe m
Ġs ize
r ame
se arch
pl ate
et urn
in put
ect or
ect ed
Ġr un
I C
it or
Ġ} ;
iv er
Ġf e
Ġin st
Ġin v
O f
Ġk n
def ault
c al
ed ia
st yle
ĠA n
i ent
Ġg ener
err or
b lock
V al
Ġh and
in clude
O r
it ial
ro ugh
.. .
= '
Ġs he
il y
ĠA l
or n
lo se
able d
ne ction
Res ult
D e
ĠS h
Ġl ong
D es
ain s
## ##
Ġre p
Ġne ed
Ġe lement
r u
w idth
t itle
Ġre ad
Ġa cc
rap h
v ersion
ra w
M essage
Qu ery
id ent
Ġf ollow
U T
ot h
U p
st ate
5 0
Re fer
Ġp ar
lo at
al s
ĠD e
http s
n o
00 0
ist ri
ir t
Ġg r
oc i
ic on
ate g
Ġin clud
are d
L O
en u
UL L
it er
u f
re ate
ff set
Ġ-- >
iz ation
Ġg roup
ĠA s
st art
ver t
ve lo
Ġm y
Ġt ext
Ġd if
Ġy our
it t
p onse
u ccess
F F
ress ion
2 2
m an
Ġ import
Ġ ed
A D
---------------- ----------------
Ġr ight
um er
lic ation
en ame
as on
le ar
ut o
ĠA meric
ain t
Ġ X
Ġc al
eg in
Ġj ava
form ation
ust om
Ġm in
f rom
w eb
uth or
e k
A l
ro p
Ġ u
M anager
Ġo ptions
Ġh ttp
i k
in fo
enc y
Ġs uch
e vent
Ġcon fig
in es
M A
ĉĉĉĉ ĉĉ
t t
Ġ Z
le g
iv en
M odel
19 8
etw een
2 4
m odel
O ut
IN G
Ġo ur
f unc
g t
a h
d t
b ody
Ġus ing
lob al
L oc
L og
che d
a it
ch ool
Ġd irect
Ġus er
bo x
I s
Ġt arget
ĠC ol
im p
Ġf ound
ĠĠĠĠĠĠĠĠ ĠĠĠĠ
G roup
in ter
In ter
M L
Ġ log
f ul
ers on
w ork
A pp
u c
C H
Ġwh ile
In t
ant s
ut es
Ġth rough
gr am
Ġc heck
Pro perty
act ory
Ġn ode
as ses
I G
Ġm ost
Ġsh ow
ot her
Ġcont ent
b ase
w h
ĠS ystem
le m
em ent
C lient
ub le
f e
Ġbe fore
t ings
im es
p oint
at s
Ġb ool
S er
f in
Ġcre ate
con text
ot e
Ġp h
cont ent
o ptions
end s
Ġin stance
Ġa m
E D
Res ponse
3 3
Ġv ersion
Ġp oint
se lect
b ers
Ġj ust
E T
======== ========
Ġyear s
C all
Ar g
Re g
C ount
od es
Ġb ase
c all
M P
l p
roll er
Ġp ath
Ġ Q
Ġin dex
T able
pert ies
Ġli ke
Ġa c
o pe
Ġs rc
Ġsa id
if e
ĠW e
C omm
Ġm ake
Ġcon text
ens ion
f alse
Ġpro t
over n
Ġst yle
s w
ĠF or
I S
ĠS et
d uct
etw ork
ĠĠĠĠĠĠĠĠ ĠĠ
Ġb etween
Ġl ast
t es
Ġin put
ar s
Ġd r
ow er
a j
Ġag ain
id d
Ġ z
Ġc ode
pack age
ur s
Ġwh at
m odule
m ethod
} )
n ext
Ġdo es
ar n
y m
U ser
="../../ ../../
an e
D is
Ġch ild
Ġsup port
U N
Ġstr uct
p os
m all
> &
ile d
S c
Ġst ud
c ount
Ġm em
M ethod
a pe
if t
m y
ot ype
he ad
aramet er
Ġb reak
Over ride
w ay
Ġh ow
^ {
4 0
o h
o od
ing le
o ugh
Ġs ame
Ġe ach
Ġit em
c ss
t n
> (
Ġc ent
C ell
Ġw rit
EN T
Ġthe se
D O
d b
m ember
g oogle
d oc
r on
ww w
che ck
iv ed
St ream
le x
Ġ( )
Ġh im
] )
o ption
ifi er
d own
li b
velo p
Ġst d
le ase
A B
ĠI s
Col or
Ġl ink
F rom
end er
ivers ity
Ġc or
Ġs ystem
19 7
id er
U til
pl ace
Ġm ust
ail s
In put
ann el
Tr ans
Ġtr y
re at
} $
b egin
E S
sh ip
us ing
an c
} \
Ġbe ing
j ava
m ax
but ton
Ġe ver
2 1
Ġd ocument
. "
St atus
iv es
N ew
de v
Ġre f
is m
; &
ĠN ULL
d o
um e
st atic
i able
Ġ art
u age
Ã ©
Ġm odel
Ġb lock
ff ect
o ss
B uilder
Ġ< <
Ġpro vid
Ġt em
c lient
Ġn ow
out h
T H
ain ing
iss ion
O ptions
To ken
ĠA ss
Ġat t
c urrent
f l
i er
En d
y mb
St yle
q l
ott om
ca use
r ic
Ġse cond
Ġc oun
Ġb r
ist ory
qu ery
ure s
c ore
ĠĠĠĠĠĠĠĠĠĠĠĠĠĠĠĠ ĠĠĠĠĠĠĠĠĠĠĠĠĠĠĠ
Ġb uild
im age
C l
our ces
Ġdif fer
ith ub
( (
im it
irt ual
h as
ymb ol
and roid
Ġw ell
ic y
n ull
Ex p
Ġm essage
Ġval ues
e lement
Ġg iven
w e
Ġs ource
arg in
re quest
p art
L o
t a
n et
l ish
Ġbe cause
Ġb oolean
pr int
2 3
def ined
an sp
Ġ local
T D
=" #
lic k
In stance
Ġde c
A ll
" .
Ġc ould
e ver
n s
p i
or th
A ME
00 00
.. ..
C E
=" ../
a use
N ull
Ġs ign
I L
aram s
Ġn ext
ific ation
ĠĠĠĠĠĠĠĠĠĠĠĠĠĠĠĠ Ġ
Ġm any
Ġto p
am ily
v ed
r un
; </
6 0
g ithub
it ch
Ð °
ction s
n amespace
b s
D ate
S ource
P l
aramet ers
at ab
id get
] (
Re f
t ing
ĠC omm
Im age
arg s
s ide
ĠC omp
b all
ur ity
ĠL e
I P
ar m
ath er
che ma
Ġor ig
l ight
t en
Ġm ax
ast er
Ġp osition
P r
de pend
am ed
le ss
Ġle ft
Ġt able
prot otype
* /
s up
Ġn on
Ġor der
( \
Ġrec ord
B ase
Y PE
ĉ ĠĠĠ
Ġ+ =
A nd
T O
Ġf in
re c
A S
Ġd uring
At tribute
b l
B uffer
Ġback ground
a i
Refer ences
ur y
B lock
ĠL ist
Th is
d ay
Res ource
Ġal low
Ġm ade
d ir
u ck
Ġm on
Ġcont in
i ed
Ġre sponse
ref er
U S
S ub
Ġpro cess
ic ense
Ġe st
et er
N O
r ag
Ð ¾
se e
Hand ler
ĠR es
ug in
ĠO n
w are
Ġcol or
R un
Ġv is
G ener
S tr
atab ase
ĠW h
Ġv iew
at ri
et ad
h and
Ġs erv
( {
re quire
ument s
Ġin formation
ON T
ac es
ĠAmeric an
Ġb oth
etad ata
P ar
Ġb order
app end
Ġand roid
Ġp ass
et s
in it
L ay
t arget
tr act
E X
log y
) </
Ġre ce
ser ver
Ġf ind
add ing
Ġh igh
t x
Ġo wn
lo y
lect ed
ĠS c
A d
Ġo pen
p o
E m
Ġd id
che s
O per
E d
Def ault
Ġ enc
Ġbe g
Ġfollow ing
ĠUn iversity
Ġm od
Cont ent
< !--
ail able
Ġw idth
ĠT est
p tr
m ed
ĠĠ Ċ
o y
B ar
j son
u ally
Ġ ->
Ġ" ""
Ġpro du
at tern
al th
ph p
[ "
r id
Comp onent
2 7
ain ed
p age
2 8
L ine
p arent
ĠUn ited
l ing
Ġcal led
F unction
re t
Ġre fer
s k
ess ion
se ction
ch ild
V ersion
Ġ Ð
or age
Ġm ov
Ġp op
he ader
l ished
m od
ug ht
he ight
U E
ĠO bject
iv ing
v ious
N S
Ġpro perty
Ġout put
ur al
D I
ĠA nd
Ġth ree
ol der
i ence
act er
us ic
orm al
Ġper form
Ġl arg
t ag
s he
Ġre t
Ġm ap
Ġse e
St art
. âĢĿ
A ction
act ive
ition s
C K
Ġo p
Ġin d
ch o
ro ss
Ġm an
ĠR eturn
Ġp arent
ir on
in a
8 0
Ġever y
B ut
b ug
Ð µ
Ġpro ject
vid er
p or
Ġ url
} {
Ġs ur
Ġm ark
c ast
Ġc ount
e qual
Ġde velop
Ġm atch
Re c
r ad
F I
p an
F actory
Ġc lient
ir c
6 6
c ase
p ush
end if
Form at
al k
Ġ{ @
l en
Ġ( (
se mb
g ress
F ilter
2 9
ĠO r
lag s
w rite
row s
Ġw ant
} );
rit er
N umber
trib utes
x y
b ed
on y
ob j
Ġw orld
ĠĠĠĠĠĠĠĠ ĠĠĠĠĠĠ
Ġa v
ĠC l
x ml
Equal s
i um
P oint
Ġte am
O L
E L
Ġs ol
us s
am b
3 4
Ġ! ==
Ġs ervice
it al
i ction
Ġpro b
2 6
Ġthrow s
ĠE n
ide o
w ith
e q
Ġval id
um p
pro perty
n ect
in ation
s rc
r l
A ct
ex pect
ang ed
r ation
op en
a iled
Ġm odule
T ag
fin ished
ad ing
i or
Ġd istri
l ast
ĠP r
ĠI N
H T
ĠP h
T ask
Tr ue
ĠA t
b tn
W e
H el
Ġimp lement
Ġdiffer ent
W indow
d om
a f
ad ers
oh n
s igned
AT E
Ġle vel
Ġh ere
( &
F rame
A ss
al ign
) {
ĉ Ċ
ak ing
. ,
st atus
j av
Ġd own
ix ed
read y
ĠIn d
ss ion
u x
9 9
fr ame
Ġ( $
ial og
Ġe ar
N o
Ġw ay
Ġe ven
C reate
//////// ////////
Ġdis c
Ġpart ic
L ength
en e
Ġcall back
ĠA dd
Ġkn ow
overn ment
ec ut
N av
Ġb ro
ch ar
se c
B e
Ġinclud ing
ĠF r
iz er
ition al
b uild
Ġs ince
ult ip
s g
Ġap pro
Ġp ost
_ .
v iron
Ch ild
Ġb l
Ġle t
Ġth ose
ĠM ar
t ab
atri x
R ow
Ġagain st
f low
ĠR eg
p ost
Ġs uccess
un finished
Ġprot ected
o pt
Ġd on
Ġde t
pr ivate
ef ore
d a
ER T
Ġpro gram
Ġcomm un
Ġ ,
iv ity
// /
oc ol
un k
Ġlo ok
ust er
Comm and
G L
Ġpl ace
} .
ent ial
C heck
ĠĠĠĠĠĠĠĠ Ċ
b uf
com e
u id
om en
s pec
Ġs w
" ]
L ink
d l
ĠS he
row ser
Ġcomm and
P RO
Ġv ery
P age
return s
Ġa ut
at tr
imp le
ap h
ĠN one
ĠE ng
Ġhe lp
_{ \
ER R
Re ad
Ġres ource
AB LE
List ener
Ġp res
5 5
des cription
f ind
ang uage
ib r
$ .
Ġap pe
Ġp age
F A
ĠSt ates
O P
\\ \\
Ġde v
ater ial
oc us
Ġ[ ]
ex p
Ġt yp
Col lection
Ġl aw
form at
P art
h ost
p c
A P
s erv
S ON
rem ove
u ro
LA SS
A G
S C
str u
ic ro
v is
S pec
oin ter
C ache
e e
Ġcor re
f irst
b b
le y
lect or
m ark
ak es
m t
ul ation
Ġexpect ed
Ġdis play
nav bar
u k
struct or
Ð ¸
RE F
Ġs chool
cre en
cont ainer
b ottom
ir d
ore d
o le
M O
un e
Ġc r
Ġr ange
Ġa ccess
Out put
" ),
ref ix
P ol
$ {
UR L
Ġl ater
L abel
Ġm et
m eta
IN T
++ )
dis play
pro ject
an ces
i que
ang es
und le
ic le
( _
Â ł
Val id
" ).
str ong
up date
end ed
f ilter
O T
tr a
Ġadd ress
3 9
Ġp erson
] );
op er
O ffset
Ex ternal
Ġm ain
Ex t
ĠM ay
Ġrequire d
E E
lo ud
st ream
p y
R eturn
ol ume
ph a
ĉ Ġ
Ġext ends
Cont roller
p osition
Ġin clude
Ġis s
ĉĉĉĉ ĉĉĉĉ
lo t
ord s
in ess
Ġch ange
Ġid ent
Ġspec ified
Ġrep resent
er o
T YPE
Ġwith out
ig ger
ur ch
ire d
s l
S P
i us
Ġin itial
ĠE X
201 5
Ġl ength
ĠI nt
so le
Ġa ction
b f
Ġim age
ĠĠĠĠĠĠĠĠ ĠĠĠĠĊ
ĠC an
Ġfe ature
M ode
F ONT
ateg ory
Ġre al
W eb
i ag
Col umn
v ision
in ition
Ġ loc
But ton
ĠA d
201 7
m enu
Ġin s
viron ment
ock et
I M
Ġu int
Ġhe ight
w ays
Ġdes cri
Ġlink s
so ft
in ary
Ġfil m
ĠâĢ Ķ
st d
port ed
i ally
Ġc our
ab ility
Ġb ook
Ġex ample
0 1
n umber
tern ational
B U
Ġcon f
ĠY ou
Ġex ist
Ġl ife
C ON
param s
al t
ĠU S
i od
g ener
n ess
in stance
201 6
Ġc opy
re sponse
y nt
Ġc are
V ER
19 4
201 4
and ard
Ġo ld
Ġt ri
Ġb ased
et y
W h
m em
Ġl abel
V ar
Ñ Ĥ
he ther
Ġo ption
Ġo cc
im g
o ffset
to ol
Ġf our
te ger
Ġre st
ĠA ll
im ary
Ġob j
in c
H E
Ġcol umn
r ist
a im
om et
l s
ĠI m
3 5
p ng
P re
ure d
: "
Ġl en
I O
P h
ĠL icense
ĠSt ate
Ġkn own
Ġw indow
**************** ****************
ill ion
Ġm at
U I
âĢ ľ
ĠG L
ear ch
Ġc atch
Ġs k
m o
ent ry
b um
el s
Ġst atus
ar ri
Ġup date
ator s
o ff
semb ly
b it
~ ~
e qu
Ġst ill
> >
i ans
il li
ib ility
ut ure
s ervice
Ġs ingle
D ep
Ġsup er
< ?
Ġun til
ic ally
W idth
k it
al y
U rl
201 8
Ġre n
as cript
p loy
Ġm argin
c ache
lay out
Ġwith in
f ont
ack age
Ġn um
n um
M odule
ĠJ ohn
ĠP ar
Ch ar
c lose
Ġpr int
fr ac
c ite
out put
od ing
Ġg u
a ut
par se
ĠP l
C C
d r
and om
Ġre sp
19 6
Ġin cre
S up
Ġf l
m on
$ ,
qu ence
ĠW orld
Ġarg s
Cont ainer
Up date
ig ation
ud io
Ġp ort
Ġm uch
, âĢĿ
Ġp ub
Ser ver
Ġs s
ĠH ow
ac y
T ypes
U M
Ġresult s
ith er
or ies
Ġf ore
on ly
g ing
Ġorg an
Ġp resent
r al
res h
3 7
Ġle g
I t
Pro vider
im ation
end ing
Lay out
T P
u int
str act
Ġf act
T arget
ar ning
I f
uil t
is on
201 3
in st
aj or
om ic
Ġcont rol
ĠC ent
Ġa uto
at form
C ase
Ġav ailable
T em
Ġl a
ĠA rray
' ).
un it
Ġser ies
Ġpol it
if act
ot o
av ing
gr aph
sp ace
ĠD o
N AME
Ġb us
she et
o ke
Ġs mall
u str
Ġt ake
Ġ es
E nt
Ġb el
ĠT o
th s
ĠY ork
`` `
Add ress
Ġgo od
app ing
Ġ low
p ol
e ad
el se
. $
Ð ½
Ġqu ery
r m
Ġs im
ĠD ef
Ġin it
) (
c d
Ġpro m
tem plate
I Z
Ġh ost
P O
rap per
g o
Q L
Ġ ]
Ġo pt
, "
ĠG ener
idd en
ĠĠĠĠĠĠĠĠĠĠĠĠĠĠĠĠ ĠĠĠĠĠĠĠĠĠĠĠĠĠĠĠĠĠĠĠ
Ġser ver
Ġe ffect
Ġm ed
Ġf oot
n own
im um
cript or
og raph
ĠN o
Inter face
A M
en n
ĠC ount
Ġan other
ord ing
ct x
il er
Ġf amily
um b
c y
Ġcons ider
Ġal ready
ul y
cent er
ĠB ut
ĠAss ert
Ġ< !--
9 0
g y
util s
ch ange
3 1
ĠN ational
Ġp oss
ann ot
Ġform at
Ġar ound
ĠC o
ĠG r
s ol
Ġt ag
at ely
am l
Ġd ist
Ġc ap
ĠA pp
Ġd ay
col umn
ri or
stru ction
set s
ry pt
ĠC ont
Ġdef ined
ĠC al
Ġcon d
Ġoff ic
ĠA PI
B ack
it ory
ĠJ an
iv al
oc ial
R ange
ist ry
Ġp os
3 6
O b
d f
b ind
expect ed
pro to
b ook
m it
sh ow
l in
jav ascript
Call back
D o
w indow
Ġin ternal
a ff
v es
He ader
ad o
iv ely
ev el
Ġto t
ĠReturn s
C L
b uffer
ĠI D
Ġf ont
Ġse ver
A ccess
Ġchild ren
ĠF ile
B ox
Ġreturn s
Ġorig inal
7 5
R em
Ġse ason
ĠH T
A PI
pro cess
L ast
sh ould
Ġb uffer
c er
g ed
b ool
W rite
ro ot
Ġb ody
Ġg overnment
Ġt ask
ĠT e
4 5
Ġ$ (
um an
t yp
Ġde st
Ġth ink
Ġlo ad
an ch
apt er
Config uration
u ed
201 2
Ñ Ģ
Un it
201 1
Ġplay ers
201 0
19 5
Ġre le
ĠB l
ĠP ol
' ),
Ġm usic
ĠT ype
20 19
op s
at al
de t
Ġex per
M em
ĠThe y
ol ution
() ->
Ġcre ated
Ġinter face
ĠM in
( [
let ed
âĢ Ķ
yn am
ĠC LASS
refer ence
ĠB e
t ask
F irst
r s
Ġf ull
Util s
ibr ary
re st
Ġg ame
ĠH REF
Ġw on
use d
D ev
En try
P er
3 8
He ight
ĠA ct
m et
Ġc ell
al let
ward s
c or
ule s
] [
m atch
ansp ort
#### ####
CO L
Ġd iv
Ġan n
Ġest ab
Ġ* *
li p
Ġcon nection
d ocument
Ġpre vious
amp les
Ġp ower
Ġ ke
ag ue
ra ft
Ġoff set
P arameter
ĠR ep
bo ard
D B
D et
ass word
Ġp arameter
if f
Con nection
Ġsh ort
ĠTh ere
UL T
Ġbe h
Ġdo uble
ro y
Ġc ache
ST R
u ary
que ue
and s
M ax
ĠB y
as ic
l ate
Ġro le
F e
J son
T ree
on ents
Em pty
s v
V AL
Ġ{ }
: </
Ġare a
ĠG e
ĠW ar
Ġass oci
Ġpro v
ĠC ar
Th read
Ġf loat
ĠW est
Ġa uthor
ĉĉĉĉ ĉĉĉ
Ġn one
Ġ eng
re en
D ocument
PE CT
ic a
P osition
" ))
lo s
4 4
im al
ĠN ov
t ml
comm on
er a
Ġh ome
g est
m ut
ĠB rit
ens or
st it
Ġhe ad
ol ve
Ġd ate
sc ope
V is
ac ity
anag ement
Ġal bum
? :
uro pe
Ġ> =
Ġg lobal
Ġfile s
Ġw hether
it ive
Ġbe st
Ġmem bers
S ec
ec ute
Ġde pend
s i
ot s
ĠS o
Ġun defined
Ġc ustom
f oo
Ð¾ Ð
am ent
ĠC lass
ult i
M in
Ġst ream
Ġf ail
ac ing
in ner
ĠE d
Ġv irtual
n ow
Ġreturn ed
Ġbe c
Ġtot al
ac ed
s m
al es
Ġw rite
res ource
ex ports
ĠS chool
ri ct
P arams
Ġ* )
Ġp ut
Ent ity
Ġc lear
S earch
T I
ess ages
ens ions
: (
Ġx ml
U P
to ken
ĠC reate
ĠS outh
Ġn etwork
f loat
N ext
. /
Ġtr ack
d rop
p atch
math cal
ic ation
Ġc ert
le vel
z e
Ġbec ame
ĠU p
C om
t ree
ultip le
Ġd om
g l
li ed
o urn
ent ly
\ "
Ġarg uments
P tr
Ġdistri but
s um
m ber
im ate
il it
Ġm ember
re l
ĠS er
Cont rol
T op
ĠO F
Ġevent s
ĠO ct
he s
Ġspec ific
ĠA ug
h ip
om an
d at
ĠD es
Ã ¡
Pro cess
Ġf r
K E
lic e
L evel
f il
S H
N D
it es
Ġfil ter
Ġs pe
Ġs ong
Ġchar acter
O ption
w ise
Ġprovid ed
Ġwe ek
D ec
pr il
Ġ q
H ash
Ġl ay
Set tings
> ,
Ġal ign
pt ember
B undle
l ap
Ġp ay
Ġ et
Ġ row
f inal
Ġse arch
c an
Oper ation
ist or
eb ug
Ġm ode
Ġcol lection
back ground
el ine
7 0
a u
% %
Ġs ide
ĠCount y
Ġ ::
am a
m ain
ĠS up
Ġinter est
Ġh istory
ĠM arch
ĠĠĠĠĠĠĠĠĠĠĠĠĠĠĠĠ ĠĠĠĠĠ
Ġs ay
M od
ft ware
O O
Ġad v
s d
w ait
Ġc lose
Ġvar iable
er al
4 8
de bug
o ber
AR T
tem pt
a uthor
le ge
Ġc ity
Ñ ģ
icro soft
Ġte ch
Ġe qu
W ork
up le
ren der
al pha
im ages
Ġoper ation
200 9
M atch
Loc ation
de st
Ġrem ove
Ġs om
AC K
ynt ax
ff ic
ĠEX PECT
ã ģ
ound s
Ġsever al
amb da
Ġde ath
idd le
Ġv er
ĠD is
AT ION
Ġ Ã
r ing
K ind
Ġre lation
se cond
L I
Ġren der
Ġd one
V E
N one
A g
a e
U s
IZ E
ĠA b
A b
ir m
" ));
A cc
Ġe ither
ms g
Ġp arameters
Ġpro f
j oin
Con st
Exp ression
urs or
g en
Ġro ot
th ing
irect ory
H ttp
St ore
art ifact
CO DE
Ġw omen
ĠJ une
ĠJ uly
Ġent ry
Ġn ear
Ġm ajor
Ġp arams
ustr al
ire ction
ĠCh rist
Ġover ride
i as
Ġm ove
) $
Ġt er
ef t
=" _
ĠEx ception
ĠN ot
P ort
Ch ange
str ap
Pro perties
ca de
em pty
X X
200 8
Ġb o
ĠG erm
() :
% ;
leg ate
ĠS p
S ession
ĠE urope
Ġal ong
Ġp adding
ĠG u
Q ue
Ġf rame
} (
as sed
Ġal ways
Id ent
R ender
Hand le
Ġh app
O pen
al f
, \
Ġcoun try
Ġacc ount
itt ed
P C
ot al
ĠJan uary
Pro t
R L
Ġcomp any
ĠW hen
Ġse c
et ch
bo ot
ĠC ity
il ar
M S
Des cription
C opy
comm and
ĠP art
="../../../../ ../
Loc al
D el
N ames
ĠSe ptember
iction ary
ent ion
Ġear ly
En c
ur ther
cont rol
As ync
Ġj ob
Ġde cl
Ġreg ion
lic it
ip p
og n
C urrent
Ġn amespace
l a
ĠV al
r t
by te
oo st
A A
th on
ar i
IG N
I ter
l ong
ad a
Ġelement s
Ġn av
im est
Ġj oin
gr ad
he nt
ĠA pril
ĠC heck
H ost
Ġtem plate
Ġat tribute
Ġlarg e
ĠAug ust
p ri
Ġem pty
b in
fo ot
Ġc ur
Ġne ver
Ġb it
Ġc ause
im er
OR T
ĠD ata
dev ice
E Q
l im
cl asses
h ash
Ġ ...
O p
web kit
he l
Ġr ad
ERR OR
Ġfoot ball
Ġhand le
( *
ut er
ce mber
0 5
AL L
v as
Ġf ew
an el
Ġrece ived
S cript
ĠN orth
Ġh ouse
} _
Im pl
in ternal
Ser ial
Ġcontin ue
Lo ad
ed ef
i et
b a
b efore
Pro ject
ĠOct ober
de lete
lay er
ĠL og
Ġs pace
Ġap i
_ ;
un g
Ġf ree
ys is
ĠSe e
Ġ arr
ter m
Ġl anguage
p m
Ġhttp s
IN E
ĉ ĠĠĠĠĠĠĠ
Ġinv est
Ġt urn
.... ....
on es
Ġle ss
P arameters
Ġit er
et ter
Refer ence
re q
Ġfor mer
Ġex ception
b reak
Ġadd ed
=" -
ĠP res
h am
ep s
U B
ap er
se l
Ġrefer ence
o ice
n a
T ER
artifact Id
Ġst ore
Ġg l
Ġs ent
Ġspec ial
n ap
================ ================
i sed
In valid
r am
equ ation
s mall
Ġpro perties
b order
Ġ[ '
Ġp o
F ont
Ġb ir
8 8
In teger
Ġposs ible
Ġt ypes
ex ample
Hel per
S chema
Ġd ue
d ated
al ysis
Ġdes ign
re et
ec ution
c s
m edia
C ore
Ass ert
k nown
th ers
c opy
W idget
200 7
Ġw in
Ġre search
val ues
} ^
it ter
200 6
Ġgo ing
inter face
id ual
ce ll
Ġm er
eth ing
id es
Ġcont ainer
re ed
trans form
__ (
Ġto o
de p
Ġt imes
Ġhas h
S p
imest amp
~ \
Ġapp lication
ĠN S
ult ure
to String
` .
ĠT O
Ġr a
Ġre port
Ġpar se
ĠâĢ ĺ
ĠS ub
ĠM an
itt le
action s
Ġmethod s
ce ed
M eta
Ġe qual
D ir
& #
iss ing
ĠR ec
sp ond
Rec ord
ad ow
re w
Ġn ames
Ġper iod
F O
ĠS w
Ġab ove
od er
0 7
p ose
Ġm edia
group Id
Ġm illion
Ġrele ased
ĠS te
f s
Ġ ;
H O
val u
f n
ance l
200 0
Ġl and
ĠF eb
6 7
ĠW eb
ĠI S
en v
ĠHow ever
j e
0 8
hand le
trib ut
l it
i ol
` ,
s a
' ],
Ġbeg in
ĠNov ember
R out
g lobal
Re ader
M enu
Ġ quest
y c
P os
iag n
st and
an a
or iz
Ġcomp onent
Tr ack
Ġ čĊ
Ġfield s
re place
ug ins
enc ies
COL OR
Ġn amed
con f
ĠDe cember
ĠD ep
c ul
Ġc amp
g n
file s
E CT
v m
ĠR em
AN D
T ool
Ġto ken
R ect
ru ary
__ __
ab ly
g gle
Ġm ight
h over
( :
call back
b oolean
Ġpro duct
ĠB r
Ġpartic ular
Ġfil ename
rom ise
ĠO R
ur g
se ssion
By tes
Ġinst all
O M
Ġ Â
Ġ" \
ã ĥ
ight s
ĠA ustral
id s
amp ion
Arg ument
c ard
Ġ location
Ġse ction
ick er
' >
ist ration
c lear
Pol icy
Ġh old
ĠM c
ache d
L eft
im ent
Ġbus iness
ri es
cl us
Ġimport ant
Ġcont ains
p op
st er
ver se
Ġinst ead
Par ser
D own
t y
ol ved
Ġ( "
Tem plate
="../../../../ ../../
G ET
ĠIn ter
M etadata
av en
25 5
AT A
ri ef
B ody
ĠTr ans
Ġsc ope
x x
m ode
Ġg reat
) \
Ġreg ister
a uth
tr ies
t ypes
F alse
s ign
ru pt
ic ate
V ector
Ġin fo
OR D
in o
ĠC or
eg er
Ġon ce
s end
Or der
row n
Ġs ite
S ign
m ar
Ġun signed
ex ception
g or
Ġed uc
iss ions
O S
ched ule
Ġhe alth
0 2
equal s
ar ies
res sed
ĠK ing
med i
6 5
A fter
ers ist
w idget
C P
0 4
ĠD r
ic ons
Ġgener al
st ore
Ġf ri
ĠCh ar
pl ugin
ra de
Val ues
r ics
Ġplay ed
Ġby te
O ne
{ {
i i
Ġre ally
In st
depend ent
ar row
Arg s
ĠĠĠĠĠĠĠĠĠĠĠĠĠĠĠĠ ĠĠĠĠ
P RE
Ġde lete
l or
ĠM ap
Ġf a
Ġl ate
Ġf ailed
dis abled
c lick
P arent
ĠC oun
ord in
Ġl imit
Ġp assed
Ġcent er
Ġle ast
div idual
c ap
get her
C o
Ġst op
c p
ĠBrit ish
o logy
or ig
d ict
ang le
Ġpoint s
our s
d raw
ar ing
c at
Dev ice
Ġ( '
ct or
ĠS ec
y ear
ĠM e
style sheet
g reg
i ke
DI R
Se e
ĠC ON
am il
Ġac cept
ĠD E
SE T
ro du
f a
R I
co pe
Ġdev ice
Ġconfig uration
oun g
f g
c il
Ġby tes
4 9
Ġact ive
add ress
Ġde l
type of
Ġto ok
ĠE rror
Nav Bar
ĠA fter
D om
i ef
ad s
ĠR ob
ing ton
D ebug
Ġse ssion
ĠH is
g es
ak en
Ġ ~
Ã ³
w s
R oot
4 7
c r
Ġprov ide
v ers
ĠE nd
Ġe v
Ġarg ument
Ġre lease
Ġme ans
Ġob t
Ġn ational
0 6
Ġper m
Ġdevelop ment
Ġcommun ity
ĠA fr
St orage
Ġhe ld
set tings
fer ence
ĉ ĠĠĠĠĠ
T itle
lo sed
Ġse lected
doc s
ynam ic
Ġcomp et
Ġb uilt
) ]
av es
-------------------------------- --------------------------------
Ġc over
C al
wh ere
Ġhe ader
ĠFeb ruary
od ed
ĠI I
Ġcl aim
Ġ qual
> ();
TE ST
ĠP er
web pack
ir it
Ġ Qu
ur i
Ġst ory
ist ic
Ġe con
St ack
Ġ arch
M on
ĉĉ Ċ
Fe ature
Ġright s
Ġobject s
P aram
Ġinclud ed
ĠW ith
ie ve
Ġme an
cri be
is ing
v ector
Ġk ind
En abled
arg e
Time out
ĠD ate
urre n
Ġwork ing
st ack
B oolean
0 9
ac cess
âĢ ¦
y l
U RE
Ġex ecut
D L
A pi
ug gest
o om
param eter
Ġ} )
gor ith
De lete
S erv
' '
Ġn ormal
ĠS tr
De cl
frame work
Ob j
Ã Ń
Ġ+ +
Ġch anges
Th at
Ġs u
n on
ĠTr ue
ã Ĥ
iagn ost
Ġtrans form
model s
ĠJ SON
Ġh uman
Ġin line
t ers
I F
ĠE vent
Ġa ff
X ml
ĠĠĠĠĠĠĠĠĠĠĠĠĠĠĠĠ ĠĠĠĠĠĠĠĠĠĠĠĠĠĠĠĠĠĠĠĠĠĠĠ
ĠM ath
Ġ< =
pro p
Ġbe come
am ma
ĠAr t
Ġwrit ten
P ost
ex port
## #
mod al
Ġdoes n
W riter
4 2
Ġassert Equals
un ch
Ġof ten
iz ing
Ġcare er
Ġch annel
P attern
Ġsub ject
Ġf und
Se lect
R ule
ub e
OR M
ot ion
b eta
By te
Ġex pl
Ġ ide
Ġre du
i ation
Ġs ure
ed it
0 3
as ure
ĠC om
boot strap
R el
s ort
m ake
Ġm en
ov ed
th ough
C an
S k
> .
er ing
Ġs end
Ġsom ething
200 5
Ġg ot
Ġsw itch
Ġm ag
one y
Ġcan not
ilit ary
App lication
Ġas k
s ig
ab or
Ġ( *
ar b
Ġt erm
Ġke ep
Ġstart ed
ateg y
Ġc ref
i ant
Ġf ac
il ities
N um
\\\\ \\\\
ĠS T
illi am
} "
s ql
ourn al
SS ERT
H as
c ert
app ed
S ymbol
lt a
ĠB G
Ġf ive
B uild
Ġj av
ins ert
L ong
Ġbuild ing
Ch annel
ec ess
7 7
c ustom
B O
ĠM y
Ġex cept
i j
P e
reg ister
ĠR un
Re quire
Ġserv ices
Ġbeg an
ĠI O
} /
oriz ont
Ġh ig
Ġd atabase
U se
m es
Ġs ort
Field s
Ġf uture
Ġb ound
Ġsim ilar
Ġsuccess ful
Ġdes cription
log ical
Ġa ge
Ġth read
; ->
B ind
Ġv ia
ĠS k
Ġo s
ren ch
s uccess
ond on
Ġsup p
ĠB o
Ġth ird
op h
Ġte le
k ind
-- -
Ġb ox
D atabase
Ġse lect
Ġs ix
Ġres pect
ab s
Ġs ocial
Ġpr act
ĠN ame
w in
Dis play
ĠO ne
iz es
* )
Ġv ideo
ach ine
Ġm sg
h r
M ock
ip al
ĠM on
Cl asses
Ġw ater
Ġinstance of
sc ale
ard s
Ġse par
ĠC our
ĠH ouse
Ġd ays
In d
m ost
ĠĠĠĠĠĠĠĠĠĠĠĠĠĠĠĠ ĠĠ
ter min
e le
and id
ĠV alue
Ġ` `
Ġcomm on
Ġw ar
Ġin dividual
pre c
o sp
Ġam ong
m at
a a
R A
lang uage
end ar
Ġ" /
ĠPres ident
Ġs ays
Ġ' /
Ġst andard
comp onent
Ġdirect ory
Ġpub lished
S O
con nect
f ocus
N on
u a
Des criptor
" `
S A
Ġen vironment
Ġv ol
Ġj son
a ul
to ggle
Ġh aving
ĠThe se
ĠR E
Ð° Ð
ad min
Que ue
D F
s ystem
a fter
C A
W E
S cope
S w
p is
he m
Ġ{ };
G E
P L
ly ing
5 00
D oc
Ġth ings
ansp arent
D ialog
R ight
Ġwork s
Ġam ount
Ġto wn
200 1
Ġplay er
4 6
yn ch
Ġto ol
| -
re p
ase s
Ġg en
ens ure
Ġassoci ated
ĠEng lish
ado op
Ġde m
Ġb etter
oc r
S ION
sp lit
Ġp at
Ġs l
Ġ[ ];
Ġat tempt
a uto
Ġfunction s
p adding
field s
Ġab le
' ))
Ġ ign
A ut
orizont al
Ġe cho
ĠP e
act ers
ak er
Ġb and
Ġcom e
pan el
Ġm ultiple
Ġad min
J ob
Ed it
' re
x is
sh ot
ĠT ime
CT ION
sup port
o ught
_ ->
HT ML
V er
Ġc ost
I con
En g
FA ULT
Ġre d
pos itory
G e
ĠE ast
em s
In s
200 4
Re p
Ġatt ack
D raw
Ġv ert
Ġg row
AT H
as ing
ĠH igh
S L
Def inition
A meric
ĠBG COLOR
pl it
M ENT
-> _
In it
Ġc ame
key s
Ġitem s
ri p
C ustom
Ġpol icy
Ġf unc
Ġc rit
r ange
C R
Ġpro p
ĠD av
D U
Ġf ar
Ġme et
Ġstud ents
ĠLe ague
Ġcurrent ly
Ġb ig
oci ety
B l
Ġsc ale
eg a
Ġhand ler
C D
Ġre ason
Ġrun ning
Ġ\ \
at tribute
ark s
_ ,
w ner
S QL
A re
{ }
oun ter
L e
Ġset tings
sk ip
Ġp ack
Ġem ploy
ill s
il le
ĠA cc
is k
uck et
= \
Ġto gether
"" "
ĠB ro
un signed
math bb
O K
. __
Ġpolit ical
ol l
Ġgr ad
Ġra ise
h ib
F ound
s ite
CH E
en um
li er
he lp
t ip
D r
} _{
Ġm aking
ĠR ed
c ur
ĠV AL
ic o
Ġr ule
ob ile
J SON
D D
tr ack
Ġs cript
er ed
ĠHT ML
at ter
TE D
ĠJ ap
item s
ĠU RL
s y
EN D
rag ment
d im
m u
str aint
erv ed
ĠR uss
av ior
Ġd oc
Ġstr ong
b orn
re ct
ic an
print f
Ġw ait
do uble
", "
s ymbol
KE Y
5 9
Ġdif f
ag ed
c md
ĠCol lege
Ġorig in
Ġp ast
Ġt ree
Ġa ir
Ġact ual
Ġat tr
Ġmem ory
ĠR ev
C lick
ĠTh at
ĠA m
ist ance
Ġs ing
ĠA g
iv il
Ġpl an
ä ¸
Ġim pro
Act ive
Ġsol id
Ġp ur
m ock
ĠAmeric a
her it
depend ency
att le
ĠB ase
Ġac ross
ĠL ondon
ĠP y
Ġgroup s
j ust
Ġt w
Se lector
k a
arr y
foot er
S end
Ġbe low
gr id
IT Y
Ġpop ulation
ĠĠĠĠĠĠĠĠĠĠĠĠĠĠĠĠ ĠĠĠĠĠĠĠĠĠ
ĠDef ault
con nection
ĠS ervice
it te
Ġoper ator
AG E
Ġprob lem
iter al
Ġf urther
app ly
ar p
5 8
im pl
Ġn eg
rior ity
Ġl ib
Ġe lem
ist ics
C re
h adoop
app lication
act or
A V
] ]
Ġd at
[ :
sc roll
id ed
R et
h o
h a
-- >
m argin
G raph
d s
ix t
c loud
Ġc a
ĠL O
Ġb en
ampion ship
V ert
Ġcon vert
Ġbut ton
Ext ension
Ġcorre ct
f ord
Ch anged
FI LE
Ġper cent
c oin
Ġstud y
L ock
Ġun it
Ġtype of
Ġestab lished
add r
100 0
Ġh ard
Ġstruct ure
et ers
M ember
Ġsupport ed
oci ation
aw s
6 8
Ġd er
in line
E ach
ĠD istri
drop down
5 7
M sg
Ġact iv
art ment
m i
Ġdef ine
Ġwe b
//////////////// ////////////////
ag ing
Ġh tml
) }
w rap
al low
it u
Ġann oun
om atic
air s
Ġfil ms
al a
ol ver
( !
Ġcom b
Ġset s
Ġd b
Ġvis it
AC E
H P
un ity
h ing
sh ape
Ġeng ine
Ġal t
Ġneed ed
T S
al loc
n ers
TE X
Ġe lect
Ġg ames
assert Equals
ĠL a
Ġadd itional
t i
p k
omet ry
Ġwrit ing
O F
t hen
ĠN OT
ub y
| |
m m
re qu
Ġappe ar
EX T
On ly
Ġcorre spond
leg al
Ġy et
Ġdescri bed
ĠP ublic
select ed
ĠL o
Ġe as
ĠO pen
; /
Ġof fer
w ik
IT E
F loat
F lags
Ġind ic
m ail
Ġtyp ename
Ġl ight
in itial
Ġoffic ial
Test s
Sec urity
Ġo thers
ĠB ar
Ġvar ious
ĠIn ternational
") ]
p ub
Ġkey s
ĠM ed
B C
Ġcent ury
P ool
E rr
ĠA ir
Not Null
ĠG roup
ĠC re
Ġ ),
ip eline
let ion
Ġl ittle
Ġs m
te gr
cre t
', '
rom e
Ġm aterial
T ab
Ġin fl
h older
ĠW illiam
ynch ron
all eng
Ġdet ails
Ġp ot
po sed
p assword
=" /
F unc
ĠU se
Ġc irc
li es
B A
Ġn ecess
Ġloc ated
h s
Ġother wise
Ġl ive
Run time
g ment
Item s
ĠF orm
Ġt re
N etwork
)) )
assert Equal
; <
ĠĠĠĠĠĠ Ċ
ĠF unction
E l
ach ing
pl ugins
ĠO ut
Ġperform ance
ĠP ark
Ġf all
ance ll
Ġde p
Ġst ep
ff ff
Ġcl ub
che me
Ġch anged
Ġd a
a ign
M ark
ĠR ef
ĠAr g
Ġw ent
we ight
Ġiss ue
ock er
Ġv e
Ġd en
Ġo pp
Iter ator
iter ator
con n
Ġtrans action
Acc ount
M et
8 9
@ "
ĠC opy
ĠS ch
Ġse en
_ \
Ġe lection
20 20
200 3
Ġcert ain
Ġcase s
un ic
Ġse lection
- \
Ġli k
Ġro und
Ġsign ific
gorith m
ank s
ain ts
Ġg e
Ġth ough
b ig
Ġc apt
M edia
com ment
v an
Ġ( _
ann er
} ^{
Ġapp lic
Ġinv oke
c over
In ternal
M M
par a
Ġd raw
P erm
ograph y
Ġm ock
Style ID
In itial
no logy
th read
Reg ister
Ġcre d
ĠI r
8 7
umm er
P AR
Ġ io
Ġallow ed
ch annel
Ġv iol
h igh
. )
if orn
Pro p
ĠF alse
proto buf
Ġs at
Ġserv ed
Ġ" "
com ing
P od
' .
z er
Pl ugin
S IZE
ap s
ĠS pec
Y ou
Ġg raph
I R
ĠH er
ĠK ey
ro s
Ġser ial
ver age
event s
Ġph ys
* }
Ġlo t
Ġint rodu
Ġa way
import ant
s chema
Ġin ternational
nap shot
Ġerr ors
Str uct
ent ity
Ġw r
v irtual
Lo ader
ĠQ ue
ĠN e
st op
Ġf n
Ġbl ack
)) );
P ackage
ook ie
un t
z on
f ull
H istory
al led
Ġexp ression
pro ps
c i
Ġst ack
f ill
se qu
Ġob serv
++ ;
ĠE l
Ġb orn
Ġmark et
et ime
c ategory
f ony
id ge
ĠM ich
ener gy
D irectory
Americ an
Ġg ive
F r
Ġre view
h at
Ġexist ing
at ural
ym fony
Ġst ates
Ġst at
rad ius
ut f
Ġn et
l ambda
em ail
math bf
cent ury
ĠA p
F ail
est ed
l n
al le
iforn ia
Ġfor ce
F il
5 6
ic les
p g
Ġter ms
u el
ĠU ser
9 7
str y
Result s
b ased
Ġneed s
Ġfeature s
8 6
anag ed
el low
annot ation
ĠGener al
Ġcon n
am era
_ (
Ġd im
ĠS an
ĠN ode
200 2
p ress
J ECT
n es
Ġso ftware
ĠPh il
Ġst rict
Var iable
Ġchar acters
At tributes
C lose
Ġcomp lete
B it
m ove
ched ul
ly ph
e ach
pr imary
I I
Ġh alf
for ce
() ).
Ã ¼
a el
Ġp attern
= {
Prot ocol
Event s
Ġtr ad
T C
ĠCon fig
as is
Trans form
() ));
() {
Ġjav ax
tx t
~~ ~~
Ġhow ever
Ġpres ident
R ed
U ID
ĠL oc
Ġt aken
Th ere
Ġrel ative
ĉ ĠĠĠĠĠĠĠĠĠĠĠ
S he
th rows
om ent
Ġsh are
arri ed
Ġcont ain
b or
j o
Ġv ill
Ġf lag
Ed itor
wh ite
ĠF rench
v ing
Ġshow s
LO G
W hen
Window s
reg ion
li ke
rec ord
P ointer
Ġp ackage
) ">
ern el
Ġn odes
ĠF irst
Ġcom ment
f lags
c m
s ave
M D
Ġt ell
Log ger
A uth
ot a
P ORT
ang er
ph i
ig r
hent ication
Ġoper ations
Par se
vent ion
W S
if est
al d
Ġconsider ed
="../../ ../
RO M
mut able
Ġit self
Ġf ire
Ġin f
ĠT HE
ile s
ast ic
Ġacc ording
or ge
Ġn ov
. *
MA X
Ġcon sole
Key s
use um
Ġt alk
ca ption
ĠRep ublic
ĠA L
Ġrec ogn
N E
arg ument
av el
Ġhapp en
m anager
ic ult
enc ed
Ã ¤
fe ature
ĠM ark
V olume
inst all
Ø §
Ġle d
9 6
P R
qu ad
res ses
ed eral
hand ler
i pe
Ġh istor
Ġ{ \
h an
i os
by tes
itte e
S D
c pp
Ġw ord
Ġtest s
Ġwh ite
4 3
Ġt ax
it ect
c b
er ve
Ġpartic ip
Ð »
t mp
Ġbir ths
an ies
Sh ow
To String
Ġuse s
m ic
je ction
Pro xy
ĠTO DO
Ġs ymbol
if orm
M y
ĠInd ia
ĠR o
block List
Ġcour se
Trans action
Ġde al
$ (
ce l
Ġent ire
Ġst ation
col lection
o sed
able s
ign ment
Ġset ting
Sc roll
R est
l ines
sp ring
Ġen ough
ar ation
av ed
Element s
Ġadd ition
tr igger
ĠV ersion
Ġc ar
4 00
Ġb ind
ĠĠĠĠĠĠĠĠĠĠĠĠĠĠĠĠ ĠĠĠĠĠĠĠĠ
y es
ĠD on
Ġs uggest
qu are
4 1
ĠCour t
[ $
ĠCal ifornia
Ġd i
Ġprodu ction
overn or
st ep
g u
Ġin du
Ġm akes
Ġ lock
f ree
n one
des c
cont roller
Sc ale
Ġact ually
ĠO per
ĠCent er
Ġinclud es
Ġf lo
n ames
p are
ĠC all
Ġs creen
i ents
te ction
li de
n ormal
n ey
Ġde g
de cl
om b
b rief
Pro ps
e ch
s ing
AR Y
lap se
Ġcond itions
sh ort
m etadata
VER SION
Ġrel ated
9 5
A uto
W rapper
D C
oo se
Ġapp ly
ook s
AD D
CHE CK
Ġsec urity
ĠD em
Ġs on
not ation
at ory
ĠM o
sol ute
Ġto day
Ġf low
Mem ory
ĠN or
En um
ĠA N
Ġquest ion
Ġre q
ĠReg ister
Ġimplement ation
ĠDistri ct
Ġgener ated
ĠO ption
ĠW ork
Re ce
M ar
Ġm ilitary
Ġat tributes
Ġb uilder
ST AT
ist r
sup er
ul a
om y
N et
Ġiss ues
Ġs imple
con s
as sets
Ġun ique
N odes
T ABLE
R AN
Ġdistribut ed
G rid
ut ions
Ġin valid
il ation
C S
ĠInd ian
X ML
ase t
25 6
at ives
N amespace
el li
im ated
ĉĉĉ Ċ
w ide
P A
Ġmov ed
Ġex ists
Ġal loc
ĠĠĠĠĠĠĠĠĠĠĠĠĠĠĠĠ ĠĠĠĠĠĠ
child ren
ĠM ethod
} </
Ġdistri ct
ĠF ield
ĠT ask
Ġd ied
li ct
Ġm atrix
ĠT ext
Ġsignific ant
ash ington
Ġl ang
B r
State ment
Ġfe el
stit ute
av or
m aterial
L IC
Ġy oung
Ġl im
BU G
Ñ ĥ
ug e
"> &
199 9
ĠV er
ĠN O
es h
^ {\
ĠIO Exception
N ULL
Ġmon th
F in
ĠS m
Ġr ather
typ edef
Gener ic
if ies
ĠS ome
ra el
k s
Ġmodel s
Ġext ension
=" "
ix el
Ġd ig
s cription
ĠGet s
m ission
Ġl ibrary
8 5
UT F
Ġwe bs
Ġresp ons
t imes
key word
In v
Con d
Ġl ines
M atrix
Ġp ointer
. [
P anel
ĠGerm an
ĠS en
point s
ex pr
I MP
S ocket
ĠP ort
Se cond
Lay er
By Id
al ed
Ġb ar
ĠCoun cil
re set
ĠE m
Des c
ĠC ode
du c
Ġr andom
$ \
p ay
Ġeduc ation
ĠCh ina
S Y
f ail
Ġc tx
Ġprof ession
J S
Ġ energy
st ats
Ġr g
Pr int
ur b
pro duct
Ġed itor
Ġres ources
ĠR et
Ġwrit er
h old
id a
Ex pect
An y
Ġn umer
Ġj Query
sv g
ĠI d
ĠDep artment
'] )
Ġtem p
it ude
Ġlow er
y d
ĠF in
land s
ang o
ch an
Ġexper ience
( __
j query
ential s
w rit
Ġa void
Ġ[ ],
Im p
Ġs old
z one
are a
t w
Ġunder stand
P op
pro perties
=" @
re ater
Ġn g
Ġas ync
ĠI P
r d
Ad apter
M an
B efore
Ġreg ard
ĠC r
AL SE
Ġv ector
s creen
Ġle ad
Ġpr imary
atal og
Ġpart y
Ġid x
sec urity
ĠN ote
Ġm ass
ĠĠĠĠĠĠĠĠĠĠĠĠĠĠĠĠĠĠĠĠĠĠĠĠĠĠĠĠĠĠĠĠ ĠĠĠĠĠĠĠĠĠĠĠ
ent er
u y
ĠCh urch
Ġimplement s
IN S
Ġt ab
ĠG oogle
ĠP al
get Name
Con f
LA G
Ġins ert
yc le
ĠG od
Ġcoun tries
Ex pr
co q
ar a
==== ==
N amed
le ms
ĠEurope an
ON E
ĠM em
pe at
S o
ed itor
Ġth ought
Ġup on
Ġtele vision
3 00
n il
Ġwork ed
de lta
Ġtr aining
Rem ove
cont ains
( -
L INE
Ġpart s
File s
) ),
Ġprovid es
ancell ation
ant ic
Ġ{ '
Ġr ate
" /
Ġen abled
à ¤
ĠD iv
G r
Ġcon nect
Ġperson al
ut ed
Ġre v
. '
Act ivity
Ġwho se
ĠInt eger
N G
Ġre ported
ific ate
ip s
log ger
At tr
] :
urren cy
and ed
if def
Ġmon ths
il on
Ġde termin
I B
D S
Ġf ather
F ailed
Ġde bug
h ood
S ER
Ġsh all
ad cast
p icker
u it
Ġre place
Ġcont aining
ĠEng land
tool s
g it
Ġt reat
ar ter
Ġn ative
ĠAr ch
re sp
ve y
z z
Ġe ff
ul ate
I E
######## ########
Ġdid n
module s
l ers
n umer
D est
Ġsize of
Ġf ig
dom ain
D uration
Ġent ity
Ġreg ular
Ġcomp lex
el f
Ġp ress
ĠRe ad
ro te
b ound
Ġ% }
the me
Ġwh y
n etwork
ĠL aw
Ġcon structor
Ġm aint
Ġspec ies
j ob
ĠP re
m ask
p refix
Const ants
Ġex tra
Ġ$ {
em ents
art s
Cl uster
m aster
Ġcall s
Ġre pl
Ġw allet
L S
ĠĠĠĠĠĠĠĠĠĠĠĠĠĠĠĠ ĠĠĠĠĠĠĠĠĠĠĠĠĠ
P ATH
b urg
Ġm anager
ĠF rom
ar io
ĠD irect
P refix
pro file
Pro file
> ::
He aders
Ġcon tract
G lobal
Ġh on
anc ial
Ġcour t
Ġ icon
P T
at tributes
! [
Ġrelation ship
Ġcon c
Ġpro gress
Ident ifier
ĠJ ust
led ge
Ġcond ition
Ġapp end
Ġin tegr
Ġare as
Collection s
Ð º
S ync
ĠDav id
li br
F l
P ACK
ĠH and
sa fe
Ġcl asses
Ġs ave
Ġ ensure
ly mp
re al
P ack
S yntax
b oost
ict ure
Ġlist en
Ġcomp leted
Ġc lean
Do uble
a o
ĠC up
S ingle
RE AD
Ġv ot
Ġcl uster
un defined
Ġph ot
il led
index Of
Ġsh own
p ool
Ġdirect ly
e cho
ident ifier
Ġb ad
Ġse quence
L java
M apping
in v
] {
DU LE
ĠCan ada
id x
ĠH ol
sw itch
se ss
Ġth ing
m ount
Ġlo ve
Ġoption al
Ġ[ [
Ġc ast
Ġm oney
Ġexp ress
M ain
ĠUp date
Ġrem oved
ĠJ ames
Ġa ward
b rowser
Ġpop ular
) "
fil ename
Ġfr ont
Ġg round
le ep
A v
A c
ĠC ons
ĠSt ud
ĠAustral ia
Ġcons ist
en a
TR UE
it ing
t otal
N e
Tr ace
h idden
m as
TEX T
av y
un n
> :
Ġo l
h i
Ġz ero
spec ial
ĠW ashington
ĠRe act
ĠF ound
ac count
Ġ util
Ġw ords
9 8
Ġprodu ced
5 1
as ons
Ġ" <
Hel p
Ġ" ,
) ).
Ġn orth
Ġpre vent
Ġlo st
O UT
B rowser
Ġinfl u
h ome
Ġcomp anies
Ġestab lish
pro gress
r b
Ġenc oding
por ary
Ġrel ig
Ġcol l
ul ly
Ġb g
Ġfri end
Ġpl atform
Ġout side
Ġ( \
ĠSt reet
use s
Ġ$ .
a id
h ide
m ore
sig ma
Ġd ir
Ġconst ant
sh adow
result s
ĠP ost
en ses
ĠH el
Ġwho le
M e
f d
r ift
or ing
Ġa ch
Ġt en
LO CK
Ġex port
not e
' ));
b uilder
G B
Ġa wait
ĠO ver
er ial
m ing
Ġfor ward
Ġa verage
Reg ion
E M
Ġdirect or
dep th
Se quence
ul ated
ĠA nt
NavBar Cell
Ġin teger
Ġtr ansparent
ĠM ag
ĠĠĠĠĠĠĠĠĠĠĠĠĠĠĠĠĠĠĠĠĠĠĠĠĠĠĠĠĠĠĠĠ ĠĠĠĠĠĠĠĠĠĠĠĠĠĠĠĠĠĠĠĠĠĠĠĠĠĠĠĠĠĠĠĠ
Ġto ld
Rout e
Ġb tn
Gener ator
de c
at io
ĠRob ert
Se lection
5 4
Ġst age
Comm on
P ER
Ġro t
c ut
prot ocol
S eg
ĠCh ampionship
w rapper
Ġle arn
Ġmax imum
199 8
Ġ' <
+ \
lo ader
Ġxml ns
VAL UE
Ġt akes
l g
Ġ queue
199 0
Ġb rowser
Ġf lags
16 0
F ull
Ġval ign
ĠĠĠĠĠĠĠĠĠĠĠĠĠĠĠĠ ĠĠĠĠĠĠĠĠĠĠ
Ġc ross
Ġfin ally
Ġf em
Ġj ud
%% %%
Del ta
am el
HT TP
ĠPro ject
ĠF I
Ġs igned
ed s
D A
comp onents
Ġf ace
J ava
Ġp y
De legate
Ġannoun ced
Ã ¶
ĠPart y
-------- ----
=" ">
Ġstate ment
P S
d ates
ĠO ther
k ens
head ers
fig ure
Reg istry
L en
Ġc andid
Ġdo ing
B R
Ġnecess ary
ĠEx p
Ġin side
a ur
Ġle aders
Ġf ocus
Ġsh ape
test ing
ou ch
M icrosoft
av er
Ġgener ate
om in
Eng ine
UR I
Ġcon struct
Ġeff ort
Ġ> >
Ġ ui
ens ive
Ġo k
Ġr ules
Ġp aint
ĠR iver
Ġoff ice
ĠB uild
ç ļ
is f
ĠP aul
Se lected
sel ves
Con s
ĠJ ew
ĠCopy right
j unit
ill a
ĠB er
Ġmat ches
W A
(' .
d one
çļ Ħ
is l
S uccess
Ġch alleng
ĠC O
Ġs outh
Ġrequest s
ixt ure
ĠIs rael
Con n
Ar t
Ġm id
OO ST
Ġw rote
Ġm etadata
o e
ĠR oy
Ġro om
ane se
Ġse x
d irect
k w
Ġst orage
ĠA ward
SC R
Ġv ict
ĠL ong
Ab stract
pre v
IN D
LE CT
5 3
prot ected
IP T
tag s
Ġhig her
A X
eng ine
b al
Ġle ading
Ġin c
Ġdescri be
l imit
r ule
ĠU K
Ġsystem s
^ \
Ġnot hing
Ġs itu
str aints
F IG
. ");
Ġim medi
M ut
Ġrec ent
param eters
ĠC ong
ĠR ich
7 6
el t
chedul er
it ar
in valid
ag o
ĠIn itial
om as
Ġlong er
ig ration
Ġus ers
Ġp refix
Ġcon v
oo g
ĠM al
5 2
U ri
ĠM r
St ep
sh al
as c
ĠFr ance
pp ed
ĠM od
Ġe vid
Ġallow s
D ictionary
U SE
he t
d x
mo z
TI ME
ify ing
ĠIn st
Re pository
r is
Ġdef inition
c irc
) ->
ĠBl ack
ĠV iew
Event Listener
Ġhe l
A CT
Ġsh ared
Pro duct
resh old
ĠA ND
Ġ ],
Dom ain
Ġw est
f amily
config uration
Ġ" -
ĠIn c
Ġc ore
err y
Ġcon tribut
math rm
iz ations
ĠS QL
par ser
ĠGe orge
ol ic
FF FF
ie ved
Ġc ut
Ġwebs ite
& &
ĠAss ociation
y a
Ġp od
ist an
ĠU N
Pro gress
Ġlist ener
ser ial
ĠB en
ac c
S imple
m ouse
R ole
Ġcamp aign
istri but
am s
v ille
m itted
ĉĉĉĉ ĉĉĉĉĉ
Ġpass word
CE SS
Ġrece ive
s cri
Ġal most
ĠRe quest
P ay
ĠCol lection
part ial
S pace
oun try
ick et
Ġ ill
itt ing
ex ternal
O pt
b ert
Ġnew s
ex ecute
op ed
Det ails
st orage
C RE
Ġm or
R ad
ĠO b
ore st
Ġtech n
ĠE ar
Ġben ef
det ails
ĠUn ion
n def
=" ${
ra z
tab s
f x
Ġ ip
tt y
8 2
P assword
test s
err ors
en sed
ri an
en abled
Ġf amil
Ġindu stry
( @
Serv ices
Char acter
F LAG
Ġt mp
ĠD et
ad ian
ĠAs sembly
ĠThe n
pl atform
k er
F R
Res ources
til de
Or ig
f ly
Ġvar i
var iable
f c
Ġm issing
20 21
Ġs imp
7 2
Ġm ut
az z
ĠH ash
he st
Ġm anagement
Ġtr igger
ĠNew s
c ing
ro ke
Y ear
Ġtrans ition
Ġb ottom
ĠT H
form s
ĠO ff
P y
ĠLO G
l am
ber g
Ġread ing
ĠF il
MO DULE
Sh ape
ĠA SSERT
Ġhe aders
p attern
en able
w est
g in
Ġw ide
Ġm essages
out her
in n
ĠD ec
Ġen um
EN SE
Ġc losed
lo ok
l legal
ar ily
Ġ[ "
Ġa uth
Ġfail ure
A uthor
ĠWh at
pro xy
Ġdest roy
Ġb al
I ST
Ġqu ick
ex tern
Ġtr ansport
ĠHT TP
Ġfore ach
Ġapp oint
Ġn ight
Ġp aram
ĠN umber
RE S
Ġf mt
prec ated
Ġv olume
Ġde ep
F C
ill ing
Ġhim self
Ġdec ision
ri a
g an
Ġe pis
ĠM ore
Ag ent
ĠI E
S R
ca pe
Ġtime out
C I
Ġrg ba
ĠM et
Ġpr inc
C ap
Ġdisc over
Text ure
Ġc op
side bar
if ndef
ĠJ ava
Ġt aking
Ġst and
em on
wo od
h orizontal
Ġpl ugin
Frame work
O wn
Ġ er
Ġe valu
bs erv
ther n
Ġh om
En umer
Ġd irection
ex ists
ĠP ress
8 4
Ġopen ed
and er
ĠW AR
wh ile
b ad
Ġup dated
tem p
Ġex ports
Ġs ample
O D
ĠM or
ann ing
ĠAr my
Ġop port
Ġet c
ĠH ar
IT ION
Ġb uf
er ies
ar ator
Ġdevelop ed
f ix
Ġf requ
un der
c ial
Ġl iving
ĠM essage
i qu
pec ially
j ar
p ite
ĠRes ource
Ġm is
j ango
outher n
ar ison
ang ing
F act
ï ¼
Ġpro ps
ĠTe ch
Ġw atch
Ġobt ain
Ġcon duct
Ġmod ern
d ist
H ER
O B
ang ular
Ġr isk
Ġcal cul
Ġab solute
Ġun less
u ous
pre t
Ġvill age
Ġen v
d ialog
Ġread only
Ġf ight
time out
Ġf actory
ĠH ttp
Ġlay er
p ass
im ately
osp ital
Ġo wner
graph ics
m en
ĠM art
Ġtrans fer
At t
Ġp ers
ĠJ e
Ġm ount
sp irit
b le
ĠIn stitute
Ġl iter
Ġs ql
ess or
Ġlik ely
Ġro ute
Ġart icle
fr ag
x i
res olve
Ġstr ings
pr ing
B ound
le q
select or
St ats
g amma
M ath
Ġ_ ,
Ġgr ant
RE G
ext end
ac ro
Ġt ro
f ire
Ġpol ice
t im
IC E
12 8
pro vider
ugh ter
ĠHe alth
Ġdom ain
Inter val
Ġdisc uss
g rade
C ategory
Pe ople
End point
Date Time
Ġsc ore
Ġdistribut ion
W R
C red
ĠD ay
res ents
ĠP ath
H ow
Ġex act
us iness
sh all
t body
Ġim m
D iagnost
B egin
Ġbo ard
) /
OR TED
ific ations
ĠG o
$ $
ad es
Ġsh ift
ick s
9 1
Ġde part
Ġh it
ĠD ev
ĠT V
s lice
l is
Ġh idden
t k
as ync
Ġe ast
Vis ible
> "
ine se
Ġinv olved
Ġlog ger
ĠW indow
ĠIn dex
check box
RE Q
Ġnum bers
ĠComp any
ache s
Ġ= ========
i ences
f aces
ri al
ex ec
198 0
^{ -
ĠT em
or ter
ĠR oman
v c
Ġro ck
typ ename
ĠF e
Ġch urch
Ġinst it
ĠW il
Ġm iddle
Ġaut omatic
ĠL ou
Ġconc ern
A p
libr ary
p u
Ġleg al
Gener ated
oper ator
Com ment
Ġjoin ed
Ñ ı
Ġpar ser
U ES
Ġs us
Ġc ivil
ma zon
un ique
th row
re y
F L
ĠĠĠĠĠĠĠĠĠĠĠĠĠĠĠĠ ĠĠĠĠĠĠĠĠĠĠĠĠ
Ġass um
r ase
iz able
Dep end
s q
ĠD an
() </
ĠM usic
d i
Ġf ixed
Ġan alysis
Ġsc roll
Ġc ult
Ġstart ing
Ġcoun ter
Ġem ail
grad ient
ĠEx t
Ġr ace
s b
o log
Ġen able
S pan
z ure
WE B
Ġt x
user name
Ġa ud
Ġf ood
d p
sh ared
Ġ ];
L in
N ative
Ġr aw
Ġtrans late
7 8
s ur
Ġplay ing
log in
ĠO lymp
H R
Ġset t
IN FO
Ġdes c
st at
W N
or se
Ġfin ished
D b
Ġre tr
ĠM icrosoft
f lag
l as
F ORM
Ġrepresent ation
ĠU I
t c
ĠVal id
Ġre set
Ġopt s
ĠR el
b and
Ġs ound
e lem
SCR IPT
i ate
Child ren
ĠT ex
it o
Ġp rior
O ff
Ġbr ing
Ġdist ance
******************************** ********************************
re v
ens ity
Ad min
r andom
ver ter
ĉ ĠĠĠĠ
Ġbeh ind
li ance
E C
C or
th at
{ "
ĠD el
Ġ' \
Ġbeh avior
........ ........
Ġimp act
Ġne igh
ĠM odel
Ġperform ed
riter ia
A li
33 33
the ta
ĠÃ ĥ
ĠWh ite
C ert
elli j
in i
m aven
s im
ch or
Ġcomp let
Ġc md
Be an
ate way
Ġany thing
Ġde b
Ġcorrespond ing
Test Case
f ound
W ORD
7 9
D T
Ġpro file
ĠChrist ian
Ġcont roller
N T
wh ich
ĠB el
Ġcom es
ĠGerm any
velo per
Ġst e
v ideo
ĠM er
DE BUG
INS ERT
det ail
Ġcontin ued
Ġn atural
Ġse lector
int ellij
Ġcont act
Ġdiff icult
Ġn or
pk g
Ġab stract
ax is
Back ground
Ġes pecially
ro le
Ġprob lems
s ingle
D irect
Ġ> >>
run time
Ex ecut
r or
M B
DE FAULT
Error f
20 22
eq ref
up load
Ġnot e
ro om
() ))
Ġgo al
e es
os ite
Ġim ages
197 0
ME TH
Ġline ar
P ublic
pe ed
ĠAN Y
ĠJ ack
al ity
ĠV ector
Ġprofession al
Ġcap ital
re lease
I gn
con structor
Ġbg color
ĠArray List
Comp at
ĠAfr ica
P UT
b old
. <
M ask
6 9
Ġm ale
ĠM ex
Ġre ject
199 7
ĠDem ocr
ie ce
$ /
spring framework
ĠL android
} {\
| \
; }
Sup port
Ġag re
ĠL eg
Ġlo op
Ġd am
Ġide a
velop ment
" ],
Ġan sw
Ġor d
Ġecon omic
Ġpro xy
Ġpos itive
Ġassert That
V ENT
Ġ_ .
com es
ot ed
Wh at
Ġwe ight
pend ing
Ġbook s
Ġincre ase
P lay
n odes
Ġ ri
An imation
Ġm ot
Ġw ife
B ig
Ġs il
F ind
V M
sh ift
check ed
Ġappro ach
comp iler
? >
Ġexp licit
Mem bers
STR ING
Ġco ordin
ĠT w
Ġrecord s
Ġm enu
199 6
Require d
res ources
SS L
omet imes
I VE
N ow
est ival
Ġschool s
h ere
s ys
Ġprob ably
Ġm oment
Ġs chema
d ed
Ġw alk
ed er
S ort
serv ices
ĠWh ile
Ġh ours
id ents
( /
Ġpot ential
U C
h ref
ve c
' ];
ĠM ount
cont in
opt s
M at
CO MP
ĠFound ation
ĠM ary
M I
6 3
Pro to
# {
Ġvariable s
Ġsign ature
Ġd rop
Ġfollow ed
line ar
Ġcre ating
gener ated
require d
Ġm other
arn ings
Ġtr ade
end or
umm y
im s
L anguage
ĠN AME
Ġc lick
Null able
p ing
Ġme asure
Ġsong s
ĠAcc ording
Ġ ).
G en
Ġvis ible
Ġset up
F lag
W ord
ĠF ROM
L imit
ĠA ction
Ġbegin ning
z ip
aj ax
(' /
ct r
Ġa ctions
ĠM ake
< !
ON G
MO DE
at ur
S cal
F E
ver y
de l
Ġpro per
on ym
py thon
Ġlo ss
C apt
Se ction
(' #
6 2
ĠJ er
y e
Ġsimp ly
er g
_ );
Ġthrough out
Ġdeg ree
Vert ex
us ers
ĠM at
F S
Ġevid ence
ĠA R
ĠAfr ican
à ¸
n u
ifi ers
Ġlarg est
Ġdr iver
in ct
Ġl icense
ue st
ĠH all
Ġfollow s
ir gin
Im port
s ync
Ġarch itect
re act
Ġrequire s
: `
199 4
se ct
D ATA
B E
St op
EL L
w ild
ic ated
Ġcon struction
c lean
and ra
Ġm aster
Ġlay out
'] ['
M ulti
Ġget ting
uf act
w atch
Ġis n
her ited
con trib
Id s
G R
Ġp ush
s ocket
uff ers
aly t
option al
Ġ' ';
z a
av i
ext ension
ĠT able
g ers
Ġr ank
urre d
l at
los ure
con sole
Ġpre c
valid ate
ĠB lock
Ġcomp onents
ĠComm ission
Ġign ore
clus ion
as sembly
St at
Ġappro x
se y
ĠSt art
S ymfony
ĠMich ael
. ",
F T
col lapse
it iz
b es
DO M
Ġrad io
Argument Exception
Ġappro pri
ancellation Token
clud es
trans ition
d en
VAL ID
ĠH istory
are t
W ait
j Query
ĠIN TO
Ġfore ign
ĠS ociety
ĠB ig
arg uments
ĠM ain
Ġd ise
199 5
Ġex ternal
h ouse
7 4
' ve
in herit
o on
Ġgrad u
M ouse
view s
Ġmat ter
own er
D at
tern et
p ed
tr ace
Ġtyp edef
ĠA re
Ġapp lied
ĠMin ister
: [
Con structor
Ġc ulture
' m
ree k
\\\\\\\\ \\\\\\\\
INT ER
Ġde but
ĠCol or
s f
ĠS im
V ideo
oper ation
Ġm ask
å ı
Re port
__ )
ĠP ub
ĠJap an
struct ure
ĠA ng
Ġdis abled
Ġqu ant
Ġte ach
Ġag o
ph one
Ġto ur
Ġprevious ly
ĠM ac
all ery
or ial
dr iver
S ql
ire s
Ġnov el
Ġch ain
cl one
Ġse cret
Ġwant ed
con struct
PO ST
Ġp ool
Ġsc ient
Ġ" $
Ġbel ieve
Ġpolit ic
Ġre comm
Ġg ave
ĠF oot
Ġ@ "
T x
Ġse em
hel per
Ġun its
pro du
8 1
Ġ{ "
Ġ{ {
Ġchar set
M er
anc y
Ġprot ocol
Ġs aw
r ate
ĠB oolean
nav List
s ince
IG HT
Ġf ix
T otal
D IS
Ġ= ======
Ġnull ptr
Ġtech nology
Ġed ge
Ġ\ "
Tag s
ĠDiv ision
ersist ent
Ġc ursor
Ġal tern
ĠV is
Ġtry ing
ab ilities
e ffect
Ġs ense
P air
ĠRet ri
get Value
load ed
Ġ( [
Ġthem selves
; "
En v
Ġex it
ĠPro gram
ateg ories
Sh ort
C F
ta u
ĠIn put
y g
9 4
Ġcall ing
8 3
ĠS am
$ -
g reen
Ġre ader
ĠS ince
Return s
9 2
Ġprom ise
Ġal though
Method s
Ġfin ancial
Ġp ick
Ġpro ces
(" /
j a
display Name
p ag
Ġorgan ization
an o
lo od
all s
DE F
sup ported
{ %
k o
">< !--
dest roy
Ġn p
L L
F low
up lic
re me
ĠG reen
r uby
Ġp aper
Ġteam s
r ho
} ),
Ġst aff
Ġs en
Ġf oc
Ġex c
ĠM ax
L iving
ĠA cade
f actory
id ing
al ian
Ġdes igned
Ġb asic
Ġask ed
om a
i ses
get Element
ts d
Ġdeath s
ĠM us
Ġ ×
Ã §
: #
ĠCent ral
F ragment
P ub
ach ment
ĠC ath
ĠRoy al
Ġus ually
w riter
ist ers
ĠY ear
Ġwr ong
B AR
Ġso on
wik i
ĠRe search
Valid ation
term ine
w p
h y
ST ATE
Ġ â
uff ix
orig inal
ĠM useum
all classes
Ġth us
Ġex ecute
ĠN ow
V G
ĠJ S
ele br
is ation
ro t
Ġv oc
li ament
L ower
a ud
Ġm arried
d uration
M ake
EL D
F N
st ant
Ġ" ",
ĠP at
ps i
J oin
ĠT ur
G oogle
Ġse ek
Oper ator
B inary
ore m
v a
ap is
Ġact ivity
it ation
O ther
H igh
F n
9 3
Ġsa f
ĠB OOST
az y
col Last
AR G
Not ification
ed y
ĠComm ittee
iss ues
^ ^
object s
Ġcomm it
P ass
ĠD uring
Ġj ournal
ĠL ib
Sh ared
6 1
Ġ ul
Ġch art
ann ed
uc ceed
ic ensed
Ġrecord ed
on ce
mon th
Ġsol ution
NO T
Ġnav igation
Fail ure
Ġm us
i ated
Ġsp ent
cl uster
ens us
g lyph
Ġexp lo
Ġ? >
Ġs chedule
ĠSc ience
ĠTex as
Ġlook ing
Pro gram
org an
H tml
ĠSec ret
ro ute
% ,
Ġe ight
ĠTh omas
os er
; ">
an imation
i ers
print ln
ir ing
. \
g g
} (\
Ġres olve
x s
Ġproject s
w arning
et te
ĠZ e
v ant
Ġ' '
irt y
ĠIm age
Ġ ess
P layer
= (
ap os
Ġch unk
Are a
P romise
ĠH en
EE EE
Ġin j
unic ipal
duc ation
CT YPE
ĠT R
sc ss
SE LECT
U D
Ġto uch
col First
ĠSh ow
ĠD im
Ġg reater
Ġsat isf
Ġan imation
Ġs ources
! !
Ġdef e
199 2
ĠCh inese
ĠS y
am az
Ġf ill
Ġj s
at omic
Tr ansport
anc is
rid ge
word s
Ġan g
Ðµ Ð
Render er
Ġon line
Ġb ank
D im
ĠD ocument
assert True
Ġp air
st e
ĠP RO
v olume
I V
alle l
ail y
ĠBo ard
ur a
ĠAp ache
d c
Ġstud ent
Ġblock s
Ñ Į
Ġcolumn s
Ġproduct s
Ġsp an
b m
ov es
b its
Ġtest ing
Ġpl aces
Ġrepl aced
w ell
C loud
ic ator
imit ive
199 3
Ġag reed
Object s
Ġm ulti
L ibrary
' ll
ask et
for Each
re es
Ġd raft
D iv
ĠĠĠĠĠĠĠĠĠĠĠĠĠĠĠĠ ĠĠĠĠĠĠĠĠĠĠĠĠĠĠ
ĠA lex
ĠX ML
Ġ Î
Ġg ir
Ġro ad
Ġme as
Ġcon tr
Ġ" %
ĠA S
ĠVAL UES
Ġw oman
S l
Ġfor ces
}$ ,
ĠĠĠĠĠĠĠĠĠĠĠĠĠĠĠĠ Ċ
Ġmov ie
ĠG old
L ook
Ġb its
Ñ ĭ
Ġpract ice
ã Ģ
» ¿
u ite
sw arm
T ra
ĠI mp
Ġcent ral
ĠAustral ian
Ġl ives
ĠS erv
Ġle ave
down load
ĠOr der
ist ing
d ot
ĠRuss ian
Ġd ict
C ONT
Comp iler
ĠR ad
f mt
ĠG overnment
á ĥ
7 1
ail way
ï »¿
Ġinst alled
ĠTr ump
ol ar
> '
mer cial
C LASS
ut ing
oc ation
Ġn ation
" ].
pl us
ĠK ore
Ġun known
Ġm ind
ic ies
refer red
7 3
NS String
fr ont
ĠOption al
quire d
Ġevery thing
Ġlevel s
Ġdocument ation
ĠD i
ain ers
Ġver ify
ĠO p
j pg
OR Y
Ġsc ience
S K
re port
Ġresp ond
Ġde termine
Un known
ĠE lement
N UM
T A
Ġm ar
ĠR out
ĠM edia
DO CTYPE
M ove
al ing
ip her
Ġpre v
Ġprogram s
b ot
Ġrec ently
ch i
/ _
ed ge
Ġs b
g a
Ġrem ote
s ample
Group Name
mer ge
th rift
ell ig
AN G
w hen
ĠT or
Ġh arm
ĠW rite
ĠIs land
Al low
Not Found
En ter
US ER
ID TH
Ġst ar
Ġre ct
Ġin dependent
Ġre ve
ul ations
EEEE FF
Ġb inary
P P
> )
Str ategy
Ġ{ },
M IN
ĠCl ub
Ġcol lect
dis able
Ġrun s
wild fly
Ġget s
is Empty
ĠP age
Ġent er
ĠSc ott
Ġt err
def er
Ã³ n
Ġst ored
Ġprovid er
CH AR
ĠB ill
pl ates
Ġmov ement
ft y
Ġk illed
Ex ecution
Ġs plit
Ġt im
Input Stream
Ġrem ain
En vironment
Th row
ĠV irgin
d atabase
C ast
set up
p ull
bl ank
comp ile
ĠRem ove
is set
F ree
Con vert
rel ated
IO Exception
S creen
Ġsur v
u dd
M C
ĠB est
; )
str ument
Dr iver
ĠSet s
Ġappe ared
rad io
Ġcom ing
ist ant
rypt o
ĠF l
}$ .
cre d
f ixed
et es
ĠF lor
orig in
ent al
Ġcon cept
Ġ ^
ĠOn ly
cond ition
Ġear lier
p b
om ega
ab br
B asic
ĠB ay
n ov
Ġde ad
ĠP en
az ine
var iant
ĠV ol
Map per
ĠCan adian
second s
ĠFor ce
Ġa xis
Ġc lo
> ;
play er
ĠWest ern
Ġsecond s
Ġmeet ing
Ġspec ify
/** */
ĠL ine
C lear
clud ed
Ġle ader
Ġbro ught
**** **
Q U
} [
Ġs ym
.. .</
Ġr ai
ĠRo ad
ri end
Ġd ro
Add r
ĠSm ith
Ġde mon
Ġb oost
S ummary
Ġc ard
St atic
i en
ĠC lient
c ar
Ġm ention
Ġgr id
amaz on
Const ant
Ġlarg er
P erson
Ġf ast
d ig
ĠT imes
vis ible
Ġmin utes
oot h
ĠA ut
ĠCong ress
A xis
R aw
Us ers
Ġbir th
N ET
B atch
B IT
Ġqual ity
Ġin ner
ĠLou is
Pr ivate
N ormal
Ġse ven
"/ ></
Not e
Ġm eta
'] );
F UN
Con straint
Ġst ri
p od
Ġparent s
Ġc ategory
ĠPro f
sh ire
G ER
ing er
NavBar Font
Ġf ederal
ss l
ĠKing dom
Sign ature
Ġfamil ies
AN T
WEB PACK
Ġan ti
ĠC he
" },
Ġup per
Ġse gment
ch ain
Ġcont ents
Ġm d
Sk ip
Ġimmedi ately
Ġlim ited
lo op
p df
Ġse ems
Error s
Ġsc ene
Ġin cor
ctr ine
Ġ" ";
f ort
tr l
ac cept
Ġconf lict
12 3
Ġre ached
ĠM iss
M T
ix in
LO C
Ġmed ical
. """
ĠS ource
ĠG reat
ĠC ELL
App end
ĠL at
sign ature
Ġdec ided
() ),
Ġ que
ĉ ĠĠ
P U
E ST
Ġbel ong
Ġhe art
R PC
n p
Ġ rows
ill er
Ġvalid ate
ĠFr ancis
v s
Ġw ays
Ġfor ms
Bind ing
Ġload ed
ĠE mp
Ins ert
b ro
g oto
in fty
ĠCar ol
d ash
x html
Ġrep resents
ĠPro perty
AN CE
Ġy ield
ĠT op
ĠS al
ĠSo ftware
ĠAn y
Inst all
ic ago
Ġl ack
Serial izer
P H
Ġuse ful
ĠWAR RAN
D rop
Ġsk ip
li a
S ave
Ġsur face
Ident ity
Cond ition
as y
ag ent
an ced
19 60
M essages
Ġcre ation
the mes
ex it
ous ly
Ġp p
f lex
re ce
Ġregister ed
( .
] ))
ĠRes ult
Ġpart ial
ĠK e
ĠP oint
199 1
per ature
Ġopt im
Ġh ot
A udio
Z one
high light
Ġcomp are
ĠT own
Ġ' .
em bed
Arg uments
pol icy
Res olver
bo se
Ġc he
s cribe
0000 0000
Ġ ir
b g
Ġde lay
ĠN etwork
d k
Ġent ries
Ġp urch
at ively
ĠL L
en ers
am ing
ĠLoc al
ĠO f
in der
ĠM ock
Em ail
item pty
Ġmatch ing
Ġsub sequ
Ġex ecution
to Be
L a
om itempty
Ġcomp at
group s
Ġun d
Seg ment
ĠD OM
ĠT ag
Ġspe ed
Ġle arning
=" $
Ġf ully
F older
Ġde ploy
Ġd uration
N A
class Name
Re lease
Ġintrodu ced
art icle
Ġf un
Ġautomatic ally
en ch
lip se
f it
k y
Ġa udio
ec ause
Ġgrow th
ival ent
Ġve h
ĠC am
cl aim
Ġdet ail
Ġpro posed
os en
ur t
ĠIn v
Ġpur pose
Ġmean ing
gener ate
i h
or ph
W arning
Ġperm issions
Ġactiv ities
Ġse ll
B S
Ġst ay
Ġto wards
Ġ' %
Comp lete
Ġed it
ĠE ND
ĠJap anese
An notation
b lob
t or
ier arch
ir med
PRO C
ig en
it a
ĠSt atus
ĠCh ild
ĠS pan
, '
Ġc oin
Ġdirect ed
Ġs ociety
od ay
Ġnot ice
s n
Ġident ity
create Element
Ġmin imum
Ġstud ies
I X
Ġcon version
Ġab s
Ġd ie
ĠPro cess
ĠÐ ¿
Ġs n
comm ons
ĠB ook
t f
ĠO ffic
Ġb asis
Ġex tract
Ġs um
ĠW IT
W allet
Ġthe ory
Ġn ature
Ġme chan
RE E
Ġp ages
mem ory
r ain
numer us
M ore
numerus form
ĠF ig
/ {
in et
Ðµ Ð½
Ġse m
ĠSe cond
Ġal gorithm
ĠA v
ĠI llegal
Ġart ists
ĠĠĠĠĠĠĠĠĠĠĠĠĠĠĠĠĠĠĠĠĠĠĠĠĠĠĠĠĠĠĠĠ Ġ
in itions
cre te
ĠT ok
ĠI ll
comp lete
anc er
Valid ator
table block
Ġp or
ĠB rown
Ġfin ish
Ġus age
Ġform ed
Ġread y
Ġs ync
sc ape
/* !
T T
p le
ID E
ul ator
Ġtr avel
Ġ' ',
can vas
ĠM ad
oss ible
st on
Ġex hib
Row s
AT CH
m ult
ĠL os
a fe
pe ated
ud get
am pl
Ġpr iv
Ġvalid ation
Ġd ed
us ion
Ġb io
L android
ĠB ank
S ig
Ġp anel
A SSERT
ĠComm and
å Ī
Us age
W orld
os itory
ict or
H ub
Ġdr ug
Al loc
at re
Ġs ch
Ġc elebr
TR Y
bl ue
Cont ents
A rr
ĠC ustom
C ALL
b atch
_ )
ĠD O
Ob server
Ġart ist
Ġeffect s
ĠAn n
Ġres erved
Ġco q
Ġrem aining
j oy
H ome
IMP ORTED
W AR
ĠDirect or
ĠL ife
ĠCre ates
Ġdest ination
Ġident ifier
Ġprot ect
Ġsup ports
ĠA mazon
c atch
Ġinv ol
C ursor
Ġfri ends
cd n
stit ution
Ġbr anch
c fg
Ġda ughter
Ġmin or
Re v
Ġthe me
u ation
id ence
LO W
m id
= \"
in y
LE TE
Ġappropri ate
Enc oding
ut down
Ġh ope
Ġrec over
ĠS IZE
Ġtag s
ĠP eter
con vert
Ġsc en
Ġpre d
greg ate
f etch
re ader
ib ly
ĠJ ose
W IN
ĠAn ge
Ġph ase
ĠS ur
Ġch arg
Ġlaw s
ĠAcade my
ĠSec urity
Ġprocess ing
er c
Ġdemon str
kw args
ĠM ont
Ġel if
Ġsa fe
C oin
Ġinst ances
al ert
Ġ il
Ġsepar ate
Sh ould
Ġab ility
ĠAl so
ĠRuss ia
ĠH istor
m aml
Ġend point
) [
Ġqu ite
ĠA c
Ġag ent
sub mit
Ġmer ge
he el
Ġsome one
av ailable
ry ption
form ance
Ġversion s
FI ELD
Ġm ixed
Ġacc omp
lement ation
m atrix
ĠL et
Ġfound ed
ĠC ap
n ative
Ġphys ical
F ALSE
cont ents
u an
METH OD
d irectory
Diagnost ics
Ġe lected
ch art
AT ED
Ġparticular ly
Ġw or
Ġk m
T imer
g ame
D rag
Cont ains
b ing
ol id
ag er
Ġincre asing
ĠCath olic
Ġs ocket
Ġneg ative
oc aml
: @"
Ġc itiz
ORD ER
ul k
Ġbro adcast
ĠB ack
L ib
15 0
k m
v ement
Ġs ometimes
Ġf avor
R C
Ġevent ually
ic ip
G u
is ions
f ake
I AL
ĠChar les
198 9
ĠIr an
Ġs low
Ġrequest ed
ĠRich ard
B ool
CON FIG
u ages
Ġop acity
Ġcol lege
Ġs ummary
Group s
Ġknow ledge
Ġ ----------------------------------------------------------------
Ġal ias
Process or
cre ated
F uture
ass andra
The me
T imestamp
reed om
AT TR
Ġthere fore
ol f
C md
r g
ast e
R ate
dis patch
LI ST
N V
Point s
at o
y y
Ġsay ing
Ġd ialog
se quence
Ġan t
Ġs ys
ail ing
ĠH AL
ore ign
Ġmod ified
de m
arb on
ĠF ind
ra q
Ġ" .
lic ense
ok ed
el astic
Ġ eth
Ġan im
Ġe q
ĠFlor ida
ex tra
k i
ĠC amp
Ġ$ _
p erson
ac le
ĠSup er
at ar
Ġtr ust
load ing
w d
cal endar
S ample
Ġsign al
Ġfe ed
Ġrem ains
A F
____ ____
an i
Ġwh om
Ġpl aced
u ing
bserv able
Ġass ign
Ġter min
Con nect
Ġview s
Ġb illion
br idge
ĠL ibrary
al i
G ame
ĠAb stract
A UT
b log
enc ode
ab it
Ġv ote
ĠDE FAULT
ĠFr ank
Ġm achine
Ð° Ð½
p ointer
z ero
Ġlate st
HE AD
Ġs ports
In formation
Ġs pect
c f
IL D
P HP
AT OR
ĠComm on
f ol
um es
al and
FF ER
Ġ| =
am i
to uch
quot e
ĠL in
Ġapplic able
ĠH ill
los ing
IN ST
ass ign
ĠG en
ĠC SS
ĠM ass
h pp
Ġad apt
Ġiter ator
or a
m essages
vert ical
ĠBy te
Ġc ancel
R R
urn ament
Ġvert ical
Ġref lect
act iv
Ø ±
ĠB it
STAT US
ix els
ĠOr ig
o logical
ĠW omen
os h
UR CE
Ġincre ased
clus ive
S ame
de precated
Ġconn ected
Ġopen ing
rem arks
Ġp en
em ph
S ite
ĠPar is
N N
ant a
Ġrun time
Ġappoint ed
face book
le v
F ocus
Ġgo es
) ",
Ġlist ed
Ed ge
( --
re land
B Y
Sh arp
ce ler
ĠG ames
Id x
Ġin sp
Ġgr and
B ounds
1 20
u uid
d iff
ĠH o
Ġ- =
Rem ote
ĠRetri ev
Ġb ur
/ "
% "
irc raft
Ġw arning
ĠL ink
iv ery
comp are
Ġm ult
st one
ĠG lobal
RA Y
Ġas sembly
Ð ²
ĠN AV
int eger
Ġdiffer ence
Ġfem ale
Ġg un
c le
ĠT wo
et t
Ex ists
Ġpro to
Ġre ports
getElement ById
erv ation
ĠRes ponse
Ġdes criptor
u ke
S ur
n y
Ġg ives
Ġm ur
ol a
pe ar
ĠP romise
ĠR ock
Ġocc up
Ġm ouse
exp ression
Ġrelig ious
: \
st rip
cre ment
sq rt
Ġf rag
Perm ission
asket ball
ans ion
ĠReg ion
ĠI L
Ġ ..
Ġp ri
ä »
Lo op
Ġocc urred
D ay
ĠCh icago
198 8
ful ly
ven ue
sub section
ĠDe lete
Ġst ated
Ġhig hest
Ġpr ison
Ġhigh light
T e
Ġ' "
ĠOff ice
w ar
Ġpl ant
Ġpresent ed
Ġexp and
N ING
T F
Ġweek s
cd ot
ov ers
ar ant
Ġb atch
ff f
ĠA tt
Ġin form
Ġclass Name
Ġrepresent ed
Ġlet ter
ĠZ end
ub ern
ĠAnge les
Ġman ufact
Ġrespons ible
Expect ed
ag raph
en ed
V irtual
ĠAr ab
us r
Ġepis ode
(" %
ĠRec ords
T erm
ĠWindow s
ĠSe ction
Con sole
p a
ĠUn der
s ome
Ġbuild ings
D ATE
T uple
Named Cell
Ġ' ./
ud o
equ iv
w arn
S ep
Ġquest ions
Column s
Ġc y
umn i
B ook
} ).
f ect
ĠM ost
M ed
rec ated
Ar ch
Ġ" '
t imestamp
Ġcause d
trans action
M any
ĠP lay
Ġc b
Ġm anaged
im inal
t ensor
Ġ Query
Task s
Ġg old
Ġdocument s
ĠT om
C G
alyt ics
Ġp ull
ĉĉ ĠĠĠ
HER E
ĠAL IGN
ĠT ri
in ate
Ġgener ally
ĠP ri
element s
cal led
ĠEng ine
A SE
Ġtrad itional
T Y
s r
ĠAd min
d y
: '
Ġinter val
comm it
C ounter
tr im
h aps
Ġsp irit
in ing
ĠVirgin ia
ĠIs lam
am ous
Ġinvest ig
ĠS ocial
Ġpay load
Re al
ar ia
Ġwork ers
Ġeas y
on ed
de g
Ġcap acity
se q
Ġdel iver
Ġst ories
se lection
Ġcomp ared
Ġgu itar
loc ity
Ġstr ategy
ĠRef er
Ġsuccessful ly
z en
Pl atform
iver se
Ġcomp uter
Filter Database
V AR
Ġall Classes
Ġrai sed
s imple
Run ner
Ġalbum s
Ġe ffic
ov a
Ġown ers
Ġappe ars
c os
as ion
ĠGr and
Ġsh ip
PO S
ĠI ter
ĠIt alian
ap id
ĠE ducation
PRO P
C ur
Ġfact or
Ġframe work
pro gram
Cons umer
P o
Ġtreat ment
ĠallClasses Link
and a
Ġth reat
Ġdis able
Ġd u
Ġeffect ive
de cor
Ġs ynchron
Ġg overn
ut s
Ġs ens
PRO JECT
Ġbe comes
12 7
a udio
= #
ĠT ra
ak ers
c ursor
ag ma
V ICE
Ver ify
Ġt imestamp
h avior
ch unk
ĠA li
Met rics
LIC ENSE
Ġre ach
Ġobt ained
are n
not her
Ġdep th
pri se
lic enses
Ã ¨
198 7
cont act
ĠS ing
Decl aration
Ġredu ce
C ard
Ġexper iment
re peat
v ince
Ġent ered
se ll
Ġle ague
nav igation
ĠĠĠĠĠĠĠĠĠĠĠĠĠĠĠĠĠĠĠĠĠĠĠĠĠĠĠĠĠĠĠĠ ĠĠĠĠĠĠĠĠĠĠĠĠĠĠĠ
ĠMex ico
DE X
ĠJ ournal
Ġatt ention
resent ation
i ro
Ġcrit ic
12 34
Ġa cade
Ġassert True
Ġf ragment
w all
ĠConfig uration
Ġf it
Ġd ynamic
ec k
p ower
ĠD B
text bf
und red
Ġbro ther
re du
B order
P Y
Ġpar sed
Î ¿
Ġcandid ate
md c
top ic
W rit
comp ute
Ġlabel s
Dis patch
ro ad
M aterial
ud a
Ġe p
ĠP op
Ġnear ly
Ġg as
B its
Ġst ats
he ast
Ġpl ans
Ġco ach
Ġhold s
= >
Ġt d
Ġp sy
column s
Ġprodu ce
= %
S ince
UN D
Ġgener ation
re nt
ev en
Re set
Ġsmall er
ĠNAV BAR
p air
ign ore
FI X
se par
method s
F OR
Ġs uffer
ĠU til
Ġfig ure
Ġpr ice
Own Property
Ġorigin ally
Ã £
Ġrepresent ing
CO M
ĠAr ts
198 6
C ancel
in x
Nav igation
add Class
Ġsitu ation
get Id
LE D
ig er
Ġcache d
S ome
der r
M ay
ĉĉĉĉ ĉĉĉĉĉĉ
ĠSer ver
ĠTh read
Ġcom mercial
Ġw aves
ig an
Ġser ious
re lation
EN ABLE
ĠU s
ĠI raq
ubern etes
fe ed
Ġturn ed
y ing
por ation
un ched
Ġtask s
Ġst ren
ace book
circ le
Ġdr ag
(' ./
Å ¡
Ġlog ging
TI ES
c ancel
r ay
ĠOut put
= -
Ñģ ÑĤ
Ex port
ĠG ame
RES ULT
rel ative
in f
ĠZe aland
it z
æ ľ
Det ail
up s
ap es
get Instance
W atch
Ġcommun ities
ipp ed
Ġv m
Ġmajor ity
Ġon es
Cont act
ĠGe org
j ax
ĠS imple
RE D
F atal
Ġ` ``
y r
ĠH ere
ĠE ach
ot es
ic ode
Ð ¼
B al
A bs
Ġprovid ing
po ses
Ġinitial ize
ĠCon vert
Ch unk
Ġser ve
ĠO N
Ex ample
T w
Ġ< -
Ġo il
k t
E ffect
Ġs ucceed
Ġal leg
b asic
Ġtr ain
8 00
ĠPe ople
J ohn
U ST
over view
As sembly
Ġass igned
act ivity
="../../../../../../ ../
ĠA uthor
ĠWARRAN TIES
ĠN av
ĠF ree
An alysis
Ġex am
act ual
f i
p at
Ġcomp ute
Ġdim ension
Ġmod ify
.* ;
Ġun ion
Ġp an
Ġcoll abor
ĠD en
ĠS earch
( ['
Ġa mb
' d
Ġinter view
pl an
per m
Form s
Ġf s
Ext ensions
ĠSt ream
Ġen joy
Ġbl ue
ellig ence
erm an
Ġconnection s
Ġpub lish
Ġm ission
B ottom
P si
[ \
ĠC ast
g overnor
sp acing
ĠS D
ĠS und
P red
tool tip
ĠCon text
BO OL
Ġch oice
Ġend ed
}} \
Ġch arge
uc lear
Ġact or
Ġp lease
medi ate
Ġex pert
ĠApp lication
L et
Ġg reen
Ġindividual s
ĠDe velopment
n of
st ar
Ġocc ur
Ġf lex
d rag
Ġdepend encies
ic ient
Ġm apping
lis her
Ġp ark
Ġs ummer
(' <
ĠCont rol
ĉ ĠĠĠĠĠĠĠĠĠĠĠĠĠĠĠ
L eg
met ric
refer ences
MA P
N C
Ġn s
ĠDes cription
aw n
d ocker
Ġansw er
ĠA ust
Ġad opt
Ġg iving
0000 00
NO DE
Ġde legate
Ġover flow
Wh ile
H older
(" #
Ġ} }
Ġfour th
Ġopport unity
g s
stru ctions
es ome
In ner
on ic
" ];
ç Ķ
Ġa ffect
it able
Ġcom ments
6 00
T ouch
pe ople
ov iet
ent y
ch anged
ĠF re
B B
ced ure
Up load
j i
Ġ Ø
} _{\
Ġf irm
BU FFER
UN T
OP T
Ġcrit ical
25 0
I A
Ġd ark
Ign ore
const ant
Ġtop ic
ollow ing
rypt ed
S M
Pl ace
Ġrespect ively
res ize
Array List
198 4
ð Ł
Ġla unch
L Y
f lo
ĠĠĠ Ċ
Ġcl one
l an
Ġcons um
ĠF OR
ĠC H
/ .
Ġacc ur
ar ian
raz il
string s
enc oding
ĠFil m
> ()
v ol
ĠVer ify
Ġe arn
Label s
Ġpath s
m apping
ĠB uffer
ĉ ĠĠĠĠĠĠĠĠ
ĠS E
Ġsh ot
Û Į
ĠS il
Ġc lock
Ġin come
IM IT
go ing
m ac
S im
ps ilon
En able
ĠIn s
Ġc arry
em it
ĠI tem
low er
m ega
or ation
ĠSpec ial
ĠI reland
rem ote
Ġmov ing
ĠR est
ĠM O
Ġqu arter
Ġph il
T AG
Ġcompet ition
ĠT im
E ar
log ging
/ ">
ĠSt ar
198 5
< <
Lin q
am m
Ġs yn
A ST
Dep th
sub ject
v o
ĠSpan ish
h l
Ġlo ading
Ġ/* !
Capt ure
c ountry
con cat
æ ĸ
Ġh um
Ġs aved
Ġpart ners
Ġ" >
] +
bl ack
Execut or
ab out
Ġz one
ĠH ome
Ġen umer
` )
Ġadd resses
Ġagre ement
Ġimplement ed
Output Stream
Ġw idget
Ġm anag
} ",
b i
ĠHen ry
Ġover all
re pository
Feature s
Ġperm ission
ĠJ son
n n
Log in
Ac cept
w er
Del ay
os oph
Ġapplic ations
ĉĉĉĉĉĉ Ċ
Part ition
Ġim g
CD ATA
Ġexact ly
Ġext ended
2 13
Ġth ous
ĠL com
Î ±
ĠM el
19 50
be an
stand ing
Ġn orm
n el
M ount
M anagement
ĠIm mutable
Ch ain
Ġnot ed
ĠSte p
Ġol der
R ules
Ġf air
ĠSer ies
D ig
Ġb uy
ĠO ur
UM M
p ages
ut ch
Enumer able
~~~~ ~~~~
Ġst eps
Ġprinc ip
Ġdo ub
Ġbe y
ĠV ictor
ĠServ ices
sh are
Ġrem ember
pect ive
Ġin struction
Ġrefer ences
AC H
ĠL ake
Ġdown load
Con verter
Un der
å ®
ĠE nt
Ġs al
D on
ĠHand le
ĠA ccess
loc ale
iagnost ic
ĉ čĊ
Ġdis k
ĠJew ish
onym ous
Ġf etch
Ġann ual
sc al
T wo
arri age
valid ation
m ulti
ĠĠĠĠĠĠĠĠĠĠĠĠĠĠĠĠĠĠĠĠĠĠĠĠĠĠĠĠĠĠĠĠ ĠĠ
ĠPar se
( ()
================================ ================================
Ã£ o
Ñ ĩ
ill is
ab c
Ġprodu cer
ĠMart in
Sw itch
ĠP an
= [
T ile
y an
å Ĳ
ĠFoot ball
not ations
Ġcell s
ref s
Ġ' #
Ġcomplet ely
Ġre li
Ġd st
] ->
ov ing
c amel
Set ting
Option al
Ġpre tty
Ġas pect
Ġbey ond
ent ially
ĠC G
Ġ' -
ĠS un
l arge
ĠTe am
Ġposition s
IL ITY
ĠS pace
A mount
L icense
LA Y
in ated
lo ts
SO URCE
ĠF estival
We ight
Sh ader
comp at
Sup ported
Ġex change
UE ST
Ġpro ceed
Ġadd ing
ĠIt s
ĠV ar
Ð¾Ð ²
Ġeffort s
D em
log o
ron ic
ĠL and
ile vel
L ight
orn ey
Ġb ill
Pl an
ish op
EN V
Ġadmin istration
R andom
Ġsur round
**************************************************************** ********
f p
ver ify
Ġconst it
Ġs cheme
ï¼ Į
re spond
uplic ate
w orld
Ġpro of
Ġex amples
Ġstruct ures
get Type
T L
Dec imal
Ġresult ing
Ġpo or
pop up
has er
ĠCont ent
St andard
ad or
Ġh y
ĠRev iew
Ġpr im
Ġenc our
Ġpart ies
Ġp urs
ĠS ummer
Ġrem ained
is c
__ ,
ore s
S m
ĠO h
c mp
Ġcommand s
Ġpe ace
d ing
10 1
j et
TR AN
Ġtool s
S I
head ing
B uf
S napshot
clud ing
Ġv s
anc ing
Ġquick ly
ex ecut
Ġb ug
og ram
ac ific
c urrency
ĠM il
ic ine
ĠSecret ary
T im
Ġar rest
Ġf ake
Ġb attle
ĠB ur
ch a
c lo
ed u
Ä ±
ra ction
ĠH as
File Name
ain ment
elastic search
ĠY our
Re act
ĠAl though
Ġ' _
Ġorgan izations
, -
Can vas
Ġp ending
m k
F amily
hen s
b d
Ġhelp ed
E Y
T V
or ient
ĠM iddle
Ġ uri
ĠJ ul
sc ala
Ġstart s
G o
12 5
l int
eps ilon
ĠLo ad
k in
n ic
ĠRe port
t l
col lect
Ġinflu ence
Ġtem perature
Ġsen ior
m ir
ĠW IDTH
re po
Depend ency
Ġtr ace
i ar
Ġpart ition
Pre v
Ġequ ivalent
de lay
ĠO ld
ind ent
ER S
Ġa ircraft
197 9
Ġp i
ĠEn ter
Orig in
ell ing
ĠM anagement
\ '
ĠIn valid
r pc
Ġp lot
Res p
in ity
ĠPy thon
Ġbe aut
Ġtrans lation
ograph ic
ĠP o
uff icient
= &
Ġh us
E VENT
ĠS ign
0000 000
ĠCh ief
ph rase
ĠIn formation
ĠCarol ina
t ar
Ð ´
Ġp ain
Ġneigh bor
ord ers
Draw ing
ĠB usiness
on ses
glyph icon
A ctions
ap ers
Ġap ilevel
f ast
ad y
RE CT
L ambda
Ġfor ced
Ġch ief
istribut ion
local host
Ġclaim s
ĠP et
r ules
ĠJ es
it an
Ġre asons
annot ations
> \
ĠP R
ous ing
Ġ* ,
Ġmon itor
ing u
ĠL anguage
66 66
HO UT
Ġh ar
en ing
k ins
ierarch y
B lob
Ġwas n
Ġem b
F ixed
D irection
R ob
Re place
Ġal ert
rt l
p ared
al ias
Ġofficial s
ĠC E
st able
Dep recated
ĠM odule
Dep loy
BA SE
ĠM ur
M ust
Ġf elt
cl s
Ġpres ence
ĠLog ger
Ġad just
ĠSc ot
ĠCh ange
Av ailable
M aster
âĢĿ .
ĠL ay
pre vious
ĠH uman
Ġf older
A SS
L iteral
Ġch oose
Ġt ensor
Ġoffic er
Ġst ations
Ġhigh ly
Ġem bed
get String
Ġdev ices
Mon th
C ar
u z
ian a
Ġdiv ision
Ġaward ed
we et
Pack et
Ġm unicipal
view port
Ġ' ''
Loc ale
Ġcomp liance
Aut hentication
ur er
198 3
ĠRetriev ed
Ġp riority
Ġfeature d
Ä ģ
inter val
St ub
Ġaccept ed
ĠP si
Ġw rap
Ġf arm
Ġ" ${
ow ers
Q ual
Ġ// !
Ġcan vas
att ed
F inal
bind ing
as m
fl at
v endor
Ġevery one
d ark
ĠAt l
Ġrep ository
k top
Ġw orth
Per iod
h ol
Ġplace holder
ost on
Ch art
C enter
Ġv oice
list ener
W in
g ments
b at
Ġimpro ve
r um
ĠB uilder
n am
ri e
ĠO S
Ġs quare
decl are
de code
t imer
198 2
om s
ext ensions
Look up
air man
ul let
LO AD
ĠSer ial
j ack
im a
18 0
G amma
Ġl if
ĠExp ression
d jango
ĠĠĠĠĠĠĠĠĠĠĠĠĠĠĠĠĠĠĠĠĠĠĠĠĠĠĠĠĠĠĠĠ ĠĠĠĠ
Ġgo als
ĠAnd roid
Ġcopy right
Ġf oo
ĠC urrent
LE MENT
ĠEx ample
CRE ATE
get Message
lement s
B ro
eq n
ĠIt aly
Ġan aly
Ġdepend s
she ets
ĠRun time
Ġg oto
Ġmus ical
include graphics
Ġh undred
M issing
(" \
ĠR ights
ĠG ood
che mas
n ight
Ġg oogle
Ġnav bar
Ġcol span
FN GL
Ġco uple
B I
pr agma
Ġvari ety
b inary
Sec ret
l ated
function s
Ġint ended
over ning
ust rial
Ġthrow n
Ġinter rupt
run ner
our se
D R
Ġadmin istr
ap pro
op es
p id
Ġext end
Y Y
ĠC loud
Ġown ed
Ġecon omy
P riority
D P
Ġd iag
ĠCol umb
Ġp iece
Ġcl imate
ĠÂ £
d st
D ITION
Ġvis ual
[ ],
S plit
Ġexecut ed
u zz
o ices
Ġcult ural
Ġsaf ety
for ward
ãĢ Ĥ
ot ing
L IN
ĠM ember
× ķ
f ailed
ĠE r
Pro du
__ ["
not ify
lib s
ĠC OL
tr ansport
ĠU RI
C M
Ġtr aff
ir ation
ĠĠĠĠĠĠĠĠĠĠĠĠĠĠĠĠĠĠĠĠĠĠĠĠĠĠĠĠĠĠĠĠ ĠĠĠĠĠ
ak s
Ġh ide
lic a
Trans ition
Ġinterest ing
hem atic
eg ative
IN VALID
Ġass ume
Ġs umm
ĠA ff
ĠCh annel
Ġdet ect
ĠL java
. ',
Ġla unched
Ġse qu
ĠSup port
f b
ĠL ove
f old
Not es
l ad
I p
ec es
Ġdis patch
ersist ence
Ġsh oot
ir a
g oog
Ġgu ide
in ject
por ter
tool bar
ĠComp onent
Ġcomp ut
ĠJ ud
Work er
Ġm ix
Ġ# {
igh ter
alt y
Ä ĩ
__ _
AR D
ĠEar th
Fr ames
ĠD own
Re ason
ĠUS A
Ġwe ap
S em
str a
anch or
ĠD ebug
Ġmur der
ĠJ o
G IN
s id
Ġb rief
contin ue
S G
w r
g z
H AL
Ġdetermin ed
Down load
Z ero
Ġc ities
Ġpack et
å ħ
10 24
C SS
D uring
Ù Ħ
Over view
Ġop in
"> (
Ġl ived
if fer
Ġrele vant
oot strap
Ġdecl ared
ĠJ im
RE SS
append Child
ĠF ort
Ġcomp iler
qu is
Ġpl ays
gener ator
c li
ĠOlymp ics
un ct
ivers al
ĠE li
Hash Map
Ġdepart ment
ĠA wards
er red
ip ment
mat ches
um s
UMM ARY
Ġtri al
ĠRec ord
H S
ĠB Y
c ient
Ge ometry
ag ger
Serv let
pr iv
Ġl iteral
ĠÐ ²
O C
Ġs amples
Ġjob s
ys ical
Ġf ails
Ġc hem
ĠK EY
Con tract
ĠS end
en ant
And roid
umb n
ell a
} '
ĠL ord
B ucket
p et
Ġimp lied
O wner
ce an
ĠH aw
Ġgrow ing
is is
p resent
Ġcl s
< >();
Ġlist ing
Ġinter pret
Lo ading
Ġsing er
Type Def
get Class
ĠPar liament
ak istan
Ali as
tribut ed
pro of
ĠE con
Ġwe ak
ys ics
Ġs ending
Ġm icro
198 1
v in
Ġp ipeline
A zure
ĠDo uble
Ġapprox imately
Ġign ored
i ary
Ġcre ates
Ġsp read
Ù Ĩ
ge o
j d
ro uter
g i
trib ution
Ġrelation s
Ġdes pite
ish ing
B ad
ĠAs ia
ĠM a
G LE
AR RAY
D ynamic
'] .
at i
est er
MP L
AP P
text ure
Ġ& #
ĠEx ecut
ĠC ivil
ĠP O
Ġsex ual
set Attribute
L at
M achine
Ġcomm ission
Ġl at
ĠSw ed
ĠP ower
Control s
S W
ĠBrit ain
Ġder ived
l ig
Read y
ĠT ABLE
ĠF ALSE
00 5
pr ite
ĠW ood
Ġdise ase
Ġhistor ical
in em
ĠS oviet
Ġco ast
Ġh ospital
d irection
%%%% %%%%
f older
ta iled
Ġindic ates
Mod ified
Ġcapt ure
sd k
Ġk ing
ĠLe e
lo ur
bit r
OR K
Ġiss ued
Ġst ock
Ġv an
Ph one
ab y
Ġe ase
Ġexp anded
; |
Ġwin ning
Ġres olution
on to
Ġm ultip
Ġrequire ments
": "
get Attribute
PAR AM
Ġde lta
-------- --
Pro c
ĠW ill
r ich
BU ILD
Ġim ag
Ġdig ital
C annot
Ġbe coming
R ot
ad ium
cover y
ur able
link s
Ġstr ug
ĠPol icy
\ ,
h ow
es ian
em y
On ce
ĠD CHECK
A m
Ġnew sp
exp and
Gener al
g eb
K it
ĠS H
R UN
EX PORT
Ġs an
ian o
== =
Ġuser name
ĠF ox
ic ial
Match er
TER N
}^ {\
c ounter
Ġ' ,
fl ush
de legate
Ġconf irm
Ġg overning
ĠWIT HOUT
Tr igger
ar c
Ġj oint
s lide
ĠC OM
D one
Ġpur poses
oun der
gy pt
Ġhe ard
ĠL ast
Ġp le
oc key
Ġal umni
con current
ĠIn it
t wo
Ġh or
s ass
no log
B een
greg ation
Ġoff ers
ĠT our
Ġth r
Ġon to
c assandra
ĠSt andard
Ġin herit
197 6
b ucket
b us
Ġc amera
Ġs ales
ĠV irtual
Ġmost ly
ĠM any
ĠL icensed
Ġ{ %
tr ansparent
li e
let es
ĠE v
C B
Ġp aid
Cal endar
yl van
tw itter
Ġdefault s
Ġlimit ations
Ġauthor ity
The lia
Ġhus band
ĠJose ph
ĠAmeric ans
al ink
ĠStr uct
Ġde leted
Lower Case
UB LIC
pect or
* ,
ĠUn it
S chedule
ĠRefer ence
en umer
ĠP HP
Ġocc urs
per iment
gr pc
197 2
dat etime
p lot
S UB
Copy right
ĠP ass
ĠM P
N ONE
Ser ies
g if
Ï Ħ
p res
k rain
n i
Ġstud io
ref resh
ĠAdd ress
Ġr ac
T er
at ers
ĠY oung
Ġb i
r f
ad oc
Ġ ig
Ġcost s
map s
EN TRY
ri ed
ĠS UMMARY
Ġgu arant
reate st
Ġwrit ers
T IM
Ġpat ients
C UR
ĠC ore
Ġa ware
Ġcred it
G EN
197 8
Ġfootball ers
ĠSund ay
Ġes cape
D iff
Ġnumer ous
Ġco up
de ep
Ġed ition
Scal ar
o ch
are s
= $
Ġmaterial s
Valid ate
Ġar ia
Ġw rapper
e a
D id
ser ies
Ab out
ans as
ĠĠĠĠĠĠĠĠĠĠ Ċ
pre pare
not es
197 5
por ate
b uilt
Ġ Å
Ġro ll
ĠF acebook
Ġtrack s
Ġ$ {\
Ġoffer ed
b c
Ä į
ĠMus lim
ĠH ot
graph y
on ical
ĠW ell
I ss
W ill
ĠS aint
ĠVAL IGN
SP ACE
ĠK ar
UR N
IC ATION
o z
ĠG al
Ġbind ing
Ġf if
attr s
at ial
li k
Mut able
Ġf le
ĠF ederal
ĠJust ice
Ġb ounds
project s
Ex ecute
Cre ated
Status Code
Ġph one
Ġpro tection
Ġpol icies
u lo
ec lipse
ĠSen ate
ĠJ ob
ph ot
196 8
lin ux
Ġpre dict
u ce
Ġmark ed
ĠCol umn
Ġ} ).
Ġf amous
urb an
Mark er
197 4
Ġw ild
w a
rid ay
up dated
Ġad ult
att ers
re ason
p aces
pro c
ex amples
In f
ys ql
ĠE RR
part s
... )
ĠO l
ĠW hether
Ġoffic ers
C ity
T yp
UC CESS
de ploy
Ġde cre
O mega
Ġin ject
;| &
Vis ual
el come
Ġt error
IN IT
ĠN ext
Ġcheck ed
" }
ĠW al
Ġcan cer
Ġtext ure
197 7
Ġsupp lied
Ġinput s
Ġexecut ive
×ķ ×
est ic
Data Type
Ġ} ),
Ġident ified
Sup press
lo ss
Ġpo et
Ġeas ily
B L
Ch anges
Ġvert ex
Ġappear ance
ĠPr int
iss ue
Format ter
Ġcont ained
Ġreturn ing
Rel ation
Run ning
frag ment
MA GE
ĠR ow
Ġleaders hip
k l
pre d
ĠK IND
Ġpress ure
ĠOb ama
Ġis land
Ġmod al
Ġhappen ed
ĠEn vironment
Ġdat aset
ylvan ia
st andard
Ġab ort
im ize
ĠN ull
Ġd ictionary
ĠIn ternal
ĠArg ument
b ounds
het ic
Dis k
arch ive
Ġtri ed
sol r
ĠP lease
ĠĠĠĠĠĠĠĠĠĠĠĠĠĠĠĠ ĠĠĠĠĊ
Ġd ensity
c py
pay load
Ġhand ling
ĠIllegal ArgumentException
Ġal one
1 10
Ġke pt
p rom
on a
ĠM AX
Ġind ent
Ġ( %
unk nown
Ġwork er
Ġmed al
Ġorder ed
def inition
Ġunder lying
Ġany one
un ities
âĢĿ ,
end point
r ick
Ġh our
Path s
ĠDemocr atic
o les
Ġle aving
h istory
Ġs ites
Ġse a
ĠNor thern
Ġtr uth
ab ric
i Ã³n
ard en
Ġro les
Ġbal ance
ĠC ross
s ent
Ġmay be
P resent
Ġshow ing
e per
ä ½
197 3
ĠK h
Ġhel per
OL D
Ġviol ence
Ġregard ing
Ġrefer red
U Int
ĠOr gan
Ġill ustr
Enc oded
sk i
se m
Ġelect ric
Ġcomb ined
S elf
n ob
H AND
Ġstr ateg
spec ific
Ġadd r
fore ach
ĠO C
Ġ. =
ĠPro t
Ġp et
Ġse ctor
ĠN avy
****** /
P ane
P M
look up
ĠA M
ĠB ob
ĠTe le
S N
Mon itor
> %
Ġr an
RE T
ĠSe lect
Ð ¿
Ġ Ñģ
M ag
Ġup dates
Fe ed
DE D
ĠST ART
Ġ ens
ĠCon ference
che n
AT URE
lic ations
Ġl ab
Ġar m
C trl
ĠS O
') ->
Code c
Ġstyle s
O FF
ipp ing
ĠSt at
( []
Ġsc ored
var phi
ĠF ix
Ġoper ating
Ġis instance
Line ar
label s
ibr aries
ult y
Ġinst ant
W rap
ĠVal ley
ent h
un lock
Ġc at
w ill
SQL ite
e ffic
od d
Ġcover ed
Ġto urnament
P haser
Ġnot es
æ ķ
Ġhouse hold
Ġreg ions
c x
Function s
Ġdem and
ip h
Ġmodule s
' }
Ġcop ies
ĠB razil
Ġd ut
fr ames
ĠC ard
serv let
code c
ĠSh ort
ĠB oston
Ġch ance
h ard
ra wn
ur ies
mem bers
Ġwait ing
Ġcol on
de ed
sub string
ong o
ĠC D
gu ide
ĠN ative
}, \
atur day
Ġ" )
ĠCent re
Î µ
Ġconvert ed
pol y
196 9
trans late
Cert ificate
x sd
ĠF ire
b ute
ge q
ĠRad io
Ġb ucket
Mer ge
ck now
ion e
String Builder
D TD
pl ain
Ġcont em
Ġunderstand ing
Ġp il
) $.
Ġt uple
ĠSup reme
des criptor
e val
ĠM ov
Pr imary
ĠJohn son
yg on
ĠN on
Ġun iversity
Ġ ðŁ
F etch
Ġgrant ed
parent Node
ist ogram
{ },
s un
^ *
Ġb all
ĠĠĠĠĠĠĠĠĠĠĠĠĠĠĠĠĠĠĠĠĠĠĠĠĠĠĠĠĠĠĠĠ ĠĠĠĠĠĠ
l ab
Ġmention ed
mut ex
Ġl atter
Ġup load
. ")
ĠR ender
es cape
>< !--
File Path
ip er
g th
ĠComm unity
Ġattack s
Ġcons ists
Ġ/*! <
A I
ĠRout e
ook ies
lap sed
Ġcomp letion
Ġb in
Ġw ind
Ġpre pare
Ġt imer
ak a
Us ing
od o
ĠCon sole
Ġl abor
mer ce
ĠM en
) =
fil ters
ME M
Ġcons umer
ater n
b undle
Ġs y
h ave
Ġatt ended
è ¯
att ach
ĠCon f
Second s
Ġt sd
Ġfe e
Top ic
ĠE val
Ġpart ner
to LowerCase
ĠS outhern
second ary
Ġcon ference
is er
Ġm obile
197 1
has OwnProperty
Ġw ood
Ġserv ing
Ġsc al
not ification
od ies
Ġme ant
P ut
Ġp ul
Ġn ine
Ġaltern ative
Ġcr iminal
urs ive
ol k
p aper
ĠE ven
v are
; \
MA SK
av ity
F ig
Ġpolitic ian
Ġper fect
_ [
m iddle
o ir
ton soft
ĠCl asses
Ġst ars
Ġb asketball
il ing
AS H
ĠJ un
Ġr are
Ġs ust
M s
pos al
Ġfl at
ĠDate Time
HO ME
Ġal pha
Ġattr s
il s
Ġobserv ed
Ġex ec
Ġtrans actions
bold symbol
Ġrece iving
B ACK
ĠB E
T y
Set s
Î ¹
w ater
Ġcomp arison
Ġinvest ment
Ġb re
SH A
Ġ' @
Ġdr ive
SP AN
ĠS SL
ns ylvania
P K
new s
h ook
h d
date picker
B reak
Ġexpl an
ĠF rame
d anger
ic ed
Ġest imated
Ġan chor
it ors
Ġ-- ></
out er
ĠH on
ĠM i
S cheme
Ġprint f
Ġk new
Ġtyp ically
ĠAre a
19 40
ig ator
Ġn uclear
Ġb lood
s in
ca pt
Ġstate ments
ĠSp ain
ĠC lear
AR B
ST ART
ĠW ales
if ul
inc ipal
ra structure
Ġinit ially
N d
cont ainers
Ġide as
Ġgener ic
Ġcheck s
Ġext rem
sl ider
WA RE
Ġcontin ues
ĠNS String
C ulture
k g
ĠF our
Con version
sec ut
ol ate
form ed
u v
7 00
lement ed
ĠN et
Met ric
Access or
fol io
P ipeline
An im
ĠThe ir
a N
gle w
am er
Ġ( `
Ġ" _
Ġres idents
n os
- (
Track er
Ġm arriage
Rece ived
Ġrecord ing
Ġregion al
Ġrot ate
ĠTR UE
Bit map
ĠW all
st ub
Ġcons ult
m ag
Ġg uest
__ .
P ending
Ġmet ric
The n
Ġpass ing
ĠGu ide
SS ION
CO MM
Ġproces ses
Ġdist inct
a ught
FA IL
Ġc arried
alt Color
Ġr c
Ġw ants
B est
ub ble
Ġbro ad
ĠO P
Ġlog ic
ĠOrig inal
ec ycle
ĠJ ones
Graph ics
Error Code
Ġs outhern
Comm it
ĠSh ould
nolog ies
Ġfoc used
ser ve
Ġc loud
Ġse ed
ĠL em
ĉĉĉĉ Ċ
T ry
ĠW rit
ĠB ad
196 7
SS AGE
Ex tra
Ġr iver
Ġf ine
D en
Ġ ult
Ġrest rict
Ġspe ech
des ign
eth er
Ġb udget
L ines
ĠN E
Class Name
Mod ifier
aw a
Ġh yp
G it
" ])
Ġlook up
ĠP acific
Serial ization
ĠG raph
Ġred irect
Un iform
ĠIr ish
ĠV an
Ð° ÑĤ
Ġaut om
Wh ere
Ġcorrect ly
> `
ĠD om
ĠB O
Ġf av
ig ate
ib ling
g p
fr ak
Test ing
m iss
se gment
Ġsp aces
ĠRe al
CH AN
rid es
U ses
Ġch osen
> ${
Ġf ans
ĠQue en
F ake
sp i
ĠBl ue
to Equal
att ing
ä º
feature s
Ġproper ly
ino is
pp ing
STR U
ĠAct ive
L ike
t ile
ool s
TH ER
U int
Ġshe ll
Ġy outh
erial ize
Ġt f
cache d
R T
. ~\
N ON
Ġcal c
Load ed
p ad
Ġident ify
Pop up
Ġnew ly
un te
ordin ate
ĠP akistan
Ġar my
Dest roy
Ġb as
sess ment
C ookie
ĠP erson
Ġpolit ics
Eng lish
w t
Ġstud ied
Ġdisplay ed
a ight
00 1
db c
Ġm ill
194 5
Ġto kens
Ġinterest ed
use t
s z
() [
task s
Tem p
B ER
am ount
n amed
Ġf light
Ġg it
N ECT
Ġcr ime
Ġmag azine
g ems
P lease
vent ory
se x
grad le
Ġc ru
ĠT ree
As set
AA AA
ok es
ĠPl an
Ex it
Ġf reedom
Sh ift
Ġbel ieved
E P
Ġd s
br and
Ġ ut
Ðµ ÑĢ
ce st
Ġart icles
value Of
C tx
Ġenc ode
ĠPro p
arg v
ĠT YPE
Oper ations
over flow
ĠG reek
ĠL i
] ['
T ex
sc ore
19 30
it age
ĠFrancis co
op acity
Ù ħ
P res
DE LETE
Ġcell padding
Ġlook s
ĠS ir
Ġex pr
Model s
REQ UEST
Ġatt ached
ĠC S
I ME
+ "
50 9
K ernel
En tries
Set up
Ġf iction
os c
Ġhand s
ail ability
ĠJe ff
C ountry
ch er
ak ed
ĠW ay
art esian
ĠIn ternet
Ġpre m
Ġfund ing
redu ce
Ġcent re
Ġwon der
ip ient
AR GET
Ġfund s
Ġprof essor
Ġa im
Ġa apt
be ans
ĠP M
Ear ly
G ateway
P ush
S ide
Conn ector
Sc ore
red irect
c ookie
V ec
m obile
ĠE gypt
ĠEmp ire
Ġnot ification
ĠPr ivate
IN DEX
. }
Ġre verse
default s
Ġemploy ees
ad apter
Ġinstit utions
S PE
Ġlog in
CO UNT
Acc ording
Ġnor thern
Ġadv ance
P adding
and o
ĠS ar
vert ex
ke ep
ĠB oth
ĠTh us
id ae
b el
He ad
The se
] </
Ġ| ____
pro vid
g ov
z oom
ĠP ack
Ret ry
eng er
ĠHash Map
t ex
Ġw it
Ġcomp ilation
tim eline
ĠII I
Ġint ent
im ents
S rc
Ġlang uages
k ubernetes
Trans fer
ist ed
al og
math frak
V EL
Ġ" #
ac er
ĠA ws
fin ite
Ġallow ing
on der
Ġhe avy
Ġun iform
se cret
z ing
Ġw ire
ĠW ed
f all
Block ly
Dec oder
Ġhe ar
Ġw arn
Ġlist s
nt il
w an
ug by
Ġcount y
Ġj ourn
cul ate
At tempt
ĠJer sey
99 99
/ )
ĠA T
ĠÐ ½
an im
ĠW in
G rad
umbn ail
Ġin tern
Ġcl in
Ġfa ith
ĠTech nology
Ġstat istics
Ġind icate
b ench
Hel lo
A VE
dim ension
F oot
D istance
Ġvis ited
Ġs light
ĠW ater
ĠS yntax
Ġto ward
List eners
ĠB re
google apis
Ġdec or
y er
T ensor
ĠT ry
Cred entials
pe ction
Ġpe er
us hed
Ġle tt
Ġaud ience
w allet
ĠPen nsylvania
ĠB ecause
on al
ut ral
ĠB AS
reg istry
depend encies
Ġext ensions
d ynamic
S UP
ĠS ymbol
Ġar bitr
Ġin nov
P ixel
Ġm igr
sh a
] ).
ro g
il ly
Ã ±
process or
Ġad vert
Ġf ellow
n ab
os a
ĠS VG
è ¿
! "
Ġ(! (
Ġvict ory
ĠProf essor
ĠAt tribute
over ride
T ick
ĠS l
V D
con v
Ġn om
################ ################
ident ity
van ced
Ġst uff
× Ļ
ĉĉĉĉĉĉĉĉ ĉĉĉ
az ure
ri ction
Ġl l
ĠA uto
Menu Item
Ġclaim ed
// !
late st
In struction
* >(
Ġpay ment
Ġs yntax
Ġend s
Å Ĥ
V O
text it
iqu es
ĠJ ac
Ġto String
ĠCor poration
F ac
as hed
Ġper haps
Ġp m
lem ma
hel lo
ond ay
G ui
Ġm iles
Ġelection s
ĠOh io
ong s
FORM AT
n able
Con straints
ĠInitial ize
Ġbound ary
O ld
-------------------------------- ----------------
H ave
> .</
j ac
File System
Ġadv ant
ĠL I
Ġse asons
19 64
Ġclient s
ash ion
ĠRepublic an
Ġd oll
Ġfrequ ency
ter rit
Ġflo or
Ġbr idge
Ġchalleng e
S UCCESS
Table Row
ĠC HE
Ġr ates
Comp letion
She et
pe g
Ġt al
ĠHe ad
IT LE
Ġex ceed
Q t
A MP
Ġdef end
D Y
] *
Ġf i
unit Pattern
illi seconds
Ġcon cert
Ġacade mic
m ime
Ġk ill
ĠKore a
Ġ' $
ĠT re
F ill
Ġem er
Ġarchitect ure
G O
ph ony
Des ign
ĠDes ign
View Controller
//////////////////////////////// ////////////////////////////////
Ø ¯
Ġm otion
met rics
Ġtraff ic
ites pace
Ġredu ced
p romise
amazon aws
Ġpl anning
ĠC apt
Ġig et
enn is
style sheets
pi pe
Ġcommun ication
is Array
F actor
V ID
ĠWilliam s
Ġfact ors
Ġcomp l
ĠU krain
iz ers
ĠCo q
ur ance
Ġ" );
^{ (
ĠOper ation
Ġb log
\ ":
Ġg lob
Ġdiscover ed
ĠD IS
aw esome
Ð ·
Pay load
app le
ĠC irc
var s
path s
rupt ed
ed ed
Al ert
B LOCK
ph y
ex ecution
ab b
" ?>
s ock
ĠI ss
Ġconfig ured
Ġpol l
{ $
Ġrad ius
Ġear th
mark er
A IN
Ġt ick
Ġch anging
Ġ" [
ĠCon nect
Se q
right arrow
19 20
ret val
OB JECT
ĠE very
and box
Array s
l ife
cp u
Cont in
Ġshow ed
Ġg uid
Ġsc oped
Ġstr aight
Rad ius
depend ence
ĠĠĠĠĠĠĠĠĠĠĠĠĠĠĠĠĠĠĠĠĠĠĠĠĠĠĠĠĠĠĠĠ ĠĠĠĠĠĠĠĠ
Ġdes ired
ent ries
Ġpower ful
Ġliter ature
ĠT OP
ab eth
Ġp al
Ġr atio
Ġconstruct ed
Ġcell spacing
M ult
Col l
ĠC R
Ġded icated
ĠO x
ĠM aster
int on
h line
pack et
Ġloc ale
ĠMich igan
ĠG ir
ĠH ospital
os ing
SER VER
Ġsc r
et ing
â Ķ
ri ent
Ġat tract
ĠU sed
m ann
ĠD ictionary
sc an
D ict
ĠM ajor
ĠL ab
ĠPr ime
ĠF ilter
des cribe
Ġm useum
e h
Nd Ex
! =
og gle
Ġscient ific
o a
Ġst reet
ĠEn able
S cheduler
Comp are
MS G
RO OT
ĠF riday
Ġ utils
Ġmor ning
M ac
Ġs ender
ĠJ on
k ernel
C irc
Ġcause s
Key word
ate ver
add EventListener
! </
av ers
Ġpro ve
TO M
in cludes
P ersistent
L ite
ĠS ize
m ay
initial ize
ac o
) $,
Ph i
ge ometry
territ ory
Ġ& =
Sc ene
W r
ens itive
ĠB ow
Î ½
T X
av id
ĠGeorg ia
ĠS em
Ġe c
Tool s
pe aker
Ġdestroy ed
Ġp atch
Tra its
Ġinit i
O W
} =
\\\\\\\\\\\\\\\\ \\\\\\\\\\\\\\\\
b on
Ġk ernel
Ġassoci ation
vers ation
render er
U AL
Ġp airs
Ġp icture
Ġh uge
å Ĭ
S afe
Ġtable s
or ough
ĠIll inois
In line
u er
ĠString Builder
uck y
å ¤
Ġd anger
are er
Pe er
Ġpre par
pag ination
ĠScot land
Ġf ear
196 5
s chemas
ĠF und
Ġcon straints
Ġin strument
ĠT EST
Ġ ath
Ġw x
Ġreal ity
oun ce
Ġhapp ens
Ġmet rics
ĠS pring
sp ark
Sc an
Ġcoun cil
ĠRes p
ĠAnd rew
link ed
ĠWe ek
vare psilon
Ġdec ades
19 66
sk y
Ġsupp ly
ur ations
produ ction
ĠâĢ ¦
Ġch ampionship
ĠHistor ic
ĠCHE CK
remove Class
Ġm o
pear ance
separ ator
ay lor
ĠM id
ĠO ptions
Ġ' ')
Ġreg istry
}} $
Ġsecond ary
ĠG rid
Prot otype
Pre vious
ĠLat in
the ad
C lean
Ġde tailed
AB ILITY
Ġrecogn ized
ĠUn less
o val
vis ions
M AN
sc r
G RO
S ources
ly n
Ġ\ ,
m ond
ĠI gn
D MA
Ġcitiz ens
uc ene
ĠCON DITION
S lot
p f
ack s
. ');
ĠJack son
ĠCon nection
andid ate
} ]
int eg
ĠB attle
/ ******/
iv ation
Ġt s
ffff ff
ĠC ache
Sep arator
Ġcirc um
H ook
ĠJ r
Ġloc ations
ĠChampionship s
man ifest
Ġtr a
Ġend if
ul p
Ġdecl are
Ġs it
S uite
ste in
ĠS i
ĠM IT
Ġdisc us
Ġprinc ipal
P ower
> {
Ġr ail
Ġre peated
ĠAs ian
=" {{
RE NT
Ġel im
ĠH a
sub scribe
st rict
ĠM ah
comp lex
:: $
C r
Write Line
am in
Ġdr ama
Ġretr ieve
ĠS af
yd ro
M illis
ect ors
Block s
ĠPal est
} -
set ting
app a
S lice
Character Offset
Ġg oog
\ /
Ġfac ilities
ĠT er
AC ING
uss ian
Ġn omin
New tonsoft
itor ies
Sub scription
ĠOther wise
Ġw all
Ġcert ificate
ĠGener ated
uset ts
Ġdevelop ing
Ġestablish ments
ach usetts
ADD ING
ĠMed ical
ĠW HERE
? (
Ġl ic
Ġ" ;
Ġlink ed
Ġa f
c n
Int ent
? "
Comp onents
Ref lection
Ġk w
c ue
at ile
ell er
Comp ilation
E st
> [
Ġcomm ittee
Gener ate
Ġtem porary
Ġfore st
ĠTok en
Ġpor tr
rit ical
Ġcover age
NG TH
Ġsub stant
Ġc lip
Ġindic ating
C amera
b t
() ]
ĠC A
Ġor ient
ic ol
B ased
s With
ouse l
Check ed
Z oom
or row
jav ax
( `
O cc
Ġaff ected
r angle
Ġpl us
Up dated
Ġcomm itted
Link ed
Ġsort ed
ath an
ĠĠĠĠĠĠĠĠĠĠĠĠĠĠĠĠĠĠĠĠĠĠĠĠĠĠĠĠĠĠĠĠ ĠĠĠĠĠĠĠĠĠĠĠĠĠĠĠĠĠĠĠ
Ġh ousing
F ix
ĠD ig
c raft
Ġ ice
ĠU P
Ġrecomm end
ict ed
ole c
ol ute
B us
Ġg ather
Ġhapp y
z h
p ur
Ġy oun
shall er
Ġ ĉ
Dis abled
u ent
Ġ( -
ĠK en
Ġag ency
Ġpl ane
F oo
L ONG
Ġtw ice
u is
() ">
ro vers
j sp
ĠC ase
ĠP ut
Ġa x
Ġchannel s
Ex ec
G C
ie ves
ĠPro du
b x
ĠCONDITION S
Ġneg ot
burg h
Ġinterest s
ĠBAS IS
art ers
de veloper
ĠH am
V ol
Ġc e
) -
Vis itor
Ġh align
Ġcomp uted
set Text
F P
STRU CT
Ġconfig ure
Ġbr and
% )
et ic
Ġth reshold
ir ror
'] ))
? ?
conn ected
ixt ures
ĠN ations
st age
Ġb oy
Ġs pl
ĠDan iel
Ġs napshot
ĠB ern
oc os
W arnings
sub set
H ere
K e
ĠN oth
Ġse ss
Ġc ycle
is ms
LO B
ĠF inal
Ġdam age
d n
He alth
Ġbenef it
eqn array
Ġdiscuss ion
Ġcompat ible
L ang
if er
Ġv ec
et c
F ixture
P ADDING
ship s
Ġstandard s
FUN CTION
ĠAl bert
help ers
A nt
ĠT ro
ĠK ent
Ġang ular
Ġag ree
ĠPol it
Ġan gle
ĠS ymfony
d m
d istance
Ġcon cent
Ġreject ed
as er
Ġcould n
Ġcandid ates
Name Link
ĠSt an
Sup p
Ġb undle
r an
ĠS aturday
port ion
s amples
We ek
ĠStud ies
sw ing
OR S
ap ed
Ġtrad ition
% "><
çĶ ¨
te ch
eder ation
Ġsql ite
ĠD er
Ġtarget s
Ġhold ing
Ï ĥ
ĠK enn
Ġearn ed
Ġhon or
ĠR am
ot ic
ĠColumb ia
Ġres olved
Ġ! !
C LA
nof rame
alk er
N umer
define Property
Ġcor ner
ĠS and
en ance
Ġcomb ination
ĠEast ern
is hes
Ġgu ard
ict ures
Ġs leep
id ers
Ġob vious
Ġs lice
ME SSAGE
Ġvoc als
Un mar
Ġre try
com ments
ĠA ri
>( <
cept or
Ġm s
Ġ era
ĠS ol
, .
st derr
Ġschedule d
om ics
i ency
Ġri se
(" .
ĠB asic
Ġsubsequ ent
est ure
Ġenvironment al
Ġen force
Ġpro te
ĠEd ward
The y
Ġc as
Ġc er
al so
Ġc ss
U A
ĠThe atre
part y
Sup er
te en
p n
Ġbeg ins
c lip
Ġexp ansion
Ġopin ion
ĠE rr
Ġfe at
ade l
FLAG S
Ġact ors
Trans lation
arri er
Ġdem ocr
Ġro ut
ĠCo ast
p ic
ines ses
Ġaut orest
Ġpers ons
script s
ĠR ay
Ġse at
Ġadv oc
E valu
st ates
Ġmark er
Ġr hs
Ġ/** <
ĠS W
Rel ative
Ġconduct ed
sur face
ĠSt ore
æ ĺ
style s
Ġf re
Ġmeas ures
Ġind ices
Ġbenef its
WR ITE
Ġexplan ation
al o
Ġprop ag
Ġauthor ities
Rece ive
us age
ĠB ORDER
Ðµ ÑĤ
Dest ination
ĠNoth ing
T imes
lo v
Ass ign
Ġauth ors
ons ive
m anagement
part ition
Al pha
Ġenc oded
d td
ĠN ight
ĠE lect
Un ique
r im
Ġmat ched
ĠF amily
// ----------------------------------------------------------------
ust ers
: %
pre ter
roll ers
Comp leted
Per cent
p icture
Ġtell s
over lay
Ġexplicit ly
Ġan notation
BY TE
dir name
pre vent
Ù Ī
Ġarr ived
Exp ress
place holder
Sh adow
r ical
Ġcon straint
ĠR ule
In ject
un a
Ġs ister
Ġsh op
P icker
add ed
or er
OT TOM
Ġlisten ers
ĠL ight
Ġfil ters
Ġlearn ed
ĠEnt ity
Ġse ctions
ex tract
Ġf ru
Ġper man
ĠSe a
Ġj ump
gener ic
Å į
W ORK
Sur face
p in
Ġfor t
Ġfind ing
ĠFe ature
PRE FIX
Data Source
Ġd aily
avi our
Ġv en
ĠK ong
Ġsur vey
th m
t oc
Ġq q
Ġinvest igation
Ġc fg
scri ber
s leep
Ġb old
Ġmap s
Ġjust ice
ĠJ oe
P aint
Ġw ish
ĠP rem
Ġadv anced
enc ing
Ġcomp ile
requ ency
V P
ip edia
Ġpro min
LA B
over line
S printf
ĠGu ard
pro b
h ar
Module s
M IT
Ġn ested
Ġattempt s
ext ends
] ),
Ġsom ew
Cal led
Meta Data
An chor
A K
ĠH arr
Ġphil osoph
jack son
{ })
ĠTr ust
U UID
ĉ ĠĠĠĠĠĠĠĠĠ
Ġatt end
Ġcol ors
P ress
Ã ¸
Ġout er
ik i
on omy
cond itions
il a
19 2
u ate
Ġthink ing
ĠP arameters
Ġveh icle
R IGHT
a ired
ĠCont ainer
Ġfe et
Ġh ook
ĠG overnor
ĠCon structor
ĠR h
Ġmain ly
ĠPol ice
ĠValid ate
Ġt or
Ġexist ence
Ð¾Ð »
ĠAcc ount
x f
cript ors
PRO TO
Ġwest ern
M ultiple
ĠĠĠĠĠĠĠĠĠĠĠĠĠĠĠĠĠĠĠĠĠĠĠĠĠĠĠĠĠĠĠĠ ĠĠĠĠĠĠĠĠĠ
S ender
Ġp ixels
ĠPro vince
Ġs lot
13 0
Back end
196 3
Ġinv oked
Ġa head
d on
Ġdef ines
Ġequ ipment
cite p
V C
ĠDis play
ĠS ET
ex cept
s chedule
ĠM u
ĠCh ris
N EL
c ity
x ff
ĠPr ince
Deploy ment
Ġclear ly
ĠBro ok
ĠJew s
Ġfil led
SP ACING
Ġtri p
Request s
Ġdepend ency
m ms
ch arts
sh op
Ġcomp osed
' ):
Ġben ch
Has Been
He ap
ĠMass achusetts
ĠM ike
Ġreve aled
sub str
ref lect
Ġapp arent
Ġ' </
{ -
Ġac quired
Det ector
Ġs v
Ġp ref
am ber
ĠAl low
ĉĉ Ġ
LE VEL
med ium
Ġcontrol s
100 00
With out
æ Ī
Ã ¥
Ġimport ance
ĠX ml
Ġs in
Ġg rew
Ġ$ ('#
Ġsk ills
n orm
F IL
Ġg a
Ġrece iver
ird s
ĠF ar
f uture
Ġmin ister
Fil ename
Oper and
IE W
Ġas sets
Ġst roke
Ġprim arily
Ġpr ime
g ood
ĠU SE
mb ed
N ational
Ġpar allel
ch rome
ĠĠĠĠ čĊ
ot or
Ġa wards
Ġsold iers
back end
Ġs izes
Ġaut hentication
Event Args
t uple
196 2
ĠL ook
Ġocc asion
ĠJes us
ĠA D
Ġw inner
Ġdepend ing
b our
Ġthous ands
PI O
Ġbe at
Ref resh
ĠS OF
non atomic
Ġharm ony
ump y
Reg istration
Ġc ancellationToken
40 4
Sub ject
Ġrelig ion
te am
X Y
Ġs pend
reg ex
b p
e ff
ĠL ittle
m ultip
ĠC ro
ĠCon struct
me an
unn el
Ġs port
Ġte aching
Part s
allow ed
draw able
Ġadopt ed
Ġp in
Ġrest ore
PROP ERT
V T
Ġem ph
app ings
ĠRep resent
---- ---
ul f
geb ra
Ġd og
Ġcoordin ates
ic ates
Dim ension
c are
Ġ======= =
Ġ[ {
B ridge
S ink
Ġprom pt
FR AME
RE AM
t m
run ning
Ġro b
y cl
Ġdefe ated
Ġsol utions
ct ree
Are Equal
<? >
df s
Ġgener ator
Ġa gr
ĠP UBLIC
ĠPhil ipp
om er
g lob
z y
An aly
she ll
Ġsc an
urs day
st ances
Ġmaint ain
Ï ģ
ab stract
} :
Ġs ufficient
Ġpre ced
Po jo
Ġr ailway
Ġsupport ing
Ġsuggest ed
Ġw ave
Ġc ars
ĠD atabase
LE NGTH
Un expected
ex ist
ĠApp le
App ly
Im mutable
ĠN um
Ġa st
ĠU sing
last ic
Ġexp ressed
L P
B o
Ġqu eries
ĠS chema
In to
Def ined
]( #
a ui
Ġun able
Ġport ion
v ide
ĠB and
inter pret
ĠC a
St age
ren ce
æķ °
' },
pect ed
Ġserv es
ast ers
) ^
Stack Trace
Ġm ath
App Compat
Ġadd s
Ġare n
Or gan
Ã¡ n
Ġpar a
H int
c u
ĠL abel
En code
At trib
m ix
Ġan cient
Ġd ynam
che ster
E LEMENT
z abeth
Rout er
ĠS P
Ġp ixel
po i
s ender
io graphy
Ġdro pped
ĠF oreign
Ġr ich
ĠFI LE
ĠS ession
c lock
f av
Ġge ometry
Ġc row
Spec ial
Ġdescri bes
ĠSOF T
dis k
Th reshold
ĠS us
ĠB ush
app s
ind ices
Ø ª
is a
Ġcon vention
xx xx
Ġrecomm ended
Ġm ail
Ġact s
hash Code
ĠTw itter
Ġc ensus
erv ative
Ġ< ?
ĠThere fore
ĠE U
Ġstore s
w x
Ġwrit es
Ġn arr
Ġman ifest
I ES
HasBeen Set
ĠJava Script
Ġ" +
Ñ ĸ
size of
r v
Struct ure
Ġproces sed
put y
writ ten
T ax
Ġrespons ibility
post s
ĠC F
Ġnetwork s
ĠEd itor
ĠS ite
s en
ĠM atch
EN CE
Ġpolitic ians
Ġm iss
ĠCELL PADDING
mark s
Ġcapt ured
Ġref resh
ĠCELL SPACING
]] ></
open api
Ġtro ops
M r
Th an
Ġconst expr
Ġlarg ely
ir y
ĠÐ ´
Ġrel atively
ul pt
Comp lex
Do ctrine
Ġa ws
10 2
Ġcontr ast
ĠOffic ial
W est
m icrosoft
u et
Ġs ock
Ġc odes
Ġsub scription
Ġg one
C ould
af ka
pack ages
Ass ociation
ver ts
Ġimp licit
Ġle aves
Ġbus inesses
ĠI F
O ur
h int
im b
Ġle ads
um a
Ġqual ified
Ġtre ated
ĠA WS
Ġarbitr ary
(" <
Ġdecl aration
Ġhouse s
AUT H
Ġe state
M ail
Ġtechn ical
Ġcom edy
Ġ ur
Ġd ream
Pro f
w so
qu o
ues day
Ġinitial ized
Ġext ent
c losed
Ġ" ./
Ġbig gest
ĠB ol
op her
Ġret ired
". /
Ġopport unities
gorith ms
Ġfig ures
Ġexper i
Al ignment
ct ors
Ġshe et
194 4
d ays
Ġ( #
) '
Ã º
qu ick
d ump
Ġsec ure
An gle
re verse
he x
form er
Ġbr ain
en vironment
ay a
pre view
Ġfac ility
^^ ^^
Ġcomp osition
Ġcalcul ate
char acter
N I
Ñ Ĩ
ĠTh row
ĠOx ford
Ġperform ing
un ion
ĠD ar
Ġposs ibly
l ua
Ġr ul
Ġs ig
U sed
Ġteach er
Ġest im
Ġprom ote
ĠDev ice
ĠV iet
Ġsp ot
v t
is lation
St d
state ment
s ym
M AC
Ġpack ages
ĠK r
Equal To
ĠM atrix
b ell
R S
HO ST
Ġpro vision
M usic
Ġpol y
Ġconsist ent
A CTION
Ġin tr
196 1
end ment
ĠH y
Ex tract
on ia
Ġp tr
LIN K
ĠD utch
Ġf resh
/ #
Ġvis ibility
g uid
Ex cel
Ġdef ense
NotFound Exception
ret ch
let s
ĠL ike
Ġg ain
Ġm and
For ward
5 12
ĠA C
Ġpre pared
="@ +
Ġcertain ly
ĠÐ º
ib er
Ġs ynt
Ġconf irmed
b ury
c aret
Un ited
D a
h ab
ĠSOFT WARE
ĠIn f
w as
, </
For ce
v ements
g able
l ator
Z end
per cent
Al ign
Ġleg isl
Ġact ing
eg o
Back up
Mar shal
text area
ru ption
ĠMc C
AS C
Ġsch olar
ident ial
ĠP ay
ĠN Y
ĠL uc
ĠAb out
Ġfl ush
Over lay
Ġspe ak
ĠR ange
button s
Ġpi eces
Ġph oto
d ots
De ep
/ '
Up per
e ve
ĠB ox
Ġdim ensions
ĠG ET
ĠW is
Ġ å
TO OL
dat aset
Ġexception s
o es
re ject
p riority
Stat istics
Be havior
e valu
ĠD est
Ġlo ader
Style s
p ipeline
Ġ. /
D er
1 12
ĠE st
ing ham
Ġach ieve
per iod
y o
inv oke
Ġcall er
G uid
Ġb lob
r and
ĠR og
Ġr apid
An notations
: /
Ġal ter
dest ination
pt on
MA IN
ĠCon stitution
Ġarray s
M esh
Ġsp in
ĠPro perties
Å ¾
Ġs ides
Ġex erc
ĠTr ansport
String s
R GB
è ®
O k
an z
ate st
work er
Ġnot ify
c uss
Ġex tr
sub scription
t ail
I SE
ĠTest s
P FNGL
Ġcontin uous
E lem
Ġv ers
ph ere
h om
ĠB BC
om ial
Ġcred entials
Qu ant
Ġt end
Ġspec ifies
S ent
Ġcr isis
TableRow Color
Text View
flo or
m issing
Ġman age
Ġpsy cho
P G
Ġord ers
Ġa cknow
\ |
phot on
Ġ urban
if rame
if ference
Ġcon ven
P rom
Thread ing
ĠWil son
fail ure
Ġpl anned
ĠT arget
="# "
AME TER
th ur
Pay ment
ĠB ang
ra ise
Ġsh ips
enn es
ick y
st ion
od a
ut r
es sed
Ġmer ged
( @"
ĠM onday
Enc oder
OPT ION
up per
Ġform al
get Key
Ġc c
we ek
âĶ Ģ
N ER
r x
Object Meta
S U
Ġneighbor hood
ĠÐ ¸
aa aa
ĠSt yle
------------ -
window s
ĠC ub
T ip
ĠO bservable
Ġrender ed
. ";
f ac
ĠMin istry
Ġhistor ic
I BU
le ton
s quare
J ust
Ġbel ief
INST ANCE
Ġstop ped
Pr imitive
Ġtalk ing
Ġr ing
atri ate
R atio
Ġreg istration
input s
ĠR ight
ĉĉ čĊ
ĠH ong
ĠTh ree
\ %
Ġsing les
N ested
Bl ack
C ent
ĠAdd ed
st roke
194 8
Ġcomp ar
p ref
Ġweap ons
ct rl
us al
ox y
ĠÂ »
t v
c sv
s peed
Ġg lyph
Ġappro ved
ra ham
Ġgir l
u j
Ġwe alth
ĠCon st
ĠL ew
AR CH
"> {
ĠV AR
l aw
J s
stats models
ament al
Sig ma
Ġconst ants
IN CL
ĠOC aml
() `
Ġspecific ally
Ġprogram ming
Mod al
[ _
Ġach ie
H idden
ĠF uture
Ġp itch
ĠE ns
lock ed
Ġind ustrial
-- ;
Ġwide ly
CE PT
ĠDe cl
Found ation
ĠS ports
ops is
ly wood
ĠWh o
i ance
Allow ed
Ġr s
r ink
IT H
Ġv on
LO AT
Ġr m
ampl ing
Ġin herited
Conf irm
Ġth er
CL K
ib li
C over
ĠSt ation
ĠNO TE
Ġoper ated
hes is
c atalog
Ġrot ation
F ROM
Ġtr ansp
ĠAl b
ĠAss oci
an de
Ġdat etime
inner HTML
Ġent ert
................ ................
nes day
ĠB as
Orig inal
ĠChild ren
Ġm anner
: &
A ff
Ġleg end
ĠPol and
Ġs un
Ġperson nel
Ass ignment
Pred icate
Ġem it
Ġbro ken
pr ice
Ġs oc
Ġacc ident
Ġde tection
ĠL ive
RO W
ĠK n
19 39
ic ing
m c
Ġlo s
ĠJe an
st eps
Ġ(! $
en o
M ixin
in vert
Ġt ail
Al gorithm
ĠC ur
Ġb ass
M ost
? âĢĿ
Re q
Ġa w
al g
Ġint elligence
c up
11 1
Ġcont rovers
ĠB rad
ag on
Ġeffic ient
ĠCE O
ex clude
Ġequal s
ĠGener ate
ĠE ner
l iteral
Ġem erg
ĠT urn
config ure
ĠSc iences
sub Nav
st mt
Ġinstit ution
ch at
Rec ords
ĠPub lished
yd ney
ĠEn c
By Name
Tag Name
an alysis
is o
a ug
ĠRe quired
ĠV ideo
st o
Ġsub mit
ĠSt op
ĠM ust
to kens
il i
Ġcustom er
m ust
block s
M LE
vis it
ad r
in er
ĠF urther
ĠPro duct
Ġtre es
ĠG it
ch ant
Rep ly
Part y
Ã ¢
Ġnewsp aper
E MP
i pl
gener al
g c
om ething
Ã© e
serial ize
Ġgr pc
195 9
195 6
P lot
Ġst ub
ĠQ String
ph ia
Ġb urn
St ar
Ġacc um
order ed
ĠD ub
ĠIs lands
Ġev olution
TEXT URE
* >
amp ions
Ġdom estic
a que
in son
ĠT y
s ources
iz ard
Ġdo or
Ġlett ers
ĠL ock
I ENT
h base
ai ses
center ing
Ġc ookie
Ġconcern s
S IGN
Des cribe
se udo
ĠF loat
ĠF air
Ġjud ge
ĠB efore
ĠA DC
Dispatch er
ert y
Ï Ģ
ph ase
EN C
Ġstren gth
ĠA uth
Ġlim its
ĠScott ish
Ġfif th
numer ic
Comp arison
P B
Ġrest aur
Ġpy thon
L ive
im edia
ĠF ixed
: -
at able
Ġ' [
Ġwr apped
}) $
im m
Ġsynchron ized
el ly
Ġm acro
d ating
Ġthread s
Ġsh adow
E OF
Ġreplace ment
ĠS oc
195 8
Ġenc ounter
Ġm ist
Ġaccount s
Ġpattern s
Ġ# #
do or
ĠInv est
ĠS cript
por ated
Ġmot or
L D
Ġc os
Ġcollection s
ac on
Ġcontrol led
Ġdiv ided
de mo
Ġorgan ized
> ';
Inst ances
D ash
Ġentire ly
ĠĠĠĠĠĠĠĠĠĠĠĠĠĠĠĠĠĠĠĠĠĠĠĠĠĠĠĠĠĠĠĠ ĠĠĠĠĠĠĠĠĠĠ
> ../
v ance
y aml
Ġl ies
Ġhand led
ĠA nother
Ġchalleng es
ĠM anager
P RI
ĠB ind
ĠComm un
Or d
m x
IBU TE
In ternational
ĠExecut ive
H is
} "/>
t cp
ĠD A
P DF
Ġowners hip
Ġadvant age
ĠB al
Ġphot ograph
Ġad vis
ĠRev olution
Vis ibility
ĠOn ce
S peed
ur is
ĠCon stant
s napshot
==== =
% .
Ġco al
Sh are
Check er
Ġrep ly
F urther
á »
à ¥
valid ator
ld ots
Ġmet al
194 2
Ġdeg rees
Ġengine ering
c op
ĠW ait
ĠPort ug
B rit
Ġcol lected
Ġsp ons
param ref
br anch
UN K
Ġslight ly
get Property
Ġsup posed
Ġpract ices
Ġanim als
C MD
l u
Ph oto
="# ">
ĠAlex ander
get Text
m is
N ov
Type Name
Ġprob ability
Ġalleg ed
stream ing
Ġdr ink
ĠR ome
rop ol
Ġm ach
Ġh r
Ġf ired
Ġt ile
Ġend ing
adel phia
T ARGET
Ġ æ
c ross
Ġlook ed
os is
Inv oke
Ġ= ================================================================
l ive
Ġs ale
U ntil
Ġg ender
Ġb omb
C areer
? </
Ġ( ((
Ġdiffer ences
Read Only
] ];
Ġso lo
in cluding
io logy
Ġk ids
out heast
ust ed
string ify
Ġrep o
r ank
ow a
ĠMethod s
Fil ms
Ġpro test
Ġw a
ĠT aylor
ĠF ull
ĠSt orage
WAR NING
ĠD C
! (
Ġp ure
Ġd jango
mod ifier
op am
per ial
` :
are st
at ype
ĠR od
ĠChrist mas
Ġart s
Ġl ambda
ĠF C
DI RECT
ĠAff airs
Ġequ ation
or i
field set
work s
Ġbase ball
ynchron ous
Ġpl ain
[] )
Ġde precated
table s
lim its
Em itter
nt ario
Ġsepar ated
ĠL IC
ĠBer lin
LI B
itle d
Ġoper ators
Ġpat ient
resp onsive
Ġre peat
to ctree
Table s
V R
Ġincor rect
Ġch apter
C ross
Ġdet ected
195 7
max cdn
Ġf an
ro tt
Ġp owers
Ġdec isions
row se
ĠA sh
w br
Ġhand lers
T oggle
ĠA k
ap y
Ġinsp ired
Ġpartners hip
ĠType Error
Cl one
ĠDe ep
Ġn a
Ġwindow s
urn e
3 60
ĠTor onto
y arn
Ġleg acy
ĠR om
Ġmed ium
nob r
ĠG a
è ¡
end region
Ġaut hent
ĠBO OL
Ġach ieved
How ever
Ġsubsequ ently
Ġcoordin ate
h u
a ux
tra its
re hens
Ġw ww
ĠG i
Ġro uter
atter y
Ġtrans formation
at om
Ġclass ical
Ġhel ps
Ġro utes
Ġs pring
Ġfind s
Ġalong side
Ġf d
Ġcl ause
ir th
: @
In jection
n l
55 5
Ġ( );
J an
Ġa id
Ġv ary
Ġ} ));
Ġtransfer red
1 16
par sed
Ġprec ision
PA SS
R ound
un es
CON F
19 18
Th rows
Ġprot otype
hold ers
icult ural
Ġlisten ing
../../ ../
AR K
f riend
Ġed ges
Ġassum ed
F IN
t le
Res olve
ĠB on
Ġleg islation
Java Script
Ġfight ing
ãģ ®
ch anges
ig gers
le af
ĠEli zabeth
! \
Pr iv
Ġe ye
ĠPri ze
Ġe yes
External Task
D ao
I MAGE
ain e
h our
Ġ"- //
Man ifest
prec ision
Ġc art
TR ACT
Ġx hr
Ġpl ants
Ġes cap
Ġexpl ained
sign al
Ġgir ls
Ġsim pl
Ġnear by
Over flow
Ñ ħ
Ġsm art
ĠInst ead
ĠT oday
F rag
place ment
Ġpro cedure
Ġcustom ers
> ');
ĠCoun try
ĠP arameter
Ġm ac
ĠD rag
Debug ger
an imate
ĠO THER
ĠH ung
Ġhand les
Ġinc ident
ĠH ost
Ġre con
---- -
m ultiple
HAND LE
H orizontal
194 6
Ġ" --
Ġre start
"> &#
n ce
O ct
N U
con straint
Ġg ap
an th
Ġso ft
H ex
ĠD a
v et
194 3
D ot
sql ite
Ġ) {
w ire
ĠCol l
Ġd ates
194 1
f aster
Ù ĩ
Ġd ire
iven ess
Ġconstit ution
ĠB a
T ITLE
Ġch rome
Ġse mi
Ġd ance
fg han
Ġdiscus sed
it zer
ĠSte ve
Fil ters
19 55
Ġclub s
ĠA th
H ide
ĠL abor
Pr ice
; %
b uffers
AC HE
ĠG ar
ad ed
ĠRe set
Mat ches
as set
ĠIslam ic
Ã© s
ExternalTask Pojo
ĠRe lease
Str ip
Ġin structions
g ui
riter ion
s pect
Abs olute
Ġv ision
c amera
ĠLIC ENSE
194 7
Ġas set
t ax
Ġrem oves
amil ton
Ġresp onses
Ġdist ingu
and y
per mission
Ġent ities
Cre ation
ĠO s
Ġreview s
\ [
ĠS ingle
ether lands
Ġcon sequ
ĠP erm
Ġ" ")
Part ial
ex isting
iz z
semb le
Ġh abit
TO DO
N il
GRO UP
Ġe le
qu ant
vis ibility
ct l
Pro vid
Ġg fx
Ġst rip
å Ń
rep ly
y al
ĠMem ory
Cl aim
ĠV ill
ev in
ĠEner gy
Ġc ategories
×Ļ ×
Ġbeaut iful
Un able
F ire
Ġv ac
Ġpublic ation
C U
Ġinf rastructure
[ <
P atch
cons in
é Ģ
trans fer
Ġterr itory
ĠForm at
) *
Ġhash Code
Var iant
v i
ĠB OTTOM
Ġset Timeout
ĠP ackage
Ġass istant
Ġfr ames
ĠO UT
at ched
ĠH ard
G UI
og rap
nos cript
Ġd rawn
ĠI V
Ġs i
lo om
Ġcheck ing
Ġf ell
ĠO K
te le
decor ation
ĠB oy
ask a
Ġextrem ely
ern ate
ĠS TR
S n
Ġto ggle
Ġpers pective
Br anch
ĠL im
att en
- ">
ĠCON FIG
n pm
Ġcontem porary
FFFF FF
=" '
oc omp
est ing
Ġwh atever
H L
Red irect
Ġt aught
ag a
Ġcamp us
Ġs quad
Ġtitle s
col l
Ġrelationship s
s izing
Y our
Ġhom es
p ixel
Elements By
K EN
IF T
Ġsignificant ly
T LS
Default s
ĠM ut
Custom er
In tegr
User name
ces sed
V oid
Ġm ental
ĠJ oh
Ġcallback s
Ġin n
ĠB C
Ġpercent age
ĠCh rome
Ġprov ince
end a
Ġ' {
Ġc riteria
, $
Ġd t
Ġm al
Ġad apter
nab la
rop y
ĠInter face
Ġscal ar
Un lock
Ġadministr ative
ĠR en
Cap acity
High light
uck ets
as p
ĠC at
Ġest imate
C lock
Ġ{ *}
Ġturn s
m anaged
ĠR PC
ĠP DF
ig a
sc ene
Ġeas ier
s lot
ĠS in
ott en
Ġinj ury
Ġ! (
> /
ĠG reg
Ð¸ ÑĤ
Ġpar sing
SD K
ST REAM
d w
ĠVictor ia
ç »
ĠPro file
Ġg reatest
tr ain
ĠM ic
Ġcharg es
ĠH un
ĠS her
Ġatt ach
m oment
k appa
ĠC ulture
TE GER
em pl
Ġb odies
Ġfeat uring
che stra
Log ging
ĠAs ync
ĠC ert
Y S
p ause
LE N
+ '
Rece iver
com b
ir k
Ġde leg
am ar
se ed
ĠAn th
10 4
ĠB rowser
pt s
ll a
n c
ĠOlymp ic
ĠC lose
Ġcoin s
Ġ/ ><
ĠC C
ĠN az
CON NECT
j q
Ġhost ed
F ace
Ġmat hematic
Typ ed
ik a
195 4
get Time
Ġchem ical
ut ter
ĠW ord
Operation Exception
=- =-
ack et
Ġdis put
ĠKore an
Ġopp osition
Ġl y
ph an
M R
ĠW ild
get C
le e
195 2
ze ch
Ġde code
Ġepis odes
Ġem otion
Ġob server
Post ed
ĠSt ock
P ages
Ph ase
U TE
Ġf ashion
Ġc le
ert o
Ġm ent
fin ity
F it
P al
w ing
ĠS ave
ĠS ydney
Ġmy self
el d
ĠP layer
m ad
DO WN
in ant
MA KE
="../ _
av is
ĠCam bridge
ĠS a
ĠS at
Ġf ul
ĠCor ps
comm ands
our i
[ ];
(' ../
y ou
Perm issions
ri ctions
Ġcre w
Wh ite
Ġapp lies
Suppress Warnings
Ind icator
Art ifact
read only
Ġkey board
ĠBe ach
ĠD raw
ost er
Ġab and
ĠA venue
Ġsurround ing
Ġro ugh
Ġcomp oser
ĠPro vid
Ġalloc ated
& \
E qu
ent ed
der eq
col ors
') ).
} },
Ġr ural
ĠBel g
g re
ĠĠĠĠĠĠĠĠĠĠĠĠĠĠĠĠĠĠĠĠĠĠĠĠĠĠĠĠĠĠĠĠ ĠĠĠĠĠĠĠĠĠĠĠĠ
first row
zon a
ĠTh ursday
ver bose
Ġm yst
ĠCollection s
nes ota
in herited
Ġdo ctor
Ġdeploy ment
Ġil legal
faster xml
ic ian
an try
O rient
th rough
prevent Default
ĠT ool
Ġterm inal
re ets
qu arters
Ġshare s
ĠK im
Vert ical
bo ss
A lt
ic ulture
Is Null
Ġtem por
V IEW
control s
b az
ĠN C
MA G
Ġsett lement
cre ens
Author ization
Ġconcern ed
ĠStep hen
Ġ// -->
Ġout line
g ar
> )</
Co ord
h w
Ġp asses
ĠG ro
M anaged
Ñ Ī
Ġ' ../
Ġdr am
Ġ rom
ĠTrans action
Ġvol unte
14 0
copy right
ipp et
Ġcontribut ions
Ġsup erv
Sign al
Ġsust ain
ĠIN T
ord an
Part icip
ĠÂ ©
B N
cur r
10 5
">( </
Ð¾ ÑĢ
ĠG l
Ġz oom
Act or
Ġrecogn ition
ust on
ĠS cal
Ex change
ĉ ĠĠĠĠĠĠĠĠĠĠĠĠ
ub ic
arr ing
ĠAdmin istration
Re vision
S outh
b as
In clude
d type
ol s
ur se
Ġ} .
d am
Î ·
t ick
Ġult imately
Ġc p
ĠD iagnostic
ul s
Ġvot es
RET URN
ĠL ater
Ġs uffix
ind s
Ġrender er
194 9
Get ter
Ġeast ern
Ġde cade
å ľ
Ġarrest ed
ĠIn stance
ann a
lang le
c arbon
F oreign
Ġre new
] <
Ġrun ner
met ic
sw ap
ĠIm port
10 3
el i
Ġb ond
Ġmechan ism
( ",
Ġll vm
P at
Ġp s
ĠD at
Ġst able
ĠFig ure
P an
Ġreport ing
conf irm
Ġn ob
D avid
Ġl it
k es
Ġmusic ians
Ġjourn ey
NE W
ĠA P
Ġs ac
Ġtre nd
Ġsee ing
N aN
Ġz ip
Ġo dd
Ð¾Ð ´
Ġca ught
Ġass ignment
li ps
Ġveh icles
ĠCon d
Ġform ation
1234 5
c it
h al
ĠIsrael i
ĠR us
Ġ( ;
ĠM S
pro f
Ġact ress
ext ype
U K
Ġb an
">< ![
Ġp referred
ID ENT
x e
version s
195 3
ĠR on
ur ches
enn a
Ġmin ute
ak i
ĠE th
Serial izable
ĠS ong
Ġkw args
ĠTem plate
fav icon
ide os
Im ages
ĠDav is
b est
B ag
ĠDon ald
local s
ĠA zure
un ately
aw t
Ġcomm only
Ġtr im
ĠDo ug
own ed
ĉĉĉĉĉĉĉĉ ĉĉĉĉ
wh at
ĠH ay
ĠC are
ĠM A
Art icle
Â °
Ġc losing
Ġca ref
Ġdi pl
std out
Ġdeb ate
Reg ex
IN PUT
ĠSh ared
Ġincre ment
Ġtechn iques
ĠPl ace
Ġlay ers
imp lementation
s cheme
M argin
= }
C lip
Ġex cell
scri ptions
D ist
Ġgradu ated
Ġ@ {
ĠD am
Variable s
Ġc atalog
est s
Ġcirc le
g em
iv ot
i ator
assert False
Ġ* _
* .
ĠA UT
Ġarg v
Ġ' )
Cl ause
ĠS anta
Dis able
an ches
ĠB ell
let ter
Ġ ing
L ow
ĠT uesday
bad ge
ĠB ody
Ġexper iences
Ġpurch ase
v ard
Ġx si
ĠS on
St ates
|| ||
Ġaspect s
Ġf old
el lect
B D
m acro
as hes
L ER
ess aging
St ud
Ġm om
Initial ize
ĠP ers
ĠGener ic
ĠR ail
Ġpromin ent
Ä ĥ
Ġexpress ions
variable s
Ġyour self
s yn
row Color
USE D
tensor flow
ĠMod al
Get String
[ -
ĠColor ado
ãĥ ¼
Ġp un
we ak
Ġcr ash
p ick
Ġ/ ></
ĠEn try
ĠIter ator
az e
Ġv ice
Ġ$ $
Ġcomp iled
Ġret ire
Ġid s
Ġre form
Ġpl ugins
A lex
Att achment
y ard
Draw able
D ry
ap ore
Add ed
Ġpost ed
IN LINE
Ġatt orney
Ġ" :
d ater
ĠReg iment
an alytics
Ġfin ite
act ivate
e ction
ENT ER
em ploy
Ġag encies
ĠT ab
type param
sp here
l ined
um in
Ġem p
Ġknow s
Fatal f
tab ular
Ġback end
Ġw arm
Ġdef initions
" </
PAR AMETER
ĠB ound
ĠR andom
s lf
DIS ABLE
j or
um ps
Res ize
CON ST
Ġparse Int
channel s
iffer ent
ĠArg ent
ĠL ow
T M
comp ress
Fr ont
ĠSet tings
Ġsubject s
br id
ĠR a
ĠTr ack
Ġsc ulpt
s ocial
P i
ateg or
per or
Ġintegr ation
Ġinter action
ut orial
Ġoffic ially
) >
Dec ode
Ġcon tribution
Ġmag n
se ek
ĠB ridge
el ist
Ġexpl ain
Att ach
Ġevalu ate
Ġh its
Ġn arrow
pe er
Ġc ool
Ġaccess key
Ġfile d
Ġe lev
bit coin
av atar
Byte Array
Ġdr iving
ĠAir port
00 2
Ġflo ating
ĠGL int
O bservable
ĠS ant
s uch
Ġfac ulty
Ġle ct
al tern
be h
viron ments
O RE
ĠG allery
Ġwe ather
Ġ/// <
Cache d
ok en
ĉĉĉĉĉ Ċ
> ',
ivers ary
m any
Rout ing
resource GroupName
Ġtw enty
STAT IC
. (
Ġhelp ing
LE S
Hand lers
Ġtr ail
14 4
c ord
Ġis set
ĠM ulti
Ġmark ets
Ġsymbol s
qu es
St mt
ivers ities
ĠL ang
PROPERT Y
: =
ok ing
ĠAt omic
ac ion
sp ot
She ll
(" [
ĠB udd
n io
Rad io
195 1
Ġim pl
ab solute
Ġf ounder
Ġrev olution
A U
Ġpar agraph
comp iled
Ġimmedi ate
A ustral
ĠPhil adelphia
inherit Doc
car ousel
ab e
p al
if ecycle
S ports
ĠSt ory
Ġv eter
Ġcal endar
z ier
Ġf ish
ĠL y
ĠCre ated
Ġclass ification
ĠL es
init ely
Ġappear ances
Ġpred icate
ĠL IMIT
ĠA udio
Ġap art
View s
ĠS ER
node Type
' \
ĠM arg
pend ed
t re
ĠR ailway
) +
Ġworld wide
u h
Ġv ir
con tributed
C ss
S prite
UM ENT
ĠExt ension
fin ish
lic ated
ob serv
) ?
om orph
ĠQ t
Ġexp osed
Ġmov ies
Ġent r
OP EN
ĠWh y
Loc ator
UT C
ĠB ooks
ĠD eb
is her
Ġm k
Ġimpro ved
Ġhe aring
m n
ĠF lo
Ġvert ices
j an
Ġserial ized
---- --
1 18
as i
Ġse gments
Ġsuffer ed
ip ients
Ġref ers
an ia
Ġm atters
w alk
Ġperform ances
} +
La unch
S VG
ĠD MA
> ()</
custom er
ep age
Ġr at
Ġresearch ers
tr i
Ġhy per
(" -
S mall
D X
Ġcre ative
ĠPl aces
Ġfrequ ently
NAME SPACE
ĠAnt on
ĠG il
ĠS ummary
F LOAT
Ġdel ivery
sp lice
erv es
mod ified
Ġo prot
o en
5 000
ON LY
; ,
\ ]
Help ers
Ġhe av
ie ut
Event Handler
Ġcalcul ated
read cr
E very
Ġg al
Ġar ms
"> '
> $
ĠC L
ĠWed nesday
ĠW ars
Te am
Inv ocation
ĠD ATA
Ġoper ate
ĠVar iable
fl uid
NO WN
ĠA fghan
he ap
itect ure
Ġcircum stances
Ġent itled
DE VICE
Ġher self
ST EM
Un iversity
ĠQu ick
Ġvict ims
ĠEngine ering
ĠT err
ar ity
rest ore
vent ure
n an
] ));
Ġno ise
ĠT al
ĠCl uster
ĠPub lish
ĠTur key
Brit ish
ĠâĢ ¢
ĠN etherlands
Ġsucceed ed
ĠI MP
Ġb ed
ĠS yn
** *
sc ious
be at
ĠArt icle
æ Ĺ
ĠD I
ĠBut ton
ĠTH REE
M ultip
Ġbl ank
Col lector
NUM BER
Ġreg ex
bo urne
DE P
ĠE ric
D AT
Ġrender ing
net ic
on om
C AP
Ġarch ive
Ġcharg ed
ĠW H
) _
Ġopp osed
st ud
Ġun cert
m box
err ing
Ġ( <
ort heast
t ol
Z ip
c as
{ };
Ġf aster
/ %
Ġresult ed
B M
Ġvar iant
Ġfunction ality
ĠInst all
11 4
Ġtr ained
ĠW el
Ġf uel
Ġpost s
Ġeduc ational
ĠG re
Ġ{ ?
Ġab use
m ov
Ġis ol
out s
Pro b
Ġgood s
ĠO ntario
Ġdeliver ed
C ost
C losed
Ġbelong s
s ame
Ġhe x
oc used
Ġon click
> ("
ĠN iger
alleng e
Prop ag
Ġyoun ger
Ġpaint ing
Imp licit
ĠWis consin
Ġdocument ary
Âł Âł
Ġoutput s
exception s
Ġhe at
FE ATURE
}} {
th ird
Json Property
Ġprom oted
ĠDes pite
w m
ĠTrans itional
TIME OUT
% );
lay ers
Ġsu ite
ah oma
ag ues
pro d
ĠN orm
od s
ĠR os
Con struct
po ch
ĠL evel
her its
Ġpass phrase
ual ity
Ġs pending
F D
get Data
Ġpartic le
19 19
ĠAdd s
log ic
Ġsub mitted
Ġscript s
C ut
Ġinvol ving
Ġch ampion
Y P
char set
capt ure
i ations
w orth
ampl er
ĠF A
ĠP osition
19 36
ac l
Ġclass ic
Ġr ain
Ġsil ver
app y
ĠV ice
az a
Alloc ator
jac ent
iv ia
ug ar
Ġlo sing
Ġins urance
Initial ized
A nother
Ġd type
Ġst orm
ĠWh ere
Ch rist
ĠAd am
lic as
P ref
o i
Person al
Dec or
c v
Im ports
UP DATE
ak h
Ġs lide
in verse
Ġd yn
ev t
Dat aset
Ġscient ists
ocomp lete
Ġinitial ization
ĠC red
I llegal
b ec
ĠM iller
F X
member NameLink
Ġ[] *
M iddle
c ourse
M obile
ĠE N
× ª
R pc
Ġp hen
} %
Ġfootball er
10 7
ĠFr ont
Ġc s
arg o
TR A
Ġdef erred
ĠS C
ul ner
Reg ular
ast y
Ġpurch ased
att al
s amp
Ġve locity
l on
ĠM ET
19 00
Comp ute
Ġh ockey
ol t
le ave
Py thon
Util ities
19 17
inter op
O ps
Ġdiscover y
ren a
] \
ĠMed icine
in ian
br ains
++ ]
Ġtool tip
T ON
Ġcol lapse
Ġprom otion
HEAD ER
ĠD ocker
Un its
ĠD uke
Ġdec ide
ĠM ode
Ex ist
Ġcor porate
PO INT
Ġgen us
Ġart ifact
sw ift
ĠIP v
M ajor
Ġappe al
Ġperman ent
ĠE q
T ech
ap ol
R M
t ls
Ġtyp ical
sh ots
Ġman ip
sp in
Ġl ibraries
Ġren amed
Ġcommun ic
Ġarr ang
ph er
B g
h dr
Ġcomp act
19 38
ĠValue Error
ĠL ady
Ġd ump
Ġkey word
ĠW atch
Ġlo an
ure au
âĢ ¢
is Valid
ĠV en
ĠUS B
Command s
ĠAtl antic
[ (
periment al
Ġseek ing
Ġseem ed
le ased
ĠHe ader
s aved
UM N
Ap pearance
ĠĠĠĠĠĠĠĠ čĊ
r ated
Ġmass ive
Ind ices
ĠPol ish
L ife
A ug
Ġunder st
ĠCheck s
ĠC as
Ġdec imal
Ġsent ence
s yntax
es c
Th rough
Ġdes cent
Ġeffect ively
ĠOffic er
Ġ" ");
ĠC reek
ĠGold en
11 5
z ed
quest ion
Ġread s
ĠCall back
ĠC y
ĠĠĠĠĠ Ċ
C odes
ĠT rade
Com b
m f
Ġass istance
ĠTur k
se ason
Ġback up
A ng
od b
igh th
ĠGL enum
Opt s
Ġh orizontal
AS K
Callback s
U INT
Key board
) |
r as
He ading
ab a
Ġexperi enced
T ri
Ġv es
Ġiter ate
ĠP ur
Ġcur r
Ġan imal
FO RE
ĠF all
) ',
LE FT
Ġmov es
âĢ ĺ
ĠEns ure
tem plates
ession al
ĠTh rough
C atalog
Ġext ensive
over ty
Ġsh ut
ĠSD K
v ia
Not ify
reg on
Ġn ations
Ġ" (
Ġannoun ce
Ġk id
ab il
-------- ---
NO SCRIPT
Ġoffer ing
Ġh int
ĠÂ §
ĠD or
ĠL td
Ġadv ice
Ġf ant
Ġ iron
ĠM enu
ind icator
ĠP sy
ĠF ac
Ġc overs
Ġset Up
ADD R
Ġg ained
Ġin str
Ġstrug g
/ \
ĠMin nesota
ĠÃ ł
ĠS M
ĠH or
ĠD WORD
Ġfav our
i Äĩ
ĠH amilton
ĠAg ain
ĠE qu
S ound
Ġdoub t
f actor
ĠC orn
ĠO tt
Ġint ention
p ers
ĠS ort
mon itor
ri ends
Q UE
× Ķ
Instance Of
ig o
ĠR ose
Ter min
Ġfavor ite
Ġf ra
en ario
set Value
un its
({ },
em et
ĠG uid
ĠF ont
ie val
t bl
ennes see
Ñ İ
col n
ĠIndian a
d ummy
ĠTH IS
Iss ue
ĠC ost
AC CESS
ane ous
un def
ĠResp ond
M o
ip es
Get Type
Ġf estival
Ġtest ed
Ġso ught
Ġhost s
ĠE qual
list ing
ĠP ot
Ġdisc rim
Ġdraw ing
Ġac celer
ith metic
XML Schema
rodu ction
Ġco effic
å ¼
Ġh orse
Ġl ift
Ġiter ation
over y
c am
U i
ĠT IM
f v
std lib
ÑĢ Ð°Ð
Ġrepresent ative
Ġresource GroupName
Ġevalu ation
ĠT yp
ĠId ent
ĠL ev
c ategories
>: ]<
ĠRem arks
urren ce
âĶĢ âĶĢ
jet brains
Ġs cheduler
(" ./
å Ľ
Ġkeep ing
ĠBuild ing
url s
const ants
ĠW at
cor rect
Ġstand ing
ul ating
Ġv irt
process ing
aud i
Ġp ng
Ġr u
apt ers
x l
Ġreg ime
Ġform ula
PL ICATION
Ġen h
ay er
24 0
get Default
Ġregard less
Config ure
Ġacc ord
media wiki
c ers
b one
] ",
Ġan imated
sec ure
S PI
ĠV olume
ĠERR OR
ver al
Ġcitiz en
ist a
Ġopp osite
Ġpresident ial
ĠD aily
font s
Ġp ag
ĠCont in
ul g
ĠRuntime Exception
istribut ed
wide tilde
a is
le ans
ĠSt aff
Ġm ort
Ġc m
iv als
ĠG iven
u ction
} |
Ġimm igr
unic ations
19 37
XX XX
ore t
id o
CK ET
Sub mit
ĠS ound
Ġwill ing
< >(
short cut
ĠU int
Ġclean up
ĠK ansas
sp l
Ġexperiment al
ĠL ear
Ġso le
unn y
Ġlo se
a us
ĠM oh
To kens
ĠMod ern
Ġ ì
Ġclose ly
Ġmount ain
ĠU TF
Ġput s
ĠA ud
sm art
ĠF oo
TH READ
ult ural
Ġsuggest s
T ele
Ġstrong ly
ĠM ilitary
ĠST AT
Ġv ent
Ġag ents
ile y
GEN ER
Im g
9 00
oper ations
Ġk illing
pro fit
file Name
Ġret ain
i NdEx
enc il
W M
Ġmarket ing
Ġredu ction
D ER
Ġess ential
ĠLew is
CP U
Ġ Ø§
Ġaccess ible
i y
A ud
Ġle af
i ref
ĠH ind
secut ive
ĠG ree
T ING
ache lor
Ġapp rec
Start ed
w eg
ĠComp ute
Ġpar liament
ear s
Ġg overnor
Ġplatform s
M al
($ _
ant ed
node Name
Ġrem ark
" +
t ake
Ġca using
get Logger
S F
Ġattempt ed
SE CON
Ġm olec
thread s
Ġplan et
get ElementsBy
ĠH al
sl ug
e ed
ĠM D
Ġd w
enc oded
LOC AL
ag ram
ĠHol lywood
Tool bar
e ast
Al though
________ ________
Ġex tern
vent h
Ġd f
++ ++
Ġfeel ing
ĠMem orial
Ġ" </
Ġse q
MPL ATE
ol y
Ġcur ve
@ {
Ġ-- -
\ {
Ø ³
g ol
ieut enant
A W
rg b
Ġposs ibility
ah o
Ġpro ved
ach er
Ġf ixture
k h
Fin ished
ro it
Y es
Î »
ĠSt adium
Ġexecut or
M ov
å ¯
ĠF ollowing
Ge o
Me asure
W ords
Ġ{ })
' }),
eng ers
US B
ĠĠĠĠĠĠĠĠĠĠĠĠĠĠĠĠĠĠĠĠĠĠĠĠĠĠĠĠĠĠĠĠ ĠĠĠĠĠĠĠĠĠĠĠĠĠ
get Current
ĠB i
(( (
F ast
Sl ider
ĠĠĠĠĠĠĠĠĠĠĠĠĠĠĠĠĠĠĠĠĠĠĠĠĠĠĠĠĠĠĠĠ ĠĠĠĠĠĠĠĠĠĠĠĠĠĠ
Ġrecover y
Ġcour ts
Ġequal ity
Ġwould n
Fin der
Any Ref
Ġr aces
ma zing
T ube
ase ts
un iform
Ġappro val
Imp lemented
Ġinsert ed
pay ment
ĠAri zona
V IS
se ls
ĠU INT
j boss
SY S
ĠA mb
f w
query Selector
ĠQue ens
de termin
"> ,</
rows ers
Volume Source
Ġpro posal
CA SE
Ġdefe at
19 14
" ):
ĠB ru
s pe
s ch
ĠAg ency
MLE lement
$ _
Ġgradu ate
âĢ¦ âĢ¦
Ġexhib ition
CO PY
Ġwin ners
Ġdirect ive
u cc
Ġcontribut ed
ĠĠ čĊ
Ġne ither
Res olution
ĠO cean
ĠH an
Link s
um inate
Ġacc used
ĠAr m
Ġcomp ens
al gorithm
osc ow
Ġinstall ation
q q
Ġrec ru
job s
j u
et ry
Ġdoll ars
ro b
av al
AD C
D istribution
k ing
ĠArg s
Numer ic
list en
A E
ant e
st an
Ġ* */
U DE
sp ir
FA I
Ġprogram me
ĠRes ources
Ġth anks
Ġd ocker
Ġincre ases
emet ery
Diagnost ic
Ġe val
Ġn ice
> ";
mem Item
Doc s
al igned
Ã ł
} `
with out
Ġh aven
B tn
Ġr anges
cuss ion
m ysql
R aises
h ill
Ġbo ught
Render ing
Par cel
CT RL
S um
Ġst one
orient ation
Ġre action
=" //
ĠS uch
ĠReg Exp
ordin ates
sw er
ĠD oc
ag g
host name
ä¸ Ń
ce ived
Ġoper and
Orient ation
Ġh all
res olved
ĠHol y
ĠLay out
or ange
Ġc ash
Ġen emy
Ġsign ing
un safe
ĠD u
=" <?
Ġhot el
Ġparticip ants
Com bo
Ġexerc ise
ro ck
Null Exception
ar on
IT S
Ġp ed
Ġnot able
Ġc arbon
> ",
OP ER
c ocos
Ġsubstant ial
h us
ĠCl inton
Ġmembers hip
ID s
ul um
ĠViet nam
ron ze
ĠJac ob
Ġl icensed
ition ally
s at
Ġb id
Http Request
ke eper
ĠF orest
Ġmunicipal ity
h ot
ĠD ark
Ġcont est
ĠT itle
ĠR aj
Ġparticip ated
Coin s
IL L
t ainment
t one
Ġdut y
M ULT
P reference
request s
ĠCal led
ĠS mall
de velop
Ġdesign ated
RE C
Ġpro c
ĠG C
ial ect
leg end
it als
Ġk ick
re try
Ġelect ronic
10 6
ĠDef ense
Ġteach ers
button Element
= </
Ġst ands
Sh ard
Ġref used
cest or
10 9
cred entials
L im
rop ical
Ġconst itu
m ong
Ġp ause
-------- -
min us
Process ing
ot imes
Ġc ab
Ġw ins
B el
ĠT F
pr ime
19 33
pol l
ic ide
Ġrece ives
Input s
back up
n r
i q
ĠT ai
ĠI ce
Bl ue
un used
Fl ush
ĠE VENT
we alth
TR ACE
ĠMiss ouri
compat ible
IT ER
1 32
LOB AL
20 2
Ġdepend ent
OFF SET
rom ium
Ġh a
Ġsu itable
ĠC OP
ĠA bb
K nown
am ond
Ġprec ise
Ġemploy ment
. &
Ġbring ing
Comp ile
ĠA ge
Ġ" {
ĠL E
he alth
12 4
List s
ĠIns ert
; -
Ġtri es
Ġcomb at
CONT RO
Ġc ro
Ġenc ryption
. âĢĻ
Ġhundred s
Ġol dest
Ġ ):
Ġcom bin
BU F
UD ING
d iag
ĠR eb
Ġd ot
ĠM ove
de lim
Ġdefault Value
ri k
list eners
Comp osite
P ull
m achine
Pre view
H C
wh o
ra h
ĠCO MP
ĠI R
Ġb ands
ĠF ellow
Ð¾ ÑĤ
st ory
Ġbeh aviour
amb ig
Ġmaint ained
ĠĠĠĠĠĠĠĠĠĠĠĠĠĠĠĠĠĠĠĠĠĠĠĠĠĠĠĠĠĠĠĠ ĠĠĠĠĠĠĠĠĠĠĠĠĠĠĠĠĠĠĠĠĠĠĠ
Re po
ow nt
Ġpr ices
Ġb ow
n ie
Ġpro g
Ġ/ .
Ġ ../
interop Require
00 000
P OL
ĠPro gress
Throw able
Ġre venue
ĠB ishop
out line
Produ cer
ĠProt ocol
v irt
Pol it
CONT ENT
gu ard
Prot os
H er
g mail
Ġscen es
Ġ[ #
ĠMem bers
x c
qu id
uff le
az el
S an
as List
ĠG rad
T K
Ġgu ess
Ġpro hib
n ested
ĠSpec ifies
tr ait
Ġw arnings
( %
ang a
Ġup grade
Mut ex
Ġwe ights
ĠEx press
Inter op
V S
Ġte en
Ġs oul
ATTR IBUTE
Ġdoc s
GL enum
C LO
99 9
Ġh op
ĠH arry
vent ions
Ġread ers
N EXT
ĠSt ack
an es
cri bed
D ll
ar ations
Ġtitle d
case s
ĠV ert
ĠAl loc
(' \
pub lish
Ġnov els
normal ize
b n
ib ilities
V ERR
0 100
re pre
ia h
ov y
Ġal location
f link
ĠG h
Ġs sl
Ġdeb t
th ree
Ġlog ical
ell ite
p ersistence
ĠS quare
B in
D roid
ER Y
Ġparticip ate
ke leton
Ġ Ã©
access or
Ġscen ario
( <
Ġb anks
ĠE ll
R ank
Ġperm itted
ĠUkrain e
Re view
Ġfund amental
ĠSy ria
ensure math
ĠSing apore
Ġin deed
ĠP ART
ĠM ill
Ġemploy ed
re ement
] >
ĠPrem ier
ĠW inter
Rel ated
Ġun expected
R ich
S pl
ÐµÐ½ Ð¸
ĠAr thur
ĠMary land
Ġ{ !
Ġrefer enced
ĠSwed en
S yn
bar s
Ġch airman
get Parent
ĠM att
FAI LED
Ġpriv ile
list s
Ġjournal ist
ropol itan
------------ --
Ġdr ivers
ĠMag azine
y ers
Ġk il
ĠPl ugin
ĠSw itch
ĠC op
Ġdrug s
ENABLE D
19 35
ist ical
Ġp iano
E mbed
Ġsm ooth
re ach
Ġpass ion
O IN
Ã ½
ĠO k
pos able
Ġin ternet
ograp her
fil led
fl ash
ud es
ĠCom ment
ĠT ony
Ġs ink
Ġth ank
Comp ar
el a
ĠThe orem
t z
ĠFr an
ĠLe on
ab ort
ĠF ord
ĠB ible
C a
n eg
10 8
E v
C riteria
st reet
yn omial
ĠInd ones
repre ne
Ġfound ation
ch ars
Ġalign ment
rehens ive
ĠSur vey
ĠL eft
Ġtr uly
size i
A pis
ĠPl atform
OUT PUT
ĠBro ad
Ġin variant
Ġc urrency
Ġbutton s
Ġcop ied
Ġt body
ĠTr igger
act ic
Ġpot entially
ad i
Ġquant um
Ġinit With
velo pe
res olver
Ġaccur acy
r int
al one
document ation
11 11
ct ype
ĠP AR
ig ious
N orth
Ġintrodu ction
Ġt ar
ma jor
Ġtown s
L com
h alf
Ġc url
) ];
f ade
ĠLink ed
FUN C
c uda
uet ooth
Content Type
Ġnull able
aut orest
ut her
E q
ĠA pi
Ġle s
ĠBr ig
Ind ent
direct ive
Ġass ault
o auth
Direct ive
Ġcon ver
RO P
Ġcap able
ĠU t
B AD
DEF INE
Ġret ail
=" {
ĠB rian
load s
ĠT ensor
ĠT ennessee
19 34
G A
c out
ifi able
ann y
Ġt y
em ony
og en
CL IENT
V A
eter min
N P
F B
Ġtrans lated
Attr s
ĠO regon
Ġ' ');
Ġprincip les
comm od
Ġemploy ee
ĠB at
get Context
ellect ual
Ġpe ak
} ")
Ġecon om
Ġt ip
ĠVal ues
Ñ Ħ
ĠH art
e lect
ĠA h
ĠF ood
Project s
Ġb uffers
ĠB all
Ġ$ ("#
ĠC hen
P in
ĠM I
k ube
sup ports
Ġnorm ally
DO CK
ĠDocument ation
V e
Ġin coming
Ġembed ded
Ġpres erve
Wh y
Channel s
sh ake
Ġcompat ibility
Ġmed ian
h p
ĠDis able
Ġf ly
w i
( ?:
o j
Ġon going
B etween
re vision
ĠDe ad
S ol
li est
Ġaff ord
Ġun safe
ä¸ Ģ
Ġr b
ĠA lf
BO DY
Ġp b
Ġlaw yer
Qu ota
map per
call s
ĠMount ain
sk in
Pol y
Ġhard ware
Ġuint ptr
G reen
ang ers
ĠAnd erson
ced ures
Ġcount s
Ġstri ke
int ent
Ġsh ock
Ġorient ation
Ġh ydro
DE V
ĠDE BUG
ĠInitial izes
ĠL u
Ã¼ r
Ġfl ash
ĠM obile
Ġnumer ic
Ġpro visions
Ġincreasing ly
Ġhum ans
assert Raises
Ġimp ossible
R oom
div ider
; ]
h is
es is
Ġbro ke
P LAY
å º
ĠLoc ation
Ġfile Name
ĠS ql
Ġacknow led
Ġjoin ing
Ġemerg ency
en ess
ĠR oss
W ell
w ind
current Time
EMP TY
Ġindic ated
EX P
H y
Ġtop ics
text width
rec v
Ð ¹
Ġprovid ers
ĠS ym
Ġj e
Ï ħ
Ġto ler
Ġimp lies
Ð¾Ð ±
E urope
tab End
Ġapp s
ĠC ru
v n
CO RE
S DL
cho ice
Ġl in
> -
Ĥ ¬
ĠP ier
Ã ª
ab bit
Ext ended
U G
Ġm igration
ff ee
aver se
char At
Ġsk in
ance led
Ġspe aking
Ch oice
ĠV M
UL AR
M ich
19 29
11 7
Ġy ards
i ri
di ctions
Ġin dependence
Ġsp oke
] $
ĠEvent s
Ġ ].
Ġeng aged
ĠH om
AL LOW
Ġw ing
act s
for ge
ĠMex ican
C AL
fort unately
Ġw er
Ġhe nce
Ġgovern ments
Ġs we
Ġg rade
ĠDo ctor
x hr
ic ians
Git Hub
Rot ation
F ACE
pan ic
" |
TO KEN
Ġaccur ate
Ġcollabor ation
Ġgu y
Ġcon versation
ĠV ari
Symbol s
Ġnecess arily
ĠSen ior
Ġoff ices
Ent ities
F ore
CC CC
c odes
ĠS Y
Ġsh aring
Ġse ats
Ġprocess or
/ ************************************************************************
ĠDes cribe
Ġb oot
Ġr ating
M en
Id le
ĠSt one
Ġi prot
inherit doc
ific ates
ĠFI X
ĠD un
ss h
Ġqu ote
Ġj uris
W ITH
m ont
Ġl d
Ġres cue
Ġnormal ize
Ġenforce ment
avi ors
ĠDefault s
ĠCOL SPAN
Analy zer
ĠB alt
Field Value
] -->
Ġsur g
Ġrank ed
L C
ĠM ir
M AT
Ġreason able
J ap
Ġweek end
Ġd x
Ġv ast
c rypto
Ġclin ical
Ġrep orter
16 8
Ġden ied
ĠA V
Work space
)) {
Ġse d
ser if
Ġeven ing
ĠF ederation
Ins pector
T CP
ag ement
Ġengine er
ir ms
Ġun set
New s
80 80
urn ame
quis ition
el led
( ',
Ġs oci
ĠT reat
19 28
EN SION
Ġo ps
MO VE
or acle
ĠLeg isl
REQ UI
P TR
root Scope
T i
Ġm m
p referred
ant ics
Ġequal To
ĠB inary
ĠC lean
M U
ĠI owa
R TC
Ġm odes
Ġ/ ^
ĠU TC
DE CL
). </
Ġcompet ed
v p
FIL TER
ĠM E
Ġinv ited
Perm alink
Ġf aced
æ ī
Un defined
Ġdistrict s
ĠC zech
ĠHe art
Ġre nt
`, `
BE GIN
Non Null
Ġmeas ured
DEF IN
Ġrequire ment
Ġdevelop ers
Ġh air
E scape
Ġprincip le
ĠHaw ai
S ibling
ĠP u
Ġhousehold s
; "><
")) );
e i
ĠRE AD
Ġconf idence
ADD RESS
Exp and
Ġwatch ing
sh ader
33 3
Ġnormal ized
Ġg uilt
Con v
Ġspec ification
ers core
rec ords
ĠHo uston
ĠDef ine
ĠB or
R ST
Ġreg ulations
go al
d id
Ġshoot ing
ĠR TC
pl ane
: **
widget s
ĠM oscow
ob server
ĠPhil ip
[ [
S ys
ĠDis ney
ĠM eta
in ery
' "
li x
Ġlog s
Ġm p
Ġloc ally
has Next
Ġshould n
Ġcon secutive
! ");
se ctions
me asure
Ġident ical
s uffix
ĠLin coln
Ġ à¤
Ġp t
S uffix
Ġprodu cing
ĠS elf
ust ries
Ġcomp ression
re view
Ġch oices
cons ist
) =\
dimension al
ĠE C
ol ly
Ġj un
ĠEcon omic
ĠF low
ĠS DL
ĠX Element
Ġins pect
d yn
u pt
ĠH E
Int Ptr
ĠV i
n egative
IO S
the w
d og
Cre ator
Ġâ Ĩ
ARG S
[ ^
p ane
C Sharp
S uch
Ġu uid
Col ors
Ġst ress
Ġp ad
Ġcommit ment
ĠK a
Ġcon j
C AN
c ost
Ġp ra
is or
Ġvis itor
Ġthe atre
Ġb right
ĠPh ot
Request ed
Ġl azy
ĠSh ape
ĠApp end
Ġaff il
ĠD ream
Ġarg ued
ital ic
Number Of
ĠPhilipp ines
ĠP ointer
ĠDe ath
ump ed
per form
ĠMar ia
add on
Ġtrigger ed
qu iring
Max imum
Imp lementation
omet ric
ar se
ab ama
Ġund ert
} =\
aw are
ĠEn um
Ġf raction
ĠMed al
et ype
Ġsub sid
hand lers
if ts
fe e
St amp
Code Analysis
ĠK now
12 2
in fl
Ġcom fort
19 32
Ġat mo
Ġfamil iar
\ .
Ġconsider ing
ĠP it
ĠM achine
CP P
Ġassoci ate
Ġask ing
VERR IDE
ĠTh ird
Ġsess ions
ord on
S ch
itar ian
ĠJ ane
Ġclo ser
Ġmed icine
Rec ogn
aut hentication
s cheduler
ol ars
ĠP A
Ġpre mi
19 16
Ġfact s
? ,
ĠSim on
Ġw inter
Ġsl ave
im ized
Ch rome
interopRequire Default
Ġ ));
ed ition
P ID
Ġm ile
ĠLin ux
Ġst ages
Ġmanag ers
ĠH ig
Con cept
m aker
N orm
ĠCapt ain
il inx
sc all
w en
Ġin fer
Ġsol ar
Dis covery
Ġdanger ous
col s
ef e
Log ical
ĠL P
ĠCl ark
w ich
Ġre vision
ĠEnter tainment
Ġf ault
roll ing
Ġfr anch
ĠStruct ure
12 1
iagnost ics
Ġbro thers
Ġv ideos
= _
ĠDistri but
ĠPe ace
Ġcol le
ĠS PI
c id
ent ities
Ġform ats
ens ors
16 9
Ġpresent ation
Ġeth nic
Map s
C LE
ĠDo es
Ġcour ses
ĠEm pty
G P
S lide
P ad
ĠGr ant
b ul
Ġad m
block quote
Ar row
G N
Ġrec ipient
olid ay
Ġpil ot
S dk
ĠPe ak
amp aign
B IN
ol i
ig ible
ĠR ect
19 10
Ġvoc al
Ġr id
sh iv
Spec ific
Ġd ummy
es Module
Ġappro aches
la unch
Ġcon crete
sub title
Ġfall back
igen ous
Ð°Ð »
ORM AL
ITE M
F ollowing
M gr
Ġ ]);
Ġp ipe
a ire
ub b
IC AL
Aut hent
bal ena
ĠN ever
Ġb ot
Ġm ine
oen ix
ig e
clus ions
Ġinter pol
c art
Ġarg c
ĠT erm
Ġy es
non umber
ĠCont roller
print StackTrace
ĠÐ ·
Ġbeh alf
At A
Ġdirect ors
uck s
B uilt
iv ated
SE L
ĠJ ordan
Ġman ual
M icro
Ġutil ity
Ġportr ay
Ġb lo
ĠC PU
Ġper mit
ĠB ureau
i at
Ġstream s
Ġin h
p d
dash board
dd en
n ed
ĠH AVE
Ġp refer
ign ite
Ġcontain ers
D ocker
ĠN a
Out Of
Ġput ting
off s
ĠAth let
ic ht
"> Â
Ġfunction al
Ġm ob
$ )
Ġpar ish
Exp licit
chedul ing
Tool tip
ĠSwed ish
iv a
Ġmay or
Ch ars
Ġide al
x ref
Pl us
ĠDi ego
pr ising
Ġs ounds
ĠR yan
ĠC ab
3 50
AP PLICATION
Ġfac ilit
Ġm apped
Ð¾Ð ¼
ĠM rs
P references
ut ation
Ġ um
get User
F rench
r ans
inem a
ĠAll en
ab ling
old s
west ern
a ac
g ot
g res
H it
log s
AT IVE
ĠS pe
w b
19 22
AC CE
PO SE
Work s
LA SH
Qu ick
Ġcent uries
do es
FAIL URE
Util ity
ĠM B
Serial ize
attal ion
ut ely
W H
Ġhe ap
cal c
Ph ysics
i pt
Ġlock ed
ĠL iter
aint y
inter faces
Ġbo ys
C ACHE
hed ral
x FF
ĠE D
? )
g ence
r idden
Ġ\ {
ç ½
pp le
Ġdebug ging
ap el
Ġdescri bing
Ġvol umes
Ch at
ĠU ri
Ġc v
H ard
ĠDig ital
ĠHel per
Ġsub set
Bal ancer
end o
ĠS eg
Ġag gregate
Propag ation
ux er
Ġsu it
f ixture
item ize
ing ly
b oth
Com ments
s nap
Ġcomput ation
19 27
ph oto
[] {
ĠCol on
Ġcap abilities
re ports
Ġl t
ok er
let ing
} \\
Ġcrit ics
z o
ĠS ri
um bs
S uggest
ĠY ES
Ar n
ĠMar c
ĠCOP Y
Ġphilosoph y
ĠEx change
ĠC ONT
ĠR ound
ĠSe q
Connection s
Ġst reets
Ġher o
B ot
aw ay
el n
Ġdis ap
J uly
ĠM un
:: ~
"> #
CHAN NEL
Ġphen omen
Ġfor th
ĠB SD
q a
NE SS
Writ able
IC K
ĠSer b
State Exception
rece ive
se p
ĠSet up
-> {
Comp arator
Ġsomew hat
Ġwor st
Ġpr imitive
Ġm illiseconds
lo be
ĠAr k
W ire
Em it
ĠS ide
Ġm it
in crement
b ash
ĠCh airman
ĠY es
Ġspect rum
weg ian
Al so
j oint
Ġlo ved
enn y
ĠP attern
TO P
Ġbr ings
Particip ant
Ġmet av
ĠSk y
ene z
oxy gen
Arch ive
reg ular
H EL
Ġus ual
match er
Ġsc oring
ĠAtt orney
el ve
ag en
' </
Ġstart up
Tw ig
mk dir
Ġo mitted
Ġcon cat
el and
Err s
ĠCast le
qu et
I ll
Ġnomin ated
Ġrem oving
ĠP arent
ĠN FL
Dis pose
ĠCap ital
> *
Ġtechn ique
ĠVis ual
ĠValid ation
Ġp overty
Ġadult s
Ġestablish ment
rot ate
æĸ ĩ
m igration
l ings
Ġch arts
Ġdes erial
Ġre put
ĠS ab
ĠF actory
() }
equal ity
Ġdesc end
Hash Code
i ot
in th
Up dates
H z
Ġfeed back
as io
ĠI Enumerable
Ex amples
SER VICE
kl ahoma
app ers
ĠT en
ĠRE G
M arch
ĠMar shal
CON TEXT
iv ial
Key Value
ĠTem ple
VAR I
Å ¿
Ġm ilit
Ġfilter ed
Text Field
13 5
l av
Ġv ulner
U uid
E mp
ol ves
Ġt c
min ute
ĠUtil s
Un ion
ich ol
Ġserv ers
ĠKent ucky
Index Of
Version s
z i
out ube
ĠO pt
ĠVAL UE
f un
ID S
ME DI
Ġsell ing
N egative
R X
3 000
it i
Ġvot ed
Ġtrack ing
r ices
ĠHash Set
Ġheav ily
ĠD omin
default Value
SE SSION
. (*
n est
port folio
Ġobject ive
s ynt
Ġ ÑĤ
itzer land
ĠR ol
wik imedia
}} </
Ġy ellow
Cont ainers
Ġpop up
c nt
NO TE
M X
ĠE P
ĠMo on
h or
is Function
ĠCon n
Ġres ize
ism atch
ĠOrgan ization
å Į
WIN DO
Ġg lass
Ġvol atile
ĠB run
St udio
ĠFre der
Ġsett led
S us
ĠB ah
ne utral
DI O
uby te
Ġagre ements
et he
US H
ag an
19 26
TH E
ĠN ick
Ã ¦
Ġsign s
ĠT ax
We ak
Ġmag ic
d ro
cd ots
ĠP rom
19 31
ĉĉĉ ĠĠĠ
Ġcontin uing
getElementsBy TagName
y ml
ge om
ro zen
ĠOper a
up grade
er os
Ġc raft
Ġc li
cer ning
ĠTra its
in ator
Ġpro jection
J une
Ġexp ensive
Ġexper iments
æĺ ¯
all as
Ġres istance
ed a
Ġelse if
R U
Ġpoint ed
Que stion
Ġserial ize
ĠFin ally
it ched
read able
ĠFor ces
W omen
Ġal ive
M F
ĠR CC
Ġch air
} ],
Ġder iv
Enumer ator
lik ely
inst ances
Image View
F eb
Ġg ene
Ġd ry
B OOST
Ġback ing
Ġp ert
19 12
Ġr v
Ġar med
w ick
TE MPLATE
Ġw alls
ari os
ĠB UT
initial ized
Ġex clude
19 24
Conf lict
Ġw rest
ĠC WE
Ġsol ve
ul se
in ations
ownt own
ĠS el
Ġd iverse
Ġinter faces
) ";
Ġprint ed
Ġth ick
> @
P AGE
prot oc
Ġch ose
=" ./
Ġmin imal
ur st
Ag gregate
}^ \
spec ified
ĠB arn
Ġexp os
DE SC
ĠPat rick
Ġexpert s
c g
ip pi
Ġsign als
Ġt m
Ġh un
Ġro ots
dig est
ĠF R
id ad
he size
Ġw ound
Ġcheck sum
Ġbel ieves
Ġbound aries
Cred ential
ipher al
th reshold
Ġac commod
Ġappe aring
Ï Ĥ
child node
Ġ Ä
ĠRes erved
Ð Ł
Ġ< ![
Ġstrug gle
DI V
Ġtech nologies
st ri
und les
EQ UAL
m ine
Ġin finite
ĠĠĠĠĠĠĠĠĠĠĠĠĠĠ Ċ
h ist
f ish
h um
ic ut
then Return
it ivity
ur d
E ast
AR N
ĠAfghan istan
Ġdisc ipl
exp anded
Ġland scape
Ġb rowsers
ĠF unc
19 25
Ġis l
Ġla id
de ps
ecess ary
wik ipedia
Rep lication
Ġgrad ient
iv o
Ġsu dden
E B
it ches
G erman
Ġs pr
r ant
Ġcon cluded
Ġhas n
Grad ient
Ġver bose
ĠS ix
Ġtem plates
Ġcorrespond s
ĠP aram
> ]
Ġcr imes
ĠM IN
ne ed
ÑĢ Ð¸
ĠA DD
ĠHow ard
Ġp apers
ĠB us
ĉ ĠĠĠĠĠĠĠĠĠĠĠĠĠĠĠĠĠĠĠ
ĠN ev
ĠMay be
L IMIT
work ing
"> "
ost ream
Ġcer emony
Ġmeet ings
B usiness
A mazon
Lin ux
Ġkind s
pub lished
m icro
port let
j dbc
Ġ* **
Ġacc essed
unc ate
C op
t odo
å® ļ
nes ses
( _.
Ġman ually
DE C
P ipe
W illiam
d iction
Match ers
}} (
000 1
%%%%%%%% %%%%%%%%
Ġt on
Ġexplo re
ĠÐ ¼
Ġas c
Ġas sessment
C losure
ĠAm ong
al ter
Component Model
Depend encies
ĠK at
ĠCar l
19 21
GR AM
single ton
H AS
ĠF T
Pl ain
ad just
Initial izer
Ass oci
ĠD irectory
ĠĠĠĠ ĉ
Ignore Case
ĠL ank
II I
ĠAuthor ity
Ġ ))
Ġ" \"
app oint
P en
ex e
det ect
ĠF ast
ĠT i
Ġex cess
Ġ'/ '
e in
s an
Ġform atted
Ġf urn
ĠB egin
Ġcomp ri
Pr incipal
Print f
D ynam
ĠK evin
writ ing
W D
ĠC ell
Ke ep
M ATCH
ate ur
l azy
20 4
Ġcorre lation
gr ay
Ġcon tribute
ĠF a
ĠR ub
() "
ĠMo ore
dim s
ri er
Ġ* =
ĠGL uint
Ġdes ire
st ock
x d
ĠHer itage
rupted Exception
ĠB reak
Ġr acing
Table Name
Ġs and
Ġincre d
conf irmed
Ġtr av
ĠSystem s
i ac
Ġsh utdown
alle st
start ed
work space
Ġp c
ĠF ame
Ġ@ @
LI ED
s ong
Add itional
Ġfall s
u ity
In crement
m aking
ex c
ĠHigh way
B inder
19 15
PI X
inn ed
reg istration
Cal c
RE ST
ĠI T
Ġregular ly
First Name
B uffers
ĠS av
Part icle
at on
de leted
ĠP C
Ġ" *
ĠT ake
ial s
For Key
INTER N
Ġretire ment
Ġun used
Ġt ort
Ph il
ĠC atalog
ar o
ĠTh ose
Ġ' :
ĠMal ays
Ġwhen ever
' ><
m igr
G esture
user Agent
æ ł
has Class
V ars
appro x
Ġquant ity
play back
R CC
err a
Ġl p
Ġcol d
CT L
os ity
Rect angle
M Q
14 7
) ");
ĠMark et
b id
Ġwork space
ĠMan chester
F ee
") ).
/ $
Ġmod ification
istri ct
execut or
ud son
ĠR O
Ġbur ied
EN S
is ations
ĠF L
ĠN ic
in ction
es a
is co
x a
im ore
Ġexp atriate
Ġsix th
w ave
*) "
}) \
R oy
ĠDemocr ats
th umb
Ġdeal ing
Ġf atal
Sort ed
Ġenc rypted
G ood
EX TERN
Ġr ational
ĠEx ecute
ĠÐ ±
Ġdram atic
Circ le
æ į
Ġmill ions
tr as
Ġsequ ences
el son
ĠM aterial
Ġvisit ors
A ws
Ġj azz
To Array
end ers
;& #
F all
ĠB h
Ġtab index
L ess
Ġex clusive
Ġal i
Or Empty
cl ine
Ġrelease s
Ġlow est
v oc
cc cc
á º
ĠT a
PRE SS
Ġtell ing
Ġb es
in ating
Pl ugins
et ary
h ls
Ġassert False
UNK NOWN
ĠL eb
m ixin
D an
ED IT
M igration
de mic
ĠF lag
ĠHar vard
ĠRegion al
ĠSet ting
require s
Inf os
dim en
ĠSt atic
Ġrout ine
int o
Ġc yc
ĠB urn
Ġ$ ('.
im ap
US A
S amples
Ġv tk
=' #
g h
Ġr ugby
co hol
GL uint
aut hent
ar ound
Ġscore s
Conn ected
================ ========
ĠDet roit
ĠĠĠĠĠĠĠĠĠĠĠĠĠĠĠĠĠĠĠĠĠĠĠĠĠĠĠĠĠĠĠĠ ĠĠĠĠĠĠĠĠĠĠĠĠĠĠĠĠ
Ġvot ers
Re cent
Ġan alog
ĠRepresent atives
3 20
Ġinter act
ĠLIMIT ED
Ġf printf
tt ify
Ġass ist
ĠLab our
- $
EN UM
s il
Ġes c
Ġpract ical
Ġt ack
cover age
Ġenumer able
Ġget ter
ĠVis it
ĠP red
ĠCon vention
SY STEM
z render
Ġtalk s
Un ity
get Path
Ã§ Ã£o
ĠA st
ĠR aw
. ')
S pring
Ġun iversities
nav Bar
Inst ant
Ġf ought
ÃŃ a
Ġann iversary
Ġprem ier
end l
he im
Ġc ards
D ie
to Array
Ġb igger
LE ASE
ĠNor way
Ġref uge
atern ion
V ote
j b
ĠGree ce
Ġh older
ĠZ one
G LOBAL
Ġf acing
U nd
leg es
ĠMar ine
Ġhead quarters
ĠAnth ony
Ġexcell ent
ibli ography
G S
Ġm esh
Ġal gorithms
W IDTH
19 23
Ġbe an
comp ilation
Ġinj ured
Ġlocal ized
ĠAl abama
Ġp id
Ġair port
Ġamount s
ãĤ Ĵ
Ġc ook
Ġpe ers
Ġs ons
empl ar
Ġco lour
d ns
Ġ( __
IS H
d al
exp ress
View port
Ġh ooks
Ġpre gn
enumer ate
Å Ł
Ġobserv ations
Ġmonitor ing
Ġch urches
Ġpay ments
Ġstr len
ĠD ick
Ġpain ter
re load
Ġre aching
ĠArray s
-- )
Ġg rown
Sw ift
Event Type
Ġexp los
class path
Supp lier
Dependency Injection
cast le
Ġev t
Cur ve
k ar
ss on
Ġphot os
r atio
ĠD ave
ĠJ ay
; =
ĠJ am
}_ \
Ġpro portion
Î ¼
th od
Ġinter section
ĠKe ep
ĠBase ball
pred icate
len ium
B T
ĠEx pr
g ulp
v r
Ġcons ervative
å °
Ġa mazing
Ġregard ed
\ ",
] /
alloc ate
M c
Ġf aces
Ġbreak ing
Linear Layout
A WS
ĠT ypes
ax y
ĠLouis iana
Unmar shal
p ow
Ġ ------------------------------------------------
I FI
Ġdef initely
) ^{
m al
ĠD NS
f our
ĠL ind
Ġf asc
Ġbe ar
usal em
Ġres erve
Ð ±
book s
Ġrem oval
Ġprodu ces
omp son
ctx t
Ġoccup ied
_ '
ĠP od
B and
z eta
R oles
l b
Ġsw ap
Ġs qu
Ġcon clusion
collection s
}} }
ĠPy Object
ĠKenn edy
ĠB an
ĠPO ST
> }
Ġ" __
S CHE
inal s
ij it
Ġm arg
pre tty
Ġfl uid
Ġexpl ains
Ġstrateg ic
ver sed
A pril
ĠP L
Reg Exp
ĠK itt
Last Name
comp ressed
, "./
O Auth
rece iver
Ġestim ates
Ġtensor flow
Ġsk y
ĠN ob
Ġd uplicate
h it
Ġent ering
u art
30 1
att achment
Ġc losure
ĠSe ason
ĠWork s
ĠS uccess
k n
As String
ĠCh art
R anges
Ġcancel led
mat ched
wikimedia ui
Ġb et
ter ior
is EqualTo
11 3
Ġadvert ising
Ġcrow d
mes h
Ġeffic iency
l ift
de cess
L ANG
Ġsw im
Ġmanufact uring
R G
iss ippi
Thread s
Ġro of
Ġliter ary
{ (
ĠTag s
Prop Types
omin ator
b urn
ph ab
Ġretr ieved
ĠSim ilar
list ed
d atab
ĠH it
ĠE mber
on ing
Ġfor get
Ġad mitted
Ġe at
am en
p ot
Ġl hs
") ),
urch ase
ĠS ep
** :
uc le
S in
Ġpro ud
rol led
Ġmaint enance
F M
r at
g un
Th ree
De leted
Ġsever e
Ġparticip ation
G a
ĠP NG
hib ernate
Ġimp ress
ater al
TYPE S
F old
is cal
re dis
Ġre lying
Cover age
Ġw heel
Q T
cy cle
Ġport s
tag Name
Ġintrodu ce
Ġl ands
Ù Ĭ
is ons
re nd
Ġc arri
Ġshort ly
Ġcarry ing
ĠD rop
Ġre in
Ġinter ior
) }\
12345 67
Ã ´
~~~~~~~~ ~~~~~~~~
l ucene
Ġth erm
> ");
ĠH O
ĠField s
Fin ish
ĠA ST
' ",
um per
ĠPl ant
ĠThrow able
Get Value
I o
ĠSil ver
l tr
Ġ' ;
ans wer
Ġun us
ĠGL ubyte
man ual
ĠCommon wealth
ĠS n
Ġstrateg ies
Ġmor al
Tr im
ä¸ ª
Ġreli ef
][ <
Ġmatch er
Ġground s
ĠHel p
Ġb ulk
Ġrecogn ize
div ision
log ue
Do es
se ud
Ġspec ifying
Ġfound ing
Ġg ift
ĠPh oto
Ġc ubic
Ġpartic les
Button s
E r
Le ave
Ġvill ages
ä» ¶
M acro
ĠO ak
Ġaccept s
sc or
Ġr ig
Ġsem antic
et ition
Ġsub group
l r
Ġmark s
Ġw elcome
Ġly rics
inc ial
Ġ- &
ĠM as
ĠT uple
ĠB io
F lo
Ġun lock
ĠS audi
Ġintegr al
ĠPro b
St roke
gt hen
Transform er
S at
Ġar row
Document s
Ġend l
:: _
Ġst ood
ard o
i op
ĠK al
C rypto
ST D
att an
Ġext reme
Un supported
sort ed
Ġpublic ations
Ġconsist ing
Un icode
Ġthem es
ring tone
M Search
n x
Ġp kg
ir q
ĠD ialog
type Name
b ors
Ġprote in
ĠS quad
Ġs z
ĠF ake
Buffer ed
Target s
ĠP as
Ġh ack
19 13
D iag
'' '
ag s
navBar Cell
2 20
N or
Ġcommunic ations
ul atory
evalu ate
COMM AND
Ġgener ates
expect s
m alloc
loc ations
Ġs parse
cre ation
Ġb low
ĠEar ly
OO K
P ause
Ġpen alty
EX CEPT
clean up
Ġdrop down
h ooks
ag u
Ġinflu enced
Ġapparent ly
ĠM it
Ġob lig
io ce
ĠSk ip
Ġmanag ing
ĠAr men
ott ed
V B
ĠMel bourne
ol er
g iven
A ir
Ġ' &
Ġp up
P ur
'] [
ĠHarr is
19 11
g b
Ġp ersist
ĠTrans form
Property Name
Ġin vent
Ġattack ed
- %
g pu
ĠUs age
r ust
ĠAn ne
Ġhyp ot
Ġde struction
RO WS
Ġalloc ate
ï ¿
. ;
B en
ul us
ĠBit coin
V K
C he
Ġout standing
Ġqu iet
S il
Sh utdown
Pol ygon
Rep resentation
vis ual
ĠHot el
Ġpriv acy
Pro jection
ĠH ug
Exception s
Ġs printf
Ġenjoy ed
] }
ew idth
ĠFrame work
E val
Ġexp onent
T oday
Ġc ros
Ġsh a
Ġrest rictions
ĠIN CL
ĠM etadata
. {
f ef
Ġun iverse
Ġad jacent
ur ric
ĠEx ternal
Ġw arr
Ġview port
s uite
b readcr
ĠInt eg
ex emplar
Ġgener ating
Out er
) &
jav ase
ĠMo z
(" ")]
Ġtal ent
[ @
Ġpublish ing
Ġto wer
ĠO klahoma
N R
to k
Ġw orse
Ġcirc uit
ä ¿
d up
as ide
Ġwhere as
er on
Ġst arring
FO UND
Ġin te
tr ip
Ġsecret ary
Ġp index
Pod s
S ym
Ġsp ark
Ġre interpret
in cess
sh utdown
Ġturn ing
å į
set Property
ha us
Job s
ĠMar shall
bar a
start sWith
E ven
ĠX XX
Ġdesign er
ç ±
Ġget Name
c url
el if
Assert ion
x space
ĠSc ient
Ġcharacter istics
ass ador
Ġapp lying
host s
Ġden ote
ass oci
X Path
ĠC ape
DE SCRIPT
ro les
Ġre act
m or
Ġcover ing
" <
n ik
al ia
g ro
h dfs
ĠEx amples
perm issions
ĠJud ge
x r
ĉĉ ĠĠĠĠĠĠĠ
ĠRes erve
ĠE uro
Ġpick ed
b ullet
Ġed ited
Ġfoot er
ĠD NA
ĠH RESULT
lo p
et o
ĠSt udio
Leg acy
str ategy
H ASH
r ating
De ath
Ġabs ence
At omic
Ġi i
Ġindex es
Coll ision
M ass
R oll
ĠB ry
Ġgun s
INTERN AL
An swer
Rem oved
Ġd ual
Ġmod er
UB LE
D ump
Ġsim ult
eg as
ACCE P
Ġf olk
Ġcomplex ity
Ġ$ (\
ĠE s
é ĩ
ion ic
ĠIn fo
Ġl ua
Ġequ ations
Ġs ends
ĠB ug
Ġ{ :
g ate
Al tern
Ġfriend ly
Ġs ensor
L ex
ãģ Ļ
Ġn ick
COM PI
Ġc ler
Ġab sol
hl js
Ġtr ailing
Ġ' --
Ġfem ales
u able
ĠY outh
ĠMe an
P TS
Ġpublic ly
integ ration
"> @
ĠJun ior
D TO
ĠPr iv
ĠC ategory
ĠMore over
ap sed
ĠSw itzerland
Ġorgan isation
Ġimm igration
Ġp g
Fig ure
wr apped
Ġtax es
Index es
lo ose
Code Attribute
ature s
n ical
With Error
Rest ore
ĠMi ami
ĠSup p
Ġo vers
IN TEGER
D ays
Ġemph as
c riteria
track er
Ġt icket
ĠIm ages
Ġn umpy
Ġfind ings
arb age
Ġsatisf ied
ĠS om
f ather
Ġdr iven
N ORMAL
S B
Value Type
Ġvict im
member Of
am an
Ġunderst ood
ess ions
ĠD ur
Ġs q
ç Ľ
ap k
o lo
æ İ
th umbnail
ulo us
Ġco lo
T l
Ġelect ron
se a
t ap
IP v
unic ode
AT T
Min imum
level and
Ä ħ
Ġg ro
Ġcon cerning
Ġint ellectual
id ency
AN Y
up les
ĠWal ter
Ġse aled
ĠS TD
ĠN atural
Ø ¨
Ġd y
/* .
Ġse es
Ġattempt ing
ĠAl bum
q t
Ġintegr ated
ver b
/ ',
Ġde pos
ĠLem ma
A wait
dis pose
AUT O
C urrency
Pos itive
ch ip
Ad just
ĠEd ition
Ġcommand er
ĠH ans
ather ine
ĠBar on
Ġbreak s
iff s
Pro vince
rece ived
ĠBr and
ĠC hem
Ġperiod s
El se
D irty
Å Ļ
min imum
n P
ĠA z
Ġst adium
ĠMay or
Ġguarant ee
] =
Ġv ectors
Ġlog ged
e ah
EE E
Ġcomp rehensive
Ġformer ly
u its
Ġd iagnostic
pro x
al ways
Op acity
Ġin set
Ġr pc
Ġrespect ive
Ġoptim ization
Ġconsider ation
eral d
ul ates
d v
prom pt
om ot
Ġmusic ian
ASS IGN
S ing
callback s
ER O
yst al
D ifference
aw ait
Ġpoet ry
DOCK ED
Ã «
Ġpat ent
ASC II
us cript
ĠL ess
13 6
Ġgu ys
W ater
ĠEm peror
Ġhead s
UR POSE
Ġcent ers
Ġ[ ])
Ġd ol
ad os
Ġconsum ers
ĠR ace
ĠSe attle
ĠP rep
ï¿ ½
Enc ryption
Ġm ales
ig uous
ĠP ope
Ġsitu ations
Ġmin ing
rec ogn
J ames
Inter faces
P ORTED
AL IGN
is en
Ġag ed
em an
ĠC artesian
Ġb aby
ĠD id
lector al
R ew
ç± »
Ġm i
. #
jsp x
ĠM ER
Ġcl im
ĠAn alysis
Hash Set
Ġg ar
P rec
P aul
] ],
+ -
Ġat omic
op eng
lov ak
Ġthous and
ÐµÐ ´
ĠPer form
ĠSaf ari
C XX
mix ins
Ñģ Ðº
Ġpet ition
') [
s creens
Ġassert ion
Ġeduc ated
under line
se en
ĠN an
ĠH op
che mes
Ġten ant
Ġsus pect
ĠFin ancial
"/> .
Ġo c
e led
ver ity
lo tt
l c
ĠR ES
ord ion
**************** ********
Ġess entially
Ġmom ents
pres erve
ĠTok yo
vet ica
ĠZ h
claim ed
ĠApp ly
ĠSen ator
SE C
ĠR ole
Des erial
ĠOr leans
Ġen ables
Ġvot ing
Ġpro cedures
Ġhealth y
ĠJer usalem
s is
× ¨
poly mer
ĠK elly
1 19
ĠE ffect
ĠA SC
Ġtransport ation
pop over
Ġs alt
> #
CharacterOffset End
CharacterOffset Begin
eb rew
S ING
ĠK han
ĠDoug las
ĠConnect icut
m r
30 4
ĠS pr
it ize
ĠN ormal
å ĩ
at ches
el lo
Ġcom ic
Ġsh ard
Ġany where
Ġaband oned
it ure
ĠA I
ĠGr am
ĠM s
M ON
Ġcons ent
build ing
ast s
] ])
asc ii
u um
m q
ĠD ynamic
PHP Excel
l ane
ĠVill age
ĠJ os
wide hat
Ú ©
Lay ers
O ffic
typ ed
ĠTown ship
i est
ACCEP TED
ĠK y
) `
Ġc ov
× ľ
âĢĻ .
author ization
al yst
http Request
Ġar c
Ġtrans mission
ĠPh illi
ue se
Ġinvol ves
L ev
Ġlif etime
Ġmeasure ment
Wr ong
: ",
an aly
ow s
ĠPro tection
ars ing
Ġtyp ed
Ġrestrict ed
Col lect
Q Name
Ġp ione
up al
Ġrest ored
ĠSQL Exception
Trans late
h ub
Ġc d
log ist
ĠTele vision
user Id
dec imal
] "
Add resses
Ġref lection
ĠOn line
A H
eli hood
parse Int
Vertex Attrib
inger print
ĠTurk ish
H istor
Ġh i
ĠD ak
tele phony
pl aced
EN ER
Over load
ĠObject s
At Index
Ġmap per
ra f
m atic
Ġst amp
Ġk ube
Ġtemp le
add itional
ul ative
col on
So ftware
sh arp
Ġwith draw
18 90
Pr inter
O lymp
w heel
Ġ* (
Ġobserv able
H D
v y
Non null
Aug ust
ĠL as
un ix
ĠRe quire
ĠV in
r w
Ġre pe
Ġentert ainment
SET TING
lo ut
ĠAust ria
Ġu id
format ter
enez uel
ĠSt ew
ĠB os
è ¦
F ault
q quad
G T
ĠO wn
par agraph
Ġmis sed
Ġrough ly
Ġp ip
="../../../../../../ ../../
ĠGL sizei
p us
Ġv acc
Ġbr anches
Ġphys ics
Ġas sess
Proc Address
Ġim pr
ĠA gr
Ġiniti ative
Ġspirit ual
bl ur
A ge
id en
ĠW IN
Ġw aters
Ġb om
Ġ================================================================= ========
as a
ur ities
Cred it
Ġg ay
Ġ' __
Serial ized
Ġ( {
' ></
Ð½ Ñĭ
P icture
ĠCo oper
Gener ation
ific ial
ĠR T
ĠW allet
s uggest
Ġtr ains
ĠD VD
Ġ& \
m outh
Ġfe els
ur ers
ill ery
cap acity
ĠCON TRACT
) },
C N
D NS
ane ously
avers al
Ġdistri bute
p edia
is i
el le
Ðµ Ð»
Ġp ictures
âĢĻ ,
Ġpaint ings
Ġour selves
G l
ĠConst ants
ĠAct ivity
GB T
Ġoper a
Ġsh ader
xx x
O s
err no
ĠD S
Ġaff airs
Ġd ense
Ġout come
border ed
wall paper
Ġob serve
ke e
j ud
METH O
14 5
B IND
"> )</
Bound ing
Ġabs or
class List
AL LOC
ell s
Call able
Ġroom s
ĠR oot
ĠP K
ĠG ulf
Ġph rase
ĠAl an
S peaker
il t
Y ES
Call s
Ġrule d
M ARK
organ ization
Ġlib eral
D ummy
Ġse l
ma de
Ġemotion al
Ġchar s
stit u
> =
Ġexpos ure
status Code
cons umer
Ġwit ness
à ¹
Ġenh ance
Re porter
em pt
null able
Ġfall ing
ic he
Ġac id
> ")
ĠG er
Ġrac ial
ins ic
han ced
Ġs now
Ġcomp os
ĠYou Tube
View ById
ro uting
b idden
ĠT otal
f are
oun ced
Ġconnect ing
ĠS ync
ĠM unicipal
P D
res olution
Ġsim ulation
e or
sp er
elf are
? .
ĠIn dependent
B iography
>{ @
re pos
Ġde veloper
Ġi OS
Ġeng ines
ĠCent ury
Ġinh abit
ou ver
th ere
Ġb ias
Ġhe ading
Ġjav adoc
g ap
assert That
met ry
in formation
ik h
re ats
PE G
le ading
S el
ĠUn supported
Ġescap ed
ag le
List View
2 64
Ġauthor ization
b io
14 3
Ġopt imal
Ñ ī
av ery
en kins
y ll
ĠSm art
Ġon Click
Ġear liest
Ġsc atter
amil ies
Ġ utf
ĠÂ ·
l arg
ĠW idget
Ġorder ing
unt u
Ġrestaur ant
writ eln
Ġinterpret ation
sect s
Ġref id
ĠWIT H
Ġsub str
ĠEmp loy
ĠR oom
ĠTr aining
COL UMN
L T
get File
Ġlog o
ST OP
il st
Ġdecl ine
BIT S
ĠAd vis
Ġscr atch
ĠG NU
ĠNot es
æ ³
Ġcritic ism
found ation
Ġmov ements
"> .</
ĠAtl anta
Ġencounter ed
ĠB ull
Ġm il
Ġhon est
of ill
Ġsing ing
Ġdut ies
ĠP ed
Ġco aches
ĠU UID
am d
P referred
ĠChrist opher
Ġw el
ke ley
fe ction
lad esh
re tt
12 9
scal ar
U V
Data Set
ab lished
lap s
=" .
T rip
b ank
æľ ī
Ġhappen ing
æ ŀ
ĠMET HO
Ġconsum ption
L arge
Ġb ronze
Ġen vironments
Ġc ookies
R x
(' :
g ateway
Ġrepl acing
ĠN amespace
)) :
Ġviol ation
ĠWh it
Ġfranch ise
ok ia
IT NESS
Config s
Ä «
ab lish
ĠMiss issippi
Ġclose st
Ġmy th
Ġbo at
Ġelse where
ĠF le
oc o
n th
s ap
ĠEd it
ht m
key board
Ġreg isters
Ġtranslate X
C AT
ĠAt tributes
ĠEd ge
Ġt ight
Mich ael
Ġsuffer ing
dev ices
ib ration
Ġun icode
Ġ( &
Ġtransform ed
Ġrest riction
ĠG URL
Ġp ersistent
ĠE ss
cit et
Ġco operation
Ġauthor ized
Work flow
k ill
Ġ ----------------
Ġcut s
t pl
ĠW alker
Ġchild hood
Ġperform s
Ġdef ining
Des criptors
mock ito
Ġd iversity
Ġaccomp any
Ġpro x
Ġsch olars
ĠF arm
ĠS A
ĠRe ce
val s
17 0
ĠChrist ians
on er
P ART
ct ic
qu er
first Child
Ġt ied
Ġin verse
}^{ (
ĠRem ote
Ġvalid ator
comp uter
ĠDe an
ĠF al
d ictionary
ĠD al
Ġg allery
QU ERY
em en
Ġm oth
Ġan th
SH IFT
ĠT el
Ġif rame
Ġinv ocation
20 3
erm ine
IST ER
Ġcapt ain
ĠAc cept
Ġ( []
um ed
so lete
ĠS R
Sm art
/ ,
ic ity
Ġa ux
comp letion
View Model
Ġrul ing
t b
Ġstren gthen
Ġ( ),
Ġwalk ing
Ġrel ating
ĠPar ser
Ġconsequ ences
Ġsepar ator
K ER
Ġl ie
Ġcons ervation
ordin ator
r hs
Sw ap
37 5
< >
Stream s
Ġpod s
19 08
% ">
Ġbit map
conn ector
ĠInter rupt
I CT
c losure
C at
L azy
Al bum
Gu ard
Def initions
Ġimpro vement
ĠP a
ener ated
sup p
Ġt ear
ĠN ation
ĠG ordon
ĠTh ompson
Ð°Ð º
Ġover view
ĠS u
Sc oped
enc er
Ġsu icide
bl ing
ĠLo op
deploy ment
- '
Ġal gebra
Ġk lass
pl orer
Ġup dating
Al ready
Ġdirect ories
Ġrisk s
ÐµÐ ¼
Ġsatisf ies
ON ENT
ACT IVE
AS A
Ġent reprene
; ;
SH OT
SN AP
grad ed
IS O
Ap ache
4 50
Ġp ushed
U tf
Ġf ade
p w
ĠGir l
PRE C
d ers
Ġimport ed
ro bot
Ġtr ading
Ġmark up
ab ul
Ġfew er
o is
Ġ{ $
EX EC
Can adian
ĠH D
Ġat om
Ġencour age
ĠG ard
Ġw aste
ter y
sp y
for ced
Ġpub lisher
success ful
n v
Ġ' \\
Ġpart ially
ĠBill board
br ace
Da emon
ĠTh ough
Ġinstr uments
ro utes
RE SOURCE
we ather
Ġh ole
Ð½ Ð¸
so ap
ol ving
ĠâĨ Ĵ
Ġ' *
fef efe
Ġt abs
feed back
y ellow
ĠK ind
12 6
Dig est
filter ed
ĠCurrent ly
Ġad res
Bind ings
exemplar City
he art
ĠSQL ITE
Ġnarr ative
ĠG TEST
Co ordinate
Full Name
Ġb on
che ll
ĠComp are
p ent
Ġgen re
G iven
and al
Ġpre view
T oo
Ġhistor ian
Ġ[ _
LE T
Str ict
ĠM ission
ll vm
Ġcompet e
pis ode
re start
ĠY an
\ _
ĠG all
Ġ` --
lim ited
rb an
rot ation
iref ox
keyword s
Ġlos ses
ĠS K
bal ance
A RE
Ġwh itespace
Record ed
Pub Key
ac iÃ³n
ĠRus sell
ĠP ush
Ġstream ing
Å «
output s
Ġaccord ance
f m
ort s
Ġsens itive
H W
Ġs aving
Ġ*/ ;
ĠRE ST
H ouse
Ġ*/ ,
ĠE S
Ġguilt y
Ġcan onical
eb r
ber ry
Ġpri est
on z
ĠR ey
Rob ert
Ġr ising
c ov
Ġcompet itive
ĠG len
ĠAm endment
Express ions
Ġstr uck
id i
Ġr ival
ĠLaw rence
DA Y
qual ity
osp itals
Rep lica
User Agent
ĠC ancellationToken
a head
Ġaccomp an
Ġle x
C V
Hand ling
al ex
ĠL INE
p aint
Ġfem in
R B
ĠO B
set Name
Fil m
se lenium
assert Same
\\\\\\\\\\\\\\\\\\\\\\\\\\\\\\\\ \\\\\\\\\\\\\\\\\\\\\\\\\\\\\\\\
greg ator
ĠH ills
Ġoper ates
Ġdig est
Ġdemocr acy
files ystem
m os
Ġa str
IM ARY
st ers
olog ist
ĠAnd re
40 1
ĠAPI s
Ġfin ance
Sc anner
or ce
d ijit
ĠAd ams
Compat ible
Ġadapt ed
ĠHon or
ĠTra it
ĠD allas
ĠN ames
Ġw ed
sl ash
T abs
ME TA
IC S
Dim ensions
CH ANT
User Id
Block Index
ĠD ue
Pop ulated
oc on
l us
Ġvisit ing
Ġjud gment
i ang
Ġcomb ine
ĠLa ure
Ġmach ines
ĠMin or
F ar
und ant
Ġcode c
Ġa ver
Ġhost name
Ġh ierarchy
MA IL
y our
VER TEX
Click Listener
Ġre ward
} &
lo de
d AtA
Contin ue
min or
Ġinter mediate
r ub
grad uate
provid ers
Ġprodu cers
ĠĠĠĠĠĠĠĠĠĠĠĠĠĠĠĠĠĠĠĠĠĠĠĠĠĠĠĠĠĠĠĠ ĠĠĠĠĠĠĠĠĠĠĠĠĠĠĠĠĠ
ang el
ĠMuslim s
Ġas semb
Ġre ception
O h
Ġevalu ated
Loc ations
fin der
t age
Track ing
mult icol
ĠSE LECT
ĠProp Types
ĠAust in
l iving
Ġke eps
Ġvar s
Ġview ed
Tra it
= &#
Ġinform ed
"> =</
Byte Buffer
Ġc ancellation
des ktop
ĠP URPOSE
parent s
Ġreput ation
iss ance
e lection
T W
Ġphotograph s
ts burgh
CUR RENT
up on
ĠG ab
ĠSt age
Ð½ Ð¾
Ġappoint ment
ĠYear s
] ',
Ġre ly
Ġbus y
Ġin aug
15 2
REF ER
ĠBe at
ĠBr anch
Get ProcAddress
Ġany way
Ġste el
Ġcon front
ĠE ver
ph ysical
ick ing
') ),
... "
Ġh ired
Ġh am
Ġb orders
ĠWAR NING
loy d
Ġtro uble
G lob
Ġm es
Ġreal ized
Ġs nap
(' [
count s
ĠC P
ĠR oc
operator name
R ay
m ob
Ġinvol vement
Ġver ification
Tree Node
ell ar
ãĥ ³
Ġpl ate
SY NC
ra ke
Ġconfig urable
Ag gregation
Ġro ads
Ġdr ums
Ġc ited
ap im
the less
Ġfle et
Display Name
**** *
Ġrepresent atives
Ġro yal
par er
Cap abilities
Ġclass ified
Ġro bot
lo re
Ġdiag ram
Ð ³
des cr
ĠC art
De ad
A wards
ĠG PIO
add All
Ġagr icultural
m aint
Ä Ļ
ĠOr chestra
ĠEx ecution
em ed
Bal ance
over e
OB J
ĠO ffset
s ound
ĠG arden
dis ambig
ĠSar ah
get Node
g allery
ĠA le
moz illa
Ġev il
19 0
im ization
ĠHistor ical
Ġobserv ation
åı ĸ
t om
Ġm art
ĠF ail
ĠAl liance
BO X
pl ating
Ġsym pt
s u
on i
Ġinvest ors
Byte String
F un
C ritical
b an
Ġf abric
ĠH amp
Ab ort
ten ant
R o
n ia
Ġvar char
Ġs itting
ĠB et
product s
CA ST
st orm
LAB EL
. -
ĠM organ
Is Valid
g rey
Ġ ic
Sp acing
p read
Ġst ake
L ifecycle
Ġc pu
enc oder
cal culate
ĠS ocket
lo dash
ne q
Ġincor porated
Ġdetermin es
Field Name
raz y
H ooks
Ġes lint
ĠAl tern
get All
Ġthe oret
Vis it
Ġarr ival
ever y
Xml Element
Bound ary
Ġreal m
Ġencour aged
f name
Ġav ailability
View er
ĠPalest inian
C andidate
ĠBalt imore
ĠY et
7 68
Result Set
ĠPr inc
ĠIMP LIED
ĠUn icode
ĠFurther more
Ġjud ges
ĠBelg ium
H ierarchy
ĠF reedom
ĠAnton io
D K
sp rint
(" ",
p ip
Ġaltern ate
Ġfe es
d in
def s
ĠNe ed
scor lib
ĠDe puty
Ġb rown
pub lisher
Par allel
Track s
ĠS chedule
ĠN amed
Match ing
S izes
C art
r ons
H on
in ces
anc ouver
H ar
Ġl ake
Ġsatisf y
ĠQueens land
ĠF riend
be havior
ĠDe veloper
ĠM aur
On line
Ġprison ers
P ag
Ġf est
ĠR ot
IC ULAR
ĠWeb site
ĠE mer
J av
Ġrad ical
Ġm outh
Ġleg it
ĠPu erto
eng e
Ġres olver
ĠStud y
ioce se
om ation
ĠPolit ical
lic es
arg c
ri pple
ĠF E
perm alink
ĠUt ah
Ġjuris diction
Ġc orn
de velopment
Ġto u
ĠBow l
Ð¾Ð º
ĠV ER
Con str
ĠNot ification
Ġ* );
Ġst retch
ath ers
ij ing
ĠDep end
Dem o
Ġse ar
Ġpri ze
m g
Ġinter actions
Ġinv asion
li ber
Ĺ ãģ
SR C
Ġan onymous
2 30
Comp any
UN IT
get Int
Ġtranslate Y
ĠOper ations
ĠLay er
B oth
e z
Ġun iversal
Ġf lying
Ġ"/ "
sol id
o ct
EX PECT
' $
m akers
lo pe
B rows
P IN
ĠB ag
Read Write
f ollow
Ġas ynchronous
Ġmem o
Work Item
Ġstudy ing
C OR
D uplicate
Ġres idence
Ġher itage
Ġguarant eed
ĠArgent ina
ĠN ash
cy c
åľ ¨
gol ang
Mod ify
ĠAdd itionally
M vc
ĠL ower
Ġsitu ated
Ġde comp
Assert ions
ĠO O
Ġaware ness
Ġan notations
ĠW ik
Ġr ap
dec oder
ĠT one
) ](
ĠEar l
ĠH u
d istribution
RA W
Ġs ans
O VER
I Enumerable
CHANT ABILITY
Ġconflict s
Ġover lay
fore ign
Ġflow s
IN X
m usic
T or
ĠCh ile
ĠInd ians
Ġc trl
ĠM ot
ĠL anc
Ġatt achment
aren cy
key frames
un ication
multicol umn
^ +
Ġis lands
ĠW R
ra ig
go als
Ù ģ
j amin
ĠAss istant
ĠL ists
ĠF UN
"> {{
Ġ{? }
ter ms
ch arge
ĠB u
] ):
Ġcon form
to u
ĠIS O
Ġpres ents
math sf
b ower
Ġop am
Ġrec all
Ġres idential
set State
Re peat
ĠSam uel
v space
Ġne uro
L B
ä¸ į
Ġsurg ery
/ :
Ġst ability
an on
Quant ity
r ig
LE AN
insert ion
ĠID s
Ġs av
Ġlo ts
ĠCon tract
ish ment
Clean up
ĠSchool s
Tim eline
Foreign Key
ut ron
ens is
Ġassum ption
Ġentr ance
ĠMov ie
Ġsoc cer
im izer
Ġobt aining
Ġdig its
S al
Ġr t
ĠA BC
Seg ments
ĠF er
In fl
Im mediate
Ġpay ing
ĠVAR CHAR
In herited
Ġb ootstrap
Set ter
Or g
' })
Ġe u
ĠCro at
Oct ober
strict Equal
cor ner
cri ptions
Ġw ake
Ġnew Value
Ġredu cing
A ware
H over
"> [
Ġs ight
M us
tw ig
ĠSyntax Kind
/ ?
list item
Ġmer ely
Ġabsol utely
B orn
Ġsc aling
Ġexc ited
thod ox
A rc
ab i
Cond itional
Ġme ets
}} {\
---------------------------------------------------------------- ----------
ĠR ET
ift y
ĠMat thew
!! !!
Tem plates
Char Field
Ġcomp uting
Ġg ang
ĠO VERRIDE
lin ewidth
Ġprof it
CHAN GE
ĠD og
ĠComm ons
ĠCont act
Jan uary
Ġcy cl
Get s
ĠV K
Ġoff sets
Ġac quire
M ime
ĠSp irit
Ġeng age
D WORD
ĠM ouse
ĠF ore
att ice
cul ator
Type Info
ĠNav al
ç½ ®
Ġp reference
Ġpop ulations
ĠOper ator
From String
â Ĩ
Ġinnov ation
P ATCH
Ġfail ing
ĠD ie
C ategories
Ġs ad
ĠS port
Ġplace ment
f tp
ression al
win ning
PRO CESS
Ġrect angle
$ }
Ġpol ynomial
End points
ĠS UB
ab ad
W ar
Ġnot ation
inc or
Ġn am
ĠC UR
Ġgr ab
B ank
Ġdesign s
ac ht
Ġa de
ĠPer formance
Ġord inary
Ġm ess
ĠIss ue
sv c
real m
re ll
Con current
ĠJ oin
Handle TypeDef
ut ers
AR M
Ġassert NotNull
With Context
J ack
Ġpop ulated
D i
ed ges
. ),
op les
W T
sc ar
Ġ- \
S ocial
ĠQue ue
ĠP in
NO TI
ĠW y
Stream ing
for um
14 6
RE SET
- "
Organ ization
ut t
Position s
N an
Pack ages
MEM ORY
m ixed
é ¡
alloc ator
Ġed iting
* (
19 07
IG H
Return Type
ĠInt ent
ĠComp lex
Ġover se
Ġt ill
rest rict
Ġsupport ers
Tr acing
D to
Olymp ic
Ġneigh bour
' _
Ġbrief ly
se g
19 06
ĠMc G
get Item
comp act
Index ed
Ġviol ent
erg i
Ġmedal ists
edit able
Ġsil ent
d irty
s ink
stream s
Me an
Ġp our
`` .
Form er
andid ates
H I
F ollow
X R
Ġsur ve
Ġsp atial
Ġweek ly
ĠMc K
ĠNC AA
connection s
ĠDown load
Ġfra ud
Se ek
API ENTRY
ĠAp pe
bo y
H istogram
Ġhor ror
Ġremain der
Don ald
Ġsur prise
ĠS ample
ĠM otor
ĠJ uan
MAG ES
Ġv a
ĠH old
Ġf p
m issions
Ġfinish ing
ail and
Ġbuild s
release s
Log s
v b
D M
: .
å Ĩ
Command Line
CLA RE
Ġinj uries
19 05
Ġab road
sh ard
ĠBru ce
F lex
L ear
er ase
Ġd ash
rott le
> {{
ĠD ES
WA IT
ĠF ive
ĠBro adcast
re name
ch r
St ation
ĠJ osh
em p
altern ate
un set
Cor rect
17 5
I r
27 0
Ġdig it
Ġjun ior
un checked
emph asis
C ENTER
ĠN elson
Ġkn ock
el m
Ġindic ator
PR INT
S pe
or um
Ġcompens ation
progress ive
æį ®
Le af
ĠN ag
may be
Ġcl azz
So ft
Ã µ
ect ure
ĠEx pect
Port s
ĠS ud
Ġdisplay s
Ġt ennis
Ġsp y
Ġdise ases
Call ing
æ Ŀ
du stry
ĠCal endar
Ġt ank
Ġb irds
b usiness
Ġformat ter
Ã¶ r
ĠTr ace
net ty
ides pread
ĠW alk
Ġal igned
AT FORM
SUP PORTED
Ne eded
be zier
V I
Ġ\ |
ĠAL L
O G
ĠS creen
Ġmet ers
b ow
Ġimpro vements
in burgh
(' -
ĠR uby
ĠP FNGL
Ð° ÑĢ
Ġst ating
ĠFrank lin
gr avity
T IP
ĠNor wegian
at ivity
CT OR
ĠK az
LA ST
tim ing
us b
Ġal cohol
6 55
S parse
Ġthe orem
16 5
ĠMER CHANTABILITY
Browser Detector
Watch er
ĠPART ICULAR
N eg
ĠS EC
ym n
Icon Error
ĠMet ro
it ative
List Item
Ð°Ð ´
P t
Ġwork flow
Ġbeaut y
Ġ" #{
ĠL ad
Ġ@ }
2 60
Ġst ops
ĠB eng
F requency
ĠJ ason
ĠCh air
ĠPro xy
Ġ? ?
ĠP os
k ov
ĠF M
check er
Ġrapid ly
Ġn ortheast
ĠC lick
Ġ[ -
Ġadd ressed
S olution
Ġ{ });
Trans actions
Ġtr acing
Ġstd out
Ġimplement ations
Ġ{} ",
Ġa ug
key Code
Ġserial izer
qu iry
æ Ķ
ĉĉĉ Ġ
Ġdynam ics
ĠAuth ors
ĠD b
Ph ysical
Ġsp okes
ĠC leveland
Ġ[ `
lot te
15 5
ĠInf antry
ass y
ĠW as
Ġst im
ĠEx pected
ot ions
Ġ< >
ĠU ART
apol is
ĠG ary
Ġrec urs
L ater
Ġg od
p v
Con vention
Project Path
ST AMP
Ġ[ (
igh bor
r ss
ĠL yn
names paces
Fl at
ĠI ron
Ġdeep ly
max imum
ĠCan vas
V ED
ĠN ik
DL L
Ġ% (
os cal
d ma
ĠF ather
Mar shaller
scroll Top
Ġrob ust
de b
screens aver
Ġm ir
Ġdis p
ĠIndones ia
ĠM ail
Se ptember
IST S
f requency
Ġmin i
Ġvers us
t ot
ie ving
Ġhead ed
Ġlong est
hand led
19 09
or ry
Al location
ĠJon athan
ĠPol y
ĠImp lement
å ½
y outube
ĠIm Gui
ĠM ult
all Errs
Sp atial
ĠC LI
ath on
L ng
Account s
phab et
' =>
ĠC emetery
Ġlic enses
h ive
l hs
Ġjournal ists
ĠCh apter
Ġnow rap
Ġmag netic
ĠR EQ
sub menu
="../ ..
Ġenc oder
L and
sp h
ĠAdd itional
; ",
Ġprom ises
o op
Start ing
====== =
et ched
p iece
E lastic
SQL ITE
r us
Ext ent
ĠW right
G F
M EN
Ġansw ers
or al
. :
SNAP SHOT
term inal
Ġfair ly
ĠO cc
AD ER
ot er
ĠN eg
Pub lished
An n
h attan
Un signed
ĠStud ios
Ġdemonstr ated
ĠP rior
ĠH ave
Ġcon scious
Ġvar iation
ang les
Ġerr no
Ġrg b
ug u
ĠComm unications
" })
ĠL A
B US
tern oon
Place holder
ĠP ref
ĠK on
ĠĠĠĠĠĠĠĠĠĠĠĠĠĠĠĠĠĠĠĠĠĠĠĠĠĠĠĠĠĠĠĠ ĠĠĠĠĠĠĠĠĠĠĠĠĠĠĠĠĠĠ
Ġconcept s
S igned
il ine
Ex act
Ġqu oted
h ad
P F
Ġel igible
Ac celer
ĠI con
ĠPerm ission
Ġtext s
dim ensions
datab ind
SECON DS
Ġ ])
Ġcommission ed
Ġo ct
13 8
String Utils
Ġh ub
13 9
Ġcr icket
ers hip
Wait For
x si
(' _
(" {
ĠG un
__ );
ĠDen mark
W ild
Ġpro sec
B ootstrap
Ġcl ar
Action Bar
Ġcontract s
es ses
ĠRe ader
IconError Encoded
Prototype Of
M irror
Ġg ateway
Ġop ens
oper ating
on na
Re ject
Http Servlet
Ġre ign
v ik
ĠB U
ant om
x t
(" _
>> >
ĠI l
ĠC ensus
up port
ĠC lo
MO D
ST M
Ġ( âĢľ
Ġwe ar
ĠPr imary
ĠSt ill
ri ble
symbol s
Foot er
S py
ĠE p
Ġserious ly
Ġart istic
map red
Ġpres erved
S ock
ĠIS BN
P AT
math comp
Austral ian
"> :
Ġadd EventListener
level s
. ~
Ġweap on
Ġcomp ound
T ake
19 04
DEFIN ED
Fl ash
+ =
ĠB uilt
ol ished
Ġsk ill
ĠP ear
Sub scriber
Bo ard
Ġfrag ments
Ġnot ion
ĠST ATE
Ġgen etic
ĠId entity
Inter pol
mem item
stitu ency
Ġa ired
FI RST
Ex isting
ĠRob inson
Ġb ott
ĠAUT H
Element Type
B ug
Un ary
! âĢĿ
il lo
ĠH ence
Provid ers
0 10
h c
13 1
ĠC ow
Ġsus pended
Ġpol ar
ĠComp uter
ĠBy tes
Ġimpr ison
und o
ĠPublish ing
Ġcap ability
TH ON
SS ING
Ġlaw yers
Ġth in
Ġst ead
ichol as
Dev ices
= ${
ĠLim ited
Ġcheck point
im o
Ġdisc ard
m ates
x b
ĠO Auth
IF Y
13 4
Ġfoc uses
Americ a
h op
Ġtw elve
acc um
ĠSpace watch
ĠS ac
B UT
x ilinx
ĉĉĉ čĊ
z end
Ġmor ph
Ġpro pos
IAL IZ
Ġsac r
oper and
con straints
ens ing
( ?
Ġthe ater
Ġcollect ive
TRAN S
Ġcor ruption
Ġend points
ĠCirc uit
ĠR FC
comp any
ch romium
Ġreal ize
Single ton
Ġa pt
Ġdi am
ĠLI ABILITY
d ie
Ġc ipher
On Search
Ph ot
ĠHand ler
ĠBrook lyn
h space
ĠP atch
Ä Ľ
LO T
ĠStew art
ãĤ ¹
ĠInt elligence
ĠSh are
ĠP eters
ĠEx tract
s ure
SE PAR
Ġmut able
Ġmoment um
Ġfor g
li us
ĠFile s
Ġret ained
Ġthought s
m eter
ĠChar acter
ĠN UM
ĠAb d
Ġres ident
ĠDom ain
ĠResult s
Ad s
ĠG ib
Ġdelay ed
E ducation
ĠB art
ses sed
r ails
ĠCol omb
Ġsurv ived
De cember
Ġaim ed
Ġdec oder
May be
Ġgreat ly
Ġdemonstr ate
Red uce
S leep
Ġatmo sphere
} ";
è §
ĠRun nable
SP H
Nov ember
b en
Ġde mo
sp ons
Ġph p
track s
cover ed
ĠRog er
the orem
ĠCH AR
Ġexist ed
che str
Return Value
Interop Services
l ighter
"] ["
Ġst mt
ĠFIX ME
A fr
22 4
de ad
At om
Ġne arest
ĠTr ail
ĠStud ent
c rypt
target s
DO C
iss a
F LOW
Ġre produ
Ġ} }</
Ġpass enger
c andidate
ĠDub lin
text tt
ĠLib eral
ĠState ment
source forge
Ġimplement ing
Ġve get
ob e
Ġexpect ations
ĠProvid es
J NI
author ized
19 01
ĠEnvironment al
ĉĉ ĠĠĠĠ
Heading Color
Ġe poch
ĠB uff
Ġwor ship
} -\
ĠCh amber
ex act
ĠSe lection
Ð» Ð¸
is Null
:// $
auth ors
Ġar ithmetic
Ġblock ed
ĠTest ing
ĠG raham
B log
ĠN BA
account s
k b
Ã© n
ĠAut hentication
ĠImmutable List
f ocused
Mark up
Ġqu ota
ĠE valu
sl ides
J ar
Ġrecord ings
oriz on
ĠM icro
Ġnumer ical
Ġin equality
ra ises
3333 3333
Ġsignific ance
AC L
ĠComp lete
Ġcalc ulation
/ </
T ASK
ĠS umm
er ation
Ġw p
Ġreg ulation
member of
Ġmount ed
ĠDak ota
ah n
ĠU r
L ab
N s
Ġ iv
Ġgoogle api
ĠGener ator
Ġinvestig ate
Ð°Ð½ Ð¸
H ot
CLO SE
ĠRetri eve
ai ro
ĠNiger ia
Ġa ims
Ge ography
ĠIllegal StateException
ester day
room s
No Error
f act
Ã© t
mo ke
Lock ed
F s
Compiler Services
d ll
util ity
22 2
ÑĨ Ð¸
b rowse
ic ular
ĠFin ance
ĠMer ge
ĠC os
Ġmeasure ments
Ġman uscript
ĠSw ift
Ġsat ellite
cent ral
ĠF red
Ġoccup ation
V IC
Ġcomp licated
Ġro uting
V ERT
ĠPr ice
Ġinter cept
ĠMor ris
Start Time
> ?
Pro vision
ĠRepublic ans
Ġconcent ration
Bl end
Ġcor rupt
register ed
ĠE mail
Ġcelebr ated
Ġelectric ity
Per formance
Ġnumer us
ĠF ITNESS
enc rypted
Second ary
col group
8 000
og ene
Ġpul led
i ants
Ġ Ñĥ
c z
ĠH arb
e enth
ul er
az ines
Ġgr ay
G reater
ĠV enezuel
Ġimport s
Ġro se
Iter able
Ġra ising
ĠT LS
synt hesize
ĠRem oves
Ġcolle agues
Ġ ideo
In ventory
Ġsustain able
ĠAl ert
R ing
Ġpass engers
ĠB log
S IG
Persistent Volume
Schedule d
ĠH tml
Se qu
Ġoper ational
Ġinhabit ants
ĠM ars
ext ended
Ġactiv ists
Ġex cluded
Pre pare
Ġadapt ation
uct or
4 000
* \
Ġval uable
ann on
reg exp
Ġv o
15 1
Ġdecl ined
W arn
h uman
ĠC over
Ġbound ed
Def erred
G OO
d ac
vert ices
Fin ally
Ġoff ensive
m ate
h h
20 8
libr aries
T icks
un stable
ĠWith out
ĠQue bec
Ġre ar
per formance
Ġw id
Ind ian
A cl
Ġfail ures
In c
os lav
Ġem issions
ir ates
ĠFunction s
Bl ank
init With
C atch
ĠJ av
Ver bose
Ġintegr ity
R D
ĠPr act
Ġant icip
sub net
Ġv it
Cond itions
v ation
Ġup coming
Feed back
v k
Ġind ustries
( ::
Ġf ol
ĠBang ladesh
n ick
> ".
un ing
bit map
mis sed
Ġtable Name
Ġ" &
2 25
Ġsh arp
2 11
ĠO PT
un til
z es
if etime
13 3
Ġcomp ressed
//////// ////
Ġport ions
oul der
Or Update
S en
16 4
R a
sp aces
Ġh ate
ĠN ap
Ġnot ifications
Open Tl
ĠCoun ter
Ġcl usters
6666 66
ĠConfig ure
ig s
Form ats
Ã© r
d ale
Ġe gg
ide a
Resp onder
| }
ok u
G allery
M otion
f h
ĠL iving
ĠGo String
istribut ions
group ed
gener ation
Non User
N Unit
C ycle
ĠD etermin
Require ment
Ġaccompan ied
IS ING
eb ook
ï¼ ļ
m ill
ĠThe me
pro logue
mark et
ĠT CP
Ġo cean
A sc
ĠCh ampions
ĠSc roll
ĠDet ails
F our
Ġ# ##
Ġlo b
dat as
get Resource
Ġnumber Of
ĠIm perial
Ġinte gers
ass ignment
Ġconfig urations
The ta
Ġextract ed
Ġther apy
Res erved
Ġexecut ing
= */
c our
ĠIran ian
Ġc ust
ĠAg ent
Ġcompet itions
PK G
P aired
ĠK ings
38 4
qu ate
B ibliography
serial izer
Ġimmigr ants
Ġsing ers
14 9
ĠPsy cho
G U
ĠB etween
Ġ_ ("
DA O
Ġk it
ur ring
l iter
eg e
ĠPortug al
Ġh over
Qu ote
Ġcoll ision
Q String
azel cast
Print ln
ĉĉ ĠĠ
ĠC rown
at tempt
Ġcr ick
table Name
ust ic
ì Ŀ
Ġb reed
her ent
Ġtri als
ĠV o
Feb ruary
Combo Box
R F
19 03
oth y
work flow
ĠArab ia
f re
c od
ĠGit Hub
ĠM aj
Op code
Ġw ine
c ook
Ġ" ]
Block ing
Ġb link
ious ly
f ers
Ġse g
00 3
Ġres ign
Î ¯
Ġcle ared
it ations
ub er
Ġtarget ed
Î ³
ĠN ep
Install ation
ref ptr
Ġt ur
Ġmagn itude
t alk
Ġt all
and atory
ĠFor um
2 10
he ld
ĠP ad
} +\
Ġcon current
Ġmar ine
Ġac quisition
ĠIm pro
not ated
ĠBroad way
k le
In side
Ġd irty
ENT IAL
Decl ared
Ġshe l
Ġb are
Ġli quid
ĠCar ter
_ ),
am o
Des ktop
{ {\
16 6
Ġda emon
ak t
ĠMain e
Ġwarr ant
h ai
>: <
is an
ĠAn na
ĠC ole
ĠPal ace
sc ience
Ġcru cial
ĠLL C
ĠS IL
ĠPh D
In strument
: ]
ĠJ umped
Ð¾Ð ³
Ġconsider able
ĠSw iss
W I
0000000 1
G M
Run nable
} ',
Ġunus ual
ĠC AN
iver pool
uk i
ĠPart ners
Ġath letes
art icles
Out come
Ġd owntown
St e
Ġconstitution al
Ġin clusion
(" ");
INST ALL
ap on
Ġspe aker
READ Y
Ġsyn d
ĠC BS
Ġwonder ful
LE X
ĠA F
A jax
Ġ' +
Spec ify
ĠMalays ia
{ }{
activ ation
Extract or
ä¸ º
sprint f
ĠBern ard
Ġsearch ing
Ġsupp lies
ĠB loom
ĠMov ement
ĠH H
Ð¾ Ð½
Sports people
v able
ĠM ort
(' %
M ix
Pub lish
Ġ= =====
Ref s
è¡ ¨
RE L
CO PE
Ġthe ad
ĠAnn ual
ffff ffff
Pres ident
Ġdis appoint
m gr
Ġgraph ics
m eth
ĠU l
Ġpopular ity
Roy al
v ote
Def ine
}) (
Ġcolon ial
Ġdeploy ed
Ġmat rices
Act iv
Check box
ĠH il
cy clo
ĠB ootstrap
RE LEASE
J ul
us c
ĠL ane
Ġcontribut ors
oc al
Ġ" ../
Debugger NonUser
K HR
ĠF S
ĠB ool
irm ingham
Ġrefuge es
Ġt iny
arn ess
ĠB ased
ĠB attalion
Ġpersonal ity
ĠArk ansas
Access ibility
Ġ$ ('
Ġarg ue
Ġh ip
Ġde als
ĠF el
ĠP ap
math scr
ĠT imer
18 80
Ġhigh way
Ġdiscuss ions
pro cessed
cred it
ĠNav igation
v ens
ĠP assword
Ġsur prising
Ġbas ically
r ac
st udio
ve locity
Scal ing
disambig uation
Ġcomp ress
Ġcopy ing
contains Key
R oman
ĠT ob
ĠCl in
Ġobvious ly
Inter ceptor
ed e
ĠC ook
Ġpost er
ĠEd inburgh
bind ings
ĠB order
L M
T om
ĠOpen SSL
Ġt p
ĠBro thers
Ġimag ine
13 7
contrib s
Ġblock ing
Ġreve al
ĠS peed
M AND
K ube
} ));
Ġhealth care
ular ity
pre sto
cc c
Ġthreat ened
col lapsed
ĠURL s
Ġcaref ul
ĠLem mon
lo on
child Nodes
N ay
Ġs ampling
ĠS imp
Ġsaf ely
on line
Ġglyph icon
Ġchalleng ing
ĠB uck
Ġg iant
ĠV ancouver
B ob
æĹ ¶
S y
Ġg ate
Ġdocument ed
SH ORT
Ġpred iction
Tr ust
Ġactiv ist
Ġconsist ed
G I
Pl ane
M art
Ġpurs ue
ION S
Ġh opes
lic ity
Ġcoin c
ĠMETHO D
he at
External ProjectPath
Bro adcast
Ġactiv ation
ĠS afe
Ġimpro ving
19 02
det ach
e se
mar shal
) ::
Ġj ury
str cmp
we ights
atur ally
ĠV iol
ĠNot Implemented
ĠAn imation
ĠCommun ist
ĠS lo
Bl ur
ĠBe ijing
m ass
ant i
ĠF ried
D ark
do jo
SPH INX
ĠRe place
Cap ability
å Ģ
ro ph
ĠMax imum
ĠSp ark
Ġtouch down
b anner
Ġind irect
an ion
Act ual
Ġre loc
ĠSing h
om eter
D eb
an ne
it udes
Ġinter views
T urn
Ġ( ,
Ġget Default
ĠK it
Ġsur pri
Ġt ies
M appings
>< ![
15 4
am ents
W ay
ĠT X
Ġask s
ra id
ĠP i
Ġdo ctors
Ġre b
ĠF ern
; :
er gy
Ġs f
g ender
ĠCamp bell
Ġc rypt
em ale
Code Dom
G PIO
it ness
S ensor
s al
ĠH ope
flo ating
it is
Ġun f
ĠF BI
und a
Ġdem ands
Ġstay ed
Col s
j vm
Ġl n
ĠDr ive
ĠS N
Ġpaint ed
}} _
ĠGr ay
F ULL
ÑĢ Ðµ
Ġfund ed
Ġtim ing
ĠLank a
k afka
th a
linked ExternalProjectPath
"> -
Ġst em
key down
Ġret Val
ĠM UST
C ause
ĠUS ART
off icial
qual ified
TRAN SL
en de
ĠH ell
Runtime Exception
< '
S chool
Ġab c
ĠPri x
Å Ľ
ĠK night
RE PL
par allel
p ersist
Ġrespond ed
ĠPortug uese
Ġany more
Ġinterpret ed
) ")
ĠSquad ron
ĠArch ive
ĠFreder ick
Ġdialog ue
al ic
end um
Ġ| ___
S ynchron
ib lings
Ġtot ally
ĠC arn
Object Type
Ġhelp ers
tr aining
, [
V m
ces ses
B ecause
in os
in ja
ĠEn umer
Ġminor ity
Ġb ars
ĠRep resents
Ve locity
Ġpoint ers
subscription Id
Emp loy
rt c
Ġarr anged
depend s
ann es
Ġform atting
ib bean
Ġjust ify
20 23
)) ]
14 1
Ġsurv ive
Ġcol s
IDE O
ĠA rr
ric ulum
Ġequ ally
Ġpredict ed
r te
Ġthe ories
Integr ation
c ock
g row
n ational
D ROP
F Y
ĠByte Buffer
Ġbl ind
Work ing
Ġ? ></
ĠP il
ĠS ex
U CH
Order ed
CONTRO L
comp leted
ĠD ance
f lix
Ġh ill
C fg
ĠAnd y
Ðº Ð°
qu arter
æ Į
Ġdef er
ro ach
Relation ship
OPTION S
Ġ ride
} ");
14 2
Ġland ing
H alf
act ed
sh im
Not hing
Ġw s
ĠDr iver
ĠB ab
Ġs outheast
ge on
DO MAIN
Ġn b
60 1
Ġident ification
in el
Ġprofession als
ul u
ĠE mb
Start up
in herits
ĠAct or
ãĤ ĭ
In variant
Ġst y
sc ill
Ġphot ography
n f
Ġexc iting
Ġ// $
ĠCh anges
Br and
Ġprint ing
Ġm ysql
initial izer
Ġ ĉĉ
co ords
C ancellationToken
p ix
RE SP
ĠT ar
Ġgener ations
Des pite
Ġrad iation
Ġse venth
inter action
draw er
} >
Ġb le
ĠPit tsburgh
semb ler
INCL UDE
Ġinflu ential
Ġconven ience
Ġchunk s
ĠJ enn
14 8
Ġ[ &
STR A
ĠA CTION
ĠSe veral
' =
Ġr hy
Ġb eta
Ġdis ag
Ġed u
SCHE MA
hy per
Ġmet res
ad v
trans lated
IC Ag
Ġas ide
Ġbase line
DO UBLE
d h
Offset s
foot note
at in
ĠM ess
Ġmem orial
ĠChar lie
pro j
Ġuse Capture
Ġserial ization
ĠB apt
ne eds
ĠStud ents
ĠPRO VID
ĠLear ning
è¦ ģ
T ur
Ġo w
Ġga uge
Ġcross ing
Ġlegisl ative
r p
Ġdecre ase
Ġun do
ol en
ĠB ot
Ġ' );
Ġcom ed
rem aining
A cade
Ġv ital
Ġful fill
Ġ( @
ĠG OO
ey ond
built in
Ġe igen
BUILD DIR
} ">
ent e
Ġorgan isations
compat ibility
Ġkil omet
Ġdec ay
Ġsympt oms
| ^
Version UID
ĠText ure
ĠE mit
inst alled
Ġcred its
IB LE
f ork
Ġlength s
Ġrec ursive
back s
Sec ure
Produ ction
} ))
ĠGir ls
Ġf at
dr ive
Ġcharacter istic
Ġver b
Ġh at
f ar
Ġindex ed
Ġsv g
ant on
Ġfarm ers
Decor ator
Ġarch ae
Ġre load
Rest art
ex change
ĠComm ander
v g
ĠM ong
Con stituency
Ġprepar ation
ĠNaz i
xy gen
r df
ĠCamp aign
Enc rypt
Ġintern ally
ch arg
ic i
ĠM os
Ġv el
acc ordion
ĠAg reement
ĠBlock ly
claim er
Ġent hus
PO M
Ġisol ated
oo led
VO ID
| .
END ING
Ġcoeffic ients
List en
Ġcirc ular
Ġdep ict
Â »
ĠA lice
Http Client
ĠDet ermine
ST ORE
Ġagr iculture
S V
Ī Ĵ
Ġover write
S am
dispatch er
ĠUn iversal
min i
insert Before
Ġill ness
g wt
em q
) }{
Ġg arden
Ġf t
Ġsub class
Ġw atched
http Response
Ġknow ing
ĠL GBT
Ġsu cc
al ph
Rep licas
O bserv
Ġ' ../../
get Bytes
Ġde lim
Ġdef ence
sh rink
Count s
ev a
Ġs oph
as se
Ġdef ensive
leg ation
Ġ ib
Inter preter
inv ocation
e asy
ĠU rban
Ġprepar ing
pre dict
ä ¹
s af
Ġd ating
Ter ms
Ġbeg un
Ġc f
et ies
OO LEAN
ĠLine ar
er ver
man age
par s
Ġgovern ed
Ġreli able
ĠCommission er
ok emon
Ġbase s
Ġnewsp apers
Th ird
Î º
Ġens ures
Ġpro tests
CK S
4 80
t iny
il og
ĠR ick
Ġd d
ĠN ature
Ġt act
Ġcond itional
Ġpass age
Drop down
al bum
Q R
Ġs urname
Ġre name
ĠÐ½ Ð°
Ġpr on
ĠArch ives
Ġcontrovers ial
Ġb att
ad ic
por al
ĠMic hel
Y ea
Ä Ł
Ġsp oken
Ġinnov ative
um ph
Ġfru it
em b
Ġb s
Ġlocal s
ĠJ OIN
d ue
ĠĠĠĠĠĠĠĠĠĠĠĠĠĠĠĠ ĠĠĠĠĠĠĠĠĊ
Read able
ĠDef inition
P N
Ġconv icted
ĠM ask
Ġch at
cut s
ĠS to
+ (
Pub lisher
ĠMan hattan
Ġw ider
Pointer Exception
Ġsimult aneously
Ġb orrow
Ġ` $
Ġret val
Ġres ume
ĠSh adow
Ġso il
Ġconn ector
ĠR io
ĠW oman
ex perimental
Ġph arm
ĠMarg aret
j peg
Ġ ist
Ġlif ecycle
2 32
ãĥ Ī
ĠUp per
Ġprom oting
get s
model Version
Ġc ul
Ġag es
Ġt ie
ĠD ir
on load
Ġrep air
Be h
ĠPer iod
ĠOrig in
od ge
). __
Ġcoun sel
Ġdiv isions
Ġdiscrim ination
file path
ĠSy rian
ĠV ik
Ġt i
ri ev
ĠC rypto
Ġinter active
get Content
Ġr anks
Ġvis its
id le
class ic
ĠBo ys
ov o
ĠDeep Copy
ex clusion
ĠFin n
n ecessary
TR IG
Ġm el
Ã³ w
effect s
ĠV egas
Ġguid ance
ord inary
ĠW ard
Tele vision
Ġlimit ation
]. [
ĠP atri
tribut or
Ġre quiring
An imated
Ġdom inant
Ġrepeated ly
Ġth orough
con tract
': '
Sc ott
lear n
t oday
ĠAT TR
Recorded Vote
Ġaf ternoon
. ).
open ed
Ġp d
char Code
Ġpos session
ĠGL float
Spec ification
t own
Re comm
ĠĠĠĠĠĠĠĠĠĠĠĠĠĠĠĠĠĠĠĠĠĠĠĠĠĠĠĠĠĠĠĠ ĠĠĠĠĠĠĠĠĠĠĠĠĠĠĠĠĠĠĠĠĠĠĠĠĠĠĠ
mark up
ĠDel hi
i ative
un i
UB E
iv ic
ĠComp ile
ĠSch olar
** /
ĠM C
ĠUp on
Ġs cre
og a
ĠB ulg
Ġan imate
Ġr x
Ġenc rypt
k an
ĠW ind
ĠL ieutenant
ps z
Y M
ĠC ultural
clus ively
ĠRep ository
C ES
Y LE
F K
es lint
ĠTh ailand
SO CKET
ith uan
ĠQ ual
ĠCl ar
ĠĠĠĠĠĠĠĠĠ Ċ
Group Id
Ġdam aged
å ¾
ĠM SG
Type Error
ĠSh im
åĲ į
Ch ina
Ġcon fer
Ġren ov
Ġip ut
NS Mutable
return Value
MODE L
pl aces
ak u
oth s
W ISE
Ġcon dem
ĠCons ider
ĠK u
Ġdemocr atic
gress ive
ĠSTAT US
Ġ" @
Ġbro ker
cert ificate
re ck
null ptr
cr im
F ixtures
hom epage
in ch
raw ler
ic ast
Or Default
Upper Case
Ġdis aster
Ġre nd
ĠU SS
date Format
Ġm irror
Ġan cestor
Token Type
ĠPh one
Det ection
t id
Ġd iet
Del im
Ġto ugh
ĠW r
Ġco ord
c annot
Send Fields
off ice
Ġas ym
full screen
Ġcol leges
++ ){
Ġcheck box
asm ine
V ill
Ġsh apes
Ġref lected
INTER FACE
UR ATION
AV A
Bro ker
ĠBrig ade
Ġf irms
Ġdata Type
U IT
Ġs ick
Ġoccasion ally
field Name
Ġbe am
ear ing
F W
ĠInput Stream
ow ski
con c
enu ine
Ġun like
ĠFin land
/ ",
N LS
Ġcom ma
ĠA ch
Ġpr ay
ĠF ill
Ġth reats
ĠB atch
Ð» Ñı
Instance State
Ġg olf
'] :
SA FE
h arm
Ġel der
sv n
Ġath let
Ġdisput e
re tr
Edit able
ĠL ength
s us
Ġd ated
ĠMont real
ĠMur ray
ĠF ight
"] :
List Result
Ġd iagnostics
ĠF ailed
Comp ression
Pol l
Ġconvention al
Ġreve als
er als
ĠBrazil ian
comp uted
ĠUn known
Test er
position s
Ġde puty
Ġproto buf
")) )
v est
Error Message
ĠP ossible
RAN GE
Ġmem cpy
Buffer Size
Ġvary ing
Ġitem Members
ĠC T
ĠN am
orient ed
de la
Ġch o
Char acters
Ġamong st
av g
lo d
currentTime Millis
P ressed
l ater
ST OR
Ġaccompany ing
}) ();
RE EN
ĠInd icates
Middle ware
; (
et ics
Ch an
ĠT alk
ĠJim my
æ Ń
as ant
int ro
IP S
Ġre dis
ĠP or
ĠH ockey
urs ing
mark down
et on
ĠO t
re comm
Draw er
Ġpan els
Ġdifficult y
Ġrel ax
ĠTime out
ut ures
m illion
Ġown s
ĠLeg al
ĠDo ctrine
Ġemer ged
Ġnegot iations
Ġwor ry
Ġqu ot
Ġnot ably
ose x
ĠL uther
ä ¼
18 98
ĠWar ren
Mod ifiers
Ġn an
ĠC K
cc a
class v
ĠW ol
è¡ Į
ĠPolit ics
M id
Ġpre dictions
Cent ral
Ġg em
Ġterror ist
C riterion
ĠW A
Ġth irty
Ġtr iggers
dir s
SA MP
ĠCOPY RIGHT
Ġeng agement
ĠG ENER
ST ER
Ġpro spect
ĠChristian ity
ĠM eg
Of Type
Global ization
da o
r ising
ĠDan ish
Ġexpect s
2 12
erv ing
BUT TON
20 5
CCCC FF
f ab
ĠB ed
STRA INT
Ġp x
oid s
ĠGu y
CI AL
w hel
be am
Ġre lay
ish ops
w char
dd ie
Ġform ally
50 1
] '
Ġne utral
ĠS S
Ġover rides
------------ ---
AM D
H our
Ġcontribut or
ĠIn dustry
Ġcap s
lect ric
Ġb ul
Ġ<!-- [
;" |
activ emq
ro ut
unc ated
ĠAdmin istr
ĠV ec
ĠH ero
sc oped
ĠArch ived
Ġtool bar
k v
S olver
Comp uted
fold ing
ne e
Ġsuccess or
ĠCr ime
urric ane
Ġdire ctions
P ersistence
il iary
Ġ` <
Ġbelong ing
Ġpro be
dis miss
uplic ates
Ġp seudo
get Mock
r st
parameter Value
Ġqu otes
Up grade
Top ology
Ġemph asis
Wh o
Ġgr ants
m isc
Ġsurround ed
C nt
ĠF un
ack ets
Ġget Value
plus plus
Ð ¡
ĠT ower
Ġdef ect
Ġmod ifier
ĠB aker
cre st
client s
abul ary
18 70
l v
é Ļ
Date Format
Ġchar ity
ught ers
Ġpack ed
develop ers
L i
Sem antic
us ive
Ġb b
get Column
Ġe co
ĠC atal
an imated
Rout es
Ġstrong er
ifest yle
LI BR
ĠQu ant
B LE
oc ent
W alk
al ib
Ġsub scri
SEPAR ATOR
213 07
AIN ER
AL TER
ot he
ield s
Ġslow ly
ĠEv ans
W ER
ĠN BC
ins pect
ane an
ĠCal culate
ĠCon verts
j p
sp rite
re pr
EXT ENSION
Ġb ird
Ġsc aled
({ "
Ġproceed ings
Ġch ampions
Document ation
Qual ity
Ġpoint ing
Ġinit iated
R en
Ġf iscal
g al
Ġpl ural
ĠMon th
Ġd ust
Ġgr ass
& )
ub les
em or
ĠP H
Ġbind ings
Ġex ha
Ġtr uck
Ġfrequ ent
b etween
vert ed
ine a
ĠTai wan
ĠDA MAGES
at trib
ĠG ot
:" -
Min utes
In Progress
ĠHamp shire
umb le
Ġclip board
able View
Del ivery
Ġsomew here
ĠIn deed
M aint
Ġcall able
æĪ Ĳ
ĠStan ley
b ulk
40 3
Qual ified
Ġc able
Load Balancer
Ġcelebr ate
( ["
Ġd Ã©
æķ° æį®
ĠSt and
( ...
7 50
Ġmod ifications
ĠINCL UDING
sw ith
Ġcast le
ĠS PE
^^^^ ^^^^
Ġpack ets
Ġbe ach
Ġstart Time
Check sum
Ð Ĵ
R V
Ġh oliday
ir s
PASS WORD
el ines
ĠTh er
Ġrare ly
An alytics
Ġnam ely
M ixed
Ġun likely
Ġident ifying
Num bers
Off ice
Ġcon str
ĠU rl
Ġfoc using
Ġw idespread
Ġset ter
glew GetProcAddress
ĠO bserv
\ ">
sw iper
X HR
or ous
ĠIgn ore
P ing
Ġexpl oration
Ge orge
ĠT IME
Ġexpand ing
Ġwe aring
Ġpre decess
Local ized
ĠSH ALL
rem oved
) ])
B ill
Ġd iagn
Ġrep lica
= $(
ip v
Ġsub stit
im ator
M ilitary
ĉĉ ĠĠĠĠĠĠĠĠĠĠĠ
ac re
}, {
bas ename
UT ION
Ġco ffee
inter pol
Ġpos sess
Ġking dom
L V
Ġaccomp lish
H uman
Ġass ass
ĠOr thodox
: {
Ġnom ination
E AR
15 8
ET HER
36 5
inal ity
ay an
ĠSt orm
n ear
Ġj q
ĠPre vious
Ġtx t
ĠV e
J o
Ġapp ended
Ġrank ing
M Y
ham mad
ĠPROVID ED
res ume
ĠVi enna
Ġh ass
ĠH end
chi at
ce il
if s
Ġdetermin ing
ĠF irefox
s ynchron
c ms
ĠT an
ĠB achelor
Ġmin im
b ird
Ġassum es
ĠUkrain ian
st ation
ĠUp dates
Ġb acter
Ġb attery
HEL P
q s
17 6
net t
^ (
art z
ins ula
ach inery
Line No
as ions
Ġste am
s ites
map reduce
Ġround s
E t
Ġcomp osite
Ġc line
30 2
DF S
Ġpro ven
ve al
Ġco ords
x path
op ic
Ġstruct ural
Cl ub
ãĢ ģ
ation ally
ĠCred it
Ġinter vention
serv ers
Ġbio logical
ĠHawai i
ig ion
ĠP rad
cell s
je ctions
Ġre aches
:: __
dis connect
Ġestablish ing
f req
ãģ Ĺãģ
Ġsub net
ĠPro vider
Ad vanced
G lyph
With in
ah oo
ĠR and
uss ia
Dev Div
åĬ ł
Ġem ission
Ġab b
ĠCom ments
ag gregate
iv an
15 7
d bo
Ġbefore Each
Ġle ase
b ac
Ġsuper ior
(/ \
Ġbuffer ed
ĠZ ero
Check Box
ack ed
hard ware
R ussian
ĠMag ic
ĠMon o
is olate
Comp act
bro adcast
ĠT amil
ĠJ azz
% =
ST ACK
Ġannounce ment
ĠBen jamin
ĠA lt
Syntax Kind
Ġann ually
g ow
ĠL iverpool
Resource Id
ĠØ ¨
ot ypes
ĠC arr
Not able
Ġuser Id
ĠAlf red
t icket
s andbox
ad apt
Ġ} \
spec s
ĠArg uments
ĠP aint
Ġact ivate
Ġrecommend ations
Ġc um
N ever
Ġchar ter
ĠS now
ĠC IA
or ro
Ġ> ::
stat istics
Ġir re
ĠE lection
( {\
ĠD ol
k u
)) ))
ac les
ĠH ook
ĠWel sh
dev tools
ATE G
align ment
que e
Ġ" ."
oc c
Ġor bit
ĠR y
ĠB irmingham
ĠA B
"] );
N ear
) }$
up pet
é Ĺ
Dr ive
c make
ĠK ath
15 9
Re verse
Ġmaint aining
Ġbox es
G PU
get Child
Ġap artment
ĠStat istics
ĠÃ ī
Class Loader
or o
Wh itespace
ĠMet ropolitan
H ours
Foot ball
r in
ĠH IV
(" ../
Ġaccess or
. %
Ġpo em
8 75
Ġimpress ive
æ Ģ
Ġcontrovers y
Ġfeel ings
Ġtest Get
CO UN
Fac et
render ing
Ġf ib
:"- "`
des erialize
ar us
Require s
Ġc up
Ġge o
c ipher
Ġfl ux
Ġf oss
Configure Await
Ġin depend
ĠH lo
ĠSe quence
Res ume
Ġ` .
ÃŃ n
Ġstat istical
Ġx s
ÏĦ Î¿
ĠG reater
Re search
Ġatt ending
ĠA rena
Ġrecover ed
Text Box
Ġbound ing
no indent
Call er
Ġm ime
Comp osition
ow ired
Ġdevelop ments
ĠED IT
Ġaccept able
\ }$
ĠAl ways
Offic ial
Ġint ensity
Ġag enda
Dis posable
Check point
ĠR ules
ĠJ oint
ac a
Ġtalk ed
Ġwound ed
ĠL ex
J oint
Ġh ls
itte es
Ġt il
V iol
Ġdis s
Ġpres sed
UST OM
Ġs overe
Ġt unnel
ĠP un
ĠSte ven
doc utils
Ord inal
get ter
Ġm arch
get Parameter
ĠU LONG
ip y
Ġbelief s
ĠR ain
Ġiter ations
Par sed
U ART
IN F
ĠAssert ion
fall back
Ġclaim ing
Ġover ridden
urren der
p ressed
end ant
time zone
m un
Ġon mouse
ĠTre as
j ournal
it elist
remove EventListener
Ġsuper Class
ĠCons umer
en z
Evalu ation
Ġr and
pack aging
ĠI an
L int
Ġmechan isms
Ġpop ulate
B i
US ART
deep Equal
un expected
#### #
he ll
ĠM other
ĠV k
Ġview ers
Ġdistribut ions
Ġperson ally
Ġfilter ing
Ġf iring
An onymous
Ill uminate
Ġro l
APIENTRY P
Ġm a
sp arse
IFI ER
d oxygen
ĠPro to
Ġexp ose
port al
ET A
ĠG las
cord ova
Dynam ically
Ġstr ange
l x
ĠB es
il ib
ĠT rip
Ġi NdEx
un wrap
Ġemer ging
Ġno op
ĠMar ie
qu ake
COMP ONENT
ING S
Ã¨ re
mid i
consist ent
p ine
Jap anese
Ġb t
ĠGe o
' %
ĠB illy
ĠP anel
Ġc amel
PL ATFORM
ĠFile System
Ġreported ly
friend ly
ĠĠĠĠĠĠĠĠĠĠĠĠĠĠĠĠĠĠĠĠĠĠĠĠĠĠĠĠĠĠĠĠ ĠĠĠĠĠĠĠĠĠĠĠĠĠĠĠĠĠĠĠĠ
Ġdis sol
Ġd ress
ĠP ast
(' ');
B ench
C lo
Ġ$\ {
Ã¡ s
Operation Kind
ĠCar ibbean
ĠHung ary
Ġ( +
subset eq
Ġsh allow
s lick
Ġam et
WR AP
Ġfiles ystem
P ers
Token izer
Access ible
Ġh ospitals
Ġwith d
ĠColl ins
H A
s entry
ĠPr incess
Ġexecut able
Ġrom antic
Ġmk dir
Inter action
ĠBE GIN
c plusplus
ĠB arr
ash i
B oost
Ø ´
ĠEn cyclo
Ġtheoret ical
æ ģ
20 6
n m
Ġdec oded
FILE S
Register ed
_ "
ĠRev ision
Ġlab our
Qu eries
P ivot
en ames
Ġsw iper
ĠElect ric
× ©
re z
pt ic
Ġdo ors
MB OL
Ġinsp iration
f und
CT X
ĠG R
ĠT Type
spec ies
Ġtrack er
Ġb one
xy z
/ ${
card s
YY YY
C our
18 00
Ġact ively
con cept
LA PI
Ġmonth ly
WINDO W
remove Child
Ġtermin ated
Ġm eg
Ad apt
Anim ator
LOC ATION
A verage
18 99
play ing
ĠL ag
Auto Fit
Ġliter ally
ĠB ron
ml ink
Ġsepar ately
ĠB ou
sub scriptions
Lev els
Ġ è
Ġun a
provid ed
ĠAr n
ĠThe ater
({ '
Ġqu adr
ãģ «
ib us
ĠSerial izable
Ġsupp ress
Ġcol lector
Ġc ous
ĠPro test
Ġm issions
Ġto x
atic s
iter ate
Ġcre ator
Ġcompet ing
h ass
ĠLe aders
utr ition
ĠT EXT
W heel
b ai
class Frame
Î ®
Ġs chemes
TOOL TIP
Ġt t
Ġb ullet
ĠM ack
cre ator
ins ide
ĠR ico
Ch oose
97 8
FORE ACH
Can onical
ub a
ĠK o
" \
S aved
Ġpra ised
ĠC ancer
Ġcon verter
OP TS
f an
D N
Node Type
ĠSaf ety
Ġtrans mit
Input Widget
Ġh istogram
Ġc t
Ġdes ert
Ġven ues
Ap pro
SUP PORT
Ġs le
imp licit
Ġdep ression
Ġda ughters
em ies
ĠIgn ite
ĠE V
Ġst derr
no op
Ġmand atory
ĠP S
Ġprogress ive
ĠCONT ENT
Ġs phere
n at
th y
Ġint ense
to gether
let t
Ġback ward
ĠPhil osoph
Type Id
ĠM age
Ġver ified
lic al
ĠFl ash
Ð ¶
Ġdistingu ished
soft ware
V ATE
Ġj et
A mb
He art
ci pl
ĠW olf
g ent
Priv ile
W as
ik es
P arsing
Ġde liber
m art
Ġem itted
m v
å ·
Ġinv olve
ĠAR M
ĠAd vanced
cont rollers
Ġtest im
ynam ics
MEDI A
Ġsub mission
Ġt ropical
is Object
Cre ating
s To
Ġexp ired
imit ives
Service Client
F lor
Ġdis connect
id al
ĉĉĉĉĉĉĉĉ ĉĉĉĉĉ
s chool
Ġc rown
eh icle
ĠV a
Qu ad
ĠLe ader
vis or
ĠE asy
Ġde emed
Mock ito
table View
Ġbench mark
Ġnav igate
Ġtermin ate
Ġtemperature s
ĠCh allenge
ĠRel ations
ĠLegisl ative
Ġper pet
ĠMon te
, (
number Of
Ġex ported
Ġtrans l
Ġmem or
comm unity
event Name
Ġven ue
15 00
Ed m
ĠArgument NullException
Ġb ag
Ġres igned
ey er
roll ment
Ġ× Ķ
IsNull OrEmpty
Ġfant asy
ĠLog in
F i
Â ·
Ġr ub
Ġarr ive
im ir
ĠCh ron
ĠW riter
_ *
Ġcon sequence
Ð°Ð ²
Ġexpert ise
bug s
ĠDecl aration
As sets
Gu ide
Ġabort ion
ass igned
op ol
EN O
CF G
sr v
ĠD ays
Ġmix ing
Ġp a
Rec overy
Ġv ic
ĠM is
Ġto m
Ġh ist
Ġback wards
ĠM edit
i ors
text Content
Ġal arm
test case
DebuggerNonUser CodeAttribute
Ġf ishing
B ur
ĠM ind
ĠT C
cont aining
Ġspecial ized
Ġequ ity
Ġref erring
Ġca ption
Ġtra its
Ġst ere
ĠPh oenix
Ġst ride
Den ominator
ĠUn like
start Time
U X
SE ARCH
Writ ten
ĠUs ers
p refs
Ġrep lication
ĠChar lotte
D eg
str len
def initions
Ġconstant ly
66 6
ĠBer keley
pack ed
Ġmain stream
Web Contents
Ġess ay
Ġarrang ement
ĠE L
19 3
Ġemploy er
be ing
SC A
ĠMit chell
G ap
Ġt one
Ġsearch Box
rg ba
Ġserial VersionUID
L atest
G old
GLE W
Ġyield s
à¤ ¾
ĠHttp Response
ĠN AT
|||| ||||
Ch o
f ixtures
Ġm os
B ubble
amp s
get Request
ĠF light
ĠAR ISING
ĠProf essional
Ġfru str
writ able
Aff inity
Ġ\ (
i ating
ĠPark er
abb rev
k r
Ġwh ilst
D EN
onom ous
ĠVert ex
Ġm b
Ð¸ Ñģ
Ġgather ed
file Path
æĸ ¹
Ġsurv iv
Real m
Ġexam ine
source LineNo
new Instance
new command
ru id
Ġmon ument
rep resent
L AN
="@ {
per ience
co ordinate
=-=- =-=-
ĠAl aska
ĠData Type
Ġassum ing
Ġdis miss
28 0
Not ifications
Ġsl ider
assert Is
ig ers
ĠC V
ol ia
Ġform ing
Ġc x
f iction
ICAg ICAg
ĠR oll
As pect
Ġdis order
Up dater
Ġcontext s
Ġsh ipping
T rade
ap ro
Ġper ception
Ġrem ind
Ġadjust ed
45 6
Ġstrict ly
In herit
Ġcommun icate
ĠBar bara
mod ify
tr m
ĠR OW
Ġhelp ful
Ġterr itories
ĠS plit
Mon o
Gr ant
Ġtrad itions
Ġrec ipients
P ick
Ġn pm
p ym
Ġ ----------
cho ices
Ġdom inated
Z ERO
3 30
P rior
Ġpro files
Der ived
g log
Ġfor k
ĠTh or
Prec ision
Ġvot er
mir al
S nap
Ġvulner able
ĠC row
ain ter
k k
Ġan alyst
18 96
Ġparticip ating
Ġcol lapsed
Ġafter wards
Ġatt itude
ĠCl one
Pre parer
bound ed
Ġb ishop
Ġhuman ity
`` ,
h yp
>& #
W P
ams ung
Prob lem
Ġassoci ations
ĠAng ular
ĠCub a
Dynamically Linked
J ew
ĠCons ervative
lement ary
Ġrow span
23 4
ĠEX PRESS
DynamicallyLinked Library
ĠLI ABLE
p ossible
Å Ħ
vent ures
ap l
Ġg all
up iter
i am
ue z
ĠCl imate
Ġconsist ency
Fact ories
ol ine
Pol icies
Ġguide lines
PRO GRAM
Ġ} ];
Ġpl ug
Ġun e
writ ers
quot a
Ġover lap
Ġgr ace
Ġcut ting
Ġguest s
Ġcons ume
unit test
nav igator
1 200
yy yy
æĸ °
Ġt ex
å¯ ¹
s ensor
ĠBl ues
Ġsepar ation
A ML
pos itive
Alex a
8 90
I ce
r ice
ard own
ĠS ig
ĠF ant
For Testing
7 20
im ag
Ġsc ala
Ġfac et
hib ition
A ck
B attle
ĠPh ysics
ĠPort land
Ġterror ism
Ġt ap
fr amed
DC ALL
ct est
ĠCont ains
BIN ARY
ĠC er
Ġcoast al
ON SE
Ġdatabase s
Ġadmin ister
Ġclo ses
scal atest
J ournal
IL S
Illegal ArgumentException
Protocol s
Ġv endor
ir l
Build ing
name of
Ġside bar
jav adoc
ĠKar l
F riend
ĠIn clude
Ġsub stitute
Ġcampaign s
Ġmount ains
ĠC old
Comb ine
ĠJohn ny
ug g
SE QU
ĠH ad
pro g
execut ions
ĠEgypt ian
PRE V
Ġt ape
NS Dictionary
t utorial
ĠĠĠĠĠĠĠ Ċ
Ġd c
ĠP ictures
Ġcomp aring
ĠIter able
18 7
Ġout comes
Al arm
ĠProdu ction
ert on
cre ts
duc ational
ĠF isher
Al ive
Ġapprox imation
Ġtop ology
Ġscen arios
ĠIraq i
ĠHung arian
ĠC NN
TE MP
om on
it ime
tex trm
ebr aska
Ġimp osed
Ġch rom
ĠCom ics
em a
ĠDen ver
Ġre use
ah l
Sc enario
Ġfile path
con version
middle ware
ĠWar ner
× Ĳ
S ens
ĠP aper
è ¨
ect l
part icle
Aut owired
Ġt um
Ġc rop
Ġh ang
Ġis olate
set Enabled
Ne ed
f ive
M iss
ç ī
Ġlo ose
ĠS ent
defer red
om at
Ġurl s
Ġcontribut ing
N Y
ar ms
Ġo x
ĠS oul
or ship
18 60
P eter
ĠEx port
}} _{
Ġdise st
ĠCon cert
ynt hetic
Ġwer en
ĠF ine
Ġloc omot
d ensity
ad vert
ĠT ib
Ġreg exp
ĠE lastic
inst ein
ĠMad rid
ament o
Ġqu it
ar ith
ĠP ow
ave led
li ers
Ġcons ensus
bor ough
G G
C li
in struction
Ð°ÑĤ ÑĮ
Ġs uff
ĠI de
og g
ãĢĤ </
REG ISTER
ĠJeff erson
C MAKE
om ed
append To
ĠT AG
Rec order
Ġvalid ity
Ġ# [
;-> <
ĠCatalog ue
get Num
Ġex clusively
Dis c
Web Kit
m itting
tes y
Ġuncert ainty
Ġd rew
Ġdyn asty
Aud it
ĠT ed
ĠR ing
PACK AGE
ĠP ent
Ġbirth day
WAR D
Per form
Ġdecl arations
Ġsm allest
d raft
Wait ing
ĠV eter
Ġsub section
Ġreg ulatory
Access Token
p assed
~ $
Ġoverse as
Ġat tributed
ik o
P ixels
Ġres erv
Ġpl enty
Ret ention
Cell s
T s
Ġtr ick
Ġhighlight ed
ĠEcon omics
ub ectl
ĠD J
ĠHind u
Se ed
Ġid le
ĠCall ing
Ġconven ient
Ġch ron
Sub scribe
ĠThe ory
l ifer
ĠWay ne
ol utions
av it
BYTE S
SING LE
Rec v
Comp uter
Ġfore ver
ĠG row
ec ko
Ġget attr
ick en
open ssl
Ġl ights
ĠF etch
C amel
ĠSpec ific
Ġdev oted
ograph ics
C ipher
ĠUnsupported OperationException
st or
Ġw elfare
ĠSe pt
ĠSQL ite
J O
close st
Ġscient ist
Ġexhib it
L atch
g fx
& ,
D st
AB C
un ning
is abs
ME T
un is
Th rift
Ġdepart ure
Mag ick
err anean
n od
DIRECT ORY
M ATH
Ġa jax
Con sum
Ġiniti atives
c aster
Ġover whel
>: ][<
Ġshop ping
ix on
C ARD
Ġbr id
Ġdat asets
æģ ¯
>? [<
? '
or us
xxxx xxxx
F raction
Ġaffect s
ĠSh ah
it ution
ĠClass ic
ĠSh a
Min or
ug oslav
ache l
ĠTri b
ĠL ooks
M IL
Ġr anging
w c
Ġ âĢĻ
Ġr ivers
final s
Ġd p
s omething
pro vision
b uff
k ie
il ateral
Ġd ialect
decl type
RO LL
Ġsp ir
ĠS ay
ĠRE F
Click ed
NS Array
ĠR ank
ä½ ¿
K ing
f abric
Sh op
ĠSt ars
18 95
Fall back
ur u
ĠO il
LE CTION
Ġaud it
ĠF ab
E F
get State
Ġport folio
enn ial
is Set
ĠInt Ptr
Field Type
å ¸
G uest
RE SH
.$ $
" '
set Timeout
Ġlik es
ĠRobert s
web site
Ġden otes
bro ker
Ġrepresent ations
enc ia
G UID
Ġse ctors
ri um
Ġnew er
C ourse
ç ¤
Ġun employ
Ġstr m
Ġinc idents
Ġper ipheral
Not Supported
header link
j ena
< \
ast ery
eb ody
PH A
ĠR ud
lear ning
ĠRail road
. ]
Ġin struct
, &
en berg
ĠCom b
Leg end
ĠAust rian
Ġpart ly
Ġarrang ements
Ġtempor arily
get First
Ġdisap pe
Ġto w
User Name
ĠR ugby
Ġun w
Ġsurpri sed
sp her
uk a
inst ant
ĠAnt i
ul i
be low
Ġgraph ic
Rot ate
ĠG em
c ookies
ad vanced
Log ic
fac et
ĠT ouch
mod ern
Ġtri angle
Ġcharacter ized
ĠTurn er
Ġread able
Ġvis bl
E V
å ī
St eps
Ġun iqu
Ali ases
ĠResource Manager
Ġsk ipped
P ersist
ĠFR AME
Ġ --------------------------------
illi ant
Ġdom ains
App s
æ³ ķ
c ancellationToken
Co ords
process ors
Ġsent enced
Ġveter an
f lip
ĠIn nov
comp ression
Ġportr ait
ĠS IGN
Ġtoler ance
P NG
ĠH us
m ma
ĠCom merce
del ivery
Sim ilar
st ad
ĠMat hematic
Europe an
w ant
ĠN A
Is rael
Ġc ogn
Ed ges
R W
Ġ ion
um ar
B G
Ġcritic ized
Ġforest s
17 2
Ġpe oples
LAB LE
g om
g ather
ĠÐ¿ ÑĢ
ĠM ultiple
ri x
18 97
Ġcoal ition
et e
D istributed
Ġ ë
. ">
b ishop
v ue
Ġequ ipped
FOR CE
UP T
ĠDef ence
Ġdol or
ob s
DB C
Ġ* >(
Ðµ Ðº
pag er
Ġsw ift
ud p
Url s
IR Q
Ġcas ual
ee per
look ing
ĠD ummy
ĠY O
From Range
ĠTrans fer
ĠMount ains
Ġcamp s
ĠC raig
Ġ' .'
DE CLARE
Ġsports people
alex a
Ph p
> ().
ĠRoman ia
00000000 00000000
Ġre build
15 6
in ode
ĠCol lect
pe m
get Last
ven ues
ĠWork ing
ob a
Ġwire Type
bor ne
Ġval ley
re peated
() (
con tr
ĠK ir
Ġel s
ID R
ycl er
sub figure
Ġident ifies
Ġp ow
if old
ĠCon cept
L etter
rem ark
Ġpre st
ĠB lob
Ġcons olid
ĠC ould
data Type
ĠCOM MAND
izz le
Ġdis missed
Ġpark ing
ĠWH ETHER
Ġpre t
15 3
ĠKen ya
l m
Ġb anned
Check s
$ ('#
Ġequ ival
ĠTh ings
Tag ged
Ġsing ular
Ġob st
/ @
ĠF err
fl u
Ġcaref ully
it us
ĠS ans
ĠDep loy
Ġdoll ar
C artesian
tri angle
Ġr ay
Ġt ang
ĠKe ith
Ġle ts
Ġind igenous
Ġload s
inc inn
Ġelect rical
> ());
Ġbr ands
ĠH erm
document Element
a ust
x it
Ġin fr
Ġc arrier
Re peated
ĠAb u
Ġsurv ival
Ġalloc ator
End ian
Unmar shaller
) ((
n om
ed uc
ht able
ĠUp dated
Icon s
lic ate
h m
Ġh o
ĠCat hedral
Ġg c
op enc
Ġins ight
a os
ĠP ipeline
co ord
ND ER
Ġsimilar ly
Ġsold ier
ucceed ed
s izes
tr avis
Ġj ail
ĠCh ampion
17 9
/ ><
t ies
property Name
ĠB ond
ĠS outheast
ust ain
Ġmag azines
åı ¯
ĠRe ading
P x
or ian
Ġb ubble
Play ing
ĠA qu
Ġla ugh
R ol
bootstrap cdn
d an
ĠT s
× ŀ
ĠLe ave
Change Listener
Ġcivil ian
Ġ* ************************************************************************
ĠInter ruptedException
sp inner
Ġmon arch
akes pe
w right
am ation
Ġare na
ĠSh ar
Ð½ Ð°
ĠCo al
Port al
ment ion
Ġanaly ze
Ġco oper
ĠFe ed
form ats
cap s
Ġstar red
t ain
om bo
30 3
Compar er
Ġdist inction
mong odb
Ġl ap
l w
Ġtrans itions
Ġplay list
Key words
ĠDet ect
eq z
ĠMu hammad
bour g
Ġphys ician
Ġtim eline
m otion
ĠW ang
Ġg ent
Ġgr am
Ġtext area
Ġam endment
ĠAv ailable
ĠFor ward
memItem Left
C MP
K V
c xx
U id
Ġk o
vis itor
Ġlik ed
2 16
B ulk
write Field
zer bai
ĠC annot
Ġvolunte ers
d ied
18 89
ĠV erm
ĠI M
ĠĠĠĠĠĠĠĠĠĠĠĠ čĊ
ri el
test ng
bf d
Type Symbol
Ġmin istry
Ġart ificial
Ġno except
ic ators
ĠConf eder
to UpperCase
my Item
L ucene
Ġillustr ated
Ġch ip
Ġact resses
start swith
ĠOTHER WISE
ĠIdent ifier
Ġ ener
Ġhabit at
å ±
ĠC lock
Ġhon our
Un safe
Ġcount ies
gl Get
ĠPerson al
ĠHun ter
C Y
F Sharp
ar x
alloc ated
dig it
Ġremark able
Ġde ps
Ġch amber
OLD ER
ĠA CT
Ġn ucle
OR ITY
Ġrestaur ants
incinn ati
ĠTreat y
Acc um
is y
Ġcomment ed
ĠN ASA
Ġvir us
Ġsc ales
ĠMar vel
or b
ĠVin cent
ĠT ORT
iz ar
set ter
ĠWork er
Prof iler
ĠN ad
ĠUn ity
Ġorig ins
Ġdepart ments
* -
ĠV I
form atted
ĠFoot notes
the y
Inter rupt
MB ER
memItem Right
Ġnames paces
w edge
akespe are
ĠG P
ĠWith in
pattern s
Ġcult ures
[ ![
Ġt urb
Th omas
ĠNE W
Ġsudden ly
qu eries
18 8
Mouse Event
ĠCon struction
>. <
FR AG
Generated Message
B ROWS
L ittle
s ensitive
ĠArt ist
it ual
Media Type
ĠK am
ĠLOG GER
Ġsym metry
S ongs
p ure
st ride
File system
H op
\ -
Ġ\ '
dd dd
g ms
AT AL
($ (
j as
ĠM asters
ĠMap s
up dates
ĠO scar
IMP LE
ĠNev ada
Ġattract ed
C as
W all
Ġves sels
p reference
Ġthink s
vers ations
upload s
ĠG round
Ġactiv ated
Prom pt
r n
ent i
view er
Ġevery body
ĠDr ug
Ġmed ieval
apim achinery
Ġs ail
y ii
¶ </
ill ance
Bit coin
Ġbank ing
Ġlo dash
Ġg ard
Ġsp ell
, âĢĻ
user content
ĠTest Case
R ename
Dat um
Ġsub stance
U Integer
Ġenter prise
L aw
Ġt v
ĠE ither
Ġtr ump
py test
Trans lator
computer output
ĠForm ula
Ġconsum ed
P ager
Ġalleg ations
D J
XX X
e ur
Ġl iv
ĠB undle
ĠW a
ĳ ¼
Ġs weet
if th
aaaa aaaa
: _
send coin
ĠEl se
Ġwed ding
hand les
ĠB arry
Und o
ĠA w
Ġoption ally
Ġassum ptions
ĠBuffer ed
Ġindepend ently
Ġgrad ually
Ġgraph s
ĠCond ition
Ġexceed s
p ension
St ock
ĠJ oy
Ġtele phone
res erved
RO ID
Ġunder ground
It alian
ĠOb j
Al ways
ĠMon itor
_{ (
Ġguitar ist
Ġo d
ĠNorm an
ä¸ ĭ
' +
Ġ|| =
ĠâĢ ł
ĠShe ll
valid ators
greg ated
rec ursive
Ġnom ine
Ġ" ).
ĠU g
Ġinvest ments
Ġd ies
2 33
ĠC I
ĠP RE
Ġcontin uation
Ġsh orter
ch t
Ġcorre ction
Ġd ub
ĠGr ace
T ap
Ġw et
Ġst ick
Ġb ath
jav ac
Ġlaws uit
prof iler
ĠEqual s
se gments
ĠA bs
ack er
: !
re ts
ĠS ame
ĠM ade
Ġneigh bors
Ġenumer ate
ĠA rc
comp ose
Ġmut ual
Ġ" \\
x FFFF
big g
Ġhy brid
pre pend
pre ttify
dec rypt
Ġsec ured
u ant
Ġp k
Pro be
Ġnav igator
Ġdecor ated
W W
Ġs prite
ĠFeature s
ĠByte Array
">Â ¶</
ĠC es
h n
Ġn aturally
Ġcor por
Ġecon omics
ĠG UI
ĠImp lementation
num bers
å Ŀ
Ġsy mp
z k
Ġget Type
ĠN ON
plit ude
Ġdetermin ation
con verter
Names paces
Serv ers
VARI ABLE
cess ion
PI PE
ĠHarr ison
pro portion
__( /*!
Ġis Set
18 88
CL R
mir ror
Ġpers u
Sin ergi
ĠCert ificate
Ġvari ations
Ġprecise ly
b ecause
Ġs urrender
S andbox
fl are
ä ¾
C am
Ġprom ised
ĠOr ange
Ġprov incial
ĠR ab
omb re
Ġv i
her o
Ġtick ets
ĠM otion
Ġsome how
Ġcomplet es
S IL
Ġin duct
o ft
Ġc rypto
Ġnot ified
Ġens uring
ç §
Ġm ong
sw agger
Ġe g
w ifi
Ġfire s
ĠMP s
Ġmut ex
Ġ= ================================
ep he
Ġext ens
H H
ĠJ u
b uck
h ours
ĠMad ison
Sol r
Ġf unny
c rop
leg acy
EDIT OR
ĠF alls
ĠL uke
ĠTh ank
ocr atic
Glob als
Ġsole ly
Ġh al
ĠDI RECT
c wd
Ġp ane
ĠM ongo
Ġsystem atic
De veloper
Ġsym metric
Ġmark ers
Ġg rey
Ġhor ses
, %
P resentation
Ġm u
Ġtim ed
# /
Scale Denominator
C oded
p ersistent
nof lip
index es
equals IgnoreCase
g dx
ĠWARRAN TY
subNav List
Ġcalcul ations
Ġaud iences
Ġfor um
Vol umes
Ġf er
new Builder
M or
Ġact ed
lo dy
Ġn eck
Ex ports
Ġs sh
}} )
ĠCustom er
h istor
entry Set
m apped
ĠJ erry
17 8
get Object
H old
th anks
ĠBind ing
y ield
ĠCar los
Ġparse Float
SPE C
ĠLINE AR
ĠN ET
mut ed
Ġthere by
Ġextension Registry
ĠLiter ature
Ġbre ast
Ca ption
th an
Ġvari ants
ĠMO DULE
Embed ded
um i
ĠAng el
* {
Ġv node
Ġdec rypt
WAR N
ord ova
col lector
tol ua
tr ust
Ġinstrument al
SH OW
il io
pe ek
ĠImmutable Array
Ġdead line
L ou
18 93
ĠN i
ĠGuard ian
E sc
Ġ( .
Ġtr aveled
ĠM oney
Re ception
ĠAp pro
Ġcompl aint
ĠT E
Ġmer chant
normal ized
avor ite
D lg
Ġpol ling
u ced
Ġe lectoral
ĠL en
/ (
× §
Ġ[ :
le ter
ä» ¥
Ġcomput ers
ĠCG Rect
Ġsynt hetic
Cont aining
M igr
le ad
16 7
t ier
Ġmanufact urer
Â ©
Ã Ł
j om
ĠP erry
ĠDE LETE
W elcome
In gress
pare n
Ġspe akers
y t
M a
ĠS even
Ġpl astic
m ess
Ġj ar
Ġmanag es
ĠC riteria
SS H
Ġmeaning ful
ĠSym phony
Av ailability
Ġglob ally
ot ton
åĪ °
Ġr um
IB ILITY
ĠB arb
Ġres ort
log out
Ġm arry
PE D
Ver b
ĠP icture
åħ ¥
Ġcomplet ing
B er
Ġin clusive
18 94
t ed
ĠEx it
Method Name
SY MBOL
Ġax es
Field Location
Ġless ons
de z
Resource Manager
Prot ected
om ing
w g
ĠK er
ĠN ear
ĠE T
cest ors
ĠB lood
ĠSH A
ĠFac ulty
}\ ,
spir acy
g ames
th ink
Place ment
ĠT am
us hes
ĠRem ember
ĠDer by
ĠC RE
Dec ision
Ġp as
ĠC M
Ġex iting
Ġen abling
Ġwrit able
Ġvariable Length
Ġcur ves
ĠRout er
amp ed
Ø ²
ĠO MIT
less ly
Ġsort ing
Ġbre ath
Ġf lip
ĠE DT
Ð¾Ð» ÑĮ
l ar
ĠJSON Object
Ġcoup les
ĠJos Ã©
ĠPl anning
mask FromRange
Ġspe aks
olog ists
ĠTime Unit
Co ordinates
ĠF riends
schema Location
V tbl
o ses
pen se
Ġcompos ers
ĠH ann
Class ification
Ġrest oration
dot net
ĠSh op
Ġopin ions
loc ator
Ġal ien
TH ROW
re leased
18 2
Ġreview ed
ĠPR IMARY
ĠDetermin es
Ġtr ait
Ġdifferent ly
ĠCirc le
text Color
Ver ification
N aming
ĠP ATH
Ġne ural
ĠR ic
Ġali ases
Ï Į
AAAA AAAA
res izable
ĠActive Record
Ġwalk ed
ore n
imp lements
in tr
S af
ri o
Ġall ies
Ġopt ical
ĠBapt ist
M odes
e ing
q p
è ¾
am ine
ide l
Rich ard
Ġocc asions
Ġflo od
Ġcred ited
Ġdistingu ish
ĠArch itecture
u pe
-- ">
p ixels
¦ Ĥ
Ġa u
ĠĠĠĠĠĠĠĠĠĠĠĠĠĠĠĠĠĠĠĠĠĠĠĠĠĠĠĠĠĠĠĠ ĠĠĠĠĠĠĠĠĠĠĠĠĠĠĠĠĠĠĠĠĠ
[] []
}^{ -
Ã ī
ĠAssoci ate
V IDEO
ĠE SP
Ġview er
rist ol
C oder
g host
amer as
H en
Test Utils
26 2
mar shall
18 65
ĠCr iminal
to Have
D am
g rom
get Field
18 50
not ice
ĠS IG
= /
ĠA y
Ġc inema
Ġpar ad
ĠInd ustrial
it ol
Un available
render ed
ĠH udson
Ġdef ic
mar ine
Ġad venture
ĠSpr ings
M W
) ],
m essaging
order item
site info
Ġconsist ently
Ġdiv ide
apid ata
pre g
ĠPro position
Cl s
Ġy aml
Play ers
B RE
Ġcheck er
å ¹
ĠDet ail
Ġw ars
ĠA f
Ġcon clude
ĠCON NECT
Ġentreprene ur
Default Value
ĠF itz
Ġartifact s
\": \"
z A
ĠB row
l bl
Ġsequ el
Ġconfirm ation
Ġinitial izer
ç¤ º
M ont
check s
ĠW ing
ĠL ost
18 92
Spec ified
Ġch ained
Http Response
if le
get Next
SE CTION
Ġwebs ites
Unexpected EOF
æİ ¥
S COPE
vis ited
LE G
v oice
ad itional
ĠT erry
AL T
Ġclick ed
sc aled
Ġscholar ship
Table Model
Ġdifficult ies
Rem aining
wait For
Ġt orn
Ġas h
incor porated
r h
ĠF ly
av ail
Ġt ons
url Params
Tra ffic
åŃ Ĺ
ĠV lad
Un less
Ġf Ã¼r
ĠTo urnament
Ġsl aves
Ġdrink ing
ut c
ĠK il
le vant
ĠCh ain
Web GL
Ġpremier ed
ĠASC II
Ġ| \
produ cer
ator ial
Ġdo i
Char set
ĠOtt oman
Comp ound
S un
ap ing
Ġem igr
block ing
Ġcor poration
class ification
ĠN aN
ĠBig Decimal
Ġderiv ative
ĠK irk
co ustic
stud ent
18 85
Ġexam ination
j st
ol ation
ĠAlex and
C LOCK
ĠSoc orro
L ost
Ġs ugar
ĠT x
ak ai
4 29
Ġ ^{
og enerated
embed ded
cos ystem
add le
Ġclo thing
n umpy
Ġ urg
23 7
ĠAn notation
16 1
ĠIn ner
oler ance
rop ic
ĠP ull
Pro of
pro files
Ġviol ations
Ġn aming
Ġres on
en viron
ĠJ ess
root s
@ ",
ĠL arry
T ail
s udo
Ġen orm
Ġproject ed
ST YLE
ĠCON F
Ġacade m
ĉĉĉĉ Ġ
N Log
ĠSc ene
METHO DCALL
Ġback ed
m other
ĠDis covery
Ġves sel
O ID
iel der
File Info
Ġreflect s
Act ivation
alt ies
ee ee
H its
Ġmin isters
( **
sub subsection
R DF
Ġelim inated
ĠSpec ify
G LAPI
Cont ain
un bind
om o
ĠM ason
ĠðŁ ĳ¼
c oder
Ġb uff
ĠðŁĳ¼ </
Ð Ŀ
Ġbr ick
full comment
ĠC OR
Ġopp onents
not ifications
3 64
4 32
Get Instance
ster dam
R SA
ĠUn fortunately
clo ak
Ġpropos als
ĠA pr
Ġan alyt
Err UnexpectedEOF
METHODCALL TYPE
Ġget Class
Ġinject ed
Ġp arks
ĠOver ride
Ġjud icial
v tk
20 9
cre ase
bl k
Ġmolec ular
ME lement
Ġcontr ad
J e
Ġlob by
ĠI van
Ġexpect ing
Ġcon g
Ġincred ible
Ġj oy
Ġaccount ing
ĠM AC
To List
ĠLook up
[] ):
Ġcomm emor
[] >
Ġm oon
ĠR ails
! ",
A st
m ile
in ced
Ï ī
ud ge
Ġad mission
Ġcyc les
Ġme at
search Box
b ie
ref lection
P UBLIC
Ġevery where
ĠNov a
ĠM ix
Ġintern ationally
im en
C uts
Ġswim ming
Ġl ux
To Int
18 5
Ġt weet
ĠDec imal
U ME
sp ort
IN C
âĢĿ )
AutoFit Height
Ġvent ure
d istributed
Ġm eth
ĠC rit
ĠN icholas
Ġn ic
ĠK os
UN I
T enant
Ġm v
ĠIN DEX
Ġaccess ing
ĠSer ge
Build ings
Ġor th
ĠS aints
Ġr uby
ĠNot ify
x C
Ġp ic
Ġnav al
Ġconj unction
* );
l ng
un shift
d ag
c ke
ens upport
Ġ` '
ĠCont em
NET WORK
Ġ$ |
ãĥ ĥ
Con struction
ĠBe aut
Ġflow ers
ãĤ ¯
17 7
E s
M ongo
Ġsus pic
Ġp seud
ĠT S
get Source
Ġexp enses
Occ urs
Ġun def
urren ces
ĠN ebraska
ĠG as
Ä ĵ
ĠTh anks
Ġmem ories
Exp atriate
Ġport al
ĠB oost
is ch
uck er
Ġh urt
Vert ices
ul ators
Ins pection
Ġachie vement
stri pe
Ġg amma
Ġhighlight s
Ġinterval s
the s
ĠØ§ ÙĦ
ing e
web app
ĠP ool
ĠR ural
inherit ance
PIX I
ĠRich mond
Ġf led
dis covery
ĠIN VALID
Ġbank rupt
With Arguments
Ġcelebr ation
Thread Pool
Ġfiction al
exp licit
ac cur
ĠJ ar
ow ed
ack ing
ap ex
el rte
ĠReg istry
ĠDel ta
syn opsis
b pm
do ctype
Ġnot iced
Ġip sum
ĠPrad esh
activ ated
Ġaccept ance
ĠCru z
Brows able
G overnment
P aste
ĠN g
è® ¾
Ġadvoc ate
Deserial izer
V OL
Man age
Ġgr an
ĠP enn
Pro tection
fl atten
ĠAthlet ic
"> $
Int roduction
ĠPalest ine
_ ));
ur ator
inter rupt
T mp
c ale
ĠI PC
\ ,\
ĠEnd point
Ġc aching
Ġr ape
RO LE
grom met
ĠS ales
k now
ogn ito
ĠLO CK
Polit ical
Ġconver gence
# [
w y
Fr ank
ATTR IB
ĠS eb
l st
URI Component
Ġthe at
PO INTER
Ġd up
ĠH ebrew
Fetch er
ĠArab ic
oo f
Ġ; ;
Ġoff ense
fil ing
Ġopp onent
h ole
Ġz ones
Effect s
ĠR ap
ĠA CL
ancell or
W hether
Ġi e
method Name
M i
ir ical
Ġwait For
ĠPr incipal
Ġreg ression
CH ANG
Ġc anceled
ĠF O
Equal ity
ĠImp lements
Se ason
reach able
Ġjourn als
request ed
KEY WORD
Ġe ighth
pr imitive
ĠSc ale
Validation Error
ĠRel ation
Ġsingle ton
ĠH aving
BROWS ER
Ġ(* .
ĠK an
ĠSeg ment
` ;
u o
Ð ŀ
Ġdipl omatic
r anges
AG ES
ĠW i
k lass
Ġo m
te enth
' });
U AGE
_{ {\
New Error
ĠRob in
Mov ie
ĠR AF
Ġc tor
f ault
Ġre public
ĠC arm
is In
Ġpl aint
Ġseek s
yl on
Ġover l
cel ona
NO OP
an other
ĠC urt
Ġg ross
Ġpr inter
Under lying
B uff
E OL
Ġ! $
POS ITION
ĠC lay
in ite
ograph ical
ĠCom Visible
L uc
m ux
Ġo scill
ĠB asketball
ĠJ ama
ĠM es
ĠN ord
Ġdon ated
Ġcy ber
str m
ace ut
={ '
ĠÅ ¿
Ġdefend ant
Ġ icons
pro vide
top ics
sh int
STOR AGE
ĠShe l
ĠRepresent ative
Ġveter ans
M apped
Cre ative
ĠTr avel
Ġsl avery
Ġs lots
18 61
Ġ========= ==
OPER ATION
Ġimp lications
cat Desc
Ġdoub les
È Ļ
! )
is son
P df
Ġb ail
Ġim perial
ew ay
io v
Ġp references
ĠSte el
ÑĤ Ð¸
Ġnorth west
Ġp ose
che v
ĠWrit ing
ĠColon el
k et
w oman
Ġwarn ed
Ġcontact s
create Class
Ġfix es
ĠSh ang
ĠN umer
Ġsumm ar
re ction
Ġgr avity
Ġmechan ical
A ES
lis hes
E p
MO DI
Ġ(! _
JSON Object
lin der
T reat
:: -
L R
h on
ĠB P
00 7
ĠVenezuel a
Ï Ĩ
Ġdiam eter
L ondon
m ul
ys i
'= >'
Ġn d
18 91
ĠG lo
F acebook
Ġp v
(( *
Ġ_ {
Ġconv inced
ĠSus an
Att ached
Ġdev ast
op lus
Ġperfect ly
anc ers
re cent
assert Not
M aker
ific ant
Sep ar
match ing
Ġmist ake
Ġcarri es
Ġv oices
TR IB
G ram
Hand les
ĠMean while
ĠW alt
ĠGlas gow
S phere
u ario
Ġev olved
form ula
Ġde letion
et al
Ġinflu ences
Node Id
h ort
illa ume
ĠElement ary
w l
ç Ĥ
sh apes
Ġgr ave
HE IGHT
Evalu ator
Ġbr ut
compare To
j ab
ĠDef ines
' /
class method
Ġen emies
Ġtrust ed
ç Ĳ
is Debug
tr on
25 4
HP P
ĠM ak
` );
Ġm ature
ĠI o
ov en
test er
Ġv ault
aut ocomplete
Ġspons ored
Exp anded
ĠG T
ĠOl iver
Ġpsy ch
TRANSL ATE
em in
ĠCon current
ĠPRO P
assert NotNull
mut ation
IMP ORT
R AM
Ġcert ified
can onical
w ig
ä½¿ çĶ¨
G ed
PAT TERN
Ġsuggest ions
sell ing
Ġd ock
no logical
ĠPack ages
Ġfield Name
28 8
ĠF F
ml abel
res erve
Ġdelim iter
text sc
ach i
ld ap
gro ovy
config s
18 64
Ġfore cast
ĠI BM
}} "
og ue
Ġnode Name
glob als
le in
ĠM ans
Ġqual ifying
ĠT ools
ĠComp iler
ĠSoc cer
? (:
m und
TIME STAMP
PROTO COL
Ð°Ð ¹
Ġob l
Un install
Ġult imate
Dig its
ĠHe aders
C b
Ġmathematic s
(" :
Ġext ending
Ġhon ors
Script s
RG BA
ass ment
da emon
ond a
uto ff
B F
el in
ĠE ug
Ġmem set
ĠModel s
Book mark
Ġl ad
ĠF lags
INTER VAL
ierarch ical
Ġend orse
comp oser
Ġsl ug
ro st
google api
SIGN ED
Ġhop ing
F ICATION
def group
C tor
Ġde eper
github usercontent
mag ic
macro def
ro v
ĠH orse
ax ies
Ġin ventory
Ġget All
ĠD M
arri ers
ĠEnter prise
ogene ous
H o
il o
20 7
18 87
ĠDes criptor
ĠPier re
18 43
ENT ITY
T icket
ĠPsi Element
Term inal
ĠD ise
64 0
ĠZ oo
Pl umb
Ġpsycho logical
atern al
Ġb arrier
ord inal
ĠTech nical
+- +-
skip Nav
enc rypt
: <
Ġis Equal
IN K
Ġplay back
55 55
Ġtour ism
ĠMur phy
H i
Ġs d
ch oose
ĠL D
M ex
áĥ Ĳ
qu i
IC Y
ron ym
Ġup loaded
ĠDemocr at
Ġ= ~
Ġhe lic
Members hip
ush ing
rog ate
omm y
$ "
S omething
Un grouped
Ġjoin s
Tool Strip
Ġphenomen on
Ġac res
R ock
Ġre versed
Logger Factory
v node
and as
sc opes
Ret rie
stop Propagation
Ġexp iration
Con cat
ĠAt tempt
Sp ark
ĠLo Dash
amp led
Ġqual ify
Ġvolunte er
Ġtravel ing
Christ ian
19 1
ĠB eck
Tem porary
Ġconstitu ency
if ice
P airs
Ġhypot hesis
ĠB right
Ġr ally
CH O
Ġp f
am med
ĠFI FA
A x
ham crest
ĠB omb
at ra
ri se
Event Emitter
Ġcenter ed
Ġ__ (
ĠEth iop
amp a
assembly data
AU DIO
M oney
Ġp ace
o ard
Attribute Value
Ð°Ð ·
Ġt ub
Mag ic
ĠColomb ia
C ampaign
j er
r ases
table t
breadcr umb
ĠP E
'] ),
Play list
Ġmer ger
Ġg rows
W HERE
s am
AB ASE
Ġrev ised
Ġengine ers
ĠAlbert a
Ġre forms
ARG UMENT
RESP ONSE
= ="
Rec ursive
er un
Ġch ains
Ġtra ject
Ġn u
t u
Ġresource Culture
Direct or
. */
Ġend block
Ġpo ems
ĠT ak
Ð¾Ð ¶
ĠBY TE
c ill
ĠL ion
ĠIn n
Ġtop Level
Ġorgan ic
Web API
Py Object
Ġmed ic
Ġor ange
Ġpre dom
40 5
ĠD one
Ġloc ate
Ġarchitect ural
ĠS cope
ĠM uch
p md
z eb
ĠC ass
Ġtrans it
Ġtreat y
ACH ED
pat ched
FRAME S
ĠFUN CTION
ĠEx ec
Recogn izer
CR IPT
ĠL ithuan
ĠEX ISTS
Tool Group
I LE
( #
ĠO d
Ġdec ides
By Key
a uc
ĠC atherine
Ġpro secut
Ġiterate e
Ġh oles
ĠM yst
ĠRect angle
IG NO
Ġnon atomic
Ġhistor ians
n ih
ĠSh akespeare
Ġvol unt
tr action
as ures
b ach
g m
ĠH ide
Ġam end
ĠWrit es
= ['
Ġ= ================
ĠV oid
ĠUS ER
DESCRIPT ION
17 4
ĠPol l
Ġexpect ation
ĠPart ition
Ġdis claimer
c ould
In et
Ġfinal s
photon ui
ĠQue stion
Cont rollers
Ġtri bute
e o
ĠS ax
ad m
Ġsub scribe
au er
Absolute Path
hill dev
orange hilldev
ĠU Int
Ġhere by
Ġin cent
class name
M illiseconds
d uplicate
m odes
Å ¼
ĠNe il
sph inx
aceut ical
aw k
ĠC itiz
ex cludes
ĠT igers
Ġout break
ĠNS Mutable
Ġdam ages
start ing
Argument NullException
pk t
Ġarg ues
Prop el
ĠMedit erranean
it ro
hol m
ĠSW IG
charCode At
IC ON
power ed
d ap
ĠAb raham
Ġacknowled ged
er ia
Ġcl ang
ĠRog ers
Ġrai ses
Ġimpact s
En ergy
ĠWh ich
VAL UES
Ġde ck
ol ition
mail er
AMP LE
Ġa mp
Ġtrend s
mem cpy
Ġaug ment
prob lem
sh ore
ren gth
t oo
UN USED
Le ader
e con
AL PHA
Public Key
Ġspect ral
em ption
Ġde light
ĠIn dependence
Ġvari ance
C losing
G ate
ĠH ob
break ing
Property Changed
offset s
Co lour
ĠDim ension
s ales
ĠC amb
Ġfil med
ĠCons ult
23 5
ĠPer u
get Max
ĠV oice
Mut ation
b z
Ġelement ary
opt er
Ġten ure
Ġmigr ations
Ġfest ivals
inet ic
Ġbon us
ĠĠ ĉ
new Value
ĠWik ipedia
16 2
aver age
ï»¿ //
Ġsumm it
Visual Studio
aj a
vel t
laps ible
ĠS ad
ĠN ested
pr inter
18 63
Ġtestim ony
ow l
ĠL ate
Ġsuggest ing
PREC ATED
Ġs isters
Ġcon ce
Ġphot ographer
s outh
Ġdes erialize
Part itions
Ġo u
ĠW heel
Ġwealth y
R ating
get Size
ĠH ub
Qual ifier
++++ ++++
C ERT
per f
lim inary
ĠC ancel
UI Color
Ġprevent s
H am
ĠGu inea
18 9
omatic ally
Ġor chestra
Ġsound track
Ġis Array
ĠF ed
for all
zer os
it r
on Error
Ġkey words
Ġe lems
sh ops
Ġdescri ptions
mer ged
cred ited
Ġwood en
ĠT u
Or Builder
Ġne ur
b ias
primary Key
Ġrail road
N a
get Root
ĠAgain st
t el
}} (\
ĠS ongs
ĠUn iverse
B IG
ro ject
xml ns
top ology
ĠD ist
add resses
Ġlast ed
Ġview ing
Cast le
****** *
In verse
Comp ressed
Ġprotect ing
ra pe
cond ensed
Ġbusiness man
Ġoptim ized
ĠBuff alo
S sl
Ġt a
ĠL amb
ĠCor p
DIS PLAY
Ø± Ø§
Ġf f
ia o
base Url
Ġadvert ise
ult an
gr p
ĠY ii
Ġsl ides
Ġelim inate
c ury
log ists
Ind ia
ĠR EL
Ġsurv iving
St able
az ard
AD MIN
Ġdisplay Name
document s
f printf
Ġco aching
ĠW es
are house
Ġdis pose
R aster
Ġround ed
multip ly
? ",
sh aped
sl ave
D ock
Ġdog s
~ /
Ġb unch
Ġel apsed
Ġ($ \
ĠRET URN
set minus
ĠSimilar ly
F REE
18 1
A rena
W alker
18 86
ĠMar x
× ĳ
en queue
30 6
is Enabled
åĽ ŀ
h ire
ĠT imestamp
Un managed
at is
out ine
Ġdirect ives
p index
Ġtri ple
prec ation
Ġlo ans
Ġmanufact urers
omorph ic
B ooks
i u
effect ive
lo red
Ã¼ n
ĠTransport ation
Ġmethod Name
Ġmyst ery
bl ast
Ġcoeffic ient
get X
ĠConstruct s
ĠNash ville
j dk
Ġf ert
ro d
um ing
Ġper ceived
22 1
ĠSt ories
Th us
b mp
Char les
Ñģ Ñı
Ġbe er
Ġabs ent
fol k
16 3
ĠDis patch
Ġf o
ote ch
@ @
an ode
ĠSte vens
M is
Ġd inner
open source
ĠJust in
key Set
Ð°Ð ¿
Wire Format
ri en
Ġe ating
Ġl ifestyle
ĠGr an
Tab Index
ĠÎ ±
Ġe asing
Ġrec v
ansp ose
invalid Params
background Color
ij i
ep och
ĠChe f
ĠS ources
Ġsc iences
Ġ( :
o ji
s low
AA A
ĠDe velop
è ½
hab ilit
ĠB ird
an onymous
ĠTr inity
ic iary
ĠB ud
ĠN ar
lovak ia
Ġv c
ĠP ER
ĠW rest
RI X
, ...
ley ball
Det ach
oll ar
Ġsouth west
Ġbr illiant
Deep Copy
v iol
Context Menu
Ġpan ic
ĠH im
B id
ab ove
Ġconstruct ors
Ġre actor
Sub net
Ġest imation
S ong
ĠTop ic
ĠSerb ia
Ñ į
ĠH at
az i
Ġy esterday
Ġ[ %
Ġinter preter
Ġcons iders
ĠStan ford
Stop ped
OR IZ
Ġfacilit ate
Ġel abor
Ġd il
Ġg p
che m
m peg
Or Create
Ġ] ];
ĠHigh light
recogn ized
Ġshift ed
ĠP ic
ĠG ay
Ġre semb
over load
++ ,
ii i
ab etes
ĠGe ometry
F req
Ġ* >
Ġev ac
ug ee
Ġpower ed
Ġbo ards
Ġprivile ge
D ue
ĠSerial ize
J ose
40 9
çĲ Ĩ
Ġc ry
Lat ency
w izard
Ch arts
Sp ot
Edit ing
Ġsoci eties
Ġin complete
26 3
CLE AR
ĠR u
r age
Act ivate
Ġpreced ing
v nd
00 4
Ġ+ \
>( </
Ġbuy ing
Ð¾Ð ¿
TIM ER
($ .
Ġhand ed
grommet ux
Ġthrow ing
Ġdebut ed
Ġs andbox
Ġportray ed
17 3
ĠLib erty
out il
Ġleg s
h ig
Ġre min
Ġcontr ary
Ġen hanced
Ġpsycho logy
Ġpremi ere
or ia
con struction
Ġover come
Ġsem antics
Ġhost ing
pent aho
ĠS core
Ġrecogn ised
Br ush
COM MENT
ĠPack et
get Status
ĠY ugoslav
Ġalleged ly
LIBR ARY
dis p
Ġnomin ations
ĠX HTML
oll ary
HT MLElement
ĠHit ler
Res olved
oin s
ĠH em
Function al
Ġcab inet
b link
ch k
ĠPre vent
Ġpush ing
Ġst oring
Ġviol in
Ġord inal
Ġrecon struction
b ur
Ġl as
raw l
Ġgen es
Ġder ive
Ġembed ding
AP H
Ġto mb
qu ared
arri ors
ĠB ear
Ġad option
× ¢
as pect
Ġbad ge
ĠSign ature
Ġle ak
ph inx
war f
Ġmil k
G D
e of
Web Socket
pri ses
ĠV ic
ĠDistribut ed
et ches
Ġf ighter
ĠNew ton
select ors
with in
Ġextra ordinary
P iece
ĠP air
force ment
Ġpart itions
Ġli ability
="# !"
ĠDirect ors
N AM
as ia
Ġfor Key
Ġdes criptors
de e
Ġgl ad
4 20
Ġel ite
ĠPh ys
ĠMil an
ĠDest roy
Ġf ur
EXCEPT ION
oth ic
ellig ent
g overnment
Author ity
um ption
ĠM all
set Up
Ant i
Ġt ale
âĢ ĭ
ĠB ra
Info f
ĠL an
decl aration
Ġb p
() )));
deg ree
Ġb read
B uckets
Ġp df
ĠNew Page
Ġpol ygon
ĠTo gether
Ġnot ing
per ate
ĠCo hen
=" __
Contact s
dd d
Ġc ategor
Ġmod ifiers
// -->
ĠUP nP
ĠP ick
is p
istr ar
quant ity
omorph ism
ĠG overn
Ġin jection
Ġmaint ains
is String
Ġt cp
Ġanim ations
ynchron ously
ĠCre ative
Un iversal
itt ers
Web View
ĠE le
ĠEncyclo pedia
D RI
ĠC ob
dr ill
N ick
do ctrine
Ġobject ives
COMP RESS
li ant
ĠĠĠĠĠĠĠĠĠĠĠĠĠĠĠĠĠĠĠĠĠĠĠĠĠĠĠĠĠĠĠĠ ĠĠĠĠĠĠĠĠĠĠĠĠĠĠĠĠĠĠĠĠĠĠĠĠĠĠĠĠĠĠĠ
Dig it
ç ´
op us
bat im
Ġs vc
oot hing
Iter ation
QUE UE
or ious
al ready
contact s
g ency
), \
Ġj u
p yp
st own
Ġm asses
CON DITION
(' $
Ġâ Ĥ¬
ĠA aron
Ð¾Ð ¹
M ID
Cho oser
ens on
17 1
G tk
ĠAss ign
E con
X T
c us
ĠD raft
Ġfl u
ĠLeg acy
Ġyoun gest
Ã± a
final ize
isting u
B oot
th ick
ĠE ston
sw e
cloud flare
ĠW P
ict ory
content Type
M SC
$/ .
ĠAssoci ated
S ampler
ĠDrag on
Ġcomfort able
Sk in
Ġab sl
Is olate
Unit Test
Ġp ian
ĠEd wards
ĠBro ther
-> __
ĠG rey
Ġcl oned
iter ation
18 81
M ad
ĠCON ST
Ġprevent ed
ĠTh ink
ĠStr ategy
Bl uetooth
ĠHig her
ĠG arc
Ġpl acing
Ġfoot age
Ġmurder ed
Ġsh ots
c ritical
ĠC amera
") [
Med al
666666 67
Ġdis crete
ä¸ Ĭ
Ġso ap
ÑĢ Ñĥ
Stud ent
ĥ ½
ĠP P
col One
prop Types
enumer able
Comm unication
Ð°Ð ¼
Ġ... )
ne ver
Ġfollow ers
Ġph ases
S END
ĠQue st
ag ers
18 62
Ġ{ &
Ġsh ore
Sm ith
ad vance
Ġ" :"
Pattern s
ali ases
es p
Ġg arbage
ĠB LA
pl er
Ġpre g
Ġcivil ians
Ġs ang
um bo
Ġp atri
RE N
Ġun ions
^{ -\
conf lict
Ġselect ing
V k
ax es
un pack
ĠK rist
Ġpr ayer
ĠMin i
b u
Ġm appings
aval ry
Ġis Valid
ĠForm er
y alty
pod s
ĠContem porary
UN IF
Austral ia
it ious
con sum
Ġcom ics
]( /
ac i
ãģ Ħ
ĠN HL
check sum
=" %
ĠF ragment
Ġstring With
e u
ĠB orn
> (),
g age
ĠS L
& );
Inline Data
Ġtherm al
un ge
foo bar
ĠLabor atory
amb le
ĠBe h
Ġflex ible
que ued
18 84
Ġaccomp lished
Ġcous in
al ive
Ġst uck
Ġr itual
Ġfor wards
Message Box
ãĤ ¤
Ġfor cing
yl um
Ġbur den
ĠIce land
Ged mo
ĠI DE
ub untu
pl t
Complex ity
im als
Ġd as
pro cedure
Ġproperty Name
ĠGa ussian
ĠWeek ly
Î ¬
Ġ/ =
ĠC MD
Span ish
b ill
Ġparliament ary
ĠCon version
umb ent
NS URL
St encil
Ġsuggest ion
is ible
Ġscroll ing
stub s
Ġredu ces
ĠPrep are
ere g
Current ly
ĠCons erv
ĠTech nologies
C pu
min utes
Ġgovern ance
Query able
22 9
Ġprogram mes
Not ifier
greg ations
Product s
Med ium
Ġcon vey
ĠSal v
ĠC B
ĠGh ana
ERR UPT
Ġtranslation s
ĠNull PointerException
Ġb oss
ne z
Ġfall en
ĠVictor ian
IDENT IFIER
ĠOper and
Ġreprodu ce
v d
ĠB og
ĠF ish
Ġtri bes
Ġ` ${
_{ -
ĠJ Query
Vill ages
s ized
Ð ļ
Icon Success
Ġp sz
ib lical
cur ve
Ġ========= =
os hi
ĠPar ish
Ġremember ed
_ %
sy mp
Hy per
Ġgrand father
Dep s
uzz y
K B
_ :
\ }
Ġim per
ĠRun ning
Ġag g
Ġb ills
ĠS alt
ĠQu arter
Ġtrad ed
ĠC incinnati
18 75
w itch
ĠL uis
2 15
ĠS ometimes
ÑĢ Ð°
Ġt issue
Ġc i
ch ard
ĠRead Only
h azelcast
anc etype
query Parameters
Ġtag ged
T Result
mem name
jq x
Ġtri be
Ġdescend ants
z ens
ĠD eg
ĠD uration
ĠIN C
Ġcollect ing
Ġmuseum s
clear fix
Ġl attice
ew ise
set Data
ATION S
at che
St ored
Page Token
Ġpo ison
Ġ ug
22 6
Ġrat ings
Ð¾ Ñģ
ĠLeb anon
Ġunit test
ac ular
ãĥ¼ ãĥ
St and
ĠSub ject
Ġstop ping
] |
ay out
PL L
Ġun changed
Ġassert ions
Ġear ning
Ġrock s
Animation Frame
e er
Ġdef ending
Ġ` /
lin ing
mail to
cl azz
Ġhas attr
ĠTib et
s ix
27 5
Ġdepend ence
th ought
ok a
end points
J ac
Ch apter
ĠPh ysical
Max Value
ĠG MT
ĠIn stit
Ġlink ing
ĠAl pha
find ViewById
Ġpaint ers
ĠE E
Ġcho osing
c gi
J ump
S u
in ria
ĠM issing
Ġunder graduate
Ġd ign
Pre pared
Cal culator
R ailway
S ales
ĠCO VID
t ro
ort on
ĠB rew
) "/>
B razil
Ã Ĺ
ĠL ar
Tr ivia
RE NDER
f ld
Ne eds
ĠCor respond
Ġel lips
Ġg ithub
Ġse p
ir ts
wait ing
ĠHol land
Ġlabor atory
Ġb ash
r ng
ĠI NS
Ġdo zen
()) {
Ġdr ain
Ġdown loaded
Ġpod cast
K n
Ġt win
ĠB ristol
ak o
ĠC onse
Ġstri king
Ð¸ÑĤ ÑĮ
Ġconcat en
err er
st ored
cdn js
! ');
ĠM and
pol ling
Ġcached Ser
g uest
he ses
Ġp thread
ĠS um
ĠM essages
Ġl ingu
ĠO wner
ĠCommun ication
ĠG onz
Ġgroup ed
Ġcust ody
ĠR acing
Ġth rew
ĠĠĠĠĠĠĠĠĠĠĠĠĠĠĠĠĠĠĠĠĠĠĠĠĠĠĠĠĠĠĠĠ ĠĠĠĠĠĠĠĠĠĠĠĠĠĠĠĠĠĠĠĠĠĠ
Key Word
ĠL ux
oose velt
Ġmiddle ware
Ġc od
ĠV T
al gebra
Ġemb od
y ui
Re ports
Ġel it
Ġdeleg ates
ä¿ ¡
ĠL ud
Value Error
44 3
Ġf ate
================================================================ ========
@ -
type NameLink
Ġgradu ating
] ="
Get Current
ĠSc an
Ġ'- '
S IM
at an
Ġoblig ations
om es
ĠSe an
Ġqual ifier
Ġcros sed
Ġu k
Ġv ch
Ġhel lo
sat isf
C y
he els
Ġsl ash
Ġpy test
ĠW onder
at iv
div id
ĠRes olve
################################ ################################
TRIB UT
Ġg ear
Ġen semble
Request Id
ĠCost a
ĠCl aim
Ġt u
es cap
ĠH unt
Off er
ut a
ĠItem s
ĠT oo
ĠL imit
Le ague
ĠD R
aint ed
Ġst olen
ĠH W
Ġdis cret
ĠS id
Ġtr ivial
ĠAnt ar
Ġlegit imate
ĠK ill
Ġpos it
OLD ERS
J im
29 5
al go
Ġent ropy
Ġgal axies
ind a
ME MBER
PY THON
Th umb
ĠĠĠĠĠĠĠĠĠĠĠĠĠĠĠĠĠĠĠĠĠĠĠĠĠĠĠĠĠĠĠĠĠĠĠĠĠĠĠĠĠĠĠĠĠĠĠĠĠĠĠĠĠĠĠĠĠĠĠĠĠĠĠĠ ĠĠĠĠĠĠĠĠĠĠĠĠĠĠĠĠĠĠĠĠĠĠĠĠĠĠĠĠĠĠĠĠĠĠĠĠĠĠĠĠĠĠĠĠĠĠĠĠĠĠĠĠĠĠĠĠĠĠĠĠĠĠĠĠ
f k
ah a
ĠEn v
Ġres erves
un ate
Exp iration
CO S
next Token
Ġsur faces
ĠFr ances
cer pt
ĠEnc oding
f ancy
s peaker
pro jection
Ġre actions
ert s
n orth
ĠWat son
e ase
Tw itter
CALL BACK
Ġ` _.
S quare
et ur
ĠPr im
Tim ing
effic ient
G reg
Ġm as
ext ent
^ -
Ġt id
is b
ĠA zerbai
ĠP RI
ĠD T
CO D
Ġw char
ĠH AND
fe at
w al
Ġstat ue
g art
Ġb at
ĠBelg ian
d g
ĠSh aw
high charts
D ro
Ġf usion
ĠH orn
Ġexp ense
U GIN
[...]
