{
  "version": "1.0",
  "truncation": null,
  "padding": null,
  "added_tokens": [
    {
      "id": 0,
      "content": "[UNK]",
      "single_word": false,
      "lstrip": false,
      "rstrip": false,
      "normalized": false,
      "special": true
    }
  ],
  "normalizer": null,
  "pre_tokenizer": {
    "type": "Sequence",
    "pretokenizers": [
      {
        "type": "Digits",
        "individual_digits": false
      },
      {
        "type": "ByteLevel",
        "add_prefix_space": false,
        "trim_offsets": true,
        "use_regex": true
      }
    ]
  },
  "post_processor": null,
  "decoder": null,
  "model": {
    "type": "BPE",
    "dropout": null,
    "unk_token": "[UNK]",
    "continuing_subword_prefix": null,
    "end_of_word_suffix": null,
    "fuse_unk": false,
    "byte_fallback": false,
    "vocab": {
      "[UNK]": 0,
      "!": 1,
      "\"": 2,
      "#": 3,
      "$": 4,
      "%": 5,
      "&": 6,
      "'": 7,
      "(": 8,
      ")": 9,
      "*": 10,
      "+": 11,
      ",": 12,
      "-": 13,
      ".": 14,
      "/": 15,
      "0": 16,
      "1": 17,
      "2": 18,
      "3": 19,
      "4": 20,
      "5": 21,
      "6": 22,
      "7": 23,
      "8": 24,
      "9": 25,
      ":": 26,
      ";": 27,
      "<": 28,
      "=": 29,
      ">": 30,
      "?": 31,
      "@": 32,
      "A": 33,
      "B": 34,
      "C": 35,
      "D": 36,
      "E": 37,
      "F": 38,
      "G": 39,
      "H": 40,
      "I": 41,
      "J": 42,
      "K": 43,
      "L": 44,
      "M": 45,
      "N": 46,
      "O": 47,
      "P": 48,
      "Q": 49,
      "R": 50,
      "S": 51,
      "T": 52,
      "U": 53,
      "V": 54,
      "W": 55,
      "X": 56,
      "Y": 57,
      "Z": 58,
      "[": 59,
      "\\": 60,
      "]": 61,
      "^": 62,
      "_": 63,
      "`": 64,
      "a": 65,
      "b": 66,
      "c": 67,
      "d": 68,
      "e": 69,
      "f": 70,
      "g": 71,
      "h": 72,
      "i": 73,
      "j": 74,
      "k": 75,
      "l": 76,
      "m": 77,
      "n": 78,
      "o": 79,
      "p": 80,
      "q": 81,
      "r": 82,
      "s": 83,
      "t": 84,
      "u": 85,
      "v": 86,
      "w": 87,
      "x": 88,
      "y": 89,
      "z": 90,
      "{": 91,
      "|": 92,
      "}": 93,
      "~": 94,
      "¡": 95,
      "¢": 96,
      "£": 97,
      "¤": 98,
      "¥": 99,
      "¦": 100,
      "§": 101,
      "¨": 102,
      "©": 103,
      "ª": 104,
      "«": 105,
      "¬": 106,
      "®": 107,
      "¯": 108,
      "°": 109,
      "±": 110,
      "²": 111,
      "³": 112,
      "´": 113,
      "µ": 114,
      "¶": 115,
      "·": 116,
      "¸": 117,
      "¹": 118,
      "º": 119,
      "»": 120,
      "¼": 121,
      "½": 122,
      "¾": 123,
      "¿": 124,
      "Â": 125,
      "Ã": 126,
      "Ä": 127,
      "Å": 128,
      "Æ": 129,
      "Ç": 130,
      "È": 131,
      "É": 132,
      "Ê": 133,
      "Ë": 134,
      "Ì": 135,
      "Í": 136,
      "Î": 137,
      "Ï": 138,
      "Ð": 139,
      "Ñ": 140,
      "Ò": 141,
      "Ó": 142,
      "Ô": 143,
      "Õ": 144,
      "Ö": 145,
      "×": 146,
      "Ø": 147,
      "Ù": 148,
      "Ú": 149,
      "Û": 150,
      "Ü": 151,
      "Ý": 152,
      "Þ": 153,
      "ß": 154,
      "à": 155,
      "á": 156,
      "â": 157,
      "ã": 158,
      "ä": 159,
      "å": 160,
      "æ": 161,
      "ç": 162,
      "è": 163,
      "é": 164,
      "ê": 165,
      "ë": 166,
      "ì": 167,
      "í": 168,
      "î": 169,
      "ï": 170,
      "ð": 171,
      "ñ": 172,
      "ò": 173,
      "ó": 174,
      "ô": 175,
      "Ā": 176,
      "ā": 177,
      "Ă": 178,
      "ă": 179,
      "Ą": 180,
      "ą": 181,
      "Ć": 182,
      "ć": 183,
      "Ĉ": 184,
      "ĉ": 185,
      "Ċ": 186,
      "ċ": 187,
      "Č": 188,
      "č": 189,
      "Ď": 190,
      "ď": 191,
      "Đ": 192,
      "đ": 193,
      "Ē": 194,
      "ē": 195,
      "Ĕ": 196,
      "ĕ": 197,
      "Ė": 198,
      "ė": 199,
      "Ę": 200,
      "ę": 201,
      "Ě": 202,
      "ě": 203,
      "Ĝ": 204,
      "ĝ": 205,
      "Ğ": 206,
      "ğ": 207,
      "Ġ": 208,
      "ġ": 209,
      "Ģ": 210,
      "ģ": 211,
      "Ĥ": 212,
      "ĥ": 213,
      "Ħ": 214,
      "ħ": 215,
      "Ĩ": 216,
      "ĩ": 217,
      "Ī": 218,
      "ī": 219,
      "Ĭ": 220,
      "ĭ": 221,
      "Į": 222,
      "į": 223,
      "İ": 224,
      "ı": 225,
      "Ĳ": 226,
      "ĳ": 227,
      "Ĵ": 228,
      "ĵ": 229,
      "Ķ": 230,
      "ķ": 231,
      "ĸ": 232,
      "Ĺ": 233,
      "ĺ": 234,
      "Ļ": 235,
      "ļ": 236,
      "Ľ": 237,
      "ľ": 238,
      "Ŀ": 239,
      "ŀ": 240,
      "Ł": 241,
      "ł": 242,
      "Ń": 243,
      "ĠĠ": 244,
      "ĠĠĠĠ": 245,
      "in": 246,
      "er": 247,
      "Ġt": 248,
      "on": 249,
      "re": 250,
      "ĠĠĠ": 251,
      "at": 252,
      "ĠĠĠĠĠĠĠĠ": 253,
      "an": 254,
      "he": 255,
      "st": 256,
      "en": 257,
      "or": 258,
      "al": 259,
      "ar": 260,
      "le": 261,
      "Ġc": 262,
      "ion": 263,
      "it": 264,
      "Ġthe": 265,
      "se": 266,
      "Ġa": 267,
      "is": 268,
      "es": 269,
      "Ġf": 270,
      "ro": 271,
      "ing": 272,
      "ct": 273,
      "ed": 274,
      "Ġo": 275,
      "ĠĠĠĠĠĠĠ": 276,
      "Ġp": 277,
      "ic": 278,
      "Ġw": 279,
      "de": 280,
      "Ġs": 281,
      "Ġb": 282,
      "am": 283,
      "Ġin": 284,
      "Ġ=": 285,
      "et": 286,
      "as": 287,
      "ent": 288,
      "ur": 289,
      "ĉĉ": 290,
      "and": 291,
      "un": 292,
      ");": 293,
      "Ġm": 294,
      "ut": 295,
      "Ġn": 296,
      "Ġof": 297,
      "Ġre": 298,
      "Ġ<": 299,
      "Ġ{": 300,
      "il": 301,
      "ce": 302,
      "Ġto": 303,
      "Ġ(": 304,
      "om": 305,
      "=\"": 306,
      "--": 307,
      "id": 308,
      "lo": 309,
      "Ġh": 310,
      "Ġand": 311,
      "ĠĠĠĠĠĠĠĠĠĠĠ": 312,
      "Ġ*": 313,
      "Ġth": 314,
      "//": 315,
      "im": 316,
      "ul": 317,
      "Ġd": 318,
      "if": 319,
      "</": 320,
      "ol": 321,
      "ation": 322,
      "el": 323,
      "ĠS": 324,
      "ag": 325,
      "ex": 326,
      "ad": 327,
      "ig": 328,
      "iv": 329,
      "pe": 330,
      "ot": 331,
      "ĠT": 332,
      "ac": 333,
      "ĠC": 334,
      "ate": 335,
      "Ġv": 336,
      "tr": 337,
      "ue": 338,
      "čĊ": 339,
      "Ġ}": 340,
      "ĠA": 341,
      "th": 342,
      "em": 343,
      "pt": 344,
      "ame": 345,
      "um": 346,
      "ass": 347,
      "ab": 348,
      "ay": 349,
      "ch": 350,
      "Ġst": 351,
      "Ġ\"": 352,
      "Ġl": 353,
      "ction": 354,
      "us": 355,
      "ist": 356,
      "\">": 357,
      "ĠĠĠĠĠ": 358,
      "ĠI": 359,
      "ĠĠĠĠĠĠĠĠĠĠĠĠĠĠĠĠ": 360,
      "Ġg": 361,
      "()": 362,
      "**": 363,
      "ers": 364,
      "ap": 365,
      "Ġis": 366,
      "urn": 367,
      "ter": 368,
      "Ġfor": 369,
      "ub": 370,
      "lass": 371,
      "ĠM": 372,
      "ew": 373,
      "ht": 374,
      "Ġcon": 375,
      "od": 376,
      "age": 377,
      "all": 378,
      "ri": 379,
      "ode": 380,
      "ort": 381,
      "ĠP": 382,
      "turn": 383,
      "Ġse": 384,
      "av": 385,
      "ir": 386,
      "Ġbe": 387,
      "up": 388,
      "end": 389,
      "ss": 390,
      "ype": 391,
      "----": 392,
      "ith": 393,
      "==": 394,
      "âĢ": 395,
      "ver": 396,
      "Ġon": 397,
      "Ġde": 398,
      "ect": 399,
      "ow": 400,
      "ess": 401,
      "ĠB": 402,
      "sp": 403,
      "Ġe": 404,
      "li": 405,
      "Ġ'": 406,
      "Ġ$": 407,
      "ĠR": 408,
      "ext": 409,
      "ĠD": 410,
      "qu": 411,
      "est": 412,
      "In": 413,
      "Ġif": 414,
      "ment": 415,
      "our": 416,
      "00": 417,
      "get": 418,
      "oc": 419,
      "con": 420,
      "ĠĠĠĠĠĠĠĠĠĠĠĠĠĠĠ": 421,
      "..": 422,
      "op": 423,
      "able": 424,
      "ly": 425,
      "Ġclass": 426,
      "ĠF": 427,
      "ĠN": 428,
      "lic": 429,
      "ain": 430,
      "port": 431,
      "Ġthis": 432,
      "ĠL": 433,
      "ine": 434,
      "ack": 435,
      "ĠH": 436,
      "art": 437,
      "iz": 438,
      "Ġ//": 439,
      "ile": 440,
      "ult": 441,
      "ase": 442,
      "ption": 443,
      "oun": 444,
      "ke": 445,
      "Ġthat": 446,
      "Ġpro": 447,
      "ert": 448,
      "ĠE": 449,
      "->": 450,
      "Ġreturn": 451,
      "ĠG": 452,
      "Ġan": 453,
      "Ġwith": 454,
      "rom": 455,
      "ata": 456,
      "ore": 457,
      "alue": 458,
      "::": 459,
      "str": 460,
      "ity": 461,
      "Ġit": 462,
      "Ġas": 463,
      "Ġor": 464,
      "omp": 465,
      "ĠW": 466,
      "Ġwh": 467,
      "ĉĉĉĉ": 468,
      "int": 469,
      "Ġ@": 470,
      "loc": 471,
      "ĠThe": 472,
      "ure": 473,
      "Ġr": 474,
      "ans": 475,
      "ject": 476,
      "unction": 477,
      "der": 478,
      "Ġex": 479,
      "Re": 480,
      "Con": 481,
      "ang": 482,
      "Ġ</": 483,
      "Ġtr": 484,
      "use": 485,
      "ĠO": 486,
      "orm": 487,
      "19": 488,
      "ff": 489,
      "ight": 490,
      "Ġwas": 491,
      "ath": 492,
      "\",": 493,
      "Ġby": 494,
      "out": 495,
      "aram": 496,
      "ref": 497,
      "ublic": 498,
      "ive": 499,
      "os": 500,
      "20": 501,
      "St": 502,
      "act": 503,
      "ource": 504,
      "set": 505,
      "ere": 506,
      "(\"": 507,
      "();": 508,
      "pl": 509,
      "Ġat": 510,
      "ies": 511,
      "nt": 512,
      "ug": 513,
      "../": 514,
      "Ġ/": 515,
      "ace": 516,
      "ire": 517,
      "ial": 518,
      "ary": 519,
      "ib": 520,
      "Ġ&": 521,
      "Ġal": 522,
      "oo": 523,
      "ill": 524,
      "Ġy": 525,
      "are": 526,
      "Ġ[": 527,
      "pro": 528,
      "Ġ-": 529,
      "ant": 530,
      "ber": 531,
      "ĠU": 532,
      "to": 533,
      "Ġ*/": 534,
      "Ġfrom": 535,
      "Ġnew": 536,
      "ast": 537,
      "',": 538,
      "ĠJ": 539,
      "tring": 540,
      "lf": 541,
      "--------": 542,
      "Ġ+": 543,
      "res": 544,
      "ip": 545,
      "ull": 546,
      "),": 547,
      "ime": 548,
      "ml": 549,
      "Ġ\\": 550,
      "ve": 551,
      "****": 552,
      "Ġch": 553,
      "ind": 554,
      "Ġhe": 555,
      "Ex": 556,
      "Ġnot": 557,
      ").": 558,
      "essage": 559,
      "ign": 560,
      "Ġun": 561,
      "bject": 562,
      "dd": 563,
      "ice": 564,
      "ize": 565,
      "cl": 566,
      "div": 567,
      "text": 568,
      "cri": 569,
      "ated": 570,
      "Ġare": 571,
      "per": 572,
      "err": 573,
      "ition": 574,
      "Ġ:": 575,
      "this": 576,
      "ance": 577,
      "('": 578,
      "span": 579,
      "ard": 580,
      "Ġfunction": 581,
      "ĠĠĠĠĠĠĠĠĠĠĠĠĠĠĠĠĠĠĠ": 582,
      "ĉĉĉ": 583,
      "com": 584,
      "ust": 585,
      "que": 586,
      "></": 587,
      "import": 588,
      "vent": 589,
      "put": 590,
      "ost": 591,
      "te": 592,
      "====": 593,
      "arg": 594,
      "ĠĠĠĠĠĠĠĠĠ": 595,
      "Ġname": 596,
      "row": 597,
      "ord": 598,
      "Ġpublic": 599,
      "ĠIn": 600,
      "Ġ.": 601,
      "ud": 602,
      "Ġ|": 603,
      "Ġj": 604,
      "Ġ_": 605,
      "form": 606,
      "ite": 607,
      "Name": 608,
      "erv": 609,
      "Ġle": 610,
      "ory": 611,
      "Ġsh": 612,
      "cc": 613,
      "ong": 614,
      "name": 615,
      "ork": 616,
      "oid": 617,
      "ll": 618,
      "'s": 619,
      "Pro": 620,
      "rr": 621,
      "><": 622,
      "lement": 623,
      "ia": 624,
      "io": 625,
      "ave": 626,
      "one": 627,
      "ak": 628,
      "Ġstr": 629,
      "ER": 630,
      "))": 631,
      "Type": 632,
      "param": 633,
      "iel": 634,
      "low": 635,
      "âĢĻ": 636,
      "ail": 637,
      "Ġvar": 638,
      "return": 639,
      "ĠV": 640,
      "Ġres": 641,
      "../../": 642,
      "sh": 643,
      "ield": 644,
      "Ġcom": 645,
      "ount": 646,
      "def": 647,
      "ec": 648,
      "ef": 649,
      "ress": 650,
      "pp": 651,
      "oul": 652,
      "ild": 653,
      "String": 654,
      "ĠĊ": 655,
      "ON": 656,
      "tp": 657,
      "201": 658,
      "Ġwe": 659,
      "dex": 660,
      "ink": 661,
      "key": 662,
      "Ġdef": 663,
      "fig": 664,
      "html": 665,
      "alse": 666,
      "iew": 667,
      "The": 668,
      "IN": 669,
      "ould": 670,
      "eth": 671,
      "Ġ!": 672,
      "ich": 673,
      "Ġ#": 674,
      "che": 675,
      "ĠâĢ": 676,
      "ĠK": 677,
      "ence": 678,
      "enc": 679,
      "Id": 680,
      "Ġcomp": 681,
      "quest": 682,
      "log": 683,
      "ide": 684,
      "Ġhref": 685,
      "Ġget": 686,
      "ator": 687,
      "ou": 688,
      "ck": 689,
      "Ġtype": 690,
      "ener": 691,
      "source": 692,
      "og": 693,
      "Ġcont": 694,
      "amp": 695,
      "message": 696,
      "ra": 697,
      "Ġpl": 698,
      "Ġvalue": 699,
      "ax": 700,
      "ens": 701,
      "uct": 702,
      "__": 703,
      "eng": 704,
      "tern": 705,
      "Ġpr": 706,
      "so": 707,
      "code": 708,
      "ft": 709,
      "atic": 710,
      "ell": 711,
      "lock": 712,
      "type": 713,
      "Ġset": 714,
      "trans": 715,
      "roup": 716,
      "lect": 717,
      "ach": 718,
      "Ġhas": 719,
      "Ġdo": 720,
      "Ġint": 721,
      "eg": 722,
      "ear": 723,
      "ĠTh": 724,
      "ep": 725,
      "fer": 726,
      "ool": 727,
      "ule": 728,
      "Ġ=>": 729,
      "RE": 730,
      "Ġk": 731,
      "td": 732,
      "yst": 733,
      "atch": 734,
      "ery": 735,
      "lation": 736,
      "ound": 737,
      "ally": 738,
      "own": 739,
      "ault": 740,
      "Res": 741,
      "Ġ==": 742,
      "ache": 743,
      "und": 744,
      "ument": 745,
      "ĠSt": 746,
      "ser": 747,
      "Ġuse": 748,
      "hen": 749,
      "ception": 750,
      "Ġself": 751,
      "pr": 752,
      "app": 753,
      "ther": 754,
      "arr": 755,
      "pert": 756,
      "inal": 757,
      "ethod": 758,
      "Ġnull": 759,
      "col": 760,
      "/>": 761,
      "List": 762,
      "##": 763,
      "ST": 764,
      "pec": 765,
      "val": 766,
      "ystem": 767,
      "Ġel": 768,
      "200": 769,
      "Ġcan": 770,
      "Ġhave": 771,
      "ix": 772,
      "add": 773,
      "cre": 774,
      "To": 775,
      "ph": 776,
      "eb": 777,
      "cript": 778,
      "fo": 779,
      "ations": 780,
      "10": 781,
      "ree": 782,
      "En": 783,
      "irst": 784,
      "Ġvoid": 785,
      "ute": 786,
      "Ġconst": 787,
      "ge": 788,
      "\"/>": 789,
      "ob": 790,
      "Ġab": 791,
      "ov": 792,
      "Ġwhich": 793,
      "ames": 794,
      "over": 795,
      "ry": 796,
      "Ġerr": 797,
      "));": 798,
      "Ġi": 799,
      "AT": 800,
      "string": 801,
      "Ġout": 802,
      "Ġhis": 803,
      "yle": 804,
      "oint": 805,
      "://": 806,
      "urre": 807,
      "ian": 808,
      "odel": 809,
      "ptions": 810,
      "pect": 811,
      "class": 812,
      "Ch": 813,
      "ĠCh": 814,
      "Ġ||": 815,
      "ical": 816,
      "Ġ`": 817,
      "var": 818,
      "Ġus": 819,
      "ey": 820,
      "ersion": 821,
      "********": 822,
      "sed": 823,
      "Ġdata": 824,
      "Ġwill": 825,
      "itle": 826,
      "ark": 827,
      "ange": 828,
      "ader": 829,
      "ake": 830,
      "umber": 831,
      "gr": 832,
      "Ġfalse": 833,
      "Ġim": 834,
      "OR": 835,
      "rit": 836,
      "her": 837,
      "ings": 838,
      "LE": 839,
      "translation": 840,
      "----------------": 841,
      "ĠĠĠĠĠĠĠĠĠĠĠĠĠĠĠĠĠĠĠĠĠĠĠ": 842,
      "qual": 843,
      "ivate": 844,
      "Ġall": 845,
      "\");": 846,
      "Ġ>": 847,
      "////": 848,
      "cont": 849,
      "Ġid": 850,
      "Value": 851,
      "Ġup": 852,
      "ID": 853,
      "self": 854,
      "ont": 855,
      "Ġtrue": 856,
      "Ġcol": 857,
      "ome": 858,
      "data": 859,
      "ates": 860,
      "ld": 861,
      "\"><": 862,
      "Data": 863,
      "ength": 864,
      "trib": 865,
      "ish": 866,
      "Ġelse": 867,
      "Ġass": 868,
      "back": 869,
      "http": 870,
      "ual": 871,
      "ock": 872,
      "ervice": 873,
      "Ġend": 874,
      "umm": 875,
      "arch": 876,
      "ses": 877,
      "ie": 878,
      "tem": 879,
      "):": 880,
      "ĠĠĠĠĠĠĠĠĠĠĠĠĠ": 881,
      "ne": 882,
      "Ġyou": 883,
      "value": 884,
      "18": 885,
      "AL": 886,
      "led": 887,
      "Ġ/**": 888,
      "Cont": 889,
      "AR": 890,
      "Ġline": 891,
      "Ġlo": 892,
      "read": 893,
      "Ġbut": 894,
      "Tr": 895,
      "yp": 896,
      "Ġro": 897,
      "ton": 898,
      "urrent": 899,
      "lient": 900,
      "Ġ&&": 901,
      "Ġadd": 902,
      "quire": 903,
      "Ġstring": 904,
      "rror": 905,
      "Ġ)": 906,
      "yn": 907,
      "uff": 908,
      "Ġdis": 909,
      "._": 910,
      "EN": 911,
      "ember": 912,
      "line": 913,
      "];": 914,
      "ove": 915,
      "12": 916,
      "ask": 917,
      "abel": 918,
      "sc": 919,
      "Set": 920,
      "ifi": 921,
      "Ġone": 922,
      "\")": 923,
      "min": 924,
      "file": 925,
      "aw": 926,
      "son": 927,
      "perty": 928,
      "Ġper": 929,
      "Exception": 930,
      "ĠUn": 931,
      "ugh": 932,
      "Ġorg": 933,
      "Th": 934,
      "ĠĠĠĠĠĠĠĠĠĠĠĠĠĠĠĠĠĠĠĠĠĠĠĠĠĠĠĠĠĠĠĠ": 935,
      "Col": 936,
      "mer": 937,
      "ions": 938,
      "idth": 939,
      "Ġ!=": 940,
      "bo": 941,
      "========": 942,
      "Object": 943,
      "stance": 944,
      "ors": 945,
      "let": 946,
      "array": 947,
      "Ġpart": 948,
      "onse": 949,
      "ann": 950,
      "ick": 951,
      "px": 952,
      "($": 953,
      "ĠĠĠĠĠĠ": 954,
      "Ġwere": 955,
      "ma": 956,
      "ava": 957,
      "16": 958,
      "fter": 959,
      "nd": 960,
      "of": 961,
      "date": 962,
      "Ġval": 963,
      "lection": 964,
      "Ġresult": 965,
      "Ġ///": 966,
      "anag": 967,
      "arget": 968,
      "ues": 969,
      "Error": 970,
      "iss": 971,
      "ude": 972,
      "Ġalso": 973,
      "ook": 974,
      "ms": 975,
      "Ġtest": 976,
      "ific": 977,
      "Ġsc": 978,
      "location": 979,
      "SS": 980,
      "Test": 981,
      "ĠY": 982,
      "},": 983,
      "_{": 984,
      "rap": 985,
      "Ġcre": 986,
      "du": 987,
      "ater": 988,
      "Ġpre": 989,
      "ash": 990,
      "ics": 991,
      "âĢĿ": 992,
      "les": 993,
      "org": 994,
      "test": 995,
      "ents": 996,
      "Ġfile": 997,
      "ccess": 998,
      "Ġstatic": 999,
      "Ġover": 1000,
      "ummary": 1001,
      "irect": 1002,
      "Ġwho": 1003,
      "Ġwhen": 1004,
      "ĠString": 1005,
      "ger": 1006,
      "odule": 1007,
      "Comp": 1008,
      "pre": 1009,
      "Get": 1010,
      "')": 1011,
      "cess": 1012,
      "atus": 1013,
      "Ġtheir": 1014,
      "().": 1015,
      "],": 1016,
      "fr": 1017,
      "ream": 1018,
      "old": 1019,
      "Ġtime": 1020,
      "32": 1021,
      "Un": 1022,
      "Ġso": 1023,
      "());": 1024,
      "Ġfirst": 1025,
      "new": 1026,
      "At": 1027,
      "any": 1028,
      "CT": 1029,
      "ev": 1030,
      "uch": 1031,
      "Ġdes": 1032,
      "ok": 1033,
      "pace": 1034,
      "ative": 1035,
      "Key": 1036,
      "Ġen": 1037,
      "IT": 1038,
      "Ġother": 1039,
      "function": 1040,
      "');": 1041,
      "arent": 1042,
      "ise": 1043,
      "oin": 1044,
      "Ġwork": 1045,
      "Se": 1046,
      "ature": 1047,
      "DE": 1048,
      "Ġ%": 1049,
      "Ġcomm": 1050,
      "Ġsup": 1051,
      "lean": 1052,
      "uth": 1053,
      "SE": 1054,
      "Ġprivate": 1055,
      "rray": 1056,
      "hed": 1057,
      "etw": 1058,
      "File": 1059,
      "size": 1060,
      "Ġcase": 1061,
      "ternal": 1062,
      "Ġme": 1063,
      "ces": 1064,
      "ca": 1065,
      "gle": 1066,
      "ody": 1067,
      "osition": 1068,
      "ĠThis": 1069,
      "Ġx": 1070,
      "heck": 1071,
      "nb": 1072,
      "Ġ--": 1073,
      "Ġmore": 1074,
      "item": 1075,
      "Ġag": 1076,
      "comp": 1077,
      "wo": 1078,
      "Ġapp": 1079,
      "clude": 1080,
      "Ġne": 1081,
      "ĠIt": 1082,
      "Ġinter": 1083,
      "mb": 1084,
      "ren": 1085,
      "rc": 1086,
      "Ġany": 1087,
      "uild": 1088,
      "Ġthey": 1089,
      "vid": 1090,
      "Event": 1091,
      "cond": 1092,
      "Ġspec": 1093,
      "summary": 1094,
      "Ġkey": 1095,
      "11": 1096,
      "ĠHe": 1097,
      ".</": 1098,
      "round": 1099,
      "ages": 1100,
      "Ġhad": 1101,
      "Ġits": 1102,
      "ww": 1103,
      "ons": 1104,
      "roll": 1105,
      "play": 1106,
      "uffer": 1107,
      "Ġobject": 1108,
      "Ġbeen": 1109,
      "load": 1110,
      "ocument": 1111,
      "link": 1112,
      "Ġsub": 1113,
      "uil": 1114,
      "ler": 1115,
      "nbsp": 1116,
      "Ġfinal": 1117,
      "Ġap": 1118,
      "\";": 1119,
      "ĉĉĉĉĉ": 1120,
      "Im": 1121,
      "not": 1122,
      "ME": 1123,
      "['": 1124,
      "bar": 1125,
      "ale": 1126,
      "omm": 1127,
      "util": 1128,
      "Element": 1129,
      "right": 1130,
      "Ġlist": 1131,
      "Ġrec": 1132,
      "Qu": 1133,
      "url": 1134,
      "roid": 1135,
      "(),": 1136,
      "its": 1137,
      "list": 1138,
      "Ġoff": 1139,
      "index": 1140,
      "ĠâĢľ": 1141,
      "AN": 1142,
      "umn": 1143,
      "Ġyear": 1144,
      "face": 1145,
      "igh": 1146,
      "Ġreg": 1147,
      "indow": 1148,
      "action": 1149,
      "view": 1150,
      "/**": 1151,
      "struct": 1152,
      "UL": 1153,
      "ui": 1154,
      "15": 1155,
      "public": 1156,
      "ken": 1157,
      "ner": 1158,
      "Ġad": 1159,
      "\\\\": 1160,
      "Ġno": 1161,
      "unc": 1162,
      "aramet": 1163,
      "ational": 1164,
      "/*": 1165,
      "By": 1166,
      "but": 1167,
      "br": 1168,
      "til": 1169,
      "Ġfil": 1170,
      "Node": 1171,
      "Ġback": 1172,
      "View": 1173,
      "Ġact": 1174,
      "rite": 1175,
      "ng": 1176,
      "Ġte": 1177,
      "Ġ);": 1178,
      "ely": 1179,
      "par": 1180,
      "']": 1181,
      "Ġcl": 1182,
      "ĠPro": 1183,
      "ps": 1184,
      "ished": 1185,
      "order": 1186,
      "Time": 1187,
      "ays": 1188,
      "Ġcall": 1189,
      "25": 1190,
      "js": 1191,
      "Class": 1192,
      "Ġtrans": 1193,
      "ĠĠĠĠĊ": 1194,
      "Ġonly": 1195,
      "ĠRe": 1196,
      "Ġarg": 1197,
      "Ġ?": 1198,
      "ined": 1199,
      "ĠCon": 1200,
      "Ġ/*": 1201,
      "ating": 1202,
      "He": 1203,
      "ys": 1204,
      "Ġem": 1205,
      "State": 1206,
      "lete": 1207,
      "time": 1208,
      "for": 1209,
      "ning": 1210,
      "\":": 1211,
      "lay": 1212,
      "length": 1213,
      "the": 1214,
      "\"></": 1215,
      "ited": 1216,
      "dis": 1217,
      "CO": 1218,
      "Ġpe": 1219,
      "path": 1220,
      "Ġinto": 1221,
      "ople": 1222,
      "ible": 1223,
      "nav": 1224,
      "ose": 1225,
      "ttp": 1226,
      "ĠEx": 1227,
      "void": 1228,
      "Ġabout": 1229,
      "ify": 1230,
      "Ġher": 1231,
      "pack": 1232,
      "eta": 1233,
      "Index": 1234,
      "Ġgo": 1235,
      "Ġchar": 1236,
      "Ġused": 1237,
      "Sh": 1238,
      "const": 1239,
      "be": 1240,
      "Ġthere": 1241,
      "pend": 1242,
      "Ġplay": 1243,
      "Ġrem": 1244,
      "Path": 1245,
      "Ġassert": 1246,
      "Ġevent": 1247,
      "cription": 1248,
      "oolean": 1249,
      "ĠâĢĵ": 1250,
      "script": 1251,
      "RO": 1252,
      "field": 1253,
      "Info": 1254,
      "{\\": 1255,
      "Ġnumber": 1256,
      "Request": 1257,
      "ĠAr": 1258,
      "sub": 1259,
      "Ġform": 1260,
      "Text": 1261,
      "Ġexp": 1262,
      "Ġ/>": 1263,
      "ĠSe": 1264,
      "PE": 1265,
      "ins": 1266,
      "199": 1267,
      "anager": 1268,
      "100": 1269,
      "Array": 1270,
      "TE": 1271,
      "ased": 1272,
      "âĢĵ": 1273,
      "ern": 1274,
      "lob": 1275,
      "Ġent": 1276,
      "table": 1277,
      "Ġthrow": 1278,
      "ainer": 1279,
      "Ġmethod": 1280,
      "Ġqu": 1281,
      "ts": 1282,
      "ious": 1283,
      "Ar": 1284,
      "top": 1285,
      "Ġunder": 1286,
      "Ġli": 1287,
      "Ġarray": 1288,
      "uration": 1289,
      "Config": 1290,
      "ample": 1291,
      "ices": 1292,
      "md": 1293,
      "].": 1294,
      "Ġerror": 1295,
      "ride": 1296,
      "Ġstate": 1297,
      "14": 1298,
      "ION": 1299,
      "())": 1300,
      "group": 1301,
      "Ġ},": 1302,
      "tribute": 1303,
      "opy": 1304,
      "oot": 1305,
      "Ġ(!": 1306,
      "Field": 1307,
      "':": 1308,
      "Item": 1309,
      "onent": 1310,
      "ular": 1311,
      "Equal": 1312,
      "erm": 1313,
      "Add": 1314,
      "ade": 1315,
      "clud": 1316,
      "Context": 1317,
      "64": 1318,
      "};": 1319,
      "Ġtwo": 1320,
      "Ġstart": 1321,
      "rol": 1322,
      "ward": 1323,
      "13": 1324,
      "Ġshould": 1325,
      "math": 1326,
      "Map": 1327,
      "Ġafter": 1328,
      "Ġser": 1329,
      "Ġ});": 1330,
      "Def": 1331,
      "try": 1332,
      "Ġtitle": 1333,
      "comm": 1334,
      "ank": 1335,
      "Ġ===": 1336,
      "17": 1337,
      "red": 1338,
      "cent": 1339,
      "ized": 1340,
      "me": 1341,
      "ground": 1342,
      "Ġ:=": 1343,
      "Ġwould": 1344,
      "``": 1345,
      "ities": 1346,
      "user": 1347,
      "ĠNew": 1348,
      "Ġob": 1349,
      "reg": 1350,
      "resent": 1351,
      "reak": 1352,
      "pen": 1353,
      "\"\"": 1354,
      "PI": 1355,
      "local": 1356,
      "by": 1357,
      "ister": 1358,
      "api": 1359,
      "!--": 1360,
      "Ġsp": 1361,
      "mp": 1362,
      "ush": 1363,
      "amespace": 1364,
      "Ġmay": 1365,
      "ĠĠĠĠĠĠĠĠĠĠĠĠĠĠĠĠĠĠĠĠĠĠĠĠĠĠĠ": 1366,
      "ĠTr": 1367,
      "ous": 1368,
      "ified": 1369,
      "ond": 1370,
      "AC": 1371,
      "Ġrequire": 1372,
      "ences": 1373,
      "TR": 1374,
      "lt": 1375,
      "////////": 1376,
      "Code": 1377,
      "An": 1378,
      "****************": 1379,
      "Ġcurrent": 1380,
      "land": 1381,
      "=\"../../": 1382,
      "ision": 1383,
      "Ġrequest": 1384,
      "orld": 1385,
      "lang": 1386,
      "Ġext": 1387,
      "';": 1388,
      "ense": 1389,
      "ced": 1390,
      "ouse": 1391,
      "meric": 1392,
      "co": 1393,
      "Ġ$\\": 1394,
      "fore": 1395,
      "Service": 1396,
      "With": 1397,
      "ution": 1398,
      "Not": 1399,
      "ict": 1400,
      "ollow": 1401,
      "assert": 1402,
      "Ġthan": 1403,
      "config": 1404,
      "left": 1405,
      "apache": 1406,
      "az": 1407,
      "quot": 1408,
      "pty": 1409,
      "uilder": 1410,
      "oogle": 1411,
      "Ġco": 1412,
      "ility": 1413,
      "define": 1414,
      "label": 1415,
      "Ġsome": 1416,
      "}}": 1417,
      "Over": 1418,
      "Ġthen": 1419,
      "Ġdefault": 1420,
      "Ġwhere": 1421,
      "Ġpol": 1422,
      "'t": 1423,
      "ĠIf": 1424,
      "ments": 1425,
      "On": 1426,
      "Ġfield": 1427,
      "LA": 1428,
      "ists": 1429,
      "Size": 1430,
      "For": 1431,
      "Ġ__": 1432,
      "prot": 1433,
      "Ġimp": 1434,
      "ilter": 1435,
      "Ġsa": 1436,
      "Form": 1437,
      "air": 1438,
      "UR": 1439,
      "node": 1440,
      "Ġar": 1441,
      "As": 1442,
      "wn": 1443,
      "ott": 1444,
      "cept": 1445,
      "apt": 1446,
      "sponse": 1447,
      "ivers": 1448,
      "Ġrel": 1449,
      "map": 1450,
      "valid": 1451,
      "color": 1452,
      "Hand": 1453,
      "ports": 1454,
      "result": 1455,
      "uring": 1456,
      "ypes": 1457,
      "Ġoper": 1458,
      "30": 1459,
      "vel": 1460,
      "ync": 1461,
      "een": 1462,
      "Ġexpect": 1463,
      "lag": 1464,
      "word": 1465,
      "true": 1466,
      "create": 1467,
      "++": 1468,
      "igned": 1469,
      "ince": 1470,
      "=\"+": 1471,
      "Ġnil": 1472,
      "ox": 1473,
      "ven": 1474,
      "object": 1475,
      "des": 1476,
      "att": 1477,
      "[]": 1478,
      "System": 1479,
      "rem": 1480,
      "ĠGet": 1481,
      "Ġcons": 1482,
      "Ġpeople": 1483,
      "Ġthem": 1484,
      "Ġsize": 1485,
      "rame": 1486,
      "search": 1487,
      "plate": 1488,
      "eturn": 1489,
      "input": 1490,
      "ector": 1491,
      "ected": 1492,
      "Ġrun": 1493,
      "IC": 1494,
      "itor": 1495,
      "Ġ};": 1496,
      "iver": 1497,
      "Ġfe": 1498,
      "Ġinst": 1499,
      "Ġinv": 1500,
      "Of": 1501,
      "Ġkn": 1502,
      "default": 1503,
      "cal": 1504,
      "edia": 1505,
      "style": 1506,
      "ĠAn": 1507,
      "ient": 1508,
      "Ġgener": 1509,
      "error": 1510,
      "block": 1511,
      "Val": 1512,
      "Ġhand": 1513,
      "include": 1514,
      "Or": 1515,
      "itial": 1516,
      "rough": 1517,
      "...": 1518,
      "='": 1519,
      "Ġshe": 1520,
      "ily": 1521,
      "ĠAl": 1522,
      "orn": 1523,
      "lose": 1524,
      "abled": 1525,
      "nection": 1526,
      "Result": 1527,
      "De": 1528,
      "ĠSh": 1529,
      "Ġlong": 1530,
      "Des": 1531,
      "ains": 1532,
      "####": 1533,
      "Ġrep": 1534,
      "Ġneed": 1535,
      "Ġelement": 1536,
      "ru": 1537,
      "width": 1538,
      "title": 1539,
      "Ġread": 1540,
      "Ġacc": 1541,
      "raph": 1542,
      "version": 1543,
      "raw": 1544,
      "Message": 1545,
      "Query": 1546,
      "ident": 1547,
      "Ġfollow": 1548,
      "UT": 1549,
      "oth": 1550,
      "Up": 1551,
      "state": 1552,
      "50": 1553,
      "Refer": 1554,
      "Ġpar": 1555,
      "loat": 1556,
      "als": 1557,
      "ĠDe": 1558,
      "https": 1559,
      "no": 1560,
      "000": 1561,
      "istri": 1562,
      "irt": 1563,
      "Ġgr": 1564,
      "oci": 1565,
      "icon": 1566,
      "ateg": 1567,
      "Ġinclud": 1568,
      "ared": 1569,
      "LO": 1570,
      "enu": 1571,
      "ULL": 1572,
      "iter": 1573,
      "uf": 1574,
      "reate": 1575,
      "ffset": 1576,
      "Ġ-->": 1577,
      "ization": 1578,
      "Ġgroup": 1579,
      "ĠAs": 1580,
      "start": 1581,
      "vert": 1582,
      "velo": 1583,
      "Ġmy": 1584,
      "Ġtext": 1585,
      "Ġdif": 1586,
      "Ġyour": 1587,
      "itt": 1588,
      "ponse": 1589,
      "uccess": 1590,
      "FF": 1591,
      "ression": 1592,
      "22": 1593,
      "man": 1594,
      "Ġimport": 1595,
      "Ġed": 1596,
      "AD": 1597,
      "--------------------------------": 1598,
      "Ġright": 1599,
      "umer": 1600,
      "lication": 1601,
      "ename": 1602,
      "ason": 1603,
      "lear": 1604,
      "uto": 1605,
      "ĠAmeric": 1606,
      "aint": 1607,
      "ĠX": 1608,
      "Ġcal": 1609,
      "egin": 1610,
      "Ġjava": 1611,
      "formation": 1612,
      "ustom": 1613,
      "Ġmin": 1614,
      "from": 1615,
      "web": 1616,
      "uthor": 1617,
      "ek": 1618,
      "Al": 1619,
      "rop": 1620,
      "Ġu": 1621,
      "Manager": 1622,
      "Ġoptions": 1623,
      "Ġhttp": 1624,
      "ik": 1625,
      "info": 1626,
      "ency": 1627,
      "Ġsuch": 1628,
      "event": 1629,
      "Ġconfig": 1630,
      "ines": 1631,
      "MA": 1632,
      "ĉĉĉĉĉĉ": 1633,
      "tt": 1634,
      "ĠZ": 1635,
      "leg": 1636,
      "iven": 1637,
      "Model": 1638,
      "198": 1639,
      "etween": 1640,
      "24": 1641,
      "model": 1642,
      "Out": 1643,
      "ING": 1644,
      "Ġour": 1645,
      "func": 1646,
      "gt": 1647,
      "ah": 1648,
      "dt": 1649,
      "body": 1650,
      "Ġusing": 1651,
      "lobal": 1652,
      "Loc": 1653,
      "Log": 1654,
      "ched": 1655,
      "ait": 1656,
      "chool": 1657,
      "Ġdirect": 1658,
      "Ġuser": 1659,
      "box": 1660,
      "Is": 1661,
      "Ġtarget": 1662,
      "ĠCol": 1663,
      "imp": 1664,
      "Ġfound": 1665,
      "ĠĠĠĠĠĠĠĠĠĠĠĠ": 1666,
      "Group": 1667,
      "inter": 1668,
      "Inter": 1669,
      "ML": 1670,
      "Ġlog": 1671,
      "ful": 1672,
      "erson": 1673,
      "work": 1674,
      "App": 1675,
      "uc": 1676,
      "CH": 1677,
      "Ġwhile": 1678,
      "Int": 1679,
      "ants": 1680,
      "utes": 1681,
      "Ġthrough": 1682,
      "gram": 1683,
      "Ġcheck": 1684,
      "Property": 1685,
      "actory": 1686,
      "Ġnode": 1687,
      "asses": 1688,
      "IG": 1689,
      "Ġmost": 1690,
      "Ġshow": 1691,
      "other": 1692,
      "Ġcontent": 1693,
      "base": 1694,
      "wh": 1695,
      "ĠSystem": 1696,
      "lem": 1697,
      "ement": 1698,
      "Client": 1699,
      "uble": 1700,
      "fe": 1701,
      "Ġbefore": 1702,
      "tings": 1703,
      "imes": 1704,
      "point": 1705,
      "ats": 1706,
      "Ġbool": 1707,
      "Ser": 1708,
      "fin": 1709,
      "Ġcreate": 1710,
      "context": 1711,
      "ote": 1712,
      "Ġph": 1713,
      "content": 1714,
      "options": 1715,
      "ends": 1716,
      "Ġinstance": 1717,
      "Ġam": 1718,
      "ED": 1719,
      "Response": 1720,
      "33": 1721,
      "Ġversion": 1722,
      "Ġpoint": 1723,
      "select": 1724,
      "bers": 1725,
      "Ġjust": 1726,
      "ET": 1727,
      "================": 1728,
      "Ġyears": 1729,
      "Call": 1730,
      "Arg": 1731,
      "Reg": 1732,
      "Count": 1733,
      "odes": 1734,
      "Ġbase": 1735,
      "call": 1736,
      "MP": 1737,
      "lp": 1738,
      "roller": 1739,
      "Ġpath": 1740,
      "ĠQ": 1741,
      "Ġindex": 1742,
      "Table": 1743,
      "perties": 1744,
      "Ġlike": 1745,
      "Ġac": 1746,
      "ope": 1747,
      "Ġsrc": 1748,
      "Ġsaid": 1749,
      "ife": 1750,
      "ĠWe": 1751,
      "Comm": 1752,
      "Ġmake": 1753,
      "Ġcontext": 1754,
      "ension": 1755,
      "false": 1756,
      "Ġprot": 1757,
      "overn": 1758,
      "Ġstyle": 1759,
      "sw": 1760,
      "ĠFor": 1761,
      "IS": 1762,
      "ĠSet": 1763,
      "duct": 1764,
      "etwork": 1765,
      "ĠĠĠĠĠĠĠĠĠĠ": 1766,
      "Ġbetween": 1767,
      "Ġlast": 1768,
      "tes": 1769,
      "Ġinput": 1770,
      "ars": 1771,
      "Ġdr": 1772,
      "ower": 1773,
      "aj": 1774,
      "Ġagain": 1775,
      "idd": 1776,
      "Ġz": 1777,
      "Ġcode": 1778,
      "package": 1779,
      "urs": 1780,
      "Ġwhat": 1781,
      "module": 1782,
      "method": 1783,
      "})": 1784,
      "next": 1785,
      "Ġdoes": 1786,
      "arn": 1787,
      "ym": 1788,
      "User": 1789,
      "=\"../../../../": 1790,
      "ane": 1791,
      "Dis": 1792,
      "Ġchild": 1793,
      "Ġsupport": 1794,
      "UN": 1795,
      "Ġstruct": 1796,
      "pos": 1797,
      "mall": 1798,
      ">&": 1799,
      "iled": 1800,
      "Sc": 1801,
      "Ġstud": 1802,
      "count": 1803,
      "Ġmem": 1804,
      "Method": 1805,
      "ape": 1806,
      "ift": 1807,
      "my": 1808,
      "otype": 1809,
      "head": 1810,
      "arameter": 1811,
      "Ġbreak": 1812,
      "Override": 1813,
      "way": 1814,
      "Ġhow": 1815,
      "^{": 1816,
      "40": 1817,
      "oh": 1818,
      "ood": 1819,
      "ingle": 1820,
      "ough": 1821,
      "Ġsame": 1822,
      "Ġeach": 1823,
      "Ġitem": 1824,
      "css": 1825,
      "tn": 1826,
      ">(": 1827,
      "Ġcent": 1828,
      "Cell": 1829,
      "Ġwrit": 1830,
      "ENT": 1831,
      "Ġthese": 1832,
      "DO": 1833,
      "db": 1834,
      "member": 1835,
      "google": 1836,
      "doc": 1837,
      "ron": 1838,
      "www": 1839,
      "check": 1840,
      "ived": 1841,
      "Stream": 1842,
      "lex": 1843,
      "Ġ()": 1844,
      "Ġhim": 1845,
      "])": 1846,
      "option": 1847,
      "ifier": 1848,
      "down": 1849,
      "lib": 1850,
      "velop": 1851,
      "Ġstd": 1852,
      "lease": 1853,
      "AB": 1854,
      "ĠIs": 1855,
      "Color": 1856,
      "Ġlink": 1857,
      "From": 1858,
      "ender": 1859,
      "iversity": 1860,
      "Ġcor": 1861,
      "Ġsystem": 1862,
      "197": 1863,
      "ider": 1864,
      "Util": 1865,
      "place": 1866,
      "Ġmust": 1867,
      "ails": 1868,
      "Input": 1869,
      "annel": 1870,
      "Trans": 1871,
      "Ġtry": 1872,
      "reat": 1873,
      "}$": 1874,
      "begin": 1875,
      "ES": 1876,
      "ship": 1877,
      "using": 1878,
      "anc": 1879,
      "}\\": 1880,
      "Ġbeing": 1881,
      "java": 1882,
      "max": 1883,
      "button": 1884,
      "Ġever": 1885,
      "21": 1886,
      "Ġdocument": 1887,
      ".\"": 1888,
      "Status": 1889,
      "ives": 1890,
      "New": 1891,
      "dev": 1892,
      "Ġref": 1893,
      "ism": 1894,
      ";&": 1895,
      "ĠNULL": 1896,
      "do": 1897,
      "ume": 1898,
      "static": 1899,
      "iable": 1900,
      "Ġart": 1901,
      "uage": 1902,
      "Ã©": 1903,
      "Ġmodel": 1904,
      "Ġblock": 1905,
      "ffect": 1906,
      "oss": 1907,
      "Builder": 1908,
      "Ġ<<": 1909,
      "Ġprovid": 1910,
      "Ġtem": 1911,
      "client": 1912,
      "Ġnow": 1913,
      "outh": 1914,
      "TH": 1915,
      "aining": 1916,
      "ission": 1917,
      "Options": 1918,
      "Token": 1919,
      "ĠAss": 1920,
      "Ġatt": 1921,
      "current": 1922,
      "fl": 1923,
      "ier": 1924,
      "End": 1925,
      "ymb": 1926,
      "Style": 1927,
      "ql": 1928,
      "ottom": 1929,
      "cause": 1930,
      "ric": 1931,
      "Ġsecond": 1932,
      "Ġcoun": 1933,
      "Ġbr": 1934,
      "istory": 1935,
      "query": 1936,
      "ures": 1937,
      "core": 1938,
      "ĠĠĠĠĠĠĠĠĠĠĠĠĠĠĠĠĠĠĠĠĠĠĠĠĠĠĠĠĠĠĠ": 1939,
      "Ġbuild": 1940,
      "image": 1941,
      "Cl": 1942,
      "ources": 1943,
      "Ġdiffer": 1944,
      "ithub": 1945,
      "((": 1946,
      "imit": 1947,
      "irtual": 1948,
      "has": 1949,
      "ymbol": 1950,
      "android": 1951,
      "Ġwell": 1952,
      "icy": 1953,
      "null": 1954,
      "Exp": 1955,
      "Ġmessage": 1956,
      "Ġvalues": 1957,
      "element": 1958,
      "Ġgiven": 1959,
      "we": 1960,
      "Ġsource": 1961,
      "argin": 1962,
      "request": 1963,
      "part": 1964,
      "Lo": 1965,
      "ta": 1966,
      "net": 1967,
      "lish": 1968,
      "Ġbecause": 1969,
      "Ġboolean": 1970,
      "print": 1971,
      "23": 1972,
      "defined": 1973,
      "ansp": 1974,
      "Ġlocal": 1975,
      "TD": 1976,
      "=\"#": 1977,
      "lick": 1978,
      "Instance": 1979,
      "Ġdec": 1980,
      "All": 1981,
      "\".": 1982,
      "Ġcould": 1983,
      "ever": 1984,
      "ns": 1985,
      "pi": 1986,
      "orth": 1987,
      "AME": 1988,
      "0000": 1989,
      "....": 1990,
      "CE": 1991,
      "=\"../": 1992,
      "ause": 1993,
      "Null": 1994,
      "Ġsign": 1995,
      "IL": 1996,
      "arams": 1997,
      "Ġnext": 1998,
      "ification": 1999,
      "ĠĠĠĠĠĠĠĠĠĠĠĠĠĠĠĠĠ": 2000,
      "Ġmany": 2001,
      "Ġtop": 2002,
      "amily": 2003,
      "ved": 2004,
      "run": 2005,
      ";</": 2006,
      "60": 2007,
      "github": 2008,
      "itch": 2009,
      "Ð°": 2010,
      "ctions": 2011,
      "namespace": 2012,
      "bs": 2013,
      "Date": 2014,
      "Source": 2015,
      "Pl": 2016,
      "arameters": 2017,
      "atab": 2018,
      "idget": 2019,
      "](": 2020,
      "Ref": 2021,
      "ting": 2022,
      "ĠComm": 2023,
      "Image": 2024,
      "args": 2025,
      "side": 2026,
      "ĠComp": 2027,
      "ball": 2028,
      "urity": 2029,
      "ĠLe": 2030,
      "IP": 2031,
      "arm": 2032,
      "ather": 2033,
      "chema": 2034,
      "Ġorig": 2035,
      "light": 2036,
      "ten": 2037,
      "Ġmax": 2038,
      "aster": 2039,
      "Ġposition": 2040,
      "Pr": 2041,
      "depend": 2042,
      "amed": 2043,
      "less": 2044,
      "Ġleft": 2045,
      "Ġtable": 2046,
      "prototype": 2047,
      "*/": 2048,
      "sup": 2049,
      "Ġnon": 2050,
      "Ġorder": 2051,
      "(\\": 2052,
      "Ġrecord": 2053,
      "Base": 2054,
      "YPE": 2055,
      "ĉĠĠĠ": 2056,
      "Ġ+=": 2057,
      "And": 2058,
      "TO": 2059,
      "Ġfin": 2060,
      "rec": 2061,
      "AS": 2062,
      "Ġduring": 2063,
      "Attribute": 2064,
      "bl": 2065,
      "Buffer": 2066,
      "Ġbackground": 2067,
      "ai": 2068,
      "References": 2069,
      "ury": 2070,
      "Block": 2071,
      "ĠList": 2072,
      "This": 2073,
      "day": 2074,
      "Resource": 2075,
      "Ġallow": 2076,
      "Ġmade": 2077,
      "dir": 2078,
      "uck": 2079,
      "Ġmon": 2080,
      "Ġcontin": 2081,
      "ied": 2082,
      "Ġresponse": 2083,
      "refer": 2084,
      "US": 2085,
      "Sub": 2086,
      "Ġprocess": 2087,
      "icense": 2088,
      "Ġest": 2089,
      "eter": 2090,
      "NO": 2091,
      "rag": 2092,
      "Ð¾": 2093,
      "see": 2094,
      "Handler": 2095,
      "ĠRes": 2096,
      "ugin": 2097,
      "ĠOn": 2098,
      "ware": 2099,
      "Ġcolor": 2100,
      "Run": 2101,
      "Ġvis": 2102,
      "Gener": 2103,
      "Str": 2104,
      "atabase": 2105,
      "ĠWh": 2106,
      "Ġview": 2107,
      "atri": 2108,
      "etad": 2109,
      "hand": 2110,
      "Ġserv": 2111,
      "({": 2112,
      "require": 2113,
      "uments": 2114,
      "Ġinformation": 2115,
      "ONT": 2116,
      "aces": 2117,
      "ĠAmerican": 2118,
      "Ġboth": 2119,
      "etadata": 2120,
      "Par": 2121,
      "Ġborder": 2122,
      "append": 2123,
      "Ġandroid": 2124,
      "Ġpass": 2125,
      "ets": 2126,
      "init": 2127,
      "Lay": 2128,
      "target": 2129,
      "tract": 2130,
      "EX": 2131,
      "logy": 2132,
      ")</": 2133,
      "Ġrece": 2134,
      "server": 2135,
      "Ġfind": 2136,
      "adding": 2137,
      "Ġhigh": 2138,
      "tx": 2139,
      "Ġown": 2140,
      "loy": 2141,
      "lected": 2142,
      "ĠSc": 2143,
      "Ad": 2144,
      "Ġopen": 2145,
      "po": 2146,
      "Em": 2147,
      "Ġdid": 2148,
      "ches": 2149,
      "Oper": 2150,
      "Ed": 2151,
      "Default": 2152,
      "Ġenc": 2153,
      "Ġbeg": 2154,
      "Ġfollowing": 2155,
      "ĠUniversity": 2156,
      "Ġmod": 2157,
      "Content": 2158,
      "<!--": 2159,
      "ailable": 2160,
      "Ġwidth": 2161,
      "ĠTest": 2162,
      "ptr": 2163,
      "med": 2164,
      "ĠĠĊ": 2165,
      "oy": 2166,
      "Bar": 2167,
      "json": 2168,
      "ually": 2169,
      "Ġ->": 2170,
      "Ġ\"\"\"": 2171,
      "Ġprodu": 2172,
      "attern": 2173,
      "alth": 2174,
      "php": 2175,
      "[\"": 2176,
      "rid": 2177,
      "Component": 2178,
      "27": 2179,
      "ained": 2180,
      "page": 2181,
      "28": 2182,
      "Line": 2183,
      "parent": 2184,
      "ĠUnited": 2185,
      "ling": 2186,
      "Ġcalled": 2187,
      "Function": 2188,
      "ret": 2189,
      "Ġrefer": 2190,
      "sk": 2191,
      "ession": 2192,
      "section": 2193,
      "child": 2194,
      "Version": 2195,
      "ĠÐ": 2196,
      "orage": 2197,
      "Ġmov": 2198,
      "Ġpop": 2199,
      "header": 2200,
      "lished": 2201,
      "mod": 2202,
      "ught": 2203,
      "height": 2204,
      "UE": 2205,
      "ĠObject": 2206,
      "iving": 2207,
      "vious": 2208,
      "NS": 2209,
      "Ġproperty": 2210,
      "Ġoutput": 2211,
      "ural": 2212,
      "DI": 2213,
      "ĠAnd": 2214,
      "Ġthree": 2215,
      "older": 2216,
      "ience": 2217,
      "acter": 2218,
      "usic": 2219,
      "ormal": 2220,
      "Ġperform": 2221,
      "Ġlarg": 2222,
      "tag": 2223,
      "she": 2224,
      "Ġret": 2225,
      "Ġmap": 2226,
      "Ġsee": 2227,
      "Start": 2228,
      ".âĢĿ": 2229,
      "Action": 2230,
      "active": 2231,
      "itions": 2232,
      "CK": 2233,
      "Ġop": 2234,
      "Ġind": 2235,
      "cho": 2236,
      "ross": 2237,
      "Ġman": 2238,
      "ĠReturn": 2239,
      "Ġparent": 2240,
      "iron": 2241,
      "ina": 2242,
      "80": 2243,
      "Ġevery": 2244,
      "But": 2245,
      "bug": 2246,
      "Ðµ": 2247,
      "Ġproject": 2248,
      "vider": 2249,
      "por": 2250,
      "Ġurl": 2251,
      "}{": 2252,
      "Ġsur": 2253,
      "Ġmark": 2254,
      "cast": 2255,
      "Ġcount": 2256,
      "equal": 2257,
      "Ġdevelop": 2258,
      "Ġmatch": 2259,
      "Rec": 2260,
      "rad": 2261,
      "FI": 2262,
      "pan": 2263,
      "Factory": 2264,
      "Ġclient": 2265,
      "irc": 2266,
      "66": 2267,
      "case": 2268,
      "push": 2269,
      "endif": 2270,
      "Format": 2271,
      "alk": 2272,
      "Ġ{@": 2273,
      "len": 2274,
      "Ġ((": 2275,
      "semb": 2276,
      "gress": 2277,
      "Filter": 2278,
      "29": 2279,
      "ĠOr": 2280,
      "lags": 2281,
      "write": 2282,
      "rows": 2283,
      "Ġwant": 2284,
      "});": 2285,
      "riter": 2286,
      "Number": 2287,
      "tributes": 2288,
      "xy": 2289,
      "bed": 2290,
      "ony": 2291,
      "obj": 2292,
      "Ġworld": 2293,
      "ĠĠĠĠĠĠĠĠĠĠĠĠĠĠ": 2294,
      "Ġav": 2295,
      "ĠCl": 2296,
      "xml": 2297,
      "Equals": 2298,
      "ium": 2299,
      "Point": 2300,
      "Ġteam": 2301,
      "OL": 2302,
      "EL": 2303,
      "Ġsol": 2304,
      "uss": 2305,
      "amb": 2306,
      "34": 2307,
      "Ġ!==": 2308,
      "Ġservice": 2309,
      "ital": 2310,
      "iction": 2311,
      "Ġprob": 2312,
      "26": 2313,
      "Ġthrows": 2314,
      "ĠEn": 2315,
      "ideo": 2316,
      "with": 2317,
      "eq": 2318,
      "Ġvalid": 2319,
      "ump": 2320,
      "property": 2321,
      "nect": 2322,
      "ination": 2323,
      "src": 2324,
      "rl": 2325,
      "Act": 2326,
      "expect": 2327,
      "anged": 2328,
      "ration": 2329,
      "open": 2330,
      "ailed": 2331,
      "Ġmodule": 2332,
      "Tag": 2333,
      "finished": 2334,
      "ading": 2335,
      "ior": 2336,
      "Ġdistri": 2337,
      "last": 2338,
      "ĠPr": 2339,
      "ĠIN": 2340,
      "HT": 2341,
      "ĠPh": 2342,
      "Task": 2343,
      "True": 2344,
      "ĠAt": 2345,
      "btn": 2346,
      "We": 2347,
      "Hel": 2348,
      "Ġimplement": 2349,
      "Ġdifferent": 2350,
      "Window": 2351,
      "dom": 2352,
      "af": 2353,
      "aders": 2354,
      "ohn": 2355,
      "signed": 2356,
      "ATE": 2357,
      "Ġlevel": 2358,
      "Ġhere": 2359,
      "(&": 2360,
      "Frame": 2361,
      "Ass": 2362,
      "align": 2363,
      "){": 2364,
      "ĉĊ": 2365,
      "aking": 2366,
      ".,": 2367,
      "status": 2368,
      "jav": 2369,
      "Ġdown": 2370,
      "ixed": 2371,
      "ready": 2372,
      "ĠInd": 2373,
      "ssion": 2374,
      "ux": 2375,
      "99": 2376,
      "frame": 2377,
      "Ġ($": 2378,
      "ialog": 2379,
      "Ġear": 2380,
      "No": 2381,
      "Ġway": 2382,
      "Ġeven": 2383,
      "Create": 2384,
      "////////////////": 2385,
      "Ġdisc": 2386,
      "Ġpartic": 2387,
      "Length": 2388,
      "ene": 2389,
      "Ġcallback": 2390,
      "ĠAdd": 2391,
      "Ġknow": 2392,
      "overnment": 2393,
      "ecut": 2394,
      "Nav": 2395,
      "Ġbro": 2396,
      "char": 2397,
      "sec": 2398,
      "Be": 2399,
      "Ġincluding": 2400,
      "ĠFr": 2401,
      "izer": 2402,
      "itional": 2403,
      "build": 2404,
      "Ġsince": 2405,
      "ultip": 2406,
      "sg": 2407,
      "Ġappro": 2408,
      "Ġpost": 2409,
      "_.": 2410,
      "viron": 2411,
      "Child": 2412,
      "Ġbl": 2413,
      "Ġlet": 2414,
      "Ġthose": 2415,
      "ĠMar": 2416,
      "tab": 2417,
      "atrix": 2418,
      "Row": 2419,
      "Ġagainst": 2420,
      "flow": 2421,
      "ĠReg": 2422,
      "post": 2423,
      "Ġsuccess": 2424,
      "unfinished": 2425,
      "Ġprotected": 2426,
      "opt": 2427,
      "Ġdon": 2428,
      "Ġdet": 2429,
      "private": 2430,
      "efore": 2431,
      "da": 2432,
      "ERT": 2433,
      "Ġprogram": 2434,
      "Ġcommun": 2435,
      "Ġ,": 2436,
      "ivity": 2437,
      "///": 2438,
      "ocol": 2439,
      "unk": 2440,
      "Ġlook": 2441,
      "uster": 2442,
      "Command": 2443,
      "GL": 2444,
      "Ġplace": 2445,
      "}.": 2446,
      "ential": 2447,
      "Check": 2448,
      "ĠĠĠĠĠĠĠĠĊ": 2449,
      "buf": 2450,
      "come": 2451,
      "uid": 2452,
      "omen": 2453,
      "spec": 2454,
      "Ġsw": 2455,
      "\"]": 2456,
      "Link": 2457,
      "dl": 2458,
      "ĠShe": 2459,
      "rowser": 2460,
      "Ġcommand": 2461,
      "PRO": 2462,
      "Ġvery": 2463,
      "Page": 2464,
      "returns": 2465,
      "Ġaut": 2466,
      "attr": 2467,
      "imple": 2468,
      "aph": 2469,
      "ĠNone": 2470,
      "ĠEng": 2471,
      "Ġhelp": 2472,
      "_{\\": 2473,
      "ERR": 2474,
      "Read": 2475,
      "Ġresource": 2476,
      "ABLE": 2477,
      "Listener": 2478,
      "Ġpres": 2479,
      "55": 2480,
      "description": 2481,
      "find": 2482,
      "anguage": 2483,
      "ibr": 2484,
      "$.": 2485,
      "Ġappe": 2486,
      "Ġpage": 2487,
      "FA": 2488,
      "ĠStates": 2489,
      "OP": 2490,
      "\\\\\\\\": 2491,
      "Ġdev": 2492,
      "aterial": 2493,
      "ocus": 2494,
      "Ġ[]": 2495,
      "exp": 2496,
      "Ġtyp": 2497,
      "Collection": 2498,
      "Ġlaw": 2499,
      "format": 2500,
      "Part": 2501,
      "host": 2502,
      "pc": 2503,
      "AP": 2504,
      "serv": 2505,
      "SON": 2506,
      "remove": 2507,
      "uro": 2508,
      "LASS": 2509,
      "AG": 2510,
      "SC": 2511,
      "stru": 2512,
      "icro": 2513,
      "vis": 2514,
      "Spec": 2515,
      "ointer": 2516,
      "Cache": 2517,
      "ee": 2518,
      "Ġcorre": 2519,
      "first": 2520,
      "bb": 2521,
      "ley": 2522,
      "lector": 2523,
      "mark": 2524,
      "akes": 2525,
      "mt": 2526,
      "ulation": 2527,
      "Ġexpected": 2528,
      "Ġdisplay": 2529,
      "navbar": 2530,
      "uk": 2531,
      "structor": 2532,
      "Ð¸": 2533,
      "REF": 2534,
      "Ġschool": 2535,
      "creen": 2536,
      "container": 2537,
      "bottom": 2538,
      "ird": 2539,
      "ored": 2540,
      "ole": 2541,
      "MO": 2542,
      "une": 2543,
      "Ġcr": 2544,
      "Ġrange": 2545,
      "Ġaccess": 2546,
      "Output": 2547,
      "\"),": 2548,
      "refix": 2549,
      "Pol": 2550,
      "${": 2551,
      "URL": 2552,
      "Ġlater": 2553,
      "Label": 2554,
      "Ġmet": 2555,
      "meta": 2556,
      "INT": 2557,
      "++)": 2558,
      "display": 2559,
      "project": 2560,
      "ances": 2561,
      "ique": 2562,
      "anges": 2563,
      "undle": 2564,
      "icle": 2565,
      "(_": 2566,
      "Âł": 2567,
      "Valid": 2568,
      "\").": 2569,
      "strong": 2570,
      "update": 2571,
      "ended": 2572,
      "filter": 2573,
      "OT": 2574,
      "tra": 2575,
      "Ġaddress": 2576,
      "39": 2577,
      "Ġperson": 2578,
      "]);": 2579,
      "oper": 2580,
      "Offset": 2581,
      "External": 2582,
      "Ġmain": 2583,
      "Ext": 2584,
      "ĠMay": 2585,
      "Ġrequired": 2586,
      "EE": 2587,
      "loud": 2588,
      "stream": 2589,
      "py": 2590,
      "Return": 2591,
      "olume": 2592,
      "pha": 2593,
      "ĉĠ": 2594,
      "Ġextends": 2595,
      "Controller": 2596,
      "position": 2597,
      "Ġinclude": 2598,
      "Ġiss": 2599,
      "ĉĉĉĉĉĉĉĉ": 2600,
      "lot": 2601,
      "ords": 2602,
      "iness": 2603,
      "Ġchange": 2604,
      "Ġident": 2605,
      "Ġspecified": 2606,
      "Ġrepresent": 2607,
      "ero": 2608,
      "TYPE": 2609,
      "Ġwithout": 2610,
      "igger": 2611,
      "urch": 2612,
      "ired": 2613,
      "sl": 2614,
      "SP": 2615,
      "ius": 2616,
      "Ġinitial": 2617,
      "ĠEX": 2618,
      "2015": 2619,
      "Ġlength": 2620,
      "ĠInt": 2621,
      "sole": 2622,
      "Ġaction": 2623,
      "bf": 2624,
      "Ġimage": 2625,
      "ĠĠĠĠĠĠĠĠĠĠĠĠĊ": 2626,
      "ĠCan": 2627,
      "Ġfeature": 2628,
      "Mode": 2629,
      "FONT": 2630,
      "ategory": 2631,
      "Ġreal": 2632,
      "Web": 2633,
      "iag": 2634,
      "Column": 2635,
      "vision": 2636,
      "inition": 2637,
      "Ġloc": 2638,
      "Button": 2639,
      "ĠAd": 2640,
      "2017": 2641,
      "menu": 2642,
      "Ġins": 2643,
      "vironment": 2644,
      "ocket": 2645,
      "IM": 2646,
      "Ġuint": 2647,
      "Ġheight": 2648,
      "ways": 2649,
      "Ġdescri": 2650,
      "Ġlinks": 2651,
      "soft": 2652,
      "inary": 2653,
      "Ġfilm": 2654,
      "ĠâĢĶ": 2655,
      "std": 2656,
      "ported": 2657,
      "ially": 2658,
      "Ġcour": 2659,
      "ability": 2660,
      "Ġbook": 2661,
      "Ġexample": 2662,
      "01": 2663,
      "number": 2664,
      "ternational": 2665,
      "BU": 2666,
      "Ġconf": 2667,
      "ĠYou": 2668,
      "Ġexist": 2669,
      "Ġlife": 2670,
      "CON": 2671,
      "params": 2672,
      "alt": 2673,
      "ĠUS": 2674,
      "iod": 2675,
      "gener": 2676,
      "ness": 2677,
      "instance": 2678,
      "2016": 2679,
      "Ġcopy": 2680,
      "response": 2681,
      "ynt": 2682,
      "Ġcare": 2683,
      "VER": 2684,
      "194": 2685,
      "2014": 2686,
      "andard": 2687,
      "Ġold": 2688,
      "Ġtri": 2689,
      "Ġbased": 2690,
      "ety": 2691,
      "Wh": 2692,
      "mem": 2693,
      "Ġlabel": 2694,
      "Var": 2695,
      "ÑĤ": 2696,
      "hether": 2697,
      "Ġoption": 2698,
      "Ġocc": 2699,
      "img": 2700,
      "offset": 2701,
      "tool": 2702,
      "Ġfour": 2703,
      "teger": 2704,
      "Ġrest": 2705,
      "ĠAll": 2706,
      "imary": 2707,
      "Ġobj": 2708,
      "inc": 2709,
      "HE": 2710,
      "Ġcolumn": 2711,
      "rist": 2712,
      "aim": 2713,
      "omet": 2714,
      "ls": 2715,
      "ĠIm": 2716,
      "35": 2717,
      "png": 2718,
      "Pre": 2719,
      "ured": 2720,
      ":\"": 2721,
      "Ġlen": 2722,
      "IO": 2723,
      "Ph": 2724,
      "ĠLicense": 2725,
      "ĠState": 2726,
      "Ġknown": 2727,
      "Ġwindow": 2728,
      "********************************": 2729,
      "illion": 2730,
      "Ġmat": 2731,
      "UI": 2732,
      "âĢľ": 2733,
      "ĠGL": 2734,
      "earch": 2735,
      "Ġcatch": 2736,
      "Ġsk": 2737,
      "mo": 2738,
      "entry": 2739,
      "bum": 2740,
      "els": 2741,
      "Ġstatus": 2742,
      "arri": 2743,
      "Ġupdate": 2744,
      "ators": 2745,
      "off": 2746,
      "sembly": 2747,
      "bit": 2748,
      "~~": 2749,
      "equ": 2750,
      "Ġstill": 2751,
      ">>": 2752,
      "ians": 2753,
      "illi": 2754,
      "ibility": 2755,
      "uture": 2756,
      "service": 2757,
      "Ġsingle": 2758,
      "Dep": 2759,
      "Ġsuper": 2760,
      "<?": 2761,
      "Ġuntil": 2762,
      "ically": 2763,
      "Width": 2764,
      "kit": 2765,
      "aly": 2766,
      "Url": 2767,
      "2018": 2768,
      "Ġren": 2769,
      "ascript": 2770,
      "ploy": 2771,
      "Ġmargin": 2772,
      "cache": 2773,
      "layout": 2774,
      "Ġwithin": 2775,
      "font": 2776,
      "ackage": 2777,
      "Ġnum": 2778,
      "num": 2779,
      "Module": 2780,
      "ĠJohn": 2781,
      "ĠPar": 2782,
      "Char": 2783,
      "close": 2784,
      "Ġprint": 2785,
      "frac": 2786,
      "cite": 2787,
      "output": 2788,
      "oding": 2789,
      "Ġgu": 2790,
      "aut": 2791,
      "parse": 2792,
      "ĠPl": 2793,
      "CC": 2794,
      "dr": 2795,
      "andom": 2796,
      "Ġresp": 2797,
      "196": 2798,
      "Ġincre": 2799,
      "Sup": 2800,
      "Ġfl": 2801,
      "mon": 2802,
      "$,": 2803,
      "quence": 2804,
      "ĠWorld": 2805,
      "Ġargs": 2806,
      "Container": 2807,
      "Update": 2808,
      "igation": 2809,
      "udio": 2810,
      "Ġport": 2811,
      "Ġmuch": 2812,
      ",âĢĿ": 2813,
      "Ġpub": 2814,
      "Server": 2815,
      "Ġss": 2816,
      "ĠHow": 2817,
      "acy": 2818,
      "Types": 2819,
      "UM": 2820,
      "Ġresults": 2821,
      "ither": 2822,
      "ories": 2823,
      "Ġfore": 2824,
      "only": 2825,
      "ging": 2826,
      "Ġorgan": 2827,
      "Ġpresent": 2828,
      "ral": 2829,
      "resh": 2830,
      "37": 2831,
      "Ġleg": 2832,
      "It": 2833,
      "Provider": 2834,
      "imation": 2835,
      "ending": 2836,
      "Layout": 2837,
      "TP": 2838,
      "uint": 2839,
      "stract": 2840,
      "Ġfact": 2841,
      "Target": 2842,
      "arning": 2843,
      "If": 2844,
      "uilt": 2845,
      "ison": 2846,
      "2013": 2847,
      "inst": 2848,
      "ajor": 2849,
      "omic": 2850,
      "Ġcontrol": 2851,
      "ĠCent": 2852,
      "Ġauto": 2853,
      "atform": 2854,
      "Case": 2855,
      "Ġavailable": 2856,
      "Tem": 2857,
      "Ġla": 2858,
      "ĠArray": 2859,
      "').": 2860,
      "unit": 2861,
      "Ġseries": 2862,
      "Ġpolit": 2863,
      "ifact": 2864,
      "oto": 2865,
      "aving": 2866,
      "graph": 2867,
      "space": 2868,
      "ĠDo": 2869,
      "NAME": 2870,
      "Ġbus": 2871,
      "sheet": 2872,
      "oke": 2873,
      "Ġsmall": 2874,
      "ustr": 2875,
      "Ġtake": 2876,
      "Ġes": 2877,
      "Ent": 2878,
      "Ġbel": 2879,
      "ĠTo": 2880,
      "ths": 2881,
      "ĠYork": 2882,
      "```": 2883,
      "Address": 2884,
      "Ġgood": 2885,
      "apping": 2886,
      "Ġlow": 2887,
      "pol": 2888,
      "ead": 2889,
      "else": 2890,
      ".$": 2891,
      "Ð½": 2892,
      "Ġquery": 2893,
      "rm": 2894,
      "Ġsim": 2895,
      "ĠDef": 2896,
      "Ġinit": 2897,
      ")(": 2898,
      "cd": 2899,
      "Ġprom": 2900,
      "template": 2901,
      "IZ": 2902,
      "Ġhost": 2903,
      "PO": 2904,
      "rapper": 2905,
      "go": 2906,
      "QL": 2907,
      "Ġ]": 2908,
      "Ġopt": 2909,
      ",\"": 2910,
      "ĠGener": 2911,
      "idden": 2912,
      "ĠĠĠĠĠĠĠĠĠĠĠĠĠĠĠĠĠĠĠĠĠĠĠĠĠĠĠĠĠĠĠĠĠĠĠ": 2913,
      "Ġserver": 2914,
      "Ġeffect": 2915,
      "Ġmed": 2916,
      "Ġfoot": 2917,
      "nown": 2918,
      "imum": 2919,
      "criptor": 2920,
      "ograph": 2921,
      "ĠNo": 2922,
      "Interface": 2923,
      "AM": 2924,
      "enn": 2925,
      "ĠCount": 2926,
      "Ġanother": 2927,
      "ording": 2928,
      "ctx": 2929,
      "iler": 2930,
      "Ġfamily": 2931,
      "umb": 2932,
      "cy": 2933,
      "Ġconsider": 2934,
      "Ġalready": 2935,
      "uly": 2936,
      "center": 2937,
      "ĠBut": 2938,
      "ĠAssert": 2939,
      "Ġ<!--": 2940,
      "90": 2941,
      "gy": 2942,
      "utils": 2943,
      "change": 2944,
      "31": 2945,
      "ĠNational": 2946,
      "Ġposs": 2947,
      "annot": 2948,
      "Ġformat": 2949,
      "Ġaround": 2950,
      "ĠCo": 2951,
      "ĠGr": 2952,
      "sol": 2953,
      "Ġtag": 2954,
      "ately": 2955,
      "aml": 2956,
      "Ġdist": 2957,
      "Ġcap": 2958,
      "ĠApp": 2959,
      "Ġday": 2960,
      "column": 2961,
      "rior": 2962,
      "struction": 2963,
      "sets": 2964,
      "rypt": 2965,
      "ĠCont": 2966,
      "Ġdefined": 2967,
      "ĠCal": 2968,
      "Ġcond": 2969,
      "Ġoffic": 2970,
      "ĠAPI": 2971,
      "Back": 2972,
      "itory": 2973,
      "ĠJan": 2974,
      "ival": 2975,
      "ocial": 2976,
      "Range": 2977,
      "istry": 2978,
      "Ġpos": 2979,
      "36": 2980,
      "Ob": 2981,
      "df": 2982,
      "bind": 2983,
      "expected": 2984,
      "proto": 2985,
      "book": 2986,
      "mit": 2987,
      "show": 2988,
      "lin": 2989,
      "javascript": 2990,
      "Callback": 2991,
      "Do": 2992,
      "window": 2993,
      "Ġinternal": 2994,
      "aff": 2995,
      "ves": 2996,
      "Header": 2997,
      "ado": 2998,
      "ively": 2999,
      "evel": 3000,
      "Ġtot": 3001,
      "ĠReturns": 3002,
      "CL": 3003,
      "buffer": 3004,
      "ĠID": 3005,
      "Ġfont": 3006,
      "Ġsever": 3007,
      "Access": 3008,
      "Ġchildren": 3009,
      "ĠFile": 3010,
      "Box": 3011,
      "Ġreturns": 3012,
      "Ġoriginal": 3013,
      "75": 3014,
      "Rem": 3015,
      "Ġseason": 3016,
      "ĠHT": 3017,
      "API": 3018,
      "process": 3019,
      "Last": 3020,
      "should": 3021,
      "Ġbuffer": 3022,
      "cer": 3023,
      "ged": 3024,
      "bool": 3025,
      "Write": 3026,
      "root": 3027,
      "Ġbody": 3028,
      "Ġgovernment": 3029,
      "Ġtask": 3030,
      "ĠTe": 3031,
      "45": 3032,
      "Ġ$(": 3033,
      "uman": 3034,
      "typ": 3035,
      "Ġdest": 3036,
      "Ġthink": 3037,
      "Ġload": 3038,
      "anch": 3039,
      "apter": 3040,
      "Configuration": 3041,
      "ued": 3042,
      "2012": 3043,
      "ÑĢ": 3044,
      "Unit": 3045,
      "2011": 3046,
      "Ġplayers": 3047,
      "2010": 3048,
      "195": 3049,
      "Ġrele": 3050,
      "ĠBl": 3051,
      "ĠPol": 3052,
      "'),": 3053,
      "Ġmusic": 3054,
      "ĠType": 3055,
      "2019": 3056,
      "ops": 3057,
      "atal": 3058,
      "det": 3059,
      "Ġexper": 3060,
      "Mem": 3061,
      "ĠThey": 3062,
      "olution": 3063,
      "()->": 3064,
      "Ġcreated": 3065,
      "Ġinterface": 3066,
      "ĠMin": 3067,
      "([": 3068,
      "leted": 3069,
      "âĢĶ": 3070,
      "ynam": 3071,
      "ĠCLASS": 3072,
      "reference": 3073,
      "ĠBe": 3074,
      "task": 3075,
      "First": 3076,
      "rs": 3077,
      "Ġfull": 3078,
      "Utils": 3079,
      "ibrary": 3080,
      "rest": 3081,
      "Ġgame": 3082,
      "ĠHREF": 3083,
      "Ġwon": 3084,
      "used": 3085,
      "Dev": 3086,
      "Entry": 3087,
      "Per": 3088,
      "38": 3089,
      "Height": 3090,
      "ĠAct": 3091,
      "met": 3092,
      "Ġcell": 3093,
      "allet": 3094,
      "wards": 3095,
      "cor": 3096,
      "ules": 3097,
      "][": 3098,
      "match": 3099,
      "ansport": 3100,
      "########": 3101,
      "COL": 3102,
      "Ġdiv": 3103,
      "Ġann": 3104,
      "Ġestab": 3105,
      "Ġ**": 3106,
      "lip": 3107,
      "Ġconnection": 3108,
      "document": 3109,
      "Ġprevious": 3110,
      "amples": 3111,
      "Ġpower": 3112,
      "Ġke": 3113,
      "ague": 3114,
      "raft": 3115,
      "Ġoffset": 3116,
      "Parameter": 3117,
      "ĠRep": 3118,
      "board": 3119,
      "DB": 3120,
      "Det": 3121,
      "assword": 3122,
      "Ġparameter": 3123,
      "iff": 3124,
      "Connection": 3125,
      "Ġshort": 3126,
      "ĠThere": 3127,
      "ULT": 3128,
      "Ġbeh": 3129,
      "Ġdouble": 3130,
      "roy": 3131,
      "Ġcache": 3132,
      "STR": 3133,
      "uary": 3134,
      "queue": 3135,
      "ands": 3136,
      "Max": 3137,
      "ĠBy": 3138,
      "asic": 3139,
      "late": 3140,
      "Ġrole": 3141,
      "Fe": 3142,
      "Json": 3143,
      "Tree": 3144,
      "onents": 3145,
      "Empty": 3146,
      "sv": 3147,
      "VAL": 3148,
      "Ġ{}": 3149,
      ":</": 3150,
      "Ġarea": 3151,
      "ĠGe": 3152,
      "ĠWar": 3153,
      "Ġassoci": 3154,
      "Ġprov": 3155,
      "ĠCar": 3156,
      "Thread": 3157,
      "Ġfloat": 3158,
      "ĠWest": 3159,
      "Ġauthor": 3160,
      "ĉĉĉĉĉĉĉ": 3161,
      "Ġnone": 3162,
      "Ġeng": 3163,
      "reen": 3164,
      "Document": 3165,
      "PECT": 3166,
      "ica": 3167,
      "Position": 3168,
      "\"))": 3169,
      "los": 3170,
      "44": 3171,
      "imal": 3172,
      "ĠNov": 3173,
      "tml": 3174,
      "common": 3175,
      "era": 3176,
      "Ġhome": 3177,
      "gest": 3178,
      "mut": 3179,
      "ĠBrit": 3180,
      "ensor": 3181,
      "stit": 3182,
      "Ġhead": 3183,
      "olve": 3184,
      "Ġdate": 3185,
      "scope": 3186,
      "Vis": 3187,
      "acity": 3188,
      "anagement": 3189,
      "Ġalbum": 3190,
      "?:": 3191,
      "urope": 3192,
      "Ġ>=": 3193,
      "Ġglobal": 3194,
      "Ġfiles": 3195,
      "Ġwhether": 3196,
      "itive": 3197,
      "Ġbest": 3198,
      "Ġmembers": 3199,
      "Sec": 3200,
      "ecute": 3201,
      "Ġdepend": 3202,
      "si": 3203,
      "ots": 3204,
      "ĠSo": 3205,
      "Ġundefined": 3206,
      "Ġcustom": 3207,
      "foo": 3208,
      "Ð¾Ð": 3209,
      "ament": 3210,
      "ĠClass": 3211,
      "ulti": 3212,
      "Min": 3213,
      "Ġstream": 3214,
      "Ġfail": 3215,
      "acing": 3216,
      "inner": 3217,
      "ĠEd": 3218,
      "Ġvirtual": 3219,
      "now": 3220,
      "Ġreturned": 3221,
      "Ġbec": 3222,
      "Ġtotal": 3223,
      "aced": 3224,
      "sm": 3225,
      "ales": 3226,
      "Ġwrite": 3227,
      "resource": 3228,
      "exports": 3229,
      "ĠSchool": 3230,
      "rict": 3231,
      "Params": 3232,
      "Ġ*)": 3233,
      "Ġput": 3234,
      "Entity": 3235,
      "Ġclear": 3236,
      "Search": 3237,
      "TI": 3238,
      "essages": 3239,
      "ensions": 3240,
      ":(": 3241,
      "Ġxml": 3242,
      "UP": 3243,
      "token": 3244,
      "ĠCreate": 3245,
      "ĠSouth": 3246,
      "Ġnetwork": 3247,
      "float": 3248,
      "Next": 3249,
      "./": 3250,
      "Ġtrack": 3251,
      "drop": 3252,
      "patch": 3253,
      "mathcal": 3254,
      "ication": 3255,
      "Ġcert": 3256,
      "level": 3257,
      "ze": 3258,
      "Ġbecame": 3259,
      "ĠUp": 3260,
      "Com": 3261,
      "tree": 3262,
      "ultiple": 3263,
      "Ġdom": 3264,
      "gl": 3265,
      "lied": 3266,
      "ourn": 3267,
      "ently": 3268,
      "\\\"": 3269,
      "Ġarguments": 3270,
      "Ptr": 3271,
      "Ġdistribut": 3272,
      "sum": 3273,
      "mber": 3274,
      "imate": 3275,
      "ilit": 3276,
      "Ġmember": 3277,
      "rel": 3278,
      "ĠSer": 3279,
      "Control": 3280,
      "Top": 3281,
      "ĠOF": 3282,
      "Ġevents": 3283,
      "ĠOct": 3284,
      "hes": 3285,
      "Ġspecific": 3286,
      "ĠAug": 3287,
      "hip": 3288,
      "oman": 3289,
      "dat": 3290,
      "ĠDes": 3291,
      "Ã¡": 3292,
      "Process": 3293,
      "Ġfr": 3294,
      "KE": 3295,
      "lice": 3296,
      "Level": 3297,
      "fil": 3298,
      "SH": 3299,
      "ND": 3300,
      "ites": 3301,
      "Ġfilter": 3302,
      "Ġspe": 3303,
      "Ġsong": 3304,
      "Ġcharacter": 3305,
      "Option": 3306,
      "wise": 3307,
      "Ġprovided": 3308,
      "Ġweek": 3309,
      "Dec": 3310,
      "pril": 3311,
      "Ġq": 3312,
      "Hash": 3313,
      "Ġlay": 3314,
      "Settings": 3315,
      ">,": 3316,
      "Ġalign": 3317,
      "ptember": 3318,
      "Bundle": 3319,
      "lap": 3320,
      "Ġpay": 3321,
      "Ġet": 3322,
      "Ġrow": 3323,
      "final": 3324,
      "Ġsearch": 3325,
      "can": 3326,
      "Operation": 3327,
      "istor": 3328,
      "ebug": 3329,
      "Ġmode": 3330,
      "Ġcollection": 3331,
      "background": 3332,
      "eline": 3333,
      "70": 3334,
      "au": 3335,
      "%%": 3336,
      "Ġside": 3337,
      "ĠCounty": 3338,
      "Ġ::": 3339,
      "ama": 3340,
      "main": 3341,
      "ĠSup": 3342,
      "Ġinterest": 3343,
      "Ġhistory": 3344,
      "ĠMarch": 3345,
      "ĠĠĠĠĠĠĠĠĠĠĠĠĠĠĠĠĠĠĠĠĠ": 3346,
      "Ġsay": 3347,
      "Mod": 3348,
      "ftware": 3349,
      "OO": 3350,
      "Ġadv": 3351,
      "sd": 3352,
      "wait": 3353,
      "Ġclose": 3354,
      "Ġvariable": 3355,
      "eral": 3356,
      "48": 3357,
      "debug": 3358,
      "ober": 3359,
      "ART": 3360,
      "tempt": 3361,
      "author": 3362,
      "lege": 3363,
      "Ġcity": 3364,
      "Ñģ": 3365,
      "icrosoft": 3366,
      "Ġtech": 3367,
      "Ġequ": 3368,
      "Work": 3369,
      "uple": 3370,
      "render": 3371,
      "alpha": 3372,
      "images": 3373,
      "Ġoperation": 3374,
      "2009": 3375,
      "Match": 3376,
      "Location": 3377,
      "dest": 3378,
      "Ġremove": 3379,
      "Ġsom": 3380,
      "ACK": 3381,
      "yntax": 3382,
      "ffic": 3383,
      "ĠEXPECT": 3384,
      "ãģ": 3385,
      "ounds": 3386,
      "Ġseveral": 3387,
      "ambda": 3388,
      "Ġdeath": 3389,
      "iddle": 3390,
      "Ġver": 3391,
      "ĠDis": 3392,
      "ATION": 3393,
      "ĠÃ": 3394,
      "ring": 3395,
      "Kind": 3396,
      "Ġrelation": 3397,
      "second": 3398,
      "LI": 3399,
      "Ġrender": 3400,
      "Ġdone": 3401,
      "VE": 3402,
      "None": 3403,
      "Ag": 3404,
      "ae": 3405,
      "Us": 3406,
      "IZE": 3407,
      "ĠAb": 3408,
      "Ab": 3409,
      "irm": 3410,
      "\"));": 3411,
      "Acc": 3412,
      "Ġeither": 3413,
      "msg": 3414,
      "Ġparameters": 3415,
      "Ġprof": 3416,
      "join": 3417,
      "Const": 3418,
      "Expression": 3419,
      "ursor": 3420,
      "gen": 3421,
      "Ġroot": 3422,
      "thing": 3423,
      "irectory": 3424,
      "Http": 3425,
      "Store": 3426,
      "artifact": 3427,
      "CODE": 3428,
      "Ġwomen": 3429,
      "ĠJune": 3430,
      "ĠJuly": 3431,
      "Ġentry": 3432,
      "Ġnear": 3433,
      "Ġmajor": 3434,
      "Ġparams": 3435,
      "ustral": 3436,
      "irection": 3437,
      "ĠChrist": 3438,
      "Ġoverride": 3439,
      "ias": 3440,
      "Ġmove": 3441,
      ")$": 3442,
      "Ġter": 3443,
      "eft": 3444,
      "=\"_": 3445,
      "ĠException": 3446,
      "ĠNot": 3447,
      "Port": 3448,
      "Change": 3449,
      "strap": 3450,
      "Properties": 3451,
      "cade": 3452,
      "empty": 3453,
      "XX": 3454,
      "2008": 3455,
      "Ġbo": 3456,
      "ĠGerm": 3457,
      "():": 3458,
      "%;": 3459,
      "legate": 3460,
      "ĠSp": 3461,
      "Session": 3462,
      "ĠEurope": 3463,
      "Ġalong": 3464,
      "Ġpadding": 3465,
      "ĠGu": 3466,
      "Que": 3467,
      "Ġframe": 3468,
      "}(": 3469,
      "assed": 3470,
      "Ġalways": 3471,
      "Ident": 3472,
      "Render": 3473,
      "Handle": 3474,
      "Ġhapp": 3475,
      "Open": 3476,
      "alf": 3477,
      ",\\": 3478,
      "Ġcountry": 3479,
      "Ġaccount": 3480,
      "itted": 3481,
      "PC": 3482,
      "otal": 3483,
      "ĠJanuary": 3484,
      "Prot": 3485,
      "RL": 3486,
      "Ġcompany": 3487,
      "ĠWhen": 3488,
      "Ġsec": 3489,
      "etch": 3490,
      "boot": 3491,
      "ĠCity": 3492,
      "ilar": 3493,
      "MS": 3494,
      "Description": 3495,
      "Copy": 3496,
      "command": 3497,
      "ĠPart": 3498,
      "=\"../../../../../": 3499,
      "Local": 3500,
      "Del": 3501,
      "Names": 3502,
      "ĠSeptember": 3503,
      "ictionary": 3504,
      "ention": 3505,
      "Ġearly": 3506,
      "Enc": 3507,
      "urther": 3508,
      "control": 3509,
      "Async": 3510,
      "Ġjob": 3511,
      "Ġdecl": 3512,
      "Ġregion": 3513,
      "licit": 3514,
      "ipp": 3515,
      "ogn": 3516,
      "Current": 3517,
      "Ġnamespace": 3518,
      "la": 3519,
      "ĠVal": 3520,
      "rt": 3521,
      "byte": 3522,
      "oost": 3523,
      "AA": 3524,
      "thon": 3525,
      "ari": 3526,
      "IGN": 3527,
      "Iter": 3528,
      "long": 3529,
      "ada": 3530,
      "Ġelements": 3531,
      "Ġnav": 3532,
      "imest": 3533,
      "Ġjoin": 3534,
      "grad": 3535,
      "hent": 3536,
      "ĠApril": 3537,
      "ĠCheck": 3538,
      "Host": 3539,
      "Ġtemplate": 3540,
      "Ġattribute": 3541,
      "Ġlarge": 3542,
      "ĠAugust": 3543,
      "pri": 3544,
      "Ġempty": 3545,
      "bin": 3546,
      "foot": 3547,
      "Ġcur": 3548,
      "Ġnever": 3549,
      "Ġbit": 3550,
      "Ġcause": 3551,
      "imer": 3552,
      "ORT": 3553,
      "ĠData": 3554,
      "device": 3555,
      "EQ": 3556,
      "lim": 3557,
      "classes": 3558,
      "hash": 3559,
      "Ġ...": 3560,
      "Op": 3561,
      "webkit": 3562,
      "hel": 3563,
      "Ġrad": 3564,
      "ERROR": 3565,
      "Ġfootball": 3566,
      "Ġhandle": 3567,
      "(*": 3568,
      "uter": 3569,
      "cember": 3570,
      "05": 3571,
      "ALL": 3572,
      "vas": 3573,
      "Ġfew": 3574,
      "anel": 3575,
      "Ġreceived": 3576,
      "Script": 3577,
      "ĠNorth": 3578,
      "Ġhouse": 3579,
      "}_": 3580,
      "Impl": 3581,
      "internal": 3582,
      "Serial": 3583,
      "Ġcontinue": 3584,
      "Load": 3585,
      "edef": 3586,
      "iet": 3587,
      "ba": 3588,
      "before": 3589,
      "Project": 3590,
      "ĠOctober": 3591,
      "delete": 3592,
      "layer": 3593,
      "ĠLog": 3594,
      "Ġspace": 3595,
      "Ġapi": 3596,
      "_;": 3597,
      "ung": 3598,
      "Ġfree": 3599,
      "ysis": 3600,
      "ĠSee": 3601,
      "Ġarr": 3602,
      "term": 3603,
      "Ġlanguage": 3604,
      "pm": 3605,
      "Ġhttps": 3606,
      "INE": 3607,
      "ĉĠĠĠĠĠĠĠ": 3608,
      "Ġinvest": 3609,
      "Ġturn": 3610,
      "........": 3611,
      "ones": 3612,
      "Ġless": 3613,
      "Parameters": 3614,
      "Ġiter": 3615,
      "etter": 3616,
      "Reference": 3617,
      "req": 3618,
      "Ġformer": 3619,
      "Ġexception": 3620,
      "break": 3621,
      "Ġadded": 3622,
      "=\"-": 3623,
      "ĠPres": 3624,
      "ham": 3625,
      "eps": 3626,
      "UB": 3627,
      "aper": 3628,
      "sel": 3629,
      "Ġreference": 3630,
      "oice": 3631,
      "na": 3632,
      "TER": 3633,
      "artifactId": 3634,
      "Ġstore": 3635,
      "Ġgl": 3636,
      "Ġsent": 3637,
      "Ġspecial": 3638,
      "nap": 3639,
      "================================": 3640,
      "ised": 3641,
      "Invalid": 3642,
      "ram": 3643,
      "equation": 3644,
      "small": 3645,
      "Ġproperties": 3646,
      "border": 3647,
      "Ġ['": 3648,
      "Ġpo": 3649,
      "Font": 3650,
      "Ġbir": 3651,
      "88": 3652,
      "Integer": 3653,
      "Ġpossible": 3654,
      "Ġtypes": 3655,
      "example": 3656,
      "Helper": 3657,
      "Schema": 3658,
      "Ġdue": 3659,
      "dated": 3660,
      "alysis": 3661,
      "Ġdesign": 3662,
      "reet": 3663,
      "ecution": 3664,
      "cs": 3665,
      "media": 3666,
      "Core": 3667,
      "Assert": 3668,
      "known": 3669,
      "thers": 3670,
      "copy": 3671,
      "Widget": 3672,
      "2007": 3673,
      "Ġwin": 3674,
      "Ġresearch": 3675,
      "values": 3676,
      "}^": 3677,
      "itter": 3678,
      "2006": 3679,
      "Ġgoing": 3680,
      "interface": 3681,
      "idual": 3682,
      "cell": 3683,
      "Ġmer": 3684,
      "ething": 3685,
      "ides": 3686,
      "Ġcontainer": 3687,
      "reed": 3688,
      "transform": 3689,
      "__(": 3690,
      "Ġtoo": 3691,
      "dep": 3692,
      "Ġtimes": 3693,
      "Ġhash": 3694,
      "Sp": 3695,
      "imestamp": 3696,
      "~\\": 3697,
      "Ġapplication": 3698,
      "ĠNS": 3699,
      "ulture": 3700,
      "toString": 3701,
      "`.": 3702,
      "ĠTO": 3703,
      "Ġra": 3704,
      "Ġreport": 3705,
      "Ġparse": 3706,
      "ĠâĢĺ": 3707,
      "ĠSub": 3708,
      "ĠMan": 3709,
      "ittle": 3710,
      "actions": 3711,
      "Ġmethods": 3712,
      "ceed": 3713,
      "Meta": 3714,
      "Ġequal": 3715,
      "Dir": 3716,
      "&#": 3717,
      "issing": 3718,
      "ĠRec": 3719,
      "spond": 3720,
      "Record": 3721,
      "adow": 3722,
      "rew": 3723,
      "Ġnames": 3724,
      "Ġperiod": 3725,
      "FO": 3726,
      "ĠSw": 3727,
      "Ġabove": 3728,
      "oder": 3729,
      "07": 3730,
      "pose": 3731,
      "Ġmedia": 3732,
      "groupId": 3733,
      "Ġmillion": 3734,
      "Ġreleased": 3735,
      "ĠSte": 3736,
      "fs": 3737,
      "Ġ;": 3738,
      "HO": 3739,
      "valu": 3740,
      "fn": 3741,
      "ancel": 3742,
      "2000": 3743,
      "Ġland": 3744,
      "ĠFeb": 3745,
      "67": 3746,
      "ĠWeb": 3747,
      "ĠIS": 3748,
      "env": 3749,
      "ĠHowever": 3750,
      "je": 3751,
      "08": 3752,
      "handle": 3753,
      "tribut": 3754,
      "lit": 3755,
      "iol": 3756,
      "`,": 3757,
      "sa": 3758,
      "'],": 3759,
      "Ġbegin": 3760,
      "ĠNovember": 3761,
      "Rout": 3762,
      "global": 3763,
      "Reader": 3764,
      "Menu": 3765,
      "Ġquest": 3766,
      "yc": 3767,
      "Pos": 3768,
      "iagn": 3769,
      "stand": 3770,
      "ana": 3771,
      "oriz": 3772,
      "Ġcomponent": 3773,
      "Track": 3774,
      "ĠčĊ": 3775,
      "Ġfields": 3776,
      "replace": 3777,
      "ugins": 3778,
      "encies": 3779,
      "COLOR": 3780,
      "Ġnamed": 3781,
      "conf": 3782,
      "ĠDecember": 3783,
      "ĠDep": 3784,
      "cul": 3785,
      "Ġcamp": 3786,
      "gn": 3787,
      "files": 3788,
      "ECT": 3789,
      "vm": 3790,
      "ĠRem": 3791,
      "AND": 3792,
      "Tool": 3793,
      "Ġtoken": 3794,
      "Rect": 3795,
      "ruary": 3796,
      "____": 3797,
      "ably": 3798,
      "ggle": 3799,
      "Ġmight": 3800,
      "hover": 3801,
      "(:": 3802,
      "callback": 3803,
      "boolean": 3804,
      "Ġproduct": 3805,
      "ĠBr": 3806,
      "Ġparticular": 3807,
      "Ġfilename": 3808,
      "romise": 3809,
      "ĠOR": 3810,
      "urg": 3811,
      "session": 3812,
      "Bytes": 3813,
      "Ġinstall": 3814,
      "OM": 3815,
      "ĠÂ": 3816,
      "Ġ\"\\": 3817,
      "ãĥ": 3818,
      "ights": 3819,
      "ĠAustral": 3820,
      "ids": 3821,
      "ampion": 3822,
      "Argument": 3823,
      "card": 3824,
      "Ġlocation": 3825,
      "Ġsection": 3826,
      "icker": 3827,
      "'>": 3828,
      "istration": 3829,
      "clear": 3830,
      "Policy": 3831,
      "Ġhold": 3832,
      "ĠMc": 3833,
      "ached": 3834,
      "Left": 3835,
      "iment": 3836,
      "Ġbusiness": 3837,
      "ries": 3838,
      "clus": 3839,
      "Ġimportant": 3840,
      "Ġcontains": 3841,
      "pop": 3842,
      "ster": 3843,
      "verse": 3844,
      "Ġinstead": 3845,
      "Parser": 3846,
      "Down": 3847,
      "ty": 3848,
      "olved": 3849,
      "Ġ(\"": 3850,
      "Template": 3851,
      "=\"../../../../../../": 3852,
      "GET": 3853,
      "ĠInter": 3854,
      "Metadata": 3855,
      "aven": 3856,
      "255": 3857,
      "ATA": 3858,
      "rief": 3859,
      "Body": 3860,
      "ĠTrans": 3861,
      "Ġscope": 3862,
      "xx": 3863,
      "mode": 3864,
      "Ġgreat": 3865,
      ")\\": 3866,
      "Ġregister": 3867,
      "auth": 3868,
      "tries": 3869,
      "types": 3870,
      "False": 3871,
      "sign": 3872,
      "rupt": 3873,
      "icate": 3874,
      "Vector": 3875,
      "Ġinfo": 3876,
      "ORD": 3877,
      "ino": 3878,
      "ĠCor": 3879,
      "eger": 3880,
      "Ġonce": 3881,
      "send": 3882,
      "Order": 3883,
      "rown": 3884,
      "Ġsite": 3885,
      "Sign": 3886,
      "mar": 3887,
      "Ġunsigned": 3888,
      "exception": 3889,
      "gor": 3890,
      "Ġeduc": 3891,
      "issions": 3892,
      "OS": 3893,
      "chedule": 3894,
      "Ġhealth": 3895,
      "02": 3896,
      "equals": 3897,
      "aries": 3898,
      "ressed": 3899,
      "ĠKing": 3900,
      "medi": 3901,
      "65": 3902,
      "After": 3903,
      "ersist": 3904,
      "widget": 3905,
      "CP": 3906,
      "04": 3907,
      "ĠDr": 3908,
      "icons": 3909,
      "Ġgeneral": 3910,
      "store": 3911,
      "Ġfri": 3912,
      "ĠChar": 3913,
      "plugin": 3914,
      "rade": 3915,
      "Values": 3916,
      "rics": 3917,
      "Ġplayed": 3918,
      "Ġbyte": 3919,
      "One": 3920,
      "{{": 3921,
      "ii": 3922,
      "Ġreally": 3923,
      "Inst": 3924,
      "dependent": 3925,
      "arrow": 3926,
      "Args": 3927,
      "ĠĠĠĠĠĠĠĠĠĠĠĠĠĠĠĠĠĠĠĠ": 3928,
      "PRE": 3929,
      "Ġdelete": 3930,
      "lor": 3931,
      "ĠMap": 3932,
      "Ġfa": 3933,
      "Ġlate": 3934,
      "Ġfailed": 3935,
      "disabled": 3936,
      "click": 3937,
      "Parent": 3938,
      "ĠCoun": 3939,
      "ordin": 3940,
      "Ġlimit": 3941,
      "Ġpassed": 3942,
      "Ġcenter": 3943,
      "Ġleast": 3944,
      "dividual": 3945,
      "cap": 3946,
      "gether": 3947,
      "Co": 3948,
      "Ġstop": 3949,
      "cp": 3950,
      "ĠBritish": 3951,
      "ology": 3952,
      "orig": 3953,
      "dict": 3954,
      "angle": 3955,
      "Ġpoints": 3956,
      "ours": 3957,
      "draw": 3958,
      "aring": 3959,
      "cat": 3960,
      "Device": 3961,
      "Ġ('": 3962,
      "ctor": 3963,
      "ĠSec": 3964,
      "year": 3965,
      "ĠMe": 3966,
      "stylesheet": 3967,
      "greg": 3968,
      "ike": 3969,
      "DIR": 3970,
      "See": 3971,
      "ĠCON": 3972,
      "amil": 3973,
      "Ġaccept": 3974,
      "ĠDE": 3975,
      "SET": 3976,
      "rodu": 3977,
      "fa": 3978,
      "RI": 3979,
      "cope": 3980,
      "Ġdevice": 3981,
      "Ġconfiguration": 3982,
      "oung": 3983,
      "fg": 3984,
      "cil": 3985,
      "Ġbytes": 3986,
      "49": 3987,
      "Ġactive": 3988,
      "address": 3989,
      "Ġdel": 3990,
      "typeof": 3991,
      "Ġtook": 3992,
      "ĠError": 3993,
      "NavBar": 3994,
      "ĠAfter": 3995,
      "Dom": 3996,
      "ief": 3997,
      "ads": 3998,
      "ĠRob": 3999,
      "ington": 4000,
      "Debug": 4001,
      "Ġsession": 4002,
      "ĠHis": 4003,
      "ges": 4004,
      "aken": 4005,
      "Ġ~": 4006,
      "Ã³": 4007,
      "ws": 4008,
      "Root": 4009,
      "47": 4010,
      "cr": 4011,
      "Ġprovide": 4012,
      "vers": 4013,
      "ĠEnd": 4014,
      "Ġev": 4015,
      "Ġargument": 4016,
      "Ġrelease": 4017,
      "Ġmeans": 4018,
      "Ġobt": 4019,
      "Ġnational": 4020,
      "06": 4021,
      "Ġperm": 4022,
      "Ġdevelopment": 4023,
      "Ġcommunity": 4024,
      "ĠAfr": 4025,
      "Storage": 4026,
      "Ġheld": 4027,
      "settings": 4028,
      "ference": 4029,
      "ĉĠĠĠĠĠ": 4030,
      "Title": 4031,
      "losed": 4032,
      "Ġselected": 4033,
      "docs": 4034,
      "ynamic": 4035,
      "Ġcompet": 4036,
      "Ġbuilt": 4037,
      ")]": 4038,
      "aves": 4039,
      "----------------------------------------------------------------": 4040,
      "Ġcover": 4041,
      "Cal": 4042,
      "where": 4043,
      "Ġheader": 4044,
      "ĠFebruary": 4045,
      "oded": 4046,
      "ĠII": 4047,
      "Ġclaim": 4048,
      "Ġqual": 4049,
      ">();": 4050,
      "TEST": 4051,
      "ĠPer": 4052,
      "webpack": 4053,
      "irit": 4054,
      "ĠQu": 4055,
      "uri": 4056,
      "Ġstory": 4057,
      "istic": 4058,
      "Ġecon": 4059,
      "Stack": 4060,
      "Ġarch": 4061,
      "Mon": 4062,
      "ĉĉĊ": 4063,
      "Feature": 4064,
      "Ġrights": 4065,
      "Ġobjects": 4066,
      "Param": 4067,
      "Ġincluded": 4068,
      "ĠWith": 4069,
      "ieve": 4070,
      "Ġmean": 4071,
      "cribe": 4072,
      "ising": 4073,
      "vector": 4074,
      "Ġkind": 4075,
      "Enabled": 4076,
      "arge": 4077,
      "Timeout": 4078,
      "ĠDate": 4079,
      "urren": 4080,
      "Ġworking": 4081,
      "stack": 4082,
      "Boolean": 4083,
      "09": 4084,
      "access": 4085,
      "âĢ¦": 4086,
      "yl": 4087,
      "URE": 4088,
      "Ġexecut": 4089,
      "DL": 4090,
      "Api": 4091,
      "uggest": 4092,
      "oom": 4093,
      "parameter": 4094,
      "Ġ})": 4095,
      "gorith": 4096,
      "Delete": 4097,
      "Serv": 4098,
      "''": 4099,
      "Ġnormal": 4100,
      "ĠStr": 4101,
      "Decl": 4102,
      "framework": 4103,
      "Obj": 4104,
      "ÃŃ": 4105,
      "Ġ++": 4106,
      "Ġchanges": 4107,
      "That": 4108,
      "Ġsu": 4109,
      "non": 4110,
      "ĠTrue": 4111,
      "ãĤ": 4112,
      "iagnost": 4113,
      "Ġtransform": 4114,
      "models": 4115,
      "ĠJSON": 4116,
      "Ġhuman": 4117,
      "Ġinline": 4118,
      "ters": 4119,
      "IF": 4120,
      "ĠEvent": 4121,
      "Ġaff": 4122,
      "Xml": 4123,
      "ĠĠĠĠĠĠĠĠĠĠĠĠĠĠĠĠĠĠĠĠĠĠĠĠĠĠĠĠĠĠĠĠĠĠĠĠĠĠĠ": 4124,
      "ĠMath": 4125,
      "Ġ<=": 4126,
      "prop": 4127,
      "Ġbecome": 4128,
      "amma": 4129,
      "ĠArt": 4130,
      "Ġwritten": 4131,
      "Post": 4132,
      "export": 4133,
      "###": 4134,
      "modal": 4135,
      "Ġdoesn": 4136,
      "Writer": 4137,
      "42": 4138,
      "ĠassertEquals": 4139,
      "unch": 4140,
      "Ġoften": 4141,
      "izing": 4142,
      "Ġcareer": 4143,
      "Ġchannel": 4144,
      "Pattern": 4145,
      "Ġsubject": 4146,
      "Ġfund": 4147,
      "Select": 4148,
      "Rule": 4149,
      "ube": 4150,
      "ORM": 4151,
      "otion": 4152,
      "beta": 4153,
      "Byte": 4154,
      "Ġexpl": 4155,
      "Ġide": 4156,
      "Ġredu": 4157,
      "iation": 4158,
      "Ġsure": 4159,
      "edit": 4160,
      "03": 4161,
      "asure": 4162,
      "ĠCom": 4163,
      "bootstrap": 4164,
      "Rel": 4165,
      "sort": 4166,
      "make": 4167,
      "Ġmen": 4168,
      "oved": 4169,
      "though": 4170,
      "Can": 4171,
      "Sk": 4172,
      ">.": 4173,
      "ering": 4174,
      "Ġsend": 4175,
      "Ġsomething": 4176,
      "2005": 4177,
      "Ġgot": 4178,
      "Ġswitch": 4179,
      "Ġmag": 4180,
      "oney": 4181,
      "Ġcannot": 4182,
      "ilitary": 4183,
      "Application": 4184,
      "Ġask": 4185,
      "sig": 4186,
      "abor": 4187,
      "Ġ(*": 4188,
      "arb": 4189,
      "Ġterm": 4190,
      "Ġkeep": 4191,
      "Ġstarted": 4192,
      "ategy": 4193,
      "Ġcref": 4194,
      "iant": 4195,
      "Ġfac": 4196,
      "ilities": 4197,
      "Num": 4198,
      "\\\\\\\\\\\\\\\\": 4199,
      "ĠST": 4200,
      "illiam": 4201,
      "}\"": 4202,
      "sql": 4203,
      "ournal": 4204,
      "SSERT": 4205,
      "Has": 4206,
      "cert": 4207,
      "apped": 4208,
      "Symbol": 4209,
      "lta": 4210,
      "ĠBG": 4211,
      "Ġfive": 4212,
      "Build": 4213,
      "Ġjav": 4214,
      "insert": 4215,
      "Long": 4216,
      "Ġbuilding": 4217,
      "Channel": 4218,
      "ecess": 4219,
      "77": 4220,
      "custom": 4221,
      "BO": 4222,
      "ĠMy": 4223,
      "Ġexcept": 4224,
      "ij": 4225,
      "Pe": 4226,
      "register": 4227,
      "ĠRun": 4228,
      "Require": 4229,
      "Ġservices": 4230,
      "Ġbegan": 4231,
      "ĠIO": 4232,
      "}/": 4233,
      "orizont": 4234,
      "Ġhig": 4235,
      "Ġdatabase": 4236,
      "Use": 4237,
      "mes": 4238,
      "Ġsort": 4239,
      "Fields": 4240,
      "Ġfuture": 4241,
      "Ġbound": 4242,
      "Ġsimilar": 4243,
      "Ġsuccessful": 4244,
      "Ġdescription": 4245,
      "logical": 4246,
      "Ġage": 4247,
      "Ġthread": 4248,
      ";->": 4249,
      "Bind": 4250,
      "Ġvia": 4251,
      "ĠSk": 4252,
      "Ġos": 4253,
      "rench": 4254,
      "success": 4255,
      "ondon": 4256,
      "Ġsupp": 4257,
      "ĠBo": 4258,
      "Ġthird": 4259,
      "oph": 4260,
      "Ġtele": 4261,
      "kind": 4262,
      "---": 4263,
      "Ġbox": 4264,
      "Database": 4265,
      "Ġselect": 4266,
      "Ġsix": 4267,
      "Ġrespect": 4268,
      "abs": 4269,
      "Ġsocial": 4270,
      "Ġpract": 4271,
      "ĠName": 4272,
      "win": 4273,
      "Display": 4274,
      "ĠOne": 4275,
      "izes": 4276,
      "*)": 4277,
      "Ġvideo": 4278,
      "achine": 4279,
      "Ġmsg": 4280,
      "hr": 4281,
      "Mock": 4282,
      "ipal": 4283,
      "ĠMon": 4284,
      "Classes": 4285,
      "Ġwater": 4286,
      "Ġinstanceof": 4287,
      "scale": 4288,
      "ards": 4289,
      "Ġsepar": 4290,
      "ĠCour": 4291,
      "ĠHouse": 4292,
      "Ġdays": 4293,
      "Ind": 4294,
      "most": 4295,
      "ĠĠĠĠĠĠĠĠĠĠĠĠĠĠĠĠĠĠ": 4296,
      "termin": 4297,
      "ele": 4298,
      "andid": 4299,
      "ĠValue": 4300,
      "Ġ``": 4301,
      "Ġcommon": 4302,
      "Ġwar": 4303,
      "Ġindividual": 4304,
      "prec": 4305,
      "osp": 4306,
      "Ġamong": 4307,
      "mat": 4308,
      "aa": 4309,
      "RA": 4310,
      "language": 4311,
      "endar": 4312,
      "Ġ\"/": 4313,
      "ĠPresident": 4314,
      "Ġsays": 4315,
      "Ġ'/": 4316,
      "Ġstandard": 4317,
      "component": 4318,
      "Ġdirectory": 4319,
      "Ġpublished": 4320,
      "SO": 4321,
      "connect": 4322,
      "focus": 4323,
      "Non": 4324,
      "ua": 4325,
      "Descriptor": 4326,
      "\"`": 4327,
      "SA": 4328,
      "Ġenvironment": 4329,
      "Ġvol": 4330,
      "Ġjson": 4331,
      "aul": 4332,
      "toggle": 4333,
      "Ġhaving": 4334,
      "ĠThese": 4335,
      "ĠRE": 4336,
      "Ð°Ð": 4337,
      "admin": 4338,
      "Queue": 4339,
      "DF": 4340,
      "system": 4341,
      "after": 4342,
      "CA": 4343,
      "WE": 4344,
      "Scope": 4345,
      "Sw": 4346,
      "pis": 4347,
      "hem": 4348,
      "Ġ{};": 4349,
      "GE": 4350,
      "PL": 4351,
      "lying": 4352,
      "500": 4353,
      "Doc": 4354,
      "Ġthings": 4355,
      "ansparent": 4356,
      "Dialog": 4357,
      "Right": 4358,
      "Ġworks": 4359,
      "Ġamount": 4360,
      "Ġtown": 4361,
      "2001": 4362,
      "Ġplayer": 4363,
      "46": 4364,
      "ynch": 4365,
      "Ġtool": 4366,
      "|-": 4367,
      "rep": 4368,
      "ases": 4369,
      "Ġgen": 4370,
      "ensure": 4371,
      "Ġassociated": 4372,
      "ĠEnglish": 4373,
      "adoop": 4374,
      "Ġdem": 4375,
      "Ġbetter": 4376,
      "ocr": 4377,
      "SION": 4378,
      "split": 4379,
      "Ġpat": 4380,
      "Ġsl": 4381,
      "Ġ[];": 4382,
      "Ġattempt": 4383,
      "auto": 4384,
      "Ġfunctions": 4385,
      "padding": 4386,
      "fields": 4387,
      "Ġable": 4388,
      "'))": 4389,
      "Ġign": 4390,
      "Aut": 4391,
      "orizontal": 4392,
      "Ġecho": 4393,
      "ĠPe": 4394,
      "acters": 4395,
      "aker": 4396,
      "Ġband": 4397,
      "Ġcome": 4398,
      "panel": 4399,
      "Ġmultiple": 4400,
      "Ġadmin": 4401,
      "Job": 4402,
      "Edit": 4403,
      "'re": 4404,
      "xis": 4405,
      "shot": 4406,
      "ĠTime": 4407,
      "CTION": 4408,
      "support": 4409,
      "ought": 4410,
      "_->": 4411,
      "HTML": 4412,
      "Ver": 4413,
      "Ġcost": 4414,
      "Icon": 4415,
      "Eng": 4416,
      "FAULT": 4417,
      "Ġred": 4418,
      "pository": 4419,
      "Ge": 4420,
      "ĠEast": 4421,
      "ems": 4422,
      "Ins": 4423,
      "2004": 4424,
      "Rep": 4425,
      "Ġattack": 4426,
      "Draw": 4427,
      "Ġvert": 4428,
      "Ġgrow": 4429,
      "ATH": 4430,
      "asing": 4431,
      "ĠHigh": 4432,
      "SL": 4433,
      "Definition": 4434,
      "Americ": 4435,
      "ĠBGCOLOR": 4436,
      "plit": 4437,
      "MENT": 4438,
      "->_": 4439,
      "Init": 4440,
      "Ġcame": 4441,
      "keys": 4442,
      "Ġitems": 4443,
      "rip": 4444,
      "Custom": 4445,
      "Ġpolicy": 4446,
      "Ġfunc": 4447,
      "Ġcrit": 4448,
      "range": 4449,
      "CR": 4450,
      "Ġprop": 4451,
      "ĠDav": 4452,
      "DU": 4453,
      "Ġfar": 4454,
      "Ġmeet": 4455,
      "Ġstudents": 4456,
      "ĠLeague": 4457,
      "Ġcurrently": 4458,
      "Ġbig": 4459,
      "ociety": 4460,
      "Bl": 4461,
      "Ġscale": 4462,
      "ega": 4463,
      "Ġhandler": 4464,
      "CD": 4465,
      "Ġreason": 4466,
      "Ġrunning": 4467,
      "Ġ\\\\": 4468,
      "attribute": 4469,
      "arks": 4470,
      "_,": 4471,
      "wner": 4472,
      "SQL": 4473,
      "Are": 4474,
      "{}": 4475,
      "ounter": 4476,
      "Le": 4477,
      "Ġsettings": 4478,
      "skip": 4479,
      "Ġpack": 4480,
      "Ġemploy": 4481,
      "ills": 4482,
      "ille": 4483,
      "ĠAcc": 4484,
      "isk": 4485,
      "ucket": 4486,
      "=\\": 4487,
      "Ġtogether": 4488,
      "\"\"\"": 4489,
      "ĠBro": 4490,
      "unsigned": 4491,
      "mathbb": 4492,
      "OK": 4493,
      ".__": 4494,
      "Ġpolitical": 4495,
      "oll": 4496,
      "Ġgrad": 4497,
      "Ġraise": 4498,
      "hib": 4499,
      "Found": 4500,
      "site": 4501,
      "CHE": 4502,
      "enum": 4503,
      "lier": 4504,
      "help": 4505,
      "tip": 4506,
      "Dr": 4507,
      "}_{": 4508,
      "Ġmaking": 4509,
      "ĠRed": 4510,
      "cur": 4511,
      "ĠVAL": 4512,
      "ico": 4513,
      "Ġrule": 4514,
      "obile": 4515,
      "JSON": 4516,
      "DD": 4517,
      "track": 4518,
      "Ġscript": 4519,
      "ered": 4520,
      "ĠHTML": 4521,
      "atter": 4522,
      "TED": 4523,
      "ĠJap": 4524,
      "items": 4525,
      "ĠURL": 4526,
      "sy": 4527,
      "END": 4528,
      "ragment": 4529,
      "dim": 4530,
      "mu": 4531,
      "straint": 4532,
      "erved": 4533,
      "ĠRuss": 4534,
      "avior": 4535,
      "Ġdoc": 4536,
      "Ġstrong": 4537,
      "born": 4538,
      "rect": 4539,
      "ican": 4540,
      "printf": 4541,
      "Ġwait": 4542,
      "double": 4543,
      "\",\"": 4544,
      "symbol": 4545,
      "KEY": 4546,
      "59": 4547,
      "Ġdiff": 4548,
      "aged": 4549,
      "cmd": 4550,
      "ĠCollege": 4551,
      "Ġorigin": 4552,
      "Ġpast": 4553,
      "Ġtree": 4554,
      "Ġair": 4555,
      "Ġactual": 4556,
      "Ġattr": 4557,
      "Ġmemory": 4558,
      "ĠRev": 4559,
      "Click": 4560,
      "ĠThat": 4561,
      "ĠAm": 4562,
      "istance": 4563,
      "Ġsing": 4564,
      "ĠAg": 4565,
      "ivil": 4566,
      "Ġplan": 4567,
      "ä¸": 4568,
      "Ġimpro": 4569,
      "Active": 4570,
      "Ġsolid": 4571,
      "Ġpur": 4572,
      "mock": 4573,
      "ĠAmerica": 4574,
      "herit": 4575,
      "dependency": 4576,
      "attle": 4577,
      "ĠBase": 4578,
      "Ġacross": 4579,
      "ĠLondon": 4580,
      "ĠPy": 4581,
      "Ġgroups": 4582,
      "just": 4583,
      "Ġtw": 4584,
      "Selector": 4585,
      "ka": 4586,
      "arry": 4587,
      "footer": 4588,
      "Send": 4589,
      "Ġbelow": 4590,
      "grid": 4591,
      "ITY": 4592,
      "Ġpopulation": 4593,
      "ĠĠĠĠĠĠĠĠĠĠĠĠĠĠĠĠĠĠĠĠĠĠĠĠĠ": 4594,
      "ĠDefault": 4595,
      "connection": 4596,
      "ĠService": 4597,
      "itte": 4598,
      "Ġoperator": 4599,
      "AGE": 4600,
      "Ġproblem": 4601,
      "iteral": 4602,
      "Ġfurther": 4603,
      "apply": 4604,
      "arp": 4605,
      "58": 4606,
      "impl": 4607,
      "Ġneg": 4608,
      "riority": 4609,
      "Ġlib": 4610,
      "Ġelem": 4611,
      "istics": 4612,
      "Cre": 4613,
      "hadoop": 4614,
      "application": 4615,
      "actor": 4616,
      "AV": 4617,
      "]]": 4618,
      "Ġdat": 4619,
      "[:": 4620,
      "scroll": 4621,
      "ided": 4622,
      "Ret": 4623,
      "ho": 4624,
      "ha": 4625,
      "-->": 4626,
      "margin": 4627,
      "Graph": 4628,
      "ds": 4629,
      "ixt": 4630,
      "cloud": 4631,
      "Ġca": 4632,
      "ĠLO": 4633,
      "Ġben": 4634,
      "ampionship": 4635,
      "Vert": 4636,
      "Ġconvert": 4637,
      "Ġbutton": 4638,
      "Extension": 4639,
      "Ġcorrect": 4640,
      "ford": 4641,
      "Changed": 4642,
      "FILE": 4643,
      "Ġpercent": 4644,
      "coin": 4645,
      "Ġstudy": 4646,
      "Lock": 4647,
      "Ġunit": 4648,
      "Ġtypeof": 4649,
      "Ġestablished": 4650,
      "addr": 4651,
      "1000": 4652,
      "Ġhard": 4653,
      "Ġstructure": 4654,
      "eters": 4655,
      "Member": 4656,
      "Ġsupported": 4657,
      "ociation": 4658,
      "aws": 4659,
      "68": 4660,
      "Ġder": 4661,
      "inline": 4662,
      "Each": 4663,
      "ĠDistri": 4664,
      "dropdown": 4665,
      "57": 4666,
      "Msg": 4667,
      "Ġactiv": 4668,
      "artment": 4669,
      "mi": 4670,
      "Ġdefine": 4671,
      "Ġweb": 4672,
      "////////////////////////////////": 4673,
      "aging": 4674,
      "Ġhtml": 4675,
      ")}": 4676,
      "wrap": 4677,
      "allow": 4678,
      "itu": 4679,
      "Ġannoun": 4680,
      "omatic": 4681,
      "airs": 4682,
      "Ġfilms": 4683,
      "ala": 4684,
      "olver": 4685,
      "(!": 4686,
      "Ġcomb": 4687,
      "Ġsets": 4688,
      "Ġdb": 4689,
      "Ġvisit": 4690,
      "ACE": 4691,
      "HP": 4692,
      "unity": 4693,
      "hing": 4694,
      "shape": 4695,
      "Ġengine": 4696,
      "Ġalt": 4697,
      "Ġneeded": 4698,
      "TS": 4699,
      "alloc": 4700,
      "ners": 4701,
      "TEX": 4702,
      "Ġelect": 4703,
      "Ġgames": 4704,
      "assertEquals": 4705,
      "ĠLa": 4706,
      "Ġadditional": 4707,
      "ti": 4708,
      "pk": 4709,
      "ometry": 4710,
      "Ġwriting": 4711,
      "OF": 4712,
      "then": 4713,
      "ĠNOT": 4714,
      "uby": 4715,
      "||": 4716,
      "mm": 4717,
      "requ": 4718,
      "Ġappear": 4719,
      "EXT": 4720,
      "Only": 4721,
      "Ġcorrespond": 4722,
      "legal": 4723,
      "Ġyet": 4724,
      "Ġdescribed": 4725,
      "ĠPublic": 4726,
      "selected": 4727,
      "ĠLo": 4728,
      "Ġeas": 4729,
      "ĠOpen": 4730,
      ";/": 4731,
      "Ġoffer": 4732,
      "wik": 4733,
      "ITE": 4734,
      "Float": 4735,
      "Flags": 4736,
      "Ġindic": 4737,
      "mail": 4738,
      "Ġtypename": 4739,
      "Ġlight": 4740,
      "initial": 4741,
      "Ġofficial": 4742,
      "Tests": 4743,
      "Security": 4744,
      "Ġothers": 4745,
      "ĠBar": 4746,
      "Ġvarious": 4747,
      "ĠInternational": 4748,
      "\")]": 4749,
      "pub": 4750,
      "Ġkeys": 4751,
      "ĠMed": 4752,
      "BC": 4753,
      "Ġcentury": 4754,
      "Pool": 4755,
      "Err": 4756,
      "ĠAir": 4757,
      "NotNull": 4758,
      "ĠGroup": 4759,
      "ĠCre": 4760,
      "Ġ),": 4761,
      "ipeline": 4762,
      "letion": 4763,
      "Ġlittle": 4764,
      "Ġsm": 4765,
      "tegr": 4766,
      "cret": 4767,
      "','": 4768,
      "rome": 4769,
      "Ġmaterial": 4770,
      "Tab": 4771,
      "Ġinfl": 4772,
      "holder": 4773,
      "ĠWilliam": 4774,
      "ynchron": 4775,
      "alleng": 4776,
      "Ġdetails": 4777,
      "Ġpot": 4778,
      "posed": 4779,
      "password": 4780,
      "=\"/": 4781,
      "Func": 4782,
      "ĠUse": 4783,
      "Ġcirc": 4784,
      "lies": 4785,
      "BA": 4786,
      "Ġnecess": 4787,
      "Ġlocated": 4788,
      "hs": 4789,
      "Ġotherwise": 4790,
      "Ġlive": 4791,
      "Runtime": 4792,
      "gment": 4793,
      "Items": 4794,
      "ĠForm": 4795,
      "Ġtre": 4796,
      "Network": 4797,
      ")))": 4798,
      "assertEqual": 4799,
      ";<": 4800,
      "ĠĠĠĠĠĠĊ": 4801,
      "ĠFunction": 4802,
      "El": 4803,
      "aching": 4804,
      "plugins": 4805,
      "ĠOut": 4806,
      "Ġperformance": 4807,
      "ĠPark": 4808,
      "Ġfall": 4809,
      "ancell": 4810,
      "Ġdep": 4811,
      "Ġstep": 4812,
      "ffff": 4813,
      "Ġclub": 4814,
      "cheme": 4815,
      "Ġchanged": 4816,
      "Ġda": 4817,
      "aign": 4818,
      "Mark": 4819,
      "ĠRef": 4820,
      "ĠArg": 4821,
      "Ġwent": 4822,
      "weight": 4823,
      "Ġissue": 4824,
      "ocker": 4825,
      "Ġve": 4826,
      "Ġden": 4827,
      "Ġopp": 4828,
      "Iterator": 4829,
      "iterator": 4830,
      "conn": 4831,
      "Ġtransaction": 4832,
      "Account": 4833,
      "Met": 4834,
      "89": 4835,
      "@\"": 4836,
      "ĠCopy": 4837,
      "ĠSch": 4838,
      "Ġseen": 4839,
      "_\\": 4840,
      "Ġelection": 4841,
      "2020": 4842,
      "2003": 4843,
      "Ġcertain": 4844,
      "Ġcases": 4845,
      "unic": 4846,
      "Ġselection": 4847,
      "-\\": 4848,
      "Ġlik": 4849,
      "Ġround": 4850,
      "Ġsignific": 4851,
      "gorithm": 4852,
      "anks": 4853,
      "aints": 4854,
      "Ġge": 4855,
      "Ġthough": 4856,
      "big": 4857,
      "Ġcapt": 4858,
      "Media": 4859,
      "comment": 4860,
      "van": 4861,
      "Ġ(_": 4862,
      "anner": 4863,
      "}^{": 4864,
      "Ġapplic": 4865,
      "Ġinvoke": 4866,
      "cover": 4867,
      "Internal": 4868,
      "MM": 4869,
      "para": 4870,
      "Ġdraw": 4871,
      "Perm": 4872,
      "ography": 4873,
      "Ġmock": 4874,
      "StyleID": 4875,
      "Initial": 4876,
      "nology": 4877,
      "thread": 4878,
      "Register": 4879,
      "Ġcred": 4880,
      "ĠIr": 4881,
      "87": 4882,
      "ummer": 4883,
      "PAR": 4884,
      "Ġio": 4885,
      "Ġallowed": 4886,
      "channel": 4887,
      "Ġviol": 4888,
      "high": 4889,
      ".)": 4890,
      "iforn": 4891,
      "Prop": 4892,
      "ĠFalse": 4893,
      "protobuf": 4894,
      "Ġsat": 4895,
      "Ġserved": 4896,
      "Ġ\"\"": 4897,
      "coming": 4898,
      "Pod": 4899,
      "'.": 4900,
      "zer": 4901,
      "Plugin": 4902,
      "SIZE": 4903,
      "aps": 4904,
      "ĠSpec": 4905,
      "You": 4906,
      "Ġgraph": 4907,
      "IR": 4908,
      "ĠHer": 4909,
      "ĠKey": 4910,
      "ros": 4911,
      "Ġserial": 4912,
      "verage": 4913,
      "events": 4914,
      "Ġphys": 4915,
      "*}": 4916,
      "Ġlot": 4917,
      "Ġintrodu": 4918,
      "Ġaway": 4919,
      "important": 4920,
      "schema": 4921,
      "Ġinternational": 4922,
      "napshot": 4923,
      "Ġerrors": 4924,
      "Struct": 4925,
      "entity": 4926,
      "Ġwr": 4927,
      "virtual": 4928,
      "Loader": 4929,
      "ĠQue": 4930,
      "ĠNe": 4931,
      "stop": 4932,
      "Ġfn": 4933,
      "Ġblack": 4934,
      ")));": 4935,
      "Package": 4936,
      "ookie": 4937,
      "unt": 4938,
      "zon": 4939,
      "full": 4940,
      "History": 4941,
      "alled": 4942,
      "Ġexpression": 4943,
      "props": 4944,
      "ci": 4945,
      "Ġstack": 4946,
      "fill": 4947,
      "sequ": 4948,
      "Ġobserv": 4949,
      "++;": 4950,
      "ĠEl": 4951,
      "Ġborn": 4952,
      "Ġmarket": 4953,
      "etime": 4954,
      "category": 4955,
      "fony": 4956,
      "idge": 4957,
      "ĠMich": 4958,
      "energy": 4959,
      "Directory": 4960,
      "American": 4961,
      "Ġgive": 4962,
      "Fr": 4963,
      "Ġreview": 4964,
      "hat": 4965,
      "Ġexisting": 4966,
      "atural": 4967,
      "ymfony": 4968,
      "Ġstates": 4969,
      "Ġstat": 4970,
      "radius": 4971,
      "utf": 4972,
      "Ġnet": 4973,
      "lambda": 4974,
      "email": 4975,
      "mathbf": 4976,
      "century": 4977,
      "ĠAp": 4978,
      "Fail": 4979,
      "ested": 4980,
      "ln": 4981,
      "alle": 4982,
      "ifornia": 4983,
      "Ġforce": 4984,
      "Fil": 4985,
      "56": 4986,
      "icles": 4987,
      "pg": 4988,
      "Ġterms": 4989,
      "uel": 4990,
      "ĠUser": 4991,
      "97": 4992,
      "stry": 4993,
      "Results": 4994,
      "based": 4995,
      "Ġneeds": 4996,
      "Ġfeatures": 4997,
      "86": 4998,
      "anaged": 4999,
      "ellow": 5000,
      "annotation": 5001,
      "ĠGeneral": 5002,
      "Ġconn": 5003,
      "amera": 5004,
      "_(": 5005,
      "Ġdim": 5006,
      "ĠSan": 5007,
      "ĠNode": 5008,
      "2002": 5009,
      "press": 5010,
      "JECT": 5011,
      "nes": 5012,
      "Ġsoftware": 5013,
      "ĠPhil": 5014,
      "Ġstrict": 5015,
      "Variable": 5016,
      "Ġcharacters": 5017,
      "Attributes": 5018,
      "Close": 5019,
      "Ġcomplete": 5020,
      "Bit": 5021,
      "move": 5022,
      "chedul": 5023,
      "lyph": 5024,
      "each": 5025,
      "primary": 5026,
      "II": 5027,
      "Ġhalf": 5028,
      "force": 5029,
      "()).": 5030,
      "Ã¼": 5031,
      "ael": 5032,
      "Ġpattern": 5033,
      "={": 5034,
      "Protocol": 5035,
      "Events": 5036,
      "Ġtrad": 5037,
      "TC": 5038,
      "ĠConfig": 5039,
      "asis": 5040,
      "Transform": 5041,
      "()));": 5042,
      "(){": 5043,
      "Ġjavax": 5044,
      "txt": 5045,
      "~~~~": 5046,
      "Ġhowever": 5047,
      "Ġpresident": 5048,
      "Red": 5049,
      "UID": 5050,
      "ĠLoc": 5051,
      "Ġtaken": 5052,
      "There": 5053,
      "Ġrelative": 5054,
      "ĉĠĠĠĠĠĠĠĠĠĠĠ": 5055,
      "She": 5056,
      "throws": 5057,
      "oment": 5058,
      "Ġshare": 5059,
      "arried": 5060,
      "Ġcontain": 5061,
      "bor": 5062,
      "jo": 5063,
      "Ġvill": 5064,
      "Ġflag": 5065,
      "Editor": 5066,
      "white": 5067,
      "ĠFrench": 5068,
      "ving": 5069,
      "Ġshows": 5070,
      "LOG": 5071,
      "When": 5072,
      "Windows": 5073,
      "region": 5074,
      "like": 5075,
      "record": 5076,
      "Pointer": 5077,
      "Ġpackage": 5078,
      ")\">": 5079,
      "ernel": 5080,
      "Ġnodes": 5081,
      "ĠFirst": 5082,
      "Ġcomment": 5083,
      "flags": 5084,
      "cm": 5085,
      "save": 5086,
      "MD": 5087,
      "Ġtell": 5088,
      "Logger": 5089,
      "Auth": 5090,
      "ota": 5091,
      "PORT": 5092,
      "anger": 5093,
      "phi": 5094,
      "igr": 5095,
      "hentication": 5096,
      "Ġoperations": 5097,
      "Parse": 5098,
      "vention": 5099,
      "WS": 5100,
      "ifest": 5101,
      "ald": 5102,
      "Ġconsidered": 5103,
      "=\"../../../": 5104,
      "ROM": 5105,
      "mutable": 5106,
      "Ġitself": 5107,
      "Ġfire": 5108,
      "Ġinf": 5109,
      "ĠTHE": 5110,
      "iles": 5111,
      "astic": 5112,
      "Ġaccording": 5113,
      "orge": 5114,
      "Ġnov": 5115,
      ".*": 5116,
      "MAX": 5117,
      "Ġconsole": 5118,
      "Keys": 5119,
      "useum": 5120,
      "Ġtalk": 5121,
      "caption": 5122,
      "ĠRepublic": 5123,
      "ĠAL": 5124,
      "Ġrecogn": 5125,
      "NE": 5126,
      "argument": 5127,
      "avel": 5128,
      "Ġhappen": 5129,
      "manager": 5130,
      "icult": 5131,
      "enced": 5132,
      "Ã¤": 5133,
      "feature": 5134,
      "ĠMark": 5135,
      "Volume": 5136,
      "install": 5137,
      "Ø§": 5138,
      "Ġled": 5139,
      "96": 5140,
      "PR": 5141,
      "quad": 5142,
      "resses": 5143,
      "ederal": 5144,
      "handler": 5145,
      "ipe": 5146,
      "Ġhistor": 5147,
      "Ġ{\\": 5148,
      "han": 5149,
      "ios": 5150,
      "bytes": 5151,
      "ittee": 5152,
      "SD": 5153,
      "cpp": 5154,
      "Ġword": 5155,
      "Ġtests": 5156,
      "Ġwhite": 5157,
      "43": 5158,
      "Ġtax": 5159,
      "itect": 5160,
      "cb": 5161,
      "erve": 5162,
      "Ġparticip": 5163,
      "Ð»": 5164,
      "tmp": 5165,
      "Ġbirths": 5166,
      "anies": 5167,
      "Show": 5168,
      "ToString": 5169,
      "Ġuses": 5170,
      "mic": 5171,
      "jection": 5172,
      "Proxy": 5173,
      "ĠTODO": 5174,
      "Ġsymbol": 5175,
      "iform": 5176,
      "My": 5177,
      "ĠIndia": 5178,
      "ĠRo": 5179,
      "blockList": 5180,
      "Ġcourse": 5181,
      "Transaction": 5182,
      "Ġdeal": 5183,
      "$(": 5184,
      "cel": 5185,
      "Ġentire": 5186,
      "Ġstation": 5187,
      "collection": 5188,
      "osed": 5189,
      "ables": 5190,
      "ignment": 5191,
      "Ġsetting": 5192,
      "Scroll": 5193,
      "Rest": 5194,
      "lines": 5195,
      "spring": 5196,
      "Ġenough": 5197,
      "aration": 5198,
      "aved": 5199,
      "Elements": 5200,
      "Ġaddition": 5201,
      "trigger": 5202,
      "ĠVersion": 5203,
      "Ġcar": 5204,
      "400": 5205,
      "Ġbind": 5206,
      "ĠĠĠĠĠĠĠĠĠĠĠĠĠĠĠĠĠĠĠĠĠĠĠĠ": 5207,
      "yes": 5208,
      "ĠDon": 5209,
      "Ġsuggest": 5210,
      "quare": 5211,
      "41": 5212,
      "ĠCourt": 5213,
      "[$": 5214,
      "ĠCalifornia": 5215,
      "Ġdi": 5216,
      "Ġproduction": 5217,
      "overnor": 5218,
      "step": 5219,
      "gu": 5220,
      "Ġindu": 5221,
      "Ġmakes": 5222,
      "Ġlock": 5223,
      "free": 5224,
      "none": 5225,
      "desc": 5226,
      "controller": 5227,
      "Scale": 5228,
      "Ġactually": 5229,
      "ĠOper": 5230,
      "ĠCenter": 5231,
      "Ġincludes": 5232,
      "Ġflo": 5233,
      "names": 5234,
      "pare": 5235,
      "ĠCall": 5236,
      "Ġscreen": 5237,
      "ients": 5238,
      "tection": 5239,
      "lide": 5240,
      "normal": 5241,
      "ney": 5242,
      "Ġdeg": 5243,
      "decl": 5244,
      "omb": 5245,
      "brief": 5246,
      "Props": 5247,
      "ech": 5248,
      "sing": 5249,
      "ARY": 5250,
      "lapse": 5251,
      "Ġconditions": 5252,
      "short": 5253,
      "metadata": 5254,
      "VERSION": 5255,
      "Ġrelated": 5256,
      "95": 5257,
      "Auto": 5258,
      "Wrapper": 5259,
      "DC": 5260,
      "oose": 5261,
      "Ġapply": 5262,
      "ooks": 5263,
      "ADD": 5264,
      "CHECK": 5265,
      "Ġsecurity": 5266,
      "ĠDem": 5267,
      "Ġson": 5268,
      "notation": 5269,
      "atory": 5270,
      "ĠMo": 5271,
      "solute": 5272,
      "Ġtoday": 5273,
      "Ġflow": 5274,
      "Memory": 5275,
      "ĠNor": 5276,
      "Enum": 5277,
      "ĠAN": 5278,
      "Ġquestion": 5279,
      "Ġreq": 5280,
      "ĠRegister": 5281,
      "Ġimplementation": 5282,
      "ĠDistrict": 5283,
      "Ġgenerated": 5284,
      "ĠOption": 5285,
      "ĠWork": 5286,
      "Rece": 5287,
      "Mar": 5288,
      "Ġmilitary": 5289,
      "Ġattributes": 5290,
      "Ġbuilder": 5291,
      "STAT": 5292,
      "istr": 5293,
      "super": 5294,
      "ula": 5295,
      "omy": 5296,
      "Net": 5297,
      "Ġissues": 5298,
      "Ġsimple": 5299,
      "cons": 5300,
      "assets": 5301,
      "Ġunique": 5302,
      "Nodes": 5303,
      "TABLE": 5304,
      "RAN": 5305,
      "Ġdistributed": 5306,
      "Grid": 5307,
      "utions": 5308,
      "Ġinvalid": 5309,
      "ilation": 5310,
      "CS": 5311,
      "ĠIndian": 5312,
      "XML": 5313,
      "aset": 5314,
      "256": 5315,
      "atives": 5316,
      "Namespace": 5317,
      "elli": 5318,
      "imated": 5319,
      "ĉĉĉĊ": 5320,
      "wide": 5321,
      "PA": 5322,
      "Ġmoved": 5323,
      "Ġexists": 5324,
      "Ġalloc": 5325,
      "ĠĠĠĠĠĠĠĠĠĠĠĠĠĠĠĠĠĠĠĠĠĠ": 5326,
      "children": 5327,
      "ĠMethod": 5328,
      "}</": 5329,
      "Ġdistrict": 5330,
      "ĠField": 5331,
      "ĠTask": 5332,
      "Ġdied": 5333,
      "lict": 5334,
      "Ġmatrix": 5335,
      "ĠText": 5336,
      "Ġsignificant": 5337,
      "ashington": 5338,
      "Ġlang": 5339,
      "Br": 5340,
      "Statement": 5341,
      "Ġfeel": 5342,
      "stitute": 5343,
      "avor": 5344,
      "material": 5345,
      "LIC": 5346,
      "Ġyoung": 5347,
      "Ġlim": 5348,
      "BUG": 5349,
      "Ñĥ": 5350,
      "uge": 5351,
      "\">&": 5352,
      "1999": 5353,
      "ĠVer": 5354,
      "ĠNO": 5355,
      "esh": 5356,
      "^{\\": 5357,
      "ĠIOException": 5358,
      "NULL": 5359,
      "Ġmonth": 5360,
      "Fin": 5361,
      "ĠSm": 5362,
      "Ġrather": 5363,
      "typedef": 5364,
      "Generic": 5365,
      "ifies": 5366,
      "ĠSome": 5367,
      "rael": 5368,
      "ks": 5369,
      "Ġmodels": 5370,
      "Ġextension": 5371,
      "=\"\"": 5372,
      "ixel": 5373,
      "Ġdig": 5374,
      "scription": 5375,
      "ĠGets": 5376,
      "mission": 5377,
      "Ġlibrary": 5378,
      "85": 5379,
      "UTF": 5380,
      "Ġwebs": 5381,
      "Ġrespons": 5382,
      "times": 5383,
      "keyword": 5384,
      "Inv": 5385,
      "Cond": 5386,
      "Ġlines": 5387,
      "Matrix": 5388,
      "Ġpointer": 5389,
      ".[": 5390,
      "Panel": 5391,
      "ĠGerman": 5392,
      "ĠSen": 5393,
      "points": 5394,
      "expr": 5395,
      "IMP": 5396,
      "Socket": 5397,
      "ĠPort": 5398,
      "Second": 5399,
      "Layer": 5400,
      "ById": 5401,
      "aled": 5402,
      "Ġbar": 5403,
      "ĠCouncil": 5404,
      "reset": 5405,
      "ĠEm": 5406,
      "Desc": 5407,
      "ĠCode": 5408,
      "duc": 5409,
      "Ġrandom": 5410,
      "$\\": 5411,
      "pay": 5412,
      "Ġeducation": 5413,
      "ĠChina": 5414,
      "SY": 5415,
      "fail": 5416,
      "Ġctx": 5417,
      "Ġprofession": 5418,
      "JS": 5419,
      "Ġenergy": 5420,
      "stats": 5421,
      "Ġrg": 5422,
      "Print": 5423,
      "urb": 5424,
      "product": 5425,
      "Ġeditor": 5426,
      "Ġresources": 5427,
      "ĠRet": 5428,
      "Ġwriter": 5429,
      "hold": 5430,
      "ida": 5431,
      "Expect": 5432,
      "Any": 5433,
      "Ġnumer": 5434,
      "ĠjQuery": 5435,
      "svg": 5436,
      "ĠId": 5437,
      "ĠDepartment": 5438,
      "'])": 5439,
      "Ġtemp": 5440,
      "itude": 5441,
      "Ġlower": 5442,
      "yd": 5443,
      "ĠFin": 5444,
      "lands": 5445,
      "ango": 5446,
      "chan": 5447,
      "Ġexperience": 5448,
      "(__": 5449,
      "jquery": 5450,
      "entials": 5451,
      "writ": 5452,
      "Ġavoid": 5453,
      "Ġ[],": 5454,
      "Imp": 5455,
      "Ġsold": 5456,
      "zone": 5457,
      "area": 5458,
      "tw": 5459,
      "Ġunderstand": 5460,
      "Pop": 5461,
      "properties": 5462,
      "=\"@": 5463,
      "reater": 5464,
      "Ġng": 5465,
      "Ġasync": 5466,
      "ĠIP": 5467,
      "rd": 5468,
      "Adapter": 5469,
      "Man": 5470,
      "Before": 5471,
      "Ġregard": 5472,
      "ĠCr": 5473,
      "ALSE": 5474,
      "Ġvector": 5475,
      "screen": 5476,
      "Ġlead": 5477,
      "Ġprimary": 5478,
      "atalog": 5479,
      "Ġparty": 5480,
      "Ġidx": 5481,
      "security": 5482,
      "ĠNote": 5483,
      "Ġmass": 5484,
      "ĠĠĠĠĠĠĠĠĠĠĠĠĠĠĠĠĠĠĠĠĠĠĠĠĠĠĠĠĠĠĠĠĠĠĠĠĠĠĠĠĠĠĠ": 5485,
      "enter": 5486,
      "uy": 5487,
      "ĠChurch": 5488,
      "Ġimplements": 5489,
      "INS": 5490,
      "Ġtab": 5491,
      "ĠGoogle": 5492,
      "ĠPal": 5493,
      "getName": 5494,
      "Conf": 5495,
      "LAG": 5496,
      "Ġinsert": 5497,
      "ycle": 5498,
      "ĠGod": 5499,
      "Ġcountries": 5500,
      "Expr": 5501,
      "coq": 5502,
      "ara": 5503,
      "======": 5504,
      "Named": 5505,
      "lems": 5506,
      "ĠEuropean": 5507,
      "ONE": 5508,
      "ĠMem": 5509,
      "peat": 5510,
      "So": 5511,
      "editor": 5512,
      "Ġthought": 5513,
      "Ġupon": 5514,
      "Ġtelevision": 5515,
      "300": 5516,
      "nil": 5517,
      "Ġworked": 5518,
      "delta": 5519,
      "Ġtraining": 5520,
      "Remove": 5521,
      "contains": 5522,
      "(-": 5523,
      "LINE": 5524,
      "Ġparts": 5525,
      "Files": 5526,
      ")),": 5527,
      "Ġprovides": 5528,
      "ancellation": 5529,
      "antic": 5530,
      "Ġ{'": 5531,
      "Ġrate": 5532,
      "\"/": 5533,
      "Ġenabled": 5534,
      "à¤": 5535,
      "ĠDiv": 5536,
      "Gr": 5537,
      "Ġconnect": 5538,
      "Ġpersonal": 5539,
      "uted": 5540,
      "Ġrev": 5541,
      ".'": 5542,
      "Activity": 5543,
      "Ġwhose": 5544,
      "ĠInteger": 5545,
      "NG": 5546,
      "Ġreported": 5547,
      "ificate": 5548,
      "ips": 5549,
      "logger": 5550,
      "Attr": 5551,
      "]:": 5552,
      "urrency": 5553,
      "anded": 5554,
      "ifdef": 5555,
      "Ġmonths": 5556,
      "ilon": 5557,
      "Ġdetermin": 5558,
      "IB": 5559,
      "DS": 5560,
      "Ġfather": 5561,
      "Failed": 5562,
      "Ġdebug": 5563,
      "hood": 5564,
      "SER": 5565,
      "Ġshall": 5566,
      "adcast": 5567,
      "picker": 5568,
      "uit": 5569,
      "Ġreplace": 5570,
      "Ġcontaining": 5571,
      "ĠEngland": 5572,
      "tools": 5573,
      "git": 5574,
      "Ġtreat": 5575,
      "arter": 5576,
      "Ġnative": 5577,
      "ĠArch": 5578,
      "resp": 5579,
      "vey": 5580,
      "zz": 5581,
      "Ġeff": 5582,
      "ulate": 5583,
      "IE": 5584,
      "################": 5585,
      "Ġdidn": 5586,
      "modules": 5587,
      "lers": 5588,
      "numer": 5589,
      "Dest": 5590,
      "Ġsizeof": 5591,
      "Ġfig": 5592,
      "domain": 5593,
      "Duration": 5594,
      "Ġentity": 5595,
      "Ġregular": 5596,
      "Ġcomplex": 5597,
      "elf": 5598,
      "Ġpress": 5599,
      "ĠRead": 5600,
      "rote": 5601,
      "bound": 5602,
      "Ġ%}": 5603,
      "theme": 5604,
      "Ġwhy": 5605,
      "network": 5606,
      "ĠLaw": 5607,
      "Ġconstructor": 5608,
      "Ġmaint": 5609,
      "Ġspecies": 5610,
      "job": 5611,
      "ĠPre": 5612,
      "mask": 5613,
      "prefix": 5614,
      "Constants": 5615,
      "Ġextra": 5616,
      "Ġ${": 5617,
      "ements": 5618,
      "arts": 5619,
      "Cluster": 5620,
      "master": 5621,
      "Ġcalls": 5622,
      "Ġrepl": 5623,
      "Ġwallet": 5624,
      "LS": 5625,
      "ĠĠĠĠĠĠĠĠĠĠĠĠĠĠĠĠĠĠĠĠĠĠĠĠĠĠĠĠĠ": 5626,
      "PATH": 5627,
      "burg": 5628,
      "Ġmanager": 5629,
      "ĠFrom": 5630,
      "ario": 5631,
      "ĠDirect": 5632,
      "Prefix": 5633,
      "profile": 5634,
      "Profile": 5635,
      ">::": 5636,
      "Headers": 5637,
      "Ġcontract": 5638,
      "Global": 5639,
      "Ġhon": 5640,
      "ancial": 5641,
      "Ġcourt": 5642,
      "Ġicon": 5643,
      "PT": 5644,
      "attributes": 5645,
      "![": 5646,
      "Ġrelationship": 5647,
      "Ġconc": 5648,
      "Ġprogress": 5649,
      "Identifier": 5650,
      "ĠJust": 5651,
      "ledge": 5652,
      "Ġcondition": 5653,
      "Ġappend": 5654,
      "Ġintegr": 5655,
      "Ġareas": 5656,
      "Collections": 5657,
      "Ðº": 5658,
      "Sync": 5659,
      "ĠDavid": 5660,
      "libr": 5661,
      "Fl": 5662,
      "PACK": 5663,
      "ĠHand": 5664,
      "safe": 5665,
      "Ġclasses": 5666,
      "Ġsave": 5667,
      "Ġensure": 5668,
      "lymp": 5669,
      "real": 5670,
      "Pack": 5671,
      "Syntax": 5672,
      "boost": 5673,
      "icture": 5674,
      "Ġlisten": 5675,
      "Ġcompleted": 5676,
      "Ġclean": 5677,
      "Double": 5678,
      "ao": 5679,
      "ĠCup": 5680,
      "Single": 5681,
      "READ": 5682,
      "Ġvot": 5683,
      "Ġcluster": 5684,
      "undefined": 5685,
      "Ġphot": 5686,
      "illed": 5687,
      "indexOf": 5688,
      "Ġshown": 5689,
      "pool": 5690,
      "Ġdirectly": 5691,
      "echo": 5692,
      "identifier": 5693,
      "Ġbad": 5694,
      "Ġsequence": 5695,
      "Ljava": 5696,
      "Mapping": 5697,
      "inv": 5698,
      "]{": 5699,
      "DULE": 5700,
      "ĠCanada": 5701,
      "idx": 5702,
      "ĠHol": 5703,
      "switch": 5704,
      "sess": 5705,
      "Ġthing": 5706,
      "mount": 5707,
      "Ġlove": 5708,
      "Ġoptional": 5709,
      "Ġ[[": 5710,
      "Ġcast": 5711,
      "Ġmoney": 5712,
      "Ġexpress": 5713,
      "Main": 5714,
      "ĠUpdate": 5715,
      "Ġremoved": 5716,
      "ĠJames": 5717,
      "Ġaward": 5718,
      "browser": 5719,
      "Ġpopular": 5720,
      ")\"": 5721,
      "filename": 5722,
      "Ġfront": 5723,
      "Ġground": 5724,
      "leep": 5725,
      "Av": 5726,
      "Ac": 5727,
      "ĠCons": 5728,
      "ĠStud": 5729,
      "ĠAustralia": 5730,
      "Ġconsist": 5731,
      "ena": 5732,
      "TRUE": 5733,
      "iting": 5734,
      "total": 5735,
      "Ne": 5736,
      "Trace": 5737,
      "hidden": 5738,
      "mas": 5739,
      "TEXT": 5740,
      "avy": 5741,
      "unn": 5742,
      ">:": 5743,
      "Ġol": 5744,
      "hi": 5745,
      "Ġzero": 5746,
      "special": 5747,
      "ĠWashington": 5748,
      "ĠReact": 5749,
      "ĠFound": 5750,
      "account": 5751,
      "Ġutil": 5752,
      "Ġwords": 5753,
      "98": 5754,
      "Ġproduced": 5755,
      "51": 5756,
      "asons": 5757,
      "Ġ\"<": 5758,
      "Help": 5759,
      "Ġ\",": 5760,
      ")).": 5761,
      "Ġnorth": 5762,
      "Ġprevent": 5763,
      "Ġlost": 5764,
      "OUT": 5765,
      "Browser": 5766,
      "Ġinflu": 5767,
      "home": 5768,
      "Ġcompanies": 5769,
      "Ġestablish": 5770,
      "progress": 5771,
      "rb": 5772,
      "Ġencoding": 5773,
      "porary": 5774,
      "Ġrelig": 5775,
      "Ġcoll": 5776,
      "ully": 5777,
      "Ġbg": 5778,
      "Ġfriend": 5779,
      "Ġplatform": 5780,
      "Ġoutside": 5781,
      "Ġ(\\": 5782,
      "ĠStreet": 5783,
      "uses": 5784,
      "Ġ$.": 5785,
      "aid": 5786,
      "hide": 5787,
      "more": 5788,
      "sigma": 5789,
      "Ġdir": 5790,
      "Ġconstant": 5791,
      "shadow": 5792,
      "results": 5793,
      "ĠPost": 5794,
      "enses": 5795,
      "ĠHel": 5796,
      "Ġwhole": 5797,
      "Me": 5798,
      "fd": 5799,
      "rift": 5800,
      "oring": 5801,
      "Ġach": 5802,
      "Ġten": 5803,
      "LOCK": 5804,
      "Ġexport": 5805,
      "note": 5806,
      "'));": 5807,
      "builder": 5808,
      "GB": 5809,
      "Ġawait": 5810,
      "ĠOver": 5811,
      "erial": 5812,
      "ming": 5813,
      "Ġforward": 5814,
      "Ġaverage": 5815,
      "Region": 5816,
      "EM": 5817,
      "Ġdirector": 5818,
      "depth": 5819,
      "Sequence": 5820,
      "ulated": 5821,
      "ĠAnt": 5822,
      "NavBarCell": 5823,
      "Ġinteger": 5824,
      "Ġtransparent": 5825,
      "ĠMag": 5826,
      "ĠĠĠĠĠĠĠĠĠĠĠĠĠĠĠĠĠĠĠĠĠĠĠĠĠĠĠĠĠĠĠĠĠĠĠĠĠĠĠĠĠĠĠĠĠĠĠĠĠĠĠĠĠĠĠĠĠĠĠĠĠĠĠĠ": 5827,
      "Ġtold": 5828,
      "Route": 5829,
      "Ġbtn": 5830,
      "Generator": 5831,
      "dec": 5832,
      "atio": 5833,
      "ĠRobert": 5834,
      "Selection": 5835,
      "54": 5836,
      "Ġstage": 5837,
      "Common": 5838,
      "PER": 5839,
      "Ġrot": 5840,
      "cut": 5841,
      "protocol": 5842,
      "Seg": 5843,
      "ĠChampionship": 5844,
      "wrapper": 5845,
      "Ġlearn": 5846,
      "Ġmaximum": 5847,
      "1998": 5848,
      "Ġ'<": 5849,
      "+\\": 5850,
      "loader": 5851,
      "Ġxmlns": 5852,
      "VALUE": 5853,
      "Ġtakes": 5854,
      "lg": 5855,
      "Ġqueue": 5856,
      "1990": 5857,
      "Ġbrowser": 5858,
      "Ġflags": 5859,
      "160": 5860,
      "Full": 5861,
      "Ġvalign": 5862,
      "ĠĠĠĠĠĠĠĠĠĠĠĠĠĠĠĠĠĠĠĠĠĠĠĠĠĠ": 5863,
      "Ġcross": 5864,
      "Ġfinally": 5865,
      "Ġfem": 5866,
      "Ġjud": 5867,
      "%%%%": 5868,
      "Delta": 5869,
      "amel": 5870,
      "HTTP": 5871,
      "ĠProject": 5872,
      "ĠFI": 5873,
      "Ġsigned": 5874,
      "eds": 5875,
      "DA": 5876,
      "components": 5877,
      "Ġface": 5878,
      "Java": 5879,
      "Ġpy": 5880,
      "Delegate": 5881,
      "Ġannounced": 5882,
      "Ã¶": 5883,
      "ĠParty": 5884,
      "------------": 5885,
      "=\"\">": 5886,
      "Ġstatement": 5887,
      "PS": 5888,
      "dates": 5889,
      "ĠOther": 5890,
      "kens": 5891,
      "headers": 5892,
      "figure": 5893,
      "Registry": 5894,
      "Len": 5895,
      "Ġcandid": 5896,
      "Ġdoing": 5897,
      "BR": 5898,
      "Ġnecessary": 5899,
      "ĠExp": 5900,
      "Ġinside": 5901,
      "aur": 5902,
      "Ġleaders": 5903,
      "Ġfocus": 5904,
      "Ġshape": 5905,
      "testing": 5906,
      "ouch": 5907,
      "Microsoft": 5908,
      "aver": 5909,
      "Ġgenerate": 5910,
      "omin": 5911,
      "Engine": 5912,
      "URI": 5913,
      "Ġconstruct": 5914,
      "Ġeffort": 5915,
      "Ġ>>": 5916,
      "Ġui": 5917,
      "ensive": 5918,
      "Ġok": 5919,
      "Ġrules": 5920,
      "Ġpaint": 5921,
      "ĠRiver": 5922,
      "Ġoffice": 5923,
      "ĠBuild": 5924,
      "çļ": 5925,
      "isf": 5926,
      "ĠPaul": 5927,
      "Selected": 5928,
      "selves": 5929,
      "Cons": 5930,
      "ĠJew": 5931,
      "ĠCopyright": 5932,
      "junit": 5933,
      "illa": 5934,
      "ĠBer": 5935,
      "Ġmatches": 5936,
      "WA": 5937,
      "('.": 5938,
      "done": 5939,
      "çļĦ": 5940,
      "isl": 5941,
      "Success": 5942,
      "Ġchalleng": 5943,
      "ĠCO": 5944,
      "Ġsouth": 5945,
      "Ġrequests": 5946,
      "ixture": 5947,
      "ĠIsrael": 5948,
      "Conn": 5949,
      "Art": 5950,
      "Ġmid": 5951,
      "OOST": 5952,
      "Ġwrote": 5953,
      "Ġmetadata": 5954,
      "oe": 5955,
      "ĠRoy": 5956,
      "Ġroom": 5957,
      "anese": 5958,
      "Ġsex": 5959,
      "direct": 5960,
      "kw": 5961,
      "Ġstorage": 5962,
      "ĠAward": 5963,
      "SCR": 5964,
      "Ġvict": 5965,
      "ĠLong": 5966,
      "Abstract": 5967,
      "prev": 5968,
      "IND": 5969,
      "LECT": 5970,
      "53": 5971,
      "protected": 5972,
      "IPT": 5973,
      "tags": 5974,
      "Ġhigher": 5975,
      "AX": 5976,
      "engine": 5977,
      "bal": 5978,
      "Ġleading": 5979,
      "Ġinc": 5980,
      "Ġdescribe": 5981,
      "limit": 5982,
      "rule": 5983,
      "ĠUK": 5984,
      "Ġsystems": 5985,
      "^\\": 5986,
      "Ġnothing": 5987,
      "Ġsitu": 5988,
      "straints": 5989,
      "FIG": 5990,
      ".\");": 5991,
      "Ġimmedi": 5992,
      "Mut": 5993,
      "Ġrecent": 5994,
      "parameters": 5995,
      "ĠCong": 5996,
      "ĠRich": 5997,
      "76": 5998,
      "elt": 5999,
      "cheduler": 6000,
      "itar": 6001,
      "invalid": 6002,
      "ago": 6003,
      "ĠInitial": 6004,
      "omas": 6005,
      "Ġlonger": 6006,
      "igration": 6007,
      "Ġusers": 6008,
      "Ġprefix": 6009,
      "Ġconv": 6010,
      "oog": 6011,
      "ĠMal": 6012,
      "52": 6013,
      "Uri": 6014,
      "ĠMr": 6015,
      "Step": 6016,
      "shal": 6017,
      "asc": 6018,
      "ĠFrance": 6019,
      "pped": 6020,
      "ĠMod": 6021,
      "Ġevid": 6022,
      "Ġallows": 6023,
      "Dictionary": 6024,
      "USE": 6025,
      "het": 6026,
      "dx": 6027,
      "moz": 6028,
      "TIME": 6029,
      "ifying": 6030,
      "ĠInst": 6031,
      "Repository": 6032,
      "ris": 6033,
      "Ġdefinition": 6034,
      "circ": 6035,
      ")->": 6036,
      "ĠBlack": 6037,
      "ĠView": 6038,
      "EventListener": 6039,
      "Ġhel": 6040,
      "ACT": 6041,
      "Ġshared": 6042,
      "Product": 6043,
      "reshold": 6044,
      "ĠAND": 6045,
      "Ġ],": 6046,
      "Domain": 6047,
      "Ġwest": 6048,
      "family": 6049,
      "configuration": 6050,
      "Ġ\"-": 6051,
      "ĠInc": 6052,
      "Ġcore": 6053,
      "erry": 6054,
      "Ġcontribut": 6055,
      "mathrm": 6056,
      "izations": 6057,
      "ĠSQL": 6058,
      "parser": 6059,
      "ĠGeorge": 6060,
      "olic": 6061,
      "FFFF": 6062,
      "ieved": 6063,
      "Ġcut": 6064,
      "Ġwebsite": 6065,
      "&&": 6066,
      "ĠAssociation": 6067,
      "ya": 6068,
      "Ġpod": 6069,
      "istan": 6070,
      "ĠUN": 6071,
      "Progress": 6072,
      "Ġlistener": 6073,
      "serial": 6074,
      "ĠBen": 6075,
      "acc": 6076,
      "Simple": 6077,
      "mouse": 6078,
      "Role": 6079,
      "Ġcampaign": 6080,
      "istribut": 6081,
      "ams": 6082,
      "ville": 6083,
      "mitted": 6084,
      "ĉĉĉĉĉĉĉĉĉ": 6085,
      "Ġpassword": 6086,
      "CESS": 6087,
      "Ġreceive": 6088,
      "scri": 6089,
      "Ġalmost": 6090,
      "ĠRequest": 6091,
      "Pay": 6092,
      "ĠCollection": 6093,
      "partial": 6094,
      "Space": 6095,
      "ountry": 6096,
      "icket": 6097,
      "Ġill": 6098,
      "itting": 6099,
      "external": 6100,
      "Opt": 6101,
      "bert": 6102,
      "Ġnews": 6103,
      "execute": 6104,
      "oped": 6105,
      "Details": 6106,
      "storage": 6107,
      "CRE": 6108,
      "Ġmor": 6109,
      "Rad": 6110,
      "ĠOb": 6111,
      "orest": 6112,
      "Ġtechn": 6113,
      "ĠEar": 6114,
      "Ġbenef": 6115,
      "details": 6116,
      "ĠUnion": 6117,
      "ndef": 6118,
      "=\"${": 6119,
      "raz": 6120,
      "tabs": 6121,
      "fx": 6122,
      "Ġip": 6123,
      "tty": 6124,
      "82": 6125,
      "Password": 6126,
      "tests": 6127,
      "errors": 6128,
      "ensed": 6129,
      "rian": 6130,
      "enabled": 6131,
      "Ġfamil": 6132,
      "Ġindustry": 6133,
      "(@": 6134,
      "Services": 6135,
      "Character": 6136,
      "FLAG": 6137,
      "Ġtmp": 6138,
      "ĠDet": 6139,
      "adian": 6140,
      "ĠAssembly": 6141,
      "ĠThen": 6142,
      "platform": 6143,
      "ker": 6144,
      "FR": 6145,
      "Resources": 6146,
      "tilde": 6147,
      "Orig": 6148,
      "fly": 6149,
      "Ġvari": 6150,
      "variable": 6151,
      "fc": 6152,
      "Ġmissing": 6153,
      "2021": 6154,
      "Ġsimp": 6155,
      "72": 6156,
      "Ġmut": 6157,
      "azz": 6158,
      "ĠHash": 6159,
      "hest": 6160,
      "Ġmanagement": 6161,
      "Ġtrigger": 6162,
      "ĠNews": 6163,
      "cing": 6164,
      "roke": 6165,
      "Year": 6166,
      "Ġtransition": 6167,
      "Ġbottom": 6168,
      "ĠTH": 6169,
      "forms": 6170,
      "ĠOff": 6171,
      "Py": 6172,
      "ĠLOG": 6173,
      "lam": 6174,
      "berg": 6175,
      "Ġreading": 6176,
      "ĠFil": 6177,
      "MODULE": 6178,
      "Shape": 6179,
      "ĠASSERT": 6180,
      "Ġheaders": 6181,
      "pattern": 6182,
      "enable": 6183,
      "west": 6184,
      "gin": 6185,
      "Ġwide": 6186,
      "Ġmessages": 6187,
      "outher": 6188,
      "inn": 6189,
      "ĠDec": 6190,
      "Ġenum": 6191,
      "ENSE": 6192,
      "Ġclosed": 6193,
      "look": 6194,
      "llegal": 6195,
      "arily": 6196,
      "Ġ[\"": 6197,
      "Ġauth": 6198,
      "Ġfailure": 6199,
      "Author": 6200,
      "ĠWhat": 6201,
      "proxy": 6202,
      "Ġdestroy": 6203,
      "Ġbal": 6204,
      "IST": 6205,
      "Ġquick": 6206,
      "extern": 6207,
      "Ġtransport": 6208,
      "ĠHTTP": 6209,
      "Ġforeach": 6210,
      "Ġappoint": 6211,
      "Ġnight": 6212,
      "Ġparam": 6213,
      "ĠNumber": 6214,
      "RES": 6215,
      "Ġfmt": 6216,
      "precated": 6217,
      "Ġvolume": 6218,
      "Ġdeep": 6219,
      "FC": 6220,
      "illing": 6221,
      "Ġhimself": 6222,
      "Ġdecision": 6223,
      "ria": 6224,
      "gan": 6225,
      "Ġepis": 6226,
      "ĠMore": 6227,
      "Agent": 6228,
      "ĠIE": 6229,
      "SR": 6230,
      "cape": 6231,
      "Ġtimeout": 6232,
      "CI": 6233,
      "Ġrgba": 6234,
      "ĠMet": 6235,
      "Ġprinc": 6236,
      "Cap": 6237,
      "Ġdiscover": 6238,
      "Texture": 6239,
      "Ġcop": 6240,
      "sidebar": 6241,
      "ifndef": 6242,
      "ĠJava": 6243,
      "Ġtaking": 6244,
      "Ġstand": 6245,
      "emon": 6246,
      "wood": 6247,
      "horizontal": 6248,
      "Ġplugin": 6249,
      "Framework": 6250,
      "Own": 6251,
      "Ġer": 6252,
      "Ġevalu": 6253,
      "bserv": 6254,
      "thern": 6255,
      "Ġhom": 6256,
      "Enumer": 6257,
      "Ġdirection": 6258,
      "exists": 6259,
      "ĠPress": 6260,
      "84": 6261,
      "Ġopened": 6262,
      "ander": 6263,
      "ĠWAR": 6264,
      "while": 6265,
      "bad": 6266,
      "Ġupdated": 6267,
      "temp": 6268,
      "Ġexports": 6269,
      "Ġsample": 6270,
      "OD": 6271,
      "ĠMor": 6272,
      "anning": 6273,
      "ĠArmy": 6274,
      "Ġopport": 6275,
      "Ġetc": 6276,
      "ĠHar": 6277,
      "ITION": 6278,
      "Ġbuf": 6279,
      "eries": 6280,
      "arator": 6281,
      "Ġdeveloped": 6282,
      "fix": 6283,
      "Ġfrequ": 6284,
      "under": 6285,
      "cial": 6286,
      "Ġliving": 6287,
      "ĠMessage": 6288,
      "iqu": 6289,
      "pecially": 6290,
      "jar": 6291,
      "pite": 6292,
      "ĠResource": 6293,
      "Ġmis": 6294,
      "jango": 6295,
      "outhern": 6296,
      "arison": 6297,
      "anging": 6298,
      "Fact": 6299,
      "ï¼": 6300,
      "Ġprops": 6301,
      "ĠTech": 6302,
      "Ġwatch": 6303,
      "Ġobtain": 6304,
      "Ġconduct": 6305,
      "Ġmodern": 6306,
      "dist": 6307,
      "HER": 6308,
      "OB": 6309,
      "angular": 6310,
      "Ġrisk": 6311,
      "Ġcalcul": 6312,
      "Ġabsolute": 6313,
      "Ġunless": 6314,
      "uous": 6315,
      "pret": 6316,
      "Ġvillage": 6317,
      "Ġenv": 6318,
      "dialog": 6319,
      "Ġreadonly": 6320,
      "Ġfight": 6321,
      "timeout": 6322,
      "Ġfactory": 6323,
      "ĠHttp": 6324,
      "Ġlayer": 6325,
      "pass": 6326,
      "imately": 6327,
      "ospital": 6328,
      "Ġowner": 6329,
      "graphics": 6330,
      "men": 6331,
      "ĠMart": 6332,
      "Ġtransfer": 6333,
      "Att": 6334,
      "Ġpers": 6335,
      "ĠJe": 6336,
      "Ġmount": 6337,
      "spirit": 6338,
      "ble": 6339,
      "ĠInstitute": 6340,
      "Ġliter": 6341,
      "Ġsql": 6342,
      "essor": 6343,
      "Ġlikely": 6344,
      "Ġroute": 6345,
      "Ġarticle": 6346,
      "frag": 6347,
      "xi": 6348,
      "resolve": 6349,
      "Ġstrings": 6350,
      "pring": 6351,
      "Bound": 6352,
      "leq": 6353,
      "selector": 6354,
      "Stats": 6355,
      "gamma": 6356,
      "Math": 6357,
      "Ġ_,": 6358,
      "Ġgrant": 6359,
      "REG": 6360,
      "extend": 6361,
      "acro": 6362,
      "Ġtro": 6363,
      "fire": 6364,
      "Ġpolice": 6365,
      "tim": 6366,
      "ICE": 6367,
      "128": 6368,
      "provider": 6369,
      "ughter": 6370,
      "ĠHealth": 6371,
      "Ġdomain": 6372,
      "Interval": 6373,
      "Ġdiscuss": 6374,
      "grade": 6375,
      "Category": 6376,
      "People": 6377,
      "Endpoint": 6378,
      "DateTime": 6379,
      "Ġscore": 6380,
      "Ġdistribution": 6381,
      "WR": 6382,
      "Cred": 6383,
      "ĠDay": 6384,
      "resents": 6385,
      "ĠPath": 6386,
      "How": 6387,
      "Ġexact": 6388,
      "usiness": 6389,
      "shall": 6390,
      "tbody": 6391,
      "Ġimm": 6392,
      "Diagnost": 6393,
      "Begin": 6394,
      "Ġboard": 6395,
      ")/": 6396,
      "ORTED": 6397,
      "ifications": 6398,
      "ĠGo": 6399,
      "$$": 6400,
      "ades": 6401,
      "Ġshift": 6402,
      "icks": 6403,
      "91": 6404,
      "Ġdepart": 6405,
      "Ġhit": 6406,
      "ĠDev": 6407,
      "ĠTV": 6408,
      "slice": 6409,
      "lis": 6410,
      "Ġhidden": 6411,
      "tk": 6412,
      "async": 6413,
      "Ġeast": 6414,
      "Visible": 6415,
      ">\"": 6416,
      "inese": 6417,
      "Ġinvolved": 6418,
      "Ġlogger": 6419,
      "ĠWindow": 6420,
      "ĠIndex": 6421,
      "checkbox": 6422,
      "REQ": 6423,
      "Ġnumbers": 6424,
      "ĠCompany": 6425,
      "aches": 6426,
      "Ġ=========": 6427,
      "iences": 6428,
      "faces": 6429,
      "rial": 6430,
      "exec": 6431,
      "1980": 6432,
      "^{-": 6433,
      "ĠTem": 6434,
      "orter": 6435,
      "ĠRoman": 6436,
      "vc": 6437,
      "Ġrock": 6438,
      "typename": 6439,
      "ĠFe": 6440,
      "Ġchurch": 6441,
      "Ġinstit": 6442,
      "ĠWil": 6443,
      "Ġmiddle": 6444,
      "Ġautomatic": 6445,
      "ĠLou": 6446,
      "Ġconcern": 6447,
      "Ap": 6448,
      "library": 6449,
      "pu": 6450,
      "Ġlegal": 6451,
      "Generated": 6452,
      "operator": 6453,
      "Comment": 6454,
      "Ġjoined": 6455,
      "Ñı": 6456,
      "Ġparser": 6457,
      "UES": 6458,
      "Ġsus": 6459,
      "Ġcivil": 6460,
      "mazon": 6461,
      "unique": 6462,
      "throw": 6463,
      "rey": 6464,
      "FL": 6465,
      "ĠĠĠĠĠĠĠĠĠĠĠĠĠĠĠĠĠĠĠĠĠĠĠĠĠĠĠĠ": 6466,
      "Ġassum": 6467,
      "rase": 6468,
      "izable": 6469,
      "Depend": 6470,
      "sq": 6471,
      "ĠDan": 6472,
      "()</": 6473,
      "ĠMusic": 6474,
      "di": 6475,
      "Ġfixed": 6476,
      "Ġanalysis": 6477,
      "Ġscroll": 6478,
      "Ġcult": 6479,
      "Ġstarting": 6480,
      "Ġcounter": 6481,
      "Ġemail": 6482,
      "gradient": 6483,
      "ĠExt": 6484,
      "Ġrace": 6485,
      "sb": 6486,
      "olog": 6487,
      "Ġenable": 6488,
      "Span": 6489,
      "zure": 6490,
      "WEB": 6491,
      "Ġtx": 6492,
      "username": 6493,
      "Ġaud": 6494,
      "Ġfood": 6495,
      "dp": 6496,
      "shared": 6497,
      "Ġ];": 6498,
      "Lin": 6499,
      "Native": 6500,
      "Ġraw": 6501,
      "Ġtranslate": 6502,
      "78": 6503,
      "sur": 6504,
      "Ġplaying": 6505,
      "login": 6506,
      "ĠOlymp": 6507,
      "HR": 6508,
      "Ġsett": 6509,
      "INFO": 6510,
      "Ġdesc": 6511,
      "stat": 6512,
      "WN": 6513,
      "orse": 6514,
      "Ġfinished": 6515,
      "Db": 6516,
      "Ġretr": 6517,
      "ĠMicrosoft": 6518,
      "flag": 6519,
      "las": 6520,
      "FORM": 6521,
      "Ġrepresentation": 6522,
      "ĠUI": 6523,
      "tc": 6524,
      "ĠValid": 6525,
      "Ġreset": 6526,
      "Ġopts": 6527,
      "ĠRel": 6528,
      "band": 6529,
      "Ġsound": 6530,
      "elem": 6531,
      "SCRIPT": 6532,
      "iate": 6533,
      "Children": 6534,
      "ĠTex": 6535,
      "ito": 6536,
      "Ġprior": 6537,
      "Off": 6538,
      "Ġbring": 6539,
      "Ġdistance": 6540,
      "****************************************************************": 6541,
      "rev": 6542,
      "ensity": 6543,
      "Admin": 6544,
      "random": 6545,
      "verter": 6546,
      "ĉĠĠĠĠ": 6547,
      "Ġbehind": 6548,
      "liance": 6549,
      "EC": 6550,
      "Cor": 6551,
      "that": 6552,
      "{\"": 6553,
      "ĠDel": 6554,
      "Ġ'\\": 6555,
      "Ġbehavior": 6556,
      "................": 6557,
      "Ġimpact": 6558,
      "Ġneigh": 6559,
      "ĠModel": 6560,
      "Ġperformed": 6561,
      "riteria": 6562,
      "Ali": 6563,
      "3333": 6564,
      "theta": 6565,
      "ĠÃĥ": 6566,
      "ĠWhite": 6567,
      "Cert": 6568,
      "ellij": 6569,
      "ini": 6570,
      "maven": 6571,
      "sim": 6572,
      "chor": 6573,
      "Ġcomplet": 6574,
      "Ġcmd": 6575,
      "Bean": 6576,
      "ateway": 6577,
      "Ġanything": 6578,
      "Ġdeb": 6579,
      "Ġcorresponding": 6580,
      "TestCase": 6581,
      "found": 6582,
      "WORD": 6583,
      "79": 6584,
      "DT": 6585,
      "Ġprofile": 6586,
      "ĠChristian": 6587,
      "Ġcontroller": 6588,
      "NT": 6589,
      "which": 6590,
      "ĠBel": 6591,
      "Ġcomes": 6592,
      "ĠGermany": 6593,
      "veloper": 6594,
      "Ġste": 6595,
      "video": 6596,
      "ĠMer": 6597,
      "DEBUG": 6598,
      "INSERT": 6599,
      "detail": 6600,
      "Ġcontinued": 6601,
      "Ġnatural": 6602,
      "Ġselector": 6603,
      "intellij": 6604,
      "Ġcontact": 6605,
      "Ġdifficult": 6606,
      "Ġnor": 6607,
      "pkg": 6608,
      "Ġabstract": 6609,
      "axis": 6610,
      "Background": 6611,
      "Ġespecially": 6612,
      "role": 6613,
      "Ġproblems": 6614,
      "single": 6615,
      "Direct": 6616,
      "Ġ>>>": 6617,
      "runtime": 6618,
      "Execut": 6619,
      "ror": 6620,
      "MB": 6621,
      "DEFAULT": 6622,
      "Errorf": 6623,
      "2022": 6624,
      "eqref": 6625,
      "upload": 6626,
      "Ġnote": 6627,
      "room": 6628,
      "()))": 6629,
      "Ġgoal": 6630,
      "ees": 6631,
      "osite": 6632,
      "Ġimages": 6633,
      "1970": 6634,
      "METH": 6635,
      "Ġlinear": 6636,
      "Public": 6637,
      "peed": 6638,
      "ĠANY": 6639,
      "ĠJack": 6640,
      "ality": 6641,
      "ĠVector": 6642,
      "Ġprofessional": 6643,
      "Ġcapital": 6644,
      "release": 6645,
      "Ign": 6646,
      "constructor": 6647,
      "Ġbgcolor": 6648,
      "ĠArrayList": 6649,
      "Compat": 6650,
      "ĠAfrica": 6651,
      "PUT": 6652,
      "bold": 6653,
      ".<": 6654,
      "Mask": 6655,
      "69": 6656,
      "Ġmale": 6657,
      "ĠMex": 6658,
      "Ġreject": 6659,
      "1997": 6660,
      "ĠDemocr": 6661,
      "iece": 6662,
      "$/": 6663,
      "springframework": 6664,
      "ĠLandroid": 6665,
      "}{\\": 6666,
      "|\\": 6667,
      ";}": 6668,
      "Support": 6669,
      "Ġagre": 6670,
      "ĠLeg": 6671,
      "Ġloop": 6672,
      "Ġdam": 6673,
      "Ġidea": 6674,
      "velopment": 6675,
      "\"],": 6676,
      "Ġansw": 6677,
      "Ġord": 6678,
      "Ġeconomic": 6679,
      "Ġproxy": 6680,
      "Ġpositive": 6681,
      "ĠassertThat": 6682,
      "VENT": 6683,
      "Ġ_.": 6684,
      "comes": 6685,
      "oted": 6686,
      "What": 6687,
      "Ġweight": 6688,
      "pending": 6689,
      "Ġbooks": 6690,
      "Ġincrease": 6691,
      "Play": 6692,
      "nodes": 6693,
      "Ġri": 6694,
      "Animation": 6695,
      "Ġmot": 6696,
      "Ġwife": 6697,
      "Big": 6698,
      "Ġsil": 6699,
      "Find": 6700,
      "VM": 6701,
      "shift": 6702,
      "checked": 6703,
      "Ġapproach": 6704,
      "compiler": 6705,
      "?>": 6706,
      "Ġexplicit": 6707,
      "Members": 6708,
      "STRING": 6709,
      "Ġcoordin": 6710,
      "ĠTw": 6711,
      "Ġrecords": 6712,
      "Ġmenu": 6713,
      "1996": 6714,
      "Required": 6715,
      "resources": 6716,
      "SSL": 6717,
      "ometimes": 6718,
      "IVE": 6719,
      "Now": 6720,
      "estival": 6721,
      "Ġschools": 6722,
      "here": 6723,
      "sys": 6724,
      "Ġprobably": 6725,
      "Ġmoment": 6726,
      "Ġschema": 6727,
      "ded": 6728,
      "Ġwalk": 6729,
      "eder": 6730,
      "Sort": 6731,
      "services": 6732,
      "ĠWhile": 6733,
      "Ġhours": 6734,
      "idents": 6735,
      "(/": 6736,
      "Ġpotential": 6737,
      "UC": 6738,
      "href": 6739,
      "vec": 6740,
      "'];": 6741,
      "ĠMount": 6742,
      "contin": 6743,
      "opts": 6744,
      "Mat": 6745,
      "COMP": 6746,
      "ĠFoundation": 6747,
      "ĠMary": 6748,
      "MI": 6749,
      "63": 6750,
      "Proto": 6751,
      "#{": 6752,
      "Ġvariables": 6753,
      "Ġsignature": 6754,
      "Ġdrop": 6755,
      "Ġfollowed": 6756,
      "linear": 6757,
      "Ġcreating": 6758,
      "generated": 6759,
      "required": 6760,
      "Ġmother": 6761,
      "arnings": 6762,
      "Ġtrade": 6763,
      "endor": 6764,
      "ummy": 6765,
      "ims": 6766,
      "Language": 6767,
      "ĠNAME": 6768,
      "Ġclick": 6769,
      "Nullable": 6770,
      "ping": 6771,
      "Ġmeasure": 6772,
      "Ġsongs": 6773,
      "ĠAccording": 6774,
      "Ġ).": 6775,
      "Gen": 6776,
      "Ġvisible": 6777,
      "Ġsetup": 6778,
      "Flag": 6779,
      "Word": 6780,
      "ĠFROM": 6781,
      "Limit": 6782,
      "ĠAction": 6783,
      "Ġbeginning": 6784,
      "zip": 6785,
      "ajax": 6786,
      "('/": 6787,
      "ctr": 6788,
      "Ġactions": 6789,
      "ĠMake": 6790,
      "<!": 6791,
      "ONG": 6792,
      "MODE": 6793,
      "atur": 6794,
      "Scal": 6795,
      "FE": 6796,
      "very": 6797,
      "del": 6798,
      "Ġproper": 6799,
      "onym": 6800,
      "python": 6801,
      "Ġloss": 6802,
      "Capt": 6803,
      "Section": 6804,
      "('#": 6805,
      "62": 6806,
      "ĠJer": 6807,
      "ye": 6808,
      "Ġsimply": 6809,
      "erg": 6810,
      "_);": 6811,
      "Ġthroughout": 6812,
      "Ġdegree": 6813,
      "Vertex": 6814,
      "users": 6815,
      "ĠMat": 6816,
      "FS": 6817,
      "Ġevidence": 6818,
      "ĠAR": 6819,
      "ĠAfrican": 6820,
      "à¸": 6821,
      "nu": 6822,
      "ifiers": 6823,
      "Ġlargest": 6824,
      "Ġdriver": 6825,
      "inct": 6826,
      "Ġlicense": 6827,
      "uest": 6828,
      "ĠHall": 6829,
      "Ġfollows": 6830,
      "irgin": 6831,
      "Import": 6832,
      "sync": 6833,
      "Ġarchitect": 6834,
      "react": 6835,
      "Ġrequires": 6836,
      ":`": 6837,
      "1994": 6838,
      "sect": 6839,
      "DATA": 6840,
      "BE": 6841,
      "Stop": 6842,
      "ELL": 6843,
      "wild": 6844,
      "icated": 6845,
      "Ġconstruction": 6846,
      "clean": 6847,
      "andra": 6848,
      "Ġmaster": 6849,
      "Ġlayout": 6850,
      "']['": 6851,
      "Multi": 6852,
      "Ġgetting": 6853,
      "ufact": 6854,
      "watch": 6855,
      "Ġisn": 6856,
      "herited": 6857,
      "contrib": 6858,
      "Ids": 6859,
      "GR": 6860,
      "Ġpush": 6861,
      "socket": 6862,
      "uffers": 6863,
      "alyt": 6864,
      "optional": 6865,
      "Ġ'';": 6866,
      "za": 6867,
      "avi": 6868,
      "extension": 6869,
      "ĠTable": 6870,
      "gers": 6871,
      "Ġrank": 6872,
      "urred": 6873,
      "lat": 6874,
      "losure": 6875,
      "console": 6876,
      "Ġprec": 6877,
      "validate": 6878,
      "ĠBlock": 6879,
      "Ġcomponents": 6880,
      "ĠCommission": 6881,
      "Ġignore": 6882,
      "clusion": 6883,
      "assembly": 6884,
      "Stat": 6885,
      "Ġapprox": 6886,
      "sey": 6887,
      "ĠStart": 6888,
      "Symfony": 6889,
      "ĠMichael": 6890,
      ".\",": 6891,
      "FT": 6892,
      "collapse": 6893,
      "itiz": 6894,
      "bes": 6895,
      "DOM": 6896,
      "Ġradio": 6897,
      "ArgumentException": 6898,
      "Ġappropri": 6899,
      "ancellationToken": 6900,
      "cludes": 6901,
      "transition": 6902,
      "den": 6903,
      "VALID": 6904,
      "ĠHistory": 6905,
      "aret": 6906,
      "Wait": 6907,
      "jQuery": 6908,
      "ĠINTO": 6909,
      "Ġforeign": 6910,
      "ĠSociety": 6911,
      "ĠBig": 6912,
      "arguments": 6913,
      "ĠMain": 6914,
      "Ġdise": 6915,
      "1995": 6916,
      "Ġexternal": 6917,
      "house": 6918,
      "74": 6919,
      "'ve": 6920,
      "inherit": 6921,
      "oon": 6922,
      "Ġgradu": 6923,
      "Mouse": 6924,
      "views": 6925,
      "Ġmatter": 6926,
      "owner": 6927,
      "Dat": 6928,
      "ternet": 6929,
      "ped": 6930,
      "trace": 6931,
      "Ġtypedef": 6932,
      "ĠAre": 6933,
      "Ġapplied": 6934,
      "ĠMinister": 6935,
      ":[": 6936,
      "Constructor": 6937,
      "Ġculture": 6938,
      "'m": 6939,
      "reek": 6940,
      "\\\\\\\\\\\\\\\\\\\\\\\\\\\\\\\\": 6941,
      "INTER": 6942,
      "Ġdebut": 6943,
      "ĠColor": 6944,
      "sf": 6945,
      "ĠSim": 6946,
      "Video": 6947,
      "operation": 6948,
      "Ġmask": 6949,
      "åı": 6950,
      "Report": 6951,
      "__)": 6952,
      "ĠPub": 6953,
      "ĠJapan": 6954,
      "structure": 6955,
      "ĠAng": 6956,
      "Ġdisabled": 6957,
      "Ġquant": 6958,
      "Ġteach": 6959,
      "Ġago": 6960,
      "phone": 6961,
      "Ġtour": 6962,
      "Ġpreviously": 6963,
      "ĠMac": 6964,
      "allery": 6965,
      "orial": 6966,
      "driver": 6967,
      "Sql": 6968,
      "ires": 6969,
      "Ġnovel": 6970,
      "Ġchain": 6971,
      "clone": 6972,
      "Ġsecret": 6973,
      "Ġwanted": 6974,
      "construct": 6975,
      "POST": 6976,
      "Ġpool": 6977,
      "Ġscient": 6978,
      "Ġ\"$": 6979,
      "Ġbelieve": 6980,
      "Ġpolitic": 6981,
      "Ġrecomm": 6982,
      "Ġgave": 6983,
      "ĠFoot": 6984,
      "Ġ@\"": 6985,
      "Tx": 6986,
      "Ġseem": 6987,
      "helper": 6988,
      "Ġunits": 6989,
      "produ": 6990,
      "81": 6991,
      "Ġ{\"": 6992,
      "Ġ{{": 6993,
      "Ġcharset": 6994,
      "Mer": 6995,
      "ancy": 6996,
      "Ġprotocol": 6997,
      "Ġsaw": 6998,
      "rate": 6999,
      "ĠBoolean": 7000,
      "navList": 7001,
      "since": 7002,
      "IGHT": 7003,
      "Ġfix": 7004,
      "Total": 7005,
      "DIS": 7006,
      "Ġ=======": 7007,
      "Ġnullptr": 7008,
      "Ġtechnology": 7009,
      "Ġedge": 7010,
      "Ġ\\\"": 7011,
      "Tags": 7012,
      "ĠDivision": 7013,
      "ersistent": 7014,
      "Ġcursor": 7015,
      "Ġaltern": 7016,
      "ĠVis": 7017,
      "Ġtrying": 7018,
      "abilities": 7019,
      "effect": 7020,
      "Ġsense": 7021,
      "Pair": 7022,
      "ĠRetri": 7023,
      "getValue": 7024,
      "loaded": 7025,
      "Ġ([": 7026,
      "Ġthemselves": 7027,
      ";\"": 7028,
      "Env": 7029,
      "Ġexit": 7030,
      "ĠProgram": 7031,
      "ategories": 7032,
      "Short": 7033,
      "CF": 7034,
      "tau": 7035,
      "ĠInput": 7036,
      "yg": 7037,
      "94": 7038,
      "Ġcalling": 7039,
      "83": 7040,
      "ĠSam": 7041,
      "$-": 7042,
      "green": 7043,
      "Ġreader": 7044,
      "ĠSince": 7045,
      "Returns": 7046,
      "92": 7047,
      "Ġpromise": 7048,
      "Ġalthough": 7049,
      "Methods": 7050,
      "Ġfinancial": 7051,
      "Ġpick": 7052,
      "Ġproces": 7053,
      "(\"/": 7054,
      "ja": 7055,
      "displayName": 7056,
      "pag": 7057,
      "Ġorganization": 7058,
      "ano": 7059,
      "lood": 7060,
      "alls": 7061,
      "DEF": 7062,
      "supported": 7063,
      "{%": 7064,
      "ko": 7065,
      "\"><!--": 7066,
      "destroy": 7067,
      "Ġnp": 7068,
      "LL": 7069,
      "Flow": 7070,
      "uplic": 7071,
      "reme": 7072,
      "ĠGreen": 7073,
      "ruby": 7074,
      "Ġpaper": 7075,
      "Ġteams": 7076,
      "rho": 7077,
      "}),": 7078,
      "Ġstaff": 7079,
      "Ġsen": 7080,
      "Ġfoc": 7081,
      "Ġexc": 7082,
      "ĠMax": 7083,
      "Living": 7084,
      "ĠAcade": 7085,
      "factory": 7086,
      "iding": 7087,
      "alian": 7088,
      "Ġdesigned": 7089,
      "Ġbasic": 7090,
      "Ġasked": 7091,
      "oma": 7092,
      "ises": 7093,
      "getElement": 7094,
      "tsd": 7095,
      "Ġdeaths": 7096,
      "ĠMus": 7097,
      "Ġ×": 7098,
      "Ã§": 7099,
      ":#": 7100,
      "ĠCentral": 7101,
      "Fragment": 7102,
      "Pub": 7103,
      "achment": 7104,
      "ĠCath": 7105,
      "ĠRoyal": 7106,
      "Ġusually": 7107,
      "writer": 7108,
      "isters": 7109,
      "ĠYear": 7110,
      "Ġwrong": 7111,
      "BAR": 7112,
      "Ġsoon": 7113,
      "wiki": 7114,
      "ĠResearch": 7115,
      "Validation": 7116,
      "termine": 7117,
      "wp": 7118,
      "hy": 7119,
      "STATE": 7120,
      "Ġâ": 7121,
      "uffix": 7122,
      "original": 7123,
      "ĠMuseum": 7124,
      "allclasses": 7125,
      "Ġthus": 7126,
      "Ġexecute": 7127,
      "ĠNow": 7128,
      "VG": 7129,
      "ĠJS": 7130,
      "elebr": 7131,
      "isation": 7132,
      "rot": 7133,
      "Ġvoc": 7134,
      "liament": 7135,
      "Lower": 7136,
      "aud": 7137,
      "Ġmarried": 7138,
      "duration": 7139,
      "Make": 7140,
      "ELD": 7141,
      "FN": 7142,
      "stant": 7143,
      "Ġ\"\",": 7144,
      "ĠPat": 7145,
      "psi": 7146,
      "Join": 7147,
      "ĠTur": 7148,
      "Google": 7149,
      "Ġseek": 7150,
      "Operator": 7151,
      "Binary": 7152,
      "orem": 7153,
      "va": 7154,
      "apis": 7155,
      "Ġactivity": 7156,
      "itation": 7157,
      "Other": 7158,
      "High": 7159,
      "Fn": 7160,
      "93": 7161,
      "Ġsaf": 7162,
      "ĠBOOST": 7163,
      "azy": 7164,
      "colLast": 7165,
      "ARG": 7166,
      "Notification": 7167,
      "edy": 7168,
      "ĠCommittee": 7169,
      "issues": 7170,
      "^^": 7171,
      "objects": 7172,
      "Ġcommit": 7173,
      "Pass": 7174,
      "ĠDuring": 7175,
      "Ġjournal": 7176,
      "ĠLib": 7177,
      "Shared": 7178,
      "61": 7179,
      "Ġul": 7180,
      "Ġchart": 7181,
      "anned": 7182,
      "ucceed": 7183,
      "icensed": 7184,
      "Ġrecorded": 7185,
      "once": 7186,
      "month": 7187,
      "Ġsolution": 7188,
      "NOT": 7189,
      "Ġnavigation": 7190,
      "Failure": 7191,
      "Ġmus": 7192,
      "iated": 7193,
      "Ġspent": 7194,
      "cluster": 7195,
      "ensus": 7196,
      "glyph": 7197,
      "Ġexplo": 7198,
      "Ġ?>": 7199,
      "Ġschedule": 7200,
      "ĠScience": 7201,
      "ĠTexas": 7202,
      "Ġlooking": 7203,
      "Program": 7204,
      "organ": 7205,
      "Html": 7206,
      "ĠSecret": 7207,
      "route": 7208,
      "%,": 7209,
      "Ġeight": 7210,
      "ĠThomas": 7211,
      "oser": 7212,
      ";\">": 7213,
      "animation": 7214,
      "iers": 7215,
      "println": 7216,
      "iring": 7217,
      ".\\": 7218,
      "gg": 7219,
      "}(\\": 7220,
      "Ġresolve": 7221,
      "xs": 7222,
      "Ġprojects": 7223,
      "warning": 7224,
      "ette": 7225,
      "ĠZe": 7226,
      "vant": 7227,
      "Ġ''": 7228,
      "irty": 7229,
      "ĠImage": 7230,
      "Ġess": 7231,
      "Player": 7232,
      "=(": 7233,
      "apos": 7234,
      "Ġchunk": 7235,
      "Area": 7236,
      "Promise": 7237,
      "ĠHen": 7238,
      "EEEE": 7239,
      "Ġinj": 7240,
      "unicipal": 7241,
      "ducation": 7242,
      "CTYPE": 7243,
      "ĠTR": 7244,
      "scss": 7245,
      "SELECT": 7246,
      "UD": 7247,
      "Ġtouch": 7248,
      "colFirst": 7249,
      "ĠShow": 7250,
      "ĠDim": 7251,
      "Ġgreater": 7252,
      "Ġsatisf": 7253,
      "Ġanimation": 7254,
      "Ġsources": 7255,
      "!!": 7256,
      "Ġdefe": 7257,
      "1992": 7258,
      "ĠChinese": 7259,
      "ĠSy": 7260,
      "amaz": 7261,
      "Ġfill": 7262,
      "Ġjs": 7263,
      "atomic": 7264,
      "Transport": 7265,
      "ancis": 7266,
      "ridge": 7267,
      "words": 7268,
      "Ġang": 7269,
      "ÐµÐ": 7270,
      "Renderer": 7271,
      "Ġonline": 7272,
      "Ġbank": 7273,
      "Dim": 7274,
      "ĠDocument": 7275,
      "assertTrue": 7276,
      "Ġpair": 7277,
      "ste": 7278,
      "ĠPRO": 7279,
      "volume": 7280,
      "IV": 7281,
      "allel": 7282,
      "aily": 7283,
      "ĠBoard": 7284,
      "ura": 7285,
      "ĠApache": 7286,
      "dc": 7287,
      "Ġstudent": 7288,
      "Ġblocks": 7289,
      "ÑĮ": 7290,
      "Ġcolumns": 7291,
      "Ġproducts": 7292,
      "Ġspan": 7293,
      "bm": 7294,
      "oves": 7295,
      "bits": 7296,
      "Ġtesting": 7297,
      "Ġplaces": 7298,
      "Ġreplaced": 7299,
      "well": 7300,
      "Cloud": 7301,
      "icator": 7302,
      "imitive": 7303,
      "1993": 7304,
      "Ġagreed": 7305,
      "Objects": 7306,
      "Ġmulti": 7307,
      "Library": 7308,
      "'ll": 7309,
      "asket": 7310,
      "forEach": 7311,
      "rees": 7312,
      "Ġdraft": 7313,
      "Div": 7314,
      "ĠĠĠĠĠĠĠĠĠĠĠĠĠĠĠĠĠĠĠĠĠĠĠĠĠĠĠĠĠĠ": 7315,
      "ĠAlex": 7316,
      "ĠXML": 7317,
      "ĠÎ": 7318,
      "Ġgir": 7319,
      "Ġroad": 7320,
      "Ġmeas": 7321,
      "Ġcontr": 7322,
      "Ġ\"%": 7323,
      "ĠAS": 7324,
      "ĠVALUES": 7325,
      "Ġwoman": 7326,
      "Sl": 7327,
      "Ġforces": 7328,
      "}$,": 7329,
      "ĠĠĠĠĠĠĠĠĠĠĠĠĠĠĠĠĊ": 7330,
      "Ġmovie": 7331,
      "ĠGold": 7332,
      "Look": 7333,
      "Ġbits": 7334,
      "Ñĭ": 7335,
      "Ġpractice": 7336,
      "ãĢ": 7337,
      "»¿": 7338,
      "uite": 7339,
      "swarm": 7340,
      "Tra": 7341,
      "ĠImp": 7342,
      "Ġcentral": 7343,
      "ĠAustralian": 7344,
      "Ġlives": 7345,
      "ĠServ": 7346,
      "Ġleave": 7347,
      "download": 7348,
      "ĠOrder": 7349,
      "isting": 7350,
      "dot": 7351,
      "ĠRussian": 7352,
      "Ġdict": 7353,
      "CONT": 7354,
      "Compiler": 7355,
      "ĠRad": 7356,
      "fmt": 7357,
      "ĠGovernment": 7358,
      "áĥ": 7359,
      "71": 7360,
      "ailway": 7361,
      "ï»¿": 7362,
      "Ġinstalled": 7363,
      "ĠTrump": 7364,
      "olar": 7365,
      ">'": 7366,
      "mercial": 7367,
      "CLASS": 7368,
      "uting": 7369,
      "ocation": 7370,
      "Ġnation": 7371,
      "\"].": 7372,
      "plus": 7373,
      "ĠKore": 7374,
      "Ġunknown": 7375,
      "Ġmind": 7376,
      "icies": 7377,
      "referred": 7378,
      "73": 7379,
      "NSString": 7380,
      "front": 7381,
      "ĠOptional": 7382,
      "quired": 7383,
      "Ġeverything": 7384,
      "Ġlevels": 7385,
      "Ġdocumentation": 7386,
      "ĠDi": 7387,
      "ainers": 7388,
      "Ġverify": 7389,
      "ĠOp": 7390,
      "jpg": 7391,
      "ORY": 7392,
      "Ġscience": 7393,
      "SK": 7394,
      "report": 7395,
      "Ġrespond": 7396,
      "Ġdetermine": 7397,
      "Unknown": 7398,
      "ĠElement": 7399,
      "NUM": 7400,
      "TA": 7401,
      "Ġmar": 7402,
      "ĠRout": 7403,
      "ĠMedia": 7404,
      "DOCTYPE": 7405,
      "Move": 7406,
      "aling": 7407,
      "ipher": 7408,
      "Ġprev": 7409,
      "Ġprograms": 7410,
      "bot": 7411,
      "Ġrecently": 7412,
      "chi": 7413,
      "/_": 7414,
      "edge": 7415,
      "Ġsb": 7416,
      "ga": 7417,
      "Ġremote": 7418,
      "sample": 7419,
      "GroupName": 7420,
      "merge": 7421,
      "thrift": 7422,
      "ellig": 7423,
      "ANG": 7424,
      "when": 7425,
      "ĠTor": 7426,
      "Ġharm": 7427,
      "ĠWrite": 7428,
      "ĠIsland": 7429,
      "Allow": 7430,
      "NotFound": 7431,
      "Enter": 7432,
      "USER": 7433,
      "IDTH": 7434,
      "Ġstar": 7435,
      "Ġrect": 7436,
      "Ġindependent": 7437,
      "Ġreve": 7438,
      "ulations": 7439,
      "EEEEFF": 7440,
      "Ġbinary": 7441,
      "PP": 7442,
      ">)": 7443,
      "Strategy": 7444,
      "Ġ{},": 7445,
      "MIN": 7446,
      "ĠClub": 7447,
      "Ġcollect": 7448,
      "disable": 7449,
      "Ġruns": 7450,
      "wildfly": 7451,
      "Ġgets": 7452,
      "isEmpty": 7453,
      "ĠPage": 7454,
      "Ġenter": 7455,
      "ĠScott": 7456,
      "Ġterr": 7457,
      "defer": 7458,
      "Ã³n": 7459,
      "Ġstored": 7460,
      "Ġprovider": 7461,
      "CHAR": 7462,
      "ĠBill": 7463,
      "plates": 7464,
      "Ġmovement": 7465,
      "fty": 7466,
      "Ġkilled": 7467,
      "Execution": 7468,
      "Ġsplit": 7469,
      "Ġtim": 7470,
      "InputStream": 7471,
      "Ġremain": 7472,
      "Environment": 7473,
      "Throw": 7474,
      "ĠVirgin": 7475,
      "database": 7476,
      "Cast": 7477,
      "setup": 7478,
      "pull": 7479,
      "blank": 7480,
      "compile": 7481,
      "ĠRemove": 7482,
      "isset": 7483,
      "Free": 7484,
      "Convert": 7485,
      "related": 7486,
      "IOException": 7487,
      "Screen": 7488,
      "Ġsurv": 7489,
      "udd": 7490,
      "MC": 7491,
      "ĠBest": 7492,
      ";)": 7493,
      "strument": 7494,
      "Driver": 7495,
      "ĠSets": 7496,
      "Ġappeared": 7497,
      "radio": 7498,
      "Ġcoming": 7499,
      "istant": 7500,
      "rypto": 7501,
      "ĠFl": 7502,
      "}$.": 7503,
      "cred": 7504,
      "fixed": 7505,
      "etes": 7506,
      "ĠFlor": 7507,
      "origin": 7508,
      "ental": 7509,
      "Ġconcept": 7510,
      "Ġ^": 7511,
      "ĠOnly": 7512,
      "condition": 7513,
      "Ġearlier": 7514,
      "pb": 7515,
      "omega": 7516,
      "abbr": 7517,
      "Basic": 7518,
      "ĠBay": 7519,
      "nov": 7520,
      "Ġdead": 7521,
      "ĠPen": 7522,
      "azine": 7523,
      "variant": 7524,
      "ĠVol": 7525,
      "Mapper": 7526,
      "ĠCanadian": 7527,
      "seconds": 7528,
      "ĠForce": 7529,
      "Ġaxis": 7530,
      "Ġclo": 7531,
      ">;": 7532,
      "player": 7533,
      "ĠWestern": 7534,
      "Ġseconds": 7535,
      "Ġmeeting": 7536,
      "Ġspecify": 7537,
      "/***/": 7538,
      "ĠLine": 7539,
      "Clear": 7540,
      "cluded": 7541,
      "Ġleader": 7542,
      "Ġbrought": 7543,
      "******": 7544,
      "QU": 7545,
      "}[": 7546,
      "Ġsym": 7547,
      "...</": 7548,
      "Ġrai": 7549,
      "ĠRoad": 7550,
      "riend": 7551,
      "Ġdro": 7552,
      "Addr": 7553,
      "ĠSmith": 7554,
      "Ġdemon": 7555,
      "Ġboost": 7556,
      "Summary": 7557,
      "Ġcard": 7558,
      "Static": 7559,
      "ien": 7560,
      "ĠClient": 7561,
      "car": 7562,
      "Ġmention": 7563,
      "Ġgrid": 7564,
      "amazon": 7565,
      "Constant": 7566,
      "Ġlarger": 7567,
      "Person": 7568,
      "Ġfast": 7569,
      "dig": 7570,
      "ĠTimes": 7571,
      "visible": 7572,
      "Ġminutes": 7573,
      "ooth": 7574,
      "ĠAut": 7575,
      "ĠCongress": 7576,
      "Axis": 7577,
      "Raw": 7578,
      "Users": 7579,
      "Ġbirth": 7580,
      "NET": 7581,
      "Batch": 7582,
      "BIT": 7583,
      "Ġquality": 7584,
      "Ġinner": 7585,
      "ĠLouis": 7586,
      "Private": 7587,
      "Normal": 7588,
      "Ġseven": 7589,
      "\"/></": 7590,
      "Note": 7591,
      "Ġmeta": 7592,
      "']);": 7593,
      "FUN": 7594,
      "Constraint": 7595,
      "Ġstri": 7596,
      "pod": 7597,
      "Ġparents": 7598,
      "Ġcategory": 7599,
      "ĠProf": 7600,
      "shire": 7601,
      "GER": 7602,
      "inger": 7603,
      "NavBarFont": 7604,
      "Ġfederal": 7605,
      "ssl": 7606,
      "ĠKingdom": 7607,
      "Signature": 7608,
      "Ġfamilies": 7609,
      "ANT": 7610,
      "WEBPACK": 7611,
      "Ġanti": 7612,
      "ĠChe": 7613,
      "\"},": 7614,
      "Ġupper": 7615,
      "Ġsegment": 7616,
      "chain": 7617,
      "Ġcontents": 7618,
      "Ġmd": 7619,
      "Skip": 7620,
      "Ġimmediately": 7621,
      "Ġlimited": 7622,
      "loop": 7623,
      "pdf": 7624,
      "Ġseems": 7625,
      "Errors": 7626,
      "Ġscene": 7627,
      "Ġincor": 7628,
      "ctrine": 7629,
      "Ġ\"\";": 7630,
      "fort": 7631,
      "trl": 7632,
      "accept": 7633,
      "Ġconflict": 7634,
      "123": 7635,
      "Ġreached": 7636,
      "ĠMiss": 7637,
      "MT": 7638,
      "ixin": 7639,
      "LOC": 7640,
      "Ġmedical": 7641,
      ".\"\"\"": 7642,
      "ĠSource": 7643,
      "ĠGreat": 7644,
      "ĠCELL": 7645,
      "Append": 7646,
      "ĠLat": 7647,
      "signature": 7648,
      "Ġdecided": 7649,
      "()),": 7650,
      "Ġque": 7651,
      "ĉĠĠ": 7652,
      "PU": 7653,
      "EST": 7654,
      "Ġbelong": 7655,
      "Ġheart": 7656,
      "RPC": 7657,
      "np": 7658,
      "Ġrows": 7659,
      "iller": 7660,
      "Ġvalidate": 7661,
      "ĠFrancis": 7662,
      "vs": 7663,
      "Ġways": 7664,
      "Ġforms": 7665,
      "Binding": 7666,
      "Ġloaded": 7667,
      "ĠEmp": 7668,
      "Insert": 7669,
      "bro": 7670,
      "goto": 7671,
      "infty": 7672,
      "ĠCarol": 7673,
      "dash": 7674,
      "xhtml": 7675,
      "Ġrepresents": 7676,
      "ĠProperty": 7677,
      "ANCE": 7678,
      "Ġyield": 7679,
      "ĠTop": 7680,
      "ĠSal": 7681,
      "ĠSoftware": 7682,
      "ĠAny": 7683,
      "Install": 7684,
      "icago": 7685,
      "Ġlack": 7686,
      "Serializer": 7687,
      "PH": 7688,
      "Ġuseful": 7689,
      "ĠWARRAN": 7690,
      "Drop": 7691,
      "Ġskip": 7692,
      "lia": 7693,
      "Save": 7694,
      "Ġsurface": 7695,
      "Identity": 7696,
      "Condition": 7697,
      "asy": 7698,
      "agent": 7699,
      "anced": 7700,
      "1960": 7701,
      "Messages": 7702,
      "Ġcreation": 7703,
      "themes": 7704,
      "exit": 7705,
      "ously": 7706,
      "Ġpp": 7707,
      "flex": 7708,
      "rece": 7709,
      "Ġregistered": 7710,
      "(.": 7711,
      "]))": 7712,
      "ĠResult": 7713,
      "Ġpartial": 7714,
      "ĠKe": 7715,
      "ĠPoint": 7716,
      "1991": 7717,
      "perature": 7718,
      "Ġoptim": 7719,
      "Ġhot": 7720,
      "Audio": 7721,
      "Zone": 7722,
      "highlight": 7723,
      "Ġcompare": 7724,
      "ĠTown": 7725,
      "Ġ'.": 7726,
      "embed": 7727,
      "Arguments": 7728,
      "policy": 7729,
      "Resolver": 7730,
      "bose": 7731,
      "Ġche": 7732,
      "scribe": 7733,
      "00000000": 7734,
      "Ġir": 7735,
      "bg": 7736,
      "Ġdelay": 7737,
      "ĠNetwork": 7738,
      "dk": 7739,
      "Ġentries": 7740,
      "Ġpurch": 7741,
      "atively": 7742,
      "ĠLL": 7743,
      "eners": 7744,
      "aming": 7745,
      "ĠLocal": 7746,
      "ĠOf": 7747,
      "inder": 7748,
      "ĠMock": 7749,
      "Email": 7750,
      "itempty": 7751,
      "Ġmatching": 7752,
      "Ġsubsequ": 7753,
      "Ġexecution": 7754,
      "toBe": 7755,
      "La": 7756,
      "omitempty": 7757,
      "Ġcompat": 7758,
      "groups": 7759,
      "Ġund": 7760,
      "Segment": 7761,
      "ĠDOM": 7762,
      "ĠTag": 7763,
      "Ġspeed": 7764,
      "Ġlearning": 7765,
      "=\"$": 7766,
      "Ġfully": 7767,
      "Folder": 7768,
      "Ġdeploy": 7769,
      "Ġduration": 7770,
      "NA": 7771,
      "className": 7772,
      "Release": 7773,
      "Ġintroduced": 7774,
      "article": 7775,
      "Ġfun": 7776,
      "Ġautomatically": 7777,
      "ench": 7778,
      "lipse": 7779,
      "fit": 7780,
      "ky": 7781,
      "Ġaudio": 7782,
      "ecause": 7783,
      "Ġgrowth": 7784,
      "ivalent": 7785,
      "Ġveh": 7786,
      "ĠCam": 7787,
      "claim": 7788,
      "Ġdetail": 7789,
      "Ġproposed": 7790,
      "osen": 7791,
      "urt": 7792,
      "ĠInv": 7793,
      "Ġpurpose": 7794,
      "Ġmeaning": 7795,
      "generate": 7796,
      "ih": 7797,
      "orph": 7798,
      "Warning": 7799,
      "Ġpermissions": 7800,
      "Ġactivities": 7801,
      "Ġsell": 7802,
      "BS": 7803,
      "Ġstay": 7804,
      "Ġtowards": 7805,
      "Ġ'%": 7806,
      "Complete": 7807,
      "Ġedit": 7808,
      "ĠEND": 7809,
      "ĠJapanese": 7810,
      "Annotation": 7811,
      "blob": 7812,
      "tor": 7813,
      "ierarch": 7814,
      "irmed": 7815,
      "PROC": 7816,
      "igen": 7817,
      "ita": 7818,
      "ĠStatus": 7819,
      "ĠChild": 7820,
      "ĠSpan": 7821,
      ",'": 7822,
      "Ġcoin": 7823,
      "Ġdirected": 7824,
      "Ġsociety": 7825,
      "oday": 7826,
      "Ġnotice": 7827,
      "sn": 7828,
      "Ġidentity": 7829,
      "createElement": 7830,
      "Ġminimum": 7831,
      "Ġstudies": 7832,
      "IX": 7833,
      "Ġconversion": 7834,
      "Ġabs": 7835,
      "Ġdie": 7836,
      "ĠProcess": 7837,
      "ĠÐ¿": 7838,
      "Ġsn": 7839,
      "commons": 7840,
      "ĠBook": 7841,
      "tf": 7842,
      "ĠOffic": 7843,
      "Ġbasis": 7844,
      "Ġextract": 7845,
      "Ġsum": 7846,
      "ĠWIT": 7847,
      "Wallet": 7848,
      "Ġtheory": 7849,
      "Ġnature": 7850,
      "Ġmechan": 7851,
      "REE": 7852,
      "Ġpages": 7853,
      "memory": 7854,
      "rain": 7855,
      "numerus": 7856,
      "More": 7857,
      "numerusform": 7858,
      "ĠFig": 7859,
      "/{": 7860,
      "inet": 7861,
      "ÐµÐ½": 7862,
      "Ġsem": 7863,
      "ĠSecond": 7864,
      "Ġalgorithm": 7865,
      "ĠAv": 7866,
      "ĠIllegal": 7867,
      "Ġartists": 7868,
      "ĠĠĠĠĠĠĠĠĠĠĠĠĠĠĠĠĠĠĠĠĠĠĠĠĠĠĠĠĠĠĠĠĠ": 7869,
      "initions": 7870,
      "crete": 7871,
      "ĠTok": 7872,
      "ĠIll": 7873,
      "complete": 7874,
      "ancer": 7875,
      "Validator": 7876,
      "tableblock": 7877,
      "Ġpor": 7878,
      "ĠBrown": 7879,
      "Ġfinish": 7880,
      "Ġusage": 7881,
      "Ġformed": 7882,
      "Ġready": 7883,
      "Ġsync": 7884,
      "scape": 7885,
      "/*!": 7886,
      "TT": 7887,
      "ple": 7888,
      "IDE": 7889,
      "ulator": 7890,
      "Ġtravel": 7891,
      "Ġ'',": 7892,
      "canvas": 7893,
      "ĠMad": 7894,
      "ossible": 7895,
      "ston": 7896,
      "Ġexhib": 7897,
      "Rows": 7898,
      "ATCH": 7899,
      "mult": 7900,
      "ĠLos": 7901,
      "afe": 7902,
      "peated": 7903,
      "udget": 7904,
      "ampl": 7905,
      "Ġpriv": 7906,
      "Ġvalidation": 7907,
      "Ġded": 7908,
      "usion": 7909,
      "Ġbio": 7910,
      "Landroid": 7911,
      "ĠBank": 7912,
      "Sig": 7913,
      "Ġpanel": 7914,
      "ASSERT": 7915,
      "ĠCommand": 7916,
      "åĪ": 7917,
      "Usage": 7918,
      "World": 7919,
      "ository": 7920,
      "ictor": 7921,
      "Hub": 7922,
      "Ġdrug": 7923,
      "Alloc": 7924,
      "atre": 7925,
      "Ġsch": 7926,
      "Ġcelebr": 7927,
      "TRY": 7928,
      "blue": 7929,
      "Contents": 7930,
      "Arr": 7931,
      "ĠCustom": 7932,
      "CALL": 7933,
      "batch": 7934,
      "_)": 7935,
      "ĠDO": 7936,
      "Observer": 7937,
      "Ġartist": 7938,
      "Ġeffects": 7939,
      "ĠAnn": 7940,
      "Ġreserved": 7941,
      "Ġcoq": 7942,
      "Ġremaining": 7943,
      "joy": 7944,
      "Home": 7945,
      "IMPORTED": 7946,
      "WAR": 7947,
      "ĠDirector": 7948,
      "ĠLife": 7949,
      "ĠCreates": 7950,
      "Ġdestination": 7951,
      "Ġidentifier": 7952,
      "Ġprotect": 7953,
      "Ġsupports": 7954,
      "ĠAmazon": 7955,
      "catch": 7956,
      "Ġinvol": 7957,
      "Cursor": 7958,
      "Ġfriends": 7959,
      "cdn": 7960,
      "stitution": 7961,
      "Ġbranch": 7962,
      "cfg": 7963,
      "Ġdaughter": 7964,
      "Ġminor": 7965,
      "Rev": 7966,
      "Ġtheme": 7967,
      "uation": 7968,
      "idence": 7969,
      "LOW": 7970,
      "mid": 7971,
      "=\\\"": 7972,
      "iny": 7973,
      "LETE": 7974,
      "Ġappropriate": 7975,
      "Encoding": 7976,
      "utdown": 7977,
      "Ġhope": 7978,
      "Ġrecover": 7979,
      "ĠSIZE": 7980,
      "Ġtags": 7981,
      "ĠPeter": 7982,
      "convert": 7983,
      "Ġscen": 7984,
      "Ġpred": 7985,
      "gregate": 7986,
      "fetch": 7987,
      "reader": 7988,
      "ibly": 7989,
      "ĠJose": 7990,
      "WIN": 7991,
      "ĠAnge": 7992,
      "Ġphase": 7993,
      "ĠSur": 7994,
      "Ġcharg": 7995,
      "Ġlaws": 7996,
      "ĠAcademy": 7997,
      "ĠSecurity": 7998,
      "Ġprocessing": 7999,
      "erc": 8000,
      "Ġdemonstr": 8001,
      "kwargs": 8002,
      "ĠMont": 8003,
      "Ġelif": 8004,
      "Ġsafe": 8005,
      "Coin": 8006,
      "Ġinstances": 8007,
      "alert": 8008,
      "Ġil": 8009,
      "Ġseparate": 8010,
      "Should": 8011,
      "Ġability": 8012,
      "ĠAlso": 8013,
      "ĠRussia": 8014,
      "ĠHistor": 8015,
      "maml": 8016,
      "Ġendpoint": 8017,
      ")[": 8018,
      "Ġquite": 8019,
      "ĠAc": 8020,
      "Ġagent": 8021,
      "submit": 8022,
      "Ġmerge": 8023,
      "heel": 8024,
      "Ġsomeone": 8025,
      "available": 8026,
      "ryption": 8027,
      "formance": 8028,
      "Ġversions": 8029,
      "FIELD": 8030,
      "Ġmixed": 8031,
      "Ġaccomp": 8032,
      "lementation": 8033,
      "matrix": 8034,
      "ĠLet": 8035,
      "Ġfounded": 8036,
      "ĠCap": 8037,
      "native": 8038,
      "Ġphysical": 8039,
      "FALSE": 8040,
      "contents": 8041,
      "uan": 8042,
      "METHOD": 8043,
      "directory": 8044,
      "Diagnostics": 8045,
      "Ġelected": 8046,
      "chart": 8047,
      "ATED": 8048,
      "Ġparticularly": 8049,
      "Ġwor": 8050,
      "Ġkm": 8051,
      "Timer": 8052,
      "game": 8053,
      "Drag": 8054,
      "Contains": 8055,
      "bing": 8056,
      "olid": 8057,
      "ager": 8058,
      "Ġincreasing": 8059,
      "ĠCatholic": 8060,
      "Ġsocket": 8061,
      "Ġnegative": 8062,
      "ocaml": 8063,
      ":@\"": 8064,
      "Ġcitiz": 8065,
      "ORDER": 8066,
      "ulk": 8067,
      "Ġbroadcast": 8068,
      "ĠBack": 8069,
      "Lib": 8070,
      "150": 8071,
      "km": 8072,
      "vement": 8073,
      "Ġsometimes": 8074,
      "Ġfavor": 8075,
      "RC": 8076,
      "Ġeventually": 8077,
      "icip": 8078,
      "Gu": 8079,
      "isions": 8080,
      "fake": 8081,
      "IAL": 8082,
      "ĠCharles": 8083,
      "1989": 8084,
      "ĠIran": 8085,
      "Ġslow": 8086,
      "Ġrequested": 8087,
      "ĠRichard": 8088,
      "Bool": 8089,
      "CONFIG": 8090,
      "uages": 8091,
      "Ġopacity": 8092,
      "Ġcollege": 8093,
      "Ġsummary": 8094,
      "Groups": 8095,
      "Ġknowledge": 8096,
      "Ġ----------------------------------------------------------------": 8097,
      "Ġalias": 8098,
      "Processor": 8099,
      "created": 8100,
      "Future": 8101,
      "assandra": 8102,
      "Theme": 8103,
      "Timestamp": 8104,
      "reedom": 8105,
      "ATTR": 8106,
      "Ġtherefore": 8107,
      "olf": 8108,
      "Cmd": 8109,
      "rg": 8110,
      "aste": 8111,
      "Rate": 8112,
      "dispatch": 8113,
      "LIST": 8114,
      "NV": 8115,
      "Points": 8116,
      "ato": 8117,
      "yy": 8118,
      "Ġsaying": 8119,
      "Ġdialog": 8120,
      "sequence": 8121,
      "Ġant": 8122,
      "Ġsys": 8123,
      "ailing": 8124,
      "ĠHAL": 8125,
      "oreign": 8126,
      "Ġmodified": 8127,
      "dem": 8128,
      "arbon": 8129,
      "ĠFind": 8130,
      "raq": 8131,
      "Ġ\".": 8132,
      "license": 8133,
      "oked": 8134,
      "elastic": 8135,
      "Ġeth": 8136,
      "Ġanim": 8137,
      "Ġeq": 8138,
      "ĠFlorida": 8139,
      "extra": 8140,
      "ki": 8141,
      "ĠCamp": 8142,
      "Ġ$_": 8143,
      "person": 8144,
      "acle": 8145,
      "ĠSuper": 8146,
      "atar": 8147,
      "Ġtrust": 8148,
      "loading": 8149,
      "wd": 8150,
      "calendar": 8151,
      "Sample": 8152,
      "Ġsignal": 8153,
      "Ġfeed": 8154,
      "Ġremains": 8155,
      "AF": 8156,
      "________": 8157,
      "ani": 8158,
      "Ġwhom": 8159,
      "Ġplaced": 8160,
      "uing": 8161,
      "bservable": 8162,
      "Ġassign": 8163,
      "Ġtermin": 8164,
      "Connect": 8165,
      "Ġviews": 8166,
      "Ġbillion": 8167,
      "bridge": 8168,
      "ĠLibrary": 8169,
      "ali": 8170,
      "Game": 8171,
      "ĠAbstract": 8172,
      "AUT": 8173,
      "blog": 8174,
      "encode": 8175,
      "abit": 8176,
      "Ġvote": 8177,
      "ĠDEFAULT": 8178,
      "ĠFrank": 8179,
      "Ġmachine": 8180,
      "Ð°Ð½": 8181,
      "pointer": 8182,
      "zero": 8183,
      "Ġlatest": 8184,
      "HEAD": 8185,
      "Ġsports": 8186,
      "Information": 8187,
      "Ġspect": 8188,
      "cf": 8189,
      "ILD": 8190,
      "PHP": 8191,
      "ATOR": 8192,
      "ĠCommon": 8193,
      "fol": 8194,
      "umes": 8195,
      "aland": 8196,
      "FFER": 8197,
      "Ġ|=": 8198,
      "ami": 8199,
      "touch": 8200,
      "quote": 8201,
      "ĠLin": 8202,
      "Ġapplicable": 8203,
      "ĠHill": 8204,
      "losing": 8205,
      "INST": 8206,
      "assign": 8207,
      "ĠGen": 8208,
      "ĠCSS": 8209,
      "ĠMass": 8210,
      "hpp": 8211,
      "Ġadapt": 8212,
      "Ġiterator": 8213,
      "ora": 8214,
      "messages": 8215,
      "vertical": 8216,
      "ĠByte": 8217,
      "Ġcancel": 8218,
      "RR": 8219,
      "urnament": 8220,
      "Ġvertical": 8221,
      "Ġreflect": 8222,
      "activ": 8223,
      "Ø±": 8224,
      "ĠBit": 8225,
      "STATUS": 8226,
      "ixels": 8227,
      "ĠOrig": 8228,
      "ological": 8229,
      "ĠWomen": 8230,
      "osh": 8231,
      "URCE": 8232,
      "Ġincreased": 8233,
      "clusive": 8234,
      "Same": 8235,
      "deprecated": 8236,
      "Ġconnected": 8237,
      "Ġopening": 8238,
      "remarks": 8239,
      "Ġpen": 8240,
      "emph": 8241,
      "Site": 8242,
      "ĠParis": 8243,
      "NN": 8244,
      "anta": 8245,
      "Ġruntime": 8246,
      "Ġappointed": 8247,
      "facebook": 8248,
      "lev": 8249,
      "Focus": 8250,
      "Ġgoes": 8251,
      ")\",": 8252,
      "Ġlisted": 8253,
      "Edge": 8254,
      "(--": 8255,
      "reland": 8256,
      "BY": 8257,
      "Sharp": 8258,
      "celer": 8259,
      "ĠGames": 8260,
      "Idx": 8261,
      "Ġinsp": 8262,
      "Ġgrand": 8263,
      "Bounds": 8264,
      "120": 8265,
      "uuid": 8266,
      "diff": 8267,
      "ĠHo": 8268,
      "Ġ-=": 8269,
      "Remote": 8270,
      "ĠRetriev": 8271,
      "Ġbur": 8272,
      "/\"": 8273,
      "%\"": 8274,
      "ircraft": 8275,
      "Ġwarning": 8276,
      "ĠLink": 8277,
      "ivery": 8278,
      "compare": 8279,
      "Ġmult": 8280,
      "stone": 8281,
      "ĠGlobal": 8282,
      "RAY": 8283,
      "Ġassembly": 8284,
      "Ð²": 8285,
      "ĠNAV": 8286,
      "integer": 8287,
      "Ġdifference": 8288,
      "Ġfemale": 8289,
      "Ġgun": 8290,
      "cle": 8291,
      "ĠTwo": 8292,
      "ett": 8293,
      "Exists": 8294,
      "Ġproto": 8295,
      "Ġreports": 8296,
      "getElementById": 8297,
      "ervation": 8298,
      "ĠResponse": 8299,
      "Ġdescriptor": 8300,
      "uke": 8301,
      "Sur": 8302,
      "ny": 8303,
      "Ġgives": 8304,
      "Ġmur": 8305,
      "ola": 8306,
      "pear": 8307,
      "ĠPromise": 8308,
      "ĠRock": 8309,
      "Ġoccup": 8310,
      "Ġmouse": 8311,
      "expression": 8312,
      "Ġreligious": 8313,
      ":\\": 8314,
      "strip": 8315,
      "crement": 8316,
      "sqrt": 8317,
      "Ġfrag": 8318,
      "Permission": 8319,
      "asketball": 8320,
      "ansion": 8321,
      "ĠRegion": 8322,
      "ĠIL": 8323,
      "Ġ..": 8324,
      "Ġpri": 8325,
      "ä»": 8326,
      "Loop": 8327,
      "Ġoccurred": 8328,
      "Day": 8329,
      "ĠChicago": 8330,
      "1988": 8331,
      "fully": 8332,
      "venue": 8333,
      "subsection": 8334,
      "ĠDelete": 8335,
      "Ġstated": 8336,
      "Ġhighest": 8337,
      "Ġprison": 8338,
      "Ġhighlight": 8339,
      "Te": 8340,
      "Ġ'\"": 8341,
      "ĠOffice": 8342,
      "war": 8343,
      "Ġplant": 8344,
      "Ġpresented": 8345,
      "Ġexpand": 8346,
      "NING": 8347,
      "TF": 8348,
      "Ġweeks": 8349,
      "cdot": 8350,
      "overs": 8351,
      "arant": 8352,
      "Ġbatch": 8353,
      "fff": 8354,
      "ĠAtt": 8355,
      "Ġinform": 8356,
      "ĠclassName": 8357,
      "Ġrepresented": 8358,
      "Ġletter": 8359,
      "ĠZend": 8360,
      "ubern": 8361,
      "ĠAngeles": 8362,
      "Ġmanufact": 8363,
      "Ġresponsible": 8364,
      "Expected": 8365,
      "agraph": 8366,
      "ened": 8367,
      "Virtual": 8368,
      "ĠArab": 8369,
      "usr": 8370,
      "Ġepisode": 8371,
      "(\"%": 8372,
      "ĠRecords": 8373,
      "Term": 8374,
      "ĠWindows": 8375,
      "ĠSection": 8376,
      "Console": 8377,
      "pa": 8378,
      "ĠUnder": 8379,
      "some": 8380,
      "Ġbuildings": 8381,
      "DATE": 8382,
      "Tuple": 8383,
      "NamedCell": 8384,
      "Ġ'./": 8385,
      "udo": 8386,
      "equiv": 8387,
      "warn": 8388,
      "Sep": 8389,
      "Ġquestions": 8390,
      "Columns": 8391,
      "Ġcy": 8392,
      "umni": 8393,
      "Book": 8394,
      "}).": 8395,
      "fect": 8396,
      "ĠMost": 8397,
      "Med": 8398,
      "recated": 8399,
      "Arch": 8400,
      "Ġ\"'": 8401,
      "timestamp": 8402,
      "Ġcaused": 8403,
      "transaction": 8404,
      "Many": 8405,
      "ĠPlay": 8406,
      "Ġcb": 8407,
      "Ġmanaged": 8408,
      "iminal": 8409,
      "tensor": 8410,
      "ĠQuery": 8411,
      "Tasks": 8412,
      "Ġgold": 8413,
      "Ġdocuments": 8414,
      "ĠTom": 8415,
      "CG": 8416,
      "alytics": 8417,
      "Ġpull": 8418,
      "ĉĉĠĠĠ": 8419,
      "HERE": 8420,
      "ĠALIGN": 8421,
      "ĠTri": 8422,
      "inate": 8423,
      "Ġgenerally": 8424,
      "ĠPri": 8425,
      "elements": 8426,
      "called": 8427,
      "ĠEngine": 8428,
      "ASE": 8429,
      "Ġtraditional": 8430,
      "TY": 8431,
      "sr": 8432,
      "ĠAdmin": 8433,
      "dy": 8434,
      ":'": 8435,
      "Ġinterval": 8436,
      "commit": 8437,
      "Counter": 8438,
      "trim": 8439,
      "haps": 8440,
      "Ġspirit": 8441,
      "ining": 8442,
      "ĠVirginia": 8443,
      "ĠIslam": 8444,
      "amous": 8445,
      "Ġinvestig": 8446,
      "ĠSocial": 8447,
      "Ġpayload": 8448,
      "Real": 8449,
      "aria": 8450,
      "Ġworkers": 8451,
      "Ġeasy": 8452,
      "oned": 8453,
      "deg": 8454,
      "Ġcapacity": 8455,
      "seq": 8456,
      "Ġdeliver": 8457,
      "Ġstories": 8458,
      "selection": 8459,
      "Ġcompared": 8460,
      "Ġguitar": 8461,
      "locity": 8462,
      "Ġstrategy": 8463,
      "ĠRefer": 8464,
      "Ġsuccessfully": 8465,
      "zen": 8466,
      "Platform": 8467,
      "iverse": 8468,
      "Ġcomputer": 8469,
      "FilterDatabase": 8470,
      "VAR": 8471,
      "ĠallClasses": 8472,
      "Ġraised": 8473,
      "simple": 8474,
      "Runner": 8475,
      "Ġalbums": 8476,
      "Ġeffic": 8477,
      "ova": 8478,
      "Ġowners": 8479,
      "Ġappears": 8480,
      "cos": 8481,
      "asion": 8482,
      "ĠGrand": 8483,
      "Ġship": 8484,
      "POS": 8485,
      "ĠIter": 8486,
      "ĠItalian": 8487,
      "apid": 8488,
      "ĠEducation": 8489,
      "PROP": 8490,
      "Cur": 8491,
      "Ġfactor": 8492,
      "Ġframework": 8493,
      "program": 8494,
      "Consumer": 8495,
      "Po": 8496,
      "Ġtreatment": 8497,
      "ĠallClassesLink": 8498,
      "anda": 8499,
      "Ġthreat": 8500,
      "Ġdisable": 8501,
      "Ġdu": 8502,
      "Ġeffective": 8503,
      "decor": 8504,
      "Ġsynchron": 8505,
      "Ġgovern": 8506,
      "uts": 8507,
      "Ġsens": 8508,
      "PROJECT": 8509,
      "Ġbecomes": 8510,
      "127": 8511,
      "audio": 8512,
      "=#": 8513,
      "ĠTra": 8514,
      "akers": 8515,
      "cursor": 8516,
      "agma": 8517,
      "VICE": 8518,
      "Verify": 8519,
      "Ġtimestamp": 8520,
      "havior": 8521,
      "chunk": 8522,
      "ĠAli": 8523,
      "Metrics": 8524,
      "LICENSE": 8525,
      "Ġreach": 8526,
      "Ġobtained": 8527,
      "aren": 8528,
      "nother": 8529,
      "Ġdepth": 8530,
      "prise": 8531,
      "licenses": 8532,
      "Ã¨": 8533,
      "1987": 8534,
      "contact": 8535,
      "ĠSing": 8536,
      "Declaration": 8537,
      "Ġreduce": 8538,
      "Card": 8539,
      "Ġexperiment": 8540,
      "repeat": 8541,
      "vince": 8542,
      "Ġentered": 8543,
      "sell": 8544,
      "Ġleague": 8545,
      "navigation": 8546,
      "ĠĠĠĠĠĠĠĠĠĠĠĠĠĠĠĠĠĠĠĠĠĠĠĠĠĠĠĠĠĠĠĠĠĠĠĠĠĠĠĠĠĠĠĠĠĠĠ": 8547,
      "ĠMexico": 8548,
      "DEX": 8549,
      "ĠJournal": 8550,
      "Ġattention": 8551,
      "resentation": 8552,
      "iro": 8553,
      "Ġcritic": 8554,
      "1234": 8555,
      "Ġacade": 8556,
      "ĠassertTrue": 8557,
      "Ġfragment": 8558,
      "wall": 8559,
      "ĠConfiguration": 8560,
      "Ġfit": 8561,
      "Ġdynamic": 8562,
      "eck": 8563,
      "power": 8564,
      "ĠDB": 8565,
      "textbf": 8566,
      "undred": 8567,
      "Ġbrother": 8568,
      "redu": 8569,
      "Border": 8570,
      "PY": 8571,
      "Ġparsed": 8572,
      "Î¿": 8573,
      "Ġcandidate": 8574,
      "mdc": 8575,
      "topic": 8576,
      "Writ": 8577,
      "compute": 8578,
      "Ġlabels": 8579,
      "Dispatch": 8580,
      "road": 8581,
      "Material": 8582,
      "uda": 8583,
      "Ġep": 8584,
      "ĠPop": 8585,
      "Ġnearly": 8586,
      "Ġgas": 8587,
      "Bits": 8588,
      "Ġstats": 8589,
      "heast": 8590,
      "Ġplans": 8591,
      "Ġcoach": 8592,
      "Ġholds": 8593,
      "=>": 8594,
      "Ġtd": 8595,
      "Ġpsy": 8596,
      "columns": 8597,
      "Ġproduce": 8598,
      "=%": 8599,
      "Since": 8600,
      "UND": 8601,
      "Ġgeneration": 8602,
      "rent": 8603,
      "even": 8604,
      "Reset": 8605,
      "Ġsmaller": 8606,
      "ĠNAVBAR": 8607,
      "pair": 8608,
      "ignore": 8609,
      "FIX": 8610,
      "separ": 8611,
      "methods": 8612,
      "FOR": 8613,
      "Ġsuffer": 8614,
      "ĠUtil": 8615,
      "Ġfigure": 8616,
      "Ġprice": 8617,
      "OwnProperty": 8618,
      "Ġoriginally": 8619,
      "Ã£": 8620,
      "Ġrepresenting": 8621,
      "COM": 8622,
      "ĠArts": 8623,
      "1986": 8624,
      "Cancel": 8625,
      "inx": 8626,
      "Navigation": 8627,
      "addClass": 8628,
      "Ġsituation": 8629,
      "getId": 8630,
      "LED": 8631,
      "iger": 8632,
      "Ġcached": 8633,
      "Some": 8634,
      "derr": 8635,
      "May": 8636,
      "ĉĉĉĉĉĉĉĉĉĉ": 8637,
      "ĠServer": 8638,
      "ĠThread": 8639,
      "Ġcommercial": 8640,
      "Ġwaves": 8641,
      "igan": 8642,
      "Ġserious": 8643,
      "relation": 8644,
      "ENABLE": 8645,
      "ĠUs": 8646,
      "ĠIraq": 8647,
      "ubernetes": 8648,
      "feed": 8649,
      "Ġturned": 8650,
      "ying": 8651,
      "poration": 8652,
      "unched": 8653,
      "Ġtasks": 8654,
      "Ġstren": 8655,
      "acebook": 8656,
      "circle": 8657,
      "Ġdrag": 8658,
      "('./": 8659,
      "Å¡": 8660,
      "Ġlogging": 8661,
      "TIES": 8662,
      "cancel": 8663,
      "ray": 8664,
      "ĠOutput": 8665,
      "=-": 8666,
      "ÑģÑĤ": 8667,
      "Export": 8668,
      "ĠGame": 8669,
      "RESULT": 8670,
      "relative": 8671,
      "inf": 8672,
      "ĠZealand": 8673,
      "itz": 8674,
      "æľ": 8675,
      "Detail": 8676,
      "ups": 8677,
      "apes": 8678,
      "getInstance": 8679,
      "Watch": 8680,
      "Ġcommunities": 8681,
      "ipped": 8682,
      "Ġvm": 8683,
      "Ġmajority": 8684,
      "Ġones": 8685,
      "Contact": 8686,
      "ĠGeorg": 8687,
      "jax": 8688,
      "ĠSimple": 8689,
      "RED": 8690,
      "Fatal": 8691,
      "Ġ```": 8692,
      "yr": 8693,
      "ĠHere": 8694,
      "ĠEach": 8695,
      "otes": 8696,
      "icode": 8697,
      "Ð¼": 8698,
      "Bal": 8699,
      "Abs": 8700,
      "Ġproviding": 8701,
      "poses": 8702,
      "Ġinitialize": 8703,
      "ĠConvert": 8704,
      "Chunk": 8705,
      "Ġserve": 8706,
      "ĠON": 8707,
      "Example": 8708,
      "Tw": 8709,
      "Ġ<-": 8710,
      "Ġoil": 8711,
      "kt": 8712,
      "Effect": 8713,
      "Ġsucceed": 8714,
      "Ġalleg": 8715,
      "basic": 8716,
      "Ġtrain": 8717,
      "800": 8718,
      "ĠPeople": 8719,
      "John": 8720,
      "UST": 8721,
      "overview": 8722,
      "Assembly": 8723,
      "Ġassigned": 8724,
      "activity": 8725,
      "=\"../../../../../../../": 8726,
      "ĠAuthor": 8727,
      "ĠWARRANTIES": 8728,
      "ĠNav": 8729,
      "ĠFree": 8730,
      "Analysis": 8731,
      "Ġexam": 8732,
      "actual": 8733,
      "fi": 8734,
      "pat": 8735,
      "Ġcompute": 8736,
      "Ġdimension": 8737,
      "Ġmodify": 8738,
      ".*;": 8739,
      "Ġunion": 8740,
      "Ġpan": 8741,
      "Ġcollabor": 8742,
      "ĠDen": 8743,
      "ĠSearch": 8744,
      "(['": 8745,
      "Ġamb": 8746,
      "'d": 8747,
      "Ġinterview": 8748,
      "plan": 8749,
      "perm": 8750,
      "Forms": 8751,
      "Ġfs": 8752,
      "Extensions": 8753,
      "ĠStream": 8754,
      "Ġenjoy": 8755,
      "Ġblue": 8756,
      "elligence": 8757,
      "erman": 8758,
      "Ġconnections": 8759,
      "Ġpublish": 8760,
      "Ġmission": 8761,
      "Bottom": 8762,
      "Psi": 8763,
      "[\\": 8764,
      "ĠCast": 8765,
      "governor": 8766,
      "spacing": 8767,
      "ĠSD": 8768,
      "ĠSund": 8769,
      "Pred": 8770,
      "tooltip": 8771,
      "ĠContext": 8772,
      "BOOL": 8773,
      "Ġchoice": 8774,
      "Ġended": 8775,
      "}}\\": 8776,
      "Ġcharge": 8777,
      "uclear": 8778,
      "Ġactor": 8779,
      "Ġplease": 8780,
      "mediate": 8781,
      "Ġexpert": 8782,
      "ĠApplication": 8783,
      "Let": 8784,
      "Ġgreen": 8785,
      "Ġindividuals": 8786,
      "ĠDevelopment": 8787,
      "nof": 8788,
      "star": 8789,
      "Ġoccur": 8790,
      "Ġflex": 8791,
      "drag": 8792,
      "Ġdependencies": 8793,
      "icient": 8794,
      "Ġmapping": 8795,
      "lisher": 8796,
      "Ġpark": 8797,
      "Ġsummer": 8798,
      "('<": 8799,
      "ĠControl": 8800,
      "ĉĠĠĠĠĠĠĠĠĠĠĠĠĠĠĠ": 8801,
      "Leg": 8802,
      "metric": 8803,
      "references": 8804,
      "MAP": 8805,
      "NC": 8806,
      "Ġns": 8807,
      "ĠDescription": 8808,
      "awn": 8809,
      "docker": 8810,
      "Ġanswer": 8811,
      "ĠAust": 8812,
      "Ġadopt": 8813,
      "Ġgiving": 8814,
      "000000": 8815,
      "NODE": 8816,
      "Ġdelegate": 8817,
      "Ġoverflow": 8818,
      "While": 8819,
      "Holder": 8820,
      "(\"#": 8821,
      "Ġ}}": 8822,
      "Ġfourth": 8823,
      "Ġopportunity": 8824,
      "gs": 8825,
      "structions": 8826,
      "esome": 8827,
      "Inner": 8828,
      "onic": 8829,
      "\"];": 8830,
      "çĶ": 8831,
      "Ġaffect": 8832,
      "itable": 8833,
      "Ġcomments": 8834,
      "600": 8835,
      "Touch": 8836,
      "people": 8837,
      "oviet": 8838,
      "enty": 8839,
      "changed": 8840,
      "ĠFre": 8841,
      "BB": 8842,
      "cedure": 8843,
      "Upload": 8844,
      "ji": 8845,
      "ĠØ": 8846,
      "}_{\\": 8847,
      "Ġfirm": 8848,
      "BUFFER": 8849,
      "UNT": 8850,
      "OPT": 8851,
      "Ġcritical": 8852,
      "250": 8853,
      "IA": 8854,
      "Ġdark": 8855,
      "Ignore": 8856,
      "constant": 8857,
      "Ġtopic": 8858,
      "ollowing": 8859,
      "rypted": 8860,
      "SM": 8861,
      "Place": 8862,
      "Ġrespectively": 8863,
      "resize": 8864,
      "ArrayList": 8865,
      "1984": 8866,
      "ðŁ": 8867,
      "Ġlaunch": 8868,
      "LY": 8869,
      "flo": 8870,
      "ĠĠĠĊ": 8871,
      "Ġclone": 8872,
      "lan": 8873,
      "Ġconsum": 8874,
      "ĠFOR": 8875,
      "ĠCH": 8876,
      "/.": 8877,
      "Ġaccur": 8878,
      "arian": 8879,
      "razil": 8880,
      "strings": 8881,
      "encoding": 8882,
      "ĠFilm": 8883,
      ">()": 8884,
      "vol": 8885,
      "ĠVerify": 8886,
      "Ġearn": 8887,
      "Labels": 8888,
      "Ġpaths": 8889,
      "mapping": 8890,
      "ĠBuffer": 8891,
      "ĉĠĠĠĠĠĠĠĠ": 8892,
      "ĠSE": 8893,
      "Ġshot": 8894,
      "ÛĮ": 8895,
      "ĠSil": 8896,
      "Ġclock": 8897,
      "Ġincome": 8898,
      "IMIT": 8899,
      "going": 8900,
      "mac": 8901,
      "Sim": 8902,
      "psilon": 8903,
      "Enable": 8904,
      "ĠIns": 8905,
      "Ġcarry": 8906,
      "emit": 8907,
      "ĠItem": 8908,
      "lower": 8909,
      "mega": 8910,
      "oration": 8911,
      "ĠSpecial": 8912,
      "ĠIreland": 8913,
      "remote": 8914,
      "Ġmoving": 8915,
      "ĠRest": 8916,
      "ĠMO": 8917,
      "Ġquarter": 8918,
      "Ġphil": 8919,
      "TAG": 8920,
      "Ġcompetition": 8921,
      "ĠTim": 8922,
      "Ear": 8923,
      "logging": 8924,
      "/\">": 8925,
      "ĠStar": 8926,
      "1985": 8927,
      "<<": 8928,
      "Linq": 8929,
      "amm": 8930,
      "Ġsyn": 8931,
      "AST": 8932,
      "Depth": 8933,
      "subject": 8934,
      "vo": 8935,
      "ĠSpanish": 8936,
      "hl": 8937,
      "Ġloading": 8938,
      "Ġ/*!": 8939,
      "Capture": 8940,
      "country": 8941,
      "concat": 8942,
      "æĸ": 8943,
      "Ġhum": 8944,
      "Ġsaved": 8945,
      "Ġpartners": 8946,
      "Ġ\">": 8947,
      "]+": 8948,
      "black": 8949,
      "Executor": 8950,
      "about": 8951,
      "Ġzone": 8952,
      "ĠHome": 8953,
      "Ġenumer": 8954,
      "`)": 8955,
      "Ġaddresses": 8956,
      "Ġagreement": 8957,
      "Ġimplemented": 8958,
      "OutputStream": 8959,
      "Ġwidget": 8960,
      "Ġmanag": 8961,
      "}\",": 8962,
      "bi": 8963,
      "ĠHenry": 8964,
      "Ġoverall": 8965,
      "repository": 8966,
      "Features": 8967,
      "Ġpermission": 8968,
      "ĠJson": 8969,
      "nn": 8970,
      "Login": 8971,
      "Accept": 8972,
      "wer": 8973,
      "Delay": 8974,
      "osoph": 8975,
      "Ġapplications": 8976,
      "ĉĉĉĉĉĉĊ": 8977,
      "Partition": 8978,
      "Ġimg": 8979,
      "CDATA": 8980,
      "Ġexactly": 8981,
      "Ġextended": 8982,
      "213": 8983,
      "Ġthous": 8984,
      "ĠLcom": 8985,
      "Î±": 8986,
      "ĠMel": 8987,
      "1950": 8988,
      "bean": 8989,
      "standing": 8990,
      "Ġnorm": 8991,
      "nel": 8992,
      "Mount": 8993,
      "Management": 8994,
      "ĠImmutable": 8995,
      "Chain": 8996,
      "Ġnoted": 8997,
      "ĠStep": 8998,
      "Ġolder": 8999,
      "Rules": 9000,
      "Ġfair": 9001,
      "ĠSeries": 9002,
      "Dig": 9003,
      "Ġbuy": 9004,
      "ĠOur": 9005,
      "UMM": 9006,
      "pages": 9007,
      "utch": 9008,
      "Enumerable": 9009,
      "~~~~~~~~": 9010,
      "Ġsteps": 9011,
      "Ġprincip": 9012,
      "Ġdoub": 9013,
      "Ġbey": 9014,
      "ĠVictor": 9015,
      "ĠServices": 9016,
      "share": 9017,
      "Ġremember": 9018,
      "pective": 9019,
      "Ġinstruction": 9020,
      "Ġreferences": 9021,
      "ACH": 9022,
      "ĠLake": 9023,
      "Ġdownload": 9024,
      "Converter": 9025,
      "Under": 9026,
      "å®": 9027,
      "ĠEnt": 9028,
      "Ġsal": 9029,
      "Don": 9030,
      "ĠHandle": 9031,
      "ĠAccess": 9032,
      "locale": 9033,
      "iagnostic": 9034,
      "ĉčĊ": 9035,
      "Ġdisk": 9036,
      "ĠJewish": 9037,
      "onymous": 9038,
      "Ġfetch": 9039,
      "Ġannual": 9040,
      "scal": 9041,
      "Two": 9042,
      "arriage": 9043,
      "validation": 9044,
      "multi": 9045,
      "ĠĠĠĠĠĠĠĠĠĠĠĠĠĠĠĠĠĠĠĠĠĠĠĠĠĠĠĠĠĠĠĠĠĠ": 9046,
      "ĠParse": 9047,
      "(()": 9048,
      "================================================================": 9049,
      "Ã£o": 9050,
      "Ñĩ": 9051,
      "illis": 9052,
      "abc": 9053,
      "Ġproducer": 9054,
      "ĠMartin": 9055,
      "Switch": 9056,
      "ĠPan": 9057,
      "=[": 9058,
      "Tile": 9059,
      "yan": 9060,
      "åĲ": 9061,
      "ĠFootball": 9062,
      "notations": 9063,
      "Ġcells": 9064,
      "refs": 9065,
      "Ġ'#": 9066,
      "Ġcompletely": 9067,
      "Ġreli": 9068,
      "Ġdst": 9069,
      "]->": 9070,
      "oving": 9071,
      "camel": 9072,
      "Setting": 9073,
      "Optional": 9074,
      "Ġpretty": 9075,
      "Ġaspect": 9076,
      "Ġbeyond": 9077,
      "entially": 9078,
      "ĠCG": 9079,
      "Ġ'-": 9080,
      "ĠSun": 9081,
      "large": 9082,
      "ĠTeam": 9083,
      "Ġpositions": 9084,
      "ILITY": 9085,
      "ĠSpace": 9086,
      "Amount": 9087,
      "License": 9088,
      "LAY": 9089,
      "inated": 9090,
      "lots": 9091,
      "SOURCE": 9092,
      "ĠFestival": 9093,
      "Weight": 9094,
      "Shader": 9095,
      "compat": 9096,
      "Supported": 9097,
      "Ġexchange": 9098,
      "UEST": 9099,
      "Ġproceed": 9100,
      "Ġadding": 9101,
      "ĠIts": 9102,
      "ĠVar": 9103,
      "Ð¾Ð²": 9104,
      "Ġefforts": 9105,
      "Dem": 9106,
      "logo": 9107,
      "ronic": 9108,
      "ĠLand": 9109,
      "ilevel": 9110,
      "Light": 9111,
      "orney": 9112,
      "Ġbill": 9113,
      "Plan": 9114,
      "ishop": 9115,
      "ENV": 9116,
      "Ġadministration": 9117,
      "Random": 9118,
      "Ġsurround": 9119,
      "************************************************************************": 9120,
      "fp": 9121,
      "verify": 9122,
      "Ġconstit": 9123,
      "Ġscheme": 9124,
      "ï¼Į": 9125,
      "respond": 9126,
      "uplicate": 9127,
      "world": 9128,
      "Ġproof": 9129,
      "Ġexamples": 9130,
      "Ġstructures": 9131,
      "getType": 9132,
      "TL": 9133,
      "Decimal": 9134,
      "Ġresulting": 9135,
      "Ġpoor": 9136,
      "popup": 9137,
      "haser": 9138,
      "ĠContent": 9139,
      "Standard": 9140,
      "ador": 9141,
      "Ġhy": 9142,
      "ĠReview": 9143,
      "Ġprim": 9144,
      "Ġencour": 9145,
      "Ġparties": 9146,
      "Ġpurs": 9147,
      "ĠSummer": 9148,
      "Ġremained": 9149,
      "isc": 9150,
      "__,": 9151,
      "ores": 9152,
      "Sm": 9153,
      "ĠOh": 9154,
      "cmp": 9155,
      "Ġcommands": 9156,
      "Ġpeace": 9157,
      "ding": 9158,
      "101": 9159,
      "jet": 9160,
      "TRAN": 9161,
      "Ġtools": 9162,
      "SI": 9163,
      "heading": 9164,
      "Buf": 9165,
      "Snapshot": 9166,
      "cluding": 9167,
      "Ġvs": 9168,
      "ancing": 9169,
      "Ġquickly": 9170,
      "execut": 9171,
      "Ġbug": 9172,
      "ogram": 9173,
      "acific": 9174,
      "currency": 9175,
      "ĠMil": 9176,
      "icine": 9177,
      "ĠSecretary": 9178,
      "Tim": 9179,
      "Ġarrest": 9180,
      "Ġfake": 9181,
      "Ġbattle": 9182,
      "ĠBur": 9183,
      "cha": 9184,
      "clo": 9185,
      "edu": 9186,
      "Ä±": 9187,
      "raction": 9188,
      "ĠHas": 9189,
      "FileName": 9190,
      "ainment": 9191,
      "elasticsearch": 9192,
      "ĠYour": 9193,
      "React": 9194,
      "ĠAlthough": 9195,
      "Ġ'_": 9196,
      "Ġorganizations": 9197,
      ",-": 9198,
      "Canvas": 9199,
      "Ġpending": 9200,
      "mk": 9201,
      "Family": 9202,
      "hens": 9203,
      "bd": 9204,
      "Ġhelped": 9205,
      "EY": 9206,
      "TV": 9207,
      "orient": 9208,
      "ĠMiddle": 9209,
      "Ġuri": 9210,
      "ĠJul": 9211,
      "scala": 9212,
      "Ġstarts": 9213,
      "Go": 9214,
      "125": 9215,
      "lint": 9216,
      "epsilon": 9217,
      "ĠLoad": 9218,
      "kin": 9219,
      "nic": 9220,
      "ĠReport": 9221,
      "tl": 9222,
      "collect": 9223,
      "Ġinfluence": 9224,
      "Ġtemperature": 9225,
      "Ġsenior": 9226,
      "mir": 9227,
      "ĠWIDTH": 9228,
      "repo": 9229,
      "Dependency": 9230,
      "Ġtrace": 9231,
      "iar": 9232,
      "Ġpartition": 9233,
      "Prev": 9234,
      "Ġequivalent": 9235,
      "delay": 9236,
      "ĠOld": 9237,
      "indent": 9238,
      "ERS": 9239,
      "Ġaircraft": 9240,
      "1979": 9241,
      "Ġpi": 9242,
      "ĠEnter": 9243,
      "Origin": 9244,
      "elling": 9245,
      "ĠManagement": 9246,
      "\\'": 9247,
      "ĠInvalid": 9248,
      "rpc": 9249,
      "Ġplot": 9250,
      "Resp": 9251,
      "inity": 9252,
      "ĠPython": 9253,
      "Ġbeaut": 9254,
      "Ġtranslation": 9255,
      "ographic": 9256,
      "ĠPo": 9257,
      "ufficient": 9258,
      "=&": 9259,
      "Ġhus": 9260,
      "EVENT": 9261,
      "ĠSign": 9262,
      "0000000": 9263,
      "ĠChief": 9264,
      "phrase": 9265,
      "ĠInformation": 9266,
      "ĠCarolina": 9267,
      "tar": 9268,
      "Ð´": 9269,
      "Ġpain": 9270,
      "Ġneighbor": 9271,
      "orders": 9272,
      "Drawing": 9273,
      "ĠBusiness": 9274,
      "onses": 9275,
      "glyphicon": 9276,
      "Actions": 9277,
      "apers": 9278,
      "Ġapilevel": 9279,
      "fast": 9280,
      "ady": 9281,
      "RECT": 9282,
      "Lambda": 9283,
      "Ġforced": 9284,
      "Ġchief": 9285,
      "istribution": 9286,
      "localhost": 9287,
      "Ġclaims": 9288,
      "ĠPet": 9289,
      "rules": 9290,
      "ĠJes": 9291,
      "itan": 9292,
      "Ġreasons": 9293,
      "annotations": 9294,
      ">\\": 9295,
      "ĠPR": 9296,
      "ousing": 9297,
      "Ġ*,": 9298,
      "Ġmonitor": 9299,
      "ingu": 9300,
      "ĠLanguage": 9301,
      "6666": 9302,
      "HOUT": 9303,
      "Ġhar": 9304,
      "ening": 9305,
      "kins": 9306,
      "ierarchy": 9307,
      "Blob": 9308,
      "Ġwasn": 9309,
      "Ġemb": 9310,
      "Fixed": 9311,
      "Direction": 9312,
      "Rob": 9313,
      "Replace": 9314,
      "Ġalert": 9315,
      "rtl": 9316,
      "pared": 9317,
      "alias": 9318,
      "Ġofficials": 9319,
      "ĠCE": 9320,
      "stable": 9321,
      "Deprecated": 9322,
      "ĠModule": 9323,
      "Deploy": 9324,
      "BASE": 9325,
      "ĠMur": 9326,
      "Must": 9327,
      "Ġfelt": 9328,
      "cls": 9329,
      "Ġpresence": 9330,
      "ĠLogger": 9331,
      "Ġadjust": 9332,
      "ĠScot": 9333,
      "ĠChange": 9334,
      "Available": 9335,
      "Master": 9336,
      "âĢĿ.": 9337,
      "ĠLay": 9338,
      "previous": 9339,
      "ĠHuman": 9340,
      "Ġfolder": 9341,
      "ASS": 9342,
      "Literal": 9343,
      "Ġchoose": 9344,
      "Ġtensor": 9345,
      "Ġofficer": 9346,
      "Ġstations": 9347,
      "Ġhighly": 9348,
      "Ġembed": 9349,
      "getString": 9350,
      "Ġdevices": 9351,
      "Month": 9352,
      "Car": 9353,
      "uz": 9354,
      "iana": 9355,
      "Ġdivision": 9356,
      "Ġawarded": 9357,
      "weet": 9358,
      "Packet": 9359,
      "Ġmunicipal": 9360,
      "viewport": 9361,
      "Ġ'''": 9362,
      "Locale": 9363,
      "Ġcompliance": 9364,
      "Authentication": 9365,
      "urer": 9366,
      "1983": 9367,
      "ĠRetrieved": 9368,
      "Ġpriority": 9369,
      "Ġfeatured": 9370,
      "Äģ": 9371,
      "interval": 9372,
      "Stub": 9373,
      "Ġaccepted": 9374,
      "ĠPsi": 9375,
      "Ġwrap": 9376,
      "Ġfarm": 9377,
      "Ġ\"${": 9378,
      "owers": 9379,
      "Qual": 9380,
      "Ġ//!": 9381,
      "Ġcanvas": 9382,
      "atted": 9383,
      "Final": 9384,
      "binding": 9385,
      "asm": 9386,
      "flat": 9387,
      "vendor": 9388,
      "Ġeveryone": 9389,
      "dark": 9390,
      "ĠAtl": 9391,
      "Ġrepository": 9392,
      "ktop": 9393,
      "Ġworth": 9394,
      "Period": 9395,
      "hol": 9396,
      "Ġplaceholder": 9397,
      "oston": 9398,
      "Chart": 9399,
      "Center": 9400,
      "Ġvoice": 9401,
      "listener": 9402,
      "Win": 9403,
      "gments": 9404,
      "bat": 9405,
      "Ġimprove": 9406,
      "rum": 9407,
      "ĠBuilder": 9408,
      "nam": 9409,
      "rie": 9410,
      "ĠOS": 9411,
      "Ġsquare": 9412,
      "declare": 9413,
      "decode": 9414,
      "timer": 9415,
      "1982": 9416,
      "oms": 9417,
      "extensions": 9418,
      "Lookup": 9419,
      "airman": 9420,
      "ullet": 9421,
      "LOAD": 9422,
      "ĠSerial": 9423,
      "jack": 9424,
      "ima": 9425,
      "180": 9426,
      "Gamma": 9427,
      "Ġlif": 9428,
      "ĠExpression": 9429,
      "django": 9430,
      "ĠĠĠĠĠĠĠĠĠĠĠĠĠĠĠĠĠĠĠĠĠĠĠĠĠĠĠĠĠĠĠĠĠĠĠĠ": 9431,
      "Ġgoals": 9432,
      "ĠAndroid": 9433,
      "Ġcopyright": 9434,
      "Ġfoo": 9435,
      "ĠCurrent": 9436,
      "LEMENT": 9437,
      "ĠExample": 9438,
      "CREATE": 9439,
      "getMessage": 9440,
      "lements": 9441,
      "Bro": 9442,
      "eqn": 9443,
      "ĠItaly": 9444,
      "Ġanaly": 9445,
      "Ġdepends": 9446,
      "sheets": 9447,
      "ĠRuntime": 9448,
      "Ġgoto": 9449,
      "Ġmusical": 9450,
      "includegraphics": 9451,
      "Ġhundred": 9452,
      "Missing": 9453,
      "(\"\\": 9454,
      "ĠRights": 9455,
      "ĠGood": 9456,
      "chemas": 9457,
      "night": 9458,
      "Ġgoogle": 9459,
      "Ġnavbar": 9460,
      "Ġcolspan": 9461,
      "FNGL": 9462,
      "Ġcouple": 9463,
      "BI": 9464,
      "pragma": 9465,
      "Ġvariety": 9466,
      "binary": 9467,
      "Secret": 9468,
      "lated": 9469,
      "functions": 9470,
      "Ġintended": 9471,
      "overning": 9472,
      "ustrial": 9473,
      "Ġthrown": 9474,
      "Ġinterrupt": 9475,
      "runner": 9476,
      "ourse": 9477,
      "DR": 9478,
      "Ġadministr": 9479,
      "appro": 9480,
      "opes": 9481,
      "pid": 9482,
      "Ġextend": 9483,
      "YY": 9484,
      "ĠCloud": 9485,
      "Ġowned": 9486,
      "Ġeconomy": 9487,
      "Priority": 9488,
      "DP": 9489,
      "Ġdiag": 9490,
      "ĠColumb": 9491,
      "Ġpiece": 9492,
      "Ġclimate": 9493,
      "ĠÂ£": 9494,
      "dst": 9495,
      "DITION": 9496,
      "Ġvisual": 9497,
      "[],": 9498,
      "Split": 9499,
      "Ġexecuted": 9500,
      "uzz": 9501,
      "oices": 9502,
      "Ġcultural": 9503,
      "Ġsafety": 9504,
      "forward": 9505,
      "ãĢĤ": 9506,
      "oting": 9507,
      "LIN": 9508,
      "ĠMember": 9509,
      "×ķ": 9510,
      "failed": 9511,
      "ĠEr": 9512,
      "Produ": 9513,
      "__[\"": 9514,
      "notify": 9515,
      "libs": 9516,
      "ĠCOL": 9517,
      "transport": 9518,
      "ĠURI": 9519,
      "CM": 9520,
      "Ġtraff": 9521,
      "iration": 9522,
      "ĠĠĠĠĠĠĠĠĠĠĠĠĠĠĠĠĠĠĠĠĠĠĠĠĠĠĠĠĠĠĠĠĠĠĠĠĠ": 9523,
      "aks": 9524,
      "Ġhide": 9525,
[...]
