#version: 0.2
Ġ t
i n
h e
Ġ a
o n
e r
Ġ Ġ
Ġt he
r e
a t
e n
o r
Ġ s
a l
Ġ o
a n
i s
i t
e s
e d
a r
Ġ w
Ġ c
i on
Ġ f
Ġo f
Ġ in
n d
Ġ p
Ġ b
i c
in g
l e
r o
a s
ĠĠ ĠĠ
Ġa nd
Ġ d
Ġ m
Ġ \
Ġt o
en t
e l
c t
Ġ $
o u
e t
i l
i g
Ġ h
o m
a m
s t
Ġ re
Ġt h
Ġ S
at ion
o l
Ġ T
r a
i m
Ġ e
Ġ n
Ġ C
Ġ (
o t
Ġ A
Ġ l
Ġ is
i d
i v
c e
u r
c h
{ \
Ġf or
u t
Ġ M
u s
Ġ g
l y
o w
Ġ on
Ġ I
u l
a d
er s
Ġ B
e m
it h
Ġb e
Ġ P
2 0
i r
u m
Ġs t
q u
a b
Ġa s
Ġth at
â Ģ
u n
t er
a y
Ġ H
s e
1 9
ĠĠ Ġ
Ġc on
v er
_ {
Ġw ith
is t
o d
Ġ F
t h
ĠĠĠĠ ĠĠĠĠ
i f
Ġ R
ĠT he
a g
e g
at h
Ġa l
Ġ L
Ġ D
Ġw as
en d
he r
an d
Ġb y
Ġ v
Ġa n
Ġp ro
Ġ$ \
Ġ W
r i
e ct
ig h
Ġ N
re s
Ġ G
Ġ Ċ
a c
o p
o s
es t
v e
Ġw h
č Ċ
it y
m ath
at e
Ġa t
ro m
Ġ E
a p
o c
t a
Ġd e
u p
p h
Ġc om
ar t
Ġe x
u b
igh t
Ġ it
Ġ &
ct ion
o re
e x
Ġf rom
i es
Ġa re
u re
} \
Ġ J
il l
in e
} $
al l
^ {
i al
e w
es s
g e
Ġ he
an t
Ġ or
u d
Ġw e
or t
Ġ =
p l
e c
iv e
Ġ O
it e
m ent
m a
T he
l d
b er
Ġ r
' s
re f
ic h
a k
p t
Ġ U
i an
at ed
20 1
} }
o g
ar d
i z
( \
ou r
n t
el l
as s
Ġ K
ic al
Ġ "
ra c
Ġc h
f t
r an
i p
u nd
ar y
Ġs h
in t
am e
Ġs p
ul t
p er
i a
c l
e f
u e
eg in
Ġs e
Ġ y
ex t
b egin
Ġth is
Ġ le
ig n
it ion
a ve
Ġp l
Ġ us
ĠI n
u st
0 0
Ġcom p
Ġn ot
or m
on g
c al
_ {\
) $
âĢ ĵ
as t
) ,
Ġc l
a re
s p
ĠĠĠĠ ĠĠĠ
Ġwh ich
en s
e p
ĠS t
e ar
ation s
Ġ -
u g
ag e
Ġ k
d u
f f
o st
20 0
i re
} {
or d
a v
ac k
or k
s o
en ce
Ġ V
Ġh is
t her
o v
p ro
r m
e q
a in
ĉ ĉ
f rac
Ġw he
Ġh ave
) .
c c
Ġc an
a ce
} ,
en c
t o
Ġ un
er e
ion s
e qu
im e
ab le
t ext
r ight
ĠC h
âĢ Ļ
id e
r ic
is h
i b
Ġh as
ou s
l ow
c ite
on d
an g
Ġa p
as e
ab el
a ct
il d
Ġal so
r y
p ort
m er
1 8
t he
a ch
Ġa b
math b
Ġ im
om e
r u
Ġa d
en er
f er
o ver
o k
Ġw ere
I n
ou t
Ġ |
ou ld
Ġ <
er v
Ġre s
ĠT h
ic e
in d
ir st
Ġp art
er m
l abel
Ġ {
= "
or y
) ;
$ ,
Ġ j
f orm
Ġs u
w o
, \
$ .
ou nd
- -
Ġon e
et a
ter n
at es
ow n
ol d
math cal
equ ation
Ġcon t
re e
p e
el y
Ġa r
1 0
ent s
Ġal l
. .
r it
or s
cl ud
an ce
} )
le ft
i e
} .
i le
i k
Ġd is
al ly
ro w
Ġm od
ou nt
ri b
ta in
f ig
ar k
res s
} (
ĠU n
am p
Ġthe ir
o se
Ġf irst
Ġp er
Ġb ut
w e
am b
ĠĠĠĠĠĠĠĠ ĠĠĠĠĠĠĠĠ
Ġit s
ĠH e
ur n
} ^
Ġ Y
Ġt wo
Ġm e
Ġ ro
ic s
c on
he d
Ġo b
~ \
ĠI t
e y
ation al
} _
Ġ qu
19 9
Ġe v
o b
j ect
Ġ +
ph a
ub l
Ġh ad
< /
p s
l ine
k s
Ġo ut
Ġo ther
c ent
Ġ âĢ
n g
im es
c om
al pha
l l
d a
Ġpl ay
Ġ if
f ter
Ġp re
v el
s um
ul ar
o int
Ġwh o
i el
Ġ âĢĵ
at er
Ġs y
Ġm an
Ġs c
ran s
ar i
Ġa g
t e
Ġt e
or n
ra d
) \
Ġd es
ug h
Ġw ork
ut ion
Ġ up
/ /
s s
Ġbe en
Ġ| |
a w
Ġo ver
ol low
Ġ }
i ed
Ġw ill
ra ph
un ction
el ta
l es
le ct
Ġt ime
is s
amb da
Ġs et
$ \
enc es
Ġm ore
Ġde f
1 2
at a
Ġin ter
iel d
on e
Ġn ew
on s
Ġin t
Ġthe y
h o
Ġy ear
ing s
und er
am ma
ra y
as ed
i x
e op
ic t
Ġb et
Ġd o
Ġin d
l and
Ġ *
Ġcl ass
p os
_ \
Ġwhe re
um ber
Ġcon s
o ol
it ed
Ġs ub
r am
at ive
ic an
iv ers
g h
Ġf ollow
c ed
Ġre l
m u
Ġ en
Ġ her
o f
eop le
Ġfor m
Ġsu ch
Ġre g
Ġcom m
mathb b
Ġ\ \
Ġd if
u al
ar g
v i
Ġon ly
s h
= \
res ent
ĠĠĠĠĠĠĠĠ ĠĠĠ
ot h
a us
Ġc ol
Ġn e
in al
od e
Ġin clud
d ot
m b
} ^{
} _{
Ġthe re
s ub
Ġs o
ig ma
Ġwhe n
Ġin to
in ed
h at
Ġbe c
w ard
s c
ak e
st em
y s
o ok
em ber
Ġd ist
Ġs up
in ce
if ic
ol og
we en
Ġa cc
19 8
- \
Ġv al
ro up
Ġth an
Ġres ult
1 5
p r
eg a
et h
^ {\
Ġex p
ver y
oc k
1 7
an s
Ġ under
Ġmod el
Ġp ol
âĢ Ŀ
re d
ĠĠĠĠ Ġ
Ġthe n
1 6
r al
ĠTh is
ph i
a x
Ġcon st
a il
ur ing
Ġf unction
Ġg ener
iz e
ro und
ĠW e
it ies
id ent
ou gh
Ġre c
Ġy ou
at ing
i o
an n
Ġc o
Ġp os
Ġbet ween
Ġ {\
Ġw ould
il m
Ġs im
ĠC om
l ambda
t t
d er
Ġk n
ĠN ew
Ġp h
c es
Ġl oc
Ġs ome
Ġa ct
o y
o x
mer ican
o ot
Ġof f
on t
Ġsh ow
b f
Ġab out
ĠA l
le m
s et
ro ugh
le t
Ġan y
ect ion
Ġa fter
u c
Ġ [
Ġg o
re n
Ġre t
Ġe qu
Ġin v
Ġp r
i ent
p i
R ef
S t
r ing
u res
Ġt rans
mathb f
ic k
p art
ist s
e e
ubl ic
Ġs ec
" >
ay s
is e
Ġdif fer
w id
Ġo ur
il on
d ition
ar ch
al ign
y pe
1 3
Ġat t
p ar
Ġst ud
19 7
ou n
or ld
il ity
it s
in s
ad e
ru ct
e v
al s
Ġpro du
1 4
Ref er
E x
u es
Ġ est
Ġs he
c re
Ġpro v
Ġp ar
Ġp eople
Ġc or
il y
n e
ab l
id er
le ment
Ġt ra
Ġus ed
o ve
Refer ences
s igma
ch ool
e ver
at ure
r t
Ġn o
Ġsy stem
Ġas s
c he
ul l
is ion
Ġe ach
Ġthe se
ĠâĢ ľ
ap p
se ction
p ut
^{ -
Ġg iv
is m
Ġm at
t on
ik e
el f
l i
1 1
ib le
Ġo p
Ġ( \
} {\
Ġm ost
ild e
ĠP ro
Ġ '
b ar
a ir
ow er
w n
b eta
b all
Ġf e
Ġl in
Ġe ff
Ġap p
oc i
Ġn umber
is hed
Ġf l
ire ct
Ġp oint
Ġthe m
g an
Ġre sp
o h
g amma
m in
math rm
Ġm ay
pt ion
iz ed
an y
Ġ Z
ĠF or
it t
Ġsp ec
at or
h ip
ivers ity
* }
er t
+ \
m all
ap t
am es
Ġex t
Ġpro b
* *
em ent
W e
as on
g et
Ġs erv
19 6
Ġb u
Ġb l
Ġl ine
ep s
Ġf ilm
Ġw ell
as h
Ġc ent
2 1
\ \
Ġ ent
Ġth rough
Ġd ata
n ing
y n
us s
ot e
c ol
^ \
he re
Ġap pro
] {
Ġ Q
r ho
ar ray
Ġc ase
2 5
Ġs ign
en g
Ġs ol
Ġin st
ĠA merican
a id
d elta
re at
T h
an ge
Ġ ed
m an
Ġyear s
aus e
Ġ end
Ġv ari
ur y
Ġret urn
Ġa m
Ġa c
) }
at t
Ġre p
Ġs ame
the ta
or th
a h
$ -
Ġo per
ra ct
Ġc ur
em b
ut e
Ġ ra
r on
ĠD e
Ġdiffer ent
Ġpart ic
le q
ou th
ta u
Ġth ree
Ġag ain
Ġ .
iz ation
Ġf ound
if e
Ġus e
3 0
ĠL e
Ġg roup
he n
er n
ar s
Ġ x
Ġ i
Ġst ate
wid th
Ġb oth
Ġs ur
c ess
ow ever
vel op
}$ ,
u ch
" ,
Ġs ing
ion al
}$ .
2 2
c dot
it em
Ġn on
Ġh im
fig ure
re t
ical ly
ĠS h
} (\
s y
Ġs er
Ġt erm
ric t
t y
ar ge
-- --
Ġf ield
ĠI nd
a z
Ġsec ond
Ġc all
tern al
pl ic
i er
o od
Ġm in
ir c
b ig
Ġh igh
ĠA n
c k
eth od
ic es
le ction
am et
over n
ĠC ol
Ġfollow ing
ar row
ar ly
n u
f l
w ay
g y
Ġle ad
Ġf in
a j
t imes
amp le
ĠA s
Ġor der
Ġe m
Ġar t
n er
eq ref
ver t
Ġde c
Ġm on
Ġ X
Ġd uring
= =
al e
ĠUn ited
ment s
ĠS e
Ġcons ider
Ġgiv en
Ġb ack
m m
Ġf am
part ial
ĠUn iversity
qu ad
Ġper form
Ġus ing
se c
ot her
5 0
ut h
19 4
f or
ft y
s on
Ġdes c
00 0
Ġdis c
ou se
Ġd et
ĠC l
in fty
t en
ur al
Ġwh ile
ers on
Ġf act
ag es
an k
( )
. ,
ect ed
Ġman y
t ilde
Ã ©
as es
our ce
iv ely
ul ation
eq n
Ġp ublic
Ġbe ing
at her
e b
v al
et s
in k
at ic
Ġre qu
om ega
in es
d ef
v ar
iv ed
Ġm ade
in ing
Ġc ount
Ġd irect
iv er
Ġst r
ĠC on
Ġc re
ro ss
ĠS p
ot s
re nt
Ġre le
Ġte am
Ġs mall
p m
Ġt r
ant s
p le
er r
s erv
2 4
ire d
| \
f ore
al ity
a u
olog y
ĠS c
Ġn ame
ĠĠĠĠĠĠĠĠ ĠĠĠĠĠĠĠ
D elta
us ic
Ġm ed
ent ial
Ġs aid
Ġb el
in a
Ġse e
cent er
ran g
ot t
Ġ z
ro p
oh n
Ġeff ect
sp ace
Ġw rit
Ġde velop
b y
Ġp op
Ġl ong
o ber
w ork
Ġch ar
ĠA r
oot ball
ore m
2 3
ĠI s
Ġg et
he s
res p
ist ory
r id
s im
v ed
iss ion
\ ,
ĠE ng
le y
form ation
l ed
are d
Ġs ince
om en
Ġkn own
Ġ :
Ġcont in
Ġbe fore
enc y
iv ing
y le
ĠSt ates
. "
Ġr ight
Ġf our
Ġc ould
19 5
Ġde p
Ġn ow
Â ł
m e
x i
ri x
Ġm ain
en n
y p
Ġm ov
an c
} }\
Ġst art
g ram
v ers
Ġob tain
iv es
Ġ /
)$ .
ĠCom m
- >
vi ew
Ġex per
Ġresult s
Ġ$ (
ĠS he
} [
Ġm ethod
ak ing
Ġval ue
v ent
w here
Ġrep resent
Ġsup port
Ġinclud ing
Ġl ike
Ġbec ause
el s
Ġlin ks
i or
ab ility
Ġp resent
Ġne ed
ce pt
Ġj ust
Ġwh at
um n
Ġl ater
ĉĉ ĉĉ
Ġor ig
th s
Ġe lect
Ġe very
og raph
Ġb ound
ĠM ar
ĠA d
f ul
ch n
an e
un e
i qu
if ied
C h
Ġplay ers
ĠO n
Ġp res
Ġan al
Ġrec ord
k e
eps ilon
m p
Ġpar amet
eqn array
Ġo wn
Ġm et
in clud
Ġad d
s q
) )
Ġ very
ar ri
b um
} _{\
le x
Ġim p
Ġme as
Ġm ass
iv al
" .
$ $
Ġpro cess
Ġs chool
Ex ternal
as k
n ot
er y
re l
O m
Ġagain st
Ġdesc rib
ag n
ĠC ount
Ġl arge
ro du
Ġg u
r um
u ally
ĠB l
ar n
o le
ener gy
u ro
ĠP h
Ġin cre
overn ment
I t
Ġv i
rib ut
Ġpro per
Ġb ased
ĠF ran
is ter
ĠJ ohn
it al
C on
Ġr un
2 7
Ġst ruct
v en
Ġev en
i ence
Ġprob lem
Ġcon dition
rib ution
ps i
Om ega
r ation
Ġloc al
e ad
Ġ //
Ġpos s
ĠM ay
Ġser ies
Ġgener al
s k
ĠĠ Ċ
ri pt
ep end
in c
^ *
t il
l ang
re ad
Ġresp ect
201 8
Ġth ose
ĠF ig
ction s
ra w
et work
ur ch
Ġm ult
ps ilon
Ġ ,
Ġse ason
Ġest abl
ĠN ational
G amma
)$ ,
Ġ čĊ
Ġbu ild
2 6
2 8
ĠP l
Ġcomm un
P h
Ġse ver
ur ther
n ess
ir d
Ġob serv
ect or
ag ue
ol ution
F or
Ġchar act
ĠW orld
resp ond
Ġf ind
Ġ rad
os s
r ist
vi ous
Ġop en
Ġto p
tern ational
19 3
o id
Th is
Ġre ce
sq rt
201 7
Ġsp ace
ĠY ork
c er
Ġl im
ar m
mb ol
Ġdes ign
Ġsh ould
Ġfam ily
201 6
Ġdo es
v are
t s
ĠE x
Ġ el
Ġpro f
201 0
Ġd id
20 19
p or
l og
et y
ian s
a i
cc ess
id ed
r and
201 5
: :
ial ly
vare psilon
Ġ$ {\
a f
Ġal bum
b m
Ġcall ed
Ġre m
4 0
P ro
al th
at eg
sub section
Ġst at
is ed
Ġf ootball
right arrow
201 4
Ġl ast
um er
ĠW ar
an u
g er
}^ {\
Ġl ist
ĠA ust
ĠA nd
v es
Ġas sum
Ġd i
Ġb ro
Ġre ma
it ive
ĠC an
text bf
raph ics
o ad
Ġim port
c o
Ġpol it
en se
Ġw orld
Ġh ow
' ,
A s
Ġal low
Ġbec ame
Ġw ay
Ġst and
^{ (
Ġ energy
Ġl aw
f ra
Ġre al
t ing
om et
201 1
201 2
b l
pos ition
Ġ< /
Ġpro gram
} =
im ens
Ġ `
Ġch ild
Ġp ower
aj or
m od
Ġre st
ro l
Ġre port
Ġhe l
C om
Ġd ue
2 9
ĠC ent
Ġd r
m ed
emb ers
id es
is on
Ġt est
Ġcon tain
Ġc are
201 3
Ġ @
Ġh and
at ely
Ġl ife
a int
ĠB rit
Ġ\ ,
Ġm ake
O n
Ġm y
Ġcor respond
ĠC ar
apt ion
ith m
Ġo cc
Ġcur rent
ch i
.. /
Ġex pl
Ġt ype
ĠJ u
1 00
i ous
) =
Ġs cal
il ar
i um
rac k
l ess
ic a
Ġn ear
Ġo pt
Ġ ident
if y
d ay
Ġre f
re en
Ġad dition
Ġb ir
ac es
Ġle ft
Ġsing le
ward s
ĠCount y
Ġsever al
Ġre fer
Ġre ad
Ġt em
c m
Ġor gan
ĠA t
includ eg
includeg raphics
ĠH owever
Ġf inal
ĠS chool
Ġal ong
Ġin it
e k
c aption
Ġpro ject
Ġun til
ĠN ov
Ġwith in
le v
rang le
Ġp ass
Ġle vel
in ess
ĠG e
am ed
um b
ĠS outh
g or
n on
E R
ĠO r
Ġest im
i od
Ġa round
end ed
b s
t ab
i am
ĠW h
Ġde ath
Ġb ook
Ġare a
Ġan n
Ġab ove
at ch
am ent
ĠâĢ Ķ
Ġc al
od y
b old
ord ing
i j
l im
ĠG erm
Ġm uch
Ġm usic
us e
Ġoff ic
re m
b ack
Ġ u
ap er
Ġs ong
Ġd en
ug ust
sp an
200 8
pos ed
Ġc ap
um ent
em ph
s ide
Ġmeas ure
200 9
ĠA ss
p ed
er o
ĠR e
ĠT e
Ġkn ow
h t
Ġs um
en e
ens ure
pt ember
ĠA ll
o ard
ol l
Ġl arg
il t
Ġa v
Ġg ra
. ~\
Ġpartic ular
at ors
m l
Ġex ample
.. .
ill ion
Ġint eg
Ġpl ace
Ġv is
Ġin formation
eng th
w h
Ġv ers
ĠThe y
ak es
var phi
ge q
av ing
Ġapp ear
ist or
anu ary
Ġt ri
ĠM arch
y m
t r
al k
ĠP ar
Ġs l
x im
Ġs at
ct ober
Ġw in
u le
Ġst ill
ĠP r
uth or
Ġg ame
pr il
Ġc our
S T
Ġp erson
re g
Ġe lement
Ġg l
ĠE uro
Ġf re
in ation
ess age
Ġd own
Ġob ject
om an
over line
Ġcontin u
Ġpro t
Ġm ark
Ġd em
b e
& \
le ge
Ġto t
Ġev ent
A l
a im
gor ithm
orm al
m ber
pro of
ff ic
200 7
ur s
ĠI f
ĠP ol
ĠJ une
ĠA ugust
ens ity
g round
Ġval ues
ĠSe ptember
ref ore
es c
' '
6 0
) ^
ĠI I
l ish
ĠR ep
Ġinter est
Ġn etwork
end s
Ġcomp ut
Ġbe h
Ġhe ad
e ed
Ġb as
Ġte chn
. }
Ġg overnment
Ġcon n
ĠJu ly
pl ay
Ġb and
us iness
Ġsp ect
Ġcharact er
am pl
il it
if t
se e
Ġfor mer
d iv
ific ation
200 6
ĠJ anuary
Ġin c
r is
Ġc he
col or
ĠSt ate
ĠM in
Ġsim ilar
amp ions
ef f
B ig
Ġsh own
ĠO ctober
}, \
Ġt ake
ition s
ce mber
st it
A R
l er
Ġe arly
ĠA pril
f ace
ĠU S
ĉĉ ĉ
Ġs ection
or g
Ġc rit
it er
} ).
C l
ĠC al
Ġfollow s
le ar
ĠR es
an ces
I N
ore d
ve c
. âĢĿ
ĠM an
a e
Ġt rad
im ent
ĠC ity
Ġh ig
ĠN orth
or ies
ug g
as ter
Ġle g
id d
Ġis s
ord s
Ġb est
it le
b orn
Ġre du
' t
ĠG u
Ġd er
[ \
Ġd om
mm et
Ġpre vious
ĠEuro pe
at ter
Ġqu ant
Ġad v
fra k
at s
Ġp ubl
Ġsu ccess
Ġdet erm
| -
err or
h line
epend ent
Ġcl os
our n
b ra
Ġm ust
( );
ĠAust ral
ist ic
Ġl ow
ĠA rt
Ġc ity
ĠĠĠĠĠĠĠĠ Ġ
op e
Ġterm s
Ġint rodu
Ġm ajor
Ġass oci
ru ction
Ġle t
Ġm ap
Ġm embers
or ph
Ġper iod
sy mbol
d is
---- ----
A n
im al
L et
ri es
Ġstud y
ĠA f
w ith
Ġpoint s
Ġplay ed
pl oy
st r
Ġmodel s
ĠB e
g es
Ġdef ined
Ġ #
Ġs elf
Ġp ost
n ew
) :
Ġh old
Ġw on
Ġtot al
L ambda
( "
} }$
3 3
ĠNov ember
ĠS ec
op er
c ul
Ġshow s
che s
Ġw omen
at ures
g in
: //
Ġdisc uss
ĠDe cember
20 20
4 5
ur b
oc ial
9 0
Ġwith out
l ing
Ġrele ased
8 0
Ġ >
um an
ĠC o
Ġl and
ĠCh rist
un g
ĠCan ad
Ġen g
s elf
ĠBrit ish
b le
com m
Ġa ff
Ġp at
Ġ )
a ction
A T
Ġgo od
H e
Ġpre d
Ġan other
du ct
et ic
Ġhe re
ograph y
O N
Ġd eg
A S
ent ion
p p
ĠW ill
al es
eb ru
lang le
Ġin f
z e
s f
Ġsh ort
op t
ld ots
th ough
Ġinv est
d d
yn am
eta il
Ġex ist
are nt
Ġn ext
Ġth ough
Ġs ize
ebru ary
math frak
Ġdescrib ed
er ing
19 0
bold symbol
3 5
ĠR eg
n o
Ġh ome
w w
h am
se qu
ap e
Ġp ot
ac ed
in o
is f
o or
Ġstr ong
es p
Ġimport ant
od es
Ġst ates
Ġ et
er ed
os p
ix ed
20 00
d e
ap an
f ield
ĠK ing
Ġinclud e
Ġd ay
Ġcom b
Ġcomp let
Ġd iv
Ġcomp et
re am
Ġc ar
Ġdist ribution
ĠS y
pl it
> </
200 5
ys is
Ġreg ion
app a
ot imes
T o
Ġstruct ure
Ġch ang
ĠF l
Ġcon f
ir on
il le
id ual
Ġt yp
3 2
Ġch o
U n
Ġo ld
ĠP art
t rans
our ces
Ġme an
Ġar g
olog ical
Ph i
ensure math
S ee
Ġb re
Ġcomp any
st er
ress ion
us h
u k
a ugh
em pt
cite p
ĠS up
Ġa ver
on y
ĠThe re
ĠĠĠĠĠĠĠĠĠĠĠĠĠĠĠĠ ĠĠĠĠĠĠĠĠĠĠĠĠĠĠĠĠ
Ġre se
al f
ĠB y
Ġposs ible
Ġman ag
ang u
_ _
ĠLe ague
7 5
in ition
con om
> <
ĠT o
mb ox
l ation
Ġc ou
ĠF ebruary
Ġappro xim
it her
Ġt imes
oun c
ex p
Ġt urn
Ġf ew
iv ity
s er
t ies
ampions hip
Ġinv ol
ĠH ar
u x
Ġm agn
ic le
ĠE d
g ed
Ġph ot
Ġcare er
ĠA fter
Ġvi ew
Ġd el
iv ate
n abl
200 4
text it
} )$
Ġs k
** **
ren ch
Ġm ember
. \
ed er
Ġy our
Ġpop ulation
c irc
Ġh istory
} ;
ĠM ed
ĠM c
iqu e
lect ed
a ult
ict ion
ent ly
i us
ud e
âĢ Ķ
w ays
ra ft
k appa
ĠN o
sub set
ra p
ĠY ou
cent ury
Ġorig inal
ad d
Ġ ide
th is
e ak
cl ass
Ġf ull
Ġpro m
Ġbir ths
Ġm ax
9 9
o ff
Ġv ol
Ġsign ific
ĠA rm
7 0
Ġfilm s
Ġto wn
lev ision
p ose
Ġs ide
Ġf urther
Ġ* /
Ġthe ory
ĠH is
et er
t ime
} ),
m ult
== ==
Ġg row
Ġbe gan
Ġhe ld
ĠThe n
ĠB ut
non umber
Ġph ys
Ġpot ential
t able
ce ption
Ġl ess
ro ll
3 1
st and
w ide
ĠW est
es e
ĠC or
Ġsat isf
Ġto ok
Ġw ar
Ġde b
Ġa ut
an a
Ġcont rol
re w
ener al
il es
ĠEng lish
Ġl ook
ight s
ord er
i ef
Ġprodu ct
Ġobtain ed
nabl a
A merican
b it
Ġs ay
Ġchild ren
ĠP res
ĠB ar
im um
Ġf ive
../ ../
i i
Ġstand ard
Ġs it
m at
Ġpos ition
ĠAf ric
ht ml
Ġa uthor
Ġe p
\ %
Ġb usiness
oc us
a ul
ĠR ec
Ġf r
Ġn amed
dot s
Ġal gorithm
Ã ¡
Ġm ot
con t
ad em
Ġestabl ished
Ġd ensity
uc k
Ġcomp on
Ġse qu
end ing
Ġcomp lex
Ġe as
Ġc over
Ġn ational
}} {
ĠS w
ut ions
Ġtr ue
ond on
Ġed uc
ĠR uss
Ġth ird
cl us
Ġc amp
Ġp aper
R E
ĠD ist
in ally
Ġam ong
Ġg reat
B y
Ġch ange
Ġcount ry
Ġhel p
P s
ĠJ apan
h old
Ġj o
\ |
ĠĠĠĠ ĠĠ
Ġs ix
p d
Ġloc ated
Ġof ten
al d
Ġa ge
Ġk ey
ĠL et
iv idual
Ġg raph
6 4
u ation
c it
Ġw ant
ĠThe se
Ġl a
Ġst ation
arg et
Ġrece ived
Ġ- -
Ġperform ance
Ġim pro
ide o
n ame
ail able
if f
ing ton
\ [
Ġprof ess
ob al
S igma
Ġf ree
Ġh ouse
Ġr ange
d om
Ġmat rix
Ġparamet ers
ĠA b
Ġrel ations
ot es
Ġa ction
b ox
Ġfunction s
ab les
un c
N ame
ĠS an
Ġlim it
Ġfe ature
Ġconsider ed
on es
ilit ary
, âĢĿ
s l
Ġre cent
Ġind ic
Ġro le
ra g
A r
Ġpubl ished
I D
ab ly
200 3
i ents
Ġf ore
i ber
al se
Ġle ast
ĠĠĠĠĠĠĠĠĠĠĠĠĠĠĠĠ ĠĠĠ
Ġre pl
/ \
3 4
ĠA m
âĢ ľ
ounc il
ur g
it or
Ġsol ution
Ġspec ial
Ġm illion
Ġc er
Ġcl ub
Ġk e
ĠA ir
ip le
Ġappro ach
Ġar ch
Ġcomm on
l oc
ĠE n
ran sp
Ġcl aim
k n
Ġ enc
ak en
Ġr ate
Ġsignific ant
Ġserv ice
id ence
Ġdif f
S p
ĠCol lege
d raw
is ing
} -
Ġd etail
as ing
Ġg ames
re st
Ġvari ous
r ary
Ġbu ilt
v iron
Ġl ight
Ġc irc
Ġf ac
ĠS ch
ĠM e
Ġequ ation
Ġ vert
Ġconst ant
ĠL ondon
Ġinclud ed
Ġm en
Ġap plic
arri ed
Ġv ill
Ġbec ome
Ġl ower
re et
ĠE l
Ġcol l
Ġ q
ch ie
in ter
Ġsystem s
s ource
6 5
ab or
Ġp ri
Ġvers ion
at ural
ĠD av
t d
Ġatt ack
ĠA ct
ĠCom p
.. ..
he ad
wid et
Ġc ross
Ġrespect ively
Ġf und
ort s
200 2
Ġst ar
L ist
Ġp ract
Ġh ref
Ġin fl
ĠWill iam
ĠO ne
Ġre d
f ord
Ġcomp os
Ġcent ury
ĠH ouse
Ġaver age
Ġ` `
Ġse par
con st
Ġb orn
ial s
n a
Ġb i
Ġanal ysis
i et
ic y
{ -
( '
Ġtra ining
op h
Ġh owever
row n
20 21
Ġan t
ĠP ark
ampl es
Ġwrit ten
Ġw ater
200 1
Ġc r
tt p
\ !
es tern
ar ian
center ing
Ġe lection
in ary
m ost
Ġt itle
l in
Ġm om
Ġl angu
Ġserv ed
Ġ( $
ric k
Ġbuild ing
ri ption
T ype
widet ilde
Ġc ost
Ġp air
Ġrese arch
ac he
Ġhig her
b r
Ġcorrespond ing
Ġinit ial
s up
Ġcons ist
Ġcon c
Ġc ases
ure d
Ġind ividual
ĠCh ar
c or
Ġn eg
itt le
Ġav ailable
F ig
le te
a ut
Ġa ir
th m
ĠH igh
S h
ĠF rench
al y
4 8
ut ure
Ġh aving
Ġh y
our s
ĠH er
) (
Ġqu est
on se
og n
9 5
3 6
A C
ĠD ep
st yle
A N
sc ript
Ġst yle
t op
R e
Ġh om
S S
Ġd on
I I
Ġcommun ity
pr ime
Ġse en
I d
Ġd imens
3 8
and om
z eta
Ġcondition s
Ġin s
com p
c ast
Ġsup er
R es
r ite
Ġcal cul
Ġph ase
r ant
Ġtem per
ĠA ng
Ġw id
sh ip
0 5
ul a
Ġf low
Ġp ath
am a
ĠG l
ma x
Ġdevelop ment
Ġf ocus
Ġpr im
y l
ĠA g
Ġal ign
Ġev ents
ĠB ro
Ġfre qu
Ġth ink
\ {
op s
\ ]
Ġprov ide
ĠM on
t ype
ugg est
O R
Ġind ependent
ĠA mer
Ġs w
get her
Ġto gether
Ġc ult
al t
Ġspec ies
m essage
ĠIn ternational
Ġfe atures
ly ing
c ap
Ġpl an
un ic
A L
u ed
Ġe ar
Ġparamet er
Ġbl ack
iv en
I f
ar ies
Ġgroup s
Ġyou ng
Ġth us
Ġem ploy
ĠGerm an
ĠThe orem
Ġp ort
oci ety
tab ular
oc ument
; \
Ġs em
Ġe ither
3 7
} +
ot ed
Ġt w
u ild
ec ess
if orn
g l
fer ence
im port
w are
) =\
Ġg e
Ġwork s
an ish
Ġa rm
ra in
Ġl oss
av y
Ġacc ount
om orph
ĠS er
rid ge
ĠE q
ĠDist rict
Ġs m
r r
Ġpro of
ĠL em
v ing
ĠPh il
ĠW hen
~ ~
o on
ul es
P l
Ġme ans
Ġg en
Ġs ent
Ġ _
s cal
viron ment
Ġf ail
Ġplay er
Ġdist rict
Ġab s
0 1
iforn ia
Ġh uman
Ġann oun
h ib
Ġs uggest
Ġa chie
ourn al
ĠP er
is c
a ff
ĠPres ident
ur ity
itt ed
du c
Ġte levision
{ (
Ġst ory
u ff
Ġline ar
Ġs ocial
c ode
18 8
Ġl ay
E N
Ġmat ch
Ġd at
4 4
b ased
ĠS ection
Ġbel ow
o ch
Ġbet ter
b or
pl ies
Ġassoci ated
Ġbe com
B C
} ]
em s
} =\
Ġl og
Ġk ill
iv il
att le
Ġe conom
Ġlin es
ĠW ith
Ġpos itive
ĠCh ampionship
Ġac ross
ann el
Ġsy mmet
il ities
min ist
oci ation
Ġs ource
ress ed
g o
in n
Ġd ied
it ect
) ^{
ĠM ich
Ġdep end
St ring
Ġc ell
read y
Ġprodu ction
ib ility
Ġim age
wh ich
ĠQ u
Ġt ext
Ġfin ite
ly mp
Ġpr ivate
) }\
ac y
Ġne ver
Ġc ame
Ġn ov
Ġ& =
Ġn umer
Ġpolit ical
Ġh ost
k ey
Ġt aken
Ġh istor
um e
er a
or ge
et t
ĠAmer ica
Ġg round
Ġde v
c os
om b
I nd
Ġp ut
Ġl ik
Ġb ase
Ġh alf
I C
. ~
5 5
ĠCal ifornia
3 9
use um
ard s
em ents
s in
$ )
Ġl ength
Ġm ater
Ġ error
ĠL a
ĠC up
Ġg ive
s w
199 9
Ġd ynam
Ġpro posed
ĠS ince
Ġl ed
Ġacc ess
al ax
Ġmethod s
C ol
Ġ ill
ch an
ĠC our
Ġreg ular
b b
ac hed
Ġv ector
ar a
Ġv ia
Ġr andom
Ġt re
E C
ĠInd ian
Ġab le
Ġprodu ced
Ġproper ty
ir m
Ġh ard
, "
Ġan g
le g
Ġs on
re c
ĠC he
ord in
r ig
p oint
Ġs ite
ho od
Ġbeh av
ul ations
Ġbel ie
ret urn
Ġm er
Ġcre ated
Ġstud ents
oy al
Ã ³
V al
Ġal ways
Ġn orth
Ġro und
}_ \
Ġc aus
Ġag re
ĠEng land
Ġf ri
ol ic
Ġcor re
ec ut
Ġre view
Ġhe alth
Ġrequ ire
Ġm aking
ĠH am
}^ \
Ġb o
p ly
e h
n ode
Ġd ays
ce ed
Ġproper ties
ap s
199 0
pl ied
Ġd ou
ig en
par am
A M
ic o
Ġn ormal
math sf
ge bra
Ġcl ose
her s
Ġinvest ig
Ġe mb
, -
Ġestabl ish
Ġc y
l o
Ġin ternational
}) \
ap pro
ĠR iver
Ġl ate
Ġconst ruct
Ġstart ed
cdot s
f oot
land s
Ġp o
art ment
Ġdeg ree
her n
ur ation
ĠE ast
ĠD iv
ransp ort
Ġind ust
I S
ar c
id ing
ĠCh urch
{ {\
it z
Ġwork ing
it te
Ġbro ad
Ġal ready
Ġf ar
Ġw ent
4 9
Ġrel ated
a el
6 6
Ġto o
ĠV al
Ġobserv ed
Ġd ire
Ġm ight
Ġ= >
}\ ,
op y
Ġmult i
Ġme et
ĠA c
wide hat
18 9
Ġin put
idd le
Ġgo ing
and er
Ġmom ent
ĠT r
) ]
Ġf ather
c le
199 8
val ue
ĠM ore
} |
ĠS o
Ġcou pl
p ect
Ġm iss
at ives
ens ion
s ize
Ġcer tain
Ġserv ices
4 7
Ġf ig
ac hes
}} (
Ã Ń
lem ma
text width
ell ow
s ing
nd er
Ġset t
c y
Ġact iv
ĠF irst
Ġs old
Ġwe ek
Ġequ ival
ĠInd ia
Ġwh ose
w ise
Ġf uture
Ġprov ided
n ow
Ġl abel
ĠPart y
Ġelement s
I T
r ated
# #
Ġsc he
Ġeng ine
med i
Ġap pe
ĠAustral ia
ĠEurope an
S c
Ġsur face
Ġs om
ĠC ouncil
Ġz ero
Ġ Ã
Ġexp ected
Ġpartic ip
Ġs outh
iz ing
ĠB er
Ġreport ed
Ġvill age
Ġr at
Ġv ideo
Ġfact or
Ġ !
Ġacc ording
cc ording
^ +
Ġ\ {
& =
Ġdef ine
c is
Ġp erm
Ġel se
Ġmov ed
ribut ions
Ġex ists
in ated
ĠP al
Ġimp lement
Ġlarg er
Ġcomp ar
L E
Ġrequ ired
ra int
s mall
q quad
' )
u f
y ear
Ġbe gin
Ġn ode
Ġpred ict
ir l
Ġt arget
Ġother s
oun ter
Ã ¼
" /
il i
ers hip
Ps i
Ġl o
g en
m ark
Ġpres ident
Ġun it
Ġb en
ĠS im
ul ated
Ġn ull
av a
Ġst ep
Ġh app
Ġvi ol
Ġw ind
v an
Ġsh ip
ar ning
ĠH ol
ĠCanad a
l or
ĠA ward
av es
Ġinfl u
A P
Ġcl ust
it ch
c up
ĠâĢ ĺ
ĠD r
and id
qu are
ot a
Ġn ecess
Ġa ward
P eople
N ew
ult s
i res
at rix
ĠFig ure
Ġof fer
Ġsim ple
Ġp ress
Ġre ason
stit ute
L iving
Ġf em
Ġn atural
ĠS m
Ġdist ance
Ġm ilitary
Ġwhe ther
h a
ĠA p
Ġex act
Ġd est
u el
}^{ (
Ġlangu age
7 8
Ġa way
Ġexper iment
Ġatt empt
m on
Ġback ground
Ġm em
Ġconst ruction
Ġr ather
it ing
Ġaddition al
Ġrec ogn
" )
oc r
Ġscal e
Ġl iter
Ġf ixed
199 7
rac y
0 8
Ġannoun ced
Ġsp in
Ġprob ability
ro te
Ġ$ (\
6 8
A t
Ġcent ral
Ġpop ular
Ġp ast
m ar
ĠP aul
ed d
ĠS en
I nt
ill s
s el
an ies
l ike
itt ing
ash ington
ear ch
ĠJ ames
Ġev al
trans lation
g ress
ĠĠĠĠĠĠĠĠ ĠĠĠĠĠ
ut es
}\ \
n ey
ĠM y
ĠB el
p ing
ĠG eneral
ĠSt ud
ĠFran ce
ĠF rom
Ġdevelop ed
Ġwork ed
k ing
ist ics
Ġquant um
Ġanal y
b and
199 6
Ġp ay
ĠCent er
om s
pd f
eff ic
Ġsequ ence
c ell
ĠArm y
Ġst ring
] ,
20 22
D E
ic ol
ain ed
ra ction
ĠCour t
Ġcontain s
Ġp ur
Ġg alax
v ille
Ġne igh
d own
ĠR ober
The re
Ġperform ed
qu e
198 0
x space
ĠD em
ect ions
Ġlead ing
H istory
ic ult
Ġr ank
f unction
ber g
Ġsub ject
Ġal most
Ġcom e
e in
Ġt reat
Ġmark et
m ore
d ata
a ign
r im
Ġcon duct
( {\
Ġon ce
ag o
S E
"/ >
Ġm ale
0 7
Ġent ire
ĠO lymp
pro p
Ġc ut
Ġare as
ra b
ĠL aw
Ġfield s
g roup
Ġf alse
Ġtemper ature
ic les
ĠM or
ĠLem ma
itte e
ell ing
Ġthe refore
Ġb ody
ĠCh ina
ĠA nt
ort hern
bs ite
ind ent
ĠTh om
Ġt rack
A fter
ĠSt reet
0 4
Ġgiv es
k en
0 2
erv ice
Ġt ry
ra el
ĠDav id
ir t
ĠTh at
Ġoper ator
ber t
Ġassum e
Ġdeath s
A A
Ġh on
Ġle arning
Ġb ig
Ġen ough
ve y
st ate
en ed
W ith
C O
eder al
Ġst re
Ġunder stand
at ory
ĠM al
ther n
ar ily
ĠM ark
ĉ Ċ
cit et
equ iv
ou d
y a
L e
A d
Ġdi ag
m ap
sk ip
f o
ĠGe orge
Ġpresent ed
Ġeduc ation
Ġ Â
Ġeffect s
m y
Ġc ateg
Ġpr inc
u it
end er
ĠP ort
C C
ĠD i
ou thern
o e
6 7
Ġep is
Ġinst ead
Ġp an
199 5
ĠTh us
0 9
Ġv ar
D e
Ġf il
Ġde cl
k y
Ġexp ect
Ġc lear
im ate
Ġintrodu ced
} :
n ote
Ġspec ific
am s
Ġl ive
ran ch
ens ive
Ġapp oint
0 3
Ġw rote
if orm
ĠR ich
Ġarch itect
ast ic
. )
d imens
ĠR oman
Ġcont ract
Ġbound ary
ĠAss ociation
Ġbas is
at ively
Ġgl obal
Ġd one
Ġclos ed
Ġ& \
on ic
ree k
Ġdirect or
kn own
ari ant
Ġgra du
Ġ= =
Ġocc ur
ĠR ed
}} {\
all s
Ġ& &
ĠW ashington
Ġresp ons
) -
st ar
0 6
Ġpart y
ĠDep artment
Ġbl ock
al le
Ġcon text
i ers
h space
Ġcan not
Ġs ens
] $
il ton
Ġst ars
ĠUn ion
Ġbre ak
ign ed
he l
f ill
m id
Ġen vironment
ic ro
r d
oun tain
ct or
Ġre v
Ġcent er
Ġequ ations
ĠQ ue
ain s
Ġg as
Ġme chan
Ġmult iple
el oc
Ġt aking
as ons
Ġc le
ari o
an i
ip al
ag ed
Ġpolit ic
Ġm id
ott om
4 6
199 4
Ġar r
Ġeffect ive
Ġc andid
r up
Ġl ittle
ri ate
O b
Ġcomp lete
umb ers
id s
oper at
ĠI m
Ġstr ateg
st ring
Ġhold s
5 8
Ġdeb ut
Ġpri or
wo od
plic it
Ġtrad ition
ĠH all
} +\
Ġs ays
M od
Ġsuccess ful
Ġincre ase
Ġinclud es
Ġrad io
Ġh or
Ġcol lection
id a
Ġm ag
operat orn
Ġp arent
Ġc ode
e al
ĠS um
m ing
Ġchang es
| ^
o res
Ġed ge
l oad
Ġl ost
Ġcon v
led ge
Ġcor rel
tt ps
m ary
n eq
ou l
Ġro ad
Ġreturn ed
ec k
Ġch urch
ĠP at
operatorn ame
ri an
Ġreg ard
Ġ id
A ll
un n
ĠG roup
F rom
o oth
ish ing
ĠL ou
Ġdiff icult
ribut ed
S e
f rom
ĠR ef
p on
ĠBl ack
Ġle arn
Ġwe ight
y ing
Ġam ount
Ġcour se
ur rent
Ġden ote
9 8
Ġmed ia
it ude
ĠGerm any
Ġp ers
ĠR oyal
7 7
Ġright s
e le
ĠO b
rib ute
sc r
ra z
ul ly
Ġcomp ared
199 2
Ġquest ion
al ian
Ġs ample
Ġdef inition
G e
Ġper cent
E S
ĠC ont
Ġst age
Ġre ally
Ġm arried
Ġset s
Ġac cept
5 00
ad es
197 0
Ġal though
Ġch all
it es
ĠM a
Ġjo ined
Ġc apt
un ity
Ġresp onse
t est
' $
Ġmat ter
Ġnov el
Ġ rac
p en
W h
Ġtrans fer
ĠL ist
d en
st on
ĠD ef
as c
ĠD on
Ġv ict
Ġcour t
4 2
Ġsu ff
Ġcre ate
r ast
k ed
Ġind ex
Ġequ al
Ġstud ies
S ince
Ġpol icy
a ctions
Ġinter p
Ġadd ed
} -\
umer ate
Ġd ocument
Ġv eloc
ta ct
the orem
Ġ- \
Ġdire ction
âĢ ¦
scal e
ĠJ ew
ĠDiv ision
ĠN e
Ġt ax
ec ially
Ã ¶
l a
E D
oc al
Ġproblem s
and s
Ġcomp anies
ĠE m
ed ge
e an
Ġ Ð
Ġoff ice
Ġrele ase
Ġrelations hip
Ġcol or
Ġk ind
Ġde al
ĠIn stitute
C ont
ib rary
R ec
d ag
on al
i ew
) }{
um p
Ġdat as
ĠĠĠĠ Ċ
Ġsh all
u ra
199 3
Ġprov ides
iz es
Ġcontinu ed
t ic
Ġs ound
Ġra il
Ġmon ths
Ġup on
D ata
Ġwe ak
| |
ĠM art
ĠM od
Ġt en
Ġnot e
Ġrequ est
vers e
Ġv oid
Ġke ep
ĠG reen
Ġtrans form
Ġad minist
in i
Ġconst raint
4 3
ĠAr ch
en umerate
Ġpro p
Ġits elf
Ġgo al
Ġg rad
Ġlarg est
ĠComp any
ach ing
D ef
ĠP ress
Ġfor ce
Ġco ordin
c ing
ch ange
ut il
ĠC ong
ro id
Ġso ft
ww w
Ġcon fig
-------- --------
is es
Ġprofess ional
dimens ional
port s
is k
ĠG od
Ġfr ont
Ġdem on
Ġmet ric
ĠM ary
p re
m it
ict ure
Ġsol utions
ĠIs rael
g color
ist ry
( -
Ġm akes
B l
ĠM usic
us ed
Ġche ck
ust om
n ce
Ġdef e
Ġmagn etic
ĠC ons
eth ing
Ġcount ries
ĠB ay
ĠD uring
Ġ( )
is ions
enc ies
omorph ism
Ġim plies
A nd
Ġinst ance
Ġcamp aign
\ ,\
$ }
I m
Ġear li
c ial
Ġeff ic
th ing
Ġim ages
d t
ed y
Ġ esp
Ġw ords
ĠAustral ian
Ġro t
ĠRober t
Ġn uc
Ġopen ed
th at
"> <
ĠM ex
ĠWh ile
Ġsong s
Ġdiffer ence
um ents
ines e
ĠB r
ol ar
h an
Ġrest rict
) }$
~ $
Ġ %
no indent
Ġf ram
Ġpart s
Ġw rite
ĠAc adem
Ġincre asing
Ġwe bsite
ess ion
5 7
Ġpro ve
l ist
Ġinvol ved
Ġmod ern
] [
ĠM r
Ġass ist
Ġj ud
ĠV ol
Ġcompon ent
Ġg ot
Ġcont ent
all ed
ag er
ous ly
Ġal gebra
Ġa ud
Ġrepresent ation
ĠIn ter
Ġdirect ly
os en
Ġm other
Ġqu al
u z
Ġform ed
b re
ffic ient
Ġs ources
Ġ ver
Ġbro ther
4 1
Ġteam s
Ġcol umn
li ament
Ġfl u
ĠU K
Ġ und
199 1
] .
Ġphys ical
k a
g s
Ġd augh
Ġbecom es
item ize
Ġf av
Ġrel ation
Ġad j
math scr
] \
at al
Ġco effic
9 7
im ents
Ġout put
P S
Ġp e
F F
Ġgener ated
Ġde part
Ġconst it
Ġw ife
er ve
ri a
ĠS ociety
un t
Ġsmall er
P ar
ĠV ir
c hed
ĠC ath
ew ork
Ġb gcolor
le vel
ĠT V
}} }
Ġp aint
Ġiss ues
Ġcomplet ed
Ġup per
Ġhim self
Ġl iving
ĠN or
Ġm ove
p x
r ate
Ġac qu
Ġm ention
Ġt akes
Ġrel ig
clus ion
au ge
Ġdirect ed
Ġw ave
Ġwh ite
re y
Ġtrans ition
ĠJ ack
ar ing
appro x
ĠH en
Ġdisc over
i os
5 6
ect ors
op l
Ġimp act
Ġmax imum
ar ter
Ġrecord ed
Ġthrough out
ĠAng el
Ġiss ue
Ġn umbers
Ġev olution
ĠAfric an
S et
n es
a res
ow s
enc ed
est ival
Ġelect ron
iz ations
ask et
sp ec
ens or
b ook
ĠG o
A D
Ġun ivers
**** ****
Ġap plied
b ound
Ġy ield
f ile
Ġun ique
anc ial
in st
in ite
Ġsc en
Ġ row
ok e
l ight
Ġcon ver
ĠT ra
}} _
ens us
Ġadd ress
v space
ĠAfric a
Ġfollow ed
Ġj ob
Ġus er
9 6
l ong
Ġra ce
b oard
ĠĠĠĠĠĠĠĠĠĠĠĠĠĠĠĠ ĠĠĠĠĠĠĠ
Ġrem ov
ĠT ur
he st
P i
Ġ ess
ro y
Ġlik ely
ang le
Ġcompon ents
ĠT ex
ĠR oad
e es
w rit
Ġ err
Ġoffic ial
umn i
Ġin du
ent al
Ġdec ision
\ }$
it ar
ĠCanad ian
Ġth ings
o z
Ġdesign ed
Ġ: =
i ation
Ġspect rum
il ies
Ġex hib
Ġopt im
Ġre n
Ġesp ecially
Ġout side
b urg
ĠChrist ian
196 0
Ġsign al
ing u
Ġact ive
198 9
8 8
( $
ĠCl ub
Ġschool s
Ġstud ied
ĠR ev
osp ital
ĠThe refore
ol it
Ġcrit ical
Ġf ight
ĠI nt
ĠD irect
ĠS ing
Ġe ight
ref er
Ġb oard
ĠPro v
mult icol
L L
I M
Ġval id
ac c
Ġus ually
O S
i ences
Ġsign ed
Ġex ecut
18 7
ans ion
ĠM iss
k er
ĠIs land
Ġst op
C D
Ġcurrent ly
Ġt able
U S
Ġst ri
ĠE ar
Ġthe orem
ĠKing dom
ĠCent ral
Ġ _{
Ġe ver
multicol umn
ĠC ap
Ġne ut
Ġfor ces
ĠWh ite
ĠM useum
Ġappe ared
on a
ĠD o
N ot
Ġt er
ĠG reat
Ġse arch
Ġp eak
Ġf ire
Ġim m
I s
Ġd raw
is ation
Ġn om
Val ue
Ġsub sequ
a it
ĠR ad
ĠM et
ĠL eg
Ġto day
n s
ĠG old
ĠRuss ian
198 8
d ist
Ġrema ins
Ġh ous
al a
Ġe igen
g ence
Ġben ef
Ġbook s
^ -
ĠB o
Ġch annel
) +
emb ly
Ġb ox
M S
Ġde cre
s plit
Ġup d
{ $
h ttp
ind ex
Ġro ck
Ġt ro
Ġexper ience
ĠMich ael
O ne
Ġdeterm ined
alle l
an ks
t urb
E T
8 5
Ġin sp
ant ic
Ġsom ething
T e
Ġreg ions
c an
W hen
Ġre ve
Ġplay ing
Ġinst it
Ġwho le
m s
Ġtyp es
Ġl ot
Ġbehav ior
ĠSy stem
Ġev idence
text rm
Ġg ave
Ġcho ice
Ġst atic
Ġb ar
Ġc ast
Ġallow ed
in ct
ĠT own
Ġs ense
Ġus es
Ġch arg
us ion
t ra
yn om
ĠB est
b ody
ĠThom as
ĠM ad
Ġc ivil
in it
ov ers
Ġk m
Ġwid th
h i
ĠN ot
el ine
Ġmon ey
p ath
ĠA lex
ĠS l
] ;
Ġvari ables
Ġestim ate
N N
Ġacc om
ĠY ear
Ġveloc ity
Ġal tern
Ġcon clud
ĠSc ott
Ġconn ected
w ell
Ġide a
Ġmater ial
Ġcommun ic
Ġdemon str
Ġstruct ures
R O
Ġobject s
Ġoper ations
Ġor d
b our
Q u
" );
Ġim medi
Ġun its
ough t
ĠJ ust
line ar
sel ves
ĠW estern
ran ge
ot ic
dis play
Ġelect ed
Ġbir th
Ġsupport ed
Ġs ex
re me
ĠG ames
5 9
en a
Ġto wards
& &
ĠF ound
Ġallow s
Ġill ust
ol f
Ġs af
Ġf all
ĠMin ister
g ing
Ġloc ation
Ġfound ed
Ġtra vel
Ġ\ ;
ĠK ore
id ents
Ġse lected
V ert
ĠO ff
Ġrat io
ĠS am
Ġpol ice
Ġindust ry
ĠW il
ĠH istor
Ġequival ent
Ġthough t
Ġdom ain
ĠTex as
Ġn ight
Ġdetail s
ĠJapan ese
Ġnew s
Ð ¾
Ġad opt
text tt
S P
Ð °
ĠM at
ĠD ay
ip p
ĠAcadem y
Ġf it
Ġad apt
Ġl ove
ĠM ont
Ġm ix
Ġset ting
{ }
Ġprevious ly
Ġg overn
5 1
ad o
Ġbeh ind
at us
Ġclass ical
Ġs us
Ġneed ed
r ish
asket ball
The n
Ġad m
Ġw ord
ĠR et
5 4
Ġt ransport
Ġe mer
Ġalbum s
ĠT able
E n
Ġge omet
Ġsp eed
Ġpre c
ĠM us
5 2
Ġp ack
ĠG rand
ĠSc ience
Ġcon cept
h y
ac ing
ĠCh inese
Ġperson al
Ġappoint ed
ann ing
ĠLou is
Ġdimens ion
ĠS al
ad a
Ġch arge
ect s
}^{ -
or ing
duc ation
Ġsur v
==== ====
Ġse ven
air s
ĠDem ocr
Ġsim ply
ĠS ome
en ing
ag ing
Ġact ually
Ġs il
subset eq
k i
Ġfrequ ency
az ine
d i
Ġwrit ing
ĠComm ission
Ġd am
Ġf ile
Ġ\ |
5 3
Ġconc ern
re qu
aus s
Ġrel ative
ĠRep ublic
Ġcorre ct
N ote
Ġstre ng
ri ef
re p
ĠM ag
Ġt ask
Ġprim ary
ĠB ook
ĠCar ol
Ġto ur
198 7
Ġy et
Ġj ournal
h and
rr or
n b
Ġpat tern
ĠF ilm
The ta
Ġresult ing
big g
ĠCl ass
omet imes
Ġd ram
d s
ĠVir gin
6 9
min us
ĠN ote
M an
ict or
o ice
Ġde ep
Ġrepresent ed
Ġfe el
Ġd ate
k m
Ġg auge
ĠM er
oc ks
Ġnecess ary
Ġlong er
Ġin j
} /
ac ity
ify ing
F A
St ate
f ess
is l
Ġpro ced
ric es
Ġd ed
ĠNew s
in os
I R
w est
re ater
F L
ĠT om
Ġ ir
ĠChar les
Ġeval u
un ch
Ġl atter
am ily
Ġcomm and
Ġdaugh ter
ĠB ill
Ġm us
ol s
at form
ers ion
) {\
A B
l n
Ġe ast
Ġgener ally
Ġst ated
t ical
ĠRec ords
Ġlim ited
Ġle ague
6 3
Ġgrow th
ĠHam ilton
ic ago
ar r
ip s
198 6
ĠRes earch
Cl ass
Ġpract ice
et her
b ul
Ġfri end
ĠIt alian
Ġpl aces
loc ation
ĠB en
Ġder iv
ta int
Ġocc up
under line
re land
Ġsu fficient
rough t
rup t
ĠM ac
} '
ollow ing
ĠS aint
Ġw est
Ġmain tain
th let
x y
l ength
Ã ¤
r c
Ġearli er
Ġcap ital
ĠP et
ir it
ĠCath olic
sh ire
ru le
Ġinterp ret
irc raft
< \
Ġfl ux
Ġsc ient
ĠS ur
Ġro b
Ġun cer
ĠFran cis
Ġ$\ {
ur l
vent ion
Ġs aw
at ur
ay er
Ġm ar
ri al
b o
198 4
Ġd ig
ĠD an
el t
Ġr ule
foot note
S up
) );
Ġdou ble
att ice
est s
Ġun iform
Ġpres ence
Ġst aff
it a
Ġart icle
ĠA pp
K ey
Ġn ature
ric e
ĠT rans
a ur
Ġrun ning
un k
ĠZ eal
Ġkill ed
ĠF ore
Ġ/ **
ĠSm ith
Ġlevel s
ĠH istory
Ġc red
ĠC O
ĠW ork
n ers
n orm
Ġwh y
F orm
Ġgu itar
comm and
ĠFran k
Ġappear s
w ar
ro s
erm an
ĠR ail
O r
mod el
Ġcom es
Ġinteg ral
l am
Ġt ree
amet er
P r
Ġexp and
Ġexp ression
Ob ject
at re
Ġon line
og le
Ġt rac
ĠO ther
ĠA ccording
l ink
w in
Ġevent ually
ĠZeal and
6 2
ĠJ ose
Ġs eg
Ġpol ynom
Ġapplic ation
ĠL at
Ġover all
Ġs en
ec ause
Ġcharact ers
Ġfam ilies
F ilm
Ġrepl aced
G et
Ġass ert
Ġa x
ĠH ow
Ġent er
ĠSp ec
ĠCong ress
as tern
Ġt ell
ĠT or
Ġexp ress
Ġfig ure
ro ad
Ġredu ced
ĠFl or
y r
Ġext ended
rodu ction
Ġf ood
Ġf ace
set minus
rad e
S I
198 5
A ss
Ġdiscuss ed
Ġobserv ations
Ġd ark
Ġmon th
i pl
ĠSec ond
B ut
Ġn ames
ab s
v ant
Ġrecent ly
u i
6 1
Ġknow ledge
Ġto ld
Ġl ack
pro d
ĠComm ittee
ĠSum mer
ret ary
dag ger
Ġbuild ings
m en
Ġp ark
E ng
Ġ$ |
cre te
ell ar
Ġm ach
Ġapp ly
ĠSup er
ĠS ub
Ġdiag ram
^{ -\
Ġbel ong
Ġhe nce
ĠPar is
ist an
ĠSt e
or por
ĠL os
Ġapproxim ately
ĠL and
Ġinter action
ĠP eter
Ġ( $\
it iz
Ġb ur
d ec
Ġoper ation
Ġoper ators
Ġfootball ers
Ð µ
Ġlist ed
Ġhig hest
Ġin equ
u ge
ĠM ass
Ġform s
al o
Ġd rop
ĠO ur
Ġneg ative
Ġfem ale
st ruct
Ġincre ased
_ *
Ġgra v
ĠP ublic
ĠRich ard
Ġco ach
Ġmot ion
Ġrefer ence
Ġt alk
if old
Ġart ists
r as
Ġb all
ĠG overnment
Ex ception
Ġclass es
ub e
b ur
Ġexp ansion
Ġre ached
g ent
Ġsymmet ry
}} _{
Ġdis play
Ġfor ward
Ġbegin ning
Ġneed s
}} ,
Ġcontinu ous
Ġagre ement
O T
Ġal umni
Ġder ived
Ġno ise
i h
8 7
Ġepis ode
Ġex plicit
Ġv eh
Ġsm ooth
* {
Ġ er
d ro
Ġcol lect
ar p
por ary
Ġav oid
ĠD es
Ġstart ing
m es
u a
Ġch osen
r ont
Ġst e
M A
b ut
Ġcontin ue
S C
st ant
ag s
198 3
Ġa im
Ġst ations
ef ore
ĠTe chn
Ġsy mbol
art s
ĠHe alth
) {
ic on
Ġem ission
ĠD el
ĠP ri
\ }
// //
_ +
Ġorig in
19 50
ĠF ootball
ian ce
ĠOlymp ics
Ġeconom ic
ĠR ob
Ġst ra
Ġb ring
ĠĠĠ Ċ
v is
pl ace
ĠSt ring
y e
i ra
E E
Ġorig inally
Ġsc ience
Ġ$ -
an o
Ġaut om
Ġparticular ly
Ġmov ement
Ġnot ed
ot o
om a
ĠH ill
Ġcom mer
$ _
Ġant i
ell a
Ġtechn ology
Ġsh are
= #
ĠG ra
o o
ĠE v
Ġcomp act
il s
Ġestim ated
z a
Ġleg al
as hed
" ;
Ġmean ing
ed om
ĠB ur
Ġqu ality
Ġcult ure
Ġsche me
Ġop port
Ġfour th
198 2
ann ed
Ġlead s
av al
Ġrun s
Ġsec urity
al ed
Ġmod e
b on
opl us
Ġcon sequ
Ġchang ed
app ing
F C
Ġread ing
Ġ ens
Ġgalax ies
S ec
Ġor g
ol a
Ġproduct s
ir al
ĠSp anish
Ġcont ribution
Ġfin ancial
Ġcons ists
c her
M C
ĠR ock
in y
Ġtrad e
a ud
Ġp age
Ġc ounter
Ġbound ed
Ġneigh bor
ĠAn n
Ġhy per
Ġpl ant
Ġg old
Ġh ol
Ġh ot
Ġdec ided
_{ {\
ĠC amp
Ġin side
u racy
ĠP o
Ġfin ished
ĠCh icago
Ġwrit er
Ġcons erv
ĠH ere
Ġan im
Ġvari able
O ver
Ġm unic
Ġb rought
Ġcur ve
Ġt it
Ġh it
ĠW omen
Ġex cept
ou ri
ĠB oard
8 9
Ġtrans l
Ð ¸
Ġcon tact
Ġcol lege
Ġw ide
Ġ$ [
Ġmanag ement
U T
iqu es
Ġche m
197 9
Ġpl aced
ĠM el
Ġsc ore
ĠFor ce
Ġatt ention
Ġpartic les
h ttps
ĠI reland
Ġit er
Ġsc atter
B S
Ġcon sum
M L
Com p
w edge
Ġthem selves
Ġh yp
Ġorgan ization
) |
ĠAl though
ĠS ervice
in f
ĉĉĉĉ ĉ
per ty
p ublic
k et
os m
Ġvol ume
Ġf ully
it ors
Ġ( -
Ġg rant
Ġs ch
s u
c a
ĠB rown
Ġtra in
ĠL ake
Ġto urn
ri z
col on
inal s
rop y
raz il
Ġlead er
Ġr ules
N o
. [
v ement
ĠRuss ia
p ng
Ġstat us
ig an
Ġb ank
ul s
cl es
Ġpartic le
Ġsc reen
Ġar bit
ish op
P T
Ġapproxim ation
Ġvari ety
Ġmap s
S U
Ġso on
Ġg rand
ĠO ffic
ma in
Ġs low
Ġform ation
ĠGe org
ĠO ut
line width
er ia
Ġpress ure
arian ce
ubl ican
Ġc ele
ĠHen ry
Ġh ours
Ġmiss ing
il arly
Ġcrit ic
Ġra p
Ġpan el
Ġform ula
Ġpre m
ov iet
Ġart ist
Ġfram ework
b t
ĠP enn
b an
ĠV ictor
Ġmed al
and a
( ).
Ġn orm
sub figure
Ġdynam ics
Ġp en
L O
ĠD en
ĠN ow
9 3
V iew
Ġqu ick
Ġs quare
Ġprogram s
ĠAngel es
Ġmin imum
Ġw oman
B A
d et
Ġrema ined
ef ul
198 1
us ing
Ġinterest ing
Ġmechan ism
oll ary
Ġrema ining
Ġlay er
p c
n el
Ġcompet ition
ĠVirgin ia
s m
Ġident ity
n av
Ġb order
Ġc ustom
Ġvert ex
Ġdel iver
D F
3 00
Ġtradition al
Ġg irl
c el
Ġrec over
ĠĠĠĠĠĠĠĠ ĠĠ
Ġ! =
b a
ol k
Ġsit uation
is hes
S O
9 4
ie ce
Ġl at
uth ors
Ġcont roll
), \
.... ....
ap ter
Ġ// /
ir ing
Ġsub set
E rror
ĠT imes
Ġqu ite
Ġprodu ce
ĠT er
ĠU nder
ĠAt l
Ġliter ature
T r
en ge
Ġpl ane
i en
ĠMex ico
Ġp urch
_{ (
A p
N ow
ĠF urther
ĠFound ation
ind er
anc y
Ġthe rm
bl ack
in put
Ġdeterm ine
T V
Ġa ircraft
Ġmeasure d
uf act
Ġmed ical
\ '
Ġinter view
ut ch
Ġar ray
Ġth reat
con n
r at
iv ial
Ġnetwork s
197 6
C H
Ġsh ape
" :
197 8
Ġaward ed
f ect
ĠFlor ida
it able
sy ch
esc ription
S y
Ġpr int
ot ion
ĠIt s
Ġchall eng
ĠI ll
ing er
ĠP an
F irst
Ġd u
Ġstat ement
Ġstud ent
Ġcoupl ing
Ġper turb
i as
or ial
Ġe arn
velop ment
lim its
ock ey
ĠArt s
I G
r ich
9 2
c ome
ĠT wo
sh ift
ren ce
l t
nb sp
res ents
Ġm ur
R eg
Ġuncer taint
Ġex amples
Ġf un
ĠF in
Ġexp on
Ġexper iments
Ġv oc
Ġdatas et
Ġb r
et te
Ġ ult
Ġin n
` `
Ġbl ue
S im
le ase
Ġth row
ĠD is
Ġequ ip
p an
in em
Ġpol ar
Ġtreat ment
j s
ĠPro position
stit ution
Ġb it
197 2
Ġhigh ly
)\ ,
in ant
. _
Ġmoment um
vers ion
pt ions
Ġelect ric
Ġs ometimes
Ġcaus ed
Ġsl ight
ur t
Ġmin or
Ġse em
Ġ| \
Ġc ause
Ġman ufact
Ġmajor ity
Ġcateg ory
auss ian
Ġre pe
Ġ }\
ent h
or al
Ġdescrib e
Ġan c
Ġfact ors
Ġnear ly
f low
197 4
Ġfeature d
Ġemb edd
Ġinflu ence
Ġf ill
Ġm arg
Ġconn ection
Ġeas ily
Ġhe ight
ult ure
g ra
ĠE mp
197 5
for ce
Ġactiv ities
Ġsp ent
Ġplay s
Ġn odes
pr int
ĠSw ed
sk i
() );
rum p
Ġon es
Ġse lection
Ġs amples
Ġf ederal
Ġcont rast
P C
E qu
197 7
Ġrequ ires
) /
) _{
Ġsp at
Ġmention ed
T est
Ġarg ument
Ġan sw
T ime
Ġnumer ical
Ġexist ence
}} (\
el er
d r
l ig
Ġprocess es
Ġcom ment
Ġsp eak
Ġg un
ĠO per
re es
id ae
Ġess ential
n ext
Ġf arm
Ġ\ (
E d
Ġcompar ison
Ġun ion
Ġb rief
Ġc op
ĠK n
ect ing
Ġcho ose
plic ation
Ġ( "
Ġmem ory
Ġbroad cast
) }(
ud d
Ġspect ral
Ġpolitic ian
ĠD u
Ġopt imal
Ġmeet ing
Ġrad ius
v a
ĠI ran
Ġdid n
ĠB re
Ġdis e
7 2
Ġpr ison
fl ict
Ã ¨
ĠD ec
ak er
F T
os ing
H ere
ĠO f
it ation
ĠIt aly
che ck
m et
197 3
Ġn ation
Ġconsist ent
ect ive
H owever
Ġsim ulations
Ġsol id
ot ing
per p
ill er
ĠĠĠĠĠĠĠĠ ĠĠĠĠ
ri ev
Ġclust er
m ann
ĠW hat
Ġident ified
ĠSt ar
196 8
ĠP e
Ġdo ing
ĠM ost
ĠA rab
Ġf if
Ġhouse hold
end ix
def inition
an ced
Ġl attice
Ġex am
P R
m ission
Ġse ems
S he
' _
Ġcoll abor
Ġdesc ription
8 6
ĠC D
Ġinst rum
ĠM o
es h
A G
ĠF estival
Ġsur round
) ^{\
ĠC ast
Ġf ast
Ġac adem
ib ly
c ond
Ġm iddle
Ġsing er
U R
Ġres olution
Ġvert ices
Ġre ach
C o
in v
ed ia
con s
Ġrep resents
Ġ esc
Ġmov ie
d eg
ĠP ost
Ġr isk
Ġdec ay
ul ed
S ub
Ġas ked
Ġsatisf ies
Ġbelie ve
ag ement
ill a
ĠH ence
B e
Ġpass ed
on om
ĠB ank
Ġconstruct ed
7 6
Ġf irm
}$ -
Ġb ul
ac her
az z
= (
Ġg reater
ĠK h
Ġexist ing
Ġfin ally
st ra
ĠSc ot
Ġbas ic
ĠDirect or
Ġsh ift
Ġc ore
Ġam plit
Ġre b
Ġapplic ations
8 4
i ro
in ity
Ġhe avy
Ġstra ight
align ed
Ġd ual
ĠPar liament
ol ved
Ġr ates
Ġf a
Ġ ...
Ġprof ile
Ġcom ing
Ġb al
Ġmin im
ĠS un
.~ (\
k in
ap ers
augh t
ĠM il
T R
ĠT w
F urther
ĠE ducation
ven ue
Ġpre vent
Ġdis s
d o
Ġt im
st ack
Ġro om
Ä ģ
Ġext ension
M ore
ĠO ver
Ġexperiment al
Ġb ranch
ĠG r
if ically
Ġint ers
he ight
ail y
ĠN avy
Ġappro p
ĠOr der
Ġus eful
Ġob ser
i ency
. </
Ġse lect
Ġpl atform
S er
n ormal
N A
a o
_{ -
9 1
n et
ĠMore over
Ġacc uracy
ĠO h
the n
Ġst ay
Ġl ives
Ġsim pl
n y
Ġcorrespond s
Ġf raction
B uild
ĠCarol ina
w a
Ġcomplet ely
Ġrele vant
Ġst ream
Ġwant ed
ic ated
ul ate
Ġfore ign
ian o
for all
og ue
Ġj oint
Ġdist inct
re al
Ġsup p
Ġcon cent
"> </
197 1
ell ed
irt ual
as ks
ell ig
Ġstrateg y
Ġeas y
p at
} %
Ġc itiz
Ġw alk
unc hed
ĠK e
f ort
: \
ĠA wards
I ON
Ġbe y
Ġv an
ĠIn c
Ġfr ame
Ġm ission
p ack
Ġcont ributions
Ġcandid ate
Ġfe ed
ĠII I
Ġexact ly
Ġsp orts
O ut
e ks
ĠK ar
ter m
E arly
ĠM os
sim eq
ĠF e
ian a
,\ ,
Ġsc ored
we ight
196 9
Ġsh ot
ark s
or a
res hold
as ion
ob ile
Ġwh om
Ġbey ond
' \
Ġa mb
ĠMart in
Ġsepar ate
Ġconstraint s
ĠO l
idd en
Ġab ility
is her
Com m
h ab
he m
R equ
text sc
ĠS il
sy l
Ġact ivity
n eg
ĠR em
Ġcalcul ated
u ations
se ud
I V
Ġw ays
j o
Ġm ole
Ġc arried
c ases
ch o
Ġparent s
Ġin ternal
= -
O ur
y mmet
Ġdes p
at o
st ein
Ġrepl ace
sub subsection
Ġassum ption
Ġsp ort
Ð ½
Ġwrit ers
ĠL iber
in ations
Ġm essage
Ġp ick
ĠH aw
Ġb asketball
Ġph il
ym pt
= {
pro du
ot hes
Ġsum mer
ĠL ie
Ġscal ar
ĠL ife
Ġle ave
Ġprob ably
Ġestablish ments
C an
al g
4 00
Ġext ra
Ġproced ure
' );
Ġsp aces
Ġsignificant ly
Ġact or
k o
r ong
ro t
Ġth ing
Ġform al
Ġtourn ament
Ġimmedi ately
Ġp oor
Ġinequ ality
J ohn
z ero
c ase
Ġindividual s
if ier
od ing
C T
ĠA re
Ġdiv ision
E M
Ġm icro
ĠR el
Ġw or
Ġb ad
Ġsy n
Ġed ges
il ed
van ia
und le
ev en
S o
u an
8 2
Ġus ers
ĠPro fess
h ing
ĠOff ice
ĠS oviet
8 3
N e
Ġl ic
lang u
Ġcommun ities
Ġ+ \
av en
Ġs ociety
ĠF orm
196 7
194 5
E q
or ation
O f
ĠS ocial
ĠP ac
Y ou
t em
Ġmeasure ments
Ġcar ry
Ġcomp ute
194 0
ĠO ld
ang er
epend ence
it ter
Ġincre ases
are er
ĠChampionship s
Ġ );
ĠCol umb
ow ers
ĠAl so
bul let
Ġpl ot
he mat
Ġmin utes
ob ject
s ch
N et
ĠJose ph
$ (
ament al
f e
ab ilities
ve x
Ġend ed
ĠB razil
Ġsoft ware
ĠT ime
$ ^{-
Ġst eps
ĠF re
In ter
Ġwin ning
Ġa uthors
Ġcomb ined
Ġmanag er
Ġpur pose
Ġrelig ious
Ġgo als
ad ium
Ġ ?
ĠJ er
Ġdep ends
und red
\! \!
Ġrel atively
Ġ ~
ip ality
ic ity
Ġh ttp
Ġgener ation
Ġshow ed
Ġimpro ve
Ġh um
Ġprop ag
7 4
Ġopen ing
Ġco ast
ou ra
ers ey
ĠL ove
Ã³ n
Ġmus ical
ĠW ood
ĠM ur
act ive
Ġv ac
ĠYou ng
M ar
ĠH el
Ġcoeffic ients
U N
ug by
Ġh op
Ġch ief
y an
ĠJew ish
m as
I P
Ġch ain
arri age
os h
langu age
Ġmost ly
Ġmov ing
A tt
C E
ĠP eople
Ġm ind
Ġ ensure
Ġact ress
ĠSp ace
Ġdest roy
ĠF ort
Ġann ual
Ġlaw s
B ar
ĠJ ournal
id ers
ĠAss embly
ĠCh ief
ĠG al
pt on
Ġang le
Ġrefer red
Ġinc ome
ĠO pen
Ġrema in
D uring
Ġcorrel ation
ĠRep ublican
Ġdiscuss ion
H E
t ers
ĠC re
Ġdr ug
Ġt ensor
ĠJ ud
~ $\
st o
g g
as i
r s
Ġr ing
Ġhe art
ĠL ee
E nd
ab ase
Ġassum ed
Ġpos itions
N otes
Ġarchitect ure
d x
7 3
k l
g u
19 30
Ġnew sp
Ġrespons ible
Ġredu ce
F ile
Ġpro gress
h ouse
r ants
ĠT our
{ $\
b i
ĠU p
r or
Ġet c
Ġsim ulation
r ons
Ġter rit
ĠB ig
Ġqu arter
ult ural
pos es
196 4
Ġappear ance
T ext
O ther
R ep
$ ).
tr ue
Ġres ources
ĠH on
Ġcap acity
air man
us band
}^ *
ĠI rish
Ġproject s
p ass
ĠL y
ĠW ales
sum mary
Ġed itor
7 9
Ġk ing
Ġp refer
Ġcontain ing
Ġfail ed
ĠG en
ed s
ĠV er
Ġcommer cial
Ġar rang
T rans
Ġoffic er
^{ +
oc ation
et ime
8 1
ĠSer ies
Ġl ived
Ġf air
ĠD ou
or age
Ġsay ing
Ġas pect
Ġden otes
p ol
) ^{-
Ġwe eks
og ene
h om
ĠL u
Ġs ure
Ġre comm
syl vania
Ġcon vert
Ġcent re
ĠPro gram
Ġtechn iques
Ġc ru
ĠR o
Ġmod es
Ġ&= &
ĠA tt
Ġh arm
all ery
pl ate
ĠT rump
ĠN orthern
Ġg reen
Ġdist ributions
ent y
C P
Ġis land
Ġed ition
ans as
ĠEar th
; "
Ġstud io
Ġbe g
Ġst ories
Ġsem i
ar ant
7 1
mat rix
il ib
ĠB ob
' re
Ġl oad
ad y
Ġde com
P er
g t
Ġother wise
Ġatt ended
ĠL ong
ĠEng ine
Ġtyp ically
Ġst able
Ġc ard
Eng lish
Ġv ote
Ġinit ially
new command
Ġ eth
Ġr an
Ġreg ime
Ġc opy
ĠJ ac
Ġr iver
w an
b in
col umn
ĠG overn
Ġsus p
tern et
S M
ost on
Ġsen ior
ĠJ im
Ġmat ches
A b
Ġdef ault
Ñ Ģ
ĠIs lam
r un
] (
Ġclass ification
Ġsp read
}} ^
Ñ Ĥ
ĠJ o
Ġgiv ing
Ġm is
k ins
Ġcomput er
Ġfri ends
Ġs outhern
m d
Ġspect ra
Ġappro aches
Ġdet ection
g n
Ġf ix
Ġnumer ous
r ame
Ġmain ly
Ġqu ad
vi ation
Ġpo et
st ream
196 5
Ġrecord s
m ond
if fer
iz er
p ace
ĠUn ivers
ri um
ell i
qu ot
Ġhor iz
Ġconfig uration
Ġmeas ures
rick et
P ath
Ġb attle
Ġprodu cer
( ),
$ $\
\ "
Ġfl at
) }{\
Ġinv ariant
Ġcell s
Ġpro ceed
Fig ure
Ġse asons
Ġcomb ination
Ġb us
ĠL ord
i ant
G B
Ġl if
val ues
C A
ĠEmp ire
esp ite
Sp ec
Ġser ve
f it
pt y
N ode
Ġgo es
Ġn orthern
Ġa ctions
f ree
pm atrix
T able
Ġvis ual
Ġadv ant
Å į
un ct
} )$.
Ġla unched
Ġag o
Ġinc orpor
Ġthe ore
Ġpol y
Ġintrodu ce
o at
j a
! --
Ġvoc als
ĠProv ince
Ġcur ves
ĠB as
ĠBrit ain
ĠVal ley
ĠHistor ic
Ġc orn
res ult
Ġcomm ission
Ġbecom ing
C L
ĠW al
em porary
ĠS ir
A dd
The se
ut y
ĠG reek
ĠS ol
Ġexp ressed
Ġdem and
Ġpl ans
Ġde ad
Ġdoes n
Wh ile
Ġnuc lear
Ġc osm
Ġpair s
d im
Ġs ector
Ġfav or
v est
Ġstreng th
ĠC ivil
196 6
Ġprov ed
w ord
S D
ĠC am
Ġturn ed
r ical
W hat
ex ample
. $
Ġar rest
F ield
I L
in et
)\ \
Ġsymmet ric
Ġcon flict
Ä ĩ
Ġs n
M P
19 20
A pp
Ġmur der
=" ../../
ĠIn st
Th us
ĠM ax
Ġch ampionship
ĠSp ain
g raph
Ġsit es
ĠT im
Ġb ottom
ĠM ount
Ġw ood
amp ion
ĠH ig
Ġun known
Ġprov iding
ok en
A ccording
Ġdesp ite
sk y
IN G
Ġold er
Ġdepend ence
Ġachie ved
Ġeff orts
Ġmod ule
ĠS ee
ud es
ĠL in
ern el
Ġm aster
k es
In st
ers e
ĠT op
im a
Ġinter actions
ĠH ot
ract ed
Ġhel ped
Ġslight ly
Ġv s
Ġlin k
ĠCon n
rem ark
Ġra ised
ĠF red
Ġ= \
N R
Ġmag azine
back ground
Ġfil ter
Ġpart ies
ĠSt ep
ict ed
Ġpres erv
ĠP re
Ġerr ors
t ot
at i
or ter
Ġp hen
Ġor b
ag raph
Ġsing ular
ĠS outhern
r ative
ĠRad io
s ur
ĠS ta
Ġdis k
f act
al i
Ġh usband
ĠPenn sylvania
Ġcele br
)$ -
( (
Ġst ellar
ĠS k
con fig
Ġc am
at ers
ĠL ibrary
Ġre const
ĠF ield
' :
Ġg ain
00 00
c ount
Ġro ute
Ġm orph
) _
ild ren
+ +
Ġor ient
ĠAs ia
Ġag ent
Ġspat ial
Ġc ry
abl ed
Ġm ut
M ap
Ġremov ed
ĠE ach
cl os
ir med
Ġlook ing
ĠE qu
E lement
Ġlead ers
ĠThe ir
Ġfor ced
map sto
Ġext rem
Ġfore st
Ġt or
ĠL ine
ĠC ross
ce an
Ġhistor ical
ib li
Ġabs or
ist ical
O D
Ġin ner
n am
Ġse a
rel ated
15 0
us er
Ġsc ene
Ġcomput ed
ri ed
=" +
}} ^{
Ġ },
N S
Ġrail way
Ġcle arly
I A
Ġorgan izations
Ġs ampl
' ]
oc ol
Ġs plit
H z
ĠC amb
ĠB i
h ost
Ġpre p
g ener
Ġquest ions
Ġcirc le
ĠT est
bl ock
aw a
Ġpolynom ial
b ase
Ġown ed
Ch ar
ist ers
l aw
g reg
P erson
ĠDemocr atic
ole an
Ġpar allel
ĠTe am
ĠP ak
Ġwork ers
loc al
in ate
Ġarbit rary
ĠReg ister
Ġex change
il ter
The orem
ĠN etwork
in ner
Ġp ure
Ġc ensus
Ġb rand
E vent
Ã §
un ior
Ġabs ol
ri p
Ġ â
Ġunderstand ing
h aps
Ġestim ates
Ġsh oot
Ġref lect
wh ile
tain ment
Ġalgorithm s
Ġmat rices
Ġrap id
ĠDe velopment
A m
Ġn ine
omorph ic
Ġo ption
C S
M M
gy pt
ĠJ es
C areer
Ġc ities
sec ut
Ġt al
Ġent ry
urb an
A F
Ġun iversity
ĠM em
Ġin form
[ '
im b
ĠC E
Ġstrong ly
196 3
ino is
ov a
ĠJ ul
c ript
Ġf oot
Ġtrans formation
Ġcal c
Ġl ies
orn ing
P E
Ġcount y
Ġquick ly
et ts
ĠSec retary
ĠPl ay
A rt
Ġyield s
Ġdepart ment
stand ing
p age
od ot
\ _
i y
ĠD om
h as
j oy
L P
Ġv ary
Ġeffic ient
r ide
Ġfre edom
Ġr ise
Ġarm y
a ver
ay lor
196 2
Ġb illion
Ġdiffer ences
ĠG aussian
os oph
ĠS pr
u er
Ġth reshold
ic ks
Ġcontain ed
res h
Ġser ious
ĠS und
Ġon to
Ġc at
ĠJ ones
Ġact ual
Ġclaim ed
n ames
Ġapprop riate
Ġent ered
ĠHamilton ian
ĠS et
Ġdist ributed
B ack
Ġm ixed
p a
ĠPac ific
Ġelection s
y er
G roup
ĠU k
Ġdefe ated
ĠB ase
Ġopt ical
ult y
Ġinit i
ĠS ar
pro b
S R
t ik
Ġfam ous
Ġhy dro
Ġas ympt
ma il
ĠJ an
ra q
ĠE r
Ġmach ine
ab il
t rack
ad el
l ines
Ġlet ter
el i
Ġvis it
Ġ/ *
Ġle aving
ĠB oth
ĠCon ference
D on
ĠR am
Film s
ribut es
cont in
ĠG et
Ġaltern ative
Ġper fect
Ġp urs
Ġh undred
$ ~
Ġo il
Ġocc urs
ĠCar l
Ġopt ions
Ġrece ive
ad or
/ *
Ġ ;
c f
Ind ex
Ġtyp ical
m iss
Ġpr iv
ĠCent re
et ween
t itle
Ġadopt ed
Ġorder ed
ak a
Ġreg ister
let s
ud get
Ġdram a
ĠO x
Con text
S ch
ĠB attle
ard en
$ ;
Ġident ify
' (
194 4
b ury
ic ine
pro position
Ġexpl ain
enn is
Ġs qu
f irst
Ġex c
Ġp ain
ĠĠĠĠĠĠĠĠĠĠĠĠĠĠĠĠ ĠĠĠĠĠĠĠĠĠĠĠ
ol t
h box
Ġst ore
Ġtra ined
Ġachie ve
T E
P art
v oid
Ġst rict
ĠM en
ĠMich igan
Ġdist ingu
j i
el a
ific ations
ann els
Ġ/ >
Ñ ģ
ar ia
Ġtry ing
E nt
g rad
mod ule
ĠJohn son
ĠG ood
Ġth ick
m c
z er
ĠD et
Ġgalax y
Ġobser ve
ĠL i
Ġnot hing
Ġgen us
Ġacc ur
Ġoffic ers
ĠB oston
Ġdetail ed
Ġpro min
Ġg ap
ĠM iddle
\ {\
ĠOh io
Ġcou ple
ĠPro ject
s en
as y
Ġs ections
Ġcoordin ates
ott ed
C ar
ruct ure
O M
ĠH y
p ress
Ġoffer ed
Ġcompos ed
Ġman ifold
Ġseg ment
Ġpro port
Ġvict ory
ach us
Ġbelie ved
\| _{
ig ration
Ġw orth
Ġmeasure ment
ĠM any
ro ph
Ġn am
ĠEd ward
Ġex cit
In fo
ĠFrancis co
Ġget ting
} &
Ġcover ed
bur gh
Ġmass ive
Ġdis p
ĠW ind
Ġre form
Ġro ot
Ġcl oud
i able
ĠSen ate
at ically
ograph ic
P op
che n
Ġs al
ric s
Mod el
ang es
Ġstat istics
}( {\
Ġd rum
Ġsing les
c s
Ġadminist ration
ĠJ ersey
d ate
m ethod
Ġth ous
D ec
Ġgener ate
ilib rium
Ġcult ural
196 1
Ġcy cle
C ons
Ġsur vey
ĠM ov
sp eople
ĠW ay
P ol
tain ed
ĠQue en
Ġreport s
Ġass ess
om ic
orn ey
Ġel im
Ġ ice
Ġcol on
ĠS ong
Ġserv ing
Ġinteg er
w er
em ic
est ed
ig ation
_ -
Ġdev ice
L S
ay a
Ġtri al
h ar
F l
il er
c ore
Ġcom pl
C ount
b as
ĠB ul
achus etts
ĠB ow
ĠH uman
Ġp iece
Ġredu ction
ear s
Ġdiscover ed
tik z
Ar ray
por ation
Ġsatisf y
ee ch
Ġconduct ed
Ġp il
Ġfund amental
t es
ĠB ern
od er
mult i
Ġm ountain
Ġexecut ive
~~ ~~
it age
ĠAs ian
Ġform at
Ġbehav i
ĠIll inois
D P
Ġide al
ch ar
ĠE conom
Ġsett lement
ĠE nd
ap i
igh ter
1 000
ĠA ut
Ġcomp are
Ġb att
Ġex ternal
ĠT em
F e
ĠWilliam s
Ġ ign
Ġop pos
Ġp p
og rap
Ġres on
ĠE lect
ĠScot land
olog ies
art ers
Ġgrow ing
c r
Ġeff ort
Ġmass es
Ġdise ase
Ġ util
c ur
Ġconver gence
f in
D A
ĠA P
c ong
Ġdep th
ĠD ev
Ġcommunic ation
ĠT re
Ġcomput ation
' }
a ug
ĠBel g
ph as
anc ing
Ġim ag
Ġh ospital
A ct
il a
Ġreg ional
ĠR os
ĠU N
ĠC a
ĠM ajor
ĠSh ow
Ġphen omen
ab eth
ur ies
Ġpe ace
l s
) },
B i
str ong
, $
Ġcitiz ens
Ġn ative
Ġshow ing
Ġresp ond
ma z
sc ill
Ġv oice
ell er
Ġm arriage
Ġv ectors
ĠHe ad
ĠK ent
cl aim
display style
ĠC r
Ġscatter ing
[ ]
h bar
Ġover l
Ġprofess or
Ġact ors
195 8
Ġindic ates
bl ue
ĠJust ice
Ġneighbor hood
Ġal one
ĠC ro
A ust
Ġindic ate
ĠRep resent
ellig ence
s ol
Ġoper ated
Ġ ]
Ġmater ials
L og
R A
195 9
194 2
Ġobserv ation
Ġtrac ks
er c
C he
Ġb ill
Ġro ugh
od ay
Ġre asons
ĠGeorg ia
Con fig
Requ est
Ġlo op
Ġl um
Ġdifferent ial
194 8
Ġact s
ĠE gypt
ĠM ah
Ġ- ->
riev ed
ing ham
ĠS and
) +\
en ess
Ġinter val
Ġmet al
ound s
a fter
ĠM ountain
Ġrecord ing
ĠPol and
Ġsuggest ed
ĠE ll
Ġtr ust
Ġmagn itude
Ġdig ital
p icture
S ervice
Ġimport ance
ĠR h
Ġg rid
Ġp rice
195 6
Ġass ign
Ġpol ic
ind ing
| _{
() )
Ġattack s
Col or
Ġth r
I F
ĠEn ter
Ġsh ared
Ġm ill
/ **
Ġjo in
ra wn
Ġm useum
Ġcy cl
ĠS erv
en ant
ĠA ff
Ġo dd
Ġ( !
Ġb inary
ĠF inally
he t
Ġpro pos
ĠMus lim
ĠPl an
Ð¾ Ð
ul f
el d
' m
Ġbe am
} }$.
Ġ$ $
ĠPr ince
ond er
s uch
Ġchem ical
Res ults
bre ak
} )$,
Ġre ject
Ġres ist
on ly
Ġsur pr
Ġsp irit
Ġen joy
ĠW all
Ġc a
Ġwind ow
Ġf ine
Ġnuc le
Ġgu arant
Ġra re
as ure
pos s
193 9
Ġf le
ĠB usiness
c d
o ir
ĠChar l
ĠPhil ipp
Ġinterest ed
ĠC y
Ġse at
Ġw estern
ĠF C
ĠI raq
ĠKore a
ĠMass achusetts
Ġnot ation
Ġwe ap
E l
1 20
Ġact ing
ĠE astern
ĠD utch
Ġob vious
N ational
Ġor th
It em
ib r
ĠÂ £
ro om
ru ck
ĠP op
Ġoff ers
m ass
t ri
Ġass igned
S A
ĠGovern or
Ġpolitic ians
ĠP rem
ĠJ r
Ġimplement ation
on to
ĠCo ast
b ottom
emb le
av el
}{ |
ash ion
{ {
Ġdeg rees
com ing
P A
Ġo scill
pon ent
' ;
) -\
Ġs ister
G C
Ġdiv ided
EN T
Ġapp arent
Ġsy nt
ĠM u
Ġwid ely
m ma
} }$,
Ġphys ics
ran ce
Ġconclud e
Ġsome one
v in
Ġbl ood
195 7
ĠB ra
Ġtheore tical
Ġanal og
Ġc ouncil
Ġmin imal
ĠThe atre
Ġsec ret
ĠL ag
Ġw all
Ġa st
Ġiss ued
Ġsu c
ĠF ederal
ĠMed ia
H and
st art
ion e
Ġlim its
Ġb ass
M e
cont ent
ĠSt an
ĠSpec ial
Ġcan cer
Ġpart ial
il ation
Ġh ar
) }_{
Ġcom edy
ibli ography
z y
) )$
Ġconc ert
Ġw atch
Ġem p
Ġsubsequ ently
on ia
ĠL uc
d es
Ġoffic ials
Ġ ut
S ize
ĠWil son
R et
t an
Ġconsider ing
ap ed
Ġrot ation
Ġreve aled
m itted
Ġret ired
ĠK enn
sy stem
ĠS T
ĠTechn ology
cc cc
&= &
| }
ĠSup reme
b ed
def ine
f aces
ĠIn f
194 3
S w
}$ )
Ġopport unity
il ing
Ġf elt
Ġres erv
ĠColumb ia
act er
ab our
ĠRe view
on ical
Ġd raft
ou the
Ġs quad
if ies
ĠK ong
Ġax is
Ġch art
ĠUS A
Ġprim arily
c ular
Ġl abor
Ġclaim s
op ic
Ġship s
ĠBl ue
ĠFurther more
Ġ ener
$ ),
Ġgraph s
M R
Ġfootball er
Ġacqu ired
G L
ĠV i
Ġindu ced
Ġearn ed
op en
Ġcandid ates
here nt
it ness
ĠW ell
Ġcl imate
ĠM id
Ġs ales
Ġflu ct
ro vers
Ġex ception
pro cess
ĠV an
go ing
Ġvict im
S L
M y
Ġyou th
Ġg ets
ĠH or
yn c
ĠOx ford
Ġp sych
Ġamplit ude
ĠBro ad
H T
R el
Ġpat ients
Ġoper ating
Ġres ource
t wo
T hat
Ex t
=" #
Ġdes cent
Ġ$ |\
u ing
Ġcost s
sp ect
Ġhyp othes
kn ow
Ġdimens ions
[ (
ĠR ay
194 1
Ġf ellow
Ġfe at
e z
l en
B rit
Ġal le
194 6
Ġnear by
ogene ous
te en
Ġsuc ceed
Ġorgan ized
ust er
195 5
Ġpart ition
Ġany thing
Ġl iber
Ġex ec
ĠLat in
Ġprinc iple
Int roduction
ĠSe a
}{ (
ĠO p
ĠJack son
Ġp aid
Ġlangu ages
ĠW ater
ip age
Ġt asks
ĠPort ug
Ġres idents
Ġmanag ed
Ġc ov
Ġ$ {
ĠH ospital
Ġc ool
c urrent
ĠC reek
st one
P ost
y es
E L
g r
ĠB uild
min ipage
ĠE p
Ġscal es
195 2
Ġallow ing
Ġint ended
Ġexpl ained
ran e
P re
est ic
Ġcre ation
Ġart icles
Ġp seud
out e
ĠH ome
Ġem phas
as er
P P
Ġsaf ety
Ġt end
is er
M ed
Ġfind ing
Con n
am ber
Ġpred iction
ĠH ung
Ġd oc
ĠH a
194 7
ĠS u
ol es
ic ed
ĠI N
u ous
Ġto uch
Ġh ole
s he
Ġlead ership
ĠB ecause
ran k
Ġded icated
j ava
Ġbe aut
Ġfunction al
st atic
c ref
- $
Ġadvant age
Ġa wards
à ¤
Ġfor t
g ies
Ġqu e
ĠComm unity
b uild
Ġtechn ique
Ġle aves
com ple
od d
Ġcalcul ations
ap ache
Ġtra ffic
Ġconf irmed
agn etic
L a
Ġs ort
Ġp icture
: }
ĠA v
Ġstr ugg
Ġ} );
Ġclust ers
Ġacadem ic
am m
ri e
Ġcon d
ma k
Ġp ull
ĠAnd rew
dis c
Ġsex ual
Un ited
Ġide as
ĠU r
F inally
ĠĠĠĠĠĠĠĠ ĠĠĠĠĠĠ
ird s
Ġtherm al
ĠB al
195 4
Ġpr ime
b el
Ġcalc ulation
S ection
al ysis
st ract
Ġ\ !
ĠJ eff
amet ers
ĠSt and
Ġch annels
or ough
uck y
Ġcon ference
Ġke pt
******** ********
The refore
rib e
ass ert
Ġ ion
Ġinf inite
itz er
ĠScott ish
Ġs ides
Ġmark ed
Ġpower ful
od ies
Ġlarg ely
N ext
ĠF our
H S
Ġtest ing
Ġsc hed
il ly
Ġcontin ues
set s
ĠN ight
Ġcompos ition
Ġdescrib es
oc cer
Ġb ridge
Ġp et
Ġdep ending
Ġplan et
ĠC ard
olog ist
Ġperson nel
Ġpart ner
Ġrem ark
L em
Ġcharg ed
Ġsuggest s
Ġmod ified
Ġregard ing
C ode
M on
ĠProfess or
Ġle tt
Ġinstit utions
195 3
Ġn arrow
p ost
Ġlay ers
ĠBer lin
Ã ±
Ġs pl
Ġwe b
Ġband s
che ster
Ġeconom y
Ġc arri
T D
Ġinvestig ation
ĠF ar
Ġcre w
Ġinter face
## ##
Ġcr im
y les
Ġop in
Ġcon j
ph ia
ĠCons erv
Ġwhere as
Ġord ers
iz abeth
Ġang ular
Ġtechn ical
Ġeffic iency
194 9
Ġb omb
ĠCor ps
Ġuncertaint y
Ġrese arc
c alled
f ound
in fo
ĠS pe
pl ot
Ġexpon ential
Ġsub stant
Ġto ward
ĠD ata
n ic
ĠK en
Ġp le
ant ry
ĠM ot
M B
Ġcre ating
ĠN ations
Ġv on
em y
ĠS i
g a
th ur
st ep
Ġfig ures
Ġtro ops
ĠL ittle
Ġhon or
ĠPol ice
t ure
AT E
i ate
eder ation
Ġupd ate
ĠG ame
ĠBro ok
Ġagre ed
Ġclub s
ĠAmerican s
Ġl ie
ĠAlex ander
ner gy
id el
Ġpolit ics
B ox
fl oor
we b
ateg ory
Ġloc ations
Ġhous es
Ġind eed
eng er
Å ¡
Ġtr uth
ĠCol or
ĠW is
R ead
Ġcommon ly
adel phia
" "
ĠU sing
ig er
Ġgeomet ry
ĠV iet
i ec
Ġacc eler
ĠSt ation
ĠMc C
are n
Ġsub t
Ġcomplex ity
ĠMin istry
Ġco al
ond s
Ġb in
Ġimpro ved
g est
Ġbound s
Ġfif th
Ġsp eech
Ġprinc ipal
Ġdis crete
Ġc ert
c at
Ġatt end
for ward
Ġaccept ed
ĠRail way
ĠT aylor
def ault
ors hip
c ut
Ġfac ilities
ĠB a
Ġoptim ization
ĠW ild
ang ing
ĠG ar
ĠP ower
ĠB ang
un a
val id
Ġgrad ient
Ġansw er
im ately
ĠB ell
Ġw a
c ks
19 18
so ft
ul i
ĠG i
ĠP ubl
Ġarr ived
195 1
ĠE ven
Ġreturn s
re ct
Ġ era
Ġst ress
Ġsecond ary
enn es
ĠC at
Ġfa ith
Ġexp at
Ġevery thing
ins on
Ġfail ure
ĠB u
ul pt
) }}
Ġfocus ed
Y ear
Ġassoci ation
Ġtre nd
ĠE st
Ġhe at
Ġinvol ving
D is
he tic
Ġspec ified
z h
M ethod
Ġent ropy
Ġis ol
ĠG irl
Ġscal ing
ph ant
W ork
G eneral
Ġcon vex
Ġlearn ed
ĠH ong
Ġpro te
wh ite
s ign
em an
Ġadd ing
M embers
Ġbase ball
Ġ[ \
ĠL im
Ġb right
Ġemploy ed
Ġor bit
p ot
Ġthe ories
Ġscen ario
Ġl ibrary
Ġfl ag
f inal
Ġrec all
m osp
Ġwin ner
Ġus ual
Ġdel ay
Ġn one
Ġsold iers
Ġsol ve
Ġdef end
il bert
ĠL ater
Ġit em
O C
Ġcle an
ĠDan iel
d ney
O per
ĉĉĉĉ ĉĉ
Ġanc ient
W ill
Ġden oted
g ers
ĠĠĠĠĠĠĠĠĠĠĠĠĠĠĠĠ Ġ
p o
}\ ,\
Ġprot ected
ay out
ĠComm on
ĠPl aces
Ġdr ive
or i
25 0
Ġarg uments
ĠOr gan
Ġown er
T H
ĠPol ish
ĠJ oe
bm atrix
tain er
ĠB C
D ist
Ġcoeffic ient
AS S
plic ations
ĠPh ys
big l
al ing
Ġrepresent ing
Ġnewsp aper
: =
' ve
( {
al so
^* $
im age
Ġnot ice
L ine
if ts
Ġdecom position
Ġd ial
Ġcr ime
it ivity
ĠF er
Ġrequire ments
Brit ish
omet ric
Ġinc ident
Ġrad iation
od ed
an ta
Ġnam ely
us es
Ġh ockey
Ġeval uation
Ġh ope
ol ve
Ġk ernel
Ġprogram ming
Ġperform ing
ĠT ri
ĠJ on
f ont
Ġmed ian
Ġaff ected
u um
Ġle mma
Ġtri ed
Ġtransfer red
Ġcharacter istic
ĠA sh
Ġb udget
S F
ĠOlymp ic
Ġvers ions
ult ane
ĠA cc
Ġchall enge
Ġmed ium
Ġ Å
A c
ĠPri ze
ze ch
ĠB oy
cre ate
Ġvari ation
ĠAn other
Ġst reet
Ġit ems
Ġg rew
ĠR ead
Ġst ock
ĠPal est
Ġfl oor
ĠPr ime
ĠVictor ia
Ġj ourn
ĠAir port
Ġw ild
Ġtra ject
clus ions
Ġsatisf ying
ĠS ports
ĠS om
b ot
ang ed
Ġm iles
Ġloc ally
u v
Ġn et
ul er
hen s
Ġepis odes
u ated
ĠStud ies
Ġcapt ured
ĠB and
ip e
Ġscient ific
Ġtw ice
n um
Ġvert ical
R em
Ġst ability
$ :
h or
Ġequip ment
U sing
Al though
\ }$.
ens ions
ĠF ollowing
es ter
ont al
1 10
Ġpolic ies
d l
Ġinst all
Ġinteg ration
ĠMod el
ĠGu ard
or ig
O L
Ġtre es
S ome
Ġdev ices
Ġsol ar
Ġtrans lation
v ector
res ults
ĠSt at
ab y
Ġcall s
Ġco inc
Ġis omorphism
ĠO nt
ĠP en
D M
un te
it led
eb ox
-- -
Ġstat istical
Ġeas tern
y o
ris is
ĠAd minist
b al
n ership
Ġserv es
ve e
Ġir re
Ġro ll
] $.
big r
pro ject
Ġs ust
Ġt ail
C or
ath an
int eg
ĠB BC
Ġpromin ent
b ec
Ġp owers
Ġte acher
ag on
ĠSc iences
st able
l ock
Ġsc ript
II I
ĠP oint
G u
Ġmin ister
ĠSund ay
D B
A ut
row s
ĠS uch
Ġ= ==
Ġsubsequ ent
Ġro les
writ er
se y
oc ated
l ers
193 8
Ġp ix
ĠPol it
R S
193 6
ac ent
ĠSec urity
Ġconsequ ence
Ġmat hemat
D isc
M en
Ġpl anned
\ ;
Ġhand s
] }
art he
Ġh ab
Ġmunic ipality
Ġin ject
Ġext end
Ġdec ades
ĠAr gent
Ġpl anning
ĠC orn
ro g
Ġtest s
,\ ,\
ĠF und
Ġsub group
Ġproject ion
h r
ĠIs lands
ĠJ ean
Ġveh icle
av ed
$ _{
ĠR og
}} _{\
Ġappear ances
ĠKore an
Ġd ust
int on
ĠT am
Ġoccur red
D em
Ġsom ew
ĠMed ical
ĠV ill
ad ing
Ġear th
Ġrepresent ative
Ġf ans
ur er
Ġrecogn ized
Ġviol ence
lection s
not es
Ġprot ection
v ari
Ġpredict ed
w ater
p g
P L
h igh
om er
am in
Å Ĥ
less sim
) )\
ĠB on
Ġp ra
Ġcoordin ate
ap se
---------------- ----------------
Ġprov ince
Ġoppos ite
Ġ\ ]
ĠTh ree
ron ic
uff er
Ġalong side
os is
Ġman ner
Ġauthor ity
Ġcapt ure
di ag
Ġext ends
d frac
Ġengine ering
Ġrecogn ition
Ġposs ibility
ĠCor poration
ri end
Ġassist ant
ĠJac ob
Ġfund ing
Ã¡ n
D S
Ġhous ing
Ġ{ $
Ġrepresent ations
M ay
ad er
an th
Ġab und
Ġcon ven
Ġpen al
= '
Ġh ttps
ĠY our
ap es
Ġcharg es
n umber
ĠR ome
Ġconstit u
Ġenvironment al
.. .,
Ġmot or
Ġenc oura
v ol
Ġla unch
Ġsum mar
Ġt error
Ġmot iv
lement ary
ĠRev olution
$ };
ĠPak istan
> &
S ource
Ġw rong
Ġa thlet
Ġcalcul ate
Ġc ars
Ġrem ove
rop ical
Ġsurround ing
ĠAs sum
ĠL ight
ig ger
Ġme ant
t frac
Ġ urban
Ġcont rovers
Ġequ ilibrium
Ġ ^
Ġv en
Ġcol le
ynam ic
Ġspec ifically
og en
he im
Ġal t
Ġcirc um
Ġpur poses
long rightarrow
="../../ ../../
Ġfeat uring
am i
Ġ$ .
Ġn or
ether lands
' .
ap l
medi ate
Man ager
b rid
c ar
M essage
ĠM ike
ut enant
ĠServ ices
act ory
ĠEl izabeth
bra ce
Ġcon vent
Ġsufficient ly
Ġstart s
ĠJew s
ĠL ew
Ġexpand ed
Ġgradu ated
,\ \
}} )
ĠD ar
Ġcol lected
Ġunder lying
ĠN C
Ġhe ard
Ġrob ust
: #
Ġprocess ing
ĠTor onto
ĠCamb ridge
O P
Ġdimens ional
193 7
W orld
ĠC ub
Sy stem
Ġg r
ĠInd ust
Ġprom oted
d at
Ġaud ience
ĠInd eed
% )
un ities
ĠC P
Ġa ware
Ġperm an
Ġcomm ittee
Ġposs ibly
ĠMan agement
L T
h ol
ord an
og s
Ġdevelop ing
def ined
Ġobject ive
d ev
we et
Ġp it
R ight
Ġlum inos
un it
V D
Ġn il
ĠB rad
are t
Ġcompet ed
Ġb oy
isl ative
Ġinsp ired
z o
plic ity
Ġj ava
per or
Ġturn s
z en
Ġapp lying
Ġac know
on ym
ak i
ĠSy dney
j oint
ĠA N
ĠM arg
ig a
Ġc ricket
Ġneut r
ĠOnt ario
Ġatt ract
ĠF air
M in
ĠL o
fl u
d y
}) }
$ &
ĠA venue
ol is
ĠPhil adelphia
] $,
Ġest ate
ĠS her
Ġb os
Ġimplement ed
Un iversity
G N
Ġindust rial
et al
ad ow
B M
Ġfl ight
Ġadminist rative
ĠCh ris
ĠR od
Ġtell s
Ġre ality
ak h
per ial
per ties
Ġend s
M usic
Ġbeg ins
ĠCl ark
Ġr ural
Ġdam age
}) =
Ġdatas ets
ĠF amily
app ed
ĠA st
Ġv irtual
con sin
ru it
ost er
" ),
ev ent
ecut ive
h ard
Ġm orning
Ġreview s
Ġbl ocks
se ct
Ġsu itable
][ ]{
Ġpers pect
ra ine
S ing
ar se
ĠTr ust
) --
Ġwe ights
qu arters
Ġnot es
al gorithm
Ġt urb
on ed
ĠW in
ĠR en
, {\
Ġview s
math op
uss ion
Ġrepe ated
Ġpl ants
;\ ;\
che stra
act ic
S port
Ġhe av
ĠS ant
Ġauthor ities
}} .
du le
includ e
g al
ort he
C al
P os
Ġexplicit ly
se x
[ -
ĠW alk
] )
Ġcateg ories
f alse
if ul
EC T
ĠRet rieved
ent ed
ĠM aster
Ġag ents
i ota
urn s
s at
Ġj et
ens es
ron ze
R C
Ġm ess
Ġveh icles
f old
Ġth in
w ing
Ġ ^{
Ġpre par
C all
in du
sc ape
ur ches
ĠO t
ĠS a
Ġd aily
ĠR om
Ġag ric
Ġhistor ic
Ġmarg in
se arch
ĠS M
ier arch
ĠD isc
b ro
Ġper haps
Ġabsol ute
Ġd iver
Ġf erm
ta il
Ġshe ll
w eg
6 00
it ational
ow a
T C
ĠD er
Ġs rc
br as
sc he
l ife
Ġtem por
Ġcont rad
ict ures
olit an
}} ^{\
t w
let on
oth ing
T rack
f s
osoph y
Ġbe at
ĠR un
C re
ig rants
Ġfind s
ĠIn formation
Ġsw itch
v ature
ing ly
Ġv otes
ĠG er
ys et
if er
d oc
eg o
Ġinv erse
Ġtri p
h u
Aust ral
Ġde ploy
Ġderiv ative
Ġcl in
H is
em et
ĠC irc
Ġclos ely
T op
Ġassum ptions
Ġaccur ate
Ġp al
Ġ} ;
clus ive
ĠReg ion
] {\
}[ \
Ġperform ances
$ {\
Ġdou b
Ġsol o
Ġinvestig ate
R I
Ġcl ient
ĠD espite
Ġmix ing
//// ////
tt y
Ġemploy ees
Ä ±
Ġsil ver
Ġbi as
Ġcons ult
19 19
Ġdecl ared
Ã £
ĠC ur
Ġelectron ic
Ġbenef it
Ġcont emporary
Ġres ident
19 14
ĠM ain
ĠK im
| }{
Ġevery one
Ġdes ired
Ġsup ply
Ġf rag
Ġto ols
a is
cre t
Ġinn ov
Ġcover age
Ġs ail
Ġc atch
ĠAnt on
19 17
x x
ly n
C ell
iec es
Ġconsist ing
Ġte aching
Ex p
ĠWe b
" ).
Ġat mosp
H ead
H ow
Ġsuccessful ly
ĠI S
ap ore
ask a
Ġsup erv
ĠS us
Ġestim ation
ĠV is
Ġintrodu ction
Ġextrem ely
comp on
ic ation
Ġdr iving
Ġmusic ians
}) ^
Ġnew ly
ĠApp endix
Ġdestroy ed
Ġdisc rim
Ġsc ulpt
193 5
hed ral
at on
Res ult
el ess
R esp
D r
Ġoffic ially
eli hood
a a
Ġsim ultane
Ġad vert
Ġcomm ut
empt yset
Ġaspect s
ĠWe ek
Ġto ol
}} }\
och astic
Ġexpl o
ĠSan ta
p et
A V
Ġbul k
Ġm apping
c ss
Ġch ance
Ġchang ing
Ġcor por
Ġdiag onal
ith ub
ful ly
p ool
P olit
Ġdet ected
Ġnot able
Ġfe et
al gebra
The y
i em
Ġinvest ment
Ġadv anced
ĠN az
Ġresult ed
Ġevalu ate
Ġco oper
G l
up s
d b
N ov
bour ne
script size
Ġdynam ic
Ġprot ect
Ġrem ember
Ġpre cis
go ogle
Ġe q
ĠP ers
d el
emet ery
ĠA k
Ġag ree
Ġmorph ism
s es
p ower
Ġpattern s
Ġd ens
Ġadv ance
ĠN etherlands
Ġindic ated
C M
Ġaff ect
) }_
ge bras
ĠMin nes
ĠT ok
t x
Ġre ct
par agraph
atur day
w rite
ur ance
Ġport ion
ĠCol l
S outh
om y
ĠBe ach
le ep
p resent
E X
Ġlabel s
omet ry
e aking
Ġfund s
ĠK el
193 3
f i
Ġwin ners
ĠH ay
Ġem pty
ipl es
Ġgrav ity
v ements
Ġl y
Ġcer em
ps on
ouri er
\ )
Ġfac ility
m n
Ġsub s
Ġconst ants
Ġener gies
Ġgrant ed
sec ond
i Äĩ
F I
ĠDu ke
Ġrad ial
Ġen h
Ġl ov
19 29
w orth
ĠOb ama
igh th
Ġd ance
ĠR aj
con f
ĠMinnes ota
Ġcomm it
ĠAd dition
est abl
Ġtop ological
rid ay
Ġrel ax
H L
p y
Ġch ampion
Ġbehavi our
ad ian
ĠFore st
ĠM ember
Ġmunic ipal
H C
riz ona
ĠT ype
Ġentire ly
Ġtrans mission
con text
Ġb ra
Ġw aves
ĠW ars
Ġcan onical
Ġquad r
led g
ĠOffic ial
Ġ\ &
ĠB att
Ã ¸
d ir
= .
Ġp ages
Ġtemper atures
======== ========
column width
ĠL og
D R
par ameter
au x
ĠH un
Ġprecis ely
Ġext ensive
r l
ĠF ox
" |
Ġsatisf ied
ĠAn th
Ġf ashion
Ġmax imal
pl ane
Ġcaus es
Ġs ession
Ġsampl ing
Ġexpat riate
ĠB rig
ist ed
Ġadj ust
U LL
ut t
it ative
ĠB ad
op her
l ik
ĠDav is
Ġne ural
Ġre action
^{ *
Ġaff ili
=" ../
ĠL abor
y al
ĠF ree
ĠV en
19 10
ĠI V
Ġd ivers
ann a
ĠIn ternet
Ġout er
e lect
c all
ĠReg iment
193 4
Ġsh op
ĠK ir
Ġhost ed
ur i
Ġcomput ing
k ish
Ä į
19 00
ord ers
Ġc e
8 00
pl om
Ġcon clusion
Ġr ich
Ġterrit ory
g eneral
d ep
n ull
ĠTur key
Ġinter ior
ĠJes us
t iny
Ġpass ing
Ġparticip ated
Person al
f unc
ĠG ro
ĠL ind
âĢĿ .
B ase
ever al
Ġcop ies
Ġw ing
Ġint ensity
or gan
19 28
Ġconf irm
pack age
Ġdoc uments
os l
Ġe lev
ol i
Ġcorn er
ĠF ace
T T
ĠCon stitution
ĠComm and
er ior
Ġf ell
c ow
Ġg ained
Ġf iction
ac hers
Ġlow est
ĠR ights
ĠL ady
T ra
Ġc m
roll er
ĠWis consin
Ġtr ivial
Ġstandard s
Ġinters ection
pro t
spec ial
Ġjud ge
ĠT y
ad s
Ġqu ery
Ġl iqu
arthe ta
Ġst orage
Ġd rawn
ĠQue ens
ĠSt adium
Ġsh ock
iven ess
D C
Ġexper i
sl ash
ly wood
sequ ently
ic ate
Ġcontroll ed
Ġp ool
ĠStep hen
ĠC as
ĠS ab
ur ations
Ġnon linear
Ġpl us
Ġcomput ational
Ġr ational
v artheta
ĠF ire
Ġex clud
um es
an es
E m
ĠGl obal
Ġmatch ing
e lement
Ġh idden
D o
Ġcom ments
Ġc overs
Ġfin ish
Ġbenef its
b en
ĠSte ve
ĠMed al
Ġrec ip
Ġbel ief
Ġrefer ences
rit ical
Ġasympt otic
Ġz one
Ġbro ken
i ary
ĠPro du
Ġrac es
E v
per form
mod els
Ġc row
Ġsp ons
re ll
ĠB ridge
Ġneg ot
T wo
g ithub
Ġte le
Ġvis ible
ĠK ey
ĠP ass
st ruction
}_{ -
Ġcrim inal
Ġsequ ences
Pro perty
Pro of
ad ed
Ġder ive
Ġnecess arily
ĠCon f
Ġequ ality
Ġpublic ation
c i
form al
Ġtit les
ast ers
t arget
Ġ }{
ĠG ree
Ġret ire
193 2
Ġident ical
ev in
Ġunivers al
ĠSwed ish
Ġcamp us
Ġart s
Ġsc ope
if act
ĠA uthor
ĠOn ly
g ency
rast ructure
d ependent
ĠSt r
Ġfac ulty
it o
Ġsuff ered
Ġphot on
ennes see
Ġfrequ ently
et ies
O ff
ĠN Y
Ã© e
Ġinterest s
Ġb rain
Ġrest aur
D ate
sl ant
rop ic
ĠM ethod
ĠM ill
m ad
v ard
F ollowing
Ġmax im
poss ible
reg on
Ġdef in
Ġeffect ively
Ġconn ect
ĠR on
ĠAl f
Ġarg ued
Ġd oll
ĠD own
Ġinteg rated
n i
ĠGold en
yp es
ĠS em
Ġthem e
Ġsupport ing
ĠD am
the less
Ġtre ated
ist ent
ic ip
st ood
Ġpurch ased
In put
un es
ĠT al
Ġab and
W rit
ĠM ond
Ġpredict ions
Ġt aught
ĠFore ign
Ġv ice
/ (
p op
ĠA M
Ġgeneral ized
al ion
ĠĠĠĠĠĠĠĠĠĠĠĠĠĠĠĠ ĠĠĠĠĠĠĠĠĠĠĠĠĠĠĠ
Ġw itness
ĠW rit
Ġdocument ary
Ġphys ic
Ġinterpret ation
Ġsp ot
ĠB ack
Ġr ig
ian g
ĠH o
ĠL es
Ġdef ense
Ġlist ing
}} =
Ġquant ities
} |\
ĠMar sh
Ġfound er
os a
ĠC L
Ġro ut
Ġar c
}$ }
Ass ociation
\ }\
ĠA thlet
Ġref ers
\ }$,
s d
Ġaut o
bold math
h l
G iven
19 22
Ġop position
secut ive
F M
v o
ĠB udd
; </
Ġf iles
R L
Ġrough ly
Ġyoung er
Ġsign als
ĠChrist mas
Ġembedd ing
U ser
Ġchalleng es
Ġsp ring
ĠH ard
ĠEngine ering
Ġas k
Ġin hab
ĠCount ry
Im age
ĠPrem ier
Ġattempt s
Ġsch olar
ob e
Ġqu ark
ĠPro t
ĠAd d
Ġs an
ĠAff airs
Ã£ o
G o
Ġs end
rop olitan
C ast
ĠAtl antic
U E
G erman
Ġult imately
Ġ\ (\
193 1
y ard
ĠSwed en
ib ration
tikz picture
ĉĉ Ċ
Ġdefe at
j an
Ġag ency
ĠInd ones
Ġarm s
Ġdr iver
Ġexper t
Ġt ransp
Ġh uge
Ġmagn et
ĠDes ign
iffer ent
Ġdo ctor
ĠW ho
fig ures
Ġis n
Ġabs ence
Ġpar liament
Ġkn ew
M at
ĠM ic
weg ian
Ġp ieces
Ġs ave
19 27
lo op
Ġs ell
Ġinj ury
Ġext ract
H ence
ĠE nergy
Ġdi agn
S um
P o
ĠD ig
Ġv ess
19 24
B I
Ġacc ident
Ġag greg
Ġdepend ent
in ction
__ __
Ġred shift
ĠE very
iss ions
Ġhypothes is
Ġnov els
} ~
cal e
are st
In ternational
pt o
Ġrece iving
v s
Ġqu asi
ĠMiss ouri
Ġin fer
Ġbrief ly
D av
includ ing
ĠIsrael i
Ġex cell
Ġ( {\
Cons ider
Ġsat ell
Ġpar ish
opt ion
M et
Ġ iron
Ġtw enty
( [
Ġd ie
t ag
Ġn av
Ġdom estic
Ġwe alth
Ġarrest ed
ĠB ishop
Ġflow s
ĠT a
ro sc
ĠColor ado
Ġ rom
Ġappro ved
Ġhousehold s
ra ined
T S
ĠC zech
P oint
ĠHig gs
Ġthan k
Ġconcern s
Lem ma
ĠM ilitary
ĠK ansas
tain s
pt ic
and y
Ġcam era
& =\
Ġp iano
ag a
Ġlett ers
Ġstand s
ĠC ase
names pace
Ġind ependence
12 8
12 5
Ġinter act
amb ig
Ġent ries
Ġ$ ,
L abel
ĠO F
Ġpath s
Cl ient
b ell
ic ular
Ġhigh light
Ġessential ly
og ether
Ġsum mary
Ġcomp at
Ġext ent
X i
Ġcont est
Ġp ush
ul se
ir ty
Ġnot ion
Ġb ool
unn el
iss on
ĠL ive
in er
ĠF inal
o is
ĠB ru
Ġsw im
Ġwas n
M ax
Ġhe ro
p es
Ġadj acent
Ġrank ed
ĠL ast
ĠOr ig
ag an
ĠEx ecutive
Ġop posed
ob s
r ating
Ġun able
ĠH art
h ire
Ġanim als
Ġhapp en
Ġv ariance
Ġc atal
Ġre produ
Ġdynam ical
Ġtra ce
outhe ast
ĠW inter
Ġhapp ened
rom e
Ġsepar ated
ch ron
d iff
Ġren amed
r ine
ul ing
w atch
Ġd anger
Ġfight ing
Ġl osing
Ġexpl an
Ġsk ills
Ġcharacter istics
Ġhand le
Ġtown s
D escription
ĠS on
ĠG ener
par ison
j e
ad i
enn a
ĠIn it
k h
ot al
per iment
Ġra ise
ER T
Ġp apers
Ġopin ion
ast y
19 25
Ġcover ing
ĠRe al
ĠSpr ing
in ating
ĠBook s
ĠIndian a
ent ry
out s
Ġse vent
Ġf uel
ĠO cean
Ġequival ence
10 1
Ġrelig ion
ĠM oh
Build er
Ġconstit ution
is a
F rench
re hens
Ġc art
ĠSt ock
Ġalle ged
ĠMex ican
ord on
Ġun less
A E
Qu ery
Ġa head
sub sec
ĠB all
Ġvers us
reg ular
Ġapproxim ate
now ledg
plic ated
ĠK al
. /
ĠB ol
par allel
ĠĠĠĠĠĠĠĠ Ċ
and roid
Ġcur vature
Ġposs ess
ĠB et
ik i
ĠD C
Ġc old
: =\
se ason
Ġp ref
ĠCom put
Ġany one
Ġtit led
ens ed
Ġpro pose
19 21
ĠAg ain
c oh
ch or
Ġb undle
e en
L C
in ian
ĠL ike
Ġbre aking
ou pl
p arent
19 12
ĠÃ ĥ
b at
er al
ic ial
ell o
force ment
) </
Ġsecond s
Ġluminos ity
Ġsett ings
ĠR oute
a uthor
Ġbal ance
ĠS quad
phant om
19 26
Ġex ceed
rib ed
en ame
Ġv ir
ĠW el
Ġcon secutive
Ġrecomm end
Ġdis put
Ġneut ral
ĠAr thur
ĠU s
ĠE U
m i
Ġins ert
Ġcon vers
ĠMem orial
> (
Ġr ugby
Ġf ish
Ġse ats
fl oat
ar ry
Ġpart nership
ĠM P
ĠG iven
Ġweap ons
ĠP M
ĠSer b
Ġsk y
ĠP eak
Ġbu y
Ġdat abase
^* \
Ġgener ic
Ġm obile
Ġfluct uations
M ark
Ġlat est
l ast
Ġmole cular
ĠA rizona
Ġst d
ĠE th
ill ing
un ing
multi row
L A
^{ (\
ĠF ellow
Ġcompos er
+ (
Ġassum ing
Ġpract ical
o om
Ð »
add ing
W omen
Ġthous ands
ik a
Ġded u
Ġh our
Ġdis app
G ener
D i
Ġcry st
Ġd ashed
ĠBro ther
N umber
Ġser ver
ĠJ oh
Ġinstit ution
he nt
Ġ Î
R ed
ĠCol on
Ġengine er
ĠO s
S l
Ġb ran
col n
Back ground
ĠRep ort
) })
we alth
at iv
Ġflu id
ĠSing apore
Ġmult ip
c ard
IN E
ĠAre a
G M
ut her
L ast
es ian
ĠMar ia
Ġjob s
Ġdom inant
ar ity
Ġadv oc
19 16
19 23
Ġjournal ist
Ġgirl s
Ġan om
is lation
Ġport ray
ĠT ennessee
script style
ang ular
Ġ ,\
pro v
ang a
Ġst one
Bi ography
Ð º
B O
ĠP y
ĠGe V
S m
ĠA ud
ĠA D
Ġex cess
ĠM icro
Ġand roid
s ort
Ġv ision
H el
ĠSur vey
ĠE u
Ġjust ice
; &
gh an
ĠM iller
ure au
ink ing
ĠO regon
16 0
in us
om ot
Ġphot o
Ġt ru
P ort
ĠH and
Ġend ing
Ġs urn
r ations
Ġconf idence
ock et
Ġben ch
Ġunivers e
aw n
Ġgovern or
iv als
qu es
Ġhold ing
ĠH op
ĠHol y
az a
ĠL ore
ĠI d
Ġcomm itted
Ġv ot
Ġsepar ation
ivers ary
Ġvac uum
b u
ĠIslam ic
ĠCap tain
Ġc ab
ĠI D
Ġdistrict s
ymmet ric
ren e
ph p
ĠG h
Ġch airman
Ġgl ass
ĠViet nam
ĠTh rough
Ġvis ited
ĠMos cow
An other
init ely
ĠS aturday
ĠK er
Sup pose
ĠG allery
av or
19 15
er ies
ĠCast le
Ġdom inated
ĠGo ogle
ĠN on
rang ian
ĠLew is
c over
Ġsup ers
Ã º
Ġk in
18 0
Ġexpress ions
R ev
ĠS at
Ġconvert ed
ĠB ush
Ġsaf e
ĠF ederation
p res
i ated
Ġ{ };
Ġcall ing
m outh
ĠH al
Ġprot est
ro it
Ġquant ity
ĠAd am
Ġread y
Ġesc ape
ĠP ier
atur ally
point s
se lect
d irect
port ed
Over ride
Ġc risis
ĠLe on
ĠPhilipp ines
ĠR oss
z i
ĠA h
Ġocc asion
m ers
Ġcorre ctions
Ġperspect ive
ĠAb out
Ġdecre ase
ĠR a
anc er
ĠH ou
is or
ĠMary land
Resp onse
stit ut
More over
Ġproport ional
Ġpaint ing
st an
ĠF riday
qu ery
Ġcred it
S te
ĠG re
Ġdemonstr ate
re a
Ġb urn
B B
19 13
Ġd ense
ul ating
ĠJ ordan
st ances
Ġfl ood
ru ctions
F R
Ġread er
ĠF ord
Ġst ack
w ind
ĠPr inc
Ġbusiness es
Ġsomew hat
Ġh all
Ġdire ctions
eng ers
ĠF I
un s
Ġph ases
' ll
N on
Ġeigen values
Ġa id
Ġv anish
pd ate
ĠL ic
ĠM ult
Ġexpl ore
O lymp
Ġs ac
Ġgreat est
Ġ __
P ublic
. \\
Ġint elligence
ĠW he
Ġn ob
Ġrestrict ed
Ġsp ac
ĠM unic
Ġoccup ied
ce ived
Ġent itled
ound ed
the w
Ġregister ed
{ |
ĠM ach
ĠS P
ĠS av
Pl ay
ĠH ur
ĠDon ald
Ġpre ced
ef e
ph one
Ġdrop ped
Ġf resh
Ġm ist
ob j
Ġf estival
Ch rist
s i
et ch
s quare
ĠA R
Â °
Ġb odies
Ġex pos
ĠPr im
Ġdemonstr ated
ĠD ue
st ic
ub ble
w estern
w orld
Ġg ender
ĠIn vest
Ġcirc uit
ON T
ĠCh ildren
ĠH an
exp ected
$ ^{
) ^\
eg er
ĠV ice
ĠT el
Ġprodu cing
Ġcorre ction
l arge
~ (\
U p
oc racy
Ġfem ales
r ins
Ġsc oring
S che
ari os
med skip
Ġbur ied
ĠTown ship
the re
C ase
st at
\ |\
ĠM un
inst ein
ag en
d escription
Ġcharacter ized
low er
Ġcol our
Ġreturn ing
ĠCE O
opt ions
N O
Ġs izes
ot he
z ed
ĠAnd erson
ĠB h
ax is
Ġhab it
Ġbig gest
Ġgrav itational
B L
ĠS C
g ar
E P
ĠI R
Ġst ochastic
F unction
Ġparticip ants
Ġdet ect
rack et
Ġt ag
eng ths
Ġcolumn s
ĠT oday
Sec ond
Ġunder stood
l ib
ir ical
\% $
Ġb ow
Ġmon itor
us al
Ġcont ribute
not ag
Ġinter mediate
Ġdec ade
og onal
iction ary
ide os
L ong
Ġcar bon
Ġlo an
........ ........
Ġhe ar
ĠM att
ok es
Ġso le
S ong
Ġ$\ {\
Ġin tern
R uss
V ID
St art
or row
Ġ- >
Ġresearc hers
Ġcan cell
math it
ĠHar ry
Ġat oms
iss ip
ograp her
Ġ ille
l iving
ag ues
ĠC all
ĉ Ġ
Ġm ac
un ately
( -\
s g
circ le
enc ing
Ġcont ribut
ĠG rant
ou red
Ġd x
Ġw ants
Ġvari ations
Ġmom ents
el se
ĠPol icy
ĠA z
sh ow
Ġinvol ves
Ġconserv ation
Ġy ards
neg ative
d esc
R R
Ġw rest
Ġw alls
Ġacc ret
< !--
pro duct
Ġw arm
U s
Ġe ye
ĠN ever
Ġext reme
ĠA mb
Ġs un
ĠĠĠĠĠĠĠĠĠĠĠĠĠĠĠĠĠĠĠĠĠĠĠĠĠĠĠĠĠĠĠĠ ĠĠĠĠĠĠĠĠĠĠĠĠĠĠĠĠĠĠĠĠĠĠĠĠĠĠĠĠĠĠĠĠ
H om
t i
ition al
cl ose
ĠSta ff
off s
ur is
and ra
M ult
Ġdi plom
Ġro yal
ache lor
ĠRepresent atives
d f
ad ata
C ent
âĢĿ ,
ĠT ro
Ġcoupl ed
Ġro ots
ĠC le
g reen
L i
p ers
ĠA T
R un
ĠW at
Ġpl as
ĠN AS
ĠE nt
ill ery
Com ponent
p ur
Ġpack age
Ġsent ence
ĠAm ong
ook ing
duc ible
Ġst orm
m f
Ġm ent
ĠG ib
ĠH om
equ ations
Will iam
Ġoff set
ĠB alt
ap el
C urrent
Ġf an
om ent
Ġm el
ĠSl ov
Ġimpro vement
Ġdec isions
Ġprom ote
Ġst ages
Ġt rib
ĠBar on
Ġy ellow
t ree
Ġmedal ists
Ġp un
Ġinst ant
ĠPhil ip
d ash
ĠHigh way
Ġrelationship s
b p
A wards
Ġun s
Ġgu ard
ĠAdminist ration
ow nt
ile y
itzer land
Ġt ick
cor ollary
ii i
Ġconcern ed
su ccess
Ġfeed back
ow ski
ĠConn ect
arg ets
Ġrespect ive
j ust
Ġpresident ial
ĠE ric
Ġre new
ĠL ow
Ġdo ct
Ġdesign ated
ĠC ab
T em
Ġnom inated
ĠB efore
ĠS U
Ã ¢
cer ning
Ġw ins
ĠD M
ĠEn vironment
ĠT ai
ĠUk raine
Ġb ought
inc ial
ĠN orm
ĠB arn
ul us
ĠInst ead
ĠFred er
clos ed
ĠSt ory
Ġcollabor ation
ĠN S
Ġperturb ation
n old
Ġm and
M ost
19 11
ĠT ransport
ag h
Ġher self
ĠP itt
ĠEx t
empt y
ĠD or
N E
Ġv ent
Ġto wer
Ġw avel
Ġa w
ap h
ĠMal ays
Ġal ter
U til
Ġs ought
U nder
Ġthe atre
Ġregard ed
s em
is en
Ġl ock
Ġs ale
Ġh alo
Ġprogram me
Olymp ic
H er
m ember
id ge
Ġhapp ens
Ġle ct
back slash
ĠCh annel
Ġhom es
ar ithm
ch a
Ġn arr
olog ists
Ġopport unities
op es
Ġsim ilarly
ĠSh ort
Ġevalu ated
Ġaccount s
du ate
W est
Ġm es
n n
> \
Ġattempt ed
Ġdo or
ĠS ky
Ġpropos al
Bl ock
N av
s ince
ic ide
ffic ial
Ġsynt hes
ĠB an
c lear
Ġsens itive
Ġconn ections
Ġrev olution
ĠOffic er
Ġprofess ion
| ^{
ra it
B ook
ĠBuild ing
Ġsched uled
Ġillust rated
v als
^* (
Ġp ip
Ġprodu ces
ĠNor way
n ight
Ġworld wide
Ġdep ict
ĠJ unior
Ġcont ributed
B efore
Ġperiod ic
ic ut
! ]
Ġclos er
Ġ ..
j av
ĠI owa
u y
Ġconcent ration
Ġap art
ou ble
f ull
ĠBase ball
ĠM ir
D D
ĠG P
ĠSim on
ĠC H
B o
u on
ĠT ony
ĠC ost
Ġleg islation
Ġcrit ics
A g
Ġex erc
St yle
St atus
in ator
ues e
Ġvol unte
Inst ance
Ġreconst ruction
Ġsix th
ab ama
G A
Ġconfig urations
Ġscen es
Ġv ocal
Ġgeomet ric
Ã© s
Ġperman ent
Ġh ierarch
Ġreason able
pro perty
es ides
Ġ\ ,\
Ġsch ol
Ġperiod s
math tt
ot ional
Ġdr iven
Ġ< <
M E
ĠComm unic
Ġeduc ational
Ġimmedi ate
tain ing
it udes
Ġsh ares
Can adian
ĠN one
im ation
Ġfrequ encies
ens is
Ġprep ared
Ġresist ance
Ġis ot
Ġredu ces
ĠGree ce
ĠLin coln
B el
ĠCons ider
P res
ĠAl bert
ĠMag azine
B est
gl as
ĉĉĉĉ ĉĉĉĉ
Ġk ick
Ġres c
Ġf ra
! !
ã ĥ
Ġpract ices
ĠO ak
)} (\
ĠEnter tainment
Ġcertain ly
ort ion
ject ure
ĠM it
v ect
f rame
Ġref used
og ram
Ġelect rons
ene z
cl ip
Ġcomb at
J apan
form er
A ction
is ot
Ġst ead
Ġpers ons
! \
ĠComm un
Ġb ronze
ĠJ ane
id al
ã ģ
Ġrespons ibility
oc a
ĠOn ce
ĠIn n
Ġse ed
Ġeduc ated
Ġstudy ing
$. }
ĠB ab
Ġhot el
Ġstat ements
Ġsee k
Ġprof iles
Ġsup pose
in th
com put
Ġstrateg ies
Ġneigh bour
ĠN a
Ġgener ating
Ġmov es
ĠK itt
ĠB os
Ġin clusion
ĠMod ern
ĠAg ency
Ġabsor ption
ĠL ocal
ĠMon te
Ġsc ores
Ġf lex
ah oma
m al
P O
rel ation
ĠT urn
ro ps
Ġpil ot
ĠOb ject
h fill
ĠHaw ai
Ġgu est
Ġcru cial
Ġad ult
qu ant
St ream
Ġexec ution
Ġbrother s
Ġuniform ly
Ġphot ograph
Ġcontrol s
ĠKent ucky
Ġpol l
190 8
angu age
us hed
Ġsy m
Ġc as
Ġch ose
Ġpop ulations
ÃŃ a
G R
ĠV o
Ã¼ r
Ġpolar ization
Ġlook s
Ġcross ing
Ġold est
ĠMel bourne
M c
ĠAss oci
Ġclass ic
Ġsupport s
Ġdet ector
Ġadapt ed
Ġexperi enced
ph y
Ġalgebra ic
Ġconclud ed
ut ies
P M
Ġupd ated
ĠAr k
A nt
M ain
l an
ib ilities
Ġfill ed
A cc
Ġt ight
m ode
rep resent
Ġenh ance
Ġref uge
W ind
Ġg ate
ĠL iter
Ġvill ages
P at
Ġwe ather
12 3
ous es
Ġre aching
el ve
ug in
f a
oc ese
Ġrac ing
Ġaccom pl
$ {
Ġstrict ly
ĠA ge
ĠS ri
}\ |
w ave
down arrow
Ġlin ked
ĠK at
Ġind ices
ĠR ose
igen ous
Ġuncertaint ies
ĠC ode
c are
Ġwin ter
Ġp ed
Ġl ab
ĠL td
ol id
in cess
W id
Ġquadr atic
ik h
foot notes
Ġexhib ition
Ġbound aries
ĠN ick
Ġstand ing
T ax
ur d
ĠG reg
Ġtr igger
T oken
p red
Le ft
13 0
Ġsup posed
Ġliqu id
Ġthink ing
ann er
ĠM as
Ġre nd
im ages
rap y
Ġprem ier
ĠSup pose
Ġdeg ener
Ġca ref
sy mmet
bt n
ict ional
Ġre ar
ĠF ront
us cript
stack rel
ĠN FL
N ull
ĠS ix
ta ch
ers et
Ġnormal ized
Ar ch
row ser
c raft
Ġcomp ens
Ġstar ring
osp it
ĠR oy
Ġf aster
Ġkill ing
ĠFor ces
serv ice
O O
if est
Ġexper iences
Cont ent
Ġsust ain
head er
Ġinst alled
sc ope
S H
G en
Ġd ream
Ġheav ily
Ġf itting
Ġtra ins
ĠCh ile
Ġp uls
ĠWh it
B E
As sum
ĠK han
her ical
r ates
footnotes ize
Ġbro ke
' _{
con duct
Ġhead quarters
ĠF ourier
B ibliography
k ov
ĠAf ghan
kl ahoma
Ġpl ate
}{ *
Ġinf rastructure
ire ction
i Ã³n
so le
Ġsett led
end ar
Ġpart ially
ym ph
Ġlaw yer
B R
Ġbu ff
w ick
Ġe le
ĠFace book
um a
cl ient
ĠTok yo
Ġpat ient
Ġf aced
Pro v
Ġhum ans
I ST
ocr atic
Ġprec ise
ĠS N
Ġpoint ed
Ġcap able
ĠN ext
ĠW olf
Ġdef ines
Sport speople
Ġs oci
Ġvary ing
l ie
ĠC art
fin ished
&= &\
erm i
Ġsimultane ously
sh ort
E ach
Ġrepl acing
Ġderiv atives
ship s
ĠL abour
ĠS ound
Ġorb ital
R ad
ĠS quare
orthe ast
od ox
- (
Ġset up
ĠD ark
d on
ĠC ape
Ġhoriz ontal
Ġsol ving
ĠG all
Ġdeb ate
ĠB at
I O
Ġfound ation
ĠB ureau
iam i
t or
ot on
z ing
ĠSen ior
& &\
ĠJ os
et ing
w t
l ic
Ġdec or
Ġmet all
act or
{ (\
ĠS D
end ment
ĠF ame
Ġmark ets
Ġpres ents
ig ious
Ġjo ining
Ġclass ified
w ich
ĠDi ego
ill ed
ĠC are
Ġb atter
$- $
ĠSt one
inem a
Ġs ons
up arrow
Ġsystem atic
ys ical
ub b
h ang
ĠSw itzerland
Ġcomplet ion
ĠMo ore
af e
Ġrequire ment
Ġformer ly
com b
D ep
Ġatt orney
arg s
arri er
Ġrapid ly
ĠTur kish
Ġan imal
Ġview ed
Ġf ear
c ers
Ġcomm ander
ar o
ĠC ru
ĠB ah
rag on
ak ed
Ġin her
Ġm ental
rupt ion
ĠMan chester
g ather
Ġthan ks
at he
Ġdirect ors
ĠAust ria
E uro
Ġc odes
Ġenc ounter
Ġd im
Ġkeep ing
ĠM ap
Ġshort ly
Ġoper ate
ĠTh ird
Ġhor se
ĠPer form
rac ks
A f
Ge V
Ġch apter
L ife
yn asty
ym n
Ġorient ation
Ġscient ists
Ġstraight forward
own ed
Ġcaus ing
ant e
Ġl ists
Ġcrit eria
Ġpre tty
Ġtop ology
Ġdiff usion
but ton
Ġo vers
Ġne ither
Ġab use
Ġph one
Ġconj ug
ĠT an
\| _
ĠHow ard
ĠReg ional
ĉ ĠĠĠ
g ment
Ġvictim s
Ġexpl os
edd ing
ĠE P
} );
ĠSim ilarly
Ġag encies
Ġsur g
ĠB rian
Ġdens ities
am ing
| $
ĠHol lywood
Ġdescrib ing
Ġloss es
ĠCo oper
S ources
ĠAn y
Ġw ish
7 00
B N
Pop ulated
Ġent ang
im p
d am
Ġgood s
ĠT HE
Ġv irt
Ge ography
Ġk il
Ġpass es
sh ot
Ġde leg
Ġad vent
' d
) }.
Ġoff ices
Ġmay or
Ġjourn ey
Ġsp eaking
f ind
ynam ics
Ġn aturally
ĠAl i
Ġprec ision
a ire
Ġch urches
Ġinflu enced
Ġincreasing ly
w all
Ġsucceed ed
ĠB rand
on i
Ġprom otion
it ory
Ġt ang
el son
uer to
Ġsymbol s
ĠMar ine
ĠN ULL
> >
Ġsche mes
Ġs and
St at
Ġsur faces
ta x
Che ck
w as
ĠAll en
Ġatt ached
Ġtop ic
ĠN ich
H on
Ġco aches
$ ^
issip pi
ĠAl abama
Ġ$ ^{
Ġstrong er
Ġneutr ino
V ar
ĠDef ense
Ġpolynom ials
X X
ĠL ear
Ġmaintain ed
ĠMond ay
Ġsubject s
ĠT en
20 23
Ġens emble
Ġres idual
\! \
Ġe c
Ġretire ment
N orth
Ġf ont
De ath
Ġcontinu um
Ġpan els
op le
ĠHe art
en ance
th ick
} /\
ĠP ope
os es
Ġcent uries
ĠW ed
ambig uation
Ġh its
Ġcustom ers
ĠF ac
ĠR oll
Ġmusic ian
) [
Ġform ulation
Ġassist ance
ĠD un
ail ed
requ est
rain ian
ĠPat rick
Ġb low
ĠHou ston
ĠN ev
che ll
Ġinvestig ated
f ilter
im its
) ).
18 90
Ġf ib
Ġmanag ers
Ġprot ocol
ĠR ey
b urn
Ġg ar
ĠM oon
ed u
Ġinstrum ent
Ġb an
T O
comple te
Ġappear ing
Ar g
Ġinst ances
Ġliter ary
% .
i ative
Ġconvent ional
Ġanaly tic
@ {
w hen
ĠD ream
onom y
an ia
com es
Comm and
ĠI r
ĠN ap
Ġpurch ase
ĠJ am
Ġexpect ation
Ġstri ke
Ġhom ogeneous
ĠP ot
ĠG ram
Ġsec ure
m t
rom agnetic
Ġair port
Ġs we
Ġe yes
ud den
ta h
Ġdecre ases
Ġw el
Ġdrum s
Ġh air
Ġcap tain
Ġscen arios
ĠU l
ubl in
Ġch arts
aw are
Ġcho ices
Ġv ideos
mult line
Ġfil ed
Ġhy brid
app end
er on
Ġw ire
f riend
Ġmodel ing
Ġf ought
ĠSquad ron
ĠR ab
Ġdist ances
ĠP C
ĠEm peror
ater ial
ĠWal ter
r ison
n ol
Ġm ales
Ġde viation
ĠN aval
pro pto
O pen
over ty
Ġst ret
Ġdiscuss ions
Ġqual ified
ĠI l
ĠO tt
L eg
ymmet ry
enn y
O rig
ob serv
Ġb ond
L ink
l ad
Ġdiagram s
Ġm ir
. '
M F
inv ariant
Ġtest ed
d est
Ġv eter
Ġform ally
Pl ot
ĠA maz
H ar
ĠNor wegian
Ġprote in
H igh
Ġbelong s
Ġat omic
rehens ive
00 1
Ġg one
190 9
Austral ian
cul es
Ġm ort
190 5
ĠP a
}. }
Ġdefin itions
p ush
pl es
St ar
Ġmembers hip
ĠCommon wealth
ĠN ative
d rop
Ġinv ited
el ian
ĠM C
Ġly rics
r ator
Ġpain ter
Ġdeliver ed
)-- (
ĠConnect icut
ĠC atal
Ġf olk
Ġsign s
ĠE s
N C
ĠL ank
}$ \
ĠW y
k ern
Ġm ask
Ġsubs id
Ġiter ation
od ge
Ġtrans verse
im g
ĠS el
ĠM S
ĠCol omb
Ġattack ed
190 6
Ġexhib it
Ġident ification
ang el
ĠK a
Ġfound ing
urs day
ĠEar l
Ġsign ature
struct ure
ĠAddition ally
ĠI mm
25 6
Ġgradu ate
Ġl ift
m o
Ġsit uated
Ġt ack
Ġpotential ly
ĠDo ctor
og g
Ġp ray
ist ant
Ġeng aged
y ers
V is
ĠG a
ĠDet roit
Ġmod er
Ġprom pt
u able
*} [
Ġperm ut
Ġg ene
ĠMed icine
ĠAl gorithm
Ġhelp ing
Ġacc used
Ġread s
ant asy
RE F
m ont
ĠSil ver
Ġ ur
T A
G P
Ġdiscover y
Ġpercent age
Ġparticip ate
Ġd ates
D es
V ol
Ġdis pl
$ }}
etail s
Ġtem ple
Ġfac ilit
col l
ĠN et
L ocal
ĠHar ris
) (\
Ġsy mp
im ore
Ġ( (
Ġtrans itions
o a
ir ation
Ġmetric s
ak ers
Ġdisp ersion
ag u
ues day
190 7
ĠR eb
Ġv oted
Ġestablish ment
ir cles
Ġisol ated
Ġm art
ĠAn ne
ĠMe an
Ġro of
Ġsens itivity
bin om
ate ur
left arrow
Ġlic ense
ism s
rins ic
rid ges
ĠC op
h ave
Ġm ount
ĠTem ple
Tr ue
Ġj azz
oy d
n m
er ion
k ee
Ġf er
ar ation
ĠMar c
P age
d epend
) "
Ġincorpor ated
ĠG R
ĠB ir
ĠM L
Ph il
Ġb ed
ro ke
gra v
ativ istic
ĠKenn edy
Ġcoll ision
pr ivate
Ġqu ot
f amily
Ġen emy
O p
field s
Ġm ob
$\ ,
Ġform ul
In it
ĠLag rangian
el lect
Ġaccom mod
Ġr uled
Ġst ores
Ġsp here
ch ild
Ġ- --
Ġthrow s
Ġsubstant ial
u j
Ġd uty
D irect
U K
Ġbring ing
B orn
Ġhistor ian
ĠHot el
Dav id
D at
Ġ elli
Ġst abil
Ġfact ory
$\ \
en ia
Ġaud io
ĠJ ay
}) ^{
od a
ar on
Ġag ed
m aster
Ġd a
Ġord inary
Ġk id
ram ework
ĠF a
ĠI ss
Ġf ranch
Ġf old
] ^
Ġsee ing
ĠCor ollary
ard o
Ġbeaut iful
t im
z z
Ġan not
Ġreject ed
ol ation
Ġcerem ony
M D
Ġcol ors
ownt own
M O
Ġsur ve
ĠD ick
R ail
Ġautom atically
ie val
Ġt argets
Ġcrow d
ple x
ĠK az
ĠC er
all as
Ġhel ps
Ġoffer ing
se p
ĠMat thew
ĠCh all
Ġpublic ations
Bl ack
ĠD NA
ist ence
el and
Ġrestrict ion
J u
j son
w ill
el le
er g
Ġcour ts
ĠO klahoma
Ġad vers
roll ed
Ġfav our
out put
ph ase
ĠB eng
ograph ical
Ġ\ [
Ġv o
ĠQueens land
Ġown ers
Ġorth ogonal
ĠTe levision
Ġoper a
Ġequip ped
ĠB or
ĠBill board
ĠHer itage
Ġleg end
Ġver ify
ĠInf antry
Ġgun s
dis ambiguation
Ġen able
Ġdis miss
Ġtra v
Ġins urance
ĠT reat
Ġ+ =
Ġreal ized
ĠH ans
ĠAnth ony
Ġexc ited
ĠG ab
ot te
r in
em en
=\ {
ili ar
ĠMr s
M ich
B bb
Ġ" ""
Ġp ione
ist ration
cl ine
ĠHar vard
Ġlik elihood
Ġc ub
Ġbo olean
à ¸
nes day
Ġd ip
Ġ _{\
Ġim possible
Ġhoriz on
Ġcom plicated
J S
ĠE c
$ '
is ition
iv a
190 4
gl obal
ĠP erson
text up
Ġshoot ing
conn ected
Ġgener ator
Ġ( ,
Ġsignific ance
Ġcon cerning
H D
Ġcent ers
Ġmov ies
Ġprinc iples
ĠĠ čĊ
Ã© t
ĠS che
ish ment
ol ished
Ġqu as
H O
f ather
all ow
14 0
AM E
{ .
Ġtransl ated
ou ch
Ġgu ide
Ġappe al
ĠD al
gress ive
Ġj ump
m eta
Ġte achers
Ġte en
Ġirre ducible
Q ue
ĠCro at
f n
n ie
Ġass ault
Ġv ort
ĠS ign
Ġconserv ative
Te levision
l arg
Hand ler
aud i
Ġreconst ruct
G r
Å «
F S
Att ribute
Ġwor st
Ġas sets
Ġdesign s
Ġaccom pan
iss ance
ĠY outh
Ġhundred s
ann ot
Ġpenal ty
Ġ( ;
) _{\
eb ug
ĠS n
b es
Ġt el
me an
red it
Ġtra p
in ces
Ġ }}
han ced
ĠC ook
pr ise
Ġsever e
ĠDou glas
uz z
Ġcon vention
Ġn ations
v ia
Ġl aid
V ersion
st s
Ġent ity
text color
ĠStand ard
Ġsum m
ul ator
ĠD aily
ĠPe ace
Ġpro hib
Ġacc ord
Y PE
Res ource
ater n
cont rol
Ġclos ure
ĠâĢ ł
Ġpoet ry
ĠR ight
ĠG ard
ĠR yan
ash i
pro fit
1 15
os c
Ġsatell ite
Ġcompar able
form at
ab et
Ġadapt ation
Ġsec retary
Ġfind ings
function s
Ġsub space
}{ {\
Ġmat ters
Ġphil osophy
ĠN av
Ġpro position
M any
ĠB ry
ĠSup port
fort unately
ĠDe ad
Ġre vers
Ġexecut ed
ĠP age
Ġdef ining
cy cl
G S
ĠMiss issippi
Ġsim ulated
ol o
sp in
Ġweight ed
Ġre put
Ġexcell ent
Ġemploy ment
w en
ĠH amp
ĠH erm
ist a
ug u
at in
Ġw onder
ĠD ur
Ġmechanism s
ĠN ob
Ġsing ers
Ġcarry ing
ex ists
iem ann
Ġun iqu
Ġindependent ly
Ġinj ured
ĠM A
Ġelect ro
ĠU V
Ġbl og
f ef
ĠV iew
ra ge
190 1
ce il
10 5
ray s
um ps
Ġneigh b
b lem
ĠOr th
ĠD E
Ġstop ped
ac le
s a
level and
ĠM and
Ġmer ged
ĠCh airman
U C
T ask
ĠF M
, ...,
d em
Ġturb ul
P D
ĠC ulture
Ġdivers e
ĠN ig
ĠC emetery
Ġconv olution
GB T
Ġlook ed
w ho
Ġmed icine
Ġ\ {\
Ġcl er
ĠN ik
Ġdr ivers
Ġbas eline
par ameters
Ġsh ut
ĠB ible
Ġcounter part
Ġinhab it
oun sel
od s
Ġtempor al
Ġarr ival
E p
ĠArgent ina
R ober
ib l
ĠPh ill
Ġg ather
Ġsol ved
i eg
Ġdisplay ed
Ġanal ys
ĠLouis iana
Ġcompet itions
anc ell
Ġcoll apse
F O
Ġman uscript
ĠSc ient
ĠDom in
ĠL ib
Ġstruct ural
Ġconsist ed
m em
Ġl ake
Ġste el
Ġin duct
Ġregular ly
Ġelement ary
ch ant
ĠArch itect
Ñ ĥ
ĠK y
pl an
ĠE arly
Ġd uration
ch t
s is
Ġth read
Ġcorrel ations
Ġindic ating
Sc ript
Ġanc est
Pro position
Ġ ~\
ĠL ev
Ġcommission ed
3 50
ĠG ordon
ĠEconom ic
ĠR E
Ġcomp ris
Ġreplace ment
ĠTw itter
Ġs occer
ĠA L
ss on
Ġindu ction
Ġal gebras
\ }.
ĠAl b
Ġa ired
compon ent
enez uel
Ġw al
Ġsub section
V ER
ĠA ction
am ents
Ġre in
pt r
ĠN ash
iam ond
and o
Ġaccret ion
V ideo
ĠHon or
ĠK l
Ġl es
ĠD ak
Ġchalleng ing
Ġtalk ing
Ret urn
190 3
ific ial
Ä ĥ
ili ary
Ġarm ed
ct ic
Ġcircum stances
r ase
ĠBr un
qu est
Ġp y
ĠR ub
Ġob lig
Ġunivers ities
Ġout come
Ġt ennis
ĠQue bec
Ġun us
Ġde put
ol ly
ĠWalk er
sup er
is ations
Ġdistingu ish
ĠL yn
A ng
Ġform ing
Ġconsider ation
Ġdi ameter
IN T
. $$
Ġf itted
ef ined
al ia
Ġf ilt
Ġrat ios
\, {\
F actory
s burgh
Ġdeb t
Ġredu cing
Ġap plies
up date
1 12
Ġinstrum ents
ĠP uerto
Ġf alls
Equ al
ĠBow l
Ġb anks
ĠI mp
ess ions
f ront
Ġm ilit
ab ad
Ġcorpor ate
ĠD a
ĠVill age
writ ten
D T
ĠE ag
d ensity
ĠNC AA
Ġre venue
P an
Ġdom ains
th rough
hy thm
Ġc aught
comm on
ĠP rom
ĠF inn
Ġhe aring
ĠOb serv
ĠR ic
Ġd ry
bum s
ul ner
ĠSw iss
ual ity
ĠPl ace
Ġc yl
Ġbran ches
ĠE vent
ĠDis ney
ou stic
Ġst ating
ĠK am
Ġsp ending
Ġr ival
Ġaband oned
y cl
st ates
Ġpaint ings
ĠF le
ã Ĥ
var rho
ĠBul g
ra ce
ĠR ow
ĠSt ew
st d
ĠAnton io
Ġimp ly
Ġcollect ive
Ġreson ance
b ad
Big g
m atch
Ġre ward
Ġl it
D en
ĠN am
\ },
Ġsurn ame
ĠM iami
ĠRec ord
fef efe
ĠV ari
in ch
fl at
Ġann iversary
Ġch a
Ġoccup ation
C ap
or ous
Ġexplan ation
ĠN atural
Ġmess ages
R T
Ġcon crete
Ġt all
ĠK now
Ġbo ys
V ill
Def ault
E ducation
190 2
ĠBelg ium
ate ver
ĠMay or
Ġassoci ate
rep rene
ant on
i ability
ren cy
ĠS ud
}^ +
ann e
b ey
18 80
ane ous
1 14
Ġfact s
ug ment
Ġreg ression
pr im
Ġinfl ation
Ġground s
H am
cite alt
ĠP A
Ġst adium
Ġext racted
F ilter
p rec
ĠT rade
ĠA le
Ġl aser
ĠTai wan
Ġapp rec
T im
arg o
ĠPortug uese
l ades
Ġrandom ly
Ġcosm ological
L oad
ĠTh ough
Ġin aug
ĠL am
}[ !
n ik
Ġtransform ations
ĠM ath
Ġ{ }
Ġint ent
Ġent rance
aint enance
Ġacknow led
ĠLa ure
th on
small skip
ĠCO VID
Ġmod ules
Ġep och
Ġf its
r Ã©
Ġcompet e
Ġf iber
}) =\
Ġs elling
ĠL ang
C ref
iz able
ia h
Ġf ly
et ary
ram a
ĠAl ber
ĠRes erve
Ġch air
leq slant
Ġhol es
Ġv ast
op ter
W A
T ag
Ġrecover y
Ġfun ctor
ĠC hen
ri k
p he
ĠCon c
ĠF arm
in burgh
Ġon going
c ross
ub er
h ow
ar ma
Ġf aces
Ġ Ä
Ġcoupl ings
Ġocc as
Ġb rown
ĠMc K
j u
Ġpost ed
) ),
ĠK evin
ast e
ĠF ood
Ġamount s
^+ $
ĠH ills
ĠInd ependent
ĠH ilbert
be an
ĠSec ret
oc he
Ind ian
Ġis lands
Ġcom ic
or b
ĠBatt alion
ĠF ried
St ep
ather ine
ĠCh ild
ol y
ĠDe ath
Ġemer gency
Ġm ys
ĠDen mark
ĠL as
ĠB ou
ĠP ed
Out put
ĠIndones ia
v y
Ġmin ute
Ġ\ |\
ri or
11 1
ĠM i
Ġsit uations
Ġman ip
Not able
nav bar
Ġeven ing
Ġsl ope
ĠEqu ation
Ġ es
Ġsu it
Ġab stract
Ġlog arithm
ĠF all
Ġsim plicity
Ġkin etic
Ġstre ets
Ġs ight
Ġmarket ing
Ġ{ $\
ver age
_{ -\
ang ers
1 13
Ġw ait
Ġwrit es
back s
ĠR est
Ġland scape
ro c
Ġcour ses
Ġtraject ory
Ġ( ),
ah n
D om
c p
Ġbo at
AR T
Ġc od
ĠJ un
ĠOr chestra
Ġplas ma
ĠS oc
Ġcompat ible
pl us
Ġj uris
ĠCont rol
Ġse es
red ited
osl av
) }$.
O ptions
Ġp rices
Ġr ating
ĠCol lection
Ġdrug s
unn y
ĠD VD
Ġast ron
We b
h ist
ĠUn it
M arch
Ġr anges
Ġcirc ular
Ġanaly ze
param s
Ġdis establ
ĠS port
Ġpart ners
Ġinv asion
G E
ĠLaw rence
ĠTer rit
k g
Ġkey board
ĠSy ria
ĠS af
D O
cl ide
Ġmet res
ĠAl an
usal em
ĠD ave
ĠP as
Ġmin ing
ĠAtl anta
Ġgovern ments
ĠP rix
Ġannoun ce
Ġeas ier
Ġdown load
u h
Ġh ired
tr ivial
Ġsmall est
ac on
ip art
Al so
Ġre ign
_{ +
al ities
ĠB uck
prob lem
ĠEx press
Ġde pos
ma king
Ġk ids
ĠH as
Ġcompar ing
ĠP ear
re tt
ĠS in
ĠBrig ade
M T
ug ar
ĠN umber
ĠV in
Ġsport speople
Ġproper ly
ay an
Ġexerc ise
ee k
oth s
ig e
Ġsimilar ity
big cup
Ġadm itted
Ġac id
ĠN ag
ect ure
Ġsh aring
eg et
Ġferm ion
con v
Ġal leg
ĠGu ide
d oor
ĠKel ly
ĠN E
Ġre nt
Ġa f
ap olis
ass ador
mod ules
% ,
il st
re ement
St ud
Ġt ropical
ĠAl ice
S em
Ġd og
ens ing
H P
x ml
Ġh am
Ġv oting
Ġphot ons
ĠSpace watch
j pg
ĠL anc
ĠĠĠĠĠĠĠĠ ĠĠĠĠĊ
ĠSe attle
Ġatmosp here
P rop
le e
Ġass embly
Ġr is
Ġpr on
Ġres id
viron ments
Ġcompet itive
ĠAb d
M ilitary
Ġf ul
her ic
ĠG arden
ot ype
Ġm al
Ġpriv acy
Ð ²
Ġdep icted
Ġs udden
Form er
Ġbo ost
ors es
Ġrow s
Ġeth nic
Ġsee king
ĠF ermi
Ġus age
* /
sh ould
form s
Ġmanufact uring
" ]
text normal
ĠDig ital
ĠĠĠĠĠĠĠĠĠĠĠĠĠĠĠĠ ĠĠĠĠĠ
Ġpseud o
ura ble
Ġconsum ption
re v
Ġinterpret ed
C R
ann y
Euro pe
F ootball
Ġexpos ure
W E
ĠAp ple
Ġdec ide
ĠLiber al
) >
sub equations
st atus
Ġw arn
r g
bor ough
text sf
ĠT uesday
P aul
ĠSam uel
ĠC R
ĠMor gan
ra v
ĠR y
ol ving
part icle
} >
cor respond
Ġland s
Ġne arest
et he
ĠCl inton
Ġsp an
Ġw aters
F inal
ĠComm ander
Ġm ine
ub le
Ġtop ics
ĠCom mer
Ġsh arp
e ast
Ġdesc ript
Ġinter vals
Ġconn ecting
ĠD ublin
Ġ\ }
Ġhigh way
Ġstation ary
oun ced
ĠC NN
Ġhapp y
Ġan th
ĠH ockey
Ġarg ue
ĠH it
Ġconsider able
Ġhe ter
ĠLem mon
B en
m oment
Ġeigen value
Ġtrans action
clide an
c ategory
;\ ;
Ġh al
Ġcre ative
T ube
d ocument
ail and
def n
Ġres erve
ĠH ug
Ġser ial
ĠCh ampions
Ġrank ing
ĠCon vention
Ġp overty
Ġre aches
appro xim
ĠP ap
ĠC ow
cast ing
ĠNew ton
Ġinv ent
AT ION
our se
J une
ut ed
ĠTra ining
cond ition
g i
ĠTh ursday
nol imits
Ġprov ision
Ġroad s
Ġp up
M us
over y
Ġl ose
ĠJu an
}^{ +
ĠK o
at ivity
Ġc ited
;" |
Ġwhen ever
Ġpass enger
Ġdis order
Ġtem plate
ĠR ick
Ġfram es
ud a
B ecause
M al
l u
Ġcons c
ev al
ĠPet ers
ĠF ather
Ġcollection s
Ġc ash
v as
b ach
f ast
est yle
ject ion
resp ect
con c
Ġfle et
d ale
vious ly
ch anged
R ich
Ġatt ribute
ĠCap ital
Ġeng ines
Ġb irds
int end
Ġj unior
Ġstri p
S an
sc ription
Ġleg isl
Ġapplic able
Ġschol ars
ĠC ensus
is ons
Ġtw elve
Ġille gal
q l
Ġclin ical
ĠH u
i ot
sh ape
ĠM ission
Ġpres c
Or der
H ome
\ [\
Ġfe as
Ġa ux
Ġtouch down
ĠB us
B uffer
1 17
am an
ut s
lem an
Ġvol t
\ /
Ġoper ates
Ġst ored
ĠIm perial
eg as
ĠPortug al
ear ing
Ġlog ic
ellect ual
S u
Ġaccompan ied
& -
Ġrema inder
Ġaver aged
ĠD anish
Ġexp ensive
Ġsp end
Ġsche dule
Ġconven ient
Ġb ars
place ment
Ġcondition al
ĠAuthor ity
U I
s n
Ġhead s
Ġbench mark
Ġgreat ly
L R
Ġb ary
or ient
Ġlabel ed
Ġhost s
sy m
Ġre tail
Ġtechn ologies
ĠF il
Ġrecord ings
Ġembedd ed
ass um
f ly
Def inition
om as
ĠEq s
Ġmechan ical
ta ke
ĠE X
ĠB uff
Ġinput s
let ed
Ġconcept s
resp onse
Ġadv ice
Ġd iversity
ĠStud ios
}} ,\
J ust
un finished
R oman
Ġcommunic ations
Ġconsequ ences
Ġv ic
Ñ ı
C F
ĠS everal
J ames
Ġunit ary
Ġren ormal
Ġar ise
) }$,
ĠMot or
Ġsp oke
Ġsing ing
m ag
ĠD at
ĠCont in
u ity
Ġtri es
Q L
ĠFreder ick
ĠW ard
ĠCh amber
es is
Ġacc um
Ġcl ients
ĠWed nesday
ĠC ond
ĠRes p
az ines
Ġh un
ren a
b efore
id ay
ĠF A
Ġexpl ains
ch annel
Ġcon version
ĠSen ator
Ġpost erior
Ġc ircles
Ġown ership
Ġat om
Ġabund ance
amp s
\ }_{
ĠEd inburgh
Ġst im
Ġgener ators
b etween
up le
Ġpix el
ĠPl ayer
Ġphenomen on
F ONT
Ġcut s
Ġg iant
th an
10 2
ith uan
ific ate
Ġcorrespond ence
ĠB art
V ari
ĠE mer
Cl ub
ol as
il k
Ġdecre asing
or f
per t
ĠA BC
Ġpresent ation
Ġsm art
Ġreve als
ho en
ĠU tah
ĠLie utenant
Ġpri ze
ĠBrazil ian
f all
n est
s rc
ĠAd ams
Ġvot ers
ĠAtt orney
ĠDep uty
dom ain
ob i
ploy ment
ĠHistor ical
pon ents
g ate
Ġres idence
Ġwind ows
Ġis omorphic
Ġra in
ĠP ur
at ar
Ġgrad e
189 8
3 60
iv ation
t ed
c hers
the ory
f ol
Rec all
k it
ĠC ra
Ġcomp lement
Ġparticip ation
Ġpre v
l on
: "
Ġch iral
ĠS O
Ġmathemat ical
F amily
bar a
M r
ĠMalays ia
ĠB ox
pr ison
D esc
Ġfin ishing
U M
K E
athe red
ck nowledg
b c
ist ing
ĠLic ense
Ġloc omot
Ġdou bt
Ġcon e
inst ance
ĠR ound
Ġdecl ine
ĠF ri
Ġgrow n
T ransport
Ġvari ant
Ġneg lig
Ġatt ributes
Ġpl ots
Ġent ering
Ġagric ultural
Ġsepar ately
Ġs oul
Ġsy nd
Ġch ampions
ish ops
end if
val ued
Ġa er
Ġang les
Ġearli est
ol ph
Ġdistingu ished
Ġturn ing
Ġprodu cers
Ġgeneral ization
ĠR ace
ĠJer usalem
ĠPh ot
ĠRef orm
esc ope
Ġd war
Ġc av
ĠG ulf
Ġinst ruct
ĠS ac
Ġcomp rehensive
Ġdis cret
ĠF ern
l oss
ind ependent
Ġemp irical
Ġmarg inal
Ġexp ed
Ju ly
ol ves
k ind
Ġp itch
ĠĠĠĠĠĠĠĠĠĠĠĠĠĠĠĠĠĠĠĠĠĠĠĠĠĠĠĠĠĠĠĠ ĠĠĠ
. ;
Ã ´
Ġd t
Ġe mail
Ġf lying
18 70
ĠLeg islative
Ġb id
Ġfl o
aw ay
Ġcontinu ing
ĠâĢ ¦
ch ain
P RO
v dots
if iers
ĠMc G
ĠI P
B undle
Ġmer ger
s v
Ġseem ed
Ġinteg ers
Ġpublic ly
Ġapparent ly
A ugust
ĠT ar
Ġrecover ed
p erson
18 99
u is
Ġdoll ars
Ġ ),
_{ [
Ġpubl ishing
ĠAfghan istan
10 4
iss ue
or ia
s ong
Ġdifficult y
Ġspl itting
Ġst ood
st op
tot ype
ry pt
P rodu
Ġweek end
Ġmov ements
Ġinhabit ants
Ġro utes
Ġcount s
Ġcon formal
f inals
Ġn ick
Ġa u
Ġcl ock
Ġmeet ings
requ ency
Ġrepresent atives
Ġm it
ĠB ull
ast s
Ġ* *
I E
ab ric
ĠDe ep
Ġco herent
ro ot
il ty
Ġorb its
ĠSystem s
ĠPal ace
Ġneut ron
Ġin ference
ĠSing h
Ġback ing
Ġpeak s
S N
Ġs leep
t b
og y
Ġrac ial
\, ,
cy cle
ĠK ings
Ġpreserv ed
et ry
ut r
Ġt unnel
orig inal
Ġfor th
ĠBalt imore
re nd
Ġsk in
ĠCar lo
m ut
script scriptstyle
Further more
? "
ver b
ĠFrank lin
Ġjud ges
Ġprob abilities
B ur
Ġknow s
Ġdraw ing
Ġlist en
Ġvol umes
ĠDe an
Ġappro val
o es
Ġproced ures
Ġne ur
V er
Ġdeliver y
, .
ä ¸
ĠC leveland
h s
A pril
L ocation
ĠM anu
ĠRuss ell
Ġge odes
ser ver
Ġconver ges
ĠP ut
Ġcontrad iction
ĠC A
Ġstead y
ph an
ĠDemocr ats
ĠMark ov
Ġa ugment
h arm
Ġstr ings
ĠĠĠĠ ĠĠĊ
ĠArk ansas
E st
Ġreg ulations
av i
Ġprefer red
T ree
ST ATE
Ġsurv ived
M ajor
ir i
ĠV ideo
ĠP ack
Ġsp herical
g ame
ĠPo isson
Ġpass engers
Ġdeterm in
Ġpropag ation
ubl ished
Ġreal istic
re du
D own
Ø §
ĠChe m
Ġd ies
S ign
Ġp m
Ġed ited
Ġcritic ism
^* _
ĠLe ad
v skip
Ġdisc ipl
asc ript
ĠI ron
ĠAll iance
Ġadd ressed
Form at
l ayout
Ġinter ference
men u
Ġjuris d
S k
ick ing
AB LE
ĠYear s
o i
ĠA C
j ar
Ac adem
per iod
Ġamplit udes
Ex pat
= -\
ĠE ver
ser ies
Ġp ulse
or us
Ġinst ruction
Ġnegot i
Ġseg ments
Equ als
ĠD allas
Ġpl otted
Ġatt ributed
Ġval ley
ĠCommun ist
ĠAd vent
}{ }
ĠDef inition
ĠT it
ak s
ĠAmaz on
Ġt ank
Ġpri est
Ġrecomm ended
reg ion
ĠG on
Ġp ole
ĠThom pson
Ġarch ae
az e
ick er
Ġresident ial
oid al
Ġestim ator
Ġrestrict ions
d ied
Big l
Ġra w
Re ception
ĠF ull
Ġfin it
Ġactress es
Ġsurg ery
Ġad ults
Ã ¥
Ġbr ings
Ġexper ts
L ength
Ġgrow s
f r
b uf
' ),
' ).
Ġjournal ists
ĠA GN
ob by
ro d
inc orpor
Cre ate
ĠM agn
ĠMont real
ĠF ive
ĠPubl ishing
Ġde vi
189 7
Ġguarant ee
Ġarrang ed
Ġsevent h
Ġc raft
Ġinvol ve
ĠAn na
Rober t
Expat riate
Ġbelong ing
ĠSe ason
F P
pp ing
ĠOrth odox
ok ed
en ian
Ġfranch ise
Ġtem porary
not in
ĠCent ury
Ġanim ated
qu ir
Ġen vironments
Ġro oms
Ġwor se
ial og
Ġdesc end
at en
g ray
t ensor
l b
Ġaim s
Ġfocus es
Ġwa iting
Ġrob ot
Ġenter tainment
Ġen forcement
ke ep
Ġ& $
ens ively
an im
uk i
ĠF uture
Ġtri angle
Ġte ach
Ġsurpr ising
) &
ig m
M I
ĠÃ ī
Ġaccess ible
G O
? âĢĿ
Ġcho osing
Ġadm its
Ġtransport ation
off set
Ġd uties
if ting
Ġme ets
Ġcr imes
Ġvis itors
spec ific
ĠBang lades
ĠV enezuel
Ġs now
18 95
h us
ro se
ĠBo ys
ĠSar ah
ĠFin land
w s
Ġcomp an
ĠTh ailand
get s
Ä «
Ġnot ably
ĠHung ary
Ġimpro vements
ĠMarg aret
1 16
Ġfeel ing
ĠH ell
ĠC urrent
}\ ;
overs et
ĠStew art
ent er
ĠT rib
Ġmy th
Ġful fill
Ġchild hood
Ġman age
Ġbeh alf
ĠC rown
Ġaff ord
ch arge
Ġcoll isions
ab ove
ÃŃ n
Ġspac etime
ac cess
Ġwill ing
ĠUnivers e
ordin ate
Ġal coh
Ġg ay
Ġle af
Ġres igned
im ir
l ined
ol utions
Don ald
end a
F ran
Ġslow ly
Ġathlet es
et ition
nt z
Ġcolon ial
Ġg ang
as a
ĠCar ter
ĠWind ows
ĠRog er
j amin
bel ow
equ al
Ġterm inal
Ġp od
w rap
ĠChrist opher
ĠB etween
It alian
u in
Ġperform s
g on
| _{\
ĠL anguage
Ġdec ays
Ġt ied
Ġrel ief
ĠJud ge
Ġun ity
Ġreport ing
K S
189 6
Ġres ign
Ġpre gn
th a
Ġfam iliar
Ġplatform s
Ġcent ered
al ph
Ġf ired
l m
d ashed
ĠĠĠĠĠĠĠĠĠĠĠĠĠĠĠĠ ĠĠĠĠ
ĠUk rainian
ra k
E very
Ġkil omet
Ġfem in
St r
Ph ys
ĠAg ric
Ġv ulner
C ON
Ġrestaur ant
B U
ĠN elson
ibr aries
elf are
Ġmid field
ab out
Ġdis contin
Ġpopular ity
st ery
Ġround s
ĠBru ce
}{* }{
ĠOrgan ization
Ġfac ing
B P
Ġden ied
ry st
f il
ĠE sp
l ayer
ic ians
Ġc ook
s or
$ _{\
ĠE dition
ĠS audi
Ġfavor ite
ir ates
ĠP ad
Ġin vert
ĠPitt sburgh
it ations
Ġher itage
re nder
b oth
u ary
ĠSo ft
M ac
ĠH REF
Ġn a
ĠWork s
ĠAust in
new line
ĠS R
Ġint ention
B as
b d
he rence
ĠMet ropolitan
Ġan isot
Ġd ict
ip ped
mid rule
ĠAlf red
Ġbelie ves
Ġclust ering
Ġconf ront
Ġdes ire
Ġrece ption
Ġrem ote
Ġf ruit
th ree
ov ing
ĠM aj
Ġlif etime
Ġproject ed
Ġtransform ed
ĠW right
ĠPri or
ut ely
Ġcomp ilation
Ġsh r
M art
ĠHung arian
ur ers
ug s
10 3
Ġel ig
Cont roller
W S
Ġread ers
Ġvan ishes
Ġhard ware
ĠCamp bell
con tainer
ĠM Ps
Ġ{ @
H istor
ĠN eb
' $.
ĠR iemann
ĠH old
Ġhydro gen
Ġim posed
Ġcast le
}} =\
refer ence
Ġproject ive
`` `
Ġre verse
F lor
m ay
Ġd ynasty
A v
Right arrow
ma ker
ĠT ig
| _
ĠDi rac
Ġtru ly
Ġprison ers
B r
ill o
Ġb ishop
ĠGirl s
fra red
Ġm ig
Sc ott
Ġsu icide
i op
ĠO R
h al
Ġdeal ing
Ġh ospit
ĠR io
Ġmar ine
ot ten
cent ral
Ġ url
irm ingham
uch y
Ġdesign er
ĠOper a
is hers
Ġb ases
Ġmet ers
Big r
ĠD ance
Ġr uling
ĠĠĠĠĠĠĠĠĠĠĠĠĠĠĠĠ ĠĠ
Ġconsum er
ord ered
g ood
ĠN ic
( &
Ġdiv or
Ġwith draw
}) _{
Ī Ĵ
En c
An y
_ .
Ġf asc
ĠLe ban
ĠBrother s
T P
] =
Ġhead ed
st ud
}_{ {\
K e
[ "
Ġst ruck
ĠTh ose
Ġim prison
Rec ord
j k
Ġaff airs
iver pool
Ġref lection
ter y
ul um
ĠYou Tube
Ġthe ater
le ans
Ġtri als
ĠP ref
Val id
Ġimp ress
Ġo verse
S ym
C am
t ask
ĠF ight
Ġbe ar
Ġpres erve
ran ean
os ed
Ġw at
ĠTr ue
Ġreput ation
d in
ĠAust rian
H M
Ġstrugg le
per ature
Ġre tained
ins ula
is ode
Se lect
Build ings
ĠKn ight
á ĥ
Ġcould n
ĠD ub
25 5
Ġpra ised
ĠC arn
Ġm outh
apt ist
Ġcov ariance
ĠN ation
ourn ament
Ġut ility
Ġcrit erion
ĠE ss
ĠE instein
J o
M ode
Ġdiv isions
ĠN i
l ate
Ġarr ive
O ctober
Ġviol ation
Ġtr unc
D et
ĠA y
rosc opic
M a
ĠO ri
ed a
det erm
Ġthous and
Ġc ust
n amed
Ã «
] ^{
ab i
m illion
Ġassign ment
ĠDak ota
claim ed
ĠN eg
Ð ´
ĠQ CD
il ine
ĠF isher
} ~\
e ach
ĠC ass
Ġfew er
ĠZ e
AN D
Ġval uable
Ġto ken
b ridge
Ġre ly
Ġre cept
Ġstrateg ic
m iral
Ġwhe el
D el
ĠF el
ĠWh y
| =
} <
Ġfrag ment
ĠÂ »
i ac
ĠVol ume
Russ ian
Ġrad ical
in ates
n ed
Ġorder ing
mathbb m
Song s
Ġsp r
Ġcool ing
b olic
}} )$
ĠP sych
Ġex posed
ĠSchool s
ĠS hip
ĠSh ah
ĠL ower
Ap J
Ġanalog ous
Ġwavel ength
Ġd rag
uc lear
ĠP un
Ġmole cules
ĠOtt oman
or er
Ġrest ored
ter ior
m arg
ĠAP I
ĠKar l
Ġmys elf
Ġequ ally
U pdate
Ġkn ock
ell s
Ġsc r
Ġperturb ations
Ġspirit ual
hold er
e lection
Ġen hanced
gra duate
i ere
dist ance
Ġcr ash
Col umn
in ternal
ĠMark et
ĠPr incess
Japan ese
at ics
Ġgl ob
Ġintrodu cing
// /
Ġprov en
Ġmark s
Ġev ident
G reen
ann on
}, {\
Ġd il
13 5
Ġaff ine
Ġcl imb
ĠVi enna
Ġm aintenance
ĠGra ham
ĠW here
ĠT rad
ĠCar ib
Ġgr ass
ĠSt art
Ġactiv ist
Ent ity
tri angle
Ġanaly tical
int ro
ĠW oman
ĠMar ie
lect ic
class es
incorpor ated
ail s
ed ing
Ġh ur
st ory
ĠH ind
ĠT erm
ĠO ct
Ġexpon ent
Ġpay ment
Ġsub mitted
Ġun like
ĠNaz i
Ġcompet ing
Ġpass ion
Ġcommit ment
\| ^
Ġexam ine
D espite
ĠI T
ee per
188 9
Ġenc oding
sh op
ĠHamp shire
mak ers
pl er
ĠWel sh
ĠL ab
com ment
189 2
Ġrequ iring
l ay
Ġn an
ĠB eck
Ġweek ly
: </
Ġcelebr ated
ĠPolit ical
Ġtrad ing
) |\
Ġste am
O fficial
Ġr anging
ĠPalest inian
âĢ ĺ
f are
and al
it arian
ĠR ap
ĠNever theless
iz ers
Ġsubset s
th in
ĠStan ley
Ġoff ensive
Ġoverl ap
Pro ject
v ance
opy right
ĠT ext
Ġdeput y
t own
ĠJoh ann
roph y
Ġnot ing
Ġoper ational
ĠS S
ho le
T ypes
Ġ< !--
og a
H y
ĠD ie
Ġst uff
t ically
Ġint rinsic
Ġkind s
Ġdev oted
ĠT s
Pro cess
Ġorgan isation
ĠPro test
Ġrequest s
ĠBrook lyn
e enth
ag ger
est im
ĠY ang
ĠG ill
Ġdef ensive
ou ver
ĠOr leans
Ġim plicit
Ġprob e
)= (
g iven
rem ove
But ton
Ġmix ture
Ġdam aged
Ġthere by
18 60
trans form
ĠAl ban
Ġput ting
ĠM es
Ġt ens
du al
Ġb ath
ĠL P
li er
w ig
ĠMa ur
Ġsound s
C ache
Ġperson ality
display math
Ġcooper ation
d ers
ĠTam il
l ights
Th rough
Ġexpand ing
ĠOper ation
hat tan
Ġaim ed
Ġdanger ous
ik ip
189 3
h alf
rad ius
Ġpass age
ĠF al
ograph ics
us p
Ġassess ment
ro b
ĠMarsh all
Ġdiss ip
9 00
Ġc ards
Ġsuff ering
et o
Ġdeterm ines
U P
Ġj unction
c ounter
Ġren ov
J anuary
se a
Se ptember
ant i
aw s
hoen ix
B er
Ġc rown
ĠMa ine
Ġnormal ization
Ġcan cel
Ġb inding
Ġnorm ally
ist ically
Ġrequest ed
oid s
189 4
Ġfund ed
Ġshe l
Ġcom fort
U L
Ġdis joint
Ge orge
P al
st e
ĠU se
eop les
Ġtri ang
f our
Ġrec ru
10 6
Ġharm onic
iv an
le tt
i at
tot al
ĠH orn
ĠMov ement
Ġenjoy ed
Ġrec urs
< ?
Ã ł
Ġinvol vement
em or
Ġhom ot
sing le
ĠV ik
Ġcy cles
C N
pe ople
10 7
Ġweak ly
ĠS E
b ai
Ġfrequ ent
ĠB orn
iv ated
List ener
onym ous
Ġtri ple
or ro
ĠRes ults
ok ing
s ite
Ġrail road
ine a
over ning
ĠRob inson
periment al
Ġiter ations
P ass
ra ise
Ġfair ly
ĠUp per
Ġgu ess
comple x
188 5
Ġb are
Ġf ault
ĠMountain s
ĠJ ason
ĠC rit
sh arp
Ġp and
st ore
as g
ĠRail road
ĠN ep
l at
ĠPat ri
Ġill ness
ĠM ars
ug oslav
n ia
Ġ{ {\
Ġd ress
init ial
ĠRoman ia
Ġveloc ities
Ġdeterm ination
Å Ł
le ased
ater al
Ġrel iable
Ġanom al
le in
Ġentang lement
. (\
Ġp lease
ro ve
sub stack
ĠH end
ĠEx p
Ġart istic
sup p
ĠB ased
Vill ages
ĠIm age
f inite
ĠMicro soft
ĠP ay
Ġelim inated
ĠN ame
Ġacqu isition
Ġcre ates
ro ck
hold ers
Ġven ues
Ġref lected
Ġimpro ving
N ames
Ġb its
ĠY e
Ġan nu
Ġtraject ories
ĠK on
S ur
b ool
Ġch amber
ov ed
Ġv eget
Ġmiss ed
ikip edia
ĠL l
Ġcl ar
Ġwith d
ĠE dd
ĠU E
per turb
Ġnewsp apers
Ġ ri
Ġh ill
jav ascript
Rail way
st rap
I B
ĠMet ro
. },
onom ous
Ġgen re
ĠB urn
Ġmon ot
Ġconstitu ency
Ġv acc
D ev
Ġne uro
er as
Ġf est
Ġro se
ĠOn line
ent ric
we ak
Ġprepar ation
Ġperm ission
Ġw ider
b ow
ĠBe at
pot ential
Ġunus ual
' )$
Ġc reat
Ġch ains
an aly
Ġvalid ation
Ġsyn chron
h ai
Ġsuper ior
lim it
Ġo cean
ar ial
ic he
Ġr ising
ĠS mall
ĠMur ray
ro v
F ix
p read
Ġcontroll er
Ġtal ent
ĠA the
v c
Ġbuff er
ack s
ĠBroad way
or o
ĠM embers
Ġag es
ĠO d
lear ning
b ishop
Ġvolt age
om ing
ĠB ed
ject ive
G raph
Ġc ache
Ġd ating
ĉĉĉĉ ĉĉĉ
el ines
Ġnon zero
ĠJ S
ĠK ur
Ġcompos ers
Ġgen etic
Ġrece ives
ĠL ane
ĠK an
ĠHawai i
m ate
is p
Ġdest ruction
Work s
Ġsym pt
ĠL GBT
Ġreve al
Ð ¼
Ġcomb ining
iter ranean
Ġelse where
rand om
Ġas king
ĠL uther
Ent ry
ĠMor ris
ĠArt icle
Ġillust rate
Ġadvert ising
U psilon
ch ing
A cknowledg
Ġw ounded
s ome
Ġ ĉ
Ġf usion
Ġline arly
f ire
Ġrelax ation
Ġliber al
S yn
Ġtrans mit
ĠE le
189 1
ort on
V M
st ance
Ġn ortheast
ĠM other
et on
Ch ild
Ġphotograph s
G ame
ĠK u
list ed
Ġinflu ential
Se lected
Med al
Ġt ends
Ġs s
ĠChrist ians
ĠSp irit
ĠCh ampion
Ġpure ly
Ġe cho
Ġrece iver
Ġfail s
Ġg arden
ĠG ray
ob a
Ġk inem
' =
Ġlimit ations
ĠN BA
17 5
Ġconsist ency
e a
Ġinj uries
. }\
Mich ael
ĠR ain
ĠU pon
ĠS ite
int o
Ġs ending
sh aped
Ġgradu ally
Ġregard less
Ġcon clusions
Ġpix els
Ġconst rained
Wid th
ĠB omb
ĠT ower
Ġp ictures
Ġb on
ation ally
Ġcom ed
Add ress
Ġf ee
um ping
y stem
lik ely
ĠT ag
Ġinst ability
: (
bound ed
ĠRet urn
n etwork
g rid
Ġappoint ment
18 65
par se
ĠCL ASS
Ġvis iting
y ll
ĠP rad
}) )
L in
Ġarrang ement
Ġph on
Ġpick ed
Ġhom omorphism
set t
ĠF r
ag ram
Ġm m
Ġv aries
R ow
Pro t
AL L
w right
L ayout
ĠAd vis
Ġpre lim
Ġphot os
ion ed
Ġplan ets
Ġcele b
Ġhor ror
R ob
Ġun stable
Ġd y
Ġsens or
ric ane
ĠB ey
B H
se par
D I
C I
Ġtext s
E Q
Ġw ides
ij ing
Ġpremier ed
f iles
ĠL ad
inn ers
Ġrec re
)} _{\
b one
ĠFre edom
Ġres olved
ent ity
s ample
clus ively
em ed
ĠH um
Ġstay ed
Ġdeterm ining
ul atory
ar us
aut ore
ĠPol y
T arget
Ġso il
l ass
ip her
Ġtal ks
V P
ĠEv ans
oot strap
ĠE ff
ĠR an
deg ree
Ġelect rical
De cember
f am
um in
Ġcritic ized
Ġking dom
188 8
Ġdise ases
ĠS ho
Ġh at
Nov ember
Ex ample
! "
ĠR ico
Ġac oustic
ĠNig eria
Ġim aging
& $
a ired
Ġr anks
Le vel
Ġcomb inations
ĠJ e
ĠIran ian
Ġexpl ored
oth y
en z
Ġm oral
st age
Ġpaint ed
Ã³ w
re q
av an
Af ric
ĠG ran
in ement
ple te
Ġcorrel ated
ĠO bl
Ġcompl aint
Ġcoupl es
Ġcon jecture
ĠL iverpool
ĠJos Ã©
ĠGu y
Ġm ile
ic ing
Ġfocus ing
B F
Ġland ing
ĠWith out
A ccess
Ġ} {\
ĠSt ev
ĠEu clidean
Ġemploy ee
Ġrel ating
Ġrecogn ize
. ),
Ĥ ¬
Ġwh atever
10 8
Ġdis ag
Ġg ift
let ion
Ġsw it
ĠStud y
ĠB aker
cc c
Ġemer ged
Ġr ivers
Ġsp arse
ĠStr ateg
Ġshift ed
Ġw ww
ĠR ugby
m ates
ĠA rena
ĠM ack
Ġ[ ]
ail ability
Polit ical
Ġaut hent
ĠLank a
Ġ$\ |
i est
Ġlat ent
W ar
}) -
' }\
ĠAssum e
Ġw ine
um ul
ow ed
en berg
Ġanaly zed
Ġch rom
Ġremov al
sc ar
ĠBern ard
p ret
Ġbi ological
Ġinstrum ental
win ning
app y
Ġcolle ges
á »
ath y
O pt
ĠO k
Ġr id
Assum e
Con st
ĠCommunic ations
ĠH ad
D an
S earch
ra ctions
ic ons
Ġgu ilty
Ġconv icted
Ġmer ely
ĠCom ics
ĠLear ning
cre en
Ġestablish ing
ĠMic hel
}^{ (\
ĠMad rid
Ġsurround ed
anc ouver
Ġmay be
Ġsuccess or
ĠC el
Ġtot ally
ol ver
Ġfl oat
Ġimm igration
ĠG ary
J ew
requ ire
form ing
' $,
Ġcon sp
Ġindu ces
ĠWar ren
ĠL iving
Ġint ellectual
Ġ$ [\
ĠT ak
j et
al id
ĠF ro
ok a
Ġent reprene
ĠJim my
ic ian
ĠR and
Ġl engths
Ġiniti ative
Ġco hom
F rame
Ser ver
ĠC BS
Ġprov es
Ġt ie
ĠC her
ĠConserv ative
Ġbos on
}. \
Ġtrack ing
ĠL ithuan
Ġneighb ors
h ou
ĠH D
O W
Ad dition
ens on
pro totype
ĠB irmingham
au er
Ġsupport ers
Ġdecl ined
Ġwe ar
it ure
}_ +
Ġc ous
Ġfinit ely
Ġad min
aval ry
n an
ish ments
ĠColon el
ev a
p ay
Ġent ities
w he
ĠCat hedral
ch itz
ĠW ang
Ġre act
Ġsign ing
Ġs aved
ĠT ax
ley ball
Ġdedu ce
L o
Ġsynt hetic
ĠIn sp
ĠAss istant
Ġloc ality
Ġres emb
Ġcosm ic
ex pl
ff ee
E lect
Ġd owntown
b its
Ġn urs
au ra
Ġcatal og
im od
Ġsuff ices
ER S
ĠFin ancial
Ġsh orter
ov o
Ġw orship
Ġto ler
Ġsp oken
k ar
ge on
ue z
olog ically
it ime
n umer
oc y
ĠV I
ri el
ĠAn alysis
ĠInd ians
b est
cons istent
Ġmiss ions
Ġcorrect ly
Ġf urn
UR L
ĠCon sequently
Ġfall ing
as m
ty pes
Ġcoast al
Ġin ternet
ch arg
Ġpart ly
ĠB illy
ĠW ing
Ġst yles
D raw
ĠBanglades h
P roduction
op al
ER R
f iction
Ġmach ines
Ġnorth west
Ġencoura ged
ĠR ud
Ġvess els
Ġintegral s
ling ton
ĠCarib bean
d z
as et
Pro fess
ĠAr ray
Ġsurv ive
ĠA ccess
ĠMit chell
ip er
Ġn aval
Ġlong est
)} =
h our
os ph
ĠMuslim s
ig ate
G old
Ġpo em
um ar
ĠCh apter
Ġlaw yers
ĠLim ited
Ġmill ions
Ġdist urb
nt il
r floor
ĠL INE
Sim ilarly
Ġout standing
Ġforest s
ĠC ultural
equ ate
Ġwides pread
Ġrespons es
on na
Ġu int
Ã© n
ĠPro cess
Ġthem es
ĠMan hattan
ĠA qu
stand ard
ĠT ol
EE E
Ġex it
Ġsegment ation
ĠR equ
u its
p in
Ġin g
ĠM D
\ -
Ġel der
Ġprov incial
alax y
Ġpotential s
_{ {
ĠJ osh
const ruct
} &\
over e
Ġgu id
Ġman ifest
ĠMunic ipality
ĠDel hi
ĉĉĉ Ċ
ĠPort land
zer bai
Ġ ^{\
tem plate
Ġs ke
d ouble
ĠC ON
ĠC S
ĠN GC
ĠSt ein
Ġem otional
new s
r h
Ġelectric ity
sp eed
Ġout comes
equ ival
Ġrom antic
Ġt elling
188 7
10 9
des ign
ud son
Ġcustom er
Ġdef ic
Ġatt racted
ĠThe ater
Ġtrans it
Ġm ic
Ġass ass
Ġprov isions
Ġext ensions
ĠCharl ie
Ġnumer ically
Ġlov ed
Ġart ificial
Ġen ables
ĠChall enge
ĠW rest
Ġexpl oration
Ġ$ <
ĠN ord
ic ious
Ġtax es
ĠF ile
ĠN ature
op ed
ĠR ural
. :
on ian
it ud
Post ed
le ading
ST R
man ifold
M ag
Ġactiv ists
Ġn ice
Ġcontrovers y
Ġare n
b oy
ro le
P ack
ov ich
Ġtherm od
Ġaux iliary
M ass
ĠWe bsite
Ġext ending
Ġnarr ative
xy gen
Ġant icip
ĠCommission er
ips chitz
ĠM ess
vert ex
Ġse p
Ġfin ance
Par ameter
Ġobtain ing
Ġgener ates
play er
Ġaccord ance
S ports
ĠV erm
Ġmem or
Ġthreat ened
sup erv
Ġ }$
; ->
Ġg rey
ĠL ock
Ġc up
F ebruary
cons ider
Ġinf inity
Ġacceler ation
ĠEx pl
de ep
ĠB H
Ġpred om
* \
Ġgener a
Sp ace
S al
Ġpar ad
Ġs oph
ult an
Ġdifficult ies
Ã¨ re
188 6
er os
1 18
ĠN ar
sub float
Ġ\, ,
Ġcred ited
Ġar ises
iff s
S i
me as
Ġterrit ories
Com put
p us
fact or
Ġcontrovers ial
Ġf ishing
Ġpubl isher
Ġpaint ers
ul u
}= (
Ġnom ination
Ġconvers ation
st yles
Ġs itting
Ġab road
Ġexist ed
L M
an alysis
18 50
Ġremov ing
Ġan ten
ĠA ld
Ġen abled
Ġquot ient
Europe an
Ġcount ies
int ers
ĠM ind
Å Ħ
Ġwork er
Ġb ott
sim ple
M er
ĠL O
ĠN ad
van ced
Ġd ated
d ig
Ġrun ner
$ (\
Ġdaugh ters
Ġs in
Ġreg iment
Ġsusp ended
ĠNAS A
v able
c ient
ec ution
Ġmir ror
' ',
ĠSt ars
Ġwas te
ĠJ enn
Ġsus pect
ĠHe b
Cont rol
Ġob st
h aus
Ġen velop
Ġmut ual
Ġrele ases
B D
em pl
Ġbreak s
autore f
ang o
ĠRem ark
h ill
um s
ĠLore ntz
ĠNorm an
Ġprint ed
c ov
ĠP ath
U V
Ġmin i
st ers
Ġguitar ist
O h
l floor
B oth
s un
arg ument
ĠBen jamin
ĠBl ues
Ġmonitor ing
Ġo x
È Ļ
Ġexcit ation
= (\
osp el
Ġb atch
Ġclos ing
Ġ! ==
Ġmeas uring
ĠDef ence
Ġequ als
A lex
om p
ĠH ero
clos ure
Ġleg it
c oupl
Ġelect oral
OR T
A rm
ĠV egas
Ġprep are
E ven
Ġspeak er
M edia
ĠâĢ ¢
ĠS ymph
ĠSoc orro
ĠP DF
Ġt ort
pol y
ey er
m ill
mar ine
ma ke
G s
Ġdem ands
\, .
L ater
Ġcons iders
Ġproport ion
pos ing
Ġmed ieval
Ġf oss
Ġcricket ers
return s
ĠB achelor
Ġinform ed
A ir
O K
ĠT ask
ost ic
Ġgener ality
ĠLINE AR
Ġcontribut ing
) )$.
h um
ĠWay ne
ab ul
**************** ****************
Ġpet ition
\ }}
Ġstar red
Ġhabit at
Ġlimit ing
Ġhas h
Ġupd ates
ĠJ ava
P e
//////// ////////
M iss
b ib
. âĢĻ
i u
Ġcoll aps
2 20
ul o
Ġext ensively
Å ¾
Ġwh ilst
Ġg ram
h n
Ġm or
up per
ister ed
ra ble
Ġexhib its
18 64
Ġannu ally
ĠIs a
fol io
Ġt um
}} }$
em ale
ĠSal v
Ġpand emic
Ġcon gress
Ġformul as
18 61
ĠB asketball
asg ow
N T
g rade
Ġt ables
conn ection
Ġdest ination
duc ational
). }
ĠCon stant
ĠAnd y
Ġl en
Ġdevelop ments
Ġmag azines
ol ia
ir k
++ )
Ġmod ification
On ce
ĠN BC
est one
Ġwalk ing
n one
Ġwould n
ĠCarl os
ĠChe ck
Ġ$ $\
Ġformal ism
ĠP ictures
ap ing
ort ed
ham mad
form ed
}}\ ,
Ġalign ment
Ġamong st
om on
Ġcon fer
u ct
ĠColl ins
K n
Ġdef ence
ha ust
Ġminor ity
Ġst em
188 1
ĠT ob
Ġautom atic
Z E
Ġshe ar
augh ter
ĠCh ange
z es
Ġphot ography
rupt ed
Ġsuper conduct
Ġclos est
K K
188 4
ĠJ azz
ĠD J
) |^
}( -
o ons
ĠE mb
Ġb aby
ĠA S
ĠAl aska
L and
Ġb old
Ġre actions
Ġpurs ue
ĠAthlet ic
Ġoutput s
Ġs ed
U rl
Ġsem antic
H A
Ġcomb ine
ĠPar ish
ĠJohn ny
Ġprot ests
k t
Ġ$- $
Ġsent enced
T ur
Ġdebut ed
Ġ })
M or
Ġpar agraph
Ġimm igrants
respect ively
Ġsuggest ing
B ased
id ad
ĠO range
Ġasympt ot
Ġh ist
f ocus
Ġbeg un
ĠB rew
J ack
Ġde formation
Ġfinal s
Ġremark able
Ġun success
Ġh a
On ly
Ã ª
Ġlo ops
Ġaware ness
ict ions
Ġth irty
ĠK r
ĠSpec ifically
ke ley
Ġwatch ing
Ġcryst al
Ġadd s
Sh ort
CO L
b ecause
ĠAN D
Ġres olve
Ġderiv ation
Ġcal ibration
m und
ĠM all
Sh ow
Ġpost s
ĠF ine
f ixed
ĠG un
ĠSt age
18 63
H en
sc reen
ĠP S
Ġreal ize
Ġalcoh ol
t ex
Ġdepart ure
' }$
ĠInd ex
ĠRec all
ĠJon athan
Ġviol ent
ĠM ong
rist ol
ess ed
t ar
ĠI ce
ot an
ĠUr ban
she ll
ĠP R
i ors
="../../../../ ../
Ġprof it
~ (
Ġex clusive
ur ities
s ession
un iform
ak ia
^- $
Ġreg istration
o ys
rict ion
Ġpip eline
Ġpos it
Ġarg s
Ġvari ants
ĠPh D
( _
D iv
hib ition
ĠW a
sup port
Ġcloud s
ĠThe ory
enc er
ab a
dist ribution
Ġh ip
un ed
Ġev olved
mon th
Ġhe ating
qu er
Ġqual ifying
Ġcarri es
Ġbusiness man
G G
R ange
tern oon
ĠGr iff
ĠM eg
t re
Ġs outheast
ĠFin ance
Ġins ight
C V
ĠLe ft
Ġel astic
ĠEgypt ian
Ġbe ach
Ġex clusively
Ġencoura ge
w ords
us k
T or
our t
ad ic
Ġagric ulture
Ġdeploy ed
hol m
. -
ĠC arm
ĠComm ons
Un it
ĠW as
Ġult ra
S pe
Th omas
% ;
P N
umb ent
Ġmechan ics
Ġobvious ly
Ġsh ifts
ĠEx change
sim ilar
ĠB ud
Ġgener ations
Ġl oyal
}| ^
art icle
ĠI an
Ġcav ity
und erset
ĠCh ron
ĠU g
ĠNev ada
Ġa maz
Ġto w
d ifferent
Ġmulti plication
Ġt ension
âĢ¦ âĢ¦
he et
Sum mary
r aska
v ision
I mp
ac re
Or gan
ĠPark er
ĠS yn
18 62
ĠT ake
Ġelli ptic
ĠBar bara
Ġcontinu ity
ĠStud io
Ġsup plies
att r
hy per
Ġkey s
Ġdial ogue
Ġass emb
sol id
ĠElect ric
Ġsampl ed
Ġbatter y
Ġex port
ator ial
ass y
T om
Ġneglig ible
}} }{
ĠSt re
Ġbl ind
ĠHar rison
m atic
ix on
w ang
const ant
b n
e ch
ĠC rim
Ġr hythm
op edia
ĠBl ood
Ġconstitution al
Ab out
l ag
Ġc ul
par a
pro perties
Ġweap on
Ġcap abilities
ĠProt ection
Ġrep air
h ash
ĠBar ry
Ġleg acy
ĠFI FA
Ġdem ocracy
ĠAlber ta
s end
ĠB ranch
ĠConf eder
ĠS id
is y
Ġm ock
Ġf ictional
B re
ĠS occer
D ocument
ĠMan ager
Ġinv oke
it is
hem atic
Ġsouth west
Ġmon ument
ĠC C
N or
Ġind igenous
ĠRet urns
ĠP os
Ġcoal ition
Ġimag inary
Ġdispl ays
Ġvess el
Ġp atch
T M
mod al
Ġw rap
c ost
Ġc ounsel
ĠP hoenix
ard ed
ĠS ax
gl s
Ġst ake
F ore
ĠY et
end ers
ĠCh art
ari ate
id en
ĠA I
Ġob j
ho ok
Ġtrend s
C ond
Ġre ven
Ġann ih
Ġpeak ed
ĠSt ill
sat isf
c z
Ġj ury
ĠUnivers al
Ġinv ariance
Wh y
Ġb rick
ot ton
ĠEx ample
Oper ation
Ġtra il
ĠMov ie
{ [
Ġbeaut y
b order
H R
Ġcontract s
Ġearth qu
ĠIndust ry
Ġs ectors
pro file
Sp anish
Ġf at
O ld
comm unic
ren ew
Ġcarri er
iv ia
as ant
S am
Ġphenomen a
ĠBe ijing
ow ell
}\ }$
S chool
ĠMe V
ĠV ancouver
D ue
Ġmountain s
t n
ĠSt ra
ĠCub a
ĠBl ock
T I
ĠAp pe
Ġdi am
ĠWith in
Ġ( '
Ġcomp r
ĠT ournament
Ġmanag ing
N one
Ġident ifying
Ġb ird
ĠYork shire
Ġas c
188 2
Ġs essions
ĠS r
H ttp
center line
Ġviol in
writ ing
ĠClass ic
ĠPerform ance
ĠW or
p air
Ġp ian
x rightarrow
ĠC ov
Ġeffect iveness
Ġg all
f ish
Ġsub stitute
U se
tri ang
}\ !
Ġfor g
ĠI C
Ġwar ning
Ġt on
ĠFl ore
h op
ĠProfess ional
sp aces
ĠCr ime
in cre
ĠM ak
Ġprior ity
p mb
born e
ĠF alls
L ou
ĠMean while
Ġout perform
ST M
math ds
Ġr ings
ĠInt elligence
, ~
ĠC old
Ġs av
st ad
ĠRich mond
ĠPier re
Ġsequ el
ĠAng l
ĠAthlet ics
Ġfriend ly
Ġpro ton
Ġfeas ible
Pos ition
Ġhyper bolic
art ifact
u art
ĠS F
ĠTreat y
Ġt ur
Ġ\ :
Ġj ets
ĠRel ations
Ġleg islative
Ġfra ud
ors ion
Ġb arrier
work s
it i
ĠHun ter
ĠI van
Ġfl av
Ġris ks
w ait
Ġg olf
Ĩ Ĵ
Ġt ies
ĠMed iterranean
K L
ĠD ocument
Ġab elian
Ġhistor ians
ok er
AP I
Ġdist inction
Config uration
Ġg host
d ynamic
Ġl abour
Ġsupp lement
ĠPhys ics
Ġrest oration
Ġreported ly
ĠE ston
Ġst rain
Ġhierarch y
ĠD ate
ĠY ugoslav
ier ra
Ġpred ecess
ĠF itz
ur u
Ġhand ling
et ta
iv id
Ġoccasion ally
Ġinterview s
Ġg overning
ĠSerb ia
E ff
Ġlay out
Ġt y
ant ine
Ġap artment
Ġdiscrim ination
ĠB aptist
() ->
ĠCirc uit
}$ ).
ĠK os
c ule
writ ers
Ġabsol utely
Th ree
h ad
ine e
Ġcond ens
ĠArab ia
B T
18 78
ot ions
He ight
id ency
um ann
ĠP ant
b ian
ĠG L
Ġb orders
Ġmotiv ated
Ġb rig
rel im
ĠPro blem
Ġsurpr ise
ĠL ud
Ġcitiz en
ĠSer ge
Ġfarm ers
ĠSt orm
Ġsymmet ries
re z
)\ ,\
Ġsac r
ĠN icol
Ġvanish ing
c ussion
Com parison
Ġmathemat ics
Un ivers
Ġcont rary
ĠF am
24 0
Ġreg ulation
c ache
Ġsurv iving
Ġin cl
um i
ore l
cl oud
Ġrig id
ĠH indu
Ġmoder ate
Ġconsist ently
Ġjurisd iction
ĠFl ight
h skip
pan ic
Ġsympt oms
res ize
Pres ident
D L
Ġtrans c
Ġcl ip
C oll
Ġsound track
b x
Ñ ĭ
im it
Ġbig ger
ela ide
ĠBelg ian
ĠNov a
Ġpo ems
Ġover come
Ġres um
Ġphys ically
is cal
Ġflow ers
Î ±
it on
ĠUn like
) !
M o
Ġal ive
Ġrele g
ĠZ one
$ --
Ġact ed
y ou
ĠS ev
Ġthe rapy
Ġmod uli
ur ring
> ,
Ġt act
l ab
ĠPer u
ĠMil an
Ġdiver gence
comp act
Men u
18 75
ĠPro p
Ġt ip
12 7
Ġsold ier
$& $
Ġd rew
Ġneighbor ing
ov iÄĩ
inc inn
ĠJeff erson
ĠBe h
qu ality
ĠRef er
ĠAl tern
] ^{\
t ml
ett i
Ġcond em
Ġresc ue
Ġtown ship
superv ised
effic ient
Ġm esh
Ġprom ising
en v
ĠMat hemat
E V
Ġlic ensed
add le
Ġim plications
Ġtarget ed
Ġcompos ite
187 6
Wh ite
Ġc able
Ġfilm ed
Ġindust ries
Ġemer ging
Ġcons ensus
old er
ĠSp ect
Ġinvest ors
Ġclaim ing
ĠPrad esh
olt z
~~~~ ~~~~
rec ord
T own
= {\
Ġvari ed
ut ter
Ġprelim inary
ĠCharl otte
ĠĠĠĠ ĠĊ
Ġven ue
Ġobserv ables
ĠPl ant
Ġh orses
w al
tem perature
ina e
ĠGl asgow
Ġorgan isations
Ġbox es
Ġcontain er
ĠT u
pl ant
he res
Ġswim ming
left rightarrow
Ġagre es
ĠAd miral
ĠObl ast
Ġlabor atory
Ġrare ly
/ .
Ġe ighth
Ġinnov ation
char acter
ĠCh air
ĠAlex and
Ġsub div
Con tainer
Re al
ĠP ic
Ġc os
Ġra ising
Ġtang ent
Ġr ide
idel ines
Pl an
f requency
ĠTe le
Ġposs ession
188 3
Ġmon arch
Ġas ks
re ction
L ie
Ġmem orial
Ġanalys es
ĠL apl
Ġhelp ful
ĠH IV
ett ings
b us
ĠE ug
bound s
ĠFle et
if le
ĠS oul
sequ ence
Ġover view
dr iven
ĠV ic
ĠPref ecture
ĠC ricket
ast rop
ĠGi ants
Ġcheck ed
Ġ ).
Ġgu y
Ġpres um
Ġfor cing
ĠTe ch
W here
Ġrespond ed
l ook
ĠT un
cast le
18 00
Ġdefe ating
ac o
Ġchar ter
Ġg al
ĠChristian ity
Ġste ep
Ġexclud ed
e per
h ot
St ation
Ġk it
Ġfraction al
ed it
enn ial
Ġbatt les
Ġdes ert
incinn ati
id o
ĠT ib
N L
St and
me asure
K ing
ĠShe l
ĠP ast
Ġcount ing
no ise
ĠE lementary
Ch ange
ĠT rack
ĠR ot
Ġe g
st ellar
Ġm emb
Ġvari eties
Ġpermut ation
ĠS ex
ĠSch olar
Ġsh apes
chi at
Th read
ir th
Ġden om
ĠS even
Ġmaintain ing
Ġsurv iv
ĠAnn ual
Ġphil os
ĠV ersion
E ast
Ev ents
( |
P et
g ov
bra ham
war z
is o
ĠRober ts
ur st
ab olic
ĠH unt
ant ly
Ġinc idents
Pl ace
^ +\
Ġelig ible
aly mp
Ġmunicipal ities
ĠEnvironment al
ĠOper ations
ĠGu inea
Ġp adding
âĢ ¢
Is rael
Com mon
Ġanim ation
ĠF unction
Ġdeep ly
Ġre un
Ġsurv ival
ment ioned
Util s
D ir
ĠR angers
W rite
Ġat tach
Ġrel ativistic
L ike
Ġobserv able
ĠE uler
min ute
a uc
ab e
ĠB ron
te enth
H ash
ĠDer by
ĠTig ers
om es
Ġinequ alities
rat io
] _
ch ildren
N P
ar an
Ġwind s
}_{ (
sp irit
Ġdisput e
ĠMach ine
Ġcub ic
Ġparticip ating
Ġw et
ĠJ ama
Ġcontinu ously
hip s
jo in
Ġele ven
T otal
Pro perties
Ġprom ise
ĠWar ner
r n
Ġd otted
ĠR acing
ĠFinn ish
L y
S erv
Ġind irect
cel and
itud inal
ĠTurn er
ĠSte el
Ġatt ending
J ac
ĠColomb ia
Ġfe els
Ġing red
17 0
Ġscient ist
Ġunder ground
Ġcas ual
p end
S W
$ =
ĠG reater
Ġhomot opy
ĠMin or
Ġ> =
HT ML
ĠSy rian
Ġparliament ary
Ġc ogn
ĠP il
Ġun likely
Prov ider
Ġop ens
Ġev il
ĠA zerbai
T itle
Ġam pl
187 9
ĠSaint s
ĠGal actic
ĠL ost
r f
Ġ )$
ĠD ays
}} +
Ġsurve ys
Ġwood en
ĠM ans
ĠTra il
pro to
Ġo xygen
Ġrep orter
am o
co in
Dem ographics
C le
}) (
Ġmin isters
Rich ard
Ġcolle agues
ber ry
Ġem issions
amp a
ol in
aster y
Ġiniti ated
Ġaddress es
ĠP ra
con ver
d ing
Ġpo ets
Ġcred its
ik o
Ġreflect s
Ġtravel ed
ential ly
p f
Ġarchitect ural
ig s
V I
ĠG as
Ġign ored
Ġd ub
ĠC oul
ath on
] );
Sup er
ĠBeng al
F ound
ĠR AF
ĠQu est
Ġprom oting
iline ar
Ġsqu ares
Ġdram atic
Ġeng age
ĠB enn
ĠVictor ian
Ġdis aster
c n
ĠFran ces
al og
ĠMu hammad
h ig
Ġrel ay
d ays
ĠT O
Ġvis its
Ġsole ly
g un
ĠJ oy
Ġl ingu
Ġconsum ers
is an
Ġinflu ences
L oc
Ġaut omorphism
big gl
Ġ\ #
AC E
cre p
ĠSong s
Ġhon est
Ġsil ent
b racket
ĠCre ate
iz z
indu ced
ĠBuff alo
12 2
] _{
op ing
Ġinc red
Inter face
Ġmanifold s
\| _{\
F in
or ious
Ġpro ud
ĠF err
T F
ig ion
ord inary
Ġcross ed
Ġguid ance
ĠT rophy
at z
ĠE li
Ġactiv ation
F ree
p aper
Ġserious ly
ens en
Ġar ising
Ġcut ting
ĠLiter ature
m ir
ĠAm endment
f ix
ĠRepublican s
L aw
Ġd ot
18 77
Ġunder ta
F ull
Ġsupp ressed
Ġm igration
Al umni
Ġt ribe
ĠS eg
Ġefficient ly
Ġart ifact
Ġpriv ile
Ġgradu ating
Ġt ruck
ĠFac ulty
d p
G F
Ġcomm emor
Ġens ures
Ġleg s
Off set
H F
ĠNich olas
Re lease
ard ing
ou rag
ĠCra ig
Ġexped ition
as hes
Ġorient ed
Ġel abor
Ġwe aring
i racy
ĠOl iver
ain ing
Ġtor us
Ġaccom p
Ġcol span
Ġcompens ation
Ġnegoti ations
Ġre nder
IC E
o il
Ġaff ects
Ġportray ed
r ically
Ġor chestra
ĠB ak
Ġmar ry
uk a
Ġinf o
Ġre plic
Ġ\ }$
sp ring
Ġhealth y
ĠSymph ony
Ġthe at
ĠArab ic
ag ers
Ġg ross
ĠW atch
ĠT R
th y
Ġview ers
12 4
Ġconsc ious
Ã Ł
Ġf antasy
symmet ric
ĠEn cycl
Ġdetermin istic
ĠV lad
Ġproof s
Ġâ Ĥ¬
Ġsent ences
u ilt
): =\
Ġpe er
f g
4 50
ĠStud ent
Ġexpect ations
ĠS A
te chn
Ġlast ed
c rit
) }^
ĠC u
Ġchampionship s
ta wa
Ġpl astic
Ġpropos als
187 1
Ġprov ider
ym atrix
Ġcateg or
Ġmed als
ĠEconom ics
Ġchar ity
, (
hor iz
=" -
27 0
qu al
ĠR u
ont r
Ġnom inations
l ater
ĠPolit ics
Ġcab inet
Ġrepe at
el o
ĠTre as
P rior
ĠF u
St ore
Ġc inema
ĠO bs
Ġsingular ity
ĠCo al
#### ####
Ġpro secut
Ġarrang ements
ĠG round
Ġex haust
Rad io
ress es
for ced
am ount
on line
ĠRes ources
Dist ribution
Ġinsp iration
Ġg ray
Ġcall back
Ġup coming
Ġrefuge es
wind ow
Ġre tain
Ġpro xim
Ġour selves
am l
ĠVenezuel a
ĠS now
ĠNeb raska
Ġ\\ [
dep th
s per
ĠS z
Ġphysic ian
Char les
Ġt ab
ĠSpe ed
ari ants
ĠComput er
doc s
Ġg ard
ew ise
ĠGh ana
ID S
ĠB our
18 67
W al
Ġcohom ology
Ġaccur ately
ĠR ing
t urn
Ġdon ated
Le ague
Ġregular ization
* {-
ĠKir k
Ġoccas ions
ig o
Ġland mark
M ean
Ġperm itted
Ġamb ig
Ġdoct ors
Ind eed
Ġcivil ian
J son
Ġspec ify
ĠSt even
Ġinter vention
Ġlocal ization
B s
Ġth orough
ĠG ate
Ġext raction
ĠEd itor
Ġop ponents
ll i
\' {
sy chiat
ĠS W
rom ise
Ġsummar ized
Ġjourn als
Ġcopy right
T ab
l st
ancell or
Ġmetall icity
Ġph rase
ĠT ogether
ĠIn v
ache l
ster dam
ĠVin cent
Ġembedd ings
ĠOver all
d or
Ġsuff er
fig s
a ft
Ġde als
[ {\
Ġdef initely
he v
Ġmag ic
@ {}
ep he
f und
Ġl ying
s yn
7 50
Ġrecip ient
j or
}} -
Ġ( .
187 4
) /\
Ġpl ain
p ref
ĠBer keley
ounc ill
ĠO pt
Ġfilt ers
cl uster
Ġcomp ression
As ync
Head er
S en
AG E
Ġout break
ĠCost a
Ġconf ident
am ination
Ġthick ness
Ġout flow
Al bums
Ġpredom inant
ĠT ree
ent e
z b
Ġtrad itions
mak ebox
Ġrefer ring
ĠT ab
Ġcor ruption
ĠR ank
ĠJer ry
ic z
ars er
Ġcomm une
ĠAl bum
ich i
ĠWrest ling
opt imal
ĠCon struction
ĠC row
em ark
Ġt ub
Ġdual ity
ĠD ra
Ġcancell ed
ia o
V AL
Ġyoung est
D ay
ins ky
Ġp ushed
S n
e or
Ġcous in
ĠCl are
Ġde emed
ĠAnd re
ĠS ay
Ġqu eries
ĠPer ry
apt ers
AC K
T YPE
Ġfl ed
}}\ \
em p
Ġtw in
ĠTr inity
Ġrepeated ly
ag ar
Ġelect romagnetic
Ġaf ternoon
Ġneighbour hood
ĠNot ice
ĠH ann
ĠN OT
M em
Ġferm ions
Ġrem ind
Ġg allery
Ġdisapp oint
Ġall ocation
we ek
Ġf ighter
Ġg re
ĠH ope
i ology
ĠB og
r ust
pos itive
se q
res ource
$ }\
ĠS ad
ĠM ason
Ġaggreg ate
ĠS ep
S il
uls ion
Se ason
a uth
bl ing
ĠH udson
ĠĠĠĠĠĠĠĠĠĠĠĠĠĠĠĠ ĠĠĠĠĠĠ
Ġcard inal
Ġcaref ully
Ã ¦
Ġemphas is
Ġcomplet ing
x ymatrix
ĠĠĠĠĠĠĠĠĠĠĠĠĠĠĠĠ ĠĠĠĠĠĠĠĠ
Ġg rants
ĠN O
ĠIndust rial
or rect
u ke
ĠAd elaide
il ia
Ġdoub les
st ation
C ho
big skip
g om
Ġg ates
ĠB ristol
od ic
Ġcampaign s
ĠV as
ush ing
ĠY es
Ġexam ined
Ġreconstruct ed
iss a
d al
ĠL ink
vol ume
l r
ri en
m aterial
Ġmod ify
Ġenc oded
Ġoscill ations
ĠP aper
N D
ut er
187 3
ĠAthe ns
Ġchem istry
Ġattract ive
ĠP ract
C K
Mod ule
Ġd amp
ail ing
ak ov
M ad
akes pe
the y
12 1
187 2
Ġshe et
conn ect
Ġent hus
Ġgeodes ic
ĠRepresent ative
Ġp ose
Ġinteract ing
Ġpull ed
to ken
u cc
ĠP el
ull ivan
Ġsh ore
Ġpark s
ĠB ond
ĠG arc
}$ ;
ĠF ab
Ġart illery
v irtual
Person nel
ĠLe ader
Ġan chor
bigg r
oun ce
Ġgrand father
Ġp eoples
med ia
ĠSim ilar
P eter
ĠGuard ian
Ġhon ors
et ics
Ġent ers
Ġcomp iled
âĢĻ ,
h m
per iments
Ġg od
Ġafter wards
r us
tr im
Ġcommut ative
ĠD R
Ġorig ins
Ġtrib es
Ġhon our
c ritical
18 68
ĠO cc
ĠG il
Dec l
Ġg ran
Ġelev ation
V ector
Ġrel ies
d ebug
), (
akespe are
ĠPalest ine
Ġrot ating
R est
Ġvari ability
Ġcamp s
f eld
renew command
An n
Ġqu iet
ĠBar cel
ĠKen ya
it ual
ĠAnt ar
C a
M oths
ĠRog ers
Ġcont ents
Ġmodel ed
F ont
f p
Ġmain stream
ro oms
ĠL arry
Ñ Į
ĠArt ist
ĠF if
Ġdo ors
h d
Ġam ateur
Ġw edding
te am
inn ed
Ġhealth care
ed ed
Ġansw ers
ul ates
up l
it ro
ĠPh oto
big oplus
ĠT i
Ġclass ifier
Ġprote ins
F OR
ĠM ix
ĠW es
s qu
Ġcomp ound
Ġfor get
Ġmin istry
Conn ection
Jew ish
ĠL ate
Ġl ens
C ur
Ġd s
G D
Em pty
Ġ rib
Ġfr ust
v dash
pl ier
ĠAp pro
Ġrad ii
ĠCom b
Ġsquad ron
Ġinvestig ations
ĠTerrit ory
. ).
ir s
ĠSh ang
ĠBer g
Ġhospit als
ĠRob in
Ġsubstant ially
Ġcompan ion
ist ani
Ġg ains
Ġm as
ĠS I
g io
ĠP ont
Ġminim ize
k k
Ġm eta
Ġinst ructions
ĠCh ap
uc le
ĠC M
w hel
Ġw ings
const raint
Ġevery where
Ġcl othing
Ġreview ed
Ġuniqu ely
Ġsup ern
ĠS NR
ĠCamp aign
Ġtravel ing
Ġm i
ĠV el
non ym
Ġcontrad ict
Ġdis placement
l as
Ġstreng then
ose x
ĠS earch
Ġeng agement
ã Ģ
ĠA ug
ĠMad ison
om ial
ĠRoman ian
hand le
Medal ists
R oyal
inter face
re ck
ĠT H
18 66
p olar
2 13
ĠG ot
ĠPrim ary
al is
eg u
18 40
ĠCl oud
ĠVal ue
Ġeconom ics
on ies
Ġdep ression
ma xim
ĠY ank
ty p
ol en
Rec ip
ĠC ore
b ibliography
ĠFri ends
cal cul
Ġoccur ring
u int
Ġ( #
vert ed
uc ks
}] $
Ġque ue
ĠStud ents
Ġlocal ized
con vex
Ġobser ver
arri ors
Ġengine ers
ĉ čĊ
Ġobserv ational
Com b
Ġbelief s
Ġin comp
Ġg athered
Ġhel ic
5 12
Ġjud gment
Ġparamet riz
Ġext inction
mid t
AC T
F E
ĠM asters
ĠCh and
ex act
est on
Ġco aching
res olution
]{ ./
14 4
ĠMar vel
Ġpay ing
ĠCan al
Ġm o
d n
ĠFor um
ira ble
}$ $
at che
ft en
Ġqu art
ĠRo om
Ġsettlement s
H ol
marg in
ĠC atherine
cho ose
Ġthreat s
Ġover ride
N etwork
Ġident ities
ĠJ oint
Ġinn ings
ent i
Ġtro uble
f olk
ĠHar per
W eek
qu et
ĠP rice
e u
Ġreserv oir
ampl ing
ĠĠĠĠĠĠĠĠĠĠĠĠĠĠĠĠĠĠĠĠĠĠĠĠĠĠĠĠĠĠĠĠ ĠĠĠĠĠĠĠ
) ~\
grad ed
ĠHit ler
Ġmanufact urer
Ġprofession als
Ġer g
ĠT on
ew ay
ĠB urg
Ġt ube
ĠÂ §
Ġguarant ees
ĠDr ive
d irection
row th
ĠH T
__ _
Ġaver aging
ĠKe ith
Ġop ponent
Ġread ily
ĠG T
ĠAcc ount
ĠP le
Ġconsider ably
ĠB orough
ĠHeb rew
correspond ing
Produ ct
Ġint ense
r b
ĠB ass
Ġfl avor
FF FF
Ġsimpl ified
Ġtrans actions
Ġsynthes is
ĠEth iop
fra ction
Refer ence
Ġf abric
hand ed
iv ic
Ġaltern ate
ĠB und
aut o
ÑĢ Ð°
Ġgrad ed
> $
m el
ĠU lt
m other
Ġreason ing
ch anges
ĠN iger
Ðµ Ð½
ĠE rror
Fig ures
Ġmod ular
Ġspeak ers
ĠC T
Ġw elfare
moment um
ol ition
C ore
u u
Ġaccept ance
acc ount
book s
^{ [
ĠSpr ings
Ġl ad
oph one
ĠO il
}. $
w art
ĠLabor atory
____ ____
Ġ icon
Ġplan es
Ġflux es
ĠGon z
Ġimp ose
Ġattempt ing
Ġreprodu ce
up t
Ġun cle
Ġport rait
Ñģ ÑĤ
Ġfirm s
Ġrem arks
Ġprim itive
' (\
Ġmat ched
Ġsl ave
ĠAnt i
Ġs ick
ĠD O
Ġnav igation
Ġl ib
}} +\
it ol
st ration
Ġfl ash
ĠPr ivate
ĠW ey
Ġconcent rated
d ict
I ter
Ġcross es
18 69
Ġs ax
Ġfe es
\\ \
ash a
au kee
ant um
uck er
ij k
Ġadv is
P I
' )\
ĠInd ependence
ĠJ ess
Ġdr ift
Ġcomment ed
ĠDen ver
S everal
Ġr u
ĠP oll
ĠGra ce
ĠY am
ĠGerm ans
Ġn eck
qu arter
Ġconver ge
F ar
f air
Ġcomput ations
ij i
Ġdip ole
Ġfest ivals
Ġfeel ings
ĠB ird
Ġmount ed
Ġs ends
Ġinf ection
Ġdemonstr ates
Ġ{ {
ar ches
ĠLeg end
pan el
Ġstat ue
AT A
ĠM ann
Ġdwar f
is ch
at om
P RE
Ġvir us
D er
ĠScient ific
ond a
Ġin herent
s outh
ĠVerm ont
Ġqual ify
eq q
ĠS ide
m usic
ĠInt eg
Ġr um
j ud
. ]
ĠM ake
Ġperm it
m ac
ĠM ut
ars ity
ĠSerb ian
ĠTechn ical
il ateral
nold s
grav ity
ĠR ou
ĠN HL
ĠY ale
Ġb om
ĠC hern
be h
ov an
Over view
im et
Ġdismiss ed
B ro
set length
Ġadj oint
Gl obal
ĠArch ives
Ġb ridges
Ġhop es
ĠG rey
Ġintrodu ces
ĠS ah
Ġannounce ment
G ood
E u
Ġver ified
aj a
Ġgu ests
Ġign ore
ag i
ĠK ath
ĠN ear
sum er
}} ^{(
em ies
Ġperfect ly
sm ooth
lev ant
igh bor
Ġcom ics
Ġsl ot
ĠB G
ĠD rag
T erm
v oc
id i
ĠL ion
n ear
Ġtr im
^* (\
oper ator
comm ut
ĠBarcel ona
artifact Id
ace ae
om atic
Ġas ymmetry
Tax a
Ġint ens
Ġspons ored
Ġt ons
ĠMor oc
Hon ours
ĠN eed
=" _
rel ax
ĠLl oyd
eff ective
iv ities
ĠS L
c ott
ĠUE FA
iv odes
ĠOrig inal
Ġpar ity
ĠLu is
miss ions
z one
F rank
Ġneg lect
Ġess ay
ĠM ig
Ġinter fer
ĠG W
Ġscholar ship
Ġorgan ised
Ġs overe
ĠB uch
ĠW W
ĠH amb
onom ic
b ing
Ġpers u
Ġprem iere
Ġ ions
Ġm os
G overnment
Ġdec ides
ĠC ole
Ġcons ent
T oday
f ar
~ {\
ur as
Ġde eper
ell ion
ĠB ert
S aint
C B
Ġun con
Ġvalid ity
Ġfor b
ĠP att
}{ $
Ġf ro
ĠHig her
ĠM ust
Ġmuseum s
util s
b uffer
Ġobserv ing
}) }\
ĠC ad
Ġdef ending
ĠEx ception
ĠAl ong
ĠCl ay
Ġgovern ed
C at
+ $
âĢĻ .
ĠL an
Ġyour self
}] \
or bit
Ġdiv ide
Ġuncer tain
P tr
) <
Ġ: :
Ġten ure
ĠL en
Ġgra in
P H
M W
ey n
Afric an
Ġdeg rad
Ġconcert s
ĠCh o
Ġpack et
a qu
Ġb anned
Ġact ively
Ġvort ex
G ET
ĠPro of
Sing le
Ġf ract
Ġb ag
av ior
I con
Ġadapt ive
Par ameters
Ġdelay ed
ĠY uk
dev ice
am er
ĠAg reement
ĠDemocr at
ĠPr iv
ograp hers
ĠI da
ĠD est
Ġsup plied
& +
Ġp or
ĠK it
Ġsustain able
at ra
Ġint u
Ġachie ves
ct x
uck et
ĠPro f
Ġrestaur ants
OR D
it atively
oth ic
ethe less
ĠI celand
w aukee
Ġoverse as
Ġimpress ive
ĠC urt
bre aking
Ġknow ing
E ar
Ġnot iced
F our
ĠF eb
ĠY u
- $\
s ig
stitut ing
Ġguarant eed
im eter
Ġelim inate
ĠMur phy
ĠB S
ĠN y
U RE
m ic
ĠPers ian
Ġpreced ing
IT Y
met ric
ingu ished
h aw
Ġrect angle
m ade
Ġcurrent s
15 00
ĠBroad casting
quant um
ĠAm sterdam
Ġsus cept
styles heet
ĠPhilipp ine
H as
ĠC ox
ĠN an
ap pe
b ane
Ġbo ats
Ġreserv ed
Ġb orrow
Val ues
f d
Ġcap s
Ch inese
v ideo
ĠL A
ĠMun ich
be ing
Ġhol omorphic
Ġto x
Ġdis crep
bas ic
eff ect
Ġprov ing
H H
J ose
om pass
Ġh aven
ĠB right
G al
Ġ$ -\
ĠAb u
in line
erv ation
Ġoption al
Ġenc oder
ug ins
uch i
tra ining
Ġcoinc ides
Ġev ac
Ġor ange
ivodes hip
ĠLu ke
á ¹
Ġaffili ated
Ġbrand s
Ġcomput ers
ĠTh or
2 30
Ġke V
c b
Disc ography
Ġshop ping
Ġmonth ly
12 6
ryst al
M el
ï ¼
" ))
Ġst ops
Ġdem olished
Ġrev ised
ĠCommer ce
Ġtra ct
}{ $\
con j
gener ated
P rim
v m
arm s
Ap plication
Not ice
ĠMer c
P ool
W ell
ĠT alk
Ġst ere
Ġcharacter ization
ht bp
Ġs alt
prot ect
14 5
ĠB ath
Ġf ur
Ġinher ited
ĠHer z
S ir
Ġspecial ized
ĠÃ ł
Ġman ual
\!\! \!\!
ĠR at
ĠD og
' ,\
Ġc umul
amb ers
E rr
raz y
Ġassum es
'' .
ĠMed ic
In f
Ġcap ability
ĠArch ive
ĠIn s
Ġcon sole
Ġconj unction
ĠCroat ia
_{ (\
O ption
Ġsum s
ĠD raft
Ġassist ed
Ġabs ent
Ġlie utenant
ĠTer ry
Ġt et
Ġqu oted
Christ ian
K ar
H ost
Ġad mit
Ġband width
idel ity
ĠLe o
L ove
var pi
Ġpay ments
Ġnucle i
Ġqu arks
is i
ĠP i
th lete
t z
Ġper cussion
Ġlogarithm ic
urs or
Ġalign ed
ĠH im
V A
N um
ĠJ a
ub ert
b et
ĠC incinnati
em a
Ġst range
compon ents
ys ics
Ġsk ill
ĠCont emporary
à ¥
ur ated
harm onic
Ġdevelop ers
Ġcompos itions
Ġsp ots
Ġdiff ers
os hi
Ġpark ing
duc ing
t ry
ĠĠĠĠĠĠĠĠĠĠĠĠĠĠĠĠ ĠĠĠĠĠĠĠĠĠ
Ġcycl ic
Ġfacilit ate
Flor a
Ġmanufact urers
Ġpro g
ĠB it
Ġvol can
v ectors
}, \\
Ġbright ness
Ġinstall ation
ars on
m itt
group Id
ĠA viation
ĠE mm
Ġposs ibilities
ub s
ĠM end
em e
="../../../../ ../../
Ġstri king
Ġbroadcast ing
ĠB A
ist ance
Ġh ook
Ġl ibraries
Ġl i
ĠVo ivodeship
Ġprot otype
Ġcons olid
Ġaccomp any
eng ine
ĠD ragon
ĠSh akespeare
col head
Ġdu o
ĠSocial ist
Ġun expected
Ġmod ifications
ateg ories
Ġcon greg
Ġs oc
all ing
ĠMont ana
ip per
Ġ\, .
Ġm arch
ph abet
Ġsec ured
ric ulum
Ġcol ony
qu is
ĠForm ula
ĠLeban on
ĠO scar
Ġpre st
Ġinv alid
D ou
ĠL ions
ond o
ĠG ay
Ġsubsid iary
Ġob ey
Ġscal ed
Ġw ick
Academ ic
ĠQu arter
ĠM oz
key s
ĠBe aut
Ġhead er
k w
Ġse eds
Ġinnov ative
Ġm anga
ĠA x
part y
ov es
}$ ),
l ia
ĠK ol
Ġdr ink
Ã¡ s
Ġterror ist
ric ks
Ġinc orrect
el ing
ann i
13 4
}; \
Ġref ere
Ġvent ure
ĠU ser
ph oton
Ġexponential ly
Ġmer chant
ĠMar x
Ġmurder ed
18 59
Ġplay offs
E conom
M s
U D
ĠA braham
Ġv ital
}$ &
m ix
v et
tra ined
r ators
ex ports
quir y
Ġcoinc ide
p ine
ontr ivial
ĠAss ert
ĠL iga
Ġcelebr ate
e eq
ĠA B
ĠT oy
c est
g tr
Ġprogress ive
Ġscreen ing
Ġdel iber
Ġachie ving
Ġwire less
M ont
Ġdis abled
ĠC itiz
Ġobject ives
Ġtreat y
}} }{\
Ġdepart ments
Ġexhib ited
ĠK un
re view
ĠAl ger
Ġac res
Ġim perial
L ive
Ġs isters
Ġl ap
ros so
$ /
Con f
ĠGl en
' -
T w
Ġtick et
Ġlocomot ives
ĠEd wards
F B
Ġreal ization
with out
2 10
ĠCh i
ro at
Pol icy
Con clusion
Ġaccount ing
Ġbre ast
Ġear ning
uck land
ĠMunic ipal
ĠH ugh
Ġtrac es
A pi
ĠM O
Ġmart ial
Ġintern ationally
hel m
Ġsub str
ber ger
ĠTra vel
w p
Ġ ray
Ġgen es
' >
Ġthe sis
in ology
Ġadvent ure
Ġinf antry
ĠC ant
ĠMag ic
ph al
Ġb io
N G
l brace
Ġapproxim ations
Ġde lete
B a
Ġnucle us
abl ing
Ph oto
Ġm ild
Ġdirect ory
Ġjoint ly
Ġinter cept
ĠSaf ety
en os
un ning
Ġb onds
az i
Ġbi ography
Ġpat rol
ĠC ob
Ġrad iative
ĠPeters burg
Ġ> >
av ier
Ġun ions
Ä Ł
Ser ial
ĠM ari
18 48
W il
f ramework
Ġall iance
Ġconjug ate
ĠM uch
o j
Ġtrad ed
n ecess
ht b
Ch annel
Int eger
gom ery
Ġob sc
ĠInter est
CO DE
ĠHol land
Ġsymp lectic
ĠSh ar
ĠS or
00 2
le w
ĠB R
ĠSus an
Ġs ad
ena issance
Ġsimpl er
Ġappro ached
Ġhighlight ed
w alk
Ġconsider ations
================ ================
ĠS outheast
ĠS ox
h all
Ġbirth day
ĠPen insula
K O
ring ton
ĠDe ut
Ġpl acing
Ġexplos ion
ark ed
f ive
h ome
ĠStan ford
V E
ord ination
Ġm oth
ĠB ris
H ig
the se
Ġdis ks
f m
ĠBy z
Ġfun eral
+ {\
Ġprov iders
Ġenc ourag
Ġar row
b ie
Ġche cks
ops is
G a
Ġme at
Def unct
C r
+ |
Ġt rick
ĠS elf
de velop
Ġrat ings
ĠOt tawa
H ung
Ġassoci ations
L D
ĠS ultan
Mult i
ov sky
O bs
Ġadvant ages
ĠSoft ware
diag ram
c od
Ġcomplet es
om i
Ġover whel
om m
Ġn um
Ġfast est
Ġsn ap
Ġin hib
Ġrel ate
ab atic
ri er
on ing
Ġr ub
Ġund efined
ac les
ĠArchitect ure
Ġamaz ing
ĠBut ler
al am
18 57
ĠProtest ant
Ġ" \
V R
Ġe cc
bibliography style
b ind
b ast
ot er
B razil
ĠR ivers
import ant
Ġi i
Ġn inth
U LT
Ġb ins
vel t
Ġmeaning ful
Ġpref ix
ĠWat son
Ġt ribute
Ġwrest ling
Ġpoint ing
k u
scal ebox
Ġhol iday
Ġp in
P y
ĠF BI
Ġcaref ul
Ġvolunte ers
Ġtransp arent
Ġquant itative
EN D
ex cept
g as
Ġep id
Ġcompris es
Ġper ceived
process ing
Ġconf usion
ap plication
ĠNash ville
) },\
Ġstream s
Ġres ort
. (
Ġpair ing
] \\
ĠO wn
ĠR oche
Ġsimpl est
ogg le
Ġorgan ic
ĠR ange
Ġfil ename
Ġbut ton
Par ams
sh a
Ġdist ant
Ġconven ience
Ġexcit ing
Ġc argo
iss ible
s ens
ĠHer bert
ĠHel en
Ġval ued
Ġsc iences
Ġall ies
Ġconn ects
Recip ients
S uch
ĠP ent
ĠInn ov
od ore
ĠW alt
Ġcal endar
h uman
Ġconflict s
Ġdisp ers
ĠCru z
he ro
ĠH aving
Ġglob ally
Ġke eps
r arily
Ġperson ally
Ġanom aly
ĠW ord
ĠF un
). $$
sh ifts
ĠL HC
ĠAng lo
k ens
Ġconstant ly
Ġf ake
orn e
Ġim plied
ir ts
Ġbroad er
Ġdiplom atic
ĠFil ip
Ġdecre ased
Ġwealth y
Ġwe bs
Ġscatter ed
( :
s ay
oc ols
Ġe ase
ĠE M
h yp
Ġfail ing
erv ed
omet er
Ġav ailability
B usiness
sect s
Ġenc ompass
ĠD od
C ity
ĠAir lines
Th m
qu ote
ĠL is
Ġdet ectors
Ġlog ical
Ð¾Ð ²
Ġrec alled
COL OR
Ġa ster
Ġturbul ence
Ġvic inity
- {\
Wind ow
r ity
ĠCh apel
ĠK ay
ĠSud an
eck er
Ġveter an
Ġpreserv es
in ance
Ġdisestabl ished
ra h
ĠNe il
Ġo ct
Ġdef inite
C ategory
Ġg amma
A thlet
act eria
um ped
ĠAr nold
Mus ical
anc el
ĠIraq i
C y
ĠM aced
M atch
az ar
r v
im ony
ai ro
d ue
AT O
Ġrecommend ations
Ġex terior
sur face
18 30
ass oci
Ġsp iral
Ġcult ures
ĠS uz
it ious
Ġend emic
ĠCl in
Ġch ron
Ð ·
B ound
Ġorig inated
top rule
AS E
Ġexam ination
min a
P G
b ers
C s
Ġweak er
osp here
Ġs ake
Ġvulner able
Ġobtain s
F alse
ĠM idd
Ġmon op
resize box
let ter
Ġsk etch
)} =\
Ġdiv is
New s
ĠÂ ·
f ers
rib le
Ġ* )
int s
en um
om ed
ĠM I
ent o
Ġcou p
iv ariate
Ġexception al
Ñ ĩ
ĠK rist
d if
ĠP av
ĠCo hen
1 19
ĠHor se
Ġhapp ening
ov en
S ettings
ĠPun j
ĠA round
ĠUn fortunately
Ġmin es
est amp
m agn
Rel ated
Ġapprop ri
g ap
ix el
Ġencounter ed
el astic
[ ->
z ig
Ġâ ĨĴ
e lected
ĠHar old
Ġas ide
ĠPro perty
ĠDel aware
Ġc rack
Ġir regular
Ġacqu ire
rick eter
iz a
Ġtw ist
Ġacknow ledge
): =
Ġal ert
are a
3 000
Ġmy ster
Ġsum mit
ĠF ix
ac a
K ind
ĠEag les
q q
Ġpar am
ĠBay esian
ĠRead ing
Ġinaug ural
Ġhand led
ĠA er
ĠBudd hist
Ġcont ested
Ġdem ocratic
Ġed itions
colon eqq
Ġgu ys
Spec ial
und les
F W
Ġrad ar
C amp
Ġarg ues
ĠL ux
A uthor
Ġt one
ĠJ en
Ġimpro ves
ĠMax well
he ld
om o
Ġadopt ion
Ġinject ion
imens ion
Ġsens ors
der iv
Ġexc av
Ġb ull
Ġw ars
Ġadd itive
b les
b eq
P arent
Ġdegener ate
se en
ĠD ennis
end um
Ġch apel
Ġrecogn ised
ĠAb bey
Ġcur rency
ĠF R
add ress
ol ine
Init ial
ran es
ĠK ra
ĠTransport ation
C ritical
ĠF L
Ġillust rates
us ebox
Ġtim ing
Ġthough ts
Ġmicro sc
] }\
ĠSt ories
L ondon
ĠC F
Ġun clear
ĠHug hes
in ery
ĠB ach
ĠT ed
Ġrot ational
ĠSing les
) ~
ub a
Ġsub graph
Ġtradition ally
Sche ma
Ġhigh lights
Ġcomp ounds
ĠBulg aria
c u
Ġlaws uit
ill ance
Ġconsequ ently
Ġcompl iance
k an
il o
c am
Ġt ill
") );
Ġg rate
ĠA ra
Ġsp ins
Ġstream ing
Ġadvers arial
ĠW u
Scott ish
N AME
umb le
Ġflex ible
Ġim per
ĠForm er
ĠSe an
ĠAd vanced
Ġpat ent
13 6
Ġper pet
ĠBl oom
Ġ+ +
Ġe at
Ġfl ights
Ġdevi ations
ĠHe avy
dis abled
ĠSh aw
ĠW onder
vers ely
$ ^{\
Ġmoment a
count ry
Nav Bar
ĠSh a
fl ux
Ġst ick
r brace
ĠC ancer
Ġequival ently
H a
Ġco ffee
Ġentreprene ur
ĠS ierra
pend icular
Exp ression
Ġqu bit
ĠDi ocese
3 20
] ]
Ġb at
Sm ith
our g
act s
Ed it
SE T
Ġagre ements
ĠS alt
n atural
Profess ional
ex ception
Ġend ors
2 25
ie ve
Ġmulti plic
Ġevolution ary
web kit
ĠHis panic
ĠNep al
13 7
Z Z
ĠArt illery
IM E
arri ers
Ġlong itudinal
leg iate
Ġisot ropic
Ġrest ore
) {$
S ep
ces ter
Ġcompet itors
n l
sk a
Sw ed
Ġbranch ing
Ġcancell ation
rag ue
Ġj ail
co ordinate
Ġer ected
Ġmotiv ation
}. $$
Ġproject ions
Ġcorrect ed
* }\
Ġpower ed
l ies
r k
ĠH ob
Ġtrans mitted
arr ison
ĠL ess
)) )
ĠD ictionary
gtr sim
ĠÐ ¿
Ġcert ified
it ic
Ġvirt ually
ĠNor folk
lim ited
Ġass ists
Ġphot ographer
orient ed
Cl ick
thin space
G allery
Ġconduct or
Book s
M ale
Ġprov inces
}) }{
Bl ue
fe ature
ener ate
Ġecc entric
Ġapproxim ated
q ed
ĠS ask
Ġpat ron
c v
ĠWell s
ĠPro file
en burg
ĠN at
Ġan ime
Ġsp ont
Ġbe ating
Ġby tes
Ġdr inking
Ġal ien
{ |\
equ als
ĠM s
Ġd ots
Ġc emetery
ĠT ang
ĠConserv ation
Ġsudden ly
ĠSt uart
Ġill um
c opy
Ġlist ening
}$ :
ar ound
ĠBob by
Ġbal anced
ĠS H
Ġthr one
, [
ĠMah ar
arc hed
ĠFlore nce
ĠAl t
ose velt
Ġincorpor ate
vel oc
ach i
\\ [
A x
{ %
Ġ ell
ĠCl iff
Ġproceed ings
ĠHar vey
Ġutil ized
val uation
Ġalleg ations
ĠAngl ican
ĠTib et
ĠD id
ĠArm enian
ĠRey nolds
ĠC ou
ĠC IA
Ġpreserv ing
ĠDe b
itte es
Ġa z
Ġl os
ro us
M ill
f ilm
cell color
d ark
n c
ĠD ir
C AR
c aster
Ġcent res
ĠAct or
ĠWork ers
P ower
Ġbank rupt
ĠR ule
Ġasymptot ically
ĠH ab
ĠR idge
Ġwel come
it ian
Ġswitch ing
Ġaccompl ished
Ġr itual
Î ¿
ĠH av
Ġtransl ate
Ġadvoc ate
Ġfore cast
Ġlearn s
Ġcut off
ter ms
^ *}
Ġh az
Ġatt itude
14 3
â ĪĴ
Ġf ol
Ser ies
O l
ad r
Ġw ake
ik es
Ġsingular ities
ĠM orning
Ġdocument ation
Ġsuperv ised
S ocial
ĠP od
## #
). $
ĠN N
Col lection
G rand
T ool
Ġt orn
Ġinv ariants
ĠN athan
= $
Ã± a
c ustom
ĠW i
Ġun em
15 5
ĠB eth
act ing
ĠAzerbai jan
ĠB esides
Ġco ins
d m
Ġmethod ology
f ony
ĠJ ar
ĠProdu ction
Ġcommand ed
Ġarr iving
est imate
18 55
ep ing
Ġsh adow
Ġth ir
AT H
Ġf inger
h istor
ous ing
ript or
Ġconduct ing
Ġ\| _{
Ġt issue
Ġuns igned
in ced
Ġm ail
ab c
}= -
ĠCam eron
Ġsust ained
im s
)) =
ly ph
ĠArch bishop
Ġceleb ration
id ity
ur se
Ġearthqu ake
Ġ urg
ĠS ource
Ġs aint
Ġb oss
Ġsoci eties
c op
Ġg ymn
ĠG ilbert
18 58
ĠN ak
Ġco res
ĠPr uss
h over
Ġsculpt ure
ĠSi eg
}} _\
Ġtele phone
Am ong
re leased
sec urity
T our
12 9
Ġcon g
in z
g ie
Ġland ed
Ġr ated
ind a
Ġp ill
Ġliter ally
ĠP ick
ĠD ol
Ġpro xy
p b
ĠE SP
Ġcl ick
L ock
comp are
Ġput s
Tem plate
Ġdrum mer
ical s
Ġn ontrivial
Ġsk i
Re view
13 2
Ġaccommod ate
Ġenvelop e
ĠLeon ard
R ound
á º
Ġprom ised
ĠF ind
ant ics
ĠG ust
Ġsusp ension
ĠG host
Ġport folio
Ġpro sp
sett ings
ĠB ald
ĠS ak
ĠK i
R ock
Ġgrad ients
abil istic
M ot
ĠG rade
ac co
Ġcert ificate
ĠPhill ips
18 54
^{ *}
Ġen emies
ĠG az
B ody
( *
n ov
Ġkeyboard s
Ġl iv
Ġprocess ed
at em
de lete
^{ {\
Im pl
ĠAll ied
s ized
Ġprodu ctions
Ġaud iences
ĠA uckland
}} )\
N a
Ġs hed
ĠPro duct
G ra
J im
ĠLe vel
agon ist
uc he
}) :
ĠChe l
ĠA ber
D oc
se lected
Ġproceed s
ĠD elta
I X
st own
Ġbl ues
ins ert
min ster
le igh
p iece
Ġbas ically
ul ous
ĠMe chan
Ġmanufact ured
er en
Ġb ishops
Ġin ert
Ġcharacter ize
Ġb is
qu ark
Ġtel escope
ur ate
Ġmeas urable
hy dro
Ġdefend ers
Des ign
Ã ī
ĠR F
Writ er
ĠR alph
Ġsuccess ive
+ }
Ġpsych ological
ibl ical
Ġabsor bed
E G
ĠW ikipedia
Ġpal ace
}, $
ĠLiber ty
Ġsy nonym
Ġpar se
Ġto mb
Ġunder go
Ġreform s
, '
ĠK ap
N umer
ĠS olar
ig roup
ĠS oph
Ġf iscal
ĠS ey
Ġcyl ind
M ah
che m
Ġcomb inator
ĠChe ster
Hand le
[ $
ĠL ac
In v
Ġmod elling
b os
) *
Ġ\\ \
an chor
Ġro cks
Ġthere after
}} %
Ġform ations
Ġstr at
Ġper pendicular
Ġdocument ed
h orn
Id ent
)$ }
Ġbut ter
produ ction
N Y
former ly
osoph ical
Ġneur ons
L iter
` .
am ic
Ġc ow
lement ation
ĠL ook
Ġstop ping
ĠD y
Ġ\ )
R a
sin h
rel ations
Ġy es
por al
( $\
Ġreb uilt
J ud
ĠCoul omb
' }(
Ġhead ing
Hel per
Ġx ml
P DF
ĠCong o
cl ick
Ġall oc
uss els
Ġb es
Ġfight ers
bound ary
Ġin frared
ĠLe eds
Ġmemb rane
Ġin line
13 3
Ġconstit ute
Ġas set
h agen
s ys
class ical
Ġvari ational
R ivers
19 2
att ices
Ġfill ing
A ud
Ġlight ing
ĠArgent ine
Ġto ugh
Ġf ert
ĠE C
Ġimpact s
ĠPerson al
l ift
ĠW ald
ĠG olf
ĠM ort
Ġsett lers
Ġthr iller
s olution
Ġanomal ous
ĠFa ith
ĠIm ages
Ġsynd rome
B al
Ġto uring
ĠR osen
ĠPar alymp
Ġinteg rating
Ġsl aves
isc opal
Ġconv inced
im pl
M ex
er ver
Ġsec ular
wid get
18 56
5 000
T er
ail ure
Ġswit ched
Ġdef ect
Ġrel ocated
ĠKaz akh
ec ca
ff ield
lect ric
Ġimm ig
, }
Ġoptim ized
ut ton
Ġgl uon
h is
text style
Ġmy stery
Ġform ulated
Ġce ased
ĠL aura
Ġphot ometric
R ay
ie v
oc ent
ĠFour th
ol ics
ard i
Ġt ribut
Ġl ots
Ġhun ting
Ġto urs
Ġiniti atives
i ast
Ġbon us
Ġtour ism
ĠIS BN
depend ency
Ch ina
Ġt anks
Ġh orn
}) ^{\
Ġinterp olation
ĠAn cient
S V
Ġas p
Ġsl ice
ĠN A
}{ !
cor rect
B ill
Ġbelong ed
= }
ĠColumb us
Ġh ide
Ġr iding
ĠDef ine
M ary
ie u
th ird
Ġattend ance
Ġl ights
Ġa xi
ĠM ick
Ġs ugar
Ġalleged ly
L ee
Ġ )\
Ġpol es
ĠWall ace
ĠAgric ulture
fra g
oot s
Ġmake up
S pr
| }{\
Ġarr ives
v or
F rance
Ġfl ags
Ġatt ractions
Film ography
n orth
Ġin cent
Ġtack le
K A
spec ies
g us
ex ec
am y
ib n
Ġvis cos
Ġret ro
Ġmulti plicity
ĠStat istics
elect ron
Ġconstruct ing
to String
ĠRon ald
Ġsh ield
Ð ¹
Ġneg lected
ĠLeg al
ĠWeek ly
in formation
ĠL oc
A re
ĠL ot
G Hz
ĠĠĠĠĠĠĠ Ċ
St ack
ah l
Ġdeploy ment
ĠR aw
ĠPl anning
L ight
raise box
t ures
us ive
Ġprogram mes
sp ort
Ġatmosp heric
W in
ĠT as
ĠFilm s
ĠG raph
ĠArt ists
ce q
b ank
J an
ill es
ĠK ate
Ġen orm
Ġconclud es
L java
ĠL ipschitz
ĠV eter
I J
plot point
Ġj av
| {\
ĠN ott
G AN
Ġbehavi ors
as ia
Ġst roke
ĠCy cl
Ġpredominant ly
M icro
ĠW ag
Ġcalcul ating
ĠH em
d ynamics
p q
Ġimag ine
Ġb ay
Ġauthor ized
Ġvo ices
ĠB aby
ĠMont gomery
g it
Ġens uring
bottom rule
Ã© l
ĠM ul
Go ogle
Ġlegisl ature
ĠDou ble
Act ive
ic as
tra ce
Ġrem n
S cal
ĠProdu ctions
Ġg ent
ĠG alaxy
Ġcitizens hip
re ach
eg al
Ġhist ogram
i ya
e o
el ia
Ġexperiment ally
ĠRo osevelt
Ġ( ).
Ġperturb ative
}) ^{-
ential s
ĠA aron
Ġassert ion
unc redited
ĠF low
Ġem igrants
Ġthere in
pr us
Ġdraft ed
Ġfif teen
zh ou
ĠPed ro
hel p
Ġn inet
Ġexplo it
T ags
em in
=" /
el ly
ĠS Ã£o
ĠCom plex
am ation
G T
Ġcam eras
Ġwal ks
] :
Ġinteg rate
Ġfre ely
s pl
ĠEX P
hom ogeneous
ĠZ hang
cor relation
Ġstructure d
Ġbos ons
at ial
Ġcol ored
Char acter
Ġacknowled ged
ct ors
ĠEr nest
Ġachie vement
m un
}\ )
ĠVen ice
C ross
foot er
Ġth rown
trans ition
Ġj u
Ġemphas ize
ĠD iamond
Ġtourn aments
ĠEncycl opedia
mult ip
L ittle
IG N
it us
Ġless ons
if ice
ĠM obile
16 5
Ġhand ed
Ġregular ity
Ġneutr inos
ĠAut o
Ġout door
Ġjud icial
M N
}$ ~
Ġplay wright
ĠN R
E A
Ġpl aint
ĠHar bor
Ġplan ar
ON E
}\, ,
atter ing
W R
us c
ac cept
Ġpray er
ĠR enaissance
ach t
land o
Ġsong writer
ĠH ave
ugh t
ĠHen ri
Ġopin ions
Ġsearch ing
Ġb ind
eth yl
Ġpract ition
Ġp ump
Ġshel ter
ĠCh an
S ession
Ġarbit rarily
Ġc oding
00 5
al ong
Ġchalleng ed
Ġin coming
Ġre write
Ġtempor arily
pl ugin
Ġpron ounced
rac le
ĠU RL
m iddle
Ġad op
ĠLat ino
Ġany where
Ġpubl ish
Ġe ject
Ġrenormal ization
Ġdist ribut
Ġb ipart
Ġw ard
= [
Ġtr ump
own er
Ġkid n
Ġpro sec
ran o
Ġab ilities
ĠObserv atory
Ġapp endix
ĠRe ed
\" {
ĠK id
Ġburn ed
Ġcyl inder
ĠM ol
Ġcollect ing
ans k
Ġunder graduate
Ġtri angular
Ġb one
Ġ ic
S B
ĠSt ef
Te chn
Ġexpert ise
Ġplay off
cos ystem
I ll
Ġindic ator
cur ve
hab ilit
? ?
Ġbackground s
oca ust
ĠTh under
Ġcont our
Ġpop ulated
ĠB ened
ĠJust in
f urt
Ġeg gs
Ġpre val
Ġhistor ically
Ġc ave
Ġ }(
ear ance
Ġgraph ic
Ġinfer red
F IG
Ġcl ause
He alth
Ġaccept able
Ġdistinct ive
18 52
prim ary
ry s
T ER
ĠM Ã¼
F i
ĠC ele
18 51
Ġmole cule
R oute
ĠAr c
ĠE ld
) )$,
Ġpo ison
Ġsh ots
ĠSing le
Cent ral
Ġsh ops
ĠM ik
ĠJ in
B etween
ĠComp etition
Ġrobust ness
Ġcontroll ing
c ity
Ġprint ing
ĠI F
hes is
Pre vious
algorithm ic
ĠClark e
Ġs weet
Ġsoph istic
h art
ĠV ent
am med
Ġsummar ize
NR AS
as p
opt im
N OT
ĠT otal
ĠGreg ory
Ġreserv es
ern ess
Ġto ured
Ġpsych ology
Football ers
Ġvol unt
Ġb alls
ĠB av
cons ist
ĠP in
Ġmass less
Ġs ang
ia z
Ġturbul ent
Ġsub sc
At l
st ock
Ġt uning
13 8
& #
appe ared
Ġau ction
Ġbre ath
Ġharm on
ass er
Ġreg imes
ĠV ict
diag onal
am pton
Ġpoor ly
h in
Ġro ster
ĠU pdate
ĠB ag
, +
Com ment
Ġpro l
com parison
Ġprepar ing
V C
ine es
Ġa qu
Ġm apped
Ġcaus al
ĠV II
Ġab ortion
ĠTe V
Ġhom ology
re b
Ġm amm
Ġsupp ression
amp ed
U r
ĠPlan ck
Ġa viation
Ġch ronic
ick en
F re
ĠAst ron
a very
Ġqual itative
ĠDec ision
Ġdeterm inant
Ġpredecess or
Ġel ite
ack nowledg
Ġz ones
Ġext rap
Ġcomplex es
re ens
Ġcomm ands
ill iant
Read er
IV E
e very
Ġco in
Ġaut onomous
Ġexec ute
group s
ĠV ar
Ġtrap ped
Ġreg ulatory
alth ough
Ġg ro
DB LP
}} }}
Ġcon ce
g rim
ĠS oon
Ġd elta
th al
Ġd ogs
ĠH us
Ġsqu ared
Ġa fore
Ġcivil ians
small matrix
ro e
Ġdifferent ly
ĠEdd ie
sup set
Ġd rops
ĠSy l
Ġsp anning
Ġoccur rence
Ġan xi
iss ues
Ġfoot age
sw ick
Ġconserv ed
H ER
ĠLi u
ĠMil waukee
Ġcont ributes
reg ation
ĠS oci
Ġequ ity
Ġbomb ing
Ġwonder ful
config uration
Ġf iring
13 1
Ġhuman ity
2 17
C rit
w i
Ġm ilk
Ġshall ow
Ġwrit ings
leg raph
Ġtw isted
Ġdig it
Ġwebs ites
Ġpri ests
Ġwe aken
Arg ument
By tes
Ġt iny
p adding
v p
ĠShang hai
ĠFig s
Ġle agues
ĠAssum ption
Ġno isy
Ġhonor ary
Ġb read
ah an
ĠWrit ing
Ġ( âĢľ
}}{ (
Ġepoch s
Ġ| ___
fer m
ap est
ĠAgain st
an che
Ġins ights
erv es
Ġatt raction
Ġmaintain s
Ġunsuccess ful
Ġ$\ |\
Ġenhance ment
ĠFellow ship
Ġar rows
ĠÃ ģ
d c
Ġmat hematic
ex port
iffer ential
w hat
sat z
cos h
ĠLeg isl
ĠR us
Ġcan n
X T
ĠSc ar
)$ $
Ġo k
N orm
Ġlog o
ieg e
Ġinvest ments
Ġp ace
ĠArm ed
Ġsub urb
ĠTh ai
Ġall ocated
h im
isc her
Ġutil ize
b ird
Ġbuild er
ups ilon
Ġp ale
Ġc rop
Ġprefer ence
ĠH at
vari able
ĠB egin
be it
ĠB orel
> .
16 8
ester day
under brace
ĠOther wise
Ġover head
Ġtro ubl
Ġt une
ĠS old
ĠR ams
Y es
Ġgold en
ĠÅ ł
ĠC ert
ou x
ĠCo ach
Ġdecl are
Ġcounterpart s
Ġresign ation
H or
Ã¶ n
ĠHT ML
ĠOak land
Ġdescript ions
J ul
Ġen act
Ġwat ched
not ation
n ell
Ġt ape
Ġe V
ĠP red
ĠL isa
outhe astern
Q ual
Ġfaith ful
pot ent
ĠRay mond
} '$
ĠN ancy
ĠK ash
ĠC MB
Ġbi ology
Ġconf used
ĠMult i
Ġconf ined
Ġb ubble
Ġt orsion
Ġevalu ating
ĠTun is
st ats
pl ates
Con clusions
}} ^\
ĠConfeder ate
ĠV oice
Ġmer ge
it an
Ġbank ing
ĠD rum
Ġed itors
14 7
lig a
% %
p ic
Ġindu ce
C ard
ĠSt ore
Ġc attle
Eng ine
D utch
ĠJo an
Ġcl im
ĠF oster
ĠR uth
Ġun changed
US A
flu ence
T ex
Ġmiss ile
ator ies
ĠP lease
rie ve
ĠT rain
ĠF ish
ĠT odd
D IR
Ġh ull
Ġfarm ing
Ġbus es
Ġult imate
iz ard
Ġcommunic ate
Ġre organ
Ġo s
Ġc ricketer
ĠG ene
Ġfall en
Ġpar ams
Ġcompris ing
Ġ[ '
ĠR ah
Ġen rolled
$ ^\
iv o
Ġor che
Ġviscos ity
b org
w oman
Ġmod ulation
ust ain
Ġwithd rew
bo ys
Ġb orough
Ġtrav elled
S end
' ],
ĠP ul
Ġa thlete
Ġfor wards
ich let
ithm etic
ĠScot ia
ĠL LC
Ġrun ners
ĠIsa ac
Ġem otion
Dat abase
ĠS ony
ern ame
T ests
ĠK in
Ġaccess ed
ĠEngine ers
Ġt idal
re place
Jose ph
ram es
Ġvolunte er
Ġdiv isor
Ġcol ours
^* _{
ess el
ĠAmb assador
Ġg raphics
Ġesc aped
sch ild
ĠRh ode
oc hem
b g
Ġinc umbent
ĠK ill
Ġhost ing
ĠM az
Ġsk ew
Ġdev ast
St orage
Austral ia
Ch arts
Ġout lined
ak ar
em ail
Ġse arches
Ġquant ization
L U
Ġvol leyball
Ġboard s
ĠS ect
Fe ature
Ġb rowser
Ġh ate
Ġcommer c
ĠE lection
Ġdecor ated
s elling
-- >
Ġsimpl ify
Ġrout ine
Ġdescend ants
ĠPhil osophy
ap or
Ġdim in
Ġproxim ity
Ġcap ac
J ECT
Ġgu idelines
Ġburn ing
as is
ow der
l ov
Ġal phabet
O B
ish a
row ing
ĠPlan et
ĠWell ington
Ġafore mentioned
ĠPrinc eton
ĠNorth west
Ġmob ility
Ġsh aped
ĠDiv is
)} }\
it ars
system s
{- }
Ġadvert is
Ġg aps
og an
Ġinter change
Ġexpl oring
Ġarch ive
pos al
ĠFried rich
enc ia
Ġload ed
Ġdis band
9 78
Ġj ew
ĠB ear
Ġinject ive
ĠS ic
Ġinv ersion
p atch
ĠF OR
Ġdiscuss ing
ĠWars aw
ad apt
Ġp ul
Death s
un i
Ġsem if
bor o
in as
Ġsee ks
Ġhard er
ĠUg anda
Ġdr ives
Ġad equate
Ġpat ri
sh ops
14 9
bu ilt
ĠGro ve
l ceil
ĠBris bane
Ġh unt
names e
Te am
Ġem peror
umb ai
ĠQ ual
Ġdef ended
Par am
Ġrow span
D iff
( --
ĠTh ings
^* ,
Ġmet ropolitan
ĠJS ON
u ine
ĠCle arly
18 49
Ġport ions
RO M
Ġcop per
Ġ ×
pos itory
build ing
M ur
Ġillust ration
lement s
ĠCP U
g art
L at
e ur
Ġfoss il
Ġfor ty
B ad
pr ises
s ame
Ġl obby
Ġsusp ected
à ®
Ġexcit ations
Hen ry
18 53
end or
ĠM E
S un
az y
G aussian
I rish
Ġdesign ation
al gebras
Ġhous ed
atche wan
intend o
ĠGu ild
Def ine
' ))
Cont in
en o
ĠK as
Ġsuperv ision
Ġspec ification
ul ators
Ġcompar isons
ĠL ex
Ġexhib itions
Ġre con
Ġ( *
integ ral
ab we
ĠN om
ĠRev ival
Call back
F D
ll a
ĠBenn ett
Ġbe et
Ġexecut ives
Ġf ed
es ome
~~ ~
), \\
ĠF ighter
Ġcov ariant
Ġsp ur
Ġcomment ary
Ġl ux
Ġun w
Ġfilm ing
ĠWork ing
Ġcry pt
Dist rict
av ailable
M ember
nabl ed
b is
ĠEx cell
Ġfif ty
Ġstrong est
Ġde ck
Ġmod est
ĠH ait
Ġsupp ress
ĠS uff
ĠCh ang
AR Y
d ie
al in
ce ut
ĠR av
Ġmagn itudes
Ġcon form
ĠS ob
ĠThrough out
Ġdivor ce
Ġh itting
st ead
Ġm oon
Ġconnect ivity
Ġide als
................ ................
Ġop acity
ĠCl imate
Ġf ate
oe ing
ĠĠĠĠĠĠĠĠĠĠĠĠĠĠĠĠ ĠĠĠĠĠĠĠĠĠĠĠĠĠ
e igen
ĠK il
Ġel dest
ellig ent
Ġb racket
M NRAS
Ġmem ories
Ġpen et
annot ation
Ġed iting
inter pret
Through out
n al
Ġqu bits
ĠL arge
14 6
18 47
con tains
ĠT ong
ĠBel arus
Ġnorm s
)$ )
u ate
ĠY ellow
Me V
ĠL ov
ĠY a
par amet
Ġeditor ial
Ġrec ruit
Ġmer ch
ĠDat abase
B ul
bur st
e V
-------------------------------- --------------------------------
W ho
ĠI BM
arma ceut
ĠM ills
D ig
Ġc ad
Ġb achelor
ant astic
Ġab bre
Ġtour ist
ĠMon ey
asc ade
ĠS ullivan
Ġinvestig ating
S oviet
Ġartifact s
Ġmot ions
oll o
itt en
plic ial
osl ov
load s
Ġper ception
ĠĠĠĠĠĠĠĠĠĠĠĠĠĠĠĠ ĠĠĠĠĠĠĠĠĠĠ
Ġaff ecting
Ġp orts
ERR OR
aur us
Ġdevelop er
Ġ å
Ġco herence
im er
ron es
w ent
ĠE sc
}{ -
Ġpoly mer
Ġby te
] }$
Ġsub mit
Ġrad i
M SE
Ġachie vements
Ġ rays
ook ie
ĠR oth
I EEE
Ġp uzz
ĠRod rig
enti eth
ĠF lying
Ġen roll
Ġhe x
ĠNew castle
m ot
ĠRes ource
m ock
Ġown s
T L
by te
geq slant
Ġtravel s
Res earch
ar in
spect rum
A U
pro j
ĠD rama
Ġco arse
D ouble
S eg
Ch ildren
ĠA w
ish i
Ham ilton
fo o
ut a
ĠF riend
ĠKer ala
Ġimplement s
co q
ĠFran co
] _{\
Ġfactor ization
ĠSp encer
ĠFe ature
Ġd rove
sur ance
P AR
imb abwe
fl ix
ĠM ade
ah u
}) +
ĠCab inet
m ount
Ġsub stance
con e
ĠS ent
Ġanth rop
song writer
F ort
ac ular
Ġamb assador
ĠGab riel
Ġnovel ist
by ter
M id
ell ers
ach ment
H I
Ġconvolution al
Ġt ale
ĠCard inals
Ġsurviv ors
Ġcomp ress
Ġimplement ing
W ashington
Ġpun ishment
Ġgra ve
b rand
sc ore
n p
ĠO S
Ġadv ances
Ġsever ely
d v
veloc ity
s al
( (\
f ollowing
att s
Ġabund ances
ĠE ight
}\, .
ĠCrim inal
ĠG ang
Ġgard ens
math rel
ĠPear l
t ics
on ce
Ġg ear
L arge
R ule
In s
Ġfollow ers
ĠAnd roid
Ġelev ated
Ġpit cher
K im
Ġ Ø
ust ers
Ġmed ic
ph ot
L ead
ĠL oss
ĠMus ical
bo olean
W W
ĠDirect ors
Ġsign atures
V s
hook rightarrow
" `
ĠG amb
Ġsc andal
13 9
l iter
ĠL amb
ass o
ĠNob el
G reat
Ġhar vest
ĠTom my
ol ute
Ġcorn ers
Ġstret ch
Ġadm issible
ĠBro s
Ġspeak s
Ġthermod ynamic
ĠI L
Ġcl an
Ġattack ing
) _\
Ġdec oder
Ġpl ates
ev ents
ĠP resent
Label s
Ġch apters
Field s
G er
ĠF ast
found er
ern els
ĠInter view
F low
Ġbur st
ĠCroat ian
Ġmem oir
Class es
ĠCirc le
Ġlegit imate
rosso ver
S equ
ĠN L
P ay
ĠI gn
ĠAm y
_{ |
ĠCh a
ĠF iction
l ived
d g
Ġviol ations
Ġaff air
ch art
Ġexp ense
Ġbel t
ign ment
Ġsc an
Ġhe li
Ġball ot
ll er
Ġpresent ing
Ġc inem
Ġf atal
n as
is che
Ġfriend ship
ĠE state
p her
Ġs aving
Ġnames pace
Ġcart oon
Ġout line
ĠD anny
Comp anies
Ġann ex
ĠNap ole
It s
}} ;
Ġab oard
Ġhyp ers
Ġant is
T ri
ok o
ms g
Ġexp ans
ĠMon th
in aries
T s
he art
Ġresearc her
Ġterror ism
W estern
ĠÃ Ĺ
Ġemploy er
ĠCy prus
Ġwar rant
Ġpreserv ation
Ġmorphism s
Cor ollary
ĠCar r
ili ation
ĠManu el
ut o
Ġfl our
ur istic
Ġprot ocols
ĠBG COLOR
F lo
Ġtransform s
ĠRevolution ary
Ġdef ects
cor r
anc ies
aus es
h ref
im plies
est rian
ĠAr g
Ġsub marine
im o
st ed
ĠO z
U k
ĠS ang
par ing
Ġre conc
ber y
p ublished
ĠPr ison
Ġred shifts
14 8
ole cular
Col lege
Ġprevent ed
Ġtim ber
A Y
bo at
B ern
w yn
ĠTest ament
ĠHer ald
oc on
ĠE T
Ġtransl ations
ĠBrun swick
cm d
r ceil
ĠHol mes
sw itch
ĠIda ho
ok u
pt ons
ĠWey l
ĠC ut
Ġstreng ths
R F
T reat
Ġp ec
ra its
Ð ¿
te ch
Ġde ce
um my
ov ina
por ter
ak u
Ġpair wise
ock er
Ġdepend ency
t rain
l g
ĠFran Ã§
G reek
! âĢĿ
ĠMethod ist
ĠPh ase
exp ect
Ġm im
Ġeth n
f un
ĠC ec
ĠD ame
Can ada
\, $
ĠIn stitution
Ġbus y
d ens
Ġr ally
ol an
ĠEc u
ats u
)$ ;
ĠVlad imir
am ine
Ġor al
form ula
Ġto ll
im en
pr ising
Ġp our
ĠM Ã©
und a
ĠCl aim
ĠG aza
M AP
ac ional
() :
m ask
ĠP rest
sh ore
ado op
Lou is
B ob
ĠNot able
Ġgather ing
m ove
S a
ĠBulg arian
Ġv e
ĠD aw
in j
ond e
ur bs
ad vant
ers hire
ĠĠĠĠĠĠĠĠĠĠĠĠĠĠĠĠ ĠĠĠĠĠĠĠĠĠĠĠĠ
)- (
ĠO g
Ġp ist
Ġdepend encies
ĠCa uchy
Ġp unct
ac ian
the ir
Ext ension
ĠP eng
ĠR S
ull ah
no align
Ġdraw s
Ġin ev
f b
Sing les
Ġc iting
Ġg est
Ġreg ret
ĠHop kins
Ġdimension less
y y
Ġdo zen
ĠF ed
Ġtalk ed
Ġfle w
ĠEag le
Ġpart itions
equ ilibrium
Ġart work
Ass ert
Trans action
d an
ik ing
15 2
heim er
ĠOut standing
pl ain
oy age
Ġr ice
Ġpione er
d dot
Ġn ephe
$ ~\
ĠP rague
Ġspeed s
â Ĩ
Ġmod ulo
h p
ĠC ork
ĠAct ress
av ia
ĠPal mer
du ction
ĠE ve
Ġen abling
t racks
ĠD h
Play ers
or um
ĠPaul o
ĠIndones ian
Ġun ve
> ();
ar u
ĠBe ing
ĠLuc as
f itting
un ique
P ac
Ġjo ins
ĠVal ent
ip ping
Per form
ha o
m art
ĠR af
MA X
Ġdepict s
ĠH az
arc sec
g overnment
represent ation
ĠM ario
rack ets
ĠPlay ers
Ġb eta
ry ption
Ġwar fare
Ġbe ams
v anish
ĠEx per
flu id
unc an
14 2
ed i
Ġship ping
Ġair line
M atrix
ĠT aking
Ġhe m
A z
Ġut ter
Ġbas in
ic ia
w y
ĠA chie
28 0
ĠSD SS
Ġl ung
ĠTh anks
ĠN ATO
H o
ĠP icture
Ġstand ings
ĠAh med
ĠR ice
ĠG and
Ġcur riculum
bro ok
Ġh ang
Met adata
Ġrecommend ation
Ġag enda
Ġsurpr ised
Ġmetall ic
Ġinher it
M aster
T ake
ĠDes ert
pl ots
Ġaddress ing
Ġt enth
A I
a ude
Ġspecial ist
Ġgradu ation
bas is
ev olution
ĠI o
Ġcomplet eness
ĠG or
)) ^
Ġor n
item s
chi ef
ph ysical
Ġsp ell
En ter
Ġtest imony
Ġph osph
ĠBl u
ĠB rid
produ ced
Ġalter ed
Ġinvert ible
ĠOt to
ĠI O
f ac
V ir
18 46
ĠByz antine
ĠM is
elect ric
="../../ ../
Ġun anim
ĠCub an
ĠBey ond
Th ird
Ġbary on
ĠT all
Sh ould
Ġif f
ĠChar ter
Ġdecl aration
M eta
el ong
Ġhar ass
Ġmes on
Ġrefer endum
Ġcogn itive
vi o
Aut o
Ġn m
ene ath
Ġrel ates
Ġret riev
_{\ {
ĠJ ung
Ġadjust ed
Ġo mitted
im mer
g ender
Ġdiff e
ĠAp ost
Ã¶ r
ĠBaron et
26 0
g auge
ĠSalv ador
ĠSh op
aver age
ĠBo olean
Ġcler gy
Ġcontinu ation
Mart in
P erm
Ġin complete
ĠT yp
ĠWood s
ĠDist inguished
Ġarchitect ures
ĠB ody
ĠW orth
Ġimp ression
ĠRh odes
Ġsim ulate
the ore
B ay
arm ac
d k
d ra
ĠH ash
found ed
Ã© r
.\ ,\
ess a
ĠKn ights
ĠP RO
F ind
ast ics
Ġremember ed
.\ ]
ĠEcu ador
man uel
ĠAdvis ory
Ġle pton
ĠR achel
Ġdest ro
Ġsure ly
ĠI de
ĠP aint
In valid
[ ]{
Ġinsp ection
Ġinteg rable
Ġsl opes
N ever
tem p
ing en
ark er
ps y
ĠMal ay
)} ]
Ġpil ots
Ġdi et
Pr ivate
ang ered
Ġst er
Ġbatt alion
E nabled
ore n
Ġun ified
ĠC inema
ĠB ent
ĠJenn ifer
Ġrend ered
15 4
en able
ent ropy
ight ed
pat tern
ph ib
ĠConc ert
Ġ< =
ĠA u
Ġsp okes
block List
app endix
Ġannih ilation
est ing
Â ½
Ġdiagn osis
ĠGrand e
Sym fony
W he
ĠH ubble
ĠGl obe
ĠK or
leg al
s ix
Ġpregn ant
ic us
ĠF ly
ĠSt rong
}: \
Comm unes
Ġtick ets
Ġe ating
ĠAng els
Sim ilar
Ġsp ir
Ġgra phe
Ġjournal ism
stan bul
Ġquarter back
Ġgain ing
m icro
y u
clud ing
im m
Ġman ages
c x
i ph
Ġlo ans
ĠGen eva
Ġpoll ution
Ġan onymous
ĠShe ffield
ĠSe bast
Ġc f
Ġarchitect s
14 1
play ing
Ob serv
W ater
M u
W alk
Ġco at
Ġfrag ments
Ġhop ed
ĠDomin ican
ĠT error
M ath
Ġrenew ed
e i
Ġgra ins
ĠS ter
if iable
oc c
ĠB ears
ĠHamb urg
ĠRef s
Ġr uler
ĠV illa
ĠCamp us
Ġhon ored
Ġlab elled
B on
Ġmon astery
Ed itor
i ens
Ġcatal ogue
ab ol
Ġvers e
orthe astern
Ġev olve
ot ypes
18 5
C ustom
Î ¹
umber land
Ġfit ness
ĠP and
ĠInit ial
Ġadmin istered
rec ated
F oot
By te
m r
ĠUS S
um m
Ġalt itude
Ġselect ing
ĠSw an
Ġoscill ation
ĠBos nia
Ġexplain ing
symmet ry
Ġto m
Ġlik ed
20 8
ĠS ou
b eck
ĠC ome
ĠF at
S at
Ġextra ordinary
Ex amples
Ġcirc ulation
En vironment
Ġl iver
ĠG M
}\ |_{
-- \
Ġlik es
Ġb undles
ĠSe pt
ĠJul ia
Ġp sychiat
g ue
Ġe cosystem
Pro gram
Ġexp enses
ĠM IT
an ch
Ġdemand ed
a que
Ġview ing
Ġion ization
Ġsubgroup s
ĠC osm
Ġemp ire
15 6
ĠG ent
Ä Ļ
Ġ[ -
ĠN P
I reland
Ġcan al
ĠMc L
ĠPr int
B G
Ġd ictionary
Acc ount
Ġstud ios
oc o
Ġbound ing
Al gorithm
. ][]{
us ers
Col umb
ĠBre ak
Ġdoct rine
Ġload ing
im an
Ġab st
Ġprot ecting
Ã Ĺ
Ġd inner
ĠF oot
Ġpro sper
Ġsail ed
im edia
ĠH ir
ff bb
Ġren owned
Ġcheck ing
at ible
oc ene
Ġsl avery
v ir
Ġthin ks
; <
ĠPan ama
ĠH ass
Ġcor poration
Ġathlet ic
W ang
Ġcumul ative
ĠPark s
assum ption
Ġcollabor ated
W el
ĠD eg
ĠMer it
ĠH aus
Ġver ification
ĠS ett
ĠX X
Ġa est
er k
ĠO wen
A li
Ġk pc
Ġestim ating
Ġant ib
Disc ussion
Ġconsp iracy
ĠEn s
ĠOrig inally
ĠW inn
Ġdemon stration
99 99
Ġdefend ant
Ġen larg
ç ļ
ur rence
Ġbu ying
Ġcapt ures
ious ly
res olved
F red
f ollow
Ge org
weight ed
ĠDur ham
Ġbr ut
33 33
ĠC opyright
ynam ical
rg b
ĠGener ation
ĠStev ens
ater ials
ĠGr ass
od or
15 7
Ġst eal
Ġpat ches
Ġcontext s
ĠPunj ab
Ġth rew
_ ;
on so
un ivers
c apt
ad min
Ġsett le
Ġj s
Ġinf initely
ĠBr ussels
N ormal
Ġcho ir
Ġuniqu eness
b v
Ġt ut
ĠT D
Ġ( [
ĠPet e
ĠCommunic ation
un al
Ġh ills
ill on
ĠY emen
horiz ontal
p olit
New ton
Ġpl enty
W C
open hagen
Ġanten na
ĠA j
ĠL akes
ĠCom ment
grad ient
Ġc rops
ĠHe aven
en eg
20 5
Ġdis orders
Ġad i
Ġphil anth
Q U
US Y
Ã ½
Ġs a
Ġred und
ne ut
}= -\
R ugby
M Hz
Ġn g
Ġra pe
ol ence
Ġtext ure
ĠArch ived
ex amples
Ġenorm ous
Ġm il
ĠM ull
ist le
ĠGram my
ific ant
Ġprest igious
Ġconfer ences
Ar gs
ma jor
ext ension
ĠCath olics
Ġsophistic ated
ĠEd ge
ĠG y
ĠO w
Ġar ithmetic
t p
De lete
the o
ĠPar ad
ĠV ern
Ġanal ogue
Ġminim izing
ĠSch r
Ġsent iment
b ay
Ġcon vey
Ġan ger
m any
ĠC raw
Ġl augh
18 45
Ġkilomet ers
ĠYugoslav ia
ĠJul ian
]{ $
ĠAssoci ated
ĠPer th
ĠEll is
Ġconsult ant
Ġcompr ised
15 8
H aving
ĠGard ens
` ,
ourn ey
Ġte a
Ġdepart ed
Dan iel
ĠLithuan ia
Ġp ap
Ġres cal
@ {\
Ġag gressive
ĠCom edy
Ġinteg rity
i q
., ][]{
ĠEx amples
Ġemploy ers
utr ition
}) }{\
arch ive
Ù Ħ
Ġrev ival
ri ke
ĠO ber
ĠR ush
ĠK err
ĠH ost
15 3
Ġtriang les
b atch
dec l
Equ ation
ĠM umbai
ĠWild life
ov anni
L ag
ow ards
Ġback ward
ĠLegisl ature
Ġin ad
ĠP L
ĠWil helm
ho e
ĠN g
ĠS of
pro gram
Ġmet adata
Ġax es
ĠS ul
Ġfound ers
es ar
Ġf ame
ath a
R oot
Ġcor on
ĠC N
Ġ" [
rosc opy
Ar gent
r ise
Ġcul min
Ġst rang
ras er
ĠA ires
Ġavoid ed
ĠSask atchewan
Ġsequ ential
B rown
Ġcount ed
Ġd ying
bat im
Ġrevolution ary
ĠDec l
ĠEs sex
lev ard
L ear
18 37
ĠS ED
Ġinduct ed
Ġdissip ation
es ign
th us
Ġto uc
ĠA ub
Phys Rev
\ @
ĠW ant
. }}
ĠRe id
Ġ âĢĻ
H ouses
P red
t ons
Ġcomp lementary
^+ _
ĠLeg ion
ĠJama ica
Ġbl ank
ĠStock holm
Orig inal
Ġgrate ful
p it
D ebug
sh i
'' $
ĠHe ights
ĠB row
Ġrel atives
Ġfavor able
ĠF eder
Ġplace ment
Ġs ung
at omic
ĠCap itol
en i
Ġs iege
G H
f red
18 12
Ġdec oding
Ġcontact s
Ġh ub
Sec urity
3 30
@{ }}
sen al
C ert
Ġj oy
Ġret reat
Ġare na
Ġwavel engths
Ġb ills
ĠP rec
ĠEvent ually
P ref
Å Ļ
F ictional
Ġp ric
ĠWest minster
Ġfle e
l ive
ĠN ine
ounc ing
Ġpian ist
ch air
Ġterm inology
W rap
O wn
Ġdown stream
18 20
Ġv ow
d etail
Ġt ar
Ġdef ender
Ġcat hedral
Ġbe ars
H aw
R ect
ĠL or
)\ |_{
add y
Ġ& -
\% ,
. *
i ago
ĠF alse
Ġreb uild
Ġspread ing
C hen
Ġs id
Ġj son
ĠS cal
H uman
l it
Ġblock ed
ĠR andom
ari um
Writ ers
as ta
20 2
ĠSom erset
an z
Ġl ag
Ġres iding
Ġwalk ed
Ġcont raction
vent ions
el in
Ġcur ved
ĠV e
ĠRe ich
Ġrecip ients
Ġdisestabl ishments
d ependence
Ġnom inal
Transport ation
dec ay
ĠIn surance
Reg ion
Ġsurve illance
itect ure
ĠT OD
method s
P F
ĠPresident ial
H ouse
ĠC ort
ĠSol omon
Ġdom inate
Ġsp ite
ordin ates
Ġt ent
Ġhierarch ical
C ities
T ok
Ġnation wide
Ġpod cast
necess ary
}^{ *
ad joint
ĠDav ies
ĠK lein
{- .
Ġc avalry
Ġback ed
h on
er ie
rel ative
Ġgeneral ize
M arg
P ers
Ġon set
ĠBas ic
Pro b
bre ve
}), \
Ġpredict s
ĠJac ques
Ġt ram
Ġarchae ological
ex istence
Su ccess
ĠS V
Wind ows
M ock
Ġsuccess ion
C NN
ĠC over
Ġvalid ate
es a
erv ing
B road
ae us
" )]
Ġgraphe ne
Ġr ul
Ġk ernels
equival ent
Ġcl othes
ĠM TV
R o
Ġnation ally
c ock
Ï Ħ
ï ¿
Ġinter active
E r
Ġprevent ing
ĠCa uc
d etails
Ġlett ing
Ġf isher
00 3
Ġslow er
ĠFran z
ĠArch ae
period ic
Ġfix ing
emph is
intend ent
ĠF lem
Ġment ions
Ġbe er
ĠP owell
Bo olean
k el
Ġconstitu encies
ĠN uclear
ĠSecond ary
Ġinterp ol
Ġdesign ers
Ġsimilar ities
n ai
Ġn ut
ĠCard inal
Ġdiss olved
Th ough
ĠM ine
i ref
Ġrun time
em er
Ġdiscipl ine
Ã ¯
ĠBrook s
So ft
ĠBat man
Ġanisot ropy
h h
taint y
il ian
ĠG ren
ne ver
Ġf aint
f c
ĠD oll
ri ans
Ġveter ans
ar ians
ivid ually
R ender
ĠHol ocaust
oltz mann
G W
Ġc ant
D ialog
Ġl akes
18 44
set up
| }\
ĠP T
Ġmen u
Ġdemand ing
ĠR ules
S to
SI ON
Ġb ol
Ind ia
ry ing
ĠAbd ul
| $.
ĠS aw
Ġt ier
Ġver b
on ial
Ġrespons ibilities
) )}
ĠBrad ley
ĠU ntil
sp eaking
Ġphot ometry
Ġst olen
ĠAssoci ate
ĠSch warz
ic i
ari us
Ġinstit ute
es y
load ed
L uc
ĠMig uel
le ad
stit u
Ġcolon ies
ĠE R
Ġinf ected
et erm
ĠBl ake
ugg ing
at um
t oggle
16 6
, $$
L ower
ah ler
Ġcell ular
Ġgrad es
Ġseem ingly
ĠL iv
Ġstri kes
im pro
Ġdebut s
Ġneighborhood s
Ġind oor
Ġnumber ed
g age
Ġp icks
ĠS creen
Ġr am
15 9
18 39
ĠSus sex
atin um
w ild
Ġconst rain
Ġhard ly
Ġw orn
ĠGl ass
ĠL ar
ĠEx ped
A mb
ib a
p rom
od ia
Ġgovern ance
Ġhop ing
ĠA ges
and ro
Ġle x
ĠAd S
zy me
Ġk ings
Addition al
R ole
Ġh ind
he ll
Ġbar rel
v v
ĠPo etry
Pol y
Ġfra ctions
Ġfilter ing
Ġemploy ing
Ġperman ently
Ġam endment
D est
Ġnot ations
ĠC redit
}} -\
Ġo w
th read
ack ed
Ġenter prise
Ġimprison ed
ĠAr ctic
U B
ĠAn im
Ġl ob
ers en
ĠR ather
Ġsport ing
ĠMoroc co
Ġdist ortion
ĠFig ures
ĠR ol
Ġoff ense
Ġh alt
anc ers
' +
Ġ" "
Ob j
ĠI v
ĠD raw
A rea
ĠCol in
Ġh urt
Pl ayer
Ġanalog y
Ġa uth
Ġrele vance
Ġt rem
Sup port
ĠF ul
Ġpre t
ĠClass ical
ath i
Ġincre ment
exp on
ĠRiemann ian
Ġex ports
ĠA ur
ĠVis ual
int rodu
Ġspect roscopic
ĠF O
Ġtra ff
ĠEx hibition
ĠB od
ĠN u
Ġhom osex
Ġz eros
Ġle ak
th ood
ou ter
eg an
ĠTy ler
Reg ular
out ing
15 1
ĠC ann
24 5
Ġreson ances
Ġrock et
ĠOr lando
ĠC ustom
Al tern
Ġd ancing
Ġrem ix
ĠGu atem
aren cy
ĠMan ila
Ġpolar ized
ĠGe off
ed o
Ġcan on
to ol
G rid
le z
ĠP ink
ĠCurrent ly
aw i
iff e
ĠL ak
rot ate
ĠMarc us
Sy mbol
ĠInit ially
}$ \\
sl o
Ġpit ched
Ġiter ative
Ġspat ially
s r
Ġrecru ited
Ġmidfield er
Ġs its
ĠVol unte
ĠMan it
b ootstrap
ract ing
Î ½
Ġy ard
Public ations
). \
an ian
ĠN as
Ġdes irable
contin uous
ĠK umar
çļ Ħ
ĠH alf
Ġevent ual
S Y
m us
any on
Ġde alt
Ġpresc ribed
ĠP or
ag onal
tx t
Ġperform ers
ĠV at
Ġcomm enced
ant om
Ġcirc uits
Ġcomb ines
F s
Ġs or
Ġjust ified
ĠS weet
ĠTas man
Ġv in
You ng
at to
ed ges
eg ovina
pl ugins
ct uary
l attice
Ġw ond
emb ourg
ĠIll ust
tr igger
Ġtend ency
Ġdiscrep ancy
F ac
he ng
ther mal
ï¿ ½
sm ith
ibl ings
ĠD esc
Ġem itted
ĠESP N
oun s
Ġexcept ions
ĠA part
ĠEXP ECT
Ġins u
Ag ain
: [
1 200
h idden
ĠNe umann
ĠIndian apolis
Ġen force
un ov
F K
ĠArm strong
h adoop
}: =\
v b
y ang
B rien
dot ted
kins on
ĠT ampa
Ġlist ings
Ġflex ibility
ĠCon v
Ġreason ably
Ġgen uine
Ġanaly zing
P arser
Ġb ell
Ġprison er
b ol
ĠTr uth
Ġrefere e
k ers
} "
ĠNott ingham
ĠR aid
rest rial
ĠRefer ence
Ġref ined
al most
Ġpurs ued
ubb ard
Ġstat istic
ĠEm ily
Ġmac ro
Ġmus cle
Ġsymbol ic
b log
ĠDo es
M il
Ġcor ps
arri or
Ġdram atically
Ġde form
Ġsomew here
Ġb acteria
Ġup set
Ġresum ed
ĠCol lect
Ġbr illiant
Ġm ouse
Ġterm inus
Ġpropag ator
Ġsal ary
Ġrel iability
ĠSh in
Ġident ifies
s z
Ġcasual ties
Ã© g
ĠD ise
Sche dule
sc apes
ĠSm art
Ġneighbour ing
ĠB ec
Ġqual ification
ĠK rish
Ġj ack
Ġemb od
proto buf
Ġlegend ary
Ġp ounds
oy le
T i
ĠMet al
ĠPak istani
ĠSpe aker
ĠSe lect
Ġreson ant
and ed
ĠBer ry
c ert
ins ki
Ġimprison ment
Ġdial ect
ad ier
Ġche ss
un ches
Ġtrav elling
T y
ĠUr ugu
pt ical
eyn man
ĠProgram me
f x
Ġemer ge
Pol ish
Ġnick name
mathb in
Ġw age
Ġindic ation
Ġathlet ics
ĠD as
enn ium
% ),
Ġab olished
Ġw ishes
Ġas h
ĠG C
ĠCh ase
ĠH arm
c orn
ĠBi ography
Ġgl ac
Ġlimit ation
w ere
ĠBu enos
Ġ$ ^
ĠViet namese
L ow
Ġgu ided
App endix
op a
iz on
em ption
part icular
Ġactiv ated
Ġviol ated
Ġbenef icial
ip se
Ġphilos opher
o fficial
ĠM ail
Ġpra ise
Ġt aste
Ġimportant ly
' }{
w ald
Ch apter
sche me
ĠJohann es
Ġm ature
ĠL ik
23 5
ĠAb b
K h
ash ire
Ġwal let
g p
Ġd rain
Ġgu itars
ÅĤ aw
ĠC openhagen
Ġrect angular
Ch ief
ĠO st
or ic
man ager
ĠSu ccess
ac er
Ġacknowled ges
I mm
O H
Ġacadem y
ĠAn a
ĠM N
Ġshould er
Ġpack ages
18 38
charg ed
AN T
v ary
ged y
V i
ĠV a
Ġtransport ed
Ġsh ar
Ġdevelop s
L iber
Pro file
ĠBudd h
Ġpar a
Ar thur
Ġbur den
Ġp ub
Ġun e
air y
Ġle ver
ĠArm enia
20 4
leg ate
Ġsimultane ous
Ġen umer
Ph ot
ĠEv angel
Ġaddition ally
st eps
ap ur
Ġp unk
ĠM R
ke V
C opy
am as
Ġisol ation
Ġaffili ate
ĠHur ricane
H op
p al
Ġw ore
sp ot
U SE
ĠD j
ĠTrans it
n om
Ġte eth
R en
Ġwid ow
t f
}{ .
18 41
^+ (
ĠTan z
Ġmaxim ize
Ġdis appeared
Ġadv isor
Spec ies
ĠInit iative
ĠF inals
s ave
ij a
ĠSt op
pd ated
Ġas ymmetric
ĠO rt
Ġprob abilistic
Ġincorpor ating
Ġreleg ated
Ġche st
ST AT
oper ation
* {\
16 7
ĠProv incial
che l
ep per
Ġfavour ite
n il
Ġdraw ings
l os
Ġpurs uit
ĠCon st
th row
Ġinstitution al
ĠR ib
| ,
Ġvict ories
sc roll
pt s
Ġwork shop
Ġlift ed
Ġnom inee
ĠB order
ĠRichard son
Ġcust ody
Im port
Ġ' /
att ribute
ĠH R
Ġelim ination
t v
Ġ à¤
Ġm ad
Ġtow ers
Ġep ic
trans fer
L u
ĠDev on
ĠAddition al
; /
Ġb if
ĠLead ership
m agnetic
Ġmer c
ĠInd ies
ĠSh i
ĠKenn eth
im uth
col m
ĠMaur ice
ĠShort ly
Ġpuls es
A BC
Ġtem ples
Ġingred ients
omet own
ĠEm ma
ol ith
Ġmagnet ization
Ġinsert ed
load ing
Ġdo i
ĠZ imbabwe
ĠÐ ²
Ġan ch
Ġwitness es
ret ch
Un incorporated
Ġreflect ing
ĠP O
Ġ\ %
ec a
ĠAndrew s
Ġhe ll
ern er
ĠLore n
ad ows
ĠL ip
S ol
H K
ĠIm port
en es
ic iary
Que ue
ĠO m
Ed ge
uis ine
Ġpres idency
ĠTw enty
ĠRel igion
ĠSh ould
yl an
ĠRail ways
do es
other wise
ĠSher iff
ĠN urs
al p
ĠD ifferent
iling ual
Ġflo ating
Ġinv ented
ĠInnov ation
Ġdifferent iable
ĠYank ees
Ġbe aring
Ġconc urrent
5 50
ĠTreas ury
cer to
Ġh tml
Ġgu ards
S ample
P resent
P a
Ġwild life
Ġnot ions
n ut
Swed ish
ob tained
ĠBr as
ĠPop ular
W ood
10 24
ĠSim pson
A mer
abul ary
X Y
Ġaccording ly
tab s
Ġp ension
Ġdam ages
ĠAll an
Ġmist ake
appro p
ĠH aven
ex ternal
Ġprior i
clud e
P ut
ĠZ ion
us a
t c
in ks
mark et
ĠT itle
Ġcollaps ed
vert ical
Ġwarn ed
Ġpre vention
å ı
ĠM W
ĠO ption
byter ian
Ġapproach ing
Ġe leg
S om
ĠCor p
Ġelabor ate
Ġbroadcast s
ĠS qu
ĠS ym
cess ion
ĠFif th
ĠBa iley
v ity
sub ject
Ġtechn ological
ĠAh mad
=\ ,
Ġleg ally
ĠMathemat ics
g rand
6 50
ĠS ig
run ning
Ġb arriers
Ġinter ven
M ountain
Ø ±
Ġcont ours
Ġvot er
Ġsp anned
j ack
let te
Ġnob le
ĠEmm y
s it
Ġbre eding
D s
ut able
ĠL if
/ >
Ġd ish
Ġun incorporated
Ġsatell ites
Ġdiam ond
b rane
ĠBry an
Ġmark ing
Tax onomy
G od
O s
cl ock
ĠS FR
un ting
Ġrele asing
ah a
n ucle
sing ular
ĠG ospel
Ġwe igh
ĠPrinc ipal
Ġcomed ian
Ġsp acing
Ġbeat en
H ard
pe z
vers al
Mod ern
ĠE RA
P rom
y i
FA ULT
in ians
Ġfib ers
22 4
Ġemer gence
ĠHend erson
18 43
C art
Ġpr ince
ĠAppe als
T aking
Pr int
D u
Rem ark
Ġ Ñģ
approxim ation
prop ag
18 35
Ġdamp ing
sup ers
Ġd ressed
ĠEd mund
ĠTh an
ed e
Ġtens ors
ĠC ay
scal ar
dimens ion
Ġlif estyle
Leg acy
Ġprec ip
Ġtheat rical
ev o
ĠInt roduction
E U
Ġrevers ed
ot yp
Ġconvent ions
Ġcap ita
re ason
cont rolled
mark s
}}{ {\
Ġcor ollary
J er
Ġdream s
Ġeng aging
Ġtreat ments
Ġencourag ing
ĠD oc
Ġoptim ize
ĠK arn
Ġkit chen
s ided
inc ar
ĠLet ters
Å Ľ
ĠC ell
ed itor
ĠG auss
Ġsu ite
E nergy
ĠNetwork s
Ġassert Equals
ott i
AM P
or ers
ĠDivis iÃ³n
per ture
16 9
Ġtrans ient
ĠKazakh stan
Ġcommun ist
pr inc
Ġmain land
ĠRoll ing
' _{\
l p
ĠEnter prise
ĠEp isode
Ġsan ctions
c pp
che z
16 3
Ġdesign ing
Ġemp ower
S ar
ĠHerz egovina
ĠGu ards
De ep
m itting
Ġax ial
Ġassemb led
L AS
m ind
Ġrom ance
Ġv ig
ĠK ids
B it
un ate
Ġn ights
Ġliter acy
Ġcombinator ial
Ġpass ive
Ġnever theless
Ġrob ots
Dev ice
ess ing
Ġtrunc ated
vanish ing
IN D
rel ativistic
ĠAl pha
Ġed it
gener ation
Ġtheorem s
= |
ram id
Ġaut obi
K er
em on
Ġarg uing
k ip
Ġdes k
inst all
Ġpredict ive
oc cup
Ġapp end
aj i
23 4
He art
Ġdiff use
ĠIm pro
ere k
Ġp ink
ĠWrit ers
Ġtri ps
ĠSh ield
}\ |\
Ġsepar able
Ġch ore
ĠM ead
z ens
Ġext inct
16 4
Ġadminist rator
E t
ogene ity
ĠPop ulation
ĠC yr
Ġqu ote
Ġpe ers
k al
Ġb le
ĠZ h
sq l
}$ };
Ġ[ [
^* $.
all a
Ġd ir
ĠGer ald
ĠM old
ĠF an
Ġconduct ivity
Ġque en
f eed
ĠBar ack
Ġvocal ist
ĠLuther an
ĠN intendo
ĠV ers
}) \\
it ary
ig ue
Ġam id
Ġprocess or
Ġb icy
re lease
Rep ublican
ra pe
Ġso ap
Ġcre ator
ĠDisc overy
Ġinterview ed
Ġadv ised
Ġp iv
Ġc ouncill
Ġcomfort able
Ġmin us
Con struction
Ġcapt uring
ĠH ousing
! }
Ġcongress ional
ĠG Ã¶
ĠJ unction
St ructure
ĠNiger ian
ĠAmer icas
ter bury
rest rict
In ternal
ĠSant iago
ĠCh oice
ĠAcadem ic
ĠDou g
ĠC lear
se lection
ĠIs le
Ġgal actic
R oad
ole v
Ġfre ed
Ġacceler ated
g ins
ĠD in
E ducational
Ġoverwhel ming
var iance
/ {\
}^ -
Ġdoll ar
ateg y
Ġp ending
ĠS EC
_{ *
ĠG Hz
Ġdiscuss es
orig in
18 32
ĠPhys ical
,\,\ ,\,\
at ta
18 36
ps frag
} --\
as ive
Polit ics
Ġbe ings
T a
ĠK urt
Ġline up
H ot
IG HT
ĠG othic
op ened
Ġwork shops
ĠB anks
, ...
Ch icago
z el
ĠT ru
iv ially
Dem ocratic
3 75
Al g
Ġener get
ĠT iger
Ġse ized
_+ $
ĠEll i
Ġdiagn osed
ĠCh ad
Ġast roph
Ġex empl
Ġcon qu
Ġprohib ited
Ġhum or
l um
ĠCre ative
Ġconc aten
ĠM iles
n odes
or ate
Ġsubstr ate
ĠLou ise
ĠM atch
ĠRe agan
Int eg
t bl
Ġaccount ed
Ġvirt ue
Ġautom ated
Ġra bb
ar is
W N
Ġv it
Ġanaly tically
ag ent
c as
Ġre ass
ĠM ang
re pe
id ation
Ġdec oupl
Ġinsu fficient
Ġkn ee
m g
et ter
20 3
ĠCons ult
C G
m ons
ĠA G
Ġint ra
Ġlin king
J on
p ent
Ġsub stitution
Ġsur jective
ad j
Ġtrigger ed
ing o
Ġconv iction
Ġpush ing
ĠSup p
Ġprem ises
Ġ ],
Ġdies el
Ġvi able
ĠPublic ations
act ers
Ġnephe w
L es
Ġmyster ious
ĠOther s
Ġquad rup
B egin
Ġf unny
ĠM ob
ide al
ĠF olk
ĠR overs
ĠV il
Ġstrugg ling
Ġsupers ymmetric
at ile
Ġexclud e
Ġan satz
ĠHe in
Ġdet erior
ĠCurt is
ĠJer emy
ash ing
ĠSp ider
I sl
27 3
Ġoppos ing
ur c
C red
n st
á ¸
ab is
the m
ĠJ up
Ġpropag anda
Ġm ath
app ly
h istory
{ }\
ap a
que ue
r ar
ĠInter ior
d h
ĠA ri
Ġcorpor ations
Ġunderta ken
ĠW arriors
n othing
g ard
Ġmot if
|\ ,
ĠV ery
Ġless er
Ġroll ing
ĠP it
ĠGl ou
Ġanticip ated
ĠL ok
Ph one
16 2
Ġoutperform s
over view
om position
ĠSac ram
am oto
ĠH od
Ġlater al
Ġdes per
Ġoscill ator
$ ]
script ions
pred ict
B ra
Ġhypothes es
ĠBened ict
æ ľ
Ġpec uli
Ġdel ays
ath olic
Ġfore ver
ĠA U
ĠHe at
Ġtre ating
Ġm uon
r ors
Ġsumm ation
Ġsac red
-\ !
ĠT E
with in
ĠD uncan
ĠD ob
)\ ;
w ould
ĠDir ichlet
col our
ĠRobert son
ĠR ut
Ġevery day
Ġw is
ĠB elf
ĠEthiop ia
m ology
Ġthe ology
Ġdisc ount
rac es
Ġdom inates
hard t
Ġconcent rations
uns igned
ĠForm ation
atter y
ĠBan ach
ĠE ye
Ġadm ission
A K
Ġsc ar
reg ister
Ġpregn ancy
Ġsome how
Ġem otions
o que
ĠO N
pl atform
_* (
mont on
D etails
Ġflood ing
ch oice
Ġp ion
ĠSum mit
ĠLind a
As ian
X ml
er i
ĠQu art
L I
ĠBir th
Ġprof its
pos ite
Polit icians
ĠP orter
Ġmet als
Ch anged
ĠHind i
With out
ch anging
Ġnon negative
Ġtre as
S ound
og o
Ġf ires
Dis play
associ ated
18 42
Ġparticip ant
et e
coupl ing
ĠSt ream
R ank
ĠD escription
ĠPl ate
Ġsem antics
Log ger
ĠFran c
Ġv ib
Ġam end
Ġfarm s
ric ia
Ġpo inter
Ġdepos its
habilit ation
ov i
V ec
pass word
ĠCoal ition
Ġep it
ĠHe ath
Ġreb els
check mark
ĠLet ter
Ġg amb
Ġpl ural
ĠW rite
ĠMc Donald
ĠBou levard
Ġ} _{
Ġre he
pre ced
av ian
Ġto kens
Ġmorph ology
Ġ Ã©
inf all
Ġplanet ary
ĠL t
Ġres olutions
ĠW ool
prot ected
ĠP om
ĠH E
Ġob s
Ġsup erm
L os
un ion
] +
Ġr ic
Ġpar abolic
Ġs addle
observ ed
E s
Ġw ound
ĠS ons
online cite
inter action
D epend
ĠI sh
ĠLand au
ĠGib bs
Ġmod ulus
Ġkn ot
ĠSh adow
Ġhom eless
Ġr iders
s ed
f re
Ġbox ing
Ġf ru
Ġfluct uation
rid or
as ympt
Ġprop ri
Ġb otan
Sc ope
Ġm all
ros se
ĠCorn wall
Ġsur pass
ĠC SS
conver gence
f lex
Ġind ividually
' ^
os itory
ĠInd igenous
Ġimp ressed
ĠPubl ished
Ġl ip
Ġhas n
Ġgrand son
Ġin clusive
pl aced
Ġserv ers
Ġestim ators
fore ach
Ġflow er
stit utes
ĠKing ston
Ġb eneath
Ġhal os
{ #
Ġra id
The ir
Ġl attices
Ġmur ders
Ġnovel ists
Ġrenew able
isen berg
16 00
ĠSc ript
Ġs ew
AR E
Ġcr ashed
fam ilies
ĠAb original
ĠExped ition
le ys
ic ates
ĠH ess
In formation
Ġform ats
Ġc ock
ĠGib son
Ġaer ial
ig ator
st ars
ĠH off
rad io
und efined
ne apolis
ĠW id
ĠGra duate
In c
^* $,
ett es
)}\ \
ag ain
) ]{
st re
Ġbin aries
ip eline
le en
pl oys
ĠCel tic
ch in
ĠK aren
ĠCzech oslov
establ ished
Ġthe or
Sim ple
p seud
Ġfl ank
Ġch ip
$\ ,$
ur red
Ġyield ing
Ġfre ight
{ "
ĠLanc ashire
Ġprof ound
ĠFrank furt
ĠLyn n
om ers
ĠMal ta
, âĢĻ
l vert
pol icy
Ġbankrupt cy
ric a
ild a
CL A
= &
Q CD
Cl ose
Ġmidfield ers
er cis
Ġexpon ents
as se
f u
ĠV III
Ġadi abatic
00 4
ĠC ord
ĠV ision
big cap
n or
Ġap par
;\;\ ;\;\
ian e
Ġr idge
Ġe lem
Ġhand ler
ĠInsp ector
( .
din and
Ġlo ose
Ġpl aus
ess es
ien ne
ced ure
clip se
Ġr ises
d ia
Ġimm une
Ġkinem atic
ĠC e
ĠW ick
ĠC anyon
Ġdub bed
be at
que z
ĠC rist
Ġquant ify
utt le
Ġ( +
Ġb apt
ĠN HS
N AS
ho ff
Desc riptor
c ourse
Ġcarri ers
M G
ed uc
Ġinvest ed
Sp ect
Fl ags
ĠDr ug
Ġsaf ely
P ak
Ġto y
ĠN ormal
dis k
Ġtransmit ter
Ġl oud
Ġinter faces
An alysis
om ical
Ġb ats
sh all
Ġsw ing
ess ages
Ġaccompany ing
N I
v ation
is le
Ġtr ig
Ġre written
ĠP irates
ĠGl enn
communic ations
S QL
Ġb er
ĠAp plication
exp ansion
Ġr amp
De velopment
F ellow
Ġavoid ing
Ġs ubl
ĠZ ag
mod ern
cle an
j ee
ĠC V
} ''
), $
col lection
N orthern
ĠT ales
Ġfore ground
Ð° Ð½
Ġl un
17 8
j j
Ġlect ures
Ġb esides
Ġpass word
Ġfail ures
C lim
Ġlock ed
ab ases
ov al
Ġlast ing
Ġs iblings
ĠIn side
perform ance
Ġprompt ed
k ernel
Ġfe ud
Ġamb ient
Ġm ere
Ġman s
ĠFl ag
H u
IS E
Ġtoler ance
u ating
Ï ģ
Ġlov es
ĠExcell ence
Ġco ached
Ġwithdraw al
ĠNet flix
abet es
Ġ\ ,\,
st en
. }.
Ġsing let
ĠPl us
ĠWhe ther
n ational
ir cl
Ġbrig ade
Ġfermion ic
ĠZ ar
Ġsuggest ions
ĠTr in
0 10
Ġkill er
ĠA way
r ational
ĠB urns
ĠW end
Ġdrop ping
whe el
Ġb ug
exp ression
Ġret iring
J ean
[ :
ipl inary
ĠS hen
Ġround ed
Ġvis ibility
ĠI stanbul
W F
Ġmicrosc opic
\ `
Ġdis ability
Ġafter math
ĠAl bums
Att ributes
16 1
ho f
less ly
ris k
Ġconcept ual
Ġtor ped
Ġpolit ically
coll apse
ĠD ale
em i
ĠC B
Ġap pl
Ġtri o
Ġkill s
/ {
ce ive
Pan el
re ma
Ġe uro
ap os
ĠInvest ment
ĠBarn es
Ġaltern ating
Ġw eren
ĠAdvent ures
Ġbur ial
ĠSl av
2 12
O PT
og on
omorphism s
ĠT ennis
ĠK om
ĠSh ore
ĠDev il
S mall
Ġsav ings
Ġr ifle
ĠF emale
ĠCh uck
list ing
Ġevery body
Stand ard
n is
Â »
Ġbad ly
ĠSw ift
)\, ,
^ -\
ir ie
Ġimp lying
F uture
st roke
power ed
_* $
ut z
27 5
l ane
oy a
Ġsubt le
Ġt ags
ĠManit oba
at io
Ġb rackets
Ġdis advant
17 4
Ġinter im
ĠPro gress
ĠWy oming
r ina
wh ose
Ġtouchdown s
emb les
Ab stract
V an
Ġat tained
{ -\
Ġ= &
ĠFilip ino
Ġdisband ed
Ġd ancer
ĠC i
Ġref inement
__ (
Ġre bounds
Ġby pass
ĠPer iod
Ġcomplaint s
Ġsup rem
Ġrel uct
Ġ$( {\
element s
M arc
Ġsat uration
comb ination
Ġloc us
Ġhon ey
to ols
tikz cd
Ġparad igm
amm ad
ĠM B
ag le
Method s
ay ette
Ñ ħ
ĠPl aza
l ap
dist rict
Ġrend ering
Ġany more
) }^{
ĠB oeing
ĠCh in
"> &
ĠN otes
p icker
Ġthir teen
ĠW aters
ĠCar roll
ĠPy thon
Brazil ian
il ion
zh ang
s chool
ĠDef ault
ĠMem ory
Ġsem igroup
min imum
Ġm sg
Ġst uck
Const raint
fra id
m aps
ĠP orts
Ġal pha
Ġresp ected
Ġm eth
ant o
op hers
CD M
Ġbreak down
Ġnam ing
Ġvo iced
F ace
ell ation
ĠM ale
Ġcont amination
Ġcryst all
Ġsupers ymmetry
S G
ĠEp iscopal
17 6
EX T
Ġexceed s
ĠA ch
rac ed
âĢĿ )
N atural
Ġsur render
Ġmer gers
P lease
Ġreb ellion
8 50
ar re
it Ã©
Ġopen ly
ĠRic ci
ut ing
ĠAn aly
ig nt
F iles
V ictor
Ġaw ait
Ġoccas ional
ar v
Ġreg ards
N i
im ath
c C
Ġtrib al
Ġgrand mother
Ġenc ode
G overn
ĠB ran
Ġfin ancing
Ġb oot
ĠR O
\% .
d ad
Ġc rossover
est e
ĠR ican
ĠĠĠĠĠĠĠĠĠĠĠĠĠĠĠĠ ĠĠĠĠĠĠĠĠĠĠĠĠĠĠ
Ġcare ers
ĠD B
io x
ĠCom ments
sq cup
ĠCarol ine
A bs
M ENT
ĠPan el
ĠMethod s
Ġwitness ed
Ġsculpt ures
Ġpro c
ĠInd ividual
Ġhot els
ä º
ĠContin ental
ort ex
Ġsc rap
Ġfin anc
Ġal umin
Ġhold er
Ch ris
AD D
ĠEv olution
R h
pro ps
ĠPlay Station
Sc ience
ĠDem ocracy
ĠMe eting
Ġf ung
ĠB ever
Ġpriv ately
ograph ies
ĠFern ando
Ġelder ly
Ġcomm ittees
ĠMar ri
s b
Ġcal ib
ĠM ink
20 9
ĠMar l
Ġaugment ed
cont roller
over rightarrow
ĠCl aud
Ġstrugg led
ĠR L
Ġend point
sup ported
Ġmer ging
ess ment
Ġhelic opter
ig i
r vert
Ġn od
l ore
ĠL enn
ys on
Ġaccept ing
ine q
Ġco ordination
am az
vis ible
Ġpresc ription
Ġfurn iture
abl o
ount ers
t u
Ġun cover
}\ {
f orth
Ġhuman itarian
ĠM emphis
Time out
ring e
}=\ {
Ġ ul
pm od
RE AD
ĠPsych ology
c in
Ġm arri
ĠG rad
Ġshort est
F il
Ġperform er
> "
is ers
ĠC av
Ġt uple
Ġincl ination
be am
ou p
Ġint rig
ox y
C ost
Ġin ches
Ġdisc overs
we ets
ĠRec on
18 4
ident ified
ĠCh ancellor
3 65
ET H
Ġsculpt or
Ġspace craft
ĠÃ ĸ
dor ff
ĠK ind
Ġincred ible
Ġbipart ite
Ġconvers ations
ĠEston ia
KE Y
n ick
Ġshe af
ĠT ir
ar ag
Ġstep ped
rit z
ct rine
ow itz
Ġ" /
nd ez
sh adow
Ġh o
Ġmultiplic ative
Ġjust ify
Ġfound ations
b ons
ĠRec ently
Ġnucle on
S elf
triang leq
18 34
ĠMc N
ĠG ov
op us
Ġphysic ians
h urst
ĠH i
ĠBur ke
Ġeduc ator
Ġunem ployment
ĠW ol
Ġflo ors
Ġst ones
ĠK re
ĠSh ir
Cal ifornia
Ġsu ited
L en
^{- (
Ġd ra
osp ace
Ġbul let
ĠEmer gency
Ġbos onic
EC K
Ġdegener acy
ĠP ars
22 2
ĠPal m
ĠB E
Ġte ch
Ġsqu ee
Ġh ometown
im i
x s
ĠR T
ĠP iano
30 4
dat aset
Ġim posing
ĠM otion
ool s
Vert ex
Ġex ile
rab ility
@ "
ĠPot ter
ogen ic
ĠK ab
Ġunder went
ĠN ode
ack er
17 2
commut ative
ĠGP U
J ava
d ou
ĠC os
Ġdon ations
ĠNad u
Ġany way
Ġcontract ed
Cl uster
c amp
ĠF antasy
act ivity
Ġconscious ness
ĠF actory
Ġle ase
ĠMar in
Ġtra iler
Pat tern
Y our
Ġcat aly
ĠAchie vement
] ,\
F G
ĠU tt
b h
Ġstat istically
cond itions
\ ).
ma ch
33 3
Ġun ited
ĠMor rison
ĠCont est
Ġsc roll
Ġtrac ed
ĠBel le
K P
call back
Ġtribut ary
. \,
Ġutil izing
Art icles
Ġfeed ing
P ier
ur an
eg ie
Load er
| ^{\
ĠL odge
K B
Ġcle ared
Ġmanuscript s
Ġen zyme
an mar
Ġfunction ality
It ems
Ġw are
scal ing
JS ON
ts d
. <
)$ :
Ġcosm ology
Ġfilter ed
Ġdis par
Ġprot agonist
Ġdisput es
Ġcongreg ation
Ġsim plicial
Ġmyth ology
Ġstay ing
add r
ĠN ixon
Ġpup ils
Ð ±
^* )
ĠS ometimes
Ġmonot one
| <
ĠImp act
Ġfar mer
ĠTre k
am ous
ĠAp ache
she et
Mean while
drop down
Ġcha otic
Ġpro ps
raph ic
Ġsched uling
Ġcon figure
Ġmin eral
Ġquestion ed
Ap pro
17 9
ly mouth
Ind ividual
Ġtour ists
ĠC rystal
ĠHead quarters
Serv ices
x t
ĠCr us
stad t
ĠBelg rade
ercis es
C irc
Ġdo zens
Ġspl its
3 40
Ġdiplom at
ĠK iss
perturb ative
Ġc ube
Ġdiscontin ued
C ulture
Ġe gg
18 15
amp ire
Ġl ady
asc ular
Ġbare ly
assert Equals
Ġc otton
Ġinv ention
ĠR egin
sh own
const ruction
Ġn ose
ad al
ĠG O
ĠN othing
bal ance
ĠM uk
St an
ĠSt rat
ĠD ow
ĠG ross
Ġcha os
enz ie
Ġup grade
Ġparamet ric
Ġprom ises
Base ball
n at
on ormal
ĠB un
ta king
\ ;\
Rec ent
ĠLib ya
Ġen v
ĠEv ents
ĠHard y
Ġc ro
ĠB CE
Ġstre ak
in ites
ĠT rent
ĠS ales
ĠCom bat
alk eeper
$ _\
d B
99 9
Ġstrugg les
Ġal arm
SI ZE
ra ising
Ġsens ing
Ġjav ax
T yp
Ġspect roscopy
ĠI SO
ott ing
ĠLyn ch
Pr inc
Ġ{ (
er als
Ġj umps
}{ (\
Rec ently
Ġreve aling
ĠF uk
ĠW ak
Ġserv ant
ĠL it
ĠElli ott
Ġemphas ized
T rad
Ġimport ed
ĠG rim
Ġcollabor ative
C itations
=" ">
ĠPer haps
3 25
g ary
ĠD um
ov ic
Ġl iability
u ons
Ġreport ers
Element s
Ġm ood
ĠMod els
Ġb out
ĠIn g
G rad
ev ille
oc ide
ĠSand ers
ar am
Ġwid ths
Ex pr
Ġsix teen
20 6
ĠV AL
ant le
oura ble
I l
Ġlocomot ive
Ġreven ge
ĠG em
)= -
ĠR C
Ġnurs ing
v iv
ĠGeorg ian
Ġmand atory
ĠDub ai
Tra ce
ĠC risis
Ġansw ered
Ġpre y
Ġshe ep
Ġenc ounters
With in
I ran
Ġp ipe
Ġadvoc acy
M apping
Ġrig orous
Ġhe ir
hen ce
Ġp c
ĠA A
ĠResp onse
ĠJohn s
ĠCh al
Ġgen res
Ġrelax ed
ian i
ĠWe ather
as aki
ĠMos es
Ġg ods
Ġpur ple
ĠLes lie
Ġvacc ine
Ġlux ury
ĠChel sea
Ġa perture
p ull
ĠZ ero
ĠGu ang
Ġang ry
Ġess ays
object s
Ġterrit orial
ĠD P
Ġst aged
Ġpast or
av g
a ine
Ġhad ronic
quarter ed
es ch
Ġjud g
Ġtact ics
ast ed
Ġch orus
Ġplate au
type of
Ġanisot ropic
ĠB ound
ben ius
ong o
Ġd ign
ibr ations
ĠLe vi
ol er
ĠK end
ĠDe velop
L ayer
um en
es se
ĠIn ternal
ĠMy anmar
Line ar
) }}{
ort ium
rac ing
Ġclass room
ateg or
Ġinstance of
Ġman ually
Ġ' '
Ġfour teen
Ġdiv iding
Ġple asure
17 75
ĠRe lease
Ġtarget ing
Ġrank ings
)} -
Ġcou rage
ĠBrown ian
d yn
Ġval uation
err ors
he y
ĠLux embourg
Ġsw ord
Ġst iff
Ġprosec ution
Ġexp end
hold s
Pack age
Cle arly
ĠH ood
ug a
iel sen
ĠWag ner
ier i
s ocial
ĉ ĠĠĠĠĠ
ĠM essage
Ġpar as
Ġshell s
ES CO
alo is
P ublished
ĠSur rey
ĠCommer cial
Ġacc us
if les
j query
m k
ĠS isters
And rew
Bas ic
Ġde fer
ract ive
g ang
A gent
ĠG A
Ġstat ute
Ġconcent rate
å ¤
Al t
u id
==== ==
ĠE t
Ġac claimed
col span
yl um
Ġo wing
IM P
ĠLiber ation
ĠBas in
P ress
ins k
en ario
Ġrep ly
Ġweak ness
A h
ĠRoche ster
i ating
A sh
Stat ement
ï »
ĠO P
}) ]
ĠF o
)^{ -\
ĠR ac
Ġle verage
Ġgra ce
Ġoblig ations
N amed
Ġsur f
struct or
> :
A st
17 3
at able
Ġdeleg ate
orm s
rop olis
head ed
ĠLaw s
Acknowledg ements
ĠCon fig
_* \
ĠEngine er
ĠO slo
Ġr ivals
ef ully
ĠWind sor
icon duct
y on
ing ers
ew ard
ĠPubl ishers
Ġb rane
ĠEu rop
Ġsk ip
Ġcondens ate
Ã¨ s
Ġrac ism
ĠGu itar
ĠEug ene
p ole
Bel g
if ax
ĠV id
Ġlect ure
Ġattack er
ĠDep ression
Ġminim ization
ignt y
Athlet es
ĠHigh land
Ġar cs
vi Äĩ
U pon
t abl
Ġra infall
Ġcondem ned
v r
Ġund ers
ĠSol id
m ile
ĠCour se
Ġpack ets
w itz
ĠWes ley
IT E
Ġconst ructions
Ġhousehold er
ĠJo el
ĠL eop
)} +
ĠS par
ĠVat ican
Ġin quiry
ĠC ategory
Ġund erm
Ġtal ented
Ġfemin ist
ot ers
ĠĠĠĠĠĠĠĠĠĠĠĠĠĠĠĠĠĠĠĠĠĠĠĠĠĠĠĠĠĠĠĠ ĠĠĠĠĠĠĠĠĠĠĠ
17 7
andid ates
Ġrap per
ne um
j in
Ġap olog
con tact
c yl
Ġs ulf
ĠBl air
R am
ĠR iv
ĠY an
Ġ ...,
ud ed
Ġelectron ics
os ity
Ġdemonstr ating
Ġdisput ed
ĠCan terbury
U ID
Ġhistor ies
ord e
Ġp ig
E ll
Ġr h
Sp in
? :
ell ite
Ġap ps
ĠH els
con serv
Ġf o
Cl oud
cept ions
uls ive
Ġpenal ties
Ġprotest ers
ak is
av in
Ġreal m
G erm
}} }(
ĠA F
ĠAntar ctic
Music ians
en za
.. ."
v ens
Ġint elligent
- )
Ġstation ed
)} +\
Ġt uned
Perform ance
preced ented
y t
Âł Âł
Ġdet ention
ad h
aff e
ÑĢ Ðµ
Ġsup porter
ver batim
Ġbi ased
ĠLuc y
ĠChe ss
20 7
section s
ĉ ĠĠĠĠĠĠĠ
ĠN atal
au f
ĠColon ial
al go
Stat istics
Ġper ipher
ch urch
ĠH ern
r ub
ĠAn at
Ġgirl friend
ĠTri ple
Ġaband on
B eh
ĠCom plete
Ġg ig
Ġclass ify
log y
il ogy
Ġcor pus
pol ynom
Ġhon ours
}} ]
ĠConstitution al
Ġgener als
sh ared
ĠNot re
Ġacc idents
X ML
stitut ed
Ġf riction
ign er
Ġev olving
unic ipal
Ġdirect ing
ĠAd rian
c ence
ĠA ircraft
ĠB alk
18 2
lass ical
( !
Ġadvoc ates
Ġs ink
St age
We ight
å ®
ĠGi ovanni
fl ag
Pop ulation
c ats
Ġm oll
position s
d one
Ġsocial ist
Ġgram mar
d iamond
Ġpresum ably
Ġdeleg ation
Ġfre estyle
ĠG ets
Ġd Ã©
ĠSt yle
Ġmon uments
S cale
re port
Ġst ays
Ġ$ +
ĠI MF
Ġsub spaces
Ġbi jection
Ġaz imuth
Ġup graded
ly m
ĠH ale
ĠL L
Mem ory
ogn ition
Ġfilt ration
Ġcrit ically
4 000
B attle
ĠC apt
18 33
ĠField s
$\ %
Ġsp heres
Ġdispl aced
Ġcom plications
erv ous
() {
E th
ast ically
17 1
Ñ Ĩ
ta ine
ĠBl og
FI LE
A u
do i
Ġcy ber
ĠNew port
Ġeth ics
Comb ining
Ġam ended
opl an
ĠEll en
ĠBed ford
Z ero
Ġem ploys
Pro xy
Ġcl ay
ĠP H
Ġ& =\
ĠD awn
ĠPres byterian
R andom
ĠZ amb
Ġspont aneous
Ù Ĩ
Ġhad ron
ho o
N U
\ ),
Ġsepar ating
Ġcomp ares
Ġcomp romise
Ġcontin ent
2 15
in sp
18 25
ac iÃ³n
Ch art
Spr ing
Ġcomputation ally
Ġs le
Ġl ensing
ĠCal gary
)\, .
Ġaltern atives
ĠSta kes
Ġc uisine
}} |
,\ ;
unn ers
Pro blem
Ġm aid
Ġal beit
S ta
Ġnecess ity
Ġpersonal ities
Ġpeace ful
t l
Ġtrans fers
ĠSpring field
ĠTe h
ĠD w
ð Ł
Ġsub mission
à ¦
ĠL E
edd y
ĠLiter ary
met adata
Ġforb idden
en ko
ĠFight ing
}) +\
ĠAp ollo
Ġan arch
Ġc of
M ike
Ġpro gen
Ġsail ing
Ġtrem end
Ġex clusion
tt i
V V
ĠR ica
os ion
trans l
k pc
Direct ory
Ġcomp ly
ĠG ol
Ġout lets
Port ug
Ä Ľ
}}( {\
Ġmonot onic
ĠStart ing
Ġtimes cale
Ġche ap
asc ar
Ġmut ation
s an
ĠE g
ĠB il
Ġimplement ations
ĠFer dinand
Ġperm its
Ġlack ing
* )
U ntil
Ġtransl ates
Ġhero es
F ire
Te V
Ġl ighter
ĠSch midt
sp here
by e
ar ab
ĠN acional
ju ana
m eter
K M
R ot
cccc cccc
ĠP ine
pos able
t alk
om al
Ġon wards
ĠAn imal
ĠMin neapolis
ĠMont eneg
Ġsurn ames
m v
ĠK w
18 14
Ġ+ (
id x
pl anes
Ġmut ually
2 11
Ġp aired
or get
Ġorgan ize
-------- ----
Ġt u
n Ã©e
Ġspec imens
Car thy
ĠSlov enia
c ot
Ġreven ues
ĠL ah
ri o
Ġev angel
ĠM eyer
Ġaver ages
ec onomic
ĠH ull
ĠF raser
Y M
label ed
ĠQ atar
M ove
ĠK illing
ĠB io
ĠJud a
ĠE ducational
}) _{\
ĠF P
ĠP D
ĠChem ical
Ġre min
}^{ -\
ĠNew man
pre ceq
ĠI g
Ġsuggest ion
Ġsacr ifice
Ġic onic
È Ľ
Flo at
){ $\
integ er
ĠL az
J ob
et ric
Ġst yl
esc u
Ġcl arity
th ouse
l c
in her
Ġorigin ating
Ġcooper ative
ĠSlov akia
quest ion
4 80
vel ation
Ġur ged
bi ased
ĠLy on
ll ll
Z hang
Ġapprec iate
v ac
Ġf ier
var sigma
role um
k j
Ġw ages
Ġsol ver
ĠAlexand ria
R P
or ange
ĠB agh
ĠAlb any
nt hesis
Ġcust oms
J eff
prob ability
ed ar
ĠS QL
ĠM BA
Ġex otic
Ġdivor ced
Ġmore over
Ġfood s
Ġout going
ĠJ ourney
ge ons
Ġde leted
Ġart ic
ĠM aking
a q
rog ate
Ġfor um
Ġconstit utes
Ġph r
ĠTel escope
Ġf ut
M sg
S ync
L anguage
Ġinc idence
ĠParliament ary
it ated
ĠJes se
Ġimmig rant
sc ience
ĠD iet
ing ale
Hung arian
ul in
mem ory
com ed
Rep ort
Con v
ip eg
Ġtack les
Pl ugin
ĠParalymp ics
IF AR
da ugh
en ue
Ġl ane
ĠM ales
Ġabbre vi
Ġn p
18 3
A uth
Ġter rain
Ġf Ã¼r
Ġmiss iles
Que en
b inary
Ġirre levant
Ġmob il
Ġ ibn
ne z
ĠDe al
ep age
Ġres et
ĠAlban ia
Ġsystem atically
M ake
ĠD iana
ope z
requ ired
ĠF act
Ġsem in
Ġro oted
F unc
al an
Ġpeculi ar
Ġtort ure
ĠA bs
ur ally
Pac ific
O UT
ag ne
ĠQu antum
Ã °
T urn
Ġt weet
est y
ĠRe act
Ġpract iced
design ated
ĠR ee
omet ime
ost ics
oy e
Ġem ig
}= {\
Ġannot ation
Ġmort ality
ĠInt el
Ġro ok
Ġmand ate
ĠEconom y
ĠCorn ell
ĠLud wig
row ave
Ad apter
ighth ouse
ty ped
ĠBas il
gl ass
Ġpossess es
Ġg ras
ĠRab bi
Ġtub es
Ġaut umn
k ok
analy tic
ĠL omb
Dom ain
ad dition
Ġpractition ers
or p
ĠL ed
ĠSt okes
ĠFl ash
Ġtor que
Ġrout ing
ĠB end
pl oma
Ġdepict ing
M ic
Ġf idelity
Ġess ence
Ã± o
ĠC ool
ĠB oh
h ra
ĠPart ners
ĠCom pton
C zech
Ġtum or
histor ic
Ġvolunt ary
th rows
18 31
Ġpract ically
A rab
k r
k le
Ġ[ ];
Ġw reck
ĠS ustain
Ġnon profit
Ġhar sh
ĠId ent
ph on
ĠMax im
ĠH oll
. __
ĠH ook
op p
tabular newline
Ġcharg ing
T x
Ġport raits
Ġcoordin ator
ba um
Ġpro poses
res on
ĠK yle
Ġsuff ix
ĠFer gus
17 90
Ġexpress ing
Ġfac ial
fill ed
Ġb unch
sc ious
Ñģ Ðº
Vol ume
Ġassign ments
const rained
}^{ [
Ġarch ives
Ġtru cks
Ġpermut ations
mb f
ĠPart nership
Ġ æ
Ġform ulate
ĠB Y
ĠRel igious
Ġeth ical
P ubl
Ġgl obe
ut ory
ĠNe uro
Ġple ased
Ġinters ections
ĠDay ton
O F
ĠJ ob
Ġhe aven
ĠMal colm
ĠStaff ord
and i
ib an
ĠChron icle
b X
=" @
ĠGreat est
B rowser
t mp
ol ent
Ġthrough put
Ġo mit
ph ones
D eb
ĠDen ote
ĠLanc aster
Ġtw entieth
d ated
ĠN J
ĠML B
Ġassess ed
anc a
ĠTrib une
he alth
ĠK aw
ĠMichel le
rom atic
| +
id ian
}} [
Ġbeh ave
en ic
ĠNik ol
y g
ĠChem istry
Ġsk et
ĠAlban ian
m ixed
ĠG ael
ĠBur ton
Nov els
ra f
Ġwhe els
40 4
Ġreprodu ced
P relim
ĠSh im
ĠÂ «
Ġm aj
ĠCitiz ens
Ġoverl apping
redu ced
c ool
al ore
ĠEd gar
Ġacadem ics
ĠE isen
na issance
ĠSil va
ĠC W
Ġsuperconduct ing
ĠCor por
ĠLapl acian
Ġexplan ations
Nor wegian
ĠÂ ©
Ġresemb les
b inding
Ġra ises
}$. }
hand ler
us hes
armaceut ical
Ġmanufact ure
ĠMerc ury
Ġsh ifting
Ġin scription
i ership
Key s
ad ors
Ġcardinal ity
ĠB j
Ù ħ
Ġcomm od
Ġrecept or
en ary
ĠB in
ĠL ay
ĠD ylan
Ġsubdiv ision
rape ut
Ġpredict ing
)= -\
add ed
30 1
Ġspons or
ĠM ell
P b
on te
Numer ical
ĠG mina
iz ational
ash tra
Ġf unc
ag in
ĠAgric ultural
Ġrev ision
Ġeigen vectors
_ ,
Ġassass ination
B ottom
}} ^{-
Ġl ig
$ ^{+
ĠX I
0 25
N eg
U CT
ĠJam ie
ĠH its
ĠConstant in
Ġdiv ine
Ġre de
Ġshe ets
Ġorgan izing
Ġfro zen
Ġproceed ed
on ge
Ġ\ ;\;
ĠR G
ĠR GB
ĠU C
inter val
Ġexpans ions
B all
ĠDecl aration
Ġm a
ĠA IDS
ĠL ords
ĠF ra
Ad S
Israel i
Ġninet eenth
pl iers
les h
Ġfinal e
ĠJ ake
st rict
J ones
Ġsmooth ing
Ġwithd rawn
ĠStrateg ic
er ef
u ant
ic ism
Ġch lor
Ġobserv ers
t ens
å ħ
ĠM T
Ġfin ishes
Ġsem ic
ĠWal sh
ĠBund es
Ġn urse
em ia
ĠV irtual
Ġend e
w d
pro port
Ġpers istent
ĠBright on
Ġto b
28 8
ĠPart icip
ĠM illion
n od
ĠFor bes
Ġfer ry
ad ers
found land
Ġhol y
ut ers
ĠM ilton
mathb old
Ġqu arters
h ide
Ġst ems
Ġcommer ce
ĠChile an
ĠC avalry
Amer ica
ĠR out
Ġsol ves
ĠE N
dec re
g ae
UT F
Ġfa una
Ġsp ans
ĠSe oul
Ġmanip ulation
ĠL ines
ĠSt atus
Ġinform al
Ġy esterday
ĠÐ ¸
Ġer upt
)}{ (
Ġlisten ers
? )
Ġanxi ety
Ġmach inery
Ġexcess ive
l is
ĠG B
hig her
Ġcan vas
( |\
u o
wart z
F un
Ġc ooking
Ġlect urer
pre v
Ġcycl ing
Ġen closed
Ġdeliver ing
cf c
G i
18 28
ĠAtl as
P aint
ĠSim ple
ĠLand roid
Ġlat ency
Gener ic
Ġterm ination
ĠStrateg y
t el
ir us
Ġindex ed
A W
Ġafford able
Ġbom bs
ĠJ et
Ġhand ful
ĠCub s
Ġcompat ibility
ĠGuatem ala
b undle
ill i
Ġsur rend
Ġfulfill ed
Ġm ism
ben ch
00 7
ip zig
Ġthread s
Ġret rieve
p n
s il
U ST
Ġd b
Ġconf inement
e as
ari at
ĠPalest inians
an an
J y
ĠH iro
Ġexpl ores
Ġeigen states
Ġun fold
Ġbroad ly
ĠBul let
ĠN umer
Ġlong time
ID E
Ġp ic
TE ST
S ER
Ġge ographical
Ġfair ness
ĠG ates
deg enerate
a eda
ĠE W
\, $\
Ġrecurs ive
om ar
Un like
Ġaggreg ation
Ġwrap ped
Ġen jo
Ġreg ulated
\, (
Ġfl ip
18 6
Ġcollect or
Ġrul ers
ĠC od
ĠKer ry
Ï Ĥ
ĠC lement
ĠC airo
app ings
ä »
ed ged
g irl
Ġfib re
Ġmet eor
ĠRec ent
t m
Ġinters ect
Ġphil osophical
Ġbatter ies
ĠW on
! ,
ĠLin ux
ĠHug o
re li
Ġb arg
Ġa fraid
ĠGriff ith
J ournal
ĠMic he
ĠC FT
50 1
Ġâ ĪĴ
Ã© m
ĠBelf ast
B us
ĠW inner
AR D
ĠAg ent
ĠIndust ries
Ġant iqu
os i
Ġmotor cycle
K T
Ġf ran
}) -\
test ing
)) );
Ġtox ic
Ġprev ents
Ġdis charge
Ġen listed
Art icle
Iter ator
Ġqual itatively
ĠElect ronic
Ġillust rations
spect ral
Ġposit ively
Ġb ore
ĠT roy
Ġpubl ishers
Ġd ock
ĠD ew
sw orth
ĠAtt ack
g re
Ġgradu ates
in verse
Ġscreen writer
b k
Ġn ons
ĠP ere
ĠD ud
ĠMin isters
isp here
Ġex empt
Ġinv itation
ĠMon roe
Ġcert ification
g iving
ĠMar ion
B esides
itt ers
ĠUS SR
Ġp ent
() ));
Ph ase
ĠD epend
z t
ract or
17 99
ram er
Ġsax ophone
@ \
D id
Ġanaly st
sche ma
}: =
Bur ials
ta iled
el man
Ġret rieved
Ġhypers ur
ĠA V
fe at
sh ots
esp ecially
ĠEn c
res et
)+ (
VER SION
Ġaugment ation
are l
Ġre dd
valid ation
Ġmilit ia
ĠA FC
Ġcomm ute
Ġb ike
Ġimm un
im ming
ip ur
on el
Ġserv ants
Ġaccept s
Ġimplicit ly
Clim ate
ĠP lymouth
col sep
Ġqu it
Ġa rose
can onical
Ex perimental
mod es
Ġsen ators
ĠRos a
ĠMar tha
Ġinhab ited
18 26
Ġun precedented
id uc
ĠInter state
Ġmission ary
Ġwor ry
ĠNS W
ĉ ĠĠ
22 7
Ġpresent er
Ġbuild s
Ġearn ings
Ġodd s
Ġ umb
2 14
3 70
Ġterm inated
Ġru ins
H ub
Cent er
min ent
Ġprefer ences
ĠRom ans
ĠIss ue
ĠJ i
ĠBrad ford
Ġpro spect
ĠJul ie
Ġamb itious
v t
Ġconfirm s
ĠH appy
ĠEd monton
* ,
h ouses
ĠHay es
ĠHun ting
rac use
ron ics
ĠT ell
col lect
fl ags
Tur kish
Ġn ested
ĠH ond
ill ary
hed ron
w u
Act ivity
Ġcar ved
p rior
ĠB rent
ĠX ML
Ġscal ars
ec hes
Ġformul ae
Ġf u
ĠF W
up ta
M att
it he
C as
ĠH ubbard
Ste ve
Ġgar ner
n h
Ġl as
f mf
pg f
ĠBet ter
Ġcon ceived
amb a
ĠSuper ior
ĠManu fact
Â ·
Style ID
ĠAdvent ure
Ġincorpor ates
Ġmark er
ĠAct s
Ġsp y
Ġarm ies
j p
Ġadop ting
ĠS tern
disc uss
c S
al one
lim sup
unt ed
od ium
ik er
min imal
Over all
J oe
Ġlog ging
ion ic
3 80
SS M
m kern
ĠW AR
dis p
b end
ĠSte phan
Ġre lying
if a
ĠSouth west
d dots
Ġd z
Ġch ances
sl ice
Ġl ith
ĠM om
ĠK ang
rm k
ugg ed
! [
part ition
ĠB ronze
Ġestabl ishes
Ġb tn
Ġcab in
cest ershire
build er
]{ @{}
Ġaff irm
Ġdece ased
Ġpos ed
AS H
- ,
G re
con clusion
ĠTh ir
Ġins isted
f its
ï» ¿
29 0
L ists
ĠGarc ia
Ġfilm maker
Ġliter al
v on
w ik
Ġstat s
set counter
Ġh ung
to ok
18 10
Ġmass acre
ex isting
ĠP erm
ĠPrest on
resp ons
ĠLouis ville
ĠBeat les
Ġunve iled
od i
othe rapy
d V
Ġc ens
ĠSp ot
Ġin tact
mer cial
ely n
C ultural
Ġvin yl
Ġb acter
Ġdi ocese
ĠTanz ania
18 1
Con sequently
Ġsurprising ly
ĠL ey
ĠHe y
Ġex ercises
Ġord ained
Ġcomp ressed
) &=
ĠInst rum
ian ces
Ġle ar
Econom y
C ivil
ĠBar b
in ion
Ġte aches
Ġpurs uing
B Y
Ġin set
Ġdefic it
St op
IN S
ĠP Ã©
ĠAlger ia
ĠE k
Ġprem ium
Ġt ensions
St ruct
dis crete
ION S
Ġequ iv
iter ator
Ġsur geon
b il
Ġh int
Ġapp rent
Addition ally
p ure
Ġl od
agn et
ĠHop f
ĠPro b
keep ing
n r
Ġback up
Fl ag
Ġin sects
ĠL R
) ^*
ĠAp plied
N ative
ĠS equ
100 00
\% )
Ġaccum ulated
K en
and ez
ia e
Î µ
Ġcomp ass
=\ !
Ġinn ocent
Ġtraff icking
Ġsm oke
Ġorth onormal
Ġtrip let
S ide
Ġsubject ed
ĠCard iff
it als
inv est
ĠBra h
Ġbl ame
Ġtransl ator
em por
M unicipal
ĠH ert
ĠK ad
ĠV iv
Ġsen ator
ĠRem ix
e cho
the ning
Ġgo alkeeper
d eb
... ]
M ask
d w
Con tact
et z
id an
t uple
ĠJ ur
ink i
Ġwrest ler
M ix
he nd
Ġpost er
d ar
ĠF ur
Ġdec iding
An im
su cc
Ġbatt ing
} &=&
Ġwarm ing
ass is
ĠAr ist
ĠArm s
Ġsk illed
ĠCarn egie
Ġtunnel ing
26 4
Ġexclud ing
Ġbas elines
Inst ead
sh are
ri ot
ĠLeg acy
pres ident
ĠOcc up
f ri
Ġthrow ing
le af
}) _
ann ah
li u
Pro gress
ĠM aid
Ġd ans
Ġtri um
ĠK ot
ĠP am
ph ony
ĠS ed
ĠD und
Ġreject ion
b right
ge ometric
Ġfl att
rypt ed
Ġint ensive
Ġcalcul us
ord ial
Ġpost hum
in x
ĠAnd rea
m and
ĠC ities
ĠAnn iversary
Ġd upl
Id s
Ġpost pon
Ġam mun
40 1
key word
NavBar Cell
Ð ³
ĠH TT
ĠI RS
Ġse al
ĠSacram ento
ĠE aster
serv ices
18 24
ile e
- .
ĠH I
Ġun bounded
ĠG DP
Ġperspect ives
Ġhur ricane
Ġv oyage
desc ribed
Ġph ones
P rem
pl ays
int roduction
Ġambig uity
ĠStef an
Ġpress ures
fe atures
M iddle
p ark
ploy ed
Ġas ync
ut f
Ġcomput es
ĠHerm itian
Ġdat abases
is se
Ġter rible
q a
18 29
F a
ed ly
Ġdiscret ization
ĠYuk awa
ĠAnn ie
D uration
Ġt ong
ĠT at
B ang
Ġconsum ed
Ġend ings
Ġmind s
C u
Ġh iding
ĠDod gers
ĠMaced onia
| $,
poss ibly
B asketball
V S
Ġdiagn ostic
ĠDra ke
am on
ĠA us
ĠR id
ĠR ash
gener ic
ĠB rain
- }
over ed
ĠA pr
Ġdet ecting
Ġsuscept ibility
Ġd ys
ĠCl aire
al tern
od rom
18 21
c ia
ĠB L
Ġcast ing
x it
Ġn ic
ĠL S
ym es
Ġ ~~
ĠL STM
ext ra
ĠR az
ĠTo o
P od
Ġper f
By Id
Ġperturb ed
Ġdec is
ĠG ur
arri e
med ium
y en
ĠC ash
pref ix
m ov
ighbor hood
Ġexam ining
ĠMark eting
ĠS ections
Ġtransp arency
Up per
ent a
ĠIn put
Ġspokes man
s om
ced es
Ġdegrad ation
Ad minist
Ġbre ed
Ġbre ach
Ġexplo ited
Ġhead quartered
ĠW ave
ud er
18 01
Ġcont ra
ĠL ives
Ġtra its
ĠPear son
ĠDar win
Ġ$ %
Ġqual ities
Un ion
ĠVeter ans
el ike
Ġn ond
Ġremov es
ap unov
M useum
Ġk iss
Vis ual
Ġaccommod ation
ograph s
Ġtheore tically
ĠAssum ing
ĠChurch ill
Ġel ong
Ġspecific ations
ĠLapl ace
ĠV all
ĠF est
ĠJosh ua
ĠLog an
T aylor
ĠNapole on
S on
ant is
ĠPract ice
pher d
Ġ io
ĠSub sequently
Ġconsult ing
eed s
L im
Ġconv ince
m otion
Ï ĥ
Ġb ones
ĠHy per
rell a
' },
55 5
Ġobst acles
Ġappar atus
Ġammun ition
v x
id ays
Ġg aug
an ium
Ġsm oot
Se lection
\ },\
orget own
Ġtob acco
$\ {
vent ional
sign ature
Ġcho oses
}^* $
ĠB ren
45 6
as an
ru ce
p enter
T ABLE
ĠD A
Ġmet er
ĠLithuan ian
Ġtop ped
Ġarray s
ĠE yes
Ġcount able
ĠPaul i
vio let
m orph
Ġpr ide
2 16
V O
Ġac ute
ÑĢ Ð¸
approp riate
ĠB ac
Ġout s
st orage
ĠPo incar
cre ated
Ġviol ating
ĠC ounsel
by tes
m ust
graph s
Ġdis abilities
ĠSerge ant
ices ter
ep p
18 13
Ġadv ocated
+ }$
an ol
ĠB oltzmann
}_ *
ĠPro gressive
comm ission
ĠR up
22 3
Ġref uses
estim ated
Ġdoctor ate
Germ any
c ourt
ĠAnd rÃ©
ĠBel ow
f ried
Ġrec ycl
ĠI X
Ġro d
R os
Ġdom inance
ĠH ank
() ).
ĠKn ox
Ġloc als
Ġca ution
st retch
ĠW ings
ĠRock y
W ord
Ġrenov ation
spec ified
gu ard
Ġsl ide
lik elihood
ĠA sp
z an
Ġresid ue
Ġkilomet res
ĠV eh
Not Null
ĠHawai ian
Ġorgan isms
cor related
rot ron
log ical
Ġoccup y
Start ing
K w
ĠMay be
ĠBuddh ism
il is
Ġsol ic
Ġbi ases
op rano
Ġexp elled
ĠPro perties
ĠP arent
Ġresidual s
Ġl oses
0000 00
Ġdestro ying
Com plete
Ġrel ativity
Ġin consistent
B ell
Ġl aps
ĠTour ism
ĠN ames
et itive
}) /
sh an
ĠBud apest
ast ings
Ġc ere
ag ascar
Ġmater nal
e ah
Ġrot ate
LO G
Ġcelebr ity
ĠWhit ney
Ġwis dom
Ġlaunch ing
ĠNew foundland
est ock
ĠHait i
} <\
ĠRe in
Conn ect
atern al
Ġval ence
ath am
Ġlabel ing
andid ate
++ ;
Ġrefuge e
19 1
ĠMe h
al ias
angu ages
led on
Ġdeleg ates
che t
cy cles
Count ry
ĠGaz ette
Ġbeet le
er ial
at aka
le an
Ġadv ancing
Ġflag ship
Ġ ip
Ġp orn
se in
Ġge ographic
ĠS K
ĠR ever
Ñ ĸ
cent ric
Ä ħ
m ud
Ġthe olog
Ġ( {
c ro
label s
ĠL il
Ġh anging
g reat
ĠT ropical
Col lections
+ )
L F
Ġs el
ĠL C
l Vert
yl on
ant ed
ord ering
oul os
Ġcontribut or
N ET
ĠH MS
uit ively
G h
l ord
ĠH ack
ĠN H
B and
Ġres ur
ĠHar bour
ĠCliff ord
rit ies
Ġinitial ization
ill ation
ocol ate
es que
att y
ĠS ever
ĠF ashion
Ġ= ========
und ers
Ġint im
print s
ĠA ve
Ġvers a
ĠEston ian
22 8
22 6
Ġcontin ental
ĠC ly
Ġsc reens
Ġterm ed
ĠMar ÃŃa
n os
Ġf are
Ġs outheastern
ĠBel t
F rag
3 10
ĠH yp
press ure
Ġend angered
r p
u w
ĠK oh
Ġce iling
product ive
m or
Ġproblem atic
Ġindic ators
Columb ia
ĠTh r
pr iv
stud y
A k
ak k
Ġlist ener
Ġappropri ately
ĠB ot
å Ń
ĠR oc
ant es
Oper ator
Ġfact ories
Con ver
Histor ic
Ġflow ing
ĠD ong
Ġex changes
Ġmos que
ĠMon ument
P ic
Ġder ives
R N
ĠO K
23 2
ĠMar ian
Ġcryst als
ĠBor is
ĠT arget
Ġl unch
ĠP ione
b age
b ranch
ĠGreen e
z on
Ġn ervous
Plan ck
rt imes
ĠL av
ĠK um
ĠSant os
ura i
ĠU AV
bra him
ol ate
{ }{
part s
ĠJane iro
O k
R ic
ĠS Ne
ch rotron
ĠM oss
ĠP apers
ir ate
is ible
ĠImm igration
er ick
Ġdec ree
Ġinf inites
W ild
Ġstory line
ma re
Ġb ab
ĠJohn ston
Ġdwar fs
Ġh olog
ĠMur der
) ||
ĠM n
Ġas ylum
us ually
In sp
Ġdynam ically
ĠRich ards
Conn or
Ġf oster
og h
B AR
Ġh i
enc il
Ġide ology
test s
'' '
Ġens embles
stitution al
Ġsovere ignty
Ġretriev al
Ġv ault
Ġpos es
ĠCl ara
ĠComp anies
oura ge
ĠBol ivia
ĠG ul
ven ile
ĠS it
Ġwant ing
Ġcylind rical
f ine
Sc ient
S outhern
ĠMoh ammed
ĠW itt
Ġsk ull
Ġ% }
Ġplaus ible
P ER
ĠV ert
Fellow s
ex pr
ĠKe pler
el ic
de en
Ġfun ctors
ĠMar qu
Ġrec urring
Ġpuls ar
N F
ĠH our
pro gress
Ġad s
sem i
ĠUtt ar
c A
Ġf ears
Set ting
ĠVari ous
ĠF ut
Ġsubsequ ence
Cond ition
Ġtra ils
dot sc
ĠSen ators
Ġm igrants
}] ,
ĠJess ica
P W
Ð¾Ð »
Ġbass ist
ĠAr senal
ab stract
ĠNAS CAR
ĠMar co
Ġfav ored
Rem ove
ri ates
Ġoblig ation
od o
Ġup ris
Ġatt en
Ġshould n
Ġst air
ĠI E
ĠDor othy
Ep isode
{( -
any a
}}$ -
ĠH ag
der ived
ren ces
it ches
ĠCrit ics
Ġf action
Ġsp arsity
Ġgeomet rical
Ġpar ade
ĠFre eman
li ers
sign al
ĠEr nst
Obs erve
Ġhaz ard
Pro ps
Ġbif urc
' })
Prot ocol
ĠT ucker
ĠB eg
att ributes
Ġrec ount
ote chn
ut i
Ġmed i
ĠR as
Vari able
Ġc aption
NN s
ta k
To String
dom inated
ĠGust av
ĠÐ ½
Art s
Ġtr ivially
P en
_ (
ĠE D
ap o
00 6
Ġeng ra
Ġwel comed
ass ets
I ce
h aul
Ġf ights
)\ )
Sc roll
Wid get
ov sk
Ġheav ier
Ġpar ishes
ĠB ian
ĠMar ines
Ġgame play
ĠChief s
ĠJul ius
Ġenact ed
daugh ter
am ar
ad just
ĠR i
Ġ" <
ident ity
Ġg odd
Ġpart on
ĠMil ky
ĠCond ition
ĠH erman
disc ussion
it ism
Ed ward
Ġm asks
Q Q
Ġdisc s
cles iast
Ġke en
D etail
view s
Ġ$( -
ĠM ing
Ġrepl ied
Ġparameter ized
ĠNap les
Ã§ a
Ġentang led
Ġbelie ving
ĠMor se
at ro
I ref
ĠC areer
) <\
Ġg aming
is ure
Ġd ancers
L ook
od el
Ġsche ma
ĠEm ploy
Ġcommission er
ĠJeff rey
ĠMin i
Ġp el
Ġd well
ir ling
18 18
tr uth
Ġsub script
Ġtra gedy
isc ount
S ix
y x
Ġs ab
ent on
Ġg i
cont rib
}^{ {\
stit utions
] =\
ĠCongress ional
ĠFranÃ§ ois
ĠA CT
cl air
ĠE y
Ġadvis ory
Ġc usp
23 1
af a
ĠSem inary
Sequ ence
ĠAct ive
Ġmar sh
Ġminim a
sh ine
ĠTe legraph
Ġtrad emark
Ġlit igation
Ġinstruct or
Ġst ocks
Ġlength y
ic ion
Ġr het
Ġfil ament
ĠGram mar
zb ek
Ġenjo ys
26 5
DE s
Ġc ater
Ġconstruct or
Ġb ilinear
ĠS ister
ens itive
Ġmo ist
Ġdon or
Ġepid emic
ĠH ers
Ġatt itudes
head s
Ġblock ing
Ġexperi encing
p u
Ġcor rupt
ĠThom son
in itions
ĠAud io
Ġdoub led
out ube
Ġt ilt
RI PT
Ġrecre ational
co herent
ĠC G
ĠU FC
itro gen
(\ {
rib es
Ġnew er
ĠPoint s
for cing
S hips
Ġst y
ĠTOD O
30 5
ay e
ĠR NA
; }
in qu
Ġmar itime
ĠV ector
ç Ķ
ĠR oh
in ous
ĠKenn y
)) =\
Ġtem p
Ã ®
A ff
æ ĸ
Ġn est
Ġmission aries
T rump
'' )
Ġmans ion
P ATH
C W
ĠSer ver
Ġgeomet ries
ato es
ĠEst abl
Ġbusiness people
Ġabund ant
in fl
Ġsub scription
ĠF eynman
Ġind ef
Alex ander
ĠPorts mouth
ourn als
we i
ĠQ ing
c H
ĠUrugu ay
Ġovers ee
ans on
ĠTim othy
Ġsacr ific
v card
f ail
Ġd ose
vent h
, -\
R on
ĠT M
Ġg ifts
Ġst ip
$. \\
rob ust
ray ed
ĠHal ifax
ĠRes olution
ĠC anton
CO M
Ġ\ ;\
haus en
Ġsh aded
ĠSing er
ah i
ĠJuda ism
Sh ape
ĠBald win
Ġest ates
Ġplant ed
- |
Ġgen ome
ap shot
ort e
ass adors
ĠPr ide
ef ault
ĠMidd les
M ach
ĠD ynasty
ĠP owers
Ġpost ing
Ad am
ĠS ugar
Ġmod elled
Li u
An th
em ann
lem en
tan h
row eak
)( -
Rep resent
pe ak
ĠSab ha
ĠZ en
ĠRec re
\| _\
Ġcler k
ĠCal vin
ĠU t
% ).
E astern
ĠM orm
Ġcru ise
bal anced
Ġm s
Ġcomp elling
struct ures
m atter
Acknowledg ments
+\ !
Ġc ig
ĠV or
Ġdeb ris
Ġpil grim
ĠSer ie
R oy
D b
ag ination
e ither
Ġwhere in
ĠCraw ford
=" ${
let cher
unn els
ĠPriv acy
et imes
23 8
ĠSch ol
ĠChe ng
A X
ĠMar cel
18 03
Ġprob able
ĠGriff in
p aren
Ġreb el
Ġdist ribute
Ġsyn tax
ĠSpec ies
Â ©
fl ush
Ġinterpret ations
Ġrun way
Ġswim mers
Ġveget ation
\ #
23 7
Ġancest ors
ĠBe a
mar ines
incre asing
ĠB ug
roph ic
b rown
ain es
ĠSup erman
lo o
at op
Ġlif ting
Ġorbit als
ĠCase y
ĠRec ording
Ã¡ ndez
Ġinters ects
C atholic
ĠLe ipzig
Ġn erve
Ġmother s
Ġrival ry
M ount
ĠRh ine
Ġn ortheastern
ad ia
Ġboard ing
x b
Ġres ides
}| $
ub ern
Ġmathematic ian
rac ies
Ġsl ip
ĠJup iter
ĠDist ribution
Ġst ance
ĠBav aria
Fore ign
Ġv iral
Ġim pl
Ġpreced ed
Ġflow n
ans en
Ġsome body
def i
Ġpick ing
Ġfragment ation
Ġport al
Ġcritic ised
Ġes cal
30 3
Ġrelig ions
~ ,
ag ogue
Ġadvers ary
ĠSuff olk
Ġsuper hero
alax ies
s sec
ain ter
imod al
âĨ ĳ
F ederal
ĠCle an
Ġrec urrent
Ġred ist
Ġscreen play
art e
18 06
i encies
ĠCh andra
Ġap i
Ã¤ r
ĠU P
Ġdial og
Ġun necessary
Ġspec ially
Iref n
C amb
; )
ĠBi ology
Ġpoly t
ul k
up les
ĠRes Net
B V
ĠEd win
Ġre pository
ex tern
ĠTechn ologies
Select or
ĠB O
Ġhigh ways
ĠStand ards
Ġst ressed
Ġscript s
ĠBalt ic
Ġ( -\
ne ider
ĠSh annon
ĠW inners
irect ed
RE E
Ne ill
Ġinject ed
ĠChap man
000 1
Hel p
ĠMan or
ĠRequ est
) ",
Ġde pr
Ġj ur
Ġrep airs
Ġtrunc ation
Ġhe ct
ĠI SM
ĠD etails
)}\ ,
Ġscreen ed
Ġintu ition
O rd
ie ved
ĠCont ent
Ġannot ations
ĠC ust
Ġl anes
ĠP E
ĠR iley
del ay
Ġ\ }$.
ĠAd voc
ĠEm irates
ĠTh ames
ĠB P
esc ue
Ġbl ast
Ġpro long
Ġwhere by
os ely
norm als
ĠCast ro
Ġmes ons
Te X
) &=&
Ġsub algebra
Ġprom otional
ist o
ig g
Ġwork force
f ootball
t uning
ĠThe odore
Ġ} ^{
Ġrel ied
M i
ĠT ank
App lying
function al
ĠD ry
spect ra
G ar
Ġb ail
AN G
d ifferential
Q R
get Name
ĠBut ter
print f
t enth
z ier
End emic
ĠMink owski
ĠH app
ĠG ir
ĠVict ory
ĠUN ESCO
ik k
M g
ĠMalays ian
ĠCl aude
ĠS USY
Ġd orm
18 19
)\ |
ĠReg ulations
j ournal
Ġcon sec
Ġbal let
Ġsub urbs
Ġexpect s
Ġconstitu ent
ĠHero es
Ġpiece wise
en vironment
oid es
d ialog
ĠSch w
comp iler
Ġly ric
Ġprot ons
D a
Ġsub urban
Ġle mm
Ġwrest lers
ĠHonor ary
ĠBet ty
ih ad
Ġcont ing
ĠQ uality
new page
Par se
\ }^
ra ining
ĠM g
year s
Ġfort une
ass ic
is odes
ĠPatri ots
Eff ect
Ġkn ots
Ġcon ject
Ġfil ing
B inary
Ġfl are
0 12
c oc
ĠP u
n ings
ear ly
Ġaccident ally
Ġsoc io
print ed
Ġtet ra
Ġthe aters
ĠG E
Ġrev olt
Ġtim eline
en ot
ct ica
Po inter
ĠW ong
Ġhydro dynamic
ĠV ij
ĠSebast ian
ĠWinn ipeg
oc es
Ġdemonstr ations
at oon
se at
Ġvis a
ok i
ĠHy dro
ĠFergus on
Ġb eds
Ġwor ried
Ġspin or
v id
}= (\
board s
Qu est
Sw iss
Ġclimb ing
D ark
ĠS G
ĠA sc
Ġsec urities
refer red
acknowledg ments
ĠE V
ass embly
Ġident ically
head ers
Ġmer it
ĠMar itime
Ġpartnership s
ĠIs ing
Ġs i
ĠK ane
ĠLad ies
ad os
ĠBal let
the l
C opyright
orth y
Ġpay load
ited efault
mc itedefault
Ġdet ective
W all
Ġexpat riates
S EC
ign e
ĠEm il
Ġenthus i
y ield
Ġ\ '
al ions
eff ects
ĠEvery thing
Ġd iving
Ġlad der
Treat ies
Ġrev ived
bo ost
atern ity
pres erving
Ġfasc inating
ad ays
ri que
D ar
l ich
it at
cal c
ĠReg ular
ircl ed
p ub
me chan
Ġextrem al
ex ist
ĠAut om
Ġsatisf action
Ġre q
en abled
Ġcomp iler
00 8
uc a
ubb les
P V
ĠU nd
Ġremin is
H erm
ĠWill ie
Ġpath way
ĠProdu cer
P air
Ġbreak through
Ġchrom os
ast ro
Ġnational ist
Û Į
Ġend points
24 8
m h
Ġevalu ations
Ġphysic ist
Ġc ivic
ce iver
ĠB erm
Ġen rich
Ġdep ths
E mb
M os
$. \
ĠProv idence
ĠKos ovo
l ar
Ġreal izes
ĠS ara
)} )$
Ġsil ence
ĠGre ens
ĠCol umn
ĠBrand on
T HE
ĠL af
\ >
A verage
ĠLe one
Ġcorrespond ent
Ġcancel ed
Ġthreat ening
an ic
ĠT rip
ĠCamb odia
ĠColl abor
n ar
Ġd oping
Ġm ari
24 4
Ġcrim inals
ĠA FL
Ġenroll ment
M as
ĠCl ose
ĠSher man
ang les
ĠWe bb
ak o
Ġcollect ively
Ġcong ru
Ġres emble
ĠD S
ĠBul ld
W at
l ooking
Ġcontest ants
Ġmac roscopic
N M
R ate
18 09
ĠS Ã©
ph ys
Ġprivile ge
os o
23 3
str ut
et us
F ive
ĠJ ets
Ġexplo itation
Ġ$< $
S ame
min im
ĠRaid ers
Ġwh it
Ġvisual ization
ĠK ann
ĠMc Carthy
Ġemb assy
em ission
Ġfin est
ĠRep orts
anda fter
Ġposition ed
ĠF alk
exp andafter
ruct ive
Ġhost ile
P ad
nt hetic
ĠQuart et
Ġ Âł
Ġexcell ence
Ġcon quest
Ġbas ement
Ġg ospel
Ġ& +
Ġrest art
Ġconfirm ation
Ġmulti plied
ĠP all
Ġdead line
Ġsail ors
ĠW olver
av our
ĠCart esian
ĠM Äģ
ĠBre nd
ĠC ounter
ack ing
Ġre taining
ĠS ame
[] {\
Sp an
\ :
Ġchemical s
qu ist
)/ (
v d
An aly
ĠV it
work ing
uff le
Ġalt ogether
b ranes
Ġm akers
Ġforg otten
bra ket
ĠInst agram
Ġthreshold s
uche ss
ĠL on
ĠLank an
ĠPant hers
Ġch ord
j ob
n x
ĠR V
Rep ository
ĠH ip
friend ly
Ġlocal ities
Ġscr atch
Ġpar ser
rang er
ĠBra ves
Ġheli um
X iv
C orn
Point s
ĠB B
assert Equal
Ġesc ort
Ġna ive
O cc
z yn
att i
w ire
ĠW er
Ġthe ft
Ġhe uristic
}\ }
g ic
udd y
ĠStat istical
ĠKu wait
Ġn ar
Ġenlarg ed
in ia
Ġp owder
Ġle an
Ġun c
38 4
P Y
ĠL abel
Ġsupposed ly
r Vert
,- .
Ġrot ations
ĠT es
vari ables
at ility
_ ->
ĠWin ston
ch y
ĠLe af
Ġkick ed
Ġpromin ence
Ġmet abol
ĠV ale
ĠWe i
Ġfold ed
Ġl over
ide a
_+ (
ĠT ate
Ġc ascade
Ġinf ect
Ġdecom posed
lym pi
d iam
op pler
b rief
and in
ĠTheorem s
Ġg y
ĠR ough
ĠR andy
Ġnot orious
Ġal ike
Ġobst acle
s ampling
Ġac claim
Play ing
m inton
Ġinf ant
Ġeduc ators
Ġtremend ous
Ġfund ament
Ġc ref
Ġdram at
p ubl
ĠR ise
ĠE b
K a
3 12
Ġad verse
ĠAppe al
g ression
ĠD art
Ġimag ery
Ġ[ (
o ine
y ellow
'' (
//////////////// ////////////////
Ġcre am
ĠBrun o
iat ric
Ġun m
Ġb ure
cond itional
M ov
ext ended
P ot
H all
Ġupd ating
&& &&
ĠR he
Ġbroad caster
ĠV oc
ĠWh ich
Ġkid ney
Ġdiscipl ines
qu bit
Ã¡ r
m om
Ġsex ually
ĠGand hi
l av
ta ker
ĠSpeed way
ĠP ool
ĠE rd
w at
Ġloc ate
Ġden y
ĠKnow ledge
ĠTrin idad
ort ions
pro ducing
por a
Ġair ports
S el
[ [
Ġr g
ĠLiber t
comput e
ĠMay a
ĠLeban ese
Ġl ord
ETH OD
Ġt ile
th reshold
Ġtrump et
Ġworld s
Ġlat itude
Ġd ella
R eb
Ġsh ocks
Ġpr imes
second ary
Ġmist akes
ĠC and
wrap per
Ġwick ets
Ġinf ections
Ġadjust ment
Q A
ma ils
sm ash
part icles
ĠW IT
sp ective
17 00
ASS ERT
Tex as
Ġharass ment
Ġluminos ities
fl ies
Ġphon on
ĠN orton
ard ment
ĠSte am
ĠK le
t ags
Ġd ent
Ġapart ments
Ġj e
Ġdest inations
Ġpione ering
n ob
ĠI z
ish able
pos er
ST AR
M ir
Ġg ases
Ġcross ings
Ġnob ility
Ġre per
ĠMar athon
urg ical
ĠD L
c ategories
t rad
18 23
ab ar
Ġhabit ats
equiv ariant
ĠN W
Ġte lev
18 27
ĠOr d
O x
st rom
ĠR R
Town s
) &=\
ion ization
Ġsouth western
r ift
} &=
ĠSt alin
ĠV ick
Ġcost ume
Ġgroup ed
Ġshock ed
o ft
ĠG an
Ġspec imen
Ġancest ry
math ring
Ġswe pt
ĠDise ase
me ans
C U
ra j
check ed
ĠCharl eston
ĠInd o
Ġin acc
Ġre wards
ob ic
Ġeconom ist
Ġexplos ive
Ġdiv ides
ĠÄ Į
Ġvac ant
ĠW R
Ġswe ep
E W
ĠUnivers ities
ĠCow boys
Ġprog ression
o qu
Ġsy ll
ser ial
ikh ail
3 90
Ġcolon el
3 15
ĠS ession
ĠAl g
log ger
Ġhe aling
sv g
' }}
ott age
Wrap per
Ġn avy
Den ote
ĠS uk
Ġtel esc
sh aw
ĠBrown s
ĠR ole
ĠMad agascar
Ġsort ed
4 20
ul ent
direct ed
P ark
urg ery
link ed
sc attering
olith ic
ep pe
u ction
ĠP iet
F ailed
Ġg arrison
\ &
ilt ers
osp heric
imb ledon
Ġendors ed
r ÃŃ
ĠMov ies
ell es
small er
akar ta
Ġap ost
R og
inc ome
Ġdon ation
B rad
ĠS ale
ax ter
ĠCon versely
Ġair ing
}' \
Ã§ Ã£o
ĠD rew
ograp hed
ert ation
g old
ĠMon ica
Ġhe ated
ĠSc ots
pre p
3 45
att ention
28 5
ĠHill ary
ĠS leep
22 9
ĠReb ecca
Ġf ocal
iod iversity
th ose
ĠB ash
Ġgraph ical
Ġn u
Ġvis itor
olog ne
ĠSal em
Ġrein force
Ġknock ed
Ġover flow
ĠGu jar
24 7
\, ,\
ĠDeut sche
ĠTeh ran
? }
Ġbehavior al
b ug
ĠAd vance
$ }.
ĠIn cre
Ġtorn ado
C ycl
Ġp ocket
Ġm ud
ĠCh arg
Ġj Query
ĠC arson
}) (\
consist ency
ĠĠĠĠĠĠĠĠĠĠĠĠĠĠĠĠ Ċ
Ġsuper gravity
Ġg rat
Ġh ire
Ġconv ection
Ġf antastic
ĠC raft
ĠW ire
ĠPl atform
EL D
develop ed
R om
I AL
Ġspons orship
Ġsovere ign
imens ional
18 16
hent ication
z x
unc iation
[...]
