{
  "version": "1.0",
  "truncation": null,
  "padding": null,
  "added_tokens": [
    {
      "id": 0,
      "content": "[UNK]",
      "single_word": false,
      "lstrip": false,
      "rstrip": false,
      "normalized": false,
      "special": true
    }
  ],
  "normalizer": null,
  "pre_tokenizer": {
    "type": "Sequence",
    "pretokenizers": [
      {
        "type": "Digits",
        "individual_digits": false
      },
      {
        "type": "ByteLevel",
        "add_prefix_space": false,
        "trim_offsets": true,
        "use_regex": true
      }
    ]
  },
  "post_processor": null,
  "decoder": null,
  "model": {
    "type": "BPE",
    "dropout": null,
    "unk_token": "[UNK]",
    "continuing_subword_prefix": null,
    "end_of_word_suffix": null,
    "fuse_unk": false,
    "byte_fallback": false,
    "vocab": {
      "[UNK]": 0,
      "!": 1,
      "\"": 2,
      "#": 3,
      "$": 4,
      "%": 5,
      "&": 6,
      "'": 7,
      "(": 8,
      ")": 9,
      "*": 10,
      "+": 11,
      ",": 12,
      "-": 13,
      ".": 14,
      "/": 15,
      "0": 16,
      "1": 17,
      "2": 18,
      "3": 19,
      "4": 20,
      "5": 21,
      "6": 22,
      "7": 23,
      "8": 24,
      "9": 25,
      ":": 26,
      ";": 27,
      "<": 28,
      "=": 29,
      ">": 30,
      "?": 31,
      "@": 32,
      "A": 33,
      "B": 34,
      "C": 35,
      "D": 36,
      "E": 37,
      "F": 38,
      "G": 39,
      "H": 40,
      "I": 41,
      "J": 42,
      "K": 43,
      "L": 44,
      "M": 45,
      "N": 46,
      "O": 47,
      "P": 48,
      "Q": 49,
      "R": 50,
      "S": 51,
      "T": 52,
      "U": 53,
      "V": 54,
      "W": 55,
      "X": 56,
      "Y": 57,
      "Z": 58,
      "[": 59,
      "\\": 60,
      "]": 61,
      "^": 62,
      "_": 63,
      "`": 64,
      "a": 65,
      "b": 66,
      "c": 67,
      "d": 68,
      "e": 69,
      "f": 70,
      "g": 71,
      "h": 72,
      "i": 73,
      "j": 74,
      "k": 75,
      "l": 76,
      "m": 77,
      "n": 78,
      "o": 79,
      "p": 80,
      "q": 81,
      "r": 82,
      "s": 83,
      "t": 84,
      "u": 85,
      "v": 86,
      "w": 87,
      "x": 88,
      "y": 89,
      "z": 90,
      "{": 91,
      "|": 92,
      "}": 93,
      "~": 94,
      "¡": 95,
      "¢": 96,
      "£": 97,
      "¤": 98,
      "¥": 99,
      "¦": 100,
      "§": 101,
      "¨": 102,
      "©": 103,
      "ª": 104,
      "«": 105,
      "¬": 106,
      "®": 107,
      "¯": 108,
      "°": 109,
      "±": 110,
      "²": 111,
      "³": 112,
      "´": 113,
      "µ": 114,
      "¶": 115,
      "·": 116,
      "¸": 117,
      "¹": 118,
      "º": 119,
      "»": 120,
      "¼": 121,
      "½": 122,
      "¾": 123,
      "¿": 124,
      "Â": 125,
      "Ã": 126,
      "Ä": 127,
      "Å": 128,
      "Æ": 129,
      "Ç": 130,
      "È": 131,
      "É": 132,
      "Ê": 133,
      "Ë": 134,
      "Ì": 135,
      "Í": 136,
      "Î": 137,
      "Ï": 138,
      "Ð": 139,
      "Ñ": 140,
      "Ò": 141,
      "Ó": 142,
      "Ô": 143,
      "Õ": 144,
      "Ö": 145,
      "×": 146,
      "Ø": 147,
      "Ù": 148,
      "Ú": 149,
      "Û": 150,
      "Ü": 151,
      "Ý": 152,
      "Þ": 153,
      "ß": 154,
      "à": 155,
      "á": 156,
      "â": 157,
      "ã": 158,
      "ä": 159,
      "å": 160,
      "æ": 161,
      "ç": 162,
      "è": 163,
      "é": 164,
      "ê": 165,
      "ë": 166,
      "ì": 167,
      "í": 168,
      "î": 169,
      "ï": 170,
      "ð": 171,
      "ò": 172,
      "ó": 173,
      "ô": 174,
      "Ā": 175,
      "ā": 176,
      "Ă": 177,
      "ă": 178,
      "Ą": 179,
      "ą": 180,
      "Ć": 181,
      "ć": 182,
      "Ĉ": 183,
      "ĉ": 184,
      "Ċ": 185,
      "ċ": 186,
      "Č": 187,
      "č": 188,
      "Ď": 189,
      "ď": 190,
      "Đ": 191,
      "đ": 192,
      "ē": 193,
      "Ĕ": 194,
      "ĕ": 195,
      "Ė": 196,
      "ė": 197,
      "Ę": 198,
      "ę": 199,
      "Ě": 200,
      "ě": 201,
      "ĝ": 202,
      "Ğ": 203,
      "ğ": 204,
      "Ġ": 205,
      "ġ": 206,
      "Ģ": 207,
      "ģ": 208,
      "Ĥ": 209,
      "ĥ": 210,
      "Ħ": 211,
      "ħ": 212,
      "Ĩ": 213,
      "ĩ": 214,
      "Ī": 215,
      "ī": 216,
      "Ĭ": 217,
      "ĭ": 218,
      "Į": 219,
      "į": 220,
      "İ": 221,
      "ı": 222,
      "Ĳ": 223,
      "ĳ": 224,
      "Ĵ": 225,
      "ĵ": 226,
      "Ķ": 227,
      "ķ": 228,
      "ĸ": 229,
      "Ĺ": 230,
      "ĺ": 231,
      "Ļ": 232,
      "ļ": 233,
      "Ľ": 234,
      "ľ": 235,
      "Ŀ": 236,
      "ŀ": 237,
      "Ł": 238,
      "ł": 239,
      "Ń": 240,
      "Ġt": 241,
      "in": 242,
      "he": 243,
      "Ġa": 244,
      "on": 245,
      "er": 246,
      "ĠĠ": 247,
      "Ġthe": 248,
      "re": 249,
      "at": 250,
      "en": 251,
      "or": 252,
      "Ġs": 253,
      "al": 254,
      "Ġo": 255,
      "an": 256,
      "is": 257,
      "it": 258,
      "es": 259,
      "ed": 260,
      "ar": 261,
      "Ġw": 262,
      "Ġc": 263,
      "ion": 264,
      "Ġf": 265,
      "Ġof": 266,
      "Ġin": 267,
      "nd": 268,
      "Ġp": 269,
      "Ġb": 270,
      "ic": 271,
      "ing": 272,
      "le": 273,
      "ro": 274,
      "as": 275,
      "ĠĠĠĠ": 276,
      "Ġand": 277,
      "Ġd": 278,
      "Ġm": 279,
      "Ġ\\": 280,
      "Ġto": 281,
      "ent": 282,
      "el": 283,
      "ct": 284,
      "Ġ$": 285,
      "ou": 286,
      "et": 287,
      "il": 288,
      "ig": 289,
      "Ġh": 290,
      "om": 291,
      "am": 292,
      "st": 293,
      "Ġre": 294,
      "Ġth": 295,
      "ĠS": 296,
      "ation": 297,
      "ol": 298,
      "ĠT": 299,
      "ra": 300,
      "im": 301,
      "Ġe": 302,
      "Ġn": 303,
      "ĠC": 304,
      "Ġ(": 305,
      "ot": 306,
      "ĠA": 307,
      "Ġl": 308,
      "Ġis": 309,
      "id": 310,
      "iv": 311,
      "ce": 312,
      "ur": 313,
      "ch": 314,
      "{\\": 315,
      "Ġfor": 316,
      "ut": 317,
      "ĠM": 318,
      "us": 319,
      "Ġg": 320,
      "ly": 321,
      "ow": 322,
      "Ġon": 323,
      "ĠI": 324,
      "ul": 325,
      "ad": 326,
      "ers": 327,
      "ĠB": 328,
      "em": 329,
      "ith": 330,
      "Ġbe": 331,
      "ĠP": 332,
      "20": 333,
      "ir": 334,
      "um": 335,
      "Ġst": 336,
      "qu": 337,
      "ab": 338,
      "Ġas": 339,
      "Ġthat": 340,
      "âĢ": 341,
      "un": 342,
      "ter": 343,
      "ay": 344,
      "ĠH": 345,
      "se": 346,
      "19": 347,
      "ĠĠĠ": 348,
      "Ġcon": 349,
      "ver": 350,
      "_{": 351,
      "Ġwith": 352,
      "ist": 353,
      "od": 354,
      "ĠF": 355,
      "th": 356,
      "ĠĠĠĠĠĠĠĠ": 357,
      "if": 358,
      "ĠR": 359,
      "ĠThe": 360,
      "ag": 361,
      "eg": 362,
      "ath": 363,
      "Ġal": 364,
      "ĠL": 365,
      "ĠD": 366,
      "Ġwas": 367,
      "end": 368,
      "her": 369,
      "and": 370,
      "Ġby": 371,
      "Ġv": 372,
      "Ġan": 373,
      "Ġpro": 374,
      "Ġ$\\": 375,
      "ĠW": 376,
      "ri": 377,
      "ect": 378,
      "igh": 379,
      "ĠN": 380,
      "res": 381,
      "ĠG": 382,
      "ĠĊ": 383,
      "ac": 384,
      "op": 385,
      "os": 386,
      "est": 387,
      "ve": 388,
      "Ġwh": 389,
      "čĊ": 390,
      "ity": 391,
      "math": 392,
      "ate": 393,
      "Ġat": 394,
      "rom": 395,
      "ĠE": 396,
      "ap": 397,
      "oc": 398,
      "ta": 399,
      "Ġde": 400,
      "up": 401,
      "ph": 402,
      "Ġcom": 403,
      "art": 404,
      "Ġex": 405,
      "ub": 406,
      "ight": 407,
      "Ġit": 408,
      "Ġ&": 409,
      "ction": 410,
      "ore": 411,
      "ex": 412,
      "Ġfrom": 413,
      "ies": 414,
      "Ġare": 415,
      "ure": 416,
      "}\\": 417,
      "ĠJ": 418,
      "ill": 419,
      "ine": 420,
      "}$": 421,
      "all": 422,
      "^{": 423,
      "ial": 424,
      "ew": 425,
      "ess": 426,
      "ge": 427,
      "Ġhe": 428,
      "ant": 429,
      "Ġor": 430,
      "ud": 431,
      "Ġwe": 432,
      "ort": 433,
      "Ġ=": 434,
      "pl": 435,
      "ec": 436,
      "ive": 437,
      "ĠO": 438,
      "ite": 439,
      "ment": 440,
      "ma": 441,
      "The": 442,
      "ld": 443,
      "ber": 444,
      "Ġr": 445,
      "'s": 446,
      "ref": 447,
      "ich": 448,
      "ak": 449,
      "pt": 450,
      "ĠU": 451,
      "ian": 452,
      "ated": 453,
      "201": 454,
      "}}": 455,
      "og": 456,
      "ard": 457,
      "iz": 458,
      "(\\": 459,
      "our": 460,
      "nt": 461,
      "ell": 462,
      "ass": 463,
      "ĠK": 464,
      "ical": 465,
      "Ġ\"": 466,
      "rac": 467,
      "Ġch": 468,
      "ft": 469,
      "ran": 470,
      "ip": 471,
      "und": 472,
      "ary": 473,
      "Ġsh": 474,
      "int": 475,
      "ame": 476,
      "Ġsp": 477,
      "ult": 478,
      "per": 479,
      "ia": 480,
      "cl": 481,
      "ef": 482,
      "ue": 483,
      "egin": 484,
      "Ġse": 485,
      "Ġy": 486,
      "ext": 487,
      "begin": 488,
      "Ġthis": 489,
      "Ġle": 490,
      "ign": 491,
      "ition": 492,
      "ave": 493,
      "Ġpl": 494,
      "Ġus": 495,
      "ĠIn": 496,
      "ust": 497,
      "00": 498,
      "Ġcomp": 499,
      "Ġnot": 500,
      "orm": 501,
      "ong": 502,
      "cal": 503,
      "_{\\": 504,
      ")$": 505,
      "âĢĵ": 506,
      "ast": 507,
      "),": 508,
      "Ġcl": 509,
      "are": 510,
      "sp": 511,
      "ĠĠĠĠĠĠĠ": 512,
      "Ġwhich": 513,
      "ens": 514,
      "ep": 515,
      "ĠSt": 516,
      "ear": 517,
      "ations": 518,
      "Ġ-": 519,
      "ug": 520,
      "age": 521,
      "Ġk": 522,
      "du": 523,
      "ff": 524,
      "ost": 525,
      "200": 526,
      "ire": 527,
      "}{": 528,
      "ord": 529,
      "av": 530,
      "ack": 531,
      "ork": 532,
      "so": 533,
      "ence": 534,
      "ĠV": 535,
      "Ġhis": 536,
      "ther": 537,
      "ov": 538,
      "pro": 539,
      "rm": 540,
      "eq": 541,
      "ain": 542,
      "ĉĉ": 543,
      "frac": 544,
      "Ġwhe": 545,
      "Ġhave": 546,
      ").": 547,
      "cc": 548,
      "Ġcan": 549,
      "ace": 550,
      "},": 551,
      "enc": 552,
      "to": 553,
      "Ġun": 554,
      "ere": 555,
      "ions": 556,
      "equ": 557,
      "ime": 558,
      "able": 559,
      "text": 560,
      "right": 561,
      "ĠCh": 562,
      "âĢĻ": 563,
      "ide": 564,
      "ric": 565,
      "ish": 566,
      "ib": 567,
      "Ġhas": 568,
      "ous": 569,
      "low": 570,
      "cite": 571,
      "ond": 572,
      "ang": 573,
      "Ġap": 574,
      "ase": 575,
      "abel": 576,
      "act": 577,
      "ild": 578,
      "Ġalso": 579,
      "ry": 580,
      "port": 581,
      "mer": 582,
      "18": 583,
      "the": 584,
      "ach": 585,
      "Ġab": 586,
      "mathb": 587,
      "Ġim": 588,
      "ome": 589,
      "ru": 590,
      "Ġad": 591,
      "ener": 592,
      "fer": 593,
      "over": 594,
      "ok": 595,
      "Ġwere": 596,
      "In": 597,
      "out": 598,
      "Ġ|": 599,
      "ould": 600,
      "Ġ<": 601,
      "erv": 602,
      "Ġres": 603,
      "ĠTh": 604,
      "ice": 605,
      "ind": 606,
      "irst": 607,
      "Ġpart": 608,
      "erm": 609,
      "label": 610,
      "Ġ{": 611,
      "=\"": 612,
      "ory": 613,
      ");": 614,
      "$,": 615,
      "Ġj": 616,
      "form": 617,
      "Ġsu": 618,
      "wo": 619,
      ",\\": 620,
      "$.": 621,
      "ound": 622,
      "--": 623,
      "Ġone": 624,
      "eta": 625,
      "tern": 626,
      "ates": 627,
      "own": 628,
      "old": 629,
      "mathcal": 630,
      "equation": 631,
      "Ġcont": 632,
      "ree": 633,
      "pe": 634,
      "ely": 635,
      "Ġar": 636,
      "10": 637,
      "ents": 638,
      "Ġall": 639,
      "..": 640,
      "rit": 641,
      "ors": 642,
      "clud": 643,
      "ance": 644,
      "})": 645,
      "left": 646,
      "ie": 647,
      "}.": 648,
      "ile": 649,
      "ik": 650,
      "Ġdis": 651,
      "ally": 652,
      "row": 653,
      "Ġmod": 654,
      "ount": 655,
      "rib": 656,
      "tain": 657,
      "fig": 658,
      "ark": 659,
      "ress": 660,
      "}(": 661,
      "ĠUn": 662,
      "amp": 663,
      "Ġtheir": 664,
      "ose": 665,
      "Ġfirst": 666,
      "Ġper": 667,
      "Ġbut": 668,
      "we": 669,
      "amb": 670,
      "ĠĠĠĠĠĠĠĠĠĠĠĠĠĠĠĠ": 671,
      "Ġits": 672,
      "ĠHe": 673,
      "urn": 674,
      "}^": 675,
      "ĠY": 676,
      "Ġtwo": 677,
      "Ġme": 678,
      "Ġro": 679,
      "ics": 680,
      "con": 681,
      "hed": 682,
      "Ġob": 683,
      "~\\": 684,
      "ĠIt": 685,
      "ey": 686,
      "ational": 687,
      "}_": 688,
      "Ġqu": 689,
      "199": 690,
      "Ġev": 691,
      "ob": 692,
      "ject": 693,
      "Ġ+": 694,
      "pha": 695,
      "ubl": 696,
      "Ġhad": 697,
      "</": 698,
      "ps": 699,
      "line": 700,
      "ks": 701,
      "Ġout": 702,
      "Ġother": 703,
      "cent": 704,
      "ĠâĢ": 705,
      "ng": 706,
      "imes": 707,
      "com": 708,
      "alpha": 709,
      "ll": 710,
      "da": 711,
      "Ġplay": 712,
      "Ġif": 713,
      "fter": 714,
      "Ġpre": 715,
      "vel": 716,
      "sum": 717,
      "ular": 718,
      "oint": 719,
      "Ġwho": 720,
      "iel": 721,
      "ĠâĢĵ": 722,
      "ater": 723,
      "Ġsy": 724,
      "Ġman": 725,
      "Ġsc": 726,
      "rans": 727,
      "ari": 728,
      "Ġag": 729,
      "te": 730,
      "Ġte": 731,
      "orn": 732,
      "rad": 733,
      ")\\": 734,
      "Ġdes": 735,
      "ugh": 736,
      "Ġwork": 737,
      "ution": 738,
      "Ġup": 739,
      "//": 740,
      "ss": 741,
      "Ġbeen": 742,
      "Ġ||": 743,
      "aw": 744,
      "Ġover": 745,
      "ollow": 746,
      "Ġ}": 747,
      "ied": 748,
      "Ġwill": 749,
      "raph": 750,
      "unction": 751,
      "elta": 752,
      "les": 753,
      "lect": 754,
      "Ġtime": 755,
      "iss": 756,
      "ambda": 757,
      "Ġset": 758,
      "$\\": 759,
      "ences": 760,
      "Ġmore": 761,
      "Ġdef": 762,
      "12": 763,
      "ata": 764,
      "Ġinter": 765,
      "ield": 766,
      "one": 767,
      "Ġnew": 768,
      "ons": 769,
      "Ġint": 770,
      "Ġthey": 771,
      "ho": 772,
      "Ġyear": 773,
      "ings": 774,
      "under": 775,
      "amma": 776,
      "ray": 777,
      "ased": 778,
      "ix": 779,
      "eop": 780,
      "ict": 781,
      "Ġbet": 782,
      "Ġdo": 783,
      "Ġind": 784,
      "land": 785,
      "Ġ*": 786,
      "Ġclass": 787,
      "pos": 788,
      "_\\": 789,
      "Ġwhere": 790,
      "umber": 791,
      "Ġcons": 792,
      "ool": 793,
      "ited": 794,
      "Ġsub": 795,
      "ram": 796,
      "ative": 797,
      "ican": 798,
      "ivers": 799,
      "gh": 800,
      "Ġfollow": 801,
      "ced": 802,
      "Ġrel": 803,
      "mu": 804,
      "Ġen": 805,
      "Ġher": 806,
      "of": 807,
      "eople": 808,
      "Ġform": 809,
      "Ġsuch": 810,
      "Ġreg": 811,
      "Ġcomm": 812,
      "mathbb": 813,
      "Ġ\\\\": 814,
      "Ġdif": 815,
      "ual": 816,
      "arg": 817,
      "vi": 818,
      "Ġonly": 819,
      "sh": 820,
      "=\\": 821,
      "resent": 822,
      "ĠĠĠĠĠĠĠĠĠĠĠ": 823,
      "oth": 824,
      "aus": 825,
      "Ġcol": 826,
      "Ġne": 827,
      "inal": 828,
      "ode": 829,
      "Ġinclud": 830,
      "dot": 831,
      "mb": 832,
      "}^{": 833,
      "}_{": 834,
      "Ġthere": 835,
      "sub": 836,
      "Ġso": 837,
      "igma": 838,
      "Ġwhen": 839,
      "Ġinto": 840,
      "ined": 841,
      "hat": 842,
      "Ġbec": 843,
      "ward": 844,
      "sc": 845,
      "ake": 846,
      "stem": 847,
      "ys": 848,
      "ook": 849,
      "ember": 850,
      "Ġdist": 851,
      "Ġsup": 852,
      "ince": 853,
      "ific": 854,
      "olog": 855,
      "ween": 856,
      "Ġacc": 857,
      "198": 858,
      "-\\": 859,
      "Ġval": 860,
      "roup": 861,
      "Ġthan": 862,
      "Ġresult": 863,
      "15": 864,
      "pr": 865,
      "ega": 866,
      "eth": 867,
      "^{\\": 868,
      "Ġexp": 869,
      "very": 870,
      "ock": 871,
      "17": 872,
      "ans": 873,
      "Ġunder": 874,
      "Ġmodel": 875,
      "Ġpol": 876,
      "âĢĿ": 877,
      "red": 878,
      "ĠĠĠĠĠ": 879,
      "Ġthen": 880,
      "16": 881,
      "ral": 882,
      "ĠThis": 883,
      "phi": 884,
      "ax": 885,
      "Ġconst": 886,
      "ail": 887,
      "uring": 888,
      "Ġfunction": 889,
      "Ġgener": 890,
      "ize": 891,
      "round": 892,
      "ĠWe": 893,
      "ities": 894,
      "ident": 895,
      "ough": 896,
      "Ġrec": 897,
      "Ġyou": 898,
      "ating": 899,
      "io": 900,
      "ann": 901,
      "Ġco": 902,
      "Ġpos": 903,
      "Ġbetween": 904,
      "Ġ{\\": 905,
      "Ġwould": 906,
      "ilm": 907,
      "Ġsim": 908,
      "ĠCom": 909,
      "lambda": 910,
      "tt": 911,
      "der": 912,
      "Ġkn": 913,
      "ĠNew": 914,
      "Ġph": 915,
      "ces": 916,
      "Ġloc": 917,
      "Ġsome": 918,
      "Ġact": 919,
      "oy": 920,
      "ox": 921,
      "merican": 922,
      "oot": 923,
      "Ġoff": 924,
      "ont": 925,
      "Ġshow": 926,
      "bf": 927,
      "Ġabout": 928,
      "ĠAl": 929,
      "lem": 930,
      "set": 931,
      "rough": 932,
      "let": 933,
      "Ġany": 934,
      "ection": 935,
      "Ġafter": 936,
      "uc": 937,
      "Ġ[": 938,
      "Ġgo": 939,
      "ren": 940,
      "Ġret": 941,
      "Ġequ": 942,
      "Ġinv": 943,
      "Ġpr": 944,
      "ient": 945,
      "pi": 946,
      "Ref": 947,
      "St": 948,
      "ring": 949,
      "ures": 950,
      "Ġtrans": 951,
      "mathbf": 952,
      "ick": 953,
      "part": 954,
      "ists": 955,
      "ee": 956,
      "ublic": 957,
      "Ġsec": 958,
      "\">": 959,
      "ays": 960,
      "ise": 961,
      "Ġdiffer": 962,
      "wid": 963,
      "Ġour": 964,
      "ilon": 965,
      "dition": 966,
      "arch": 967,
      "align": 968,
      "ype": 969,
      "13": 970,
      "Ġatt": 971,
      "par": 972,
      "Ġstud": 973,
      "197": 974,
      "oun": 975,
      "orld": 976,
      "ility": 977,
      "its": 978,
      "ins": 979,
      "ade": 980,
      "ruct": 981,
      "ev": 982,
      "als": 983,
      "Ġprodu": 984,
      "14": 985,
      "Refer": 986,
      "Ex": 987,
      "ues": 988,
      "Ġest": 989,
      "Ġshe": 990,
      "cre": 991,
      "Ġprov": 992,
      "Ġpar": 993,
      "Ġpeople": 994,
      "Ġcor": 995,
      "ily": 996,
      "ne": 997,
      "abl": 998,
      "ider": 999,
      "lement": 1000,
      "Ġtra": 1001,
      "Ġused": 1002,
      "ove": 1003,
      "References": 1004,
      "sigma": 1005,
      "chool": 1006,
      "ever": 1007,
      "ature": 1008,
      "rt": 1009,
      "Ġno": 1010,
      "Ġsystem": 1011,
      "Ġass": 1012,
      "che": 1013,
      "ull": 1014,
      "ision": 1015,
      "Ġeach": 1016,
      "Ġthese": 1017,
      "ĠâĢľ": 1018,
      "app": 1019,
      "section": 1020,
      "put": 1021,
      "^{-": 1022,
      "Ġgiv": 1023,
      "ism": 1024,
      "Ġmat": 1025,
      "ton": 1026,
      "ike": 1027,
      "elf": 1028,
      "li": 1029,
      "11": 1030,
      "ible": 1031,
      "Ġop": 1032,
      "Ġ(\\": 1033,
      "}{\\": 1034,
      "Ġmost": 1035,
      "ilde": 1036,
      "ĠPro": 1037,
      "Ġ'": 1038,
      "bar": 1039,
      "air": 1040,
      "ower": 1041,
      "wn": 1042,
      "beta": 1043,
      "ball": 1044,
      "Ġfe": 1045,
      "Ġlin": 1046,
      "Ġeff": 1047,
      "Ġapp": 1048,
      "oci": 1049,
      "Ġnumber": 1050,
      "ished": 1051,
      "Ġfl": 1052,
      "irect": 1053,
      "Ġpoint": 1054,
      "Ġthem": 1055,
      "gan": 1056,
      "Ġresp": 1057,
      "oh": 1058,
      "gamma": 1059,
      "min": 1060,
      "mathrm": 1061,
      "Ġmay": 1062,
      "ption": 1063,
      "ized": 1064,
      "any": 1065,
      "ĠZ": 1066,
      "ĠFor": 1067,
      "itt": 1068,
      "Ġspec": 1069,
      "ator": 1070,
      "hip": 1071,
      "iversity": 1072,
      "*}": 1073,
      "ert": 1074,
      "+\\": 1075,
      "mall": 1076,
      "apt": 1077,
      "ames": 1078,
      "Ġext": 1079,
      "Ġprob": 1080,
      "**": 1081,
      "ement": 1082,
      "We": 1083,
      "ason": 1084,
      "get": 1085,
      "Ġserv": 1086,
      "196": 1087,
      "Ġbu": 1088,
      "Ġbl": 1089,
      "Ġline": 1090,
      "eps": 1091,
      "Ġfilm": 1092,
      "Ġwell": 1093,
      "ash": 1094,
      "Ġcent": 1095,
      "21": 1096,
      "\\\\": 1097,
      "Ġent": 1098,
      "Ġthrough": 1099,
      "Ġdata": 1100,
      "ning": 1101,
      "yn": 1102,
      "uss": 1103,
      "ote": 1104,
      "col": 1105,
      "^\\": 1106,
      "here": 1107,
      "Ġappro": 1108,
      "]{": 1109,
      "ĠQ": 1110,
      "rho": 1111,
      "array": 1112,
      "Ġcase": 1113,
      "25": 1114,
      "Ġsign": 1115,
      "eng": 1116,
      "Ġsol": 1117,
      "Ġinst": 1118,
      "ĠAmerican": 1119,
      "aid": 1120,
      "delta": 1121,
      "reat": 1122,
      "Th": 1123,
      "ange": 1124,
      "Ġed": 1125,
      "man": 1126,
      "Ġyears": 1127,
      "ause": 1128,
      "Ġend": 1129,
      "Ġvari": 1130,
      "ury": 1131,
      "Ġreturn": 1132,
      "Ġam": 1133,
      "Ġac": 1134,
      ")}": 1135,
      "att": 1136,
      "Ġrep": 1137,
      "Ġsame": 1138,
      "theta": 1139,
      "orth": 1140,
      "ah": 1141,
      "$-": 1142,
      "Ġoper": 1143,
      "ract": 1144,
      "Ġcur": 1145,
      "emb": 1146,
      "ute": 1147,
      "Ġra": 1148,
      "ron": 1149,
      "ĠDe": 1150,
      "Ġdifferent": 1151,
      "Ġpartic": 1152,
      "leq": 1153,
      "outh": 1154,
      "tau": 1155,
      "Ġthree": 1156,
      "Ġagain": 1157,
      "Ġ.": 1158,
      "ization": 1159,
      "Ġfound": 1160,
      "ife": 1161,
      "Ġuse": 1162,
      "30": 1163,
      "ĠLe": 1164,
      "Ġgroup": 1165,
      "hen": 1166,
      "ern": 1167,
      "ars": 1168,
      "Ġx": 1169,
      "Ġi": 1170,
      "Ġstate": 1171,
      "width": 1172,
      "Ġboth": 1173,
      "Ġsur": 1174,
      "cess": 1175,
      "owever": 1176,
      "velop": 1177,
      "}$,": 1178,
      "uch": 1179,
      "\",": 1180,
      "Ġsing": 1181,
      "ional": 1182,
      "}$.": 1183,
      "22": 1184,
      "cdot": 1185,
      "item": 1186,
      "Ġnon": 1187,
      "Ġhim": 1188,
      "figure": 1189,
      "ret": 1190,
      "ically": 1191,
      "ĠSh": 1192,
      "}(\\": 1193,
      "sy": 1194,
      "Ġser": 1195,
      "Ġterm": 1196,
      "rict": 1197,
      "ty": 1198,
      "arge": 1199,
      "----": 1200,
      "Ġfield": 1201,
      "ĠInd": 1202,
      "az": 1203,
      "Ġsecond": 1204,
      "Ġcall": 1205,
      "ternal": 1206,
      "plic": 1207,
      "ier": 1208,
      "ood": 1209,
      "Ġmin": 1210,
      "irc": 1211,
      "big": 1212,
      "Ġhigh": 1213,
      "ĠAn": 1214,
      "ck": 1215,
      "ethod": 1216,
      "ices": 1217,
      "lection": 1218,
      "amet": 1219,
      "overn": 1220,
      "ĠCol": 1221,
      "Ġfollowing": 1222,
      "arrow": 1223,
      "arly": 1224,
      "nu": 1225,
      "fl": 1226,
      "way": 1227,
      "gy": 1228,
      "Ġlead": 1229,
      "Ġfin": 1230,
      "aj": 1231,
      "times": 1232,
      "ample": 1233,
      "ĠAs": 1234,
      "Ġorder": 1235,
      "Ġem": 1236,
      "Ġart": 1237,
      "ner": 1238,
      "eqref": 1239,
      "vert": 1240,
      "Ġdec": 1241,
      "Ġmon": 1242,
      "ĠX": 1243,
      "Ġduring": 1244,
      "==": 1245,
      "ale": 1246,
      "ĠUnited": 1247,
      "ments": 1248,
      "ĠSe": 1249,
      "Ġconsider": 1250,
      "Ġgiven": 1251,
      "Ġback": 1252,
      "mm": 1253,
      "Ġfam": 1254,
      "partial": 1255,
      "ĠUniversity": 1256,
      "quad": 1257,
      "Ġperform": 1258,
      "Ġusing": 1259,
      "sec": 1260,
      "other": 1261,
      "50": 1262,
      "uth": 1263,
      "194": 1264,
      "for": 1265,
      "fty": 1266,
      "son": 1267,
      "Ġdesc": 1268,
      "000": 1269,
      "Ġdisc": 1270,
      "ouse": 1271,
      "Ġdet": 1272,
      "ĠCl": 1273,
      "infty": 1274,
      "ten": 1275,
      "ural": 1276,
      "Ġwhile": 1277,
      "erson": 1278,
      "Ġfact": 1279,
      "ages": 1280,
      "ank": 1281,
      "()": 1282,
      ".,": 1283,
      "ected": 1284,
      "Ġmany": 1285,
      "tilde": 1286,
      "Ã©": 1287,
      "ases": 1288,
      "ource": 1289,
      "ively": 1290,
      "ulation": 1291,
      "eqn": 1292,
      "Ġpublic": 1293,
      "Ġbeing": 1294,
      "ather": 1295,
      "eb": 1296,
      "val": 1297,
      "ets": 1298,
      "ink": 1299,
      "atic": 1300,
      "Ġrequ": 1301,
      "omega": 1302,
      "ines": 1303,
      "def": 1304,
      "var": 1305,
      "ived": 1306,
      "Ġmade": 1307,
      "ining": 1308,
      "Ġcount": 1309,
      "Ġdirect": 1310,
      "iver": 1311,
      "Ġstr": 1312,
      "ĠCon": 1313,
      "Ġcre": 1314,
      "ross": 1315,
      "ĠSp": 1316,
      "ots": 1317,
      "rent": 1318,
      "Ġrele": 1319,
      "Ġteam": 1320,
      "Ġsmall": 1321,
      "pm": 1322,
      "Ġtr": 1323,
      "ants": 1324,
      "ple": 1325,
      "err": 1326,
      "serv": 1327,
      "24": 1328,
      "ired": 1329,
      "|\\": 1330,
      "fore": 1331,
      "ality": 1332,
      "au": 1333,
      "ology": 1334,
      "ĠSc": 1335,
      "Ġname": 1336,
      "ĠĠĠĠĠĠĠĠĠĠĠĠĠĠĠ": 1337,
      "Delta": 1338,
      "usic": 1339,
      "Ġmed": 1340,
      "ential": 1341,
      "Ġsaid": 1342,
      "Ġbel": 1343,
      "ina": 1344,
      "Ġsee": 1345,
      "center": 1346,
      "rang": 1347,
      "ott": 1348,
      "Ġz": 1349,
      "rop": 1350,
      "ohn": 1351,
      "Ġeffect": 1352,
      "space": 1353,
      "Ġwrit": 1354,
      "Ġdevelop": 1355,
      "by": 1356,
      "Ġpop": 1357,
      "Ġlong": 1358,
      "ober": 1359,
      "work": 1360,
      "Ġchar": 1361,
      "ĠAr": 1362,
      "ootball": 1363,
      "orem": 1364,
      "23": 1365,
      "ĠIs": 1366,
      "Ġget": 1367,
      "hes": 1368,
      "resp": 1369,
      "istory": 1370,
      "rid": 1371,
      "sim": 1372,
      "ved": 1373,
      "ission": 1374,
      "\\,": 1375,
      "ĠEng": 1376,
      "ley": 1377,
      "formation": 1378,
      "led": 1379,
      "ared": 1380,
      "Ġsince": 1381,
      "omen": 1382,
      "Ġknown": 1383,
      "Ġ:": 1384,
      "Ġcontin": 1385,
      "Ġbefore": 1386,
      "ency": 1387,
      "iving": 1388,
      "yle": 1389,
      "ĠStates": 1390,
      ".\"": 1391,
      "Ġright": 1392,
      "Ġfour": 1393,
      "Ġcould": 1394,
      "195": 1395,
      "Ġdep": 1396,
      "Ġnow": 1397,
      "Âł": 1398,
      "me": 1399,
      "xi": 1400,
      "rix": 1401,
      "Ġmain": 1402,
      "enn": 1403,
      "yp": 1404,
      "Ġmov": 1405,
      "anc": 1406,
      "}}\\": 1407,
      "Ġstart": 1408,
      "gram": 1409,
      "vers": 1410,
      "Ġobtain": 1411,
      "ives": 1412,
      "Ġ/": 1413,
      ")$.": 1414,
      "ĠComm": 1415,
      "->": 1416,
      "view": 1417,
      "Ġexper": 1418,
      "Ġresults": 1419,
      "Ġ$(": 1420,
      "ĠShe": 1421,
      "}[": 1422,
      "Ġmethod": 1423,
      "aking": 1424,
      "Ġvalue": 1425,
      "vent": 1426,
      "where": 1427,
      "Ġrepresent": 1428,
      "Ġsupport": 1429,
      "Ġincluding": 1430,
      "Ġlike": 1431,
      "Ġbecause": 1432,
      "els": 1433,
      "Ġlinks": 1434,
      "ior": 1435,
      "ability": 1436,
      "Ġpresent": 1437,
      "Ġneed": 1438,
      "cept": 1439,
      "Ġjust": 1440,
      "Ġwhat": 1441,
      "umn": 1442,
      "Ġlater": 1443,
      "ĉĉĉĉ": 1444,
      "Ġorig": 1445,
      "ths": 1446,
      "Ġelect": 1447,
      "Ġevery": 1448,
      "ograph": 1449,
      "Ġbound": 1450,
      "ĠMar": 1451,
      "ĠAd": 1452,
      "ful": 1453,
      "chn": 1454,
      "ane": 1455,
      "une": 1456,
      "iqu": 1457,
      "ified": 1458,
      "Ch": 1459,
      "Ġplayers": 1460,
      "ĠOn": 1461,
      "Ġpres": 1462,
      "Ġanal": 1463,
      "Ġrecord": 1464,
      "ke": 1465,
      "epsilon": 1466,
      "mp": 1467,
      "Ġparamet": 1468,
      "eqnarray": 1469,
      "Ġown": 1470,
      "Ġmet": 1471,
      "includ": 1472,
      "Ġadd": 1473,
      "sq": 1474,
      "))": 1475,
      "Ġvery": 1476,
      "arri": 1477,
      "bum": 1478,
      "}_{\\": 1479,
      "lex": 1480,
      "Ġimp": 1481,
      "Ġmeas": 1482,
      "Ġmass": 1483,
      "ival": 1484,
      "\".": 1485,
      "$$": 1486,
      "Ġprocess": 1487,
      "Ġschool": 1488,
      "External": 1489,
      "ask": 1490,
      "not": 1491,
      "ery": 1492,
      "rel": 1493,
      "Om": 1494,
      "Ġagainst": 1495,
      "Ġdescrib": 1496,
      "agn": 1497,
      "ĠCount": 1498,
      "Ġlarge": 1499,
      "rodu": 1500,
      "Ġgu": 1501,
      "rum": 1502,
      "ually": 1503,
      "ĠBl": 1504,
      "arn": 1505,
      "ole": 1506,
      "energy": 1507,
      "uro": 1508,
      "ĠPh": 1509,
      "Ġincre": 1510,
      "overnment": 1511,
      "It": 1512,
      "Ġvi": 1513,
      "ribut": 1514,
      "Ġproper": 1515,
      "Ġbased": 1516,
      "ĠFran": 1517,
      "ister": 1518,
      "ĠJohn": 1519,
      "ital": 1520,
      "Con": 1521,
      "Ġrun": 1522,
      "27": 1523,
      "Ġstruct": 1524,
      "ven": 1525,
      "Ġeven": 1526,
      "ience": 1527,
      "Ġproblem": 1528,
      "Ġcondition": 1529,
      "ribution": 1530,
      "psi": 1531,
      "Omega": 1532,
      "ration": 1533,
      "Ġlocal": 1534,
      "ead": 1535,
      "Ġ//": 1536,
      "Ġposs": 1537,
      "ĠMay": 1538,
      "Ġseries": 1539,
      "Ġgeneral": 1540,
      "sk": 1541,
      "ĠĠĊ": 1542,
      "ript": 1543,
      "epend": 1544,
      "inc": 1545,
      "^*": 1546,
      "til": 1547,
      "lang": 1548,
      "read": 1549,
      "Ġrespect": 1550,
      "2018": 1551,
      "Ġthose": 1552,
      "ĠFig": 1553,
      "ctions": 1554,
      "raw": 1555,
      "etwork": 1556,
      "urch": 1557,
      "Ġmult": 1558,
      "psilon": 1559,
      "Ġ,": 1560,
      "Ġseason": 1561,
      "Ġestabl": 1562,
      "ĠNational": 1563,
      "Gamma": 1564,
      ")$,": 1565,
      "ĠčĊ": 1566,
      "Ġbuild": 1567,
      "26": 1568,
      "28": 1569,
      "ĠPl": 1570,
      "Ġcommun": 1571,
      "Ph": 1572,
      "Ġsever": 1573,
      "urther": 1574,
      "ness": 1575,
      "ird": 1576,
      "Ġobserv": 1577,
      "ector": 1578,
      "ague": 1579,
      "olution": 1580,
      "For": 1581,
      "Ġcharact": 1582,
      "ĠWorld": 1583,
      "respond": 1584,
      "Ġfind": 1585,
      "Ġrad": 1586,
      "oss": 1587,
      "rist": 1588,
      "vious": 1589,
      "Ġopen": 1590,
      "Ġtop": 1591,
      "ternational": 1592,
      "193": 1593,
      "oid": 1594,
      "This": 1595,
      "Ġrece": 1596,
      "sqrt": 1597,
      "2017": 1598,
      "Ġspace": 1599,
      "ĠYork": 1600,
      "cer": 1601,
      "Ġlim": 1602,
      "arm": 1603,
      "mbol": 1604,
      "Ġdesign": 1605,
      "Ġshould": 1606,
      "Ġfamily": 1607,
      "2016": 1608,
      "Ġdoes": 1609,
      "vare": 1610,
      "ts": 1611,
      "ĠEx": 1612,
      "Ġel": 1613,
      "Ġprof": 1614,
      "2010": 1615,
      "Ġdid": 1616,
      "2019": 1617,
      "por": 1618,
      "log": 1619,
      "ety": 1620,
      "ians": 1621,
      "ai": 1622,
      "ccess": 1623,
      "ided": 1624,
      "rand": 1625,
      "2015": 1626,
      "::": 1627,
      "ially": 1628,
      "varepsilon": 1629,
      "Ġ${\\": 1630,
      "af": 1631,
      "Ġalbum": 1632,
      "bm": 1633,
      "Ġcalled": 1634,
      "Ġrem": 1635,
      "40": 1636,
      "Pro": 1637,
      "alth": 1638,
      "ateg": 1639,
      "subsection": 1640,
      "Ġstat": 1641,
      "ised": 1642,
      "Ġfootball": 1643,
      "rightarrow": 1644,
      "2014": 1645,
      "Ġlast": 1646,
      "umer": 1647,
      "ĠWar": 1648,
      "anu": 1649,
      "ger": 1650,
      "}^{\\": 1651,
      "Ġlist": 1652,
      "ĠAust": 1653,
      "ĠAnd": 1654,
      "ves": 1655,
      "Ġassum": 1656,
      "Ġdi": 1657,
      "Ġbro": 1658,
      "Ġrema": 1659,
      "itive": 1660,
      "ĠCan": 1661,
      "textbf": 1662,
      "raphics": 1663,
      "oad": 1664,
      "Ġimport": 1665,
      "co": 1666,
      "Ġpolit": 1667,
      "ense": 1668,
      "Ġworld": 1669,
      "Ġhow": 1670,
      "',": 1671,
      "As": 1672,
      "Ġallow": 1673,
      "Ġbecame": 1674,
      "Ġway": 1675,
      "Ġstand": 1676,
      "^{(": 1677,
      "Ġenergy": 1678,
      "Ġlaw": 1679,
      "fra": 1680,
      "Ġreal": 1681,
      "ting": 1682,
      "omet": 1683,
      "2011": 1684,
      "2012": 1685,
      "bl": 1686,
      "position": 1687,
      "Ġ</": 1688,
      "Ġprogram": 1689,
      "}=": 1690,
      "imens": 1691,
      "Ġ`": 1692,
      "Ġchild": 1693,
      "Ġpower": 1694,
      "ajor": 1695,
      "mod": 1696,
      "Ġrest": 1697,
      "rol": 1698,
      "Ġreport": 1699,
      "Ġhel": 1700,
      "Com": 1701,
      "Ġdue": 1702,
      "29": 1703,
      "ĠCent": 1704,
      "Ġdr": 1705,
      "med": 1706,
      "embers": 1707,
      "ides": 1708,
      "ison": 1709,
      "Ġtest": 1710,
      "Ġcontain": 1711,
      "Ġcare": 1712,
      "2013": 1713,
      "Ġ@": 1714,
      "Ġhand": 1715,
      "ately": 1716,
      "Ġlife": 1717,
      "aint": 1718,
      "ĠBrit": 1719,
      "Ġ\\,": 1720,
      "Ġmake": 1721,
      "On": 1722,
      "Ġmy": 1723,
      "Ġcorrespond": 1724,
      "ĠCar": 1725,
      "aption": 1726,
      "ithm": 1727,
      "Ġocc": 1728,
      "Ġcurrent": 1729,
      "chi": 1730,
      "../": 1731,
      "Ġexpl": 1732,
      "Ġtype": 1733,
      "ĠJu": 1734,
      "100": 1735,
      "ious": 1736,
      ")=": 1737,
      "Ġscal": 1738,
      "ilar": 1739,
      "ium": 1740,
      "rack": 1741,
      "less": 1742,
      "ica": 1743,
      "Ġnear": 1744,
      "Ġopt": 1745,
      "Ġident": 1746,
      "ify": 1747,
      "day": 1748,
      "Ġref": 1749,
      "reen": 1750,
      "Ġaddition": 1751,
      "Ġbir": 1752,
      "aces": 1753,
      "Ġleft": 1754,
      "Ġsingle": 1755,
      "wards": 1756,
      "ĠCounty": 1757,
      "Ġseveral": 1758,
      "Ġrefer": 1759,
      "Ġread": 1760,
      "Ġtem": 1761,
      "cm": 1762,
      "Ġorgan": 1763,
      "ĠAt": 1764,
      "includeg": 1765,
      "includegraphics": 1766,
      "ĠHowever": 1767,
      "Ġfinal": 1768,
      "ĠSchool": 1769,
      "Ġalong": 1770,
      "Ġinit": 1771,
      "ek": 1772,
      "caption": 1773,
      "Ġproject": 1774,
      "Ġuntil": 1775,
      "ĠNov": 1776,
      "Ġwithin": 1777,
      "lev": 1778,
      "rangle": 1779,
      "Ġpass": 1780,
      "Ġlevel": 1781,
      "iness": 1782,
      "ĠGe": 1783,
      "amed": 1784,
      "umb": 1785,
      "ĠSouth": 1786,
      "gor": 1787,
      "non": 1788,
      "ER": 1789,
      "ĠOr": 1790,
      "Ġestim": 1791,
      "iod": 1792,
      "Ġaround": 1793,
      "ended": 1794,
      "bs": 1795,
      "tab": 1796,
      "iam": 1797,
      "ĠWh": 1798,
      "Ġdeath": 1799,
      "Ġbook": 1800,
      "Ġarea": 1801,
      "Ġann": 1802,
      "Ġabove": 1803,
      "atch": 1804,
      "ament": 1805,
      "ĠâĢĶ": 1806,
      "Ġcal": 1807,
      "ody": 1808,
      "bold": 1809,
      "ording": 1810,
      "ij": 1811,
      "lim": 1812,
      "ĠGerm": 1813,
      "Ġmuch": 1814,
      "Ġmusic": 1815,
      "use": 1816,
      "Ġoffic": 1817,
      "rem": 1818,
      "back": 1819,
      "Ġu": 1820,
      "aper": 1821,
      "Ġsong": 1822,
      "Ġden": 1823,
      "ugust": 1824,
      "span": 1825,
      "2008": 1826,
      "posed": 1827,
      "Ġcap": 1828,
      "ument": 1829,
      "emph": 1830,
      "side": 1831,
      "Ġmeasure": 1832,
      "2009": 1833,
      "ĠAss": 1834,
      "ped": 1835,
      "ero": 1836,
      "ĠRe": 1837,
      "ĠTe": 1838,
      "Ġknow": 1839,
      "ht": 1840,
      "Ġsum": 1841,
      "ene": 1842,
      "ensure": 1843,
      "ptember": 1844,
      "ĠAll": 1845,
      "oard": 1846,
      "oll": 1847,
      "Ġlarg": 1848,
      "ilt": 1849,
      "Ġav": 1850,
      "Ġgra": 1851,
      ".~\\": 1852,
      "Ġparticular": 1853,
      "ators": 1854,
      "ml": 1855,
      "Ġexample": 1856,
      "...": 1857,
      "illion": 1858,
      "Ġinteg": 1859,
      "Ġplace": 1860,
      "Ġvis": 1861,
      "Ġinformation": 1862,
      "ength": 1863,
      "wh": 1864,
      "Ġvers": 1865,
      "ĠThey": 1866,
      "akes": 1867,
      "varphi": 1868,
      "geq": 1869,
      "aving": 1870,
      "Ġappear": 1871,
      "istor": 1872,
      "anuary": 1873,
      "Ġtri": 1874,
      "ĠMarch": 1875,
      "ym": 1876,
      "tr": 1877,
      "alk": 1878,
      "ĠPar": 1879,
      "Ġsl": 1880,
      "xim": 1881,
      "Ġsat": 1882,
      "ctober": 1883,
      "Ġwin": 1884,
      "ule": 1885,
      "Ġstill": 1886,
      "ĠPr": 1887,
      "uthor": 1888,
      "Ġgame": 1889,
      "pril": 1890,
      "Ġcour": 1891,
      "ST": 1892,
      "Ġperson": 1893,
      "reg": 1894,
      "Ġelement": 1895,
      "Ġgl": 1896,
      "ĠEuro": 1897,
      "Ġfre": 1898,
      "ination": 1899,
      "essage": 1900,
      "Ġdown": 1901,
      "Ġobject": 1902,
      "oman": 1903,
      "overline": 1904,
      "Ġcontinu": 1905,
      "Ġprot": 1906,
      "Ġmark": 1907,
      "Ġdem": 1908,
      "be": 1909,
      "&\\": 1910,
      "lege": 1911,
      "Ġtot": 1912,
      "Ġevent": 1913,
      "Al": 1914,
      "aim": 1915,
      "gorithm": 1916,
      "ormal": 1917,
      "mber": 1918,
      "proof": 1919,
      "ffic": 1920,
      "2007": 1921,
      "urs": 1922,
      "ĠIf": 1923,
      "ĠPol": 1924,
      "ĠJune": 1925,
      "ĠAugust": 1926,
      "ensity": 1927,
      "ground": 1928,
      "Ġvalues": 1929,
      "ĠSeptember": 1930,
      "refore": 1931,
      "esc": 1932,
      "''": 1933,
      "60": 1934,
      ")^": 1935,
      "ĠII": 1936,
      "lish": 1937,
      "ĠRep": 1938,
      "Ġinterest": 1939,
      "Ġnetwork": 1940,
      "ends": 1941,
      "Ġcomput": 1942,
      "Ġbeh": 1943,
      "Ġhead": 1944,
      "eed": 1945,
      "Ġbas": 1946,
      "Ġtechn": 1947,
      ".}": 1948,
      "Ġgovernment": 1949,
      "Ġconn": 1950,
      "ĠJuly": 1951,
      "play": 1952,
      "Ġband": 1953,
      "usiness": 1954,
      "Ġspect": 1955,
      "Ġcharacter": 1956,
      "ampl": 1957,
      "ilit": 1958,
      "ift": 1959,
      "see": 1960,
      "Ġformer": 1961,
      "div": 1962,
      "ification": 1963,
      "2006": 1964,
      "ĠJanuary": 1965,
      "Ġinc": 1966,
      "ris": 1967,
      "Ġche": 1968,
      "color": 1969,
      "ĠState": 1970,
      "ĠMin": 1971,
      "Ġsimilar": 1972,
      "ampions": 1973,
      "eff": 1974,
      "Big": 1975,
      "Ġshown": 1976,
      "ĠOctober": 1977,
      "},\\": 1978,
      "Ġtake": 1979,
      "itions": 1980,
      "cember": 1981,
      "stit": 1982,
      "AR": 1983,
      "ler": 1984,
      "Ġearly": 1985,
      "ĠApril": 1986,
      "face": 1987,
      "ĠUS": 1988,
      "ĉĉĉ": 1989,
      "Ġsection": 1990,
      "org": 1991,
      "Ġcrit": 1992,
      "iter": 1993,
      "}).": 1994,
      "Cl": 1995,
      "ĠCal": 1996,
      "Ġfollows": 1997,
      "lear": 1998,
      "ĠRes": 1999,
      "ances": 2000,
      "IN": 2001,
      "ored": 2002,
      "vec": 2003,
      ".âĢĿ": 2004,
      "ĠMan": 2005,
      "ae": 2006,
      "Ġtrad": 2007,
      "iment": 2008,
      "ĠCity": 2009,
      "Ġhig": 2010,
      "ĠNorth": 2011,
      "ories": 2012,
      "ugg": 2013,
      "aster": 2014,
      "Ġleg": 2015,
      "idd": 2016,
      "Ġiss": 2017,
      "ords": 2018,
      "Ġbest": 2019,
      "itle": 2020,
      "born": 2021,
      "Ġredu": 2022,
      "'t": 2023,
      "ĠGu": 2024,
      "Ġder": 2025,
      "[\\": 2026,
      "Ġdom": 2027,
      "mmet": 2028,
      "Ġprevious": 2029,
      "ĠEurope": 2030,
      "atter": 2031,
      "Ġquant": 2032,
      "Ġadv": 2033,
      "frak": 2034,
      "ats": 2035,
      "Ġpubl": 2036,
      "Ġsuccess": 2037,
      "Ġdeterm": 2038,
      "|-": 2039,
      "error": 2040,
      "hline": 2041,
      "ependent": 2042,
      "Ġclos": 2043,
      "ourn": 2044,
      "bra": 2045,
      "Ġmust": 2046,
      "();": 2047,
      "ĠAustral": 2048,
      "istic": 2049,
      "Ġlow": 2050,
      "ĠArt": 2051,
      "Ġcity": 2052,
      "ĠĠĠĠĠĠĠĠĠ": 2053,
      "ope": 2054,
      "Ġterms": 2055,
      "Ġintrodu": 2056,
      "Ġmajor": 2057,
      "Ġassoci": 2058,
      "ruction": 2059,
      "Ġlet": 2060,
      "Ġmap": 2061,
      "Ġmembers": 2062,
      "orph": 2063,
      "Ġperiod": 2064,
      "symbol": 2065,
      "dis": 2066,
      "--------": 2067,
      "An": 2068,
      "imal": 2069,
      "Let": 2070,
      "ries": 2071,
      "Ġstudy": 2072,
      "ĠAf": 2073,
      "with": 2074,
      "Ġpoints": 2075,
      "Ġplayed": 2076,
      "ploy": 2077,
      "str": 2078,
      "Ġmodels": 2079,
      "ĠBe": 2080,
      "ges": 2081,
      "Ġdefined": 2082,
      "Ġ#": 2083,
      "Ġself": 2084,
      "Ġpost": 2085,
      "new": 2086,
      "):": 2087,
      "Ġhold": 2088,
      "Ġwon": 2089,
      "Ġtotal": 2090,
      "Lambda": 2091,
      "(\"": 2092,
      "}}$": 2093,
      "33": 2094,
      "ĠNovember": 2095,
      "ĠSec": 2096,
      "oper": 2097,
      "cul": 2098,
      "Ġshows": 2099,
      "ches": 2100,
      "Ġwomen": 2101,
      "atures": 2102,
      "gin": 2103,
      "://": 2104,
      "Ġdiscuss": 2105,
      "ĠDecember": 2106,
      "2020": 2107,
      "45": 2108,
      "urb": 2109,
      "ocial": 2110,
      "90": 2111,
      "Ġwithout": 2112,
      "ling": 2113,
      "Ġreleased": 2114,
      "80": 2115,
      "Ġ>": 2116,
      "uman": 2117,
      "ĠCo": 2118,
      "Ġland": 2119,
      "ĠChrist": 2120,
      "ung": 2121,
      "ĠCanad": 2122,
      "Ġeng": 2123,
      "self": 2124,
      "ĠBritish": 2125,
      "ble": 2126,
      "comm": 2127,
      "Ġaff": 2128,
      "Ġpat": 2129,
      "Ġ)": 2130,
      "action": 2131,
      "AT": 2132,
      "Ġgood": 2133,
      "He": 2134,
      "Ġpred": 2135,
      "Ġanother": 2136,
      "duct": 2137,
      "etic": 2138,
      "Ġhere": 2139,
      "ography": 2140,
      "ON": 2141,
      "Ġdeg": 2142,
      "AS": 2143,
      "ention": 2144,
      "pp": 2145,
      "ĠWill": 2146,
      "ales": 2147,
      "ebru": 2148,
      "langle": 2149,
      "Ġinf": 2150,
      "ze": 2151,
      "sf": 2152,
      "Ġshort": 2153,
      "opt": 2154,
      "ldots": 2155,
      "though": 2156,
      "Ġinvest": 2157,
      "dd": 2158,
      "ynam": 2159,
      "etail": 2160,
      "Ġexist": 2161,
      "arent": 2162,
      "Ġnext": 2163,
      "Ġthough": 2164,
      "Ġsize": 2165,
      "ebruary": 2166,
      "mathfrak": 2167,
      "Ġdescribed": 2168,
      "ering": 2169,
      "190": 2170,
      "boldsymbol": 2171,
      "35": 2172,
      "ĠReg": 2173,
      "no": 2174,
      "Ġhome": 2175,
      "ww": 2176,
      "ham": 2177,
      "sequ": 2178,
      "ape": 2179,
      "Ġpot": 2180,
      "aced": 2181,
      "ino": 2182,
      "isf": 2183,
      "oor": 2184,
      "Ġstrong": 2185,
      "esp": 2186,
      "Ġimportant": 2187,
      "odes": 2188,
      "Ġstates": 2189,
      "Ġet": 2190,
      "ered": 2191,
      "osp": 2192,
      "ixed": 2193,
      "2000": 2194,
      "de": 2195,
      "apan": 2196,
      "field": 2197,
      "ĠKing": 2198,
      "Ġinclude": 2199,
      "Ġday": 2200,
      "Ġcomb": 2201,
      "Ġcomplet": 2202,
      "Ġdiv": 2203,
      "Ġcompet": 2204,
      "ream": 2205,
      "Ġcar": 2206,
      "Ġdistribution": 2207,
      "ĠSy": 2208,
      "plit": 2209,
      "></": 2210,
      "2005": 2211,
      "ysis": 2212,
      "Ġregion": 2213,
      "appa": 2214,
      "otimes": 2215,
      "To": 2216,
      "Ġstructure": 2217,
      "Ġchang": 2218,
      "ĠFl": 2219,
      "Ġconf": 2220,
      "iron": 2221,
      "ille": 2222,
      "idual": 2223,
      "Ġtyp": 2224,
      "32": 2225,
      "Ġcho": 2226,
      "Un": 2227,
      "Ġold": 2228,
      "ĠPart": 2229,
      "trans": 2230,
      "ources": 2231,
      "Ġmean": 2232,
      "Ġarg": 2233,
      "ological": 2234,
      "Phi": 2235,
      "ensuremath": 2236,
      "See": 2237,
      "Ġbre": 2238,
      "Ġcompany": 2239,
      "ster": 2240,
      "ression": 2241,
      "ush": 2242,
      "uk": 2243,
      "augh": 2244,
      "empt": 2245,
      "citep": 2246,
      "ĠSup": 2247,
      "Ġaver": 2248,
      "ony": 2249,
      "ĠThere": 2250,
      "ĠĠĠĠĠĠĠĠĠĠĠĠĠĠĠĠĠĠĠĠĠĠĠĠĠĠĠĠĠĠĠĠ": 2251,
      "Ġrese": 2252,
      "alf": 2253,
      "ĠBy": 2254,
      "Ġpossible": 2255,
      "Ġmanag": 2256,
      "angu": 2257,
      "__": 2258,
      "ĠLeague": 2259,
      "75": 2260,
      "inition": 2261,
      "conom": 2262,
      "><": 2263,
      "ĠTo": 2264,
      "mbox": 2265,
      "lation": 2266,
      "Ġcou": 2267,
      "ĠFebruary": 2268,
      "Ġapproxim": 2269,
      "ither": 2270,
      "Ġtimes": 2271,
      "ounc": 2272,
      "exp": 2273,
      "Ġturn": 2274,
      "Ġfew": 2275,
      "ivity": 2276,
      "ser": 2277,
      "ties": 2278,
      "ampionship": 2279,
      "Ġinvol": 2280,
      "ĠHar": 2281,
      "ux": 2282,
      "Ġmagn": 2283,
      "icle": 2284,
      "ĠEd": 2285,
      "ged": 2286,
      "Ġphot": 2287,
      "Ġcareer": 2288,
      "ĠAfter": 2289,
      "Ġview": 2290,
      "Ġdel": 2291,
      "ivate": 2292,
      "nabl": 2293,
      "2004": 2294,
      "textit": 2295,
      "})$": 2296,
      "Ġsk": 2297,
      "****": 2298,
      "rench": 2299,
      "Ġmember": 2300,
      ".\\": 2301,
      "eder": 2302,
      "Ġyour": 2303,
      "Ġpopulation": 2304,
      "circ": 2305,
      "Ġhistory": 2306,
      "};": 2307,
      "ĠMed": 2308,
      "ĠMc": 2309,
      "ique": 2310,
      "lected": 2311,
      "ault": 2312,
      "iction": 2313,
      "ently": 2314,
      "ius": 2315,
      "ude": 2316,
      "âĢĶ": 2317,
      "ways": 2318,
      "raft": 2319,
      "kappa": 2320,
      "ĠNo": 2321,
      "subset": 2322,
      "rap": 2323,
      "ĠYou": 2324,
      "century": 2325,
      "Ġoriginal": 2326,
      "add": 2327,
      "Ġide": 2328,
      "this": 2329,
      "eak": 2330,
      "class": 2331,
      "Ġfull": 2332,
      "Ġprom": 2333,
      "Ġbirths": 2334,
      "Ġmax": 2335,
      "99": 2336,
      "off": 2337,
      "Ġvol": 2338,
      "Ġsignific": 2339,
      "ĠArm": 2340,
      "70": 2341,
      "Ġfilms": 2342,
      "Ġtown": 2343,
      "levision": 2344,
      "pose": 2345,
      "Ġside": 2346,
      "Ġfurther": 2347,
      "Ġ*/": 2348,
      "Ġtheory": 2349,
      "ĠHis": 2350,
      "eter": 2351,
      "time": 2352,
      "}),": 2353,
      "mult": 2354,
      "====": 2355,
      "Ġgrow": 2356,
      "Ġbegan": 2357,
      "Ġheld": 2358,
      "ĠThen": 2359,
      "ĠBut": 2360,
      "nonumber": 2361,
      "Ġphys": 2362,
      "Ġpotential": 2363,
      "table": 2364,
      "ception": 2365,
      "Ġless": 2366,
      "roll": 2367,
      "31": 2368,
      "stand": 2369,
      "wide": 2370,
      "ĠWest": 2371,
      "ese": 2372,
      "ĠCor": 2373,
      "Ġsatisf": 2374,
      "Ġtook": 2375,
      "Ġwar": 2376,
      "Ġdeb": 2377,
      "Ġaut": 2378,
      "ana": 2379,
      "Ġcontrol": 2380,
      "rew": 2381,
      "eneral": 2382,
      "iles": 2383,
      "ĠEnglish": 2384,
      "Ġlook": 2385,
      "ights": 2386,
      "order": 2387,
      "ief": 2388,
      "Ġproduct": 2389,
      "Ġobtained": 2390,
      "nabla": 2391,
      "American": 2392,
      "bit": 2393,
      "Ġsay": 2394,
      "Ġchildren": 2395,
      "ĠPres": 2396,
      "ĠBar": 2397,
      "imum": 2398,
      "Ġfive": 2399,
      "../../": 2400,
      "ii": 2401,
      "Ġstandard": 2402,
      "Ġsit": 2403,
      "mat": 2404,
      "Ġposition": 2405,
      "ĠAfric": 2406,
      "html": 2407,
      "Ġauthor": 2408,
      "Ġep": 2409,
      "\\%": 2410,
      "Ġbusiness": 2411,
      "ocus": 2412,
      "aul": 2413,
      "ĠRec": 2414,
      "Ġfr": 2415,
      "Ġnamed": 2416,
      "dots": 2417,
      "Ġalgorithm": 2418,
      "Ã¡": 2419,
      "Ġmot": 2420,
      "cont": 2421,
      "adem": 2422,
      "Ġestablished": 2423,
      "Ġdensity": 2424,
      "uck": 2425,
      "Ġcompon": 2426,
      "Ġsequ": 2427,
      "ending": 2428,
      "Ġcomplex": 2429,
      "Ġeas": 2430,
      "Ġcover": 2431,
      "Ġnational": 2432,
      "}}{": 2433,
      "ĠSw": 2434,
      "utions": 2435,
      "Ġtrue": 2436,
      "ondon": 2437,
      "Ġeduc": 2438,
      "ĠRuss": 2439,
      "Ġthird": 2440,
      "clus": 2441,
      "Ġcamp": 2442,
      "Ġpaper": 2443,
      "RE": 2444,
      "ĠDist": 2445,
      "inally": 2446,
      "Ġamong": 2447,
      "Ġgreat": 2448,
      "By": 2449,
      "Ġchange": 2450,
      "Ġcountry": 2451,
      "Ġhelp": 2452,
      "Ps": 2453,
      "ĠJapan": 2454,
      "hold": 2455,
      "Ġjo": 2456,
      "\\|": 2457,
      "ĠĠĠĠĠĠ": 2458,
      "Ġsix": 2459,
      "pd": 2460,
      "Ġlocated": 2461,
      "Ġoften": 2462,
      "ald": 2463,
      "Ġage": 2464,
      "Ġkey": 2465,
      "ĠLet": 2466,
      "ividual": 2467,
      "Ġgraph": 2468,
      "64": 2469,
      "uation": 2470,
      "cit": 2471,
      "Ġwant": 2472,
      "ĠThese": 2473,
      "Ġla": 2474,
      "Ġstation": 2475,
      "arget": 2476,
      "Ġreceived": 2477,
      "Ġ--": 2478,
      "Ġperformance": 2479,
      "Ġimpro": 2480,
      "ideo": 2481,
      "name": 2482,
      "ailable": 2483,
      "iff": 2484,
      "ington": 2485,
      "\\[": 2486,
      "Ġprofess": 2487,
      "obal": 2488,
      "Sigma": 2489,
      "Ġfree": 2490,
      "Ġhouse": 2491,
      "Ġrange": 2492,
      "dom": 2493,
      "Ġmatrix": 2494,
      "Ġparameters": 2495,
      "ĠAb": 2496,
      "Ġrelations": 2497,
      "otes": 2498,
      "Ġaction": 2499,
      "box": 2500,
      "Ġfunctions": 2501,
      "ables": 2502,
      "unc": 2503,
      "Name": 2504,
      "ĠSan": 2505,
      "Ġlimit": 2506,
      "Ġfeature": 2507,
      "Ġconsidered": 2508,
      "ones": 2509,
      "ilitary": 2510,
      ",âĢĿ": 2511,
      "sl": 2512,
      "Ġrecent": 2513,
      "Ġindic": 2514,
      "Ġrole": 2515,
      "rag": 2516,
      "Ar": 2517,
      "Ġpublished": 2518,
      "ID": 2519,
      "ably": 2520,
      "2003": 2521,
      "ients": 2522,
      "Ġfore": 2523,
      "iber": 2524,
      "alse": 2525,
      "Ġleast": 2526,
      "ĠĠĠĠĠĠĠĠĠĠĠĠĠĠĠĠĠĠĠ": 2527,
      "Ġrepl": 2528,
      "/\\": 2529,
      "34": 2530,
      "ĠAm": 2531,
      "âĢľ": 2532,
      "ouncil": 2533,
      "urg": 2534,
      "itor": 2535,
      "Ġsolution": 2536,
      "Ġspecial": 2537,
      "Ġmillion": 2538,
      "Ġcer": 2539,
      "Ġclub": 2540,
      "Ġke": 2541,
      "ĠAir": 2542,
      "iple": 2543,
      "Ġapproach": 2544,
      "Ġarch": 2545,
      "Ġcommon": 2546,
      "loc": 2547,
      "ĠEn": 2548,
      "ransp": 2549,
      "Ġclaim": 2550,
      "kn": 2551,
      "Ġenc": 2552,
      "aken": 2553,
      "Ġrate": 2554,
      "Ġsignificant": 2555,
      "Ġservice": 2556,
      "idence": 2557,
      "Ġdiff": 2558,
      "Sp": 2559,
      "ĠCollege": 2560,
      "draw": 2561,
      "ising": 2562,
      "}-": 2563,
      "Ġdetail": 2564,
      "asing": 2565,
      "Ġgames": 2566,
      "rest": 2567,
      "Ġvarious": 2568,
      "rary": 2569,
      "Ġbuilt": 2570,
      "viron": 2571,
      "Ġlight": 2572,
      "Ġcirc": 2573,
      "Ġfac": 2574,
      "ĠSch": 2575,
      "ĠMe": 2576,
      "Ġequation": 2577,
      "Ġvert": 2578,
      "Ġconstant": 2579,
      "ĠLondon": 2580,
      "Ġincluded": 2581,
      "Ġmen": 2582,
      "Ġapplic": 2583,
      "arried": 2584,
      "Ġvill": 2585,
      "Ġbecome": 2586,
      "Ġlower": 2587,
      "reet": 2588,
      "ĠEl": 2589,
      "Ġcoll": 2590,
      "Ġq": 2591,
      "chie": 2592,
      "inter": 2593,
      "Ġsystems": 2594,
      "source": 2595,
      "65": 2596,
      "abor": 2597,
      "Ġpri": 2598,
      "Ġversion": 2599,
      "atural": 2600,
      "ĠDav": 2601,
      "td": 2602,
      "Ġattack": 2603,
      "ĠAct": 2604,
      "ĠComp": 2605,
      "....": 2606,
      "head": 2607,
      "widet": 2608,
      "Ġcross": 2609,
      "Ġrespectively": 2610,
      "Ġfund": 2611,
      "orts": 2612,
      "2002": 2613,
      "Ġstar": 2614,
      "List": 2615,
      "Ġpract": 2616,
      "Ġhref": 2617,
      "Ġinfl": 2618,
      "ĠWilliam": 2619,
      "ĠOne": 2620,
      "Ġred": 2621,
      "ford": 2622,
      "Ġcompos": 2623,
      "Ġcentury": 2624,
      "ĠHouse": 2625,
      "Ġaverage": 2626,
      "Ġ``": 2627,
      "Ġsepar": 2628,
      "const": 2629,
      "Ġborn": 2630,
      "ials": 2631,
      "na": 2632,
      "Ġbi": 2633,
      "Ġanalysis": 2634,
      "iet": 2635,
      "icy": 2636,
      "{-": 2637,
      "('": 2638,
      "Ġtraining": 2639,
      "oph": 2640,
      "Ġhowever": 2641,
      "rown": 2642,
      "2021": 2643,
      "Ġant": 2644,
      "ĠPark": 2645,
      "amples": 2646,
      "Ġwritten": 2647,
      "Ġwater": 2648,
      "2001": 2649,
      "Ġcr": 2650,
      "ttp": 2651,
      "\\!": 2652,
      "estern": 2653,
      "arian": 2654,
      "centering": 2655,
      "Ġelection": 2656,
      "inary": 2657,
      "most": 2658,
      "Ġtitle": 2659,
      "lin": 2660,
      "Ġmom": 2661,
      "Ġlangu": 2662,
      "Ġserved": 2663,
      "Ġ($": 2664,
      "rick": 2665,
      "Ġbuilding": 2666,
      "ription": 2667,
      "Type": 2668,
      "widetilde": 2669,
      "Ġcost": 2670,
      "Ġpair": 2671,
      "Ġresearch": 2672,
      "ache": 2673,
      "Ġhigher": 2674,
      "br": 2675,
      "Ġcorresponding": 2676,
      "Ġinitial": 2677,
      "sup": 2678,
      "Ġconsist": 2679,
      "Ġconc": 2680,
      "Ġcases": 2681,
      "ured": 2682,
      "Ġindividual": 2683,
      "ĠChar": 2684,
      "cor": 2685,
      "Ġneg": 2686,
      "ittle": 2687,
      "Ġavailable": 2688,
      "Fig": 2689,
      "lete": 2690,
      "aut": 2691,
      "Ġair": 2692,
      "thm": 2693,
      "ĠHigh": 2694,
      "Sh": 2695,
      "ĠFrench": 2696,
      "aly": 2697,
      "48": 2698,
      "uture": 2699,
      "Ġhaving": 2700,
      "Ġhy": 2701,
      "ours": 2702,
      "ĠHer": 2703,
      ")(": 2704,
      "Ġquest": 2705,
      "onse": 2706,
      "ogn": 2707,
      "95": 2708,
      "36": 2709,
      "AC": 2710,
      "ĠDep": 2711,
      "style": 2712,
      "AN": 2713,
      "script": 2714,
      "Ġstyle": 2715,
      "top": 2716,
      "Re": 2717,
      "Ġhom": 2718,
      "SS": 2719,
      "Ġdon": 2720,
      "II": 2721,
      "Ġcommunity": 2722,
      "prime": 2723,
      "Ġseen": 2724,
      "Id": 2725,
      "Ġdimens": 2726,
      "38": 2727,
      "andom": 2728,
      "zeta": 2729,
      "Ġconditions": 2730,
      "Ġins": 2731,
      "comp": 2732,
      "cast": 2733,
      "Ġsuper": 2734,
      "Res": 2735,
      "rite": 2736,
      "Ġcalcul": 2737,
      "Ġphase": 2738,
      "rant": 2739,
      "Ġtemper": 2740,
      "ĠAng": 2741,
      "Ġwid": 2742,
      "ship": 2743,
      "05": 2744,
      "ula": 2745,
      "Ġflow": 2746,
      "Ġpath": 2747,
      "ama": 2748,
      "ĠGl": 2749,
      "max": 2750,
      "Ġdevelopment": 2751,
      "Ġfocus": 2752,
      "Ġprim": 2753,
      "yl": 2754,
      "ĠAg": 2755,
      "Ġalign": 2756,
      "Ġevents": 2757,
      "ĠBro": 2758,
      "Ġfrequ": 2759,
      "Ġthink": 2760,
      "\\{": 2761,
      "ops": 2762,
      "\\]": 2763,
      "Ġprovide": 2764,
      "ĠMon": 2765,
      "type": 2766,
      "uggest": 2767,
      "OR": 2768,
      "Ġindependent": 2769,
      "ĠAmer": 2770,
      "Ġsw": 2771,
      "gether": 2772,
      "Ġtogether": 2773,
      "Ġcult": 2774,
      "alt": 2775,
      "Ġspecies": 2776,
      "message": 2777,
      "ĠInternational": 2778,
      "Ġfeatures": 2779,
      "lying": 2780,
      "cap": 2781,
      "Ġplan": 2782,
      "unic": 2783,
      "AL": 2784,
      "ued": 2785,
      "Ġear": 2786,
      "Ġparameter": 2787,
      "Ġblack": 2788,
      "iven": 2789,
      "If": 2790,
      "aries": 2791,
      "Ġgroups": 2792,
      "Ġyoung": 2793,
      "Ġthus": 2794,
      "Ġemploy": 2795,
      "ĠGerman": 2796,
      "ĠTheorem": 2797,
      "Ġport": 2798,
      "ociety": 2799,
      "tabular": 2800,
      "ocument": 2801,
      ";\\": 2802,
      "Ġsem": 2803,
      "Ġeither": 2804,
      "37": 2805,
      "}+": 2806,
      "oted": 2807,
      "Ġtw": 2808,
      "uild": 2809,
      "ecess": 2810,
      "iforn": 2811,
      "gl": 2812,
      "ference": 2813,
      "import": 2814,
      "ware": 2815,
      ")=\\": 2816,
      "Ġge": 2817,
      "Ġworks": 2818,
      "anish": 2819,
      "Ġarm": 2820,
      "rain": 2821,
      "Ġloss": 2822,
      "avy": 2823,
      "Ġaccount": 2824,
      "omorph": 2825,
      "ĠSer": 2826,
      "ridge": 2827,
      "ĠEq": 2828,
      "ĠDistrict": 2829,
      "Ġsm": 2830,
      "rr": 2831,
      "Ġproof": 2832,
      "ĠLem": 2833,
      "ving": 2834,
      "ĠPhil": 2835,
      "ĠWhen": 2836,
      "~~": 2837,
      "oon": 2838,
      "ules": 2839,
      "Pl": 2840,
      "Ġmeans": 2841,
      "Ġgen": 2842,
      "Ġsent": 2843,
      "Ġ_": 2844,
      "scal": 2845,
      "vironment": 2846,
      "Ġfail": 2847,
      "Ġplayer": 2848,
      "Ġdistrict": 2849,
      "Ġabs": 2850,
      "01": 2851,
      "ifornia": 2852,
      "Ġhuman": 2853,
      "Ġannoun": 2854,
      "hib": 2855,
      "Ġsuggest": 2856,
      "Ġachie": 2857,
      "ournal": 2858,
      "ĠPer": 2859,
      "isc": 2860,
      "aff": 2861,
      "ĠPresident": 2862,
      "urity": 2863,
      "itted": 2864,
      "duc": 2865,
      "Ġtelevision": 2866,
      "{(": 2867,
      "Ġstory": 2868,
      "uff": 2869,
      "Ġlinear": 2870,
      "Ġsocial": 2871,
      "code": 2872,
      "188": 2873,
      "Ġlay": 2874,
      "EN": 2875,
      "Ġmatch": 2876,
      "Ġdat": 2877,
      "44": 2878,
      "based": 2879,
      "ĠSection": 2880,
      "Ġbelow": 2881,
      "och": 2882,
      "Ġbetter": 2883,
      "bor": 2884,
      "plies": 2885,
      "Ġassociated": 2886,
      "Ġbecom": 2887,
      "BC": 2888,
      "}]": 2889,
      "ems": 2890,
      "}=\\": 2891,
      "Ġlog": 2892,
      "Ġkill": 2893,
      "ivil": 2894,
      "attle": 2895,
      "Ġeconom": 2896,
      "Ġlines": 2897,
      "ĠWith": 2898,
      "Ġpositive": 2899,
      "ĠChampionship": 2900,
      "Ġacross": 2901,
      "annel": 2902,
      "Ġsymmet": 2903,
      "ilities": 2904,
      "minist": 2905,
      "ociation": 2906,
      "Ġsource": 2907,
      "ressed": 2908,
      "go": 2909,
      "inn": 2910,
      "Ġdied": 2911,
      "itect": 2912,
      ")^{": 2913,
      "ĠMich": 2914,
      "Ġdepend": 2915,
      "String": 2916,
      "Ġcell": 2917,
      "ready": 2918,
      "Ġproduction": 2919,
      "ibility": 2920,
      "Ġimage": 2921,
      "which": 2922,
      "ĠQu": 2923,
      "Ġtext": 2924,
      "Ġfinite": 2925,
      "lymp": 2926,
      "Ġprivate": 2927,
      ")}\\": 2928,
      "acy": 2929,
      "Ġnever": 2930,
      "Ġcame": 2931,
      "Ġnov": 2932,
      "Ġ&=": 2933,
      "Ġnumer": 2934,
      "Ġpolitical": 2935,
      "Ġhost": 2936,
      "key": 2937,
      "Ġtaken": 2938,
      "Ġhistor": 2939,
      "ume": 2940,
      "era": 2941,
      "orge": 2942,
      "ett": 2943,
      "ĠAmerica": 2944,
      "Ġground": 2945,
      "Ġdev": 2946,
      "cos": 2947,
      "omb": 2948,
      "Ind": 2949,
      "Ġput": 2950,
      "Ġlik": 2951,
      "Ġbase": 2952,
      "Ġhalf": 2953,
      "IC": 2954,
      ".~": 2955,
      "55": 2956,
      "ĠCalifornia": 2957,
      "39": 2958,
      "useum": 2959,
      "ards": 2960,
      "ements": 2961,
      "sin": 2962,
      "$)": 2963,
      "Ġlength": 2964,
      "Ġmater": 2965,
      "Ġerror": 2966,
      "ĠLa": 2967,
      "ĠCup": 2968,
      "Ġgive": 2969,
      "sw": 2970,
      "1999": 2971,
      "Ġdynam": 2972,
      "Ġproposed": 2973,
      "ĠSince": 2974,
      "Ġled": 2975,
      "Ġaccess": 2976,
      "alax": 2977,
      "Ġmethods": 2978,
      "Col": 2979,
      "Ġill": 2980,
      "chan": 2981,
      "ĠCour": 2982,
      "Ġregular": 2983,
      "bb": 2984,
      "ached": 2985,
      "Ġvector": 2986,
      "ara": 2987,
      "Ġvia": 2988,
      "Ġrandom": 2989,
      "Ġtre": 2990,
      "EC": 2991,
      "ĠIndian": 2992,
      "Ġable": 2993,
      "Ġproduced": 2994,
      "Ġproperty": 2995,
      "irm": 2996,
      "Ġhard": 2997,
      ",\"": 2998,
      "Ġang": 2999,
      "leg": 3000,
      "Ġson": 3001,
      "rec": 3002,
      "ĠChe": 3003,
      "ordin": 3004,
      "rig": 3005,
      "point": 3006,
      "Ġsite": 3007,
      "hood": 3008,
      "Ġbehav": 3009,
      "ulations": 3010,
      "Ġbelie": 3011,
      "return": 3012,
      "Ġmer": 3013,
      "Ġcreated": 3014,
      "Ġstudents": 3015,
      "oyal": 3016,
      "Ã³": 3017,
      "Val": 3018,
      "Ġalways": 3019,
      "Ġnorth": 3020,
      "Ġround": 3021,
      "}_\\": 3022,
      "Ġcaus": 3023,
      "Ġagre": 3024,
      "ĠEngland": 3025,
      "Ġfri": 3026,
      "olic": 3027,
      "Ġcorre": 3028,
      "ecut": 3029,
      "Ġreview": 3030,
      "Ġhealth": 3031,
      "Ġrequire": 3032,
      "Ġmaking": 3033,
      "ĠHam": 3034,
      "}^\\": 3035,
      "Ġbo": 3036,
      "ply": 3037,
      "eh": 3038,
      "node": 3039,
      "Ġdays": 3040,
      "ceed": 3041,
      "Ġproperties": 3042,
      "aps": 3043,
      "1990": 3044,
      "plied": 3045,
      "Ġdou": 3046,
      "igen": 3047,
      "param": 3048,
      "AM": 3049,
      "ico": 3050,
      "Ġnormal": 3051,
      "mathsf": 3052,
      "gebra": 3053,
      "Ġclose": 3054,
      "hers": 3055,
      "Ġinvestig": 3056,
      "Ġemb": 3057,
      ",-": 3058,
      "Ġestablish": 3059,
      "Ġcy": 3060,
      "lo": 3061,
      "Ġinternational": 3062,
      "})\\": 3063,
      "appro": 3064,
      "ĠRiver": 3065,
      "Ġlate": 3066,
      "Ġconstruct": 3067,
      "Ġstarted": 3068,
      "cdots": 3069,
      "foot": 3070,
      "lands": 3071,
      "Ġpo": 3072,
      "artment": 3073,
      "Ġdegree": 3074,
      "hern": 3075,
      "uration": 3076,
      "ĠEast": 3077,
      "ĠDiv": 3078,
      "ransport": 3079,
      "Ġindust": 3080,
      "IS": 3081,
      "arc": 3082,
      "iding": 3083,
      "ĠChurch": 3084,
      "{{\\": 3085,
      "itz": 3086,
      "Ġworking": 3087,
      "itte": 3088,
      "Ġbroad": 3089,
      "Ġalready": 3090,
      "Ġfar": 3091,
      "Ġwent": 3092,
      "49": 3093,
      "Ġrelated": 3094,
      "ael": 3095,
      "66": 3096,
      "Ġtoo": 3097,
      "ĠVal": 3098,
      "Ġobserved": 3099,
      "Ġdire": 3100,
      "Ġmight": 3101,
      "Ġ=>": 3102,
      "}\\,": 3103,
      "opy": 3104,
      "Ġmulti": 3105,
      "Ġmeet": 3106,
      "ĠAc": 3107,
      "widehat": 3108,
      "189": 3109,
      "Ġinput": 3110,
      "iddle": 3111,
      "Ġgoing": 3112,
      "ander": 3113,
      "Ġmoment": 3114,
      "ĠTr": 3115,
      ")]": 3116,
      "Ġfather": 3117,
      "cle": 3118,
      "1998": 3119,
      "value": 3120,
      "ĠMore": 3121,
      "}|": 3122,
      "ĠSo": 3123,
      "Ġcoupl": 3124,
      "pect": 3125,
      "Ġmiss": 3126,
      "atives": 3127,
      "ension": 3128,
      "size": 3129,
      "Ġcertain": 3130,
      "Ġservices": 3131,
      "47": 3132,
      "Ġfig": 3133,
      "aches": 3134,
      "}}(": 3135,
      "ÃŃ": 3136,
      "lemma": 3137,
      "textwidth": 3138,
      "ellow": 3139,
      "sing": 3140,
      "nder": 3141,
      "Ġsett": 3142,
      "cy": 3143,
      "Ġactiv": 3144,
      "ĠFirst": 3145,
      "Ġsold": 3146,
      "Ġweek": 3147,
      "Ġequival": 3148,
      "ĠIndia": 3149,
      "Ġwhose": 3150,
      "wise": 3151,
      "Ġfuture": 3152,
      "Ġprovided": 3153,
      "now": 3154,
      "Ġlabel": 3155,
      "ĠParty": 3156,
      "Ġelements": 3157,
      "IT": 3158,
      "rated": 3159,
      "##": 3160,
      "Ġsche": 3161,
      "Ġengine": 3162,
      "medi": 3163,
      "Ġappe": 3164,
      "ĠAustralia": 3165,
      "ĠEuropean": 3166,
      "Sc": 3167,
      "Ġsurface": 3168,
      "Ġsom": 3169,
      "ĠCouncil": 3170,
      "Ġzero": 3171,
      "ĠÃ": 3172,
      "Ġexpected": 3173,
      "Ġparticip": 3174,
      "Ġsouth": 3175,
      "izing": 3176,
      "ĠBer": 3177,
      "Ġreported": 3178,
      "Ġvillage": 3179,
      "Ġrat": 3180,
      "Ġvideo": 3181,
      "Ġfactor": 3182,
      "Ġ!": 3183,
      "Ġaccording": 3184,
      "ccording": 3185,
      "^+": 3186,
      "Ġ\\{": 3187,
      "&=": 3188,
      "Ġdefine": 3189,
      "cis": 3190,
      "Ġperm": 3191,
      "Ġelse": 3192,
      "Ġmoved": 3193,
      "ributions": 3194,
      "Ġexists": 3195,
      "inated": 3196,
      "ĠPal": 3197,
      "Ġimplement": 3198,
      "Ġlarger": 3199,
      "Ġcompar": 3200,
      "LE": 3201,
      "Ġrequired": 3202,
      "raint": 3203,
      "small": 3204,
      "qquad": 3205,
      "')": 3206,
      "uf": 3207,
      "year": 3208,
      "Ġbegin": 3209,
      "Ġnode": 3210,
      "Ġpredict": 3211,
      "irl": 3212,
      "Ġtarget": 3213,
      "Ġothers": 3214,
      "ounter": 3215,
      "Ã¼": 3216,
      "\"/": 3217,
      "ili": 3218,
      "ership": 3219,
      "Psi": 3220,
      "Ġlo": 3221,
      "gen": 3222,
      "mark": 3223,
      "Ġpresident": 3224,
      "Ġunit": 3225,
      "Ġben": 3226,
      "ĠSim": 3227,
      "ulated": 3228,
      "Ġnull": 3229,
      "ava": 3230,
      "Ġstep": 3231,
      "Ġhapp": 3232,
      "Ġviol": 3233,
      "Ġwind": 3234,
      "van": 3235,
      "Ġship": 3236,
      "arning": 3237,
      "ĠHol": 3238,
      "ĠCanada": 3239,
      "lor": 3240,
      "ĠAward": 3241,
      "aves": 3242,
      "Ġinflu": 3243,
      "AP": 3244,
      "Ġclust": 3245,
      "itch": 3246,
      "cup": 3247,
      "ĠâĢĺ": 3248,
      "ĠDr": 3249,
      "andid": 3250,
      "quare": 3251,
      "ota": 3252,
      "Ġnecess": 3253,
      "Ġaward": 3254,
      "People": 3255,
      "New": 3256,
      "ults": 3257,
      "ires": 3258,
      "atrix": 3259,
      "ĠFigure": 3260,
      "Ġoffer": 3261,
      "Ġsimple": 3262,
      "Ġpress": 3263,
      "Ġreason": 3264,
      "stitute": 3265,
      "Living": 3266,
      "Ġfem": 3267,
      "Ġnatural": 3268,
      "ĠSm": 3269,
      "Ġdistance": 3270,
      "Ġmilitary": 3271,
      "Ġwhether": 3272,
      "ha": 3273,
      "ĠAp": 3274,
      "Ġexact": 3275,
      "Ġdest": 3276,
      "uel": 3277,
      "}^{(": 3278,
      "Ġlanguage": 3279,
      "78": 3280,
      "Ġaway": 3281,
      "Ġexperiment": 3282,
      "Ġattempt": 3283,
      "mon": 3284,
      "Ġbackground": 3285,
      "Ġmem": 3286,
      "Ġconstruction": 3287,
      "Ġrather": 3288,
      "iting": 3289,
      "Ġadditional": 3290,
      "Ġrecogn": 3291,
      "\")": 3292,
      "ocr": 3293,
      "Ġscale": 3294,
      "Ġliter": 3295,
      "Ġfixed": 3296,
      "1997": 3297,
      "racy": 3298,
      "08": 3299,
      "Ġannounced": 3300,
      "Ġspin": 3301,
      "Ġprobability": 3302,
      "rote": 3303,
      "Ġ$(\\": 3304,
      "68": 3305,
      "At": 3306,
      "Ġcentral": 3307,
      "Ġpopular": 3308,
      "Ġpast": 3309,
      "mar": 3310,
      "ĠPaul": 3311,
      "edd": 3312,
      "ĠSen": 3313,
      "Int": 3314,
      "ills": 3315,
      "sel": 3316,
      "anies": 3317,
      "like": 3318,
      "itting": 3319,
      "ashington": 3320,
      "earch": 3321,
      "ĠJames": 3322,
      "Ġeval": 3323,
      "translation": 3324,
      "gress": 3325,
      "ĠĠĠĠĠĠĠĠĠĠĠĠĠ": 3326,
      "utes": 3327,
      "}\\\\": 3328,
      "ney": 3329,
      "ĠMy": 3330,
      "ĠBel": 3331,
      "ping": 3332,
      "ĠGeneral": 3333,
      "ĠStud": 3334,
      "ĠFrance": 3335,
      "ĠFrom": 3336,
      "Ġdeveloped": 3337,
      "Ġworked": 3338,
      "king": 3339,
      "istics": 3340,
      "Ġquantum": 3341,
      "Ġanaly": 3342,
      "band": 3343,
      "1996": 3344,
      "Ġpay": 3345,
      "ĠCenter": 3346,
      "oms": 3347,
      "pdf": 3348,
      "effic": 3349,
      "Ġsequence": 3350,
      "cell": 3351,
      "ĠArmy": 3352,
      "Ġstring": 3353,
      "],": 3354,
      "2022": 3355,
      "DE": 3356,
      "icol": 3357,
      "ained": 3358,
      "raction": 3359,
      "ĠCourt": 3360,
      "Ġcontains": 3361,
      "Ġpur": 3362,
      "Ġgalax": 3363,
      "ville": 3364,
      "Ġneigh": 3365,
      "down": 3366,
      "ĠRober": 3367,
      "There": 3368,
      "Ġperformed": 3369,
      "que": 3370,
      "1980": 3371,
      "xspace": 3372,
      "ĠDem": 3373,
      "ections": 3374,
      "Ġleading": 3375,
      "History": 3376,
      "icult": 3377,
      "Ġrank": 3378,
      "function": 3379,
      "berg": 3380,
      "Ġsubject": 3381,
      "Ġalmost": 3382,
      "Ġcome": 3383,
      "ein": 3384,
      "Ġtreat": 3385,
      "Ġmarket": 3386,
      "more": 3387,
      "data": 3388,
      "aign": 3389,
      "rim": 3390,
      "Ġconduct": 3391,
      "({\\": 3392,
      "Ġonce": 3393,
      "ago": 3394,
      "SE": 3395,
      "\"/>": 3396,
      "Ġmale": 3397,
      "07": 3398,
      "Ġentire": 3399,
      "ĠOlymp": 3400,
      "prop": 3401,
      "Ġcut": 3402,
      "Ġareas": 3403,
      "rab": 3404,
      "ĠLaw": 3405,
      "Ġfields": 3406,
      "group": 3407,
      "Ġfalse": 3408,
      "Ġtemperature": 3409,
      "icles": 3410,
      "ĠMor": 3411,
      "ĠLemma": 3412,
      "ittee": 3413,
      "elling": 3414,
      "Ġtherefore": 3415,
      "Ġbody": 3416,
      "ĠChina": 3417,
      "ĠAnt": 3418,
      "orthern": 3419,
      "bsite": 3420,
      "indent": 3421,
      "ĠThom": 3422,
      "Ġtrack": 3423,
      "After": 3424,
      "ĠStreet": 3425,
      "04": 3426,
      "Ġgives": 3427,
      "ken": 3428,
      "02": 3429,
      "ervice": 3430,
      "Ġtry": 3431,
      "rael": 3432,
      "ĠDavid": 3433,
      "irt": 3434,
      "ĠThat": 3435,
      "Ġoperator": 3436,
      "bert": 3437,
      "Ġassume": 3438,
      "Ġdeaths": 3439,
      "AA": 3440,
      "Ġhon": 3441,
      "Ġlearning": 3442,
      "Ġbig": 3443,
      "Ġenough": 3444,
      "vey": 3445,
      "state": 3446,
      "ened": 3447,
      "With": 3448,
      "CO": 3449,
      "ederal": 3450,
      "Ġstre": 3451,
      "Ġunderstand": 3452,
      "atory": 3453,
      "ĠMal": 3454,
      "thern": 3455,
      "arily": 3456,
      "ĠMark": 3457,
      "ĉĊ": 3458,
      "citet": 3459,
      "equiv": 3460,
      "oud": 3461,
      "ya": 3462,
      "Le": 3463,
      "Ad": 3464,
      "Ġdiag": 3465,
      "map": 3466,
      "skip": 3467,
      "fo": 3468,
      "ĠGeorge": 3469,
      "Ġpresented": 3470,
      "Ġeducation": 3471,
      "ĠÂ": 3472,
      "Ġeffects": 3473,
      "my": 3474,
      "Ġcateg": 3475,
      "Ġprinc": 3476,
      "uit": 3477,
      "ender": 3478,
      "ĠPort": 3479,
      "CC": 3480,
      "ĠDi": 3481,
      "outhern": 3482,
      "oe": 3483,
      "67": 3484,
      "Ġepis": 3485,
      "Ġinstead": 3486,
      "Ġpan": 3487,
      "1995": 3488,
      "ĠThus": 3489,
      "09": 3490,
      "Ġvar": 3491,
      "De": 3492,
      "Ġfil": 3493,
      "Ġdecl": 3494,
      "ky": 3495,
      "Ġexpect": 3496,
      "Ġclear": 3497,
      "imate": 3498,
      "Ġintroduced": 3499,
      "}:": 3500,
      "note": 3501,
      "Ġspecific": 3502,
      "ams": 3503,
      "Ġlive": 3504,
      "ranch": 3505,
      "ensive": 3506,
      "Ġappoint": 3507,
      "03": 3508,
      "Ġwrote": 3509,
      "iform": 3510,
      "ĠRich": 3511,
      "Ġarchitect": 3512,
      "astic": 3513,
      ".)": 3514,
      "dimens": 3515,
      "ĠRoman": 3516,
      "Ġcontract": 3517,
      "Ġboundary": 3518,
      "ĠAssociation": 3519,
      "Ġbasis": 3520,
      "atively": 3521,
      "Ġglobal": 3522,
      "Ġdone": 3523,
      "Ġclosed": 3524,
      "Ġ&\\": 3525,
      "onic": 3526,
      "reek": 3527,
      "Ġdirector": 3528,
      "known": 3529,
      "ariant": 3530,
      "Ġgradu": 3531,
      "Ġ==": 3532,
      "Ġoccur": 3533,
      "ĠRed": 3534,
      "}}{\\": 3535,
      "alls": 3536,
      "Ġ&&": 3537,
      "ĠWashington": 3538,
      "Ġrespons": 3539,
      ")-": 3540,
      "star": 3541,
      "06": 3542,
      "Ġparty": 3543,
      "ĠDepartment": 3544,
      "Ġblock": 3545,
      "alle": 3546,
      "Ġcontext": 3547,
      "iers": 3548,
      "hspace": 3549,
      "Ġcannot": 3550,
      "Ġsens": 3551,
      "]$": 3552,
      "ilton": 3553,
      "Ġstars": 3554,
      "ĠUnion": 3555,
      "Ġbreak": 3556,
      "igned": 3557,
      "hel": 3558,
      "fill": 3559,
      "mid": 3560,
      "Ġenvironment": 3561,
      "icro": 3562,
      "rd": 3563,
      "ountain": 3564,
      "ctor": 3565,
      "Ġrev": 3566,
      "Ġcenter": 3567,
      "Ġequations": 3568,
      "ĠQue": 3569,
      "ains": 3570,
      "Ġgas": 3571,
      "Ġmechan": 3572,
      "Ġmultiple": 3573,
      "eloc": 3574,
      "Ġtaking": 3575,
      "asons": 3576,
      "Ġcle": 3577,
      "ario": 3578,
      "ani": 3579,
      "ipal": 3580,
      "aged": 3581,
      "Ġpolitic": 3582,
      "Ġmid": 3583,
      "ottom": 3584,
      "46": 3585,
      "1994": 3586,
      "Ġarr": 3587,
      "Ġeffective": 3588,
      "Ġcandid": 3589,
      "rup": 3590,
      "Ġlittle": 3591,
      "riate": 3592,
      "Ob": 3593,
      "Ġcomplete": 3594,
      "umbers": 3595,
      "ids": 3596,
      "operat": 3597,
      "ĠIm": 3598,
      "Ġstrateg": 3599,
      "string": 3600,
      "Ġholds": 3601,
      "58": 3602,
      "Ġdebut": 3603,
      "Ġprior": 3604,
      "wood": 3605,
      "plicit": 3606,
      "Ġtradition": 3607,
      "ĠHall": 3608,
      "}+\\": 3609,
      "Ġsays": 3610,
      "Mod": 3611,
      "Ġsuccessful": 3612,
      "Ġincrease": 3613,
      "Ġincludes": 3614,
      "Ġradio": 3615,
      "Ġhor": 3616,
      "Ġcollection": 3617,
      "ida": 3618,
      "Ġmag": 3619,
      "operatorn": 3620,
      "Ġparent": 3621,
      "Ġcode": 3622,
      "eal": 3623,
      "ĠSum": 3624,
      "ming": 3625,
      "Ġchanges": 3626,
      "|^": 3627,
      "ores": 3628,
      "Ġedge": 3629,
      "load": 3630,
      "Ġlost": 3631,
      "Ġconv": 3632,
      "ledge": 3633,
      "Ġcorrel": 3634,
      "ttps": 3635,
      "mary": 3636,
      "neq": 3637,
      "oul": 3638,
      "Ġroad": 3639,
      "Ġreturned": 3640,
      "eck": 3641,
      "Ġchurch": 3642,
      "ĠPat": 3643,
      "operatorname": 3644,
      "rian": 3645,
      "Ġregard": 3646,
      "Ġid": 3647,
      "All": 3648,
      "unn": 3649,
      "ĠGroup": 3650,
      "From": 3651,
      "ooth": 3652,
      "ishing": 3653,
      "ĠLou": 3654,
      "Ġdifficult": 3655,
      "ributed": 3656,
      "Se": 3657,
      "from": 3658,
      "ĠRef": 3659,
      "pon": 3660,
      "ĠBlack": 3661,
      "Ġlearn": 3662,
      "Ġweight": 3663,
      "ying": 3664,
      "Ġamount": 3665,
      "Ġcourse": 3666,
      "urrent": 3667,
      "Ġdenote": 3668,
      "98": 3669,
      "Ġmedia": 3670,
      "itude": 3671,
      "ĠGermany": 3672,
      "Ġpers": 3673,
      "ĠRoyal": 3674,
      "77": 3675,
      "Ġrights": 3676,
      "ele": 3677,
      "ĠOb": 3678,
      "ribute": 3679,
      "scr": 3680,
      "raz": 3681,
      "ully": 3682,
      "Ġcompared": 3683,
      "1992": 3684,
      "Ġquestion": 3685,
      "alian": 3686,
      "Ġsample": 3687,
      "Ġdefinition": 3688,
      "Ge": 3689,
      "Ġpercent": 3690,
      "ES": 3691,
      "ĠCont": 3692,
      "Ġstage": 3693,
      "Ġreally": 3694,
      "Ġmarried": 3695,
      "Ġsets": 3696,
      "Ġaccept": 3697,
      "500": 3698,
      "ades": 3699,
      "1970": 3700,
      "Ġalthough": 3701,
      "Ġchall": 3702,
      "ites": 3703,
      "ĠMa": 3704,
      "Ġjoined": 3705,
      "Ġcapt": 3706,
      "unity": 3707,
      "Ġresponse": 3708,
      "test": 3709,
      "'$": 3710,
      "Ġmatter": 3711,
      "Ġnovel": 3712,
      "Ġrac": 3713,
      "pen": 3714,
      "Wh": 3715,
      "Ġtransfer": 3716,
      "ĠList": 3717,
      "den": 3718,
      "ston": 3719,
      "ĠDef": 3720,
      "asc": 3721,
      "ĠDon": 3722,
      "Ġvict": 3723,
      "Ġcourt": 3724,
      "42": 3725,
      "Ġsuff": 3726,
      "Ġcreate": 3727,
      "rast": 3728,
      "ked": 3729,
      "Ġindex": 3730,
      "Ġequal": 3731,
      "Ġstudies": 3732,
      "Since": 3733,
      "Ġpolicy": 3734,
      "actions": 3735,
      "Ġinterp": 3736,
      "Ġadded": 3737,
      "}-\\": 3738,
      "umerate": 3739,
      "Ġdocument": 3740,
      "Ġveloc": 3741,
      "tact": 3742,
      "theorem": 3743,
      "Ġ-\\": 3744,
      "Ġdirection": 3745,
      "âĢ¦": 3746,
      "scale": 3747,
      "ĠJew": 3748,
      "ĠDivision": 3749,
      "ĠNe": 3750,
      "Ġtax": 3751,
      "ecially": 3752,
      "Ã¶": 3753,
      "la": 3754,
      "ED": 3755,
      "ocal": 3756,
      "Ġproblems": 3757,
      "ands": 3758,
      "Ġcompanies": 3759,
      "ĠEm": 3760,
      "edge": 3761,
      "ean": 3762,
      "ĠÐ": 3763,
      "Ġoffice": 3764,
      "Ġrelease": 3765,
      "Ġrelationship": 3766,
      "Ġcolor": 3767,
      "Ġkind": 3768,
      "Ġdeal": 3769,
      "ĠInstitute": 3770,
      "Cont": 3771,
      "ibrary": 3772,
      "Rec": 3773,
      "dag": 3774,
      "onal": 3775,
      "iew": 3776,
      ")}{": 3777,
      "ump": 3778,
      "Ġdatas": 3779,
      "ĠĠĠĠĊ": 3780,
      "Ġshall": 3781,
      "ura": 3782,
      "1993": 3783,
      "Ġprovides": 3784,
      "izes": 3785,
      "Ġcontinued": 3786,
      "tic": 3787,
      "Ġsound": 3788,
      "Ġrail": 3789,
      "Ġmonths": 3790,
      "Ġupon": 3791,
      "Data": 3792,
      "Ġweak": 3793,
      "||": 3794,
      "ĠMart": 3795,
      "ĠMod": 3796,
      "Ġten": 3797,
      "Ġnote": 3798,
      "Ġrequest": 3799,
      "verse": 3800,
      "Ġvoid": 3801,
      "Ġkeep": 3802,
      "ĠGreen": 3803,
      "Ġtransform": 3804,
      "Ġadminist": 3805,
      "ini": 3806,
      "Ġconstraint": 3807,
      "43": 3808,
      "ĠArch": 3809,
      "enumerate": 3810,
      "Ġprop": 3811,
      "Ġitself": 3812,
      "Ġgoal": 3813,
      "Ġgrad": 3814,
      "Ġlargest": 3815,
      "ĠCompany": 3816,
      "aching": 3817,
      "Def": 3818,
      "ĠPress": 3819,
      "Ġforce": 3820,
      "Ġcoordin": 3821,
      "cing": 3822,
      "change": 3823,
      "util": 3824,
      "ĠCong": 3825,
      "roid": 3826,
      "Ġsoft": 3827,
      "www": 3828,
      "Ġconfig": 3829,
      "----------------": 3830,
      "ises": 3831,
      "Ġprofessional": 3832,
      "dimensional": 3833,
      "ports": 3834,
      "isk": 3835,
      "ĠGod": 3836,
      "Ġfront": 3837,
      "Ġdemon": 3838,
      "Ġmetric": 3839,
      "ĠMary": 3840,
      "pre": 3841,
      "mit": 3842,
      "icture": 3843,
      "Ġsolutions": 3844,
      "ĠIsrael": 3845,
      "gcolor": 3846,
      "istry": 3847,
      "(-": 3848,
      "Ġmakes": 3849,
      "Bl": 3850,
      "ĠMusic": 3851,
      "used": 3852,
      "Ġcheck": 3853,
      "ustom": 3854,
      "nce": 3855,
      "Ġdefe": 3856,
      "Ġmagnetic": 3857,
      "ĠCons": 3858,
      "ething": 3859,
      "Ġcountries": 3860,
      "ĠBay": 3861,
      "ĠDuring": 3862,
      "Ġ()": 3863,
      "isions": 3864,
      "encies": 3865,
      "omorphism": 3866,
      "Ġimplies": 3867,
      "And": 3868,
      "Ġinstance": 3869,
      "Ġcampaign": 3870,
      "\\,\\": 3871,
      "$}": 3872,
      "Im": 3873,
      "Ġearli": 3874,
      "cial": 3875,
      "Ġeffic": 3876,
      "thing": 3877,
      "Ġimages": 3878,
      "dt": 3879,
      "edy": 3880,
      "Ġesp": 3881,
      "Ġwords": 3882,
      "ĠAustralian": 3883,
      "Ġrot": 3884,
      "ĠRobert": 3885,
      "Ġnuc": 3886,
      "Ġopened": 3887,
      "that": 3888,
      "\"><": 3889,
      "ĠMex": 3890,
      "ĠWhile": 3891,
      "Ġsongs": 3892,
      "Ġdifference": 3893,
      "uments": 3894,
      "inese": 3895,
      "ĠBr": 3896,
      "olar": 3897,
      "han": 3898,
      "Ġrestrict": 3899,
      ")}$": 3900,
      "~$": 3901,
      "Ġ%": 3902,
      "noindent": 3903,
      "Ġfram": 3904,
      "Ġparts": 3905,
      "Ġwrite": 3906,
      "ĠAcadem": 3907,
      "Ġincreasing": 3908,
      "Ġwebsite": 3909,
      "ession": 3910,
      "57": 3911,
      "Ġprove": 3912,
      "list": 3913,
      "Ġinvolved": 3914,
      "Ġmodern": 3915,
      "][": 3916,
      "ĠMr": 3917,
      "Ġassist": 3918,
      "Ġjud": 3919,
      "ĠVol": 3920,
      "Ġcomponent": 3921,
      "Ġgot": 3922,
      "Ġcontent": 3923,
      "alled": 3924,
      "ager": 3925,
      "ously": 3926,
      "Ġalgebra": 3927,
      "Ġaud": 3928,
      "Ġrepresentation": 3929,
      "ĠInter": 3930,
      "Ġdirectly": 3931,
      "osen": 3932,
      "Ġmother": 3933,
      "Ġqual": 3934,
      "uz": 3935,
      "Ġformed": 3936,
      "bre": 3937,
      "fficient": 3938,
      "Ġsources": 3939,
      "Ġver": 3940,
      "Ġbrother": 3941,
      "41": 3942,
      "Ġteams": 3943,
      "Ġcolumn": 3944,
      "liament": 3945,
      "Ġflu": 3946,
      "ĠUK": 3947,
      "Ġund": 3948,
      "1991": 3949,
      "].": 3950,
      "Ġphysical": 3951,
      "ka": 3952,
      "gs": 3953,
      "Ġdaugh": 3954,
      "Ġbecomes": 3955,
      "itemize": 3956,
      "Ġfav": 3957,
      "Ġrelation": 3958,
      "Ġadj": 3959,
      "mathscr": 3960,
      "]\\": 3961,
      "atal": 3962,
      "Ġcoeffic": 3963,
      "97": 3964,
      "iments": 3965,
      "Ġoutput": 3966,
      "PS": 3967,
      "Ġpe": 3968,
      "FF": 3969,
      "Ġgenerated": 3970,
      "Ġdepart": 3971,
      "Ġconstit": 3972,
      "Ġwife": 3973,
      "erve": 3974,
      "ria": 3975,
      "ĠSociety": 3976,
      "unt": 3977,
      "Ġsmaller": 3978,
      "Par": 3979,
      "ĠVir": 3980,
      "ched": 3981,
      "ĠCath": 3982,
      "ework": 3983,
      "Ġbgcolor": 3984,
      "level": 3985,
      "ĠTV": 3986,
      "}}}": 3987,
      "Ġpaint": 3988,
      "Ġissues": 3989,
      "Ġcompleted": 3990,
      "Ġupper": 3991,
      "Ġhimself": 3992,
      "Ġliving": 3993,
      "ĠNor": 3994,
      "Ġmove": 3995,
      "px": 3996,
      "rate": 3997,
      "Ġacqu": 3998,
      "Ġmention": 3999,
      "Ġtakes": 4000,
      "Ġrelig": 4001,
      "clusion": 4002,
      "auge": 4003,
      "Ġdirected": 4004,
      "Ġwave": 4005,
      "Ġwhite": 4006,
      "rey": 4007,
      "Ġtransition": 4008,
      "ĠJack": 4009,
      "aring": 4010,
      "approx": 4011,
      "ĠHen": 4012,
      "Ġdiscover": 4013,
      "ios": 4014,
      "56": 4015,
      "ectors": 4016,
      "opl": 4017,
      "Ġimpact": 4018,
      "Ġmaximum": 4019,
      "arter": 4020,
      "Ġrecorded": 4021,
      "Ġthroughout": 4022,
      "ĠAngel": 4023,
      "Ġissue": 4024,
      "Ġnumbers": 4025,
      "Ġevolution": 4026,
      "ĠAfrican": 4027,
      "Set": 4028,
      "nes": 4029,
      "ares": 4030,
      "ows": 4031,
      "enced": 4032,
      "estival": 4033,
      "Ġelectron": 4034,
      "izations": 4035,
      "asket": 4036,
      "spec": 4037,
      "ensor": 4038,
      "book": 4039,
      "ĠGo": 4040,
      "AD": 4041,
      "Ġunivers": 4042,
      "********": 4043,
      "Ġapplied": 4044,
      "bound": 4045,
      "Ġyield": 4046,
      "file": 4047,
      "Ġunique": 4048,
      "ancial": 4049,
      "inst": 4050,
      "inite": 4051,
      "Ġscen": 4052,
      "Ġrow": 4053,
      "oke": 4054,
      "light": 4055,
      "Ġconver": 4056,
      "ĠTra": 4057,
      "}}_": 4058,
      "ensus": 4059,
      "Ġaddress": 4060,
      "vspace": 4061,
      "ĠAfrica": 4062,
      "Ġfollowed": 4063,
      "Ġjob": 4064,
      "Ġuser": 4065,
      "96": 4066,
      "long": 4067,
      "Ġrace": 4068,
      "board": 4069,
      "ĠĠĠĠĠĠĠĠĠĠĠĠĠĠĠĠĠĠĠĠĠĠĠ": 4070,
      "Ġremov": 4071,
      "ĠTur": 4072,
      "hest": 4073,
      "Pi": 4074,
      "Ġess": 4075,
      "roy": 4076,
      "Ġlikely": 4077,
      "angle": 4078,
      "Ġcomponents": 4079,
      "ĠTex": 4080,
      "ĠRoad": 4081,
      "ees": 4082,
      "writ": 4083,
      "Ġerr": 4084,
      "Ġofficial": 4085,
      "umni": 4086,
      "Ġindu": 4087,
      "ental": 4088,
      "Ġdecision": 4089,
      "\\}$": 4090,
      "itar": 4091,
      "ĠCanadian": 4092,
      "Ġthings": 4093,
      "oz": 4094,
      "Ġdesigned": 4095,
      "Ġ:=": 4096,
      "iation": 4097,
      "Ġspectrum": 4098,
      "ilies": 4099,
      "Ġexhib": 4100,
      "Ġoptim": 4101,
      "Ġren": 4102,
      "Ġespecially": 4103,
      "Ġoutside": 4104,
      "burg": 4105,
      "ĠChristian": 4106,
      "1960": 4107,
      "Ġsignal": 4108,
      "ingu": 4109,
      "Ġactive": 4110,
      "1989": 4111,
      "88": 4112,
      "($": 4113,
      "ĠClub": 4114,
      "Ġschools": 4115,
      "Ġstudied": 4116,
      "ĠRev": 4117,
      "ospital": 4118,
      "ĠTherefore": 4119,
      "olit": 4120,
      "Ġcritical": 4121,
      "Ġfight": 4122,
      "ĠInt": 4123,
      "ĠDirect": 4124,
      "ĠSing": 4125,
      "Ġeight": 4126,
      "refer": 4127,
      "Ġboard": 4128,
      "ĠProv": 4129,
      "multicol": 4130,
      "LL": 4131,
      "IM": 4132,
      "Ġvalid": 4133,
      "acc": 4134,
      "Ġusually": 4135,
      "OS": 4136,
      "iences": 4137,
      "Ġsigned": 4138,
      "Ġexecut": 4139,
      "187": 4140,
      "ansion": 4141,
      "ĠMiss": 4142,
      "ker": 4143,
      "ĠIsland": 4144,
      "Ġstop": 4145,
      "CD": 4146,
      "Ġcurrently": 4147,
      "Ġtable": 4148,
      "US": 4149,
      "Ġstri": 4150,
      "ĠEar": 4151,
      "Ġtheorem": 4152,
      "ĠKingdom": 4153,
      "ĠCentral": 4154,
      "Ġ_{": 4155,
      "Ġever": 4156,
      "multicolumn": 4157,
      "ĠCap": 4158,
      "Ġneut": 4159,
      "Ġforces": 4160,
      "ĠWhite": 4161,
      "ĠMuseum": 4162,
      "Ġappeared": 4163,
      "ona": 4164,
      "ĠDo": 4165,
      "Not": 4166,
      "Ġter": 4167,
      "ĠGreat": 4168,
      "Ġsearch": 4169,
      "Ġpeak": 4170,
      "Ġfire": 4171,
      "Ġimm": 4172,
      "Is": 4173,
      "Ġdraw": 4174,
      "isation": 4175,
      "Ġnom": 4176,
      "Value": 4177,
      "Ġsubsequ": 4178,
      "ait": 4179,
      "ĠRad": 4180,
      "ĠMet": 4181,
      "ĠLeg": 4182,
      "Ġtoday": 4183,
      "ns": 4184,
      "ĠGold": 4185,
      "ĠRussian": 4186,
      "1988": 4187,
      "dist": 4188,
      "Ġremains": 4189,
      "Ġhous": 4190,
      "ala": 4191,
      "Ġeigen": 4192,
      "gence": 4193,
      "Ġbenef": 4194,
      "Ġbooks": 4195,
      "^-": 4196,
      "ĠBo": 4197,
      "Ġchannel": 4198,
      ")+": 4199,
      "embly": 4200,
      "Ġbox": 4201,
      "MS": 4202,
      "Ġdecre": 4203,
      "split": 4204,
      "Ġupd": 4205,
      "{$": 4206,
      "http": 4207,
      "index": 4208,
      "Ġrock": 4209,
      "Ġtro": 4210,
      "Ġexperience": 4211,
      "ĠMichael": 4212,
      "One": 4213,
      "Ġdetermined": 4214,
      "allel": 4215,
      "anks": 4216,
      "turb": 4217,
      "ET": 4218,
      "85": 4219,
      "Ġinsp": 4220,
      "antic": 4221,
      "Ġsomething": 4222,
      "Te": 4223,
      "Ġregions": 4224,
      "can": 4225,
      "When": 4226,
      "Ġreve": 4227,
      "Ġplaying": 4228,
      "Ġinstit": 4229,
      "Ġwhole": 4230,
      "ms": 4231,
      "Ġtypes": 4232,
      "Ġlot": 4233,
      "Ġbehavior": 4234,
      "ĠSystem": 4235,
      "Ġevidence": 4236,
      "textrm": 4237,
      "Ġgave": 4238,
      "Ġchoice": 4239,
      "Ġstatic": 4240,
      "Ġbar": 4241,
      "Ġcast": 4242,
      "Ġallowed": 4243,
      "inct": 4244,
      "ĠTown": 4245,
      "Ġsense": 4246,
      "Ġuses": 4247,
      "Ġcharg": 4248,
      "usion": 4249,
      "tra": 4250,
      "ynom": 4251,
      "ĠBest": 4252,
      "body": 4253,
      "ĠThomas": 4254,
      "ĠMad": 4255,
      "Ġcivil": 4256,
      "init": 4257,
      "overs": 4258,
      "Ġkm": 4259,
      "Ġwidth": 4260,
      "hi": 4261,
      "ĠNot": 4262,
      "eline": 4263,
      "Ġmoney": 4264,
      "path": 4265,
      "ĠAlex": 4266,
      "ĠSl": 4267,
      "];": 4268,
      "Ġvariables": 4269,
      "Ġestimate": 4270,
      "NN": 4271,
      "Ġaccom": 4272,
      "ĠYear": 4273,
      "Ġvelocity": 4274,
      "Ġaltern": 4275,
      "Ġconclud": 4276,
      "ĠScott": 4277,
      "Ġconnected": 4278,
      "well": 4279,
      "Ġidea": 4280,
      "Ġmaterial": 4281,
      "Ġcommunic": 4282,
      "Ġdemonstr": 4283,
      "Ġstructures": 4284,
      "RO": 4285,
      "Ġobjects": 4286,
      "Ġoperations": 4287,
      "Ġord": 4288,
      "bour": 4289,
      "Qu": 4290,
      "\");": 4291,
      "Ġimmedi": 4292,
      "Ġunits": 4293,
      "ought": 4294,
      "ĠJust": 4295,
      "linear": 4296,
      "selves": 4297,
      "ĠWestern": 4298,
      "range": 4299,
      "otic": 4300,
      "display": 4301,
      "Ġelected": 4302,
      "Ġbirth": 4303,
      "Ġsupported": 4304,
      "Ġsex": 4305,
      "reme": 4306,
      "ĠGames": 4307,
      "59": 4308,
      "ena": 4309,
      "Ġtowards": 4310,
      "&&": 4311,
      "ĠFound": 4312,
      "Ġallows": 4313,
      "Ġillust": 4314,
      "olf": 4315,
      "Ġsaf": 4316,
      "Ġfall": 4317,
      "ĠMinister": 4318,
      "ging": 4319,
      "Ġlocation": 4320,
      "Ġfounded": 4321,
      "Ġtravel": 4322,
      "Ġ\\;": 4323,
      "ĠKore": 4324,
      "idents": 4325,
      "Ġselected": 4326,
      "Vert": 4327,
      "ĠOff": 4328,
      "Ġratio": 4329,
      "ĠSam": 4330,
      "Ġpolice": 4331,
      "Ġindustry": 4332,
      "ĠWil": 4333,
      "ĠHistor": 4334,
      "Ġequivalent": 4335,
      "Ġthought": 4336,
      "Ġdomain": 4337,
      "ĠTexas": 4338,
      "Ġnight": 4339,
      "Ġdetails": 4340,
      "ĠJapanese": 4341,
      "Ġnews": 4342,
      "Ð¾": 4343,
      "Ġadopt": 4344,
      "texttt": 4345,
      "SP": 4346,
      "Ð°": 4347,
      "ĠMat": 4348,
      "ĠDay": 4349,
      "ipp": 4350,
      "ĠAcademy": 4351,
      "Ġfit": 4352,
      "Ġadapt": 4353,
      "Ġlove": 4354,
      "ĠMont": 4355,
      "Ġmix": 4356,
      "Ġsetting": 4357,
      "{}": 4358,
      "Ġpreviously": 4359,
      "Ġgovern": 4360,
      "51": 4361,
      "ado": 4362,
      "Ġbehind": 4363,
      "atus": 4364,
      "Ġclassical": 4365,
      "Ġsus": 4366,
      "Ġneeded": 4367,
      "rish": 4368,
      "asketball": 4369,
      "Then": 4370,
      "Ġadm": 4371,
      "Ġword": 4372,
      "ĠRet": 4373,
      "54": 4374,
      "Ġtransport": 4375,
      "Ġemer": 4376,
      "Ġalbums": 4377,
      "ĠTable": 4378,
      "En": 4379,
      "Ġgeomet": 4380,
      "Ġspeed": 4381,
      "Ġprec": 4382,
      "ĠMus": 4383,
      "52": 4384,
      "Ġpack": 4385,
      "ĠGrand": 4386,
      "ĠScience": 4387,
      "Ġconcept": 4388,
      "hy": 4389,
      "acing": 4390,
      "ĠChinese": 4391,
      "Ġpersonal": 4392,
      "Ġappointed": 4393,
      "anning": 4394,
      "ĠLouis": 4395,
      "Ġdimension": 4396,
      "ĠSal": 4397,
      "ada": 4398,
      "Ġcharge": 4399,
      "ects": 4400,
      "}^{-": 4401,
      "oring": 4402,
      "ducation": 4403,
      "Ġsurv": 4404,
      "========": 4405,
      "Ġseven": 4406,
      "airs": 4407,
      "ĠDemocr": 4408,
      "Ġsimply": 4409,
      "ĠSome": 4410,
      "ening": 4411,
      "aging": 4412,
      "Ġactually": 4413,
      "Ġsil": 4414,
      "subseteq": 4415,
      "ki": 4416,
      "Ġfrequency": 4417,
      "azine": 4418,
      "di": 4419,
      "Ġwriting": 4420,
      "ĠCommission": 4421,
      "Ġdam": 4422,
      "Ġfile": 4423,
      "Ġ\\|": 4424,
      "53": 4425,
      "Ġconcern": 4426,
      "requ": 4427,
      "auss": 4428,
      "Ġrelative": 4429,
      "ĠRepublic": 4430,
      "Ġcorrect": 4431,
      "Note": 4432,
      "Ġstreng": 4433,
      "rief": 4434,
      "rep": 4435,
      "ĠMag": 4436,
      "Ġtask": 4437,
      "Ġprimary": 4438,
      "ĠBook": 4439,
      "ĠCarol": 4440,
      "Ġtour": 4441,
      "1987": 4442,
      "Ġyet": 4443,
      "Ġjournal": 4444,
      "hand": 4445,
      "rror": 4446,
      "nb": 4447,
      "Ġpattern": 4448,
      "ĠFilm": 4449,
      "Theta": 4450,
      "Ġresulting": 4451,
      "bigg": 4452,
      "ĠClass": 4453,
      "ometimes": 4454,
      "Ġdram": 4455,
      "ds": 4456,
      "ĠVirgin": 4457,
      "69": 4458,
      "minus": 4459,
      "ĠNote": 4460,
      "Man": 4461,
      "ictor": 4462,
      "oice": 4463,
      "Ġdeep": 4464,
      "Ġrepresented": 4465,
      "Ġfeel": 4466,
      "Ġdate": 4467,
      "km": 4468,
      "Ġgauge": 4469,
      "ĠMer": 4470,
      "ocks": 4471,
      "Ġnecessary": 4472,
      "Ġlonger": 4473,
      "Ġinj": 4474,
      "}/": 4475,
      "acity": 4476,
      "ifying": 4477,
      "FA": 4478,
      "State": 4479,
      "fess": 4480,
      "isl": 4481,
      "Ġproced": 4482,
      "rices": 4483,
      "Ġded": 4484,
      "ĠNews": 4485,
      "inos": 4486,
      "IR": 4487,
      "west": 4488,
      "reater": 4489,
      "FL": 4490,
      "ĠTom": 4491,
      "Ġir": 4492,
      "ĠCharles": 4493,
      "Ġevalu": 4494,
      "unch": 4495,
      "Ġlatter": 4496,
      "amily": 4497,
      "Ġcommand": 4498,
      "Ġdaughter": 4499,
      "ĠBill": 4500,
      "Ġmus": 4501,
      "ols": 4502,
      "atform": 4503,
      "ersion": 4504,
      "){\\": 4505,
      "AB": 4506,
      "ln": 4507,
      "Ġeast": 4508,
      "Ġgenerally": 4509,
      "Ġstated": 4510,
      "tical": 4511,
      "ĠRecords": 4512,
      "Ġlimited": 4513,
      "Ġleague": 4514,
      "63": 4515,
      "Ġgrowth": 4516,
      "ĠHamilton": 4517,
      "icago": 4518,
      "arr": 4519,
      "ips": 4520,
      "1986": 4521,
      "ĠResearch": 4522,
      "Class": 4523,
      "Ġpractice": 4524,
      "ether": 4525,
      "bul": 4526,
      "Ġfriend": 4527,
      "ĠItalian": 4528,
      "Ġplaces": 4529,
      "location": 4530,
      "ĠBen": 4531,
      "Ġderiv": 4532,
      "taint": 4533,
      "Ġoccup": 4534,
      "underline": 4535,
      "reland": 4536,
      "Ġsufficient": 4537,
      "rought": 4538,
      "rupt": 4539,
      "ĠMac": 4540,
      "}'": 4541,
      "ollowing": 4542,
      "ĠSaint": 4543,
      "Ġwest": 4544,
      "Ġmaintain": 4545,
      "thlet": 4546,
      "xy": 4547,
      "length": 4548,
      "Ã¤": 4549,
      "rc": 4550,
      "Ġearlier": 4551,
      "Ġcapital": 4552,
      "ĠPet": 4553,
      "irit": 4554,
      "ĠCatholic": 4555,
      "shire": 4556,
      "rule": 4557,
      "Ġinterpret": 4558,
      "ircraft": 4559,
      "<\\": 4560,
      "Ġflux": 4561,
      "Ġscient": 4562,
      "ĠSur": 4563,
      "Ġrob": 4564,
      "Ġuncer": 4565,
      "ĠFrancis": 4566,
      "Ġ$\\{": 4567,
      "url": 4568,
      "vention": 4569,
      "Ġsaw": 4570,
      "atur": 4571,
      "ayer": 4572,
      "Ġmar": 4573,
      "rial": 4574,
      "bo": 4575,
      "1984": 4576,
      "Ġdig": 4577,
      "ĠDan": 4578,
      "elt": 4579,
      "Ġrule": 4580,
      "footnote": 4581,
      "Sup": 4582,
      "));": 4583,
      "Ġdouble": 4584,
      "attice": 4585,
      "ests": 4586,
      "Ġuniform": 4587,
      "Ġpresence": 4588,
      "Ġstaff": 4589,
      "ita": 4590,
      "Ġarticle": 4591,
      "ĠApp": 4592,
      "Key": 4593,
      "Ġnature": 4594,
      "rice": 4595,
      "ĠTrans": 4596,
      "aur": 4597,
      "Ġrunning": 4598,
      "unk": 4599,
      "ĠZeal": 4600,
      "Ġkilled": 4601,
      "ĠFore": 4602,
      "Ġ/**": 4603,
      "ĠSmith": 4604,
      "Ġlevels": 4605,
      "ĠHistory": 4606,
      "Ġcred": 4607,
      "ĠCO": 4608,
      "ĠWork": 4609,
      "ners": 4610,
      "norm": 4611,
      "Ġwhy": 4612,
      "Form": 4613,
      "Ġguitar": 4614,
      "command": 4615,
      "ĠFrank": 4616,
      "Ġappears": 4617,
      "war": 4618,
      "ros": 4619,
      "erman": 4620,
      "ĠRail": 4621,
      "Or": 4622,
      "model": 4623,
      "Ġcomes": 4624,
      "Ġintegral": 4625,
      "lam": 4626,
      "Ġtree": 4627,
      "ameter": 4628,
      "Pr": 4629,
      "Ġexpand": 4630,
      "Ġexpression": 4631,
      "Object": 4632,
      "atre": 4633,
      "Ġonline": 4634,
      "ogle": 4635,
      "Ġtrac": 4636,
      "ĠOther": 4637,
      "ĠAccording": 4638,
      "link": 4639,
      "win": 4640,
      "Ġeventually": 4641,
      "ĠZealand": 4642,
      "62": 4643,
      "ĠJose": 4644,
      "Ġseg": 4645,
      "Ġpolynom": 4646,
      "Ġapplication": 4647,
      "ĠLat": 4648,
      "Ġoverall": 4649,
      "Ġsen": 4650,
      "ecause": 4651,
      "Ġcharacters": 4652,
      "Ġfamilies": 4653,
      "Film": 4654,
      "Ġreplaced": 4655,
      "Get": 4656,
      "Ġassert": 4657,
      "Ġax": 4658,
      "ĠHow": 4659,
      "Ġenter": 4660,
      "ĠSpec": 4661,
      "ĠCongress": 4662,
      "astern": 4663,
      "Ġtell": 4664,
      "ĠTor": 4665,
      "Ġexpress": 4666,
      "Ġfigure": 4667,
      "road": 4668,
      "Ġreduced": 4669,
      "ĠFlor": 4670,
      "yr": 4671,
      "Ġextended": 4672,
      "roduction": 4673,
      "Ġfood": 4674,
      "Ġface": 4675,
      "setminus": 4676,
      "rade": 4677,
      "SI": 4678,
      "1985": 4679,
      "Ass": 4680,
      "Ġdiscussed": 4681,
      "Ġobservations": 4682,
      "Ġdark": 4683,
      "Ġmonth": 4684,
      "ipl": 4685,
      "ĠSecond": 4686,
      "But": 4687,
      "Ġnames": 4688,
      "abs": 4689,
      "vant": 4690,
      "Ġrecently": 4691,
      "ui": 4692,
      "61": 4693,
      "Ġknowledge": 4694,
      "Ġtold": 4695,
      "Ġlack": 4696,
      "prod": 4697,
      "ĠCommittee": 4698,
      "ĠSummer": 4699,
      "retary": 4700,
      "dagger": 4701,
      "Ġbuildings": 4702,
      "men": 4703,
      "Ġpark": 4704,
      "Eng": 4705,
      "Ġ$|": 4706,
      "crete": 4707,
      "ellar": 4708,
      "Ġmach": 4709,
      "Ġapply": 4710,
      "ĠSuper": 4711,
      "ĠSub": 4712,
      "Ġdiagram": 4713,
      "^{-\\": 4714,
      "Ġbelong": 4715,
      "Ġhence": 4716,
      "ĠParis": 4717,
      "istan": 4718,
      "ĠSte": 4719,
      "orpor": 4720,
      "ĠLos": 4721,
      "Ġapproximately": 4722,
      "ĠLand": 4723,
      "Ġinteraction": 4724,
      "ĠPeter": 4725,
      "Ġ($\\": 4726,
      "itiz": 4727,
      "Ġbur": 4728,
      "dec": 4729,
      "Ġoperation": 4730,
      "Ġoperators": 4731,
      "Ġfootballers": 4732,
      "Ðµ": 4733,
      "Ġlisted": 4734,
      "Ġhighest": 4735,
      "Ġinequ": 4736,
      "uge": 4737,
      "ĠMass": 4738,
      "Ġforms": 4739,
      "alo": 4740,
      "Ġdrop": 4741,
      "ĠOur": 4742,
      "Ġnegative": 4743,
      "Ġfemale": 4744,
      "struct": 4745,
      "Ġincreased": 4746,
      "_*": 4747,
      "Ġgrav": 4748,
      "ĠPublic": 4749,
      "ĠRichard": 4750,
      "Ġcoach": 4751,
      "Ġmotion": 4752,
      "Ġreference": 4753,
      "Ġtalk": 4754,
      "ifold": 4755,
      "Ġartists": 4756,
      "ras": 4757,
      "Ġball": 4758,
      "ĠGovernment": 4759,
      "Exception": 4760,
      "Ġclasses": 4761,
      "ube": 4762,
      "bur": 4763,
      "Ġexpansion": 4764,
      "Ġreached": 4765,
      "gent": 4766,
      "Ġsymmetry": 4767,
      "}}_{": 4768,
      "Ġdisplay": 4769,
      "Ġforward": 4770,
      "Ġbeginning": 4771,
      "Ġneeds": 4772,
      "}},": 4773,
      "Ġcontinuous": 4774,
      "Ġagreement": 4775,
      "OT": 4776,
      "Ġalumni": 4777,
      "Ġderived": 4778,
      "Ġnoise": 4779,
      "ih": 4780,
      "87": 4781,
      "Ġepisode": 4782,
      "Ġexplicit": 4783,
      "Ġveh": 4784,
      "Ġsmooth": 4785,
      "*{": 4786,
      "Ġer": 4787,
      "dro": 4788,
      "Ġcollect": 4789,
      "arp": 4790,
      "porary": 4791,
      "Ġavoid": 4792,
      "ĠDes": 4793,
      "Ġstarting": 4794,
      "mes": 4795,
      "ua": 4796,
      "Ġchosen": 4797,
      "ront": 4798,
      "Ġste": 4799,
      "MA": 4800,
      "but": 4801,
      "Ġcontinue": 4802,
      "SC": 4803,
      "stant": 4804,
      "ags": 4805,
      "1983": 4806,
      "Ġaim": 4807,
      "Ġstations": 4808,
      "efore": 4809,
      "ĠTechn": 4810,
      "Ġsymbol": 4811,
      "arts": 4812,
      "ĠHealth": 4813,
      "){": 4814,
      "icon": 4815,
      "Ġemission": 4816,
      "ĠDel": 4817,
      "ĠPri": 4818,
      "\\}": 4819,
      "////": 4820,
      "_+": 4821,
      "Ġorigin": 4822,
      "1950": 4823,
      "ĠFootball": 4824,
      "iance": 4825,
      "ĠOlympics": 4826,
      "Ġeconomic": 4827,
      "ĠRob": 4828,
      "Ġstra": 4829,
      "Ġbring": 4830,
      "ĠĠĠĊ": 4831,
      "vis": 4832,
      "place": 4833,
      "ĠString": 4834,
      "ye": 4835,
      "ira": 4836,
      "EE": 4837,
      "Ġoriginally": 4838,
      "Ġscience": 4839,
      "Ġ$-": 4840,
      "ano": 4841,
      "Ġautom": 4842,
      "Ġparticularly": 4843,
      "Ġmovement": 4844,
      "Ġnoted": 4845,
      "oto": 4846,
      "oma": 4847,
      "ĠHill": 4848,
      "Ġcommer": 4849,
      "$_": 4850,
      "Ġanti": 4851,
      "ella": 4852,
      "Ġtechnology": 4853,
      "Ġshare": 4854,
      "=#": 4855,
      "ĠGra": 4856,
      "oo": 4857,
      "ĠEv": 4858,
      "Ġcompact": 4859,
      "ils": 4860,
      "Ġestimated": 4861,
      "za": 4862,
      "Ġlegal": 4863,
      "ashed": 4864,
      "\";": 4865,
      "Ġmeaning": 4866,
      "edom": 4867,
      "ĠBur": 4868,
      "Ġquality": 4869,
      "Ġculture": 4870,
      "Ġscheme": 4871,
      "Ġopport": 4872,
      "Ġfourth": 4873,
      "1982": 4874,
      "anned": 4875,
      "Ġleads": 4876,
      "aval": 4877,
      "Ġruns": 4878,
      "Ġsecurity": 4879,
      "aled": 4880,
      "Ġmode": 4881,
      "bon": 4882,
      "oplus": 4883,
      "Ġconsequ": 4884,
      "Ġchanged": 4885,
      "apping": 4886,
      "FC": 4887,
      "Ġreading": 4888,
      "Ġens": 4889,
      "Ġgalaxies": 4890,
      "Sec": 4891,
      "Ġorg": 4892,
      "ola": 4893,
      "Ġproducts": 4894,
      "iral": 4895,
      "ĠSpanish": 4896,
      "Ġcontribution": 4897,
      "Ġfinancial": 4898,
      "Ġconsists": 4899,
      "cher": 4900,
      "MC": 4901,
      "ĠRock": 4902,
      "iny": 4903,
      "Ġtrade": 4904,
      "aud": 4905,
      "Ġpage": 4906,
      "Ġcounter": 4907,
      "Ġbounded": 4908,
      "Ġneighbor": 4909,
      "ĠAnn": 4910,
      "Ġhyper": 4911,
      "Ġplant": 4912,
      "Ġgold": 4913,
      "Ġhol": 4914,
      "Ġhot": 4915,
      "Ġdecided": 4916,
      "_{{\\": 4917,
      "ĠCamp": 4918,
      "Ġinside": 4919,
      "uracy": 4920,
      "ĠPo": 4921,
      "Ġfinished": 4922,
      "ĠChicago": 4923,
      "Ġwriter": 4924,
      "Ġconserv": 4925,
      "ĠHere": 4926,
      "Ġanim": 4927,
      "Ġvariable": 4928,
      "Over": 4929,
      "Ġmunic": 4930,
      "Ġbrought": 4931,
      "Ġcurve": 4932,
      "Ġtit": 4933,
      "Ġhit": 4934,
      "ĠWomen": 4935,
      "Ġexcept": 4936,
      "ouri": 4937,
      "ĠBoard": 4938,
      "89": 4939,
      "Ġtransl": 4940,
      "Ð¸": 4941,
      "Ġcontact": 4942,
      "Ġcollege": 4943,
      "Ġwide": 4944,
      "Ġ$[": 4945,
      "Ġmanagement": 4946,
      "UT": 4947,
      "iques": 4948,
      "Ġchem": 4949,
      "1979": 4950,
      "Ġplaced": 4951,
      "ĠMel": 4952,
      "Ġscore": 4953,
      "ĠForce": 4954,
      "Ġattention": 4955,
      "Ġparticles": 4956,
      "https": 4957,
      "ĠIreland": 4958,
      "Ġiter": 4959,
      "Ġscatter": 4960,
      "BS": 4961,
      "Ġconsum": 4962,
      "ML": 4963,
      "Comp": 4964,
      "wedge": 4965,
      "Ġthemselves": 4966,
      "Ġhyp": 4967,
      "Ġorganization": 4968,
      ")|": 4969,
      "ĠAlthough": 4970,
      "ĠService": 4971,
      "inf": 4972,
      "ĉĉĉĉĉ": 4973,
      "perty": 4974,
      "public": 4975,
      "ket": 4976,
      "osm": 4977,
      "Ġvolume": 4978,
      "Ġfully": 4979,
      "itors": 4980,
      "Ġ(-": 4981,
      "Ġgrant": 4982,
      "Ġsch": 4983,
      "su": 4984,
      "ca": 4985,
      "ĠBrown": 4986,
      "Ġtrain": 4987,
      "ĠLake": 4988,
      "Ġtourn": 4989,
      "riz": 4990,
      "colon": 4991,
      "inals": 4992,
      "ropy": 4993,
      "razil": 4994,
      "Ġleader": 4995,
      "Ġrules": 4996,
      "No": 4997,
      ".[": 4998,
      "vement": 4999,
      "ĠRussia": 5000,
      "png": 5001,
      "Ġstatus": 5002,
      "igan": 5003,
      "Ġbank": 5004,
      "uls": 5005,
      "cles": 5006,
      "Ġparticle": 5007,
      "Ġscreen": 5008,
      "Ġarbit": 5009,
      "ishop": 5010,
      "PT": 5011,
      "Ġapproximation": 5012,
      "Ġvariety": 5013,
      "Ġmaps": 5014,
      "SU": 5015,
      "Ġsoon": 5016,
      "Ġgrand": 5017,
      "ĠOffic": 5018,
      "main": 5019,
      "Ġslow": 5020,
      "Ġformation": 5021,
      "ĠGeorg": 5022,
      "ĠOut": 5023,
      "linewidth": 5024,
      "eria": 5025,
      "Ġpressure": 5026,
      "ariance": 5027,
      "ublican": 5028,
      "Ġcele": 5029,
      "ĠHenry": 5030,
      "Ġhours": 5031,
      "Ġmissing": 5032,
      "ilarly": 5033,
      "Ġcritic": 5034,
      "Ġrap": 5035,
      "Ġpanel": 5036,
      "Ġformula": 5037,
      "Ġprem": 5038,
      "oviet": 5039,
      "Ġartist": 5040,
      "Ġframework": 5041,
      "bt": 5042,
      "ĠPenn": 5043,
      "ban": 5044,
      "ĠVictor": 5045,
      "Ġmedal": 5046,
      "anda": 5047,
      "().": 5048,
      "Ġnorm": 5049,
      "subfigure": 5050,
      "Ġdynamics": 5051,
      "Ġpen": 5052,
      "LO": 5053,
      "ĠDen": 5054,
      "ĠNow": 5055,
      "93": 5056,
      "View": 5057,
      "Ġquick": 5058,
      "Ġsquare": 5059,
      "Ġprograms": 5060,
      "ĠAngeles": 5061,
      "Ġminimum": 5062,
      "Ġwoman": 5063,
      "BA": 5064,
      "det": 5065,
      "Ġremained": 5066,
      "eful": 5067,
      "1981": 5068,
      "using": 5069,
      "Ġinteresting": 5070,
      "Ġmechanism": 5071,
      "ollary": 5072,
      "Ġremaining": 5073,
      "Ġlayer": 5074,
      "pc": 5075,
      "nel": 5076,
      "Ġcompetition": 5077,
      "ĠVirginia": 5078,
      "sm": 5079,
      "Ġidentity": 5080,
      "nav": 5081,
      "Ġborder": 5082,
      "Ġcustom": 5083,
      "Ġvertex": 5084,
      "Ġdeliver": 5085,
      "DF": 5086,
      "300": 5087,
      "Ġtraditional": 5088,
      "Ġgirl": 5089,
      "cel": 5090,
      "Ġrecover": 5091,
      "ĠĠĠĠĠĠĠĠĠĠ": 5092,
      "Ġ!=": 5093,
      "ba": 5094,
      "olk": 5095,
      "Ġsituation": 5096,
      "ishes": 5097,
      "SO": 5098,
      "94": 5099,
      "iece": 5100,
      "Ġlat": 5101,
      "uthors": 5102,
      "Ġcontroll": 5103,
      "),\\": 5104,
      "........": 5105,
      "apter": 5106,
      "Ġ///": 5107,
      "iring": 5108,
      "Ġsubset": 5109,
      "Error": 5110,
      "ĠTimes": 5111,
      "Ġquite": 5112,
      "Ġproduce": 5113,
      "ĠTer": 5114,
      "ĠUnder": 5115,
      "ĠAtl": 5116,
      "Ġliterature": 5117,
      "Tr": 5118,
      "enge": 5119,
      "Ġplane": 5120,
      "ien": 5121,
      "ĠMexico": 5122,
      "Ġpurch": 5123,
      "_{(": 5124,
      "Ap": 5125,
      "Now": 5126,
      "ĠFurther": 5127,
      "ĠFoundation": 5128,
      "inder": 5129,
      "ancy": 5130,
      "Ġtherm": 5131,
      "black": 5132,
      "input": 5133,
      "Ġdetermine": 5134,
      "TV": 5135,
      "Ġaircraft": 5136,
      "Ġmeasured": 5137,
      "ufact": 5138,
      "Ġmedical": 5139,
      "\\'": 5140,
      "Ġinterview": 5141,
      "utch": 5142,
      "Ġarray": 5143,
      "Ġthreat": 5144,
      "conn": 5145,
      "rat": 5146,
      "ivial": 5147,
      "Ġnetworks": 5148,
      "1976": 5149,
      "CH": 5150,
      "Ġshape": 5151,
      "\":": 5152,
      "1978": 5153,
      "Ġawarded": 5154,
      "fect": 5155,
      "ĠFlorida": 5156,
      "itable": 5157,
      "sych": 5158,
      "escription": 5159,
      "Sy": 5160,
      "Ġprint": 5161,
      "otion": 5162,
      "ĠIts": 5163,
      "Ġchalleng": 5164,
      "ĠIll": 5165,
      "inger": 5166,
      "ĠPan": 5167,
      "First": 5168,
      "Ġdu": 5169,
      "Ġstatement": 5170,
      "Ġstudent": 5171,
      "Ġcoupling": 5172,
      "Ġperturb": 5173,
      "ias": 5174,
      "orial": 5175,
      "Ġearn": 5176,
      "velopment": 5177,
      "limits": 5178,
      "ockey": 5179,
      "ĠArts": 5180,
      "IG": 5181,
      "rich": 5182,
      "92": 5183,
      "come": 5184,
      "ĠTwo": 5185,
      "shift": 5186,
      "rence": 5187,
      "lt": 5188,
      "nbsp": 5189,
      "resents": 5190,
      "Ġmur": 5191,
      "Reg": 5192,
      "Ġuncertaint": 5193,
      "Ġexamples": 5194,
      "Ġfun": 5195,
      "ĠFin": 5196,
      "Ġexpon": 5197,
      "Ġexperiments": 5198,
      "Ġvoc": 5199,
      "Ġdataset": 5200,
      "Ġbr": 5201,
      "ette": 5202,
      "Ġult": 5203,
      "Ġinn": 5204,
      "``": 5205,
      "Ġblue": 5206,
      "Sim": 5207,
      "lease": 5208,
      "Ġthrow": 5209,
      "ĠDis": 5210,
      "Ġequip": 5211,
      "pan": 5212,
      "inem": 5213,
      "Ġpolar": 5214,
      "Ġtreatment": 5215,
      "js": 5216,
      "ĠProposition": 5217,
      "stitution": 5218,
      "Ġbit": 5219,
      "1972": 5220,
      "Ġhighly": 5221,
      ")\\,": 5222,
      "inant": 5223,
      "._": 5224,
      "Ġmomentum": 5225,
      "version": 5226,
      "ptions": 5227,
      "Ġelectric": 5228,
      "Ġsometimes": 5229,
      "Ġcaused": 5230,
      "Ġslight": 5231,
      "urt": 5232,
      "Ġminor": 5233,
      "Ġseem": 5234,
      "Ġ|\\": 5235,
      "Ġcause": 5236,
      "Ġmanufact": 5237,
      "Ġmajority": 5238,
      "Ġcategory": 5239,
      "aussian": 5240,
      "Ġrepe": 5241,
      "Ġ}\\": 5242,
      "enth": 5243,
      "oral": 5244,
      "Ġdescribe": 5245,
      "Ġanc": 5246,
      "Ġfactors": 5247,
      "Ġnearly": 5248,
      "flow": 5249,
      "1974": 5250,
      "Ġfeatured": 5251,
      "Ġembedd": 5252,
      "Ġinfluence": 5253,
      "Ġfill": 5254,
      "Ġmarg": 5255,
      "Ġconnection": 5256,
      "Ġeasily": 5257,
      "Ġheight": 5258,
      "ulture": 5259,
      "gra": 5260,
      "ĠEmp": 5261,
      "1975": 5262,
      "force": 5263,
      "Ġactivities": 5264,
      "Ġspent": 5265,
      "Ġplays": 5266,
      "Ġnodes": 5267,
      "print": 5268,
      "ĠSwed": 5269,
      "ski": 5270,
      "());": 5271,
      "rump": 5272,
      "Ġones": 5273,
      "Ġselection": 5274,
      "Ġsamples": 5275,
      "Ġfederal": 5276,
      "Ġcontrast": 5277,
      "PC": 5278,
      "Equ": 5279,
      "1977": 5280,
      "Ġrequires": 5281,
      ")/": 5282,
      ")_{": 5283,
      "Ġspat": 5284,
      "Ġmentioned": 5285,
      "Test": 5286,
      "Ġargument": 5287,
      "Ġansw": 5288,
      "Time": 5289,
      "Ġnumerical": 5290,
      "Ġexistence": 5291,
      "}}(\\": 5292,
      "eler": 5293,
      "dr": 5294,
      "lig": 5295,
      "Ġprocesses": 5296,
      "Ġcomment": 5297,
      "Ġspeak": 5298,
      "Ġgun": 5299,
      "ĠOper": 5300,
      "rees": 5301,
      "idae": 5302,
      "Ġessential": 5303,
      "next": 5304,
      "Ġfarm": 5305,
      "Ġ\\(": 5306,
      "Ed": 5307,
      "Ġcomparison": 5308,
      "Ġunion": 5309,
      "Ġbrief": 5310,
      "Ġcop": 5311,
      "ĠKn": 5312,
      "ecting": 5313,
      "Ġchoose": 5314,
      "plication": 5315,
      "Ġ(\"": 5316,
      "Ġmemory": 5317,
      "Ġbroadcast": 5318,
      ")}(": 5319,
      "udd": 5320,
      "Ġspectral": 5321,
      "Ġpolitician": 5322,
      "ĠDu": 5323,
      "Ġoptimal": 5324,
      "Ġmeeting": 5325,
      "Ġradius": 5326,
      "va": 5327,
      "ĠIran": 5328,
      "Ġdidn": 5329,
      "ĠBre": 5330,
      "Ġdise": 5331,
      "72": 5332,
      "Ġprison": 5333,
      "flict": 5334,
      "Ã¨": 5335,
      "ĠDec": 5336,
      "aker": 5337,
      "FT": 5338,
      "osing": 5339,
      "Here": 5340,
      "ĠOf": 5341,
      "itation": 5342,
      "ĠItaly": 5343,
      "check": 5344,
      "met": 5345,
      "1973": 5346,
      "Ġnation": 5347,
      "Ġconsistent": 5348,
      "ective": 5349,
      "However": 5350,
      "Ġsimulations": 5351,
      "Ġsolid": 5352,
      "oting": 5353,
      "perp": 5354,
      "iller": 5355,
      "ĠĠĠĠĠĠĠĠĠĠĠĠ": 5356,
      "riev": 5357,
      "Ġcluster": 5358,
      "mann": 5359,
      "ĠWhat": 5360,
      "Ġidentified": 5361,
      "ĠStar": 5362,
      "1968": 5363,
      "ĠPe": 5364,
      "Ġdoing": 5365,
      "ĠMost": 5366,
      "ĠArab": 5367,
      "Ġfif": 5368,
      "Ġhousehold": 5369,
      "endix": 5370,
      "definition": 5371,
      "anced": 5372,
      "Ġlattice": 5373,
      "Ġexam": 5374,
      "PR": 5375,
      "mission": 5376,
      "Ġseems": 5377,
      "She": 5378,
      "'_": 5379,
      "Ġcollabor": 5380,
      "Ġdescription": 5381,
      "86": 5382,
      "ĠCD": 5383,
      "Ġinstrum": 5384,
      "ĠMo": 5385,
      "esh": 5386,
      "AG": 5387,
      "ĠFestival": 5388,
      "Ġsurround": 5389,
      ")^{\\": 5390,
      "ĠCast": 5391,
      "Ġfast": 5392,
      "Ġacadem": 5393,
      "ibly": 5394,
      "cond": 5395,
      "Ġmiddle": 5396,
      "Ġsinger": 5397,
      "UR": 5398,
      "Ġresolution": 5399,
      "Ġvertices": 5400,
      "Ġreach": 5401,
      "Co": 5402,
      "inv": 5403,
      "edia": 5404,
      "cons": 5405,
      "Ġrepresents": 5406,
      "Ġesc": 5407,
      "Ġmovie": 5408,
      "deg": 5409,
      "ĠPost": 5410,
      "Ġrisk": 5411,
      "Ġdecay": 5412,
      "uled": 5413,
      "Sub": 5414,
      "Ġasked": 5415,
      "Ġsatisfies": 5416,
      "Ġbelieve": 5417,
      "agement": 5418,
      "illa": 5419,
      "ĠHence": 5420,
      "Be": 5421,
      "Ġpassed": 5422,
      "onom": 5423,
      "ĠBank": 5424,
      "Ġconstructed": 5425,
      "76": 5426,
      "Ġfirm": 5427,
      "}$-": 5428,
      "Ġbul": 5429,
      "acher": 5430,
      "azz": 5431,
      "=(": 5432,
      "Ġgreater": 5433,
      "ĠKh": 5434,
      "Ġexisting": 5435,
      "Ġfinally": 5436,
      "stra": 5437,
      "ĠScot": 5438,
      "Ġbasic": 5439,
      "ĠDirector": 5440,
      "Ġshift": 5441,
      "Ġcore": 5442,
      "Ġamplit": 5443,
      "Ġreb": 5444,
      "Ġapplications": 5445,
      "84": 5446,
      "iro": 5447,
      "inity": 5448,
      "Ġheavy": 5449,
      "Ġstraight": 5450,
      "aligned": 5451,
      "Ġdual": 5452,
      "ĠParliament": 5453,
      "olved": 5454,
      "Ġrates": 5455,
      "Ġfa": 5456,
      "Ġ...": 5457,
      "Ġprofile": 5458,
      "Ġcoming": 5459,
      "Ġbal": 5460,
      "Ġminim": 5461,
      "ĠSun": 5462,
      ".~(\\": 5463,
      "kin": 5464,
      "apers": 5465,
      "aught": 5466,
      "ĠMil": 5467,
      "TR": 5468,
      "ĠTw": 5469,
      "Further": 5470,
      "ĠEducation": 5471,
      "venue": 5472,
      "Ġprevent": 5473,
      "Ġdiss": 5474,
      "do": 5475,
      "Ġtim": 5476,
      "stack": 5477,
      "Ġroom": 5478,
      "Äģ": 5479,
      "Ġextension": 5480,
      "More": 5481,
      "ĠOver": 5482,
      "Ġexperimental": 5483,
      "Ġbranch": 5484,
      "ĠGr": 5485,
      "ifically": 5486,
      "Ġinters": 5487,
      "height": 5488,
      "aily": 5489,
      "ĠNavy": 5490,
      "Ġapprop": 5491,
      "ĠOrder": 5492,
      "Ġuseful": 5493,
      "Ġobser": 5494,
      "iency": 5495,
      ".</": 5496,
      "Ġselect": 5497,
      "Ġplatform": 5498,
      "Ser": 5499,
      "normal": 5500,
      "NA": 5501,
      "ao": 5502,
      "_{-": 5503,
      "91": 5504,
      "net": 5505,
      "ĠMoreover": 5506,
      "Ġaccuracy": 5507,
      "ĠOh": 5508,
      "then": 5509,
      "Ġstay": 5510,
      "Ġlives": 5511,
      "Ġsimpl": 5512,
      "ny": 5513,
      "Ġcorresponds": 5514,
      "Ġfraction": 5515,
      "Build": 5516,
      "ĠCarolina": 5517,
      "wa": 5518,
      "Ġcompletely": 5519,
      "Ġrelevant": 5520,
      "Ġstream": 5521,
      "Ġwanted": 5522,
      "icated": 5523,
      "ulate": 5524,
      "Ġforeign": 5525,
      "iano": 5526,
      "forall": 5527,
      "ogue": 5528,
      "Ġjoint": 5529,
      "Ġdistinct": 5530,
      "real": 5531,
      "Ġsupp": 5532,
      "Ġconcent": 5533,
      "\"></": 5534,
      "1971": 5535,
      "elled": 5536,
      "irtual": 5537,
      "asks": 5538,
      "ellig": 5539,
      "Ġstrategy": 5540,
      "Ġeasy": 5541,
      "pat": 5542,
      "}%": 5543,
      "Ġcitiz": 5544,
      "Ġwalk": 5545,
      "unched": 5546,
      "ĠKe": 5547,
      "fort": 5548,
      ":\\": 5549,
      "ĠAwards": 5550,
      "ION": 5551,
      "Ġbey": 5552,
      "Ġvan": 5553,
      "ĠInc": 5554,
      "Ġframe": 5555,
      "Ġmission": 5556,
      "pack": 5557,
      "Ġcontributions": 5558,
      "Ġcandidate": 5559,
      "Ġfeed": 5560,
      "ĠIII": 5561,
      "Ġexactly": 5562,
      "Ġsports": 5563,
      "Out": 5564,
      "eks": 5565,
      "ĠKar": 5566,
      "term": 5567,
      "Early": 5568,
      "ĠMos": 5569,
      "simeq": 5570,
      "ĠFe": 5571,
      "iana": 5572,
      ",\\,": 5573,
      "Ġscored": 5574,
      "weight": 5575,
      "1969": 5576,
      "Ġshot": 5577,
      "arks": 5578,
      "ora": 5579,
      "reshold": 5580,
      "asion": 5581,
      "obile": 5582,
      "Ġwhom": 5583,
      "Ġbeyond": 5584,
      "'\\": 5585,
      "Ġamb": 5586,
      "ĠMartin": 5587,
      "Ġseparate": 5588,
      "Ġconstraints": 5589,
      "ĠOl": 5590,
      "idden": 5591,
      "Ġability": 5592,
      "isher": 5593,
      "Comm": 5594,
      "hab": 5595,
      "hem": 5596,
      "Requ": 5597,
      "textsc": 5598,
      "ĠSil": 5599,
      "syl": 5600,
      "Ġactivity": 5601,
      "neg": 5602,
      "ĠRem": 5603,
      "Ġcalculated": 5604,
      "uations": 5605,
      "seud": 5606,
      "IV": 5607,
      "Ġways": 5608,
      "jo": 5609,
      "Ġmole": 5610,
      "Ġcarried": 5611,
      "cases": 5612,
      "cho": 5613,
      "Ġparents": 5614,
      "Ġinternal": 5615,
      "=-": 5616,
      "Our": 5617,
      "ymmet": 5618,
      "Ġdesp": 5619,
      "ato": 5620,
      "stein": 5621,
      "Ġreplace": 5622,
      "subsubsection": 5623,
      "Ġassumption": 5624,
      "Ġsport": 5625,
      "Ð½": 5626,
      "Ġwriters": 5627,
      "ĠLiber": 5628,
      "inations": 5629,
      "Ġmessage": 5630,
      "Ġpick": 5631,
      "ĠHaw": 5632,
      "Ġbasketball": 5633,
      "Ġphil": 5634,
      "ympt": 5635,
      "={": 5636,
      "produ": 5637,
      "othes": 5638,
      "Ġsummer": 5639,
      "ĠLie": 5640,
      "Ġscalar": 5641,
      "ĠLife": 5642,
      "Ġleave": 5643,
      "Ġprobably": 5644,
      "Ġestablishments": 5645,
      "Can": 5646,
      "alg": 5647,
      "400": 5648,
      "Ġextra": 5649,
      "Ġprocedure": 5650,
      "');": 5651,
      "Ġspaces": 5652,
      "Ġsignificantly": 5653,
      "Ġactor": 5654,
      "ko": 5655,
      "rong": 5656,
      "rot": 5657,
      "Ġthing": 5658,
      "Ġformal": 5659,
      "Ġtournament": 5660,
      "Ġimmediately": 5661,
      "Ġpoor": 5662,
      "Ġinequality": 5663,
      "John": 5664,
      "zero": 5665,
      "case": 5666,
      "Ġindividuals": 5667,
      "ifier": 5668,
      "oding": 5669,
      "CT": 5670,
      "ĠAre": 5671,
      "Ġdivision": 5672,
      "EM": 5673,
      "Ġmicro": 5674,
      "ĠRel": 5675,
      "Ġwor": 5676,
      "Ġbad": 5677,
      "Ġsyn": 5678,
      "Ġedges": 5679,
      "iled": 5680,
      "vania": 5681,
      "undle": 5682,
      "even": 5683,
      "So": 5684,
      "uan": 5685,
      "82": 5686,
      "Ġusers": 5687,
      "ĠProfess": 5688,
      "hing": 5689,
      "ĠOffice": 5690,
      "ĠSoviet": 5691,
      "83": 5692,
      "Ne": 5693,
      "Ġlic": 5694,
      "langu": 5695,
      "Ġcommunities": 5696,
      "Ġ+\\": 5697,
      "aven": 5698,
      "Ġsociety": 5699,
      "ĠForm": 5700,
      "1967": 5701,
      "1945": 5702,
      "Eq": 5703,
      "oration": 5704,
      "Of": 5705,
      "ĠSocial": 5706,
      "ĠPac": 5707,
      "You": 5708,
      "tem": 5709,
      "Ġmeasurements": 5710,
      "Ġcarry": 5711,
      "Ġcompute": 5712,
      "1940": 5713,
      "ĠOld": 5714,
      "anger": 5715,
      "ependence": 5716,
      "itter": 5717,
      "Ġincreases": 5718,
      "areer": 5719,
      "ĠChampionships": 5720,
      "Ġ);": 5721,
      "ĠColumb": 5722,
      "owers": 5723,
      "ĠAlso": 5724,
      "bullet": 5725,
      "Ġplot": 5726,
      "hemat": 5727,
      "Ġminutes": 5728,
      "object": 5729,
      "sch": 5730,
      "Net": 5731,
      "ĠJoseph": 5732,
      "$(": 5733,
      "amental": 5734,
      "fe": 5735,
      "abilities": 5736,
      "vex": 5737,
      "Ġended": 5738,
      "ĠBrazil": 5739,
      "Ġsoftware": 5740,
      "ĠTime": 5741,
      "$^{-": 5742,
      "Ġsteps": 5743,
      "ĠFre": 5744,
      "Inter": 5745,
      "Ġwinning": 5746,
      "Ġauthors": 5747,
      "Ġcombined": 5748,
      "Ġmanager": 5749,
      "Ġpurpose": 5750,
      "Ġreligious": 5751,
      "Ġgoals": 5752,
      "adium": 5753,
      "Ġ?": 5754,
      "ĠJer": 5755,
      "Ġdepends": 5756,
      "undred": 5757,
      "\\!\\!": 5758,
      "Ġrelatively": 5759,
      "Ġ~": 5760,
      "ipality": 5761,
      "icity": 5762,
      "Ġhttp": 5763,
      "Ġgeneration": 5764,
      "Ġshowed": 5765,
      "Ġimprove": 5766,
      "Ġhum": 5767,
      "Ġpropag": 5768,
      "74": 5769,
      "Ġopening": 5770,
      "Ġcoast": 5771,
      "oura": 5772,
      "ersey": 5773,
      "ĠLove": 5774,
      "Ã³n": 5775,
      "Ġmusical": 5776,
      "ĠWood": 5777,
      "ĠMur": 5778,
      "active": 5779,
      "Ġvac": 5780,
      "ĠYoung": 5781,
      "Mar": 5782,
      "ĠHel": 5783,
      "Ġcoefficients": 5784,
      "UN": 5785,
      "ugby": 5786,
      "Ġhop": 5787,
      "Ġchief": 5788,
      "yan": 5789,
      "ĠJewish": 5790,
      "mas": 5791,
      "IP": 5792,
      "Ġchain": 5793,
      "arriage": 5794,
      "osh": 5795,
      "language": 5796,
      "Ġmostly": 5797,
      "Ġmoving": 5798,
      "Att": 5799,
      "CE": 5800,
      "ĠPeople": 5801,
      "Ġmind": 5802,
      "Ġensure": 5803,
      "Ġactress": 5804,
      "ĠSpace": 5805,
      "Ġdestroy": 5806,
      "ĠFort": 5807,
      "Ġannual": 5808,
      "Ġlaws": 5809,
      "Bar": 5810,
      "ĠJournal": 5811,
      "iders": 5812,
      "ĠAssembly": 5813,
      "ĠChief": 5814,
      "ĠGal": 5815,
      "pton": 5816,
      "Ġangle": 5817,
      "Ġreferred": 5818,
      "Ġincome": 5819,
      "ĠOpen": 5820,
      "Ġremain": 5821,
      "During": 5822,
      "Ġcorrelation": 5823,
      "ĠRepublican": 5824,
      "Ġdiscussion": 5825,
      "HE": 5826,
      "ters": 5827,
      "ĠCre": 5828,
      "Ġdrug": 5829,
      "Ġtensor": 5830,
      "ĠJud": 5831,
      "~$\\": 5832,
      "sto": 5833,
      "gg": 5834,
      "asi": 5835,
      "rs": 5836,
      "Ġring": 5837,
      "Ġheart": 5838,
      "ĠLee": 5839,
      "End": 5840,
      "abase": 5841,
      "Ġassumed": 5842,
      "Ġpositions": 5843,
      "Notes": 5844,
      "Ġarchitecture": 5845,
      "dx": 5846,
      "73": 5847,
      "kl": 5848,
      "gu": 5849,
      "1930": 5850,
      "Ġnewsp": 5851,
      "Ġresponsible": 5852,
      "Ġreduce": 5853,
      "File": 5854,
      "Ġprogress": 5855,
      "house": 5856,
      "rants": 5857,
      "ĠTour": 5858,
      "{$\\": 5859,
      "bi": 5860,
      "ĠUp": 5861,
      "ror": 5862,
      "Ġetc": 5863,
      "Ġsimulation": 5864,
      "rons": 5865,
      "Ġterrit": 5866,
      "ĠBig": 5867,
      "Ġquarter": 5868,
      "ultural": 5869,
      "poses": 5870,
      "1964": 5871,
      "Ġappearance": 5872,
      "Text": 5873,
      "Other": 5874,
      "Rep": 5875,
      "$).": 5876,
      "true": 5877,
      "Ġresources": 5878,
      "ĠHon": 5879,
      "Ġcapacity": 5880,
      "airman": 5881,
      "usband": 5882,
      "}^*": 5883,
      "ĠIrish": 5884,
      "Ġprojects": 5885,
      "pass": 5886,
      "ĠLy": 5887,
      "ĠWales": 5888,
      "summary": 5889,
      "Ġeditor": 5890,
      "79": 5891,
      "Ġking": 5892,
      "Ġprefer": 5893,
      "Ġcontaining": 5894,
      "Ġfailed": 5895,
      "ĠGen": 5896,
      "eds": 5897,
      "ĠVer": 5898,
      "Ġcommercial": 5899,
      "Ġarrang": 5900,
      "Trans": 5901,
      "Ġofficer": 5902,
      "^{+": 5903,
      "ocation": 5904,
      "etime": 5905,
      "81": 5906,
      "ĠSeries": 5907,
      "Ġlived": 5908,
      "Ġfair": 5909,
      "ĠDou": 5910,
      "orage": 5911,
      "Ġsaying": 5912,
      "Ġaspect": 5913,
      "Ġdenotes": 5914,
      "pol": 5915,
      ")^{-": 5916,
      "Ġweeks": 5917,
      "ogene": 5918,
      "hom": 5919,
      "ĠLu": 5920,
      "Ġsure": 5921,
      "Ġrecomm": 5922,
      "sylvania": 5923,
      "Ġconvert": 5924,
      "Ġcentre": 5925,
      "ĠProgram": 5926,
      "Ġtechniques": 5927,
      "Ġcru": 5928,
      "ĠRo": 5929,
      "Ġmodes": 5930,
      "Ġ&=&": 5931,
      "ĠAtt": 5932,
      "Ġharm": 5933,
      "allery": 5934,
      "plate": 5935,
      "ĠTrump": 5936,
      "ĠNorthern": 5937,
      "Ġgreen": 5938,
      "Ġdistributions": 5939,
      "enty": 5940,
      "CP": 5941,
      "Ġisland": 5942,
      "Ġedition": 5943,
      "ansas": 5944,
      "ĠEarth": 5945,
      ";\"": 5946,
      "Ġstudio": 5947,
      "Ġbeg": 5948,
      "Ġstories": 5949,
      "Ġsemi": 5950,
      "arant": 5951,
      "71": 5952,
      "matrix": 5953,
      "ilib": 5954,
      "ĠBob": 5955,
      "'re": 5956,
      "Ġload": 5957,
      "ady": 5958,
      "Ġdecom": 5959,
      "Per": 5960,
      "gt": 5961,
      "Ġotherwise": 5962,
      "Ġattended": 5963,
      "ĠLong": 5964,
      "ĠEngine": 5965,
      "Ġtypically": 5966,
      "Ġstable": 5967,
      "Ġcard": 5968,
      "English": 5969,
      "Ġvote": 5970,
      "Ġinitially": 5971,
      "newcommand": 5972,
      "Ġeth": 5973,
      "Ġran": 5974,
      "Ġregime": 5975,
      "Ġcopy": 5976,
      "ĠJac": 5977,
      "Ġriver": 5978,
      "wan": 5979,
      "bin": 5980,
      "column": 5981,
      "ĠGovern": 5982,
      "Ġsusp": 5983,
      "ternet": 5984,
      "SM": 5985,
      "oston": 5986,
      "Ġsenior": 5987,
      "ĠJim": 5988,
      "Ġmatches": 5989,
      "Ab": 5990,
      "Ġdefault": 5991,
      "ÑĢ": 5992,
      "ĠIslam": 5993,
      "run": 5994,
      "](": 5995,
      "Ġclassification": 5996,
      "Ġspread": 5997,
      "}}^": 5998,
      "ÑĤ": 5999,
      "ĠJo": 6000,
      "Ġgiving": 6001,
      "Ġmis": 6002,
      "kins": 6003,
      "Ġcomputer": 6004,
      "Ġfriends": 6005,
      "Ġsouthern": 6006,
      "md": 6007,
      "Ġspectra": 6008,
      "Ġapproaches": 6009,
      "Ġdetection": 6010,
      "gn": 6011,
      "Ġfix": 6012,
      "Ġnumerous": 6013,
      "rame": 6014,
      "Ġmainly": 6015,
      "Ġquad": 6016,
      "viation": 6017,
      "Ġpoet": 6018,
      "stream": 6019,
      "1965": 6020,
      "Ġrecords": 6021,
      "mond": 6022,
      "iffer": 6023,
      "izer": 6024,
      "pace": 6025,
      "ĠUnivers": 6026,
      "rium": 6027,
      "elli": 6028,
      "quot": 6029,
      "Ġhoriz": 6030,
      "Ġconfiguration": 6031,
      "Ġmeasures": 6032,
      "ricket": 6033,
      "Path": 6034,
      "Ġbattle": 6035,
      "Ġproducer": 6036,
      "(),": 6037,
      "$$\\": 6038,
      "\\\"": 6039,
      "Ġflat": 6040,
      ")}{\\": 6041,
      "Ġinvariant": 6042,
      "Ġcells": 6043,
      "Ġproceed": 6044,
      "Figure": 6045,
      "Ġseasons": 6046,
      "Ġcombination": 6047,
      "Ġbus": 6048,
      "ĠLord": 6049,
      "iant": 6050,
      "GB": 6051,
      "Ġlif": 6052,
      "values": 6053,
      "CA": 6054,
      "ĠEmpire": 6055,
      "espite": 6056,
      "Spec": 6057,
      "Ġserve": 6058,
      "fit": 6059,
      "pty": 6060,
      "Node": 6061,
      "Ġgoes": 6062,
      "Ġnorthern": 6063,
      "Ġactions": 6064,
      "free": 6065,
      "pmatrix": 6066,
      "Table": 6067,
      "Ġvisual": 6068,
      "Ġadvant": 6069,
      "Åį": 6070,
      "unct": 6071,
      "})$.": 6072,
      "Ġlaunched": 6073,
      "Ġago": 6074,
      "Ġincorpor": 6075,
      "Ġtheore": 6076,
      "Ġpoly": 6077,
      "Ġintroduce": 6078,
      "oat": 6079,
      "ja": 6080,
      "!--": 6081,
      "Ġvocals": 6082,
      "ĠProvince": 6083,
      "Ġcurves": 6084,
      "ĠBas": 6085,
      "ĠBritain": 6086,
      "ĠValley": 6087,
      "ĠHistoric": 6088,
      "Ġcorn": 6089,
      "result": 6090,
      "Ġcommission": 6091,
      "Ġbecoming": 6092,
      "CL": 6093,
      "ĠWal": 6094,
      "emporary": 6095,
      "ĠSir": 6096,
      "Add": 6097,
      "These": 6098,
      "uty": 6099,
      "ĠGreek": 6100,
      "ĠSol": 6101,
      "Ġexpressed": 6102,
      "Ġdemand": 6103,
      "Ġplans": 6104,
      "Ġdead": 6105,
      "Ġdoesn": 6106,
      "While": 6107,
      "Ġnuclear": 6108,
      "Ġcosm": 6109,
      "Ġpairs": 6110,
      "dim": 6111,
      "Ġsector": 6112,
      "Ġfavor": 6113,
      "vest": 6114,
      "Ġstrength": 6115,
      "ĠCivil": 6116,
      "1966": 6117,
      "Ġproved": 6118,
      "word": 6119,
      "SD": 6120,
      "ĠCam": 6121,
      "Ġturned": 6122,
      "rical": 6123,
      "What": 6124,
      "example": 6125,
      ".$": 6126,
      "Ġarrest": 6127,
      "Field": 6128,
      "IL": 6129,
      "inet": 6130,
      ")\\\\": 6131,
      "Ġsymmetric": 6132,
      "Ġconflict": 6133,
      "Äĩ": 6134,
      "Ġsn": 6135,
      "MP": 6136,
      "1920": 6137,
      "App": 6138,
      "Ġmurder": 6139,
      "=\"../../": 6140,
      "ĠInst": 6141,
      "Thus": 6142,
      "ĠMax": 6143,
      "Ġchampionship": 6144,
      "ĠSpain": 6145,
      "graph": 6146,
      "Ġsites": 6147,
      "ĠTim": 6148,
      "Ġbottom": 6149,
      "ĠMount": 6150,
      "Ġwood": 6151,
      "ampion": 6152,
      "ĠHig": 6153,
      "Ġunknown": 6154,
      "Ġproviding": 6155,
      "oken": 6156,
      "According": 6157,
      "Ġdespite": 6158,
      "sky": 6159,
      "ING": 6160,
      "Ġolder": 6161,
      "Ġdependence": 6162,
      "Ġachieved": 6163,
      "Ġefforts": 6164,
      "Ġmodule": 6165,
      "ĠSee": 6166,
      "udes": 6167,
      "ĠLin": 6168,
      "ernel": 6169,
      "Ġmaster": 6170,
      "kes": 6171,
      "Inst": 6172,
      "erse": 6173,
      "ĠTop": 6174,
      "ima": 6175,
      "Ġinteractions": 6176,
      "ĠHot": 6177,
      "racted": 6178,
      "Ġhelped": 6179,
      "Ġslightly": 6180,
      "Ġvs": 6181,
      "Ġlink": 6182,
      "ĠConn": 6183,
      "remark": 6184,
      "Ġraised": 6185,
      "ĠFred": 6186,
      "Ġ=\\": 6187,
      "NR": 6188,
      "Ġmagazine": 6189,
      "background": 6190,
      "Ġfilter": 6191,
      "Ġparties": 6192,
      "ĠStep": 6193,
      "icted": 6194,
      "Ġpreserv": 6195,
      "ĠPre": 6196,
      "Ġerrors": 6197,
      "tot": 6198,
      "ati": 6199,
      "orter": 6200,
      "Ġphen": 6201,
      "Ġorb": 6202,
      "agraph": 6203,
      "Ġsingular": 6204,
      "ĠSouthern": 6205,
      "rative": 6206,
      "ĠRadio": 6207,
      "sur": 6208,
      "ĠSta": 6209,
      "Ġdisk": 6210,
      "fact": 6211,
      "ali": 6212,
      "Ġhusband": 6213,
      "ĠPennsylvania": 6214,
      "Ġcelebr": 6215,
      ")$-": 6216,
      "((": 6217,
      "Ġstellar": 6218,
      "ĠSk": 6219,
      "config": 6220,
      "Ġcam": 6221,
      "aters": 6222,
      "ĠLibrary": 6223,
      "Ġreconst": 6224,
      "ĠField": 6225,
      "':": 6226,
      "Ġgain": 6227,
      "0000": 6228,
      "count": 6229,
      "Ġroute": 6230,
      "Ġmorph": 6231,
      ")_": 6232,
      "ildren": 6233,
      "++": 6234,
      "Ġorient": 6235,
      "ĠAsia": 6236,
      "Ġagent": 6237,
      "Ġspatial": 6238,
      "Ġcry": 6239,
      "abled": 6240,
      "Ġmut": 6241,
      "Map": 6242,
      "Ġremoved": 6243,
      "ĠEach": 6244,
      "clos": 6245,
      "irmed": 6246,
      "Ġlooking": 6247,
      "ĠEqu": 6248,
      "Element": 6249,
      "Ġleaders": 6250,
      "ĠTheir": 6251,
      "Ġforced": 6252,
      "mapsto": 6253,
      "Ġextrem": 6254,
      "Ġforest": 6255,
      "Ġtor": 6256,
      "ĠLine": 6257,
      "ĠCross": 6258,
      "cean": 6259,
      "Ġhistorical": 6260,
      "ibli": 6261,
      "Ġabsor": 6262,
      "istical": 6263,
      "OD": 6264,
      "Ġinner": 6265,
      "nam": 6266,
      "Ġsea": 6267,
      "related": 6268,
      "150": 6269,
      "user": 6270,
      "Ġscene": 6271,
      "Ġcomputed": 6272,
      "ried": 6273,
      "=\"+": 6274,
      "}}^{": 6275,
      "Ġ},": 6276,
      "NS": 6277,
      "Ġrailway": 6278,
      "Ġclearly": 6279,
      "IA": 6280,
      "Ġorganizations": 6281,
      "Ġsampl": 6282,
      "']": 6283,
      "ocol": 6284,
      "Ġsplit": 6285,
      "Hz": 6286,
      "ĠCamb": 6287,
      "ĠBi": 6288,
      "host": 6289,
      "Ġprep": 6290,
      "gener": 6291,
      "Ġquestions": 6292,
      "Ġcircle": 6293,
      "ĠTest": 6294,
      "block": 6295,
      "awa": 6296,
      "Ġpolynomial": 6297,
      "base": 6298,
      "Ġowned": 6299,
      "Char": 6300,
      "isters": 6301,
      "law": 6302,
      "greg": 6303,
      "Person": 6304,
      "ĠDemocratic": 6305,
      "olean": 6306,
      "Ġparallel": 6307,
      "ĠTeam": 6308,
      "ĠPak": 6309,
      "Ġworkers": 6310,
      "local": 6311,
      "inate": 6312,
      "Ġarbitrary": 6313,
      "ĠRegister": 6314,
      "Ġexchange": 6315,
      "ilter": 6316,
      "Theorem": 6317,
      "ĠNetwork": 6318,
      "inner": 6319,
      "Ġpure": 6320,
      "Ġcensus": 6321,
      "Ġbrand": 6322,
      "Event": 6323,
      "Ã§": 6324,
      "unior": 6325,
      "Ġabsol": 6326,
      "rip": 6327,
      "Ġâ": 6328,
      "Ġunderstanding": 6329,
      "haps": 6330,
      "Ġestimates": 6331,
      "Ġshoot": 6332,
      "Ġreflect": 6333,
      "while": 6334,
      "tainment": 6335,
      "Ġalgorithms": 6336,
      "Ġmatrices": 6337,
      "Ġrapid": 6338,
      "ĠDevelopment": 6339,
      "Am": 6340,
      "Ġnine": 6341,
      "omorphic": 6342,
      "Ġoption": 6343,
      "CS": 6344,
      "MM": 6345,
      "gypt": 6346,
      "ĠJes": 6347,
      "Career": 6348,
      "Ġcities": 6349,
      "secut": 6350,
      "Ġtal": 6351,
      "Ġentry": 6352,
      "urban": 6353,
      "AF": 6354,
      "Ġuniversity": 6355,
      "ĠMem": 6356,
      "Ġinform": 6357,
      "['": 6358,
      "imb": 6359,
      "ĠCE": 6360,
      "Ġstrongly": 6361,
      "1963": 6362,
      "inois": 6363,
      "ova": 6364,
      "ĠJul": 6365,
      "cript": 6366,
      "Ġfoot": 6367,
      "Ġtransformation": 6368,
      "Ġcalc": 6369,
      "Ġlies": 6370,
      "orning": 6371,
      "PE": 6372,
      "Ġcounty": 6373,
      "Ġquickly": 6374,
      "etts": 6375,
      "ĠSecretary": 6376,
      "ĠPlay": 6377,
      "Art": 6378,
      "Ġyields": 6379,
      "Ġdepartment": 6380,
      "standing": 6381,
      "page": 6382,
      "odot": 6383,
      "\\_": 6384,
      "iy": 6385,
      "ĠDom": 6386,
      "has": 6387,
      "joy": 6388,
      "LP": 6389,
      "Ġvary": 6390,
      "Ġefficient": 6391,
      "ride": 6392,
      "Ġfreedom": 6393,
      "Ġrise": 6394,
      "Ġarmy": 6395,
      "aver": 6396,
      "aylor": 6397,
      "1962": 6398,
      "Ġbillion": 6399,
      "Ġdifferences": 6400,
      "ĠGaussian": 6401,
      "osoph": 6402,
      "ĠSpr": 6403,
      "uer": 6404,
      "Ġthreshold": 6405,
      "icks": 6406,
      "Ġcontained": 6407,
      "resh": 6408,
      "Ġserious": 6409,
      "ĠSund": 6410,
      "Ġonto": 6411,
      "Ġcat": 6412,
      "ĠJones": 6413,
      "Ġactual": 6414,
      "Ġclaimed": 6415,
      "names": 6416,
      "Ġappropriate": 6417,
      "Ġentered": 6418,
      "ĠHamiltonian": 6419,
      "ĠSet": 6420,
      "Ġdistributed": 6421,
      "Back": 6422,
      "Ġmixed": 6423,
      "pa": 6424,
      "ĠPacific": 6425,
      "Ġelections": 6426,
      "yer": 6427,
      "Group": 6428,
      "ĠUk": 6429,
      "Ġdefeated": 6430,
      "ĠBase": 6431,
      "Ġoptical": 6432,
      "ulty": 6433,
      "Ġiniti": 6434,
      "ĠSar": 6435,
      "prob": 6436,
      "SR": 6437,
      "tik": 6438,
      "Ġfamous": 6439,
      "Ġhydro": 6440,
      "Ġasympt": 6441,
      "mail": 6442,
      "ĠJan": 6443,
      "raq": 6444,
      "ĠEr": 6445,
      "Ġmachine": 6446,
      "abil": 6447,
      "track": 6448,
      "adel": 6449,
      "lines": 6450,
      "Ġletter": 6451,
      "eli": 6452,
      "Ġvisit": 6453,
      "Ġ/*": 6454,
      "Ġleaving": 6455,
      "ĠBoth": 6456,
      "ĠConference": 6457,
      "Don": 6458,
      "ĠRam": 6459,
      "Films": 6460,
      "ributes": 6461,
      "contin": 6462,
      "ĠGet": 6463,
      "Ġalternative": 6464,
      "Ġperfect": 6465,
      "Ġpurs": 6466,
      "Ġhundred": 6467,
      "$~": 6468,
      "Ġoil": 6469,
      "Ġoccurs": 6470,
      "ĠCarl": 6471,
      "Ġoptions": 6472,
      "Ġreceive": 6473,
      "ador": 6474,
      "/*": 6475,
      "Ġ;": 6476,
      "cf": 6477,
      "Index": 6478,
      "Ġtypical": 6479,
      "miss": 6480,
      "Ġpriv": 6481,
      "ĠCentre": 6482,
      "etween": 6483,
      "title": 6484,
      "Ġadopted": 6485,
      "Ġordered": 6486,
      "aka": 6487,
      "Ġregister": 6488,
      "lets": 6489,
      "udget": 6490,
      "Ġdrama": 6491,
      "ĠOx": 6492,
      "Context": 6493,
      "Sch": 6494,
      "ĠBattle": 6495,
      "arden": 6496,
      "$;": 6497,
      "Ġidentify": 6498,
      "'(": 6499,
      "1944": 6500,
      "bury": 6501,
      "icine": 6502,
      "proposition": 6503,
      "Ġexplain": 6504,
      "ennis": 6505,
      "Ġsqu": 6506,
      "first": 6507,
      "Ġexc": 6508,
      "Ġpain": 6509,
      "ĠĠĠĠĠĠĠĠĠĠĠĠĠĠĠĠĠĠĠĠĠĠĠĠĠĠĠ": 6510,
      "olt": 6511,
      "hbox": 6512,
      "Ġstore": 6513,
      "Ġtrained": 6514,
      "Ġachieve": 6515,
      "TE": 6516,
      "Part": 6517,
      "void": 6518,
      "Ġstrict": 6519,
      "ĠMen": 6520,
      "ĠMichigan": 6521,
      "Ġdistingu": 6522,
      "ji": 6523,
      "ela": 6524,
      "ifications": 6525,
      "annels": 6526,
      "Ġ/>": 6527,
      "Ñģ": 6528,
      "aria": 6529,
      "Ġtrying": 6530,
      "Ent": 6531,
      "grad": 6532,
      "module": 6533,
      "ĠJohnson": 6534,
      "ĠGood": 6535,
      "Ġthick": 6536,
      "mc": 6537,
      "zer": 6538,
      "ĠDet": 6539,
      "Ġgalaxy": 6540,
      "Ġobserve": 6541,
      "ĠLi": 6542,
      "Ġnothing": 6543,
      "Ġgenus": 6544,
      "Ġaccur": 6545,
      "Ġofficers": 6546,
      "ĠBoston": 6547,
      "Ġdetailed": 6548,
      "Ġpromin": 6549,
      "Ġgap": 6550,
      "ĠMiddle": 6551,
      "\\{\\": 6552,
      "ĠOhio": 6553,
      "Ġcouple": 6554,
      "ĠProject": 6555,
      "sen": 6556,
      "asy": 6557,
      "Ġsections": 6558,
      "Ġcoordinates": 6559,
      "otted": 6560,
      "Car": 6561,
      "ructure": 6562,
      "OM": 6563,
      "ĠHy": 6564,
      "press": 6565,
      "Ġoffered": 6566,
      "Ġcomposed": 6567,
      "Ġmanifold": 6568,
      "Ġsegment": 6569,
      "Ġproport": 6570,
      "Ġvictory": 6571,
      "achus": 6572,
      "Ġbelieved": 6573,
      "\\|_{": 6574,
      "igration": 6575,
      "Ġworth": 6576,
      "Ġmeasurement": 6577,
      "ĠMany": 6578,
      "roph": 6579,
      "Ġnam": 6580,
      "ĠEdward": 6581,
      "Ġexcit": 6582,
      "Info": 6583,
      "ĠFrancisco": 6584,
      "Ġgetting": 6585,
      "}&": 6586,
      "Ġcovered": 6587,
      "burgh": 6588,
      "Ġmassive": 6589,
      "Ġdisp": 6590,
      "ĠWind": 6591,
      "Ġreform": 6592,
      "Ġroot": 6593,
      "Ġcloud": 6594,
      "iable": 6595,
      "ĠSenate": 6596,
      "atically": 6597,
      "ographic": 6598,
      "Pop": 6599,
      "chen": 6600,
      "Ġsal": 6601,
      "rics": 6602,
      "Model": 6603,
      "anges": 6604,
      "Ġstatistics": 6605,
      "}({\\": 6606,
      "Ġdrum": 6607,
      "Ġsingles": 6608,
      "cs": 6609,
      "Ġadministration": 6610,
      "ĠJersey": 6611,
      "date": 6612,
      "method": 6613,
      "Ġthous": 6614,
      "Dec": 6615,
      "Ġgenerate": 6616,
      "ilibrium": 6617,
      "Ġcultural": 6618,
      "1961": 6619,
      "Ġcycle": 6620,
      "Cons": 6621,
      "Ġsurvey": 6622,
      "ĠMov": 6623,
      "speople": 6624,
      "ĠWay": 6625,
      "Pol": 6626,
      "tained": 6627,
      "ĠQueen": 6628,
      "Ġreports": 6629,
      "Ġassess": 6630,
      "omic": 6631,
      "orney": 6632,
      "Ġelim": 6633,
      "Ġice": 6634,
      "Ġcolon": 6635,
      "ĠSong": 6636,
      "Ġserving": 6637,
      "Ġinteger": 6638,
      "wer": 6639,
      "emic": 6640,
      "ested": 6641,
      "igation": 6642,
      "_-": 6643,
      "Ġdevice": 6644,
      "LS": 6645,
      "aya": 6646,
      "Ġtrial": 6647,
      "har": 6648,
      "Fl": 6649,
      "iler": 6650,
      "core": 6651,
      "Ġcompl": 6652,
      "Count": 6653,
      "bas": 6654,
      "ĠBul": 6655,
      "achusetts": 6656,
      "ĠBow": 6657,
      "ĠHuman": 6658,
      "Ġpiece": 6659,
      "Ġreduction": 6660,
      "ears": 6661,
      "Ġdiscovered": 6662,
      "tikz": 6663,
      "Array": 6664,
      "poration": 6665,
      "Ġsatisfy": 6666,
      "eech": 6667,
      "Ġconducted": 6668,
      "Ġpil": 6669,
      "Ġfundamental": 6670,
      "tes": 6671,
      "ĠBern": 6672,
      "oder": 6673,
      "multi": 6674,
      "Ġmountain": 6675,
      "Ġexecutive": 6676,
      "~~~~": 6677,
      "itage": 6678,
      "ĠAsian": 6679,
      "Ġformat": 6680,
      "Ġbehavi": 6681,
      "ĠIllinois": 6682,
      "DP": 6683,
      "Ġideal": 6684,
      "char": 6685,
      "ĠEconom": 6686,
      "Ġsettlement": 6687,
      "ĠEnd": 6688,
      "api": 6689,
      "ighter": 6690,
      "1000": 6691,
      "ĠAut": 6692,
      "Ġcompare": 6693,
      "Ġbatt": 6694,
      "Ġexternal": 6695,
      "ĠTem": 6696,
      "Fe": 6697,
      "ĠWilliams": 6698,
      "Ġign": 6699,
      "Ġoppos": 6700,
      "Ġpp": 6701,
      "ograp": 6702,
      "Ġreson": 6703,
      "ĠElect": 6704,
      "ĠScotland": 6705,
      "ologies": 6706,
      "arters": 6707,
      "Ġgrowing": 6708,
      "cr": 6709,
      "Ġeffort": 6710,
      "Ġmasses": 6711,
      "Ġdisease": 6712,
      "Ġutil": 6713,
      "cur": 6714,
      "Ġconvergence": 6715,
      "fin": 6716,
      "DA": 6717,
      "ĠAP": 6718,
      "cong": 6719,
      "Ġdepth": 6720,
      "ĠDev": 6721,
      "Ġcommunication": 6722,
      "ĠTre": 6723,
      "Ġcomputation": 6724,
      "'}": 6725,
      "aug": 6726,
      "ĠBelg": 6727,
      "phas": 6728,
      "ancing": 6729,
      "Ġimag": 6730,
      "Ġhospital": 6731,
      "Act": 6732,
      "ila": 6733,
      "Ġregional": 6734,
      "ĠRos": 6735,
      "ĠUN": 6736,
      "ĠCa": 6737,
      "ĠMajor": 6738,
      "ĠShow": 6739,
      "Ġphenomen": 6740,
      "abeth": 6741,
      "uries": 6742,
      "Ġpeace": 6743,
      "ls": 6744,
      ")},": 6745,
      "Bi": 6746,
      "strong": 6747,
      ",$": 6748,
      "Ġcitizens": 6749,
      "Ġnative": 6750,
      "Ġshowing": 6751,
      "Ġrespond": 6752,
      "maz": 6753,
      "scill": 6754,
      "Ġvoice": 6755,
      "eller": 6756,
      "Ġmarriage": 6757,
      "Ġvectors": 6758,
      "ĠHead": 6759,
      "ĠKent": 6760,
      "claim": 6761,
      "displaystyle": 6762,
      "ĠCr": 6763,
      "Ġscattering": 6764,
      "[]": 6765,
      "hbar": 6766,
      "Ġoverl": 6767,
      "Ġprofessor": 6768,
      "Ġactors": 6769,
      "1958": 6770,
      "Ġindicates": 6771,
      "blue": 6772,
      "ĠJustice": 6773,
      "Ġneighborhood": 6774,
      "Ġalone": 6775,
      "ĠCro": 6776,
      "Aust": 6777,
      "Ġindicate": 6778,
      "ĠRepresent": 6779,
      "elligence": 6780,
      "sol": 6781,
      "Ġoperated": 6782,
      "Ġ]": 6783,
      "Ġmaterials": 6784,
      "Log": 6785,
      "RA": 6786,
      "1959": 6787,
      "1942": 6788,
      "Ġobservation": 6789,
      "Ġtracks": 6790,
      "erc": 6791,
      "Che": 6792,
      "Ġbill": 6793,
      "Ġrough": 6794,
      "oday": 6795,
      "Ġreasons": 6796,
      "ĠGeorgia": 6797,
      "Config": 6798,
      "Request": 6799,
      "Ġloop": 6800,
      "Ġlum": 6801,
      "Ġdifferential": 6802,
      "1948": 6803,
      "Ġacts": 6804,
      "ĠEgypt": 6805,
      "ĠMah": 6806,
      "Ġ-->": 6807,
      "rieved": 6808,
      "ingham": 6809,
      "ĠSand": 6810,
      ")+\\": 6811,
      "eness": 6812,
      "Ġinterval": 6813,
      "Ġmetal": 6814,
      "ounds": 6815,
      "after": 6816,
      "ĠMountain": 6817,
      "Ġrecording": 6818,
      "ĠPoland": 6819,
      "Ġsuggested": 6820,
      "ĠEll": 6821,
      "Ġtrust": 6822,
      "Ġmagnitude": 6823,
      "Ġdigital": 6824,
      "picture": 6825,
      "Service": 6826,
      "Ġimportance": 6827,
      "ĠRh": 6828,
      "Ġgrid": 6829,
      "Ġprice": 6830,
      "1956": 6831,
      "Ġassign": 6832,
      "Ġpolic": 6833,
      "inding": 6834,
      "|_{": 6835,
      "())": 6836,
      "Ġattacks": 6837,
      "Color": 6838,
      "Ġthr": 6839,
      "IF": 6840,
      "ĠEnter": 6841,
      "Ġshared": 6842,
      "Ġmill": 6843,
      "/**": 6844,
      "Ġjoin": 6845,
      "rawn": 6846,
      "Ġmuseum": 6847,
      "Ġcycl": 6848,
      "ĠServ": 6849,
      "enant": 6850,
      "ĠAff": 6851,
      "Ġodd": 6852,
      "Ġ(!": 6853,
      "Ġbinary": 6854,
      "ĠFinally": 6855,
      "het": 6856,
      "Ġpropos": 6857,
      "ĠMuslim": 6858,
      "ĠPlan": 6859,
      "Ð¾Ð": 6860,
      "ulf": 6861,
      "eld": 6862,
      "'m": 6863,
      "Ġbeam": 6864,
      "}}$.": 6865,
      "Ġ$$": 6866,
      "ĠPrince": 6867,
      "onder": 6868,
      "such": 6869,
      "Ġchemical": 6870,
      "Results": 6871,
      "break": 6872,
      "})$,": 6873,
      "Ġreject": 6874,
      "Ġresist": 6875,
      "only": 6876,
      "Ġsurpr": 6877,
      "Ġspirit": 6878,
      "Ġenjoy": 6879,
      "ĠWall": 6880,
      "Ġca": 6881,
      "Ġwindow": 6882,
      "Ġfine": 6883,
      "Ġnucle": 6884,
      "Ġguarant": 6885,
      "Ġrare": 6886,
      "asure": 6887,
      "poss": 6888,
      "1939": 6889,
      "Ġfle": 6890,
      "ĠBusiness": 6891,
      "cd": 6892,
      "oir": 6893,
      "ĠCharl": 6894,
      "ĠPhilipp": 6895,
      "Ġinterested": 6896,
      "ĠCy": 6897,
      "Ġseat": 6898,
      "Ġwestern": 6899,
      "ĠFC": 6900,
      "ĠIraq": 6901,
      "ĠKorea": 6902,
      "ĠMassachusetts": 6903,
      "Ġnotation": 6904,
      "Ġweap": 6905,
      "El": 6906,
      "120": 6907,
      "Ġacting": 6908,
      "ĠEastern": 6909,
      "ĠDutch": 6910,
      "Ġobvious": 6911,
      "National": 6912,
      "Ġorth": 6913,
      "Item": 6914,
      "ibr": 6915,
      "ĠÂ£": 6916,
      "room": 6917,
      "ruck": 6918,
      "ĠPop": 6919,
      "Ġoffers": 6920,
      "mass": 6921,
      "tri": 6922,
      "Ġassigned": 6923,
      "SA": 6924,
      "ĠGovernor": 6925,
      "Ġpoliticians": 6926,
      "ĠPrem": 6927,
      "ĠJr": 6928,
      "Ġimplementation": 6929,
      "onto": 6930,
      "ĠCoast": 6931,
      "bottom": 6932,
      "emble": 6933,
      "avel": 6934,
      "}{|": 6935,
      "ashion": 6936,
      "{{": 6937,
      "Ġdegrees": 6938,
      "coming": 6939,
      "PA": 6940,
      "Ġoscill": 6941,
      "ponent": 6942,
      "';": 6943,
      ")-\\": 6944,
      "Ġsister": 6945,
      "GC": 6946,
      "Ġdivided": 6947,
      "ENT": 6948,
      "Ġapparent": 6949,
      "Ġsynt": 6950,
      "ĠMu": 6951,
      "Ġwidely": 6952,
      "mma": 6953,
      "}}$,": 6954,
      "Ġphysics": 6955,
      "rance": 6956,
      "Ġconclude": 6957,
      "Ġsomeone": 6958,
      "vin": 6959,
      "Ġblood": 6960,
      "1957": 6961,
      "ĠBra": 6962,
      "Ġtheoretical": 6963,
      "Ġanalog": 6964,
      "Ġcouncil": 6965,
      "Ġminimal": 6966,
      "ĠTheatre": 6967,
      "Ġsecret": 6968,
      "ĠLag": 6969,
      "Ġwall": 6970,
      "Ġast": 6971,
      "Ġissued": 6972,
      "Ġsuc": 6973,
      "ĠFederal": 6974,
      "ĠMedia": 6975,
      "Hand": 6976,
      "start": 6977,
      "ione": 6978,
      "Ġlimits": 6979,
      "Ġbass": 6980,
      "Me": 6981,
      "content": 6982,
      "ĠStan": 6983,
      "ĠSpecial": 6984,
      "Ġcancer": 6985,
      "Ġpartial": 6986,
      "ilation": 6987,
      "Ġhar": 6988,
      ")}_{": 6989,
      "Ġcomedy": 6990,
      "ibliography": 6991,
      "zy": 6992,
      "))$": 6993,
      "Ġconcert": 6994,
      "Ġwatch": 6995,
      "Ġemp": 6996,
      "Ġsubsequently": 6997,
      "onia": 6998,
      "ĠLuc": 6999,
      "des": 7000,
      "Ġofficials": 7001,
      "Ġut": 7002,
      "Size": 7003,
      "ĠWilson": 7004,
      "Ret": 7005,
      "tan": 7006,
      "Ġconsidering": 7007,
      "aped": 7008,
      "Ġrotation": 7009,
      "Ġrevealed": 7010,
      "mitted": 7011,
      "Ġretired": 7012,
      "ĠKenn": 7013,
      "system": 7014,
      "ĠST": 7015,
      "ĠTechnology": 7016,
      "cccc": 7017,
      "&=&": 7018,
      "|}": 7019,
      "ĠSupreme": 7020,
      "bed": 7021,
      "define": 7022,
      "faces": 7023,
      "ĠInf": 7024,
      "1943": 7025,
      "Sw": 7026,
      "}$)": 7027,
      "Ġopportunity": 7028,
      "iling": 7029,
      "Ġfelt": 7030,
      "Ġreserv": 7031,
      "ĠColumbia": 7032,
      "acter": 7033,
      "abour": 7034,
      "ĠReview": 7035,
      "onical": 7036,
      "Ġdraft": 7037,
      "outhe": 7038,
      "Ġsquad": 7039,
      "ifies": 7040,
      "ĠKong": 7041,
      "Ġaxis": 7042,
      "Ġchart": 7043,
      "ĠUSA": 7044,
      "Ġprimarily": 7045,
      "cular": 7046,
      "Ġlabor": 7047,
      "Ġclaims": 7048,
      "opic": 7049,
      "Ġships": 7050,
      "ĠBlue": 7051,
      "ĠFurthermore": 7052,
      "Ġener": 7053,
      "$),": 7054,
      "Ġgraphs": 7055,
      "MR": 7056,
      "Ġfootballer": 7057,
      "Ġacquired": 7058,
      "GL": 7059,
      "ĠVi": 7060,
      "Ġinduced": 7061,
      "Ġearned": 7062,
      "open": 7063,
      "Ġcandidates": 7064,
      "herent": 7065,
      "itness": 7066,
      "ĠWell": 7067,
      "Ġclimate": 7068,
      "ĠMid": 7069,
      "Ġsales": 7070,
      "Ġfluct": 7071,
      "rovers": 7072,
      "Ġexception": 7073,
      "process": 7074,
      "ĠVan": 7075,
      "going": 7076,
      "Ġvictim": 7077,
      "SL": 7078,
      "My": 7079,
      "Ġyouth": 7080,
      "Ġgets": 7081,
      "ĠHor": 7082,
      "ync": 7083,
      "ĠOxford": 7084,
      "Ġpsych": 7085,
      "Ġamplitude": 7086,
      "ĠBroad": 7087,
      "HT": 7088,
      "Rel": 7089,
      "Ġpatients": 7090,
      "Ġoperating": 7091,
      "Ġresource": 7092,
      "two": 7093,
      "That": 7094,
      "Ext": 7095,
      "=\"#": 7096,
      "Ġdescent": 7097,
      "Ġ$|\\": 7098,
      "uing": 7099,
      "Ġcosts": 7100,
      "spect": 7101,
      "Ġhypothes": 7102,
      "know": 7103,
      "Ġdimensions": 7104,
      "[(": 7105,
      "ĠRay": 7106,
      "1941": 7107,
      "Ġfellow": 7108,
      "Ġfeat": 7109,
      "ez": 7110,
      "len": 7111,
      "Brit": 7112,
      "Ġalle": 7113,
      "1946": 7114,
      "Ġnearby": 7115,
      "ogeneous": 7116,
      "teen": 7117,
      "Ġsucceed": 7118,
      "Ġorganized": 7119,
      "uster": 7120,
      "1955": 7121,
      "Ġpartition": 7122,
      "Ġanything": 7123,
      "Ġliber": 7124,
      "Ġexec": 7125,
      "ĠLatin": 7126,
      "Ġprinciple": 7127,
      "Introduction": 7128,
      "ĠSea": 7129,
      "}{(": 7130,
      "ĠOp": 7131,
      "ĠJackson": 7132,
      "Ġpaid": 7133,
      "Ġlanguages": 7134,
      "ĠWater": 7135,
      "ipage": 7136,
      "Ġtasks": 7137,
      "ĠPortug": 7138,
      "Ġresidents": 7139,
      "Ġmanaged": 7140,
      "Ġcov": 7141,
      "Ġ${": 7142,
      "ĠHospital": 7143,
      "Ġcool": 7144,
      "current": 7145,
      "ĠCreek": 7146,
      "stone": 7147,
      "Post": 7148,
      "yes": 7149,
      "EL": 7150,
      "gr": 7151,
      "ĠBuild": 7152,
      "minipage": 7153,
      "ĠEp": 7154,
      "Ġscales": 7155,
      "1952": 7156,
      "Ġallowing": 7157,
      "Ġintended": 7158,
      "Ġexplained": 7159,
      "rane": 7160,
      "Pre": 7161,
      "estic": 7162,
      "Ġcreation": 7163,
      "Ġarticles": 7164,
      "Ġpseud": 7165,
      "oute": 7166,
      "ĠHome": 7167,
      "Ġemphas": 7168,
      "aser": 7169,
      "PP": 7170,
      "Ġsafety": 7171,
      "Ġtend": 7172,
      "iser": 7173,
      "Med": 7174,
      "Ġfinding": 7175,
      "Conn": 7176,
      "amber": 7177,
      "Ġprediction": 7178,
      "ĠHung": 7179,
      "Ġdoc": 7180,
      "ĠHa": 7181,
      "1947": 7182,
      "ĠSu": 7183,
      "oles": 7184,
      "iced": 7185,
      "ĠIN": 7186,
      "uous": 7187,
      "Ġtouch": 7188,
      "Ġhole": 7189,
      "she": 7190,
      "Ġleadership": 7191,
      "ĠBecause": 7192,
      "rank": 7193,
      "Ġdedicated": 7194,
      "java": 7195,
      "Ġbeaut": 7196,
      "Ġfunctional": 7197,
      "static": 7198,
      "cref": 7199,
      "-$": 7200,
      "Ġadvantage": 7201,
      "Ġawards": 7202,
      "à¤": 7203,
      "Ġfort": 7204,
      "gies": 7205,
      "Ġque": 7206,
      "ĠCommunity": 7207,
      "build": 7208,
      "Ġtechnique": 7209,
      "Ġleaves": 7210,
      "comple": 7211,
      "odd": 7212,
      "Ġcalculations": 7213,
      "apache": 7214,
      "Ġtraffic": 7215,
      "Ġconfirmed": 7216,
      "agnetic": 7217,
      "La": 7218,
      "Ġsort": 7219,
      "Ġpicture": 7220,
      ":}": 7221,
      "ĠAv": 7222,
      "Ġstrugg": 7223,
      "Ġ});": 7224,
      "Ġclusters": 7225,
      "Ġacademic": 7226,
      "amm": 7227,
      "rie": 7228,
      "Ġcond": 7229,
      "mak": 7230,
      "Ġpull": 7231,
      "ĠAndrew": 7232,
      "disc": 7233,
      "Ġsexual": 7234,
      "United": 7235,
      "Ġideas": 7236,
      "ĠUr": 7237,
      "Finally": 7238,
      "ĠĠĠĠĠĠĠĠĠĠĠĠĠĠ": 7239,
      "irds": 7240,
      "Ġthermal": 7241,
      "ĠBal": 7242,
      "1954": 7243,
      "Ġprime": 7244,
      "bel": 7245,
      "Ġcalculation": 7246,
      "Section": 7247,
      "alysis": 7248,
      "stract": 7249,
      "Ġ\\!": 7250,
      "ĠJeff": 7251,
      "ameters": 7252,
      "ĠStand": 7253,
      "Ġchannels": 7254,
      "orough": 7255,
      "ucky": 7256,
      "Ġconference": 7257,
      "Ġkept": 7258,
      "****************": 7259,
      "Therefore": 7260,
      "ribe": 7261,
      "assert": 7262,
      "Ġion": 7263,
      "Ġinfinite": 7264,
      "itzer": 7265,
      "ĠScottish": 7266,
      "Ġsides": 7267,
      "Ġmarked": 7268,
      "Ġpowerful": 7269,
      "odies": 7270,
      "Ġlargely": 7271,
      "Next": 7272,
      "ĠFour": 7273,
      "HS": 7274,
      "Ġtesting": 7275,
      "Ġsched": 7276,
      "illy": 7277,
      "Ġcontinues": 7278,
      "sets": 7279,
      "ĠNight": 7280,
      "Ġcomposition": 7281,
      "Ġdescribes": 7282,
      "occer": 7283,
      "Ġbridge": 7284,
      "Ġpet": 7285,
      "Ġdepending": 7286,
      "Ġplanet": 7287,
      "ĠCard": 7288,
      "ologist": 7289,
      "Ġpersonnel": 7290,
      "Ġpartner": 7291,
      "Ġremark": 7292,
      "Lem": 7293,
      "Ġcharged": 7294,
      "Ġsuggests": 7295,
      "Ġmodified": 7296,
      "Ġregarding": 7297,
      "Code": 7298,
      "Mon": 7299,
      "ĠProfessor": 7300,
      "Ġlett": 7301,
      "Ġinstitutions": 7302,
      "1953": 7303,
      "Ġnarrow": 7304,
      "post": 7305,
      "Ġlayers": 7306,
      "ĠBerlin": 7307,
      "Ã±": 7308,
      "Ġspl": 7309,
      "Ġweb": 7310,
      "Ġbands": 7311,
      "chester": 7312,
      "Ġeconomy": 7313,
      "Ġcarri": 7314,
      "TD": 7315,
      "Ġinvestigation": 7316,
      "ĠFar": 7317,
      "Ġcrew": 7318,
      "Ġinterface": 7319,
      "####": 7320,
      "Ġcrim": 7321,
      "yles": 7322,
      "Ġopin": 7323,
      "Ġconj": 7324,
      "phia": 7325,
      "ĠConserv": 7326,
      "Ġwhereas": 7327,
      "Ġorders": 7328,
      "izabeth": 7329,
      "Ġangular": 7330,
      "Ġtechnical": 7331,
      "Ġefficiency": 7332,
      "1949": 7333,
      "Ġbomb": 7334,
      "ĠCorps": 7335,
      "Ġuncertainty": 7336,
      "Ġresearc": 7337,
      "called": 7338,
      "found": 7339,
      "info": 7340,
      "ĠSpe": 7341,
      "plot": 7342,
      "Ġexponential": 7343,
      "Ġsubstant": 7344,
      "Ġtoward": 7345,
      "ĠData": 7346,
      "nic": 7347,
      "ĠKen": 7348,
      "Ġple": 7349,
      "antry": 7350,
      "ĠMot": 7351,
      "MB": 7352,
      "Ġcreating": 7353,
      "ĠNations": 7354,
      "Ġvon": 7355,
      "emy": 7356,
      "ĠSi": 7357,
      "ga": 7358,
      "thur": 7359,
      "step": 7360,
      "Ġfigures": 7361,
      "Ġtroops": 7362,
      "ĠLittle": 7363,
      "Ġhonor": 7364,
      "ĠPolice": 7365,
      "ture": 7366,
      "ATE": 7367,
      "iate": 7368,
      "ederation": 7369,
      "Ġupdate": 7370,
      "ĠGame": 7371,
      "ĠBrook": 7372,
      "Ġagreed": 7373,
      "Ġclubs": 7374,
      "ĠAmericans": 7375,
      "Ġlie": 7376,
      "ĠAlexander": 7377,
      "nergy": 7378,
      "idel": 7379,
      "Ġpolitics": 7380,
      "Box": 7381,
      "floor": 7382,
      "web": 7383,
      "ategory": 7384,
      "Ġlocations": 7385,
      "Ġhouses": 7386,
      "Ġindeed": 7387,
      "enger": 7388,
      "Å¡": 7389,
      "Ġtruth": 7390,
      "ĠColor": 7391,
      "ĠWis": 7392,
      "Read": 7393,
      "Ġcommonly": 7394,
      "adelphia": 7395,
      "\"\"": 7396,
      "ĠUsing": 7397,
      "iger": 7398,
      "Ġgeometry": 7399,
      "ĠViet": 7400,
      "iec": 7401,
      "Ġacceler": 7402,
      "ĠStation": 7403,
      "ĠMcC": 7404,
      "aren": 7405,
      "Ġsubt": 7406,
      "Ġcomplexity": 7407,
      "ĠMinistry": 7408,
      "Ġcoal": 7409,
      "onds": 7410,
      "Ġbin": 7411,
      "Ġimproved": 7412,
      "gest": 7413,
      "Ġbounds": 7414,
      "Ġfifth": 7415,
      "Ġspeech": 7416,
      "Ġprincipal": 7417,
      "Ġdiscrete": 7418,
      "Ġcert": 7419,
      "cat": 7420,
      "Ġattend": 7421,
      "forward": 7422,
      "Ġaccepted": 7423,
      "ĠRailway": 7424,
      "ĠTaylor": 7425,
      "default": 7426,
      "orship": 7427,
      "cut": 7428,
      "Ġfacilities": 7429,
      "ĠBa": 7430,
      "Ġoptimization": 7431,
      "ĠWild": 7432,
      "anging": 7433,
      "ĠGar": 7434,
      "ĠPower": 7435,
      "ĠBang": 7436,
      "una": 7437,
      "valid": 7438,
      "Ġgradient": 7439,
      "Ġanswer": 7440,
      "imately": 7441,
      "ĠBell": 7442,
      "Ġwa": 7443,
      "cks": 7444,
      "1918": 7445,
      "soft": 7446,
      "uli": 7447,
      "ĠGi": 7448,
      "ĠPubl": 7449,
      "Ġarrived": 7450,
      "1951": 7451,
      "ĠEven": 7452,
      "Ġreturns": 7453,
      "rect": 7454,
      "Ġera": 7455,
      "Ġstress": 7456,
      "Ġsecondary": 7457,
      "ennes": 7458,
      "ĠCat": 7459,
      "Ġfaith": 7460,
      "Ġexpat": 7461,
      "Ġeverything": 7462,
      "inson": 7463,
      "Ġfailure": 7464,
      "ĠBu": 7465,
      "ulpt": 7466,
      ")}}": 7467,
      "Ġfocused": 7468,
      "Year": 7469,
      "Ġassociation": 7470,
      "Ġtrend": 7471,
      "ĠEst": 7472,
      "Ġheat": 7473,
      "Ġinvolving": 7474,
      "Dis": 7475,
      "hetic": 7476,
      "Ġspecified": 7477,
      "zh": 7478,
      "Method": 7479,
      "Ġentropy": 7480,
      "Ġisol": 7481,
      "ĠGirl": 7482,
      "Ġscaling": 7483,
      "phant": 7484,
      "Work": 7485,
      "General": 7486,
      "Ġconvex": 7487,
      "Ġlearned": 7488,
      "ĠHong": 7489,
      "Ġprote": 7490,
      "white": 7491,
      "sign": 7492,
      "eman": 7493,
      "Ġadding": 7494,
      "Members": 7495,
      "Ġbaseball": 7496,
      "Ġ[\\": 7497,
      "ĠLim": 7498,
      "Ġbright": 7499,
      "Ġemployed": 7500,
      "Ġorbit": 7501,
      "pot": 7502,
      "Ġtheories": 7503,
      "Ġscenario": 7504,
      "Ġlibrary": 7505,
      "Ġflag": 7506,
      "final": 7507,
      "Ġrecall": 7508,
      "mosp": 7509,
      "Ġwinner": 7510,
      "Ġusual": 7511,
      "Ġdelay": 7512,
      "Ġnone": 7513,
      "Ġsoldiers": 7514,
      "Ġsolve": 7515,
      "Ġdefend": 7516,
      "ilbert": 7517,
      "ĠLater": 7518,
      "Ġitem": 7519,
      "OC": 7520,
      "Ġclean": 7521,
      "ĠDaniel": 7522,
      "dney": 7523,
      "Oper": 7524,
      "ĉĉĉĉĉĉ": 7525,
      "Ġancient": 7526,
      "Will": 7527,
      "Ġdenoted": 7528,
      "gers": 7529,
      "ĠĠĠĠĠĠĠĠĠĠĠĠĠĠĠĠĠ": 7530,
      "po": 7531,
      "}\\,\\": 7532,
      "Ġprotected": 7533,
      "ayout": 7534,
      "ĠCommon": 7535,
      "ĠPlaces": 7536,
      "Ġdrive": 7537,
      "ori": 7538,
      "250": 7539,
      "Ġarguments": 7540,
      "ĠOrgan": 7541,
      "Ġowner": 7542,
      "TH": 7543,
      "ĠPolish": 7544,
      "ĠJoe": 7545,
      "bmatrix": 7546,
      "tainer": 7547,
      "ĠBC": 7548,
      "Dist": 7549,
      "Ġcoefficient": 7550,
      "ASS": 7551,
      "plications": 7552,
      "ĠPhys": 7553,
      "bigl": 7554,
      "aling": 7555,
      "Ġrepresenting": 7556,
      "Ġnewspaper": 7557,
      ":=": 7558,
      "'ve": 7559,
      "({": 7560,
      "also": 7561,
      "^*$": 7562,
      "image": 7563,
      "Ġnotice": 7564,
      "Line": 7565,
      "ifts": 7566,
      "Ġdecomposition": 7567,
      "Ġdial": 7568,
      "Ġcrime": 7569,
      "itivity": 7570,
      "ĠFer": 7571,
      "Ġrequirements": 7572,
      "British": 7573,
      "ometric": 7574,
      "Ġincident": 7575,
      "Ġradiation": 7576,
      "oded": 7577,
      "anta": 7578,
      "Ġnamely": 7579,
      "uses": 7580,
      "Ġhockey": 7581,
      "Ġevaluation": 7582,
      "Ġhope": 7583,
      "olve": 7584,
      "Ġkernel": 7585,
      "Ġprogramming": 7586,
      "Ġperforming": 7587,
      "ĠTri": 7588,
      "ĠJon": 7589,
      "font": 7590,
      "Ġmedian": 7591,
      "Ġaffected": 7592,
      "uum": 7593,
      "Ġlemma": 7594,
      "Ġtried": 7595,
      "Ġtransferred": 7596,
      "Ġcharacteristic": 7597,
      "ĠAsh": 7598,
      "Ġbudget": 7599,
      "SF": 7600,
      "ĠOlympic": 7601,
      "Ġversions": 7602,
      "ultane": 7603,
      "ĠAcc": 7604,
      "Ġchallenge": 7605,
      "Ġmedium": 7606,
      "ĠÅ": 7607,
      "Ac": 7608,
      "ĠPrize": 7609,
      "zech": 7610,
      "ĠBoy": 7611,
      "create": 7612,
      "Ġvariation": 7613,
      "ĠAnother": 7614,
      "Ġstreet": 7615,
      "Ġitems": 7616,
      "Ġgrew": 7617,
      "ĠRead": 7618,
      "Ġstock": 7619,
      "ĠPalest": 7620,
      "Ġfloor": 7621,
      "ĠPrime": 7622,
      "ĠVictoria": 7623,
      "Ġjourn": 7624,
      "ĠAirport": 7625,
      "Ġwild": 7626,
      "Ġtraject": 7627,
      "clusions": 7628,
      "Ġsatisfying": 7629,
      "ĠSports": 7630,
      "ĠSom": 7631,
      "bot": 7632,
      "anged": 7633,
      "Ġmiles": 7634,
      "Ġlocally": 7635,
      "uv": 7636,
      "Ġnet": 7637,
      "uler": 7638,
      "hens": 7639,
      "Ġepisodes": 7640,
      "uated": 7641,
      "ĠStudies": 7642,
      "Ġcaptured": 7643,
      "ĠBand": 7644,
      "ipe": 7645,
      "Ġscientific": 7646,
      "Ġtwice": 7647,
      "num": 7648,
      "Ġvertical": 7649,
      "Rem": 7650,
      "Ġstability": 7651,
      "$:": 7652,
      "hor": 7653,
      "Ġequipment": 7654,
      "Using": 7655,
      "Although": 7656,
      "\\}$.": 7657,
      "ensions": 7658,
      "ĠFollowing": 7659,
      "ester": 7660,
      "ontal": 7661,
      "110": 7662,
      "Ġpolicies": 7663,
      "dl": 7664,
      "Ġinstall": 7665,
      "Ġintegration": 7666,
      "ĠModel": 7667,
      "ĠGuard": 7668,
      "orig": 7669,
      "OL": 7670,
      "Ġtrees": 7671,
      "Some": 7672,
      "Ġdevices": 7673,
      "Ġsolar": 7674,
      "Ġtranslation": 7675,
      "vector": 7676,
      "results": 7677,
      "ĠStat": 7678,
      "aby": 7679,
      "Ġcalls": 7680,
      "Ġcoinc": 7681,
      "Ġisomorphism": 7682,
      "ĠOnt": 7683,
      "ĠPen": 7684,
      "DM": 7685,
      "unte": 7686,
      "itled": 7687,
      "ebox": 7688,
      "---": 7689,
      "Ġstatistical": 7690,
      "Ġeastern": 7691,
      "yo": 7692,
      "risis": 7693,
      "ĠAdminist": 7694,
      "bal": 7695,
      "nership": 7696,
      "Ġserves": 7697,
      "vee": 7698,
      "Ġirre": 7699,
      "Ġroll": 7700,
      "]$.": 7701,
      "bigr": 7702,
      "project": 7703,
      "Ġsust": 7704,
      "Ġtail": 7705,
      "Cor": 7706,
      "athan": 7707,
      "integ": 7708,
      "ĠBBC": 7709,
      "Ġprominent": 7710,
      "bec": 7711,
      "Ġpowers": 7712,
      "Ġteacher": 7713,
      "agon": 7714,
      "ĠSciences": 7715,
      "stable": 7716,
      "lock": 7717,
      "Ġscript": 7718,
      "III": 7719,
      "ĠPoint": 7720,
      "Gu": 7721,
      "Ġminister": 7722,
      "ĠSunday": 7723,
      "DB": 7724,
      "Aut": 7725,
      "rows": 7726,
      "ĠSuch": 7727,
      "Ġ===": 7728,
      "Ġsubsequent": 7729,
      "Ġroles": 7730,
      "writer": 7731,
      "sey": 7732,
      "ocated": 7733,
      "lers": 7734,
      "1938": 7735,
      "Ġpix": 7736,
      "ĠPolit": 7737,
      "RS": 7738,
      "1936": 7739,
      "acent": 7740,
      "ĠSecurity": 7741,
      "Ġconsequence": 7742,
      "Ġmathemat": 7743,
      "Disc": 7744,
      "Men": 7745,
      "Ġplanned": 7746,
      "\\;": 7747,
      "Ġhands": 7748,
      "]}": 7749,
      "arthe": 7750,
      "Ġhab": 7751,
      "Ġmunicipality": 7752,
      "Ġinject": 7753,
      "Ġextend": 7754,
      "Ġdecades": 7755,
      "ĠArgent": 7756,
      "Ġplanning": 7757,
      "ĠCorn": 7758,
      "rog": 7759,
      "Ġtests": 7760,
      ",\\,\\": 7761,
      "ĠFund": 7762,
      "Ġsubgroup": 7763,
      "Ġprojection": 7764,
      "hr": 7765,
      "ĠIslands": 7766,
      "ĠJean": 7767,
      "Ġvehicle": 7768,
      "aved": 7769,
      "$_{": 7770,
      "ĠRog": 7771,
      "}}_{\\": 7772,
      "Ġappearances": 7773,
      "ĠKorean": 7774,
      "Ġdust": 7775,
      "inton": 7776,
      "ĠTam": 7777,
      "Ġoccurred": 7778,
      "Dem": 7779,
      "Ġsomew": 7780,
      "ĠMedical": 7781,
      "ĠVill": 7782,
      "ading": 7783,
      "Ġearth": 7784,
      "Ġrepresentative": 7785,
      "Ġfans": 7786,
      "urer": 7787,
      "Ġrecognized": 7788,
      "Ġviolence": 7789,
      "lections": 7790,
      "notes": 7791,
      "Ġprotection": 7792,
      "vari": 7793,
      "Ġpredicted": 7794,
      "water": 7795,
      "pg": 7796,
      "PL": 7797,
      "high": 7798,
      "omer": 7799,
      "amin": 7800,
      "ÅĤ": 7801,
      "lesssim": 7802,
      "))\\": 7803,
      "ĠBon": 7804,
      "Ġpra": 7805,
      "Ġcoordinate": 7806,
      "apse": 7807,
      "--------------------------------": 7808,
      "Ġprovince": 7809,
      "Ġopposite": 7810,
      "Ġ\\]": 7811,
      "ĠThree": 7812,
      "ronic": 7813,
      "uffer": 7814,
      "Ġalongside": 7815,
      "osis": 7816,
      "Ġmanner": 7817,
      "Ġauthority": 7818,
      "Ġcapture": 7819,
      "diag": 7820,
      "Ġextends": 7821,
      "dfrac": 7822,
      "Ġengineering": 7823,
      "Ġrecognition": 7824,
      "Ġpossibility": 7825,
      "ĠCorporation": 7826,
      "riend": 7827,
      "Ġassistant": 7828,
      "ĠJacob": 7829,
      "Ġfunding": 7830,
      "Ã¡n": 7831,
      "DS": 7832,
      "Ġhousing": 7833,
      "Ġ{$": 7834,
      "Ġrepresentations": 7835,
      "May": 7836,
      "ader": 7837,
      "anth": 7838,
      "Ġabund": 7839,
      "Ġconven": 7840,
      "Ġpenal": 7841,
      "='": 7842,
      "Ġhttps": 7843,
      "ĠYour": 7844,
      "apes": 7845,
      "Ġcharges": 7846,
      "number": 7847,
      "ĠRome": 7848,
      "Ġconstitu": 7849,
      "Ġenvironmental": 7850,
      "...,": 7851,
      "Ġmotor": 7852,
      "Ġencoura": 7853,
      "vol": 7854,
      "Ġlaunch": 7855,
      "Ġsummar": 7856,
      "Ġterror": 7857,
      "Ġmotiv": 7858,
      "lementary": 7859,
      "ĠRevolution": 7860,
      "$};": 7861,
      "ĠPakistan": 7862,
      ">&": 7863,
      "Source": 7864,
      "Ġwrong": 7865,
      "Ġathlet": 7866,
      "Ġcalculate": 7867,
      "Ġcars": 7868,
      "Ġremove": 7869,
      "ropical": 7870,
      "Ġsurrounding": 7871,
      "ĠAssum": 7872,
      "ĠLight": 7873,
      "igger": 7874,
      "Ġmeant": 7875,
      "tfrac": 7876,
      "Ġurban": 7877,
      "Ġcontrovers": 7878,
      "Ġequilibrium": 7879,
      "Ġ^": 7880,
      "Ġven": 7881,
      "Ġcolle": 7882,
      "ynamic": 7883,
      "Ġspecifically": 7884,
      "ogen": 7885,
      "heim": 7886,
      "Ġalt": 7887,
      "Ġcircum": 7888,
      "Ġpurposes": 7889,
      "longrightarrow": 7890,
      "=\"../../../../": 7891,
      "Ġfeaturing": 7892,
      "ami": 7893,
      "Ġ$.": 7894,
      "Ġnor": 7895,
      "etherlands": 7896,
      "'.": 7897,
      "apl": 7898,
      "mediate": 7899,
      "Manager": 7900,
      "brid": 7901,
      "car": 7902,
      "Message": 7903,
      "ĠMike": 7904,
      "utenant": 7905,
      "ĠServices": 7906,
      "actory": 7907,
      "ĠElizabeth": 7908,
      "brace": 7909,
      "Ġconvent": 7910,
      "Ġsufficiently": 7911,
      "Ġstarts": 7912,
      "ĠJews": 7913,
      "ĠLew": 7914,
      "Ġexpanded": 7915,
      "Ġgraduated": 7916,
      ",\\\\": 7917,
      "}})": 7918,
      "ĠDar": 7919,
      "Ġcollected": 7920,
      "Ġunderlying": 7921,
      "ĠNC": 7922,
      "Ġheard": 7923,
      "Ġrobust": 7924,
      ":#": 7925,
      "Ġprocessing": 7926,
      "ĠToronto": 7927,
      "ĠCambridge": 7928,
      "OP": 7929,
      "Ġdimensional": 7930,
      "1937": 7931,
      "World": 7932,
      "ĠCub": 7933,
      "System": 7934,
      "Ġgr": 7935,
      "ĠIndust": 7936,
      "Ġpromoted": 7937,
      "dat": 7938,
      "Ġaudience": 7939,
      "ĠIndeed": 7940,
      "%)": 7941,
      "unities": 7942,
      "ĠCP": 7943,
      "Ġaware": 7944,
      "Ġperman": 7945,
      "Ġcommittee": 7946,
      "Ġpossibly": 7947,
      "ĠManagement": 7948,
      "LT": 7949,
      "hol": 7950,
      "ordan": 7951,
      "ogs": 7952,
      "Ġdeveloping": 7953,
      "defined": 7954,
      "Ġobjective": 7955,
      "dev": 7956,
      "weet": 7957,
      "Ġpit": 7958,
      "Right": 7959,
      "Ġluminos": 7960,
      "unit": 7961,
      "VD": 7962,
      "Ġnil": 7963,
      "ĠBrad": 7964,
      "aret": 7965,
      "Ġcompeted": 7966,
      "Ġboy": 7967,
      "islative": 7968,
      "Ġinspired": 7969,
      "zo": 7970,
      "plicity": 7971,
      "Ġjava": 7972,
      "peror": 7973,
      "Ġturns": 7974,
      "zen": 7975,
      "Ġapplying": 7976,
      "Ġacknow": 7977,
      "onym": 7978,
      "aki": 7979,
      "ĠSydney": 7980,
      "joint": 7981,
      "ĠAN": 7982,
      "ĠMarg": 7983,
      "iga": 7984,
      "Ġcricket": 7985,
      "Ġneutr": 7986,
      "ĠOntario": 7987,
      "Ġattract": 7988,
      "ĠFair": 7989,
      "Min": 7990,
      "ĠLo": 7991,
      "flu": 7992,
      "dy": 7993,
      "})}": 7994,
      "$&": 7995,
      "ĠAvenue": 7996,
      "olis": 7997,
      "ĠPhiladelphia": 7998,
      "]$,": 7999,
      "Ġestate": 8000,
      "ĠSher": 8001,
      "Ġbos": 8002,
      "Ġimplemented": 8003,
      "University": 8004,
      "GN": 8005,
      "Ġindustrial": 8006,
      "etal": 8007,
      "adow": 8008,
      "BM": 8009,
      "Ġflight": 8010,
      "Ġadministrative": 8011,
      "ĠChris": 8012,
      "ĠRod": 8013,
      "Ġtells": 8014,
      "Ġreality": 8015,
      "akh": 8016,
      "perial": 8017,
      "perties": 8018,
      "Ġends": 8019,
      "Music": 8020,
      "Ġbegins": 8021,
      "ĠClark": 8022,
      "Ġrural": 8023,
      "Ġdamage": 8024,
      "})=": 8025,
      "Ġdatasets": 8026,
      "ĠFamily": 8027,
      "apped": 8028,
      "ĠAst": 8029,
      "Ġvirtual": 8030,
      "consin": 8031,
      "ruit": 8032,
      "oster": 8033,
      "\"),": 8034,
      "event": 8035,
      "ecutive": 8036,
      "hard": 8037,
      "Ġmorning": 8038,
      "Ġreviews": 8039,
      "Ġblocks": 8040,
      "sect": 8041,
      "Ġsuitable": 8042,
      "][]{": 8043,
      "Ġperspect": 8044,
      "raine": 8045,
      "Sing": 8046,
      "arse": 8047,
      "ĠTrust": 8048,
      ")--": 8049,
      "Ġweights": 8050,
      "quarters": 8051,
      "Ġnotes": 8052,
      "algorithm": 8053,
      "Ġturb": 8054,
      "oned": 8055,
      "ĠWin": 8056,
      "ĠRen": 8057,
      ",{\\": 8058,
      "Ġviews": 8059,
      "mathop": 8060,
      "ussion": 8061,
      "Ġrepeated": 8062,
      "Ġplants": 8063,
      ";\\;\\": 8064,
      "chestra": 8065,
      "actic": 8066,
      "Sport": 8067,
      "Ġheav": 8068,
      "ĠSant": 8069,
      "Ġauthorities": 8070,
      "}}.": 8071,
      "dule": 8072,
      "include": 8073,
      "gal": 8074,
      "orthe": 8075,
      "Cal": 8076,
      "Pos": 8077,
      "Ġexplicitly": 8078,
      "sex": 8079,
      "[-": 8080,
      "ĠWalk": 8081,
      "])": 8082,
      "Ġcategories": 8083,
      "false": 8084,
      "iful": 8085,
      "ECT": 8086,
      "ĠRetrieved": 8087,
      "ented": 8088,
      "ĠMaster": 8089,
      "Ġagents": 8090,
      "iota": 8091,
      "urns": 8092,
      "sat": 8093,
      "Ġjet": 8094,
      "enses": 8095,
      "ronze": 8096,
      "RC": 8097,
      "Ġmess": 8098,
      "Ġvehicles": 8099,
      "fold": 8100,
      "Ġthin": 8101,
      "wing": 8102,
      "Ġ^{": 8103,
      "Ġprepar": 8104,
      "Call": 8105,
      "indu": 8106,
      "scape": 8107,
      "urches": 8108,
      "ĠOt": 8109,
      "ĠSa": 8110,
      "Ġdaily": 8111,
      "ĠRom": 8112,
      "Ġagric": 8113,
      "Ġhistoric": 8114,
      "Ġmargin": 8115,
      "search": 8116,
      "ĠSM": 8117,
      "ierarch": 8118,
      "ĠDisc": 8119,
      "bro": 8120,
      "Ġperhaps": 8121,
      "Ġabsolute": 8122,
      "Ġdiver": 8123,
      "Ġferm": 8124,
      "tail": 8125,
      "Ġshell": 8126,
      "weg": 8127,
      "600": 8128,
      "itational": 8129,
      "owa": 8130,
      "TC": 8131,
      "ĠDer": 8132,
      "Ġsrc": 8133,
      "bras": 8134,
      "sche": 8135,
      "life": 8136,
      "Ġtempor": 8137,
      "Ġcontrad": 8138,
      "ictures": 8139,
      "olitan": 8140,
      "}}^{\\": 8141,
      "tw": 8142,
      "leton": 8143,
      "othing": 8144,
      "Track": 8145,
      "fs": 8146,
      "osophy": 8147,
      "Ġbeat": 8148,
      "ĠRun": 8149,
      "Cre": 8150,
      "igrants": 8151,
      "Ġfinds": 8152,
      "ĠInformation": 8153,
      "Ġswitch": 8154,
      "vature": 8155,
      "ingly": 8156,
      "Ġvotes": 8157,
      "ĠGer": 8158,
      "yset": 8159,
      "ifer": 8160,
      "doc": 8161,
      "ego": 8162,
      "Ġinverse": 8163,
      "Ġtrip": 8164,
      "hu": 8165,
      "Austral": 8166,
      "Ġdeploy": 8167,
      "Ġderivative": 8168,
      "Ġclin": 8169,
      "His": 8170,
      "emet": 8171,
      "ĠCirc": 8172,
      "Ġclosely": 8173,
      "Top": 8174,
      "Ġassumptions": 8175,
      "Ġaccurate": 8176,
      "Ġpal": 8177,
      "Ġ};": 8178,
      "clusive": 8179,
      "ĠRegion": 8180,
      "]{\\": 8181,
      "}[\\": 8182,
      "Ġperformances": 8183,
      "${\\": 8184,
      "Ġdoub": 8185,
      "Ġsolo": 8186,
      "Ġinvestigate": 8187,
      "RI": 8188,
      "Ġclient": 8189,
      "ĠDespite": 8190,
      "Ġmixing": 8191,
      "////////": 8192,
      "tty": 8193,
      "Ġemployees": 8194,
      "Ä±": 8195,
      "Ġsilver": 8196,
      "Ġbias": 8197,
      "Ġconsult": 8198,
      "1919": 8199,
      "Ġdeclared": 8200,
      "Ã£": 8201,
      "ĠCur": 8202,
      "Ġelectronic": 8203,
      "Ġbenefit": 8204,
      "Ġcontemporary": 8205,
      "Ġresident": 8206,
      "1914": 8207,
      "ĠMain": 8208,
      "ĠKim": 8209,
      "|}{": 8210,
      "Ġeveryone": 8211,
      "Ġdesired": 8212,
      "Ġsupply": 8213,
      "Ġfrag": 8214,
      "Ġtools": 8215,
      "ais": 8216,
      "cret": 8217,
      "Ġinnov": 8218,
      "Ġcoverage": 8219,
      "Ġsail": 8220,
      "Ġcatch": 8221,
      "ĠAnton": 8222,
      "1917": 8223,
      "xx": 8224,
      "lyn": 8225,
      "Cell": 8226,
      "ieces": 8227,
      "Ġconsisting": 8228,
      "Ġteaching": 8229,
      "Exp": 8230,
      "ĠWeb": 8231,
      "\").": 8232,
      "Ġatmosp": 8233,
      "Head": 8234,
      "How": 8235,
      "Ġsuccessfully": 8236,
      "ĠIS": 8237,
      "apore": 8238,
      "aska": 8239,
      "Ġsuperv": 8240,
      "ĠSus": 8241,
      "Ġestimation": 8242,
      "ĠVis": 8243,
      "Ġintroduction": 8244,
      "Ġextremely": 8245,
      "compon": 8246,
      "ication": 8247,
      "Ġdriving": 8248,
      "Ġmusicians": 8249,
      "})^": 8250,
      "Ġnewly": 8251,
      "ĠAppendix": 8252,
      "Ġdestroyed": 8253,
      "Ġdiscrim": 8254,
      "Ġsculpt": 8255,
      "1935": 8256,
      "hedral": 8257,
      "aton": 8258,
      "Result": 8259,
      "eless": 8260,
      "Resp": 8261,
      "Dr": 8262,
      "Ġofficially": 8263,
      "elihood": 8264,
      "aa": 8265,
      "Ġsimultane": 8266,
      "Ġadvert": 8267,
      "Ġcommut": 8268,
      "emptyset": 8269,
      "Ġaspects": 8270,
      "ĠWeek": 8271,
      "Ġtool": 8272,
      "}}}\\": 8273,
      "ochastic": 8274,
      "Ġexplo": 8275,
      "ĠSanta": 8276,
      "pet": 8277,
      "AV": 8278,
      "Ġbulk": 8279,
      "Ġmapping": 8280,
      "css": 8281,
      "Ġchance": 8282,
      "Ġchanging": 8283,
      "Ġcorpor": 8284,
      "Ġdiagonal": 8285,
      "ithub": 8286,
      "fully": 8287,
      "pool": 8288,
      "Polit": 8289,
      "Ġdetected": 8290,
      "Ġnotable": 8291,
      "Ġfeet": 8292,
      "algebra": 8293,
      "They": 8294,
      "iem": 8295,
      "Ġinvestment": 8296,
      "Ġadvanced": 8297,
      "ĠNaz": 8298,
      "Ġresulted": 8299,
      "Ġevaluate": 8300,
      "Ġcooper": 8301,
      "Gl": 8302,
      "ups": 8303,
      "db": 8304,
      "Nov": 8305,
      "bourne": 8306,
      "scriptsize": 8307,
      "Ġdynamic": 8308,
      "Ġprotect": 8309,
      "Ġremember": 8310,
      "Ġprecis": 8311,
      "google": 8312,
      "Ġeq": 8313,
      "ĠPers": 8314,
      "del": 8315,
      "emetery": 8316,
      "ĠAk": 8317,
      "Ġagree": 8318,
      "Ġmorphism": 8319,
      "ses": 8320,
      "power": 8321,
      "Ġpatterns": 8322,
      "Ġdens": 8323,
      "Ġadvance": 8324,
      "ĠNetherlands": 8325,
      "Ġindicated": 8326,
      "CM": 8327,
      "Ġaffect": 8328,
      ")}_": 8329,
      "gebras": 8330,
      "ĠMinnes": 8331,
      "ĠTok": 8332,
      "tx": 8333,
      "Ġrect": 8334,
      "paragraph": 8335,
      "aturday": 8336,
      "write": 8337,
      "urance": 8338,
      "Ġportion": 8339,
      "ĠColl": 8340,
      "South": 8341,
      "omy": 8342,
      "ĠBeach": 8343,
      "leep": 8344,
      "present": 8345,
      "EX": 8346,
      "Ġlabels": 8347,
      "ometry": 8348,
      "eaking": 8349,
      "Ġfunds": 8350,
      "ĠKel": 8351,
      "1933": 8352,
      "fi": 8353,
      "Ġwinners": 8354,
      "ĠHay": 8355,
      "Ġempty": 8356,
      "iples": 8357,
      "Ġgravity": 8358,
      "vements": 8359,
      "Ġly": 8360,
      "Ġcerem": 8361,
      "pson": 8362,
      "ourier": 8363,
      "\\)": 8364,
      "Ġfacility": 8365,
      "mn": 8366,
      "Ġsubs": 8367,
      "Ġconstants": 8368,
      "Ġenergies": 8369,
      "Ġgranted": 8370,
      "second": 8371,
      "iÄĩ": 8372,
      "FI": 8373,
      "ĠDuke": 8374,
      "Ġradial": 8375,
      "Ġenh": 8376,
      "Ġlov": 8377,
      "1929": 8378,
      "worth": 8379,
      "ĠObama": 8380,
      "ighth": 8381,
      "Ġdance": 8382,
      "ĠRaj": 8383,
      "conf": 8384,
      "ĠMinnesota": 8385,
      "Ġcommit": 8386,
      "ĠAddition": 8387,
      "establ": 8388,
      "Ġtopological": 8389,
      "riday": 8390,
      "Ġrelax": 8391,
      "HL": 8392,
      "py": 8393,
      "Ġchampion": 8394,
      "Ġbehaviour": 8395,
      "adian": 8396,
      "ĠForest": 8397,
      "ĠMember": 8398,
      "Ġmunicipal": 8399,
      "HC": 8400,
      "rizona": 8401,
      "ĠType": 8402,
      "Ġentirely": 8403,
      "Ġtransmission": 8404,
      "context": 8405,
      "Ġbra": 8406,
      "Ġwaves": 8407,
      "ĠWars": 8408,
      "Ġcanonical": 8409,
      "Ġquadr": 8410,
      "ledg": 8411,
      "ĠOfficial": 8412,
      "Ġ\\&": 8413,
      "ĠBatt": 8414,
      "Ã¸": 8415,
      "dir": 8416,
      "=.": 8417,
      "Ġpages": 8418,
      "Ġtemperatures": 8419,
      "================": 8420,
      "columnwidth": 8421,
      "ĠLog": 8422,
      "DR": 8423,
      "parameter": 8424,
      "aux": 8425,
      "ĠHun": 8426,
      "Ġprecisely": 8427,
      "Ġextensive": 8428,
      "rl": 8429,
      "ĠFox": 8430,
      "\"|": 8431,
      "Ġsatisfied": 8432,
      "ĠAnth": 8433,
      "Ġfashion": 8434,
      "Ġmaximal": 8435,
      "plane": 8436,
      "Ġcauses": 8437,
      "Ġsession": 8438,
      "Ġsampling": 8439,
      "Ġexpatriate": 8440,
      "ĠBrig": 8441,
      "isted": 8442,
      "Ġadjust": 8443,
      "ULL": 8444,
      "utt": 8445,
      "itative": 8446,
      "ĠBad": 8447,
      "opher": 8448,
      "lik": 8449,
      "ĠDavis": 8450,
      "Ġneural": 8451,
      "Ġreaction": 8452,
      "^{*": 8453,
      "Ġaffili": 8454,
      "=\"../": 8455,
      "ĠLabor": 8456,
      "yal": 8457,
      "ĠFree": 8458,
      "ĠVen": 8459,
      "1910": 8460,
      "ĠIV": 8461,
      "Ġdivers": 8462,
      "anna": 8463,
      "ĠInternet": 8464,
      "Ġouter": 8465,
      "elect": 8466,
      "call": 8467,
      "ĠRegiment": 8468,
      "1934": 8469,
      "Ġshop": 8470,
      "ĠKir": 8471,
      "Ġhosted": 8472,
      "uri": 8473,
      "Ġcomputing": 8474,
      "kish": 8475,
      "Äį": 8476,
      "1900": 8477,
      "orders": 8478,
      "Ġce": 8479,
      "800": 8480,
      "plom": 8481,
      "Ġconclusion": 8482,
      "Ġrich": 8483,
      "Ġterritory": 8484,
      "general": 8485,
      "dep": 8486,
      "null": 8487,
      "ĠTurkey": 8488,
      "Ġinterior": 8489,
      "ĠJesus": 8490,
      "tiny": 8491,
      "Ġpassing": 8492,
      "Ġparticipated": 8493,
      "Personal": 8494,
      "func": 8495,
      "ĠGro": 8496,
      "ĠLind": 8497,
      "âĢĿ.": 8498,
      "Base": 8499,
      "everal": 8500,
      "Ġcopies": 8501,
      "Ġwing": 8502,
      "Ġintensity": 8503,
      "organ": 8504,
      "1928": 8505,
      "Ġconfirm": 8506,
      "package": 8507,
      "Ġdocuments": 8508,
      "osl": 8509,
      "Ġelev": 8510,
      "oli": 8511,
      "Ġcorner": 8512,
      "ĠFace": 8513,
      "TT": 8514,
      "ĠConstitution": 8515,
      "ĠCommand": 8516,
      "erior": 8517,
      "Ġfell": 8518,
      "cow": 8519,
      "Ġgained": 8520,
      "Ġfiction": 8521,
      "achers": 8522,
      "Ġlowest": 8523,
      "ĠRights": 8524,
      "ĠLady": 8525,
      "Tra": 8526,
      "Ġcm": 8527,
      "roller": 8528,
      "ĠWisconsin": 8529,
      "Ġtrivial": 8530,
      "Ġstandards": 8531,
      "Ġintersection": 8532,
      "prot": 8533,
      "special": 8534,
      "Ġjudge": 8535,
      "ĠTy": 8536,
      "ads": 8537,
      "Ġquery": 8538,
      "Ġliqu": 8539,
      "artheta": 8540,
      "Ġstorage": 8541,
      "Ġdrawn": 8542,
      "ĠQueens": 8543,
      "ĠStadium": 8544,
      "Ġshock": 8545,
      "iveness": 8546,
      "DC": 8547,
      "Ġexperi": 8548,
      "slash": 8549,
      "lywood": 8550,
      "sequently": 8551,
      "icate": 8552,
      "Ġcontrolled": 8553,
      "Ġpool": 8554,
      "ĠStephen": 8555,
      "ĠCas": 8556,
      "ĠSab": 8557,
      "urations": 8558,
      "Ġnonlinear": 8559,
      "Ġplus": 8560,
      "Ġcomputational": 8561,
      "Ġrational": 8562,
      "vartheta": 8563,
      "ĠFire": 8564,
      "Ġexclud": 8565,
      "umes": 8566,
      "anes": 8567,
      "Em": 8568,
      "ĠGlobal": 8569,
      "Ġmatching": 8570,
      "element": 8571,
      "Ġhidden": 8572,
      "Do": 8573,
      "Ġcomments": 8574,
      "Ġcovers": 8575,
      "Ġfinish": 8576,
      "Ġbenefits": 8577,
      "ben": 8578,
      "ĠSteve": 8579,
      "ĠMedal": 8580,
      "Ġrecip": 8581,
      "Ġbelief": 8582,
      "Ġreferences": 8583,
      "ritical": 8584,
      "Ġasymptotic": 8585,
      "Ġzone": 8586,
      "Ġbroken": 8587,
      "iary": 8588,
      "ĠProdu": 8589,
      "Ġraces": 8590,
      "Ev": 8591,
      "perform": 8592,
      "models": 8593,
      "Ġcrow": 8594,
      "Ġspons": 8595,
      "rell": 8596,
      "ĠBridge": 8597,
      "Ġnegot": 8598,
      "Two": 8599,
      "github": 8600,
      "Ġtele": 8601,
      "Ġvisible": 8602,
      "ĠKey": 8603,
      "ĠPass": 8604,
      "struction": 8605,
      "}_{-": 8606,
      "Ġcriminal": 8607,
      "Ġsequences": 8608,
      "Property": 8609,
      "Proof": 8610,
      "aded": 8611,
      "Ġderive": 8612,
      "Ġnecessarily": 8613,
      "ĠConf": 8614,
      "Ġequality": 8615,
      "Ġpublication": 8616,
      "ci": 8617,
      "formal": 8618,
      "Ġtitles": 8619,
      "asters": 8620,
      "target": 8621,
      "Ġ}{": 8622,
      "ĠGree": 8623,
      "Ġretire": 8624,
      "1932": 8625,
      "Ġidentical": 8626,
      "evin": 8627,
      "Ġuniversal": 8628,
      "ĠSwedish": 8629,
      "Ġcampus": 8630,
      "Ġarts": 8631,
      "Ġscope": 8632,
      "ifact": 8633,
      "ĠAuthor": 8634,
      "ĠOnly": 8635,
      "gency": 8636,
      "rastructure": 8637,
      "dependent": 8638,
      "ĠStr": 8639,
      "Ġfaculty": 8640,
      "ito": 8641,
      "Ġsuffered": 8642,
      "Ġphoton": 8643,
      "ennessee": 8644,
      "Ġfrequently": 8645,
      "eties": 8646,
      "Off": 8647,
      "ĠNY": 8648,
      "Ã©e": 8649,
      "Ġinterests": 8650,
      "Ġbrain": 8651,
      "Ġrestaur": 8652,
      "Date": 8653,
      "slant": 8654,
      "ropic": 8655,
      "ĠMethod": 8656,
      "ĠMill": 8657,
      "mad": 8658,
      "vard": 8659,
      "Following": 8660,
      "Ġmaxim": 8661,
      "possible": 8662,
      "regon": 8663,
      "Ġdefin": 8664,
      "Ġeffectively": 8665,
      "Ġconnect": 8666,
      "ĠRon": 8667,
      "ĠAlf": 8668,
      "Ġargued": 8669,
      "Ġdoll": 8670,
      "ĠDown": 8671,
      "Ġintegrated": 8672,
      "ni": 8673,
      "ĠGolden": 8674,
      "ypes": 8675,
      "ĠSem": 8676,
      "Ġtheme": 8677,
      "Ġsupporting": 8678,
      "ĠDam": 8679,
      "theless": 8680,
      "Ġtreated": 8681,
      "istent": 8682,
      "icip": 8683,
      "stood": 8684,
      "Ġpurchased": 8685,
      "Input": 8686,
      "unes": 8687,
      "ĠTal": 8688,
      "Ġaband": 8689,
      "Writ": 8690,
      "ĠMond": 8691,
      "Ġpredictions": 8692,
      "Ġtaught": 8693,
      "ĠForeign": 8694,
      "Ġvice": 8695,
      "/(": 8696,
      "pop": 8697,
      "ĠAM": 8698,
      "Ġgeneralized": 8699,
      "alion": 8700,
      "ĠĠĠĠĠĠĠĠĠĠĠĠĠĠĠĠĠĠĠĠĠĠĠĠĠĠĠĠĠĠĠ": 8701,
      "Ġwitness": 8702,
      "ĠWrit": 8703,
      "Ġdocumentary": 8704,
      "Ġphysic": 8705,
      "Ġinterpretation": 8706,
      "Ġspot": 8707,
      "ĠBack": 8708,
      "Ġrig": 8709,
      "iang": 8710,
      "ĠHo": 8711,
      "ĠLes": 8712,
      "Ġdefense": 8713,
      "Ġlisting": 8714,
      "}}=": 8715,
      "Ġquantities": 8716,
      "}|\\": 8717,
      "ĠMarsh": 8718,
      "Ġfounder": 8719,
      "osa": 8720,
      "ĠCL": 8721,
      "Ġrout": 8722,
      "Ġarc": 8723,
      "}$}": 8724,
      "Association": 8725,
      "\\}\\": 8726,
      "ĠAthlet": 8727,
      "Ġrefers": 8728,
      "\\}$,": 8729,
      "sd": 8730,
      "Ġauto": 8731,
      "boldmath": 8732,
      "hl": 8733,
      "Given": 8734,
      "1922": 8735,
      "Ġopposition": 8736,
      "secutive": 8737,
      "FM": 8738,
      "vo": 8739,
      "ĠBudd": 8740,
      ";</": 8741,
      "Ġfiles": 8742,
      "RL": 8743,
      "Ġroughly": 8744,
      "Ġyounger": 8745,
      "Ġsignals": 8746,
      "ĠChristmas": 8747,
      "Ġembedding": 8748,
      "User": 8749,
      "Ġchallenges": 8750,
      "Ġspring": 8751,
      "ĠHard": 8752,
      "ĠEngineering": 8753,
      "Ġask": 8754,
      "Ġinhab": 8755,
      "ĠCountry": 8756,
      "Image": 8757,
      "ĠPremier": 8758,
      "Ġattempts": 8759,
      "Ġscholar": 8760,
      "obe": 8761,
      "Ġquark": 8762,
      "ĠProt": 8763,
      "ĠAdd": 8764,
      "Ġsan": 8765,
      "ĠAffairs": 8766,
      "Ã£o": 8767,
      "Go": 8768,
      "Ġsend": 8769,
      "ropolitan": 8770,
      "Cast": 8771,
      "ĠAtlantic": 8772,
      "UE": 8773,
      "German": 8774,
      "Ġultimately": 8775,
      "Ġ\\(\\": 8776,
      "1931": 8777,
      "yard": 8778,
      "ĠSweden": 8779,
      "ibration": 8780,
      "tikzpicture": 8781,
      "ĉĉĊ": 8782,
      "Ġdefeat": 8783,
      "jan": 8784,
      "Ġagency": 8785,
      "ĠIndones": 8786,
      "Ġarms": 8787,
      "Ġdriver": 8788,
      "Ġexpert": 8789,
      "Ġtransp": 8790,
      "Ġhuge": 8791,
      "Ġmagnet": 8792,
      "ĠDesign": 8793,
      "ifferent": 8794,
      "Ġdoctor": 8795,
      "ĠWho": 8796,
      "figures": 8797,
      "Ġisn": 8798,
      "Ġabsence": 8799,
      "Ġparliament": 8800,
      "Ġknew": 8801,
      "Mat": 8802,
      "ĠMic": 8803,
      "wegian": 8804,
      "Ġpieces": 8805,
      "Ġsave": 8806,
      "1927": 8807,
      "loop": 8808,
      "Ġsell": 8809,
      "Ġinjury": 8810,
      "Ġextract": 8811,
      "Hence": 8812,
      "ĠEnergy": 8813,
      "Ġdiagn": 8814,
      "Sum": 8815,
      "Po": 8816,
      "ĠDig": 8817,
      "Ġvess": 8818,
      "1924": 8819,
      "BI": 8820,
      "Ġaccident": 8821,
      "Ġaggreg": 8822,
      "Ġdependent": 8823,
      "inction": 8824,
      "____": 8825,
      "Ġredshift": 8826,
      "ĠEvery": 8827,
      "issions": 8828,
      "Ġhypothesis": 8829,
      "Ġnovels": 8830,
      "}~": 8831,
      "cale": 8832,
      "arest": 8833,
      "International": 8834,
      "pto": 8835,
      "Ġreceiving": 8836,
      "vs": 8837,
      "Ġquasi": 8838,
      "ĠMissouri": 8839,
      "Ġinfer": 8840,
      "Ġbriefly": 8841,
      "Dav": 8842,
      "including": 8843,
      "ĠIsraeli": 8844,
      "Ġexcell": 8845,
      "Ġ({\\": 8846,
      "Consider": 8847,
      "Ġsatell": 8848,
      "Ġparish": 8849,
      "option": 8850,
      "Met": 8851,
      "Ġiron": 8852,
      "Ġtwenty": 8853,
      "([": 8854,
      "Ġdie": 8855,
      "tag": 8856,
      "Ġnav": 8857,
      "Ġdomestic": 8858,
      "Ġwealth": 8859,
      "Ġarrested": 8860,
      "ĠBishop": 8861,
      "Ġflows": 8862,
      "ĠTa": 8863,
      "rosc": 8864,
      "ĠColorado": 8865,
      "Ġrom": 8866,
      "Ġapproved": 8867,
      "Ġhouseholds": 8868,
      "rained": 8869,
      "TS": 8870,
      "ĠCzech": 8871,
      "Point": 8872,
      "ĠHiggs": 8873,
      "Ġthank": 8874,
      "Ġconcerns": 8875,
      "Lemma": 8876,
      "ĠMilitary": 8877,
      "ĠKansas": 8878,
      "tains": 8879,
      "ptic": 8880,
      "andy": 8881,
      "Ġcamera": 8882,
      "&=\\": 8883,
      "Ġpiano": 8884,
      "aga": 8885,
      "Ġletters": 8886,
      "Ġstands": 8887,
      "ĠCase": 8888,
      "namespace": 8889,
      "Ġindependence": 8890,
      "128": 8891,
      "125": 8892,
      "Ġinteract": 8893,
      "ambig": 8894,
      "Ġentries": 8895,
      "Ġ$,": 8896,
      "Label": 8897,
      "ĠOF": 8898,
      "Ġpaths": 8899,
      "Client": 8900,
      "bell": 8901,
      "icular": 8902,
      "Ġhighlight": 8903,
      "Ġessentially": 8904,
      "ogether": 8905,
      "Ġsummary": 8906,
      "Ġcompat": 8907,
      "Ġextent": 8908,
      "Xi": 8909,
      "Ġcontest": 8910,
      "Ġpush": 8911,
      "ulse": 8912,
      "irty": 8913,
      "Ġnotion": 8914,
      "Ġbool": 8915,
      "unnel": 8916,
      "isson": 8917,
      "ĠLive": 8918,
      "iner": 8919,
      "ĠFinal": 8920,
      "ois": 8921,
      "ĠBru": 8922,
      "Ġswim": 8923,
      "Ġwasn": 8924,
      "Max": 8925,
      "Ġhero": 8926,
      "pes": 8927,
      "Ġadjacent": 8928,
      "Ġranked": 8929,
      "ĠLast": 8930,
      "ĠOrig": 8931,
      "agan": 8932,
      "ĠExecutive": 8933,
      "Ġopposed": 8934,
      "obs": 8935,
      "rating": 8936,
      "Ġunable": 8937,
      "ĠHart": 8938,
      "hire": 8939,
      "Ġanimals": 8940,
      "Ġhappen": 8941,
      "Ġvariance": 8942,
      "Ġcatal": 8943,
      "Ġreprodu": 8944,
      "Ġdynamical": 8945,
      "Ġtrace": 8946,
      "outheast": 8947,
      "ĠWinter": 8948,
      "Ġhappened": 8949,
      "rome": 8950,
      "Ġseparated": 8951,
      "chron": 8952,
      "diff": 8953,
      "Ġrenamed": 8954,
      "rine": 8955,
      "uling": 8956,
      "watch": 8957,
      "Ġdanger": 8958,
      "Ġfighting": 8959,
      "Ġlosing": 8960,
      "Ġexplan": 8961,
      "Ġskills": 8962,
      "Ġcharacteristics": 8963,
      "Ġhandle": 8964,
      "Ġtowns": 8965,
      "Description": 8966,
      "ĠSon": 8967,
      "ĠGener": 8968,
      "parison": 8969,
      "je": 8970,
      "adi": 8971,
      "enna": 8972,
      "ĠInit": 8973,
      "kh": 8974,
      "otal": 8975,
      "periment": 8976,
      "Ġraise": 8977,
      "ERT": 8978,
      "Ġpapers": 8979,
      "Ġopinion": 8980,
      "asty": 8981,
      "1925": 8982,
      "Ġcovering": 8983,
      "ĠReal": 8984,
      "ĠSpring": 8985,
      "inating": 8986,
      "ĠBooks": 8987,
      "ĠIndiana": 8988,
      "entry": 8989,
      "outs": 8990,
      "Ġsevent": 8991,
      "Ġfuel": 8992,
      "ĠOcean": 8993,
      "Ġequivalence": 8994,
      "101": 8995,
      "Ġreligion": 8996,
      "ĠMoh": 8997,
      "Builder": 8998,
      "Ġconstitution": 8999,
      "isa": 9000,
      "French": 9001,
      "rehens": 9002,
      "Ġcart": 9003,
      "ĠStock": 9004,
      "Ġalleged": 9005,
      "ĠMexican": 9006,
      "ordon": 9007,
      "Ġunless": 9008,
      "AE": 9009,
      "Query": 9010,
      "Ġahead": 9011,
      "subsec": 9012,
      "ĠBall": 9013,
      "Ġversus": 9014,
      "regular": 9015,
      "Ġapproximate": 9016,
      "nowledg": 9017,
      "plicated": 9018,
      "ĠKal": 9019,
      "./": 9020,
      "ĠBol": 9021,
      "parallel": 9022,
      "ĠĠĠĠĠĠĠĠĊ": 9023,
      "android": 9024,
      "Ġcurvature": 9025,
      "Ġpossess": 9026,
      "ĠBet": 9027,
      "iki": 9028,
      "ĠDC": 9029,
      "Ġcold": 9030,
      ":=\\": 9031,
      "season": 9032,
      "Ġpref": 9033,
      "ĠComput": 9034,
      "Ġanyone": 9035,
      "Ġtitled": 9036,
      "ensed": 9037,
      "Ġpropose": 9038,
      "1921": 9039,
      "ĠAgain": 9040,
      "coh": 9041,
      "chor": 9042,
      "Ġbundle": 9043,
      "een": 9044,
      "LC": 9045,
      "inian": 9046,
      "ĠLike": 9047,
      "Ġbreaking": 9048,
      "oupl": 9049,
      "parent": 9050,
      "1912": 9051,
      "ĠÃĥ": 9052,
      "bat": 9053,
      "eral": 9054,
      "icial": 9055,
      "ello": 9056,
      "forcement": 9057,
      ")</": 9058,
      "Ġseconds": 9059,
      "Ġluminosity": 9060,
      "Ġsettings": 9061,
      "ĠRoute": 9062,
      "author": 9063,
      "Ġbalance": 9064,
      "ĠSquad": 9065,
      "phantom": 9066,
      "1926": 9067,
      "Ġexceed": 9068,
      "ribed": 9069,
      "ename": 9070,
      "Ġvir": 9071,
      "ĠWel": 9072,
      "Ġconsecutive": 9073,
      "Ġrecommend": 9074,
      "Ġdisput": 9075,
      "Ġneutral": 9076,
      "ĠArthur": 9077,
      "ĠUs": 9078,
      "ĠEU": 9079,
      "mi": 9080,
      "Ġinsert": 9081,
      "Ġconvers": 9082,
      "ĠMemorial": 9083,
      ">(": 9084,
      "Ġrugby": 9085,
      "Ġfish": 9086,
      "Ġseats": 9087,
      "float": 9088,
      "arry": 9089,
      "Ġpartnership": 9090,
      "ĠMP": 9091,
      "ĠGiven": 9092,
      "Ġweapons": 9093,
      "ĠPM": 9094,
      "ĠSerb": 9095,
      "Ġsky": 9096,
      "ĠPeak": 9097,
      "Ġbuy": 9098,
      "Ġdatabase": 9099,
      "^*\\": 9100,
      "Ġgeneric": 9101,
      "Ġmobile": 9102,
      "Ġfluctuations": 9103,
      "Mark": 9104,
      "Ġlatest": 9105,
      "last": 9106,
      "Ġmolecular": 9107,
      "ĠArizona": 9108,
      "Ġstd": 9109,
      "ĠEth": 9110,
      "illing": 9111,
      "uning": 9112,
      "multirow": 9113,
      "LA": 9114,
      "^{(\\": 9115,
      "ĠFellow": 9116,
      "Ġcomposer": 9117,
      "+(": 9118,
      "Ġassuming": 9119,
      "Ġpractical": 9120,
      "oom": 9121,
      "Ð»": 9122,
      "adding": 9123,
      "Women": 9124,
      "Ġthousands": 9125,
      "ika": 9126,
      "Ġdedu": 9127,
      "Ġhour": 9128,
      "Ġdisapp": 9129,
      "Gener": 9130,
      "Di": 9131,
      "Ġcryst": 9132,
      "Ġdashed": 9133,
      "ĠBrother": 9134,
      "Number": 9135,
      "Ġserver": 9136,
      "ĠJoh": 9137,
      "Ġinstitution": 9138,
      "hent": 9139,
      "ĠÎ": 9140,
      "Red": 9141,
      "ĠColon": 9142,
      "Ġengineer": 9143,
      "ĠOs": 9144,
      "Sl": 9145,
      "Ġbran": 9146,
      "coln": 9147,
      "Background": 9148,
      "ĠReport": 9149,
      ")})": 9150,
      "wealth": 9151,
      "ativ": 9152,
      "Ġfluid": 9153,
      "ĠSingapore": 9154,
      "Ġmultip": 9155,
      "card": 9156,
      "INE": 9157,
      "ĠArea": 9158,
      "GM": 9159,
      "uther": 9160,
      "Last": 9161,
      "esian": 9162,
      "ĠMaria": 9163,
      "Ġjobs": 9164,
      "Ġdominant": 9165,
      "arity": 9166,
      "Ġadvoc": 9167,
      "1916": 9168,
      "1923": 9169,
      "Ġjournalist": 9170,
      "Ġgirls": 9171,
      "Ġanom": 9172,
      "islation": 9173,
      "Ġportray": 9174,
      "ĠTennessee": 9175,
      "scriptstyle": 9176,
      "angular": 9177,
      "Ġ,\\": 9178,
      "prov": 9179,
      "anga": 9180,
      "Ġstone": 9181,
      "Biography": 9182,
      "Ðº": 9183,
      "BO": 9184,
      "ĠPy": 9185,
      "ĠGeV": 9186,
      "Sm": 9187,
      "ĠAud": 9188,
      "ĠAD": 9189,
      "Ġexcess": 9190,
      "ĠMicro": 9191,
      "Ġandroid": 9192,
      "sort": 9193,
      "Ġvision": 9194,
      "Hel": 9195,
      "ĠSurvey": 9196,
      "ĠEu": 9197,
      "Ġjustice": 9198,
      ";&": 9199,
      "ghan": 9200,
      "ĠMiller": 9201,
      "ureau": 9202,
      "inking": 9203,
      "ĠOregon": 9204,
      "160": 9205,
      "inus": 9206,
      "omot": 9207,
      "Ġphoto": 9208,
      "Ġtru": 9209,
      "Port": 9210,
      "ĠHand": 9211,
      "Ġending": 9212,
      "Ġsurn": 9213,
      "rations": 9214,
      "Ġconfidence": 9215,
      "ocket": 9216,
      "Ġbench": 9217,
      "Ġuniverse": 9218,
      "awn": 9219,
      "Ġgovernor": 9220,
      "ivals": 9221,
      "ques": 9222,
      "Ġholding": 9223,
      "ĠHop": 9224,
      "ĠHoly": 9225,
      "aza": 9226,
      "ĠLore": 9227,
      "ĠId": 9228,
      "Ġcommitted": 9229,
      "Ġvot": 9230,
      "Ġseparation": 9231,
      "iversary": 9232,
      "Ġvacuum": 9233,
      "bu": 9234,
      "ĠIslamic": 9235,
      "ĠCaptain": 9236,
      "Ġcab": 9237,
      "ĠID": 9238,
      "Ġdistricts": 9239,
      "ymmetric": 9240,
      "rene": 9241,
      "php": 9242,
      "ĠGh": 9243,
      "Ġchairman": 9244,
      "Ġglass": 9245,
      "ĠVietnam": 9246,
      "ĠThrough": 9247,
      "Ġvisited": 9248,
      "ĠMoscow": 9249,
      "Another": 9250,
      "initely": 9251,
      "ĠSaturday": 9252,
      "ĠKer": 9253,
      "Suppose": 9254,
      "ĠGallery": 9255,
      "avor": 9256,
      "1915": 9257,
      "eries": 9258,
      "ĠCastle": 9259,
      "Ġdominated": 9260,
      "ĠGoogle": 9261,
      "ĠNon": 9262,
      "rangian": 9263,
      "ĠLewis": 9264,
      "cover": 9265,
      "Ġsupers": 9266,
      "Ãº": 9267,
      "Ġkin": 9268,
      "180": 9269,
      "Ġexpressions": 9270,
      "Rev": 9271,
      "ĠSat": 9272,
      "Ġconverted": 9273,
      "ĠBush": 9274,
      "Ġsafe": 9275,
      "ĠFederation": 9276,
      "pres": 9277,
      "iated": 9278,
      "Ġ{};": 9279,
      "Ġcalling": 9280,
      "mouth": 9281,
      "ĠHal": 9282,
      "Ġprotest": 9283,
      "roit": 9284,
      "Ġquantity": 9285,
      "ĠAdam": 9286,
      "Ġready": 9287,
      "Ġescape": 9288,
      "ĠPier": 9289,
      "aturally": 9290,
      "points": 9291,
      "select": 9292,
      "direct": 9293,
      "ported": 9294,
      "Override": 9295,
      "Ġcrisis": 9296,
      "ĠLeon": 9297,
      "ĠPhilippines": 9298,
      "ĠRoss": 9299,
      "zi": 9300,
      "ĠAh": 9301,
      "Ġoccasion": 9302,
      "mers": 9303,
      "Ġcorrections": 9304,
      "Ġperspective": 9305,
      "ĠAbout": 9306,
      "Ġdecrease": 9307,
      "ĠRa": 9308,
      "ancer": 9309,
      "ĠHou": 9310,
      "isor": 9311,
      "ĠMaryland": 9312,
      "Response": 9313,
      "stitut": 9314,
      "Moreover": 9315,
      "Ġproportional": 9316,
      "Ġpainting": 9317,
      "stan": 9318,
      "ĠFriday": 9319,
      "query": 9320,
      "Ġcredit": 9321,
      "Ste": 9322,
      "ĠGre": 9323,
      "Ġdemonstrate": 9324,
      "rea": 9325,
      "Ġburn": 9326,
      "BB": 9327,
      "1913": 9328,
      "Ġdense": 9329,
      "ulating": 9330,
      "ĠJordan": 9331,
      "stances": 9332,
      "Ġflood": 9333,
      "ructions": 9334,
      "FR": 9335,
      "Ġreader": 9336,
      "ĠFord": 9337,
      "Ġstack": 9338,
      "wind": 9339,
      "ĠPrinc": 9340,
      "Ġbusinesses": 9341,
      "Ġsomewhat": 9342,
      "Ġhall": 9343,
      "Ġdirections": 9344,
      "engers": 9345,
      "ĠFI": 9346,
      "uns": 9347,
      "Ġphases": 9348,
      "'ll": 9349,
      "Non": 9350,
      "Ġeigenvalues": 9351,
      "Ġaid": 9352,
      "Ġvanish": 9353,
      "pdate": 9354,
      "ĠLic": 9355,
      "ĠMult": 9356,
      "Ġexplore": 9357,
      "Olymp": 9358,
      "Ġsac": 9359,
      "Ġgreatest": 9360,
      "Ġ__": 9361,
      "Public": 9362,
      ".\\\\": 9363,
      "Ġintelligence": 9364,
      "ĠWhe": 9365,
      "Ġnob": 9366,
      "Ġrestricted": 9367,
      "Ġspac": 9368,
      "ĠMunic": 9369,
      "Ġoccupied": 9370,
      "ceived": 9371,
      "Ġentitled": 9372,
      "ounded": 9373,
      "thew": 9374,
      "Ġregistered": 9375,
      "{|": 9376,
      "ĠMach": 9377,
      "ĠSP": 9378,
      "ĠSav": 9379,
      "Play": 9380,
      "ĠHur": 9381,
      "ĠDonald": 9382,
      "Ġpreced": 9383,
      "efe": 9384,
      "phone": 9385,
      "Ġdropped": 9386,
      "Ġfresh": 9387,
      "Ġmist": 9388,
      "obj": 9389,
      "Ġfestival": 9390,
      "Christ": 9391,
      "si": 9392,
      "etch": 9393,
      "square": 9394,
      "ĠAR": 9395,
      "Â°": 9396,
      "Ġbodies": 9397,
      "Ġexpos": 9398,
      "ĠPrim": 9399,
      "Ġdemonstrated": 9400,
      "ĠDue": 9401,
      "stic": 9402,
      "ubble": 9403,
      "western": 9404,
      "world": 9405,
      "Ġgender": 9406,
      "ĠInvest": 9407,
      "Ġcircuit": 9408,
      "ONT": 9409,
      "ĠChildren": 9410,
      "ĠHan": 9411,
      "expected": 9412,
      "$^{": 9413,
      ")^\\": 9414,
      "eger": 9415,
      "ĠVice": 9416,
      "ĠTel": 9417,
      "Ġproducing": 9418,
      "Ġcorrection": 9419,
      "large": 9420,
      "~(\\": 9421,
      "Up": 9422,
      "ocracy": 9423,
      "Ġfemales": 9424,
      "rins": 9425,
      "Ġscoring": 9426,
      "Sche": 9427,
      "arios": 9428,
      "medskip": 9429,
      "Ġburied": 9430,
      "ĠTownship": 9431,
      "there": 9432,
      "Case": 9433,
      "stat": 9434,
      "\\|\\": 9435,
      "ĠMun": 9436,
      "instein": 9437,
      "agen": 9438,
      "description": 9439,
[...]
