#version: 0.2
Ġ Ġ
Ġ t
i n
h e
Ġ a
o n
r e
ĠĠ ĠĠ
a t
e r
Ġt he
e n
Ġ s
o r
a l
i t
i s
Ġ c
e s
Ġ o
a n
i on
a r
Ġ w
Ġ f
e d
Ġ p
l e
in g
Ġ b
n d
Ġo f
i c
Ġ in
r o
Ġ \
Ġ d
a s
Ġ m
Ġ $
c t
e t
Ġa nd
Ġt o
e l
o u
ĠĠ Ġ
en t
ĠĠĠĠ ĠĠĠĠ
i g
s t
Ġt h
o m
i l
a m
Ġ re
Ġ h
Ġ n
i m
at ion
Ġ e
a c
o t
o l
i d
Ġ l
Ġ is
{ \
Ġ (
u t
Ġ T
v e
s e
Ġ S
u r
Ġ g
Ġf or
r a
u l
o w
v er
q u
l y
c e
Ġ A
Ġ C
a b
â Ģ
o d
Ġ on
i f
u m
Ġb e
Ġ I
a d
Ġs t
Ġ u
_ {
it h
Ġth at
c h
e m
Ġ =
Ġc on
a g
e g
en d
ĠĠĠĠ ĠĠĠ
Ġ M
a y
at h
č Ċ
Ġ$ \
r i
h t
ct ion
i r
Ġw ith
t er
Ġa s
p e
Ġ v
e x
Ġ P
at e
Ġw e
t h
Ġa n
Ġp ro
re s
Ġ B
Ġa l
m ath
Ġ &
is t
u n
p t
ĉ ĉ
2 0
u s
Ġ F
t a
he r
p p
p h
an d
o s
es t
ig ht
ĠT he
o c
Ġe x
} \
i v
it y
Ġ R
Ġ it
Ġ H
Ġ D
} $
Ġ <
u re
^ {
Ġ Ċ
er s
u b
es s
Ġb y
Ġw h
o re
Ġa re
Ġ L
e w
- -
) ;
Ġ W
Ġc om
re f
Ġd e
m a
ro m
as s
ar t
in e
Ġ {
= "
Ġa t
it e
p l
n t
Ġ N
il l
Ġ y
p er
Ġ E
i al
Ġ or
Ġ G
or t
an t
Ġth is
ex t
g e
m ent
i es
Ġs e
i ve
âĢ Ļ
d e
Ġ r
ou r
am e
/ /
i z
} }
< /
k e
al l
( \
Ġf rom
u e
l d
ĠĠĠĠĠĠĠĠ ĠĠĠ
o p
e ct
in t
Ġc l
Ġ he
ul t
f t
p s
eg in
r ac
b egin
o g
Ġ *
T he
a ve
Ġs h
c l
ag e
. .
c al
or m
r an
_ {\
Ġn ot
) $
Ġ }
Ġw as
el l
e re
20 1
f f
Ġ O
Ġc h
ic al
ab le
0 0
c on
Ġ "
Ġs u
ro u
Ġ -
ic h
it ion
} {
Ġc an
ac k
Ġ le
u st
u d
at ed
ĠĠĠĠĠĠĠĠ ĠĠĠĠĠĠĠĠ
t ext
ig n
e qu
Ġre s
a re
Ġ J
b er
f rac
e q
Ġh ave
en s
Ġcom p
Ġin t
ar d
} ,
Ġu s
as e
ac e
ar y
} )
as t
ation s
a p
a v
in d
c ite
ab el
c om
o st
" >
r ight
Ġ if
im e
r m
Ġ âĢ
ur n
ou t
Ġal l
Ġw he
ĠĠĠĠ Ġ
a ct
Ġ U
a k
id e
s p
i re
ou ld
d u
im p
t he
, \
Ġwh ich
et a
c c
on g
i b
Ġa b
or k
pt ion
l abel
) .
ĠI n
1 9
Ġ k
math b
or d
i p
* *
r u
f orm
f ig
Ġh as
) ,
$ ,
' s
en er
a in
$ .
an g
od e
t her
ic e
Ġp l
I n
Ġ j
i le
Ġ K
Ġ +
o k
equ ation
Ġcl ass
ac h
Ġy ou
r y
at a
an ce
en ce
ro w
ou s
Ġa d
math cal
l i
g et
r ing
y pe
} .
un ction
le ft
1 0
Ġu n
s o
e ar
l ic
Ġw ill
ĠT h
Ġ V
ĠS t
Ġm e
l ow
j ect
i a
t urn
p ro
S t
} (
Ġs p
Ġon e
Ġm od
Ġo b
s er
ran s
ri b
ent s
o ver
-- --
s um
pe ct
( )
Ġ '
ut ion
} ^
= =
~ \
el y
om e
Ġ qu
Ġcon t
res s
on e
or y
o b
Ġo ut
ou nd
} _
o se
ol d
Ġd is
ta in
ph a
ow n
Ġp er
al ly
Ġd o
Ġb ut
Ġa pp
l ine
r ic
am b
g h
ra y
or s
re e
al pha
Ġp art
Ġa r
d a
f ere
i an
Ġn ew
Ġv al
e c
Ġ [
Ġe v
e p
ar k
) \
w o
âĢ Ŀ
p on
s et
w e
l l
iz e
ar am
at es
el ta
ĠĠĠĠĠĠĠĠ ĠĠĠĠĠĠĠ
i el
t o
Ġf unction
$ \
er m
re d
i e
amb da
o v
s c
y st
Ġs et
Ġ en
Ġm ore
o int
Ġde f
ir st
a u
im es
m b
ar i
Ġthe ir
Ġal so
o f
oc k
ou nt
iel d
Ġh is
Ġs o
am ma
a pp
20 0
ic s
h at
ul ar
o ve
et h
v el
am p
o ok
ver s
m u
_ \
s ub
Ġn e
Ġre turn
Ġthe y
Ġo ther
ion s
Ġs c
yst em
ver y
Ġo ur
Ġ\ \
c es
n e
le ct
il d
Ġt wo
h o
Ġo ver
= \
um ber
Ġt ime
Ġ //
d ot
Ġin ter
le t
p ut
Ġ imp
ul l
a ke
C on
} ^{
in k
el f
} _{
ĠW e
Ġu p
ig ma
ub lic
mathb b
1 2
y s
nd er
Ġit s
ĉĉ ĉĉ
Ġd if
i x
v i
Ġm an
Ġcon st
eg a
- \
Ġan y
ol low
c ent
Ġmod el
Ġfor m
- >
c k
^ {\
e f
Ġthe re
our ce
u p
: :
Ġwe re
Ġ Y
ph i
Ġg o
Ġa g
Ġres ult
Ġ ro
pe c
Ġth an
ra ph
ĠC h
a x
Ġb et
Ġ {\
le ment
Ġ |
u al
Ġon ly
l ambda
Ġbe en
d ition
ĠâĢ ľ
Ġl i
Ġd es
Ġg et
Ġw ork
v al
at ive
Ġs ub
o x
he d
r it
p i
Ġwhe n
at or
Ġwhe re
Ġf irst
Ġ< /
c re
Ġp re
s s
ay s
Ġf ollow
Ġs ome
cl ud
Ġsu ch
b f
Ġab out
r am
l es
if ic
is h
Ġ /
Ġd ata
a il
rou nd
ĠTh is
Ġ @
id th
Ġwh o
p os
se ction
ing s
le m
Ġc ol
.. /
s h
in ed
t t
p art
Ġ im
Ġre g
Ġint o
Ġc or
Ġre l
Ġ i
b ar
Ġp os
ĠI t
Ġa cc
res ent
Ġre p
ig h
il on
Ġg ener
i ent
is e
ps ilon
ru ct
Ġm at
W e
Ġsh ow
c ed
Ġe qu
is s
l o
Ġ .
ic k
f ter
" ,
Ġthe n
1 1
il ity
mathb f
Ġp h
at ing
Ġcon s
Ġn o
in al
ot h
er v
ic t
Ġs a
s igma
y n
Ġdif fere
Ġt ra
Ġw ould
u es
Ġ( \
^{ -
Ġd ist
Ġt rans
d iv
Ġ her
eth od
an s
il de
b eta
n g
d er
o ol
p r
m l
Ġof f
ar g
Ġ :
T h
} {\
al ign
ar ray
Ġt e
n ot
u res
E x
ib le
we en
ter n
n ing
Ġu se
( "
Ġ x
Ġh ad
er r
Ġthe se
n ce
Ġcom m
it s
t e
c ol
Ġg iv
de f
Ġs ystem
Ġe ach
as ed
rou p
Ġl ine
Ġk n
( );
i ed
per t
g amma
he re
ol ution
' ,
it em
Ġy ear
an ge
Ġc ase
it ies
1 5
ra d
+ \
a w
Ġu nder
in ce
E R
Ġpro b
id ent
1 8
ri v
) )
r on
Ġbet ween
c ess
Ġp oint
Ġf e
\ \
ation al
Ġe ff
ol og
math rm
ess age
Ġc o
aram et
Ġm ay
Ġp ublic
Ġpro v
* }
d elta
y m
Ġval ue
en g
u g
Ġthe m
1 6
at ure
.. .
c y
^ \
---- ----
the ta
o id
Ġs m
i o
r ho
P ro
v ar
p end
Ġt r
Ġb l
] {
Ġex t
ta u
Ġin v
Ġus ed
Ġp ol
Ġp e
rou gh
) }
$ -
sp an
> </
fig ure
le q
** **
m er
Ġa ct
Ġc ur
al s
n ame
ut e
au se
at er
Ġn ame
Ġat t
amp le
c he
at ic
ow er
Ġli ke
m in
Ġn umber
iz ed
ser v
Ġs im
Ġin st
c dot
f or
Ġy our
r t
1 3
Ġ* /
u nd
}$ ,
Ġdiffere nt
id er
}$ .
ĠC on
Ġl oc
I N
Ġs he
ction s
ĠS e
Ġb ack
Ġh ow
O N
t ing
b ig
n u
Ġin d
} (\
Ġsa id
in s
Ġapp ro
ĠU n
ĠF or
Ġre qu
Ġv ari
ar ch
n er
Ġus ing
iz ation
> <
Ġ end
Ġst ud
ĠH e
a ir
ĠĠĠĠĠĠĠĠ Ġ
Ġn on
con d
Ġa m
ĉĉ ĉ
ĠP ro
1 4
w idth
t r
w ard
Ġse e
y p
== ==
ra ct
o y
Ġm ost
ar row
ar s
Ġsu pp
t imes
part ial
ĠĠĠĠĠĠĠĠ ĠĠĠĠĠĠĠĠĠĠĠ
us s
t on
Ġa fter
Ġf ield
u de
as h
Ġj ust
ver t
is m
eq ref
eq n
p m
e v
2 5
Ġw ell
Ġpro du
Ġs pec
Ġs ign
Ġs ame
Ġwh at
ot e
p ar
op le
: //
ou gh
ĠâĢ ĵ
Ġ ent
../ ../
th is
ab l
t ilde
u ch
Ġf l
om ega
ical ly
ire ct
an n
S T
Ġt ype
Ġ X
r al
ft y
l ation
ri pt
ĠC om
f o
Ġre c
e ad
in es
in fty
Ġne ed
Ġ Q
Ġd et
ic es
Ġ #
Ġex p
re nt
Ġ `
re ad
Ġ _
form ation
Ġgiv en
il y
Ġth rough
Ġc all
re at
e ver
Ġ ke
Ġpart ic
Ġm ethod
Ġf act
rib ution
k s
Ġm y
R E
ist s
u ild
D elta
Ġch ar
ment s
| \
ag es
em ent
g y
1 7
Ġs ur
Ġt erm
3 0
N ame
Ġbe c
ht ml
c a
Ġad d
Ġo per
er t
Ġp r
w ork
Ġa c
on s
( '
d d
Ġst ate
\ ,
ot s
Ġc ould
or ld
f ul
A T
ad e
Ġe m
vi ew
qu ad
it ed
Ġpl ay
as es
Ġ est
Ġ z
ut h
m od
Ġh igh
Ġn ow
Ġm in
ĠA s
he n
am es
Ġas s
Ġ el
l og
se c
sp ace
ere d
Ġe very
Ġb oth
t rans
Ġsh ould
g le
x i
Ġdis c
T ype
Ġp aramet
Ġ >
iv ely
C om
ur ing
i ew
ent ial
at ch
Ġor der
I t
19 9
s im
imp ort
Ġh ref
Ġs elf
ĠA l
old s
Ġpe ople
v ent
Ġeff ect
ore m
Ġfollow ing
w here
ĠN ew
res pon
ens ion
' t
ir c
} }\
eqn array
ab ility
Ġdo es
Ġ$ (
al se
y le
Ġresult s
} [
Ġt est
s ource
I d
F or
eng th
)$ .
at t
o le
Ġ --
d ay
l and
s q
Ġ Z
Ġde c
Ġan al
ac he
Ġst r
Ġr ight
ou n
in ing
al ity
b l
et s
Ġev en
$ $
. ,
Ġf il
h i
w w
ri x
Ġob tain
t d
m an
Ġper form
Ġc re
c ode
Th is
Ġsm all
Ġl ong
A R
Ġ err
it t
Ġ very
St ring
Ġin clud
Ġwh ile
m essage
oc i
cent er
ra w
C h
Ġf in
Ġ= >
Ġf ind
5 0
Ġbec ause
Ġpro cess
ht t
Ġb ound
e psilon
er y
re turn
d ing
en cy
Ġdes c
Ġst art
O m
s on
um ent
R es
Ġkn ow
le x
i er
l ang
Ġag ain
00 0
ar ge
i vers
p en
Ġh im
ps i
Ġb el
a ult
Ġ ed
re n
c o
ro ss
y mb
ĠĠ Ċ
Ġex pl
A s
Ġm ass
} _{\
O R
Ġme as
er n
ce ption
ener gy
et work
um n
Ġw ay
Om ega
ot t
2 4
ct or
p aram
ymb ol
m e
ak ing
Ġs er
_ _
p re
cl ass
b ack
Ġman y
p ort
Ġth ree
Ġse cond
Ġbe ing
as on
^ *
ĠF ig
Ġre ad
T o
Ġm ake
Ġle ad
ĠI f
if ied
) :
f ore
t ype
Ġh and
ant s
m et
G amma
vel op
ot her
is ion
b y
Ġprob lem
ĠĠĠĠĠĠĠĠĠĠĠĠĠĠĠĠ ĠĠĠĠĠĠĠĠĠĠĠĠĠĠĠĠ
em ber
L E
Ġ !
od y
if y
w n
ire d
Ġex per
le ar
S S
Ġf ound
Ġ )
ag n
Ġin f
)$ ,
Ġc ent
V al
Ġcon dition
Ġre f
an y
are d
Ġs ing
2 2
âĢ ľ
ce pt
g er
f ace
Ġm on
Ġhe re
sq rt
A L
ĠA n
Ġyear s
c m
at eg
Ġsp ace
ĠR e
ul ation
Ġp resent
r id
as k
Ġres pect
b e
Ġtr ue
Ġst ruct
en se
Ġob ject
n ess
Ġpos s
ar get
u le
ch n
i k
Ġor g
il ar
Ġm ult
n ew
cl ude
text bf
s elf
olog y
le ction
ĠE x
t ab
in clud
sub section
if e
i qu
Ġob serv
raph ics
. âĢĿ
Ġre al
right arrow
Ġl ast
Ġ$ {\
on t
Ġl ook
el s
ĠS h
/ >
C l
at her
} =
201 8
2 1
v are
o od
Ġth ose
ro l
201 9
Ġsupp ort
# #
ĠC l
on d
Ġin formation
e e
or g
s u
^{ (
Ġl im
Ġs ince
if t
E N
b m
Ġex pect
vare psilon
Ġre m
st r
ff ic
ption s
Ġbe fore
Ġc he
a h
Ġs erv
Ġd i
re am
Ġs cal
l ed
Ġcont in
ro p
3 2
l ess
Ġ energy
I D
Ġas sum
g ht
ers on
pl ay
ca ption
pert y
Ġ\ ,
Ġn ull
Ġm uch
um er
w ay
R e
ur al
Ġg u
Ġd id
Ġrep resent
}^ {\
Ġg l
// //
Ġ čĊ
Ġin cre
l oc
m ed
r r
Ġr un
ĠĠĠĠ ĠĠ
Ġ= =
re qu
m s
an k
f ra
Ġcor respon
it le
Ġc ount
is hed
Ġval ues
Ġto p
it ive
Ġcons ider
1 00
ran gle
Ġ ve
L ist
B y
i ence
) =
Ġimp ort
g ram
Ġs olution
a z
vi ous
Ġg roup
ĠD e
Ġm et
an e
Ġar t
l p
il s
os s
n on
ad d
con t
c ur
" />
Ġd irect
it ial
Ġd own
orm al
Ġle t
Ġc al
Ġcon tain
trans lation
t en
u c
Ġe lement
A N
Ġl ist
Ġ ra
Ġl arge
riv ate
Ġgo od
Ġa v
v ed
eg raphics
includ egraphics
4 0
a ction
u ally
iss ion
Ġcur rent
Ġv oid
ĠA nd
ect ed
ch ool
Ġt em
g or
2 3
Ġmeas ure
pos ition
com m
Ġv ar
Ġst at
Ġloc al
Ġm ade
Ġs ol
Ġ ident
ser t
Ġa p
e y
ĠH ow
Ġall ow
Ġab ove
ere st
cc ess
vers ion
var phi
Ġint eg
Ġgener al
o h
am pl
d is
. ~\
Ġde velop
Ġst ring
are nt
Ġ ,
v es
Ġcor re
Ġm ain
Ġf inal
n o
Ġest im
t able
u ff
Ġprov id
e k
es c
r ation
201 7
mer ic
Ġp a
Ġc a
Ġdist ribution
ch i
6 0
con st
Ġst and
Ġm ed
Ġ rad
Ġo pt
w h
gor ith
ak es
Ġle vel
Ġel se
Ġf am
ro ll
S E
"> <
ur ther
ge q
b ers
ou se
st ring
o ot
' '
i or
em ph
ar n
ro du
g g
Ġm ust
om et
Ġst ill
Ġchar act
Ġs ize
ric t
O b
Ġt ake
. }
A r
ĠS c
Ġp ower
com p
} ;
iv es
ter s
over line
re m
Ġf alse
r um
a j
l im
Ġde pend
Ġs at
val ue
b ox
B ig
c er
Ġex ample
in ition
or th
Ġw orld
v en
Ġp res
Ġe lect
Ġn etwork
ĠI nd
**** ****
Ġs pect
de pend
& \
ve c
d ata
s k
er o
Ġd en
se e
re g
im ension
pro of
Ġre st
C ol
I T
Ġcomp ut
al k
let e
ens ure
o ad
ar m
) );
ens ity
or n
Ġw ant
Ġv is
Ġth ink
}) .
. "
pl it
w ith
Ġres pon
al th
ress ion
p d
) ^
Ġdesc rib
Ġd uring
Ġar g
Ġa round
Ġsh own
Ġc ar
ific ation
fere nce
Ġm em
201 6
al e
pl ic
}, \
Ġ et
Ġqu ant
Ġd on
l er
A C
Ġb ased
ĠĠĠĠĠĠĠĠ ĠĠĠĠĠ
-------- --------
[ \
it al
Ġo wn
com e
Ġle ft
D E
Ġo pen
ĠR es
h line
b le
t ime
r ite
im al
Ġrep ort
sc ript
Ġhe lp
f ile
s m
8 0
b olds
re en
ref ore
Ġdef ined
Ġmodel s
Ġbe h
at ors
bolds ymbol
D ata
2 7
ord er
Ġp ass
ym met
L et
fra k
Ġsim ilar
Ġs um
e ps
yn am
in ess
c or
ys is
Ġb re
s ize
Ġpartic ular
Ġw rit
over n
o per
ivers ity
ac es
} }$
s ide
Ġre du
i j
Ġap pe
ke y
lang le
in ter
c ul
Ġint erest
L ambda
Ġm ark
rac k
i ous
e ction
Ġb o
a ps
at ely
n abl
Ġdisc uss
Val ue
g round
3 3
s l
, âĢĿ
Ġte chn
Ġn ext
Ġs ay
Ġb est
m ary
S et
' )
av a
Ġad dition
] ,
iv al
ĠY ou
Ġfollow s
Ġdet erm
app a
t op
Ġp ar
ĠC ol
U n
Ġl ow
ĠT o
Ġ& &
Ġor ig
A n
Ġe ar
in ation
Ġre le
Ġwith out
ĠA meric
Ġcon f
mb ox
Ġcomm un
Ġm ax
2 6
ot ential
ĠA r
ĠĠĠĠĠĠĠĠĠĠĠĠĠĠĠĠ ĠĠĠĠĠĠĠ
b s
P hi
iv ity
" );
Ġb as
h ip
he ad
Ġwith in
n b
Ġp at
m m
Ġs imp
ĠB ut
at ures
Ġch o
x im
e b
Ġterm s
ld ots
Ġse ction
he s
ac y
or ies
Ġ id
A M
math frak
k appa
ord s
201 5
2 8
is f
m ult
. \
iv ed
d s
( $
col or
Ġt ri
I C
Ġ/ **
Ġdes ign
ĠâĢ ĺ
Ġt yp
ord ing
Ġf our
or ph
ix ed
Ġke y
ĠP l
Ġsu per
ri ption
Ġsing le
Ġp red
Ġp ost
Ġme an
en e
ent ion
âĢ ¦
6 4
in c
Ġa ut
is ed
an c
A l
Ġd om
Ġd ue
u se
us h
w id
Ġb uild
Ġshow s
t est
Ġs l
f unction
uth or
Ġposs ible
Ġstud y
op y
âĢ ĵ
Ġv iew
Ġto t
Ġhe ad
ob al
ĠP h
ĠA d
Ġp rivate
==== ====
w ays
cite p
Ġerr or
rib ut
2 9
C O
end s
ro id
Ġinclud ing
o pe
4 5
Ġev ent
f ield
g o
pert ies
av ing
r and
Ġparamet ers
I f
Ġpoint s
Ġ| |
gorith m
ist ic
ail able
od es
os ed
v ir
Ġte am
non umber
ur ation
htt p
Ġin itial
nabl a
Ġd em
us iness
Ġcomp on
b it
ind ow
text it
ot imes
ic le
p x
nb sp
Ġst atic
Ġh ig
Ġagain st
Ġf ew
ab les
Ġcharact er
ma x
Ġp op
A S
ĠO n
Ġpro gram
Ġg ame
I m
at ter
S h
} )$
i od
] ;
et y
rr or
Ġ %
p or
is on
Ġex ist
" )
Ex ception
I nt
ĠThe n
Ġstruct ure
im ent
ĠI s
Ġpro ject
Ġd eta
Ġd er
Ġstr ong
ĠHow ever
et ic
sub set
Ġg ra
Ġm om
our ces
Ġan other
it her
ver se
Ġprodu ct
a f
pp er
C T
Ġpos ition
ĠS p
l u
c irc
ri es
Ġp otential
}) ,
Ġt arget
201 4
iqu e
Ġp ath
s f
it er
Ġch ange
Ġch ild
Ġc ou
Ġs pe
Ġre ma
Ġo cc
Ġm ov
Ġd el
Ġ// /
Ġcall ed
im um
Ġsat isf
\ %
Ġinv est
0 5
w it
Ġ` `
un c
Ġm agn
pl oy
Ġe as
] .
M od
om en
Ġc our
A P
st and
Ġbe g
o ff
Ob ject
Ġal ong
Ġapp lic
~ ~
3 5
Ġl arg
ĠW h
n ode
i ents
ial ly
Ġt urn
us ic
re l
Ġn ear
Ġch ang
se arch
Ġp erson
Ġass oci
i um
id d
ĠL e
ĠĠĠĠ Ċ
S igma
i i
ess ion
oc us
7 5
Ġ( $
Ġl og
le y
ag er
0 1
Ġin put
}} {
O n
Ġl ight
ou th
du ct
I nd
Con t
a im
Ġf ree
Ġlim it
oc ument
Ġf ull
G et
ĠâĢ Ķ
Ġm ap
b r
Ġ q
an ces
Ġfunction s
Ġ ide
19 8
Ġd ay
in a
a pe
Ġcom b
Ġimport ant
E D
Ġse qu
\ [
cl us
ĠSt ring
Ġpre vious
\ |
T est
Ġr ange
Ġl ess
L L
ensure math
ĠCom m
c it
l ing
\ !
Ġs k
9 9
Ġl aw
Ġph ot
201 3
Ġto o
Ġg reat
Ġre ce
w are
ra p
Ġreg ion
Ġint rodu
depend ent
er ing
Ġbet ter
Ġpa per
it or
ur b
Ġmat rix
F ig
Ġobtain ed
Ġkn own
ra g
ĠThe y
Ġ! =
/ \
b ra
at rix
) (
R O
Ġd ensity
Ġpro t
ampl es
Ġcontin u
Ġl ife
ex p
Ġst ates
Ġpred ict
wid et
dot s
Ġdif f
Ġim age
t s
Ġle ast
l in
Ġcont rol
em s
ĠL et
Ġparamet er
m ber
oh n
ust om
u ck
and om
Ġh ist
ur s
Ġd at
ir d
as ter
Ġtot al
ĠT e
Ġqu est
Ġb ook
l ist
em pt
lo ad
Ġfl u
un e
Ġs om
is ter
l ink
er ial
pp ort
Ġa ction
Ġequ ation
Ġad v
ab ly
Ġs ource
Ġanal ysis
w ide
widet ilde
rib ute
at s
d ate
Ġconst ant
Ġche ck
Ġpl ace
ic y
E S
9 0
s i
st yle
Ġc lear
ĠS he
Ġcomp lex
read y
ĠM ay
p oint
Ġg row
ĠM ar
r ame
Ġimp ro
che s
Ġgo ing
( ).
ĠA ll
Ġav ailable
Ġappro ach
7 0
Ġthe ory
r c
tern al
ind ex
Ġpl an
Ġb ro
Ġt ry
le g
Ġd eg
Ġstand ard
Ġind ic
ĠB l
Ġt imes
Ġbl ock
Ġa ff
Ġcorrespon ding
I S
lect ed
pos ed
Ġh um
Ġf ile
W ith
ww w
Ġn ode
Ġde v
Ġs it
Ġr ate
s cal
{ -
() );
Ġg raph
ĠUn iversity
Ġappro xim
Ġc rit
og le
ru ction
Ġre ally
Ġcal cul
ver al
E rror
a ut
Ġre cent
Ġh app
en ces
Cl ass
Ġs ays
ol l
ill ion
Ġl ink
n al
Ġsign ific
E T
sum mary
Ġt ext
vir on
ay er
en c
g roup
Ġperform ance
Ġm ight
I ON
201 2
.. ..
u ro
} -
f il
pr ime
Ġc ell
center ing
is ing
Ġ vert
loc ation
ip le
r ist
ut ure
Ġal ways
Ġline ar
en n
t y
Ġc ap
Ġf urther
c ap
Ġh tt
b o
overn ment
itt le
ĠU S
ĠA pp
d raw
ore d
se qu
tab ular
Ġfam ily
ĠB y
ar ning
in ary
ĠThe re
end ed
p ace
g l
re t
Ġo ld
ma p
Ġp ur
Ġh ard
ub l
ver age
g es
Ã ©
htt ps
H e
ĠM an
ul es
ĠS u
Ġph ys
Ġus er
Ġp air
3 4
Ġph ase
V iew
aj or
Ġsystem s
er tain
ĠE q
id ual
Ġv ol
; \
ight s
I G
Ġis s
ou ght
erv ice
Ġm ot
201 1
Ġb ig
Ġrespect ively
id es
Ġh al
Ġs ide
} +
p ath
Ġab s
ĉĉĉĉ ĉ
u ation
Ġp ut
ur y
ĠS o
Ġg ive
r ary
ĠA t
Ġser ies
\ ]
s w
Ġan n
ul y
0 4
Ġse veral
K ey
as ing
if f
\ {
. _
I M
Ġprov ide
Ġ& =
Ġal ready
Ġmom ent
Ġsh ort
Ġme ans
Q u
ĠN o
n av
Ġc ost
Ġsu ccess
Ġhig her
n ces
pp ed
Ġper iod
Ġl ength
Ġs chool
âĢ Ķ
ĠC ent
Ġl ower
r is
R equ
ward s
ide o
Ġtem per
ĠE ng
Ġr andom
Ġcont ent
p ublic
fo ot
ra int
Ġacc ess
o ber
) =\
Ġb u
" ;
Ġrequ ire
A nd
Ġcondition s
Ġh ome
z eta
Ġt itle
ĠB e
Ġorg an
3 6
3 1
Ġ version
a it
Ġcon n
og raph
ĠThe orem
Ġmethod s
Ġen c
oc ial
D ef
Ġsignific ant
ann el
o pt
Ġin clude
Ġexpect ed
L A
I I
n ow
Ġpro of
0 2
ib ility
ang u
[ '
Ġse en
ic ro
m p
a i
f rom
Ġve ctor
0 7
Ġu nt
} =\
Ġbel ow
Ġre d
at us
Ġh y
res ult
Ġe ither
Ġ: =
Ġle g
S e
ĠC ar
201 0
Ġd ynam
$ )
em ma
P E
Ġli k
{ (
Ġc ode
olog ical
Ġmon th
D e
Ġrequ est
eth ing
U T
al ax
U S
ĠW ith
th m
) }\
ut il
Ġne ver
Ġn ormal
Ġs ymmet
5 5
rou ps
d t
m ost
l ength
th ing
ur l
Ġacc ount
S c
Ġwe ek
ack age
Ġare a
ĠC an
ĠO r
. </
( ),
Ġth row
"> </
om orph
Ġ Â
Ġb usiness
d own
) ^{
sm all
Ġf ar
ran sp
wh ich
T ime
ou ble
A D
Ġn eg
Ġfe atures
ffic ient
Ġcomp let
. ~
Ġcon text
m it
Ġw on
Ġpro perties
u k
Ġcon fig
Ġb and
um e
ott om
0 3
ĠSe ction
0 6
ly ing
' );
Ġf ail
g ed
St ate
F ile
E n
viron ment
i us
ĠThe se
ĠC o
4 8
Ġpro perty
Ġe mb
c os
Ġcom e
w ise
y l
Ġimp lement
' ]
, "
U R
Ġind ex
Ġc ases
M an
H E
u nder
Ġtra ining
N ot
s ing
O T
Ġbre ak
j s
b ut
Ġbeh av
uff er
Ġc ross
{ {\
//// ////
ne ction
ent ly
Ġas sert
Ġm ove
E qu
Ġback ground
Ġan t
cdot s
Ġinv ol
} ]
Ġfin ite
T R
L e
ĠR ep
f l
in st
Ġc are
Ġb i
ak en
id ence
Ġ ?
Ġen ough
Ġl a
Ġar ray
on al
Ġadd ress
0 8
ch ie
Ġal gorithm
b ased
Ġcons id
Ġassoci ated
Ġl ater
os p
3 8
A ll
rac e
}_ \
P l
ĠJ ohn
Ġc irc
IN G
Ġf und
our s
A pp
b all
Ġz ero
Ġcol l
um p
Ġdef ine
Ġpos itive
Ġf ocus
ĠO b
A B
}\ ,
Ġl ines
ri or
am ent
imension al
b ody
ar ing
L O
Ġinst ance
Ġse par
N ew
ag s
} |
Ġrel ations
Ġf requ
^ +
Ġcons ist
Ġg e
Ġout put
he m
Ġspec ial
Ġen g
Ġin s
Ġf low
res h
Ġc over
E vent
O r
end ing
in o
Ġfact or
ord in
3 9
Ġcre ate
3 7
i ver
Ġbel ie
F rom
Ġcl ust
Ġl ittle
ge bra
N ode
Ġp o
Ġl oss
r im
st ate
th ough
m y
st it
wide hat
6 6
Ġh om
ne y
B l
Ġn ec
Ġserv ice
ĠP ol
Ġv ia
}^ \
Ġf ore
Ġsom ething
Ġst ar
Ġev al
H ow
ĠG e
ĠM ore
` `
Ġto get
Ġtoget her
Ġsimp le
Ġac ross
Ġex act
at ural
Ġth us
q quad
on y
f er
c le
I s
Ġsu gg
Ġs em
Ġab le
ic on
Ġre t
Ġsugg est
}) \
ear ch
c ell
Ġobserv ed
E lement
Ġt re
Ġg ot
ĠE n
P h
a pt
ole an
) ]
b ook
ch an
=" ../../
Ġre ason
Ġex ists
us er
" :
A tt
Ġb ase
Requ est
ta ct
r ide
Ġscal e
Ġ );
Ġm ajor
Ġbl ack
& =
T ext
P si
ian s
Ġunt il
0 9
lem ma
! --
Ġst ory
Ġmult i
4 4
Ġpro m
text width
Ġl abel
F F
ĠTh at
Ġorig inal
Ġst ep
ĠAmeric an
Ġ es
Ġfe ature
iv ing
g s
ron t
Ġdescrib ed
err or
con om
Ġelement s
Ġa verage
Ġcou pl
Ġw in
Ġf uture
ens or
Ġke ep
et er
/ *
ire ction
Ġd one
c ast
ĠM on
Ġwhe ther
O ver
Ġp ract
v ing
ou d
ĠFig ure
Ġdef inition
Ġcl ose
Ġcl aim
Ġm usic
Ġcol or
Ġc ertain
ag ement
ĉ Ċ
Ġin div
Ġim pl
Ġcomp any
app ro
sk ip
}} (
ul ations
Ġh aving
in ally
A dd
Ġas k
Ġth ings
Ġconsid ered
ul a
an el
200 9
pro p
Ġf ixed
Ġin dependent
pp ing
Ġunder stand
Ġrequ ired
Ġoff ic
Ġoper ator
}^{ (
Ġ\ {
In fo
us ing
Ġsur face
b t
Ġp ay
in put
Ġp ort
u f
c all
Ġpro posed
us ed
C C
ĠUn ited
Ġa chie
f in
le ase
ir t
Ġ/ *
S u
il ities
Ġr at
Ġd iv
i am
Ġst re
M L
P ath
ĠO ne
Ġequ ival
f e
Ġbe come
Ġquant um
ĠW hen
ind ent
B ut
ict ion
Ġsequ ence
() )
scal e
med i
se mb
ra in
oper ator
Ġprob ability
b b
ĠS ystem
pon ent
9 5
ra ction
s in
F ield
ĠG u
c her
Ġw idth
Ġa way
Ġconst ruct
' :
ĠJ an
Ġmat ch
/ **
, -
ari ant
Ġg alax
equ iv
l ight
ew ork
Ġpro p
ĠĠĠĠĠĠĠĠ ĠĠĠĠ
Ġrespon se
angu age
A d
Ġof ten
en u
Ġre pl
Ġf ac
ok en
pd f
n et
Ġre search
Ġdef ault
}\ \
6 5
p ol
ast ic
m ark
Ġam ong
Ġcomm on
Ġfield s
+ +
c up
Ġexper iment
Ġsp in
iz ing
Ġassum e
19 7
Ġhum an
ĠC ount
ĠM ed
200 8
ĠF ran
pro t
Ġg r
re st
Ġre view
Ġth ough
Ġs ample
Ġb en
Ġw ater
on es
p le
ĠS ince
Ġanal y
v oid
Ġtrans ition
Ġle arning
Ġm aking
( {\
Ġe p
Ġgl obal
Ġinvest ig
li ed
Ġindiv idual
Ġ$ (\
Ġtemper ature
Ġn umer
Ġl and
ĠĠĠĠĠĠĠĠĠĠĠĠĠĠĠĠ ĠĠĠĠĠĠĠĠĠĠĠ
Ġval id
ĠW orld
Ġacc ording
[ ]
Ġn um
Ġfil m
Ġ/ >
itt ed
Ġl ot
Ġhe alth
F orm
Res ult
ard s
st ruct
i ke
ram ework
mod el
Ġc ut
ig en
Ġpol it
Ġf it
Ind ex
Ġg overnment
) {
Ġk ind
ĠĠĠĠĠĠĠĠ ĠĠ
Ġse ason
g ing
com es
Ġt aken
Ġro le
Ġcan not
Ġear ly
Ġrel ated
Ġrec ord
Ġcont ribution
Ġexp ress
ĠM e
Ġwh y
op s
O f
Ġt able
ĠN ational
Ġev ents
tr ue
Ġvari ous
Ġc y
Con fig
one y
Ġ ill
T E
Ġl o
Ġnec ess
Ġhow ever
h space
um ents
id ed
Con text
Ġa uthor
qu ot
m id
w ord
lo at
m ore
Ġf ri
Ġm akes
d om
ames pace
ign ed
Ġgiv es
Ġprovid ed
z e
ure d
ĠL emma
g ress
Ġde p
ag ram
g en
Ġp ress
Ġspec ific
Ġfe el
W h
Ġacc ur
con fig
i res
Ġdist ance
Ġd ays
ĠC or
ĠI nt
I R
al es
el oc
Ġ& \
et ing
Ġun it
4 9
20 20
Ġp ast
ort s
il t
} :
cit et
b or
ob ject
ĠA pr
Ġ-- >
iv en
as c
Ġem ploy
ab or
Ar ray
s pec
I P
pl ate
Ġlarg er
re c
******** ********
r un
S P
ĠY ork
O M
ra ft
et urn
al t
bl ock
ĠA rt
ers ion
ĠC al
M ap
st ar
og n
om an
ĠM in
Ġdat as
C ode
i ol
l or
e ff
Ġmem bers
Ġcon c
Ġ( !
Ġb it
k n
u i
| ^
4 7
Ġelect ron
ect or
C D
ĠJ uly
m on
Ġr ather
200 7
] $
o ch
Ġg round
The re
li ke
uro pe
th at
Ġatt ack
a ff
re ed
6 7
foot not
Ġequ ations
Ġmat erial
Ġf ig
ĠA ug
ĠA ust
Ġcour se
ag ed
Ġmat ter
ateg ory
is k
Ġdom ain
O D
ĠSt ate
ay out
Ġcomp ar
S ervice
ap ache
Ġex ec
ĠO ct
che ck
ic ol
Ġw rite
am ed
Ġcount ry
) -
Com p
ap i
Ġcl os
Ġbound ary
O S
Ġle arn
in it
}} {\
ĠI m
oun ter
Ġquest ion
a ctions
Ġeffect s
Ġon ce
Ġpr im
ĠCh rist
Ġconst raint
Ġnot e
f ill
Ġse arch
Ġchild ren
ĠTh us
math sf
Ġpro f
a int
Ġest abl
ed ge
c ing
il ed
ut es
Ġmet ric
Ġ} ,
Ġreg ular
Ġhal f
Ġso ft
ĠM c
dis play
} +\
' $
A t
Ġ ...
Ġcompon ent
val id
ion al
Ġj ob
In st
ell ing
t ings
Ġb ody
Ġal most
Ġth ird
t es
Ġc ustom
l t
U N
ĠG et
6 8
end er
ĠP art
no indent
Ġh old
Ġf ive
Ġexpl ain
Ġth ought
ĠS chool
Ġaddition al
d esc
Ġv eloc
o oth
T able
Ġa ir
ĠP ar
os ition
ĠCom p
Ġst yle
re w
ĠQ u
Ġ- \
Ġsolution s
Ġ} );
Ġset s
S ize
C H
Ġp arent
=" +
il i
Ġeffect ive
ho od
Ġtrans form
Ġl ove
Ġwe ight
' ;
" "
e ed
A A
ĠN ot
Ġhist ory
ĠJ une
Ġchang es
T r
ĠC ity
Ġden ote
av es
x space
Ġim ages
id s
( -
R ec
Ġc ity
y ing
Ġm illion
ag ing
n eq
200 6
Ġg roups
} -\
L oc
Ġed ge
yn c
Ġeff ic
d o
s el
## ##
Ġh ost
el ine
ĠR eg
ac ed
im ate
Ġdiffere nce
er a
Ġt reat
Ġs ure
ma il
if orm
Ġcontain s
ass ert
A G
Ġcol umn
h and
Ġcomp lete
ache s
ĠG o
Ġyou ng
Ġwork ing
Ġme chan
on ic
EN T
Ġstr ateg
if ier
c ount
Ġpre c
pl us
Ġam ount
B uild
ĠP r
umer ate
Ġthe refore
i ps
Ġs ite
r s
uss ian
h am
ar ies
Ġwh ose
Ġs ens
t itle
Ġst ars
and s
ĠS ch
\ ,\
Ġcommun ity
O ut
Ġs ent
Ġimpro ve
un g
r ated
) }{
ir m
Ġsc he
ener al
s plit
Ġmult iple
o in
Ġinst ead
Ġopt im
ri ed
Ġs ocial
Ġgener ated
c hed
ir l
n a
E E
ĠS ec
Y ou
Ġo p
Ġdevelop ment
operator name
ill s
Ġt w
Ġm essage
I L
x y
ce ed
def ine
Ġg as
m d
Ġen vironment
Ġy et
h ib
ĠB o
Ġhtt p
N o
ĠM arch
ĠA b
roll er
Ġwe ak
W hat
k en
Ġequ al
ac hed
Ġs qu
Ġcomp ared
iz es
ĠM od
ĠV al
Ġc amp
il it
Ġw ave
ict ure
Ġ Ð
R eg
at ively
ul ly
Ġcon ver
il es
d imensional
v is
ĠA ss
Ġbeg in
ĠW hat
ĠR ec
Ġw omen
R ead
H and
Ġdeta ils
Ġd ocument
ch ange
Ġh or
Ġdid n
Ġn atural
ic ation
ang le
Ġt aking
n ext
led ge
S ystem
en umerate
{ }
T D
ĠE urope
ĠIn tern
item ize
) }$
M essage
the orem
Ġsign al
Ġact ually
Ġwork s
def ault
Ġind ust
Ġ ver
v space
Ġp ubl
Ġimpl ies
ens ions
Ġexper ience
sc r
l ong
d ag
u ary
Ġv ideo
a ul
ic ult
ĠD o
M S
O P
Ġf un
Ġco e
It em
Ġdis play
Ġun ique
S ub
Ġo ptions
ĠD ef
ch o
Ġent ire
Ġwrit ten
st er
Ġto day
Ġmed ia
ĠSt ates
om ial
ĠA g
n ers
$ }
ĠH am
b ound
Ġw ords
Ġp age
à ¤
an a
p c
it ude
M P
ĠE d
ot ed
Ġother s
] \
Ġro t
Ġb ring
m ar
' re
ĠW ill
Ġappe ar
Ġch all
8 5
ĠD is
cre ate
im ents
he ck
pt y
= '
Ġcompon ents
ĠApr il
Ġpro ve
n s
In ter
. )
t em
Col or
Ġd irection
D is
Ġy ield
f low
b ase
Ġt rack
Ġdoes n
o ke
Ġ ir
Ġe ver
al y
4 2
li ent
in clude
le v
Ġd ri
ĠS outh
Ġrel ation
ish ing
Ġco ordin
& &
ĠF eb
ct ors
kn own
t ic
b re
ot es
ĠM ark
Ġth ing
ransp ort
mult icol
u x
Ġh olds
S p
Mod el
Ġprovid es
N N
Ġs ound
Ġde al
Ġincre ase
Ġev olution
ru le
n ormal
p ng
Ġd est
al le
cont ent
Ġp rior
at form
Ġin du
C E
M A
ist ics
Ġrepresent ation
Ġt akes
multicol umn
ĠP res
Ġmagn etic
Ġspect rum
200 5
is es
Ġj ava
Ġu nd
Ġto ok
Ġcorre ct
Ġm iss
4 6
ĠS et
Ġw ar
Ġar ch
Ġbas is
Ġs ense
appro x
L og
ĠT r
le vel
Ġc ame
comm and
Ġc ult
Ġpresent ed
ĠT able
en ed
st art
O ne
Ġwho le
Ġl anguage
aramet er
ĠW ar
omorph ism
ĠNew s
N S
ĠP er
ĠSe pt
Ġproblem s
ĠH ar
Ġal gebra
Ġd raw
C all
ĠT ra
00 00
Ġ _{
Ġo pp
Ġp ref
] [
Ġs ix
line ar
idd le
W hen
Ġvari ables
un ity
Ġprodu ction
Ð °
clus ion
ic it
ad a
l a
en ame
Ġb ar
Ġ_ _
ĠF rom
S ince
Ġsub ject
om s
Ġadd ed
9 7
^ -
Ġne ut
Ġact iv
r ast
( (
~ $
E nt
an ced
in fo
ĠN ote
} /
="../../ ../../
fere nces
P i
Ġne igh
au ght
ribut ed
Ġ= ==
m ethod
ĠB ar
and id
Ġnew s
}} }
ĠN orth
Ġt alk
Ġform er
Ġf oot
le ge
Ġlik ely
Ġf ace
wit ch
9 8
Ġl at
The n
> &
Ġdeg ree
Ġn ight
ĠA fter
Ġ row
oc ol
Ġt ask
20 00
\ }$
on str
B e
Ġmax imum
Ġphys ical
Ġtyp es
Ġapplic ation
T rans
yp es
pon se
c an
Ġm ar
Ġsh all
Ġdirect ly
" .
Ġcho ice
d ist
Ġneed s
Ð ¾
od ing
Ġm ode
g t
Ġper cent
c ase
Ġobject s
Ġimp act
y ear
}} _
en ing
Ġf all
Ġveloc ity
he ight
5 7
act ive
ĠThe refore
Ġstud ents
qu e
Ġs ong
l n
her n
Ġcom es
Ġs w
Ġreport ed
Ġmark et
at ur
tain er
Ġserv ices
Ġestim ate
Ġn il
Ġeval u
Ġrel ative
Ġexp ression
Ġdiff icult
Ġe conom
at ory
) +
; &
Ġ} ;
V ert
S C
Ġg en
---------------- ----------------
ĠA f
ĠO ur
k et
Ġd imension
r ate
ĠCount y
Ġsc en
Ġpol icy
ĠD ep
ĠCon t
ib rary
Ġa ge
ĠM y
Man ager
ill ed
ul ated
il ton
B C
ed er
Ġan g
Ġcent ral
au ge
ĠB rit
B ar
Ġit er
Ġg ames
ur ch
ma in
m ission
at al
Ġref er
ĠL a
ĠD av
S o
Ġset ting
U LL
Ġin c
Ġneed ed
4 3
Ġto ol
ab ase
ĠI N
o res
our nal
Ġbehav ior
S U
g ence
ic les
ĠH ere
] (
O L
Ġl ive
cur rent
un ch
ĠP e
200 4
av or
Ġapp lied
ran ge
Ġplay ers
The ta
Ġa ud
ĉĉĉĉ ĉĉĉĉ
j ava
b um
k ing
st atic
o ption
C ount
Ġl oad
\ '
con text
Ġ\ ;
it es
ric es
Ġbe comes
Ġallow s
math scr
am a
Ġn uc
R ef
E nd
Ġthe orem
enc ies
ĠE l
ove mber
Ġt ell
Ġcl osed
Ġlead ing
D esc
5 8
Ġd ouble
Ġm er
ĠG l
Ġsimp ly
Ġcent er
re ate
Ġrat io
Ġdem onstr
li er
dition al
d oc
ĠAust ral
ur ity
Ġsmall er
Ġde ath
Ġu pper
pr int
ac ity
Ġide a
ĠS m
abl ed
ĠAug ust
Ġs rc
p age
Ġcomp et
Ġ\ |
Ġnum bers
G L
ov ed
Ġse em
row n
at ives
ite ct
Ġinclud ed
or age
ot a
Ġits elf
ove red
du c
P S
Ġrest rict
ĠF irst
und le
e le
i ation
Ġad j
Ġca pt
ot o
b uild
Ġde ep
Ġocc ur
ce mber
ag ue
Ġm ention
Ġs ources
Ġac cept
arg in
======== ========
Ð µ
ve y
f ect
M ethod
j ection
Ġqu ite
ous ly
ĠA ct
Ġl iter
um b
Ġinterest ing
rum p
Ġh ouse
ĠSept ember
5 6
9 6
ab s
Ġre ference
Ġe igen
il le
Ġc r
Ġpat tern
Ġrespon s
Ġa rm
Ġcre ated
Ġpr inc
ĠW est
Ġde cre
Ġvis it
Ġreg ard
ĠOct ober
Pro perty
E d
h a
alle l
}^{ -
Ġv iol
ĠP ark
4 1
T H
under line
ot ic
N ote
ĠJan uary
Ġincre asing
ta int
5 00
us ion
e in
Ġon line
Ġiss ue
Ġstart ed
I F
< \
n orm
h as
text rm
Ġcrit ical
Ġch annel
) ,\
Ġro b
ĠS im
C lient
ĠCl ass
Ġbuild ing
Ġto ld
Ġfrequ ency
pec ially
8 8
Ġw indow
text tt
c ore
ef ore
Qu ery
Ġdeterm ined
U ser
er c
act ory
Ġm oney
footnot e
bs ite
ar ily
Ġapp ly
omet ry
ru ary
Ġ ess
Ġflu x
empt y
Ġb ox
f alse
com ing
er ies
Ġinclud es
p ackage
big g
iz er
7 7
ith ub
Ġb order
Ġvari able
Ġpro ced
Ġpop ulation
Ġ$ |
so ft
Ġan sw
Ġstud ies
min us
Ġb ool
Ġben ef
t ra
ĠH ouse
Ġequival ent
P I
Ġag o
Ġ$\ {
av y
o o
N ow
c ss
Ġg rad
oun c
z z
Ġqu ality
Ġlook ing
ens ive
Ġed uc
ran ch
go ogle
Ġa x
pro d
em ents
{ $
AT E
Ġbro ad
U t
ĠĠĠĠĠĠĠĠĠĠĠĠĠĠĠĠ Ġ
Ġm en
a res
d i
ari o
sh ift
m ing
os en
we b
Ġl ayer
yn omial
ans ion
ĠL ist
Ġeas y
F irst
ond on
; </
d b
Ġcomp an
Ġw ent
Ġdo ing
Ġfor ward
Ġd ig
Ġse ems
Ġdev ice
ac ing
A b
Ġno ise
m ember
app ing
> (
l ish
and roid
Ġg re
de v
^{ -\
port s
ub e
pl ace
ach ine
ap ter
Ġt ax
g ra
t ical
Ġ( $\
Ġp ers
Ġf ront
} '
ĠĠĠĠĠĠĠĠĠĠĠĠĠĠĠĠ ĠĠĠĠĠĠĠĠĠĠĠĠĠĠĠ
Res ponse
Ġt ree
ĠSt ud
Ġse lect
Ġconst ruction
subset eq
k y
Ġus ers
ch ar
_ +
ym pt
N et
Ġe y
C ell
ĠB ro
St ream
n ov
ĠG a
I V
Ġd ark
Ġinter action
um in
Over ride
Ġrec ogn
sel ves
Ġiss ues
Ġcontin ue
Ġconn ected
) |
ĠN ovember
Ġo ption
h ing
Ġspe ed
att ice
col umn
ri er
ĠN ow
Ġexpl icit
Ġus es
d et
pre t
Ġnecess ary
Ġc opy
cer taint
Ġst d
Ġrun ning
ã ģ
ĠS an
Ġinf lu
ĠĠĠĠĠĠĠĠ ĠĠĠĠĠĠ
Ġcon tact
Ġloc ation
Ġfor ce
=" #
Ġder iv
Ġm ix
Ġag re
Ġoper ators
Ġb ad
Ġdi agram
Ġsm ooth
v ant
Ġperform ed
P C
Ġ ]
Ġrece ived
ew idth
=" ../
Ġch arg
in v
Ġm ember
Ġw ord
dag ger
g ithub
Ġw or
ĠN e
ĠA ir
k er
loc al
r ong
}} ,
ic ense
Ġch ain
Ġd ate
ap an
i ber
Ġsh ift
_{ (
ĠDe cember
H T
Ġhe ight
200 3
ribut es
a ign
cre t
Ġm ind
old er
a a
M ore
* {
s ider
Ġc andid
Ġin side
Ġreg ions
ĠA m
Ġill ust
H ere
ĠCh ar
Ġp ick
Ġbeh ind
he l
Ġemb ed
G roup
idd en
irt ual
st ack
Ġobserv ations
$ _
Com m
Ġatt empt
Ġsymmet ry
ĠH is
ĠT est
ev ent
ĠH igh
b ul
Ġaut om
Im age
Ġgra v
Ġsu fficient
Ġes pecially
Ġout side
re p
n ull
ĠR ef
an ks
\ }
O ur
Ġpartic ip
min ist
D F
Ġsol id
Build er
im age
Ġdom in
o plus
Ġg auge
Ġcon duct
Ġse cur
R ep
ou l
Ġmonth s
Ġcon nection
Ġpart s
Ġart icle
m at
Ġre ve
Ġdiscuss ed
mod ule
P R
Ġp ack
F il
b ur
set minus
ser ver
ĠPres ident
ĠĠĠ Ċ
f unc
ON T
Ġchar ge
as hed
Ġper t
ell ar
Ġst ream
ri ef
el t
Ġv an
ĠA cc
Ġup date
Ġf rame
Ġdatas et
Ġr ank
w edge
5 9
lo or
d l
f irst
}} _{
ĉĉĉĉ ĉĉ
Ex p
Ġs eg
Ġs low
Ġcur ve
cre te
Ġ$ -
Ġin equ
Ġinter nal
ĠI I
Ġgrow th
Ġgalax ies
Ġn odes
st ream
ĠK ing
Ġarg ument
Ġstre ng
Ġcon sum
con n
Ġ ~
b ottom
m iss
Ġcomp act
Bl ock
a e
Ġf ood
Ġwh ite
ĠG erm
Ġem ission
ma z
Ġget ting
Ġneg ative
) /
rid ge
Ġform ula
a el
Ġu pon
per p
r ant
Ġse lected
o on
8 7
Ġqu ick
Ġintrodu ced
Ġlong er
Ġrecent ly
pect ed
ĠFeb ruary
ec ause
Ġsuccess ful
L T
( {
Ġs amples
Ġmem ory
ob ile
Ġst age
Ġlevel s
e lement
' m
Ġs us
Ġc le
f ord
Ġst e
Ġtrans fer
ĠU K
Ġknow ledge
Ġun iform
ĠAmeric a
6 9
Ġh it
Ġd r
Ġhe nce
P ar
g ener
Ġoper ation
t x
)\ ,
5 1
ĠH er
Ġeng ine
s y
n es
Ġim medi
as ks
Ġ round
Ġit em
Ġpr int
S pec
Ġ$ [
Ġav oid
b and
Ð ¸
ark s
E X
Ġpartic les
u el
Ġsh are
) </
s up
L ine
Ġw alk
Ġbelie ve
In put
Ġh ol
lin ewidth
ĠM ich
D ate
T hat
u ed
Ġgo al
i et
Ġpe ak
Ġo pport
Ġal tern
ch ild
Ġproduct s
P r
Ġcho ose
Ġde cl
ĠT rans
le ctions
val ues
Ġb all
Ġcontinu ous
Ġf ramework
G e
os ing
Ġmoment um
Ġclust er
lo od
Ġp anel
Ġm aps
5 2
ounc il
Ġcom ing
U E
F T
Ġr isk
Ġre ach
f ree
Ġbo olean
ĠAf ric
ĠR ed
ĠT rump
Ġindust ry
Ġw atch
ĠL ondon
Ġpol ynomial
Ġs ex
Ġcon v
Ġexact ly
5 4
Ġeas ily
Ġvol ume
att le
d ir
Ġn ov
Ġpartic le
ify ing
lim its
Ġal bum
Ġh ot
ell ow
ist ry
lic ation
P art
us es
ing ton
rop y
Ġtechn ology
Ġst ra
M M
Ġmot ion
Ġsh ape
,\ ,
oci ety
5 3
. $
ĠD es
ĠA ng
a per
anc ial
\ "
Ġcol lection
in y
o ptions
Ġ vers
Ġsche me
= {
_ *
ran g
f ort
sub figure
Ġinter val
] )
Ġar bit
n amespace
cl ient
Ġh ours
Ġst ri
Ġmin imum
Ġsecur ity
Ġh yp
Ġpres ence
ĠO f
Ġcoupl ing
un t
Ġd im
Ġperson al
Ġpert urb
ĠS ub
Ġapproxim ation
Ġinst all
ĠCent er
ar p
Ġc os
Ġdevelop ed
Ġn ational
Ġlink s
Ġon es
O C
Ġand roid
el i
s ol
ist ory
def inition
Ġmechan ism
Ġpro per
Ġcompar ison
Ġinter n
rit er
Ġoffic ial
Ġ( -
Ġbound ed
p ri
N D
Ġres ource
Ġsu ff
ie f
Ġmod ule
Ġconc ern
Ġf ight
ad o
g u
Ġact ive
ay ers
A fter
ber t
Ġdesc ription
Ġlead s
Ġclass es
M e
\! \!
Ġare as
Ġexper iments
ograph y
d eg
M C
Ġbec ame
200 2
Ġsupport ed
p ite
Ġnot hing
Ġthe rm
y d
ph p
st ract
Ġrele ase
wit ter
ber g
ĠT V
L S
Ġup d
$ (
Ġresult ing
ĠD em
Ġun certaint
h ost
Ġd riv
Ġhe ld
p ose
j oy
St atus
Ġprob ably
Ġdescrib e
is ation
or ing
Ġcom ment
Ġfig ure
ĠL aw
ĠWh ile
Ġdynam ics
A cc
Ġuse ful
Ġmeasure d
aramet ers
< !--
200 1
} %
Ġev idence
om b
Ġhe art
o e
Ġstat ement
riv ial
Ġbu ilt
qu ery
P re
B ase
Ġ< <
Ġconfig uration
p ost
P ost
Ġr ule
ol ic
c s
ĠSe e
es e
ig ation
Ġ }\
d at
ad em
ser ve
N ull
Ġrema ins
Ġvert ex
ail y
ial og
i os
Ġim m
Ġcont ract
n y
Ġ( )
app end
pro cess
RE F
Ġ| \
Ġl ate
Ġam plit
Ex t
c el
Ġatt ention
Ġstat us
N ext
Ġto wards
Ġcon cept
res ents
requ est
Ġallow ed
6 3
t arget
ĠS w
w rite
ĠD ata
Ġ- >
Ġf ully
ĠIntern ational
) {\
Ġany thing
= (
S ource
Ġdeterm ine
ex ample
ĠH ol
ind ing
Ġpart y
n um
d ed
Ġg ain
str ong
E q
Ġc ore
Ġpolit ical
Ġman if
ĠO ff
Ġc am
bl ack
ress ed
_{ -
Ġf ast
pd ate
' \
Ñ Ĥ
Ġrequ ires
omet ric
' ve
oll ary
art ment
Ġto wn
Ġapplic ations
T oken
Ġdec ision
Ġconsist ent
r l
_{ {\
Ġcl ient
Ġclass ical
de red
f ont
Ġm or
Ġres olution
Ġnumer ical
re et
ĠIn ter
oc r
Ġrad ius
tt y
Ġext ra
Ġor d
ER T
uth ors
ĠHam ilton
P er
ĠP at
Ġnetwork s
Ġsp at
Ġsim ulations
b ug
: \
it ing
S I
s g
Ġsub set
Ġinter face
O per
but ton
ã Ĥ
ĠĠĠĠĠĠĠĠ Ċ
ĠPro position
Ġst ation
it able
Ġder ived
b in
Ġplay er
Ġredu ced
am ily
Ġper fect
Ġn ature
in ct
ern el
{ {
Ġexp ansion
Ġpol ar
ĠJ ust
P ol
align ed
on ly
Ġro om
ot ype
ĠJ apan
col on
Ġpress ure
Ġro ad
ill ing
Ġw all
Ġprocess es
Ġcell s
d im
Ġh ope
Ġrele ased
Ġspec ified
6 2
Ġpl ane
ĠR em
Ġplay ed
Ġwe bsite
ĠEng lish
oun ced
) }(
Ġv ac
Ġspect ral
Ġcon sequ
Att ribute
ir th
Ġsim pl
Ġhtt ps
Ġst op
E L
Ġa im
Ġopt imal
Ġstart ing
se lect
A ct
7 8
il er
Ġe mer
Ġse lection
ad ding
Ġtreat ment
in f
ffic ients
Ġn orm
id ing
How ever
//////// ////////
Ġwrit ing
Equ al
C P
H ead
Ġt im
ru g
y les
Ġaccur acy
Ġlim ited
ĠW ork
Ġpro te
Ġr ules
Ġask ed
ĠRes earch
Ġmin im
s pect
E M
Ġf ix
Ġappro pri
ĠHe alth
u ge
Ġabs ol
= -
Ġfil ter
Ġfe ed
}} (\
Ġdec ay
ar a
ĠO F
Ġerr ors
F e
Ġprodu ced
Ġright s
S D
ĠA c
Ġch osen
st o
Ġet c
Ġpop ular
aram s
is ions
Ġst eps
op en
Ġsoft ware
Ġs ymbol
Ġrele vant
R un
Ġarch itect
F unction
fil es
in ite
ĠA dd
Ġus ually
Ġsatisf ies
Ġm icro
Ġfact ors
ĠO ut
Ġ&= &
) _{
b a
Ġ\ (
ĠI D
Ġprot ected
Ġsl ight
Ġcorrespon d
' _
Ġcompan ies
Ġw ait
Ġex amples
ĠD ist
Ġconn ect
Ġpubl ished
Ġf raction
Ġcalcul ated
AM E
ĠDav id
Inst ance
ind er
Ġcomm and
Ġcomp ute
iqu es
ie ce
Ġf ire
ter m
Ġin it
Ġtry ing
o ice
it te
ĠC our
6 1
eg er
Ġloc ated
m itted
}$ -
am s
F A
Ġcurrent ly
Ġm ag
y ond
.~ (\
d x
Ġl attice
Ġess ential
ĠH ence
Fig ure
if orn
Ġsc reen
Ġtra vel
Ġconstraint s
ot al
Ġc red
in ner
Ġex cept
Ġis n
arg s
Ġ+ \
Ġquest ions
ur rent
od er
f s
Ġcorrespon ds
Ġr ates
ĠN ULL
ak er
ĠR eturn
Ġdet ection
Ġve h
St art
D B
bo ard
wo od
Ġhy per
ĠG roup
O ff
Ġ ensure
ĠIn st
Ġoff er
sh ip
p ack
an cy
Ġb al
i ency
St yle
S O
t ag
Ġext ends
at ically
Ġs plit
i ers
sim eq
ut ive
ro y
Ġorig in
{ $\
3 00
tain s
Ġstrateg y
Ġro ot
Ġsit uation
Ġrep resents
Ġscal ar
Ġb ul
8 9
Ġrad io
he st
Ġbl ue
resh old
iz ations
Ġinvol ved
Ġinter pret
Ġident ity
Ġmeasure ments
Ġfri end
o ph
ĠM r
Ð ½
Ġsome one
G ener
Ġs y
t ri
Ġpl atform
z ero
Ġexist ing
g raph
T e
un k
Ġc atch
re es
N av
Res ource
Ġg irl
Ġcamp aign
Ġw ays
ĠG od
Ġsc atter
ĠS T
Ġother wise
Ġman agement
ĠOb ject
Ġme et
Ġpol ice
ĠD r
A ction
ib ly
Ġl ost
iforn ia
$ ^{-
ĠS en
Y PE
P T
ab ilities
a ur
~~ ~~
Ġcorre lation
gorith ms
Ġ+ =
Con st
stit ute
! !
' ll
urther more
Ġchall eng
sub subsection
R em
Ġdepend s
Ġget s
ant ic
ad es
ric k
Ġad apt
p arent
it z
Ġexperiment al
Ġal though
e es
as ons
Ġ" ""
ol ar
j av
Ġevery thing
ĠD ay
ĠInd ia
ĠE ar
Ġt ransport
Cont ent
row s
ac her
) ^{\
L ast
Ġproced ure
i as
Ġear lier
Ġbas ic
h om
for all
Ġs yn
i ences
l ib
Ġexp and
Ġcharact ers
ock et
Ġover all
semb ly
ĠS ome
row ser
l ock
Ġinteg ral
cl es
Ġpro file
Ġcomplet ely
ĠG reen
ed u
p ers
Ġen joy
E C
Ġassum ption
Ġstreng th
Ġd am
over y
20 21
ĠS pec
Ġt ensor
ry pt
ul ate
rodu ction
d en
) ^{-
Ġs il
i pl
Ġstra ight
c d
Ġext ract
Ġan gle
Ġoper ations
ĠBl ack
head er
Ġbe yond
Ġstud ied
A V
v ider
Ġext ension
er ve
O ptions
bul let
LA SS
Ġcol lect
Ġappe ars
u ations
f it
Ġdet ect
ĠD irect
B uffer
Ġcoe fficients
S ec
ĠĠĠĠĠĠĠĠ ĠĠĠĠĊ
M y
ad ata
L abel
k a
Ġthem selves
ĠIn c
Ġ ri
C S
Ġpres ident
B ox
Ġv s
ri an
pro du
s ystem
b on
Ġex hib
is ode
Ġm id
ĠF e
Ġ ign
i en
c ases
L ink
Ġgo es
* /
v ille
$ ).
er ver
ic a
the n
for ce
ug in
Ġdiscuss ion
[ "
Ġpract ice
Ġd ual
Ġmin utes
Ġstruct ures
Ġad opt
ilit ary
Com ponent
text sc
Ġre pe
icro soft
Ġso on
C R
Ġdesign ed
ĠWill iam
ĠMore over
> >
Ġsim ulation
oc al
Ġact ual
Ġsp aces
ĠBrit ish
Ġh on
Ġprim ary
Ġc ounter
ren ch
w ell
Ġbeg an
ĠR ead
F l
ĠCh ina
ĠE m
Ġs n
Ġform ation
n umber
Ġre comm
x ml
p g
V ersion
iv il
Hand ler
ic o
ĠP o
or ge
Ġser ver
Ġa w
el er
Ġinequ ality
ĠB ook
Ġdistribution s
Ġincre ases
Ġhim self
om ic
en ge
fin ished
Ġc ause
Ġsa f
Ġb ottom
ĠSc ience
Ġfin ally
H el
C L
m em
9 4
ru pt
Ġpat ients
A ut
N umber
Ġrelations hip
ar r
Ġsignificant ly
Ġc ategory
Ġre v
ul s
ĠAss oci
Ġachie ve
ĠRep ublic
Ġagre ement
Ġl atter
ĠP aul
Ġvert ices
Ġthrough out
nav bar
Ġcont rast
p ass
Ġprodu ce
Ġl ack
hes is
Ġext ended
Ġwant ed
j son
ĠCol lege
es tern
omet imes
8 6
F actory
Ġv ict
og ene
et ime
p y
P oint
Ġsa w
desc ription
) _
pro perty
C heck
^{ +
Ġpl ot
Ġed ges
ra b
Ġlarg est
Ġaut o
ĠTe chn
Ġl ed
Ġaff ect
Ġs ort
N A
Ġf air
Ġhigh ly
Ġen h
Ġdepend ence
Ġinv ariant
7 2
D o
Ġw ind
C o
199 9
ob j
Ġex ception
pt r
~ $\
id a
Ġgener ate
ad ow
Ġform s
Ġhor iz
Ġn amed
Ġsur pr
l en
ĠDep artment
Ġn one
eder al
n eg
ĠSt reet
er g
Ġform at
m atrix
Ġlead ers
Ġqu ery
Ġw orth
il ib
" ]
Ar g
S im
ĠC O
h aps
Ġant i
S M
pp ose
s ur
Ġpr ice
Ġplay ing
ang er
i ant
Ġent ry
Ġst ay
Ġdis k
S ee
Ġmean ing
$ $\
y a
Ġcomp are
9 3
ĠN one
ref ere
Ġw oman
Ġpart ition
p id
ĠGo ogle
Ġclear ly
as ure
s rc
Ġ ;
sh ow
ing u
Ġspect ra
pro ject
w in
Ġintrodu ce
bt n
Ñ Ģ
g est
ĠE v
Ġp ull
Ġin j
Ġredu ce
The se
Ġcomput ed
8 4
Ġcur ves
ro te
Ġv irtual
Ġex am
ĠP ost
ĠT HE
R A
end ix
G B
ri a
Ġprop ag
Ġ{ @
Ġcon serv
ĠE ast
imp le
}^ *
Ġgre ater
ve x
ic ip
ound ation
) }{\
Ġm is
Ġneigh bor
Ġde ad
Ġqu al
u it
c r
Ġqu as
Tr ue
Ġmod es
Ġpro gress
Ġs ampl
Ġf a
ir al
od ot
vent ion
Ġim ag
Ġbel ong
land s
W indow
al ysis
Ġact ivity
Ġw ide
Ġj o
s ign
.... ....
p at
V ER
im g
ir ing
Ġcorre l
b ed
ĠM or
Def ault
P P
ol ve
Ġan im
Ġc ool
ĠCal ifornia
ro t
Ġthrow s
Ġbe aut
ĠO ther
Ġden otes
Ġreve al
Ġexist ence
Ġ= \
re ct
Ġprof ession
Ġgener ally
)\ \
Ġevery one
B S
ig ger
Ġestim ated
ar ant
r d
Ġ ult
}} ^
L oad
Ġl iving
ro s
cl ose
av en
} );
Ġappro aches
m c
pro b
ri al
Ġappropri ate
O W
ĠAustral ia
AB LE
Ġob vious
Ġarbit rary
Ġestabl ished
ĠP al
Ġread ing
9 2
in i
st atus
Ġm ut
Ġarg uments
if act
reed om
Ġf avor
IN T
Ġal gorithms
Ġc ard
f ind
Ġche m
M et
in n
it ch
Ġle ave
Ġshow ed
p o
Ġc ele
Ġcom pl
C A
ĠS ur
Ġdep th
ĠP re
ust er
F I
Ġeffic ient
OR T
Ġres ources
Ġn ames
} )$.
Ġintern ational
om in
Ġb inary
mult i
ĠF l
Ġqu e
ign ment
Th us
ã ĥ
ĠP M
Ġspec ies
Ġab ility
ess ages
Ġcontain ing
ĠA rm
Ġoff ice
u a
Ġcare er
Ġm ole
T T
Ġre li
1 000
er red
Ġfil es
$ ~
is hes
C an
Ġac qu
m t
ar ter
Ġtra in
Ġinteg er
ĠAl so
ed ia
Ġst ellar
Ġpre tty
un finished
Ġc ru
Ġin ner
not her
Ġvis ual
ck now
Ġfollow ed
Ġd ou
b old
pm atrix
l ast
Ġgiv ing
199 8
Ġm argin
Ġhist or
Ġprevious ly
el se
Ġinter actions
)$ -
lic k
if ically
Ġmention ed
erv ices
itte e
Ġt rac
Ġ( (
ang ed
ace book
ag raph
Ġor b
Ġident ified
P A
ĠEurope an
Ġcon cent
Ġj ud
Ġincre ased
Ġreturn s
Ġcomb ination
Ġfri ends
Ġgener ation
Ġestim ates
Ġnov el
ĠG eneral
ve ctor
ĠT ime
7 6
Ġsc ore
ĠRe view
S L
Comm and
Ġrem ove
D A
wh ile
p ush
Ġsymmet ric
Equ als
Ġw rong
R ow
re al
Ch ar
Ġspat ial
un it
ateg ories
Ġlat est
Ġsing ular
ri um
ĠP ublic
rou ght
hi ps
E m
Ġ util
Ġ$ $
ĠPro gram
map sto
Ġwe b
al g
Ġa uthors
Ã ¡
Ġparticular ly
new command
Ġro ck
Ġun its
B ack
Ġp ure
Ġmov ie
Ġst aff
ĠM at
Ġsqu are
Ġst rict
Ġthe ore
r at
R eturn
4 00
ra z
w ar
il ies
F ONT
ĠB ay
f aces
T ag
$ {
serv ice
s igned
Ġpair s
Ġmov ing
Ġnear ly
ament al
r or
rem ark
8 2
Ġst able
Ġcal c
so le
M B
ĠJ ames
Ġmeasure ment
con f
Ġadv ant
form at
S he
Ġt ag
r ig
Ġex c
su per
op ic
k i
ĠA nt
con s
Ġex cit
Â ł
( [
The orem
od ed
act er
D ep
l s
bre ak
Ġelect ric
ĠC ouncil
p rivate
Ġth reat
Ġvari ety
fere nt
f inal
com position
Ġtechn iques
Ġmod ern
Ġm other
N R
ĠD on
o z
m ut
-- -
amp ions
h box
Ġst ore
ater ial
d ro
erv ed
Ġtrans l
g rad
h bar
ĠE X
Ġyield s
ash ington
Ġb ur
m ic
? âĢĿ
c f
Ġf em
ĠC E
Ġt en
is her
Ġ Ã
Fil ter
g n
ag onal
Ġm achine
Ġtrans formation
m ass
9 1
Ġann ounced
// /
ĠSt e
et t
U I
out put
Ġt ro
ĠE nd
_ -
f loat
Ġabs or
Ġh arm
Ñ ģ
Ġ$ {
Ġsur v
R el
Ġeduc ation
ĠT ype
' }
M ax
g ent
Ġcomput er
h al
rid ay
Ġchang ed
\ _
ont al
bl ue
AR T
P age
um an
h ol
v an
we ight
Ġident ify
Ġcontribution s
ĠM al
Ġr ing
C ase
s he
Ġb rand
L P
Ġas pect
Ġs witch
a fter
Ġt al
S ON
Ġas ympt
Ġanal og
riv acy
Ġg ave
display style
Ġqu ad
Ġbo ard
omorph ic
Ġmass es
Ġp m
I O
ĠTh om
es h
e ks
ĠA re
S A
Ġopt ical
v ari
se ud
U s
Ġex ternal
Ġcour t
end if
ĠSu per
Ġcount ries
Ġin sp
Ch ild
Ġansw er
as er
Ġlo op
ann els
Re ferences
Ġfl at
Ġf ine
Ġem pty
Ġfin ancial
C K
m eta
ĠJ ack
ĠD i
Ġon to
ach ing
Ġcle an
ĠP ort
up date
Ġrec all
AT ION
Ġd ro
ĠGa ussian
8 3
G o
if ies
Ġgalax y
Ġimmedi ately
ma ke
ĠO pen
\| _{
ĠR E
Ġw rote
Ġcons ists
ĠMich ael
ist ance
ang es
ĠM et
ex pected
k it
D T
Ġn av
ĠY our
Ġf ather
Ġmat rices
C reate
Ġsay ing
' (
b as
\ {\
se ct
s d
ac ement
" ),
Ġo dd
Ġreturn ed
Ġdist ributed
Ġs old
Ġdis e
Ġtra de
B A
ĠG L
_ .
ĠA tt
ĠE qu
Ġcom ments
use um
pro position
uf act
Ġin de
ud es
Ġslight ly
or ter
ĠH all
List ener
ic ity
ag o
ri e
Ġd oc
Ġto ur
ĠHamilton ian
un n
ĠK e
Ġob serve
sc ill
ĠĠĠĠĠĠĠĠĠĠĠĠĠĠĠĠ ĠĠĠĠĠĠĠĠĠĠĠĠĠĠĠĠĠĠĠ
Ġhand le
Ġhe avy
Ð¾ Ð
}} ^{
Ġcl ub
ĠF il
su pport
Ġassum ed
Ġv ill
Ġrun s
e ch
Ġscatter ing
Ġdeta il
$ ;
Ġd rop
ĠD an
7 4
R ight
ĠA M
Ġcoordin ates
Ġmain tain
Ġoff set
Ġimplement ation
7 9
Ġbook s
i h
Ġwork ed
&= &
ri z
ot ion
Ġit ems
param s
Wh ile
Ġpur pose
Ġcou ple
Out put
Ġcomput ation
rib e
const ruct
ar c
Ġunderstand ing
ĠR ich
N e
Ġe ight
ĠO ver
Ġp ix
ĠD ec
Ġext rem
Ġseg ment
Form at
h y
Ġmeas ures
Ġs end
7 3
Ġpre p
q l
fil ter
Ġme eting
not ation
Ġs on
Ġrel atively
ĠS ervice
respon se
ĠInd ian
ober t
ĠM ac
Ġag ent
P L
Ġ â
Ġb right
P RO
Ġres on
osp ital
Ġc ast
am ely
c at
pon ential
Ġm iddle
Ġin cor
| _{
Ġdeta iled
ist ical
Ġax is
act or
Ġclass ification
Ġth ick
re me
ot ing
Ġsub st
ĠC he
Ġp en
Ġbehav i
. /
Ġdist inct
Ġg reen
ir it
Ġrema ining
ĠCour t
ol ved
if ferent
H z
Ġad minist
ĠL og
it ution
Ġl ives
result s
Ġass ess
Ġex pert
t ree
Ġmass ive
air s
Ġa ctions
st ep
Ġk in
Ġliter ature
( &
p icture
v est
Ġwas n
) },
Ġhig hest
olog ies
N E
asc ript
ott ed
ĠCan ada
B U
Ġve ctors
st d
Cont roller
Ġsatisf y
M in
os ite
el es
F R
Ġwon der
ilib rium
S H
ur t
Ġdifferent ial
Ġh ole
Ġshow ing
ĠB el
Ġref lect
Ġinter view
ĠB re
ill er
Ġreg ist
ĉĉ Ċ
P O
F O
d es
ĠPl an
ĠIn stitute
I ST
hed ul
Ġser ious
Ġj oint
i verse
Ġany one
d y
Ġturn ed
Ġform al
ĠWh ite
Ġor ient
D D
Ġo scill
ĠL eg
ĠS ing
Ġpass ed
Ġbu y
We b
Ġb irth
ER R
Ġt er
ĠB en
g r
Ġ ut
ĠM art
ĠM usic
al let
" ).
Ġconver gence
Ġt asks
}{ |
hen omen
Ġreg ime
ĠR ob
Ġpar allel
ĠR el
F L
ro om
ynam ic
T em
Ġrece ive
Ġse c
Ġth reshold
V is
Ġsc ene
Ġleg al
Ġsc ient
Ġg rid
Ġrema in
ĠE ach
ĠN S
Ġsc ience
Ġbegin ning
L ength
m as
8 1
Ġhyp ot
ful ly
eta ils
sc ope
Ġfoot ball
I A
Ġoff ers
C ON
ĠAn n
Ġdiffere nces
Ġamplit ude
7 1
an i
Ġdem and
oc ation
Ġp ow
ĠH REF
Ġhe l
Ġlook s
id ents
b i
ann ed
le ep
) +\
ult ure
a uthor
Col umn
ent ry
con tainer
Ġpart ial
he nt
Ġpre vent
Ġide al
} &
qu are
Ġinteg r
ĠS und
st on
Ġsh ared
Ġde part
Ġnuc le
ĠC LASS
ĠEng land
Ġstrong ly
Ġun ivers
Ġm orph
ĠM ag
ĠAr ch
x x
R L
Ġg ap
Ġconsider ing
Ġr ace
Ġb orn
umin os
Ġsub sequ
N O
ip age
T O
Ġdev ices
oy al
Ġcommun ication
Ġcont roll
k in
Ġredu ction
Ġquick ly
CO L
b el
ĠR uss
atal og
ĠL icense
ent al
Val id
Le vel
ry st
p a
Ġf ont
rem ove
Ġgu arant
Ġinterest ed
ĠW ed
th on
H S
Ġc ook
se cond
Ġpredict ion
min ipage
on ical
ĉ ĠĠĠ
I B
ĠW ashington
mod els
tt p
Ġprovid ing
K E
Ġspe ak
Ġcult ure
ĠV ol
Ġa mb
Ġp iece
et her
} }$,
l ap
Ġcar ry
es ter
v ol
P e
G C
Ġb rief
ov ing
c lear
Ġ ener
ic ate
C or
Ġdig ital
}$ )
ev en
b our
) }_{
at tr
Ġtyp ical
ruct ure
m ma
Ġb ranch
T op
Add ress
l ig
ound s
ymmet ric
inst ance
} }$.
} )$,
Ġv ary
D irect
Ġt or
ĠF orm
M on
Ġcalcul ations
ef ined
Ġsh ock
Ġrepresent ed
[ (
t ik
Ġprot ect
atur day
ab il
ĠLe ague
Ġcomb ined
Ġtem por
Ġmagn itude
Ġdri ve
est ival
Ġobserv ation
cont in
ĠA lex
M em
Ġde vi
m enu
con g
$ ),
d f
M R
Ġd u
co pe
g an
199 7
ĠU sing
ĠF rench
cont rol
Ġwe eks
Ġn et
ĠC ong
Ġ url
Ġindic ates
The y
T ask
) -\
Ġe mail
se y
Ġtra ditional
rel ated
Ex ternal
}( {\
Ġtest ing
a ud
to ol
ĠF acebook
ĠJ ul
Ġst ories
Ġnot ice
' d
Ġch ance
ĠH ig
B o
Int roduction
velop ment
Ġl ayers
ĠN etwork
Ġang ular
Ġse ctor
Ġpur ch
Ġcon clude
it ivity
Ġindu ced
Ġcalc ulation
ran e
Ġcirc le
Ġb rought
Ġm us
it ory
Ġfail ed
ĠWe b
Ġdim ensions
S che
Ġex change
Ġflu ct
Ġprocess ing
Ġp lease
B O
Ġset tings
Ġoptim ization
l ayout
ollow ing
z a
ĠP ress
h igh
U sing
Ġp icture
ud get
Ġred shift
m i
ĠF in
ĠT om
: }
Ġ{ }
r b
M E
ĠPe ople
Ġexpress ed
ĠSc ott
Ġfam ilies
ri ve
ta x
ĠB er
W ork
Ġnot ation
M ode
con dition
ĠA ut
Ġmin imal
ut ing
- $
ĠB usiness
sc he
F inally
Ġfunction al
Ġcrit er
Ġo w
prot otype
plic it
' ).
S R
**************** ****************
ĠF riday
Ġl if
D ec
D at
Ġgr ant
Ġcent ury
ĠMod el
ogene ous
al d
en ess
an o
Ġfund amental
Ġsit es
Ġpo or
ĠY ear
Ġopport unity
Ġp ark
AC K
S ection
Ġus ual
199 6
a o
Ġprov ed
Ġw id
ript or
Ġtest s
ĠQ ue
Ġstud ent
re y
Ġ$ .
ell i
Ġa ward
d el
de c
we et
Ġgrad ient
Ġinflu ence
U pdate
ell ig
D P
Ġ\ !
ĠDem ocr
ĠS am
Ġ[ ]
) )$
Ġhy dro
Ġhe at
g in
ap ers
Ġreport s
ari ance
Ġb ank
def ined
ĠF inally
C ache
form s
Ġp le
Ġ$ |\
15 0
tik z
Ġk ernel
Ġproject s
Ġcl oud
Ø §
Ġpro port
c uss
for ward
âĢĿ .
ĠE duc
ĠU nder
Ġcy cle
Ġbound s
Ġm ilitary
ol f
Ġcost s
Ġbe am
cher s
ĠS U
c ar
ĠSt ar
But ton
ĠIs ra
Ġcall back
Ġindic ate
Ġinde ed
pl an
ĠG old
UR L
agn etic
}{ (
Ġfor ces
ĠĠĠĠĠĠĠĠĠĠĠĠĠĠĠĠ ĠĠĠĠĠ
et te
Ġc op
set s
Ġapproxim ately
Ġclust ers
< ?
ĠS um
Ġthan k
k l
ing er
im ages
Ġv oice
Ġdirect or
Se lect
Ġs ometimes
g reg
Ġtheore tical
Ġhand s
ex ec
ad s
Ġf ans
ĠPh il
it a
f rame
less sim
Ġeffic iency
Ġag ree
, $
cal e
The refore
Ġrot ation
Ġp an
big l
ĠB ig
ran k
ĠH el
D S
M O
p ir
T arget
Ġp henomen
refere nce
Ġr ise
form ed
if ul
m ode
Ġg overn
jav ascript
Ġmed ical
Ġaltern ative
Ġuncertaint y
ram es
M ar
Ġf elt
Ġcap ital
and er
Ġlim its
ch ron
A ccess
Ġscen ario
Ġb r
pl oad
h ouse
t wo
ĠF oundation
on a
ĠR oad
Ġal t
Ġcap acity
Ġ> >
t yp
Ġsaf ety
ay lor
Ġro ll
ĠPro ject
Ġse ctions
Ġscal es
Ġprogram s
( _
l ies
pon ents
comm on
in ity
Ġhapp en
aught er
Ġra pid
Ġmov ed
Ġestabl ish
T ypes
Ġ< !--
Ġread y
und red
Ġsepar ate
Ġabsol ute
en a
Ġneut r
Ġpl ans
m ann
Ġdat abase
ĠB est
Ġtherm al
Ġrel ig
ific ations
et ch
Ġv ote
Ġsp read
R T
as y
Ġpol y
ex as
Ġs ave
ĠN ov
ash ion
ob s
F C
Pro vider
Ġn orth
\ ;
af e
p arameter
Ġal one
L ayout
`` `
sh ould
Ġgra du
Ġs ession
Ġtr uth
l ines
ĠR ad
ĠG al
ĠAr ray
Ġform ed
ĠÂ £
Ġb us
Ġth read
Ġf reedom
Ġcandid ate
cc cc
Ġf rag
Ġse ven
Ġsh ot
Ġrem oved
it ation
big r
Ġtyp ically
return s
Ġey es
pos es
w rit
Ġcall s
Ġsol ve
Ġca used
Ġmiss ing
$ _{
S erver
Ġtr ust
ines e
h ot
lev ision
ut ed
ur a
it ar
Ġtre nd
^* $
Ġh ar
,\ ,\
Ġeval uation
Ġsur vey
Ġc ov
Ġprot ocol
Ġ\ &
Ġfind ing
ĠS y
Ġcomplex ity
h old
Ġpart ners
g ies
Ġeconom ic
ĠD E
ĠD el
Ġ! ==
A ss
z er
ĠC all
P o
ic ated
Ġhe ard
ĠAl though
ĠS un
Ġ ^
P arameter
i ra
Ġb uffer
IG N
Ġtra ined
cknow led
++ )
Ġscal ing
urs day
Ġcalcul ate
s uch
D M
Ġnuc lear
Ġconstruct ed
Ã ³
Ġcon vert
pre c
ve re
b al
Ġdec ided
Ġp ush
Ġatt ract
ro ot
requ ire
Ġcontain ed
Ġpro ceed
d r
D R
ĠW il
ĠM em
Ġst ack
ĠSh ow
clus ions
Ġnot ed
o om
Ġent er
| |
Ġmor ning
Ġparent s
Ġcele br
ĠE ven
ĠM us
Ġinf inite
Ġsum mer
f loor
Ġsur round
Ġcomp osition
1 20
ec k
m atch
clus ive
Ġadd ing
ilar ly
ent y
ĠB uild
ĠAssoci ation
Ġacc eler
Ġl ock
Ġ[ \
ĠI S
G u
Ġto uch
n n
ph ys
Ġsol ar
Ġsc ope
c ard
os h
ĠM o
Ġdepend ing
Ġse cret
Ġcoll abor
D C
Ġgrow ing
Ġteam s
d em
ĠM ost
ĠSund ay
P U
Ġun known
Ġachie ved
f lu
y r
Ġf loat
Ġd ust
ĠA PI
Ġgraph s
,\ \
G l
Ġtool s
u um
Ġactiv ities
Ġrob ust
] }
Ġge ometry
ĠF urthermore
Ġman ufact
Ġep isode
Ġ Î
opy right
ĠCh urch
ĉĉĉĉ ĉĉĉ
Q L
d rop
Ġb illion
Ġadvant age
out hern
Sc ript
Ġh uge
T ra
: </
onal d
}} )
D ev
ib r
Ġtra ject
Ġex ponential
Ġre ached
Ġdis crete
ĠF ile
st able
c ript
U rl
#### ####
âĢ ĺ
Ġw ild
ed y
ĠGe orge
ĠM er
Ġs al
W E
Ġcoe fficient
Ġ* *
Ent ry
Ġh op
b ool
Ġh idden
B undle
ou nce
c ular
il ing
Ġocc up
ell ed
Ġcon j
ir med
$ :
Ġs s
Ġsem i
Ġlook ed
Ġocc urs
off set
Ġ ion
c ial
Ġqu ark
par se
ĠUS A
Ġph one
Ġhe ar
Loc al
v s
Ġpl aces
Ġposition s
Ġh ous
Ġre asons
c ref
Ġkn ew
Ġent ropy
Ġpl ant
Ġd ied
W rite
M ult
W idth
Ġarg s
St at
Ġob j
D L
om a
Ġst ress
ult s
Ġadj ust
T ree
ru ck
Ġ ur
Ġphys ics
Ġdynam ic
ĠT witter
O pen
Ġsatisf ying
ist ent
ĠC heck
Ġl uminos
ĠS aturday
ĠAfric a
here nt
Ex ec
Ġtem plate
Ġs outh
Ġe q
Ġarchitect ure
ip al
Ġw ants
Ġle mma
f a
Ġvert ical
ues day
ess or
Ġe lection
G R
c ut
N on
sk i
Ġapp arent
D es
ĠT wo
Ġcon ven
ĠV ir
eff ect
plic ation
od ay
C al
ĠG overnment
Ġde composition
av el
: =
F rame
C ar
ok es
Ġbl og
spec ial
ition s
Ġenc ou
% %
$ {\
Ġst orage
ig inal
ĠM ethod
ĠL ie
all ow
Ġinteg ration
Ġblock s
w indow
Ġmaterial s
lo op
Ġmod ified
199 5
ill a
medi ate
ort hern
Le ft
Ġtechn ique
Un it
ĠM ax
ĠReturn s
go ing
Ġdet ected
ar se
Ġp ackage
Ġl en
ĠS l
Ġexplain ed
ĠĠĠĠĠĠĠĠĠĠĠĠĠĠĠĠ ĠĠĠĠ
Ġpower ful
or ation
anc ing
Ġw aves
ĠR un
ed s
d irect
Z E
ĠO R
CO DE
ĠPro f
st at
}\ ,\
Ġcam era
ĠR iver
Ġch annels
d ocument
Ġs en
Ġunder lying
Ġj ournal
Ġevalu ate
' ),
Ġsom ew
Ġatt ribute
Off set
ĠEar th
A meric
Ġsy nt
E l
Ġschool s
ĠR obert
Ġk m
Config uration
Ġcon vex
C M
ĠG reat
Ġdeg rees
ĠM a
ĠOff ice
Ġf erm
Ġd ram
Ġdel ay
Ġb in
c p
Ġset t
tem plate
Ġw ife
Ġp i
Ġm obile
Ġcoordin ate
Ġeff ort
199 0
d frac
ĠU s
Inter face
p op
Ġrem ember
u int
Ġdatas ets
ĉ Ġ
ĠJ ew
ĠSm ith
ĠO per
ĠL ag
E Q
Ġden oted
av ed
maz on
;\ ;\
Ġdis p
Ġdes ired
Ġm apping
it iz
is ely
ĠI R
Ġac com
A p
Ġth ous
ĠAcc ording
Ġdes pite
st yles
Ġsp ent
D ir
] $.
j o
he tic
) }}
Ġwe ights
? :
d iff
nes day
Ġide as
Ġmet al
ĠS al
Ġb lood
h an
Ġf irm
N AME
ra pper
ph one
Ġpro jection
st ein
ig ration
ĠH ill
Ġmot iv
Ġopen ing
w s
g a
Ġdist rict
ĠT op
, {\
wh ite
Ġ ::
ĠP et
m osp
Result s
Ġcar ried
Ġ\ ]
Ġlead er
ĠFran ce
Ġcontinu ed
ric s
let s
point s
ail ed
class es
ang ing
Ġg un
Ġst o
ĠDist rict
s at
ĠG r
Ġpl us
ĠG ra
Ġc m
ĠF ore
Ġp ain
AL L
Ġmatch ing
Ġplan et
sh ort
u ous
hem at
Ġchall enge
t ask
AP I
ĠPart y
ĠL ife
Ġmajor ity
K e
Ġt ick
Ġra ise
call ed
ĠJ er
V AL
Ġb os
Ġs ales
S earch
Ġx ml
Ġk illed
ri p
ĠL ou
Ġg old
oot st
aw a
\ }$.
ĠS k
Loc ation
k m
Ġstat istical
Ġmin or
ĠAs sum
Pro cess
Ġ{ };
Ġcustom ers
Ġdise ase
f i
Ġrem ark
or iz
ner gy
i ota
Ġpredict ed
pt on
A re
Ġm aster
Ġprinc iple
pro duct
U M
Ġu int
ĠC ap
Ġmove ment
P osition
c is
Ġsh oot
math op
ĠS ervices
Ġs un
ph ant
S ch
Ġext end
Ġp seud
Ġir re
O p
Ġmost ly
il ation
s or
ĠEduc ation
init ely
Ġvari ation
Ġ rough
ĠSe cond
form al
Ġbi as
Ġrel ax
Ġ er
U p
Ġst ability
Ġor bit
Ġab und
Ġst ated
Ġin fo
Ġfil ms
f ull
com put
Ġm ixed
X X
l ook
plic ity
Ġrepresent ations
Ġde b
AN D
i pp
ĠM ad
Ġcre ating
ĠMed ia
Ġn ation
Ġper haps
Ġrad iation
J son
ic ations
Ġmed ium
ver b
Ġte acher
C urrent
por ate
gl obal
Ġto ken
och astic
Ġsub t
om y
}} _{\
Ġh undred
ĠChrist ian
ang ular
y an
L ong
de p
Ut ils
long rightarrow
M T
Ġc at
ĠComp any
}[ \
ip eline
Ġun less
Ġbro ther
ymmet ry
Ġg rand
r ical
T YPE
Ġgrav it
ĠC up
IN E
ist ed
os es
="../../../../ ../
h ow
pect ive
Ġlist ed
ĠG ener
Ġrequire ments
Ġmax im
Ġestim ation
Ġto ward
ĠÂ »
i ate
id el
s v
Ġwhere as
ĠD en
Ġm ur
ac c
Ġst ock
Ġqu arter
Ġstart s
I E
Ġtri p
Ġsa fe
at ible
Ġin nov
) )\
j ust
ĠG ood
() ->
Ġrespons ible
b uffer
] );
Ġc ivil
Ġbut ton
Ġturn s
Ġ ^{
Ġwork ers
ut ils
ĠBo ard
ax is
Ġconst ants
Ġimpro ved
M at
al gebra
Ġaccur ate
Ġindividual s
it ors
ĠC reate
ĠIs land
En c
i able
Def inition
Id ent
ĠĠĠĠĠĠĠĠĠĠĠĠĠĠĠĠĠĠĠĠĠĠĠĠĠĠĠĠĠĠĠĠ ĠĠĠĠĠĠĠĠĠĠĠĠĠĠĠĠĠĠĠĠĠĠĠĠĠĠĠĠĠĠĠĠ
}) }
Ġchem ical
i ated
im ation
ĠC amp
Ġpl aced
: "
Ġt ransp
Ġd og
Ġcomplet ed
Ġne ural
ĠM iss
P D
Cont rol
ĠM ary
ĠH istory
Ã Ń
ur ations
ĠJ ournal
ri end
ĠR ev
ĠE very
ĠB ill
AT A
Ġsum mar
Ġhapp ened
Ġexplicit ly
ĠL and
S um
empty set
M ark
ĠComm ission
Ġis ol
Con tainer
) }_
E v
ens es
ro ad
Ġj oin
Ġsc ript
sy ch
O K
ĠP y
ĠC re
j oint
COL OR
ĠB rown
Ġsampl ing
] $,
ĠB ecause
ta il
du le
Ġread er
Ġbul k
ĠâĢ ¦
ĠMan agement
Ġimport ance
Ġman ager
cl aim
ĠB ur
rom e
ĠF lor
Ġfail ure
Ġin verse
ĠS ociety
Ġl ibrary
S ome
Ġprofession al
ne ctions
ve e
Ġrepl aced
Ġlearn ed
ĠT exas
ĠDirect or
ĠL ong
Ġsufficient ly
Ġra re
Ġm ill
ĠGerm an
Ġis omorphism
F ont
Ġsuggest s
script size
el ess
art ifact
Ġequ ilibrium
Ġt end
ĠMon day
ĠTh ursday
and a
Ġcharg ed
ĠD iv
ĠZ e
B L
Ġapp lying
Ġp ages
par ison
Ġexpl ore
Ġregard ing
Ġla unch
199 4
u zz
ĠUn ion
Ġpa int
ĠAs sert
am ing
im er
l aw
Ġsu itable
L a
ĠCh inese
pl ot
Call back
Ġpredict ions
ens ities
et ween
Ġa ware
re nce
ĠWe ek
Ġmay be
} ~
ic ago
stand ing
Ġlet ter
az z
: (
Ġop in
ĠT imes
Ent ity
T C
ĠApp endix
Ġsm art
in ations
Ġserv ed
Ġcl in
Ġrec ords
stit ution
t w
__ __
, ...
P H
c ache
com ponent
Ġa st
Ġa part
che n
ĠN OT
t og
al gorithm
ĠCh ild
\ )
}} .
E ach
b rid
v ature
12 8
az ine
S ign
Ġw at
> ,
S m
act ic
ĠU se
oth ing
Ġco inc
S l
Ġal ign
ĠT or
ĠA ND
Ġmod ul
Ġk ids
Ġhapp ens
ra ge
Ġp ool
T S
Ġl ies
ic ies
ph as
}_{ -
âĢ ¢
Ġman ner
1 10
Ġsp ot
ĠEx p
Th read
Ġorgan ization
ap es
Ġb ill
Ġke pt
Ġdo or
r ich
N one
Desc ription
Ġrecomm end
it ative
Ġa ver
Ġe arn
ab y
l at
ch or
Ġevent ually
Ġview s
Ġconsequ ence
$ };
ST R
ist or
A m
iction ary
ov es
}) =
Ġpl ays
Ġcl ick
R ange
Ġcomm erc
j pg
Ġn amely
Ġassum ptions
s pe
are n
ĠC am
Head er
app ed
ult ane
Ġener gies
g ers
leg al
Ġveh icle
ĠIn formation
k o
c over
E ng
Ġchang ing
se ar
Ġbehavi our
ĠInd eed
AG E
pl es
t ure
Mod ule
p ref
Ġex cell
Ġlabel s
Ġcomput ing
ing ly
Ġcertain ly
back ground
t oken
Ġcharacter istic
Ġopen ed
ĠA G
S erial
Ġinvestig ate
Ġ{ $
Ġneighbor hood
b efore
Ġeff orts
/ (
un ities
ĠA ward
Ġdriv ing
B R
P ort
ploy ment
ĠR ock
Ġdist ingu
ell er
at re
Ġfl ag
t ml
Ġ }}
li ament
ĠS uch
ootst rap
D own
Ġtra ffic
ree k
He ight
ĠDe velopment
Ġimplement ed
est s
Set tings
ĠT uesday
i ative
Ġo il
oun tain
ch ain
t an
ĠN umber
ĠS eries
ad ing
Ġpro pos
ven ue
ĠCl ub
Ġ( "
Pro ject
ĠCent ral
}) ^
An y
Ġwrit er
Ġposs ibility
T V
res ource
P M
i ance
H O
Con n
Re ference
Ġinst ant
ist an
ĠV is
ĠĠĠĠĠĠĠĠĠĠĠĠĠĠĠĠ ĠĠ
ib ration
ĠV er
Ġmanif old
ct x
ĠL i
clud ed
K ind
ĠL at
ĠG ame
ĠGerm any
Ġloc ally
Ġappe ared
Ġan c
ĠAn y
ä ¸
Ġclaim s
par agraph
ff ect
Ġtri ed
Ġser ve
ĠF ield
ĠB ank
ĠThe ir
ĠM ex
Ġmon itor
f old
ou rier
Ġtre es
Ġt ail
ĠA R
| }{
Ġtechn ical
br as
Ġ eth
ĠB i
t frac
Ġmax imal
U RE
Ġphot on
Ġre ality
$ &
ĠH ome
Ġobject ive
Ġst uff
ron ic
Ġbenef it
ĠThom as
ĠI r
] ]
Ġcos m
og en
Ġsign als
k ind
Ġw ish
Ġgener ic
Ġw el
Ġsequ ences
Ġupd ated
ĠSt and
Ġor th
Ġsign ed
ad er
st ain
[ -
ĠN or
Ġsong s
H ome
ĠD aily
equ al
Ġfore ign
Ġent ries
O ther
un ct
ĠPh ys
Ġdi agonal
Ġ> =
Ġcon vers
Ġcomm it
ert ific
int eg
Ġpath s
Ġdi ver
Ġar riv
Ġderiv ative
rim inal
@ {
ĠC ON
os is
Ġh our
e ctions
Ch ange
ĠMin ister
ĠM A
Ġsatisf ied
H ash
PE CT
Em pty
}} ^{\
Ġdis pl
h ash
Ġ* )
Ġt rivial
Ġflu id
Ġgrav ity
Ġcan cer
> \
Ġpa id
Ġvis ible
Ġpattern s
Ġstat istics
Ġf ol
Ġ ens
i pped
ĠWed nesday
ĠP eter
ĠB oth
v art
m al
Ġprec isely
u ps
ĠD et
Ġasympt otic
Ġin sert
Ġj et
re q
D ocument
25 6
ĠN ame
Ġal leg
lic t
Ġthink ing
li k
g ment
bm atrix
Ġbeaut iful
Ġat mosp
Ġthe ories
Ġj ump
ier arch
ĠS pe
j i
ĠL u
Ġf arm
Ġn ice
cl ip
}} }\
Ġset up
ire ctions
Ġn or
l b
ĠB G
ge bras
Ġthan ks
ĠD ir
Ġfour th
Ġhapp y
Ġinvestig ation
199 3
ĠSt ep
W S
A rt
avel ength
l arge
Pro t
r as
un ately
Ġembed ding
const ruction
ch mark
Pro of
agn ost
Oper ation
Ġc row
Ġplan ning
t rivial
Exp ression
t iny
=" _
Ġconst it
Ġs ociety
Ġquad r
ĠS M
Ġsubst ant
up le
ĠT aylor
25 5
ad ian
Ġ\ (\
ip ment
L C
or ial
Ġag ents
Ġm ys
G S
eli hood
Ġphot o
" ))
ap pe
ra ined
âĢĿ ,
Ġover ride
ĠCar ol
c are
AT H
Ġact s
Ġluminos ity
' .
Ġrecord ed
a us
ĠComm ittee
s ive
he et
ĠEng ine
Ġre produ
Ġcapt ure
multi row
Ġb undle
Ġbal ance
Ġcan onical
it ness
al ing
Ġallow ing
Ġrepl ace
b orn
ĠS il
Ġextrem ely
ĠM ap
Ġf av
li e
Ġa head
Ġc ache
^{ *
Ġnon linear
Ġhas h
Ġb udget
ĠD ev
form ance
in ated
Ġp adding
sl ant
ĠG en
ĠU N
G E
St r
Ġpr ime
plic ated
rop ic
Ġrad ial
Ġ( {\
v a
om ent
de bug
ĠS ocial
Ġdri ver
Ġcandid ates
Ġf ear
ĠV iew
Ġord ers
| }
er ior
Ġun ion
est ed
ĠHig gs
ĠT re
Ġf lex
Ġinter act
per iment
Ġm ission
Ġre sear
eta il
Ġsuggest ed
mod al
Ġband s
od ies
Ġsc hem
Ġfil ename
ĠA p
% ;
Con nection
ĠB ack
Ġprop ose
semb le
ĠGe V
O ption
Ġfeed back
Ġmom ents
w orld
199 2
column width
Ġcontin ues
r ust
Ġsp irit
il bert
sh ape
Ġconf idence
() :
end ar
ist ant
ĠTechn ology
Ġf an
^{ (\
ĠU p
i em
Ġcorre ctions
au gh
P ORT
ac cess
="../../../../ ../../
Ġel im
Ġinst itution
Ġloc ations
T P
ĠJ un
Ġdown load
am l
leg ate
Ġed itor
? "
=" -
Ð »
Ġd rug
Ġder ive
p ower
Ġposs ibly
Ġpat ient
Ġt ight
ĠCh ampions
\ }\
}} =
ap os
Ġgu ess
ĠFlor ida
ĠPol icy
Ġcould n
Ġcommerc ial
L emma
ou ch
T wo
Ġsp an
artifact Id
Ġint ensity
25 0
] {\
med ia
Ġd ie
ĠâĢ ¢
Ġd imensional
][ ]{
b ind
ĠC D
ul se
Ġhigh light
ig er
ĠT im
ĠEx t
z en
ne ver
Ġcommun ities
ĠCong ress
Ġtalk ing
b p
Ġmain ly
iven ess
Ġattack s
ĠI P
Ġw arm
ĠIt s
G iven
Ġcont rad
Ġ$ ,
ve ct
H ence
miss ions
Ġtop ological
Col lection
he ta
Con sider
Ġlaw s
v as
V er
Ġbenef its
ĠFran cis
ĠRich ard
Ġs izes
Ġdescrib es
sl am
Ġcl imate
m es
ĠT our
ĠW indow
re lation
v m
Ġvari ance
ĠD ate
org an
ĠM useum
ca pe
Ġtemper atures
Ġdi am
et al
St ore
Ġdynam ical
Ġann ual
H ttp
script style
Ġindic ated
Ġd x
R R
Ġtre ated
} |\
sc ape
" ));
im pl
ĠPl ay
ĠL O
12 3
) })
the re
ĠJ ose
Ġm essages
Ġexpl an
ĠIsra el
bur g
ograph ic
Ġar rest
ĠG rand
M ay
ru ctions
Ġd ed
ĠG iven
Ġt race
Ġsu stain
ĠA N
k es
Ġd aughter
ĠF ree
dom ain
Ġen able
d est
ĠB as
b ib
Ġb ra
in itial
h s
ict ed
Ġsk y
Ġgeneral ized
Ġp arams
) ).
Ġ} {
Rec ord
Ġfem ale
Ġquant ities
c i
Ġro ute
Ġcent re
ĠM ult
Ġl ab
Ġinter section
Ġc overed
= .
}$ }
p ool
16 0
sl ash
6 00
is l
ate ver
Ġcomput ational
Ġr ich
ĠC A
Ġem phas
R I
Ut il
OR D
Ġdirect ed
Ġout er
Ġf ill
at o
ĠM el
Ġaff ected
Ġdel iver
ec es
Ġdr ink
ĠL in
ĠM ur
\ }$,
ĠGl obal
Ġquas i
ict or
Ġnecess arily
Ġb oy
ac ro
u y
ĠAc adem
Ġcompet ition
art s
et ry
Ġd ashed
Ġg one
Ġopp osite
art icle
ĠA L
P arams
in ate
Ġcharg es
Ġad vert
s ession
fig ures
Pro perties
circ le
w hen
Ġm iles
sub sec
Ġcy cl
ĠM ass
ol a
ard en
Ġf ederal
Ġli qu
fere d
Ġtrans mission
ĠH ot
Ġhypot hesis
Ġte levision
Ġd ream
Ġtri al
Acc ording
ĠL ear
Americ an
Ġcover age
ĠR equ
f ocus
Ġm es
unc hed
n ight
Ġdet ector
import ant
g ar
Ġs ell
ĠD C
w est
Ġart ist
R ev
pl ane
ĠB ob
) --
field s
IT Y
group Id
function s
Ġsp ac
Ġoper ating
ĠW ho
Ġver ify
Ġsh ip
ĠH T
Ġtrans action
c ou
t rack
Ġj our
rang ian
s ince
Or der
Ġre ct
doc s
Ġd anger
Ġc old
conn ect
Im pl
Ġsecond s
p red
ide os
Ġse a
k ins
Ġc ategories
Ġle aving
Ġr ig
Ġcontain er
ens us
ĠT H
Ġsim ultane
Ġrepresent ing
ĠW omen
f n
ĠC H
Ġfluct uations
pt o
inter face
ĠR ussian
ĠTr ue
ĠM ont
trans form
ĠWh y
\% $
r ins
a ver
Ġe cho
Ġc ryst
ac le
ĠT own
Ġchalleng es
ĠO ffic
Ġ" \
Ġme ant
ĠRep ort
b ot
ĠEx ception
b order
Ġca ref
Ġs ides
Ġcur vature
in os
Ġey e
Ġra ised
ĠO h
en um
Ġb ond
Ġpol icies
B P
Ġexpress ions
Ġaud ience
e lect
j a
Ġ icon
med skip
h ave
: =\
s n
ĠM il
Ġre action
Ã ¼
I ter
Ġexpl o
Ġspe ech
Ġpow ers
Ġb attle
id ers
add ress
Ġassum ing
As ync
let ed
rap y
P tr
st ood
bold math
ĠAfric an
D O
ĠK ore
ĠT ur
ex ists
Ġvac uum
dev ice
ĠĠĠĠĠĠĠĠĠĠĠĠĠĠĠĠĠĠĠĠĠĠĠĠĠĠĠĠĠĠĠĠ ĠĠĠĠĠĠĠ
Ġcorre ction
Ġjob s
ĠW ell
g eneral
oss ible
ru it
Ġhelp ed
Ġanaly z
ĠF und
t ypes
ĠRuss ia
m its
pr im
Ġown ers
Ġd aily
com ment
Ġbo ost
================ ================
Ġvict im
or row
Ġelectron ic
Ã ¤
ad y
Ġexec ution
ubl ished
d ouble
T ER
B efore
Ġfe et
U se
ĠCent re
Ġd oll
Ġcon vent
Wh y
ut able
Ġbig gest
ĠP ower
V ar
Ġinteg rated
m n
v ised
) [
ĠI d
P ass
- (
D eb
ĠW estern
ĠJ ac
U LT
Ġreveal ed
Ġdest roy
ĠC ode
ĠJ im
cl ine
vart heta
B E
Ġor dered
> .
Ġdepend ent
ĠI II
Ġfin ished
Ġdam age
mod ules
Ġn arrow
P at
Ġconf irm
ĠSc ot
Ġmult ip
Ġrefer red
M ed
Ġfocus ed
all ery
Ġmorph ism
al a
low er
Ġr ational
ĠC are
Ġapproxim ate
ĠCh icago
Ġeconom y
AN T
ĠVir gin
Hel per
Ġconf irmed
Ġow ner
par allel
Ġmys elf
ph ot
ub ble
Ġt it
ĠA v
19 80
10 1
equ ations
Ġrepe ated
Ġpart ies
Ġofficial s
ĠI ran
tain ed
Ġmix ing
qu ant
ï ¼
Ġsum mary
Ġf aster
ar ity
Ġsp orts
Ġle aves
Ġcol lege
Ġautom atically
ĠOn ly
Ġcall ing
Ġre nder
ic ine
Ġgo als
Ġsk ills
Ġdemonstr ate
Ġequ ality
h r
ĠC R
ellig ence
co in
C F
ick s
Ġcoupl ed
ari os
Ġmetric s
Int eger
_ ;
Ġknow s
Ġapp oint
ĠK ey
ĠL ibrary
at iv
Ġn amespace
B I
ol es
Ġbre aking
Ġgu y
ri ver
ĠAir port
ĠEX PECT
Ġf ashion
fo o
Ġinvol ving
Se cond
ĠS E
ĠFran k
dition ally
Nav Bar
ĠSec urity
Ġjo ined
ĠE vent
atur ally
ĠJ ud
ĠComm unity
Ġb rain
de lete
\ |\
Ġquant ity
V ari
g reen
Ġpro files
P os
Ġevalu ated
Post ed
b en
ĠApp le
F IG
Ġenh ance
Ġcred it
Ġass ign
App lication
ch annel
ĠE lect
J ohn
ĠT em
c opy
+ (
t or
Ġsupp ose
Ġold er
ĠR oyal
Ġl ie
& =\
Q ue
H ost
Ġshe ll
Ġgravit ational
erm an
ĠL ee
ick er
X i
ĠSt at
~ (\
Ġc itiz
Ġfind s
ĠA mazon
ĠM icrosoft
Ġrest aur
ĠIntern et
Ġb ed
Ġwe ap
C ore
Ġof fered
su ccess
ig ital
ĠW ay
Ġ\ ,\
ĠEx ec
Ġessential ly
ĠD u
ĠH en
Ġaud io
is ot
Ġbro ken
Ġident ical
ĠL os
ĠE U
ii i
Ġw ood
^* (
er ry
Ġch urch
Ġexc ited
Ġfund ing
Su ppose
ĠL ake
am m
F OR
Ġs ym
ap ed
8 00
s end
Ġpre m
Ġf resh
f ol
Ġent ity
S ession
Ġhe ro
ic ed
ĠS D
ĠMart in
neg ative
ug ins
P arameters
ĠCom put
equ als
' >
Ġinc ident
Ġag greg
( :
ĠH uman
Ġf loor
Ġcol lected
Ġbe at
Ġst ochastic
Ġconv olution
math it
ĠAustral ian
og onal
ind u
à ¥
con nection
Ġsc hedul
I X
Ġpur poses
tikz picture
Ġwould n
Ġaspect s
Ġfore st
l ife
text color
ĠS ol
aw s
Ġt urb
Ġspec ifically
B B
Ġph ases
Ġtop ic
R ed
Ġend s
d ash
ĠD uring
Ġear th
Ġ ice
ĠL ove
ĠS er
Ġn ative
g ency
ĠJapan ese
ĠE p
More over
Ġnot ion
Ġcon ference
ce an
ĠS N
j oin
p res
Ġclos er
ĠDes ign
styles heet
un ing
og ram
ĠM ath
Ġis su
Ġcre ation
Ġc ars
ĠVal ue
t n
ĠB r
On ly
Ġappear ance
Ġpl as
ĠSec ret
depend ence
Ġneutr ino
fin ite
F S
on ym
D i
Ġmagn et
in ternal
A c
Ġinst r
Ġind ices
ĠTe am
V ol
ren cy
Ġ ,\
Ġinst ances
Ġlow est
ri age
Ġde lete
Ġart ists
Ġsee ing
n etwork
or a
od d
ell a
ĠN ext
Ġinvest ment
Ġd edu
ĠP C
B ook
ĠL ine
Ġmat ches
Ġcon clusion
Ġexcell ent
W A
Ġadopt ed
Ġ$\ {\
phant om
c ategory
199 1
reg ion
let on
Ġsh ut
down arrow
C lick
Ġfa ith
ms g
X ml
N G
cl oud
Ġperturb ation
Ġdeterm in
Ġlist en
Ġvill age
ĠL ead
AC T
cuss ion
Ġm eta
Ġm ale
Ġm ir
vir t
ere r
EN D
Ġsens itive
ent er
H as
Ġman aged
uck et
Ġr ul
Ġsex ual
Ġcolumn s
ĠT O
A nother
Ġa maz
h ab
res p
ĠJ o
ar ith
Ġatt ributes
Ġprec ision
hand le
ĠE conom
iss on
}{ *
wid get
Ġd irections
Ġocc as
Ġgl ass
) ^\
Ġconfig urations
Read er
AC E
ĠYou ng
ent ed
Ġcirc um
g rid
h older
Ġfor ced
rad ius
ĠB ase
Ġimprove ment
ens ed
h ang
ERR OR
ĠOb ama
Ġare n
Ġsub sc
Ġhal o
h over
Ġequival ence
sq l
Ġunivers al
Ġv ision
Ġch ief
Ġex pos
ic ular
ĠE nergy
M D
ĠL ast
S ing
f ix
^* \
ĠBG COLOR
s quare
Hand le
Ġd ense
N ames
T itle
por ation
Ġtrans lation
m o
Ġ ),
Ġreason able
elli pt
Ġro ut
not ag
! \
ut y
Ġun iverse
Ġund efined
Ġin come
re land
Ġan om
iz able
f ast
sc opic
ict ures
ĠAng eles
Ġinstr ument
Ġvers ions
P arent
ĠI ll
ris is
V ector
t im
D om
Ġar c
erv es
Ġeigen values
Ġpers pective
Ð º
00 1
Ġsu pers
U L
Ã ¶
( -\
ĠS O
ri ev
Ġeffect ively
Ġfavor ite
Ġreg ister
w ords
h u
Ġgu ide
ĠG R
Ġcrit ic
) ),
cl ick
Ġact ing
st ra
( *
h av
Pro p
Ġcho ices
out e
ĠCon sider
W riter
ĠLou is
Ã ¢
Ġgener ating
if er
por ary
rom ise
ĠC ase
Ġdisc rim
Ġperform ing
Ġstrateg ies
Ġpract ical
G ET
lo pe
Ġsign ature
! ]
p anel
h ar
Ġpre par
. \\
Ġcomp lement
ĠEn ter
ER S
Ġp et
Ġstre et
Ġdecre ase
Ġ il
ST ATE
Ġab stract
Ġs ch
Ġmark ed
ig an
Ġf re
Ġre ject
H C
ik i
Ġregist ered
ĠCon st
l ayer
ĠN Y
Ġex ceed
im its
Ġredu ces
Ġcharacter istics
Ġdeg ener
b c
stack rel
n umer
Ġz one
Ġcor ner
Ġinter mediate
ex ception
ĠW he
pro v
Ge V
Ġm ock
ĠM any
s ort
Ġd raft
rast ructure
web kit
Ġfig ures
St ack
Ġdis s
e ach
Ġcon nections
a uth
Ġex cess
Ġall oc
ĠT R
ĠF estival
Ġk ill
w ave
Ġr ac
ĠR oman
Ġeas ier
Ġhead er
est ion
Ġpolar ization
Ġdisc overed
Ġemploy ees
Al though
Ġl ift
Ġnormal ized
Ġv ot
St ep
Ġac adem
Go ogle
ĠP age
Ġsub group
As sert
18 0
ro g
ĠI slam
Ġwin ning
Ġtell s
Ġp rivacy
D on
he lp
S k
ex port
ĠD own
L i
ĠW ood
ul ating
M eta
k ern
s ch
M ain
Ġre ferences
Ġby te
Ġhel ps
Ġseem ed
T A
ur ance
Ġass igned
M enu
Ġis ot
ĠArt s
Ġfam ous
Ġm ist
Ġbe coming
Ġdevelop ing
Ġentire ly
Ġbas eline
ud io
ĠC ath
st ore
W ill
' _{
ĠF unction
ĠH and
Ġm ask
ig in
Ġpar se
Ġpe ace
ĠO ld
not e
F P
B M
ĠSpec ial
Ġ raw
ĠAt l
Ġvers us
Ġc atalog
Ġf ant
Ġw avelength
m en
Ġcontroll ed
re nder
inst ein
Ġpart ner
! âĢĿ
du ction
Ġrec over
t otal
ĠA rab
ĠJ ones
and ra
es ian
ph ase
T ags
Ġw ire
v in
ĠIm age
ĠP oint
Ġport ion
ob serv
h ard
ĠIn itial
to String
ĠComm un
Ġabsor ption
Ġh ospital
Ġin ject
Ġco ach
Ġsupp ly
footnot es
Ġwh om
Ġperiod ic
Ġcon d
Ġl abor
lim it
ĠAb out
Ġinterpret ation
ĠSp ace
ð Ł
gra de
Ġkeep ing
ig r
Ġconduct ed
Ġj av
Ġunder stood
est amp
CT ION
c ustom
Ġuncertaint ies
u an
Ġm arg
Ġopport unities
ĠE nt
un te
Ġp od
Ġart icles
ĠN E
Ġfit ting
Ġsens itivity
form ing
ĠM P
F alse
ĠPar is
Ġcustom er
ĠA ge
footnotes ize
ĠSp ring
al and
$. }
cor ollary
ĠN on
Ġabs ence
Ġpass ing
Sche ma
ĠM ike
ĠS ta
20 22
plic ations
Ġh ierarch
Ġdef e
Ġneut ral
struct ure
Ġmole cular
f ramework
w a
est ic
Ġsepar ation
ĠL ab
Ġ-- -
Ġtr uly
Ġra il
Ġth in
ĠL y
Ġ à¤
aut o
ĠA T
D raw
Ġcont roller
duc ible
Ġveh icles
Ġh air
Ġw ww
ĠA ction
| $
ĠCol or
Ġext ent
ĉĉĉ Ċ
12 5
' ],
Ġdisc over
Ġwid ely
Ġcont ribute
Ġacc ret
)} (\
w ill
S ym
; ->
Ġenvironment al
Ġequ ipment
os c
Ġh us
Ġsuccessful ly
reg ular
fort unately
Ġweek end
Pol icy
E rr
F ind
in em
Ġmov es
ĠC ast
Ġcomm ut
an ish
N um
P RE
Ġcirc uit
ĠVal ley
all s
By tes
y e
C re
Tem plate
Ġ[ '
ĠCh ris
am in
ag on
ask et
Al so
is ters
Ġb urn
Ġdoc uments
Val ues
Ġyour self
Ġent ertain
ĠĠĠĠĠĠĠĠĠĠĠĠĠĠĠĠ ĠĠĠĠĠĠĠĠĠ
Ġemploy ed
ath an
rep resent
ĠL ink
rand om
arg ument
Ġupd ates
by te
\! \
Ġde but
&= &\
Ġinvol ve
Ġst ored
ĠE rror
Ġtw ice
rins ic
Ġend ed
Ġvari ations
As sum
Ġsupport s
ist ing
ut ely
up arrow
yn tax
Ġiter ation
Ġsh o
ĠP ac
ed ef
G A
dis abled
ĠS i
Ġdef ines
Ġb low
Ġprote ction
ac ent
Ab out
let ion
ob uf
ĠJ on
}\ |
e per
ĠCon n
ĠD M
F E
Ġser ial
u cl
ĠĠĠĠ ĠĠĊ
Ġd ensities
ĠSu ppose
Ġatt end
ĠU ser
ili ar
app lication
. '
Ġm yst
Ġcru cial
pro pto
Ġpr ison
sk y
Arg ument
Ġfeel ing
Ġag reed
I con
angu ages
Ġex erc
}$ \
Ġw est
ly mp
Ġph il
ertific ate
Ġat oms
Ġgl ob
Ġ _{\
ĠCE O
ĠF ourier
rit ical
Ġconj ug
Ġcons ult
Ġke ys
ĠSo ft
is er
Ġwait ing
Ġby tes
Ġp ri
Ġt ang
Ġenc oding
H om
ul ator
Ġstraight forward
Ġapp rec
J ust
N etwork
{ (\
Ġp rices
comp lete
Ġscen arios
p arameters
Ġg ate
Ġla unched
A uthor
) (\
p erson
en v
Ġinitial ly
De cl
Ġcontinu um
Ġconcern s
V D
cl os
ject ure
d ifferent
ic ons
urb an
Ġprinc ipal
red it
U nder
Ġuniform ly
back slash
Ġinput s
Ġf illed
Ġcom fort
Ġsecond ary
Ar gs
Ġdemonstr ated
B ody
Ġp uls
) }.
s ym
es ides
Ġst ead
Ġprec ise
Ġr an
ĠL ocal
e an
Ġdec ades
Ġdevi ation
ĠL ike
Ġgu ys
$- $
Ġopin ion
y er
Ġexpect ation
inv ariant
lang u
& #
Ġp y
In itial
s ample
ast e
k g
ĠAg ain
//////////////// ////////////////
Ġsomew hat
Ġwor se
ĠĠĠĠĠĠĠĠĠĠĠĠĠĠĠĠ ĠĠĠĠĠĠĠĠ
sequ ently
w t
os oph
al ian
Ġorig inally
Ġelect ro
ĠC y
Ġsen ior
ex ports
Ġrecogn ition
= >
Ġgener ator
ĠWindow s
Ġtest ed
Ġclos ely
In valid
ĠJ eff
al f
ist ence
r ase
HT ML
` .
u gh
virt ual
T ool
h fill
ĠW ater
M ENT
Ġsol ving
ĠL o
ĠF amily
us hed
O pt
s ite
Ġapplic able
> ();
ĠJohn son
G a
Ġl ens
her ical
g roups
Ġd uration
ĠCh ief
ap se
ĠI reland
H R
} /\
Ġ ing
Ġf ra
| -
Ġhoriz on
ce ived
w rap
Ġillust r
ateg y
Ġcult ural
us al
Ġe ast
Ġcl ients
ĠRe al
ĠA nother
ĠS ports
ĠS ar
Ġca uses
Ġsupp osed
im b
II I
st ates
Ġstandard s
Ġf ib
irc raft
cy cl
A v
em ail
en ced
Ġbusiness es
Ġtrac ks
ĠL ook
$ ^
Ġcriter ia
Ġelectron s
Ġem pir
Ġl ic
Ġ+ +
b its
ĠĠĠĠĠĠĠĠĠĠĠĠĠĠĠĠ ĠĠĠĠĠĠ
Ġthous ands
Par ser
Ġtransition s
ĠW al
ĠFil m
Class es
Ġpi eces
Ġorb ital
nabl ed
Ġwor st
ĠC ard
Ġemb od
Ġm ach
Ġc ities
T rack
ĠF ort
Ġform ulation
ra ise
th ick
V M
as tern
Ġproport ional
ynam ics
G en
Ġpres ents
in line
pl ugin
ret ch
Dev ice
ET H
rom agnetic
Ġstrong er
ke ys
Ch annel
ĠH on
Ġhoriz ontal
Ġsubsequ ent
u ing
ĠScot land
Ġn ine
$\ ,
Ġdomin ant
Ġnot es
Ġge ometric
um ps
Ġwe ather
ĠBl ue
Ġfrequ encies
Ġc odes
ur ies
Ġdiff usion
cl osed
tog gle
Ġun signed
C G
C N
S F
gra v
& &\
ĠHT ML
ĠSu pport
conn ected
Ġsc ores
k ers
pro perties
ĠA P
In v
198 9
b ro
al so
Ġ( *
p ic
Ġdirect ory
ur able
ativ istic
m oment
| ^{
Ġpix el
ak ed
Ġliqu id
ĠIn vest
Ġdraw n
ĠCan adian
Ġencou rag
par a
; <
Ġsh arp
im ately
Sh ow
Ġtr igger
Ġadminist ration
Ġmet all
it ter
Ġmar ried
t z
el a
Ġclass ic
Ġdisp ersion
Ġp il
Ġher self
Ġn aturally
B as
ĠLag rangian
Ġe lem
V E
foot er
Ġfund s
TE ST
ĠPro v
erm i
Ġs leep
Ġfew er
Ġpost ed
ĠA uthor
Ġhistor ical
Ġstrict ly
su pp
Ġk id
ĠV ictor
the less
Ġin clusion
is c
h l
Ġf its
Ġstring s
me an
Ġ} )
Ġhom ogeneous
Ñ ĥ
ĠInst ead
Ġwatch ing
oriz ontal
Ġres idents
sc reen
Dat abase
*} [
n ol
Ġp apers
Ġtrans verse
Ġrem ote
Ġmot or
ĠArm y
Ġres idual
Met adata
ã Ģ
ĠC ur
f riend
m argin
ĠSt art
Ġpotential ly
ĠF ar
b u
w ater
Su pport
Ġb an
Ġintrodu ction
P aram
. $$
ĠB ern
Ġad vers
Desc riptor
Ġderiv atives
D IR
Ġint ended
eng er
-------------------------------- --------------------------------
Ph ys
D et
m f
Ġem ot
Ġfin ish
Ġent ang
Ġanaly tic
A g
ic ians
ĠMex ico
Ġinv oke
Ġdecre ases
Ġinter ior
ĠR am
Ġtop ology
ĠPol ice
ĠJ SON
ĠU RL
ur i
19 70
con v
Ġre ward
ĠL ord
b uf
d ensity
IM E
P ref
SS ERT
ord ers
Ġsystem atic
Ġcar bon
Ġbeg ins
Ġpolit ics
ĠP R
sp in
}^{ +
att ribute
ĠZe aland
ev ents
Ġc riminal
ĠHe ad
ud d
Ġparticip ants
in sert
_{ +
Ġded icated
Ġ\ [
Ġcontrol s
ĠP ass
$\ \
T ab
f amily
Ġviol ence
ĠI O
Ġdiagram s
int on
s en
Ġsp ring
ell o
}{ {\
ĠC r
com b
Ġanim als
SE T
Ġnumer ous
% )
h ome
Ġdriv en
Ġin line
b d
ĠS and
Ġtro ub
Ġt ab
Ġse vere
ĠO nce
left arrow
Ġcol our
Ġext reme
$ '
IN D
Ġc ir
man if
Ġtempor al
in et
Ġdec isions
Ġdef ense
ĠM S
Ġmod ules
U P
f ound
um es
Ġstand s
Ġdefinition s
Ġconcent ration
Ġproper ly
a id
re place
ent ity
set tings
y ou
Ġdou bt
al i
Ġquadr atic
D ist
n one
Ġk ick
RO M
ph y
Ġrestrict ion
ĠChar les
g ather
Ġtarget s
Ġp sych
al ities
if iers
Ġsur faces
Ġstat ements
Ġadv anced
Ġs pl
Ġ" /
ĠI T
in ction
b lem
Ġrow s
Ġcomp atible
Ġexp ort
rib ed
ĠP lease
el ly
ĠL ight
ĠR et
Ġwh atever
aps hot
Ġanal ys
ost on
ĠAcadem y
Ġw arn
op es
## #
ĠI mp
Deb ug
Ġgirl s
m aterial
ĠW all
De lete
Ġinvol ves
I ES
mult line
Ġorient ation
Ġhus band
ĠG ames
Ġdiv ided
ĠH y
L R
Ġassert Equals
dd en
Ġbring s
or ney
Ġt error
Ġout come
Ġo s
Ġschem es
Ġcorrel ations
ĠR o
Ġrespect ive
ĠPol it
C ustom
D oc
ru gg
Ġf uel
Ġneut ron
Ġamaz ing
F ull
Ġfl ight
id get
Ġoffic er
u v
Ġdel i
b ad
Ġpan els
Ġrelations hips
ĠW ild
By te
l ers
at i
text sf
Ġoff ering
Ġw itness
Ġte le
ĠVirgin ia
Ġf lo
ĠS C
Ġanaly ze
H igh
rack et
IV E
im it
)) )
ĠT ext
}. }
ĠR ights
y es
le e
ĠWilliam s
Ġsound s
ĠKing dom
langu age
Ġrestrict ed
Ġsp end
call back
var rho
are st
Ġv ideos
ov a
Ġsimilar ly
f r
S Y
small skip
Ġhe av
\ /
bo olean
Ġorgan izations
ian o
Ġcover ing
ĠAnd rew
text normal
E nabled
al ty
ĠS ign
prob lem
w er
R ad
Ġleaders hip
ev in
ĠMed ical
Ġn om
Ġcomp re
Ġsat ell
c pp
A pi
ress ive
ipl es
Ġillust rated
Ġco ast
Ġd ir
her it
Ġdiscuss ions
r ink
Ġident ification
Ġthem e
ĠU V
ĠC ho
Â Ģ
se p
Ġcom plicated
ad min
st one
Ġdef initely
w all
Ġrough ly
ĠPar liament
Ġcr ime
u er
$ ^{
A E
sec urity
C opy
Ġrespon d
not ations
ĠV AL
uck y
Ġs ale
ĠA wards
ĠN O
Ġexplan ation
Ġmodel ing
Ġben chmark
ÂĢ Â
st op
Ġ ellipt
m ock
Ġrepresent ative
=\ {
Ġweight ed
ĠB O
ĠO p
th let
pro file
Ġadv ance
ĠSen ate
W here
Ġsec ure
ult ural
-- >
ĠT OD
se m
Ġb rowser
ib ilities
Ġclaim ed
Ġprep ared
M ock
it udes
ĠN ight
Ġre fere
Ġalgebra ic
{ |
Ġread s
T im
Ġpres c
aw n
N C
cor respon
}) ^{
ain s
Ġrequest s
force ment
p ot
Ġconcern ed
m ond
Ġresear chers
it o
ĠU pdate
ran ce
Ġsign s
) >
il ly
=" /
ĠJ oe
Ġb its
Ġ{ {
ĠGe org
Ġ ~\
ï ¿
ir ms
Ġs we
] ^
C ref
H istory
ĠM en
Ġ$ ^{
Ġqu ot
ĠDef inition
Ġinvestig ated
ĠPro cess
Ġsupport ing
res pect
ir ds
Ed itor
Ġferm ion
R oot
Ġes cape
Ġpolynomial s
ut r
ĠCon ference
! "
Ġconven ient
In it
rac y
Ġun iqu
Ġvary ing
ĠL ive
Ġd ialog
iem ann
Ġus age
d ict
ĠIt aly
s es
ĠH or
ĠCol l
ĠM ot
Ġpol l
part icle
dist ribution
c ross
tx t
Ġsu dden
Ġextract ed
Ġconvent ional
ĠCont rol
Ġp p
Ġreview s
Ġchalleng ing
oper ation
Ġl icense
Ġcoll ision
s ome
Ġsh aring
ĠĠ čĊ
AR Y
ĠAd v
Ġad vent
ĠK en
im a
Ġaccret ion
e val
St orage
Ġfind ings
Ġann ounce
Ġhy brid
hent ication
Ġmat hemat
ĠB et
Ġpoint ed
Ġm enu
ĠP op
spec ific
w an
Ġ Ø
Ġprodu ces
m ove
Ġf rames
ĠF ood
f act
ĠOr gan
$ }}
Ġf aces
Ġcl ock
198 7
` ,
Ġsim ulated
Ġcont em
ad ed
Ġhold ing
depend ency
Ġsc an
O ST
ak s
if th
text up
Ġcomp r
Ġdeli very
t ics
Ġrat ios
Ġimp ossible
Ġrequire ment
Ġsh ares
p aper
_ ,
Ġrandom ly
Ġis land
Ġth r
Ġj son
erv ing
ly wood
Ġspe aking
raz il
à ¸
ĠP an
ru gs
ĠN et
Ġbroad cast
per iod
ï¿ ½
Ġorth ogonal
Ġ< =
Ġnear by
p an
ĠM ake
Bo olean
Ġsymbol s
vel oper
Ġm sg
Ġdisplay ed
Ġo k
Ġclin ical
ĠF OR
Ġinsp ired
el d
Ġsepar ated
Ġdomin ated
[ $
Ġcan cell
Ġsub space
re v
ess ions
Ġrelig ious
P AR
g ery
cm d
F ix
or ters
ĠA ff
p adding
N OT
G raph
Ġc ref
M F
,... ,
u id
ĠWil son
ĠChrist mas
Ġbuild ings
Ð° Ð
Ġh aven
ar ian
ĠInd ust
Ġvalid ation
Ġapp lies
Ex ample
ce il
Ġhol es
f ixed
Ġprote in
Ġconsist ing
p ay
f ront
Ġaccount s
Ġjour ney
Ġgu itar
Ġscient ific
ĠPh ot
Ġaccept ed
ĠC NN
Ġd t
Ġcap able
ol ver
ott en
198 8
Ġc ub
ĠP enn
Ġag ency
Ġm al
Ġmark eting
ak a
Ch anged
Ġen abled
Ġmus ical
ĠSim ilarly
unn el
ĠK ar
Ġpro test
ĠB ow
m aster
IC E
ĠM ajor
ĠM ov
Ġd ip
w as
__ (
Ġin n
Ġinc red
R ule
Ġsimultane ously
Ġsent ence
Ob j
ĠM iddle
Ġexper iences
ic ian
Ġimmedi ate
Ġincor por
b ootstrap
n m
. âĢĻ
ĠC P
ab out
con duct
Ġread ers
) &
all oc
ins on
Ġtot ally
f air
Ġdepart ment
ĠCor ollary
G G
Ġper mut
Ġl ose
ĠP A
Pro position
ĠB ol
Ġsurround ing
ĠO lymp
ĠF oot
Ġdist ances
e z
ĠAnd roid
Ġch air
he red
ul ner
sh ire
Ġphot os
} >
math tt
........ ........
Ù Ħ
M ember
u on
ĠD esc
M atch
ion e
Ġdomain s
ĠDiv ision
ear s
Ġne ither
Ġpl ate
ĠJose ph
Ġep och
ĠAl gorithm
ĠMus lim
Ġs an
ut or
M icrosoft
D el
Ġlarg ely
new s
W ell
Ġlik elihood
ĠDef ault
ĠK n
}^ +
Ġs lope
Ġmechanism s
ind s
sing le
Ġmov ies
Ġb atter
Act ive
Ġ' /
J E
R ect
Ġt on
Ġreson ance
Ġissu ed
d p
ĠL ore
L ock
ado op
Ġpro position
Ġfact s
E very
ĠP erson
Ġlink ed
Ġm el
Ġreal ized
ĠSt r
Ġfac ilities
sp ring
og rap
\ },
an notation
ĠP ath
com ponents
ĠAs ia
mid rule
Î ±
Ġle ague
Ġr id
Ġtransform ations
Ġc ash
l ay
Ġf ul
el ian
m ag
ch anged
f ony
KE Y
ĠF ire
includ ing
Ġa pi
Ġsur ve
ĠI mm
Ġeven ing
as et
Ġsp here
f ire
Ġcitiz ens
Ġs ight
S w
J ob
ab et
ĠJust ice
Ġimp ly
Ġorgan ized
Ġsol ved
Ġch iral
ien ced
Ġembed ded
ĠFor ce
Ġs and
Ġm ere
Ġro ots
? ?
Ġmon ot
Ġre normal
' ))
ĠV an
b etween
Ġsk in
ĠC ross
Ġarm s
S pace
S ymbol
ar ation
p air
Ġcon sole
requ ency
s id
item s
Ġsim plicity
ri ptions
) _{\
ed it
ĠM ain
dep th
th an
sh all
bin om
le an
Ġb atch
ĠN ever
ĠA S
Ġprov ider
t ensor
se lected
Ġcol ors
Gl obal
v c
Ġ( '
Ġat omic
ut ch
U D
n i
P op
iss ue
ĠR ay
Ph oto
Ġre construction
Ġpref er
ly ph
Ġh ab
D av
Ġreg ression
Ġindic ating
Ġc aught
Ġoption al
as p
="../../ ../
c am
ĠS aint
Ġdef ect
Ġb ran
Ġsp ort
ul er
ub b
Ġl anguages
Ġcosm ological
N T
Ġbound aries
t ed
Ġm m
Ġs ensor
n ames
Ġfam iliar
! [
ro ke
viron ments
Ġac comp
Ġcover s
\ }.
\| _
}{ }
Ġpro ton
comp lex
HE CK
Ġmark ets
ĠJ es
Ġsurpr ising
Ġpref ere
Ġa ircraft
it age
ĠG re
ĠGu ide
Ġsum m
ĠSe ason
F loat
Ġplas ma
Ġcharacter ized
se q
rag on
Ġhelp ing
H D
ass um
ĠS at
ian a
g ame
h d
M ost
ĠP ak
Field s
Ġvict ory
Ġspect ro
Ġg iant
Big g
Ġcomp aring
ord an
ĠQ CD
c b
inst all
Ġl aser
Ġwhe never
Ġse ed
FA ULT
Ġyou th
Test s
ĠCarol ina
nol imits
X T
Ġsto pped
Ġen em
t age
ĠF ederal
pos itory
ho le
prot obuf
ĠH ilbert
Ġinj ury
M sg
ĠB ra
ĠA ccess
ĠAmeric ans
ual ity
sub equations
Ġpurch ase
ĠEq s
Ġtraject ory
ĠV ersion
un icip
Ġoccur red
{ .
se par
Ġcompar able
ĠDan iel
Ġsyn chron
ĠStud ies
ateg or
O h
\, {\
) }$.
\ [\
ru ption
Ġpix els
ĠIr ish
ĠRad io
re nd
ant ly
Acc ount
Ġl ay
D ialog
drop down
Ġman ip
g ments
Ġl oved
id ay
L o
reg ister
g ood
Ġdef ining
S ION
Ġfac ility
cite alt
Ġprogram ming
;\ ;
M I
Ġn g
Ġed ition
Ġirre ducible
ĠL iber
Ġ\ {\
ĠAd minist
Ġabsol utely
n el
Ġb id
ĠT w
l g
it an
c ceed
Ġcommon ly
Ġcut s
C ap
T erm
anc el
big cup
Ġcondition al
ĠS che
r f
ag ers
Ġcop ies
f ly
ad ium
dis c
th read
in ator
Ġl ived
Ġexec utive
ĠR ight
Time out
Ġadv ice
P ackage
pl ugins
ane ous
A F
Ġamplit udes
th rough
ĠH ard
ĠBe ach
Ġb inding
ort ion
Ġb ug
pr ise
R C
Ġcompre hen
ĠD at
}[ !
Que ue
in er
Ġli ber
Con f
Ġa ug
v o
ĠW alk
Ġpre v
un signed
Ġpresent ation
Ġst abil
Ġc risis
Ġf ellow
Y es
p atch
Ġman age
ĠEn vironment
st e
Ġrob ot
G O
ĠT erm
er on
es ome
ĠR ail
ĠD onald
prim ary
ĠD ar
} "
Ġdec ide
ç ļ
ou ds
Ġstand ing
Ġact or
Ġp ed
Ġflow s
Ġinter pol
ra q
Ġoffic ers
sum er
M any
leq slant
S end
E P
Ġ rom
Ġconf lict
b ell
Ġp ot
Ġse at
Ġf iction
in dependent
Ġpract ices
Ġindu ction
Not Null
Ġhard ware
)-- (
b rane
s imple
] =
ĠS up
. *
Ġkin etic
Ġp al
ĠM u
Ġun iversity
ĠEqu ation
çļ Ħ
Ġal gebras
Dis play
on to
u able
c ounter
h ook
Ġphot ons
op ed
G eneral
e ah
Ġfrag ment
w ait
f ail
rec ord
Ġdeb ate
Ġinstance of
G P
B bb
ĠBrit ain
olution s
Ġinstall ed
Ġign ore
Ġ esc
Ġf ish
}) =\
Ġang les
ĠV ideo
ĠT oday
def n
gener ated
IN FO
Ġstation ary
Ġb are
Ġlog ic
Ġord inary
P erm
Pe ople
Ġassoci ation
Ġy es
A Y
% ,
Ġcre ative
Ap J
Ġinf rastructure
st ud
Ġfe at
n am
Ġtrack ing
K S
Ġconserv ation
i pping
Ġex it
ĠC ustom
Ġcomp osed
Ġfor get
at on
col l
M edia
198 6
Ġneigh b
block List
Ġf ell
ive red
FI LE
ĠG irl
ĠF urther
e cho
M OD
ab ric
tri angle
Ġjav ax
Ġin ference
13 0
Ġput ting
ĠC S
Ġmur der
au x
Ġst orm
Ġb ary
Ã §
ĠRepublic an
ĠK im
ĠTr ust
Ġhon est
B en
ĠSte ve
) }$,
ĠCo ast
Ġf iber
ĠP RO
Ph one
ĠĠĠĠĠĠĠĠĠĠĠĠĠĠĠĠ ĠĠĠĠĠĠĠĠĠĠ
R est
Ġcoupl ings
k t
] :
Ġprob e
Sec urity
G M
j et
ĠS af
Ġlog arith
B est
Ġp riv
Ġhum ans
D r
ĠF alse
Ext ension
Ġque ue
ON E
or ient
l ights
ĠF our
ĠThe atre
cent ury
Ġc e
i y
Ġ{ $\
}\ ;
ic an
cer ning
ucl ide
ĠM C
Ġinter net
Ġinterval s
U LE
S n
ĠT ask
ĠIt alian
S cope
EX T
ĠB ell
Ġrec ip
Ġcomp ens
ĠM ic
per ature
Ġk ing
Ġrece iving
Ġan imal
Ġcheck ed
ĠN av
Ġexp ensive
F urthermore
Ġen semble
Ġexpos ure
Ġ\ }
ers et
T ABLE
on ed
Ñ ı
d ashed
Ġbelie ved
B H
Ġst ages
Ġsimilar ity
B ecause
Ġco al
T otal
F ree
Ġv ort
Ġbelong s
Ġconsider ation
ra ble
ĠM id
Ġin form
ĠL ittle
add r
Ġmin ute
Ġmed ian
que ue
ĠBl ock
Ġext ensive
Ġadj acent
Ġabund ance
ĠMc C
-> _
script scriptstyle
ov al
. (\
Ġhous ing
ĠW here
Ġtechn ologies
g ov
cul es
ub y
Ġdiv ision
s ave
en ance
ri val
ser ies
Ġsee k
Ġexhib it
new line
Trans action
Ġfac ilit
Ġb odies
~~~~ ~~~~
ĠW in
Ġv ir
ĠAs sembly
c raft
Ġprom pt
Ġn arr
ĠM aster
Ġhand ler
ĠInd ex
ĠH om
ĠB an
Ġre nd
Ġan isot
Ġv oc
Ġg ift
Ġpart ially
Ġacc ident
Ġdest ination
t ically
ang o
W idget
ĠM O
Ġch apter
ĠJ ava
MA X
Ġcon formal
pl ain
Ġengine ering
ĠCath olic
S ur
$ /
Ġbig ger
P ublic
Ġw allet
\ }_{
}} ,\
ĠĠĠĠĠĠĠĠĠĠĠĠĠĠĠĠ ĠĠĠĠĠĠĠĠĠĠĠĠĠ
) ">
or ough
ĠJew ish
Ġpropos al
198 4
ĠW rit
cont roller
ĠPro perty
Ġgu ard
Ġ\ |\
Ġhe aring
ĠB rad
ĠAn alysis
Ġstruct ural
ow ski
Ġc art
ĠEx ample
Big l
198 5
ĠF ox
Ġfe as
ER E
Ġcorrect ly
l ate
Ġconsum er
ab ove
Ġent ered
L ook
Ġpost erior
G r
Fe ature
ĠDemocr atic
H A
Ġdro pped
ĠH a
ĠA st
uclide an
au g
ĠS ep
B it
ĠG i
, .
ray s
che ster
Ġask ing
Ġgreat est
ps on
Ġcoll apse
W orld
^+ $
appro xim
D I
ĠR om
Ġdis appe
int ro
Ġprim arily
Ġab use
Ġstead y
ĠR a
ĠProf essor
ĠStand ard
Ġrapid ly
in ating
Ġsu cceed
Ġgener ators
i pe
Ġ ..
Ġsub section
fl at
âĢĻ .
pass word
Ġpl ants
ĠS om
ĠI V
her ic
Ġcount s
Pl an
gy pt
iss ions
ĠAG N
s ys
( !
ĠB a
ĠG ar
ĠD ou
Ġslow ly
Ġm ental
P ool
X ML
su it
Ġp it
am ber
ir ation
const ant
ĠH aw
Ġ era
Rec all
M s
ĠN AS
Im p
S N
end ent
res ize
Ġlabel ed
O nce
Ġcircum st
Ġfe els
ok ed
F ound
Ġsit uations
ip her
ĠPac ific
ab eth
ĠG ets
ac count
config uration
ta ke
Ġd ance
Ġdescrib ing
| _
ĠLear ning
Sum mary
Ġinst ruction
Ġisol ated
Ġtyp ename
Ġempir ical
S pe
Ġl es
J SON
Ġmod er
ĠN ode
ĠFrancis co
_ ->
Com ment
Ġsche dule
Ġfail s
} <
Ġf ake
ĠJack son
sc roll
e h
ĠTh ree
Ġmanufact ure
M r
h adoop
Ġfav our
ix el
t ered
il a
Ġpseud o
ĠY es
Ġ ðŁ
app ly
phys ical
âĢĻ ,
Ġnew ly
ĠC a
Ġaw ait
Ġperiod s
Ġt ack
Ġnav igation
am i
sc ious
cl uster
r g
ĠF ull
Ġac id
id al
U V
In ternal
Ġc av
Direct ory
Ġindependent ly
Ġcapt ured
det erm
an aly
Ġsc r
Big r
Ġeigen value
"> &
ro vers
ĠHen ry
Ġhot el
} ~\
Ġp atch
P lease
New s
ul f
ĠC opyright
ĠSt an
t ip
ĠCor poration
@ "
pro to
Ġobvious ly
E ar
ost er
Ġharm onic
an alysis
Ġconver ges
Ġexper ienced
Ġbrief ly
is a
ar ial
Ġinteg ers
Ġ( +
ETH OD
Ġfight ing
Ġexpand ed
de ep
ĠD igital
O UT
Ġp ulse
ĠC lear
Ġim plicit
p et
ident ial
Ġsmall est
bas ic
ol ving
Ġch art
Ġwill ing
Ġspec ify
p he
Ġfor t
Ġdecre asing
l oss
ĠS outhern
ĠS her
Ġamount s
ach ment
Ġguarant ee
cre en
^* _
}{* }{
ĠD ub
Ġv ent
ĠPh oto
Ġarriv ed
Ġm ess
10 5
7 00
U ID
ĠP DF
P G
Ġestim ator
. ;
um ul
Ġs oul
Ġadd s
ĠSp anish
_{ -\
B ound
ĠT ri
Ġb ridge
Ġturb ul
. [
r ine
Ġtra dition
ĠSoft ware
Ġatt ached
Î ¿
s witch
Ġexplain s
Ġhe ter
ĠAd am
is odes
Ġredu cing
alax y
O B
ĠF ermi
Ġref ers
ĠÂ ·
Ġb ars
Ġdiv is
Ġfeature d
ĠL abor
| _{\
Ġh tml
ĠSc iences
Ġf unc
asket ball
Ġe at
o ir
Ġra in
Ġunit ary
ĠChild ren
Ġpl anned
S em
Ġcrow d
ĠMon te
ĠSw ed
Ġl ayout
ak ers
Ġpl otted
Ġgeneral ization
Ġpro min
Ġrec overy
i ro
Ġhom es
Ġch a
Ġb ow
Ġat om
Stat ement
Ġim aging
ĠS us
Ġreal istic
Ġs ending
Ġpost s
Ġb ath
Ġjust ice
Ġp ipeline
Ġorb its
ad or
val ued
type of
V ideo
Ġatmosp here
exp and
Ġd il
t ex
or ry
" `
Ġaff ord
Ġregion al
Ġalleg ed
em an
ĠS I
con tains
Ġcre ates
ail ability
Ab stract
ĠE st
Ġbring ing
g iven
ĠOn line
Ġc reat
19 60
Ġrema ined
m ay
bel ow
Ġm ort
ĠB E
Ġinterest s
C I
Ġg ender
Ġen vironments
Ġcomplet ion
Ġres olve
ĠG rant
Ġterm inal
ĠSt ory
Ġsp herical
at ivity
Ġst rugg
assert Equals
Ġfun ctor
") ]
Ġdi verse
M atrix
Ġrec ording
Ġm ent
Ġs ister
ren ew
s un
ific ial
clud es
IT E
Ġimplement s
ĠN a
eng ers
is en
ĠH ospital
Ġre construct
Ġp ars
st ats
or al
R S
ĠB oston
Ġmar riage
IG HT
S eg
pert urb
Ġge odes
Ġst ations
Ġb aby
=" ">
f actor
11 1
Ġpass ion
Ġw arning
M c
Ġinf lation
D uring
ĠT er
op her
Ġd b
Ġcont ribut
p ress
Ġnew sp
Ġpl ots
ĠJac ob
et ies
our se
. __
L in
Ġv ulner
Ġso le
ĉĉĉĉ ĉĉĉĉĉ
Fl ags
Ġg ather
N ULL
Ġaccom pl
Ġview ed
Ġre verse
Pr int
ester day
stand ard
* \
C ur
os a
Ġwin ner
Ġcomm ission
Ġcre w
ĠTh rough
co q
ĠF red
tain ing
qu ote
tri ang
Ġpropag ation
she ll
du al
log ger
lear ning
ĠN orthern
Ġdec ays
Ġa cknowled
Ġscen es
Ġde ploy
Ġc as
Ġcomm itted
Ġdec ade
Ġpo inter
' $.
ĠA D
ĠO N
Ġrec urs
Su pp
Ġturn ing
= -\
ans as
3 60
ult y
eg o
ex pect
Ġpercent age
ok ing
Ġbuild er
H L
Ġst ick
ex ternal
Ġvol unte
get s
Ġshoot ing
T F
Ġpro ud
Ġin valid
ĠF air
Ġu ps
Ġre vers
agnost ic
1 12
Ġc ere
Ġn an
Ġr ide
Ġcho osing
k w
P ay
Ġprob abilities
ĠRes ults
ĠDir ac
Ġsu it
Ġaddress es
writ ten
nt z
Ġp aram
Ġadv oc
ro b
Ġspac etime
ert s
j k
Com put
ĠSystem s
Ġenh anced
Ġv irt
S W
Ġis omorphic
d riv
b ow
ĠPo isson
Ġa id
ock er
Ġhundred s
Ġcounter part
eng ine
ud a
B D
ĠH as
ON G
ann a
Ġro les
Ġrespons es
al ed
Ġcool ing
we ak
ĠB razil
ĠBro ad
Ġ[ [
ĠL td
Ġinter ference
JE CT
Ġposs ess
Ġindust rial
ĠCon f
U SE
Ġar ise
re du
ĠM L
ĠS earch
ĠOr der
Ġclust ering
Ġsh adow
++ ;
Ġwe alth
lap se
Ġ& $
as ters
Ã ¨
trans ition
\, ,
Ġas sembly
" /
Ġiter ations
Ġattempt s
ĉ čĊ
{ %
Ġcan cel
th rows
Ġse es
ĠÂ ©
un ting
Ġanalyz ed
form er
P ack
Pre vious
Ġtal ks
Window s
[ :
v dots
ordin ate
her ited
ic ial
Ġtr unc
ĠRec ords
sh op
Ġfor th
ĠB oy
el le
pos s
Ġconsum ption
Const raint
ĠRes ource
ĠB BC
14 0
Ġload ed
Ġcon version
ĠM att
Ġproced ures
W H
ĠS em
Ġsplit ting
ĠE mp
Ġconvers ation
ĠA I
Ġoutput s
ĠMe an
Ġwall s
Ġres erved
Ġpre ced
U psilon
Ġd ict
ĠK now
Ġg ene
Ġre ly
F iles
ĠBro ok
Ġcirc ular
Ġdel ivered
Ġexpert s
ĠN C
==== ==
ĠCol umb
sche ma
_{ [
ym er
)) );
Ġreli able
p resent
ĠR iemann
Ġlimit ations
}} =\
ĠPr ime
Ġvan ishes
Ġclos ure
Ġ urban
og y
ĠR en
Ġpay ment
Ġs now
âĢ ī
Ġmonitor ing
* )
ĠG overn
et ary
Ġtrans mit
ĠW atch
ĠP rem
f x
Ġnormal ization
Ġaug ment
Ġdanger ous
Ġst ores
Ġdisc overy
Ġneg lig
view s
E V
U C
Ġdou b
Ġown ed
Ġc ro
LO G
ĠI l
ĠĠĠĠĠĠĠĠĠĠĠĠĠĠĠĠ ĠĠĠĠĠĠĠĠĠĠĠĠ
SI ZE
St ar
Ġdistingu ish
B ased
ĠJ r
P y
Iter ator
Ġen ables
Ġarg ue
assert Equal
Ġint rinsic
Ġdis cret
sequ ence
not in
Ġacc ord
Ġprodu cing
g i
ou st
Ġs ac
iz z
Ġcy cles
v ision
Ġre ar
", "
Â °
Log ger
RE AD
Ġm ount
th ree
Ġcon figure
ook ie
R et
Ġqu iet
b ury
D em
il ine
er os
Ġfrequ ently
Ġf ly
Ġint elligence
fl ags
Ġtr ig
Ġl ists
ĠComm on
Su ccess
sol id
an ta
Ġserv es
ĠF inal
lik ely
E ven
W R
ĠCol lection
Ġre tail
Ġf ault
l m
Ġkin em
ĠP H
te en
\| ^
u ity
Ġend ing
Ġins urance
Ġm acro
clud ing
Ġlet ters
g ray
Ġr anges
ĠE ric
ĠP ut
$ _{\
ĠH D
lement ation
C lear
s a
ĠS ky
_ (
man ager
Ġwel come
u pp
It ems
ĠC OM
Ġcoll isions
ul i
ĠI raq
F ail
Cl ose
az e
Ġpref erred
ĠOb serv
Ġdiff er
() ));
Ġfact ory
f g
Ġp ictures
b olic
ĠAre a
Ġcir cles
out s
C ategory
~ (
Ġm o
Ġte en
ĠN ick
Ġh its
Ġanc ient
osoph y
ĠE lement
cy cle
at ar
Load er
Ġneg ot
G rid
ĠSch olar
Ġanaly tical
Ġun able
p otential
Ġadminist r
w orth
list ing
ĠO ption
Ġd rugs
Ġob st
Ġpop ulations
; /
Ġb ag
Ġch ampions
s ymbol
ul as
Ġc yl
Ġri ver
ĠC irc
Ġc raft
ĠSe a
D etails
10 2
Ġcollabor ation
ĠD NA
Ġse ar
Ġv en
ĠL ow
no on
bur gh
Ev ents
ow nt
iz abeth
ĠP ay
Ġv ast
vert ex
the ory
B re
or i
ĠUn ivers
Ġprior ity
math ds
Ġcook ies
enn is
Ġconcept s
B T
er al
Ġm it
w p
Ġt um
Ġbur st
Ġmarg inal
)} _{\
ob e
Ġexcit ing
pol y
Ġd war
t witter
cc c
Ġexam ine
print f
Ġprov en
ĠĠĠĠĠĠĠĠĠĠĠĠĠĠĠĠĠĠĠĠĠĠĠĠĠĠĠĠĠĠĠĠ ĠĠĠĠĠĠĠĠĠĠĠ
F rag
Ġs in
ĠW at
Ġconsist ency
ĠC ost
Ġtraject ories
Con tact
Ġpack et
ĠQue en
Ġincreasing ly
ry ing
Ġst im
) |\
it ting
Ġm il
Ġt ruck
Ġreport ing
s afe
Ġelect ed
Ġdi agn
amp ion
Ġsp ending
Ġd iversity
mon th
Ï Ħ
ron s
ĠC as
Ġauthor ity
ĠSecret ary
ip art
Ġar rang
Ġprogram me
Ġpref ix
Ġappro ved
Ġout comes
Ġcorrespond ence
Ġsepar ately
ĠF uture
ĠC apt
ĠD ark
Ġcriter ion
in cre
ri ers
ĠT urn
Ġaccom mod
re ement
Ġstud io
os itory
}} )$
ĠS n
Ġequ als
Ġcontrad iction
by tes
Ġfore cast
Ġto urn
A cknowled
Pro xy
Gener ic
ograp her
s ig
j u
. },
198 3
ĠBook s
Ġperturb ations
ĠB al
ad el
ra pped
C V
Ġres istance
ĠMark et
l r
Ġk it
D ouble
res et
Ġbre ath
Ġre venue
Ġconsequ ences
f d
lect ic
iter ator
Ġsp ons
h idden
ĠKore a
ili pp
Ġpeak s
is ition
Ed it
ĠB and
ĠC ru
Ġdeterm ines
iv ation
ĠSum mer
Ġexpl os
r n
Ġb ott
Ġrespons ibility
Ġref lection
C ho
el ines
Ġco herent
Mult i
Ġaccess ible
Aut o
Ġt ables
ĠR yan
Ġpl enty
Ġ[ ];
app oint
ak i
sh adow
ĠB efore
Ĥ ¬
f lex
Ġir on
Ġrece iver
v skip
Ġexerc ise
here nce
Ġful fill
Ġover lap
Ġcont ents
ĠMark ov
Ġcross ing
Ġsurpr ise
Ø ±
Ġprom ise
Ġperform s
ĠF IG
Ġmat ters
d ings
con c
ential s
ĠI ss
P anel
Ġhealth y
Ġstudy ing
child ren
T ube
Y our
ens ors
n ic
Ġrestaur ant
Ġsc ored
Ġ( _
t b
Ġp un
By Id
const raint
Act ivity
ident ifier
is y
Ġult imately
t race
Ġpro spect
ĠF ind
Ġl ots
fol io
In tern
Ġthought s
M er
bl ed
tool s
Ġp ump
Ġter rit
bound ed
Ġkind s
D ay
Ġm ob
ĠO l
Ġcov ariance
t i
Ġg ar
Ġcon e
Ġext ensions
mathbb m
Ġequ ally
ĠC amb
ĠSu pp
Ġorder ing
Re al
ĠH istor
Ġfair ly
ĠStep hen
periment al
v y
Ġcomm ittee
Ġtop ics
hom ology
d ynamic
Ġ$ <
Ġauthor ities
Ġactiv ation
å ı
)= (
Ġsus pect
A uth
ist ically
ĠT ake
Ġassess ment
Ġmod ify
BU G
H ar
Ġn a
Ġs ad
renew command
' )$
Ġas sets
Ġveloc ities
Ġour selves
ĠCh ange
Ġsubject s
A ng
Ġf le
id x
ĠCon fig
w atch
pl ates
N amed
Ġwalk ing
Ġloss es
Ġwrit ers
yn chron
Ġprom ote
ĠEngine ering
ĠS P
Ġt elling
ĠS ym
Ã³ n
ĠT y
Ġex ponent
enc ing
Ġgener ates
ph ia
Ġte aching
or ous
Ġpublic ation
Ġres c
Ġh o
ĠB ad
198 2
ĠR og
g on
Ġe lev
un iform
Ġhelp ful
Sc roll
Ġa u
Ġper mission
ĠC ro
Ġapparent ly
Ġh a
ĠB ox
Ġdiss ip
e a
os er
Ġacadem ic
}) )
un es
Ġtransl ate
vol ume
al ks
Ġl ib
Ġsem antic
Ġdef end
Ġreve als
l ined
Ġweak ly
d ark
Ġe lections
ro le
Ġfe e
me asure
Ġaff ine
z one
g it
%% %%
Pro duct
og ether
ĠE gypt
Â ©
Ġne ur
Ġcor porate
Ġh ook
h orizontal
ĠC L
Ġdeath s
b rief
Ġinv ention
ĠH o
) |^
Ġsp arse
IP T
ĠO pt
Ġimag ine
Ġmag azine
Ġcount y
ĠL im
Com parison
ĠSp ain
Ġs aved
O F
Ġreal ize
Ġinterpret ed
he ast
ool s
Ġrecogn ized
Ġper man
v able
pref ix
riev ed
Com mon
end or
Rep ort
. }\
Ġacc um
d etails
= [
E st
pl ing
re a
S ER
Ñ ĭ
ĠA sh
ĠB ul
ĠR od
Ġmiss ed
Ġre nt
}) _{
VER SION
Ġtri ang
ĠB rand
ĠPro duct
Ġh ate
Mem ory
p ow
roll ed
Ġtri angle
ĠT E
m ix
Ġad mit
Prot ocol
equ ence
Ġleg end
un ique
ess el
Ġpass word
Ġillust rate
l ab
J an
S QL
ĠP ri
| =
& $
Ġc ert
iam ond
ĠD R
Ġop acity
osp it
k h
S i
Ġp ray
tr im
ĠC ivil
b log
ĠMich igan
oid al
Ġjud ge
ĠV ari
St ud
LE CT
' }\
sub stack
Ġins ight
Ġserv ing
Ġ{ {\
ish op
clos ure
Ġut ility
en able
Ġb tn
Ġperfect ly
'] )
ex pr
ĠC art
' $,
Ġre new
Ġexec ute
Ġon going
j ar
it ely
Ġp itch
Run time
Ġs outhern
re port
######## ########
Ġweap ons
d z
Ġad mits
Ġde bug
IN S
Ġsegment ation
W rit
ĠC urrent
ĠScott ish
n ed
Ġsh op
NavBar Cell
ic ious
Ġw a
j ob
Ġarrest ed
ĠC at
Ġaim s
, ~
Ġin vert
ry ption
Ġrepl acing
Ġcon sec
P ER
Reg ister
d c
ĠChampions hip
oc y
t ry
fe ature
Ġdis joint
ĠM ah
st age
Ġhand ling
Ġsubstant ial
Ġass ignment
Ġconsum ers
b ecause
P s
al o
ut s
et he
de cl
Par se
ĠGu ard
Pro ps
Ġcomprehen sive
ĠAssum e
Ġep isodes
aint enance
ar on
F in
aa aa
Ġsee king
ir k
ch arge
r int
Right arrow
gress ive
ĠF re
Ġg rew
/ .
Ġcos mic
Ġdeterm ination
ent ric
Ġtransp arent
Ġanalog ous
ĠC T
Ġseg ments
Ġwonder ful
ĠW H
= (\
n p
Ġlinear ly
oc racy
Ġfl ags
Ġmach ines
Ġrepe at
comp are
ĠS ong
ag en
u pload
Ġsubset s
Sing le
ĠD ue
Ġprov es
b g
R ob
Select or
se x
center line
ĠP en
ĠS ource
rict ion
ĠJer sey
j query
on line
Ðµ Ð
ili ary
Ġ ).
app er
Ġlocal ized
ĠD om
Ġpro xy
Ġun stable
Ġres olved
rior ity
tain ment
ĠCl oud
Style ID
idel ines
co hol
Ġ} {\
Ġf itted
Ġ ×
ĠD ead
Ġphenomen on
ass oci
un a
ap ore
di ag
Ġc ouncil
Ġinstitution s
Ġcal ibration
To String
ism s
K L
ou ter
Element s
Ġhe ll
Ġfound ed
() {
Pro file
m ask
do or
Ġco ff
Ġcomb inations
Ar ch
n c
col lection
Ġ\ :
Ġin dependence
Ġar rive
Ġvol tage
display math
um a
Ġc ab
Ġcorrel ated
eles cope
Ġl osing
Ġrequest ed
Ġm outh
ĠL A
Att ributes
U ST
Ġsignific ance
& -
Ġrecomm ended
u pper
() ).
En um
ĠCh air
ag ent
~ {\
Ġb on
Ġcl ip
hy per
Ġ }$
Ġneigh bour
ly n
Ġa ux
Ġansw ers
Ġimprove ments
im ated
Ġcont rovers
Ġsp oke
Ġequ ipped
Ġperform ances
w riter
}} }{
ĠP S
ĠReg ister
Ġde formation
Pl ugin
P rim
Ġbos on
] ^{
ĠCount ry
Ġval uable
H am
aut ore
ĠB u
Ġfor g
set up
aw ay
ĠB log
Ġland scape
ino is
O ct
ĠN GC
UT F
Ġw inter
pre ne
sat isf
Ġfeat uring
Ġst range
ile y
Ġqu eries
u ated
Ġge omet
ts d
ĠCar l
as m
ou red
char acter
Ġ ĉ
as i
ĠW is
ĠF ac
h skip
Ġelement ary
h ref
ord on
F unc
ĠB ru
sh arp
Rem ove
ĠIn f
Ġconst rained
pat tern
let ter
el astic
od ge
Ġch ose
L at
c ov
pl atform
ĠB on
Ġre aches
ol ves
Ġcr ash
Dav id
Ġdiam eter
Ġoccas ion
serv ices
ĠDe ep
yd ro
Ġd ress
Ġp in
D est
Ġconvert ed
Ġdoll ars
F low
ĠB all
Ġign ored
un ed
197 9
Ġentang lement
con ver
Ġf old
ĠPro t
Ġv eter
Ġcon clusions
ĠC ore
B N
$ --
err ors
Ġhom ot
w ild
l arg
ĠCon serv
Const ants
Ġintrodu cing
CO MP
cons istent
C am
ĠO S
pd ated
D uration
ĠM ill
Ġal ignment
le ading
ĠM D
ad i
Ġacqu ired
Ġf ifth
F M
Su per
comp act
Ġsit ting
ĠOh io
Ġfall s
Ġdeal ing
Ġs oc
Ġrelax ation
re ll
yl van
struct or
Ġ% }
re prene
EE E
ĠTh ose
ge red
Ġsynt hetic
ag a
web pack
Ġv ice
Ġf at
ĠA z
Ġn ob
b oth
over set
Ġfil ed
sv g
r ison
Ġ" "
Con dition
Ġ$\ |
Ġaver aged
ĠD O
Ġcon cerning
tem p
Ġm ic
enn y
Ġchain s
ĠExec utive
)} =
10 4
sub sc
Ġtal ent
Ġintegr als
Ġj Query
Ġn orthern
Ġplatform s
198 1
Label s
Ġw ins
Ġcon crete
Ġ$ [\
Ñ Į
ĠPak istan
ĠL uc
Ex pr
Ġdedu ce
is lation
requ ired
F ollowing
Ġemer gency
d ays
p mb
ĠCon s
Ġcompet itive
Q U
Ch rist
Sim ilarly
ĠB H
}_{ (
ĠN FL
ĠB it
L eg
Ġquot ient
Ġmill ions
Ġne arest
ch a
ock s
iz ers
d irection
Ġmathemat ical
face book
Ġn od
Ġcomb ine
Ġpass es
Ġproject ed
11 5
Ġtherm od
Ġprep are
pro ps
ser ial
Ġsupp lement
Assum e
Ġk illing
D iv
Ġcryst al
Ġfil ters
n il
ig ate
ĠIO Exception
N ormal
vel ope
D en
is ons
Reg ion
Ġ ^{\
rib le
}) -
Ġcomb ining
ĠE uclidean
Ġad ult
Ġtra il
p ed
al ous
Ġinf inity
if ting
az y
ĠSup reme
is ks
Ad apter
33 33
ĠB ased
=" @
G ood
f all
Ġret rie
Ġteacher s
ĠE instein
Ġhead s
Ġregard less
l floor
und erset
P N
Pl ay
Ġd s
B rowser
}_{ {\
P ATH
ĠF ollowing
y y
ĠAn th
ĠGeorg ia
ast s
Ġnon zero
hand ler
Ġindu ces
Ġc oun
Ġcl ouds
Ġb ought
Ġar rival
us ers
Ġwrit es
ĠA li
r floor
Ġpick ed
ed itor
J ava
Ġoper ate
Ġappe aring
ĠT ro
Ġh ur
om atic
ĠTOD O
ĠJ ordan
Vari able
p icker
Ġdis order
ĠP a
Ġwas te
ass ets
ail s
Ġc ards
Ġsatell ite
Ġproject ive
i ot
Bl ack
Ġconserv ative
ĠO x
ĠM essage
> ::
Ġlat ent
Ġdocument ation
Ù Ĩ
Ke ys
ĠL ew
^ +\
Ġdeterm ining
Ġcommun ications
Ġke eps
Ġmole cules
ĠFore st
super vised
att ributes
plic ate
Ġsub mit
deg ree
ĠSt ation
ut f
ol is
Ġafter noon
ab c
Ġinter sect
it ud
R end
ĠS W
Ġcompl aint
Ġm and
Ġpull ed
vious ly
$ (\
Ġs elling
Ġup coming
^- $
im od
Ġs weet
Ġexec uted
=" "
@ {}
IT ION
Ġprinc iples
ĠK ent
) !
p f
Ġmechan ical
P res
ĠMe V
Ġprodu cer
ac cept
Ġde bt
cal cul
Ġexcit ation
ub s
Ġbo ys
the y
Ġmix ture
Ġy ellow
Ġpure ly
Ġenjoy ed
' ',
Ġsing er
er as
E ffect
12 7
ĠCar lo
Ġc od
Ġlif etime
get Name
Mem bers
Ġdom estic
Ġout per
Ġcopy right
P erson
Ġappe al
ĠA ud
ec ess
N odes
ĠK ong
me as
c ost
oid s
ĠMay be
z y
ant i
ĠV ill
no ise
TE XT
b x
ĠMan ager
Ġcontem porary
3 50
aw are
B F
ĠS on
respect ively
ĠF ord
phot on
ĠB L
Ġd ry
indu ced
Ġdri vers
re ens
Ġf asc
Ġthe rapy
ag ger
ear ing
Ġvot ers
}, {\
qu ality
ĠFoot ball
Ġre form
s is
Ġalong side
play er
Ġres id
Ġd rum
sp aces
ĠT ax
Ġarm y
ĠL android
Ġv o
Ġre n
ĠB C
Ġi o
Ġcol on
Ġe ase
E mail
Ġint ent
RE E
ext ension
}. \
Ġhydro gen
Ġrepl acement
ĠB rian
ĠDes pite
ĠW AR
Ġre act
h ou
L ike
Ġcon jecture
are a
AD D
St and
+ $
{ [
Ġconnect ing
p ur
Ġant icip
Ġgu id
Ġacceler ation
Ġapp s
Ġstri ke
ce ive
ĠDemocr ats
Ġdifficult y
Ġanalys es
bo ost
hav ior
ID E
Ġmin ister
prot ected
Ġwindow s
Ġinst ability
U B
ĠLore ntz
ĠS H
Po inter
( __
ĠU k
Ġdis abled
Ġtype of
Ġopp osed
Î ¹
Ġstre ets
over s
d one
ĠK evin
Ġschedul ed
Ġsuff ices
} &\
Ġm useum
Ġ$ $\
G ame
Ġto ugh
J S
Ġaddress ed
Ġxml ns
Ġg od
Ġex clusive
Ġdram a
Ġmir ror
A nt
Ġun ity
G ra
}$ ).
Eng ine
iss ues
AS H
Ġt ends
Ġw ine
A I
ĠD ocument
Ġmag ic
Ġre in
S ep
B AR
Ġnumer ically
Ġgrow n
Ġ( @
Ġto ler
ĠCh annel
}= (
id ity
dist ance
Ġbi ke
ĠCont in
p u
f c
h us
Ġlo ops
Ġworld wide
Ġyoung er
Ġbatter y
Ġev ident
Sym fony
Ġcap abilities
= $
r ations
Ġag es
or dered
Ġrelig ion
L ayer
Ġre q
Ġinst ructions
raz y
Ġscient ists
im m
Ġdevelop ers
ĠSh ort
Ġmet adata
ĠS L
ĠE ll
-------- ----
Ġexpect ations
att ered
ack s
ivers ary
Ġlist ening
Ġing red
on ce
ĠDe ath
Ġtrans actions
Ġtransform ed
Ġr g
li x
ibr aries
\, .
Ġte ch
Ġmanif est
Ġd ot
b rowser
W rapper
Ġhon or
Ġcaref ully
ĠHol lywood
Ġf n
R a
Ġca using
Ġp ose
Ġevery where
Ġvisit ors
b an
or se
Ġgood s
ĠF L
Ġreturn ing
ort ed
ar ters
end a
lo om
ell s
\' {
prot ocol
ĠRem ark
ĠBo olean
ampl ing
Ġacc used
Ġvari ant
Ġpos it
ĠNew ton
' =
ĠR ic
Ġsh apes
ĠAd ditionally
St ruct
ail ing
Ġto m
M ich
Ġformal ism
Ġd a
Ġregist ration
v ia
Ġbreak s
Ġimpro ving
' }$
Â ®
VAL UE
ĠY et
ĠD am
du ctor
Ġun us
Cl oud
ĠRec all
Ġaward ed
) "
Ġpotential s
Ġel astic
ĠN iger
Ġest ate
Ġcent ered
Ġbeaut y
% .
M ake
ĠApp lication
}| ^
ylvan ia
ST M
AR D
Ġm esh
col lapse
Ġhapp ening
ĠC C
Ġpl astic
Ġenc oder
N amespace
Ġfac ing
Ġb old
Ġex posed
Ġcollect ive
ĠH op
enn es
L java
Ġ\ #
Ġneighb ors
Ġd y
) )$.
d on
p in
ĠH ash
Ġclass ified
Ġc rypt
Ġd otted
ik ip
hold ers
Ġst ood
ch itz
s qu
Î ½
b est
Ġnot iced
Ident ifier
ĠC hem
ĠSta ff
L ear
S cal
w ing
em on
W ho
Ġpar ad
Hel p
Ġas ync
s ens
v ideo
ma king
pol ar
tem perature
in ement
rupt ed
Back ground
Ġinvest ors
Ġmulti pl
Ġwe ar
al actic
pon s
Ġl augh
ST AT
Ġhous es
Ù ħ
Ġh ide
Ġopp osition
ĠW ars
Ġreach ing
a ire
L INE
p lectic
S imple
Ġh all
ĠAs ian
Ġult ra
Ġ ip
Ġm ine
et o
t mp
}( -
res olution
C opyright
Ġvan ishing
Ġtrend s
Ġasympt ot
Ġpartners hip
F i
ĠP ers
Ġread only
S ocket
sim ilar
A pr
vi ation
FOR M
ĠK at
key word
Ġadvert ising
st orage
it led
Ġhistor ic
nes ota
el lect
FF FF
met adata
y o
R oute
Ġy esterday
, (
equ ival
M AP
Ġcircumst ances
Ġobserv ables
). }
ep ing
Col lections
w hat
S cale
S ervices
ĠDav is
AN G
ĠSt ill
at ibility
A ug
d ers
onym ous
n atural
F ailed
Ġf estival
av ailable
ĠEd itor
M ath
M apping
U K
Ġt unnel
rat io
[ ]{
and y
S ync
Ġin hib
w he
Ġrem oving
ĠS ite
es is
Ġm ountain
Ġconstruct or
Ġb anks
ĠC ulture
Ġev il
j ections
ict s
}} }$
met ric
Ġvictim s
on om
Ġag encies
Ġcon vention
Ġimag inary
2 20
s r
iline ar
Ġr u
T M
Ġan ten
Ġexpl oration
2 13
at omic
ĠR est
ĠWith out
left rightarrow
Ġass ist
xy gen
h n
ĠPr ince
Ġreg ul
Ġemot ional
i ary
M o
ĠSpec ifically
big gl
ic ing
ĠTh anks
Ġshe l
prot ect
Ġ ],
." );
Ġf usion
Ġfl avor
Ġ$- $
ĠL anguage
Ġdraw ing
t k
ĠDis c
Ġlimit ing
bigg r
ĠB ang
ĠĠĠĠ ĠĊ
Ġrestrict ions
Ġcent ers
ure au
pre v
Ġbox es
tr igger
ĠCl inton
or b
ject ive
E val
ĠArt icle
ikip edia
ĠS QL
ĠS A
ĠG P
N P
ĠT ransport
MOD ULE
h ide
Ġexpand ing
is o
Ġsub str
Ġinnov ation
Ġs av
Rel ated
ĠP ubl
)\ ,\
iam i
ĠNot ice
ay a
Ġact ors
Ġmod ification
lim inary
yd ney
Ġar ises
ĠComm and
197 8
f requency
Ġconsec utive
ĠG ro
Ġh at
= {\
}} +
ĠHot el
Ġto k
Ġad ults
ch y
Ġhom omorphism
Ġcarry ing
Th rough
J oin
n ob
Ġle af
Ġ{ '
Ġvis ited
ĠW IT
driv en
ic ide
int o
Ġw ed
ĠF all
ab olic
d ialog
lic ations
ĠUn iverse
C a
ha ust
Ġbas ically
Ġop ens
ĠEl izabeth
ĠYou Tube
Ġsymmet ries
Ġdis appoint
Ġdo ctor
B r
Ġdep icted
ĠM arg
Ġal ive
Sh ort
Ġshe ar
Ġal ter
un ter
Ġobserv able
Ġd rag
ĠB S
M iss
Ġderiv ation
Ġens ures
ĠTor onto
Ġinv ariance
Ġsampl ed
P od
}\ }$
B s
ĠE ffect
d if
vari able
Ġdesign s
Dom ain
Ġpromin ent
Ġ= ========
Ġanim ation
ĠCl in
is ations
ĠMin istry
I AL
ĠR h
ĠH ou
ĠI C
il st
Ġheav ily
Ġgener ality
Ġsur gery
Ġcommit ment
ik es
ĠRec ord
ĠMed icine
om er
ĠP rivacy
Ġres et
G reen
ĠRep resent
, '
ar o
ĠM ember
Ġbar rier
y ers
ob by
ĠI L
j unit
Ġshift s
mult ip
Ġsc roll
Ġpark ing
Ġcompl iance
Ġsl ot
ĠP ack
Ġknow ing
Ġappoint ed
Me an
Ġp ole
Ġent ities
Z Z
off s
Ġcond ens
Com b
Ġresult ed
cle an
am az
ment ion
ag ues
Ġsize of
H er
ar ia
Ġadapt ed
ĠE astern
Ġil legal
tab s
Ġgrant ed
Ġl it
Ġviol ation
Ġdecl ared
> $
Ġneglig ible
ĠAcc ount
B oth
ĠDis ney
Ġimp ressive
ĠStud y
c us
Ġtri ple
at hered
Ġfun ny
ĠInt eger
197 7
Ġform ulas
F ramework
Ġmark s
ma kers
Ġhyper bolic
( |
d ig
Ġpre gn
Reg istry
M ac
ĠM iller
Ġun likely
aps ed
t ags
ĠSm all
p ub
Ġj ets
H is
5 12
erv ation
Sub sc
ĠSh ould
du ate
}}\ ,
Ġtroub le
G D
anc ell
ĠH ay
Ġb omb
um my
t ot
Ġa wards
r ating
Ġmat ched
Ġsurv ival
Method s
I LE
ĠTra vel
ĠA C
Ġapp end
\ -
Ġstri p
S ample
ĠR os
Ġfeas ible
10 8
n odes
Ġhor se
) ->
an es
Ġefficient ly
ĠF R
ĠInd ep
Pro gram
t p
A gent
Ġgu est
M W
oun tains
10 6
oc key
Ġ\, ,
ĠW rite
Ð ²
ĠG reek
i ac
fe ed
Ġmer ge
Ġvalid ate
make box
h our
or ne
Cl uster
h olds
Ġmeas uring
d ue
ĠE V
Ġpen alty
B el
ĠP ear
Ġun like
ĠF A
Ġdes ire
ĠN eed
ari ate
Ġpers ons
ĠÐ ¿
A x
Ġwhe el
ĠF ROM
OW N
ĠR ose
re pe
Ġident ifying
ers hip
197 6
build er
Ġtit les
19 75
Ġshe et
Ġass istance
Rep ository
10 3
Ġpil ot
bl ing
ĠF ix
h ist
Ġeffect iveness
19 50
Ġrel ativistic
Ġpres erve
az a
Ġair port
ĠC ook
Pref ix
Ġt x
ĠI E
Ġfl av
b one
Ġhas n
N ational
miss ible
Text ure
ement ia
Ġv otes
lev ant
ĠH ong
typ edef
Ġlength s
M a
St e
ĠT ony
at ics
Ġa de
be an
ĠMag azine
oust ic
Ġwork er
' (\
ĠS F
F ore
the me
ĠH app
ire ment
ĠP ur
s ylvania
Ġgra de
Ġo x
Ġw estern
pos itive
ĠĠĠĠĠĠĠĠĠĠĠĠĠĠĠĠ ĠĠĠĠĠĠĠĠĠĠĠĠĠĠ
Ġag ric
ĠOffic er
Ġphot ograph
Ġlist ener
Ġt ension
Se lected
ĠIn put
{ "
Im port
C he
are t
ol i
ial s
ĠJes us
st ers
ĠT ag
e fficient
}} -
ĠA venue
Ġprof it
pol icy
Ġopp on
ĠIll inois
Ġcomp ression
pro gress
T ok
Ġtang ent
moment um
Ġproport ion
Ġg ro
Ġvac c
Ġclass ifier
h h
Ġhe ating
met ic
ĠPh ilipp
Ġthick ness
correspon ding
Ġam pl
ig e
Ġdestroy ed
ĠW ales
fil ename
Se lection
tra ining
Ġhab it
Ġt iny
em b
Ġf o
head ers
big skip
ĠU I
\| _{\
Ġph on
or iginal
with out
f ar
B i
F urther
ĠLab our
Ġband width
ĠE dition
C ard
' )\
Ġarg ued
sub float
ĠDo es
Ġde pos
or igin
res ources
Ġim plications
Ġ[ "
Un iversity
ĠS ets
cor rect
En ter
ĠRequ est
Ġconc ert
Ġim per
Ġgrow s
ĠPro te
Ġlog ical
Ġrequ iring
pro vider
Ġbus y
}^{ (\
Ġwhere in
ul ous
f un
cre p
AL SE
Ġnorm ally
hal f
ig m
Ġleg islation
object s
Ġfall ing
ĠU t
ĠE th
Î µ
ĠP rim
l ot
iter al
un ning
Col l
x s
. -
9 00
Ġs ympt
Ġwat ched
d k
Ġfl ash
ĠAr g
ĠAdminist ration
LO CK
rug gle
cent ral
Ġaccord ance
Ġdr ift
fra g
Ġvari ability
ĠS ab
u j
Ind eed
Ġcamp us
process ing
Ġcount ing
ut er
Ġform ing
Ġst rain
ĠHar ry
Ġb at
Ġint ention
Ġany way
spe ed
Ġf inger
per iments
Ġqu arks
Ġab and
g ate
ĠH art
ips chitz
ĠPal est
ĠB at
Ġearn ed
ĠAg ency
Ġembod iment
ĠL eb
Ġtra ding
c v
est yle
Ġdepend encies
ĠH ave
itud inal
C B
L en
Ġh int
end o
ĠM oon
Res ources
Ġdist urb
ĠHe art
Ġri val
æ ľ
ĠAnd erson
ra ine
l an
F act
Ġass ault
ĠIs lands
Ġrev olution
Ġtourn ament
}\ !
g ements
Ġr ising
ĠRe act
ĠSt ock
Ġde als
ĠTra ining
Ġi i
ĠS ir
um s
Child ren
Ġart s
Ġinv ent
Ġcomp osite
method s
exec ute
Ġput s
Ġregard ed
ĠCon dition
ĠJ am
G AN
Ġf ruit
Ġco homology
autore f
Ġatt ended
us cript
() </
Ġcheck s
nd ef
Re view
Ġmere ly
ĠBuild ing
ĠFin ancial
UR I
Ġmin i
Ġferm ions
ĠAN Y
Ġprocess ed
Ġgreat ly
k top
Ġobtain ing
Ġd amp
Ġmechan ics
Ġmulti plication
i at
lect ric
Ġ' '
ĠPro blem
Ġext raction
Ġcoff ee
Ġexpl ored
f ake
Ġentertain ment
Ġserious ly
Ġany where
Ġrece ives
Ġab elian
Ġcl ar
ĠR oss
D OM
ĠUn it
Ġst retch
Ġmodul i
V S
d etail
ĠT al
W atch
ors hip
Ġbro ke
Ġsk ill
z o
Ġv i
197 4
ĠPr inc
Ġthere by
ĠInt erest
T race
Ġembed dings
ownt own
Ġ\\ [
Ġf rust
Ġrecogn ize
w d
Ġr ating
c ritical
eg as
13 5
Ġbelie ves
Pat tern
G s
ĠSe lect
ĠT ree
con sin
Pro v
sh ared
10 7
Ġoscill ations
ĠSing apore
Ġwire less
t c
Ġencou rage
Ġt ags
ĠSc ient
l am
Ä ģ
Ġhierarch y
sur face
ĠG ib
adel phia
se a
ast ro
Ġdiver gence
cer tain
Ġinteract ing
und les
ĠD er
g ression
Ġgen us
hed ral
Ġr isks
m r
Ġin cl
Ġk not
Ġimpl ied
Ġpay ing
Ġse asons
L Y
Ġprepar ation
Ġappro val
it ro
ic ode
Ġ> >>
) *
Ðµ Ð½
ID TH
}$ $
Ġlocal ization
he res
ĠSan ta
Ġtri es
ĠEx pl
con vert
Y ear
A K
ĠLat in
Ġ" ,
24 0
Ġpar ser
^{ [
b atch
ĠH TT
00 2
', '
( .
ĠL ind
Ġrep ly
Ġfraction al
Ġmetall icity
S yntax
tt ing
Ġparticip ate
Ġbo at
bur st
ing ham
Ġall ocation
] _{
Ġatt r
li ance
Ġu pload
ask a
Ġcom edy
Sh ape
Ġsch olar
olog ist
Ġbran ches
Ġre put
Ġm ouse
itect ure
ĠH ur
Ġover view
add le
Ġde eper
Ġsh orter
Ġmanufact uring
ct rine
an chor
Ġdispl ays
Ġprom ising
DE BUG
w ho
Ġso ph
U ri
ĠD ream
OC K
Ġn ic
Ġenc oded
ĠColor ado
ĠD id
ĠIm ages
ard ing
M ETHOD
Ġelect romagnetic
Head ers
Ġcaref ul
å Ī
}) (
Ġoper ated
ĠConn ect
» ¿
Ġbirth s
u z
) <
Ġremark able
ĠEmp ire
N ET
pp ers
at en
Bas ic
Ġcont est
Ġellipt ic
on der
Ġdes cent
Ġd ates
Ġsequ ential
c ers
Ġv oting
}} ^{(
Ġautom atic
Ġinequ alities
Ġsw im
th row
Ġpar agraph
Ġsingular ity
P UT
ex act
Ġfin itely
ĠG allery
c ert
f our
Ġa thlet
ï »¿
riz ona
Ġd elta
Ġhe lic
ĠAlex ander
par ser
s b
Trans form
M ask
Ġsett lement
Ġsuper ior
L D
ma ven
; }
ris es
197 3
Ġst yles
ĠQue ens
test ing
ĠApp ro
ound ed
\!\! \!\!
ĠS ho
ĠCap ital
ĠCont ent
rel ax
Gener ator
ĠAm ong
Ġvan ish
text style
âĢ¦ .
ĠSt ore
ĠL E
ent h
ro ck
f p
Ġhol omorphic
clip se
ht bp
ious ly
ĠGold en
Ġann ih
Ġant ib
Ġcut ting
Ġtw enty
as hes
the w
ĠK h
" =>
ĠB ush
Ġeduc ational
Ġb att
& +
" ],
T x
ast y
fl ag
ore l
Ġt ip
ĠCom b
i est
ĠA SSERT
ĠF ri
\ }}
k ov
RE D
ab i
i ors
Ġend point
own ed
V A
ĠE uler
Char acter
b iz
Ġtick ets
ĠSar ah
An alysis
Û Į
ĠL ib
e en
out ube
Ġint u
top rule
Ġminim ize
ru p
deg ener
m ad
n l
Ġf er
ir y
Ġalbum s
ĠB attle
H ol
support ed
Ġjo ining
Ġsk ip
Ġsuper conduct
Ġgeodes ic
et ts
on i
Ġtra v
Ġver ified
ĠCon sequently
test s
Ġl y
ĠV en
EN SE
grav ity
Ġ( [
ĠN avy
om p
Ġcav ity
Ġart ificial
opt im
ĠE mer
OR Y
Ġsuggest ing
) /\
Th anks
ill iant
S uch
ap ing
Ġcomm ands
Ġf uck
ĠW el
Ġobserv ational
the se
Ġregular ization
St ats
ĠCom ments
ĠGal actic
col Last
Ġm unicip
Ġimp osed
g tr
AN CE
am ps
Ġst ake
Fig ures
p ull
Ġpro sec
Ġsurpr ised
ag an
ot he
ĠM rs
bib li
z ing
R ender
Ġtransfer red
Inter val
In f
Ġste el
Ġb ind
ĠRes ources
u ency
ĠM ir
ĠN AME
ĠE P
ĠV iet
Ġgr ate
option al
row th
ĠH al
part y
Ġconsist ently
Ġaccur ately
element s
vel oc
k ip
Ġover come
Ġm aintenance
ĠT am
ĠJ osh
el son
ĠP aper
Ġrad ii
Ġg enu
Ġref lected
">< !--
C s
F amily
Ġche ap
Ġpubl isher
pro gram
Ġse ats
Ġh urt
v ance
Vol ume
Ġext ending
Ġshift ed
igr ants
ĠS quare
Ġsurve ys
Ġplan ets
if def
com pos
ĠG raph
th ur
are r
ĠH erm
Ġsudden ly
Ġst one
}$ ;
T IME
Ġsol o
ĠH E
opt imal
N umer
Ġal pha
Ġmembers hip
enn a
Ġcol le
ĠN atural
Ġcontinu ity
Ġemploy ment
^{ {\
B Y
own er
H H
en abled
ĠWhe ther
Ġelse where
De legate
Ġfocus ing
ĠVictor ia
ff ff
), (
Ġc tx
mer ce
Ġrun time
Ġg ray
Ġun expected
Ġadvent ure
q q
Ġleg isl
Ġcub ic
Ġsche ma
se ason
mention ed
prec ated
Ġload ing
pl ed
Ġsens ors
Ġprovid ers
Ġph arm
sm ooth
Ã £
Ġsl ice
art z
rad io
C ent
Ġrem ind
ĠOther wise
und efined
ĠEd ward
Ġme ets
SC R
Ġr anging
S ol
j ango
ĠF O
ĠSim on
Ġhost s
em ic
Ġcheck ing
over view
C y
Ġsp okes
ĠSur vey
col First
ĠR ow
Ġtri als
ran ged
Ġadvers arial
Ġr ings
A ust
ĠP ract
): =\
Qu ant
Sh ould
Ġaffect s
ph an
L I
r in
w rapper
Ġsubsequ ently
ĠSy ria
n ear
ĠMin nesota
}}\ \
over ning
Ġ? >
Ġro of
EL D
ĠT an
L ight
TR UE
Ġsub mitted
Ġal cohol
Ġs ends
Ġsold iers
j e
M ill
Ġaux iliary
* {-
ari ants
ol ute
grad ient
Ġd uty
ĠTe ch
Ġproof s
Ġreprodu ce
Ġwe aring
Ġfore ach
Ġf lying
Ġal ert
agnost ics
Ġuniqu ely
mem ory
Ġw ider
ãĢ Ĥ
ann y
IM PORT
Not ice
D iff
ĠS ound
Ù Ī
ac cur
R ole
oc a
S V
ĠG alaxy
Ġattract ive
log in
Ġtarget ed
Ġbu f
Ġlik ed
ist ration
Ġtrans c
Ġform ally
ĠPart ners
check ed
' -
f b
Ġcomput ations
Ġv on
ĠS ydney
âĢ ĭ
Ġtw ist
ĠAut o
ĠCh apter
( $\
ĠM E
ch arg
Ġinnov ative
S equence
Ġnot ing
Ġtor us
Ġconven ience
quant um
ĠD a
Ġdis put
Ġre actions
T Y
Ġpublic ly
11 4
Ġ" -
it is
Ġf ro
ĠO s
H ave
Ġc rack
Ġpermut ation
Ġade qu
Ġlog ger
t m
Ġg host
Ġb asketball
h arm
Ġmeaning ful
ĠBro ther
T HE
sub ject
ĠLe ft
197 2
ac on
ĠS a
ĠMo ore
Ġ" <
o is
inter val
ter ms
ors ion
Ġaut omorphism
ch anges
+ }
Ġkn ock
Ġphys ically
ter ior
Ġvar ies
ach us
ĠS av
s ame
AT CH
Ġparamet riz
Ġcomb at
Ġg ay
Ġo xygen
t f
n ecess
Ġclos ing
ĠS R
L anguage
Ġs ink
ract ed
D id
olog ically
Th ree
Ġachie ves
ut ter
Ġbe ach
J uly
Ġbelie f
Ġemer ging
ĠNever theless
}} +\
ĠIn it
P red
Ġr um
Ġmut ual
S ql
Ġin formed
AM P
Ġout flow
ĠPy thon
ĠK enn
EE EE
Dep end
Ġb ases
Ġprof essor
ĠO nt
ĠPat rick
Ġ= ======
m oz
AT ED
r ift
Ġdec or
Ġthrow n
____ ____
an th
P Y
ug gest
os ph
Vert ex
she et
Ġs ke
sl ice
Ġ )$
b race
å ®
Ġacqu isition
e lem
Ġsp ins
11 7
ĠD B
hes es
re r
}] $
B al
ä »
ron es
ĠL ady
p n
ĠW as
our n
Ġnucle i
qu es
Ġro oms
h yp
ĠH ttp
rac ks
Ġb ass
Ñģ ÑĤ
ard ed
em bed
Ġent ering
Ġmanif olds
x rightarrow
Ġinst ruct
Ġr ural
Ġrec overed
ĠW ord
Ġwe bs
Ġtok ens
gh an
Ġgu ests
ĠPenn sylvania
Ġsurv ive
Ġsqu ares
W ait
ĠJ ason
ĠInst agram
Ġst ruggle
Ġnewsp aper
b ing
Ġdis ag
Ġcontinu ing
Ġse p
Ġact ress
Ġdetermin istic
Conn ect
Ġte ach
Ġpoint ing
Ġgain ed
Ġflex ible
ra gg
ĠMov ie
qu ark
ĠTh ough
Oper ator
Ġwalk ed
Pass word
Ġed it
M N
Ġg arden
17 0
Ġnarr ative
Ġp ron
li ers
à ¦
Ġhead ers
Ġbrand s
rop ical
Ġc md
Ġbe ar
effect ive
Ġrg ba
se en
ĠColumb ia
ĠB R
H ub
ĠL es
as sembly
k k
ĠSt one
il ty
Ġo cean
ra it
ex pl
10 9
h ig
SS L
UN D
sc opy
all as
ĠTh ings
(' .
gtr sim
Ġl ying
nav List
Ġtem p
Down load
M ove
Ġ' <
F N
ens ing
ĠCE LL
: [
ĠL oc
L ower
ĠG W
it atively
Ġassoci ate
ĠT rack
ĠC au
Ġaut hent
w ich
Ġb ins
â Ĩ
aj ax
vers ely
Ġdetect ors
ĠC ab
ĠD ave
Ġar ising
Ġaccomp an
I gn
l ass
Ġoptim ized
Ġinst rum
ĠV ector
w ick
) }^
ĠJ ean
Ġmotiv ated
Ġinstrum ents
Ġle ct
Ġp ushed
OP T
Ġposs ibilities
ĠPl ace
Ġnull ptr
as ync
le in
ĠCh all
Ġconsider able
P rivate
Ġt issue
oper ative
Ġconver ge
Ġscreen ing
eder ation
ĠM icro
ik a
b urn
Ġs wit
PO ST
m iddle
b rand
ne ut
Ġe gg
Ġprocess or
ĠPr int
cho ose
Ġlik es
Ġhol iday
ĠEv ents
ul um
Ġ\ }$
Ġi Phone
Ġy ards
Ġh ospit
Ġ erg
ish ment
ĠVal id
Frag ment
p q
Ï ĥ
Ġfe es
Ġphenomen a
Ġclos est
Ġt aught
ĠSt ream
. (
S y
ater al
ĠB Y
index Of
g age
Ġp ric
in ch
Ġex haust
Ġob server
tes y
=" ${
s ymmetric
Ġflux es
var pi
Ġsil ver
des ign
amaz on
? >
d am
Ġrep orter
Ġtime out
Ġsummar ized
Ġthous and
condition s
( @
Ġincor rect
Ġper mit
}{ $
ĠMult i
Ġmaintain ed
J P
act ivity
Ġaware ness
rel ative
Ġdog s
) ~\
con j
Ġmer ger
Ġm ail
Ġt all
ĠM it
rel ations
Are a
P air
ĠU lt
bour ne
arg o
Ġaff ili
Ġinj ured
] _
on ia
ĠG ab
Ġrel ies
Q UE
ow a
be ing
ĠDef ine
' +
Ġquant itative
Ġemploy ee
b racket
) ~
27 0
gg reg
ant ics
mb f
S outh
b us
f und
Ġreg ulations
ĠNAS A
omet er
= }
ĠReg ion
ĠP rom
Ġex cluded
achus etts
over ty
Inst all
Ġf lood
Ġsomew here
ellect ual
Ġfocus es
Ġfound ation
contin uous
ant ed
Ġo vers
ĠPro of
' ,\
b ran
D u
ĠS erver
bound s
19 68
aud i
ĠS NR
Ġhard er
Ġdip ole
all classes
Ġsupp ressed
ĠDo ctor
12 6
Ġs ought
Ġ{ "
Ġexhib ition
ĠMan chester
Th m
bottom rule
Ġth orough
Ġh ack
Ġover l
Ġpro ps
Ġtext ure
In formation
Ġenem y
Ġch rom
Ġhop es
ĠLe vel
Con clusion
ĠX ML
in formation
bound ary
ĠM iami
ĠInt eg
Return s
******************************** ********************************
col head
ĠAl tern
a ho
Ġcancell ation
Ġreject ed
Ġillustr ates
Ġf ranch
di agram
Ġguid ance
at ial
ĠN ether
Exec ution
en ant
Ġdel ight
od a
Ġimpro ves
sin h
ric ket
abl ing
cont rib
ĠEnter tainment
c ule
P ress
s olution
and o
Ġtim ing
ex tern
ĠĠĠĠĠĠĠĠĠĠĠĠĠĠĠĠ Ċ
Ġbright ness
Ġins ights
} </
ĠHou ston
Cont in
Ġ[ ],
< !
ĠB ry
F D
Ġt we
Ġbl ind
00 5
Ġadapt ive
sp ir
Ġen v
ĠM I
ĠC oul
Ġdem ands
Ġdis crep
[ {\
Ġdis miss
Ġreflect s
high light
ĠHol y
us ive
t body
Ġtrans it
Not ification
ĠAl ice
Null able
Ġpar a
Ġguarant eed
ĠCon tact
L imit
11 3
ĠB urn
d v
Ġpur su
C AL
K K
Ġthink s
ad ic
F n
(' /
run time
ĠMethod s
19 69
comp iler
Ġvalid ity
ĠY ang
hel per
ro d
Gener ated
ve ctors
ĠG reg
p b
vert ical
Ġdegener ate
Ġh am
Ġpar ity
Ġ ];
Ġb le
ĠLew is
ress ions
M aterial
ĠA mb
F eb
ant e
E p
Date Time
F LA
in cess
ĠQu ant
Event Listener
r ically
Ð ¼
Ġscal ed
Ġdemonstr ates
se lection
Ġincred ible
P ut
ĠSI ZE
Ñ ĩ
Ġsc oring
ĠR ick
vis ible
ĠThe ory
ens ively
Ġin comp
ĠM ove
ĠS ex
p rom
G T
C ast
Ġmoment a
INT ER
Ġcele b
time out
Ġcomfort able
M IN
Ġintrodu ces
Ġsimpl ified
A li
D IS
Ġcycl ic
v v
Ġav ailability
g re
u u
Ġpe er
inem a
P ub
in valid
f ac
Ġt ub
S ave
Des pite
Ġadapt ation
ĠRes ponse
Ġw ing
c ity
f am
Ġswitch ing
l st
Ġsubstant ially
Con ver
on na
Ġconsid ers
Ġs ake
Ġas set
Ġunus ual
Ġperman ent
Ġexhib its
at ile
ĠLe on
Ġd ies
ĠS V
12 4
ĠPl us
Ġhor ror
He alth
Ġsome how
Ġmod ular
] }\
ok er
Ġhomot opy
P al
F ocus
ĠW i
Ġman ual
Sp an
A SE
Ġpl ugin
Ġfac ed
sign ature
Ã£ o
Att r
check box
En vironment
Ġsuff ered
tra ined
Pro gress
ch ing
ĠJ ay
' ));
m agn
X Y
ĠK elly
h ad
Ġfound er
Ġsent ences
Ġan chor
Ġprim itive
pl ac
Ġm igration
Ġguarant ees
Ġ$ -\
Ġorient ed
Ġmeet ings
o or
+ |
}) }\
ĠG er
Ġadv is
reg on
Ġrem oval
Ġdisc ipl
nov ation
C RE
U ES
ĠC os
ĠE mb
fig s
work s
Vis ible
Ġpresident ial
Ġtick et
rap ol
re lease
S er
^ ^
Ġstream ing
M art
con tact
utr ition
ĠY O
0000 00
is p
ĠP red
ext ra
cos ity
iv idual
Ġl ad
Ġal igned
ĠK al
ĠH ad
ro it
Ġfra ud
ĠOx ford
ĠSen ior
Ġar row
ĠM ountain
N U
ĠM obile
Ġm g
ex cept
Ġso il
- {\
Ġu i
ĠDi ego
Ġenc ounter
user name
CD ATA
im eter
IC ENSE
}] \
ĠF arm
w ang
ache l
HT TP
Ġcap ability
Ġeng aged
y ard
b n
Ġconjug ate
ĠP L
Ġqu bit
Ġdialog ue
w ind
Ġb oss
iv ities
bl ank
Ġregular ly
B ind
N a
re view
F inal
ĠHar ris
Ġinv ited
ĠUn fortunately
Ġprov ing
14 4
Ġc up
(' #
Ġtr im
. ]
ĠL P
Ġsym plectic
Ġrele ases
Ġinf er
ĠSil ver
Ġrad iative
197 1
i ating
Ġlight s
if ndef
$ =
ex amples
() ))
S ame
ĠIslam ic
Ġdual ity
T or
igh bor
Ġinf ra
Ġcomplet es
Ġas ymmetry
ma ps
}, \\
ĠB arn
Ġbe er
Ġspe aker
nt il
Ġb uff
ĠCan cer
ĠC PU
pro fit
ĠSaf ety
ĠE T
10 24
Mich ael
}$ ),
Ġtempor ary
= &
ĠSim ilar
_{ (\
ĠTh ird
stit uting
ĠMod ern
Ġstrateg ic
ĠO cean
am ination
gl s
Ġhost ed
Ġd inner
con sider
Ġcont rary
Ġamb ig
T oday
Ġas ks
ang ers
Ġbu ying
ĠE ND
Ġ âĢĻ
elf are
B egin
J une
p ag
Ġne uro
ĠS ix
ma j
c n
ĠL iter
Ġneutr inos
ut her
AC H
D an
at io
A bs
s yn
Ġ_ .
Ġassum es
z ip
ss on
sh ips
he ll
Ġc ow
ub a
Ġn p
ĠM and
Ġinj uries
Spec ial
RE G
cknow ledge
Ġexponential ly
Ġbi ological
Ġsearch ing
4 50
Ġrema inder
Sk ip
_ );
ĠSt atus
Ġtransport ation
ht b
Ã ±
ĠR aj
~~ ~
Ġl ux
M aster
ï¼ Į
$& $
ĠHTT P
ĠN ations
ĠC lient
P ower
Pl ayer
N ative
Ġj un
Ġb unch
ĠS pect
)$ $
ol ly
end ers
set length
b eq
Ġsure ly
Ġagre es
d n
Ġassert That
O ld
Ġs oci
ĠC M
Ġv oted
Ġident ities
re tt
Ġc umul
Ġâ Ĩ
ĠGovern or
m ac
Ġgen etic
ack now
Ġke V
ĠL ic
Ġwor ry
l ibrary
Ġwere n
ĠR on
w arning
Ġs ick
2 10
por al
T w
resize box
Ġcam eras
Ġart ifact
Ġre pository
ĠE N
L android
ĠC orn
Ġser vers
Ġmy th
Ġhop ing
manif old
Ġgl uon
Ġcoinc ides
Ġf irms
Ġas ide
Ġhigh lights
e eq
et ition
ic ator
Ġany more
ĠR ome
ĠW ind
s ocket
. ",
k ernel
ĠCapt ain
ĠB ridge
| {\
Ġsuff er
ĠNether lands
ĠPer formance
C apt
ĠAff airs
Ġsimpl er
Ġvari ants
ĠL oad
ug ht
EEEE FF
ĠT ok
}. $
e V
yst yle
ĠM aterial
Ġgen es
ĠBay esian
Ġcont ributed
ĠArray List
Ġisot ropic
t ures
Ġre cept
Ġn m
t bl
g lyph
Ġman uscript
ĠN ature
ĠR oy
Ġdecl ine
ĠT reat
Ġexam ined
ĠDesc ription
P aul
Ġdeep ly
Ġro se
ĠH an
Ġf ired
Ġb irds
Rem ote
select or
ĠLa ure
cur ve
ĠTra de
ĠC reek
Ġident ifier
* ,
Ġfriend ly
W est
t ol
Ġlogarith mic
Ġread ily
AR CH
col lect
sp ot
Ġsimpl est
ĠRepublic ans
ext end
m g
T om
um ann
Ġbl ank
Ġe le
Ġarbit r
per ience
Ġshould n
m ony
Ġen forcement
Ġout standing
. <
war z
ĠA rizona
Ġind irect
11 6
11 8
Ġpurch ased
ĠWeek ly
ar ma
Ġperturb ative
Ġpolit icians
Ġw ake
C NN
M arch
w hel
big oplus
Ġve get
Ġpro hib
Ġs quad
Ġindic ator
ĠFore ign
up d
Ġt aste
flu id
Ġtax es
ĠS elf
Ġref uge
Ġeng age
Ġpl ain
we ek
Ġ\, .
cc entric
Ð ´
Ġn omin
}{ $\
Ġcontract s
veloc ity
ĠWis consin
ĠD ouble
Ġgr ass
umn i
col n
p us
Ġk il
el and
All oc
Ġrot ating
ĠEp isode
sc ore
ĠEconom ic
Ġlist ing
al og
R andom
Ġenhance ment
] +
lb race
Ġf urn
Ġaim ed
Ġen velope
e very
Ġbase ball
bibli ograph
r h
o il
ĠJ ane
int eger
] ^{\
iv ated
Ġin duct
ĠC G
ĠOr iginal
ĠS S
Ġin coming
AA AA
\ @
Ġcharacter ization
up id
Ġterm in
al ias
x it
ox y
Ġ\| _{
Ġ@ "
Ġsupp lied
}\ )
Ġext inction
ain ing
Ġopt s
}; \
Al low
End point
bibliograph ystyle
Ġmed icine
at im
su fficient
Ġsus pend
\\ \
Ġpair ing
O wn
ĠM s
back s
d or
Ġb ol
rypt ed
B inary
Ī Ĵ
ul p
Ġcut off
Ġen um
st ation
ĠP itt
Ġem issions
R ich
ĠN N
Stand ard
ul us
ĠP ow
Ġsh ots
Ġstat s
ĠAL IGN
exp ression
ul pt
ol k
ĠL yn
; ">
down load
Ġlo an
Ġinf ection
% "
}_ +
Ġoffic ially
1 19
Ġroad s
Ġrel ating
fra ction
Ġmin ing
con vex
St op
F ollow
end ment
Ġselect or
/ {
Ġb rown
ĠAll en
Ġhist ogram
get Element
Ġobserv ing
Id s
}} }{\
div ision
ĠD og
F older
Ġprov ision
]{ ./
ri k
Ġdro ps
Ġad mitted
Ġcommut ative
Ġval ign
ĠN ash
Ï ģ
Ġex em
Ġsum s
O k
ĠF ellow
Ġin jection
iv ariate
Ġg overning
DE F
ter y
V I
Ġbr illiant
ĠSt adium
Ġla id
Fl ag
Ġoper ational
Ġse ctors
Ġcontinu ously
SE LECT
Ġc ategor
ĠCom ment
Ġhead ing
com parison
Ġfor cing
Ġvisit ing
ov iet
bre aking
Ġadvant ages
Ġ' \
Ġa cknowledge
lim ited
) },\
Ġgen re
cos h
" ].
Ġent hus
b os
c u
Ġel ig
Ġl in
Ġf illing
Ġconfigure d
Ġm apped
Ġid x
Ġro utes
Ġatt orney
Ġreal ization
19 67
it ure
: `
Ġle tting
on omy
ich ol
Int eg
Ġexp orts
int erest
ĠK a
sh ot
Ġs essions
pe ction
inter pret
F W
t rain
ri ate
inn ed
S creen
cd n
Ġt ied
t ar
NavBar Font
ch art
Ġcorrect ed
BP ACK
ĠĠĠĠĠĠĠĠĠĠĠĠĠĠĠĠĠĠĠĠĠĠĠĠĠĠĠĠĠĠĠĠ Ġ
f lix
ic ates
ĠC redit
; "
ĠTur key
Ġdepend ency
DE FAULT
Ġcon cluded
Ġprofession als
Ġent reprene
ĠM oh
ĠD ementia
Ġsub sid
D b
ession al
ĠWh ich
Ġt ank
Ass oci
Ġexception al
ar ry
l ive
ĠAnt on
Ġt one
Un ited
r k
An n
). $$
Ġgrad ients
ĠP rivate
ou ri
ĠR T
AV E
Ġfant asy
Ġsto pping
ap is
sc hem
Ġf abric
Ġfant astic
Ġapproxim ations
Ġgain s
Ġobtain s
ey ond
spring framework
ĠM eg
acknow led
Ġweap on
){ $
Ġrank ed
}} )\
Enc oded
Ġeng agement
Ġton ight
ĠV ice
Ġanom aly
Ġelect rical
Tag ged
}) ^{-
Ø ¯
Ä ±
m ouse
I Z
ĠPro du
r v
Ġk ne
con sole
Ġpack ages
Ġmoder ate
u its
comput e
ĠO w
5 000
Ġcour ses
Ġdevi ations
ĠT en
j b
Ġdev oted
ĠCamb ridge
^* (\
ĠAp ache
Ġ ell
Ġs le
Ġwith draw
Ġorgan ic
Ġmor al
ĠH um
ĠRe lease
W ORD
ĠA h
ĠO K
Ġac oustic
ĠBer lin
Input Stream
Ġs i
ile vel
Ġm art
ist a
dat abase
b ec
m k
OM E
W he
! )
w alk
ĠĠĠĠĠĠĠ Ċ
VAL ID
id en
P ers
ash i
Ġ )\
}$ :
Ġsol it
Ġhealth care
Ġterrit ory
atter ing
"/ ></
Ġl ang
Ġt ube
Ġanc est
F s
ĠN ative
ĠLim ited
12 2
vis or
'' .
Ġsustain able
Ġg ram
OR K
c od
che ll
Ġro y
at om
Ġsh ips
Ġc oding
gu ide
x ym
ab e
Ġrig id
Const ant
ĠJew s
Ġfunction ality
Com par
Ġrout ine
ma ker
Ġco res
Ġdisc ount
m ill
Ġrect angle
ĠMem bers
Ad min
S en
f actory
te chn
ĠC ell
o a
{- }
ĠAd vent
Ġt rib
Ġperson ally
Ġrep air
M or
Ġlaw yer
ĠM ars
ĠRel ations
Ġimp ose
ann on
ĠH R
2 30
Ġman aging
Ġvol umes
abil istic
ex it
pend icular
D ATA
N orth
Ġin herent
Ġmodel ed
Ġass istant
Ġch ampion
lem an
b inary
Ġglob ally
(" /
pro xy
ĠR O
ĠMass achusetts
Ġst ruck
c as
h ire
æ ĸ
co ordinate
l c
New ton
US A
Ġm oon
Ġparticip ation
Ġconstant ly
sh al
mer ge
Ġsus cept
ĠD VD
Ġlong itudinal
< <
py thon
Ġper ception
ĠH ope
eq q
Ġinter vention
Ġattempt ed
V ec
Ġcom ic
Ġcar rier
ĠM as
Ġch at
Ġleg s
ab atic
ĠPhil adelphia
Ġsingular ities
f m
Ġvari ed
] \\
Requ ired
Ġneg lect
- $\
ĠD rive
ĠTe V
ĠF un
j d
Ġa z
Ġ" $
Y Y
ĠA k
Ġrad ical
f ollow
An imation
Ġre plic
Ġcelebr ate
): =
Intern ational
ĉ ĠĠ
ass ign
Ġpay ments
ĠMon th
do i
Apr il
Ġrenormal ization
ĠP ot
ĠD utch
Ġpl ug
19 2
ĠF ront
produ ction
Ġdec oder
Ġleg it
Ð° Ð½
We ight
, }
Ġreli ef
Ġinterpol ation
re ason
cre ated
Ġcompan ion
US Y
ro ute
Ġad min
Ġc razy
Ġno isy
Ġcard inal
Ġm eth
}$ ~
UT H
sw arm
Ġdo ors
ĠStud ent
Line ar
Ġrank ing
Ġpro jections
+ {\
if i
li a
ang el
Ġrel ate
CT YPE
Ġleg acy
Ġdise ases
Ġweak er
S an
ac les
res olve
Ġrobust ness
N Y
Ġste ep
Ġwind s
' }(
Ġsho pping
th in
Ġinstall ation
Ġchar set
x html
à¤ ¾
d h
v ard
$ }\
Ġphil osophy
Ġfol ks
Ġelectric ity
B G
AR N
Ġvari ational
A lex
n as
l attice
Ġdefe at
Un known
W W
Ġv ital
Ġrot ational
C at
Eng lish
u ate
ĠL as
? )
M ouse
Ġwat ers
$ ^{\
Ident ity
Ġfrequ ent
Ġres erv
NR AS
Ġint ense
P a
xym atrix
ĠG ree
Ġwebs ites
Ġ Ø§
Ġt rick
ĠIn v
ĠOnt ario
Ġt uple
Ġliter ally
Ġsympt oms
Ob serv
cur s
n ik
Ġbeh alf
R aw
ĠCl ark
pred ict
C ONT
3 20
der iv
string s
Ġhand led
Ù Ĭ
Ġe V
Ġca usal
ĠIsra eli
ĠF C
Ġoccup ied
A X
Ġm d
Ġplan es
ĠAnth ony
)} =\
Ġp our
Ġanal yst
F uture
Ġg ang
om as
ĠLO G
}^{ *
Ġst em
Ġdo i
typ ename
ĠF ro
V ID
}) :
"" "
st ellar
Ġgrad ed
op ing
Pro to
Ġpass engers
Ġconsider ations
Ġcoinc ide
}{ !
C LASS
Ġp ic
ĠS imple
i Ã³n
000 1
comm ut
Ed ge
AS K
ĠD or
ĠPr ice
Ġmem ories
Ġperson nel
H y
Ġbelong ing
cor relation
ĠR oom
ick en
ĠWh it
D onald
B rit
M ag
Ġr acing
D ictionary
12 1
or bit
| }{\
ĠF r
Ġreput ation
ocr atic
Ġrem arks
Set ting
C ross
Ġut ter
int ell
WE BPACK
Ġs ed
Ġout line
side bar
phys ics
j ack
ĠS port
@{ }}
ç Ķ
comm un
Str ategy
ĠT ennes
ĠR F
mer cial
ira ble
Ġsy nd
M ut
de als
Ġpol ymer
3 000
ĠP resent
Ġent itled
b oy
T rump
ra ig
Ġconf ident
get Value
Ġdevelop ments
Ġdispl acement
With out
Ġf ract
Ġc able
Ġm ild
ĠB uff
Ġpass age
19 0
19 65
fore ach
Ġbranch ing
IMPORT ED
ĠM other
ber ry
Ġincre ment
opt s
ick ing
ew art
ĠIndust ry
Ġe ating
Comp lete
ĠF ive
Ġweek ly
Ġpres erved
ĠF ant
ĠG ard
m ade
al ph
Ġaccept able
Ph ot
ce iver
he t
is set
Ġfund ed
sche me
qu al
ĠD ragon
Ġgener ations
Ġdram atic
Ġr aces
Ġapprec iate
L ibrary
ĠReview s
Serial izer
Argument Exception
Ġannounce ment
Ġgre y
Ġdwar f
Ġtro ops
Ġmod ifications
ĠF a
ĠL LC
u is
scal ar
iff s
d m
Ġcur sor
B ro
Ġdef inite
Ġb one
ow ed
T ake
ik ing
Ġcy ber
, âĢĻ
umer able
st eps
Ġen code
D er
hom ogeneous
i ology
ĠPolit ics
}. $$
ĠEar ly
A udio
^{ *}
Will iam
/ _
ĠM achine
n an
ĠG M
ĠO k
Ġpay load
ig ious
Ġmethod ology
ribution s
wild fly
Ġw et
Ġcalcul ating
B ad
Ġregular ity
rb race
ĠP ublished
ak h
ĠYear s
M ass
Ġsummar ize
Ġin ert
ass andra
Ġsub graph
Ġqu ote
Ġbal anced
Ġj e
ĠF ound
ĠPort ug
}= -
onom ous
Ġc ogn
cell color
Be an
ĠJ ob
Ġra ising
STR ING
l as
ĠLeg end
Ġ ray
ĠG O
ew ise
ĠK ansas
}} _\
d imension
ps et
... </
Def ine
ams ung
Ġre tain
ĠV egas
ĠAl an
D rop
ĠT ai
ĠSm art
Ġ\ "
Ġround s
Ġaw esome
on ing
Ġdis ks
P ublished
W I
19 64
bu ilt
Ġb eta
Ġg ates
is Empty
q ed
DO CTYPE
ĠV irtual
Ġinv ariants
cl one
Th ank
'] ['
Valid ation
ĠM ount
Object s
Ġt ill
Ġm ath
Ġequival ently
intell ij
Ġd ots
å ħ
** *
Ġsupp orters
Over view
az i
Ġnon trivial
comm ons
Ġcar ries
Ġsuff ering
re ction
Ġb ird
OR M
^ *}
Ġre write
ord inary
Ġport folio
D ue
ĠSe attle
ĠRe ference
R ate
igen ous
Ġdiv ide
cons ist
ĠB or
Ġdeg rad
Ġj oy
Ð¾Ð ²
Ġhouse hold
Ġcur rency
ĠHel p
s ync
idel ity
Ġthere in
ä ½
re ach
di agonal
Ġintegr ating
ĠE ss
t v
ĠRem ove
ĠBel g
z i
ĠT ab
ĠD est
G F
ĠL HC
Ġapart ment
Ġsk ew
Wh ite
ĠN ob
oun ces
Ġinf erred
Ġelim inate
17 5
Ġowners hip
or able
Ġatt ributed
c op
L ie
er k
us r
ĠF ed
ij k
ĠAf ghan
ĠO ak
Ġcons ent
Ġapproxim ated
Ġto x
Ġfarm ers
Ġadj oint
Ġmotiv ation
Ġclub s
g as
oc aml
Ġoff ices
Ġpre liminary
Ġcont our
ĠAb stract
Ġwe ird
en ix
ĠP ed
Ġevalu ating
\" {
Ġtrans mitted
ma xim
ma pping
ĠG arden
Ġvort ex
ident ity
Ġinfra red
ĠAtl antic
] ))
ĠFig s
Ġaver aging
Ġcl imb
cur sor
Ġpod cast
Ġde leted
Ġin qu
{ |\
Ġsimpl ify
Ġst ops
ĠP od
Ġse vent
Ġbre ast
ĠN HS
Ġrecommend ations
Ġmulti plic
Ġde ployment
o ft
ĠM ust
r if
ĠA B
Ġconvolution al
ä º
Ġnec k
Ġb ubble
Ġver ification
Ġgu idelines
Ġsole ly
gl as
Ġmaintain ing
over rightarrow
et ics
Ġinter active
ĠDef ense
Ġcon scious
Ġcomput ers
rem arks
Ġquant ization
Ġwin ners
g ap
ush ing
Ġdecl are
Ġfore ver
s ure
load er
qu et
Ġpriv ile
inter action
ĠStud ents
ĠAnn ual
ro oms
f ollowing
S ite
Ġbos ons
ut t
Ġp or
Ġphot ometric
Ġsynt hesis
pro j
ĠO t
Ġreg ulation
Ġmove ments
valid ation
ĠMark eting
d uration
and al
ich let
class ical
Ġem otion
Ġinit iative
sat z
ĠFin ance
Ġconst itution
do es
Ġepoch s
Ġtw isted
Ġgu ilty
Ġfacilit ate
in ian
ur ious
Ġgrate ful
Ġsear ches
og a
Ġqual itative
ĠI M
' ];
ch ant
ĠW IDTH
Test Case
Ġreason ing
Ġmonth ly
in herit
ĠD ifferent
ĠMem orial
ors es
Ġcol lections
Ġabund ances
Ġf mt
Ġvis cosity
C ounter
Ġcons ensus
ith metic
Ġm s
comm it
ĠMot or
C ould
Ġg aming
Ġcompet e
s pl
ĠL ater
T ransport
Ġw alks
ur is
Comp iler
W arning
ĠCon stitution
Ġt mp
v dash
ĠYou th
ĠIl legal
system s
at able
}) ^{\
Ġ\\ \
Ġspec ification
Ġover head
Al gorithm
ĠS in
ĠPhys ics
Ġtom orrow
G EN
ĠS oc
DB LP
Ġincorpor ated
r ates
_{ {
Ġman agers
Ġast ro
ene z
Ġcharacter ize
A U
if iable
å Ĳ
L U
Ġsp ark
est ure
Ġfin ance
I EEE
clus ively
sing ular
Ġwh ilst
Ġover flow
R PC
Ġper missions
Ġdocument ary
Ġv ocal
ĠCommun ications
ĠV i
H I
f ish
Ġsupp ress
P DF
d ynamics
Ġ ions
ce q
Ġref used
ĠReg ional
arg uments
Ġwed ding
b es
Ġb ull
uck s
ĠN AV
Ġmass less
Ġme at
Ġco q
Ġrul ed
St atic
ĠP O
Ġrepresent atives
ĠSchool s
Ġs alt
Ġdesign ated
ĠW inter
Ġsp ont
Ġp c
comp ile
ĠMal ays
ĠC hen
geq slant
as ion
ĠR ound
book s
ĠCoul omb
Ġhead ed
ĠPh ill
\, $
ĠO P
Ġcomp rises
ing ers
ĠK y
urs or
Ġinteg rate
ĠM ock
ta king
out ing
ol ph
abet es
Ġkit chen
ĠC ele
ĠS ud
AN S
Ġasymptot ically
Ġres p
asc ular
P resent
Ġj unction
pre p
Ġmod elling
)$ }
Ġsubstr ate
Ø ª
Ġoff ensive
}} }}
att ices
Ġann iversary
algorithm ic
ater n
Ġmulti plicity
Ġarchitect ures
Ġrare ly
; )
Ġsat ur
O w
Ġm ad
ia h
Ġtalk ed
UR N
Ġconnect ivity
ab stract
MO DE
AM ES
elect ron
Ġreview ed
D U
ĠN orm
qu arters
ust ain
Ġnot able
ro se
Ġst uck
ellig ent
Seg ment
â Ħ
Ġvis ibility
Ġdifferent ly
\\ [
m art
un ches
V s
L M
ĠExp ress
ma ils
K n
C ity
B IT
the ir
ĠAust in
Ġexpl oring
Ġob lig
ĠMc G
Ġsp ots
OL D
ĠO regon
Ġcl im
}) }{
ORD ER
Ġt et
ĠF ight
Ġmeas urable
ĠG all
Ġeas tern
form ula
}\, ,
itar ian
> :
# {
C r
ĠClear ly
ĠRev olution
dest roy
A z
Ġs ocket
e igen
Ġag ed
Ġn ations
De ep
L ow
che stra
Ġchild hood
Ġt ur
Con clusions
d river
IO Exception
Ġ Ñģ
b et
ĠÃ ¢
cl ock
ĠD ick
L arge
Ġrestaur ants
t l
S B
ĠY an
represent ation
Ga ussian
) _\
ĠM organ
Ġte a
Ġ ul
Me V
Ġgovern ments
od ic
Ġp ace
R M
66 66
Ġret ired
() ),
Ġspirit ual
14 5
% $
semb les
ĠĠĠĠĠĠĠĠĠĠĠĠĠĠĠĠĠĠĠĠĠĠĠĠĠĠĠĠĠĠĠĠ ĠĠĠĠĠĠĠĠĠĠĠĠĠĠĠ
mark et
valid ate
Ġgl ad
Ġprote ins
Ġp ub
m ates
writ ing
Ġreconstruct ed
ĠSwed en
Ġg amma
)) =
Ġc ertificate
ess ed
Ġlog ging
> )
ĠCh ap
qu estion
ong o
ar ound
ra pe
V C
ne ed
Ġj ack
/* !
del ay
he ro
Ġ\ )
Ġg ent
RE SU
numer us
Ġcomp ound
ĠG T
Ġfilter ing
rb an
l ad
numerus form
b inding
as ant
ar atus
Ġo ct
ir ty
ĠB ond
Ġhe x
ĠOut put
J o
Ġadd itive
stit uency
Ġcurrent s
h uman
Ġg aps
NS String
S al
Z one
W ord
}} ^\
J ames
ĠT arget
Ġt y
Se pt
US ER
p iece
Ġsign ing
L ONG
Ġvis its
ib l
ĠAdd ress
M usic
Ġcompr ising
ĠIN TO
u h
flu x
^* _{
ĠTh read
Å ¡
Ġp ip
ess ment
/ "
Ġexperiment ally
Ġinterview s
ĠP ier
ĠL ev
Ġrespon ded
ĠProte ction
Ġt weet
Ġb g
link s
ĠT otal
Ġl ibraries
Con sumer
ot hes
g ue
M al
ink ing
Ġview ing
t ok
amp ed
Ġprotocol s
Ġfavour ite
res olved
p ages
ĠG h
Ġ[ -
ĠI o
F eed
Ġvoc als
sh are
Ġbehavi ors
Ġmod ulation
Ġult imate
Ġcomplet eness
w iki
ĠT a
Ġatmosp heric
Ġm ac
s ent
ĠJ enn
colon eqq
E SS
Ġexpert ise
Ġor ange
Ġover whel
Ġsing ing
Ġthreat s
Ġ_ ,
s z
Ġsoph istic
0 10
ĠHow ard
pe ople
Ġinflu enced
ĠAl liance
m ir
Ġe ccentric
ĠL ane
Ġdrink ing
List en
cos ystem
olog ists
Re lease
A ST
al gebras
j Query
). $
cor r
Ġarbitr arily
cess ion
Ġdesign er
ĠW olf
Ġnucle us
rec ated
Ġhit ting
ĠN eg
ĠJon athan
D river
M NRAS
ĠF act
it ian
Ġselect ing
C md
Ġaccept ance
Ġvir us
ĠC SS
um ar
Ġaccompan ied
ĠM un
Ġstream s
ĠMar vel
Ġt act
Ġgradu ate
ĠD omin
Ġast ron
Ġdi pl
dis k
Ġshort ly
ĠTra il
Ġf i
at in
fra id
section s
a verage
ĠL ipschitz
Ġp iano
G Hz
ug by
\ `
vers al
N L
Ġmes on
P ad
ĠV in
ĠD OM
ĠE M
op ol
el ve
ĠVol ume
12 9
Ġresc ue
Ġc ock
ĠT rib
ed ing
Ġfeel ings
print ln
oc he
INS ERT
Ġto wer
de cor
Ġv ib
Ġutil ize
ĠW ard
Ġprint ed
Arg uments
ĠC ow
ĠWe yl
ĉ ĠĠĠĠĠ
M en
ĠÐ ²
ĠP T
2 25
ĠPol and
o i
au er
Ġmagn itudes
19 66
Ġadjust ed
Ù ĩ
ot er
ern els
Ġfactor ization
Ġredu nd
Ġgra in
under brace
B ur
ĠN othing
Ġt uning
Ġhard ly
Ġfranch ise
Ġup grade
ĠPri ze
ke ep
Ġpat ches
ĠSt ories
ĠAg reement
Ġs ql
ĠEx change
wit zer
Ġin cent
ĠThom pson
Ġev olved
Ġpass enger
ĠP E
Ġconstit u
est ions
ĠD un
Ġviol ent
ph ones
tr l
Ġdes per
Ġsubsc ription
or ce
ĠS ales
19 30
ĠPer haps
ath y
int endo
Ġexplo it
ĠS ect
Con structor
ĠR ule
p ension
Ġpush ing
ov en
te ch
ss l
ĠInd ones
Ġmyst ery
r uby
Ġsqu ared
scale box
e u
Ġdest ruction
Ġturbul ence
less ly
T y
Ġcor ruption
Ġd ictionary
_{ |
ram a
Pro b
ĠK r
ĠR andom
ĠT alk
Ġstri king
equ ilibrium
s it
Ġhyp ers
Ġoptim ize
rest rict
Ġconsider ably
sc ience
!! !!
p ad
b undle
un ion
ĠWalk er
Ġrest ore
ĠI ter
) )$,
Ġt sd
C enter
Ġrul ing
ĠD al
st ory
osp here
B atch
Ġqual ified
Ġdiam ond
Ġc f
n ced
TR Y
S un
Ġarrang ement
Ġqu bits
Form er
RESU LT
ĠC F
et ric
Ġpo etry
Ġevolution ary
ĠB esides
Ġthermod ynamic
ĠPerson al
V R
Ġamong st
L ife
ab ama
Ġtra ins
ĠH old
m atic
ĠS Y
Ġed ited
bal ance
Ġvari eties
imp ro
Ġrec ur
Ġan not
Ġaggreg ate
am an
Ġbond s
ang a
Ch apter
Ġmusic ians
ph rase
ĠD allas
ĠCast le
Ġext rapol
Ġpaint ing
s amples
Ġdiff ers
Ġp ion
ĠH ung
fair biz
fairbiz deals
D s
ut ers
R ANT
cont ents
Ag ain
ĠG ordon
A f
Ġcere mony
ĠK han
pre vious
Ġs orry
an cer
su pset
ather ine
S elf
ĠLin coln
Ġpubl ish
] }$
Ġg athered
Ġcommun icate
Th row
Ġplan ar
Ġrot ate
Ġlabor atory
Ġb undles
ĠE uro
f mt
ĠS oviet
ĠM ach
ĠN ation
A IN
Ġper pendicular
ke e
da pt
ĠKore an
ĠFe ature
Ġpres erves
ĠAd S
Ġpropos als
witzer land
Ġpartition s
> ;
Ġsub stitution
ĠS hi
Z ero
h istory
em ed
Ġconf usion
Ġas c
ah oma
="../../../../../../ ../
ĠD ur
ĠC ou
hy thm
ĠComput er
ard o
fe atures
sc an
ub er
Ġinitial ize
ĠL iving
Ġassert ion
Ġdifficult ies
raise box
ĉĉĉĉ Ċ
FI ELD
Ġde veloper
App end
ĠH ell
Ġbound ing
ĠCl aim
ure r
Ġthread s
Ġmem brane
Ġtack le
is cal
sh a
ĠH ost
Err ors
ĠB us
ĠAn aly
ĠAtt orney
v ity
Ġsp iral
J ul
win ning
b oot
Ġde ck
Ġtra p
degener ate
Ġco arse
G old
A SSERT
ced ure
ĠCo oper
d dot
en h
ĠTh ank
R o
ta h
Ġincor porate
ĠOption al
Dis cussion
m ot
i ations
ĠB orel
ĠLin ux
p al
Ġredshift s
Or gan
i pt
Ġdist ant
trans action
Ġcolle agues
Ġs aving
ser vers
Ġinter faces
weight ed
cc a
L u
ĠE val
19 20
st rip
ĠL am
pl er
Ġexcit ations
Ġgradu ally
Sh ared
ig s
Ġto w
RE S
ĠPlan ck
V IE
Ġcoun sel
m ust
| }\
in verse
Ġl unch
ent ropy
Ġapp endix
Ġperson ality
S K
Ġg ear
Ġsu ite
19 40
Ġj u
-- \
m essages
Ġneg lected
dis able
ĠF ast
Ġstructure d
L ive
Ġan xi
Ġhom ology
Ġinsp iration
)$ )
Ġ( .
Ġpresc ription
Ġh ang
ĠMay or
build ing
ĠS audi
construct or
ar ance
Ġfac ulty
ars ity
w arn
Ġdis aster
Pro f
ĠG un
Ġvulner able
Ġp uzz
Ġpubl ishing
ick et
H ig
ĠP as
Ġout lined
13 7
claim ed
ãģ ®
ĠR s
Ġthe atre
Ġpro to
Ġas semb
Ġens uring
W allet
ĠG ray
ĠB udd
ĠL iver
in th
.\ ]
ĠDu ke
Ġdistingu ished
" },
En v
min ute
HE AD
direct ory
Ġgovern or
oun ters
h op
id o
ĠDe an
Ġball s
Ġre ven
Ġgun s
riter ia
Ġingred ients
Ġt ort
Ġdefe ated
Ġv ic
Ġar rows
reed y
spect rum
Ġsm ile
SS ION
ag u
Ġliter al
Ġinf l
Ġsim ulate
dat aset
Ġcritic ism
i w
Ġutil ized
h ill
}}{ (
FF ER
ĠI ce
Ġf ed
Ġrepeated ly
Ï Ģ
g oto
Ġ{ },
Ġoccur rence
ĠI ron
necess ary
ust ers
ĠAuthor ity
F ac
Ġt ie
V P
Ġth ro
R F
Ġground s
Dis c
Ġb read
ĠE ag
Ġchampions hip
v g
Ġmist ake
Ġdetermin ant
Ġd owntown
B ottom
J ac
Ġbare ly
Ġg ran
Ġneur ons
Ġl oud
ab ul
am ents
Ġmot ions
Ġprov ince
T yp
ĠH ero
ĠCol umn
Ġindu ce
âĢ¦ ]
ĠWAR RANT
}) ,\
Ġanisot ropy
ric ks
ac ht
ĠSing le
W ar
sub mit
Ġp ending
itt en
Ġcompens ation
bar a
^* ,
ad apt
15 5
ĠN BA
part ition
pot ent
}, $
Ġent rance
Ġbrother s
Ġtransl ated
Ġcomb inator
p kg
ah n
]] ></
a is
ĠM agn
Ġde form
^+ _
ĠV iol
Ġimplement ing
ĠAl f
Ã© e
ĠP sych
ĠF lo
nu cle
c atch
Ġrecommend ation
ĠBas ic
S am
ĠE C
Ġb ucket
no align
iz ard
Rend erer
Ġvot er
ra ctions
ĠB ull
Ġpres erving
Ġd ating
ĠC u
ĠA F
ĉĉĉĉĉĉĉĉ ĉĉ
Ġimm igration
Valid ator
Ġt ale
C red
00 3
Ġcompar isons
ĠN ev
Ġhighlight ed
period ic
Ġdef ensive
Ġh ill
N ever
Ġob sc
Ġev olve
Ġ" ";
assum ption
ĠD etails
man y
ĠStud io
ur istic
rag ma
Ġform ulated
13 4
rot ate
Ġdis able
Ġbary on
Ġfra ctions
Ġ' ';
C ost
Ġden ied
Ġse cre
Ġr ub
Ġlock ed
). \
gener ic
ĠBru ce
ĠW ang
Fail ure
r ceil
Per iod
ĠEnvironment al
ĠSp irit
nav igation
Ġl uck
act ing
Col lect
Ġp overty
ĠDet roit
n ative
Ġres ist
ĠA BC
Ġwar rant
Ġback ward
Pe er
RE T
ĠF isher
13 6
S plit
Ġimportant ly
Ġdec ou
L and
Ġb ot
load ing
Bl ue
as is
Ġd ial
In sert
ĠPl ayer
âĦ ¢
Ġorgan isation
Ġin ev
Ġe c
ac ies
Ġun e
ab a
Ġle pton
Ġ' ''
13 2
Ġch unk
ĠAnd y
Ġa xi
ĠDat abase
associ ated
Ġf aint
ĠP U
Ġj azz
Ġb orrow
ĠB ron
ĠTennes see
it i
o ys
ĠAr gent
Ġag enda
u psilon
ld s
Ġcal endar
p ing
Ġple ased
Ġabs ent
. :
rac ing
al ert
Ġs ync
ynam ical
ĠâĨ Ĵ
ri ent
ĠD im
J ack
ĠB ible
ĠChrist opher
ĠPlan ning
Ġch ap
Ġ} (
rid ges
ĠArch ives
ĠD oc
N orm
ĠIm port
G rad
Ġst upid
r ules
Ġpre t
Ġemphas ize
Ġt idal
Ġinvestig ations
Ġ$\ |\
Ġimpact s
Ġinn oc
ĠH ug
19 62
ĠC MB
ĠSe veral
ud ge
ĠP ad
Ġcr imes
Ġpres um
Ġcomp eting
G ui
ĠN ik
ĠJud ge
he alth
And roid
ĠB lu
Ġsh rink
Ġst ere
R ot
Ġd ose
Ġprefere nce
he art
ĠF low
gener ate
l ag
Ġpart ly
S at
ĠAct ive
Ġdecre ased
Ġstrength s
Ġup grad
Ġarray s
Ġall Classes
Ġconserv ed
hook rightarrow
Ġdesc riptor
am er
AT OR
Ġret ro
tr ation
ĠL L
Us ers
Ġt ips
m icro
Ġdiff e
ev olution
Ġanom alous
fit ting
Ġflo ating
ol en
ĠMat thew
Ġan notation
Ġ" ",
$ ~\
W M
),\ \
B a
plic ial
ĠOlymp ic
st an
ĠM ilitary
ĠMat hemat
å ¤
I mm
ĠallClasses Link
Ġsix th
Ġburn ing
iv a
19 63
Ġatt itude
Ġdem ocracy
ĠPhilipp ines
l on
Ġmil k
Lo op
Ġhad n
sc ar
C ulture
D im
Ġcov ariant
Ġher itage
ĠC ape
Ġspeak ers
Ġ" %
Ġch amber
Ġoscill ation
s ymmetry
column s
Ð ¿
Ġdissip ation
Ġl oves
med ium
f erm
read er
Equ ation
dec ay
Ġ' ',
Ġm ile
Ġoper ates
Ġph rase
Ġlimit ation
2 24
count ry
Ġinteg rable
Ġoccur ring
Ġref resh
UN T
Ġb es
m itt
Ġd ad
ĠSt ars
ĠAssum ption
li est
fl ush
Des ign
Ġeng ines
act ual
=" $
anc ies
ĠCon text
I LL
Ġa uth
dot ted
ĠFor um
ĠJ oh
}) +
ĠMc K
aud io
LO W
Ġlet s
\% ,
verb atim
Ġt une
ĠViet nam
Ch ain
Ġa fore
z ym
ore r
Ġsett led
Ġconf lic
hand ed
ĠÐ ½
So ft
Ġun changed
Ġche st
( (\
Ġk ernels
Ġtransform s
ĠQueens land
ĠM ission
s om
log o
Ġinit i
Ġdo ctors
SCR IPT
Ġf s
ĠMean while
G roups
ilton ian
at ers
Ġpredict s
Ġf ishing
Res olver
Ġm as
Ġel abor
sup ers
ĠR ot
Ġpri ze
W in
Add r
Ġopin ions
Ġpair wise
ĠAg ric
G H
ĠLeg al
Sm all
od o
ĠB lood
ĠM ess
iv o
t oc
ĠR u
Ġk pc
Ġjournal ist
ĠÃ ł
ĠSh are
ffic iency
Sign ature
ĠS olar
ĠSt age
Ġcontroll ing
ĠUs ed
ĠM R
Ġint rig
: @"
add ed
Ġshould er
ĠF ather
ĠPl ant
Ġc asc
Ġp urs
S ever
Ġsupp ression
Ġdriv es
Q CD
ĠR M
ĠPe ace
@ {\
ri ber
LA Y
ĠF M
Ġprot otype
F UN
l vert
ĠH ills
I J
ĠM i
Ġcross ed
ĠE dd
ĠY uk
ĠCl imate
Ġflex ibility
Ġanten na
ho enix
'] );
ĠNAV BAR
} '$
Ac cept
Ġadministr ative
ĠRuss ell
trans fer
RE CT
im ir
ĠR ober
Ġminim izing
sp ired
ĠB alt
ĠĠĠĠĠĠĠĠĠĠĠĠĠĠĠĠĠĠĠĠĠĠĠĠĠĠĠĠĠĠĠĠ ĠĠ
Ġpreced ing
ick ets
Ġp ione
Ġres ident
e ast
Ġd ump
In ner
ĠL em
Ġ$ _
ĠAng el
Ġgr ants
0000 0000
B inding
Aust ral
Ġad s
à ®
Ġp sy
Ġpublic ations
ĠI F
ĠL ang
Ġmole cule
ĠUk raine
ĠBe ing
Ġattack ed
Ġs hed
an ne
Ġ* ,
Ġap ilevel
Ġsh it
m ate
ĠQu ery
Ġill ness
ÂĢÂ Ļ
Ġl ip
ĠE DT
Ġman ually
Oct ober
' },
l ceil
ĠRes ult
Ġtrac es
re act
for Each
ĠN i
ĠIndian a
20 2
Sc an
Ġun w
Ġmod al
Ġl ov
Ġr anks
L iving
Ġprodu cers
Run ner
ĠSing h
Ġn ut
Ġsc ulpt
n amed
Pl atform
Ġ um
L em
A ir
Ġt d
ke V
an im
ĠC OL
Ġencourag ed
Ġco operation
ract or
cho ice
Us age
Ġdiagn osis
item pty
Dep th
_ )
label s
ol o
getElement ById
Ġpol es
Ġrepl ied
GB T
om itempty
Ġh az
ur d
." ""
head ing
ĠJ ess
B u
RA Y
G N
ĠH it
Ġ( âĢľ
g un
Ġdiscuss ing
li ver
let t
Ġde cent
ct ic
Ġt ar
Ġreli ability
Ġin hab
Ġcapt ures
bran es
ĠC lick
Â ·
$ ^\
H M
Ġel if
x sd
ĠA LL
Ġliber al
Ġc ited
ap olis
Ġcor ners
Ġsurround ed
ĠCau chy
ob tained
f etch
cl s
append ix
Ġar ranged
with in
Ġal ias
uls ion
R obert
Ġt ape
Ġcontribut ing
Ġ rib
ill ance
Ġca ps
Ġrefer ring
Ġa fraid
ĠHer itage
pl acement
sign al
app y
Ġsc attered
ĠT aking
Ġdis contin
Ġthem es
Ġtyp edef
ĠParliament ary
ĠPrem ier
AT URE
M essages
Mon th
Ġconstruct ing
App endix
IL D
Ġqu oted
Ġexp ans
}\, .
ĠL ess
assert True
Ġregul atory
)$ ;
ĠE R
ĠE ver
H P
ĠS ac
A W
ĠRead ing
}} -\
Ġillust ration
Ġhar vest
Ġex clusively
po inter
ĠS ri
Ġpropag ator
Not Found
ĠV ery
Ġaccount ing
Ġhierarch ical
che m
Ġple asure
ĠWork ing
h ots
Ġobject ives
ĠBow l
Ġtra pped
ĠWith in
N V
en ario
B usiness
B ounds
=\ "
Ġint ellectual
e or
T L
Ġg olf
sp acing
16 5
E urope
ĠD ise
Ġbin aries
A ggreg
Ġreg imes
V irtual
Ġter rible
Ġconc aten
t ransport
Ġsu pre
Ġcon g
ĠĠĠĠĠĠĠĠ ĠĠĊ
Ġex clude
Ġval ued
Ġv it
CO MM
an imation
Ġg raphics
Ġ& -
ĠD ance
à ¬
ĠFig ures
An aly
Ġpredict ive
Ġbirth day
Ġlight ing
aren cy
Ġmob ility
uc lear
ĠT i
p od
D etail
Aug ust
Ġcl one
Ġcap ac
Ġed iting
ĠVill age
Ġs ys
Ġres ort
ĠRef s
Ġsk etch
Ġt u
Ġdoll ar
ĠSt ein
Ġcomp iler
iss a
Ġacqu ire
ĠConfig uration
b ridge
Ġsuggest ions
Cor ollary
oriz on
Ġdesc riptions
ount ered
ros so
Ã© s
Ġstr at
ivers al
cm p
Ġevery body
Ġdimension less
Ġl ake
the ore
Ġco herence
G W
PRO JECT
W el
ĠB ody
)} }\
k ar
Ġen abling
Ġchair man
.\ ,\
ain ed
}$ &
ogene ity
riv ing
ĠR and
set ting
Sh are
Ġl oyal
"> (
top ic
Ġb io
impl ies
ĠI owa
LE S
ĠP erm
Ġcyl inder
le ad
p ent
M AN
Ġw rapped
maj or
im ore
ĠB ureau
× ķ
Ġt orsion
ĠOffic ial
ann ah
Ġapp aratus
pro ve
b ian
ĠD IS
Ġal le
Ġad missible
ĠAn ne
mid t
Group Name
Ġafore mentioned
LE MENT
et erm
ow s
all ing
ĠIt em
C ursor
exec ution
ĠOlymp ics
ĠSu ccess
Ġachie ving
s leep
Ġfix ing
ĠÎ ¼
ĠP D
Ġinvert ible
Ġdivis or
Ġdel iber
C amp
L ead
out heast
Ġp ra
ĠD J
Ġsubt le
B er
ĠE D
k ish
de precated
Ġless ons
Ġif f
ĠB ah
rack ets
Ġemer ged
re ma
ed a
)\ ;
orient ed
Ġin version
PAR AM
ĠAd ams
plac ian
Ġcont ributes
ank a
ĠG PU
ĠMar ia
ĠD raw
MM ARY
kw args
Ġtriang les
Ġent ers
re ng
Ġcomplex es
Ġtrans ient
ze ch
ĠWrit ing
Ear ly
19 61
16 6
ĠR GB
Dep recated
Ġle ver
ĠA U
Ġestim ating
ir ts
Ġbroad er
Ġintegr ity
rop ol
Ġindust ries
16 8
Ġst roke
S eries
}{ -
ĠPhil ip
Ġb rane
id ge
ethe less
ĠM ort
ator ial
ac ular
Ġpar liament
Sh ader
Ġfit ness
* }\
Ġfor b
Ġde leg
ĠR oute
T asks
B ool
Process or
ĠAtl anta
en o
per formance
lic ense
-> ]
ĠNiger ia
}= -\
Ex amples
en vironment
Ġsn apshot
H tml
Ġland ing
g auge
Ġm ice
Ġ$ ^
Ġdeploy ed
Ġbl ame
ur ches
Ġold est
Ġpars ed
. ),
Ġc ry
ap or
Ġsophistic ated
Ġin ches
ĠJ S
for ced
Ġexplos ion
C HECK
p aramet
ash ing
F our
7 50
ĠS now
run ning
ĠK it
Ġle ak
19 45
Ġt elescope
sc ss
ĠVAL UES
Ġdis pers
Ġnot ations
Ġen orm
ĠAr thur
ĠCent ury
est abl
H a
xim ity
IC ATION
Ġport ray
A O
Ġuniqu eness
ubl isher
ĠId ent
Sim ilar
Ġz eros
ĠN P
T aking
ig rate
L ag
ordin ates
Ġcook ie
ical s
Ġax es
Ġm im
Ġg a
T imer
kl ahoma
M apper
Ġincred ibly
ĠVis ual
ĠDown load
ĠS witch
Ġsc ream
Ġint ra
ge o
ere my
if old
ens en
ĉĉĉĉĉĉĉĉ ĉĉĉ
Nav igation
ĠBuild er
ph ony
cal c
j an
Ġs b
Ġcl othes
W arn
ĠI de
t uple
Ġautom ated
ĠB run
A SS
ĠP ast
Ġtext s
' ^
2 80
Ġw rap
Ġin herit
Ġiter ator
ĠL arge
prop ag
Ġem itted
Ġarm ed
Ġfem in
Ġgenu ine
Ġcoupl es
' }{
at z
100 00
r vert
ĠWe bsite
_{\ {
ab ases
Ġar ithmetic
ĠP arent
Ġslow er
ou ver
m v
Ġfil tered
Ġconj unction
awa ii
ĠK E
Ġinitial ized
Ġmark er
Ġcont ours
Ġsign atures
Ġnov els
Ġroll ing
2 60
/ $
|\ ,
Ġ" >
poss ible
yn man
ob i
sur ance
d g
Ġfre ely
Ġtrig gered
Ġsqu ee
ĠH u
the o
ace ut
ĠG ram
Ġad i
ic he
ĠOper ation
d w
ĠS FR
">< ![
ĠTerm s
Ġle pt
Con sole
Ġcomp ounds
ĠGree ce
ĠCon vert
ac o
ĠSD SS
ryst al
Ġly rics
cur l
Ġelig ible
, $$
respon d
K it
ĠUn like
Ġchar ity
Ġmetall ic
ĠS ize
g ical
t re
amb ig
prec ision
ĠMel bourne
Ġinject ive
P OS
el ing
Ġun con
ĠN ear
Ġlux ury
ĠA qu
ĠP ap
Â »
14 7
H older
Ġdiscrep ancy
ul ates
Ġpopular ity
Ġp ec
13 3
Ġneighbor ing
Ġcour ts
ĠK o
end ant
ĠChar lie
Ġsort ed
": "
ole cular
Ġtravel ing
L aw
ist ered
B uff
Ġc ensus
ad joint
Ġcelebr ated
mem bers
Ġprepar ing
om ed
Ġvolunte ers
P et
Ġb ipart
ĠS ant
de cre
f ers
gener ator
Ġcomplement ary
Ġdec oding
ĠI an
ph oto
w estern
Ġseem ingly
æ ķ
Ġe cosystem
Ġpolar ized
Ġbackground s
am ount
ield s
Ġconst rain
ache lor
F un
Con vert
Ġcol ored
Ad v
F ar
LE D
Ġansw ered
Vis ual
Ġo mitted
ĠRes erve
hedul er
ut ies
ĠDE FAULT
S G
andid ate
App ro
Ġext ensively
ĠPro p
b ranch
Pro blem
ĠM N
Ġv m
second ary
'' $
)) ^
ĠWork s
qu er
Ġper mitted
Ġsequ el
Ġin clusive
ĠM yst
Ġinvolve ment
est imate
Ġ" .
hel le
le ased
arc sec
str ument
Ġalloc ated
Ġenc ountered
Ġhuman ity
Ġconsequ ently
! }
Ġr ally
ĠTe le
ĠH ous
ĠRiemann ian
)- (
pr inc
Ġj ail
ĠS witzerland
H o
ĠS end
en code
to o
s ized
be am
O H
Ġorgan isations
ca pt
se gment
iv ot
is an
Ġh ip
= %
Ex pected
rel ativistic
. ][]{
est im
Enc oding
}: \
ĠT ry
ific ant
ĠG as
Ġemphas is
Ġmet ers
Ġconduct ivity
Ġcomp atibility
Ġmaxim ize
Ġminor ity
Ġlens ing
Error f
Ġ( {
ĠB art
Î ·
Ġw elfare
Ġan th
è ¯
ĠC ome
ĠG Hz
V ICE
ĠBre xit
er ious
)\ |_{
]{ $
Ġturbul ent
14 3
Ð° ÑĤ
Ġs lic
/ ">
H ook
ĉĉ ĠĠĠ
ĠH AL
Ġsp acing
ig roup
Ġdream s
ĠChair man
Ġoutper forms
ĠR ank
M achine
ĠW y
ĠRes pon
ĠKe ep
D ig
ract ing
Ġdefect s
V AR
y outube
ĠSt op
ĠElect ric
ĠJ son
S il
Ġ ãĤ
Ġcent uries
Ġreason ably
Ġn ested
ĠS cal
ĠL abel
Wh ich
Ġsyn tax
ĠG ary
Do es
vari ables
T ri
Ġt ies
Ġnob ody
i u
E nergy
S ort
Ġimm un
Ġmus cle
Ġretrie ve
: #
Ver ify
00 7
sh aped
ĠR ain
c ancel
Ġgeneral ize
Ġ' .
ah ler
Ġclass Name
ran ger
T ouch
cou pling
Ġconf ront
integ ral
Ġrat ings
z ed
Ġsu icide
class Name
Ġneighbour hood
ĠG C
un known
! (
ĠD I
ĠMar ine
ĠH im
40 4
L IST
Ġphot ometry
ĠR ace
G reat
H aving
Ġf older
Ġinter pre
ĠC ould
sq cup
ex istence
Ġpl acement
Ðµ ÑĢ
Av ailable
ĠD L
ve ction
t u
ĠBre ak
Ġf ought
ĠH IV
... )
Ġinitial ization
ĠIn ternal
Log in
ĠH aving
ĠD ays
ĠAl abama
ĠV o
Ġoccup ation
ff f
Ġconcent rated
m ov
w ould
Ġcell ular
ĠCam eron
Ġanalyz ing
| $.
ĠH ans
Ġch ances
ĠP i
ĠKent ucky
Ġf li
Ġrele vance
ĠEn c
ĠT yp
ĠBe aut
al go
Ex port
other wise
Ġl ag
Perm ission
m obile
ĠW oman
Ġpack ets
Ġadequ ate
Pre v
c z
ĠM atch
am ine
f ather
p ars
ĠMary land
Ġver b
Ġfor um
Not es
}} ;
un ks
Ġreson ances
ot ive
Ph ase
Ġrem oves
Ġ( #
ri ors
Ġdelay ed
Ġsem antics
Ġsp oken
i q
p k
ĠS eg
eli very
ĠGirl s
ari ju
., ][]{
ate way
00 4
c red
v ac
ĠU C
Ġsuper vised
re pository
Pol y
Ġprem ium
Ġsubst ance
ĠVAL IGN
Ġinf initely
Ġau ction
s burgh
ig a
Ġprom otion
ĠBrook lyn
ĠClass es
ĠAp pe
u ct
ĠG il
ĠJ e
Ġoff ense
ariju ana
ffic ial
Ġlat ency
_+ $
Â Ń
n ie
Ġins pection
he x
Ġmon omial
Ġfermion ic
get Instance
Ġinvestig ating
ĠN ic
Ġconcent rations
Ġcontrovers ial
Ġunivers ities
ĠIndep endent
ag ain
Ġtr ump
^ -\
Ġion ization
Ġe leg
st ock
99 9
m ount
ĠL I
AP P
LA B
> "
b v
ĠH ubble
}} %
Ġspeed s
19 59
Ġl ucky
Ġk iss
ĠAdv anced
C ategories
her s
ĠUn less
ĠDub lin
j ax
in ant
ĠS SL
leg es
Ġland s
Ġoscill ator
Ġvirt ually
Ġsol ver
Ġenter prise
ad just
Ġcon form
L ib
Ġrend ered
ĠW W
Ġstreng then
á ĥ
gener ation
Ġtown s
D ynamic
yn olds
level and
math rel
or ange
ĠSt ewart
Ġval ley
Ġph ones
R ay
ĠM IT
Ġsub groups
ĠS EC
Ġan onymous
Ġa pert
Ġdef ence
ĠDe lete
bas is
w ere
Named Cell
ĠC over
b ol
Ġch ip
Ġvo ices
ĠPh ase
Ġtra iler
oc hem
ric ane
Ġgo ogle
d ale
{ }\
vent ions
Ġeng aging
g ly
ig ator
n od
Miss ing
Ġcl ause
AT TR
Le ave
Con tains
Ġpo ison
ĠK ate
Ġstat istically
or o
lu x
T I
Ġdep ression
ĠDel hi
L IN
Ġ$ %
ĠGra ham
Ġaltern ate
C ALL
g al
Ġdiscrim ination
Ġengine er
c rit
ĠM B
ia o
ĠM ind
20 5
Ġreson ant
Ġprob abilistic
Ġdist inction
IN ST
m ers
UR CE
Ġsupp lies
ift y
ir ates
Ġde legate
ĠCons ult
Ġspat ially
harm onic
part s
ut o
Ġact ively
ĉ ĠĠĠĠĠĠĠ
ph abet
H ard
Ġle an
Ġannih ilation
B ra
i op
ĠPolit ical
N ov
15 2
look ing
im uth
pt ic
N s
Ġ rays
ĠIss ue
on ically
Cont ract
Ġrec ru
anc ouver
ĠA udio
ser ting
att ed
}$ \\
Ġprogress ive
. \,
Ġtim estamp
ĠF ried
ise cond
Sept ember
comp ose
inc ar
c x
pl ots
Ġiter ative
ĠJust in
c ir
Ġ{ (
Ġestabl ishing
Ġinsert ed
pos al
Ġres cal
Ġmain stream
Ġr am
h ind
N F
ĠT itle
Ġspeak s
Ad S
Ġf etch
Ġ< -
ĠF ly
ĠO wn
U pdated
ĠMem ory
rg b
ur ities
c in
Serial ization
ĠMur ray
Lear ning
Ġcounterpart s
Ġlong est
Ġrob ots
approxim ation
| &
ge on
Ġch ronic
ĠU TC
RE SS
Un iform
Ġtit led
p ragma
Ġ' %
Ġpre val
min imum
tz mann
Ġf est
55 5
W ang
ancell ation
ink s
O O
ĠF ederation
G al
Met rics
C are
Ġsc reens
ĠT ogether
Ġst iff
Res earch
ab ol
Ġmodul o
Ġhe li
ul k
stat ement
Ġdamp ing
Ġcomp iled
allow ed
13 1
Ġdig it
Ġbr ut
ĠF BI
Ġsu gar
get String
Filter Database
Ġassert True
^* $.
ĠN ichol
SS M
path s
ĠCor p
neut ral
ĠN elson
cal endar
ĠNet flix
}{ .
IL ITY
de velop
ograph ical
ĠF ollow
ĠN um
enc oding
Ġnucle on
z h
Ġspectro scopic
ĠO cc
Ġep ic
}: =\
Sec ret
Ġb racket
ut orial
Ġmin us
Point s
p riv
Ġ= &
t ouch
Ġprior i
iv an
Ġindic ation
ĠPol y
Ax is
in ely
L iteral
Ġmorphism s
B ay
ett i
ad v
ĠDir ichlet
ĠĠĠĠĠĠĠĠĠĠĠĠĠĠĠĠĠĠĠĠĠĠĠĠĠĠĠĠĠĠĠĠ ĠĠĠĠĠ
Fe atures
ĠRob inson
k now
Ġunder go
rape ut
ta ken
May be
Ġres erve
ĠEx amples
ck er
ĠW R
Ġex terior
ãĤ Ĭ
T AG
(" %
N eg
id i
} --\
Am ount
Ġe ject
N I
Ġc us
ĠC hern
ĠR ange
Ġbuild s
Part ition
ĠE r
;\;\ ;\;\
ĠAr k
Ġlo ose
Ġp ill
th ird
Ġgl u
ĠĠĠĠĠĠĠĠĠĠĠĠĠĠĠĠĠĠĠĠĠĠĠĠĠĠĠĠĠĠĠĠ ĠĠĠĠ
P F
Ġexception s
Ġg allery
] _{\
Ġsat uration
Ġprom oting
Ġsus pension
Int erest
Ġembod iments
Sub ject
Ġg otten
friend ly
perturb ative
Ġpre mi
ĠL ock
m agnetic
Ġprom ised
Ġsee ks
ĠMiss ouri
Ġem it
NO DE
Ġob ey
ik h
Ġexam ination
Ġam id
A rm
ĠStr ategy
lot te
CE PT
U pload
ig rant
O cc
go og
Ġcampaign s
ĠPro perties
{- .
observ ed
ĠR L
pl ant
Ġ ----------------------------------------------------------------
pro f
Ġsus pic
Ġtum or
ĠW E
osc ow
Tim estamp
The me
I ll
pro c
Ġdist ortion
m ont
}) }{\
ric ulum
Ġsaf ely
ĠSte el
ĠTok yo
ĠF E
pect ives
ic i
ĠCr ime
Ġdes irable
Ob server
Ġwavelength s
Ġun ve
ĠMod els
W O
em it
ine q
Per formance
Ġp ounds
Ġcomb ines
ĠB io
Ġrel ates
Ġhero es
ĠO il
con e
h ydro
g ement
Ġhere in
Ġâ Ĥ¬
]{ @{}
BO OL
i S
ĠS ide
Ġquant ify
ĠCre ates
3 30
s ources
ant on
Block ly
K M
Ġsumm ation
Ġ ig
ĠSt yle
Me asure
Ġca ption
ĠJ en
s lds
I ss
Ġthere of
sh own
13 8
G IN
pr ice
ĠMuslim s
Ġcyl ind
Ġblock chain
pat cher
um m
.* ;
Let ter
Ġfluct uation
Ġreserv oir
ol ars
ene ath
uck er
Ġaccomp any
iv ate
ĠO C
Ġamb ient
Ġenem ies
Ġad m
Ġexpect s
refere nces
scal a
Ġdomin ate
ĠM oney
Ġsw ing
Ġle verage
exp ansion
Ġfl ip
em en
ĠF iction
Ġanalog y
arch ive
var sigma
Ġcumul ative
ĠOrgan ization
Ġo mit
Ġcontext s
Ġf ate
Ġphot ographer
Ï Ĥ
ps frag
ĠF al
ĠPh arm
[ [
est one
Ġcor por
z hang
Ġlic ensed
Ġgra ins
g if
ĠChrist ians
Ġproceed s
ĠCamp aign
Ġfail ing
ĠR ab
Ġt f
20 4
ĠN A
Ġw rest
ĠA my
ĠProgram s
ĠInt elligence
s us
Ġcon cludes
Ġdi et
F acebook
ĠB os
Ġpoor ly
ĠSU MMARY
Ġst unning
get Id
ĠS el
app rop
ĉĉ Ġ
Ġanaly tically
in ery
log ging
nob r
We ek
Ġphotograph s
le ans
Ex ists
ĠAn na
ĠS erial
Ġestablish ment
}} }(
Ġmer ged
? }
14 6
ĠLaw rence
an ia
j amin
Î »
Ġs addle
M ad
s child
Ġhe m
ren a
ail and
m outh
ĠColl ins
, +
l ov
Ġg all
CC ESS
ick ed
(" #
ĠDou glas
ĠS ony
Ġres idential
lic enses
St ub
Ġequ ity
Ġsens ing
Ġcont raction
ound ing
ĠBl ues
> ()
Ġco ins
per cent
Ġinflu ences
Ġan satz
ĠS ay
) ",
ĠLiver pool
av an
Ġfib ers
Ġas ymmetric
our t
ĠAnt i
link ed
Q ual
Ġre wards
row se
Rem ark
ĠNor way
S chool
Ġbe ams
Ġr iding
Ġun clear
| ,
Ġfle et
as ympt
Ġins pect
an ies
ens itive
Ġhad ronic
Ġveter an
Ġst er
Ġaut hentication
Ä į
16 9
Ġgra phe
van ishing
ĠMA X
Ġrail way
Ġs li
Com mit
Ġnorm s
ri el
Ġcomp ress
Ġc ust
fra gment
ĠPh D
ic ating
Ġkinem atic
M ot
z ens
è ¿
ĠIn novation
ĠW right
ĠU rban
Ġenc ryption
Ġdo zen
ĠK ings
ĠBO OST
ĠB ishop
rypt o
Ġpar abolic
b h
th rift
Ġlaw yers
!! !
Ġsl ide
st ars
il ateral
Te chn
Ġrelax ed
Ġden omin
Î ¼
im s
ĠĠĠĠ čĊ
m ind
Option al
nov a
t ow
Ġh ung
Ġhad ron
ĠLe ave
ĠAfghan istan
ĠChall enge
Ġreported ly
ĠF reedom
Draw ing
comp ass
mult iple
Ġgovern ed
ĠComm ons
L icense
Pr ice
Ġpurs ue
Ġcapt ain
Ex pect
ĠR ules
LE TE
ĠMag ic
Ġcomp ilation
ext ensions
ĠUS B
Ġparticip ating
to Be
Ġpet ition
ĠR ol
ign ore
ĠN intendo
Ġn ights
id ad
Ġlog o
t abl
. ).
Ġbreak fast
__ ["
Ġ' ./
bl ob
Ġwarm ing
Ġal arm
f rames
ther mal
acter ia
Ġbl ast
CON FIG
p read
Ġpers istent
Ġax ial
IP S
ah a
ropol itan
ĠStat istics
Ġconvers ations
Ġaband oned
j p
u uid
IC K
gra duate
triang leq
rem ote
Ġarch ive
repe at
F G
M obile
Ġph osph
urs ing
ĠNetwork s
ĠB rew
c ategories
. }.
T ON
t own
Ġexceed s
â Ĥ¬
row e
Ġnot ification
Ġw x
Man agement
15 00
ĠA le
sol r
t ransp
s ocial
Ġm ilit
am ous
ĠK am
Ġd ash
ĠRob in
Ġcor ollary
Ġadvert is
Ext ensions
online cite
u pt
R GB
ĠP ic
Al tern
Ġhypot heses
Ġfol k
ord ination
scal ing
* {\
m kern
Ġland mark
R ank
Ġmodul us
F ixed
Ġn s
Ġbos onic
PD ATE
Ġdistrict s
Ġaffect ing
Ġhand ed
}\ {
VIE W
Ġinstrument al
en z
Ġmed al
s ight
Ġs id
20 8
Sh ift
^+ (
ch anging
Ġstay ed
^* $,
Ġret irement
Ã º
Ġcatalog ue
F B
ig o
Ġevery day
Ġp unct
$ _\
Ġodd s
n os
d anger
ĠK ind
ĠSt ev
Ġrender ing
cf g
ĠPol ish
W alk
- }
ĠCom par
ĠCo hen
fill ed
al most
DE X
Jan uary
ĠE L
Ġob s
be at
ĠPro b
Ġsing let
Ġanisot ropic
Ġcontinu ation
enez uel
ops is
ĠPar se
ĠC I
h is
Ġab ilities
Ġfl ights
Ġcollect ing
Ġout door
st orm
)} ]
Ġattempt ing
he im
Ġg ig
Ġal ien
be it
Ġdetect ing
Sep ar
check mark
ĠSt even
$ ]
Pres ident
Ġfasc inating
vi ol
Ġun certain
ocol ate
Ġj ew
alth ough
Ġrid ic
ur u
g raphics
Row s
Ð ·
r ative
Ġcre am
n othing
H ello
P an
ĠA bb
Ġimp ression
33 3
An notation
Ġcha os
os hi
com posed
cont rolled
Ġprefere nces
Ġrom ance
Ġmicro scopic
Ġharm on
Con v
ĠLu ke
Ġse eds
Ġanalog ue
ĠS ession
ĠRog er
ĠK ids
ĠL ower
Ġsp ir
Ġt uned
ation ally
Pl us
V O
ĠP romise
Ġt el
ĠG ill
IM IT
can vas
sp here
Ġimplement ations
u art
Rec ent
Ġcult ures
Ġtal ented
ab is
Ġliter ary
Ġcan n
Ġhost ing
Ġaccompl ished
ĠMar shall
Direct or
prob ability
ĠG ulf
Ġt err
ĠP ra
Ġdirect ors
Ġf ool
ge ometry
ĠClass ic
Ġcl othing
Ġpresent ing
ĠS oul
av g
ĠShe l
Ġclaim ing
Ġpuls es
Ġprom ises
Or iginal
Ġref ined
glyph icon
ĠOper ations
b at
Ġchem istry
Ġsecret ary
b ie
Ġjoint ly
Ġaddress ing
ĠC hel
Column s
Ġdepart ure
n r
Ġemot ions
ul u
=\ ,
Ġv essel
im edia
ĠInt el
' _{\
Ġcol ours
d og
ĠB ed
rosso ver
Ġvic inity
Ġ' _
Ġi OS
cm id
Ġgraphe ne
Ġc ached
Ow ner
c ence
Ġun lock
ĠM T
Or igin
ĠC her
\ ;\
Ġtw in
{ #
ĠH unter
Ġwarn ed
. }}
ĠSp ot
Ġrest ored
Ġover se
%%%% %%%%
19 57
Ġbur ied
ĠT oy
ĠSw ift
Ġirre levant
Ġf ingers
Ġexplain ing
Ġdifferent iable
mod ified
ĠAss istant
Ġg alactic
f w
Ġa ria
spir acy
M ATH
UT E
part icular
Ġqu art
| <
Ġtheorem s
ĠSen ator
× Ļ
id ually
Feb ruary
ict ions
ĠR ap
Ġlearn s
15 4
Ġpat ent
Del ay
ĠE mail
\% .
st retch
Ġconf used
' })
ĠN L
Ġrom antic
Ġb is
res on
ĠIn surance
Ġdis h
Ġceleb ration
Ġsil ent
Ġc ube
ĠS ave
ĠHigh way
Ġre written
ĠF er
ĠCre ative
Ġ| =
ĠLabor atory
ĠF em
n of
Ġpl aus
cmid rule
% "><
p aces
Ġmagnet ization
ĠMex ican
L ICENSE
AR K
^* )
ad vant
Ġconf ined
Ġthreat ened
Depend ency
ĠPl atform
ens on
Ġs ender
al ong
N ovember
ĠSc ript
v p
ĠR ub
Ġt ens
c ourse
Ġon set
Ġsuspend ed
Ġre ception
Ġag gressive
Ġtem plates
an ch
ol s
Ign ore
Ġaccording ly
\ ).
Ph il
Ġbug s
pend ing
Rec ently
ĠWar ren
BU FFER
Ġener get
Ġdegener acy
ĠRail way
L y
ĠF le
19 58
Ġide als
S erv
Ġdemand ing
ĠT X
eth yl
Ġg onna
isen berg
f uture
or us
ĠKenn edy
}\ |\
g c
Table Row
Ġbeg un
Ġsynd rome
Ġt ile
it ious
Ġphot ography
Ġcas ual
Ġrac ial
ĠD ig
ĠP arameters
C irc
Mod els
) }^{
qu o
imp ly
ĠEd ge
Ġmind s
gl ob
th a
riv ially
L ee
ĠMod ule
PRO P
Ġpi pe
ĠB uy
oc on
Ġjust ify
ĠTai wan
ĠN at
Ġz oom
S ig
Ġis lands
Ġad option
Ġident ifies
un ate
ĠG rid
Ġoccasion ally
Ġang ry
14 9
ass ment
Ġsm oke
Ġpick ing
Ġfrag ments
Ġ[ âĢ¦]
Ġco in
ĠP ick
ĠAut om
Ġf ut
ĠM uch
Ġicon ic
Ġconv in
ĠG B
Ġpolit ician
Ġscr atch
T ile
ĠD rug
ĠSum mary
d ie
Ġpric ing
ĠTrans ition
Te V
p seud
s ided
r us
se mi
36 5
ĠTe acher
Ġex ponents
W il
Ġhy perp
- )
ĠBan ach
nd um
Ġcl arity
Ġtra ct
bi ased
Ġt ap
ch at
Ġreg ret
Ġt rem
Ġel der
I l
ĠN ormal
l it
ĠW ait
ĠB aker
Ġprom oted
rid es
Ġappear ances
g ie
ĠC V
Ġhouse holds
Ġm ism
Ex pl
s elling
{ }{
Ġven ue
w eg
Ġstrugg ling
Ġspec ifies
Cont ents
b ank
resh olds
14 8
Ġcal ib
conver gence
h ai
50 9
Ġep id
Ġim g
Ġt ent
ĠS olutions
Ġexp ense
Ġappro ached
Ġparamet ric
Ġsil ence
Ġshow er
view port
Ġpen et
uff le
ic ut
vis it
j j
Ġview ers
et es
ill o
Ġdeliver ing
Ġto y
Ġres ign
Ġfaith ful
s amp
Ġcirc uits
ĠS ED
Ġdiscuss es
Ġok ay
ort heast
Ġrel ay
Ġb oot
Ġtrunc ated
ill ation
ex isting
Ġlov ely
Ġpred omin
ĠB etween
Ġlaw suit
ĠC el
Ġrec ruit
Ġbi ased
13 9
Ġjud gment
Ġl un
ĠCar ter
Ġh ired
)$ :
Inst ead
Å į
Re pe
Run ning
Ä ĩ
em e
label ed
Ġjud ges
T i
Trans ition
Ġe mails
app ings
ĠTechn ologies
pow ered
op ter
M ix
}\ |_{
ĠVis it
as ym
Ġcred its
Ā Ā
Ġt ensors
SP AN
Ġbenef icial
Be en
Ġwor ried
] ,\
Ġt ropical
it ical
ĠConst ruction
ĠMalays ia
b eg
p w
Id x
Ġtag ged
uer to
ĠSc i
Ġacknowled ges
F oot
re ck
ĠD ra
Ġlog in
ĠAgain st
on z
R ules
( ()
Ġpick s
Ġde put
}} /
Ġ\ ,\,
Sn apshot
K ing
ĠSt orm
ĠStr ateg
Ġjo ins
vi o
Ġmay or
Ġz ones
ING S
Al pha
ca ps
M id
__ )
ĠG OP
p ixel
C art
Ġm ountains
ĠT es
ath on
load ed
rep o
ĠImp act
Ġn ick
n z
L ab
o es
ĠPubl ishing
ĠAnton io
Ġcol span
Ġupd ating
EN CE
pp y
pack et
Ġattract ed
pd ates
ĠB egin
ĠAl bum
ĠO klahoma
Ġfore ground
Aut hentication
Ġm ood
ĠCol lect
Ġre lying
i ov
BL IC
h pp
po i
ĠF i
dis crete
Ġshall ow
ĠE E
J apan
P riority
inal s
p es
Ġkey board
en berg
Ġsav ings
Ch ina
ĠB ag
Phys Rev
s per
S ocial
arch y
Ġtreat ments
Ġcrit ics
Sc ore
Y S
å Ĭ
ĠC ut
................ ................
Ġafford able
4 000
b is
per or
or ious
pe red
)}\ \
Ġconstit ute
T X
S witch
} ''
Ġnav bar
lement s
Ġl ane
)} +
Ġjournal ists
ĠCl ar
Ġstat istic
Ġemer ge
Ġcharg ing
A ctions
Ġwidth s
omorphism s
ĠA u
ãĥ ¼
can onical
ipp i
D ifferent
hat tan
Ġen umer
abul ary
ink owski
æ ĺ
ĠM W
Ġob l
y our
Ġtarget ing
ĠExp ression
Ġw ides
ĠP OST
Ġadi abatic
Ġtri angular
à¤ °
ĠR achel
ĠC raig
col ogy
Ġdi agnostic
n or
ĠMov ies
Prim ary
f are
ad j
equival ent
E t
Ġsurv iv
Ġharm ony
V V
Ġdef in
rac es
Ġcontact s
Ġdomin ates
STAT US
ĠM ade
OR S
ass ador
Ġbelie fs
ĠWARRANT IES
Ġj umps
at ility
Ġfall en
Ġpack ed
Ġf atal
ĠR S
}} |
Ġtoler ance
Ġimm une
Ġactiv ated
ĠRes erved
A ff
ĠT ool
ID S
b ach
Ñ Ĩ
ĠT ar
Ġposs ession
Y eah
ie val
d iamond
Clear ly
ose x
ĠCon stituency
Ġben ch
Support ed
ll ll
Ġin herited
s il
Ġspan ning
Ġpow ered
Ġc b
Ġh ub
ĠSh adow
Ġaccess ed
ĠI gn
ĠM ut
Ġro uting
Ġnot ions
ĠE li
Ġb esides
tabular newline
ĠM ol
m orph
Ġpro ximity
ĠF riend
met rics
Ġdown stream
Ġinvest ments
En able
Ġextra ordinary
itz er
15 1
ĠPark er
int rodu
c uda
Ġplace holder
o S
ĠAl bert
ĠMor ris
ĠSwed ish
> '
Ġpost ing
] ).
Ġrad ar
,\,\ ,\,\
ĠP oll
Ġvent ure
Ġmanufacture rs
Sever al
Ġtele phone
ĠMax well
================================ ================================
ĠU tah
C ancel
Ġco aches
ĠU RI
ĠGa uss
c amp
Ġrandom ized
ĠSch r
K B
le ases
in ar
Ġstart up
st rict
99 99
ĠA ve
ie ve
c ot
30 4
Ġred irect
Ġlisten ers
ĠF P
Ge ometry
Ġsupers ymmetry
Ġin set
ro uter
Ġw is
ĠE ve
Conver ter
app le
NE W
Ġt ast
ĠL anc
19 55
ĠA aron
ĠB ound
ĠSw iss
ĠH az
f ive
QUE ST
ur g
b ucket
th reshold
ĠArab ia
d in
math ord
Ġmanufacture r
15 8
Ġmyst erious
Ġhypers ur
Ġfoot age
P romise
ĠST ART
19 00
Ġmod est
Ġ`` `
process or
> [
ĠCor ps
k pc
gl ass
L AS
U AL
Ġsp ell
ĠSpe ed
h c
l ated
const rained
Mean while
As sembly
ta ur
Re ason
) ]{
{ -\
ĠB uck
v d
an notations
ym ph
IC S
De cember
Ġstrong est
Ġgraph ic
IF I
ĠW ould
Ġcomp ressed
Ġsu ck
ĠB ab
ĠL GBT
ĠDen ver
Ġra ises
ĠâĢ Ŀ
ion ic
"=> "
Ðµ ÑĤ
ular ity
g z
ij ing
Ġn ose
ak ov
)) }
Ġsupers ymmetric
ynchron ous
C AP
Ġ} .
Brit ish
}$ };
ract ive
ĠLead er
uli ar
Ġfro zen
end ence
ud son
r pc
Ad ditional
Ġped est
x t
ĠD ak
Ġmount ed
Ġunder ground
ern al
14 1
Ġlab elled
Ġenorm ous
ĠP anel
Ġcons ol
Ġdel ays
Ġnon negative
- .
ĠA thlet
ĠJ u
ĠU pdated
ĠMarg aret
Ġadv ances
Ġf ram
Array List
Ġgold en
em et
se cret
Ġint elligent
Ġgather ing
K im
Ġper f
ĠSt ructure
Ġhand les
Ġtre ating
Ġdynam ically
c ott
oth y
Ġabsor bed
T uple
ĠT ob
Ġv iable
ĠL if
Ġback up
Ġsepar able
20 3
Ġestim ators
Ġb ij
ĠM ail
i ang
AB C
... ,
Ġminim ization
ĠS yn
Ġaut onomous
ĠN BC
ĠBe at
u ating
j ud
al one
ĠM os
Ġ& #
Ġaff airs
ĠV ar
D a
ĠC lean
in burgh
F ire
Ġ{ %
Ġequ iv
}}{ {\
ib ling
Ġapproach ing
ili ation
Ġtimes cale
Ġl ady
list en
S eq
U pper
g lu
s chool
File Name
Ġal umni
us hes
block s
m q
Ø ³
te am
K N
P eter
ĠP hoenix
Ġcont amination
ĠChar acter
Ġcogn itive
Ġab road
St ructure
Ġsub stitute
A mazon
F ALSE
Ġsub mission
Sc ott
ĠM ix
M ajor
B ACK
24 5
ub ern
Ġexem pl
H F
enc il
F ran
Ġsuperconduct ing
ĠV eter
ph on
eg ree
ĠCon vention
ĠComp lex
ĠMor ning
IM P
Ġemploy ing
F rames
dis cussion
ĠM is
Ġblock ed
ĠC BS
ĠGu y
c assandra
Ġpred icate
Te am
r ific
f av
Ġwant ing
Ġch arts
big cap
ĠG rad
)\, ,
PE C
Ġprov isions
ĠAd ditional
Ġant is
ĠK er
con cat
}^ -
Ġspl its
Ġh orses
Ġbar riers
Ġl attices
DE D
ĠT ower
18 5
multip ut
Acknowled gements
R P
15 6
ĠIn valid
Ġrecurs ive
Ġthe ater
Decl aration
14 2
k ed
Ġ Ã©
ĠS amsung
Ġanim ated
Ġcombinator ial
sh ore
ĠCl ose
leg end
Ġdes ert
Ġcur ious
Ġsimultane ous
Å Ĥ
Pl ace
Comp are
Ġcon dem
ig inally
sh ops
Ġthrough put
IF AR
Ġexp enses
Ġdram atically
Ġparad igm
v t
et ed
00 6
d st
includ es
Ġbott le
ĠNe umann
Ġ å
Ġun ified
Ġagre ements
ĠÐ ¸
ĠEm ploy
Ġsur jective
r ational
ĠIndones ia
ĠMit chell
Ġst ays
ar ms
Ġflow ers
ĠPal ace
Ġbon us
Ġhospit als
ed ly
ll a
Ġre cycl
CD M
b ay
Ġin complete
dis cuss
HO UT
th us
s al
ens ely
ĠCol on
Ġex pr
bor ne
ĠFant asy
ud dy
Ġweak ness
F actor
irm ingham
Ġpo et
ĠĠĠĠĠĠĠĠĠĠĠĠĠĠĠĠĠĠĠĠĠĠĠĠĠĠĠĠĠĠĠĠ ĠĠĠĠĠĠ
Ġuser name
Ġsoc cer
Ġthe sis
ĠG ov
ĠOper a
Ġsurprising ly
ĠCon sole
ev a
ĠB rig
Ġtwe ets
Ġblock ing
ump y
æ Ī
pm od
ĠA x
e clipse
ib li
Ġarrang ements
Ġm uon
ĠP il
math ring
in aries
ĠS ER
ĠK night
ogen ic
: '
Ġo c
Ð¾Ð »
ĠIn cre
tikz cd
Ġra pe
ĠEv ans
ĠJ azz
3 75
ind ices
19 56
Ġst ating
ĠStat ement
( ['
ĠW orth
Ġf id
ĠS ometimes
.. ...
Ġport ions
inv est
Ġenthus i
Ġ( %
Rel ative
ĠPort land
ĠV A
Ġsur f
E u
} &=&
umb n
ĠEconom ics
ĠL com
ĠW ikipedia
ĠUnivers al
; |&
ĠT ed
Ġanticip ated
ym an
On line
Ġ\ '
m el
-------- --
19 5
Ġyield ing
} ",
ĠG ot
Ġper ipher
ĠB illy
ha o
Ġalleg ations
Ġb ab
){ $\
Ġd rew
ION S
\ ),
Ġj uris
Ġc er
get Type
b age
Ġc ot
}^{ [
15 7
ĠB ou
ĠTh ink
A H
ĠT el
not es
Ex tra
ate ur
Ġb orders
ĠPro duction
ĠLear n
Ã ł
ĠCont ract
Ġj s
ĠE state
Ġte eth
c M
Ġpe ers
O s
R G
ĠC ars
Ġpro c
ĠRes Net
ĠCamp bell
ĠS ET
ris k
ĠR G
Ġwork shop
Output Stream
ĠHill ary
ript ors
graph s
Ġl os
ole v
ĠHar vard
Ġste pped
EN ABLE
D istance
ĠL isa
Ġport s
uk i
Object ive
U ML
N eed
Res et
C hen
Exec ute
T s
olog raph
ĠE ST
Ġaud iences
ĠBar ry
ĠGi ants
og ical
amazon aws
row ing
alt Color
R NA
eta iled
ĠFl ash
0 25
CO M
ĠRec ently
ĠM oscow
B us
] =\
Ġjun ior
Ġinit iated
ĠHistor ic
}=\ {
ĠL ot
mod es
Ġl obby
ĠSe an
Rich ard
Ġsh ame
D irection
Ġp up
ĠAd vis
ĠQuant um
O G
}{ (\
em ploy
ĠR ole
Ġcosm ology
Ġsing les
Ġappoint ment
tab les
ĠInst all
Ġdam aged
iss ippi
m other
ign er
D isk
Ġd ressed
ĠD S
ex ist
tr uth
Ġw age
Ġcan vas
ĠRe ynolds
ari ous
Ġref inement
Ġart istic
Ġspectro scopy
ĠG A
Ġbas elines
Ġhal os
th y
Im ages
he ld
Ġpredict ing
Ġan notations
Ġst ret
comb ination
Ġd ying
Cre ated
æ Ĺ
im ag
Ġdiff use
run k
ĠBo ys
Ġaggreg ation
ĠBrown ian
Ġatt raction
ĠStan ley
iv als
Ġpro l
cur rency
ĠS K
w oman
ĠN J
Set up
Ġindiv idually
Ġsynt hes
ĠLead ership
ĠOr leans
ĠImm utable
Ġb eneath
Ġprotect ing
is ol
G re
Ġn erv
Ġg ross
ĠTre k
Ġdraw s
ĠChampions hips
Ġatt ach
Ġincl ination
Ġev olving
^* $-
Ġdead line
B order
E lect
ĠNot es
ĠQ uality
ĠMe eting
ĠL S
}{* }{\
ĠPitt sburgh
ber ger
Ġcal m
ĠBy te
con serv
Ġ$( {\
Ġrem n
Ch ris
tim eline
Ġworld s
Ġrun ner
Ġc ave
Ġsmart phone
Ġpoll ution
ĠT F
ĠInter view
et c
Constraint s
e conom
Ġdist ribut
commut ative
Ġ-- ></
sd k
fra red
Ġd ub
Ġb ills
iz ar
B its
ĠCom ponent
Ġj er
im ization
un ov
ĠO ptions
Ġlink ing
Ġess ay
Ġalleged ly
Ch art
not ify
ut ors
( /
de legate
Ġsh ops
al p
Ġen force
T ensor
Ġre b
li u
×ķ ×
script s
Ġper ceived
ĠP ref
ĠR oll
Ġform ats
Ġpl ates
Ġcha otic
Ġsim plicial
Ġschedul ing
d ip
... "
Ġatt ending
Ġg ard
ĠM om
Ġfail ures
constraint s
ĠC ox
Ġconf irms
ĠV ancouver
Ġpass ive
Ġsit uated
Ġagric ultural
H ot
ur se
Ġthrow ing
Ġal i
ass er
ĠP ope
Code c
Ġtw elve
ver ify
ond o
h aw
Ġaltern atives
Ġc rop
Ġend points
Ġcour tesy
desc riptor
min imal
ĠArch ive
ĠB eyond
Ġf iscal
ed ition
ĠK ir
Ġconnect s
cam era
ĠN ag
Ġ" '
lu a
ĠB loom
{ +
Ġs ons
ĠIn n
ĠCal cul
ĠThe ater
Ġ} _{
Ġout going
Ġdev ast
Ġhead quarters
ĠStud ios
E mb
Ġindex ed
> %
Ġaz imuth
Ġt ons
EN TRY
ĠRun time
E duc
Ġc ul
r x
Ġsh ipping
Ġpl acing
Ġ' @
Met ric
em a
ĉĉĉĉĉĉĉĉ ĉĉĉĉĉĉĉĉ
o ples
ĠEx perience
ĠH end
à¥ į
Ġb uck
ĠE rr
Ġiniti atives
Ġwides pread
2 12
Con s
ĠJ oy
Ġ# {
ĠU P
Ġelim inated
mathb in
Ch anges
Ġgot o
( |\
Ġwild life
ĠP osition
J y
Ġtrust ed
Ġavoid ed
ol ine
ĠM M
}} [
Ġswim ming
bo ards
ĠF alls
r ise
Ġd st
sl ide
Ġencourag ing
F ast
Ġle x
Ġe uro
Ġ ì
Ġme al
ĠBet ter
ĠAl low
G ER
}: =
Ġpron ounced
15 9
l Vert
ha us
Key word
j ournal
local host
Ġups et
Ï ħ
me ans
Ġa est
ĠLog ger
iz za
Y P
)+ (
< >();
Ġlif estyle
a ac
Ġbeh ave
cast le
Ġstay ing
o j
ĠS ob
Ġcomp oser
ĠNe uro
ĠS ent
Ġparticip ated
Ġisol ation
ĠMet ro
ĠWar ner
ĠT D
Ġforest s
Ġpull ing
Ġtrip let
Ġlift ed
2 16
chi at
Ġpo em
ĠTem ple
Ġcross es
Ġd uties
Ġcomp elling
ĠCon v
Ġaddition ally
vis ual
Ġbg color
d B
Ġgu ided
âĢ¦ âĢ¦
ch t
ed ges
ĠAv ailable
ĠB orn
ĠD ictionary
19 48
Com pos
Ġaccompl ish
Ġf iring
Ġres idence
), $
ĠG round
ĠZ one
ĠT OP
R UN
he nce
ĠP ant
Ġvisual ization
Exec utor
Ġh ockey
Ġde emed
L ang
ĠQu estion
create Element
ĠMet al
S us
h m
\% )
Ġb lo
ĠC zech
ĠV R
Ġmonot one
15 3
m ms
ĠC leveland
Ġbreak down
Ġfast est
k u
âĢĿ )
Th ough
att en
Ġrem emb
ĠPat ri
Ġnom inal
A verage
ou x
Ġ... ,
ĠD A
Ġeigen states
ĠEvery thing
p ipeline
Ġ' "
S om
der ived
umin ous
Ġ- =
ĠK rist
Ġjust ified
Ġcoal ition
23 5
Ġfem ales
Comb ining
em p
ĠA bs
Ġdecl ined
p ure
m achine
att ention
TER N
O FF
id ays
Ġmultiplic ative
fin ity
J im
ĠJim my
K P
Ġmanip ulation
ĠMe chan
22 2
Ġear liest
Ġmonot onic
}^{ -\
Ġh unting
ĠTh ailand
spect ral
Ġbut ter
Ġp ad
Ġarriv es
al ia
ĠE W
ey er
,\ ;
k el
lib s
ĠN an
Ġconvin ced
ĠE SP
ĠProduct s
Ġwe igh
Ġsol ves
ĠL ED
ER N
Ġengine ers
Rad io
M us
)= -
ĠP el
hig her
R N
ĠO UT
ut down
Ġaccommod ate
se ed
ĠPr incess
ĠCh ron
Ġearth qu
ĠCon nection
Ġdel ivers
)} +\
Ġw ishes
uls ive
ĠM atrix
WA RE
T ax
Ġs ne
5 50
ĠH awaii
function al
Ġor al
ĠJenn ifer
ch annels
TableRow Color
Ġtour ism
pe ak
ic z
ĠR aw
}) \\
Ġathlet es
Ġdim in
Pub Med
ot ypes
Ġ[ (
Ġoppon ent
Ġdec ides
a que
Ġcomplaint s
Ġchar m
D rag
Ġs its
ourn als
v ary
Ġst adium
Ġpro gen
Ġinter cept
RO W
Ġdro pping
(" \
Cam era
le af
)}{ (
emet ery
ke ley
T ry
ta rea
ĠWIT H
Ġprint f
ĠG ran
desc ribe
PH P
ĠSt ra
ĠPer ry
Ġbl ur
17 6
Ġeth nic
)}\ ,
ĠSam uel
}^{ {\
Ġm ales
Ġcomp os
ĠFri ends
Ġper pet
SO URCE
we alth
Ġshort est
Ġdro ve
end ants
ĠĠĠĠĠĠĠĠĠĠĠĠĠĠĠĠ ĠĠĠĠĊ
N AS
ĠC row
ĠF eed
p z
Ġhigh way
is ible
Ġl iv
Ġpart on
)^{ -\
ĠOver all
Ġaugment ed
part icles
ĠR isk
row ave
ĠG it
g ow
Ġactiv ists
ĠWay ne
Ġback ing
om es
ĠØ§ ÙĦ
ĠGr iff
T imes
as a
=\ !
Ġs orts
Ġb rackets
ĠL ik
Ġdesign ing
) }}{
def er
H i
ĠS USY
id ation
Ġl as
)\, .
ĠHop f
Ġk iller
Ġapert ure
IS H
. ',
ĠF ab
Ġsh ifting
ĠSt okes
| ^{\
run ner
ĠJun ior
19 53
Ġm ph
ĠLink ed
Ġcomm ute
S yn
de cess
ĠU pon
ĠCo al
R en
pi res
Ġvill ages
A ud
R edu
ĠMad ison
Ġac ute
Ġw ra
Th ose
Ġavoid ing
Ġspread ing
ra ining
ad oc
Ġan nu
ĠN AT
ĠMar c
ĠFe atures
de code
ĠV ent
S pect
Ġv ibr
Ġinf init
ĠTechn ical
Ġphon on
H u
Ġsh aped
ĠK u
m atter
Comp at
>< !--
ass y
sm art
1 200
Ġloc us
ĠDen ote
desc ribed
Am ong
EV ENT
Ġgr asp
ĠE RR
ET A
Part icip
sc apes
pr ising
Ġearn ings
nt hesis
ere n
Di agnostics
l int
ĠPrim ary
end ors
ĠLa placian
Ġroy al
in ject
Ġst olen
der r
FLA G
ĠJava Script
T W
00 8
Ġdisput e
g f
Ġcom ics
ĠZ hang
riter ion
rowe ak
Ġsub spaces
fo od
Ġre cre
Ġappropri ately
Ġartifact s
Ġdi abetes
omet ers
ann es
ĠRet rieved
B ucket
q a
Ġir regular
IC T
Ġretrie val
ĠHistor ical
ĠScient ific
le ave
\, $\
Ġtim er
Ġbur den
As set
ĠAdd ed
W ed
) ?
Ġre tained
ĠInt roduction
Ġt ired
C UR
ĠAg ent
ock ets
v r
be en
P rom
Ġr amp
d yn
Ġen zym
Test ing
c ategor
int s
Wel come
om on
C Y
ĠL ost
ĠA V
Ġforg otten
ĠLet ter
Ī ãĤĬ
Ġmusic ian
L ove
Ġlegit imate
Ġsurve illance
c ation
Ġcon ce
AR G
Ġoppon ents
19 44
Ġy eah
ĠR y
Ġt orn
bor ough
Ġur i
ĠConst ant
c ool
Ġbar rel
om ing
n orth
ĠSt orage
âĢ¦ âĢĿ
ĠG E
ov ich
4 80
ĠF ashion
com par
Ġc ricket
}= {\
Ġdisp atch
Ġclass ify
ĠWal ter
LO C
Ġpract ically
abor ation
Dep artment
em ark
}, \,
Ġdir ty
Ġsho es
ĠBit coin
ĠO range
Ġval uation
Ġmist akes
const ants
Ġsuccess ive
Ġdecl aration
Ġ$( -
aps hots
B V
LO AD
ĠC itiz
stud y
Comp letion
ĠBalt imore
Ġj oke
Ġless on
Ġsent iment
Ġmar ine
Ġconduct ing
D G
D ITION
ĠQ ual
ĠB h
tain ers
unt ed
ell ers
âĢ ²
ĠV ision
w al
ess els
ĠW a
get Message
Ġfin ishing
Ġel ite
Ġh un
å Ń
pi pe
ug s
Ġ Å
Ġback ed
Ġfil tration
U nd
v b
ĠIn fo
S ide
S afe
I r
$\ {
alt ies
ĠN ull
ĠFil ter
k r
Ġspont aneous
im ony
Ġcon vey
_* $
Ġsl ave
Ġ& =\
ĠG ay
r ors
16 7
ĠHig her
lement ed
Sp in
Ġqual itatively
integ ration
ac l
Ġf ert
Ġnot ify
con current
CE SS
J on
Ġsu ited
dif ference
D TD
ĠN eb
cycl ic
man agement
Ġsh ield
et imes
Ġth irty
loc ale
N i
ul in
ĉĉ čĊ
Ġsatell ites
op ens
Ġfl are
Ġ$ +
ĠL ocation
Ġpre view
bre ve
ĠJer ry
L ondon
ĠPet ers
Ġs ig
Ġan ger
Ġbutton s
b ird
ĠR C
ĠS ymbol
ĠEnt ity
ertific ates
ĠDe cl
'' )
ĠTe levision
ing roup
uss ia
ĠN LO
Ġbo ards
^{- (
Ġpregn ancy
in herited
ĠF ocus
mu nd
s an
ĠSch warz
Error Code
ĠGuard ian
ĠO scar
Ġimp lying
Ġminim a
pre ceq
M el
ĠMur phy
ĠEnter prise
Ġr hythm
Ġw ings
Ġm i
DE s
Ġret rieved
maxim um
(' <
ĠC old
am y
H ey
al tern
W omen
g p
ict ing
Ġa qu
ĠR ather
set counter
Ġrig orous
enc oder
ĠArch itecture
m ys
Ġd ancing
ĠG race
Ġcomputation ally
t ile
)= -\
Ġoverwhel ming
I ENT
) &=&
C lean
11 11
ĠJ eremy
Ġspect acular
Us es
ĠTur kish
Count ry
ĠL en
Ġhum or
Ġperturb ed
Ġdefault s
effect s
Ġvolunte er
Pl ot
20 6
pre ced
reng th
Ġwonder ing
Ñ ħ
Ġ\ %
m icrosoft
Ġcur ved
F ace
Re act
Ġmes ons
ĠK illing
c C
Ġtunnel ing
3 25
t le
Ġd ated
eng u
Ġp orn
ĠBar bara
contin ue
tool tip
19 54
è ®
oun cing
Ġentreprene ur
Bre ak
path y
an on
Ġcondens ate
Dec imal
S ports
ac co
get Class
et ooth
Mod ified
ĠProf essional
Q R
Pro du
Ġacceler ated
Ġshe af
//////////////////////////////// ////////////////////////////////
Ġb om
lim sup
Ġd ivers
/ )
B ill
ĠAl ber
Ġap olog
W at
H on
b ias
cel ona
ĠDemocr at
ĠV enezuel
Ġth rew
Ġattack er
ĠArg ument
Ġoverl apping
un lock
Ġr h
g mail
Ġa ster
it ol
Ġmore over
Ġinter rupt
ĠNe il
Form s
Ã¡ n
ĠDis play
ĠTh or
ĠDe al
us age
ĠM es
ĠV I
K G
Ġsc rew
Ġwork flow
ĠS ure
cer pt
ne ighbor
Ġtem ple
ar ab
Ġf riction
ref lect
con figure
schem as
) '
cont ract
å ľ
Ġprint ing
Ġtra dem
Writ ten
19 47
ĠCon struct
Ġspecial ized
M il
de veloper
ĠU pper
ĠZ ero
ĠCustom er
ĠTo o
ĠH us
Ġsome body
} ],
Ġdes erve
C U
c ould
s ampling
Ġp ink
ill ary
Ġhom eless
)$ \
t uning
19 39
ĠV M
ĠDet erm
ĠD P
Ġcomp ares
F ort
Ġlo ans
au kee
Ġprotest s
ĠF ixed
." )
ĠM aking
Ġann oy
{ },
ĠM all
Ġutil izing
ĠE s
i ator
8 50
pl ess
Ġinc idence
}$. }
Ġmon ster
Ġenjoy ing
car bon
ĠYuk awa
pro port
mat ches
Ġcardinal ity
40 1
ĠC le
Ġr ic
it ual
ĠÐ ´
Are Equal
ĠC ass
h p
}) ]
sw ing
Ġrecord ings
Ġmer ging
Ġsus pected
ĠPh one
Ġpos es
Ġinv oked
ĠG host
Ġpract ition
Ġ\ ;\;
Ġle ar
ĠBelg ium
Ġb ump
Loc ale
ĠB right
St ill
Ġsem icon
Sh arp
Ġinject ed
Ġtri ps
ĠÐ º
h ift
Ã ¸
Ġd z
Ġsymbol ic
ĠT rain
m x
Ġpre vention
h size
ĠWIT HOUT
L IB
Ġp ocket
Ġg ym
ous es
MP L
Ġnot ably
draw able
ĠAust ria
Ġfollow ers
Ġprof its
ps y
ĠBroad way
30 1
_+ (
res a
ph or
Ġour s
Te X
ĠGener ated
F iled
com fort
ib bean
It s
t imer
M ike
A h
ine e
ge ometric
tt e
Ġcred entials
ĠMar ie
Ex perimental
Ġl on
Ġc rown
we i
per ial
Ġinf ected
The ir
ĠãĤ ĪãĤĬ
Ġcitiz en
ĠL STM
as ta
Ġm arch
ĠT it
Ġcryst all
Ġpec uliar
Ġb ags
ĠIran ian
Ġcor rupt
ĠIs ing
ĠProt ocol
c ous
ĠS ustain
CH AR
el ike
ĠSy rian
r ator
" ];
ĠS B
T urn
20 7
ĠS ale
ĠSch w
ĠR ing
Ġb acteria
ĠH P
att y
ĠChar lotte
b ands
ort ex
Ġf t
ĠA ws
{$ {\
Mult iple
ĠSus an
Ġbe ating
Ġexpect ing
2 11
pol ynomial
ĠMan hattan
Ġro oted
ĠTurn er
irl ines
EN V
Ġdemonstr ation
19 52
ent a
Ġpresc ribed
ĠC rit
Ġresid ue
con clusion
Un fortunately
qu bit
Ġvis itor
ĠClin ical
upd ated
Ġwh is
by e
Ġis instance
ĠDe bug
Ġcomput es
ĠÐ ¾
Â «
: -
ĠW onder
F rank
Z hang
tim estamp
Î º
ĠInitial ize
Ġbank ing
au i
SE TT
Ġload s
H OME
Rep resent
Ġtrem end
v x
Exp and
wh ose
ĠB ird
ac er
ĠK id
Ġmut ation
Ġassess ed
Ġh anging
ĠO d
f older
ig ion
ĠOr th
n ick
imp lementation
Ġpost er
\ #
Ġb if
}) _
-\ !
P ush
Ġcor pus
Ġbel t
17 2
\ &
Ġscal ars
Ġcook ing
ĠAssum ing
g b
lat est
Ġb ilinear
U ntil
Ġf oss
ab ad
Ġpl ur
ĠEx cell
ĠT ABLE
ĠB og
St ation
ĠSub sc
Ġd yn
C over
k j
tog ether
em ployment
ĠHand le
C oin
å Ľ
Ġcon current
à¥ ĩ
ĠB B
Ġor thon
o ct
cor related
}) +\
Ġhand ful
Ġna ive
Ġh ire
om i
Ge orge
ĠMajor ana
} <\
the m
AC ING
0 11
it ations
Ġd ans
Ġstock s
ĠĠĠĠĠĠĠĠĠĠĠĠĠĠĠĠĠĠĠĠĠĠĠĠĠĠĠĠĠĠĠĠ ĠĠĠĠĠĠĠĠ
par ity
ext ended
ĠFor ces
Ġimplicit ly
Ġown s
ST ART
23 4
ĠRober ts
add y
Ġmain tains
Ġassoci ations
ĠPo incar
BA SE
Ġpregn ant
t ies
int age
Ġparticip ant
Ø ¨
ĠB ranch
Ġmiss ions
Trans fer
Ġfix es
Ġhel per
Sm ith
p ublished
Ġform ulate
ĠAn c
Ġsmooth ing
Ġf idelity
Th omas
ĠPract ice
ĠL java
av al
}\ ]
ĠL ion
act ers
B ern
ee k
Dist ribution
ĠLic ensed
w y
Ġtax p
lim inaries
d jango
Ġdat abases
] ),
ĠGener ation
J un
itor ing
St age
an z
ĠA the
ĠM aur
AN N
bal anced
Ġs ail
ĠSt rong
ĠBel ow
v ation
uzz y
analy tic
Through out
Ġp arks
arc ia
Ġtransp arency
ĠC opy
ue z
ĠE lection
ubb les
he imer
ĠAb d
s ense
ress ing
ĠMin or
Ġport al
lement ary
Ob serve
Ġviol ations
Ġrefere ndum
approp riate
ĠT S
ĠH z
Ġrest art
Read y
Ġca ution
ĠJ oint
it ives
F ake
ĠB enn
Ġstri kes
n k
OT T
ĠBrother s
Ġp s
ĠT u
çĶ ¨
ĠCon c
Numer ical
M ust
M esh
Ġcryst als
ADD ING
amp a
Al t
usal em
rt l
vers ions
ĠFrank lin
H en
Tem p
rob ust
le igh
uit ively
s ong
Ġsp ite
ĠPH P
Ġal umin
pro jection
Ġcomposition s
M IT
small matrix
Ġsurv ived
g iving
ĠF ish
ĠCommission er
â ĪĴ
Ġcom ed
== =
jav ax
ĠM oz
itt y
W IN
Ġ" #
ĠS ad
Ġdist ribute
IN VALID
\ >
Ġimp ressed
ĠEd inburgh
Ġagric ulture
B road
ic iency
ĠB lo
Ġper mits
Ġinter fer
ĠKen ya
ĠPro file
n old
S ources
}) /
Sp ring
ĠYO U
, [
oc o
In cre
16 2
Ġrac ist
prov ided
Ġmark ers
| $,
Sh adow
as ive
Ġ' #
ĠRep orts
Ġth resholds
C u
Ġpr ide
Re ceived
P REF
Ġn utrition
AR RAY
ĠM aj
}} ]
akes pe
m acro
ĠB eng
Ġreflect ing
Ġrest oration
Ġsk i
ĠT M
Ġch icken
different ial
Ġsuper position
ĠĠĠĠĠĠĠĠĠĠĠĠĠĠĠĠĠĠĠĠĠĠĠĠĠĠĠĠĠĠĠĠ ĠĠĠĠĠĠĠĠĠĠĠĠĠĠĠĠĠĠĠ
Ġpuls ar
ac re
Ġlegend ary
ĠM ode
ĠSh ar
ĠLa ura
Te ch
sp arse
m us
Ġdis orders
)} -
me chan
Ġreprodu ced
Ġ ~~
ĠObserv atory
For ce
sens itive
Ġformula e
up iter
ĠPer iod
Ġcollabor ative
Ġtransl ations
ĠAll ah
rog ate
ĠCommun ication
d iam
im ath
ĠP arameter
Ġsucceed ed
H uman
ou p
Ġch urches
g ender
eps fig
ĠIR S
Ġdis g
Ġex otic
add Class
18 00
Ġanaly tics
K ernel
ĠF ine
og ue
Dat aset
Ġpsych ological
ĠAst ron
ĠCh rome
che l
small er
26 4
Ġsecre ts
umb ai
Ġeigen vectors
go al
: %
ĠF an
he at
Ġspecial ist
W ORK
ter min
17 7
am med
Ġun c
Ġsystem atically
G od
per m
Ġexist ed
date picker
' ].
Ġsp o
as ures
Ġcomplet ing
Ġsal ary
Ġr he
Ġexpl ores
Cal endar
mm ode
p ix
Ġs el
F it
Ġn est
ĠG ET
w aukee
ion ization
Ġar cs
ĠM Hz
Ġrev ised
For ward
ĠV oice
end point
)} ;
ad ditional
Ġcomp ile
Ġcount ed
Tr igger
Ġmorph ology
ox ide
17 4
if mmode
air y
Ġconfirm ation
Ġm arijuana
Ġlab our
oll ar
Ġc ree
col sep
> ${
_* (
Ġparameter ized
B on
co e
ĠIllegal ArgumentException
> -
Ã Ĺ
C ertificate
w i
) <\
Ġexpans ions
ĠCh amber
ĠArt ist
+ |\
r ar
Ð¾ ÑĢ
Ġentang led
Ġt ear
Ġgra b
Pr inc
WH M
is i
ĠU E
iss ance
0 12
Is ra
19 51
pay ment
Ġal phabet
ĠCru z
f ailed
Ġt ears
ĠInitial ized
Ġmon op
Ġindic ators
Ġtor que
ĠH orn
Ġdo zens
ĠCo q
ĠF light
fil ters
ĠPalest inian
IT LE
Ġund erest
Comp lex
pr ises
ra v
ide al
ĠC atalog
or st
ĠKe ith
ĠDe velop
- ,
Ġwis dom
Ġproceed ings
Ġscript s
et ers
Ġproduct ivity
Ġh orn
ch rome
art icles
ĠHerm itian
s outh
sen al
**************************************************************** ********
Un ique
Ġsp heres
' /
Ġpermut ations
struct ures
Ġmut ually
ag g
Ġm u
Q t
ĠH O
ĠMa ine
rm k
Ġdesign ers
list ener
Ġm a
spec ially
6 50
s uggest
Ġsem ic
Ġclean ing
Ġimp osing
W D
list ed
] ['
S ent
Ġconflic ts
Ġintu itive
s ay
Ġreal m
Ġt ong
ĠN ep
dis p
Ġsw ap
Ġsett le
ĠWH ERE
ĠS yntax
Ġun fold
ust ed
Ġorig ins
ĠP uerto
L ines
ĠR ate
ĠP rior
co h
pack ages
b uff
16 4
ĠFred er
Can not
Ġtheore tically
Ġscient ist
Ġachieve ment
__ ,
: &
Ġprev ents
not ification
Load ing
imod al
Ġdes ktop
Ġinhab it
ĠP rep
ĠDep uty
amb ers
ĠIndust rial
Ġill umin
Ġbl ues
ov ic
ĠSet ting
ke es
ĠF ace
Ġf oo
ĠC B
t asks
ĠD ie
Ġsp anned
Ġtrav elling
Ġd ragg
Ġli ability
P ADDING
Ġbe ings
r ases
Ġswit ched
Ġplaus ible
Ġc ous
Ġl ingu
Ġcancell ed
Ġun necessary
osp el
ear ly
Con sequently
ĠC ultural
Ġkne e
ĠBe ijing
ĠConnect icut
Ã ¥
ĠCon sumer
Ġbad ly
in x
Warn ings
Ġfeed ing
ĠF T
ĠBen jamin
Art icle
ess a
ĠG olf
aught ers
M ov
n f
b ring
Ġaver ages
H ouse
Ġmort ality
Ġsl opes
19 49
Ġfac ial
dot sc
ER Y
spec ified
17 8
Ġw rapper
B uf
ĠC N
let ing
\, (
op acity
es cape
ring e
b rew
Ġc rossover
ord ial
Ġglob e
amb ling
sw er
P ane
(\ {
el ic
Ġen compass
}}( {\
Q UI
d iction
Ġplanet ary
ĠB AS
r p
ĠArgent ina
Ġc inema
ra ising
Ġc c
Ġprom ot
- |
~ ,
n at
Ġmag ical
ĠMathemat ics
2 32
L F
ĠMe asure
akespe are
Ġe ager
d it
Ġimm igrants
Ġbipart ite
Ã ª
as ets
y cle
rist ol
dl ib
Tool s
Ġegg s
ĠR at
Ġinc idents
Ġconcept ual
SH A
ĠPod cast
SS AGE
spect or
normal ized
ex periments
ĠF ALSE
ĠK el
ĠX box
Ļ Ĥ
ĠG ive
em ission
Ġell ips
isecond s
27 5
e ing
y ellow
erial ize
Ind ia
Ġnerv ous
Ġcoll aps
Ġsub algebra
Ġpray er
H ER
Mat cher
ĠAl ong
Ġac res
ler ight
f box
Ġsuscept ibility
ĠP ackage
ip se
ĠB ORDER
ra h
ĠGr ass
Ġrout er
ĠO liver
Ġun bounded
dat etime
Ġman ages
A u
ch apter
vent ional
ĠCh ile
Ġpaint ings
Part y
ĠB MW
red shift
Ġoff line
ĠF ern
19 46
ĠO H
æķ °
Ġla pt
Ġspokes man
is ite
ĠC ategory
im on
En umerable
ĠTH IS
P b
Ġess ence
Ġprevent ing
c ub
ĠC ole
ĠC hat
orne ys
m illion
Ġsatisf action
m otion
y ang
ĠM ason
ĠP os
incre asing
ĠF ame
Ġrock s
ĠB irmingham
oper ators
Ġm os
ri en
ĠRec ent
ĠS ame
ĠC rown
lin ux
ĠCondition s
sc attering
Us ed
Ġfood s
consist ency
int roduction
') ->
cp u
ag i
Ġrecip ient
Block s
}_{ +
ĠCro at
ubern etes
Ġsynchron ized
itro gen
> =
Ġj ury
gu ard
Ġlook up
ĠLink s
Ġrep orters
G RO
ĠSh op
'' (
p ark
Ġ' -
ĠCl iff
Ġign or
ent ang
C trl
a ft
item ent
}^* $
D ict
P en
Over all
Ġsc ar
ĠVal ues
Ġbl end
ĠFe ynman
Ġgeomet ries
et on
Ġad mission
Ġco pper
CR IPT
Ġb ootstrap
ĠRem ember
$ [
C ut
t one
20 9
l ades
Ġd Ã©
Ġorthon ormal
ĠAlex and
aaaa aaaa
PRO C
ĠG rey
m ixed
com ments
decl are
ĠAnd re
Ġdiscret ization
ĠUS D
~~~~~~~~ ~~~~~~~~
Com ponents
Ġsem igroup
Pol ice
Ġlabel ing
ĠNE W
E mit
ogn ition
ĠK ay
{( -
Ġb icy
un its
Ġbij ection
ĠLouis iana
ew ard
ĠSe ctions
}) _{\
ĠEx hib
s ion
d ocker
19 3
co herent
Ġin sect
os cal
19 42
ĠLe vi
ĠVer ify
ĠLa place
ĠEm ma
ĠLeg isl
ĠP AR
Ġgradu ated
es imal
IN IT
Ġoverse as
Ġd w
Ġhop ed
ĠB irth
ĠL ex
Pay ment
g m
Ġaccept s
AN GE
CO UNT
Ġhold er
}) -\
ĠV ert
w ear
plan es
ex plicit
Ġdes k
2 15
ex c
stream ing
W rap
Ġsevent h
ĠIo T
hol m
ID ENT
ĠN ord
Ġval ence
ĠG AN
project s
B esides
} ')
Ġdocument ed
rapeut ic
ĠJ a
ĠGl as
ĠT ak
ĠK IND
R D
ĠD ES
ĠInd ians
Ġfriend ship
ĠBase ball
19 6
rif ice
Ġp t
ĠDisc overy
urch ase
Ġn u
ĠN ad
Ġs word
ĠW ire
$ |
cur y
F rench
ĠS ample
Ġinflu ential
hed ron
met er
Ġeconom ics
ĠAdvent ure
og gle
Ġscan ning
IC AL
ass o
Ġrev ision
Ġsustain ed
lo yd
K w
ref n
ĠK irk
utr ino
ĠF I
Ġcle ver
Ġacknowled ged
ĠKE Y
Ġcomment ed
ĠBat man
é Ģ
ĠÂ ±
B ob
X iv
ver ity
cell s
pp ler
ĠK az
18 7
Ġjournal ism
ĠProv ince
{ }^
tan h
Ġtrunc ation
ĠTransport ation
ĠF ramework
Ġoper a
ĠJohn ny
Ġr ated
ĠSand ers
uch i
f eld
ĠK err
Ġsum mit
_* \
ĠSe ven
################ ################
nt hetic
work ing
det ect
Ġluminos ities
> `
r Vert
Ġfair ness
ĠDen mark
ĠMiss issippi
ĠB es
Ġar r
ind a
$. \
Inst ruction
ut ives
Ġcapt uring
ĠR ES
}} ^{-
ĠBern ard
Ġanxi ety
Ġcontrovers y
Ġtermin ology
ĠCom ics
uc ial
ĠLine ar
Ġa apt
Ġl l
text ure
ĠI SM
pay load
ĠLiter ature
ĠP un
Ġincorpor ating
amb le
Ġtrans fers
Acknowled gments
cur ves
inc ial
Ġr if
C SS
Ġd ining
Ġalt ered
ĠChel sea
Ġtechn ological
MB ER
U A
Ġnow here
ang les
Ġhope fully
ĠLat est
ĠH at
Vis it
I o
iv ic
ĠR io
F oundation
Ġb ron
Ġaccept ing
* (
ĠEvery one
Imp lementation
Ġresidual s
im als
Ġsmooth ly
eqn o
ĠTR UE
D one
ĠL arry
H AL
ĠM inkowski
Ġst ub
ĠSt ack
les h
ĠA part
Ġsl ots
ĠI SO
ĠN ap
ĠComp lete
ĠSum mit
weg ian
J ournal
ĠIn stitution
Az ure
Ġreg ards
ant ry
Ġsuggest ion
ĠA irlines
Ġor acle
() ">
ĠCh a
Ġdeform ations
Ġback bone
ĠTr uth
You ng
Ð¸ ÑĤ
am ic
in tern
qu asi
)/ (
est y
alax ies
C hat
Ġl ap
er gy
Ġsec ured
ret val
ĠAl b
ĠEv olution
f re
\ (
ro c
ĠC e
ĠF actory
19 41
Th ird
Ġy r
Ġconst ructions
Ġterror ist
tem porary
Ġund ers
ĠDise ase
bb ed
TH ER
Ġcl s
Ġeth ical
m om
ĠDev ice
f ine
ew ay
Ġtend ency
SY N
Ġrefere nced
E r
ĠCom edy
new page
3 10
ag greg
Ġspin or
d ou
ĠS Ne
SP ACING
Ġadjust ment
Ġfib re
Ġre vel
Ġro ster
Ġprof ound
ĠC oun
ĠC FT
Ġemb arr
pl oys
ĠJ oin
By Name
Ġ/* !
Ġaugment ation
ĠB aby
Ġking dom
ĠK lein
M ur
}| $
' }}
ĠM pc
ĠN ar
ĠB att
Ġpol ym
Ġsimilar ities
ĠPhys ical
Ġinsert ion
Det ector
P ipeline
Ġb anned
Ġe ars
ix on
Ġconcent rate
st ead
17 3
be havior
ĠIss ues
Ġke en
orient ation
d id
ĠEl li
M ail
L ite
Hash Map
Ġrememb ered
Ġcomp ass
Serv let
c ached
sw ap
Ġimm ers
Ġinnoc ent
e ither
ĠP ictures
ĠT on
b w
ĠDist ribution
attr s
SU CCESS
Ġlog s
Ġcou rage
be ans
App ly
prep are
m usic
ĠM g
Ġheart s
F und
ĠTh an
Ġshock s
Ġcreat ures
Ġd ys
acknowled gments
l f
Ġin aug
Ġambig uity
Ġintu ition
Ġemer gence
ĠHor ror
Al g
Ġ& &\
lik elihood
W ater
Ġsl ip
Ġcon spiracy
Ġste am
Ġatt achment
Function s
M AC
Ġbul let
es ters
redu ced
ĠNash ville
ier ra
Ġlogarith m
Spe ed
Ġreveal ing
od ox
ro v
Ġhe uristic
Ġroll ed
Ġqu otes
ĠN HL
Ġcomp ly
ĠBol tzmann
Ġcomment ary
Ġbatt les
ĠB udget
17 1
Ġpre st
Ġdark ness
C redit
Ġv ig
Ġsh aded
ber n
it ational
ĠY u
Ġbel oved
ĠMad rid
ĠT oken
Ġh ull
Ġ' ,
W ARN
M iddle
i per
Ġv essels
b k
Ġcent res
ĠC arm
ĠA y
ĠA w
K T
roll ing
ro us
Ġdifferent iation
Ġlight er
Ġfragment ation
Ġdwar fs
) &=
ĠProgram me
Ġmer gers
miss ing
Ġattack ing
h it
ĠM ack
cor ner
Ġnegot iations
Ġexplan ations
c A
im en
: /
ĠB row
) ^*
18 9
ĠSpring s
Ġspec ifying
__ _
ĠCol omb
Q A
)\ )
press ure
Ġnomin ated
Form atter
Ġfl aw
pres erving
ĠB ec
elastic search
B ridge
Ġcount able
Ġdead ly
Ġsch olars
P ixel
Ġevalu ations
al ink
an che
(' ./
Sur face
ĠAl aska
ĠLand au
Ġestablish ments
ĠI MF
Pack et
Ġw ars
ant om
Bit map
Ex it
class ification
ĠFac ulty
Ġannu ally
-> ,
ä¸ Ń
Ġpars ing
L uc
ben ius
ĠC arn
if ference
cs v
ĠTOD AY
Ġt ilt
Ġdest ro
S ar
ĠHar vey
I SE
d ense
ex perimental
rt imes
Ġex clusion
determ ined
3 40
ĠHous ing
su cc
aut om
Ġde alt
k al
ent o
30 2
Ġre ign
App lying
Ġwarn ings
qu ick
Ġdem ocratic
Ġt s
ĠInvest ment
B ERT
Ġcle ared
Ġpers u
Ġspecific ations
Ġtouch down
Ġmet ast
ĠLiber al
p aren
re verse
Ġex pend
app s
With in
ĠR acing
pos it
NN s
Ġ$< $
Ġdevelop s
Ġrec urrent
Ġadd r
Ġgovern ance
Ġsear ched
ĠP rec
rac le
Su ite
Ġquarter back
18 2
ben ch
D ark
Ġun fortunately
vio let
f oundation
ced es
Ġtox ic
ĠSt ri
or ption
Ġident ically
>( <
- {
Ġh iding
ĠSh ah
ir s
Ġhydro dynamic
' |
d td
Ġli ver
ĠSu ite
en ch
rr rr
Ġcar riers
Ġcomm od
start s
Par cel
ĠForm at
ĠL ad
E ast
Ġw ise
Ġdis closure
ex change
v endor
Ġsh ore
Ġt ribute
th ink
\ },\
Ġafter wards
M Hz
Ġpro gression
ĠK ol
a qu
m ol
ĠA CT
min o
rot ation
ĠPhot os
Ġh olograph
Work er
}= (\
Ġin ad
amp ire
land o
ĠL ux
ere k
Ali as
depend encies
Ġal ike
ymmet ries
ĠCELL SPACING
ĠMove ment
Ġo h
M EM
ĠM ario
}{ |\
ĠU g
ĠCELL PADDING
ĠM eta
ĠRic ci
ĠC ov
Ġla unches
ee a
ĠD rop
Ġst yl
Ġcompet itors
Ġmacro scopic
st ri
Ġl ung
ld er
Ġtem pt
Ġdis rupt
Ġh oney
oc ur
Ġconvent ions
Supp ress
T ip
}' \
ĠPlan et
I refn
var s
18 4
sp i
** /
ĠPaul i
Ġsm oking
Ġhot els
ĠD rama
l av
h art
rom atic
Ġmathemat ics
ric ting
è ¡
r w
ĠK ath
ous el
c ro
$. \\
Ñ ĸ
ĠAr c
Ġentertain ing
Ġ" );
ĠPl aces
Ġcru ise
P ark
Ġconduct ance
Ġsuper vision
ĠR V
&& &&
bas eline
EX PORT
el in
ps hire
ref resh
ĠJer usalem
w ire
ĠĠĠĠĠĠĠĠĠĠĠĠĠĠĠĠĠĠĠĠĠĠĠĠĠĠĠĠĠĠĠĠ ĠĠĠĠĠĠĠĠĠ
Ġh ug
Scal ar
> {
c art
ĠTy ler
Ġwork load
)\ |
red ited
arent ly
w at
x c
Ġ æ
Ġf ur
rane an
Ġposit ively
jack son
ĠOr chestra
Capt ure
18 8
Ġarriv ing
Ġ( -\
con sum
ĠWe ather
Ġpaint ed
Ġdisag ree
Ġelect roweak
ĠB P
Ġsp arsity
ĠCar ibbean
, -\
Ġl oving
ĠU nd
itte es
ĠS ays
Ġviol ated
ling ton
d dots
k le
Ġc ig
3 80
Ġenc rypted
Ġextrem al
respon sive
Ġspons ored
ĠT elescope
In vest
Ġig et
Ġpers pectives
Ġproton s
Ġcert ified
Ġwe aken
ac ements
ĠT ig
Ġdiv iding
ĠT ol
ĠU SE
W ould
Ġw orm
Text View
ĠTrans form
S ong
Ġbi ology
erc ise
D ou
Ġnetwork ing
Ġauthor ized
hell o
Ġen rich
ĠDak ota
ĠLi u
dor ff
Ġg i
Ġnews letter
subsc ribe
j l
unt u
Ġkinem atics
ĠD iamond
ĠAz ure
sec ure
ĠB eck
ĠH unt
Bl ob
@ \
ĠN am
! </
o pp
Ġto urs
Ġt rivially
AR S
eg u
Ġres il
ĠRes taur
atter y
Ġt ennis
re li
Ġass ass
Ġshe ets
ĠT odd
ex periment
Ġinform ative
h um
ĠĠĠĠ ĉ
g ot
er ation
ĠK an
ĠK il
if est
pen se
ĠAm endment
ĠEm ily
charg ed
af ka
Ġdes erves
Ġshock ed
cc i
19 43
ull ivan
Ġatt rs
R atio
16 3
Ġdepart ments
Requ ire
IF T
ĠCele br
ĠK os
E ST
as ia
App le
au nd
CRE ATE
M ir
_{ *
Ġl azy
ĠH ind
f aster
Per cent
Sc ience
in ion
Ġbi ases
17 9
UT C
Ġsustain ability
ĠNY C
Track er
st ability
RE NT
ĠD NS
U PDATE
Ġlaunch ing
F r
ish a
nof rame
N ONE
Ġ< ?
ĠDate Time
en es
_ [
al ies
ĠP icture
Ass ignment
comput er
ĠM illion
Ġthorough ly
Q C
cl ed
Ġdec ode
Ġho pping
Ġde ar
ge om
Ġ} ^{
Ġle ather
ĠSt ruct
ĠUs ers
ĠPart icip
T witter
Ġdrink s
Ġvirt ue
ĠNC AA
umbn ail
Ġw orship
Ġaltern ating
ent ries
Ġinn ings
es gue
id ency
Ġrefuge es
ĠCurrent ly
ess ing
Ġcre ator
Mart in
ĠC ache
Ġst om
Ġmet als
or ig
ĠIn side
Ġsignal ing
Ġprop ri
ĠL oss
Ġ\ }$.
ur acy
Ġtra ged
Ġco oper
numer ical
Ġneighborhood s
Ġco aching
16 1
ĠCom parison
ĠMaterial s
ĠF ail
elect ric
ĠN athan
ect ure
ick y
30 3
Ġloc als
Ġmultipl ied
Ġp ension
DE C
Ġign oring
Ġvacc ine
ĠS qu
second s
Ġinv asion
Ġposition ed
Ġcall er
Ġworth y
l iter
g om
Den ote
Ġsatur ated
ĠT ow
ard i
[] {\
ĠWat son
Ġs our
Ġmand atory
ĠJ ake
ĠL anka
Ġland ed
L ittle
ĠW A
Ġgener ative
ĠR R
ĠH ub
ĠCol lections
Sc ene
ĠSet tings
grad le
ĠS TR
rac ed
19 14
Ġsh irt
Ġdisappoint ed
ĠN umer
Ġsubsequ ence
ĠG PS
l est
m or
Cent ral
0 75
d ynamical
et itive
Ġv in
bul k
Ġcor on
Dan iel
att s
d V
Ġdep icts
ĠHash Map
}- {\
b id
D ash
ĠDub ai
ĠAb u
ĠN R
ĠG rowth
Ġenc ounters
Ġflu ores
ĠMult iple
ential ly
Vis itor
Ġwood en
B in
RE QUEST
Ġb ay
ph ic
Class Name
Ġcalcul us
ra k
... ]
Ġformer ly
Ġlif ting
Ġkick ed
Ġdegrad ation
Ġany body
ĠA WS
add plot
Ġtransl ates
rie ve
trans late
Ġdis advant
ĠP si
osp in
Ġgr at
Ġrac ism
N or
as ury
ĠA rena
Ġpre decess
ĠTreat ment
M u
cccc cccc
separ ator
T opic
ys on
prov ide
Ġall ies
ĠU l
ĠF err
Ġvers a
Ġm akers
Lin q
ĠCom pton
Ġas h
ĠK on
Ġadvers ary
Ġsan ctions
ĠEmer gency
w u
An notations
Ġpol ls
ia z
\, ,\
ern ess
h base
log y
e as
ĠK ur
Ġpassion ate
Ad ditionally
19 4
y u
def i
, ,
Ġactiv ist
look up
min im
RE AM
ĠFin land
Ġcoast al
d al
} ',
Ġreal izations
A st
Ġm aker
22 3
y ll
L ess
c ookie
bra ham
Ġcho oses
get Attribute
z oom
ĠAd vert
db c
H op
p v
ĠJ uan
Ġcomp romise
ĠRep ly
ar ct
_ +\
ĠAssoci ated
p ract
Ġsc andal
ash a
e ref
ee per
ĠU T
F atal
H K
ĠF inn
Oper ations
ĠTes la
Ġ[ {
equiv ariant
ĠRequ ired
Ġheli um
el o
b usiness
ĠU AV
re ts
ĠWood s
om o
Ġdam n
ĠT erry
\/ }
Ġb other
Ġto uc
ag h
IS A
gr pc
place holder
Ġde composed
ĠR AM
Ġaut oc
Ġdon or
Cal cul
Ġk w
ĠCamp us
over lay
Ġcust ody
az ines
R ic
Ġline up
ĠEd wards
re cur
AB ILITY
J D
es pecially
ok ia
pan ic
2 14
Ġmat ure
Ġaccommod ation
M g
Ġbe aring
L ou
Ġgeomet rical
ĠV eh
c O
}) (\
ĠBar celona
}\ }_{
Ġlack ing
Ġhe aling
sim pl
Ġf ires
Ġo ught
be a
22 6
Ġimag ination
Lat est
C ong
LO B
ĠCom merce
in j
et ta
Ġtra its
sm ash
Ġco at
Sl ot
/ #
Ġburst s
Ġvol unt
H B
Ġsuper gravity
Ġfear s
Ġpa ired
})- (\
r atic
ut enant
++ ++
n x
Ġdemonstr ating
Ġb ail
ĠW ol
vent ory
Ġc s
K A
Ġinfl amm
7 20
38 4
rom y
ĠFl ag
ig ating
ĠW ant
google apis
it ime
ex ponential
ĠChristian ity
ĠR NA
V ir
V ery
Ġcount ies
Tra ining
ĠPortug al
l ists
de velopment
i ological
Ke ep
Stat istics
T ex
ĠIP v
ay an
B rown
Ġ" _
ĠAgric ulture
ĠN ancy
45 6
ĠT s
Ġh i
hi er
ĠForm ula
c g
re duction
Ġair line
Ġan ime
upload s
Ġ& +
ĠEval uation
Ham iltonian
preced ented
\ :
ubl ish
sl ider
ĠDC HECK
Ġimp urity
ins ki
Ġdet ections
Ġproblem atic
br is
s ix
aver aged
Person al
/ {\
eb ook
Ġrot ations
! =
] </
ster dam
z el
ĠP in
ĠR ud
ug ar
Ġresolution s
M pc
ĠH I
ĠAst ro
ĠCirc uit
if ully
ator ies
Eval uation
E U
Ġopt imum
Ġshut down
Ġtouc hed
product s
J eff
be y
Ġcell padding
S rc
w allet
ĠFa ith
ordin ator
whe el
Ġsub system
T ables
g am
ing ale
o ard
og s
av i
30 5
Li u
0 15
ĠEx pert
ĠS quad
Ġ&= &\
ogen esis
ĠP le
Ġab ortion
su ff
Ġaccount ed
R ock
OTT OM
; ,
Ġth under
mut ex
Ġcreat ivity
Europe an
Ġemploy ers
Ġcorpor ations
cel and
$ ^{+
ĠD rag
Ġcam ps
ĠGR B
$ }.
Ġ( `
g em
) &\
ĠH ess
Ġwhe els
plan et
K ills
tr unc
}$ }\
ĠAct ivity
ĠE ye
F ront
ĠW riter
value Of
ĠRed u
vect ive
Ġdon ations
Ġpur ple
FT WARE
Ġfulfill ed
pag ination
Ù ģ
e ur
Ġv iral
ĠF IF
dom inated
A ge
Ġy ard
Ġnew est
L B
dis patch
Al ignment
Com ments
Ġplur ality
\| _\
Ġfund ament
ubb ard
ĠInit iative
Ġed itors
ĠT ools
Ġless er
IR ST
ine a
ĠHor se
$ },
? !
View Controller
Ġshel ter
ak u
Ġball ot
match ing
19 1
ll l
AT T
Ġche ese
Ġprogram mes
Rep ly
Ġobst acles
Own Property
Ġsuff ix
ĠForm er
ĠF itz
red irect
Ad am
Icon Error
AR GET
Ġ" [
ingu ish
Ġw ounded
ie v
Do ctrine
N B
ogen ous
ancellation Token
Ġin sufficient
th ose
Ġp ig
Ġab bre
ĠCo ach
Ġinvent ory
Ġinduct ive
ĠTheorem s
] ->
Re place
Ġo l
Int ent
Ġin cur
mm as
Ġhy d
19 36
ĠA ST
Ġcompr ised
Ġtradition s
Ġintrig uing
Ġ" ${
Ġcomm utes
norm als
Ġlater al
vert ed
+ {
og an
G erman
an ol
ist le
Ġrecept or
ĠB our
Ġqu it
×Ļ ×
om ers
Ġl oses
ĠD anny
Ġadv ised
NG TH
W T
Ġcomp rom
[ -\
Ġch ips
Ġint im
g ro
Ġto ss
RE L
Ġexpress ing
un s
19 18
Ġobst acle
Ġconsum ed
b road
pt a
ĠE S
ch unk
Ġart work
Mod ifier
ĠCost a
og g
ov y
ĠCl uster
Ent ries
Ġreg istry
D imension
19 15
W ild
ct ree
ĠL R
bra ket
Ġsepar ating
Ġdistinct ive
ĠN amely
Ġterm ination
ĠTest s
Ġredund ant
ĠPre vious
ĠAn imal
ç »
ĠTrans fer
ipp et
Ġfound ing
Ġphenomen ological
b right
ĠMe et
ĠM asters
Ġdrum s
ĠDis cussion
F ive
ĠC ant
String Builder
ĠApp ly
ĠI BM
ĠConserv ative
St d
Ġev ac
Ġfl our
Ġtable t
Ġelectron ics
Ġassign ments
S und
Ġrele asing
g ences
Ġlect ure
ĠS TD
âĢ ħ
T aylor
ĠR angers
Ġesc aped
ĠElement ary
m is
Ġfoot print
ĠAltern atively
Ġelabor ate
Ġg au
Ġvol atile
ĠW es
19 37
22 7
Qu estion
Ġaccompany ing
IconError Encoded
}} },
ip ro
E A
Plan ck
Sm art
Ù İ
at op
Comm unity
Ġdeput y
Control s
w en
et able
ĠP ART
Ġre conc
Ġwid get
Ġr ush
50 1
Ġbre ach
Part ial
)} )$
ĠGl ass
ĠPU BLIC
aceut ical
ident ified
ok a
for th
Ġch ron
EN S
stats models
Ġdem o
Ġout break
Ġind ent
Î ³
23 1
Ġg it
LE T
Ġn aked
D am
ho ff
Look ing
Mer ge
Ġdu o
ĠCho ose
B ank
C AR
color MATH
Ġsold ier
Ġp unch
ĠT ell
Ġde formed
Ġstrugg les
ac ency
Ġoccas ions
Ġveter ans
ĠK ill
S ets
Ġpro x
Ġclar ify
ob b
ĠEx pect
ĠC IFAR
ef ault
Ġforb idden
ĠY am
a uses
ie u
sl ot
M ont
ĠMO RE
Ġexplo ited
Ġcasc ade
Ġstar ring
Ġpremi ere
ĠPut in
Ġparametriz ation
j obs
ĠM ak
Ġr ice
ĠMin i
Ġquas ars
IM O
T ur
ri ends
Ġclass room
Oper and
show s
Has Been
F ill
et e
ham mad
St rong
} ~~
ob ar
Back end
Lear n
Ġprospect s
E LEMENT
ĠH alf
sub division
Ġd f
ĠGib bs
in finite
ĠT rad
ĠSp ider
Ġc of
Ġ ^{-
ĠB T
Ġorgan ised
ĠSh akespeare
m esh
ĠCom mercial
Ġpath way
tool bar
d an
k an
ĠL C
aus dorff
Ġloc ate
TEXT URE
s olutions
Ġbehav es
ĠJ os
dem o
S IGN
lades h
Ġdef icit
ĠBut ton
ĠCho ice
ACT ION
St yles
iv ia
ĠOb viously
P rep
Ġnecess ity
ĠHe isenberg
comp atible
30 8
Can vas
S NR
ĠB order
}[ (
comp let
Access or
Ġre hab
in ters
S ta
ĠP ent
" ?>
sh ine
Ġeth ics
IN DEX
Ã «
ad apter
Ġinvest ed
az ure
LE N
Ġremind ed
Valid ate
Ġmic rowave
Ġcon ject
ĠJ ar
ep he
ĠHar rison
Ġ======= =
Ġinst it
22 8
ĠT YPE
Ġfree ze
Ġsynchron ization
x f
od ium
ĠF ont
00 9
( `
Ġd B
Ġ" )
ob ic
Ġpy thon
Look up
C as
Ġdr one
Ġdest ruct
Lower Case
spect ra
as pect
Ġcoll apsed
ĠB uffer
Ġdimension ality
ĠR H
Ġfin ishes
ĠArt icles
Spec ifically
Ġsil icon
P ing
18 6
cap acity
B ol
Ð ¹
Ġc ats
be e
dist ributed
n ia
} "/>
Ġconf inement
Ġheter ogeneous
ĠN az
Ġdisc s
ĠOb serve
Ġpresum ably
Ġc argo
Ġs isters
Ġkn ife
Trans lation
ĠM otion
ĠKnow ledge
e i
Ġin consistent
)) =\
ĠPro gress
B an
log ical
Ġl ymph
un i
osp heric
Ġcell spacing
U int
ĠRem arks
ĠB eth
Ġre jection
ĠJ obs
å ¼
ĠY ellow
p ire
ĠC OP
, &
ĠX X
ĠIN T
othe rapy
Path s
de al
ĠComput e
he nd
ĠG ene
hal o
Ġenerget ic
Ã ´
Ġsk illed
Ġnewsp apers
ph al
rot ron
Ġconstit utes
andid ates
atal yst
Ġappe aling
Ġport rait
Ġsub stit
ĠPal m
d iver
Ġdenomin ator
Ġsp y
L ater
i encing
gra ined
ĠStan ford
p unct
Ð ±
set Text
;\;\ ;
Sign al
Ġcontain ers
N M
ĠS r
ins ky
C ov
Sche me
accur ate
Ġd rain
40 5
pop up
ĠInter face
Ġsubt raction
ĠSol id
Ġconscious ness
Y et
un iversal
Ġreplic a
ĠB D
Ġmin istry
Ġrevers ed
Ġclass ifiers
Ġad verse
Ġnav igate
G ateway
Ġr iders
22 1
Data Type
redu ce
l k
Ġd ex
Ġbo ats
manif est
ĠInterest ingly
ict ory
Ġequiv ariant
ĠN icol
Ġsuccess or
Gu id
g d
o ons
+ (\
M X
] -
Ġdef ending
be cca
f h
al ways
com ed
Ġorbit als
F riday
ĠJ O
paramet ric
R B
um ination
Ġse am
input s
n om
}$ \,
ĠGlas gow
ĠT ib
Ġrel ativity
ĠM unicip
e lection
Ġdie lectric
Ġopt ically
Ġrecurs ion
ed e
Ġmet er
Ġev olves
ĠE rn
Get String
c S
he v
__ .
AS P
certaint y
ĠLiber ty
K ar
STR U
se ek
Ass ign
k ill
ann ers
ĠString Builder
Ġframework s
rib ers
Ġeleg ant
Ġpress ed
Pop up
ãĤ Ĵ
Ġrec ipe
Ġvac ation
Start ing
Ġeditor ial
Fore ign
Ġinteg rand
Ġconsult ation
Ġhelic ity
ch air
-------------------------------- ----------------
ĠB U
ĠR A
Ġsc iences
Ġst ir
Ġ& $\
ok u
}}$ -
Ġpop ulated
ĠB erg
Ġover night
serv let
mat ched
il ia
ĠS creen
Ġhe ights
cy cles
ĠSh ang
inter acting
Ġmer ch
WR ITE
{\ '
Ġreg ener
Ġcelebr ity
poss ibly
ĠPhill ips
ac cel
26 5
ma re
de composition
n ice
ub le
M ary
ort on
Ġdepth s
. ''
Ġadvoc ate
ch rotron
We ak
Ġv endor
ex plain
Ġle ase
ENT S
Ġh ype
Ġprob es
FORM AT
ĠI MP
Ġinter ventions
ĠCh art
7 68
cast ing
Ġjump ed
V EL
are l
pe x
Ġden y
Ñ İ
ĠO THER
Ġun ions
ĠAtt ribute
T OP
Ġtim eline
ĠS id
)\ }$
ÃŃ a
y i
over flow
Ġfuck ing
Ġun supervised
ĠRE AD
ĠVin cent
K er
Ġswit ches
c H
Ġs q
work er
Ġtour ists
ĠExt ension
Ġbuy ers
Ap pe
ĠF S
ar us
and ez
sp ark
19 17
ap unov
Ġmet res
Ġend orse
ĠLe o
abs olute
HasBeen Set
G ray
ĠCh and
Ġr itual
Ġchap ters
colorMATH A
ĠF el
ĠLook s
Ġr ises
Ġinstant aneous
ct rl
Ġhe aven
Ġal beit
ric a
k b
Ġconv icted
=" {{
ĠD elta
Ġend if
18 3
Ġexc itement
28 8
Ġvol can
And rew
S FR
Ġref use
d S
Ġannot ated
as ide
od el
ĠM AC
P aper
Ġapprec iated
Ġvort ices
ĠPl ayers
B rand
V an
W P
i Name
ĠArm en
ĠB rain
Ġemploy er
t elling
ĠT her
Ġfight er
B LOCK
Ġst rang
ĠB ear
Ġem power
De ath
M LE
| ^{-
." ;
S a
Ġf u
PP ORT
Ġemb race
ĠD ol
Ġwork shops
ĠC riminal
ĠMic helle
Ġint ensive
ĠEconom y
P ic
ĠA round
ĠK aren
v n
ĠM ul
Mod al
ĠHon or
ĠSe lection
appro ach
ad os
ĠP SF
ĠBer keley
m and
ĠAct ually
ĠStand ards
ĠL F
ĠAssoci ate
` )
ĠL D
FA IL
H istor
Ġc ad
ĠCl ay
D ry
vert ices
An im
Ġven ues
' =\
ĠB ristol
erm ont
Ġ. =
Ġdiscipl ine
}\ }
Ġnormal ize
il o
Ġmal icious
T ilde
Ġpack ing
ut ton
Ġdon ation
ĠR oche
ĠBen ef
Ġhaz ard
ack ed
Ġindex es
Ġgram mar
\ }^
Ġtremend ous
ĠSher iff
SU B
P ac
ul ators
um per
s sec
y on
ĠH un
ues e
agn et
Ġaff air
V T
ĠSh aw
ĠM F
Ġvis ually
="# "
3 15
Ġinv ite
Ġ} ^{\
Ġdig its
h all
rad iation
Ġrecur rence
Cho ose
" }
ac ion
ĠAc cept
U Int
)] \
Ġpiece wise
b end
ĠE u
9 11
C ES
n ament
Ġl enses
em ia
yl an
F IN
Ġaud it
Ġw ound
ĠSh a
Fix ture
larg er
ĠLeon ard
Ġw ore
mon ot
? âĢĻ
Ġre lic
ĠN uclear
Ġfun eral
Ġsec ular
Ġbenchmark s
ĠQu arter
Ġvoc abulary
ĠF u
'] ))
Ġback wards
triang leright
H ist
Ġup stream
* >(
ĠA ld
Ġ} ).
Ġachie vable
ĠS alt
if s
23 7
max cdn
ĠQu ick
ĠSc ore
g ic
l ayers
FE ATURE
Ġstake holders
Ġlegisl ative
d R
cl osing
the ad
ĠR idge
U UID
ru de
ĠP G
ĠR osen
ĠNev ada
Ġco ordination
Pro c
um ble
Ġinf ect
Ġse aled
ĠZ end
ul o
ĠB ud
M ount
ĠTh row
Ġ/ \
Ġtransc ription
n cing
ĠM umbai
ĠFl ore
ĠConsider ing
Ġex tern
Ġche aper
4 20
Ġsl iding
ĠOther s
Ġattend ance
Ġinstitution al
Ġadopt ing
uminos ity
c ke
Name Link
ren ces
Ġdesper ate
R IGHT
Ġresear cher
att ach
Ġpri est
ĠHy per
B et
SE C
ĠTre nd
ĠStart ing
ĠS TE
/** */
d ump
ĠTh rones
b R
Ġres ur
Ġpress ures
he astern
ĠR ac
ke eper
ĠM IN
Ġpro poses
g irl
if teen
Ġgraph ical
Ġcop ied
beg ingroup
G rant
Ġexam ining
ĠLeb esgue
V IS
Ġexec utives
ME SSAGE
ĠField s
cent ric
Ġstack ed
f its
ĠJess ica
O DE
p ole
ĠCh ampion
23 8
ich i
ht m
av oid
Ġro d
Ġanaly se
et ched
Ġres erves
p rior
Ġnever theless
Ġelev ated
ĠApp lications
19 38
tr ast
Ġpoly gon
Ġconsist ed
Ġc her
Ġchalleng ed
pen cer
Ġj am
W C
B log
Ġmem orable
Ġpar ish
read ing
ĠInt o
ec ycle
Ġexhib ited
Ġcontroll ers
Ġcor n
ĠDe b
Check ed
0 13
Ġeduc ated
in de
AR B
Ġconv ince
ĠCour se
ĠFil ms
Sem antic
ĠK yle
Ste ve
Ġprison ers
re ctions
ĠN ak
we ights
Ġingred ient
Ġm asks
Ġre he
ĠD FT
Ġauthent ic
Ġsm ell
Ġfid ucial
p riority
Ġs au
rib ing
eg el
conf irm
ĠCON DITION
Ġ+ (
Ġd aughters
---- ---
mat rices
I p
ĠCirc le
Subsc ription
ĠLook ing
Ġ\ ;\
ĠB A
all ed
Ġ< \
ĠComp anies
ĠPar ad
ĠPet e
Ġco operative
Ġcro ps
pe er
ain ter
An chor
Ġkid n
ĠW o
Ġmort gage
Ġc oc
22 9
Ġcab in
? (
Ġri vers
t ens
G it
ĠCh i
Ġre dd
Ġhe ated
ites pace
| (
Ġst y
cl ing
cam el
~ .
big wedge
Ġcur riculum
ug g
ĠConserv ation
L im
c atalog
cl er
ĠApp lying
is ure
ĠC ub
Ġtra ded
ĠSom ething
L if
Ġp ays
Ġbu zz
Ġestabl ishes
Ġp ile
00 000
Ġmult ivariate
rows ers
Mark er
initial ize
ĠH indu
c P
anc ers
ĠA verage
bro ken
ĠPubl isher
ĠL amb
29 0
Link s
G i
Ġcru de
ĠYan kees
Ġinstant ly
Ġpropag ating
field set
}^{ *}
Ġkey word
ĠWell s
j ournals
var nothing
Ġ- (
ĠGre ater
P adding
Ġsp rint
6 40
ro ots
ĠS OC
c F
ĠH em
overn or
Listen ers
19 10
ÑĢ Ð°Ð
ĠG MT
P ur
v or
Ġb uses
ĠL uther
Ġlocal e
Ġfun ctors
ĠF is
Ġtong ue
Ġtour ist
agon ist
Cl aim
Ġelectro de
h orn
Ñ Ī
on de
ch arts
sub string
log ic
ĠVal ent
fol k
J s
Ġm ol
Ġch ocolate
to ctree
Ġres ume
Can ada
B ER
in ative
ĠP ere
Ġprior ities
aff ected
n ut
ĠF lu
Ġdelight ed
pl aced
ĠCommon wealth
Ġtest imony
F all
w br
P B
d ens
in ces
ĠT ags
to pe
ĠT ensor
ob a
Ġridic ulous
Ġem ploys
ĠE le
(" .
jo ys
ĠC HECK
Ġequ ilib
Ġamb itious
Ġsevere ly
rit ies
ĠCre ated
Ġcompr ise
ag ine
conf irmed
ag ra
ĠTest ing
Ġarchitect ural
Ġg reedy
Ġcast le
Ġburn ed
Ġterror ism
con cept
' }(\
Ġthro at
ĠA A
Ġbif ur
ĠB in
3 45
deriv ative
y z
Key words
sim ulation
Ġnom ination
accur acy
Ġun fair
Ġg y
cy l
yl um
ans wer
Ġpo ems
ited efault
CL U
mc itedefault
Assum ing
iS ector
manif olds
ĠB ot
ĠC op
ĠMont ana
ĠC ONT
Ð¾Ð ´
ian ces
Ġtransform ing
P ublisher
18 1
PA SS
am ation
ĠCor porate
Ġwitness es
Dest ination
B ag
Z oom
sp atial
Second s
Ġperipher al
id ae
ĠRe ed
Ġwall paper
D H
g old
Ġl anes
ak y
h ort
l if
Ġl ambda
Ġfarm ing
A ctor
ĠMil waukee
Ġtravel s
Ġf ocal
ur st
Ġknot s
ĠC ert
ON D
Load ed
Ġun precedented
File Path
Ġaccum ulated
ĠSur v
Ġhabit at
p it
st raction
ring ton
Ġi Pad
Associ ation
ĠH udson
f v
Ġw inding
num bers
Sl ice
Ġflav our
c ies
uc le
^- _
Ġround ed
S in
h w
ĠP rad
product ive
os i
Ġpr imes
ah an
Ġdisappe ar
end group
ĠW D
ĠF am
Ġanalyst s
Ġ ../
Ġ$ ('#
() `
Custom er
ĠH S
Ġh unt
Ġz ip
Ġim plication
], [
L G
Ġcontrad icts
subsc ription
P V
ĠSpe aker
che z
Ġann ounces
* .
Ġsub stituting
re ne
Ġtrans cript
Ġexcess ive
w ik
Con struct
ĠNS String
N UM
Ġf ru
cl i
Ġqual ities
Ġheav ier
ĠRog ers
ĠCON FIG
ĠTown ship
Ġbath room
reg ions
Ġoffset s
Ġbe ars
m oving
Ġt iles
ĠComp ared
ĠD raft
ipl inary
s low
code c
ĠThrough out
FFFF FF
Ġg lyph
ab we
supers cript
Ġbed room
re z
ĠF at
bo ys
ĠBry an
ĠBuff alo
Ġinev itable
Ġact ed
ĠSet up
ĠTrans action
set Attribute
ĠPart ner
Meta Data
Ġend e
Ġgra ve
ĠMont real
follow s
Ġ*/ ;
cor por
ival ent
v et
ĠPhil osophy
| .
Ġp upp
ferm ion
T B
Ġsac rifice
S and
s ho
ĠMod al
Ġcelebr ating
Ġs ew
ĠP ok
Ġep it
Ġinsp iring
ĠM ob
Ġimport ed
Ġpropag ate
Ġtact ics
Ġinfinit esimal
S ound
ore n
Ġmunicip ality
ĠY eah
year s
K R
Â Ĵ
Ġp ist
Ġex changes
Ġgate way
uss els
}) )$
}) \,
Ġmat hem
To o
Ġthreat ening
Ġtrig gers
Ġ iv
Ġ$ *
In ject
ĠE ither
Ġpossess es
h im
it ored
Ġinv isible
ĠMP s
Ġdisappe ared
od ers
ĠPark s
ĠComp etition
sur vey
Ġwitness ed
ĠOC aml
w right
Ġex cluding
Ġshow case
normals ize
E instein
Ġc ounc
}\ !\
Ġsm iled
Ġhapp iness
convert ed
/ [
Ġpow der
Ġv endors
Mill is
19 16
ĠMy r
Ġf are
ĠSt re
iter ranean
Ġsleep ing
Ġpool ing
24 8
ul ed
ĠC off
j ump
eg al
ĠJul ia
Ġfurn iture
tab colsep
Ġm appings
ĠH i
Get ty
Ġob servers
em ption
ĠGl en
q t
Ġr hs
establ ished
ĠC ensus
=" {
/ (\
ĠW u
Ġli ps
ĠJeff erson
Ġ" ;
Ġgirl friend
ĠRich mond
Po jo
Ġeccentric ity
ill ery
K D
Ġfl ush
ĠX ml
Ġtempor arily
ĠBer ry
ĠMan ufact
Ġg ri
Ġg orge
ĠLuc as
S aturday
Ġag ing
ĠQu estions
ar in
Ġwork place
| |\
MS G
å® ļ
ĠB apt
ĠCh anges
LE NGTH
Ġrespect ed
lass ical
æ ī
to LowerCase
Conf irm
back end
hedul ed
Ġs igma
ĠU r
] &
se g
Ġprocess ors
Per haps
^^ ^^
Sche dule
Draw able
ĠT ables
Ġd os
oc cup
19 35
avor ite
c odes
Dec oder
) })\
imb abwe
M icro
ĠĠĠĠĠĠĠĠĠĠĠĠĠĠĠĠĠĠĠĠĠĠĠĠĠĠĠĠĠĠĠĠ ĠĠĠĠĠĠĠĠĠĠ
. &
he avy
ĠD ATA
Ġto ile
t cp
hash Code
Ġin ning
ĠR ico
ĠG D
oun ge
Ġeffic acy
W ay
ĠC IA
sk in
z ier
Ġcalib rated
ĠK ap
0 60
ĠE ight
Ġinter stellar
ĠDet ect
AG ES
0 50
k ward
() ]
Left rightarrow
Hig gs
, ~\
Â ±
Ġdis connected
Ġl ig
RO OT
Quant um
) &=\
re call
Ġcol leges
Ġastro physical
mar shall
ach i
or acle
Ġsur gical
ĠRe uters
C li
Ġcare ers
Ġthe rap
per fect
our ney
ah u
\!\! \!
quot ed
Book s
ĠM aps
f u
Ġan ch
Ġment ions
co ordinates
Ġste al
ĠBar on
ĠC ad
ri o
Ġelder ly
it ic
ĠRel ated
per mission
T alk
Ġgener ous
24 9
Data Source
SE D
Ġexplo iting
Ġslic es
b ag
m os
row Color
ÐµÐ½ Ð¸
Ġdismiss ed
tem poral
Ġdis sol
f iction
le en
Ġviol ating
Ġgu ides
Ġgain ing
Ġmult ic
su ally
Al ign
c ube
Ġto String
Ġswe ep
ĠKe pler
co res
roid s
Ġalt ogether
Ġanalys ed
ĠA uthors
Ġdon ors
Ġc ss
Con figure
Ġur ged
Ġmod elled
ĠJul ian
Whe ther
Ġelev ation
p her
() [
Ġinvest or
De ployment
] ^-
Ġc ra
ĠHe at
Ġhar sh
ĠMu eller
Ġaccum ulation
High light
Ġexper iencing
ĠBo eing
Ġrad i
Ġweight ing
D igital
g ive
M ills
]( #
ĠFellow ship
u ator
ĠK umar
97 8
ĠR ivers
li qu
ins ula
ĠAl pha
Fil m
av in
erm ost
Bel ow
Å ¾
Ġ$ >
Ġrecogn ised
ĠSu z
Ex act
Ġarg ues
ĠR B
arg v
In jection
Ġprec ip
ĠPat tern
t alk
og on
Ġinvest ing
Reg istration
cal es
ai ro
ĠD ennis
com pl
Ġqual ify
w ikipedia
19 33
ĠId entity
ĠðŁ ĻĤ
g rim
ĠL ions
inv oke
comp ress
Array s
ĠTh under
Ġoblig ations
for cing
ĠRod rig
J et
L STM
Ġn erve
Ch unk
Ġvulner ability
Ġscholar ship
ER IC
cons id
ĠA SC
Ġp he
sc reens
Ġbank rupt
---- --
Ac adem
Ġshell s
}( (
Ġra p
ip es
ov o
bos on
g rowth
ab br
}) }$
0 16
Ġoccas ional
Ġste ering
Ġdirect ive
general ized
St ates
Dest roy
E s
ĠP I
Ġfil ing
tabl en
ampl itude
Ġhonest ly
f lo
ĠIm perial
Ġexec uting
Ġcong ru
K a
IT S
Aut om
ac s
Ġto ll
term inal
Ġconjug ation
< -
Ġu pl
ĠCon tainer
comput ed
Î ¯
Ġsh out
Ġwel comed
ĠComput ing
B and
it on
Ġvis cous
Ġrect angular
] )$
Ġby pass
Res pon
="@ +
ĠR PC
Ġint imate
ĠÎ ±
Ġmultipl ier
RET URN
raw l
x e
ĠS cre
ĠU ntil
meas ured
Ġcre ature
Ġfin est
ĠEnt ry
Ġr s
acc ording
Subsc ribe
Ġb ones
Ġdepos it
g gle
Ġhon our
Ġcon gest
Ref resh
}{! }{
s ound
v id
ĠSo on
ĠC AN
23 9
Ang le
ĠMil ky
ĠGal ois
ĠBrazil ian
+ "
J ose
Reg ular
Ġcann abis
H int
Ġind igenous
Ref lection
col ors
pre view
ĠCONDITION S
ĠP sy
Ġre min
ĠCy ber
ĠC ay
olog ic
ĠC uba
Ġde compose
Ġqu i
rest riction
Ġis ometry
ĠBi ology
Ġanom alies
rend erer
ĠSO FTWARE
Ġu b
Ġselect s
Int rodu
Build ing
sub Nav
fail ure
det ection
Ġw and
Ġsp ans
ĠDom ain
Ġprivile ge
M att
Ġas pir
c bs
f inder
ãģ Ļ
iat ric
ĠH ack
ĠBut ler
bro ok
Ġsolit on
fl ip
Ġdiv orce
or ia
Ġdec iding
arab ic
w avelength
Ġtruck s
Ġw are
ĠRe ally
Ġgo og
ĠEn able
non atomic
P ages
Y ang
consid ered
Ġre ass
Ġisol ate
19 34
) ^{(
Con version
Ġce iling
W as
23 3
q w
ul atory
is ers
Ġmut ations
Ġcom plications
ĠB JP
Work ing
[ $\
Ġst amp
> .</
C ookie
Un lock
Ġflow ing
Rad ius
ĠHam pshire
FO RE
thin space
Ġend less
a uthors
ĠC ities
Ġcondition ing
Ġter rain
b ast
c L
Link ed
st ill
im o
Re ceive
ĠTag ged
Ġhypersur face
Ġpres ervation
enc hed
oding er
Ġcirc ulation
Ġcod imension
ĠMed ic
H s
P ending
J C
plic a
Be ing
ĠF DA
ĠD river
Ġde bris
Ġsp otted
Ġpur suit
Ġsu cc
Ġprior it
ãģ Ĺ
Ġtraged y
x l
ot yp
ĠIn s
}+ {\
G raphics
un stable
ĠIm prove
observ ations
ew s
}{ @{}
Ġscr ut
ĠD yn
ĠM atter
Ġun f
Ġ\ [\
ĠB rief
Ġinsp ire
ĠL an
Ġbro ker
Ġcolon ial
Ġconver gent
ex clude
restrict ed
In side
ĠRepresent atives
Ġin ch
Ġprim ordial
pl ays
{ ,
am as
ĠArch itect
Ġnic ely
P aint
Ġarch ae
Ġtechn ically
ĠO B
econom ic
p ion
lim inf
d rag
Ġres um
ĠKar l
Ġretail ers
24 7
24 6
a ired
Ġre semb
BU ILD
numer ic
parent Node
cut s
ĠS afe
ul ent
Th an
sc ene
Ġout burst
bar s
ĠC MS
Ġexc use
Ġmur dered
ĠAnaly tics
* [
g ems
A UTH
R outer
Ġun biased
c py
Ġx si
Ġhar assment
inc inn
}( [
inter pol
Christ ian
post s
ĠHol land
N GC
R X
h or
n io
Ġstom ach
custom er
ft en
N ested
em or
)( -
urs es
ĠPartners hip
30 7
Ġlept ons
ĠM ann
Ġfil ament
roll ment
Ã§ Ã£o
Ġt ric
im ates
ĠM AP
Ġbul ge
Ġmism atch
ĠCal endar
ĠDef ence
Ġiter ate
ull er
W F
str ut
Ġspace craft
Ġcoinc idence
c ook
Ġdecay ing
Ġp raise
Ear th
ĠA ctor
ĠH RESULT
ĠD ynamic
Ġcylind rical
y g
ĉ ĠĠĠĠ
ang ent
Ġpe oples
El se
F LO
L V
ĠĠĠĠĠĠĠĠĠĠĠĠĠĠĠĠĠĠĠĠĠĠĠĠĠĠĠĠĠĠĠĠ ĠĠĠĠĠĠĠĠĠĠĠĠ
.... ..
ot ics
Ġen joys
ĠAm sterdam
Ġpredomin antly
ĠSh ape
ĉĉĉĉĉĉ Ċ
Ġhe d
Ġdomin ance
W ashington
ar an
24 4
ĠL ate
ĠG onz
Ġbright er
& +\
d iss
ess aging
G UI
ĠC ertificate
Ġsp ray
ĠEgypt ian
iz ational
R eq
op ath
ĠI celand
Ġmet abol
+ }$
Ġsil ly
Ġfavor able
Ġconf idential
ĠNAT O
N OS
ps line
th ood
Ġcommand er
Ġren owned
N ick
// ----------------------------------------------------------------
J O
pl aces
cl usters
)] $
ob tain
Ġvi rial
ĠM ountains
ĠB ath
Ġvill ain
à¤ ¿
observ ation
2 17
x b
ĠN I
ĠG S
Ġinf ections
Enc oder
ĠIll ust
por ter
ari us
du ality
Ġdis ability
Ġpuzz le
ĠB ass
to Equal
ĠS old
Ġmed ic
ĠArk ansas
Ġtra ditionally
I AN
av our
ĠHel en
Ġb reat
ĠCam era
Ġdest inations
Ġb rick
Ġazimuth al
Ġrenew able
m un
all ax
rit ory
z t
ĠO pport
Ġredu ctions
ĠE asy
array stretch
ĠCon temporary
\, {
ĠA PP
J oe
Ġf ond
Ġnation wide
os ity
ard less
Ġpri ors
ĠCl are
Ġcon duction
ĉĉĉĉĉĉĉĉ ĉĉĉĉ
B etween
Ġren amed
2 18
ĠN V
Ġquant ized
0 14
ĠG ate
lear n
Ġ\ >
sh ock
Ġelim ination
x a
Ġr ugby
mod ifier
ĠPro phe
size of
Ġinter ven
ĠR ah
Ġtet ra
Ġview er
å ¯
ta wa
Sub mit
Ġtra ils
other mal
Ġemer ges
ĠT ypes
ĠN ames
ĠK L
Ġow ing
w b
Ġacc us
Ġdem ol
M AT
in frared
s ender
ĠC ool
bib item
struct ured
- ">
che t
ĠBob by
ĠNe ural
ST EM
String s
Ġb arg
Un like
ĠDirect ory
Ġbe ats
n ational
ĠĠĠĠĠĠĠĠ čĊ
ĠSob olev
in z
pp le
Ġsuff ers
Ġleg ally
b les
ĠCarl os
or ov
Ġh il
19 29
Ġhist ories
ĠG aza
Ġearthqu ake
categor ized
Max imum
ĠCont roller
Ġbroad band
Ġdam ages
Ġbrut al
ust ering
Ġ$ {{\
ĠF iles
ĠAtt ack
H idden
Ġfunction als
Ġwave form
Ġcycl ing
P ars
Ġinqu iry
ope z
' )$.
ERT Y
Ġp ause
ex cit
Ġsubject ed
}$ (
Never theless
Ġhom osex
B orn
AND LE
C LE
Y M
ĠGu id
Ġdel icious
cou pon
ĠBAS IS
: ]
Ġstrugg led
Ġw ard
Ġhospit ality
Ġf ab
ĠAt omic
Ġpun ishment
om at
Ġyour s
Att empt
Ar row
Menu Item
M ah
^- (
ĠNor wegian
Ġ/// <
Ġfoss il
incinn ati
C os
i our
Tra vel
Ġgift s
IT H
23 6
Ġdemand ed
Java Script
Ġanten nas
station ary
ĠInd ividual
ĠBl ake
os ion
Th reshold
Ġes cal
ĠAss essment
ĠT A
}_ *
Stud ent
K now
Ġf ights
ĠL G
==== =
AS LONG
Ġlad der
R ussian
ĠK ash
Ġshe ep
par box
Ġart ic
ĠJam ie
v u
Ġint end
Ġsp are
diff usion
assum ing
D ead
Ġen larg
ĠVenezuel a
Ġlaw makers
Ġansw ering
Ġarg uing
Ġbal ancing
ĠNichol as
c rum
Ġt ales
con taining
Ġwork force
Ġbreath ing
x z
| >
Ġm aj
$\ %
Phys ics
ĠTh r
pro per
}\ }$.
ĠNorm an
G rand
R etry
c D
ĠJ et
success ful
t ro
Ġpos ed
Ġsurv iving
ag ar
ĠJ ets
rain ian
eg e
ĠSt ef
ram id
align ment
) }}{\
ĠEm peror
Ġdu plicate
is ch
ĠBar ack
N othing
ĠMus ical
M ic
F oo
in el
ĠT error
Ġass isted
ref ox
Ġhol idays
ĠProject s
IDE O
= ~
Ġg ut
]{ $\
Ġforth coming
SER VER
ĠHapp ened
Ġare na
ibl ings
ĠC atherine
m ob
w ig
decor ation
fil er
Ġconv inc
er ie
v f
Ġn itrogen
Ġout liers
Ġdis hes
Ġu pt
Ġassemb led
Ġreven ues
Ext ended
i ri
| +
ud ed
Ġw orn
ric hed
Mon itor
Ġb ridges
oc ate
), $$
Ġcolor ing
ĠDou g
ĠTE ST
ĠN azi
Ġmon ol
w x
Ġjuris diction
Ġcondition ed
,- .
S on
Ġcast ing
Ġpen al
B all
comm end
ocy cle
Ġ" ./
Ġout s
Ġmon oidal
Ġst oring
ĠB ring
any on
________ ________
Ġachieve ments
uk a
Ġcontext ual
× Ķ
ĠP ER
ĠP ars
10 16
Ġbab ies
Ġmention ing
G esture
Ġf ame
Ġrece ipt
ĠElect ronic
T er
Ġpeace ful
ĠH yp
_{ |\
ri ans
Ġle mmas
Ġdedu ced
ĠM end
Ġpreval ence
append Child
Ġnew er
ĠRespon d
Ġk ills
conj ug
3 70
ari um
Ġ' ')
0 20
ĠW ave
Ġrock et
Ġgi ants
Ġc ake
el ist
is se
ĠT ouch
B uy
Ġview point
}\, {\
Ġthe ft
ĠHug hes
rotate box
F lor
Ġg race
ĠNS W
ran ging
Ġbes ide
Ġint ensities
Equal To
Ġtravel ed
h b
ĠA dapt
ĠJacob i
Ġintersection s
Ġse q
vari ance
Ġcert ification
ĠS itter
cont ribution
E ll
Ġconstitution al
it ics
ane ously
ĠComm ander
Ġjump ing
Ġcart oon
à ´
it us
P ART
Ġprob able
ĠWild life
asympt otic
ĠHar per
å į
in fer
he size
Ġa f
Ġback end
ĠH ER
Ġreg isters
Ġo ve
Ġover look
ĠSN P
ĠWel sh
ĠPot ter
Q Q
[...]
