{"[UNK]":0,"!":1,"\"":2,"#":3,"$":4,"%":5,"&":6,"'":7,"(":8,")":9,"*":10,"+":11,",":12,"-":13,".":14,"/":15,"0":16,"1":17,"2":18,"3":19,"4":20,"5":21,"6":22,"7":23,"8":24,"9":25,":":26,";":27,"<":28,"=":29,">":30,"?":31,"@":32,"A":33,"B":34,"C":35,"D":36,"E":37,"F":38,"G":39,"H":40,"I":41,"J":42,"K":43,"L":44,"M":45,"N":46,"O":47,"P":48,"Q":49,"R":50,"S":51,"T":52,"U":53,"V":54,"W":55,"X":56,"Y":57,"Z":58,"[":59,"\\":60,"]":61,"^":62,"_":63,"`":64,"a":65,"b":66,"c":67,"d":68,"e":69,"f":70,"g":71,"h":72,"i":73,"j":74,"k":75,"l":76,"m":77,"n":78,"o":79,"p":80,"q":81,"r":82,"s":83,"t":84,"u":85,"v":86,"w":87,"x":88,"y":89,"z":90,"{":91,"|":92,"}":93,"~":94,"¡":95,"¢":96,"£":97,"¤":98,"¥":99,"¦":100,"§":101,"¨":102,"©":103,"ª":104,"«":105,"¬":106,"®":107,"¯":108,"°":109,"±":110,"²":111,"³":112,"´":113,"µ":114,"¶":115,"·":116,"¸":117,"¹":118,"º":119,"»":120,"¼":121,"½":122,"¾":123,"¿":124,"Â":125,"Ã":126,"Ä":127,"Å":128,"Æ":129,"Ç":130,"È":131,"É":132,"Ê":133,"Ë":134,"Ì":135,"Í":136,"Î":137,"Ï":138,"Ð":139,"Ñ":140,"Ò":141,"Ó":142,"Ô":143,"Õ":144,"Ö":145,"×":146,"Ø":147,"Ù":148,"Ú":149,"Û":150,"Ü":151,"Ý":152,"Þ":153,"ß":154,"à":155,"á":156,"â":157,"ã":158,"ä":159,"å":160,"æ":161,"ç":162,"è":163,"é":164,"ê":165,"ë":166,"ì":167,"í":168,"î":169,"ï":170,"ð":171,"ò":172,"ó":173,"ô":174,"Ā":175,"ā":176,"Ă":177,"ă":178,"Ą":179,"ą":180,"Ć":181,"ć":182,"Ĉ":183,"ĉ":184,"Ċ":185,"ċ":186,"Č":187,"č":188,"Ď":189,"ď":190,"Đ":191,"đ":192,"Ē":193,"ē":194,"Ĕ":195,"ĕ":196,"Ė":197,"ė":198,"Ę":199,"ę":200,"Ě":201,"ě":202,"Ĝ":203,"ĝ":204,"Ğ":205,"ğ":206,"Ġ":207,"ġ":208,"Ģ":209,"ģ":210,"Ĥ":211,"ĥ":212,"Ħ":213,"ħ":214,"Ĩ":215,"ĩ":216,"Ī":217,"ī":218,"Ĭ":219,"ĭ":220,"Į":221,"į":222,"İ":223,"ı":224,"Ĳ":225,"ĳ":226,"Ĵ":227,"ĵ":228,"Ķ":229,"ķ":230,"ĸ":231,"Ĺ":232,"ĺ":233,"Ļ":234,"ļ":235,"Ľ":236,"ľ":237,"Ŀ":238,"ŀ":239,"Ł":240,"ł":241,"Ń":242,"ĠĠ":243,"Ġt":244,"in":245,"he":246,"Ġa":247,"on":248,"re":249,"ĠĠĠĠ":250,"at":251,"er":252,"Ġthe":253,"en":254,"Ġs":255,"or":256,"al":257,"it":258,"is":259,"Ġc":260,"es":261,"Ġo":262,"an":263,"ion":264,"ar":265,"Ġw":266,"Ġf":267,"ed":268,"Ġp":269,"le":270,"ing":271,"Ġb":272,"nd":273,"Ġof":274,"ic":275,"Ġin":276,"ro":277,"Ġ\\":278,"Ġd":279,"as":280,"Ġm":281,"Ġ$":282,"ct":283,"et":284,"Ġand":285,"Ġto":286,"el":287,"ou":288,"ĠĠĠ":289,"ent":290,"ĠĠĠĠĠĠĠĠ":291,"ig":292,"st":293,"Ġth":294,"om":295,"il":296,"am":297,"Ġre":298,"Ġh":299,"Ġn":300,"im":301,"ation":302,"Ġe":303,"ac":304,"ot":305,"ol":306,"id":307,"Ġl":308,"Ġis":309,"{\\":310,"Ġ(":311,"ut":312,"ĠT":313,"ve":314,"se":315,"ĠS":316,"ur":317,"Ġg":318,"Ġfor":319,"ra":320,"ul":321,"ow":322,"ver":323,"qu":324,"ly":325,"ce":326,"ĠA":327,"ĠC":328,"ab":329,"âĢ":330,"od":331,"Ġon":332,"if":333,"um":334,"Ġbe":335,"ĠI":336,"ad":337,"Ġst":338,"Ġu":339,"_{":340,"ith":341,"Ġthat":342,"ch":343,"em":344,"Ġ=":345,"Ġcon":346,"ag":347,"eg":348,"end":349,"ĠĠĠĠĠĠĠ":350,"ĠM":351,"ay":352,"ath":353,"čĊ":354,"Ġ$\\":355,"ri":356,"ht":357,"ction":358,"ir":359,"Ġwith":360,"ter":361,"Ġas":362,"pe":363,"Ġv":364,"ex":365,"ĠP":366,"ate":367,"Ġwe":368,"th":369,"Ġan":370,"Ġpro":371,"res":372,"ĠB":373,"Ġal":374,"math":375,"Ġ&":376,"ist":377,"un":378,"pt":379,"ĉĉ":380,"20":381,"us":382,"ĠF":383,"ta":384,"her":385,"pp":386,"ph":387,"and":388,"os":389,"est":390,"ight":391,"ĠThe":392,"oc":393,"Ġex":394,"}\\":395,"iv":396,"ity":397,"ĠR":398,"Ġit":399,"ĠH":400,"ĠD":401,"}$":402,"Ġ<":403,"ure":404,"^{":405,"ĠĊ":406,"ers":407,"ub":408,"ess":409,"Ġby":410,"Ġwh":411,"ore":412,"Ġare":413,"ĠL":414,"ew":415,"--":416,");":417,"ĠW":418,"Ġcom":419,"ref":420,"Ġde":421,"ma":422,"rom":423,"ass":424,"art":425,"ine":426,"Ġ{":427,"=\"":428,"Ġat":429,"ite":430,"pl":431,"nt":432,"ĠN":433,"ill":434,"Ġy":435,"per":436,"ĠE":437,"ial":438,"Ġor":439,"ĠG":440,"ort":441,"ant":442,"Ġthis":443,"ext":444,"ge":445,"ment":446,"ies":447,"Ġse":448,"ive":449,"âĢĻ":450,"de":451,"Ġr":452,"our":453,"ame":454,"//":455,"iz":456,"}}":457,"</":458,"ke":459,"all":460,"(\\":461,"Ġfrom":462,"ue":463,"ld":464,"ĠĠĠĠĠĠĠĠĠĠĠ":465,"op":466,"ect":467,"int":468,"Ġcl":469,"Ġhe":470,"ult":471,"ft":472,"ps":473,"egin":474,"rac":475,"begin":476,"og":477,"Ġ*":478,"The":479,"ave":480,"Ġsh":481,"cl":482,"age":483,"..":484,"cal":485,"orm":486,"ran":487,"_{\\":488,"Ġnot":489,")$":490,"Ġ}":491,"Ġwas":492,"ell":493,"ere":494,"201":495,"ff":496,"ĠO":497,"Ġch":498,"ical":499,"able":500,"00":501,"con":502,"Ġ\"":503,"Ġsu":504,"rou":505,"Ġ-":506,"ich":507,"ition":508,"}{":509,"Ġcan":510,"ack":511,"Ġle":512,"ust":513,"ud":514,"ated":515,"ĠĠĠĠĠĠĠĠĠĠĠĠĠĠĠĠ":516,"text":517,"ign":518,"equ":519,"Ġres":520,"are":521,"ĠJ":522,"ber":523,"frac":524,"eq":525,"Ġhave":526,"ens":527,"Ġcomp":528,"Ġint":529,"ard":530,"},":531,"Ġus":532,"ase":533,"ace":534,"ary":535,"})":536,"ast":537,"ations":538,"ap":539,"av":540,"ind":541,"cite":542,"abel":543,"com":544,"ost":545,"\">":546,"right":547,"Ġif":548,"ime":549,"rm":550,"ĠâĢ":551,"urn":552,"out":553,"Ġall":554,"Ġwhe":555,"ĠĠĠĠĠ":556,"act":557,"ĠU":558,"ak":559,"ide":560,"sp":561,"ire":562,"ould":563,"du":564,"imp":565,"the":566,",\\":567,"Ġwhich":568,"eta":569,"cc":570,"ong":571,"ib":572,"Ġab":573,"ork":574,"ption":575,"label":576,").":577,"ĠIn":578,"19":579,"Ġk":580,"mathb":581,"ord":582,"ip":583,"**":584,"ru":585,"form":586,"fig":587,"Ġhas":588,"),":589,"$,":590,"'s":591,"ener":592,"ain":593,"$.":594,"ang":595,"ode":596,"ther":597,"ice":598,"Ġpl":599,"In":600,"Ġj":601,"ile":602,"ĠK":603,"Ġ+":604,"ok":605,"equation":606,"Ġclass":607,"ach":608,"Ġyou":609,"ry":610,"ata":611,"ance":612,"ence":613,"row":614,"ous":615,"Ġad":616,"mathcal":617,"li":618,"get":619,"ring":620,"ype":621,"}.":622,"unction":623,"left":624,"10":625,"Ġun":626,"so":627,"ear":628,"lic":629,"Ġwill":630,"ĠTh":631,"ĠV":632,"ĠSt":633,"Ġme":634,"low":635,"ject":636,"ia":637,"turn":638,"pro":639,"St":640,"}(":641,"Ġsp":642,"Ġone":643,"Ġmod":644,"Ġob":645,"ser":646,"rans":647,"rib":648,"ents":649,"over":650,"----":651,"sum":652,"pect":653,"()":654,"Ġ'":655,"ution":656,"}^":657,"==":658,"~\\":659,"ely":660,"ome":661,"Ġqu":662,"Ġcont":663,"ress":664,"one":665,"ory":666,"ob":667,"Ġout":668,"ound":669,"}_":670,"ose":671,"old":672,"Ġdis":673,"tain":674,"pha":675,"own":676,"Ġper":677,"ally":678,"Ġdo":679,"Ġbut":680,"Ġapp":681,"line":682,"ric":683,"amb":684,"gh":685,"ray":686,"ors":687,"ree":688,"alpha":689,"Ġpart":690,"Ġar":691,"da":692,"fere":693,"ian":694,"Ġnew":695,"Ġval":696,"ec":697,"Ġ[":698,"Ġev":699,"ep":700,"ark":701,")\\":702,"wo":703,"âĢĿ":704,"pon":705,"set":706,"we":707,"ll":708,"ize":709,"aram":710,"ates":711,"elta":712,"ĠĠĠĠĠĠĠĠĠĠĠĠĠĠĠ":713,"iel":714,"to":715,"Ġfunction":716,"$\\":717,"erm":718,"red":719,"ie":720,"ambda":721,"ov":722,"sc":723,"yst":724,"Ġset":725,"Ġen":726,"Ġmore":727,"oint":728,"Ġdef":729,"irst":730,"au":731,"imes":732,"mb":733,"ari":734,"Ġtheir":735,"Ġalso":736,"of":737,"ock":738,"ount":739,"ield":740,"Ġhis":741,"Ġso":742,"amma":743,"app":744,"200":745,"ics":746,"hat":747,"ular":748,"ove":749,"eth":750,"vel":751,"amp":752,"ook":753,"vers":754,"mu":755,"_\\":756,"sub":757,"Ġne":758,"Ġreturn":759,"Ġthey":760,"Ġother":761,"ions":762,"Ġsc":763,"ystem":764,"very":765,"Ġour":766,"Ġ\\\\":767,"ces":768,"ne":769,"lect":770,"ild":771,"Ġtwo":772,"ho":773,"Ġover":774,"=\\":775,"umber":776,"Ġtime":777,"Ġ//":778,"dot":779,"Ġinter":780,"let":781,"put":782,"Ġimp":783,"ull":784,"ake":785,"Con":786,"}^{":787,"ink":788,"elf":789,"}_{":790,"ĠWe":791,"Ġup":792,"igma":793,"ublic":794,"mathbb":795,"12":796,"ys":797,"nder":798,"Ġits":799,"ĉĉĉĉ":800,"Ġdif":801,"ix":802,"vi":803,"Ġman":804,"Ġconst":805,"ega":806,"-\\":807,"Ġany":808,"ollow":809,"cent":810,"Ġmodel":811,"Ġform":812,"->":813,"ck":814,"^{\\":815,"ef":816,"Ġthere":817,"ource":818,"up":819,"::":820,"Ġwere":821,"ĠY":822,"phi":823,"Ġgo":824,"Ġag":825,"Ġresult":826,"Ġro":827,"pec":828,"Ġthan":829,"raph":830,"ĠCh":831,"ax":832,"Ġbet":833,"Ġ{\\":834,"lement":835,"Ġ|":836,"ual":837,"Ġonly":838,"lambda":839,"Ġbeen":840,"dition":841,"ĠâĢľ":842,"Ġli":843,"Ġdes":844,"Ġget":845,"Ġwork":846,"val":847,"ative":848,"Ġsub":849,"ox":850,"hed":851,"rit":852,"pi":853,"Ġwhen":854,"ator":855,"Ġwhere":856,"Ġfirst":857,"Ġ</":858,"cre":859,"Ġpre":860,"ss":861,"ays":862,"Ġfollow":863,"Ġsome":864,"clud":865,"Ġsuch":866,"bf":867,"Ġabout":868,"ram":869,"les":870,"ific":871,"ish":872,"Ġ/":873,"Ġdata":874,"ail":875,"round":876,"ĠThis":877,"Ġ@":878,"idth":879,"Ġwho":880,"pos":881,"section":882,"ings":883,"lem":884,"Ġcol":885,"../":886,"sh":887,"ined":888,"tt":889,"part":890,"Ġim":891,"Ġreg":892,"Ġinto":893,"Ġcor":894,"Ġrel":895,"Ġi":896,"bar":897,"Ġpos":898,"ĠIt":899,"Ġacc":900,"resent":901,"Ġrep":902,"igh":903,"ilon":904,"Ġgener":905,"ient":906,"ise":907,"psilon":908,"ruct":909,"Ġmat":910,"We":911,"Ġshow":912,"ced":913,"Ġequ":914,"iss":915,"lo":916,"Ġ.":917,"ick":918,"fter":919,"\",":920,"Ġthen":921,"11":922,"ility":923,"mathbf":924,"Ġph":925,"ating":926,"Ġcons":927,"Ġno":928,"inal":929,"oth":930,"erv":931,"ict":932,"Ġsa":933,"sigma":934,"yn":935,"Ġdiffere":936,"Ġtra":937,"Ġwould":938,"ues":939,"Ġ(\\":940,"^{-":941,"Ġdist":942,"Ġtrans":943,"div":944,"Ġher":945,"ethod":946,"ans":947,"ilde":948,"beta":949,"ng":950,"der":951,"ool":952,"pr":953,"ml":954,"Ġoff":955,"arg":956,"Ġ:":957,"Th":958,"}{\\":959,"align":960,"array":961,"Ġte":962,"not":963,"ures":964,"Ex":965,"ible":966,"ween":967,"tern":968,"ning":969,"Ġuse":970,"(\"":971,"Ġx":972,"Ġhad":973,"err":974,"Ġthese":975,"nce":976,"Ġcomm":977,"its":978,"te":979,"col":980,"Ġgiv":981,"def":982,"Ġsystem":983,"Ġeach":984,"ased":985,"roup":986,"Ġline":987,"Ġkn":988,"();":989,"ied":990,"pert":991,"gamma":992,"here":993,"olution":994,"',":995,"item":996,"Ġyear":997,"ange":998,"Ġcase":999,"ities":1000,"15":1001,"rad":1002,"+\\":1003,"aw":1004,"Ġunder":1005,"ince":1006,"ER":1007,"Ġprob":1008,"ident":1009,"18":1010,"riv":1011,"))":1012,"ron":1013,"Ġbetween":1014,"cess":1015,"Ġpoint":1016,"Ġfe":1017,"\\\\":1018,"ational":1019,"Ġeff":1020,"olog":1021,"mathrm":1022,"essage":1023,"Ġco":1024,"aramet":1025,"Ġmay":1026,"Ġpublic":1027,"Ġprov":1028,"*}":1029,"delta":1030,"ym":1031,"Ġvalue":1032,"eng":1033,"ug":1034,"Ġthem":1035,"16":1036,"ature":1037,"...":1038,"cy":1039,"^\\":1040,"--------":1041,"theta":1042,"oid":1043,"Ġsm":1044,"io":1045,"rho":1046,"Pro":1047,"var":1048,"pend":1049,"Ġtr":1050,"Ġbl":1051,"]{":1052,"Ġext":1053,"tau":1054,"Ġinv":1055,"Ġused":1056,"Ġpol":1057,"Ġpe":1058,"rough":1059,")}":1060,"$-":1061,"span":1062,"></":1063,"figure":1064,"leq":1065,"****":1066,"mer":1067,"Ġact":1068,"Ġcur":1069,"als":1070,"name":1071,"ute":1072,"ause":1073,"ater":1074,"Ġname":1075,"Ġatt":1076,"ample":1077,"che":1078,"atic":1079,"ower":1080,"Ġlike":1081,"min":1082,"Ġnumber":1083,"ized":1084,"serv":1085,"Ġsim":1086,"Ġinst":1087,"cdot":1088,"for":1089,"Ġyour":1090,"rt":1091,"13":1092,"Ġ*/":1093,"und":1094,"}$,":1095,"Ġdifferent":1096,"ider":1097,"}$.":1098,"ĠCon":1099,"Ġloc":1100,"IN":1101,"Ġshe":1102,"ctions":1103,"ĠSe":1104,"Ġback":1105,"Ġhow":1106,"ON":1107,"ting":1108,"big":1109,"nu":1110,"Ġind":1111,"}(\\":1112,"Ġsaid":1113,"ins":1114,"Ġappro":1115,"ĠUn":1116,"ĠFor":1117,"Ġrequ":1118,"Ġvari":1119,"arch":1120,"ner":1121,"Ġusing":1122,"ization":1123,"><":1124,"Ġend":1125,"Ġstud":1126,"ĠHe":1127,"air":1128,"ĠĠĠĠĠĠĠĠĠ":1129,"Ġnon":1130,"cond":1131,"Ġam":1132,"ĉĉĉ":1133,"ĠPro":1134,"14":1135,"width":1136,"tr":1137,"ward":1138,"Ġsee":1139,"yp":1140,"====":1141,"ract":1142,"oy":1143,"Ġmost":1144,"arrow":1145,"ars":1146,"Ġsupp":1147,"times":1148,"partial":1149,"ĠĠĠĠĠĠĠĠĠĠĠĠĠĠĠĠĠĠĠ":1150,"uss":1151,"ton":1152,"Ġafter":1153,"Ġfield":1154,"ude":1155,"ash":1156,"Ġjust":1157,"vert":1158,"ism":1159,"eqref":1160,"eqn":1161,"pm":1162,"ev":1163,"25":1164,"Ġwell":1165,"Ġprodu":1166,"Ġspec":1167,"Ġsign":1168,"Ġsame":1169,"Ġwhat":1170,"ote":1171,"par":1172,"ople":1173,"://":1174,"ough":1175,"ĠâĢĵ":1176,"Ġent":1177,"../../":1178,"this":1179,"abl":1180,"tilde":1181,"uch":1182,"Ġfl":1183,"omega":1184,"ically":1185,"irect":1186,"ann":1187,"ST":1188,"Ġtype":1189,"ĠX":1190,"ral":1191,"fty":1192,"lation":1193,"ript":1194,"ĠCom":1195,"fo":1196,"Ġrec":1197,"ead":1198,"ines":1199,"infty":1200,"Ġneed":1201,"ĠQ":1202,"Ġdet":1203,"ices":1204,"Ġ#":1205,"Ġexp":1206,"rent":1207,"Ġ`":1208,"read":1209,"Ġ_":1210,"formation":1211,"Ġgiven":1212,"ily":1213,"Ġthrough":1214,"Ġcall":1215,"reat":1216,"ever":1217,"Ġke":1218,"Ġpartic":1219,"Ġmethod":1220,"Ġfact":1221,"ribution":1222,"ks":1223,"Ġmy":1224,"RE":1225,"ists":1226,"uild":1227,"Delta":1228,"Ġchar":1229,"ments":1230,"|\\":1231,"ages":1232,"ement":1233,"gy":1234,"17":1235,"Ġsur":1236,"Ġterm":1237,"30":1238,"Name":1239,"Ġbec":1240,"html":1241,"ca":1242,"Ġadd":1243,"Ġoper":1244,"ert":1245,"Ġpr":1246,"work":1247,"Ġac":1248,"ons":1249,"('":1250,"dd":1251,"Ġstate":1252,"\\,":1253,"ots":1254,"Ġcould":1255,"orld":1256,"ful":1257,"AT":1258,"ade":1259,"Ġem":1260,"view":1261,"quad":1262,"ited":1263,"Ġplay":1264,"ases":1265,"Ġest":1266,"Ġz":1267,"uth":1268,"mod":1269,"Ġhigh":1270,"Ġnow":1271,"Ġmin":1272,"ĠAs":1273,"hen":1274,"ames":1275,"Ġass":1276,"Ġel":1277,"log":1278,"sec":1279,"space":1280,"ered":1281,"Ġevery":1282,"Ġboth":1283,"trans":1284,"Ġshould":1285,"gle":1286,"xi":1287,"Ġdisc":1288,"Type":1289,"Ġparamet":1290,"Ġ>":1291,"ively":1292,"Com":1293,"uring":1294,"iew":1295,"ential":1296,"atch":1297,"Ġorder":1298,"It":1299,"199":1300,"sim":1301,"import":1302,"Ġhref":1303,"Ġself":1304,"ĠAl":1305,"olds":1306,"Ġpeople":1307,"vent":1308,"Ġeffect":1309,"orem":1310,"Ġfollowing":1311,"where":1312,"ĠNew":1313,"respon":1314,"ension":1315,"'t":1316,"irc":1317,"}}\\":1318,"eqnarray":1319,"ability":1320,"Ġdoes":1321,"Ġ$(":1322,"alse":1323,"yle":1324,"Ġresults":1325,"}[":1326,"Ġtest":1327,"source":1328,"Id":1329,"For":1330,"ength":1331,")$.":1332,"att":1333,"ole":1334,"Ġ--":1335,"day":1336,"land":1337,"sq":1338,"ĠZ":1339,"Ġdec":1340,"Ġanal":1341,"ache":1342,"Ġstr":1343,"Ġright":1344,"oun":1345,"ining":1346,"ality":1347,"bl":1348,"ets":1349,"Ġeven":1350,"$$":1351,".,":1352,"Ġfil":1353,"hi":1354,"ww":1355,"rix":1356,"Ġobtain":1357,"td":1358,"man":1359,"Ġperform":1360,"Ġcre":1361,"code":1362,"This":1363,"Ġsmall":1364,"Ġlong":1365,"AR":1366,"Ġerr":1367,"itt":1368,"Ġvery":1369,"String":1370,"Ġinclud":1371,"Ġwhile":1372,"message":1373,"oci":1374,"center":1375,"raw":1376,"Ch":1377,"Ġfin":1378,"Ġ=>":1379,"Ġfind":1380,"50":1381,"Ġbecause":1382,"Ġprocess":1383,"htt":1384,"Ġbound":1385,"epsilon":1386,"ery":1387,"return":1388,"ding":1389,"ency":1390,"Ġdesc":1391,"Ġstart":1392,"Om":1393,"son":1394,"ument":1395,"Res":1396,"Ġknow":1397,"lex":1398,"ier":1399,"lang":1400,"Ġagain":1401,"000":1402,"arge":1403,"ivers":1404,"pen":1405,"Ġhim":1406,"psi":1407,"Ġbel":1408,"ault":1409,"Ġed":1410,"ren":1411,"co":1412,"ross":1413,"ymb":1414,"ĠĠĊ":1415,"Ġexpl":1416,"As":1417,"Ġmass":1418,"}_{\\":1419,"OR":1420,"Ġmeas":1421,"ern":1422,"ception":1423,"energy":1424,"etwork":1425,"umn":1426,"Ġway":1427,"Omega":1428,"ott":1429,"24":1430,"ctor":1431,"param":1432,"ymbol":1433,"me":1434,"aking":1435,"Ġser":1436,"__":1437,"pre":1438,"class":1439,"back":1440,"Ġmany":1441,"port":1442,"Ġthree":1443,"Ġsecond":1444,"Ġbeing":1445,"ason":1446,"^*":1447,"ĠFig":1448,"Ġread":1449,"To":1450,"Ġmake":1451,"Ġlead":1452,"ĠIf":1453,"ified":1454,"):":1455,"fore":1456,"type":1457,"Ġhand":1458,"ants":1459,"met":1460,"Gamma":1461,"velop":1462,"other":1463,"ision":1464,"by":1465,"Ġproblem":1466,"ĠĠĠĠĠĠĠĠĠĠĠĠĠĠĠĠĠĠĠĠĠĠĠĠĠĠĠĠĠĠĠĠ":1467,"ember":1468,"LE":1469,"Ġ!":1470,"ody":1471,"ify":1472,"wn":1473,"ired":1474,"Ġexper":1475,"lear":1476,"SS":1477,"Ġfound":1478,"Ġ)":1479,"agn":1480,"Ġinf":1481,")$,":1482,"Ġcent":1483,"Val":1484,"Ġcondition":1485,"Ġref":1486,"any":1487,"ared":1488,"Ġsing":1489,"22":1490,"âĢľ":1491,"cept":1492,"ger":1493,"face":1494,"Ġmon":1495,"Ġhere":1496,"sqrt":1497,"AL":1498,"ĠAn":1499,"Ġyears":1500,"cm":1501,"ateg":1502,"Ġspace":1503,"ĠRe":1504,"ulation":1505,"Ġpresent":1506,"rid":1507,"ask":1508,"Ġrespect":1509,"be":1510,"Ġtrue":1511,"Ġstruct":1512,"ense":1513,"Ġobject":1514,"ness":1515,"Ġposs":1516,"arget":1517,"ule":1518,"chn":1519,"ik":1520,"Ġorg":1521,"ilar":1522,"Ġmult":1523,"new":1524,"clude":1525,"textbf":1526,"self":1527,"ology":1528,"lection":1529,"ĠEx":1530,"tab":1531,"includ":1532,"subsection":1533,"ife":1534,"iqu":1535,"Ġobserv":1536,"raphics":1537,".âĢĿ":1538,"Ġreal":1539,"rightarrow":1540,"Ġlast":1541,"Ġ${\\":1542,"ont":1543,"Ġlook":1544,"els":1545,"ĠSh":1546,"/>":1547,"Cl":1548,"ather":1549,"}=":1550,"2018":1551,"21":1552,"vare":1553,"ood":1554,"Ġthose":1555,"rol":1556,"2019":1557,"Ġsupport":1558,"##":1559,"ĠCl":1560,"ond":1561,"Ġinformation":1562,"ee":1563,"org":1564,"su":1565,"^{(":1566,"Ġlim":1567,"Ġsince":1568,"ift":1569,"EN":1570,"bm":1571,"Ġexpect":1572,"varepsilon":1573,"Ġrem":1574,"str":1575,"ffic":1576,"ptions":1577,"Ġbefore":1578,"Ġche":1579,"ah":1580,"Ġserv":1581,"Ġdi":1582,"ream":1583,"Ġscal":1584,"led":1585,"Ġcontin":1586,"rop":1587,"32":1588,"less":1589,"Ġenergy":1590,"ID":1591,"Ġassum":1592,"ght":1593,"erson":1594,"play":1595,"caption":1596,"perty":1597,"Ġ\\,":1598,"Ġnull":1599,"Ġmuch":1600,"umer":1601,"way":1602,"Re":1603,"ural":1604,"Ġgu":1605,"Ġdid":1606,"Ġrepresent":1607,"}^{\\":1608,"Ġgl":1609,"////":1610,"ĠčĊ":1611,"Ġincre":1612,"loc":1613,"med":1614,"rr":1615,"Ġrun":1616,"ĠĠĠĠĠĠ":1617,"Ġ==":1618,"requ":1619,"ms":1620,"ank":1621,"fra":1622,"Ġcorrespon":1623,"itle":1624,"Ġcount":1625,"ished":1626,"Ġvalues":1627,"Ġtop":1628,"itive":1629,"Ġconsider":1630,"100":1631,"rangle":1632,"Ġve":1633,"List":1634,"By":1635,"ience":1636,")=":1637,"Ġimport":1638,"gram":1639,"Ġsolution":1640,"az":1641,"vious":1642,"Ġgroup":1643,"ĠDe":1644,"Ġmet":1645,"ane":1646,"Ġart":1647,"lp":1648,"ils":1649,"oss":1650,"non":1651,"add":1652,"cont":1653,"cur":1654,"\"/>":1655,"Ġdirect":1656,"itial":1657,"Ġdown":1658,"ormal":1659,"Ġlet":1660,"Ġcal":1661,"Ġcontain":1662,"translation":1663,"ten":1664,"uc":1665,"Ġelement":1666,"AN":1667,"Ġlist":1668,"Ġra":1669,"Ġlarge":1670,"rivate":1671,"Ġgood":1672,"Ġav":1673,"ved":1674,"egraphics":1675,"includegraphics":1676,"40":1677,"action":1678,"ually":1679,"ission":1680,"Ġcurrent":1681,"Ġvoid":1682,"ĠAnd":1683,"ected":1684,"chool":1685,"Ġtem":1686,"gor":1687,"23":1688,"Ġmeasure":1689,"position":1690,"comm":1691,"Ġvar":1692,"Ġstat":1693,"Ġlocal":1694,"Ġmade":1695,"Ġsol":1696,"Ġident":1697,"sert":1698,"Ġap":1699,"ey":1700,"ĠHow":1701,"Ġallow":1702,"Ġabove":1703,"erest":1704,"ccess":1705,"version":1706,"varphi":1707,"Ġinteg":1708,"Ġgeneral":1709,"oh":1710,"ampl":1711,"dis":1712,".~\\":1713,"Ġdevelop":1714,"Ġstring":1715,"arent":1716,"Ġ,":1717,"ves":1718,"Ġcorre":1719,"Ġmain":1720,"Ġfinal":1721,"no":1722,"Ġestim":1723,"table":1724,"uff":1725,"Ġprovid":1726,"ek":1727,"esc":1728,"ration":1729,"2017":1730,"meric":1731,"Ġpa":1732,"Ġca":1733,"Ġdistribution":1734,"chi":1735,"60":1736,"const":1737,"Ġstand":1738,"Ġmed":1739,"Ġrad":1740,"Ġopt":1741,"wh":1742,"gorith":1743,"akes":1744,"Ġlevel":1745,"Ġelse":1746,"Ġfam":1747,"roll":1748,"SE":1749,"\"><":1750,"urther":1751,"geq":1752,"bers":1753,"ouse":1754,"string":1755,"oot":1756,"''":1757,"ior":1758,"emph":1759,"arn":1760,"rodu":1761,"gg":1762,"Ġmust":1763,"omet":1764,"Ġstill":1765,"Ġcharact":1766,"Ġsize":1767,"rict":1768,"Ob":1769,"Ġtake":1770,".}":1771,"Ar":1772,"ĠSc":1773,"Ġpower":1774,"comp":1775,"};":1776,"ives":1777,"ters":1778,"overline":1779,"rem":1780,"Ġfalse":1781,"rum":1782,"aj":1783,"lim":1784,"Ġdepend":1785,"Ġsat":1786,"value":1787,"box":1788,"Big":1789,"cer":1790,"Ġexample":1791,"inition":1792,"orth":1793,"Ġworld":1794,"ven":1795,"Ġpres":1796,"Ġelect":1797,"Ġnetwork":1798,"ĠInd":1799,"********":1800,"Ġspect":1801,"depend":1802,"&\\":1803,"vec":1804,"data":1805,"sk":1806,"ero":1807,"Ġden":1808,"see":1809,"reg":1810,"imension":1811,"proof":1812,"Ġrest":1813,"Col":1814,"IT":1815,"Ġcomput":1816,"alk":1817,"lete":1818,"ensure":1819,"oad":1820,"arm":1821,"));":1822,"ensity":1823,"orn":1824,"Ġwant":1825,"Ġvis":1826,"Ġthink":1827,"}).":1828,".\"":1829,"plit":1830,"with":1831,"Ġrespon":1832,"alth":1833,"ression":1834,"pd":1835,")^":1836,"Ġdescrib":1837,"Ġduring":1838,"Ġarg":1839,"Ġaround":1840,"Ġshown":1841,"Ġcar":1842,"ification":1843,"ference":1844,"Ġmem":1845,"2016":1846,"ale":1847,"plic":1848,"},\\":1849,"Ġet":1850,"Ġquant":1851,"Ġdon":1852,"ler":1853,"AC":1854,"Ġbased":1855,"ĠĠĠĠĠĠĠĠĠĠĠĠĠ":1856,"----------------":1857,"[\\":1858,"ital":1859,"Ġown":1860,"come":1861,"Ġleft":1862,"DE":1863,"Ġopen":1864,"ĠRes":1865,"hline":1866,"ble":1867,"time":1868,"rite":1869,"imal":1870,"Ġreport":1871,"script":1872,"Ġhelp":1873,"file":1874,"sm":1875,"80":1876,"bolds":1877,"reen":1878,"refore":1879,"Ġdefined":1880,"Ġmodels":1881,"Ġbeh":1882,"ators":1883,"boldsymbol":1884,"Data":1885,"27":1886,"order":1887,"Ġpass":1888,"ymmet":1889,"Let":1890,"frak":1891,"Ġsimilar":1892,"Ġsum":1893,"eps":1894,"ynam":1895,"iness":1896,"cor":1897,"ysis":1898,"Ġbre":1899,"size":1900,"Ġparticular":1901,"Ġwrit":1902,"overn":1903,"oper":1904,"iversity":1905,"aces":1906,"}}$":1907,"side":1908,"Ġredu":1909,"ij":1910,"Ġappe":1911,"key":1912,"langle":1913,"inter":1914,"cul":1915,"Ġinterest":1916,"Lambda":1917,"Ġmark":1918,"rack":1919,"ious":1920,"ection":1921,"Ġbo":1922,"aps":1923,"ately":1924,"nabl":1925,"Ġdiscuss":1926,"Value":1927,"ground":1928,"33":1929,"sl":1930,",âĢĿ":1931,"Ġtechn":1932,"Ġnext":1933,"Ġsay":1934,"Ġbest":1935,"mary":1936,"Set":1937,"')":1938,"ava":1939,"Ġaddition":1940,"],":1941,"ival":1942,"ĠYou":1943,"Ġfollows":1944,"Ġdeterm":1945,"appa":1946,"top":1947,"Ġpar":1948,"ĠCol":1949,"Un":1950,"Ġlow":1951,"ĠTo":1952,"Ġ&&":1953,"Ġorig":1954,"An":1955,"Ġear":1956,"ination":1957,"Ġrele":1958,"Ġwithout":1959,"ĠAmeric":1960,"Ġconf":1961,"mbox":1962,"Ġcommun":1963,"Ġmax":1964,"26":1965,"otential":1966,"ĠAr":1967,"ĠĠĠĠĠĠĠĠĠĠĠĠĠĠĠĠĠĠĠĠĠĠĠ":1968,"bs":1969,"Phi":1970,"ivity":1971,"\");":1972,"Ġbas":1973,"hip":1974,"head":1975,"Ġwithin":1976,"nb":1977,"Ġpat":1978,"mm":1979,"Ġsimp":1980,"ĠBut":1981,"atures":1982,"Ġcho":1983,"xim":1984,"eb":1985,"Ġterms":1986,"ldots":1987,"Ġsection":1988,"hes":1989,"acy":1990,"ories":1991,"Ġid":1992,"AM":1993,"mathfrak":1994,"kappa":1995,"ords":1996,"2015":1997,"28":1998,"isf":1999,"mult":2000,".\\":2001,"ived":2002,"ds":2003,"($":2004,"color":2005,"Ġtri":2006,"IC":2007,"Ġ/**":2008,"Ġdesign":2009,"ĠâĢĺ":2010,"Ġtyp":2011,"ording":2012,"Ġfour":2013,"orph":2014,"ixed":2015,"Ġkey":2016,"ĠPl":2017,"Ġsuper":2018,"ription":2019,"Ġsingle":2020,"Ġpred":2021,"Ġpost":2022,"Ġmean":2023,"ene":2024,"ention":2025,"âĢ¦":2026,"64":2027,"inc":2028,"Ġaut":2029,"ised":2030,"anc":2031,"Al":2032,"Ġdom":2033,"Ġdue":2034,"use":2035,"ush":2036,"wid":2037,"Ġbuild":2038,"Ġshows":2039,"test":2040,"Ġsl":2041,"function":2042,"uthor":2043,"Ġpossible":2044,"Ġstudy":2045,"opy":2046,"âĢĵ":2047,"Ġview":2048,"Ġtot":2049,"Ġhead":2050,"obal":2051,"ĠPh":2052,"ĠAd":2053,"Ġprivate":2054,"========":2055,"ways":2056,"citep":2057,"Ġerror":2058,"ribut":2059,"29":2060,"CO":2061,"ends":2062,"roid":2063,"Ġincluding":2064,"ope":2065,"45":2066,"Ġevent":2067,"field":2068,"go":2069,"perties":2070,"aving":2071,"rand":2072,"Ġparameters":2073,"If":2074,"Ġpoints":2075,"Ġ||":2076,"gorithm":2077,"istic":2078,"ailable":2079,"odes":2080,"osed":2081,"vir":2082,"Ġteam":2083,"nonumber":2084,"uration":2085,"http":2086,"Ġinitial":2087,"nabla":2088,"Ġdem":2089,"usiness":2090,"Ġcompon":2091,"bit":2092,"indow":2093,"textit":2094,"otimes":2095,"icle":2096,"px":2097,"nbsp":2098,"Ġstatic":2099,"Ġhig":2100,"Ġagainst":2101,"Ġfew":2102,"ables":2103,"Ġcharacter":2104,"max":2105,"Ġpop":2106,"AS":2107,"ĠOn":2108,"Ġprogram":2109,"Ġgame":2110,"Im":2111,"atter":2112,"Sh":2113,"})$":2114,"iod":2115,"];":2116,"ety":2117,"rror":2118,"Ġ%":2119,"por":2120,"ison":2121,"Ġexist":2122,"\")":2123,"Exception":2124,"Int":2125,"ĠThen":2126,"Ġstructure":2127,"iment":2128,"ĠIs":2129,"Ġproject":2130,"Ġdeta":2131,"Ġder":2132,"Ġstrong":2133,"ĠHowever":2134,"etic":2135,"subset":2136,"Ġgra":2137,"Ġmom":2138,"ources":2139,"Ġanother":2140,"ither":2141,"verse":2142,"Ġproduct":2143,"af":2144,"pper":2145,"CT":2146,"Ġposition":2147,"ĠSp":2148,"lu":2149,"circ":2150,"ries":2151,"Ġpotential":2152,"}),":2153,"Ġtarget":2154,"2014":2155,"ique":2156,"Ġpath":2157,"sf":2158,"iter":2159,"Ġchange":2160,"Ġchild":2161,"Ġcou":2162,"Ġspe":2163,"Ġrema":2164,"Ġocc":2165,"Ġmov":2166,"Ġdel":2167,"Ġ///":2168,"Ġcalled":2169,"imum":2170,"Ġsatisf":2171,"\\%":2172,"Ġinvest":2173,"05":2174,"wit":2175,"Ġ``":2176,"unc":2177,"Ġmagn":2178,"ploy":2179,"Ġeas":2180,"].":2181,"Mod":2182,"omen":2183,"Ġcour":2184,"AP":2185,"stand":2186,"Ġbeg":2187,"off":2188,"Object":2189,"Ġalong":2190,"Ġapplic":2191,"~~":2192,"35":2193,"Ġlarg":2194,"ĠWh":2195,"node":2196,"ients":2197,"ially":2198,"Ġturn":2199,"usic":2200,"rel":2201,"Ġnear":2202,"Ġchang":2203,"search":2204,"Ġperson":2205,"Ġassoci":2206,"ium":2207,"idd":2208,"ĠLe":2209,"ĠĠĠĠĊ":2210,"Sigma":2211,"ii":2212,"ession":2213,"ocus":2214,"75":2215,"Ġ($":2216,"Ġlog":2217,"ley":2218,"ager":2219,"01":2220,"Ġinput":2221,"}}{":2222,"On":2223,"Ġlight":2224,"outh":2225,"duct":2226,"Ind":2227,"Cont":2228,"aim":2229,"Ġfree":2230,"Ġlimit":2231,"ocument":2232,"Ġfull":2233,"Get":2234,"ĠâĢĶ":2235,"Ġmap":2236,"br":2237,"Ġq":2238,"ances":2239,"Ġfunctions":2240,"Ġide":2241,"198":2242,"Ġday":2243,"ina":2244,"ape":2245,"Ġcomb":2246,"Ġimportant":2247,"ED":2248,"Ġsequ":2249,"\\[":2250,"clus":2251,"ĠString":2252,"Ġprevious":2253,"\\|":2254,"Test":2255,"Ġrange":2256,"Ġless":2257,"LL":2258,"ensuremath":2259,"ĠComm":2260,"cit":2261,"ling":2262,"\\!":2263,"Ġsk":2264,"99":2265,"Ġlaw":2266,"Ġphot":2267,"2013":2268,"Ġtoo":2269,"Ġgreat":2270,"Ġrece":2271,"ware":2272,"rap":2273,"Ġregion":2274,"Ġintrodu":2275,"dependent":2276,"ering":2277,"Ġbetter":2278,"Ġpaper":2279,"itor":2280,"urb":2281,"Ġmatrix":2282,"Fig":2283,"Ġobtained":2284,"Ġknown":2285,"rag":2286,"ĠThey":2287,"Ġ!=":2288,"/\\":2289,"bra":2290,"atrix":2291,")(":2292,"RO":2293,"Ġdensity":2294,"Ġprot":2295,"amples":2296,"Ġcontinu":2297,"Ġlife":2298,"exp":2299,"Ġstates":2300,"Ġpredict":2301,"widet":2302,"dots":2303,"Ġdiff":2304,"Ġimage":2305,"ts":2306,"Ġleast":2307,"lin":2308,"Ġcontrol":2309,"ems":2310,"ĠLet":2311,"Ġparameter":2312,"mber":2313,"ohn":2314,"ustom":2315,"uck":2316,"andom":2317,"Ġhist":2318,"urs":2319,"Ġdat":2320,"ird":2321,"aster":2322,"Ġtotal":2323,"ĠTe":2324,"Ġquest":2325,"Ġbook":2326,"list":2327,"empt":2328,"load":2329,"Ġflu":2330,"une":2331,"Ġsom":2332,"ister":2333,"link":2334,"erial":2335,"pport":2336,"Ġaction":2337,"Ġequation":2338,"Ġadv":2339,"ably":2340,"Ġsource":2341,"Ġanalysis":2342,"wide":2343,"widetilde":2344,"ribute":2345,"ats":2346,"date":2347,"Ġconstant":2348,"Ġcheck":2349,"Ġplace":2350,"icy":2351,"ES":2352,"90":2353,"si":2354,"style":2355,"Ġclear":2356,"ĠShe":2357,"Ġcomplex":2358,"ready":2359,"ĠMay":2360,"point":2361,"Ġgrow":2362,"ĠMar":2363,"rame":2364,"Ġimpro":2365,"ches":2366,"Ġgoing":2367,"().":2368,"ĠAll":2369,"Ġavailable":2370,"Ġapproach":2371,"70":2372,"Ġtheory":2373,"rc":2374,"ternal":2375,"index":2376,"Ġplan":2377,"Ġbro":2378,"Ġtry":2379,"leg":2380,"Ġdeg":2381,"Ġstandard":2382,"Ġindic":2383,"ĠBl":2384,"Ġtimes":2385,"Ġblock":2386,"Ġaff":2387,"Ġcorresponding":2388,"IS":2389,"lected":2390,"posed":2391,"Ġhum":2392,"Ġfile":2393,"With":2394,"www":2395,"Ġnode":2396,"Ġdev":2397,"Ġsit":2398,"Ġrate":2399,"scal":2400,"{-":2401,"());":2402,"Ġgraph":2403,"ĠUniversity":2404,"Ġapproxim":2405,"Ġcrit":2406,"ogle":2407,"ruction":2408,"Ġreally":2409,"Ġcalcul":2410,"veral":2411,"Error":2412,"aut":2413,"Ġrecent":2414,"Ġhapp":2415,"ences":2416,"Class":2417,"Ġsays":2418,"oll":2419,"illion":2420,"Ġlink":2421,"nal":2422,"Ġsignific":2423,"ET":2424,"summary":2425,"Ġtext":2426,"viron":2427,"ayer":2428,"enc":2429,"group":2430,"Ġperformance":2431,"Ġmight":2432,"ION":2433,"2012":2434,"....":2435,"uro":2436,"}-":2437,"fil":2438,"prime":2439,"Ġcell":2440,"centering":2441,"ising":2442,"Ġvert":2443,"location":2444,"iple":2445,"rist":2446,"uture":2447,"Ġalways":2448,"Ġlinear":2449,"enn":2450,"ty":2451,"Ġcap":2452,"Ġfurther":2453,"cap":2454,"Ġhtt":2455,"bo":2456,"overnment":2457,"ittle":2458,"ĠUS":2459,"ĠApp":2460,"draw":2461,"ored":2462,"sequ":2463,"tabular":2464,"Ġfamily":2465,"ĠBy":2466,"arning":2467,"inary":2468,"ĠThere":2469,"ended":2470,"pace":2471,"gl":2472,"ret":2473,"Ġold":2474,"map":2475,"Ġpur":2476,"Ġhard":2477,"ubl":2478,"verage":2479,"ges":2480,"Ã©":2481,"https":2482,"He":2483,"ĠMan":2484,"ules":2485,"ĠSu":2486,"Ġphys":2487,"Ġuser":2488,"Ġpair":2489,"34":2490,"Ġphase":2491,"View":2492,"ajor":2493,"Ġsystems":2494,"ertain":2495,"ĠEq":2496,"idual":2497,"Ġvol":2498,";\\":2499,"ights":2500,"IG":2501,"Ġiss":2502,"ought":2503,"ervice":2504,"Ġmot":2505,"2011":2506,"Ġbig":2507,"Ġrespectively":2508,"ides":2509,"Ġhal":2510,"Ġside":2511,"}+":2512,"path":2513,"Ġabs":2514,"ĉĉĉĉĉ":2515,"uation":2516,"Ġput":2517,"ury":2518,"ĠSo":2519,"Ġgive":2520,"rary":2521,"ĠAt":2522,"Ġseries":2523,"\\]":2524,"sw":2525,"Ġann":2526,"uly":2527,"04":2528,"Ġseveral":2529,"Key":2530,"asing":2531,"iff":2532,"\\{":2533,"._":2534,"IM":2535,"Ġprovide":2536,"Ġ&=":2537,"Ġalready":2538,"Ġmoment":2539,"Ġshort":2540,"Ġmeans":2541,"Qu":2542,"ĠNo":2543,"nav":2544,"Ġcost":2545,"Ġsuccess":2546,"Ġhigher":2547,"nces":2548,"pped":2549,"Ġperiod":2550,"Ġlength":2551,"Ġschool":2552,"âĢĶ":2553,"ĠCent":2554,"Ġlower":2555,"ris":2556,"Requ":2557,"wards":2558,"ideo":2559,"Ġtemper":2560,"ĠEng":2561,"Ġrandom":2562,"Ġcontent":2563,"public":2564,"foot":2565,"raint":2566,"Ġaccess":2567,"ober":2568,")=\\":2569,"Ġbu":2570,"\";":2571,"Ġrequire":2572,"And":2573,"Ġconditions":2574,"Ġhome":2575,"zeta":2576,"Ġtitle":2577,"ĠBe":2578,"Ġorgan":2579,"36":2580,"31":2581,"Ġversion":2582,"ait":2583,"Ġconn":2584,"ograph":2585,"ĠTheorem":2586,"Ġmethods":2587,"Ġenc":2588,"ocial":2589,"Def":2590,"Ġsignificant":2591,"annel":2592,"opt":2593,"Ġinclude":2594,"Ġexpected":2595,"LA":2596,"II":2597,"now":2598,"Ġproof":2599,"02":2600,"ibility":2601,"angu":2602,"['":2603,"Ġseen":2604,"icro":2605,"mp":2606,"ai":2607,"from":2608,"Ġvector":2609,"07":2610,"Ġunt":2611,"}=\\":2612,"Ġbelow":2613,"Ġred":2614,"atus":2615,"Ġhy":2616,"result":2617,"Ġeither":2618,"Ġ:=":2619,"Ġleg":2620,"Se":2621,"ĠCar":2622,"2010":2623,"Ġdynam":2624,"$)":2625,"emma":2626,"PE":2627,"Ġlik":2628,"{(":2629,"Ġcode":2630,"ological":2631,"Ġmonth":2632,"De":2633,"Ġrequest":2634,"ething":2635,"UT":2636,"alax":2637,"US":2638,"ĠWith":2639,"thm":2640,")}\\":2641,"util":2642,"Ġnever":2643,"Ġnormal":2644,"Ġsymmet":2645,"55":2646,"roups":2647,"dt":2648,"most":2649,"length":2650,"thing":2651,"url":2652,"Ġaccount":2653,"Sc":2654,"Ġweek":2655,"ackage":2656,"Ġarea":2657,"ĠCan":2658,"ĠOr":2659,".</":2660,"(),":2661,"Ġthrow":2662,"\"></":2663,"omorph":2664,"ĠÂ":2665,"Ġbusiness":2666,"down":2667,")^{":2668,"small":2669,"Ġfar":2670,"ransp":2671,"which":2672,"Time":2673,"ouble":2674,"AD":2675,"Ġneg":2676,"Ġfeatures":2677,"fficient":2678,"Ġcomplet":2679,".~":2680,"Ġcontext":2681,"mit":2682,"Ġwon":2683,"Ġproperties":2684,"uk":2685,"Ġconfig":2686,"Ġband":2687,"ume":2688,"ottom":2689,"03":2690,"ĠSection":2691,"06":2692,"lying":2693,"');":2694,"Ġfail":2695,"ged":2696,"State":2697,"File":2698,"En":2699,"vironment":2700,"ius":2701,"ĠThese":2702,"ĠCo":2703,"48":2704,"Ġproperty":2705,"Ġemb":2706,"cos":2707,"Ġcome":2708,"wise":2709,"yl":2710,"Ġimplement":2711,"']":2712,",\"":2713,"UR":2714,"Ġindex":2715,"Ġcases":2716,"Man":2717,"HE":2718,"under":2719,"Ġtraining":2720,"Not":2721,"sing":2722,"OT":2723,"Ġbreak":2724,"js":2725,"but":2726,"Ġbehav":2727,"uffer":2728,"Ġcross":2729,"{{\\":2730,"////////":2731,"nection":2732,"ently":2733,"Ġassert":2734,"Ġmove":2735,"Equ":2736,"Ġbackground":2737,"Ġant":2738,"cdots":2739,"Ġinvol":2740,"}]":2741,"Ġfinite":2742,"TR":2743,"Le":2744,"ĠRep":2745,"fl":2746,"inst":2747,"Ġcare":2748,"Ġbi":2749,"aken":2750,"idence":2751,"Ġ?":2752,"Ġenough":2753,"Ġla":2754,"Ġarray":2755,"onal":2756,"Ġaddress":2757,"08":2758,"chie":2759,"Ġalgorithm":2760,"based":2761,"Ġconsid":2762,"Ġassociated":2763,"Ġlater":2764,"osp":2765,"38":2766,"All":2767,"race":2768,"}_\\":2769,"Pl":2770,"ĠJohn":2771,"Ġcirc":2772,"ING":2773,"Ġfund":2774,"ours":2775,"App":2776,"ball":2777,"Ġzero":2778,"Ġcoll":2779,"ump":2780,"Ġdefine":2781,"Ġpositive":2782,"Ġfocus":2783,"ĠOb":2784,"AB":2785,"}\\,":2786,"Ġlines":2787,"rior":2788,"ament":2789,"imensional":2790,"body":2791,"aring":2792,"LO":2793,"Ġinstance":2794,"Ġsepar":2795,"New":2796,"ags":2797,"}|":2798,"Ġrelations":2799,"Ġfrequ":2800,"^+":2801,"Ġconsist":2802,"Ġge":2803,"Ġoutput":2804,"hem":2805,"Ġspecial":2806,"Ġeng":2807,"Ġins":2808,"Ġflow":2809,"resh":2810,"Ġcover":2811,"Event":2812,"Or":2813,"ending":2814,"ino":2815,"Ġfactor":2816,"ordin":2817,"39":2818,"Ġcreate":2819,"37":2820,"iver":2821,"Ġbelie":2822,"From":2823,"Ġclust":2824,"Ġlittle":2825,"gebra":2826,"Node":2827,"Ġpo":2828,"Ġloss":2829,"rim":2830,"state":2831,"though":2832,"my":2833,"stit":2834,"widehat":2835,"66":2836,"Ġhom":2837,"ney":2838,"Bl":2839,"Ġnec":2840,"Ġservice":2841,"ĠPol":2842,"Ġvia":2843,"}^\\":2844,"Ġfore":2845,"Ġsomething":2846,"Ġstar":2847,"Ġeval":2848,"How":2849,"ĠGe":2850,"ĠMore":2851,"``":2852,"Ġtoget":2853,"Ġtogether":2854,"Ġsimple":2855,"Ġacross":2856,"Ġexact":2857,"atural":2858,"Ġthus":2859,"qquad":2860,"ony":2861,"fer":2862,"cle":2863,"Is":2864,"Ġsugg":2865,"Ġsem":2866,"Ġable":2867,"icon":2868,"Ġret":2869,"Ġsuggest":2870,"})\\":2871,"earch":2872,"cell":2873,"Ġobserved":2874,"Element":2875,"Ġtre":2876,"Ġgot":2877,"ĠEn":2878,"Ph":2879,"apt":2880,"olean":2881,")]":2882,"book":2883,"chan":2884,"=\"../../":2885,"Ġreason":2886,"Ġexists":2887,"user":2888,"\":":2889,"Att":2890,"Ġbase":2891,"Request":2892,"tact":2893,"ride":2894,"Ġscale":2895,"Ġ);":2896,"Ġmajor":2897,"Ġblack":2898,"&=":2899,"Text":2900,"Psi":2901,"ians":2902,"Ġuntil":2903,"09":2904,"lemma":2905,"!--":2906,"Ġstory":2907,"Ġmulti":2908,"44":2909,"Ġprom":2910,"textwidth":2911,"Ġlabel":2912,"FF":2913,"ĠThat":2914,"Ġoriginal":2915,"Ġstep":2916,"ĠAmerican":2917,"Ġes":2918,"Ġfeature":2919,"iving":2920,"gs":2921,"ront":2922,"Ġdescribed":2923,"error":2924,"conom":2925,"Ġelements":2926,"Ġaverage":2927,"Ġcoupl":2928,"Ġwin":2929,"Ġfuture":2930,"ensor":2931,"Ġkeep":2932,"eter":2933,"/*":2934,"irection":2935,"Ġdone":2936,"cast":2937,"ĠMon":2938,"Ġwhether":2939,"Over":2940,"Ġpract":2941,"ving":2942,"oud":2943,"ĠFigure":2944,"Ġdefinition":2945,"Ġclose":2946,"Ġclaim":2947,"Ġmusic":2948,"Ġcolor":2949,"Ġcertain":2950,"agement":2951,"ĉĊ":2952,"Ġindiv":2953,"Ġimpl":2954,"Ġcompany":2955,"appro":2956,"skip":2957,"}}(":2958,"ulations":2959,"Ġhaving":2960,"inally":2961,"Add":2962,"Ġask":2963,"Ġthings":2964,"Ġconsidered":2965,"ula":2966,"anel":2967,"2009":2968,"prop":2969,"Ġfixed":2970,"Ġindependent":2971,"pping":2972,"Ġunderstand":2973,"Ġrequired":2974,"Ġoffic":2975,"Ġoperator":2976,"}^{(":2977,"Ġ\\{":2978,"Info":2979,"using":2980,"Ġsurface":2981,"bt":2982,"Ġpay":2983,"input":2984,"Ġport":2985,"uf":2986,"call":2987,"Ġproposed":2988,"used":2989,"CC":2990,"ĠUnited":2991,"Ġachie":2992,"fin":2993,"lease":2994,"irt":2995,"Ġ/*":2996,"Su":2997,"ilities":2998,"Ġrat":2999,"Ġdiv":3000,"iam":3001,"Ġstre":3002,"ML":3003,"Path":3004,"ĠOne":3005,"Ġequival":3006,"fe":3007,"Ġbecome":3008,"Ġquantum":3009,"ĠWhen":3010,"indent":3011,"But":3012,"iction":3013,"Ġsequence":3014,"())":3015,"scale":3016,"medi":3017,"semb":3018,"rain":3019,"operator":3020,"Ġprobability":3021,"bb":3022,"ĠSystem":3023,"ponent":3024,"95":3025,"raction":3026,"sin":3027,"Field":3028,"ĠGu":3029,"cher":3030,"Ġwidth":3031,"Ġaway":3032,"Ġconstruct":3033,"':":3034,"ĠJan":3035,"Ġmatch":3036,"/**":3037,",-":3038,"ariant":3039,"Ġgalax":3040,"equiv":3041,"light":3042,"ework":3043,"Ġprop":3044,"ĠĠĠĠĠĠĠĠĠĠĠĠ":3045,"Ġresponse":3046,"anguage":3047,"Ad":3048,"Ġoften":3049,"enu":3050,"Ġrepl":3051,"Ġfac":3052,"oken":3053,"pdf":3054,"net":3055,"Ġresearch":3056,"Ġdefault":3057,"}\\\\":3058,"65":3059,"pol":3060,"astic":3061,"mark":3062,"Ġamong":3063,"Ġcommon":3064,"Ġfields":3065,"++":3066,"cup":3067,"Ġexperiment":3068,"Ġspin":3069,"izing":3070,"Ġassume":3071,"197":3072,"Ġhuman":3073,"ĠCount":3074,"ĠMed":3075,"2008":3076,"ĠFran":3077,"prot":3078,"Ġgr":3079,"rest":3080,"Ġreview":3081,"Ġthough":3082,"Ġsample":3083,"Ġben":3084,"Ġwater":3085,"ones":3086,"ple":3087,"ĠSince":3088,"Ġanaly":3089,"void":3090,"Ġtransition":3091,"Ġlearning":3092,"Ġmaking":3093,"({\\":3094,"Ġep":3095,"Ġglobal":3096,"Ġinvestig":3097,"lied":3098,"Ġindividual":3099,"Ġ$(\\":3100,"Ġtemperature":3101,"Ġnumer":3102,"Ġland":3103,"ĠĠĠĠĠĠĠĠĠĠĠĠĠĠĠĠĠĠĠĠĠĠĠĠĠĠĠ":3104,"Ġvalid":3105,"ĠWorld":3106,"Ġaccording":3107,"[]":3108,"Ġnum":3109,"Ġfilm":3110,"Ġ/>":3111,"itted":3112,"Ġlot":3113,"Ġhealth":3114,"Form":3115,"Result":3116,"ards":3117,"struct":3118,"ike":3119,"ramework":3120,"model":3121,"Ġcut":3122,"igen":3123,"Ġpolit":3124,"Ġfit":3125,"Index":3126,"Ġgovernment":3127,"){":3128,"Ġkind":3129,"ĠĠĠĠĠĠĠĠĠĠ":3130,"Ġseason":3131,"ging":3132,"comes":3133,"Ġtaken":3134,"Ġrole":3135,"Ġcannot":3136,"Ġearly":3137,"Ġrelated":3138,"Ġrecord":3139,"Ġcontribution":3140,"Ġexpress":3141,"ĠMe":3142,"Ġwhy":3143,"ops":3144,"Of":3145,"Ġtable":3146,"ĠNational":3147,"Ġevents":3148,"true":3149,"Ġvarious":3150,"Ġcy":3151,"Config":3152,"oney":3153,"Ġill":3154,"TE":3155,"Ġlo":3156,"Ġnecess":3157,"Ġhowever":3158,"hspace":3159,"uments":3160,"ided":3161,"Context":3162,"Ġauthor":3163,"quot":3164,"mid":3165,"word":3166,"loat":3167,"more":3168,"Ġfri":3169,"Ġmakes":3170,"dom":3171,"amespace":3172,"igned":3173,"Ġgives":3174,"Ġprovided":3175,"ze":3176,"ured":3177,"ĠLemma":3178,"gress":3179,"Ġdep":3180,"agram":3181,"gen":3182,"Ġpress":3183,"Ġspecific":3184,"Ġfeel":3185,"Wh":3186,"Ġaccur":3187,"config":3188,"ires":3189,"Ġdistance":3190,"Ġdays":3191,"ĠCor":3192,"ĠInt":3193,"IR":3194,"ales":3195,"eloc":3196,"Ġ&\\":3197,"eting":3198,"Ġunit":3199,"49":3200,"2020":3201,"Ġpast":3202,"orts":3203,"ilt":3204,"}:":3205,"citet":3206,"bor":3207,"object":3208,"ĠApr":3209,"Ġ-->":3210,"iven":3211,"asc":3212,"Ġemploy":3213,"abor":3214,"Array":3215,"spec":3216,"IP":3217,"plate":3218,"Ġlarger":3219,"rec":3220,"****************":3221,"run":3222,"SP":3223,"ĠYork":3224,"OM":3225,"raft":3226,"eturn":3227,"alt":3228,"block":3229,"ĠArt":3230,"ersion":3231,"ĠCal":3232,"Map":3233,"star":3234,"ogn":3235,"oman":3236,"ĠMin":3237,"Ġdatas":3238,"Code":3239,"iol":3240,"lor":3241,"eff":3242,"Ġmembers":3243,"Ġconc":3244,"Ġ(!":3245,"Ġbit":3246,"kn":3247,"ui":3248,"|^":3249,"47":3250,"Ġelectron":3251,"ector":3252,"CD":3253,"ĠJuly":3254,"mon":3255,"Ġrather":3256,"2007":3257,"]$":3258,"och":3259,"Ġground":3260,"There":3261,"like":3262,"urope":3263,"that":3264,"Ġattack":3265,"aff":3266,"reed":3267,"67":3268,"footnot":3269,"Ġequations":3270,"Ġmaterial":3271,"Ġfig":3272,"ĠAug":3273,"ĠAust":3274,"Ġcourse":3275,"aged":3276,"Ġmatter":3277,"ategory":3278,"isk":3279,"Ġdomain":3280,"OD":3281,"ĠState":3282,"ayout":3283,"Ġcompar":3284,"Service":3285,"apache":3286,"Ġexec":3287,"ĠOct":3288,"check":3289,"icol":3290,"Ġwrite":3291,"amed":3292,"Ġcountry":3293,")-":3294,"Comp":3295,"api":3296,"Ġclos":3297,"Ġboundary":3298,"OS":3299,"Ġlearn":3300,"init":3301,"}}{\\":3302,"ĠIm":3303,"ounter":3304,"Ġquestion":3305,"actions":3306,"Ġeffects":3307,"Ġonce":3308,"Ġprim":3309,"ĠChrist":3310,"Ġconstraint":3311,"Ġnote":3312,"fill":3313,"Ġsearch":3314,"Ġchildren":3315,"ĠThus":3316,"mathsf":3317,"Ġprof":3318,"aint":3319,"Ġestabl":3320,"edge":3321,"cing":3322,"iled":3323,"utes":3324,"Ġmetric":3325,"Ġ},":3326,"Ġregular":3327,"Ġhalf":3328,"Ġsoft":3329,"ĠMc":3330,"display":3331,"}+\\":3332,"'$":3333,"At":3334,"Ġ...":3335,"Ġcomponent":3336,"valid":3337,"ional":3338,"Ġjob":3339,"Inst":3340,"elling":3341,"tings":3342,"Ġbody":3343,"Ġalmost":3344,"Ġthird":3345,"tes":3346,"Ġcustom":3347,"lt":3348,"UN":3349,"ĠGet":3350,"68":3351,"ender":3352,"ĠPart":3353,"noindent":3354,"Ġhold":3355,"Ġfive":3356,"Ġexplain":3357,"Ġthought":3358,"ĠSchool":3359,"Ġadditional":3360,"desc":3361,"Ġveloc":3362,"ooth":3363,"Table":3364,"Ġair":3365,"ĠPar":3366,"osition":3367,"ĠComp":3368,"Ġstyle":3369,"rew":3370,"ĠQu":3371,"Ġ-\\":3372,"Ġsolutions":3373,"Ġ});":3374,"Ġsets":3375,"Size":3376,"CH":3377,"Ġparent":3378,"=\"+":3379,"ili":3380,"Ġeffective":3381,"hood":3382,"Ġtransform":3383,"Ġlove":3384,"Ġweight":3385,"';":3386,"\"\"":3387,"eed":3388,"AA":3389,"ĠNot":3390,"Ġhistory":3391,"ĠJune":3392,"Ġchanges":3393,"Tr":3394,"ĠCity":3395,"Ġdenote":3396,"aves":3397,"xspace":3398,"Ġimages":3399,"ids":3400,"(-":3401,"Rec":3402,"Ġcity":3403,"ying":3404,"Ġmillion":3405,"aging":3406,"neq":3407,"2006":3408,"Ġgroups":3409,"}-\\":3410,"Loc":3411,"Ġedge":3412,"ync":3413,"Ġeffic":3414,"do":3415,"sel":3416,"####":3417,"Ġhost":3418,"eline":3419,"ĠReg":3420,"aced":3421,"imate":3422,"Ġdifference":3423,"era":3424,"Ġtreat":3425,"Ġsure":3426,"mail":3427,"iform":3428,"Ġcontains":3429,"assert":3430,"AG":3431,"Ġcolumn":3432,"hand":3433,"Ġcomplete":3434,"aches":3435,"ĠGo":3436,"Ġyoung":3437,"Ġworking":3438,"Ġmechan":3439,"onic":3440,"ENT":3441,"Ġstrateg":3442,"ifier":3443,"count":3444,"Ġprec":3445,"plus":3446,"Ġamount":3447,"Build":3448,"ĠPr":3449,"umerate":3450,"Ġtherefore":3451,"ips":3452,"Ġsite":3453,"rs":3454,"ussian":3455,"ham":3456,"aries":3457,"Ġwhose":3458,"Ġsens":3459,"title":3460,"Ġstars":3461,"ands":3462,"ĠSch":3463,"\\,\\":3464,"Ġcommunity":3465,"Out":3466,"Ġsent":3467,"Ġimprove":3468,"ung":3469,"rated":3470,")}{":3471,"irm":3472,"Ġsche":3473,"eneral":3474,"split":3475,"Ġmultiple":3476,"oin":3477,"Ġinstead":3478,"Ġoptim":3479,"ried":3480,"Ġsocial":3481,"Ġgenerated":3482,"ched":3483,"irl":3484,"na":3485,"EE":3486,"ĠSec":3487,"You":3488,"Ġop":3489,"Ġdevelopment":3490,"operatorname":3491,"ills":3492,"Ġtw":3493,"Ġmessage":3494,"IL":3495,"xy":3496,"ceed":3497,"define":3498,"Ġgas":3499,"md":3500,"Ġenvironment":3501,"Ġyet":3502,"hib":3503,"ĠBo":3504,"Ġhttp":3505,"No":3506,"ĠMarch":3507,"ĠAb":3508,"roller":3509,"Ġweak":3510,"What":3511,"ken":3512,"Ġequal":3513,"ached":3514,"Ġsqu":3515,"Ġcompared":3516,"izes":3517,"ĠMod":3518,"ĠVal":3519,"Ġcamp":3520,"ilit":3521,"Ġwave":3522,"icture":3523,"ĠÐ":3524,"Reg":3525,"atively":3526,"ully":3527,"Ġconver":3528,"iles":3529,"dimensional":3530,"vis":3531,"ĠAss":3532,"Ġbegin":3533,"ĠWhat":3534,"ĠRec":3535,"Ġwomen":3536,"Read":3537,"Hand":3538,"Ġdetails":3539,"Ġdocument":3540,"change":3541,"Ġhor":3542,"Ġdidn":3543,"Ġnatural":3544,"ication":3545,"angle":3546,"Ġtaking":3547,"next":3548,"ledge":3549,"System":3550,"enumerate":3551,"{}":3552,"TD":3553,"ĠEurope":3554,"ĠIntern":3555,"itemize":3556,")}$":3557,"Message":3558,"theorem":3559,"Ġsignal":3560,"Ġactually":3561,"Ġworks":3562,"default":3563,"Ġindust":3564,"Ġver":3565,"vspace":3566,"Ġpubl":3567,"Ġimplies":3568,"ensions":3569,"Ġexperience":3570,"scr":3571,"long":3572,"dag":3573,"uary":3574,"Ġvideo":3575,"aul":3576,"icult":3577,"ĠDo":3578,"MS":3579,"OP":3580,"Ġfun":3581,"Ġcoe":3582,"Item":3583,"Ġdisplay":3584,"Ġunique":3585,"Sub":3586,"Ġoptions":3587,"ĠDef":3588,"cho":3589,"Ġentire":3590,"Ġwritten":3591,"ster":3592,"Ġtoday":3593,"Ġmedia":3594,"ĠStates":3595,"omial":3596,"ĠAg":3597,"ners":3598,"$}":3599,"ĠHam":3600,"bound":3601,"Ġwords":3602,"Ġpage":3603,"à¤":3604,"ana":3605,"pc":3606,"itude":3607,"MP":3608,"ĠEd":3609,"oted":3610,"Ġothers":3611,"]\\":3612,"Ġrot":3613,"Ġbring":3614,"mar":3615,"'re":3616,"ĠWill":3617,"Ġappear":3618,"Ġchall":3619,"85":3620,"ĠDis":3621,"create":3622,"iments":3623,"heck":3624,"pty":3625,"='":3626,"Ġcomponents":3627,"ĠApril":3628,"Ġprove":3629,"ns":3630,"Inter":3631,".)":3632,"tem":3633,"Color":3634,"Ġdirection":3635,"Dis":3636,"Ġyield":3637,"flow":3638,"base":3639,"Ġtrack":3640,"Ġdoesn":3641,"oke":3642,"Ġir":3643,"Ġever":3644,"aly":3645,"42":3646,"lient":3647,"include":3648,"lev":3649,"Ġdri":3650,"ĠSouth":3651,"Ġrelation":3652,"ishing":3653,"Ġcoordin":3654,"&&":3655,"ĠFeb":3656,"ctors":3657,"known":3658,"tic":3659,"bre":3660,"otes":3661,"ĠMark":3662,"Ġthing":3663,"ransport":3664,"multicol":3665,"ux":3666,"Ġholds":3667,"Sp":3668,"Model":3669,"Ġprovides":3670,"NN":3671,"Ġsound":3672,"Ġdeal":3673,"Ġincrease":3674,"Ġevolution":3675,"rule":3676,"normal":3677,"png":3678,"Ġdest":3679,"alle":3680,"content":3681,"Ġprior":3682,"atform":3683,"Ġindu":3684,"CE":3685,"MA":3686,"istics":3687,"Ġrepresentation":3688,"Ġtakes":3689,"multicolumn":3690,"ĠPres":3691,"Ġmagnetic":3692,"Ġspectrum":3693,"2005":3694,"ises":3695,"Ġjava":3696,"Ġund":3697,"Ġtook":3698,"Ġcorrect":3699,"Ġmiss":3700,"46":3701,"ĠSet":3702,"Ġwar":3703,"Ġarch":3704,"Ġbasis":3705,"Ġsense":3706,"approx":3707,"Log":3708,"ĠTr":3709,"level":3710,"Ġcame":3711,"command":3712,"Ġcult":3713,"Ġpresented":3714,"ĠTable":3715,"ened":3716,"start":3717,"One":3718,"Ġwhole":3719,"Ġlanguage":3720,"arameter":3721,"ĠWar":3722,"omorphism":3723,"ĠNews":3724,"NS":3725,"ĠPer":3726,"ĠSept":3727,"Ġproblems":3728,"ĠHar":3729,"Ġalgebra":3730,"Ġdraw":3731,"Call":3732,"ĠTra":3733,"0000":3734,"Ġ_{":3735,"Ġopp":3736,"Ġpref":3737,"][":3738,"Ġsix":3739,"linear":3740,"iddle":3741,"When":3742,"Ġvariables":3743,"unity":3744,"Ġproduction":3745,"Ð°":3746,"clusion":3747,"icit":3748,"ada":3749,"la":3750,"ename":3751,"Ġbar":3752,"Ġ__":3753,"ĠFrom":3754,"Since":3755,"Ġsubject":3756,"oms":3757,"Ġadded":3758,"97":3759,"^-":3760,"Ġneut":3761,"Ġactiv":3762,"rast":3763,"((":3764,"~$":3765,"Ent":3766,"anced":3767,"info":3768,"ĠNote":3769,"}/":3770,"=\"../../../../":3771,"ferences":3772,"Pi":3773,"Ġneigh":3774,"aught":3775,"ributed":3776,"Ġ===":3777,"method":3778,"ĠBar":3779,"andid":3780,"Ġnews":3781,"}}}":3782,"ĠNorth":3783,"Ġtalk":3784,"Ġformer":3785,"Ġfoot":3786,"lege":3787,"Ġlikely":3788,"Ġface":3789,"witch":3790,"98":3791,"Ġlat":3792,"Then":3793,">&":3794,"Ġdegree":3795,"Ġnight":3796,"ĠAfter":3797,"Ġrow":3798,"ocol":3799,"Ġtask":3800,"2000":3801,"\\}$":3802,"onstr":3803,"Be":3804,"Ġmaximum":3805,"Ġphysical":3806,"Ġtypes":3807,"Ġapplication":3808,"Trans":3809,"ypes":3810,"ponse":3811,"can":3812,"Ġmar":3813,"Ġshall":3814,"Ġdirectly":3815,"\".":3816,"Ġchoice":3817,"dist":3818,"Ġneeds":3819,"Ð¾":3820,"oding":3821,"Ġmode":3822,"gt":3823,"Ġpercent":3824,"case":3825,"Ġobjects":3826,"Ġimpact":3827,"year":3828,"}}_":3829,"ening":3830,"Ġfall":3831,"Ġvelocity":3832,"height":3833,"57":3834,"active":3835,"ĠTherefore":3836,"Ġstudents":3837,"que":3838,"Ġsong":3839,"ln":3840,"hern":3841,"Ġcomes":3842,"Ġsw":3843,"Ġreported":3844,"Ġmarket":3845,"atur":3846,"tainer":3847,"Ġservices":3848,"Ġestimate":3849,"Ġnil":3850,"Ġevalu":3851,"Ġrelative":3852,"Ġexpression":3853,"Ġdifficult":3854,"Ġeconom":3855,"atory":3856,")+":3857,";&":3858,"Ġ};":3859,"Vert":3860,"SC":3861,"Ġgen":3862,"--------------------------------":3863,"ĠAf":3864,"ĠOur":3865,"ket":3866,"Ġdimension":3867,"rate":3868,"ĠCounty":3869,"Ġscen":3870,"Ġpolicy":3871,"ĠDep":3872,"ĠCont":3873,"ibrary":3874,"Ġage":3875,"ĠMy":3876,"Manager":3877,"illed":3878,"ulated":3879,"ilton":3880,"BC":3881,"eder":3882,"Ġang":3883,"Ġcentral":3884,"auge":3885,"ĠBrit":3886,"Bar":3887,"Ġiter":3888,"Ġgames":3889,"urch":3890,"main":3891,"mission":3892,"atal":3893,"Ġrefer":3894,"ĠLa":3895,"ĠDav":3896,"So":3897,"Ġsetting":3898,"ULL":3899,"Ġinc":3900,"Ġneeded":3901,"43":3902,"Ġtool":3903,"abase":3904,"ĠIN":3905,"ores":3906,"ournal":3907,"Ġbehavior":3908,"SU":3909,"gence":3910,"icles":3911,"ĠHere":3912,"](":3913,"OL":3914,"Ġlive":3915,"current":3916,"unch":3917,"ĠPe":3918,"2004":3919,"avor":3920,"Ġapplied":3921,"range":3922,"Ġplayers":3923,"Theta":3924,"Ġaud":3925,"ĉĉĉĉĉĉĉĉ":3926,"java":3927,"bum":3928,"king":3929,"static":3930,"option":3931,"Count":3932,"Ġload":3933,"\\'":3934,"context":3935,"Ġ\\;":3936,"ites":3937,"rices":3938,"Ġbecomes":3939,"Ġallows":3940,"mathscr":3941,"ama":3942,"Ġnuc":3943,"Ref":3944,"End":3945,"Ġtheorem":3946,"encies":3947,"ĠEl":3948,"ovember":3949,"Ġtell":3950,"Ġclosed":3951,"Ġleading":3952,"Desc":3953,"58":3954,"Ġdouble":3955,"Ġmer":3956,"ĠGl":3957,"Ġsimply":3958,"Ġcenter":3959,"reate":3960,"Ġratio":3961,"Ġdemonstr":3962,"lier":3963,"ditional":3964,"doc":3965,"ĠAustral":3966,"urity":3967,"Ġsmaller":3968,"Ġdeath":3969,"Ġupper":3970,"print":3971,"acity":3972,"Ġidea":3973,"ĠSm":3974,"abled":3975,"ĠAugust":3976,"Ġsrc":3977,"page":3978,"Ġcompet":3979,"Ġ\\|":3980,"Ġnumbers":3981,"GL":3982,"oved":3983,"Ġseem":3984,"rown":3985,"atives":3986,"itect":3987,"Ġincluded":3988,"orage":3989,"ota":3990,"Ġitself":3991,"overed":3992,"duc":3993,"PS":3994,"Ġrestrict":3995,"ĠFirst":3996,"undle":3997,"ele":3998,"iation":3999,"Ġadj":4000,"Ġcapt":4001,"oto":4002,"build":4003,"Ġdeep":4004,"Ġoccur":4005,"cember":4006,"ague":4007,"Ġmention":4008,"Ġsources":4009,"Ġaccept":4010,"argin":4011,"================":4012,"Ðµ":4013,"vey":4014,"fect":4015,"Method":4016,"jection":4017,"Ġquite":4018,"ously":4019,"ĠAct":4020,"Ġliter":4021,"umb":4022,"Ġinteresting":4023,"rump":4024,"Ġhouse":4025,"ĠSeptember":4026,"56":4027,"96":4028,"abs":4029,"Ġreference":4030,"Ġeigen":4031,"ille":4032,"Ġcr":4033,"Ġpattern":4034,"Ġrespons":4035,"Ġarm":4036,"Ġcreated":4037,"Ġprinc":4038,"ĠWest":4039,"Ġdecre":4040,"Ġvisit":4041,"Ġregard":4042,"ĠOctober":4043,"Property":4044,"Ed":4045,"ha":4046,"allel":4047,"}^{-":4048,"Ġviol":4049,"ĠPark":4050,"41":4051,"TH":4052,"underline":4053,"otic":4054,"Note":4055,"ĠJanuary":4056,"Ġincreasing":4057,"taint":4058,"500":4059,"usion":4060,"ein":4061,"Ġonline":4062,"Ġissue":4063,"Ġstarted":4064,"IF":4065,"<\\":4066,"norm":4067,"has":4068,"textrm":4069,"Ġcritical":4070,"Ġchannel":4071,"),\\":4072,"Ġrob":4073,"ĠSim":4074,"Client":4075,"ĠClass":4076,"Ġbuilding":4077,"Ġtold":4078,"Ġfrequency":4079,"pecially":4080,"88":4081,"Ġwindow":4082,"texttt":4083,"core":4084,"efore":4085,"Query":4086,"Ġdetermined":4087,"User":4088,"erc":4089,"actory":4090,"Ġmoney":4091,"footnote":4092,"bsite":4093,"arily":4094,"Ġapply":4095,"ometry":4096,"ruary":4097,"Ġess":4098,"Ġflux":4099,"empty":4100,"Ġbox":4101,"false":4102,"coming":4103,"eries":4104,"Ġincludes":4105,"package":4106,"bigg":4107,"izer":4108,"77":4109,"ithub":4110,"Ġborder":4111,"Ġvariable":4112,"Ġproced":4113,"Ġpopulation":4114,"Ġ$|":4115,"soft":4116,"Ġansw":4117,"Ġstudies":4118,"minus":4119,"Ġbool":4120,"Ġbenef":4121,"tra":4122,"ĠHouse":4123,"Ġequivalent":4124,"PI":4125,"Ġago":4126,"Ġ$\\{":4127,"avy":4128,"oo":4129,"Now":4130,"css":4131,"Ġgrad":4132,"ounc":4133,"zz":4134,"Ġquality":4135,"Ġlooking":4136,"ensive":4137,"Ġeduc":4138,"ranch":4139,"google":4140,"Ġax":4141,"prod":4142,"ements":4143,"{$":4144,"ATE":4145,"Ġbroad":4146,"Ut":4147,"ĠĠĠĠĠĠĠĠĠĠĠĠĠĠĠĠĠ":4148,"Ġmen":4149,"ares":4150,"di":4151,"ario":4152,"shift":4153,"ming":4154,"osen":4155,"web":4156,"Ġlayer":4157,"ynomial":4158,"ansion":4159,"ĠList":4160,"Ġeasy":4161,"First":4162,"ondon":4163,";</":4164,"db":4165,"Ġcompan":4166,"Ġwent":4167,"Ġdoing":4168,"Ġforward":4169,"Ġdig":4170,"Ġseems":4171,"Ġdevice":4172,"acing":4173,"Ab":4174,"Ġnoise":4175,"member":4176,"apping":4177,">(":4178,"lish":4179,"android":4180,"Ġgre":4181,"dev":4182,"^{-\\":4183,"ports":4184,"ube":4185,"place":4186,"achine":4187,"apter":4188,"Ġtax":4189,"gra":4190,"tical":4191,"Ġ($\\":4192,"Ġpers":4193,"Ġfront":4194,"}'":4195,"ĠĠĠĠĠĠĠĠĠĠĠĠĠĠĠĠĠĠĠĠĠĠĠĠĠĠĠĠĠĠĠ":4196,"Response":4197,"Ġtree":4198,"ĠStud":4199,"Ġselect":4200,"Ġconstruction":4201,"subseteq":4202,"ky":4203,"Ġusers":4204,"char":4205,"_+":4206,"ympt":4207,"Net":4208,"Ġey":4209,"Cell":4210,"ĠBro":4211,"Stream":4212,"nov":4213,"ĠGa":4214,"IV":4215,"Ġdark":4216,"Ġinteraction":4217,"umin":4218,"Override":4219,"Ġrecogn":4220,"selves":4221,"Ġissues":4222,"Ġcontinue":4223,"Ġconnected":4224,")|":4225,"ĠNovember":4226,"Ġoption":4227,"hing":4228,"Ġspeed":4229,"attice":4230,"column":4231,"rier":4232,"ĠNow":4233,"Ġexplicit":4234,"Ġuses":4235,"det":4236,"pret":4237,"Ġnecessary":4238,"Ġcopy":4239,"certaint":4240,"Ġstd":4241,"Ġrunning":4242,"ãģ":4243,"ĠSan":4244,"Ġinflu":4245,"ĠĠĠĠĠĠĠĠĠĠĠĠĠĠ":4246,"Ġcontact":4247,"Ġlocation":4248,"Ġforce":4249,"=\"#":4250,"Ġderiv":4251,"Ġmix":4252,"Ġagre":4253,"Ġoperators":4254,"Ġbad":4255,"Ġdiagram":4256,"Ġsmooth":4257,"vant":4258,"Ġperformed":4259,"PC":4260,"Ġ]":4261,"Ġreceived":4262,"ewidth":4263,"=\"../":4264,"Ġcharg":4265,"inv":4266,"Ġmember":4267,"Ġword":4268,"dagger":4269,"github":4270,"Ġwor":4271,"ĠNe":4272,"ĠAir":4273,"ker":4274,"local":4275,"rong":4276,"}},":4277,"icense":4278,"Ġchain":4279,"Ġdate":4280,"apan":4281,"iber":4282,"Ġshift":4283,"_{(":4284,"ĠDecember":4285,"HT":4286,"Ġheight":4287,"2003":4288,"ributes":4289,"aign":4290,"cret":4291,"Ġmind":4292,"older":4293,"aa":4294,"More":4295,"*{":4296,"sider":4297,"Ġcandid":4298,"Ġinside":4299,"Ġregions":4300,"ĠAm":4301,"Ġillust":4302,"Here":4303,"ĠChar":4304,"Ġpick":4305,"Ġbehind":4306,"hel":4307,"Ġembed":4308,"Group":4309,"idden":4310,"irtual":4311,"stack":4312,"Ġobservations":4313,"$_":4314,"Comm":4315,"Ġattempt":4316,"Ġsymmetry":4317,"ĠHis":4318,"ĠTest":4319,"event":4320,"ĠHigh":4321,"bul":4322,"Ġautom":4323,"Image":4324,"Ġgrav":4325,"Ġsufficient":4326,"Ġespecially":4327,"Ġoutside":4328,"rep":4329,"null":4330,"ĠRef":4331,"anks":4332,"\\}":4333,"Our":4334,"Ġparticip":4335,"minist":4336,"DF":4337,"Ġsolid":4338,"Builder":4339,"image":4340,"Ġdomin":4341,"oplus":4342,"Ġgauge":4343,"Ġconduct":4344,"Ġsecur":4345,"Rep":4346,"oul":4347,"Ġmonths":4348,"Ġconnection":4349,"Ġparts":4350,"Ġarticle":4351,"mat":4352,"Ġreve":4353,"Ġdiscussed":4354,"module":4355,"PR":4356,"Ġpack":4357,"Fil":4358,"bur":4359,"setminus":4360,"server":4361,"ĠPresident":4362,"ĠĠĠĊ":4363,"func":4364,"ONT":4365,"Ġcharge":4366,"ashed":4367,"Ġpert":4368,"ellar":4369,"Ġstream":4370,"rief":4371,"elt":4372,"Ġvan":4373,"ĠAcc":4374,"Ġupdate":4375,"Ġframe":4376,"Ġdataset":4377,"Ġrank":4378,"wedge":4379,"59":4380,"loor":4381,"dl":4382,"first":4383,"}}_{":4384,"ĉĉĉĉĉĉ":4385,"Exp":4386,"Ġseg":4387,"Ġslow":4388,"Ġcurve":4389,"crete":4390,"Ġ$-":4391,"Ġinequ":4392,"Ġinternal":4393,"ĠII":4394,"Ġgrowth":4395,"Ġgalaxies":4396,"Ġnodes":4397,"stream":4398,"ĠKing":4399,"Ġargument":4400,"Ġstreng":4401,"Ġconsum":4402,"conn":4403,"Ġ~":4404,"bottom":4405,"miss":4406,"Ġcompact":4407,"Block":4408,"ae":4409,"Ġfood":4410,"Ġwhite":4411,"ĠGerm":4412,"Ġemission":4413,"maz":4414,"Ġgetting":4415,"Ġnegative":4416,")/":4417,"ridge":4418,"Ġformula":4419,"ael":4420,"Ġupon":4421,"perp":4422,"rant":4423,"Ġselected":4424,"oon":4425,"87":4426,"Ġquick":4427,"Ġintroduced":4428,"Ġlonger":4429,"Ġrecently":4430,"pected":4431,"ĠFebruary":4432,"ecause":4433,"Ġsuccessful":4434,"LT":4435,"({":4436,"Ġsamples":4437,"Ġmemory":4438,"obile":4439,"Ġstage":4440,"Ġlevels":4441,"element":4442,"'m":4443,"Ġsus":4444,"Ġcle":4445,"ford":4446,"Ġste":4447,"Ġtransfer":4448,"ĠUK":4449,"Ġknowledge":4450,"Ġuniform":4451,"ĠAmerica":4452,"69":4453,"Ġhit":4454,"Ġdr":4455,"Ġhence":4456,"Par":4457,"gener":4458,"Ġoperation":4459,"tx":4460,")\\,":4461,"51":4462,"ĠHer":4463,"Ġengine":4464,"sy":4465,"nes":4466,"Ġimmedi":4467,"asks":4468,"Ġround":4469,"Ġitem":4470,"Ġprint":4471,"Spec":4472,"Ġ$[":4473,"Ġavoid":4474,"band":4475,"Ð¸":4476,"arks":4477,"EX":4478,"Ġparticles":4479,"uel":4480,"Ġshare":4481,")</":4482,"sup":4483,"Line":4484,"Ġwalk":4485,"Ġbelieve":4486,"Input":4487,"Ġhol":4488,"linewidth":4489,"ĠMich":4490,"Date":4491,"That":4492,"ued":4493,"Ġgoal":4494,"iet":4495,"Ġpeak":4496,"Ġopport":4497,"Ġaltern":4498,"child":4499,"Ġproducts":4500,"Pr":4501,"Ġchoose":4502,"Ġdecl":4503,"ĠTrans":4504,"lections":4505,"values":4506,"Ġball":4507,"Ġcontinuous":4508,"Ġframework":4509,"Ge":4510,"osing":4511,"Ġmomentum":4512,"Ġcluster":4513,"lood":4514,"Ġpanel":4515,"Ġmaps":4516,"52":4517,"ouncil":4518,"Ġcoming":4519,"UE":4520,"FT":4521,"Ġrisk":4522,"Ġreach":4523,"free":4524,"Ġboolean":4525,"ĠAfric":4526,"ĠRed":4527,"ĠTrump":4528,"Ġindustry":4529,"Ġwatch":4530,"ĠLondon":4531,"Ġpolynomial":4532,"Ġsex":4533,"Ġconv":4534,"Ġexactly":4535,"54":4536,"Ġeasily":4537,"Ġvolume":4538,"attle":4539,"dir":4540,"Ġnov":4541,"Ġparticle":4542,"ifying":4543,"limits":4544,"Ġalbum":4545,"Ġhot":4546,"ellow":4547,"istry":4548,"lication":4549,"Part":4550,"uses":4551,"ington":4552,"ropy":4553,"Ġtechnology":4554,"Ġstra":4555,"MM":4556,"Ġmotion":4557,"Ġshape":4558,",\\,":4559,"ociety":4560,"53":4561,".$":4562,"ĠDes":4563,"ĠAng":4564,"aper":4565,"ancial":4566,"\\\"":4567,"Ġcollection":4568,"iny":4569,"options":4570,"Ġvers":4571,"Ġscheme":4572,"={":4573,"_*":4574,"rang":4575,"fort":4576,"subfigure":4577,"Ġinterval":4578,"])":4579,"Ġarbit":4580,"namespace":4581,"client":4582,"Ġhours":4583,"Ġstri":4584,"Ġminimum":4585,"Ġsecurity":4586,"Ġhyp":4587,"Ġpresence":4588,"ĠOf":4589,"Ġcoupling":4590,"unt":4591,"Ġdim":4592,"Ġpersonal":4593,"Ġperturb":4594,"ĠSub":4595,"Ġapproximation":4596,"Ġinstall":4597,"ĠCenter":4598,"arp":4599,"Ġcos":4600,"Ġdeveloped":4601,"Ġnational":4602,"Ġlinks":4603,"Ġones":4604,"OC":4605,"Ġandroid":4606,"eli":4607,"sol":4608,"istory":4609,"definition":4610,"Ġmechanism":4611,"Ġproper":4612,"Ġcomparison":4613,"Ġintern":4614,"riter":4615,"Ġofficial":4616,"Ġ(-":4617,"Ġbounded":4618,"pri":4619,"ND":4620,"Ġresource":4621,"Ġsuff":4622,"ief":4623,"Ġmodule":4624,"Ġconcern":4625,"Ġfight":4626,"ado":4627,"gu":4628,"Ġactive":4629,"ayers":4630,"After":4631,"bert":4632,"Ġdescription":4633,"Ġleads":4634,"Ġclasses":4635,"Me":4636,"\\!\\!":4637,"Ġareas":4638,"Ġexperiments":4639,"ography":4640,"deg":4641,"MC":4642,"Ġbecame":4643,"2002":4644,"Ġsupported":4645,"pite":4646,"Ġnothing":4647,"Ġtherm":4648,"yd":4649,"php":4650,"stract":4651,"Ġrelease":4652,"witter":4653,"berg":4654,"ĠTV":4655,"LS":4656,"Ġupd":4657,"$(":4658,"Ġresulting":4659,"ĠDem":4660,"Ġuncertaint":4661,"host":4662,"Ġdriv":4663,"Ġheld":4664,"pose":4665,"joy":4666,"Status":4667,"Ġprobably":4668,"Ġdescribe":4669,"isation":4670,"oring":4671,"Ġcomment":4672,"Ġfigure":4673,"ĠLaw":4674,"ĠWhile":4675,"Ġdynamics":4676,"Acc":4677,"Ġuseful":4678,"Ġmeasured":4679,"arameters":4680,"<!--":4681,"2001":4682,"}%":4683,"Ġevidence":4684,"omb":4685,"Ġheart":4686,"oe":4687,"Ġstatement":4688,"rivial":4689,"Ġbuilt":4690,"query":4691,"Pre":4692,"Base":4693,"Ġ<<":4694,"Ġconfiguration":4695,"post":4696,"Post":4697,"Ġrule":4698,"olic":4699,"cs":4700,"ĠSee":4701,"ese":4702,"igation":4703,"Ġ}\\":4704,"dat":4705,"adem":4706,"serve":4707,"Null":4708,"Ġremains":4709,"Ġvertex":4710,"aily":4711,"ialog":4712,"ios":4713,"Ġimm":4714,"Ġcontract":4715,"ny":4716,"Ġ()":4717,"append":4718,"process":4719,"REF":4720,"Ġ|\\":4721,"Ġlate":4722,"Ġamplit":4723,"Ext":4724,"cel":4725,"Ġattention":4726,"Ġstatus":4727,"Next":4728,"Ġtowards":4729,"Ġconcept":4730,"resents":4731,"request":4732,"Ġallowed":4733,"63":4734,"target":4735,"ĠSw":4736,"write":4737,"ĠData":4738,"Ġ->":4739,"Ġfully":4740,"ĠInternational":4741,"){\\":4742,"Ġanything":4743,"=(":4744,"Source":4745,"Ġdetermine":4746,"example":4747,"ĠHol":4748,"inding":4749,"Ġparty":4750,"num":4751,"ded":4752,"Ġgain":4753,"strong":4754,"Eq":4755,"Ġcore":4756,"Ġpolitical":4757,"Ġmanif":4758,"ĠOff":4759,"Ġcam":4760,"black":4761,"ressed":4762,"_{-":4763,"Ġfast":4764,"pdate":4765,"'\\":4766,"ÑĤ":4767,"Ġrequires":4768,"ometric":4769,"'ve":4770,"ollary":4771,"artment":4772,"Ġtown":4773,"Ġapplications":4774,"Token":4775,"Ġdecision":4776,"Ġconsistent":4777,"rl":4778,"_{{\\":4779,"Ġclient":4780,"Ġclassical":4781,"dered":4782,"font":4783,"Ġmor":4784,"Ġresolution":4785,"Ġnumerical":4786,"reet":4787,"ĠInter":4788,"ocr":4789,"Ġradius":4790,"tty":4791,"Ġextra":4792,"Ġord":4793,"ERT":4794,"uthors":4795,"ĠHamilton":4796,"Per":4797,"ĠPat":4798,"Ġnetworks":4799,"Ġspat":4800,"Ġsimulations":4801,"bug":4802,":\\":4803,"iting":4804,"SI":4805,"sg":4806,"Ġsubset":4807,"Ġinterface":4808,"Oper":4809,"button":4810,"ãĤ":4811,"ĠĠĠĠĠĠĠĠĊ":4812,"ĠProposition":4813,"Ġstation":4814,"itable":4815,"Ġderived":4816,"bin":4817,"Ġplayer":4818,"Ġreduced":4819,"amily":4820,"Ġperfect":4821,"Ġnature":4822,"inct":4823,"ernel":4824,"{{":4825,"Ġexpansion":4826,"Ġpolar":4827,"ĠJust":4828,"Pol":4829,"aligned":4830,"only":4831,"Ġroom":4832,"otype":4833,"ĠJapan":4834,"colon":4835,"Ġpressure":4836,"Ġroad":4837,"illing":4838,"Ġwall":4839,"Ġprocesses":4840,"Ġcells":4841,"dim":4842,"Ġhope":4843,"Ġreleased":4844,"Ġspecified":4845,"62":4846,"Ġplane":4847,"ĠRem":4848,"Ġplayed":4849,"Ġwebsite":4850,"ĠEnglish":4851,"ounced":4852,")}(":4853,"Ġvac":4854,"Ġspectral":4855,"Ġconsequ":4856,"Attribute":4857,"irth":4858,"Ġsimpl":4859,"Ġhttps":4860,"Ġstop":4861,"EL":4862,"Ġaim":4863,"Ġoptimal":4864,"Ġstarting":4865,"select":4866,"Act":4867,"78":4868,"iler":4869,"Ġemer":4870,"Ġselection":4871,"adding":4872,"Ġtreatment":4873,"inf":4874,"fficients":4875,"Ġnorm":4876,"iding":4877,"However":4878,"////////////////":4879,"Ġwriting":4880,"Equal":4881,"CP":4882,"Head":4883,"Ġtim":4884,"rug":4885,"yles":4886,"Ġaccuracy":4887,"Ġlimited":4888,"ĠWork":4889,"Ġprote":4890,"Ġrules":4891,"Ġasked":4892,"ĠResearch":4893,"Ġminim":4894,"spect":4895,"EM":4896,"Ġfix":4897,"Ġappropri":4898,"ĠHealth":4899,"uge":4900,"Ġabsol":4901,"=-":4902,"Ġfilter":4903,"Ġfeed":4904,"}}(\\":4905,"Ġdecay":4906,"ara":4907,"ĠOF":4908,"Ġerrors":4909,"Fe":4910,"Ġproduced":4911,"Ġrights":4912,"SD":4913,"ĠAc":4914,"Ġchosen":4915,"sto":4916,"Ġetc":4917,"Ġpopular":4918,"arams":4919,"isions":4920,"Ġsteps":4921,"open":4922,"Ġsoftware":4923,"Ġsymbol":4924,"Ġrelevant":4925,"Run":4926,"Ġarchitect":4927,"Function":4928,"files":4929,"inite":4930,"ĠAdd":4931,"Ġusually":4932,"Ġsatisfies":4933,"Ġmicro":4934,"Ġfactors":4935,"ĠOut":4936,"Ġ&=&":4937,")_{":4938,"ba":4939,"Ġ\\(":4940,"ĠID":4941,"Ġprotected":4942,"Ġslight":4943,"Ġcorrespond":4944,"'_":4945,"Ġcompanies":4946,"Ġwait":4947,"Ġexamples":4948,"ĠDist":4949,"Ġconnect":4950,"Ġpublished":4951,"Ġfraction":4952,"Ġcalculated":4953,"AME":4954,"ĠDavid":4955,"Instance":4956,"inder":4957,"Ġcommand":4958,"Ġcompute":4959,"iques":4960,"iece":4961,"Ġfire":4962,"term":4963,"Ġinit":4964,"Ġtrying":4965,"oice":4966,"itte":4967,"ĠCour":4968,"61":4969,"eger":4970,"Ġlocated":4971,"mitted":4972,"}$-":4973,"ams":4974,"FA":4975,"Ġcurrently":4976,"Ġmag":4977,"yond":4978,".~(\\":4979,"dx":4980,"Ġlattice":4981,"Ġessential":4982,"ĠHence":4983,"Figure":4984,"iforn":4985,"Ġscreen":4986,"Ġtravel":4987,"Ġconstraints":4988,"otal":4989,"Ġcred":4990,"inner":4991,"Ġexcept":4992,"Ġisn":4993,"args":4994,"Ġ+\\":4995,"Ġquestions":4996,"urrent":4997,"oder":4998,"fs":4999,"Ġcorresponds":5000,"Ġrates":5001,"ĠNULL":5002,"aker":5003,"ĠReturn":5004,"Ġdetection":5005,"Ġveh":5006,"Start":5007,"DB":5008,"board":5009,"wood":5010,"Ġhyper":5011,"ĠGroup":5012,"Off":5013,"Ġensure":5014,"ĠInst":5015,"Ġoffer":5016,"ship":5017,"pack":5018,"ancy":5019,"Ġbal":5020,"iency":5021,"Style":5022,"SO":5023,"tag":5024,"Ġextends":5025,"atically":5026,"Ġsplit":5027,"iers":5028,"simeq":5029,"utive":5030,"roy":5031,"Ġorigin":5032,"{$\\":5033,"300":5034,"tains":5035,"Ġstrategy":5036,"Ġroot":5037,"Ġsituation":5038,"Ġrepresents":5039,"Ġscalar":5040,"Ġbul":5041,"89":5042,"Ġradio":5043,"hest":5044,"Ġblue":5045,"reshold":5046,"izations":5047,"Ġinvolved":5048,"Ġinterpret":5049,"Ġidentity":5050,"Ġmeasurements":5051,"Ġfriend":5052,"oph":5053,"ĠMr":5054,"Ð½":5055,"Ġsomeone":5056,"Gener":5057,"Ġsy":5058,"tri":5059,"Ġplatform":5060,"zero":5061,"Ġexisting":5062,"graph":5063,"Te":5064,"unk":5065,"Ġcatch":5066,"rees":5067,"Nav":5068,"Resource":5069,"Ġgirl":5070,"Ġcampaign":5071,"Ġways":5072,"ĠGod":5073,"Ġscatter":5074,"ĠST":5075,"Ġotherwise":5076,"Ġmanagement":5077,"ĠObject":5078,"Ġmeet":5079,"Ġpolice":5080,"ĠDr":5081,"Action":5082,"ibly":5083,"Ġlost":5084,"ifornia":5085,"$^{-":5086,"ĠSen":5087,"YPE":5088,"PT":5089,"abilities":5090,"aur":5091,"~~~~":5092,"Ġcorrelation":5093,"gorithms":5094,"Ġ+=":5095,"Const":5096,"stitute":5097,"!!":5098,"'ll":5099,"urthermore":5100,"Ġchalleng":5101,"subsubsection":5102,"Rem":5103,"Ġdepends":5104,"Ġgets":5105,"antic":5106,"ades":5107,"rick":5108,"Ġadapt":5109,"parent":5110,"itz":5111,"Ġexperimental":5112,"Ġalthough":5113,"ees":5114,"asons":5115,"Ġ\"\"\"":5116,"olar":5117,"jav":5118,"Ġeverything":5119,"ĠDay":5120,"ĠIndia":5121,"ĠEar":5122,"Ġtransport":5123,"Content":5124,"rows":5125,"acher":5126,")^{\\":5127,"Last":5128,"Ġprocedure":5129,"ias":5130,"Ġearlier":5131,"Ġbasic":5132,"hom":5133,"forall":5134,"Ġsyn":5135,"iences":5136,"lib":5137,"Ġexpand":5138,"Ġcharacters":5139,"ocket":5140,"Ġoverall":5141,"sembly":5142,"ĠSome":5143,"rowser":5144,"lock":5145,"Ġintegral":5146,"cles":5147,"Ġprofile":5148,"Ġcompletely":5149,"ĠGreen":5150,"edu":5151,"pers":5152,"Ġenjoy":5153,"EC":5154,"Ġassumption":5155,"Ġstrength":5156,"Ġdam":5157,"overy":5158,"2021":5159,"ĠSpec":5160,"Ġtensor":5161,"rypt":5162,"ulate":5163,"roduction":5164,"den":5165,")^{-":5166,"Ġsil":5167,"ipl":5168,"Ġstraight":5169,"cd":5170,"Ġextract":5171,"Ġangle":5172,"Ġoperations":5173,"ĠBlack":5174,"header":5175,"Ġbeyond":5176,"Ġstudied":5177,"AV":5178,"vider":5179,"Ġextension":5180,"erve":5181,"Options":5182,"bullet":5183,"LASS":5184,"Ġcollect":5185,"Ġappears":5186,"uations":5187,"fit":5188,"Ġdetect":5189,"ĠDirect":5190,"Buffer":5191,"Ġcoefficients":5192,"Sec":5193,"ĠĠĠĠĠĠĠĠĠĠĠĠĊ":5194,"My":5195,"adata":5196,"Label":5197,"ka":5198,"Ġthemselves":5199,"ĠInc":5200,"Ġri":5201,"CS":5202,"Ġpresident":5203,"Box":5204,"Ġvs":5205,"rian":5206,"produ":5207,"system":5208,"bon":5209,"Ġexhib":5210,"isode":5211,"Ġmid":5212,"ĠFe":5213,"Ġign":5214,"ien":5215,"cases":5216,"Link":5217,"Ġgoes":5218,"*/":5219,"ville":5220,"$).":5221,"erver":5222,"ica":5223,"then":5224,"force":5225,"ugin":5226,"Ġdiscussion":5227,"[\"":5228,"Ġpractice":5229,"Ġdual":5230,"Ġminutes":5231,"Ġstructures":5232,"Ġadopt":5233,"ilitary":5234,"Component":5235,"textsc":5236,"Ġrepe":5237,"icrosoft":5238,"Ġsoon":5239,"CR":5240,"Ġdesigned":5241,"ĠWilliam":5242,"ĠMoreover":5243,">>":5244,"Ġsimulation":5245,"ocal":5246,"Ġactual":5247,"Ġspaces":5248,"ĠBritish":5249,"Ġhon":5250,"Ġprimary":5251,"Ġcounter":5252,"rench":5253,"well":5254,"Ġbegan":5255,"ĠRead":5256,"Fl":5257,"ĠChina":5258,"ĠEm":5259,"Ġsn":5260,"Ġformation":5261,"number":5262,"Ġrecomm":5263,"xml":5264,"pg":5265,"Version":5266,"ivil":5267,"Handler":5268,"ico":5269,"ĠPo":5270,"orge":5271,"Ġserver":5272,"Ġaw":5273,"eler":5274,"Ġinequality":5275,"ĠBook":5276,"Ġdistributions":5277,"Ġincreases":5278,"Ġhimself":5279,"omic":5280,"enge":5281,"finished":5282,"Ġcause":5283,"Ġsaf":5284,"Ġbottom":5285,"ĠScience":5286,"Ġfinally":5287,"Hel":5288,"CL":5289,"mem":5290,"94":5291,"rupt":5292,"Ġpatients":5293,"Aut":5294,"Number":5295,"Ġrelationship":5296,"arr":5297,"Ġsignificantly":5298,"Ġcategory":5299,"Ġrev":5300,"uls":5301,"ĠAssoci":5302,"Ġachieve":5303,"ĠRepublic":5304,"Ġagreement":5305,"Ġlatter":5306,"ĠPaul":5307,"Ġvertices":5308,"Ġthroughout":5309,"navbar":5310,"Ġcontrast":5311,"pass":5312,"Ġproduce":5313,"Ġlack":5314,"hesis":5315,"Ġextended":5316,"Ġwanted":5317,"json":5318,"ĠCollege":5319,"estern":5320,"ometimes":5321,"86":5322,"Factory":5323,"Ġvict":5324,"ogene":5325,"etime":5326,"py":5327,"Point":5328,"Ġsaw":5329,"description":5330,")_":5331,"property":5332,"Check":5333,"^{+":5334,"Ġplot":5335,"Ġedges":5336,"rab":5337,"Ġlargest":5338,"Ġauto":5339,"ĠTechn":5340,"Ġled":5341,"Ġaffect":5342,"Ġsort":5343,"NA":5344,"Ġfair":5345,"Ġhighly":5346,"Ġenh":5347,"Ġdependence":5348,"Ġinvariant":5349,"72":5350,"Do":5351,"Ġwind":5352,"Co":5353,"1999":5354,"obj":5355,"Ġexception":5356,"ptr":5357,"~$\\":5358,"ida":5359,"Ġgenerate":5360,"adow":5361,"Ġforms":5362,"Ġhoriz":5363,"Ġnamed":5364,"Ġsurpr":5365,"len":5366,"ĠDepartment":5367,"Ġnone":5368,"ederal":5369,"neg":5370,"ĠStreet":5371,"erg":5372,"Ġformat":5373,"matrix":5374,"Ġleaders":5375,"Ġquery":5376,"Ġworth":5377,"ilib":5378,"\"]":5379,"Arg":5380,"Sim":5381,"ĠCO":5382,"haps":5383,"Ġanti":5384,"SM":5385,"ppose":5386,"sur":5387,"Ġprice":5388,"Ġplaying":5389,"anger":5390,"iant":5391,"Ġentry":5392,"Ġstay":5393,"Ġdisk":5394,"See":5395,"Ġmeaning":5396,"$$\\":5397,"ya":5398,"Ġcompare":5399,"93":5400,"ĠNone":5401,"refere":5402,"Ġwoman":5403,"Ġpartition":5404,"pid":5405,"ĠGoogle":5406,"Ġclearly":5407,"asure":5408,"src":5409,"Ġ;":5410,"show":5411,"ingu":5412,"Ġspectra":5413,"project":5414,"win":5415,"Ġintroduce":5416,"btn":5417,"ÑĢ":5418,"gest":5419,"ĠEv":5420,"Ġpull":5421,"Ġinj":5422,"Ġreduce":5423,"These":5424,"Ġcomputed":5425,"84":5426,"Ġcurves":5427,"rote":5428,"Ġvirtual":5429,"Ġexam":5430,"ĠPost":5431,"ĠTHE":5432,"RA":5433,"endix":5434,"GB":5435,"ria":5436,"Ġpropag":5437,"Ġ{@":5438,"Ġconserv":5439,"ĠEast":5440,"imple":5441,"}^*":5442,"Ġgreater":5443,"vex":5444,"icip":5445,"oundation":5446,")}{\\":5447,"Ġmis":5448,"Ġneighbor":5449,"Ġdead":5450,"Ġqual":5451,"uit":5452,"cr":5453,"Ġquas":5454,"True":5455,"Ġmodes":5456,"Ġprogress":5457,"Ġsampl":5458,"Ġfa":5459,"iral":5460,"odot":5461,"vention":5462,"Ġimag":5463,"Ġbelong":5464,"lands":5465,"Window":5466,"alysis":5467,"Ġactivity":5468,"Ġwide":5469,"Ġjo":5470,"sign":5471,"........":5472,"pat":5473,"VER":5474,"img":5475,"iring":5476,"Ġcorrel":5477,"bed":5478,"ĠMor":5479,"Default":5480,"PP":5481,"olve":5482,"Ġanim":5483,"Ġcool":5484,"ĠCalifornia":5485,"rot":5486,"Ġthrows":5487,"Ġbeaut":5488,"ĠOther":5489,"Ġdenotes":5490,"Ġreveal":5491,"Ġexistence":5492,"Ġ=\\":5493,"rect":5494,"Ġprofession":5495,"Ġgenerally":5496,")\\\\":5497,"Ġeveryone":5498,"BS":5499,"igger":5500,"Ġestimated":5501,"arant":5502,"rd":5503,"Ġult":5504,"}}^":5505,"Load":5506,"Ġliving":5507,"ros":5508,"close":5509,"aven":5510,"});":5511,"Ġapproaches":5512,"mc":5513,"prob":5514,"rial":5515,"Ġappropriate":5516,"OW":5517,"ĠAustralia":5518,"ABLE":5519,"Ġobvious":5520,"Ġarbitrary":5521,"Ġestablished":5522,"ĠPal":5523,"Ġreading":5524,"92":5525,"ini":5526,"status":5527,"Ġmut":5528,"Ġarguments":5529,"ifact":5530,"reedom":5531,"Ġfavor":5532,"INT":5533,"Ġalgorithms":5534,"Ġcard":5535,"find":5536,"Ġchem":5537,"Met":5538,"inn":5539,"itch":5540,"Ġleave":5541,"Ġshowed":5542,"po":5543,"Ġcele":5544,"Ġcompl":5545,"CA":5546,"ĠSur":5547,"Ġdepth":5548,"ĠPre":5549,"uster":5550,"FI":5551,"Ġefficient":5552,"ORT":5553,"Ġresources":5554,"Ġnames":5555,"})$.":5556,"Ġinternational":5557,"omin":5558,"Ġbinary":5559,"multi":5560,"ĠFl":5561,"Ġque":5562,"ignment":5563,"Thus":5564,"ãĥ":5565,"ĠPM":5566,"Ġspecies":5567,"Ġability":5568,"essages":5569,"Ġcontaining":5570,"ĠArm":5571,"Ġoffice":5572,"ua":5573,"Ġcareer":5574,"Ġmole":5575,"TT":5576,"Ġreli":5577,"1000":5578,"erred":5579,"Ġfiles":5580,"$~":5581,"ishes":5582,"Can":5583,"Ġacqu":5584,"mt":5585,"arter":5586,"Ġtrain":5587,"Ġinteger":5588,"ĠAlso":5589,"edia":5590,"Ġstellar":5591,"Ġpretty":5592,"unfinished":5593,"Ġcru":5594,"Ġinner":5595,"nother":5596,"Ġvisual":5597,"cknow":5598,"Ġfollowed":5599,"Ġdou":5600,"bold":5601,"pmatrix":5602,"last":5603,"Ġgiving":5604,"1998":5605,"Ġmargin":5606,"Ġhistor":5607,"Ġpreviously":5608,"else":5609,"Ġinteractions":5610,")$-":5611,"lick":5612,"ifically":5613,"Ġmentioned":5614,"ervices":5615,"ittee":5616,"Ġtrac":5617,"Ġ((":5618,"anged":5619,"acebook":5620,"agraph":5621,"Ġorb":5622,"Ġidentified":5623,"PA":5624,"ĠEuropean":5625,"Ġconcent":5626,"Ġjud":5627,"Ġincreased":5628,"Ġreturns":5629,"Ġcombination":5630,"Ġfriends":5631,"Ġgeneration":5632,"Ġestimates":5633,"Ġnovel":5634,"ĠGeneral":5635,"vector":5636,"ĠTime":5637,"76":5638,"Ġscore":5639,"ĠReview":5640,"SL":5641,"Command":5642,"Ġremove":5643,"DA":5644,"while":5645,"push":5646,"Ġsymmetric":5647,"Equals":5648,"Ġwrong":5649,"Row":5650,"real":5651,"Char":5652,"Ġspatial":5653,"unit":5654,"ategories":5655,"Ġlatest":5656,"Ġsingular":5657,"rium":5658,"ĠPublic":5659,"rought":5660,"hips":5661,"Em":5662,"Ġutil":5663,"Ġ$$":5664,"ĠProgram":5665,"mapsto":5666,"Ġweb":5667,"alg":5668,"Ġauthors":5669,"Ã¡":5670,"Ġparticularly":5671,"newcommand":5672,"Ġrock":5673,"Ġunits":5674,"Back":5675,"Ġpure":5676,"Ġmovie":5677,"Ġstaff":5678,"ĠMat":5679,"Ġsquare":5680,"Ġstrict":5681,"Ġtheore":5682,"rat":5683,"Return":5684,"400":5685,"raz":5686,"war":5687,"ilies":5688,"FONT":5689,"ĠBay":5690,"faces":5691,"Tag":5692,"${":5693,"service":5694,"signed":5695,"Ġpairs":5696,"Ġmoving":5697,"Ġnearly":5698,"amental":5699,"ror":5700,"remark":5701,"82":5702,"Ġstable":5703,"Ġcalc":5704,"sole":5705,"MB":5706,"ĠJames":5707,"Ġmeasurement":5708,"conf":5709,"Ġadvant":5710,"format":5711,"She":5712,"Ġtag":5713,"rig":5714,"Ġexc":5715,"super":5716,"opic":5717,"ki":5718,"ĠAnt":5719,"cons":5720,"Ġexcit":5721,"Âł":5722,"([":5723,"Theorem":5724,"oded":5725,"acter":5726,"Dep":5727,"ls":5728,"break":5729,"Ġelectric":5730,"ĠCouncil":5731,"private":5732,"Ġthreat":5733,"Ġvariety":5734,"ferent":5735,"final":5736,"composition":5737,"Ġtechniques":5738,"Ġmodern":5739,"Ġmother":5740,"NR":5741,"ĠDon":5742,"oz":5743,"mut":5744,"---":5745,"ampions":5746,"hbox":5747,"Ġstore":5748,"aterial":5749,"dro":5750,"erved":5751,"Ġtransl":5752,"grad":5753,"hbar":5754,"ĠEX":5755,"Ġyields":5756,"ashington":5757,"Ġbur":5758,"mic":5759,"?âĢĿ":5760,"cf":5761,"Ġfem":5762,"ĠCE":5763,"Ġten":5764,"isher":5765,"ĠÃ":5766,"Filter":5767,"gn":5768,"agonal":5769,"Ġmachine":5770,"Ġtransformation":5771,"mass":5772,"91":5773,"Ġannounced":5774,"///":5775,"ĠSte":5776,"ett":5777,"UI":5778,"output":5779,"Ġtro":5780,"ĠEnd":5781,"_-":5782,"float":5783,"Ġabsor":5784,"Ġharm":5785,"Ñģ":5786,"Ġ${":5787,"Ġsurv":5788,"Rel":5789,"Ġeducation":5790,"ĠType":5791,"'}":5792,"Max":5793,"gent":5794,"Ġcomputer":5795,"hal":5796,"riday":5797,"Ġchanged":5798,"\\_":5799,"ontal":5800,"blue":5801,"ART":5802,"Page":5803,"uman":5804,"hol":5805,"van":5806,"weight":5807,"Ġidentify":5808,"Ġcontributions":5809,"ĠMal":5810,"Ġring":5811,"Case":5812,"she":5813,"Ġbrand":5814,"LP":5815,"Ġaspect":5816,"Ġswitch":5817,"after":5818,"Ġtal":5819,"SON":5820,"Ġasympt":5821,"Ġanalog":5822,"rivacy":5823,"Ġgave":5824,"displaystyle":5825,"Ġquad":5826,"Ġboard":5827,"omorphic":5828,"Ġmasses":5829,"Ġpm":5830,"IO":5831,"ĠThom":5832,"esh":5833,"eks":5834,"ĠAre":5835,"SA":5836,"Ġoptical":5837,"vari":5838,"seud":5839,"Us":5840,"Ġexternal":5841,"Ġcourt":5842,"endif":5843,"ĠSuper":5844,"Ġcountries":5845,"Ġinsp":5846,"Child":5847,"Ġanswer":5848,"aser":5849,"Ġloop":5850,"annels":5851,"References":5852,"Ġflat":5853,"Ġfine":5854,"Ġempty":5855,"Ġfinancial":5856,"CK":5857,"meta":5858,"ĠJack":5859,"ĠDi":5860,"Ġonto":5861,"aching":5862,"Ġclean":5863,"ĠPort":5864,"update":5865,"Ġrecall":5866,"ATION":5867,"Ġdro":5868,"ĠGaussian":5869,"83":5870,"Go":5871,"ifies":5872,"Ġgalaxy":5873,"Ġimmediately":5874,"make":5875,"ĠOpen":5876,"\\|_{":5877,"ĠRE":5878,"Ġwrote":5879,"Ġconsists":5880,"ĠMichael":5881,"istance":5882,"anges":5883,"ĠMet":5884,"expected":5885,"kit":5886,"DT":5887,"Ġnav":5888,"ĠYour":5889,"Ġfather":5890,"Ġmatrices":5891,"Create":5892,"Ġsaying":5893,"'(":5894,"bas":5895,"\\{\\":5896,"sect":5897,"sd":5898,"acement":5899,"\"),":5900,"Ġodd":5901,"Ġreturned":5902,"Ġdistributed":5903,"Ġsold":5904,"Ġdise":5905,"Ġtrade":5906,"BA":5907,"ĠGL":5908,"_.":5909,"ĠAtt":5910,"ĠEqu":5911,"Ġcomments":5912,"useum":5913,"proposition":5914,"ufact":5915,"Ġinde":5916,"udes":5917,"Ġslightly":5918,"orter":5919,"ĠHall":5920,"Listener":5921,"icity":5922,"ago":5923,"rie":5924,"Ġdoc":5925,"Ġtour":5926,"ĠHamiltonian":5927,"unn":5928,"ĠKe":5929,"Ġobserve":5930,"scill":5931,"ĠĠĠĠĠĠĠĠĠĠĠĠĠĠĠĠĠĠĠĠĠĠĠĠĠĠĠĠĠĠĠĠĠĠĠ":5932,"Ġhandle":5933,"Ġheavy":5934,"Ð¾Ð":5935,"}}^{":5936,"Ġclub":5937,"ĠFil":5938,"support":5939,"Ġassumed":5940,"Ġvill":5941,"Ġruns":5942,"ech":5943,"Ġscattering":5944,"Ġdetail":5945,"$;":5946,"Ġdrop":5947,"ĠDan":5948,"74":5949,"Right":5950,"ĠAM":5951,"Ġcoordinates":5952,"Ġmaintain":5953,"Ġoffset":5954,"Ġimplementation":5955,"79":5956,"Ġbooks":5957,"ih":5958,"Ġworked":5959,"&=&":5960,"riz":5961,"otion":5962,"Ġitems":5963,"params":5964,"While":5965,"Ġpurpose":5966,"Ġcouple":5967,"Output":5968,"Ġcomputation":5969,"ribe":5970,"construct":5971,"arc":5972,"Ġunderstanding":5973,"ĠRich":5974,"Ne":5975,"Ġeight":5976,"ĠOver":5977,"Ġpix":5978,"ĠDec":5979,"Ġextrem":5980,"Ġsegment":5981,"Format":5982,"hy":5983,"Ġmeasures":5984,"Ġsend":5985,"73":5986,"Ġprep":5987,"ql":5988,"filter":5989,"Ġmeeting":5990,"notation":5991,"Ġson":5992,"Ġrelatively":5993,"ĠService":5994,"response":5995,"ĠIndian":5996,"obert":5997,"ĠMac":5998,"Ġagent":5999,"PL":6000,"Ġâ":6001,"Ġbright":6002,"PRO":6003,"Ġreson":6004,"ospital":6005,"Ġcast":6006,"amely":6007,"cat":6008,"ponential":6009,"Ġmiddle":6010,"Ġincor":6011,"|_{":6012,"Ġdetailed":6013,"istical":6014,"Ġaxis":6015,"actor":6016,"Ġclassification":6017,"Ġthick":6018,"reme":6019,"oting":6020,"Ġsubst":6021,"ĠChe":6022,"Ġpen":6023,"Ġbehavi":6024,"./":6025,"Ġdistinct":6026,"Ġgreen":6027,"irit":6028,"Ġremaining":6029,"ĠCourt":6030,"olved":6031,"ifferent":6032,"Hz":6033,"Ġadminist":6034,"ĠLog":6035,"itution":6036,"Ġlives":6037,"results":6038,"Ġassess":6039,"Ġexpert":6040,"tree":6041,"Ġmassive":6042,"airs":6043,"Ġactions":6044,"step":6045,"Ġkin":6046,"Ġliterature":6047,"(&":6048,"picture":6049,"vest":6050,"Ġwasn":6051,")},":6052,"Ġhighest":6053,"ologies":6054,"NE":6055,"ascript":6056,"otted":6057,"ĠCanada":6058,"BU":6059,"Ġvectors":6060,"std":6061,"Controller":6062,"Ġsatisfy":6063,"Min":6064,"osite":6065,"eles":6066,"FR":6067,"Ġwonder":6068,"ilibrium":6069,"SH":6070,"urt":6071,"Ġdifferential":6072,"Ġhole":6073,"Ġshowing":6074,"ĠBel":6075,"Ġreflect":6076,"Ġinterview":6077,"ĠBre":6078,"iller":6079,"Ġregist":6080,"ĉĉĊ":6081,"PO":6082,"FO":6083,"des":6084,"ĠPlan":6085,"ĠInstitute":6086,"IST":6087,"hedul":6088,"Ġserious":6089,"Ġjoint":6090,"iverse":6091,"Ġanyone":6092,"dy":6093,"Ġturned":6094,"Ġformal":6095,"ĠWhite":6096,"Ġorient":6097,"DD":6098,"Ġoscill":6099,"ĠLeg":6100,"ĠSing":6101,"Ġpassed":6102,"Ġbuy":6103,"Web":6104,"Ġbirth":6105,"ERR":6106,"Ġter":6107,"ĠBen":6108,"gr":6109,"Ġut":6110,"ĠMart":6111,"ĠMusic":6112,"allet":6113,"\").":6114,"Ġconvergence":6115,"Ġtasks":6116,"}{|":6117,"henomen":6118,"Ġregime":6119,"ĠRob":6120,"Ġparallel":6121,"ĠRel":6122,"FL":6123,"room":6124,"ynamic":6125,"Tem":6126,"Ġreceive":6127,"Ġsec":6128,"Ġthreshold":6129,"Vis":6130,"Ġscene":6131,"Ġlegal":6132,"Ġscient":6133,"Ġgrid":6134,"Ġremain":6135,"ĠEach":6136,"ĠNS":6137,"Ġscience":6138,"Ġbeginning":6139,"Length":6140,"mas":6141,"81":6142,"Ġhypot":6143,"fully":6144,"etails":6145,"scope":6146,"Ġfootball":6147,"IA":6148,"Ġoffers":6149,"CON":6150,"ĠAnn":6151,"Ġdifferences":6152,"Ġamplitude":6153,"71":6154,"ani":6155,"Ġdemand":6156,"ocation":6157,"Ġpow":6158,"ĠHREF":6159,"Ġhel":6160,"Ġlooks":6161,"idents":6162,"bi":6163,"anned":6164,"leep":6165,")+\\":6166,"ulture":6167,"author":6168,"Column":6169,"entry":6170,"container":6171,"Ġpartial":6172,"hent":6173,"Ġprevent":6174,"Ġideal":6175,"}&":6176,"quare":6177,"Ġintegr":6178,"ĠSund":6179,"ston":6180,"Ġshared":6181,"Ġdepart":6182,"Ġnucle":6183,"ĠCLASS":6184,"ĠEngland":6185,"Ġstrongly":6186,"Ġunivers":6187,"Ġmorph":6188,"ĠMag":6189,"ĠArch":6190,"xx":6191,"RL":6192,"Ġgap":6193,"Ġconsidering":6194,"Ġrace":6195,"Ġborn":6196,"uminos":6197,"Ġsubsequ":6198,"NO":6199,"ipage":6200,"TO":6201,"Ġdevices":6202,"oyal":6203,"Ġcommunication":6204,"Ġcontroll":6205,"kin":6206,"Ġreduction":6207,"Ġquickly":6208,"COL":6209,"bel":6210,"ĠRuss":6211,"atalog":6212,"ĠLicense":6213,"ental":6214,"Valid":6215,"Level":6216,"ryst":6217,"pa":6218,"Ġfont":6219,"remove":6220,"Ġguarant":6221,"Ġinterested":6222,"ĠWed":6223,"thon":6224,"HS":6225,"Ġcook":6226,"second":6227,"Ġprediction":6228,"minipage":6229,"onical":6230,"ĉĠĠĠ":6231,"IB":6232,"ĠWashington":6233,"models":6234,"ttp":6235,"Ġproviding":6236,"KE":6237,"Ġspeak":6238,"Ġculture":6239,"ĠVol":6240,"Ġamb":6241,"Ġpiece":6242,"ether":6243,"}}$,":6244,"lap":6245,"Ġcarry":6246,"ester":6247,"vol":6248,"Pe":6249,"GC":6250,"Ġbrief":6251,"oving":6252,"clear":6253,"Ġener":6254,"icate":6255,"Cor":6256,"Ġdigital":6257,"}$)":6258,"even":6259,"bour":6260,")}_{":6261,"attr":6262,"Ġtypical":6263,"ructure":6264,"mma":6265,"Ġbranch":6266,"Top":6267,"Address":6268,"lig":6269,"ounds":6270,"ymmetric":6271,"instance":6272,"}}$.":6273,"})$,":6274,"Ġvary":6275,"Direct":6276,"Ġtor":6277,"ĠForm":6278,"Mon":6279,"Ġcalculations":6280,"efined":6281,"Ġshock":6282,"Ġrepresented":6283,"[(":6284,"tik":6285,"Ġprotect":6286,"aturday":6287,"abil":6288,"ĠLeague":6289,"Ġcombined":6290,"Ġtempor":6291,"Ġmagnitude":6292,"Ġdrive":6293,"estival":6294,"Ġobservation":6295,"contin":6296,"ĠAlex":6297,"Mem":6298,"Ġdevi":6299,"menu":6300,"cong":6301,"$),":6302,"df":6303,"MR":6304,"Ġdu":6305,"cope":6306,"gan":6307,"1997":6308,"ĠUsing":6309,"ĠFrench":6310,"control":6311,"Ġweeks":6312,"Ġnet":6313,"ĠCong":6314,"Ġurl":6315,"Ġindicates":6316,"They":6317,"Task":6318,")-\\":6319,"Ġemail":6320,"sey":6321,"Ġtraditional":6322,"related":6323,"External":6324,"}({\\":6325,"Ġtesting":6326,"aud":6327,"tool":6328,"ĠFacebook":6329,"ĠJul":6330,"Ġstories":6331,"Ġnotice":6332,"'d":6333,"Ġchance":6334,"ĠHig":6335,"Bo":6336,"Introduction":6337,"velopment":6338,"Ġlayers":6339,"ĠNetwork":6340,"Ġangular":6341,"Ġsector":6342,"Ġpurch":6343,"Ġconclude":6344,"itivity":6345,"Ġinduced":6346,"Ġcalculation":6347,"rane":6348,"Ġcircle":6349,"Ġbrought":6350,"Ġmus":6351,"itory":6352,"Ġfailed":6353,"ĠWeb":6354,"Ġdimensions":6355,"Sche":6356,"Ġexchange":6357,"Ġfluct":6358,"Ġprocessing":6359,"Ġplease":6360,"BO":6361,"Ġsettings":6362,"Ġoptimization":6363,"layout":6364,"ollowing":6365,"za":6366,"ĠPress":6367,"high":6368,"Using":6369,"Ġpicture":6370,"udget":6371,"Ġredshift":6372,"mi":6373,"ĠFin":6374,"ĠTom":6375,":}":6376,"Ġ{}":6377,"rb":6378,"ME":6379,"ĠPeople":6380,"Ġexpressed":6381,"ĠScott":6382,"Ġfamilies":6383,"rive":6384,"tax":6385,"ĠBer":6386,"Work":6387,"Ġnotation":6388,"Mode":6389,"condition":6390,"ĠAut":6391,"Ġminimal":6392,"uting":6393,"-$":6394,"ĠBusiness":6395,"sche":6396,"Finally":6397,"Ġfunctional":6398,"Ġcriter":6399,"Ġow":6400,"prototype":6401,"plicit":6402,"').":6403,"SR":6404,"********************************":6405,"ĠFriday":6406,"Ġlif":6407,"Dec":6408,"Dat":6409,"Ġgrant":6410,"Ġcentury":6411,"ĠModel":6412,"ogeneous":6413,"ald":6414,"eness":6415,"ano":6416,"Ġfundamental":6417,"Ġsites":6418,"Ġpoor":6419,"ĠYear":6420,"Ġopportunity":6421,"Ġpark":6422,"ACK":6423,"Section":6424,"Ġusual":6425,"1996":6426,"ao":6427,"Ġproved":6428,"Ġwid":6429,"riptor":6430,"Ġtests":6431,"ĠQue":6432,"Ġstudent":6433,"rey":6434,"Ġ$.":6435,"elli":6436,"Ġaward":6437,"del":6438,"dec":6439,"weet":6440,"Ġgradient":6441,"Ġinfluence":6442,"Update":6443,"ellig":6444,"DP":6445,"Ġ\\!":6446,"ĠDemocr":6447,"ĠSam":6448,"Ġ[]":6449,"))$":6450,"Ġhydro":6451,"Ġheat":6452,"gin":6453,"apers":6454,"Ġreports":6455,"ariance":6456,"Ġbank":6457,"defined":6458,"ĠFinally":6459,"Cache":6460,"forms":6461,"Ġple":6462,"Ġ$|\\":6463,"150":6464,"tikz":6465,"Ġkernel":6466,"Ġprojects":6467,"Ġcloud":6468,"Ø§":6469,"Ġproport":6470,"cuss":6471,"forward":6472,"âĢĿ.":6473,"ĠEduc":6474,"ĠUnder":6475,"Ġcycle":6476,"Ġbounds":6477,"Ġmilitary":6478,"olf":6479,"Ġcosts":6480,"Ġbeam":6481,"chers":6482,"ĠSU":6483,"car":6484,"ĠStar":6485,"Button":6486,"ĠIsra":6487,"Ġcallback":6488,"Ġindicate":6489,"Ġindeed":6490,"plan":6491,"ĠGold":6492,"URL":6493,"agnetic":6494,"}{(":6495,"Ġforces":6496,"ĠĠĠĠĠĠĠĠĠĠĠĠĠĠĠĠĠĠĠĠĠ":6497,"ette":6498,"Ġcop":6499,"sets":6500,"Ġapproximately":6501,"Ġclusters":6502,"<?":6503,"ĠSum":6504,"Ġthank":6505,"kl":6506,"inger":6507,"images":6508,"Ġvoice":6509,"Ġdirector":6510,"Select":6511,"Ġsometimes":6512,"greg":6513,"Ġtheoretical":6514,"Ġhands":6515,"exec":6516,"ads":6517,"Ġfans":6518,"ĠPhil":6519,"ita":6520,"frame":6521,"lesssim":6522,"Ġefficiency":6523,"Ġagree":6524,",$":6525,"cale":6526,"Therefore":6527,"Ġrotation":6528,"Ġpan":6529,"bigl":6530,"ĠBig":6531,"rank":6532,"ĠHel":6533,"DS":6534,"MO":6535,"pir":6536,"Target":6537,"Ġphenomen":6538,"reference":6539,"Ġrise":6540,"formed":6541,"iful":6542,"mode":6543,"Ġgovern":6544,"javascript":6545,"Ġmedical":6546,"Ġalternative":6547,"Ġuncertainty":6548,"rames":6549,"Mar":6550,"Ġfelt":6551,"Ġcapital":6552,"ander":6553,"Ġlimits":6554,"chron":6555,"Access":6556,"Ġscenario":6557,"Ġbr":6558,"pload":6559,"house":6560,"two":6561,"ĠFoundation":6562,"ona":6563,"ĠRoad":6564,"Ġalt":6565,"Ġcapacity":6566,"Ġ>>":6567,"typ":6568,"Ġsafety":6569,"aylor":6570,"Ġroll":6571,"ĠProject":6572,"Ġsections":6573,"Ġscales":6574,"Ġprograms":6575,"(_":6576,"lies":6577,"ponents":6578,"common":6579,"inity":6580,"Ġhappen":6581,"aughter":6582,"Ġrapid":6583,"Ġmoved":6584,"Ġestablish":6585,"Types":6586,"Ġ<!--":6587,"Ġready":6588,"undred":6589,"Ġseparate":6590,"Ġabsolute":6591,"ena":6592,"Ġneutr":6593,"Ġplans":6594,"mann":6595,"Ġdatabase":6596,"ĠBest":6597,"Ġthermal":6598,"Ġrelig":6599,"ifications":6600,"etch":6601,"Ġvote":6602,"Ġspread":6603,"RT":6604,"asy":6605,"Ġpoly":6606,"exas":6607,"Ġsave":6608,"ĠNov":6609,"ashion":6610,"obs":6611,"FC":6612,"Provider":6613,"Ġnorth":6614,"\\;":6615,"afe":6616,"parameter":6617,"Ġalone":6618,"Layout":6619,"```":6620,"should":6621,"Ġgradu":6622,"Ġsession":6623,"Ġtruth":6624,"lines":6625,"ĠRad":6626,"ĠGal":6627,"ĠArray":6628,"Ġformed":6629,"ĠÂ£":6630,"Ġbus":6631,"Ġthread":6632,"Ġfreedom":6633,"Ġcandidate":6634,"cccc":6635,"Ġfrag":6636,"Ġseven":6637,"Ġshot":6638,"Ġremoved":6639,"itation":6640,"bigr":6641,"Ġtypically":6642,"returns":6643,"Ġeyes":6644,"poses":6645,"writ":6646,"Ġcalls":6647,"Ġsolve":6648,"Ġcaused":6649,"Ġmissing":6650,"$_{":6651,"Server":6652,"Ġtrust":6653,"inese":6654,"hot":6655,"levision":6656,"uted":6657,"ura":6658,"itar":6659,"Ġtrend":6660,"^*$":6661,"Ġhar":6662,",\\,\\":6663,"Ġevaluation":6664,"Ġsurvey":6665,"Ġcov":6666,"Ġprotocol":6667,"Ġ\\&":6668,"Ġfinding":6669,"ĠSy":6670,"Ġcomplexity":6671,"hold":6672,"Ġpartners":6673,"gies":6674,"Ġeconomic":6675,"ĠDE":6676,"ĠDel":6677,"Ġ!==":6678,"Ass":6679,"zer":6680,"ĠCall":6681,"Po":6682,"icated":6683,"Ġheard":6684,"ĠAlthough":6685,"ĠSun":6686,"Ġ^":6687,"Parameter":6688,"ira":6689,"Ġbuffer":6690,"IGN":6691,"Ġtrained":6692,"cknowled":6693,"++)":6694,"Ġscaling":6695,"ursday":6696,"Ġcalculate":6697,"such":6698,"DM":6699,"Ġnuclear":6700,"Ġconstructed":6701,"Ã³":6702,"Ġconvert":6703,"prec":6704,"vere":6705,"bal":6706,"Ġdecided":6707,"Ġpush":6708,"Ġattract":6709,"root":6710,"require":6711,"Ġcontained":6712,"Ġproceed":6713,"dr":6714,"DR":6715,"ĠWil":6716,"ĠMem":6717,"Ġstack":6718,"ĠShow":6719,"clusions":6720,"Ġnoted":6721,"oom":6722,"Ġenter":6723,"||":6724,"Ġmorning":6725,"Ġparents":6726,"Ġcelebr":6727,"ĠEven":6728,"ĠMus":6729,"Ġinfinite":6730,"Ġsummer":6731,"floor":6732,"Ġsurround":6733,"Ġcomposition":6734,"120":6735,"eck":6736,"match":6737,"clusive":6738,"Ġadding":6739,"ilarly":6740,"enty":6741,"ĠBuild":6742,"ĠAssociation":6743,"Ġacceler":6744,"Ġlock":6745,"Ġ[\\":6746,"ĠIS":6747,"Gu":6748,"Ġtouch":6749,"nn":6750,"phys":6751,"Ġsolar":6752,"Ġscope":6753,"card":6754,"osh":6755,"ĠMo":6756,"Ġdepending":6757,"Ġsecret":6758,"Ġcollabor":6759,"DC":6760,"Ġgrowing":6761,"Ġteams":6762,"dem":6763,"ĠMost":6764,"ĠSunday":6765,"PU":6766,"Ġunknown":6767,"Ġachieved":6768,"flu":6769,"yr":6770,"Ġfloat":6771,"Ġdust":6772,"ĠAPI":6773,"Ġgraphs":6774,",\\\\":6775,"Gl":6776,"Ġtools":6777,"uum":6778,"Ġactivities":6779,"Ġrobust":6780,"]}":6781,"Ġgeometry":6782,"ĠFurthermore":6783,"Ġmanufact":6784,"Ġepisode":6785,"ĠÎ":6786,"opyright":6787,"ĠChurch":6788,"ĉĉĉĉĉĉĉ":6789,"QL":6790,"drop":6791,"Ġbillion":6792,"Ġadvantage":6793,"outhern":6794,"Script":6795,"Ġhuge":6796,"Tra":6797,":</":6798,"onald":6799,"}})":6800,"Dev":6801,"ibr":6802,"Ġtraject":6803,"Ġexponential":6804,"Ġreached":6805,"Ġdiscrete":6806,"ĠFile":6807,"stable":6808,"cript":6809,"Url":6810,"########":6811,"âĢĺ":6812,"Ġwild":6813,"edy":6814,"ĠGeorge":6815,"ĠMer":6816,"Ġsal":6817,"WE":6818,"Ġcoefficient":6819,"Ġ**":6820,"Entry":6821,"Ġhop":6822,"bool":6823,"Ġhidden":6824,"Bundle":6825,"ounce":6826,"cular":6827,"iling":6828,"Ġoccup":6829,"elled":6830,"Ġconj":6831,"irmed":6832,"$:":6833,"Ġss":6834,"Ġsemi":6835,"Ġlooked":6836,"Ġoccurs":6837,"offset":6838,"Ġion":6839,"cial":6840,"Ġquark":6841,"parse":6842,"ĠUSA":6843,"Ġphone":6844,"Ġhear":6845,"Local":6846,"vs":6847,"Ġplaces":6848,"Ġpositions":6849,"Ġhous":6850,"Ġreasons":6851,"cref":6852,"Ġknew":6853,"Ġentropy":6854,"Ġplant":6855,"Ġdied":6856,"Write":6857,"Mult":6858,"Width":6859,"Ġargs":6860,"Stat":6861,"Ġobj":6862,"DL":6863,"oma":6864,"Ġstress":6865,"ults":6866,"Ġadjust":6867,"Tree":6868,"ruck":6869,"Ġur":6870,"Ġphysics":6871,"Ġdynamic":6872,"ĠTwitter":6873,"Open":6874,"Ġsatisfying":6875,"istent":6876,"ĠCheck":6877,"Ġluminos":6878,"ĠSaturday":6879,"ĠAfrica":6880,"herent":6881,"Exec":6882,"Ġtemplate":6883,"Ġsouth":6884,"Ġeq":6885,"Ġarchitecture":6886,"ipal":6887,"Ġwants":6888,"Ġlemma":6889,"fa":6890,"Ġvertical":6891,"uesday":6892,"essor":6893,"Ġelection":6894,"GR":6895,"cut":6896,"Non":6897,"ski":6898,"Ġapparent":6899,"Des":6900,"ĠTwo":6901,"Ġconven":6902,"ĠVir":6903,"effect":6904,"plication":6905,"oday":6906,"Cal":6907,"ĠGovernment":6908,"Ġdecomposition":6909,"avel":6910,":=":6911,"Frame":6912,"Car":6913,"okes":6914,"Ġblog":6915,"special":6916,"itions":6917,"Ġencou":6918,"%%":6919,"${\\":6920,"Ġstorage":6921,"iginal":6922,"ĠMethod":6923,"ĠLie":6924,"allow":6925,"Ġintegration":6926,"Ġblocks":6927,"window":6928,"Ġmaterials":6929,"loop":6930,"Ġmodified":6931,"1995":6932,"illa":6933,"mediate":6934,"orthern":6935,"Left":6936,"Ġtechnique":6937,"Unit":6938,"ĠMax":6939,"ĠReturns":6940,"going":6941,"Ġdetected":6942,"arse":6943,"Ġpackage":6944,"Ġlen":6945,"ĠSl":6946,"Ġexplained":6947,"ĠĠĠĠĠĠĠĠĠĠĠĠĠĠĠĠĠĠĠĠ":6948,"Ġpowerful":6949,"oration":6950,"ancing":6951,"Ġwaves":6952,"ĠRun":6953,"eds":6954,"direct":6955,"ZE":6956,"ĠOR":6957,"CODE":6958,"ĠProf":6959,"stat":6960,"}\\,\\":6961,"Ġcamera":6962,"ĠRiver":6963,"Ġchannels":6964,"document":6965,"Ġsen":6966,"Ġunderlying":6967,"Ġjournal":6968,"Ġevaluate":6969,"'),":6970,"Ġsomew":6971,"Ġattribute":6972,"Offset":6973,"ĠEarth":6974,"Americ":6975,"Ġsynt":6976,"El":6977,"Ġschools":6978,"ĠRobert":6979,"Ġkm":6980,"Configuration":6981,"Ġconvex":6982,"CM":6983,"ĠGreat":6984,"Ġdegrees":6985,"ĠMa":6986,"ĠOffice":6987,"Ġferm":6988,"Ġdram":6989,"Ġdelay":6990,"Ġbin":6991,"cp":6992,"Ġsett":6993,"template":6994,"Ġwife":6995,"Ġpi":6996,"Ġmobile":6997,"Ġcoordinate":6998,"Ġeffort":6999,"1990":7000,"dfrac":7001,"ĠUs":7002,"Interface":7003,"pop":7004,"Ġremember":7005,"uint":7006,"Ġdatasets":7007,"ĉĠ":7008,"ĠJew":7009,"ĠSmith":7010,"ĠOper":7011,"ĠLag":7012,"EQ":7013,"Ġdenoted":7014,"aved":7015,"mazon":7016,";\\;\\":7017,"Ġdisp":7018,"Ġdesired":7019,"Ġmapping":7020,"itiz":7021,"isely":7022,"ĠIR":7023,"Ġaccom":7024,"Ap":7025,"Ġthous":7026,"ĠAccording":7027,"Ġdespite":7028,"styles":7029,"Ġspent":7030,"Dir":7031,"]$.":7032,"jo":7033,"hetic":7034,")}}":7035,"Ġweights":7036,"?:":7037,"diff":7038,"nesday":7039,"Ġideas":7040,"Ġmetal":7041,"ĠSal":7042,"Ġblood":7043,"han":7044,"Ġfirm":7045,"NAME":7046,"rapper":7047,"phone":7048,"Ġprojection":7049,"stein":7050,"igration":7051,"ĠHill":7052,"Ġmotiv":7053,"Ġopening":7054,"ws":7055,"ga":7056,"Ġdistrict":7057,"ĠTop":7058,",{\\":7059,"white":7060,"Ġ::":7061,"ĠPet":7062,"mosp":7063,"Results":7064,"Ġcarried":7065,"Ġ\\]":7066,"Ġleader":7067,"ĠFrance":7068,"Ġcontinued":7069,"rics":7070,"lets":7071,"points":7072,"ailed":7073,"classes":7074,"anging":7075,"Ġgun":7076,"Ġsto":7077,"ĠDistrict":7078,"sat":7079,"ĠGr":7080,"Ġplus":7081,"ĠGra":7082,"Ġcm":7083,"ĠFore":7084,"Ġpain":7085,"ALL":7086,"Ġmatching":7087,"Ġplanet":7088,"short":7089,"uous":7090,"hemat":7091,"Ġchallenge":7092,"task":7093,"API":7094,"ĠParty":7095,"ĠLife":7096,"Ġmajority":7097,"Ke":7098,"Ġtick":7099,"Ġraise":7100,"called":7101,"ĠJer":7102,"VAL":7103,"Ġbos":7104,"Ġsales":7105,"Search":7106,"Ġxml":7107,"Ġkilled":7108,"rip":7109,"ĠLou":7110,"Ġgold":7111,"ootst":7112,"awa":7113,"\\}$.":7114,"ĠSk":7115,"Location":7116,"km":7117,"Ġstatistical":7118,"Ġminor":7119,"ĠAssum":7120,"Process":7121,"Ġ{};":7122,"Ġcustomers":7123,"Ġdisease":7124,"fi":7125,"Ġremark":7126,"oriz":7127,"nergy":7128,"iota":7129,"Ġpredicted":7130,"pton":7131,"Are":7132,"Ġmaster":7133,"Ġprinciple":7134,"product":7135,"UM":7136,"Ġuint":7137,"ĠCap":7138,"Ġmovement":7139,"Position":7140,"cis":7141,"Ġshoot":7142,"mathop":7143,"ĠServices":7144,"Ġsun":7145,"phant":7146,"Sch":7147,"Ġextend":7148,"Ġpseud":7149,"Ġirre":7150,"Op":7151,"Ġmostly":7152,"ilation":7153,"sor":7154,"ĠEducation":7155,"initely":7156,"Ġvariation":7157,"Ġrough":7158,"ĠSecond":7159,"formal":7160,"Ġbias":7161,"Ġrelax":7162,"Ġer":7163,"Up":7164,"Ġstability":7165,"Ġorbit":7166,"Ġabund":7167,"Ġstated":7168,"Ġinfo":7169,"Ġfilms":7170,"full":7171,"comput":7172,"Ġmixed":7173,"XX":7174,"look":7175,"plicity":7176,"Ġrepresentations":7177,"Ġdeb":7178,"AND":7179,"ipp":7180,"ĠMad":7181,"Ġcreating":7182,"ĠMedia":7183,"Ġnation":7184,"Ġperhaps":7185,"Ġradiation":7186,"Json":7187,"ications":7188,"Ġmedium":7189,"verb":7190,"Ġteacher":7191,"Current":7192,"porate":7193,"global":7194,"Ġtoken":7195,"ochastic":7196,"Ġsubt":7197,"omy":7198,"}}_{\\":7199,"Ġhundred":7200,"ĠChristian":7201,"angular":7202,"yan":7203,"Long":7204,"dep":7205,"Utils":7206,"longrightarrow":7207,"MT":7208,"Ġcat":7209,"ĠCompany":7210,"}[\\":7211,"ipeline":7212,"Ġunless":7213,"Ġbrother":7214,"ymmetry":7215,"Ġgrand":7216,"rical":7217,"TYPE":7218,"Ġgravit":7219,"ĠCup":7220,"INE":7221,"isted":7222,"oses":7223,"=\"../../../../../":7224,"how":7225,"pective":7226,"Ġlisted":7227,"ĠGener":7228,"Ġrequirements":7229,"Ġmaxim":7230,"Ġestimation":7231,"Ġtoward":7232,"ĠÂ»":7233,"iate":7234,"idel":7235,"sv":7236,"Ġwhereas":7237,"ĠDen":7238,"Ġmur":7239,"acc":7240,"Ġstock":7241,"Ġquarter":7242,"Ġstarts":7243,"IE":7244,"Ġtrip":7245,"Ġsafe":7246,"atible":7247,"Ġinnov":7248,"))\\":7249,"just":7250,"ĠGood":7251,"()->":7252,"Ġresponsible":7253,"buffer":7254,"]);":7255,"Ġcivil":7256,"Ġbutton":7257,"Ġturns":7258,"Ġ^{":7259,"Ġworkers":7260,"utils":7261,"ĠBoard":7262,"axis":7263,"Ġconstants":7264,"Ġimproved":7265,"Mat":7266,"algebra":7267,"Ġaccurate":7268,"Ġindividuals":7269,"itors":7270,"ĠCreate":7271,"ĠIsland":7272,"Enc":7273,"iable":7274,"Definition":7275,"Ident":7276,"ĠĠĠĠĠĠĠĠĠĠĠĠĠĠĠĠĠĠĠĠĠĠĠĠĠĠĠĠĠĠĠĠĠĠĠĠĠĠĠĠĠĠĠĠĠĠĠĠĠĠĠĠĠĠĠĠĠĠĠĠĠĠĠĠ":7277,"})}":7278,"Ġchemical":7279,"iated":7280,"imation":7281,"ĠCamp":7282,"Ġplaced":7283,":\"":7284,"Ġtransp":7285,"Ġdog":7286,"Ġcompleted":7287,"Ġneural":7288,"ĠMiss":7289,"PD":7290,"Control":7291,"ĠMary":7292,"ĠHistory":7293,"ÃŃ":7294,"urations":7295,"ĠJournal":7296,"riend":7297,"ĠRev":7298,"ĠEvery":7299,"ĠBill":7300,"ATA":7301,"Ġsummar":7302,"Ġhappened":7303,"Ġexplicitly":7304,"ĠLand":7305,"Sum":7306,"emptyset":7307,"Mark":7308,"ĠCommission":7309,"Ġisol":7310,"Container":7311,")}_":7312,"Ev":7313,"enses":7314,"road":7315,"Ġjoin":7316,"Ġscript":7317,"sych":7318,"OK":7319,"ĠPy":7320,"ĠCre":7321,"joint":7322,"COLOR":7323,"ĠBrown":7324,"Ġsampling":7325,"]$,":7326,"ĠBecause":7327,"tail":7328,"dule":7329,"Ġreader":7330,"Ġbulk":7331,"ĠâĢ¦":7332,"ĠManagement":7333,"Ġimportance":7334,"Ġmanager":7335,"claim":7336,"ĠBur":7337,"rome":7338,"ĠFlor":7339,"Ġfailure":7340,"Ġinverse":7341,"ĠSociety":7342,"Ġlibrary":7343,"Some":7344,"Ġprofessional":7345,"nections":7346,"vee":7347,"Ġreplaced":7348,"Ġlearned":7349,"ĠTexas":7350,"ĠDirector":7351,"ĠLong":7352,"Ġsufficiently":7353,"Ġrare":7354,"Ġmill":7355,"ĠGerman":7356,"Ġisomorphism":7357,"Font":7358,"Ġsuggests":7359,"scriptsize":7360,"eless":7361,"artifact":7362,"Ġequilibrium":7363,"Ġtend":7364,"ĠMonday":7365,"ĠThursday":7366,"anda":7367,"Ġcharged":7368,"ĠDiv":7369,"ĠZe":7370,"BL":7371,"Ġapplying":7372,"Ġpages":7373,"parison":7374,"Ġexplore":7375,"Ġregarding":7376,"Ġlaunch":7377,"1994":7378,"uzz":7379,"ĠUnion":7380,"Ġpaint":7381,"ĠAssert":7382,"aming":7383,"imer":7384,"law":7385,"Ġsuitable":7386,"La":7387,"ĠChinese":7388,"plot":7389,"Callback":7390,"Ġpredictions":7391,"ensities":7392,"etween":7393,"Ġaware":7394,"rence":7395,"ĠWeek":7396,"Ġmaybe":7397,"}~":7398,"icago":7399,"standing":7400,"Ġletter":7401,"azz":7402,":(":7403,"Ġopin":7404,"ĠTimes":7405,"Entity":7406,"TC":7407,"ĠAppendix":7408,"Ġsmart":7409,"inations":7410,"Ġserved":7411,"Ġclin":7412,"Ġrecords":7413,"stitution":7414,"tw":7415,"____":7416,",...":7417,"PH":7418,"cache":7419,"component":7420,"Ġast":7421,"Ġapart":7422,"chen":7423,"ĠNOT":7424,"tog":7425,"algorithm":7426,"ĠChild":7427,"\\)":7428,"}}.":7429,"Each":7430,"brid":7431,"vature":7432,"128":7433,"azine":7434,"Sign":7435,"Ġwat":7436,">,":7437,"Sm":7438,"actic":7439,"ĠUse":7440,"othing":7441,"Ġcoinc":7442,"Sl":7443,"Ġalign":7444,"ĠTor":7445,"ĠAND":7446,"Ġmodul":7447,"Ġkids":7448,"Ġhappens":7449,"rage":7450,"Ġpool":7451,"TS":7452,"Ġlies":7453,"icies":7454,"phas":7455,"}_{-":7456,"âĢ¢":7457,"Ġmanner":7458,"110":7459,"Ġspot":7460,"ĠExp":7461,"Thread":7462,"Ġorganization":7463,"apes":7464,"Ġbill":7465,"Ġkept":7466,"Ġdoor":7467,"rich":7468,"None":7469,"Description":7470,"Ġrecommend":7471,"itative":7472,"Ġaver":7473,"Ġearn":7474,"aby":7475,"lat":7476,"chor":7477,"Ġeventually":7478,"Ġviews":7479,"Ġconsequence":7480,"$};":7481,"STR":7482,"istor":7483,"Am":7484,"ictionary":7485,"oves":7486,"})=":7487,"Ġplays":7488,"Ġclick":7489,"Range":7490,"Ġcommerc":7491,"jpg":7492,"Ġnamely":7493,"Ġassumptions":7494,"spe":7495,"aren":7496,"ĠCam":7497,"Header":7498,"apped":7499,"ultane":7500,"Ġenergies":7501,"gers":7502,"legal":7503,"Ġvehicle":7504,"ĠInformation":7505,"ko":7506,"cover":7507,"Eng":7508,"Ġchanging":7509,"sear":7510,"Ġbehaviour":7511,"ĠIndeed":7512,"AGE":7513,"ples":7514,"ture":7515,"Module":7516,"pref":7517,"Ġexcell":7518,"Ġlabels":7519,"Ġcomputing":7520,"ingly":7521,"Ġcertainly":7522,"background":7523,"token":7524,"Ġcharacteristic":7525,"Ġopened":7526,"ĠAG":7527,"Serial":7528,"Ġinvestigate":7529,"Ġ{$":7530,"Ġneighborhood":7531,"before":7532,"Ġefforts":7533,"/(":7534,"unities":7535,"ĠAward":7536,"Ġdriving":7537,"BR":7538,"Port":7539,"ployment":7540,"ĠRock":7541,"Ġdistingu":7542,"eller":7543,"atre":7544,"Ġflag":7545,"tml":7546,"Ġ}}":7547,"liament":7548,"ĠSuch":7549,"ootstrap":7550,"Down":7551,"Ġtraffic":7552,"reek":7553,"Height":7554,"ĠDevelopment":7555,"Ġimplemented":7556,"ests":7557,"Settings":7558,"ĠTuesday":7559,"iative":7560,"Ġoil":7561,"ountain":7562,"chain":7563,"tan":7564,"ĠNumber":7565,"ĠSeries":7566,"ading":7567,"Ġpropos":7568,"venue":7569,"ĠClub":7570,"Ġ(\"":7571,"Project":7572,"ĠCentral":7573,"})^":7574,"Any":7575,"Ġwriter":7576,"Ġpossibility":7577,"TV":7578,"resource":7579,"PM":7580,"iance":7581,"HO":7582,"Conn":7583,"Reference":7584,"Ġinstant":7585,"istan":7586,"ĠVis":7587,"ĠĠĠĠĠĠĠĠĠĠĠĠĠĠĠĠĠĠ":7588,"ibration":7589,"ĠVer":7590,"Ġmanifold":7591,"ctx":7592,"ĠLi":7593,"cluded":7594,"Kind":7595,"ĠLat":7596,"ĠGame":7597,"ĠGermany":7598,"Ġlocally":7599,"Ġappeared":7600,"Ġanc":7601,"ĠAny":7602,"ä¸":7603,"Ġclaims":7604,"paragraph":7605,"ffect":7606,"Ġtried":7607,"Ġserve":7608,"ĠField":7609,"ĠBank":7610,"ĠTheir":7611,"ĠMex":7612,"Ġmonitor":7613,"fold":7614,"ourier":7615,"Ġtrees":7616,"Ġtail":7617,"ĠAR":7618,"|}{":7619,"Ġtechnical":7620,"bras":7621,"Ġeth":7622,"ĠBi":7623,"tfrac":7624,"Ġmaximal":7625,"URE":7626,"Ġphoton":7627,"Ġreality":7628,"$&":7629,"ĠHome":7630,"Ġobjective":7631,"Ġstuff":7632,"ronic":7633,"Ġbenefit":7634,"ĠThomas":7635,"ĠIr":7636,"]]":7637,"Ġcosm":7638,"ogen":7639,"Ġsignals":7640,"kind":7641,"Ġwish":7642,"Ġgeneric":7643,"Ġwel":7644,"Ġsequences":7645,"Ġupdated":7646,"ĠStand":7647,"Ġorth":7648,"Ġsigned":7649,"ader":7650,"stain":7651,"[-":7652,"ĠNor":7653,"Ġsongs":7654,"Home":7655,"ĠDaily":7656,"equal":7657,"Ġforeign":7658,"Ġentries":7659,"Other":7660,"unct":7661,"ĠPhys":7662,"Ġdiagonal":7663,"Ġ>=":7664,"Ġconvers":7665,"Ġcommit":7666,"ertific":7667,"integ":7668,"Ġpaths":7669,"Ġdiver":7670,"Ġarriv":7671,"Ġderivative":7672,"riminal":7673,"@{":7674,"ĠCON":7675,"osis":7676,"Ġhour":7677,"ections":7678,"Change":7679,"ĠMinister":7680,"ĠMA":7681,"Ġsatisfied":7682,"Hash":7683,"PECT":7684,"Empty":7685,"}}^{\\":7686,"Ġdispl":7687,"hash":7688,"Ġ*)":7689,"Ġtrivial":7690,"Ġfluid":7691,"Ġgravity":7692,"Ġcancer":7693,">\\":7694,"Ġpaid":7695,"Ġvisible":7696,"Ġpatterns":7697,"Ġstatistics":7698,"Ġfol":7699,"Ġens":7700,"ipped":7701,"ĠWednesday":7702,"ĠPeter":7703,"ĠBoth":7704,"vart":7705,"mal":7706,"Ġprecisely":7707,"ups":7708,"ĠDet":7709,"Ġasymptotic":7710,"Ġinsert":7711,"Ġjet":7712,"req":7713,"Document":7714,"256":7715,"ĠName":7716,"Ġalleg":7717,"lict":7718,"Ġthinking":7719,"lik":7720,"gment":7721,"bmatrix":7722,"Ġbeautiful":7723,"Ġatmosp":7724,"Ġtheories":7725,"Ġjump":7726,"ierarch":7727,"ĠSpe":7728,"ji":7729,"ĠLu":7730,"Ġfarm":7731,"Ġnice":7732,"clip":7733,"}}}\\":7734,"Ġsetup":7735,"irections":7736,"Ġnor":7737,"lb":7738,"ĠBG":7739,"gebras":7740,"Ġthanks":7741,"ĠDir":7742,"Ġfourth":7743,"Ġhappy":7744,"Ġinvestigation":7745,"1993":7746,"ĠStep":7747,"WS":7748,"Art":7749,"avelength":7750,"large":7751,"Prot":7752,"ras":7753,"unately":7754,"Ġembedding":7755,"construction":7756,"chmark":7757,"Proof":7758,"agnost":7759,"Operation":7760,"Ġcrow":7761,"Ġplanning":7762,"trivial":7763,"Expression":7764,"tiny":7765,"=\"_":7766,"Ġconstit":7767,"Ġsociety":7768,"Ġquadr":7769,"ĠSM":7770,"Ġsubstant":7771,"uple":7772,"ĠTaylor":7773,"255":7774,"adian":7775,"Ġ\\(\\":7776,"ipment":7777,"LC":7778,"orial":7779,"Ġagents":7780,"Ġmys":7781,"GS":7782,"elihood":7783,"Ġphoto":7784,"\"))":7785,"appe":7786,"rained":7787,"âĢĿ,":7788,"Ġoverride":7789,"ĠCarol":7790,"care":7791,"ATH":7792,"Ġacts":7793,"Ġluminosity":7794,"'.":7795,"Ġrecorded":7796,"aus":7797,"ĠCommittee":7798,"sive":7799,"heet":7800,"ĠEngine":7801,"Ġreprodu":7802,"Ġcapture":7803,"multirow":7804,"Ġbundle":7805,"Ġbalance":7806,"Ġcanonical":7807,"itness":7808,"aling":7809,"Ġallowing":7810,"Ġreplace":7811,"born":7812,"ĠSil":7813,"Ġextremely":7814,"ĠMap":7815,"Ġfav":7816,"lie":7817,"Ġahead":7818,"Ġcache":7819,"^{*":7820,"Ġnonlinear":7821,"Ġhash":7822,"Ġbudget":7823,"ĠDev":7824,"formance":7825,"inated":7826,"Ġpadding":7827,"slant":7828,"ĠGen":7829,"ĠUN":7830,"GE":7831,"Str":7832,"Ġprime":7833,"plicated":7834,"ropic":7835,"Ġradial":7836,"Ġ({\\":7837,"va":7838,"oment":7839,"debug":7840,"ĠSocial":7841,"Ġdriver":7842,"Ġcandidates":7843,"Ġfear":7844,"ĠView":7845,"Ġorders":7846,"|}":7847,"erior":7848,"Ġunion":7849,"ested":7850,"ĠHiggs":7851,"ĠTre":7852,"Ġflex":7853,"Ġinteract":7854,"periment":7855,"Ġmission":7856,"Ġresear":7857,"etail":7858,"Ġsuggested":7859,"modal":7860,"Ġbands":7861,"odies":7862,"Ġschem":7863,"Ġfilename":7864,"ĠAp":7865,"%;":7866,"Connection":7867,"ĠBack":7868,"Ġpropose":7869,"semble":7870,"ĠGeV":7871,"Option":7872,"Ġfeedback":7873,"Ġmoments":7874,"world":7875,"1992":7876,"columnwidth":7877,"Ġcontinues":7878,"rust":7879,"Ġspirit":7880,"ilbert":7881,"shape":7882,"Ġconfidence":7883,"():":7884,"endar":7885,"istant":7886,"ĠTechnology":7887,"Ġfan":7888,"^{(\\":7889,"ĠUp":7890,"iem":7891,"Ġcorrections":7892,"augh":7893,"PORT":7894,"access":7895,"=\"../../../../../../":7896,"Ġelim":7897,"Ġinstitution":7898,"Ġlocations":7899,"TP":7900,"ĠJun":7901,"Ġdownload":7902,"aml":7903,"legate":7904,"Ġeditor":7905,"?\"":7906,"=\"-":7907,"Ð»":7908,"Ġdrug":7909,"Ġderive":7910,"power":7911,"Ġpossibly":7912,"Ġpatient":7913,"Ġtight":7914,"ĠChampions":7915,"\\}\\":7916,"}}=":7917,"apos":7918,"Ġguess":7919,"ĠFlorida":7920,"ĠPolicy":7921,"Ġcouldn":7922,"Ġcommercial":7923,"Lemma":7924,"ouch":7925,"Two":7926,"Ġspan":7927,"artifactId":7928,"Ġintensity":7929,"250":7930,"]{\\":7931,"media":7932,"Ġdie":7933,"ĠâĢ¢":7934,"Ġdimensional":7935,"][]{":7936,"bind":7937,"ĠCD":7938,"ulse":7939,"Ġhighlight":7940,"iger":7941,"ĠTim":7942,"ĠExt":7943,"zen":7944,"never":7945,"Ġcommunities":7946,"ĠCongress":7947,"Ġtalking":7948,"bp":7949,"Ġmainly":7950,"iveness":7951,"Ġattacks":7952,"ĠIP":7953,"Ġwarm":7954,"ĠIts":7955,"Given":7956,"Ġcontrad":7957,"Ġ$,":7958,"vect":7959,"Hence":7960,"missions":7961,"Ġtopological":7962,"Collection":7963,"heta":7964,"Consider":7965,"Ġlaws":7966,"vas":7967,"Ver":7968,"Ġbenefits":7969,"ĠFrancis":7970,"ĠRichard":7971,"Ġsizes":7972,"Ġdescribes":7973,"slam":7974,"Ġclimate":7975,"mes":7976,"ĠTour":7977,"ĠWindow":7978,"relation":7979,"vm":7980,"Ġvariance":7981,"ĠDate":7982,"organ":7983,"ĠMuseum":7984,"cape":7985,"Ġtemperatures":7986,"Ġdiam":7987,"etal":7988,"Store":7989,"Ġdynamical":7990,"Ġannual":7991,"Http":7992,"scriptstyle":7993,"Ġindicated":7994,"Ġdx":7995,"RR":7996,"Ġtreated":7997,"}|\\":7998,"scape":7999,"\"));":8000,"impl":8001,"ĠPlay":8002,"ĠLO":8003,"123":8004,")})":8005,"there":8006,"ĠJose":8007,"Ġmessages":8008,"Ġexplan":8009,"ĠIsrael":8010,"burg":8011,"ographic":8012,"Ġarrest":8013,"ĠGrand":8014,"May":8015,"ructions":8016,"Ġded":8017,"ĠGiven":8018,"Ġtrace":8019,"Ġsustain":8020,"ĠAN":8021,"kes":8022,"Ġdaughter":8023,"ĠFree":8024,"domain":8025,"Ġenable":8026,"dest":8027,"ĠBas":8028,"bib":8029,"Ġbra":8030,"initial":8031,"hs":8032,"icted":8033,"Ġsky":8034,"Ġgeneralized":8035,"Ġparams":8036,")).":8037,"Ġ}{":8038,"Record":8039,"Ġfemale":8040,"Ġquantities":8041,"ci":8042,"Ġroute":8043,"Ġcentre":8044,"ĠMult":8045,"Ġlab":8046,"Ġintersection":8047,"Ġcovered":8048,"=.":8049,"}$}":8050,"pool":8051,"160":8052,"slash":8053,"600":8054,"isl":8055,"atever":8056,"Ġcomputational":8057,"Ġrich":8058,"ĠCA":8059,"Ġemphas":8060,"RI":8061,"Util":8062,"ORD":8063,"Ġdirected":8064,"Ġouter":8065,"Ġfill":8066,"ato":8067,"ĠMel":8068,"Ġaffected":8069,"Ġdeliver":8070,"eces":8071,"Ġdrink":8072,"ĠLin":8073,"ĠMur":8074,"\\}$,":8075,"ĠGlobal":8076,"Ġquasi":8077,"ictor":8078,"Ġnecessarily":8079,"Ġboy":8080,"acro":8081,"uy":8082,"ĠAcadem":8083,"Ġcompetition":8084,"arts":8085,"etry":8086,"Ġdashed":8087,"Ġgone":8088,"Ġopposite":8089,"article":8090,"ĠAL":8091,"Params":8092,"inate":8093,"Ġcharges":8094,"Ġadvert":8095,"session":8096,"figures":8097,"Properties":8098,"circle":8099,"when":8100,"Ġmiles":8101,"subsec":8102,"Ġcycl":8103,"ĠMass":8104,"ola":8105,"arden":8106,"Ġfederal":8107,"Ġliqu":8108,"fered":8109,"Ġtransmission":8110,"ĠHot":8111,"Ġhypothesis":8112,"Ġtelevision":8113,"Ġdream":8114,"Ġtrial":8115,"According":8116,"ĠLear":8117,"American":8118,"Ġcoverage":8119,"ĠRequ":8120,"focus":8121,"Ġmes":8122,"unched":8123,"night":8124,"Ġdetector":8125,"important":8126,"gar":8127,"Ġsell":8128,"ĠDC":8129,"west":8130,"Ġartist":8131,"Rev":8132,"plane":8133,"ĠBob":8134,")--":8135,"fields":8136,"ITY":8137,"groupId":8138,"functions":8139,"Ġspac":8140,"Ġoperating":8141,"ĠWho":8142,"Ġverify":8143,"Ġship":8144,"ĠHT":8145,"Ġtransaction":8146,"cou":8147,"track":8148,"Ġjour":8149,"rangian":8150,"since":8151,"Order":8152,"Ġrect":8153,"docs":8154,"Ġdanger":8155,"Ġcold":8156,"connect":8157,"Impl":8158,"Ġseconds":8159,"pred":8160,"ideos":8161,"Ġsea":8162,"kins":8163,"Ġcategories":8164,"Ġleaving":8165,"Ġrig":8166,"Ġcontainer":8167,"ensus":8168,"ĠTH":8169,"Ġsimultane":8170,"Ġrepresenting":8171,"ĠWomen":8172,"fn":8173,"ĠCH":8174,"Ġfluctuations":8175,"pto":8176,"interface":8177,"ĠRussian":8178,"ĠTrue":8179,"ĠMont":8180,"transform":8181,"ĠWhy":8182,"\\%$":8183,"rins":8184,"aver":8185,"Ġecho":8186,"Ġcryst":8187,"acle":8188,"ĠTown":8189,"Ġchallenges":8190,"ĠOffic":8191,"Ġ\"\\":8192,"Ġmeant":8193,"ĠReport":8194,"bot":8195,"ĠException":8196,"border":8197,"Ġcaref":8198,"Ġsides":8199,"Ġcurvature":8200,"inos":8201,"Ġeye":8202,"Ġraised":8203,"ĠOh":8204,"enum":8205,"Ġbond":8206,"Ġpolicies":8207,"BP":8208,"Ġexpressions":8209,"Ġaudience":8210,"elect":8211,"ja":8212,"Ġicon":8213,"medskip":8214,"have":8215,":=\\":8216,"sn":8217,"ĠMil":8218,"Ġreaction":8219,"Ã¼":8220,"Iter":8221,"Ġexplo":8222,"Ġspeech":8223,"Ġpowers":8224,"Ġbattle":8225,"iders":8226,"address":8227,"Ġassuming":8228,"Async":8229,"leted":8230,"rapy":8231,"Ptr":8232,"stood":8233,"boldmath":8234,"ĠAfrican":8235,"DO":8236,"ĠKore":8237,"ĠTur":8238,"exists":8239,"Ġvacuum":8240,"device":8241,"ĠĠĠĠĠĠĠĠĠĠĠĠĠĠĠĠĠĠĠĠĠĠĠĠĠĠĠĠĠĠĠĠĠĠĠĠĠĠĠ":8242,"Ġcorrection":8243,"Ġjobs":8244,"ĠWell":8245,"general":8246,"ossible":8247,"ruit":8248,"Ġhelped":8249,"Ġanalyz":8250,"ĠFund":8251,"types":8252,"ĠRussia":8253,"mits":8254,"prim":8255,"Ġowners":8256,"Ġdaily":8257,"comment":8258,"Ġboost":8259,"================================":8260,"Ġvictim":8261,"orrow":8262,"Ġelectronic":8263,"Ã¤":8264,"ady":8265,"Ġexecution":8266,"ublished":8267,"double":8268,"TER":8269,"Before":8270,"Ġfeet":8271,"Use":8272,"ĠCentre":8273,"Ġdoll":8274,"Ġconvent":8275,"Why":8276,"utable":8277,"Ġbiggest":8278,"ĠPower":8279,"Var":8280,"Ġintegrated":8281,"mn":8282,"vised":8283,")[":8284,"ĠId":8285,"Pass":8286,"-(":8287,"Deb":8288,"ĠWestern":8289,"ĠJac":8290,"ULT":8291,"Ġrevealed":8292,"Ġdestroy":8293,"ĠCode":8294,"ĠJim":8295,"cline":8296,"vartheta":8297,"BE":8298,"Ġordered":8299,">.":8300,"Ġdependent":8301,"ĠIII":8302,"Ġfinished":8303,"Ġdamage":8304,"modules":8305,"Ġnarrow":8306,"Pat":8307,"Ġconfirm":8308,"ĠScot":8309,"Ġmultip":8310,"Ġreferred":8311,"Med":8312,"Ġfocused":8313,"allery":8314,"Ġmorphism":8315,"ala":8316,"lower":8317,"Ġrational":8318,"ĠCare":8319,"Ġapproximate":8320,"ĠChicago":8321,"Ġeconomy":8322,"ANT":8323,"ĠVirgin":8324,"Helper":8325,"Ġconfirmed":8326,"Ġowner":8327,"parallel":8328,"Ġmyself":8329,"phot":8330,"ubble":8331,"Ġtit":8332,"ĠAv":8333,"1980":8334,"101":8335,"equations":8336,"Ġrepeated":8337,"Ġparties":8338,"Ġofficials":8339,"ĠIran":8340,"tained":8341,"Ġmixing":8342,"quant":8343,"ï¼":8344,"Ġsummary":8345,"Ġfaster":8346,"arity":8347,"Ġsports":8348,"Ġleaves":8349,"Ġcollege":8350,"Ġautomatically":8351,"ĠOnly":8352,"Ġcalling":8353,"Ġrender":8354,"icine":8355,"Ġgoals":8356,"Ġskills":8357,"Ġdemonstrate":8358,"Ġequality":8359,"hr":8360,"ĠCR":8361,"elligence":8362,"coin":8363,"CF":8364,"icks":8365,"Ġcoupled":8366,"arios":8367,"Ġmetrics":8368,"Integer":8369,"_;":8370,"Ġknows":8371,"Ġappoint":8372,"ĠKey":8373,"ĠLibrary":8374,"ativ":8375,"Ġnamespace":8376,"BI":8377,"oles":8378,"Ġbreaking":8379,"Ġguy":8380,"river":8381,"ĠAirport":8382,"ĠEXPECT":8383,"Ġfashion":8384,"foo":8385,"Ġinvolving":8386,"Second":8387,"ĠSE":8388,"ĠFrank":8389,"ditionally":8390,"NavBar":8391,"ĠSecurity":8392,"Ġjoined":8393,"ĠEvent":8394,"aturally":8395,"ĠJud":8396,"ĠCommunity":8397,"Ġbrain":8398,"delete":8399,"\\|\\":8400,"Ġquantity":8401,"Vari":8402,"green":8403,"Ġprofiles":8404,"Pos":8405,"Ġevaluated":8406,"Posted":8407,"ben":8408,"ĠApple":8409,"FIG":8410,"Ġenhance":8411,"Ġcredit":8412,"Ġassign":8413,"Application":8414,"channel":8415,"ĠElect":8416,"John":8417,"ĠTem":8418,"copy":8419,"+(":8420,"tor":8421,"Ġsuppose":8422,"Ġolder":8423,"ĠRoyal":8424,"Ġlie":8425,"&=\\":8426,"Que":8427,"Host":8428,"Ġshell":8429,"Ġgravitational":8430,"erman":8431,"ĠLee":8432,"icker":8433,"Xi":8434,"ĠStat":8435,"~(\\":8436,"Ġcitiz":8437,"Ġfinds":8438,"ĠAmazon":8439,"ĠMicrosoft":8440,"Ġrestaur":8441,"ĠInternet":8442,"Ġbed":8443,"Ġweap":8444,"Core":8445,"Ġoffered":8446,"success":8447,"igital":8448,"ĠWay":8449,"Ġ\\,\\":8450,"ĠExec":8451,"Ġessentially":8452,"ĠDu":8453,"ĠHen":8454,"Ġaudio":8455,"isot":8456,"Ġbroken":8457,"Ġidentical":8458,"ĠLos":8459,"ĠEU":8460,"iii":8461,"Ġwood":8462,"^*(":8463,"erry":8464,"Ġchurch":8465,"Ġexcited":8466,"Ġfunding":8467,"Suppose":8468,"ĠLake":8469,"amm":8470,"FOR":8471,"Ġsym":8472,"aped":8473,"800":8474,"send":8475,"Ġprem":8476,"Ġfresh":8477,"fol":8478,"Ġentity":8479,"Session":8480,"Ġhero":8481,"iced":8482,"ĠSD":8483,"ĠMartin":8484,"negative":8485,"ugins":8486,"Parameters":8487,"ĠComput":8488,"equals":8489,"'>":8490,"Ġincident":8491,"Ġaggreg":8492,"(:":8493,"ĠHuman":8494,"Ġfloor":8495,"Ġcollected":8496,"Ġbeat":8497,"Ġstochastic":8498,"Ġconvolution":8499,"mathit":8500,"ĠAustralian":8501,"ogonal":8502,"indu":8503,"à¥":8504,"connection":8505,"Ġschedul":8506,"IX":8507,"Ġpurposes":8508,"tikzpicture":8509,"Ġwouldn":8510,"Ġaspects":8511,"Ġforest":8512,"life":8513,"textcolor":8514,"ĠSol":8515,"aws":8516,"Ġturb":8517,"Ġspecifically":8518,"BB":8519,"Ġphases":8520,"Ġtopic":8521,"Red":8522,"Ġends":8523,"dash":8524,"ĠDuring":8525,"Ġearth":8526,"Ġice":8527,"ĠLove":8528,"ĠSer":8529,"Ġnative":8530,"gency":8531,"ĠJapanese":8532,"ĠEp":8533,"Moreover":8534,"Ġnotion":8535,"Ġconference":8536,"cean":8537,"ĠSN":8538,"join":8539,"pres":8540,"Ġcloser":8541,"ĠDesign":8542,"stylesheet":8543,"uning":8544,"ogram":8545,"ĠMath":8546,"Ġissu":8547,"Ġcreation":8548,"Ġcars":8549,"ĠValue":8550,"tn":8551,"ĠBr":8552,"Only":8553,"Ġappearance":8554,"Ġplas":8555,"ĠSecret":8556,"dependence":8557,"Ġneutrino":8558,"finite":8559,"FS":8560,"onym":8561,"Di":8562,"Ġmagnet":8563,"internal":8564,"Ac":8565,"Ġinstr":8566,"Ġindices":8567,"ĠTeam":8568,"Vol":8569,"rency":8570,"Ġ,\\":8571,"Ġinstances":8572,"Ġlowest":8573,"riage":8574,"Ġdelete":8575,"Ġartists":8576,"Ġseeing":8577,"network":8578,"ora":8579,"odd":8580,"ella":8581,"ĠNext":8582,"Ġinvestment":8583,"Ġdedu":8584,"ĠPC":8585,"Book":8586,"ĠLine":8587,"Ġmatches":8588,"Ġconclusion":8589,"Ġexcellent":8590,"WA":8591,"Ġadopted":8592,"Ġ$\\{\\":8593,"phantom":8594,"category":8595,"1991":8596,"region":8597,"leton":8598,"Ġshut":8599,"downarrow":8600,"Click":8601,"Ġfaith":8602,"msg":8603,"Xml":8604,"NG":8605,"cloud":8606,"Ġperturbation":8607,"Ġdetermin":8608,"Ġlisten":8609,"Ġvillage":8610,"ĠLead":8611,"ACT":8612,"cussion":8613,"Ġmeta":8614,"Ġmale":8615,"Ġmir":8616,"virt":8617,"erer":8618,"END":8619,"Ġsensitive":8620,"enter":8621,"Has":8622,"Ġmanaged":8623,"ucket":8624,"Ġrul":8625,"Ġsexual":8626,"Ġcolumns":8627,"ĠTO":8628,"Another":8629,"Ġamaz":8630,"hab":8631,"resp":8632,"ĠJo":8633,"arith":8634,"Ġattributes":8635,"Ġprecision":8636,"handle":8637,"ĠEconom":8638,"isson":8639,"}{*":8640,"widget":8641,"Ġdirections":8642,"Ġoccas":8643,"Ġglass":8644,")^\\":8645,"Ġconfigurations":8646,"Reader":8647,"ACE":8648,"ĠYoung":8649,"ented":8650,"Ġcircum":8651,"grid":8652,"holder":8653,"Ġforced":8654,"radius":8655,"ĠBase":8656,"Ġimprovement":8657,"ensed":8658,"hang":8659,"ERROR":8660,"ĠObama":8661,"Ġaren":8662,"Ġsubsc":8663,"Ġhalo":8664,"hover":8665,"Ġequivalence":8666,"sql":8667,"Ġuniversal":8668,"Ġvision":8669,"Ġchief":8670,"Ġexpos":8671,"icular":8672,"ĠEnergy":8673,"MD":8674,"ĠLast":8675,"Sing":8676,"fix":8677,"^*\\":8678,"ĠBGCOLOR":8679,"square":8680,"Handle":8681,"Ġdense":8682,"Names":8683,"Title":8684,"poration":8685,"Ġtranslation":8686,"mo":8687,"Ġ),":8688,"Ġreasonable":8689,"ellipt":8690,"Ġrout":8691,"notag":8692,"!\\":8693,"uty":8694,"Ġuniverse":8695,"Ġundefined":8696,"Ġincome":8697,"reland":8698,"Ġanom":8699,"izable":8700,"fast":8701,"scopic":8702,"ictures":8703,"ĠAngeles":8704,"Ġinstrument":8705,"Ġversions":8706,"Parent":8707,"ĠIll":8708,"risis":8709,"Vector":8710,"tim":8711,"Dom":8712,"Ġarc":8713,"erves":8714,"Ġeigenvalues":8715,"Ġperspective":8716,"Ðº":8717,"001":8718,"Ġsupers":8719,"UL":8720,"Ã¶":8721,"(-\\":8722,"ĠSO":8723,"riev":8724,"Ġeffectively":8725,"Ġfavorite":8726,"Ġregister":8727,"words":8728,"hu":8729,"Ġguide":8730,"ĠGR":8731,"Ġcritic":8732,")),":8733,"click":8734,"Ġacting":8735,"stra":8736,"(*":8737,"hav":8738,"Prop":8739,"Ġchoices":8740,"oute":8741,"ĠConsider":8742,"Writer":8743,"ĠLouis":8744,"Ã¢":8745,"Ġgenerating":8746,"ifer":8747,"porary":8748,"romise":8749,"ĠCase":8750,"Ġdiscrim":8751,"Ġperforming":8752,"Ġstrategies":8753,"Ġpractical":8754,"GET":8755,"lope":8756,"Ġsignature":8757,"!]":8758,"panel":8759,"har":8760,"Ġprepar":8761,".\\\\":8762,"Ġcomplement":8763,"ĠEnter":8764,"ERS":8765,"Ġpet":8766,"Ġstreet":8767,"Ġdecrease":8768,"Ġil":8769,"STATE":8770,"Ġabstract":8771,"Ġsch":8772,"Ġmarked":8773,"igan":8774,"Ġfre":8775,"Ġreject":8776,"HC":8777,"iki":8778,"Ġregistered":8779,"ĠConst":8780,"layer":8781,"ĠNY":8782,"Ġexceed":8783,"imits":8784,"Ġreduces":8785,"Ġcharacteristics":8786,"Ġdegener":8787,"bc":8788,"stackrel":8789,"numer":8790,"Ġzone":8791,"Ġcorner":8792,"Ġintermediate":8793,"exception":8794,"ĠWhe":8795,"prov":8796,"GeV":8797,"Ġmock":8798,"ĠMany":8799,"sort":8800,"Ġdraft":8801,"rastructure":8802,"webkit":8803,"Ġfigures":8804,"Stack":8805,"Ġdiss":8806,"each":8807,"Ġconnections":8808,"auth":8809,"Ġexcess":8810,"Ġalloc":8811,"ĠTR":8812,"ĠFestival":8813,"Ġkill":8814,"wave":8815,"Ġrac":8816,"ĠRoman":8817,"Ġeasier":8818,"Ġheader":8819,"estion":8820,"Ġpolarization":8821,"Ġdiscovered":8822,"Ġemployees":8823,"Although":8824,"Ġlift":8825,"Ġnormalized":8826,"Ġvot":8827,"Step":8828,"Ġacadem":8829,"Google":8830,"ĠPage":8831,"Ġsubgroup":8832,"Assert":8833,"180":8834,"rog":8835,"ĠIslam":8836,"Ġwinning":8837,"Ġtells":8838,"Ġprivacy":8839,"Don":8840,"help":8841,"Sk":8842,"export":8843,"ĠDown":8844,"Li":8845,"ĠWood":8846,"ulating":8847,"Meta":8848,"kern":8849,"sch":8850,"Main":8851,"Ġreferences":8852,"Ġbyte":8853,"Ġhelps":8854,"Ġseemed":8855,"TA":8856,"urance":8857,"Ġassigned":8858,"Menu":8859,"Ġisot":8860,"ĠArts":8861,"Ġfamous":8862,"Ġmist":8863,"Ġbecoming":8864,"Ġdeveloping":8865,"Ġentirely":8866,"Ġbaseline":8867,"udio":8868,"ĠCath":8869,"store":8870,"Will":8871,"'_{":8872,"ĠFunction":8873,"ĠHand":8874,"Ġmask":8875,"igin":8876,"Ġparse":8877,"Ġpeace":8878,"ĠOld":8879,"note":8880,"FP":8881,"BM":8882,"ĠSpecial":8883,"Ġraw":8884,"ĠAtl":8885,"Ġversus":8886,"Ġcatalog":8887,"Ġfant":8888,"Ġwavelength":8889,"men":8890,"Ġcontrolled":8891,"render":8892,"instein":8893,"Ġpartner":8894,"!âĢĿ":8895,"duction":8896,"Ġrecover":8897,"total":8898,"ĠArab":8899,"ĠJones":8900,"andra":8901,"esian":8902,"phase":8903,"Tags":8904,"Ġwire":8905,"vin":8906,"ĠImage":8907,"ĠPoint":8908,"Ġportion":8909,"observ":8910,"hard":8911,"ĠInitial":8912,"toString":8913,"ĠCommun":8914,"Ġabsorption":8915,"Ġhospital":8916,"Ġinject":8917,"Ġcoach":8918,"Ġsupply":8919,"footnotes":8920,"Ġwhom":8921,"Ġperiodic":8922,"Ġcond":8923,"Ġlabor":8924,"limit":8925,"ĠAbout":8926,"Ġinterpretation":8927,"ĠSpace":8928,"ðŁ":8929,"grade":8930,"Ġkeeping":8931,"igr":8932,"Ġconducted":8933,"Ġjav":8934,"Ġunderstood":8935,"estamp":8936,"CTION":8937,"custom":8938,"Ġuncertainties":8939,"uan":8940,"Ġmarg":8941,"Ġopportunities":8942,"ĠEnt":8943,"unte":8944,"Ġpod":8945,"Ġarticles":8946,"ĠNE":8947,"Ġfitting":8948,"Ġsensitivity":8949,"forming":8950,"ĠMP":8951,"False":8952,"ĠParis":8953,"Ġcustomer":8954,"ĠAge":8955,"footnotesize":8956,"ĠSpring":8957,"aland":8958,"$.}":8959,"corollary":8960,"ĠNon":8961,"Ġabsence":8962,"Ġpassing":8963,"Schema":8964,"ĠMike":8965,"ĠSta":8966,"2022":8967,"plications":8968,"Ġhierarch":8969,"Ġdefe":8970,"Ġneutral":8971,"structure":8972,"Ġmolecular":8973,"framework":8974,"wa":8975,"estic":8976,"Ġseparation":8977,"ĠLab":8978,"Ġ---":8979,"Ġtruly":8980,"Ġrail":8981,"Ġthin":8982,"ĠLy":8983,"Ġà¤":8984,"auto":8985,"ĠAT":8986,"Draw":8987,"Ġcontroller":8988,"ducible":8989,"Ġvehicles":8990,"Ġhair":8991,"Ġwww":8992,"ĠAction":8993,"|$":8994,"ĠColor":8995,"Ġextent":8996,"ĉĉĉĊ":8997,"125":8998,"'],":8999,"Ġdiscover":9000,"Ġwidely":9001,"Ġcontribute":9002,"Ġaccret":9003,")}(\\":9004,"will":9005,"Sym":9006,";->":9007,"Ġenvironmental":9008,"Ġequipment":9009,"osc":9010,"Ġhus":9011,"Ġsuccessfully":9012,"regular":9013,"fortunately":9014,"Ġweekend":9015,"Policy":9016,"Err":9017,"Find":9018,"inem":9019,"Ġmoves":9020,"ĠCast":9021,"Ġcommut":9022,"anish":9023,"Num":9024,"PRE":9025,"Ġcircuit":9026,"ĠValley":9027,"alls":9028,"Bytes":9029,"ye":9030,"Cre":9031,"Template":9032,"Ġ['":9033,"ĠChris":9034,"amin":9035,"agon":9036,"asket":9037,"Also":9038,"isters":9039,"Ġburn":9040,"Ġdocuments":9041,"Values":9042,"Ġyourself":9043,"Ġentertain":9044,"ĠĠĠĠĠĠĠĠĠĠĠĠĠĠĠĠĠĠĠĠĠĠĠĠĠ":9045,"Ġemployed":9046,"athan":9047,"represent":9048,"ĠLink":9049,"random":9050,"argument":9051,"Ġupdates":9052,"byte":9053,"\\!\\":9054,"Ġdebut":9055,"&=&\\":9056,"Ġinvolve":9057,"Ġstored":9058,"ĠError":9059,"Ġtwice":9060,"rinsic":9061,"Ġended":9062,"Ġvariations":9063,"Assum":9064,"Ġsupports":9065,"isting":9066,"utely":9067,"uparrow":9068,"yntax":9069,"Ġiteration":9070,"Ġsho":9071,"ĠPac":9072,"edef":9073,"GA":9074,"disabled":9075,"ĠSi":9076,"Ġdefines":9077,"Ġblow":9078,"Ġprotection":9079,"acent":9080,"About":9081,"letion":9082,"obuf":9083,"ĠJon":9084,"}\\|":9085,"eper":9086,"ĠConn":9087,"ĠDM":9088,"FE":9089,"Ġserial":9090,"ucl":9091,"ĠĠĠĠĠĠĊ":9092,"Ġdensities":9093,"ĠSuppose":9094,"Ġattend":9095,"ĠUser":9096,"iliar":9097,"application":9098,".'":9099,"Ġmyst":9100,"Ġcrucial":9101,"propto":9102,"Ġprison":9103,"sky":9104,"Argument":9105,"Ġfeeling":9106,"Ġagreed":9107,"Icon":9108,"anguages":9109,"Ġexerc":9110,"}$\\":9111,"Ġwest":9112,"lymp":9113,"Ġphil":9114,"ertificate":9115,"Ġatoms":9116,"Ġglob":9117,"Ġ_{\\":9118,"ĠCEO":9119,"ĠFourier":9120,"ritical":9121,"Ġconjug":9122,"Ġconsult":9123,"Ġkeys":9124,"ĠSoft":9125,"iser":9126,"Ġwaiting":9127,"Ġbytes":9128,"Ġpri":9129,"Ġtang":9130,"Ġencoding":9131,"Hom":9132,"ulator":9133,"Ġstraightforward":9134,"Ġapprec":9135,"Just":9136,"Network":9137,"{(\\":9138,"Ġprices":9139,"complete":9140,"Ġscenarios":9141,"parameters":9142,"Ġgate":9143,"Ġlaunched":9144,"Author":9145,")(\\":9146,"person":9147,"env":9148,"Ġinitially":9149,"Decl":9150,"Ġcontinuum":9151,"Ġconcerns":9152,"VD":9153,"clos":9154,"jecture":9155,"different":9156,"icons":9157,"urban":9158,"Ġprincipal":9159,"redit":9160,"Under":9161,"Ġuniformly":9162,"backslash":9163,"Ġinputs":9164,"Ġfilled":9165,"Ġcomfort":9166,"Ġsecondary":9167,"Args":9168,"Ġdemonstrated":9169,"Body":9170,"Ġpuls":9171,")}.":9172,"sym":9173,"esides":9174,"Ġstead":9175,"Ġprecise":9176,"Ġran":9177,"ĠLocal":9178,"ean":9179,"Ġdecades":9180,"Ġdeviation":9181,"ĠLike":9182,"Ġguys":9183,"$-$":9184,"Ġopinion":9185,"yer":9186,"Ġexpectation":9187,"invariant":9188,"langu":9189,"&#":9190,"Ġpy":9191,"Initial":9192,"sample":9193,"aste":9194,"kg":9195,"ĠAgain":9196,"////////////////////////////////":9197,"Ġsomewhat":9198,"Ġworse":9199,"ĠĠĠĠĠĠĠĠĠĠĠĠĠĠĠĠĠĠĠĠĠĠĠĠ":9200,"sequently":9201,"wt":9202,"osoph":9203,"alian":9204,"Ġoriginally":9205,"Ġelectro":9206,"ĠCy":9207,"Ġsenior":9208,"exports":9209,"Ġrecognition":9210,"=>":9211,"Ġgenerator":9212,"ĠWindows":9213,"Ġtested":9214,"Ġclosely":9215,"Invalid":9216,"ĠJeff":9217,"alf":9218,"istence":9219,"rase":9220,"HTML":9221,"`.":9222,"ugh":9223,"virtual":9224,"Tool":9225,"hfill":9226,"ĠWater":9227,"MENT":9228,"Ġsolving":9229,"ĠLo":9230,"ĠFamily":9231,"ushed":9232,"Opt":9233,"site":9234,"Ġapplicable":9235,">();":9236,"ĠJohnson":9237,"Ga":9238,"Ġlens":9239,"herical":9240,"groups":9241,"Ġduration":9242,"ĠChief":9243,"apse":9244,"ĠIreland":9245,"HR":9246,"}/\\":9247,"Ġing":9248,"Ġfra":9249,"|-":9250,"Ġhorizon":9251,"ceived":9252,"wrap":9253,"Ġillustr":9254,"ategy":9255,"Ġcultural":9256,"usal":9257,"Ġeast":9258,"Ġclients":9259,"ĠReal":9260,"ĠAnother":9261,"ĠSports":9262,"ĠSar":9263,"Ġcauses":9264,"Ġsupposed":9265,"imb":9266,"III":9267,"states":9268,"Ġstandards":9269,"Ġfib":9270,"ircraft":9271,"cycl":9272,"Av":9273,"email":9274,"enced":9275,"Ġbusinesses":9276,"Ġtracks":9277,"ĠLook":9278,"$^":9279,"Ġcriteria":9280,"Ġelectrons":9281,"Ġempir":9282,"Ġlic":9283,"Ġ++":9284,"bits":9285,"ĠĠĠĠĠĠĠĠĠĠĠĠĠĠĠĠĠĠĠĠĠĠ":9286,"Ġthousands":9287,"Parser":9288,"Ġtransitions":9289,"ĠWal":9290,"ĠFilm":9291,"Classes":9292,"Ġpieces":9293,"Ġorbital":9294,"nabled":9295,"Ġworst":9296,"ĠCard":9297,"Ġembod":9298,"Ġmach":9299,"Ġcities":9300,"Track":9301,"ĠFort":9302,"Ġformulation":9303,"raise":9304,"thick":9305,"VM":9306,"astern":9307,"Ġproportional":9308,"ynamics":9309,"Gen":9310,"Ġpresents":9311,"inline":9312,"plugin":9313,"retch":9314,"Device":9315,"ETH":9316,"romagnetic":9317,"Ġstronger":9318,"keys":9319,"Channel":9320,"ĠHon":9321,"Ġhorizontal":9322,"Ġsubsequent":9323,"uing":9324,"ĠScotland":9325,"Ġnine":9326,"$\\,":9327,"Ġdominant":9328,"Ġnotes":9329,"Ġgeometric":9330,"umps":9331,"Ġweather":9332,"ĠBlue":9333,"Ġfrequencies":9334,"Ġcodes":9335,"uries":9336,"Ġdiffusion":9337,"closed":9338,"toggle":9339,"Ġunsigned":9340,"CG":9341,"CN":9342,"SF":9343,"grav":9344,"&&\\":9345,"ĠHTML":9346,"ĠSupport":9347,"connected":9348,"Ġscores":9349,"kers":9350,"properties":9351,"ĠAP":9352,"Inv":9353,"1989":9354,"bro":9355,"also":9356,"Ġ(*":9357,"pic":9358,"Ġdirectory":9359,"urable":9360,"ativistic":9361,"moment":9362,"|^{":9363,"Ġpixel":9364,"aked":9365,"Ġliquid":9366,"ĠInvest":9367,"Ġdrawn":9368,"ĠCanadian":9369,"Ġencourag":9370,"para":9371,";<":9372,"Ġsharp":9373,"imately":9374,"Show":9375,"Ġtrigger":9376,"Ġadministration":9377,"Ġmetall":9378,"itter":9379,"Ġmarried":9380,"tz":9381,"ela":9382,"Ġclassic":9383,"Ġdispersion":9384,"Ġpil":9385,"Ġherself":9386,"Ġnaturally":9387,"Bas":9388,"ĠLagrangian":9389,"Ġelem":9390,"VE":9391,"footer":9392,"Ġfunds":9393,"TEST":9394,"ĠProv":9395,"ermi":9396,"Ġsleep":9397,"Ġfewer":9398,"Ġposted":9399,"ĠAuthor":9400,"Ġhistorical":9401,"Ġstrictly":9402,"supp":9403,"Ġkid":9404,"ĠVictor":9405,"theless":9406,"Ġinclusion":9407,"isc":9408,"hl":9409,"Ġfits":9410,"Ġstrings":9411,"mean":9412,"Ġ})":9413,"Ġhomogeneous":9414,"Ñĥ":9415,"ĠInstead":9416,"Ġwatching":9417,"orizontal":9418,"Ġresidents":9419,"screen":9420,"Database":9421,"*}[":9422,"nol":9423,"Ġpapers":9424,"Ġtransverse":9425,"Ġremote":9426,"Ġmotor":9427,"ĠArmy":9428,"Ġresidual":9429,"Metadata":9430,"ãĢ":9431,"ĠCur":9432,"friend":9433,"margin":9434,"ĠStart":9435,"Ġpotentially":9436,"ĠFar":9437,"bu":9438,"water":9439,"Support":9440,"Ġban":9441,"Ġintroduction":9442,"Param":9443,".$$":9444,"ĠBern":9445,"Ġadvers":9446,"Descriptor":9447,"Ġderivatives":9448,"DIR":9449,"Ġintended":9450,"enger":9451,"----------------------------------------------------------------":9452,"Phys":9453,"Det":9454,"mf":9455,"Ġemot":9456,"Ġfinish":9457,"Ġentang":9458,"Ġanalytic":9459,"Ag":9460,"icians":9461,"ĠMexico":9462,"Ġinvoke":9463,"Ġdecreases":9464,"Ġinterior":9465,"ĠRam":9466,"Ġtopology":9467,"ĠPolice":9468,"ĠJSON":9469,"ĠURL":9470,"uri":9471,"1970":9472,"conv":9473,"Ġreward":9474,"ĠLord":9475,"buf":9476,"density":9477,"IME":9478,"Pref":9479,"SSERT":9480,"orders":9481,"Ġsystematic":9482,"Ġcarbon":9483,"Ġbegins":9484,"Ġpolitics":9485,"ĠPR":9486,"spin":9487,"}^{+":9488,"attribute":9489,"ĠZealand":9490,"events":9491,"Ġcriminal":9492,"ĠHead":9493,"udd":9494,"Ġparticipants":9495,"insert":9496,"_{+":9497,"Ġdedicated":9498,"Ġ\\[":9499,"Ġcontrols":9500,"ĠPass":9501,"$\\\\":9502,"Tab":9503,"family":9504,"Ġviolence":9505,"ĠIO":9506,"Ġdiagrams":9507,"inton":9508,"sen":9509,"Ġspring":9510,"ello":9511,"}{{\\":9512,"ĠCr":9513,"comb":9514,"Ġanimals":9515,"SET":9516,"Ġnumerous":9517,"%)":9518,"home":9519,"Ġdriven":9520,"Ġinline":9521,"bd":9522,"ĠSand":9523,"Ġtroub":9524,"Ġtab":9525,"Ġsevere":9526,"ĠOnce":9527,"leftarrow":9528,"Ġcolour":9529,"Ġextreme":9530,"$'":9531,"IND":9532,"Ġcir":9533,"manif":9534,"Ġtemporal":9535,"inet":9536,"Ġdecisions":9537,"Ġdefense":9538,"ĠMS":9539,"Ġmodules":9540,"UP":9541,"found":9542,"umes":9543,"Ġstands":9544,"Ġdefinitions":9545,"Ġconcentration":9546,"Ġproperly":9547,"aid":9548,"replace":9549,"entity":9550,"settings":9551,"you":9552,"Ġdoubt":9553,"ali":9554,"Ġquadratic":9555,"Dist":9556,"none":9557,"Ġkick":9558,"ROM":9559,"phy":9560,"Ġrestriction":9561,"ĠCharles":9562,"gather":9563,"Ġtargets":9564,"Ġpsych":9565,"alities":9566,"ifiers":9567,"Ġsurfaces":9568,"Ġstatements":9569,"Ġadvanced":9570,"Ġspl":9571,"Ġ\"/":9572,"ĠIT":9573,"inction":9574,"blem":9575,"Ġrows":9576,"Ġcompatible":9577,"Ġexport":9578,"ribed":9579,"ĠPlease":9580,"elly":9581,"ĠLight":9582,"ĠRet":9583,"Ġwhatever":9584,"apshot":9585,"Ġanalys":9586,"oston":9587,"ĠAcademy":9588,"Ġwarn":9589,"opes":9590,"###":9591,"ĠImp":9592,"Debug":9593,"Ġgirls":9594,"material":9595,"ĠWall":9596,"Delete":9597,"Ġinvolves":9598,"IES":9599,"multline":9600,"Ġorientation":9601,"Ġhusband":9602,"ĠGames":9603,"Ġdivided":9604,"ĠHy":9605,"LR":9606,"ĠassertEquals":9607,"dden":9608,"Ġbrings":9609,"orney":9610,"Ġterror":9611,"Ġoutcome":9612,"Ġos":9613,"Ġschemes":9614,"Ġcorrelations":9615,"ĠRo":9616,"Ġrespective":9617,"ĠPolit":9618,"Custom":9619,"Doc":9620,"rugg":9621,"Ġfuel":9622,"Ġneutron":9623,"Ġamazing":9624,"Full":9625,"Ġflight":9626,"idget":9627,"Ġofficer":9628,"uv":9629,"Ġdeli":9630,"bad":9631,"Ġpanels":9632,"Ġrelationships":9633,"ĠWild":9634,"Byte":9635,"lers":9636,"ati":9637,"textsf":9638,"Ġoffering":9639,"Ġwitness":9640,"Ġtele":9641,"ĠVirginia":9642,"Ġflo":9643,"ĠSC":9644,"Ġanalyze":9645,"High":9646,"racket":9647,"IVE":9648,"imit":9649,")))":9650,"ĠText":9651,"}.}":9652,"ĠRights":9653,"yes":9654,"lee":9655,"ĠWilliams":9656,"Ġsounds":9657,"ĠKingdom":9658,"language":9659,"Ġrestricted":9660,"Ġspend":9661,"callback":9662,"varrho":9663,"arest":9664,"Ġvideos":9665,"ova":9666,"Ġsimilarly":9667,"fr":9668,"SY":9669,"smallskip":9670,"Ġheav":9671,"\\/":9672,"boolean":9673,"Ġorganizations":9674,"iano":9675,"Ġcovering":9676,"ĠAndrew":9677,"textnormal":9678,"Enabled":9679,"alty":9680,"ĠSign":9681,"problem":9682,"wer":9683,"Rad":9684,"Ġleadership":9685,"evin":9686,"ĠMedical":9687,"Ġnom":9688,"Ġcompre":9689,"Ġsatell":9690,"cpp":9691,"Api":9692,"ressive":9693,"iples":9694,"Ġillustrated":9695,"Ġcoast":9696,"Ġdir":9697,"herit":9698,"Ġdiscussions":9699,"rink":9700,"Ġidentification":9701,"Ġtheme":9702,"ĠUV":9703,"ĠCho":9704,"ÂĢ":9705,"sep":9706,"Ġcomplicated":9707,"admin":9708,"stone":9709,"Ġdefinitely":9710,"wall":9711,"Ġroughly":9712,"ĠParliament":9713,"Ġcrime":9714,"uer":9715,"$^{":9716,"AE":9717,"security":9718,"Copy":9719,"Ġrespond":9720,"notations":9721,"ĠVAL":9722,"ucky":9723,"Ġsale":9724,"ĠAwards":9725,"ĠNO":9726,"Ġexplanation":9727,"Ġmodeling":9728,"Ġbenchmark":9729,"ÂĢÂ":9730,"stop":9731,"Ġellipt":9732,"mock":9733,"Ġrepresentative":9734,"=\\{":9735,"Ġweighted":9736,"ĠBO":9737,"ĠOp":9738,"thlet":9739,"profile":9740,"Ġadvance":9741,"ĠSenate":9742,"Where":9743,"Ġsecure":9744,"ultural":9745,"-->":9746,"ĠTOD":9747,"sem":9748,"Ġbrowser":9749,"ibilities":9750,"Ġclaimed":9751,"Ġprepared":9752,"Mock":9753,"itudes":9754,"ĠNight":9755,"Ġrefere":9756,"Ġalgebraic":9757,"{|":9758,"Ġreads":9759,"Tim":9760,"Ġpresc":9761,"awn":9762,"NC":9763,"correspon":9764,"})^{":9765,"ains":9766,"Ġrequests":9767,"forcement":9768,"pot":9769,"Ġconcerned":9770,"mond":9771,"Ġresearchers":9772,"ito":9773,"ĠUpdate":9774,"rance":9775,"Ġsigns":9776,")>":9777,"illy":9778,"=\"/":9779,"ĠJoe":9780,"Ġbits":9781,"Ġ{{":9782,"ĠGeorg":9783,"Ġ~\\":9784,"ï¿":9785,"irms":9786,"Ġswe":9787,"]^":9788,"Cref":9789,"History":9790,"ĠMen":9791,"Ġ$^{":9792,"Ġquot":9793,"ĠDefinition":9794,"Ġinvestigated":9795,"ĠProcess":9796,"Ġsupporting":9797,"respect":9798,"irds":9799,"Editor":9800,"Ġfermion":9801,"Root":9802,"Ġescape":9803,"Ġpolynomials":9804,"utr":9805,"ĠConference":9806,"!\"":9807,"Ġconvenient":9808,"Init":9809,"racy":9810,"Ġuniqu":9811,"Ġvarying":9812,"ĠLive":9813,"Ġdialog":9814,"iemann":9815,"Ġusage":9816,"dict":9817,"ĠItaly":9818,"ses":9819,"ĠHor":9820,"ĠColl":9821,"ĠMot":9822,"Ġpoll":9823,"particle":9824,"distribution":9825,"cross":9826,"txt":9827,"Ġsudden":9828,"Ġextracted":9829,"Ġconventional":9830,"ĠControl":9831,"Ġpp":9832,"Ġreviews":9833,"Ġchallenging":9834,"operation":9835,"Ġlicense":9836,"Ġcollision":9837,"some":9838,"Ġsharing":9839,"ĠĠčĊ":9840,"ARY":9841,"ĠAdv":9842,"Ġadvent":9843,"ĠKen":9844,"ima":9845,"Ġaccretion":9846,"eval":9847,"Storage":9848,"Ġfindings":9849,"Ġannounce":9850,"Ġhybrid":9851,"hentication":9852,"Ġmathemat":9853,"ĠBet":9854,"Ġpointed":9855,"Ġmenu":9856,"ĠPop":9857,"specific":9858,"wan":9859,"ĠØ":9860,"Ġproduces":9861,"move":9862,"Ġframes":9863,"ĠFood":9864,"fact":9865,"ĠOrgan":9866,"$}}":9867,"Ġfaces":9868,"Ġclock":9869,"1987":9870,"`,":9871,"Ġsimulated":9872,"Ġcontem":9873,"aded":9874,"Ġholding":9875,"dependency":9876,"Ġscan":9877,"OST":9878,"aks":9879,"ifth":9880,"textup":9881,"Ġcompr":9882,"Ġdelivery":9883,"tics":9884,"Ġratios":9885,"Ġimpossible":9886,"Ġrequirement":9887,"Ġshares":9888,"paper":9889,"_,":9890,"Ġrandomly":9891,"Ġisland":9892,"Ġthr":9893,"Ġjson":9894,"erving":9895,"lywood":9896,"Ġspeaking":9897,"razil":9898,"à¸":9899,"ĠPan":9900,"rugs":9901,"ĠNet":9902,"Ġbroadcast":9903,"period":9904,"ï¿½":9905,"Ġorthogonal":9906,"Ġ<=":9907,"Ġnearby":9908,"pan":9909,"ĠMake":9910,"Boolean":9911,"Ġsymbols":9912,"veloper":9913,"Ġmsg":9914,"Ġdisplayed":9915,"Ġok":9916,"Ġclinical":9917,"ĠFOR":9918,"Ġinspired":9919,"eld":9920,"Ġseparated":9921,"Ġdominated":9922,"[$":9923,"Ġcancell":9924,"Ġsubspace":9925,"rev":9926,"essions":9927,"Ġreligious":9928,"PAR":9929,"gery":9930,"cmd":9931,"Fix":9932,"orters":9933,"ĠAff":9934,"padding":9935,"NOT":9936,"Graph":9937,"Ġcref":9938,"MF":9939,",...,":9940,"uid":9941,"ĠWilson":9942,"ĠChristmas":9943,"Ġbuildings":9944,"Ð°Ð":9945,"Ġhaven":9946,"arian":9947,"ĠIndust":9948,"Ġvalidation":9949,"Ġapplies":9950,"Example":9951,"ceil":9952,"Ġholes":9953,"fixed":9954,"Ġprotein":9955,"Ġconsisting":9956,"pay":9957,"front":9958,"Ġaccounts":9959,"Ġjourney":9960,"Ġguitar":9961,"Ġscientific":9962,"ĠPhot":9963,"Ġaccepted":9964,"ĠCNN":9965,"Ġdt":9966,"Ġcapable":9967,"olver":9968,"otten":9969,"1988":9970,"Ġcub":9971,"ĠPenn":9972,"Ġagency":9973,"Ġmal":9974,"Ġmarketing":9975,"aka":9976,"Changed":9977,"Ġenabled":9978,"Ġmusical":9979,"ĠSimilarly":9980,"unnel":9981,"ĠKar":9982,"Ġprotest":9983,"ĠBow":9984,"master":9985,"ICE":9986,"ĠMajor":9987,"ĠMov":9988,"Ġdip":9989,"was":9990,"__(":9991,"Ġinn":9992,"Ġincred":9993,"Rule":9994,"Ġsimultaneously":9995,"Ġsentence":9996,"Obj":9997,"ĠMiddle":9998,"Ġexperiences":9999,"ician":10000,"Ġimmediate":10001,"Ġincorpor":10002,"bootstrap":10003,"nm":10004,".âĢĻ":10005,"ĠCP":10006,"about":10007,"conduct":10008,"Ġreaders":10009,")&":10010,"alloc":10011,"inson":10012,"Ġtotally":10013,"fair":10014,"Ġdepartment":10015,"ĠCorollary":10016,"GG":10017,"Ġpermut":10018,"Ġlose":10019,"ĠPA":10020,"Proposition":10021,"ĠBol":10022,"Ġsurrounding":10023,"ĠOlymp":10024,"ĠFoot":10025,"Ġdistances":10026,"ez":10027,"ĠAndroid":10028,"Ġchair":10029,"hered":10030,"ulner":10031,"shire":10032,"Ġphotos":10033,"}>":10034,"mathtt":10035,"................":10036,"ÙĦ":10037,"Member":10038,"uon":10039,"ĠDesc":10040,"Match":10041,"ione":10042,"Ġdomains":10043,"ĠDivision":10044,"ears":10045,"Ġneither":10046,"Ġplate":10047,"ĠJoseph":10048,"Ġepoch":10049,"ĠAlgorithm":10050,"ĠMuslim":10051,"Ġsan":10052,"utor":10053,"Microsoft":10054,"Del":10055,"Ġlargely":10056,"news":10057,"Well":10058,"Ġlikelihood":10059,"ĠDefault":10060,"ĠKn":10061,"}^+":10062,"Ġslope":10063,"Ġmechanisms":10064,"inds":10065,"single":10066,"Ġmovies":10067,"Ġbatter":10068,"Active":10069,"Ġ'/":10070,"JE":10071,"Rect":10072,"Ġton":10073,"Ġresonance":10074,"Ġissued":10075,"dp":10076,"ĠLore":10077,"Lock":10078,"adoop":10079,"Ġproposition":10080,"Ġfacts":10081,"Every":10082,"ĠPerson":10083,"Ġlinked":10084,"Ġmel":10085,"Ġrealized":10086,"ĠStr":10087,"Ġfacilities":10088,"spring":10089,"ograp":10090,"\\},":10091,"annotation":10092,"ĠPath":10093,"components":10094,"ĠAsia":10095,"midrule":10096,"Î±":10097,"Ġleague":10098,"Ġrid":10099,"Ġtransformations":10100,"Ġcash":10101,"lay":10102,"Ġful":10103,"elian":10104,"mag":10105,"changed":10106,"fony":10107,"KEY":10108,"ĠFire":10109,"including":10110,"Ġapi":10111,"Ġsurve":10112,"ĠImm":10113,"Ġevening":10114,"aset":10115,"Ġsphere":10116,"fire":10117,"Ġcitizens":10118,"Ġsight":10119,"Sw":10120,"Job":10121,"abet":10122,"ĠJustice":10123,"Ġimply":10124,"Ġorganized":10125,"Ġsolved":10126,"Ġchiral":10127,"ienced":10128,"Ġembedded":10129,"ĠForce":10130,"Ġsand":10131,"Ġmere":10132,"Ġroots":10133,"??":10134,"Ġmonot":10135,"Ġrenormal":10136,"'))":10137,"ĠVan":10138,"between":10139,"Ġskin":10140,"ĠCross":10141,"Ġarms":10142,"Space":10143,"Symbol":10144,"aration":10145,"pair":10146,"Ġconsole":10147,"requency":10148,"sid":10149,"items":10150,"Ġsimplicity":10151,"riptions":10152,")_{\\":10153,"edit":10154,"ĠMain":10155,"depth":10156,"than":10157,"shall":10158,"binom":10159,"lean":10160,"Ġbatch":10161,"ĠNever":10162,"ĠAS":10163,"Ġprovider":10164,"tensor":10165,"selected":10166,"Ġcolors":10167,"Global":10168,"vc":10169,"Ġ('":10170,"Ġatomic":10171,"utch":10172,"UD":10173,"ni":10174,"Pop":10175,"issue":10176,"ĠRay":10177,"Photo":10178,"Ġreconstruction":10179,"Ġprefer":10180,"lyph":10181,"Ġhab":10182,"Dav":10183,"Ġregression":10184,"Ġindicating":10185,"Ġcaught":10186,"Ġoptional":10187,"asp":10188,"=\"../../../":10189,"cam":10190,"ĠSaint":10191,"Ġdefect":10192,"Ġbran":10193,"Ġsport":10194,"uler":10195,"ubb":10196,"Ġlanguages":10197,"Ġcosmological":10198,"NT":10199,"Ġboundaries":10200,"ted":10201,"Ġmm":10202,"Ġsensor":10203,"names":10204,"Ġfamiliar":10205,"![":10206,"roke":10207,"vironments":10208,"Ġaccomp":10209,"Ġcovers":10210,"\\}.":10211,"\\|_":10212,"}{}":10213,"Ġproton":10214,"complex":10215,"HECK":10216,"Ġmarkets":10217,"ĠJes":10218,"Ġsurprising":10219,"Ġprefere":10220,"Ġaircraft":10221,"itage":10222,"ĠGre":10223,"ĠGuide":10224,"Ġsumm":10225,"ĠSeason":10226,"Float":10227,"Ġplasma":10228,"Ġcharacterized":10229,"seq":10230,"ragon":10231,"Ġhelping":10232,"HD":10233,"assum":10234,"ĠSat":10235,"iana":10236,"game":10237,"hd":10238,"Most":10239,"ĠPak":10240,"Fields":10241,"Ġvictory":10242,"Ġspectro":10243,"Ġgiant":10244,"Bigg":10245,"Ġcomparing":10246,"ordan":10247,"ĠQCD":10248,"cb":10249,"install":10250,"Ġlaser":10251,"Ġwhenever":10252,"Ġseed":10253,"FAULT":10254,"Ġyouth":10255,"Tests":10256,"ĠCarolina":10257,"nolimits":10258,"XT":10259,"Ġstopped":10260,"Ġenem":10261,"tage":10262,"ĠFederal":10263,"pository":10264,"hole":10265,"protobuf":10266,"ĠHilbert":10267,"Ġinjury":10268,"Msg":10269,"ĠBra":10270,"ĠAccess":10271,"ĠAmericans":10272,"uality":10273,"subequations":10274,"Ġpurchase":10275,"ĠEqs":10276,"Ġtrajectory":10277,"ĠVersion":10278,"unicip":10279,"Ġoccurred":10280,"{.":10281,"separ":10282,"Ġcomparable":10283,"ĠDaniel":10284,"Ġsynchron":10285,"ĠStudies":10286,"ategor":10287,"Oh":10288,"\\,{\\":10289,")}$.":10290,"\\[\\":10291,"ruption":10292,"Ġpixels":10293,"ĠIrish":10294,"ĠRadio":10295,"rend":10296,"antly":10297,"Account":10298,"Ġlay":10299,"Dialog":10300,"dropdown":10301,"Ġmanip":10302,"gments":10303,"Ġloved":10304,"iday":10305,"Lo":10306,"register":10307,"good":10308,"Ġdefining":10309,"SION":10310,"Ġfacility":10311,"citealt":10312,"Ġprogramming":10313,";\\;":10314,"MI":10315,"Ġng":10316,"Ġedition":10317,"Ġirreducible":10318,"ĠLiber":10319,"Ġ\\{\\":10320,"ĠAdminist":10321,"Ġabsolutely":10322,"nel":10323,"Ġbid":10324,"ĠTw":10325,"lg":10326,"itan":10327,"cceed":10328,"Ġcommonly":10329,"Ġcuts":10330,"Cap":10331,"Term":10332,"ancel":10333,"bigcup":10334,"Ġconditional":10335,"ĠSche":10336,"rf":10337,"agers":10338,"Ġcopies":10339,"fly":10340,"adium":10341,"disc":10342,"thread":10343,"inator":10344,"Ġlived":10345,"Ġexecutive":10346,"ĠRight":10347,"Timeout":10348,"Ġadvice":10349,"Package":10350,"plugins":10351,"aneous":10352,"AF":10353,"Ġamplitudes":10354,"through":10355,"ĠHard":10356,"ĠBeach":10357,"Ġbinding":10358,"ortion":10359,"Ġbug":10360,"prise":10361,"RC":10362,"Ġcomprehen":10363,"ĠDat":10364,"}[!":10365,"Queue":10366,"iner":10367,"Ġliber":10368,"Conf":10369,"Ġaug":10370,"vo":10371,"ĠWalk":10372,"Ġprev":10373,"unsigned":10374,"Ġpresentation":10375,"Ġstabil":10376,"Ġcrisis":10377,"Ġfellow":10378,"Yes":10379,"patch":10380,"Ġmanage":10381,"ĠEnvironment":10382,"ste":10383,"Ġrobot":10384,"GO":10385,"ĠTerm":10386,"eron":10387,"esome":10388,"ĠRail":10389,"ĠDonald":10390,"primary":10391,"ĠDar":10392,"}\"":10393,"Ġdecide":10394,"çļ":10395,"ouds":10396,"Ġstanding":10397,"Ġactor":10398,"Ġped":10399,"Ġflows":10400,"Ġinterpol":10401,"raq":10402,"Ġofficers":10403,"sumer":10404,"Many":10405,"leqslant":10406,"Send":10407,"EP":10408,"Ġrom":10409,"Ġconflict":10410,"bell":10411,"Ġpot":10412,"Ġseat":10413,"Ġfiction":10414,"independent":10415,"Ġpractices":10416,"Ġinduction":10417,"NotNull":10418,"Ġhardware":10419,")--(":10420,"brane":10421,"simple":10422,"]=":10423,"ĠSup":10424,".*":10425,"Ġkinetic":10426,"Ġpal":10427,"ĠMu":10428,"Ġuniversity":10429,"ĠEquation":10430,"çļĦ":10431,"Ġalgebras":10432,"Display":10433,"onto":10434,"uable":10435,"counter":10436,"hook":10437,"Ġphotons":10438,"oped":10439,"General":10440,"eah":10441,"Ġfragment":10442,"wait":10443,"fail":10444,"record":10445,"Ġdebate":10446,"Ġinstanceof":10447,"GP":10448,"Bbb":10449,"ĠBritain":10450,"olutions":10451,"Ġinstalled":10452,"Ġignore":10453,"Ġesc":10454,"Ġfish":10455,"})=\\":10456,"Ġangles":10457,"ĠVideo":10458,"ĠToday":10459,"defn":10460,"generated":10461,"INFO":10462,"Ġstationary":10463,"Ġbare":10464,"Ġlogic":10465,"Ġordinary":10466,"Perm":10467,"People":10468,"Ġassociation":10469,"Ġyes":10470,"AY":10471,"%,":10472,"Ġcreative":10473,"ApJ":10474,"Ġinfrastructure":10475,"stud":10476,"Ġfeat":10477,"nam":10478,"Ġtracking":10479,"KS":10480,"Ġconservation":10481,"ipping":10482,"Ġexit":10483,"ĠCustom":10484,"Ġcomposed":10485,"Ġforget":10486,"aton":10487,"coll":10488,"Media":10489,"1986":10490,"Ġneighb":10491,"blockList":10492,"Ġfell":10493,"ivered":10494,"FILE":10495,"ĠGirl":10496,"ĠFurther":10497,"echo":10498,"MOD":10499,"abric":10500,"triangle":10501,"Ġjavax":10502,"Ġinference":10503,"130":10504,"Ġputting":10505,"ĠCS":10506,"Ġmurder":10507,"aux":10508,"Ġstorm":10509,"Ġbary":10510,"Ã§":10511,"ĠRepublican":10512,"ĠKim":10513,"ĠTrust":10514,"Ġhonest":10515,"Ben":10516,"ĠSteve":10517,")}$,":10518,"ĠCoast":10519,"Ġfiber":10520,"ĠPRO":10521,"Phone":10522,"ĠĠĠĠĠĠĠĠĠĠĠĠĠĠĠĠĠĠĠĠĠĠĠĠĠĠ":10523,"Rest":10524,"Ġcouplings":10525,"kt":10526,"]:":10527,"Ġprobe":10528,"Security":10529,"GM":10530,"jet":10531,"ĠSaf":10532,"Ġlogarith":10533,"Best":10534,"Ġpriv":10535,"Ġhumans":10536,"Dr":10537,"ĠFalse":10538,"Extension":10539,"Ġqueue":10540,"ONE":10541,"orient":10542,"lights":10543,"ĠFour":10544,"ĠTheatre":10545,"century":10546,"Ġce":10547,"iy":10548,"Ġ{$\\":10549,"}\\;":10550,"ican":10551,"cerning":10552,"uclide":10553,"ĠMC":10554,"Ġinternet":10555,"Ġintervals":10556,"ULE":10557,"Sn":10558,"ĠTask":10559,"ĠItalian":10560,"Scope":10561,"EXT":10562,"ĠBell":10563,"Ġrecip":10564,"Ġcompens":10565,"ĠMic":10566,"perature":10567,"Ġking":10568,"Ġreceiving":10569,"Ġanimal":10570,"Ġchecked":10571,"ĠNav":10572,"Ġexpensive":10573,"Furthermore":10574,"Ġensemble":10575,"Ġexposure":10576,"Ġ\\}":10577,"erset":10578,"TABLE":10579,"oned":10580,"Ñı":10581,"dashed":10582,"Ġbelieved":10583,"BH":10584,"Ġstages":10585,"Ġsimilarity":10586,"Because":10587,"Ġcoal":10588,"Total":10589,"Free":10590,"Ġvort":10591,"Ġbelongs":10592,"Ġconsideration":10593,"rable":10594,"ĠMid":10595,"Ġinform":10596,"ĠLittle":10597,"addr":10598,"Ġminute":10599,"Ġmedian":10600,"queue":10601,"ĠBlock":10602,"Ġextensive":10603,"Ġadjacent":10604,"Ġabundance":10605,"ĠMcC":10606,"->_":10607,"scriptscriptstyle":10608,"oval":10609,".(\\":10610,"Ġhousing":10611,"ĠWhere":10612,"Ġtechnologies":10613,"gov":10614,"cules":10615,"uby":10616,"Ġdivision":10617,"save":10618,"enance":10619,"rival":10620,"series":10621,"Ġseek":10622,"Ġexhibit":10623,"newline":10624,"Transaction":10625,"Ġfacilit":10626,"Ġbodies":10627,"~~~~~~~~":10628,"ĠWin":10629,"Ġvir":10630,"ĠAssembly":10631,"craft":10632,"Ġprompt":10633,"Ġnarr":10634,"ĠMaster":10635,"Ġhandler":10636,"ĠIndex":10637,"ĠHom":10638,"ĠBan":10639,"Ġrend":10640,"Ġanisot":10641,"Ġvoc":10642,"Ġgift":10643,"Ġpartially":10644,"Ġaccident":10645,"Ġdestination":10646,"tically":10647,"ango":10648,"Widget":10649,"ĠMO":10650,"Ġchapter":10651,"ĠJava":10652,"MAX":10653,"Ġconformal":10654,"plain":10655,"Ġengineering":10656,"ĠCatholic":10657,"Sur":10658,"$/":10659,"Ġbigger":10660,"Public":10661,"Ġwallet":10662,"\\}_{":10663,"}},\\":10664,"ĠĠĠĠĠĠĠĠĠĠĠĠĠĠĠĠĠĠĠĠĠĠĠĠĠĠĠĠĠ":10665,")\">":10666,"orough":10667,"ĠJewish":10668,"Ġproposal":10669,"1984":10670,"ĠWrit":10671,"controller":10672,"ĠProperty":10673,"Ġguard":10674,"Ġ\\|\\":10675,"Ġhearing":10676,"ĠBrad":10677,"ĠAnalysis":10678,"Ġstructural":10679,"owski":10680,"Ġcart":10681,"ĠExample":10682,"Bigl":10683,"1985":10684,"ĠFox":10685,"Ġfeas":10686,"ERE":10687,"Ġcorrectly":10688,"late":10689,"Ġconsumer":10690,"above":10691,"Ġentered":10692,"Look":10693,"Ġposterior":10694,"Gr":10695,"Feature":10696,"ĠDemocratic":10697,"HA":10698,"Ġdropped":10699,"ĠHa":10700,"ĠAst":10701,"uclidean":10702,"aug":10703,"ĠSep":10704,"Bit":10705,"ĠGi":10706,",.":10707,"rays":10708,"chester":10709,"Ġasking":10710,"Ġgreatest":10711,"pson":10712,"Ġcollapse":10713,"World":10714,"^+$":10715,"approxim":10716,"DI":10717,"ĠRom":10718,"Ġdisappe":10719,"intro":10720,"Ġprimarily":10721,"Ġabuse":10722,"Ġsteady":10723,"ĠRa":10724,"ĠProfessor":10725,"ĠStandard":10726,"Ġrapidly":10727,"inating":10728,"Ġsucceed":10729,"Ġgenerators":10730,"ipe":10731,"Ġ..":10732,"Ġsubsection":10733,"flat":10734,"âĢĻ.":10735,"password":10736,"Ġplants":10737,"ĠSom":10738,"ĠIV":10739,"heric":10740,"Ġcounts":10741,"Plan":10742,"gypt":10743,"issions":10744,"ĠAGN":10745,"sys":10746,"(!":10747,"ĠBa":10748,"ĠGar":10749,"ĠDou":10750,"Ġslowly":10751,"Ġmental":10752,"Pool":10753,"XML":10754,"suit":10755,"Ġpit":10756,"amber":10757,"iration":10758,"constant":10759,"ĠHaw":10760,"Ġera":10761,"Recall":10762,"Ms":10763,"ĠNAS":10764,"Imp":10765,"SN":10766,"endent":10767,"resize":10768,"Ġlabeled":10769,"Once":10770,"Ġcircumst":10771,"Ġfeels":10772,"oked":10773,"Found":10774,"Ġsituations":10775,"ipher":10776,"ĠPacific":10777,"abeth":10778,"ĠGets":10779,"account":10780,"configuration":10781,"take":10782,"Ġdance":10783,"Ġdescribing":10784,"|_":10785,"ĠLearning":10786,"Summary":10787,"Ġinstruction":10788,"Ġisolated":10789,"Ġtypename":10790,"Ġempirical":10791,"Spe":10792,"Ġles":10793,"JSON":10794,"Ġmoder":10795,"ĠNode":10796,"ĠFrancisco":10797,"_->":10798,"Comment":10799,"Ġschedule":10800,"Ġfails":10801,"}<":10802,"Ġfake":10803,"ĠJackson":10804,"scroll":10805,"eh":10806,"ĠThree":10807,"Ġmanufacture":10808,"Mr":10809,"hadoop":10810,"Ġfavour":10811,"ixel":10812,"tered":10813,"ila":10814,"Ġpseudo":10815,"ĠYes":10816,"ĠðŁ":10817,"apply":10818,"physical":10819,"âĢĻ,":10820,"Ġnewly":10821,"ĠCa":10822,"Ġawait":10823,"Ġperiods":10824,"Ġtack":10825,"Ġnavigation":10826,"ami":10827,"scious":10828,"cluster":10829,"rg":10830,"ĠFull":10831,"Ġacid":10832,"idal":10833,"UV":10834,"Internal":10835,"Ġcav":10836,"Directory":10837,"Ġindependently":10838,"Ġcaptured":10839,"determ":10840,"analy":10841,"Ġscr":10842,"Bigr":10843,"Ġeigenvalue":10844,"\">&":10845,"rovers":10846,"ĠHenry":10847,"Ġhotel":10848,"}~\\":10849,"Ġpatch":10850,"Please":10851,"News":10852,"ulf":10853,"ĠCopyright":10854,"ĠStan":10855,"tip":10856,"ĠCorporation":10857,"@\"":10858,"proto":10859,"Ġobviously":10860,"Ear":10861,"oster":10862,"Ġharmonic":10863,"analysis":10864,"Ġconverges":10865,"Ġexperienced":10866,"Ġbriefly":10867,"isa":10868,"arial":10869,"Ġintegers":10870,"Ġ(+":10871,"ETHOD":10872,"Ġfighting":10873,"Ġexpanded":10874,"deep":10875,"ĠDigital":10876,"OUT":10877,"Ġpulse":10878,"ĠClear":10879,"Ġimplicit":10880,"pet":10881,"idential":10882,"Ġsmallest":10883,"basic":10884,"olving":10885,"Ġchart":10886,"Ġwilling":10887,"Ġspecify":10888,"phe":10889,"Ġfort":10890,"Ġdecreasing":10891,"loss":10892,"ĠSouthern":10893,"ĠSher":10894,"Ġamounts":10895,"achment":10896,"Ġguarantee":10897,"creen":10898,"^*_":10899,"}{*}{":10900,"ĠDub":10901,"Ġvent":10902,"ĠPhoto":10903,"Ġarrived":10904,"Ġmess":10905,"105":10906,"700":10907,"UID":10908,"ĠPDF":10909,"PG":10910,"Ġestimator":10911,".;":10912,"umul":10913,"Ġsoul":10914,"Ġadds":10915,"ĠSpanish":10916,"_{-\\":10917,"Bound":10918,"ĠTri":10919,"Ġbridge":10920,"Ġturbul":10921,".[":10922,"rine":10923,"Ġtradition":10924,"ĠSoftware":10925,"Ġattached":10926,"Î¿":10927,"switch":10928,"Ġexplains":10929,"Ġheter":10930,"ĠAdam":10931,"isodes":10932,"Ġreducing":10933,"alaxy":10934,"OB":10935,"ĠFermi":10936,"Ġrefers":10937,"ĠÂ·":10938,"Ġbars":10939,"Ġdivis":10940,"Ġfeatured":10941,"ĠLabor":10942,"|_{\\":10943,"Ġhtml":10944,"ĠSciences":10945,"Ġfunc":10946,"asketball":10947,"Ġeat":10948,"oir":10949,"Ġrain":10950,"Ġunitary":10951,"ĠChildren":10952,"Ġplanned":10953,"Sem":10954,"Ġcrowd":10955,"ĠMonte":10956,"ĠSwed":10957,"Ġlayout":10958,"akers":10959,"Ġplotted":10960,"Ġgeneralization":10961,"Ġpromin":10962,"Ġrecovery":10963,"iro":10964,"Ġhomes":10965,"Ġcha":10966,"Ġbow":10967,"Ġatom":10968,"Statement":10969,"Ġimaging":10970,"ĠSus":10971,"Ġrealistic":10972,"Ġsending":10973,"Ġposts":10974,"Ġbath":10975,"Ġjustice":10976,"Ġpipeline":10977,"Ġorbits":10978,"ador":10979,"valued":10980,"typeof":10981,"Video":10982,"Ġatmosphere":10983,"expand":10984,"Ġdil":10985,"tex":10986,"orry":10987,"\"`":10988,"Ġafford":10989,"Ġregional":10990,"Ġalleged":10991,"eman":10992,"ĠSI":10993,"contains":10994,"Ġcreates":10995,"ailability":10996,"Abstract":10997,"ĠEst":10998,"Ġbringing":10999,"given":11000,"ĠOnline":11001,"Ġcreat":11002,"1960":11003,"Ġremained":11004,"may":11005,"below":11006,"Ġmort":11007,"ĠBE":11008,"Ġinterests":11009,"CI":11010,"Ġgender":11011,"Ġenvironments":11012,"Ġcompletion":11013,"Ġresolve":11014,"ĠGrant":11015,"Ġterminal":11016,"ĠStory":11017,"Ġspherical":11018,"ativity":11019,"Ġstrugg":11020,"assertEquals":11021,"Ġfunctor":11022,"\")]":11023,"Ġdiverse":11024,"Matrix":11025,"Ġrecording":11026,"Ġment":11027,"Ġsister":11028,"renew":11029,"sun":11030,"ificial":11031,"cludes":11032,"ITE":11033,"Ġimplements":11034,"ĠNa":11035,"engers":11036,"isen":11037,"ĠHospital":11038,"Ġreconstruct":11039,"Ġpars":11040,"stats":11041,"oral":11042,"RS":11043,"ĠBoston":11044,"Ġmarriage":11045,"IGHT":11046,"Seg":11047,"perturb":11048,"Ġgeodes":11049,"Ġstations":11050,"Ġbaby":11051,"=\"\">":11052,"factor":11053,"111":11054,"Ġpassion":11055,"Ġwarning":11056,"Mc":11057,"Ġinflation":11058,"During":11059,"ĠTer":11060,"opher":11061,"Ġdb":11062,"Ġcontribut":11063,"press":11064,"Ġnewsp":11065,"Ġplots":11066,"ĠJacob":11067,"eties":11068,"ourse":11069,".__":11070,"Lin":11071,"Ġvulner":11072,"Ġsole":11073,"ĉĉĉĉĉĉĉĉĉ":11074,"Flags":11075,"Ġgather":11076,"NULL":11077,"Ġaccompl":11078,"Ġviewed":11079,"Ġreverse":11080,"Print":11081,"esterday":11082,"standard":11083,"*\\":11084,"Cur":11085,"osa":11086,"Ġwinner":11087,"Ġcommission":11088,"Ġcrew":11089,"ĠThrough":11090,"coq":11091,"ĠFred":11092,"taining":11093,"quote":11094,"triang":11095,"Ġpropagation":11096,"shell":11097,"dual":11098,"logger":11099,"learning":11100,"ĠNorthern":11101,"Ġdecays":11102,"Ġacknowled":11103,"Ġscenes":11104,"Ġdeploy":11105,"Ġcas":11106,"Ġcommitted":11107,"Ġdecade":11108,"Ġpointer":11109,"'$.":11110,"ĠAD":11111,"ĠON":11112,"Ġrecurs":11113,"Supp":11114,"Ġturning":11115,"=-\\":11116,"ansas":11117,"360":11118,"ulty":11119,"ego":11120,"expect":11121,"Ġpercentage":11122,"oking":11123,"Ġbuilder":11124,"HL":11125,"Ġstick":11126,"external":11127,"Ġvolunte":11128,"gets":11129,"Ġshooting":11130,"TF":11131,"Ġproud":11132,"Ġinvalid":11133,"ĠFair":11134,"Ġups":11135,"Ġrevers":11136,"agnostic":11137,"112":11138,"Ġcere":11139,"Ġnan":11140,"Ġride":11141,"Ġchoosing":11142,"kw":11143,"Pay":11144,"Ġprobabilities":11145,"ĠResults":11146,"ĠDirac":11147,"Ġsuit":11148,"Ġaddresses":11149,"written":11150,"ntz":11151,"Ġparam":11152,"Ġadvoc":11153,"rob":11154,"Ġspacetime":11155,"erts":11156,"jk":11157,"Comput":11158,"ĠSystems":11159,"Ġenhanced":11160,"Ġvirt":11161,"SW":11162,"Ġisomorphic":11163,"driv":11164,"bow":11165,"ĠPoisson":11166,"Ġaid":11167,"ocker":11168,"Ġhundreds":11169,"Ġcounterpart":11170,"engine":11171,"uda":11172,"BD":11173,"ĠHas":11174,"ONG":11175,"anna":11176,"Ġroles":11177,"Ġresponses":11178,"aled":11179,"Ġcooling":11180,"weak":11181,"ĠBrazil":11182,"ĠBroad":11183,"Ġ[[":11184,"ĠLtd":11185,"Ġinterference":11186,"JECT":11187,"Ġpossess":11188,"Ġindustrial":11189,"ĠConf":11190,"USE":11191,"Ġarise":11192,"redu":11193,"ĠML":11194,"ĠSearch":11195,"ĠOrder":11196,"Ġclustering":11197,"Ġshadow":11198,"++;":11199,"Ġwealth":11200,"lapse":11201,"Ġ&$":11202,"asters":11203,"Ã¨":11204,"transition":11205,"\\,,":11206,"Ġassembly":11207,"\"/":11208,"Ġiterations":11209,"Ġattempts":11210,"ĉčĊ":11211,"{%":11212,"Ġcancel":11213,"throws":11214,"Ġsees":11215,"ĠÂ©":11216,"unting":11217,"Ġanalyzed":11218,"former":11219,"Pack":11220,"Previous":11221,"Ġtalks":11222,"Windows":11223,"[:":11224,"vdots":11225,"ordinate":11226,"herited":11227,"icial":11228,"Ġtrunc":11229,"ĠRecords":11230,"shop":11231,"Ġforth":11232,"ĠBoy":11233,"elle":11234,"poss":11235,"Ġconsumption":11236,"Constraint":11237,"ĠResource":11238,"ĠBBC":11239,"140":11240,"Ġloaded":11241,"Ġconversion":11242,"ĠMatt":11243,"Ġprocedures":11244,"WH":11245,"ĠSem":11246,"Ġsplitting":11247,"ĠEmp":11248,"Ġconversation":11249,"ĠAI":11250,"Ġoutputs":11251,"ĠMean":11252,"Ġwalls":11253,"Ġreserved":11254,"Ġpreced":11255,"Upsilon":11256,"Ġdict":11257,"ĠKnow":11258,"Ġgene":11259,"Ġrely":11260,"Files":11261,"ĠBrook":11262,"Ġcircular":11263,"Ġdelivered":11264,"Ġexperts":11265,"ĠNC":11266,"======":11267,"ĠColumb":11268,"schema":11269,"_{[":11270,"ymer":11271,")));":11272,"Ġreliable":11273,"present":11274,"ĠRiemann":11275,"Ġlimitations":11276,"}}=\\":11277,"ĠPrime":11278,"Ġvanishes":11279,"Ġclosure":11280,"Ġurban":11281,"ogy":11282,"ĠRen":11283,"Ġpayment":11284,"Ġsnow":11285,"âĢī":11286,"Ġmonitoring":11287,"*)":11288,"ĠGovern":11289,"etary":11290,"Ġtransmit":11291,"ĠWatch":11292,"ĠPrem":11293,"fx":11294,"Ġnormalization":11295,"Ġaugment":11296,"Ġdangerous":11297,"Ġstores":11298,"Ġdiscovery":11299,"Ġneglig":11300,"views":11301,"EV":11302,"UC":11303,"Ġdoub":11304,"Ġowned":11305,"Ġcro":11306,"LOG":11307,"ĠIl":11308,"ĠĠĠĠĠĠĠĠĠĠĠĠĠĠĠĠĠĠĠĠĠĠĠĠĠĠĠĠ":11309,"SIZE":11310,"Star":11311,"Ġdistinguish":11312,"Based":11313,"ĠJr":11314,"Py":11315,"Iterator":11316,"Ġenables":11317,"Ġargue":11318,"assertEqual":11319,"Ġintrinsic":11320,"Ġdiscret":11321,"sequence":11322,"notin":11323,"Ġaccord":11324,"Ġproducing":11325,"gi":11326,"oust":11327,"Ġsac":11328,"izz":11329,"Ġcycles":11330,"vision":11331,"Ġrear":11332,"\",\"":11333,"Â°":11334,"Logger":11335,"READ":11336,"Ġmount":11337,"three":11338,"Ġconfigure":11339,"ookie":11340,"Ret":11341,"Ġquiet":11342,"bury":11343,"Dem":11344,"iline":11345,"eros":11346,"Ġfrequently":11347,"Ġfly":11348,"Ġintelligence":11349,"flags":11350,"Ġtrig":11351,"Ġlists":11352,"ĠCommon":11353,"Success":11354,"solid":11355,"anta":11356,"Ġserves":11357,"ĠFinal":11358,"likely":11359,"Even":11360,"WR":11361,"ĠCollection":11362,"Ġretail":11363,"Ġfault":11364,"lm":11365,"Ġkinem":11366,"ĠPH":11367,"teen":11368,"\\|^":11369,"uity":11370,"Ġending":11371,"Ġinsurance":11372,"Ġmacro":11373,"cluding":11374,"Ġletters":11375,"gray":11376,"Ġranges":11377,"ĠEric":11378,"ĠPut":11379,"$_{\\":11380,"ĠHD":11381,"lementation":11382,"Clear":11383,"sa":11384,"ĠSky":11385,"_(":11386,"manager":11387,"Ġwelcome":11388,"upp":11389,"Items":11390,"ĠCOM":11391,"Ġcollisions":11392,"uli":11393,"ĠIraq":11394,"Fail":11395,"Close":11396,"aze":11397,"Ġpreferred":11398,"ĠObserv":11399,"Ġdiffer":11400,"()));":11401,"Ġfactory":11402,"fg":11403,"Ġpictures":11404,"bolic":11405,"ĠArea":11406,"Ġcircles":11407,"outs":11408,"Category":11409,"~(":11410,"Ġmo":11411,"Ġteen":11412,"ĠNick":11413,"Ġhits":11414,"Ġancient":11415,"osophy":11416,"ĠElement":11417,"cycle":11418,"atar":11419,"Loader":11420,"Ġnegot":11421,"Grid":11422,"ĠScholar":11423,"Ġanalytical":11424,"Ġunable":11425,"potential":11426,"Ġadministr":11427,"worth":11428,"listing":11429,"ĠOption":11430,"Ġdrugs":11431,"Ġobst":11432,"Ġpopulations":11433,";/":11434,"Ġbag":11435,"Ġchampions":11436,"symbol":11437,"ulas":11438,"Ġcyl":11439,"Ġriver":11440,"ĠCirc":11441,"Ġcraft":11442,"ĠSea":11443,"Details":11444,"102":11445,"Ġcollaboration":11446,"ĠDNA":11447,"Ġsear":11448,"Ġven":11449,"ĠLow":11450,"noon":11451,"burgh":11452,"Events":11453,"ownt":11454,"izabeth":11455,"ĠPay":11456,"Ġvast":11457,"vertex":11458,"theory":11459,"Bre":11460,"ori":11461,"ĠUnivers":11462,"Ġpriority":11463,"mathds":11464,"Ġcookies":11465,"ennis":11466,"Ġconcepts":11467,"BT":11468,"eral":11469,"Ġmit":11470,"wp":11471,"Ġtum":11472,"Ġburst":11473,"Ġmarginal":11474,")}_{\\":11475,"obe":11476,"Ġexciting":11477,"poly":11478,"Ġdwar":11479,"twitter":11480,"ccc":11481,"Ġexamine":11482,"printf":11483,"Ġproven":11484,"ĠĠĠĠĠĠĠĠĠĠĠĠĠĠĠĠĠĠĠĠĠĠĠĠĠĠĠĠĠĠĠĠĠĠĠĠĠĠĠĠĠĠĠ":11485,"Frag":11486,"Ġsin":11487,"ĠWat":11488,"Ġconsistency":11489,"ĠCost":11490,"Ġtrajectories":11491,"Contact":11492,"Ġpacket":11493,"ĠQueen":11494,"Ġincreasingly":11495,"rying":11496,"Ġstim":11497,")|\\":11498,"itting":11499,"Ġmil":11500,"Ġtruck":11501,"Ġreporting":11502,"safe":11503,"Ġelected":11504,"Ġdiagn":11505,"ampion":11506,"Ġspending":11507,"Ġdiversity":11508,"month":11509,"ÏĦ":11510,"rons":11511,"ĠCas":11512,"Ġauthority":11513,"ĠSecretary":11514,"ipart":11515,"Ġarrang":11516,"Ġprogramme":11517,"Ġprefix":11518,"Ġapproved":11519,"Ġoutcomes":11520,"Ġcorrespondence":11521,"Ġseparately":11522,"ĠFuture":11523,"ĠCapt":11524,"ĠDark":11525,"Ġcriterion":11526,"incre":11527,"riers":11528,"ĠTurn":11529,"Ġaccommod":11530,"reement":11531,"Ġstudio":11532,"ository":11533,"}})$":11534,"ĠSn":11535,"Ġequals":11536,"Ġcontradiction":11537,"bytes":11538,"Ġforecast":11539,"Ġtourn":11540,"Acknowled":11541,"Proxy":11542,"Generic":11543,"ographer":11544,"sig":11545,"ju":11546,".},":11547,"1983":11548,"ĠBooks":11549,"Ġperturbations":11550,"ĠBal":11551,"adel":11552,"rapped":11553,"CV":11554,"Ġresistance":11555,"ĠMarket":11556,"lr":11557,"Ġkit":11558,"Double":11559,"reset":11560,"Ġbreath":11561,"Ġrevenue":11562,"Ġconsequences":11563,"fd":11564,"lectic":11565,"iterator":11566,"Ġspons":11567,"hidden":11568,"ĠKorea":11569,"ilipp":11570,"Ġpeaks":11571,"isition":11572,"Edit":11573,"ĠBand":11574,"ĠCru":11575,"Ġdetermines":11576,"ivation":11577,"ĠSummer":11578,"Ġexplos":11579,"rn":11580,"Ġbott":11581,"Ġresponsibility":11582,"Ġreflection":11583,"Cho":11584,"elines":11585,"Ġcoherent":11586,"Multi":11587,"Ġaccessible":11588,"Auto":11589,"Ġtables":11590,"ĠRyan":11591,"Ġplenty":11592,"Ġ[];":11593,"appoint":11594,"aki":11595,"shadow":11596,"ĠBefore":11597,"Ĥ¬":11598,"flex":11599,"Ġiron":11600,"Ġreceiver":11601,"vskip":11602,"Ġexercise":11603,"herence":11604,"Ġfulfill":11605,"Ġoverlap":11606,"Ġcontents":11607,"ĠMarkov":11608,"Ġcrossing":11609,"Ġsurprise":11610,"Ø±":11611,"Ġpromise":11612,"Ġperforms":11613,"ĠFIG":11614,"Ġmatters":11615,"dings":11616,"conc":11617,"entials":11618,"ĠIss":11619,"Panel":11620,"Ġhealthy":11621,"Ġstudying":11622,"children":11623,"Tube":11624,"Your":11625,"ensors":11626,"nic":11627,"Ġrestaurant":11628,"Ġscored":11629,"Ġ(_":11630,"tb":11631,"Ġpun":11632,"ById":11633,"constraint":11634,"Activity":11635,"identifier":11636,"isy":11637,"Ġultimately":11638,"trace":11639,"Ġprospect":11640,"ĠFind":11641,"Ġlots":11642,"folio":11643,"Intern":11644,"Ġthoughts":11645,"Mer":11646,"bled":11647,"tools":11648,"Ġpump":11649,"Ġterrit":11650,"bounded":11651,"Ġkinds":11652,"Day":11653,"Ġmob":11654,"ĠOl":11655,"Ġcovariance":11656,"ti":11657,"Ġgar":11658,"Ġcone":11659,"Ġextensions":11660,"mathbbm":11661,"Ġequally":11662,"ĠCamb":11663,"ĠSupp":11664,"Ġordering":11665,"Real":11666,"ĠHistor":11667,"Ġfairly":11668,"ĠStephen":11669,"perimental":11670,"vy":11671,"Ġcommittee":11672,"Ġtopics":11673,"homology":11674,"dynamic":11675,"Ġ$<":11676,"Ġauthorities":11677,"Ġactivation":11678,"åı":11679,")=(":11680,"Ġsuspect":11681,"Auth":11682,"istically":11683,"ĠTake":11684,"Ġassessment":11685,"Ġmodify":11686,"BUG":11687,"Har":11688,"Ġna":11689,"Ġsad":11690,"renewcommand":11691,"')$":11692,"Ġassets":11693,"Ġvelocities":11694,"Ġourselves":11695,"ĠChange":11696,"Ġsubjects":11697,"Ang":11698,"Ġfle":11699,"idx":11700,"ĠConfig":11701,"watch":11702,"plates":11703,"Named":11704,"Ġwalking":11705,"Ġlosses":11706,"Ġwriters":11707,"ynchron":11708,"Ġpromote":11709,"ĠEngineering":11710,"ĠSP":11711,"Ġtelling":11712,"ĠSym":11713,"Ã³n":11714,"ĠTy":11715,"Ġexponent":11716,"encing":11717,"Ġgenerates":11718,"phia":11719,"Ġteaching":11720,"orous":11721,"Ġpublication":11722,"Ġresc":11723,"Ġho":11724,"ĠBad":11725,"1982":11726,"ĠRog":11727,"gon":11728,"Ġelev":11729,"uniform":11730,"Ġhelpful":11731,"Scroll":11732,"Ġau":11733,"Ġpermission":11734,"ĠCro":11735,"Ġapparently":11736,"Ġha":11737,"ĠBox":11738,"Ġdissip":11739,"ea":11740,"oser":11741,"Ġacademic":11742,"}))":11743,"unes":11744,"Ġtranslate":11745,"volume":11746,"alks":11747,"Ġlib":11748,"Ġsemantic":11749,"Ġdefend":11750,"Ġreveals":11751,"lined":11752,"Ġweakly":11753,"dark":11754,"Ġelections":11755,"role":11756,"Ġfee":11757,"measure":11758,"Ġaffine":11759,"zone":11760,"git":11761,"%%%%":11762,"Product":11763,"ogether":11764,"ĠEgypt":11765,"Â©":11766,"Ġneur":11767,"Ġcorporate":11768,"Ġhook":11769,"horizontal":11770,"ĠCL":11771,"Ġdeaths":11772,"brief":11773,"Ġinvention":11774,"ĠHo":11775,")|^":11776,"Ġsparse":11777,"IPT":11778,"ĠOpt":11779,"Ġimagine":11780,"Ġmagazine":11781,"Ġcounty":11782,"ĠLim":11783,"Comparison":11784,"ĠSpain":11785,"Ġsaved":11786,"OF":11787,"Ġrealize":11788,"Ġinterpreted":11789,"heast":11790,"ools":11791,"Ġrecognized":11792,"Ġperman":11793,"vable":11794,"prefix":11795,"rieved":11796,"Common":11797,"endor":11798,"Report":11799,".}\\":11800,"Ġaccum":11801,"details":11802,"=[":11803,"Est":11804,"pling":11805,"rea":11806,"SER":11807,"Ñĭ":11808,"ĠAsh":11809,"ĠBul":11810,"ĠRod":11811,"Ġmissed":11812,"Ġrent":11813,"})_{":11814,"VERSION":11815,"Ġtriang":11816,"ĠBrand":11817,"ĠProduct":11818,"Ġhate":11819,"Memory":11820,"pow":11821,"rolled":11822,"Ġtriangle":11823,"ĠTE":11824,"mix":11825,"Ġadmit":11826,"Protocol":11827,"equence":11828,"Ġlegend":11829,"unique":11830,"essel":11831,"Ġpassword":11832,"Ġillustrate":11833,"lab":11834,"Jan":11835,"SQL":11836,"ĠPri":11837,"|=":11838,"&$":11839,"Ġcert":11840,"iamond":11841,"ĠDR":11842,"Ġopacity":11843,"ospit":11844,"kh":11845,"Si":11846,"Ġpray":11847,"trim":11848,"ĠCivil":11849,"blog":11850,"ĠMichigan":11851,"oidal":11852,"Ġjudge":11853,"ĠVari":11854,"Stud":11855,"LECT":11856,"'}\\":11857,"substack":11858,"Ġinsight":11859,"Ġserving":11860,"Ġ{{\\":11861,"ishop":11862,"closure":11863,"Ġutility":11864,"enable":11865,"Ġbtn":11866,"Ġperfectly":11867,"'])":11868,"expr":11869,"ĠCart":11870,"'$,":11871,"Ġrenew":11872,"Ġexecute":11873,"Ġongoing":11874,"jar":11875,"itely":11876,"Ġpitch":11877,"Runtime":11878,"Ġsouthern":11879,"report":11880,"################":11881,"Ġweapons":11882,"dz":11883,"Ġadmits":11884,"Ġdebug":11885,"INS":11886,"Ġsegmentation":11887,"Writ":11888,"ĠCurrent":11889,"ĠScottish":11890,"ned":11891,"Ġshop":11892,"NavBarCell":11893,"icious":11894,"Ġwa":11895,"job":11896,"Ġarrested":11897,"ĠCat":11898,"Ġaims":11899,",~":11900,"Ġinvert":11901,"ryption":11902,"Ġreplacing":11903,"Ġconsec":11904,"PER":11905,"Register":11906,"dc":11907,"ĠChampionship":11908,"ocy":11909,"try":11910,"feature":11911,"Ġdisjoint":11912,"ĠMah":11913,"stage":11914,"Ġhandling":11915,"Ġsubstantial":11916,"Ġassignment":11917,"Ġconsumers":11918,"because":11919,"Ps":11920,"alo":11921,"uts":11922,"ethe":11923,"decl":11924,"Parse":11925,"ĠGuard":11926,"Props":11927,"Ġcomprehensive":11928,"ĠAssume":11929,"Ġepisodes":11930,"aintenance":11931,"aron":11932,"Fin":11933,"aaaa":11934,"Ġseeking":11935,"irk":11936,"charge":11937,"rint":11938,"Rightarrow":11939,"gressive":11940,"ĠFre":11941,"Ġgrew":11942,"/.":11943,"Ġcosmic":11944,"Ġdetermination":11945,"entric":11946,"Ġtransparent":11947,"Ġanalogous":11948,"ĠCT":11949,"Ġsegments":11950,"Ġwonderful":11951,"ĠWH":11952,"=(\\":11953,"np":11954,"Ġlinearly":11955,"ocracy":11956,"Ġflags":11957,"Ġmachines":11958,"Ġrepeat":11959,"compare":11960,"ĠSong":11961,"agen":11962,"upload":11963,"Ġsubsets":11964,"Single":11965,"ĠDue":11966,"Ġproves":11967,"bg":11968,"Rob":11969,"Selector":11970,"sex":11971,"centerline":11972,"ĠPen":11973,"ĠSource":11974,"riction":11975,"ĠJersey":11976,"jquery":11977,"online":11978,"ÐµÐ":11979,"iliary":11980,"Ġ).":11981,"apper":11982,"Ġlocalized":11983,"ĠDom":11984,"Ġproxy":11985,"Ġunstable":11986,"Ġresolved":11987,"riority":11988,"tainment":11989,"ĠCloud":11990,"StyleID":11991,"idelines":11992,"cohol":11993,"Ġ}{\\":11994,"Ġfitted":11995,"Ġ×":11996,"ĠDead":11997,"Ġphenomenon":11998,"associ":11999,"una":12000,"apore":12001,"diag":12002,"Ġcouncil":12003,"Ġinstitutions":12004,"Ġcalibration":12005,"ToString":12006,"isms":12007,"KL":12008,"outer":12009,"Elements":12010,"Ġhell":12011,"Ġfounded":12012,"(){":12013,"Profile":12014,"mask":12015,"door":12016,"Ġcoff":12017,"Ġcombinations":12018,"Arch":12019,"nc":12020,"collection":12021,"Ġ\\:":12022,"Ġindependence":12023,"Ġarrive":12024,"Ġvoltage":12025,"displaymath":12026,"uma":12027,"Ġcab":12028,"Ġcorrelated":12029,"elescope":12030,"Ġlosing":12031,"Ġrequested":12032,"Ġmouth":12033,"ĠLA":12034,"Attributes":12035,"UST":12036,"Ġsignificance":12037,"&-":12038,"Ġrecommended":12039,"upper":12040,"()).":12041,"Enum":12042,"ĠChair":12043,"agent":12044,"~{\\":12045,"Ġbon":12046,"Ġclip":12047,"hyper":12048,"Ġ}$":12049,"Ġneighbour":12050,"lyn":12051,"Ġaux":12052,"Ġanswers":12053,"Ġimprovements":12054,"imated":12055,"Ġcontrovers":12056,"Ġspoke":12057,"Ġequipped":12058,"Ġperformances":12059,"writer":12060,"}}}{":12061,"ĠPS":12062,"ĠRegister":12063,"Ġdeformation":12064,"Plugin":12065,"Prim":12066,"Ġboson":12067,"]^{":12068,"ĠCountry":12069,"Ġvaluable":12070,"Ham":12071,"autore":12072,"ĠBu":12073,"Ġforg":12074,"setup":12075,"away":12076,"ĠBlog":12077,"Ġlandscape":12078,"inois":12079,"Oct":12080,"ĠNGC":12081,"UTF":12082,"Ġwinter":12083,"prene":12084,"satisf":12085,"Ġfeaturing":12086,"Ġstrange":12087,"iley":12088,"Ġqueries":12089,"uated":12090,"Ġgeomet":12091,"tsd":12092,"ĠCarl":12093,"asm":12094,"oured":12095,"character":12096,"Ġĉ":12097,"asi":12098,"ĠWis":12099,"ĠFac":12100,"hskip":12101,"Ġelementary":12102,"href":12103,"ordon":12104,"Func":12105,"ĠBru":12106,"sharp":12107,"Remove":12108,"ĠInf":12109,"Ġconstrained":12110,"pattern":12111,"letter":12112,"elastic":12113,"odge":12114,"Ġchose":12115,"Lat":12116,"cov":12117,"platform":12118,"ĠBon":12119,"Ġreaches":12120,"olves":12121,"Ġcrash":12122,"David":12123,"Ġdiameter":12124,"Ġoccasion":12125,"services":12126,"ĠDeep":12127,"ydro":12128,"Ġdress":12129,"Ġpin":12130,"Dest":12131,"Ġconverted":12132,"Ġdollars":12133,"Flow":12134,"ĠBall":12135,"Ġignored":12136,"uned":12137,"1979":12138,"Ġentanglement":12139,"conver":12140,"Ġfold":12141,"ĠProt":12142,"Ġveter":12143,"Ġconclusions":12144,"ĠCore":12145,"BN":12146,"$--":12147,"errors":12148,"Ġhomot":12149,"wild":12150,"larg":12151,"ĠConserv":12152,"Constants":12153,"Ġintroducing":12154,"COMP":12155,"consistent":12156,"Cam":12157,"ĠOS":12158,"pdated":12159,"Duration":12160,"ĠMill":12161,"Ġalignment":12162,"leading":12163,"ĠMD":12164,"adi":12165,"Ġacquired":12166,"Ġfifth":12167,"FM":12168,"Super":12169,"compact":12170,"Ġsitting":12171,"ĠOhio":12172,"Ġfalls":12173,"Ġdealing":12174,"Ġsoc":12175,"Ġrelaxation":12176,"rell":12177,"ylvan":12178,"structor":12179,"Ġ%}":12180,"reprene":12181,"EEE":12182,"ĠThose":12183,"gered":12184,"Ġsynthetic":12185,"aga":12186,"webpack":12187,"Ġvice":12188,"Ġfat":12189,"ĠAz":12190,"Ġnob":12191,"both":12192,"overset":12193,"Ġfiled":12194,"svg":12195,"rison":12196,"Ġ\"\"":12197,"Condition":12198,"Ġ$\\|":12199,"Ġaveraged":12200,"ĠDO":12201,"Ġconcerning":12202,"temp":12203,"Ġmic":12204,"enny":12205,"Ġchains":12206,"ĠExecutive":12207,")}=":12208,"104":12209,"subsc":12210,"Ġtalent":12211,"Ġintegrals":12212,"ĠjQuery":12213,"Ġnorthern":12214,"Ġplatforms":12215,"1981":12216,"Labels":12217,"Ġwins":12218,"Ġconcrete":12219,"Ġ$[\\":12220,"ÑĮ":12221,"ĠPakistan":12222,"ĠLuc":12223,"Expr":12224,"Ġdeduce":12225,"islation":12226,"required":12227,"Following":12228,"Ġemergency":12229,"days":12230,"pmb":12231,"ĠCons":12232,"Ġcompetitive":12233,"QU":12234,"Christ":12235,"Similarly":12236,"ĠBH":12237,"}_{(":12238,"ĠNFL":12239,"ĠBit":12240,"Leg":12241,"Ġquotient":12242,"Ġmillions":12243,"Ġnearest":12244,"cha":12245,"ocks":12246,"izers":12247,"direction":12248,"Ġmathematical":12249,"facebook":12250,"Ġnod":12251,"Ġcombine":12252,"Ġpasses":12253,"Ġprojected":12254,"115":12255,"Ġthermod":12256,"Ġprepare":12257,"props":12258,"serial":12259,"Ġsupplement":12260,"Assume":12261,"Ġkilling":12262,"Div":12263,"Ġcrystal":12264,"Ġfilters":12265,"nil":12266,"igate":12267,"ĠIOException":12268,"Normal":12269,"velope":12270,"Den":12271,"isons":12272,"Region":12273,"Ġ^{\\":12274,"rible":12275,"})-":12276,"Ġcombining":12277,"ĠEuclidean":12278,"Ġadult":12279,"Ġtrail":12280,"ped":12281,"alous":12282,"Ġinfinity":12283,"ifting":12284,"azy":12285,"ĠSupreme":12286,"isks":12287,"Adapter":12288,"3333":12289,"ĠBased":12290,"=\"@":12291,"Good":12292,"fall":12293,"Ġretrie":12294,"Ġteachers":12295,"ĠEinstein":12296,"Ġheads":12297,"Ġregardless":12298,"lfloor":12299,"underset":12300,"PN":12301,"Play":12302,"Ġds":12303,"Browser":12304,"}_{{\\":12305,"PATH":12306,"ĠFollowing":12307,"yy":12308,"ĠAnth":12309,"ĠGeorgia":12310,"asts":12311,"Ġnonzero":12312,"handler":12313,"Ġinduces":12314,"Ġcoun":12315,"Ġclouds":12316,"Ġbought":12317,"Ġarrival":12318,"users":12319,"Ġwrites":12320,"ĠAli":12321,"rfloor":12322,"Ġpicked":12323,"editor":12324,"Java":12325,"Ġoperate":12326,"Ġappearing":12327,"ĠTro":12328,"Ġhur":12329,"omatic":12330,"ĠTODO":12331,"ĠJordan":12332,"Variable":12333,"picker":12334,"Ġdisorder":12335,"ĠPa":12336,"Ġwaste":12337,"assets":12338,"ails":12339,"Ġcards":12340,"Ġsatellite":12341,"Ġprojective":12342,"iot":12343,"Black":12344,"Ġconservative":12345,"ĠOx":12346,"ĠMessage":12347,">::":12348,"Ġlatent":12349,"Ġdocumentation":12350,"ÙĨ":12351,"Keys":12352,"ĠLew":12353,"^+\\":12354,"Ġdetermining":12355,"Ġcommunications":12356,"Ġkeeps":12357,"Ġmolecules":12358,"ĠForest":12359,"supervised":12360,"attributes":12361,"plicate":12362,"Ġsubmit":12363,"degree":12364,"ĠStation":12365,"utf":12366,"olis":12367,"Ġafternoon":12368,"abc":12369,"Ġintersect":12370,"itud":12371,"Rend":12372,"ĠSW":12373,"Ġcomplaint":12374,"Ġmand":12375,"Ġpulled":12376,"viously":12377,"$(\\":12378,"Ġselling":12379,"Ġupcoming":12380,"^-$":12381,"imod":12382,"Ġsweet":12383,"Ġexecuted":12384,"=\"\"":12385,"@{}":12386,"ITION":12387,"Ġprinciples":12388,"ĠKent":12389,")!":12390,"pf":12391,"Ġmechanical":12392,"Pres":12393,"ĠMeV":12394,"Ġproducer":12395,"accept":12396,"Ġdebt":12397,"calcul":12398,"Ġexcitation":12399,"ubs":12400,"Ġboys":12401,"they":12402,"Ġmixture":12403,"Ġyellow":12404,"Ġpurely":12405,"Ġenjoyed":12406,"'',":12407,"Ġsinger":12408,"eras":12409,"Effect":12410,"127":12411,"ĠCarlo":12412,"Ġcod":12413,"Ġlifetime":12414,"getName":12415,"Members":12416,"Ġdomestic":12417,"Ġoutper":12418,"Ġcopyright":12419,"Person":12420,"Ġappeal":12421,"ĠAud":12422,"ecess":12423,"Nodes":12424,"ĠKong":12425,"meas":12426,"cost":12427,"oids":12428,"ĠMaybe":12429,"zy":12430,"anti":12431,"ĠVill":12432,"noise":12433,"TEXT":12434,"bx":12435,"ĠManager":12436,"Ġcontemporary":12437,"350":12438,"aware":12439,"BF":12440,"ĠSon":12441,"respectively":12442,"ĠFord":12443,"photon":12444,"ĠBL":12445,"Ġdry":12446,"induced":12447,"Ġdrivers":12448,"reens":12449,"Ġfasc":12450,"Ġtherapy":12451,"agger":12452,"earing":12453,"Ġvoters":12454,"},{\\":12455,"quality":12456,"ĠFootball":12457,"Ġreform":12458,"sis":12459,"Ġalongside":12460,"player":12461,"Ġresid":12462,"Ġdrum":12463,"spaces":12464,"ĠTax":12465,"Ġarmy":12466,"ĠLandroid":12467,"Ġvo":12468,"Ġren":12469,"ĠBC":12470,"Ġio":12471,"Ġcolon":12472,"Ġease":12473,"Email":12474,"Ġintent":12475,"REE":12476,"extension":12477,"}.\\":12478,"Ġhydrogen":12479,"Ġreplacement":12480,"ĠBrian":12481,"ĠDespite":12482,"ĠWAR":12483,"Ġreact":12484,"hou":12485,"Like":12486,"Ġconjecture":12487,"area":12488,"ADD":12489,"Stand":12490,"+$":12491,"{[":12492,"Ġconnecting":12493,"pur":12494,"Ġanticip":12495,"Ġguid":12496,"Ġacceleration":12497,"Ġapps":12498,"Ġstrike":12499,"ceive":12500,"ĠDemocrats":12501,"Ġdifficulty":12502,"Ġanalyses":12503,"boost":12504,"havior":12505,"IDE":12506,"Ġminister":12507,"protected":12508,"Ġwindows":12509,"Ġinstability":12510,"UB":12511,"ĠLorentz":12512,"ĠSH":12513,"Pointer":12514,"(__":12515,"ĠUk":12516,"Ġdisabled":12517,"Ġtypeof":12518,"Ġopposed":12519,"Î¹":12520,"Ġstreets":12521,"overs":12522,"done":12523,"ĠKevin":12524,"Ġscheduled":12525,"Ġsuffices":12526,"}&\\":12527,"Ġmuseum":12528,"Ġ$$\\":12529,"Game":12530,"Ġtough":12531,"JS":12532,"Ġaddressed":12533,"Ġxmlns":12534,"Ġgod":12535,"Ġexclusive":12536,"Ġdrama":12537,"Ġmirror":12538,"Ant":12539,"Ġunity":12540,"Gra":12541,"}$).":12542,"Engine":12543,"issues":12544,"ASH":12545,"Ġtends":12546,"Ġwine":12547,"AI":12548,"ĠDocument":12549,"Ġmagic":12550,"Ġrein":12551,"Sep":12552,"BAR":12553,"Ġnumerically":12554,"Ġgrown":12555,"Ġ(@":12556,"Ġtoler":12557,"ĠChannel":12558,"}=(":12559,"idity":12560,"distance":12561,"Ġbike":12562,"ĠContin":12563,"pu":12564,"fc":12565,"hus":12566,"Ġloops":12567,"Ġworldwide":12568,"Ġyounger":12569,"Ġbattery":12570,"Ġevident":12571,"Symfony":12572,"Ġcapabilities":12573,"=$":12574,"rations":12575,"Ġages":12576,"ordered":12577,"Ġreligion":12578,"Layer":12579,"Ġreq":12580,"Ġinstructions":12581,"razy":12582,"Ġscientists":12583,"imm":12584,"Ġdevelopers":12585,"ĠShort":12586,"Ġmetadata":12587,"ĠSL":12588,"ĠEll":12589,"------------":12590,"Ġexpectations":12591,"attered":12592,"acks":12593,"iversary":12594,"Ġlistening":12595,"Ġingred":12596,"once":12597,"ĠDeath":12598,"Ġtransactions":12599,"Ġtransformed":12600,"Ġrg":12601,"lix":12602,"ibraries":12603,"\\,.":12604,"Ġtech":12605,"Ġmanifest":12606,"Ġdot":12607,"browser":12608,"Wrapper":12609,"Ġhonor":12610,"Ġcarefully":12611,"ĠHollywood":12612,"Ġfn":12613,"Ra":12614,"Ġcausing":12615,"Ġpose":12616,"Ġeverywhere":12617,"Ġvisitors":12618,"ban":12619,"orse":12620,"Ġgoods":12621,"ĠFL":12622,"Ġreturning":12623,"orted":12624,"arters":12625,"enda":12626,"loom":12627,"ells":12628,"\\'{":12629,"protocol":12630,"ĠRemark":12631,"ĠBoolean":12632,"ampling":12633,"Ġaccused":12634,"Ġvariant":12635,"Ġposit":12636,"ĠNewton":12637,"'=":12638,"ĠRic":12639,"Ġshapes":12640,"ĠAdditionally":12641,"Struct":12642,"ailing":12643,"Ġtom":12644,"Mich":12645,"Ġformalism":12646,"Ġda":12647,"Ġregistration":12648,"via":12649,"Ġbreaks":12650,"Ġimproving":12651,"'}$":12652,"Â®":12653,"VALUE":12654,"ĠYet":12655,"ĠDam":12656,"ductor":12657,"Ġunus":12658,"Cloud":12659,"ĠRecall":12660,"Ġawarded":12661,")\"":12662,"Ġpotentials":12663,"Ġelastic":12664,"ĠNiger":12665,"Ġestate":12666,"Ġcentered":12667,"Ġbeauty":12668,"%.":12669,"Make":12670,"ĠApplication":12671,"}|^":12672,"ylvania":12673,"STM":12674,"ARD":12675,"Ġmesh":12676,"collapse":12677,"Ġhappening":12678,"ĠCC":12679,"Ġplastic":12680,"Ġencoder":12681,"Namespace":12682,"Ġfacing":12683,"Ġbold":12684,"Ġexposed":12685,"Ġcollective":12686,"ĠHop":12687,"ennes":12688,"Ljava":12689,"Ġ\\#":12690,"Ġneighbors":12691,"Ġdy":12692,"))$.":12693,"don":12694,"pin":12695,"ĠHash":12696,"Ġclassified":12697,"Ġcrypt":12698,"Ġdotted":12699,"ikip":12700,"holders":12701,"Ġstood":12702,"chitz":12703,"squ":12704,"Î½":12705,"best":12706,"Ġnoticed":12707,"Identifier":12708,"ĠChem":12709,"ĠStaff":12710,"Lear":12711,"Scal":12712,"wing":12713,"emon":12714,"Who":12715,"Ġparad":12716,"Help":12717,"Ġasync":12718,"sens":12719,"video":12720,"making":12721,"polar":12722,"temperature":12723,"inement":12724,"rupted":12725,"Background":12726,"Ġinvestors":12727,"Ġmultipl":12728,"Ġwear":12729,"alactic":12730,"pons":12731,"Ġlaugh":12732,"STAT":12733,"Ġhouses":12734,"Ùħ":12735,"Ġhide":12736,"Ġopposition":12737,"ĠWars":12738,"Ġreaching":12739,"aire":12740,"LINE":12741,"plectic":12742,"Simple":12743,"Ġhall":12744,"ĠAsian":12745,"Ġultra":12746,"Ġip":12747,"Ġmine":12748,"eto":12749,"tmp":12750,"}(-":12751,"resolution":12752,"Copyright":12753,"Ġvanishing":12754,"Ġtrends":12755,"Ġasymptot":12756,"Ġpartnership":12757,"Fi":12758,"ĠPers":12759,"Ġreadonly":12760,"Socket":12761,"similar":12762,"Apr":12763,"viation":12764,"FORM":12765,"ĠKat":12766,"keyword":12767,"Ġadvertising":12768,"storage":12769,"itled":12770,"Ġhistoric":12771,"nesota":12772,"ellect":12773,"FFFF":12774,"metadata":12775,"yo":12776,"Route":12777,"Ġyesterday":12778,",(":12779,"equival":12780,"MAP":12781,"Ġcircumstances":12782,"Ġobservables":12783,").}":12784,"eping":12785,"Collections":12786,"what":12787,"Scale":12788,"Services":12789,"ĠDavis":12790,"ANG":12791,"ĠStill":12792,"atibility":12793,"Aug":12794,"ders":12795,"onymous":12796,"natural":12797,"Failed":12798,"Ġfestival":12799,"available":12800,"ĠEditor":12801,"Math":12802,"Mapping":12803,"UK":12804,"Ġtunnel":12805,"ratio":12806,"[]{":12807,"andy":12808,"Sync":12809,"Ġinhib":12810,"whe":12811,"Ġremoving":12812,"ĠSite":12813,"esis":12814,"Ġmountain":12815,"Ġconstructor":12816,"Ġbanks":12817,"ĠCulture":12818,"Ġevil":12819,"jections":12820,"icts":12821,"}}}$":12822,"metric":12823,"Ġvictims":12824,"onom":12825,"Ġagencies":12826,"Ġconvention":12827,"Ġimaginary":12828,"220":12829,"sr":12830,"ilinear":12831,"Ġru":12832,"TM":12833,"Ġanten":12834,"Ġexploration":12835,"213":12836,"atomic":12837,"ĠRest":12838,"ĠWithout":12839,"leftrightarrow":12840,"Ġassist":12841,"xygen":12842,"hn":12843,"ĠPrince":12844,"Ġregul":12845,"Ġemotional":12846,"iary":12847,"Mo":12848,"ĠSpecifically":12849,"biggl":12850,"icing":12851,"ĠThanks":12852,"Ġshel":12853,"protect":12854,"Ġ],":12855,".\");":12856,"Ġfusion":12857,"Ġflavor":12858,"Ġ$-$":12859,"ĠLanguage":12860,"Ġdrawing":12861,"tk":12862,"ĠDisc":12863,"Ġlimiting":12864,"biggr":12865,"ĠBang":12866,"ĠĠĠĠĠĊ":12867,"Ġrestrictions":12868,"Ġcenters":12869,"ureau":12870,"prev":12871,"Ġboxes":12872,"trigger":12873,"ĠClinton":12874,"orb":12875,"jective":12876,"Eval":12877,"ĠArticle":12878,"ikipedia":12879,"ĠSQL":12880,"ĠSA":12881,"ĠGP":12882,"NP":12883,"ĠTransport":12884,"MODULE":12885,"hide":12886,"Ġexpanding":12887,"iso":12888,"Ġsubstr":12889,"Ġinnovation":12890,"Ġsav":12891,"Related":12892,"ĠPubl":12893,")\\,\\":12894,"iami":12895,"ĠNotice":12896,"aya":12897,"Ġactors":12898,"Ġmodification":12899,"liminary":12900,"ydney":12901,"Ġarises":12902,"ĠCommand":12903,"1978":12904,"frequency":12905,"Ġconsecutive":12906,"ĠGro":12907,"Ġhat":12908,"={\\":12909,"}}+":12910,"ĠHotel":12911,"Ġtok":12912,"Ġadults":12913,"chy":12914,"Ġhomomorphism":12915,"Ġcarrying":12916,"Through":12917,"Join":12918,"nob":12919,"Ġleaf":12920,"Ġ{'":12921,"Ġvisited":12922,"ĠWIT":12923,"driven":12924,"icide":12925,"into":12926,"Ġwed":12927,"ĠFall":12928,"abolic":12929,"dialog":12930,"lications":12931,"ĠUniverse":12932,"Ca":12933,"haust":12934,"Ġbasically":12935,"Ġopens":12936,"ĠElizabeth":12937,"ĠYouTube":12938,"Ġsymmetries":12939,"Ġdisappoint":12940,"Ġdoctor":12941,"Br":12942,"Ġdepicted":12943,"ĠMarg":12944,"Ġalive":12945,"Short":12946,"Ġshear":12947,"Ġalter":12948,"unter":12949,"Ġobservable":12950,"Ġdrag":12951,"ĠBS":12952,"Miss":12953,"Ġderivation":12954,"Ġensures":12955,"ĠToronto":12956,"Ġinvariance":12957,"Ġsampled":12958,"Pod":12959,"}\\}$":12960,"Bs":12961,"ĠEffect":12962,"dif":12963,"variable":12964,"Ġdesigns":12965,"Domain":12966,"Ġprominent":12967,"Ġ=========":12968,"Ġanimation":12969,"ĠClin":12970,"isations":12971,"ĠMinistry":12972,"IAL":12973,"ĠRh":12974,"ĠHou":12975,"ĠIC":12976,"ilst":12977,"Ġheavily":12978,"Ġgenerality":12979,"Ġsurgery":12980,"Ġcommitment":12981,"ikes":12982,"ĠRecord":12983,"ĠMedicine":12984,"omer":12985,"ĠPrivacy":12986,"Ġreset":12987,"Green":12988,"ĠRepresent":12989,",'":12990,"aro":12991,"ĠMember":12992,"Ġbarrier":12993,"yers":12994,"obby":12995,"ĠIL":12996,"junit":12997,"Ġshifts":12998,"multip":12999,"Ġscroll":13000,"Ġparking":13001,"Ġcompliance":13002,"Ġslot":13003,"ĠPack":13004,"Ġknowing":13005,"Ġappointed":13006,"Mean":13007,"Ġpole":13008,"Ġentities":13009,"ZZ":13010,"offs":13011,"Ġcondens":13012,"Comb":13013,"Ġresulted":13014,"clean":13015,"amaz":13016,"mention":13017,"agues":13018,"Ġsizeof":13019,"Her":13020,"aria":13021,"Ġadapted":13022,"ĠEastern":13023,"Ġillegal":13024,"tabs":13025,"Ġgranted":13026,"Ġlit":13027,"Ġviolation":13028,"Ġdeclared":13029,">$":13030,"Ġnegligible":13031,"ĠAccount":13032,"Both":13033,"ĠDisney":13034,"Ġimpressive":13035,"ĠStudy":13036,"cus":13037,"Ġtriple":13038,"athered":13039,"Ġfunny":13040,"ĠInteger":13041,"1977":13042,"Ġformulas":13043,"Framework":13044,"Ġmarks":13045,"makers":13046,"Ġhyperbolic":13047,"(|":13048,"dig":13049,"Ġpregn":13050,"Registry":13051,"Mac":13052,"ĠMiller":13053,"Ġunlikely":13054,"apsed":13055,"tags":13056,"ĠSmall":13057,"pub":13058,"Ġjets":13059,"His":13060,"512":13061,"ervation":13062,"Subsc":13063,"ĠShould":13064,"duate":13065,"}}\\,":13066,"Ġtrouble":13067,"GD":13068,"ancell":13069,"ĠHay":13070,"Ġbomb":13071,"ummy":13072,"tot":13073,"Ġawards":13074,"rating":13075,"Ġmatched":13076,"Ġsurvival":13077,"Methods":13078,"ILE":13079,"ĠTravel":13080,"ĠAC":13081,"Ġappend":13082,"\\-":13083,"Ġstrip":13084,"Sample":13085,"ĠRos":13086,"Ġfeasible":13087,"108":13088,"nodes":13089,"Ġhorse":13090,")->":13091,"anes":13092,"Ġefficiently":13093,"ĠFR":13094,"ĠIndep":13095,"Program":13096,"tp":13097,"Agent":13098,"Ġguest":13099,"MW":13100,"ountains":13101,"106":13102,"ockey":13103,"Ġ\\,,":13104,"ĠWrite":13105,"Ð²":13106,"ĠGreek":13107,"iac":13108,"feed":13109,"Ġmerge":13110,"Ġvalidate":13111,"makebox":13112,"hour":13113,"orne":13114,"Cluster":13115,"holds":13116,"Ġmeasuring":13117,"due":13118,"ĠEV":13119,"Ġpenalty":13120,"Bel":13121,"ĠPear":13122,"Ġunlike":13123,"ĠFA":13124,"Ġdesire":13125,"ĠNeed":13126,"ariate":13127,"Ġpersons":13128,"ĠÐ¿":13129,"Ax":13130,"Ġwheel":13131,"ĠFROM":13132,"OWN":13133,"ĠRose":13134,"repe":13135,"Ġidentifying":13136,"ership":13137,"1976":13138,"builder":13139,"Ġtitles":13140,"1975":13141,"Ġsheet":13142,"Ġassistance":13143,"Repository":13144,"103":13145,"Ġpilot":13146,"bling":13147,"ĠFix":13148,"hist":13149,"Ġeffectiveness":13150,"1950":13151,"Ġrelativistic":13152,"Ġpreserve":13153,"aza":13154,"Ġairport":13155,"ĠCook":13156,"Prefix":13157,"Ġtx":13158,"ĠIE":13159,"Ġflav":13160,"bone":13161,"Ġhasn":13162,"National":13163,"missible":13164,"Texture":13165,"ementia":13166,"Ġvotes":13167,"levant":13168,"ĠHong":13169,"typedef":13170,"Ġlengths":13171,"Ma":13172,"Ste":13173,"ĠTony":13174,"atics":13175,"Ġade":13176,"bean":13177,"ĠMagazine":13178,"oustic":13179,"Ġworker":13180,"'(\\":13181,"ĠSF":13182,"Fore":13183,"theme":13184,"ĠHapp":13185,"irement":13186,"ĠPur":13187,"sylvania":13188,"Ġgrade":13189,"Ġox":13190,"Ġwestern":13191,"positive":13192,"ĠĠĠĠĠĠĠĠĠĠĠĠĠĠĠĠĠĠĠĠĠĠĠĠĠĠĠĠĠĠ":13193,"Ġagric":13194,"ĠOfficer":13195,"Ġphotograph":13196,"Ġlistener":13197,"Ġtension":13198,"Selected":13199,"ĠInput":13200,"{\"":13201,"Import":13202,"Che":13203,"aret":13204,"oli":13205,"ials":13206,"ĠJesus":13207,"sters":13208,"ĠTag":13209,"efficient":13210,"}}-":13211,"ĠAvenue":13212,"Ġprofit":13213,"policy":13214,"Ġoppon":13215,"ĠIllinois":13216,"Ġcompression":13217,"progress":13218,"Tok":13219,"Ġtangent":13220,"momentum":13221,"Ġproportion":13222,"Ġgro":13223,"Ġvacc":13224,"Ġclassifier":13225,"hh":13226,"Ġheating":13227,"metic":13228,"ĠPhilipp":13229,"Ġthickness":13230,"corresponding":13231,"Ġampl":13232,"ige":13233,"Ġdestroyed":13234,"ĠWales":13235,"filename":13236,"Selection":13237,"training":13238,"Ġhabit":13239,"Ġtiny":13240,"emb":13241,"Ġfo":13242,"headers":13243,"bigskip":13244,"ĠUI":13245,"\\|_{\\":13246,"Ġphon":13247,"original":13248,"without":13249,"far":13250,"Bi":13251,"Further":13252,"ĠLabour":13253,"Ġbandwidth":13254,"ĠEdition":13255,"Card":13256,"')\\":13257,"Ġargued":13258,"subfloat":13259,"ĠDoes":13260,"Ġdepos":13261,"origin":13262,"resources":13263,"Ġimplications":13264,"Ġ[\"":13265,"University":13266,"ĠSets":13267,"correct":13268,"Enter":13269,"ĠRequest":13270,"Ġconcert":13271,"Ġimper":13272,"Ġgrows":13273,"ĠProte":13274,"Ġlogical":13275,"Ġrequiring":13276,"provider":13277,"Ġbusy":13278,"}^{(\\":13279,"Ġwherein":13280,"ulous":13281,"fun":13282,"crep":13283,"ALSE":13284,"Ġnormally":13285,"half":13286,"igm":13287,"Ġlegislation":13288,"objects":13289,"Ġfalling":13290,"ĠUt":13291,"ĠEth":13292,"Îµ":13293,"ĠPrim":13294,"lot":13295,"iteral":13296,"unning":13297,"Coll":13298,"xs":13299,".-":13300,"900":13301,"Ġsympt":13302,"Ġwatched":13303,"dk":13304,"Ġflash":13305,"ĠArg":13306,"ĠAdministration":13307,"LOCK":13308,"ruggle":13309,"central":13310,"Ġaccordance":13311,"Ġdrift":13312,"frag":13313,"Ġvariability":13314,"ĠSab":13315,"uj":13316,"Indeed":13317,"Ġcampus":13318,"processing":13319,"Ġcounting":13320,"uter":13321,"Ġforming":13322,"Ġstrain":13323,"ĠHarry":13324,"Ġbat":13325,"Ġintention":13326,"Ġanyway":13327,"speed":13328,"Ġfinger":13329,"periments":13330,"Ġquarks":13331,"Ġaband":13332,"gate":13333,"ĠHart":13334,"ipschitz":13335,"ĠPalest":13336,"ĠBat":13337,"Ġearned":13338,"ĠAgency":13339,"Ġembodiment":13340,"ĠLeb":13341,"Ġtrading":13342,"cv":13343,"estyle":13344,"Ġdependencies":13345,"ĠHave":13346,"itudinal":13347,"CB":13348,"Len":13349,"Ġhint":13350,"endo":13351,"ĠMoon":13352,"Resources":13353,"Ġdisturb":13354,"ĠHeart":13355,"Ġrival":13356,"æľ":13357,"ĠAnderson":13358,"raine":13359,"lan":13360,"Fact":13361,"Ġassault":13362,"ĠIslands":13363,"Ġrevolution":13364,"Ġtournament":13365,"}\\!":13366,"gements":13367,"Ġrising":13368,"ĠReact":13369,"ĠStock":13370,"Ġdeals":13371,"ĠTraining":13372,"Ġii":13373,"ĠSir":13374,"ums":13375,"Children":13376,"Ġarts":13377,"Ġinvent":13378,"Ġcomposite":13379,"methods":13380,"execute":13381,"Ġputs":13382,"Ġregarded":13383,"ĠCondition":13384,"ĠJam":13385,"GAN":13386,"Ġfruit":13387,"Ġcohomology":13388,"autoref":13389,"Ġattended":13390,"uscript":13391,"()</":13392,"Ġchecks":13393,"ndef":13394,"Review":13395,"Ġmerely":13396,"ĠBuilding":13397,"ĠFinancial":13398,"URI":13399,"Ġmini":13400,"Ġfermions":13401,"ĠANY":13402,"Ġprocessed":13403,"Ġgreatly":13404,"ktop":13405,"Ġobtaining":13406,"Ġdamp":13407,"Ġmechanics":13408,"Ġmultiplication":13409,"iat":13410,"lectric":13411,"Ġ''":13412,"ĠProblem":13413,"Ġextraction":13414,"Ġcoffee":13415,"Ġexplored":13416,"fake":13417,"Ġentertainment":13418,"Ġseriously":13419,"Ġanywhere":13420,"Ġreceives":13421,"Ġabelian":13422,"Ġclar":13423,"ĠRoss":13424,"DOM":13425,"ĠUnit":13426,"Ġstretch":13427,"Ġmoduli":13428,"VS":13429,"detail":13430,"ĠTal":13431,"Watch":13432,"orship":13433,"Ġbroke":13434,"Ġskill":13435,"zo":13436,"Ġvi":13437,"1974":13438,"ĠPrinc":13439,"Ġthereby":13440,"ĠInterest":13441,"Trace":13442,"Ġembeddings":13443,"owntown":13444,"Ġ\\\\[":13445,"Ġfrust":13446,"Ġrecognize":13447,"wd":13448,"Ġrating":13449,"critical":13450,"egas":13451,"135":13452,"Ġbelieves":13453,"Pattern":13454,"Gs":13455,"ĠSelect":13456,"ĠTree":13457,"consin":13458,"Prov":13459,"shared":13460,"107":13461,"Ġoscillations":13462,"ĠSingapore":13463,"Ġwireless":13464,"tc":13465,"Ġencourage":13466,"Ġtags":13467,"ĠScient":13468,"lam":13469,"Äģ":13470,"Ġhierarchy":13471,"surface":13472,"ĠGib":13473,"adelphia":13474,"sea":13475,"astro":13476,"Ġdivergence":13477,"certain":13478,"Ġinteracting":13479,"undles":13480,"ĠDer":13481,"gression":13482,"Ġgenus":13483,"hedral":13484,"Ġrisks":13485,"mr":13486,"Ġincl":13487,"Ġknot":13488,"Ġimplied":13489,"Ġpaying":13490,"Ġseasons":13491,"LY":13492,"Ġpreparation":13493,"Ġapproval":13494,"itro":13495,"icode":13496,"Ġ>>>":13497,")*":13498,"ÐµÐ½":13499,"IDTH":13500,"}$$":13501,"Ġlocalization":13502,"heres":13503,"ĠSanta":13504,"Ġtries":13505,"ĠExpl":13506,"convert":13507,"Year":13508,"AK":13509,"ĠLatin":13510,"Ġ\",":13511,"240":13512,"Ġparser":13513,"^{[":13514,"batch":13515,"ĠHTT":13516,"002":13517,"','":13518,"(.":13519,"ĠLind":13520,"Ġreply":13521,"Ġfractional":13522,"Ġmetallicity":13523,"Syntax":13524,"tting":13525,"Ġparticipate":13526,"Ġboat":13527,"burst":13528,"ingham":13529,"Ġallocation":13530,"]_{":13531,"Ġattr":13532,"liance":13533,"Ġupload":13534,"aska":13535,"Ġcomedy":13536,"Shape":13537,"Ġscholar":13538,"ologist":13539,"Ġbranches":13540,"Ġreput":13541,"Ġmouse":13542,"itecture":13543,"ĠHur":13544,"Ġoverview":13545,"addle":13546,"Ġdeeper":13547,"Ġshorter":13548,"Ġmanufacturing":13549,"ctrine":13550,"anchor":13551,"Ġdisplays":13552,"Ġpromising":13553,"DEBUG":13554,"who":13555,"Ġsoph":13556,"Uri":13557,"ĠDream":13558,"OCK":13559,"Ġnic":13560,"Ġencoded":13561,"ĠColorado":13562,"ĠDid":13563,"ĠImages":13564,"arding":13565,"METHOD":13566,"Ġelectromagnetic":13567,"Headers":13568,"Ġcareful":13569,"åĪ":13570,"})(":13571,"Ġoperated":13572,"ĠConnect":13573,"»¿":13574,"Ġbirths":13575,"uz":13576,")<":13577,"Ġremarkable":13578,"ĠEmpire":13579,"NET":13580,"ppers":13581,"aten":13582,"Basic":13583,"Ġcontest":13584,"Ġelliptic":13585,"onder":13586,"Ġdescent":13587,"Ġdates":13588,"Ġsequential":13589,"cers":13590,"Ġvoting":13591,"}}^{(":13592,"Ġautomatic":13593,"Ġinequalities":13594,"Ġswim":13595,"throw":13596,"Ġparagraph":13597,"Ġsingularity":13598,"PUT":13599,"exact":13600,"Ġfinitely":13601,"ĠGallery":13602,"cert":13603,"four":13604,"Ġathlet":13605,"ï»¿":13606,"rizona":13607,"Ġdelta":13608,"Ġhelic":13609,"ĠAlexander":13610,"parser":13611,"sb":13612,"Transform":13613,"Mask":13614,"Ġsettlement":13615,"Ġsuperior":13616,"LD":13617,"maven":13618,";}":13619,"rises":13620,"1973":13621,"Ġstyles":13622,"ĠQueens":13623,"testing":13624,"ĠAppro":13625,"ounded":13626,"\\!\\!\\!\\!":13627,"ĠSho":13628,"ĠCapital":13629,"ĠContent":13630,"relax":13631,"Generator":13632,"ĠAmong":13633,"Ġvanish":13634,"textstyle":13635,"âĢ¦.":13636,"ĠStore":13637,"ĠLE":13638,"enth":13639,"rock":13640,"fp":13641,"Ġholomorphic":13642,"clipse":13643,"htbp":13644,"iously":13645,"ĠGolden":13646,"Ġannih":13647,"Ġantib":13648,"Ġcutting":13649,"Ġtwenty":13650,"ashes":13651,"thew":13652,"ĠKh":13653,"\"=>":13654,"ĠBush":13655,"Ġeducational":13656,"Ġbatt":13657,"&+":13658,"\"],":13659,"Tx":13660,"asty":13661,"flag":13662,"orel":13663,"Ġtip":13664,"ĠComb":13665,"iest":13666,"ĠASSERT":13667,"ĠFri":13668,"\\}}":13669,"kov":13670,"RED":13671,"abi":13672,"iors":13673,"Ġendpoint":13674,"owned":13675,"VA":13676,"ĠEuler":13677,"Character":13678,"biz":13679,"Ġtickets":13680,"ĠSarah":13681,"Analysis":13682,"ÛĮ":13683,"ĠLib":13684,"een":13685,"outube":13686,"Ġintu":13687,"toprule":13688,"Ġminimize":13689,"rup":13690,"degener":13691,"mad":13692,"nl":13693,"Ġfer":13694,"iry":13695,"Ġalbums":13696,"ĠBattle":13697,"Hol":13698,"supported":13699,"Ġjoining":13700,"Ġskip":13701,"Ġsuperconduct":13702,"Ġgeodesic":13703,"etts":13704,"oni":13705,"Ġtrav":13706,"Ġverified":13707,"ĠConsequently":13708,"tests":13709,"Ġly":13710,"ĠVen":13711,"ENSE":13712,"gravity":13713,"Ġ([":13714,"ĠNavy":13715,"omp":13716,"Ġcavity":13717,"Ġartificial":13718,"optim":13719,"ĠEmer":13720,"ORY":13721,"Ġsuggesting":13722,")/\\":13723,"Thanks":13724,"illiant":13725,"Such":13726,"aping":13727,"Ġcommands":13728,"Ġfuck":13729,"ĠWel":13730,"Ġobservational":13731,"these":13732,"Ġregularization":13733,"Stats":13734,"ĠComments":13735,"ĠGalactic":13736,"colLast":13737,"Ġmunicip":13738,"Ġimposed":13739,"gtr":13740,"ANCE":13741,"amps":13742,"Ġstake":13743,"Figures":13744,"pull":13745,"Ġprosec":13746,"Ġsurprised":13747,"agan":13748,"othe":13749,"ĠMrs":13750,"bibli":13751,"zing":13752,"Render":13753,"Ġtransferred":13754,"Interval":13755,"Inf":13756,"Ġsteel":13757,"Ġbind":13758,"ĠResources":13759,"uency":13760,"ĠMir":13761,"ĠNAME":13762,"ĠEP":13763,"ĠViet":13764,"Ġgrate":13765,"optional":13766,"rowth":13767,"ĠHal":13768,"party":13769,"Ġconsistently":13770,"Ġaccurately":13771,"elements":13772,"veloc":13773,"kip":13774,"Ġovercome":13775,"Ġmaintenance":13776,"ĠTam":13777,"ĠJosh":13778,"elson":13779,"ĠPaper":13780,"Ġradii":13781,"Ġgenu":13782,"Ġreflected":13783,"\"><!--":13784,"Cs":13785,"Family":13786,"Ġcheap":13787,"Ġpublisher":13788,"program":13789,"Ġseats":13790,"Ġhurt":13791,"vance":13792,"Volume":13793,"Ġextending":13794,"Ġshifted":13795,"igrants":13796,"ĠSquare":13797,"Ġsurveys":13798,"Ġplanets":13799,"ifdef":13800,"compos":13801,"ĠGraph":13802,"thur":13803,"arer":13804,"ĠHerm":13805,"Ġsuddenly":13806,"Ġstone":13807,"}$;":13808,"TIME":13809,"Ġsolo":13810,"ĠHE":13811,"optimal":13812,"Numer":13813,"Ġalpha":13814,"Ġmembership":13815,"enna":13816,"Ġcolle":13817,"ĠNatural":13818,"Ġcontinuity":13819,"Ġemployment":13820,"^{{\\":13821,"BY":13822,"owner":13823,"HH":13824,"enabled":13825,"ĠWhether":13826,"Ġelsewhere":13827,"Delegate":13828,"Ġfocusing":13829,"ĠVictoria":13830,"ffff":13831,"),(":13832,"Ġctx":13833,"merce":13834,"Ġruntime":13835,"Ġgray":13836,"Ġunexpected":13837,"Ġadventure":13838,"qq":13839,"Ġlegisl":13840,"Ġcubic":13841,"Ġschema":13842,"season":13843,"mentioned":13844,"precated":13845,"Ġloading":13846,"pled":13847,"Ġsensors":13848,"Ġproviders":13849,"Ġpharm":13850,"smooth":13851,"Ã£":13852,"Ġslice":13853,"artz":13854,"radio":13855,"Cent":13856,"Ġremind":13857,"ĠOtherwise":13858,"undefined":13859,"ĠEdward":13860,"Ġmeets":13861,"SCR":13862,"Ġranging":13863,"Sol":13864,"jango":13865,"ĠFO":13866,"ĠSimon":13867,"Ġhosts":13868,"emic":13869,"Ġchecking":13870,"overview":13871,"Cy":13872,"Ġspokes":13873,"ĠSurvey":13874,"colFirst":13875,"ĠRow":13876,"Ġtrials":13877,"ranged":13878,"Ġadversarial":13879,"Ġrings":13880,"Aust":13881,"ĠPract":13882,"):=\\":13883,"Quant":13884,"Should":13885,"Ġaffects":13886,"phan":13887,"LI":13888,"rin":13889,"wrapper":13890,"Ġsubsequently":13891,"ĠSyria":13892,"near":13893,"ĠMinnesota":13894,"}}\\\\":13895,"overning":13896,"Ġ?>":13897,"Ġroof":13898,"ELD":13899,"ĠTan":13900,"Light":13901,"TRUE":13902,"Ġsubmitted":13903,"Ġalcohol":13904,"Ġsends":13905,"Ġsoldiers":13906,"je":13907,"Mill":13908,"Ġauxiliary":13909,"*{-":13910,"ariants":13911,"olute":13912,"gradient":13913,"Ġduty":13914,"ĠTech":13915,"Ġproofs":13916,"Ġreproduce":13917,"Ġwearing":13918,"Ġforeach":13919,"Ġflying":13920,"Ġalert":13921,"agnostics":13922,"Ġuniquely":13923,"memory":13924,"Ġwider":13925,"ãĢĤ":13926,"anny":13927,"IMPORT":13928,"Notice":13929,"Diff":13930,"ĠSound":13931,"ÙĪ":13932,"accur":13933,"Role":13934,"oca":13935,"SV":13936,"ĠGalaxy":13937,"Ġattractive":13938,"login":13939,"Ġtargeted":13940,"Ġbuf":13941,"Ġliked":13942,"istration":13943,"Ġtransc":13944,"Ġformally":13945,"ĠPartners":13946,"checked":13947,"'-":13948,"fb":13949,"Ġcomputations":13950,"Ġvon":13951,"ĠSydney":13952,"âĢĭ":13953,"Ġtwist":13954,"ĠAuto":13955,"ĠChapter":13956,"($\\":13957,"ĠME":13958,"charg":13959,"Ġinnovative":13960,"Sequence":13961,"Ġnoting":13962,"Ġtorus":13963,"Ġconvenience":13964,"quantum":13965,"ĠDa":13966,"Ġdisput":13967,"Ġreactions":13968,"TY":13969,"Ġpublicly":13970,"114":13971,"Ġ\"-":13972,"itis":13973,"Ġfro":13974,"ĠOs":13975,"Have":13976,"Ġcrack":13977,"Ġpermutation":13978,"Ġadequ":13979,"Ġlogger":13980,"tm":13981,"Ġghost":13982,"Ġbasketball":13983,"harm":13984,"Ġmeaningful":13985,"ĠBrother":13986,"THE":13987,"subject":13988,"ĠLeft":13989,"1972":13990,"acon":13991,"ĠSa":13992,"ĠMoore":13993,"Ġ\"<":13994,"ois":13995,"interval":13996,"terms":13997,"orsion":13998,"Ġautomorphism":13999,"changes":14000,"+}":14001,"Ġknock":14002,"Ġphysically":14003,"terior":14004,"Ġvaries":14005,"achus":14006,"ĠSav":14007,"same":14008,"ATCH":14009,"Ġparametriz":14010,"Ġcombat":14011,"Ġgay":14012,"Ġoxygen":14013,"tf":14014,"necess":14015,"Ġclosing":14016,"ĠSR":14017,"Language":14018,"Ġsink":14019,"racted":14020,"Did":14021,"ologically":14022,"Three":14023,"Ġachieves":14024,"utter":14025,"Ġbeach":14026,"July":14027,"Ġbelief":14028,"Ġemerging":14029,"ĠNevertheless":14030,"}}+\\":14031,"ĠInit":14032,"Pred":14033,"Ġrum":14034,"Ġmutual":14035,"Sql":14036,"Ġinformed":14037,"AMP":14038,"Ġoutflow":14039,"ĠPython":14040,"ĠKenn":14041,"EEEE":14042,"Depend":14043,"Ġbases":14044,"Ġprofessor":14045,"ĠOnt":14046,"ĠPatrick":14047,"Ġ=======":14048,"moz":14049,"ATED":14050,"rift":14051,"Ġdecor":14052,"Ġthrown":14053,"________":14054,"anth":14055,"PY":14056,"uggest":14057,"osph":14058,"Vertex":14059,"sheet":14060,"Ġske":14061,"slice":14062,"Ġ)$":14063,"brace":14064,"å®":14065,"Ġacquisition":14066,"elem":14067,"Ġspins":14068,"117":14069,"ĠDB":14070,"heses":14071,"rer":14072,"}]$":14073,"Bal":14074,"ä»":14075,"rones":14076,"ĠLady":14077,"pn":14078,"ĠWas":14079,"ourn":14080,"Ġnuclei":14081,"ques":14082,"Ġrooms":14083,"hyp":14084,"ĠHttp":14085,"racks":14086,"Ġbass":14087,"ÑģÑĤ":14088,"arded":14089,"embed":14090,"Ġentering":14091,"Ġmanifolds":14092,"xrightarrow":14093,"Ġinstruct":14094,"Ġrural":14095,"Ġrecovered":14096,"ĠWord":14097,"Ġwebs":14098,"Ġtokens":14099,"ghan":14100,"Ġguests":14101,"ĠPennsylvania":14102,"Ġsurvive":14103,"Ġsquares":14104,"Wait":14105,"ĠJason":14106,"ĠInstagram":14107,"Ġstruggle":14108,"Ġnewspaper":14109,"bing":14110,"Ġdisag":14111,"Ġcontinuing":14112,"Ġsep":14113,"Ġactress":14114,"Ġdeterministic":14115,"Connect":14116,"Ġteach":14117,"Ġpointing":14118,"Ġgained":14119,"Ġflexible":14120,"ragg":14121,"ĠMovie":14122,"quark":14123,"ĠThough":14124,"Operator":14125,"Ġwalked":14126,"Password":14127,"Ġedit":14128,"MN":14129,"Ġgarden":14130,"170":14131,"Ġnarrative":14132,"Ġpron":14133,"liers":14134,"à¦":14135,"Ġheaders":14136,"Ġbrands":14137,"ropical":14138,"Ġcmd":14139,"Ġbear":14140,"effective":14141,"Ġrgba":14142,"seen":14143,"ĠColumbia":14144,"ĠBR":14145,"Hub":14146,"ĠLes":14147,"assembly":14148,"kk":14149,"ĠStone":14150,"ilty":14151,"Ġocean":14152,"rait":14153,"expl":14154,"109":14155,"hig":14156,"SSL":14157,"UND":14158,"scopy":14159,"allas":14160,"ĠThings":14161,"('.":14162,"gtrsim":14163,"Ġlying":14164,"navList":14165,"Ġtemp":14166,"Download":14167,"Move":14168,"Ġ'<":14169,"FN":14170,"ensing":14171,"ĠCELL":14172,":[":14173,"ĠLoc":14174,"Lower":14175,"ĠGW":14176,"itatively":14177,"Ġassociate":14178,"ĠTrack":14179,"ĠCau":14180,"Ġauthent":14181,"wich":14182,"Ġbins":14183,"âĨ":14184,"ajax":14185,"versely":14186,"Ġdetectors":14187,"ĠCab":14188,"ĠDave":14189,"Ġarising":14190,"Ġaccompan":14191,"Ign":14192,"lass":14193,"Ġoptimized":14194,"Ġinstrum":14195,"ĠVector":14196,"wick":14197,")}^":14198,"ĠJean":14199,"Ġmotivated":14200,"Ġinstruments":14201,"Ġlect":14202,"Ġpushed":14203,"OPT":14204,"Ġpossibilities":14205,"ĠPlace":14206,"Ġnullptr":14207,"async":14208,"lein":14209,"ĠChall":14210,"Ġconsiderable":14211,"Private":14212,"Ġtissue":14213,"operative":14214,"Ġconverge":14215,"Ġscreening":14216,"ederation":14217,"ĠMicro":14218,"ika":14219,"burn":14220,"Ġswit":14221,"POST":14222,"middle":14223,"brand":14224,"neut":14225,"Ġegg":14226,"Ġprocessor":14227,"ĠPrint":14228,"choose":14229,"Ġlikes":14230,"Ġholiday":14231,"ĠEvents":14232,"ulum":14233,"Ġ\\}$":14234,"ĠiPhone":14235,"Ġyards":14236,"Ġhospit":14237,"Ġerg":14238,"ishment":14239,"ĠValid":14240,"Fragment":14241,"pq":14242,"Ïĥ":14243,"Ġfees":14244,"Ġphenomena":14245,"Ġclosest":14246,"Ġtaught":14247,"ĠStream":14248,".(":14249,"Sy":14250,"ateral":14251,"ĠBY":14252,"indexOf":14253,"gage":14254,"Ġpric":14255,"inch":14256,"Ġexhaust":14257,"Ġobserver":14258,"tesy":14259,"=\"${":14260,"symmetric":14261,"Ġfluxes":14262,"varpi":14263,"Ġsilver":14264,"design":14265,"amazon":14266,"?>":14267,"dam":14268,"Ġreporter":14269,"Ġtimeout":14270,"Ġsummarized":14271,"Ġthousand":14272,"conditions":14273,"(@":14274,"Ġincorrect":14275,"Ġpermit":14276,"}{$":14277,"ĠMulti":14278,"Ġmaintained":14279,"JP":14280,"activity":14281,"Ġawareness":14282,"relative":14283,"Ġdogs":14284,")~\\":14285,"conj":14286,"Ġmerger":14287,"Ġmail":14288,"Ġtall":14289,"ĠMit":14290,"relations":14291,"Area":14292,"Pair":14293,"ĠUlt":14294,"bourne":14295,"argo":14296,"Ġaffili":14297,"Ġinjured":14298,"]_":14299,"onia":14300,"ĠGab":14301,"Ġrelies":14302,"QUE":14303,"owa":14304,"being":14305,"ĠDefine":14306,"'+":14307,"Ġquantitative":14308,"Ġemployee":14309,"bracket":14310,")~":14311,"270":14312,"ggreg":14313,"antics":14314,"mbf":14315,"South":14316,"bus":14317,"fund":14318,"Ġregulations":14319,"ĠNASA":14320,"ometer":14321,"=}":14322,"ĠRegion":14323,"ĠProm":14324,"Ġexcluded":14325,"achusetts":14326,"overty":14327,"Install":14328,"Ġflood":14329,"Ġsomewhere":14330,"ellectual":14331,"Ġfocuses":14332,"Ġfoundation":14333,"continuous":14334,"anted":14335,"Ġovers":14336,"ĠProof":14337,"',\\":14338,"bran":14339,"Du":14340,"ĠServer":14341,"bounds":14342,"1968":14343,"audi":14344,"ĠSNR":14345,"Ġharder":14346,"Ġdipole":14347,"allclasses":14348,"Ġsuppressed":14349,"ĠDoctor":14350,"126":14351,"Ġsought":14352,"Ġ{\"":14353,"Ġexhibition":14354,"ĠManchester":14355,"Thm":14356,"bottomrule":14357,"Ġthorough":14358,"Ġhack":14359,"Ġoverl":14360,"Ġprops":14361,"Ġtexture":14362,"Information":14363,"Ġenemy":14364,"Ġchrom":14365,"Ġhopes":14366,"ĠLevel":14367,"Conclusion":14368,"ĠXML":14369,"information":14370,"boundary":14371,"ĠMiami":14372,"ĠInteg":14373,"Returns":14374,"****************************************************************":14375,"colhead":14376,"ĠAltern":14377,"aho":14378,"Ġcancellation":14379,"Ġrejected":14380,"Ġillustrates":14381,"Ġfranch":14382,"diagram":14383,"Ġguidance":14384,"atial":14385,"ĠNether":14386,"Execution":14387,"enant":14388,"Ġdelight":14389,"oda":14390,"Ġimproves":14391,"sinh":14392,"ricket":14393,"abling":14394,"contrib":14395,"ĠEntertainment":14396,"cule":14397,"Press":14398,"solution":14399,"ando":14400,"Ġtiming":14401,"extern":14402,"ĠĠĠĠĠĠĠĠĠĠĠĠĠĠĠĠĊ":14403,"Ġbrightness":14404,"Ġinsights":14405,"}</":14406,"ĠHouston":14407,"Contin":14408,"Ġ[],":14409,"<!":14410,"ĠBry":14411,"FD":14412,"Ġtwe":14413,"Ġblind":14414,"005":14415,"Ġadaptive":14416,"spir":14417,"Ġenv":14418,"ĠMI":14419,"ĠCoul":14420,"Ġdemands":14421,"Ġdiscrep":14422,"[{\\":14423,"Ġdismiss":14424,"Ġreflects":14425,"highlight":14426,"ĠHoly":14427,"usive":14428,"tbody":14429,"Ġtransit":14430,"Notification":14431,"ĠAlice":14432,"Nullable":14433,"Ġpara":14434,"Ġguaranteed":14435,"ĠContact":14436,"Limit":14437,"113":14438,"ĠBurn":14439,"dv":14440,"Ġpursu":14441,"CAL":14442,"KK":14443,"Ġthinks":14444,"adic":14445,"Fn":14446,"('/":14447,"runtime":14448,"ĠMethods":14449,"1969":14450,"compiler":14451,"Ġvalidity":14452,"ĠYang":14453,"helper":14454,"rod":14455,"Generated":14456,"vectors":14457,"ĠGreg":14458,"pb":14459,"vertical":14460,"Ġdegenerate":14461,"Ġham":14462,"Ġparity":14463,"Ġ];":14464,"Ġble":14465,"ĠLewis":14466,"ressions":14467,"Material":14468,"ĠAmb":14469,"Feb":14470,"ante":14471,"Ep":14472,"DateTime":14473,"FLA":14474,"incess":14475,"ĠQuant":14476,"EventListener":14477,"rically":14478,"Ð¼":14479,"Ġscaled":14480,"Ġdemonstrates":14481,"selection":14482,"Ġincredible":14483,"Put":14484,"ĠSIZE":14485,"Ñĩ":14486,"Ġscoring":14487,"ĠRick":14488,"visible":14489,"ĠTheory":14490,"ensively":14491,"Ġincomp":14492,"ĠMove":14493,"ĠSex":14494,"prom":14495,"GT":14496,"Cast":14497,"Ġmomenta":14498,"INTER":14499,"Ġceleb":14500,"timeout":14501,"Ġcomfortable":14502,"MIN":14503,"Ġintroduces":14504,"Ġsimplified":14505,"Ali":14506,"DIS":14507,"Ġcyclic":14508,"vv":14509,"Ġavailability":14510,"gre":14511,"uu":14512,"Ġpeer":14513,"inema":14514,"Pub":14515,"invalid":14516,"fac":14517,"Ġtub":14518,"Save":14519,"Despite":14520,"Ġadaptation":14521,"ĠResponse":14522,"Ġwing":14523,"city":14524,"fam":14525,"Ġswitching":14526,"lst":14527,"Ġsubstantially":14528,"Conver":14529,"onna":14530,"Ġconsiders":14531,"Ġsake":14532,"Ġasset":14533,"Ġunusual":14534,"Ġpermanent":14535,"Ġexhibits":14536,"atile":14537,"ĠLeon":14538,"Ġdies":14539,"ĠSV":14540,"124":14541,"ĠPlus":14542,"Ġhorror":14543,"Health":14544,"Ġsomehow":14545,"Ġmodular":14546,"]}\\":14547,"oker":14548,"Ġhomotopy":14549,"Pal":14550,"Focus":14551,"ĠWi":14552,"Ġmanual":14553,"Span":14554,"ASE":14555,"Ġplugin":14556,"Ġfaced":14557,"signature":14558,"Ã£o":14559,"Attr":14560,"checkbox":14561,"Environment":14562,
[...]
