#version: 0.2
Ġ Ġ
ĠĠ ĠĠ
i n
Ġ t
e r
o n
Ġ a
h e
r e
a t
e n
o r
s t
Ġt he
a l
ĠĠ Ġ
i t
a n
Ġ c
i on
ĠĠĠĠ ĠĠĠĠ
l e
a r
Ġ s
Ġ o
i s
e s
Ġ f
e d
Ġ w
Ġ p
in g
r o
i c
Ġ in
e t
Ġ b
n d
a s
c t
Ġo f
Ġ d
en t
Ġ m
e l
o u
a m
Ġ \
Ġa nd
Ġt o
Ġ $
ĠĠĠĠ ĠĠĠ
Ġ re
o m
i g
Ġ n
i l
i d
at ion
Ġt h
a c
i m
Ġ h
Ġ (
Ġ =
o l
e x
o t
u r
u t
< /
ĉ ĉ
s e
i v
Ġ S
Ġ l
= "
Ġ T
o d
a d
c e
u l
) ;
Ġ is
a g
i f
Ġ C
e m
č Ċ
Ġ {
a b
Ġ A
- -
Ġ <
t h
q u
o w
Ġ v
Ġ g
u m
u n
Ġf or
p e
c h
Ġ st
r a
u s
at e
ĠĠĠĠĠĠĠĠ ĠĠĠ
_ {
p t
l y
ct ion
as s
Ġ I
er s
it h
h t
/ /
Ġ e
Ġc on
o c
Ġ on
i st
Ġ M
en d
Ġb e
Ġ *
t r
i r
a y
at h
t er
am e
Ġ P
v er
Ġ }
â Ģ
re s
u b
Ġth at
Ġa s
" >
a v
Ġ B
e st
2 0
an d
l ass
p p
e f
e g
Ġw ith
e w
u e
ex t
{ \
r i
es s
Ġ "
Ġp ro
Ġ R
Ġ F
ag e
Ġa l
o s
Ġ D
ĠĠĠĠĠĠĠĠ ĠĠĠĠĠĠĠĠ
Ġ &
or t
Ġa n
e ct
Ġ H
Ġ L
in e
Ġ$ \
ou r
ĠĠĠĠ Ġ
p h
it y
l i
Ġw h
( )
o p
Ġ N
ig ht
re f
t a
ar t
u p
ro m
ĠT he
o re
m ath
Ġb y
s p
u re
i z
Ġc om
ur n
Ġ W
Ġ E
Ġ G
* *
m ent
Ġ Ċ
er e
m a
e c
ab le
n t
Ġ it
ul t
. .
o g
Ġc lass
Ġth is
Ġ ex
in t
e p
i al
ac k
Ġ or
Ġ r
al l
k e
y pe
Ġa t
Ġa re
an g
a p
-- --
Ġw e
t urn
iv e
l ic
= =
i es
Ġ if
an s
od e
} \
i le
or m
1 9
an t
c on
g et
Ġ '
} $
u d
Ġf rom
it e
^ {
p er
il l
Ġw as
0 0
Ġ O
pt ion
Ġ y
p l
Ġ -
ĠĠĠĠĠĠĠĠ ĠĠĠĠĠĠĠ
as e
at a
l d
im p
in d
i b
t ext
I n
st r
ac e
ig n
f f
at ed
f t
ar y
u nd
Ġt r
b er
it ion
c om
Ġc h
a re
Ġ J
Ġs h
o v
) ,
Ġ le
} }
Ġn ot
t o
a st
Ġ //
e v
( \
s er
Ġ he
or d
al ue
T he
j ect
g e
e qu
Ġ U
im e
el l
c l
Ġre turn
Ġ </
i p
c al
i re
) .
ar d
.. /
un ction
- >
: :
Ġ [
av e
ĉĉ ĉĉ
eg in
ic h
en s
ic al
ou t
b egin
Ġcom p
a ct
o st
Ġ +
il d
our ce
Ġ us
f r
id e
C on
u g
l o
ar am
Ġs e
Ġre s
f ig
p ro
f orm
u st
Ġc an
c c
en ce
s et
âĢ Ļ
ic e
} ,
on g
ation s
or k
) $
_{ \
20 1
ub lic
l oc
a k
c ri
d d
ĠI n
ro w
ab el
an ce
Ġ @
le s
Ġ K
Ġn ew
m l
" ,
' s
S t
d u
i a
en er
Ġ V
iz e
d iv
l ow
a in
} {
Ġ j
Ġp l
( "
ess age
Ġs u
el f
or y
r ight
Ġ /
ac h
e q
o o
( );
Ġh ave
Ġ un
et a
> </
ul l
Ġwh ich
ĠT h
en c
res s
fr ac
sp an
Ġa r
u se
s o
Ġ k
p ut
Ġ |
am p
Ġ âĢ
Ġst r
' ,
ent s
th er
Ġf unction
> <
i el
1 0
ou ld
on e
Ġh as
E x
---- ----
tr ing
l abel
ra y
p s
../ ../
Ġd ef
od el
iel d
he n
e ar
math b
imp ort
ta in
Ġa b
er r
ow n
ou s
s um
b ject
at or
f er
s h
et h
Ġs et
ou nd
cl ud
le t
i ew
Ġ :
er m
o ver
in k
l l
ĉĉ ĉ
Ġin t
c ite
Ġn ame
ĠS t
y st
pe ct
i an
r m
on d
le ment
Ġal l
re e
s s
n ame
Ġ .
ol d
Ġ* /
le ft
ht ml
ou nt
t he
c he
l ine
ir st
Ġp ublic
** **
) )
Ġh ref
u al
ĠĠĠĠĠĠĠĠ ĠĠĠĠĠĠĠĠĠĠĠ
== ==
ĠĠĠĠĠĠĠĠ Ġ
in al
$ ,
( '
w e
Ġv ar
a pp
$ .
ion s
, \
P ro
Ġa pp
le ct
s ource
ar k
m essage
ter n
Ġw ill
o int
Ġd is
math cal
at es
} .
o id
th is
er v
Ġs p
Ġ qu
20 0
l ation
Ġcon t
Ġo ut
c k
om e
yst em
i x
E R
ic t
ro up
} )
Ġon e
Ġy ou
tr ans
equ ation
r y
ic s
N ame
le d
Ġp art
Ġe v
Ġg et
Ġd o
ot h
el y
# #
c ol
Ġal so
Ġt ype
p r
um ber
Ġ= >
en g
d a
Ġm e
O N
ĠC h
c re
Ġp r
t y
w o
n e
is h
pe c
Ġ ro
Ġ _
Ġv alue
er y
1 2
} (
~ \
Ġd ata
t d
i o
ke y
y m
eth od
T ype
Ġh is
p aram
al se
o f
} ^
Ġp er
Ġb ut
o ol
u ct
or s
I d
a x
Ġl ine
Ġ #
} _
Ġp re
S tring
cri pt
s ub
o b
Ġd e
/ >
id th
ph a
Ġcon st
ar g
1 8
am b
I N
ing s
Ġ up
at ic
v ar
r it
Ġc ol
d ef
Ġres ult
at ch
c ode
loc k
Ġ i
o se
re turn
er t
oo k
a il
v e
y n
" />
al pha
ra ph
Ġin ter
T h
Ġfor m
ul ar
ig h
Ġw ere
ut ion
Ġthe ir
o x
p ort
Ġo ver
Ġ Y
ang e
Ġt ime
c ent
ac he
C om
trans lation
ov e
if ic
Ġo b
Ġs elf
Ġd es
im es
on t
a ke
Ġit s
Ġm ore
$ \
is s
ur re
y s
R E
Ġ id
Ġf irst
ut e
Ġa dd
f o
n g
Ġt wo
Ġn e
an n
c lass
am es
el ta
at ive
Ġc l
: //
) \
ad d
b ar
Ġ !
u ild
ol low
Ġs ub
p os
c a
ic k
R es
Ġs o
amb da
Ġ el
S T
in ed
p on
t ype
Ġo ther
1 6
oc k
L ist
at er
u es
f ter
a ult
t e
Ġw hen
T o
Ġw ork
it em
ĠTh is
ĠW e
Ġm an
Ġa g
v al
Ġ| |
ro und
t t
Ġm odel
ce ption
Ġ `
ĠI t
Ġd if
Ġre qu
mathb b
Ġ= =
1 1
A T
a w
it le
C h
Ġ end
Ġ en
am ma
Ġ und
Ġ\ \
is e
m in
c ess
_ \
Ġon ly
= \
ht t
_ _
Ġan y
Ġ x
Ġre g
Ġcom m
c o
m s
Ġf ollow
ar ch
Ġ imp
i ed
ers ion
Ġtr ans
Ġn ull
Ġp os
Ġb et
âĢ Ŀ
ĠU n
Ġthe y
al s
i e
t on
e ad
tr ib
d ot
h o
id er
Ġwh ere
Ġbe en
Ġv al
res ent
"> <
m u
an c
Ġo ur
he d
} _{
Ġt e
Ġin d
Ġa cc
b le
re ad
as ed
p i
urre nt
} ^{
ig ma
h at
il ity
1 5
at ing
I D
ou n
Ġ use
ĠĠĠĠĠĠĠĠ ĠĠĠĠĠ
w ork
g r
ation al
Ġv oid
Ġ >
as k
eg a
Ġg ener
it s
Ġ )
b r
Ġf alse
se ction
Ġc ase
y le
Ġth ere
on s
um ent
m er
O R
Ġa d
str ing
Ġsu ch
Ġ err
Ġth an
- \
Ġ em
Ġin to
ser v
d er
v ent
ib le
W e
ay s
Ġd ist
eng th
Ġ --
) :
Ġthe n
as h
at ure
Ġwh o
A r
u res
iv ate
ĠĠĠĠĠĠĠĠĠĠĠĠĠĠĠĠ ĠĠĠĠĠĠĠĠĠĠĠĠĠĠĠĠ
u le
Ġre l
A R
b ack
ire ct
s on
Ġn o
L E
ption s
Ġg o
l og
) );
ph i
Ġl oc
Ġc or
Ġtr ue
Ġin st
r r
^ {\
al ign
Ġcon s
pp ort
n ot
" );
Ġsh ow
i ous
-------- --------
Ġc o
Ġd ec
aram et
Ġc re
em ber
or g
Ġus ed
Ġin clud
\ !
mathb f
l ambda
it ies
Ġ ext
d ata
ep end
1 3
we en
f or
f ile
Ġa ct
le ction
b f
Ġh ad
Ġdif fer
s elf
n ing
Ġs ome
ut h
2 5
Ġund er
Ġt est
in ce
ser t
per ty
T r
ag es
ĠP ro
ĠH e
ĠĠĠĠ ĠĠ
ol og
amp le
ad e
Ġe qu
Ġp h
in s
Ġs pec
Ġn umber
1 4
Ġpro v
w h
t em
E N
w idth
av a
p re
ar get
ic es
Ġs c
s c
i ent
em ent
Ġpl ay
C ol
Ġab out
p art
Ġ{ \
e y
v el
2 2
ĠĠĠĠĠĠĠĠĠĠĠĠĠĠĠĠ ĠĠĠĠĠĠĠ
iz ed
S S
n ew
Ġl i
iv en
Ġel se
ou g
Ġof f
Ġe ach
Ġ im
Ġy ear
ĠâĢ ĵ
ĠC om
V alue
Ġf e
D ata
**** ****
c ed
ra ct
// //
a ction
Ġbet ween
w ard
Ġs ystem
Ġor g
Ġh er
ug h
tern al
er n
A L
\ \
ar ray
loc ation
v alue
n er
il on
1 7
enc es
19 9
it ed
um n
Ġp e
S et
Ġs ec
Ġm ethod
Ġre c
" )
Ġm ay
s igma
Ġp oint
y p
Ġstr ing
Ġ ent
is hed
Ġch ar
li ent
ĠâĢ ľ
n b
ow er
Ġ u
d ate
erv ice
i er
Ġf inal
iz ation
âĢ ĵ
b eta
Ġ Q
m all
Ġp ol
R ef
Ġb ack
al ly
Ġ/ **
Ġthe se
Ġh igh
v iew
Ġf il
ang le
b e
ist s
Ġus ing
Ġf ield
Ġex p
Ġ& &
ot e
ro id
Ġw ould
ĠA r
' )
} {\
in clud
ĠS e
od y
Ġs ol
3 2
Ġa fter
a ir
Ġe ff
ra w
Ġst ud
u ff
ild e
ep s
con t
op le
re am
^{ -
Ġd ev
o ot
an k
Ġf ile
Ġk n
( $
] ;
r ic
s cript
p x
in es
re d
Ġ( \
* }
math rm
==== ====
Ex ception
ar s
nb sp
ro ugh
E rr
f ace
ĠA s
Ġm od
E n
ĠC on
ĠF or
fig ure
t est
Ġre p
3 0
Ġs ign
str uct
] {
D E
Ġpro du
o k
Ġst atic
Ġ// /
2 1
Ġt ra
Ġo per
pl ay
m e
p en
ur ing
Ġc al
w w
Ġa m
+ \
1 00
A s
m ary
il y
m od
ent ial
] ,
g er
l and
s ize
Ġ X
iv ers
C T
Ġ %
Ġin v
at us
g amma
.. .
if y
O bject
re qu
e ver
ad er
t ing
Ġst ate
Ġa c
b ox
ro l
r c
Ġo bject
ĠS tring
ect or
il s
ire d
() .
are nt
ĠA l
S E
^ \
he ck
p ar
Ġy our
g y
Ġ! =
T est
c es
et s
ĠN ew
Ġn on
Ġe st
is ion
l ink
F or
us s
) }
ment s
Ġl ist
or ld
Ġ z
Ġas s
ri b
I T
Ġapp ro
() );
Ġpr ivate
ord er
U n
Ġm ost
Ġm in
Ġs ame
the ta
Con t
B y
m an
t able
d elta
Ġs he
j s
t s
ĠĠĠĠ Ċ
I m
le an
A N
. _
Ġst art
ro ll
5 0
Ġs a
"> </
o y
b ig
Ġf l
cc ess
le q
Ġne ed
r ho
l er
Ġg iven
Ġg roup
d is
i k
ĠE x
ĠA n
Ġ key
form ation
Err or
c dot
b y
enc y
Ġs im
eq ref
M E
G et
n av
Ġp aramet
Ġ Z
Ġsh ould
Ġth rough
l a
f unction
oc i
Ġm at
ot t
if ied
p m
ĉĉĉĉ ĉ
t op
$ -
b ol
Ġdiffer ent
Ġ ed
V iew
in ter
S e
let e
ical ly
ta u
oug h
se c
C lass
I nd
Ġw ell
ind ex
F ile
ce pt
d ition
p ublic
iv er
2 3
t imes
}$ ,
as es
ind ow
ens ion
C O
}$ .
[ '
an y
g o
Ġd et
Ġh ow
Ġor der
Ġs er
" ;
ur l
ĠS h
Ġg r
r ite
ir c
re g
re n
2 4
mer ic
sp ace
Ġfollow ing
t ime
} (\
l ist
Ġthe m
lo b
Ġpart ic
p ace
cri ption
qu ot
K ey
Ġf r
ver y
lo ad
. </
le x
et work
as on
ar row
' );
it ial
Ġb oth
Ġwh ile
l ay
! --
ri x
A t
cent er
com m
Ġf ound
Ġc urrent
../../ ../../
oc ument
ĠT r
en se
6 4
ect ed
d e
S h
Ġl ong
htt p
k en
Ġse e
f l
at t
part ial
el op
Ġt erm
ag er
A n
are d
R equ
Ġpe ople
' ]
Ġex pect
r on
ym bol
re ak
com p
Ġvar i
Ġar g
oth er
ĠI f
s u
Ġper form
## ##
sum mary
f ield
f ul
=" +
Ġs ur
} ;
con st
ur ation
qu e
Ġf act
f ore
Ġ$ (
ot s
ant s
ĠĠ Ċ
n u
g roup
is m
Ġli ke
Ġpro cess
or n
ft y
a z
iv es
in ing
m ed
col or
in fty
p ath
ack age
() ,
g round
Ġt itle
Ġr un
Ġs ize
om ega
Ġc all
ab ility
Ġh and
| \
le ar
Ġsec ond
19 8
Ġcons ider
al ity
Ġresult s
ver t
re m
Ġ/ >
00 0
ro p
Ġc ent
Ġs ing
qu ad
v oid
Ġe lement
] .
u c
Ġstr uct
Ġsu pport
per t
Ġcon tain
iv ely
w n
O n
Ġr ight
t ilde
Ref er
R O
Ġ import
Ġat t
D elta
g or
um er
us er
ction s
L L
Ġre sp
re at
op y
Ġerr or
old s
Ġd irect
Ġag ain
I ON
Ġn ow
d t
` `
Ġdis c
T ime
ro ss
T ext
3 3
t ab
f in
ch ool
' :
o ad
Ġd r
Ġre m
Ġdo es
I nt
us h
A l
tr y
al e
uff er
pon se
Ġc a
s q
m et
L A
Th is
ef ore
Ġth ree
cal e
ch i
" :
Ġj ust
Ġeff ect
ar ge
gr am
4 0
e k
E vent
Ġre ad
Ġf ind
b ed
ess ion
ou se
ut ton
ers on
it t
b ers
Ġ ?
an e
n et
c m
og le
a j
le m
htt ps
un c
Ġval ues
Requ est
r al
c it
P E
Ġe very
r t
Ġan al
im it
n ode
ist er
l ang
res p
Ġ čĊ
ul ation
if e
. ,
a h
P I
' t
Ġt em
P ath
ĠI nd
A dd
Ġc ould
Ġbe fore
P h
id ent
ĠC ol
x i
w ay
l p
Ġwh at
o h
Ġb ound
Ġm ult
} [
m odel
se arch
Ġb el
wh ere
\ ,
ore m
E lement
Ġob tain
A C
u ch
eq n
ĠA meric
olog y
I tem
ma x
Ġ );
ress ion
l ength
N ode
Ġbe ing
M an
Ġ-- >
d es
Q u
Ġb r
Ġas sert
Ġto p
" "
ivers ity
trib ute
Ġm y
T R
iss ion
pt y
Ġm on
ur al
os s
Ġm ake
Ġs mall
Ġman y
oo lean
Ind ex
w ord
Ġsa id
I C
In fo
it or
T E
b l
Ġa ut
() )
ath er
D ef
Ġcont in
/ *
ut il
con fig
Ġm et
F ield
ar i
lic ation
6 0
s k
/ **
h er
ĠD e
E qu
Ġl ink
Ġl ast
ĠR es
Ġf in
Ġp ass
Ġdist rib
St ate
} }\
f e
Ã ©
ca use
ra p
ific ation
orm al
Ġyear s
Ġt arget
Ġloc al
Ġa p
Ġth row
)$ .
Ġme as
Ġex per
up er
raph ics
ar n
W ith
Con fig
Ġev ent
Ġm ain
Ġp ar
les s
ĠĠĠĠĠĠĠĠĠĠĠĠĠĠĠĠ ĠĠĠĠĠĠĠĠĠĠĠ
t en
ames pace
Ġb uild
19 7
n o
m p
iv ed
Ġh im
Ġrequ est
Ġm ed
Ġbe cause
v ious
O m
ch n
Con text
b all
Ġd uring
uth or
Ġin formation
pos ition
Ġrep resent
$ $
ac es
pert ies
od es
or th
u i
Ġin cre
res ult
Ġcon dition
Ġal low
r ide
l ish
F orm
if t
Ġ} );
Ġl og
o ff
Ġp resent
t itle
Ġ ,
st ance
resp ond
ma p
Ġm em
Ġar t
v ir
ap i
tr ue
Ġre le
Ġdev elop
lect ed
eps ilon
f rom
O ver
' ;
2 7
Ġ( !
il ar
ad i
s w
Ġs ince
b lock
ic on
lob al
Ġpro ble
Ġle ad
s l
Ar ray
Om ega
} _{\
Ġw rit
S ervice
act er
U R
Ġt ext
Ġar ray
i or
b s
el s
pp er
2 8
ust om
in put
at s
ar m
Ġm ax
in ition
Ġm ap
n ess
Ġcont ent
M ap
Ġp ath
id d
Ġre f
Ġev en
Ġb l
ĠF ig
O r
ual ly
Ġpos s
am ily
Ġs erv
Ġdef ault
Ġprov id
it er
N ot
= '
b m
ca ption
Ġm ust
=" ../../../../
u ary
Ġin put
Ġus er
S ize
t il
Ġ} ,
Ġsp ace
pon ent
ps i
ĠO n
Ġle t
Ġd ep
Ġn ode
i ence
m d
Ġo pt
tt p
d ay
A pp
Ġdes cri
D es
val id
Ġv ery
Refer ences
ign ed
ut es
end s
ener gy
o bject
^ *
Ġ/ *
o od
ĠL e
text bf
Ġres pect
Ġm ade
Ġid ent
ap ache
Ġle vel
ur s
ig inal
b ody
u f
Ġv is
//// ////
2 6
Ġle ft
il ter
err or
ol ution
Ġg u
R e
Ġ: =
it ive
iv ing
our ces
ou th
Res ult
en u
F F
Ġte am
Ġob serv
ĠS c
he ad
se e
Ġt ak
ĠF r
ĠH ow
Ġo pen
)$ ,
iv ity
er o
ass ert
[ ]
Ġm ass
over n
p oint
w ith
> &
v ersion
Ġpro t
yn c
s ide
ile d
sub section
gor ith
Ġb lock
+ +
pl ate
Ġw ay
Ġb ased
om et
4 5
F r
re c
o le
Ġint eg
Ġ ra
n ext
ut ions
in ation
al th
f ra
ens ure
M A
Ġt yp
b it
cre ate
ur y
sq rt
r u
Ġc heck
r ation
M essage
Ġre al
Ġkn ow
lo at
a u
9 9
L O
Ġas sum
Ġs rc
Ġh ere
A D
le g
et urn
en e
ps ilon
G amma
******** ********
ag s
ix ed
ou ble
D e
l t
Ġl arge
able d
C ode
eqn array
st yle
ict ion
du ct
co pe
Ġc oun
Ġp op
Ġcor respond
B uild
U T
Ġc ode
Ġn ext
H and
Ġn etwork
g t
Ġd epend
iv al
O f
includ eg
includeg raphics
re l
Ġv ersion
im al
Ġth ose
ist ory
ĠS ystem
b o
2 9
re t
def ault
M L
st ate
H e
V al
b ase
v ail
Ġin itial
Ġex pl
ott om
c ss
E D
ne ction
ĠR e
Ġpos ition
Ġcon fig
l ight
I G
Ġj ava
Ġm ark
Ġd own
Ġre port
us ing
^{ (
n on
. "
ur ther
st art
ĠA nd
8 0
IN G
Ġex ample
Ġgener al
at ures
nd er
in fo
Ġd i
Ġb reak
in c
ĠUn iversity
Ġm ov
Ġind ex
M odel
ator s
Ġap pe
cont ent
Ġre fer
Ġp at
d ev
and ard
in a
o ption
re ate
I S
Ġcon text
se m
Col or
op er
l ished
Ġmeas ure
: \!
al k
ĠI s
v are
Ġ= ==
Ġch ild
Com m
I s
Ġcre ate
L oc
\! :\!
d own
Ġv iew
str u
Ġrec ord
j ava
ut ed
Ġp res
w are
tain er
Ġbe g
Ġ energy
Ġdef ined
Ġinclud ing
Ġc ar
Ġab ove
} =
yn am
Ġest im
Ġre ce
ĠP h
Ġinst ance
u str
Ġe ar
Ġsing le
E T
ac y
em ph
able s
Ġadd ition
}^ {\
Ġpro ject
Ġ( $
A B
h ip
---------------- ----------------
vare psilon
it ch
u age
ro du
a it
t ings
it al
ap er
6 6
Ġs um
ate g
Ġd id
U ser
r am
ol v
20 20
201 7
ww w
3 5
Ġf our
s im
and om
Com p
I t
ic y
c er
b ug
Ġc r
) =
Ġb ase
T D
Ð °
p or
' '
ef f
Ġcal led
l in
201 8
Ð ¾
and roid
Man ager
Ġo wn
Ġl ook
A S
L og
og raph
u ck
imp le
ĉĉĉĉ ĉĉ
che s
M P
. ~\
ĠCom m
Ġcomm un
C H
roll er
includ e
p ackage
m at
Ġ$ {\
right arrow
Ġst yle
Ġ} ;
Ġs ource
Ġhe lp
t n
F rom
w id
; </
and s
r angle
Ġb ro
Ġp ost
a ut
ĠĠĠĠĠĠĠĠ ĠĠĠĠ
Ġm ag
ys is
im um
Ġd at
i que
Ġ_ _
Ġwith in
ĠAmeric an
pro t
end er
Ġkn own
in ess
=" ../
S er
Ġ\ ,
et er
i od
Ġd en
com e
7 5
d f
201 6
che ck
T able
ic le
In ter
ĠG et
O ut
u les
anc es
ĠY ou
ith ub
m ethod
u x
ĠĠĠĠĠĠĠĠ ĠĠ
=" #
oc us
ir d
i j
con text
im ension
Ġit em
c ount
B ig
Ġtr y
us ic
Ġs at
ge q
f alse
os ed
ur ity
vail able
om ain
Ġp ower
l im
pro of
go ogle
a pe
ĠT o
ref er
c or
Ġpro gram
Ġwith out
Ġto t
le y
201 5
var phi
is ed
he s
âĢ ľ
D O
Ġ enc
om en
20 19
at ely
end ed
ann el
P l
Ġch ang
Ġd ue
Ġm uch
Pro perty
; &
m y
Ġmodel s
Ġsim ilar
Ġw orld
def ine
ĠM ar
Ġo cc
Ġparamet ers
d oc
Tr ans
Ġagain st
Ġbe h
. }
R ec
Ġex ist
vir on
at ter
i um
ĠA t
5 5
Ġt ake
U LL
9 0
ĠP r
ex p
ĠO r
U p
Ġcont rol
) </
e e
o pt
Ġcomp on
ater ial
R eg
lic k
EN T
ore d
g ithub
E S
Ġst ill
] (
. âĢĿ
ĉ Ċ
m ult
d b
Ġm ak
oh n
l ing
Ġo ptions
D is
A ll
Ġr ange
[ \
G roup
Ġrequ ire
O T
< !--
is on
c ore
et y
Ġg ame
Ġa round
ear ch
m m
Ġb as
0 1
Ġc ur
Ġcol or
Ġcon f
U N
& \
Ġ et
we b
ord ing
che d
an sp
Ġsh own
Ġt ri
t ual
b olds
Ġproble m
c ul
Ð µ
Ġw ant
n amespace
ĠS he
if ier
sh ip
Ġse ver
Ġte chn
Ġw idth
bolds ymbol
amp les
Ġre ma
Ġim age
ĠUn ited
h line
v ec
ĠE ng
d raw
Ġe lect
P r
gorith m
on se
n s
20 22
Ġse ction
ide o
S ystem
st atic
o ber
ens ity
Ġand roid
C lient
Ġn il
3 4
C ount
un e
Ġadd ress
> (
Ġbe st
N ew
Ġd el
a i
Ġqu ant
}, \
Ġass oci
t es
Ġresp onse
Ġre du
ev ent
A nd
Ġgo od
ĠA d
Ġpro perty
Ġst at
" .
c ast
Ġpre vious
Ġhe ad
Ġst d
Ġch ange
Ġ( )
Ġdet erm
I f
Ġpartic ular
} ).
M ethod
Ġd eta
Ġpre d
a f
R ep
um p
Ġout put
over line
ar ning
Ġa ction
um ents
s i
Ġback ground
u ro
Ġb ool
Ġpoint s
C E
201 4
3 9
Ġser ies
lo se
ĠW h
ug g
o in
Ġchar acter
c all
er efore
am ed
ĠHow ever
il t
ĠT e
Ġparamet er
on y
Ar g
Ġ Ð
Ġpro b
us iness
n ect
Ġcor re
Ġl ength
Qu ery
Res ponse
C all
Ġf ull
arg in
Ġs pect
Ġfollow s
M od
an el
im ent
======== ========
R ead
L et
read y
Ġtot al
stru ction
ĠP l
Ġl ow
Ġstud y
Over ride
Ġlink s
Ġad v
w ays
Ġinclud e
20 21
n ull
Â ł
ou d
Ġl ater
c urrent
I R
um e
Ġsu ccess
Ġd em
ith er
ĠA ll
pr int
Ġmult ip
b uild
ust er
Ġs k
B ar
im age
I P
3 6
r id
Ġimp lement
ĠĠĠĠĠĠĠĠĠĠĠĠĠĠĠĠ ĠĠĠĠĠĠĠĠĠĠĠĠĠĠĠ
Ġs w
Ġc ell
Ġm atch
b utton
Ġpl ace
Ex ternal
act ory
Ġm essage
ord s
4 8
} }$
av ing
qu ery
) ^
T H
N A
m o
en ame
Ġc ount
ĠA pp
Ġd er
Ġ q
Ġa vailable
fra k
d ir
ist ic
ĠF e
fo ot
U S
Ġposs ible
epend ent
Ġor iginal
Ġal ong
) {
in ary
o ptions
3 8
or ph
Build er
201 3
ĠM ay
fin ished
ĠS et
ĠJ an
ĠR ep
D ate
Ġt able
Ġacc ess
0 5
Ġp ort
Ġo ld
c ap
ast er
is f
Ġs uper
Ġl a
ĠC l
d l
) (
s f
ot ential
~ ~
Ġf amily
3 7
ĠâĢ Ķ
Ġexpect ed
Ġd ocument
he ight
ensure math
a int
ĠS p
Ġreg ion
th s
Im age
Ġterm s
li b
x im
Ġinter est
f unc
und le
c irc
Ġstruct ure
3 1
ON T
ĠL ist
Ġshow s
Ġl arg
viron ment
St ream
v en
Ġn ear
ph p
Ġc ap
e ction
Ġprodu ct
Ġd on
] )
Ġ` `
ld ots
L ambda
B lock
ĠE n
text it
y c
it ud
Ġs equ
h and
r un
Ġs ervice
S ub
ĠC ar
un finished
Ġp erson
Ġdisc uss
x y
l angle
re en
4 4
Ġl aw
Ġdistrib ution
Ġs chool
requ est
S u
I L
ib r
ut ure
( (
cit ep
st er
Ġme an
s mall
Ġval id
ib ility
Ġf oot
Ġan other
ĠĠĠĠĠĠĠĠĠĠĠĠĠĠĠĠ Ġ
ic ient
j av
ĠB y
aj or
Ġl ife
Ġl imit
li es
201 2
math frak
E nd
Ġl ay
e lement
Ġ ke
ĠC an
In put
ĠM an
se qu
ame work
201 0
ward s
ateg ory
ym met
Ġan n
C ell
tern ational
arg s
S P
cl us
Ġcontin u
B e
Ġse ason
E E
row s
Ġcom b
( {
in it
Ġb ook
Ġl ang
rit er
app a
Ġt ask
end ing
ent ion
o op
Ġplay ers
201 1
a pt
A G
Ġorg an
Ġs pe
c lient
} ),
Ġsever al
Ġc are
Ġinv est
Ġfunction s
overn ment
Ġl abel
p ol
Ġp o
var i
Ġv ert
St atus
Ð ¸
id es
ser ver
Ġb order
N S
t x
Ġ< <
ra int
n ab
r ing
6 7
i ev
0 8
Ġsh ort
Ġc our
G ener
o ice
Ġmat rix
Ġrequ ired
Ġf a
ĠC ent
Ph i
er g
. \
Ġv ol
Ġ- >
Ġd ay
Ġfil m
Ġstr ong
P os
z e
Ġind ic
v ers
res h
ic i
ial ly
Com ponent
Ġs che
P ar
ĠB l
ĠThe y
li ed
N av
sub set
aram s
m ark
Ġare a
Ġf ree
Ġun til
k n
g ress
Ġint rodu
S tr
pp ed
app end
L ine
u k
i i
ĠSt ates
00 00
r ist
v es
Ġdes ign
O P
ep ar
old er
b um
p age
ĠThe n
\ |
Ġa ff
d ec
L ay
Ġest ab
k appa
p ng
Ġsat isf
Ġmethod s
ĠJ ohn
P aramet
6 5
ur ch
h as
ĠP ol
t arget
d o
\ %
N o
en n
our n
Ġcomp ut
y les
Ġg raph
ic ro
Ġ" ""
ri or
Ġcomp let
pos ed
ĠG r
Ġ es
ĠC o
Ġp otential
oc ial
Ġs ide
ĠR eg
at form
ab ase
Ġimport ant
port s
add ing
Ġsu pp
Ġperform ance
ĠĠĠĠĠĠĠĠ Ċ
id ual
ĠW orld
Ġt imes
Ġex ec
dis play
or age
l s
Ġb oolean
he ader
m it
b ook
pro perty
Ġd eg
a im
Ġst ates
S C
b ra
nab la
A P
B ase
Ġp arent
ĠG e
u id
ic ense
0 7
ĠN ational
E d
[ "
um an
To ken
Y PE
r ict
Ġl ight
le ase
x ml
} )$
Ġst andard
ĠN ULL
Ġimp ro
Ġsign ific
Ġper iod
f low
g ener
w ide
oc ol
cre en
Ġf ew
act ive
d at
Ġc lear
am ent
Ġsol ution
ĠN ov
Ġp age
Ex t
al f
n ow
Ñ Ĥ
ver age
ĠC ount
RE F
ĠĠĠĠĠĠĠĠ ĠĠĠĠĠĠ
S ource
ug ht
ĠN o
A ct
am il
pl ace
ug in
S c
Ġs it
w ise
Ġwe ek
In stance
O ptions
Ġt urn
st it
ĠA dd
Ġ eng
ĠB e
p arent
I I
u ation
ĠS ec
Ġcomp lex
Ġal ready
sem b
he ther
ot o
H ead
mod ule
nav bar
Ġd iv
Ex p
Hand ler
ĠU S
Equ al
b ottom
un g
4 7
A ction
ag ement
}} {
ag ue
Ġanal ysis
4 9
ac ed
Ġcol umn
Ġb u
Ġb o
Ġp ub
our s
k s
, âĢĿ
Ġpro perties
at rix
Ġre d
p c
al t
Ġ+ =
ra in
D ec
ag ed
ĠJ ul
ill ion
O D
Cont ent
iz er
Ġr ate
Ġh ome
Ġn um
ad ata
if f
om in
S ec
le v
ĠC al
Ġv ir
an ch
s ol
ig ation
r l
C K
Ġle g
Ġconst ant
Ġle ss
g es
Ġp aper
or ies
C l
F A
ĠL et
ĠC O
O ff
center ing
Ġs cal
200 9
Ġe as
j son
Ġre t
Ġobtain ed
d r
ĠP ar
c ase
Ġacc ount
U s
Res ource
Ġro le
19 5
\ [
Ġs ay
v ider
Ġf urther
Ġle ast
c ell
l it
Ġre st
f irst
E X
ĠS chool
Ġp air
ot imes
N ull
ch ild
Ġappro ach
S igma
er a
ial og
m box
Ġn ormal
ot ype
/ \
M S
Ġe ither
ta ct
6 8
est ion
se lect
0 9
Ġpro m
ache d
om ent
ĠB ut
Ġl ower
Ġappro xim
ĠM in
ens or
p ost
Ġr andom
O per
Ð ½
y l
Ġcorrespond ing
Ġh ttp
b tn
eg er
Ġprov ide
Ġcal cul
ĠS o
Ġc ou
ĠTh ere
Ġline ar
H T
Def ault
R un
Ġ ide
F ig
Ġis s
Ġfe ature
ĠĠĠĠĠĠĠĠ ĠĠĠĠĊ
Ġw in
S p
ire ction
0 2
Ġre search
ch o
Ġv ector
non umber
s pec
B uffer
s rc
0 4
as ing
wid et
w rite
C C
pt r
AT E
trib utes
#### ####
ĠI nt
LA SS
L ink
a e
om ic
ight s
Ġelement s
us ed
ma in
Ġfe atures
ĠCom p
ĠT est
ac ing
s g
al es
ent ly
g le
row ser
ĠY ork
St yle
200 8
" ]
ra ft
* /
Ġin du
Ġsystem s
m eta
il er
Ġph ys
st atus
At tribute
Ġf ore
F actory
ĠA ug
Ġc irc
pl oy
im ary
ĠThe se
il li
ch ar
T O
âĢ Ķ
ord in
Ġsignific ant
P art
B ox
Ġoff ic
m ber
Ġc ases
Ġh ost
Ġassoci ated
im g
U L
dot s
st and
H E
ĠJan uary
f ind
ic a
U E
Ġd ensity
Ġcon struct
ĠO ct
{ -
widet ilde
olog ical
op en
v is
Ġdis play
P oint
ĠM ed
$ {
Ġv ia
Ġbet ter
el ine
ĠSt ate
ly ing
Ġev ents
St art
V ersion
pro p
Ġth ink
pr ivate
s cale
F l
Ġc over
ĠG u
ĠW est
ur b
on ly
Ġbel ow
Ġm ot
Ġtr ack
da pt
st d
ab ly
g en
Ġre cent
O S
Ġdescri bed
is ing
in st
ĠW ar
F ONT
str ong
ĠâĢ ĺ
p ush
tab ular
p o
Ġs epar
sk ip
Comm and
Ġg lobal
od ing
e ed
} );
Ġh y
Ġc lose
T ask
h ost
Tr ue
Ġrespect ively
N umber
Ġtra ining
} -
Ġdif f
Ġal ways
ol l
ĠR ec
Ġpol it
Ġcondition s
W indow
om an
ver se
F unction
cl ose
ĠN one
b b
Ġg e
kn own
F irst
F I
Ġo p
st ream
0 6
Ġl oad
Ġc ost
Ġm usic
erm an
lay out
b ased
ĠO bject
Ġcon trib
al let
loc al
as cript
ig ger
ĠD ef
pp ing
m ar
des cription
l ast
Ġcol l
ĠQ u
Ġg row
in o
A d
ĠCount y
Ġb usiness
V ER
he et
) ]
Ġse arch
Ġhigh er
ty p
Ġm ajor
L abel
ĠI m
Ġme ans
S pec
0 3
li p
ri es
Ġn eg
Ġmem bers
ĠG ener
Ġde ath
Ġin s
Ġear ly
che ma
Ġsu ff
Ġ ]
Ġhe ight
Ġdef ine
Ġthe ory
Ġequ ation
H el
W h
P age
Ġcomp any
f ont
Ġal bum
Ġspec ial
pr il
action s
Ġs l
er ing
ĠS outh
ĉĉĉĉ ĉĉĉĉ
ap s
A M
Ġev al
Ġf ail
Ġp ut
Ġd ynam
Ġpro f
lic it
m t
Ġph ase
Ġprot ected
ĠM arch
pt ember
Ġfoot ball
ĠI N
I M
\ ]
pro ject
ch ange
Ġres ource
con d
Ġf low
Ġpro of
Ġto o
itud e
av es
b uf
ustr al
med i
Ġb i
âĢ ¦
Ñ Ģ
} +
Ġal gorithm
ad a
Ġc lient
ec ess
Ġc ustom
ĠW hen
uro pe
Ġw rite
N O
ar r
ĠW ith
ansp ort
Ġb ody
Ġspec ific
n um
ent ry
Ġprovid ed
th ough
Ġb ir
9 5
ne y
Ġfield s
C reate
Ġa uthor
Ġm ight
m em
Ġw indow
Ġal ign
ob j
ĠB r
200 7
Ġc ross
P RO
adi us
on es
B utton
n a
Ġcomm and
Ġan t
Ġdi ag
ĠR eturn
idd en
pr ime
ĠM e
col umn
4 2
er tain
le vel
Ġtem per
ĠC or
Ġrel ations
op s
C heck
p ack
serv ice
] [
Ġ{ @
F ilter
semb ly
Ġs imple
c ame
th m
if act
ur g
Ġ< !--
Ġw hether
ĠP art
i res
or iz
P ol
Ġs ong
ĠC lass
ist or
Ġext ends
form at
param s
Ġp ay
G L
Ġs cale
\ {
id ence
ch an
L ast
um b
le ge
Ġin div
Ġpr int
Ð¾ Ð
, -
ard s
ĠB rit
Ġd ouble
oug ht
so le
Ġbe came
Ġex ists
Ã ¡
Ġv er
Cont roller
ce mber
up date
R eturn
Ġpos itive
Ġthrow s
ar ing
il it
' ).
Ġup date
AB LE
ĠD es
ann ot
jav ascript
" ),
Ġd est
ad io
ft ware
// /
l en
Ġs em
an a
yp es
it ory
Ġcons ist
S ON
ugg est
o ke
" ).
Ġ( (
itt le
8 8
Ġconsider ed
er ed
Ġc rit
R ow
er al
Ġo ption
P C
( &
Ġcre ated
Ġbeh av
em ma
ĠSe ction
s igned
Ġh app
; \
ex pect
4 6
E m
m on
ry pt
Ġoper ator
Form at
Ġl ines
end if
f ilter
ĠThe orem
Ġdef inition
List ener
Ġpro p
Ġac ross
Ġz ero
Ġ& =
al y
Ġ url
Ġchild ren
res ponse
p df
Ġg l
on al
Ġin ternal
ul a
Ġs om
sp lit
7 0
200 6
iz ing
st ract
Ġw on
ĠE d
itt ed
Ġf requ
Ġf und
ud io
ĠE q
ĠC ity
Ġh ard
A A
Ġaut o
l ong
em ents
m ost
& &
chi ev
ĠS er
og n
ĠJ une
Ġph ot
Ġd one
ens ions
Ġl oss
ab or
Ġa verage
con tainer
Ġse en
M M
ra v
P re
B undle
al le
//////// ////////
ir m
} ]
Ġm argin
) =\
ĠAug ust
Ġf ocus
ĠSe ptember
Ġst ep
il ities
Ġcontain s
ri ed
ic ation
O L
Ġform er
Ġm ove
th ers
ĠA pril
U I
Equ als
20 00
Val id
Ġm ode
, "
re ed
at tr
c an
comm and
Ġam ong
Ġst atus
olv ed
st yles
p y
Ġcompon ent
} =\
Ġc ity
Ġm ar
at ural
ĠD is
Ġgr ad
ort s
oper ator
f ill
B U
em pty
b a
ĠN ot
fer ence
Ġg ive
Ġhe alth
Ġb and
Ġcomp et
ac ity
ag ing
Ġg overnment
ĠOct ober
m ember
n umber
Ġsequ ence
Ġindiv idual
Ġpl an
Ġun it
Ġm ember
ig in
E nt
Ġn umer
Ġd ate
sh ow
und er
a ff
Ġg reat
ĠD r
Col umn
text width
re st
) }\
c os
Ġp ract
Ġh istory
d ist
g ing
Ġli k
d ep
( -
Ġof ten
< ?
idd le
ĠJul y
h am
ĠA ss
ĠS u
ĠN orth
ĠA b
Ġar ch
ĠA ct
ock et
Ġl ate
pro cess
Ġf uture
Ġs ite
ist ry
Ġc opy
ĠM ore
om orph
Ġto get
s d
: </
Ġt re
c y
ĠE urope
Ġtoget her
Ġvar ious
Ġc atch
ĠO ne
ress ed
m enu
wh ich
t ag
id ed
Ġab le
ref ix
) ^{
Con st
Ġtyp es
h ib
M et
Ġs ent
p ass
id s
Ġfin ite
enc ies
Ġth us
A ut
Ġar r
Ġth ird
Ch ar
ition s
ibr ary
ĠS w
refer ence
Ġtrans form
Ch ild
Ġne ver
pl ing
rem ove
ure d
bo ard
Ġmultip le
ĠNov ember
z eta
S I
ĠDe cember
Ġapp lication
_ .
Ġp erm
Ġpred ict
ĠH REF
Ġw ater
Ġf ar
}^ \
lem ma
T ER
7 7
ĠG o
UR L
at al
l or
D B
T em
ĠC LASS
O b
su pport
> >
U t
6 9
uss ian
in stance
Ġw omen
amp ion
re w
P er
ce ed
p le
m id
Ġa chiev
A cc
Ġgo ing
Ġchang es
Ġs ample
lection s
am l
B ack
Ġmod ule
ĠA fter
=" ../../
i ol
Ġf ixed
Ġp ur
cdot s
at io
Ġinst ead
Ġrele ased
x space
}_ \
ĠM c
oo se
ĠA ustral
Ġatt ack
D ev
P si
Ġpro posed
$ )
wide hat
Ġst ream
Ñ ģ
to ol
ig en
Ġbl ack
un it
Ġf ont
Ġcan not
ĠĠĠĠĠĠĠĠĠĠĠĠĠĠĠĠ ĠĠĠĠĠĠĠĠĠĠĠĠĠĠĠĠĠĠĠ
Ġinclud ed
ac c
L ength
Ġcl aim
b or
ĠC ont
ar ies
ef ined
as et
ad em
Ġle arning
ograph y
Ġm oment
Ġrece ived
Ġbe come
Ġre view
Ġaddition al
ĠCh rist
g l
Ġlang uage
Out put
pro to
i ag
Ġrel ated
8 5
th ing
app ing
br uary
{ (
M ode
T P
Ġspec ified
Ġind ependent
Lay out
Ġke ep
Ġ row
Ġfil ter
Ġgroup s
un k
el se
ra ction
Ġb en
Ġse lect
b ound
ĠA PI
off set
Ġbeg in
`` `
Ġs ymmet
Ġh aving
Ġit er
i ke
Ġd omain
Ġobserv ed
R A
he l
Ġ ),
} /
4 3
Ġn av
Ġf ive
. $
Ġst ar
i qu
} |
ition al
Ġs uggest
ĠH T
F e
i ans
inc ip
am a
Ġc he
Ġwrit ten
Ġl im
Ġinter face
ist ics
n ected
We b
Ġform at
N ext
Se e
Ġcomm on
C ache
Ġex act
iz es
="../../../../ ../
ang ed
s m
Ġqu ery
A b
E L
H ow
Ġcon c
R em
V ert
Ġfact or
Ġadd ed
ut ils
ĠO ff
ab s
Se lect
c d
Add ress
f inal
Ġhow ever
Ġen vironment
N D
Ġre ason
is es
U rl
out put
C D
q l
Ġreg ular
Ġv ideo
4 1
Ġem ploy
ap an
ĠH igh
ER T
re et
Ġ ...
Ġwork s
Ġdevelop ment
Ġ Â
not e
if orm
c s
Ġsur face
ĠO F
ge bra
ĠS ince
Ġser ver
Ġ\ {
im ation
prot otype
ĠV al
Ġm aterial
Ġdist ance
Ġh om
val ues
equ iv
Ġd ays
Ġf ac
Ġequ ival
Ġset s
Ġgener ated
Ġplay ed
ĠFig ure
h a
ĠR ef
b in
ul ations
Ġj ob
ĠD o
Ġn ecess
tt ps
CO L
% %
is k
ther n
li ke
l n
am s
Ġapp lic
= {
200 5
O ne
imension al
Ġc amp
Ġpop ulation
it es
ro y
ol ve
| -
Ġcommun ity
Ġam ount
ĠL icense
NA ME
a use
Ġm iss
Ġt w
al ax
r um
Ġon ce
C ON
Ġn one
ĠI D
Ġmed ia
it ter
ev el
tain s
net ic
Fr ame
=" -
Ġg en
d om
d epend
Ġe p
ou ch
Ġg ames
}) \
ex ec
Ġexper iment
W idth
T YPE
Ġh uman
k it
ot al
Ġse em
Ġloc ation
v ed
Ġappe ar
Ġh ttps
Ġprob ability
++ )
Pro vider
I O
Ġro ot
ult ure
art ment
ĠA m
Ġd raw
oot st
ER R
Ġfile s
M in
ĠS ch
Ġacc ording
Ġ! ==
ĠAr ray
Ġ[ ]
lay er
s cope
M ax
Ġmak ing
P S
M em
w indow
ĠB ar
Ġcon v
Ġen ough
f loat
Ġto ol
Ser ver
Ġanal y
Ġs ix
eth ing
qu are
Up date
9 7
T ag
Ġrem ov
n ers
ĠD ist
Ġcomp lete
ĠD ata
c up
Ġdeta ils
Ġoper ation
Ġcent er
ess ages
b ind
Ġcall back
ex ample
. ~
Ġwe ight
ĠA g
math sf
Ġequ al
er c
Ġcom e
ĠE X
Ġrefer ence
ĠFe bruary
Ġa ge
ĠG L
C L
Ġin it
G e
il le
ĠD ep
Ġto ok
y ear
app ro
st ack
q quad
s ing
Ġbe com
ho od
Ġc ertain
ict ure
( _
s in
ache s
od er
Ġassum e
S U
ion al
Ġs ocial
it ect
ev en
Ġact iv
Off set
}^{ (
ĠB o
Ġed ge
Ġa ir
{ {
and id
Ġcorre ct
Ġinst all
file s
Ġs ays
Ġn amed
Ġcoun try
Ġbu ilt
Ġtak en
Ġcomp ar
Ġf ri
} :
Ġh alf
e h
Ġmark et
Ġacc ur
ĠP er
gr ad
ro ot
Ġl and
i et
fr ame
t ic
ã ģ
Ġtr ad
Ġse lected
ĠK ing
T arget
st ar
Ent ity
ate gy
Ġserv ices
Ġsub ject
C o
Ġst ory
ootst rap
Ġof fer
im ate
Ġp rior
Ġs imp
V is
Ġun ique
Ġ ill
I V
ĠF ile
Ġopt im
ĠP res
li er
Ġwork ing
Ġconst raint
Ġact ive
el oc
d s
. /
CO DE
Ġ$ (\
Ġg round
Ġb ig
requ ire
Ã ³
Ġplay er
c r
Ġobject s
200 4
d ocument
i ef
ourn al
ĠR em
}} (
9 8
Ġre ally
ph er
yc le
Ġnot e
n ce
Ġre pl
Ġlarg er
par se
ed ge
ĠCh ar
ĠTr ans
Ġ ::
P O
ĠT ype
ĠIn ter
Ġpre c
anc ed
Ġtemper ature
model s
Ġb ox
Ġed uc
T ypes
A fter
cont rol
c el
5 7
}\ ,
one y
Ġreturn ed
art ifact
Ġprodu ction
m atch
T op
Ġann oun
Ġob j
fl u
Ġf ig
ĠM ark
b reak
ef t
ind ent
ra pper
Ġoff set
Ġvir tual
( [
du c
i ents
}\ \
C ase
Ġbuild ing
class es
g ed
in ner
AT ION
Ġb it
Ġt reat
& =
^ +
ĠU p
b orn
Ġl iter
t ex
n ormal
Ġpat tern
un ch
s ign
ĠC oun
Ġyou ng
() ->
ĠA cc
] );
) -
Ġac cept
ic ol
Ġm illion
ĉĉĉĉ ĉĉĉ
cit et
ĠL emma
ob ile
Ġca pt
Ġquant um
u int
I F
o pe
UL T
6 3
f a
ĠD ev
A ccess
Ġp ress
Ġim ages
b ool
tem plate
$ (
Ġcon nection
t ree
t ask
ĠL a
led ge
A V
Ġf it
Ġh ouse
Ġ& \
lo y
j ection
W ork
Ġcontin ue
**************** ****************
a uthor
Ġrel ative
a ul
il i
Ġmax imum
ill s
Ġvari able
ĠS an
Ġarg s
omet ry
O pen
Ġcon ver
Ġro t
Ġexp ression
ĠN ote
ic ip
Ġloc ated
at tern
r ics
5 00
Ġa way
Ġreturn s
Ut ils
ach ine
l ate
d ated
bs ite
Ġunder stand
en umer
ul ated
Ġp ast
He ight
ot a
Ġset ting
ĠBrit ish
lic e
Ġ ~
Ġ* *
Ġhe ld
Ġro und
5 8
ĠP e
a a
os p
S D
ell ing
Ġreport ed
Ġs m
ĠP ark
row n
Ã Ń
Ġeffect s
so ft
es e
mod al
ĠR ev
m ore
con f
Con tainer
ĠTh at
Ġent ry
Ġu int
Ġle arn
Ġk ind
P e
Ġmak es
Ġ[ '
En try
Config uration
ĠAr t
' ),
Ġwh ose
ã ĥ
sc r
Ġprovid es
comm on
ul ly
Ġme chan
Th ere
ont al
ĠS tr
return s
pl it
et ch
str ict
sh ould
K E
Ġstud ents
Ġch annel
Ġde b
} +\
ot ed
Ġsol id
A g
Ġy ield
T ree
Ġpub lished
ĠI I
Ġconfig uration
Ġcare er
Ġg ives
ast ic
{ }
t ml
r ule
Ġme et
ĠĠĠĠĠĠĠĠĠĠĠĠĠĠĠĠ ĠĠĠĠĠ
Ġc ut
ĠH is
Ġw ords
Ġl en
ma il
Ġcol lection
Ġf loat
ĠA fr
ve y
tem pt
ct x
cript or
ĠD av
S cript
Ġco ordin
Ġl ittle
Ġt ree
Ġas k
Pro cess
Ġfr ame
Ġb ar
Ġr ank
ĠM on
A PI
Ġh old
Ġcl uster
Ġth ough
ren ch
6 2
ĉ ĠĠĠ
Cont rol
ot es
Ġ Ã
] $
Ġsp in
p atch
S O
Ġrem ove
styles heet
ĠEng lish
ĉĉ Ċ
eta ils
ic ult
B C
Ġcompon ents
Ġeng ine
Paramet er
Ġcl os
Ġstart ed
ĠF irst
Ġcomp ared
ĠT able
Ġvari ables
Inter face
ĠJ apan
Q L
ip s
Ġestab lished
ĠA rm
th on
s up
Ex ec
Ġdes cription
at ory
Ġt im
Ġd irection
k a
ĠE m
ĠM y
w ait
Ġto wn
ĠLe ague
Ġb uffer
im ages
Ġdeg ree
od ed
Ġsuccess ful
ent ity
N N
Z E
Ġn odes
Ġrepresent ation
Ġn ational
L oad
W rite
i as
ĠN e
to ken
c ache
P R
U M
ed ia
av en
om s
Ġo pp
artifact Id
H O
D r
: "
Ġm en
}} {\
H ttp
Ġtrans ition
Ġcl osed
20 23
min ist
Ġr ather
ond on
200 1
\ "
ĠF rom
Un it
s ystem
Ġinteg r
} '
Ġbound ary
P o
ampion ship
Ġent ire
oriz ontal
es h
T e
| ^
Ġrele ase
ĠR ed
line ar
Ġ ir
b uffer
Ġwe ak
clud e
Loc ation
' ],
200 3
C P
" ))
Ġpol icy
Ġqu estion
pre t
7 8
Ġch all
ar p
{ {\
5 9
Th read
Ġsom ething
Ġsign al
Ġdirect ly
Head er
ĠTh us
L evel
Ġaut om
> ,
Ġdev ice
n eq
S earch
c ing
ar io
Ġo thers
Ġst ation
un ity
6 1
Ġth erefore
ĠA c
Ġn atural
Ġg alax
dev ice
p ose
D at
he nt
W hen
IG N
ern el
th at
Y ou
Ġeffect ive
Ġpartic ip
Ġincre ase
on ic
Ġneed ed
v ector
E CT
Ġsol utions
back ground
Ġbeg an
Call back
expect ed
Ġden ote
ub e
D F
at ives
Ġs ens
ĠL og
Ġse lection
Ġbel iev
Ġp ack
j ust
at ively
Ġs ure
re p
Ġeval u
t hen
ĠA ir
Ġne igh
ĠS ub
res ource
J son
h space
f s
ri ef
z z
Ġallow s
="../../../../ ../../
ĠReturn s
ing ton
c il
Mod ule
f ord
t im
Ġexpl ain
mo oth
Ġ{ }
ĠB ro
clus ion
ĠE ast
operator name
Ġy et
Ġg ot
Set tings
Ø §
Ġat tempt
om ial
Ġsupport ed
} -\
ug ins
N et
group Id
Ġfil ms
D irect
ĠH ar
Ġdiffer ence
Ġarg ument
' >
Ġresp ons
T I
Ġapp ly
o on
Ġch ain
A meric
vari ant
k ind
ark s
Ġus es
Ġv eloc
f il
bed d
k er
param eter
Ġn ov
de bug
D ep
ell ow
ĠH ouse
oc r
P i
Ġequ ations
Ġh olds
Em pty
Ġf all
D IR
ag ment
Ġpresent ed
Ġspec ies
Ġex cept
ĠN S
Ġperform ed
Ġal most
] \
IN T
enumer ate
Ġapp lied
Ġd ig
p g
COL OR
O ption
m ing
Ġinclud es
Ġt ag
ĠC reate
ĠD E
Ġcour se
Con nection
In st
Ġcl ub
Ġc ame
R ange
V AL
Ġab s
U til
u el
Ġimp act
Ġneed s
C urrent
Pos ition
Ġrun ning
=" _
F ont
H ash
ann er
Ġa x
av y
Ġs eg
inter face
Ġd oc
R ight
ĠCol lege
Ġth ings
Ġre lation
id get
) }{
9 6
ate gor
item ize
ut able
Ġex ception
Ġde ep
R el
Des cription
Ġe con
Ġdec l
on str
Ġfor ce
ic les
g s
Ġco eff
Ġfil ename
t ra
Ġus ers
Ġ* )
Ġem pty
ĠG roup
d im
200 2
Ġu pper
% ;
ã Ĥ
Ġvis it
5 6
Ġtak ing
Pro ject
Ġlead ing
Ġp arams
Ġre nder
: (
Ġmem ory
Ġbehav ior
Ġtak es
R L
av or
ĠS k
C opy
ad ow
Ġdoes n
Ġs yn
att le
S ince
ĠSe e
the orem
ĠS T
o om
i ers
() :
ag ger
n ap
urs or
Ġbas is
lev ision
ST R
En c
Ġmat ter
AR T
om b
an ish
Ġ- \
i ation
Ġlay er
Loc al
ilit ary
ĠIn ternational
Ġproble ms
Ġarg uments
. )
N one
Ġpro ve
P arams
m ission
Rec ord
Ġnum bers
Ġcomp os
d rop
un t
Ġ ;
im ents
ca pe
E Q
G r
O p
g reg
ĠW illi
N ote
Ð° Ð
8 7
Ġexper ience
ar a
oci ation
F O
Ġhand le
oci ety
am era
ĠL ondon
h ash
Ġw ar
Ġ> =
D ir
L I
Ġbir ths
iss ions
E M
Ġqu e
5 1
Ġl ive
Ġcomp an
c f
cent ury
Ġm er
Ġin f
ic o
us es
L eft
F T
Ġp ers
Ġx ml
tr ies
b order
s v
M e
ect ors
-- -
Ġimp lies
C A
$ }
M on
c p
Ġat tribute
act ers
if orn
s y
a uth
Ch ange
| |
ic an
ens ive
Im pl
g n
Ġn ames
( {\
Ġst o
ĠE l
" ));
se cond
D o
B A
ĠM ich
ĠT O
Ġpl atform
equ al
s a
Ġso ftware
ta x
in ternal
à ¤
c lear
Ġprodu ced
add ress
) /
ms g
inal ly
d en
g raph
ang es
v space
ĠĠĠ Ċ
Ġstud ies
math scr
Ġsc en
Ġd imension
ut or
Refer ence
Ġcurrent ly
f ree
}} _
C S
Ġerr ors
d imensional
i os
ĠH er
we ight
t og
Ġp adding
Ġrec ogn
Ġtem plate
b ootstrap
S ession
ĠS im
Ġcon nect
n orm
\ ,\
D ocument
Ġits elf
ar ily
Ġsw itch
u ed
m ode
Ġw ord
Ġfe el
Ġin flu
Ġl ot
Pro t
Nav Bar
) +
c at
V ari
e le
Ġs ound
Ġg as
Ġallow ed
5 2
Ġexp ress
tr m
ĠAs sert
ct or
un n
5 4
Ġv ers
iforn ia
et ime
ma ke
W hat
Ġv ill
Ġhas h
it z
Ġpr incip
p op
as c
P P
trans form
y ing
Ġcon duct
ĠO ut
Ġon line
d et
Int eger
Ġst re
B l
Ġclass es
ter m
e in
Ġdem onstr
Ġst ars
eta il
ix t
Ser ial
Ġgo al
A ss
ĠTh erefore
Ġinvest ig
b ul
foot er
Ġc andid
Ġreg ard
M enu
; ->
Th at
tex trm
re nder
Ġcon struction
j o
Ġdiff icult
D own
ĠW ork
P T
de lete
Ġa dapt
The n
=" /
Ġdevelop ed
ĠM od
ĠB G
Ġbro ad
) }$
Ġj o
Col lection
Ġover ride
Oper ation
as ic
ĠInd ia
PE CT
oun ter
Pro perties
et ers
Ġfa iled
N ow
Americ an
P ost
ol ume
lo or
Ġphys ical
ro s
o ph
R ev
Ġlik ely
doc s
mult icol
ous ly
\ }$
~ $
Ġs up
s cal
Ġwh ite
b efore
ä ¸
Ġpart s
Ġs cope
S k
S H
ri a
text tt
om y
M O
' $
Ġst age
Or der
s end
Ġrelations hip
en ing
D D
Ġde al
Ġv iol
V ID
c opy
Ġ\ |
Ġd a
alle l
en ed
.. ..
l ap
multicol umn
r s
Ġcent ral
ĠV ir
$ &
B O
8 9
a ign
no indent
100 0
G E
Ġro b
St at
& #
Ġsmall er
Ġdescri be
? :
str y
in n
ach ing
Ġr ule
ile s
Ġwh y
Ġan g
8 6
Ġfr ont
iction ary
Ġmult i
ser ve
C al
H ost
r is
Ġin c
Ġspe ed
Ġw ent
Ġch oice
C an
5 3
Par ser
aut o
$ _
ĠEx ception
ur i
Ġs end
S L
en v
ĠD ec
OR T
Ġexist ing
Hel per
Ġincre asing
ri ate
re ct
r ange
u it
y es
Ġoffic ial
over y
AL L
ĠAmeric a
Ġdec re
Ġiss ue
R ender
Ġestim ate
Ġs ources
Ġtrans fer
## #
S chema
Ġle d
Ġmag netic
j oin
Ġs ession
ind er
Ġintrodu ced
re a
ind ing
P ort
op l
As ync
Ã ¼
a el
ĉ Ġ
ber g
ĠO R
ĠO pen
Ġa void
est amp
Ġreg ister
os en
d el
c lick
f oo
Ġact ually
Ġexp licit
Ġal gebra
Ġr atio
c ard
Ġoper ations
us ion
P tr
struct or
Ġnecess ary
Ġsh all
S ign
Ġact ual
}} }
appro x
S w
ak ing
Ġl ove
E ng
Ġev olution
Ġst ore
stit ute
Ġf ace
co q
b on
ĠD em
Ġ$ {
ĠN or
ex port
Ġj av
M atch
Ġin side
ru pt
ĠSt ud
ĠS m
ĠO ur
u a
typ es
Ġper cent
199 9
Ġare as
wid get
U se
ify ing
c i
Ġs ymbol
Ġarch itect
Ġto ken
ĠS pec
Ġright s
t w
set s
Ġwho le
ans ion
L e
h y
Ġwe bsite
ri er
Ġbecom es
Ġth ought
( :
a ur
Ġne ut
Ġfor ward
ĠCent er
25 5
b and
it te
min us
Ġdat aset
Ġin ternational
ĠRep ublic
M ult
ad o
P ass
Ġ ign
ĠNew s
Paramet ers
pl ugin
Ġveloc ity
ber t
ĠF rench
Ġcon sum
d x
Ġiss ues
Ġund efined
re q
bl ack
ĠCal ifornia
ĠC heck
Dev ice
Ġe igen
ac cess
g u
Ġpop ular
Ġl oop
r d
pon ents
land s
Ġto day
re ater
Ġelect ron
cre te
Ġcon nected
V ector
g lobal
v as
r an
ĠPres ident
ĠF l
Ġb orn
Ġmon th
T itle
S A
' re
a fter
Ġinteg er
web kit
ĠC E
Ġnew s
cri be
ĠT ra
Ġcrit ical
el er
d irect
Ġcent ury
leg ate
Ġequival ent
equ als
ĠInd ian
a o
a res
Ġother wise
3 00
co in
Ġprof ession
Ġ( -
or ge
7 2
Ġsh ape
Ġin fo
h igh
d est
ĠB uild
T ool
w s
Ġcon tact
for ce
com ponent
v ant
ch ron
ĠĠĠĠĠĠĠĠĠĠĠĠĠĠĠĠ ĠĠĠĠ
f ony
ĠDist rict
re es
T im
ic ons
ĠE rr
Ġa uth
v m
act or
St ore
to String
ĠĠĠĠĠĠĠĠĠĠĠĠĠĠĠĠĠĠĠĠĠĠĠĠĠĠĠĠĠĠĠĠ ĠĠĠĠĠĠĠ
N ames
ym fony
Ġ ess
pec ially
Ġmon ths
Ġcont ract
Ġwrit ing
AC K
ĠW hat
Tem plate
Ã ¤
it ing
ick er
res ents
S o
M D
ta int
ĠBG COLOR
Ġs creen
ĠH ere
8 2
ĠR ead
Ġpro ced
it able
Ġserv ed
F alse
Ġe ver
Ġcom es
annot ation
sh ift
Class es
Ġ} )
Ġ( "
Ġim medi
Ġm ention
Ġwe b
ang er
Ġvol ume
Ġext ension
Ġestab lish
Ġlevel s
Ġout side
Ġpr imary
z on
ĠD ate
Ġs ense
pro d
7 9
Exp ression
Ġspect rum
Ġal tern
K e
yn omial
ĠC our
ĠT ime
Ġs amples
ĠGener al
ĠO b
Ġcre d
icro soft
re al
N on
o e
ĠĠĠĠĠĠ Ċ
H istory
Ġben ef
Ġpro te
Ġfrequ ency
Ġt alk
Ġs on
Ġe cho
c ur
Ġno ise
Ġlong er
block List
at ur
Ġinter val
ĠWe b
Ġsec urity
= (
ĠM ag
c ategory
Ġitem s
Ġpar se
ew idth
Ġsimp ly
resh old
Ġqu ality
ul ate
ri p
ĠS um
Ġneg ative
8 4
Ġup on
n es
ir it
con dition
ĠEX PECT
x x
ĠP ort
-- >
Def inition
b urg
OR M
Tr ack
Ġannoun ced
is ation
um in
Ġexp and
Ġn uc
ĠS ervice
Ġdeterm ined
ERR OR
def inition
iv il
X X
Ġh istor
Ġcom ment
================ ================
lang uage
ann ing
ĠS ome
su ccess
c ustom
Result s
iz ations
ib er
Ġset tings
enc ed
Ġs s
Ġro ad
ĠBl ack
Val ues
In valid
ut ive
}} ,
Ġtrans action
h ad
Ġw ait
Ġfr amework
Ġan sw
Ġp anel
bit r
as ons
Ġ ensure
Ġmet ric
App lication
oc al
Ġc ore
Ġchar acters
G ET
en um
Ġdistrib uted
Ġrequ ires
wh ite
h an
st ore
AN D
d ro
Ġst e
Ġm id
ĠN ame
Ġdat abase
S ION
D raw
C ore
E v
re ement
I ter
Ġdist rict
Ġp ackage
$\ {
Ġst op
id a
Ġs ort
ĠH ol
use um
L ong
Ġpolit ical
subset eq
K ind
^ -
Ġ$\ {
G o
Ġsh are
ym pt
Ġre v
ĠL aw
Ġchang ed
n ov
hand le
Ġcon cept
f n
oy al
Ġmin imum
Ġstat ement
w in
Ġreg ions
V er
in ct
Ġg ain
h over
ph ere
Ġpass ed
d eg
IN E
s ession
Ġ" \
pl ugins
or ing
Ġqu al
Ġde lete
Ġth read
he st
Ġpro file
rel ated
st o
os ing
ĠF orm
Ġgener ate
A pi
en a
Ġor igin
ĠWh ile
ĠR E
m as
ĠRes earch
Ġext ra
tr ack
y a
h om
ot ic
lo od
in i
ĠTr ue
{ $
P A
M ore
ut ing
P L
c pp
Ġart icle
Ġtr ansport
Ġre ve
anc ial
Ġd im
Ġn et
OR D
Ġc ache
erv ices
ĠG erman
proto buf
-------------------------------- --------------------------------
7 6
ound ation
m es
Ġun cer
> ();
ĠM al
Ġn ight
R ect
p ite
Ġal t
con nect
Ġcompan ies
Ġstr ict
ĠCh ina
~~ ~~
g ence
4 00
ĠS en
result s
ĠG a
ĠB el
Ġ _{
field s
Ġes pecially
} "
Arg s
Test s
( *
ra st
set tings
Ġstart ing
f ull
Ġknow ledge
ov ers
ĠP al
amil ton
foot note
9 4
Ġhe ader
Ġf ire
Ġd ied
p anel
Ġ\ (
k ing
Ġab sol
d ouble
Ġresult ing
St ack
Ġd ark
by te
ĠC up
< \
d ict
ĠT V
arg ument
dis abled
Ġcontain ing
a id
C R
Ġs old
in y
I con
ĠHe alth
med ia
Ġs plit
M y
ynam ic
is ions
Ġim m
ĠJ SON
= -
######## ########
depend ency
fr amework
Ġs mooth
il led
com ment
S l
Ġf em
Ġman agement
vent ion
h i
ix el
M ar
P aram
ic ate
C lick
st ep
AT H
Q ue
h r
Ġres ources
f ect
ĠIn st
Ġ+ +
Ġindu stry
}^{ -
ĠC ON
Ġun iform
Ġb all
A m
ou l
Ġl ost
o ader
ĠHT ML
Ġproduct s
Ġr ules
ĠE ar
p adding
Ġr adi
Ġep is
; <
Ġf ood
G B
The ta
ĠAustral ia
9 1
Ġmov ed
em ail
Ġra ise
H as
cl oud
ro t
ac ement
Ġpro per
Ġfe ed
ĠP at
ĠA nt
ĠD irect
Ġthe orem
he lp
al ysis
ĠCh ampionship
Ġt ell
Ġcontain er
ar ter
w ner
ĠN ow
Ġext ract
Ġinter action
Hand le
ĠC r
De bug
Ġd omin
s ort
up le
Ġeas y
Ġs y
M ock
ly mp
ĠGo ogle
ĠEurope an
Ġtest s
end ar
au ge
__ (
est ions
ak er
R I
z a
Ġre strict
L S
Ġsuff icient
Ġem bedd
t ical
Ġpe ak
N um
As sert
Ġ\ ;
="../../ ../
under line
FA ULT
Ġn orth
: \
Ġs us
Ġchar ge
9 3
Ġill ustr
ĠU K
Ġgrow th
Ġt ax
sub figure
Ġstre ng
ĠM et
ĠD iv
U RE
Ġf ully
i ences
` .
ĠI S
Read er
7 4
ĠDep artment
Ġ\ },
b oolean
Ġun its
set minus
Ġp ick
9 2
Ġpart y
Ġf amil
Ġder iv
ĠCan ada
Ġr isk
Ġun signed
ad es
D ist
Ġdeterm ine
el ves
Ġh yp
Ġsche me
ĠR iver
lin ewidth
Ġvert ex
b i
ĠC he
ra z
Ġide a
ab ilities
Ġcomp ute
if est
199 8
ĠM ap
Ġdes igned
Ġbeh ind
Ġus ually
SE T
Ġo s
Ð »
ant ic
Ġapplic ations
En abled
ex ception
el i
P arent
Ġs cript
Ġrep resents
Ġw alk
P ackage
Ġoper ators
AT A
ĠM odel
ĠDav id
U B
Ġb ottom
ĠEng land
re place
reg ister
Ġch oose
rom ise
p ub
f aces
Ġqu ick
Met adata
rec ated
an i
ĠP o
al led
Ġuse ful
opl us
Ġsub s
vir tual
Ġdec ision
wo od
ex ports
re v
U P
m aterial
Ġ( $\
Ġby te
ĠCoun cil
in sert
D A
as hed
urre n
_ ;
Ġte levision
Ġhy per
Ġor d
E l
) |
an o
Dec l
Ġimplement ation
E ach
Ġcur ve
Ġpro gress
ĠĠĠĠĠĠĠĠĠĠĠĠĠĠĠĠ ĠĠ
all ow
align ed
Ġcol lect
Ġn amespace
ill a
De lete
Ġf ight
lim its
ec k
ĠSt reet
ĠR un
Ġt en
Ġcontinu ous
Ġstruct ures
Ġtechn ology
Ġbut ton
in f
Ġpol ynomial
Ġ' /
Ġn orm
Ġhe nce
P H
Ã ¶
Ġc ategory
con trib
Ġj son
ĠP aul
ole c
Ġ$ .
Ġcoun ter
Ġobserv ations
Ġb ad
Ġinv oke
Ġ$ |
Ġlim ited
ill ing
err y
aw s
m ock
C re
Ġbl ue
ĠA ut
Ġf un
Ġac qu
Ġprevious ly
Ġcompar ison
Ġpat ients
id ge
Ġo pport
By tes
tog gle
ĠL O
ĠTh om
n ost
Ġperson al
ĠJ ames
Ġmap s
Ġf ather
Ġin fin
ĠM ath
ound s
sh ot
W E
mod ules
S um
}} _{
Ġ( '
r ate
Ġf ast
Ġto wards
e es
itte e
Ġs low
Ġb al
ĠC re
ak es
Pol icy
Ġrema ins
> .
Ġw or
f ocus
Ġh it
sh ort
id ing
ĠE nd
Ġfl ux
ed u
ĠM or
Ġa ward
y e
` ,
Ġch arg
R ule
ip eline
O K
n i
at ically
ĠR equ
z ero
Ġpartic le
8 3
Ġder ived
' ))
EN D
sequ ence
Ġam pl
ro te
Ġwork ed
w rap
Ġm oney
b al
Ġnetwork s
ĠP ublic
Su pp
let ed
atal og
M C
Ġin line
T ab
Ġsh ift
ed eral
J ECT
new command
Ġst and
\ '
ĠS ing
Ġlarg est
Ġcomp act
ol ar
Ġnov el
app lication
ĠJ ust
Ġar bitr
Ġw allet
Ġdirect ory
ed ef
ec ause
199 0
Ġact ivity
Ġl ibrary
B oolean
ol ic
Ġcon vert
Ġopt imal
ĠAr ch
se ct
Ġal though
Ġh ours
Ġstr ategy
Ġsc ore
att ice
in v
Arg ument
Ġca use
ag o
Ġs outh
Ġeduc ation
out e
apt er
Ġpres ence
ad min
st on
16 0
ub y
Ġst ack
Ġet c
") ]
ĠSc ience
Ġre con
ann els
call back
St orage
k i
F C
Ġ util
if ies
ĠI O
Ġby tes
rid ge
rop y
rom e
Ġstud ied
Ġth erm
pe ed
is ms
Ġa im
Ġfig ure
ĠB ook
T S
v ille
w rit
O ur
ĠQ ue
D ialog
Ġexper iments
Ġdiag ram
Ġh ot
Ġh on
Ġw ave
7 3
"" "
* {
H ere
Ġv eh
pro duct
m c
sq l
Ġ$ -
Sh ow
8 1
at ial
Ġmiss ing
Ġfri end
ĠU se
omorph ism
re y
over ed
c ar
Ġfollow ed
R oot
\ }
erv e
k et
st at
f it
Ġdiscuss ed
Ġinv olved
Ġr adio
ĠO ther
n umer
Ñ ĥ
ot ion
Ġex hib
ĠB ay
Ġcomplet ed
Ġbel ong
S im
Ġdid n
^{ -\
anc y
key word
HT ML
_ *
form s
Ġp ul
Ġthrough out
Ġw est
h ing
Ġs il
ategor ies
ĠR ober
Ġbas ic
ĠErr or
ĠO per
w edge
Ġst eps
Ġex amples
gorith ms
ad ian
est ed
ign ment
leg al
Ġrecent ly
Ġa pi
and er
ond s
ĠT w
Ġ$ [
Ġre pe
ers hip
B ody
er ies
Ġfinal ly
B R
Ġdynam ics
h s
Ġl ock
Ġth ing
pass word
Ġc ast
ell ar
W riter
key s
25 6
Ġredu ced
Ġtra vel
Ġteam s
ĠPart y
Ġr adius
l ines
el t
ĠU ser
A ME
By te
ĠA ward
Ġtreat ment
=" "
Ġclass ical
Ġmot ion
iver se
ie ce
ash ington
Ġmin im
s pect
CT ION
al o
Ġappro p
Ġdepend s
Ġf ix
Ġprocess es
Ġconc ern
inst all
ing u
Ġover all
d omain
v an
Ġex ternal
Ġconstraint s
i am
ĠD on
ĠN OT
M eta
7 1
w est
Ġb ank
ĠV alue
ts d
J ob
Ġcell s
osp ital
Ġre comm
ĠPh il
D oc
Ġass ist
Ġlook ing
art s
_{ (
Ġ< =
ig hest
im in
Ġm ut
col on
reg ion
AG E
at tribute
ĠB ase
in itial
Ġuncer taint
Ġbr ing
A p
Ġm icro
ert ific
c ut
P RE
Ġg rav
Ġev idence
Ġident ity
r ong
Ġeas ily
ĠD ay
ĠP ost
=" @
Ġm sg
Ġst ra
Ġ{ };
Ġp y
Ġbound ed
ĠĠĠĠĠĠĠĠĠĠĠĠĠĠĠĠ ĠĠĠĠĠĠĠĠĠ
t ers
ĠM ont
Ġaccur acy
Ġinterest ing
ĠM at
ĠF ield
_ +
or ter
Ġem ail
Ġl ib
ic ial
m argin
ri an
X ml
mat rix
Ġb inary
s ur
Ġimpro v
Ġro om
as ure
j query
struct ure
ĠIn stitute
Ġext ended
Ġchall eng
Ġjav ax
M ain
wh ile
Ġon es
Ġpartic les
ĠA L
ĠTe chn
ul er
N E
M ark
ĠS y
Ġc lean
iv ial
bl ue
d agger
s che
ĠG reen
Ġmeasure d
uf act
ri al
st ats
et ic
) --
Se ction
ick et
Ġinv olv
199 6
Ġch osen
199 7
point s
Ġ" /
N etwork
Ġrele vant
oll ary
ĠM o
ĠM ethod
Ġsh ared
p ay
con s
Ġform s
ĠE vent
air s
O M
Ġprot ocol
Ġe lection
ĠR ich
N e
d y
Ġtest ing
Pe ople
B r
ĠPro position
Ġag ent
Ġper t
Ġfact ors
An y
Ġsign ed
Ġexact ly
C or
u ge
I X
h older
a iled
Ġw atch
S ing
Ġsa f
' \
ĠO ver
item s
Ġm ock
Ġoff ice
Ġcamp aign
ĠAss ociation
' .
iqu es
D L
Ġm ilitary
big g
al ed
r adius
Ġsp aces
Ġlead s
av ed
Ġatt ention
Ġh tml
Ġincre ased
B S
sh ape
ĠH amilton
put e
g an
=" ">
Ġv ict
Ġdet ection
ĠAcc ording
Ġch o
ĠB en
omet ric
Ġdo ing
G S
Ġc os
Ġvill age
P op
in line
gr id
Ġqu ite
Ġb tn
Ġsymmet ry
Ġr ates
Ġn ature
D I
Ġst aff
pro du
b es
Ġm ale
n one
Des criptor
KE Y
IT Y
d ates
Ch anged
Ġad opt
w ell
Ġimpro ve
id ay
Acc ount
Ġform ula
Field s
ici ents
od ec
A dapt
ook ie
Ġcomp are
ĠP re
Ġtra in
T C
Act ive
Ġd am
Ġpract ice
ĠM em
ĠFr ance
ĠT HE
Ġt our
ar ant
Ġplay ing
or ation
ĠM art
V ar
Ġw aves
Ġpre p
Ġem ission
Ð º
. *
), \
Ġe ast
ĠP y
Ġremov ed
Ġmag n
ack et
ĠG erm
ĠH el
Ġdirect or
Ġro ute
Ġto ld
en ge
Ġun known
S ymfony
Ġapproxim ation
Ġd b
ag raph
\! \!
def ined
Ġinter pret
Ġc ard
Ġdeath s
Ġsatisf ies
Ġconsist ent
J SON
Ġs ex
Ġad minist
f ort
W idget
ĠF urther
ixt ure
Ġread ing
C ustom
Ġ} \
b its
Ġpress ure
im pl
ad r
ĠF il
Trans action
Ġro ck
text sc
ĠB est
ĠR uss
Ġcon sole
E q
Ġ icon
Ġn or
A c
ir l
ĠE v
eth er
W S
sp ring
f ly
Ġexp ansion
k y
em ic
Ġpl ane
Ġcalcul ated
Ġl atter
Ġwrit er
Ġg reater
Ġin ner
ĠCh urch
Ġredu ce
SS ERT
Ġmeasure ments
ĠPro ject
cont in
ang uage
ang o
Ġpol ar
ĠWilli am
ĠEx p
FI LE
N G
Ġtask s
VER SION
Ġsignificant ly
P erm
g it
Dis play
Ġpl ot
equ ality
all s
se ud
ur a
Ġcontrib ution
ut f
ir ing
pro file
ou thern
B ut
Ġs ave
; /
S R
Ġappe ars
ĠUn ion
Ġv s
ĠL eg
Ġear lier
E C
cm d
Ġed itor
Ġprodu ce
pro perties
ines e
Ġb g
omet imes
==== ==
Que ue
du le
n eg
Ġbo ard
Ġr ad
Ġmod ern
ĠM ac
ĠH ence
Ġhe l
Ġt ro
ĠO f
e ch
Ġcoun tries
Su pport
F L
Ġmean ing
as er
ici ency
Ġnot hing
eff ect
Ġin cor
Ġnumer ical
th read
ĠU RL
Ġres olution
g in
k m
ĠAl so
mult i
sequ ently
Ġvis ual
Ġ| \
Ġw rote
ĠK ey
Ġess ential
b our
Ġre ach
c ases
C I
Ġp aint
Ġseg ment
com ing
had oop
Ġa ctions
Ġsc atter
On ly
m itted
In itial
Ġm iddle
Ġrema ining
S end
r f
Ġa ud
sc roll
Ġt ensor
it ar
ent er
ĠCO VID
Ġem erg
}} (\
ĠA ng
ĠU s
s uper
not ation
p icture
199 5
Ġcom ing
Ġin j
ific ations
f g
Ġget ting
C ar
M sg
Ġcons ists
ĠPro gram
Ġdeta il
ro ad
By Id
Ġestim ated
L iving
Ġg auge
por ary
Ġprofession al
Ġvert ices
Ġrece ive
et te
Ġassert Equals
Ġcou pling
al g
Ġs light
ĠIn c
Ġrepresent ed
m iss
TE ST
Ġexperiment al
ĠC opy
Ġr ace
her it
ĠGe orge
Ġw ide
Ġseem s
oc ation
rec ord
ĠY ear
Ġres id
ĠW ashington
Ġhim self
Ġdis e
Ġso on
Ġpre vent
Ġed ges
ed it
Ġgalax ies
Ob j
L ock
Ġm achine
hes is
ĠDef ault
ĠCour t
) ),
ĠS am
ĠT ex
ib ly
ĠL ong
Ġ er
Ġmin utes
Ġproced ure
i us
Ġl iving
ou b
Ġdec om
ĠJ ack
li ance
at ible
ĠM usic
ĠB er
Ġapp oint
ol ver
ass ets
) }(
Ġspect ral
U ID
Ġrun s
198 0
Ġneigh bor
z er
Ġd rop
Ġfl ag
Ġ â
Ġan im
Ġl ack
Ġscal ar
p ers
m ove
ĠT ext
Ġg reen
Ġcorrespond s
ree k
ĠS ur
l imit
ĠO lymp
_{ -
j a
Ġst orage
Id ent
Ġ% }
F loat
Ġcomp uted
' _
Ġan gle
Ġgener ally
Ġman ager
CH E
( !
em s
) ).
se y
add r
P AR
A tt
Ġf raction
Ġrepl aced
Ġsur v
Ġc op
' }
ĠH all
Ġopen ed
r or
TE D
Ġent ity
ĠV er
k w
Ġm ix
Ext ension
if fer
ught er
Ġh ighest
ĠComp any
bul let
A uth
Ġor bit
Ġsim ulations
S cope
Ġset up
ne ctions
ma ster
le ep
ĠL ou
T ABLE
Ġche m
ĠArm y
un signed
In v
sub subsection
w ik
rodu ction
Time out
Ġqu estions
] :
con nection
Ġmain tain
Ġdis k
l g
ĠPro v
Ġpr ice
g reen
Ġpair s
Window s
ele br
ĠĠĠĠĠĠĠĠĠĠĠĠĠĠĠĠ ĠĠĠĠĠĠĠĠ
ann ed
Ġpart ial
sec urity
Ġin sert
ist ent
Item s
D S
Ġb ul
)) )
t ip
Ġaff ect
ĠP ress
R et
ang ular
Ġm ind
Ch annel
á ĥ
Ġex am
ess or
ĠA lex
Ġag o
M ENT
ĠMore over
Sec urity
ĠN O
Ġw ays
ĉĉĉ Ċ
Ġtr ansp
Ġabsol ute
Ġinstance of
How ever
Dat abase
Ġsit uation
Ġmoment um
ĠAr g
elop ment
ĠE qu
ult ural
Ġpol ice
Ġident ified
ĠK e
uck et
B it
Ġprob ably
ĠD el
w ar
p ool
ing er
Log ger
ĠC ons
el li
ĠĠĠĠĠĠĠĠĠĠĠĠĠĠĠĠĠĠĠĠĠĠĠĠĠĠĠĠĠĠĠĠ ĠĠĠĠĠĠĠĠĠĠĠĠĠĠĠĠĠĠĠĠĠĠĠĠĠĠĠĠĠĠĠĠ
LO G
m i
type of
Ġcontinu ed
Ġcl oud
D C
ĠR oad
ĠF alse
Ġre serv
Ġvari ety
r ices
() {
R ed
_ ->
n ames
Ġ( *
anc el
Ġst ri
for all
12 3
se lected
Ġdep th
Ġcont rast
Ġs aw
s ave
Ġbegin ning
Ġh idden
)\ ,
s ite
Ġocc ur
Ġjo ined
Ġal gorithms
S ymbol
Ġbr anch
h orizontal
Ġbook s
Ġhigh ly
Ġgr ant
Ġgr id
Ġj ud
Ġcall s
F il
Ġax is
pos itory
Ġrecord ed
B efore
] ]
Ġm ask
ï ¼
[ :
Str uct
ic ated
ĠR el
Ġgener ation
r ad
Ã §
199 4
os itory
Ġassum ption
Ġser ial
Ġal loc
des c
ir med
ĠZ e
Ġm is
ph one
@ "
hent ication
Ġw oman
ç ļ
ĠG od
SI ZE
Ġform ed
G rid
pm atrix
on ym
Ġen h
Ġre ct
k g
Ġsim ulation
Ġarbitr ary
ĠAs sembly
ĠI P
est ival
it a
M B
D et
ens es
L java
%% %%
Ġkey s
Ġat tributes
çļ Ħ
e ach
. __
drop down
Ġab ility
"> &
ĠR oman
ĠV iew
P ool
Act ivity
am pling
Ġd ro
f ail
k in
ĠR oyal
re me
ch annel
s creen
T ra
Ġconst it
Ġup dated
ĠA p
Ġblock s
Ġe ight
h ome
$ /
ð Ł
Fig ure
riter ia
ail y
assert Equal
Pro p
Ġcorre lation
que ue
overn or
Ġg ave
ask et
Ġcoeff icients
ot ing
Ġimmedi ately
tern et
yn tax
b ing
j pg
ro om
j oy
ĠD i
tx t
) _{
Con f
ĠAc adem
ollow ing
ĠF in
urren cy
Ġmat ches
Ġag reement
J ava
AC E
33 33
al ian
I B
ĠS ociety
Ġm other
', '
ig r
t otal
Ġform ation
Ġcomplet ely
ĠGerm any
Ġd ir
Ġset t
AR Y
ac count
d p
Ġincre ases
Ġte ach
ur t
duc ation
P ATH
Ed it
Ġbe y
//////////////// ////////////////
f amily
Ġthe ore
In it
and ra
ms elves
Ġapprop riate
() ));
Ġin equality
ev ents
ĠW il
Ġst ay
ent al
Ġant i
et t
Ġfor ces
Fl ags
ĠA R
Ġcon serv
Ġget s
S he
Ġm or
ĠDem ocr
if ically
In ternal
Ġc y
Ġ[ ];
M edia
ens us
Direct ory
Ġenc oding
MA X
) ^{\
Ġshow ed
s chema
nap shot
Ġs quare
Ġbeliev e
Ġdec ay
ĠC ong
Ġbey ond
b u
Ġf ill
tr iev
n etwork
ĠD uring
j ob
sk i
Ġstra ight
M atrix
1 20
Ġeff icient
y r
ĠR ob
param eters
M at
ĠA N
g g
Ġappro aches
Ġcon cent
i pe
Ġsc ient
L P
ĠĠĠĠĠĠĠĠĠĠĠĠĠĠĠĠ ĠĠĠĠĠĠ
199 2
ĠM ax
c b
} %
is hes
b el
ĠWh ite
Ġcal c
il ib
Ġhigh light
ĠRober t
Ġvert ical
Ġelect ric
Ġle ave
\| _{
Ġvis ible
ĠAfr ica
tr igger
u ate
Ġinteg ral
ch ain
og ene
w ild
Ġthe mselves
Ġpres ident
D el
ly ph
M ember
Ġapp end
Ġ= ========
olog ies
D R
RO M
Ġfin ancial
Ġhe art
}$ -
P attern
Ġinst it
l as
Ġauth ors
cont roller
ax is
Ġl attice
import ant
il ing
ĠMich ael
} </
P anel
En um
Ġp en
ig ration
ĠM ary
Ñ ı
Ġpl aces
Ġa wait
ĠSh ow
ut er
ock er
S M
! !
Ġcomb ination
Ġm us
r b
ĠF oundation
Ġdist inct
ick s
st op
ĠP ub
Ġk m
The se
ĠB ig
Ġm olec
Ġp refer
199 3
ĠS uper
cal led
Ġre li
12 8
tool s
Ġpert urb
th rows
ff ic
)) );
15 0
Ġpart ition
b old
197 0
Ġlist ed
u ations
Ġd ual
ex ists
Ġhand ler
Ġ+ \
Ġst able
F ound
S cale
Ġparticular ly
Ġper fect
ĠV ersion
st able
print f
ĠE ach
ed er
assert Equals
ĠM iss
ĠR ussian
Ġliter ature
Ġstud ent
Ġdirect ed
Ġh arm
Ġn ative
Ġdistrib utions
Ġin sp
ĠAustral ian
Ġj oint
k o
~ $\
pro v
ĠD an
ĠC all
ust ers
al a
Ġident ify
Ġmention ed
ĠN etwork
Ġclass ification
ck now
ex ternal
Ġprop ag
l an
h av
am ing
ill er
ad s
Ġun less
Ġ{ '
_{ {\
let on
ier arch
Y ear
met adata
for ward
Ġ ip
st ant
Ġj ournal
eng ine
as i
ac ro
un icip
NavBar Cell
,\ ,
Ġsc ience
St ep
G raph
R est
ov ed
on ical
per p
res et
ĠTex as
Prot ocol
j ar
Ġpl ant
ĠG old
Ġany thing
ĠC ode
ĠT om
Ġass ess
I E
L IC
Ġcour t
EX T
Ġre ached
Ġmod es
Ġw ife
To String
ĠF ore
Ġmeas ures
R R
Ġask ed
C lose
ĠM a
l ers
Ġpur pose
Ġ io
m os
Ġin variant
Ġfin ished
Ed itor
h ol
Ġtechn iques
ed s
or a
b rowser
Ġbg color
() ).
s ime
pr imary
Wh ile
Ġex c
sime q
lap se
TE X
}^ *
Ġexist ence
ĠIs ra
ĠA ND
ff ect
Ġp urch
ĠT em
Trans form
hand ler
Ġden otes
i ate
Ġgo es
h idden
d em
at in
Des c
Ġ ^
F ull
sh all
Re ce
il ation
Adapt er
Ġ rap
e cho
Ġst ated
t ik
) ^{-
Ġschool s
sw itch
Ġf avor
Ġde ad
L oader
$ ).
id ers
O ther
Ġcap acity
Ġcoordin ates
ĠCon fig
oc aml
man ager
ĠIs land
ĠM ex
lo op
j i
Ġ( _
ĠCl ub
g a
Ġmed ical
b en
Ġevery thing
Ġproject s
ĠL ife
str ument
Select or
Ġm essages
Ġh ous
ev al
ĠS l
log ger
v s
Ġ" "
Ġfail ure
ic ian
ĠO ption
ĠF unction
ĠTO DO
ĠS U
all oc
Ġbound s
Ġb ur
Ġappe ared
Ġcoll abor
Ġc ulture
k ens
Ġdig ital
Ġdest roy
Ġt ab
Ġs even
Pro xy
ĠJ er
Ġmeasure ment
gr ade
Ġin valid
++ ;
Ġmatch ing
m ag
ĠS al
Ġlate st
Ġmar ried
[ $
Ġintrodu ce
ĠS O
Aut o
ĠDiv ision
Ġref lect
B rowser
b ad
Ġbir th
G R
ĠEx t
Ġm aster
ĠI d
Ġ Î
Ġleg al
Ġsepar ate
rem ark
Im p
Ġsub set
UT F
ĠM A
; "
ic ity
Ġdel iver
Ġpo inter
at o
Ġdef e
Ġfamil ies
M T
Ġsong s
Ġapproxim ately
Ġas pect
as ets
Ġm apping
> :
Ġindic ates
Ġsim pl
d iff
Ġca used
Lay er
Ġcre ating
Ġtrad itional
config uration
Ġtr igger
ĠCent ral
s ymbol
Ġat tr
ĠT op
Ġcirc le
Ġsec ret
Ġadv ant
ĠM us
Pro file
are a
) }{\
Ġinter actions
h old
reed om
ĠP en
it o
ar c
in em
Ġn g
if old
get Element
}} ^
ential s
Ġmov ing
nav List
ĠAn n
Pr int
Ġis n
Ġxml ns
ĠW indow
ĠJ ew
Ġactiv ities
er ial
r ase
Ġv an
ĠU nder
Ġdiscuss ion
ĠCh inese
ĠT or
Ġc li
ĠM r
as y
ĠH en
Ġtr ade
ĠSec ond
Ġp ool
Ġdeta iled
Ġtry ing
Com par
IP T
Ġe q
Ġf unc
ĠF oot
pon s
ol f
D T
Ġocc up
art icle
* )
ig er
Ġmod ified
Ġsum mary
Ġdel ay
L a
-> _
fl ags
ĠY our
Ġprocess ing
Ġopp os
all ery
iv acy
Ġk ernel
ĠH ead
Us ing
G u
. '
com ponents
Ev ents
Ġor ient
sub s
" `
lo ok
ivers al
199 1
ma zon
\ _
Ġm ixed
ĠThom as
Ġcap ital
.~ (\
Ġh um
li br
z one
v a
ag on
ĠN ode
) {\
m ann
Ġtrans formation
Ġsign ature
app ly
Ġcomb ined
org an
Ġ" <
ank s
medi ate
anc is
_ ,
Ġcur ves
At tributes
Ġ$ $
ĠSm ith
Ġh ope
Ġsc ene
Ġimplement s
Ġth reshold
ab e
is l
Ġstr ateg
Ġp ush
Ġent er
Ġs en
'] )
Ġnear ly
Ġth reat
un ct
Ġe lem
C F
u an
Ġbuild er
Ġsp atial
ĠCar ol
pl atform
ev e
Ġen able
rib ution
)\ \
Ġsp read
ust ain
sh ire
BU G
Ġc lick
ish ing
c over
tab s
r andom
Ġcandid ate
", "
Pl ugin
Run time
Ġ{ {
n il
Ġrecord s
map sto
ĠH and
Ke ys
m b
D P
Ù Ħ
ament al
Ġorgan ization
Ġcon tr
Ġansw er
Rep ository
Ġc ycle
D uration
f ol
ĠT own
Iter ator
Ġrema in
Ġestim ates
Ar t
os h
Ġtool s
ri um
ĠH istory
Ex pr
Ġform al
ĠT wo
Ġt or
Ġpl aced
Ġdet ect
T T
Ġmat rices
ĠAfr ican
Ġcomput er
$ ^{-
Ġas ync
Ġprogram s
Ġmechan ism
ĠG ames
Ġfl at
) },
Ġde bug
y g
al i
P ay
ap ers
Ġdeb ut
Ġ= \
ertific ate
Ġnot ed
get Name
t mp
O pt
ĠV is
SC R
Ġad j
h ouse
D etails
web pack
pl ot
v c
Ðµ Ð
con tains
o les
ĠCol or
) "
ĠUp date
Ġp ure
Ġp an
$ $\
W A
ble m
Ġsp orts
Ġlay ers
ed y
ĠT ur
ist ical
=" ${
Ġassum ed
Ġra il
Ġnot ice
D ouble
sum er
Ġch urch
tik z
Ġ Ø
col Last
ĠB i
Fe ature
ĠRes ult
Ġprovid ing
Ġb rowser
by tes
S QL
ĠT im
Ġl at
ist an
Ã³ n
Ġob serve
S ER
_ (
Ġgu arant
comp iler
Ġstreng th
Ġdepend ence
Ġj oin
r ine
Ġwant ed
n n
X ML
N R
N ULL
} )$.
Ġshow ing
form ance
Ġre triev
Ġ ut
Ġtyp ically
Vari able
CHE CK
ĠSc ott
ĠPro f
Ġcolumn s
Ġf air
Ġman ufact
p u
Ġsing ular
H z
Ġb rief
ĠGr and
, $
ĠGa ussian
Ġdem and
ell ig
S Y
ict or
Ġver ify
b ut
Mem ory
M OD
Ġstud io
Ġinflu ence
ĠV ol
ĠJ ava
ri end
) _
Ġc elebr
ĠAl though
ĠM useum
Ġbehav i
ĠEx ec
ĠRev iew
Not Null
< !
Ġr ing
l ig
r uby
R AN
ĠC ap
d ialog
Ġinter view
Ġyield s
T erm
Ġent ries
Ġen abled
Ġw ind
Ġcontrib utions
Ġhe avy
ist ration
d iag
Ġweek s
he mat
F S
Ġconstruct ed
ĠJapan ese
Mem bers
Ġ[ [
ON E
ic ies
p ower
Ġoff ers
w hen
ĠV AL
Ġposition s
Ġt ouch
ot on
ast e
iz able
ud get
ĠM ost
Ġon to
File s
wild fly
F unc
col First
__ __
G lobal
D est
å ı
Ġre ader
ĠĠĠĠĠĠĠĠĠĠĠĠĠĠĠĠĠĠĠĠĠĠĠĠĠĠĠĠĠĠĠĠ ĠĠĠĠĠĠĠĠĠĠĠ
Ġst ellar
urre d
pro ps
ĠL ine
ĠK ore
Ġco q
cre t
ar ation
ĠT ask
ST AT
F IG
id x
g b
ĠC amp
m ut
Par se
Ġepis ode
Ġspect ra
aj ax
Ġindic ate
Back ground
^{ +
ĠI r
ĠM er
{ $\
Ġl o
ĠIn itial
ens ed
not es
m ic
ĠG en
ĠL i
ĠD et
Ġprot ect
Ġv ary
Ġsp ent
it ation
k es
P lay
az ine
fil ename
ĠCan adian
I ST
Ġg old
Ġarchitect ure
Ġd u
Ġw orth
M apping
ĠSer ies
ars ed
Gener ic
ĠA tt
prot ected
h ide
Ġoption al
Ġdynam ic
The orem
Ġdev ices
ĠN umber
- $
Ġpre t
c are
all classes
sw arm
Ġp hen
A uthor
Ab stract
ĠP lay
ic ago
B E
Ġrel atively
Ġslight ly
Ġ= ======
Ġsymmet ric
ac le
clus ive
ĠF lor
Ġre q
pro position
Ġanal og
Th us
Ġevent ually
Ġdiffer ences
Ġs ometimes
Ġle ader
t wo
ĠG overnment
s he
az z
Ġtype of
p refix
Ġocc urs
p a
Ġpass word
Ġquick ly
ĠTr ump
Ġre place
oun tain
Ġk illed
ab il
ch or
j e
tr i
Ġv ectors
Ġnav igation
ĠChrist ian
ĠReg ister
Ġrel ig
Ġen joy
ang ing
' ll
s ince
Ġdes c
Ġsit es
Ġfri ends
Ġmeet ing
ĠĠĠĠĠĠĠĠĠĠĠĠĠĠĠĠ ĠĠĠĠĠĠĠĠĠĠĠĠĠ
ed itor
al d
F ail
Ġredu ction
circ le
Ġab stract
ĠG reat
serv ices
H R
pon ential
ĠSt ar
ill is
Su ccess
H ER
Ġo wner
pos es
n odes
I A
Ġachiev e
Ġmov ement
Ġbro ught
Ġinst alled
$& $\{
Ġmin or
Ġadd ing
Ġg iving
Ġpub lish
ĠM essage
Ġmov ie
ĠMin ister
' m
Ġg ap
ĠMed ia
li ament
ĠM ad
her ited
Ġsecond s
om a
Ġas ympt
Ġin tr
Ġf n
are n
S pace
ĠComm ission
sc ill
and a
P ub
N OT
Ġth ick
F ailed
iter ator
ip le
z ing
Ġpr im
Ġoptim ization
at re
Ġex change
gener ated
' (
Ġun ion
ĠU sing
u ous
m ask
f ixed
ĠD en
ar se
Ġconver gence
ov a
omorph ic
Ġ ult
Ġcomm it
col lapse
ilib rium
Ġw av
test s
Ġt x
v est
Ġt it
Ġ raw
)$ -
d ependent
umn i
ĠEng ine
ĠFr ancis
let ion
Ġcontain ed
Ġcar ry
> \
ĠAcadem y
Ġh ol
Ġim ag
^ ^
M R
app ed
Ġqu arter
Ġ\}, $&$\{
Ġclear ly
Sc roll
ĠWest ern
Rem ove
Const ants
at tributes
od ot
Ġl ives
N T
h bar
P erson
T otal
Ġlabel s
Ġunderstand ing
H ome
ace book
' ve
198 9
ĠS un
Char acter
tem p
Ġf ine
[ (
Ġaltern ative
up s
">< !--
child ren
Comm on
ĠB O
cre d
Ġexp ressed
n y
ĠOr der
we et
Con s
Se lected
ĠG ame
ĠIO Exception
Ġhy dro
l at
ond er
Ġsy nt
} &
Ġdec ided
ott ed
Ġacc eler
ta il
Ġsh ot
M I
b ot
Ġfour th
asket ball
Ġabs or
Ġpar allel
the me
Ġw rong
Ġm eta
ook s
Ġsh ip
hen s
FF FF
t body
j ango
ĠĠĠĠĠĠĠĠĠĠĠĠĠĠĠĠ ĠĠĠĠĠĠĠĠĠĠ
pro vider
Ġc ivil
Ġhyp ot
Reg ister
equ ence
Ġdep art
ell a
ir al
G en
ut y
Ġfem ale
Ġdr ug
; }
ĠM ult
D omain
ĠC ath
Ġsur vey
Ġp ark
og ram
a ver
it ivity
ĠKing dom
th let
r ich
Ñ ĭ
ĠBo ard
Ġb in
Ġopt ical
ĠS I
Ġsur round
m aven
Ñ Į
w orld
Ġd om
Ġpred iction
b as
Ġse ctions
par ser
Ġdim ensions
Ġtra ined
Ġsome one
$\ \
S che
Ġv ac
Ġang ular
Ġindividual s
Ġpart ners
T x
B B
am ely
Ġe arn
Ġdown load
Ġmaterial s
}} ^{
\ {\
Ġpl ays
ĠJ ose
ourn ament
Ġda ughter
Ġcalcul ate
Ġext rem
c ref
H S
ab it
Ġo dd
Ġad just
Ġsaf ety
AD D
ven ue
Eng ine
V M
Ġgrad ient
Ġc ref
Ġdep loy
erv ed
A rea
F R
al and
con n
Ġecon omic
l arge
Ġbroad cast
ĠS a
$ ;
ĠU N
Ġch annels
ĠI ll
(' .
IC E
t or
app er
t ags
stru ctions
br ace
$ ~
ĠRuss ia
Ġreport s
Ġcommun ication
Po inter
anc ing
Ġf lex
198 8
Ġcl in
ĠM ass
Ġque ue
S ocket
? >
ro ke
Ġimplement ed
ĠFr ank
Ġdise ase
Ġfunction al
lic ations
Ġbe aut
ĠM il
Ġsatisf y
Pro duct
Ġp ages
Ag ent
op es
Ġpo or
ĠVir gin
lic t
re land
ĠU k
G C
Ġw id
Ġin form
F urther
op ed
ograph ic
H igh
ph ys
Ġex cit
ĠIt s
Ġ" -
w a
P layer
g ame
ĠH ill
s ample
ĠLou is
ff ff
Ġeval uation
) ">
w rapper
Const raint
Ġs al
s ys
Ġsa fe
\ )
V ideo
ĠInd ex
Pass word
S ync
head ers
am er
Ġdr iver
Ġl if
ĠP oint
ĠS ol
Ġm orph
r ons
Ġco ach
| _{
ou ter
Ġstrong ly
Ġ&= &
LE CT
Com ment
Ġconstruct or
Ġreg ime
he tic
cd n
RE AD
ĠIm age
ST ATE
Ġdiffer ential
P U
)-- (
Ġc tx
Hel p
Ġcomm erc
Sum mary
n os
Ġh or
T A
D epend
end ix
ĠF inally
Ġart ist
. ;
group s
f i
Ġmin imal
Ġo scill
h ref
Ġcont roller
f c
Ġprov ed
(' #
Ġrequest s
ad y
Ġmajor ity
ĠW omen
m ma
Ġpath s
D iag
Ġp aram
pre v
AL SE
() </
Ġunder lying
ĠHamilton ian
en abled
z ed
P ORT
Ġm enu
it ors
Ġpro ceed
Ġ? >
ig an
j unit
Ġp refix
sh ared
Ġtyp ical
AR N
ĠG ets
y an
ĠB usiness
IN D
Ðµ Ð½
build er
ĠB ank
R oute
Ġeff iciency
ĠS pr
o ch
ĠI E
Ġp iece
cc cc
i ated
Ġge ometry
Ã ¨
Ġcom ments
ĠB ill
go ing
i ar
Ġart ists
Ġdepend ing
Ġ rows
Ġsize of
Ġparent s
Ġrot ation
st orage
Ġrap id
iv ery
pect ive
P ublic
Ġopen ing
Ġla unch
Ġre ject
am az
Ġnot ation
Ġst ories
ĠSu pp
Ġbe am
Ġachiev ed
ĠCopy right
Ġcompet ition
UR I
ĠR ock
stit ution
Ġpl ans
Ġs ector
Ġtem p
et ween
19 60
Ġ" ,
Ġtrans l
Ġrem ote
Ġqu adr
Con dition
Ex pect
Ġwork ers
ĠSt art
d etails
ĠC a
B AR
sa fe
en ess
B P
ĠA ction
ĠP eter
typ edef
cl uster
F ind
-------- ----
ĠL ake
co res
u ages
i h
sh adow
am m
Ġrespons ible
ic ine
irc raft
Ġwe ights
ĠR ail
ip age
display style
cl aim
O UT
ĠP ath
exec ute
us form
numer usform
if iers
Ġu i
Ġread y
log in
play er
Tr ace
IV E
W rapper
por al
S imple
ix els
x html
Ġgo als
Stat ement
i pped
Ġext end
Ġla un
SCR IPT
Ġconsider ing
Ġp lease
od ay
ĠSt ep
O F
Ġ ],
Ġpro xy
C G
sy ch
ĠJ ournal
{ %
Ġmet adata
) +\
Ġevalu ate
! [
ĠH istor
ĠP age
ĠB ack
Reg ion
ĠL ie
Ġtr ace
p attern
ĠE ducation
err ors
} }$,
=" $
i en
Ġ[ "
clud ed
sv g
col lection
ĠFor ce
ser ial
end or
fr ont
ĠG lobal
Ġobserv ation
Cl uster
Ġp ull
Ġlog ger
Ġvers ions
A CT
Ġb right
Ġcre ation
un ique
ĠL os
ĠB rown
Ġso ft
ĠH ash
Ġoriginal ly
f ound
ch mark
Ġhe at
oth ing
ate way
Ġsur pr
Ġread only
Ġc amera
im a
. ");
Head ers
Ġp ri
h aps
ĠInt eger
ĠDirect or
Ġindu ced
ad ing
z h
ĠS und
Ġd uration
ĠM el
Ġtr ust
Ġautom atically
ĠRe act
Ġexec ution
Ġ[ ],
Ġturn ed
Ä ±
un ic
Ġide al
fe ature
i able
Ġsem i
C ap
ĠRec ords
Ġres on
Ġcol lege
Ġcou p
ver b
Ġb us
Ġc ov
f d
ĠOff ice
ĠRes ource
T V
Ġg un
con v
N odes
i pp
Ġinst ances
c uss
Ġle ague
Ä ģ
ĠOn ly
Ġd ed
: #
Col lections
Ġex it
C ategory
ĠAn y
i ra
Ġgr and
Ġass ign
Text ure
c le
i ro
ĉĉĉĉ ĉĉĉĉĉ
ĠĠĠĠĠĠĠĠĠĠĠĠĠĠĠĠ ĠĠĠĠĠĠĠĠĠĠĠĠ
}{ |
nd ef
E ar
Ġresp ond
ol a
R PC
Ġtre nd
ĠComm ittee
Ġcommun ities
ĠS il
} }$.
Ġsay ing
z en
ĠSec ret
min ipage
1 10
ap es
Ġstat istics
Ġcomplex ity
Ġgalax y
S eg
Ġac adem
Ġlet ter
Pro ps
Ġcar ried
S ome
ur ations
ro le
: }
ĠRequ est
ĠN AME
it iz
im s
Ġex port
Ġstr ings
pl an
ĠĠĠĠĠĠĠĠĠĠĠĠĠĠĠĠ Ċ
let s
ful ly
ra ined
IT E
ĠRich ard
Reg istry
M ed
dep th
St ats
ap os
f x
Pro v
Ġd oub
= >
Ġfound ed
Ġlim its
fl ag
w all
Ġmost ly
Ġrequire ments
Ġo k
Ġsum mer
Ġob vious
it ness
ĠL in
198 7
Res ources
st ein
ĠK n
ĠL android
Ident ifier
pol icy
6 00
Ġcapt ure
CE SS
ĠIt alian
TR UE
Ġcou ple
) -\
Ġsuccessful ly
Ġdr ive
Gener ator
c lean
u ated
Ġtherm al
per iment
d etail
Ġdes ired
ĠPar is
Ġm ur
user name
iv ation
f old
Ġs ch
ĠS ocial
fl at
prot ocol
Ġ ion
p at
as sembly
Ġfind ing
O B
ĠChar les
d one
imit ive
Ġcon clude
ow ers
pl us
ĠL and
p an
in valid
Ġpar ser
en able
Ġpro port
Ġag greg
onal d
F inally
Ġcomput ation
ent y
ĠH ttp
U LE
Ġscen ario
Rep ort
ogene ous
I MP
Ġcoordin ate
25 0
Ġc ool
Ġ\ (\
es ian
Int roduction
Ġrepresent ing
index Of
M ath
h l
us ers
oper ation
B ind
al gorithm
Ġbr and
ĠIn formation
he ast
und red
r ical
resent ation
ĠU I
ĠC ast
Ġmagn itude
ĠI l
anc er
TI ME
ici ans
ell er
ĠSu pport
lic ity
ist ence
Go ogle
ĠGe org
ĠFurther more
A F
b p
spring framework
Ġevery one
og en
Ġe lected
} )$,
comp lete
m ass
Ġrob ust
At tr
Ġuncertaint y
ĠH y
ĠB u
on a
Ġmass ive
ct rine
Ġdat asets
Ġcost s
O ST
sign ature
C red
Ġdet ected
he m
Ġmon itor
Ġa udio
Ġv acc
re port
ist ers
F LA
am in
Ġis ol
al ing
rior ity
ĠEar th
ĠSum mer
Ġserv e
' ));
Ġass igned
cknow led
Ġr ise
ĠD u
ĠHT TP
oun try
ĠCh icago
F low
Ġstart s
198 6
iss ues
Ġin struction
Ġpattern s
Ġtechn ique
S ch
Ġp seud
IN FO
pro gress
Ġlay out
ident ifier
Ġatt ract
B ound
h ere
Ġ$ |\
Ġgraph s
up load
Ġinterest ed
Ġinfin ite
su ch
C RE
}$ )
Ġen v
Ġbu y
Ġmass es
C M
Ġfact ory
word s
am ous
ip ment
Ġch art
Ġcalc ulation
R ole
P refix
Ġm ission
s quare
W R
ĠDev elopment
IT ION
Ġar m
stand ing
Ġ[ \
n p
ay lor
sum e
Ġsol ve
con g
ĠS up
ã Ģ
12 5
$ ),
ash ion
ud e
PRO JECT
b rief
Ġs qu
W N
and emic
ĠZe aland
Ġincor por
ĠP an
Ġinteg ration
00 1
- (
Se lection
CT YPE
v ideo
... </
ut ch
Ġj Query
as ync
Ġsh oot
ĠT imes
Ġcl usters
ĠCh ild
amaz on
par a
ĠL u
k t
Ġbuild ings
P ER
Ġopport unity
Ġfund amental
g ba
pro xy
ag ent
Ġalbum s
Ġ ×
n el
Ġ' <
res ources
d i
ĠP ass
E V
EE EE
ir ls
Ġcommerc ial
om p
ĠFlor ida
Ġcon nections
ĠG ood
ĠO h
Ġl icense
Fr amework
Ġb undle
w er
) )$
b c
at i
sing le
op ic
Ġ ..
Ġ{ "
DE FAULT
Ġfl ags
ĠL ocal
Ġ ener
] }
Ġchar set
Ġloc ations
Ġp ain
Ġbo ost
Ġst ored
198 4
Ġw ild
Pro gress
Ġenc our
ĠSt at
Ġr at
Ġser ious
trans ition
Ã £
ĠL ibrary
ymmet ric
pe ar
Ġsum mar
Ġthe me
ĠG l
ss im
Vis ible
198 5
D M
ĠB ur
Sec ond
Ġampl itude
Ġm obile
ex pr
ĠTe am
Ġnuc le
Ġdeg rees
ul ator
Ġold er
(' /
li e
ĠS aint
Ġnull ptr
Ġspe ak
Ġscatter ing
ge les
Ġhapp en
Ġappoint ed
[ -
h ar
Inst all
Ġsp an
pos al
Ġbro ther
Ġ ens
f ire
ĠH ome
HT TP
ĠP et
own er
Ġpre m
ĠS ervices
Ġnuc lear
Ġcalcul ations
Ġre asons
DO CTYPE
el ines
F ORM
U ri
) }_{
o res
ĠM ain
ĠT H
x s
raz il
Ġ{ $
Ġs n
con sole
= #
ĠI mp
Ġsupport s
pt on
Ġt err
ĠT R
TEX T
Ġ eth
ĠG al
Ġdes pite
ĠÐ ¿
. <
Ġgu itar
ĠI reland
Ġs izes
Ġtheore tical
Ġview s
Ġcomput ational
s imple
r ift
J ohn
ul y
Ġtri p
f lex
d ig
Ġdist ingu
Sing le
Ġphen omen
ner gy
U D
Ġtrans lation
ĠS QL
W orld
ĠAr ts
Ġexplicit ly
p erson
at ar
Ġconst ants
Ø ±
T wo
y y
Ġ ul
ilar ly
or iginal
ĠF re
Ġv oice
ĠB oth
ĠPl an
br id
is c
Ġbal ance
ĠA ust
requ ired
re lation
Ġst ock
G ame
Ġhead ers
du led
bl ank
ĠAnd roid
ĠT ok
w riter
Ġtra ject
W allet
d c
clus ions
ĠV ictor
Ġadvant age
M ay
t ics
Th erefore
U SE
, .
low er
par agraph
Ġfore ach
G O
print ln
Ġcall ing
Ġst ress
he el
ĠYou ng
) }}
b ro
Date Time
ĠM ake
ĠAn geles
P y
Not ification
Ġf arm
Ġtrans late
Im port
IG HT
mo z
Ġconf irm
av ail
Ġv oc
os ity
Ġexpl an
F in
Ġtra ffic
Ġpro jection
Ġmain ly
J S
en ers
yn chron
Ġcoeff icient
ell o
( __
Ġeff orts
Be an
Ġcon ven
ar ian
ĠThe ir
Ġscal ing
ĠMan agement
ĠPe ople
Ġgener ic
D em
ĠS D
Ġf if
Ġag reed
Ġgrow ing
Ġapplic able
ĠL ink
; )
A re
th row
ition ally
" /
b g
Ġconv ex
k ins
Ġ ).
Inter val
ĠFil m
t c
ach ment
ra it
ext ension
ĠA S
pl ates
Ġall Classes
RE S
u v
Ġimpro ved
Ġval ign
ab out
ĠB lock
libr ary
% ,
Ġwhere as
Ġg overn
Ġmet rics
itud es
Ġscal es
e a
Ġ ðŁ
Ġallow ing
ĠallClasses Link
ĠFoot ball
tr ace
ĠM ov
Ġ> >
ĠPro cess
pl ain
Ġt ail
> ::
ĠCong ress
ĠV ari
Ġmark ed
in et
Ġestim ation
Ġst ations
s at
Ġfore ign
ĠI II
T ags
o z
un ities
Sk ip
: `
j d
test ing
v ing
Ġs ampling
ĠO ld
Ġeff ort
De legate
Ġcrit ic
Ġal one
Ġrec all
Ġp icture
f ix
as ion
ĠVal id
check box
s ch
Ġinput s
b d
Ġp od
L C
Ġac com
int eg
lect ric
Ġbi as
Ġvalid ation
) ->
Ġra ised
ig gs
l f
ke ep
ass andra
p ir
Ġact or
Ġb re
sequ ent
ĠWindow s
ĠC H
dec l
ĠJ un
p icker
Ġis su
å Ī
ĠA uthor
Ġinitial ly
gener al
ĠB ob
EEEE FF
Ġn p
res olve
ab y
et ing
8 00
ĠArray List
ĠSec urity
m en
Ġappear ance
LO CK
ĠH ot
Sh ort
Ġphys ics
ĠA mazon
Ġcon j
ph as
ĠH a
Ġ( [
18 0
st one
Sh ape
Ġden oted
Ġsol ar
F E
ĠT our
Method s
Ġdis crete
ID TH
) [
Ġne ural
ag r
at omic
Ġdecom position
V olume
Ġex ponential
Ġchem ical
ĠE lement
/ _
Event Listener
ĠD at
Ġcan cer
Ġimport ance
ĠN av
les ssim
ac ob
Sub s
() ))
ĠLO G
Ġprov ider
s ig
10 1
ĠW ill
Acc ording
pe ople
Ġh ar
Gener ated
ĠE con
Ġexec ute
Ġcent re
Ġro ugh
ĠF acebook
ĠA SSERT
Ġpro ps
c li
ĠS E
Ġ} }
Fr agment
ĠTechn ology
Ġf reedom
ĉ čĊ
Ġw all
g ies
Ġd ict
Ġb atch
PO ST
Ġman aged
Ġcover ed
Id s
Ġag ents
Ġorder ed
if def
Ġd raft
oc key
Ġtime out
if ts
ĠM icrosoft
ĠSp anish
Ġchall enge
ĠS ta
ĠN AV
198 3
aw a
ĠP RO
und efined
Mult i
Ġin nov
Ġregard ing
Ġc md
Ġann ual
: =
Ġus ual
Ð ²
side bar
s en
Ã£ o
N amespace
P air
se q
nost ic
set up
od d
rel ations
Ġexplain ed
e an
Ġh ole
g est
ĠC D
up lic
os es
ĠIn put
Ġcl imate
Ġt sd
sem ble
Ġf irm
Ġent ered
Ġpl us
ilt ers
Ġse a
Ġoper ating
N C
Ġlaun ched
ĠIsra el
our se
Ġra re
Ġrefer red
B ook
C lear
d frac
um my
Ġv ote
Ġtop ic
Ġsatisf ying
ĠUS A
tr im
Ġres ist
$ :
ĠM ur
Ġent ropy
ĠMart in
Ġf ans
Ġb lood
Ġneighbor hood
Ġpre v
Ġpret ty
ĠV ector
v ol
ĠOr iginal
p ull
A x
ĠCath olic
se par
ĠVirgin ia
ĠM P
L anguage
Ġstat istical
Ġd ie
; ">
ĠTw itter
d ash
ib li
Ġdocument ation
em on
ce an
Ġveh icle
S V
est s
Ġconf irmed
Ġf ederal
}( {\
Return s
ĠCE LL
c lip
Ġspec ify
En ter
ĠL ove
}{ (
ec es
ĠF ree
Ġtr uth
(" /
Ġvari ation
Ġinst ant
Ġpl ugin
n amed
w p
option al
M ask
Ġs ustain
s el
Ġb illion
198 2
v o
adi um
down load
Ġph one
ust rial
NavBar Font
\ }$.
M ouse
ĠRep ort
ĠP ower
Ġapp lying
s b
mon th
ĠEn ter
S equence
Ġwh om
ĠF estival
Ġwin ning
st ra
time out
Ġp i
» ¿
Ġsyn chron
Ġlook s
m ouse
S ample
ĠD O
Ġign ore
Ġocc urred
Ġobject ive
Ġord ers
Ġn ation
Ġattack s
p air
Ġloc ally
j oint
Ġfl uct
Ġcan cel
Re al
B egin
L en
ap is
ĠC A
Ġin fra
Ġch ance
Ġ ice
Ġz one
ĠE ND
ï »¿
C B
ĠB it
V ir
VAL ID
du ction
tain ed
or ient
se g
ĠR et
Ġdis pl
ĠB ecause
ĠJ o
Ġcandid ates
Ġl ies
Ġus age
&= &
En vironment
ĠSt e
ĠA v
Ġw ood
s es
ĠLe e
EN SE
Ġshe ll
) })
ĠOlymp ics
in ations
ĠT re
Ġid x
Ġlead ers
G A
Ġpr ime
li k
ar ia
Ġpredict ed
ĠHen ry
h ard
pe at
l ace
atter y
)) \
ĠComm and
ĠI R
Ġal umni
od ies
t iny
Ġ ];
Ġst ability
et o
Ġfeature d
sk y
t k
ĠMex ico
Ġen um
( @
ĠĠĠĠĠĠĠĠĠĠĠĠĠĠĠĠ ĠĠĠĠĠĠĠĠĠĠĠĠĠĠ
Ġres olve
Gener al
Ġs ales
am el
hel per
M iss
ĠB oolean
Ġc ook
Ġsequ ences
py thon
iter al
ĠK ar
ĠCarol ina
Ġchang ing
Ġf an
rypt o
ĠS ign
RE Q
Ġmed ium
ch anged
Ġdis abled
Ð° Ð½
ult ane
Ġsecond ary
t ar
Ù ħ
Ġth r
Å ¡
ac cept
ĠH aw
Ġcustom ers
ong s
Ġin ject
lo ader
Ġa v
Ġsu itable
] $.
t frac
Ġdepend encies
Ġc m
r ank
$ _{
Ġdoc uments
An imation
ch astic
L in
Ġa ircraft
Ġneut r
ĠA ccess
w t
Ġdescri bes
Ġh ospital
Ġle mma
^* $
ĠL com
}} )
ĠS ource
ä »
ĠCh ief
c ceed
Ġm erg
VAL UE
197 9
m f
bm atrix
over view
Ġrema ined
Pro of
object s
if ul
ph ant
Ġaccur ate
Ġtechn ical
TR Y
d ing
Ġin verse
Ġfocus ed
h box
Ġan imation
ph y
Ar ch
Ġro ll
Ġa ver
Ġm d
N amed
ian a
ra ine
Ġth ous
ĠC ustom
S ort
$ };
Ġrefer ences
Ġl umin
S ervices
v olume
Ġend ed
ĠSpec ial
Ġterm in
Ñģ ÑĤ
P M
Con n
ĠPh ys
ĠF ort
æ ľ
Ġs ociety
f ast
| }
Ġind eed
ym p
pre c
Ġdiv ision
'] ['
Ġinter section
in ity
Ġpower ful
S cal
Ex ample
Ġc at
Pro gram
ĠP aramet
E mail
Requ ired
Ġp le
Ġfor ced
ĠAr ab
ĠPro perty
Ġcover age
ĠP M
w an
Ġrem ember
Ab out
ch a
Ġp andemic
S ur
ĠF I
support ed
Ġrecomm end
ĠSo ftware
ub ble
ĠNAV BAR
T w
j ack
IN TER
ex tern
Id entity
Ġaff ected
Ġout er
ĠAL IGN
ic ed
ĠP ac
Ġf lo
function s
Element s
ĠSw ed
Ġw at
comp ile
ĠA wards
Ġsh ock
h ow
c ient
Ġb attle
ĠE ven
Ġide as
Ġm om
Ġh undred
Ġtri al
L imit
US ER
Ġup dates
Ġrepresent ations
G N
Ġl ic
Ġcol lected
opt s
ĠIt aly
ĠE nt
Ġhand s
est er
Ġf elt
ĠAN Y
ĠSI ZE
ĠD ocument
ĠN ext
Ġsp irit
Ġreve aled
Ù Ĩ
Ġclaim s
empty set
ĠJ ud
% )
os oph
b log
ĠVal ley
S m
cre ens
if ndef
âĢĿ .
Ġ" $
eli hood
19 50
av our
Ġke pt
Ġsc roll
Ġequ ilibrium
I gn
Ġle aving
h u
Ġfore st
Ġ il
Ġcomp atible
Ġsuggest s
ched uler
B est
b an
Fl ag
Ġsche ma
ĠPol icy
ĠCont rol
_ -
Ġlearn ed
c hen
Ġplan et
Ġc ategories
="../../../../../../ ../
Ġsus p
exp and
Ġsub t
ide os
qu ant
Ġprec ision
,\ \
Ġrem ark
ist ogram
view s
}} _{\
ri age
Ġopt s
Ġfootball ers
Ġmet al
ry ption
ĠW ed
Ġind ices
lement ation
Ad min
Ġb uf
ĠD ir
}\ ,\
ur er
CO MP
it an
Ġf ol
Ġfr agment
ĠC R
Ġc yc
Ġact s
Ġbecom ing
DE BUG
Ġad ult
os c
Ġle aves
Ġto ward
ĠB re
Ġtre es
198 1
Ġpart ner
ĠP op
Ph ys
}[ \
D etail
ellig ence
] $,
iven ess
S K
Ġturn s
Ġb ind
Ġfin ish
Ġir re
Ġassert That
Ġd og
s lice
Ġ\ ]
check ed
Ġdi am
y er
ĠS M
p b
Pro to
ĠSc ot
/ (
Ġconduct ed
M er
Ġorgan izations
Ġcharacter istic
g ers
Ġsc ored
Ġvalid ate
The y
ĠD own
ĠE mp
Ġ' \
Valid ation
Ġch ief
atur day
ĠC ross
i em
' ];
H C
r ick
u er
s ync
ierarch y
str iction
L ight
qu ote
p aper
ĠWe ek
Ġsuggest ed
lyph icon
Ġb its
Ġsp ot
F ree
/ "
ad or
Ġres et
Ġg irl
Ġle tt
ĠSund ay
Ġd ialog
Ġtransp arent
Cl oud
Ġm unicip
Ġsign als
Ġfl uid
ess ions
Vert ex
iffer ent
# {
S erv
Ġprincip le
ĠO p
or igin
Ġd ust
Con nect
Ġhelp ed
Ġinvestig ate
is ely
L ower
E ST
Ð ¼
Ġsatisf ied
t an
ult y
ME TH
kw args
Ġchalleng es
Ġpat ient
tikz picture
D uring
L INE
arn ings
iss ue
ĠApp endix
Ġdis s
ari os
z y
N ormal
m n
w arning
u zz
ist ed
Ġp p
res ize
" ],
Ġh our
Ġsen ior
ic ator
Ġaddress es
Ġsufficient ly
% "
ard en
Ġtrack s
Ġaccept ed
/ .
cl one
Ġaward ed
Ġd aily
Ġpol icies
Ġmod ules
Ġph il
ĠI mm
Ġapp arent
ĠE very
Ð¾Ð ²
P D
Form s
ian o
im inal
sl am
method s
sl ash
A ng
b asic
Ġt mp
Î ±
st ates
Ġrel ax
Ġcont ents
Ġl abor
il bert
ĠE li
const ant
ĠI ran
math op
Ġassum ptions
Ġpr ison
column width
Ġnumer ous
Ġt end
Ġd ire
Ġprincip al
l aw
SE LECT
Child ren
Ġgu id
Ġfeed back
ir ror
ĠJ im
ĠFr iday
Ġcomput ing
um es
col l
En umer
p ag
Û Į
Ġbehavi our
Ġcon figure
fol io
Ġpredict ions
Ġgener ator
Ġsub stant
Ġr gba
G iven
W arning
Ġthan k
Ġor th
H ub
Ġdep ict
G ER
C ast
Ġsupp ly
Ġ\ !
197 6
Ġab und
ĠW ay
ond ay
Ġmod al
Ġregister ed
C are
@ @
ĠCent re
Ġcon vers
tr l
get Value
Ġa ware
U nder
ĠDes ign
D ictionary
NS String
Ġo il
Q U
Ġn amely
Not es
sl ant
high light
ĠW al
, ...
select or
Ġa part
And roid
ĉ ĠĠĠĠĠ
B asic
ph ase
S ave
ĠP R
Ġag ree
Ġ@ "
ĠSt andard
ĠF ROM
t i
cre ated
ĠN et
197 8
er ence
] {\
Ġal leg
ist ing
al gebra
oss ible
ĠS earch
Ġcan onical
ĠM any
Ġar rest
d uration
T L
am i
Ġpl anning
spec ial
f actory
ĠR est
math it
lect or
}} .
D iv
Ġnav bar
Ġj ump
c ert
ĠL y
Style ID
Ġlist ener
ĠComm unity
Ġ\ "
, '
ib ration
Ġmax im
METH OD
Ñ ĩ
p res
ish op
ĠW ood
Ġpart ies
ĠG iven
sp acing
ak a
Ġsing er
Ġc ursor
el come
us band
um s
EL D
dat abase
66 66
Ġtrans mission
ans as
Ġinter act
it ative
ĠG i
getElement ById
ĠL ast
spec ific
Ġdiag onal
Ġpur poses
D b
ou rier
ver ter
Ġac id
STR ING
Ġcon sequence
big r
ap y
Ġat mos
. ",
Ġcontin ues
Ġin strument
com b
Ġsom ew
Ġcompos ition
ph oton
Y Y
ur able
Ġ$ ,
Ġex ceed
B o
an imation
ĠO l
re lease
Ġbul k
rit ical
Ġph oto
L android
P UT
w atch
ĠA re
Ġoffer ed
Ġin come
Ġadopt ed
ĠP H
ĠOption al
OR Y
F ocus
el a
me an
u um
ile vel
Ġco ast
Ġdest ination
ç Ķ
Ġpol y
ĠC la
big l
ĠC ard
D ATA
valid ation
eng er
Ġm anner
ĠR am
aw n
Ġr ational
197 5
Ġexpand ed
Ġload ed
ro ute
ĠH uman
ov iet
Ġsh ut
ï¼ Į
c ounter
Ġrepe ated
Al low
Ġmed al
Ġradi ation
ĠD ig
con vert
yl van
ĠM ock
Ġr ich
dr iver
ser ies
197 7
ac ent
un ing
uc ial
ĠS uch
v art
Ġsu cceed
Ġexpress ions
AN T
Ġed ition
D ay
Ä ĩ
on ce
ĠJohn son
h ave
Ġcomp osed
ĠEx ample
Ġcor ner
em y
L ook
ĠB razil
Ġas sembly
Ġ' ./
Ġstr ugg
Ġposs ibly
Ġmur der
act ivity
W ord
> )
Ġs ides
is set
Ġf loor
Ġc itiz
Ġdisc overed
Ġp aid
ĠF und
Ġreserv ed
ĠâĢ ¦
Oper ator
sub mit
id ae
Ġstrateg ies
ĠL ead
pro b
ord ers
urb an
trans action
vis ible
Ġembedd ing
Ġsp ac
M ove
s ocket
ĠJose ph
Ġad m
de ep
: [
os a
Ġadminist r
ron ic
Ġevalu ated
valid ate
g i
Ġop acity
s ome
pre p
Ġperform ing
Ġexpl ore
m oment
M any
Ġmod ify
Ġend s
Ġdr iving
es ome
Ġvari ance
C LASS
Ġr u
Ġt ournament
ion e
Ġ' '
Ġprop ose
Ġco inc
st andard
ĠN on
Ġtre ated
ĠF ind
m essages
B I
Ġdep artment
ĠAs ia
Ġinvest igation
M ag
Ġk ing
Ã ¢
Ġtr ivial
us al
Ġcov ari
id ential
'] );
dest roy
Ġany one
multi row
Ġmod ul
Ġop in
sc ss
ack s
End point
" ].
197 2
z ip
is er
Ġrequest ed
Ġrec ip
H tml
Pl atform
Ġ ^{
C la
| }{
con struct
Ġt ags
Ġint ended
iv ated
Ġmax imal
ost on
SS L
cl osed
Con sumer
Ġp il
Ġb asketball
Ġr an
Ġjob s
Ġwrit ers
D en
\ ;
M ake
197 4
Ġprodu cer
Ġ[ -
ud d
con structor
Draw ing
ve e
b atch
Ġhistor ical
Ġhapp ens
Re lease
on om
Ġemploy ees
g oto
P ers
Ġbenef it
ĠÂ £
ĠDE FAULT
Ġsim ultane
? âĢĿ
ĠRe al
,\ ,\
L emma
in herit
Ġw ants
Ġpass ing
tw itter
Con structor
M IN
Ġb ands
Ġlist ing
onym ous
Ġb ill
Ġwid ely
IO Exception
Ġsm art
' d
ĠApp le
v ature
id en
ĠCol lection
ut ation
urs day
anc ell
b ec
Ġd x
12 7
V E
Ġconf idence
Ġnon linear
st ic
ĠInd eed
Ġem phas
T F
Ġth er
ok ed
N ative
Ġb udget
Ġcontrol led
reg ular
ĠW IT
/ {
mer ge
an aly
dis able
ĠBl ue
con nected
ex it
Ġ' ';
ĠS ar
Ġprote ction
i pping
Ġre action
ĠE p
Argument Exception
W ait
k l
ty pen
os ure
à ¸
sub ject
Ġn ine
æ ĸ
Ġis land
B i
ĉ ĠĠĠĠĠĠĠ
ĠR adio
ĠĠĠĠĠĠĠĠ ĠĠĊ
+ (
ĠĠ čĊ
Ġint ensity
Ġsub sequent
ens ities
å Ĳ
Ġtrans actions
ĠJ ones
comp are
per m
St op
Ġoffic er
}) }
p resent
neg ative
i y
_ );
re ce
su pp
Ġs b
Ġnormal ized
Ġtest ed
Ġart icles
Valid ator
Ġdam age
******************************** ********************************
Ġh uge
19 68
^{ *
nav igation
ĠAp ache
Ġrest aur
s n
act ic
abe led
Ġdr ag
Ġquant ity
Ġc ities
ĠM ajor
Ġn arrow
Ġderiv ative
ĠN avy
Ġbenef its
Ġexpl o
ĠB ul
Tr ansport
Nav igation
ext end
}} ^{\
RE G
A li
be an
Ġded icated
Pl an
197 3
Us ers
Ġact ing
Ġcon n
G ui
Ġcar bon
avail able
ret ch
he ta
Ġmus ical
Ġposs ibility
ĠN E
F P
Ġmor ning
Ġtop ological
ylvan ia
E ffect
ing ly
is Empty
ER S
fig ures
;\ ;\
mem ory
vari able
log o
S creen
ch art
ĠCon ference
Ġdepend ent
CH AR
Ġspe ech
Ġcharg ed
w d
Ġoppos ite
ĠS ets
run time
l ife
W rit
z ure
Ġdiv ided
Ġ_ ,
Ġgrav it
on ed
ĠA ff
Ġequ ality
ĠSt atus
Am ount
il a
ĠD B
sp irit
ĠT ri
F n
if er
Ġt al
Ġident ical
Comp iler
Ġindic ated
e z
Object s
et al
Ġb os
Ġb inding
Ġ" ";
el ength
ĠOr gan
pl ane
Ġf aster
() ),
Ġiter ation
T ile
Ġspec ifically
Ġf erm
DE F
Un known
tr ivial
Ġlaw s
typen ame
ĠS pace
ĠW rite
Ġr iver
Ġgu ide
ĠO k
ĠCol umb
} ))
Ġa head
ĠE r
Ġe yes
ĠT aylor
ĠĠĠĠĠĠĠĠĠĠĠĠĠĠĠĠĠĠĠĠĠĠĠĠĠĠĠĠĠĠĠĠ ĠĠĠĠĠĠĠĠĠĠĠĠĠĠĠ
ĠRes ponse
ĠC lient
Ġl ands
Comp at
Ġadv anced
Ġf amous
B order
her ent
Input Stream
ra pped
{ "
por ation
J oin
tri angle
IN S
Exec ution
Ġmer ge
Ġman ifold
et ry
Ġp ixel
Ġd iver
Ġad vert
to Be
long rightarrow
c atch
lic ense
Ġun iversity
po ch
Ð ´
com put
Ġener gies
Over view
N UM
bo ost
for Each
Ġal ert
ĠL ear
Ġwas n
qu id
re pository
er ior
a ired
A udio
ĠK h
Ġnot es
Ġc lock
F ore
Ġown ed
}) =
Ġex pert
Ġcontr ad
ater n
\ }$,
Ġ" ",
Ġhe ard
ĠW AR
Eng lish
con tact
ĠB ern
vert ical
Î ¿
N ET
0000 00
Set ting
Ġel imin
Ġin fer
al ert
D on
Ġcomm ission
Ġexplan ation
Ġenvironment al
C apt
Ġlang uages
w ater
em pt
Ġdef ines
Ġder ive
cuss ion
t ensor
pro gram
v in
Ġr ac
Ġclaim ed
ĠL ab
Ġpre par
ind u
ĠApp lication
Ġs pher
Ġtw ice
Ear ly
Ġtri ed
MO DE
}_{ -
Dr iver
Ġes cape
å ®
) &
S em
Ġap ilevel
ĠP ri
ap se
Ġinc ident
i ota
st e
id ents
pre d
Ġcharacter istics
cl ine
d k
Ġcon ference
ĠComm on
dev elop
f etch
App end
at iv
g ov
or row
Ġf ish
au x
IL D
Serial izer
Ġinvolv ing
en ant
}} }\
Ġfe e
ĠB as
The me
B L
Ġcon vent
, {\
Ġca uses
Ġb rain
Ġcop ies
Ch ain
an im
ORD ER
Ġl ived
face book
ĠA M
Pre v
B atch
Con tact
Ġrun time
m k
ĠP ak
n am
Ġred shift
ro g
(" #
Ġj et
Ġs aved
ĠC are
Ġsk ills
on omy
ĠW ales
are st
ĠEn vironment
ĠB ol
des ign
\ }\
Ġp m
F act
hav ior
ĠP lease
Cons ider
Ġextrem ely
ili pp
fe ed
C aml
Sh ould
comm ons
=\ "
Ġs ell
Ġprec isely
][ ]{
im m
Ġse ed
oriz on
Ġj s
ad oc
ĠMich igan
Ed ge
Ġro les
Ġtarget s
dep recated
Ġcomplet ion
En v
i Ã³n
Ġperm issions
A ST
Ġh usband
ĠM en
= [
uck y
Ġs ys
ĠH am
Ġn om
form al
ĠNor thern
ur ies
Ġqu eries
C ard
com es
anch or
Ġintegr ated
M essages
ĠIr ish
B inary
Ġtemper atures
f riend
O wn
al so
sub sec
L eg
R ate
Ġg ather
St ud
Ġequ ipment
AN CE
P ack
C ursor
ĠS H
7 00
An notation
Ġdeterm in
D IS
Ġel if
ag ers
Ġw ish
Ġcustom er
Ġse asons
Ġofficial s
ĠL ord
ĠW ater
F inal
n ic
ĠDes cription
ov es
nost ics
Ġhypot hesis
Ġl ie
C ONT
Ġwe ap
air man
ĠCom put
ext ra
ph rase
rop ic
ĠP rem
Ġassoci ation
ay a
iss on
DO M
s r
Ġp al
Ġm ill
lic ated
Ġex cell
Not Found
Ġdef orm
: @"
Ġresid ents
LO C
Pr ivate
" },
/ ">
Ġf re
AT ED
Ġb oy
s pe
Ġe ye
Ġtyp ename
B M
ĠC ase
br and
ĠR a
ĠM ount
In formation
St atic
Ġdet ector
S G
ĠPol ice
Ġadminist ration
Ġprote in
ĠIl legal
Ġhel ps
Ġar c
Ġrece iving
= .
ĠH on
Ø ª
ĠC G
Ġfund ing
ĠCo q
ns ylvania
Ġ" %
l ad
Ġcontrol s
Ġasympt otic
) }_
} |\
Ĥ ¬
Ġd ashed
\ |\
sh al
g z
Ġenh ance
ĠF ire
Ġcred it
Ġ' .
ĠL ight
197 1
ĠPar liament
g ather
gener ate
Ġf ashion
Ġb log
S ql
19 69
str ings
assert True
el astic
> ;
Ġre ality
Ġaspect s
C md
ĠGu ide
ra ise
Ġissu ed
Ġc atalog
Ġd t
Ġproper ly
Ġgrav ity
ĠL ib
Ġfr ag
Ph one
ar ith
Ġc riteria
or ial
Const ant
P Y
MOD ULE
P od
requ ency
W ORD
a ug
comp lex
Ġf resh
Ġfind s
Ġr ig
? ?
Ġgeneral ized
ym er
Ġdisplay ed
Ġrec over
ĠM iddle
aps ed
R aw
t p
Ġcount y
comm it
our ney
ĠMed ical
ch er
> "
ĠAb stract
; |
X i
Ġinvest ment
unn el
erv ised
Ġp ixels
B ased
@ {
ĠS and
Ġs cores
ul s
Ġmot or
h ook
Ġs ql
Ġf mt
Ġcol span
Ġthe ories
ĠSc iences
br as
Ġt ight
Ġs un
OP T
S a
C r
Ġdisc r
Us age
Ġselect or
Ġrecord ing
II I
Ġload ing
ma k
Ġmat hemat
ird s
ues day
S yntax
int eger
Ġemploy ed
e lem
H ence
PH P
ig ate
ict ures
Ġpolit ician
M apper
Ġprom ise
Render er
ĠAn other
Ġc ultural
ĠO N
r adio
ual ity
u uid
S F
Ġstat ements
ĠK en
Ġsepar ated
ĠL oad
ĠS aturday
Ġ> >>
im its
Test Case
Ġcomm only
per iod
Ġc odes
Ġparticip ants
ĠM ot
Ġme ant
b ass
Ġh orizontal
ation Token
view port
Ġveh icles
ĠM aster
Ġm ouse
Pre vious
E val
Ġcol ors
pl oad
Ġnew sp
element s
Ġcr yst
Ġfig ures
UN D
ĠB ow
grad ient
Ġprogram ming
: =\
Ġfail s
Ġa st
it age
ĠJ oe
Ġlow est
Ġsec ure
Ġpro to
p ur
ath an
re act
Ġfr ames
er os
Ġdemonstr ate
ic ing
Ù Ī
19 67
In sert
ar ity
Ġopport unities
S peed
Ġc row
ent h
uff ers
u j
ĠF ar
Ġex pos
Ġcon version
Ġnew ly
ĠF OR
et es
grad le
o ir
F older
ĠM ah
Ġeffect ively
Ġatt end
AN G
as m
Ġ_ .
Ġbas eline
Ġcos m
th ere
Ġelectron ic
Ġact ress
Ex port
Ġthan ks
vart heta
c ross
St andard
Ġcheck ed
}$ }
Ġnecess arily
Ġbr idge
å ħ
Ġcli ents
D rop
el d
Ġs outhern
Ġclin ical
Ġdevelop ing
We ight
get Id
ĠĠĠĠĠĠĠĠĠĠĠĠĠĠĠĠĠĠĠĠĠĠĠĠĠĠĠĠĠĠĠĠ Ġ
Comp lete
nes day
min ute
Ġfac ilities
Ġecon omy
ĠS em
rypt ed
Ġrad ial
Ġin fe
ĠSp ain
b us
pt o
Ġad min
l ab
Ġbeg ins
Ġsk ip
à ®
An im
################ ################
Ġqu asi
ĠC ore
Ġrecogn ition
Ġmag net
ob serv
Ġper haps
m obile
ĠR ay
Ġd ense
st rip
ĠS outhern
G a
Ġs ending
ĠW all
Ġphot on
Ġlimit ations
s heet
Ġg ra
ĠOh io
is or
enn is
Ġ( {\
ĠPac ific
Ġpro files
Ġfe et
Ġis omorphism
Ġbro ken
! "
ĠS ir
R C
U ST
Ġlead ership
Ġc old
Ġgener ating
Al though
am ber
LE D
j et
Ġapproxim ate
cal endar
an es
^{ (\
Ġindic ating
clud es
Ġimprov ement
Ġle s
b ell
ĠDemocr atic
ens itive
il ly
ĠOb serv
Process or
f mt
ĠChampionship s
Ġmix ing
F uture
R T
E st
Ġorgan ized
un a
Ġpro min
Ġnor thern
r int
direct ory
! ]
ĠS af
ul ing
Ġm arg
Ġgen us
Ġc ars
Ġunder st
li bs
Ġdefinition s
j Query
Ġb urn
Ġg lob
ĠF amily
ĠWAR RAN
ab c
I AL
enc ing
RE D
C ur
lement s
p ress
ĠG ar
ĠE st
Ġassum ing
pt ic
ĠStr uct
ug by
on to
Ġf le
ir ation
\% $
^* \
Ġbusiness es
}} =
ĠSen ate
Ġca ref
Ġregion al
not ations
Ġexec uted
Ġfe at
ĠC urrent
Ġbe at
ĠH as
riter ion
i per
script style
Ġacadem ic
Ġadv ance
inter val
ri e
}\ |
ass ign
Ġoffic ers
Ġ} {
ĠWilli ams
Ġinsp ired
99 99
Down load
Ġfund s
Ġac comp
ev in
un te
~~~~ ~~~~
Ä į
ĠVir tual
ĠS ports
med skip
ĠW IDTH
Ġhapp ened
HER E
ĉ ĠĠĠĠ
ĠW in
Ġexper i
Ġcomm ands
ĠE nergy
Ð ¿
Ġsens itive
ĠGeorg ia
c assandra
Ġp ipeline
Ġw arning
epend ence
D Y
Ġcorre ction
Ġdecre ase
ĠFrancis co
ĠUk raine
. """
ic er
Th row
Ġsto chastic
Rem ote
âĢĿ ,
est ic
par allel
M s
Ġ' ',
read er
M aterial
ĠN ight
Ġcho ices
jack son
ĠT erm
ĠW ild
Ġ ">
Ġ$ _
Ġquant ities
Ġcol on
MA P
Ġinter mediate
Ġprim arily
ad el
Ġcons ult
âĢ ĺ
Ã ±
Ġc er
go od
A I
Ġse at
k top
}) ^
L ib
Fr ames
A UT
L i
ĠAb out
Ġreview s
Ġend point
Ġfl ight
B ottom
ĠI slam
ĠAd minist
Dep th
ĠA li
C ALL
Ø ¯
ĠS C
Ġconfig urations
Ġcapt ured
Ġd ream
Ġvict ory
Ġlog ic
reate st
Ġatt ended
ab ric
ul ating
ĠÐ ²
;| &
ĠM id
S W
m ms
viron ments
Ġm ount
can vas
HE AD
l u
ino is
at on
ĠF ederal
= $
ymmet ry
Po jo
urre nce
L oop
is is
as ma
Ġcorrect ly
Ġre produ
Ġnear by
Ġtell s
Ġ' %
ĠCol l
Ġb ug
ĠI V
un ately
sp in
ĠSecret ary
ĠL ive
C enter
exp ression
ĠH iggs
B ounds
STAT US
as p
ĠCons ider
Copy right
ĠW ho
ĠCl oud
Al loc
we ak
Ġrelig ious
cf g
const raint
c u
ĠH or
Ġperm ission
ĠConfig uration
ĠN a
ĠL ay
Ġst reet
wik i
19 40
ĠAd v
ĠC art
st age
ge bras
ĠRem ove
A X
r ated
Depend ency
w ill
}{ *
CON FIG
ĠJew ish
Err ors
z ab
Ġt rib
Wh ere
A E
Ġc ult
im ately
Ġsp ort
Ġex erc
Ġserv ing
ĠV an
Ġaud ience
ur ance
ĠO S
f b
19 64
ĠCE O
Res olver
cont ents
Ġpers pective
B al
o es
ĠH ospital
ĠPen nsylvania
Ġhe ar
d irection
ĠM onday
Ġmed ian
Ġ-- -
scal a
Ġ" .
rel ative
On ce
an alysis
ĠB a
Ġestablish ments
Con sole
} ~
am pl
n ol
g rav
Sp an
Ġch ampionship
ĠX ML
gy pt
Ġdraw n
ta ke
Ġst ats
ĠCh ange
ĠIn ternet
ĠA rea
fore ach
Ġp sych
Str ategy
re po
ĠB et
Ġmolec ular
Ġp et
More over
ĠM ember
Tim er
13 0
Ġun iversal
OR TED
Ġprior ity
ĠS i
Ġf iction
Ġident ifier
refer red
se p
t z
link ed
ĠE V
lip se
Ġeas ier
Ġd elta
arg uments
Ġport rait
ordin ate
Ġdr ama
t ouch
Ġscient ific
Ġm al
alt Color
en ance
com pute
Ġw arm
cri bed
ins ic
r pc
Sh ared
Ġscen arios
Ġmom ents
or ough
b x
ĠD M
head ing
em porary
Ġmag azine
Ġ{ %
Ġpay load
ord an
Ġs ync
not ag
An other
11 1
Ġmay be
Ġcharg es
ĠJ on
ĠIn vest
Ġsub group
Ġrepresent ative
ĠCon f
Ġ ing
Ġcan cell
r ink
Ġc ub
Ġext ent
Ġup load
Ġl ists
Ġanim als
Ġpres erv
text color
Ġlink ed
.* ;
Group s
S pr
Ġdo or
Ġcon d
Ġm es
Ġlog ging
M icrosoft
Dr ag
Ġacqu ired
Ġvers us
Ġ ĉ
al ty
tim estamp
Ġs pl
Ġcomp r
< <
Ġv ideos
Ġtim estamp
Ac cept
ad ed
Ġclos ely
Ġconvert ed
Log in
ĠS oviet
Enc oded
ĠB oston
Ġv en
column s
Ġc e
um ps
Supp ose
IN ST
L Y
ear s
Ġ$\ {\
az y
F OR
Ax is
ĠM u
ĠS V
ge o
Ġfil led
m ond
19 45
ĠC amb
ĉĉĉĉ ĉĉĉĉĉĉ
ĠB ad
rupt ed
Ġwe ather
in er
m iddle
se lection
Ġsche dule
Ġimp licit
ĠAnd rew
Line ar
is a
^* (
Ġg lass
ĠW ell
Col l
phant om
ĠC ivil
ĠF inal
Ġdemonstr ated
Ġs leep
ĠP erson
Ġ< -
Ġinitial ize
s un
Con vert
ii i
Ġequival ence
ĠCar l
og onal
Ġf ellow
ĠA T
Ġsepar ation
t re
19 65
n c
Ġdynam ical
j ax
Ġcur vature
] ))
Ġconsist ing
Ġsupport ing
W atch
ĠR ights
Ġpract ical
d ynamic
e b
burg h
d jango
Ġh alo
% .
Ġcirc um
ĠW at
Ġpl ants
ĠC y
Ġinit i
l oss
ĠSer ver
equ ations
us et
Ġcre ates
Ġexec utive
ĠProv ince
Ġport ion
ĠG reek
Ġyou th
Ġsc r
ĠTh ursday
Dep recated
Ġd anger
ĠG ra
ĠL uc
M ac
Ġre verse
h fill
ic ular
Task s
ĠDef inition
B inding
ap ed
Ġk new
Ġpol l
Array List
ĠSt an
fin ite
d ag
P red
tain ing
%%%% %%%%
( .
ag ram
ĠK ong
Ġc lip
ov ing
dis patch
MM ARY
à ¥
us hed
ĠR O
Ġlarg ely
ĠA ri
Ġeigen values
Ġsens itivity
ĠPro t
Ġt ick
Ġpi eces
ĠF C
ĠDan iel
con duct
Ġdire ctions
pr ise
ĠC SS
ĠCo ast
B ool
Ġwait ing
Ġentire ly
Name Link
b lob
Ġm ys
enc ode
Ġreturn ing
Ġact ors
Ver ify
amazon aws
ĠL o
Ġs ocket
w allet
form ed
ä ½
ob s
EN TRY
Ġt er
R ot
sc ore
Ġn a
Å į
link s
ĠAs ian
h ot
Ġintrodu ction
Ġpack et
ĠPy thon
Ġear th
Ġaccount s
Ġpay ment
cor ollary
ä º
Ġp itch
Ġbeliev ed
Z one
p kg
M aster
ĠCh ris
w br
Ser ies
ĠChrist mas
ĠBrit ain
ĠJer sey
includ ing
) ^\
Ġw ire
h ab
bu ilt
19 30
Ġdr ink
Ġclass Name
T Y
l int
ĠT ro
ĠOn ce
Ġredu ces
atur ally
Ġd imensional
Ġvoc als
g lyphicon
d ark
ĠSt ream
LI ST
Ġe lections
ĠPro p
$ {\
lear ning
us p
19 66
Ġteach er
Ġcoup led
ĠEmp ire
ON G
ĠK ent
] +
Ġre pository
S ame
ĠJ r
J an
Ġmov es
ĠCont ent
Perm ission
ĠOut put
A nt
ĠC apt
Ġinter pol
Ġlook ed
F amily
Ġsk y
or i
Ġp atch
Ġacc ident
Null able
b ur
Ġbreak ing
Ġnot ion
Ġtop ology
ĠJ eff
mult ip
AC H
ĠJ son
FI ELD
ĠSe a
Ġoutput s
Ġs an
Ġl ab
( ()
ĠB al
i ant
Ġconcern s
Ġpotential ly
è ¯
A bs
ĠT ag
Miss ing
ĠP ay
C ounter
Ġdec ades
ĠJ acob
AT OR
Ġprom pt
RA Y
} >
ĠN Y
Ġe ase
om ics
Ġ& #
Ġph ases
Ġconf lict
ĠQue en
19 20
Add r
ĠReg ion
ĠQu ery
Ġan chor
Ġ ig
back slash
Ġessential ly
ĠC ur
bound s
Ġinterpret ation
P lease
sc opic
> %
ĠS imple
Seg ment
olv ing
Ï Ħ
Ġdef ense
Ġcon tribute
Ġqu ark
Ġ{ },
Ġcomp liance
\ /
Ġdec or
ent ed
ĠThe atre
ĠWil son
Ġk ill
Ð° ÑĤ
ĠL java
Ġread s
ex amples
ĠHistor ic
Ġabs ence
Ġorient ation
Ġ Ñģ
Ġte le
ĠJust ice
Ġign ored
R andom
B Y
Ġp apers
P at
D iff
Tim estamp
V ICE
rom ag
Ġengine ering
Row s
A SE
N ational
ĠO x
ĠF our
> ()
External Task
ĠJ S
ul f
ĠL ic
al ink
Com put
u ing
new s
Ġatt ached
agr ang
Ġdis p
Ġre striction
P G
ĠM ike
ĠW alk
ĠN C
Ġfac ility
Ġp owers
Ġal ter
ĠJ es
Ġf ra
Ġw onder
Ġcorre ctions
ak i
n ob
she ll
Ġext ensions
Ġcon clusion
force ment
Ġcould n
ĠL ike
Ġt urb
Ġclos er
Ġv ision
ExternalTask Pojo
ĠR h
ĠCh annel
V AR
dist ance
R UN
ĠC ond
P romise
Ġs ister
ĠCon text
C oin
FF ER
duc ible
M F
ĠP romise
ĠStud ies
ĠProf essor
fr ag
ĠRepublic an
Ġben chmark
14 0
Vir tual
f aster
ĠD C
s amp
ĠTh ree
B en
Con tains
lo pe
sw ing
ĠA I
ibr aries
Ġim g
Ġm ach
pre vious
Ġbeaut iful
Ġvari ant
f act
ĠS che
Ġliter al
Ġprep ared
Ġc ert
Ġm iles
um ul
ĠPub lished
Point s
ĠJack son
i ations
AR D
om al
Ġed it
: '
Ġinter ior
script size
ĠUn it
Ġapp lies
e lect
Ġcomp lement
el ly
Compar ison
Ġcon sec
ĉ ĠĠ
Enc oding
ĠV ideo
ĠST ART
T AG
and o
Ġt a
Ġar my
Ġsymbol s
rem ote
del ay
th rift
top ic
ct ree
m ac
us r
Ġsurround ing
Ġprof essor
k h
r ame
ĠE U
Ġ ----------------------------------------------------------------
Ob server
Ġw itness
Ġdecl ared
Ġwin ner
Arg uments
lic enses
oc os
Ġf uel
Ġsh aring
L ibrary
n m
Ġrestrict ed
Ġenc ounter
Ġsupp ose
u cl
Ġhand ling
ik i
Ġcomp iler
ĠOff icial
Ġfil ters
Ġin clusion
__ _
n ative
ce il
Ġ Ø§
re du
Ġextract ed
Ġsent ence
ire ment
Ġpan els
Ġst uff
Ġgravit ational
ĠMin istry
Ġsubject s
1 12
ĠM ic
Option al
ĠB attle
F UN
Ġre ward
( -\
re nt
over ning
Ġrelationship s
n ight
EN V
Ġhe av
Ġdev iation
Ġcover ing
Ġanal ys
part s
st ud
ĠBro ad
( ['
ĠTh read
! \
ĠInst ead
p ot
Ġat oms
Ġrespect ive
ĠMark et
om atic
ĠSh ort
um a
Ġlumin osity
Ġuncertaint ies
Ġst yles
b at
MA GE
Ġphot ograph
R ob
res pons
Ġto kens
R a
Ġbig gest
j b
Ġex ports
alle st
por ate
. \\
Ġc art
ixt ures
) }.
Ġc overs
AT TR
Ġadv ers
ĠSU MMARY
Ġal pha
Ġattempt s
(' <
b ury
id i
NO DE
art ers
Ġstandard s
Column s
N ov
Ġperiod ic
Ġ' ''
Ġcr ime
Ġimp lied
Ġdes cent
Ġprodu ces
Ġtem poral
Ġpr iv
ãĢ Ĥ
ĠDe lete
create Element
ĠC ro
ars ing
Ġm m
ĠIll inois
ĠF ix
= %
ĠKore a
$. }
s is
D om
oc cer
Ġa ria
Ġp ref
ĠP ut
Ġth in
Ġconcent ration
ĠC irc
rem arks
class Name
th ick
Ġbelong s
log ging
I Z
Ġtrans itions
ĠBuild er
Ġk in
ul ner
ph ia
Ġro ut
Ġdel ivery
Ġinj ury
cri ptions
Å Ĥ
og y
Ġsp ring
ok es
ir t
C ancel
ĠA D
Ġembedd ed
if i
Fail ure
Ġkeep ing
Ġconsum er
Sw itch
3 60
Ġmodel ing
.... ....
H older
it ely
Ġreason able
Ġman age
er red
D ig
che ster
ant ly
Ġreg ression
Ġrec overy
Ġcr ucial
are t
S ol
Ġconv olution
Ġk ids
Sign ature
æ ķ
Ġs and
= &
ĠL im
Ġm o
ĠB ang
Ġb ed
J ust
Ġt d
Ġsub sequently
ĠC lear
b inary
Ġpl anned
an th
p ages
Ġe lev
sd k
Ġpres ents
Ġuniform ly
Ġman ifest
te en
Ġf ake
th rough
Ġp arsed
Ġrequire ment
ost er
Cont ents
Ġex cess
ĠK im
a ud
ĠCon nect
ĠP C
or ney
10 24
al ias
pp et
ĠF uture
is ot
Ġm ist
Ġplatform s
ĠTr ust
Ġp ot
k ernel
Ġwav elength
Ġt ables
Un ited
Ġplace holder
Ġge ometric
H L
ag ma
ma pping
sh arp
Group Name
bind ing
Ġfluct uations
ĠRec ord
Ġf older
Ġ rom
Ġem pir
Ġv anish
F oot
Ġdis able
ĠCre ates
os ition
stats models
the less
w ave
AT CH
t l
Ġfrequ encies
ĉĉ ĠĠĠ
è ¿
ĠF ull
Ġequ als
ĠS N
Ġres idual
Ġa w
Qu ant
ĠD ar
D ynamic
Ġflow s
Ġent ertain
g if
ject ure
) ",
ru les
Ġcitiz ens
Ġa ug
ĠL atin
ĠB ell
Ã© s
uplic ate
Ġpar a
re peat
sh are
Ġoper ated
Id x
x sd
ro vers
Ġw idget
Ġpe er
Ġserv es
Un iversity
p n
itz er
P REF
ĠB E
ach uset
Ġp erman
Ġrecon struction
a udio
Ðµ ÑĢ
Ġf etch
Ġrecomm ended
achuset ts
>( <
ĠS pe
Us es
Ġ era
> '
Ġel li
ĠR ight
on ia
em an
ĠP ers
Ġsee k
ĠScot land
Ġinvestig ated
Ġe poch
oun ce
sh a
Ġin vari
c ancel
get Instance
ĠW is
Loc ale
N V
ĠT uesday
*} [
ool s
incip al
Ġrec urs
Ġ ,\
C a
10 2
Ġf ib
>< !--
Ġperturb ation
ĠPh ilipp
Ġpr ivacy
in x
Ġcol our
Ġref ers
cept or
ĠÂ ©
gener ator
ĠSupp ose
-------- --
Ex ists
w ing
S epar
vail ability
ane ous
K it
T y
ĠAl gorithm
c overy
ist ant
ĠAut o
Ġsat ell
und ers
D ATE
10 5
ĠÐ ½
Expect ed
ĠL ittle
ĠD ub
Ġfa ith
r gb
at ibility
ĠH ard
ĠClass es
arch ive
19 63
C ity
_ )
Ġimmedi ate
ĠAg ain
ĠI ter
Ġmin ute
t m
å ¤
c od
g ray
HO ME
w arn
eg o
F ix
qu o
Ġdomain s
ff f
Ġstrict ly
ro uter
ĠH arr
ch ant
Ġfind ings
Ġvary ing
h d
int ro
ag a
ĠF ollowing
Ġsol ving
Ġg ene
Ġun able
Ġl ift
Ġvari ations
Î ¹
t ed
Ġpolar ization
elli j
5 12
ĠL anguage
As set
M ost
ĠEngine ering
Ġadj acent
Care er
Wh y
Ġst ands
A SSERT
Ġg ender
**** **
"> (
Ġs ensor
jav ax
ĠM O
$\ ,
foot notes
. $$
ate ver
Ġhold ing
Do ctrine
ynam ics
ĠF air
(" %
ĠAdd ress
Ġexc ited
agrang ian
SP AN
Ġv on
y o
Man agement
Ġviol ence
ĠD OM
G P
Ġrough ly
Ġm useum
Ġweight ed
Ġdec isions
Ġh ide
Ġch unk
ĠĠĠĠĠĠĠĠĠĠĠĠĠĠĠĠĠĠĠĠĠĠĠĠĠĠĠĠĠĠĠĠ ĠĠ
ĠH ong
y ou
ĠPort ug
IC ATION
Ġthink ing
ĠM L
T ube
å Ĭ
{ (\
it ical
Ġinstit utions
ĠW rit
B u
Ġcoll ision
Ġind ustrial
ĠG overnor
faster xml
ĠVAL IGN
Ġpartners hip
Bl ack
Ġexper iences
ĠRef erence
int ellij
Ġsto res
Ġb ra
ĠK E
Ġprec ise
ĠEd ward
Ġv m
ĠI L
Ġanaly ze
19 62
Ġs ud
ĠE gypt
Ġhapp y
p in
ma ps
met ic
Ob serv
ĠCor poration
ĠSpr ing
An aly
Be en
Ã º
vent ory
| ^{
Ġpr ices
LE TE
am ount
Ġconc ert
Ġexcell ent
Z ero
ĠWed nesday
ir us
S ite
Ġalgebra ic
) >
ĠC S
od o
em it
D av
Ġcertain ly
RE E
Ġalong side
ud a
vert ex
ĉĉĉĉ Ċ
Ġinfra structure
Ġpolit ics
t b
Ġd st
aa aa
Ġabsor ption
B IT
Ġsex ual
H om
ou p
Â °
Ġepis odes
u ency
text up
F N
ĠO Caml
f actor
ĠL abor
Ġrece iver
Ġ\ ,\
s peed
at ivity
get Type
nes ota
Ġd edu
es ides
pt ure
S plit
S elf
Ġgrant ed
Ġcom edy
RA ME
Ġm acro
L icense
} ",
f p
C V
Ġat omic
Ġdomin ant
Ġpercent age
Ġb ass
Ġstraight forward
Ġrecogn ized
c ycle
h ang
Ġcirc uit
load ing
a is
ĠR en
Met rics
× ķ
Ġout come
Sh ader
ce st
ĠBro ok
in os
Ġs quad
Ġfor t
Ġphot os
m ay
Ġc ached
Ġdisc over
Ġinvolv es
Ġas sets
Ġfit ting
zab eth
Ġfrequ ently
Ġd oll
In ternational
Ġli quid
Ġan cient
ĠWh y
ut ors
rt l
P ower
un lock
Ġdeg ener
ort ion
Ġelect ro
ĠGe V
* ,
Res et
ĠS end
get String
u ent
Ð ·
sl ide
Ġarr ived
V ec
Exec utor
v endor
Ġext ensive
Ġrandom ly
writ ten
Ġsystem atic
Ġm and
yg on
Ġdefe ated
ĠAmeric ans
R out
enc oding
Ġrob ot
LIC ENSE
f older
P res
oun tains
Ġg one
google apis
Ġhard ware
Ġst ead
ĠG R
Ġhous ing
E P
Ġ Å
In ner
c ue
col lect
Ã ¸
Ġwest ern
Ġgu ard
Ġwork er
an z
ad v
ĠAlex ander
dat etime
ĠD ouble
bin om
Ġsche mes
? "
Ġm ail
Ġsur g
SO UR
Mon th
Ġquadr atic
W est
ann a
Ġresearch ers
ĠPr int
} /\
com par
Ġb old
Ġe le
F ixed
ĠResult s
Ġdr iven
at riate
| $
ĠEast ern
ou red
t f
TI ES
tr ansport
sh op
Ġcr iminal
ap ore
ĠPr ime
ag en
Ġsche duled
to ctree
s ass
D TD
U V
1 16
En able
C amera
55 5
ĠF ood
ĠS at
Ġn ice
lin ux
B rit
Ġearn ed
Ign ore
Ġcomp re
u pper
Ġyour self
ĠG ro
Ġk ick
F ALSE
Ġdr am
G EN
] =
Ġover flow
iz ers
Ġrespons es
T ouch
Ġa wards
Ġdro pped
Ġpre ced
c ursor
os is
Ġcollabor ation
{ |
Ġc ensus
ĠĠĠĠĠ Ċ
Run ner
b oot
un es
omin ated
Error f
Ġillustr ated
ĠB C
Ġ" '
d ensity
t oc
Ġqu ot
Ġ uri
B el
An alysis
Ġst ages
Ġen umer
U pload
Ġfif th
ĠC at
Ġsur faces
Ġmar riage
Ġvac uum
ĠCon serv
ĠR od
Ġrail way
\! \
Ġident ification
ĠMus lim
in cre
es is
ĠB and
Ġg overning
Con verter
un known
Ġr anges
Ġsh ips
Ġf ul
D id
Exec ute
po inter
ac er
ĠP A
Ġexpect ation
Ġwhen ever
& =\
) (\
Ġdecre ases
Ġbound aries
ĠN ever
ĠR o
Ġun iqu
d on
Ġtext ure
ĠMed icine
2 13
Table Row
ĠSt ation
Ġ\ &
he t
Ù Ĭ
eder ation
Ġp ed
Ġfeat uring
Ġ( %
Ġneutr ino
Ġcharacter ized
Ġal ias
op am
B ridge
Ġsee ing
Ġ-- ></
ĠP DF
amp ions
Ġdis patch
F eed
tain ment
Ġhy brid
Ġcr isis
ind s
Ġsimultane ously
icip ant
ĠPr ince
Ġunderst ood
}. }
c n
Ġext reme
\| _
Ġopin ion
SS ION
Ġcoll apse
Ġc as
Ġres olved
Ġform ulation
Ġmechan isms
s ym
Al so
Ġtransfer red
in variant
cl s
Ġent ang
Ġinteg ers
ĠR om
Ġenc oded
f all
ss l
Ġman ip
Ġrect angle
Ġ| =
/* !
H y
ĠâĢ ¢
inst ein
out s
oci ated
Ġsimilar ly
UB LIC
footnotes ize
~ (\
Ġro ots
Ġpract ices
ĠMethod s
Ġprep are
Î µ
ĠD er
Ġoffer ing
ĠWARRAN TIES
Ġat om
Ġf s
W in
& -
nt ario
w as
ib ilities
ĠRep resent
Ġhom ogeneous
LO W
in son
S N
Ġfavor ite
ĠCO L
add Class
Ġderiv atives
i ph
ĠR ow
ĠF ourier
f ake
Ġm yst
Ġthous ands
Del ay
Ġsing les
l m
fl uid
DE X
U C
Ġv ent
cknowled g
Ge ometry
Ġlett ers
Ġgu ess
LE MENT
ig a
(" \
Ġpl ate
ir th
Det ector
d st
Ġanaly tic
ĠT y
Ġh ers
St ub
ic ode
Ġdist ances
Ġ ray
Ġperson nel
ĠColumb ia
d n
or al
ĠPro duct
Ġcomm ittee
( /
Ġass ignment
C ref
ID E
ĠO pt
M usic
Ġs ale
UN T
tool tip
att ed
19 61
ro b
C CESS
Ġadd s
ĠD utch
periment al
Ã© e
TR AN
Ġun iverse
Ġag ency
Ġbel ief
Ġpolit icians
Ġauthor ity
Int eg
s z
Ġprov ince
Ġre vers
Ġcondition al
&& $\{
Ġpublic ation
Fil ms
d anger
ĠN iger
Ġconj ug
v ect
part y
c ost
Ġm ental
Ġ\}, $\\
ĠF ac
Ġdiff usion
Ġlik elihood
Ġ\ |\
Ġcre w
Ġchalleng ing
D irection
Y our
N a
' _{
b undle
Output Stream
LA Y
Ġc av
get s
,... ,
ign ore
BU ILD
Ġn arr
Ġhon or
G IN
Ġhous es
ARN ING
in ction
Ġb ond
aint enance
ĠMass achusetts
Ġt ang
St ar
et ies
mid rule
ĠB on
Ġ\ [
Ġsim ulated
Ġc b
we ek
æ ĺ
form er
l ined
Ġdescri bing
Ġstrong er
Ge V
Ġpseud o
Ġd ensities
Ġdestroy ed
W IN
Ġpurch ase
çĶ ¨
ĠĠĠĠĠĠĠĠĠĠĠĠĠĠĠĠĠĠĠĠĠĠĠĠĠĠĠĠĠĠĠĠ ĠĠĠĠĠ
Ġneut ral
BA SE
f ac
ĠSt ore
l r
olog ist
d ays
ĠTh rough
ĠDig ital
Ġs phere
Ġdef ining
Ġat trib
ĠCon vert
Ġsomew hat
ĠT urn
G G
Ġ urban
Ġperiod s
)} (\
mem bers
BU FFER
Cont in
Ġorbit al
Ġan imal
let ter
err ing
ĠSh ould
Aut hentication
char acter
Ġthrow n
Ġm ent
19 44
Ġ à¤
Ġg irls
ĠK enn
Ġen vironments
loc ale
Ġproport ional
ĠPar se
Control s
Ġadv oc
ĠB Y
Cre ated
Î ½
O ld
[ ]{
Ġuser name
ĠSur vey
Ġtyp edef
ra q
Ġin n
op ing
In f
Ġsl ot
it i
Ġa thlet
Ġle af
L R
ĠGu ard
Ġb odies
CO MM
var rho
IL ITY
ĠC P
Ġpolynomial s
Ġappro ved
annot ations
ĠB an
ĠCol umn
B D
ĠBe ach
Ġacc um
Ġdisc overy
g lob
o i
o or
Ġn aturally
U A
ĠSim ilarly
Ġcomm itted
Ġ# {
act ual
ĠR og
Ġcap able
ac on
sur face
do or
V D
pe g
Ġb ow
ĠGr ant
Ġsh arp
10 4
Ġelect rons
S ources
A ctions
Ġclass ic
Ġem b
Ġsub mit
li x
Ġinterval s
ĠC reek
m ix
Ext ra
Ġh abit
=\ {
H D
ud i
ĠA sh
not ify
loy ment
Ġem ot
$- $
RE CT
h olds
Ġt uple
Ġsh ares
UE ST
ĠR oute
refer ences
! (
Ġperform ances
s yn
id al
] ^
P acket
Ġend ing
fl ush
M illis
ĠH om
ly wood
ĠB efore
f av
Ġcoun cil
U AL
fe atures
m r
ut r
Ġh air
Ġw x
Ġcheck s
" ];
ak ed
Dis patch
opt im
b ors
âĢ ¢
> ../
ĠCom ponent
Ġmarket ing
out heast
p rom
Ġis ot
Ġ` ``
Ġdomin ated
sequ ences
osoph y
Ġde legate
Ġb low
Part ition
ĠĠĠĠĠĠĠĠĠĠĠĠĠĠĠĠĠĠĠĠĠĠĠĠĠĠĠĠĠĠĠĠ ĠĠĠĠ
Ġcl im
itect ure
Ġmet all
ong o
B ad
Ġfac ilit
A vailable
ik a
Ġ' #
ĠU RI
fort unately
Ġare n
Ġv ot
Ġannoun ce
ĠS P
Ġpromin ent
Ġpack ages
get Message
Ġcl one
Ġ{ $\
__ )
c v
Or gan
Ġde leted
Ġm it
ĠL ew
N umer
ĠT ree
Ġclos ure
i ors
Ġsp end
Ġtrack ing
Ġ$ ^{
Ġsc an
om m
! </
Ġar ms
Al ert
OR K
Ġint ent
IM IT
p id
Ġg rew
ĠM C
ol is
PRO P
ĠB ra
TO M
ĠJ ean
me asure
ĠK now
ĠAcc ount
qu es
Ġ- =
Ġcor relations
F ollowing
M ust
ĠN ick
ĠU V
l ot
Decl aration
Ġte aching
m utable
hens ive
max cdn
h al
Ġsupp lied
ĠC as
ock s
form ing
ver ify
Ġl aser
Ġin structions
ĠV ill
Ġactiv ation
Ġcom fort
ĠF ish
ĠV iet
Ġret ired
Ġne ither
Ġd ance
p f
ve h
ĠP ack
Ġcont roll
ph an
R S
man agement
a ui
pos ite
ĠAn th
Ġco al
ĠSup reme
he im
ĠIt em
Ġsign s
Ġbrief ly
part icle
per ature
Ag greg
ĠAn alysis
Ġs in
c raft
Ġj ourney
ĠBer lin
$ ^{
U CT
iv ari
E very
L ike
ĠL ook
Ġdef ect
display Name
is ition
O wner
Model s
phys ical
Ġtechn ologies
Ġmod er
In struction
A v
ĠD ue
Ġconserv ation
ĠL td
left arrow
Ġf old
ĠCor ollary
\ [\
Ġcommun ic
Ġent ities
Ġad vent
Ġterm inal
ut s
ĠAt l
t age
Pro f
Ġ' "
Ġpl asma
ĠB uffer
S uper
it led
dat aset
Ġpost ed
ĠK r
ĠC ov
Ġresult ed
un iform
ĠPak istan
Ġseg ments
M r
ĠMA X
×ķ ×
Serv let
ic ious
Ġ{ {\
pr agma
Pl ot
Pl ace
ĠLog ger
ĠL ater
Ġf ell
c ountry
R ules
ĠS ant
leq slant
cm p
ĠL ore
AV E
Ġclub s
ĠDes pite
"/ ></
is o
Ġ' _
down arrow
adel phia
Ġtit les
Ġc le
ri ent
an ches
Ġknow s
Ġexpos ure
Ð¾Ð »
ĠL ow
Ġpart ially
ĠL at
int on
d ney
Ġsto pped
Ġcell padding
Ġut ility
th ur
Ġapp s
Ġgo ogle
Ass ociation
ĠN ull
Ġcomp aring
Ġig et
te am
< >();
Ġm esh
Ġpop ulations
z o
no frame
195 9
Ġcell spacing
B its
Ġsimilar ity
b t
Ġtraject ory
HO UT
T M
Ġleg end
195 8
}[ !
ru ption
op ens
ĠKE Y
ĠN AS
Ġinf lation
ĠBook s
ĠPol and
=" {{
K ernel
Ġsup ers
Ġconvent ional
r ig
mit ter
Ph oto
D er
Ðµ ÑĤ
Ġso le
ĠB BC
in ject
ow ski
Ġcount s
19 48
Ġprefer red
item pty
Ġmark ets
Ġspect ro
& &\
$ '
Ġassert True
Ġf ear
Âł Âł
ĠO s
Ġrecon struct
nt il
Ġdes criptor
F M
mat htt
S ports
Ġstruct ural
ĠOx ford
195 6
Ġneg ot
om itempty
Ġsp ons
Ġsch olar
Pr imary
th umb
Ġrepe at
Ġm el
Ġmat ched
C trl
sol r
ific ial
Ġpresent ation
h istory
P OS
âĢ ī
ĠComm un
ops is
Ġapp rec
order ed
T yp
Ġsh adow
Ġconsec utive
ĠN ative
Ġd ictionary
Ġm ort
ĠB ox
OL D
Per iod
ĠH un
Ġw a
Ġin ference
r v
Ġun ivers
mult line
ĠG raph
Ġ ri
Ġtr unc
ĠC hen
Ġwor st
Ġaccess ible
Ġdef end
Ġorth ogonal
Ġform ul
ss ue
Ġrepl acement
ail s
() ">
ens ing
reg on
Load ing
met ric
> [
Ġresist ance
ĠE th
enn es
P s
ĠBO OST
erm i
Ġd iverse
includ es
Ġauthor ities
IN VALID
ĠF ox
M o
Ġhum ans
Ġag ric
pol y
Ġin herit
ate st
g ems
ĠS to
h alf
ĠV en
p d
ĠT oday
195 7
dec ode
We ek
RES ULT
romag netic
Ġreject ed
ĠMin nesota
bold math
Ġiter ations
Ġent r
Ġpass es
Trans ition
Ġtalk ing
l b
ĉĉ čĊ
unn y
}{ {\
Ġprom ote
ir ms
el ian
init ely
process ing
I SE
Ġexperi enced
` )
ag g
con sin
I FI
ĠCon st
Label s
P ush
Ch art
P resent
up dated
Re ason
t v
Ġhers elf
ĠC ost
Ġg oto
ĠT OP
c x
Ġrot ate
13 5
ĠPub lish
up arrow
label s
ĠIn valid
W H
ct rl
Ġfile d
O k
m ad
UR N
ut ely
id el
ĠSta ff
stack rel
ain s
V ol
Ġsupp osed
Ġw inter
set Text
Ġsk in
Ġa f
ast ers
B ro
Ġwindow s
mer ce
Ġy ellow
P N
Pr ice
Y es
$ ^
SP ACE
Ext ensions
Ġest ate
Ġirre ducible
ĠD NA
zon a
u able
Ġf its
Ġs lice
ach er
Ġpe ace
BO OL
ar ial
Ù ĩ
Ġpro posal
ĠL ev
ĠC NN
get Class
ĠL ang
em pl
Ġisol ated
local host
String Builder
Ġcomp licated
Ġ' @
Ġen ables
ĠP O
Ġg ar
ĠOper ation
ess el
Ġcopy right
ĠVictor ia
con current
bel ow
Set up
ĠOther wise
ĠB oy
j k
Ġs we
Ġsp arse
ow a
app le
pub lish
ĠA k
g re
l ive
Ġreport ing
Ġst abil
ĠSt ory
Ġen semble
sp aces
Ġ$ ('#
pear ance
Ġh orizon
Ġsus pect
cal cul
st ances
ĠP a
ĠSer ial
ĠAd am
Ġg ate
Ġ\ {\
Ġv ice
ub s
u on
ĠAdd itionally
Ġa ux
Ġk id
Ġtr im
Ġtop ics
L IN
Ġr ural
Ġf aces
Ġn an
rib uted
ĠMod al
C ulture
b one
(" .
rop ical
è ®
Ġdeliver ed
Ġpost erior
Ġredu cing
Diag nostics
Or igin
Ġprogram me
text sf
ĠSt eve
File Name
ĠCoun try
Ġult imately
ĠM S
ĠTr ansport
Ġ======= =
w orth
\ },
Part y
Sh arp
Support ed
ĠChild ren
ĠR os
b est
Work er
h base
osp it
Ġprodu cing
ĠEqu ation
W ill
ĠĠĠĠĠĠĠĠĠĠĠĠĠĠĠĠ ĠĠĠĠĊ
He alth
19 42
> ${
Ġcompar able
Ġsub space
c ourse
Ġdiscuss ions
ox y
small skip
Ġsever e
ĠD A
ĠIn f
ĠSt adium
P riority
Ġconven ient
B ER
1 18
Ġw arn
Ġconcern ed
sub Nav
B AG
Ġloss es
' },
mat ches
Ġhelp ing
": "
ident ity
Ġcamp us
ĠKore an
Set s
ul p
Ġcontinu um
View Controller
ĠEli zabeth
Ġ& $
Ġout comes
Ġne ur
Ġprocess ed
Ġco ins
O ct
] ->
S napshot
ĠBy te
T uple
Ġa id
Ġf avour
Ġd ates
ĠW hether
Ġf iber
ma zing
b oth
Ġdec ide
Ġl y
h pp
o pping
Ġm ountain
i pl
su it
ĠIs lands
Ġhistor ic
ĠRun time
\ }.
C ent
ĠN um
Ġp ending
OT TOM
iem ann
ĠL em
Ġcont rovers
be ans
RE SS
ĠEd itor
Ġc ro
ask a
ir k
P ixel
ĠE lect
Ġiter ator
pos s
Ġaug ment
Ġr is
ether lands
Trans lation
pro blem
ound ed
19 39
ĠDav is
Ġk w
ex cept
ĠMan ager
Ġremov es
lo om
Sec ret
Ġarr ang
ĠM att
Ġrec ru
="../ _
Ġsol ved
Ġpost s
19 55
u z
vel ope
or er
Ġw ins
Ġv ulner
ĠP ur
Ġvis ited
at en
ĠMe an
Ġrapid ly
ĠN ations
C annot
Ġis instance
new line
hed ral
ĠSan ta
enn a
K n
M c
Or iginal
Ġrat ios
Ġrepl acing
Ġtem porary
Ġdecl are
list ener
Ġb att
10 7
ĠS om
pro pto
pro c
el le
ch anges
big cup
ak h
cer ning
* \
Com b
') ->
Ġt ack
Ġch apter
Ġp in
Ġsimp licity
Ġassist ant
Ġn s
olv es
ĠR aj
/ )
Ġvir us
Ġint elligence
Pro position
000 1
Ñ ĸ
Ġst orm
ant asy
ip edia
Ġsit uations
ĠGener ated
Ch anges
ĠS on
Ã¡ n
cl osure
EN ABLE
comp act
Ġpro position
Th rough
Ġb an
ress ive
inter pret
ly n
Ġc ab
Ġfe as
Ġtro ub
}{* }{
M achine
S an
Ġoper ate
ĠH ou
ym ph
Ġst rip
Ġgener ates
on av
}$ \
Fe atures
Ġhot el
P ane
Ġv otes
est im
14 4
EE E
Ġsil ver
sol id
Ġred irect
ĠH ung
qu estion
Ġexp ensive
pop up
D ict
Ġf i
ĠS W
ant e
ch arge
F ac
^^ ^^
y ard
Ġincor rect
Ġcan vas
ĠJ ordan
19 2
re ason
off s
clud ing
Ġindu ction
P ress
Ġour s
Ġexhib it
11 5
================================ ================================
AP P
Ġbase ball
L at
Ġcl s
- ">
S outh
p ref
A MP
itor ies
Ġindependent ly
Ġguarant ee
ĠScott ish
d ocker
il ine
'] .
195 2
Ġhost ed
D ITION
T X
Ġprint f
Ġd s
] </
Ġ" ${
Ġwe alth
ott en
Ġ å
val ued
Dist ance
Ġd ot
os ph
ĠA uth
sub equations
ĠC am
shall er
Ġl osing
Dis k
Run ning
Ġamount s
Ġsur ve
cc c
lement ed
Ġan notation
ĠPl aces
Ġtro ops
Ġtransform ations
Ã ¥
N eg
tim er
_{ +
Ġlog in
se ason
Ġpoint ed
Ġtrans verse
ili ary
____ ____
Ġaff ili
Ġd ry
od a
script s
Form atter
Ġimp ossible
g ar
if ference
N ON
et ary
Ġdisp ersion
ĠF ALSE
T l
fr ames
Des ign
ĠSing apore
ze ch
Ġcomp ens
med ium
i Äĩ
Ġre new
Ġfight ing
CRE ATE
ĠÂ »
c ity
="@ +
Ġinstit ution
c urrency
ĠMc C
Ġs ender
fr agment
> {
ĠA C
10 8
LO AD
\ }_{
Java Script
C irc
ĠM D
bour ne
M utable
end point
Ġ ~\
condition s
SP AC
ĠArg ument
T ry
aw t
Ġdr ivers
ĠSe lect
A ug
Ġmin ister
Ġcre ative
P ut
Ġdiagram s
19 43
as is
(' ./
ĠTor onto
p k
Ġalign ment
int s
v ia
Ġsold iers
Ġl ose
L D
H ar
p ond
ch at
Ġh ockey
Ġca ught
ou ri
ĠM arg
ĠK a
TER N
Ġconcept s
} "/>
10 3
Ġacc ret
Ġsm allest
Pe er
ĠC ulture
) }$.
Ġgu est
A U
ĠS R
Ġenc ode
ial s
t ile
ĠW atch
}^{ +
ĠNS String
ho le
ĠAs sum
red irect
pl ings
O FF
H is
Ñ Ĩ
ick y
ĠG C
od ge
ĠD am
Ġspe aking
nol imits
Ġin hib
ĠYou Tube
Ġemerg ency
Ġwrit es
ĠBel g
ĠB all
r atio
Ġestim ator
ĠH o
us cript
Ġmonitor ing
ucl ide
æ Ī
ĠL oc
if olds
Ġpul se
o pher
D ry
bound ed
Ġb id
Ġdistingu ish
19 46
ith metic
eng ers
n it
Ġrestrict ions
Ġdec ade
BP ACK
man ifest
th ree
amp led
Match er
&= &\
Ġown ers
Ġle ct
ĠDate Time
pay load
gener ic
T ax
im ination
Ġbr ings
con cat
ĠFore st
% "><
ind ependent
}) ^{
ang les
ĠPri ze
9 00
DY BAG
Struct ure
aw esome
Brit ish
s ources
d am
ĠL agrangian
Ġweek end
}{ }
nob r
ĠS ong
Ġl abeled
Ġpro test
all enge
k k
ĠA venue
not ification
po i
m ount
Ġd ip
H ave
Ġfootball er
G M
Ġocc asion
Rev iew
ession al
Ġreg istration
Ġorder ing
Ġyoung er
ĠRem arks
V O
Ġlocal ized
Ġw alls
ĠArg ent
it Hub
c ov
Ġm ob
Ġ' -
Ġcon crete
ref resh
Menu Item
TableRow Color
Ġy ards
Ġw ww
Ġscen es
text normal
ab stract
ĠCor ps
B F
qu al
Ġassess ment
æķ °
c odec
Ġf ly
ĠH ay
Ġwor se
I ME
11 4
Ġhost s
pl aint
B T
Ġhom es
B reak
ĠW inter
Ġperform s
U K
Ġconnect ing
ship s
cite alt
195 4
19 41
Ġh its
in ite
fl ux
ĠEnt ity
Ġnewsp aper
ĠSt ock
hy per
Ġempir ical
Ġdepend ency
Ġtr uly
d m
F etch
ĠT er
Mod ifier
Post ed
Ġsubs cription
Ġcont emporary
Ġc p
19 47
ĠD a
und les
40 4
Ġcomm ut
ĠT ABLE
ĠAir port
Ġfac ulty
Ġfeel ing
' +
d td
ĠI T
H er
( --
Ġpro be
Ġin ternet
Ġre ly
Ġneut ron
f ilters
end o
ĠParamet ers
ĠO ntario
Ġc od
pher ic
Ġrespons ibility
Ġt error
H H
Ġex posed
w hat
Ġdo ctor
" ?>
ĠI raq
ĠWIT HOUT
ĠG re
Ġdis ap
Ġview ed
Ġm ess
A ustral
contin ue
Ġexper ts
Ġneigh bour
Ġvir t
Ġpl ots
Ġ( @
Ġadv ice
Ġg reatest
ĠOn line
Ġadapt ed
00 5
ord on
Ġ< ?
Al pha
DE D
U nd
b ian
Ġ' ,
te ction
g iven
Ġinterest s
ĠE RR
ĠÃ ł
Dec imal
ous el
2 20
ant ics
}} ,\
. ',
p et
Ġon going
Ġas set
late st
Ġc yl
E s
M ut
Ġopp on
Ġsubstant ial
p al
Ġb ars
Ġsol o
Ġd iversity
he x
ĠA P
Al gorithm
op acity
Ġqual ified
Ġmorph ism
New s
ab a
ĠD ark
Ġor ig
h our
ĠIllegal ArgumentException
ĠColor ado
ile y
â Ķ
and y
ĠSe ason
B us
Further more
uclide an
F i
ass um
ĠSe ver
onav irus
Ġw ing
ADD ING
ĠSk y
CO M
des cribe
ĠH al
ĠL es
Ch rist
> `
Ï ĥ
ĠC F
Ġimp ly
value Of
Ġeast ern
ĠStep hen
is ons
Ġar ts
def n
ĠT al
Ġadd r
ĠWh ere
Ġim pl
he ets
db c
ĠAnt on
Ġreson ance
EV ENT
ĠG reg
Ġsepar ately
ort ex
e ast
P al
Ġvol unte
Ġgain ed
t one
Ġlist en
; %
ĠC red
Ġcont est
ang el
__ ,
Ġro utes
S core
Rel ated
ma j
Ġreal ized
== =
C ost
ĠO regon
ĠE ric
ĠÐ ´
t rain
w i
g raphics
y cl
u ity
As sembly
Ġne arest
Ġcirc ular
Ġcrow d
Ġw rap
Ġa u
lic a
Ġs lope
ĠCont in
Ġjud ge
ist a
Ġst im
dat ab
qu ality
ort ed
Ġstand ing
ĠOlymp ic
ĠWis consin
exec ution
Ġfact s
o a
Ġposs ess
Ġir on
Ġfamil iar
Ġc ertificate
Ġm ath
ĠSy dney
F actor
ĠH ilbert
Ġdiscr imin
SOUR CE
ĠAct ive
ext ensions
ĠĠĠĠĠĠĠĠĠĠĠĠĠĠĠĠĠĠĠĠĠĠĠĠĠĠĠĠĠĠĠĠ ĠĠĠĠĠĠ
Re act
Ġstudy ing
pr ice
C odec
X Y
Ġsc oring
Ġre venue
p ad
Ġsynt hetic
Ġpropag ation
Ġt um
ativ istic
ok ing
Ġc ash
ĠF ord
ar on
Ġdis cret
b etween
A SS
def er
Ġhe ter
19 49
Ġjust ice
Ġs ed
ĠBuild ing
K S
195 3
Up dated
ĠÐ ¸
Ġre nt
Ġam b
ĠPol ish
ak s
n l
Ġatmos phere
Ġm igr
or ange
re ll
ĠDe ep
Ġworld wide
Ġang les
ag ues
Vis ual
Ġsum m
s amples
ub b
aw are
ĠS mall
ĠIn ternal
LA B
Ġf at
Ġcap abilities
B ACK
Ġnot able
Ġref lection
Ġh ook
P ADDING
Å ¾
ĠW ars
ĠB ORDER
Ġab and
ug ar
Big g
Ġalleg ed
Ġ\ }
ac o
T og
Ġaccom pl
Ġlist ening
Ġanaly zed
( `
ang a
00 2
Ġover lap
F ixture
Ġprob abilities
run ner
G ood
Ġclass ified
Can vas
U ES
Tem p
ĠR ender
iv idual
Q ual
Ġprom oted
dis k
ab ove
T ri
Ï ģ
\| ^
Ġmov ies
ad apt
Ġopp osed
ĠR ome
Ġdevelop ers
Block s
C UR
Ġp un
ĠSystem s
Ġconsum ption
s ent
fa iled
Ġg it
Ġnot ification
ĠPhil adelphia
Text View
ĠP layer
ir y
Ġsub section
PREF IX
ĠExec utive
oid s
Ġfound er
Z oom
ST ART
ĠI F
bl ing
sc an
Ġcluster ing
t uple
depend encies
ĠB ru
en vironment
10 6
second ary
g p
Ġreli able
cl ock
SU CCESS
ch unk
ĠK IND
Ġoffic ially
Ġretriev e
b ow
az ure
trans late
Ñ ħ
res olution
Ġtri angle
Ġaim s
ri ers
sche mas
t bl
Ġcheck ing
b re
ĠT ai
k ov
Ġadministr ative
go og
ĠC C
ĠF A
it ting
Ġt ile
ĠE ll
G ateway
ec lipse
est ab
Gr ad
Hash Map
ing ham
ow nt
Ġover view
ĠR ad
ĠT ry
Ġca using
Ġsud den
ĠLear ning
h ill
qu arters
v dots
L ines
ens ors
ĠT arget
Ġs ac
Ġsc ul
Ġwin ners
set ting
Ġconsider ation
Ġproced ures
Ġc ards
at om
Ġb attery
ĠOff icer
member NameLink
ort heast
G reen
Ġse ar
Ġdecre asing
ĠM ir
ip art
RE T
uck s
Ġb ucket
S ongs
L iteral
Ġconver ges
Ġappe aring
Mon itor
ro ck
sc ene
a us
IT LE
ĠV ar
uff ix
ut down
Ġconsist ency
Ġcyc les
Ġincreasing ly
Ġdem ocr
L ite
ĠF all
l arg
Ġread ers
var s
ĠG allery
Ġw rapper
Ġfun ctor
) _{\
195 1
Ġqu as
igh th
}) =\
Ġp or
S ide
Ġpers ons
project s
Ġdeterm ines
Ġdom estic
in ator
24 0
run ning
ĠU t
cor rect
Ġst one
Ð¸ ÑĤ
ĠH D
Ġappear ances
) *
ĠS ite
ĠM IT
AS H
ĠN FL
Ġn ested
load ed
ĠM atch
ĠPh ot
ĠD oug
... )
Ġor bits
ig ator
Ġeigen value
Ġ æ
Ġexerc ise
Cont ract
gu ide
ĠHand le
ĠT ab
100 00
ĠBr ad
Ġin vert
row Color
gr pc
Ġs ympt
Ġpurch ased
ĠM E
C ross
task s
add ed
Ġlo an
Ġenh anced
ĠL ady
Ġlands cape
c ers
M ix
Ġ" );
Ġpil ot
Ġrank ed
Ġ _{\
Ġpro ton
Bit map
Ġre tail
Ġturb ul
f w
3 50
ĠK al
ct ors
[ <
z i
Ġr ating
br anch
å Ń
hold ers
c ached
ĠH art
w eg
tain ers
Ġlog arith
Person al
) }$,
ĠFe b
ĠPo isson
end a
Cal endar
] ).
om er
Ġstation ary
Com ponents
Ġre aching
Ġcy cl
ĠM iller
ĠN etherlands
ap l
ĠĠĠĠĠĠĠĠĠĠĠĠĠĠĠĠĠĠĠĠĠĠĠĠĠĠĠĠĠĠĠĠ ĠĠĠĠĠĠĠĠĠĠĠĠĠĠĠĠĠĠĠ
Ġs ight
serv let
Ġleg isl
fav icon
Ġcho osing
Comm it
process or
St age
L com
11 7
Ġmarg inal
Ġc ru
AR GET
Enumer able
T ip
Ġenc oder
erm in
AR G
Ġch ose
ĠFore ign
ĠS ab
ĠGold en
Ġr aces
prec ision
c ookie
B ecause
With out
path s
Ġs now
Ġequ ipped
de legate
ou stic
Ġcross ing
Has Been
st eps
not in
Int ent
}^ +
ern ate
Supp ress
xy gen
ĠB asic
ĠD or
S eq
own ed
v i
ĠB iden
Ġsort ed
N I
**************************************************************** ********
Ġd y
ĠLic ensed
s creens
ĠO ptions
Ġarrest ed
res pect
Ġcook ies
tra ining
C ountry
Ġcosm ological
× Ļ
ĠO P
Access or
Ġmys elf
12 2
id o
ĠHar ry
n an
ĠQue ens
ĠDef ine
prep are
ĠTe ch
{ .
tr ight
Ġremov ing
ĠM ust
SPAC ING
Sh are
pi pe
Tr igger
Ġdefault s
T ex
Ġsignific ance
em ploy
Ġch ampion
Rep ly
" |
Rece ived
cs v
ĠAm ong
ĠL I
ĠVari able
ĠDat abase
$ }}
10 9
ĠRail way
D im
ress ions
d ating
ĠCom par
C SS
Ġ" _
ĠO cean
Ġl l
u its
iam ond
I p
Tool s
Ġmod ification
m atic
S ig
ĠW HERE
Rec all
Test ing
nos cript
C ookie
Ġal location
ol i
Ġf ault
AT URE
RO OT
ĠMod ule
ract or
L ife
ĠEq s
b ib
B uf
50 9
N P
Ġo x
Ġshoot ing
ĠL ind
ĠFr ont
Ġaut hent
ĠD est
Met ric
l on
ĠExp ression
Ġwh atever
Ali as
dist ribution
ĠC orn
Ġcomp ression
ĠPrem ier
Ġcomb ine
ĠF ellow
WE BPACK
e en
Ġcol lections
Sc ene
Ġexpl os
ĠT ake
ĠMont e
L ear
ĠAnd erson
ĠM oh
ĠÐ º
ri z
E p
Ġsyn tax
ĠB ased
z oom
Ġver b
sl ider
sub stack
`` ``
str uments
PRO C
Ġphot ons
] ['
In jection
ĠIm port
ĠTR UE
Ġstead y
Ġincre ment
Ġre in
ĠIn v
Ġgeneral ization
Ġbring ing
^+ $
Ġsem antic
or se
Ġgener ators
omorph isms
Ġv o
Ġkin etic
in herited
Ġimprov ements
Ġin herited
Ġsplit ting
iv als
b ucket
Ġv eg
Ġ[- ]
Ġrestaur ant
ĠD ictionary
j u
with out
Ġcent ers
Ġfall s
per ial
ub ern
| _
Ġord inary
Ġhe x
N ONE
Ġ} ).
ĠHash Map
t ot
pack ages
Ġcovari ance
Ġto ler
script scriptstyle
r x
Ġ* ,
Ġinter sect
r and
Al t
Ġseem ed
ag u
ĠT a
Ġs i
ĠS in
Ġassist ance
Ġn ob
separ ator
ben ch
pro f
get Attribute
Ġdraw ing
M esh
ne ut
ic ates
Ġaccom mod
+ "
A K
ĠN eed
seg ment
br idge
ab i
Ġmerg ed
Ġhel per
Capt ure
_{ -\
ĉĉĉĉĉĉĉĉ ĉĉĉ
ĠMult i
ast y
le e
Ġpen alty
ĠB AS
en berg
Spec ial
ĠRev olution
ĠK at
ĠB at
sub string
Ġexplain s
Ġcoll isions
Ġh a
Ġinterpret ed
ĠM ountain
i ac
Ð¾ ÑĢ
Ġh oles
P adding
Ġis omorphic
un ed
tim eline
ĠC L
Ä ĥ
ĠP UBLIC
HasBeen Set
O G
Ġt f
ĠS ize
int o
le f
Ġabund ance
Q t
ĠA st
ĠP ackage
R adius
Ġne uro
part ition
Ġes cap
Ġinstall ation
Ġhe aring
FLA GS
\ ":
ĠM obile
Rel ative
19 36
: &
E LEMENT
met rics
> .</
act iv
ĠCamb ridge
Ġeven ing
Ġcr ash
Ġart ifact
ĠW el
Ġtw enty
trans l
Ġthread s
ĠTra ining
ĠAri zona
an try
ĠTr ack
Ø ³
Ġfore cast
Ġdep os
s ame
Ġsu it
st an
ĠS ound
O cc
se cret
ĠD onald
U pper
ĠR ose
pr iv
L ang
ĠD oc
et c
Ġta ught
is y
ĠCELL PADDING
Ġsup erv
ge ometry
12 4
ĠDis ney
ĠJ ob
Ġf oo
ut enant
, (
| _{\
iam i
Wh ite
ĠI C
Ġcontrib uted
ĠCELL SPACING
v y
Sa fe
Ġh all
Ġind ependence
5 000
aw ay
Ġregard less
Ġdiam eter
Ġintr insic
stream ing
p ipeline
Ġreve als
ĠA ge
Ġsound s
& $
Ġinfe ction
on line
Ġob server
to Equal
FLA G
ĠInitial ize
ĠImm utable
Ġaff ord
m ov
ĠB OTTOM
Ġs ep
back end
work s
ĠAff airs
SS AGE
ĠInd ones
ĠNew ton
re pre
ĠG h
File Path
ĠE ffect
unic ode
Look up
ĠMark ov
Ġhundred s
U psilon
Un ique
Ġterr itory
Ġmembers hip
FORM AT
IMP ORTED
Ġspher ical
Ġcub ic
Ġshe et
u eto
_ [
! =
append Child
Ġse ats
c op
Ġcontrad iction
produ ction
unic ations
N ECT
Ġal gebras
Ġnormal ization
Ġweap ons
Right arrow
H ol
m acro
ĠPH P
du al
ivers ary
ĠS Y
I ll
Ġb ought
WA RE
Ġpres erve
d z
ĠK ansas
Ġse es
N eed
ĠR oss
L ow
em et
attr s
Ġv ast
m ys
ĠD ead
br ane
ĠE ss
ac ion
Constraint s
Ġins urance
W rap
ĠMod ern
ep age
^* _
at able
ne ed
ĠDe ath
Ġparticip ate
Ġm s
igen ous
ĠAdminist ration
pag ination
Pop up
\, ,
is lation
ĠUn less
r uct
Ġcon vention
Ġg iant
Ġleg acy
appro xim
Ġ ur
com ments
11 11
Ġeduc ational
Ġwatch ing
in formation
ĠSum mary
re view
M AN
pp ers
ĠF ermi
Ġcomb at
ĠA ws
cp u
19 00
Serial ization
AR RAY
â Ĥ¬
Ġf estival
19 18
Ġc rypt
Ġstream ing
Ġhor se
ĠW ord
is ode
ĠPro perties
tright arrow
m al
Ġfunction ality
Ġstri ke
Mod ified
ec ycle
con figure
Ġregard ed
L ive
Ġl ibraries
it is
ĠA h
ĠD R
od s
non atomic
Ġend if
first row
}} )$
Ġcou plings
Ġ( `
é Ģ
Ġcompre hensive
ueto oth
ĠPal est
Ġperman ent
iv a
ĠDe bug
NG TH
repre ne
ç »
arg v
ĠRet ri
Ġelement ary
sign al
Ex it
Ġdesign s
Ġaff ine
S pe
Ġcut s
ĠG uid
n ie
ĠLew is
f requency
ĠD iag
ig e
Ġneg lig
Ġbl ank
Ġm ac
Ġin comp
ĠPl ace
Ġf ired
N orth
Ġ// -->
Ġprovid ers
ell s
Ġaut hentication
Ġlog ical
amb ig
Ġpl otted
arg o
Ġcompet itive
ub er
B N
ĠIndian a
Un iform
Ġrep ly
Ġsurpr ising
REQ UEST
Ġver ification
u pt
c amera
ĠPr ivate
OB JECT
Reg ex
Ġrest ore
Mer ge
Ġra in
ok en
R GB
Ġreal istic
Ġre form
} &\
Ġconvers ation
os er
g ression
ĠCon sole
S ent
i at
Ġsp ending
ff ee
omin ator
19 38
ub a
æ Ĺ
Ġ" ;
Ġmusic ians
ump y
Ġc raft
Ġsh op
Ġacc ord
SH A
Ġf itted
ST M
ĠA ud
Separ ator
Ġab use
dr ag
Sub ject
ĠTok en
in verse
ĠR PC
is ations
eg as
I ES
Top ic
Ġte ch
ion ic
Ġh al
Ġre aches
M al
Ġens ures
x ref
ĠRes ources
Ġmark er
ĠJava Script
Ġ" #
ol itan
cri ber
Ġb omb
s mooth
ph ab
ĠB rian
li ers
Ġacceler ation
r ations
Ġscient ists
ren a
Ġpy thon
ce ived
ĠDu ke
Ġanaly tical
ĠC ab
| =
erial ize
Ġreve al
> $
Ġmunicip ality
ĠN az
ĠBr and
Ġp ump
ĠT YPE
Ġch a
Ġtri es
Ġadapt ation
Ġhydro gen
ĠStruct ure
Ġmathemat ical
Ġs napshot
rid es
u h
å ľ
Sec onds
Ġtransform ed
che stra
Dav id
} ~\
ĠChe m
D one
. (
ĠF ight
Ġhand led
ĠO t
ĠF ilter
Ġaccret ion
Data Source
des criptor
book s
d ashed
at ile
ĠG ib
v et
App ly
Ġcompet ed
} <
T or
C lean
ĠS ymbol
do i
C ould
Ġgrad uated
v ard
ĠB ridge
IE W
allow ed
p ending
d ers
Ġcool ing
19 37
w x
ind ices
Ġ. =
equ ival
Ġsegment ation
E ven
ust ed
Te am
Ġheav ily
ist ically
ĠEnter tainment
Ġsuff ered
initial ize
ag an
n ed
Lower Case
Ġ" )
ich ol
G RO
' =>
Ġrece ives
Ġv eter
cor respond
ĠM aterial
Ġmechan ical
Ġchain s
Ġexam ine
Ġs ym
Ġcirc les
C art
Ġmaintain ed
on i
Ġprov en
' $.
Ġb igger
ĠMag azine
! âĢĿ
Ġvacc ine
ent ries
; ;
ri ends
Ġfew er
ĠC lin
Ġst roke
ennes see
ĠR ic
O C
è ¡
oc a
] ),
Ch unk
Ġjo ining
the ory
M ail
u is
In s
Ġbr anches
leg end
Ġparticip ated
ron ze
Mod al
Open Tl
=- =-
Ġsub sets
respons ive
Ġdocument ary
G raphics
ĠSen ior
Ġc riterion
Ġconfigure d
Ġhelp ful
hel lo
Ġassoci ate
ec onds
Ġ" [
Ġr id
Ġpeak s
Ġd il
overs et
Sur face
Ġcon e
ĠSwed en
Ġim aging
Ġkind s
dir name
Ġanalys es
ĠAs sume
P ipeline
L T
Ġtraject ories
pre dict
Ġpr imitive
: %
() [
ĠA bb
Ġpl ain
Ġput ting
ĠAtl antic
lik ely
Ġinitial ized
ĠSc ient
Ġcompos er
S y
Ġar ise
Ġre start
Ġf o
Ġtrad ing
}} =\
m g
Ġher o
ma king
ul um
Ġl it
R atio
Ġsett lement
M ich
Ġautom atic
B H
as hes
ĠR iemann
ĠReg iment
w alk
Ġsub mitted
Sc an
FFFF FF
Ġsatell ite
ut ter
trans fer
u y
ĠM ill
ef e
\, {\
Ġman uscript
Ġdat etime
Ġdeploy ment
am ar
ĠP it
Ġnorm ally
le ading
Ġref resh
us age
Ġgood s
f un
ĠH an
Z Z
c ategories
Ġincre d
Ġdefe at
n ail
osc ow
Ġcomp ilation
ĠPro du
ĠR yan
ĠL iter
ĠĠĠĠĠĠĠĠĠĠĠĠĠĠĠĠĠĠĠĠĠĠĠĠĠĠĠĠĠĠĠĠ ĠĠĠĠĠĠĠĠ
indu ced
Ã ł
ab ul
Ġt ip
Ġtri als
math ds
ustr y
Ġcon cerning
ĠD raw
ang ers
B ul
tool bar
ĠS av
oc using
ME M
B g
c py
ĠHou ston
ma ker
ĠMar ia
Ġg a
Ġmach ines
S to
Ġdifficult y
inter action
if ting
At trib
]( #
Ġr hs
lim ate
re le
Ġ/ ><
Ġther apy
s ocial
Conf irm
Ġw aste
ĠA thlet
Ġk illing
G T
Ġa cknowled
H ello
Ġco herent
b urn
DE P
ĠD CHECK
Ġprot otype
0000 0000
ĠAg ency
Dest roy
Ġpro spect
ex pl
ust ries
m ont
Ġl ob
Ġaver aged
Ġproject ed
F ire
ĠL eft
Ġm igration
es cape
en o
ĠEx pl
ĠLe on
Ġint ention
ĠM ilitary
Ġloc ale
look up
Pay ment
? </
Ġcor related
ĠSw itch
F ill
"> &#
Own Property
Ġconst rained
}) _{
ãĥ ¼
Ġattr s
ĠN orm
Ġfl ash
Ġman agers
ard ing
Ġturn ing
11 3
}) (
Ġro y
g uid
Ġr acing
per or
="# "
in ated
it ro
am an
v v
Ġoppos ition
t ick
se ed
Check ed
f our
Ġharm onic
grav ity
Read y
ĠC PU
Ġclass ifier
Ġman ual
nos is
Ġdis order
Ġown ership
U UID
S uch
Ġg overnor
Ġgu y
cript ors
Per cent
styles heets
r at
ĠP rom
V C
ĠE dition
it ches
Function s
Ġattempt ed
Ġslow ly
A cknowledg
Ð¾Ð ´
Ġcryst al
ĠL abel
Part icipant
Ġb are
Ġgr ade
lic es
alax y
Ġm apped
oid al
Ġfor get
Ġwould n
ĠH ost
Ġcomb ining
D ao
s qu
Ġsee king
A W
Ġb ary
Ġex ponent
St yles
Ġcollect ive
Ġimprov ing
f ish
Ġh un
Data Type
Ġobtain ing
ĠDir ac
Ġm ine
pos itive
ĠP S
S rc
m x
ĉĉ Ġ
ĠCapt ain
Ġteach ers
Str ip
Ġre named
ĠString Builder
19 19
Ġan isot
G F
AC CE
ĠTur key
Ġout line
Ġcorrespond ence
ĠMem orial
ĠHe art
Ass ign
ĠSwed ish
f lix
ĠG rid
Ġ$ [\
Ġarray s
it ched
ĠT og
ĠR ound
OR S
app y
Ġpass ion
hom ology
un ior
Ġask ing
Ġlif etime
est ure
Ġcompos ite
Array s
dem o
Ġdeb ate
Ġre act
Ġmin ing
AR CH
'] ))
' }\
Ġa mazing
ĠV i
w ich
Ap J
Ġanim ated
Ġqu iet
n ik
ĠSim on
enn y
ref lect
m ust
Ġunit ary
Vis ibility
Ġarg ued
Ġcomb inations
E r
T i
EX PORT
ĠC ache
pi res
ID ENT
ĠD aily
. ")
Ġbreak s
Stat istics
En tries
Valid ate
Me an
Ġin coming
reg ex
in ch
Ġz oom
Ġhealth y
RE NT
Dest ination
{ },
ol utions
Ġconserv ative
Path s
Ġsurg ery
Ind icator
T imes
G uid
Ġch iral
M ajor
Ġcent ered
Error Code
\| _{\
ĠB or
Ġnon zero
f red
:: $
ĠUs ed
Ġwe ar
et ition
Ġvari ants
= -\
ĠCre ated
ĠR ange
Ġex clusive
Rep lace
for ge
As sume
Ġg ray
ĠM atrix
* >(
Track er
eff icient
Vis itor
ĠM un
Ġprincip les
D a
f loor
Ġb ot
A ir
Ġf aced
Ġs essions
ir i
inem a
W ORK
Ġmolec ules
care t
Ġfor th
emet ery
Ġprov ision
Ġge odes
W illi
ĠR andom
Sl ot
Ġcon formal
ÐµÐ½ Ð¸
M ov
O h
no ise
Ġh aven
un ks
19 17
Ġt unnel
Ġbur st
az e
S i
vel oc
] <
ĠStud y
w ind
c as
ig ible
cons istent
ĠMal ays
ĠJew s
Ġp ip
Ġt on
ain ed
Ï Ģ
Ġampl itudes
ren ce
Ġc url
Ġ} ),
C LA
ĠPl ant
w ick
MP L
Ġver ified
XX XX
et ric
l st
ok er
W omen
b n
ĠM and
Stack Trace
SER VER
Ġre lying
Ġb ath
lect ic
p us
Dist ribution
Ġform ally
k ish
ĠT reat
remove Class
subs cribe
19 35
ĠPh oto
Ġ" +
Ġag encies
sub float
ĠCon struct
Ġg ro
Trans fer
Ġansw ers
ĠH erm
; ]
ut ies
fil led
Ġoccup ied
the ad
Ġdesign ated
ter ior
ĠJ am
ĠSh er
ul us
Thread ing
Ġval uable
ĠP ier
ĠA GN
iz ard
l am
ĠCap ital
Â ©
Ġput s
Ad v
Ġrema inder
Ġsuper conduct
draw able
Ġadm its
ol ute
Ġmunicip al
Ġinter ference
L M
Pro du
block s
" ])
Ġs ink
ict ed
Ġexpl oration
Ġro uter
et he
ann y
Ġdi pl
Ġclos ing
ĠI gn
Ġcon sequences
Ġ[ {
Ġs ampled
ke leton
; =
rain ian
W ell
Ġb at
ĠĠĠĠ čĊ
r ac
Ġm aintenance
Dec oder
Oper ations
Ġs ought
ĠOb ama
ĠL iber
12 1
Ġappro val
s id
ĠTh ird
ant ed
R ich
Ġfound ation
Ġtim er
F RAME
ĠL P
Ġcour ses
Ġc ookie
ĠH E
ab ling
P aint
ĠS quare
comp iled
I l
Ġsw im
k ar
Ġmon ot
ibli ography
) |\
Ġ$ <
' )$
t ically
mod ifier
IN IT
M obile
p aces
Ġarg ue
Comp letion
Ġproject ive
Ġs event
Ġlat ent
ĠO K
Scal ar
Ġk inem
Ġarr ival
Ġb rown
Ġtrend s
Ġvisit ors
ab b
Ġlook up
set Attribute
Ġconsum ers
iz z
Ġ"- //
S mall
ĠM B
( |
f m
Ġmark s
ĠS cal
Ġr m
w ho
ĠF a
Ġvol tage
D ot
ĠGr ad
Ġperturb ations
sup ervised
bal ena
Ġk il
Ġm ile
ur is
ĠM oon
M a
h p
Ġdef initely
Ġinv olve
elastic search
\ -
An chor
Ġabsol utely
res olved
Ġh ierarchy
mathbb m
ĠT err
li a
Ġup grade
Ġarr ive
pre view
/** */
4 50
Ġw heel
mod ified
id ity
ĠReg ional
deg ree
ĠEcon omic
ĠG ree
Ġtrad ition
P ending
p ixel
as a
Ġpaint ing
Ġout per
= (\
==== =
ic ide
/ #
Subs cription
19 33
Ġre n
Ġdrug s
ĠA lice
ĠT i
B ucket
Ġreg ul
Ġexception s
C he
ĠH op
ĠG P
pack et
Class Name
// ----------------------------------------------------------------
em ony
Ġstream s
Ġtot ally
F H
ĠB urn
Ġp index
Ġl oved
sh iv
att ach
Ġobserv able
ĠAt tribute
Ġen emy
ĠPl atform
Ġrev olution
ĠC HE
bal ance
un ion
S ound
. }\
ĠS ho
-------------------------------- ----------------
S lice
Ġd war
Mark er
V ote
CO UNT
_{ [
ĠK han
id ad
ĠCar lo
Ġexhib ition
Ġillustr ate
mut ex
Ġf usion
PAR AM
ĠD ream
ĠCON DITION
il st
over ride
ĠInt eg
Å Ł
ĠMem ory
ĠL ar
or b
Ġl in
Ġjournal ist
Ġex tr
Im ages
andid ate
Ġmat ters
Ġlinear ly
ĠCh rome
J s
ĠC ru
ĠL E
pl acement
Ġneigh bors
Ã¼ r
iv o
ĠS ession
text ure
Ġpul s
Ġengine er
Ġb ott
c yc
Ġmiss ed
LE V
omet er
Ġtown s
Ġtit led
f uture
back s
Ġvan ishes
LE S
per cent
P icker
Ġvis ibility
Ġadult s
Ġm art
Ġnot ify
Sh adow
it ics
ant i
ĠV ice
ĠE P
Ġp iano
h ist
B LOCK
Ġm ixture
ĠY es
weg ian
ĠRes pond
ãģ ®
Ġhouse holds
S ever
ater al
Ġbo ys
m icrosoft
Bl ue
Ġun expected
ĠSil ver
ps on
me as
ur d
Sche me
Ġbox es
St d
Ar r
Ġs oci
Ġmed icine
Ġdepict ed
gress ive
pro fit
g h
bol ic
Ġvol umes
Ġbank s
Ġmanufact uring
or ous
ĠM it
ÃŃ a
Ġrec overed
vis it
ex act
Ġop ens
ure au
Ġcred entials
ĠHot el
Ġmin i
r ans
fg han
Ġun us
ear ing
tr on
B oth
Ġm outh
Ð ¹
Al ignment
Ġflo ating
Ñ İ
dr iven
C amp
Ġp ra
lf loor
\\ \
ĠSt orage
Ġcor porate
Ġd yn
Ġf acing
Ġwith draw
Ġfe els
Ġ( #
ĠS us
M IT
Ġdis joint
ĠJ ane
ch itz
Ġprov es
AA AA
rest ling
Ġdanger ous
FA IL
igh bor
Ġcarry ing
s ender
Ġto m
Ġins pect
ĠEn c
q a
Ñ Ī
Ġdoub t
Ġx si
Ġkw args
Ġweak ly
Ġj e
or bit
Ġs elling
Ref resh
Ġd otted
rf loor
ĠK y
(" -
MS G
ĠF low
Ġform ing
19 34
ĠK evin
Ġdiss ip
app oint
Ġbro ke
dim en
Ī Ĵ
R G
Ġto String
parent Node
Oper and
ĠF ederation
R M
123 45
ep er
Ġsign ing
ubern etes
st ory
sat isf
3 000
ĠCl ark
ring tone
P rom
Ġaddress ed
h us
ĠJ oh
Ġk it
ig o
ext ype
maj or
Ġ$\ |
te ch
ib ling
m icro
Ġrelax ation
y ers
Ġun stable
app ings
Ġro of
Ġste el
Ġv ec
Dat aset
L ead
17 0
Pub lish
ĠN atural
short cut
oun ced
Al ign
ancell ationToken
Ġquot ient
Ġ( <
? (
Ġinitial ization
Ġ/ ></
, ~
Ġentang lement
Ġto wer
For ward
)= (
Ġinvest ors
C N
Ġintrodu cing
h w
Ġspac etime
font s
ĠT ony
om ot
Ġfl u
Ġanalog ous
ul se
col n
k an
LE NGTH
ĠMiss ouri
> )</
i ot
Ġm irror
In line
lan ta
ro it
Exp and
ĠT en
Ġtransl ated
size of
Ġclose st
ched uling
ĠS SL
Ġch rom
Ġpo et
Ġar ithmetic
Ġcal endar
opt imal
ur ches
row se
App Compat
ĠBAS IS
Ġinnov ation
Ġacqu isition
over flow
Ġre ar
G erman
Ġindu ces
Pay load
ĠI OD
Ġleg islation
ard ed
Ġfr uit
; -
ĠP red
ĠT ool
rep resent
Ġnov els
Ġphenomen on
Ġsh apes
uff icient
rot ate
ash i
Ġ\, ,
west ern
om as
Ġdeal ing
p ic
---- ---
Ġt icket
Load ed
J apan
T ick
IN DEX
ĠCast le
Ġequ ally
Ġrequ iring
to LowerCase
Named Cell
r ating
Ġtal ent
Ġg rows
ĠĠĠĠĠĠĠĠĠĠĠĠĠĠĠĠĠĠĠĠĠĠĠĠĠĠĠĠĠĠĠĠ ĠĠĠĠĠĠĠĠĠ
ch arg
Me asure
Ġ Ã©
EN CE
ĠCONDITION S
Ġh ospit
olog ists
. },
m outh
å Ľ
pro j
AUT H
99 9
ĠDev ice
ĠC zech
ĠDi ego
3 20
}} }$
ĠB reak
ĠVer ify
_{ {
Ġ' ')
Ġdispl ays
R adio
M en
ÑĢ Ð°Ð
ĠDev elop
19 14
ĠDo es
Key word
Ġsurv ival
W arnings
ĠPe ak
itzer land
Ġrelig ion
Ġoper ational
Ġdeterm ining
Ġmag ic
Ġcal ibration
Ġremov al
Ġtherm od
hash Code
Ġb aby
Ġsu ite
Ġhead s
Back end
ĠØ§ ÙĦ
he alth
ĠL evel
Ġlength s
Ġent ering
Ġaccomp an
2 30
ter ms
$& $
' ',
Ġt s
)} _{\
Ġdec ays
Ġd ies
Ġtri ple
Big r
ĠTr ade
Des cribe
i est
ĠM achine
Ġveloc ities
ĠWh it
ĠMem bers
---- -
ĠP ot
Ġr c
Ġembedd ings
ĠA z
nt z
ĠE ver
ĠPhilipp ines
B usiness
ad apter
ut t
( []
Ġro oms
H AND
ĠT ennessee
ĠH ad
v g
ĠHol lywood
F B
per mission
Ġins ight
Ġar row
Ġserv ers
ĠSpec ifically
ĠAuthor ity
Ġpass phrase
-> {
~ (
post s
co hol
âĶ Ģ
ME SSAGE
Big l
ĠS ri
Ġv oting
ĠJun ior
a que
=" //
Ġst ub
Ġwill ing
ard o
Ġsub str
Ġge omet
second s
el led
w b
ĠCon nection
f ar
ext ract
Ġ urg
sp l
je ctions
' $,
ĠS S
ĠE mer
s With
Ġsh orter
Ġil legal
Th ree
end region
ĠP ed
sp i
ta h
Ġcomp iled
P an
Ġw ed
se a
amp ed
INS ERT
Ġp ose
help ers
Ġup coming
ast s
ĠInst agram
el ve
M arch
Lin q
Ġso il
Ġst retch
over lay
ĠRe lease
] ^{
) |^
st ation
ĠMo ore
P ref
d ump
el lect
ĠS ep
Ġs ends
Ġdedu ce
in cess
Filter Database
en ix
ordin ates
Ġcommunic ations
x r
Ġcircum stances
; ,
ĠS yn
ĠB H
se en
t ol
D imension
st mt
ak ers
ro tt
g ui
ĠG ram
19 28
add le
mult iple
Ġext raction
ĠSing le
le et
Ġy es
ĠMar c
Ġentertain ment
p referred
ĠM oscow
ĠViet nam
Ġing red
ĠV o
C MD
ĠQ CD
FT WARE
ĠPat rick
Ġdistrict s
ĠFr an
Ġoptim ized
` :
19 29
RO W
M ount
ĠS quad
ĠWith out
Ġdis miss
Ġprepar ation
Ġsympt oms
' ):
Comp are
à ¦
ment ion
ION S
Ġeffect iveness
ĠKent ucky
Ġalloc ated
af ka
ĠMary land
Ġw ine
Ġ" :
ĠL as
conf irm
ĠAr thur
oc omp
Us ed
Sim ilarly
ĠRem ark
ĠQu ant
Ġ um
g ent
Ġre normal
T ensor
ĠB ishop
F rench
ĠM iami
ĠP si
Ġthe atre
ĠL ock
}} }{
umin ate
sl f
ĠI owa
Are Equal
ab sol
Ġpre gn
ĠR oy
AB ILITY
ĠM as
Ġh istogram
Prot otype
Ġ( {
i pher
Con v
Ġport ray
ĠA gr
ĠMat the
develop er
ĠApp ro
inv oke
WR ITE
d or
rop olitan
19 32
Ġdecl aration
Ġprocess or
Ġ( ;
uth er
Ġf abric
DO CK
Ã ª
F D
Vari ables
J o
Ġre tain
inn ed
Requ ire
ĠV olume
Ġel astic
Ġhon est
Ġcomp ile
Ġenc ryption
L arge
ĠR ol
ĠMan chester
z ym
Ø ¨
Ġf er
ĠC T
oper ative
ourn als
at ics
ĠIsra eli
ĠD omin
p otential
Ġant icip
Ġadvert ising
ĠS elf
ĠA udio
Ġte en
;\ ;
CL U
Ġexpl ored
Ġrun ner
V T
Ġfem ales
ĠAll en
ĠG er
ĠJ ay
Ġdec oder
Ġsuff ices
ĠPro file
ĠS ix
Ġ[ #
Ġloop s
C ertificate
S in
Ġcon cluded
By Name
sche me
ĠP L
st ers
In ject
ill ery
In clude
vari ables
S al
ov en
th an
Ġpar agraph
ĠN ev
Ġident ifying
Ġe g
ĠAr k
les cope
First Name
ĠEar ly
re verse
Ġcol le
stat ement
Ġgrow n
Ġwalk ing
button s
const ants
+ -
ĠĠĠĠĠĠĠ Ċ
ĠF ound
Ġin fl
l av
Ġvict ims
c ord
bedd ed
$ _{\
window s
Ġcon jecture
al og
Ġb irds
Ġ\ )
ĠBit coin
Def ine
Ġrender ed
ĠF arm
Ġex cluded
Ġfl avor
ab olic
ch rome
all as
Enc oder
AME TER
ik es
Ġgreat ly
ĠInst all
Ġ} {\
27 0
Ġexpand ing
ex isting
Ġefficient ly
Ch at
Ġch arts
R outer
Ġpos it
ced ure
Cred entials
ĠSt one
Ġpublic ations
Ġinv ited
For ce
ĠA V
Ġd ress
Ġtra il
Ġstre ets
Ġ' ../
Ġpur su
Ġconven ience
Ġbo at
tr ansp
ĠAl low
g em
Ġ ../
= }
v p
is p
urn ame
Ġeng aged
Sh ift
Ġproport ion
Ref lection
en ario
ache lor
unders et
p riority
man y
Ġpublic ly
Ġcl ar
ĠG O
Ass ignment
CH AN
Ġprom otion
Ġspec ification
ĠTrans itional
ĠB att
ĠE uclidean
if rame
Ġpay ments
Vari ant
Ġfocus es
Ġr ide
Tw ig
Ġdeform ation
ĠE C
r as
ĠB ry
ĠS ET
ĠV in
az el
g c
Ġpar ad
pm b
li est
ous es
H ook
Ġa vailability
work er
N ested
Ġold est
CD ATA
Ex amples
el and
" }
g un
ynchron ous
orient ation
Ġs av
Ġover l
Ġexcit ation
Ġw elcome
Ġpar liament
ĠJes us
ĠF ro
Ġfair ly
ĠL A
ex clude
mer c
U int
ĠHel p
Ġch air
Ġback up
× ª
ĠD og
Ġrank ing
Ġexpect ations
Ġre try
Ġexp atriate
if iable
Ġm ales
B lob
Ġdeterm ination
Ġstreng then
Meta Data
] -->
Ġsix th
ĠY outh
Ġin duct
ĠD I
ĠFin ancial
). }
R ank
Ġregular ly
ips chitz
//////////////////////////////// ////////////////////////////////
ĠE ag
ĠUn iverse
ĠAl tern
> ()</
TO DO
ĠG T
ĠTh ose
ĠP od
veloc ity
adi ents
ĠW H
h h
Ġwe bs
ge om
Ġres cue
inal s
ĠAnth ony
Ġl ake
Ġi i
Ġp ictures
Ġbelong ing
(" <
19 10
M ass
De ep
P DF
Ġst rain
TO OL
Ġn ic
ey ond
[ [
ĠIN TO
on na
U ntil
ĠEx per
ĠH u
Ġw rapped
Ġsucceed ed
Mult iple
Ġcommit ment
User name
Ġre actions
Ġs ig
Ġb on
Ġhouse hold
PRO TO
Con struct
) <
ä¸ Ń
x e
ĠS ave
Ġp ray
=" <?
std err
r adi
Ġr anging
ĠFe ature
ar o
ĠParamet er
ĠPer formance
Th reshold
ĠF O
subs cription
sp ot
ĠHarr is
Ġfeas ible
="# ">
Ġaggreg ate
STR UCT
Qu estion
od al
ĠB eng
16 8
un its
Ġacc used
ĠU SE
Ġrep o
ĠIm Gui
ĠCHE CK
Ġin struments
Rece ive
13 4
Ġke eps
Last Name
sw er
Ġguid ance
ĠT ax
ierarch ical
ĉĉĉĉĉĉ Ċ
ĠLin ux
w en
Ġappe al
decl are
() ]
ĠE uro
P K
ites pace
FUN CTION
road cast
y arn
{ [
c amel
ĠB h
. -
ĠDef ense
Ġair port
Jan uary
' }$
Ġre serve
Ġl ambda
ampl er
Ġin vent
Ġcount ing
ick ing
}_{ (
14 7
ĠId ent
rep ly
ĠBase ball
go al
lo be
Ġ/ .
ĠSt op
mem Item
ĠTok yo
Ġsp oke
Ġbe ar
h arm
ur ers
ĠA UT
table s
Ġdetermin istic
Ġd uty
> ');
Ġpr on
ĠN ation
ĠW ait
ĠB rowser
Ġhand les
SU B
lock ed
Ġan omal
Ġpure ly
ĠG ET
r ison
Ġ} $
ĠH ur
Ġart ificial
Ù ģ
ĠM rs
Ġ. /
enc il
uch y
Comp lex
ĠNot ice
Ġasympt ot
ĉĉĉĉĉĉĉĉ ĉĉĉĉ
lim ited
ed ition
Ġreg istry
Ġgr ass
TH ER
section s
A ud
ĠB alt
ĠF ixed
c art
F ROM
Ġoff ices
ĠC ook
H ide
ams ung
h yp
el son
ĠTr igger
Ġal igned
W ho
Ġfr anch
ĠL ank
>: ]<
ĠForm at
IT H
Ġp s
ĠC atalog
add EventListener
R IGHT
Ġag ed
fin ement
p end
Ġcontinu ing
Ġre put
th ird
q t
ch oose
Prov ince
Status Code
. âĢĻ
Ġ} .
un stable
Ġgener ality
ĠP erm
Ġmeas uring
em bed
il k
Ġv ocal
) !
fe e
Ġme ets
Ġband width
Ġbr ands
u pp
ĠE N
Ġlaw yer
Ġthick ness
Ġrele ases
Ġb io
ĠHow ard
Ġev ident
R ober
he at
ber ry
Ġth ir
ĠA WS
b ecause
ĠW ang
y ll
Ġst ake
mark er
}) -
Ġ utils
hes es
thread s
Back up
ab ama
Ġ$ $\
Author ization
Ġf urn
Ġpres erved
19 0
imp lementation
sim ilar
al tern
Ġpro pos
Write Line
Ġinj ured
f ollow
Ġ ì
pe ction
fig s
/ '
ĠD ol
ĠMel bourne
S PE
Ð¾ ÑĤ
d v
at ype
Ġmultip lication
H ex
ĠNor way
le af
Ġris ks
Ġecon om
ĠM I
Ġgrad uate
ri k
Ġun like
Ġmer ger
\!\! \!\!
Ġ ^{\
uff le
Ġla id
Ġnumer ically
dec oration
c ours
Un able
i pt
E urope
St mt
ĠMar ine
ĠL ocation
ĠV AR
Dis abled
reg istry
ownt own
19 24
Ġph on
ĠS cript
Ġb ases
sm art
Ġround s
v skip
Ġsl ide
Ġcon clusions
Ġl t
Ġr ising
ĠCh apter
I ENT
Ġt ends
F oo
Ġh am
do es
) '
R ound
MA IN
an ia
place holder
<? >
i q
Ġe c
vis ibility
Ġpick ed
ĠO ak
ĠHigh way
R F
ah n
Ġgu ys
B bb
19 22
r ust
Record ed
ĠCol on
tab End
A ff
}\ }$
l ov
ph ot
Ġpres idential
ĠLeg isl
ĠS n
ik h
Ġcav ity
Ġin h
Ġguarant eed
List eners
Ġ{ })
: /
asc ade
st roke
V IEW
re tt
Ġ$ ("#
ĠS port
Ġent itled
tem perature
Ġm ic
Ġ/* !
d w
Ġemploy ee
Ġlocal ization
Ġbur ied
Ġinv oked
19 27
job s
text area
Co ins
Ġpotential s
r h
w ang
ĠRec all
SD K
Ġdise ases
equal ities
. ');
Block ly
Ġass ault
end ers
ĠS A
ene z
miss ing
}_ +
PA SS
Ġindic ator
HO ST
ffff ff
Ġo vers
å ¯
con ver
we ather
am ents
Ġsy nd
Ġours elves
ĠSet tings
A rm
Ġapparent ly
. &
Ġperm utation
Ġex pr
u ating
pe er
Ġst ood
Ġcomplet es
Ġprom ising
E ast
Ġpro ud
amp s
Ġbi ological
T ables
}\ )
ĠA B
\, .
A pril
W W
16 9
Ġscal ed
: -
Ġinfin ity
pre vent
)} =
Ġ\ #
ol o
ĠM icro
TEXT URE
prot ect
ĠCal cul
ens is
Reg ular
Fore ign
igr ants
Ext ended
pay ment
to kens
ĠEx pect
ĠMot or
M art
ou pling
ĠN eg
ĠMed al
ĠOrgan ization
t alk
ĠDemocr ats
k u
ĠP as
amp ing
g ap
ĠInter face
Ang le
al ion
' -
Ġman ually
Ġrender ing
Ġgen es
Ġb ag
Ġincorpor ated
Ġfall ing
M iddle
auto ref
ĠExp ress
P aul
}( -
Ġshort ly
ad ic
ĠCon stitution
Be havior
Ġg ift
ĠSch olar
nov ation
c ritical
render er
Ä «
__ ["
Ġinterpol ation
S B
Ġcyc lic
ĠN GC
wall paper
ow s
Ġan not
ĠH ans
æ ī
Equal To
ur ities
ag greg
ĠRequ ired
Ġem it
ĠB udd
Ġfor g
Ġsuggest ing
iline ar
Ġdesign er
Ġsynchron ized
Ġinflu enced
ĠB log
ĠMex ican
Ġsustain able
}= (
D u
LEV EL
default s
å ¼
Ġdis contin
ĠPhil ip
] >
Ġaux iliary
ĠBo ys
ĠAdd ed
Ġhom ot
Ġprem ier
Ġsub stit
ĠD epend
19 31
Ġdeb t
Ġviol ation
ĠC ell
pol ymer
Ġch airman
Ġâ Ĩ
sh ots
Ġatt ach
Ġsh ifts
ĠM eta
T LS
Ġp tr
Ġsuff ix
list ing
ivari ate
g ate
ĠT otal
ĠE val
ograph ical
Ġadapt ive
ĠSt udio
12 6
Ph ase
Ġreal ize
R oom
M AC
col ors
C odes
std lib
Ġbar rier
ch oice
Ġref lected
ĠLab our
Ã ½
ĠU TC
d ifferent
Ġvar ies
á »
cal c
ĠB run
Gener ate
Comp leted
ĠG ard
ĠArt icle
ĠK it
Ġc urrency
Ġc c
her ence
2 10
vers al
Ġspe aker
12 9
Ġtarget ed
Ġo c
Ġintegr als
om es
m issions
n x
AP PL
ĠG irl
Ġsuper ior
ent ric
Ġtra ins
input s
J une
\ }}
ĠQ t
] *
ĠU lt
re strict
Ð¾Ð ¼
Ġmill ions
Ġcos mic
P ACK
Ġminim ize
Ð Ł
Ġexcit ing
Ġroad s
ĠL L
ĠF ast
ĠR ule
or ne
Î ·
File System
Ġpar ish
ĠKe ep
Ġf inger
ĠHol y
P ad
ĠS el
ann on
', \
re ach
ĠCon stant
c am
Ġrout ine
at ers
Ġd ol
ĠU r
[ _
ĠUn ivers
He ap
keep er
Ġcompet e
Ġs alt
R eq
ĠD ATA
por ter
Ġf asc
ĠA fghan
Request s
ĠM ET
ĠC V
ues e
mak ers
Ġdes ire
Ġr ugby
ĠP ract
ĠBr ig
ens ively
Def ined
ct ic
Ġref used
G s
Ġobvious ly
Ġd jango
ĠLa ure
Ġv oted
ch annels
Ġinter faces
qu et
ac ht
Ġformul as
phab et
Ġspec ifies
ĠCon tact
ĠSt age
b ank
H idden
Ã§ Ã£o
Ġdesc end
row th
ic ut
Ġpro hib
LA PI
P TED
datab ind
ĠIslam ic
) )$.
Ġparticip ation
ecess ary
ĠTh row
Ġk not
N or
Ġthere by
ĠCh ap
}_{ {\
Ġ(! (
ĠIn s
ĠY ang
Ġtransport ation
Ġind irect
Ġdisc ipl
Ġany where
F W
ĠL ag
Ġlic ensed
ĠSw itzerland
T ARGET
i u
Ġcontinu ity
NotFound Exception
Ġweek ly
fail ure
Ġlist eners
ĠR ot
B s
Ġgen etic
l iving
Ġbos on
d h
" </
ĠM unicip
en h
"> Â
App ro
Ġinst ability
ĠR y
. (\
> ("
Y S
Ġd ump
ol k
Ġlimit ing
M LE
Ġc ss
Ġpre lim
Ġcaref ul
ĠEx amples
min imum
Ġco aches
Ġl ots
$ --
C tx
Ġw ider
ĠĠĠĠ ĉ
Ð¾Ð ±
ĠProt ocol
ass et
ĠF M
âĢĻ .
Any Ref
rint f
Ġp ole
19 25
Ġfilter ed
Allow ed
}. \
Ġtalk s
d ue
Ġbro thers
ent a
ĠS eg
est ing
date picker
Ġhealth care
Ġp c
Ġfin itely
hom a
19 26
tern oon
Event Args
Ġf ocusing
bit coin
in ian
Ġ ##
G UI
ate ur
">( </
@ {}
=" {
Ġstrateg ic
DE LETE
Ġwav ef
ur se
Ġac oustic
Ġconstit ution
ut o
Ġdiver gence
Ġdec ode
ĠEv ents
S yn
Ġemploy ment
Ġvot ers
Ġwat ers
pos er
Ġcap ability
ĠTest s
------------ -
Ġc s
? }
Ġeng ines
13 2
scal ar
G D
p arsed
Ġs ail
ĠC lose
ĠK elly
a ac
erg i
ĠLin coln
ol ars
ke e
Ġben ch
Ġfriend ly
Ġb acter
Ġo xygen
pos able
get Property
Ġaffect s
Ġins ights
** *
ĠCom ment
jb oss
> -
gu ard
ch rom
Ġsequ ential
Ġemot ional
Not ice
we alth
Ġc up
d yn
ĠSO FTWARE
Ġst y
Ġind ent
Ġp our
Ġelli ptic
ĠE ns
c g
Ġnot ing
Ġl ens
out ube
ugg estion
inc ial
ĠC M
Ġshift ed
TE GER
Ġveg et
ĠHer itage
Ġt y
loy d
Ġneglig ible
ĠC os
Ġco in
Ġun ity
te le
net t
D an
Ġon click
Ġmod ifications
j an
F use
H orizontal
}} +
ĠNever theless
e u
Ġcloud s
Su ite
onom ous
N L
sp ark
Ġb rows
Ġtrans f
ç ½
lev ant
Ġbeaut y
om ing
LI B
ber ta
app s
ymp lectic
re ject
' })
2 64
ch arts
ĠD ur
play back
MA KE
f und
ĠP ear
ĠU P
F ilters
Ġbound ing
Ġreg ulations
MS earch
ĠN ik
An notations
In cre
sub str
Ġin jection
Ġderiv ation
Ġproof s
LO AT
Ġp a
Ġassum es
w ire
High light
sl ot
ĠCon sequently
ä¸ Ģ
h ou
Ġencour age
ĠW y
oci ate
ĠPr ice
ur bed
O s
Ġkn ock
Ġb eta
la homa
Ġc ategor
W ar
ĠT ak
bad ge
Ġex clude
19 23
Ġsett led
' }),
ĠDo ctor
ĠAl bert
Ġc fg
re ts
m v
ial ect
ad just
ĠS chema
13 6
Ġconsider able
in th
z ier
Ġab elian
Ġglob ally
Ġb oot
Ġtrigger ed
Ġt elling
Ġag es
Ġal ive
ĠD IS
âĢĻ ,
Ġad mit
s By
Ġadvers arial
Ġdec line
s leep
Ġ- &
ĠSever al
l c
Ġtim ing
K EN
dest ination
ni ppet
tra ined
vers ions
D ue
Ġport folio
Ġrecogn ize
S IGN
C ss
ĠK o
Ġperfect ly
ĠStud ent
F ast
__ .
ĠWork s
or ry
ĠEx change
b ibli
Ġre lies
. [
Ġ! !
Ġprotocol s
acc ur
ru ction
writ ing
Rece iver
Ġo ct
Ġa str
Ġimag inary
ha us
19 21
Ġsit ting
Con stit
ss on
Rev ision
Ġfrequ ent
Ġf lying
control s
Ġmeet ings
Browser Detector
ĠAn ne
miss ible
ĠA pr
urs ive
) }^
Ġle x
Ġsurpr ise
ĠH ave
TE S
Tag Name
SU PP
Ġret irement
ĠE instein
H A
Ġhash Code
sw ap
serial ize
}\ !
++ ++
Art ifact
Ġdoll ars
* .
Perm issions
al one
s ong
ĠSu ccess
ĠJ os
Ġover come
re ports
ĠS ymfony
Ġ' $
umul ative
ĠRes erve
lic ts
ĠM ol
Sche dule
D i
Un its
O lymp
Ġinform ed
Ġe at
Ġext ending
A lex
roll ers
Act or
Ġarch ive
Ġrep air
Ġin cl
oc o
Ġhe ating
Ġp arsing
Ġcaref ully
ĠTown ship
ĠD ave
ĠN ap
ĠSm art
Ġan ten
ĠB us
ĠÐ ·
ĠY e
Ġem issions
top rule
ĠCol lections
ot er
17 5
Ġed ited
Ġf ro
19 12
st ub
Ġshe ar
co ordinate
' (\
LO B
ar ound
Can adian
ĠW as
Ġor ange
Ġstart up
}$ ).
****** /
g mail
Ġqu ote
ĠTrans action
Ġprote ins
Ġw el
Ġso ph
Des pite
ac ef
Ġaim ed
ĠAt lanta
Ġm g
Ġback end
Ġcomp atibility
Ġsens ors
re ma
es c
Ġattack ed
ĠTem ple
ĠTai wan
T ITLE
Ġo cean
ul i
External Project
Ġconsist ently
19 16
m ir
Ġpo etry
Å «
Ġreli ef
Ġp ione
Ġt ough
ĠB egin
ca pture
fra ction
e or
Dependency Injection
String s
LIN K
Ġocc as
el n
PROP ERT
ĠDis play
Bi ography
( @"
ĠB ureau
Ġattrib uted
Ġentr ance
Ġvill ages
C over
J ames
ĠB os
Ġinj uries
um ar
iv ities
M W
Ġ( );
å º
hib ernate
An n
Ret ry
Ġb lo
ĠS ud
ĠGree ce
ĠS erv
rel ax
Ġfraction al
Ġin equalities
ia h
iss ipp
Inst ances
^- $
æĺ ¯
comm ands
Ġcapt ain
ĠTh ough
14 5
NE W
Ġde leg
Ġan cest
ĠG ab
St e
S heet
Ġimp osed
Reg istration
Ġb le
19 15
NO SCRIPT
Ġt ied
que e
ĠS pect
ig ious
C at
ĉĉĉĉĉ Ċ
Add itional
ever y
H on
car ousel
Ġcrit ics
ĠL yn
ĠTh er
D onald
ĠLink ed
neut ral
Ġad s
Ġregular ization
ĠT EST
ject ive
LA S
Add ed
33 3
ro v
orient ed
ĠC ape
. ]
Ġsqu ares
ĠN ash
Fil ename
S chool
ĠIn it
Cal led
Ġgun s
ex ist
Opt im
=" ./
custom er
Ġly rics
Tog gle
' )\
Ġflex ible
ĠHaw ai
ĠN ob
ug u
pre ter
ĠSim ilar
ĠSar ah
M argin
Ġto x
ĠN ichol
ĠR on
Ġinteract ing
ĠSt ew
Com pute
Ġuniqu ely
Ġmay or
ĠFre der
c ocos
L o
con j
G AN
Ġref uge
ĠB ody
0 10
Ġpe ers
ĠW i
ĠT yp
}{ $
Cal cul
sc opy
ess aging
ĠD al
F a
Con figure
Ġ\ }$
ĠD un
ĠE D
ĠSt ill
port folio
Ex cel
ĠLim ited
Ġob st
ĠS TR
Ġb ins
PAR AMETER
= {\
ĠCh ile
De ath
ĠF er
be ing
is i
equ ate
Pl us
d imension
ING S
Ġsimpl ified
Ġg rey
ĠWalk er
Aug ust
ĠCon structor
ACCE PTED
ĠF actory
J ack
" +
16 5
Ġch at
Part s
S at
pe ated
Ġphil osophy
Ġvalid ity
Ġr s
amer as
ĠF ive
Ġevery where
Ġperm itted
Ġcom plaint
Ġ' </
O W
Ġb lob
ĠCom b
Ġguid elines
Ġman aging
Ġto g
ym n
to k
Block Index
f ef
ious ly
Ġscript s
Ġru led
AR K
ĠSing h
itud inal
Ġar ises
Ġoptim ize
olog ically
Fr ont
} `
ĠD ick
}} -
ĠInd ustry
V P
rb an
ĠT rib
TH E
S ym
Ġ' {
us ive
}, {\
er en
Ġh ip
Ġbeh alf
ph oto
Ġtem por
ĠGener ate
m achine
OD Y
> ';
St ates
ĠE uler
Ġb reed
tem plates
}^{ (\
> /
ism atch
Ġcomp ound
c z
30 4
ĠY an
ĠRepresent atives
ï ¿
ĠJ ason
F ake
ations hip
Event Handler
Ġthought s
Ġcer emony
Ã ¦
Ñ Ħ
Ġelect rical
ug s
× Ķ
Ġperm it
ph inx
Ġs weet
Ġimp lications
ĠO THER
Ġ" ")
ors es
get Key
compar ison
Pr imitive
J uly
ĠPr ivacy
ĠMay be
oc or
bar a
ĠDe an
Ġoper ates
ht bp
) ?
T ake
it ure
Ġguarant ees
n pm
cre p
ĠQueens land
ĠNiger ia
ĠAd vent
IF Y
b et
H int
n ear
es a
em a
ĠFor ces
t cp
te chn
ĠEm ploy
* {-
U Int
Ġobserv ational
Ġn ick
1 19
ĠN ature
Ġsearch ing
Ġ$- $
ĠAg reement
Ġpl astic
Ġtem ple
A zure
issipp i
($ _
Ġvict im
' =
Ġdr um
Ġfilter ing
DI RECT
ĠValid ate
m ot
build ing
G l
Head ing
Ġpro sec
ĠĠĠĠĠĠĠĠ čĊ
MA SK
nav Bar
Ġfl ush
att en
GB T
or acle
Ġsk ill
om aly
ĠYear s
Ġd f
up les
Ġmod ular
Ð°Ð »
over ty
uk i
0000 000
mention ed
ant on
Ġn ominated
Ġen forcement
T oday
ig gers
Ġhor ror
AC HE
ĠComput er
n io
ter y
Ġad mitted
ĠMov ie
Ġprof it
ĠG un
im b
Ġprint ed
Red irect
APPL ICATION
Ġ( ),
Ġant ib
O rient
Ġemerg ing
N orm
ĠB ush
Ġ// !
. ";
P ages
ĠB utton
Ġeng agement
Icon Error
Ġex ha
ĠIP v
ĠAn aly
Br anch
0 100
sp ir
G H
B ag
Ġcall er
Link ed
Ġg al
}} +\
}}\ \
screens aver
ĠCov id
Ġhead ing
i op
Ġdevelop er
ather ine
ĠC ancer
ra k
erm ine
Ġph osph
Max imum
EN C
Ġ(! $
ĠT E
ellect ual
p od
ab ad
ĉ ĠĠĠĠĠĠĠĠĠĠĠ
Ġcons iders
Ġelse where
CC CC
ĠD id
Ġpublish ing
ĠD im
Ġmut ual
ĠS yntax
ĠPh D
( ",
oxy gen
Part ial
Ġreprodu ce
Ġform ats
ro d
Ġp ushed
A wards
ad os
ct l
ĠS L
load s
ĠIm ages
Ġf ixture
Ġaware ness
Ġdr ift
Ġfe es
ĠGL enum
Ġdistingu ished
E lem
B ur
ĠTe le
spect or
Rel ation
Ġpl enty
p romise
ĠVill age
ĠT itle
Ġmov ements
Ġmechan ics
] _{
conf irmed
t u
Att empt
Ġtang ent
absol ute
F s
Ġm k
, </
W alk
Ġstrugg le
L if
cat Desc
effect ive
Par cel
Dispatch er
ĠH old
Ġ Ä
loc als
Type Name
ĠAl bum
ĠAl abama
x rightarrow
e ctions
Ġphenomen a
Ġh ack
ĠG W
N U
pg f
ĠO UT
Ġrel ating
ĠV egas
x l
19 13
Ġaccur ately
an ies
Not ify
Un mar
Ġformal ism
ĠInd ependent
="../../../../ ../../../../
Ġtog gle
am ination
15 2
ENT ER
\' {
T om
s olution
Ġfund ed
ĠAust in
Ġaccord ance
Ġcom ic
ĠThe ory
Ġout standing
M ot
Ġenjoy ed
ĠUk rainian
le ans
Ġint u
Ġ} ));
Sw ift
N ay
Â ®
$ (\
Ġdemonstr ates
Ġpod cast
Ġliter ary
Cre ation
V A
grad ed
Ġvisit ing
Ġth orough
Ġpoint ing
ĠC ow
az a
ĠLore ntz
oc c
ĠCon tainer
P aired
å Į
Json Property
Ġt ill
Ġrecip ient
ĠMo z
q q
F ace
ĠPart ners
exception s
XML Schema
Ġcor onavirus
Ġco homology
us c
View s
ĠY et
bo ards
get Text
respect ively
Ġeduc ated
Ġdeep er
i ang
IconError Encoded
Fil m
form ula
ĠCl uster
im ore
lo ating
Ġoff ensive
ĠF un
Ġt iny
ĠG irls
St ation
m ate
the y
Perm alink
ĠĠĠĠĠĠĠĠĠĠĠĠĠĠĠĠĠĠĠĠĠĠĠĠĠĠĠĠĠĠĠĠ ĠĠĠĠĠĠĠĠĠĠ
Ġde als
F oundation
ern els
Ġhead quarters
an imate
ig s
ĠN othing
Ã ´
numer ic
n r
as ide
Ġdeploy ed
DOCK ED
Res earch
Ġm illis
ĠAr gs
b read
q s
be at
Ġt ension
Ġ" ./
linked ExternalProject
ĠMay or
g ro
Ġdirect ors
Ġtem plates
Ġs oul
Ġas c
cell color
ĠB S
ĠVal ues
Ġaccompan ied
V I
ac ew
Ġtr uck
Ġobserv ables
ĠÂ ·
w av
lad esh
Ġcomput ations
)\ ,\
ĠWe bsite
ĠĠĠĠĠĠĠĠĠĠĠĠĠĠ Ċ
it ian
enc er
}| ^
Ġdef ensive
Ġestablish ment
D ash
k le
Ġg amma
cos ystem
Ġmeaning ful
): =\
. :
mark s
Ġt ank
Ġun likely
ev a
Ð½ Ñĭ
AS C
ge on
Ġachiev es
Ġsub div
ĠBow l
linkedExternalProject Path
Ġexam ined
I o
ĠD etails
ĠD ak
ĠB ah
diag ram
leg es
ĠQ String
S am
ĠG ordon
Man aged
utor ial
st ri
UN K
Ġro se
Ġent reprene
TR A
Î »
2 25
Ġinnov ative
Ġc ogn
ĠJ e
H ard
Ġj unction
ĠD ocker
ĠJ osh
g overnor
ik ing
ap olis
Ġpass enger
Rout ing
Input s
ur istic
Ġformer ly
Ġkey word
ĠH um
Ġs occer
Ġs ons
is Array
per formance
ĠWal ter
ĠCom pute
st ock
s imp
cur ve
IFI ER
Ġjud g
lement ary
Ġlock ed
Ġexhib its
Ġh at
Mod ules
ĠCh airman
Ġnarr ative
Ġwe aring
r ative
re ements
O ps
s napshot
ĠStud ents
est imate
D U
Ġpass engers
Ġpul led
Ġpart itions
Ġback ing
Ġpred icate
Ġunivers ities
S il
() `
Ġcons ensus
ĠAust ria
ĠB io
ĠBay esian
Ġm eth
Per formance
Ġbeliev es
che ll
nap shots
FO RE
Over lay
Ï Ĥ
ne e
$ ^\
MA G
) ~\
K L
clus ively
Ġbe ach
ĠDr ive
ĠL ess
ĠVAL UES
elf are
l ings
inter faces
g tr
M N
Ġcharacter ization
Sign al
y aml
ĠPro tection
Ġsupp ress
Ġstr ange
2 11
Im mutable
2 60
S cheduler
ol id
av atar
00 3
Ġdelay ed
T ON
Ġhol iday
set length
equ e
oper ating
ĠV ert
Ġhyper bolic
b oy
r k
I BU
ĠMe V
Ap is
d al
loc ations
Ġcent uries
cast le
ĠC lean
lay ers
ro oms
Ġf ought
z es
br acket
ĠSt yle
Ġdig it
Ġimpro ves
ĠS ide
navBar Cell
C s
Pro c
NAME SPACE
}\ ;
ĠL LC
Ġinsert ed
Mich ael
pan ic
Ġf av
ĠM ars
Ġinv asion
ĠR oom
> =
Ġ\\ [
ĠST AT
merc ial
ĠS peed
ĠP arent
E ducation
qu is
Ġimp ressive
ĠA zure
Ġst ops
end ment
iv ia
ĠDet roit
ract ed
Ġplan ets
Ġprofession als
Ġinvari ance
ĠF loat
ĠN BA
ĠN ag
é ĩ
Ġsummar ized
Ġvanish ing
Ġcontinu ously
H P
S en
Ġb ronze
// !
ĠSaf ety
Ind eed
×Ļ ×
C ert
CON F
eral d
Ġcut ting
Ġsurve ys
imit er
Fig ures
UM ENT
x f
Ġr ival
Ġsynt hesis
Ġswitch ing
Ġconver ge
UP DATE
im eter
GEN ER
for ced
PO INT
ener ate
ĠPhys ics
Serial izable
Ġt ur
Ġll vm
ĠG all
C li
Custom er
N EL
Ġrep orter
Ġw arr
Ġm ir
Con clusion
or ig
Ġoscill ations
Ġ ÑĤ
ĠEn able
Ġsit uated
ĠM ission
ÑĢ Ð¸
Ġg host
Conn ector
Â ·
13 7
User Agent
19 11
ack ets
ĠAd vis
Oct ober
Default s
Ġval ley
Ġpro c
BU F
Olymp ic
Ġ" --
ĠAg ent
ĠAl liance
Ġbutton s
ĠPro blem
uc ene
s il
Ġc ited
tr as
S ink
Ġvari ability
Ġ) {
Ġre write
Ġchild hood
ĠSw iss
k ip
), (
h n
Ġs ectors
ĠK am
j q
Ġdem ands
Ġcons c
ĠA BC
ĠH it
Pro blem
display math
Ġsurv ive
Is Null
}$ ;
Ġful fill
Ġmot ivated
ors ion
ĠVis ual
st ellar
Ġscul pt
R ay
Ġiniti ative
ĠP ap
Ġcancel led
ï¿ ½
ol y
ĠP ho
ĠR ab
I EEE
ore l
Vert ical
Ġp t
20 2
Ġthem es
^{ [
ĠThom pson
Ġre ception
Ġback ward
og a
cur r
] _
Ġpain ter
C XX
Ġn m
INST ANCE
Ġman ifolds
Ap pearance
co ins
Ġt issue
---- --
Ġstar ring
n or
ĠTra vel
ĠAnton io
Ġop am
Ġreflect s
K K
ĠEnvironment al
Ġassert ion
Ġlabor atory
Ġb ubble
ĠS ER
ĠG arden
h uman
ĠOper a
Ġthous and
av g
product s
Ġfra ud
Ġkey board
o j
Ġaband oned
ĠP aper
ĠA ST
ertific ates
Ġan th
Sm ith
Ġmedal ists
Ġp ipe
Pers istent
ĠConnect icut
Ġmer ely
æ ł
ĠNAS A
To k
Ġaf ternoon
De cember
ĠP AR
tog ether
/ $
Ġg arden
PI O
Ġferm ions
b rew
Debug ger
Th an
ĠF L
Ġdecre ased
ĠM eg
ĠM ort
copy right
[] )
s an
ram a
ĠTem plate
ocomp lete
Ġprodu cers
Rec ip
l iteral
19 08
Ġreview ed
cknow ledge
L ev
n od
Ġph arm
Ã «
ĠNor wegian
+ |
th reshold
Ġj ets
15 5
13 1
ĠC I
l ists
ĠL ower
Se ptember
Ġenc rypted
Ġcr ick
call s
Ch oice
b id
Ġcontract s
il ty
Constit uency
semb les
Ġmet ers
g ue
bottom rule
Ġphys ically
yst yle
Y ea
Sub mit
re ng
p ick
f ather
Ġden ied
F it
Ġt ropical
Ġa apt
ĠDec l
F ollow
ĠI o
ĠH amp
Initial ize
Ġgovern ments
Ġr ings
ur ring
Ġd ash
F ee
ĠBar on
ts burgh
L ab
L ONG
Ġhas n
Ġg raphics
Ġm i
Ġsp ark
m esh
Ġes c
ester day
ĠF ried
inner HTML
Ġpri ze
Ġtrans it
ĠÐ ±
DO WN
14 3
CON ST
ĠF i
Man ifest
Ġintrodu ces
Ġorient ed
ĠCOL SPAN
Ġsh opping
s ensitive
ĠX ml
âĶĢ âĶĢ
Mat ches
im edia
Ġj azz
Ġorgan isation
itar ian
big oplus
Ġcompet ing
Ġal cohol
Ġscreen ing
ST EM
Col lector
m is
Ġd w
Ġel igible
v ectors
sh aped
C lip
Ġt ar
Rec ords
ess ment
Ġar med
Ġcompan ion
NUM BER
Ġro uting
S amples
] ];
ag ation
hen e
has OwnProperty
Ġmoder ate
ĠMalays ia
Ġsc oped
Ġmethod ology
ĠIndones ia
raz y
Ġun f
ĠSub s
ĠCred it
L and
get Time
Ġfor cing
ĠSchool s
grad uate
ĠV M
oc he
oth s
Ġco res
Ġoccup ation
Ġgr adients
Ġremark able
Ġactiv ated
analy tics
V R
U i
b idden
qu er
Suppress Warnings
act ivate
big gl
n f
ex per
Ġhand lers
ĠOk lahoma
art z
log ic
Ġunus ual
Ġfle et
ob e
Ġpl ugins
3333 3333
Im g
Ġfin ance
H istor
Ġtor us
Ġmaintain ing
ĠA le
ĠSe attle
Ġst adium
Ġill ness
ac iÃ³n
Ġmode led
Th m
On line
Ġencounter ed
Ġann iversary
en kins
quant um
Ġatt orney
Ġpriv ile
Ġquant itative
Ġrest ored
ac les
ra ctions
> ";
ail and
Ġst em
Ġse q
ĠAd ams
Ġsymmet ries
ĠSh ar
ĠC ole
th in
Ġar ising
Ġport s
Ġn ations
B er
18 90
vious ly
Ġorgan ic
Ġhapp ening
å į
ac l
Ġh ist
ĠArgent ina
ĠZ one
under brace
Ġinter rupt
B G
ĠAng el
R ail
et ype
Recorded Vote
Ġscr atch
Ġh ur
iev al
ĠB arn
M us
Ġcommand er
Al tern
I MAGE
ex ual
Ġsus cept
Ġpay ing
ĠI ce
CON NECT
}}\ ,
Read Only
Ġwebs ites
Ġg ang
Ġch amber
class path
Ġfranch ise
Ġhighlight s
Ġpark ing
ĠN ormal
ĠM aur
ĠM enu
rol led
g al
ĠH ope
Ġan notations
ud son
Ġshe l
ul u
Austral ian
7 50
Ġpopular ity
Ġgen re
ĠH ockey
}} }{\
Rober t
he art
') ).
ĠMar shall
Ġknow ing
Ðµ Ð»
inal ity
Ġco ffee
ist ency
M or
ĠNO TE
Ġcons ent
b ach
o ft
ĠD VD
Ġca usal
om ething
NO WN
Ġas ks
Ġadapt er
F IN
i ator
Ġf lood
ab ol
Ġrestaur ants
Pre p
un ning
Comm ands
std out
æĸ ĩ
ick en
* (
r in
ĠB erg
or ce
uer to
ol ate
Ġsh a
Ġgrad ually
ĠP osition
ent ities
ĠF red
Ġsent ences
å °
ĠValue Error
ĠArm en
Linear Layout
Ġp ic
Nov ember
ĠD allas
hy thm
Form er
Ġarr anged
rec v
ad j
sche dule
d in
B etween
Ġsupp ressed
Ġnot iced
Ġs cre
Ġst ating
Ġeng age
ab ases
ĠK az
Ġrecommend ations
Ġqu bit
Ġmusic ian
Ind ian
ĠA LL
ä¸ ª
Ġgu ests
level and
Ġadvant ages
B tn
ill o
L ie
Ġf est
ij k
se ek
bibli ograph
ĠLaw rence
ĠC u
ov o
Ġconnect ivity
Ġam big
CE PT
dec or
Pre view
Ġp reference
eg u
ĠMat hemat
on z
Ġretriev ed
y ellow
Ġrel ay
(" [
Ġbre ath
ĠF al
c amp
N il
ĠPortug al
Ġdev oted
dis c
ĠR at
Ġpl acement
14 6
Get String
Ġs ad
Ġsimpl er
F ar
en z
Con version
Cl one
Ġcon front
Ġreconstruct ed
ĠAdd itional
ache l
pub lished
Ġdiag nostic
Q R
F un
B as
Ġdr ums
ĠN ic
bibliograph ystyle
ĠĠĠĠĠĠĠĠĠĠĠĠĠĠĠĠĠĠĠĠĠĠĠĠĠĠĠĠĠĠĠĠ ĠĠĠĠĠĠĠĠĠĠĠĠĠĠĠĠĠĠĠĠĠĠĠ
i ology
Ġt all
Ġlog o
Ġpass age
pro port
ĠTe levision
Ġad res
ĠOr th
Ġ erg
ĠĠĠĠĠĠĠĠĠĠĠĠĠĠĠĠĠĠĠĠĠĠĠĠĠĠĠĠĠĠĠĠ ĠĠĠĠĠĠĠĠĠĠĠĠ
ĠG ray
Th rows
big skip
}] $
Ġz ip
urs ing
ĠC OP
Ġfin ishing
mo ke
ĠB ull
Ġathlet es
a verage
Te chn
ĠF ern
Rep resentation
in ces
ew ise
center line
ĠBe at
ers ions
ĠS creen
Ġreg ulation
Ġbright ness
redu ce
' "
ĠTur kish
Text Field
n est
Ġground s
Ġl os
Ġv it
sec ure
last ic
/ %
big gr
Ġmetall icity
Ġrank s
or o
20 3
LE N
ĠT alk
Ġcor ners
ield s
ĠWork ing
ĠA vailable
ĠH ills
Ġlimit ation
C atalog
B and
E mitter
ä ¿
}$ $
Ġrepresent atives
Ġprelim inary
o ct
ĠL anc
ĠI ron
aren cy
string ify
ĠRepublic ans
Ġcy ber
Ġmodul i
im ir
Ġf ract
Ġhighlight ed
13 3
ĠNC AA
support s
Ġtroub le
et ics
ĠAl an
Ġinter vention
Ġin set
ĠB uff
ĠW allet
æ İ
iv ot
C ached
valid ator
ĠFin ance
ect ure
ĠK itt
ain ing
ĠCh art
Ġaltern ate
Ġc oding
ĠP os
ec on
{ })
claim ed
ĠDoug las
bound ary
SD L
W M
add er
Ġsing ing
Ġbl ind
Ġb ird
sl ug
conv ex
c atalog
13 8
Ex pl
Ġmonth ly
? )
Ġdiv ide
pers istence
Ġfarm ers
ĠDocument ation
p ing
Key board
it on
ĠB etween
ev ed
cover age
\\ [
Ġdep recated
B ODY
Ġpublish er
ĠU tah
Ġradi i
em ale
ĠW ik
Ġid s
h int
ĠG il
Ġis lands
UT C
3 75
Ġup dating
ĠFI LE
b anner
à ¯
Dec ode
NO TE
ĠNet flix
> #
m art
Log ging
Ġsole ly
ĠF ame
Ð ±
ĠM ach
ĠS K
A CTION
ĠAb d
Imp lementation
Ġh ired
our t
AR B
20 8
le in
Ġimplement ing
12 34
pret ty
pol ar
ĠH ug
ĠT el
Ï ħ
ia o
ĠMc G
= </
ĠF ont
Ke ep
ig roup
ĠN N
Ġattract ive
ĠM organ
ĠI MP
Ġcor rel
Ġsear ches
ÐµÐ ´
}} ^{(
Py thon
Î ¼
Ġwh ilst
ĠW ard
ĠGL int
MP TY
I r
S ender
Sports people
Ġt act
s aved
Ġdispl acement
ist r
ir able
s it
Ġv ibr
Ph il
Ġbus y
Ġtext s
ĠRE AD
Ġ rib
class v
Ġlong est
ĠCar ter
Ġbehavi ors
- }
x ym
ĠStud ios
OP ER
Ġvar ied
FN GL
ĠMc K
s ap
ĠI M
}] \
^ +\
f are
ay an
Cl osed
vis ual
hen g
OP EN
U r
( <
P F
Un lock
source forge
Do es
Abs olute
Draw able
Ġgain s
get Logger
ol t
Ġinter active
list ed
re newcommand
Ġrel ativistic
ĠN ames
fold ing
Ġcontrad ict
Ġdef erred
Ġear liest
Ġprov ing
Ġsim ulate
Rot ation
S n
cent ral
Ġdec imal
Ġadjust ed
Spr ite
C op
IL TER
A mazon
Ġm ild
She ll
Ġ$ -\
ond a
bur st
ĠH H
im er
em ed
let es
Ġl oader
m ates
Ġweap on
ĠN an
Ġdog s
ĠM os
H ot
we ets
W ARNING
ĠMiss issippi
ord ination
Ġd Ã©
Ġc f
Ġst ick
Ġdisc ount
C ut
Ġcancell ationToken
le ad
Ġpar ity
c ook
C AP
{ +
char set
Opt s
="../ ..
ĠAss istant
Ġ< ![
Ġen velope
Ġob lig
Ġult ra
Ġin aug
Ġoper a
mon itor
Ġrobust ness
Ġresid ential
B ibliography
ĠC ra
15 00
Ġbas ically
veh icle
eta iled
assert False
ol s
Ġgeodes ic
in burgh
ĠL ane
ext ends
ĠCON FIG
) /\
T s
iss ance
au er
request s
Ġroy al
F all
Ġinh abit
Ġs le
Ġcomp ounds
Ġcl ause
add on
'' '
ed a
Ġs el
c url
Ġselect ing
ST RE
ĠM R
eq q
ĠCh allenge
ay er
Ġcommut ative
d g
iver pool
cor r
ht b
Ġch ip
ro ph
Com posite
ĠComp lex
ĠDel hi
Ġposs ibilities
ate ful
ĠU pper
Ñ ī
ĠPr imary
Ġconc aten
and box
ĠR ank
Ġover head
gtr sim
Y P
Ġfound ing
Al bum
G old
() "
g ls
Ġp ad
let ing
Ġs ock
D J
ok ia
ĠUS B
ĠHar vard
ĠModel s
ĠTra il
lef trightarrow
c ence
Ġelect romagnetic
Ġgr ab
ĠD NS
Ġg rap
ĠB ou
it ations
Ġag rees
em p
Ġappoint ment
Ġdevelop ments
ig rate
ym an
ID s
prevent Default
Ġsh ots
Dep loyment
La unch
mys ql
erv ation
Ġarrang ement
%%%%%%%% %%%%%%%%
Ġreput ation
Ġshould n
Ġre tained
ĠT ar
ĠDub lin
Ġ) :
Ġs ick
Ġd ating
Ġi OS
Ġcontrib uting
verb ose
Ġed iting
Ġwork flow
m ong
prot oc
Ġmar ine
Ġsecret ary
h ai
00 4
Ġdet ectors
: **
d ra
ĠM ess
Willi am
Art icle
ĠBru ce
Ar n
Ġcap s
Supp lier
Ġ" ");
ĠNot es
system s
u ce
ĠK ings
Ġcar ries
W ire
Ġcour ts
Ġimpact s
ORM AL
Ġtw ist
s yntax
Ġsingular ity
Ġher itage
Ġhigh way
he ap
Ġconsist ed
Ġ ions
Transform er
win ning
ĠR ub
Ġexponential ly
A IN
f re
Pro b
Instance Of
ĠP attern
B in
Ġfacilit ate
r p
Render ing
RET URN
ĠSquad ron
ĠM ak
ĠLeg end
Ġw et
ĠRes et
Ver b
Ġsto pping
port let
der iv
ĠCO M
ta stic
j p
EQ UAL
Ġ\ :
ĠL IC
ĠP i
Ġperson ality
B ot
Ġrecord ings
Ġsw iper
V IS
Ġ\, .
æ į
C lock
Ġun e
ĠExt ension
N EXT
Ġ[ (
amil ies
cre ation
idel ity
Ġgr an
ĠInter est
oc on
Pub lished
man ifold
ĠComm unications
h ub
FA I
la unch
Pop ulated
ĠS F
Initial ized
Res olution
Ġpat ent
ĠM ut
Ġrefer enced
Ge ography
R oman
Ġtick ets
^{ *}
Ġtouch down
Ġbal anced
ĠBelg ium
ĠB ud
Ġagric ultural
Ú ©
Ġtrans mit
Ġrender er
c out
Ġimag ine
ĠB art
ĠCom ments
ĠLay out
p ed
pt s
ĠSet ting
is Valid
abil istic
Ġdis appoint
im ag
ĠMin or
ĠE lectric
Ġnull able
ĠAdv anced
getElement sBy
List s
Ġmy th
Ġsimpl ify
-------- -
Ġtw elve
v r
math comp
ĠâĨ Ĵ
s ymmetric
Ġtr ick
ĠPe ace
Ġcar rier
ĠERR OR
Ġs aving
Ġevalu ating
Ġsol ver
sub title
cor relation
it atively
p read
Ġwor ry
cons ider
+ $
S up
] ^{\
Ġhom omorphism
l ag
Ġident ities
ĠM ove
View ById
and al
Ġ" (
enc oded
Ġintegr ity
(" ")]
Ð½ Ð¾
Ġpaint ings
ĠCl inton
Ġdis crep
od b
Ġz eros
iv an
19 05
ĠSh im
Ġn ortheast
ur u
int ent
df s
Ġdialog ue
do ct
ex c
Ġamong st
ĠC av
xym atrix
Ġann ih
phys ics
Ġhead ed
Ġres idence
get Default
Ġneur ons
Ġg rain
Ġbuild s
om on
Ġdo se
F our
ĠChar acter
oc y
ĠMatthe w
Ġstr uck
~~ ~
][ <
t ion
an ne
B orn
Image View
algorithm ic
Ġo mitted
car bon
ou ver
elect ron
Ġrad ical
ĠEar l
u u
ĠA qu
fl ash
16 6
Ġinfer red
Ġreason ing
13 9
ĠAn na
ĠÐ ¼
Ġelectric ity
Ġstructure d
Ġl ux
ter min
Ġper ception
ey er
ĠPortug uese
ĠK on
Ġb undles
ĠEd ge
Cre ator
ĠH ero
Ġun lock
list en
CP U
ĠJon athan
Pol y
iffer ential
ĠE M
Pred icate
Ġo prot
Over flow
hy dro
Ġgener ations
um ann
ĠB uck
' </
Ġlog s
Ġsusp ended
ir ates
Ġsuff ering
Ġencour aged
Ġ\| _{
ĠSam uel
> @
enc oder
Ġdec ent
Ac adem
ĠChrist opher
document ation
Bu ilt
Ġwonder ful
Ġgr pc
Ġp urs
Ġexception al
j amin
å ĩ
ow ed
Ġt ou
Ġ ))
Ġt ie
h c
ĠZ end
m ade
ĠUn like
max imum
S ocial
Work flow
}$ ),
Ġvis itor
ä» ¶
ĠRuss ell
ĠNav al
get Data
IF T
re nd
h skip
Ġsk ew
Check er
Ġb om
M X
Ġw ake
ĠMon th
Ch o
inc or
}) }\
Ġco operation
I ssue
Ġcur r
Ġan onymous
ĠG PU
ev t
Ġregular ity
Ġvis its
Ġg allery
l brace
ch t
Ġev il
Ġocc urrence
P a
M ont
Ġsupp lies
ĠDep uty
seud o
Z ip
Ġs id
ĠF inn
Ġadvent ure
d ale
Ġsign atures
ĠIn stance
qu ark
det ect
ine a
Ġj unior
ĠVis it
d id
Ġa cknowledge
Ġaccomp any
x c
k r
Ġsub graph
ĠP eters
En code
ambig uation
å® ļ
Ġb one
Ġarchitect ures
pol l
ĠF IX
Ġimplement ations
Ġc ameras
Ġsem antics
Ġcontr ary
Ġw arnings
Ġannounce ment
Ġsuff er
Ġhe lic
r ically
Ġsup ern
the mes
ĠSt ack
ĠC lick
Ġaccess ed
ĠCro at
ĠU til
}; \
L F
N Y
pert urb
Ġland ing
ĠLouis iana
d ummy
Ġutil ize
Ġax es
'' .
Trans l
Ġaver aging
ĠD ise
Ġph rase
Ġoccur ring
c nt
Ø ©
Ġgl ad
Ġc able
ĠEn try
Ġcompet itions
Ġcancell ation
Ġsp ots
Dem o
ĠR ain
< >(
Ġdiag nosis
[ ->
ĠHon or
md c
ĠPl us
rot ation
bass ador
Ġ" </
Ġr ub
$ ^{\
ĠR T
22 4
Ġe cosystem
ĠSV G
ç Ľ
Ġserial ized
D AT
Int o
J O
ãĤ Ĵ
print StackTrace
Ġf d
Ġn eck
C riteria
c odes
Ġarg v
ĠGener ic
20 4
Ġex clusively
om ed
Ġs ymplectic
Fr ag
ap ing
ĠM i
lo ose
ser if
p ow
ĠPublish ing
ĠAt omic
p ip
Ġf irms
Operation Exception
ig g
Comp any
ĠDE BUG
Ġt ennis
ans wer
ĠL HC
ĠS ac
ĠR ES
ĠSet up
Ġhol omorphic
ĠS olar
Ġe cc
Des erial
ex e
ĠFr amework
LE FT
Ġdifficult ies
ĠL am
Orient ation
Ind ices
Ġb ootstrap
Ġdocument ed
ĠSen ator
Ġdual ity
ist ance
S printf
iss a
Rep o
Spr ing
Ġreg ex
friend ly
Ġdist urb
Ġobject ives
Ġf atal
ĠC op
ĠB A
â Ħ
comp ass
So ft
ess els
DE VICE
Ġev olved
Ġblock chain
EX P
50 1
ĠGal actic
Ġout break
Ġle ak
log ical
Ġcritic ism
P ull
b ay
dash board
d type
nt hetic
che m
ĠB ag
Ġep id
ĠT ypes
UM N
des cr
Ġgr ants
ĠG alaxy
Ġvari eties
Ġgr am
Ġcr icket
Ġa z
[ {\
ĠU l
u ator
Ġ/** <
Q UE
Cap acity
sh ifts
Ġcop ied
Ġinterview s
U TE
Ġv ic
ĠP in
Ã µ
: @
field set
Ġmem brane
get Current
ĠJ enn
ĠB R
Ġind ustries
ĠCont roller
ĠArch ives
Ġin tern
b ash
unt u
Ġens uring
Qu ick
GRO UP
Ġ âĢĻ
ĠSaf ari
ĠCart esian
ref ox
ĠP ad
Ġaggreg ation
ol en
ĠA F
HEAD ER
Ġl azy
ĠE T
ĠIn sert
r ag
Ġim per
ĠRes erved
or us
ĠDen mark
al ph
m usic
Ġrev ision
Ġdest ruction
Ġpair ing
Ġsurround ed
ter rit
Ġacqu ire
Rec ent
Aut hent
Ġ$ ('.
Ġdisap pe
CLU DE
ĠD rop
) ";
Ġis set
ĠPal ace
ĠStew art
ĠW right
su ite
Ġfeel ings
Dis able
E O
4 80
w hel
Ä Ł
Ġflux es
Ġ( ,
19 09
19 07
c ot
}} ^\
ĠB ab
U INT
Ġobserv ing
Ġinter fer
' ><
Ġfr ustr
R ad
g ra
æľ ī
art icles
ĠCh ampions
Ġaccept able
ed ges
ĠD ie
Un ion
ic ulture
ĠP FNGL
Ġenhance ment
F LOAT
is an
Ġany way
M id
Ġno isy
s ock
mark et
V ill
und o
fef efe
ĠK ir
col s
Ġl ying
Ġar rows
contrib s
19 06
Ġdis ag
Tool bar
P atch
-- ;
ĠP rep
^* (\
Ġsaf ely
L aw
Ġcolle agues
) },\
Ġleg s
Ġp ag
col head
auth ors
Ġred und
ĠRuntime Exception
pl ots
Ġbre ast
ĠHistor ical
ĠD ance
Ġwire less
Link s
ĠKenn edy
war z
ĠT an
Ġrare ly
, }
ĠCo oper
ĠW ol
fin ish
Ġread ily
Ġqu bits
Ġdeep ly
Ġt et
Ġcommission ed
Ġflow ers
Vis it
ĠWith in
R ussian
cos ity
ri ble
ĠE dd
}} /
/ ******/
Ġcomp ress
ĠR ace
Ġb es
is cal
moment um
L ater
b v
ĠC ategory
}} )\
ing e
ĠW olf
ĠAtt orney
Ġconjug ate
ĠSt orm
Ġent hus
ular ity
}}{ (
ĠL en
n P
Ġdiff ers
atern ion
Ġc rypto
Ġen zym
ol ation
min or
erm al
ro se
Ġout lined
| }{\
Ġh older
Ġcontext s
Fe bruary
Ġlight s
ish ment
Ġcalcul ating
Ġf ishing
Ġab b
R o
}{ $\
Ġleg it
Ġintegr ate
Ġch urches
An swer
ĠObserv able
ĠPro of
ĠWIT H
ĠSD K
fin ity
* }\
ul ates
ak en
A verage
Ġdip ole
Ã© n
Ġelimin ate
ĠY O
Ġr um
correspond ing
Ġexpert ise
Ġapprop ri
Ġin clusive
Work s
Ġt ort
ĠPh one
[ ],
Ġserious ly
Ga ussian
p iece
un i
14 9
ĠEm peror
u art
Ġl iber
Ġabs ent
")) );
On Search
ĠJud ge
ĠPol y
T W
Inv ocation
Ġwed ding
Ġhomot opy
ĠF E
man aged
Ge o
N F
h it
Ġpers istent
Ġw ides
Ġsum s
Ġdebug ging
ĠBang ladesh
n atural
ĠCon vention
ĠP ope
size i
Ġcoinc ides
Ġg enu
14 2
ç ±
ĠO tt
oo led
ĠDown load
cred entials
ĠBul g
? .
Ġ )$
H OT
d eps
R edu
Ġparse Int
ĠHead er
Ġb oss
Ġd ots
* >
ĠBr anch
Ġg ay
ack now
Ġinvolv ement
enez uel
ym ore
d ater
ĠT F
æ ³
ĠArk ansas
Ġ! (
PROPERT Y
In c
n ested
Ġbr id
ĠComm ons
Ġs outheast
ĠD ays
ĠJ uan
od ox
Ġinit With
Ġmid field
Ġg ates
ĠP un
ĠIN T
Ġout door
Kn own
ĠTog ether
P icture
ator ial
Ġv ital
ĠL iving
ĠO cc
Ġprefer ences
L ess
vent ions
tic les
Ġfem in
ĠW ind
ĠCent ury
is ible
Process ing
n orth
ĠUn fortunately
Ġpack ets
ĠLank a
ĠSa udi
Ġal i
Ġconstant ly
^ *}
h ire
Ġt weet
Ġm ilit
qu ick
ĠV k
36 5
]{ ./
ĠV iol
Ġapproxim ations
Ġcelebr ated
Ġconvolution al
integ ration
bar s
ĠS now
C ategories
ĠIn cre
ĠSh ah
st retch
ĠS NR
ĠTh ings
Ġel abor
rest ore
FAI LED
t odo
oc hem
Ġun w
Ġast ro
Ġepoch s
Ðº Ð°
ĠR F
ĠH R
ĠMag ic
Ġnormal ize
Ġillustr ates
ĠR aw
Ġsw ap
Ġh int
ij ing
ĠC limate
Ġd type
ĠSp irit
con tainers
ĠD om
sh ake
ĠCol omb
Cred ential
am ine
Ġutil ized
âĢ ĭ
xim ity
ĠP sych
Ã© r
ĠAnn ual
estab lished
Ġplan es
v b
B ob
ĠAct ivity
Http Request
ĠC emetery
Ġout flow
che str
Ġa xi
Ġs ake
Pro duction
Ġrig id
ĠC ONT
ĠK an
file Name
ĠJ u
Ġdeg rad
Ġc ul
ĠL ipschitz
We ak
block quote
scale box
Ġf antasy
ĠH ell
col ogy
Ġtrans ient
in ate
ĠW a
tw ig
im ize
ĠFr ame
Ġcharacter ize
N ever
V S
Ġvari ational
Alloc ator
Ġt body
ĠM ind
Ġestablish ing
ĠFor um
Ġsubstant ially
Ġfol k
Ġm im
Ð¾Ð º
Ġdro ps
Ġmod elling
s izing
g ulp
Ġp b
Ġdifferent ly
geq slant
Ġhospit als
S un
Ġgo og
C AT
Ġdegener ate
& +
Ġmount ed
15 1
30 1
ter ed
ST O
Ġmet res
break ing
40 1
T urn
Ġlogarith mic
Ġjav adoc
}, \\
keyword s
organ ization
n ecessary
sc atter
Ġp sy
N s
ĠE mail
Ġtr aces
ĠMic hel
i ating
(' ../
Ġaccept s
F at
). $$
28 0
Ġattempt ing
Ġtax es
C LO
Ġsu icide
Ġfrag ments
Ġshall ow
uc lear
ens en
oc ese
Ġme at
)) {
Ġgrad ed
ĠFunction s
ĠOper ations
cy cl
Ġvulner able
r brace
oper ations
Ġf illing
Ġcont our
Ġdis ks
Ġdescri ptions
ĠA pi
ok u
Throw able
Ġu uid
ĠW oman
... "
ĠRob inson
Ġconsider ations
Cal c
ĠAs ync
Ġsimple st
Ġsub stitute
Ġcr imes
h b
ĠP ref
str ategy
../../ ../
Ġnot ably
acew atch
Ġt one
A Y
p w
on ing
Ġapproxim ated
lot te
or ship
ĠB ound
Ġcorrect ed
ĠW E
ĠB aker
List View
Inv oke
Ġstr at
14 8
y our
CO RE
um per
ĠTh ailand
ĠEd inburgh
Ø ´
og s
Ġemerg ed
Ġnucle i
ta p
ath on
g res
ev es
ĠCommon wealth
ĠE s
Sim ilar
ac ies
Ġen abling
Ġspec ifying
2 32
Ġra ising
ĠF riend
resize box
! ");
em en
T ur
ath ers
ĠSt ars
ĠÂ §
Ġdev iations
writ eln
Organ ization
ar us
pot ent
ĠP E
get Context
Ġcurrent s
Ġhe ap
Sc ott
B log
c rypto
l ift
Ġsequ el
Off icial
> ",
Ġdam aged
ĠEcon omics
ĠJ av
Pr incipal
W rong
ĠT oy
ellig ent
Err s
Ġgovern ed
Ð¾ Ð½
R P
Ġhistor ian
ĠTH IS
ĠLIC ENSE
Ġrac ial
Ġrep lic
eloc ity
Ġa pt
read only
Ġsil ent
B AD
ĠM OD
ĠMar vel
Observ able
g ender
Ġse eds
ĠĠĠĠĠĠĠĠĠĠĠĠĠĠĠĠĠĠĠĠĠĠĠĠĠĠĠĠĠĠĠĠ ĠĠĠĠĠĠĠĠĠĠĠĠĠ
Att achment
Ġs urname
Ġcallback s
Co ord
tr ation
14 1
Ġdistrib ute
ĠPol itical
n ia
ĠKn ight
ect ive
gener ation
ĠBrazil ian
ĠFrank lin
Ġmot ivation
yst al
Numer ic
ught ers
Ġrespond ed
Ġwat ched
Il legal
ĠD ES
ĠP rix
h m
x ff
eg e
}} </
ev ens
Ġsh rink
Ġcelebr ate
abul ary
20 5
22 2
V s
Ġharm ony
p ine
ĠS ample
H F
Ġlong itudinal
o auth
territ ory
Ġj uris
depend s
Ġjournal ists
o is
Ġinstrument al
Ġg aps
o pp
}) :
add itional
ĠS imp
anc ouver
Typ ed
- $\
TR ACT
Compar ator
Ġelimin ated
ä¸ į
it les
Hel pers
f ade
Ġ= ================================================================
Ġint ense
Ġmeas urable
ĠTh ank
_{ (\
Ġsupport ers
Ġun set
Neg ative
Ġp overty
Ġtra p
Byte Array
ç± »
Ġre ign
ĠB inary
ĠMean while
"> '
Min imum
"> #
Ġpro jections
ER Y
Ġreal m
ĠSp acewatch
Circ le
f v
IS O
15 7
): =
SE C
Loc ator
widget s
Click Listener
Ġmask s
] }\
Y M
Ġcond ens
Ġmultip lic
Ġ@ @
Ġsold ier
Ġh ill
ĠU pon
ĠR and
Ġdiv isor
Ġcompar isons
t own
IC AL
ot he
Ex ist
ĠC oul
Ġlat ency
) ~
N ER
W I
tr an
E nergy
Ġto w
ĠH O
R NA
m ine
Ġw ra
ĠP D
] \\
ĠF act
AT T
Ġext ensively
ĠLabor atory
led g
h ind
å ½
Dis c
ĠTrans form
ĠSt ories
Ġdo ors
Ġel der
ĠFac ulty
ĠWar ren
struct ures
Ġasymptot ically
ĠS ay
th y
ĠS IL
CL IENT
Ġintegr ating
Ġh ate
38 4
Sm art
ĠN elson
M ilitary
------------ --
colon eqq
od ic
ret val
r ator
uck ets
Pub Key
Ġcut off
oo f
ATTR IBU
con c
H a
dis crete
ĠInt el
Ġw ond
Ġ" {
ĠM ail
io let
apt ers
Ġrepeated ly
url s
ĠP ART
ĠPro duction
can onical
19 04
control led
Ġrot ational
DE V
Ġpo em
ett i
) ',
ic he
ĠA y
B a
Ġoppon ent
V oid
Ġ/*! <
Ġa ired
ĠA x
Ġas ymmetry
V ars
}$ :
m ixed
text style
Ġaccept ance
ĠP ast
Ġrot ating
Ġcontain ers
. ),
ĠFish er
ĠR u
REQ UI
{ |\
Â ½
Ġr uling
Ġadd itive
Ġsudden ly
Ġ nd
ĠCh amber
Ġv essel
Ġpre view
e igen
un used
set Value
v n
Sl ide
m ne
Ġi Phone
Ġsup ervised
ĠY u
$ =
Ġm oth
Ġres ident
ĠBO OL
P references
A ge
ĠT ob
ĠL IMIT
D ays
id y
Ġpart ly
ĠClass ic
Ġtransform s
Ġh opes
the se
Col lect
IC K
Ġcr ack
be am
^{ {\
Ġun changed
G al
] ));
S ys
ext ended
Ġinvari ants
ĠCal led
Ġeth nic
á ¹
_{ |
P en
ex change
ĠP ic
irm ingham
ĠD S
real m
æ Ŀ
Ġset Up
AT IVE
ĠMET H
Res ize
Na N
r n
duc ational
âĦ ¢
Ġdef ence
API ENTRY
p q
Ġsp ins
Ġdec oding
ot ypes
Ġsing ers
Ġpred omin
ci pl
Ġatmos pheric
7 68
reed y
LOC AL
az ines
Work space
ig m
To kens
Ġrecurs ive
m ime
ĠB ed
à¤ ¾
ĠEv ans
ĠCamp bell
ik o
jav ase
NR AS
Ġwides pread
Ġr v
Ġoccasion ally
ĠW ARNING
15 4
Ġferm ion
ĠB ible
Q T
ĠR ap
,- .
Ġexpl oring
aut om
Ġadj oint
l w
class ical
P reference
Ġg aming
t om
Ġs oc
ĠF R
sc ar
itt ers
ĠQu estion
Ġexplo it
ĠH end
Callback s
Ġmut ation
Ġin ert
Ġart istic
sp er
24 5
Ġexceed s
ĠCh ern
ĠPit tsburgh
N ORMAL
root Scope
A ws
Ġsummar ize
Ġs sl
ĠĠĠĠĠĠĠĠ ĠĊ
g om
Ġcon current
urch ase
Ð°Ð º
Ġspeak ers
ce q
ast ro
Ġinsp iration
n able
Ġindex ed
ĠPat ri
ĠB U
rib utions
ĠR ect
ĠGu y
ĠR M
Â ±
ÃŃ n
Op code
weight ed
ĠS ql
let t
success ful
b usiness
ĠLem mon
ĠT X
Ðµ Ñģ
hl js
ĠGra ham
r if
Ġsch olars
Phys ical
æ ŀ
cred it
Ġspirit ual
H uman
ĠN A
ĠJ ess
ĠC er
spec ified
H W
Ġt ube
query Selector
ĠEns ure
ol ished
ĠN am
Ġm as
tes y
L U
raise box
G itHub
Ġp ow
as List
Get ter
Rec ogn
Ġqu oted
Ġmultip licity
UL AR
S pect
ĠQ ual
Ġconj unction
Ġcoup les
ID S
ĠR io
ass ociated
} ")
Ġsp acing
Ġdoc s
A fr
contin uous
ous ing
ĠR C
ĠMet ro
Ġobtain s
op les
å Ĩ
ĠU SS
Ġsl ave
prov ided
Ġpri est
qu ire
ke ley
Te ch
^* ,
ĠInt elligence
poss ible
ĠG ary
iph eral
ma pper
Ġend points
ĠAR M
re z
h um
ĠAl b
ĠD J
00 7
H am
Ġdis aster
sw ift
g ol
Ġch ampions
Ġd uties
ph al
ĠPl anning
ĠJ O
ĠR GB
Ġquant ization
ĠU rban
Ġsqu ared
ĠBroad cast
ĠAfghan istan
Res olve
Ġcheck sum
d ac
RE C
ĠP ush
ĠCO MM
Ġcomfort able
g allery
s outh
15 8
EN SION
!! !!
Ġle ver
ĠSt ein
Ġrom antic
er k
Ġjud ges
4 000
Ġv e
Ġconsider ably
Start ed
IN PUT
ha o
ĠRead ing
ĠSh ape
Ġtack le
ĠBalt imore
Dis covery
al ways
View Model
Ġt uning
dep loy
vers ely
Ġpreserv es
Ġtra v
ĠMor ris
s al
less ly
Ġent ers
q ed
qu est
Te levision
th a
Ġsp okes
Ġweak er
Ġrem ind
w l
ĠA dapt
em ies
ĠR ing
Sl ider
18 00
16 7
Map s
Stud y
Ġ{ :
Ġinvestig ations
m bf
CK ET
ic ht
ble ms
Ġblock ed
Foot ball
ĠN ep
ĠG ulf
Ġ\\ \
Ph aser
Ġforest s
Ġdirect ive
C ritical
Ġincorpor ate
Ġ] );
Ġdem o
ĠType Error
Ġinit iated
Ġdwar f
flu ence
diag onal
S NA
Ġin struct
d up
ĠU g
S pl
m ill
Ġnumer ic
ĠMar ie
Ġachiev ing
Ġco herence
Ġmor al
eg en
ĠT ig
ĠØ ¨
Ġisot ropic
d an
Ġt ips
"> ,</
åľ ¨
ĠM ix
ĠUn iversal
Ġshut down
Ġpurs ue
Ġl n
ĠB esides
Ġcred its
Ġpropos als
i ab
ĠF err
ĠL iverpool
r us
;& #
}) ^{\
Ġrem arks
Ġautom ated
le ave
)$ }
ĠHun ter
Ġbrows ers
J av
Ġnucle us
ane an
Ġimm un
ĠQue bec
Ġca ption
ord inary
Arch ive
p aren
Ġoff line
Ġext inction
Ġsurv ived
ĠInf antry
b uffers
ĠM yst
Ġrel ate
Ar row
ĠRe ce
b ia
Ġlik es
Ġb orrow
Con nected
ĠDr ag
ĠM aj
ifest yle
Ġregul atory
r g
"> "
3 30
Ġpreced ing
CONT ENT
Ġequival ently
m q
Ġc d
-------- ---
Ġhard er
ĠBrook lyn
incre ment
ĠLine ar
ĠIter ator
t pl
Ġd ummy
ac ements
Ġan ymore
Ġtri angular
Ent ities
Ġcommun icate
then Return
Ġparticip ating
18 5
Ð ³
Ġset Timeout
L u
Ġconf usion
im o
ĠG ot
ĠChar lie
Ġ )\
ordin ator
CP P
r te
rec ision
Ġt ub
() }
ĠTe V
Ġchem istry
ob a
dis ambiguation
ĠK ath
(' \
38 8
Ġconstruct ing
ĠL arge
Or g
ley ball
ĠBill board
ĠPl ugin
ĠI an
ĠFin land
Ġ) );
Fin ished
Cla use
ĠDak ota
e ur
k ern
Ġsub mission
Ġneg lect
und ef
oup led
15 6
rec ords
Ġdefault Value
ograph er
Ġres ign
Ġcoinc ide
Ġg all
ĠIn fo
Ġneighbor ing
ĠBern ard
as ant
ãĥ ³
Ar c
Ġtoler ance
p v
SE SSION
m ol
Ġminim izing
ĠL INE
a ire
el ist
Ġg olf
MLE lement
A H
ĠD omain
Ã¨ re
Ġ( +
Ġmod ulation
bor ne
F inder
ĠL GBT
ud o
ĠJ ac
O O
type param
}} }}
Ġ iv
NE SS
w heel
Ġimp ose
ĠJim my
ĠRef orm
og ical
Ġthreat s
D ark
ĠForm ula
19 01
Ġs urre
Ġviol ent
Ġneighbour hood
Ġint ellectual
Trans actions
Bal ance
un ix
" <
Ġstay ed
Ġv essels
pend icular
ĠC atal
ĠN ear
Ġv ortex
por ated
ĠRem ote
ĠMa ine
C NN
ĠU INT
R D
Ġc ry
A WS
ĠStan ley
19 3
ent o
erm ark
ĠDes cribe
Ġâ Ĥ¬
L ER
it ol
ar ations
Hand lers
requ ires
Ġfit ness
Ġpower ed
Ut ility
ith uan
up iter
\ ).
Ġreal ization
ĠIm perial
Ġm u
Ġ' [
Ġflex ibility
Ġthe ater
Sin ergi
19 03
15 9
Ġatt achment
Ġ= &
rece ived
RO P
ĠK ash
Ġke V
Non Null
Ġstri king
ĠA rr
IP S
:: _
ĠZ hang
Cla im
e lection
re ck
Ġco arse
ĠAnd y
feed back
it ime
div ider
Ä ħ
Ġfl ights
Ġsingular ities
ĠCr ime
ĠMov ement
P LA
g rey
l ishes
r w
Ġs creens
ĠCon struction
)} =\
ĠCon trib
we ights
Ġg od
}. $$
Å Ļ
N an
Ge orge
ĠProf essional
Ġn ut
ac a
ĠM ode
Ġven ue
P et
Ġst ere
ĠP uerto
ĠR ole
ĠC leveland
Ġ$\ |\
Ġfail ures
inherit Doc
G I
erm ined
Ġint ra
SER VICE
ĠĠĠĠĠĠĠĠĠĠĠĠĠĠĠĠĠĠĠĠĠĠĠĠĠĠĠĠĠĠĠĠ ĠĠĠĠĠĠĠĠĠĠĠĠĠĠ
R pc
ĠF ail
ãģ Ļ
comm un
FE ATURE
18 8
bor ough
Ġre ven
ĠP anel
ĠP rior
Ġaccess key
e V
ĠN i
}) }{
17 6
Ġas ide
R N
Ġsomew here
AR S
Ġgather ed
c rit
Ġview ing
ph ones
Ġdig its
Ġapart ment
è ¦
asc ular
Ġsevent h
Ġequ ity
Ġwind s
Ġattract ed
}) ^{-
ĠEV ENT
omin ations
Ġtrans mitted
$ }\
ri o
Ġmolec ule
s ound
ĠE SP
ĠK ind
Ġd uplicate
ĠD anish
}$ &
olec ular
ĠD ialog
ĠF reedom
define Property
ÐµÐ ¼
ĠAn im
ĠF ed
Part icle
Ġhost ing
ENABLE D
g m
ĠPort land
M icro
qu arter
ĠOver all
: ",
ĠC ass
Comp ilation
al go
Start ing
( %
Component Model
=" '
la h
Ġaccount ing
ĠOr chestra
Ġreserv oir
getElementsBy TagName
ĠB lood
Ġinf ected
ĠA rena
Ġqual itative
Ðº Ð¸
Ġb orders
ap k
be havior
W ords
Ġan omaly
rep resentation
}} _\
Ġm ountains
equ ilibrium
@{ }}
spec ies
ĠI MAGE
be hav
Ġfoot er
Ġfail ing
FO UND
sect s
Ġclean up
}{ !
Ġmanufact urer
adem ark
ç½ ®
he ll
Ġf ed
Ġpop ulated
Ġdecor ated
Le ave
Ġcontroll ing
p ure
Ġpre val
sp ired
Ph ot
ab etes
j ournal
Ġident ifies
23 5
18 80
Ġitem Members
ĠB loom
Ex change
Ġcampaign s
á º
Up dates
Ġradi ative
ĠH ind
ĠLib eral
Ġcyl inder
ĠPho enix
t ls
15 3
aut hentication
Ġk ernels
Ġdram atic
G ed
ĠV a
s ized
Ġd owntown
ĠC WE
Ġtum or
ar ms
S ens
b age
Ġ* _
ĠL ap
ov al
Ġspecial ized
Ġcomb inator
ĠCh air
lear n
b ias
op enc
:// $
Ġsp ars
de leted
qu iry
Ġindu ce
B ay
Aut om
Ġmot iv
read able
Ġarbitr arily
ĠCurrent ly
Ġorgan isations
{ }{
D K
ver ts
Ġqu arks
og raphics
Ġsh ipping
ĠM ack
expand ed
ĠPro gress
Ġth umb
end l
Ġven ues
Ġwalk s
ĠArch ive
} ],
ob server
TH READ
ä¸ º
Ø ¹
Ġg ear
Ġa ws
inst ances
um ed
}\ |_{
k al
m eth
Ġste am
l attice
ĠPr incess
Ġcomplet ing
mid t
æ Ķ
Ġste ep
tt ify
ĠHamp shire
Ġla ugh
Ġg ent
Ð¸ Ñģ
et on
ĠB eck
ĠMur ray
2 16
Ġt aste
ĠAr n
cell s
So ftware
ro les
Pro jection
ĠRog er
CO PY
ĠI ssue
ĠM erc
P B
Ġm a
Ġanal yst
Pos itive
usal em
fra structure
Ġun safe
ĠMarg aret
Ä Ļ
to o
Ġsynt hes
Ġnon trivial
r isk
ĠG as
Un expected
ĠCamp aign
ich i
R en
n oc
at z
Ġcast le
[ ];
Ġact ively
ĠCom ics
ĠOr leans
math ord
Ġl iv
Ġb onds
ĠI ss
hom ogeneous
Ġcompens ation
ĠCon v
ĠValid ation
) )$,
ĠP T
ĠWel sh
Com ments
Fl ush
Ġcomp ressed
Ġdat abases
Ġnumer us
J ul
il ateral
Ġcap ac
sing leton
ĠTechn ical
R ew
host name
ĠLay er
Ġl ung
ĠF alls
b ast
Ġsat ur
ĠM ountains
Ra ises
wik ipedia
}} ;
Ġtw in
Ġblock ing
Ġprom oting
Ġphot ometric
x a
Ġ} (
M NRAS
TO KEN
Ġcapt ures
Ġpol ymer
ĠCond ition
Ġh ub
ĠO wn
Produ cer
g ency
Ġimport ed
Ġem otion
period ic
ĠRe yn
Ġj u
enc ia
Ġloc ality
dev elopment
ĠM other
Ġport ions
C AL
al bum
met er
ĠAdd s
cess ion
Ġs cheduler
ĠTh anks
ĠStat ement
Ð ¡
re ction
count s
Ġaff airs
M ON
ric ane
H AL
Ġl ip
Ġactiv ist
Stud ent
Ġf ade
Ġdo ctors
Ġ* */
18 7
AC CESS
cap acity
Serial ize
Ġlog ged
Ġpat ches
' /
Ġl oyal
ĠR oot
ĠAc cept
aaaa aaaa
mid i
ADD RESS
w y
F ACE
ĠPh ase
ĠR out
Com bo
c ill
ic z
ĠP aram
ĠF LA
ĠI de
h op
re try
az ard
comp atible
Ġcol ored
Î º
Ġbeg un
ĠSw ift
Ġre ceptor
ĠC ultural
li um
â ĪĴ
Ġref erring
mem item
sur ance
) ](
> ',
Ġf lip
Ch oose
at im
Ð°Ð½ Ð¸
ĠPerson al
th al
Ġper pendicular
] /
ca pt
Ġfactor ization
Ã Ĺ
w al
Ù Ĥ
Ġdepart ure
ir s
os hi
Ġthermod ynamic
current Time
Ġbu ying
Ġsuccess or
H o
g ow
hat tan
W T
en ch
ĠM oney
Ġf oss
Imp lemented
Ġ ib
ĠElement ary
ON LY
P in
start ed
Ġtravel ing
}. $
ĠY ES
Ġsuggest ions
ĠT am
Cl ub
Ġexperiment ally
is ers
eh icle
W ang
Ġevolution ary
ĠS r
W ild
{ }\
ĠZ ero
ĠT S
IR ST
ĠG round
Dev elop
re load
Ġover whel
. ).
ĠV I
Not able
scal ing
Ġingred ients
~ {\
ba ij
oth y
) ];
Ġd ocker
2 12
ic ul
Ġsl ots
Ġbro ader
ĠCO MP
normal ized
Ġbranch ing
l if
W D
d iction
Ġplan ar
' ^
Ġre b
ag ar
+- +-
| {\
-- \
ĠD ifferent
OFF SET
check mark
IC S
u ction
erv es
El se
Depend encies
ĠH AL
Ġuncer tain
Ġtri angles
ĠCh ron
Ġfl av
Ġr ush
ĠLead er
Ġbin aries
ent ropy
ĠM IN
Ġmus cle
ĠLie utenant
Ġp id
Ġcal ibr
Ġexha ust
User Id
Z end
in ery
Ġcounter part
ĠAl fred
ĠFig s
ĠS ales
Ġspeed s
Res p
ill ance
Col ors
19 02
Ġtw isted
Ð¾Ð ³
ĠN at
Ġinhabit ants
ĠObject s
] }$
>> >
normal ize
)$ $
dim ensions
ĠS ym
lo ver
W F
Ġartifact s
Ġdes ert
K ing
ĠT ower
T OP
n at
x t
Ġle ts
cont ract
ri ors
he ld
chi at
ĠWe yl
H it
] ",
Ġindex es
Ġg fx
Ġoper and
Ġch ronic
> ");
m illion
Ġexam ination
Number Of
j dbc
ER O
åı ĸ
ĠG A
s ens
ĠLe ban
ĠP ick
Ġres ort
)) =
Ġa fore
E t
ac ian
Ch apter
Ġdist inction
ĠI SO
Ġsoph istic
f h
ĠK u
Ġdef inite
ĠMETH OD
Ġb read
ĠThe ater
open api
se ver
Ġl as
Ġdiag n
Ġem itted
Ġinflu ences
ĠCatalog ue
access or
Ġthere in
Ġnav igate
ĠBatt alion
G lob
Con clusions
Ġconcent rations
Ġadmin ister
mk dir
Comp atible
ĠFe atures
Th omas
Inter pol
ĠNev ada
Ġappend ix
ĠO d
Ġview ers
is ch
ĠLeg al
Ġlett ing
with in
I J
Ġsp oken
ĠComm ander
US Y
ĠBe aut
Ġbr illi
hand lers
Ġjoint ly
F X
og ue
sp y
23 4
Ġ<!-- [
Ġiter ate
azel cast
W ater
append ix
ĠM s
Dis cussion
}\ |\
zer baij
ĠK ur
Ġkil omet
l ceil
\" {
pop over
om i
W ITH
for um
Ġo mit
sh ader
Mult ip
type Name
uck er
Ġemphas is
r ceil
Definition s
ĠT D
Ġreli ability
ĠF ly
Ġif f
Ġsupp ression
Ġm p
Ġg ard
ĠR S
Ð°Ð ´
IT ER
ĠC rown
ĠR L
Ġpair wise
ĠArch itecture
ĠM T
ich let
ĠOr ange
ag h
ĠB rew
AS K
Ġconnect s
v ision
M ULT
ad itional
Ġfile Name
ĠMont real
DB LP
bas is
b ird
Ġmem ories
ĠBro thers
ĠDiag nostic
H en
Ad just
back up
} ',
Ġcomplet eness
ĠC over
Ġsk etch
Ġcolon ial
Ġcomput ers
ta ken
Ġrat ings
ÑĨ Ð¸
PO SE
l ua
æĹ ¶
Ġex terior
ĠSt atic
Ġ( .
mu x
HAND LE
28 8
Inter op
Ġimm une
" \
Ġre nd
P AGE
Ġin cent
im en
ĠPh illi
resource GroupName
Ġrecommend ation
s sh
ĠMad rid
Ġbirth day
r ss
---------------------------------------------------------------- ----------
. {
Ġg ateway
ber ger
Ġdep ression
Ġlaw yers
Ġcontinu ation
Ag ain
ĠG B
Ġhyp ers
u cc
ĠF ine
ĠD elta
ib bean
ak ov
rec ip
Ġactiv ists
m otion
Ġexplos ion
Ġdown stream
Ġcontact s
var pi
u ates
Â »
x b
ĠP OST
Th ird
Ġbr acket
ro c
ĠF an
j ud
)} ]
M igration
F atal
}) +
pl ays
17 4
aut hent
ĠT amil
att ices
Install ation
vet ica
ric ulum
67 8
Ġas semb
d ynamics
Ġminor ity
Mix in
et ta
tr ip
Ġt ies
ĠT ensor
P LAY
or able
h aw
Ġsp ont
Ġz ones
Ġed u
PE G
DA O
Ġturbul ence
sup set
ĠB ot
Util ities
os lav
K B
ĠU E
Ex per
18 97
Ġverb ose
Ã© t
b eq
ir ts
Ġbe er
Ġphot ography
icult ural
act ing
Ġpreserv ing
ĠEn um
Ġag reements
id ays
comp any
go als
ĠFreder ick
m or
ĠBrig ade
Mar shaller
Ġcon fer
rev ision
Ġex tern
ĠDirect ory
Ġt ape
Ġgu ilty
ethe less
n v
ri el
)} +
ĠHigh er
L em
ve led
is ors
ur ious
Ġem bed
ĠÃ ī
Ġdiscr imination
Bo ard
ĠLi u
ĠY uk
ĠNe uro
ĠVi enna
( (\
ĠAl berta
/ :
Ġ ].
Ġ\ %
Ex act
. ')
}$ ~
S ta
| ,
~~~~~~~~ ~~~~~~~~
red is
Ġconf licts
Ġexec utor
border ed
D X
Ġpaint ed
n ets
Ġb ipart
Button s
ĠF light
c id
Ġbe an
Ġ' )
Mod ify
Ġc umulative
Ġon Click
Non null
constraint s
l ar
andid ates
F ixtures
Ġse aled
ĠWh ich
Ġdo i
Ġmob ility
Serial ized
× ľ
Ġt ract
ĠO il
Ġin complete
17 8
/ @
Ġl ap
om at
re comm
Ġauthor ized
Ġliter ally
Ġreported ly
Ġd ated
ink s
Ġmoment a
amer on
Cred it
D to
Get Type
ak u
equival ent
V K
ĠAnd re
ĠE L
ĠL ot
' }(
Ġball s
ĠMP s
Equ ation
Ġretriev al
Ġm ice
ĠP il
ĠB ond
n om
") ).
Ġ( ((
ĠK il
D ER
Ġcontrovers ial
R U
f ollowing
q r
ĠN ar
Ġform ulated
Ġcharg ing
IT S
ĠSp ot
perm alink
harm onic
cos h
Ġext rap
CT L
ĠScient ific
\ .
Ġ[ &
ĠThe me
Ġafore mentioned
ic it
Ġb unch
Ġdecl ined
ĠB ron
cel ona
Sever al
20 9
"> {
om o
Ġneutr inos
ĠKen ya
Ġpredict ive
ĠC le
ed e
Ġsure ly
hook rightarrow
Ġsynd rome
unit test
ãĤ ¹
ĠApp ly
Ġarch ae
G allery
hol m
T IM
ĠTh or
comm unity
TIME OUT
ĠT s
Ġip rot
Ġmiss ions
Ġescap ed
Ã ĥ
be it
ĠPer iod
ĠN ad
ok a
Ġten ant
Ġagric ulture
Ġt il
ï¼ ļ
get Parent
Direct ive
j j
Ġcross ed
), \\
co eff
Al location
@@ @@
ĠCheck s
Ġincred ible
Ġl ig
USE D
ĠU UID
ĠImp act
Europe an
em e
Ġmanufact urers
Ġh ierarchical
che l
({ },
- %
Japan ese
ĠSte el
ut a
DEF IN
L ou
VAR I
Att ach
ĠWrit ing
){ $
Ġh urt
! )
ĠMit chell
C ACHE
Ġe V
ĠSt and
Ġdr ives
}\, ,
ĠIn novation
ph on
Ġexp ans
ĠAssum ption
Ġcon form
ĠB rid
other apy
Ġmark ers
ĠAn imation
Lin ux
h on
ĠPark er
Ġp uzz
direct ive
AD DR
Ġh unt
Ġcom ed
other wise
Doc uments
ot ton
if le
f iction
uls ion
sin h
ĠN ord
Ġval ued
AB C
Ġcas ual
Ignore Case
Ġam id
Ġgraph ic
Ġthreat ened
\, $
ĠP ow
assum ption
ĠV K
Or Empty
ĠAl ert
BE GIN
Ġconf ident
hand ed
Ġwarr ant
m orph
Ġe ating
ĠLe ave
f ixture
work ing
Ġcl othing
Ġcell ular
Te X
Ġexist ed
my Item
t ou
Ð½ Ð¸
y outube
Ġal phabet
pos ing
anc ies
ĠGL uint
64 0
Ged mo
Ġdist ant
E G
Ġestim ating
comm ut
F re
\ ),
] _{\
uzz y
H I
)$ )
Ġcollect ing
Contin ue
acknow ledg
Ġswim ming
in ating
Ġf iring
Ġclaim ing
.\ ]
Ġrest oration
has Next
PS HOT
> ")
C U
Ġab ort
Ġsports people
sort ed
ĠCOP Y
it us
y ml
in tr
Ġp ace
st y
Ġ Ñĥ
Ġassoci ations
ĠB irmingham
MA IL
Ġuniqu eness
Ġmort ality
val s
f ro
ot hes
Ġd ub
ĉĉĉ ĠĠĠ
ĠUs ers
em in
Ġaccording ly
Thread s
Eval uation
ĠA ld
ĠH orn
Ġmillis econds
Ġenter prise
Ġa qu
Ġcom plain
ĠJ a
user Id
Ġconcent rated
ann ah
Log ical
Ġharm on
Ð Ĵ
Ġcon sequently
Ġpro tests
ĠU ri
ĠW u
aw ait
b ower
ol ine
}' $
term inal
fl are
ĠS occer
ĠF el
Ġ ĉĉ
Ġprepar ing
Ġinvert ible
P ur
Ġrele v
Ġb ol
Ġpl acing
ĠCa uchy
Prot os
inc inn
Ġcoast al
assert Raises
Ġlight ing
Ret ri
ĠB right
ĠR acing
18 98
Ġstreng ths
c riteria
Ġcon tributes
"> )</
or ia
ĠF ake
erm ont
17 2
For Key
res olver
Den ominator
Ġj oy
err anean
Th anks
List en
Ġengine ers
Mut ex
it ize
Ġparticip ant
spect rum
p index
work space
ĠEm pty
é ¡
pect ives
Ġv el
Ġen force
Ġpo les
vers ation
K ar
ĠLiter ature
Ġc ow
ĠC ox
Ġmon op
ĠSh a
uk a
Ġhom ology
ĠÐ½ Ð°
Ġconsc ious
AUT O
20 6
Ġloc omot
B ill
n othing
ann es
Cur ve
Ġle verage
ĠS ent
ev olution
CL UD
Ġpack ed
Ġhabit at
Ġc rown
Ġdel ight
ĠSe lection
40 3
% );
ob i
Ġdetermin ant
Ġev t
^ (
ĠV ancouver
Ġr ivers
Ch rome
ĠM is
Ġvis cosity
Ġdiv isions
h is
el m
Ġposs ession
Ġprem ium
ĠHawai i
$ ~\
ĠC arn
Ġover se
Ġemphas ize
CLUD ING
b az
SP H
ĠC row
, &
ink ing
Ġpra ised
Ġdep uty
ĠT IM
ĠPol itics
Ġm ilk
ĠSh ared
Ġc rop
Ġh ang
ĠJ oint
resh olds
W IDTH
Ġmaxim ize
New ton
ĠCh ampion
et ched
Ġl hs
her its
ef ault
fit ting
ĠC ensus
bass y
vir t
the o
}= -
Ġdemocr acy
Ġpred ecess
Byte String
Pr iv
ros so
STAT IC
eg ree
ĠM uch
"> .</
Tr im
ĠDist ribution
M Q
ĠRob in
Ġc ous
Ġs ugar
Ġray s
Ġs cheduling
ĠB UT
ific ant
ĠMark eting
dig it
C LE
S uffix
SY S
ĠH aving
final s
O VER
sp arse
zh ou
f req
Sp in
is co
Ch ina
dot ted
>{ @
ĠF P
el o
ĠE S
min imal
ĠStat istics
ig ue
Ġslow er
ups ilon
Ġdec ides
30 2
Writ able
ace ae
E mit
00 8
Ġlearn s
as se
effect s
S ensor
W ay
Ġres igned
Ġrob ots
j sp
Ġlib eral
ĠWay ne
ĠN P
Request ed
Ġperson ally
bl ast
ĠD ynamic
18 99
Out er
Ġfast est
ĠCommun ist
Ã¡ s
ĠField s
D am
Ġconserv ed
W il
incinn ati
Ġe ject
ĠR ick
') [
Doc s
ĠR av
ĠH unt
00 6
May be
ĠS EC
m und
ĠB asketball
k ill
Ġm ature
Ġh orses
opt er
E F
Con nections
As sum
cor ner
( ',
ĠDr agon
ĠColl ins
Ġcyl ind
). $
ĠPro to
Ġsurv iv
t ec
ĠBe ijing
================ ========
ĠEd it
B ank
Ġev olve
ĠAnt i
)) :
"> :
L ex
at ially
Ġw ounded
Ġbr ick
Ġinflu ential
ĠA G
Ġv ort
dec oder
power ed
cl osing
ah a
/ ?
ĠCarl os
( $\
C hen
= */
Ġab road
Ġtransl ations
Ġh ooks
Ġult imate
ĠV enezuel
ĠLegisl ative
Ġbon us
con cept
ĠCo hen
ĠT ournament
ĠK os
Ġad missible
Comput er
Ġe u
ace ut
Ġaffect ing
Ġt une
% ">
L ee
ĠR ud
Ġunder ground
exp licit
Ġh o
Ġfore ver
Ġf unny
d og
r vert
Al g
ĠĠĠĠĠĠĠĠĠĠĠĠĠĠĠĠĠĠĠĠĠĠĠĠĠĠĠĠĠĠĠĠ ĠĠĠĠĠĠĠĠĠĠĠĠĠĠĠĠ
Ġsearch Box
Ã³ w
ĠHash Set
ĠR ural
ĠCustom er
6 55
Î ³
LE ASE
ĠTurn er
Print f
Ġ è
Ġthink s
ĠV ent
ĠSy ria
Ġc odec
Ġal arm
ĠG reater
ĠH IV
CONT RO
Se ason
Ġcomplex es
Tool tip
ogen ic
h istogram
Text Box
LOC ATION
Ġcount ies
ĠClear ly
A MS
perm issions
Ġperturb ative
ĠUt ils
\% ,
v d
Id le
Ġphotograph s
Phys Rev
ĠG itHub
Ĺ ãģ
æį ®
CA SE
Ġs z
Ġreg imes
Ġtra iling
U X
ĠC e
dec ay
Ġcor rupt
arn ess
ĠðŁ ĳ
b os
iz ar
w so
âĢ¦ ]
ĠT rain
Ġsurpr ised
Ġform atted
ins pect
ro at
ĠP ictures
16 4
Or d
Char Field
Ġc v
}: \
ĠBen jamin
Grad ient
h ort
Es cape
Ġvolunte ers
aff ected
vert ices
45 6
ad ies
Em ploy
Ġ` --
ĠH ub
IDENT IFIER
Ġb uffers
Ġab ilities
r ates
Ġpass ive
Fr ank
ch ars
ph ony
Ġr am
IS H
Ġg em
in ar
char At
Ġins pection
ĠG las
c X
ĠJ azz
ĠUs age
Ġprint ing
hom epage
ĠAct or
m ers
h dr
Ġ= =====
ĠAl aska
i ov
us k
Ġprogress ive
host s
ra h
ä ¹
filter ed
s ess
position s
Ġwalk ed
L y
ĠT aking
W ed
Ġunder go
22 1
el rte
W elcome
att achment
Ġtrunc ated
id ually
Ġfra ctions
ĠL ex
Å Ħ
Ġsk i
Content Type
ĠSo ft
mar ine
ĠC arm
Null Exception
ĠCommission er
Spec ify
> {{
user Agent
Ġcor ruption
xx xx
Ġpo ison
Character Offset
× ¨
\ (
ro uting
Ġon set
}} -\
IN X
Ġimm igration
enn ial
ape ut
ĠBar bara
Y ES
ä ¼
Ġrecru it
t le
State Exception
Ġjust ify
ĠF ather
ĠB illy
Ġaddition ally
ogene ity
Ġd inner
Ġfix es
bas eline
il o
Ġbackground s
P ac
EN S
comp ress
ĠCol lect
op ath
insert ion
Ġfre ely
G Hz
Ġturbul ent
lic ial
ymph ony
Ġconst rain
ĠHung ary
= _
Ġun clear
B attery
Leg acy
ĠS TD
ov y
Work ing
GL uint
Ġdynam ically
G LAPI
Call ing
: ]
pl ating
Ġy esterday
ond e
ĠPlan ck
Ġcogn itive
ĠF ab
uss ia
i w
Ġqu art
é Ļ
ĠMe chan
Ġdefect s
W all
Ġdrink ing
R oles
ĠInt ent
M ad
p ause
ical s
ĠY am
Ġf ert
" ):
e eq
st orm
Ġoscill ation
Ġisol ation
as pect
dig est
J P
x si
Ġf ut
). \
ĠSh adow
ol er
Ġp arks
ew ay
f ive
A RE
Ġc ube
match er
Ġtreat ments
ĠJer usalem
Ġm oon
Ġ( âĢľ
ĠB ec
ins ula
ĠAr c
iff s
Ġabund ances
end ors
l ater
log ue
ov an
ens ely
so lete
Ġarg c
dat as
Ġload s
look ing
ĠB row
ond o
26 3
Ġann ually
Attr s
P eter
Dec or
Ġpredict s
e enth
Ġr pc
Ġcre ator
r ab
ĠB lo
Ġs ans
moz illa
en ium
} ''
Ġsp ell
ME DI
STRE AM
Ġde emed
amb ers
Ġmyst ery
Ġvo ices
ac ular
18 70
As String
ac re
ĠV ER
$ "
Ġcomb ines
lic h
LE T
ch anging
Ġsound track
ent e
Spec ific
Ġvirt ually
Ġinv ersion
ĠChar lotte
prom pt
ĠThe ore
Ġassert False
Ġcoun sel
bul k
loc ated
'] [
log s
Build ing
It alian
eval uate
Ġelev ation
G esture
Ġgr ateful
Ġp up
De leted
con taining
ĠIn stit
mat ched
Ġpush ing
Ġanaly zing
ĠE asy
ĠGL sizei
Ġco aching
w right
ast ery
ĠCh anges
ĠCl ar
Ġconduct ivity
V V
ĠSh are
C Y
Ġt ensors
get C
)$ ;
Ġwork space
ĠA str
Ġbut ter
match ing
n as
Ġd amping
ro ut
p ark
ad ers
per form
Ġatt ending
ĠRoman ia
Quant ity
Ġdis pers
r ass
ĠS ect
ĠSt even
Ġcol leges
Ġad option
Ġsusp ension
UNK NOWN
v iol
Ġsp y
ĠK ol
19 4
áĥ Ĳ
Re ception
Ġoppon ents
' ></
g as
Ġd rew
lat ex
6666 66
Ġless ons
ide a
Ġun c
F ILTER
n ick
ital ic
Ġfall back
rupted Exception
SNA PSHOT
Ġ} }</
amp a
Ġoffset s
Ġrom ance
ĠC el
P b
ĠS even
ul in
taint y
........ ........
p unct
ib us
Ġp ill
Ġb ij
ib e
ib lings
="# !"
net ty
P rior
F lex
** :
L G
ie u
Ġnewsp apers
K G
ad vert
ĠFl ag
Ġoutper forms
Ġpolar ized
Rich ard
r ub
pp y
æ Ń
on aut
ch r
Ġchar ity
_{\ {
Ġsubs idi
ĠH AVE
Ġ\ '
Ġreg isters
function al
Ġte a
ĠArray s
Ġsec ured
Ġ* **
f ork
the ir
Ġf id
Table Name
Ġpul ses
ĠP av
ĠSch w
Ġthir ty
Ġmed ic
sp lice
Ġafter wards
Ġdi et
ĠSal v
B IN
P ic
Ġsome how
ĠA bs
dd ot
br aska
rec ogn
Ġend l
no align
Ġsub stitution
ĠBroad way
k b
is se
verb atim
US A
ĠAuth ors
ps frag
inherit doc
em or
un s
ĠSh ang
Ġinvest ments
Ø§ ÙĦ
Ġvar s
ĠE sp
Ġl od
ĠPr ad
Ġorig ins
d ns
L IMIT
ĠC ould
ĠFile s
Ġhit ting
reg istration
"> @
Ġinc idents
rott le
fill draw
ĠAut om
Par allel
register ed
Ġinject ive
ĠT u
ĠM ER
sc ience
L ittle
Ġp it
Ġred shifts
/ ************************************************************************
Wh ich
Ġre written
ĠS ony
ĠCal endar
30 3
pm d
ĠGr an
ast ed
16 2
60 1
publish er
Ġstat istically
mark down
ĠC B
ap or
apl acian
Key words
reng th
V L
ĠW R
Ġtra its
ĠCoul omb
c ro
Ġt abs
act ivation
kn ow
Ġmodul o
apt ist
ĠA DD
ever se
vari ance
TR ACE
b ac
Ġlik ed
Ġking dom
ro utes
Ġac ute
Me V
20 7
render ing
App endix
ann ers
D ead
ĠN umer
Ġpl ug
Ġamb ient
ĠBe ing
ĠMet ropolitan
Al ready
). </
Te le
Ġmagn itudes
Ġalloc ate
M el
17 7
(( (
cept ors
IG H
ĠComp lete
Ġcomment ed
Tra its
Ġwood en
ex perimental
ĠC hel
Ġa ster
Ġpro l
ĠW orth
ĠR ugby
FH IR
ĠC rit
ĠI Enumerable
con e
Ġiniti atives
Ġb atter
D N
Ġprom ises
Cent ral
Pack ages
acef ul
E MPTY
s cheduler
ĠHel per
Key Value
condition al
Ġdef in
am o
l vert
Ġexpect s
Rep l
ĠJ oin
v ik
Ġche ap
s uggest
ag ain
Ġund ers
B IND
Get Value
ĠAust rian
ĠK in
18 95
f oundation
Ġmem orial
YY YY
v t
Ġw ings
Ġbi ke
Ġun a
"> {{
mod es
G it
ĠB B
Ġaddress ing
ĠP ra
her o
"> =</
ine e
ĠArt ist
m ob
Ġillustr ation
Ġ* =
Ġen emies
M u
Ġfor k
00 000
/ ,
Ġthe sis
us hes
Ġ{ (
ĠK ap
Ġdes erial
ĠPh arm
)\ |_{
With in
Ġbelief s
ass o
Ġfix ing
Ġport al
ĠG it
> *
Ġprov isions
Ġb is
hab ilit
spir acy
v ary
ĠJohn ny
ĠAl ban
he els
Ġdist ortion
R ing
ĠFig ures
Rem ark
ĠExec ution
c in
k ubernetes
Ã Ł
Ext ract
Ch ars
Ġem er
Ġs q
Ġin ches
tr uth
Ġprison ers
con sumer
C ENTER
Ġbe ams
Ġad equate
K M
ĠĠĠĠĠĠĠĠĠĠĠĠĠĠĠĠ ĠĠĠĠĠĠĠĠĊ
17 1
Ġiter ative
Ġbos ons
Ġswe ep
. ][]{
l iter
Ġt orsion
im ited
Ġs ke
Ġjo ins
Ġscatter ed
ĠFe ed
Ġtrust ed
ro bot
ĠC old
ĠR V
ster dam
ĠMult iple
Ġgeneral ize
ĠBar ry
zh ang
DE CL
ĠArab ia
ĠC ut
ĠJust in
P OL
Ġtarget ing
ch ip
Ġcons olid
Ġarrang ements
ĠS id
ĠCont ract
); \
rog ate
80 80
ĠT ed
int endo
be zier
40 5
photon ui
Ġau ction
CK S
Ġbenef icial
ĠH at
ĠDef ence
ĠS ad
Ġkit chen
Ġecc entric
)- (
Ġt orn
Ġmand atory
orange hill
orangehill dev
ĠIran ian
Scale Denominator
Ġ' --
l abeled
get User
min i
Ġround ed
Ġrelev ance
Ġhun ting
Ðµ Ðº
tensor flow
if s
min o
Ġinvestig ating
Ġgrap hene
Check Box
empl ar
Cor ollary
: $
ĠP el
class ification
å ·
f u
ĠF riends
Ġactress es
tr unc
ĠB order
itt en
Ġdel iber
prob ability
17 3
bootstrap cdn
ul o
Ġelse if
0 11
ĠExec ute
the ore
Ġtempor arily
s ampling
Ġmathemat ics
5 50
Ġut ter
|\ ,
^* _{
HO W
ĠConserv ative
Ġneg lected
Ġre interpret
ĠA SC
ĠMan hattan
ĠGi ants
Ġprob abilistic
ĠRef s
L int
Ġcomplement ary
8 75
Ġ" \"
, âĢĻ
Ġst uck
Tw itter
Ġin ventory
at trib
ĠDen ver
P ART
ĠH ER
ĠA w
Ġout going
Ġimp rison
ĠBl ues
Ġinfra red
ĠN BC
Ġdig est
Sh utdown
Ġnorm s
Ġsophistic ated
ĠChrist ians
OUT PUT
Ġw elfare
ĠVin cent
At Index
Incre ment
doc utils
ĠS outheast
Ġmain stream
or ption
man ual
Ġb ull
d ied
urs es
Ġm appings
LE X
)) ^
Q A
ĠF leet
) _\
account s
Ġdead line
Ġopin ions
Ġpro ximity
18 2
Ġes lint
ĠCre ative
Re peat
Ġcross es
Ġcon cludes
DIS ABLE
ĠSe an
it he
)} }\
Ġscient ist
m other
stat istics
Ġb anned
Ġloc als
sc apes
Ġadv ances
Mar shal
F und
ĠDefault s
ap on
AN Y
LA ST
Ġb rew
ĠC LI
ov ich
DE SCRIPT
ra f
ĠNov a
F acebook
ĠInd ians
ĠCar ibbean
Ġtra pped
path y
Ġrev ised
Fin ish
H AS
umb ent
ĠV oice
ĠTre as
Ġt m
Ill uminate
Ġun s
dec om
ĠIn surance
Ġsp iral
Action Bar
Ġche st
j vm
Match ers
x d
Ġcon gr
ĠG M
1 200
al most
Ġdec k
Ġref ere
Con trib
Ġl oud
el ing
ĠStr ategy
Ġrail road
ĠE mber
Ġsat uration
Ġauthor ization
Dep artment
} --\
| <
Pat ient
\ ",
Ġexcit ations
Ġabb rev
r idden
Ġinv ocation
¼ </
ing ers
ĠÃ ¢
B at
Ġfollow ers
ent i
COMM AND
ĠðŁĳ ¼</
Ġf printf
ĠInd ustrial
Ð» Ð¸
ĠMuslim s
a ph
ĠV eter
=" .
we i
xi ety
ham mad
C AR
erv ing
parse Int
ĠF u
Ġvic inity
LOB AL
' }}
ĠM ason
out line
Ġhe ll
C os
å ¾
Ġob sc
Ġt idal
Ġc line
H ierarchy
b w
Ġcounter parts
Ġinject ed
ĠS ustain
ĠIn iti
Ġun used
Ġtool tip
sh own
Is ra
ĠCirc le
o S
@ {\
Ġmagnet ization
T aking
Ġg ross
Ġag enda
Ġaut omorphism
Ġprev ents
W P
n z
Ġj ew
GL enum
ĠRober ts
Ġdissip ation
Sh ard
num bers
SY STEM
è¡ Į
ri en
ĠD raft
fe ction
Ġda ughters
Ġd rain
ĠOl iver
Ġf li
Un supported
ĠGener ation
Pres ident
Ġcontrovers y
S olution
18 96
AP H
}: =\
Ġimportant ly
Ġbatt les
ĠAl loc
Ġmot ions
C ycle
Ġfr iction
riz ation
Ġspectro scopic
ĠNorm an
H aving
ĠT es
all Errs
Play ers
Ġl ag
ĠL ost
Ġdiscuss ing
Ġanomal ous
}) }{\
Ġvol atile
s elling
ĠD P
Ġcompr ises
Ġpoor ly
Ġan ime
L B
rece ive
Ġass ass
M acro
Ġ$ ^
ĠL oss
="@ {
Lay ers
Project s
ĠN icol
Ġs la
In herited
") ),
ier ra
RE L
Ġaut onomous
Ġch ances
ĠK ay
Ġdepart ments
- {\
Ġt ap
iz za
ĠC ub
H i
ĠS PI
make box
Î ¯
Con d
Ġdif fe
re start
Ġt ear
Tra ining
Ġ} _{
Ġvent ure
jav adoc
Ġphil osoph
ĠJ oy
c ub
imp lies
st ad
ĠSer ge
Ġj ournals
Ġeng aging
ĠI da
s uffix
Integ ration
M IC
utr ition
ĠBuff alo
s low
ch apter
Ġir regular
"> [
ĠCons ult
Ġveter an
Est im
B on
7 20
ĠLa ura
ĠFl ore
f lip
Ġsee ks
p ane
Ġh oping
ĠS eq
ĠM N
TH ON
}^{ *
J ournal
Ġproceed s
Ġdraw s
ĠP I
Ġun ve
Ġspl its
rece iver
ĠRiemann ian
Ġle an
ĠW ing
sw ith
eler ation
Lear ning
hip s
>: <
h ooks
Build ings
Ġlaw suit
;" |
ym orph
ak ar
Ġcom ics
Ġapprec iate
ur c
ĠU TF
Ġl iver
Ġ" #{
ì Ŀ
}, $
col lections
he size
ĠB og
Ġc ock
Ġatt itude
B ooks
row ing
Ġm os
ĠP aint
ĠShe l
sl ides
Ġacceler ated
> }
J ew
Ġmodul us
am y
Ġ[ `
da o
ĠM all
Ġcert ified
ĠSt ra
Op acity
sh im
Ġdyn asty
Ġsub groups
ach i
AT O
Ġmin us
get Int
ĠHy per
ĠHung arian
Tr ansp
ME TA
0 22
rob ust
Heading Color
AL LOW
Ġ'/ '
ow ards
pro jection
ĠPhys ical
Ġh r
Ä Ľ
inter pol
Ġconstit uency
Mon o
Ġeg gs
ĠB in
Ġ& -
Ð» Ñı
T own
Ġnom inal
Ġex iting
Ġst er
Job s
Ġmetall ic
transp arent
ĠS ources
st ars
end um
ĠBar celona
Und efined
ĠKar l
d ifference
exp ress
Ġch ron
ĠReyn olds
Ġmist ake
LO T
Ġinf ect
Ġc inema
rosso ver
N ear
Ex perimental
Sc anner
ĠId entity
sh ops
Ġtr acing
Ġexec uting
w at
é Ĺ
17 9
Ġd ans
Cl osure
h or
Ġcor pus
W ER
ĠB orel
B V
Ġv a
raw ler
ne ighbor
ĠM ans
Ġpresent ing
Ġas ynchronous
nt hesis
Ġsp anning
Ġestim ators
ĠMax well
e er
Ġlab our
cr umb
Ġw rest
}\, .
Rect angle
Ġpath way
L azy
aj a
Ġcont ours
alloc ate
:: ~
ĠCra ig
form atter
ou x
ĠAl ong
tim ing
Ġaccommod ate
Ġpre vention
++ ]
Ġb less
work flow
Ġoff ense
asc ii
ĠAp pe
Ġinfe ctions
g ms
Ø ²
Ġentreprene ur
IF ICATION
Ġlux ury
Ð ŀ
ĠB ug
to Array
US H
Ġroll ing
Ġl ingu
Ġper ceived
is en
ost ream
parent s
T oo
class Frame
D ump
ĠM asters
Ġfib ers
initial ized
s chool
ex istence
Ġburn ing
ther mal
Ġm eg
ĠB orn
la zy
Ð°Ð ²
! }
Ġqual ifying
View er
18 9
ĠK ids
2 15
3 10
ĠK er
Ġqu ad
imit ives
' }{
e asy
Exp atriate
Ġr iding
imp ro
ve ction
Ġref ined
fe at
G overnment
ĠGu inea
ĠC BS
Ġresource GroupName
K im
M ur
ĠV ik
Ġman ages
Tr ust
ĠMed it
focus ed
Foreign Key
ash a
rist ol
Pol itical
ĠEag les
v ac
Ġarr ives
ĠCo al
author ized
z ens
ep oint
________ ________
19 6
G ap
ĠCall back
Ġconvers ations
Ġrad ar
e ah
R DF
FI X
dist ributed
Ġaccompany ing
ass er
id ency
ep he
N i
all ing
Ġexp ense
Rem oved
ow l
>. <
Ġoscill ator
Ġcle ared
F K
Ġstat istic
nu cle
Un o
Sort ed
Ð Ŀ
sk in
Ġ? ?
UB LE
incor porated
Ġvisual ization
um m
start sWith
y t
Ġro ster
m aml
V ersions
ins ky
) ]{
p aint
Ġnot ifications
al gebras
g pu
r ases
ĠR uby
ish ops
k j
v dash
' _{\
ĠL oop
ĠRE G
Trans late
Sp acing
thumb nail
N AL
ad vant
Result Set
Ad s
l bl
cel and
chrom ium
Ġn u
Ġdimension less
ĠF if
ij i
j peg
COL UMN
op edia
Ġsimultane ous
Ġ[ ])
ah l
S ong
rs quo
ore st
ĠU nd
proport ion
E lect
K O
ĠEx cell
N M
ĠOpt im
Ġaccompl ished
Ġp unct
To Array
Imp licit
> ".
Ġn umpy
23 3
um i
Ġ( &
Ġprom ot
ĠTerm s
~ &
sat z
Hash Code
Ġnorth west
{- }
Ġexhib ited
illa ume
y i
ï ¸
al am
Dis pose
Index Of
over rightarrow
ĠO PT
ĠB SD
imp licit
Ġsem igroup
comput ed
Ġconf used
Ġindiv idually
Ġox id
D s
ĠB ear
Ġh op
pr ises
hard ware
ĠBet ter
18 93
ah oo
y u
| }\
Ġres ize
ĠUn ity
Ġe leg
16 1
Ġcoal ition
sequ ential
P IN
ĠDis covery
C as
Pl ugins
Ġearth qu
Ġcol ours
align ment
Ġ... ,
18 88
Pol ygon
Ġcon vey
ĠCh at
ret ty
ĠB ird
Ġtour ism
E OF
Ind ia
Ġ($ (
PRE C
å ¸
ĠEl li
Ġh i
) ");
ĠT on
ĠF itz
/* .
transl ated
ĠProp Types
C pp
18 92
Ġreason ably
ĠK ate
e i
ĠS cale
Comp ile
cours es
table block
F old
ec raft
valid ators
Ġown s
St amp
ĠStr ateg
L ondon
P V
Ġt rem
ĠS equence
Am ong
Ġp kg
ab ar
Ġcatalog ue
c ies
Ġr h
Ġpl ates
Ġdifferent iable
ĠL uther
Ġdrop down
3 80
Ġt ent
un wrap
^* )
} ')
y ield
Y LE
w ig
ur st
ĠA aron
Ġsh ore
Ġfavour ite
g ie
contrib uted
ĠNetwork s
dec re
18 89
M il
Ġt ale
IN CLUDE
Ġc ave
ĠCh a
Ġvacc ines
Ġen compass
Ġcult ures
Ġnot ations
ili ation
B uffers
æ Į
ĠV ec
Ġdis pute
ĠNaz i
ĠL ithuan
DE SC
ĠMon itor
ĠB achelor
IT EM
im on
Ġstr ide
Ġtim eline
Ġgold en
Value Type
Ġp ec
\ `
ĠRail road
| .
}{ .
Ġch rome
ĠAd S
ĠV ery
Ġrandom ized
C OR
ĠR isk
ĠEx ternal
Ġaccompl ish
}$ };
H ouse
Q Name
ĠMin i
struct ured
rans late
è §
process ed
W C
d ip
comb ination
Ġ========= =
Å Ľ
ĠTest ing
ĠGh ana
t ies
18 85
akes pe
Ġcomp utes
Hy per
ĠPier re
o ys
Ġind igenous
Ġimplicit ly
ĠK i
Class ification
( _.
ĠE lection
PO M
ĠHarr ison
Ġas ymmetric
St udio
)\ )
ĠRe le
al ter
Ġarchitect ural
ef an
ĠG NU
27 5
ant om
ĠBer keley
ATTRIBU TE
O Auth
k ers
pp le
ĠR angers
Ġess ay
ĠAlex and
Ġquant ify
stud y
ĠI B
comp ressed
Car A
ĠM M
DEF INE
al ia
Ġd c
fo od
18 60
ent ine
ur face
Ġsur f
ET A
Ġpen et
Th umb
Ġrecip ients
Ġshort est
ĠCon sumer
ãĥ Ī
tz mann
F G
an che
il ia
ĠC ant
ĠM AC
raw l
ĠJos Ã©
Ġcon dem
R oll
dr ive
ot yp
Ġaltern atives
Track ing
ĠK el
Ġad iab
Ġl oves
> ?
ĠF iction
fore ign
hib ition
Ġres ume
Ġdepart Speed
/ </
st reet
16 3
x FF
it ual
m iral
D roid
Ġ" *
Ġget ter
Ġclip board
ra ke
F requency
Ã ī
ĠC ob
ĠM ouse
18 4
RE MO
ĠSpr ings
ĠP UR
GR AM
dev ices
SPH INX
Ġm b
Ġassign ments
over e
level s
and as
ĠPo inter
R X
., ][]{
Ġcritic ized
calcul ate
æ Ģ
Ġmanip ulation
Ġc ust
Ġco pper
get Node
Ġaud iences
atern al
^^^^ ^^^^
ĠM ade
EX TERN
o ons
b is
ĠK rist
Ġbank ing
ĠAthlet ic
ĠB arr
ĠJ erry
er ious
ĠA CT
ĠThrow able
ĠA zerbaij
ĠF ollow
) `
l ant
C ov
Ġtra iler
Log ic
Se ek
ĠS ob
... ,
Fl at
ĠID s
anish ing
Ġqual ify
un set
ĠAn imal
Instance State
Address es
S ep
ra ining
const rained
Exp licit
Prop agation
Ġconfirm ation
FAIL URE
Ġb if
Ġcompet itors
j as
akespe are
Ġlink ing
Ġdel ays
ĠClin ical
s ensor
in ja
ĠS ex
ĠC ad
] "
Â Ń
ĠâĢ ł
Ġconstit u
ĠC ome
ĠM ask
Ġ' *
SC A
Rel ationship
ray s
ĠArab ic
ĠFI FA
+ }
Ġpo ems
Ġsubstr ate
Ġf ires
ene ath
Ġpop up
alt ies
ep och
ĠPrad esh
APIENTRY P
on ian
Off ice
Ġinfin itely
Ġrenormal ization
Ġcont raction
Ġo m
Ġpeak ed
(" {
å ¹
Ġmag azines
S el
Act ual
-- ">
bl ur
l v
Ġsp atially
Con cept
air y
Gr ant
ĠLead ership
Ġdir ty
ĠCirc uit
m essaging
pro posal
Ġr hythm
Ġh ab
ĠV lad
iv ic
im i
ĠB urg
Ġ% (
Ġshe af
è¦ ģ
Ġmet abol
Ġbar riers
ac s
Ġmain tains
ĠQu arter
D H
att ers
Ġpremier ed
Ġpro x
ĠMe eting
å Ģ
ĠB ir
Ġsh ield
w c
ĠW IN
w m
ari ant
D TO
Ġpick s
ST AR
ĠSa fe
Ġdiscrep ancy
T B
. }}
Ġvir al
ĠMon o
Ġmer chant
B roadcast
output s
Ġcor por
Assert ion
Ġor al
Ġassess ed
| $.
Ġpoll ution
ell ers
30 8
HE LP
ĠMor ning
ĠAgain st
Ġfro zen
re cent
Ch annels
Ġs hed
Ġnew er
ull ivan
Ġpre mi
Ġintegr able
]] ></
Ġ Ùħ
ĠB aby
comp letion
Ġsw itched
Str ict
Rec on
Ġabsor bed
ine q
Ġsustain ability
ad joint
ĠCo ach
Ġ{ ?}
Ġdis put
Ġp ause
Ġ_ ("
Ġcompos ers
Ġconduct ing
ĠMax imum
er ce
Ġsub stance
ĠV el
us b
ĠM ong
Ġ' ');
] ],
b right
ĠF unc
Out Of
}), \
ĠUp dates
ĠStr ong
LI ED
OB J
ĠSus an
P ager
Ġevery day
d B
ĠP le
ĠG em
ĠUp dated
http Request
Lear n
18 91
bra ins
P t
by e
ĠFl ash
Ġaud it
- "
R B
Ġenc rypt
Ġconv icted
Ð ¶
ut ility
ĠQu ick
ãĤ ĭ
È Ļ
Ġhypot heses
23 8
ĠMe asure
ĠCat hedral
pro files
ĠAUT H
Ġle pton
Ġu id
W arn
Ġprov incial
.\ ,\
Dev ices
Ġst olen
Ġsurv iving
part icles
ĠQ R
land o
ĠMedit erranean
C urrency
P ing
S PI
ĠCh and
urren ces
ĠQ uality
ack er
Ġspread ing
* {\
4 20
ĠN L
Http Servlet
v id
Con str
ĠR ico
sh rink
r ont
ĠAd min
Ġfoot age
Ġcelebr ation
, $$
ĠM es
und a
C u
ĠSk ip
Ġrock s
Mag ick
c ategor
e ing
Ġw eren
Dist rict
Ġion ization
ĠS ame
18 3
Ġcompos itions
Ġwavelength s
Ġover lay
Ġt ens
ĠR ules
ta king
Ġwe ird
ĠS PE
Ġhand ed
Ġdoll ar
Ġen orm
23 1
ĠWork ers
ĠQuant um
st own
Ġsepar ator
Ġev ac
R ock
S ING
Pi pe
2 14
ep ler
al ong
Ġag gressive
Ġb a
libr aries
Ġalter ed
L atest
Ġt ons
Ġappro ached
Ġprom ised
M gr
Ġm amm
y ang
ĠAPI s
+ ,
Ġf t
U id
22 3
ass ignment
Ġprior i
triangle q
ĠPack ages
Ġoccas ions
Ġreg ret
Ġbo ards
int rodu
E A
Ġfan tastic
J MS
Ġr ice
light s
omb re
P referred
Pos itions
M Hz
set Property
ĠWik ipedia
ĠS ongs
ĠRem ember
sen al
M otion
Ġact ed
32 1
en es
ĠW riter
ok emon
au kee
W L
ac i
ĠGlas gow
I ts
ĠL if
Ġide als
S equ
AR M
At om
ar an
Diag ram
dis cussion
Dir ty
has Class
ĠLear n
)) ]
search Box
icip ants
}$ \\
ĠAgr iculture
so ftware
col our
View port
Ġra ises
per f
sem i
Ġscholar ship
26 5
Ð° ÑĢ
dec imal
ĠDer by
is EqualTo
Ġte lescope
node Type
un ov
norm als
Ġsal ary
R V
Ġgl uon
PHP Excel
er ase
Ġl oose
ir q
ĠAll ah
Ġrevers ed
6 50
ĠS amsung
scal ed
rm k
Med al
Ġpr icing
Ġmed ieval
Ġview port
Ġmerg ing
' ')
ĠPr im
conver gence
E u
ol ly
ĠP la
ron es
ĠTechn ologies
N B
ta wa
Ġfight er
Ġ{} ",
Ġconcept ual
25 4
Ġsh ops
Ġsuccess ive
Ġconstit ute
Im m
ĠGa uss
C am
ĠL ik
Ġshould er
Ġmon omial
Ext ent
ĠS ort
ĠL S
ole v
ĠMil an
ult an
Ġqu otes
Ġo ps
ind a
h istor
Ġ" __
ĠE state
ĠO B
N LS
ten ant
Ġtimes cale
ĠSQL Exception
L ANG
writ ers
ĠG EN
get Path
ĠSh op
ĠPol l
^+ (
ĠCommun ication
arc sec
ĉĉĉ čĊ
scal atest
Ġvacc ination
Ġr ated
Call able
ĠK irk
ĠÎ ¼
Ġres il
Ġ[] *
Ġserial ize
ĠReview s
U IT
j om
ĠS ans
ĠG arc
) }}{
Aggreg ate
ĠG rey
Ġun ified
Ġbit map
ĠBeng al
Ñ į
IT NESS
ĠL ength
Ġpron ounced
ĠJ ar
ĠEgypt ian
rele ases
t ier
Ġt ours
18 94
Ġ" ../
EX CEPT
enc rypted
l ucene
Ġin ev
Ġdon ated
Ġcred ited
Ġafford able
J oint
ĉĉĉ Ġ
Buffer ed
Ġlegisl ative
Ġre finement
Ġcl othes
V elocity
Ġsh ader
ĠEd wards
Ġdoub les
ç ī
Ġo d
Spec ification
ĠRel ations
m h
Ġkinem atic
Ġb ishop
Ġancest or
g d
ĠL ud
tr ac
Gener ation
Ġ ub
pro duc
3 40
Ġr ab
Ġmatch er
ĠÂ ±
Ġtheore ms
get All
subNav List
St roke
Ġret ro
Ð°ÑĤ ÑĮ
Ġon mouse
prov iders
Ġanalog ue
Ġor b
ĠPro b
ĠFr ances
Q C
k el
iv ially
Ġpsych ological
iev e
Ġfinal s
Bind ings
A st
Hash Set
Ġc argo
ited efault
ĠSol utions
J im
Ġspeak s
h all
Ġdiff use
as ia
Enc ryption
ĠC incinnati
ĠG ov
ĠBan ach
Americ a
mc itedefault
Ġreson ances
â Ĩ
inter est
th lete
ocol ate
Ġcount ed
ĠGener ator
le igh
ĠN g
ĠB eyond
Con vention
IS A
Ġgener a
At omic
97 8
Ġpet ition
te in
BY TE
W hether
{ #
ĠC amera
ĠC MD
ĠM otion
Ġbrid ges
Ġdes irable
Ġc ad
un is
ĠDr iver
Ġanten na
g ot
ĠCost a
H istogram
K w
el if
In ventory
Fat alf
roll ing
=' #
Ġanisot ropy
b ie
Ġpol ygon
P ick
c rypt
Ġ ë
Ġg ri
ĠW idget
Ġinc idence
model Version
M AT
Ġx hr
ĠN ak
B et
Ġind oor
Ġpre st
IN TEGER
ts a
Ġcent res
ĠC MB
Real m
ĠOrth odox
F ort
re pl
Ġre open
Ġsever ity
ĠA round
ĠNe braska
pre ced
22 8
G W
w ml
Ġmass less
ĠÐ¿ ÑĢ
stud ent
ari ans
Ext ractor
G reat
PI X
ĠConst ants
Ġattack er
anc ers
Ġv iable
node Name
ĠEl se
Ġacknowled ges
Ġrep lication
Ġnom ination
Ġpract ition
ĠTrans fer
get Item
- )
sup ers
E con
z ig
at ility
Un icode
Ġoverl apping
ĠG onz
cri bers
Ġutil izing
Ġo l
pe st
ov ak
Ġvalid ator
Ġphys ician
add y
Ġseem ingly
åı ¯
ĠL ate
Ġcheck point
U k
v x
Ġcon ce
Ġgather ing
im uth
ĠEnter prise
Publish er
19 1
OPT ION
F ault
sh utdown
(' _
l Vert
un til
Ġ' :
Ġlabel led
clean up
H op
w ifi
ĠD yn
Ġmar ry
åĲ į
ĠStan ford
assert That
Ġsens ing
ĠK id
^* $.
Ġo w
âĢ¦ .
ill ation
Ġmon ument
Is Valid
os phere
ĠE ug
ĠAm sterdam
Ġelev ated
Ġm arch
Ġnot ranslate
ĠWeek ly
Des criptors
avor ite
graph s
Ġsp rintf
30 5
Sw ap
Ġped est
Lif ecycle
im an
b k
ĠR ET
x hr
Ġdis orders
pur ple
Ġexec ut
D MA
st raction
pr ising
Ġrel ates
fol k
H u
Ġcor ollary
ort on
IM ARY
clip se
he e
ĠE ston
Fl ash
Ġ{ !
Ġinter cept
Ġep ic
Ġfiction al
ĠTransport ation
s af
ĠC ris
Ġnon negative
Pl ane
Ġsouth west
L ove
Ġt ier
P rel
f eld
Ġa pert
ut ations
Ġaugment ed
ĠR oll
io x
ï¸ ı
con struction
Ġsubt le
Ġgroup ed
P ag
ing ale
Ġn ose
sp ons
Ġcoll apsed
Inter faces
ĠH lo
Ġback ed
Call s
Ġreson ant
3 45
T er
Ġexp enses
Ġnow rap
}= -\
Ġsav ings
ĠSch r
Ġcard inality
M ah
\ },\
Ġbr ackets
pred icate
S ibling
T our
ue z
ĠProduct s
b io
w r
Ġb ills
k v
Ġs addle
Ã¶ r
WIN DO
pen se
m el
Ġnav al
BO X
ĠDise ase
d ie
å ī
Ġs ax
ĠReg Exp
Ġpredict ing
ĠF BI
w aukee
ĠD iamond
Ġp ressed
18 1
Ġdes ktop
Rail way
f name
pr im
ĠS ax
ĠMad ison
on er
SE CON
roll ment
Ġkey words
Qu ote
Ġre use
sur vey
ĠColon el
ĠD L
ĠPar ser
åĬ ł
ĠT ools
IP v
Ġdeb uted
Ġg lyphicon
2 17
Ġparamet ric
$ _\
d oxygen
Co ordinate
ĠGr ace
Cor rect
r df
in el
eck o
**************** ********
Ġphot ometry
ĠG olf
Ġbur den
K ER
he nd
ĠM ari
ynam ical
Ġside bar
Ġbar rel
itro gen
Ġe ighth
18 50
pre ttify
ĠCh i
ĠMont ana
Initial izer
ĠE ST
e lectric
Ġanaly tics
ĠCour se
Ġtalk ed
Ġm ad
#### #
Ġavoid ing
Ġinn oc
è¡ ¨
ĠP resent
Ġdream s
5 37
Ġfol ks
ĠGr ade
Ġinsert ion
D ifferent
ac ency
s ided
or ious
Ġam et
c ould
z c
Num bers
observ ed
int roduction
æĪ Ĳ
z yn
Ġmut ations
ĠCl iff
Ġup stream
22 9
ĠBel ow
Ġhon our
ĠNav igation
Vill ages
mock ito
ram id
Ġget Name
h ls
ĠV as
æĸ ¹
Ġspons ored
å Ŀ
ĠC lay
r age
3 25
H amilton
c oupling
j ab
pe ak
ĠCr icket
Ġd ialect
Ġdef ending
der ived
reg ression
ENT S
Ã Ĥ
ĠMur phy
Ġv endor
Ind ent
c annot
Ġwork shop
ĠP enn
Ġr ally
ĠDemocr at
ĠNichol as
ĠTig ers
Ġre wards
ĠL isa
ĠW restling
Ġexplain ing
Ġst reak
fra id
I OR
Con serv
ug oslav
ĠYork shire
iz a
Sp anish
ic acy
us a
Ġa est
big cap
Ġsupp lement
Ġhar ass
al an
}} }(
Char les
s ix
ĠAb u
```` ````
\% .
Ġhard ly
N d
Ã§ a
C y
ps y
ĠA PP
ĠR A
Ġthrow ing
Ġas h
Ġstar red
list eners
Web View
SV G
=-=- =-=-
Ġdes per
Ġtermin ated
n th
ex clusion
Ġj ury
Ġaccept ing
behav iors
il io
æ ģ
Ġt iles
Ġdest ruct
l hs
p ym
Ġst iff
J ose
ol ia
ĠT ang
target s
g ateway
ag le
Ġres cal
ra ils
ref s
Con current
ĠUS D
m itt
re pos
ACT IVE
Br and
conn ector
att ention
ĠRich mond
ĠLu ke
ĠF ace
Ġcontroll ers
ĠEth iop
ĠPre vious
S ho
Ġorgan ised
at ra
cont rollers
play ing
ĠMet adata
ĠOtt oman
H old
r ise
ĠL ED
ĠRE ST
Ġdomin ate
ben chmark
âĢ ¯
Byte Buffer
+ {\
Ġge o
ĠWat son
Ġconf ined
ĠKe ith
Ġnot ions
ĠDir ichlet
Analy zer
integ ral
Ġsuperconduct ing
Ġsepar able
it ored
et e
ĠU int
}' _
ĉ ĠĊ
ĠS FR
St ock
depend ence
SET T
oc co
ai ro
RO WS
eg an
Ġdeliver ing
;\;\ ;\;\
macro def
Ġcapt uring
ĠSc i
Ġavoid ed
Ġtra veled
U uid
ĠC uba
ud ge
C AN
Ġd os
ig ion
ĠC ertificate
ĠĠĠĠĠĠĠĠĠĠĠĠĠĠĠĠĠĠĠĠĠĠĠĠĠĠĠĠĠĠĠĠ ĠĠĠĠĠĠĠĠĠĠĠĠĠĠĠĠĠ
Ġf aint
ĠSpec ifies
ĠQue ue
agon ist
Ġlift ed
18 6
Ġcirc uits
Ġanaly tically
Le ague
ator ies
Ġp as
PI C
Ġindic ation
null able
rec ation
ĠBut ler
amb le
set Name
N othing
Ġt uned
en za
Ġminim ization
Inf os
ĠGuard ian
ĠEmer gency
D ifference
Ù ĥ
Ġbeh ave
ag i
ĠI van
Ġcent r
D ocker
Con struction
Ġrelax ed
Ġtom orrow
ĉ ĠĠĠĠĠĠĠĠĠ
Ġinternal ly
et able
Ġst ays
Ġemail s
18 65
Inst ant
Ġloc ate
r hs
Ġj umps
Ġl p
ĠC elebr
Ġint elligent
tem poral
] ):
ish a
ĠM aps
ĠWar ner
U ng
p lex
Ġis o
up id
Ġby pass
H K
mar shall
d ed
Ġt anks
Ġqu it
Ġbe ating
ĠB ass
Aggreg ation
RE SOURCE
Ġdram atically
Ġm anga
Ġv in
ĠL ux
add All
Ġph ones
Ġclass ify
mod ern
Ġansw ered
ix on
table Name
ĠE ld
ĠCon n
Ġsp ir
22 6
bal anced
FORE ACH
ĠColomb ia
C rypto
ĠS alt
serv ers
C ES
ĠPalest inian
openc v
ĠB atch
Rec ently
Tem plates
m ile
30 6
des ktop
Ġfil med
Ġ ------------------------------------------------
ĠA U
ĠE u
Ġst mt
]{ $
Ġstrugg ling
in ely
ĠR ate
ĠL ion
Ġele ven
Ġad mission
Ġfaith ful
Ġ' ;
STO RE
Un install
Ġdis connect
Ġip ut
Bal ancer
Res pons
ĠInvest ment
g age
en os
t uning
Bit coin
ĠH ubble
Ġdesign ing
ĠAnt ar
s ites
ĠL ooks
22 7
Ġrec urrent
Ġpres cription
g auge
ĠV A
V an
W ave
26 2
Ð½ Ð°
S ir
c ott
Ġp ounds
Config s
)}\ \
ĠLar ry
Ġbacter ia
B UT
ĠH udson
ĠV ision
Adv anced
Gr and
ĠL an
Aud it
n ut
ĠB und
ĠConserv ation
ml abel
act ed
Ġstrong est
Ġprevent ing
Ġk pc
skip Nav
æķ° æį®
Ġl d
Ġbul let
ĠM ine
Ġcitiz en
Ġvar char
Ġp d
Ġemploy ing
NN s
estab lish
S IG
In side
}^{ -\
Ġfil tration
Ġant is
A ware
Ġal le
ancell or
ĠT erry
- .
Ġdu o
Ġanticip ated
Ġj ail
{- .
Ġs quee
Ġatt raction
ĠBu ilt
Ġ ----------------
24 8
Ġsort ing
ĠC ameron
xx x
PRE SS
pattern s
Ġfor um
Ġhe uristic
[ ^
ĠS IGN
Ġ"/ "
I LL
p ager
Ġfore ground
Tag ged
Ġstock s
S aint
Ġnegot iations
B inder
ack ing
Ch inese
Ġrele g
W at
ĠB omb
e al
(" ");
Ġun icode
ĠFil ms
ĠMaterial s
Ġsur jective
cons istency
reg ions
Code Attribute
ĠG URL
Ġprotect ing
Through out
ke V
Ġsc iences
ĠComp etition
ĠCh oice
Th ank
An onymous
Ġem p
mag n
ĠH alf
}} [
ĠSh aw
Ġ' __
B ern
Dig ital
M EN
ĠJ ama
d os
ex periment
bi ased
Bound ing
. ">
ĠS ED
em b
log y
rele ased
Ġd p
F OS
ĠB our
type NameLink
Ġac ids
ĠAthlet ics
ĠR achel
ĠInd igenous
Ġwidth s
Ġmorph isms
Ġsh aped
BUILD DIR
Ġspectro scopy
em ption
Ġ{ &
ĠUn supported
Target s
ĠF lo
Inter action
23 7
Ġimm igrants
Ġprec ip
syn opsis
ĠCamp us
ĠEvery thing
ĠR s
Ġdiscuss es
it ic
Ġviol ations
al ib
Ġc trl
ert on
Ġdemonstr ation
Ġcontrib utors
Bl ank
Ġr he
Ap ache
æĸ °
ĠP ool
ĠĠĠĠĠĠĠĠĠĠĠĠĠĠĠĠĠĠĠĠĠĠĠĠĠĠĠĠĠĠĠĠ ĠĠĠĠĠĠĠĠĠĠĠĠĠĠĠĠĠĠĠĠĠĠĠĠĠĠĠ
Ġvol can
CUR RENT
ä¸ ĭ
track s
Ġecon omics
ĠPlan et
ĠMu hammad
Dr ive
Ġsymbol ic
INTER NAL
ist ro
Ġ' \\
J ar
g able
im ap
s ynchron
ĠTh under
Ġdirect ories
Ġlo ans
ĠCla im
ĠJenn ifer
ast ing
ord ion
ĠSu z
sing ular
send coins
Ġtranslate Y
Ġgenu ine
L oss
h im
ĠR G
Ġr gb
Ġhuman ity
ĠB ootstrap
ĠE R
Ġch ap
Ġmonot one
Ġdemand ing
DO C
Ġwarn ed
ĠPar ish
jet brains
Ġl ane
ri zed
Ġprogram mes
ocr atic
Ġdetect ing
Ġv i
header link
Ġsuperv ision
Ġh ull
ĠCom merce
Ġtrad itions
ĠF oo
Ġwe igh
ĠSe pt
ack ed
Ġgovern ance
ĠFIX ME
oll ar
, [
S ar
áĥ ĺ
ĠLIMIT ED
ĠL ists
ĠK err
pat ient
S dk
ĠCru z
P ark
ĠC urt
Ġvalid ated
Ġb b
Ġs f
ĠB la
Ġstr len
Ġcha otic
Ġconsum e
Mov ie
Ġcl arity
ĠEp isode
Ġgra ins
D ummy
Ġbi ology
end e
Des ktop
IL S
h art
ĠR NA
ĠLINE AR
ĠF ormal
ec a
ok i
Ġconver ter
b ishop
p ars
um bo
ĠB ath
ĠE ve
] ,\
18 87
ĠLet ter
Ġbi ases
sp ort
ress es
æ³ ķ
ç ¤
am ation
app rop
RA W
ĠPer u
n ant
in ria
alth ough
Ġsubdiv ision
ĠW onder
comp leted
br ack
AR GS
^* $,
ĠStart ing
c ards
Ġ[ âĢ¦]
Ġsumm ation
x p
Diag nostic
ĠAl ways
in z
App le
Ġthe at
ĠE le
bour g
upload s
Ã± a
Ġl ifestyle
exp ansion
Ġdiscret ization
CD M
fil m
ĠPro test
Ġfeed ing
ugg ed
ĠOpen SSL
Ġodd s
ĠSE LECT
Ġarr iving
ãĢ ģ
bra ham
Tool Strip
param ref
ĠS ync
draw er
ĠH im
ĥ ½
Ġtranslate X
ĠH indu
Ġterr itories
ĠH ousing
Ġmk dir
Ġemot ions
ĠG Hz
Ġenthus i
ĠÎ ±
$ ]
S q
re striction
ĠG ay
Second ary
Occ urs
Ġa er
Ġrecogn ised
ĠS urg
x z
Inst ead
Ġterm ination
Ch an
Ġp ink
30 7
sql ite
ĠC itiz
Ġtx t
Ġgu ided
} ">
ced es
Ġple ased
Ġbary on
m ind
SH ORT
Gu ard
; :
Ġh over
con nections
25 7
ĠRec ently
ĠRog ers
ĠD od
lic ting
$\ %
Ġacknowled ged
P TR
Ġmer ch
cred its
Dim ensions
Ġconsum ed
all ax
Ġ// $
[...]
