{
  "version": "1.0",
  "truncation": null,
  "padding": null,
  "added_tokens": [
    {
      "id": 0,
      "content": "[UNK]",
      "single_word": false,
      "lstrip": false,
      "rstrip": false,
      "normalized": false,
      "special": true
    }
  ],
  "normalizer": null,
  "pre_tokenizer": {
    "type": "Sequence",
    "pretokenizers": [
      {
        "type": "Digits",
        "individual_digits": false
      },
      {
        "type": "ByteLevel",
        "add_prefix_space": false,
        "trim_offsets": true,
        "use_regex": true
      }
    ]
  },
  "post_processor": null,
  "decoder": null,
  "model": {
    "type": "BPE",
    "dropout": null,
    "unk_token": "[UNK]",
    "continuing_subword_prefix": null,
    "end_of_word_suffix": null,
    "fuse_unk": false,
    "byte_fallback": false,
    "vocab": {
      "[UNK]": 0,
      "!": 1,
      "\"": 2,
      "#": 3,
      "$": 4,
      "%": 5,
      "&": 6,
      "'": 7,
      "(": 8,
      ")": 9,
      "*": 10,
      "+": 11,
      ",": 12,
      "-": 13,
      ".": 14,
      "/": 15,
      "0": 16,
      "1": 17,
      "2": 18,
      "3": 19,
      "4": 20,
      "5": 21,
      "6": 22,
      "7": 23,
      "8": 24,
      "9": 25,
      ":": 26,
      ";": 27,
      "<": 28,
      "=": 29,
      ">": 30,
      "?": 31,
      "@": 32,
      "A": 33,
      "B": 34,
      "C": 35,
      "D": 36,
      "E": 37,
      "F": 38,
      "G": 39,
      "H": 40,
      "I": 41,
      "J": 42,
      "K": 43,
      "L": 44,
      "M": 45,
      "N": 46,
      "O": 47,
      "P": 48,
      "Q": 49,
      "R": 50,
      "S": 51,
      "T": 52,
      "U": 53,
      "V": 54,
      "W": 55,
      "X": 56,
      "Y": 57,
      "Z": 58,
      "[": 59,
      "\\": 60,
      "]": 61,
      "^": 62,
      "_": 63,
      "`": 64,
      "a": 65,
      "b": 66,
      "c": 67,
      "d": 68,
      "e": 69,
      "f": 70,
      "g": 71,
      "h": 72,
      "i": 73,
      "j": 74,
      "k": 75,
      "l": 76,
      "m": 77,
      "n": 78,
      "o": 79,
      "p": 80,
      "q": 81,
      "r": 82,
      "s": 83,
      "t": 84,
      "u": 85,
      "v": 86,
      "w": 87,
      "x": 88,
      "y": 89,
      "z": 90,
      "{": 91,
      "|": 92,
      "}": 93,
      "~": 94,
      "¡": 95,
      "¢": 96,
      "£": 97,
      "¤": 98,
      "¥": 99,
      "¦": 100,
      "§": 101,
      "¨": 102,
      "©": 103,
      "ª": 104,
      "«": 105,
      "¬": 106,
      "®": 107,
      "¯": 108,
      "°": 109,
      "±": 110,
      "²": 111,
      "³": 112,
      "´": 113,
      "µ": 114,
      "¶": 115,
      "·": 116,
      "¸": 117,
      "¹": 118,
      "º": 119,
      "»": 120,
      "¼": 121,
      "½": 122,
      "¾": 123,
      "¿": 124,
      "Â": 125,
      "Ã": 126,
      "Ä": 127,
      "Å": 128,
      "Æ": 129,
      "Ç": 130,
      "È": 131,
      "É": 132,
      "Ê": 133,
      "Ë": 134,
      "Ì": 135,
      "Í": 136,
      "Î": 137,
      "Ï": 138,
      "Ð": 139,
      "Ñ": 140,
      "Ò": 141,
      "Ó": 142,
      "Ô": 143,
      "Õ": 144,
      "Ö": 145,
      "×": 146,
      "Ø": 147,
      "Ù": 148,
      "Ú": 149,
      "Û": 150,
      "Ü": 151,
      "Ý": 152,
      "Þ": 153,
      "ß": 154,
      "à": 155,
      "á": 156,
      "â": 157,
      "ã": 158,
      "ä": 159,
      "å": 160,
      "æ": 161,
      "ç": 162,
      "è": 163,
      "é": 164,
      "ê": 165,
      "ë": 166,
      "ì": 167,
      "í": 168,
      "î": 169,
      "ï": 170,
      "ð": 171,
      "ò": 172,
      "ó": 173,
      "ô": 174,
      "Ā": 175,
      "ā": 176,
      "Ă": 177,
      "ă": 178,
      "Ą": 179,
      "ą": 180,
      "Ć": 181,
      "ć": 182,
      "Ĉ": 183,
      "ĉ": 184,
      "Ċ": 185,
      "ċ": 186,
      "Č": 187,
      "č": 188,
      "Ď": 189,
      "ď": 190,
      "Đ": 191,
      "Ē": 192,
      "ē": 193,
      "Ĕ": 194,
      "Ė": 195,
      "Ě": 196,
      "ě": 197,
      "Ĝ": 198,
      "ĝ": 199,
      "Ğ": 200,
      "Ġ": 201,
      "ġ": 202,
      "Ģ": 203,
      "ģ": 204,
      "Ĥ": 205,
      "ĥ": 206,
      "Ħ": 207,
      "ħ": 208,
      "Ĩ": 209,
      "ĩ": 210,
      "Ī": 211,
      "ī": 212,
      "Ĭ": 213,
      "ĭ": 214,
      "Į": 215,
      "į": 216,
      "İ": 217,
      "ı": 218,
      "Ĳ": 219,
      "ĳ": 220,
      "Ĵ": 221,
      "ĵ": 222,
      "Ķ": 223,
      "ķ": 224,
      "ĸ": 225,
      "Ĺ": 226,
      "ĺ": 227,
      "Ļ": 228,
      "ļ": 229,
      "Ľ": 230,
      "ľ": 231,
      "Ŀ": 232,
      "ŀ": 233,
      "Ł": 234,
      "ł": 235,
      "Ń": 236,
      "ĠĠ": 237,
      "ĠĠĠĠ": 238,
      "in": 239,
      "Ġt": 240,
      "er": 241,
      "on": 242,
      "Ġa": 243,
      "he": 244,
      "re": 245,
      "at": 246,
      "en": 247,
      "or": 248,
      "st": 249,
      "Ġthe": 250,
      "al": 251,
      "ĠĠĠ": 252,
      "it": 253,
      "an": 254,
      "Ġc": 255,
      "ion": 256,
      "ĠĠĠĠĠĠĠĠ": 257,
      "le": 258,
      "ar": 259,
      "Ġs": 260,
      "Ġo": 261,
      "is": 262,
      "es": 263,
      "Ġf": 264,
      "ed": 265,
      "Ġw": 266,
      "Ġp": 267,
      "ing": 268,
      "ro": 269,
      "ic": 270,
      "Ġin": 271,
      "et": 272,
      "Ġb": 273,
      "nd": 274,
      "as": 275,
      "ct": 276,
      "Ġof": 277,
      "Ġd": 278,
      "ent": 279,
      "Ġm": 280,
      "el": 281,
      "ou": 282,
      "am": 283,
      "Ġ\\": 284,
      "Ġand": 285,
      "Ġto": 286,
      "Ġ$": 287,
      "ĠĠĠĠĠĠĠ": 288,
      "Ġre": 289,
      "om": 290,
      "ig": 291,
      "Ġn": 292,
      "il": 293,
      "id": 294,
      "ation": 295,
      "Ġth": 296,
      "ac": 297,
      "im": 298,
      "Ġh": 299,
      "Ġ(": 300,
      "Ġ=": 301,
      "ol": 302,
      "ex": 303,
      "ot": 304,
      "ur": 305,
      "ut": 306,
      "</": 307,
      "ĉĉ": 308,
      "se": 309,
      "iv": 310,
      "ĠS": 311,
      "Ġl": 312,
      "=\"": 313,
      "ĠT": 314,
      "od": 315,
      "ad": 316,
      "ce": 317,
      "ul": 318,
      ");": 319,
      "Ġis": 320,
      "ag": 321,
      "if": 322,
      "ĠC": 323,
      "em": 324,
      "čĊ": 325,
      "Ġ{": 326,
      "ab": 327,
      "ĠA": 328,
      "--": 329,
      "Ġ<": 330,
      "th": 331,
      "qu": 332,
      "ow": 333,
      "Ġv": 334,
      "Ġg": 335,
      "um": 336,
      "un": 337,
      "Ġfor": 338,
      "pe": 339,
      "ch": 340,
      "Ġst": 341,
      "ra": 342,
      "us": 343,
      "ate": 344,
      "ĠĠĠĠĠĠĠĠĠĠĠ": 345,
      "_{": 346,
      "pt": 347,
      "ly": 348,
      "ction": 349,
      "ass": 350,
      "ĠI": 351,
      "ers": 352,
      "ith": 353,
      "ht": 354,
      "//": 355,
      "Ġe": 356,
      "Ġcon": 357,
      "oc": 358,
      "Ġon": 359,
      "ist": 360,
      "ĠM": 361,
      "end": 362,
      "Ġbe": 363,
      "Ġ*": 364,
      "tr": 365,
      "ir": 366,
      "ay": 367,
      "ath": 368,
      "ter": 369,
      "ame": 370,
      "ĠP": 371,
      "ver": 372,
      "Ġ}": 373,
      "âĢ": 374,
      "res": 375,
      "ub": 376,
      "Ġthat": 377,
      "Ġas": 378,
      "\">": 379,
      "av": 380,
      "ĠB": 381,
      "est": 382,
      "20": 383,
      "and": 384,
      "lass": 385,
      "pp": 386,
      "ef": 387,
      "eg": 388,
      "Ġwith": 389,
      "ew": 390,
      "ue": 391,
      "ext": 392,
      "{\\": 393,
      "ri": 394,
      "ess": 395,
      "Ġ\"": 396,
      "Ġpro": 397,
      "ĠR": 398,
      "ĠF": 399,
      "age": 400,
      "Ġal": 401,
      "os": 402,
      "ĠD": 403,
      "ĠĠĠĠĠĠĠĠĠĠĠĠĠĠĠĠ": 404,
      "Ġ&": 405,
      "ort": 406,
      "Ġan": 407,
      "ect": 408,
      "ĠH": 409,
      "ĠL": 410,
      "ine": 411,
      "Ġ$\\": 412,
      "our": 413,
      "ĠĠĠĠĠ": 414,
      "ph": 415,
      "ity": 416,
      "li": 417,
      "Ġwh": 418,
      "()": 419,
      "op": 420,
      "ĠN": 421,
      "ight": 422,
      "ref": 423,
      "ta": 424,
      "art": 425,
      "up": 426,
      "rom": 427,
      "ĠThe": 428,
      "ore": 429,
      "math": 430,
      "Ġby": 431,
      "sp": 432,
      "ure": 433,
      "iz": 434,
      "Ġcom": 435,
      "urn": 436,
      "ĠW": 437,
      "ĠE": 438,
      "ĠG": 439,
      "**": 440,
      "ment": 441,
      "ĠĊ": 442,
      "ere": 443,
      "ma": 444,
      "ec": 445,
      "able": 446,
      "nt": 447,
      "Ġit": 448,
      "ult": 449,
      "..": 450,
      "og": 451,
      "Ġclass": 452,
      "Ġthis": 453,
      "Ġex": 454,
      "int": 455,
      "ep": 456,
      "ial": 457,
      "ack": 458,
      "Ġor": 459,
      "Ġr": 460,
      "all": 461,
      "ke": 462,
      "ype": 463,
      "Ġat": 464,
      "Ġare": 465,
      "ang": 466,
      "ap": 467,
      "----": 468,
      "Ġwe": 469,
      "turn": 470,
      "ive": 471,
      "lic": 472,
      "==": 473,
      "ies": 474,
      "Ġif": 475,
      "ans": 476,
      "ode": 477,
      "}\\": 478,
      "ile": 479,
      "orm": 480,
      "19": 481,
      "ant": 482,
      "con": 483,
      "get": 484,
      "Ġ'": 485,
      "}$": 486,
      "ud": 487,
      "Ġfrom": 488,
      "ite": 489,
      "^{": 490,
      "per": 491,
      "ill": 492,
      "Ġwas": 493,
      "00": 494,
      "ĠO": 495,
      "ption": 496,
      "Ġy": 497,
      "pl": 498,
      "Ġ-": 499,
      "ĠĠĠĠĠĠĠĠĠĠĠĠĠĠĠ": 500,
      "ase": 501,
      "ata": 502,
      "ld": 503,
      "imp": 504,
      "ind": 505,
      "ib": 506,
      "text": 507,
      "In": 508,
      "str": 509,
      "ace": 510,
      "ign": 511,
      "ff": 512,
      "ated": 513,
      "ft": 514,
      "ary": 515,
      "und": 516,
      "Ġtr": 517,
      "ber": 518,
      "ition": 519,
      "com": 520,
      "Ġch": 521,
      "are": 522,
      "ĠJ": 523,
      "Ġsh": 524,
      "ov": 525,
      "),": 526,
      "Ġle": 527,
      "}}": 528,
      "Ġnot": 529,
      "to": 530,
      "ast": 531,
      "Ġ//": 532,
      "ev": 533,
      "(\\": 534,
      "ser": 535,
      "Ġhe": 536,
      "ord": 537,
      "alue": 538,
      "The": 539,
      "ject": 540,
      "ge": 541,
      "equ": 542,
      "ĠU": 543,
      "ime": 544,
      "ell": 545,
      "cl": 546,
      "Ġreturn": 547,
      "Ġ</": 548,
      "ip": 549,
      "cal": 550,
      "ire": 551,
      ").": 552,
      "ard": 553,
      "../": 554,
      "unction": 555,
      "->": 556,
      "::": 557,
      "Ġ[": 558,
      "ave": 559,
      "ĉĉĉĉ": 560,
      "egin": 561,
      "ich": 562,
      "ens": 563,
      "ical": 564,
      "out": 565,
      "begin": 566,
      "Ġcomp": 567,
      "act": 568,
      "ost": 569,
      "Ġ+": 570,
      "ild": 571,
      "ource": 572,
      "Ġus": 573,
      "fr": 574,
      "ide": 575,
      "Con": 576,
      "ug": 577,
      "lo": 578,
      "aram": 579,
      "Ġse": 580,
      "Ġres": 581,
      "fig": 582,
      "pro": 583,
      "form": 584,
      "ust": 585,
      "Ġcan": 586,
      "cc": 587,
      "ence": 588,
      "set": 589,
      "âĢĻ": 590,
      "ice": 591,
      "},": 592,
      "ong": 593,
      "ations": 594,
      "ork": 595,
      ")$": 596,
      "_{\\": 597,
      "201": 598,
      "ublic": 599,
      "loc": 600,
      "ak": 601,
      "cri": 602,
      "dd": 603,
      "ĠIn": 604,
      "row": 605,
      "abel": 606,
      "ance": 607,
      "Ġ@": 608,
      "les": 609,
      "ĠK": 610,
      "Ġnew": 611,
      "ml": 612,
      "\",": 613,
      "'s": 614,
      "St": 615,
      "du": 616,
      "ia": 617,
      "ener": 618,
      "ĠV": 619,
      "ize": 620,
      "div": 621,
      "low": 622,
      "ain": 623,
      "}{": 624,
      "Ġj": 625,
      "Ġpl": 626,
      "(\"": 627,
      "essage": 628,
      "Ġsu": 629,
      "elf": 630,
      "ory": 631,
      "right": 632,
      "Ġ/": 633,
      "ach": 634,
      "eq": 635,
      "oo": 636,
      "();": 637,
      "Ġhave": 638,
      "Ġun": 639,
      "eta": 640,
      "></": 641,
      "ull": 642,
      "Ġwhich": 643,
      "ĠTh": 644,
      "enc": 645,
      "ress": 646,
      "frac": 647,
      "span": 648,
      "Ġar": 649,
      "use": 650,
      "so": 651,
      "Ġk": 652,
      "put": 653,
      "Ġ|": 654,
      "amp": 655,
      "ĠâĢ": 656,
      "Ġstr": 657,
      "',": 658,
      "ents": 659,
      "ther": 660,
      "Ġfunction": 661,
      "><": 662,
      "iel": 663,
      "10": 664,
      "ould": 665,
      "one": 666,
      "Ġhas": 667,
      "Ex": 668,
      "--------": 669,
      "tring": 670,
      "label": 671,
      "ray": 672,
      "ps": 673,
      "../../": 674,
      "Ġdef": 675,
      "odel": 676,
      "ield": 677,
      "hen": 678,
      "ear": 679,
      "mathb": 680,
      "import": 681,
      "tain": 682,
      "Ġab": 683,
      "err": 684,
      "own": 685,
      "ous": 686,
      "sum": 687,
      "bject": 688,
      "ator": 689,
      "fer": 690,
      "sh": 691,
      "eth": 692,
      "Ġset": 693,
      "ound": 694,
      "clud": 695,
      "let": 696,
      "iew": 697,
      "Ġ:": 698,
      "erm": 699,
      "over": 700,
      "ink": 701,
      "ll": 702,
      "ĉĉĉ": 703,
      "Ġint": 704,
      "cite": 705,
      "Ġname": 706,
      "ĠSt": 707,
      "yst": 708,
      "pect": 709,
      "ian": 710,
      "rm": 711,
      "ond": 712,
      "lement": 713,
      "Ġall": 714,
      "ree": 715,
      "ss": 716,
      "name": 717,
      "Ġ.": 718,
      "old": 719,
      "Ġ*/": 720,
      "left": 721,
      "html": 722,
      "ount": 723,
      "the": 724,
      "che": 725,
      "line": 726,
      "irst": 727,
      "Ġpublic": 728,
      "****": 729,
      "))": 730,
      "Ġhref": 731,
      "ual": 732,
      "ĠĠĠĠĠĠĠĠĠĠĠĠĠĠĠĠĠĠĠ": 733,
      "====": 734,
      "ĠĠĠĠĠĠĠĠĠ": 735,
      "inal": 736,
      "$,": 737,
      "('": 738,
      "we": 739,
      "Ġvar": 740,
      "app": 741,
      "$.": 742,
      "ions": 743,
      ",\\": 744,
      "Pro": 745,
      "Ġapp": 746,
      "lect": 747,
      "source": 748,
      "ark": 749,
      "message": 750,
      "tern": 751,
      "Ġwill": 752,
      "oint": 753,
      "Ġdis": 754,
      "mathcal": 755,
      "ates": 756,
      "}.": 757,
      "oid": 758,
      "this": 759,
      "erv": 760,
      "Ġsp": 761,
      "Ġqu": 762,
      "200": 763,
      "lation": 764,
      "Ġcont": 765,
      "Ġout": 766,
      "ck": 767,
      "ome": 768,
      "ystem": 769,
      "ix": 770,
      "ER": 771,
      "ict": 772,
      "roup": 773,
      "})": 774,
      "Ġone": 775,
      "Ġyou": 776,
      "trans": 777,
      "equation": 778,
      "ry": 779,
      "ics": 780,
      "Name": 781,
      "led": 782,
      "Ġpart": 783,
      "Ġev": 784,
      "Ġget": 785,
      "Ġdo": 786,
      "oth": 787,
      "ely": 788,
      "##": 789,
      "col": 790,
      "Ġalso": 791,
      "Ġtype": 792,
      "pr": 793,
      "umber": 794,
      "Ġ=>": 795,
      "eng": 796,
      "da": 797,
      "Ġme": 798,
      "ON": 799,
      "ĠCh": 800,
      "cre": 801,
      "Ġpr": 802,
      "ty": 803,
      "wo": 804,
      "ne": 805,
      "ish": 806,
      "pec": 807,
      "Ġro": 808,
      "Ġ_": 809,
      "Ġvalue": 810,
      "ery": 811,
      "12": 812,
      "}(": 813,
      "~\\": 814,
      "Ġdata": 815,
      "td": 816,
      "io": 817,
      "key": 818,
      "ym": 819,
      "ethod": 820,
      "Type": 821,
      "Ġhis": 822,
      "param": 823,
      "alse": 824,
      "of": 825,
      "}^": 826,
      "Ġper": 827,
      "Ġbut": 828,
      "ool": 829,
      "uct": 830,
      "ors": 831,
      "Id": 832,
      "ax": 833,
      "Ġline": 834,
      "Ġ#": 835,
      "}_": 836,
      "Ġpre": 837,
      "String": 838,
      "cript": 839,
      "sub": 840,
      "ob": 841,
      "Ġde": 842,
      "/>": 843,
      "idth": 844,
      "pha": 845,
      "Ġconst": 846,
      "arg": 847,
      "18": 848,
      "amb": 849,
      "IN": 850,
      "ings": 851,
      "Ġup": 852,
      "atic": 853,
      "var": 854,
      "rit": 855,
      "Ġcol": 856,
      "def": 857,
      "Ġresult": 858,
      "atch": 859,
      "code": 860,
      "lock": 861,
      "Ġi": 862,
      "ose": 863,
      "return": 864,
      "ert": 865,
      "ook": 866,
      "ail": 867,
      "ve": 868,
      "yn": 869,
      "\"/>": 870,
      "alpha": 871,
      "raph": 872,
      "Ġinter": 873,
      "Th": 874,
      "Ġform": 875,
      "ular": 876,
      "igh": 877,
      "Ġwere": 878,
      "ution": 879,
      "Ġtheir": 880,
      "ox": 881,
      "port": 882,
      "Ġover": 883,
      "ĠY": 884,
      "ange": 885,
      "Ġtime": 886,
      "cent": 887,
      "ache": 888,
      "Com": 889,
      "translation": 890,
      "ove": 891,
      "ific": 892,
      "Ġob": 893,
      "Ġself": 894,
      "Ġdes": 895,
      "imes": 896,
      "ont": 897,
      "ake": 898,
      "Ġits": 899,
      "Ġmore": 900,
      "$\\": 901,
      "iss": 902,
      "urre": 903,
      "ys": 904,
      "RE": 905,
      "Ġid": 906,
      "Ġfirst": 907,
      "ute": 908,
      "Ġadd": 909,
      "fo": 910,
      "ng": 911,
      "Ġtwo": 912,
      "Ġne": 913,
      "ann": 914,
      "class": 915,
      "ames": 916,
      "elta": 917,
      "ative": 918,
      "Ġcl": 919,
      "://": 920,
      ")\\": 921,
      "add": 922,
      "bar": 923,
      "Ġ!": 924,
      "uild": 925,
      "ollow": 926,
      "Ġsub": 927,
      "pos": 928,
      "ca": 929,
      "ick": 930,
      "Res": 931,
      "Ġso": 932,
      "ambda": 933,
      "Ġel": 934,
      "ST": 935,
      "ined": 936,
      "pon": 937,
      "type": 938,
      "Ġother": 939,
      "16": 940,
      "ock": 941,
      "List": 942,
      "ater": 943,
      "ues": 944,
      "fter": 945,
      "ault": 946,
      "te": 947,
      "Ġwhen": 948,
      "To": 949,
      "Ġwork": 950,
      "item": 951,
      "ĠThis": 952,
      "ĠWe": 953,
      "Ġman": 954,
      "Ġag": 955,
      "val": 956,
      "Ġ||": 957,
      "round": 958,
      "tt": 959,
      "Ġmodel": 960,
      "ception": 961,
      "Ġ`": 962,
      "ĠIt": 963,
      "Ġdif": 964,
      "Ġrequ": 965,
      "mathbb": 966,
      "Ġ==": 967,
      "11": 968,
      "AT": 969,
      "aw": 970,
      "itle": 971,
      "Ch": 972,
      "Ġend": 973,
      "Ġen": 974,
      "amma": 975,
      "Ġund": 976,
      "Ġ\\\\": 977,
      "ise": 978,
      "min": 979,
      "cess": 980,
      "_\\": 981,
      "Ġonly": 982,
      "=\\": 983,
      "htt": 984,
      "__": 985,
      "Ġany": 986,
      "Ġx": 987,
      "Ġreg": 988,
      "Ġcomm": 989,
      "co": 990,
      "ms": 991,
      "Ġfollow": 992,
      "arch": 993,
      "Ġimp": 994,
      "ied": 995,
      "ersion": 996,
      "Ġtrans": 997,
      "Ġnull": 998,
      "Ġpos": 999,
      "Ġbet": 1000,
      "âĢĿ": 1001,
      "ĠUn": 1002,
      "Ġthey": 1003,
      "als": 1004,
      "ie": 1005,
      "ton": 1006,
      "ead": 1007,
      "trib": 1008,
      "dot": 1009,
      "ho": 1010,
      "ider": 1011,
      "Ġwhere": 1012,
      "Ġbeen": 1013,
      "Ġval": 1014,
      "resent": 1015,
      "\"><": 1016,
      "mu": 1017,
      "anc": 1018,
      "Ġour": 1019,
      "hed": 1020,
      "}_{": 1021,
      "Ġte": 1022,
      "Ġind": 1023,
      "Ġacc": 1024,
      "ble": 1025,
      "read": 1026,
      "ased": 1027,
      "pi": 1028,
      "urrent": 1029,
      "}^{": 1030,
      "igma": 1031,
      "hat": 1032,
      "ility": 1033,
      "15": 1034,
      "ating": 1035,
      "ID": 1036,
      "oun": 1037,
      "Ġuse": 1038,
      "ĠĠĠĠĠĠĠĠĠĠĠĠĠ": 1039,
      "work": 1040,
      "gr": 1041,
      "ational": 1042,
      "Ġvoid": 1043,
      "Ġ>": 1044,
      "ask": 1045,
      "ega": 1046,
      "Ġgener": 1047,
      "its": 1048,
      "Ġ)": 1049,
      "br": 1050,
      "Ġfalse": 1051,
      "section": 1052,
      "Ġcase": 1053,
      "yle": 1054,
      "Ġthere": 1055,
      "ons": 1056,
      "ument": 1057,
      "mer": 1058,
      "OR": 1059,
      "Ġad": 1060,
      "string": 1061,
      "Ġsuch": 1062,
      "Ġerr": 1063,
      "Ġthan": 1064,
      "-\\": 1065,
      "Ġem": 1066,
      "Ġinto": 1067,
      "serv": 1068,
      "der": 1069,
      "vent": 1070,
      "ible": 1071,
      "We": 1072,
      "ays": 1073,
      "Ġdist": 1074,
      "ength": 1075,
      "Ġ--": 1076,
      "):": 1077,
      "Ġthen": 1078,
      "ash": 1079,
      "ature": 1080,
      "Ġwho": 1081,
      "Ar": 1082,
      "ures": 1083,
      "ivate": 1084,
      "ĠĠĠĠĠĠĠĠĠĠĠĠĠĠĠĠĠĠĠĠĠĠĠĠĠĠĠĠĠĠĠĠ": 1085,
      "ule": 1086,
      "Ġrel": 1087,
      "AR": 1088,
      "back": 1089,
      "irect": 1090,
      "son": 1091,
      "Ġno": 1092,
      "LE": 1093,
      "ptions": 1094,
      "Ġgo": 1095,
      "log": 1096,
      "));": 1097,
      "phi": 1098,
      "Ġloc": 1099,
      "Ġcor": 1100,
      "Ġtrue": 1101,
      "Ġinst": 1102,
      "rr": 1103,
      "^{\\": 1104,
      "align": 1105,
      "Ġcons": 1106,
      "pport": 1107,
      "not": 1108,
      "\");": 1109,
      "Ġshow": 1110,
      "ious": 1111,
      "----------------": 1112,
      "Ġco": 1113,
      "Ġdec": 1114,
      "aramet": 1115,
      "Ġcre": 1116,
      "ember": 1117,
      "org": 1118,
      "Ġused": 1119,
      "Ġinclud": 1120,
      "\\!": 1121,
      "mathbf": 1122,
      "lambda": 1123,
      "ities": 1124,
      "Ġext": 1125,
      "data": 1126,
      "epend": 1127,
      "13": 1128,
      "ween": 1129,
      "for": 1130,
      "file": 1131,
      "Ġact": 1132,
      "lection": 1133,
      "bf": 1134,
      "Ġhad": 1135,
      "Ġdiffer": 1136,
      "self": 1137,
      "ning": 1138,
      "Ġsome": 1139,
      "uth": 1140,
      "25": 1141,
      "Ġunder": 1142,
      "Ġtest": 1143,
      "ince": 1144,
      "sert": 1145,
      "perty": 1146,
      "Tr": 1147,
      "ages": 1148,
      "ĠPro": 1149,
      "ĠHe": 1150,
      "ĠĠĠĠĠĠ": 1151,
      "olog": 1152,
      "ample": 1153,
      "ade": 1154,
      "Ġequ": 1155,
      "Ġph": 1156,
      "ins": 1157,
      "Ġspec": 1158,
      "Ġnumber": 1159,
      "14": 1160,
      "Ġprov": 1161,
      "wh": 1162,
      "tem": 1163,
      "EN": 1164,
      "width": 1165,
      "ava": 1166,
      "pre": 1167,
      "arget": 1168,
      "ices": 1169,
      "Ġsc": 1170,
      "sc": 1171,
      "ient": 1172,
      "ement": 1173,
      "Ġplay": 1174,
      "Col": 1175,
      "Ġabout": 1176,
      "part": 1177,
      "Ġ{\\": 1178,
      "ey": 1179,
      "vel": 1180,
      "22": 1181,
      "ĠĠĠĠĠĠĠĠĠĠĠĠĠĠĠĠĠĠĠĠĠĠĠ": 1182,
      "ized": 1183,
      "SS": 1184,
      "new": 1185,
      "Ġli": 1186,
      "iven": 1187,
      "Ġelse": 1188,
      "oug": 1189,
      "Ġoff": 1190,
      "Ġeach": 1191,
      "Ġim": 1192,
      "Ġyear": 1193,
      "ĠâĢĵ": 1194,
      "ĠCom": 1195,
      "Value": 1196,
      "Ġfe": 1197,
      "Data": 1198,
      "********": 1199,
      "ced": 1200,
      "ract": 1201,
      "////": 1202,
      "action": 1203,
      "Ġbetween": 1204,
      "ward": 1205,
      "Ġsystem": 1206,
      "Ġorg": 1207,
      "Ġher": 1208,
      "ugh": 1209,
      "ternal": 1210,
      "ern": 1211,
      "AL": 1212,
      "\\\\": 1213,
      "array": 1214,
      "location": 1215,
      "value": 1216,
      "ner": 1217,
      "ilon": 1218,
      "17": 1219,
      "ences": 1220,
      "199": 1221,
      "ited": 1222,
      "umn": 1223,
      "Ġpe": 1224,
      "Set": 1225,
      "Ġsec": 1226,
      "Ġmethod": 1227,
      "Ġrec": 1228,
      "\")": 1229,
      "Ġmay": 1230,
      "sigma": 1231,
      "Ġpoint": 1232,
      "yp": 1233,
      "Ġstring": 1234,
      "Ġent": 1235,
      "ished": 1236,
      "Ġchar": 1237,
      "lient": 1238,
      "ĠâĢľ": 1239,
      "nb": 1240,
      "ower": 1241,
      "Ġu": 1242,
      "date": 1243,
      "ervice": 1244,
      "ier": 1245,
      "Ġfinal": 1246,
      "ization": 1247,
      "âĢĵ": 1248,
      "beta": 1249,
      "ĠQ": 1250,
      "mall": 1251,
      "Ġpol": 1252,
      "Ref": 1253,
      "Ġback": 1254,
      "ally": 1255,
      "Ġ/**": 1256,
      "Ġthese": 1257,
      "Ġhigh": 1258,
      "view": 1259,
      "Ġfil": 1260,
      "angle": 1261,
      "be": 1262,
      "ists": 1263,
      "Ġusing": 1264,
      "Ġfield": 1265,
      "Ġexp": 1266,
      "Ġ&&": 1267,
      "ote": 1268,
      "roid": 1269,
      "Ġwould": 1270,
      "ĠAr": 1271,
      "')": 1272,
      "}{\\": 1273,
      "includ": 1274,
      "ĠSe": 1275,
      "ody": 1276,
      "Ġsol": 1277,
      "32": 1278,
      "Ġafter": 1279,
      "air": 1280,
      "Ġeff": 1281,
      "raw": 1282,
      "Ġstud": 1283,
      "uff": 1284,
      "ilde": 1285,
      "eps": 1286,
      "cont": 1287,
      "ople": 1288,
      "ream": 1289,
      "^{-": 1290,
      "Ġdev": 1291,
      "oot": 1292,
      "ank": 1293,
      "Ġfile": 1294,
      "Ġkn": 1295,
      "($": 1296,
      "];": 1297,
      "ric": 1298,
      "script": 1299,
      "px": 1300,
      "ines": 1301,
      "red": 1302,
      "Ġ(\\": 1303,
      "*}": 1304,
      "mathrm": 1305,
      "========": 1306,
      "Exception": 1307,
      "ars": 1308,
      "nbsp": 1309,
      "rough": 1310,
      "Err": 1311,
      "face": 1312,
      "ĠAs": 1313,
      "Ġmod": 1314,
      "En": 1315,
      "ĠCon": 1316,
      "ĠFor": 1317,
      "figure": 1318,
      "test": 1319,
      "Ġrep": 1320,
      "30": 1321,
      "Ġsign": 1322,
      "struct": 1323,
      "]{": 1324,
      "DE": 1325,
      "Ġprodu": 1326,
      "ok": 1327,
      "Ġstatic": 1328,
      "Ġ///": 1329,
      "21": 1330,
      "Ġtra": 1331,
      "Ġoper": 1332,
      "play": 1333,
      "me": 1334,
      "pen": 1335,
      "uring": 1336,
      "Ġcal": 1337,
      "ww": 1338,
      "Ġam": 1339,
      "+\\": 1340,
      "100": 1341,
      "As": 1342,
      "mary": 1343,
      "ily": 1344,
      "mod": 1345,
      "ential": 1346,
      "],": 1347,
      "ger": 1348,
      "land": 1349,
      "size": 1350,
      "ĠX": 1351,
      "ivers": 1352,
      "CT": 1353,
      "Ġ%": 1354,
      "Ġinv": 1355,
      "atus": 1356,
      "gamma": 1357,
      "...": 1358,
      "ify": 1359,
      "Object": 1360,
      "requ": 1361,
      "ever": 1362,
      "ader": 1363,
      "ting": 1364,
      "Ġstate": 1365,
      "Ġac": 1366,
      "box": 1367,
      "rol": 1368,
      "rc": 1369,
      "Ġobject": 1370,
      "ĠString": 1371,
      "ector": 1372,
      "ils": 1373,
      "ired": 1374,
      "().": 1375,
      "arent": 1376,
      "ĠAl": 1377,
      "SE": 1378,
      "^\\": 1379,
      "heck": 1380,
      "par": 1381,
      "Ġyour": 1382,
      "gy": 1383,
      "Ġ!=": 1384,
      "Test": 1385,
      "ces": 1386,
      "ets": 1387,
      "ĠNew": 1388,
      "Ġnon": 1389,
      "Ġest": 1390,
      "ision": 1391,
      "link": 1392,
      "For": 1393,
      "uss": 1394,
      ")}": 1395,
      "ments": 1396,
      "Ġlist": 1397,
      "orld": 1398,
      "Ġz": 1399,
      "Ġass": 1400,
      "rib": 1401,
      "IT": 1402,
      "Ġappro": 1403,
      "());": 1404,
      "Ġprivate": 1405,
      "order": 1406,
      "Un": 1407,
      "Ġmost": 1408,
      "Ġmin": 1409,
      "Ġsame": 1410,
      "theta": 1411,
      "Cont": 1412,
      "By": 1413,
      "man": 1414,
      "table": 1415,
      "delta": 1416,
      "Ġshe": 1417,
      "js": 1418,
      "ts": 1419,
      "ĠĠĠĠĊ": 1420,
      "Im": 1421,
      "lean": 1422,
      "AN": 1423,
      "._": 1424,
      "Ġstart": 1425,
      "roll": 1426,
      "50": 1427,
      "Ġsa": 1428,
      "\"></": 1429,
      "oy": 1430,
      "big": 1431,
      "Ġfl": 1432,
      "ccess": 1433,
      "leq": 1434,
      "Ġneed": 1435,
      "rho": 1436,
      "ler": 1437,
      "Ġgiven": 1438,
      "Ġgroup": 1439,
      "dis": 1440,
      "ik": 1441,
      "ĠEx": 1442,
      "ĠAn": 1443,
      "Ġkey": 1444,
      "formation": 1445,
      "Error": 1446,
      "cdot": 1447,
      "by": 1448,
      "ency": 1449,
      "Ġsim": 1450,
      "eqref": 1451,
      "ME": 1452,
      "Get": 1453,
      "nav": 1454,
      "Ġparamet": 1455,
      "ĠZ": 1456,
      "Ġshould": 1457,
      "Ġthrough": 1458,
      "la": 1459,
      "function": 1460,
      "oci": 1461,
      "Ġmat": 1462,
      "ott": 1463,
      "ified": 1464,
      "pm": 1465,
      "ĉĉĉĉĉ": 1466,
      "top": 1467,
      "$-": 1468,
      "bol": 1469,
      "Ġdifferent": 1470,
      "Ġed": 1471,
      "View": 1472,
      "inter": 1473,
      "Se": 1474,
      "lete": 1475,
      "ically": 1476,
      "tau": 1477,
      "ough": 1478,
      "sec": 1479,
      "Class": 1480,
      "Ind": 1481,
      "Ġwell": 1482,
      "index": 1483,
      "File": 1484,
      "cept": 1485,
      "dition": 1486,
      "public": 1487,
      "iver": 1488,
      "23": 1489,
      "times": 1490,
      "}$,": 1491,
      "ases": 1492,
      "indow": 1493,
      "ension": 1494,
      "CO": 1495,
      "}$.": 1496,
      "['": 1497,
      "any": 1498,
      "go": 1499,
      "Ġdet": 1500,
      "Ġhow": 1501,
      "Ġorder": 1502,
      "Ġser": 1503,
      "\";": 1504,
      "url": 1505,
      "ĠSh": 1506,
      "Ġgr": 1507,
      "rite": 1508,
      "irc": 1509,
      "reg": 1510,
      "ren": 1511,
      "24": 1512,
      "meric": 1513,
      "space": 1514,
      "Ġfollowing": 1515,
      "time": 1516,
      "}(\\": 1517,
      "list": 1518,
      "Ġthem": 1519,
      "lob": 1520,
      "Ġpartic": 1521,
      "pace": 1522,
      "cription": 1523,
      "quot": 1524,
      "Key": 1525,
      "Ġfr": 1526,
      "very": 1527,
      "load": 1528,
      ".</": 1529,
      "lex": 1530,
      "etwork": 1531,
      "ason": 1532,
      "arrow": 1533,
      "');": 1534,
      "itial": 1535,
      "Ġboth": 1536,
      "Ġwhile": 1537,
      "lay": 1538,
      "!--": 1539,
      "rix": 1540,
      "At": 1541,
      "center": 1542,
      "comm": 1543,
      "Ġfound": 1544,
      "Ġcurrent": 1545,
      "../../../../": 1546,
      "ocument": 1547,
      "ĠTr": 1548,
      "ense": 1549,
      "64": 1550,
      "ected": 1551,
      "de": 1552,
      "Sh": 1553,
      "Ġlong": 1554,
      "http": 1555,
      "ken": 1556,
      "Ġsee": 1557,
      "fl": 1558,
      "att": 1559,
      "partial": 1560,
      "elop": 1561,
      "Ġterm": 1562,
      "ager": 1563,
      "An": 1564,
      "ared": 1565,
      "Requ": 1566,
      "Ġpeople": 1567,
      "']": 1568,
      "Ġexpect": 1569,
      "ron": 1570,
      "ymbol": 1571,
      "reak": 1572,
      "comp": 1573,
      "Ġvari": 1574,
      "Ġarg": 1575,
      "other": 1576,
      "ĠIf": 1577,
      "su": 1578,
      "Ġperform": 1579,
      "####": 1580,
      "summary": 1581,
      "field": 1582,
      "ful": 1583,
      "=\"+": 1584,
      "Ġsur": 1585,
      "};": 1586,
      "const": 1587,
      "uration": 1588,
      "que": 1589,
      "Ġfact": 1590,
      "fore": 1591,
      "Ġ$(": 1592,
      "ots": 1593,
      "ants": 1594,
      "ĠĠĊ": 1595,
      "nu": 1596,
      "group": 1597,
      "ism": 1598,
      "Ġlike": 1599,
      "Ġprocess": 1600,
      "orn": 1601,
      "fty": 1602,
      "az": 1603,
      "ives": 1604,
      "ining": 1605,
      "med": 1606,
      "color": 1607,
      "infty": 1608,
      "path": 1609,
      "ackage": 1610,
      "(),": 1611,
      "ground": 1612,
      "Ġtitle": 1613,
      "Ġrun": 1614,
      "Ġsize": 1615,
      "omega": 1616,
      "Ġcall": 1617,
      "ability": 1618,
      "Ġhand": 1619,
      "|\\": 1620,
      "lear": 1621,
      "Ġsecond": 1622,
      "198": 1623,
      "Ġconsider": 1624,
      "ality": 1625,
      "Ġresults": 1626,
      "vert": 1627,
      "rem": 1628,
      "Ġ/>": 1629,
      "000": 1630,
      "rop": 1631,
      "Ġcent": 1632,
      "Ġsing": 1633,
      "quad": 1634,
      "void": 1635,
      "Ġelement": 1636,
      "].": 1637,
      "uc": 1638,
      "Ġstruct": 1639,
      "Ġsupport": 1640,
      "pert": 1641,
      "Ġcontain": 1642,
      "ively": 1643,
      "wn": 1644,
      "On": 1645,
      "Ġright": 1646,
      "tilde": 1647,
      "Refer": 1648,
      "RO": 1649,
      "Ġimport": 1650,
      "Ġatt": 1651,
      "Delta": 1652,
      "gor": 1653,
      "umer": 1654,
      "user": 1655,
      "ctions": 1656,
      "LL": 1657,
      "Ġresp": 1658,
      "reat": 1659,
      "opy": 1660,
      "Ġerror": 1661,
      "olds": 1662,
      "Ġdirect": 1663,
      "Ġagain": 1664,
      "ION": 1665,
      "Ġnow": 1666,
      "dt": 1667,
      "``": 1668,
      "Ġdisc": 1669,
      "Time": 1670,
      "ross": 1671,
      "Text": 1672,
      "33": 1673,
      "tab": 1674,
      "fin": 1675,
      "chool": 1676,
      "':": 1677,
      "oad": 1678,
      "Ġdr": 1679,
      "Ġrem": 1680,
      "Ġdoes": 1681,
      "Int": 1682,
      "ush": 1683,
      "Al": 1684,
      "try": 1685,
      "ale": 1686,
      "uffer": 1687,
      "ponse": 1688,
      "Ġca": 1689,
      "sq": 1690,
      "met": 1691,
      "LA": 1692,
      "This": 1693,
      "efore": 1694,
      "Ġthree": 1695,
      "cale": 1696,
      "chi": 1697,
      "\":": 1698,
      "Ġjust": 1699,
      "Ġeffect": 1700,
      "arge": 1701,
      "gram": 1702,
      "40": 1703,
      "ek": 1704,
      "Event": 1705,
      "Ġread": 1706,
      "Ġfind": 1707,
      "bed": 1708,
      "ession": 1709,
      "ouse": 1710,
      "utton": 1711,
      "erson": 1712,
      "itt": 1713,
      "bers": 1714,
      "Ġ?": 1715,
      "ane": 1716,
      "net": 1717,
      "cm": 1718,
      "ogle": 1719,
      "aj": 1720,
      "lem": 1721,
      "https": 1722,
      "unc": 1723,
      "Ġvalues": 1724,
      "Request": 1725,
      "ral": 1726,
      "cit": 1727,
      "PE": 1728,
      "Ġevery": 1729,
      "rt": 1730,
      "Ġanal": 1731,
      "imit": 1732,
      "node": 1733,
      "ister": 1734,
      "lang": 1735,
      "resp": 1736,
      "ĠčĊ": 1737,
      "ulation": 1738,
      "ife": 1739,
      ".,": 1740,
      "ah": 1741,
      "PI": 1742,
      "'t": 1743,
      "Ġtem": 1744,
      "Path": 1745,
      "ĠInd": 1746,
      "Add": 1747,
      "Ġcould": 1748,
      "Ġbefore": 1749,
      "Ph": 1750,
      "ident": 1751,
      "ĠCol": 1752,
      "xi": 1753,
      "way": 1754,
      "lp": 1755,
      "Ġwhat": 1756,
      "oh": 1757,
      "Ġbound": 1758,
      "Ġmult": 1759,
      "}[": 1760,
      "model": 1761,
      "search": 1762,
      "Ġbel": 1763,
      "where": 1764,
      "\\,": 1765,
      "orem": 1766,
      "Element": 1767,
      "Ġobtain": 1768,
      "AC": 1769,
      "uch": 1770,
      "eqn": 1771,
      "ĠAmeric": 1772,
      "ology": 1773,
      "Item": 1774,
      "max": 1775,
      "Ġ);": 1776,
      "ression": 1777,
      "length": 1778,
      "Node": 1779,
      "Ġbeing": 1780,
      "Man": 1781,
      "Ġ-->": 1782,
      "des": 1783,
      "Qu": 1784,
      "Ġbr": 1785,
      "Ġassert": 1786,
      "Ġtop": 1787,
      "\"\"": 1788,
      "iversity": 1789,
      "tribute": 1790,
      "Ġmy": 1791,
      "TR": 1792,
      "ission": 1793,
      "pty": 1794,
      "Ġmon": 1795,
      "ural": 1796,
      "oss": 1797,
      "Ġmake": 1798,
      "Ġsmall": 1799,
      "Ġmany": 1800,
      "oolean": 1801,
      "Index": 1802,
      "word": 1803,
      "Ġsaid": 1804,
      "IC": 1805,
      "Info": 1806,
      "itor": 1807,
      "TE": 1808,
      "bl": 1809,
      "Ġaut": 1810,
      "())": 1811,
      "ather": 1812,
      "Def": 1813,
      "Ġcontin": 1814,
      "/*": 1815,
      "util": 1816,
      "config": 1817,
      "Ġmet": 1818,
      "Field": 1819,
      "ari": 1820,
      "lication": 1821,
      "60": 1822,
      "sk": 1823,
      "/**": 1824,
      "her": 1825,
      "ĠDe": 1826,
      "Equ": 1827,
      "Ġlink": 1828,
      "Ġlast": 1829,
      "ĠRes": 1830,
      "Ġfin": 1831,
      "Ġpass": 1832,
      "Ġdistrib": 1833,
      "State": 1834,
      "}}\\": 1835,
      "fe": 1836,
      "Ã©": 1837,
      "cause": 1838,
      "rap": 1839,
      "ification": 1840,
      "ormal": 1841,
      "Ġyears": 1842,
      "Ġtarget": 1843,
      "Ġlocal": 1844,
      "Ġap": 1845,
      "Ġthrow": 1846,
      ")$.": 1847,
      "Ġmeas": 1848,
      "Ġexper": 1849,
      "uper": 1850,
      "raphics": 1851,
      "arn": 1852,
      "With": 1853,
      "Config": 1854,
      "Ġevent": 1855,
      "Ġmain": 1856,
      "Ġpar": 1857,
      "less": 1858,
      "ĠĠĠĠĠĠĠĠĠĠĠĠĠĠĠĠĠĠĠĠĠĠĠĠĠĠĠ": 1859,
      "ten": 1860,
      "amespace": 1861,
      "Ġbuild": 1862,
      "197": 1863,
      "no": 1864,
      "mp": 1865,
      "ived": 1866,
      "Ġhim": 1867,
      "Ġrequest": 1868,
      "Ġmed": 1869,
      "Ġbecause": 1870,
      "vious": 1871,
      "Om": 1872,
      "chn": 1873,
      "Context": 1874,
      "ball": 1875,
      "Ġduring": 1876,
      "uthor": 1877,
      "Ġinformation": 1878,
      "position": 1879,
      "Ġrepresent": 1880,
      "$$": 1881,
      "aces": 1882,
      "perties": 1883,
      "odes": 1884,
      "orth": 1885,
      "ui": 1886,
      "Ġincre": 1887,
      "result": 1888,
      "Ġcondition": 1889,
      "Ġallow": 1890,
      "ride": 1891,
      "lish": 1892,
      "Form": 1893,
      "ift": 1894,
      "Ġ});": 1895,
      "Ġlog": 1896,
      "off": 1897,
      "Ġpresent": 1898,
      "title": 1899,
      "Ġ,": 1900,
      "stance": 1901,
      "respond": 1902,
      "map": 1903,
      "Ġmem": 1904,
      "Ġart": 1905,
      "vir": 1906,
      "api": 1907,
      "true": 1908,
      "Ġrele": 1909,
      "Ġdevelop": 1910,
      "lected": 1911,
      "epsilon": 1912,
      "from": 1913,
      "Over": 1914,
      "';": 1915,
      "27": 1916,
      "Ġ(!": 1917,
      "ilar": 1918,
      "adi": 1919,
      "sw": 1920,
      "Ġsince": 1921,
      "block": 1922,
      "icon": 1923,
      "lobal": 1924,
      "Ġproble": 1925,
      "Ġlead": 1926,
      "sl": 1927,
      "Array": 1928,
      "Omega": 1929,
      "}_{\\": 1930,
      "Ġwrit": 1931,
      "Service": 1932,
      "acter": 1933,
      "UR": 1934,
      "Ġtext": 1935,
      "Ġarray": 1936,
      "ior": 1937,
      "bs": 1938,
      "els": 1939,
      "pper": 1940,
      "28": 1941,
      "ustom": 1942,
      "input": 1943,
      "ats": 1944,
      "arm": 1945,
      "Ġmax": 1946,
      "inition": 1947,
      "Ġmap": 1948,
      "ness": 1949,
      "Ġcontent": 1950,
      "Map": 1951,
      "Ġpath": 1952,
      "idd": 1953,
      "Ġref": 1954,
      "Ġeven": 1955,
      "Ġbl": 1956,
      "ĠFig": 1957,
      "Or": 1958,
      "ually": 1959,
      "Ġposs": 1960,
      "amily": 1961,
      "Ġserv": 1962,
      "Ġdefault": 1963,
      "Ġprovid": 1964,
      "iter": 1965,
      "Not": 1966,
      "='": 1967,
      "bm": 1968,
      "caption": 1969,
      "Ġmust": 1970,
      "=\"../../../../": 1971,
      "uary": 1972,
      "Ġinput": 1973,
      "Ġuser": 1974,
      "Size": 1975,
      "til": 1976,
      "Ġ},": 1977,
      "Ġspace": 1978,
      "ponent": 1979,
      "psi": 1980,
      "ĠOn": 1981,
      "Ġlet": 1982,
      "Ġdep": 1983,
      "Ġnode": 1984,
      "ience": 1985,
      "md": 1986,
      "Ġopt": 1987,
      "ttp": 1988,
      "day": 1989,
      "App": 1990,
      "Ġdescri": 1991,
      "Des": 1992,
      "valid": 1993,
      "Ġvery": 1994,
      "References": 1995,
      "igned": 1996,
      "utes": 1997,
      "ends": 1998,
      "energy": 1999,
      "object": 2000,
      "^*": 2001,
      "Ġ/*": 2002,
      "ood": 2003,
      "ĠLe": 2004,
      "textbf": 2005,
      "Ġrespect": 2006,
      "Ġmade": 2007,
      "Ġident": 2008,
      "apache": 2009,
      "Ġlevel": 2010,
      "urs": 2011,
      "iginal": 2012,
      "body": 2013,
      "uf": 2014,
      "Ġvis": 2015,
      "////////": 2016,
      "26": 2017,
      "Ġleft": 2018,
      "ilter": 2019,
      "error": 2020,
      "olution": 2021,
      "Ġgu": 2022,
      "Re": 2023,
      "Ġ:=": 2024,
      "itive": 2025,
      "iving": 2026,
      "ources": 2027,
      "outh": 2028,
      "Result": 2029,
      "enu": 2030,
      "FF": 2031,
      "Ġteam": 2032,
      "Ġobserv": 2033,
      "ĠSc": 2034,
      "head": 2035,
      "see": 2036,
      "Ġtak": 2037,
      "ĠFr": 2038,
      "ĠHow": 2039,
      "Ġopen": 2040,
      ")$,": 2041,
      "ivity": 2042,
      "ero": 2043,
      "assert": 2044,
      "[]": 2045,
      "Ġmass": 2046,
      "overn": 2047,
      "point": 2048,
      "with": 2049,
      ">&": 2050,
      "version": 2051,
      "Ġprot": 2052,
      "ync": 2053,
      "side": 2054,
      "iled": 2055,
      "subsection": 2056,
      "gorith": 2057,
      "Ġblock": 2058,
      "++": 2059,
      "plate": 2060,
      "Ġway": 2061,
      "Ġbased": 2062,
      "omet": 2063,
      "45": 2064,
      "Fr": 2065,
      "rec": 2066,
      "ole": 2067,
      "Ġinteg": 2068,
      "Ġra": 2069,
      "next": 2070,
      "utions": 2071,
      "ination": 2072,
      "alth": 2073,
      "fra": 2074,
      "ensure": 2075,
      "MA": 2076,
      "Ġtyp": 2077,
      "bit": 2078,
      "create": 2079,
      "ury": 2080,
      "sqrt": 2081,
      "ru": 2082,
      "Ġcheck": 2083,
      "ration": 2084,
      "Message": 2085,
      "Ġreal": 2086,
      "Ġknow": 2087,
      "loat": 2088,
      "au": 2089,
      "99": 2090,
      "LO": 2091,
      "Ġassum": 2092,
      "Ġsrc": 2093,
      "Ġhere": 2094,
      "AD": 2095,
      "leg": 2096,
      "eturn": 2097,
      "ene": 2098,
      "psilon": 2099,
      "Gamma": 2100,
      "****************": 2101,
      "ags": 2102,
      "ixed": 2103,
      "ouble": 2104,
      "De": 2105,
      "lt": 2106,
      "Ġlarge": 2107,
      "abled": 2108,
      "Code": 2109,
      "eqnarray": 2110,
      "style": 2111,
      "iction": 2112,
      "duct": 2113,
      "cope": 2114,
      "Ġcoun": 2115,
      "Ġpop": 2116,
      "Ġcorrespond": 2117,
      "Build": 2118,
      "UT": 2119,
      "Ġcode": 2120,
      "Ġnext": 2121,
      "Hand": 2122,
      "Ġnetwork": 2123,
      "gt": 2124,
      "Ġdepend": 2125,
      "ival": 2126,
      "Of": 2127,
      "includeg": 2128,
      "includegraphics": 2129,
      "rel": 2130,
      "Ġversion": 2131,
      "imal": 2132,
      "Ġthose": 2133,
      "istory": 2134,
      "ĠSystem": 2135,
      "bo": 2136,
      "29": 2137,
      "ret": 2138,
      "default": 2139,
      "ML": 2140,
      "state": 2141,
      "He": 2142,
      "Val": 2143,
      "base": 2144,
      "vail": 2145,
      "Ġinitial": 2146,
      "Ġexpl": 2147,
      "ottom": 2148,
      "css": 2149,
      "ED": 2150,
      "nection": 2151,
      "ĠRe": 2152,
      "Ġposition": 2153,
      "Ġconfig": 2154,
      "light": 2155,
      "IG": 2156,
      "Ġjava": 2157,
      "Ġmark": 2158,
      "Ġdown": 2159,
      "Ġreport": 2160,
      "using": 2161,
      "^{(": 2162,
      "non": 2163,
      ".\"": 2164,
      "urther": 2165,
      "start": 2166,
      "ĠAnd": 2167,
      "80": 2168,
      "ING": 2169,
      "Ġexample": 2170,
      "Ġgeneral": 2171,
      "atures": 2172,
      "nder": 2173,
      "info": 2174,
      "Ġdi": 2175,
      "Ġbreak": 2176,
      "inc": 2177,
      "ĠUniversity": 2178,
      "Ġmov": 2179,
      "Ġindex": 2180,
      "Model": 2181,
      "ators": 2182,
      "Ġappe": 2183,
      "content": 2184,
      "Ġrefer": 2185,
      "Ġpat": 2186,
      "dev": 2187,
      "andard": 2188,
      "ina": 2189,
      "option": 2190,
      "reate": 2191,
      "IS": 2192,
      "Ġcontext": 2193,
      "sem": 2194,
      "Color": 2195,
      "oper": 2196,
      "lished": 2197,
      "Ġmeasure": 2198,
      ":\\!": 2199,
      "alk": 2200,
      "ĠIs": 2201,
      "vare": 2202,
      "Ġ===": 2203,
      "Ġchild": 2204,
      "Comm": 2205,
      "Is": 2206,
      "Ġcreate": 2207,
      "Loc": 2208,
      "\\!:\\!": 2209,
      "down": 2210,
      "Ġview": 2211,
      "stru": 2212,
      "Ġrecord": 2213,
      "java": 2214,
      "uted": 2215,
      "Ġpres": 2216,
      "ware": 2217,
      "tainer": 2218,
      "Ġbeg": 2219,
      "Ġenergy": 2220,
      "Ġdefined": 2221,
      "Ġincluding": 2222,
      "Ġcar": 2223,
      "Ġabove": 2224,
      "}=": 2225,
      "ynam": 2226,
      "Ġestim": 2227,
      "Ġrece": 2228,
      "ĠPh": 2229,
      "Ġinstance": 2230,
      "ustr": 2231,
      "Ġear": 2232,
      "Ġsingle": 2233,
      "ET": 2234,
      "acy": 2235,
      "emph": 2236,
      "ables": 2237,
      "Ġaddition": 2238,
      "}^{\\": 2239,
      "Ġproject": 2240,
      "Ġ($": 2241,
      "AB": 2242,
      "hip": 2243,
      "--------------------------------": 2244,
      "varepsilon": 2245,
      "itch": 2246,
      "uage": 2247,
      "rodu": 2248,
      "ait": 2249,
      "tings": 2250,
      "ital": 2251,
      "aper": 2252,
      "66": 2253,
      "Ġsum": 2254,
      "ateg": 2255,
      "Ġdid": 2256,
      "User": 2257,
      "ram": 2258,
      "olv": 2259,
      "2020": 2260,
      "2017": 2261,
      "www": 2262,
      "35": 2263,
      "Ġfour": 2264,
      "sim": 2265,
      "andom": 2266,
      "Comp": 2267,
      "It": 2268,
      "icy": 2269,
      "cer": 2270,
      "bug": 2271,
      "Ġcr": 2272,
      ")=": 2273,
      "Ġbase": 2274,
      "TD": 2275,
      "Ð°": 2276,
      "por": 2277,
      "''": 2278,
      "eff": 2279,
      "Ġcalled": 2280,
      "lin": 2281,
      "2018": 2282,
      "Ð¾": 2283,
      "android": 2284,
      "Manager": 2285,
      "Ġown": 2286,
      "Ġlook": 2287,
      "AS": 2288,
      "Log": 2289,
      "ograph": 2290,
      "uck": 2291,
      "imple": 2292,
      "ĉĉĉĉĉĉ": 2293,
      "ches": 2294,
      "MP": 2295,
      ".~\\": 2296,
      "ĠComm": 2297,
      "Ġcommun": 2298,
      "CH": 2299,
      "roller": 2300,
      "include": 2301,
      "package": 2302,
      "mat": 2303,
      "Ġ${\\": 2304,
      "rightarrow": 2305,
      "Ġstyle": 2306,
      "Ġ};": 2307,
      "Ġsource": 2308,
      "Ġhelp": 2309,
      "tn": 2310,
      "From": 2311,
      "wid": 2312,
      ";</": 2313,
      "ands": 2314,
      "rangle": 2315,
      "Ġbro": 2316,
      "Ġpost": 2317,
      "aut": 2318,
      "ĠĠĠĠĠĠĠĠĠĠĠĠ": 2319,
      "Ġmag": 2320,
      "ysis": 2321,
      "imum": 2322,
      "Ġdat": 2323,
      "ique": 2324,
      "Ġ__": 2325,
      "Ġwithin": 2326,
      "ĠAmerican": 2327,
      "prot": 2328,
      "ender": 2329,
      "Ġknown": 2330,
      "iness": 2331,
      "=\"../": 2332,
      "Ser": 2333,
      "Ġ\\,": 2334,
      "eter": 2335,
      "iod": 2336,
      "Ġden": 2337,
      "come": 2338,
      "75": 2339,
      "df": 2340,
      "2016": 2341,
      "check": 2342,
      "Table": 2343,
      "icle": 2344,
      "Inter": 2345,
      "ĠGet": 2346,
      "Out": 2347,
      "ules": 2348,
      "ances": 2349,
      "ĠYou": 2350,
      "ithub": 2351,
      "method": 2352,
      "ux": 2353,
      "ĠĠĠĠĠĠĠĠĠĠ": 2354,
      "=\"#": 2355,
      "ocus": 2356,
      "ird": 2357,
      "ij": 2358,
      "context": 2359,
      "imension": 2360,
      "Ġitem": 2361,
      "count": 2362,
      "Big": 2363,
      "Ġtry": 2364,
      "usic": 2365,
      "Ġsat": 2366,
      "geq": 2367,
      "false": 2368,
      "osed": 2369,
      "urity": 2370,
      "vailable": 2371,
      "omain": 2372,
      "Ġpower": 2373,
      "lim": 2374,
      "proof": 2375,
      "google": 2376,
      "ape": 2377,
      "ĠTo": 2378,
      "refer": 2379,
      "cor": 2380,
      "Ġprogram": 2381,
      "Ġwithout": 2382,
      "Ġtot": 2383,
      "ley": 2384,
      "2015": 2385,
      "varphi": 2386,
      "ised": 2387,
      "hes": 2388,
      "âĢľ": 2389,
      "DO": 2390,
      "Ġenc": 2391,
      "omen": 2392,
      "2019": 2393,
      "ately": 2394,
      "ended": 2395,
      "annel": 2396,
      "Pl": 2397,
      "Ġchang": 2398,
      "Ġdue": 2399,
      "Ġmuch": 2400,
      "Property": 2401,
      ";&": 2402,
      "my": 2403,
      "Ġmodels": 2404,
      "Ġsimilar": 2405,
      "Ġworld": 2406,
      "define": 2407,
      "ĠMar": 2408,
      "Ġocc": 2409,
      "Ġparameters": 2410,
      "doc": 2411,
      "Trans": 2412,
      "Ġagainst": 2413,
      "Ġbeh": 2414,
      ".}": 2415,
      "Rec": 2416,
      "Ġexist": 2417,
      "viron": 2418,
      "atter": 2419,
      "ium": 2420,
      "ĠAt": 2421,
      "55": 2422,
      "Ġtake": 2423,
      "ULL": 2424,
      "90": 2425,
      "ĠPr": 2426,
      "exp": 2427,
      "ĠOr": 2428,
      "Up": 2429,
      "Ġcontrol": 2430,
      ")</": 2431,
      "ee": 2432,
      "opt": 2433,
      "Ġcompon": 2434,
      "aterial": 2435,
      "Reg": 2436,
      "lick": 2437,
      "ENT": 2438,
      "ored": 2439,
      "github": 2440,
      "ES": 2441,
      "Ġstill": 2442,
      "](": 2443,
      ".âĢĿ": 2444,
      "ĉĊ": 2445,
      "mult": 2446,
      "db": 2447,
      "Ġmak": 2448,
      "ohn": 2449,
      "ling": 2450,
      "Ġoptions": 2451,
      "Dis": 2452,
      "All": 2453,
      "Ġrange": 2454,
      "[\\": 2455,
      "Group": 2456,
      "Ġrequire": 2457,
      "OT": 2458,
      "<!--": 2459,
      "ison": 2460,
      "core": 2461,
      "ety": 2462,
      "Ġgame": 2463,
      "Ġaround": 2464,
      "earch": 2465,
      "mm": 2466,
      "Ġbas": 2467,
      "01": 2468,
      "Ġcur": 2469,
      "Ġcolor": 2470,
      "Ġconf": 2471,
      "UN": 2472,
      "&\\": 2473,
      "Ġet": 2474,
      "web": 2475,
      "ording": 2476,
      "ched": 2477,
      "ansp": 2478,
      "Ġshown": 2479,
      "Ġtri": 2480,
      "tual": 2481,
      "bolds": 2482,
      "Ġproblem": 2483,
      "cul": 2484,
      "Ðµ": 2485,
      "Ġwant": 2486,
      "namespace": 2487,
      "ĠShe": 2488,
      "ifier": 2489,
      "ship": 2490,
      "Ġsever": 2491,
      "Ġtechn": 2492,
      "Ġwidth": 2493,
      "boldsymbol": 2494,
      "amples": 2495,
      "Ġrema": 2496,
      "Ġimage": 2497,
      "ĠUnited": 2498,
      "hline": 2499,
      "vec": 2500,
      "ĠEng": 2501,
      "draw": 2502,
      "Ġelect": 2503,
      "Pr": 2504,
      "gorithm": 2505,
      "onse": 2506,
      "ns": 2507,
      "2022": 2508,
      "Ġsection": 2509,
      "ideo": 2510,
      "System": 2511,
      "static": 2512,
      "ober": 2513,
      "ensity": 2514,
      "Ġandroid": 2515,
      "Client": 2516,
      "Ġnil": 2517,
      "34": 2518,
      "Count": 2519,
      "une": 2520,
      "Ġaddress": 2521,
      ">(": 2522,
      "Ġbest": 2523,
      "New": 2524,
      "Ġdel": 2525,
      "ai": 2526,
      "Ġquant": 2527,
      "},\\": 2528,
      "Ġassoci": 2529,
      "tes": 2530,
      "Ġresponse": 2531,
      "Ġredu": 2532,
      "event": 2533,
      "And": 2534,
      "Ġgood": 2535,
      "ĠAd": 2536,
      "Ġproperty": 2537,
      "Ġstat": 2538,
      "\".": 2539,
      "cast": 2540,
      "Ġprevious": 2541,
      "Ġhead": 2542,
      "Ġstd": 2543,
      "Ġchange": 2544,
      "Ġ()": 2545,
      "Ġdeterm": 2546,
      "If": 2547,
      "Ġparticular": 2548,
      "}).": 2549,
      "Method": 2550,
      "Ġdeta": 2551,
      "Ġpred": 2552,
      "af": 2553,
      "Rep": 2554,
      "ump": 2555,
      "Ġoutput": 2556,
      "overline": 2557,
      "arning": 2558,
      "Ġaction": 2559,
      "uments": 2560,
      "si": 2561,
      "Ġbackground": 2562,
      "uro": 2563,
      "Ġbool": 2564,
      "Ġpoints": 2565,
      "CE": 2566,
      "2014": 2567,
      "39": 2568,
      "Ġseries": 2569,
      "lose": 2570,
      "ĠWh": 2571,
      "ugg": 2572,
      "oin": 2573,
      "Ġcharacter": 2574,
      "call": 2575,
      "erefore": 2576,
      "amed": 2577,
      "ĠHowever": 2578,
      "ilt": 2579,
      "ĠTe": 2580,
      "Ġparameter": 2581,
      "ony": 2582,
      "Arg": 2583,
      "ĠÐ": 2584,
      "Ġprob": 2585,
      "usiness": 2586,
      "nect": 2587,
      "Ġcorre": 2588,
      "Ġlength": 2589,
      "Query": 2590,
      "Response": 2591,
      "Call": 2592,
      "Ġfull": 2593,
      "argin": 2594,
      "Ġspect": 2595,
      "Ġfollows": 2596,
      "Mod": 2597,
      "anel": 2598,
      "iment": 2599,
      "================": 2600,
      "Read": 2601,
      "Let": 2602,
      "ready": 2603,
      "Ġtotal": 2604,
      "struction": 2605,
      "ĠPl": 2606,
      "Ġlow": 2607,
      "Ġstudy": 2608,
      "Override": 2609,
      "Ġlinks": 2610,
      "Ġadv": 2611,
      "ways": 2612,
      "Ġinclude": 2613,
      "2021": 2614,
      "null": 2615,
      "Âł": 2616,
      "oud": 2617,
      "Ġlater": 2618,
      "current": 2619,
      "IR": 2620,
      "ume": 2621,
      "Ġsuccess": 2622,
      "Ġdem": 2623,
      "ither": 2624,
      "ĠAll": 2625,
      "print": 2626,
      "Ġmultip": 2627,
      "build": 2628,
      "uster": 2629,
      "Ġsk": 2630,
      "Bar": 2631,
      "image": 2632,
      "IP": 2633,
      "36": 2634,
      "rid": 2635,
      "Ġimplement": 2636,
      "ĠĠĠĠĠĠĠĠĠĠĠĠĠĠĠĠĠĠĠĠĠĠĠĠĠĠĠĠĠĠĠ": 2637,
      "Ġsw": 2638,
      "Ġcell": 2639,
      "Ġmatch": 2640,
      "button": 2641,
      "Ġplace": 2642,
      "External": 2643,
      "actory": 2644,
      "Ġmessage": 2645,
      "ords": 2646,
      "48": 2647,
      "}}$": 2648,
      "aving": 2649,
      "query": 2650,
      ")^": 2651,
      "TH": 2652,
      "NA": 2653,
      "mo": 2654,
      "ename": 2655,
      "Ġcount": 2656,
      "ĠApp": 2657,
      "Ġder": 2658,
      "Ġq": 2659,
      "Ġavailable": 2660,
      "frak": 2661,
      "dir": 2662,
      "istic": 2663,
      "ĠFe": 2664,
      "foot": 2665,
      "US": 2666,
      "Ġpossible": 2667,
      "ependent": 2668,
      "Ġoriginal": 2669,
      "Ġalong": 2670,
      "){": 2671,
      "inary": 2672,
      "options": 2673,
      "38": 2674,
      "orph": 2675,
      "Builder": 2676,
      "2013": 2677,
      "ĠMay": 2678,
      "finished": 2679,
      "ĠSet": 2680,
      "ĠJan": 2681,
      "ĠRep": 2682,
      "Date": 2683,
      "Ġtable": 2684,
      "Ġaccess": 2685,
      "05": 2686,
      "Ġport": 2687,
      "Ġold": 2688,
      "cap": 2689,
      "aster": 2690,
      "isf": 2691,
      "Ġsuper": 2692,
      "Ġla": 2693,
      "ĠCl": 2694,
      "dl": 2695,
      ")(": 2696,
      "sf": 2697,
      "otential": 2698,
      "~~": 2699,
      "Ġfamily": 2700,
      "37": 2701,
      "ĠâĢĶ": 2702,
      "Ġexpected": 2703,
      "Ġdocument": 2704,
      "height": 2705,
      "ensuremath": 2706,
      "aint": 2707,
      "ĠSp": 2708,
      "Ġregion": 2709,
      "ths": 2710,
      "Image": 2711,
      "Ġterms": 2712,
      "lib": 2713,
      "xim": 2714,
      "Ġinterest": 2715,
      "func": 2716,
      "undle": 2717,
      "circ": 2718,
      "Ġstructure": 2719,
      "31": 2720,
      "ONT": 2721,
      "ĠList": 2722,
      "Ġshows": 2723,
      "Ġlarg": 2724,
      "vironment": 2725,
      "Stream": 2726,
      "ven": 2727,
      "Ġnear": 2728,
      "php": 2729,
      "Ġcap": 2730,
      "ection": 2731,
      "Ġproduct": 2732,
      "Ġdon": 2733,
      "])": 2734,
      "Ġ``": 2735,
      "ldots": 2736,
      "Lambda": 2737,
      "Block": 2738,
      "ĠEn": 2739,
      "textit": 2740,
      "yc": 2741,
      "itud": 2742,
      "Ġsequ": 2743,
      "hand": 2744,
      "run": 2745,
      "Ġservice": 2746,
      "Sub": 2747,
      "ĠCar": 2748,
      "unfinished": 2749,
      "Ġperson": 2750,
      "Ġdiscuss": 2751,
      "xy": 2752,
      "langle": 2753,
      "reen": 2754,
      "44": 2755,
      "Ġlaw": 2756,
      "Ġdistribution": 2757,
      "Ġschool": 2758,
      "request": 2759,
      "Su": 2760,
      "IL": 2761,
      "ibr": 2762,
      "uture": 2763,
      "((": 2764,
      "citep": 2765,
      "ster": 2766,
      "Ġmean": 2767,
      "small": 2768,
      "Ġvalid": 2769,
      "ibility": 2770,
      "Ġfoot": 2771,
      "Ġanother": 2772,
      "ĠĠĠĠĠĠĠĠĠĠĠĠĠĠĠĠĠ": 2773,
      "icient": 2774,
      "jav": 2775,
      "ĠBy": 2776,
      "ajor": 2777,
      "Ġlife": 2778,
      "Ġlimit": 2779,
      "lies": 2780,
      "2012": 2781,
      "mathfrak": 2782,
      "End": 2783,
      "Ġlay": 2784,
      "element": 2785,
      "Ġke": 2786,
      "ĠCan": 2787,
      "Input": 2788,
      "ĠMan": 2789,
      "sequ": 2790,
      "amework": 2791,
      "2010": 2792,
      "wards": 2793,
      "ategory": 2794,
      "ymmet": 2795,
      "Ġann": 2796,
      "Cell": 2797,
      "ternational": 2798,
      "args": 2799,
      "SP": 2800,
      "clus": 2801,
      "Ġcontinu": 2802,
      "Be": 2803,
      "Ġseason": 2804,
      "EE": 2805,
      "rows": 2806,
      "Ġcomb": 2807,
      "({": 2808,
      "init": 2809,
      "Ġbook": 2810,
      "Ġlang": 2811,
      "riter": 2812,
      "appa": 2813,
      "Ġtask": 2814,
      "ending": 2815,
      "ention": 2816,
      "oop": 2817,
      "Ġplayers": 2818,
      "2011": 2819,
      "apt": 2820,
      "AG": 2821,
      "Ġorgan": 2822,
      "Ġspe": 2823,
      "client": 2824,
      "}),": 2825,
      "Ġseveral": 2826,
      "Ġcare": 2827,
      "Ġinvest": 2828,
      "Ġfunctions": 2829,
      "overnment": 2830,
      "Ġlabel": 2831,
      "pol": 2832,
      "Ġpo": 2833,
      "vari": 2834,
      "Ġvert": 2835,
      "Status": 2836,
      "Ð¸": 2837,
      "ides": 2838,
      "server": 2839,
      "Ġborder": 2840,
      "NS": 2841,
      "tx": 2842,
      "Ġ<<": 2843,
      "raint": 2844,
      "nab": 2845,
      "ring": 2846,
      "67": 2847,
      "iev": 2848,
      "08": 2849,
      "Ġshort": 2850,
      "Ġcour": 2851,
      "Gener": 2852,
      "oice": 2853,
      "Ġmatrix": 2854,
      "Ġrequired": 2855,
      "Ġfa": 2856,
      "ĠCent": 2857,
      "Phi": 2858,
      "erg": 2859,
      ".\\": 2860,
      "Ġvol": 2861,
      "Ġ->": 2862,
      "Ġday": 2863,
      "Ġfilm": 2864,
      "Ġstrong": 2865,
      "Pos": 2866,
      "ze": 2867,
      "Ġindic": 2868,
      "vers": 2869,
      "resh": 2870,
      "ici": 2871,
      "ially": 2872,
      "Component": 2873,
      "Ġsche": 2874,
      "Par": 2875,
      "ĠBl": 2876,
      "ĠThey": 2877,
      "lied": 2878,
      "Nav": 2879,
      "subset": 2880,
      "arams": 2881,
      "mark": 2882,
      "Ġarea": 2883,
      "Ġfree": 2884,
      "Ġuntil": 2885,
      "kn": 2886,
      "gress": 2887,
      "Ġintrodu": 2888,
      "Str": 2889,
      "pped": 2890,
      "append": 2891,
      "Line": 2892,
      "uk": 2893,
      "ii": 2894,
      "ĠStates": 2895,
      "0000": 2896,
      "rist": 2897,
      "ves": 2898,
      "Ġdesign": 2899,
      "OP": 2900,
      "epar": 2901,
      "older": 2902,
      "bum": 2903,
      "page": 2904,
      "ĠThen": 2905,
      "\\|": 2906,
      "Ġaff": 2907,
      "dec": 2908,
      "Lay": 2909,
      "Ġestab": 2910,
      "kappa": 2911,
      "png": 2912,
      "Ġsatisf": 2913,
      "Ġmethods": 2914,
      "ĠJohn": 2915,
      "Paramet": 2916,
      "65": 2917,
      "urch": 2918,
      "has": 2919,
      "ĠPol": 2920,
      "target": 2921,
      "do": 2922,
      "\\%": 2923,
      "No": 2924,
      "enn": 2925,
      "ourn": 2926,
      "Ġcomput": 2927,
      "yles": 2928,
      "Ġgraph": 2929,
      "icro": 2930,
      "Ġ\"\"\"": 2931,
      "rior": 2932,
      "Ġcomplet": 2933,
      "posed": 2934,
      "ĠGr": 2935,
      "Ġes": 2936,
      "ĠCo": 2937,
      "Ġpotential": 2938,
      "ocial": 2939,
      "Ġside": 2940,
      "ĠReg": 2941,
      "atform": 2942,
      "abase": 2943,
      "Ġimportant": 2944,
      "ports": 2945,
      "adding": 2946,
      "Ġsupp": 2947,
      "Ġperformance": 2948,
      "ĠĠĠĠĠĠĠĠĊ": 2949,
      "idual": 2950,
      "ĠWorld": 2951,
      "Ġtimes": 2952,
      "Ġexec": 2953,
      "display": 2954,
      "orage": 2955,
      "ls": 2956,
      "Ġboolean": 2957,
      "header": 2958,
      "mit": 2959,
      "book": 2960,
      "property": 2961,
      "Ġdeg": 2962,
      "aim": 2963,
      "Ġstates": 2964,
      "SC": 2965,
      "bra": 2966,
      "nabla": 2967,
      "AP": 2968,
      "Base": 2969,
      "Ġparent": 2970,
      "ĠGe": 2971,
      "uid": 2972,
      "icense": 2973,
      "07": 2974,
      "ĠNational": 2975,
      "Ed": 2976,
      "[\"": 2977,
      "uman": 2978,
      "Token": 2979,
      "YPE": 2980,
      "rict": 2981,
      "Ġlight": 2982,
      "lease": 2983,
      "xml": 2984,
      "})$": 2985,
      "Ġstandard": 2986,
      "ĠNULL": 2987,
      "Ġimpro": 2988,
      "Ġsignific": 2989,
      "Ġperiod": 2990,
      "flow": 2991,
      "gener": 2992,
      "wide": 2993,
      "ocol": 2994,
      "creen": 2995,
      "Ġfew": 2996,
      "active": 2997,
      "dat": 2998,
      "Ġclear": 2999,
      "ament": 3000,
      "Ġsolution": 3001,
      "ĠNov": 3002,
      "Ġpage": 3003,
      "Ext": 3004,
      "alf": 3005,
      "now": 3006,
      "ÑĤ": 3007,
      "verage": 3008,
      "ĠCount": 3009,
      "REF": 3010,
      "ĠĠĠĠĠĠĠĠĠĠĠĠĠĠ": 3011,
      "Source": 3012,
      "ught": 3013,
      "ĠNo": 3014,
      "Act": 3015,
      "amil": 3016,
      "place": 3017,
      "ugin": 3018,
      "Sc": 3019,
      "Ġsit": 3020,
      "wise": 3021,
      "Ġweek": 3022,
      "Instance": 3023,
      "Options": 3024,
      "Ġturn": 3025,
      "stit": 3026,
      "ĠAdd": 3027,
      "Ġeng": 3028,
      "ĠBe": 3029,
      "parent": 3030,
      "II": 3031,
      "uation": 3032,
      "ĠSec": 3033,
      "Ġcomplex": 3034,
      "Ġalready": 3035,
      "semb": 3036,
      "hether": 3037,
      "oto": 3038,
      "Head": 3039,
      "module": 3040,
      "navbar": 3041,
      "Ġdiv": 3042,
      "Exp": 3043,
      "Handler": 3044,
      "ĠUS": 3045,
      "Equal": 3046,
      "bottom": 3047,
      "ung": 3048,
      "47": 3049,
      "Action": 3050,
      "agement": 3051,
      "}}{": 3052,
      "ague": 3053,
      "Ġanalysis": 3054,
      "49": 3055,
      "aced": 3056,
      "Ġcolumn": 3057,
      "Ġbu": 3058,
      "Ġbo": 3059,
      "Ġpub": 3060,
      "ours": 3061,
      "ks": 3062,
      ",âĢĿ": 3063,
      "Ġproperties": 3064,
      "atrix": 3065,
      "Ġred": 3066,
      "pc": 3067,
      "alt": 3068,
      "Ġ+=": 3069,
      "rain": 3070,
      "Dec": 3071,
      "aged": 3072,
      "ĠJul": 3073,
      "illion": 3074,
      "OD": 3075,
      "Content": 3076,
      "izer": 3077,
      "Ġrate": 3078,
      "Ġhome": 3079,
      "Ġnum": 3080,
      "adata": 3081,
      "iff": 3082,
      "omin": 3083,
      "Sec": 3084,
      "lev": 3085,
      "ĠCal": 3086,
      "Ġvir": 3087,
      "anch": 3088,
      "sol": 3089,
      "igation": 3090,
      "rl": 3091,
      "CK": 3092,
      "Ġleg": 3093,
      "Ġconstant": 3094,
      "Ġless": 3095,
      "ges": 3096,
      "Ġpaper": 3097,
      "ories": 3098,
      "Cl": 3099,
      "FA": 3100,
      "ĠLet": 3101,
      "ĠCO": 3102,
      "Off": 3103,
      "centering": 3104,
      "Ġscal": 3105,
      "2009": 3106,
      "Ġeas": 3107,
      "json": 3108,
      "Ġret": 3109,
      "Ġobtained": 3110,
      "dr": 3111,
      "ĠPar": 3112,
      "case": 3113,
      "Ġaccount": 3114,
      "Us": 3115,
      "Resource": 3116,
      "Ġrole": 3117,
      "195": 3118,
      "\\[": 3119,
      "Ġsay": 3120,
      "vider": 3121,
      "Ġfurther": 3122,
      "Ġleast": 3123,
      "cell": 3124,
      "lit": 3125,
      "Ġrest": 3126,
      "first": 3127,
      "EX": 3128,
      "ĠSchool": 3129,
      "Ġpair": 3130,
      "otimes": 3131,
      "Null": 3132,
      "child": 3133,
      "Ġapproach": 3134,
      "Sigma": 3135,
      "era": 3136,
      "ialog": 3137,
      "mbox": 3138,
      "Ġnormal": 3139,
      "otype": 3140,
      "/\\": 3141,
      "MS": 3142,
      "Ġeither": 3143,
      "tact": 3144,
      "68": 3145,
      "estion": 3146,
      "select": 3147,
      "09": 3148,
      "Ġprom": 3149,
      "ached": 3150,
      "oment": 3151,
      "ĠBut": 3152,
      "Ġlower": 3153,
      "Ġapproxim": 3154,
      "ĠMin": 3155,
      "ensor": 3156,
      "post": 3157,
      "Ġrandom": 3158,
      "Oper": 3159,
      "Ð½": 3160,
      "yl": 3161,
      "Ġcorresponding": 3162,
      "Ġhttp": 3163,
      "btn": 3164,
      "eger": 3165,
      "Ġprovide": 3166,
      "Ġcalcul": 3167,
      "ĠSo": 3168,
      "Ġcou": 3169,
      "ĠThere": 3170,
      "Ġlinear": 3171,
      "HT": 3172,
      "Default": 3173,
      "Run": 3174,
      "Ġide": 3175,
      "Fig": 3176,
      "Ġiss": 3177,
      "Ġfeature": 3178,
      "ĠĠĠĠĠĠĠĠĠĠĠĠĊ": 3179,
      "Ġwin": 3180,
      "Sp": 3181,
      "irection": 3182,
      "02": 3183,
      "Ġresearch": 3184,
      "cho": 3185,
      "Ġvector": 3186,
      "nonumber": 3187,
      "spec": 3188,
      "Buffer": 3189,
      "src": 3190,
      "04": 3191,
      "asing": 3192,
      "widet": 3193,
      "write": 3194,
      "CC": 3195,
      "ptr": 3196,
      "ATE": 3197,
      "tributes": 3198,
      "########": 3199,
      "ĠInt": 3200,
      "LASS": 3201,
      "Link": 3202,
      "ae": 3203,
      "omic": 3204,
      "ights": 3205,
      "Ġelements": 3206,
      "used": 3207,
      "main": 3208,
      "Ġfeatures": 3209,
      "ĠComp": 3210,
      "ĠTest": 3211,
      "acing": 3212,
      "sg": 3213,
      "ales": 3214,
      "ently": 3215,
      "gle": 3216,
      "rowser": 3217,
      "ĠYork": 3218,
      "Style": 3219,
      "2008": 3220,
      "\"]": 3221,
      "raft": 3222,
      "*/": 3223,
      "Ġindu": 3224,
      "Ġsystems": 3225,
      "meta": 3226,
      "iler": 3227,
      "Ġphys": 3228,
      "status": 3229,
      "Attribute": 3230,
      "Ġfore": 3231,
      "Factory": 3232,
      "ĠAug": 3233,
      "Ġcirc": 3234,
      "ploy": 3235,
      "imary": 3236,
      "ĠThese": 3237,
      "illi": 3238,
      "char": 3239,
      "TO": 3240,
      "âĢĶ": 3241,
      "ordin": 3242,
      "Ġsignificant": 3243,
      "Part": 3244,
      "Box": 3245,
      "Ġoffic": 3246,
      "mber": 3247,
      "Ġcases": 3248,
      "Ġhost": 3249,
      "Ġassociated": 3250,
      "img": 3251,
      "UL": 3252,
      "dots": 3253,
      "stand": 3254,
      "HE": 3255,
      "ĠJanuary": 3256,
      "find": 3257,
      "ica": 3258,
      "UE": 3259,
      "Ġdensity": 3260,
      "Ġconstruct": 3261,
      "ĠOct": 3262,
      "{-": 3263,
      "widetilde": 3264,
      "ological": 3265,
      "open": 3266,
      "vis": 3267,
      "Ġdisplay": 3268,
      "Point": 3269,
      "ĠMed": 3270,
      "${": 3271,
      "Ġvia": 3272,
      "Ġbetter": 3273,
      "eline": 3274,
      "ĠState": 3275,
      "lying": 3276,
      "Ġevents": 3277,
      "Start": 3278,
      "Version": 3279,
      "prop": 3280,
      "Ġthink": 3281,
      "private": 3282,
      "scale": 3283,
      "Fl": 3284,
      "Ġcover": 3285,
      "ĠGu": 3286,
      "ĠWest": 3287,
      "urb": 3288,
      "only": 3289,
      "Ġbelow": 3290,
      "Ġmot": 3291,
      "Ġtrack": 3292,
      "dapt": 3293,
      "std": 3294,
      "ably": 3295,
      "gen": 3296,
      "Ġrecent": 3297,
      "OS": 3298,
      "Ġdescribed": 3299,
      "ising": 3300,
      "inst": 3301,
      "ĠWar": 3302,
      "FONT": 3303,
      "strong": 3304,
      "ĠâĢĺ": 3305,
      "push": 3306,
      "tabular": 3307,
      "po": 3308,
      "Ġsepar": 3309,
      "skip": 3310,
      "Command": 3311,
      "Ġglobal": 3312,
      "oding": 3313,
      "eed": 3314,
      "});": 3315,
      "Ġhy": 3316,
      "Ġclose": 3317,
      "Task": 3318,
      "host": 3319,
      "True": 3320,
      "Ġrespectively": 3321,
      "Number": 3322,
      "Ġtraining": 3323,
      "}-": 3324,
      "Ġdiff": 3325,
      "Ġalways": 3326,
      "oll": 3327,
      "ĠRec": 3328,
      "Ġpolit": 3329,
      "Ġconditions": 3330,
      "Window": 3331,
      "oman": 3332,
      "verse": 3333,
      "Function": 3334,
      "close": 3335,
      "ĠNone": 3336,
      "bb": 3337,
      "Ġge": 3338,
      "known": 3339,
      "First": 3340,
      "FI": 3341,
      "Ġop": 3342,
      "stream": 3343,
      "06": 3344,
      "Ġload": 3345,
      "Ġcost": 3346,
      "Ġmusic": 3347,
      "erman": 3348,
      "layout": 3349,
      "based": 3350,
      "ĠObject": 3351,
      "Ġcontrib": 3352,
      "allet": 3353,
      "local": 3354,
      "ascript": 3355,
      "igger": 3356,
      "ĠDef": 3357,
      "pping": 3358,
      "mar": 3359,
      "description": 3360,
      "last": 3361,
      "Ġcoll": 3362,
      "ĠQu": 3363,
      "Ġgrow": 3364,
      "ino": 3365,
      "Ad": 3366,
      "ĠCounty": 3367,
      "Ġbusiness": 3368,
      "VER": 3369,
      "heet": 3370,
      ")]": 3371,
      "Ġsearch": 3372,
      "Ġhigher": 3373,
      "typ": 3374,
      "Ġmajor": 3375,
      "Label": 3376,
      "ĠIm": 3377,
      "Ġmeans": 3378,
      "Spec": 3379,
      "03": 3380,
      "lip": 3381,
      "ries": 3382,
      "Ġneg": 3383,
      "Ġmembers": 3384,
      "ĠGener": 3385,
      "Ġdeath": 3386,
      "Ġins": 3387,
      "Ġearly": 3388,
      "chema": 3389,
      "Ġsuff": 3390,
      "Ġ]": 3391,
      "Ġheight": 3392,
      "Ġdefine": 3393,
      "Ġtheory": 3394,
      "Ġequation": 3395,
      "Hel": 3396,
      "Wh": 3397,
      "Page": 3398,
      "Ġcompany": 3399,
      "font": 3400,
      "Ġalbum": 3401,
      "Ġspecial": 3402,
      "pril": 3403,
      "actions": 3404,
      "Ġsl": 3405,
      "ering": 3406,
      "ĠSouth": 3407,
      "ĉĉĉĉĉĉĉĉ": 3408,
      "aps": 3409,
      "AM": 3410,
      "Ġeval": 3411,
      "Ġfail": 3412,
      "Ġput": 3413,
      "Ġdynam": 3414,
      "Ġprof": 3415,
      "licit": 3416,
      "mt": 3417,
      "Ġphase": 3418,
      "Ġprotected": 3419,
      "ĠMarch": 3420,
      "ptember": 3421,
      "Ġfootball": 3422,
      "ĠIN": 3423,
      "IM": 3424,
      "\\]": 3425,
      "project": 3426,
      "change": 3427,
      "Ġresource": 3428,
      "cond": 3429,
      "Ġflow": 3430,
      "Ġproof": 3431,
      "Ġtoo": 3432,
      "itude": 3433,
      "aves": 3434,
      "buf": 3435,
      "ustral": 3436,
      "medi": 3437,
      "Ġbi": 3438,
      "âĢ¦": 3439,
      "ÑĢ": 3440,
      "}+": 3441,
      "Ġalgorithm": 3442,
      "ada": 3443,
      "Ġclient": 3444,
      "ecess": 3445,
      "Ġcustom": 3446,
      "ĠWhen": 3447,
      "urope": 3448,
      "Ġwrite": 3449,
      "NO": 3450,
      "arr": 3451,
      "ĠWith": 3452,
      "ansport": 3453,
      "Ġbody": 3454,
      "Ġspecific": 3455,
      "num": 3456,
      "entry": 3457,
      "Ġprovided": 3458,
      "though": 3459,
      "Ġbir": 3460,
      "95": 3461,
      "ney": 3462,
      "Ġfields": 3463,
      "Create": 3464,
      "Ġauthor": 3465,
      "Ġmight": 3466,
      "mem": 3467,
      "Ġwindow": 3468,
      "Ġalign": 3469,
      "obj": 3470,
      "ĠBr": 3471,
      "2007": 3472,
      "Ġcross": 3473,
      "PRO": 3474,
      "adius": 3475,
      "ones": 3476,
      "Button": 3477,
      "na": 3478,
      "Ġcommand": 3479,
      "Ġant": 3480,
      "Ġdiag": 3481,
      "ĠReturn": 3482,
      "idden": 3483,
      "prime": 3484,
      "ĠMe": 3485,
      "column": 3486,
      "42": 3487,
      "ertain": 3488,
      "level": 3489,
      "Ġtemper": 3490,
      "ĠCor": 3491,
      "Ġrelations": 3492,
      "ops": 3493,
      "Check": 3494,
      "pack": 3495,
      "service": 3496,
      "][": 3497,
      "Ġ{@": 3498,
      "Filter": 3499,
      "sembly": 3500,
      "Ġsimple": 3501,
      "came": 3502,
      "thm": 3503,
      "ifact": 3504,
      "urg": 3505,
      "Ġ<!--": 3506,
      "Ġwhether": 3507,
      "ĠPart": 3508,
      "ires": 3509,
      "oriz": 3510,
      "Pol": 3511,
      "Ġsong": 3512,
      "ĠClass": 3513,
      "istor": 3514,
      "Ġextends": 3515,
      "format": 3516,
      "params": 3517,
      "Ġpay": 3518,
      "GL": 3519,
      "Ġscale": 3520,
      "\\{": 3521,
      "idence": 3522,
      "chan": 3523,
      "Last": 3524,
      "umb": 3525,
      "lege": 3526,
      "Ġindiv": 3527,
      "Ġprint": 3528,
      "Ð¾Ð": 3529,
      ",-": 3530,
      "ards": 3531,
      "ĠBrit": 3532,
      "Ġdouble": 3533,
      "ought": 3534,
      "sole": 3535,
      "Ġbecame": 3536,
      "Ġexists": 3537,
      "Ã¡": 3538,
      "Ġver": 3539,
      "Controller": 3540,
      "cember": 3541,
      "update": 3542,
      "Return": 3543,
      "Ġpositive": 3544,
      "Ġthrows": 3545,
      "aring": 3546,
      "ilit": 3547,
      "').": 3548,
      "Ġupdate": 3549,
      "ABLE": 3550,
      "ĠDes": 3551,
      "annot": 3552,
      "javascript": 3553,
      "\"),": 3554,
      "Ġdest": 3555,
      "adio": 3556,
      "ftware": 3557,
      "///": 3558,
      "len": 3559,
      "Ġsem": 3560,
      "ana": 3561,
      "ypes": 3562,
      "itory": 3563,
      "Ġconsist": 3564,
      "SON": 3565,
      "uggest": 3566,
      "oke": 3567,
      "\").": 3568,
      "Ġ((": 3569,
      "ittle": 3570,
      "88": 3571,
      "Ġconsidered": 3572,
      "ered": 3573,
      "Ġcrit": 3574,
      "Row": 3575,
      "eral": 3576,
      "Ġoption": 3577,
      "PC": 3578,
      "(&": 3579,
      "Ġcreated": 3580,
      "Ġbehav": 3581,
      "emma": 3582,
      "ĠSection": 3583,
      "signed": 3584,
      "Ġhapp": 3585,
      ";\\": 3586,
      "expect": 3587,
      "46": 3588,
      "Em": 3589,
      "mon": 3590,
      "rypt": 3591,
      "Ġoperator": 3592,
      "Format": 3593,
      "Ġlines": 3594,
      "endif": 3595,
      "filter": 3596,
      "ĠTheorem": 3597,
      "Ġdefinition": 3598,
      "Listener": 3599,
      "Ġprop": 3600,
      "Ġacross": 3601,
      "Ġzero": 3602,
      "Ġ&=": 3603,
      "aly": 3604,
      "Ġurl": 3605,
      "Ġchildren": 3606,
      "response": 3607,
      "pdf": 3608,
      "Ġgl": 3609,
      "onal": 3610,
      "Ġinternal": 3611,
      "ula": 3612,
      "Ġsom": 3613,
      "split": 3614,
      "70": 3615,
      "2006": 3616,
      "izing": 3617,
      "stract": 3618,
      "Ġwon": 3619,
      "ĠEd": 3620,
      "itted": 3621,
      "Ġfrequ": 3622,
      "Ġfund": 3623,
      "udio": 3624,
      "ĠEq": 3625,
      "ĠCity": 3626,
      "Ġhard": 3627,
      "AA": 3628,
      "Ġauto": 3629,
      "long": 3630,
      "ements": 3631,
      "most": 3632,
      "&&": 3633,
      "chiev": 3634,
      "ĠSer": 3635,
      "ogn": 3636,
      "ĠJune": 3637,
      "Ġphot": 3638,
      "Ġdone": 3639,
      "ensions": 3640,
      "Ġloss": 3641,
      "abor": 3642,
      "Ġaverage": 3643,
      "container": 3644,
      "Ġseen": 3645,
      "MM": 3646,
      "rav": 3647,
      "Pre": 3648,
      "Bundle": 3649,
      "alle": 3650,
      "////////////////": 3651,
      "irm": 3652,
      "}]": 3653,
      "Ġmargin": 3654,
      ")=\\": 3655,
      "ĠAugust": 3656,
      "Ġfocus": 3657,
      "ĠSeptember": 3658,
      "Ġstep": 3659,
      "ilities": 3660,
      "Ġcontains": 3661,
      "ried": 3662,
      "ication": 3663,
      "OL": 3664,
      "Ġformer": 3665,
      "Ġmove": 3666,
      "thers": 3667,
      "ĠApril": 3668,
      "UI": 3669,
      "Equals": 3670,
      "2000": 3671,
      "Valid": 3672,
      "Ġmode": 3673,
      ",\"": 3674,
      "reed": 3675,
      "attr": 3676,
      "can": 3677,
      "command": 3678,
      "Ġamong": 3679,
      "Ġstatus": 3680,
      "olved": 3681,
      "styles": 3682,
      "py": 3683,
      "Ġcomponent": 3684,
      "}=\\": 3685,
      "Ġcity": 3686,
      "Ġmar": 3687,
      "atural": 3688,
      "ĠDis": 3689,
      "Ġgrad": 3690,
      "orts": 3691,
      "operator": 3692,
      "fill": 3693,
      "BU": 3694,
      "empty": 3695,
      "ba": 3696,
      "ĠNot": 3697,
      "ference": 3698,
      "Ġgive": 3699,
      "Ġhealth": 3700,
      "Ġband": 3701,
      "Ġcompet": 3702,
      "acity": 3703,
      "aging": 3704,
      "Ġgovernment": 3705,
      "ĠOctober": 3706,
      "member": 3707,
      "number": 3708,
      "Ġsequence": 3709,
      "Ġindividual": 3710,
      "Ġplan": 3711,
      "Ġunit": 3712,
      "Ġmember": 3713,
      "igin": 3714,
      "Ent": 3715,
      "Ġnumer": 3716,
      "Ġdate": 3717,
      "show": 3718,
      "under": 3719,
      "aff": 3720,
      "Ġgreat": 3721,
      "ĠDr": 3722,
      "Column": 3723,
      "textwidth": 3724,
      "rest": 3725,
      ")}\\": 3726,
      "cos": 3727,
      "Ġpract": 3728,
      "Ġhistory": 3729,
      "dist": 3730,
      "ging": 3731,
      "Ġlik": 3732,
      "dep": 3733,
      "(-": 3734,
      "Ġoften": 3735,
      "<?": 3736,
      "iddle": 3737,
      "ĠJuly": 3738,
      "ham": 3739,
      "ĠAss": 3740,
      "ĠSu": 3741,
      "ĠNorth": 3742,
      "ĠAb": 3743,
      "Ġarch": 3744,
      "ĠAct": 3745,
      "ocket": 3746,
      "Ġlate": 3747,
      "process": 3748,
      "Ġfuture": 3749,
      "Ġsite": 3750,
      "istry": 3751,
      "Ġcopy": 3752,
      "ĠMore": 3753,
      "omorph": 3754,
      "Ġtoget": 3755,
      "sd": 3756,
      ":</": 3757,
      "Ġtre": 3758,
      "cy": 3759,
      "ĠEurope": 3760,
      "Ġtogether": 3761,
      "Ġvarious": 3762,
      "Ġcatch": 3763,
      "ĠOne": 3764,
      "ressed": 3765,
      "menu": 3766,
      "which": 3767,
      "tag": 3768,
      "ided": 3769,
      "Ġable": 3770,
      "refix": 3771,
      ")^{": 3772,
      "Const": 3773,
      "Ġtypes": 3774,
      "hib": 3775,
      "Met": 3776,
      "Ġsent": 3777,
      "pass": 3778,
      "ids": 3779,
      "Ġfinite": 3780,
      "encies": 3781,
      "Ġthus": 3782,
      "Aut": 3783,
      "Ġarr": 3784,
      "Ġthird": 3785,
      "Char": 3786,
      "itions": 3787,
      "ibrary": 3788,
      "ĠSw": 3789,
      "reference": 3790,
      "Ġtransform": 3791,
      "Child": 3792,
      "Ġnever": 3793,
      "pling": 3794,
      "remove": 3795,
      "ured": 3796,
      "board": 3797,
      "Ġmultiple": 3798,
      "ĠNovember": 3799,
      "zeta": 3800,
      "SI": 3801,
      "ĠDecember": 3802,
      "Ġapplication": 3803,
      "_.": 3804,
      "Ġperm": 3805,
      "Ġpredict": 3806,
      "ĠHREF": 3807,
      "Ġwater": 3808,
      "Ġfar": 3809,
      "}^\\": 3810,
      "lemma": 3811,
      "TER": 3812,
      "77": 3813,
      "ĠGo": 3814,
      "URL": 3815,
      "atal": 3816,
      "lor": 3817,
      "DB": 3818,
      "Tem": 3819,
      "ĠCLASS": 3820,
      "Ob": 3821,
      "support": 3822,
      ">>": 3823,
      "Ut": 3824,
      "69": 3825,
      "ussian": 3826,
      "instance": 3827,
      "Ġwomen": 3828,
      "ampion": 3829,
      "rew": 3830,
      "Per": 3831,
      "ceed": 3832,
      "ple": 3833,
      "mid": 3834,
      "Ġachiev": 3835,
      "Acc": 3836,
      "Ġgoing": 3837,
      "Ġchanges": 3838,
      "Ġsample": 3839,
      "lections": 3840,
      "aml": 3841,
      "Back": 3842,
      "Ġmodule": 3843,
      "ĠAfter": 3844,
      "=\"../../": 3845,
      "iol": 3846,
      "Ġfixed": 3847,
      "Ġpur": 3848,
      "cdots": 3849,
      "atio": 3850,
      "Ġinstead": 3851,
      "Ġreleased": 3852,
      "xspace": 3853,
      "}_\\": 3854,
      "ĠMc": 3855,
      "oose": 3856,
      "ĠAustral": 3857,
      "Ġattack": 3858,
      "Dev": 3859,
      "Psi": 3860,
      "Ġproposed": 3861,
      "$)": 3862,
      "widehat": 3863,
      "Ġstream": 3864,
      "Ñģ": 3865,
      "tool": 3866,
      "igen": 3867,
      "Ġblack": 3868,
      "unit": 3869,
      "Ġfont": 3870,
      "Ġcannot": 3871,
      "ĠĠĠĠĠĠĠĠĠĠĠĠĠĠĠĠĠĠĠĠĠĠĠĠĠĠĠĠĠĠĠĠĠĠĠ": 3872,
      "Ġincluded": 3873,
      "acc": 3874,
      "Length": 3875,
      "Ġclaim": 3876,
      "bor": 3877,
      "ĠCont": 3878,
      "aries": 3879,
      "efined": 3880,
      "aset": 3881,
      "adem": 3882,
      "Ġlearning": 3883,
      "ography": 3884,
      "Ġmoment": 3885,
      "Ġreceived": 3886,
      "Ġbecome": 3887,
      "Ġreview": 3888,
      "Ġadditional": 3889,
      "ĠChrist": 3890,
      "gl": 3891,
      "Ġlanguage": 3892,
      "Output": 3893,
      "proto": 3894,
      "iag": 3895,
      "Ġrelated": 3896,
      "85": 3897,
      "thing": 3898,
      "apping": 3899,
      "bruary": 3900,
      "{(": 3901,
      "Mode": 3902,
      "TP": 3903,
      "Ġspecified": 3904,
      "Ġindependent": 3905,
      "Layout": 3906,
      "Ġkeep": 3907,
      "Ġrow": 3908,
      "Ġfilter": 3909,
      "Ġgroups": 3910,
      "unk": 3911,
      "else": 3912,
      "raction": 3913,
      "Ġben": 3914,
      "Ġselect": 3915,
      "bound": 3916,
      "ĠAPI": 3917,
      "offset": 3918,
      "Ġbegin": 3919,
      "```": 3920,
      "Ġsymmet": 3921,
      "Ġhaving": 3922,
      "Ġiter": 3923,
      "ike": 3924,
      "Ġdomain": 3925,
      "Ġobserved": 3926,
      "RA": 3927,
      "hel": 3928,
      "Ġ),": 3929,
      "}/": 3930,
      "43": 3931,
      "Ġnav": 3932,
      "Ġfive": 3933,
      ".$": 3934,
      "Ġstar": 3935,
      "iqu": 3936,
      "}|": 3937,
      "itional": 3938,
      "Ġsuggest": 3939,
      "ĠHT": 3940,
      "Fe": 3941,
      "ians": 3942,
      "incip": 3943,
      "ama": 3944,
      "Ġche": 3945,
      "Ġwritten": 3946,
      "Ġlim": 3947,
      "Ġinterface": 3948,
      "istics": 3949,
      "nected": 3950,
      "Web": 3951,
      "Ġformat": 3952,
      "Next": 3953,
      "See": 3954,
      "Ġcommon": 3955,
      "Cache": 3956,
      "Ġexact": 3957,
      "izes": 3958,
      "=\"../../../../../": 3959,
      "anged": 3960,
      "sm": 3961,
      "Ġquery": 3962,
      "Ab": 3963,
      "EL": 3964,
      "How": 3965,
      "Ġconc": 3966,
      "Rem": 3967,
      "Vert": 3968,
      "Ġfactor": 3969,
      "Ġadded": 3970,
      "utils": 3971,
      "ĠOff": 3972,
      "abs": 3973,
      "Select": 3974,
      "cd": 3975,
      "Address": 3976,
      "final": 3977,
      "Ġhowever": 3978,
      "Ġenvironment": 3979,
      "ND": 3980,
      "Ġreason": 3981,
      "ises": 3982,
      "Url": 3983,
      "output": 3984,
      "CD": 3985,
      "ql": 3986,
      "Ġregular": 3987,
      "Ġvideo": 3988,
      "41": 3989,
      "Ġemploy": 3990,
      "apan": 3991,
      "ĠHigh": 3992,
      "ERT": 3993,
      "reet": 3994,
      "Ġ...": 3995,
      "Ġworks": 3996,
      "Ġdevelopment": 3997,
      "ĠÂ": 3998,
      "note": 3999,
      "iform": 4000,
      "cs": 4001,
      "Ġsurface": 4002,
      "ĠOF": 4003,
      "gebra": 4004,
      "ĠSince": 4005,
      "Ġserver": 4006,
      "Ġ\\{": 4007,
      "imation": 4008,
      "prototype": 4009,
      "ĠVal": 4010,
      "Ġmaterial": 4011,
      "Ġdistance": 4012,
      "Ġhom": 4013,
      "values": 4014,
      "equiv": 4015,
      "Ġdays": 4016,
      "Ġfac": 4017,
      "Ġequival": 4018,
      "Ġsets": 4019,
      "Ġgenerated": 4020,
      "Ġplayed": 4021,
      "ĠFigure": 4022,
      "ha": 4023,
      "ĠRef": 4024,
      "bin": 4025,
      "ulations": 4026,
      "Ġjob": 4027,
      "ĠDo": 4028,
      "Ġnecess": 4029,
      "ttps": 4030,
      "COL": 4031,
      "%%": 4032,
      "isk": 4033,
      "thern": 4034,
      "like": 4035,
      "ln": 4036,
      "ams": 4037,
      "Ġapplic": 4038,
      "={": 4039,
      "2005": 4040,
      "One": 4041,
      "imensional": 4042,
      "Ġcamp": 4043,
      "Ġpopulation": 4044,
      "ites": 4045,
      "roy": 4046,
      "olve": 4047,
      "|-": 4048,
      "Ġcommunity": 4049,
      "Ġamount": 4050,
      "ĠLicense": 4051,
      "NAME": 4052,
      "ause": 4053,
      "Ġmiss": 4054,
      "Ġtw": 4055,
      "alax": 4056,
      "rum": 4057,
      "Ġonce": 4058,
      "CON": 4059,
      "Ġnone": 4060,
      "ĠID": 4061,
      "Ġmedia": 4062,
      "itter": 4063,
      "evel": 4064,
      "tains": 4065,
      "netic": 4066,
      "Frame": 4067,
      "=\"-": 4068,
      "Ġgen": 4069,
      "dom": 4070,
      "depend": 4071,
      "Ġep": 4072,
      "ouch": 4073,
      "Ġgames": 4074,
      "})\\": 4075,
      "exec": 4076,
      "Ġexperiment": 4077,
      "Width": 4078,
      "TYPE": 4079,
      "Ġhuman": 4080,
      "kit": 4081,
      "otal": 4082,
      "Ġseem": 4083,
      "Ġlocation": 4084,
      "ved": 4085,
      "Ġappear": 4086,
      "Ġhttps": 4087,
      "Ġprobability": 4088,
      "++)": 4089,
      "Provider": 4090,
      "IO": 4091,
      "Ġroot": 4092,
      "ulture": 4093,
      "artment": 4094,
      "ĠAm": 4095,
      "Ġdraw": 4096,
      "ootst": 4097,
      "ERR": 4098,
      "Ġfiles": 4099,
      "Min": 4100,
      "ĠSch": 4101,
      "Ġaccording": 4102,
      "Ġ!==": 4103,
      "ĠArray": 4104,
      "Ġ[]": 4105,
      "layer": 4106,
      "scope": 4107,
      "Max": 4108,
      "Ġmaking": 4109,
      "PS": 4110,
      "Mem": 4111,
      "window": 4112,
      "ĠBar": 4113,
      "Ġconv": 4114,
      "Ġenough": 4115,
      "float": 4116,
      "Ġtool": 4117,
      "Server": 4118,
      "Ġanaly": 4119,
      "Ġsix": 4120,
      "ething": 4121,
      "quare": 4122,
      "Update": 4123,
      "97": 4124,
      "Tag": 4125,
      "Ġremov": 4126,
      "ners": 4127,
      "ĠDist": 4128,
      "Ġcomplete": 4129,
      "ĠData": 4130,
      "cup": 4131,
      "Ġdetails": 4132,
      "Ġoperation": 4133,
      "Ġcenter": 4134,
      "essages": 4135,
      "bind": 4136,
      "Ġcallback": 4137,
      "example": 4138,
      ".~": 4139,
      "Ġweight": 4140,
      "ĠAg": 4141,
      "mathsf": 4142,
      "Ġequal": 4143,
      "erc": 4144,
      "Ġcome": 4145,
      "ĠEX": 4146,
      "Ġreference": 4147,
      "ĠFebruary": 4148,
      "Ġage": 4149,
      "ĠGL": 4150,
      "CL": 4151,
      "Ġinit": 4152,
      "Ge": 4153,
      "ille": 4154,
      "ĠDep": 4155,
      "Ġtook": 4156,
      "year": 4157,
      "appro": 4158,
      "stack": 4159,
      "qquad": 4160,
      "sing": 4161,
      "Ġbecom": 4162,
      "hood": 4163,
      "Ġcertain": 4164,
      "icture": 4165,
      "(_": 4166,
      "sin": 4167,
      "aches": 4168,
      "oder": 4169,
      "Ġassume": 4170,
      "SU": 4171,
      "ional": 4172,
      "Ġsocial": 4173,
      "itect": 4174,
      "even": 4175,
      "Ġactiv": 4176,
      "Offset": 4177,
      "}^{(": 4178,
      "ĠBo": 4179,
      "Ġedge": 4180,
      "Ġair": 4181,
      "{{": 4182,
      "andid": 4183,
      "Ġcorrect": 4184,
      "Ġinstall": 4185,
      "files": 4186,
      "Ġsays": 4187,
      "Ġnamed": 4188,
      "Ġcountry": 4189,
      "Ġbuilt": 4190,
      "Ġtaken": 4191,
      "Ġcompar": 4192,
      "Ġfri": 4193,
      "}:": 4194,
      "Ġhalf": 4195,
      "eh": 4196,
      "Ġmarket": 4197,
      "Ġaccur": 4198,
      "ĠPer": 4199,
      "grad": 4200,
      "root": 4201,
      "Ġland": 4202,
      "iet": 4203,
      "frame": 4204,
      "tic": 4205,
      "ãģ": 4206,
      "Ġtrad": 4207,
      "Ġselected": 4208,
      "ĠKing": 4209,
      "Target": 4210,
      "star": 4211,
      "Entity": 4212,
      "ategy": 4213,
      "Ġservices": 4214,
      "Ġsubject": 4215,
      "Co": 4216,
      "Ġstory": 4217,
      "ootstrap": 4218,
      "Ġoffer": 4219,
      "imate": 4220,
      "Ġprior": 4221,
      "Ġsimp": 4222,
      "Vis": 4223,
      "Ġunique": 4224,
      "Ġill": 4225,
      "IV": 4226,
      "ĠFile": 4227,
      "Ġoptim": 4228,
      "ĠPres": 4229,
      "lier": 4230,
      "Ġworking": 4231,
      "Ġconstraint": 4232,
      "Ġactive": 4233,
      "eloc": 4234,
      "ds": 4235,
      "./": 4236,
      "CODE": 4237,
      "Ġ$(\\": 4238,
      "Ġground": 4239,
      "Ġbig": 4240,
      "require": 4241,
      "Ã³": 4242,
      "Ġplayer": 4243,
      "cr": 4244,
      "Ġobjects": 4245,
      "2004": 4246,
      "document": 4247,
      "ief": 4248,
      "ournal": 4249,
      "ĠRem": 4250,
      "}}(": 4251,
      "98": 4252,
      "Ġreally": 4253,
      "pher": 4254,
      "ycle": 4255,
      "Ġnote": 4256,
      "nce": 4257,
      "Ġrepl": 4258,
      "Ġlarger": 4259,
      "parse": 4260,
      "edge": 4261,
      "ĠChar": 4262,
      "ĠTrans": 4263,
      "Ġ::": 4264,
      "PO": 4265,
      "ĠType": 4266,
      "ĠInter": 4267,
      "Ġprec": 4268,
      "anced": 4269,
      "Ġtemperature": 4270,
      "models": 4271,
      "Ġbox": 4272,
      "Ġeduc": 4273,
      "Types": 4274,
      "After": 4275,
      "control": 4276,
      "cel": 4277,
      "57": 4278,
      "}\\,": 4279,
      "oney": 4280,
      "Ġreturned": 4281,
      "artifact": 4282,
      "Ġproduction": 4283,
      "match": 4284,
      "Top": 4285,
      "Ġannoun": 4286,
      "Ġobj": 4287,
      "flu": 4288,
      "Ġfig": 4289,
      "ĠMark": 4290,
      "break": 4291,
      "eft": 4292,
      "indent": 4293,
      "rapper": 4294,
      "Ġoffset": 4295,
      "Ġvirtual": 4296,
      "([": 4297,
      "duc": 4298,
      "ients": 4299,
      "}\\\\": 4300,
      "Case": 4301,
      "Ġbuilding": 4302,
      "classes": 4303,
      "ged": 4304,
      "inner": 4305,
      "ATION": 4306,
      "Ġbit": 4307,
      "Ġtreat": 4308,
      "&=": 4309,
      "^+": 4310,
      "ĠUp": 4311,
      "born": 4312,
      "Ġliter": 4313,
      "tex": 4314,
      "normal": 4315,
      "Ġpattern": 4316,
      "unch": 4317,
      "sign": 4318,
      "ĠCoun": 4319,
      "Ġyoung": 4320,
      "()->": 4321,
      "ĠAcc": 4322,
      "]);": 4323,
      ")-": 4324,
      "Ġaccept": 4325,
      "icol": 4326,
      "Ġmillion": 4327,
      "ĉĉĉĉĉĉĉ": 4328,
      "citet": 4329,
      "ĠLemma": 4330,
      "obile": 4331,
      "Ġcapt": 4332,
      "Ġquantum": 4333,
      "uint": 4334,
      "IF": 4335,
      "ope": 4336,
      "ULT": 4337,
      "63": 4338,
      "fa": 4339,
      "ĠDev": 4340,
      "Access": 4341,
      "Ġpress": 4342,
      "Ġimages": 4343,
      "bool": 4344,
      "template": 4345,
      "$(": 4346,
      "Ġconnection": 4347,
      "tree": 4348,
      "task": 4349,
      "ĠLa": 4350,
      "ledge": 4351,
      "AV": 4352,
      "Ġfit": 4353,
      "Ġhouse": 4354,
      "Ġ&\\": 4355,
      "loy": 4356,
      "jection": 4357,
      "Work": 4358,
      "Ġcontinue": 4359,
      "********************************": 4360,
      "author": 4361,
      "Ġrelative": 4362,
      "aul": 4363,
      "ili": 4364,
      "Ġmaximum": 4365,
      "ills": 4366,
      "Ġvariable": 4367,
      "ĠSan": 4368,
      "Ġargs": 4369,
      "ometry": 4370,
      "Open": 4371,
      "Ġconver": 4372,
      "Ġrot": 4373,
      "Ġexpression": 4374,
      "ĠNote": 4375,
      "icip": 4376,
      "Ġlocated": 4377,
      "attern": 4378,
      "rics": 4379,
      "500": 4380,
      "Ġaway": 4381,
      "Ġreturns": 4382,
      "Utils": 4383,
      "achine": 4384,
      "late": 4385,
      "dated": 4386,
      "bsite": 4387,
      "Ġunderstand": 4388,
      "enumer": 4389,
      "ulated": 4390,
      "Ġpast": 4391,
      "Height": 4392,
      "ota": 4393,
      "Ġsetting": 4394,
      "ĠBritish": 4395,
      "lice": 4396,
      "Ġ~": 4397,
      "Ġ**": 4398,
      "Ġheld": 4399,
      "Ġround": 4400,
      "58": 4401,
      "ĠPe": 4402,
      "aa": 4403,
      "osp": 4404,
      "SD": 4405,
      "elling": 4406,
      "Ġreported": 4407,
      "Ġsm": 4408,
      "ĠPark": 4409,
      "rown": 4410,
      "ÃŃ": 4411,
      "Ġeffects": 4412,
      "soft": 4413,
      "ese": 4414,
      "modal": 4415,
      "ĠRev": 4416,
      "more": 4417,
      "conf": 4418,
      "Container": 4419,
      "ĠThat": 4420,
      "Ġentry": 4421,
      "Ġuint": 4422,
      "Ġlearn": 4423,
      "Ġkind": 4424,
      "Pe": 4425,
      "Ġmakes": 4426,
      "Ġ['": 4427,
      "Entry": 4428,
      "Configuration": 4429,
      "ĠArt": 4430,
      "'),": 4431,
      "Ġwhose": 4432,
      "ãĥ": 4433,
      "scr": 4434,
      "Ġprovides": 4435,
      "common": 4436,
      "ully": 4437,
      "Ġmechan": 4438,
      "There": 4439,
      "ontal": 4440,
      "ĠStr": 4441,
      "returns": 4442,
      "plit": 4443,
      "etch": 4444,
      "strict": 4445,
      "should": 4446,
      "KE": 4447,
      "Ġstudents": 4448,
      "Ġchannel": 4449,
      "Ġdeb": 4450,
      "}+\\": 4451,
      "oted": 4452,
      "Ġsolid": 4453,
      "Ag": 4454,
      "Ġyield": 4455,
      "Tree": 4456,
      "Ġpublished": 4457,
      "ĠII": 4458,
      "Ġconfiguration": 4459,
      "Ġcareer": 4460,
      "Ġgives": 4461,
      "astic": 4462,
      "{}": 4463,
      "tml": 4464,
      "rule": 4465,
      "Ġmeet": 4466,
      "ĠĠĠĠĠĠĠĠĠĠĠĠĠĠĠĠĠĠĠĠĠ": 4467,
      "Ġcut": 4468,
      "ĠHis": 4469,
      "Ġwords": 4470,
      "Ġlen": 4471,
      "mail": 4472,
      "Ġcollection": 4473,
      "Ġfloat": 4474,
      "ĠAfr": 4475,
      "vey": 4476,
      "tempt": 4477,
      "ctx": 4478,
      "criptor": 4479,
      "ĠDav": 4480,
      "Script": 4481,
      "Ġcoordin": 4482,
      "Ġlittle": 4483,
      "Ġtree": 4484,
      "Ġask": 4485,
      "Process": 4486,
      "Ġframe": 4487,
      "Ġbar": 4488,
      "Ġrank": 4489,
      "ĠMon": 4490,
      "API": 4491,
      "Ġhold": 4492,
      "Ġcluster": 4493,
      "Ġthough": 4494,
      "rench": 4495,
      "62": 4496,
      "ĉĠĠĠ": 4497,
      "Control": 4498,
      "otes": 4499,
      "ĠÃ": 4500,
      "]$": 4501,
      "Ġspin": 4502,
      "patch": 4503,
      "SO": 4504,
      "Ġremove": 4505,
      "stylesheet": 4506,
      "ĠEnglish": 4507,
      "ĉĉĊ": 4508,
      "etails": 4509,
      "icult": 4510,
      "BC": 4511,
      "Ġcomponents": 4512,
      "Ġengine": 4513,
      "Parameter": 4514,
      "Ġclos": 4515,
      "Ġstarted": 4516,
      "ĠFirst": 4517,
      "Ġcompared": 4518,
      "ĠTable": 4519,
      "Ġvariables": 4520,
      "Interface": 4521,
      "ĠJapan": 4522,
      "QL": 4523,
      "ips": 4524,
      "Ġestablished": 4525,
      "ĠArm": 4526,
      "thon": 4527,
      "sup": 4528,
      "Exec": 4529,
      "Ġdescription": 4530,
      "atory": 4531,
      "Ġtim": 4532,
      "Ġdirection": 4533,
      "ka": 4534,
      "ĠEm": 4535,
      "ĠMy": 4536,
      "wait": 4537,
      "Ġtown": 4538,
      "ĠLeague": 4539,
      "Ġbuffer": 4540,
      "images": 4541,
      "Ġdegree": 4542,
      "oded": 4543,
      "Ġsuccessful": 4544,
      "entity": 4545,
      "NN": 4546,
      "ZE": 4547,
      "Ġnodes": 4548,
      "Ġrepresentation": 4549,
      "Ġnational": 4550,
      "Load": 4551,
      "Write": 4552,
      "ias": 4553,
      "ĠNe": 4554,
      "token": 4555,
      "cache": 4556,
      "PR": 4557,
      "UM": 4558,
      "edia": 4559,
      "aven": 4560,
      "oms": 4561,
      "Ġopp": 4562,
      "artifactId": 4563,
      "HO": 4564,
      "Dr": 4565,
      ":\"": 4566,
      "Ġmen": 4567,
      "}}{\\": 4568,
      "Http": 4569,
      "Ġtransition": 4570,
      "Ġclosed": 4571,
      "2023": 4572,
      "minist": 4573,
      "Ġrather": 4574,
      "ondon": 4575,
      "2001": 4576,
      "\\\"": 4577,
      "ĠFrom": 4578,
      "Unit": 4579,
      "system": 4580,
      "Ġintegr": 4581,
      "}'": 4582,
      "Ġboundary": 4583,
      "Po": 4584,
      "ampionship": 4585,
      "Ġentire": 4586,
      "orizontal": 4587,
      "esh": 4588,
      "Te": 4589,
      "|^": 4590,
      "Ġrelease": 4591,
      "ĠRed": 4592,
      "linear": 4593,
      "Ġir": 4594,
      "buffer": 4595,
      "Ġweak": 4596,
      "clude": 4597,
      "Location": 4598,
      "'],": 4599,
      "2003": 4600,
      "CP": 4601,
      "\"))": 4602,
      "Ġpolicy": 4603,
      "Ġquestion": 4604,
      "pret": 4605,
      "78": 4606,
      "Ġchall": 4607,
      "arp": 4608,
      "{{\\": 4609,
      "59": 4610,
      "Thread": 4611,
      "Ġsomething": 4612,
      "Ġsignal": 4613,
      "Ġdirectly": 4614,
      "Header": 4615,
      "ĠThus": 4616,
      "Level": 4617,
      "Ġautom": 4618,
      ">,": 4619,
      "Ġdevice": 4620,
      "neq": 4621,
      "Search": 4622,
      "cing": 4623,
      "ario": 4624,
      "Ġothers": 4625,
      "Ġstation": 4626,
      "unity": 4627,
      "61": 4628,
      "Ġtherefore": 4629,
      "ĠAc": 4630,
      "Ġnatural": 4631,
      "Ġgalax": 4632,
      "device": 4633,
      "pose": 4634,
      "Dat": 4635,
      "hent": 4636,
      "When": 4637,
      "IGN": 4638,
      "ernel": 4639,
      "that": 4640,
      "You": 4641,
      "Ġeffective": 4642,
      "Ġparticip": 4643,
      "Ġincrease": 4644,
      "onic": 4645,
      "Ġneeded": 4646,
      "vector": 4647,
      "ECT": 4648,
      "Ġsolutions": 4649,
      "background": 4650,
      "Ġbegan": 4651,
      "Callback": 4652,
      "expected": 4653,
      "Ġdenote": 4654,
      "ube": 4655,
      "DF": 4656,
      "atives": 4657,
      "Ġsens": 4658,
      "ĠLog": 4659,
      "Ġselection": 4660,
      "Ġbeliev": 4661,
      "Ġpack": 4662,
      "just": 4663,
      "atively": 4664,
      "Ġsure": 4665,
      "rep": 4666,
      "Ġevalu": 4667,
      "then": 4668,
      "ĠAir": 4669,
      "Ġneigh": 4670,
      "ĠSub": 4671,
      "resource": 4672,
      "Json": 4673,
      "hspace": 4674,
      "fs": 4675,
      "rief": 4676,
      "zz": 4677,
      "Ġallows": 4678,
      "=\"../../../../../../": 4679,
      "ĠReturns": 4680,
      "ington": 4681,
      "cil": 4682,
      "Module": 4683,
      "ford": 4684,
      "tim": 4685,
      "Ġexplain": 4686,
      "mooth": 4687,
      "Ġ{}": 4688,
      "ĠBro": 4689,
      "clusion": 4690,
      "ĠEast": 4691,
      "operatorname": 4692,
      "Ġyet": 4693,
      "Ġgot": 4694,
      "Settings": 4695,
      "Ø§": 4696,
      "Ġattempt": 4697,
      "omial": 4698,
      "Ġsupported": 4699,
      "}-\\": 4700,
      "ugins": 4701,
      "Net": 4702,
      "groupId": 4703,
      "Ġfilms": 4704,
      "Direct": 4705,
      "ĠHar": 4706,
      "Ġdifference": 4707,
      "Ġargument": 4708,
      "'>": 4709,
      "Ġrespons": 4710,
      "TI": 4711,
      "Ġapply": 4712,
      "oon": 4713,
      "Ġchain": 4714,
      "Americ": 4715,
      "variant": 4716,
      "kind": 4717,
      "arks": 4718,
      "Ġuses": 4719,
      "Ġveloc": 4720,
      "fil": 4721,
      "bedd": 4722,
      "ker": 4723,
      "parameter": 4724,
      "Ġnov": 4725,
      "debug": 4726,
      "Dep": 4727,
      "ellow": 4728,
      "ĠHouse": 4729,
      "ocr": 4730,
      "Pi": 4731,
      "Ġequations": 4732,
      "Ġholds": 4733,
      "Empty": 4734,
      "Ġfall": 4735,
      "DIR": 4736,
      "agment": 4737,
      "Ġpresented": 4738,
      "Ġspecies": 4739,
      "Ġexcept": 4740,
      "ĠNS": 4741,
      "Ġperformed": 4742,
      "Ġalmost": 4743,
      "]\\": 4744,
      "INT": 4745,
      "enumerate": 4746,
      "Ġapplied": 4747,
      "Ġdig": 4748,
      "pg": 4749,
      "COLOR": 4750,
      "Option": 4751,
      "ming": 4752,
      "Ġincludes": 4753,
      "Ġtag": 4754,
      "ĠCreate": 4755,
      "ĠDE": 4756,
      "Ġcourse": 4757,
      "Connection": 4758,
      "Inst": 4759,
      "Ġclub": 4760,
      "Ġcame": 4761,
      "Range": 4762,
      "VAL": 4763,
      "Ġabs": 4764,
      "Util": 4765,
      "uel": 4766,
      "Ġimpact": 4767,
      "Ġneeds": 4768,
      "Current": 4769,
      "Position": 4770,
      "Ġrunning": 4771,
      "=\"_": 4772,
      "Font": 4773,
      "Hash": 4774,
      "anner": 4775,
      "Ġax": 4776,
      "avy": 4777,
      "Ġseg": 4778,
      "interface": 4779,
      "Ġdoc": 4780,
      "Right": 4781,
      "ĠCollege": 4782,
      "Ġthings": 4783,
      "Ġrelation": 4784,
      "idget": 4785,
      ")}{": 4786,
      "96": 4787,
      "ategor": 4788,
      "itemize": 4789,
      "utable": 4790,
      "Ġexception": 4791,
      "Ġdeep": 4792,
      "Rel": 4793,
      "Description": 4794,
      "Ġecon": 4795,
      "Ġdecl": 4796,
      "onstr": 4797,
      "Ġforce": 4798,
      "icles": 4799,
      "gs": 4800,
      "Ġcoeff": 4801,
      "Ġfilename": 4802,
      "tra": 4803,
      "Ġusers": 4804,
      "Ġ*)": 4805,
      "Ġempty": 4806,
      "ĠGroup": 4807,
      "dim": 4808,
      "2002": 4809,
      "Ġupper": 4810,
      "%;": 4811,
      "ãĤ": 4812,
      "Ġvisit": 4813,
      "56": 4814,
      "Ġtaking": 4815,
      "Project": 4816,
      "Ġleading": 4817,
      "Ġparams": 4818,
      "Ġrender": 4819,
      ":(": 4820,
      "Ġmemory": 4821,
      "Ġbehavior": 4822,
      "Ġtakes": 4823,
      "RL": 4824,
      "avor": 4825,
      "ĠSk": 4826,
      "Copy": 4827,
      "adow": 4828,
      "Ġdoesn": 4829,
      "Ġsyn": 4830,
      "attle": 4831,
      "Since": 4832,
      "ĠSee": 4833,
      "theorem": 4834,
      "ĠST": 4835,
      "oom": 4836,
      "iers": 4837,
      "():": 4838,
      "agger": 4839,
      "nap": 4840,
      "ursor": 4841,
      "Ġbasis": 4842,
      "levision": 4843,
      "STR": 4844,
      "Enc": 4845,
      "Ġmatter": 4846,
      "ART": 4847,
      "omb": 4848,
      "anish": 4849,
      "Ġ-\\": 4850,
      "iation": 4851,
      "Ġlayer": 4852,
      "Local": 4853,
      "ilitary": 4854,
      "ĠInternational": 4855,
      "Ġproblems": 4856,
      "Ġarguments": 4857,
      ".)": 4858,
      "None": 4859,
      "Ġprove": 4860,
      "Params": 4861,
      "mission": 4862,
      "Record": 4863,
      "Ġnumbers": 4864,
      "Ġcompos": 4865,
      "drop": 4866,
      "unt": 4867,
      "Ġ;": 4868,
      "iments": 4869,
      "cape": 4870,
      "EQ": 4871,
      "Gr": 4872,
      "Op": 4873,
      "greg": 4874,
      "ĠWilli": 4875,
      "Note": 4876,
      "Ð°Ð": 4877,
      "87": 4878,
      "Ġexperience": 4879,
      "ara": 4880,
      "ociation": 4881,
      "FO": 4882,
      "Ġhandle": 4883,
      "ociety": 4884,
      "amera": 4885,
      "ĠLondon": 4886,
      "hash": 4887,
      "Ġwar": 4888,
      "Ġ>=": 4889,
      "Dir": 4890,
      "LI": 4891,
      "Ġbirths": 4892,
      "issions": 4893,
      "EM": 4894,
      "Ġque": 4895,
      "51": 4896,
      "Ġlive": 4897,
      "Ġcompan": 4898,
      "cf": 4899,
      "century": 4900,
      "Ġmer": 4901,
      "Ġinf": 4902,
      "ico": 4903,
      "uses": 4904,
      "Left": 4905,
      "FT": 4906,
      "Ġpers": 4907,
      "Ġxml": 4908,
      "tries": 4909,
      "border": 4910,
      "sv": 4911,
      "Me": 4912,
      "ectors": 4913,
      "---": 4914,
      "Ġimplies": 4915,
      "CA": 4916,
      "$}": 4917,
      "Mon": 4918,
      "cp": 4919,
      "Ġattribute": 4920,
      "acters": 4921,
      "iforn": 4922,
      "sy": 4923,
      "auth": 4924,
      "Change": 4925,
      "||": 4926,
      "ican": 4927,
      "ensive": 4928,
      "Impl": 4929,
      "gn": 4930,
      "Ġnames": 4931,
      "({\\": 4932,
      "Ġsto": 4933,
      "ĠEl": 4934,
      "\"));": 4935,
      "second": 4936,
      "Do": 4937,
      "BA": 4938,
      "ĠMich": 4939,
      "ĠTO": 4940,
      "Ġplatform": 4941,
      "equal": 4942,
      "sa": 4943,
      "Ġsoftware": 4944,
      "tax": 4945,
      "internal": 4946,
      "à¤": 4947,
      "clear": 4948,
      "Ġproduced": 4949,
      "address": 4950,
      ")/": 4951,
      "msg": 4952,
      "inally": 4953,
      "den": 4954,
      "graph": 4955,
      "anges": 4956,
      "vspace": 4957,
      "ĠĠĠĊ": 4958,
      "Ġstudies": 4959,
      "mathscr": 4960,
      "Ġscen": 4961,
      "Ġdimension": 4962,
      "utor": 4963,
      "Reference": 4964,
      "Ġcurrently": 4965,
      "free": 4966,
      "}}_": 4967,
      "CS": 4968,
      "Ġerrors": 4969,
      "dimensional": 4970,
      "ios": 4971,
      "ĠHer": 4972,
      "weight": 4973,
      "tog": 4974,
      "Ġpadding": 4975,
      "Ġrecogn": 4976,
      "Ġtemplate": 4977,
      "bootstrap": 4978,
      "Session": 4979,
      "ĠSim": 4980,
      "Ġconnect": 4981,
      "norm": 4982,
      "\\,\\": 4983,
      "Document": 4984,
      "Ġitself": 4985,
      "arily": 4986,
      "Ġswitch": 4987,
      "ued": 4988,
      "mode": 4989,
      "Ġword": 4990,
      "Ġfeel": 4991,
      "Ġinflu": 4992,
      "Ġlot": 4993,
      "Prot": 4994,
      "NavBar": 4995,
      ")+": 4996,
      "cat": 4997,
      "Vari": 4998,
      "ele": 4999,
      "Ġsound": 5000,
      "Ġgas": 5001,
      "Ġallowed": 5002,
      "52": 5003,
      "Ġexpress": 5004,
      "trm": 5005,
      "ĠAssert": 5006,
      "ctor": 5007,
      "unn": 5008,
      "54": 5009,
      "Ġvers": 5010,
      "ifornia": 5011,
      "etime": 5012,
      "make": 5013,
      "What": 5014,
      "Ġvill": 5015,
      "Ġhash": 5016,
      "itz": 5017,
      "Ġprincip": 5018,
      "pop": 5019,
      "asc": 5020,
      "PP": 5021,
      "transform": 5022,
      "ying": 5023,
      "Ġconduct": 5024,
      "ĠOut": 5025,
      "Ġonline": 5026,
      "det": 5027,
      "Integer": 5028,
      "Ġstre": 5029,
      "Bl": 5030,
      "Ġclasses": 5031,
      "term": 5032,
      "ein": 5033,
      "Ġdemonstr": 5034,
      "Ġstars": 5035,
      "etail": 5036,
      "ixt": 5037,
      "Serial": 5038,
      "Ġgoal": 5039,
      "Ass": 5040,
      "ĠTherefore": 5041,
      "Ġinvestig": 5042,
      "bul": 5043,
      "footer": 5044,
      "Ġcandid": 5045,
      "Ġregard": 5046,
      "Menu": 5047,
      ";->": 5048,
      "That": 5049,
      "textrm": 5050,
      "render": 5051,
      "Ġconstruction": 5052,
      "jo": 5053,
      "Ġdifficult": 5054,
      "Down": 5055,
      "ĠWork": 5056,
      "PT": 5057,
      "delete": 5058,
      "Ġadapt": 5059,
      "Then": 5060,
      "=\"/": 5061,
      "Ġdeveloped": 5062,
      "ĠMod": 5063,
      "ĠBG": 5064,
      "Ġbroad": 5065,
      ")}$": 5066,
      "Ġjo": 5067,
      "Collection": 5068,
      "Ġoverride": 5069,
      "Operation": 5070,
      "asic": 5071,
      "ĠIndia": 5072,
      "PECT": 5073,
      "ounter": 5074,
      "Properties": 5075,
      "eters": 5076,
      "Ġfailed": 5077,
      "Now": 5078,
      "American": 5079,
      "Post": 5080,
      "olume": 5081,
      "loor": 5082,
      "Ġphysical": 5083,
      "ros": 5084,
      "oph": 5085,
      "Rev": 5086,
      "Ġlikely": 5087,
      "docs": 5088,
      "multicol": 5089,
      "ously": 5090,
      "\\}$": 5091,
      "~$": 5092,
      "Ġsup": 5093,
      "scal": 5094,
      "Ġwhite": 5095,
      "before": 5096,
      "ä¸": 5097,
      "Ġparts": 5098,
      "Ġscope": 5099,
      "Sk": 5100,
      "SH": 5101,
      "ria": 5102,
      "texttt": 5103,
      "omy": 5104,
      "MO": 5105,
      "'$": 5106,
      "Ġstage": 5107,
      "Order": 5108,
      "send": 5109,
      "Ġrelationship": 5110,
      "ening": 5111,
      "DD": 5112,
      "Ġdeal": 5113,
      "Ġviol": 5114,
      "VID": 5115,
      "copy": 5116,
      "Ġ\\|": 5117,
      "Ġda": 5118,
      "allel": 5119,
      "ened": 5120,
      "....": 5121,
      "lap": 5122,
      "multicolumn": 5123,
      "rs": 5124,
      "Ġcentral": 5125,
      "ĠVir": 5126,
      "$&": 5127,
      "BO": 5128,
      "89": 5129,
      "aign": 5130,
      "noindent": 5131,
      "1000": 5132,
      "GE": 5133,
      "Ġrob": 5134,
      "Stat": 5135,
      "&#": 5136,
      "Ġsmaller": 5137,
      "Ġdescribe": 5138,
      "?:": 5139,
      "stry": 5140,
      "inn": 5141,
      "aching": 5142,
      "Ġrule": 5143,
      "iles": 5144,
      "Ġwhy": 5145,
      "Ġang": 5146,
      "86": 5147,
      "Ġfront": 5148,
      "ictionary": 5149,
      "Ġmulti": 5150,
      "serve": 5151,
      "Cal": 5152,
      "Host": 5153,
      "ris": 5154,
      "Ġinc": 5155,
      "Ġspeed": 5156,
      "Ġwent": 5157,
      "Ġchoice": 5158,
      "Can": 5159,
      "53": 5160,
      "Parser": 5161,
      "auto": 5162,
      "$_": 5163,
      "ĠException": 5164,
      "uri": 5165,
      "Ġsend": 5166,
      "SL": 5167,
      "env": 5168,
      "ĠDec": 5169,
      "ORT": 5170,
      "Ġexisting": 5171,
      "Helper": 5172,
      "Ġincreasing": 5173,
      "riate": 5174,
      "rect": 5175,
      "range": 5176,
      "uit": 5177,
      "yes": 5178,
      "Ġofficial": 5179,
      "overy": 5180,
      "ALL": 5181,
      "ĠAmerica": 5182,
      "Ġdecre": 5183,
      "Ġissue": 5184,
      "Render": 5185,
      "Ġestimate": 5186,
      "Ġsources": 5187,
      "Ġtransfer": 5188,
      "###": 5189,
      "Schema": 5190,
      "Ġled": 5191,
      "Ġmagnetic": 5192,
      "join": 5193,
      "Ġsession": 5194,
      "inder": 5195,
      "Ġintroduced": 5196,
      "rea": 5197,
      "inding": 5198,
      "Port": 5199,
      "opl": 5200,
      "Async": 5201,
      "Ã¼": 5202,
      "ael": 5203,
      "ĉĠ": 5204,
      "berg": 5205,
      "ĠOR": 5206,
      "ĠOpen": 5207,
      "Ġavoid": 5208,
      "estamp": 5209,
      "Ġregister": 5210,
      "osen": 5211,
      "del": 5212,
      "click": 5213,
      "foo": 5214,
      "Ġactually": 5215,
      "Ġexplicit": 5216,
      "Ġalgebra": 5217,
      "Ġratio": 5218,
      "card": 5219,
      "Ġoperations": 5220,
      "usion": 5221,
      "Ptr": 5222,
      "structor": 5223,
      "Ġnecessary": 5224,
      "Ġshall": 5225,
      "Sign": 5226,
      "Ġactual": 5227,
      "}}}": 5228,
      "approx": 5229,
      "Sw": 5230,
      "aking": 5231,
      "Ġlove": 5232,
      "Eng": 5233,
      "Ġevolution": 5234,
      "Ġstore": 5235,
      "stitute": 5236,
      "Ġface": 5237,
      "coq": 5238,
      "bon": 5239,
      "ĠDem": 5240,
      "Ġ${": 5241,
      "ĠNor": 5242,
      "export": 5243,
      "Ġjav": 5244,
      "Match": 5245,
      "Ġinside": 5246,
      "rupt": 5247,
      "ĠStud": 5248,
      "ĠSm": 5249,
      "ĠOur": 5250,
      "ua": 5251,
      "types": 5252,
      "Ġpercent": 5253,
      "1999": 5254,
      "Ġareas": 5255,
      "widget": 5256,
      "Use": 5257,
      "ifying": 5258,
      "ci": 5259,
      "Ġsymbol": 5260,
      "Ġarchitect": 5261,
      "Ġtoken": 5262,
      "ĠSpec": 5263,
      "Ġrights": 5264,
      "tw": 5265,
      "sets": 5266,
      "Ġwhole": 5267,
      "ansion": 5268,
      "Le": 5269,
      "hy": 5270,
      "Ġwebsite": 5271,
      "rier": 5272,
      "Ġbecomes": 5273,
      "Ġthought": 5274,
      "(:": 5275,
      "aur": 5276,
      "Ġneut": 5277,
      "Ġforward": 5278,
      "ĠCenter": 5279,
      "255": 5280,
      "band": 5281,
      "itte": 5282,
      "minus": 5283,
      "Ġdataset": 5284,
      "Ġinternational": 5285,
      "ĠRepublic": 5286,
      "Mult": 5287,
      "ado": 5288,
      "Pass": 5289,
      "Ġign": 5290,
      "ĠNews": 5291,
      "Parameters": 5292,
      "plugin": 5293,
      "Ġvelocity": 5294,
      "bert": 5295,
      "ĠFrench": 5296,
      "Ġconsum": 5297,
      "dx": 5298,
      "Ġissues": 5299,
      "Ġundefined": 5300,
      "req": 5301,
      "black": 5302,
      "ĠCalifornia": 5303,
      "ĠCheck": 5304,
      "Device": 5305,
      "Ġeigen": 5306,
      "access": 5307,
      "gu": 5308,
      "Ġpopular": 5309,
      "Ġloop": 5310,
      "rd": 5311,
      "ponents": 5312,
      "lands": 5313,
      "Ġtoday": 5314,
      "reater": 5315,
      "Ġelectron": 5316,
      "crete": 5317,
      "Ġconnected": 5318,
      "Vector": 5319,
      "global": 5320,
      "vas": 5321,
      "ran": 5322,
      "ĠPresident": 5323,
      "ĠFl": 5324,
      "Ġborn": 5325,
      "Ġmonth": 5326,
      "Title": 5327,
      "SA": 5328,
      "'re": 5329,
      "after": 5330,
      "Ġinteger": 5331,
      "webkit": 5332,
      "ĠCE": 5333,
      "Ġnews": 5334,
      "cribe": 5335,
      "ĠTra": 5336,
      "Ġcritical": 5337,
      "eler": 5338,
      "direct": 5339,
      "Ġcentury": 5340,
      "legate": 5341,
      "Ġequivalent": 5342,
      "equals": 5343,
      "ĠIndian": 5344,
      "ao": 5345,
      "ares": 5346,
      "Ġotherwise": 5347,
      "300": 5348,
      "coin": 5349,
      "Ġprofession": 5350,
      "Ġ(-": 5351,
      "orge": 5352,
      "72": 5353,
      "Ġshape": 5354,
      "Ġinfo": 5355,
      "high": 5356,
      "dest": 5357,
      "ĠBuild": 5358,
      "Tool": 5359,
      "ws": 5360,
      "Ġcontact": 5361,
      "force": 5362,
      "component": 5363,
      "vant": 5364,
      "chron": 5365,
      "ĠĠĠĠĠĠĠĠĠĠĠĠĠĠĠĠĠĠĠĠ": 5366,
      "fony": 5367,
      "ĠDistrict": 5368,
      "rees": 5369,
      "Tim": 5370,
      "icons": 5371,
      "ĠErr": 5372,
      "Ġauth": 5373,
      "vm": 5374,
      "actor": 5375,
      "Store": 5376,
      "toString": 5377,
      "ĠĠĠĠĠĠĠĠĠĠĠĠĠĠĠĠĠĠĠĠĠĠĠĠĠĠĠĠĠĠĠĠĠĠĠĠĠĠĠ": 5378,
      "Names": 5379,
      "ymfony": 5380,
      "Ġess": 5381,
      "pecially": 5382,
      "Ġmonths": 5383,
      "Ġcontract": 5384,
      "Ġwriting": 5385,
      "ACK": 5386,
      "ĠWhat": 5387,
      "Template": 5388,
      "Ã¤": 5389,
      "iting": 5390,
      "icker": 5391,
      "resents": 5392,
      "So": 5393,
      "MD": 5394,
      "taint": 5395,
      "ĠBGCOLOR": 5396,
      "Ġscreen": 5397,
      "ĠHere": 5398,
      "82": 5399,
      "ĠRead": 5400,
      "Ġproced": 5401,
      "itable": 5402,
      "Ġserved": 5403,
      "False": 5404,
      "Ġever": 5405,
      "Ġcomes": 5406,
      "annotation": 5407,
      "shift": 5408,
      "Classes": 5409,
      "Ġ})": 5410,
      "Ġ(\"": 5411,
      "Ġimmedi": 5412,
      "Ġmention": 5413,
      "Ġweb": 5414,
      "anger": 5415,
      "Ġvolume": 5416,
      "Ġextension": 5417,
      "Ġestablish": 5418,
      "Ġlevels": 5419,
      "Ġoutside": 5420,
      "Ġprimary": 5421,
      "zon": 5422,
      "ĠDate": 5423,
      "Ġsense": 5424,
      "prod": 5425,
      "79": 5426,
      "Expression": 5427,
      "Ġspectrum": 5428,
      "Ġaltern": 5429,
      "Ke": 5430,
      "ynomial": 5431,
      "ĠCour": 5432,
      "ĠTime": 5433,
      "Ġsamples": 5434,
      "ĠGeneral": 5435,
      "ĠOb": 5436,
      "Ġcred": 5437,
      "icrosoft": 5438,
      "real": 5439,
      "Non": 5440,
      "oe": 5441,
      "ĠĠĠĠĠĠĊ": 5442,
      "History": 5443,
      "Ġbenef": 5444,
      "Ġprote": 5445,
      "Ġfrequency": 5446,
      "Ġtalk": 5447,
      "Ġson": 5448,
      "Ġecho": 5449,
      "cur": 5450,
      "Ġnoise": 5451,
      "Ġlonger": 5452,
      "blockList": 5453,
      "atur": 5454,
      "Ġinterval": 5455,
      "ĠWeb": 5456,
      "Ġsecurity": 5457,
      "=(": 5458,
      "ĠMag": 5459,
      "category": 5460,
      "Ġitems": 5461,
      "Ġparse": 5462,
      "ewidth": 5463,
      "Ġsimply": 5464,
      "reshold": 5465,
      "Ġquality": 5466,
      "ulate": 5467,
      "rip": 5468,
      "ĠSum": 5469,
      "Ġnegative": 5470,
      "84": 5471,
      "Ġupon": 5472,
      "nes": 5473,
      "irit": 5474,
      "condition": 5475,
      "ĠEXPECT": 5476,
      "xx": 5477,
      "ĠPort": 5478,
      "-->": 5479,
      "Definition": 5480,
      "burg": 5481,
      "ORM": 5482,
      "Track": 5483,
      "Ġannounced": 5484,
      "isation": 5485,
      "umin": 5486,
      "Ġexpand": 5487,
      "Ġnuc": 5488,
      "ĠService": 5489,
      "Ġdetermined": 5490,
      "ERROR": 5491,
      "definition": 5492,
      "ivil": 5493,
      "XX": 5494,
      "Ġhistor": 5495,
      "Ġcomment": 5496,
      "================================": 5497,
      "language": 5498,
      "anning": 5499,
      "ĠSome": 5500,
      "success": 5501,
      "custom": 5502,
      "Results": 5503,
      "izations": 5504,
      "iber": 5505,
      "Ġsettings": 5506,
      "enced": 5507,
      "Ġss": 5508,
      "Ġroad": 5509,
      "ĠBlack": 5510,
      "Values": 5511,
      "Invalid": 5512,
      "utive": 5513,
      "}},": 5514,
      "Ġtransaction": 5515,
      "had": 5516,
      "Ġwait": 5517,
      "Ġframework": 5518,
      "Ġansw": 5519,
      "Ġpanel": 5520,
      "bitr": 5521,
      "asons": 5522,
      "Ġensure": 5523,
      "Ġmetric": 5524,
      "Application": 5525,
      "ocal": 5526,
      "Ġcore": 5527,
      "Ġcharacters": 5528,
      "GET": 5529,
      "enum": 5530,
      "Ġdistributed": 5531,
      "Ġrequires": 5532,
      "white": 5533,
      "han": 5534,
      "store": 5535,
      "AND": 5536,
      "dro": 5537,
      "Ġste": 5538,
      "Ġmid": 5539,
      "ĠName": 5540,
      "Ġdatabase": 5541,
      "SION": 5542,
      "Draw": 5543,
      "Core": 5544,
      "Ev": 5545,
      "reement": 5546,
      "Iter": 5547,
      "Ġdistrict": 5548,
      "Ġpackage": 5549,
      "$\\{": 5550,
      "Ġstop": 5551,
      "ida": 5552,
      "Ġsort": 5553,
      "ĠHol": 5554,
      "useum": 5555,
      "Long": 5556,
      "Ġpolitical": 5557,
      "subseteq": 5558,
      "Kind": 5559,
      "^-": 5560,
      "Ġ$\\{": 5561,
      "Go": 5562,
      "Ġshare": 5563,
      "ympt": 5564,
      "Ġrev": 5565,
      "ĠLaw": 5566,
      "Ġchanged": 5567,
      "nov": 5568,
      "handle": 5569,
      "Ġconcept": 5570,
      "fn": 5571,
      "oyal": 5572,
      "Ġminimum": 5573,
      "Ġstatement": 5574,
      "win": 5575,
      "Ġregions": 5576,
      "Ver": 5577,
      "inct": 5578,
      "Ġgain": 5579,
      "hover": 5580,
      "phere": 5581,
      "Ġpassed": 5582,
      "deg": 5583,
      "INE": 5584,
      "session": 5585,
      "Ġ\"\\": 5586,
      "plugins": 5587,
      "oring": 5588,
      "Ġqual": 5589,
      "Ġdelete": 5590,
      "Ġthread": 5591,
      "hest": 5592,
      "Ġprofile": 5593,
      "related": 5594,
      "sto": 5595,
      "osing": 5596,
      "ĠForm": 5597,
      "Ġgenerate": 5598,
      "Api": 5599,
      "ena": 5600,
      "Ġorigin": 5601,
      "ĠWhile": 5602,
      "ĠRE": 5603,
      "mas": 5604,
      "ĠResearch": 5605,
      "Ġextra": 5606,
      "track": 5607,
      "ya": 5608,
      "hom": 5609,
      "otic": 5610,
      "lood": 5611,
      "ini": 5612,
      "ĠTrue": 5613,
      "{$": 5614,
      "PA": 5615,
      "More": 5616,
      "uting": 5617,
      "PL": 5618,
      "cpp": 5619,
      "Ġarticle": 5620,
      "Ġtransport": 5621,
      "Ġreve": 5622,
      "ancial": 5623,
      "Ġdim": 5624,
      "Ġnet": 5625,
      "ORD": 5626,
      "Ġcache": 5627,
      "ervices": 5628,
      "ĠGerman": 5629,
      "protobuf": 5630,
      "----------------------------------------------------------------": 5631,
      "76": 5632,
      "oundation": 5633,
      "mes": 5634,
      "Ġuncer": 5635,
      ">();": 5636,
      "ĠMal": 5637,
      "Ġnight": 5638,
      "Rect": 5639,
      "pite": 5640,
      "Ġalt": 5641,
      "connect": 5642,
      "Ġcompanies": 5643,
      "Ġstrict": 5644,
      "ĠChina": 5645,
      "~~~~": 5646,
      "gence": 5647,
      "400": 5648,
      "ĠSen": 5649,
      "results": 5650,
      "ĠGa": 5651,
      "ĠBel": 5652,
      "Ġ_{": 5653,
      "fields": 5654,
      "Ġespecially": 5655,
      "}\"": 5656,
      "Args": 5657,
      "Tests": 5658,
      "(*": 5659,
      "rast": 5660,
      "settings": 5661,
      "Ġstarting": 5662,
      "full": 5663,
      "Ġknowledge": 5664,
      "overs": 5665,
      "ĠPal": 5666,
      "amilton": 5667,
      "footnote": 5668,
      "94": 5669,
      "Ġheader": 5670,
      "Ġfire": 5671,
      "Ġdied": 5672,
      "panel": 5673,
      "Ġ\\(": 5674,
      "king": 5675,
      "Ġabsol": 5676,
      "double": 5677,
      "Ġresulting": 5678,
      "Stack": 5679,
      "Ġdark": 5680,
      "byte": 5681,
      "ĠCup": 5682,
      "<\\": 5683,
      "dict": 5684,
      "ĠTV": 5685,
      "argument": 5686,
      "disabled": 5687,
      "Ġcontaining": 5688,
      "aid": 5689,
      "CR": 5690,
      "Ġsold": 5691,
      "iny": 5692,
      "Icon": 5693,
      "ĠHealth": 5694,
      "media": 5695,
      "Ġsplit": 5696,
      "My": 5697,
      "ynamic": 5698,
      "isions": 5699,
      "Ġimm": 5700,
      "ĠJSON": 5701,
      "=-": 5702,
      "################": 5703,
      "dependency": 5704,
      "framework": 5705,
      "Ġsmooth": 5706,
      "illed": 5707,
      "comment": 5708,
      "Sl": 5709,
      "Ġfem": 5710,
      "Ġmanagement": 5711,
      "vention": 5712,
      "hi": 5713,
      "ixel": 5714,
      "Mar": 5715,
      "Param": 5716,
      "icate": 5717,
      "Click": 5718,
      "step": 5719,
      "ATH": 5720,
      "Que": 5721,
      "hr": 5722,
      "Ġresources": 5723,
      "fect": 5724,
      "ĠInst": 5725,
      "Ġ++": 5726,
      "Ġindustry": 5727,
      "}^{-": 5728,
      "ĠCON": 5729,
      "Ġuniform": 5730,
      "Ġball": 5731,
      "Am": 5732,
      "oul": 5733,
      "Ġlost": 5734,
      "oader": 5735,
      "ĠHTML": 5736,
      "Ġproducts": 5737,
      "Ġrules": 5738,
      "ĠEar": 5739,
      "padding": 5740,
      "Ġradi": 5741,
      "Ġepis": 5742,
      ";<": 5743,
      "Ġfood": 5744,
      "GB": 5745,
      "Theta": 5746,
      "ĠAustralia": 5747,
      "91": 5748,
      "Ġmoved": 5749,
      "email": 5750,
      "Ġraise": 5751,
      "Has": 5752,
      "cloud": 5753,
      "rot": 5754,
      "acement": 5755,
      "Ġproper": 5756,
      "Ġfeed": 5757,
      "ĠPat": 5758,
      "ĠAnt": 5759,
      "ĠDirect": 5760,
      "Ġtheorem": 5761,
      "help": 5762,
      "alysis": 5763,
      "ĠChampionship": 5764,
      "Ġtell": 5765,
      "Ġcontainer": 5766,
      "arter": 5767,
      "wner": 5768,
      "ĠNow": 5769,
      "Ġextract": 5770,
      "Ġinteraction": 5771,
      "Handle": 5772,
      "ĠCr": 5773,
      "Debug": 5774,
      "Ġdomin": 5775,
      "sort": 5776,
      "uple": 5777,
      "Ġeasy": 5778,
      "Ġsy": 5779,
      "Mock": 5780,
      "lymp": 5781,
      "ĠGoogle": 5782,
      "ĠEuropean": 5783,
      "Ġtests": 5784,
      "endar": 5785,
      "auge": 5786,
      "__(": 5787,
      "estions": 5788,
      "aker": 5789,
      "RI": 5790,
      "za": 5791,
      "Ġrestrict": 5792,
      "LS": 5793,
      "Ġsufficient": 5794,
      "Ġembedd": 5795,
      "tical": 5796,
      "Ġpeak": 5797,
      "Num": 5798,
      "Assert": 5799,
      "Ġ\\;": 5800,
      "=\"../../../": 5801,
      "underline": 5802,
      "FAULT": 5803,
      "Ġnorth": 5804,
      ":\\": 5805,
      "Ġsus": 5806,
      "Ġcharge": 5807,
      "93": 5808,
      "Ġillustr": 5809,
      "ĠUK": 5810,
      "Ġgrowth": 5811,
      "Ġtax": 5812,
      "subfigure": 5813,
      "Ġstreng": 5814,
      "ĠMet": 5815,
      "ĠDiv": 5816,
      "URE": 5817,
      "Ġfully": 5818,
      "iences": 5819,
      "`.": 5820,
      "ĠIS": 5821,
      "Reader": 5822,
      "74": 5823,
      "ĠDepartment": 5824,
      "Ġ\\},": 5825,
      "boolean": 5826,
      "Ġunits": 5827,
      "setminus": 5828,
      "Ġpick": 5829,
      "92": 5830,
      "Ġparty": 5831,
      "Ġfamil": 5832,
      "Ġderiv": 5833,
      "ĠCanada": 5834,
      "Ġrisk": 5835,
      "Ġunsigned": 5836,
      "ades": 5837,
      "Dist": 5838,
      "Ġdetermine": 5839,
      "elves": 5840,
      "Ġhyp": 5841,
      "Ġscheme": 5842,
      "ĠRiver": 5843,
      "linewidth": 5844,
      "Ġvertex": 5845,
      "bi": 5846,
      "ĠChe": 5847,
      "raz": 5848,
      "Ġidea": 5849,
      "abilities": 5850,
      "Ġcompute": 5851,
      "ifest": 5852,
      "1998": 5853,
      "ĠMap": 5854,
      "Ġdesigned": 5855,
      "Ġbehind": 5856,
      "Ġusually": 5857,
      "SET": 5858,
      "Ġos": 5859,
      "Ð»": 5860,
      "antic": 5861,
      "Ġapplications": 5862,
      "Enabled": 5863,
      "exception": 5864,
      "eli": 5865,
      "Parent": 5866,
      "Ġscript": 5867,
      "Ġrepresents": 5868,
      "Ġwalk": 5869,
      "Package": 5870,
      "Ġoperators": 5871,
      "ATA": 5872,
      "ĠModel": 5873,
      "ĠDavid": 5874,
      "UB": 5875,
      "Ġbottom": 5876,
      "ĠEngland": 5877,
      "replace": 5878,
      "register": 5879,
      "Ġchoose": 5880,
      "romise": 5881,
      "pub": 5882,
      "faces": 5883,
      "Ġquick": 5884,
      "Metadata": 5885,
      "recated": 5886,
      "ani": 5887,
      "ĠPo": 5888,
      "alled": 5889,
      "Ġuseful": 5890,
      "oplus": 5891,
      "Ġsubs": 5892,
      "virtual": 5893,
      "Ġdecision": 5894,
      "wood": 5895,
      "exports": 5896,
      "rev": 5897,
      "UP": 5898,
      "material": 5899,
      "Ġ($\\": 5900,
      "Ġbyte": 5901,
      "ĠCouncil": 5902,
      "insert": 5903,
      "DA": 5904,
      "ashed": 5905,
      "urren": 5906,
      "_;": 5907,
      "Ġtelevision": 5908,
      "Ġhyper": 5909,
      "Ġord": 5910,
      "El": 5911,
      ")|": 5912,
      "ano": 5913,
      "Decl": 5914,
      "Ġimplementation": 5915,
      "Each": 5916,
      "Ġcurve": 5917,
      "Ġprogress": 5918,
      "ĠĠĠĠĠĠĠĠĠĠĠĠĠĠĠĠĠĠ": 5919,
      "allow": 5920,
      "aligned": 5921,
      "Ġcollect": 5922,
      "Ġnamespace": 5923,
      "illa": 5924,
      "Delete": 5925,
      "Ġfight": 5926,
      "limits": 5927,
      "eck": 5928,
      "ĠStreet": 5929,
      "ĠRun": 5930,
      "Ġten": 5931,
      "Ġcontinuous": 5932,
      "Ġstructures": 5933,
      "Ġtechnology": 5934,
      "Ġbutton": 5935,
      "inf": 5936,
      "Ġpolynomial": 5937,
      "Ġ'/": 5938,
      "Ġnorm": 5939,
      "Ġhence": 5940,
      "PH": 5941,
      "Ã¶": 5942,
      "Ġcategory": 5943,
      "contrib": 5944,
      "Ġjson": 5945,
      "ĠPaul": 5946,
      "olec": 5947,
      "Ġ$.": 5948,
      "Ġcounter": 5949,
      "Ġobservations": 5950,
      "Ġbad": 5951,
      "Ġinvoke": 5952,
      "Ġ$|": 5953,
      "Ġlimited": 5954,
      "illing": 5955,
      "erry": 5956,
      "aws": 5957,
      "mock": 5958,
      "Cre": 5959,
      "Ġblue": 5960,
      "ĠAut": 5961,
      "Ġfun": 5962,
      "Ġacqu": 5963,
      "Ġpreviously": 5964,
      "Ġcomparison": 5965,
      "Ġpatients": 5966,
      "idge": 5967,
      "Ġopport": 5968,
      "Bytes": 5969,
      "toggle": 5970,
      "ĠLO": 5971,
      "ĠThom": 5972,
      "nost": 5973,
      "Ġpersonal": 5974,
      "ĠJames": 5975,
      "Ġmaps": 5976,
      "Ġfather": 5977,
      "Ġinfin": 5978,
      "ĠMath": 5979,
      "ounds": 5980,
      "shot": 5981,
      "WE": 5982,
      "modules": 5983,
      "Sum": 5984,
      "}}_{": 5985,
      "Ġ('": 5986,
      "rate": 5987,
      "Ġfast": 5988,
      "Ġtowards": 5989,
      "ees": 5990,
      "ittee": 5991,
      "Ġslow": 5992,
      "Ġbal": 5993,
      "ĠCre": 5994,
      "akes": 5995,
      "Policy": 5996,
      "Ġremains": 5997,
      ">.": 5998,
      "Ġwor": 5999,
      "focus": 6000,
      "Ġhit": 6001,
      "short": 6002,
      "iding": 6003,
      "ĠEnd": 6004,
      "Ġflux": 6005,
      "edu": 6006,
      "ĠMor": 6007,
      "Ġaward": 6008,
      "ye": 6009,
      "`,": 6010,
      "Ġcharg": 6011,
      "Rule": 6012,
      "ipeline": 6013,
      "OK": 6014,
      "ni": 6015,
      "atically": 6016,
      "ĠRequ": 6017,
      "zero": 6018,
      "Ġparticle": 6019,
      "83": 6020,
      "Ġderived": 6021,
      "'))": 6022,
      "END": 6023,
      "sequence": 6024,
      "Ġampl": 6025,
      "rote": 6026,
      "Ġworked": 6027,
      "wrap": 6028,
      "Ġmoney": 6029,
      "bal": 6030,
      "Ġnetworks": 6031,
      "ĠPublic": 6032,
      "Supp": 6033,
      "leted": 6034,
      "atalog": 6035,
      "MC": 6036,
      "Ġinline": 6037,
      "Tab": 6038,
      "Ġshift": 6039,
      "ederal": 6040,
      "JECT": 6041,
      "newcommand": 6042,
      "Ġstand": 6043,
      "\\'": 6044,
      "ĠSing": 6045,
      "Ġlargest": 6046,
      "Ġcompact": 6047,
      "olar": 6048,
      "Ġnovel": 6049,
      "application": 6050,
      "ĠJust": 6051,
      "Ġarbitr": 6052,
      "Ġwallet": 6053,
      "Ġdirectory": 6054,
      "edef": 6055,
      "ecause": 6056,
      "1990": 6057,
      "Ġactivity": 6058,
      "Ġlibrary": 6059,
      "Boolean": 6060,
      "olic": 6061,
      "Ġconvert": 6062,
      "Ġoptimal": 6063,
      "ĠArch": 6064,
      "sect": 6065,
      "Ġalthough": 6066,
      "Ġhours": 6067,
      "Ġstrategy": 6068,
      "Ġscore": 6069,
      "attice": 6070,
      "inv": 6071,
      "Argument": 6072,
      "Ġcause": 6073,
      "ago": 6074,
      "Ġsouth": 6075,
      "Ġeducation": 6076,
      "oute": 6077,
      "apter": 6078,
      "Ġpresence": 6079,
      "admin": 6080,
      "ston": 6081,
      "160": 6082,
      "uby": 6083,
      "Ġstack": 6084,
      "Ġetc": 6085,
      "\")]": 6086,
      "ĠScience": 6087,
      "Ġrecon": 6088,
      "annels": 6089,
      "callback": 6090,
      "Storage": 6091,
      "ki": 6092,
      "FC": 6093,
      "Ġutil": 6094,
      "ifies": 6095,
      "ĠIO": 6096,
      "Ġbytes": 6097,
      "ridge": 6098,
      "ropy": 6099,
      "rome": 6100,
      "Ġstudied": 6101,
      "Ġtherm": 6102,
      "peed": 6103,
      "isms": 6104,
      "Ġaim": 6105,
      "Ġfigure": 6106,
      "ĠBook": 6107,
      "TS": 6108,
      "ville": 6109,
      "writ": 6110,
      "Our": 6111,
      "ĠQue": 6112,
      "Dialog": 6113,
      "Ġexperiments": 6114,
      "Ġdiagram": 6115,
      "Ġhot": 6116,
      "Ġhon": 6117,
      "Ġwave": 6118,
      "73": 6119,
      "\"\"\"": 6120,
      "*{": 6121,
      "Here": 6122,
      "Ġveh": 6123,
      "product": 6124,
      "mc": 6125,
      "sql": 6126,
      "Ġ$-": 6127,
      "Show": 6128,
      "81": 6129,
      "atial": 6130,
      "Ġmissing": 6131,
      "Ġfriend": 6132,
      "ĠUse": 6133,
      "omorphism": 6134,
      "rey": 6135,
      "overed": 6136,
      "car": 6137,
      "Ġfollowed": 6138,
      "Root": 6139,
      "\\}": 6140,
      "erve": 6141,
      "ket": 6142,
      "stat": 6143,
      "fit": 6144,
      "Ġdiscussed": 6145,
      "Ġinvolved": 6146,
      "Ġradio": 6147,
      "ĠOther": 6148,
      "numer": 6149,
      "Ñĥ": 6150,
      "otion": 6151,
      "Ġexhib": 6152,
      "ĠBay": 6153,
      "Ġcompleted": 6154,
      "Ġbelong": 6155,
      "Sim": 6156,
      "Ġdidn": 6157,
      "^{-\\": 6158,
      "ancy": 6159,
      "keyword": 6160,
      "HTML": 6161,
      "_*": 6162,
      "forms": 6163,
      "Ġpul": 6164,
      "Ġthroughout": 6165,
      "Ġwest": 6166,
      "hing": 6167,
      "Ġsil": 6168,
      "ategories": 6169,
      "ĠRober": 6170,
      "Ġbasic": 6171,
      "ĠError": 6172,
      "ĠOper": 6173,
      "wedge": 6174,
      "Ġsteps": 6175,
      "Ġexamples": 6176,
      "gorithms": 6177,
      "adian": 6178,
      "ested": 6179,
      "ignment": 6180,
      "legal": 6181,
      "Ġrecently": 6182,
      "Ġapi": 6183,
      "ander": 6184,
      "onds": 6185,
      "ĠTw": 6186,
      "Ġ$[": 6187,
      "Ġrepe": 6188,
      "ership": 6189,
      "Body": 6190,
      "eries": 6191,
      "Ġfinally": 6192,
      "BR": 6193,
      "Ġdynamics": 6194,
      "hs": 6195,
      "Ġlock": 6196,
      "Ġthing": 6197,
      "password": 6198,
      "Ġcast": 6199,
      "ellar": 6200,
      "Writer": 6201,
      "keys": 6202,
      "256": 6203,
      "Ġreduced": 6204,
      "Ġtravel": 6205,
      "Ġteams": 6206,
      "ĠParty": 6207,
      "Ġradius": 6208,
      "lines": 6209,
      "elt": 6210,
      "ĠUser": 6211,
      "AME": 6212,
      "Byte": 6213,
      "ĠAward": 6214,
      "Ġtreatment": 6215,
      "=\"\"": 6216,
      "Ġclassical": 6217,
      "Ġmotion": 6218,
      "iverse": 6219,
      "iece": 6220,
      "ashington": 6221,
      "Ġminim": 6222,
      "spect": 6223,
      "CTION": 6224,
      "alo": 6225,
      "Ġapprop": 6226,
      "Ġdepends": 6227,
      "Ġfix": 6228,
      "Ġprocesses": 6229,
      "Ġconcern": 6230,
      "install": 6231,
      "ingu": 6232,
      "Ġoverall": 6233,
      "domain": 6234,
      "van": 6235,
      "Ġexternal": 6236,
      "Ġconstraints": 6237,
      "iam": 6238,
      "ĠDon": 6239,
      "ĠNOT": 6240,
      "Meta": 6241,
      "71": 6242,
      "west": 6243,
      "Ġbank": 6244,
      "ĠValue": 6245,
      "tsd": 6246,
      "Job": 6247,
      "Ġcells": 6248,
      "ospital": 6249,
      "Ġrecomm": 6250,
      "ĠPhil": 6251,
      "Doc": 6252,
      "Ġassist": 6253,
      "Ġlooking": 6254,
      "arts": 6255,
      "_{(": 6256,
      "Ġ<=": 6257,
      "ighest": 6258,
      "imin": 6259,
      "Ġmut": 6260,
      "colon": 6261,
      "region": 6262,
      "AGE": 6263,
      "attribute": 6264,
      "ĠBase": 6265,
      "initial": 6266,
      "Ġuncertaint": 6267,
      "Ġbring": 6268,
      "Ap": 6269,
      "Ġmicro": 6270,
      "ertific": 6271,
      "cut": 6272,
      "PRE": 6273,
      "Ġgrav": 6274,
      "Ġevidence": 6275,
      "Ġidentity": 6276,
      "rong": 6277,
      "Ġeasily": 6278,
      "ĠDay": 6279,
      "ĠPost": 6280,
      "=\"@": 6281,
      "Ġmsg": 6282,
      "Ġstra": 6283,
      "Ġ{};": 6284,
      "Ġpy": 6285,
      "Ġbounded": 6286,
      "ĠĠĠĠĠĠĠĠĠĠĠĠĠĠĠĠĠĠĠĠĠĠĠĠĠ": 6287,
      "ters": 6288,
      "ĠMont": 6289,
      "Ġaccuracy": 6290,
      "Ġinteresting": 6291,
      "ĠMat": 6292,
      "ĠField": 6293,
      "_+": 6294,
      "orter": 6295,
      "Ġemail": 6296,
      "Ġlib": 6297,
      "icial": 6298,
      "margin": 6299,
      "rian": 6300,
      "Xml": 6301,
      "matrix": 6302,
      "Ġbinary": 6303,
      "sur": 6304,
      "Ġimprov": 6305,
      "Ġroom": 6306,
      "asure": 6307,
      "jquery": 6308,
      "structure": 6309,
      "ĠInstitute": 6310,
      "Ġextended": 6311,
      "Ġchalleng": 6312,
      "Ġjavax": 6313,
      "Main": 6314,
      "while": 6315,
      "Ġones": 6316,
      "Ġparticles": 6317,
      "ĠAL": 6318,
      "ĠTechn": 6319,
      "uler": 6320,
      "NE": 6321,
      "Mark": 6322,
      "ĠSy": 6323,
      "Ġclean": 6324,
      "ivial": 6325,
      "blue": 6326,
      "dagger": 6327,
      "sche": 6328,
      "ĠGreen": 6329,
      "Ġmeasured": 6330,
      "ufact": 6331,
      "rial": 6332,
      "stats": 6333,
      "etic": 6334,
      ")--": 6335,
      "Section": 6336,
      "icket": 6337,
      "Ġinvolv": 6338,
      "1996": 6339,
      "Ġchosen": 6340,
      "1997": 6341,
      "points": 6342,
      "Ġ\"/": 6343,
      "Network": 6344,
      "Ġrelevant": 6345,
      "ollary": 6346,
      "ĠMo": 6347,
      "ĠMethod": 6348,
      "Ġshared": 6349,
      "pay": 6350,
      "cons": 6351,
      "Ġforms": 6352,
      "ĠEvent": 6353,
      "airs": 6354,
      "OM": 6355,
      "Ġprotocol": 6356,
      "Ġelection": 6357,
      "ĠRich": 6358,
      "Ne": 6359,
      "dy": 6360,
      "Ġtesting": 6361,
      "People": 6362,
      "Br": 6363,
      "ĠProposition": 6364,
      "Ġagent": 6365,
      "Ġpert": 6366,
      "Ġfactors": 6367,
      "Any": 6368,
      "Ġsigned": 6369,
      "Ġexactly": 6370,
      "Cor": 6371,
      "uge": 6372,
      "IX": 6373,
      "holder": 6374,
      "ailed": 6375,
      "Ġwatch": 6376,
      "Sing": 6377,
      "Ġsaf": 6378,
      "'\\": 6379,
      "ĠOver": 6380,
      "items": 6381,
      "Ġmock": 6382,
      "Ġoffice": 6383,
      "Ġcampaign": 6384,
      "ĠAssociation": 6385,
      "'.": 6386,
      "iques": 6387,
      "DL": 6388,
      "Ġmilitary": 6389,
      "bigg": 6390,
      "aled": 6391,
      "radius": 6392,
      "Ġspaces": 6393,
      "Ġleads": 6394,
      "aved": 6395,
      "Ġattention": 6396,
      "Ġhtml": 6397,
      "Ġincreased": 6398,
      "BS": 6399,
      "shape": 6400,
      "ĠHamilton": 6401,
      "pute": 6402,
      "gan": 6403,
      "=\"\">": 6404,
      "Ġvict": 6405,
      "Ġdetection": 6406,
      "ĠAccording": 6407,
      "Ġcho": 6408,
      "ĠBen": 6409,
      "ometric": 6410,
      "Ġdoing": 6411,
      "GS": 6412,
      "Ġcos": 6413,
      "Ġvillage": 6414,
      "Pop": 6415,
      "inline": 6416,
      "grid": 6417,
      "Ġquite": 6418,
      "Ġbtn": 6419,
      "Ġsymmetry": 6420,
      "Ġrates": 6421,
      "Ġnature": 6422,
      "DI": 6423,
      "Ġstaff": 6424,
      "produ": 6425,
      "bes": 6426,
      "Ġmale": 6427,
      "none": 6428,
      "Descriptor": 6429,
      "KEY": 6430,
      "ITY": 6431,
      "dates": 6432,
      "Changed": 6433,
      "Ġadopt": 6434,
      "well": 6435,
      "Ġimprove": 6436,
      "iday": 6437,
      "Account": 6438,
      "Ġformula": 6439,
      "Fields": 6440,
      "icients": 6441,
      "odec": 6442,
      "Adapt": 6443,
      "ookie": 6444,
      "Ġcompare": 6445,
      "ĠPre": 6446,
      "Ġtrain": 6447,
      "TC": 6448,
      "Active": 6449,
      "Ġdam": 6450,
      "Ġpractice": 6451,
      "ĠMem": 6452,
      "ĠFrance": 6453,
      "ĠTHE": 6454,
      "Ġtour": 6455,
      "arant": 6456,
      "Ġplaying": 6457,
      "oration": 6458,
      "ĠMart": 6459,
      "Var": 6460,
      "Ġwaves": 6461,
      "Ġprep": 6462,
      "Ġemission": 6463,
      "Ðº": 6464,
      ".*": 6465,
      "),\\": 6466,
      "Ġeast": 6467,
      "ĠPy": 6468,
      "Ġremoved": 6469,
      "Ġmagn": 6470,
      "acket": 6471,
      "ĠGerm": 6472,
      "ĠHel": 6473,
      "Ġdirector": 6474,
      "Ġroute": 6475,
      "Ġtold": 6476,
      "enge": 6477,
      "Ġunknown": 6478,
      "Symfony": 6479,
      "Ġapproximation": 6480,
      "Ġdb": 6481,
      "agraph": 6482,
      "\\!\\!": 6483,
      "defined": 6484,
      "Ġinterpret": 6485,
      "Ġcard": 6486,
      "Ġdeaths": 6487,
      "Ġsatisfies": 6488,
      "Ġconsistent": 6489,
      "JSON": 6490,
      "Ġsex": 6491,
      "Ġadminist": 6492,
      "fort": 6493,
      "Widget": 6494,
      "ĠFurther": 6495,
      "ixture": 6496,
      "Ġreading": 6497,
      "Custom": 6498,
      "Ġ}\\": 6499,
      "bits": 6500,
      "Ġpressure": 6501,
      "impl": 6502,
      "adr": 6503,
      "ĠFil": 6504,
      "Transaction": 6505,
      "Ġrock": 6506,
      "textsc": 6507,
      "ĠBest": 6508,
      "ĠRuss": 6509,
      "Ġconsole": 6510,
      "Eq": 6511,
      "Ġicon": 6512,
      "Ġnor": 6513,
      "Ac": 6514,
      "irl": 6515,
      "ĠEv": 6516,
      "ether": 6517,
      "WS": 6518,
      "spring": 6519,
      "fly": 6520,
      "Ġexpansion": 6521,
      "ky": 6522,
      "emic": 6523,
      "Ġplane": 6524,
      "Ġcalculated": 6525,
      "Ġlatter": 6526,
      "Ġwriter": 6527,
      "Ġgreater": 6528,
      "Ġinner": 6529,
      "ĠChurch": 6530,
      "Ġreduce": 6531,
      "SSERT": 6532,
      "Ġmeasurements": 6533,
      "ĠProject": 6534,
      "contin": 6535,
      "anguage": 6536,
      "ango": 6537,
      "Ġpolar": 6538,
      "ĠWilliam": 6539,
      "ĠExp": 6540,
      "FILE": 6541,
      "NG": 6542,
      "Ġtasks": 6543,
      "VERSION": 6544,
      "Ġsignificantly": 6545,
      "Perm": 6546,
      "git": 6547,
      "Display": 6548,
      "Ġplot": 6549,
      "equality": 6550,
      "alls": 6551,
      "seud": 6552,
      "ura": 6553,
      "Ġcontribution": 6554,
      "utf": 6555,
      "iring": 6556,
      "profile": 6557,
      "outhern": 6558,
      "But": 6559,
      "Ġsave": 6560,
      ";/": 6561,
      "SR": 6562,
      "Ġappears": 6563,
      "ĠUnion": 6564,
      "Ġvs": 6565,
      "ĠLeg": 6566,
      "Ġearlier": 6567,
      "EC": 6568,
      "cmd": 6569,
      "Ġeditor": 6570,
      "Ġproduce": 6571,
      "properties": 6572,
      "inese": 6573,
      "Ġbg": 6574,
      "ometimes": 6575,
      "======": 6576,
      "Queue": 6577,
      "dule": 6578,
      "neg": 6579,
      "Ġboard": 6580,
      "Ġrad": 6581,
      "Ġmodern": 6582,
      "ĠMac": 6583,
      "ĠHence": 6584,
      "Ġhel": 6585,
      "Ġtro": 6586,
      "ĠOf": 6587,
      "ech": 6588,
      "Ġcountries": 6589,
      "Support": 6590,
      "FL": 6591,
      "Ġmeaning": 6592,
      "aser": 6593,
      "iciency": 6594,
      "Ġnothing": 6595,
      "effect": 6596,
      "Ġincor": 6597,
      "Ġnumerical": 6598,
      "thread": 6599,
      "ĠURL": 6600,
      "Ġresolution": 6601,
      "gin": 6602,
      "km": 6603,
      "ĠAlso": 6604,
      "multi": 6605,
      "sequently": 6606,
      "Ġvisual": 6607,
      "Ġ|\\": 6608,
      "Ġwrote": 6609,
      "ĠKey": 6610,
      "Ġessential": 6611,
      "bour": 6612,
      "Ġreach": 6613,
      "cases": 6614,
      "CI": 6615,
      "Ġpaint": 6616,
      "Ġsegment": 6617,
      "coming": 6618,
      "hadoop": 6619,
      "Ġactions": 6620,
      "Ġscatter": 6621,
      "Only": 6622,
      "mitted": 6623,
      "Initial": 6624,
      "Ġmiddle": 6625,
      "Ġremaining": 6626,
      "Send": 6627,
      "rf": 6628,
      "Ġaud": 6629,
      "scroll": 6630,
      "Ġtensor": 6631,
      "itar": 6632,
      "enter": 6633,
      "ĠCOVID": 6634,
      "Ġemerg": 6635,
      "}}(\\": 6636,
      "ĠAng": 6637,
      "ĠUs": 6638,
      "super": 6639,
      "notation": 6640,
      "picture": 6641,
      "1995": 6642,
      "Ġcoming": 6643,
      "Ġinj": 6644,
      "ifications": 6645,
      "fg": 6646,
      "Ġgetting": 6647,
      "Car": 6648,
      "Msg": 6649,
      "Ġconsists": 6650,
      "ĠProgram": 6651,
      "Ġdetail": 6652,
      "road": 6653,
      "ById": 6654,
      "Ġestimated": 6655,
      "Living": 6656,
      "Ġgauge": 6657,
      "porary": 6658,
      "Ġprofessional": 6659,
      "Ġvertices": 6660,
      "Ġreceive": 6661,
      "ette": 6662,
      "ĠassertEquals": 6663,
      "Ġcoupling": 6664,
      "alg": 6665,
      "Ġslight": 6666,
      "ĠInc": 6667,
      "Ġrepresented": 6668,
      "miss": 6669,
      "TEST": 6670,
      "Ġexperimental": 6671,
      "ĠCopy": 6672,
      "Ġrace": 6673,
      "herit": 6674,
      "ĠGeorge": 6675,
      "Ġwide": 6676,
      "Ġseems": 6677,
      "ocation": 6678,
      "record": 6679,
      "ĠYear": 6680,
      "Ġresid": 6681,
      "ĠWashington": 6682,
      "Ġhimself": 6683,
      "Ġdise": 6684,
      "Ġsoon": 6685,
      "Ġprevent": 6686,
      "Ġedges": 6687,
      "edit": 6688,
      "Ġgalaxies": 6689,
      "Obj": 6690,
      "Lock": 6691,
      "Ġmachine": 6692,
      "hesis": 6693,
      "ĠDefault": 6694,
      "ĠCourt": 6695,
      ")),": 6696,
      "ĠSam": 6697,
      "ĠTex": 6698,
      "ibly": 6699,
      "ĠLong": 6700,
      "Ġer": 6701,
      "Ġminutes": 6702,
      "Ġprocedure": 6703,
      "ius": 6704,
      "Ġliving": 6705,
      "oub": 6706,
      "Ġdecom": 6707,
      "ĠJack": 6708,
      "liance": 6709,
      "atible": 6710,
      "ĠMusic": 6711,
      "ĠBer": 6712,
      "Ġappoint": 6713,
      "olver": 6714,
      "assets": 6715,
      ")}(": 6716,
      "Ġspectral": 6717,
      "UID": 6718,
      "Ġruns": 6719,
      "1980": 6720,
      "Ġneighbor": 6721,
      "zer": 6722,
      "Ġdrop": 6723,
      "Ġflag": 6724,
      "Ġâ": 6725,
      "Ġanim": 6726,
      "Ġlack": 6727,
      "Ġscalar": 6728,
      "pers": 6729,
      "move": 6730,
      "ĠText": 6731,
      "Ġgreen": 6732,
      "Ġcorresponds": 6733,
      "reek": 6734,
      "ĠSur": 6735,
      "limit": 6736,
      "ĠOlymp": 6737,
      "_{-": 6738,
      "ja": 6739,
      "Ġstorage": 6740,
      "Ident": 6741,
      "Ġ%}": 6742,
      "Float": 6743,
      "Ġcomputed": 6744,
      "'_": 6745,
      "Ġangle": 6746,
      "Ġgenerally": 6747,
      "Ġmanager": 6748,
      "CHE": 6749,
      "(!": 6750,
      "ems": 6751,
      ")).": 6752,
      "sey": 6753,
      "addr": 6754,
      "PAR": 6755,
      "Att": 6756,
      "Ġfraction": 6757,
      "Ġreplaced": 6758,
      "Ġsurv": 6759,
      "Ġcop": 6760,
      "'}": 6761,
      "ĠHall": 6762,
      "Ġopened": 6763,
      "ror": 6764,
      "TED": 6765,
      "Ġentity": 6766,
      "ĠVer": 6767,
      "kw": 6768,
      "Ġmix": 6769,
      "Extension": 6770,
      "iffer": 6771,
      "ughter": 6772,
      "Ġhighest": 6773,
      "ĠCompany": 6774,
      "bullet": 6775,
      "Auth": 6776,
      "Ġorbit": 6777,
      "Ġsimulations": 6778,
      "Scope": 6779,
      "Ġsetup": 6780,
      "nections": 6781,
      "master": 6782,
      "leep": 6783,
      "ĠLou": 6784,
      "TABLE": 6785,
      "Ġchem": 6786,
      "ĠArmy": 6787,
      "unsigned": 6788,
      "Inv": 6789,
      "subsubsection": 6790,
      "wik": 6791,
      "roduction": 6792,
      "Timeout": 6793,
      "Ġquestions": 6794,
      "]:": 6795,
      "connection": 6796,
      "Ġmaintain": 6797,
      "Ġdisk": 6798,
      "lg": 6799,
      "ĠProv": 6800,
      "Ġprice": 6801,
      "green": 6802,
      "Ġpairs": 6803,
      "Windows": 6804,
      "elebr": 6805,
      "ĠĠĠĠĠĠĠĠĠĠĠĠĠĠĠĠĠĠĠĠĠĠĠĠ": 6806,
      "anned": 6807,
      "Ġpartial": 6808,
      "security": 6809,
      "Ġinsert": 6810,
      "istent": 6811,
      "Items": 6812,
      "DS": 6813,
      "Ġbul": 6814,
      ")))": 6815,
      "tip": 6816,
      "Ġaffect": 6817,
      "ĠPress": 6818,
      "Ret": 6819,
      "angular": 6820,
      "Ġmind": 6821,
      "Channel": 6822,
      "áĥ": 6823,
      "Ġexam": 6824,
      "essor": 6825,
      "ĠAlex": 6826,
      "Ġago": 6827,
      "MENT": 6828,
      "ĠMoreover": 6829,
      "Security": 6830,
      "ĠNO": 6831,
      "Ġways": 6832,
      "ĉĉĉĊ": 6833,
      "Ġtransp": 6834,
      "Ġabsolute": 6835,
      "Ġinstanceof": 6836,
      "However": 6837,
      "Database": 6838,
      "Ġsituation": 6839,
      "Ġmomentum": 6840,
      "ĠArg": 6841,
      "elopment": 6842,
      "ĠEqu": 6843,
      "ultural": 6844,
      "Ġpolice": 6845,
      "Ġidentified": 6846,
      "ĠKe": 6847,
      "ucket": 6848,
      "Bit": 6849,
      "Ġprobably": 6850,
      "ĠDel": 6851,
      "war": 6852,
      "pool": 6853,
      "inger": 6854,
      "Logger": 6855,
      "ĠCons": 6856,
      "elli": 6857,
      "ĠĠĠĠĠĠĠĠĠĠĠĠĠĠĠĠĠĠĠĠĠĠĠĠĠĠĠĠĠĠĠĠĠĠĠĠĠĠĠĠĠĠĠĠĠĠĠĠĠĠĠĠĠĠĠĠĠĠĠĠĠĠĠĠ": 6858,
      "LOG": 6859,
      "mi": 6860,
      "typeof": 6861,
      "Ġcontinued": 6862,
      "Ġcloud": 6863,
      "DC": 6864,
      "ĠRoad": 6865,
      "ĠFalse": 6866,
      "Ġreserv": 6867,
      "Ġvariety": 6868,
      "rices": 6869,
      "(){": 6870,
      "Red": 6871,
      "_->": 6872,
      "names": 6873,
      "Ġ(*": 6874,
      "ancel": 6875,
      "Ġstri": 6876,
      "forall": 6877,
      "123": 6878,
      "selected": 6879,
      "Ġdepth": 6880,
      "Ġcontrast": 6881,
      "Ġsaw": 6882,
      "save": 6883,
      "Ġbeginning": 6884,
      "Ġhidden": 6885,
      ")\\,": 6886,
      "site": 6887,
      "Ġoccur": 6888,
      "Ġjoined": 6889,
      "Ġalgorithms": 6890,
      "Symbol": 6891,
      "Ġbranch": 6892,
      "horizontal": 6893,
      "Ġbooks": 6894,
      "Ġhighly": 6895,
      "Ġgrant": 6896,
      "Ġgrid": 6897,
      "Ġjud": 6898,
      "Ġcalls": 6899,
      "Fil": 6900,
      "Ġaxis": 6901,
      "pository": 6902,
      "Ġrecorded": 6903,
      "Before": 6904,
      "]]": 6905,
      "Ġmask": 6906,
      "ï¼": 6907,
      "[:": 6908,
      "Struct": 6909,
      "icated": 6910,
      "ĠRel": 6911,
      "Ġgeneration": 6912,
      "rad": 6913,
      "Ã§": 6914,
      "1994": 6915,
      "ository": 6916,
      "Ġassumption": 6917,
      "Ġserial": 6918,
      "Ġalloc": 6919,
      "desc": 6920,
      "irmed": 6921,
      "ĠZe": 6922,
      "Ġmis": 6923,
      "phone": 6924,
      "@\"": 6925,
      "hentication": 6926,
      "Ġwoman": 6927,
      "çļ": 6928,
      "ĠGod": 6929,
      "SIZE": 6930,
      "Ġformed": 6931,
      "Grid": 6932,
      "pmatrix": 6933,
      "onym": 6934,
      "Ġenh": 6935,
      "Ġrect": 6936,
      "kg": 6937,
      "Ġsimulation": 6938,
      "Ġarbitrary": 6939,
      "ĠAssembly": 6940,
      "ĠIP": 6941,
      "estival": 6942,
      "ita": 6943,
      "MB": 6944,
      "Det": 6945,
      "enses": 6946,
      "Ljava": 6947,
      "%%%%": 6948,
      "Ġkeys": 6949,
      "Ġattributes": 6950,
      "çļĦ": 6951,
      "each": 6952,
      ".__": 6953,
      "dropdown": 6954,
      "Ġability": 6955,
      "\">&": 6956,
      "ĠRoman": 6957,
      "ĠView": 6958,
      "Pool": 6959,
      "Activity": 6960,
      "ampling": 6961,
      "Ġdro": 6962,
      "fail": 6963,
      "kin": 6964,
      "ĠRoyal": 6965,
      "reme": 6966,
      "channel": 6967,
      "screen": 6968,
      "Tra": 6969,
      "Ġconstit": 6970,
      "Ġupdated": 6971,
      "ĠAp": 6972,
      "Ġblocks": 6973,
      "Ġeight": 6974,
      "home": 6975,
      "$/": 6976,
      "ðŁ": 6977,
      "Figure": 6978,
      "riteria": 6979,
      "aily": 6980,
      "assertEqual": 6981,
      "Prop": 6982,
      "Ġcorrelation": 6983,
      "queue": 6984,
      "overnor": 6985,
      "Ġgave": 6986,
      "asket": 6987,
      "Ġcoefficients": 6988,
      "oting": 6989,
      "Ġimmediately": 6990,
      "ternet": 6991,
      "yntax": 6992,
      "bing": 6993,
      "jpg": 6994,
      "room": 6995,
      "joy": 6996,
      "ĠDi": 6997,
      "txt": 6998,
      ")_{": 6999,
      "Conf": 7000,
      "ĠAcadem": 7001,
      "ollowing": 7002,
      "ĠFin": 7003,
      "urrency": 7004,
      "Ġmatches": 7005,
      "Ġagreement": 7006,
      "Java": 7007,
      "ACE": 7008,
      "3333": 7009,
      "alian": 7010,
      "IB": 7011,
      "ĠSociety": 7012,
      "Ġmother": 7013,
      "','": 7014,
      "igr": 7015,
      "total": 7016,
      "Ġformation": 7017,
      "Ġcompletely": 7018,
      "ĠGermany": 7019,
      "Ġdir": 7020,
      "Ġsett": 7021,
      "ARY": 7022,
      "account": 7023,
      "dp": 7024,
      "Ġincreases": 7025,
      "Ġteach": 7026,
      "urt": 7027,
      "ducation": 7028,
      "PATH": 7029,
      "Edit": 7030,
      "Ġbey": 7031,
      "////////////////////////////////": 7032,
      "family": 7033,
      "Ġtheore": 7034,
      "Init": 7035,
      "andra": 7036,
      "mselves": 7037,
      "Ġappropriate": 7038,
      "()));": 7039,
      "Ġinequality": 7040,
      "events": 7041,
      "ĠWil": 7042,
      "Ġstay": 7043,
      "ental": 7044,
      "Ġanti": 7045,
      "ett": 7046,
      "Ġforces": 7047,
      "Flags": 7048,
      "ĠAR": 7049,
      "Ġconserv": 7050,
      "Ġgets": 7051,
      "She": 7052,
      "Ġmor": 7053,
      "ĠDemocr": 7054,
      "ifically": 7055,
      "Internal": 7056,
      "Ġcy": 7057,
      "Ġ[];": 7058,
      "Media": 7059,
      "ensus": 7060,
      "Directory": 7061,
      "Ġencoding": 7062,
      "MAX": 7063,
      ")^{\\": 7064,
      "Ġshowed": 7065,
      "schema": 7066,
      "napshot": 7067,
      "Ġsquare": 7068,
      "Ġbelieve": 7069,
      "Ġdecay": 7070,
      "ĠCong": 7071,
      "Ġbeyond": 7072,
      "bu": 7073,
      "Ġfill": 7074,
      "triev": 7075,
      "network": 7076,
      "ĠDuring": 7077,
      "job": 7078,
      "ski": 7079,
      "Ġstraight": 7080,
      "Matrix": 7081,
      "120": 7082,
      "Ġefficient": 7083,
      "yr": 7084,
      "ĠRob": 7085,
      "parameters": 7086,
      "Mat": 7087,
      "ĠAN": 7088,
      "gg": 7089,
      "Ġapproaches": 7090,
      "Ġconcent": 7091,
      "ipe": 7092,
      "Ġscient": 7093,
      "LP": 7094,
      "ĠĠĠĠĠĠĠĠĠĠĠĠĠĠĠĠĠĠĠĠĠĠ": 7095,
      "1992": 7096,
      "ĠMax": 7097,
      "cb": 7098,
      "}%": 7099,
      "ishes": 7100,
      "bel": 7101,
      "ĠWhite": 7102,
      "Ġcalc": 7103,
      "ilib": 7104,
      "Ġhighlight": 7105,
      "ĠRobert": 7106,
      "Ġvertical": 7107,
      "Ġelectric": 7108,
      "Ġleave": 7109,
      "\\|_{": 7110,
      "Ġvisible": 7111,
      "ĠAfrica": 7112,
      "trigger": 7113,
      "uate": 7114,
      "Ġintegral": 7115,
      "chain": 7116,
      "ogene": 7117,
      "wild": 7118,
      "Ġthemselves": 7119,
      "Ġpresident": 7120,
      "Del": 7121,
      "lyph": 7122,
      "Member": 7123,
      "Ġappend": 7124,
      "Ġ=========": 7125,
      "ologies": 7126,
      "DR": 7127,
      "ROM": 7128,
      "Ġfinancial": 7129,
      "Ġheart": 7130,
      "}$-": 7131,
      "Pattern": 7132,
      "Ġinstit": 7133,
      "las": 7134,
      "Ġauthors": 7135,
      "controller": 7136,
      "axis": 7137,
      "Ġlattice": 7138,
      "important": 7139,
      "iling": 7140,
      "ĠMichael": 7141,
      "}</": 7142,
      "Panel": 7143,
      "Enum": 7144,
      "Ġpen": 7145,
      "igration": 7146,
      "ĠMary": 7147,
      "Ñı": 7148,
      "Ġplaces": 7149,
      "Ġawait": 7150,
      "ĠShow": 7151,
      "uter": 7152,
      "ocker": 7153,
      "SM": 7154,
      "!!": 7155,
      "Ġcombination": 7156,
      "Ġmus": 7157,
      "rb": 7158,
      "ĠFoundation": 7159,
      "Ġdistinct": 7160,
      "icks": 7161,
      "stop": 7162,
      "ĠPub": 7163,
      "Ġkm": 7164,
      "These": 7165,
      "ĠBig": 7166,
      "Ġmolec": 7167,
      "Ġprefer": 7168,
      "1993": 7169,
      "ĠSuper": 7170,
      "called": 7171,
      "Ġreli": 7172,
      "128": 7173,
      "tools": 7174,
      "Ġperturb": 7175,
      "throws": 7176,
      "ffic": 7177,
      ")));": 7178,
      "150": 7179,
      "Ġpartition": 7180,
      "bold": 7181,
      "1970": 7182,
      "Ġlisted": 7183,
      "uations": 7184,
      "Ġdual": 7185,
      "exists": 7186,
      "Ġhandler": 7187,
      "Ġ+\\": 7188,
      "Ġstable": 7189,
      "Found": 7190,
      "Scale": 7191,
      "Ġparticularly": 7192,
      "Ġperfect": 7193,
      "ĠVersion": 7194,
      "stable": 7195,
      "printf": 7196,
      "ĠEach": 7197,
      "eder": 7198,
      "assertEquals": 7199,
      "ĠMiss": 7200,
      "ĠRussian": 7201,
      "Ġliterature": 7202,
      "Ġstudent": 7203,
      "Ġdirected": 7204,
      "Ġharm": 7205,
      "Ġnative": 7206,
      "Ġdistributions": 7207,
      "Ġinsp": 7208,
      "ĠAustralian": 7209,
      "Ġjoint": 7210,
      "ko": 7211,
      "~$\\": 7212,
      "prov": 7213,
      "ĠDan": 7214,
      "ĠCall": 7215,
      "usters": 7216,
      "ala": 7217,
      "Ġidentify": 7218,
      "Ġmentioned": 7219,
      "ĠNetwork": 7220,
      "Ġclassification": 7221,
      "cknow": 7222,
      "external": 7223,
      "Ġpropag": 7224,
      "lan": 7225,
      "hav": 7226,
      "aming": 7227,
      "iller": 7228,
      "ads": 7229,
      "Ġunless": 7230,
      "Ġ{'": 7231,
      "_{{\\": 7232,
      "leton": 7233,
      "ierarch": 7234,
      "Year": 7235,
      "metadata": 7236,
      "forward": 7237,
      "Ġip": 7238,
      "stant": 7239,
      "Ġjournal": 7240,
      "engine": 7241,
      "asi": 7242,
      "acro": 7243,
      "unicip": 7244,
      "NavBarCell": 7245,
      ",\\,": 7246,
      "Ġscience": 7247,
      "Step": 7248,
      "Graph": 7249,
      "Rest": 7250,
      "oved": 7251,
      "onical": 7252,
      "perp": 7253,
      "reset": 7254,
      "ĠTexas": 7255,
      "Protocol": 7256,
      "jar": 7257,
      "Ġplant": 7258,
      "ĠGold": 7259,
      "Ġanything": 7260,
      "ĠCode": 7261,
      "ĠTom": 7262,
      "Ġassess": 7263,
      "IE": 7264,
      "LIC": 7265,
      "Ġcourt": 7266,
      "EXT": 7267,
      "Ġreached": 7268,
      "Ġmodes": 7269,
      "Ġwife": 7270,
      "ToString": 7271,
      "ĠFore": 7272,
      "Ġmeasures": 7273,
      "RR": 7274,
      "Ġasked": 7275,
      "Close": 7276,
      "ĠMa": 7277,
      "lers": 7278,
      "Ġpurpose": 7279,
      "Ġio": 7280,
      "mos": 7281,
      "Ġinvariant": 7282,
      "Ġfinished": 7283,
      "Editor": 7284,
      "hol": 7285,
      "Ġtechniques": 7286,
      "eds": 7287,
      "ora": 7288,
      "browser": 7289,
      "Ġbgcolor": 7290,
      "()).": 7291,
      "sime": 7292,
      "primary": 7293,
      "While": 7294,
      "Ġexc": 7295,
      "simeq": 7296,
      "lapse": 7297,
      "TEX": 7298,
      "}^*": 7299,
      "Ġexistence": 7300,
      "ĠIsra": 7301,
      "ĠAND": 7302,
      "ffect": 7303,
      "Ġpurch": 7304,
      "ĠTem": 7305,
      "Transform": 7306,
      "handler": 7307,
      "Ġdenotes": 7308,
      "iate": 7309,
      "Ġgoes": 7310,
      "hidden": 7311,
      "dem": 7312,
      "atin": 7313,
      "Desc": 7314,
      "Ġ^": 7315,
      "Full": 7316,
      "shall": 7317,
      "Rece": 7318,
      "ilation": 7319,
      "Adapter": 7320,
      "Ġrap": 7321,
      "echo": 7322,
      "Ġstated": 7323,
      "tik": 7324,
      ")^{-": 7325,
      "Ġschools": 7326,
      "switch": 7327,
      "Ġfavor": 7328,
      "Ġdead": 7329,
      "Loader": 7330,
      "$).": 7331,
      "iders": 7332,
      "Other": 7333,
      "Ġcapacity": 7334,
      "Ġcoordinates": 7335,
      "ĠConfig": 7336,
      "ocaml": 7337,
      "manager": 7338,
      "ĠIsland": 7339,
      "ĠMex": 7340,
      "loop": 7341,
      "ji": 7342,
      "Ġ(_": 7343,
      "ĠClub": 7344,
      "ga": 7345,
      "Ġmedical": 7346,
      "ben": 7347,
      "Ġeverything": 7348,
      "Ġprojects": 7349,
      "ĠLife": 7350,
      "strument": 7351,
      "Selector": 7352,
      "Ġmessages": 7353,
      "Ġhous": 7354,
      "eval": 7355,
      "ĠSl": 7356,
      "logger": 7357,
      "vs": 7358,
      "Ġ\"\"": 7359,
      "Ġfailure": 7360,
      "ician": 7361,
      "ĠOption": 7362,
      "ĠFunction": 7363,
      "ĠTODO": 7364,
      "ĠSU": 7365,
      "alloc": 7366,
      "Ġbounds": 7367,
      "Ġbur": 7368,
      "Ġappeared": 7369,
      "Ġcollabor": 7370,
      "Ġculture": 7371,
      "kens": 7372,
      "Ġdigital": 7373,
      "Ġdestroy": 7374,
      "Ġtab": 7375,
      "Ġseven": 7376,
      "Proxy": 7377,
      "ĠJer": 7378,
      "Ġmeasurement": 7379,
      "grade": 7380,
      "Ġinvalid": 7381,
      "++;": 7382,
      "Ġmatching": 7383,
      "mag": 7384,
      "ĠSal": 7385,
      "Ġlatest": 7386,
      "Ġmarried": 7387,
      "[$": 7388,
      "Ġintroduce": 7389,
      "ĠSO": 7390,
      "Auto": 7391,
      "ĠDivision": 7392,
      "Ġreflect": 7393,
      "Browser": 7394,
      "bad": 7395,
      "Ġbirth": 7396,
      "GR": 7397,
      "ĠExt": 7398,
      "Ġmaster": 7399,
      "ĠId": 7400,
      "ĠÎ": 7401,
      "Ġlegal": 7402,
      "Ġseparate": 7403,
      "remark": 7404,
      "Imp": 7405,
      "Ġsubset": 7406,
      "UTF": 7407,
      "ĠMA": 7408,
      ";\"": 7409,
      "icity": 7410,
      "Ġdeliver": 7411,
      "Ġpointer": 7412,
      "ato": 7413,
      "Ġdefe": 7414,
      "Ġfamilies": 7415,
      "MT": 7416,
      "Ġsongs": 7417,
      "Ġapproximately": 7418,
      "Ġaspect": 7419,
      "asets": 7420,
      "Ġmapping": 7421,
      ">:": 7422,
      "Ġindicates": 7423,
      "Ġsimpl": 7424,
      "diff": 7425,
      "Ġcaused": 7426,
      "Layer": 7427,
      "Ġcreating": 7428,
      "Ġtraditional": 7429,
      "configuration": 7430,
      "Ġtrigger": 7431,
      "ĠCentral": 7432,
      "symbol": 7433,
      "Ġattr": 7434,
      "ĠTop": 7435,
      "Ġcircle": 7436,
      "Ġsecret": 7437,
      "Ġadvant": 7438,
      "ĠMus": 7439,
      "Profile": 7440,
      "area": 7441,
      ")}{\\": 7442,
      "Ġinteractions": 7443,
      "hold": 7444,
      "reedom": 7445,
      "ĠPen": 7446,
      "ito": 7447,
      "arc": 7448,
      "inem": 7449,
      "Ġng": 7450,
      "ifold": 7451,
      "getElement": 7452,
      "}}^": 7453,
      "entials": 7454,
      "Ġmoving": 7455,
      "navList": 7456,
      "ĠAnn": 7457,
      "Print": 7458,
      "Ġisn": 7459,
      "Ġxmlns": 7460,
      "ĠWindow": 7461,
      "ĠJew": 7462,
      "Ġactivities": 7463,
      "erial": 7464,
      "rase": 7465,
      "Ġvan": 7466,
      "ĠUnder": 7467,
      "Ġdiscussion": 7468,
      "ĠChinese": 7469,
      "ĠTor": 7470,
      "Ġcli": 7471,
      "ĠMr": 7472,
      "asy": 7473,
      "ĠHen": 7474,
      "Ġtrade": 7475,
      "ĠSecond": 7476,
      "Ġpool": 7477,
      "Ġdetailed": 7478,
      "Ġtrying": 7479,
      "Compar": 7480,
      "IPT": 7481,
      "Ġeq": 7482,
      "Ġfunc": 7483,
      "ĠFoot": 7484,
      "pons": 7485,
      "olf": 7486,
      "DT": 7487,
      "Ġoccup": 7488,
      "article": 7489,
      "*)": 7490,
      "iger": 7491,
      "Ġmodified": 7492,
      "Ġsummary": 7493,
      "Ġdelay": 7494,
      "La": 7495,
      "->_": 7496,
      "flags": 7497,
      "ĠYour": 7498,
      "Ġprocessing": 7499,
      "Ġoppos": 7500,
      "allery": 7501,
      "ivacy": 7502,
      "Ġkernel": 7503,
      "ĠHead": 7504,
      "Using": 7505,
      "Gu": 7506,
      ".'": 7507,
      "components": 7508,
      "Events": 7509,
      "Ġorient": 7510,
      "subs": 7511,
      "\"`": 7512,
      "look": 7513,
      "iversal": 7514,
      "1991": 7515,
      "mazon": 7516,
      "\\_": 7517,
      "Ġmixed": 7518,
      "ĠThomas": 7519,
      "Ġcapital": 7520,
      ".~(\\": 7521,
      "Ġhum": 7522,
      "libr": 7523,
      "zone": 7524,
      "va": 7525,
      "agon": 7526,
      "ĠNode": 7527,
      "){\\": 7528,
      "mann": 7529,
      "Ġtransformation": 7530,
      "Ġsignature": 7531,
      "apply": 7532,
      "Ġcombined": 7533,
      "organ": 7534,
      "Ġ\"<": 7535,
      "anks": 7536,
      "mediate": 7537,
      "ancis": 7538,
      "_,": 7539,
      "Ġcurves": 7540,
      "Attributes": 7541,
      "Ġ$$": 7542,
      "ĠSmith": 7543,
      "Ġhope": 7544,
      "Ġscene": 7545,
      "Ġimplements": 7546,
      "Ġthreshold": 7547,
      "abe": 7548,
      "isl": 7549,
      "Ġstrateg": 7550,
      "Ġpush": 7551,
      "Ġenter": 7552,
      "Ġsen": 7553,
      "'])": 7554,
      "Ġnearly": 7555,
      "Ġthreat": 7556,
      "unct": 7557,
      "Ġelem": 7558,
      "CF": 7559,
      "uan": 7560,
      "Ġbuilder": 7561,
      "Ġspatial": 7562,
      "ĠCarol": 7563,
      "platform": 7564,
      "eve": 7565,
      "Ġenable": 7566,
      "ribution": 7567,
      ")\\\\": 7568,
      "Ġspread": 7569,
      "ustain": 7570,
      "shire": 7571,
      "BUG": 7572,
      "Ġclick": 7573,
      "ishing": 7574,
      "cover": 7575,
      "tabs": 7576,
      "random": 7577,
      "Ġcandidate": 7578,
      "\",\"": 7579,
      "Plugin": 7580,
      "Runtime": 7581,
      "Ġ{{": 7582,
      "nil": 7583,
      "Ġrecords": 7584,
      "mapsto": 7585,
      "ĠHand": 7586,
      "Keys": 7587,
      "mb": 7588,
      "DP": 7589,
      "ÙĦ": 7590,
      "amental": 7591,
      "Ġorganization": 7592,
      "Ġcontr": 7593,
      "Ġanswer": 7594,
      "Repository": 7595,
      "Ġcycle": 7596,
      "Duration": 7597,
      "fol": 7598,
      "ĠTown": 7599,
      "Iterator": 7600,
      "Ġremain": 7601,
      "Ġestimates": 7602,
      "Art": 7603,
      "osh": 7604,
      "Ġtools": 7605,
      "rium": 7606,
      "ĠHistory": 7607,
      "Expr": 7608,
      "Ġformal": 7609,
      "ĠTwo": 7610,
      "Ġtor": 7611,
      "Ġplaced": 7612,
      "Ġdetect": 7613,
      "TT": 7614,
      "Ġmatrices": 7615,
      "ĠAfrican": 7616,
      "Ġcomputer": 7617,
      "$^{-": 7618,
      "Ġasync": 7619,
      "Ġprograms": 7620,
      "Ġmechanism": 7621,
      "ĠGames": 7622,
      "Ġflat": 7623,
      ")},": 7624,
      "Ġdebug": 7625,
      "yg": 7626,
      "ali": 7627,
      "Pay": 7628,
      "apers": 7629,
      "Ġdebut": 7630,
      "Ġ=\\": 7631,
      "ertificate": 7632,
      "Ġnoted": 7633,
      "getName": 7634,
      "tmp": 7635,
      "Opt": 7636,
      "ĠVis": 7637,
      "SCR": 7638,
      "Ġadj": 7639,
      "house": 7640,
      "Details": 7641,
      "webpack": 7642,
      "plot": 7643,
      "vc": 7644,
      "ÐµÐ": 7645,
      "contains": 7646,
      "oles": 7647,
      "ĠColor": 7648,
      ")\"": 7649,
      "ĠUpdate": 7650,
      "Ġpure": 7651,
      "Ġpan": 7652,
      "$$\\": 7653,
      "WA": 7654,
      "blem": 7655,
      "Ġsports": 7656,
      "Ġlayers": 7657,
      "edy": 7658,
      "ĠTur": 7659,
      "istical": 7660,
      "=\"${": 7661,
      "Ġassumed": 7662,
      "Ġrail": 7663,
      "Ġnotice": 7664,
      "Double": 7665,
      "sumer": 7666,
      "Ġchurch": 7667,
      "tikz": 7668,
      "ĠØ": 7669,
      "colLast": 7670,
      "ĠBi": 7671,
      "Feature": 7672,
      "ĠResult": 7673,
      "Ġproviding": 7674,
      "Ġbrowser": 7675,
      "bytes": 7676,
      "SQL": 7677,
      "ĠTim": 7678,
      "Ġlat": 7679,
      "istan": 7680,
      "Ã³n": 7681,
      "Ġobserve": 7682,
      "SER": 7683,
      "_(": 7684,
      "Ġguarant": 7685,
      "compiler": 7686,
      "Ġstrength": 7687,
      "Ġdependence": 7688,
      "Ġjoin": 7689,
      "rine": 7690,
      "Ġwanted": 7691,
      "nn": 7692,
      "XML": 7693,
      "NR": 7694,
      "NULL": 7695,
      "})$.": 7696,
      "Ġshowing": 7697,
      "formance": 7698,
      "Ġretriev": 7699,
      "Ġut": 7700,
      "Ġtypically": 7701,
      "Variable": 7702,
      "CHECK": 7703,
      "ĠScott": 7704,
      "ĠProf": 7705,
      "Ġcolumns": 7706,
      "Ġfair": 7707,
      "Ġmanufact": 7708,
      "pu": 7709,
      "Ġsingular": 7710,
      "Hz": 7711,
      "Ġbrief": 7712,
      "ĠGrand": 7713,
      ",$": 7714,
      "ĠGaussian": 7715,
      "Ġdemand": 7716,
      "ellig": 7717,
      "SY": 7718,
      "ictor": 7719,
      "Ġverify": 7720,
      "but": 7721,
      "Memory": 7722,
      "MOD": 7723,
      "Ġstudio": 7724,
      "Ġinfluence": 7725,
      "ĠVol": 7726,
      "ĠJava": 7727,
      "riend": 7728,
      ")_": 7729,
      "Ġcelebr": 7730,
      "ĠAlthough": 7731,
      "ĠMuseum": 7732,
      "Ġbehavi": 7733,
      "ĠExec": 7734,
      "ĠReview": 7735,
      "NotNull": 7736,
      "<!": 7737,
      "Ġring": 7738,
      "lig": 7739,
      "ruby": 7740,
      "RAN": 7741,
      "ĠCap": 7742,
      "dialog": 7743,
      "Ġinterview": 7744,
      "Ġyields": 7745,
      "Term": 7746,
      "Ġentries": 7747,
      "Ġenabled": 7748,
      "Ġwind": 7749,
      "Ġcontributions": 7750,
      "Ġheavy": 7751,
      "istration": 7752,
      "diag": 7753,
      "Ġweeks": 7754,
      "hemat": 7755,
      "FS": 7756,
      "Ġconstructed": 7757,
      "ĠJapanese": 7758,
      "Members": 7759,
      "Ġ[[": 7760,
      "ONE": 7761,
      "icies": 7762,
      "power": 7763,
      "Ġoffers": 7764,
      "when": 7765,
      "ĠVAL": 7766,
      "Ġpositions": 7767,
      "Ġtouch": 7768,
      "oton": 7769,
      "aste": 7770,
      "izable": 7771,
      "udget": 7772,
      "ĠMost": 7773,
      "Ġonto": 7774,
      "Files": 7775,
      "wildfly": 7776,
      "Func": 7777,
      "colFirst": 7778,
      "____": 7779,
      "Global": 7780,
      "Dest": 7781,
      "åı": 7782,
      "Ġreader": 7783,
      "ĠĠĠĠĠĠĠĠĠĠĠĠĠĠĠĠĠĠĠĠĠĠĠĠĠĠĠĠĠĠĠĠĠĠĠĠĠĠĠĠĠĠĠ": 7784,
      "Ġstellar": 7785,
      "urred": 7786,
      "props": 7787,
      "ĠLine": 7788,
      "ĠKore": 7789,
      "Ġcoq": 7790,
      "cret": 7791,
      "aration": 7792,
      "ĠTask": 7793,
      "STAT": 7794,
      "FIG": 7795,
      "idx": 7796,
      "gb": 7797,
      "ĠCamp": 7798,
      "mut": 7799,
      "Parse": 7800,
      "Ġepisode": 7801,
      "Ġspectra": 7802,
      "ajax": 7803,
      "Ġindicate": 7804,
      "Background": 7805,
      "^{+": 7806,
      "ĠIr": 7807,
      "ĠMer": 7808,
      "{$\\": 7809,
      "Ġlo": 7810,
      "ĠInitial": 7811,
      "ensed": 7812,
      "notes": 7813,
      "mic": 7814,
      "ĠGen": 7815,
      "ĠLi": 7816,
      "ĠDet": 7817,
      "Ġprotect": 7818,
      "Ġvary": 7819,
      "Ġspent": 7820,
      "itation": 7821,
      "kes": 7822,
      "Play": 7823,
      "azine": 7824,
      "filename": 7825,
      "ĠCanadian": 7826,
      "IST": 7827,
      "Ġgold": 7828,
      "Ġarchitecture": 7829,
      "Ġdu": 7830,
      "Ġworth": 7831,
      "Mapping": 7832,
      "ĠSeries": 7833,
      "arsed": 7834,
      "Generic": 7835,
      "ĠAtt": 7836,
      "protected": 7837,
      "hide": 7838,
      "Ġoptional": 7839,
      "Ġdynamic": 7840,
      "Theorem": 7841,
      "Ġdevices": 7842,
      "ĠNumber": 7843,
      "-$": 7844,
      "Ġpret": 7845,
      "care": 7846,
      "allclasses": 7847,
      "swarm": 7848,
      "Ġphen": 7849,
      "Author": 7850,
      "Abstract": 7851,
      "ĠPlay": 7852,
      "icago": 7853,
      "BE": 7854,
      "Ġrelatively": 7855,
      "Ġslightly": 7856,
      "Ġ=======": 7857,
      "Ġsymmetric": 7858,
      "acle": 7859,
      "clusive": 7860,
      "ĠFlor": 7861,
      "Ġreq": 7862,
      "proposition": 7863,
      "Ġanalog": 7864,
      "Thus": 7865,
      "Ġeventually": 7866,
      "Ġdifferences": 7867,
      "Ġsometimes": 7868,
      "Ġleader": 7869,
      "two": 7870,
      "ĠGovernment": 7871,
      "she": 7872,
      "azz": 7873,
      "Ġtypeof": 7874,
      "prefix": 7875,
      "Ġoccurs": 7876,
      "pa": 7877,
      "Ġpassword": 7878,
      "Ġquickly": 7879,
      "ĠTrump": 7880,
      "Ġreplace": 7881,
      "ountain": 7882,
      "Ġkilled": 7883,
      "abil": 7884,
      "chor": 7885,
      "je": 7886,
      "tri": 7887,
      "Ġvectors": 7888,
      "Ġnavigation": 7889,
      "ĠChristian": 7890,
      "ĠRegister": 7891,
      "Ġrelig": 7892,
      "Ġenjoy": 7893,
      "anging": 7894,
      "'ll": 7895,
      "since": 7896,
      "Ġdesc": 7897,
      "Ġsites": 7898,
      "Ġfriends": 7899,
      "Ġmeeting": 7900,
      "ĠĠĠĠĠĠĠĠĠĠĠĠĠĠĠĠĠĠĠĠĠĠĠĠĠĠĠĠĠ": 7901,
      "editor": 7902,
      "ald": 7903,
      "Fail": 7904,
      "Ġreduction": 7905,
      "circle": 7906,
      "Ġabstract": 7907,
      "ĠGreat": 7908,
      "services": 7909,
      "HR": 7910,
      "ponential": 7911,
      "ĠStar": 7912,
      "illis": 7913,
      "Success": 7914,
      "HER": 7915,
      "Ġowner": 7916,
      "poses": 7917,
      "nodes": 7918,
      "IA": 7919,
      "Ġachieve": 7920,
      "Ġmovement": 7921,
      "Ġbrought": 7922,
      "Ġinstalled": 7923,
      "$&$\\{": 7924,
      "Ġminor": 7925,
      "Ġadding": 7926,
      "Ġgiving": 7927,
      "Ġpublish": 7928,
      "ĠMessage": 7929,
      "Ġmovie": 7930,
      "ĠMinister": 7931,
      "'m": 7932,
      "Ġgap": 7933,
      "ĠMedia": 7934,
      "liament": 7935,
      "ĠMad": 7936,
      "herited": 7937,
      "Ġseconds": 7938,
      "oma": 7939,
      "Ġasympt": 7940,
      "Ġintr": 7941,
      "Ġfn": 7942,
      "aren": 7943,
      "Space": 7944,
      "ĠCommission": 7945,
      "scill": 7946,
      "anda": 7947,
      "Pub": 7948,
      "NOT": 7949,
      "Ġthick": 7950,
      "Failed": 7951,
      "iterator": 7952,
      "iple": 7953,
      "zing": 7954,
      "Ġprim": 7955,
      "Ġoptimization": 7956,
      "atre": 7957,
      "Ġexchange": 7958,
      "generated": 7959,
      "'(": 7960,
      "Ġunion": 7961,
      "ĠUsing": 7962,
      "uous": 7963,
      "mask": 7964,
      "fixed": 7965,
      "ĠDen": 7966,
      "arse": 7967,
      "Ġconvergence": 7968,
      "ova": 7969,
      "omorphic": 7970,
      "Ġult": 7971,
      "Ġcommit": 7972,
      "collapse": 7973,
      "ilibrium": 7974,
      "Ġwav": 7975,
      "tests": 7976,
      "Ġtx": 7977,
      "vest": 7978,
      "Ġtit": 7979,
      "Ġraw": 7980,
      ")$-": 7981,
      "dependent": 7982,
      "umni": 7983,
      "ĠEngine": 7984,
      "ĠFrancis": 7985,
      "letion": 7986,
      "Ġcontained": 7987,
      "Ġcarry": 7988,
      ">\\": 7989,
      "ĠAcademy": 7990,
      "Ġhol": 7991,
      "Ġimag": 7992,
      "^^": 7993,
      "MR": 7994,
      "apped": 7995,
      "Ġquarter": 7996,
      "Ġ\\},$&$\\{": 7997,
      "Ġclearly": 7998,
      "Scroll": 7999,
      "ĠWestern": 8000,
      "Remove": 8001,
      "Constants": 8002,
      "attributes": 8003,
      "odot": 8004,
      "Ġlives": 8005,
      "NT": 8006,
      "hbar": 8007,
      "Person": 8008,
      "Total": 8009,
      "Ġlabels": 8010,
      "Ġunderstanding": 8011,
      "Home": 8012,
      "acebook": 8013,
      "'ve": 8014,
      "1989": 8015,
      "ĠSun": 8016,
      "Character": 8017,
      "temp": 8018,
      "Ġfine": 8019,
      "[(": 8020,
      "Ġalternative": 8021,
      "ups": 8022,
      "\"><!--": 8023,
      "children": 8024,
      "Common": 8025,
      "ĠBO": 8026,
      "cred": 8027,
      "Ġexpressed": 8028,
      "ny": 8029,
      "ĠOrder": 8030,
      "weet": 8031,
      "Cons": 8032,
      "Selected": 8033,
      "ĠGame": 8034,
      "ĠIOException": 8035,
      "Ġhydro": 8036,
      "lat": 8037,
      "onder": 8038,
      "Ġsynt": 8039,
      "}&": 8040,
      "Ġdecided": 8041,
      "otted": 8042,
      "Ġacceler": 8043,
      "tail": 8044,
      "Ġshot": 8045,
      "MI": 8046,
      "bot": 8047,
      "Ġfourth": 8048,
      "asketball": 8049,
      "Ġabsor": 8050,
      "Ġparallel": 8051,
      "theme": 8052,
      "Ġwrong": 8053,
      "Ġmeta": 8054,
      "ooks": 8055,
      "Ġship": 8056,
      "hens": 8057,
      "FFFF": 8058,
      "tbody": 8059,
      "jango": 8060,
      "ĠĠĠĠĠĠĠĠĠĠĠĠĠĠĠĠĠĠĠĠĠĠĠĠĠĠ": 8061,
      "provider": 8062,
      "Ġcivil": 8063,
      "Ġhypot": 8064,
      "Register": 8065,
      "equence": 8066,
      "Ġdepart": 8067,
      "ella": 8068,
      "iral": 8069,
      "Gen": 8070,
      "uty": 8071,
      "Ġfemale": 8072,
      "Ġdrug": 8073,
      ";}": 8074,
      "ĠMult": 8075,
      "Domain": 8076,
      "ĠCath": 8077,
      "Ġsurvey": 8078,
      "Ġpark": 8079,
      "ogram": 8080,
      "aver": 8081,
      "itivity": 8082,
      "ĠKingdom": 8083,
      "thlet": 8084,
      "rich": 8085,
      "Ñĭ": 8086,
      "ĠBoard": 8087,
      "Ġbin": 8088,
      "Ġoptical": 8089,
      "ĠSI": 8090,
      "Ġsurround": 8091,
      "maven": 8092,
      "ÑĮ": 8093,
      "world": 8094,
      "Ġdom": 8095,
      "Ġprediction": 8096,
      "bas": 8097,
      "Ġsections": 8098,
      "parser": 8099,
      "Ġdimensions": 8100,
      "Ġtrained": 8101,
      "Ġsomeone": 8102,
      "$\\\\": 8103,
      "Sche": 8104,
      "Ġvac": 8105,
      "Ġangular": 8106,
      "Ġindividuals": 8107,
      "Ġpartners": 8108,
      "Tx": 8109,
      "BB": 8110,
      "amely": 8111,
      "Ġearn": 8112,
      "Ġdownload": 8113,
      "Ġmaterials": 8114,
      "}}^{": 8115,
      "\\{\\": 8116,
      "Ġplays": 8117,
      "ĠJose": 8118,
      "ournament": 8119,
      "Ġdaughter": 8120,
      "Ġcalculate": 8121,
      "Ġextrem": 8122,
      "cref": 8123,
      "HS": 8124,
      "abit": 8125,
      "Ġodd": 8126,
      "Ġadjust": 8127,
      "Ġsafety": 8128,
      "ADD": 8129,
      "venue": 8130,
      "Engine": 8131,
      "VM": 8132,
      "Ġgradient": 8133,
      "Ġcref": 8134,
      "Ġdeploy": 8135,
      "erved": 8136,
      "Area": 8137,
      "FR": 8138,
      "aland": 8139,
      "conn": 8140,
      "Ġeconomic": 8141,
      "large": 8142,
      "Ġbroadcast": 8143,
      "ĠSa": 8144,
      "$;": 8145,
      "ĠUN": 8146,
      "Ġchannels": 8147,
      "ĠIll": 8148,
      "('.": 8149,
      "ICE": 8150,
      "tor": 8151,
      "apper": 8152,
      "tags": 8153,
      "structions": 8154,
      "brace": 8155,
      "$~": 8156,
      "ĠRussia": 8157,
      "Ġreports": 8158,
      "Ġcommunication": 8159,
      "Pointer": 8160,
      "ancing": 8161,
      "Ġflex": 8162,
      "1988": 8163,
      "Ġclin": 8164,
      "ĠMass": 8165,
      "Ġqueue": 8166,
      "Socket": 8167,
      "?>": 8168,
      "roke": 8169,
      "Ġimplemented": 8170,
      "ĠFrank": 8171,
      "Ġdisease": 8172,
      "Ġfunctional": 8173,
      "lications": 8174,
      "Ġbeaut": 8175,
      "ĠMil": 8176,
      "Ġsatisfy": 8177,
      "Product": 8178,
      "Ġpages": 8179,
      "Agent": 8180,
      "opes": 8181,
      "Ġpoor": 8182,
      "ĠVirgin": 8183,
      "lict": 8184,
      "reland": 8185,
      "ĠUk": 8186,
      "GC": 8187,
      "Ġwid": 8188,
      "Ġinform": 8189,
      "Further": 8190,
      "oped": 8191,
      "ographic": 8192,
      "High": 8193,
      "phys": 8194,
      "Ġexcit": 8195,
      "ĠIts": 8196,
      "Ġ\"-": 8197,
      "wa": 8198,
      "Player": 8199,
      "game": 8200,
      "ĠHill": 8201,
      "sample": 8202,
      "ĠLouis": 8203,
      "ffff": 8204,
      "Ġevaluation": 8205,
      ")\">": 8206,
      "wrapper": 8207,
      "Constraint": 8208,
      "Ġsal": 8209,
      "sys": 8210,
      "Ġsafe": 8211,
      "\\)": 8212,
      "Video": 8213,
      "ĠIndex": 8214,
      "Password": 8215,
      "Sync": 8216,
      "headers": 8217,
      "amer": 8218,
      "Ġdriver": 8219,
      "Ġlif": 8220,
      "ĠPoint": 8221,
      "ĠSol": 8222,
      "Ġmorph": 8223,
      "rons": 8224,
      "Ġcoach": 8225,
      "|_{": 8226,
      "outer": 8227,
      "Ġstrongly": 8228,
      "Ġ&=&": 8229,
      "LECT": 8230,
      "Comment": 8231,
      "Ġconstructor": 8232,
      "Ġregime": 8233,
      "hetic": 8234,
      "cdn": 8235,
      "READ": 8236,
      "ĠImage": 8237,
      "STATE": 8238,
      "Ġdifferential": 8239,
      "PU": 8240,
      ")--(": 8241,
      "Ġctx": 8242,
      "Help": 8243,
      "Ġcommerc": 8244,
      "Summary": 8245,
      "nos": 8246,
      "Ġhor": 8247,
      "TA": 8248,
      "Depend": 8249,
      "endix": 8250,
      "ĠFinally": 8251,
      "Ġartist": 8252,
      ".;": 8253,
      "groups": 8254,
      "fi": 8255,
      "Ġminimal": 8256,
      "Ġoscill": 8257,
      "href": 8258,
      "Ġcontroller": 8259,
      "fc": 8260,
      "Ġproved": 8261,
      "('#": 8262,
      "Ġrequests": 8263,
      "ady": 8264,
      "Ġmajority": 8265,
      "ĠWomen": 8266,
      "mma": 8267,
      "Ġpaths": 8268,
      "Diag": 8269,
      "Ġparam": 8270,
      "prev": 8271,
      "ALSE": 8272,
      "()</": 8273,
      "Ġunderlying": 8274,
      "ĠHamiltonian": 8275,
      "enabled": 8276,
      "zed": 8277,
      "PORT": 8278,
      "Ġmenu": 8279,
      "itors": 8280,
      "Ġproceed": 8281,
      "Ġ?>": 8282,
      "igan": 8283,
      "junit": 8284,
      "Ġprefix": 8285,
      "shared": 8286,
      "Ġtypical": 8287,
      "ARN": 8288,
      "ĠGets": 8289,
      "yan": 8290,
      "ĠBusiness": 8291,
      "IND": 8292,
      "ÐµÐ½": 8293,
      "builder": 8294,
      "ĠBank": 8295,
      "Route": 8296,
      "Ġefficiency": 8297,
      "ĠSpr": 8298,
      "och": 8299,
      "ĠIE": 8300,
      "Ġpiece": 8301,
      "cccc": 8302,
      "iated": 8303,
      "Ġgeometry": 8304,
      "Ã¨": 8305,
      "Ġcomments": 8306,
      "ĠBill": 8307,
      "going": 8308,
      "iar": 8309,
      "Ġartists": 8310,
      "Ġdepending": 8311,
      "Ġrows": 8312,
      "Ġsizeof": 8313,
      "Ġparents": 8314,
      "Ġrotation": 8315,
      "storage": 8316,
      "Ġrapid": 8317,
      "ivery": 8318,
      "pective": 8319,
      "Public": 8320,
      "Ġopening": 8321,
      "Ġlaunch": 8322,
      "Ġreject": 8323,
      "amaz": 8324,
      "Ġnotation": 8325,
      "Ġstories": 8326,
      "ĠSupp": 8327,
      "Ġbeam": 8328,
      "Ġachieved": 8329,
      "ĠCopyright": 8330,
      "Ġcompetition": 8331,
      "URI": 8332,
      "ĠRock": 8333,
      "stitution": 8334,
      "Ġplans": 8335,
      "Ġsector": 8336,
      "Ġtemp": 8337,
      "etween": 8338,
      "1960": 8339,
      "Ġ\",": 8340,
      "Ġtransl": 8341,
      "Ġremote": 8342,
      "Ġquadr": 8343,
      "Condition": 8344,
      "Expect": 8345,
      "Ġworkers": 8346,
      "ĠStart": 8347,
      "details": 8348,
      "ĠCa": 8349,
      "BAR": 8350,
      "safe": 8351,
      "eness": 8352,
      "BP": 8353,
      "ĠAction": 8354,
      "ĠPeter": 8355,
      "typedef": 8356,
      "cluster": 8357,
      "Find": 8358,
      "------------": 8359,
      "ĠLake": 8360,
      "cores": 8361,
      "uages": 8362,
      "ih": 8363,
      "shadow": 8364,
      "amm": 8365,
      "Ġresponsible": 8366,
      "icine": 8367,
      "ircraft": 8368,
      "Ġweights": 8369,
      "ĠRail": 8370,
      "ipage": 8371,
      "displaystyle": 8372,
      "claim": 8373,
      "OUT": 8374,
      "ĠPath": 8375,
      "execute": 8376,
      "usform": 8377,
      "numerusform": 8378,
      "ifiers": 8379,
      "Ġui": 8380,
      "Ġready": 8381,
      "login": 8382,
      "player": 8383,
      "Trace": 8384,
      "IVE": 8385,
      "Wrapper": 8386,
      "poral": 8387,
      "Simple": 8388,
      "ixels": 8389,
      "xhtml": 8390,
      "Ġgoals": 8391,
      "Statement": 8392,
      "ipped": 8393,
      "Ġextend": 8394,
      "Ġlaun": 8395,
      "SCRIPT": 8396,
      "Ġconsidering": 8397,
      "Ġplease": 8398,
      "oday": 8399,
      "ĠStep": 8400,
      "OF": 8401,
      "Ġ],": 8402,
      "Ġproxy": 8403,
      "CG": 8404,
      "sych": 8405,
      "ĠJournal": 8406,
      "{%": 8407,
      "Ġmetadata": 8408,
      ")+\\": 8409,
      "Ġevaluate": 8410,
      "![": 8411,
      "ĠHistor": 8412,
      "ĠPage": 8413,
      "ĠBack": 8414,
      "Region": 8415,
      "ĠLie": 8416,
      "Ġtrace": 8417,
      "pattern": 8418,
      "ĠEducation": 8419,
      "errors": 8420,
      "}}$,": 8421,
      "=\"$": 8422,
      "ien": 8423,
      "Ġ[\"": 8424,
      "cluded": 8425,
      "svg": 8426,
      "collection": 8427,
      "ĠForce": 8428,
      "serial": 8429,
      "endor": 8430,
      "front": 8431,
      "ĠGlobal": 8432,
      "Ġobservation": 8433,
      "Cluster": 8434,
      "Ġpull": 8435,
      "Ġlogger": 8436,
      "Ġversions": 8437,
      "ACT": 8438,
      "Ġbright": 8439,
      "Ġcreation": 8440,
      "unique": 8441,
      "ĠLos": 8442,
      "ĠBrown": 8443,
      "Ġsoft": 8444,
      "ĠHash": 8445,
      "Ġoriginally": 8446,
      "found": 8447,
      "chmark": 8448,
      "Ġheat": 8449,
      "othing": 8450,
      "ateway": 8451,
      "Ġsurpr": 8452,
      "Ġreadonly": 8453,
      "Ġcamera": 8454,
      "ima": 8455,
      ".\");": 8456,
      "Headers": 8457,
      "Ġpri": 8458,
      "haps": 8459,
      "ĠInteger": 8460,
      "ĠDirector": 8461,
      "Ġinduced": 8462,
      "ading": 8463,
      "zh": 8464,
      "ĠSund": 8465,
      "Ġduration": 8466,
      "ĠMel": 8467,
      "Ġtrust": 8468,
      "Ġautomatically": 8469,
      "ĠReact": 8470,
      "Ġexecution": 8471,
      "Ġ[],": 8472,
      "Ġturned": 8473,
      "Ä±": 8474,
      "unic": 8475,
      "Ġideal": 8476,
      "feature": 8477,
      "iable": 8478,
      "Ġsemi": 8479,
      "Cap": 8480,
      "ĠRecords": 8481,
      "Ġreson": 8482,
      "Ġcollege": 8483,
      "Ġcoup": 8484,
      "verb": 8485,
      "Ġbus": 8486,
      "Ġcov": 8487,
      "fd": 8488,
      "ĠOffice": 8489,
      "ĠResource": 8490,
      "TV": 8491,
      "Ġgun": 8492,
      "conv": 8493,
      "Nodes": 8494,
      "ipp": 8495,
      "Ġinstances": 8496,
      "cuss": 8497,
      "Ġleague": 8498,
      "Äģ": 8499,
      "ĠOnly": 8500,
      "Ġded": 8501,
      ":#": 8502,
      "Collections": 8503,
      "Ġexit": 8504,
      "Category": 8505,
      "ĠAny": 8506,
      "ira": 8507,
      "Ġgrand": 8508,
      "Ġassign": 8509,
      "Texture": 8510,
      "cle": 8511,
      "iro": 8512,
      "ĉĉĉĉĉĉĉĉĉ": 8513,
      "ĠĠĠĠĠĠĠĠĠĠĠĠĠĠĠĠĠĠĠĠĠĠĠĠĠĠĠĠ": 8514,
      "}{|": 8515,
      "ndef": 8516,
      "Ear": 8517,
      "Ġrespond": 8518,
      "ola": 8519,
      "RPC": 8520,
      "Ġtrend": 8521,
      "ĠCommittee": 8522,
      "Ġcommunities": 8523,
      "ĠSil": 8524,
      "}}$.": 8525,
      "Ġsaying": 8526,
      "zen": 8527,
      "ĠSecret": 8528,
      "minipage": 8529,
      "110": 8530,
      "apes": 8531,
      "Ġstatistics": 8532,
      "Ġcomplexity": 8533,
      "Ġgalaxy": 8534,
      "Seg": 8535,
      "Ġacadem": 8536,
      "Ġletter": 8537,
      "Props": 8538,
      "Ġcarried": 8539,
      "Some": 8540,
      "urations": 8541,
      "role": 8542,
      ":}": 8543,
      "ĠRequest": 8544,
      "ĠNAME": 8545,
      "itiz": 8546,
      "ims": 8547,
      "Ġexport": 8548,
      "Ġstrings": 8549,
      "plan": 8550,
      "ĠĠĠĠĠĠĠĠĠĠĠĠĠĠĠĠĊ": 8551,
      "lets": 8552,
      "fully": 8553,
      "rained": 8554,
      "ITE": 8555,
      "ĠRichard": 8556,
      "Registry": 8557,
      "Med": 8558,
      "depth": 8559,
      "Stats": 8560,
      "apos": 8561,
      "fx": 8562,
      "Prov": 8563,
      "Ġdoub": 8564,
      "=>": 8565,
      "Ġfounded": 8566,
      "Ġlimits": 8567,
      "flag": 8568,
      "wall": 8569,
      "Ġmostly": 8570,
      "Ġrequirements": 8571,
      "Ġok": 8572,
      "Ġsummer": 8573,
      "Ġobvious": 8574,
      "itness": 8575,
      "ĠLin": 8576,
      "1987": 8577,
      "Resources": 8578,
      "stein": 8579,
      "ĠKn": 8580,
      "ĠLandroid": 8581,
      "Identifier": 8582,
      "policy": 8583,
      "600": 8584,
      "Ġcapture": 8585,
      "CESS": 8586,
      "ĠItalian": 8587,
      "TRUE": 8588,
      "Ġcouple": 8589,
      ")-\\": 8590,
      "Ġsuccessfully": 8591,
      "Ġdrive": 8592,
      "Generator": 8593,
      "clean": 8594,
      "uated": 8595,
      "Ġthermal": 8596,
      "periment": 8597,
      "detail": 8598,
      "Ġdesired": 8599,
      "ĠParis": 8600,
      "Ġmur": 8601,
      "username": 8602,
      "ivation": 8603,
      "fold": 8604,
      "Ġsch": 8605,
      "ĠSocial": 8606,
      "flat": 8607,
      "protocol": 8608,
      "Ġion": 8609,
      "pat": 8610,
      "assembly": 8611,
      "Ġfinding": 8612,
      "OB": 8613,
      "ĠCharles": 8614,
      "done": 8615,
      "imitive": 8616,
      "Ġconclude": 8617,
      "owers": 8618,
      "plus": 8619,
      "ĠLand": 8620,
      "pan": 8621,
      "invalid": 8622,
      "Ġparser": 8623,
      "enable": 8624,
      "Ġproport": 8625,
      "Ġaggreg": 8626,
      "onald": 8627,
      "Finally": 8628,
      "Ġcomputation": 8629,
      "enty": 8630,
      "ĠHttp": 8631,
      "ULE": 8632,
      "Ġscenario": 8633,
      "Report": 8634,
      "ogeneous": 8635,
      "IMP": 8636,
      "Ġcoordinate": 8637,
      "250": 8638,
      "Ġcool": 8639,
      "Ġ\\(\\": 8640,
      "esian": 8641,
      "Introduction": 8642,
      "Ġrepresenting": 8643,
      "indexOf": 8644,
      "Math": 8645,
      "hl": 8646,
      "users": 8647,
      "operation": 8648,
      "Bind": 8649,
      "algorithm": 8650,
      "Ġbrand": 8651,
      "ĠInformation": 8652,
      "heast": 8653,
      "undred": 8654,
      "rical": 8655,
      "resentation": 8656,
      "ĠUI": 8657,
      "ĠCast": 8658,
      "Ġmagnitude": 8659,
      "ĠIl": 8660,
      "ancer": 8661,
      "TIME": 8662,
      "icians": 8663,
      "eller": 8664,
      "ĠSupport": 8665,
      "licity": 8666,
      "istence": 8667,
      "Google": 8668,
      "ĠGeorg": 8669,
      "ĠFurthermore": 8670,
      "AF": 8671,
      "bp": 8672,
      "springframework": 8673,
      "Ġeveryone": 8674,
      "ogen": 8675,
      "Ġelected": 8676,
      "})$,": 8677,
      "complete": 8678,
      "mass": 8679,
      "Ġrobust": 8680,
      "Attr": 8681,
      "Ġuncertainty": 8682,
      "ĠHy": 8683,
      "ĠBu": 8684,
      "ona": 8685,
      "Ġmassive": 8686,
      "ctrine": 8687,
      "Ġdatasets": 8688,
      "Ġcosts": 8689,
      "OST": 8690,
      "signature": 8691,
      "Cred": 8692,
      "Ġdetected": 8693,
      "hem": 8694,
      "Ġmonitor": 8695,
      "Ġaudio": 8696,
      "Ġvacc": 8697,
      "report": 8698,
      "isters": 8699,
      "FLA": 8700,
      "amin": 8701,
      "Ġisol": 8702,
      "aling": 8703,
      "riority": 8704,
      "ĠEarth": 8705,
      "ĠSummer": 8706,
      "Ġserve": 8707,
      "'));": 8708,
      "Ġassigned": 8709,
      "cknowled": 8710,
      "Ġrise": 8711,
      "ĠDu": 8712,
      "ĠHTTP": 8713,
      "ountry": 8714,
      "ĠChicago": 8715,
      "Flow": 8716,
      "Ġstarts": 8717,
      "1986": 8718,
      "issues": 8719,
      "Ġinstruction": 8720,
      "Ġpatterns": 8721,
      "Ġtechnique": 8722,
      "Sch": 8723,
      "Ġpseud": 8724,
      "INFO": 8725,
      "progress": 8726,
      "Ġlayout": 8727,
      "identifier": 8728,
      "Ġattract": 8729,
      "Bound": 8730,
      "here": 8731,
      "Ġ$|\\": 8732,
      "Ġgraphs": 8733,
      "upload": 8734,
      "Ġinterested": 8735,
      "Ġinfinite": 8736,
      "such": 8737,
      "CRE": 8738,
      "}$)": 8739,
      "Ġenv": 8740,
      "Ġbuy": 8741,
      "Ġmasses": 8742,
      "CM": 8743,
      "Ġfactory": 8744,
      "words": 8745,
      "amous": 8746,
      "ipment": 8747,
      "Ġchart": 8748,
      "Ġcalculation": 8749,
      "Role": 8750,
      "Prefix": 8751,
      "Ġmission": 8752,
      "square": 8753,
      "WR": 8754,
      "ĠDevelopment": 8755,
      "ITION": 8756,
      "Ġarm": 8757,
      "standing": 8758,
      "Ġ[\\": 8759,
      "np": 8760,
      "aylor": 8761,
      "sume": 8762,
      "Ġsolve": 8763,
      "cong": 8764,
      "ĠSup": 8765,
      "ãĢ": 8766,
      "125": 8767,
      "$),": 8768,
      "ashion": 8769,
      "ude": 8770,
      "PROJECT": 8771,
      "brief": 8772,
      "Ġsqu": 8773,
      "WN": 8774,
      "andemic": 8775,
      "ĠZealand": 8776,
      "Ġincorpor": 8777,
      "ĠPan": 8778,
      "Ġintegration": 8779,
      "001": 8780,
      "-(": 8781,
      "Selection": 8782,
      "CTYPE": 8783,
      "video": 8784,
      "...</": 8785,
      "utch": 8786,
      "ĠjQuery": 8787,
      "async": 8788,
      "Ġshoot": 8789,
      "ĠTimes": 8790,
      "Ġclusters": 8791,
      "ĠChild": 8792,
      "amazon": 8793,
      "para": 8794,
      "ĠLu": 8795,
      "kt": 8796,
      "Ġbuildings": 8797,
      "PER": 8798,
      "Ġopportunity": 8799,
      "Ġfundamental": 8800,
      "gba": 8801,
      "proxy": 8802,
      "agent": 8803,
      "Ġalbums": 8804,
      "Ġ×": 8805,
      "nel": 8806,
      "Ġ'<": 8807,
      "resources": 8808,
      "di": 8809,
      "ĠPass": 8810,
      "EV": 8811,
      "EEEE": 8812,
      "irls": 8813,
      "Ġcommercial": 8814,
      "omp": 8815,
      "ĠFlorida": 8816,
      "Ġconnections": 8817,
      "ĠGood": 8818,
      "ĠOh": 8819,
      "Ġlicense": 8820,
      "Framework": 8821,
      "Ġbundle": 8822,
      "wer": 8823,
      "))$": 8824,
      "bc": 8825,
      "ati": 8826,
      "single": 8827,
      "opic": 8828,
      "Ġ..": 8829,
      "Ġ{\"": 8830,
      "DEFAULT": 8831,
      "Ġflags": 8832,
      "ĠLocal": 8833,
      "Ġener": 8834,
      "]}": 8835,
      "Ġcharset": 8836,
      "Ġlocations": 8837,
      "Ġpain": 8838,
      "Ġboost": 8839,
      "Ġstored": 8840,
      "1984": 8841,
      "Ġwild": 8842,
      "Progress": 8843,
      "Ġencour": 8844,
      "ĠStat": 8845,
      "Ġrat": 8846,
      "Ġserious": 8847,
      "transition": 8848,
      "Ã£": 8849,
      "ĠLibrary": 8850,
      "ymmetric": 8851,
      "pear": 8852,
      "Ġsummar": 8853,
      "Ġtheme": 8854,
      "ĠGl": 8855,
      "ssim": 8856,
      "Visible": 8857,
      "1985": 8858,
      "DM": 8859,
      "ĠBur": 8860,
      "Second": 8861,
      "Ġamplitude": 8862,
      "Ġmobile": 8863,
      "expr": 8864,
      "ĠTeam": 8865,
      "Ġnucle": 8866,
      "Ġdegrees": 8867,
      "ulator": 8868,
      "Ġolder": 8869,
      "('/": 8870,
      "lie": 8871,
      "ĠSaint": 8872,
      "Ġnullptr": 8873,
      "Ġspeak": 8874,
      "Ġscattering": 8875,
      "geles": 8876,
      "Ġhappen": 8877,
      "Ġappointed": 8878,
      "[-": 8879,
      "har": 8880,
      "Install": 8881,
      "Ġspan": 8882,
      "posal": 8883,
      "Ġbrother": 8884,
      "Ġens": 8885,
      "fire": 8886,
      "ĠHome": 8887,
      "HTTP": 8888,
      "ĠPet": 8889,
      "owner": 8890,
      "Ġprem": 8891,
      "ĠServices": 8892,
      "Ġnuclear": 8893,
      "Ġcalculations": 8894,
      "Ġreasons": 8895,
      "DOCTYPE": 8896,
      "elines": 8897,
      "FORM": 8898,
      "Uri": 8899,
      ")}_{": 8900,
      "ores": 8901,
      "ĠMain": 8902,
      "ĠTH": 8903,
      "xs": 8904,
      "razil": 8905,
      "Ġ{$": 8906,
      "Ġsn": 8907,
      "console": 8908,
      "=#": 8909,
      "ĠImp": 8910,
      "Ġsupports": 8911,
      "pton": 8912,
      "Ġterr": 8913,
      "ĠTR": 8914,
      "TEXT": 8915,
      "Ġeth": 8916,
      "ĠGal": 8917,
      "Ġdespite": 8918,
      "ĠÐ¿": 8919,
      ".<": 8920,
      "Ġguitar": 8921,
      "ĠIreland": 8922,
      "Ġsizes": 8923,
      "Ġtheoretical": 8924,
      "Ġviews": 8925,
      "Ġcomputational": 8926,
      "simple": 8927,
      "rift": 8928,
      "John": 8929,
      "uly": 8930,
      "Ġtrip": 8931,
      "flex": 8932,
      "dig": 8933,
      "Ġdistingu": 8934,
      "Single": 8935,
      "Ġphenomen": 8936,
      "nergy": 8937,
      "UD": 8938,
      "Ġtranslation": 8939,
      "ĠSQL": 8940,
      "World": 8941,
      "ĠArts": 8942,
      "Ġexplicitly": 8943,
      "person": 8944,
      "atar": 8945,
      "Ġconstants": 8946,
      "Ø±": 8947,
      "Two": 8948,
      "yy": 8949,
      "Ġul": 8950,
      "ilarly": 8951,
      "original": 8952,
      "ĠFre": 8953,
      "Ġvoice": 8954,
      "ĠBoth": 8955,
      "ĠPlan": 8956,
      "brid": 8957,
      "isc": 8958,
      "Ġbalance": 8959,
      "ĠAust": 8960,
      "required": 8961,
      "relation": 8962,
      "Ġstock": 8963,
      "Game": 8964,
      "Ġheaders": 8965,
      "duled": 8966,
      "blank": 8967,
      "ĠAndroid": 8968,
      "ĠTok": 8969,
      "writer": 8970,
      "Ġtraject": 8971,
      "Wallet": 8972,
      "dc": 8973,
      "clusions": 8974,
      "ĠVictor": 8975,
      "Ġadvantage": 8976,
      "May": 8977,
      "tics": 8978,
      "Therefore": 8979,
      "USE": 8980,
      ",.": 8981,
      "lower": 8982,
      "paragraph": 8983,
      "Ġforeach": 8984,
      "GO": 8985,
      "println": 8986,
      "Ġcalling": 8987,
      "Ġstress": 8988,
      "heel": 8989,
      "ĠYoung": 8990,
      ")}}": 8991,
      "bro": 8992,
      "DateTime": 8993,
      "ĠMake": 8994,
      "ĠAngeles": 8995,
      "Py": 8996,
      "Notification": 8997,
      "Ġfarm": 8998,
      "Ġtranslate": 8999,
      "Import": 9000,
      "IGHT": 9001,
      "moz": 9002,
      "Ġconfirm": 9003,
      "avail": 9004,
      "Ġvoc": 9005,
      "osity": 9006,
      "Ġexplan": 9007,
      "Fin": 9008,
      "Ġtraffic": 9009,
      "Ġprojection": 9010,
      "Ġmainly": 9011,
      "JS": 9012,
      "eners": 9013,
      "ynchron": 9014,
      "Ġcoefficient": 9015,
      "ello": 9016,
      "(__": 9017,
      "Ġefforts": 9018,
      "Bean": 9019,
      "Ġconven": 9020,
      "arian": 9021,
      "ĠTheir": 9022,
      "Ġscaling": 9023,
      "ĠManagement": 9024,
      "ĠPeople": 9025,
      "Ġgeneric": 9026,
      "Dem": 9027,
      "ĠSD": 9028,
      "Ġfif": 9029,
      "Ġagreed": 9030,
      "Ġgrowing": 9031,
      "Ġapplicable": 9032,
      "ĠLink": 9033,
      ";)": 9034,
      "Are": 9035,
      "throw": 9036,
      "itionally": 9037,
      "\"/": 9038,
      "bg": 9039,
      "Ġconvex": 9040,
      "kins": 9041,
      "Ġ).": 9042,
      "Interval": 9043,
      "ĠFilm": 9044,
      "tc": 9045,
      "achment": 9046,
      "rait": 9047,
      "extension": 9048,
      "ĠAS": 9049,
      "plates": 9050,
      "ĠallClasses": 9051,
      "RES": 9052,
      "uv": 9053,
      "Ġimproved": 9054,
      "Ġvalign": 9055,
      "about": 9056,
      "ĠBlock": 9057,
      "library": 9058,
      "%,": 9059,
      "Ġwhereas": 9060,
      "Ġgovern": 9061,
      "Ġmetrics": 9062,
      "itudes": 9063,
      "Ġscales": 9064,
      "ea": 9065,
      "ĠðŁ": 9066,
      "Ġallowing": 9067,
      "ĠallClassesLink": 9068,
      "ĠFootball": 9069,
      "trace": 9070,
      "ĠMov": 9071,
      "Ġ>>": 9072,
      "ĠProcess": 9073,
      "plain": 9074,
      "Ġtail": 9075,
      ">::": 9076,
      "ĠCongress": 9077,
      "ĠVari": 9078,
      "Ġmarked": 9079,
      "inet": 9080,
      "Ġestimation": 9081,
      "Ġstations": 9082,
      "sat": 9083,
      "Ġforeign": 9084,
      "ĠIII": 9085,
      "Tags": 9086,
      "oz": 9087,
      "unities": 9088,
      "Skip": 9089,
      ":`": 9090,
      "jd": 9091,
      "testing": 9092,
      "ving": 9093,
      "Ġsampling": 9094,
      "ĠOld": 9095,
      "Ġeffort": 9096,
      "Delegate": 9097,
      "Ġcritic": 9098,
      "Ġalone": 9099,
      "Ġrecall": 9100,
      "Ġpicture": 9101,
      "fix": 9102,
      "asion": 9103,
      "ĠValid": 9104,
      "checkbox": 9105,
      "sch": 9106,
      "Ġinputs": 9107,
      "bd": 9108,
      "Ġpod": 9109,
      "LC": 9110,
      "Ġaccom": 9111,
      "integ": 9112,
      "lectric": 9113,
      "Ġbias": 9114,
      "Ġvalidation": 9115,
      ")->": 9116,
      "Ġraised": 9117,
      "iggs": 9118,
      "lf": 9119,
      "keep": 9120,
      "assandra": 9121,
      "pir": 9122,
      "Ġactor": 9123,
      "Ġbre": 9124,
      "sequent": 9125,
      "ĠWindows": 9126,
      "ĠCH": 9127,
      "decl": 9128,
      "ĠJun": 9129,
      "picker": 9130,
      "Ġissu": 9131,
      "åĪ": 9132,
      "ĠAuthor": 9133,
      "Ġinitially": 9134,
      "general": 9135,
      "ĠBob": 9136,
      "EEEEFF": 9137,
      "Ġnp": 9138,
      "resolve": 9139,
      "aby": 9140,
      "eting": 9141,
      "800": 9142,
      "ĠArrayList": 9143,
      "ĠSecurity": 9144,
      "men": 9145,
      "Ġappearance": 9146,
      "LOCK": 9147,
      "ĠHot": 9148,
      "Short": 9149,
      "Ġphysics": 9150,
      "ĠAmazon": 9151,
      "Ġconj": 9152,
      "phas": 9153,
      "ĠHa": 9154,
      "Ġ([": 9155,
      "180": 9156,
      "stone": 9157,
      "Shape": 9158,
      "Ġdenoted": 9159,
      "Ġsolar": 9160,
      "FE": 9161,
      "ĠTour": 9162,
      "Methods": 9163,
      "Ġdiscrete": 9164,
      "IDTH": 9165,
      ")[": 9166,
      "Ġneural": 9167,
      "agr": 9168,
      "atomic": 9169,
      "Ġdecomposition": 9170,
      "Volume": 9171,
      "Ġexponential": 9172,
      "Ġchemical": 9173,
      "ĠElement": 9174,
      "/_": 9175,
      "EventListener": 9176,
      "ĠDat": 9177,
      "Ġcancer": 9178,
      "Ġimportance": 9179,
      "ĠNav": 9180,
      "lesssim": 9181,
      "acob": 9182,
      "Subs": 9183,
      "()))": 9184,
      "ĠLOG": 9185,
      "Ġprovider": 9186,
      "sig": 9187,
      "101": 9188,
      "ĠWill": 9189,
      "According": 9190,
      "people": 9191,
      "Ġhar": 9192,
      "Generated": 9193,
      "ĠEcon": 9194,
      "Ġexecute": 9195,
      "Ġcentre": 9196,
      "Ġrough": 9197,
      "ĠFacebook": 9198,
      "ĠASSERT": 9199,
      "Ġprops": 9200,
      "cli": 9201,
      "ĠSE": 9202,
      "Ġ}}": 9203,
      "Fragment": 9204,
      "ĠTechnology": 9205,
      "Ġfreedom": 9206,
      "ĉčĊ": 9207,
      "Ġwall": 9208,
      "gies": 9209,
      "Ġdict": 9210,
      "Ġbatch": 9211,
      "POST": 9212,
      "Ġmanaged": 9213,
      "Ġcovered": 9214,
      "Ids": 9215,
      "Ġagents": 9216,
      "Ġordered": 9217,
      "ifdef": 9218,
      "Ġdraft": 9219,
      "ockey": 9220,
      "Ġtimeout": 9221,
      "ifts": 9222,
      "ĠMicrosoft": 9223,
      "ĠSpanish": 9224,
      "Ġchallenge": 9225,
      "ĠSta": 9226,
      "ĠNAV": 9227,
      "1983": 9228,
      "awa": 9229,
      "ĠPRO": 9230,
      "undefined": 9231,
      "Multi": 9232,
      "Ġinnov": 9233,
      "Ġregarding": 9234,
      "Ġcmd": 9235,
      "Ġannual": 9236,
      ":=": 9237,
      "Ġusual": 9238,
      "Ð²": 9239,
      "sidebar": 9240,
      "sen": 9241,
      "Ã£o": 9242,
      "Namespace": 9243,
      "Pair": 9244,
      "seq": 9245,
      "nostic": 9246,
      "setup": 9247,
      "odd": 9248,
      "relations": 9249,
      "Ġexplained": 9250,
      "ean": 9251,
      "Ġhole": 9252,
      "gest": 9253,
      "ĠCD": 9254,
      "uplic": 9255,
      "oses": 9256,
      "ĠInput": 9257,
      "Ġclimate": 9258,
      "Ġtsd": 9259,
      "semble": 9260,
      "Ġfirm": 9261,
      "Ġentered": 9262,
      "Ġplus": 9263,
      "ilters": 9264,
      "Ġsea": 9265,
      "Ġoperating": 9266,
      "NC": 9267,
      "Ġlaunched": 9268,
      "ĠIsrael": 9269,
      "ourse": 9270,
      "Ġrare": 9271,
      "Ġreferred": 9272,
      "Book": 9273,
      "Clear": 9274,
      "dfrac": 9275,
      "ummy": 9276,
      "Ġvote": 9277,
      "Ġtopic": 9278,
      "Ġsatisfying": 9279,
      "ĠUSA": 9280,
      "trim": 9281,
      "Ġresist": 9282,
      "$:": 9283,
      "ĠMur": 9284,
      "Ġentropy": 9285,
      "ĠMartin": 9286,
      "Ġfans": 9287,
      "Ġblood": 9288,
      "Ġneighborhood": 9289,
      "Ġprev": 9290,
      "Ġpretty": 9291,
      "ĠVector": 9292,
      "vol": 9293,
      "ĠOriginal": 9294,
      "pull": 9295,
      "Ax": 9296,
      "ĠCatholic": 9297,
      "separ": 9298,
      "ĠVirginia": 9299,
      "ĠMP": 9300,
      "Language": 9301,
      "Ġstatistical": 9302,
      "Ġdie": 9303,
      ";\">": 9304,
      "ĠTwitter": 9305,
      "dash": 9306,
      "ibli": 9307,
      "Ġdocumentation": 9308,
      "emon": 9309,
      "cean": 9310,
      "Ġvehicle": 9311,
      "SV": 9312,
      "ests": 9313,
      "Ġconfirmed": 9314,
      "Ġfederal": 9315,
      "}({\\": 9316,
      "Returns": 9317,
      "ĠCELL": 9318,
      "clip": 9319,
      "Ġspecify": 9320,
      "Enter": 9321,
      "ĠLove": 9322,
      "}{(": 9323,
      "eces": 9324,
      "ĠFree": 9325,
      "Ġtruth": 9326,
      "(\"/": 9327,
      "Ġvariation": 9328,
      "Ġinstant": 9329,
      "Ġplugin": 9330,
      "named": 9331,
      "wp": 9332,
      "optional": 9333,
      "Mask": 9334,
      "Ġsustain": 9335,
      "sel": 9336,
      "Ġbillion": 9337,
      "1982": 9338,
      "vo": 9339,
      "adium": 9340,
      "download": 9341,
      "Ġphone": 9342,
      "ustrial": 9343,
      "NavBarFont": 9344,
      "\\}$.": 9345,
      "Mouse": 9346,
      "ĠReport": 9347,
      "ĠPower": 9348,
      "Ġapplying": 9349,
      "sb": 9350,
      "month": 9351,
      "ĠEnter": 9352,
      "Sequence": 9353,
      "Ġwhom": 9354,
      "ĠFestival": 9355,
      "Ġwinning": 9356,
      "stra": 9357,
      "timeout": 9358,
      "Ġpi": 9359,
      "»¿": 9360,
      "Ġsynchron": 9361,
      "Ġlooks": 9362,
      "mouse": 9363,
      "Sample": 9364,
      "ĠDO": 9365,
      "Ġignore": 9366,
      "Ġoccurred": 9367,
      "Ġobjective": 9368,
      "Ġorders": 9369,
      "Ġnation": 9370,
      "Ġattacks": 9371,
      "pair": 9372,
      "Ġlocally": 9373,
      "joint": 9374,
      "Ġfluct": 9375,
      "Ġcancel": 9376,
      "Real": 9377,
      "Begin": 9378,
      "Len": 9379,
      "apis": 9380,
      "ĠCA": 9381,
      "Ġinfra": 9382,
      "Ġchance": 9383,
      "Ġice": 9384,
      "Ġzone": 9385,
      "ĠEND": 9386,
      "ï»¿": 9387,
      "CB": 9388,
      "ĠBit": 9389,
      "Vir": 9390,
      "VALID": 9391,
      "duction": 9392,
      "tained": 9393,
      "orient": 9394,
      "seg": 9395,
      "ĠRet": 9396,
      "Ġdispl": 9397,
      "ĠBecause": 9398,
      "ĠJo": 9399,
      "Ġcandidates": 9400,
      "Ġlies": 9401,
      "Ġusage": 9402,
      "&=&": 9403,
      "Environment": 9404,
      "ĠSte": 9405,
      "ĠAv": 9406,
      "Ġwood": 9407,
      "ses": 9408,
      "ĠLee": 9409,
      "ENSE": 9410,
      "Ġshell": 9411,
      ")})": 9412,
      "ĠOlympics": 9413,
      "inations": 9414,
      "ĠTre": 9415,
      "Ġidx": 9416,
      "Ġleaders": 9417,
      "GA": 9418,
      "Ġprime": 9419,
      "lik": 9420,
      "aria": 9421,
      "Ġpredicted": 9422,
      "ĠHenry": 9423,
      "hard": 9424,
      "peat": 9425,
      "lace": 9426,
      "attery": 9427,
      "))\\": 9428,
      "ĠCommand": 9429,
      "ĠIR": 9430,
      "Ġalumni": 9431,
      "odies": 9432,
      "tiny": 9433,
      "Ġ];": 9434,
      "Ġstability": 9435,
      "eto": 9436,
      "Ġfeatured": 9437,
      "sky": 9438,
      "tk": 9439,
      "ĠMexico": 9440,
      "Ġenum": 9441,
      "(@": 9442,
      "ĠĠĠĠĠĠĠĠĠĠĠĠĠĠĠĠĠĠĠĠĠĠĠĠĠĠĠĠĠĠ": 9443,
      "Ġresolve": 9444,
      "General": 9445,
      "Ġsales": 9446,
      "amel": 9447,
      "helper": 9448,
      "Miss": 9449,
      "ĠBoolean": 9450,
      "Ġcook": 9451,
      "Ġsequences": 9452,
      "python": 9453,
      "iteral": 9454,
      "ĠKar": 9455,
      "ĠCarolina": 9456,
      "Ġchanging": 9457,
      "Ġfan": 9458,
      "rypto": 9459,
      "ĠSign": 9460,
      "REQ": 9461,
      "Ġmedium": 9462,
      "changed": 9463,
      "Ġdisabled": 9464,
      "Ð°Ð½": 9465,
      "ultane": 9466,
      "Ġsecondary": 9467,
      "tar": 9468,
      "Ùħ": 9469,
      "Ġthr": 9470,
      "Å¡": 9471,
      "accept": 9472,
      "ĠHaw": 9473,
      "Ġcustomers": 9474,
      "ongs": 9475,
      "Ġinject": 9476,
      "loader": 9477,
      "Ġav": 9478,
      "Ġsuitable": 9479,
      "]$.": 9480,
      "tfrac": 9481,
      "Ġdependencies": 9482,
      "Ġcm": 9483,
      "rank": 9484,
      "$_{": 9485,
      "Ġdocuments": 9486,
      "Animation": 9487,
      "chastic": 9488,
      "Lin": 9489,
      "Ġaircraft": 9490,
      "Ġneutr": 9491,
      "ĠAccess": 9492,
      "wt": 9493,
      "Ġdescribes": 9494,
      "Ġhospital": 9495,
      "Ġlemma": 9496,
      "^*$": 9497,
      "ĠLcom": 9498,
      "}})": 9499,
      "ĠSource": 9500,
      "ä»": 9501,
      "ĠChief": 9502,
      "cceed": 9503,
      "Ġmerg": 9504,
      "VALUE": 9505,
      "1979": 9506,
      "mf": 9507,
      "bmatrix": 9508,
      "overview": 9509,
      "Ġremained": 9510,
      "Proof": 9511,
      "objects": 9512,
      "iful": 9513,
      "phant": 9514,
      "Ġaccurate": 9515,
      "Ġtechnical": 9516,
      "TRY": 9517,
      "ding": 9518,
      "Ġinverse": 9519,
      "Ġfocused": 9520,
      "hbox": 9521,
      "Ġanimation": 9522,
[...]
