#version: 0.2
Ġ Ġ
ĠĠ ĠĠ
Ġ t
i n
e r
o n
Ġ a
h e
r e
a t
e n
o r
Ġt he
s t
a l
a n
i t
Ġ c
a r
ĠĠ Ġ
l e
i on
Ġ s
ĠĠĠĠ ĠĠĠĠ
Ġ o
e d
i s
e s
Ġ f
Ġ w
Ġ p
i c
in g
r o
Ġ in
n d
Ġ b
a s
Ġo f
e t
c t
Ġ d
Ġ m
en t
o u
e l
a m
Ġa nd
Ġt o
i l
Ġ re
o m
Ġ h
Ġ n
ĠĠĠĠ ĠĠĠ
i g
i d
Ġ (
at ion
Ġt h
o l
a c
Ġ \
i m
Ġ S
Ġ $
u r
Ġ =
o t
u t
Ġ e
Ġ T
Ġ C
Ġ l
i v
s e
a d
ĉ ĉ
Ġ A
< /
o d
c e
u l
= "
a g
Ġ is
i f
) ;
t h
e m
Ġ {
u n
Ġf or
Ġ g
o w
a b
c h
- -
a y
Ġ v
u m
Ġ M
u s
č Ċ
Ġ <
p e
Ġ st
q u
Ġ I
er s
at e
l y
i st
a p
Ġ on
i r
ĠĠĠĠĠĠĠĠ ĠĠĠ
it h
Ġ P
e x
t r
o c
Ġ B
Ġb e
as s
t er
Ġc on
ct ion
/ /
h t
Ġ *
2 0
en d
a v
p t
Ġa s
v er
â Ģ
am e
_ {
Ġ R
an d
u b
Ġ H
Ġ D
e st
re s
Ġ F
Ġ }
Ġ "
Ġth at
Ġw ith
Ġ L
e w
at h
e f
u p
r i
" >
Ġa l
u e
Ġ N
a in
l ass
es s
o p
Ġp ro
o s
or t
1 9
Ġa n
ag e
Ġ G
ĠT he
Ġw h
ou r
Ġ W
e g
Ġ E
ĠĠĠĠĠĠĠĠ ĠĠĠĠĠĠĠĠ
e ct
it y
ro m
Ġb y
in e
l i
ĠĠĠĠ Ġ
ar t
Ġw as
Ġe x
( )
o re
n t
Ġc om
Ġ r
er e
{ \
s p
ig ht
ur n
Ġ &
e c
m ent
ex t
Ġ it
* *
Ġa t
i z
Ġ Ċ
o g
u re
al l
Ġ or
p l
ac k
re f
ab le
k e
ul t
i al
Ġ$ \
Ġ O
i es
. .
Ġth is
Ġf rom
Ġc lass
an g
p er
iv e
Ġa re
e p
an t
t urn
u d
i le
Ġ J
y pe
an s
-- --
p ort
il l
= =
m ath
st r
0 0
b er
Ġ if
Ġt r
Ġ '
od e
or m
g et
c on
in t
l d
Ġ y
a ct
Ġw e
Ġ he
a st
ar y
it e
p h
I n
Ġ -
at ed
Ġ U
o v
u nd
ĠĠĠĠĠĠĠĠ ĠĠĠĠĠĠĠ
a re
Ġc h
in d
f f
ar d
as e
i p
ig n
i b
at a
l ic
m a
ac e
' s
Ġ le
or d
pt ion
p ro
it ion
} \
e v
T he
^ {
) ,
Ġs h
i re
c om
el l
u g
ic h
Ġn ot
} $
t o
a k
f t
Ġ K
Ġs e
c l
im e
g e
o st
t ext
j ect
Ġ //
Ġre turn
p le
av e
20 1
s er
i a
ou t
ic al
) .
on g
al ue
- >
il d
id e
ĠI n
Ġ </
: :
u st
en s
Ġp l
un ction
.. /
ĉĉ ĉĉ
ic e
Ġ V
or k
f r
c c
Ġ us
ub lic
C on
our ce
Ġ +
Ġ [
en ce
} }
an ce
ation s
( \
Ġre s
l o
ar am
f orm
c al
o k
Ġ âĢ
" ,
en c
Ġ |
Ġn ew
d u
S t
e qu
s et
Ġ j
ro w
Ġ @
or y
t a
c ri
Ġc an
s o
d d
oc k
i an
Ġ un
s s
p ut
Ġa r
Ġwh ich
eg in
âĢ Ļ
r a
ĠS t
l ow
ĠT h
ac h
b egin
m l
th er
e ar
en er
f ig
Ġ k
res s
ul l
el f
Ġ im
Ġh ave
Ġ /
iz e
Ġa p
( "
( );
sp an
20 0
E x
u se
d iv
Ġh as
ou ld
on e
ess age
} ,
ent s
ab el
> </
_{ \
) $
he n
Ġh is
s h
i el
ou s
Ġcon t
Ġst r
ow n
' ,
is h
ou nt
ĠC h
1 0
Ġa b
tr ing
et a
---- ----
> <
l l
ir st
in k
ou nd
iel d
er r
on d
er m
re e
p s
Ġ .
Ġf unction
r ight
Ġd ef
o ver
t e
Ġcom p
o b
r ay
cl ud
ter n
c he
in al
er t
le s
et h
at or
ol d
1 8
../ ../
i ew
Ġal l
} {
u al
f er
er v
Ġ* /
e q
e le
Ġs et
Ġin t
m er
y st
Ġp ublic
** **
Ġal so
Ġ :
ar k
e b
Ġn ame
ic t
ĉĉ ĉ
od el
at es
Ġp r
Ġo b
om e
fr ac
== ==
ĠĠĠĠĠĠĠĠ ĠĠĠĠĠĠĠĠĠĠĠ
ion s
p r
c k
Ġd is
r ap
pe ct
Ġp art
Ġv ar
n ame
Ġon e
) )
Ġw ere
ht ml
r y
n e
P ro
r it
Ġs u
ot h
o ol
Ġo ut
l abel
o int
ro up
ĠĠĠĠĠĠĠĠ Ġ
le d
o id
( '
Ġh ref
l ine
i x
Ġ ro
w o
s um
ic s
Ġb ut
t he
r m
th is
yst em
Ġe v
pe c
Ġ qu
t y
N ame
Ġ up
E R
en g
el y
Ġw ill
s ource
er y
math b
Ġy ou
i o
o se
c ol
Ġ Y
m essage
Ġd o
a x
Ġg et
a il
Ġ #
le ft
ing s
Ġ| |
Ġs p
ke y
l ation
or s
Ġ _
um ber
tr ans
1 2
w e
b o
Ġf irst
c re
T ype
n g
Ġm e
Ġthe ir
le ct
O N
im port
ig h
ar g
Ġp re
ĠU n
he d
c ite
Ġc ol
p aram
u ct
Ġp er
f ter
Ġit s
$ .
} )
at ic
$ ,
I d
at er
S tring
t d
Ġt ype
ĠI t
I N
is s
eth od
, \
a w
Ġo ver
Ġc l
y m
Ġd es
al se
o f
Ġ= >
Ġv alue
ap p
am es
Ġl ine
at ch
math cal
ic k
ĠH e
cri pt
a ke
Ġd ata
p os
} .
re turn
on t
Ġt ime
Ġt wo
Ġm an
d ef
equ ation
Ġd e
u ild
f o
T h
Ġin ter
rap h
1 6
âĢ ĵ
c ode
c ent
ation al
ov e
Ġa g
ang e
v ar
Ġres ult
Ġpl ay
an n
Ġw ork
ul ar
# #
" /
Ġo ther
C om
Ġm ore
am b
ĠâĢ ĵ
ur re
if ic
y s
at ive
Ġ i
m s
ro und
v e
l ock
Ġh ad
o ok
ut ion
y n
t on
i e
Ġs ub
R E
Ġcon st
id th
19 9
} (
Ġw hen
Ġa dd
s ub
Ġwh o
ut e
Ġs o
em ber
t ain
p on
ol low
i ed
al s
an c
Ġ !
Ġs elf
Ġn e
Ġbe en
ad d
Ġa d
Ġ id
"/ >
im es
c lass
Ġs up
Ġ und
R es
} ^
Ġcom m
Ġ el
Ġthe y
ar ch
Ġ end
ce ption
t t
C h
le ment
ph a
L ist
trans lation
: //
ĠTh is
~ \
1 5
t ype
a ult
am p
u es
S T
as ed
d a
} _
Ġre g
ou n
Ġon ly
oc ation
Ġ en
enc es
g r
Ġre qu
am ple
Ġ= =
Ġs c
Ġh er
_ _
b ar
on s
al pha
it le
Ġfor m
Ġin to
is e
Ġb et
ac he
ers ion
R ef
tr ib
Ġin clud
as h
Ġn ull
c ess
ad e
Ġwh ere
m in
it ed
1 1
oc al
Ġan y
Ġy ear
Ġ `
at ing
res ent
Ġf ollow
Ġp os
d er
l and
A T
Ġt e
v al
y le
re ad
as k
ug h
s on
er n
ĠC om
Ġtr ans
ire ct
Ġin d
ht t
urre nt
op le
Ġa cc
"> <
it em
it s
s c
um ent
Ġv oid
Ġd if
e ad
Ġof f
ou g
in ed
) \
Ġth ere
el ta
w ard
A r
I D
ay s
i ous
Ġa ct
ĠA r
Ġ use
id er
Ġg o
Ġc re
v ent
Ġth an
amb da
or n
Ġthe n
Ġp e
Ġre l
h o
iv ate
Ġf il
Ġd ist
tern al
O R
b le
Ġn o
e e
Ġsu ch
at ure
pl ic
1 7
ĠP ro
t s
il ity
Ġg ener
it ies
Ġund er
T r
Ġ x
Ġv al
Ġ >
in ce
b ack
âĢ Ŀ
) :
Ġd ec
ol og
Ġs pec
u res
u le
w ork
1 3
A R
Ġc o
Ġus ed
1 4
ut h
ib le
Ġre c
ser v
Ġm odel
is hed
Ġin st
we en
L E
) );
Ġab out
ĠĠĠĠĠĠĠĠ ĠĠĠĠĠ
Ġ err
or g
Ġa fter
c ed
mer ic
eng th
Ġc ase
Ġs ome
str ing
Ġf alse
2 5
am ma
em ent
r r
ĠN ew
ag es
ĠĠĠĠĠĠĠĠĠĠĠĠĠĠĠĠ ĠĠĠĠĠĠĠĠĠĠĠĠĠĠĠĠ
Ġo p
ction s
ur ing
b ject
Ġl i
e y
iv ers
Ġor g
$ \
f ile
Ġs ec
ption s
Ġtr ue
ist s
o y
Ġpro v
Ġk n
" );
l og
-------- --------
Ġcon s
av a
Ġp ol
Ġsh ow
h at
o le
t em
= \
Ġp h
mathb b
Ġw ould
_ \
p i
Ġn umber
s elf
d ata
Ġs im
an k
Ġre m
Ġo ur
Ġ )
p re
i er
ser t
w n
**** ****
ic es
ep end
ot e
per ty
19 8
Ġbet ween
Ġt est
ĠA l
T o
ot s
ar n
Ġf inal
Ġ --
iz ed
Ġ ent
D ata
ig ma
Ġ\ \
ĠĠĠĠ ĠĠ
Ġs erv
A L
eg a
C ol
Ġch ar
S S
V alue
ĠW e
a ir
m u
Ġb ack
ow er
is ion
i ent
E N
f or
ar get
n b
} _{
Ġ Q
Ġf e
Ġm ay
Ġel se
il y
al ign
in es
et er
} ^{
or ld
b r
Ref er
Ġe m
ĠC on
ev el
ro ugh
ar s
ĠĠĠĠĠĠĠĠĠĠĠĠĠĠĠĠ ĠĠĠĠĠĠĠ
Ġs he
Ġc or
Ġpro du
re d
Ġdif fer
r u
- \
Ġs ystem
y p
// //
re n
2 1
ment s
o ot
an y
in s
^ {\
w h
Ġe qu
iv en
ap t
v alue
S et
li ent
se ction
3 2
um n
3 0
p x
Ġe ach
p ress
od y
v iew
Ġ/ **
" )
u ff
E n
b f
Ġg r
Ġh igh
nb sp
al ly
ĠS h
Ġbe c
ĠA s
re am
ĠA n
e ver
Ġstr ing
ph i
b e
t ing
n ew
Ġa m
Ġst ud
c o
l ambda
d ate
ire d
Ġp oint
Ġo per
Ġa c
v el
m an
r ic
m all
Ġ Z
con t
p p
Ġc al
Ex ception
a use
oc i
Ġpe ople
Ġ& &
a z
ĠF or
Ġe st
ch ool
Ġin v
E rr
==== ====
Ġthe se
ĠT r
as on
t ed
Ġm ost
w idth
iz ation
ro id
t est
l ocation
] ;
Ġm od
Ġf ile
Ġf ield
w w
pl ay
ar ray
oug h
( $
m e
n ot
Ġm ethod
00 0
' )
iv er
meric an
Ġs ign
le ction
at us
ĠâĢ ľ
Ġ{ \
19 7
str uct
Ġst atic
O bject
are nt
ad er
l ang
b y
i k
Ġs er
Ġl ist
Ġp aram
ro l
Ġth rough
Ġ ed
il on
Ġst ate
a ction
2 2
Ġ// /
mathb f
c es
Refer ences
g er
n er
p art
Ġas s
Ġus ing
Ġap p
Ġg roup
f ace
Ġ X
Ġe ff
5 0
.. .
Ġex t
cc ess
et s
us s
Ġst art
a id
A s
b all
ĠE x
Ġre p
le t
Ġf l
C T
ĠS e
Ġm in
ĠS tring
Ġs ol
U n
Ġpr ivate
Ġ! =
D E
Ġf ound
ab l
c d
re qu
if y
il s
a h
l er
s ize
s cript
in clud
m ary
] ,
p ar
o h
r c
he ck
() .
ent ial
T est
m od
Ġcom ple
Ġs ame
ord er
Ġw ell
Ġob ject
Ġb o
t en
I T
Ġ %
Ġthe m
Ġc ent
S E
ep s
if ied
\ \
W e
ou se
Con t
ro ll
b eta
g y
G et
s igma
() );
oth er
Err or
Ġ key
B y
evel op
ri b
l ink
A t
Ġag ain
ĠC ol
w ay
r on
2 4
Ġwh ile
ild e
Ġd r
a j
Ġn on
f ore
enc y
F or
if e
d is
ivers ity
Ġsh ould
are d
c le
Ġsec ond
I nd
Ġy our
ce pt
M E
bo x
. _
Ġh im
Ġl ong
^{ -
is m
I m
Ġne ed
n av
re g
Ġl ink
ĠI nd
A N
in ter
Ġ( \
ical ly
Ġs ing
ect or
or th
19 6
ot t
Ġap pro
Ġ z
ĠĠĠĠ Ċ
V iew
C lass
S h
p ublic
j s
re at
F ile
1 00
Ġh ow
ra w
at t
Ġb oth
Ġfollow ing
form ation
p ace
Ġg iven
} {\
ant s
a f
ers on
ou th
l ist
ĉĉĉĉ ĉ
ur y
Ġ u
"> </
O n
t ime
ind ex
f unction
Ġr un
en se
Ġe ver
ind ow
iv es
tr y
C O
" ;
math rm
Ġd irect
f ield
f ul
ist er
g round
Ġs ur
ag er
Ã ©
Ġor der
+ \
* }
re ak
Ġb r
t op
f l
it ial
Ġyear s
t able
Ġth ree
g o
g amma
l ay
[ '
ens ion
cri ption
d ition
b ers
as es
r ite
Ġf r
oc ument
A n
Ġc urrent
ur l
. </
lo ad
u ch
fig ure
at ri
' );
m ed
col or
Ġpart ic
K ey
] {
lo b
al e
Ġl ocal
Ġc all
ect ed
Ġdiffer ent
Ġt erm
Ġsup port
htt p
Ġt itle
Ġar g
id ent
Ġli ke
4 0
Ġper form
R equ
ess ion
Ġbe fore
Ġd uring
re m
com m
p ath
over n
Ġbe ing
Ġh and
Ġr ight
ain s
qu e
ur ation
an e
b ol
ro p
' ]
o ad
ath er
d elta
gr am
^ \
ro ss
et ers
Ġse e
U L
ĠI f
iv ed
2 3
Ġd et
ĠF r
() ,
) }
Ġre sp
Ġar t
=" ../../
v oid
h er
6 4
et work
ar ly
Ġre le
se c
sum mary
erv ice
g roup
Ġn ow
Ġw rit
le q
Ġm ed
r al
! --
Ġex pect
b ig
Ġf am
ĠA merican
ur al
Ġs ize
Ġre ad
Ġb uild
' t
Ġj ust
us h
I nt
Ġman y
Ġat t
iv ing
Ġe lement
Ġpro cess
Ġm on
ack age
Ġim port
r ho
Ġstr uct
. "
iss ion
Ġvar i
Ġf act
" :
Ġm ain
ul ation
op y
m p
b ed
=" +
$ -
Ġb el
con st
uff er
Ġdis c
Ġte am
Ġm ade
o x
per t
al ity
olog y
Ġm em
the ta
A C
t imes
ĠS c
n ing
ta u
R O
eq ref
T ime
ĠO n
t il
qu ot
p m
} (\
Ġcons ider
ar row
ar ge
Ġc ould
ist ory
ain ing
ym bol
Ġ/ >
} ;
iv ely
ĠUn iversity
Ġp ass
ĠI s
ĠL e
Ġcont in
3 3
ĠD e
Ġdo es
}$ ,
pon se
' :
it or
] .
Ġs aid
}$ .
trib ute
ĠĠ Ċ
um er
ef ore
l p
at s
I ON
Ġo wn
m d
us er
Ġerr or
uth or
Ġwh at
Ġev ent
un c
cent er
ac es
u c
Ġd evelop
ab ility
Th is
Ġl ast
in a
Requ est
Ġp ar
A l
ft y
Ġever y
ĠUn ited
Ġf in
T E
T ext
le ss
Ġp op
ir c
P E
/ *
E vent
el s
o od
P ath
it er
ig inal
Ġ ?
ual ly
E lement
se arch
Ġm y
ut ton
us ic
in fty
og le
Ġm ake
Ġ );
qu ad
og raph
Ġs mall
sp ace
M an
ar i
Ġf ind
atri x
L A
ĠR es
n u
In fo
a pe
A dd
Ġto p
Ġ$ (
m ap
` `
ist r
Ġth row
ord s
Â ł
Ġt em
Ġresult s
ub l
Ġas sert
n et
I C
s k
Ġg u
N ode
Q u
. ,
ch i
2 7
m it
Ġbec ause
Ġc oun
i or
St ate
Ġm et
old s
D ef
I tem
f in
ar m
o ff
() )
Ġeff ect
2 8
id d
sh ip
n ode
Ġa ut
ch n
ole an
oh n
port s
o ber
Ġb l
F ield
Ġle ad
Ġ ,
T R
Ġs ince
l ength
Ġbe g
ver t
20 20
Ind ex
ĠC l
/ **
Ġop en
ĠE ng
ate g
ut il
t ilde
ames pace
Ġm ov
r ide
e k
Con text
E qu
os s
Con fig
M ap
u str
N ot
m odel
part ial
v ious
htt ps
Ġlink s
ĠM ar
om ega
Ġ/ *
st ance
2 6
Ġal low
P aram
d t
ĠP r
d es
ign ed
Ġrequ est
b l
pt y
Ġap pe
P I
F orm
Ġre f
W ith
oot ball
Ġm ult
| \
o pe
m et
im it
P h
act er
it al
ĠP h
i ence
Ex ternal
Ġle ft
ific ation
le y
## ##
Ġrep resent
Ġar ray
ur s
" .
Ġ( !
res ult
19 4
Ar ray
Ġinclud ing
O ver
Ġp resent
Ġt arget
s ide
pos ition
n o
Ġkn own
plic ation
Ġb ro
Ġ-- >
Ġch ild
O r
Ġf our
u f
res p
s q
u i
Ġb ound
un e
ust om
ad i
ak ing
= '
ĠĠĠĠĠĠĠĠĠĠĠĠĠĠĠĠ ĠĠĠĠĠĠĠĠĠĠĠ
ĠS he
at ter
Ġex ample
Ġval ues
ang le
id es
con fig
n ess
end s
Ġev en
Ġv is
Ġan al
Ġdes cri
om en
r t
ĠH ow
orm al
od es
v ir
ap i
al th
d ay
t ab
Ġex per
pert ies
Ġl og
cal e
19 5
Ġin formation
2 9
w it
D elta
Ġre ce
f rom
Ġt ext
Ġv ery
b s
Ġ} );
p or
ut es
en e
tr ue
id ed
S ervice
Ġin cre
Ġb ased
ic on
Ġob tain
a i
in put
H e
Ġl ater
a it
pon ent
n ext
en n
ma x
tt p
tr act
Ġpos s
iv al
Ġcal led
' ;
am ed
ob ject
Ġdist rib
Ġplay ers
ir d
ĠO r
wh ere
D es
lob al
ile d
Ġcont ent
Ġdef ault
Ġm ust
S ize
ĠB r
Ġc ar
ĠA nd
6 0
he ad
u ck
" "
b lock
x i
com p
F F
Ġcon dition
our ces
il ter
Ġagain st
en u
re t
le m
t itle
Ġm ap
Ġ čĊ
b um
Ġd id
ore m
Ġv ersion
Ġle vel
Ġe lect
U R
yn c
in c
Res ult
h ip
Ġme as
ict ion
if t
Ġle t
Ġp res
ĠA t
al k
ĠM ay
H and
eq n
Ġ} ,
Ġw ay
R e
ast er
in ation
F r
Ġm ax
Ġp ath
u ro
Ġre fer
in ess
ount y
Ġt yp
ĠSt ates
Ġd own
C ode
du ct
ĠG r
ap ache
c it
Ġpos ition
ain ed
******** ********
ass ert
err or
Ġpro t
B uild
Ġfil m
Ġser ies
val id
w ith
ĠA d
Ġrec ord
Ġn ext
Ġs chool
se e
pl ate
ag s
Ġex p
ak es
Ġid ent
Ġus er
m b
et urn
Ġth ose
in ition
th s
Ġm ark
//// ////
p oint
Ġd ep
ol ution
u age
201 5
$ $
che s
cd ot
s im
Ġ: =
A D
Ġpro ble
Ġsing le
w ord
ĠJ an
Ġcomm un
Ġl arge
able d
Ġa v
L O
resp ond
Ġc r
b ody
Ġb lock
Ġc heck
O f
Ġst yle
ain t
Ġse ason
s up
Ġs rc
ol v
O m
Ġin put
ĠJ ohn
end ed
201 7
)$ .
Ġd i
cre ate
Ġcom put
ou ble
eps ilon
nd er
v ersion
Ġg overn
ĠS ystem
ag ue
\ ,
is ed
8 0
Ġsp ace
} }\
u x
Ġre al
iv ity
M essage
com e
[ ]
="../../ ../../
+ +
et y
j ava
20 19
I s
201 6
Ġst and
g t
st yle
Ġse ver
ĠR e
Ġb reak
er o
oc us
l ight
ĠC an
ur ther
T H
201 4
Ġpro gram
Ġkn ow
> &
tern ational
str u
ne ction
ix ed
m y
it ive
lo at
ur ch
Ġp ost
st ate
Ġpro ject
Ġin itial
ator s
I G
3 5
ĠP l
ĠS p
Ġn ode
Ġv iew
} [
A ll
Ġh ere
ĠCom m
ĠW h
Ġo cc
ev ice
Ġw orld
201 8
il t
re l
ail able
A S
Om ega
Ġj ava
on y
def ault
om et
Ġg ame
ĠC ar
i od
a ut
M L
Ġhe ad
Ġwith in
s l
Ġres pect
ĠW orld
Ġex pl
d own
ac y
Ġb ase
re ate
I t
Ġfam ily
ĠY ou
anc es
st art
} _{\
ott om
i um
Ġest abl
ĠB l
ore d
is on
V al
press ion
in fo
raph ics
ut ions
ĠN ational
Ġcre ate
Ġc ode
ww w
at ely
Ġadd ition
b ase
Ġgener al
w are
Ġhe lp
cont ent
I S
Ġc le
us iness
t n
and roid
l t
c apt
Ġim p
ener gy
201 0
ĠA ll
Ġa round
Ġp ower
Ġ= ==
u ary
3 4
M P
at ures
; &
9 9
ĠM an
IN G
he s
Ġo pt
Ġun til
che d
ps i
E D
M odel
t ings
Ġp at
pl oy
Ġcon fig
re c
Ġt ri
ĠJ ul
L og
Ġob serv
201 3
Ġor iginal
Ġcon text
op er
l ing
u k
Ġ_ _
Ġind ex
Ġst ill
ro du
F rom
Ġpl ace
ĠN ov
Ġb ook
Ġd ue
ic y
Ġinst ance
e ction
ide o
aj or
Ġm uch
Ġm ass
Man ager
ele ct
an sp
ward s
ĠâĢ Ķ
it t
S ystem
V ert
Ġc ap
r ist
S er
Ġc are
o in
Ġint eg
Ġal bum
^ *
UL L
Ġl ife
av ing
Ġs um
im al
201 1
Ġl ook
Ġf ootball
201 2
Ġo ld
Ġm ag
t es
Ġs ource
Ġtr y
T able
O ut
il ar
ord ing
ĠE n
ĠC ent
Ġan n
Ġl oc
M A
ple ment
k en
N ew
def ine
---------------- ----------------
P l
ap er
T D
U p
U ser
Ġto t
roll er
ĠG et
um p
Ġsu ccess
re p
um e
g or
includ e
ĠF ig
Ġwith out
end er
Ġch ang
us ing
ps ilon
Ġd epend
Ġare a
c ast
C H
U T
0 1
Ġas sum
ur ity
ug g
u les
ĠY ork
tain er
c ss
Ġit em
Ġal ong
ele te
s w
ann el
p ackage
Col or
Ġab ove
Ġd el
Com m
ĠT o
ĠS chool
A B
ĠP ol
Ġn ear
Ġorg an
Ġ} ;
Ġl aw
c m
p en
ĠR ep
In ter
capt ion
i que
7 5
)$ ,
=" ../
or ies
il li
m ethod
Ġn etwork
ĠR eg
R ec
ib r
Ġt ake
Ġ Ð
Ġcon f
3 9
Tr ans
ĠC ounty
ĠW ar
a im
b it
Ġcor respond
Ġre port
o ption
a u
; </
R eg
ĠĠĠĠĠĠĠĠ ĠĠ
Pro perty
ater ial
ĠP ar
E S
Ġ enc
Ġp erson
our n
ĠĠĠĠĠĠĠĠ ĠĠĠĠ
Ġcont rol
P r
ĠW est
d om
ic le
Ġsever al
am ent
G amma
ĉĉĉĉ ĉĉ
Ġbe st
Ġbe h
eqn array
ĠA ug
Ġex ist
D is
Ġbec ame
ef f
Ġdef ined
ustr al
Ġserv ice
E T
w eb
Ġchar acter
con text
c ount
U N
Ġgo od
ĠHow ever
ĠG e
ĠB rit
0 8
b m
ĠO ct
i j
Ġse lect
l in
n on
Ġ( )
ear ch
Ġw ant
m ber
4 5
v are
Ġinclud e
ĠG u
=" #
Ġad v
i ans
erm an
Ð °
ref er
Ġb ir
ĠC al
c ore
ev ent
pos ed
ic ial
sq rt
d oc
go ogle
che ck
Ġs k
ĠThe y
Ġpol it
gor ith
G roup
and om
Ġt able
if ier
3 6
Ġpre vious
ĠS outh
ith ub
stru ction
D O
im ate
Ġback ground
pro t
d b
d e
st atic
f alse
Ar g
im um
Ġm usic
ok en
text bf
Ġs ong
Ġass oci
vir on
Ġd em
Ġcol or
vare psilon
um ents
yn am
200 9
pt ember
C l
Ġc our
ĠL ist
3 1
Ġde ath
Ġp o
lo se
pr int
Ġa ction
Ġmeas ure
Ġb as
Ġte chn
Ġb ool
ĠJan uary
ĠM in
Ġ et
Ġis s
ĠU S
sub section
on se
Ġpro perty
Ġr ange
ĠT e
Ġ energy
ĠB e
t ual
un g
arn ing
9 0
and s
C lient
pro v
Ġm atch
A d
Ġrequ ire
w ays
Ġ$ {\
C ell
Ġtot al
r am
n amespace
EN T
ut ed
im ent
tr a
Ġan other
Ġn il
Ġst at
c or
Ġd om
Ġresp onse
a e
======== ========
}, \
Ġb u
M od
) </
le x
u ed
Ġo ptions
Ġ( $
ĠC o
eb ug
w id
Ġs at
om an
Ġst d
M ethod
^{ (
ar r
> (
3 7
p ed
ys is
lic k
C all
ac ed
ith er
Ġreg ion
Ġd en
g ithub
ĠM arch
oc ial
Ġl arg
200 8
arg in
pr il
}^ {\
Ġ eng
ĠI m
Ġsh ort
Qu ery
6 6
Ġd ay
] (
Over ride
Ġc ur
Ġadd ress
ĠB y
n ect
se lect
l im
Ġl a
i ev
' '
at ab
Ġw in
Ġpartic ular
I L
Ġs pe
ens ure
v en
a ff
Ð ¾
A nd
Ġf ull
Ġch ange
Ġcl os
c all
C E
ĠSt ate
read y
Ġl ang
C ount
3 8
Ġdes ign
Res ponse
} =
al es
d f
ĠAug ust
c urrent
ic a
Ġacc ess
Ġw idth
B ar
l ish
g ress
Ġcomp on
ist or
b uild
Build er
act ory
re en
Ġim age
Ġd iv
o pt
< !--
ĠSe ptember
ce mber
ĠS et
Ġv ol
) =
an el
ard s
im ension
em ph
Ġd ocument
Ġav ailable
ĠN o
Ġle g
le ge
eg raphics
includ egraphics
Ġpoint s
R ead
ill ion
Ġand roid
z e
0 5
epend ent
ĠJ une
O T
ip le
I P
Ġp ubl
ĠOct ober
âĢ ľ
Ġse ction
Ġb order
m o
st it
Ġc a
in ary
ur g
Ġd on
r angle
ra ft
ou d
Ġre du
U S
Ġinter est
c ul
amp ion
20 21
n ull
S ub
Ġm essage
Ġsim ilar
v ision
var phi
uro pe
Ġh ome
eta ils
Ġout put
D ate
I f
ĠA ss
rit er
able s
en ame
ĠJul y
Ġe arly
ĉ Ċ
Ġ ke
end ing
le g
. âĢĿ
Ġs ide
Ġsup er
St ream
200 7
( (
y l
Ġdet erm
Ġl ow
Ġ es
Ġl ength
5 5
ĠC ity
h and
ag ed
] )
o ptions
ist ic
qu ery
ĠA ustral
ĠĠĠĠĠĠĠĠĠĠĠĠĠĠĠĠ ĠĠĠĠĠĠĠĠĠĠĠĠĠĠĠ
Ġm ar
Ġf a
al f
ĠA pril
ĠS up
se qu
ust er
Ġmem bers
ens ity
Ġd er
Ġpro b
Ġ\ ,
ĠI I
Ð µ
ĠĠĠĠĠĠĠĠĠĠĠĠĠĠĠĠ Ġ
N A
Ġw on
ert ain
E nd
Ġfor mer
Ġc ell
Ġper iod
ĠS ec
b utton
Ġa ff
B e
G ener
pro of
pec ial
Ġsh own
200 6
e ed
In put
li b
P os
ĠN orth
Ġmodel s
Ġproble m
Ġrequ ired
Ġparam eters
Ġwe ek
he ight
s i
pl ace
Ġposs ible
ent ion
B ig
ad a
. ~\
p ose
um an
Ġ< <
n ow
ĠNov ember
viron ment
Ġ q
Ġch o
I R
Ġp arent
k s
x y
ĠDe cember
im ation
ĠN ULL
op s
Ġc ity
Ġpro m
Ġprodu ct
Ġstud y
Ġex ec
ateg ory
h old
ĠA b
c er
Ã ¡
in it
ĠM ed
| -
Ġrele ased
c lient
f unc
right arrow
S ee
und le
d ir
h am
00 00
Ġt urn
~ ~
ch o
St atus
if f
se mb
l s
d ec
Ġm ajor
il it
Ġcom b
ON T
im age
ge q
ri or
er efore
Ġpro f
Ġt imes
Ġf ree
ud e
ĠP art
ĠR ec
S c
& \
ne y
in o
Ġcor re
our s
4 4
Ġs it
cre en
requ est
st er
ĠE d
ĠF eb
ib ility
ĠTh ere
Im age
Ġf ew
Ġro le
P ar
20 00
al t
Ġparam eter
atab ase
Ġre t
Ġqu ant
Ġgovern ment
ut ure
In stance
l or
ep ar
T oken
Ġme an
Ġshow s
7 0
S tr
m ark
ac hed
Ġstruct ure
an ch
E d
Ġexpect ed
ther n
act ive
row s
us ed
ĠB o
Ġs pect
or ph
Ġint rodu
m ult
Ġval id
d l
arg s
c ap
li ed
v ec
D ec
add ing
ser ver
st and
Ġcomp any
over line
Ġplay ed
Ġfollow s
ri ed
ograph y
u ation
Ġm at
N o
) {
Ġp ot
li es
Ġinv est
ic ro
k n
t x
an a
ru ary
id ual
Ġre st
ĠE urope
Ġf ore
E E
Ġs che
ight s
cl us
O ff
r un
Ġc ount
fo ot
y d
um b
[ \
Ġterm s
A ct
Ġm ember
Ġs ample
Ġl abel
4 8
} ).
fin ished
ĠC O
on es
ol l
is f
b orn
wit ch
A ction
Ġstr ong
Ġb usiness
O per
Ġse qu
g es
ĠCh rist
p age
re w
N S
j av
ĠS er
Ġtr ack
( {
. }
L et
b tn
Ġimport ant
h as
i i
Ġs l
A pp
ph p
B lock
gorith m
he m
Ġl ay
Ġp age
O S
ag ement
ĠG ener
Ġw omen
ot o
Ġdisc uss
Ġbo olean
Ġd eg
M S
fr ak
Ġcomp et
N av
f low
er ing
Ġh ost
ad io
Ġp ort
ĠBrit ish
d o
Ð ¸
n s
F A
r id
ap an
d raw
Com ponent
b olds
Com p
ĠC or
er a
ic ense
A p
200 5
m m
L ay
Ġa uthor
Ġind ic
th ough
Ġ- >
L ine
bolds ymbol
Ġdescri bed
oug ht
ĠK ing
he ader
N ull
E X
) (
Ġl imit
Y PE
s f
d ict
Ġfe ature
ĠQ u
am a
E L
Ġl and
âĢ Ķ
Ġspec ial
or age
ame work
S ec
Ġle ss
n a
Ġv ir
Ġev ents
is ing
Ġal ready
Ġchild ren
B ase
Ġt ask
Hand ler
ĠA fter
Ġe p
S ource
ent ly
Ġh istory
Ġw he
t arget
ĠB ut
RE F
l ocal
im ary
er ed
At tribute
ĠM c
C C
Ġs ay
S P
Ġc over
un finished
Ġa ver
A P
y les
v ers
Ġdistrib ution
at form
ĠFeb ruary
H ead
ĠA p
T O
Ġ ide
R ep
Ġst ates
ac ing
O ptions
Ġb and
abl a
Ġh ttp
ic ient
c y
p ng
app end
re st
dis play
Ġfunction s
Ġf urther
ĠA dd
ch ild
Ġre d
Ġcomm and
bo ok
[ "
ig ation
) ^
g en
var i
ĠT est
math frak
ug in
Ġe ither
ĠD r
ab ly
om ic
ĠLe ague
x ml
oc ol
Ġv ert
R un
Ġle ast
Ġn um
Ġ" ""
Ġsign ific
n abla
ĠĠĠĠĠĠĠĠ Ċ
Ġcomm on
0 4
c ell
Ġto wn
Ġn amed
o ke
Ġ+ =
th ers
B uffer
S p
ad ata
Ġacc ount
} }$
p arent
Cont ent
ren ch
ad em
l it
iz er
S elect
Equ al
. \
g le
ĠM e
b ottom
Ġre search
Ġcre ated
h line
g ener
ld ots
St yle
Ġperform ance
Ġrece ived
Ġal ign
olog ical
ĠD es
L ambda
mod ule
Ġd est
itt le
200 4
Ġl ight
v es
im g
ĠĠĠĠĠĠĠĠ ĠĠĠĠĠĠ
Ġd eb
St art
ĠI nt
Ġin s
Ġth ink
m ar
ak en
re et
ĠThe se
ĠB ar
Ġcol umn
nav bar
Ġc rit
il le
ex p
ansp ort
A G
trib utes
op en
6 5
ma il
Ġ` `
Ġappe ar
pro perty
ap s
eg er
illi am
Ġl ate
ĠH igh
s mall
Ġph ys
av es
ur b
op h
Ġdis play
ampion ship
c ase
lang le
ĠW hen
0 2
ĠC ont
Ġp ut
ire ction
ĠThe n
a ul
Ġth ird
al y
app a
0 7
j son
ĠA ct
P ol
ial og
Ġto ok
Ġc lose
Res ource
s ol
* /
ĠS o
ch ar
Ġar r
P oint
w ise
AT E
y nt
w ide
Ġpop ulation
ym met
H T
9 5
o op
ed er
ot ion
ĠCom p
ĠA rm
r ation
p tr
Ġpot ential
p c
Ġh ouse
Ġim plement
f irst
F actory
S up
pl it
ĠW ith
C K
cent ury
d r
p ol
} ),
U E
Ġcare er
Ġt ele
Ġs epar
Ġcomple x
Def ault
ĠH is
ens or
Ġmethod s
Ġar ch
Ġprov ide
LA SS
as ing
U s
Ġm atrix
Ġcon struct
Ġfil ms
Ġc ou
es e
ĠD ef
art ment
Ġg ames
Ġb ody
T ask
Ġappro x
Ġg raph
semb ly
0 6
a ug
r l
ĠEng lish
Ġinclud ed
ond on
idd le
F unction
kn own
Ġf ive
ĠC lass
Ġsat isf
Ġbu ilt
i ents
el ine
Ġg row
Ġpro perties
Ġof ten
ot ype
Ġbir ths
Ġl ower
Ġhe ld
Ġsu ff
ĠĠĠĠĠĠĠĠ ĠĠĠĠĊ
Ġelement s
ĠO ne
i ke
ri es
O D
og n
L ink
Ġw ater
V ersion
ly ing
Ġa ge
Ġqu est
Ġcon c
Ġs ite
H E
Ġcont ain
ĠCh ar
ĠI N
l ast
str ong
g ed
Ġam ong
P art
Ñ Ĥ
Ġto o
Ġloc ated
Ġa ir
e ople
re ed
at as
Ġc ases
c od
Ġdif f
Ġv ia
O P
Ġpr int
w rite
Ġs ix
Ġe as
ugg est
, "
ĠA fr
Ġbeg an
Tr ue
0 9
s g
Ġbel ow
ĠO ff
id ence
ing ton
Ġin du
f ind
Ġre cent
Ġc ost
Ġassoci ated
st atus
Ġcol l
Ġestabl ished
G L
st ream
ĠC oun
cit ep
h ost
pr ivate
Ġhe ight
sub set
Ġal ways
li p
Ġp air
Ġcl aim
} )$
Ġcl ub
m ember
W h
Ġn ormal
Ġan t
Ġres ource
Ġfe atures
ĠL et
Ġr ate
i et
N umber
Ġprov ided
m ost
ab or
Ġp ay
olv ed
Ġf ail
ure d
\ |
al d
p ost
Ġcon trib
ĠJ apan
ele ment
in st
Ġl oad
} );
Ġin div
Ð ½
ĠO bject
app ing
Ġst ation
s rc
Ġc ross
Ġplay er
Ġs ent
h a
ch ange
c il
istr ict
Ph i
le vel
u id
Ġm ove
Ġsignific ant
le ctions
Ġrel ations
Ġwrit ten
ĠA ir
8 8
Ġgr ad
ĠP ark
ĠâĢ ĺ
Ġconst ant
Ġpubl ished
Ġm er
ĠN ot
Ġprot ected
Ġf low
Ġpr act
Ġ( (
Ġn ational
k appa
Ġsystem s
Ġp aper
Ġbet ter
F ilter
m eta
un k
row ser
Ġsol ution
Ġcomp os
Ã ³
med i
Ġd ev
ĠA meric
Ġs om
0 3
ĠM on
v is
A merican
Ġc lient
" ]
Ġed uc
F irst
Ġme ans
ord in
Ġg reat
Ġr a
Ġc amp
st d
Ġvar ious
em ents
Ġf ocus
H el
Ġv er
F l
idd en
Ġh aving
Ġanal ysis
il er
Ġne ver
Ġbe come
ĠP res
i ol
ĠV al
ĠE ast
Ġconsider ed
ĠR eturn
i ef
con d
Ġatt ack
F ONT
200 3
, âĢĿ
W indow
y th
ition s
l en
I M
âĢ ¦
om ent
ist ry
Ġw indow
V ER
ir m
he et
m ain
$ {
ĠD is
pro ject
Comm and
Ġstand ard
f ord
Ġv ill
Ġc ustom
4 7
at al
ĠR uss
ĠN one
Ġo ption
Ġthrow s
ĉĉĉĉ ĉĉĉĉ
Ġobtain ed
end if
C heck
Ex t
m on
Ġph ot
s u
pro p
un ic
P age
che ma
ig ger
yp es
b or
Ġto get
so le
Ġcoun try
ot imes
ft ware
Ġbuild ing
Ġtoget her
ent ry
ĠL ondon
he l
Ġst atus
Ġf ac
ĠAr t
S C
Ġd ouble
ul a
4 9
i res
ĠD av
Ġcondition s
c an
p ush
ĠA m
F I
R eturn
200 1
Ġn eg
Ġg e
ibr ary
ĠCol lege
ex pect
Ġ{ @
at ural
ud io
Ġw rite
6 7
O L
// /
ĠH ouse
Ġf und
ĠP er
fer ence
Ġm ight
ĠG o
it ory
Ġv ideo
g ing
Ġin ternal
ĠL a
P RO
ĠS ch
Ġthe ory
att le
Ġac ross
I I
L abel
al le
B ox
as cript
Ġappro ach
serv ice
Ġse arch
text it
ig in
Ġindiv idual
Pro v
Ġann oun
il ities
bo ard
ult ure
Equ als
C reate
Ġaver age
Ġg lobal
form at
cl ose
Ġse en
Ġoff icial
ro y
S igma
Ġdevelop ment
ĠS w
ce ed
Ġlang uage
Ġwhe ther
Ġh ard
Ġh app
R ow
Ġwork s
Ġd ensity
Ġ ]
Ġtr aining
Ġd ays
Ġd one
ob j
Ġext ends
m em
Ġs cal
sp lit
n um
Ġcommun ity
b ra
if act
Ñ Ģ
s igned
p ack
/ \
m t
Ġbeg in
Ã Ń
Ġm en
Ġun it
av el
R A
Ġgroup s
b ased
Ġhigh er
ĠH ar
Ġpl an
f ont
Ġb i
Ġs em
Ġcal cul
Ġr andom
Ġbl ack
Ġmod ule
E m
Ġhe alth
Ġt w
Ġtr ad
Ġcorrespond ing
ĠB ro
ĠR ev
\ %
r is
o o
Ġcont ains
ar ies
Ġspec ific
ic an
r ing
b uf
Ġf ar
Ġcons ist
Ġhow ever
ĠS im
Q L
Ġg en
ĠW illiam
lay out
Ġf ri
Form at
Ġre view
Ġm iss
ag n
Ġreturn ed
) ]
row n
B utton
ann ot
a ctions
Ġm argin
Ġ url
ĠD ep
Ġup date
ourn al
ĠD o
Cont roller
des cription
A cc
Ġst ep
( &
eta il
e h
al let
sk ip
Ġd ate
Ġn ec
Ġ Â
con tainer
Ġst ory
cle ar
m enu
plic it
ilit ary
c el
IN T
f ilter
Ġfield s
adi us
S ON
Ġs ocial
col umn
Ġsim ple
" ).
M et
Ġab le
Ġcle ar
200 2
iz ing
f e
Ġinst ead
m box
ag ing
str act
A b
7 7
Ġf requ
ĠS tr
ĠH er
Ch ild
ock et
chi ev
param s
O b
Ġl ines
ĠA g
ĠF rench
E nt
Ġw ar
L ast
ition al
ensure math
ap ter
B C
Ġc atch
Ġm illion
Ġrespect ively
P C
Ġro und
ill s
U I
r ict
ac ity
Ġs uggest
Ch ar
List ener
t ag
p ly
ĠU p
res ponse
up date
B ack
Ġt re
8 5
AB LE
g l
B undle
non umber
it es
Ġre pl
Ġg ive
ch an
os p
ver se
i ber
Ġc opy
Ġcent ury
Ġon ce
or iz
Ġh om
Ġform at
" ),
r s
}} {
M em
c irc
\ [
A fter
Ġli k
h ib
jav ascript
Ġv ector
S pec
Ġest im
Ġyou ng
s m
ev en
Ġspec ies
F ig
k a
//////// ////////
Ġgo ing
Ġl im
on ly
Ġadd ed
ang ed
ER T
Ġeng ine
T em
le ase
ens ions
Ġl oss
pro cess
ref ix
Ġm aking
n ers
Ġstart ed
Ġs w
Ġdef ine
oci ation
Ġspec ified
] [
ĠIn ternational
Ġaut o
Ġp erm
enc ies
ou ch
B U
ĠA c
{ -
Ġg l
id ing
wid et
ish ing
d ots
4 6
it ect
Col umn
N O
Ġc y
Ġe ar
ĠG L
ist ics
A ut
id s
Ġmed ia
to ol
q l
min istr
ĠC LASS
Ġreg ular
Ġem ploy
A A
ĠH REF
Ġst ream
Ġh alf
l ong
Ġprodu ction
Ġserv ed
av y
y ear
at tr
Ġn umer
n umber
Ġm ode
Ġdef inition
sh ow
_ .
Ã ¼
ĉ ĠĠĠ
Ġex press
du c
Ġex ists
Ġserv ices
Ġline ar
Ġpos itive
Ġof fer
Ġm aterial
Ġwork ing
oc r
f inal
L ength
Ġ< !--
ĠM ich
ic o
Ġbeh av
tem pt
if orn
Ġn ov
T P
p ass
ir rep
Out put
ĠN or
Ġpro of
U t
refer ence
Ġmult iple
ar ing
ot ed
P er
Ġtyp es
ĠR ed
W eb
< ?
ĠPh il
Ġchang es
one y
Val id
d ot
Ġoper ator
un it
ĠS an
`` `
Ġf uture
Ġph ase
widet ilde
Ġequ ation
ĠD istrict
Ġind ependent
o on
Ġd ynam
ar a
Ġh uman
4 2
und er
li er
Ġb orn
m at
U M
Ġev al
Ġt aken
oci ety
fl u
ic ation
Ġc irc
iforn ia
Ġke ep
d ev
ex ample
Ġth us
Ġ row
Ġj ob
Ġc ame
Ġdist rict
: </
Ġs cale
ĠI D
C ache
old er
Ġcent er
Ġcompon ent
Ġbe com
rem ove
ĠG erman
s cale
el se
ĠM ark
Ġsub ject
am ily
M ode
Ġtem per
à ¤
Ġrel ated
l a
ĠA cc
Ġse em
ĠIn ter
ho od
9 7
} -
Ġaddition al
Add ress
wh ich
R em
and id
Ġcan not
i qu
st yles
Ġa chiev
s pec
\ !
Ġcon ver
u ous
ad es
ry pt
ĠĠĠĠĠĠĠĠĠĠĠĠĠĠĠĠ ĠĠĠĠĠĠĠĠĠĠĠĠĠĠĠĠĠĠĠ
ĠM ore
Ġg round
li ke
ĠE m
b a
Ġb en
Ġact iv
Lay out
u el
is es
Ġs ays
Ġ ...
O ne
af e
ov ed
center ing
Ġp ress
S I
Ġap plication
Ġre ason
Ġser ver
D B
P re
ell ow
ĠR ef
Ð¾ Ð
em pty
ĠTr ans
ot a
ing le
9 6
pr ime
Ġoper ation
9 8
Ġa way
ast ic
b b
ic les
Ġac cept
in stance
Ġsequ ence
Ġf ont
b in
Ġth ough
em ma
Ġl ocation
C ON
Ġat tempt
M in
Ġstud ents
Ġn one
Ġcall back
Ġc ertain
199 9
#### ####
Ġinter face
G e
Ġn orth
Ġtele vision
CO L
or ge
ĠF irst
s d
I O
ĠE l
ĠCh ampionship
Ġact ive
' ).
un ch
Ġ ill
eth ing
Ġ Ã
ĠA PI
UR L
Ġl iter
ip p
w rap
Ġme et
Off set
Ġf it
comm and
Ġn av
Ġst op
Ñ ģ
Ġtrans form
Ġam ount
Ġin it
H istory
ER R
id ge
land s
Ġz ero
ĠM y
Ġfil ter
ef ined
Ġcon v
ile s
A ss
Ġwe bs
Ġs on
Ġen vironment
out put
\ ]
ĠR iver
ĠT ype
A M
> >
c os
C L
a el
Ġprodu ced
off set
Ġbel iev
Ġal gorithm
d ist
b ound
oper ator
Ġ[ ]
Ġk ind
Ser ver
iz es
T YPE
ĠCal ifornia
am l
Ġcom e
ĠInd ian
Ġb ar
ache s
ly mp
ip s
Ġbo x
ĠC up
Ġacc ording
ĠC our
Ġqu ery
ĠSe ction
Ġo thers
T ypes
k it
ig en
N ext
Ġle d
Ġin f
Ġcomple te
Ġsuccess ful
b urg
N D
L ocal
ĠS ince
res h
U rl
Ġnec ess
z eta
Ġrele ase
od ing
ĠL icense
ĠD i
ĠH T
Ġe con
ĠEng land
o ch
Ġen ough
8 6
Ġselect ed
c i
Ġst ar
i ers
Ġd ied
ĠO F
++ )
Ġf ig
\ {
s in
ul ations
Ġb it
Ġp ur
Ġmark et
ĠAr ray
Fr ame
Ġrefer ence
M ax
Ġcon str
b ind
8 7
n ected
Up date
qu are
om b
ĠF rom
Ġw ent
Ġreport ed
tab ular
5 00
Ġp ast
NA ME
Ġsur face
ul ated
pro to
ell ing
ele g
if orm
ex ec
il led
} +
om orph
Ġdist ance
ut ils
ĠThe orem
ĠAmeric a
V is
T arget
use um
Ġu int
oy al
5 7
Ġre ally
Ġfile s
b reak
il i
d epend
ĠAustral ia
Ġ! ==
ĠS k
( _
av en
I V
ĠG roup
. $
Ġin ternational
Ġp rior
lay er
Ġh istor
W idth
ion al
ĠInd ia
. ~
iv il
ol ve
c s
Ġb ig
ĠRep ublic
back ground
prot otype
at io
ĠD iv
Ġr ank
ab s
En try
r um
Th ere
Ġit er
ĠE q
( -
Ġt reat
ĠE X
) =\
Ġpartic ip
Ġc apt
} /
Ġset s
in ner
Ġdec l
. /
="../../../../ ../
ĠR em
} ]
Prov ider
Ġm oment
anc ed
( [
Ġg ot
u int
**************** ****************
ĠI r
: "
sup port
ession al
Ġs outh
Ġf ixed
Ġcol lection
at ory
20 22
th ing
sc ope
f a
so ft
t ask
Ġl ittle
Ġ& =
T op
Ġwh ose
A ccess
} =\
ĠA pp
5 6
ĠP ort
Ġas k
ess ages
ot al
Ġcontin ue
is k
Ġex act
ĠD em
S im
P O
Ġmov ed
4 3
at ives
b ool
Ġoff set
r ics
ĠD ata
D e
par se
Ġr ather
ĠH ol
in n
Ġl ive
Ent ity
Ġ* *
Ġent ire
Ġh old
ĠH am
Ġgener ated
l ate
H ow
Ġpro posed
al ax
ĠV ir
val ues
Ġvill age
Ġf all
Ġd etails
w indow
S D
' ),
T ag
F e
a ur
Ġvir tual
C o
a a
Ġap plic
f loat
Ġarg s
Config uration
ĠS ub
Ġequ ival
an ies
Ġinclud es
199 0
Ġclos ed
; \
W ork
m ing
return s
Ġent ry
) }\
y a
ĠTh at
h an
S U
un n
Ġinst all
tem plate
ain ts
Ġpolit ical
Ġcon tr
Ġf em
Ġcon nection
ed ia
tt ps
Ġs old
p df
art ifact
Ġc ut
Ġto ol
Ġim prov
ĠS m
act ers
Ġob j
p y
Ġs m
a ign
) ^{
B o
Ġfin ite
Ġpro p
a uthor
Ġbro ad
{ {
ic ult
ĠM al
, -
i as
st ant
fr ame
Ġcomm it
Ġcorre ct
Ġch annel
requ ire
Ġequ al
T ree
o res
() ->
ug ht
A g
=" -
E ng
t ree
Ġcol lect
4 1
ĠPart y
C ase
ro ot
Ġf ather
ĠD on
Ġresp ons
Ġlarg er
tr ies
un t
Ġannoun ced
u a
Ġreturn s
st ack
om s
ĠPres ident
ate gy
ĠW eb
S O
ĠGener al
th m
C D
ac c
G r
Ġdeg ree
ge bra
cont rol
ub e
ir cle
it ude
ef t
gr ad
Ġobject s
Ġwe ight
199 8
. )
Ġpre dict
lic e
Ġmult i
class es
Pro cess
ag on
ĠG overn
Ġh ttps
ĠN e
cript or
d ep
ach ine
Ġobserv ed
un ity
stit ute
ct or
P eople
L evel
Ã ¶
ĠA nt
an ish
Con tainer
ar io
Ġm akes
ber g
m atch
il m
Ġun ique
ak er
Ġw est
ri a
ip al
n ote
Ġpop ular
o ice
led ge
ty p
Ġep is
comm on
ĠU s
.. ..
pl ing
u z
model s
ĠSt reet
Ġ ;
c up
n ormal
P si
ad ow
ve y
Ġexper iment
Ġt im
he nt
Ġro ot
Ġs s
et ch
ot es
ĠB el
file s
ob ile
ens ive
Pos ition
Ġfact or
Ġ ir
Ġwebs ite
ĠS en
Inter face
] );
UL T
wide hat
ĠB er
Ġd a
{ }
Ġn ames
Ġal most
n ce
He ight
ĠCan ada
sh ould
d s
Ġperform ed
ĉĉĉĉ ĉĉĉ
CO DE
s ign
us es
| |
Ġdes cription
Ġprov ides
ĠL og
f ill
Ġrec ogn
lem ma
ĠP aul
I F
Ġare as
ach ing
c ing
Ġfr ont
Ġin flu
d i
str ict
d ated
om y
}_ \
imension al
ĠL aw
it ing
Ġs ound
Param eter
L oad
ri ef
Ġdevelop ed
id a
ul ly
Th read
D r
ro te
ar p
$ )
Ġn atural
expect ed
8 9
Ġsol id
Ġrun ning
Ġpre c
P S
d ocument
ict ure
c r
Ġcour se
Ġne igh
Ġcon struction
Ġ( "
ad ian
m id
ber t
Ġv iol
Ut ils
w ait
}^ \
Ġj o
ĠBl ack
ĠP al
st ar
Ġw ords
Ġt ree
A V
ĠS um
ĠCoun cil
Ġs ymmet
O pen
ĠEurope an
AT ION
Ġle arn
Ġrel ative
Ġcurrent ly
Ġsom ething
z er
Ġle arning
Ġfor ce
Ġl en
ĠF l
Ġa ward
Ġed ge
Ġus es
ã ģ
f s
Ġm ot
Ġwh ite
in ated
ĠCh urch
i os
Ġ ::
Ġ ~
net ic
c ache
K E
P o
equ iv
ĠF ile
Ġe ast
W hen
k er
l n
Ġlead ing
am s
Cont rol
L ocation
H ttp
Y ou
Ã ¤
Ġsupport ed
i ation
cd ots
ĠQ ue
ĠC r
Ġunder stand
ĠĠĠĠĠĠĠĠĠĠĠĠĠĠĠĠ ĠĠĠĠĠ
Z E
Ġy et
Ġ\ {
Ġf loat
v ille
ag o
Ġcomp ar
ĠCent er
Ġpol icy
Ex ec
Ġb uffer
L iving
7 6
b uffer
=" _
Ġe lection
Ġrem ove
ĠFr ance
to ken
ĠA ward
ĠO ut
Head er
im ately
B l
H O
d en
Ġcon tract
ĠDav id
="../../../../ ../../
c ial
Ġright s
}) \
ĠJ ames
Ġmax imum
c a
ĠTh om
S cript
Ġanal y
text width
Ġm id
W rite
Ġset ting
ĠG erm
Ġex ception
ĠR ober
S earch
Ġst age
ark s
Ġpat tern
R el
Ġm ale
m ore
Ġro ad
m ut
t ic
e al
Ġpart y
Ġfr ame
Ġd raw
ã ĥ
K ind
Ġth ings
con f
oriz ont
str ap
& &
b and
im ages
Ġro t
R L
D F
s y
Mod ule
Ġprob ability
C P
atas et
w in
Ġcon duct
Call back
ĠSt ud
artifact Id
% %
5 9
IG N
v an
Ġestabl ish
Ġallow ed
Ġeffect s
Ġits elf
Ġconfig uration
Ġd irection
" ))
Ġt aking
r d
Ġvari able
w est
ĠR ich
o e
R ange
on ic
b efore
Ġp ack
t ml
Ġin c
ar ily
A PI
C urrent
5 8
199 7
j ection
t im
Ġquest ion
Ġg ives
omet ry
ol ic
as ons
G u
at tern
Ġneed ed
} |
ĠCh ina
Ġex cept
j ust
Ġl ost
Ġ{ }
it ar
t hen
he st
Ġdirect ly
err y
ag ram
b order
Ġdeath s
Ġs ure
; ->
wo od
Ġ" \
ct x
M M
ag ment
{ (
Ġd evice
Ġpart s
Ġwork ed
Ġim ages
ĠReturn s
Un it
ĠFig ure
Ġex pression
ĠN ote
Ġaut om
Ġcent ral
Ġassum e
ut ive
Des cription
Ġde al
res ource
n es
str y
Ġc andid
Ġnot e
Ġmon ths
ĠS ee
Ġspe ed
Ġp ers
199 6
B A
U til
n ap
T I
> ,
y per
Ġacc ur
Ġ$ (\
as c
Set tings
ra z
ĠM od
ĠM et
Ġt akes
e in
Ġfa iled
pon ents
pro x
at ively
in i
f g
ĠNew s
m ission
an i
198 0
ro s
Ġreg ard
ĠU K
ĠW ork
Ġme chan
D irect
Ġch all
J son
ĠC reate
Ġth ought
g reg
group Id
ree k
q quad
ĠB en
Ġv ers
Ġw ord
Ġarg ument
yth on
P ort
Ġ* )
E CT
H ash
Em pty
th at
we ight
Ġd oc
$ (
} +\
orizont al
o i
bo ot
C A
or ing
ĠO lymp
tain s
p atch
ĠArm y
ou thern
Con nection
d ebug
Ġquant um
h ash
ic ol
Ġd ig
ĠR oman
ĉĉ Ċ
Ġpr inc
id get
Ġl ove
Tr ack
Ġf av
te e
styles heet
St at
el oc
}} (
L e
u ate
Ġparam s
Ġover ride
V AL
Ġarch itect
M enu
COL OR
Ġwrit ing
ĠAss ociation
ĠS ervice
enc ed
Ġcl uster
pecial ly
= {
C an
Ġchar acters
Ġexper ience
N one
ĠT V
Ġgo al
Ġincre ase
ĠAr ch
in ing
Ġre nder
ĠL emma
se m
Ġrelations hip
Ġintrodu ced
Param s
Ġth erefore
ĠN S
ut or
Ġmem ory
Ġdoes n
ind ent
ad o
O p
ph er
Ġhand le
C opy
Ġup on
D D
Ġneed s
Ġl o
ri an
Ġw rote
O ption
Ġcompon ents
ĠH all
Ġoper ations
ĠO pen
ash ington
z on
Ġiss ue
p ite
and er
AC K
d rop
Ġr ule
Ġf lo
Ġnum bers
Ġbound ary
g u
k ind
8 4
T S
Ġtrans ition
iss ions
5 1
s cal
Ġ> =
Ġem pty
Ch ange
Ġsign al
Ġtrans fer
Ġm ilitary
Ġcomp ared
ĠD ec
urs or
ed ge
D ocument
Ġpresent ed
Ġallow s
ĠGe orge
: (
Pro perties
st on
ent ity
Ġco ordin
h i
s ystem
ple te
^ +
Ġp adding
Ġreg ister
Ġrepresent ation
ynt ax
g n
Ġab s
D ir
V ID
Ġse lection
ĠAs sert
ĠCour t
Ġqu e
Ġso ftware
ĠM art
i us
Ġcomp anies
Ġmon th
Ġapp oint
Ġs eg
Ġqu al
) -
Ġtemper ature
e es
5 2
Ġat tribute
Ġh on
Ġeduc ation
ĠR E
Ġsp in
M on
Ġon line
Ġopt im
% ;
d at
8 2
Ġb g
Ġcomple t
Ġt en
Ġarg uments
Ġfe el
As ync
yn ch
ru pt
Ġsc ope
ant ic
en a
ou l
}^{ (
ma ke
Ġup per
ĠS ome
d evice
Ġcomple ted
S k
ir it
Rec ord
Ġro ck
Ġs creen
ĠDep artment
Ġh olds
& =
it ch
Ġf ire
' >
param eter
b on
L I
ĠO b
Ġiss ues
ĠT ime
ĠD E
199 5
math sf
ang es
Ġout side
Ġr adio
m es
Ġproble ms
Ġbas is
5 4
tr ack
Oper ation
ail way
Pro ject
AL L
{ {\
ms g
Hand le
Ġdom ain
Ġdiff icult
Ġst re
a o
clud e
Ġoff ic
Th at
Ġnew s
Ġconc ern
Ġinteg r
erv ices
ang er
Ġpr imary
se cond
y ing
eder al
clus ion
al ian
ĠM ag
P ost
Ser ial
ĠC ap
Ġnov el
Ġy ield
F O
ix t
Ġst ri
D o
ĠB ook
P P
t og
Ġvari ables
Ġfil ename
ST R
mod al
Ġ& \
F ont
} :
ĠB uild
-- -
Ġn ight
C al
Ġf ace
Ġa x
ol ume
" ));
ĠB ay
M O
Ġc ast
h r
Ġdisc over
Ġs ens
Ġstud ies
g in
B O
ĠUn ion
on str
Nav Bar
Ġn u
o om
Ġper cent
Ġg as
St ore
cit et
doc s
ĠTh us
iction ary
Ġcre d
N et
wid get
Ġapp ly
ind ing
Ġx ml
Ġtem plate
c ard
Ġcon nect
Ġl ot
Ġst ore
as ic
Ġg alax
ĠD irect
Ġpolit ic
Ġapp lied
ur i
Ġs witch
Ġs ymbol
Ġs ession
5 3
Ġjo ined
Ġt ag
}\ \
Ġdiffer ence
u ated
c at
}\ ,
ĠT able
Ġchang ed
ĠA ng
mo oth
P R
197 0
C R
ã Ĥ
Ġdirect or
re a
ĠP e
Ġact ually
ĠR oad
u it
Ġopen ed
ugh ter
ĠGerm any
) /
Ġpass ed
S ince
M ar
il ton
am era
Ġm atter
v ector
equ al
Ġal though
co pe
ĠM or
AR T
199 4
a uth
Ġoff ice
ĉ Ġ
ess or
Ġwho le
Ġeffect ive
p ing
Ġpl atform
ĠComp any
Ġa void
Ġimp act
V ari
ĠL ou
() :
Pro t
re ater
Ġvis it
anc ial
S ession
w s
ines e
Ġim medi
ort s
Ex pression
Ġhas h
oun ter
Int eger
all s
en umer
ĠM usic
a fter
ug ins
Ġp ain
Ġre lation
r ange
ĠWh ile
ĠT O
p g
ify ing
ĠR oyal
ĠJ ust
an o
os en
Ġteam s
Ġcom ment
p op
ick er
Col lection
ound ation
d el
h over
Ġ[ '
j o
Ġsign ed
R ight
Ġst ars
ĠAustral ian
Ġlik ely
Ġs ources
ri er
Ġset t
ĠEx ception
Ġcon sum
s ite
T ER
en v
s cri
1 000
Ġwh y
ern el
Ġprof essional
Ġt alk
ä ¸
sc r
Ġus ually
j oin
y r
Ġv ict
icro soft
ĠPro v
lang uage
ĠB G
3 00
sh ire
Ġn odes
inter face
in ternal
7 2
d est
Ġbehav ior
Ġclass es
' re
S ign
I con
ĠN ame
Ġre v
c p
ĠO per
bed d
ĠDiv ision
E M
9 4
typ es
Ġexist ing
Ġto day
Ġhim self
in ct
iz ations
199 2
is ation
Ġdes igned
t ex
b our
Ġphys ical
T e
Ġac qu
M ult
Ġmar ried
ĠM ount
Ġus ers
line ar
M e
ĠJ ack
ĠW ashington
Ġh it
P tr
Ġmod ern
ĠD ay
c opy
Hel per
g s
L eft
Ġcou ple
Ġsh all
ĠG reen
9 2
) +
Im pl
osp ital
Ġ ess
Ġtr ansport
In st
Ġcamp aign
Refer ence
s v
Ġass ist
Ġcontin ued
ĠF orm
A pi
est ival
7 8
a res
re y
om ial
ov ers
Ġfri end
g lobal
ar ter
B r
Ġin fo
Ġfollow ed
Ġs il
Ġlong er
R ev
Ġs end
ĠP at
C S
Ġad ministr
al a
N on
\ "
re es
E v
ann ing
6 8
r ule
Ġlarg est
en ed
ĠIn stitute
ĠP ublic
ĠR ead
ĠM ary
operator name
Ġt our
ill a
ĠS am
] $
ic ate
d x
struct or
Ġbg color
Ġm ention
Ġ( '
Ġor igin
Ġun its
d elete
Ġcont act
m ode
ill ing
D own
ĠD uring
ĠĠĠĠĠĠĠĠĠĠĠĠĠĠĠĠ ĠĠĠĠ
ig r
ĠE rr
Ġsmall er
z a
Ġs us
X X
vari ant
st ep
i ences
Ġin side
Ġal tern
et ime
f ree
ĠO R
Ġre ve
b ul
PE CT
Ġact ual
Or der
g raph
m as
IN E
Ġdef e
199 3
Ġes pecially
c over
vent ion
re nder
ĠB est
Ġ ign
ĠP ress
se y
} '
h space
( {\
P ass
Ġexp and
Ġwrit er
v as
Ġan g
Ġt ro
alle l
Ġsc en
Ġdem onstr
ĠRober t
Ġt ell
pr ing
art s
9 3
ĠHe alth
add ress
at ur
trans form
Tem plate
ag ger
Ġerr ors
S H
Ex p
ac cess
com ponent
Ġsong s
Ġv eloc
v ant
Ġbeh ind
y es
Ġfor ward
Par ser
d irect
Ġinv olved
Ġlay er
Ġinvest ig
Ġr ace
Ġvol ume
N ote
ĠM ac
Ġthrough out
E Q
9 1
Ġitem s
Ġl iving
Ġpro ve
Ġsol utions
| ^
ĠL eg
================ ================
Ġnecess ary
Ġplay ing
Ġd am
for ce
Ġf ight
to String
re q
n eq
ĠM o
R ect
M atch
en ing
L ong
ĠM ap
Dec l
ĠĠĠĠĠĠĠĠĠĠĠĠĠĠĠĠĠĠĠĠĠĠĠĠĠĠĠĠĠĠĠĠ ĠĠĠĠĠĠĠ
arg ument
N N
out e
Ġden ote
S A
Ġbecom es
ic ons
Ġn or
T im
Ġb ank
ĠFr anc
U se
Ġt ax
W E
P L
S chema
R ender
et t
Ġincre asing
x space
Ġw ait
Ġ er
ĠAc adem
En cod
act or
s ession
s end
us ion
ask et
ĠG od
set s
ter m
Ġto ken
Ġindu stry
Ġrecord ed
Ġor d
Ġperson al
Ġwe b
ap prox
F L
ans ion
ĠP o
B J
' ],
el ves
Ġpro gress
ĠC heck
il ies
Q ue
foot er
Ġext ension
T itle
Ġpro te
ens us
y e
f ocus
Ġform ed
Ġother wise
Ġcom es
ERR OR
ic i
ĠS T
ĠT ex
med ia
l ap
equ als
d et
ĠM ex
ĠCl ub
Ġch urch
ers hip
ain e
ĠS ociety
od er
} -\
end ar
ĠIs land
A m
Ġh ours
Ġequ ations
Ġs ense
OR D
Ġf ood
ect ors
ro ad
}} {\
Ġde ep
f ony
ĠE ar
6 3
ser ve
c ustom
Ġb ad
su ccess
im ents
ĠY ear
ym fony
ĠM iss
air s
Ġs cript
Ġw ife
Ġben ef
n ov
re al
ult ural
Ġstart ing
H ost
it able
ick et
F alse
W hat
Ġsec urity
annot ation
Ġart icle
the orem
( :
Param eters
Ġpart ial
ĠA lex
Ġm oney
Ġwe ak
ĠM at
Ġh ot
] \
is ions
ĠO ther
ĠBG COLOR
dis abled
eleg ate
pl ugin
Ġmiss ing
ex ception
ĠM er
199 1
I ter
re ct
4 00
web kit
Ġe cho
ĠMich ael
Ð »
R ed
ĠDem ocr
D ep
D om
w ell
fo o
ĠB ase
Ġdirect ed
li ament
Ġdeb ut
Ġto wards
ex port
Ġelect ron
ex ports
ur a
uf act
ĠE nd
D i
G o
U P
F T
k m
est amp
d im
or se
inal ly
Ġm other
Ġman agement
Ġread ing
Ġschool s
="../../ ../
& #
V ector
Ġm ount
K e
Ġcho ice
=" /
6 2
S l
h igh
## #
Ġlevel s
hand le
c lick
N ames
Ġp ick
p adding
Ġinv oke
Ġsh ape
Ġprevious ly
_ ;
ĠRes earch
id ents
ĠH en
Ġw alk
ĠO ur
Ġdec ision
ĠT ur
Ġsim ply
Ġcon nected
ĠW hat
c ur
Ġth read
ĠAfr ica
Ġsub sequ
Ġj oin
ĠWh ite
Ġr ules
Ġpres ident
re ement
? :
Ġdescri be
enumer ate
D IR
Ġa uth
ĠM ad
ĠT own
Ġj ud
Ġst aff
Ġund efined
Ġs plit
w rit
Ġqu ality
Ġqu ick
por ary
T ool
Ġn amespace
In valid
N ow
OR T
Ġd imension
Result s
Ġbook s
AN D
wh ite
Ġc ache
P i
Ġs ex
M D
d imensional
Ġs ort
Ġim m
Ġcrit ical
ĠD el
Ġco eff
Ġj av
ĠSc ience
Ġk m
Ġad apt
Ġv eh
Ġcon cept
Ġal t
wit ter
ul ate
P A
k i
Ġimp lies
ind er
ĠC re
ĠC ong
p anel
p o
F C
ĠH el
uss ian
> ();
cre te
ĠA L
Ġpol ice
en um
ĠP ost
v m
ĠM em
umn i
ĠR un
G ET
S o
item ize
erv e
Ġf ra
field s
Ġbo ard
Ġide a
s ort
Arg ument
Ġcontain er
ri al
ĠE v
b ot
Ġset tings
Ġg ave
Ġex plicit
Ġex hib
Ġe ight
Ġ ensure
ig hest
boot strap
eth er
ĠĠĠ Ċ
pre t
Ġcoun tries
ĠAfr ican
Ġpro file
Ġc ause
set tings
Ġsh are
op l
omet imes
P arent
Ġdistrib uted
D raw
Ġd elete
6 1
Ġfinal ly
ĠT om
ĠĠĠĠĠĠ Ċ
ĠK e
Ġpar se
at tribute
ĠTe chn
Ġ- \
Def inition
D ebug
Ġappe ared
ĠG ames
C ore
ĠS al
S u
ĠV er
Ġn om
ĠAcc ording
duc ation
ĠA ut
ĠS l
g an
Ġex tra
Ġ} )
Ġlim ited
Ġproduct s
ĠD ate
ĠC he
Ap plication
ir l
' $
f n
Ġcont aining
Ġc ore
Class es
Val ues
Ġrepl aced
ut ing
Ġdec re
The n
S e
Ġequival ent
ĠN ow
ac ement
ĠCan adian
ing u
he lp
Ġn et
ĠC ath
ie ce
ed y
V er
ĠEX PECT
cl os
ĠG old
n orm
ĠJ er
Ġsur v
h ad
f ect
depend ency
S L
ĠTh erefore
mer cial
et te
ĠThom as
av er
atal og
G B
8 1
est ed
Ġe mer
ĠCent ral
Ġl ock
res ents
R I
ĠC ON
Ġd atabase
c ar
Ġsc ore
Ġin j
SE T
25 5
ĠKing dom
Ġpl ot
Ġrem ains
G E
Ġpe ak
ĠO ver
Ġcontin uous
N um
Ġconst it
ict or
7 9
Ġev idence
8 3
rel ated
196 0
Ġra ise
Ġr atio
Ġtrans action
a iled
ĠSc ott
7 4
k y
ra el
f it
ĠF e
p ers
Ġest imate
v ed
Ġd ark
ĠG l
Ġh ous
> .
) }{
L o
P op
Ġan sw
` .
az ine
ynch ron
198 8
Read er
el t
ĠF ield
mit ted
Ġpl aces
al led
Ġdeterm ined
O K
ous ly
Ġre strict
Ġp ackage
Test s
Ġstat ement
f ull
Ġreg ions
Ġbir th
Ġstruct ures
OR M
$ }
con dition
Ġab sol
Ġpro ced
Ġres ources
anc y
Ġst e
Ġb all
ĠS ing
it a
Ġm us
Ġtest s
ĠH ere
Ġtechn ology
Ġc op
7 1
D evice
l oc
ĠGr and
6 9
Ġpro per
Ġcour t
U B
Ġet c
Ð º
g ence
ĠM useum
Ġfin ished
( *
Ġed itor
lo od
Ġev olution
p ri
agn ost
Ġs aw
Ġr isk
ĠJ SON
Met adata
Ġbr ing
198 9
Ġcoun ter
Ġd ed
om a
id ers
ĠM ath
M ark
Ġfor ces
Ġpract ice
av ed
ĠCh inese
ĠI S
ĠT or
ĠAr g
ĠW il
ĠM odel
s pect
E l
Ġman ager
Ġa ud
P H
Ġal gebra
ĠJ ew
Ġhe ader
al ed
Ġun signed
Ġs low
M y
) }$
ĠTr ue
Pol icy
En abled
Ġneg ative
Ġbel ong
Ġresult ing
; "
H as
v space
ĠTex as
Ġ\ |
ĠJapan ese
7 3
Ġfrequ ency
r ong
ĠD an
Ġstud ied
aw s
ert ific
St ack
-- >
Ġtr avel
-------------------------------- --------------------------------
Ġre pe
Ġso on
ĠSup er
Ġm ut
Ġp anel
Ġc ategory
no indent
Ġspect rum
ĠR ob
ro t
h ing
ĠChrist ian
Ġmag netic
Ġf un
at ically
ol ar
Ġear lier
all ow
bo olean
Ġro om
fr amework
Ġin line
Ġch arg
res hold
ound s
ĠL ong
Ġsh ip
ĠRuss ian
sh ot
vir tual
ee k
ĠM ont
ĠWest ern
Arg s
Ġgrow th
cl oud
Ġre con
Ġrequ ires
P T
Ġun c
~~ ~~
Ġfe ed
ec ause
Ġtr ain
c ategory
Ġinteg er
call back
Ã §
ill er
} "
Ġne ut
Ġfor ms
Ġimplement ation
block List
Ġchar ge
ĠAs sembly
Ġd ro
Ġrec over
M N
Ġstr ict
ĠGo ogle
ĠP re
AT H
ĠF ore
h s
Ġc he
ail y
Ġby te
Ġrem ain
ĠIn c
ĠRec ords
rom e
ĠF lor
Ġinv olv
if est
Ġs ports
Ġdid n
ĠG reat
Ġb ottom
A c
Ġd im
\ ,\
ĠCar ol
in y
Ġl ibrary
By tes
rec ated
Ġgener ate
W riter
k ing
Ġrun s
Ġill ustr
Ġrel ig
Ġc ard
Ġro ute
em ic
Ġstre ng
en ge
leg al
re place
rom ise
Ġj ournal
al ysis
x x
se ct
asket ball
ĠS ur
D oc
in et
or ation
ele br
es h
Ġn orm
D L
ĠO f
Ġepis ode
Ġ+ +
Ġveloc ity
ĠM us
od ed
um in
b i
struct ure
Ġs even
m aterial
yd ro
ĠSm ith
Ġrepresent ed
at re
ĠL O
irc raft
az z
Ġf ast
Ġto ld
tog gle
ĠH istory
ond s
by te
ĠZ eal
st at
Ġinst it
af ety
Ġbegin ning
Ġan im
f aces
As sert
ĠH istor
Ġst ack
Ġfound ed
By te
Ġgener ally
ĠAcadem y
' .
ĠĠĠĠĠĠĠĠĠĠĠĠĠĠĠĠ ĠĠ
Ġm iddle
Ġact ivity
Ġlist ed
Ġrem oved
Bo olean
ĠR equ
; <
Ġby tes
evelop ment
Ġo s
ĠF in
ĠMin ister
\ }$
E ach
B ody
Ġf ully
W rap
ann ed
Ġbut ton
re me
` ,
C lick
TE D
math scr
S he
em ail
R ule
ĠFranc is
Ġelect ed
ĠPro ject
ĠVir gin
at in
ad min
u an
D elete
ollow ing
f il
Ġth ing
ĠZeal and
U RE
Ġch ain
Ġdest roy
Ġext ended
re land
def inition
Ġalbum s
l ines
ol f
S ION
co q
ign ment
Ġv an
ym pt
Ġmin imum
Ġ$ {
}} _
hold er
ul er
ĠV alue
M ore
reg ister
t f
yn omial
D atabase
Ġl ack
k r
r or
Ġknow ledge
Ġappe ars
Ġmat ches
= (
Ġfig ure
Ġop port
sh ift
á ĥ
Ġre ached
th let
ĠLou is
li ance
ĠIt alian
Ġte ach
ĠFr ank
Ġle ague
bit r
ip eline
EX T
Ġda ughter
M eta
16 0
V ar
Ġe igen
Ġun iform
w ar
d ouble
Ġj son
AT A
Ġeas y
ĠR el
m argin
ĠG a
ress ion
ang uage
ix el
up le
ent al
ann els
if ies
Ġn ature
Ġh ighest
FA ULT
Ġ â
Ġs en
Ġdeterm ine
B S
Ġ _{
i h
c z
ol k
it z
Ġmean ing
Ġad opt
l am
Sh ow
er ies
ap plication
Ġgr ant
X ml
Ġincre ased
Ġst ated
Ġover all
Ġbl ue
ir ing
SS ERT
result s
Ġre comm
M ock
198 7
Ġk illed
Ġdirect ory
con nect
j a
Ġno ise
}} }
bl ack
Ġmin utes
' ))
Ġcap ital
ĠCom mit
M ain
ĠChar les
Ġuse ful
ot ic
St orage
S um
Ġpres ence
Ġpre vent
Ġa im
ele ction
ĠOr der
") ]
Ġappoint ed
app ed
Ġr adi
* )
Ġrecent ly
P ackage
le v
Ġmain tain
Ġdo ing
id ay
Ġpre d
__ (
Ġbas ic
Ġmet ric
Ġpre p
ic ated
as hed
ĠM ethod
CT ION
ĠB ig
ĠK ore
D ialog
Ġin cor
/ >
Ġpl ant
A ME
Ġsc ient
Ġredu ced
Ġref lect
text tt
ĠHT ML
Ġ{ };
Ġre serv
Ġcle an
Ġfem ale
Ġsche me
min us
D A
HT ML
C re
Ġtreat ment
ĠJ ose
ĠSec ond
ab ilities
e ch
Ġc ivil
ĠAl so
Ġ< =
Ġrem aining
com ment
pl ugins
Ġt it
pro ve
k o
ĠCO VID
Ġt err
ourn ament
iver se
ĠIn st
he ast
Ġp urch
Ġsuff icient
s ample
Ġh yp
Trans action
Ġw ide
Ġsample s
E C
pp ed
Acc ount
Ġw atch
urre n
ri p
Ġident ity
ĠErr or
in line
am i
ĠR ock
s ur
ĠP eter
wh ile
Ġfr amework
Ġpat ients
ĠReg ister
ĠAn n
Ġl atter
all ery
Ch anged
Ġgu itar
ing er
proto buf
s che
Ext ension
ĠU se
Ġs mooth
du ction
f ort
tr m
st ore
Ġfl ag
Ġapplic ations
at o
\ '
Ġco ach
D I
B R
Ġb ur
gr id
Ġ( -
ic ago
Ġclass ical
ĠF ootball
Ġder ived
198 6
Ġevent ually
ph ere
Ġrep resents
ur t
Ġfam ilies
reg ion
Ġrece ive
ist an
198 4
ynam ic
Ġst ay
in sert
Ġpl aced
aut o
Ġthe orem
Ġw ave
ĠI O
m ock
ateg ories
C ustom
Ø §
v est
sq l
S w
el er
ms elves
r adius
ĠU ser
Ġm sg
d eg
ĠM el
tex trm
Ġqu ite
Ġprob ably
uck et
under line
Ġc ulture
form s
pro duct
ev e
co in
~ $
Ġb al
b es
ĠPro gram
c pp
ĠRich ard
p ool
J ob
Ġcho ose
Ġfin ancial
Ã³ n
Ġsh ared
Ġocc up
ĠM ax
Ġappro pri
ig er
F il
Ġassert Equals
R oot
ou b
Ġoper ators
Ġ ),
mod ules
Ġg old
key s
in itial
ple ments
sh ort
Ġdis e
Dis play
du le
ĠComm ission
{ $
Ġ' /
Ġart ists
< \
Ġm ind
198 5
Ġinter action
t ical
Ġnot hing
aug e
Ġlook ing
at ial
Ġthe mselves
T ab
Ob j
ĠF oundation
ĠT HE
^ -
N E
AG E
pe ed
is l
item s
Act ive
ĠE vent
Ġleg al
n one
subset eq
tern et
ĠM r
In itial
ĠSum mer
Field s
ud d
ĠB ill
ant a
v c
point s
L P
AC E
ĠM ass
Ġch osen
Ar t
ĠL os
Ġw rap
as ure
c md
ĠT im
ĠL ife
ĠH ill
th read
W S
T C
t ip
ole c
j i
Ġw oman
c ut
P RE
is ms
= -
Ġr ap
Ġneigh bor
y g
Ġr ad
ĠA v
ig an
ĠT wo
ple x
Ġpre m
Ġprodu ce
Ġbr anch
her it
cont in
el li
al o
Ġst ations
Ġoriginal ly
ist ance
TE ST
Ġhe art
ver y
av ity
i pe
= #
Ġ util
Ñ ĥ
ut y
ĉĉĉ Ċ
Ġhe l
Ġp en
Ġbuild ings
KE Y
IT Y
ib ly
mult icol
O M
Ġap i
25 6
Ġn ative
a ud
Ġtr ansp
Ġat tr
pro d
ĠL ake
ĠPar is
Ġart ist
Ġun known
}} ,
ĠC amp
ĠSh ow
ĠL ine
Ġg reater
ĠSer ies
rid ge
ad y
ir med
le ep
L S
Ġsc ience
k in
)) )
Ġm icro
Ġex ternal
pass word
Ġeas ily
ĠT em
ell a
ixt ure
Ġvert ex
ang o
M C
c f
Ġon es
Ġa ctions
al i
Ġatt ention
Ġapprox imately
Des criptor
ĠCath olic
Ġ$ .
ĠK ey
c b
Ġequ ip
L java
Ġorgan ization
Ġmov ement
Ġcons ists
Ġexample s
ĠĠĠĠĠĠĠĠĠĠĠĠĠĠĠĠ ĠĠĠĠĠĠĠĠĠ
Ġ Î
im a
inst all
Ġrec ords
ar ant
Ġs ave
ĠD en
Ġcom ing
os h
R et
ific ations
Ã ¨
Ġseem s
Ġdec ided
multicol umn
Que ue
Ġpress ure
O ther
}^{ -
ĠPro f
sh ape
or a
Ġman ufact
P erson
con trib
T V
Ġant i
EN D
Ġmap s
Id ent
ĠGovern ment
Ġfootball ers
Ġparticular ly
Ġh yper
ĠIs rael
Ġd ataset
Ġimmedi ately
: \
Ġder iv
I l
h ouse
Ġtrad itional
Ġem bedd
I X
ĠP ri
Ġcell s
Sec urity
Ġp ul
Ġbro ught
The ta
or ter
Ġin fin
ĠFlor ida
m iss
Ġsp ent
Ġre ach
ĠGe org
ĠFor ce
P erm
ĠA ust
ĠSt ar
Ġv s
Ġfl at
re v
ĠHam ilton
Ġl oop
ĠC D
Ġd u
Ġle ave
ĠB ank
Ġca used
ĠT op
Ġstr ategy
An y
as er
ann er
=" @
org an
Ġm otion
iqu es
Ġal umni
S cope
Ġinter view
iv ial
Ġser ial
Ġle ader
Ġvari ety
put e
Ġex tract
Ġc hem
ĠI ll
ut ch
W idget
Ġf ix
Ġm ix
opl us
ed it
ĠV ictor
Ġin str
b al
Ġs light
Ġsec ret
in em
n umer
ol ver
Ġtest ing
print f
ĠSt ep
Ġfour th
add r
r ad
L ock
ot ing
ĠP an
Ġcall s
Ġbroad cast
hent ication
ĠU RL
Ġ$\ {
Ġh tml
ĠTr ump
in f
$ _
ĠW omen
Ġcon sole
st ats
ĠI reland
Ġbro ther
Ġin sp
N e
Ġget ting
Ġp or
Ġhe nce
Ġmed ical
raz il
Ġcomp act
Ġm is
sc roll
ĠU nder
z ero
ĠD u
ĠV ol
Ġp ark
Str uct
ĠF ilm
Ġchall eng
p ay
On ly
ĠIt s
not ation
Ġask ed
ĠN OT
h ol
Ġmin or
Ġs ometimes
def ined
Ġag o
Ġtr ade
sp ring
l ers
Mem bers
S end
ar ian
Ġestim ated
ĠN etwork
Ġ" /
Ġar bitr
ĠL and
Ġm unic
os ing
s cription
Time out
d ates
Ġb ul
Ġin ner
ĠSp anish
Ġcur ve
A tt
ent er
Ch annel
S ymfony
id ential
198 3
Ġcon sequ
am m
Ġjav ax
Ġcomput e
Ġelect ric
st op
N etwork
Ġcompar ison
Ġst orage
ĠV iew
ens es
Ġsepar ate
G S
im pl
H ere
Ġinterest ing
Ġh um
ect s
19 50
ĠOlymp ics
ĠS un
ĠF re
ĠH and
con s
J SON
ĠC ast
ook ie
ĠAr ts
ĠK n
m atrix
Ġde ad
Ġw allet
ĠM ost
orn er
FI LE
Ġlead s
w a
b ing
In it
Ġess ential
Ġobserv ations
and a
anc el
j oy
ang ular
C or
In ternal
Ġpol ynomial
Ġf oot
em s
ge les
Ġab ility
Ġstud ent
Ġag ent
Ġhigh ly
C I
Ġr adius
lim its
sup er
on ym
[ :
Ġcom mercial
ĠC ons
Ġprogram s
Ġcompet ition
se ud
rec ord
"> &
ĠP lay
ish er
Ġm ur
Ġst eps
B efore
Ġs ch
Ġprocess es
n el
) ).
ro om
Ġh idden
com ing
Y ear
n ames
Ġcomplet ely
Ġsp aces
is hes
ĠCommit tee
O ur
Ġexp ansion
Ġweek s
Ġdepend s
Ġactiv ities
ov es
Ġnot ed
ĠAl though
198 2
Ġa ircraft
Ġ icon
ish op
Ġexact ly
Ġsit uation
; /
foot note
Con st
S ection
Ġbound ed
Ġn g
un signed
Ġc it
n y
pe ople
Ġent ity
Ġv oc
Ġc elebr
C le
ab it
f amily
Ġcrit ic
un ched
k g
t ion
Ġw ays
in v
ĠN O
St ep
P ool
ub y
C ar
Ġcol lege
nap shot
Ġvis ual
con nection
^{ -\
as y
am ing
Ġg un
ĠAn geles
ac count
Ġag reement
ĠEng ine
Ġwant ed
ĠCong ress
h om
Ġth reat
Ġre li
ĠC all
ĠRev iew
. *
Ġst ra
}} _{
Ġpl ane
ĠS il
", "
rop y
omorph ism
ig ration
Ġocc ur
Ġm aster
u ing
Ġbeliev e
ev ents
Ġm ock
Ġinstance of
Ġ ut
Ġm achine
Ġg reen
ĠP enn
ar ation
ĠI d
Sup port
Ġ( *
ĠAt l
Ġp ri
Ġdiscuss ed
N G
Ġres olution
ĠY our
Ġex am
Ġcomput er
Ġgr and
ĠV AL
Ġkey s
Ed it
() {
B ut
ell ar
Ġs quare
pro file
set minus
Ġpartic le
Ġe mail
ĠD et
==== ==
ĠG en
197 9
Ġident ified
ĠDef ault
Ġs n
( !
Ġfl ux
ĠT ext
Ġcoll abor
Ġh arm
r ine
Ð° Ð
Ġd b
ĠBo ard
Ġmag n
r b
Ġ$ |
ick s
ĠL i
Ev ents
v a
m aster
Ġget s
or al
Ġopen ing
Ġproject s
ad s
f ly
Ġsur round
S R
TE X
=" ">
ĠCh icago
Ġfeature d
_ +
Ġat tributes
ĠC opy
F loat
il arly
e an
sh all
ĠT imes
l g
ploy ment
Ġprot ocol
u ages
_ ,
ist rib
ec k
Ġm ixed
Ġfact ors
and ra
Ġredu ce
drop down
M ember
Ġabsol ute
M edia
ass ets
Act ivity
Ġdist inct
U ID
Ġnear ly
Ġrem ained
ew idth
import ant
j query
G rid
ne ctions
att ice
p a
ist ers
Ġsh ot
ly ph
s creen
E O
Ġim prove
M sg
Ġgener ation
ĠP et
Ġun ion
Ġcon serv
Ġgo es
Ġform ation
Ä ģ
Log ger
Ġpr ice
Ġplay s
! !
sec urity
Ġm ask
Fl ags
Not Null
il ation
cont roller
ĠE ducation
Ġb inary
Ġcap acity
L oc
Ġform ula
ĠVirgin ia
198 1
Ġpr im
ad r
assert Equals
AD D
Ġc os
ĠI P
ty ped
Ġ ul
Ġw or
eta iled
Ġ( $\
th rows
AR Y
ĠW indow
Ġt ouch
] :
ĠHen ry
Ġseg ment
ĠS ocial
ĠĠĠĠĠĠĠĠĠĠĠĠĠĠĠĠ ĠĠĠĠĠĠĠĠ
', '
Ġdel iver
Item s
" `
15 0
m ove
L a
pro perties
\ }
Ġcandid ate
er c
Ġcon cent
ts d
Ġsp read
Ġsc atter
ĠF urther
i en
) ),
R est
A uth
k w
ĠE qu
Ġbe y
Ġe arn
ag raph
Ġsc ene
I B
ĠF estival
D S
Ġdis k
oc key
Ġany thing
Ġall oc
Ġcontr ast
Ġmed al
ov a
urre d
Ġr ates
ol a
ĠCol or
P AR
at ible
Ġex c
Ġecon omic
ĠV is
Ġdi agram
Ġmention ed
A v
P lay
ist ent
ĠMed ia
MA X
equ ality
ĠF alse
VER SION
tab s
Ġp ert
ut er
ĠIt aly
Ġnetwork s
Ġw id
type of
ma zon
ĠO ld
B it
Ġb tn
and ard
reed om
1 20
Con f
Ġt ensor
omet ric
Ġb rief
Ġfri ends
ĠO h
d em
By Id
Ġmov ing
hes is
Ġbey ond
Ġown er
ar c
Ġl if
Ġmeasure d
er g
Pro xy
pos ite
sk i
Ġrele vant
ov iet
T ABLE
r ich
ĠMex ico
ĠSw ed
SI ZE
dom ain
pr imary
un ct
um s
ĠM a
ç ļ
r ate
Ġstra ight
d agger
' \
align ed
Ġmeet ing
S ymbol
) |
u ations
() ));
Ġtrans l
Pro p
' m
)) );
= >
tx t
Ġact or
Ġd ir
ĠA N
Ġpur pose
M ENT
Ġdynam ics
Ġhe avy
fl ags
ĠĠĠĠĠĠĠĠĠĠĠĠĠĠĠĠ ĠĠĠĠĠĠ
M B
Ġtry ing
ĠM ur
ĠE ach
select ed
bl ue
y an
ĠA tt
Ġaward ed
Ġblock s
Ġpr iv
. __
Ġhand ler
: #
Ġliter ature
Ġfail ure
çļ Ħ
Ġquest ions
e ach
Ġmov ie
Ġpartic les
Ġ% }
ap ers
are a
b ad
Back ground
ĠRuss ia
ack et
M OD
riter ia
At tributes
Ä ±
s ave
J ohn
Ġmajor ity
ell ig
pon s
cal led
ven ue
Ġ\ ;
Ġparent s
ug e
had oop
@ "
F ound
Ġd etail
D el
Ġsum mer
h av
que ue
ĠOff ice
j pg
ĠH ot
ï ¼
Ġl ives
ertific ate
Ġj oint
ĠV ersion
sy ch
197 2
Ġconstruct ed
ĠSc ot
Ġp refer
ri end
() ).
l imit
Ġf if
big g
ĠSec ret
ed s
Ġcomp are
Ġcontrib ution
if ically
Ġsup p
Ġvert ical
ĠO p
_ ->
ĠB usiness
######## ########
are t
i ro
ĠM il
b u
Ġup dated
ĠTe am
197 8
ĠB ur
pos es
in ations
Select or
Ġ[ ];
Ġvis ible
Ġexper iments
Ġinflu ence
Ġent er
Ġin sert
Ġdep th
Not es
ĠJ ournal
Ġshow ed
Ġfav or
ock er
Ġw aves
n eg
ĠS ol
Ġconsist ent
Ġth erm
ential s
O wn
Ġbuild er
gorith ms
Ġun less
ĠB rown
Fe ature
ĠMart in
Ġpol ar
Run time
z z
Ġan gle
CH E
ĠL in
D on
LO G
Ġappropri ate
Ġpo inter
hand ler
W A
//////////////// ////////////////
. '
ĠC ode
Ġas pect
c ape
ĠP eople
Prot ocol
des c
Ġc ref
ĠS aint
aug ht
D et
P anel
ĠO ption
j ar
Ġ$ [
Lo ader
iter al
Ġgo als
Ġdec om
_{ {\
log ger
ĠT our
12 8
Ġsing er
197 6
ici ency
Ġpo or
Ġwh om
Ġem ission
bul let
197 4
in ant
m c
f ail
Ġset up
on a
Ġsatisf ies
ph one
ĠA R
ĠK ar
g it
Ġb us
ĠG ame
Ġenc oding
Ġb attle
k l
Ġcar ry
NavBar Cell
er ial
at i
Ġt or
f lo
Ġ io
h ome
istr ation
Ġcre ating
Ġgalax ies
stit ution
Ġax is
) "
if fer
Ed itor
Ġaccur acy
Ġdes c
Ġdiv ision
b its
g reen
Ġgr id
Ġconstr aints
ĠDirect or
Ġexist ence
Ġcomb ined
w edge
as i
l ig
ook s
Ġper fect
olog ies
_ *
Window s
J ava
man ager
h orizontal
ond er
ĠEx ec
$ /
Ġdel ay
ĠĠĠĠĠĠĠĠĠĠĠĠĠĠĠĠĠĠĠĠĠĠĠĠĠĠĠĠĠĠĠĠ ĠĠĠĠĠĠĠĠĠĠĠĠĠĠĠĠĠĠĠĠĠĠĠĠĠĠĠĠĠĠĠĠ
t otal
urren cy
ch annel
Direct ory
Ġg iving
ĠM A
ĠA wards
Ġsignificant ly
id ae
com ponents
Re ce
os itory
m os
Ad apter
Ġf unc
ic ients
ik i
u er
p ower
Ġd rop
E arly
s chema
C lose
Ġsc ored
param eters
ĠC le
oll ary
P ATH
Ġpolitic ian
Ġad j
Ġw ind
ĠÂ £
m ann
gr ade
ĠPro position
Ġsit es
Ġst ories
li e
197 5
How ever
Ġquick ly
ĠP ubl
ac ro
ð Ł
ian a
197 7
lin ewidth
Ġac adem
Ġpl ans
S equ
pos itory
Ġtask s
ĠL android
tool s
Ġmost ly
Ġturn ed
tr igger
hen s
Ġexperiment al
ĠYou ng
Ġ" "
b old
Ġ{ '
Ġsh ift
I E
D C
Ġed ges
Ġm ission
assert Equal
I MP
ens ed
Ġdr ug
Wh ile
Ġpair s
Gener ic
lo ok
B P
Ġproced ure
Ġwork ers
Ġsay ing
it o
n etwork
] ]
Ġoption al
o les
it an
res et
F urther
ri age
ĠL ibrary
s witch
Ġprov iding
ĠL ove
196 8
Ġd ual
ĠG ood
g g
Ġopt imal
ent y
Ġevery thing
ĠT ask
Ġm essages
ĠD om
ian o
In v
Ġvert ices
> :
L IC
ax is
} %
Ġdet ection
in ate
Ġapprox imation
anc ing
mut able
Ġf air
Ġposition s
eng ine
Ġp ool
h idden
Trans form
am er
Ġmin im
ĠN ode
b el
Ġwin ning
Ġro b
Ġold er
j e
ĠII I
ĠCarol ina
Ġmeas ures
ĠEar th
Ġcalcul ated
Ġoff ers
Ġa wait
Ġdr iver
P ublic
M atrix
ĠP oint
Ġh ope
Ġtr a
ut f
w riter
ĠIn itial
ĠE mp
U LE
et ween
ak a
ank s
Ġ| \
Ġla unched
ir a
Ġen joy
j ob
Iter ator
ĠL u
Ġappear ance
it ation
Ġtyp ically
Ġed ition
ĠD ev
Ġp ush
as ion
Ġend ed
Ġun ivers
k et
' _
ang ing
rodu ction
Ġ ×
Ġwrit ers
Sc roll
Po inter
ĠB ob
Ġsome one
n amed
o z
Ġcomb ination
fr ont
197 3
c ases
ĠE r
ĠPar liament
Ġcent re
st o
ir ls
Ġc ru
mult i
ex ists
ev al
Ġ eth
A F
st able
Ġg auge
ĠT ra
To String
Ġdem and
tr iev
++ ;
Ä ĩ
Ġcal c
Ġin equality
Ġlet ter
Ġcl oud
ĠF unction
Ġin valid
Ġsymmet ry
ov ing
Ġmeasure ments
Ġw ood
ele ase
-> _
we et
Ġse a
D uration
Ġinter val
ĠK h
Ġfra ction
sub figure
Ġch art
t ers
Ġcar ried
U l
und red
ĠP ac
Ġhigh light
Ġ$ -
Ġindividual s
G raph
p an
erv ed
w an
Ġon to
RO M
Ġtr aff
key word
} </
ĠM P
' ve
W orld
ĠTO DO
ĠN avy
Ġex port
X ML
Ġdig ital
ĠB i
orn ing
Ġc li
are er
Ġnumer ical
En um
C F
ĠS O
met adata
D uring
* {
Eng lish
Ġs al
Ġrespons ible
Ġent ered
Ġen h
Ġcommun ities
s he
ĠUp date
ĠH aw
ĠAr ab
Ġfore ign
t or
S Y
f ound
P attern
Ġf arm
Ġcorrespond s
config uration
y er
Ġauth ors
m en
Aut o
}} (\
g a
her ited
ĠB razil
yl van
A uthor
Ġestablish ments
Select ed
ĠL ee
BU G
ĠE lect
Ġt ab
it ors
ĠW ill
c ient
ĠCh ild
P ay
Pro duct
ĠCon fig
ON E
by tes
Ġco ast
ĠF ort
w er
are n
ect ive
G en
ĠL ocal
Ġim plements
Ġ( _
), \
Ġk ing
Ġw rong
Ġis n
h ere
Ġt ournament
M ed
M T
The se
Pro file
ĠP aram
F unc
Ġr iver
Ġlate st
M at
Ġserv e
ac le
ĠE li
Ġe lem
F ull
Ġph il
Ġadv ant
ta il
Ġsim ulations
Ġmod ified
Ġ ^
Ġra ised
D ouble
Ġh ol
T erm
r ase
At tr
Ġr ing
196 9
t mp
) }(
Ġre place
ĠS pec
L L
st one
Ġ= ========
ug by
Ġcomput ed
Ġas ync
Ġth r
Ñ ı
r andom
ĠVal ley
od ay
ex ternal
sh adow
ace book
Ġarchitect ure
H igh
ĠS u
r ices
est ion
ans as
ĠD evelopment
con tains
Ġthe ore
s ingle
b x
Ġb asketball
str a
ck now
S ync
pt on
web pack
Ġar m
197 1
Ġpre t
Ġs afety
Ġor ient
ail s
Pr int
'] )
ard en
Ġass ess
Pl ugin
sum er
Ġcont ained
Ġbe aut
ĠJ im
ce an
Ġqu arter
Ġv ote
test s
Ã £
Ġv oice
Ġch ief
typed ef
Ġprodu cer
al g
Ġnot ice
Ġinitial ly
Reg ister
Ġpo et
Comm on
ĠW ood
Lay er
ĠM ain
' }
R AN
all oc
Su ccess
Ġpr ison
ĠH ence
Ġarbitr ary
ic ip
D est
os oph
Style ID
[ $
Ġpart ners
M apping
Ġ ip
Des c
ĠG al
Ġsim ulation
Ġre ader
Ġapp end
d y
ĠS und
Ġf ederal
ud get
ĠM os
Ġin form
Ġ\ (
Ġm olec
Eng ine
Ġann ual
el a
å ı
Ġspect ral
_{ -
Ġvers ions
ĠN umber
Ġinst alled
Ġform al
Mem ory
Fig ure
m i
ĠJ un
app ly
ograph ic
cl aim
ĠC ross
ĠIr ish
Ġprocess ing
get Element
ast e
ĠU N
ow ers
' ll
Ġdes pite
UT F
oth ing
Ġident ify
l as
iter ator
Ġre ports
ĠJose ph
i ate
Ġp an
ĠG i
build er
,\ ,
clus ive
Ġcy cle
op es
Ġl ib
ĠĠĠĠĠĠĠĠĠĠĠĠĠĠĠĠĠĠĠĠĠĠĠĠĠĠĠĠĠĠĠĠ ĠĠĠĠĠĠĠĠĠĠĠ
Ġslight ly
C ap
ar ia
S ingle
ĠCh ief
IP T
ier arch
Ġincre ases
ĠL iber
ĠJ ud
at ers
st ein
Ġprop ag
ĠA ND
S QL
Ġdise ase
Con str
Ġact ress
Ġass igned
ip ality
b as
child ren
for ward
ĠJ ac
Ġla unch
Ġsecond s
G lobal
hem at
ylvan ia
Ġ" <
lap se
B E
is c
ĠB u
B rowser
get Name
v s
Ġmus ical
Å ¡
}$ -
Ġrel atively
or iginal
Ġl ab
ust ers
Ġocc urs
ĠH ome
Ġtechn iques
Ġis land
ĠCol umb
Ġpart ition
u um
H z
ir al
ĠMore over
194 5
b rowser
ĠChampionship s
Ġre ct
Ġre ject
T A
Ġtr igger
Ġd raft
h aps
D etails
19 40
Ġmoment um
col lection
ell er
igh ter
e cho
ĠB ack
ĠO l
ĠNor thern
Ġst able
Ke ys
Ex ample
Vari able
F R
ĠA ction
Ġfor ced
File s
adi um
ĠW ales
b en
Ġsp atial
par ser
Ġassum ption
ic ies
C ategory
Ġw orth
Ġpro ceed
FF FF
us band
Ġex change
Ġen able
Ġassum ed
on ical
ĠS y
k ins
s ince
V ideo
Ġindic ates
Ġcre ation
medi ate
ic ine
Ġown ed
Ġrefer red
press ed
196 7
Ġcorre lation
ad or
Par se
per p
M I
Ġxml ns
Ab stract
ĠEn ter
_{ (
H R
ust rial
S ample
E q
ĠOn ly
Å į
ĠP ower
Ġ[ [
S ER
h l
Ġdiscuss ion
Ġshow ing
ĠS ervices
a is
ĠM iddle
ic ity
w ild
Ġcou pling
ĠĠĠĠĠĠĠĠĠĠĠĠĠĠĠĠ ĠĠĠĠĠĠĠĠĠĠĠĠĠ
=" ${
Ġag reed
Ġoffic er
J S
Ġclass ification
Ġb rowser
ĠJ o
N ULL
r ical
d p
Ġinteg ral
Ġmatch ing
Ġim ag
Ġc at
Ġsus p
s ymbol
Ġansw er
ult s
S pace
clud ed
Ġ} \
ĠS pecial
Sim ple
Ġp ages
est s
Ġf le
stand ing
il ing
dec l
ro ke
G C
pl ot
_ (
ex tern
Ġser ious
=" "
og ene
Ġm ill
Ġbecom ing
op ed
Ġtype of
ed itor
Col lections
Ġam plit
Ġab stract
M ay
por ation
ĠW al
ĠJ ava
w ords
Ġconf lic
w hen
n n
Stat ement
ĠT ri
Ġmur der
Ġsen ior
Ġf n
Ġsum mary
Ġaltern ative
N amed
ĠCent re
cri be
Ġstreng th
the me
ĠG ets
Ġen abled
Ġf irm
Ġf ine
Com par
Ġcomm ission
R oute
Ġdev ices
Ġstud io
ĠP op
Ġsem i
ĠH a
Ġp aint
ĠB re
à ¸
H S
ĠS ir
Ġin tr
Ġmain ly
h ar
ĠThe ir
Ġeff icient
Ġs ynt
ament al
Ex pr
Ġ+ \
iz able
) ^{\
Ġp iece
ST AT
Ġs outhern
F ail
g ers
Ġman aged
S che
em on
id x
an es
Ġcoeff icients
Ġh ydro
Ġcolumn s
nav List
Ġse asons
19 30
Ġver ify
ib li
ost on
Con dition
ĠEx t
F ailed
h ide
pre v
D P
form ance
Ġdown load
Ġs ociety
Ġspe ak
ĠN av
prot ected
b ury
t wo
IC E
ĠP ass
ch or
O pt
Ġtool s
sc ape
ĠP ath
Ġnor thern
Ġw ild
Ġthe me
m ond
ĠMan agement
Ġt x
Ġcontrib utions
ĠR h
Ġmaterial s
t w
Ġm apping
Ġs qu
pro ps
Ġc lick
Ġsub set
f x
ro le
b ut
Ġtr ust
196 4
Ġp ure
Ġadd ing
)\ ,
Ġscal ar
ct rine
Ġre q
ĠUS A
ĉĉĉĉ ĉĉĉĉĉ
Ġvoc als
pl atform
du led
S eg
Ġorder ed
ĠC a
col Last
ong s
< !
Ġr an
S ome
Ġh ar
Ġbound s
Ġdr ive
W N
k es
Ġf ill
G O
ĠIO Exception
Ġd etailed
Ġfact ory
ver b
Ġbr and
ĠHe ad
ĠL ord
ĠI l
d ialog
Ġent ries
plic ations
m ic
ĠB O
head ers
Ġv ary
Ġext rem
Ġar rest
D em
Rem ove
F S
Ġgu arant
Ġindic ate
Ã£ o
ĠEmp ire
par a
p refix
t ags
Ġe q
p icture
cre d
fr a
wrap per
ĠS ar
Ġs ector
Acc ording
) ">
c ircle
Ġrequest s
ĠH ash
M ut
Ġatt ended
Rep ository
f d
RE AD
li br
Ġcover ed
Ġac com
Ġsize of
Ġexpress ed
Ġv ac
Ġenc our
ell o
B B
il a
Ġle aving
go ing
Ġsign ature
ĠB oth
ĠComm and
ĠR o
ay lor
sh ared
Ġnav igation
V M
ĠSp ain
s ylvania
196 6
sub subsection
ĠE p
Ġnew sp
%% %%
col First
r ick
ĠS oviet
Ġstat istics
Ġ ice
Ġnumer ous
D T
Ġat tract
Ġh ospital
s ch
Ġ[ ],
Ġl attice
iv ery
text sc
ĠS I
ĠM ult
Ġsu c
Ġin come
Ġl ies
ĠF ree
ful ly
Ġmod es
at tributes
Ġpar allel
-------- ----
n il
Ġstr ateg
ĠB ul
196 5
Ġsur vey
up load
Pro ps
AL SE
Ġsim pl
ĠIn formation
ars ed
s afe
Ġbehav i
im s
ab il
ĠBl ue
ĠL uc
ĠJ ones
F IG
fl at
ĠInd ex
ul y
ĠP age
Ġcommun ication
ĠG reek
IN D
I ST
z en
Ġcoordin ates
s ys
Ġ" ,
Ġmag azine
Ġdep artment
n am
sk y
ent h
; }
() </
Ġfl ags
Ġintrodu ce
Con s
Sec ond
Ġr aw
Ġal leg
ĠR adio
Ġcall ing
Ġc ounty
Ġl ived
play er
Ġal gorithms
Ġtrack s
i ated
Ġp ull
19 20
ĠHistor ic
IV E
aw a
Ġpart ies
ĠĠĠĠĠĠĠĠĠĠĠĠĠĠĠĠ ĠĠĠĠĠĠĠĠĠĠ
for all
ĠSt art
im inal
Ġsh oot
Ð ´
ident ifier
j ango
Wrap per
6 00
Ġappro aches
Ġque ue
Ġs afe
Ġdec ay
Ġestim ates
Ġsuccessful ly
he tic
Ġrap id
ĠH on
Ġcit iz
Ġprov ed
Ġmeasure ment
pos s
10 1
u v
">< !--
Ġ$ $
ash ion
ĠSt at
Ġhelp ed
ĠL ie
33 33
Ġoffer ed
Ġexec ution
i ec
Ġsur pr
Ġ= ======
k K
oper ation
ĠDemocr atic
agon al
fil ename
Ġanal og
Ġb re
\! \!
am pling
T x
Y i
Ġre triev
Ġcom ments
on al
Ġcle arly
ul f
p at
Ġp refix
all classes
Ġrem ote
l arge
Sequ ence
pect ed
Ġpol y
ic ed
S ocket
Ġunderstand ing
t body
Ag ent
25 0
Ġp hen
Ġch annels
or ial
up s
j unit
prov ider
Const ants
ĠW ay
N T
Ġse ctions
ab y
z one
Ġsuc ceed
Ġachiev ed
Ġdiffer ences
ĠS outhern
Ġh usband
A U
col on
ĠT re
Ġhistor ical
Ġp p
Ġch ampionship
oc aml
Ġunc ertain
ĠB attle
tem p
e er
Ġl ic
ĠE lement
R R
Ġin variant
en ant
Ġad just
J Q
Ġorgan izations
os is
Ġdistrib utions
Ġeff orts
Ġw all
Ġinter pret
CHE CK
S M
Ġrepresent ing
Ġtraff ic
tr i
E V
if old
Ġresp ond
D epend
TH OD
gy pt
Ġr are
Ġcur ves
ĠTechn ology
z ing
c uss
Ident ifier
Ġal one
Ġse at
m I
Ġread y
Ġ[ "
Ġtri al
Ġin struction
p resent
Us ing
ĠC ard
ino is
ĠProv ince
ĠAs ia
ig ital
Ġpar ser
S ervices
ist ical
Ġo il
) _{
Ġp od
lo op
ĠIm age
ĠP rem
ĠEx ample
ra wn
tain ed
Ġd oub
comp iler
ĠM i
J ECT
Ġocc urred
Ġfore st
}^ *
. <
d iff
air man
ĠR am
B i
Ġr g
ĠJohn son
Ġview s
ĠL ab
Ġstart s
aw n
if def
f ire
Ġtrans formation
ys ical
Ġprot ect
Ġn ation
Ġpass word
Ġconstruct or
con n
flo or
il ib
Ġc ircle
pro gress
}) +
Ġth reshold
ĠIr an
r ons
Pass word
Ġm enu
ĠC P
Ġincor por
Ġsp ot
pect ive
Ġst ress
Ġr ailway
f i
it ness
s el
ĠUs ing
O e
ĠM ah
Ġabs or
d etails
Ġcont roller
ĠC ro
pm atrix
I A
Ġre asons
Ġmet adata
enn is
Ġh undred
) ^{-
s pecial
ĠC amb
z ab
S cale
ĠCon ference
Ġmet al
rior ity
p icker
urb an
ph y
ĠMich igan
eng er
end or
od d
ach ment
ĠU kr
Ġn ine
ĠB ow
T wo
Ġclaim ed
Com ment
et ic
ĠM any
Ġt rib
ĠBrit ain
C areer
C ast
Ġmult ip
s ime
od ies
Ġide al
el i
ff ff
ad ing
Ġtyp ical
b ro
ĠJ oe
R ole
ult y
Ġcon vert
Ġrelig ious
anc er
sime q
H ome
m ask
Ġfam ous
O UT
aj ax
atri ate
Cl uster
Ġsing ular
P refix
Ġf elt
Ġreg ime
Ġoper ating
Ġb lood
uz z
Ġg ap
Ġden otes
pe ar
ele ted
Ġsp irit
ĠRes ource
Ġl icense
Ġclaim s
and emic
Dom ain
Ġaccept ed
Ġ ],
d etail
$ ).
Ġp y
ĠPenn sylvania
Ġlabel s
n i
Ð ²
Ġpert urb
Ġlead ers
oun try
Ġis ol
Tr ace
Ġimplement ed
col lapse
f ixed
serv ices
Ġp lease
ĠCopy right
fe ature
ĠU I
A CT
ĠSt e
Ġp il
Ġs ales
W R
Ġcl in
ĠM ajor
Reg istry
) _
L android
ĠC ivil
TEX T
CE SS
ĠN AME
ĠOh io
Ġtr ace
ĠM en
Ġgrow ing
Ġex tr
.~ (\
ĠT H
ĠM icrosoft
requ ired
ĠWindow s
ĠD own
pl us
En umer
Ġeff ort
Ġr ail
? >
ĠPac ific
ST ATE
ub V
n p
ar se
Ġdr ama
ĠC y
N OT
Ġstrong ly
Ġth ous
( __
Ġdynam ic
S election
% )
ĠE con
Ġmark ed
Ġro ll
Ġrecord ing
ser ial
art icle
um es
err ors
us et
Ġd at
Ġpre v
up lic
Ġa udio
est er
Ul I
Y kK
c QL
JQ Yi
oi ubV
MN mI
tf Gu
YkK oiubV
cQL BJ
YkKoiubV tfGu
JQYi UlI
ĠR et
Ġp le
ud es
ĠP ak
G ame
iv ation
Ġhand s
Ġmat rices
Ġst ock
\ _
ĠComm on
ou ter
Ġc ensus
h ard
w all
C M
Ġevery one
in ity
Ġr u
YkKoiubVtfGu Oe
os a
Ġc ities
ĠB ern
Ġread only
stru ctions
m aven
Fil ms
Ġaff ect
Ġth ick
Ġb in
Ġar my
Ġc tx
ĠWilliam s
Ġautom atically
Ġallow ing
ĠPl an
Ġinter actions
ĠSec urity
u ce
Ġ" -
Ġdepend ing
not es
Ġcompos ed
re port
if iers
Ġun iversity
Ġstr ings
ĠSen ate
ĠM ov
Ġconf irmed
it age
\| _{
Ġgen us
Ġ= \
ĠG lobal
Ġachiev e
C red
) {\
LE CT
Ġel im
Ġredu ction
Ġo dd
per iment
ĠFrancis co
Gener al
Ġ{ {
us ers
ĠM essage
new command
es ian
. ");
Vis ible
and on
12 3
ur ies
Ġf iction
Ġreve aled
ĠO x
Ġlay out
Ġf ans
Ġloc ations
Ġveh icle
Gener ator
B AR
TI ME
ĠI E
B est
Ġpro xy
s uch
Ġmechan ism
f old
Ġrequire ments
Ġpart ner
Hel p
h u
od ec
Ġvict ory
C RE
pro du
ĠQue en
ĠT ro
C G
Ġdiscover ed
o ir
exec ute
group s
Ġint ended
$ $\
Ġle aves
Ġc amera
Ġf lex
Ġcol on
ĠInt eger
Ġext end
imit ive
Ġr ise
mo z
196 3
Ġm orph
com plete
gener ated
IN S
ch ain
Ġserv ing
196 2
O ST
ay a
F ind
Ġhyp ot
Ġex it
Ġart icles
IT E
D R
Ġle tt
ĠW ell
Ġdist ingu
Ġso ft
Ġk ernel
burg h
en able
ĠGeorg ia
Ġc ool
Ġmon itor
Ar ch
} )$.
ĠA uthor
f ix
ition ally
P layer
(' .
s en
Ġr ac
d one
Reg ion
Ã ±
ex pr
Ġdefe ated
ĠA mazon
{ %
sv g
ĠJer sey
Ġconduct ed
c hen
am az
ĠV an
rem ark
Ġ ).
Ð ¼
[ (
Ġsecond ary
EE EE
t ics
ĠT R
Ġtr ained
{ $\
Ġinterest ed
Ġo k
og en
Go ogle
sw arm
Ġtrans lation
nd ef
HT TP
p erson
Ġ ens
r im
av or
Ġlang uages
Ġneighbor hood
ĠC H
ĠRep resent
em y
8 00
Ġcont em
ĠCo ast
ĠP y
ĠB as
w p
en ers
g ame
ĠL ink
Ġopport unity
F in
Ġe lections
on to
Ġoffic ers
)\ \
at ar
Ġco q
' ));
Ġl at
N ational
el d
UR I
Ġfin ish
; )
L in
ĠA ff
ĠH ttp
ĠM ot
M R
Ġconstr aint
Ġsp an
ĠT ele
side bar
ĠCar l
TR UE
i able
il ly
T otal
Ġcost s
t ik
Ġsing les
s a
Gener ated
d ependent
Ġr at
Ġke pt
un ique
ĠW ater
wild fly
Ġdis s
ĠW AR
Ġob vious
h ref
Ġg irl
Ġm obile
Sum mary
B ind
ĠHT TP
ã Ģ
V D
ĠIs lam
se x
Ġfl ight
if ul
user name
log in
% ,
Ġang ular
ur er
ĠS and
ĠS i
ap os
cl uster
omorph ic
Ġd uration
) }{\
Ġcan cel
ĠH uman
12 5
ĠK r
Ġ? >
Res ources
ad el
Ġres idents
N odes
S ch
Ġfe at
w orld
ĠL y
Ġunder lying
M er
Ġiss ued
ĠF I
F low
RE S
}} ^
Ġlist ing
Sh ort
Ġst ored
Ġregister ed
en abled
1 10
Ġnull ptr
id el
Ġregard ing
al ing
ĠĠĠĠĠĠĠĠĠĠĠĠĠĠĠĠ ĠĠĠĠĠĠĠĠĠĠĠĠ
Ġspect ra
ot on
c ert
ĠK ent
__ __
Ġlim its
Im port
ĠA SSERT
Char acter
ĠD O
un a
st orage
Ñ Į
Th us
ellig ence
ĠR ay
Ġyield s
ĠGa ussian
, $
pon ential
e z
R PC
ble m
ĠB oston
Mult i
Ġsymmet ric
ap es
ĠRep ort
}} ^{
Ġu i
Ġpath s
on om
ĠIll inois
in valid
N amespace
Ġlog ger
ĠH arr
ĠAs ian
Ġst ellar
ag ers
The orem
ĠSe a
Ġdepend ence
ist ed
Ġcapt ure
Ġsupport s
agnost ics
Ġcan cer
ĠRequ est
Ġbr idge
Ġfore ach
ĠComm unity
Ġ rows
> ::
Ġass ign
prot ocol
Ġb illion
Ġz one
Ġpro min
Ġbeliev ed
IN FO
ĠAn y
ird s
Ġcon nections
Ġb ass
y o
Ġregion al
Ġro ugh
Ġsuggest ed
Ġen um
Ã ¢
ched uler
) ->
$ ^{-
Ġdep art
b g
ach uset
Pro gress
n odes
Ġv ectors
achuset ts
> \
ĠPhil ipp
P ER
Ġ' <
194 4
ĠM ake
spring framework
ĠThe atre
ĠJew ish
Ġp urs
in ion
Ġ ..
s n
ĠF acebook
Ġob serve
t i
Fr agment
U ri
ri um
ĠScot land
Ġattack s
=" $
od ot
ag ent
Ġs ister
)$ -
or ough
! [
e a
Ġexpand ed
Ġdeg rees
Ġc ultural
Ġf re
ĠEd ward
Ġoper ated
ix els
Ġdim ensions
Id s
index Of
Rep ort
am in
" ],
Ġsh ips
Ġrem ember
Å Ĥ
Text ure
ist ence
ĠL ittle
} &
trans ition
Ġlay ers
ĠN ight
s id
che ster
ĠL ight
Ġnu clear
Ġadopt ed
lo ader
Ġrot ation
Ġg ain
ĠLO G
Ġchar set
map sto
Ġj Query
v in
ul ator
Ġord ers
ĠB ecause
Ġfind ing
Ġflo or
p et
Ġsatisf y
E ST
uck y
ĠW he
Ġopt ical
Ġp icture
ĠPro cess
Ġadvant age
MOD ULE
Ġhapp en
Ġmin imal
196 1
ĠW all
Ġinstr ument
Ġpower ful
Ġf ru
L C
Ġcontin ues
ĠK ong
ate way
p u
IG HT
Ġpro port
Ġpro pos
Ä į
r g
B ound
Ġded icated
amp ions
Ġp et
ph as
lip se
ĠW ild
Ġinst ances
Head ers
ĠF C
L anguage
us form
Ġ il
numer usform
cd n
v ideo
b d
Con n
Ġdet ect
Ġdep ict
ĠB it
) },
it ted
Ġs quad
ĠL im
Sk ip
anc ell
Ġadministr ation
ĠE ven
Ġ Å
ĠL o
P ORT
g est
Ġapp arent
ir us
li k
ĠW eek
ord ers
ĠSup port
ĠPol ice
w ater
ĠE gypt
CT YPE
r an
Ġen v
Ġhead ers
Ġact s
as sembly
Ġtransp arent
Ġus age
Ġact ors
Ġtem p
f c
l aw
Ġnu cle
ĠC am
sim ple
Ġpret ty
S yntax
Ġide as
ĠJ r
ĠF inally
Ġag greg
U SE
Ġsett lement
Ġp seud
p ot
fl ag
ĠPol and
Ġequip ment
Ġge ometry
low er
ĠDes ign
Date Time
Ġd ebug
ĉ ĠĠĠĠĠ
ĠM id
Ġdes ired
ĠAnd rew
p attern
ĠD utch
Ġchem ical
ĠE st
Ġd aily
ĠOr gan
ĠC reek
{ "
ĠK en
Ġtre es
ch mark
ĠPr ince
Ġnear by
ext ension
Ġrefer ences
con v
' d
Ġd ict
Ġdiv ided
Ġcandid ates
) [
Ġmot or
ĠĠĠĠĠĠĠĠĠĠĠĠĠĠĠĠ Ċ
Ġcalcul ate
th row
Com ple
Ġhe at
hel per
pro position
Ġsh ut
Ġfr ag
Ġsh op
p ull
ĠC ustom
ĠBro ad
Î ±
l an
Ġmed ium
ĠJack son
ĠB ol
Ġnot ation
Ġacqu ired
ĠF ar
ĠGovern or
ĠT w
Ġpl us
G P
Ġtr uth
Ġst reet
Ġp aid
Ġconver gence
im ated
195 6
ĠSund ay
atas ets
pl ates
x s
Ġor th
ĠJ on
Ġstr ugg
- $
Ġwest ern
res ources
M ask
"" "
A rea
Ġp andemic
Ġf ish
Ġmass ive
ĠS ign
re pe
Ġc ook
Ġacc eler
ur ations
Ġtechn ical
al so
195 8
um my
f lex
( @
P air
Ġbu y
IT ION
Ġdam age
ĠPol icy
sem ble
Comp iler
- (
ĠH ospital
Ġtime out
z ed
Ġfunction al
L en
18 0
cle an
as ync
195 9
Ġtri ed
ĠA S
or i
Un ited
check box
Ġact ing
Ġshe ll
C B
unn el
cknow led
Be an
EEEE FF
Encod ed
Ġp al
e per
ĠRe act
Ġgener ic
ĠOr iginal
art ers
Ñ ĭ
St ats
T ags
Ġf reedom
() ))
Ġc ars
ĠSo ftware
Ġ ult
ess ions
S em
p b
Ġph one
Ġch ance
ĠSt an
å Ī
Ġexec utive
Ġl abor
Ġwe ap
ĠW ed
194 2
Ġwid ely
B rit
it ivity
Ġassert That
ch er
Ġsc roll
Ġtechn ique
Ġcom edy
Ġb undle
l ife
Ġexpl an
ĠC EL
bl ank
ĠRe al
ĠW in
ĠS QL
F LA
Ġimport ance
A re
p res
ĠJust ice
Ġdoc uments
ĠF inal
Ġv on
sc ill
Tr ansport
Ġfocus ed
ac ent
M ath
ĠL ead
dep th
Method s
Ġpr ime
Ġas ympt
in ator
Ġh our
ĠW is
PO ST
ilib rium
ĠJ es
un te
og ram
E ff
ĠCont rol
Ġfac ilities
Ġd og
ĠArray List
Ġad vert
c u
Ġc ov
ĠReg ion
Ġnot es
Ġchall enge
Ġend s
Ġaff ected
Ġassoci ation
ĠMass achusetts
Ġ&= &
ĠD ocument
PRO JECT
' (
est ic
b rief
pro xy
iss ues
Ġm d
Ġobserv ation
ab out
Ġbal ance
Return s
Ġlook s
Oper ator
test ing
s es
Ġqu adr
time out
Ġgalax y
S ort
m ma
s ocket
te en
ĠEast ern
ĠL atin
Ġj ump
Ġtw ice
et ing
Ġto ward
T ra
T T
ĠB ang
Ġcl imate
Ġconf irm
... </
tik z
Ġimprov ed
RE Q
amaz on
Ġro les
Ġdescri bes
Ġatt end
ĠF our
Ġphen omen
x html
194 8
Ġdes cent
Ġprim arily
Ġv en
Ġconsider ing
ĠS ports
et o
Ġeval uation
ĠOff icial
Ġfund amental
Ġgrad ient
OR TED
Ġyou th
Ġtop ic
(' /
bo ost
ĠS pace
DO CTYPE
H P
Ġtre nd
ict ures
\ {\
Ġofficial s
Ġprinc ipal
B L
Ġrest aur
à ¥
D b
Ġs ides
A ng
az y
(' #
sign ature
p ython
Ġpl ugin
p ub
B ook
Ġ( [
Vert ex
Ġb right
ĠDan iel
on ia
Child ren
Ġconc ert
Ġbe am
ĠCol lection
ri e
b ell
d k
ĠSt ation
ĠPort ug
Î ¿
Inter val
option al
Ġsubsequ ently
P Y
ĠR est
Ġres on
Ġtyp ename
ĠSecret ary
v o
LO CK
Ġfl uid
t k
act s
Ġmar riage
Ġex cit
ath an
Ġw arn
ĠColumb ia
Ġclub s
Ġcon j
ĠE nt
M ove
195 7
E mail
atur day
NavBar Font
ĠJ eff
L eg
ĠM u
Ġsche ma
ĠS D
ĠS om
con sole
A x
am ber
Ġrec ip
Ġdis pl
Ġoptim ization
ĠHamilton ian
op ic
ack s
ĠC A
ĠCh ris
æ ľ
s r
Ġpolitic ians
ch a
yd ney
$ ;
Ġ ];
un ities
Ġb uf
Ġm useum
ĠW alk
M iss
Ġp sych
Ġret ired
Ġlocal ly
Ġc er
Ġhe ard
am ely
v ol
ĠS ta
ap is
Ġturn s
zab eth
ron ic
ir ror
Ġdet ected
Ġmagn itude
Ġdis abled
Ġus ual
Ġcommon ly
Ġrepe ated
Ġs port
ä »
cre t
19 39
ĠB ad
Ġprof essor
Ġlaw s
epend ence
Ġc md
ro g
ĠF ire
Ġreview s
cc cc
Ġf ellow
Ġn p
Inst all
Ġ{ "
ĠRepublic an
ĠN Y
ĠCon f
Ġcompos ition
Ġdocument ation
ĠAnd roid
am ps
s pe
ĠF amily
S ports
ĠA ri
Ġprogram ming
print ln
DE BUG
St op
Ġt end
ide os
ĠF ederal
00 1
ak i
Ġj s
~ $\
R T
Ġfor t
Ġcon ference
od s
D ev
Ġsup ply
Ġs ust
Ġt ail
Ġpattern s
Ġsub stant
W est
DE FAULT
Ġout er
ĠT aylor
Ġb ind
Ġpl anning
Ġcom pl
k ens
Ġchang ing
Ġeff iciency
con str
Ġinteg ration
Ġcon ven
ĠS ource
ro vers
v olume
f ast
m ag
Ġn arrow
ĠTh ree
act ic
Ġspec ify
Ġdi am
VAL UE
mon th
EN SE
b c
ogene ous
App end
Ġsom ew
a us
ï »
Ġsubsequ ent
display style
Ġs ynchron
ĠB lock
Ġprov ider
v ing
ĠSc iences
ĠWil son
ĠP RO
ant om
ĠD ar
ï» ¿
ĠA re
Sh ape
Ġmed ian
Ðµ Ð½
Ġbeg ins
ĠMed ical
N C
Ġindu ced
Ġany one
ĠL ast
Ġcre w
check ed
id en
Ġdiffer ential
V olume
w arning
Ġrg ba
Ġag ree
n ic
out heast
ĠA sh
Ġh ole
Ġ" $
Ġpor tr
ĠA z
p ubl
R C
Element s
Ġapplic able
rit ical
}( {\
br ace
Ġm orning
ĠS E
195 5
comm it
se par
Ġign ore
Ġme ant
g oto
ĉ čĊ
Ġ> >
The y
Ġnew ly
h ow
Ġs ym
Ġfootball er
ch anged
eff ect
ĠE ND
t ar
Ġres olve
Ġpass ing
D elegate
ĠOx ford
fra structure
ou red
ĠB ell
Ġc orner
Ġs ell
F ORM
Ġarr ived
Ġc ult
} }$.
if ts
Requ ired
tr ace
Ġ ðŁ
ĠMus lim
D iv
Ġa ware
Ġscatter ing
Ġexplicit ly
ĠL com
Ġrece iving
ĠN ext
| _{
ĠH ong
ag a
Ġb oy
Fr amework
Ġcollect ed
Ġpur poses
}{ (
Ġperson nel
Ġperform ing
Ġas sembly
Ġcop ies
Ġposs ibly
Ġcapt ured
eder ation
gener al
ĠAl b
own er
Ġm eta
c les
ĠM ember
Ġ} }
Ġid x
194 1
l at
194 3
194 6
W rit
Ġexpl ained
ĠFurther more
t an
f ol
Ġbo ost
Ġsk ip
ĠBo olean
ap h
Ġinfin ite
Ġs izes
Ġwin ner
und efined
Not ification
f riend
eg r
z h
Ġle s
Ġo scill
ĠCon serv
En ter
Ġpred iction
Ġexec ute
oc cer
p ag
Ġear th
ĠBro ok
d c
if ndef
get Value
Ġphot ograph
Ġsol ve
Pr ivate
Ġfig ures
p ir
Ġtrans late
ĠB al
ist ing
Ġcont ents
Ġan imation
i Äĩ
ĠL ive
ĠIs lands
z ip
ĠN on
b asic
U nder
it ical
Ġhous es
Ġbe at
Ġ Ø
Ġsh ock
Ġc m
Ġtem por
ilt ers
pl an
F inal
ĠC ount
rop ol
ĠM ike
ĠScott ish
Ġac comp
Ġplan et
' ];
195 2
Ġl ie
dist rib
ĠJ ean
ĠH ung
ĠA ccess
ĠAn other
cl one
ĠP en
y br
ĠS em
F ree
libr ary
Ġsuggest s
is er
Ġcoordin ate
support ed
ĠIn put
w t
ĠM aster
Ġcoun cil
Pro gram
Ġlearn ed
Ġprote ction
clos ed
Ġd ie
M ouse
Ġwhere as
Ġdecl ared
ig a
ĠT witter
Ġall Classes
ĠVal id
ĠÐ ¿
ĠN AV
enn es
ĠF und
R S
Ġin nov
Ġd ialog
Ġtell s
be an
Ġcomplex ity
se g
ĠA li
Ġadv anced
Ġorgan ized
Ġs yn
Ġcustom ers
Ġpre par
ĠallClasses Link
Ġtr ail
INT ER
Ġexpl ain
Ġes cape
^ ^
Ġ[ \
ĠA M
ĠAL IGN
Ġinc ident
W ait
if er
Ġv acc
Ġreserv ed
nt ario
Ġrem ark
Ġpro ps
or ient
Ġsex ual
ĠS pring
} }$,
ID TH
ĠR ailway
Ġepis odes
Ġphys ics
R elease
Ġinst ant
} )$,
scri be
Ġeval uate
ĠCor poration
Ġt al
. ",
194 7
Ġan cient
view s
Ġg ather
er ence
Ġinvest igation
I gn
S m
V ir
W allet
ĠGu ide
comp ile
195 3
Ġdest ination
An imation
Ġscen ario
y cle
Ġm iles
âĢĿ .
ul i
h olds
ĠAN Y
se q
set up
Ġt mp
S cal
m ass
^{ +
G N
Ġrecomm end
ĠKore a
ĠB a
F N
ass andra
ater n
g lyph
ĠV ector
reate st
Ġcl usters
th ur
Ġ" ",
Ġem phas
Ġearn ed
Ġse ed
B egin
ĠGu ard
ĠR os
clus ions
Ġb ill
down load
L imit
iec es
on av
olog ist
Ġlead ership
Ġtheore tical
Fl ag
Ġacadem ic
Ġ ener
SC R
Ġveh icles
M usic
Ġr ich
Ġpol icies
Ġman ner
ME THOD
Ġtr av
ear s
ĠAp ple
; ">
] }
'] ['
Ġecon omy
av it
M any
tr im
195 4
Ġa wards
ĠSI ZE
En vironment
Ġlarg ely
S ur
Ġc ategories
at omic
" ].
Sh ould
Ġwe ights
ĠM ond
Ġad m
on ce
ry ption
c li
Ġ era
an th
Ġcitiz ens
Ġpl anned
cre ated
Ġcon clude
Ġb udget
is a
Ġspe ech
ĠS us
ĠM ic
D ictionary
ress ed
ult ane
2 13
as m
an try
L INE
Ġca uses
Ð° Ð½
res olve
ch art
Ġalong side
ĠAd ministr
ĠR om
ĠP ers
Ġfeat uring
Ġdr iving
Ġb log
exp and
ĠProf essor
L ook
i Ã³n
con g
ele d
Ġconv ex
ĠW ho
Ġcon vers
Int roduction
ĠR og
Ġfif th
ĠAlex ander
Ġgraph s
G ER
Un iversity
TR Y
ĠVictor ia
Ġres et
ro ute
Ab out
s lice
Ġag ents
Ġfac ility
End point
ps on
ĠChrist mas
ĠBer lin
Ġval ign
ĠG ar
Ġcover age
ag g
Ġcon figure
S ql
F inally
Ġfr agment
ER E
S creen
t c
Ġemploy ees
U D
ĠV ill
Ã ¸
VAL ID
b ec
Ġcomput ation
ev in
ys ics
Ġwas n
L iteral
ap ol
Ġs y
Ġport ion
act ivity
Ġk ill
C ard
c atch
m ouse
att ers
) +\
ymmet ric
| }
Ġind eed
Ġb atch
ĠAb out
put er
Ġhon or
ĠR en
ul pt
Ġ' '
p air
Ġcontrol led
our se
Form s
nes ota
Ġp itch
ĠIn ternet
Ġsu itable
b atch
on omy
Ġ ion
W ORD
Ġinsp ired
US ER
re lease
Ġtransfer red
Ġcalc ulation
object s
w d
( .
ĠB and
N ormal
Brit ish
ap y
agnost ic
(" /
B I
ĠE ner
os ity
Ġsum mar
Ġcalcul ations
Ġcr ime
Ġaud ience
ĠĠĠĠĠĠĠĠĠĠĠĠĠĠĠĠ ĠĠĠĠĠĠĠĠĠĠĠĠĠĠ
Ã¡ n
F E
h bar
ĠTr ust
Ġpro jection
Ġprov ince
re lation
Ġlist ener
ul s
Ġin ject
ĉ ĠĠĠĠĠĠĠ
Ġmass es
s ync
ĠA k
ĠIn f
ĠP M
g ency
Ġcons ult
ost er
plement ation
ĠOb serv
S erv
Cl oud
ire ment
Ġvalid ate
Ġe yes
Ġadv ance
$ ~
ĠCon nect
G A
Ġconst ants
Ġph oto
d atabase
Ġpl ants
Ġinput s
Ġscal es
S V
N ov
194 9
ĠL ater
ĠA rea
Ġem b
D ay
Ġ' \
im b
ĠL ag
v als
method s
Ġsol ar
Ġb its
CO MP
ĠApp end
In ternational
ĠStud ies
or ney
ĠPl aces
Ġc row
Ġa head
ap ore
U K
Ġuncertain ty
Ġspec ifically
Ġfe et
ĠC at
el come
Ġc ursor
ar ity
Ġvalid ation
Ġop posite
ĠS earch
G R
Ġrec all
un es
ĠH om
ĠC ase
C ur
Ġh uge
ĠPr ime
sc ss
J oin
Ġprinc iple
ap ed
ĠSup reme
Ġw ants
ĠS ydney
En v
Re al
p ur
Ġcharg ed
Ġfind s
ipp ing
ĠL ew
Event Listener
******************************** ********************************
C r
Ġre ality
Ġinvolv ing
ĠNAV BAR
Ġdr ink
Q U
Ġfund ing
ok ed
ĠH ard
s ig
Ġt sd
Ġaddress es
pol y
B inary
EL D
ub ble
y y
P M
Ġb ands
an z
Ġ$ |\
Ġconver ted
F ore
) -\
.... ....
LO C
) --
Ġ_ .
Ġaccur ate
iv ated
ĠAir port
c rypt
ĠR oute
S ave
over view
Ġdepend encies
A ustral
Ġd ance
Ġreturn ing
Exec ution
AN CE
ĠB C
Ġe lev
im m
B asic
s at
Ã© e
Ġdestroy ed
r uby
ation Token
Ġs un
qu ote
Ġtre ated
Ġrequest ed
ĠMin istry
Ġp erman
Ġth er
ĠC ur
b log
pre p
Ġgrant ed
MO DE
æ ĸ
em pt
Ġtherm al
Ġamplit ude
RE G
h ab
rel ations
it led
Ġat mos
are st
Ġpolit ics
f actory
L ower
ac cept
i ant
A li
vert ical
ver ter
Ġbusiness es
% "
Ġs an
ĠR ail
ip age
Ġsubstant ial
ĠCh annel
ĠBe ach
not ations
am el
d ash
dest roy
R aw
ĠF il
ĠF ind
Ġs and
Ġsurround ing
em an
Al low
ĠR ights
Ġp ra
our ney
ĠAd v
rel ative
Ġex ceed
Ġvari ation
C apt
w atch
run time
Ġrob ust
) )$
ĠK enn
j oint
Ġh ockey
Ass ociation
Ġfl uct
Argument Exception
s ome
ĠPol ish
ĠS a
us hed
pol icy
el ly
$ ),
Ġper haps
195 1
select or
ĠG ro
Ġjob s
Ġdo or
con sin
F amily
ierarch y
Ġd ot
in herit
att al
ĠBel g
le ts
sp irit
Ġad min
eg o
Ġcomput ational
ph ia
Ġscal ing
Ġdevelop ing
The me
poss ible
M ake
ic er
Ġind ices
onav irus
il bert
c ounter
mer ce
S G
ĠJac ob
Ġanim als
h ave
tr l
col l
ze ch
g if
ĠB on
Ġf resh
Ġload ed
ĠF air
c are
vis ible
OR Y
Ġteach er
ĠB BC
Ġengine ering
or igin
con structor
less sim
Ġtro ops
ĠW rite
ĠI V
ile vel
Ġserv es
Ġeast ern
F ocus
ĠA venue
Ġtr ivial
ann a
c ref
ed u
ĠOlymp ic
ĠR od
ĠD ir
ĠPro perty
f all
Ġbro ken
19 18
ĠD er
or row
ĠAp ache
ĠEli zabeth
ĠC lient
Con nect
ĠSh ort
M IN
per m
ether lands
C ALL
Ġc e
Ad min
Ġmunic ipality
ĠFr iday
bu ilt
istrib ution
Ġup dates
ĠF ollowing
Ġbase ball
ĠCor ps
Ġscient ific
ĠArg ent
N V
ĠV ari
ĠTor onto
Ġemploy ed
Ġinstit utions
Ġhe av
Th erefore
Ġcon vent
iven ess
w orth
P y
: =
H C
Ġs pring
cuss ion
W arning
us al
: }
}$ )
valid ate
Ġcharacter istic
Ġcon sec
ty pen
k t
Ġm om
L SP
m n
A udio
in er
Ġr ational
ĠUn ivers
adel phia
7 00
P UT
r ank
, '
min ipage
Ġapp lying
Ġbenef it
Ġst ability
he im
ĠT ok
ul ing
Ġs ys
ĠL ike
in son
ĠP erson
Ġa thlet
Ġenvironment al
ĠCol l
ur ance
Ġf ashion
ĠC art
ĠO s
ĠS elect
Ġpat ient
Ġdis crete
o or
int eger
ĠX ML
Ġp m
ind u
con struct
Con stant
N R
re ce
Ï Ħ
Ġb inding
ĠN E
ĠS ong
Ġexper i
/ _
Ġappear ances
12 7
Ġtrans mission
: [
S outh
Dr iver
ist ant
Comp at
Ġest ate
ç Ķ
Ġextrem ely
Ġbr ain
r ift
Ġg rew
J an
aps ed
mer ge
t ensor
ou ri
bour ne
}{ |
ĠEn vironment
Ġex erc
ir ation
ĠV iet
P ubl
cal endar
Ñģ ÑĤ
pl ane
face book
Ġsil ver
ĠK ir
Ġam b
Ġh or
tain ment
Ġcomp atible
ĠN a
Ġcomplet ion
Am ount
Ġs aved
Ġc atalog
T F
ra ham
z o
ĠS uch
Ġ{ $
ad ed
Valid ator
pre c
Ġd ust
Ã º
Over view
V E
ill is
ra q
arr ing
Ġc art
Ġcon n
Ġsold iers
Ġopt s
% .
N ative
iss ue
ĠT am
Ġelectron ic
H ub
o es
Ġsk ills
typen ame
al gorithm
Ġdecom position
y ard
ĠO S
IO Exception
Ġsequ ences
NS String
Un known
Ġ rom
ex it
Ġrecogn ized
iffer ent
Ġobject ive
å Ĳ
ĠO ntario
ĠH un
ĠA D
Ġex ponential
Â °
Input Stream
Ġre action
ĠN et
Ġnewsp aper
Ġsupport ing
b at
ur able
ĠB oy
/ (
pre d
ĠH as
b p
ĠOption al
pl er
[ -
Ġpol l
el astic
ele m
B M
19 36
Ġhous ing
Ġsepar ated
vari able
å ®
ic ator
Al though
Ġ" ";
H L
Ġexec uted
H is
# {
/ {
ĠSt eve
es ome
Ġle mma
E st
Con sumer
Ġphil osoph
Ġp ieces
Ġcirc um
Ġbehavi our
Ġsatisf ying
br and
Ġ\ "
Ġmod ules
Ġtyp ed
cre ens
Ġtit les
ĠB et
ĠS pe
ask a
Ġhe ar
/ "
const ant
ĠV en
Ġcol span
Ġrecogn ition
Object s
Ġpromin ent
) }_{
ort heast
trans action
re le
D etail
ybr id
ĠS ant
Ġb urn
f eed
u ity
( --
Pl atform
is is
ĠC urrent
dr iver
II I
g ies
pp ing
ĠAn th
sub mit
ĠT erm
Ġattempt s
Ġhapp ened
Ġden oted
D ATA
ĠN C
Ġm ys
Ġl ists
_ -
Person al
="../../../../../../ ../
hav ior
is Empty
d ing
Serial izer
ĠEner gy
ĠF ROM
Ġtra ject
ĠS ets
Ñ ĩ
kw args
Ġap pre
Ġli ber
ext end
An notation
: `
Ġconstit u
Ġentire ly
Ġab und
Ġfund s
Ġdec or
=\ "
() ),
l ab
F P
Ġent ropy
ud a
S W
Ġr ain
N ET
Ġconflic t
ĠS aturday
w ing
'] );
? âĢĿ
Ġex cell
Ġg lass
Ġun able
ĠP os
Ġal ert
Ġ' ';
Ġbi as
Ġgu ide
Ġsol o
AN T
Ġviol ence
uff ers
M ag
ĠK im
ĠR ome
Ġs b
ĠM ock
ĠW rit
ibr ation
ĠT y
Ġcl ock
and o
ĠS at
Us age
Ġp owers
Ġw ish
ĠS che
atter y
Ġtest ed
eli hood
> )
op her
_ );
Ġhistor ic
al gebra
ORD ER
ĠW at
Ġstat istical
Ġinj ury
ap se
s quare
Ġb ow
Ġkn ew
19 38
Ġc overs
des ign
Ġindic ated
Ġprom oted
Ġpredict ed
function s
Ġex pert
Ġcoeff icient
ĠS ym
sh al
Ġcr iminal
ord an
Ġd ire
Ġde ploy
ĠRes ponse
Ġassist ant
Ġdef ense
Ġmet rics
Ġind ustrial
Valid ation
res ize
Ġin verse
SE LECT
Ġap ilevel
d uration
assert True
Con structor
Ed ge
Ġmin ister
Ġmod ify
M icrosoft
ĠDes cription
Ġent r
j d
Ġinter pre
0000 00
ou rier
ĠL ind
Ġt ags
Ġv otes
Ġposs ibility
å ħ
a ired
Ġsup erv
ĠL ady
Ġbenef its
e en
j an
p aper
d ig
A nt
Ġr ural
ret ch
B inding
Ġd anger
Ġhost ed
j et
h box
m essages
is ely
ĠS C
i y
ĠBook s
ĠW IT
al ert
os ed
ly wood
Ġ à¤
Pro to
Ġdef end
reg on
Ġco inc
Pre v
ĠS anta
ï¼ Į
Ġacc ident
Ġaspect s
Ġc ert
Ġsm art
Ġag ric
Ġrepresent ative
F older
per or
col lect
Ġmer ge
Ġbul k
Ġcred it
P ers
mem ory
ĠPak istan
ĠâĢ ¦
ades h
ĠRec ord
rop ical
&= &
opt s
Ġstand ards
Ġsufficient ly
= [
Ġf ell
Ġl umin
St atic
"/ ></
Ġsp ac
Ġf mt
Ġn arr
ĠF ox
ĠD B
is or
ct ic
L ight
Ġcont rovers
Ġauthor ity
onym ous
SS L
w eg
ĠH o
includ ing
F UN
Ġlett ers
an imation
}} )
Ġn amely
Ġdro pped
getElement ById
w ill
Ġgener ator
og y
ur st
av ailable
ĠAmeric ans
R ate
qu ant
ĠP R
! "
Ġperm ission
)) \
Ð¾Ð ²
Ġclos ely
ĠR ow
ĠMin nesota
Ġs ql
Ġadministr ative
ĠEngine ering
ĠR aj
ĠR a
ĠDE FAULT
Ġl y
Ġre str
om atic
Ġcharg es
P res
ĠUn it
high light
Ġsign als
ĠP lease
int on
Ġhapp ens
Ġ_ ,
ĠM arg
for Each
k h
s ym
Ø ±
evelop er
it ter
Ġor bit
Ġvis ited
r adio
an aly
ĠKore an
S ources
ĠC are
Ġli qu
s ent
Point s
Ġel if
Ġd rawn
Set ting
Ġsim ultane
dis able
ch ant
Ġmount ain
Ġinter section
U C
pro gram
Ġfeed back
ast ers
On ce
F act
Ġ" %
ip les
Ġhold ing
Ġfa ith
U ES
Ġradi ation
Ġp ub
par agraph
E p
ing ly
ĠV ideo
et es
ĠN iger
Ġf an
ĠWis consin
pro b
W ord
B Y
ĠC ub
j ack
Com plete
Ġlink ed
Ġcon version
ĠW ars
n ight
Ġecon om
enc ing
ĠSt atus
Ġinvest ment
ĠQue ens
ser ies
Ġin vent
Ġperm issions
nav igation
r ang
Ġcontrol s
Ġdisplay ed
BP ACK
ĠC EO
] $.
ĠS ab
Ġs ampling
Ġexplan ation
Ġsubject s
C LASS
Ġ urban
Ġdec ades
ĠAnt on
per ial
Ġintrodu ction
ĠDes pite
Ġw arning
Ġcan onical
Ġsatisf ied
Ġconsequ ence
Ġofficial ly
ĠL ear
Ġop acity
grad ient
19 37
comp are
PH P
plic ity
Ġident ifier
Ġb ug
Ġse ats
In sert
is set
re du
Not Found
Ġcomput ing
ĠO N
ik a
ĠN ations
ĠN ative
Ġin n
y al
^* $
ĠS on
Ġwe ather
igh th
Ġsp ons
ak h
por ate
Ġinvestig ate
qu arters
ĠIn vest
Ġgu ard
Ġf ee
19 17
Ġb ed
! \
Sh arp
Ġident ical
ĠC ore
Ġ' ./
w ig
Ġthan k
T ax
Null able
Pl an
Ġst ats
sp acing
lic ense
P D
Ġsche duled
Ġr ig
ĠSt andard
w arn
Ġcommit tee
Ġselect or
u y
Copy right
Ġc old
Ġinter ior
Ġrel ax
Ġconsist ing
ag en
Ġex pos
) }}
Ġpay load
yst al
Ġdef ines
ĠN etherlands
Ġatt ached
Ġh ers
ĠL es
Ġmusic ians
D av
ĠL at
ig ate
ow a
Ġunder st
Ġsec ure
Ġcli ents
Ġpublic ation
Ġcar bon
ĠE th
Bl ack
ĠF OR
Ġaff ili
Ġauthor ities
/ .
ĠL abor
M s
spec ific
t witter
nes day
Ġe le
sl ash
ĠPro t
H tml
Ġfil led
Ġcol ors
Ġload ing
ĠCoun try
Ġcustom er
Ġa st
ut enant
}) }
Ġw itness
Ġv ent
ĠH ay
ĠCh ange
Th row
ĠPrem ier
A I
Ġchalleng es
n ative
Ġd atasets
ĠC as
Ġcomm ands
arg uments
Y Y
CH AR
ĠCamb ridge
Res olver
um a
Ġcompet ed
Ġperform ances
ion e
s b
ig gs
s heet
F n
Ex port
ĠG iven
Ġnav bar
resent ation
me an
Ġfrequ ently
Pro of
stand ard
Ġv ess
ĠO t
if ted
B en
dep recated
Ġint ensity
Ġco al
est abl
Q ual
Ġcol our
ĠP ay
STR ING
ĠAp plication
Ġtarget s
Ġprom ise
Ġend ing
ĠPri ze
T ele
Ġs ending
× ķ
ĠReg iment
Ġinit i
Seg ment
Ġm ach
19 19
Ġf aster
log o
$ :
ak ed
scal a
Ġr aces
O F
f mt
B al
sub ject
st ates
sequ ence
Render er
Ġp ref
Ġdr am
D IS
clud es
it ative
Ġref ers
ce st
ĠSt ock
Ġprec ision
f etch
RE E
B el
ff f
\ }$.
ron ze
Ġh abit
Ġresult ed
to Be
ĠM E
Ġcontem porary
her ent
ĠL oad
S ite
Ġc as
ĠB ru
plic ated
Ġtrans actions
an ches
ĠL td
Ġadv oc
os es
f b
> "
." ""
ĠL anguage
Sign ature
pl oad
Ġstat ements
Ġ@ "
ĠD oug
Î ¹
Ġh orizontal
Ġc ab
LO W
Ġproper ly
Ġw ire
Ġe ye
ĠRev olution
Map per
zon a
AR N
Ġprior ity
ail ability
We ight
Ġwin ners
Ġnot able
Ġprep ared
ĠT ai
rupt ed
Ġsc ulpt
Ġs leep
Ġcan cell
Ġst yles
ĠOn ce
UM M
ĠA T
Ġf uel
math op
C ONT
s un
ĠT urn
Ð ¿
ever al
c ue
ĠC G
Ġequ ilibrium
Ġext ent
Ġext ensive
66 66
Nav igation
R out
Ġd ream
rop ic
Ġexpress ions
ov al
ĠD or
Ġappro ved
IN ST
ĠRem ove
Ã ¥
Ġrun time
Ġprom pt
Ġthe ories
fol io
an ia
G iven
ok es
Ġcharacter istics
qu es
out s
Rem ote
ph ase
ER S
Str ategy
Ġrad ial
ob serv
Ġadj acent
pr ise
Cle ar
big l
i em
ĠM ir
Ġrepresent ations
WE BPACK
em et
Ġch ampion
Ġdepend ent
ĠIl legal
che stra
m k
}} _{\
L Y
Ġintegr ated
Ġ ig
SCR IPT
19 35
ĠTr ansport
sh op
Î ½
ĠH an
AN G
ĠG er
ĠB all
/ ">
p ages
ul ating
Ġpay ment
A bs
Ph one
ĠDav is
t p
ĠDu ke
á »
Ġeffect ively
Ġest imation
Ġ' ',
ang a
ĠFore st
Ġar ms
P red
reg ular
ĠG reg
isl ative
ĠL ay
ma k
Ġmat hemat
Ġexpl o
ent ed
i per
F ollowing
Ġte aching
Ġconcern s
D en
ast y
ĠSing apore
W atch
IMP ORTED
Ġs ale
ĠB udd
new s
J ust
Ġm el
ĠD C
}[ \
eng ers
Ġcirc uit
Ġm yst
ĠB ox
ge o
Ġst ores
Ġcheck ed
Ġgrad uated
Ġmod al
P ower
ic ing
f p
ĠL java
ĠĠĠĠĠĠĠĠĠĠĠĠĠĠĠĠĠĠĠĠĠĠĠĠĠĠĠĠĠĠĠĠ Ġ
: @"
Ġmunic ipal
ĠS M
Ġlow est
ly n
In formation
Ġprom otion
ĠB at
Ġw ing
Ġtem ple
Ġv ot
ĠStep hen
tool tip
C ursor
ing ham
ell ite
um ps
ibli ography
enn a
Depend ency
Ġre form
Ġhel ps
Ġwait ing
ic ian
\ ;
et al
Ġal ter
Ġbel ief
get Id
u ating
Sp an
ennes see
DO M
Ġop inion
ass ign
ĠK al
Ġg irls
Ġmax im
Ġar c
Ġmay be
ĠAb stract
ĠG ree
neg ative
c fg
Ġ" .
ĠPhil adelphia
Ġfail s
M ost
19 00
Ġar ts
Ġfav our
comm ons
enc ode
et ies
ĠD A
Add r
Ġm ist
B atch
Û Į
ab ric
Test Case
Ġexpl ore
big r
19 14
P od
Ġaccount s
ĠG P
Ġlook ed
] $,
se ason
ĠAg ain
can vas
Ġhot el
ĠL ow
it i
Ġf ake
Ġl osing
Ġend point
Ġab andon
load ed
Ġpurch ased
ĠMond ay
ĠE very
19 33
Ġprote in
10 5
Ġcamp us
V AR
Ġsche dule
ĠWAR RAN
ĠI raq
Col l
d ark
ordin ate
Ġcompos er
Ġs ync
ĠH al
Ġre named
ĠCl oud
ĠE ver
Ġp ixel
ĠC ond
ĠBr idge
Ġtri ple
ĠC orn
âĢ ĺ
Ġm al
ĠD am
ĠSt adium
Ġlog ic
Ġw arm
a udio
Ġd iver
ĠSim ple
ä º
Ġ ing
Ġderiv ative
ĠG re
con nected
ĠGold en
D M
ĠSt ream
ob s
Ġassum ptions
pt ic
Ġg ained
Ã© s
Wh ere
ship s
I AL
Ġm igr
Ġfight ing
im p
T ile
, .
Ġthan ks
Ġvers us
al ink
ĠT al
re act
Ġp ipeline
DE F
Decl aration
An other
Ġbig gest
Ġm ouse
D irection
and y
Ġquant ity
Cont act
Log in
ateg or
" },
Ġequ ality
m oment
RE D
Ġne ural
urs day
A SSERT
ĠC ost
Ġm o
.* ;
,\ \
Ġenc ounter
Ġpre ced
ĠColor ado
d on
Ġj et
load ing
ut s
j Query
put ation
Ġconsum er
Ġlog ging
Ġindic ating
Process or
i ations
ĠW inter
Sh ift
Ġm and
ues day
V ICE
ĠTh rough
> ;
sd k
ele ments
read er
Ġst one
he t
ound ed
ul us
Group s
Ġ' .
ĠF ull
t le
Ġmax imal
M aterial
OP T
ten ance
ex tra
Encod ing
Ġre verse
Ġc riteria
N UM
er os
gener ate
Ġ\ ]
Ġlimit ations
ĠE P
err ing
an alysis
ĠInd eed
Ġs ocket
bind ing
ĠL ic
se lection
L emma
Ġca ref
ur ches
Ġpres erv
Ġv ideos
Ġcover ing
ari os
ĠCont ent
hed ral
L ibrary
Ġc odes
e ast
Ġcr isis
Ġhers elf
at iv
Ġpe ace
Ġgu est
AR D
Ġyoung er
Ġneut r
ĠD eb
Ġterr itory
en ess
E val
P ack
un ing
Ġ' %
Ġfound er
av al
Fail ure
Err ors
Ġocc asion
Ġdefe at
ĠMc C
ar ry
Ġbeaut iful
Ġap art
Ġtri p
requ ency
? "
C md
empty set
B ottom
Ġdr ag
ibr aries
ä ½
Ġn a
D rop
direct ory
Ġcov ari
u j
}} .
; |
ĠW H
inal s
âĢĿ ,
p id
m ad
ĠD igital
19 34
LE D
L i
Ġd x
Ġmov es
ĠR ad
ĠBr ad
p in
19 29
Ġh air
AT ED
Ġcontr ad
Ġembedd ing
k top
}} ^{\
Ġm arg
Ġpredict ions
emet ery
Ġexp atriate
ĠSt ory
, {\
c ross
Ġpartners hip
ĠO regon
v ect
ĠSwed en
F rench
t iny
Ġconf idence
un ately
m x
ĠB efore
elli j
Ġmix ing
ĠC R
ĠA thlet
Ġpro test
Ġhouse holds
] ))
ĠSer ver
ĠAd am
ĠA ge
ver age
st age
c ow
ĠN orm
ĠSwed ish
vert ex
Î µ
ĠI R
l u
ĠR on
per iod
p kg
Ġsuff ered
) ",
ĠMount ain
Ġed it
ĠChild ren
Ġv ice
Ġex ports
ĠS H
Ġ" >
al ias
19 28
Ġb odies
Draw ing
Ġdi agonal
ant asy
Ġcre ates
ĠW IDTH
B ool
U ST
ong o
ĠO cean
cl ine
HE AD
t z
ĠJ oh
weg ian
attal ion
tr ivial
r f
ĠG allery
om ot
ĠL ang
ĠStr uct
d irection
ord on
T ube
Ġdefinition s
= $
de ep
}\ ,\
ĠE ric
ĠW el
int ellij
Data Type
UN D
riter ion
Ġiter ation
Ġp ed
Ġ ^{
Ġt urb
ĠE ll
F M
Ġdo ctor
Ġ> >>
Dep th
Ġv ision
cod ec
ĠâĢ ¢
ĠF ord
Ġ< -
er al
ĠM ill
Ġtemper atures
G erman
Ġparticip ants
ĠOper ation
Ġa w
ĠĠĠĠĠĠĠĠ ĠĠĊ
h d
Ġst uff
com b
St ar
b lob
Ġk ick
Ġjud ge
Ġneg ot
par allel
S ame
ex pression
Ġparticip ated
Ġpurch ase
Ġro ut
Ax is
g p
ĠConfig uration
ĠD elete
AC H
Ġag ency
Ġdisc rim
n ob
Ġnecess arily
ĉ ĠĠ
AT OR
Ġy ellow
Ġcommit ted
W in
b us
le ton
19 32
ĠĠĠĠĠĠĠĠĠĠĠĠĠĠĠĠĠĠĠĠĠĠĠĠĠĠĠĠĠĠĠĠ ĠĠĠĠĠĠĠĠĠĠĠĠĠĠĠ
Ġrecomm ended
i pher
13 0
INS ERT
amb ig
Ġan imal
Ġp iano
Ġstand s
ĠVir tual
k ish
Di agnostics
re pository
anch or
ir th
Ġpro to
ĠInst ead
Met rics
cont ents
Ġhypot hesis
Ġst orm
Id entity
Ġcont est
Ch rist
add ed
Ġb omb
Ġad vent
os l
Us ers
force ment
Ġprec isely
1 15
ĠP C
Ġt aught
Ġfac ulty
M essages
Con sole
ay ed
è ¯
Ġs pher
t ouch
ĠR ight
Ġw ins
ĠBuild ing
Ġhand ling
ĠB ishop
ĠN az
, ...
Ġsee k
Ġpers pective
A E
Ġtown s
Ac cept
Ġd ense
ĠH ou
act ual
v ature
ge br
she ll
bm atrix
Pl ot
Ġman ifold
Ġb at
Ġw onder
19 10
ĠOn line
Ġpass es
S F
Ġin fer
ĠM oh
Ġg one
S ol
Ġsc r
iv acy
Ġn ob
writ ten
w i
ĠK ansas
ĠH art
ĠAppend ix
ropol itan
Ġthink ing
ĠS quad
Ġmin ute
ĠT oday
itor ies
g i
MA P
mit ter
A ST
ĠR ose
Ġd oll
valid ation
ON G
avel ength
ac r
AS K
C enter
Ġ ri
Ġarr ang
long rightarrow
å ¤
ĠT err
Ġs ud
iz ers
ĠL ev
Ġstop ped
ĠRes ult
Ġp apers
ick ets
Ġa ria
Arg uments
ĠM it
ach er
W arn
repe at
ph ony
Ġclass ic
och astic
re ll
ap l
ĠLew is
ĠIndian a
iv als
i ota
Ġphot on
R andom
ĠSta ff
Ġinitial ize
ic ular
10 2
Tim er
ĠP ython
ph rase
Ġopport unities
Ġir on
Ġpract ices
Ob server
Ġgr avity
ĠIN TO
ĠAtl antic
lic enses
ag an
"> (
Ġult imately
Ġex cess
R ot
Ġw inter
v ard
h ook
Ġthous ands
Ġdel ivery
19 22
Ġeval uated
d frac
ĠV i
ĠInd ones
go od
\ )
ĠMiss ouri
ĠPr inc
ĠBr ig
CON FIG
U V
1 12
] {\
ĠM un
in os
Ð ·
Ġgovern or
ĠC SS
ist ogram
rem arks
Ġcorrect ly
ĠFore ign
Ġ{ },
Ġgener ating
UMM ARY
B ounds
Ġarrest ed
ad oc
ate ver
Ġeas ier
Ġnon linear
ĠC hen
( ['
Ġh op
3 60
h al
Ġrough ly
ĠPhilipp ines
Ġ$ _
Ġpract ical
ĠS ite
head ing
h ot
Pre vious
w ik
Ġoffer ing
C ent
Ġsc ores
ens ities
St andard
O ct
Ġimmedi ate
Dep recated
d am
Ġor b
view port
m ac
Pro f
ĠBy te
el le
Ġy ards
Ġdis p
R ob
ĠĠ čĊ
Ġvari ance
T Y
Ġb old
Ġsk y
Ġw a
Ġg ene
ak ers
Ġder ive
$ _{
Res et
Ġd ates
Ġinter act
Ġh all
ro ph
Ġdis ap
ĠM iller
Ġc ub
s peed
P lease
t frac
;| &
c lip
C ounter
ĉ ĠĠĠĠ
Tim estamp
L ife
Ġth in
Ġst ages
Ġrec ru
Ġclos er
ĠTur key
Ġkeep ing
Ġt d
Ġdocument ary
grad le
Group Name
Ġnov els
$ };
Ex ists
r ame
Fr ames
H er
part s
( ()
Ser ies
ru ption
Ù Ħ
Ġman age
ĠMod ern
ab c
form er
C ancel
d jango
w as
,\ ,\
Ġover flow
Ġp ixels
ĠT ree
pre vious
Ġsch olar
Ġpack et
æ ķ
ĠP ier
Ġclass Name
Ġengine er
Ġ$ ,
g z
com plex
ĠR oss
ĠD ark
Ġessential ly
Ch ain
19 27
}) =
B its
! <
Ġrelationship s
O ld
× Ļ
ak s
ĠP ot
Cont ents
L ike
ve e
_ )
Ġvari ant
Ġstrateg ies
l oss
~~~~ ~~~~
ac on
L ib
Ġcould n
ĠM ilitary
Ġf estival
Ġsymbol s
Ġpen al
Ġwork er
Ġop position
^{ *
ut ors
G ui
Ġr h
19 24
st ances
ĠCap tain
Ġcon clusion
alt Color
Ġinterpret ation
ĠT ennessee
Ġm ent
ĠU l
ĠÐ ²
j ax
r as
g ov
ĠCast le
res pons
(" #
Ġfr ames
Ġnormal ized
off s
ĠMar ia
Ġabs ence
Ġtw enty
ĠCre ates
od a
Ġbreak ing
Ġop posed
ĠA C
ow nt
ĠA h
dist ance
LI ST
sp in
Perm ission
ĠF ac
ĠP romise
in ating
Ġprof ession
Ġwe alth
Ġtit led
Ġpar ish
iss on
ĠOut put
urre nce
viron ments
Ġphot os
ĠI L
ĠP it
Ġenh ance
Ġdeliver ed
Ġtop ological
ĠPr int
ĠM O
Ġhapp y
ĠC zech
Ġener gies
Ġrestrict ed
Ġg ender
Ġdecl are
d ag
Ġd elta
ĠGr ant
Ġinter mediate
Ġflow s
Ġclin ical
ĠF ood
alle st
G a
Ġa id
Ġqu asi
Ġsc oring
Ġrank ed
Ġ| =
Ġconcent ration
ĠBuild er
Ġsur g
Ġs event
Ġign ored
A SE
Task s
And roid
Ġcomp liance
B IT
Ġconsec utive
Ġqual ified
Ġdom estic
ĠSer b
y ou
ĉĉĉĉ ĉĉĉĉĉĉ
ĠSk y
Ġr ugby
C aml
Ġbelong s
**** **
Ġbrief ly
} ))
ĠMem orial
Ġprom ote
ĠRef erence
ĠD ouble
Ġm ail
ĠN ever
N orth
ĠS ound
19 31
Z one
script style
Ġhom es
Ġalleg ed
Ġe ase
uplic ate
Ġwindow s
ĠDon ald
ant e
Array List
sh a
ub le
W omen
B uf
Ġpar liament
Ġdef orm
ĠHigh way
k ernel
ph oton
dis patch
Ġs pl
Ġsup posed
Or iginal
Ġcollabor ation
Ġvol unte
Ġmer ged
Ġimprov ement
ĠE ff
FI ELD
10 24
+ (
Ġt ight
in us
m ay
Option al
PRO C
ĠP ut
Ġprodu ces
V ol
Ġm es
ou st
Ġpost er
ĠHar ry
ĠComm unic
11 1
H om
Ġrecover y
Ġal ias
Ġre pository
ĠQu ery
ke ep
H older
Ġdep os
Ġsomew hat
li bs
gebr as
f red
ĠCon text
part y
ef e
12 34
Ġen umer
Cons ider
Ġca ught
D at
con vert
ph antom
ĠMal ays
Ġfem ales
F uture
Ġrepl acement
rep o
Ġoper ate
Ġw alls
be ans
Ġprogram me
ixt ures
Ġreject ed
ĠC ov
t l
Ġunivers al
the less
put ed
ĠS to
ĠEnter tainment
EN TRY
fr ag
ĠL em
ĠG h
w ick
ĠP ur
ĠR eb
c assandra
ĠB an
Ġqu eries
ĠLe on
ĠF uture
Ġf ear
Ġcho ices
I Z
com es
Ġem otion
M aster
All oc
ĠJ son
Ġpe er
\ }\
Ġscen es
) }_
Col lect
ĠR O
ĠMag azine
ist a
$ &
Ġimp lied
)-- (
Ġim plicit
bound s
ĠMed al
ĠSur vey
} ~
Ġso le
oriz on
u uid
ĠD a
Ġpain ting
Ġd st
ag ma
ĠF ix
sequ ently
ĠWed nesday
ĠD ue
Ġdecre ase
Ġhum ans
Ġpl ate
Ġc lip
Ġlo an
rem ote
Ġca using
f ake
column width
14 0
ĠDef inition
glyph icon
ic ode
ĠÂ ©
Named Cell
FF ER
1 16
BU IL
Ġcomp iler
Ġpost ed
Ġb an
Ġleg end
w ich
ĠAri zona
DE X
ĠC ru
Ġsent ence
olv ing
Ġorient ation
c ers
ĠN FL
W IN
ĠS av
ĠV o
Ġgr avit
em it
Ġdi pl
ĠK now
Aut hentication
ĠL ook
ĠT ool
or er
Ġan chor
ĠJew s
}) ^
ar on
ĠT er
p ad
ap ple
ĠCol on
m iddle
at on
A ug
ĠT ony
refer red
AT TR
ivers ary
Ġdemonstr ate
A X
ĠH or
Ġ-- -
Ġcommun ic
ĠFr ont
Ġrespect ive
Ġmom ents
ĠS UMMARY
P romise
Ġcon d
ĠT ag
Ġnot ion
> ()
ĠAr thur
M c
E P
Ġsub group
Ġin frastructure
ah oma
in ction
Ġsee ing
form al
ann y
ific ial
a ux
19 25
Ġ' @
Column s
Ġro utes
ĠCo q
ile y
por ter
log ging
Ġjournal ist
F ixed
Pl ace
Ġb ought
Ġprodu cing
Ġm ental
S epar
Ġtem porary
T L
Do ctrine
west ern
med skip
oun ce
ĠAff airs
Ġle af
ĠN AS
ĠTh read
ĠN ick
Ġacc um
Ġdistrict s
ĠUkr aine
ich ol
in x
ĠMed icine
ĠE u
> %
Run ner
Ġcap able
Ġexper iences
F OR
Filter Database
TH ER
sh are
ĠClass es
Ġtim estamp
Ġ" '
Ġtrad ition
Error f
Ġassum ing
ĠAnd erson
Ġres istance
ĠC ab
atur ally
W H
Ġdec isions
Ġf s
m ont
Ġpubl ish
Ġexperi enced
Ġw rest
B ad
ĠA ud
p rom
Ġle ct
Ġro bot
ĠMary land
Ġtable s
eg ration
an im
19 21
ĠNor way
ĠAcc ount
cri bed
Ġh orse
itect ure
Ġg reatest
c raft
ĠH y
) &
Ġw at
Sup er
H ence
Ġin herit
Ġdesign ated
S plit
= %
Ġb os
Ġdemonstr ated
Ġpercent age
col n
arch ive
column s
Ġpro pose
ars ing
Ġm ort
y cl
aa aa
Ġexcell ent
19 16
lo pe
Ġk id
Ù Ĩ
ag ues
Ob serv
Ġg lob
Ġown ers
D iff
Ġf erm
ro uter
l ot
Ġp un
ĠAss oci
c ountry
o a
ul ner
th rough
Ġdiscover y
(" %
w ho
Ġgovern ing
Ġf etch
Ġc ro
Ġh ide
og onal
Ġdis able
is ode
osp it
] +
d ynamic
s z
he ta
Ag greg
= .
Ġpil ot
ĠF ellow
F ilm
gener ator
cover y
> '
T ex
Ġ Ñģ
Ġcertain ly
M ount
Ã¼ r
u ction
Ġt error
Ġliter al
unn y
Constr aint
Ġf ly
T ouch
Ġmolec ular
ĠJ S
Ġd ry
class Name
wit zer
Con tains
Ġ ----------------------------------------------------------------
ĠB rian
it ely
th ere
rt l
Ä ĥ
po inter
Ġdr ivers
ĉĉ ĠĠĠ
Or gan
ĠM att
com ple
Ġs urn
Ġ( ;
om er
Ġat trib
Ġpro files
ar ith
Ġ` ``
ĠExec utive
ĠF ederation
In ner
ĠI ss
19 12
v ia
Ġfil ters
AT CH
ut ies
ĠD ream
Ġthe atre
Ġred shift
K n
E Y
\ }$,
Ġrece iver
Ġ{ %
Å ¾
U CT
ÃŃ a
Ġb low
Ġadapt ed
nt il
link s
ĠL ore
is en
Ġsl ot
inem a
Ġplatform s
Ġread s
ĠC irc
top ic
w allet
M F
Ġk ids
C oin
Ġig et
Ġc b
Ġattempt ed
Be en
c ancel
19 23
Ġj ourney
Ġd elegate
iv a
19 26
Ġtyped ef
Ġcomb at
}_{ -
in ch
ac er
ĠSim on
P G
Ĥ ¬
Ġis omorphism
st an
get String
Ġp atch
Ġapprox imate
K it
rypt ed
decl are
Ġmag net
ĠMan chester
Ġcomple ment
Ġsens itive
Ġgeneral ized
Ġdire ctions
U AL
get Instance
ĠJ ordan
Bi ography
ĠCons ider
Qu ant
ĠST ART
A z
r ink
ĠE V
Ġch unk
W illiam
Ġconfig urations
ĠTown ship
Ġsk in
Ġcomp re
RA Y
se p
ĠC ulture
M ac
ro it
c ursor
create Element
Ġcopy right
ĠHe art
Ġint ent
Ġad ult
Ġd ashed
ĠM as
Ġsepar ation
ĠM L
ĠB E
Ġcon tribute
Ġvir us
ĠMel bourne
ind s
S witch
^* \
l iving
com pute
tim eline
ĠĠĠĠĠĠĠĠĠĠĠĠĠĠĠĠĠĠĠĠĠĠĠĠĠĠĠĠĠĠĠĠ ĠĠ
ane ous
own ed
tain ing
Row s
Ġstand ing
Ġquant ities
us r
CO MM
Ġch apter
J apan
ĠB or
Ġinterest s
form ed
F eed
Line ar
ĠAut o
oot strap
}} }\
Ġm it
Ġro ots
Ðµ ÑĢ
An aly
Ġm m
fin ite
Ġent ertain
Ġr acing
we ek
ii i
Ġdr iven
witzer land
Name Link
Ġclos ure
SS ION
ĠSh ould
Down load
let ter
Ġf older
Ġadv ice
ic ut
sc ore
qu al
inc ial
c x
ol i
tim estamp
\ |\
ĠHot el
example s
P at
ĠR oy
ĠB urn
ĠSer ial
Ġresearch ers
Ġdi agn
L icense
ĠP A
ib ilities
er red
Ġsupp lied
ill ery
Ġcy cl
Ġpotential ly
Ġd yn
Ġpers ons
Ġsucceed ed
ens is
a ire
Sh ared
te ction
m obile
st rip
ĠWh y
n os
(' <
link ed
ĠPro p
ĠDi ego
do or
ac o
Ġext ensions
j b
ins ic
up per
Ġinstit ution
" |
ĠU t
19 15
$ {\
if i
Ġac id
Ġd t
ĠP layer
Ġbound aries
ãĢ Ĥ
ĠT a
c v
}) (
Ġ-- ></
Ġgu ess
UN T
cept or
][ ]{
L oop
Ġman ifest
Us es
z y
ĠV ar
un known
: '
ĠVAL UES
Ġcouple d
Ġsign s
Ġworld wide
Ġas sets
è ¿
c n
ĠCont in
Ġrestr iction
Ġinvolv es
Ġpr ices
Ġthrow n
und ers
Ġdom inant
ĠMex ican
Ġ\ (\
v art
STAT US
pl ain
Ġvari ations
b ug
Ġal pha
": "
sl ide
Ġim g
ic ians
Ġ} {
U pload
od o
g ar
ab a
ov en
Ġasympt otic
O lymp
Ġsust ain
AR G
re duc
ĠAr k
pt o
In f
Ġs we
Ġperiod s
Ġrespons ibility
igen ous
periment al
Ġpropos al
b urn
Ġsp end
Ġcorre ction
Ġplace holder
Ġcos m
Ġs i
ues e
Ġh al
St ud
Con verter
Ġun iverse
all enge
Ġjust ice
Ġne ither
oc ese
Ex pected
ĠPro duct
ial s
ĠS in
Ġdes criptor
r pc
Ġembedd ed
ĠJ ane
ru les
Ġconcent r
ur is
Ġmarket ing
Ver ify
ĠP a
ĠK han
ĠSe ason
im its
__ )
Ġcontrib uted
q q
ĠS quare
Ġcomp r
Ġis ot
Ġhelp ing
Ġs ed
j u
Ġapp lies
Man agement
fig ures
ĠAdd ress
Ġass ignment
Vir tual
æ ĺ
Ġcru cial
ĠPhil ip
Miss ing
arg o
: =\
g ather
pos ing
En able
Ġconcern ed
R UN
Ġunderst ood
@ {
Dr ag
Ġpres ents
Ġannoun ce
es ides
ĠOff icer
Ġprefer red
Ġbur ied
| ^{
Ġequival ence
ĠAdministr ation
B ased
Ġn ice
ĠAll en
Ġto wer
/* !
am ount
M illis
Ġcoll apse
Ġmark ets
ĠVAL IGN
ĠD aily
d ays
UB LIC
ĠL eb
Ġv ocal
D id
r ig
w x
ĠM S
display Name
Ġext reme
×ķ ×
Ġrepl acing
Av ailable
} |\
}} =
Ġst arring
Ġk illing
Ġreason able
Ġh its
Ġdec ade
Ġsw im
Ġvir t
Part ition
is ot
ĠEd itor
Al so
is ition
ĠD un
Ġpriv acy
Ġsh ares
LIC ENSE
Ġprep are
Ġcharacter ized
ĠGree ce
yg on
h alf
ops is
ĠSt ore
Ġk il
Ġrequire ment
Ġman agers
es is
ĠPl ace
ang el
UE ST
ili ar
ĠI ter
ss l
uth er
Ġair port
iss ip
ĠK a
ĠRepresent atives
. ;
pear ance
Ã ł
ang ers
UR CE
Ġneut ral
Ï ĥ
s ens
in th
D ATE
ĠHol y
Ġc ached
ĠF all
ĠI F
F ALSE
Ġ ĉ
P ut
Con vert
id al
m ount
O BJ
Ġmod er
ĠPro du
n ie
ĠT uesday
Ġcom fort
ĠK at
ĠSh er
ĠB arn
Ġfac ilit
Ġperman ent
second ary
St ub
Ġheav ily
ĠHarr is
ow ski
RES ULT
| }{
sub sec
ĠM unic
cont act
we alth
Ġ& #
Ġre aching
as p
ĠĠĠĠĠĠĠĠĠĠĠĠĠĠĠĠĠĠĠĠĠĠĠĠĠĠĠĠĠĠĠĠ ĠĠĠĠĠ
urs ive
ĠAm ong
A wards
st ud
>< !--
Ġbro ke
ort ed
B ro
ĠMe an
Ġr anges
EN V
Ġequ als
})+ (\
Ġm ob
Ð° ÑĤ
Wh y
Ġt ack
ort ion
W ill
}$ }
Ign ore
Ġtr ains
ĠSil ver
ĠPh ot
br idge
az e
ure au
at ibility
Ġind ependence
Ġold est
Ġtalk ing
ain er
ox y
ĠWh it
Ġd imensional
Ġp arsed
TI ES
ĠLab our
Ġdescri bing
10 4
Ġ' "
ĠD ead
st e
Ġch ose
NO DE
as ma
ri ent
Ġg ate
Ġg oto
S elf
Exec utor
ver ted
ab ama
n c
Ġpartial ly
De ath
Ġ uri
ĠMark et
pro duction
ĠS W
w ave
Ġrelig ion
M al
P al
Ġat omic
ĠFre der
Ġdem ocr
Ġrestrict ions
Ġm acro
ĠS P
c lic
Ġeduc ational
m apping
Des ign
Ġth ir
} ",
aw are
oc om
Or igin
h istory
Ġweap ons
ĠBar on
Ġv m
ĠJun ior
b one
ren ce
Ġneigh bour
Ġint elligence
Ï ģ
us cript
ĠEx press
enc oding
ign ore
un lock
T y
Ġliqu id
Output Stream
Ġvary ing
t v
T ok
f older
} >
>( <
u able
ĠL iter
Ġknow s
ĠTh ursday
IC ATION
T AG
Ġdet ector
HO ME
Ġsim ilarly
\ /
ag u
Ġperiod ic
ĠC op
hens ive
Ġcomp ilation
Ġd eleted
Ġre new
ĠMos cow
Ġtop ology
ĠH op
Per iod
ĠZ h
Dec imal
ĠE U
Ġmaintain ed
Ġoccup ied
ug ar
ĠC ape
Ġs ought
olv es
Sup pose
Ġv o
us p
str ings
Ġf old
is lation
Ġhard ware
Ġrespons es
ĠP ack
S ongs
ĠU RI
at en
V O
ĠR ol
Ġgood s
back slash
az a
Ġredu ces
li a
Ġcur vature
Ġes cap
Ġa f
Ġm ile
em ony
L R
ĠT en
l on
Ġel li
ous es
ĠSen ior
Ġbring ing
ĠD OM
" </
LE MENT
Ġpost s
g overn
Ġhost s
Ġw idget
Ext ensions
Ġch airman
ĉĉĉĉ Ċ
cre ment
ĠB alt
oc or
get Type
C ulture
EV ENT
Can adian
ĠWARRAN TIES
Ġwrit es
ĠS end
Ġsh aring
Ġcl one
Ġhouse hold
v i
Ġro of
ĠDo ctor
ĠSt one
Ġro yal
Ġsup pose
Ġdom inated
in cess
stats models
ĠBase ball
ĠC HE
ĠDis ney
Dis patch
Ġh un
Ġvill ages
IL ITY
sol r
S napshot
Ġenc oded
Ġconserv ation
R a
el ve
ĠE s
ache lor
ĠIn ternal
C N
Ġre tail
ĠCl ark
B order
d st
Ġre ar
Label s
( /
ĠO wn
ĠMar c
Ġf olk
work s
å Ĭ
P riority
Ġm ales
z i
B T
Enumer able
Ġare n
Ġstri ke
m ms
ĠN um
te am
Ġst ochastic
Trans ition
ĠÐ ½
Ġmedal ists
aint ies
Ġen emy
b inary
Ġcon crete
ĠViet nam
' _{
Ġin clusion
ate st
Ġim pl
Ġres olved
Ġaccom mod
Ġin herited
ĠTh ird
Ġdesign s
Ġst ead
Ġsur faces
Po jo
Ġman ip
19 13
As set
M ich
ri ends
ĠG ib
Ġexpl os
init ely
File Name
Ù ħ
Ġre ward
C amera
L ang
OR K
ĠS mall
ĠM and
Ġdis patch
Ġsever e
ĠCon stitution
project s
ĠPar se
ĠJ ay
ynam ics
ri k
Ġ\ &
Ġtext ure
LE TE
ĠM oon
met ic
Ġposs ess
d ers
Ġeven ing
jack son
at ivity
Ġarg ued
Ġfr anch
d n
ĠJ am
C odec
Ġf ib
Ġcheck s
S an
ĠMar ine
Ġref used
Y our
Ġadd s
ĠB ah
Mon th
M ust
ta ke
ĠS ix
Ġl it
ĠF A
11 4
< >();
Olymp ic
con cat
Ġreport ing
ĠA ws
Ġtri es
ĠKent ucky
Ġr ating
M r
Ġl ose
BA SE
}\ |
ĠTem ple
X i
ĠP O
S pecial
ir ms
ĠN ev
m ix
cy cle
ĠI T
Ġpan els
Compar ison
ag netic
Ġnom inated
ĠB lo
p ref
ick y
i ary
Dav id
Ġuser name
ĠA mb
Ġregard ed
sl ant
Ġ( {\
annot ations
Ġin h
l int
o is
Ġsimultane ously
Ġent ang
Ġco aches
Ġph ases
con current
kl ahoma
th rift
Å Ł
ĠReg ional
Ġpres idential
Ġp ending
Ġeigen values
Ġwor st
================================ ================================
Ġsch ol
R ules
1 18
Ġassert True
multi row
ock s
Ġillustr ated
ct ors
Ġstrict ly
ĠL ib
T ri
G it
L IN
ĠRun time
String Builder
Ġseg ments
Ġexhib ition
Z ero
Ġcap tain
Ġsix th
Ġstri p
ubl in
ict ed
tikz picture
el led
inter val
ymmet ry
He alth
RA ME
Ġexpos ure
Ġcross ing
n ol
ĠV ice
Ġex posed
Ġprem ier
20 23
Ġ' _
fe atures
ĠAl bert
Ġb ond
ĠPubl ished
10 7
eg et
ĠB os
) >
Ġan om
olog ists
B reak
v endor
Ġaccess ible
it ics
Ġfrequ encies
D TD
-------- --
Ġ Ä
PRO P
Sec ret
^* (
Ġcrow d
Ġcol lections
Ġ- =
Ġappre ci
Ġout come
ut able
Ġemer gency
" ];
More over
^{ (\
ĠTok yo
CO M
ĠIm mutable
Ġ$\ {\
BU FFER
Ġbas eline
n m
b est
Own er
all as
Ġfavor ite
P resent
Menu Item
Ġfluct uations
__ ["
Ġ( %
Support ed
ĠAg ency
Ġpresent ation
Ġdis miss
Cre ated
h us
Ġaccom pl
ĠD NA
ĠB ra
d anger
ĠQ ual
Ġf aced
Ġor ig
ip edia
con duct
Ġ\ !
equ ations
Ġoutput s
Ġent itled
Ġloss es
Ġdynam ical
ĠPat rick
ta h
Ġpop ulations
ĠP DF
M en
ro ck
Ge ometry
Ġcr ash
ĠB Y
Ġmembers hip
fort unately
li x
Serv let
ĠJes us
pr agma
ar o
C ity
ell s
ate ur
LA Y
char acter
ĠB uffer
on i
f av
h our
ĠAust ria
ĠCol umn
B ibliography
) })
Ġcr ick
fore ach
Ġeduc ated
ĠHou ston
ain ian
ĠG ab
ĠAnth ony
Ġ/* !<
f actor
se a
Ġclass ified
ĠI owa
ĠHand le
ut ation
. ',
iv idual
Ġcomp ens
od ge
g ray
L D
Ġre nt
un ior
CRE ATE
3 50
y ers
ap el
ĠLog ger
Ġgo ogle
ID E
Ġt er
Ġd ictionary
Ġterm inal
Ch art
ĠF lo
Ġat oms
Ġcoll ision
om m
Ġcan vas
Ġconstit ution
ct ree
Ġ' #
Ġfit ting
v p
Ġf i
\! \
get Class
Ġcor onavirus
google apis
r at
= &
ec lipse
Table Row
Ð ¹
amazon aws
y ll
vart heta
ĠPr ivate
Ph il
Ġrapid ly
Ġsh adow
Ch anges
ig e
Ġexc ited
! </
< <
ĠMA X
ĠF ALSE
Ġste el
Ġben chmark
H ol
ĠMan ager
Ġver b
Id x
Ġch arts
l ad
Ġs oci
ĠG ard
Ġre in
! (
) ^\
i ors
ĠHol lywood
ĠS witzerland
ĠR yan
Ġprint f
X Y
map s
Ã© t
ma zing
G overn
Ġs ensor
Ġdec ide
Ge ography
op ens
Ġcre ative
ĠSystem s
ĠE uro
Load ing
Ġfound ation
N a
is ations
ĠF a
igr ants
Ex tra
ail ing
ĠB h
Rev iew
Ġjoin ing
ĠS ri
Local e
ĠW atch
D er
Oper and
enn y
Ġsu it
BO OL
et ary
M ajor
c ity
Ġa ux
ĠH ans
w en
not ify
(" \
uer to
ĠTr ack
fl ush
we ak
eg as
get Message
5 12
qu ir
Ġpoint ed
ĠLin coln
Ġbro thers
ene z
ĠYou Tube
Ġrecon struction
Ġp up
Ġsud den
Ġw avelength
ren a
ĠAdd itionally
h pp
Ġdr um
ert ainties
Ġl ake
Ġcrit ics
Ġf aces
Ġsett led
B D
Ġfeel ing
{ .
med ium
Ġoff ices
Ġspe aking
) }.
AV E
del ay
âĢ ¢
local host
Ġprec ise
Ġb ronze
Struct ure
aw ay
Ġyour self
il k
Cont in
N or
h ill
T yp
Ġformer ly
Ġappear ing
Ġcl im
Com mit
Ġshort ly
An alysis
Ġtr uck
not ag
Ġfall s
Ġdef ining
Ġin structions
ok ing
Ġview ed
Ġtop ics
ub b
19 11
ĠE dition
Fe atures
Ġt ang
10 3
fg han
n l
ard o
Ġstrong er
ĠâĢ ł
ĠS V
ident ity
Ġgr ade
R ich
Ġ' -
Austral ian
Ġmay or
Ġsens itivity
Pr ice
l ined
Ġv eter
RE CT
Ġfile d
Ġconnect ing
list ener
. \\
ĠA st
lin ux
A MP
form ing
Ġre vers
Ã ª
Ġmov ies
item pty
w br
ĠT OP
Ġelect ro
Ø ¯
Ġpack ages
h ir
om itempty
F ix
sc opic
Ġw ww
Ġa cknowled
ĠD est
Ġb ars
et ric
ĠHaw ai
Ġrestaur ant
clud ing
ĠS n
Ġanim ated
Ġs now
end o
Ġre produ
S ing
sc ious
Ġb id
G M
Vis ual
ĠK y
ĠWh ere
Ġc ash
ĠM rs
Ġem pir
Ġparticip ate
%%%% %%%%
ĠPe ak
;\ ;\
Ġtr im
Ġsche mes
Pop ulated
S am
Ġdeb ate
ic ious
Ġag ed
Ġsub mit
Ġa ug
ĠT reat
Ġs pr
s is
Ġc ards
Ġut ility
å Ń
G reen
ĠTr aining
ĠĠĠĠĠĠĠĠĠĠĠĠĠĠĠĠĠĠĠĠĠĠĠĠĠĠĠĠĠĠĠĠ ĠĠĠĠ
Ġh alo
ĠHow ard
down arrow
ut ter
th umb
Ġtransl ated
ĠB eng
ĠN ik
Ġscient ists
Ġconvent ional
Ġwhen ever
ĠMethod s
Ī Ĵ
Ġdom ains
i pl
ĠM ust
ĠK EY
ĠJ os
ĠR ab
v et
TR AN
i ac
el and
includ es
Ġident ification
9 00
Ġpain ter
Ġassist ance
ĠB iden
. $$
se ctions
fl uid
"/ ><
ownt own
N P
c op
Ġpl ain
Re ason
? ?
Ġp it
Ġim possible
') ->
Å «
Ġinter pol
ĠArg ument
W eek
Ġmet all
ĠDe ath
ĠDe ep
ĠComm un
p d
ĠS pr
cl s
el lect
Ġb rown
Ġown ership
M o
tr ansport
ous el
Ġuniform ly
ĠEx pression
U A
ex cept
ĠR ound
sw ing
99 99
b undle
fr agment
Ġdraw ing
S ide
Ġsol ving
æ Ī
Ġin aug
Ġlumin osity
ĠQueens land
el son
Ġreg istration
G IN
Ġin ternet
ener ate
Ġshoot ing
tr ain
IM IT
Ġiter ator
Wh ite
Ġp ray
HO UT
W B
ĠWhe ther
Ġweek end
ri ev
Ġt uple
19 08
ĠAl abama
Ġs ympt
As sembly
ĠCHE CK
ĠĠĠĠĠ Ċ
Ġeng aged
ĠD ictionary
ĠF le
ĠFor ces
Ġc raft
Ġent ities
ĠNor wegian
Ġhead quarters
ĠMot or
Ġdev iation
TO M
run ner
am ond
Ġexp ensive
ĠMo ore
Ġlaw yer
sur face
Ġfind ings
A ctions
bl ing
k ov
Ġbo at
Ġanal ys
mem bers
ĠEx pl
10 6
\% $
ĠT ABLE
ĠR ot
Ġscen arios
ĠS port
AR B
sh arp
Ġs in
ĠSquad ron
A SS
M achine
(' ./
plement ed
Ġqu ot
ĠC S
Ġtrans itions
ĠD al
Con tract
F ac
Ġly rics
ambig uation
Ġh am
cor ollary
Ġon going
] </
g ate
S core
Sup press
order ed
id o
li est
ĠSup pose
Ġn aturally
ĠIt em
Icon Error
Ġher o
> [
u h
L ive
Ġsit uated
( -\
d ensity
Ġstudy ing
Ġrev olution
{ |
Ġpolar ization
ad v
n ed
Ġrepe at
Sports people
H on
nob r
ĠC red
] =
g re
Ġcon cluded
ĠF ame
Ġinflu enced
Ġst im
Ġm outh
ĠPal est
am an
Ġab use
Ġ' ''
ĠSim ilarly
Ġinv ited
Ġcon vention
Ġf ired
Ġpar a
w iki
Ġinvestig ated
Ġbr anches
Ġvac uum
P OS
Exec ute
L at
Mut able
Ġhe aring
ir t
Ġge ometric
ac ht
b n
label s
Ġs ons
Ġco ins
FN GL
ym n
H D
ĠVill age
Ġsystem atic
ĠOb ama
as is
ĠD ick
ĠAn alysis
ĠOther wise
Ġalign ment
OL D
Ġs ight
Ġincreasing ly
ig ator
Th rough
l arg
A K
ce ived
Ġsur ve
no frame
Ġdr ums
ĠA I
ĠP ed
ne ut
h ist
IconError Encoded
Ġc p
P ress
Ġisol ated
ĠO P
ĠC hem
Ġcont roll
ĠRes ults
Ġins urance
LO AD
ĠB ry
ĠF ourier
Ġadd r
ject ure
om as
Pr imary
cal cul
F actor
g raphics
H ave
d ataset
E urope
pr iv
çĶ ¨
ul p
ĠL ank
add Class
inst ein
Ġmodel ing
ĠConnect icut
Ġlist en
I p
ĠAb b
Ġequip ped
40 4
ĠS el
ĠG R
Ġil legal
g h
ĠRes ources
ĠMi ami
text up
var s
ĠCom ponent
Ġtrack ing
UR N
Ġf ault
V ec
ĠA le
Ġcount s
ĠC F
Ch o
Ġl aid
ver ify
Ġre serve
oc os
oid s
Ġfl u
ĠO ak
Ġrun ner
RE SS
ust ries
t re
Rel ated
Ġd uty
Ð¾Ð »
W I
il st
Ġconj ug
i at
Ġc ertificate
ĠA lice
b ow
l ive
P aul
Ġto kens
Ġseem ed
Ġsound s
D ynamic
Ġg ar
Ġstruct ural
ri ers
ĠE arly
p al
co hol
SU C
B ucket
ip art
Ġteach ers
er gy
ĠO k
Ġcommand er
ir i
eb ox
Ġcell padding
Ġattack ed
Ġqu ark
ugg ing
E ast
t ol
Ġgravit ational
ub ern
C V
Ġreg ression
in ject
op am
com par
B ridge
Ġn ortheast
Ġextract ed
ĠCon stant
Ġs elling
External Task
end point
issip pi
ĠAl bum
pro fit
Ġh ybrid
ĠA P
ĠEm peror
Ġd iverse
Ġint ention
ust ed
ĠD atabase
ĠWal ter
Ġs af
Ġ# {
Ali as
Ġ _{\
as hes
Ġconsum ption
Ġun us
pag ination
Ġred irect
Ġte en
Ġgu id
b ib
Ġnorm ally
}{ {\
iv ari
t m
R ober
n ik
is o
Ġregular ly
ĠD ol
end a
Ġd ies
Ġm art
ĠAn ne
refer ences
At trib
ast s
Ġland scape
ĠN ichol
è ®
Track er
ĠMat the
at ype
Ġf iber
var rho
pre ne
ke e
C annot
14 4
P ush
Ġ urg
ĠD ave
ĠO Caml
ĠS ingle
Ġc orn
ExternalTask Pojo
O FF
ĠF er
Ġch air
Ġprov ision
ĠWeb site
iber n
C trl
H ar
Ġexerc ise
c ost
not ification
ĠK am
Ġdist ances
Ġredu cing
ub er
math it
Model s
ĠCh ile
Ġbr ings
ĠBO OST
re ason
ur d
! ]
> `
clos ure
ĠIn v
Te am
Ġv oted
exec ution
> ${
ĠBr un
b oth
ĠB us
Ġwrap per
id ges
Ġtechn ologies
path s
um ption
() ">
ic ide
P ane
$. }
'] .
Ġacc used
ĠAct ive
An im
P e
reduc ible
Ã ´
Ñ ĸ
ĠT og
Ġtr uly
ĠM C
Ġelect rons
text normal
Ġenc ode
Ġread ers
th ree
ĠN ull
18 90
Ġcent uries
T i
Ġcell spacing
U nd
Ġamount s
ĠP rom
New s
Ġleg islation
Ġincor rect
ili ary
ref resh
Ġexpect ation
n an
d ocker
j or
S eq
ĠF M
Ġbo ys
Ġcour ses
' },
Ġun iqu
late st
Ġne arest
ĠD ur
ĠEnt ity
ĠK er
ĠSt and
ĠP as
Ġse es
ustr y
Ġj azz
I ss
Ġeng ines
ograph ical
ĠD VD
Ġabsor ption
t age
Ġret irement
Ġc yl
Ġl aser
re prene
Ġmet res
ĠIslam ic
MP L
19 2
Ġunc ertainties
to ctree
Ġmat ched
55 5
Ġhundred s
ĠAl ber
ce il
Ġsub sid
ĠG raph
Ġvol umes
ĠD M
Ġs yntax
task s
plic a
ĠWalk er
tim er
Ġinj ured
ul o
10 8
Ġaut hent
Ġincorpor ated
Ġcent ers
Ġs phere
| $
t b
ĠC ook
Re act
ĠL eft
p ic
Ġm atters
ĠInf antry
* ,
Ġst abil
Ġchalleng ing
D ITION
Ġmusic ian
Ġh a
ĠK evin
sect s
app y
Ġlist ening
en ix
Ġpoet ry
Ġs lice
ĠR ic
Ġas set
Ġsub scri
Ġg ro
jav ax
IN VALID
ĠY outh
Ġro oms
> .</
Hash Map
Ġsign ing
ĠH ug
iev al
Ġcarry ing
Ġlog in
ĠGener ated
Ġre n
it udes
T ry
Ġag encies
Ġtr unc
Ġsee king
is ons
Ġprocess ed
Ġb ucket
ma ker
Run ning
ĠA gr
ĠÂ »
ors es
el ines
Ġperturb ation
in ces
ĠM IT
Ph oto
SP ACE
end ment
Ġin vari
Ġdiscuss ions
ĠTele vision
und les
Ġproport ional
Ġmonitor ing
s ure
O k
Ġl ob
ut ely
ĠO klahoma
Ġgun s
Ġat om
c ov
g lob
struct ed
ĠEar l
ĠD og
Ġattr s
ĠB ureau
st ory
AS H
Ġpenal ty
b ors
ĠM atch
ĠO pt
ĠHash Map
text color
at ile
Ġc od
Sh ader
Ġcom plicated
ĠS ud
ĠCon vert
Ġf lying
pl acement
N umer
Ġanaly tic
ĠPh illi
ĠCap ital
or ne
Ġsc an
Ġcom ic
script s
ĠÃ ł
ĠL P
Ġdiam eter
Ġim press
Ġres idual
ov ak
ĠN atural
T X
ĠT arget
Ġb on
Ġ" [
Ġacc ord
get Attribute
ĠL ock
ĠJ ob
Ġ å
fl ux
Ġv ulner
Ġen vironments
ĠL evel
Ġm ine
" ])
Ġdirect ors
i ot
Ġbank s
h y
0000 0000
Up dated
ĠIn valid
f ish
ĠG ordon
Ġanaly ze
Ġclos ing
Ġm ess
Ex pect
Ġliter ary
foot notes
Ġh ook
Ġf ought
Â ©
Ġarr ival
ĠR ange
Lin q
B ER
Ġwhe el
Ġindependent ly
ish ment
dec ode
Ġa apt
I ME
Ġoper a
aut ore
Ġk it
Ġen semble
b ucket
Ġdecre ases
ĠC C
ADD ING
Ġmys elf
ĠE mer
Ġsit uations
ĠDef ense
ĠC ow
opt im
Ġep och
Ĩ Ĵ
ĠK az
ag le
ĠĠĠĠĠĠĠĠĠĠĠĠĠĠĠĠĠĠĠĠĠĠĠĠĠĠĠĠĠĠĠĠ ĠĠĠĠĠĠ
ul um
Ġweight ed
G EN
Ġan notation
ĠB uck
Ġsignific ance
r uct
ĠT ry
E ducation
ash i
T og
ĠTur kish
b re
stat ement
Ġpublic ations
K S
Ġb irds
Ġord inary
Ġsum m
V C
Ġinteg ers
Ġsup ers
__ ,
2 20
ĠV in
Ġstraight forward
Ġsy nd
as a
Ġed ited
Ġsat ellite
3 000
Ġwh atever
ĠG arden
ang les
Ġpseud o
c urrency
ist ol
Ġ" ${
Ġman uscript
19 05
ĠDet roit
Ġexhib it
gu ide
erial ize
bo ards
at om
ĠTai wan
ĠL oc
ĠDoug las
P REF
Ġsub scription
ĠN eed
Ġcondition al
condition s
Set up
oth s
am ents
Dis k
int ro
rang ian
S rc
/ )
Ġassoci ate
Ġmanufact uring
M arch
Ġform ally
Ġdiff usion
ch at
mat htt
Ġconcept s
Ġlik elihood
Ġalgebra ic
Ġaccomp an
ĠN ap
g ot
set ting
Ġv ast
script size
dis k
Det ector
ĠCro at
ĠHer itage
ig ious
ĠN ash
ff ee
Del ay
################ ################
Al ert
av ers
ĠT rib
ĠB asic
ĠAd vent
sol id
Ġfit ted
ut down
ss on
)} (\
Ġturn ing
Match er
Ġhom ogeneous
iv ities
fr ames
or b
ĠBul g
d m
19 09
Ġ ,\
Ġvisit ors
Ġr ival
Ġhigh way
Ġ\ [
s ass
F etch
ch arge
qu est
ĠTr ade
Ġmechan isms
contin ue
gener ic
Ġabandon ed
}{ *
Ġb ot
Ġt on
ĠB reak
Ġ======= =
re nt
Ġcer emony
ĠDate Time
shall er
Ġwe ar
Ġf at
DE D
Ġstre ets
Ġa str
ts burgh
Ġvict ims
xy gen
Cal endar
et ition
AC ING
Ġform ing
ol o
Ġ* ,
Ġtempor al
ma king
mat ches
ĠG irl
Ġinter vals
ĠInd ependent
dat etime
Ġhead s
OT TOM
i op
" =>
Int ent
Al pha
=" {{
Ġw aters
dis ambiguation
Ġleg acy
Ġproced ures
ĠB ab
) (\
ĠD ebug
Ġassess ment
inet ic
apt ers
æ Ĺ
S n
ĠH ills
ĠK it
ur ric
app oint
Thread ing
pher ic
Ġw orse
yth ing
j k
w he
Form atter
Ġocc as
Rece ived
uk i
Ġpolynomial s
Ġg iant
ĠU r
ĠL INE
Ġmin ing
re tt
="../ _
Ġentr ance
ĠW y
Ġdevelop ers
F i
æķ °
P acket
p f
th ick
19 07
ĠM obile
et ry
Ġlog ical
Ġm esh
up dated
Ġexper ts
19 06
Y es
al ia
ĠD ak
ch unk
bold math
Ġatmos phere
Ġhistor ian
ĠMon te
ĠS ep
AP P
C ertificate
Ġ( ),
Ġs ender
Ġquadr atic
Tele vision
D istance
L ite
Eff ect
uff ix
ĠS ymbol
Ġrot ate
f ef
ĠR ap
ok er
im ore
Ġorth ogonal
== =
ĠMay or
hold ers
Ġ( ,
ĠN ob
Ġn s
Ġt ip
Tem p
Ġreal ized
an ion
ĠPl ant
Ġsub mitted
Ġexpl ains
Mod ifier
M a
B usiness
str ument
Ġpro be
) *
Rel ative
Ġroad s
un iform
Ġre ception
Ġorb ital
n est
Ġinh abit
L ines
Ġmed icine
d td
ec ess
Ġhand led
tri angle
me asure
Serial ization
g iven
Ġretriev e
ĠT ab
gress ive
des criptor
Ġadapt ation
man agement
N ONE
[ ]{
pr ice
trans late
d ale
Ġinstall ation
s ources
O h
Ġfact s
Ġappe al
**************************************************************** ********
G T
Ġform ulation
IT LE
F ixture
IN IT
oun ced
Ġguarant ee
process or
che ll
iss ance
oc a
}$ \
ĠCh ampions
prep are
EN ABLE
Ġrandom ly
ĠSc ient
Ġ' ,
Ġh oles
B us
ĠWIT HOUT
ant on
Ġent ering
ĠV olume
ĠD raw
Sc ene
Ġestablish ment
Ġs outheast
V ill
ph ab
v y
ik h
N eed
Ġf its
Ġn ick
Ġbe ar
Access or
` )
m f
ĠLa ure
Ġfle et
ĠF arm
c ookie
Ġt unnel
sub Nav
ĠSw iss
Ġwatch ing
Ġc rypt
"> "
et ri
ĠH u
Trans lation
Work er
set Text
tain ers
ĠO tt
Ġch urches
Ġp ump
b etween
c ord
ĠB ORDER
ect ure
ĠT ake
Ñ ħ
ĉĉ čĊ
R oman
in ite
Ġnot ification
Ġderiv atives
Ġcorre ctions
Ġass ault
ch anges
ho le
ĠH amp
Com ponents
Ġour s
Ġcor porate
Ġrest ore
pay load
Ġentertain ment
& =\
Ġpass enger
ĠĠĠĠ čĊ
in variant
B ACK
Ġto ler
Ġsing ers
% "><
Ġsp ending
Ġback ing
Ġcircum stances
ĠA fghan
ather ine
Ġst ood
ĠAnton io
Ġpass engers
B ecause
oust ic
R ound
ens ing
max cdn
C UR
h is
int s
View Controller
ex pl
ĠTR UE
per ature
Ġre aches
SO URCE
bar a
{ (\
ĠS yntax
10 9
ab stract
r and
ĠI ron
CR IPT
ĠB attalion
ĠR ender
Ġconven ient
Ġreve als
P rom
iver pool
An notations
i est
E lect
Ġs ink
ĠP ope
> ../
ah n
×Ļ ×
ĠAl gorithm
Ġt f
Ġf ol
ĠIllegal ArgumentException
iz ard
footnotes ize
Ġphilosoph y
Ġ\ ,\
Ðµ ÑĤ
Ġw x
St age
AR GET
ĠH iggs
Ġdistingu ish
p od
Ġcompet itions
run ning
ĠL as
Stat istics
ab ad
Ġv oting
Ġcomp aring
ĠW ord
ĠMem bers
t ile
det erm
Ġcommission ed
Ġa ired
Ind ian
Ġfam iliar
ĠOr th
f aster
RE T
ĠLim ited
ĠArgent ina
Ġex clusive
Ġinstr uments
Ġd ensities
en vironment
vel ope
ĠH D
Ġmain tenance
Ġman ual
f ac
Ġru led
Ġcompet itive
Ġd ip
man ifest
if ference
S peed
ĠArm en
D ig
D ict
ĠBow l
Bit map
Ġsh arp
process ing
Ġconcern ing
pi pe
h yper
ĠIsrael i
G ood
Ġre venue
def er
Ñ Ĩ
Ġem it
ĠC NN
B orn
se cret
R adio
Look up
H istor
Ġis instance
B u
seg ment
am ar
id ad
N I
Ġprinc iples
ĠCo oper
Ġcompar able
Mon itor
text ure
stack rel
Ġshe l
Ġmag ic
Ġdepend ency
S ig
Ġaut hentication
Ġappro val
c mp
M ix
int o
24 0
Ġw av
m ov
Ġfound ing
sample s
spect or
J ames
in herited
Ġdisp ersion
f ilters
P an
Ġcompet e
Ġcirc ular
value Of
Ġsim ulated
pe g
ĠM D
TableRow Color
sl ider
ĠAl an
Ġrece ives
Ġtri als
ĠGr am
F D
C art
~ (\
â Ķ
ĠWork s
leg es
Ġ" #
Ġmark er
Ġconsist ed
ur ers
Ġ( #
Ġput ting
av ia
Ġt ank
N eg
19 04
ĠN u
RA M
Ġs lope
Ġcor relations
with out
Ġslow ly
Ġmiss ed
et he
ĠIm port
level and
Ġf oo
or ce
Ġdesign er
Control s
ĠM organ
Ġcomp iled
0000 000
Ġconv olution
ĠC emetery
pro f
A rm
Ġsp arse
red irect
trans l
ĠH ost
T uple
Ġs napshot
ĠC ole
p ond
he x
Part icip
Ġdrug s
ĠP uerto
Ġask ing
Ġp ictures
ĠK IND
t oc
ĠHon or
om ing
ĠBelg ium
it is
Ġrep ly
Ġrele ases
Ġdesc end
ĠMult i
$- $
iz z
ram a
el ian
ĠG T
S i
C LA
] ).
Ġqu as
Ġe c
FLA G
V P
ĠSar ah
Ġreli ef
in ian
tool bar
met ric
Ġm ac
ĠSt ew
F B
Ġs a
ĠE ss
Ġp in
ĠEcon omic
Ġorder ing
B ul
Ġen ables
Ġrem oves
Ġautom atic
C he
Ġb ott
ke leton
ĠSe attle
ĠNew ton
GB T
Ġpro hib
__ .
" ?>
part icle
ĠN ag
TER N
ĠCommon wealth
app ings
alax y
Ġgrad uate
Jan uary
D im
Ï Ģ
en o
Ġad mitted
XX XX
> {
w alk
ĠPortug uese
fa iled
Ġg it
om ics
op ter
ĠD oc
Ġsm allest
ĠStud ios
ol ished
ĠAuthor ity
ĠLic ensed
ro b
ĠC it
op acity
ĠMiss issippi
Comple tion
lik ely
ext ensions
Bl ue
sp aces
ĠB ush
Ġn an
Ġgrow n
50 9
mult line
ĠF inn
Class Name
ĠEx p
il ine
draw able
- ">
ĠSing h
le arning
A ir
ref lect
Ġcontin uum
local e
ĠĠĠĠĠĠĠĠĠĠĠĠĠĠĠĠ ĠĠĠĠĊ
SUC CESS
Ġref lection
Ġadvert ising
Ġdefault s
pop up
ĠG un
ab i
ĠMod ule
Ġb reed
az el
H am
ber ry
idel ines
ig ible
B lob
Ġs essions
Mark er
Z oom
ĠD im
ug u
Form er
est ure
rom agnetic
Ġweek ly
Ġd s
LA B
ĠS R
m acro
Ġin duct
Ġfl ash
Aug ust
] ->
Ù Ī
ĠM aur
F ire
s ong
c ill
ĠPro perties
in burgh
ail and
Ġst ating
ĠS U
ĠP HP
Ġsurg ery
STR UCT
Ġd ating
ĠH ad
Ġadv ers
Ġs occer
Ġd ress
Ġpubl ishing
Ad v
Ġaff ord
G LE
Ġrecover ed
Ġde ployment
... )
Ġform ul
l r
Ġhe lic
Ġoper ates
mod ifier
Ġpres erve
Al t
ĠGe V
Ġinterpre ted
ĠMalays ia
AR RAY
ĠF ive
Ġremain der
13 5
Ġpro spect
p us
Ġfranch ise
Ġt ennis
w hat
ĠLouis iana
Ġrem oving
Ġregard less
Ġimprov ements
ĠM ol
Ġperform s
Ġpr on
D ao
ĠO ptions
M us
$ '
v n
Tr igger
*} [
Ġk w
P ending
Ġne uro
serv let
=\ {
sche mas
Ġneutr ino
Separ ator
5 000
Ġcomm ut
12 4
ĠAng el
Ġlocal ized
F ootball
Ġm s
ĠRes erve
Ġso il
Ġsepar ately
} /\
Ġgener ates
Has Been
REQ UEST
Ġwould n
Sub scription
ĠK elly
FFFF FF
Ġsurn ame
ĠB ou
des cribe
bor ough
ĠD ublin
elastic search
ev ens
Ġd ial
Ġgu y
ter ior
Not able
oc he
et c
\| _
ru ction
Met ric
p ym
ĠPro file
ĠL anc
Cl ub
look up
Ġindu ction
Ġconserv ative
è ¡
ĠF al
ĠS S
ĠH erm
ĠIndones ia
ith metic
Ġdoub t
hl js
Ġb attery
Ġhel per
ĠÐ ´
* \
ĠN ic
Ġtri angle
ĠHar vard
Ġl l
arn er
Test ing
ĠÐ ¸
Ġcheck ing
Ġw ed
ĠP S
Ġsort ed
Ġfru it
cl ide
Ġcr icket
With out
ĠSam uel
Pay ment
ben ch
ĠN eg
separ ator
w ind
Ġcl s
WA RE
N ECT
Ġd ele
ĠOper a
Ġ" );
Tool s
ĠL L
or us
fef efe
db c
Ġan th
Ġ} ).
ĠBill board
ĠCor ollary
l m
Ġvacc ine
Ġcompre hensive
ur se
Ġme ets
å ľ
ge ometry
Ġmach ines
Ġcontin uing
LP ADDING
M IT
ĠL I
on na
Re pe
ancell ationToken
Ġres cue
ĠTe ch
Ġshe et
f ather
T imes
m atic
Ã «
te le
S al
os ph
E very
ĠU V
mod ified
Ġres id
ellect ual
D ry
f our
r v
Ġpro position
cp u
ĠCEL LPADDING
Al bum
h fill
Ġtransform ed
ĠCEL LSP
ĠCELLSP ACING
ĠCon nection
Ġapparent ly
Ġsp oke
Ġkn ock
ĠG all
comp act
Ġmark s
iv ia
ĠYear s
ĠQue bec
: &
Ġprov en
Ġcap abilities
ĠK o
Ġre ign
ĠB ed
D istribution
Ġsol ved
Ġf acing
ay an
es a
if ting
M ilitary
od ox
ç »
Ġconvers ation
ĠVer ify
z oom
inc or
Ġdis establ
av is
Ġconsider ation
or ous
Ġcook ies
P ixel
Ġ æ
Ġrac ial
ha us
cast le
Ġb lo
Ġad ults
erm i
] ['
row Color
100 00
start s
Ġrat ios
h p
\ },
Part y
Ġcommunic ations
ĠSchool s
get s
Ġfor th
ear ing
} "/>
M art
Oper ations
I FI
ĠB ased
ibern ate
Ġ" _
Ġelement ary
Th ree
over ty
iv o
Ġh ired
Ġneg lect
Ġground s
u is
ĠE C
d in
}. }
ĠNC AA
ĠP ear
a ui
ĠCon sole
Ġr is
ĠLear ning
Ġsub space
En tries
ĠR ule
ĠI C
Ġap ps
per cent
br anch
Mod ified
ST ART
ĠAl liance
Ġprodu cers
Ġn ested
Ġ$ ^{
ĠE RR
Ġt um
Ġpro sec
ĠB AS
12 2
ĠS everal
ĠPri x
Ġo vers
Ġdecl aration
Ġmechan ical
Ġl ands
ĠF ound
}) ^{
Ġaim s
ĠL ower
Ġfin ishing
Ġunivers ities
Ġposter ior
HasBeen Set
Ġpl asma
Ġre ly
$ ^{
aw esome
ĠDen mark
ĠB art
A pril
F eb
() [
19 01
up arrow
eg e
ind ependent
st ri
ĠM aterial
ĠBrig ade
op ol
ĠTh ough
J une
H ello
cl ock
Ġar med
s ame
Ġst roke
Ġhe x
ĠNav al
in istic
App Compat
C ountry
Y S
Ġlook up
Ġpass ion
Debug ger
Ġg arden
Ġw ine
ia h
A W
Gr ad
ĠM ission
Dest roy
T ensor
ourn als
11 7
Ġd eleg
ĠH it
Ġcut s
se ed
Ġpro x
Ġart ifact
Ġ" )
por ated
Off icial
iem ann
ĠP ho
ĠÐ º
ĠF ried
Ġcal endar
Ġgreat ly
ĠT el
Ġdanger ous
ant ed
Ġprot otype
ĠT i
Ex it
Ġl oved
Ġm ath
_ [
ĠU tah
depend encies
Ġ" ;
Ġconfigure d
Ġbreak s
C ross
ĠUs ed
Ġo x
Ġis lands
In jection
G l
Ġround s
ĠE dd
to Equal
ĠGr ad
ĠP UBLIC
ĠLaw rence
cs v
id i
Ġe g
Ġup load
cript ors
cast ing
Ġreve al
Ġreli able
ĠCom par
r atio
back s
Ġtrad ing
a que
Ġpre gn
met rics
ĠM achine
ĠF red
mut ex
m ate
ĠT YPE
ob i
Ġb are
tr ansp
In struction
S pe
k ar
ĠPal ace
L ow
ĠT oken
ab ul
Ġob server
Ġfun ctor
def n
EE E
ol ute
Al gorithm
ĠSt op
h w
Ġactiv ation
c ached
Ġsing ing
m outh
ĠB ull
ig o
19 03
Ġsecret ary
="@ +
Ġ& $
D an
] ),
Ġpick ed
ĠA BC
Ġbl ank
Ġb igger
over flow
ĠH ockey
ĠD ub
ĠBrazil ian
ĠT ax
Set s
Ġmin i
ĠAtl anta
P ipeline
end ers
Ġs wit
ĠN i
ant i
W ell
ĠDemocr ats
clide an
ne ed
P adding
á º
Ġsympt oms
ĠC ache
Ġexpl oration
Don ald
. [
11 3
Ass ign
Ac adem
z ym
bel ow
s yn
G RO
faster xml
Ġann iversary
ĠLiber al
ĠW ard
enez uel
Mer ge
Ġsim plicity
bin om
N ON
Ġv eget
ÑĢ Ðµ
ep age
Ġwalk ing
Ġm eters
Ġg ang
Ġoper ational
Ġfriend ly
the ad
O O
ro se
Ġwill ing
ĠP ap
C ost
Ġart ificial
Ġperm it
Ġne ur
os er
ter y
(" .
ick ing
M ail
D one
M esh
le tt
con figure
ĠI gn
b t
Ġin hib
pro pto
Ġpaint ings
ĠC os
Ġang les
Ġd iversity
ut t
ĠOrgan ization
ĠAn na
SS AGE
ĠL abel
sp i
ĠJ uan
arg v
Ġb ath
Ġin ference
Ġenh anced
Data Source
ĠPortug al
19 02
Read y
ĠThom pson
Ġgr ass
Ġiter ations
Ġdifficult y
Ġrank ing
Ġorgan isation
ĠAb d
Ġthread s
Ġh ospit
S il
Ġir reducible
ĠF ilter
respons ive
ĠMar shall
ĠDe an
og a
ĠP eters
I ES
ĉĉĉĉĉĉĉĉ ĉĉĉ
Ġbeh alf
S K
ĠG it
__ _
le e
ĠS ize
Ġval ley
() ]
Ġlic ensed
g ent
iv ot
Ġ ~\
Ġp ip
un ion
redu ce
Ġaug ment
Ġcol le
p oi
Ġtw elve
ĠPe ace
: %
bound ed
Ġl ibraries
Ġtraject ory
ĠD ance
ĠS N
set Attribute
az ines
ĠPubl ishing
ĠInitial ize
u pt
Ġt ropical
Ġarr ive
Rober t
sc an
Ġpublic ly
ic ates
ĠG irls
EN CE
ĠBru ce
Ġ< ?
Ġj unior
Post ed
18 80
st eps
ĠB uff
ass ador
ĠIm perial
Ġr ide
ĠP ref
Ä «
J uly
Ġprint ed
2 30
Ġt ied
Ġmod ification
s ing
Ġemploy ment
ĠArk ansas
min ute
g un
C over
Ġinv asion
ut r
C ould
pan ic
at able
Ġqu iet
ump y
et r
F W
ĠUn less
ĠH ilbert
Oct ober
F ill
Ġref resh
Ġaccompan ied
Ġd y
Ġt icket
he ets
Ġcour ts
abl ing
SD K
ud son
Ġspect ro
Ġdeterm ines
; %
Ġro se
sub string
member NameLink
Ġch ampions
Sh adow
ĠT ar
Ġrest ored
ul ative
ĠNiger ia
ĠSt age
Ġdis order
Ġpres erved
Ġlif etime
Ġtrans verse
ĠD allas
Ġreson ance
Ġther apy
m illion
Ġr c
Pro position
F lor
L com
s qu
ĠF ern
qu estion
ĠS eg
; ;
Ġdeb t
ĠAust in
ĠP od
]( #
p k
Ġ. =
ann on
File Path
Ġmov ements
,... ,
;" |
it ro
d z
k an
ĠM ess
Ġdef ensive
Ġmeet ings
H ook
ir ates
Ġ/ ><
and al
W ARN
ĠS ide
ĠStud y
Ġvot ers
lo be
f w
Ġagric ultural
ec onds
Lower Case
Ġear liest
' +
ĠCol omb
Ø ª
writ ing
Ġpri est
Pop up
Ġsports people
ĠSt udio
Res earch
Un iform
` :
c amel
ĠB etween
Ġlab eled
Ġimp ly
Ġover view
ĠHistor ical
Ġover lap
add le
T ip
sp ir
ext ype
aud i
S pring
Cle an
ĠMem ory
Ġbeaut y
ĠD ist
Ġm igration
ĠNS String
Ġes c
p aces
ant ly
Ġrecord ings
ĠMod al
Ġc um
Ġout line
ĠUp per
Ġl in
IE W
Ġb aby
OR S
part ition
r x
ĠMc K
$\ \
Ġsynt hetic
U UID
Check ed
ĠTh ose
Ex press
Ġinf ection
Ġse ar
M AN
d elegate
U int
back end
ent ries
ĠT ig
u eto
Ġ{ $\
Ġrem oval
cor rect
Ġf urn
Ġex pr
. :
M ass
apol is
qu et
if olds
Ġcirc les
ĠRem arks
Ġs av
c as
ĠF low
O cc
t uple
( `
Ġcho osing
ev a
ĠEx change
Ġfe els
Ġconsider able
ib ling
S chool
ph an
ort ex
Ġtransport ation
Ġs oul
Ġfall ing
Ġexception s
Ġenjoy ed
Ġind ent
ant ics
it ol
ĠI mp
ĠJ ason
L T
bo y
Ġmar ine
ag h
Ġall ocation
ĠFe ature
ĠĠĠĠĠĠĠĠĠĠĠĠĠĠĠĠĠĠĠĠĠĠĠĠĠĠĠĠĠĠĠĠ ĠĠĠĠĠĠĠĠĠĠĠĠĠĠĠĠĠĠĠ
ĠB OTTOM
I ll
Ġval uable
Ġr id
Up per
Ġul tr
Ġpl ots
L and
Ġst y
Ġb ases
] ^
Ġ ur
ĠP red
Ġim pr
12 1
Ġre tain
[ <
Ġarr anged
ĠEd inburgh
Se ptember
Ġcancel led
Can vas
Ġpri ze
Ġdec line
CO UNT
N EXT
qu ality
a ac
Sc ott
c py
list ed
P aint
ou ver
Ġh aven
Ġdisc ipl
Ġmer ger
' =>
Ġdeal ing
T or
ĠChrist opher
Ġsu ite
left arrow
Ġtouch down
Ġput s
R ank
Ġfe as
Ġhor ror
MA GE
ĠKn ight
nos cript
Sl ot
Ġfunction ality
Ġop ens
é Ģ
Ġempir ical
&= &\
$ ^
Ġ\ {\
Ġt y
Ġc up
ĠPos ition
text sf
stit u
distrib ution
ĠA V
Ġloc omot
ĠK ings
f are
Ġfew er
Ġbelong ing
Ġim aging
Ġkind s
ĠCh airman
ĠT an
ĠY an
Ġ( `
Java Script
ĠParam eters
Ġcomb ine
A lex
Ġg rows
Ġalloc ated
p ipeline
I ce
Ġcub ic
Ġch rom
Text View
Ġl ift
G G
Ġover l
new line
Ġre act
Ġres idential
Sec onds
L ead
Ġtransform ations
Ġtim er
Un ique
ab ove
ĠF ight
Ġschol ars
ĠAd ams
Ġtot ally
Ġfem in
b ach
Ġsurpr ising
Ġsimilar ity
un ks
Ġdef initely
Ġhealth y
Ġtal ent
ĠFreder ick
i ang
Ġres idence
ME M
---------------- ----
Nov ember
last ic
T om
m al
Ġdes ire
t ot
RO OT
Ġmy th
ap ps
ac ew
Str ip
Function s
ĠS ession
Ġcorrespond ence
E r
d ating
cc c
Load ed
Ġdecre asing
an Ã§
St ation
Ġcomp ression
Sh are
Ġvis iting
Trans fer
ĠZ one
Ġb om
render er
C a
ĠPer formance
ĠI ce
Key word
C SS
N orm
t bl
br ane
Ġparticip ation
sub scribe
um ed
ra ig
\ }.
Own Property
Ġ\ |\
Ġspirit ual
Ġre tained
i ere
Warn ings
Ġmid field
p lier
div ision
attr s
st ers
Ð ±
Ġgener ators
E u
Ġt ile
Ġpropag ation
Ġas c
Ġro uter
\ }_{
Ġt ur
ativ istic
ĠDel hi
ĠS cal
ĠG ray
Ġ[ {
ĠMet ro
ĠBo ys
ĠJ osh
Ġstream s
B ur
Ġconsequ ences
ueto oth
ĠS elf
ĠAt tribute
ab b
ĠD anish
ĠBang l
p ending
Ġabund ance
W ORK
Ġcy cles
initial ize
Ġcollect ive
Ġf est
Ġs alt
Ġf ul
ĠY es
allow ed
Ġp ole
ch arg
Ġobtain ing
first row
Ġcent ered
Ġcomp ile
& &\
in verse
Ġun expected
Ġinj uries
on ed
s ocial
Ġout comes
ĠH um
f am
f act
Ġunit ary
ĠUkr ainian
l b
Mich ael
fav icon
Dec oder
Ġhe ter
Ġf o
Ġj uris
ĠFin ancial
Ġsuper ior
ĠJava Script
Pro du
ic he
P eer
elect ric
E ven
ĠÃ ī
ab e
Ġphot ons
com ments
Ã© n
Ġcred entials
f un
ĠP atri
Ġexp ed
d ied
Ġvis ibility
ey ond
_{ +
ard ed
Ġdepict ed
Ġpul se
ĠMov ie
å Ľ
ĠCh art
Ġmorph ism
Ġal cohol
K ernel
c aret
Ġrender ed
big cup
ĠS cript
pro blem
ĠCamp bell
res pect
Ġcl ar
Ġarray s
ubern etes
Ġc ited
dir name
Ġx si
ocor ro
ĠL ane
Ġdis contin
E LEMENT
Ġprepar ation
S mall
Ġa mazing
tra its
Sche dule
ard ing
Valid ate
FA IL
ĠCle ar
Ġ// -->
sub scription
ĠRuss ell
le ans
rb an
K G
! âĢĿ
Î ·
ĠC E
mak ers
ĠCl in
dr ag
ul atory
ol ate
Ġun like
Î »
Ġoff ensive
Ġturb ul
ĠS ho
LO B
Ġinhabit ants
ĠLINE AR
Ġw aste
ĠCom ics
ow s
==== =
Path s
Ġdiagram s
ĠĠĠĠĠĠĠĠĠĠĠĠĠĠĠĠĠĠĠĠĠĠĠĠĠĠĠĠĠĠĠĠ ĠĠĠĠĠĠĠĠĠ
ĠSum mary
ÃŃ n
ĠRog er
ĠC rown
Ġaddress ed
ĠR andom
ĠS ocorro
ĠP ackage
ĠOr chestra
ĠL iverpool
Ġcritic ism
}^{ +
Ġden ied
ĠS peed
J ack
ĠĠĠĠĠĠĠĠĠĠĠĠĠĠĠĠĠĠĠĠĠĠĠĠĠĠĠĠĠĠĠĠ ĠĠĠĠĠĠĠĠ
}[ !
f ar
Dis c
ĠElect ric
t one
inc ipal
ĠG raham
Ġste am
ob a
ĠWH ERE
ĠH ero
S lice
Ġacc ret
ĠL ess
Ġreg ulations
prov ed
elf are
ff ic
Ġhydro gen
ĠP si
Ġdispl ays
Work s
rg b
ol id
ĠW oman
S afe
I r
ex tract
De cember
____ ____
File System
18 98
S ent
R ussian
It alian
Ġchild hood
\ [\
ĠCre ated
help ers
RE NT
Ġpr imitive
Ġh ill
Ġpro ton
Ġfocus es
Ġmathemat ical
Ġhead ed
res olution
bl ast
ĠEqu ation
ĠAl tern
) }$.
. ")
Ġal gebras
Sur face
c ou
tr action
ater al
ĠTh ailand
ĠMc G
3 20
Ġapprox im
ĠM atrix
ĠJ u
ĠDo es
ace ae
m any
Ġto String
c ategories
Ġm ixture
/** */
ĠJud ge
vari ables
Ġprov iders
z es
ind ices
T M
h n
B oth
Ġstr uck
Ġcast le
Ð¾ ÑĢ
Ġflo ating
ĠM ort
hel lo
../../ ../
sub equations
or o
Ñ Ī
Ġd war
Br anch
Ġfrequ ent
Ġo cean
Me an
Ġincre d
ĠPit tsburgh
ĠLag rangian
th ird
ĠA uth
pro c
Ġ( );
res olved
ĠH eb
Ref resh
ĠMont real
u on
ĠN othing
$ }}
Ġestim ator
m ys
um ing
Ġt ens
en ario
ĠB egin
Ġstreng then
bol ic
append Child
um ar
V I
Ġbox es
Ġeth nic
ĠLin ux
p n
ĠH ell
d eveloper
al og
j amin
re view
omorph isms
ĠBe at
Ġt elling
ĠF ixed
For ward
u art
ĠPl atform
! =
Reg istration
Ġ" +
onom ous
Ù ĩ
block s
Ġge odes
Ġspec ification
ĠString Builder
az ure
ĠInd ustry
m ust
ĠUn iverse
Ġal ive
An chor
Array s
ĠN eb
m r
Ï Ĥ
Encod er
S N
Ġaggreg ate
nol imits
S uch
ĠC ensus
c art
ID ENT
Ġoccup ation
Ġ} ),
Ġperm itted
ge on
Ġclose st
Ġmarg inal
Ġproject ed
Cred entials
es cape
Ġdam aged
Ġdistingu ished
F oot
ĠM icro
00 2
Ġh orizon
Ġm oth
trans fer
th a
}^ +
ug s
Ġstream ing
Ġst adium
=- =-
Ġn ations
A ff
ĠH old
Re place
ĠO K
Ġacqu isition
B F
script scriptstyle
Ġp sy
af ka
pack ages
C amp
Ġstead y
c ourse
enc er
Ġt s
ĠW ol
ĠL iving
reg istry
Ġarg ue
ä¸ Ń
ĠCent ury
ĠS ave
ĠRef orm
claim ed
Ġsh orter
hash Code
ĠFin land
M iddle
Ġend if
Ġincre ment
ĠWith out
prec ision
us age
ĠV ik
ĠDom in
Ġbe ach
st ub
book s
Ġthous and
es c
Ġm apped
Ġequ ally
ĠPr ice
: -
ĠE sp
ol utions
AR CH
; ,
uch y
Ġprob abilities
× Ķ
stream ing
f uture
18 99
m ates
ĉ ĠĠĠĠĠĠĠĠĠĠĠ
Ġst retch
Ġher itage
Ġrequ iring
m g
MS G
att ach
Ġâ ĨĴ
Dest ination
Ġ$ ('#
ĠW right
4 50
ĠD J
ĠK on
'] ))
pre dict
Ã ¦
ill o
ĠDr ive
sign al
ĠP ad
Ġneut ron
Ġup grade
OBJ ECT
Ġb acter
ĠPr act
}) =\
Ġel astic
ĠC atalog
? (
on line
Ġphenomen on
EX PORT
Rec ip
SER VER
" }
FORM AT
ĠKenn edy
) _{\
> $
L M
n ail
ĠDef ine
ine a
ĠS af
h arm
ĉĉ Ġ
Ġf asc
ĠMur ray
Re ception
Ð¸ ÑĤ
ograph ics
Ġthem es
Ġre start
ĠSh ah
ĠG ulf
Comp are
× ª
Ġattrib uted
ĠG C
Ġgen re
Pro duction
IN DEX
( []
aw t
andid ate
em ale
l ings
ĠF light
ordin ates
Top ic
ĠCom puter
Ġr ising
Ġsurv ived
Ġcovari ance
le ading
Vis itor
Conf irm
Ġfair ly
Ã ½
Ġactress es
ĠIm m
Scal ar
f requency
Ġjud ges
ig s
Ġch a
Ġatt orney
Ġconsist ency
ĠR y
ĠH E
Ġtalk s
Ġinv olve
Ġvari ants
Ġpubl isher
ĠE N
ĠStew art
iv an
Ġinitial ized
ĠLie utenant
Al ignment
Ġsevent h
ĠW ang
R ay
Ġb lob
ĠÂ ·
ic ht
ĠB log
Ġinter ference
H ex
om p
ith uan
ec ycle
Ġin coming
_{ -\
Ġathlet es
ĠP il
] <
Ġdis cre
ĠH end
$\ ,
ĠC T
Ġwrap ped
ĠM ars
Ġimprov ing
Pro c
Ġunus ual
d yn
Ge V
Block s
J o
inn ed
* >(
comm unic
ĠBrook lyn
ĠF el
du al
ĠY e
Ġsit ting
over lay
Ġcool ing
Ġaver aged
Ġvict im
Ġcolon ial
il ty
ĠF ast
small skip
Ġel der
build ing
mult iple
Ġst ub
Ġ" ./
dem o
Ġwe aring
Ġemploy ee
Ġcon e
ĠSen ator
Ġman aging
tr ight
N ested
ĠMP s
ĠOr leans
ta x
Ġw ider
pack et
ĠO d
P icker
Ġpeak s
ion ic
Ġch ains
isl ature
Red uce
ĠN ep
r ides
Ġconsum ers
Mult iple
Ġt all
r h
BY TE
Ret ry
S ym
h base
19 0
D ist
? </
gr pc
00 5
Ġfor get
ul se
V EL
ĠC leveland
Ã³ w
B N
R outer
Ġg ay
Ġaim ed
Ġelectric ity
em en
Ġabsol utely
Capt ure
Ð ³
Ġkey board
cor respond
{ },
in formation
ch t
Ġrecip ient
WR ITE
^* _
ĠRob inson
Ex cel
Ġas ks
ĠW ik
ĠComm ander
An n
work er
For ce
ĠY ang
Ġinform ed
un ed
Ġbeliev es
ass oci
ĠR PC
ĠW as
Ġnot ably
cknowled g
Japan ese
ĠR elease
ĠMark ov
Ġpopular ity
å ¯
or ry
ĠE le
Ġres ign
ipp et
g c
' ):
, </
im ir
A fr
P ref
Q t
ĠCl inton
Ġp ython
Status Code
ĠCON DITION
L ater
anc ouver
ĠA WS
u its
Ġelse where
NG TH
aught ers
pi res
Ġcon front
to LowerCase
Ch unk
Ġjud g
Ġout break
Ġeigen value
Ġsynchron ized
final s
x sd
Ex tract
Az ure
Ġprocess or
: /
inter pret
ĠMet ropolitan
ĠArt icle
itar ian
Ġlist eners
ĠTam il
Rec all
per mission
ĠCon vention
st roke
mark s
Further more
ĠD ie
ynchron ous
li ers
ĠDak ota
ĠAl low
R M
ĠMar ie
Dis abled
ĠPort land
Sc an
Ġtext s
Ġaccret ion
ish ops
pred icate
iss a
qu er
ane an
Ġlog arith
N OS
ĠN ation
phab et
ĠW ait
ĠLeg islative
Ġre putation
Ġsusp ended
Ref lection
constr aint
ĠS yn
ens ively
Part ial
vis it
SH A
it ure
ot ions
Ġant icip
ĠP un
17 0
ĠSt ill
App ly
âĶ Ģ
u ke
ĠPr imary
Ġag es
ĠD I
if iable
H AND
rol led
tr aining
Ġ( +
Ġj unction
mult ip
Ġr aid
Be havior
ĠBalt imore
Ġm ir
Ġ"- //
ĠHamp shire
Ġspher ical
17 5
clus ively
post s
or ange
Ġill ness
ĠHung ary
R o
Ġm irror
Ġc ookie
Ġreg istry
ival ent
ĠL am
_{ [
ĠDep uty
ist ically
s al
ĠA qu
for ge
ĠM aine
12 6
18 70
Ġres igned
Ph ase
U ntil
Ġd uties
im edia
Ġd ol
ĠTra il
Ġreal istic
Ġland ing
ĠC er
loc als
ĠN ature
ĠId ent
Ġv ec
ĠT ower
ir k
ĠCh amber
Ass ignment
Ġdise ases
Ġgovern ments
FT WARE
Ġb ird
Des pite
Ġh at
on z
Ġsub str
W he
cy cl
ĠD CHECK
Ġintr insic
Ġs ends
ma jor
tern oon
Ġpriv ile
ĠCP U
ĠF i
ĠMor ris
ĠR ain
18 95
nov ation
Im ages
Ä Ł
Ġp a
Ġs urre
ne e
"> &#
se en
tr ait
ĠU P
Ġsuff ix
m issions
ĠR ud
Vis ibility
ul ates
th an
ĠS A
ath on
h ai
Ġanaly zed
Ġmolec ules
St e
ro tt
ĠS witch
ĠCh allenge
ĠEv ents
Ġsurv ive
sp ot
\, {\
Ġf inger
Ġg ray
Ġis omorphic
ĠG ary
P rep
Ġto m
Ġcr ystal
end region
ĠTest s
ĠA U
Ġcompos ite
ĠPh oto
ĠM ak
AB ILITY
ac ef
ex clude
ĠU E
Ġven ues
}{ }
Sche me
INST ANCE
Ġex ponent
W alk
Ġout standing
Ġsurv ival
Ġrep orter
Ġnot ify
âĢĻ ,
L ear
B etween
Per cent
Ġperson ality
ĠM eg
ĠÐ ¾
St yles
p riority
}} ,\
B LOCK
id ity
> ()</
ites pace
ĠBr and
pre view
Ġs ep
ĠVis ual
AT URE
** *
val ued
our t
parent Node
ĠAdd ed
ĠMount ains
="# "
ĠDec l
ĠJoh ann
ĠS r
/ #
Comple ted
Ġconver ges
) '
Ġsk ill
Ġar row
ĠN BA
vent ory
Ġsplit ting
Ġstation ary
en z
Ġc riterion
Sub ject
custom er
off icial
st ock
A ud
Back end
Ġr anging
te ch
ar ound
Ġr m
igh bor
IL L
uff icient
ĠĠĠĠĠĠĠĠ čĊ
ĠRel ations
Ġm ic
Ġneg lig
vis ibility
Ġwith draw
ĠN elson
por al
irm ingham
2 10
ched uling
Ã¶ r
n x
Ġexam ine
Ġ(! (
ĠAust rian
Pay load
27 0
ĠS ET
ĠAl fred
h op
Y ER
Ġg rey
ar us
ĠS chema
Ġg a
ĠCon struct
Ġstrugg le
Ġm ilit
Ġthe ater
18 97
Ge orge
Ġdiv isions
Ġemotion al
Ġp ushed
16 9
Rep ly
Ġsem antic
Ġdelay ed
qu is
Ġansw ers
ĠForm at
ĠMin or
cons istent
U Int
ĠPro tection
ĠChar lie
ograph er
Ã§ Ã£o
ĠEx per
Ġcommit ment
p ixel
ĠR oom
Ġhol iday
tright arrow
re ts
Ġtrans it
oth y
er k
ĠT otal
St mt
Ġc url
ĠGr id
Stack Trace
Ġar ise
G F
Ġcomb ining
Exp atriate
out ube
Ġlong est
En c
su it
ĠJ azz
ĠU pon
ro v
Ġhon est
Ã¨ re
Ġentang lement
) }$,
ĠPh ys
Mod al
Ġsupport ers
le af
mo ke
u ates
Ġsl ide
// ----------------------------------------------------------------
ut o
ĠB ible
In s
Ġw et
P ub
Ġing red
Ġd il
ĠCONDITION S
date picker
ams ung
Ġproport ion
i q
ĠC lose
Vari ant
std err
ĠBAS IS
Ġdeploy ed
Ġh ierarchy
ĠCh apter
Pol y
T ur
AU TH
Ġgen etic
Build ings
. -
ĠCar lo
Ġ( @
ME SSAGE
ĠWel sh
M obile
ĠR ugby
Ġdyn asty
pt s
S cheduler
Ġen forcement
Constr aints
ĠMatthe w
ĠMarg aret
Ġarch ae
Exp and
Ġharm ony
Ġcompet ing
13 6
Ġf abric
ĠK itt
ĠCar ib
ass et
b an
ĠCar ter
Ġvol tage
Ġup coming
Ġarch ive
G old
b ai
Ġserv ers
ĠP L
ĠSt orage
Ġappoint ment
row se
ij ing
ĠTh er
T wig
at ics
Ġb ishop
win ning
ĠJon athan
Ġins pect
ĠT ak
ĠH ope
les cope
sh aped
cite alt
SU B
ik o
default s
Ġaff ine
net t
mark er
S ound
Ġlocal ity
if rame
R G
Ġsuff ering
ĠCommunic ations
place holder
ĠMad rid
ĠM I
Ġhelp ful
d or
Back up
Att empt
Ġthere by
Ġelect rical
ĠR ub
sche me
Ġa z
pl o
mid rule
Ġdat etime
ĠC arn
Us ed
Ġpra ised
ĠPol y
à¤ ¾
Ġgeneral ization
In ject
Ġtro uble
al ph
Ġstrateg ic
ĠA rena
ĠGu y
over y
^+ $
Ġc rown
ĠF ro
ĠFin ance
ov o
Ġrepresent atives
ul u
Ġpul led
ur u
ĠM aj
ex isting
k ern
ĠSh ar
Ġf usion
ĠAtt orney
18 96
R atio
ĠF ly
Ġwh ilst
Ġ\ }
ĠR io
it ud
g em
BUIL D
Ġinvest ors
Su ite
m und
inter action
Rec ords
urs ing
ush ing
Ġh ip
ins ula
Ġ Ø§
ĠG ra
Ġk inetic
field set
ĠPr incess
o j
input s
Ġsus pect
d v
ĠJ e
lock ed
ĠLank a
ĠMo z
n ia
ĠA B
m ers
Fore ign
ĠT EST
non atomic
Ġlocal e
Ġsurround ed
Ġo xygen
pl ings
us c
Def ined
d ashed
s creens
ĠRoman ia
Ġre try
Ġ' ')
ĠHel p
ik es
, (
Ġpl astic
lim ited
Ġreflect ed
ĠStruct ure
ick en
Ġcelebr ated
Ġp overty
em ed
d w
re ements
ĠZ e
Ġdoll ars
O C
Ġjournal ists
ĠAnd y
d al
ĠBern ard
do i
if le
ĠH ind
ra ke
ĠRail road
size of
Ġlog o
Ap J
Ġbr ands
Ġy es
c amera
ĠInst all
Ġrout ine
=" ./
Ġcar rier
Ġto w
C ookie
ĠG ot
ĠW ind
Table s
ĠBro thers
ers h
Co ord
| _{\
G H
rep resent
ĠA GN
ĠEv ans
Ġback up
Ġrender ing
ĠCh rome
ĠKar l
incor porated
ĠC M
ĠSt orm
Al ign
ĠJohn ny
Ġplot ted
Ã© r
Ġpar agraph
Are Equal
go og
B road
Rout ing
F RAME
Ġdest ruction
Ġanaly tical
ab sol
s ender
overs et
ĠParam eter
ĠAd vis
">( </
. (
ĠG il
ĠB aker
ĠJim my
ĠHun ter
sc ene
Ġrep air
User name
Ġadm its
Ġviol ation
ĠK an
the ory
ĠHung arian
f lix
ĠSt ars
AME TER
Ġwith d
p read
Ġens ures
Ġsh apes
H idden
cent ral
comp atible
CE PT
ur ring
Ġfund ed
N U
Ġsurpr ise
Ġaltern ate
ac l
Ġpay ments
st ation
ur ities
ĠPart ners
ĠF L
T l
tra ctions
Ġt ill
. âĢĻ
Ġin fl
ĠC ell
//////////////////////////////// ////////////////////////////////
++ ++
ĠB ody
S PE
Ġab b
ment ion
ĠA udio
Ġsub sets
Requ ire
Ġext ending
f m
Ġs weet
Ġc urrency
is co
K L
Meta Data
ac les
^^ ^^
in ates
Ġfl ights
Ġinvolv ement
O s
P ad
om eter
Gener ate
ch arts
ĠMit chell
ĠCommun ist
ĠV enezuel
ĠP sych
+ "
Ġf ishing
G raphics
vel oc
Ġan cest
f iction
k k
ĠM ack
Ġgu ests
ĠR ico
lot te
(" -
go al
ĠFrank lin
ãģ ®
ĠW i
ol ia
P ages
Reg ular
ĠObserv able
Ġw elcome
Equal To
re verse
ct rl
ĠT ob
ĠN am
Ġcom ed
Ġvess els
Ġguid ance
ĠS pect
Big g
ĠR aw
ĠPol itical
ĠP erm
M ov
:: $
Ġdeterm ining
Ġad mit
att les
' $.
16 8
Ġph arm
ok a
ĠNAS A
Ġcluster ing
R adius
leq slant
Ġcomb inations
ĠU SE
ĠM ind
Ġgu ys
Ġrecogn ize
g ow
FLA GS
. ');
ION S
Ġde als
t own
Ġun ity
\ ":
sl f
Ġdiss ip
ĠSt yle
C at
Ġ. /
ĠF ont
ĠCh ampion
Ġenc oder
ed a
S en
Ġweap on
ĠF ish
Ġfarm ers
List s
B H
Ġf ro
equ ate
Ġtrans f
Ġver ification
Vill ages
Ġencour aged
x e
Ġst em
re ach
Ġex ha
q a
TEXT URE
row th
Ġinf lation
ĠVi enna
Ġthought s
IT H
ĠJ enn
Ġpo em
ĠKe ep
Ġstay ed
ĠCol lect
Ġspe aker
Ġc fg
Ġintrodu cing
ĠAr n
pe ction
L arge
ad ic
Ġke eps
Ġf ixture
å ¼
Ġr ivers
Ġrel ating
âĢĻ .
Ġe at
ac ion
che m
ĠS SL
ĠMov ement
Ġlength s
Ġatt ach
Ġrom antic
e or
Ġs oph
13 4
Ġprof it
Ġd owntown
Ġent reprene
ĠT s
Ġpar ad
Ġb ag
Ġgrad ually
Ġres ident
ĠD id
oc c
deg ree
t ta
it ime
Ġav ailability
Act or
Ġco herent
Ġencour age
ĠK u
ĠMay be
ĠS afety
Ġg allery
14 5
is i
g ui
e u
ey er
ym an
H ard
Over lay
ig g
ĠB illy
G ateway
Ġr um
Ġrel oc
Ġinitial ization
ĠL E
ic ulture
List eners
p iece
serial ize
m icrosoft
Ġch amber
d ue
V A
c am
Ġf er
In line
Ġre lying
ĠTrans itional
Ġst ops
Ġben ch
grad uate
Conn ector
Ġsuccess or
Ġpain ted
Ġharm onic
dest ination
Ġcontrad iction
re ck
ou p
Ġnormal ization
Ġinv oked
Ġm or
ac red
ĠSp irit
Ġenc ryption
l c
ĠL A
dom inant
ĠF un
h h
Ġexpand ing
Ġrail road
Ġarrang ement
Ġmount ains
Ġobserv able
ĠCl ar
ĠAss ume
Ġoccasion ally
d ump
ro oms
* (
Ġdevelop er
ĠH ave
ĠPo isson
ot er
ĠT alk
MA IN
Ġrestaur ants
R ailway
Ġinter rupt
Ġph on
Ġst ake
rep ly
T ick
ffff ff
ĠEq s
Ġconstitu ency
Ġnarr ative
NotFound Exception
Ġbe er
Ġl ots
\| ^
Ġsh ifted
W ho
ĠR T
Ġg olf
lo yd
second s
an ne
CL I
col ors
for ced
ĠStud ent
D ue
ĠN ord
Ġd ump
Ġscript s
Ġgr am
te chn
ĠT E
Ġaware ness
ĠPr ivacy
Ġfl av
AC HE
Ġt ie
Com plex
oc o
Author ization
() `
Par cel
Example s
LE S
Ġactiv ist
Ġnorth west
Ġbi ological
Ġg raphics
ĠI an
be at
12 9
C tx
Ġr ub
Ġins ight
aval ry
N ING
Ġc ogn
im er
Ġnot ing
Event Args
m icro
Å Ħ
reg ex
B ot
is y
ĠCont ainer
mem Item
Ġp index
m usic
Ġ/ ></
Ġf antasy
Ġtarget ed
ĠR and
Ġfocus ing
rot ate
ĠV egas
ĠG ET
Ġpass age
Ġhealth care
ĠMic hel
pos er
Fr ag
Ġsound track
Ġsp oken
Ġproject ive
/ '
he alth
Ġal igned
F it
Ġaff airs
PROP ERT
ĠD ays
d iction
sub stack
Rece ive
Ġany where
Ġsuggest ing
ch rome
Ġs ail
ĠC ass
Ġt ort
Ġdis appoint
Add ed
om es
ĠT yp
log ic
or ate
ĠD evice
Ġident ifying
F our
op les
Ġflow ers
Ġrad ical
W W
ar ial
yth m
Ġdep uty
Ġco in
inv oke
Ġr uling
ĠShe l
ĠClass ic
Î ¼
bad ge
F ROM
Request s
Ġcouple s
font s
Ġfra ud
Ġsu icide
R IGHT
err anean
Ġanalog ous
ĠProt ocol
e enth
og s
Ġmon ot
Perm alink
ĠBl ues
Write Line
ĠS F
Ġz ip
ĠYork shire
Ġd ated
Ġmeas uring
ĠOper ations
ĠTr avel
ol t
14 7
sm art
ĠSu ccess
ĠBangl adesh
ĠBr anch
im o
CH AN
} <
ĠR ace
------------ -
ĠAfghan istan
L ab
uk a
Ġev ident
ides pread
im plementation
amp ed
ĠB ound
Ġsil ent
H A
ĠW a
car ousel
L aw
Ġin fr
Ġsupp lies
ĠAl aska
Cal led
ro d
Ġvess el
an on
do es
Ġkw args
Ġi i
È Ļ
ke ley
ecess ary
Ġcomp ound
b ank
Ġdis joint
Ġ! !
Ġacceler ation
ĠS ymfony
Pol itical
Ġg ift
Ġev il
Ġcosm ological
16 5
ĠAlber ta
l ua
. ),
ool s
ache l
ĠW rest
Ġpro ud
Ġvar ies
Any Ref
Ġguarant eed
Ġc c
ĠP AR
dec oration
s mooth
un stable
grad ed
M W
18 60
Ġpre lim
Ġbre ath
ĠHawai i
est ing
Inst ances
on ian
Un able
Ġex cluded
FUN CTION
P ython
Ch at
apt ist
Ġcr imes
Ġp tr
Ġport s
ab olic
sup p
; -
Ġr hs
ĠWay ne
ĠR iemann
ast ery
TE GER
99 9
>: ]<
B TH
vis ual
Ġun stable
lic t
ĠCon st
remove Class
Ġre actions
<? >
ĠCh ron
cho ice
man aged
Europe an
G uid
ĠP i
Ġan ten
Ġcontrovers ial
re ports
Ġform ats
f ollow
Ġz oom
Ġcor related
18 93
Ġto x
y c
Me asure
} ~\
h um
T ARGET
PREF IX
me as
Ġpark ing
Ġleg s
Ġmer ely
ug osl
enc il
Ġshop ping
n pm
w right
Ġspec ifies
ĠF ermi
leg end
ĠA ld
Ġrank s
Ġver ified
ĠCal cul
Ġs ad
Ġiniti ative
Ġg od
33 3
Ġcap ability
pos itive
ra is
Ġg host
Ġcoast al
success ful
Allow ed
Ġris ks
F ollow
Ġre b
Ġan isot
ĠP arent
Ð¾Ð ´
r ub
Ġ( <
18 92
Ġc ss
gu ard
ĠF err
TO OL
Med al
S ink
b ishop
y t
Ġco oper
Ġhand les
nt z
Ġcoll isions
h yp
ĠSy ria
Ġphot ography
x l
je ctions
Ġinnov ation
ĠJ ess
}} =\
L uc
="# ">
Ġelim inated
Ġc ous
TH E
ĠBroad way
Ġhead ing
urric ane
Ġtrans mit
not in
styles heets
Ar r
Ġpass phrase
Ġamong st
ĠW olf
control s
Ġl ambda
ad apter
ĠA pr
Ġac oustic
Ġim posed
18 89
S at
Ġb io
ĠS equ
F ake
Ġdef ence
amer as
ĠCont act
ke eper
S yn
Ġo ct
cri ptions
Ġpos it
ag greg
LE NGTH
usal em
ĠO UT
math ds
Part s
Ġor ange
Ġreal ize
Ġexist ed
ĠSp acew
const ants
ĠProf essional
av atar
uff le
Mod ules
raz y
list ing
ĠQ String
jb oss
erv ation
Ġco ffee
De ep
W ar
Ġdev oted
HO ST
d eb
Ġb es
J O
Ġamplit udes
autore f
Ġb le
i u
ĠTrans action
ĠNever theless
m ir
ĠP ictures
Ġcount ies
ĠBar ry
ĠM ix
Ġart istic
ĠCom ment
ĠElement ary
ley ball
ĠComm ons
Ġvis its
b ecause
ĠRes pond
Ġprov incial
eff icient
Ġcontract s
dr iven
ĠS ex
Ġcap s
il o
18 94
et on
s By
le te
atab ases
Ġ um
ĠWar ren
S ens
ĠAss istant
ol s
em a
| _
YER WB
BTH YERWB
Un ivers
or ia
> )</
Ġcal ibration
E mitter
Ġtim ing
ĠThe ory
LE VEL
Ġfin ance
R GB
Ġint ellectual
l iteral
Ġprov es
18 85
ĠSm art
Th reshold
ãĥ ¼
Ġp ion
at gen
; ]
ING S
ĠM other
}} )$
ĠK ath
H ot
P N
PA SS
Ġmill ions
Ġemer ged
Ġ$\ |
ĠL GBT
gr avity
i ph
text area
comp ass
C ert
get Text
Ġh ack
ĠAz ure
> /
am o
Ġt ends
PO INT
om on
us k
Ġ// !
Ġcons ent
Ġs cre
Ġdec ode
Ġcl ause
ĠRequ ired
Ġdem ands
Ang le
ĠCh o
Add itional
sw er
md c
Ġexpl ored
S ocial
Ġh orses
zer bai
Ġs ig
ĠPh ysics
car bon
Ġanalys es
mar ine
ĠSte el
: @
ĠC over
ak u
Ï ħ
Ġt ough
l ag
Ġex clusively
hen g
18 88
ĠS K
Error Code
Ġrep o
sc ar
V S
bal ena
ĠCol lections
Ġnon zero
Ġweak ly
Ġc ul
Ġ' $
Rece iver
D imension
ĠStan ley
15 5
ĠP ast
s leep
as ant
re z
ĠSpacew atch
hat tan
Fil ename
Ġdo ors
add EventListener
cel ona
ath ers
ĠB ud
Ġexpect ations
conf irm
ter ed
au er
Ġaccord ance
] >
ĠF ine
ĠV I
ĠL LC
ond a
bedd ed
Ġor bits
sub str
Ġhabit at
z ier
sp l
St ates
String s
Ġobvious ly
Ġinstrument al
ge om
x ref
ĠD IS
M ot
oc ent
Ġmonth ly
ch annels
b ian
Ġdecl ined
pre vent
no ise
asc ade
Ġillustr ate
Ġc able
ĠB ron
sl ot
Ġcons ensus
: **
ĠF alls
umin ate
ex act
Ġ} ));
av i
Ent ities
Ġs le
over ride
ĠSh a
V IEW
Ġt iny
ĠPark er
le in
n io
ĠCov id
ish ments
acc ur
' ',
' }),
en berg
Ġcompos ers
Ġp our
ĠBar bara
orient ed
Ġt act
Ġbur st
ĠF ather
Ġind irect
Ġar ithmetic
t ically
Ġref ug
NE W
Ġtrend s
ĠD epend
ĠSO FTWARE
ĠS now
Ġp b
Con figure
ĠCon n
Se ason
Ġ' ../
ĠOrth odox
' }\
CC CC
ĠEn able
em bed
cho ose
Ġb one
el o
RO W
}{* }{
thread s
ĠCarib bean
ĠF reedom
Th omas
ĠN ad
Pr imitive
Ġliber al
B er
ess ment
ĠThe ater
ĠIn n
A CTION
Ġaccomp any
ĠE val
View s
Ġw arr
ĠH orn
Ġprison ers
ĠR ank
writ ers
n ear
C AP
le f
T oday
Sw ift
Ġadvent ure
LIN K
ÑĢ Ð°Ð
M LE
St d
Feb ruary
Th an
R eq
Ġthreat ened
Head ing
ĠC atal
Prot otype
y aml
Big l
om i
Perm issions
Ġswim ming
oid al
ĠS Y
fr action
DO CK
ĠGener ate
Ġph rase
Ġneigh bors
Ġpure ly
ĠC L
æ ł
ĠStud ents
Ġfor cing
ĠB ag
ĠV ancouver
S B
> ');
ĠM enu
ĠP in
ĠB irmingham
Ġven ue
7 50
TO DO
Ġours elves
J s
Ġbar rier
l floor
re strict
ig gers
ĠP aper
( |
ĠP rior
Ġlaw yers
ĠDet erm
ĠNaz i
Ġqu ote
Ġforest s
E ar
Ġorgan isations
k u
Con v
ĠR ural
Ġhom ot
get Key
Ġencounter ed
Ġcar ries
sh ots
ĠConserv ative
Tog gle
og ue
ĠS creen
ĠCom put
Ġinterview s
ĠExample s
Ġb rows
Ġr s
ĠB utton
Ġking dom
Ġrect angle
to kens
Ġcritic ized
Ġman ually
Ġded uce
miss ing
Dependency Injection
Ġimpr ison
C MD
****** /
ĠNot ice
ri el
Ġdisap pe
Ġs ick
M X
Ġcaref ul
Ġb eta
duc ational
pos able
g ap
Ġth orough
Ġaux iliary
r adi
Ġre fin
ĠS ay
ç ½
ĠDis play
Ġfin itely
absol ute
Ġin cl
H ide
30 4
Ġge omet
Ġb orders
ow ed
ĠF O
ĠIn it
sub scri
Ġlo ops
Ass ume
ĠMag ic
ĠS erv
Ġel igible
Ġw idespread
ĠOr ange
un ning
15 00
et ta
di ag
= -\
Ġsub stitute
ĠCr ime
Ġconven ience
ĠTh row
AP PL
Ġviol ent
Ġv ic
is an
// !
Ġplan ets
Ġbl ind
Ġs acr
ĠC ultural
Ġrare ly
button s
m ill
Ġap artment
Ġfe es
P DF
s an
A mazon
H en
Ġinter faces
Right arrow
Ġpe ers
Ġcut ting
ĠN ar
s il
or ship
Im mutable
Ġt ub
Ġ" ")
Ġcall er
ĠEnvironment al
Ġm oral
(" <
ĠR u
ĠNev ada
ĠPho enix
ue z
NOS CRIPT
Ġsl ave
Ġmut ual
al tern
bor ne
Ġpro tests
ĠV ert
ĠSh op
Te chn
ĠDef ence
ĠGr an
? )
ĠCon struction
table s
sw ap
ĠInter face
Ġprote ins
Ġattract ed
Ġprofession als
ĠAnd re
Dec ode
Ġdepart ure
Ġgr an
st mt
ĠB asketball
Ġw el
om at
Ġindic ator
publ ished
Ġdis ag
iff s
ok u
Ġ$ <
ĠJos Ã©
he art
Ġtrigger ed
sup erv
conf irmed
Ġd jango
f ee
r floor
H H
F oundation
ter ms
=" //
D a
Ġb oot
ĠU TC
short cut
t ies
ĠN an
Ġch at
Ġgu idelines
ĠRE G
ĠNot es
ier ra
| =
Ġm i
ĠA y
On line
qu ick
Ã Ł
ob e
Ġgener a
Ġpremier ed
l ater
T K
> ("
& $
Ġover se
ind eq
umb ent
hes es
Ġpart ly
XML Schema
ĠExt ension
Ġsub stit
b ie
ĠTog ether
18 00
comm ands
S IGN
tog ether
Ñ İ
Ġob lig
13 2
) |\
Ġpro c
tr on
gle w
ĠN BC
Ġstr ain
Ġdeterm ination
[ [
Vert ical
ĠDir ac
ĠS even
ĠC WE
Ġindu ces
Ġaf ternoon
ĠP ic
18 91
ĠPh D
ĠD R
valid ator
Ġmount ed
Ġmaintain ing
S heet
ĠGl as
ĠW ing
sp ark
Ġsample d
Ġ} .
o ft
ep h
Ġattempt ing
ĠIm Gui
ĠNorm an
Ġnewsp apers
ĉĉĉĉĉĉ Ċ
Ġ Ã©
roll ers
Ġconstr ained
Ġvol can
ä¸ Ģ
Ġcon formal
Ġh ub
Ġtraject ories
p end
æ ī
Ġeng agement
O rient
ĠUn like
ĠV a
15 2
K ing
v dots
Co ins
act iv
l st
å Į
LO AT
window s
Pl us
chi at
Ġback end
ĠS aints
Ġl oyal
20 2
ĠF actory
get Property
w b
im iter
M argin
ex tr
T own
d evelop
Ġb ary
ĠG reater
Ġent hus
H orizontal
av ery
Ã Ĺ
p referred
F ar
ĠF oot
Ġ" (
D eb
Link ed
Ġnav al
Ġserious ly
G allery
f hir
ĠJ en
ĠLem mon
ĠUnivers al
sh iv
Ġlock ed
er en
Ġw ounded
Ġcrick eters
ĠM yst
Ġwor ship
w ang
ac re
Ġ' {
EN C
Ġd ub
ent e
ph oto
ĠEn try
Ġant ib
Ġob st
ester day
Ġc s
Ġcol leges
ster dam
Ġcred ited
Ġimpress ive
)= (
$ --
ĠColl ins
' )$
Ġe cc
ĠMar vel
........ ........
ĠE D
Ġhash Code
Ġperfect ly
at um
T ake
F oo
ov ich
\ -
Ġbr ick
ĠJ a
Ġre vision
olog ically
v g
ĠM ach
DE LETE
Ġmoder ate
Ġon click
Ġestabl ishing
ĠAnn ual
Ġcas ual
em pl
CE P
amp a
ĠY et
ĠIP v
ĠCom plex
Ġcontrib uting
ĠB lood
ĠBen jamin
Ġshe ar
ĠPro duction
Des cribe
Ġp ose
ĉĉĉĉĉ Ċ
Ġr ay
pe er
ĠL uther
ĠZ end
Ġpay ing
i ator
Ġmem orial
ĠC arm
Ġsp ark
Ġfilter ed
ĠC old
min imum
Ġinflu ential
Ġbus y
B s
A cknowledg
Un mar
Ġmed ieval
Ġsub section
}_ +
Ġmod ifications
D ataset
Ġdes ert
Ġs ock
s napshot
' "
Ġnom ination
ĠN icol
p el
ĠNov a
ĠT itle
ĠD ATA
18 65
13 7
Ġf atal
the mes
ĠPr adesh
Ġquot ient
ot ton
Ph ys
1 19
ĠBe aut
Ġsequ el
or acle
pay ment
am pton
ĠSt re
Ġsouth west
14 3
Draw able
ĠV erm
is ch
}) _{
Ġun likely
s outh
ĠC ategory
to k
Ġmechan ics
S pr
d ifferent
c ritical
Ġlimit ing
cur r
2 25
Ġpre dec
Ġaccess ed
= (\
ph ot
F ace
sat isf
neut ral
y arn
c atalog
ĠDr ag
ï ¿
ential ly
sim ilar
od ash
ĠMean while
ĠOtt oman
Ġthir ty
Ġmiss ions
Rev ision
g mail
ĠP or
ield s
ĠB row
C op
Ġdot ted
as ide
os c
Ġearth qu
ĠBe ijing
ĠSh im
ĠWith in
ĉĉĉĉĉĉĉĉ ĉĉĉĉ
m bf
ĠJer usalem
ĠQu ant
ced ure
ĠMed it
Ġ ----
ĠT ed
ĠG round
orient ation
ĠSh adow
Vari ables
Event Handler
ĠEd ge
Ġd aughters
ĠCat hedral
al am
s ock
20 4
ĠM ong
Ġclaim ing
b idden
ĠR acing
S in
Ġadmin ister
\, ,
ĠCarl os
Custom er
é ĩ
Ġind igenous
ĠMat hemat
os hi
CL U
ĠĠĠĠĠĠĠĠĠĠĠĠĠĠĠĠĠĠĠĠĠĠĠĠĠĠĠĠĠĠĠĠ ĠĠĠĠĠĠĠĠĠĠ
n od
Ġbeg un
Ġex clude
Ġqual ifying
D istrict
Ġin jection
Ġinsert ed
ĠMuslim s
ĠP ow
Read Only
H I
& -
}_{ {\
H F
ri ble
' $,
m ade
Art ifact
ĠAdv anced
ac iÃ³n
Ġaff ects
Un its
Ġam pl
Ġcomp atibility
h uman
Ġrespond ed
Ġwed ding
L ou
Ġemer ging
ĠĠĠĠĠĠĠ Ċ
ol en
= }
ĠCred it
Ġsh ifts
Ġreview ed
Ġo c
ĠSal v
comp iled
ĠTig ers
tab End
std lib
art z
Ġexcit ing
Ø ³
pos al
Con version
ious ly
ĠPerson al
Ġeffect iveness
PI O
ham mad
ert on
ĠIN T
s yntax
C ritical
ĠS ax
L ONG
ĠU g
Ġmag azines
Ġcaref ully
000 1
Ġvan ishes
Ġcomple tes
Ġc ategor
be ing
ĠCl uster
18 50
Ġstart up
Ġcount ing
m is
f und
Ġelect oral
âĢ ī
R F
un its
ance led
tem plates
ĠRich mond
ĠO blast
ĠSt ein
cel and
ĠColon el
Ġline arly
ĠO il
E lem
* >
B ooks
Ġh older
ĠSet tings
PAR AM
job s
Sign al
ĠMon th
Ġremark able
ĠSt ories
m iral
ĠL ocation
Ġassum es
Ġdifficult ies
ĠK ur
Ġ ib
the y
ĠS L
Ġed iting
Ġind ustries
ĠR ing
amp ing
Ġeng age
Ġactiv ists
indu ced
ĠM ans
Ġsup press
N Y
sec ure
ĠPier re
b ird
ĠAp pe
Ġsearch ing
Ġl ens
Ind icator
Ġdig it
UT O
ĠGL enum
ĠL yn
ĠIn s
ĠIn stance
Ġgu ilty
Ġfl avor
å º
ENT S
ĠF am
B ob
com press
}^{ (\
Ġextr action
Sim ilarly
Ġann ually
5 67
che str
ĠCon structor
Input s
ĠArch ive
Ġg ard
ĠB rowser
Ġcon fer
Ġconsist ently
ĠSpec ifically
Ġt ou
f v
Ġ$ [\
ĠAn aly
ĠRes erved
Ap pearance
Ġlo ader
ĠNO TE
ĠB ot
ĠAthlet ic
Ġchar ity
Ġhyper bolic
Ġll vm
M ur
Ġefficient ly
ĠDer by
ĠP ra
ĠO THER
ĠT u
ĠInd ians
Ġev olved
Ġover come
ĠEu clidean
veloc ity
ĠS ample
prot ect
C odes
14 6
Sp anish
Ġnot iced
Ġmanufact urer
ĠN ormal
semb les
CD ATA
em ies
ĠTr igger
et ics
ov iÄĩ
rit ic
ĠM B
Ġcou plings
She ll
Ġcred its
Ġ --------------------------------
Ġinit iated
Ġcon clusions
ex press
hom ology
Ġcons iders
Ġme at
CON ST
Ġrelax ation
f olk
Ġl t
D G
Ġra ising
Cal cul
Ġband width
d h
ĠG alaxy
P K
Ġ$ $\
ĠB ec
ĠS audi
å į
Ġdevelop ments
Ġp arsing
int egr
G UI
Ġ[ -
ĠC BS
ĠH unt
Ġpoint ing
Dispatch er
prop ri
st ad
ĠPhil osoph
Ġstar red
Ġunder ground
T ITLE
Ġphys ically
ÐµÐ½ Ð¸
Z h
Ġb oss
Ġ( {
Å Ļ
Ġcomp anion
r aska
an ese
ĠU rban
Abs olute
ĠĠĠĠ ĉ
ad os
M or
18 87
ĠBuff alo
an ian
ten ess
. &
ĠCamp aign
icult ural
x path
ĠM ail
Ġinter vention
Ġl ights
Ġprom ising
ï¿ ½
am ination
ĠS ongs
Ġcontin uity
ĠUS B
)+ (\
. },
B bb
PAR AMETER
ator ial
b uck
â ĪĴ
Ġte ch
ĠLeg end
d g
Ġass ass
Rich ard
Ġvari eties
vious ly
J ew
) |^
Ġch iral
ĠY u
AS C
ĠRepublic ans
Work flow
Ġfiction al
Ġ/** <
ĠCommission er
M ASK
ad apt
ri ors
ph ysical
Ġelev ation
æĺ ¯
V R
d imension
ĠQ t
Ġposs ession
inter faces
ij i
) <
FO RE
ĠT ournament
Ġstr ange
] -->
Ġdeb uted
} &\
ĠI van
D ot
ĠGener ic
Ġl ap
Ġem issions
Ġcomp ress
å °
out line
æĸ ĩ
ĠRead ing
; =
ĠL ud
Ġscal ed
T IM
Is Null
UN K
ĠB ir
Ġr ings
Pred icate
um ann
Ġbutton s
ĠAt omic
Ġw ake
ast ore
ĠHarr ison
B G
ĠS ad
Ġfinal s
"> Â
ĠInt elligence
Ġorient ed
ĠV iol
Ġpred icate
[ ],
18 86
Ġpod cast
an imate
equal ities
Ġcon scious
Ġrel ay
M AC
P s
P eter
=" <?
ĠFor um
Ġcancell ationToken
qu o
ĠA x
us ive
ĠB H
Ġden om
Ġad apter
i ology
Ġt ension
ĠP el
it ual
Ġwood en
] ^{
ĠA f
'' '
Ġbon us
ia o
Ġphotograph s
ĠM ut
eg u
Ġ(! $
Ġb rew
ĠJ oy
Ġorgan ic
Ġfrag ments
p ick
Ġknow ing
ĠDocument ation
Ġt ar
pro j
ĠV AR
Sub scri
ĠL ithuan
ĠCr icket
aj a
Ġtown ship
J ac
Ġle x
ĠMark eting
r us
log ical
Ġcontrovers y
ult an
ett i
r ant
Govern ment
Ġagric ulture
pym atgen
Ġf irms
ĠC hel
Ġreserv oir
x c
ĠPro test
bit coin
on aut
c amp
LE N
2 11
Ġdec oder
ĠS id
Ġg lyph
op al
Ð° Ð»
I BU
ĠS outheast
Ġp reference
Ġinnov ative
ot he
Ġguitar ist
ĠArab ic
numer ic
ĠTh ings
Ġview ers
ĠC row
ĠDown load
c odes
T ON
istrib uted
crypt o
Ġexhib its
Cre ation
ĠH em
DI RECT
ring tone
ĠĠĠĠĠĠĠĠĠĠĠĠĠĠĠĠĠĠĠĠĠĠĠĠĠĠĠĠĠĠĠĠ ĠĠĠĠĠĠĠĠĠĠĠĠ
Ġco operation
Ġab road
ag i
B in
cal c
ele ss
Ġreg iment
om ething
ag ar
ant ine
}, {\
ĠC raig
oc on
Ġent ers
bour g
Ñģ Ðº
verb ose
;\ ;
ĠAct or
om ed
Ä Ļ
Ġpaint ers
hol m
re nd
ren ew
Big r
ĠEgypt ian
Ñ Ħ
Ġoptim ized
Ġmill is
Ġop ponent
Ġp s
Ġ/ .
oxy gen
ĠA pi
spec ies
is Array
Ġ' </
Un ion
Rec ent
Ġwat ched
Max imum
Ġmer chant
Ġspac etime
> ';
B attle
utor ial
ens en
ĠLay out
qu arter
h m
ĠP E
Ġpop ulated
By Name
M ad
Ġre ven
ĠG as
Ġt issue
DE P
Suppress Warnings
Ġvar ied
sub float
Ġannounce ment
4 000
op edia
ah a
ĠR ick
N F
Ġsh a
In clude
He ap
ai ro
al one
Ġparticip ating
) }^
ad just
ENT ER
enn ial
Ġmulti plication
ing e
Ġtax es
Ġbirth day
ĠTem plate
Con struct
ch itz
Ġdiv ide
tem perature
Ġcon jecture
{ [
Ġc avity
govern or
Ġreported ly
Qu estion
exception s
Ġminor ity
ĠP ick
ĠB rew
Ġperturb ations
Ġdialog ue
Ġtem plates
ĠH indu
Ġcl othing
Ġviol in
Ġcon gress
ry ing
Ġd rew
cred ited
Ġj e
De ployment
ĠSch olar
F ast
ĠDr agon
Ġlabor atory
Ġdeep ly
Ġrepeated ly
ĠS occer
ĠMan hattan
eth yl
assert False
ĠK ap
Ð¾Ð ¼
ĠT it
Ġvalid ity
Ġbusiness man
S printf
b uffers
ĠF itz
ĠO cc
Ġen zym
ĠBar celona
\| _{\
spec ified
ex ist
Json Property
ĠCle an
um per
ĠL ost
ĠTechn ical
Ġp ipe
P ACK
l ists
w ire
ĠCo al
Ġpet ition
il ia
Ġleg it
ĠNichol as
Ġtr ick
w hel
or ig
Ġlat ent
Ġinst ability
( ",
Ġd ash
ir s
uss ia
ĠN GC
y ellow
Ġsuff ices
and box
Ġsurve ys
Ġlab our
ĠF loat
Ġsp okes
ĠI MP
Ġdeform ation
Ġwebs ites
ĠL ot
ack ets
ĠK ind
Def ine
ĠSim ilar
Ġre cre
ew ise
18 61
ĠK os
Ġs aving
Â Ģ
Tag Name
Ġl os
ord inary
ĠRober ts
Ġhe ating
Ġk inem
Ġbr ig
Ġsuper conduct
Log ging
Ġfru str
friend ly
Ġhon our
ĠC el
', \
se ek
ĠFI LE
B as
Ġcross ed
Ġcloud s
p arsed
Ġm ild
dim en
quir y
v r
en h
Ġinsp iration
ĠLink ed
ĠTurn er
Ġveloc ities
ĠAthlet ics
Ġcontinuous ly
ĠPref ecture
Ġdeterm inistic
Ġsp ell
13 1
Ġprotocol s
Ġenc rypted
ĠArt ist
ĠD ocker
. }\
Ð Ł
Ġevery where
Ġpo ems
Ġcomm em
Initial ize
A meric
c ocos
Ġdog s
we ather
Ġreflect s
el n
/ $
Al tern
US A
Ġg al
Ġrecommend ations
K EN
Ġclass ifier
Ġt one
Ġfil med
od b
Ġthick ness
ĠH udson
PRO TO
28 0
s ay
Ġminim ize
her ence
ĠChar lotte
ĠAg ent
C atalog
ĠMil an
ĠFle et
ich i
U r
CON NECT
V ote
b read
Ġext ensively
ag les
ĠJ erry
Ġpl acement
ĠVal ues
STAT IC
Ġcancell ation
Ġsurv iv
cover ed
ĠMedit erranean
a ho
Ġg all
CON F
Ġm as
Ġpower ed
is cal
access or
18 64
Ġrow span
Fr ont
Ġinfin ity
F ilters
Ã¼ n
3 30
Ġpat ent
ĠB achelor
Ġinter active
k le
ST M
Ġpul s
ĠSt evens
at che
ĠM all
fin ity
Sup plier
h int
Ġ* **
14 9
Ġst ick
ord ination
Ġrec urs
Ġsold ier
ĠH ann
ĠForm ula
Ġcr ack
Collect or
RE AM
Ġd w
ĠT un
Ġcomple ting
Com b
u o
sc opy
ĠLiter ature
Ġreg ulation
u ator
Block Index
ĠSerb ia
L F
* .
th reshold
ĠB right
Ġsqu ares
Ġt ape
U psilon
Initial ized
APPL ICATION
ĠMunic ipality
ĠFI FA
per form
($ _
' })
ext ends
eff ective
ĠRE AD
Ġag rees
ĠQ CD
ĠAdd itional
Ġsole ly
18 84
Ã¡ s
Ġ- &
Ġafter wards
std out
Ġprelim inary
im ize
Ġgener ations
Ġqu oted
unders et
Ġpotential s
ĠRem ark
ĠLead er
Cl ause
W D
Ġhospit als
Serial izable
ĠS ER
ina e
R oom
Ġre lies
Particip ant
ĠTro phy
Ġcom ics
ĠPl us
ac a
> -
ĠIm ages
Ġsurv iving
ĠAlex and
en ium
Ġl ingu
ĠSt even
e ing
op ing
Tok ens
Rec ogn
Ġc f
Ġspec im
Ġc inema
D ash
15 7
ĠCap itol
Ġcos mic
ach i
Ġover head
Ġin set
Ġglob ally
F un
Ġarg c
p oll
C U
LSP AN
is b
Ġsp ots
ĠL ad
ĠN ames
Ġper ception
ĠCO LSPAN
Ġswitch ing
Per formance
K ar
ĠD elta
ĠEp isode
Ġinc idents
Ġrock s
ĠBelg ian
analy tics
Ġg ear
Ġassert ion
id ency
Ġ{ })
Ġmon ument
g gle
ĠGu inea
s izing
est im
H int
tr ained
Dem ographics
Ġsup plement
[ _
Ġhas n
ĠG O
W ater
Ġl ying
Ġsh ipping
Rel ations
in ery
lin ing
Cl osed
La unch
Ch oice
adi ents
ĠF ab
Type Name
ĠSer ge
Ġserial ized
Ġconv icted
Ġphenomen a
ah l
Ġv it
Z Z
æ ³
ĠInst agram
ĠN ear
Ġ rib
r ans
ĠD etails
Fr ank
i am
ĠM ason
g res
Ġund ert
ĠB urg
Ġt ickets
Ġvis itor
ĠJ ama
. ";
ĠB omb
18 63
Ġcard inal
= </
Ġpurs ue
Ġscient ist
ym p
High light
18 81
Ġf oss
18 75
e ctions
Ġmunicipal ities
Ġsynd rome
Ġcampaign s
Y P
ar ations
ĠF riends
MA KE
Ġcomment ed
ass y
Ġany way
in ions
re ject
Ġbre ast
m achine
ĠH AL
N EL
et ype
Ġv e
Ġp ian
Ġ# #
Ġfl ush
u cc
ret val
Ġcomput ers
Ġco aching
Ġrest oration
Ġsustain able
Ġsudden ly
copy right
Ġflex ible
Ġpl enty
ID S
mark et
ur bed
ĠCh air
Art icle
L ittle
ant astic
Ġp arks
Ġfail ing
ĠE instein
)} _{\
Ġs ectors
poly mer
B ag
ic it
has OwnProperty
Ġformul as
j q
ĠFl ore
add er
UP DATE
ed e
oc y
13 3
ĠCon sequently
ĠB og
ew ay
t ick
Ġref erring
ĠLeg al
ĠS ent
et ter
}. \
18 62
ĠL ate
f air
Ġdec ides
Ġs el
ra f
ĠP le
Ġm k
Ġtherm od
Ġan onymous
(' ../
mention ed
Get String
ĠCl are
ĠChrist ians
ĠValue Error
tri ang
Ġescap ed
x rightarrow
ro at
LOB AL
ĠM ove
Sub mit
Ġad res
ĠEcon omics
h it
ÂĢ Â
Ġconj unction
p romise
M el
Ġrele g
Ġl ux
Ġlocal ization
th y
add on
Over flow
Ġpeak ed
Ġste ep
Ġabs ent
Ġexam ined
h ind
] *
Ġint ense
IBU TE
sl ug
ç ±
15 4
Ġspeak ers
Ġsuff er
Le ague
n P
Ġdram atic
ĠVin cent
nav Bar
3 75
ĠRec all
Ġid s
ĠInd ustrial
Ġ} {\
ĠE ug
ject ive
ĠSh ip
vers ions
Red irect
Ġwarn ings
M ont
}\ ;
}} }{
ĠCart esian
Com pute
sur ance
Ġj u
Ġde eper
Ġattract ive
iv ic
string ify
ĠRet riev
ĠCost a
equ e
port let
ĠR angers
Ġregular ity
Ġgr ants
] ];
Ġgen es
ĠT oy
New ton
Ġterr itories
ĠRob in
ĠVictor ian
t cp
( @"
A IN
Th ird
SU PP
fail ure
Ġport ions
Ġprom oting
Ġre normal
over e
Ġin tern
Ġfeel ings
ĠTh or
Ġtang ent
Ġsh ore
Ġvari ability
ĠH orse
Ġuniqu ely
s olution
uck er
MS earch
ĠE SP
ĠIran ian
Ġrefer enced
Vis it
ĠOver all
p ine
Ġan ime
Ġs am
Ġpl ugins
Ġhapp ening
L if
W P
g b
Ġt ick
ĠGlas gow
ĠS ans
Ġperm utation
mon itor
LI B
ĠBr istol
gener ation
Ġâ Ĥ¬
ĠQu arter
NAME SPACE
Inv oke
Publ ished
Ġcolle agues
TO P
Ġgr ab
Ġcor ruption
Ġfore cast
âĶĢ âĶĢ
ent ine
Ġinflu ences
ĠSpr ings
stitu ency
Not ice
Ġel abor
Ġdocument ed
Ġh ist
Ġarg v
pret ty
ĠFr ances
}= (
ĠT ib
ĠC ob
Ġcelebr ate
ĠBeng al
ĠL ex
Ġadv is
Ġgather ed
13 8
mathbb m
Ġkey word
M id
Ġmanufact urers
Ġt ube
if th
om o
"> /
æ į
ĠP rep
act ivate
' }$
Ġmin isters
Cl aim
0 100
l uc
ĠPro gress
ĠCirc uit
ri en
Comm ands
ĠPol itics
T w
Not ify
_{ {
Ġt orn
Ġin equalities
Ġop ponents
Ġ ì
Ġcomm une
ĠRes et
F ee
Ġanom al
H OT
ĠBer keley
ĠPr im
W F
is p
Ġas semb
V oid
Ġneighbor ing
Ġsynt hesis
P atch
Ġ utils
00 3
Ġam big
ĠC ant
' -
Ġend emic
ĠÐ ·
Ġreprodu ce
U TE
ĠU SS
ĠAr c
Ġatt ending
Â ®
ĠA F
+ -
Ġact ed
log ue
ĠA zerbai
inc inn
enc ia
opt imal
ĠOl iver
G D
Ġspecial ized
Ġimag inary
s it
ĠB ird
ot ypes
inner HTML
is se
Get ter
Ġdecre ased
ave led
Ġre open
nap shots
C lip
}) -
Ch inese
Ġdefe ating
Ġar ises
ocr atic
ir able
16 6
ash a
Ġdiver gence
ĠEth iop
e ur
C y
Ġintegr ity
ĠMad ison
Ġi OS
ĠKir k
ore l
Al umni
ĠFac ulty
col our
AT T
b age
× ľ
s aved
A O
ĠK ay
ĠT on
Âł Âł
ament o
Ġpo ets
amer on
F IN
qu ire
Ġse eds
con tract
DOCK ED
Ġb ins
Ġch ip
}} }$
Ġarchitect ural
Cent ral
Ġh opes
df s
ĠS eb
Ġh int
Ġflo od
Typ ed
ĠL ov
Pre view
n r
Ext ended
14 8
Ġmathemat ics
Album s
r ac
erm ark
MA G
OD Y
ĠValid ate
O ps
ĠTh ank
ĠC ancer
Ġmot ivated
ĠD raft
Ġdec ays
display math
Ġrat ings
Inv ocation
H it
Ġtw in
Ġwire less
ĠB our
Ġim plications
20 3
Ġgr ain
Ġlog s
r ain
Ġdi agnostic
hib ition
Th rows
Ġsusp ension
Q R
on omic
Ġs q
Ġinter sect
ĠCh and
au kee
Ġnumer ically
ĠKen ya
Ġw ings
Ġh istogram
ĠR ect
Ġshould n
Ġsegment ation
Ġdo ctors
' =
Ġt ies
Ġp ic
Ġsens ors
F at
Ġgovern ed
whe el
Ġl iv
B a
et e
Ġc ameras
ĠI o
ĠÐ ±
ĠM is
Ġp t
Ġhighlight s
Ġvulner able
S un
Ġto ggle
Ġfr act
col ogy
su ite
m ot
set Value
Ġthe at
Ġconstant ly
. (\
con ver
Ġ ÑĤ
Ġg rap
prot oc
ĠĠĠĠĠĠĠĠĠĠĠĠĠĠĠĠĠĠĠĠĠĠĠĠĠĠĠĠĠĠĠĠ ĠĠĠĠĠĠĠĠĠĠĠĠĠ
ĠWrit ing
( <
x f
Int o
Ġsh ots
ĠCom merce
ĠX ml
ierarch ical
Block ly
ĠM uch
at z
ĠWrest ling
Man aged
ĠFinn ish
Ġaccur ately
ĠAr gs
N L
IF Y
ĠW arner
Key board
ORM AL
ĠColomb ia
co ordinate
m q
ate ful
Qu ick
ĠV M
Ġcon current
Ġacqu ire
MP TY
Ġwind s
' )\
DE VICE
ĠCont em
Leg acy
Ġdep recated
ĠDen ver
ips chitz
Ġg ross
Ġp c
Ġwonder ful
" +
id em
ifest yle
Ġengine ers
aver se
} `
Ġdist inction
ĠGL int
Ġsaf ely
in cre
um i
Operation Exception
Ġwav ef
ĠArch ives
ĠCal led
[ ];
Ġbas ically
ç± »
Ġ" --
ri eve
ism atch
18 82
Ġmon arch
U i
N il
ĠF isher
CK ET
Ġg ains
ĠG ay
Ġdep ression
i pt
Ġport folio
ĠC apt
ĠV lad
ploy ee
Ġa qu
Ġshall ow
C ref
iline ar
ĠGi ants
18 78
Ġretriev ed
ĠConf eder
ular ity
Ġelli ptic
Ġ{ {\
un ches
ivari ate
ĠY ugosl
ad itional
ag ation
get Default
ä» ¶
Ġb alls
ĠJ oint
ĠArch itecture
k ill
incinn ati
Ġsimpl ified
be am
ĠE ston
ĠY am
Ġbo ats
Ġformal ism
em in
pers istence
ro c
get C
Ġun safe
CEP TED
c aster
ad ers
Ġv ital
A WS
Ġcop ied
Ġjuris diction
st own
ĠMu hammad
eg ral
V IS
Ġscreen ing
ĠB und
ph on
Man ifest
Ġhighlight ed
< >(
H a
ĠM eta
PROPERT Y
R oyal
ĠL ion
15 1
Ġchem istry
Ġimag ine
Ġgener ality
oc co
ID s
d ummy
Ġguarant ees
ub a
Un lock
b ay
Ġtor us
Ġsec ured
}{ $
2 32
Ġnec k
ertific ates
R P
ĠU lt
) )$.
V T
bar s
@ {}
P a
ĠF u
ĠMur phy
Ġst ere
c ern
Ġexcit ation
ric ulum
Ġproof s
Ġres ort
Ġdon ated
~ (
A ws
ĠAg reement
G s
ĠG olf
Ġhistor ians
Ġf d
26 0
Ex pl
[] )
Ġfacilit ate
AR K
ĠBit coin
scal ar
ĠLu ke
B and
urch ase
Ġb anned
ab ol
Ġgr pc
Ġal i
Check er
)} =
Ġprint ing
ĠL ux
ĠG host
ĠTre as
Ġfeas ible
capt ure
sche dule
G amm
ST EM
ris es
Ke ep
sub title
IS H
13 9
ÑĢ Ð¸
v skip
Ġas ide
int endo
Ġsurre nder
Ġe ighth
$ _{\
G al
Ġs id
Ġ= ================================================================
ĠU til
ĠPl anning
ĠLore ntz
Ġf ur
Ġaccept ance
Ġb ubble
Cap acity
Link s
Ġorig ins
Ġcomp ounds
RET URN
Ġcoun sel
Char les
Ġstop ping
Ġcab inet
id ays
ĠG rey
ĠPar ish
n om
Ġess ay
ĠDE BUG
ĠV el
Ġdemonstr ates
ocom plete
ĠC u
rel ax
Ġla ugh
Ġphys ician
Ġexped ition
ov an
Ġimplement ing
ers ions
ĠB ond
Ġconnect s
ĠF riend
min a
ĠCan al
Ġemphas is
ĠSt ack
ĠPer u
im ity
Ġab elian
d id
ĠAnt i
M icro
navBar Cell
Ġdis pute
ple ctic
Ġgeodes ic
ĠC lay
15 9
K K
ĠCub a
n orth
En code
Il legal
est imate
Ġ" ");
Ġdoub les
ĠB ass
Ġr ated
rele ased
ĠB ath
18 83
Ġdescri ptions
ĠChar acter
B AD
Ġout door
ĠFr ame
Ġscr atch
Ġele ven
R en
ĠL arry
IC K
ĠK rist
ĠV ic
he ld
ä ¿
Ġhand lers
Ġimport ed
ĠS ales
ĠL ions
block quote
Res olution
ĠH ob
Ġun lock
ap ing
char set
Ġoccur ring
Ġd Ã©
ĠI de
ep he
AC CEPTED
ij k
WARN ING
Ġan notations
wall paper
ĠKe ith
Ġ$ ("#
S a
w aukee
j ud
Ġdist urb
r w
ĠAs ync
r ated
om eters
cknow ledge
Ġcous in
Ġb orrow
ev t
ou x
Ġg ates
Ġtr ap
Ġvolunte ers
IFI ER
ĠH O
v t
L ondon
ĠD ig
ĠModel s
ĠV as
te enth
$ (\
Ġperson ally
2 64
ĠM es
Ġde emed
ĠBer g
mes h
Ġg enu
22 4
list en
Ġn m
Ġasympt ot
ĠLabor atory
ors ion
ĠAm sterdam
Ġtempor arily
Ġdu o
Loc ator
Ġse q
ull ivan
Ġcy clic
ple d
s ized
ar an
ast ed
ct l
J ul
Ġd type
ĠNeb raska
Ġmem or
Sample s
B ay
Ġ( ((
ĠL loyd
× ¨
ci pl
Process ing
Aut hent
Â »
() "
aw k
Ġcoal ition
ĠB orough
ĠV ent
ra ise
e i
per formance
ĠO ri
to o
Im plementation
unt u
ĠT ru
ort on
Ġv ibr
Ġb read
F re
Ġcontrad ict
Ġaccept able
uck land
). }
ex e
IR T
Ġhun ting
. ]
H ouse
Doc s
ĠW u
E con
ix on
rec v
m ne
Ġarrang ements
act ed
Ġoccas ions
F s
ĠK i
Ġdis aster
14 1
Cl one
Byte Array
Ġintrodu ces
ĠCO M
ĠTh anks
Ġdec imal
ĠY O
Ġreal m
Ġlik es
ĠCh ap
Ġm anga
20 8
Ġ ^{\
organ ization
ĠFil ip
th al
="../ ..
Ġro uting
W ild
i ov
ĠK ol
ĠR ole
ĠCON FIG
ĠGh ana
get Logger
ever y
}| ^
UM N
w so
Ġam ateur
upload s
T urn
Ġblock ed
ĠCont roller
ĠR out
od ic
Ġportr ayed
First Name
mys ql
ĠRoman ian
Ġ ))
ĠB ug
Ġint u
NO TE
ĠAnt ar
Gamm ac
Z end
fin ish
ter min
ĠK l
d an
Ġsup ern
ĠStat istics
Ġact ively
ĠRe yn
æ Ŀ
ĠI SO
Ġfraction al
lay ers
User Code
o ons
ĠM oney
Ġbut ter
in ology
ĠSus an
18 67
Ġaccess key
Ġpers istent
}\ !
ĠSh ang
ĠT ol
Person nel
od al
}_{ (
osp el
Ġliter ally
ĠFl ash
Ġderiv ation
Ġsc oped
Ġim per
Ġo mitted
ĠE ld
rest ore
ĠM s
ĠEl li
ĠS TD
Ġvent ure
h ydro
Orient ation
ym ore
ok ia
Ġ" :
S ir
av ier
Ġor chestra
Ġar ising
d ater
ĠCar r
ĠB inary
In c
Ġpre dominant
bal ance
ĠM agn
}\ }$
18 8
uzz le
Ġtr aces
Ġtrad itions
ĠI celand
Ġparliament ary
Ġdrink ing
ĠCurrent ly
o ard
ĠH aving
Ġfilter ing
F all
Ġt ons
d ro
Ġcompens ation
mid t
Ã ī
Ġgraph ic
s am
Ġcon dem
get Time
Last Name
æ İ
in ar
ink s
ĠF IX
g ender
n f
Ġs ugar
product s
g om
Ġspons ored
B tn
h ub
ser ts
Ġis set
ĠC ad
im eter
Pres ident
(" [
Ù Ĭ
og ical
NUM BER
) !
List View
æľ ī
ul ous
la unch
B ill
g uid
l v
ĠP resent
D TO
P reference
ĠP attern
Ġshut down
lic es
ex per
18 76
Ġtr aveled
Ġcl ot
SE D
cos ystem
Do es
Ap is
atern al
R ad
Ġbright ness
up les
Ġmed als
ig ion
Ġimm igration
io let
Ġfast est
Ġlast ed
r ust
0 10
ev ille
Ġd eter
^{ [
18 79
getElement sBy
ref ox
ĠB arr
15 6
Ä ħ
Ġsent ences
Ġp ione
Open Tl
H uman
t u
ĠGr ace
-- ;
S ender
ĠS ony
Ġrev ised
lig a
+ |
ĠT erry
Ġtravel ing
Ġelim inate
Ġobserv ables
ĠMer c
Play ers
erg i
ĠTerr itory
w l
Iss ue
Ġw ond
ir ts
Ġm g
NO WN
iv odes
un i
ĠC ox
/ %
Ġcallback s
as se
get Current
Ġneighbour hood
S ong
ic z
Ġdec k
50 1
os ure
ie u
ĠAir lines
Ġinteract ing
Ġneglig ible
') ).
-------- ---
Ġf ighter
ĠM ari
map per
Ġdisc ount
str ategy
ĠE uler
p ip
ans wer
][ <
ĠWork ing
Ġportr ait
Ġdiff ers
en os
Ġg ent
respect ively
open api
ĠSym phony
c g
GRO UP
ĠC atherine
C riteria
Ġful fill
Ġdistrib ute
Ġembedd ings
------------ --
load s
Ġmeaning ful
B inder
Ġprogress ive
superv ised
aver age
Ġh ang
ĠG arc
ast rop
R X
bin ing
Rot ation
Image View
ĠScient ific
ĠSe an
ĠL en
Ġsent enced
v v
ĠJ O
Ġl azy
ĠF iction
ADD R
mu x
Ġch ronic
ĠAl ong
~~ ~
ĠFr amework
ĠB aptist
Ġdis cret
Ġdiagn osis
ĠD rop
We ak
Min imum
ĠWat son
ĠCh a
Start ing
Ġcur r
ĠL apl
Mat ches
D X
ĠB orn
Ġmain stream
form ula
Ġt body
Ġj ets
ri o
Comp any
Ġintegr als
M gr
ĠRog ers
Non UserCode
m other
ver ts
ivodes hip
b ower
}} +
ĠHol land
work ing
) ?
OFF SET
Ġbr illi
Rel ation
ĠReview s
ĠDemocr at
l ift
C Sharp
p ow
ol ine
ĠĠĠĠĠĠĠĠĠĠĠĠĠĠĠĠĠĠĠĠĠĠĠĠĠĠĠĠĠĠĠĠ ĠĠĠĠĠĠĠĠĠĠĠĠĠĠĠĠĠĠĠĠĠĠĠ
Rep resentation
itud inal
Ġs ax
ist ency
S ys
Ġpl acing
Ġb ike
ĠM ann
ol ph
ast ro
Ġover whel
akes pe
c out
Ġm ilk
Ġyoung est
bound ary
ĠJeff erson
20 5
port folio
ĠR oll
ch rom
Ġm arch
ari ans
ĠÐ ¼
Ġmat hem
Ġimplement ations
Ġnom inations
Ġz ones
Ġbr idges
oss ible
ĠBu ilt
N ever
å® ļ
ag ination
Ġj ournals
ĠCl aim
ĠTr inity
Ġcontain ers
ar ms
Ġre fr
ĠM asters
Debugger NonUserCode
T our
Ġp ad
ins ky
ĠAv iation
Ġpropos als
"> ,</
m el
Ġaccount ing
Ġsw ap
Ġvan ishing
Ġbuild s
dash board
g ro
\, .
oph one
rot ation
ov y
n ested
ac ies
Ġchampionship s
as ia
ri x
> ";
fe ctions
16 7
ĠĠĠĠĠĠĠĠĠĠĠĠĠĠ Ċ
m art
eg en
ris k
}} -
Ġad s
ĠN HL
' </
oth ic
ĠSet ting
Ġcor rel
ĠB io
Ġinn ings
Ġf led
sc ience
Ġconflic ts
Kn own
' (\
sp er
Ġan not
Ġbelief s
co ins
Un expected
Ġdirect ive
uch i
Ġmode led
F inder
Ġnull able
W ire
Ġ) {
P en
ancell or
= {\
2 12
F K
Ġp ill
Ġexam ination
v ectors
18 5
Ġag reements
Ġcr yst
Ph ot
ĠW es
Ġsc rap
Browser Detector
Throw able
y ml
ro ut
ĠHe ader
ĠR an
ĠUn fortunately
Ġparam etri
Ð½ Ð¸
F IL
J ose
Ġch ron
Ġconf usion
n ick
Linear Layout
Ġen emies
un s
ĠC lick
ĠHigh er
Ġcross es
system s
N s
ing ers
Or d
Ġassoci ations
HEAD ER
Ġdemocr acy
C am
P FNGL
w y
=" {
Ġpreced ing
ĠS ah
Ġobserv ational
Ġlimit ation
de ploy
Ġqual ify
Â ·
ĠP erry
ĠL ar
FA I
Ġj ury
ĠB R
ĠI da
miss ible
g allery
fl ash
Ġ ../
/ ******/
play back
Ġplan es
ĠMun ich
Ġc argo
Ġdismiss ed
Ġm os
Ġt aste
elect ed
Ġanal yst
Ġcons olid
ĠAt hens
Ġin vert
Ġlight ing
ON LY
then Return
Ġinterpol ation
}$ \\
Ġins ights
ĠCom plete
ĠCom pute
Ġiter ate
publ ish
ust ain
Ġdef erred
L ess
ĠB eck
18 77
L ove
ig ue
Attr s
Ġadjust ed
F iction
36 5
Sm ith
n ecessary
ĠC V
r int
Ġdeg ener
ela ide
Ġlik ed
h ibernate
P rior
int ent
] ));
... "
å ĩ
18 72
Gr and
ĠBO OL
Ġdem o
pro port
Ġauthor ized
W T
ĠG onz
ĠA str
Default s
Ġeg gs
Ġ" {
ous ing
40 1
ç Ľ
="../../../../../../ ../../
ĠT X
ĠC ircle
ay er
Ġadapt ive
17 6
TR A
Observ able
W M
uls ion
En crypt
erv es
D J
Ġleg islative
Pr iv
transp arent
S aint
j ab
Ġc ave
request s
Rep o
col head
Record ed
Ġcan n
av an
ĠIss ue
ovak ia
Ġd inner
Ġsquad ron
f ive
Ġrecon structed
ĠM orning
akespe are
Ġab ilities
Ð ¶
as List
15 8
c ence
Ġread ily
Ġimpact s
f eld
ac co
Ġfavour ite
ĠS ak
ĠC I
ps y
Ġun set
ĠArab ia
I MAGE
P ull
w al
LA S
Ġreason ing
SE C
ĠWork ers
Ġaccept s
ĠLuc as
C irc
. ).
à ¦
Ġa ster
Sh ard
ent ities
cur ve
Ġh yd
ĠL IC
Ġprem iere
ĠVo ivodeship
che l
m ess
ĠS z
Prov ince
Ġbroadcast ing
Pro b
Map s
Le ave
Ġconsider ably
Ġdispl acement
ĠCru z
Ġstat ue
Ġregular ization
R ock
ĠSh aw
g al
Off ice
Ar row
break ing
ĠT ang
DO WN
widget s
Ġthreat s
Ä Ľ
N d
11 11
Ġdel iber
A ge
"> #
illi e
ĠSerb ian
> #
at ra
Ġart illery
ĠField s
ĠL an
d type
file Name
Ind ices
18 40
con j
Ġinter cept
t ec
el ing
Ġbu ying
H o
ĠG len
External Project
ä¸ ª
as per
)) {
Trans l
Ġsubstantial ly
ĠH ub
ĠE lection
Ġexplos ion
re ction
ack er
Ġcontr ary
root Scope
Ġt il
C LO
Ġsup pressed
d atab
Res olve
Ġparse Int
Ġdepart ments
ma ils
eb ook
get Context
18 71
Ġ! (
az ard
% );
av g
ĠW E
Ġwork flow
Ġpat rol
st ellar
Ġprov isions
R eb
ta wa
x ff
(" ")]
Ġbound ing
em e
ĠB aby
ĠD h
ĠSet up
OP EN
Ġnucle us
S everal
t abl
us a
ud o
Byte String
SY S
> ",
Å Ľ
C rypt
Ġ\ }$
prevent Default
x t
Ġm a
Ġred und
Enumer ator
Ġdef ending
Att achment
det ect
Ġcert ified
14 2
re try
ĠS oph
Ġqu bit
ĠB ear
source forge
Ġen abling
Ã µ
, ~
ur istic
spir acy
Ġg amma
C lock
Ġactiv ated
Academ ic
Number Of
Ġens uring
MPL ATE
S dk
W ords
sens itive
c ook
o ct
Ġr itual
}( -
Ġm oon
ĠGr ade
compar ison
ä¸ į
Ġb undles
Ġex terior
Log ical
ĠTH IS
Pers istent
ext ended
Ar n
Ġtri be
Ġprepar ing
Ġnom ine
ov sky
Im p
ĠW onder
ĠCh i
v ik
ĠVis it
ĠLu is
int egration
ĠTransport ation
p q
ĠSw ift
ĠS ql
Ġf illing
ĠS uz
enc oded
Ġ" </
! ");
get Data
\ }}
OP ER
TR ACT
ĠJust in
Ġcommun icate
] "
): =\
ĠD ise
ĠN at
Ġph osph
Ġbehavi ors
C li
Ġcontext s
Ġle ak
ĠCons ult
Ġc ust
Ġfest ivals
ĠE state
ĠTrans form
Ġre plic
TH READ
Ġappro ached
Ġocc urrence
Ch ina
Ġgrad uating
sent ence
F lo
V K
Im plemented
Ġ\ #
Ġcomp rises
b urst
Ar c
w m
ĠD yn
ever se
Ġmetall icity
M Q
r ag
b id
b ash
Ġh ate
ĠK el
ĠEd wards
ra ction
UT C
18 74
Cre ator
cons ider
Ġoverse as
L ex
Ġ\ )
ĠB S
ĠPro of
Ġlaw suit
o auth
ĠAnd r
Ġcomfort able
Î º
cod ing
SD L
ind a
f on
Ġpre view
i ating
is ible
power ed
k ip
Or g
T s
W C
W rong
ah an
Rep ublic
B log
ĠS olar
B ODY
r n
F LOAT
Ġpo ison
end um
des cr
Ġgold en
DE V
Ġax es
}$ ).
30 1
A k
Ġc rop
-------- -
ĠChristian ity
Ġse aled
mod ern
eh icle
Afr ican
ĠR ele
count s
Ġsimpl er
Ġd ummy
az i
Ġc ow
Ġstri king
ĠThe me
ĠS IL
up iter
ĠV oice
Ġexception al
ĠN ak
18 68
Ġtrans mitted
Ġun cle
on er
}}\ \
Ġrender er
Ġselect ing
cell color
Ġm ature
con tainers
}) ^{\
ĠDirect ory
Ġman ifolds
Ġsus cept
Ġsummar ized
Fl at
ĠBlo om
â Ĥ¬
Sl ide
ĠHug hes
Medal ists
Ġident ities
Ġassist ed
ĠA G
Ġposs ibilities
Ġdr ift
18 7
Ġatmos pheric
ĠD NS
ser if
Start ed
asc ular
ĠD ialog
class path
ĠBut ler
Ġinter fer
Ġtw ist
Ġorgan ised
(( (
Util ities
Ġreg isters
fold ing
ĠVenezuel a
s elling
K O
ĠRepresent ative
< '
oc hem
Ġco res
ellig ent
ĠGuard ian
ĠAn imal
c nt
ipher al
we ights
define Property
h or
Ġl ung
15 3
Ind eed
? .
ER Y
elect ron
Ġtrib es
Christ ian
Ġadvant ages
ĠEdd ie
v d
seud o
Ġ è
ĠIn surance
Ġsk i
ĠWeek ly
Ġobserv ing
Ġexha ust
ĠS oul
ĠContem porary
Ġsh ops
Ġrem arks
eloc ity
Ġinvestig ations
d istrict
Ð½ Ñĭ
Ġswit ched
ed ges
ĠB uch
Ġpe oples
Ġf iring
pl ays
Ġdeb ugging
> =
ĠM ode
itor ial
less ly
aren cy
Flor a
ĠUE FA
Ġback ward
Austral ia
Ġv in
Ġdr ives
Ġmem ories
p aren
Ġas h
D AT
ĠN amed
lo ose
jav ase
it zer
Ġcompos itions
R x
Ġmask s
ĠCh ern
ĠCon tract
o il
u u
Ġpers u
Ġsomew here
f ilm
add itional
g ems
Ġc oding
abul ary
S el
ide a
AA AA
Ġ* _
Ġmyst ery
) ',
Ġc odec
ĠEd it
Ġw elfare
Ġhon ors
Ġclean up
b usiness
h istor
Ġelect romagnetic
ol ly
ĠR ivers
ĠRuntime Exception
max imum
Ġnucle i
ĠJ ar
ĠConserv ation
Ġs creens
) ";
A Y
con tr
Ġbos on
B razil
ĠR idge
ĠH at
ey l
!! !!
ann i
ĠQu est
ĠNe il
ĠPhilipp ine
L y
Ġeconom ics
Ġn ut
18 73
Ass oci
Ġview ing
ĠC urt
Ġr iding
Ġarr ives
ĠD ennis
ĠIn fo
Ġop am
Tra its
Ġres c
div ider
ĠCom ments
ĠBy z
st orm
Ġp unct
Ġm im
) /\
conv ex
Ġa cknowledge
l k
Ġveter an
ĠM ul
big oplus
B on
Ġset Up
Ġinit With
Ġre write
ber ger
Com bo
Ġwalk s
Ġc amps
ĠC ONT
à¥ į
ut a
Ġ\, ,
ĠLi u
Ġb less
ling ton
hel m
Q UE
el ia
Ġimm igrants
Ġless ons
cor relation
b ur
enc oder
Ġdist ant
is Valid
Ġev ac
> @
ex c
Neg ative
ĠL arge
Ġcorrect ed
ĠR ES
), (
Instance Of
Null Exception
Ġ} $
Com ments
ĠA round
Ġpart itions
Ġdiscrim ination
4 80
G reat
Ġup dating
Ġmurder ed
Hon ours
Ġem itted
Ġsubsid iary
eng u
ĠK un
So ftware
te es
Ġtrav ers
ĠOt tawa
Ġatt achment
ur ated
ĠE S
Ġmart ial
Ġcommut ative
aut hentication
Ġdeg rad
Ġspec ifying
Ġem p
Sw ed
ĠS TR
ical s
r k
sp ort
ink ing
ĠHel en
h ls
irrep bar
ĠAb u
V ars
Ġscholar ship
J im
Ġob sc
N ER
ĠF iles
Ġam id
Ġatt itude
Ġal phabet
Ġcontact s
Ġnegot iations
con sum
ĠS alt
ex perimental
Ġc hest
Fin ished
Prof essional
Ġtack le
Ġref ere
ĠPh ase
Ġabb rev
Ġloc als
Ġmem brane
Ġcharacter ization
Ġm amm
C ached
Ġcent res
f ade
Ġre nd
Ad just
ĠE mail
Ġconver ge
ĠHe avy
hen e
Ã© d
Ver b
Ġco homology
ĠCroat ia
ĠP H
Ġhost ing
al ways
ell ers
ra h
Ġ ].
ĠEn cycl
Ġhomot opy
ĠPh ysical
ĠB U
it ian
ĠSt uart
ib lings
{ })
ĠWIT H
Ġprov ing
pol ar
sh ops
sup ports
p it
clos ing
Ġwrest ling
ĠIter ator
th lete
Fr ance
Ġvirt ually
oper ations
ourn aments
ĠC ut
View ById
ĠSD K
Ġblock ing
Ġtrib ute
Is rael
screens aver
class v
W ay
acef ul
r ically
Ġt ours
l iter
En ergy
Ġt ale
Ġconcentr ated
pot ential
ĠC ris
ĠK ate
Icon Success
sp h
Ġcapt ion
Recip ients
S to
print StackTrace
Ġdro ps
E s
Ġth umb
ul ators
Ġsub mission
ind ed
Ġend points
ĠInter est
RE C
ĠMont ana
ĠL IMIT
Sm art
vent ions
at im
22 2
Ġtrad ed
Ġdecor ated
Ġab ort
D ark
an che
Ġcompet itors
ĠP rest
amb ers
ĠCit iz
Ġsk etch
und a
lic h
ĠAb raham
B ank
}{ $\
we ets
b ibli
ĠL iga
Ġair line
ĠH amb
^- $
Ġwarr ant
ĠA w
azel cast
Ġ[ (
Ġcre ator
Tax a
ĠP ART
Ġdifferent ly
Ġvo ices
M G
ĠA aron
Ġun e
ĠFl ag
Ġcelebr ation
S eed
Ġcomput ations
y our
Ġb ay
Ø ¨
flu ence
IS O
Spec ific
Ph ysical
) ~
P AGE
L G
åı ĸ
RO P
ad j
Ġper cussion
IC S
æ ŀ
Ġun w
Track ing
ĠW allet
Hel pers
Ġexec utor
ĠP anel
get User
ĠWik ipedia
light s
H ung
Ġorigin ated
Ġal ien
Aut om
Res ize
pm b
Ġconf used
Ġb ull
ĠA uckland
Ġmuseum s
I J
Com posite
ene ath
Ġjo ins
ĠT ypes
Ġbrows ers
ĠPar ser
Ġtour ism
Ġexpert ise
F atal
ĠAd miral
Ġstructure d
Opt s
Ġan ymore
Int Literal
ent i
Ġsingular ity
ĠAbb ey
Ġphotograph er
ĠMe V
Ġthink s
Ġsynt hes
ob ar
Ġident ifies
Ġkit chen
auth ors
Ġbe ating
Tool bar
ĠWell s
Ġhom omorphism
C ss
Ġo l
C ategories
cred entials
Reg ex
ĠSp ot
umb ai
Ġportr ay
Ġsub tract
ĠMunic ipal
ĠA ST
Ġdec ent
IF T
v b
ĠN athan
en burg
ĠAl ert
ĠAct ivity
ĠS or
Col ors
Bo ard
Ġobject ives
Ġaffili ated
Ġin complete
ĠSyntax Kind
Serial ize
Ġj ail
Pr incipal
tensor flow
h all
adem ark
AC CESS
lef trightarrow
Ġfoot age
Ġd ots
18 66
")) );
im ag
Ġc ock
W O
ĠP ain
ĠHeb rew
Ġradi i
ish a
ordin ator
Cal c
ĠS ask
ĠB order
ĠPl ugin
Ġdwar f
Ġaver aging
N ORMAL
Ġpar ity
he ll
Arch ive
P B
] _{
Ġindex ed
Ġtransform s
el ist
ĠBudd hist
Ġcol ony
Ġpat ches
k ubernetes
Direct ive
Ġcitiz en
ill ance
hip s
Def unct
Ġp ace
ĠDel aware
IconSuccess Encoded
U X
ĠPhilli ps
ĠMe chan
ond o
Ġper f
ethe less
ĠM aced
ĠDi agnostic
t om
ac ements
ĠK id
Char Field
20 6
Ġgr ave
K now
k b
t ier
Ġun changed
play ing
ĠDes cribe
Ġadvert is
ĠEn sure
Ġpre val
ĠPh arm
Ġ ):
Ġlocomot ives
ik ing
Ġachiev es
ĠStan ford
ĠN g
W il
war z
ĠE mber
Ġa uction
[ {\
CP U
s ound
or bit
query Selector
Disc ography
Ġb is
Ġf ed
Ġgo og
Ð½ Ð¾
Ġrel ativistic
Ġs ake
ĠLe o
ĠZh ang
ĠSk ip
Ġquant itative
Ġp ow
ĠS ierra
Ġplay offs
Ġer g
Ġverb ose
ĠAdd s
Ġ] );
Ġconcert s
ĠD anny
feed back
ĠP T
ï¼ ļ
ĠW R
K T
Ġ( ).
So ft
> ',
A RE
Ġrot ating
F ort
Ġitem Members
ĠCon trib
sp ired
Ġop inions
Ġreg ex
Ġsurpr ised
read only
ĠRem ote
U INT
ce q
Ch arts
M ex
M ale
I EEE
Con nected
m eter
Ġpre st
D ER
c url
center line
Ġaccommod ate
C ACHE
ĠAgr iculture
ble ms
Ġlearn s
ĠH H
ens on
ĠInt el
w oman
ĠPol l
ĠJ in
ĠBe ing
ĠM OD
Ġchar ter
ĠCour se
"=> "
ph ones
Ġten ure
D H
s ymmetric
Ġte a
Ġinvari ance
ĠTr ain
control led
Ġ' [
Ġprom ised
Ġcollect ing
Ġarr iving
R V
idel ity
A thlet
ĠCom b
al bum
Ġsub t
ĠGu id
Ġcontroll ing
1 200
Ġe ating
M i
ist ani
n h
Ġb uck
Ġnob le
ĠTreat y
im an
Ġg aps
im ited
ĠL is
h orn
r in
Ġharm on
ĠCond ition
g ulp
linked ExternalProject
ĠBay esian
G LOBAL
il ateral
position s
ĠCre ative
Ġsp y
ist le
al is
ĠE agles
Ġmethod ology
Ã± a
ĠG ene
ace ut
Ġb atter
Ġh orn
Ġw ard
In spector
Ġi Phone
EX P
Ġpack ets
en es
r age
Ġd uplicate
renew command
å Ĩ
Ġfit ness
Ġrad ar
Ġoptim ize
param ref
ee per
Ġdr ain
aff ected
Ġgrand father
art icles
Bu ilt
Spr ite
Ġ* */
(' \
prov ided
ĠCO L
agon ist
Ġmus cle
Ġf ert
ĠT as
cess ion
R h
y outube
ĠLIC ENSE
ĠP ent
Ġinaug ural
min or
in z
it us
Ġun clear
az ar
Î ¯
Ġper ceived
Ġjav adoc
Z ip
co res
Na N
Ġtrans ient
ĠERR OR
Sl ider
Ġd ose
19 3
ĠVerm ont
m ine
Ġh urt
ĠCal endar
ĠCo hen
Click Listener
LOC AL
Ġsettlement s
Ġs cheduler
act ing
"> @
Ġexpl oring
** :
ĠHer z
Ġpack ed
Ġrel ate
Ġcompr ising
er ious
' ><
FAI LED
linkedExternalProject Path
ĠP ont
Dis able
Ġimprov es
Ġfor wards
Ġs isters
ĠForm er
Ġcoll apsed
Transform er
M u
Ġh o
ĠW alt
ĠTh ai
hand ed
h c
li um
ĠFil ms
di agram
( %
ent ric
25 7
ĠV eter
Ġpair ing
ĠS ox
lo ver
text style
18 69
Ġvar s
document ation
Ġa pt
AT IVE
Ġoper and
ĠB eth
ĠR ou
arr ison
^ +\
Ġm p
n it
M igration
St udio
Ġ$ ('.
ĠM IN
Ġman ages
Ġreg ulatory
resource GroupName
}} </
Ut ility
m ixed
Ġexhib ited
Ġmin istry
IT ER
Ġrecogn ised
Rect angle
Ġoscill ations
perm alink
Ġann ih
g tr
8 000
Ġed itions
ĠG ate
LE FT
ĠG W
ec raft
Th anks
)\ ,\
Ġconnect ivity
M ary
am ation
ĠĠĠĠĠĠĠĠĠĠĠĠĠĠĠĠĠĠĠĠĠĠĠĠĠĠĠĠĠĠĠĠ ĠĠĠĠĠĠĠĠĠĠĠĠĠĠ
ĠL if
Ġcol ours
d eleted
Ġdisestabl ished
ia z
ĠIn stit
M oths
Ġsear ches
Ġset Timeout
ĠZ ero
}}\ ,
Ġult imate
Ġal liance
read able
Ġtw isted
Ġ< ![
ĠP ush
Ġfail ures
)) }
Ġen velope
F acebook
c orner
rec ords
ĠC oul
ĠProdu ctions
Ġin ert
Des erial
abil istic
ST O
Ðµ Ð»
Ġisol ation
Ġbal anced
Scott ish
18 48
ac ular
ĠNor folk
Jew ish
\' {
IN PUT
ess el
Ġcomp ressed
m ob
;& #
ĠSch w
ĠDi ocese
arn ess
ĠR av
Ġto ll
Trans actions
ĠAd elaide
Ġun ve
ĠSo on
ĠH im
her o
ĠCall back
Ġat tractions
Ġmake up
Ġbi ography
Ġdoc s
Ex ist
SE CON
ĠM ask
Ġro ster
Ġsub stance
Ġ )$
url s
ĠCl imate
Ġlie utenant
z ation
Ġf unny
ĠEn um
r ab
in el
it ic
ĠPro blem
ĠStat ement
quant um
Ġcyl inder
Ġa est
Ġl ip
ĠU nd
ĠF R
d eps
Ġst eal
ĠAgain st
L ER
ĠLa ura
'' .
Ġelev ated
em p
NE SS
User Agent
Ġentreprene ur
eg al
W ITH
add y
Ġdem olished
scal ebox
ĠE M
sh ore
5 50
=' #
ĠJ oin
Ġtoler ance
s chool
ing o
"> '
ĠSh akespeare
Ġfile Name
comp any
+ }
Ñ ī
ĠRe ce
ĠT ul
ĠM ik
Ġle ase
Ġe arning
ĠC incinnati
Ġhard er
Ġcult ures
end l
UL AR
P references
ĠF E
ĠHer bert
Ġinf ected
Sem antic
Ġdel ight
Call able
ĠT F
min i
rele vant
Ġm ines
Ġhe ap
Compiler Services
D N
S NA
18 59
ob server
Ġten ant
Ġmand atory
p ent
ph al
Ġsk ew
Pos itive
Ġqu it
Ġsim ulate
ĠY ellow
Ġaud iences
ĠA my
ĠR oche
h dr
æ Ķ
ĠSt ef
harm onic
Ġen compass
ĠFe atures
Ġtransl ations
ĠBob by
atern ion
aaaa aaaa
bo ys
Ġrecip ients
Ġ ions
Ġj oy
Ġcogn itive
Ġb uses
ĠArn old
Ġconstruct ing
ĠType Error
Ġd f
ĠF eed
d og
Id le
Ġso ap
AB C
anc ers
bib item
Ġl as
ĠPlan et
R AS
] /
Ġmod uli
ak ov
Cur ve
aut hent
IR ST
Ġroll ing
Ġthe sis
ĠB esides
est yle
ĠPh one
ĠR ules
ĠG B
ĠPers ian
Produ cer
inherit Doc
R ew
Ġwalk ed
Ġrec ursive
IC AL
å ½
Ġland ed
ĠD rama
Ġartifact s
z k
ib us
Ġform ations
ĠCl iff
Ġa xi
am y
Im plicit
n able
ark er
Ġsign atures
Ġpl ates
ĠStr ong
æĹ ¶
it ations
Ex change
Ġt anks
Ġachiev ing
ĠAL L
ĠR ey
ĠMah ar
Ġprefer ences
Ch apter
ĠCustom er
ç½ ®
ĠF ed
Ġd uplic
m un
Component Model
Ġsp ir
TR ACE
Ġcop per
andid ates
-> {
ĠPen insula
Ġmain tains
Text Field
hom ogeneous
LE AN
ĠDi amond
sk in
Ġfollow ers
P in
ĠW riter
ADD RESS
T reat
CP P
us hes
pl ating
eg an
Ġdiscre p
ĠCom edy
ĠG ang
correspond ing
art et
Ġnormal ize
on ing
Ġ$ -\
23 5
un used
Ġpoor ly
Ġexponential ly
38 4
s uggest
Ġsimpl ify
é ¡
in ance
}$ ;
Ġins pection
Sim ilar
look ing
Ġrecru it
Ġaccompany ing
âĢ¦ .
pot ent
27 5
Ġown s
Ġburn ing
I ts
ĠC ameron
sp y
Ġpsych ological
2 16
00 4
loc ations
Ġspeed s
ĠAR M
D K
Ġt ent
Ġp id
ĠBroad casting
ĠHar vey
iz a
big skip
ec ca
Ġext inction
Ġutil ized
Ġun ions
F ACE
be it
ĠArray s
ĠG M
ĠO scar
PHP Excel
x a
}} }{\
LE ASE
c ot
Î ³
' ",
X R
se ver
Ġor al
Ġcle ared
Ġc ad
lic an
ab br
Ġtele phone
Ġfre ely
Ġz eros
SER VICE
ĠUn ity
Ġcorn ers
y u
18 57
the se
g d
ĠM ig
n at
W all
ch ing
D U
ack ed
Ġsum s
ĠNash ville
Ġrun ners
à¤ °
Ġmot ivation
ĠNep al
Ġjoint ly
Ġo ps
set length
are l
Ġav iation
Ġmanufact ured
áĥ Ĳ
Content Type
j p
ĠR at
ĠAc cept
Ġeval uating
Ġcontin uation
ST REAM
ĠS EC
Ġle ts
ym atrix
ĠGener ation
Cho ose
d ac
CO RE
CLI ENT
}] \
> *
P ac
im on
alt ies
Ġcivil ian
tr ation
he ap
ĠA ber
}} +\
Ga ussian
ack now
In stant
or um
Ge o
Ġa u
ĠPeters burg
Ġsum mit
ose x
) ~\
ĠCo ach
Ġr ally
gom ery
get Parent
Ġexec ut
Fig ures
ĠP icture
min ster
Ġscatter ed
am med
F X
ĠH ugh
x r
b anner
Ġbro ader
Ind ia
ĠGro ve
ĠSaf ari
ĠT S
ĠSl oven
z ig
Ġad option
ĠAut om
ĠVari able
A ust
ĠI con
Ġhe ll
Con trib
vet ica
at em
Ġdual ity
Ġhand ed
oper ating
- }
p ure
Ġsem antics
former ly
" <
Ġg aming
Ġpl ural
Ġincorpor ate
r p
isb ane
Ġche ap
Ġintegr ate
Sort ed
Ġcounter part
Ġrig id
Ġcor rupt
direct ive
Ġearthqu ake
Ġanom aly
pr ises
Opt im
s ess
Ġap ple
\ .
á ¹
ap k
ĠIn sert
Ġst uck
Ġgr adients
in ced
um m
Ġcl an
Ġhit ting
G ed
Ġdet ectors
n ut
Ġtr act
Ġdig its
"> :
ĠG ust
Ġr ice
Ġlock down
ab etes
top rule
ard i
ĠStr ateg
} ],
erm al
dis c
N u
à ¹
ĠD S
00 7
Ġt ear
ĠCatalog ue
Ġconc aten
Ġb orough
ĠB L
Ġcon greg
Ġt ips
t odo
ĠL oss
ĠHis panic
Ġsust ained
ern ess
ĠCon vers
ĠJul ian
ĠGal actic
Ġinf antry
Ġconstitution al
or f
}$ $
Ġb onds
Or Empty
Ġattend ance
ĠH av
SE SSION
ĠBro ther
expand ed
Hand lers
ĠH P
M ULT
ore n
Ġpat ron
H op
H AL
ĠPer iod
Ġthr one
ual ity
Gr ant
ena issance
Ġe cosystem
BU F
ĠV ery
ĠSh ared
Ġtrad itionally
Ġsoph istic
ĠAn cient
host name
ĠEm pty
18 30
Ġcol ored
ĠLe eds
cr im
Ġpro l
c ott
ĠM otion
23 4
Ġkey boards
ĠBr isbane
requ ires
Ú ©
st y
Ġcomment ary
ĠSt atic
Ex act
"> .</
ĠGerm ans
mk dir
l ane
ur as
Ġj ew
}] $
ĠK ill
Ġconjug ate
ĠC ou
Ġcompar isons
ish i
' /
Con clusion
ĠArt illery
Ġwealth y
al ter
Ġb ol
if ice
Ġca usal
Ġpro jections
ĠAl t
Ġp ale
ĠArt ists
fig s
IT S
Te ch
ĠR uth
Ġar rows
ĠRe ed
cap acity
Organ ization
Mix in
ĠB eyond
Ġfor got
Ġv i
Ġr ab
\\ \
Ap ple
Ġthr iller
Ġpick s
Ġ( .
ĠR alph
Ġexceed s
ĠS ultan
Ġed itors
Fl ush
ĠRead er
Ġdef inite
Ġ$- $
Ġenter prise
im i
ess a
cos ity
le ad
Ġd ocker
Ġn inth
n atural
Ġt ier
F ixtures
be havior
s cheduler
Ġac res
current Time
ĠReyn olds
Ġaccompl ished
J ud
ĠBulg aria
}} }}
ach ers
q s
ĠO m
O G
7 20
P OL
ĠN y
ĠW orth
}) }\
Ð¾Ð ³
Ġsee ks
æį ®
ĠH alf
Ġc am
Ġsc iences
Ignore Case
Ġdip ole
) ];
b is
ĠAl ger
S pect
ĠW ag
ĠAzerbai jan
st retch
ers et
Ġl oud
ĠUt ils
Ġun used
æ Ń
Ġd atabases
Con struction
ĠY ES
Err s
ĠC raw
ĠP FNGL
Ġt weet
Ġneur ons
K h
CO PY
Ġun successful
HAND LE
ĠLeon ard
ĠB ald
ath y
ĠSocial ist
Ġart work
40 5
åľ ¨
Ġmed ic
ĠAv ailable
Ġmar ry
Ġrom ance
Ġequ ity
ĠN A
z ens
"> )</
Ġalter ed
Ġcyl ind
Ġimp ose
ĠÃ Ĺ
Ġfoot er
ynt hetic
mem item
Ġcond ens
in crement
f re
Ġv anish
qu ark
Ġdis ks
ct ype
Ġdis pers
ĠTerm s
Ġqu bits
Ġbo ards
Ġadj oint
st ed
ãĥ ³
- "
br acket
ĠS ang
Ġc attle
16 4
ĠGP U
ros so
Ġprov inces
Ġsymmet ries
Dan iel
le arn
th in
ĠB ak
17 2
sen al
Ġround ed
Ġinternational ly
K B
L ie
f oundation
Ġswe ep
j dbc
it ars
Ġh unt
Ġ' --
tw ig
Ġhop ing
P TR
Ġt une
BE GIN
ĠPlay ers
depend s
ert y
ĠCheck s
Im g
all ing
ff ield
Mus ical
L ee
Ġun em
m tx
key words
Ã¶ n
? ,
Ġcheck sum
EO F
l if
q t
AR S
Ġpal ace
ĠL isa
Ġdistinct ive
hab ilit
Comp ilation
go als
{ }{
act ivation
E t
normal ize
C AL
Ġfun eral
g as
ĠY ale
with in
Work space
var pi
Sc anner
rece ived
ĠF antasy
man ifold
Ġspecial ist
Ġutil ize
Ġvolunte er
Ġsw iper
ĠS ter
An swer
Button s
Ġs hed
PE G
ĠN R
Ġalleg ations
P rem
st ead
it on
anc o
s ix
Ġd ock
Ġpoly mer
Ġinter change
us b
Ġsl aves
MLE lement
ĠK il
ĠSc ar
track s
m otion
Ġor n
Ġpreserv ing
est rian
Ġre built
Up dates
Http Request
Ġpredec essor
or ator
land o
ĠMil waukee
Ġconsider ations
ĠE L
Ġsp iral
cover age
Ġnew er
ĠLine ar
ĠVen ice
ĠT odd
Ġdefault Value
TIME OUT
é Ļ
D evelopment
On Search
Ġdraw s
Type Def
M ah
Ġshould er
ĠB ach
B IN
J ournal
Ġnumer ic
Non Null
ĠValid ation
R pc
ĠNet flix
17 9
ĠSy rian
ĠTh under
ĠGreg ory
P icture
ĠL amb
ĠU INT
:// $
Grad ient
). $$
filter ed
Ġprodu ctions
ĠH IV
* }\
Ġcon form
Ġ\\ [
cu ador
O VER
Ġisot ropic
! )
Ġsp ins
DE CL
Ġsuggest ions
D ays
ess ors
ol ition
iffer ential
sp ons
Ġred sh
make box
å Ģ
in tr
Ġwe aker
ĠEx cell
l ov
17 7
Spec ies
Ġpreserv es
ĠR ac
ĠV ict
Am ong
Mut ex
V k
ĠE T
ĠDis c
Ġcalcul ating
c riteria
ĠMar io
il io
Ġen roll
Ġass ists
hand lers
B all
contrib s
Ġaut onomous
Ġtrib ut
ĠF oster
Ġco at
ĠSh are
40 3
Ġfarm ing
Ġf ires
CONT ENT
Ġu uid
Ġt ap
Ġc d
ch ip
ATTR IBUTE
Ġs z
ab we
ro uting
Ġst olen
Ġr v
en i
P TS
f ixture
it les
I o
ĠD WORD
unc an
C ut
Ġdec oding
Ġspeed test
Ġe leg
pl aced
l ar
el m
struct ures
publ isher
Ġaffect ing
ll a
] ",
â Ħ
Ġr df
Th umb
Ġrot ational
ENABLE D
ĠArmen ian
Ġconduct ing
M ON
Ġtr ump
bo at
zh ou
Numer ic
ĠTib et
ĠR F
Ġferm ions
ĠU ri
=" '
w ent
Ġport al
y ang
ĠN intendo
Ġpract ition
G i
k al
CA SE
\!\! \!\!
Ġy esterday
P aired
Ġprox imity
g rey
ĠH AVE
76 8
Ġexc av
ĠA bs
Ġper pet
Ġburn ed
Ġg em
ĠG A
At l
ĠCon v
GL enum
in as
Ind ent
re vision
ĠME THOD
x ymatrix
Ġcoinc ides
m ith
Callback s
utr ition
Ġ' )
] ^{\
ĠK ash
Ġillustr ates
23 1
Ġlog ged
ĠSing les
Mag ick
Ġcoinc ide
work space
col s
N i
ro e
Ġconcentr ations
Ch rome
ĠEnter prise
>{ @
Ġsh ield
der iv
Ġcy ber
Ġclot hes
ab is
ĠF BI
Ġb attles
ĠHar old
Ġbel t
ĠCO MM
ĠWAR NING
ĠLead ership
end ent
Ġjust ify
Depend encies
can onical
ĠR osen
ĠL it
Ġunder go
Ġingred ients
A verage
for um
Ġsh rink
yst yle
ĠA SC
Res p
h ou
ne z
Ġir regular
sc apes
her its
IG H
Ġlett ing
G W
Col lege
28 8
Ġsl ots
ocol ate
Ġsus pected
R oles
Ġsub graph
Ġconv inced
Ġconduct or
ĠSecond ary
Ġsuperv ised
6 50
in ja
16 1
type Name
ĠAl pha
Qu ote
ĉĉĉ ĠĠĠ
moment um
Ġs ang
ĠP av
18 9
Ġmod ular
eff ects
Ġare na
Ġmod elling
ĠW rap
y i
Ġval ued
icy cle
border ed
G esture
Ġad equate
Ph aser
ĠPhilosoph y
ĠT D
^ *}
j l
r df
Can ada
ĠInter view
q ed
ĠG ilbert
ss h
Ġvic inity
m ile
ä ¹
ĠP OST
pro per
Ġel ite
leg iate
cod er
iz ar
Ġfore ver
%%%%%%%% %%%%%%%%
ĠDe ut
Ġf printf
Ġb ootstrap
ĠTh ir
ĠDis covery
Ġcont ested
Ġfall en
parent s
ĠAng lo
Ġcompl aint
Ġastr onom
ÑĨ Ð¸
i ast
3 80
Ġres ist
Ġflat ten
it ize
Ġsh aped
ĠC inema
With in
imb abwe
/ ************************************************************************
ĠArch itect
w yn
ĠLeb anon
ch ars
ĠCamp us
Ġalleged ly
et ched
ĠG uild
VAR I
Ġauthor ization
Ġsculpt ure
Ġinfer red
Ġmer ch
Ġcommand ed
å ·
size i
Ġdi et
ĠWall ace
un ix
sw ift
() }
ĠJenn ifer
Ġpoll ution
ĠR achel
UM ENT
am ine
Ġf ade
ĠA PP
back up
er i
Ġal arm
]{ ./
Ġsimple st
ĠHer ald
ĠApp ly
A mb
ok emon
Ġte eth
K i
g ol
ĠEV ENT
Ġreal ization
CON TEXT
V L
Bal ance
ĠG lass
ep per
Pro blem
Ġprogram mes
Cred it
pr us
At Index
Ġco arse
ĠR ah
Ġch apel
olec ular
Ġn ose
Compar ator
Ġ{ :
ting ham
constr aints
DEF IN
Git Hub
Ġ iv
em b
Ġachiev ement
S y
has Next
Ġh ull
ĠWh ich
ugg ed
Ġt ournaments
Ġin clusive
ĠInd ependence
Ġcon ce
ĠN ancy
Ġno isy
ĠMon itor
Ġmillis econds
res olver
Ġproceed s
] _
Ad s
getElementsBy TagName
ĠS yl
ĠE asy
f ollowing
ok o
ĠLet ter
ĠThe od
HO W
Ġspeak s
ĠS Ã£o
ĠAm endment
} --
i our
r idden
}, \\
Ġc inem
18 2
ĠArch bishop
Ġslow er
ĠA ur
ĠD ES
ĠId entity
Ġhol omorphic
WIN DO
Ġch rome
ĠAn imation
Ġal lies
Ġ[ #
Act ual
Ġf ut
urs es
imm ers
Ġend l
ere k
Ġback ed
Ġgard ens
}} ^{(
ĠS ou
60 1
Ġcell ular
6 55
sp arse
n ets
ĠK ids
CL UD
16 2
Ġdeg enerate
Thread s
ĠCO PY
ĠS eq
ĠCom ple
id ually
Ġfor um
atche wan
C ov
ĠE ve
ĠIn iti
g ary
State Exception
account s
May be
br ains
Ġautom ated
level s
Ðº Ð°
rec ogn
ĠS old
ele t
CLUD ING
Sh op
Ġdescend ants
Ġthere after
Ġbank ing
Ġgather ing
c id
è ¦
For Key
Ġtool tip
Mark et
Ġm eth
at trib
ST AR
Ġnav igate
H i
gtr sim
ĠC rit
ill on
ht bp
ret ty
Ġm ad
e ah
un til
call s
ĠFa ith
I OS
al ong
Ġer ected
Ġwor ry
Ġle an
^* (\
T LS
ĠU TF
Ġlink ing
ĠR AF
ĠQu estion
Ġce ased
ĠV ision
n v
ĠEx ternal
sk a
6666 66
R ivers
Ġst er
j ournal
ĠP att
sw ick
inherit doc
E ver
Ġre called
Ġen force
Ġsome how
PS HOT
ĠM umbai
Ġattack ing
ĠWell ington
à¥ ĩ
Ġv el
ific ant
+ $
FUN C
P rec
N ay
Ġplay off
Ġgrad ed
ĠDom ain
Ġim perial
/ [
Ġt uning
S PI
W L
ost ream
Ġind oor
Ġdefend ers
... ]
Ġpresent ing
GEN ER
opens sl
Ġdrum mer
Ġn aming
Ġcount ed
oll ar
h im
Dis pose
ĠF ail
pro logue
ĠHash Set
Ġsym plectic
pro ach
ĠĠĠĠĠĠĠĠĠĠĠĠĠĠĠĠĠĠĠĠĠĠĠĠĠĠĠĠĠĠĠĠ ĠĠĠĠĠĠĠĠĠĠĠĠĠĠĠĠ
Ġa er
Generated Code
ol y
18 55
Ġc ant
ĠC ome
ress es
dis crete
Ġdev iations
AL LOW
Ġbelong ed
ĠAuth ors
ĠArgent ine
spect rum
Ġim pression
ĠPed ro
Ġreloc ated
ĠFlore nce
ĠR uby
ĠD uration
Ġ )\
TO KEN
p ane
}) :
ĠTrans it
P LAY
Ġbank rupt
rais ebox
Ġd ish
dec om
ãĤ Ĵ
Ġoff ense
Ġret ro
Ġconsequ ently
ĠIs aac
H W
f illed
ĠB UT
ĠD ynamic
Ġdev ast
Ġtour ist
Ġut ter
Ġalloc ate
Ġgram mar
ap on
sh ake
ig m
writ eln
Ġpush ing
ĠLiber ty
Ġadvoc ate
C s
ĠB av
ãģ Ļ
C ircle
Ġsp ont
Q Name
ĠCh ang
Ù ģ
[ ->
l is
s uffix
ĠS ed
ĠG az
Request ed
Ġo m
Ġmark ers
ĠL ak
con cept
Build ing
Ġenhance ment
ol in
W elcome
ĠE ight
ĠNorth west
17 8
Ġdesign ers
ĠDr iver
Ġtr apped
S ar
ĠObject s
contin uous
con sumer
ĠPet e
pro duc
ours es
Ġcapt ures
Ġby pass
reg istration
Ġdesign ation
ĠÎ ¼
uss els
aur us
Mon o
Ged mo
L iber
Ġth rew
start ed
ĠS urre
user Id
_{ (\
Ġtrail ing
c ategor
v ance
ĠCh apel
[ @
da o
ĠS weet
Ġsyn onym
EX CEPT
Ġfif teen
Ġd ancing
Ġ\\ &\
ĠComp etition
Ġb er
Ġbr acket
c ro
Ġex tern
stat istics
Ġcatalog ue
ĠF act
20 9
Ġdis orders
ĠEr nest
ĠR us
ĠĠĠĠĠĠĠĠ ĠĊ
ĠS ens
Ġg fx
Ġen rolled
Ġ ));
Ġm eter
ast ing
St amp
Ġcon vey
Comp anies
G Hz
ĠA DD
Ġch apters
ĠI v
red is
col one
ĠS aw
und ef
Ġsp acing
Ġdraft ed
ĠClar ke
ĠUs ers
Ġsure ly
b az
ĠIn novation
Ġdes per
Ġlogarith mic
P ot
col lections
Ġfriend ship
ingu ished
Ġreserv es
pect ives
L U
Initial izer
bro ok
] \\
ĠK in
Ġen orm
ĠM az
Ġeditor ial
R N
Ad ministr
Ð¾Ð º
Ġwork space
Ġterm inated
ĠN om
ĠâĢ Ļ
Ġund ers
Cred ential
acknow led
Ġ* =
Ag ain
Â ½
ĠD y
aw ks
Pro jection
Ġres ume
à ®
Hash Code
e o
Ġa ws
Ġre nov
Ġag gressive
m v
Ste am
bibli ograph
ĠT ensor
ĠNew castle
ur bs
ĠE mb
EN S
S port
Ġf t
Ġflux es
pl ots
ĠD aw
associ ated
Ġl oves
Ġwarn ed
ph ant
Ð ¡
^{ *}
ĠCr iminal
com put
Ġcor por
Ġjudg ment
ĠMet al
ĠF lying
). </
perm issions
rece ive
Ġe u
"> =</
ĠSp encer
C AT
k el
ĠF P
ĠBat man
ĠH R
Ġep ic
dr ive
n or
Ġtr acing
ron es
Ġtrav els
ĠShang hai
17 4
ĠUs age
ĠHel per
Ġdro ve
Ġevolution ary
Ġadminister ed
Action Bar
d up
it atively
Ġarg ues
ET A
Ð¾ Ð½
Ġdiv isor
asc ii
ĠD od
f ork
Ġattr action
Ġacknowled ged
ĠG ov
pend icular
ch r
Ġparticip ant
Ġc oc
Ġhistor ically
^{ {\
24 5
ĠInt ent
Ġalt itude
Ġmolec ule
Ġbl ues
ĠHen ri
Ġmys ql
ad vert
iev e
Ġabsor bed
Ġtrunc ated
Second ary
bibliograph ystyle
g ue
ĠBen nett
ĠGab riel
v ation
em ption
ĠK or
Ġbe an
al most
id y
Ġl p
ER O
30 3
Out come
ĠK umar
Ġrecommend ation
r ise
ĠHar bor
B IND
Mod ify
Ġaff air
^ (
Ġor chestr
Ġgrad es
Ġy ard
tes y
Ġvol atile
. ')
8 75
k now
Ġa fr
ĠTh an
Ġsuccess ive
Ġcal ibr
Ġprom ises
verb atim
q r
ĠF oo
man ual
ro les
ĠB ert
repe ated
17 3
ol lo
Ġl ag
pe x
20 7
cor r
Ġtra its
Ġwild life
Ġlo ose
'] [
Ġbacter ia
ĠM ine
Ġnumer us
V V
}} /
}} ;
aut om
q p
Ġincred ible
ic us
Ġprem ium
Ġrh ythm
rep resentation
ok i
comm unity
Te X
Ġtri angles
z el
er ie
17 1
ä ¼
ĠC elebr
Comp atible
ĠC ork
' ></
Ġsub tle
Ġan ce
Ġcurrent s
Ġcharacter ize
Ġcomb inator
parse Int
l brace
im ony
ĠPar al
ĠStr ategy
author ized
Ġremember ed
ĠL iv
b road
Ġab c
18 58
ĠN HS
Ġcut off
~ {\
Get Type
ĠWood s
Fin ish
c rit
g ie
Ġd os
ha o
ĠR M
Ġle agues
Ġlong itudinal
found er
ĠSh in
Rem oved
Ġadd itive
ĠPark s
Ġtour ing
Ġpsych ology
ĠF ighter
n ell
ĠG em
00 6
å ¾
Ġsur f
Ġ@ @
Mart in
List en
C os
Ġintegr ating
Ġmist ake
Ġs moke
ĠF ri
Ġcer emon
G LA
ĠPaul o
b w
if s
ip ment
ycl er
V IRT
ape ut
ĠSeb ast
Sh utdown
Ġaggreg ation
Table Name
row ing
Ġobtain s
Ġdef ect
D to
Ġrefug ees
t ap
Ġsp anning
Ġt rem
Ġw orn
weight ed
ĠLat ino
ĠM M
j j
Ġg ateway
ĉĉĉ Ġ
Ġvol unt
Ġbar rel
CLU DE
m ime
ĠS PI
Ġturbul ence
a qu
Ġtreat y
Ġarbitr arily
ĠTh r
Reduce Action
Get Value
ĠBet ter
)) :
Ġ[] *
ĠM ills
rupted Exception
}} )\
Ġtab index
Film ography
Football ers
b h
ĠI M
er ance
align ment
DE C
ĠCommunic ation
ond e
other apy
Ġindex es
ĠGit Hub
Play ing
Ġh i
rec ip
18 4
vert ices
ĠHit ler
ĠCon sumer
AN Y
\ @
ĠM ouse
ĠC ould
18 54
work flow
Ġinvestig ating
Alloc ator
({ },
ĠColumb us
moz illa
Y M
}$ ),
Publ isher
G erm
Mod ern
Ġcan al
Ġcou p
Ġpredominant ly
Ġdoll ar
G lob
30 2
real m
Ġsoci eties
Ġapproxim ations
equ ivalent
PO SE
Ġcart oon
Ge org
cell s
Ġin cent
Ġdo zen
Dem o
or ian
rece iver
anc ies
r ison
Ġw ars
ĠFr anÃ§
Att ach
REQ UI
Ġsqu ared
Ġa fore
ing ing
Ġadvers arial
"> {
Pol ygon
Ġinvent ory
Ġb eneath
Ġconf ident
Ġo mit
c ock
ator ies
Ġbackground s
P F
Ġlux ury
ĠI Enumerable
to Array
ĠQu ick
ĠPrinc ipal
amb le
Ġrele asing
El se
is EqualTo
ĠS afe
air y
Des criptors
C ycle
Ġs overe
OUT PUT
ĠA CT
ĠG NU
ĠK re
Comp ile
um ble
22 6
Ġd ying
ag ain
ĠRay mond
ra ils
H aving
reed y
eval uate
n ai
ĠP ul
ĠY uk
ĠMan uel
ing en
ĠF at
Ġrem n
Ġmeas urable
$ =
Ġdown stream
Ġin ches
Ġk iss
Ġsub urb
... ,
Ġc ele
ĠH arm
Ġout lined
Lou is
Lin ux
Ġaccording ly
D ead
Ġimm une
ĠB A
C AR
Ġwork shop
sc atter
ĠCor p
Ġf ate
ad vant
ter rit
t ou
Ġcont our
Ġpitch er
Ġhuman ity
qual ified
S uffix
Ġke V
Ġiniti atives
op enc
Ð° Ðº
Ġprevent ed
un ting
Ġexplo it
) },\
v iol
ĠCon cert
Ġpass ive
ĠDec ision
ass o
Ġvari ational
Ã ¯
year s
Ġs cheduling
ĠC U
oc ate
ĠCh an
ry s
AT O
Ġ\| _{
Ġ\, .
PR INT
prom pt
Ġr pc
Com puter
end ors
ĠArm ed
PRO G
ĠWild life
Ġs ans
ap a
mod es
ĠJul ia
% ),
uck s
v k
it ary
ĠSh ape
Class ification
sole te
Ġrobust ness
Ġg ymn
rog ate
h on
og g
Ġchalleng ed
================ ========
ĠL akes
é Ĺ
Ġaut ore
Ġtreat ments
ĠH ur
eg ree
N ear
tr unk
ĠD at
Ġl ane
print s
Ġadv ised
DB LP
You ng
pre ter
Ġtim eline
Ġp atri
IN LINE
Ġout flow
Ġapprox imated
f urt
Text Box
Ġfilm ing
Ir ish
Ġnon trivial
Code Dom
H EL
Ġmut ation
ĠF LA
Ġk iller
Character Offset
View Model
inst ances
he nd
ĠCh anges
g ls
Ġp ink
un credited
Ġperman ently
ĠImp act
ĠMax well
): =
pm d
Ġ( âĢľ
ĠCO MP
Ġimm un
ĠC B
term inal
spec s
/ ?
Ġst ret
vel t
comp atibility
char At
d ed
log s
30 8
av o
und o
Ġn ic
colone qq
( ',
å ¸
O Auth
ĠS ob
áĥ ĺ
ĠFellow ship
2 15
ĠC ec
Ð° ÑĢ
ĠRod rig
Ġb uffers
ĠPalest inian
ign er
ĠMar x
Ext ent
3 40
P et
Ġindu ce
ell ites
Un icode
alth ough
Ġin fections
ĠM ade
re comm
ĠCh oice
Ġdiscuss ing
ĠGard ens
r ice
m or
Ġf lip
sub script
ĠS oci
Ġon Click
ceed ed
Ġan ger
iz za
am as
ĠHol mes
ĠKer ala
ĠB ent
Ġsett lers
Ġdim in
Ġsingular ities
SNA PSHOT
D utch
Ġelder ly
) ](
Ġquarter back
P IN
Ġflex ibility
r ases
atin um
âĦ ¢
Ġsh ar
G AN
u pe
Ġem igrants
{- }
Ġmob ility
} ")
ul in
amb ling
ins pect
18 56
Ġecc entric
Ġde ce
Eu Script
le ave
F G
Ġeng aging
Ġequival ently
ĠTun is
con taining
tt ify
Con sum
| {\
Ġb unch
ĠAssoci ate
Ra ises
jet brains
N AL
M otion
ĠR GB
18 52
ĠNe uro
H yper
path y
Print f
Aggreg ate
dig est
L azy
Ġpregn ant
P ur
ĠR C
ĠMus ical
Ġsong writer
en ue
Ġkn ot
ĠExec ute
Ġqu otes
IDENT IFIER
P ic
Ġ ÏĦ
Ġt abs
class ical
Hen ry
get Int
ĠH i
ber y
M il
Ġ= &
bottom rule
names e
Ġhar ass
Ġthrow ing
initial ized
Ġsequ ential
sin h
Ġbi ology
18 43
Ġreli ability
ĠM aps
ul ers
ash ing
Ġm u
ĠE agle
ĠF ollow
aw ait
scal ed
ĠL oop
Ġcro ps
Ġque en
Ġpray er
cred it
' }(
As String
ĠProtest ant
St ock
J on
ten ant
ht b
ĠD ifferent
Equ ation
Ġdiv orce
ĠC amera
ast ics
In crement
Ġplay wright
ĠSp ider
Ġprevent ing
. {
Ġpress ed
charg ed
Ġtri ps
Ġcomb ines
ĠS ig
Ġcon cludes
valid ators
Ġtravel led
M AT
S pl
ig roup
ĠMult iple
Install ation
Ġl ig
ĠD evelop
ĠMont gomery
Ġple asure
h agen
ME DI
ogen ic
sh i
Match ers
Ġball ot
Ġpron ounced
pert urb
ĠChe ster
pe st
Ġr iders
West ern
tele phony
e igen
ram id
Ġdig est
k ers
Ġ"\ "
Ġh ills
X T
Ġreg imes
Dir ty
D ele
le igh
Th m
Ġlob by
Jose ph
, &
sort ed
ab ar
ĠInt egr
Ġr ays
' ^
Ġcap ac
ex change
xi ety
MO VE
Con nections
rodu ced
period ic
ĠN P
Trans late
Ġconsum ed
Ġqu ota
ĠScot ia
Ġdial ect
f u
Set ter
assert That
Ġillustr ation
im als
node Type
Cl osure
oy age
> ")
Death s
st ars
Ch ars
TH ON
cat Desc
V an
)) =
ac ional
ist on
16 3
Ġexpect s
ĠSQL Exception
re load
dec oder
Render ing
K im
d ns
ord ion
match er
ĠBen ed
Repe at
mock ito
is cher
ersh ire
Ġlist ings
ĠCong o
math comp
Ġcur riculum
E F
Ġload s
man uel
è¡ ¨
h yd
list eners
Ġl ifestyle
ĠJ ak
Ġs ou
ĠN umer
p es
bor o
Ð» Ð¸
- $\
as pect
Ġwithd rew
h art
eq z
Ġafore mentioned
View port
G ram
re vers
Dis covery
Eval uation
url ing
Ġdel ays
ĠF ake
ĠÃ ģ
Adv anced
Ġsett le
Ġevery day
ym ph
ĠAPI s
E scape
ĠTom my
Ġconfirm ation
ĠS ort
ãĤ ¹
M acro
Ġp i
lev ard
ap propri
aff e
ĠS ullivan
Al ready
Ġbrilli ant
ĠÅ ł
single ton
Q T
re ng
}( (
ĠEm ily
p ager
m pi
Ġk ern
Ch ris
LOC ATION
AR GS
ĠSte am
r brace
ĠF ace
ĠIn side
Fat alf
~ &
sp lice
b org
est one
LE T
Ġep it
ĠM ER
Inf os
A h
K a
ĠW ire
../../ ../../
Ġver se
ĠPer th
Con stituency
pre ced
ĠIda ho
n othing
re pos
00 000
ĠJo an
ĠEs sex
ĠBrun swick
Ġas ynchronous
Ġaddress ing
/ :
L iter
ĠX box
Key Value
ĠEmer gency
ĠT ong
illi an
Ġconstit ute
Ġn ights
Ġtri angular
a uses
ĠI BM
Ġresource GroupName
w at
Ġflow er
Ð¾Ð ±
ĠF an
child node
w ed
es ar
mid i
18 6
B K
Ġcomplex es
Ġadv ances
SP AN
t lement
N atural
Ġconst expr
USE D
Ġph ones
Ġon set
ot yp
ĠU ntil
ĠFunction s
Ġlat ency
Ġmyst erious
ĠN ine
ow l
ll abel
Co ordinate
Ġ× Ķ
Tool tip
Ġcon tributes
Ġ{ !
ĠM end
set Name
ĠFour th
Ġl iver
output s
cos h
D am
ĠM N
ack ing
Ap plications
Ġdir ty
ĠS tra
ĠR enaissance
act ical
Ġinc umbent
Mar shaller
Ġper pendicular
S uggest
TE MPLATE
Dep artment
ĠPalest ine
Comm unes
P ing
ĠPr ison
Ġt et
Ġev t
R oad
Ġform ulated
bas is
ĠTri ple
al in
Ġvol leyball
ĠSw an
Project s
ĠP and
ĉĉĉ čĊ
Ġin vention
US B
ĠM ull
Ġx hr
C urrency
Ġfeed ing
is che
og an
}} ^\
ĠAh med
av ern
). \
ĠS DL
Ġcollect or
Ġab ortion
Ġstrugg ling
Ġdest ruct
Ġc ube
ĠA A
ĠU int
pr ising
ĠAmb assador
] }\
Ġmort ality
") ).
Ġs its
ĠD ame
Ġmod est
Ġseem ingly
Ġcounter parts
fit ting
Cover age
ĠM R
Ġtrav elling
ĠAn a
Ġcontrib utors
Ġl n
ĠPar ad
O l
ĠEm ma
ĠExec ution
Ġg aining
com puter
Ġpo les
){ $
Sp ot
ä¸ º
Ġdream s
ĠL ipschitz
tr unc
ĠX XX
Ġfl our
et erm
Ġexecut ives
- {\
E MPTY
ĠA ub
Ġwe igh
ose velt
Y ea
ĠP ars
and le
Heading Color
- %
Y ES
ĠDe al
Ġprec ip
? }
ĠInd ividual
Ġv endor
ĠB irth
dat atype
up id
class Frame
av ian
ĠGrand e
re b
Ġc v
Ġbul let
>: <
Ġfle w
M ic
Ġavoid ed
prob ability
n z
ĠMar shal
wik ipedia
l ived
Ġarchitect ures
Job s
libr aries
MN RAS
US Y
ĠR oot
Ġexpl aining
Quant ity
ĠAdvent ure
mark down
Writ ers
C ities
Ġb ishops
Ġfight ers
Ġmathem atic
R ele
Ġbr ut
user Agent
ĠCard inals
Ġin ev
in ia
Ġ` --
ah u
Ġcheck point
ass ignment
Ġk nee
Con serv
fo od
ĠSc ene
D eleted
ĠG and
ĠW inn
ĠObserv atory
ĠExper ience
plic ial
ĠT ampa
Ġleg islature
ĠH RESULT
ĠRem ember
Ġexhib itions
Ġdies el
ĠH ir
}. $$
yl an
Ġprotect ing
ĠT iger
ĠAl lied
ĠEx pr
Ġexp ense
Ġd ans
Ġstr at
T B
Ġf ulf
Ġab oard
CONT RO
ĠSol id
W at
Ġ nd
yst er
ĠST AT
m ur
wrap ped
resize box
ĠGL uint
t el
Ġ= =====
ap pe
Ġun icode
fl are
Ġr amp
ĠSp ark
ĠBel arus
Ġdes ktop
mall oc
Ð¾ ÑĤ
ĠC ord
m ong
bit map
rel im
Ġs sl
ats u
Ġsurviv ors
Ġnorm s
Ġgl ad
Ġout per
S ensor
ef ault
Ġwe aken
Ġbas in
Ġanth rop
ar u
Ut f
fam ilies
ĠByz antine
sp here
Ġte lescope
ro utes
Ġoff line
g pp
ĠP D
rid or
ĠÐ½ Ð°
Dim ensions
18 3
Ġcomple teness
Ġsol ver
att achment
L es
ĠK ra
p ause
Ġre plica
ĠR af
Ġget ter
Ġfix es
R oll
b os
ib a
Ġb a
ref s
CK S
Ġ\ %
ĠOak land
R ing
ich let
ĠAng lican
ĠC ertificate
ĠDur ham
ĠTas man
ĠT all
AR M
Ġb ills
ĠS part
âĢ ĭ
Ġsuggest ion
l azy
ab atic
um bo
Ex plicit
erg us
design ated
lic al
ĠRh ode
ĠQual ity
h b
Ġan ch
Ġprev ents
ĠP P
so ftware
ass er
Ġexec uting
unit Pattern
Ġsophistic ated
x FF
ĠID s
ĠAd vert
Ġformat ted
ĠL ac
net ty
') [
Ġhonor ary
ĠTool s
18 47
urren ces
% ">
Ġac ute
ĠTr uth
Ġbit map
Ġfif ty
Ġw eren
Ġn inet
ĠS ic
ĠS plit
ĠE c
ĠV ec
Ġspread ing
v iv
ĠS election
Ġsp ars
Ġsymbol ic
Ġc iting
Ġp kg
ĠF ocus
Ġadministr ator
Ġsummar ize
Ġextra ordinary
ĠA part
art a
å ¹
At omic
Ind ividual
g m
le an
Ġdef ended
Ġhyp ers
å Ŀ
ch air
D igital
ĠAng els
Ġ<!-- [
ĠFried rich
Ġl akes
ĠEngine ers
Ġnow rap
Ġem peror
Ġret reat
Ġcrick eter
Ġfor k
ĠBro s
Ġh ooks
Ġimport s
x d
Ġp ounds
Ġbe et
Ġbe aring
ĠO wen
ĠPubl ish
and ro
UNK NOWN
ent ropy
focus ed
ĠWars aw
& +
G od
b ias
Ġun con
ĠDr ug
19 1
Ġlif ted
Ġnumber ed
ĠCor respond
rosso ver
m ans
Ġphys ic
Ġsport ing
}. $
Sc ience
song writer
ĠCoun ter
Ġbe ars
FIL TER
B uffers
Ġsever ely
Ġbranch ing
Ġr am
× ©
ĠP ink
lip so
)} =\
other wise
ĠUn supported
ĠC li
Ġrep ublic
Ã ®
Ġre forms
ĠFig s
ar atus
ĠB in
sh im
45 6
luc ene
t pl
ĠF olk
Ġgu ided
:: ~
Ġvis cosity
ĠUp dates
$ }\
ĠE ye
ject ed
V ersions
{ |\
Ġinf ect
Non null
the ir
N ick
\" {
ĠJ ung
log y
80 80
n as
Ġt oured
DA O
ĠR FC
Ġphot ometric
B uck
Ġminim izing
ĠMathemat ics
Ġif f
18 49
ern er
ĠSh ir
thumb nail
d ynamics
Ġag enda
Ġindiv idually
territ ory
Work ing
) )$,
Ġhous ed
Ġl ady
Ġnick name
s ites
ĠMin i
d atas
} ',
od ia
User Id
Mar shal
Ġnation wide
) ");
="@ {
Ġferm ion
18 51
Ġcum ulative
ec a
Ġviol ations
@{ }}
te in
status Code
Ġdipl omatic
Ġw ore
ĠMal ay
Ġmulti plic
ĠVol unte
uis ine
") ),
Ġlo ans
u ced
chi ef
ĠB ind
ĠR S
S on
Ġa thlete
Out Of
under brace
V s
u ent
Ġf ung
ups ilon
Ġup stream
ĠEll is
L em
Ex per
M Hz
ĠRep orts
calcul ate
Ġf reed
ĠB ears
Part icle
Ġp ec
ĠC ann
ĠUn known
ĠÎ ±
Ġtrail er
Ġappreci ate
18 1
di agonal
Fl ash
be zier
mont on
æ Ģ
Ġf li
ĠSpe aker
ĠM ob
ED IT
ĠTH REE
ĠT EXT
Ġanten na
Ġb ra
r ors
sh rink
Ġren owned
ĠS acr
fe at
igr ant
ĠMax imum
(' -
ape st
A MS
D Y
p v
Ġal umin
pr im
r ating
ĠJ et
ĠK arn
Ġconf ined
! ,
Ġ} }</
Ġsl opes
Ġextr apol
ĠS ame
att ices
Ġmot iv
Ġrevers ed
Ġvot er
Ġthere in
ĠK as
Ad apt
---------------------------------------------------------------- ----------
> {{
EN SION
Und efined
Ġepoch s
Ġst reak
Ġdis band
Tr im
ĠRe ich
Str ict
Ġemphas ize
Direct or
ĠN N
Ġ'/ '
Ġisol ate
ĠC rypt
Ġsup pression
Ġrel ates
ĠTechn ologies
Ch annels
od i
J oe
Ġdes erial
Ġ á
ĠF ul
ĠSo ft
ĠPal mer
ĠSV G
> }
l attice
GL uint
è §
ĠEncycl opedia
ĠCab inet
ĠS NR
Ġstay ing
Ġexp ans
Tr ump
Ġpil ots
get Path
Ġsal ary
Ġinject ed
Ġdemocr atic
ig i
ĠL or
ĠPr ague
ĠEx pect
$& $
Ġdef ender
alloc ate
Ġcon spiracy
Recorded Vote
ĠKn ights
Ġh ab
ac i
EQ UAL
Ch an
ĠTy ler
Ġt a
Buffer ed
J P
Ġelse if
) _\
Ġconcept ual
Ġradi ative
Hash Set
null able
Ġdynam ically
Ġle ver
ĠDes ert
ĠK err
Ġasymptot ically
A H
Im m
ĠWe ather
Term s
comple tion
Ġdead line
Ġsub marine
Ġel dest
Ġresign ation
ĠV ER
comm ut
Ġm ice
ĠV illa
Ġc ry
B ern
ĠShe ll
Ġmark ing
od ium
ĠI g
b ours
Ã© g
Ġneglect ed
M ike
Ġline up
, âĢĻ
Ġinject ive
ĠFor ward
P ak
com puted
IP S
I reland
ĠTest ing
ĠSask atchewan
Ġhar vest
Bal ancer
Ġ* (
"> [
}; \
23 7
ro bot
ĠIn stitution
ick ed
ĠHop kins
Ġstr len
ĠV II
ĠCa uchy
3 10
ll vm
scal atest
ĠProgram me
Analy tics
Contin ue
ari us
ĠR ice
Ġc emetery
ĠCroat ian
] ):
ap or
Ġ\\ \
Ġdemand ing
Ġh oped
Ð Ĵ
re start
ct uary
St and
OR TS
Ġwrit ings
ĠCy prus
VIRT UAL
ĠOper ator
ĠSu ite
H ierarchy
ĠInt roduction
Ġre written
Ġ[ &
Qu ota
}-- \
ĠW idget
Ġdemonstr ation
e V
Ġneutr inos
Ġrob ots
bas eline
Ġproceed ings
( _.
Ġr uler
FO UND
J ean
ĠPo inter
G U
ht m
dim s
distrib uted
Ġqual itative
" ):
ĠEx port
h in
ĠJ unction
IT EM
Ġterr ain
ĠSD SS
C OR
Ġreason ably
track er
G reg
ced es
Ġwhe els
L ag
ĠShe ffield
DebuggerNonUserCode Attribute
Spec ify
LI ED
C ENTER
Ġfaith ful
ĠT IM
IN X
Ġmod ulation
Ġsub stitution
function al
26 5
ĠThrough out
Symbol s
t ls
Ġstand ings
Ġathlet ic
[...]
