{"[UNK]":0,"!":1,"\"":2,"#":3,"$":4,"%":5,"&":6,"'":7,"(":8,")":9,"*":10,"+":11,",":12,"-":13,".":14,"/":15,"0":16,"1":17,"2":18,"3":19,"4":20,"5":21,"6":22,"7":23,"8":24,"9":25,":":26,";":27,"<":28,"=":29,">":30,"?":31,"@":32,"A":33,"B":34,"C":35,"D":36,"E":37,"F":38,"G":39,"H":40,"I":41,"J":42,"K":43,"L":44,"M":45,"N":46,"O":47,"P":48,"Q":49,"R":50,"S":51,"T":52,"U":53,"V":54,"W":55,"X":56,"Y":57,"Z":58,"[":59,"\\":60,"]":61,"^":62,"_":63,"`":64,"a":65,"b":66,"c":67,"d":68,"e":69,"f":70,"g":71,"h":72,"i":73,"j":74,"k":75,"l":76,"m":77,"n":78,"o":79,"p":80,"q":81,"r":82,"s":83,"t":84,"u":85,"v":86,"w":87,"x":88,"y":89,"z":90,"{":91,"|":92,"}":93,"~":94,"¡":95,"¢":96,"£":97,"¤":98,"¥":99,"¦":100,"§":101,"¨":102,"©":103,"ª":104,"«":105,"¬":106,"®":107,"¯":108,"°":109,"±":110,"²":111,"³":112,"´":113,"µ":114,"¶":115,"·":116,"¸":117,"¹":118,"º":119,"»":120,"¼":121,"½":122,"¾":123,"¿":124,"Â":125,"Ã":126,"Ä":127,"Å":128,"Æ":129,"Ç":130,"È":131,"É":132,"Ê":133,"Ë":134,"Ì":135,"Í":136,"Î":137,"Ï":138,"Ð":139,"Ñ":140,"Ò":141,"Ó":142,"Ô":143,"Õ":144,"Ö":145,"×":146,"Ø":147,"Ù":148,"Ú":149,"Û":150,"Ü":151,"Ý":152,"Þ":153,"ß":154,"à":155,"á":156,"â":157,"ã":158,"ä":159,"å":160,"æ":161,"ç":162,"è":163,"é":164,"ê":165,"ë":166,"ì":167,"í":168,"î":169,"ï":170,"ð":171,"ò":172,"ó":173,"ô":174,"Ā":175,"ā":176,"Ă":177,"ă":178,"Ą":179,"ą":180,"Ć":181,"ć":182,"Ĉ":183,"ĉ":184,"Ċ":185,"ċ":186,"Č":187,"č":188,"Ď":189,"ď":190,"Đ":191,"đ":192,"Ē":193,"ē":194,"Ĕ":195,"ĕ":196,"Ė":197,"ė":198,"Ę":199,"ę":200,"Ě":201,"ě":202,"Ĝ":203,"ĝ":204,"Ğ":205,"ğ":206,"Ġ":207,"ġ":208,"Ģ":209,"ģ":210,"Ĥ":211,"ĥ":212,"Ħ":213,"ħ":214,"Ĩ":215,"ĩ":216,"Ī":217,"ī":218,"Ĭ":219,"ĭ":220,"Į":221,"į":222,"İ":223,"ı":224,"Ĳ":225,"ĳ":226,"Ĵ":227,"ĵ":228,"Ķ":229,"ķ":230,"ĸ":231,"Ĺ":232,"ĺ":233,"Ļ":234,"ļ":235,"Ľ":236,"ľ":237,"Ŀ":238,"ŀ":239,"Ł":240,"ł":241,"Ń":242,"ĠĠ":243,"ĠĠĠĠ":244,"Ġt":245,"in":246,"er":247,"on":248,"Ġa":249,"he":250,"re":251,"at":252,"en":253,"or":254,"Ġthe":255,"st":256,"al":257,"an":258,"it":259,"Ġc":260,"ar":261,"ĠĠĠ":262,"le":263,"ion":264,"Ġs":265,"ĠĠĠĠĠĠĠĠ":266,"Ġo":267,"ed":268,"is":269,"es":270,"Ġf":271,"Ġw":272,"Ġp":273,"ic":274,"ing":275,"ro":276,"Ġin":277,"nd":278,"Ġb":279,"as":280,"Ġof":281,"et":282,"ct":283,"Ġd":284,"Ġm":285,"ent":286,"ou":287,"el":288,"am":289,"Ġand":290,"Ġto":291,"il":292,"Ġre":293,"om":294,"Ġh":295,"Ġn":296,"ĠĠĠĠĠĠĠ":297,"ig":298,"id":299,"Ġ(":300,"ation":301,"Ġth":302,"ol":303,"ac":304,"Ġ\\":305,"im":306,"ĠS":307,"Ġ$":308,"ur":309,"Ġ=":310,"ot":311,"ut":312,"Ġe":313,"ĠT":314,"ĠC":315,"Ġl":316,"iv":317,"se":318,"ad":319,"ĉĉ":320,"ĠA":321,"</":322,"od":323,"ce":324,"ul":325,"=\"":326,"ag":327,"Ġis":328,"if":329,");":330,"th":331,"em":332,"Ġ{":333,"un":334,"Ġfor":335,"Ġg":336,"ow":337,"ab":338,"ch":339,"--":340,"ay":341,"Ġv":342,"um":343,"ĠM":344,"us":345,"čĊ":346,"Ġ<":347,"pe":348,"Ġst":349,"qu":350,"ĠI":351,"ers":352,"ate":353,"ly":354,"ist":355,"ap":356,"Ġon":357,"ir":358,"ĠĠĠĠĠĠĠĠĠĠĠ":359,"ith":360,"ĠP":361,"ex":362,"tr":363,"oc":364,"ĠB":365,"Ġbe":366,"ass":367,"ter":368,"Ġcon":369,"ction":370,"//":371,"ht":372,"Ġ*":373,"20":374,"end":375,"av":376,"pt":377,"Ġas":378,"ver":379,"âĢ":380,"ame":381,"_{":382,"ĠR":383,"and":384,"ub":385,"ĠH":386,"ĠD":387,"est":388,"res":389,"ĠF":390,"Ġ}":391,"Ġ\"":392,"Ġthat":393,"Ġwith":394,"ĠL":395,"ew":396,"ath":397,"ef":398,"up":399,"ri":400,"\">":401,"Ġal":402,"ue":403,"ĠN":404,"ain":405,"lass":406,"ess":407,"op":408,"Ġpro":409,"os":410,"ort":411,"19":412,"Ġan":413,"age":414,"ĠG":415,"ĠThe":416,"Ġwh":417,"our":418,"ĠW":419,"eg":420,"ĠE":421,"ĠĠĠĠĠĠĠĠĠĠĠĠĠĠĠĠ":422,"ect":423,"ity":424,"rom":425,"Ġby":426,"ine":427,"li":428,"ĠĠĠĠĠ":429,"art":430,"Ġwas":431,"Ġex":432,"()":433,"ore":434,"nt":435,"Ġcom":436,"Ġr":437,"ere":438,"{\\":439,"sp":440,"ight":441,"urn":442,"Ġ&":443,"ec":444,"ment":445,"ext":446,"Ġit":447,"**":448,"Ġat":449,"iz":450,"ĠĊ":451,"og":452,"ure":453,"all":454,"Ġor":455,"pl":456,"ack":457,"ref":458,"able":459,"ke":460,"ult":461,"ial":462,"Ġ$\\":463,"ĠO":464,"ies":465,"..":466,"Ġthis":467,"Ġfrom":468,"Ġclass":469,"ang":470,"per":471,"ive":472,"Ġare":473,"ep":474,"ant":475,"turn":476,"ud":477,"ile":478,"ĠJ":479,"ype":480,"ans":481,"----":482,"port":483,"ill":484,"==":485,"math":486,"str":487,"00":488,"ber":489,"Ġif":490,"Ġtr":491,"Ġ'":492,"ode":493,"orm":494,"get":495,"con":496,"int":497,"ld":498,"Ġy":499,"act":500,"Ġwe":501,"Ġhe":502,"ast":503,"ary":504,"ite":505,"ph":506,"In":507,"Ġ-":508,"ated":509,"ĠU":510,"ov":511,"und":512,"ĠĠĠĠĠĠĠĠĠĠĠĠĠĠĠ":513,"are":514,"Ġch":515,"ind":516,"ff":517,"ard":518,"ase":519,"ip":520,"ign":521,"ib":522,"ata":523,"lic":524,"ma":525,"ace":526,"'s":527,"Ġle":528,"ord":529,"ption":530,"pro":531,"ition":532,"}\\":533,"ev":534,"The":535,"^{":536,"),":537,"Ġsh":538,"ire":539,"com":540,"ell":541,"ug":542,"ich":543,"Ġnot":544,"}$":545,"to":546,"ak":547,"ft":548,"ĠK":549,"Ġse":550,"cl":551,"ime":552,"ge":553,"ost":554,"text":555,"ject":556,"Ġ//":557,"Ġreturn":558,"ple":559,"ave":560,"201":561,"ser":562,"ia":563,"out":564,"ical":565,").":566,"ong":567,"alue":568,"->":569,"ild":570,"ide":571,"ĠIn":572,"Ġ</":573,"::":574,"ust":575,"ens":576,"Ġpl":577,"unction":578,"../":579,"ĉĉĉĉ":580,"ice":581,"ĠV":582,"ork":583,"fr":584,"cc":585,"Ġus":586,"ublic":587,"Con":588,"ource":589,"Ġ+":590,"Ġ[":591,"ence":592,"}}":593,"ance":594,"ations":595,"(\\":596,"Ġres":597,"lo":598,"aram":599,"form":600,"cal":601,"ok":602,"ĠâĢ":603,"\",":604,"enc":605,"Ġ|":606,"Ġnew":607,"du":608,"St":609,"equ":610,"set":611,"Ġj":612,"row":613,"Ġ@":614,"ory":615,"ta":616,"cri":617,"Ġcan":618,"so":619,"dd":620,"ock":621,"ian":622,"Ġun":623,"ss":624,"put":625,"Ġar":626,"Ġwhich":627,"egin":628,"âĢĻ":629,"ra":630,"ĠSt":631,"low":632,"ĠTh":633,"ach":634,"begin":635,"ml":636,"ther":637,"ear":638,"ener":639,"fig":640,"Ġk":641,"ress":642,"ull":643,"elf":644,"Ġim":645,"Ġhave":646,"Ġ/":647,"ize":648,"Ġap":649,"(\"":650,"();":651,"span":652,"200":653,"Ex":654,"use":655,"div":656,"Ġhas":657,"ould":658,"one":659,"essage":660,"},":661,"ents":662,"abel":663,"></":664,"_{\\":665,")$":666,"hen":667,"Ġhis":668,"sh":669,"iel":670,"ous":671,"Ġcont":672,"Ġstr":673,"own":674,"',":675,"ish":676,"ount":677,"ĠCh":678,"10":679,"Ġab":680,"tring":681,"eta":682,"--------":683,"><":684,"ll":685,"irst":686,"ink":687,"ound":688,"ield":689,"err":690,"ond":691,"erm":692,"ree":693,"ps":694,"Ġ.":695,"Ġfunction":696,"right":697,"Ġdef":698,"over":699,"te":700,"Ġcomp":701,"ob":702,"ray":703,"clud":704,"tern":705,"che":706,"inal":707,"ert":708,"les":709,"eth":710,"ator":711,"old":712,"18":713,"../../":714,"iew":715,"Ġall":716,"}{":717,"ual":718,"fer":719,"erv":720,"Ġ*/":721,"eq":722,"ele":723,"Ġset":724,"Ġint":725,"mer":726,"yst":727,"Ġpublic":728,"****":729,"Ġalso":730,"Ġ:":731,"ark":732,"eb":733,"Ġname":734,"ict":735,"ĉĉĉ":736,"odel":737,"ates":738,"Ġpr":739,"Ġob":740,"ome":741,"frac":742,"====":743,"ĠĠĠĠĠĠĠĠĠĠĠĠĠĠĠĠĠĠĠ":744,"ions":745,"pr":746,"ck":747,"Ġdis":748,"rap":749,"pect":750,"Ġpart":751,"Ġvar":752,"name":753,"Ġone":754,"))":755,"Ġwere":756,"html":757,"ry":758,"ne":759,"Pro":760,"rit":761,"Ġsu":762,"oth":763,"ool":764,"Ġout":765,"label":766,"oint":767,"roup":768,"ĠĠĠĠĠĠĠĠĠ":769,"led":770,"oid":771,"('":772,"Ġhref":773,"line":774,"ix":775,"Ġro":776,"wo":777,"sum":778,"ics":779,"Ġbut":780,"the":781,"rm":782,"this":783,"ystem":784,"Ġev":785,"pec":786,"Ġqu":787,"ty":788,"Name":789,"Ġup":790,"ER":791,"eng":792,"ely":793,"Ġwill":794,"source":795,"ery":796,"mathb":797,"Ġyou":798,"io":799,"ose":800,"col":801,"ĠY":802,"message":803,"Ġdo":804,"ax":805,"Ġget":806,"ail":807,"Ġ#":808,"left":809,"ings":810,"Ġ||":811,"Ġsp":812,"key":813,"lation":814,"ors":815,"Ġ_":816,"umber":817,"trans":818,"12":819,"we":820,"bo":821,"Ġfirst":822,"cre":823,"Type":824,"ng":825,"Ġme":826,"Ġtheir":827,"lect":828,"ON":829,"import":830,"igh":831,"arg":832,"Ġpre":833,"ĠUn":834,"hed":835,"cite":836,"Ġcol":837,"param":838,"uct":839,"Ġper":840,"fter":841,"Ġits":842,"$.":843,"})":844,"atic":845,"$,":846,"Id":847,"ater":848,"String":849,"td":850,"Ġtype":851,"ĠIt":852,"IN":853,"iss":854,"ethod":855,",\\":856,"aw":857,"Ġover":858,"Ġcl":859,"ym":860,"Ġdes":861,"alse":862,"of":863,"Ġ=>":864,"Ġvalue":865,"app":866,"ames":867,"Ġline":868,"atch":869,"mathcal":870,"ick":871,"ĠHe":872,"cript":873,"ake":874,"Ġdata":875,"pos":876,"}.":877,"return":878,"ont":879,"Ġtime":880,"Ġtwo":881,"Ġman":882,"def":883,"equation":884,"Ġde":885,"uild":886,"fo":887,"Th":888,"Ġinter":889,"raph":890,"16":891,"âĢĵ":892,"code":893,"cent":894,"ational":895,"ove":896,"Ġag":897,"ange":898,"var":899,"Ġresult":900,"Ġplay":901,"ann":902,"Ġwork":903,"ular":904,"##":905,"\"/":906,"Ġother":907,"Com":908,"Ġmore":909,"amb":910,"ĠâĢĵ":911,"urre":912,"ific":913,"ys":914,"ative":915,"Ġi":916,"ms":917,"round":918,"ve":919,"lock":920,"Ġhad":921,"ook":922,"ution":923,"yn":924,"ton":925,"ie":926,"Ġsub":927,"RE":928,"Ġconst":929,"idth":930,"199":931,"}(":932,"Ġwhen":933,"Ġadd":934,"sub":935,"Ġwho":936,"ute":937,"Ġso":938,"ember":939,"tain":940,"pon":941,"ollow":942,"ied":943,"als":944,"anc":945,"Ġ!":946,"Ġself":947,"Ġne":948,"Ġbeen":949,"add":950,"Ġad":951,"Ġid":952,"\"/>":953,"imes":954,"class":955,"Ġsup":956,"Ġund":957,"Res":958,"}^":959,"Ġcomm":960,"Ġel":961,"Ġthey":962,"arch":963,"Ġend":964,"ception":965,"tt":966,"Ch":967,"lement":968,"pha":969,"List":970,"translation":971,"://":972,"ĠThis":973,"~\\":974,"15":975,"type":976,"ault":977,"amp":978,"ues":979,"ST":980,"ased":981,"da":982,"}_":983,"Ġreg":984,"oun":985,"Ġonly":986,"ocation":987,"Ġen":988,"ences":989,"gr":990,"Ġrequ":991,"ample":992,"Ġ==":993,"Ġsc":994,"Ġher":995,"__":996,"bar":997,"ons":998,"alpha":999,"itle":1000,"Ġform":1001,"Ġinto":1002,"ise":1003,"Ġbet":1004,"ache":1005,"ersion":1006,"Ref":1007,"trib":1008,"Ġinclud":1009,"ash":1010,"Ġnull":1011,"cess":1012,"ade":1013,"Ġwhere":1014,"min":1015,"ited":1016,"11":1017,"ocal":1018,"Ġany":1019,"Ġyear":1020,"Ġ`":1021,"ating":1022,"resent":1023,"Ġfollow":1024,"Ġpos":1025,"der":1026,"land":1027,"AT":1028,"Ġte":1029,"val":1030,"yle":1031,"read":1032,"ask":1033,"ugh":1034,"son":1035,"ern":1036,"ĠCom":1037,"Ġtrans":1038,"irect":1039,"Ġind":1040,"htt":1041,"urrent":1042,"ople":1043,"Ġacc":1044,"\"><":1045,"item":1046,"its":1047,"sc":1048,"ument":1049,"Ġvoid":1050,"Ġdif":1051,"ead":1052,"Ġoff":1053,"oug":1054,"ined":1055,")\\":1056,"Ġthere":1057,"elta":1058,"ward":1059,"Ar":1060,"ID":1061,"ays":1062,"ious":1063,"Ġact":1064,"ĠAr":1065,"Ġuse":1066,"ider":1067,"Ġgo":1068,"Ġcre":1069,"vent":1070,"Ġthan":1071,"ambda":1072,"orn":1073,"Ġthen":1074,"Ġpe":1075,"Ġrel":1076,"ho":1077,"ivate":1078,"Ġfil":1079,"Ġdist":1080,"ternal":1081,"OR":1082,"ble":1083,"Ġno":1084,"ee":1085,"Ġsuch":1086,"ature":1087,"plic":1088,"17":1089,"ĠPro":1090,"ts":1091,"ility":1092,"Ġgener":1093,"ities":1094,"Ġunder":1095,"Tr":1096,"Ġx":1097,"Ġval":1098,"Ġ>":1099,"ince":1100,"back":1101,"âĢĿ":1102,"):":1103,"Ġdec":1104,"olog":1105,"Ġspec":1106,"ures":1107,"ule":1108,"work":1109,"13":1110,"AR":1111,"Ġco":1112,"Ġused":1113,"14":1114,"uth":1115,"ible":1116,"Ġrec":1117,"serv":1118,"Ġmodel":1119,"ished":1120,"Ġinst":1121,"ween":1122,"LE":1123,"));":1124,"Ġabout":1125,"ĠĠĠĠĠĠĠĠĠĠĠĠĠ":1126,"Ġerr":1127,"org":1128,"Ġafter":1129,"ced":1130,"meric":1131,"ength":1132,"Ġcase":1133,"Ġsome":1134,"string":1135,"Ġfalse":1136,"25":1137,"amma":1138,"ement":1139,"rr":1140,"ĠNew":1141,"ages":1142,"ĠĠĠĠĠĠĠĠĠĠĠĠĠĠĠĠĠĠĠĠĠĠĠĠĠĠĠĠĠĠĠĠ":1143,"Ġop":1144,"ctions":1145,"uring":1146,"bject":1147,"Ġli":1148,"ey":1149,"ivers":1150,"Ġorg":1151,"$\\":1152,"file":1153,"Ġsec":1154,"ptions":1155,"Ġtrue":1156,"ists":1157,"oy":1158,"Ġprov":1159,"Ġkn":1160,"\");":1161,"log":1162,"----------------":1163,"Ġcons":1164,"ava":1165,"Ġpol":1166,"Ġshow":1167,"hat":1168,"ole":1169,"tem":1170,"=\\":1171,"Ġph":1172,"mathbb":1173,"Ġwould":1174,"_\\":1175,"pi":1176,"Ġnumber":1177,"self":1178,"data":1179,"Ġsim":1180,"ank":1181,"Ġrem":1182,"Ġour":1183,"Ġ)":1184,"pre":1185,"ier":1186,"sert":1187,"wn":1188,"********":1189,"ices":1190,"epend":1191,"ote":1192,"perty":1193,"198":1194,"Ġbetween":1195,"Ġtest":1196,"ĠAl":1197,"To":1198,"ots":1199,"arn":1200,"Ġfinal":1201,"Ġ--":1202,"ized":1203,"Ġent":1204,"Data":1205,"igma":1206,"Ġ\\\\":1207,"ĠĠĠĠĠĠ":1208,"Ġserv":1209,"AL":1210,"ega":1211,"Col":1212,"Ġchar":1213,"SS":1214,"Value":1215,"ĠWe":1216,"air":1217,"mu":1218,"Ġback":1219,"ower":1220,"ision":1221,"ient":1222,"EN":1223,"for":1224,"arget":1225,"nb":1226,"}_{":1227,"ĠQ":1228,"Ġfe":1229,"Ġmay":1230,"Ġelse":1231,"ily":1232,"align":1233,"ines":1234,"eter":1235,"}^{":1236,"orld":1237,"br":1238,"Refer":1239,"Ġem":1240,"ĠCon":1241,"evel":1242,"rough":1243,"ars":1244,"ĠĠĠĠĠĠĠĠĠĠĠĠĠĠĠĠĠĠĠĠĠĠĠ":1245,"Ġshe":1246,"Ġcor":1247,"Ġprodu":1248,"red":1249,"Ġdiffer":1250,"ru":1251,"-\\":1252,"Ġsystem":1253,"yp":1254,"////":1255,"ren":1256,"21":1257,"ments":1258,"oot":1259,"any":1260,"ins":1261,"^{\\":1262,"wh":1263,"Ġequ":1264,"iven":1265,"apt":1266,"value":1267,"Set":1268,"lient":1269,"section":1270,"32":1271,"umn":1272,"30":1273,"px":1274,"Ġeach":1275,"press":1276,"ody":1277,"view":1278,"Ġ/**":1279,"\")":1280,"uff":1281,"En":1282,"bf":1283,"Ġgr":1284,"Ġhigh":1285,"nbsp":1286,"ally":1287,"ĠSh":1288,"Ġbec":1289,"ĠAs":1290,"ream":1291,"ĠAn":1292,"ever":1293,"Ġstring":1294,"phi":1295,"be":1296,"ting":1297,"new":1298,"Ġam":1299,"Ġstud":1300,"co":1301,"lambda":1302,"date":1303,"ired":1304,"Ġpoint":1305,"Ġoper":1306,"Ġac":1307,"vel":1308,"man":1309,"ric":1310,"mall":1311,"ĠZ":1312,"cont":1313,"pp":1314,"Ġcal":1315,"Exception":1316,"ause":1317,"oci":1318,"Ġpeople":1319,"Ġ&&":1320,"az":1321,"ĠFor":1322,"Ġest":1323,"chool":1324,"Ġinv":1325,"Err":1326,"========":1327,"Ġthese":1328,"ĠTr":1329,"ason":1330,"ted":1331,"Ġmost":1332,"width":1333,"ization":1334,"roid":1335,"test":1336,"location":1337,"];":1338,"Ġmod":1339,"Ġfile":1340,"Ġfield":1341,"ww":1342,"play":1343,"array":1344,"ough":1345,"($":1346,"me":1347,"not":1348,"Ġmethod":1349,"000":1350,"')":1351,"iver":1352,"merican":1353,"Ġsign":1354,"lection":1355,"atus":1356,"ĠâĢľ":1357,"Ġ{\\":1358,"197":1359,"struct":1360,"Ġstatic":1361,"Object":1362,"arent":1363,"ader":1364,"lang":1365,"by":1366,"ik":1367,"Ġser":1368,"Ġlist":1369,"Ġparam":1370,"rol":1371,"Ġthrough":1372,"Ġed":1373,"ilon":1374,"Ġstate":1375,"action":1376,"22":1377,"Ġ///":1378,"mathbf":1379,"ces":1380,"References":1381,"ger":1382,"ner":1383,"part":1384,"Ġass":1385,"Ġusing":1386,"Ġapp":1387,"Ġgroup":1388,"face":1389,"ĠX":1390,"Ġeff":1391,"50":1392,"...":1393,"Ġext":1394,"ccess":1395,"ets":1396,"uss":1397,"Ġstart":1398,"aid":1399,"As":1400,"ball":1401,"ĠEx":1402,"Ġrep":1403,"let":1404,"Ġfl":1405,"CT":1406,"ĠSe":1407,"Ġmin":1408,"ĠString":1409,"Ġsol":1410,"Un":1411,"Ġprivate":1412,"Ġ!=":1413,"DE":1414,"Ġfound":1415,"abl":1416,"cd":1417,"requ":1418,"ify":1419,"ils":1420,"ah":1421,"ler":1422,"size":1423,"script":1424,"includ":1425,"mary":1426,"],":1427,"par":1428,"oh":1429,"rc":1430,"heck":1431,"().":1432,"ential":1433,"Test":1434,"mod":1435,"Ġcomple":1436,"Ġsame":1437,"order":1438,"Ġwell":1439,"Ġobject":1440,"Ġbo":1441,"ten":1442,"IT":1443,"Ġ%":1444,"Ġthem":1445,"Ġcent":1446,"SE":1447,"eps":1448,"ified":1449,"\\\\":1450,"We":1451,"ouse":1452,"Cont":1453,"roll":1454,"beta":1455,"gy":1456,"Get":1457,"sigma":1458,"());":1459,"other":1460,"Error":1461,"Ġkey":1462,"By":1463,"evelop":1464,"rib":1465,"link":1466,"At":1467,"Ġagain":1468,"ĠCol":1469,"way":1470,"ron":1471,"24":1472,"Ġwhile":1473,"ilde":1474,"Ġdr":1475,"aj":1476,"Ġnon":1477,"fore":1478,"ency":1479,"For":1480,"ife":1481,"dis":1482,"iversity":1483,"Ġshould":1484,"ared":1485,"cle":1486,"Ġsecond":1487,"Ind":1488,"Ġyour":1489,"cept":1490,"ME":1491,"box":1492,"._":1493,"Ġhim":1494,"Ġlong":1495,"^{-":1496,"ism":1497,"Im":1498,"Ġneed":1499,"nav":1500,"reg":1501,"Ġlink":1502,"ĠInd":1503,"AN":1504,"inter":1505,"Ġ(\\":1506,"ically":1507,"Ġsing":1508,"ector":1509,"orth":1510,"196":1511,"ott":1512,"Ġappro":1513,"Ġz":1514,"ĠĠĠĠĊ":1515,"View":1516,"Class":1517,"Sh":1518,"public":1519,"js":1520,"reat":1521,"File":1522,"100":1523,"Ġhow":1524,"raw":1525,"att":1526,"Ġboth":1527,"Ġfollowing":1528,"formation":1529,"pace":1530,"Ġgiven":1531,"}{\\":1532,"ants":1533,"af":1534,"erson":1535,"outh":1536,"list":1537,"ĉĉĉĉĉ":1538,"ury":1539,"Ġu":1540,"\"></":1541,"On":1542,"time":1543,"index":1544,"function":1545,"Ġrun":1546,"ense":1547,"Ġever":1548,"indow":1549,"ives":1550,"try":1551,"CO":1552,"\";":1553,"mathrm":1554,"Ġdirect":1555,"field":1556,"ful":1557,"ister":1558,"ground":1559,"Ġsur":1560,"ager":1561,"Ã©":1562,"Ġorder":1563,"+\\":1564,"*}":1565,"reak":1566,"Ġbr":1567,"top":1568,"fl":1569,"itial":1570,"Ġyears":1571,"table":1572,"Ġthree":1573,"go":1574,"gamma":1575,"lay":1576,"['":1577,"ension":1578,"cription":1579,"dition":1580,"bers":1581,"ases":1582,"rite":1583,"Ġfr":1584,"ocument":1585,"An":1586,"Ġcurrent":1587,"url":1588,".</":1589,"load":1590,"uch":1591,"figure":1592,"atri":1593,"');":1594,"med":1595,"color":1596,"Ġpartic":1597,"Key":1598,"]{":1599,"lob":1600,"ale":1601,"Ġlocal":1602,"Ġcall":1603,"ected":1604,"Ġdifferent":1605,"Ġterm":1606,"Ġsupport":1607,"http":1608,"Ġtitle":1609,"Ġarg":1610,"ident":1611,"Ġlike":1612,"40":1613,"Ġperform":1614,"Requ":1615,"ession":1616,"Ġbefore":1617,"Ġduring":1618,"rem":1619,"comm":1620,"path":1621,"overn":1622,"Ġbeing":1623,"Ġhand":1624,"Ġright":1625,"ains":1626,"que":1627,"uration":1628,"ane":1629,"bol":1630,"rop":1631,"']":1632,"oad":1633,"ather":1634,"delta":1635,"gram":1636,"^\\":1637,"ross":1638,"eters":1639,"Ġsee":1640,"UL":1641,"ĠIf":1642,"ived":1643,"23":1644,"Ġdet":1645,"ĠFr":1646,"(),":1647,")}":1648,"Ġresp":1649,"Ġart":1650,"=\"../../":1651,"void":1652,"her":1653,"64":1654,"etwork":1655,"arly":1656,"Ġrele":1657,"sec":1658,"summary":1659,"ervice":1660,"group":1661,"Ġnow":1662,"Ġwrit":1663,"leq":1664,"Ġmed":1665,"ral":1666,"!--":1667,"Ġexpect":1668,"big":1669,"Ġfam":1670,"ĠAmerican":1671,"ural":1672,"Ġsize":1673,"Ġread":1674,"Ġbuild":1675,"'t":1676,"Ġjust":1677,"ush":1678,"Int":1679,"Ġmany":1680,"Ġatt":1681,"iving":1682,"Ġelement":1683,"Ġprocess":1684,"Ġmon":1685,"ackage":1686,"Ġimport":1687,"rho":1688,"Ġstruct":1689,".\"":1690,"ission":1691,"Ġvari":1692,"Ġfact":1693,"\":":1694,"Ġmain":1695,"ulation":1696,"opy":1697,"mp":1698,"bed":1699,"=\"+":1700,"$-":1701,"Ġbel":1702,"const":1703,"uffer":1704,"Ġdisc":1705,"Ġteam":1706,"Ġmade":1707,"ox":1708,"pert":1709,"ality":1710,"ology":1711,"Ġmem":1712,"theta":1713,"AC":1714,"times":1715,"ĠSc":1716,"ning":1717,"tau":1718,"RO":1719,"eqref":1720,"Time":1721,"ĠOn":1722,"til":1723,"quot":1724,"pm":1725,"}(\\":1726,"Ġconsider":1727,"arrow":1728,"arge":1729,"Ġcould":1730,"istory":1731,"aining":1732,"ymbol":1733,"Ġ/>":1734,"};":1735,"ively":1736,"ĠUniversity":1737,"Ġpass":1738,"ĠIs":1739,"ĠLe":1740,"Ġcontin":1741,"33":1742,"ĠDe":1743,"Ġdoes":1744,"}$,":1745,"ponse":1746,"':":1747,"itor":1748,"].":1749,"Ġsaid":1750,"}$.":1751,"tribute":1752,"ĠĠĊ":1753,"umer":1754,"efore":1755,"lp":1756,"ats":1757,"ION":1758,"Ġown":1759,"md":1760,"user":1761,"Ġerror":1762,"uthor":1763,"Ġwhat":1764,"Ġevent":1765,"unc":1766,"center":1767,"aces":1768,"uc":1769,"Ġdevelop":1770,"ability":1771,"This":1772,"Ġlast":1773,"ina":1774,"Request":1775,"Ġpar":1776,"Al":1777,"fty":1778,"Ġevery":1779,"ĠUnited":1780,"Ġfin":1781,"TE":1782,"Text":1783,"less":1784,"Ġpop":1785,"irc":1786,"PE":1787,"/*":1788,"Event":1789,"els":1790,"ood":1791,"Path":1792,"iter":1793,"iginal":1794,"Ġ?":1795,"ually":1796,"Element":1797,"search":1798,"Ġmy":1799,"utton":1800,"usic":1801,"infty":1802,"ogle":1803,"Ġmake":1804,"Ġ);":1805,"quad":1806,"ograph":1807,"Ġsmall":1808,"space":1809,"Man":1810,"ari":1811,"Ġfind":1812,"atrix":1813,"LA":1814,"ĠRes":1815,"nu":1816,"Info":1817,"ape":1818,"Add":1819,"Ġtop":1820,"Ġ$(":1821,"map":1822,"``":1823,"istr":1824,"Ġthrow":1825,"ords":1826,"Âł":1827,"Ġtem":1828,"Ġresults":1829,"ubl":1830,"Ġassert":1831,"net":1832,"IC":1833,"sk":1834,"Ġgu":1835,"Node":1836,"Qu":1837,".,":1838,"chi":1839,"27":1840,"mit":1841,"Ġbecause":1842,"Ġcoun":1843,"ior":1844,"State":1845,"Ġmet":1846,"olds":1847,"Def":1848,"Item":1849,"fin":1850,"arm":1851,"off":1852,"())":1853,"Ġeffect":1854,"28":1855,"idd":1856,"ship":1857,"node":1858,"Ġaut":1859,"chn":1860,"olean":1861,"ohn":1862,"ports":1863,"ober":1864,"Ġbl":1865,"Field":1866,"Ġlead":1867,"Ġ,":1868,"TR":1869,"Ġsince":1870,"length":1871,"Ġbeg":1872,"vert":1873,"2020":1874,"Index":1875,"ĠCl":1876,"/**":1877,"Ġopen":1878,"ĠEng":1879,"ateg":1880,"util":1881,"tilde":1882,"amespace":1883,"Ġmov":1884,"ride":1885,"ek":1886,"Context":1887,"Equ":1888,"oss":1889,"Config":1890,"Map":1891,"ustr":1892,"Not":1893,"model":1894,"partial":1895,"vious":1896,"https":1897,"Ġlinks":1898,"ĠMar":1899,"omega":1900,"Ġ/*":1901,"stance":1902,"26":1903,"Ġallow":1904,"Param":1905,"dt":1906,"ĠPr":1907,"des":1908,"igned":1909,"Ġrequest":1910,"bl":1911,"pty":1912,"Ġappe":1913,"PI":1914,"Form":1915,"Ġref":1916,"With":1917,"ootball":1918,"Ġmult":1919,"|\\":1920,"ope":1921,"met":1922,"imit":1923,"Ph":1924,"acter":1925,"ital":1926,"ĠPh":1927,"ience":1928,"External":1929,"Ġleft":1930,"ification":1931,"ley":1932,"####":1933,"Ġrepresent":1934,"Ġarray":1935,"urs":1936,"\".":1937,"Ġ(!":1938,"result":1939,"194":1940,"Array":1941,"Ġincluding":1942,"Over":1943,"Ġpresent":1944,"Ġtarget":1945,"side":1946,"position":1947,"no":1948,"Ġknown":1949,"plication":1950,"Ġbro":1951,"Ġ-->":1952,"Ġchild":1953,"Or":1954,"Ġfour":1955,"uf":1956,"resp":1957,"sq":1958,"ui":1959,"Ġbound":1960,"une":1961,"ustom":1962,"adi":1963,"aking":1964,"='":1965,"ĠĠĠĠĠĠĠĠĠĠĠĠĠĠĠĠĠĠĠĠĠĠĠĠĠĠĠ":1966,"ĠShe":1967,"atter":1968,"Ġexample":1969,"Ġvalues":1970,"angle":1971,"ides":1972,"config":1973,"ness":1974,"ends":1975,"Ġeven":1976,"Ġvis":1977,"Ġanal":1978,"Ġdescri":1979,"omen":1980,"rt":1981,"ĠHow":1982,"ormal":1983,"odes":1984,"vir":1985,"api":1986,"alth":1987,"day":1988,"tab":1989,"Ġexper":1990,"perties":1991,"Ġlog":1992,"cale":1993,"195":1994,"Ġinformation":1995,"29":1996,"wit":1997,"Delta":1998,"Ġrece":1999,"from":2000,"Ġtext":2001,"Ġvery":2002,"bs":2003,"Ġ});":2004,"por":2005,"utes":2006,"ene":2007,"true":2008,"ided":2009,"Service":2010,"Ġincre":2011,"Ġbased":2012,"icon":2013,"Ġobtain":2014,"ai":2015,"input":2016,"He":2017,"Ġlater":2018,"ait":2019,"ponent":2020,"next":2021,"enn":2022,"max":2023,"ttp":2024,"tract":2025,"Ġposs":2026,"ival":2027,"Ġcalled":2028,"';":2029,"amed":2030,"object":2031,"Ġdistrib":2032,"Ġplayers":2033,"ird":2034,"ĠOr":2035,"where":2036,"Des":2037,"lobal":2038,"iled":2039,"Ġcontent":2040,"Ġdefault":2041,"Ġmust":2042,"Size":2043,"ĠBr":2044,"Ġcar":2045,"ĠAnd":2046,"60":2047,"head":2048,"uck":2049,"\"\"":2050,"block":2051,"xi":2052,"comp":2053,"FF":2054,"Ġcondition":2055,"ources":2056,"ilter":2057,"Ġagainst":2058,"enu":2059,"ret":2060,"lem":2061,"title":2062,"Ġmap":2063,"ĠčĊ":2064,"bum":2065,"Ġdid":2066,"orem":2067,"Ġversion":2068,"Ġlevel":2069,"Ġelect":2070,"UR":2071,"ync":2072,"inc":2073,"Result":2074,"hip":2075,"Ġmeas":2076,"iction":2077,"ift":2078,"Ġlet":2079,"Ġpres":2080,"ĠAt":2081,"alk":2082,"ĠMay":2083,"Hand":2084,"eqn":2085,"Ġ},":2086,"Ġway":2087,"Re":2088,"aster":2089,"ination":2090,"Fr":2091,"Ġmax":2092,"Ġpath":2093,"uro":2094,"Ġrefer":2095,"iness":2096,"ounty":2097,"Ġtyp":2098,"ĠStates":2099,"Ġdown":2100,"Code":2101,"duct":2102,"ĠGr":2103,"apache":2104,"cit":2105,"Ġposition":2106,"ained":2107,"****************":2108,"assert":2109,"error":2110,"Ġprot":2111,"Build":2112,"Ġfilm":2113,"Ġseries":2114,"valid":2115,"with":2116,"ĠAd":2117,"Ġrecord":2118,"Ġnext":2119,"Ġschool":2120,"see":2121,"plate":2122,"ags":2123,"Ġexp":2124,"akes":2125,"Ġident":2126,"Ġuser":2127,"mb":2128,"eturn":2129,"Ġthose":2130,"inition":2131,"ths":2132,"Ġmark":2133,"////////":2134,"point":2135,"Ġdep":2136,"olution":2137,"uage":2138,"2015":2139,"$$":2140,"ches":2141,"cdot":2142,"sim":2143,"Ġ:=":2144,"AD":2145,"Ġproble":2146,"Ġsingle":2147,"word":2148,"ĠJan":2149,"Ġcommun":2150,"Ġlarge":2151,"abled":2152,"Ġav":2153,"LO":2154,"respond":2155,"Ġcr":2156,"body":2157,"Ġblock":2158,"Ġcheck":2159,"Of":2160,"Ġstyle":2161,"aint":2162,"Ġseason":2163,"sup":2164,"Ġsrc":2165,"olv":2166,"Om":2167,"Ġinput":2168,"ĠJohn":2169,"ended":2170,"2017":2171,")$.":2172,"Ġdi":2173,"create":2174,"Ġcomput":2175,"ouble":2176,"epsilon":2177,"nder":2178,"version":2179,"Ġgovern":2180,"ĠSystem":2181,"ague":2182,"\\,":2183,"ised":2184,"80":2185,"Ġspace":2186,"}}\\":2187,"ux":2188,"Ġreal":2189,"ivity":2190,"Message":2191,"come":2192,"[]":2193,"=\"../../../../":2194,"++":2195,"ety":2196,"java":2197,"2019":2198,"Is":2199,"2016":2200,"Ġstand":2201,"gt":2202,"style":2203,"Ġsever":2204,"ĠRe":2205,"Ġbreak":2206,"ero":2207,"ocus":2208,"light":2209,"ĠCan":2210,"urther":2211,"TH":2212,"2014":2213,"Ġprogram":2214,"Ġknow":2215,">&":2216,"ternational":2217,"stru":2218,"nection":2219,"ixed":2220,"my":2221,"itive":2222,"loat":2223,"urch":2224,"Ġpost":2225,"state":2226,"Ġproject":2227,"Ġinitial":2228,"ators":2229,"IG":2230,"35":2231,"ĠPl":2232,"ĠSp":2233,"Ġnode":2234,"Ġview":2235,"}[":2236,"All":2237,"Ġhere":2238,"ĠComm":2239,"ĠWh":2240,"Ġocc":2241,"evice":2242,"Ġworld":2243,"2018":2244,"ilt":2245,"rel":2246,"ailable":2247,"AS":2248,"Omega":2249,"Ġjava":2250,"ony":2251,"default":2252,"omet":2253,"Ġgame":2254,"ĠCar":2255,"iod":2256,"aut":2257,"ML":2258,"Ġhead":2259,"Ġwithin":2260,"sl":2261,"Ġrespect":2262,"ĠWorld":2263,"Ġexpl":2264,"down":2265,"acy":2266,"Ġbase":2267,"reate":2268,"It":2269,"Ġfamily":2270,"ĠYou":2271,"ances":2272,"start":2273,"}_{\\":2274,"ottom":2275,"ium":2276,"Ġestabl":2277,"ĠBl":2278,"ored":2279,"ison":2280,"Val":2281,"pression":2282,"info":2283,"raphics":2284,"utions":2285,"ĠNational":2286,"Ġcreate":2287,"Ġcode":2288,"www":2289,"ately":2290,"Ġaddition":2291,"base":2292,"Ġgeneral":2293,"ware":2294,"Ġhelp":2295,"content":2296,"IS":2297,"Ġcle":2298,"usiness":2299,"tn":2300,"android":2301,"lt":2302,"capt":2303,"Ġimp":2304,"energy":2305,"2010":2306,"ĠAll":2307,"Ġaround":2308,"Ġpower":2309,"Ġ===":2310,"uary":2311,"34":2312,"MP":2313,"atures":2314,";&":2315,"99":2316,"ĠMan":2317,"ING":2318,"hes":2319,"Ġopt":2320,"Ġuntil":2321,"ched":2322,"psi":2323,"ED":2324,"Model":2325,"tings":2326,"Ġpat":2327,"ploy":2328,"Ġconfig":2329,"rec":2330,"Ġtri":2331,"ĠJul":2332,"Log":2333,"Ġobserv":2334,"2013":2335,"Ġoriginal":2336,"Ġcontext":2337,"oper":2338,"ling":2339,"uk":2340,"Ġ__":2341,"Ġindex":2342,"Ġstill":2343,"rodu":2344,"From":2345,"Ġplace":2346,"ĠNov":2347,"Ġbook":2348,"Ġdue":2349,"icy":2350,"Ġinstance":2351,"ection":2352,"ideo":2353,"ajor":2354,"Ġmuch":2355,"Ġmass":2356,"Manager":2357,"elect":2358,"ansp":2359,"wards":2360,"ĠâĢĶ":2361,"itt":2362,"System":2363,"Vert":2364,"Ġcap":2365,"rist":2366,"Ser":2367,"Ġcare":2368,"oin":2369,"Ġinteg":2370,"Ġalbum":2371,"^*":2372,"ULL":2373,"Ġlife":2374,"aving":2375,"Ġsum":2376,"imal":2377,"2011":2378,"Ġlook":2379,"Ġfootball":2380,"2012":2381,"Ġold":2382,"Ġmag":2383,"tes":2384,"Ġsource":2385,"Ġtry":2386,"Table":2387,"Out":2388,"ilar":2389,"ording":2390,"ĠEn":2391,"ĠCent":2392,"Ġann":2393,"Ġloc":2394,"MA":2395,"plement":2396,"ken":2397,"New":2398,"define":2399,"--------------------------------":2400,"Pl":2401,"aper":2402,"TD":2403,"Up":2404,"User":2405,"Ġtot":2406,"roller":2407,"ĠGet":2408,"ump":2409,"Ġsuccess":2410,"rep":2411,"ume":2412,"gor":2413,"include":2414,"ĠFig":2415,"Ġwithout":2416,"ender":2417,"Ġchang":2418,"using":2419,"psilon":2420,"Ġdepend":2421,"Ġarea":2422,"cast":2423,"CH":2424,"UT":2425,"01":2426,"Ġassum":2427,"urity":2428,"ugg":2429,"ules":2430,"ĠYork":2431,"tainer":2432,"css":2433,"Ġitem":2434,"Ġalong":2435,"elete":2436,"sw":2437,"annel":2438,"package":2439,"Color":2440,"Ġabove":2441,"Ġdel":2442,"Comm":2443,"ĠTo":2444,"ĠSchool":2445,"AB":2446,"ĠPol":2447,"Ġnear":2448,"Ġorgan":2449,"Ġ};":2450,"Ġlaw":2451,"cm":2452,"pen":2453,"ĠRep":2454,"Inter":2455,"caption":2456,"ique":2457,"75":2458,")$,":2459,"=\"../":2460,"ories":2461,"illi":2462,"method":2463,"Ġnetwork":2464,"ĠReg":2465,"Rec":2466,"ibr":2467,"Ġtake":2468,"ĠÐ":2469,"Ġconf":2470,"39":2471,"Trans":2472,"ĠCounty":2473,"ĠWar":2474,"aim":2475,"bit":2476,"Ġcorrespond":2477,"Ġreport":2478,"option":2479,"au":2480,";</":2481,"Reg":2482,"ĠĠĠĠĠĠĠĠĠĠ":2483,"Property":2484,"aterial":2485,"ĠPar":2486,"ES":2487,"Ġenc":2488,"Ġperson":2489,"ourn":2490,"ĠĠĠĠĠĠĠĠĠĠĠĠ":2491,"Ġcontrol":2492,"Pr":2493,"ĠWest":2494,"dom":2495,"icle":2496,"Ġseveral":2497,"ament":2498,"Gamma":2499,"ĉĉĉĉĉĉ":2500,"Ġbest":2501,"Ġbeh":2502,"eqnarray":2503,"ĠAug":2504,"Ġexist":2505,"Dis":2506,"Ġbecame":2507,"eff":2508,"Ġdefined":2509,"ustral":2510,"Ġservice":2511,"ET":2512,"web":2513,"Ġcharacter":2514,"context":2515,"count":2516,"UN":2517,"Ġgood":2518,"ĠHowever":2519,"ĠGe":2520,"ĠBrit":2521,"08":2522,"bm":2523,"ĠOct":2524,"ij":2525,"Ġselect":2526,"lin":2527,"non":2528,"Ġ()":2529,"earch":2530,"Ġwant":2531,"mber":2532,"45":2533,"vare":2534,"Ġinclude":2535,"ĠGu":2536,"=\"#":2537,"Ġadv":2538,"ians":2539,"erman":2540,"Ð°":2541,"refer":2542,"Ġbir":2543,"ĠCal":2544,"core":2545,"event":2546,"posed":2547,"icial":2548,"sqrt":2549,"doc":2550,"google":2551,"check":2552,"Ġsk":2553,"ĠThey":2554,"Ġpolit":2555,"gorith":2556,"Group":2557,"andom":2558,"Ġtable":2559,"ifier":2560,"36":2561,"Ġprevious":2562,"ĠSouth":2563,"ithub":2564,"struction":2565,"DO":2566,"imate":2567,"Ġbackground":2568,"prot":2569,"db":2570,"de":2571,"static":2572,"false":2573,"Arg":2574,"imum":2575,"Ġmusic":2576,"oken":2577,"textbf":2578,"Ġsong":2579,"Ġassoci":2580,"viron":2581,"Ġdem":2582,"Ġcolor":2583,"varepsilon":2584,"uments":2585,"ynam":2586,"2009":2587,"ptember":2588,"Cl":2589,"Ġcour":2590,"ĠList":2591,"31":2592,"Ġdeath":2593,"Ġpo":2594,"lose":2595,"print":2596,"Ġaction":2597,"Ġmeasure":2598,"Ġbas":2599,"Ġtechn":2600,"Ġbool":2601,"ĠJanuary":2602,"ĠMin":2603,"Ġet":2604,"Ġiss":2605,"ĠUS":2606,"subsection":2607,"onse":2608,"Ġproperty":2609,"Ġrange":2610,"ĠTe":2611,"Ġenergy":2612,"ĠBe":2613,"tual":2614,"ung":2615,"arning":2616,"90":2617,"ands":2618,"Client":2619,"prov":2620,"Ġmatch":2621,"Ad":2622,"Ġrequire":2623,"ways":2624,"Ġ${\\":2625,"Cell":2626,"Ġtotal":2627,"ram":2628,"namespace":2629,"ENT":2630,"uted":2631,"iment":2632,"tra":2633,"Ġanother":2634,"Ġnil":2635,"Ġstat":2636,"cor":2637,"Ġdom":2638,"Ġresponse":2639,"ae":2640,"================":2641,"},\\":2642,"Ġbu":2643,"Mod":2644,")</":2645,"lex":2646,"ued":2647,"Ġoptions":2648,"Ġ($":2649,"ĠCo":2650,"ebug":2651,"wid":2652,"Ġsat":2653,"oman":2654,"Ġstd":2655,"Method":2656,"^{(":2657,"arr":2658,">(":2659,"37":2660,"ped":2661,"ysis":2662,"lick":2663,"Call":2664,"aced":2665,"ither":2666,"Ġregion":2667,"Ġden":2668,"github":2669,"ĠMarch":2670,"ocial":2671,"Ġlarg":2672,"2008":2673,"argin":2674,"pril":2675,"}^{\\":2676,"Ġeng":2677,"ĠIm":2678,"Ġshort":2679,"Query":2680,"66":2681,"Ġday":2682,"](":2683,"Override":2684,"Ġcur":2685,"Ġaddress":2686,"ĠBy":2687,"nect":2688,"select":2689,"lim":2690,"Ġla":2691,"iev":2692,"''":2693,"atab":2694,"Ġwin":2695,"Ġparticular":2696,"IL":2697,"Ġspe":2698,"ensure":2699,"ven":2700,"aff":2701,"Ð¾":2702,"And":2703,"Ġfull":2704,"Ġchange":2705,"Ġclos":2706,"call":2707,"CE":2708,"ĠState":2709,"ready":2710,"Ġlang":2711,"Count":2712,"38":2713,"Ġdesign":2714,"Response":2715,"}=":2716,"ales":2717,"df":2718,"ĠAugust":2719,"current":2720,"ica":2721,"Ġaccess":2722,"Ġwidth":2723,"Bar":2724,"lish":2725,"gress":2726,"Ġcompon":2727,"istor":2728,"build":2729,"Builder":2730,"actory":2731,"reen":2732,"Ġimage":2733,"Ġdiv":2734,"opt":2735,"<!--":2736,"ĠSeptember":2737,"cember":2738,"ĠSet":2739,"Ġvol":2740,")=":2741,"anel":2742,"ards":2743,"imension":2744,"emph":2745,"Ġdocument":2746,"Ġavailable":2747,"ĠNo":2748,"Ġleg":2749,"lege":2750,"egraphics":2751,"includegraphics":2752,"Ġpoints":2753,"Read":2754,"illion":2755,"Ġandroid":2756,"ze":2757,"05":2758,"ependent":2759,"ĠJune":2760,"OT":2761,"iple":2762,"IP":2763,"Ġpubl":2764,"ĠOctober":2765,"âĢľ":2766,"Ġsection":2767,"Ġborder":2768,"mo":2769,"stit":2770,"Ġca":2771,"inary":2772,"urg":2773,"Ġdon":2774,"rangle":2775,"raft":2776,"oud":2777,"Ġredu":2778,"US":2779,"Ġinterest":2780,"cul":2781,"ampion":2782,"2021":2783,"null":2784,"Sub":2785,"Ġmessage":2786,"Ġsimilar":2787,"vision":2788,"varphi":2789,"urope":2790,"Ġhome":2791,"etails":2792,"Ġoutput":2793,"Date":2794,"If":2795,"ĠAss":2796,"riter":2797,"ables":2798,"ename":2799,"ĠJuly":2800,"Ġearly":2801,"ĉĊ":2802,"Ġke":2803,"ending":2804,"leg":2805,".âĢĿ":2806,"Ġside":2807,"Ġsuper":2808,"Stream":2809,"2007":2810,"((":2811,"yl":2812,"Ġdeterm":2813,"Ġlow":2814,"Ġes":2815,"Ġlength":2816,"55":2817,"ĠCity":2818,"hand":2819,"aged":2820,"])":2821,"options":2822,"istic":2823,"query":2824,"ĠAustral":2825,"ĠĠĠĠĠĠĠĠĠĠĠĠĠĠĠĠĠĠĠĠĠĠĠĠĠĠĠĠĠĠĠ":2826,"Ġmar":2827,"Ġfa":2828,"alf":2829,"ĠApril":2830,"ĠSup":2831,"sequ":2832,"uster":2833,"Ġmembers":2834,"ensity":2835,"Ġder":2836,"Ġprob":2837,"Ġ\\,":2838,"ĠII":2839,"Ðµ":2840,"ĠĠĠĠĠĠĠĠĠĠĠĠĠĠĠĠĠ":2841,"NA":2842,"Ġwon":2843,"ertain":2844,"End":2845,"Ġformer":2846,"Ġcell":2847,"Ġperiod":2848,"ĠSec":2849,"button":2850,"Ġaff":2851,"Be":2852,"Gener":2853,"proof":2854,"pecial":2855,"Ġshown":2856,"2006":2857,"eed":2858,"Input":2859,"lib":2860,"Pos":2861,"ĠNorth":2862,"Ġmodels":2863,"Ġproblem":2864,"Ġrequired":2865,"Ġparameters":2866,"Ġweek":2867,"height":2868,"si":2869,"place":2870,"Ġpossible":2871,"ention":2872,"Big":2873,"ada":2874,".~\\":2875,"pose":2876,"uman":2877,"Ġ<<":2878,"now":2879,"ĠNovember":2880,"vironment":2881,"Ġq":2882,"Ġcho":2883,"IR":2884,"Ġparent":2885,"ks":2886,"xy":2887,"ĠDecember":2888,"imation":2889,"ĠNULL":2890,"ops":2891,"Ġcity":2892,"Ġprom":2893,"Ġproduct":2894,"Ġstudy":2895,"Ġexec":2896,"ategory":2897,"hold":2898,"ĠAb":2899,"cer":2900,"Ã¡":2901,"init":2902,"ĠMed":2903,"|-":2904,"Ġreleased":2905,"client":2906,"func":2907,"rightarrow":2908,"See":2909,"undle":2910,"dir":2911,"ham":2912,"0000":2913,"Ġturn":2914,"~~":2915,"cho":2916,"Status":2917,"iff":2918,"semb":2919,"ls":2920,"dec":2921,"Ġmajor":2922,"ilit":2923,"Ġcomb":2924,"ONT":2925,"image":2926,"geq":2927,"rior":2928,"erefore":2929,"Ġprof":2930,"Ġtimes":2931,"Ġfree":2932,"ude":2933,"ĠPart":2934,"ĠRec":2935,"Sc":2936,"&\\":2937,"ney":2938,"ino":2939,"Ġcorre":2940,"ours":2941,"44":2942,"Ġsit":2943,"creen":2944,"request":2945,"ster":2946,"ĠEd":2947,"ĠFeb":2948,"ibility":2949,"ĠThere":2950,"Image":2951,"Ġfew":2952,"Ġrole":2953,"Par":2954,"2000":2955,"alt":2956,"Ġparameter":2957,"atabase":2958,"Ġret":2959,"Ġquant":2960,"Ġgovernment":2961,"uture":2962,"Instance":2963,"lor":2964,"epar":2965,"Token":2966,"Ġmean":2967,"Ġshows":2968,"70":2969,"Str":2970,"mark":2971,"ached":2972,"Ġstructure":2973,"anch":2974,"Ed":2975,"Ġexpected":2976,"thern":2977,"active":2978,"rows":2979,"used":2980,"ĠBo":2981,"Ġspect":2982,"orph":2983,"Ġintrodu":2984,"mult":2985,"Ġvalid":2986,"dl":2987,"args":2988,"cap":2989,"lied":2990,"vec":2991,"Dec":2992,"adding":2993,"server":2994,"stand":2995,"Ġcompany":2996,"overline":2997,"Ġplayed":2998,"Ġfollows":2999,"ried":3000,"ography":3001,"uation":3002,"Ġmat":3003,"No":3004,"){":3005,"Ġpot":3006,"lies":3007,"Ġinvest":3008,"icro":3009,"kn":3010,"tx":3011,"ana":3012,"ruary":3013,"idual":3014,"Ġrest":3015,"ĠEurope":3016,"Ġfore":3017,"EE":3018,"Ġsche":3019,"ights":3020,"clus":3021,"Off":3022,"run":3023,"Ġcount":3024,"foot":3025,"yd":3026,"umb":3027,"[\\":3028,"Ġterms":3029,"Act":3030,"Ġmember":3031,"Ġsample":3032,"Ġlabel":3033,"48":3034,"}).":3035,"finished":3036,"ĠCO":3037,"ones":3038,"oll":3039,"isf":3040,"born":3041,"witch":3042,"Action":3043,"Ġstrong":3044,"Ġbusiness":3045,"Oper":3046,"Ġsequ":3047,"ges":3048,"ĠChrist":3049,"page":3050,"rew":3051,"NS":3052,"jav":3053,"ĠSer":3054,"Ġtrack":3055,"({":3056,".}":3057,"Let":3058,"btn":3059,"Ġimportant":3060,"has":3061,"ii":3062,"Ġsl":3063,"App":3064,"php":3065,"Block":3066,"gorithm":3067,"hem":3068,"Ġlay":3069,"Ġpage":3070,"OS":3071,"agement":3072,"ĠGener":3073,"Ġwomen":3074,"oto":3075,"Ġdiscuss":3076,"Ġboolean":3077,"Ġdeg":3078,"MS":3079,"frak":3080,"Ġcompet":3081,"Nav":3082,"flow":3083,"ering":3084,"Ġhost":3085,"adio":3086,"Ġport":3087,"ĠBritish":3088,"do":3089,"Ð¸":3090,"ns":3091,"FA":3092,"rid":3093,"apan":3094,"draw":3095,"Component":3096,"bolds":3097,"Comp":3098,"ĠCor":3099,"era":3100,"icense":3101,"Ap":3102,"2005":3103,"mm":3104,"Lay":3105,"Ġauthor":3106,"Ġindic":3107,"though":3108,"Ġ->":3109,"Line":3110,"boldsymbol":3111,"Ġdescribed":3112,"ought":3113,"ĠKing":3114,"header":3115,"Null":3116,"EX":3117,")(":3118,"Ġlimit":3119,"YPE":3120,"sf":3121,"dict":3122,"Ġfeature":3123,"ĠQu":3124,"ama":3125,"EL":3126,"Ġland":3127,"âĢĶ":3128,"Ġspecial":3129,"orage":3130,"amework":3131,"Sec":3132,"Ġless":3133,"na":3134,"Ġvir":3135,"Ġevents":3136,"ising":3137,"Ġalready":3138,"Ġchildren":3139,"Base":3140,"Ġtask":3141,"Handler":3142,"ĠAfter":3143,"Ġep":3144,"Source":3145,"ently":3146,"Ġhistory":3147,"Ġwhe":3148,"target":3149,"ĠBut":3150,"REF":3151,"local":3152,"imary":3153,"ered":3154,"Attribute":3155,"ĠMc":3156,"CC":3157,"Ġsay":3158,"SP":3159,"Ġcover":3160,"unfinished":3161,"Ġaver":3162,"AP":3163,"yles":3164,"vers":3165,"Ġdistribution":3166,"atform":3167,"ĠFebruary":3168,"Head":3169,"ĠAp":3170,"TO":3171,"Ġide":3172,"Rep":3173,"Ġstates":3174,"acing":3175,"Options":3176,"Ġband":3177,"abla":3178,"Ġhttp":3179,"icient":3180,"cy":3181,"png":3182,"append":3183,"rest":3184,"display":3185,"Ġfunctions":3186,"Ġfurther":3187,"ĠAdd":3188,"child":3189,"Ġred":3190,"Ġcommand":3191,"book":3192,"[\"":3193,"igation":3194,")^":3195,"gen":3196,"vari":3197,"ĠTest":3198,"mathfrak":3199,"ugin":3200,"Ġeither":3201,"ĠDr":3202,"ably":3203,"omic":3204,"ĠLeague":3205,"xml":3206,"ocol":3207,"Ġvert":3208,"Run":3209,"Ġleast":3210,"Ġnum":3211,"Ġ\"\"\"":3212,"Ġsignific":3213,"nabla":3214,"ĠĠĠĠĠĠĠĠĊ":3215,"Ġcommon":3216,"04":3217,"cell":3218,"Ġtown":3219,"Ġnamed":3220,"oke":3221,"Ġ+=":3222,"thers":3223,"Buffer":3224,"Sp":3225,"adata":3226,"Ġaccount":3227,"}}$":3228,"parent":3229,"Content":3230,"rench":3231,"adem":3232,"lit":3233,"izer":3234,"Select":3235,"Equal":3236,".\\":3237,"gle":3238,"ĠMe":3239,"bottom":3240,"Ġresearch":3241,"Ġcreated":3242,"hline":3243,"gener":3244,"ldots":3245,"Style":3246,"Ġperformance":3247,"Ġreceived":3248,"Ġalign":3249,"ological":3250,"ĠDes":3251,"Lambda":3252,"module":3253,"Ġdest":3254,"ittle":3255,"2004":3256,"Ġlight":3257,"ves":3258,"img":3259,"ĠĠĠĠĠĠĠĠĠĠĠĠĠĠ":3260,"Ġdeb":3261,"Start":3262,"ĠInt":3263,"Ġins":3264,"Ġthink":3265,"mar":3266,"aken":3267,"reet":3268,"ĠThese":3269,"ĠBar":3270,"Ġcolumn":3271,"navbar":3272,"Ġcrit":3273,"ille":3274,"exp":3275,"ansport":3276,"AG":3277,"tributes":3278,"open":3279,"65":3280,"mail":3281,"Ġ``":3282,"Ġappear":3283,"property":3284,"aps":3285,"eger":3286,"illiam":3287,"Ġlate":3288,"ĠHigh":3289,"small":3290,"Ġphys":3291,"aves":3292,"urb":3293,"oph":3294,"Ġdisplay":3295,"ampionship":3296,"case":3297,"langle":3298,"ĠWhen":3299,"02":3300,"ĠCont":3301,"Ġput":3302,"irection":3303,"ĠThen":3304,"aul":3305,"Ġthird":3306,"aly":3307,"appa":3308,"07":3309,"json":3310,"ĠAct":3311,"Pol":3312,"ialog":3313,"Ġtook":3314,"Ġclose":3315,"Resource":3316,"sol":3317,"*/":3318,"ĠSo":3319,"char":3320,"Ġarr":3321,"Point":3322,"wise":3323,"ATE":3324,"ynt":3325,"wide":3326,"Ġpopulation":3327,"ymmet":3328,"HT":3329,"95":3330,"oop":3331,"eder":3332,"otion":3333,"ĠComp":3334,"ĠArm":3335,"ration":3336,"ptr":3337,"Ġpotential":3338,"pc":3339,"Ġhouse":3340,"Ġimplement":3341,"first":3342,"Factory":3343,"Sup":3344,"plit":3345,"ĠWith":3346,"CK":3347,"century":3348,"dr":3349,"pol":3350,"}),":3351,"UE":3352,"Ġcareer":3353,"Ġtele":3354,"Ġsepar":3355,"Ġcomplex":3356,"Default":3357,"ĠHis":3358,"ensor":3359,"Ġmethods":3360,"Ġarch":3361,"Ġprovide":3362,"LASS":3363,"asing":3364,"Us":3365,"Ġmatrix":3366,"Ġconstruct":3367,"Ġfilms":3368,"Ġcou":3369,"ese":3370,"ĠDef":3371,"artment":3372,"Ġgames":3373,"Ġbody":3374,"Task":3375,"Ġapprox":3376,"Ġgraph":3377,"sembly":3378,"06":3379,"aug":3380,"rl":3381,"ĠEnglish":3382,"Ġincluded":3383,"ondon":3384,"iddle":3385,"Function":3386,"known":3387,"Ġfive":3388,"ĠClass":3389,"Ġsatisf":3390,"Ġbuilt":3391,"ients":3392,"eline":3393,"Ġgrow":3394,"Ġproperties":3395,"Ġoften":3396,"otype":3397,"Ġbirths":3398,"Ġlower":3399,"Ġheld":3400,"Ġsuff":3401,"ĠĠĠĠĠĠĠĠĠĠĠĠĊ":3402,"Ġelements":3403,"ĠOne":3404,"ike":3405,"ries":3406,"OD":3407,"ogn":3408,"Link":3409,"Ġwater":3410,"Version":3411,"lying":3412,"Ġage":3413,"Ġquest":3414,"Ġconc":3415,"Ġsite":3416,"HE":3417,"Ġcontain":3418,"ĠChar":3419,"ĠIN":3420,"last":3421,"strong":3422,"ged":3423,"Ġamong":3424,"Part":3425,"ÑĤ":3426,"Ġtoo":3427,"Ġlocated":3428,"Ġair":3429,"eople":3430,"reed":3431,"atas":3432,"Ġcases":3433,"cod":3434,"Ġdiff":3435,"Ġvia":3436,"OP":3437,"Ġprint":3438,"write":3439,"Ġsix":3440,"Ġeas":3441,"uggest":3442,",\"":3443,"ĠAfr":3444,"Ġbegan":3445,"True":3446,"09":3447,"sg":3448,"Ġbelow":3449,"ĠOff":3450,"idence":3451,"ington":3452,"Ġindu":3453,"find":3454,"Ġrecent":3455,"Ġcost":3456,"Ġassociated":3457,"status":3458,"Ġcoll":3459,"Ġestablished":3460,"GL":3461,"stream":3462,"ĠCoun":3463,"citep":3464,"host":3465,"private":3466,"Ġheight":3467,"subset":3468,"Ġalways":3469,"lip":3470,"Ġpair":3471,"Ġclaim":3472,"})$":3473,"Ġclub":3474,"member":3475,"Wh":3476,"Ġnormal":3477,"Ġant":3478,"Ġresource":3479,"Ġfeatures":3480,"ĠLet":3481,"Ġrate":3482,"iet":3483,"Number":3484,"Ġprovided":3485,"most":3486,"abor":3487,"Ġpay":3488,"olved":3489,"Ġfail":3490,"ured":3491,"\\|":3492,"ald":3493,"post":3494,"Ġcontrib":3495,"ĠJapan":3496,"element":3497,"inst":3498,"Ġload":3499,"});":3500,"Ġindiv":3501,"Ð½":3502,"ĠObject":3503,"apping":3504,"Ġstation":3505,"src":3506,"Ġcross":3507,"Ġplayer":3508,"Ġsent":3509,"ha":3510,"change":3511,"cil":3512,"istrict":3513,"Phi":3514,"level":3515,"uid":3516,"Ġmove":3517,"Ġsignificant":3518,"lections":3519,"Ġrelations":3520,"Ġwritten":3521,"ĠAir":3522,"88":3523,"Ġgrad":3524,"ĠPark":3525,"ĠâĢĺ":3526,"Ġconstant":3527,"Ġpublished":3528,"Ġmer":3529,"ĠNot":3530,"Ġprotected":3531,"Ġflow":3532,"Ġpract":3533,"Ġ((":3534,"Ġnational":3535,"kappa":3536,"Ġsystems":3537,"Ġpaper":3538,"Ġbetter":3539,"Filter":3540,"meta":3541,"unk":3542,"rowser":3543,"Ġsolution":3544,"Ġcompos":3545,"Ã³":3546,"medi":3547,"Ġdev":3548,"ĠAmeric":3549,"Ġsom":3550,"03":3551,"ĠMon":3552,"vis":3553,"American":3554,"Ġclient":3555,"\"]":3556,"Ġeduc":3557,"First":3558,"Ġmeans":3559,"ordin":3560,"Ġgreat":3561,"Ġra":3562,"Ġcamp":3563,"std":3564,"Ġvarious":3565,"ements":3566,"Ġfocus":3567,"Hel":3568,"Ġver":3569,"Fl":3570,"idden":3571,"Ġhaving":3572,"Ġanalysis":3573,"iler":3574,"Ġnever":3575,"Ġbecome":3576,"ĠPres":3577,"iol":3578,"ĠVal":3579,"ĠEast":3580,"Ġconsidered":3581,"ĠReturn":3582,"ief":3583,"cond":3584,"Ġattack":3585,"FONT":3586,"2003":3587,",âĢĿ":3588,"Window":3589,"yth":3590,"itions":3591,"len":3592,"IM":3593,"âĢ¦":3594,"oment":3595,"istry":3596,"Ġwindow":3597,"VER":3598,"irm":3599,"heet":3600,"main":3601,"${":3602,"ĠDis":3603,"project":3604,"Command":3605,"Ġstandard":3606,"ford":3607,"Ġvill":3608,"Ġcustom":3609,"47":3610,"atal":3611,"ĠRuss":3612,"ĠNone":3613,"Ġoption":3614,"Ġthrows":3615,"ĉĉĉĉĉĉĉĉ":3616,"Ġobtained":3617,"endif":3618,"Check":3619,"Ext":3620,"mon":3621,"Ġphot":3622,"su":3623,"prop":3624,"unic":3625,"Page":3626,"chema":3627,"igger":3628,"ypes":3629,"bor":3630,"Ġtoget":3631,"sole":3632,"Ġcountry":3633,"otimes":3634,"ftware":3635,"Ġbuilding":3636,"Ġtogether":3637,"entry":3638,"ĠLondon":3639,"hel":3640,"Ġstatus":3641,"Ġfac":3642,"ĠArt":3643,"SC":3644,"Ġdouble":3645,"ula":3646,"49":3647,"ires":3648,"ĠDav":3649,"Ġconditions":3650,"can":3651,"push":3652,"ĠAm":3653,"FI":3654,"Return":3655,"2001":3656,"Ġneg":3657,"Ġge":3658,"ibrary":3659,"ĠCollege":3660,"expect":3661,"Ġ{@":3662,"atural":3663,"udio":3664,"Ġwrite":3665,"67":3666,"OL":3667,"///":3668,"ĠHouse":3669,"Ġfund":3670,"ĠPer":3671,"ference":3672,"Ġmight":3673,"ĠGo":3674,"itory":3675,"Ġvideo":3676,"ging":3677,"Ġinternal":3678,"ĠLa":3679,"PRO":3680,"ĠSch":3681,"Ġtheory":3682,"attle":3683,"Ġacross":3684,"II":3685,"Label":3686,"alle":3687,"Box":3688,"ascript":3689,"Ġapproach":3690,"service":3691,"Ġsearch":3692,"textit":3693,"igin":3694,"Ġindividual":3695,"Prov":3696,"Ġannoun":3697,"ilities":3698,"board":3699,"ulture":3700,"Equals":3701,"Create":3702,"Ġaverage":3703,"Ġglobal":3704,"format":3705,"close":3706,"Ġseen":3707,"Ġofficial":3708,"roy":3709,"Sigma":3710,"Ġdevelopment":3711,"ĠSw":3712,"ceed":3713,"Ġlanguage":3714,"Ġwhether":3715,"Ġhard":3716,"Ġhapp":3717,"Row":3718,"Ġworks":3719,"Ġdensity":3720,"Ġ]":3721,"Ġtraining":3722,"Ġdays":3723,"Ġdone":3724,"obj":3725,"Ġextends":3726,"mem":3727,"Ġscal":3728,"split":3729,"num":3730,"Ġcommunity":3731,"bra":3732,"ifact":3733,"ÑĢ":3734,"signed":3735,"pack":3736,"/\\":3737,"mt":3738,"Ġbegin":3739,"ÃŃ":3740,"Ġmen":3741,"Ġunit":3742,"avel":3743,"RA":3744,"Ġgroups":3745,"based":3746,"Ġhigher":3747,"ĠHar":3748,"Ġplan":3749,"font":3750,"Ġbi":3751,"Ġsem":3752,"Ġcalcul":3753,"Ġrandom":3754,"Ġblack":3755,"Ġmodule":3756,"Em":3757,"Ġhealth":3758,"Ġtw":3759,"Ġtrad":3760,"Ġcorresponding":3761,"ĠBro":3762,"ĠRev":3763,"\\%":3764,"ris":3765,"oo":3766,"Ġcontains":3767,"aries":3768,"Ġspecific":3769,"ican":3770,"ring":3771,"buf":3772,"Ġfar":3773,"Ġconsist":3774,"Ġhowever":3775,"ĠSim":3776,"QL":3777,"Ġgen":3778,"ĠWilliam":3779,"layout":3780,"Ġfri":3781,"Format":3782,"Ġreview":3783,"Ġmiss":3784,"agn":3785,"Ġreturned":3786,")]":3787,"rown":3788,"Button":3789,"annot":3790,"actions":3791,"Ġmargin":3792,"Ġurl":3793,"ĠDep":3794,"Ġupdate":3795,"ournal":3796,"ĠDo":3797,"Controller":3798,"description":3799,"Acc":3800,"Ġstep":3801,"(&":3802,"etail":3803,"eh":3804,"allet":3805,"skip":3806,"Ġdate":3807,"Ġnec":3808,"ĠÂ":3809,"container":3810,"Ġstory":3811,"clear":3812,"menu":3813,"plicit":3814,"ilitary":3815,"cel":3816,"INT":3817,"filter":3818,"Ġfields":3819,"adius":3820,"SON":3821,"Ġsocial":3822,"column":3823,"Ġsimple":3824,"\").":3825,"Met":3826,"Ġable":3827,"Ġclear":3828,"2002":3829,"izing":3830,"fe":3831,"Ġinstead":3832,"mbox":3833,"aging":3834,"stract":3835,"Ab":3836,"77":3837,"Ġfrequ":3838,"ĠStr":3839,"ĠHer":3840,"Child":3841,"ocket":3842,"chiev":3843,"params":3844,"Ob":3845,"Ġlines":3846,"ĠAg":3847,"ĠFrench":3848,"Ent":3849,"Ġwar":3850,"Last":3851,"itional":3852,"ensuremath":3853,"apter":3854,"BC":3855,"Ġcatch":3856,"Ġmillion":3857,"Ġrespectively":3858,"PC":3859,"Ġround":3860,"ills":3861,"UI":3862,"rict":3863,"acity":3864,"Ġsuggest":3865,"Char":3866,"Listener":3867,"tag":3868,"ply":3869,"ĠUp":3870,"response":3871,"update":3872,"Back":3873,"Ġtre":3874,"85":3875,"ABLE":3876,"gl":3877,"Bundle":3878,"nonumber":3879,"ites":3880,"Ġrepl":3881,"Ġgive":3882,"chan":3883,"osp":3884,"verse":3885,"iber":3886,"Ġcopy":3887,"Ġcentury":3888,"Ġonce":3889,"oriz":3890,"Ġhom":3891,"Ġformat":3892,"\"),":3893,"rs":3894,"}}{":3895,"Mem":3896,"circ":3897,"\\[":3898,"After":3899,"Ġlik":3900,"hib":3901,"javascript":3902,"Ġvector":3903,"Spec":3904,"Ġestim":3905,"Ġyoung":3906,"sm":3907,"even":3908,"Ġspecies":3909,"Fig":3910,"ka":3911,"////////////////":3912,"Ġgoing":3913,"Ġlim":3914,"only":3915,"Ġadded":3916,"anged":3917,"ERT":3918,"Ġengine":3919,"Tem":3920,"lease":3921,"ensions":3922,"Ġloss":3923,"process":3924,"refix":3925,"Ġmaking":3926,"ners":3927,"Ġstarted":3928,"Ġsw":3929,"Ġdefine":3930,"ociation":3931,"Ġspecified":3932,"][":3933,"ĠInternational":3934,"Ġauto":3935,"Ġperm":3936,"encies":3937,"ouch":3938,"BU":3939,"ĠAc":3940,"{-":3941,"Ġgl":3942,"iding":3943,"widet":3944,"ishing":3945,"dots":3946,"46":3947,"itect":3948,"Column":3949,"NO":3950,"Ġcy":3951,"Ġear":3952,"ĠGL":3953,"istics":3954,"Aut":3955,"ids":3956,"Ġmedia":3957,"tool":3958,"ql":3959,"ministr":3960,"ĠCLASS":3961,"Ġregular":3962,"Ġemploy":3963,"AA":3964,"ĠHREF":3965,"Ġstream":3966,"Ġhalf":3967,"long":3968,"Ġproduction":3969,"Ġserved":3970,"avy":3971,"year":3972,"attr":3973,"Ġnumer":3974,"number":3975,"Ġmode":3976,"Ġdefinition":3977,"show":3978,"_.":3979,"Ã¼":3980,"ĉĠĠĠ":3981,"Ġexpress":3982,"duc":3983,"Ġexists":3984,"Ġservices":3985,"Ġlinear":3986,"Ġpositive":3987,"Ġoffer":3988,"Ġmaterial":3989,"Ġworking":3990,"ocr":3991,"final":3992,"Length":3993,"Ġ<!--":3994,"ĠMich":3995,"ico":3996,"Ġbehav":3997,"tempt":3998,"iforn":3999,"Ġnov":4000,"TP":4001,"pass":4002,"irrep":4003,"Output":4004,"ĠNor":4005,"Ġproof":4006,"Ut":4007,"reference":4008,"Ġmultiple":4009,"aring":4010,"oted":4011,"Per":4012,"Ġtypes":4013,"ĠRed":4014,"Web":4015,"<?":4016,"ĠPhil":4017,"Ġchanges":4018,"oney":4019,"Valid":4020,"dot":4021,"Ġoperator":4022,"unit":4023,"ĠSan":4024,"```":4025,"Ġfuture":4026,"Ġphase":4027,"widetilde":4028,"Ġequation":4029,"ĠDistrict":4030,"Ġindependent":4031,"oon":4032,"Ġdynam":4033,"ara":4034,"Ġhuman":4035,"42":4036,"under":4037,"lier":4038,"Ġborn":4039,"mat":4040,"UM":4041,"Ġeval":4042,"Ġtaken":4043,"ociety":4044,"flu":4045,"ication":4046,"Ġcirc":4047,"ifornia":4048,"Ġkeep":4049,"dev":4050,"example":4051,"Ġthus":4052,"Ġrow":4053,"Ġjob":4054,"Ġcame":4055,"Ġdistrict":4056,":</":4057,"Ġscale":4058,"ĠID":4059,"Cache":4060,"older":4061,"Ġcenter":4062,"Ġcomponent":4063,"Ġbecom":4064,"remove":4065,"ĠGerman":4066,"scale":4067,"else":4068,"ĠMark":4069,"Ġsubject":4070,"amily":4071,"Mode":4072,"Ġtemper":4073,"à¤":4074,"Ġrelated":4075,"la":4076,"ĠAcc":4077,"Ġseem":4078,"ĠInter":4079,"hood":4080,"97":4081,"}-":4082,"Ġadditional":4083,"Address":4084,"which":4085,"Rem":4086,"andid":4087,"Ġcannot":4088,"iqu":4089,"styles":4090,"Ġachiev":4091,"spec":4092,"\\!":4093,"Ġconver":4094,"uous":4095,"ades":4096,"rypt":4097,"ĠĠĠĠĠĠĠĠĠĠĠĠĠĠĠĠĠĠĠĠĠĠĠĠĠĠĠĠĠĠĠĠĠĠĠ":4098,"ĠMore":4099,"Ġground":4100,"like":4101,"ĠEm":4102,"ba":4103,"Ġben":4104,"Ġactiv":4105,"Layout":4106,"uel":4107,"ises":4108,"Ġsays":4109,"Ġ...":4110,"One":4111,"afe":4112,"oved":4113,"centering":4114,"Ġpress":4115,"SI":4116,"Ġapplication":4117,"Ġreason":4118,"Ġserver":4119,"DB":4120,"Pre":4121,"ellow":4122,"ĠRef":4123,"Ð¾Ð":4124,"empty":4125,"ĠTrans":4126,"ota":4127,"ingle":4128,"96":4129,"prime":4130,"Ġoperation":4131,"98":4132,"Ġaway":4133,"astic":4134,"bb":4135,"icles":4136,"Ġaccept":4137,"instance":4138,"Ġsequence":4139,"Ġfont":4140,"bin":4141,"Ġthough":4142,"emma":4143,"Ġlocation":4144,"CON":4145,"Ġattempt":4146,"Min":4147,"Ġstudents":4148,"Ġnone":4149,"Ġcallback":4150,"Ġcertain":4151,"1999":4152,"########":4153,"Ġinterface":4154,"Ge":4155,"Ġnorth":4156,"Ġtelevision":4157,"COL":4158,"orge":4159,"ĠFirst":4160,"sd":4161,"IO":4162,"ĠEl":4163,"ĠChampionship":4164,"Ġactive":4165,"').":4166,"unch":4167,"Ġill":4168,"ething":4169,"ĠÃ":4170,"ĠAPI":4171,"URL":4172,"Ġliter":4173,"ipp":4174,"wrap":4175,"Ġmeet":4176,"Offset":4177,"Ġfit":4178,"command":4179,"Ġnav":4180,"Ġstop":4181,"Ñģ":4182,"Ġtransform":4183,"Ġamount":4184,"Ġinit":4185,"History":4186,"ERR":4187,"idge":4188,"lands":4189,"Ġzero":4190,"ĠMy":4191,"Ġfilter":4192,"efined":4193,"Ġconv":4194,"iles":4195,"Ass":4196,"Ġwebs":4197,"Ġson":4198,"Ġenvironment":4199,"output":4200,"\\]":4201,"ĠRiver":4202,"ĠType":4203,"AM":4204,">>":4205,"cos":4206,"CL":4207,"ael":4208,"Ġproduced":4209,"offset":4210,"Ġbeliev":4211,"Ġalgorithm":4212,"dist":4213,"bound":4214,"operator":4215,"Ġ[]":4216,"Ġkind":4217,"Server":4218,"izes":4219,"TYPE":4220,"ĠCalifornia":4221,"aml":4222,"Ġcome":4223,"ĠIndian":4224,"Ġbar":4225,"aches":4226,"lymp":4227,"ips":4228,"Ġbox":4229,"ĠCup":4230,"Ġaccording":4231,"ĠCour":4232,"Ġquery":4233,"ĠSection":4234,"Ġothers":4235,"Types":4236,"kit":4237,"igen":4238,"Next":4239,"Ġled":4240,"Ġinf":4241,"Ġcomplete":4242,"Ġsuccessful":4243,"burg":4244,"ND":4245,"Local":4246,"ĠSince":4247,"resh":4248,"Url":4249,"Ġnecess":4250,"zeta":4251,"Ġrelease":4252,"oding":4253,"ĠLicense":4254,"ĠDi":4255,"ĠHT":4256,"Ġecon":4257,"ĠEngland":4258,"och":4259,"Ġenough":4260,"86":4261,"Ġselected":4262,"ci":4263,"Ġstar":4264,"iers":4265,"Ġdied":4266,"ĠOF":4267,"++)":4268,"Ġfig":4269,"\\{":4270,"sin":4271,"ulations":4272,"Ġbit":4273,"Ġpur":4274,"Ġmarket":4275,"ĠArray":4276,"Frame":4277,"Ġreference":4278,"Max":4279,"Ġconstr":4280,"bind":4281,"87":4282,"nected":4283,"Update":4284,"quare":4285,"omb":4286,"ĠFrom":4287,"Ġwent":4288,"Ġreported":4289,"tabular":4290,"500":4291,"Ġpast":4292,"NAME":4293,"Ġsurface":4294,"ulated":4295,"proto":4296,"elling":4297,"eleg":4298,"iform":4299,"exec":4300,"illed":4301,"}+":4302,"omorph":4303,"Ġdistance":4304,"utils":4305,"ĠTheorem":4306,"ĠAmerica":4307,"Vis":4308,"Target":4309,"useum":4310,"Ġuint":4311,"oyal":4312,"57":4313,"Ġreally":4314,"Ġfiles":4315,"break":4316,"ili":4317,"depend":4318,"ĠAustralia":4319,"Ġ!==":4320,"ĠSk":4321,"(_":4322,"aven":4323,"IV":4324,"ĠGroup":4325,".$":4326,"Ġinternational":4327,"Ġprior":4328,"layer":4329,"Ġhistor":4330,"Width":4331,"ional":4332,"ĠIndia":4333,".~":4334,"ivil":4335,"olve":4336,"cs":4337,"Ġbig":4338,"ĠRepublic":4339,"background":4340,"prototype":4341,"atio":4342,"ĠDiv":4343,"Ġrank":4344,"abs":4345,"Entry":4346,"rum":4347,"There":4348,"Ġiter":4349,"ĠEq":4350,"(-":4351,"Ġtreat":4352,"ĠEX":4353,")=\\":4354,"Ġparticip":4355,"Ġcapt":4356,"}/":4357,"Ġsets":4358,"inner":4359,"Ġdecl":4360,"./":4361,"=\"../../../../../":4362,"ĠRem":4363,"}]":4364,"Provider":4365,"Ġmoment":4366,"anced":4367,"([":4368,"Ġgot":4369,"uint":4370,"********************************":4371,"ĠIr":4372,":\"":4373,"support":4374,"essional":4375,"Ġsouth":4376,"Ġfixed":4377,"Ġcollection":4378,"atory":4379,"2022":4380,"thing":4381,"scope":4382,"fa":4383,"soft":4384,"task":4385,"Ġlittle":4386,"Ġ&=":4387,"Top":4388,"Ġwhose":4389,"Access":4390,"}=\\":4391,"ĠApp":4392,"56":4393,"ĠPort":4394,"Ġask":4395,"essages":4396,"otal":4397,"Ġcontinue":4398,"isk":4399,"Ġexact":4400,"ĠDem":4401,"Sim":4402,"PO":4403,"Ġmoved":4404,"43":4405,"atives":4406,"bool":4407,"Ġoffset":4408,"rics":4409,"ĠData":4410,"De":4411,"parse":4412,"Ġrather":4413,"ĠHol":4414,"inn":4415,"Ġlive":4416,"Entity":4417,"Ġ**":4418,"Ġentire":4419,"Ġhold":4420,"ĠHam":4421,"Ġgenerated":4422,"late":4423,"How":4424,"Ġproposed":4425,"alax":4426,"ĠVir":4427,"values":4428,"Ġvillage":4429,"Ġfall":4430,"Ġdetails":4431,"window":4432,"SD":4433,"'),":4434,"Tag":4435,"Fe":4436,"aur":4437,"Ġvirtual":4438,"Co":4439,"aa":4440,"Ġapplic":4441,"float":4442,"Ġargs":4443,"Configuration":4444,"ĠSub":4445,"Ġequival":4446,"anies":4447,"Ġincludes":4448,"1990":4449,"Ġclosed":4450,";\\":4451,"Work":4452,"ming":4453,"returns":4454,"Ġentry":4455,")}\\":4456,"ya":4457,"ĠThat":4458,"han":4459,"SU":4460,"unn":4461,"Ġinstall":4462,"template":4463,"aints":4464,"Ġpolitical":4465,"Ġcontr":4466,"Ġfem":4467,"Ġconnection":4468,"edia":4469,"ttps":4470,"Ġsold":4471,"pdf":4472,"artifact":4473,"Ġcut":4474,"Ġtool":4475,"Ġimprov":4476,"ĠSm":4477,"acters":4478,"Ġobj":4479,"py":4480,"Ġsm":4481,"aign":4482,")^{":4483,"Bo":4484,"Ġfinite":4485,"Ġprop":4486,"author":4487,"Ġbroad":4488,"{{":4489,"icult":4490,"ĠMal":4491,",-":4492,"ias":4493,"stant":4494,"frame":4495,"Ġcommit":4496,"Ġcorrect":4497,"Ġchannel":4498,"require":4499,"Ġequal":4500,"Tree":4501,"ores":4502,"()->":4503,"ught":4504,"Ag":4505,"=\"-":4506,"Eng":4507,"tree":4508,"Ġcollect":4509,"41":4510,"ĠParty":4511,"Case":4512,"root":4513,"Ġfather":4514,"ĠDon":4515,"Ġrespons":4516,"Ġlarger":4517,"tries":4518,"unt":4519,"Ġannounced":4520,"ua":4521,"Ġreturns":4522,"stack":4523,"oms":4524,"ĠPresident":4525,"ategy":4526,"ĠWeb":4527,"SO":4528,"ĠGeneral":4529,"thm":4530,"CD":4531,"acc":4532,"Gr":4533,"Ġdegree":4534,"gebra":4535,"control":4536,"ube":4537,"ircle":4538,"itude":4539,"eft":4540,"grad":4541,"Ġobjects":4542,"Ġweight":4543,"1998":4544,".)":4545,"Ġpredict":4546,"lice":4547,"Ġmulti":4548,"classes":4549,"Process":4550,"agon":4551,"ĠGovern":4552,"Ġhttps":4553,"ĠNe":4554,"criptor":4555,"dep":4556,"achine":4557,"Ġobserved":4558,"unity":4559,"stitute":4560,"ctor":4561,"People":4562,"Level":4563,"Ã¶":4564,"ĠAnt":4565,"anish":4566,"Container":4567,"ario":4568,"Ġmakes":4569,"berg":4570,"match":4571,"ilm":4572,"Ġunique":4573,"aker":4574,"Ġwest":4575,"ria":4576,"ipal":4577,"note":4578,"Ġpopular":4579,"oice":4580,"ledge":4581,"typ":4582,"Ġepis":4583,"common":4584,"ĠUs":4585,"....":4586,"pling":4587,"uz":4588,"models":4589,"ĠStreet":4590,"Ġ;":4591,"cup":4592,"normal":4593,"Psi":4594,"adow":4595,"vey":4596,"Ġexperiment":4597,"Ġtim":4598,"hent":4599,"Ġroot":4600,"Ġss":4601,"etch":4602,"otes":4603,"ĠBel":4604,"files":4605,"obile":4606,"ensive":4607,"Position":4608,"Ġfactor":4609,"Ġir":4610,"Ġwebsite":4611,"ĠSen":4612,"Interface":4613,"]);":4614,"ULT":4615,"widehat":4616,"ĠBer":4617,"Ġda":4618,"{}":4619,"Ġnames":4620,"Ġalmost":4621,"nce":4622,"Height":4623,"ĠCanada":4624,"should":4625,"ds":4626,"Ġperformed":4627,"ĉĉĉĉĉĉĉ":4628,"CODE":4629,"sign":4630,"uses":4631,"||":4632,"Ġdescription":4633,"Ġprovides":4634,"ĠLog":4635,"fill":4636,"Ġrecogn":4637,"lemma":4638,"ĠPaul":4639,"IF":4640,"Ġareas":4641,"aching":4642,"cing":4643,"Ġfront":4644,"Ġinflu":4645,"di":4646,"strict":4647,"dated":4648,"omy":4649,"}_\\":4650,"imensional":4651,"ĠLaw":4652,"iting":4653,"Ġsound":4654,"Parameter":4655,"Load":4656,"rief":4657,"Ġdeveloped":4658,"ida":4659,"ully":4660,"Thread":4661,"Dr":4662,"rote":4663,"arp":4664,"$)":4665,"Ġnatural":4666,"expected":4667,"89":4668,"Ġsolid":4669,"Ġrunning":4670,"Ġprec":4671,"PS":4672,"document":4673,"icture":4674,"cr":4675,"Ġcourse":4676,"Ġneigh":4677,"Ġconstruction":4678,"Ġ(\"":4679,"adian":4680,"mid":4681,"bert":4682,"Ġviol":4683,"Utils":4684,"wait":4685,"}^\\":4686,"Ġjo":4687,"ĠBlack":4688,"ĠPal":4689,"star":4690,"Ġwords":4691,"Ġtree":4692,"AV":4693,"ĠSum":4694,"ĠCouncil":4695,"Ġsymmet":4696,"Open":4697,"ĠEuropean":4698,"ATION":4699,"Ġlearn":4700,"Ġrelative":4701,"Ġcurrently":4702,"Ġsomething":4703,"zer":4704,"Ġlearning":4705,"Ġforce":4706,"Ġlen":4707,"ĠFl":4708,"Ġaward":4709,"Ġedge":4710,"Ġuses":4711,"ãģ":4712,"fs":4713,"Ġmot":4714,"Ġwhite":4715,"inated":4716,"ĠChurch":4717,"ios":4718,"Ġ::":4719,"Ġ~":4720,"netic":4721,"cache":4722,"KE":4723,"Po":4724,"equiv":4725,"ĠFile":4726,"Ġeast":4727,"When":4728,"ker":4729,"ln":4730,"Ġleading":4731,"ams":4732,"Control":4733,"Location":4734,"Http":4735,"You":4736,"Ã¤":4737,"Ġsupported":4738,"iation":4739,"cdots":4740,"ĠQue":4741,"ĠCr":4742,"Ġunderstand":4743,"ĠĠĠĠĠĠĠĠĠĠĠĠĠĠĠĠĠĠĠĠĠ":4744,"ZE":4745,"Ġyet":4746,"Ġ\\{":4747,"Ġfloat":4748,"ville":4749,"ago":4750,"Ġcompar":4751,"ĠCenter":4752,"Ġpolicy":4753,"Exec":4754,"Ġbuffer":4755,"Living":4756,"76":4757,"buffer":4758,"=\"_":4759,"Ġelection":4760,"Ġremove":4761,"ĠFrance":4762,"token":4763,"ĠAward":4764,"ĠOut":4765,"Header":4766,"imately":4767,"Bl":4768,"HO":4769,"den":4770,"Ġcontract":4771,"ĠDavid":4772,"=\"../../../../../../":4773,"cial":4774,"Ġrights":4775,"})\\":4776,"ĠJames":4777,"Ġmaximum":4778,"ca":4779,"ĠThom":4780,"Script":4781,"Ġanaly":4782,"textwidth":4783,"Ġmid":4784,"Write":4785,"Ġsetting":4786,"ĠGerm":4787,"Ġexception":4788,"ĠRober":4789,"Search":4790,"Ġstage":4791,"arks":4792,"Ġpattern":4793,"Rel":4794,"Ġmale":4795,"more":4796,"Ġroad":4797,"mut":4798,"tic":4799,"eal":4800,"Ġparty":4801,"Ġframe":4802,"Ġdraw":4803,"ãĥ":4804,"Kind":4805,"Ġthings":4806,"conf":4807,"orizont":4808,"strap":4809,"&&":4810,"band":4811,"images":4812,"Ġrot":4813,"RL":4814,"DF":4815,"sy":4816,"Module":4817,"Ġprobability":4818,"CP":4819,"ataset":4820,"win":4821,"Ġconduct":4822,"Callback":4823,"ĠStud":4824,"artifactId":4825,"%%":4826,"59":4827,"IGN":4828,"van":4829,"Ġestablish":4830,"Ġallowed":4831,"Ġeffects":4832,"Ġitself":4833,"Ġconfiguration":4834,"Ġdirection":4835,"\"))":4836,"Ġtaking":4837,"rd":4838,"Ġvariable":4839,"west":4840,"ĠRich":4841,"oe":4842,"Range":4843,"onic":4844,"before":4845,"Ġpack":4846,"tml":4847,"Ġinc":4848,"arily":4849,"API":4850,"Current":4851,"58":4852,"1997":4853,"jection":4854,"tim":4855,"Ġquestion":4856,"Ġgives":4857,"ometry":4858,"olic":4859,"asons":4860,"Gu":4861,"attern":4862,"Ġneeded":4863,"}|":4864,"ĠChina":4865,"Ġexcept":4866,"just":4867,"Ġlost":4868,"Ġ{}":4869,"itar":4870,"then":4871,"hest":4872,"Ġdirectly":4873,"erry":4874,"agram":4875,"border":4876,"Ġdeaths":4877,"Ġsure":4878,";->":4879,"wood":4880,"Ġ\"\\":4881,"ctx":4882,"MM":4883,"agment":4884,"{(":4885,"Ġdevice":4886,"Ġparts":4887,"Ġworked":4888,"Ġimages":4889,"ĠReturns":4890,"Unit":4891,"ĠFigure":4892,"Ġexpression":4893,"ĠNote":4894,"Ġautom":4895,"Ġcentral":4896,"Ġassume":4897,"utive":4898,"Description":4899,"Ġdeal":4900,"resource":4901,"nes":4902,"stry":4903,"Ġcandid":4904,"Ġnote":4905,"Ġmonths":4906,"ĠSee":4907,"Ġspeed":4908,"Ġpers":4909,"1996":4910,"BA":4911,"Util":4912,"nap":4913,"TI":4914,">,":4915,"yper":4916,"Ġaccur":4917,"Ġ$(\\":4918,"asc":4919,"Settings":4920,"raz":4921,"ĠMod":4922,"ĠMet":4923,"Ġtakes":4924,"ein":4925,"Ġfailed":4926,"ponents":4927,"prox":4928,"atively":4929,"ini":4930,"fg":4931,"ĠNews":4932,"mission":4933,"ani":4934,"1980":4935,"ros":4936,"Ġregard":4937,"ĠUK":4938,"ĠWork":4939,"Ġmechan":4940,"Direct":4941,"Ġchall":4942,"Json":4943,"ĠCreate":4944,"Ġthought":4945,"greg":4946,"groupId":4947,"reek":4948,"qquad":4949,"ĠBen":4950,"Ġvers":4951,"Ġword":4952,"Ġargument":4953,"ython":4954,"Port":4955,"Ġ*)":4956,"ECT":4957,"Hash":4958,"Empty":4959,"that":4960,"weight":4961,"Ġdoc":4962,"$(":4963,"}+\\":4964,"orizontal":4965,"oi":4966,"boot":4967,"CA":4968,"oring":4969,"ĠOlymp":4970,"tains":4971,"patch":4972,"ĠArmy":4973,"outhern":4974,"Connection":4975,"debug":4976,"Ġquantum":4977,"hash":4978,"icol":4979,"Ġdig":4980,"ĠRoman":4981,"ĉĉĊ":4982,"Ġprinc":4983,"idget":4984,"Ġlove":4985,"Track":4986,"Ġfav":4987,"tee":4988,"stylesheet":4989,"Stat":4990,"eloc":4991,"}}(":4992,"Le":4993,"uate":4994,"Ġparams":4995,"Ġoverride":4996,"VAL":4997,"Ġarchitect":4998,"Menu":4999,"COLOR":5000,"Ġwriting":5001,"ĠAssociation":5002,"ĠService":5003,"enced":5004,"Ġcluster":5005,"pecially":5006,"={":5007,"Can":5008,"Ġcharacters":5009,"Ġexperience":5010,"None":5011,"ĠTV":5012,"Ġgoal":5013,"Ġincrease":5014,"ĠArch":5015,"ining":5016,"Ġrender":5017,"ĠLemma":5018,"sem":5019,"Ġrelationship":5020,"Ġintroduced":5021,"Params":5022,"Ġtherefore":5023,"ĠNS":5024,"utor":5025,"Ġmemory":5026,"Ġdoesn":5027,"indent":5028,"ado":5029,"Op":5030,"pher":5031,"Ġhandle":5032,"Copy":5033,"Ġupon":5034,"DD":5035,"Ġneeds":5036,"Ġlo":5037,"rian":5038,"Ġwrote":5039,"Option":5040,"Ġcomponents":5041,"ĠHall":5042,"Ġoperations":5043,"ĠOpen":5044,"ashington":5045,"zon":5046,"Ġissue":5047,"pite":5048,"ander":5049,"ACK":5050,"drop":5051,"Ġrule":5052,"Ġflo":5053,"Ġnumbers":5054,"Ġboundary":5055,"gu":5056,"kind":5057,"84":5058,"TS":5059,"Ġtransition":5060,"issions":5061,"51":5062,"scal":5063,"Ġ>=":5064,"Ġempty":5065,"Change":5066,"Ġsignal":5067,"Ġtransfer":5068,"Ġmilitary":5069,"Ġcompared":5070,"ĠDec":5071,"ursor":5072,"edge":5073,"Document":5074,"Ġpresented":5075,"Ġallows":5076,"ĠGeorge":5077,":(":5078,"Properties":5079,"ston":5080,"entity":5081,"Ġcoordin":5082,"hi":5083,"system":5084,"plete":5085,"^+":5086,"Ġpadding":5087,"Ġregister":5088,"Ġrepresentation":5089,"yntax":5090,"gn":5091,"Ġabs":5092,"Dir":5093,"VID":5094,"Ġselection":5095,"ĠAssert":5096,"ĠCourt":5097,"Ġque":5098,"Ġsoftware":5099,"ĠMart":5100,"ius":5101,"Ġcompanies":5102,"Ġmonth":5103,"Ġappoint":5104,"Ġseg":5105,"Ġqual":5106,")-":5107,"Ġtemperature":5108,"ees":5109,"52":5110,"Ġattribute":5111,"Ġhon":5112,"Ġeducation":5113,"ĠRE":5114,"Ġspin":5115,"Mon":5116,"Ġonline":5117,"Ġoptim":5118,"%;":5119,"dat":5120,"82":5121,"Ġbg":5122,"Ġcomplet":5123,"Ġten":5124,"Ġarguments":5125,"Ġfeel":5126,"Async":5127,"ynch":5128,"rupt":5129,"Ġscope":5130,"antic":5131,"ena":5132,"oul":5133,"}^{(":5134,"make":5135,"Ġupper":5136,"ĠSome":5137,"device":5138,"Ġcompleted":5139,"Sk":5140,"irit":5141,"Record":5142,"Ġrock":5143,"Ġscreen":5144,"ĠDepartment":5145,"Ġholds":5146,"&=":5147,"itch":5148,"Ġfire":5149,"'>":5150,"parameter":5151,"bon":5152,"LI":5153,"ĠOb":5154,"Ġissues":5155,"ĠTime":5156,"ĠDE":5157,"1995":5158,"mathsf":5159,"anges":5160,"Ġoutside":5161,"Ġradio":5162,"mes":5163,"Ġproblems":5164,"Ġbasis":5165,"54":5166,"track":5167,"Operation":5168,"ailway":5169,"Project":5170,"ALL":5171,"{{\\":5172,"msg":5173,"Handle":5174,"Ġdomain":5175,"Ġdifficult":5176,"Ġstre":5177,"ao":5178,"clude":5179,"Ġoffic":5180,"That":5181,"Ġnews":5182,"Ġconcern":5183,"Ġintegr":5184,"ervices":5185,"anger":5186,"Ġprimary":5187,"second":5188,"ying":5189,"ederal":5190,"clusion":5191,"alian":5192,"ĠMag":5193,"Post":5194,"Serial":5195,"ĠCap":5196,"Ġnovel":5197,"Ġyield":5198,"FO":5199,"ixt":5200,"Ġstri":5201,"Do":5202,"ĠBook":5203,"PP":5204,"tog":5205,"Ġvariables":5206,"Ġfilename":5207,"STR":5208,"modal":5209,"Ġ&\\":5210,"Font":5211,"}:":5212,"ĠBuild":5213,"---":5214,"Ġnight":5215,"Cal":5216,"Ġface":5217,"Ġax":5218,"olume":5219,"\"));":5220,"ĠBay":5221,"MO":5222,"Ġcast":5223,"hr":5224,"Ġdiscover":5225,"Ġsens":5226,"Ġstudies":5227,"gin":5228,"BO":5229,"ĠUnion":5230,"onstr":5231,"NavBar":5232,"Ġnu":5233,"oom":5234,"Ġpercent":5235,"Ġgas":5236,"Store":5237,"citet":5238,"docs":5239,"ĠThus":5240,"ictionary":5241,"Ġcred":5242,"Net":5243,"widget":5244,"Ġapply":5245,"inding":5246,"Ġxml":5247,"Ġtemplate":5248,"card":5249,"Ġconnect":5250,"Ġlot":5251,"Ġstore":5252,"asic":5253,"Ġgalax":5254,"ĠDirect":5255,"Ġpolitic":5256,"Ġapplied":5257,"uri":5258,"Ġswitch":5259,"Ġsymbol":5260,"Ġsession":5261,"53":5262,"Ġjoined":5263,"Ġtag":5264,"}\\\\":5265,"Ġdifference":5266,"uated":5267,"cat":5268,"}\\,":5269,"ĠTable":5270,"Ġchanged":5271,"ĠAng":5272,"mooth":5273,"PR":5274,"1970":5275,"CR":5276,"ãĤ":5277,"Ġdirector":5278,"rea":5279,"ĠPe":5280,"Ġactually":5281,"ĠRoad":5282,"uit":5283,"Ġopened":5284,"ughter":5285,"ĠGermany":5286,")/":5287,"Ġpassed":5288,"Since":5289,"Mar":5290,"ilton":5291,"amera":5292,"Ġmatter":5293,"vector":5294,"equal":5295,"Ġalthough":5296,"cope":5297,"ĠMor":5298,"ART":5299,"1994":5300,"auth":5301,"Ġoffice":5302,"ĉĠ":5303,"essor":5304,"Ġwhole":5305,"Ġeffective":5306,"ping":5307,"Ġplatform":5308,"ĠCompany":5309,"Ġavoid":5310,"Ġimpact":5311,"Vari":5312,"ĠLou":5313,"():":5314,"Prot":5315,"reater":5316,"Ġvisit":5317,"ancial":5318,"Session":5319,"ws":5320,"inese":5321,"Ġimmedi":5322,"orts":5323,"Expression":5324,"Ġhash":5325,"ounter":5326,"Integer":5327,"alls":5328,"enumer":5329,"ĠMusic":5330,"after":5331,"ugins":5332,"Ġpain":5333,"Ġrelation":5334,"range":5335,"ĠWhile":5336,"ĠTO":5337,"pg":5338,"ifying":5339,"ĠRoyal":5340,"ĠJust":5341,"ano":5342,"osen":5343,"Ġteams":5344,"Ġcomment":5345,"pop":5346,"icker":5347,"Collection":5348,"oundation":5349,"del":5350,"hover":5351,"Ġ['":5352,"jo":5353,"Ġsigned":5354,"Right":5355,"Ġstars":5356,"ĠAustralian":5357,"Ġlikely":5358,"Ġsources":5359,"rier":5360,"Ġsett":5361,"ĠException":5362,"Ġconsum":5363,"site":5364,"TER":5365,"env":5366,"scri":5367,"1000":5368,"Ġwhy":5369,"ernel":5370,"Ġprofessional":5371,"Ġtalk":5372,"ä¸":5373,"scr":5374,"Ġusually":5375,"join":5376,"yr":5377,"Ġvict":5378,"icrosoft":5379,"ĠProv":5380,"language":5381,"ĠBG":5382,"300":5383,"shire":5384,"Ġnodes":5385,"interface":5386,"internal":5387,"72":5388,"dest":5389,"Ġbehavior":5390,"Ġclasses":5391,"'re":5392,"Sign":5393,"Icon":5394,"ĠName":5395,"Ġrev":5396,"cp":5397,"ĠOper":5398,"bedd":5399,"ĠDivision":5400,"EM":5401,"94":5402,"types":5403,"Ġexisting":5404,"Ġtoday":5405,"Ġhimself":5406,"inct":5407,"izations":5408,"1992":5409,"isation":5410,"Ġdesigned":5411,"tex":5412,"bour":5413,"Ġphysical":5414,"Te":5415,"Ġacqu":5416,"Mult":5417,"Ġmarried":5418,"ĠMount":5419,"Ġusers":5420,"linear":5421,"Me":5422,"ĠJack":5423,"ĠWashington":5424,"Ġhit":5425,"Ptr":5426,"Ġmodern":5427,"ĠDay":5428,"copy":5429,"Helper":5430,"gs":5431,"Left":5432,"Ġcouple":5433,"Ġshall":5434,"ĠGreen":5435,"92":5436,")+":5437,"Impl":5438,"ospital":5439,"Ġess":5440,"Ġtransport":5441,"Inst":5442,"Ġcampaign":5443,"Reference":5444,"sv":5445,"Ġassist":5446,"Ġcontinued":5447,"ĠForm":5448,"Api":5449,"estival":5450,"78":5451,"ares":5452,"rey":5453,"omial":5454,"overs":5455,"Ġfriend":5456,"global":5457,"arter":5458,"Br":5459,"Ġinfo":5460,"Ġfollowed":5461,"Ġsil":5462,"Ġlonger":5463,"Rev":5464,"Ġsend":5465,"ĠPat":5466,"CS":5467,"Ġadministr":5468,"ala":5469,"Non":5470,"\\\"":5471,"rees":5472,"Ev":5473,"anning":5474,"68":5475,"rule":5476,"Ġlargest":5477,"ened":5478,"ĠInstitute":5479,"ĠPublic":5480,"ĠRead":5481,"ĠMary":5482,"operatorname":5483,"Ġtour":5484,"illa":5485,"ĠSam":5486,"]$":5487,"icate":5488,"dx":5489,"structor":5490,"Ġbgcolor":5491,"Ġmention":5492,"Ġ('":5493,"Ġorigin":5494,"Ġunits":5495,"delete":5496,"Ġcontact":5497,"mode":5498,"illing":5499,"Down":5500,"ĠDuring":5501,"ĠĠĠĠĠĠĠĠĠĠĠĠĠĠĠĠĠĠĠĠ":5502,"igr":5503,"ĠErr":5504,"Ġsmaller":5505,"za":5506,"Ġsus":5507,"XX":5508,"variant":5509,"step":5510,"iences":5511,"Ġinside":5512,"Ġaltern":5513,"etime":5514,"free":5515,"ĠOR":5516,"Ġreve":5517,"bul":5518,"PECT":5519,"Ġactual":5520,"Order":5521,"graph":5522,"mas":5523,"INE":5524,"Ġdefe":5525,"1993":5526,"Ġespecially":5527,"cover":5528,"vention":5529,"render":5530,"ĠBest":5531,"Ġign":5532,"ĠPress":5533,"sey":5534,"}'":5535,"hspace":5536,"({\\":5537,"Pass":5538,"Ġexpand":5539,"Ġwriter":5540,"vas":5541,"Ġang":5542,"Ġtro":5543,"allel":5544,"Ġscen":5545,"Ġdemonstr":5546,"ĠRobert":5547,"Ġtell":5548,"pring":5549,"arts":5550,"93":5551,"ĠHealth":5552,"address":5553,"atur":5554,"transform":5555,"Template":5556,"agger":5557,"Ġerrors":5558,"SH":5559,"Exp":5560,"access":5561,"component":5562,"Ġsongs":5563,"Ġveloc":5564,"vant":5565,"Ġbehind":5566,"yes":5567,"Ġforward":5568,"Parser":5569,"direct":5570,"Ġinvolved":5571,"Ġlayer":5572,"Ġinvestig":5573,"Ġrace":5574,"Ġvolume":5575,"Note":5576,"ĠMac":5577,"Ġthroughout":5578,"EQ":5579,"91":5580,"Ġitems":5581,"Ġliving":5582,"Ġprove":5583,"Ġsolutions":5584,"|^":5585,"ĠLeg":5586,"================================":5587,"Ġnecessary":5588,"Ġplaying":5589,"Ġdam":5590,"force":5591,"Ġfight":5592,"toString":5593,"req":5594,"neq":5595,"ĠMo":5596,"Rect":5597,"Match":5598,"ening":5599,"Long":5600,"ĠMap":5601,"Decl":5602,"ĠĠĠĠĠĠĠĠĠĠĠĠĠĠĠĠĠĠĠĠĠĠĠĠĠĠĠĠĠĠĠĠĠĠĠĠĠĠĠ":5603,"argument":5604,"NN":5605,"oute":5606,"Ġdenote":5607,"SA":5608,"Ġbecomes":5609,"icons":5610,"Ġnor":5611,"Tim":5612,"Ġbank":5613,"ĠFranc":5614,"Use":5615,"Ġtax":5616,"WE":5617,"PL":5618,"Schema":5619,"Render":5620,"ett":5621,"Ġincreasing":5622,"xspace":5623,"Ġwait":5624,"Ġer":5625,"ĠAcadem":5626,"Encod":5627,"actor":5628,"session":5629,"send":5630,"usion":5631,"asket":5632,"ĠGod":5633,"sets":5634,"term":5635,"Ġtoken":5636,"Ġindustry":5637,"Ġrecorded":5638,"Ġord":5639,"Ġpersonal":5640,"Ġweb":5641,"approx":5642,"FL":5643,"ansion":5644,"ĠPo":5645,"BJ":5646,"'],":5647,"elves":5648,"Ġprogress":5649,"ĠCheck":5650,"ilies":5651,"Que":5652,"footer":5653,"Ġextension":5654,"Title":5655,"Ġprote":5656,"ensus":5657,"ye":5658,"focus":5659,"Ġformed":5660,"Ġotherwise":5661,"Ġcomes":5662,"ERROR":5663,"ici":5664,"ĠST":5665,"ĠTex":5666,"media":5667,"lap":5668,"equals":5669,"det":5670,"ĠMex":5671,"ĠClub":5672,"Ġchurch":5673,"ership":5674,"aine":5675,"ĠSociety":5676,"oder":5677,"}-\\":5678,"endar":5679,"ĠIsland":5680,"Am":5681,"Ġhours":5682,"Ġequations":5683,"Ġsense":5684,"ORD":5685,"Ġfood":5686,"ectors":5687,"road":5688,"}}{\\":5689,"Ġdeep":5690,"fony":5691,"ĠEar":5692,"63":5693,"serve":5694,"custom":5695,"Ġbad":5696,"success":5697,"iments":5698,"ĠYear":5699,"ymfony":5700,"ĠMiss":5701,"airs":5702,"Ġscript":5703,"Ġwife":5704,"Ġbenef":5705,"nov":5706,"real":5707,"ultural":5708,"Ġstarting":5709,"Host":5710,"itable":5711,"icket":5712,"False":5713,"What":5714,"Ġsecurity":5715,"annotation":5716,"Ġarticle":5717,"theorem":5718,"(:":5719,"Parameters":5720,"Ġpartial":5721,"ĠAlex":5722,"Ġmoney":5723,"Ġweak":5724,"ĠMat":5725,"Ġhot":5726,"]\\":5727,"isions":5728,"ĠOther":5729,"ĠBGCOLOR":5730,"disabled":5731,"elegate":5732,"plugin":5733,"Ġmissing":5734,"exception":5735,"ĠMer":5736,"1991":5737,"Iter":5738,"rect":5739,"400":5740,"webkit":5741,"Ġecho":5742,"ĠMichael":5743,"Ð»":5744,"Red":5745,"ĠDemocr":5746,"Dep":5747,"Dom":5748,"well":5749,"foo":5750,"ĠBase":5751,"Ġdirected":5752,"liament":5753,"Ġdebut":5754,"Ġtowards":5755,"export":5756,"Ġelectron":5757,"exports":5758,"ura":5759,"ufact":5760,"ĠEnd":5761,"Di":5762,"Go":5763,"UP":5764,"FT":5765,"km":5766,"estamp":5767,"dim":5768,"orse":5769,"inally":5770,"Ġmother":5771,"Ġmanagement":5772,"Ġreading":5773,"Ġschools":5774,"=\"../../../":5775,"&#":5776,"Vector":5777,"Ġmount":5778,"Ke":5779,"Ġchoice":5780,"=\"/":5781,"62":5782,"Sl":5783,"high":5784,"###":5785,"Ġlevels":5786,"handle":5787,"click":5788,"Names":5789,"Ġpick":5790,"padding":5791,"Ġinvoke":5792,"Ġshape":5793,"Ġpreviously":5794,"_;":5795,"ĠResearch":5796,"idents":5797,"ĠHen":5798,"Ġwalk":5799,"ĠOur":5800,"Ġdecision":5801,"ĠTur":5802,"Ġsimply":5803,"Ġconnected":5804,"ĠWhat":5805,"cur":5806,"Ġthread":5807,"ĠAfrica":5808,"Ġsubsequ":5809,"Ġjoin":5810,"ĠWhite":5811,"Ġrules":5812,"Ġpresident":5813,"reement":5814,"?:":5815,"Ġdescribe":5816,"enumerate":5817,"DIR":5818,"Ġauth":5819,"ĠMad":5820,"ĠTown":5821,"Ġjud":5822,"Ġstaff":5823,"Ġundefined":5824,"Ġsplit":5825,"writ":5826,"Ġquality":5827,"Ġquick":5828,"porary":5829,"Tool":5830,"Ġnamespace":5831,"Invalid":5832,"Now":5833,"ORT":5834,"Ġdimension":5835,"Results":5836,"Ġbooks":5837,"AND":5838,"white":5839,"Ġcache":5840,"Pi":5841,"Ġsex":5842,"MD":5843,"dimensional":5844,"Ġsort":5845,"Ġimm":5846,"Ġcritical":5847,"ĠDel":5848,"Ġcoeff":5849,"Ġjav":5850,"ĠScience":5851,"Ġkm":5852,"Ġadapt":5853,"Ġveh":5854,"Ġconcept":5855,"Ġalt":5856,"witter":5857,"ulate":5858,"PA":5859,"ki":5860,"Ġimplies":5861,"inder":5862,"ĠCre":5863,"ĠCong":5864,"panel":5865,"po":5866,"FC":5867,"ĠHel":5868,"ussian":5869,">();":5870,"crete":5871,"ĠAL":5872,"Ġpolice":5873,"enum":5874,"ĠPost":5875,"vm":5876,"ĠMem":5877,"umni":5878,"ĠRun":5879,"GET":5880,"So":5881,"itemize":5882,"erve":5883,"Ġfra":5884,"fields":5885,"Ġboard":5886,"Ġidea":5887,"sort":5888,"Argument":5889,"Ġcontainer":5890,"rial":5891,"ĠEv":5892,"bot":5893,"Ġsettings":5894,"Ġgave":5895,"Ġexplicit":5896,"Ġexhib":5897,"Ġeight":5898,"Ġensure":5899,"ighest":5900,"bootstrap":5901,"ether":5902,"ĠĠĠĊ":5903,"pret":5904,"Ġcountries":5905,"ĠAfrican":5906,"Ġprofile":5907,"Ġcause":5908,"settings":5909,"Ġshare":5910,"opl":5911,"ometimes":5912,"Parent":5913,"Ġdistributed":5914,"Draw":5915,"Ġdelete":5916,"61":5917,"Ġfinally":5918,"ĠTom":5919,"ĠĠĠĠĠĠĊ":5920,"ĠKe":5921,"Ġparse":5922,"attribute":5923,"ĠTechn":5924,"Ġ-\\":5925,"Definition":5926,"Debug":5927,"Ġappeared":5928,"ĠGames":5929,"Core":5930,"ĠSal":5931,"Su":5932,"ĠVer":5933,"Ġnom":5934,"ĠAccording":5935,"ducation":5936,"ĠAut":5937,"ĠSl":5938,"gan":5939,"Ġextra":5940,"Ġ})":5941,"Ġlimited":5942,"Ġproducts":5943,"ĠDate":5944,"ĠChe":5945,"Application":5946,"irl":5947,"'$":5948,"fn":5949,"Ġcontaining":5950,"Ġcore":5951,"Classes":5952,"Values":5953,"Ġreplaced":5954,"uting":5955,"Ġdecre":5956,"Then":5957,"Se":5958,"Ġequivalent":5959,"ĠNow":5960,"acement":5961,"ĠCanadian":5962,"ingu":5963,"help":5964,"Ġnet":5965,"ĠCath":5966,"iece":5967,"edy":5968,"Ver":5969,"ĠEXPECT":5970,"clos":5971,"ĠGold":5972,"norm":5973,"ĠJer":5974,"Ġsurv":5975,"had":5976,"fect":5977,"dependency":5978,"SL":5979,"ĠTherefore":5980,"mercial":5981,"ette":5982,"ĠThomas":5983,"aver":5984,"atalog":5985,"GB":5986,"81":5987,"ested":5988,"Ġemer":5989,"ĠCentral":5990,"Ġlock":5991,"resents":5992,"RI":5993,"ĠCON":5994,"Ġdatabase":5995,"car":5996,"Ġscore":5997,"Ġinj":5998,"SET":5999,"255":6000,"ĠKingdom":6001,"Ġplot":6002,"Ġremains":6003,"GE":6004,"Ġpeak":6005,"ĠOver":6006,"Ġcontinuous":6007,"Num":6008,"Ġconstit":6009,"ictor":6010,"79":6011,"Ġevidence":6012,"83":6013,"related":6014,"1960":6015,"Ġraise":6016,"Ġratio":6017,"Ġtransaction":6018,"ailed":6019,"ĠScott":6020,"74":6021,"ky":6022,"rael":6023,"fit":6024,"ĠFe":6025,"pers":6026,"Ġestimate":6027,"ved":6028,"Ġdark":6029,"ĠGl":6030,"Ġhous":6031,">.":6032,")}{":6033,"Lo":6034,"Pop":6035,"Ġansw":6036,"`.":6037,"azine":6038,"ynchron":6039,"1988":6040,"Reader":6041,"elt":6042,"ĠField":6043,"mitted":6044,"Ġplaces":6045,"alled":6046,"Ġdetermined":6047,"OK":6048,"ously":6049,"Ġrestrict":6050,"Ġpackage":6051,"Tests":6052,"Ġstatement":6053,"full":6054,"Ġregions":6055,"Ġbirth":6056,"Ġstructures":6057,"ORM":6058,"$}":6059,"condition":6060,"Ġabsol":6061,"Ġproced":6062,"Ġresources":6063,"ancy":6064,"Ġste":6065,"Ġball":6066,"ĠSing":6067,"ita":6068,"Ġmus":6069,"Ġtests":6070,"ĠHere":6071,"Ġtechnology":6072,"Ġcop":6073,"71":6074,"Device":6075,"loc":6076,"ĠGrand":6077,"69":6078,"Ġproper":6079,"Ġcourt":6080,"UB":6081,"Ġetc":6082,"Ðº":6083,"gence":6084,"ĠMuseum":6085,"Ġfinished":6086,"(*":6087,"Ġeditor":6088,"lood":6089,"Ġevolution":6090,"pri":6091,"agnost":6092,"Ġsaw":6093,"Ġrisk":6094,"ĠJSON":6095,"Metadata":6096,"Ġbring":6097,"1989":6098,"Ġcounter":6099,"Ġded":6100,"oma":6101,"iders":6102,"ĠMath":6103,"Mark":6104,"Ġforces":6105,"Ġpractice":6106,"aved":6107,"ĠChinese":6108,"ĠIS":6109,"ĠTor":6110,"ĠArg":6111,"ĠWil":6112,"ĠModel":6113,"spect":6114,"El":6115,"Ġmanager":6116,"Ġaud":6117,"PH":6118,"Ġalgebra":6119,"ĠJew":6120,"Ġheader":6121,"aled":6122,"Ġunsigned":6123,"Ġslow":6124,"My":6125,")}$":6126,"ĠTrue":6127,"Policy":6128,"Enabled":6129,"Ġnegative":6130,"Ġbelong":6131,"Ġresulting":6132,";\"":6133,"Has":6134,"vspace":6135,"ĠTexas":6136,"Ġ\\|":6137,"ĠJapanese":6138,"73":6139,"Ġfrequency":6140,"rong":6141,"ĠDan":6142,"Ġstudied":6143,"aws":6144,"ertific":6145,"Stack":6146,"-->":6147,"Ġtravel":6148,"----------------------------------------------------------------":6149,"Ġrepe":6150,"Ġsoon":6151,"ĠSuper":6152,"Ġmut":6153,"Ġpanel":6154,"Ġcategory":6155,"noindent":6156,"Ġspectrum":6157,"ĠRob":6158,"rot":6159,"hing":6160,"ĠChristian":6161,"Ġmagnetic":6162,"Ġfun":6163,"atically":6164,"olar":6165,"Ġearlier":6166,"allow":6167,"boolean":6168,"Ġroom":6169,"framework":6170,"Ġinline":6171,"Ġcharg":6172,"reshold":6173,"ounds":6174,"ĠLong":6175,"Ġship":6176,"ĠRussian":6177,"shot":6178,"virtual":6179,"eek":6180,"ĠMont":6181,"ĠWestern":6182,"Args":6183,"Ġgrowth":6184,"cloud":6185,"Ġrecon":6186,"Ġrequires":6187,"PT":6188,"Ġunc":6189,"~~~~":6190,"Ġfeed":6191,"ecause":6192,"Ġtrain":6193,"category":6194,"Ġinteger":6195,"callback":6196,"Ã§":6197,"iller":6198,"}\"":6199,"Ġneut":6200,"Ġforms":6201,"Ġimplementation":6202,"blockList":6203,"Ġcharge":6204,"ĠAssembly":6205,"Ġdro":6206,"Ġrecover":6207,"MN":6208,"Ġstrict":6209,"ĠGoogle":6210,"ĠPre":6211,"ATH":6212,"ĠFore":6213,"hs":6214,"Ġche":6215,"aily":6216,"Ġbyte":6217,"Ġremain":6218,"ĠInc":6219,"ĠRecords":6220,"rome":6221,"ĠFlor":6222,"Ġinvolv":6223,"ifest":6224,"Ġsports":6225,"Ġdidn":6226,"ĠGreat":6227,"Ġbottom":6228,"Ac":6229,"Ġdim":6230,"\\,\\":6231,"ĠCarol":6232,"iny":6233,"Ġlibrary":6234,"Bytes":6235,"recated":6236,"Ġgenerate":6237,"Writer":6238,"king":6239,"Ġruns":6240,"Ġillustr":6241,"Ġrelig":6242,"Ġcard":6243,"Ġroute":6244,"emic":6245,"Ġstreng":6246,"enge":6247,"legal":6248,"replace":6249,"romise":6250,"Ġjournal":6251,"alysis":6252,"xx":6253,"sect":6254,"asketball":6255,"ĠSur":6256,"Doc":6257,"inet":6258,"oration":6259,"elebr":6260,"esh":6261,"Ġnorm":6262,"DL":6263,"ĠOf":6264,"Ġepisode":6265,"Ġ++":6266,"Ġvelocity":6267,"ĠMus":6268,"oded":6269,"umin":6270,"bi":6271,"structure":6272,"Ġseven":6273,"material":6274,"ydro":6275,"ĠSmith":6276,"Ġrepresented":6277,"atre":6278,"ĠLO":6279,"ircraft":6280,"azz":6281,"Ġfast":6282,"Ġtold":6283,"toggle":6284,"ĠHistory":6285,"onds":6286,"byte":6287,"ĠZeal":6288,"stat":6289,"Ġinstit":6290,"afety":6291,"Ġbeginning":6292,"Ġanim":6293,"faces":6294,"Assert":6295,"ĠHistor":6296,"Ġstack":6297,"Ġfounded":6298,"Byte":6299,"Ġgenerally":6300,"ĠAcademy":6301,"'.":6302,"ĠĠĠĠĠĠĠĠĠĠĠĠĠĠĠĠĠĠ":6303,"Ġmiddle":6304,"Ġactivity":6305,"Ġlisted":6306,"Ġremoved":6307,"Boolean":6308,"ĠRequ":6309,";<":6310,"Ġbytes":6311,"evelopment":6312,"Ġos":6313,"ĠFin":6314,"ĠMinister":6315,"\\}$":6316,"Each":6317,"Body":6318,"Ġfully":6319,"Wrap":6320,"anned":6321,"Ġbutton":6322,"reme":6323,"`,":6324,"Click":6325,"TED":6326,"mathscr":6327,"She":6328,"email":6329,"Rule":6330,"ĠFrancis":6331,"Ġelected":6332,"ĠProject":6333,"ĠVirgin":6334,"atin":6335,"admin":6336,"uan":6337,"Delete":6338,"ollowing":6339,"fil":6340,"Ġthing":6341,"ĠZealand":6342,"URE":6343,"Ġchain":6344,"Ġdestroy":6345,"Ġextended":6346,"reland":6347,"definition":6348,"Ġalbums":6349,"lines":6350,"olf":6351,"SION":6352,"coq":6353,"ignment":6354,"Ġvan":6355,"ympt":6356,"Ġminimum":6357,"Ġ${":6358,"}}_":6359,"holder":6360,"uler":6361,"ĠValue":6362,"More":6363,"register":6364,"tf":6365,"ynomial":6366,"Database":6367,"Ġlack":6368,"kr":6369,"ror":6370,"Ġknowledge":6371,"Ġappears":6372,"Ġmatches":6373,"=(":6374,"Ġfigure":6375,"Ġopport":6376,"shift":6377,"áĥ":6378,"Ġreached":6379,"thlet":6380,"ĠLouis":6381,"liance":6382,"ĠItalian":6383,"Ġteach":6384,"ĠFrank":6385,"Ġleague":6386,"bitr":6387,"ipeline":6388,"EXT":6389,"Ġdaughter":6390,"Meta":6391,"160":6392,"Var":6393,"Ġeigen":6394,"Ġuniform":6395,"war":6396,"double":6397,"Ġjson":6398,"ATA":6399,"Ġeasy":6400,"ĠRel":6401,"margin":6402,"ĠGa":6403,"ression":6404,"anguage":6405,"ixel":6406,"uple":6407,"ental":6408,"annels":6409,"ifies":6410,"Ġnature":6411,"Ġhighest":6412,"FAULT":6413,"Ġâ":6414,"Ġsen":6415,"Ġdetermine":6416,"BS":6417,"Ġ_{":6418,"ih":6419,"cz":6420,"olk":6421,"itz":6422,"Ġmeaning":6423,"Ġadopt":6424,"lam":6425,"Show":6426,"eries":6427,"application":6428,"Ġgrant":6429,"Xml":6430,"Ġincreased":6431,"Ġstated":6432,"Ġoverall":6433,"Ġblue":6434,"iring":6435,"SSERT":6436,"results":6437,"Ġrecomm":6438,"Mock":6439,"1987":6440,"Ġkilled":6441,"Ġdirectory":6442,"connect":6443,"ja":6444,"Ġnoise":6445,"}}}":6446,"black":6447,"Ġminutes":6448,"'))":6449,"Ġcapital":6450,"ĠCommit":6451,"Main":6452,"ĠCharles":6453,"Ġuseful":6454,"otic":6455,"Storage":6456,"Sum":6457,"Ġpresence":6458,"Ġprevent":6459,"Ġaim":6460,"election":6461,"ĠOrder":6462,"\")]":6463,"Ġappointed":6464,"apped":6465,"Ġradi":6466,"*)":6467,"Ġrecently":6468,"Package":6469,"lev":6470,"Ġmaintain":6471,"Ġdoing":6472,"iday":6473,"Ġpred":6474,"__(":6475,"Ġbasic":6476,"Ġmetric":6477,"Ġprep":6478,"icated":6479,"ashed":6480,"ĠMethod":6481,"CTION":6482,"ĠBig":6483,"ĠKore":6484,"Dialog":6485,"Ġincor":6486,"/>":6487,"Ġplant":6488,"AME":6489,"Ġscient":6490,"Ġreduced":6491,"Ġreflect":6492,"texttt":6493,"ĠHTML":6494,"Ġ{};":6495,"Ġreserv":6496,"Ġclean":6497,"Ġfemale":6498,"Ġscheme":6499,"minus":6500,"DA":6501,"HTML":6502,"Cre":6503,"Ġtreatment":6504,"ĠJose":6505,"ĠSecond":6506,"abilities":6507,"ech":6508,"Ġcivil":6509,"ĠAlso":6510,"Ġ<=":6511,"Ġremaining":6512,"comment":6513,"plugins":6514,"Ġtit":6515,"prove":6516,"ko":6517,"ĠCOVID":6518,"Ġterr":6519,"ournament":6520,"iverse":6521,"ĠInst":6522,"heast":6523,"Ġpurch":6524,"Ġsufficient":6525,"sample":6526,"Ġhyp":6527,"Transaction":6528,"Ġwide":6529,"Ġsamples":6530,"EC":6531,"pped":6532,"Account":6533,"Ġwatch":6534,"urren":6535,"rip":6536,"Ġidentity":6537,"ĠError":6538,"inline":6539,"ami":6540,"ĠRock":6541,"sur":6542,"ĠPeter":6543,"while":6544,"Ġframework":6545,"Ġpatients":6546,"ĠRegister":6547,"ĠAnn":6548,"Ġlatter":6549,"allery":6550,"Changed":6551,"Ġguitar":6552,"inger":6553,"protobuf":6554,"sche":6555,"Extension":6556,"ĠUse":6557,"Ġsmooth":6558,"duction":6559,"fort":6560,"trm":6561,"store":6562,"Ġflag":6563,"Ġapplications":6564,"ato":6565,"\\'":6566,"Ġcoach":6567,"DI":6568,"BR":6569,"Ġbur":6570,"grid":6571,"Ġ(-":6572,"icago":6573,"Ġclassical":6574,"ĠFootball":6575,"Ġderived":6576,"1986":6577,"Ġeventually":6578,"phere":6579,"Ġrepresents":6580,"urt":6581,"Ġfamilies":6582,"region":6583,"Ġreceive":6584,"istan":6585,"1984":6586,"ynamic":6587,"Ġstay":6588,"insert":6589,"Ġplaced":6590,"auto":6591,"Ġtheorem":6592,"Ġwave":6593,"ĠIO":6594,"mock":6595,"ategories":6596,"Custom":6597,"Ø§":6598,"vest":6599,"sql":6600,"Sw":6601,"eler":6602,"mselves":6603,"radius":6604,"ĠUser":6605,"Ġmsg":6606,"deg":6607,"ĠMel":6608,"textrm":6609,"Ġquite":6610,"Ġprobably":6611,"ucket":6612,"underline":6613,"Ġculture":6614,"forms":6615,"product":6616,"eve":6617,"coin":6618,"~$":6619,"Ġbal":6620,"bes":6621,"ĠProgram":6622,"cpp":6623,"ĠRichard":6624,"pool":6625,"Job":6626,"Ġchoose":6627,"Ġfinancial":6628,"Ã³n":6629,"Ġshared":6630,"Ġoccup":6631,"ĠMax":6632,"Ġappropri":6633,"iger":6634,"Fil":6635,"ĠassertEquals":6636,"Root":6637,"oub":6638,"Ġoperators":6639,"Ġ),":6640,"modules":6641,"Ġgold":6642,"keys":6643,"initial":6644,"plements":6645,"short":6646,"Ġdise":6647,"Display":6648,"dule":6649,"ĠCommission":6650,"{$":6651,"Ġ'/":6652,"Ġartists":6653,"<\\":6654,"Ġmind":6655,"1985":6656,"Ġinteraction":6657,"tical":6658,"Ġnothing":6659,"auge":6660,"Ġlooking":6661,"atial":6662,"Ġthemselves":6663,"Tab":6664,"Obj":6665,"ĠFoundation":6666,"ĠTHE":6667,"^-":6668,"NE":6669,"AGE":6670,"peed":6671,"isl":6672,"items":6673,"Active":6674,"ĠEvent":6675,"Ġlegal":6676,"none":6677,"subseteq":6678,"ternet":6679,"ĠMr":6680,"Initial":6681,"ĠSummer":6682,"Fields":6683,"udd":6684,"ĠBill":6685,"anta":6686,"vc":6687,"points":6688,"LP":6689,"ACE":6690,"ĠMass":6691,"Ġchosen":6692,"Art":6693,"ĠLos":6694,"Ġwrap":6695,"asure":6696,"cmd":6697,"ĠTim":6698,"ĠLife":6699,"ĠHill":6700,"thread":6701,"WS":6702,"TC":6703,"tip":6704,"olec":6705,"ji":6706,"Ġwoman":6707,"cut":6708,"PRE":6709,"isms":6710,"=-":6711,"Ġrap":6712,"Ġneighbor":6713,"yg":6714,"Ġrad":6715,"ĠAv":6716,"igan":6717,"ĠTwo":6718,"plex":6719,"Ġprem":6720,"Ġproduce":6721,"Ġbranch":6722,"herit":6723,"contin":6724,"elli":6725,"alo":6726,"Ġstations":6727,"Ġoriginally":6728,"istance":6729,"TEST":6730,"Ġheart":6731,"very":6732,"avity":6733,"ipe":6734,"=#":6735,"Ġutil":6736,"Ñĥ":6737,"uty":6738,"ĉĉĉĊ":6739,"Ġhel":6740,"Ġpen":6741,"Ġbuildings":6742,"KEY":6743,"ITY":6744,"ibly":6745,"multicol":6746,"OM":6747,"Ġapi":6748,"256":6749,"Ġnative":6750,"aud":6751,"Ġtransp":6752,"Ġattr":6753,"prod":6754,"ĠLake":6755,"ĠParis":6756,"Ġartist":6757,"Ġunknown":6758,"}},":6759,"ĠCamp":6760,"ĠShow":6761,"ĠLine":6762,"Ġgreater":6763,"ĠSeries":6764,"ridge":6765,"ady":6766,"irmed":6767,"leep":6768,"LS":6769,"Ġscience":6770,"kin":6771,")))":6772,"Ġmicro":6773,"Ġexternal":6774,"password":6775,"Ġeasily":6776,"ĠTem":6777,"ella":6778,"ixture":6779,"Ġvertex":6780,"ango":6781,"MC":6782,"cf":6783,"Ġones":6784,"Ġactions":6785,"ali":6786,"Ġattention":6787,"Ġapproximately":6788,"Descriptor":6789,"ĠCatholic":6790,"Ġ$.":6791,"ĠKey":6792,"cb":6793,"Ġequip":6794,"Ljava":6795,"Ġorganization":6796,"Ġmovement":6797,"Ġconsists":6798,"Ġexamples":6799,"ĠĠĠĠĠĠĠĠĠĠĠĠĠĠĠĠĠĠĠĠĠĠĠĠĠ":6800,"ĠÎ":6801,"ima":6802,"install":6803,"Ġrecords":6804,"arant":6805,"Ġsave":6806,"ĠDen":6807,"Ġcoming":6808,"osh":6809,"Ret":6810,"ifications":6811,"Ã¨":6812,"Ġseems":6813,"Ġdecided":6814,"multicolumn":6815,"Queue":6816,"Ġpressure":6817,"Other":6818,"}^{-":6819,"ĠProf":6820,"shape":6821,"ora":6822,"Ġmanufact":6823,"Person":6824,"contrib":6825,"TV":6826,"Ġanti":6827,"END":6828,"Ġmaps":6829,"Ident":6830,"ĠGovernment":6831,"Ġfootballers":6832,"Ġparticularly":6833,"Ġhyper":6834,"ĠIsrael":6835,"Ġdataset":6836,"Ġimmediately":6837,":\\":6838,"Ġderiv":6839,"Il":6840,"house":6841,"Ġtraditional":6842,"Ġembedd":6843,"IX":6844,"ĠPri":6845,"Ġcells":6846,"Security":6847,"Ġpul":6848,"Ġbrought":6849,"Theta":6850,"orter":6851,"Ġinfin":6852,"ĠFlorida":6853,"miss":6854,"Ġspent":6855,"Ġreach":6856,"ĠGeorg":6857,"ĠForce":6858,"Perm":6859,"ĠAust":6860,"ĠStar":6861,"Ġvs":6862,"Ġflat":6863,"rev":6864,"ĠHamilton":6865,"Ġloop":6866,"ĠCD":6867,"Ġdu":6868,"Ġleave":6869,"ĠBank":6870,"Ġcaused":6871,"ĠTop":6872,"Ġstrategy":6873,"Any":6874,"aser":6875,"anner":6876,"=\"@":6877,"organ":6878,"Ġmotion":6879,"iques":6880,"Ġalumni":6881,"Scope":6882,"Ġinterview":6883,"ivial":6884,"Ġserial":6885,"Ġleader":6886,"Ġvariety":6887,"pute":6888,"Ġextract":6889,"Ġchem":6890,"ĠIll":6891,"utch":6892,"Widget":6893,"Ġfix":6894,"Ġmix":6895,"oplus":6896,"edit":6897,"ĠVictor":6898,"Ġinstr":6899,"bal":6900,"Ġslight":6901,"Ġsecret":6902,"inem":6903,"numer":6904,"olver":6905,"Ġtesting":6906,"printf":6907,"ĠStep":6908,"Ġfourth":6909,"addr":6910,"rad":6911,"Lock":6912,"oting":6913,"ĠPan":6914,"Ġcalls":6915,"Ġbroadcast":6916,"hentication":6917,"ĠURL":6918,"Ġ$\\{":6919,"Ġhtml":6920,"ĠTrump":6921,"inf":6922,"$_":6923,"ĠWomen":6924,"Ġconsole":6925,"stats":6926,"ĠIreland":6927,"Ġbrother":6928,"Ġinsp":6929,"Ne":6930,"Ġgetting":6931,"Ġpor":6932,"Ġhence":6933,"Ġmedical":6934,"razil":6935,"Ġcompact":6936,"Ġmis":6937,"scroll":6938,"ĠUnder":6939,"zero":6940,"ĠDu":6941,"ĠVol":6942,"Ġpark":6943,"Struct":6944,"ĠFilm":6945,"Ġchalleng":6946,"pay":6947,"Only":6948,"ĠIts":6949,"notation":6950,"Ġasked":6951,"ĠNOT":6952,"hol":6953,"Ġminor":6954,"Ġsometimes":6955,"defined":6956,"Ġago":6957,"Ġtrade":6958,"spring":6959,"lers":6960,"Members":6961,"Send":6962,"arian":6963,"Ġestimated":6964,"ĠNetwork":6965,"Ġ\"/":6966,"Ġarbitr":6967,"ĠLand":6968,"Ġmunic":6969,"osing":6970,"scription":6971,"Timeout":6972,"dates":6973,"Ġbul":6974,"Ġinner":6975,"ĠSpanish":6976,"Ġcurve":6977,"Att":6978,"enter":6979,"Channel":6980,"Symfony":6981,"idential":6982,"1983":6983,"Ġconsequ":6984,"amm":6985,"Ġjavax":6986,"Ġcompute":6987,"Ġelectric":6988,"stop":6989,"Network":6990,"Ġcomparison":6991,"Ġstorage":6992,"ĠView":6993,"enses":6994,"Ġseparate":6995,"GS":6996,"impl":6997,"Here":6998,"Ġinteresting":6999,"Ġhum":7000,"ects":7001,"1950":7002,"ĠOlympics":7003,"ĠSun":7004,"ĠFre":7005,"ĠHand":7006,"cons":7007,"JSON":7008,"ĠCast":7009,"ookie":7010,"ĠArts":7011,"ĠKn":7012,"matrix":7013,"Ġdead":7014,"Ġwallet":7015,"ĠMost":7016,"orner":7017,"FILE":7018,"Ġleads":7019,"wa":7020,"bing":7021,"Init":7022,"Ġessential":7023,"Ġobservations":7024,"anda":7025,"ancel":7026,"joy":7027,"angular":7028,"Cor":7029,"Internal":7030,"Ġpolynomial":7031,"Ġfoot":7032,"ems":7033,"geles":7034,"Ġability":7035,"Ġstudent":7036,"Ġagent":7037,"Ġhighly":7038,"CI":7039,"Ġradius":7040,"limits":7041,"super":7042,"onym":7043,"[:":7044,"Ġcommercial":7045,"ĠCons":7046,"Ġprograms":7047,"Ġcompetition":7048,"seud":7049,"record":7050,"\">&":7051,"ĠPlay":7052,"isher":7053,"Ġmur":7054,"Ġsteps":7055,"Before":7056,"Ġsch":7057,"Ġprocesses":7058,"nel":7059,")).":7060,"room":7061,"Ġhidden":7062,"coming":7063,"Year":7064,"names":7065,"Ġcompletely":7066,"Ġspaces":7067,"ishes":7068,"ĠCommittee":7069,"Our":7070,"Ġexpansion":7071,"Ġweeks":7072,"Ġdepends":7073,"Ġactivities":7074,"oves":7075,"Ġnoted":7076,"ĠAlthough":7077,"1982":7078,"Ġaircraft":7079,"Ġicon":7080,"ishop":7081,"Ġexactly":7082,"Ġsituation":7083,";/":7084,"footnote":7085,"Const":7086,"Section":7087,"Ġbounded":7088,"Ġng":7089,"unsigned":7090,"Ġcit":7091,"ny":7092,"people":7093,"Ġentity":7094,"Ġvoc":7095,"Ġcelebr":7096,"Cle":7097,"abit":7098,"family":7099,"Ġcritic":7100,"unched":7101,"kg":7102,"tion":7103,"Ġways":7104,"inv":7105,"ĠNO":7106,"Step":7107,"Pool":7108,"uby":7109,"Car":7110,"Ġcollege":7111,"napshot":7112,"Ġvisual":7113,"connection":7114,"^{-\\":7115,"asy":7116,"aming":7117,"Ġgun":7118,"ĠAngeles":7119,"account":7120,"Ġagreement":7121,"ĠEngine":7122,"Ġwanted":7123,"ĠCongress":7124,"hom":7125,"Ġthreat":7126,"Ġreli":7127,"ĠCall":7128,"ĠReview":7129,".*":7130,"Ġstra":7131,"}}_{":7132,"Ġplane":7133,"ĠSil":7134,"\",\"":7135,"ropy":7136,"omorphism":7137,"igration":7138,"Ġoccur":7139,"Ġmaster":7140,"uing":7141,"Ġbelieve":7142,"events":7143,"Ġmock":7144,"Ġinstanceof":7145,"Ġut":7146,"Ġmachine":7147,"Ġgreen":7148,"ĠPenn":7149,"aration":7150,"ĠId":7151,"Support":7152,"Ġ(*":7153,"ĠAtl":7154,"Ġpri":7155,"Ġdiscussed":7156,"NG":7157,"Ġresolution":7158,"ĠYour":7159,"Ġexam":7160,"Ġcomputer":7161,"Ġgrand":7162,"ĠVAL":7163,"Ġkeys":7164,"Edit":7165,"(){":7166,"But":7167,"ellar":7168,"Ġsquare":7169,"profile":7170,"setminus":7171,"Ġparticle":7172,"Ġemail":7173,"ĠDet":7174,"======":7175,"ĠGen":7176,"1979":7177,"Ġidentified":7178,"ĠDefault":7179,"Ġsn":7180,"(!":7181,"Ġflux":7182,"ĠText":7183,"Ġcollabor":7184,"Ġharm":7185,"rine":7186,"Ð°Ð":7187,"Ġdb":7188,"ĠBoard":7189,"Ġmagn":7190,"rb":7191,"Ġ$|":7192,"icks":7193,"ĠLi":7194,"Events":7195,"va":7196,"master":7197,"Ġgets":7198,"oral":7199,"Ġopening":7200,"Ġprojects":7201,"ads":7202,"fly":7203,"Ġsurround":7204,"SR":7205,"TEX":7206,"=\"\">":7207,"ĠChicago":7208,"Ġfeatured":7209,"_+":7210,"Ġattributes":7211,"ĠCopy":7212,"Float":7213,"ilarly":7214,"ean":7215,"shall":7216,"ĠTimes":7217,"lg":7218,"ployment":7219,"Ġprotocol":7220,"uages":7221,"_,":7222,"istrib":7223,"eck":7224,"Ġmixed":7225,"Ġfactors":7226,"andra":7227,"Ġreduce":7228,"dropdown":7229,"Member":7230,"Ġabsolute":7231,"Media":7232,"assets":7233,"Activity":7234,"Ġdistinct":7235,"UID":7236,"Ġnearly":7237,"Ġremained":7238,"ewidth":7239,"important":7240,"jquery":7241,"Grid":7242,"nections":7243,"attice":7244,"pa":7245,"isters":7246,"Ġshot":7247,"lyph":7248,"screen":7249,"EO":7250,"Ġimprove":7251,"Msg":7252,"Ġgeneration":7253,"ĠPet":7254,"Ġunion":7255,"Ġconserv":7256,"Ġgoes":7257,"Ġformation":7258,"Äģ":7259,"Logger":7260,"Ġprice":7261,"Ġplays":7262,"!!":7263,"security":7264,"Ġmask":7265,"Flags":7266,"NotNull":7267,"ilation":7268,"controller":7269,"ĠEducation":7270,"Ġbinary":7271,"Ġcapacity":7272,"Loc":7273,"Ġformula":7274,"ĠVirginia":7275,"1981":7276,"Ġprim":7277,"adr":7278,"assertEquals":7279,"ADD":7280,"Ġcos":7281,"ĠIP":7282,"typed":7283,"Ġul":7284,"Ġwor":7285,"etailed":7286,"Ġ($\\":7287,"throws":7288,"ARY":7289,"ĠWindow":7290,"Ġtouch":7291,"]:":7292,"ĠHenry":7293,"Ġsegment":7294,"ĠSocial":7295,"ĠĠĠĠĠĠĠĠĠĠĠĠĠĠĠĠĠĠĠĠĠĠĠĠ":7296,"','":7297,"Ġdeliver":7298,"Items":7299,"\"`":7300,"150":7301,"move":7302,"La":7303,"properties":7304,"\\}":7305,"Ġcandidate":7306,"erc":7307,"Ġconcent":7308,"tsd":7309,"Ġspread":7310,"Ġscatter":7311,"ĠFurther":7312,"ien":7313,")),":7314,"Rest":7315,"Auth":7316,"kw":7317,"ĠEqu":7318,"Ġbey":7319,"Ġearn":7320,"agraph":7321,"Ġscene":7322,"IB":7323,"ĠFestival":7324,"DS":7325,"Ġdisk":7326,"ockey":7327,"Ġanything":7328,"Ġalloc":7329,"Ġcontrast":7330,"Ġmedal":7331,"ova":7332,"urred":7333,"Ġrates":7334,"ola":7335,"ĠColor":7336,"PAR":7337,"atible":7338,"Ġexc":7339,"Ġeconomic":7340,"ĠVis":7341,"Ġdiagram":7342,"Ġmentioned":7343,"Av":7344,"Play":7345,"istent":7346,"ĠMedia":7347,"MAX":7348,"equality":7349,"ĠFalse":7350,"VERSION":7351,"tabs":7352,"Ġpert":7353,"uter":7354,"ĠItaly":7355,"Ġnetworks":7356,"Ġwid":7357,"typeof":7358,"mazon":7359,"ĠOld":7360,"Bit":7361,"Ġbtn":7362,"andard":7363,"reedom":7364,"120":7365,"Conf":7366,"Ġtensor":7367,"ometric":7368,"Ġbrief":7369,"Ġfriends":7370,"ĠOh":7371,"dem":7372,"ById":7373,"Ġmoving":7374,"hesis":7375,"Ġbeyond":7376,"Ġowner":7377,"arc":7378,"Ġlif":7379,"Ġmeasured":7380,"erg":7381,"Proxy":7382,"posite":7383,"ski":7384,"Ġrelevant":7385,"oviet":7386,"TABLE":7387,"rich":7388,"ĠMexico":7389,"ĠSwed":7390,"SIZE":7391,"domain":7392,"primary":7393,"unct":7394,"ums":7395,"ĠMa":7396,"çļ":7397,"rate":7398,"Ġstraight":7399,"dagger":7400,"'\\":7401,"aligned":7402,"Ġmeeting":7403,"Symbol":7404,")|":7405,"uations":7406,"()));":7407,"Ġtransl":7408,"Prop":7409,"'m":7410,")));":7411,"=>":7412,"txt":7413,"Ġactor":7414,"Ġdir":7415,"ĠAN":7416,"Ġpurpose":7417,"MENT":7418,"Ġdynamics":7419,"Ġheavy":7420,"flags":7421,"ĠĠĠĠĠĠĠĠĠĠĠĠĠĠĠĠĠĠĠĠĠĠ":7422,"MB":7423,"Ġtrying":7424,"ĠMur":7425,"ĠEach":7426,"selected":7427,"blue":7428,"yan":7429,"ĠAtt":7430,"Ġawarded":7431,"Ġblocks":7432,"Ġpriv":7433,".__":7434,"Ġhandler":7435,":#":7436,"Ġliterature":7437,"Ġfailure":7438,"çļĦ":7439,"Ġquestions":7440,"each":7441,"Ġmovie":7442,"Ġparticles":7443,"Ġ%}":7444,"apers":7445,"area":7446,"bad":7447,"Background":7448,"ĠRussia":7449,"acket":7450,"MOD":7451,"riteria":7452,"Attributes":7453,"Ä±":7454,"save":7455,"John":7456,"Ġmajority":7457,"ellig":7458,"pons":7459,"called":7460,"venue":7461,"Ġ\\;":7462,"Ġparents":7463,"uge":7464,"hadoop":7465,"@\"":7466,"Found":7467,"Ġdetail":7468,"Del":7469,"Ġsummer":7470,"hav":7471,"queue":7472,"ĠOffice":7473,"jpg":7474,"ĠHot":7475,"ï¼":7476,"Ġlives":7477,"ertificate":7478,"Ġjoint":7479,"ĠVersion":7480,"sych":7481,"1972":7482,"Ġconstructed":7483,"ĠScot":7484,"Ġprefer":7485,"riend":7486,"()).":7487,"limit":7488,"Ġfif":7489,"bigg":7490,"ĠSecret":7491,"eds":7492,"Ġcompare":7493,"Ġcontribution":7494,"ifically":7495,"Ġsupp":7496,"Ġvertical":7497,"ĠOp":7498,"_->":7499,"ĠBusiness":7500,"################":7501,"aret":7502,"iro":7503,"ĠMil":7504,"bu":7505,"Ġupdated":7506,"ĠTeam":7507,"1978":7508,"ĠBur":7509,"poses":7510,"inations":7511,"Selector":7512,"Ġ[];":7513,"Ġvisible":7514,"Ġexperiments":7515,"Ġinfluence":7516,"Ġenter":7517,"Ġinsert":7518,"Ġdepth":7519,"Notes":7520,"ĠJournal":7521,"Ġshowed":7522,"Ġfavor":7523,"ocker":7524,"Ġwaves":7525,"neg":7526,"ĠSol":7527,"Ġconsistent":7528,"Ġtherm":7529,"entials":7530,"Own":7531,"Ġbuilder":7532,"gorithms":7533,"Ġunless":7534,"ĠBrown":7535,"Feature":7536,"ĠMartin":7537,"Ġpolar":7538,"Runtime":7539,"zz":7540,"Ġangle":7541,"CHE":7542,"ĠLin":7543,"Don":7544,"LOG":7545,"Ġappropriate":7546,"Ġpointer":7547,"handler":7548,"WA":7549,"////////////////////////////////":7550,".'":7551,"ĠCode":7552,"Ġaspect":7553,"cape":7554,"ĠPeople":7555,"Protocol":7556,"desc":7557,"Ġcref":7558,"ĠSaint":7559,"aught":7560,"Det":7561,"Panel":7562,"ĠOption":7563,"jar":7564,"Ġ$[":7565,"Loader":7566,"iteral":7567,"Ġgoals":7568,"Ġdecom":7569,"_{{\\":7570,"logger":7571,"ĠTour":7572,"128":7573,"Ġsinger":7574,"1976":7575,"iciency":7576,"Ġpoor":7577,"Ġwhom":7578,"Ġemission":7579,"bullet":7580,"1974":7581,"inant":7582,"mc":7583,"fail":7584,"Ġsetup":7585,"ona":7586,"Ġsatisfies":7587,"phone":7588,"ĠAR":7589,"ĠKar":7590,"git":7591,"Ġbus":7592,"ĠGame":7593,"Ġencoding":7594,"Ġbattle":7595,"kl":7596,"Ġcarry":7597,"NavBarCell":7598,"erial":7599,"ati":7600,"Ġtor":7601,"flo":7602,"Ġio":7603,"home":7604,"istration":7605,"Ġcreating":7606,"Ġgalaxies":7607,"stitution":7608,"Ġaxis":7609,")\"":7610,"iffer":7611,"Editor":7612,"Ġaccuracy":7613,"Ġdesc":7614,"Ġdivision":7615,"bits":7616,"green":7617,"Ġgrid":7618,"Ġconstraints":7619,"ĠDirector":7620,"Ġexistence":7621,"Ġcombined":7622,"wedge":7623,"asi":7624,"lig":7625,"ooks":7626,"Ġperfect":7627,"ologies":7628,"_*":7629,"Windows":7630,"Java":7631,"manager":7632,"horizontal":7633,"onder":7634,"ĠExec":7635,"$/":7636,"Ġdelay":7637,"ĠĠĠĠĠĠĠĠĠĠĠĠĠĠĠĠĠĠĠĠĠĠĠĠĠĠĠĠĠĠĠĠĠĠĠĠĠĠĠĠĠĠĠĠĠĠĠĠĠĠĠĠĠĠĠĠĠĠĠĠĠĠĠĠ":7638,"total":7639,"urrency":7640,"channel":7641,"Directory":7642,"Ġgiving":7643,"ĠMA":7644,"ĠAwards":7645,"Ġsignificantly":7646,"idae":7647,"components":7648,"Rece":7649,"ository":7650,"mos":7651,"Adapter":7652,"Ġfunc":7653,"icients":7654,"iki":7655,"uer":7656,"power":7657,"Ġdrop":7658,"Early":7659,"schema":7660,"Close":7661,"Ġscored":7662,"parameters":7663,"ĠCle":7664,"ollary":7665,"PATH":7666,"Ġpolitician":7667,"Ġadj":7668,"Ġwind":7669,"ĠÂ£":7670,"mann":7671,"grade":7672,"ĠProposition":7673,"Ġsites":7674,"Ġstories":7675,"lie":7676,"1975":7677,"However":7678,"Ġquickly":7679,"ĠPubl":7680,"acro":7681,"ðŁ":7682,"iana":7683,"1977":7684,"linewidth":7685,"Ġacadem":7686,"Ġplans":7687,"Sequ":7688,"pository":7689,"Ġtasks":7690,"ĠLandroid":7691,"tools":7692,"Ġmostly":7693,"Ġturned":7694,"trigger":7695,"hens":7696,"Ġexperimental":7697,"ĠYoung":7698,"Ġ\"\"":7699,"bold":7700,"Ġ{'":7701,"Ġshift":7702,"IE":7703,"DC":7704,"Ġedges":7705,"Ġmission":7706,"assertEqual":7707,"IMP":7708,"ensed":7709,"Ġdrug":7710,"While":7711,"Ġpairs":7712,"Generic":7713,"look":7714,"BP":7715,"Ġprocedure":7716,"Ġworkers":7717,"Ġsaying":7718,"ito":7719,"network":7720,"]]":7721,"Ġoptional":7722,"oles":7723,"itan":7724,"reset":7725,"Further":7726,"riage":7727,"ĠLibrary":7728,"switch":7729,"Ġproviding":7730,"ĠLove":7731,"1968":7732,"Ġdual":7733,"ĠGood":7734,"gg":7735,"Ġoptimal":7736,"enty":7737,"Ġeverything":7738,"ĠTask":7739,"Ġmessages":7740,"ĠDom":7741,"iano":7742,"Inv":7743,"Ġvertices":7744,">:":7745,"LIC":7746,"axis":7747,"}%":7748,"Ġdetection":7749,"inate":7750,"Ġapproximation":7751,"ancing":7752,"mutable":7753,"Ġfair":7754,"Ġpositions":7755,"engine":7756,"Ġpool":7757,"hidden":7758,"Transform":7759,"amer":7760,"Ġminim":7761,"ĠNode":7762,"bel":7763,"Ġwinning":7764,"Ġrob":7765,"Ġolder":7766,"je":7767,"ĠIII":7768,"ĠCarolina":7769,"Ġmeasures":7770,"ĠEarth":7771,"Ġcalculated":7772,"Ġoffers":7773,"Ġawait":7774,"Ġdriver":7775,"Public":7776,"Matrix":7777,"ĠPoint":7778,"Ġhope":7779,"Ġtra":7780,"utf":7781,"writer":7782,"ĠInitial":7783,"ĠEmp":7784,"ULE":7785,"etween":7786,"aka":7787,"anks":7788,"Ġ|\\":7789,"Ġlaunched":7790,"ira":7791,"Ġenjoy":7792,"job":7793,"Iterator":7794,"ĠLu":7795,"Ġappearance":7796,"itation":7797,"Ġtypically":7798,"Ġedition":7799,"ĠDev":7800,"Ġpush":7801,"asion":7802,"Ġended":7803,"Ġunivers":7804,"ket":7805,"'_":7806,"anging":7807,"roduction":7808,"Ġ×":7809,"Ġwriters":7810,"Scroll":7811,"Pointer":7812,"ĠBob":7813,"Ġsomeone":7814,"named":7815,"oz":7816,"Ġcombination":7817,"front":7818,"1973":7819,"cases":7820,"ĠEr":7821,"ĠParliament":7822,"Ġcentre":7823,"sto":7824,"irls":7825,"Ġcru":7826,"multi":7827,"exists":7828,"eval":7829,"Ġeth":7830,"AF":7831,"stable":7832,"Ġgauge":7833,"ĠTra":7834,"ToString":7835,"Ġdemand":7836,"triev":7837,"++;":7838,"Äĩ":7839,"Ġcalc":7840,"Ġinequality":7841,"Ġletter":7842,"Ġcloud":7843,"ĠFunction":7844,"Ġinvalid":7845,"Ġsymmetry":7846,"oving":7847,"Ġmeasurements":7848,"Ġwood":7849,"elease":7850,"->_":7851,"weet":7852,"Ġsea":7853,"Duration":7854,"Ġinterval":7855,"ĠKh":7856,"Ġfraction":7857,"subfigure":7858,"Ġchart":7859,"ters":7860,"Ġcarried":7861,"Ul":7862,"undred":7863,"ĠPac":7864,"Ġhighlight":7865,"Ġ$-":7866,"Ġindividuals":7867,"Graph":7868,"pan":7869,"erved":7870,"wan":7871,"Ġonto":7872,"ROM":7873,"Ġtraff":7874,"keyword":7875,"}</":7876,"ĠMP":7877,"'ve":7878,"World":7879,"ĠTODO":7880,"ĠNavy":7881,"Ġexport":7882,"XML":7883,"Ġdigital":7884,"ĠBi":7885,"orning":7886,"Ġcli":7887,"areer":7888,"Ġnumerical":7889,"Enum":7890,"CF":7891,"ĠSO":7892,"metadata":7893,"During":7894,"*{":7895,"English":7896,"Ġsal":7897,"Ġresponsible":7898,"Ġentered":7899,"Ġenh":7900,"Ġcommunities":7901,"she":7902,"ĠUpdate":7903,"ĠHaw":7904,"ĠArab":7905,"Ġforeign":7906,"tor":7907,"SY":7908,"found":7909,"Pattern":7910,"Ġfarm":7911,"Ġcorresponds":7912,"configuration":7913,"yer":7914,"Ġauthors":7915,"men":7916,"Auto":7917,"}}(\\":7918,"ga":7919,"herited":7920,"ĠBrazil":7921,"ylvan":7922,"Author":7923,"Ġestablishments":7924,"Selected":7925,"ĠLee":7926,"BUG":7927,"ĠElect":7928,"Ġtab":7929,"itors":7930,"ĠWill":7931,"cient":7932,"ĠChild":7933,"Pay":7934,"Product":7935,"ĠConfig":7936,"ONE":7937,"bytes":7938,"Ġcoast":7939,"ĠFort":7940,"wer":7941,"aren":7942,"ective":7943,"Gen":7944,"ĠLocal":7945,"Ġimplements":7946,"Ġ(_":7947,"),\\":7948,"Ġking":7949,"Ġwrong":7950,"Ġisn":7951,"here":7952,"Ġtournament":7953,"Med":7954,"MT":7955,"These":7956,"Profile":7957,"ĠParam":7958,"Func":7959,"Ġriver":7960,"Ġlatest":7961,"Mat":7962,"Ġserve":7963,"acle":7964,"ĠEli":7965,"Ġelem":7966,"Full":7967,"Ġphil":7968,"Ġadvant":7969,"tail":7970,"Ġsimulations":7971,"Ġmodified":7972,"Ġ^":7973,"Ġraised":7974,"Double":7975,"Ġhol":7976,"Term":7977,"rase":7978,"Attr":7979,"Ġring":7980,"1969":7981,"tmp":7982,")}(":7983,"Ġreplace":7984,"ĠSpec":7985,"LL":7986,"stone":7987,"Ġ=========":7988,"ugby":7989,"Ġcomputed":7990,"Ġasync":7991,"Ġthr":7992,"Ñı":7993,"random":7994,"ĠValley":7995,"oday":7996,"external":7997,"shadow":7998,"acebook":7999,"Ġarchitecture":8000,"High":8001,"ĠSu":8002,"rices":8003,"estion":8004,"ansas":8005,"ĠDevelopment":8006,"contains":8007,"Ġtheore":8008,"single":8009,"bx":8010,"Ġbasketball":8011,"stra":8012,"cknow":8013,"Sync":8014,"pton":8015,"webpack":8016,"Ġarm":8017,"1971":8018,"Ġpret":8019,"Ġsafety":8020,"Ġorient":8021,"ails":8022,"Print":8023,"'])":8024,"arden":8025,"Ġassess":8026,"Plugin":8027,"sumer":8028,"Ġcontained":8029,"Ġbeaut":8030,"ĠJim":8031,"cean":8032,"Ġquarter":8033,"Ġvote":8034,"tests":8035,"Ã£":8036,"Ġvoice":8037,"Ġchief":8038,"typedef":8039,"Ġproducer":8040,"alg":8041,"Ġnotice":8042,"Ġinitially":8043,"Register":8044,"Ġpoet":8045,"Common":8046,"ĠWood":8047,"Layer":8048,"ĠMain":8049,"'}":8050,"RAN":8051,"alloc":8052,"Success":8053,"Ġprison":8054,"ĠHence":8055,"Ġarbitrary":8056,"icip":8057,"Dest":8058,"osoph":8059,"StyleID":8060,"[$":8061,"Ġpartners":8062,"Mapping":8063,"Ġip":8064,"Desc":8065,"ĠGal":8066,"Ġsimulation":8067,"Ġreader":8068,"Ġappend":8069,"dy":8070,"ĠSund":8071,"Ġfederal":8072,"udget":8073,"ĠMos":8074,"Ġinform":8075,"Ġ\\(":8076,"Ġmolec":8077,"Engine":8078,"Ġannual":8079,"ela":8080,"åı":8081,"Ġspectral":8082,"_{-":8083,"Ġversions":8084,"ĠNumber":8085,"Ġinstalled":8086,"Ġformal":8087,"Memory":8088,"Figure":8089,"mi":8090,"ĠJun":8091,"apply":8092,"ographic":8093,"claim":8094,"ĠCross":8095,"ĠIrish":8096,"Ġprocessing":8097,"getElement":8098,"aste":8099,"ĠUN":8100,"owers":8101,"'ll":8102,"Ġdespite":8103,"UTF":8104,"othing":8105,"Ġidentify":8106,"las":8107,"iterator":8108,"Ġreports":8109,"ĠJoseph":8110,"iate":8111,"Ġpan":8112,"ĠGi":8113,"builder":8114,",\\,":8115,"clusive":8116,"Ġcycle":8117,"opes":8118,"Ġlib":8119,"ĠĠĠĠĠĠĠĠĠĠĠĠĠĠĠĠĠĠĠĠĠĠĠĠĠĠĠĠĠĠĠĠĠĠĠĠĠĠĠĠĠĠĠ":8120,"Ġslightly":8121,"Cap":8122,"aria":8123,"Single":8124,"ĠChief":8125,"IPT":8126,"ierarch":8127,"Ġincreases":8128,"ĠLiber":8129,"ĠJud":8130,"aters":8131,"stein":8132,"Ġpropag":8133,"ĠAND":8134,"SQL":8135,"Ġdisease":8136,"Constr":8137,"Ġactress":8138,"Ġassigned":8139,"ipality":8140,"bas":8141,"children":8142,"forward":8143,"ĠJac":8144,"Ġlaunch":8145,"Ġseconds":8146,"Global":8147,"hemat":8148,"ylvania":8149,"Ġ\"<":8150,"lapse":8151,"BE":8152,"isc":8153,"ĠBu":8154,"Browser":8155,"getName":8156,"vs":8157,"Ġmusical":8158,"Å¡":8159,"}$-":8160,"Ġrelatively":8161,"original":8162,"Ġlab":8163,"usters":8164,"Ġoccurs":8165,"ĠHome":8166,"Ġtechniques":8167,"Ġisland":8168,"ĠColumb":8169,"Ġpartition":8170,"uum":8171,"Hz":8172,"iral":8173,"ĠMoreover":8174,"1945":8175,"browser":8176,"ĠChampionships":8177,"Ġrect":8178,"Ġreject":8179,"TA":8180,"Ġtrigger":8181,"Ġdraft":8182,"haps":8183,"Details":8184,"1940":8185,"Ġmomentum":8186,"collection":8187,"eller":8188,"ighter":8189,"echo":8190,"ĠBack":8191,"ĠOl":8192,"ĠNorthern":8193,"Ġstable":8194,"Keys":8195,"Example":8196,"Variable":8197,"FR":8198,"ĠAction":8199,"Ġforced":8200,"Files":8201,"adium":8202,"ĠWales":8203,"ben":8204,"Ġspatial":8205,"parser":8206,"Ġassumption":8207,"icies":8208,"Category":8209,"Ġworth":8210,"Ġproceed":8211,"FFFF":8212,"usband":8213,"Ġexchange":8214,"Ġenable":8215,"Ġassumed":8216,"onical":8217,"ĠSy":8218,"kins":8219,"since":8220,"Video":8221,"Ġindicates":8222,"Ġcreation":8223,"mediate":8224,"icine":8225,"Ġowned":8226,"Ġreferred":8227,"pressed":8228,"1967":8229,"Ġcorrelation":8230,"ador":8231,"Parse":8232,"perp":8233,"MI":8234,"Ġxmlns":8235,"Abstract":8236,"ĠEnter":8237,"_{(":8238,"HR":8239,"ustrial":8240,"Sample":8241,"Eq":8242,"ĠOnly":8243,"Åį":8244,"ĠPower":8245,"Ġ[[":8246,"SER":8247,"hl":8248,"Ġdiscussion":8249,"Ġshowing":8250,"ĠServices":8251,"ais":8252,"ĠMiddle":8253,"icity":8254,"wild":8255,"Ġcoupling":8256,"ĠĠĠĠĠĠĠĠĠĠĠĠĠĠĠĠĠĠĠĠĠĠĠĠĠĠĠĠĠ":8257,"=\"${":8258,"Ġagreed":8259,"Ġofficer":8260,"JS":8261,"Ġclassification":8262,"Ġbrowser":8263,"ĠJo":8264,"NULL":8265,"rical":8266,"dp":8267,"Ġintegral":8268,"Ġmatching":8269,"Ġimag":8270,"Ġcat":8271,"Ġsusp":8272,"symbol":8273,"Ġanswer":8274,"ults":8275,"Space":8276,"cluded":8277,"Ġ}\\":8278,"ĠSpecial":8279,"Simple":8280,"Ġpages":8281,"ests":8282,"Ġfle":8283,"standing":8284,"iling":8285,"decl":8286,"roke":8287,"GC":8288,"plot":8289,"_(":8290,"extern":8291,"Ġserious":8292,"=\"\"":8293,"ogene":8294,"Ġmill":8295,"Ġbecoming":8296,"oped":8297,"Ġtypeof":8298,"editor":8299,"Collections":8300,"Ġamplit":8301,"Ġabstract":8302,"May":8303,"poration":8304,"ĠWal":8305,"ĠJava":8306,"words":8307,"Ġconflic":8308,"when":8309,"nn":8310,"Statement":8311,"ĠTri":8312,"Ġmurder":8313,"Ġsenior":8314,"Ġfn":8315,"Ġsummary":8316,"Ġalternative":8317,"Named":8318,"ĠCentre":8319,"cribe":8320,"Ġstrength":8321,"theme":8322,"ĠGets":8323,"Ġenabled":8324,"Ġfirm":8325,"Ġfine":8326,"Compar":8327,"Ġcommission":8328,"Route":8329,"Ġdevices":8330,"Ġstudio":8331,"ĠPop":8332,"Ġsemi":8333,"ĠHa":8334,"Ġpaint":8335,"ĠBre":8336,"à¸":8337,"HS":8338,"ĠSir":8339,"Ġintr":8340,"Ġmainly":8341,"har":8342,"ĠTheir":8343,"Ġefficient":8344,"Ġsynt":8345,"amental":8346,"Expr":8347,"Ġ+\\":8348,"izable":8349,")^{\\":8350,"Ġpiece":8351,"STAT":8352,"Ġsouthern":8353,"Fail":8354,"gers":8355,"Ġmanaged":8356,"Sche":8357,"emon":8358,"idx":8359,"anes":8360,"Ġcoefficients":8361,"Ġhydro":8362,"Ġcolumns":8363,"navList":8364,"Ġseasons":8365,"1930":8366,"Ġverify":8367,"ibli":8368,"oston":8369,"Condition":8370,"ĠExt":8371,"Failed":8372,"hide":8373,"prev":8374,"DP":8375,"formance":8376,"Ġdownload":8377,"Ġsociety":8378,"Ġspeak":8379,"ĠNav":8380,"protected":8381,"bury":8382,"two":8383,"ICE":8384,"ĠPass":8385,"chor":8386,"Opt":8387,"Ġtools":8388,"scape":8389,"ĠPath":8390,"Ġnorthern":8391,"Ġwild":8392,"Ġtheme":8393,"mond":8394,"ĠManagement":8395,"Ġtx":8396,"Ġcontributions":8397,"ĠRh":8398,"Ġmaterials":8399,"tw":8400,"Ġmapping":8401,"Ġsqu":8402,"props":8403,"Ġclick":8404,"Ġsubset":8405,"fx":8406,"role":8407,"but":8408,"Ġtrust":8409,"1964":8410,"Ġpure":8411,"Ġadding":8412,")\\,":8413,"Ġscalar":8414,"ctrine":8415,"Ġreq":8416,"ĠUSA":8417,"ĉĉĉĉĉĉĉĉĉ":8418,"Ġvocals":8419,"platform":8420,"duled":8421,"Seg":8422,"Ġordered":8423,"ĠCa":8424,"colLast":8425,"ongs":8426,"<!":8427,"Ġran":8428,"Some":8429,"Ġhar":8430,"Ġbounds":8431,"Ġdrive":8432,"WN":8433,"kes":8434,"Ġfill":8435,"GO":8436,"ĠIOException":8437,"Ġdetailed":8438,"Ġfactory":8439,"verb":8440,"Ġbrand":8441,"ĠHead":8442,"ĠLord":8443,"ĠIl":8444,"dialog":8445,"Ġentries":8446,"plications":8447,"mic":8448,"ĠBO":8449,"headers":8450,"Ġvary":8451,"Ġextrem":8452,"Ġarrest":8453,"Dem":8454,"Remove":8455,"FS":8456,"Ġguarant":8457,"Ġindicate":8458,"Ã£o":8459,"ĠEmpire":8460,"para":8461,"prefix":8462,"tags":8463,"Ġeq":8464,"picture":8465,"cred":8466,"fra":8467,"wrapper":8468,"ĠSar":8469,"Ġsector":8470,"According":8471,")\">":8472,"circle":8473,"Ġrequests":8474,"ĠHash":8475,"Mut":8476,"Ġattended":8477,"Repository":8478,"fd":8479,"READ":8480,"libr":8481,"Ġcovered":8482,"Ġaccom":8483,"Ġsizeof":8484,"Ġexpressed":8485,"Ġvac":8486,"Ġencour":8487,"ello":8488,"BB":8489,"ila":8490,"Ġleaving":8491,"going":8492,"Ġsignature":8493,"ĠBoth":8494,"ĠCommand":8495,"ĠRo":8496,"aylor":8497,"shared":8498,"Ġnavigation":8499,"VM":8500,"ĠSpain":8501,"sylvania":8502,"1966":8503,"subsubsection":8504,"ĠEp":8505,"Ġnewsp":8506,"%%%%":8507,"colFirst":8508,"rick":8509,"ĠSoviet":8510,"Ġstatistics":8511,"Ġice":8512,"Ġnumerous":8513,"DT":8514,"Ġattract":8515,"Ġhospital":8516,"sch":8517,"Ġ[],":8518,"Ġlattice":8519,"ivery":8520,"textsc":8521,"ĠSI":8522,"ĠMult":8523,"Ġsuc":8524,"Ġincome":8525,"Ġlies":8526,"ĠFree":8527,"fully":8528,"Ġmodes":8529,"attributes":8530,"Ġparallel":8531,"------------":8532,"nil":8533,"Ġstrateg":8534,"ĠBul":8535,"1965":8536,"Ġsurvey":8537,"upload":8538,"Props":8539,"ALSE":8540,"Ġsimpl":8541,"ĠInformation":8542,"arsed":8543,"safe":8544,"Ġbehavi":8545,"ims":8546,"abil":8547,"ĠBlue":8548,"ĠLuc":8549,"ĠJones":8550,"FIG":8551,"flat":8552,"ĠIndex":8553,"uly":8554,"ĠPage":8555,"Ġcommunication":8556,"ĠGreek":8557,"IND":8558,"IST":8559,"zen":8560,"Ġcoordinates":8561,"sys":8562,"Ġ\",":8563,"Ġmagazine":8564,"Ġdepartment":8565,"nam":8566,"sky":8567,"enth":8568,";}":8569,"()</":8570,"Ġflags":8571,"Ġintroduce":8572,"Cons":8573,"Second":8574,"Ġraw":8575,"Ġalleg":8576,"ĠRadio":8577,"Ġcalling":8578,"Ġcounty":8579,"Ġlived":8580,"player":8581,"Ġalgorithms":8582,"Ġtracks":8583,"iated":8584,"Ġpull":8585,"1920":8586,"ĠHistoric":8587,"IVE":8588,"awa":8589,"Ġparties":8590,"ĠĠĠĠĠĠĠĠĠĠĠĠĠĠĠĠĠĠĠĠĠĠĠĠĠĠ":8591,"forall":8592,"ĠStart":8593,"iminal":8594,"Ġshoot":8595,"Ð´":8596,"identifier":8597,"jango":8598,"Wrapper":8599,"600":8600,"Ġapproaches":8601,"Ġqueue":8602,"Ġsafe":8603,"Ġdecay":8604,"Ġestimates":8605,"Ġsuccessfully":8606,"hetic":8607,"Ġrapid":8608,"ĠHon":8609,"Ġcitiz":8610,"Ġproved":8611,"Ġmeasurement":8612,"poss":8613,"101":8614,"uv":8615,"\"><!--":8616,"Ġ$$":8617,"ashion":8618,"ĠStat":8619,"Ġhelped":8620,"ĠLie":8621,"3333":8622,"Ġoffered":8623,"Ġexecution":8624,"iec":8625,"Ġsurpr":8626,"Ġ=======":8627,"kK":8628,"operation":8629,"ĠDemocratic":8630,"agonal":8631,"filename":8632,"Ġanalog":8633,"Ġbre":8634,"\\!\\!":8635,"ampling":8636,"Tx":8637,"Yi":8638,"Ġretriev":8639,"Ġcomments":8640,"onal":8641,"Ġclearly":8642,"ulf":8643,"pat":8644,"Ġprefix":8645,"allclasses":8646,"Ġremote":8647,"large":8648,"Sequence":8649,"pected":8650,"Ġpoly":8651,"iced":8652,"Socket":8653,"Ġunderstanding":8654,"tbody":8655,"Agent":8656,"250":8657,"Ġphen":8658,"Ġchannels":8659,"orial":8660,"ups":8661,"junit":8662,"provider":8663,"Constants":8664,"ĠWay":8665,"NT":8666,"Ġsections":8667,"aby":8668,"zone":8669,"Ġsucceed":8670,"Ġachieved":8671,"Ġdifferences":8672,"ĠSouthern":8673,"Ġhusband":8674,"AU":8675,"colon":8676,"ĠTre":8677,"Ġhistorical":8678,"Ġpp":8679,"Ġchampionship":8680,"ocaml":8681,"Ġuncertain":8682,"ĠBattle":8683,"temp":8684,"eer":8685,"Ġlic":8686,"ĠElement":8687,"RR":8688,"Ġinvariant":8689,"enant":8690,"Ġadjust":8691,"JQ":8692,"Ġorganizations":8693,"osis":8694,"Ġdistributions":8695,"Ġefforts":8696,"Ġwall":8697,"Ġinterpret":8698,"CHECK":8699,"SM":8700,"Ġrepresenting":8701,"Ġtraffic":8702,"tri":8703,"EV":8704,"ifold":8705,"Ġrespond":8706,"Depend":8707,"THOD":8708,"gypt":8709,"Ġrare":8710,"Ġcurves":8711,"ĠTechnology":8712,"zing":8713,"cuss":8714,"Identifier":8715,"Ġalone":8716,"Ġseat":8717,"mI":8718,"Ġready":8719,"Ġ[\"":8720,"Ġtrial":8721,"Ġinstruction":8722,"present":8723,"Using":8724,"ĠCard":8725,"inois":8726,"ĠProvince":8727,"ĠAsia":8728,"igital":8729,"Ġparser":8730,"Services":8731,"istical":8732,"Ġoil":8733,")_{":8734,"Ġpod":8735,"loop":8736,"ĠImage":8737,"ĠPrem":8738,"ĠExample":8739,"rawn":8740,"tained":8741,"Ġdoub":8742,"compiler":8743,"ĠMi":8744,"JECT":8745,"Ġoccurred":8746,"Ġforest":8747,"}^*":8748,".<":8749,"diff":8750,"airman":8751,"ĠRam":8752,"Bi":8753,"Ġrg":8754,"ĠJohnson":8755,"Ġviews":8756,"ĠLab":8757,"Ġstarts":8758,"awn":8759,"ifdef":8760,"fire":8761,"Ġtransformation":8762,"ysical":8763,"Ġprotect":8764,"Ġnation":8765,"Ġpassword":8766,"Ġconstructor":8767,"conn":8768,"floor":8769,"ilib":8770,"Ġcircle":8771,"progress":8772,"})+":8773,"Ġthreshold":8774,"ĠIran":8775,"rons":8776,"Password":8777,"Ġmenu":8778,"ĠCP":8779,"Ġincorpor":8780,"Ġspot":8781,"pective":8782,"Ġstress":8783,"Ġrailway":8784,"fi":8785,"itness":8786,"sel":8787,"ĠUsing":8788,"Oe":8789,"ĠMah":8790,"Ġabsor":8791,"details":8792,"Ġcontroller":8793,"ĠCro":8794,"pmatrix":8795,"IA":8796,"Ġreasons":8797,"Ġmetadata":8798,"ennis":8799,"Ġhundred":8800,")^{-":8801,"special":8802,"ĠCamb":8803,"zab":8804,"Scale":8805,"ĠConference":8806,"Ġmetal":8807,"riority":8808,"picker":8809,"urban":8810,"phy":8811,"ĠMichigan":8812,"enger":8813,"endor":8814,"odd":8815,"achment":8816,"ĠUkr":8817,"Ġnine":8818,"ĠBow":8819,"Two":8820,"Ġclaimed":8821,"Comment":8822,"etic":8823,"ĠMany":8824,"Ġtrib":8825,"ĠBritain":8826,"Career":8827,"Cast":8828,"Ġmultip":8829,"sime":8830,"odies":8831,"Ġideal":8832,"eli":8833,"ffff":8834,"ading":8835,"Ġtypical":8836,"bro":8837,"ĠJoe":8838,"Role":8839,"ulty":8840,"Ġconvert":8841,"Ġreligious":8842,"ancer":8843,"simeq":8844,"Home":8845,"mask":8846,"Ġfamous":8847,"OUT":8848,"ajax":8849,"atriate":8850,"Cluster":8851,"Ġsingular":8852,"Prefix":8853,"Ġfelt":8854,"Ġregime":8855,"Ġoperating":8856,"Ġblood":8857,"uzz":8858,"Ġgap":8859,"Ġdenotes":8860,"pear":8861,"eleted":8862,"Ġspirit":8863,"ĠResource":8864,"Ġlicense":8865,"Ġclaims":8866,"andemic":8867,"Domain":8868,"Ġaccepted":8869,"Ġ],":8870,"detail":8871,"$).":8872,"Ġpy":8873,"ĠPennsylvania":8874,"Ġlabels":8875,"ni":8876,"Ð²":8877,"Ġperturb":8878,"Ġleaders":8879,"ountry":8880,"Ġisol":8881,"Trace":8882,"Ġimplemented":8883,"collapse":8884,"fixed":8885,"services":8886,"Ġplease":8887,"ĠCopyright":8888,"feature":8889,"ĠUI":8890,"ACT":8891,"ĠSte":8892,"Ġpil":8893,"Ġsales":8894,"WR":8895,"Ġclin":8896,"ĠMajor":8897,"Registry":8898,")_":8899,"Landroid":8900,"ĠCivil":8901,"TEXT":8902,"CESS":8903,"ĠNAME":8904,"ĠOhio":8905,"Ġtrace":8906,"ĠMen":8907,"Ġgrowing":8908,"Ġextr":8909,".~(\\":8910,"ĠTH":8911,"ĠMicrosoft":8912,"required":8913,"ĠWindows":8914,"ĠDown":8915,"plus":8916,"Enumer":8917,"Ġeffort":8918,"Ġrail":8919,"?>":8920,"ĠPacific":8921,"STATE":8922,"ubV":8923,"np":8924,"arse":8925,"Ġdrama":8926,"ĠCy":8927,"NOT":8928,"Ġstrongly":8929,"Ġthous":8930,"(__":8931,"Ġdynamic":8932,"Selection":8933,"%)":8934,"ĠEcon":8935,"Ġmarked":8936,"Ġroll":8937,"Ġrecording":8938,"serial":8939,"article":8940,"umes":8941,"errors":8942,"uset":8943,"Ġdat":8944,"Ġprev":8945,"uplic":8946,"Ġaudio":8947,"ester":8948,"UlI":8949,"YkK":8950,"cQL":8951,"JQYi":8952,"oiubV":8953,"MNmI":8954,"tfGu":8955,"YkKoiubV":8956,"cQLBJ":8957,"YkKoiubVtfGu":8958,"JQYiUlI":8959,"ĠRet":8960,"Ġple":8961,"udes":8962,"ĠPak":8963,"Game":8964,"ivation":8965,"Ġhands":8966,"Ġmatrices":8967,"Ġstock":8968,"\\_":8969,"ĠCommon":8970,"outer":8971,"Ġcensus":8972,"hard":8973,"wall":8974,"CM":8975,"Ġeveryone":8976,"inity":8977,"Ġru":8978,"YkKoiubVtfGuOe":8979,"osa":8980,"Ġcities":8981,"ĠBern":8982,"Ġreadonly":8983,"structions":8984,"maven":8985,"Films":8986,"Ġaffect":8987,"Ġthick":8988,"Ġbin":8989,"Ġarmy":8990,"Ġctx":8991,"ĠWilliams":8992,"Ġautomatically":8993,"Ġallowing":8994,"ĠPlan":8995,"Ġinteractions":8996,"ĠSecurity":8997,"uce":8998,"Ġ\"-":8999,"Ġdepending":9000,"notes":9001,"Ġcomposed":9002,"report":9003,"ifiers":9004,"Ġuniversity":9005,"Ġstrings":9006,"ĠSenate":9007,"ĠMov":9008,"Ġconfirmed":9009,"itage":9010,"\\|_{":9011,"Ġgenus":9012,"Ġ=\\":9013,"ĠGlobal":9014,"Ġachieve":9015,"Cred":9016,"){\\":9017,"LECT":9018,"Ġelim":9019,"Ġreduction":9020,"Ġodd":9021,"periment":9022,"ĠFrancisco":9023,"General":9024,"Ġ{{":9025,"users":9026,"ĠMessage":9027,"newcommand":9028,"esian":9029,".\");":9030,"Visible":9031,"andon":9032,"123":9033,"uries":9034,"Ġfiction":9035,"Ġrevealed":9036,"ĠOx":9037,"Ġlayout":9038,"Ġfans":9039,"Ġlocations":9040,"Ġvehicle":9041,"Generator":9042,"BAR":9043,"TIME":9044,"ĠIE":9045,"Best":9046,"Ġproxy":9047,"such":9048,"Ġmechanism":9049,"fold":9050,"Ġrequirements":9051,"Ġpartner":9052,"Help":9053,"hu":9054,"odec":9055,"Ġvictory":9056,"CRE":9057,"produ":9058,"ĠQueen":9059,"ĠTro":9060,"CG":9061,"Ġdiscovered":9062,"oir":9063,"execute":9064,"groups":9065,"Ġintended":9066,"$$\\":9067,"Ġleaves":9068,"Ġcamera":9069,"Ġflex":9070,"Ġcolon":9071,"ĠInteger":9072,"Ġextend":9073,"imitive":9074,"Ġrise":9075,"moz":9076,"1963":9077,"Ġmorph":9078,"complete":9079,"generated":9080,"INS":9081,"chain":9082,"Ġserving":9083,"1962":9084,"OST":9085,"aya":9086,"Find":9087,"Ġhypot":9088,"Ġexit":9089,"Ġarticles":9090,"ITE":9091,"DR":9092,"Ġlett":9093,"ĠWell":9094,"Ġdistingu":9095,"Ġsoft":9096,"Ġkernel":9097,"burgh":9098,"enable":9099,"ĠGeorgia":9100,"Ġcool":9101,"Ġmonitor":9102,"Arch":9103,"})$.":9104,"ĠAuthor":9105,"fix":9106,"itionally":9107,"Player":9108,"('.":9109,"sen":9110,"Ġrac":9111,"done":9112,"Region":9113,"Ã±":9114,"expr":9115,"Ġdefeated":9116,"ĠAmazon":9117,"{%":9118,"svg":9119,"ĠJersey":9120,"Ġconducted":9121,"chen":9122,"amaz":9123,"ĠVan":9124,"remark":9125,"Ġ).":9126,"Ð¼":9127,"[(":9128,"Ġsecondary":9129,"EEEE":9130,"tics":9131,"ĠTR":9132,"Ġtrained":9133,"{$\\":9134,"Ġinterested":9135,"Ġok":9136,"ogen":9137,"Google":9138,"swarm":9139,"Ġtranslation":9140,"ndef":9141,"HTTP":9142,"person":9143,"Ġens":9144,"rim":9145,"avor":9146,"Ġlanguages":9147,"Ġneighborhood":9148,"ĠCH":9149,"ĠRepresent":9150,"emy":9151,"800":9152,"Ġcontem":9153,"ĠCoast":9154,"ĠPy":9155,"ĠBas":9156,"wp":9157,"eners":9158,"game":9159,"ĠLink":9160,"Ġopportunity":9161,"Fin":9162,"Ġelections":9163,"onto":9164,"Ġofficers":9165,")\\\\":9166,"atar":9167,"Ġcoq":9168,"'));":9169,"Ġlat":9170,"National":9171,"eld":9172,"URI":9173,"Ġfinish":9174,";)":9175,"Lin":9176,"ĠAff":9177,"ĠHttp":9178,"ĠMot":9179,"MR":9180,"Ġconstraint":9181,"Ġspan":9182,"ĠTele":9183,"sidebar":9184,"ĠCarl":9185,"TRUE":9186,"iable":9187,"illy":9188,"Total":9189,"Ġcosts":9190,"tik":9191,"Ġsingles":9192,"sa":9193,"Generated":9194,"dependent":9195,"Ġrat":9196,"Ġkept":9197,"unique":9198,"ĠWater":9199,"wildfly":9200,"Ġdiss":9201,"ĠWAR":9202,"Ġobvious":9203,"href":9204,"Ġgirl":9205,"Ġmobile":9206,"Summary":9207,"Bind":9208,"ĠHTTP":9209,"ãĢ":9210,"VD":9211,"ĠIslam":9212,"sex":9213,"Ġflight":9214,"iful":9215,"username":9216,"login":9217,"%,":9218,"Ġangular":9219,"urer":9220,"ĠSand":9221,"ĠSi":9222,"apos":9223,"cluster":9224,"omorphic":9225,"Ġduration":9226,")}{\\":9227,"Ġcancel":9228,"ĠHuman":9229,"125":9230,"ĠKr":9231,"Ġ?>":9232,"Resources":9233,"adel":9234,"Ġresidents":9235,"Nodes":9236,"Sch":9237,"Ġfeat":9238,"world":9239,"ĠLy":9240,"Ġunderlying":9241,"Mer":9242,"Ġissued":9243,"ĠFI":9244,"Flow":9245,"RES":9246,"}}^":9247,"Ġlisting":9248,"Short":9249,"Ġstored":9250,"Ġregistered":9251,"enabled":9252,"110":9253,"Ġnullptr":9254,"idel":9255,"Ġregarding":9256,"aling":9257,"ĠĠĠĠĠĠĠĠĠĠĠĠĠĠĠĠĠĠĠĠĠĠĠĠĠĠĠĠ":9258,"Ġspectra":9259,"oton":9260,"cert":9261,"ĠKent":9262,"____":9263,"Ġlimits":9264,"Import":9265,"ĠASSERT":9266,"Character":9267,"ĠDO":9268,"una":9269,"storage":9270,"ÑĮ":9271,"Thus":9272,"elligence":9273,"ĠRay":9274,"Ġyields":9275,"ĠGaussian":9276,",$":9277,"ponential":9278,"ez":9279,"RPC":9280,"blem":9281,"ĠBoston":9282,"Multi":9283,"Ġsymmetric":9284,"apes":9285,"ĠReport":9286,"}}^{":9287,"Ġui":9288,"Ġpaths":9289,"onom":9290,"ĠIllinois":9291,"invalid":9292,"Namespace":9293,"Ġlogger":9294,"ĠHarr":9295,"ĠAsian":9296,"Ġstellar":9297,"agers":9298,"Theorem":9299,"ĠSea":9300,"Ġdependence":9301,"isted":9302,"Ġcapture":9303,"Ġsupports":9304,"agnostics":9305,"Ġcancer":9306,"ĠRequest":9307,"Ġbridge":9308,"Ġforeach":9309,"ĠCommunity":9310,"Ġrows":9311,">::":9312,"Ġassign":9313,"protocol":9314,"Ġbillion":9315,"Ġzone":9316,"Ġpromin":9317,"Ġbelieved":9318,"INFO":9319,"ĠAny":9320,"irds":9321,"Ġconnections":9322,"Ġbass":9323,"yo":9324,"Ġregional":9325,"Ġrough":9326,"Ġsuggested":9327,"Ġenum":9328,"Ã¢":9329,"cheduler":9330,")->":9331,"$^{-":9332,"Ġdepart":9333,"bg":9334,"achuset":9335,"Progress":9336,"nodes":9337,"Ġvectors":9338,"achusetts":9339,">\\":9340,"ĠPhilipp":9341,"PER":9342,"Ġ'<":9343,"1944":9344,"ĠMake":9345,"springframework":9346,"ĠTheatre":9347,"ĠJewish":9348,"Ġpurs":9349,"inion":9350,"Ġ..":9351,"sn":9352,"ĠFacebook":9353,"Ġobserve":9354,"ti":9355,"Fragment":9356,"Uri":9357,"rium":9358,"ĠScotland":9359,"Ġattacks":9360,"=\"$":9361,"odot":9362,"agent":9363,"Ġsister":9364,")$-":9365,"orough":9366,"![":9367,"ea":9368,"Ġexpanded":9369,"Ġdegrees":9370,"Ġcultural":9371,"Ġfre":9372,"ĠEdward":9373,"Ġoperated":9374,"ixels":9375,"Ġdimensions":9376,"Ids":9377,"indexOf":9378,"Report":9379,"amin":9380,"\"],":9381,"Ġships":9382,"Ġremember":9383,"ÅĤ":9384,"Texture":9385,"istence":9386,"ĠLittle":9387,"}&":9388,"transition":9389,"Ġlayers":9390,"ĠNight":9391,"sid":9392,"chester":9393,"ĠLight":9394,"Ġnuclear":9395,"Ġadopted":9396,"loader":9397,"Ġrotation":9398,"Ġgain":9399,"ĠLOG":9400,"Ġcharset":9401,"mapsto":9402,"ĠjQuery":9403,"vin":9404,"ulator":9405,"Ġorders":9406,"ĠBecause":9407,"Ġfinding":9408,"Ġfloor":9409,"pet":9410,"Ġsatisfy":9411,"EST":9412,"ucky":9413,"ĠWhe":9414,"Ġoptical":9415,"Ġpicture":9416,"ĠProcess":9417,"Ġadvantage":9418,"MODULE":9419,"Ġhappen":9420,"Ġminimal":9421,"1961":9422,"ĠWall":9423,"Ġinstrument":9424,"Ġpowerful":9425,"Ġfru":9426,"LC":9427,"Ġcontinues":9428,"ĠKong":9429,"ateway":9430,"pu":9431,"IGHT":9432,"Ġproport":9433,"Ġpropos":9434,"Äį":9435,"rg":9436,"Bound":9437,"Ġdedicated":9438,"ampions":9439,"Ġpet":9440,"phas":9441,"lipse":9442,"ĠWild":9443,"Ġinstances":9444,"Headers":9445,"ĠFC":9446,"Language":9447,"usform":9448,"Ġil":9449,"numerusform":9450,"cdn":9451,"video":9452,"bd":9453,"Conn":9454,"Ġdetect":9455,"Ġdepict":9456,"ĠBit":9457,")},":9458,"itted":9459,"Ġsquad":9460,"ĠLim":9461,"Skip":9462,"ancell":9463,"Ġadministration":9464,"ĠEven":9465,"ĠÅ":9466,"ĠLo":9467,"PORT":9468,"gest":9469,"Ġapparent":9470,"irus":9471,"lik":9472,"ĠWeek":9473,"orders":9474,"ĠSupport":9475,"ĠPolice":9476,"water":9477,"ĠEgypt":9478,"CTYPE":9479,"ran":9480,"Ġenv":9481,"Ġheaders":9482,"Ġacts":9483,"assembly":9484,"Ġtransparent":9485,"Ġusage":9486,"Ġactors":9487,"Ġtemp":9488,"fc":9489,"law":9490,"Ġnucle":9491,"ĠCam":9492,"simple":9493,"Ġpretty":9494,"Syntax":9495,"Ġideas":9496,"ĠJr":9497,"ĠFinally":9498,"Ġaggreg":9499,"USE":9500,"Ġsettlement":9501,"Ġpseud":9502,"pot":9503,"flag":9504,"ĠPoland":9505,"Ġequipment":9506,"Ġgeometry":9507,"lower":9508,"ĠDesign":9509,"DateTime":9510,"Ġdebug":9511,"ĉĠĠĠĠĠ":9512,"ĠMid":9513,"Ġdesired":9514,"ĠAndrew":9515,"pattern":9516,"ĠDutch":9517,"Ġchemical":9518,"ĠEst":9519,"Ġdaily":9520,"ĠOrgan":9521,"ĠCreek":9522,"{\"":9523,"ĠKen":9524,"Ġtrees":9525,"chmark":9526,"ĠPrince":9527,"Ġnearby":9528,"extension":9529,"Ġreferences":9530,"conv":9531,"'d":9532,"Ġdict":9533,"Ġdivided":9534,"Ġcandidates":9535,")[":9536,"Ġmotor":9537,"ĠĠĠĠĠĠĠĠĠĠĠĠĠĠĠĠĊ":9538,"Ġcalculate":9539,"throw":9540,"Comple":9541,"Ġheat":9542,"helper":9543,"proposition":9544,"Ġshut":9545,"Ġfrag":9546,"Ġshop":9547,"pull":9548,"ĠCustom":9549,"ĠBroad":9550,"Î±":9551,"lan":9552,"Ġmedium":9553,"ĠJackson":9554,"ĠBol":9555,"Ġnotation":9556,"Ġacquired":9557,"ĠFar":9558,"ĠGovernor":9559,"ĠTw":9560,"Ġplus":9561,"GP":9562,"Ġtruth":9563,"Ġstreet":9564,"Ġpaid":9565,"Ġconvergence":9566,"imated":9567,"1956":9568,"ĠSunday":9569,"atasets":9570,"plates":9571,"xs":9572,"Ġorth":9573,"ĠJon":9574,"Ġstrugg":9575,"-$":9576,"Ġwestern":9577,"resources":9578,"Mask":9579,"\"\"\"":9580,"Area":9581,"Ġpandemic":9582,"Ġfish":9583,"Ġmassive":9584,"ĠSign":9585,"repe":9586,"Ġcook":9587,"Ġacceler":9588,"urations":9589,"Ġtechnical":9590,"also":9591,"1958":9592,"ummy":9593,"flex":9594,"(@":9595,"Pair":9596,"Ġbuy":9597,"ITION":9598,"Ġdamage":9599,"ĠPolicy":9600,"semble":9601,"Compiler":9602,"-(":9603,"ĠHospital":9604,"Ġtimeout":9605,"zed":9606,"Ġfunctional":9607,"Len":9608,"180":9609,"clean":9610,"async":9611,"1959":9612,"Ġtried":9613,"ĠAS":9614,"ori":9615,"United":9616,"checkbox":9617,"Ġacting":9618,"Ġshell":9619,"CB":9620,"unnel":9621,"cknowled":9622,"Bean":9623,"EEEEFF":9624,"Encoded":9625,"Ġpal":9626,"eper":9627,"ĠReact":9628,"Ġgeneric":9629,"ĠOriginal":9630,"arters":9631,"Ñĭ":9632,"Stats":9633,"Tags":9634,"Ġfreedom":9635,"()))":9636,"Ġcars":9637,"ĠSoftware":9638,"Ġult":9639,"essions":9640,"Sem":9641,"pb":9642,"Ġphone":9643,"Ġchance":9644,"ĠStan":9645,"åĪ":9646,"Ġexecutive":9647,"Ġlabor":9648,"Ġweap":9649,"ĠWed":9650,"1942":9651,"Ġwidely":9652,"Brit":9653,"itivity":9654,"ĠassertThat":9655,"cher":9656,"Ġscroll":9657,"Ġtechnique":9658,"Ġcomedy":9659,"Ġbundle":9660,"life":9661,"Ġexplan":9662,"ĠCEL":9663,"blank":9664,"ĠReal":9665,"ĠWin":9666,"ĠSQL":9667,"FLA":9668,"Ġimportance":9669,"Are":9670,"pres":9671,"ĠJustice":9672,"Ġdocuments":9673,"ĠFinal":9674,"Ġvon":9675,"scill":9676,"Transport":9677,"Ġfocused":9678,"acent":9679,"Math":9680,"ĠLead":9681,"depth":9682,"Methods":9683,"Ġprime":9684,"Ġasympt":9685,"inator":9686,"Ġhour":9687,"ĠWis":9688,"POST":9689,"ilibrium":9690,"ĠJes":9691,"unte":9692,"ogram":9693,"Eff":9694,"ĠControl":9695,"Ġfacilities":9696,"Ġdog":9697,"ĠArrayList":9698,"Ġadvert":9699,"cu":9700,"Ġcov":9701,"ĠRegion":9702,"Ġnotes":9703,"Ġchallenge":9704,"Ġends":9705,"Ġaffected":9706,"Ġassociation":9707,"ĠMassachusetts":9708,"Ġ&=&":9709,"ĠDocument":9710,"PROJECT":9711,"'(":9712,"estic":9713,"brief":9714,"proxy":9715,"issues":9716,"Ġmd":9717,"Ġobservation":9718,"about":9719,"Ġbalance":9720,"Returns":9721,"Ġlooks":9722,"Operator":9723,"testing":9724,"ses":9725,"Ġquadr":9726,"timeout":9727,"Ġgalaxy":9728,"Sort":9729,"mma":9730,"socket":9731,"teen":9732,"ĠEastern":9733,"ĠLatin":9734,"Ġjump":9735,"Ġtwice":9736,"eting":9737,"Ġtoward":9738,"Tra":9739,"TT":9740,"ĠBang":9741,"Ġclimate":9742,"Ġconfirm":9743,"...</":9744,"tikz":9745,"Ġimproved":9746,"REQ":9747,"amazon":9748,"Ġroles":9749,"Ġdescribes":9750,"Ġattend":9751,"ĠFour":9752,"Ġphenomen":9753,"xhtml":9754,"1948":9755,"Ġdescent":9756,"Ġprimarily":9757,"Ġven":9758,"Ġconsidering":9759,"ĠSports":9760,"eto":9761,"Ġevaluation":9762,"ĠOfficial":9763,"Ġfundamental":9764,"Ġgradient":9765,"ORTED":9766,"Ġyouth":9767,"Ġtopic":9768,"('/":9769,"boost":9770,"ĠSpace":9771,"DOCTYPE":9772,"HP":9773,"Ġtrend":9774,"ictures":9775,"\\{\\":9776,"Ġofficials":9777,"Ġprincipal":9778,"BL":9779,"Ġrestaur":9780,"à¥":9781,"Db":9782,"Ġsides":9783,"Ang":9784,"azy":9785,"('#":9786,"signature":9787,"python":9788,"Ġplugin":9789,"pub":9790,"Book":9791,"Ġ([":9792,"Vertex":9793,"Ġbright":9794,"ĠDaniel":9795,"onia":9796,"Children":9797,"Ġconcert":9798,"Ġbeam":9799,"ĠCollection":9800,"rie":9801,"bell":9802,"dk":9803,"ĠStation":9804,"ĠPortug":9805,"Î¿":9806,"Interval":9807,"optional":9808,"Ġsubsequently":9809,"PY":9810,"ĠRest":9811,"Ġreson":9812,"Ġtypename":9813,"ĠSecretary":9814,"vo":9815,"LOCK":9816,"Ġfluid":9817,"tk":9818,"acts":9819,"Ġmarriage":9820,"Ġexcit":9821,"athan":9822,"Ġwarn":9823,"ĠColumbia":9824,"Ġclubs":9825,"Ġconj":9826,"ĠEnt":9827,"Move":9828,"1957":9829,"Email":9830,"aturday":9831,"NavBarFont":9832,"ĠJeff":9833,"Leg":9834,"ĠMu":9835,"Ġschema":9836,"ĠSD":9837,"ĠSom":9838,"console":9839,"Ax":9840,"amber":9841,"Ġrecip":9842,"Ġdispl":9843,"Ġoptimization":9844,"ĠHamiltonian":9845,"opic":9846,"acks":9847,"ĠCA":9848,"ĠChris":9849,"æľ":9850,"sr":9851,"Ġpoliticians":9852,"cha":9853,"ydney":9854,"$;":9855,"Ġ];":9856,"unities":9857,"Ġbuf":9858,"Ġmuseum":9859,"ĠWalk":9860,"Miss":9861,"Ġpsych":9862,"Ġretired":9863,"Ġlocally":9864,"Ġcer":9865,"Ġheard":9866,"amely":9867,"vol":9868,"ĠSta":9869,"apis":9870,"Ġturns":9871,"zabeth":9872,"ronic":9873,"irror":9874,"Ġdetected":9875,"Ġmagnitude":9876,"Ġdisabled":9877,"Ġusual":9878,"Ġcommonly":9879,"Ġrepeated":9880,"Ġsport":9881,"ä»":9882,"cret":9883,"1939":9884,"ĠBad":9885,"Ġprofessor":9886,"Ġlaws":9887,"ependence":9888,"Ġcmd":9889,"rog":9890,"ĠFire":9891,"Ġreviews":9892,"cccc":9893,"Ġfellow":9894,"Ġnp":9895,"Install":9896,"Ġ{\"":9897,"ĠRepublican":9898,"ĠNY":9899,"ĠConf":9900,"Ġcomposition":9901,"Ġdocumentation":9902,"ĠAndroid":9903,"amps":9904,"spe":9905,"ĠFamily":9906,"Sports":9907,"ĠAri":9908,"Ġprogramming":9909,"println":9910,"DEBUG":9911,"Stop":9912,"Ġtend":9913,"ideos":9914,"ĠFederal":9915,"001":9916,"aki":9917,"Ġjs":9918,"~$\\":9919,"RT":9920,"Ġfort":9921,"Ġconference":9922,"ods":9923,"Dev":9924,"Ġsupply":9925,"Ġsust":9926,"Ġtail":9927,"Ġpatterns":9928,"Ġsubstant":9929,"West":9930,"DEFAULT":9931,"Ġouter":9932,"ĠTaylor":9933,"Ġbind":9934,"Ġplanning":9935,"Ġcompl":9936,"kens":9937,"Ġchanging":9938,"Ġefficiency":9939,"constr":9940,"Ġintegration":9941,"Ġconven":9942,"ĠSource":9943,"rovers":9944,"volume":9945,"fast":9946,"mag":9947,"Ġnarrow":9948,"ĠThree":9949,"actic":9950,"Ġspecify":9951,"Ġdiam":9952,"VALUE":9953,"month":9954,"ENSE":9955,"bc":9956,"ogeneous":9957,"Append":9958,"Ġsomew":9959,"aus":9960,"ï»":9961,"Ġsubsequent":9962,"displaystyle":9963,"Ġsynchron":9964,"ĠBlock":9965,"Ġprovider":9966,"ving":9967,"ĠSciences":9968,"ĠWilson":9969,"ĠPRO":9970,"antom":9971,"ĠDar":9972,"ï»¿":9973,"ĠAre":9974,"Shape":9975,"Ġmedian":9976,"ÐµÐ½":9977,"Ġbegins":9978,"ĠMedical":9979,"NC":9980,"Ġinduced":9981,"Ġanyone":9982,"ĠLast":9983,"Ġcrew":9984,"checked":9985,"iden":9986,"Ġdifferential":9987,"Volume":9988,"warning":9989,"Ġrgba":9990,"Ġagree":9991,"nic":9992,"outheast":9993,"ĠAsh":9994,"Ġhole":9995,"Ġ\"$":9996,"Ġportr":9997,"ĠAz":9998,"publ":9999,"RC":10000,"Elements":10001,"Ġapplicable":10002,"ritical":10003,"}({\\":10004,"brace":10005,"Ġmorning":10006,"ĠSE":10007,"1955":10008,"commit":10009,"separ":10010,"Ġignore":10011,"Ġmeant":10012,"goto":10013,"ĉčĊ":10014,"Ġ>>":10015,"They":10016,"Ġnewly":10017,"how":10018,"Ġsym":10019,"Ġfootballer":10020,"changed":10021,"effect":10022,"ĠEND":10023,"tar":10024,"Ġresolve":10025,"Ġpassing":10026,"Delegate":10027,"ĠOxford":10028,"frastructure":10029,"oured":10030,"ĠBell":10031,"Ġcorner":10032,"Ġsell":10033,"FORM":10034,"Ġarrived":10035,"Ġcult":10036,"}}$.":10037,"ifts":10038,"Required":10039,"trace":10040,"ĠðŁ":10041,"ĠMuslim":10042,"Div":10043,"Ġaware":10044,"Ġscattering":10045,"Ġexplicitly":10046,"ĠLcom":10047,"Ġreceiving":10048,"ĠNext":10049,"|_{":10050,"ĠHong":10051,"aga":10052,"Ġboy":10053,"Framework":10054,"Ġcollected":10055,"Ġpurposes":10056,"}{(":10057,"Ġpersonnel":10058,"Ġperforming":10059,"Ġassembly":10060,"Ġcopies":10061,"Ġpossibly":10062,"Ġcaptured":10063,"ederation":10064,"general":10065,"ĠAlb":10066,"owner":10067,"Ġmeta":10068,"cles":10069,"ĠMember":10070,"Ġ}}":10071,"Ġidx":10072,"1941":10073,"lat":10074,"1943":10075,"1946":10076,"Writ":10077,"Ġexplained":10078,"ĠFurthermore":10079,"tan":10080,"fol":10081,"Ġboost":10082,"Ġskip":10083,"ĠBoolean":10084,"aph":10085,"Ġinfinite":10086,"Ġsizes":10087,"Ġwinner":10088,"undefined":10089,"Notification":10090,"friend":10091,"egr":10092,"zh":10093,"Ġles":10094,"Ġoscill":10095,"ĠConserv":10096,"Enter":10097,"Ġprediction":10098,"Ġexecute":10099,"occer":10100,"pag":10101,"Ġearth":10102,"ĠBrook":10103,"dc":10104,"ifndef":10105,"getValue":10106,"Ġphotograph":10107,"Ġsolve":10108,"Private":10109,"Ġfigures":10110,"pir":10111,"Ġtranslate":10112,"ĠBal":10113,"isting":10114,"Ġcontents":10115,"Ġanimation":10116,"iÄĩ":10117,"ĠLive":10118,"ĠIslands":10119,"zip":10120,"ĠNon":10121,"basic":10122,"Under":10123,"itical":10124,"Ġhouses":10125,"Ġbeat":10126,"ĠØ":10127,"Ġshock":10128,"Ġcm":10129,"Ġtempor":10130,"ilters":10131,"plan":10132,"Final":10133,"ĠCount":10134,"ropol":10135,"ĠMike":10136,"ĠScottish":10137,"Ġaccomp":10138,"Ġplanet":10139,"'];":10140,"1952":10141,"Ġlie":10142,"distrib":10143,"ĠJean":10144,"ĠHung":10145,"ĠAccess":10146,"ĠAnother":10147,"clone":10148,"ĠPen":10149,"ybr":10150,"ĠSem":10151,"Free":10152,"library":10153,"Ġsuggests":10154,"iser":10155,"Ġcoordinate":10156,"supported":10157,"ĠInput":10158,"wt":10159,"ĠMaster":10160,"Ġcouncil":10161,"Program":10162,"Ġlearned":10163,"Ġprotection":10164,"closed":10165,"Ġdie":10166,"Mouse":10167,"Ġwhereas":10168,"Ġdeclared":10169,"iga":10170,"ĠTwitter":10171,"ĠallClasses":10172,"ĠValid":10173,"ĠÐ¿":10174,"ĠNAV":10175,"ennes":10176,"ĠFund":10177,"RS":10178,"Ġinnov":10179,"Ġdialog":10180,"Ġtells":10181,"bean":10182,"Ġcomplexity":10183,"seg":10184,"ĠAli":10185,"Ġadvanced":10186,"Ġorganized":10187,"Ġsyn":10188,"Ġcustomers":10189,"Ġprepar":10190,"ĠallClassesLink":10191,"Ġtrail":10192,"INTER":10193,"Ġexplain":10194,"Ġescape":10195,"^^":10196,"Ġ[\\":10197,"ĠAM":10198,"ĠALIGN":10199,"Ġincident":10200,"Wait":10201,"ifer":10202,"Ġvacc":10203,"Ġreserved":10204,"ntario":10205,"Ġremark":10206,"Ġprops":10207,"orient":10208,"Ġsexual":10209,"ĠSpring":10210,"}}$,":10211,"IDTH":10212,"ĠRailway":10213,"Ġepisodes":10214,"Ġphysics":10215,"Release":10216,"Ġinstant":10217,"})$,":10218,"scribe":10219,"Ġevaluate":10220,"ĠCorporation":10221,"Ġtal":10222,".\",":10223,"1947":10224,"Ġancient":10225,"views":10226,"Ġgather":10227,"erence":10228,"Ġinvestigation":10229,"Ign":10230,"Sm":10231,"Vir":10232,"Wallet":10233,"ĠGuide":10234,"compile":10235,"1953":10236,"Ġdestination":10237,"Animation":10238,"Ġscenario":10239,"ycle":10240,"Ġmiles":10241,"âĢĿ.":10242,"uli":10243,"holds":10244,"ĠANY":10245,"seq":10246,"setup":10247,"Ġtmp":10248,"Scal":10249,"mass":10250,"^{+":10251,"GN":10252,"Ġrecommend":10253,"ĠKorea":10254,"ĠBa":10255,"FN":10256,"assandra":10257,"atern":10258,"glyph":10259,"ĠVector":10260,"reatest":10261,"Ġclusters":10262,"thur":10263,"Ġ\"\",":10264,"Ġemphas":10265,"Ġearned":10266,"Ġseed":10267,"Begin":10268,"ĠGuard":10269,"ĠRos":10270,"clusions":10271,"Ġbill":10272,"download":10273,"Limit":10274,"ieces":10275,"onav":10276,"ologist":10277,"Ġleadership":10278,"Ġtheoretical":10279,"Flag":10280,"Ġacademic":10281,"Ġener":10282,"SCR":10283,"Ġvehicles":10284,"Music":10285,"Ġrich":10286,"Ġpolicies":10287,"Ġmanner":10288,"METHOD":10289,"Ġtrav":10290,"ears":10291,"ĠApple":10292,";\">":10293,"]}":10294,"']['":10295,"Ġeconomy":10296,"avit":10297,"Many":10298,"trim":10299,"1954":10300,"Ġawards":10301,"ĠSIZE":10302,"Environment":10303,"Ġlargely":10304,"Sur":10305,"Ġcategories":10306,"atomic":10307,"\"].":10308,"Should":10309,"Ġweights":10310,"ĠMond":10311,"Ġadm":10312,"once":10313,"ryption":10314,"cli":10315,"Ġera":10316,"anth":10317,"Ġcitizens":10318,"Ġplanned":10319,"created":10320,"Ġconclude":10321,"Ġbudget":10322,"isa":10323,"Ġspeech":10324,"ĠSus":10325,"ĠMic":10326,"Dictionary":10327,"ressed":10328,"ultane":10329,"213":10330,"asm":10331,"antry":10332,"LINE":10333,"Ġcauses":10334,"Ð°Ð½":10335,"resolve":10336,"chart":10337,"Ġalongside":10338,"ĠAdministr":10339,"ĠRom":10340,"ĠPers":10341,"Ġfeaturing":10342,"Ġdriving":10343,"Ġblog":10344,"expand":10345,"ĠProfessor":10346,"Look":10347,"iÃ³n":10348,"cong":10349,"eled":10350,"Ġconvex":10351,"ĠWho":10352,"Ġconvers":10353,"Introduction":10354,"ĠRog":10355,"Ġfifth":10356,"ĠAlexander":10357,"Ġgraphs":10358,"GER":10359,"University":10360,"TRY":10361,"ĠVictoria":10362,"Ġreset":10363,"route":10364,"About":10365,"slice":10366,"Ġagents":10367,"Ġfacility":10368,"Endpoint":10369,"pson":10370,"ĠChristmas":10371,"ĠBerlin":10372,"Ġvalign":10373,"ĠGar":10374,"Ġcoverage":10375,"agg":10376,"Ġconfigure":10377,"Sql":10378,"Finally":10379,"Ġfragment":10380,"ERE":10381,"Screen":10382,"tc":10383,"Ġemployees":10384,"UD":10385,"ĠVill":10386,"Ã¸":10387,"VALID":10388,"bec":10389,"Ġcomputation":10390,"evin":10391,"ysics":10392,"Ġwasn":10393,"Literal":10394,"apol":10395,"Ġsy":10396,"Ġportion":10397,"activity":10398,"Ġkill":10399,"Card":10400,"catch":10401,"mouse":10402,"atters":10403,")+\\":10404,"ymmetric":10405,"|}":10406,"Ġindeed":10407,"Ġbatch":10408,"ĠAbout":10409,"puter":10410,"Ġhonor":10411,"ĠRen":10412,"ulpt":10413,"Ġ''":10414,"pair":10415,"Ġcontrolled":10416,"ourse":10417,"Forms":10418,"nesota":10419,"Ġpitch":10420,"ĠInternet":10421,"Ġsuitable":10422,"batch":10423,"onomy":10424,"Ġion":10425,"WORD":10426,"Ġinspired":10427,"USER":10428,"release":10429,"Ġtransferred":10430,"Ġcalculation":10431,"objects":10432,"wd":10433,"(.":10434,"ĠBand":10435,"Normal":10436,"British":10437,"apy":10438,"agnostic":10439,"(\"/":10440,"BI":10441,"ĠEner":10442,"osity":10443,"Ġsummar":10444,"Ġcalculations":10445,"Ġcrime":10446,"Ġaudience":10447,"ĠĠĠĠĠĠĠĠĠĠĠĠĠĠĠĠĠĠĠĠĠĠĠĠĠĠĠĠĠĠ":10448,"Ã¡n":10449,"FE":10450,"hbar":10451,"ĠTrust":10452,"Ġprojection":10453,"Ġprovince":10454,"relation":10455,"Ġlistener":10456,"uls":10457,"Ġinject":10458,"ĉĠĠĠĠĠĠĠ":10459,"Ġmasses":10460,"sync":10461,"ĠAk":10462,"ĠInf":10463,"ĠPM":10464,"gency":10465,"Ġconsult":10466,"oster":10467,"plementation":10468,"ĠObserv":10469,"Serv":10470,"Cloud":10471,"irement":10472,"Ġvalidate":10473,"Ġeyes":10474,"Ġadvance":10475,"$~":10476,"ĠConnect":10477,"GA":10478,"Ġconstants":10479,"Ġphoto":10480,"database":10481,"Ġplants":10482,"Ġinputs":10483,"Ġscales":10484,"SV":10485,"Nov":10486,"1949":10487,"ĠLater":10488,"ĠArea":10489,"Ġemb":10490,"Day":10491,"Ġ'\\":10492,"imb":10493,"ĠLag":10494,"vals":10495,"methods":10496,"Ġsolar":10497,"Ġbits":10498,"COMP":10499,"ĠAppend":10500,"International":10501,"ĠStudies":10502,"orney":10503,"ĠPlaces":10504,"Ġcrow":10505,"Ġahead":10506,"apore":10507,"UK":10508,"Ġuncertainty":10509,"Ġspecifically":10510,"Ġfeet":10511,"ĠCat":10512,"elcome":10513,"Ġcursor":10514,"arity":10515,"Ġvalidation":10516,"Ġopposite":10517,"ĠSearch":10518,"GR":10519,"Ġrecall":10520,"unes":10521,"ĠHom":10522,"ĠCase":10523,"Cur":10524,"Ġhuge":10525,"ĠPrime":10526,"scss":10527,"Join":10528,"Ġprinciple":10529,"aped":10530,"ĠSupreme":10531,"Ġwants":10532,"ĠSydney":10533,"Env":10534,"Real":10535,"pur":10536,"Ġcharged":10537,"Ġfinds":10538,"ipping":10539,"ĠLew":10540,"EventListener":10541,"****************************************************************":10542,"Cr":10543,"Ġreality":10544,"Ġinvolving":10545,"ĠNAVBAR":10546,"Ġdrink":10547,"QU":10548,"Ġfunding":10549,"oked":10550,"ĠHard":10551,"sig":10552,"Ġtsd":10553,"Ġaddresses":10554,"poly":10555,"Binary":10556,"ELD":10557,"ubble":10558,"yy":10559,"PM":10560,"Ġbands":10561,"anz":10562,"Ġ$|\\":10563,"Ġconverted":10564,"Fore":10565,")-\\":10566,"........":10567,"LOC":10568,")--":10569,"Ġ_.":10570,"Ġaccurate":10571,"ivated":10572,"ĠAirport":10573,"crypt":10574,"ĠRoute":10575,"Save":10576,"overview":10577,"Ġdependencies":10578,"Austral":10579,"Ġdance":10580,"Ġreturning":10581,"Execution":10582,"ANCE":10583,"ĠBC":10584,"Ġelev":10585,"imm":10586,"Basic":10587,"sat":10588,"Ã©e":10589,"Ġdestroyed":10590,"ruby":10591,"ationToken":10592,"Ġsun":10593,"quote":10594,"Ġtreated":10595,"Ġrequested":10596,"ĠMinistry":10597,"Ġperman":10598,"Ġther":10599,"ĠCur":10600,"blog":10601,"prep":10602,"Ġgranted":10603,"MODE":10604,"æĸ":10605,"empt":10606,"Ġthermal":10607,"Ġamplitude":10608,"REG":10609,"hab":10610,"relations":10611,"itled":10612,"Ġatmos":10613,"arest":10614,"Ġpolitics":10615,"factory":10616,"Lower":10617,"accept":10618,"iant":10619,"Ali":10620,"vertical":10621,"verter":10622,"Ġbusinesses":10623,"%\"":10624,"Ġsan":10625,"ĠRail":10626,"ipage":10627,"Ġsubstantial":10628,"ĠChannel":10629,"ĠBeach":10630,"notations":10631,"amel":10632,"dash":10633,"destroy":10634,"Raw":10635,"ĠFil":10636,"ĠFind":10637,"Ġsand":10638,"Ġsurrounding":10639,"eman":10640,"Allow":10641,"ĠRights":10642,"Ġpra":10643,"ourney":10644,"ĠAdv":10645,"relative":10646,"Ġexceed":10647,"Ġvariation":10648,"Capt":10649,"watch":10650,"runtime":10651,"Ġrobust":10652,"))$":10653,"ĠKenn":10654,"joint":10655,"Ġhockey":10656,"Association":10657,"Ġfluct":10658,"ArgumentException":10659,"some":10660,"ĠPolish":10661,"ĠSa":10662,"ushed":10663,"policy":10664,"elly":10665,"$),":10666,"Ġperhaps":10667,"1951":10668,"selector":10669,"ĠGro":10670,"Ġjobs":10671,"Ġdoor":10672,"consin":10673,"Family":10674,"ierarchy":10675,"Ġdot":10676,"inherit":10677,"attal":10678,"ĠBelg":10679,"lets":10680,"spirit":10681,"Ġadmin":10682,"ego":10683,"Ġcomputational":10684,"phia":10685,"Ġscaling":10686,"Ġdeveloping":10687,"Theme":10688,"possible":10689,"Make":10690,"icer":10691,"Ġindices":10692,"onavirus":10693,"ilbert":10694,"counter":10695,"merce":10696,"SG":10697,"ĠJacob":10698,"Ġanimals":10699,"have":10700,"trl":10701,"coll":10702,"zech":10703,"gif":10704,"ĠBon":10705,"Ġfresh":10706,"Ġloaded":10707,"ĠFair":10708,"care":10709,"visible":10710,"ORY":10711,"Ġteacher":10712,"ĠBBC":10713,"Ġengineering":10714,"origin":10715,"constructor":10716,"lesssim":10717,"Ġtroops":10718,"ĠWrite":10719,"ĠIV":10720,"ilevel":10721,"Ġserves":10722,"Ġeastern":10723,"Focus":10724,"ĠAvenue":10725,"Ġtrivial":10726,"anna":10727,"cref":10728,"edu":10729,"ĠOlympic":10730,"ĠRod":10731,"ĠDir":10732,"ĠProperty":10733,"fall":10734,"Ġbroken":10735,"1918":10736,"ĠDer":10737,"orrow":10738,"ĠApache":10739,"ĠElizabeth":10740,"ĠClient":10741,"Connect":10742,"ĠShort":10743,"MIN":10744,"perm":10745,"etherlands":10746,"CALL":10747,"Ġce":10748,"Admin":10749,"Ġmunicipality":10750,"ĠFriday":10751,"built":10752,"istribution":10753,"Ġupdates":10754,"ĠFollowing":10755,"Ġbaseball":10756,"ĠCorps":10757,"Ġscientific":10758,"ĠArgent":10759,"NV":10760,"ĠVari":10761,"ĠToronto":10762,"Ġemployed":10763,"Ġinstitutions":10764,"Ġheav":10765,"Therefore":10766,"Ġconvent":10767,"iveness":10768,"worth":10769,"Py":10770,":=":10771,"HC":10772,"Ġspring":10773,"cussion":10774,"Warning":10775,"usal":10776,":}":10777,"}$)":10778,"validate":10779,"Ġcharacteristic":10780,"Ġconsec":10781,"typen":10782,"kt":10783,"Ġmom":10784,"LSP":10785,"mn":10786,"Audio":10787,"iner":10788,"Ġrational":10789,"ĠUnivers":10790,"adelphia":10791,"700":10792,"PUT":10793,"rank":10794,",'":10795,"minipage":10796,"Ġapplying":10797,"Ġbenefit":10798,"Ġstability":10799,"heim":10800,"ĠTok":10801,"uling":10802,"Ġsys":10803,"ĠLike":10804,"inson":10805,"ĠPerson":10806,"Ġathlet":10807,"Ġenvironmental":10808,"ĠColl":10809,"urance":10810,"Ġfashion":10811,"ĠCart":10812,"ĠOs":10813,"ĠSelect":10814,"Ġpatient":10815,"Ġdiscrete":10816,"oor":10817,"integer":10818,"ĠXML":10819,"Ġpm":10820,"indu":10821,"construct":10822,"Constant":10823,"NR":10824,"rece":10825,"ÏĦ":10826,"Ġbinding":10827,"ĠNE":10828,"ĠSong":10829,"Ġexperi":10830,"/_":10831,"Ġappearances":10832,"127":10833,"Ġtransmission":10834,":[":10835,"South":10836,"Driver":10837,"istant":10838,"Compat":10839,"Ġestate":10840,"çĶ":10841,"Ġextremely":10842,"Ġbrain":10843,"rift":10844,"Ġgrew":10845,"Jan":10846,"apsed":10847,"merge":10848,"tensor":10849,"ouri":10850,"bourne":10851,"}{|":10852,"ĠEnvironment":10853,"Ġexerc":10854,"iration":10855,"ĠViet":10856,"Publ":10857,"calendar":10858,"ÑģÑĤ":10859,"plane":10860,"facebook":10861,"Ġsilver":10862,"ĠKir":10863,"Ġamb":10864,"Ġhor":10865,"tainment":10866,"Ġcompatible":10867,"ĠNa":10868,"Ġcompletion":10869,"Amount":10870,"Ġsaved":10871,"Ġcatalog":10872,"TF":10873,"raham":10874,"zo":10875,"ĠSuch":10876,"Ġ{$":10877,"aded":10878,"Validator":10879,"prec":10880,"Ġdust":10881,"Ãº":10882,"Overview":10883,"VE":10884,"illis":10885,"raq":10886,"arring":10887,"Ġcart":10888,"Ġconn":10889,"Ġsoldiers":10890,"Ġopts":10891,"%.":10892,"Native":10893,"issue":10894,"ĠTam":10895,"Ġelectronic":10896,"Hub":10897,"oes":10898,"Ġskills":10899,"typename":10900,"algorithm":10901,"Ġdecomposition":10902,"yard":10903,"ĠOS":10904,"IOException":10905,"Ġsequences":10906,"NSString":10907,"Unknown":10908,"Ġrom":10909,"exit":10910,"Ġrecognized":10911,"ifferent":10912,"Ġobjective":10913,"åĲ":10914,"ĠOntario":10915,"ĠHun":10916,"ĠAD":10917,"Ġexponential":10918,"Â°":10919,"InputStream":10920,"Ġreaction":10921,"ĠNet":10922,"Ġnewspaper":10923,"Ġsupporting":10924,"bat":10925,"urable":10926,"ĠBoy":10927,"/(":10928,"pred":10929,"ĠHas":10930,"bp":10931,"ĠOptional":10932,"pler":10933,"[-":10934,"Ġpoll":10935,"elastic":10936,"elem":10937,"BM":10938,"1936":10939,"Ġhousing":10940,"Ġseparated":10941,"variable":10942,"å®":10943,"icator":10944,"Although":10945,"Ġ\"\";":10946,"HL":10947,"Ġexecuted":10948,"His":10949,"#{":10950,"/{":10951,"ĠSteve":10952,"esome":10953,"Ġlemma":10954,"Est":10955,"Consumer":10956,"Ġphilosoph":10957,"Ġpieces":10958,"Ġcircum":10959,"Ġbehaviour":10960,"Ġsatisfying":10961,"brand":10962,"Ġ\\\"":10963,"Ġmodules":10964,"Ġtyped":10965,"creens":10966,"Ġtitles":10967,"ĠBet":10968,"ĠSpe":10969,"aska":10970,"Ġhear":10971,"/\"":10972,"constant":10973,"ĠVen":10974,"Ġcolspan":10975,"Ġrecognition":10976,"Objects":10977,"Ġprominent":10978,")}_{":10979,"ortheast":10980,"transaction":10981,"rele":10982,"Detail":10983,"ybrid":10984,"ĠSant":10985,"Ġburn":10986,"feed":10987,"uity":10988,"(--":10989,"Platform":10990,"isis":10991,"ĠCurrent":10992,"driver":10993,"III":10994,"gies":10995,"pping":10996,"ĠAnth":10997,"submit":10998,"ĠTerm":10999,"Ġattempts":11000,"Ġhappened":11001,"Ġdenoted":11002,"DATA":11003,"ĠNC":11004,"Ġmys":11005,"Ġlists":11006,"_-":11007,"Personal":11008,"=\"../../../../../../../":11009,"havior":11010,"isEmpty":11011,"ding":11012,"Serializer":11013,"ĠEnergy":11014,"ĠFROM":11015,"Ġtraject":11016,"ĠSets":11017,"Ñĩ":11018,"kwargs":11019,"Ġappre":11020,"Ġliber":11021,"extend":11022,"Annotation":11023,":`":11024,"Ġconstitu":11025,"Ġentirely":11026,"Ġabund":11027,"Ġfunds":11028,"Ġdecor":11029,"=\\\"":11030,"()),":11031,"lab":11032,"FP":11033,"Ġentropy":11034,"uda":11035,"SW":11036,"Ġrain":11037,"NET":11038,"Ġconflict":11039,"ĠSaturday":11040,"wing":11041,"']);":11042,"?âĢĿ":11043,"Ġexcell":11044,"Ġglass":11045,"Ġunable":11046,"ĠPos":11047,"Ġalert":11048,"Ġ'';":11049,"Ġbias":11050,"Ġguide":11051,"Ġsolo":11052,"ANT":11053,"Ġviolence":11054,"uffers":11055,"Mag":11056,"ĠKim":11057,"ĠRome":11058,"Ġsb":11059,"ĠMock":11060,"ĠWrit":11061,"ibration":11062,"ĠTy":11063,"Ġclock":11064,"ando":11065,"ĠSat":11066,"Usage":11067,"Ġpowers":11068,"Ġwish":11069,"ĠSche":11070,"attery":11071,"Ġtested":11072,"elihood":11073,">)":11074,"opher":11075,"_);":11076,"Ġhistoric":11077,"algebra":11078,"ORDER":11079,"ĠWat":11080,"Ġstatistical":11081,"Ġinjury":11082,"apse":11083,"square":11084,"Ġbow":11085,"Ġknew":11086,"1938":11087,"Ġcovers":11088,"design":11089,"Ġindicated":11090,"Ġpromoted":11091,"Ġpredicted":11092,"functions":11093,"Ġexpert":11094,"Ġcoefficient":11095,"ĠSym":11096,"shal":11097,"Ġcriminal":11098,"ordan":11099,"Ġdire":11100,"Ġdeploy":11101,"ĠResponse":11102,"Ġassistant":11103,"Ġdefense":11104,"Ġmetrics":11105,"Ġindustrial":11106,"Validation":11107,"resize":11108,"Ġinverse":11109,"SELECT":11110,"Ġapilevel":11111,"duration":11112,"assertTrue":11113,"Constructor":11114,"Edge":11115,"Ġminister":11116,"Ġmodify":11117,"Microsoft":11118,"ĠDescription":11119,"Ġentr":11120,"jd":11121,"Ġinterpre":11122,"000000":11123,"ourier":11124,"ĠLind":11125,"Ġtags":11126,"Ġvotes":11127,"Ġpossibility":11128,"åħ":11129,"aired":11130,"Ġsuperv":11131,"ĠLady":11132,"Ġbenefits":11133,"een":11134,"jan":11135,"paper":11136,"dig":11137,"Ant":11138,"Ġrural":11139,"retch":11140,"Binding":11141,"Ġdanger":11142,"Ġhosted":11143,"jet":11144,"hbox":11145,"messages":11146,"isely":11147,"ĠSC":11148,"iy":11149,"ĠBooks":11150,"ĠWIT":11151,"alert":11152,"osed":11153,"lywood":11154,"Ġà¤":11155,"Proto":11156,"Ġdefend":11157,"regon":11158,"Ġcoinc":11159,"Prev":11160,"ĠSanta":11161,"ï¼Į":11162,"Ġaccident":11163,"Ġaspects":11164,"Ġcert":11165,"Ġsmart":11166,"Ġagric":11167,"Ġrepresentative":11168,"Folder":11169,"peror":11170,"collect":11171,"Ġmerge":11172,"Ġbulk":11173,"Ġcredit":11174,"Pers":11175,"memory":11176,"ĠPakistan":11177,"ĠâĢ¦":11178,"adesh":11179,"ĠRecord":11180,"ropical":11181,"&=&":11182,"opts":11183,"Ġstandards":11184,"Ġsufficiently":11185,"=[":11186,"Ġfell":11187,"Ġlumin":11188,"Static":11189,"\"/></":11190,"Ġspac":11191,"Ġfmt":11192,"Ġnarr":11193,"ĠFox":11194,"ĠDB":11195,"isor":11196,"ctic":11197,"Light":11198,"Ġcontrovers":11199,"Ġauthority":11200,"onymous":11201,"SSL":11202,"weg":11203,"ĠHo":11204,"including":11205,"FUN":11206,"Ġletters":11207,"animation":11208,"}})":11209,"Ġnamely":11210,"Ġdropped":11211,"getElementById":11212,"will":11213,"Ġgenerator":11214,"ogy":11215,"urst":11216,"available":11217,"ĠAmericans":11218,"Rate":11219,"quant":11220,"ĠPR":11221,"!\"":11222,"Ġpermission":11223,"))\\":11224,"Ð¾Ð²":11225,"Ġclosely":11226,"ĠRow":11227,"ĠMinnesota":11228,"Ġsql":11229,"Ġadministrative":11230,"ĠEngineering":11231,"ĠRaj":11232,"ĠRa":11233,"ĠDEFAULT":11234,"Ġly":11235,"Ġrestr":11236,"omatic":11237,"Ġcharges":11238,"Pres":11239,"ĠUnit":11240,"highlight":11241,"Ġsignals":11242,"ĠPlease":11243,"inton":11244,"Ġhappens":11245,"Ġ_,":11246,"ĠMarg":11247,"forEach":11248,"kh":11249,"sym":11250,"Ø±":11251,"eveloper":11252,"itter":11253,"Ġorbit":11254,"Ġvisited":11255,"radio":11256,"analy":11257,"ĠKorean":11258,"Sources":11259,"ĠCare":11260,"Ġliqu":11261,"sent":11262,"Points":11263,"Ġelif":11264,"Ġdrawn":11265,"Setting":11266,"Ġsimultane":11267,"disable":11268,"chant":11269,"Ġmountain":11270,"Ġintersection":11271,"UC":11272,"program":11273,"Ġfeedback":11274,"asters":11275,"Once":11276,"Fact":11277,"Ġ\"%":11278,"iples":11279,"Ġholding":11280,"Ġfaith":11281,"UES":11282,"Ġradiation":11283,"Ġpub":11284,"paragraph":11285,"Ep":11286,"ingly":11287,"ĠVideo":11288,"etes":11289,"ĠNiger":11290,"Ġfan":11291,"ĠWisconsin":11292,"prob":11293,"Word":11294,"BY":11295,"ĠCub":11296,"jack":11297,"Complete":11298,"Ġlinked":11299,"Ġconversion":11300,"ĠWars":11301,"night":11302,"Ġeconom":11303,"encing":11304,"ĠStatus":11305,"Ġinvestment":11306,"ĠQueens":11307,"series":11308,"Ġinvent":11309,"Ġpermissions":11310,"navigation":11311,"rang":11312,"Ġcontrols":11313,"Ġdisplayed":11314,"BPACK":11315,"ĠCEO":11316,"]$.":11317,"ĠSab":11318,"Ġsampling":11319,"Ġexplanation":11320,"Ġsubjects":11321,"CLASS":11322,"Ġurban":11323,"Ġdecades":11324,"ĠAnton":11325,"perial":11326,"Ġintroduction":11327,"ĠDespite":11328,"Ġwarning":11329,"Ġcanonical":11330,"Ġsatisfied":11331,"Ġconsequence":11332,"Ġofficially":11333,"ĠLear":11334,"Ġopacity":11335,"gradient":11336,"1937":11337,"compare":11338,"PHP":11339,"plicity":11340,"Ġidentifier":11341,"Ġbug":11342,"Ġseats":11343,"Insert":11344,"isset":11345,"redu":11346,"NotFound":11347,"Ġcomputing":11348,"ĠON":11349,"ika":11350,"ĠNations":11351,"ĠNative":11352,"Ġinn":11353,"yal":11354,"^*$":11355,"ĠSon":11356,"Ġweather":11357,"ighth":11358,"Ġspons":11359,"akh":11360,"porate":11361,"Ġinvestigate":11362,"quarters":11363,"ĠInvest":11364,"Ġguard":11365,"Ġfee":11366,"1917":11367,"Ġbed":11368,"!\\":11369,"Sharp":11370,"Ġidentical":11371,"ĠCore":11372,"Ġ'./":11373,"wig":11374,"Ġthank":11375,"Tax":11376,"Nullable":11377,"Plan":11378,"Ġstats":11379,"spacing":11380,"license":11381,"PD":11382,"Ġscheduled":11383,"Ġrig":11384,"ĠStandard":11385,"warn":11386,"Ġcommittee":11387,"Ġselector":11388,"uy":11389,"Copyright":11390,"Ġcold":11391,"Ġinterior":11392,"Ġrelax":11393,"Ġconsisting":11394,"agen":11395,"Ġexpos":11396,")}}":11397,"Ġpayload":11398,"ystal":11399,"Ġdefines":11400,"ĠNetherlands":11401,"Ġattached":11402,"Ġhers":11403,"ĠLes":11404,"Ġmusicians":11405,"Dav":11406,"ĠLat":11407,"igate":11408,"owa":11409,"Ġunderst":11410,"Ġsecure":11411,"Ġclients":11412,"Ġpublication":11413,"Ġcarbon":11414,"ĠEth":11415,"Black":11416,"ĠFOR":11417,"Ġaffili":11418,"Ġauthorities":11419,"/.":11420,"ĠLabor":11421,"Ms":11422,"specific":11423,"twitter":11424,"nesday":11425,"Ġele":11426,"slash":11427,"ĠProt":11428,"Html":11429,"Ġfilled":11430,"Ġcolors":11431,"Ġloading":11432,"ĠCountry":11433,"Ġcustomer":11434,"Ġast":11435,"utenant":11436,"})}":11437,"Ġwitness":11438,"Ġvent":11439,"ĠHay":11440,"ĠChange":11441,"Throw":11442,"ĠPremier":11443,"AI":11444,"Ġchallenges":11445,"native":11446,"Ġdatasets":11447,"ĠCas":11448,"Ġcommands":11449,"arguments":11450,"YY":11451,"CHAR":11452,"ĠCambridge":11453,"Resolver":11454,"uma":11455,"Ġcompeted":11456,"Ġperformances":11457,"ione":11458,"sb":11459,"iggs":11460,"sheet":11461,"Fn":11462,"Export":11463,"ĠGiven":11464,"Ġnavbar":11465,"resentation":11466,"mean":11467,"Ġfrequently":11468,"Proof":11469,"standard":11470,"Ġvess":11471,"ĠOt":11472,"ifted":11473,"Ben":11474,"deprecated":11475,"Ġintensity":11476,"Ġcoal":11477,"establ":11478,"Qual":11479,"Ġcolour":11480,"ĠPay":11481,"STRING":11482,"ĠApplication":11483,"Ġtargets":11484,"Ġpromise":11485,"Ġending":11486,"ĠPrize":11487,"Tele":11488,"Ġsending":11489,"×ķ":11490,"ĠRegiment":11491,"Ġiniti":11492,"Segment":11493,"Ġmach":11494,"1919":11495,"Ġfaster":11496,"logo":11497,"$:":11498,"aked":11499,"scala":11500,"Ġraces":11501,"OF":11502,"fmt":11503,"Bal":11504,"subject":11505,"states":11506,"sequence":11507,"Renderer":11508,"Ġpref":11509,"Ġdram":11510,"DIS":11511,"cludes":11512,"itative":11513,"Ġrefers":11514,"cest":11515,"ĠStock":11516,"Ġprecision":11517,"fetch":11518,"REE":11519,"Bel":11520,"fff":11521,"\\}$.":11522,"ronze":11523,"Ġhabit":11524,"Ġresulted":11525,"toBe":11526,"ĠME":11527,"Ġcontemporary":11528,"herent":11529,"ĠLoad":11530,"Site":11531,"Ġcas":11532,"ĠBru":11533,"plicated":11534,"Ġtransactions":11535,"anches":11536,"ĠLtd":11537,"Ġadvoc":11538,"oses":11539,"fb":11540,">\"":11541,".\"\"\"":11542,"ĠLanguage":11543,"Signature":11544,"pload":11545,"Ġstatements":11546,"Ġ@\"":11547,"ĠDoug":11548,"Î¹":11549,"Ġhorizontal":11550,"Ġcab":11551,"LOW":11552,"Ġproperly":11553,"Ġwire":11554,"Ġeye":11555,"ĠRevolution":11556,"Mapper":11557,"zona":11558,"ARN":11559,"Ġpriority":11560,"ailability":11561,"Weight":11562,"Ġwinners":11563,"Ġnotable":11564,"Ġprepared":11565,"ĠTai":11566,"rupted":11567,"Ġsculpt":11568,"Ġsleep":11569,"Ġcancell":11570,"Ġstyles":11571,"ĠOnce":11572,"UMM":11573,"ĠAT":11574,"Ġfuel":11575,"mathop":11576,"CONT":11577,"sun":11578,"ĠTurn":11579,"Ð¿":11580,"everal":11581,"cue":11582,"ĠCG":11583,"Ġequilibrium":11584,"Ġextent":11585,"Ġextensive":11586,"6666":11587,"Navigation":11588,"Rout":11589,"Ġdream":11590,"ropic":11591,"Ġexpressions":11592,"oval":11593,"ĠDor":11594,"Ġapproved":11595,"INST":11596,"ĠRemove":11597,"Ã¥":11598,"Ġruntime":11599,"Ġprompt":11600,"Ġtheories":11601,"folio":11602,"ania":11603,"Given":11604,"okes":11605,"Ġcharacteristics":11606,"ques":11607,"outs":11608,"Remote":11609,"phase":11610,"ERS":11611,"Strategy":11612,"Ġradial":11613,"observ":11614,"Ġadjacent":11615,"prise":11616,"Clear":11617,"bigl":11618,"iem":11619,"ĠMir":11620,"Ġrepresentations":11621,"WEBPACK":11622,"emet":11623,"Ġchampion":11624,"Ġdependent":11625,"ĠIllegal":11626,"chestra":11627,"mk":11628,"}}_{\\":11629,"LY":11630,"Ġintegrated":11631,"Ġig":11632,"SCRIPT":11633,"1935":11634,"ĠTransport":11635,"shop":11636,"Î½":11637,"ĠHan":11638,"ANG":11639,"ĠGer":11640,"ĠBall":11641,"/\">":11642,"pages":11643,"ulating":11644,"Ġpayment":11645,"Abs":11646,"Phone":11647,"ĠDavis":11648,"tp":11649,"ĠDuke":11650,"á»":11651,"Ġeffectively":11652,"Ġestimation":11653,"Ġ'',":11654,"anga":11655,"ĠForest":11656,"Ġarms":11657,"Pred":11658,"regular":11659,"ĠGreg":11660,"islative":11661,"ĠLay":11662,"mak":11663,"Ġmathemat":11664,"Ġexplo":11665,"ented":11666,"iper":11667,"Following":11668,"Ġteaching":11669,"Ġconcerns":11670,"Den":11671,"asty":11672,"ĠSingapore":11673,"Watch":11674,"IMPORTED":11675,"Ġsale":11676,"ĠBudd":11677,"news":11678,"Just":11679,"Ġmel":11680,"ĠDC":11681,"}[\\":11682,"engers":11683,"Ġcircuit":11684,"Ġmyst":11685,"ĠBox":11686,"geo":11687,"Ġstores":11688,"Ġchecked":11689,"Ġgraduated":11690,"Ġmodal":11691,"Power":11692,"icing":11693,"fp":11694,"ĠLjava":11695,"ĠĠĠĠĠĠĠĠĠĠĠĠĠĠĠĠĠĠĠĠĠĠĠĠĠĠĠĠĠĠĠĠĠ":11696,":@\"":11697,"Ġmunicipal":11698,"ĠSM":11699,"Ġlowest":11700,"lyn":11701,"Information":11702,"Ġpromotion":11703,"ĠBat":11704,"Ġwing":11705,"Ġtemple":11706,"Ġvot":11707,"ĠStephen":11708,"tooltip":11709,"Cursor":11710,"ingham":11711,"ellite":11712,"umps":11713,"ibliography":11714,"enna":11715,"Dependency":11716,"Ġreform":11717,"Ġhelps":11718,"Ġwaiting":11719,"ician":11720,"\\;":11721,"etal":11722,"Ġalter":11723,"Ġbelief":11724,"getId":11725,"uating":11726,"Span":11727,"ennessee":11728,"DOM":11729,"Ġopinion":11730,"assign":11731,"ĠKal":11732,"Ġgirls":11733,"Ġmaxim":11734,"Ġarc":11735,"Ġmaybe":11736,"ĠAbstract":11737,"ĠGree":11738,"negative":11739,"cfg":11740,"Ġ\".":11741,"ĠPhiladelphia":11742,"Ġfails":11743,"Most":11744,"1900":11745,"Ġarts":11746,"Ġfavour":11747,"commons":11748,"encode":11749,"eties":11750,"ĠDA":11751,"Addr":11752,"Ġmist":11753,"Batch":11754,"ÛĮ":11755,"abric":11756,"TestCase":11757,"Ġexplore":11758,"bigr":11759,"1914":11760,"Pod":11761,"Ġaccounts":11762,"ĠGP":11763,"Ġlooked":11764,"]$,":11765,"season":11766,"ĠAgain":11767,"canvas":11768,"Ġhotel":11769,"ĠLow":11770,"iti":11771,"Ġfake":11772,"Ġlosing":11773,"Ġendpoint":11774,"Ġabandon":11775,"loaded":11776,"Ġpurchased":11777,"ĠMonday":11778,"ĠEvery":11779,"1933":11780,"Ġprotein":11781,"105":11782,"Ġcampus":11783,"VAR":11784,"Ġschedule":11785,"ĠWARRAN":11786,"ĠIraq":11787,"Coll":11788,"dark":11789,"ordinate":11790,"Ġcomposer":11791,"Ġsync":11792,"ĠHal":11793,"Ġrenamed":11794,"ĠCloud":11795,"ĠEver":11796,"Ġpixel":11797,"ĠCond":11798,"ĠBridge":11799,"Ġtriple":11800,"ĠCorn":11801,"âĢĺ":11802,"Ġmal":11803,"ĠDam":11804,"ĠStadium":11805,"Ġlogic":11806,"Ġwarm":11807,"audio":11808,"Ġdiver":11809,"ĠSimple":11810,"äº":11811,"Ġing":11812,"Ġderivative":11813,"ĠGre":11814,"connected":11815,"ĠGolden":11816,"DM":11817,"ĠStream":11818,"obs":11819,"Ġassumptions":11820,"ptic":11821,"Ġgained":11822,"Ã©s":11823,"Where":11824,"ships":11825,"IAL":11826,"Ġmigr":11827,"Ġfighting":11828,"imp":11829,"Tile":11830,",.":11831,"Ġthanks":11832,"Ġversus":11833,"alink":11834,"ĠTal":11835,"react":11836,"Ġpipeline":11837,"DEF":11838,"Declaration":11839,"Another":11840,"Ġbiggest":11841,"Ġmouse":11842,"Direction":11843,"andy":11844,"Ġquantity":11845,"Contact":11846,"Login":11847,"ategor":11848,"\"},":11849,"Ġequality":11850,"moment":11851,"RED":11852,"Ġneural":11853,"ursday":11854,"ASSERT":11855,"ĠCost":11856,"Ġmo":11857,".*;":11858,",\\\\":11859,"Ġencounter":11860,"Ġpreced":11861,"ĠColorado":11862,"don":11863,"Ġjet":11864,"loading":11865,"uts":11866,"jQuery":11867,"putation":11868,"Ġconsumer":11869,"Ġlogging":11870,"Ġindicating":11871,"Processor":11872,"iations":11873,"ĠWinter":11874,"Shift":11875,"Ġmand":11876,"uesday":11877,"VICE":11878,"ĠThrough":11879,">;":11880,"sdk":11881,"elements":11882,"reader":11883,"Ġstone":11884,"het":11885,"ounded":11886,"ulus":11887,"Groups":11888,"Ġ'.":11889,"ĠFull":11890,"tle":11891,"Ġmaximal":11892,"Material":11893,"OPT":11894,"tenance":11895,"extra":11896,"Encoding":11897,"Ġreverse":11898,"Ġcriteria":11899,"NUM":11900,"eros":11901,"generate":11902,"Ġ\\]":11903,"Ġlimitations":11904,"ĠEP":11905,"erring":11906,"analysis":11907,"ĠIndeed":11908,"Ġsocket":11909,"binding":11910,"ĠLic":11911,"selection":11912,"Lemma":11913,"Ġcaref":11914,"urches":11915,"Ġpreserv":11916,"Ġvideos":11917,"Ġcovering":11918,"arios":11919,"ĠContent":11920,"hedral":11921,"Library":11922,"Ġcodes":11923,"east":11924,"Ġcrisis":11925,"Ġherself":11926,"ativ":11927,"Ġpeace":11928,"Ġguest":11929,"ARD":11930,"Ġyounger":11931,"Ġneutr":11932,"ĠDeb":11933,"Ġterritory":11934,"eness":11935,"Eval":11936,"Pack":11937,"uning":11938,"Ġ'%":11939,"Ġfounder":11940,"aval":11941,"Failure":11942,"Errors":11943,"Ġoccasion":11944,"Ġdefeat":11945,"ĠMcC":11946,"arry":11947,"Ġbeautiful":11948,"Ġapart":11949,"Ġtrip":11950,"requency":11951,"?\"":11952,"Cmd":11953,"emptyset":11954,"Bottom":11955,"Ġdrag":11956,"ibraries":11957,"ä½":11958,"Ġna":11959,"Drop":11960,"directory":11961,"Ġcovari":11962,"uj":11963,"}}.":11964,";|":11965,"ĠWH":11966,"inals":11967,"âĢĿ,":11968,"pid":11969,"mad":11970,"ĠDigital":11971,"1934":11972,"LED":11973,"Li":11974,"Ġdx":11975,"Ġmoves":11976,"ĠRad":11977,"ĠBrad":11978,"pin":11979,"1929":11980,"Ġhair":11981,"ATED":11982,"Ġcontrad":11983,"Ġembedding":11984,"ktop":11985,"}}^{\\":11986,"Ġmarg":11987,"Ġpredictions":11988,"emetery":11989,"Ġexpatriate":11990,"ĠStory":11991,",{\\":11992,"cross":11993,"Ġpartnership":11994,"ĠOregon":11995,"vect":11996,"ĠSweden":11997,"French":11998,"tiny":11999,"Ġconfidence":12000,"unately":12001,"mx":12002,"ĠBefore":12003,"ellij":12004,"Ġmixing":12005,"ĠCR":12006,"ĠAthlet":12007,"Ġprotest":12008,"Ġhouseholds":12009,"]))":12010,"ĠServer":12011,"ĠAdam":12012,"ĠAge":12013,"verage":12014,"stage":12015,"cow":12016,"ĠNorm":12017,"ĠSwedish":12018,"vertex":12019,"Îµ":12020,"ĠIR":12021,"lu":12022,"ĠRon":12023,"period":12024,"pkg":12025,"Ġsuffered":12026,")\",":12027,"ĠMountain":12028,"Ġedit":12029,"ĠChildren":12030,"Ġvice":12031,"Ġexports":12032,"ĠSH":12033,"Ġ\">":12034,"alias":12035,"1928":12036,"Ġbodies":12037,"Drawing":12038,"Ġdiagonal":12039,"antasy":12040,"Ġcreates":12041,"ĠWIDTH":12042,"Bool":12043,"UST":12044,"ongo":12045,"ĠOcean":12046,"cline":12047,"HEAD":12048,"tz":12049,"ĠJoh":12050,"wegian":12051,"attalion":12052,"trivial":12053,"rf":12054,"ĠGallery":12055,"omot":12056,"ĠLang":12057,"ĠStruct":12058,"direction":12059,"ordon":12060,"Tube":12061,"Ġdefinitions":12062,"=$":12063,"deep":12064,"}\\,\\":12065,"ĠEric":12066,"ĠWel":12067,"intellij":12068,"DataType":12069,"UND":12070,"riterion":12071,"Ġiteration":12072,"Ġped":12073,"Ġ^{":12074,"Ġturb":12075,"ĠEll":12076,"FM":12077,"Ġdoctor":12078,"Ġ>>>":12079,"Depth":12080,"Ġvision":12081,"codec":12082,"ĠâĢ¢":12083,"ĠFord":12084,"Ġ<-":12085,"eral":12086,"ĠMill":12087,"Ġtemperatures":12088,"German":12089,"Ġparticipants":12090,"ĠOperation":12091,"Ġaw":12092,"ĠĠĠĠĠĠĠĠĠĠĊ":12093,"hd":12094,"Ġstuff":12095,"comb":12096,"Star":12097,"blob":12098,"Ġkick":12099,"Ġjudge":12100,"Ġnegot":12101,"parallel":12102,"Same":12103,"expression":12104,"Ġparticipated":12105,"Ġpurchase":12106,"Ġrout":12107,"Axis":12108,"gp":12109,"ĠConfiguration":12110,"ĠDelete":12111,"ACH":12112,"Ġagency":12113,"Ġdiscrim":12114,"nob":12115,"Ġnecessarily":12116,"ĉĠĠ":12117,"ATOR":12118,"Ġyellow":12119,"Ġcommitted":12120,"Win":12121,"bus":12122,"leton":12123,"1932":12124,"ĠĠĠĠĠĠĠĠĠĠĠĠĠĠĠĠĠĠĠĠĠĠĠĠĠĠĠĠĠĠĠĠĠĠĠĠĠĠĠĠĠĠĠĠĠĠĠ":12125,"Ġrecommended":12126,"ipher":12127,"130":12128,"INSERT":12129,"ambig":12130,"Ġanimal":12131,"Ġpiano":12132,"Ġstands":12133,"ĠVirtual":12134,"kish":12135,"Diagnostics":12136,"repository":12137,"anchor":12138,"irth":12139,"Ġproto":12140,"ĠInstead":12141,"Metrics":12142,"contents":12143,"Ġhypothesis":12144,"Ġstorm":12145,"Identity":12146,"Ġcontest":12147,"Christ":12148,"added":12149,"Ġbomb":12150,"Ġadvent":12151,"osl":12152,"Users":12153,"forcement":12154,"Ġprecisely":12155,"115":12156,"ĠPC":12157,"Ġtaught":12158,"Ġfaculty":12159,"Messages":12160,"Console":12161,"ayed":12162,"è¯":12163,"Ġspher":12164,"touch":12165,"ĠRight":12166,"Ġwins":12167,"ĠBuilding":12168,"Ġhandling":12169,"ĠBishop":12170,"ĠNaz":12171,",...":12172,"Ġseek":12173,"Ġperspective":12174,"AE":12175,"Ġtowns":12176,"Accept":12177,"Ġdense":12178,"ĠHou":12179,"actual":12180,"vature":12181,"gebr":12182,"shell":12183,"bmatrix":12184,"Plot":12185,"Ġmanifold":12186,"Ġbat":12187,"Ġwonder":12188,"1910":12189,"ĠOnline":12190,"Ġpasses":12191,"SF":12192,"Ġinfer":12193,"ĠMoh":12194,"Ġgone":12195,"Sol":12196,"Ġscr":12197,"ivacy":12198,"Ġnob":12199,"written":12200,"wi":12201,"ĠKansas":12202,"ĠHart":12203,"ĠAppendix":12204,"ropolitan":12205,"Ġthinking":12206,"ĠSquad":12207,"Ġminute":12208,"ĠToday":12209,"itories":12210,"gi":12211,"MAP":12212,"mitter":12213,"AST":12214,"ĠRose":12215,"Ġdoll":12216,"validation":12217,"ONG":12218,"avelength":12219,"acr":12220,"ASK":12221,"Center":12222,"Ġri":12223,"Ġarrang":12224,"longrightarrow":12225,"å¤":12226,"ĠTerr":12227,"Ġsud":12228,"izers":12229,"ĠLev":12230,"Ġstopped":12231,"ĠResult":12232,"Ġpapers":12233,"ickets":12234,"Ġaria":12235,"Arguments":12236,"ĠMit":12237,"acher":12238,"Warn":12239,"repeat":12240,"phony":12241,"Ġclassic":12242,"ochastic":12243,"rell":12244,"apl":12245,"ĠLewis":12246,"ĠIndiana":12247,"ivals":12248,"iota":12249,"Ġphoton":12250,"Random":12251,"ĠStaff":12252,"Ġinitialize":12253,"icular":12254,"102":12255,"Timer":12256,"ĠPython":12257,"phrase":12258,"Ġopportunities":12259,"Ġiron":12260,"Ġpractices":12261,"Observer":12262,"Ġgravity":12263,"ĠINTO":12264,"ĠAtlantic":12265,"licenses":12266,"agan":12267,"\">(":12268,"Ġultimately":12269,"Ġexcess":12270,"Rot":12271,"Ġwinter":12272,"vard":12273,"hook":12274,"Ġthousands":12275,"Ġdelivery":12276,"1922":12277,"Ġevaluated":12278,"dfrac":12279,"ĠVi":12280,"ĠIndones":12281,"good":12282,"\\)":12283,"ĠMissouri":12284,"ĠPrinc":12285,"ĠBrig":12286,"CONFIG":12287,"UV":12288,"112":12289,"]{\\":12290,"ĠMun":12291,"inos":12292,"Ð·":12293,"Ġgovernor":12294,"ĠCSS":12295,"istogram":12296,"remarks":12297,"Ġcorrectly":12298,"ĠForeign":12299,"Ġ{},":12300,"Ġgenerating":12301,"UMMARY":12302,"Bounds":12303,"Ġarrested":12304,"adoc":12305,"atever":12306,"Ġeasier":12307,"Ġnonlinear":12308,"ĠChen":12309,"(['":12310,"Ġhop":12311,"360":12312,"hal":12313,"Ġroughly":12314,"ĠPhilippines":12315,"Ġ$_":12316,"Ġpractical":12317,"ĠSite":12318,"heading":12319,"hot":12320,"Previous":12321,"wik":12322,"Ġoffering":12323,"Cent":12324,"Ġscores":12325,"ensities":12326,"Standard":12327,"Oct":12328,"Ġimmediate":12329,"Deprecated":12330,"dam":12331,"Ġorb":12332,"viewport":12333,"mac":12334,"Prof":12335,"ĠByte":12336,"elle":12337,"Ġyards":12338,"Ġdisp":12339,"Rob":12340,"ĠĠčĊ":12341,"Ġvariance":12342,"TY":12343,"Ġbold":12344,"Ġsky":12345,"Ġwa":12346,"Ġgene":12347,"akers":12348,"Ġderive":12349,"$_{":12350,"Reset":12351,"Ġdates":12352,"Ġinteract":12353,"Ġhall":12354,"roph":12355,"Ġdisap":12356,"ĠMiller":12357,"Ġcub":12358,"speed":12359,"Please":12360,"tfrac":12361,";|&":12362,"clip":12363,"Counter":12364,"ĉĠĠĠĠ":12365,"Timestamp":12366,"Life":12367,"Ġthin":12368,"Ġstages":12369,"Ġrecru":12370,"Ġcloser":12371,"ĠTurkey":12372,"Ġkeeping":12373,"Ġtd":12374,"Ġdocumentary":12375,"gradle":12376,"GroupName":12377,"Ġnovels":12378,"$};":12379,"Exists":12380,"rame":12381,"Frames":12382,"Her":12383,"parts":12384,"(()":12385,"Series":12386,"ruption":12387,"ÙĦ":12388,"Ġmanage":12389,"ĠModern":12390,"abc":12391,"former":12392,"Cancel":12393,"django":12394,"was":12395,",\\,\\":12396,"Ġoverflow":12397,"Ġpixels":12398,"ĠTree":12399,"previous":12400,"Ġscholar":12401,"Ġpacket":12402,"æķ":12403,"ĠPier":12404,"ĠclassName":12405,"Ġengineer":12406,"Ġ$,":12407,"gz":12408,"complex":12409,"ĠRoss":12410,"ĠDark":12411,"Ġessentially":12412,"Chain":12413,"1927":12414,"})=":12415,"Bits":12416,"!<":12417,"Ġrelationships":12418,"Old":12419,"×Ļ":12420,"aks":12421,"ĠPot":12422,"Contents":12423,"Like":12424,"vee":12425,"_)":12426,"Ġvariant":12427,"Ġstrategies":12428,"loss":12429,"~~~~~~~~":12430,"acon":12431,"Lib":12432,"Ġcouldn":12433,"ĠMilitary":12434,"Ġfestival":12435,"Ġsymbols":12436,"Ġpenal":12437,"Ġworker":12438,"Ġopposition":12439,"^{*":12440,"utors":12441,"Gui":12442,"Ġrh":12443,"1924":12444,"stances":12445,"ĠCaptain":12446,"Ġconclusion":12447,"altColor":12448,"Ġinterpretation":12449,"ĠTennessee":12450,"Ġment":12451,"ĠUl":12452,"ĠÐ²":12453,"jax":12454,"ras":12455,"gov":12456,"ĠCastle":12457,"respons":12458,"(\"#":12459,"Ġframes":12460,"Ġnormalized":12461,"offs":12462,"ĠMaria":12463,"Ġabsence":12464,"Ġtwenty":12465,"ĠCreates":12466,"oda":12467,"Ġbreaking":12468,"Ġopposed":12469,"ĠAC":12470,"ownt":12471,"ĠAh":12472,"distance":12473,"LIST":12474,"spin":12475,"Permission":12476,"ĠFac":12477,"ĠPromise":12478,"inating":12479,"Ġprofession":12480,"Ġwealth":12481,"Ġtitled":12482,"Ġparish":12483,"isson":12484,"ĠOutput":12485,"urrence":12486,"vironments":12487,"Ġphotos":12488,"ĠIL":12489,"ĠPit":12490,"Ġenhance":12491,"Ġdelivered":12492,"Ġtopological":12493,"ĠPrint":12494,"ĠMO":12495,"Ġhappy":12496,"ĠCzech":12497,"Ġenergies":12498,"Ġrestricted":12499,"Ġgender":12500,"Ġdeclare":12501,"dag":12502,"Ġdelta":12503,"ĠGrant":12504,"Ġintermediate":12505,"Ġflows":12506,"Ġclinical":12507,"ĠFood":12508,"allest":12509,"Ga":12510,"Ġaid":12511,"Ġquasi":12512,"Ġscoring":12513,"Ġranked":12514,"Ġ|=":12515,"Ġconcentration":12516,"ĠBuilder":12517,"Ġsurg":12518,"Ġsevent":12519,"Ġignored":12520,"ASE":12521,"Tasks":12522,"Android":12523,"Ġcompliance":12524,"BIT":12525,"Ġconsecutive":12526,"Ġqualified":12527,"Ġdomestic":12528,"ĠSerb":12529,"you":12530,"ĉĉĉĉĉĉĉĉĉĉ":12531,"ĠSky":12532,"Ġrugby":12533,"Caml":12534,"Ġbelongs":12535,"******":12536,"Ġbriefly":12537,"}))":12538,"ĠMemorial":12539,"Ġpromote":12540,"ĠReference":12541,"ĠDouble":12542,"Ġmail":12543,"ĠNever":12544,"North":12545,"ĠSound":12546,"1931":12547,"Zone":12548,"scriptstyle":12549,"Ġhomes":12550,"Ġalleged":12551,"Ġease":12552,"uplicate":12553,"Ġwindows":12554,"ĠDonald":12555,"ante":12556,"ArrayList":12557,"sha":12558,"uble":12559,"Women":12560,"Buf":12561,"Ġparliament":12562,"Ġdeform":12563,"ĠHighway":12564,"kernel":12565,"photon":12566,"dispatch":12567,"Ġspl":12568,"Ġsupposed":12569,"Original":12570,"Ġcollaboration":12571,"Ġvolunte":12572,"Ġmerged":12573,"Ġimprovement":12574,"ĠEff":12575,"FIELD":12576,"1024":12577,"+(":12578,"Ġtight":12579,"inus":12580,"may":12581,"Optional":12582,"PROC":12583,"ĠPut":12584,"Ġproduces":12585,"Vol":12586,"Ġmes":12587,"oust":12588,"Ġposter":12589,"ĠHarry":12590,"ĠCommunic":12591,"111":12592,"Hom":12593,"Ġrecovery":12594,"Ġalias":12595,"Ġrepository":12596,"ĠQuery":12597,"keep":12598,"Holder":12599,"Ġdepos":12600,"Ġsomewhat":12601,"libs":12602,"gebras":12603,"fred":12604,"ĠContext":12605,"party":12606,"efe":12607,"1234":12608,"Ġenumer":12609,"Consider":12610,"Ġcaught":12611,"Dat":12612,"convert":12613,"phantom":12614,"ĠMalays":12615,"Ġfemales":12616,"Future":12617,"Ġreplacement":12618,"repo":12619,"Ġoperate":12620,"Ġwalls":12621,"beans":12622,"Ġprogramme":12623,"ixtures":12624,"Ġrejected":12625,"ĠCov":12626,"tl":12627,"Ġuniversal":12628,"theless":12629,"puted":12630,"ĠSto":12631,"ĠEntertainment":12632,"ENTRY":12633,"frag":12634,"ĠLem":12635,"ĠGh":12636,"wick":12637,"ĠPur":12638,"ĠReb":12639,"cassandra":12640,"ĠBan":12641,"Ġqueries":12642,"ĠLeon":12643,"ĠFuture":12644,"Ġfear":12645,"Ġchoices":12646,"IZ":12647,"comes":12648,"Ġemotion":12649,"Master":12650,"Alloc":12651,"ĠJson":12652,"Ġpeer":12653,"\\}\\":12654,"Ġscenes":12655,")}_":12656,"Collect":12657,"ĠRO":12658,"ĠMagazine":12659,"ista":12660,"$&":12661,"Ġimplied":12662,")--(":12663,"Ġimplicit":12664,"bounds":12665,"ĠMedal":12666,"ĠSurvey":12667,"}~":12668,"Ġsole":12669,"orizon":12670,"uuid":12671,"ĠDa":12672,"Ġpainting":12673,"Ġdst":12674,"agma":12675,"ĠFix":12676,"sequently":12677,"ĠWednesday":12678,"ĠDue":12679,"Ġdecrease":12680,"Ġhumans":12681,"Ġplate":12682,"Ġclip":12683,"Ġloan":12684,"remote":12685,"Ġcausing":12686,"fake":12687,"columnwidth":12688,"140":12689,"ĠDefinition":12690,"glyphicon":12691,"icode":12692,"ĠÂ©":12693,"NamedCell":12694,"FFER":12695,"116":12696,"BUIL":12697,"Ġcompiler":12698,"Ġposted":12699,"Ġban":12700,"Ġlegend":12701,"wich":12702,"ĠArizona":12703,"DEX":12704,"ĠCru":12705,"Ġsentence":12706,"olving":12707,"Ġorientation":12708,"cers":12709,"ĠNFL":12710,"WIN":12711,"ĠSav":12712,"ĠVo":12713,"Ġgravit":12714,"emit":12715,"Ġdipl":12716,"ĠKnow":12717,"Authentication":12718,"ĠLook":12719,"ĠTool":12720,"orer":12721,"Ġanchor":12722,"ĠJews":12723,"})^":12724,"aron":12725,"ĠTer":12726,"pad":12727,"apple":12728,"ĠColon":12729,"middle":12730,"aton":12731,"Aug":12732,"ĠTony":12733,"referred":12734,"ATTR":12735,"iversary":12736,"Ġdemonstrate":12737,"AX":12738,"ĠHor":12739,"Ġ---":12740,"Ġcommunic":12741,"ĠFront":12742,"Ġrespective":12743,"Ġmoments":12744,"ĠSUMMARY":12745,"Promise":12746,"Ġcond":12747,"ĠTag":12748,"Ġnotion":12749,">()":12750,"ĠArthur":12751,"Mc":12752,"EP":12753,"Ġsubgroup":12754,"Ġinfrastructure":12755,"ahoma":12756,"inction":12757,"Ġseeing":12758,"formal":12759,"anny":12760,"ificial":12761,"aux":12762,"1925":12763,"Ġ'@":12764,"Columns":12765,"Ġroutes":12766,"ĠCoq":12767,"iley":12768,"porter":12769,"logging":12770,"Ġjournalist":12771,"Fixed":12772,"Place":12773,"Ġbought":12774,"Ġproducing":12775,"Ġmental":12776,"Separ":12777,"Ġtemporary":12778,"TL":12779,"Doctrine":12780,"western":12781,"medskip":12782,"ounce":12783,"ĠAffairs":12784,"Ġleaf":12785,"ĠNAS":12786,"ĠThread":12787,"ĠNick":12788,"Ġaccum":12789,"Ġdistricts":12790,"ĠUkraine":12791,"ichol":12792,"inx":12793,"ĠMedicine":12794,"ĠEu":12795,">%":12796,"Runner":12797,"Ġcapable":12798,"Ġexperiences":12799,"FOR":12800,"FilterDatabase":12801,"THER":12802,"share":12803,"ĠClasses":12804,"Ġtimestamp":12805,"Ġ\"'":12806,"Ġtradition":12807,"Errorf":12808,"Ġassuming":12809,"ĠAnderson":12810,"Ġresistance":12811,"ĠCab":12812,"aturally":12813,"WH":12814,"Ġdecisions":12815,"Ġfs":12816,"mont":12817,"Ġpublish":12818,"Ġexperienced":12819,"Ġwrest":12820,"Bad":12821,"ĠAud":12822,"prom":12823,"Ġlect":12824,"Ġrobot":12825,"ĠMaryland":12826,"Ġtables":12827,"egration":12828,"anim":12829,"1921":12830,"ĠNorway":12831,"ĠAccount":12832,"cribed":12833,"Ġhorse":12834,"itecture":12835,"Ġgreatest":12836,"craft":12837,"ĠHy":12838,")&":12839,"Ġwat":12840,"Super":12841,"Hence":12842,"Ġinherit":12843,"Ġdesignated":12844,"Split":12845,"=%":12846,"Ġbos":12847,"Ġdemonstrated":12848,"Ġpercentage":12849,"coln":12850,"archive":12851,"columns":12852,"Ġpropose":12853,"arsing":12854,"Ġmort":12855,"ycl":12856,"aaaa":12857,"Ġexcellent":12858,"1916":12859,"lope":12860,"Ġkid":12861,"ÙĨ":12862,"agues":12863,"Observ":12864,"Ġglob":12865,"Ġowners":12866,"Diff":12867,"Ġferm":12868,"router":12869,"lot":12870,"Ġpun":12871,"ĠAssoci":12872,"country":12873,"oa":12874,"ulner":12875,"through":12876,"Ġdiscovery":12877,"(\"%":12878,"who":12879,"Ġgoverning":12880,"Ġfetch":12881,"Ġcro":12882,"Ġhide":12883,"ogonal":12884,"Ġdisable":12885,"isode":12886,"ospit":12887,"]+":12888,"dynamic":12889,"sz":12890,"heta":12891,"Aggreg":12892,"=.":12893,"Ġpilot":12894,"ĠFellow":12895,"Film":12896,"generator":12897,"covery":12898,">'":12899,"Tex":12900,"ĠÑģ":12901,"Ġcertainly":12902,"Mount":12903,"Ã¼r":12904,"uction":12905,"Ġterror":12906,"Ġliteral":12907,"unny":12908,"Constraint":12909,"Ġfly":12910,"Touch":12911,"Ġmolecular":12912,"ĠJS":12913,"Ġdry":12914,"className":12915,"witzer":12916,"Contains":12917,"Ġ----------------------------------------------------------------":12918,"ĠBrian":12919,"itely":12920,"there":12921,"rtl":12922,"Äĥ":12923,"pointer":12924,"Ġdrivers":12925,"ĉĉĠĠĠ":12926,"Organ":12927,"ĠMatt":12928,"comple":12929,"Ġsurn":12930,"Ġ(;":12931,"omer":12932,"Ġattrib":12933,"Ġprofiles":12934,"arith":12935,"Ġ```":12936,"ĠExecutive":12937,"ĠFederation":12938,"Inner":12939,"ĠIss":12940,"1912":12941,"via":12942,"Ġfilters":12943,"ATCH":12944,"uties":12945,"ĠDream":12946,"Ġtheatre":12947,"Ġredshift":12948,"Kn":12949,"EY":12950,"\\}$,":12951,"Ġreceiver":12952,"Ġ{%":12953,"Å¾":12954,"UCT":12955,"ÃŃa":12956,"Ġblow":12957,"Ġadapted":12958,"ntil":12959,"links":12960,"ĠLore":12961,"isen":12962,"Ġslot":12963,"inema":12964,"Ġplatforms":12965,"Ġreads":12966,"ĠCirc":12967,"topic":12968,"wallet":12969,"MF":12970,"Ġkids":12971,"Coin":12972,"Ġiget":12973,"Ġcb":12974,"Ġattempted":12975,"Been":12976,"cancel":12977,"1923":12978,"Ġjourney":12979,"Ġdelegate":12980,"iva":12981,"1926":12982,"Ġtypedef":12983,"Ġcombat":12984,"}_{-":12985,"inch":12986,"acer":12987,"ĠSimon":12988,"PG":12989,"Ĥ¬":12990,"Ġisomorphism":12991,"stan":12992,"getString":12993,"Ġpatch":12994,"Ġapproximate":12995,"Kit":12996,"rypted":12997,"declare":12998,"Ġmagnet":12999,"ĠManchester":13000,"Ġcomplement":13001,"Ġsensitive":13002,"Ġgeneralized":13003,"Ġdirections":13004,"UAL":13005,"getInstance":13006,"ĠJordan":13007,"Biography":13008,"ĠConsider":13009,"Quant":13010,"ĠSTART":13011,"Az":13012,"rink":13013,"ĠEV":13014,"Ġchunk":13015,"William":13016,"Ġconfigurations":13017,"ĠTownship":13018,"Ġskin":13019,"Ġcompre":13020,"RAY":13021,"sep":13022,"ĠCulture":13023,"Mac":13024,"roit":13025,"cursor":13026,"createElement":13027,"Ġcopyright":13028,"ĠHeart":13029,"Ġintent":13030,"Ġadult":13031,"Ġdashed":13032,"ĠMas":13033,"Ġseparation":13034,"ĠML":13035,"ĠBE":13036,"Ġcontribute":13037,"Ġvirus":13038,"ĠMelbourne":13039,"inds":13040,"Switch":13041,"^*\\":13042,"living":13043,"compute":13044,"timeline":13045,"ĠĠĠĠĠĠĠĠĠĠĠĠĠĠĠĠĠĠĠĠĠĠĠĠĠĠĠĠĠĠĠĠĠĠ":13046,"aneous":13047,"owned":13048,"taining":13049,"Rows":13050,"Ġstanding":13051,"Ġquantities":13052,"usr":13053,"COMM":13054,"Ġchapter":13055,"Japan":13056,"ĠBor":13057,"Ġinterests":13058,"formed":13059,"Feed":13060,"Linear":13061,"ĠAuto":13062,"ootstrap":13063,"}}}\\":13064,"Ġmit":13065,"Ġroots":13066,"ÐµÑĢ":13067,"Analy":13068,"Ġmm":13069,"finite":13070,"Ġentertain":13071,"Ġracing":13072,"week":13073,"iii":13074,"Ġdriven":13075,"witzerland":13076,"NameLink":13077,"Ġclosure":13078,"SSION":13079,"ĠShould":13080,"Download":13081,"letter":13082,"Ġfolder":13083,"Ġadvice":13084,"icut":13085,"score":13086,"qual":13087,"incial":13088,"cx":13089,"oli":13090,"timestamp":13091,"\\|\\":13092,"ĠHotel":13093,"examples":13094,"Pat":13095,"ĠRoy":13096,"ĠBurn":13097,"ĠSerial":13098,"Ġresearchers":13099,"Ġdiagn":13100,"License":13101,"ĠPA":13102,"ibilities":13103,"erred":13104,"Ġsupplied":13105,"illery":13106,"Ġcycl":13107,"Ġpotentially":13108,"Ġdyn":13109,"Ġpersons":13110,"Ġsucceeded":13111,"ensis":13112,"aire":13113,"Shared":13114,"tection":13115,"mobile":13116,"strip":13117,"ĠWhy":13118,"nos":13119,"('<":13120,"linked":13121,"ĠProp":13122,"ĠDiego":13123,"door":13124,"aco":13125,"Ġextensions":13126,"jb":13127,"insic":13128,"upper":13129,"Ġinstitution":13130,"\"|":13131,"ĠUt":13132,"1915":13133,"${\\":13134,"ifi":13135,"Ġacid":13136,"Ġdt":13137,"ĠPlayer":13138,"Ġboundaries":13139,"ãĢĤ":13140,"ĠTa":13141,"cv":13142,"})(":13143,"Ġ--></":13144,"Ġguess":13145,"UNT":13146,"ceptor":13147,"][]{":13148,"Loop":13149,"Ġmanifest":13150,"Uses":13151,"zy":13152,"ĠVar":13153,"unknown":13154,":'":13155,"ĠVALUES":13156,"Ġcoupled":13157,"Ġsigns":13158,"Ġworldwide":13159,"Ġassets":13160,"è¿":13161,"cn":13162,"ĠContin":13163,"Ġrestriction":13164,"Ġinvolves":13165,"Ġprices":13166,"Ġthrown":13167,"unders":13168,"Ġdominant":13169,"ĠMexican":13170,"Ġ\\(\\":13171,"vart":13172,"STATUS":13173,"plain":13174,"Ġvariations":13175,"bug":13176,"Ġalpha":13177,"\":\"":13178,"slide":13179,"Ġimg":13180,"icians":13181,"Ġ}{":13182,"Upload":13183,"odo":13184,"gar":13185,"aba":13186,"oven":13187,"Ġasymptotic":13188,"Olymp":13189,"Ġsustain":13190,"ARG":13191,"reduc":13192,"ĠArk":13193,"pto":13194,"Inf":13195,"Ġswe":13196,"Ġperiods":13197,"Ġresponsibility":13198,"igenous":13199,"perimental":13200,"Ġproposal":13201,"burn":13202,"Ġspend":13203,"Ġcorrection":13204,"Ġplaceholder":13205,"Ġcosm":13206,"Ġsi":13207,"uese":13208,"Ġhal":13209,"Stud":13210,"Converter":13211,"Ġuniverse":13212,"allenge":13213,"Ġjustice":13214,"Ġneither":13215,"ocese":13216,"Expected":13217,"ĠProduct":13218,"ials":13219,"ĠSin":13220,"Ġdescriptor":13221,"rpc":13222,"Ġembedded":13223,"ĠJane":13224,"rules":13225,"Ġconcentr":13226,"uris":13227,"Ġmarketing":13228,"Verify":13229,"ĠPa":13230,"ĠKhan":13231,"ĠSeason":13232,"imits":13233,"__)":13234,"Ġcontributed":13235,"qq":13236,"ĠSquare":13237,"Ġcompr":13238,"Ġisot":13239,"Ġhelping":13240,"Ġsed":13241,"ju":13242,"Ġapplies":13243,"Management":13244,"figures":13245,"ĠAddress":13246,"Ġassignment":13247,"Virtual":13248,"æĺ":13249,"Ġcrucial":13250,"ĠPhilip":13251,"Missing":13252,"argo":13253,":=\\":13254,"gather":13255,"posing":13256,"Enable":13257,"Ġconcerned":13258,"RUN":13259,"Ġunderstood":13260,"@{":13261,"Drag":13262,"Ġpresents":13263,"Ġannounce":13264,"esides":13265,"ĠOfficer":13266,"Ġpreferred":13267,"Ġburied":13268,"|^{":13269,"Ġequivalence":13270,"ĠAdministration":13271,"Based":13272,"Ġnice":13273,"ĠAllen":13274,"Ġtower":13275,"/*!":13276,"amount":13277,"Millis":13278,"Ġcollapse":13279,"Ġmarkets":13280,"ĠVALIGN":13281,"ĠDaily":13282,"days":13283,"UBLIC":13284,"ĠLeb":13285,"Ġvocal":13286,"Did":13287,"rig":13288,"wx":13289,"ĠMS":13290,"displayName":13291,"Ġextreme":13292,"×ķ×":13293,"Ġreplacing":13294,"Available":13295,"}|\\":13296,"}}=":13297,"Ġstarring":13298,"Ġkilling":13299,"Ġreasonable":13300,"Ġhits":13301,"Ġdecade":13302,"Ġswim":13303,"Ġvirt":13304,"Partition":13305,"isot":13306,"ĠEditor":13307,"Also":13308,"isition":13309,"ĠDun":13310,"Ġprivacy":13311,"Ġshares":13312,"LICENSE":13313,"Ġprepare":13314,"Ġcharacterized":13315,"ĠGreece":13316,"ygon":13317,"half":13318,"opsis":13319,"ĠStore":13320,"Ġkil":13321,"Ġrequirement":13322,"Ġmanagers":13323,"esis":13324,"ĠPlace":13325,"angel":13326,"UEST":13327,"iliar":13328,"ĠIter":13329,"ssl":13330,"uther":13331,"Ġairport":13332,"issip":13333,"ĠKa":13334,"ĠRepresentatives":13335,".;":13336,"pearance":13337,"Ãł":13338,"angers":13339,"URCE":13340,"Ġneutral":13341,"Ïĥ":13342,"sens":13343,"inth":13344,"DATE":13345,"ĠHoly":13346,"Ġcached":13347,"ĠFall":13348,"ĠIF":13349,"FALSE":13350,"Ġĉ":13351,"Put":13352,"Convert":13353,"idal":13354,"mount":13355,"OBJ":13356,"Ġmoder":13357,"ĠProdu":13358,"nie":13359,"ĠTuesday":13360,"Ġcomfort":13361,"ĠKat":13362,"ĠSher":13363,"ĠBarn":13364,"Ġfacilit":13365,"Ġpermanent":13366,"secondary":13367,"Stub":13368,"Ġheavily":13369,"ĠHarris":13370,"owski":13371,"RESULT":13372,"|}{":13373,"subsec":13374,"ĠMunic":13375,"contact":13376,"wealth":13377,"Ġ&#":13378,"Ġreaching":13379,"asp":13380,"ĠĠĠĠĠĠĠĠĠĠĠĠĠĠĠĠĠĠĠĠĠĠĠĠĠĠĠĠĠĠĠĠĠĠĠĠĠ":13381,"ursive":13382,"ĠAmong":13383,"Awards":13384,"stud":13385,"><!--":13386,"Ġbroke":13387,"orted":13388,"Bro":13389,"ĠMean":13390,"Ġranges":13391,"ENV":13392,"Ġequals":13393,"})+(\\":13394,"Ġmob":13395,"Ð°ÑĤ":13396,"Why":13397,"Ġtack":13398,"ortion":13399,"Will":13400,"}$}":13401,"Ignore":13402,"Ġtrains":13403,"ĠSilver":13404,"ĠPhot":13405,"bridge":13406,"aze":13407,"ureau":13408,"atibility":13409,"Ġindependence":13410,"Ġoldest":13411,"Ġtalking":13412,"ainer":13413,"oxy":13414,"ĠWhit":13415,"Ġdimensional":13416,"Ġparsed":13417,"TIES":13418,"ĠLabour":13419,"Ġdescribing":13420,"104":13421,"Ġ'\"":13422,"ĠDead":13423,"ste":13424,"Ġchose":13425,"NODE":13426,"asma":13427,"rient":13428,"Ġgate":13429,"Ġgoto":13430,"Self":13431,"Executor":13432,"verted":13433,"abama":13434,"nc":13435,"Ġpartially":13436,"Death":13437,"Ġuri":13438,"ĠMarket":13439,"production":13440,"ĠSW":13441,"wave":13442,"Ġreligion":13443,"Mal":13444,"Pal":13445,"Ġatomic":13446,"ĠFreder":13447,"Ġdemocr":13448,"Ġrestrictions":13449,"Ġmacro":13450,"ĠSP":13451,"clic":13452,"Ġeducational":13453,"mapping":13454,"Design":13455,"Ġthir":13456,"}\",":13457,"aware":13458,"ocom":13459,"Origin":13460,"history":13461,"Ġweapons":13462,"ĠBaron":13463,"Ġvm":13464,"ĠJunior":13465,"bone":13466,"rence":13467,"Ġneighbour":13468,"Ġintelligence":13469,"Ïģ":13470,"uscript":13471,"ĠExpress":13472,"encoding":13473,"ignore":13474,"unlock":13475,"Ty":13476,"Ġliquid":13477,"OutputStream":13478,"Ġvarying":13479,"tv":13480,"Tok":13481,"folder":13482,"}>":13483,">(<":13484,"uable":13485,"ĠLiter":13486,"Ġknows":13487,"ĠThursday":13488,"ICATION":13489,"TAG":13490,"Ġdetector":13491,"HOME":13492,"Ġsimilarly":13493,"\\/":13494,"agu":13495,"Ġperiodic":13496,"ĠCop":13497,"hensive":13498,"Ġcompilation":13499,"Ġdeleted":13500,"Ġrenew":13501,"ĠMoscow":13502,"Ġtopology":13503,"ĠHop":13504,"Period":13505,"ĠZh":13506,"Decimal":13507,"ĠEU":13508,"Ġmaintained":13509,"Ġoccupied":13510,"ugar":13511,"ĠCape":13512,"Ġsought":13513,"olves":13514,"Suppose":13515,"Ġvo":13516,"usp":13517,"strings":13518,"Ġfold":13519,"islation":13520,"Ġhardware":13521,"Ġresponses":13522,"ĠPack":13523,"Songs":13524,"ĠURI":13525,"aten":13526,"VO":13527,"ĠRol":13528,"Ġgoods":13529,"backslash":13530,"aza":13531,"Ġreduces":13532,"lia":13533,"Ġcurvature":13534,"Ġescap":13535,"Ġaf":13536,"Ġmile":13537,"emony":13538,"LR":13539,"ĠTen":13540,"lon":13541,"Ġelli":13542,"ouses":13543,"ĠSenior":13544,"Ġbringing":13545,"ĠDOM":13546,"\"</":13547,"LEMENT":13548,"Ġposts":13549,"govern":13550,"Ġhosts":13551,"Ġwidget":13552,"Extensions":13553,"Ġchairman":13554,"ĉĉĉĉĊ":13555,"crement":13556,"ĠBalt":13557,"ocor":13558,"getType":13559,"Culture":13560,"EVENT":13561,"Canadian":13562,"ĠWARRANTIES":13563,"Ġwrites":13564,"ĠSend":13565,"Ġsharing":13566,"Ġclone":13567,"Ġhousehold":13568,"vi":13569,"Ġroof":13570,"ĠDoctor":13571,"ĠStone":13572,"Ġroyal":13573,"Ġsuppose":13574,"Ġdominated":13575,"incess":13576,"statsmodels":13577,"ĠBaseball":13578,"ĠCHE":13579,"ĠDisney":13580,"Dispatch":13581,"Ġhun":13582,"Ġvillages":13583,"ILITY":13584,"solr":13585,"Snapshot":13586,"Ġencoded":13587,"Ġconservation":13588,"Ra":13589,"elve":13590,"ĠEs":13591,"achelor":13592,"ĠInternal":13593,"CN":13594,"Ġretail":13595,"ĠClark":13596,"Border":13597,"dst":13598,"Ġrear":13599,"Labels":13600,"(/":13601,"ĠOwn":13602,"ĠMarc":13603,"Ġfolk":13604,"works":13605,"åĬ":13606,"Priority":13607,"Ġmales":13608,"zi":13609,"BT":13610,"Enumerable":13611,"Ġaren":13612,"Ġstrike":13613,"mms":13614,"ĠNum":13615,"team":13616,"Ġstochastic":13617,"Transition":13618,"ĠÐ½":13619,"Ġmedalists":13620,"ainties":13621,"Ġenemy":13622,"binary":13623,"Ġconcrete":13624,"ĠVietnam":13625,"'_{":13626,"Ġinclusion":13627,"atest":13628,"Ġimpl":13629,"Ġresolved":13630,"Ġaccommod":13631,"Ġinherited":13632,"ĠThird":13633,"Ġdesigns":13634,"Ġstead":13635,"Ġsurfaces":13636,"Pojo":13637,"Ġmanip":13638,"1913":13639,"Asset":13640,"Mich":13641,"riends":13642,"ĠGib":13643,"Ġexplos":13644,"initely":13645,"FileName":13646,"Ùħ":13647,"Ġreward":13648,"Camera":13649,"Lang":13650,"ORK":13651,"ĠSmall":13652,"ĠMand":13653,"Ġdispatch":13654,"Ġsevere":13655,"ĠConstitution":13656,"projects":13657,"ĠParse":13658,"ĠJay":13659,"ynamics":13660,"rik":13661,"Ġ\\&":13662,"Ġtexture":13663,"LETE":13664,"ĠMoon":13665,"metic":13666,"Ġpossess":13667,"ders":13668,"Ġevening":13669,"jackson":13670,"ativity":13671,"Ġargued":13672,"Ġfranch":13673,"dn":13674,"ĠJam":13675,"Codec":13676,"Ġfib":13677,"Ġchecks":13678,"San":13679,"ĠMarine":13680,"Ġrefused":13681,"Your":13682,"Ġadds":13683,"ĠBah":13684,"Month":13685,"Must":13686,"take":13687,"ĠSix":13688,"Ġlit":13689,"ĠFA":13690,"114":13691,"<>();":13692,"Olympic":13693,"concat":13694,"Ġreporting":13695,"ĠAws":13696,"Ġtries":13697,"ĠKentucky":13698,"Ġrating":13699,"Mr":13700,"Ġlose":13701,"BASE":13702,"}\\|":13703,"ĠTemple":13704,"Xi":13705,"ĠPO":13706,"Special":13707,"irms":13708,"ĠNev":13709,"mix":13710,"cycle":13711,"ĠIT":13712,"Ġpanels":13713,"Comparison":13714,"agnetic":13715,"Ġnominated":13716,"ĠBlo":13717,"pref":13718,"icky":13719,"iary":13720,"David":13721,"Ġusername":13722,"ĠAmb":13723,"Ġregarded":13724,"slant":13725,"Ġ({\\":13726,"annotations":13727,"Ġinh":13728,"lint":13729,"ois":13730,"Ġsimultaneously":13731,"Ġentang":13732,"Ġcoaches":13733,"Ġphases":13734,"concurrent":13735,"klahoma":13736,"thrift":13737,"ÅŁ":13738,"ĠRegional":13739,"Ġpresidential":13740,"Ġpending":13741,"Ġeigenvalues":13742,"Ġworst":13743,"================================================================":13744,"Ġschol":13745,"Rules":13746,"118":13747,"ĠassertTrue":13748,"multirow":13749,"ocks":13750,"Ġillustrated":13751,"ctors":13752,"Ġstrictly":13753,"ĠLib":13754,"Tri":13755,"Git":13756,"LIN":13757,"ĠRuntime":13758,"StringBuilder":13759,"Ġsegments":13760,"Ġexhibition":13761,"Zero":13762,"Ġcaptain":13763,"Ġsixth":13764,"Ġstrip":13765,"ublin":13766,"icted":13767,"tikzpicture":13768,"elled":13769,"interval":13770,"ymmetry":13771,"Health":13772,"RAME":13773,"Ġexposure":13774,"Ġcrossing":13775,"nol":13776,"ĠVice":13777,"Ġexposed":13778,"Ġpremier":13779,"2023":13780,"Ġ'_":13781,"features":13782,"ĠAlbert":13783,"Ġbond":13784,"ĠPublished":13785,"107":13786,"eget":13787,"ĠBos":13788,")>":13789,"Ġanom":13790,"ologists":13791,"Break":13792,"vendor":13793,"Ġaccessible":13794,"itics":13795,"Ġfrequencies":13796,"DTD":13797,"----------":13798,"ĠÄ":13799,"PROP":13800,"Secret":13801,"^*(":13802,"Ġcrowd":13803,"Ġcollections":13804,"Ġ-=":13805,"Ġappreci":13806,"Ġoutcome":13807,"utable":13808,"Ġemergency":13809,"\"];":13810,"Moreover":13811,"^{(\\":13812,"ĠTokyo":13813,"COM":13814,"ĠImmutable":13815,"Ġ$\\{\\":13816,"BUFFER":13817,"Ġbaseline":13818,"nm":13819,"best":13820,"Owner":13821,"allas":13822,"Ġfavorite":13823,"Present":13824,"MenuItem":13825,"Ġfluctuations":13826,"__[\"":13827,"Ġ(%":13828,"Supported":13829,"ĠAgency":13830,"Ġpresentation":13831,"Ġdismiss":13832,"Created":13833,"hus":13834,"Ġaccompl":13835,"ĠDNA":13836,"ĠBra":13837,"danger":13838,"ĠQual":13839,"Ġfaced":13840,"Ġorig":13841,"ipedia":13842,"conduct":13843,"Ġ\\!":13844,"equations":13845,"Ġoutputs":13846,"Ġentitled":13847,"Ġlosses":13848,"Ġdynamical":13849,"ĠPatrick":13850,"tah":13851,"Ġpopulations":13852,"ĠPDF":13853,"Men":13854,"rock":13855,"Geometry":13856,"Ġcrash":13857,"ĠBY":13858,"Ġmembership":13859,"fortunately":13860,"lix":13861,"Servlet":13862,"ĠJesus":13863,"pragma":13864,"aro":13865,"City":13866,"ells":13867,"ateur":13868,"LAY":13869,"character":13870,"ĠBuffer":13871,"oni":13872,"fav":13873,"hour":13874,"ĠAustria":13875,"ĠColumn":13876,"Bibliography":13877,")})":13878,"Ġcrick":13879,"foreach":13880,"Ġeducated":13881,"ĠHouston":13882,"ainian":13883,"ĠGab":13884,"ĠAnthony":13885,"Ġ/*!<":13886,"factor":13887,"sea":13888,"Ġclassified":13889,"ĠIowa":13890,"ĠHandle":13891,"utation":13892,".',":13893,"ividual":13894,"Ġcompens":13895,"odge":13896,"gray":13897,"LD":13898,"Ġrent":13899,"unior":13900,"CREATE":13901,"350":13902,"yers":13903,"apel":13904,"ĠLogger":13905,"Ġgoogle":13906,"IDE":13907,"Ġter":13908,"Ġdictionary":13909,"Ġterminal":13910,"Chart":13911,"ĠFlo":13912,"Ġatoms":13913,"Ġcollision":13914,"omm":13915,"Ġcanvas":13916,"Ġconstitution":13917,"ctree":13918,"Ġ'#":13919,"Ġfitting":13920,"vp":13921,"Ġfi":13922,"\\!\\":13923,"getClass":13924,"Ġcoronavirus":13925,"googleapis":13926,"rat":13927,"=&":13928,"eclipse":13929,"TableRow":13930,"Ð¹":13931,"amazonaws":13932,"yll":13933,"vartheta":13934,"ĠPrivate":13935,"Phil":13936,"Ġrapidly":13937,"Ġshadow":13938,"Changes":13939,"ige":13940,"Ġexcited":13941,"!</":13942,"<<":13943,"ĠMAX":13944,"ĠFALSE":13945,"Ġsteel":13946,"Ġbenchmark":13947,"Hol":13948,"ĠManager":13949,"Ġverb":13950,"Idx":13951,"Ġcharts":13952,"lad":13953,"Ġsoci":13954,"ĠGard":13955,"Ġrein":13956,"!(":13957,")^\\":13958,"iors":13959,"ĠHollywood":13960,"ĠSwitzerland":13961,"ĠRyan":13962,"Ġprintf":13963,"XY":13964,"maps":13965,"Ã©t":13966,"mazing":13967,"Govern":13968,"Ġsensor":13969,"Ġdecide":13970,"Geography":13971,"opens":13972,"Ġcreative":13973,"ĠSystems":13974,"ĠEuro":13975,"Loading":13976,"Ġfoundation":13977,"Na":13978,"isations":13979,"ĠFa":13980,"igrants":13981,"Extra":13982,"ailing":13983,"ĠBh":13984,"Review":13985,"Ġjoining":13986,"ĠSri":13987,"Locale":13988,"ĠWatch":13989,"Der":13990,"Operand":13991,"enny":13992,"Ġsuit":13993,"BOOL":13994,"etary":13995,"Major":13996,"city":13997,"Ġaux":13998,"ĠHans":13999,"wen":14000,"notify":14001,"(\"\\":14002,"uerto":14003,"ĠTrack":14004,"flush":14005,"weak":14006,"egas":14007,"getMessage":14008,"512":14009,"quir":14010,"Ġpointed":14011,"ĠLincoln":14012,"Ġbrothers":14013,"enez":14014,"ĠYouTube":14015,"Ġreconstruction":14016,"Ġpup":14017,"Ġsudden":14018,"Ġwavelength":14019,"rena":14020,"ĠAdditionally":14021,"hpp":14022,"Ġdrum":14023,"ertainties":14024,"Ġlake":14025,"Ġcritics":14026,"Ġfaces":14027,"Ġsettled":14028,"BD":14029,"Ġfeeling":14030,"{.":14031,"medium":14032,"Ġoffices":14033,"Ġspeaking":14034,")}.":14035,"AVE":14036,"delay":14037,"âĢ¢":14038,"localhost":14039,"Ġprecise":14040,"Ġbronze":14041,"Structure":14042,"away":14043,"Ġyourself":14044,"ilk":14045,"Contin":14046,"Nor":14047,"hill":14048,"Typ":14049,"Ġformerly":14050,"Ġappearing":14051,"Ġclim":14052,"Commit":14053,"Ġshortly":14054,"Analysis":14055,"Ġtruck":14056,"notag":14057,"Ġfalls":14058,"Ġdefining":14059,"Ġinstructions":14060,"oking":14061,"Ġviewed":14062,"Ġtopics":14063,"ubb":14064,"1911":14065,"ĠEdition":14066,"Features":14067,"Ġtang":14068,"103":14069,"fghan":14070,"nl":14071,"ardo":14072,"Ġstronger":14073,"ĠâĢł":14074,"ĠSV":14075,"identity":14076,"Ġgrade":14077,"Rich":14078,"Ġ'-":14079,"Australian":14080,"Ġmayor":14081,"Ġsensitivity":14082,"Price":14083,"lined":14084,"Ġveter":14085,"RECT":14086,"Ġfiled":14087,"Ġconnecting":14088,"listener":14089,".\\\\":14090,"ĠAst":14091,"linux":14092,"AMP":14093,"forming":14094,"Ġrevers":14095,"Ãª":14096,"Ġmovies":14097,"itempty":14098,"wbr":14099,"ĠTOP":14100,"Ġelectro":14101,"Ø¯":14102,"Ġpackages":14103,"hir":14104,"omitempty":14105,"Fix":14106,"scopic":14107,"Ġwww":14108,"Ġacknowled":14109,"ĠDest":14110,"Ġbars":14111,"etric":14112,"ĠHawai":14113,"Ġrestaurant":14114,"cluding":14115,"ĠSn":14116,"Ġanimated":14117,"Ġsnow":14118,"endo":14119,"Ġreprodu":14120,"Sing":14121,"scious":14122,"Ġbid":14123,"GM":14124,"Visual":14125,"ĠKy":14126,"ĠWhere":14127,"Ġcash":14128,"ĠMrs":14129,"Ġempir":14130,"Ġparticipate":14131,"%%%%%%%%":14132,"ĠPeak":14133,";\\;\\":14134,"Ġtrim":14135,"Ġschemes":14136,"Populated":14137,"Sam":14138,"Ġdebate":14139,"icious":14140,"Ġaged":14141,"Ġsubmit":14142,"Ġaug":14143,"ĠTreat":14144,"Ġspr":14145,"sis":14146,"Ġcards":14147,"Ġutility":14148,"åŃ":14149,"Green":14150,"ĠTraining":14151,"ĠĠĠĠĠĠĠĠĠĠĠĠĠĠĠĠĠĠĠĠĠĠĠĠĠĠĠĠĠĠĠĠĠĠĠĠ":14152,"Ġhalo":14153,"ĠHoward":14154,"downarrow":14155,"utter":14156,"thumb":14157,"Ġtranslated":14158,"ĠBeng":14159,"ĠNik":14160,"Ġscientists":14161,"Ġconventional":14162,"Ġwhenever":14163,"ĠMethods":14164,"ĪĴ":14165,"Ġdomains":14166,"ipl":14167,"ĠMust":14168,"ĠKEY":14169,"ĠJos":14170,"ĠRab":14171,"vet":14172,"TRAN":14173,"iac":14174,"eland":14175,"includes":14176,"Ġidentification":14177,"900":14178,"Ġpainter":14179,"Ġassistance":14180,"ĠBiden":14181,".$$":14182,"sections":14183,"fluid":14184,"\"/><":14185,"owntown":14186,"NP":14187,"cop":14188,"Ġplain":14189,"Reason":14190,"??":14191,"Ġpit":14192,"Ġimpossible":14193,"')->":14194,"Å«":14195,"Ġinterpol":14196,"ĠArgument":14197,"Week":14198,"Ġmetall":14199,"ĠDeath":14200,"ĠDeep":14201,"ĠCommun":14202,"pd":14203,"ĠSpr":14204,"cls":14205,"ellect":14206,"Ġbrown":14207,"Ġownership":14208,"Mo":14209,"transport":14210,"ousel":14211,"Ġuniformly":14212,"ĠExpression":14213,"UA":14214,"except":14215,"ĠRound":14216,"swing":14217,"9999":14218,"bundle":14219,"fragment":14220,"Ġdrawing":14221,"Side":14222,"Ġsolving":14223,"æĪ":14224,"Ġinaug":14225,"Ġluminosity":14226,"ĠQueensland":14227,"elson":14228,"Ġregistration":14229,"GIN":14230,"Ġinternet":14231,"enerate":14232,"Ġshooting":14233,"train":14234,"IMIT":14235,"Ġiterator":14236,"White":14237,"Ġpray":14238,"HOUT":14239,"WB":14240,"ĠWhether":14241,"Ġweekend":14242,"riev":14243,"Ġtuple":14244,"1908":14245,"ĠAlabama":14246,"Ġsympt":14247,"Assembly":14248,"ĠCHECK":14249,"ĠĠĠĠĠĊ":14250,"Ġengaged":14251,"ĠDictionary":14252,"ĠFle":14253,"ĠForces":14254,"Ġcraft":14255,"Ġentities":14256,"ĠNorwegian":14257,"Ġheadquarters":14258,"ĠMotor":14259,"Ġdeviation":14260,"TOM":14261,"runner":14262,"amond":14263,"Ġexpensive":14264,"ĠMoore":14265,"Ġlawyer":14266,"surface":14267,"Ġfindings":14268,"Actions":14269,"bling":14270,"kov":14271,"Ġboat":14272,"Ġanalys":14273,"members":14274,"ĠExpl":14275,"106":14276,"\\%$":14277,"ĠTABLE":14278,"ĠRot":14279,"Ġscenarios":14280,"ĠSport":14281,"ARB":14282,"sharp":14283,"Ġsin":14284,"ĠSquadron":14285,"ASS":14286,"Machine":14287,"('./":14288,"plemented":14289,"Ġquot":14290,"ĠCS":14291,"Ġtransitions":14292,"ĠDal":14293,"Contract":14294,"Fac":14295,"Ġlyrics":14296,"ambiguation":14297,"Ġham":14298,"corollary":14299,"Ġongoing":14300,"]</":14301,"gate":14302,"Score":14303,"Suppress":14304,"ordered":14305,"ido":14306,"liest":14307,"ĠSuppose":14308,"Ġnaturally":14309,"ĠItem":14310,"IconError":14311,"Ġhero":14312,">[":14313,"uh":14314,"Live":14315,"Ġsituated":14316,"(-\\":14317,"density":14318,"Ġstudying":14319,"Ġrevolution":14320,"{|":14321,"Ġpolarization":14322,"adv":14323,"ned":14324,"Ġrepeat":14325,"Sportspeople":14326,"Hon":14327,"nobr":14328,"ĠCred":14329,"]=":14330,"gre":14331,"Ġconcluded":14332,"ĠFame":14333,"Ġinfluenced":14334,"Ġstim":14335,"Ġmouth":14336,"ĠPalest":14337,"aman":14338,"Ġabuse":14339,"Ġ'''":14340,"ĠSimilarly":14341,"Ġinvited":14342,"Ġconvention":14343,"Ġfired":14344,"Ġpara":14345,"wiki":14346,"Ġinvestigated":14347,"Ġbranches":14348,"Ġvacuum":14349,"POS":14350,"Execute":14351,"Lat":14352,"Mutable":14353,"Ġhearing":14354,"irt":14355,"Ġgeometric":14356,"acht":14357,"bn":14358,"labels":14359,"Ġsons":14360,"Ġcoins":14361,"FNGL":14362,"ymn":14363,"HD":14364,"ĠVillage":14365,"Ġsystematic":14366,"ĠObama":14367,"asis":14368,"ĠDick":14369,"ĠAnalysis":14370,"ĠOtherwise":14371,"Ġalignment":14372,"OLD":14373,"Ġsight":14374,"Ġincreasingly":14375,"igator":14376,"Through":14377,"larg":14378,"AK":14379,"ceived":14380,"Ġsurve":14381,"noframe":14382,"Ġdrums":14383,"ĠAI":14384,"ĠPed":14385,"neut":14386,"hist":14387,"IconErrorEncoded":14388,"Ġcp":14389,"Press":14390,"Ġisolated":14391,"ĠOP":14392,"ĠChem":14393,"Ġcontroll":14394,"ĠResults":14395,"Ġinsurance":14396,"LOAD":14397,"ĠBry":14398,"ĠFourier":14399,"Ġaddr":14400,"jecture":14401,"omas":14402,"Primary":14403,"calcul":14404,"Factor":14405,"graphics":14406,"Have":14407,"dataset":14408,"Europe":14409,"priv":14410,"çĶ¨":14411,"ulp":14412,"ĠLank":14413,"addClass":14414,"instein":14415,"Ġmodeling":14416,"ĠConnecticut":14417,"Ġlisten":14418,"Ip":14419,"ĠAbb":14420,"Ġequipped":14421,"404":14422,"ĠSel":14423,"ĠGR":14424,"Ġillegal":14425,"gh":14426,"ĠResources":14427,"ĠMiami":14428,"textup":14429,"vars":14430,"ĠComponent":14431,"Ġtracking":14432,"URN":14433,"Ġfault":14434,"Vec":14435,"ĠAle":14436,"Ġcounts":14437,"ĠCF":14438,"Cho":14439,"Ġlaid":14440,"verify":14441,"Ġreserve":14442,"ocos":14443,"oids":14444,"Ġflu":14445,"ĠOak":14446,"Ġrunner":14447,"RESS":14448,"ustries":14449,"tre":14450,"Related":14451,"Ġduty":14452,"Ð¾Ð»":14453,"WI":14454,"ilst":14455,"Ġconjug":14456,"iat":14457,"Ġcertificate":14458,"ĠAlice":14459,"bow":14460,"live":14461,"Paul":14462,"Ġtokens":14463,"Ġseemed":14464,"Ġsounds":14465,"Dynamic":14466,"Ġgar":14467,"Ġstructural":14468,"riers":14469,"ĠEarly":14470,"pal":14471,"cohol":14472,"SUC":14473,"Bucket":14474,"ipart":14475,"Ġteachers":14476,"ergy":14477,"ĠOk":14478,"Ġcommander":14479,"iri":14480,"ebox":14481,"Ġcellpadding":14482,"Ġattacked":14483,"Ġquark":14484,"ugging":14485,"East":14486,"tol":14487,"Ġgravitational":14488,"ubern":14489,"CV":14490,"Ġregression":14491,"inject":14492,"opam":14493,"compar":14494,"Bridge":14495,"Ġnortheast":14496,"Ġextracted":14497,"ĠConstant":14498,"Ġselling":14499,"ExternalTask":14500,"endpoint":14501,"issippi":14502,"ĠAlbum":14503,"profit":14504,"Ġhybrid":14505,"ĠAP":14506,"ĠEmperor":14507,"Ġdiverse":14508,"Ġintention":14509,"usted":14510,"ĠDatabase":14511,"ĠWalter":14512,"Ġsaf":14513,"Ġ#{":14514,"Alias":14515,"Ġ_{\\":14516,"ashes":14517,"Ġconsumption":14518,"Ġunus":14519,"pagination":14520,"Ġredirect":14521,"Ġteen":14522,"Ġguid":14523,"bib":14524,"Ġnormally":14525,"}{{\\":14526,"ivari":14527,"tm":14528,"Rober":14529,"nik":14530,"iso":14531,"Ġregularly":14532,"ĠDol":14533,"enda":14534,"Ġdies":14535,"Ġmart":14536,"ĠAnne":14537,"references":14538,"Attrib":14539,"asts":14540,"Ġlandscape":14541,"ĠNichol":14542,"è®":14543,"Tracker":14544,"ĠMatthe":14545,"atype":14546,"Ġfiber":14547,"varrho":14548,"prene":14549,"kee":14550,"Cannot":14551,"144":14552,"Push":14553,"Ġurg":14554,"ĠDave":14555,"ĠOCaml":14556,"ĠSingle":14557,"Ġcorn":14558,"ExternalTaskPojo":14559,"OFF":14560,"ĠFer":14561,"Ġchair":14562,"Ġprovision":14563,"ĠWebsite":14564,"ibern":14565,"Ctrl":14566,"Har":14567,"Ġexercise":14568,"cost":14569,"notification":14570,"ĠKam":14571,"Ġdistances":14572,"Ġreducing":14573,"uber":14574,"mathit":14575,"Models":14576,"ĠChile":14577,"Ġbrings":14578,"ĠBOOST":14579,"reason":14580,"urd":14581,"!]":14582,">`":14583,"closure":14584,"ĠInv":14585,"Team":14586,"Ġvoted":14587,"execution":14588,">${":14589,"ĠBrun":14590,"both":14591,"ĠBus":14592,"Ġwrapper":14593,"idges":14594,"Ġtechnologies":14595,"paths":14596,"umption":14597,"()\">":14598,"icide":14599,"Pane":14600,"$.}":14601,"'].":14602,"Ġaccused":14603,"ĠActive":14604,"Anim":14605,"Pe":14606,"reducible":14607,"Ã´":14608,"Ñĸ":14609,"ĠTog":14610,"Ġtruly":14611,"ĠMC":14612,"Ġelectrons":14613,"textnormal":14614,"Ġencode":14615,"Ġreaders":14616,"three":14617,"ĠNull":14618,"1890":14619,"Ġcenturies":14620,"Ti":14621,"Ġcellspacing":14622,"Und":14623,"Ġamounts":14624,"ĠProm":14625,"News":14626,"Ġlegislation":14627,"Ġincorrect":14628,"iliary":14629,"refresh":14630,"Ġexpectation":14631,"nan":14632,"docker":14633,"jor":14634,"Seq":14635,"ĠFM":14636,"Ġboys":14637,"Ġcourses":14638,"'},":14639,"Ġuniqu":14640,"latest":14641,"Ġnearest":14642,"ĠDur":14643,"ĠEntity":14644,"ĠKer":14645,"ĠStand":14646,"ĠPas":14647,"Ġsees":14648,"ustry":14649,"Ġjazz":14650,"Iss":14651,"Ġengines":14652,"ographical":14653,"ĠDVD":14654,"Ġabsorption":14655,"tage":14656,"Ġretirement":14657,"Ġcyl":14658,"Ġlaser":14659,"reprene":14660,"Ġmetres":14661,"ĠIslamic":14662,"MPL":14663,"192":14664,"Ġuncertainties":14665,"toctree":14666,"Ġmatched":14667,"555":14668,"Ġhundreds":14669,"ĠAlber":14670,"ceil":14671,"Ġsubsid":14672,"ĠGraph":14673,"Ġvolumes":14674,"ĠDM":14675,"Ġsyntax":14676,"tasks":14677,"plica":14678,"ĠWalker":14679,"timer":14680,
[...]
