#version: 0.2
Ġ Ġ
ĠĠ ĠĠ
Ġ t
i n
e r
Ġ a
o n
h e
r e
a t
Ġt he
o r
e n
s t
a n
a l
a r
e d
i t
Ġ o
Ġ c
e s
Ġ s
Ġ w
i s
i on
Ġ f
ĠĠ Ġ
Ġ in
i c
n d
l e
ĠĠĠĠ ĠĠĠĠ
Ġo f
Ġ p
in g
a s
r o
Ġ b
Ġa nd
o u
Ġ d
en t
e t
a m
Ġ m
c t
i l
Ġ S
Ġt o
e l
Ġ h
Ġ C
o m
Ġ re
Ġ A
o l
Ġ (
Ġ T
Ġ n
i d
u r
a d
ĠĠĠĠ ĠĠĠ
t h
at ion
c e
Ġ l
i v
i g
Ġ M
c h
i m
Ġt h
Ġ e
u t
er s
u s
a g
Ġ =
Ġ B
u l
< /
o t
Ġ P
r a
ĉ ĉ
1 9
e m
u n
= "
Ġ I
o d
i st
Ġf or
i r
2 0
Ġ H
i f
Ġ g
Ġ is
o w
a y
Ġ R
) ;
u m
Ġ st
s e
Ġ on
Ġ v
l y
Ġw as
Ġ D
p e
t er
Ġ L
Ġ <
o c
at e
it h
- -
Ġ F
a c
Ġ {
Ġa s
an d
a b
Ġ N
Ġ "
u e
Ġb e
Ġ G
r i
as s
o p
ĠĠĠĠĠĠĠĠ ĠĠĠ
Ġc on
Ġ W
am e
ĠT he
v er
p t
Ġ E
/ /
Ġw ith
Ġa l
u b
e w
ro m
a v
h t
re s
e x
Ġ *
Ġb y
e f
ct ion
es s
or t
č Ċ
Ġ J
â Ģ
o s
u p
Ġw h
n t
e st
al l
a p
ou r
en d
ag e
Ġa t
" >
Ġc l
Ġ O
a in
ar t
Ġa n
Ġ }
it y
q u
r an
' s
Ġth at
Ġp ro
er e
Ġf rom
Ġc om
l i
in e
b er
Ġ $
m ent
e c
o g
i es
Ġ Ċ
o re
Ġ he
Ġ U
e ct
i an
ĠĠĠĠĠĠĠĠ ĠĠĠĠĠĠĠĠ
Ġ it
ur n
u d
ĠĠĠĠ Ġ
Ġ K
Ġ or
a k
âĢ ĵ
( )
i a
Ġe x
ĠS t
p ort
p l
ar d
ar y
il l
i al
g e
a st
i p
o v
i z
iv e
* *
c l
at ed
l d
ig ht
s p
ul t
ac k
at h
Ġcl ass
Ġp l
Ġd e
0 0
20 1
on t
u re
or d
t urn
an t
u nd
Ġc h
r ing
ic h
p er
u g
y pe
i re
ex t
= =
Ġ |
. .
-- --
Ġ r
on g
Ġs e
Ġa re
I n
Ġ V
ĠI n
Ġ '
S t
) ,
u st
g et
in t
T he
20 0
Ġh is
Ġ \
or m
ig n
od e
f f
a re
is h
el l
ub l
Ġth is
en c
th er
ab le
ĠC h
o st
p h
k e
i le
1 8
ion s
k s
Ġ if
r y
ĠĠĠĠĠĠĠĠ ĠĠĠĠĠĠĠ
Ġ -
m er
in d
ic e
s o
u c
e g
Ġ le
e ar
as e
Ġ y
er v
ic al
r it
Ġs h
ran s
Ġ us
c om
Ġ| |
ou nt
an g
id e
ou t
im e
a ce
Ġre turn
at a
e p
or y
Ġcom p
) .
t o
ubl ic
Ġa r
re f
Ġcon t
Ġn ot
il d
Ġ //
j ect
Ġwh ich
e v
Ġ </
Ġ &
Ġw ere
it ion
a ct
.. /
or k
ĉĉ ĉĉ
Ġ un
r u
" ,
r ic
: :
en s
al ue
ir st
- >
on d
ter n
o k
Ġ j
he d
o b
Ġal so
Ġn ew
our ce
i b
p ro
ation s
ĠU n
E x
av e
ĠT h
a ch
ow n
Ġ k
ĠH e
c ri
ou s
en ce
Ġa d
Ġre s
res s
am p
a il
f orm
19 9
Ġpl ay
oc k
er t
an ce
s s
Ġh as
Ġ ro
l l
un ction
Ġ [
it e
on e
o ol
Ġa p
in al
Ġ @
he n
re e
el f
m l
t e
c on
d iv
ul l
ar am
f t
n g
Ġ âĢĵ
pt ion
ou nd
e b
c c
er m
l ow
ess age
Ġ Y
ent s
s h
( "
Ġ /
n e
cl ud
enc es
sp an
at es
Ġf irst
o ver
ro w
ĠI t
f ter
ation al
( );
ou ld
> </
i el
Ġh ad
en er
q ue
at er
R ef
u al
Ġn ame
i o
or s
Ġ .
ol d
w o
Ġ im
Ġp art
l and
> <
s et
e le
Ġa b
em ber
Ġ +
Ġb o
iz e
a w
is s
mer ic
ar k
Ġs c
iel d
1 0
---- ----
i ew
ĠA r
l es
' ,
er ences
Ġp ublic
../ ../
Ġwh o
or n
om e
l o
p ut
Ġit s
b ut
Ġd ef
c k
Ġb ut
an y
ro up
19 8
Ġh ave
Ġon e
am es
it ed
Ġin t
Ġthe ir
et h
pe c
i e
o ot
en g
Ref erences
Ġf il
op le
a x
Ġc an
f er
i x
Ġp r
ig h
p r
== ==
re d
_ {
Ġ* /
Ġd is
Ġd es
v ent
ing s
Ġ :
ht ml
Ġh er
iv ers
e e
Ġc ol
** **
on s
Ġh ref
Ġs et
er y
meric an
Ġo ut
y st
Ġa g
er n
le ct
ĉĉ ĉ
Ġv ar
ic s
ĠĠĠĠĠĠĠĠ ĠĠĠĠĠĠĠĠĠĠĠ
s ource
ra y
o int
ad e
Ġt r
P ro
t r
c ol
m essage
Ġ up
c he
( '
m s
ke y
o se
Ġy ear
Ġt wo
1 6
Ġcom m
Ġcon st
ĠĠĠĠĠĠĠĠ Ġ
Ġin clud
c ess
an n
w e
er r
e ople
ar g
t y
19 7
o id
i ed
Ġal l
v el
as ed
Ġf unction
Ġp er
u ild
rans l
ic k
b all
is hed
w ard
ĠN ew
Ġre c
Ġt e
ĠC om
ic t
ar ch
1 2
t on
1 7
ak e
t t
ur ing
N ame
n c
Ġas s
Ġs p
Ġ #
tern al
th is
el y
s on
ro und
n ame
Ġo ver
f ig
Ġbe en
yst em
al s
le ment
) )
e y
at ch
u ch
t s
at ic
t d
ĠA l
at or
p s
Ġa fter
al e
Ġ und
E R
Ġo ther
T ype
Ġ= >
ch ool
d u
o y
Ġt ype
que st
Ġ _
in k
1 5
us e
b ject
Ġ end
im port
Ġof f
um ber
Ġl oc
c ont
I d
an s
al se
/ >
St ring
19 6
Ġt ime
cri pt
Ġw e
Ġl ine
ug h
c ent
O N
p aram
re n
ra ph
is ion
Ġs erv
r am
le t
Ġat t
ri but
at ive
od el
Ġa ct
C h
Ġ ra
ransl ation
if ic
ou g
ĠS h
ist s
Ġp re
C om
r al
at t
ar s
ou th
ire ct
# #
Ġg et
" />
pe ct
I N
Ġin to
w ay
w n
an c
Ġw ork
or ld
in s
as h
Ġt ra
o h
Ġv alue
d d
Ġw hen
ab l
p os
a h
ur y
ru ct
C ont
c ode
{ \
Ġre g
Ġd o
l oc
a z
C on
b o
re turn
R e
Ġthe y
g an
ov e
Ġs up
it le
t ranslation
ĠA merican
ur re
Ġad d
ivers ity
Ġs ub
ol og
ĠP ro
2 1
id ent
Ġs ec
s c
Ġl in
Ġc o
L ist
em b
Ġs he
as on
ad d
Ġin st
er ed
Ġp eople
in ce
ol low
ap p
i ous
Ġ el
Ġp ol
R es
cl ass
d uc
at ing
m an
ul ar
Ġs pec
Ġs elf
eth od
1 4
i k
Ġund er
19 4
Ã ©
il y
Ġo p
Ġfor m
res ent
le ction
r ight
o od
ĠC ol
Ġin ter
a ult
Ġon ly
m a
Ġb et
y le
ĠTh is
l ock
p on
Ġbe c
it ies
Ġin d
19 5
Ġm ore
Ġ !
or th
ĠS e
ers ion
Â ł
Ġm e
Ġc all
y m
ce ption
Ġ Z
1 3
R E
l ine
h ip
in ed
oc i
ac he
A r
i er
ĠL e
ab el
Ġ qu
u es
ad er
Ġre l
in n
Ġc re
Ġwh ere
t ext
Ġus ed
t ype
Ġ en
c re
Ġd ata
Ġk n
um ent
we en
oot ball
T h
v al
ĠI nd
: //
urre nt
ĠUn ited
Ġre m
ou se
a u
is e
2 5
e ver
Ġres ult
a ir
f o
a j
Ġ$ \
m in
at ure
it s
Ġs o
C l
Ġs er
Ġ= =
_ _
Ġd ec
d ef
Ġcon s
Ġw ould
if e
d er
Ex ternal
ĠC l
Ġa c
1 1
as k
iv ate
Ġp os
Ġlin ks
Ġc ent
Ġw ill
ĠUn iversity
y s
Ġf ollow
S T
u ff
Ġe st
ro ugh
Ġn ull
2 2
"> <
. "
A T
Ġf ound
Ġm an
Ġ Q
Ġthe n
Ġd ist
ag es
or g
Ġh im
Ġ ent
m ath
Ġf inal
m p
Ġte am
b ack
3 0
u res
s er
ar n
r ad
i ent
Ġa cc
ĠA n
Ġbet ween
Ġw rit
em ent
Ġag ain
Ġpro v
Ġ ed
Ġ âĢ
o f
over n
) :
re ad
ĠD e
Ġe v
ĠC on
ric t
Ġ i
Ġplay ers
Ġd uring
t he
Ġt rans
o le
Ġn o
Ġv oid
Ġch ar
ire d
t il
Ġf alse
ht t
ĠĠĠĠĠĠĠĠ ĠĠĠĠĠ
Ġst ud
Ġyear s
ut e
Ġab out
ion al
s elf
" )
Ġf e
v ar
us ic
ot t
in a
oug h
b y
o ber
st ring
ĠS c
A R
Ġre le
iv ing
ra ct
av a
r id
r on
Ġm ost
O R
Ġn umber
ist ory
Ġth an
b um
" .
C ol
in es
ĠE ng
c es
Ġs uch
u le
ĠS p
it t
iz ed
Ġb ack
Ġth ere
I D
Ġth rough
og raph
ĠĠĠĠĠĠĠĠĠĠĠĠĠĠĠĠ ĠĠĠĠĠĠĠ
ĠM ar
Ġs ing
p p
c o
Ġin v
Ġsec ond
Ġp h
et er
Ġex t
L E
ers on
Ġ `
th s
um m
Ġfil m
} }
iv ed
en n
oh n
Ġl ist
-------- --------
v iew
ĠSt ates
iv er
00 0
b le
um n
Ġar t
Ġth ree
Ġf am
Ġtr ue
v e
ag ue
Ġo per
od y
Ġg roup
Ġs ome
Ġg ener
ib le
us s
an ge
Ġa m
Ġd irect
et s
ĠC ount
" );
id th
eng th
r r
op t
Ġy ou
ow er
Ġm ade
f ore
Ġus e
ĠS he
Ġ >
Ġe m
Ġf ootball
ĠI s
d ata
m e
Ġm ay
f l
Ġrec ord
**** ****
Ġ )
Ġb ir
o ther
Ġl ater
Ġ id
19 3
Ġn e
Ġh igh
re am
im es
le y
O n
Ġst art
Ġp op
Ġm ed
ic es
} ,
Ġse ason
V alue
Ġ err
ment s
n b
ar ly
un e
p x
per ty
// //
Ġv al
S S
y n
H e
D ata
pl ic
Ġt est
Ġc ount
) );
ign ed
Ġsh ow
Ġel se
ĠCom m
pl ay
2 4
il ity
at us
y p
U n
Ġap p
v alue
Ġm in
b ar
Ġ --
ist er
re at
loc ation
is m
t en
Ġst ring
Ġal bum
ar get
erv ice
w ork
Ġan y
Ġb uild
Ġwh ile
Ġex p
I t
l er
om en
ur al
ĠE x
^ {
Ġkn own
ĠO n
ath er
ro id
A L
Ġr un
a i
ce pt
Ġbe ing
ĠA s
Ġbe fore
ou nc
ĠF ran
E N
ĠF or
T o
st r
port s
Ġo b
nb sp
ĠĠĠĠ ĠĠ
Ġd if
ut ion
==== ====
m y
ra c
Ġst ate
ro ll
ĠW orld
p re
ĠP h
l og
ĠJ an
f ile
ĠM ay
Ġw ell
al ly
2 3
e qu
Ġs chool
are d
a pt
Ġre p
ĠJ ohn
u th
Ġf l
b e
t a
d ate
ĠP l
ĠN ational
Ġthe m
p le
Ġ/ **
Ġbec ame
} \
u ro
it em
ĠA ust
Ġt itle
Ġg o
S et
an k
Ġest abl
le ft
Ġ// /
are nt
ot e
t est
Ġpr ivate
ĠW ar
a ction
Ġb ro
p ar
a use
a f
} $
g ram
g er
Ġm ov
( $
iv es
Ġf our
Ġser ies
Ex ception
Ġl ong
am b
Ġs ystem
] ;
am ed
ĠA ss
Ġm ain
ur ch
ig inal
tern ational
Ġap pe
ĠĠĠĠĠĠĠĠĠĠĠĠĠĠĠĠ ĠĠĠĠĠĠĠĠĠĠĠĠĠĠĠĠ
m all
Ġinclud ing
ay s
if ied
ro l
rr or
ĠR e
Ġm od
re g
ĠC ar
g round
r and
col or
iss ion
et a
Ġ& &
ĠB rit
s cript
ĠCount y
| -
Ġc ase
n ew
r c
at s
Ġagain st
Ġbo th
' )
Ġo wn
ĠC an
ain s
Ġst atic
uc cess
O bject
vel op
ĠS chool
ow ever
Ġ x
5 0
o ad
ĠSt ring
ĠO r
Ġde velop
umm ary
Ġ ran
li am
i ke
ĠJ ul
ar ri
f ield
C T
emb ers
3 2
I nd
ang u
Ġs ame
i um
u ary
Ġm on
ag er
ĠP r
Ġm any
Ġs ur
ro ss
Ġs ong
id er
ro p
f or
amp ions
olog y
ĠG erm
D E
T est
ĠS outh
ĠB o
amp le
ian s
l ed
Ġst r
ĠN ov
m ed
ain ed
' ]
Ġ X
Ġ! =
h er
ord er
ul ation
Ġde ath
Ġper form
S E
. </
1 00
f ace
ug ust
a id
Ġfollow ing
Ġp ass
Ġre ce
s ize
are er
enc y
Ġp oint
iz ation
() .
oc ument
Ġdes cri
Ġ %
ĠW est
Ġun til
Ġf ield
ĠY ork
pt ember
Ġs im
n av
r ame
r ist
Ġd r
ind ow
p ublic
overn ment
eg in
in ter
us h
con st
Ġde p
"> </
j s
Ġop en
if y
i or
Ġc urrent
Ġe vent
ĠĠĠĠ Ċ
ĠB l
() );
el s
Ġ key
ur l
un c
Ġpol it
a e
Ġe ach
ct ober
" ;
t ime
ĠP ar
du ct
2 6
ĠW h
Ġan n
w w
ĠA t
m od
il t
ĠA d
re ak
V iew
2 8
201 0
âĢ Ļ
Ġd et
Ġch ild
l abel
I T
l ist
it al
b orn
2 7
ra w
iv en
Ġfam ily
E rror
K ey
( \
it ions
ual ly
re en
ant s
Cl ass
Ġre qu
Ġle ad
S h
Ġcall ed
en se
p or
ir c
ĉĉĉĉ ĉ
G et
l ink
ĠA ugust
M E
it er
m ber
w h
Ġre t
Ġloc al
ĠM arch
ĠSe ptember
li ent
l ish
A n
ĠC ent
s ub
Ġm usic
f ul
Ġsup port
[ '
Ġo bject
v ision
. _
Ġthe se
ut il
ist or
our n
re t
duc ed
! --
C O
ĠW il
ĠJan uary
f ess
Ġcont in
b egin
b ed
qu ot
re m
pr il
it ial
ĠG e
Ġse ver
om an
ward s
ĠM an
Ġre sp
c al
Ġp ar
n er
Ġs ign
ep end
ind ex
Ġor g
le ge
d is
=" +
f unction
ĠO ctober
aj or
o x
ir d
ĠP ol
ic ip
Ġ/ >
ical ly
r is
A l
du ction
P l
o ff
Ġplay ed
Ġe ff
B y
Ġf in
ce mber
Ġrele ased
Ġare a
os s
ĠJ une
ĠâĢ Ķ
Ġoff ic
Ġb l
id d
Ġm et
v en
lo ad
an e
ĠAust ral
i et
um b
2 9
../../ ../../
ain t
ĠR eg
it or
or ks
Ġre f
N ot
Ġbir ths
in c
Ġb el
ĠJul y
pt ions
4 0
lect ed
p ace
S ee
s k
Ġg ame
htt p
t op
201 1
Ġm ethod
Ġw on
ar m
g y
Ġfor mer
on y
' );
le x
g o
Ġar g
Ġf ile
Ġs ince
id ed
end ed
Ġst yle
cent ury
19 0
Ġr ight
ĠA pril
ampions hip
F F
Ġor gan
ĠLe ague
n ot
ĠE uro
Ġh and
ĠBrit ish
Ġc or
ther n
ĠN orth
Ġim p
Ġdif fer
ĠNov ember
v oid
al es
ra p
s ummary
res ident
200 8
Ġl ife
" :
ch n
s ide
Ġhe ad
ect ed
201 4
Ġm odel
Ġc he
Ã ¡
che s
ĠR es
I m
l ob
201 2
Ġchar act
Ġor iginal
un g
A N
ĠG u
201 5
ĠDe cember
angu age
ĠC al
ĠC ity
se arch
com m
() ,
ect or
Ġb ased
ĠSt ate
ur g
6 4
ograph y
b r
en e
201 6
Ġus ing
a pe
Ġb u
Ġle ft
o ok
uc k
201 3
Ġp ubl
Ġl ast
Ġpl ace
Ġpro gram
ac es
ast er
Ġcomm un
200 9
Ġg u
Ġim port
200 7
ap an
eb ru
ar ge
Ġsever al
s y
i ence
ore d
ack age
ĠA ll
ĠI I
u k
l ing
is ed
ebru ary
F ile
iv al
g roup
uff er
200 6
m d
Ġt erm
ord s
cri ption
ribut e
il it
201 7
Ġfil ms
Ġ ,
A C
Ġe qu
p ath
R O
z e
pon se
ak ing
Ġc ity
} )
ur s
T ime
ĠE d
ele vision
Ġn on
Ġsh ould
U L
ur ation
ĠA f
ĠCan ad
] ,
3 3
Ġre ad
_{ \
I nt
em pl
18 9
ĠK ing
u ed
ol v
Ġe arly
M an
A merican
Ġo cc
T ext
end s
Ġap pro
ĠB e
um er
Ġp rom
l p
Ġdis c
op y
at ri
b b
Ġto p
Ġn ear
ren ch
F il
Ġs mall
Ġn ow
v ers
h am
i ev
Ġv ersion
ver t
Ġc areer
al ity
Re quest
' t
d es
ĠA nd
ĠF ebruary
201 8
20 00
Ġst ruct
o pe
Ġ-- >
Ġa ut
ĠA m
Ġs uccess
Ġp aram
u i
Ġn amed
Ġm ember
Ġto wn
us er
es e
ĠM in
S c
Ġre fer
ĠEuro pe
Ġs ize
al th
d t
Ġt ri
ĠC o
Ġm embers
in ess
Ġc ould
Ġd id
Ġal low
P aram
Ġsing le
Ġe ver
Ġg iven
ĠR ep
ction s
F or
as es
form ation
Ġbe com
Ġ eng
Ġal ong
Ġcomp et
ĠT e
P ath
L A
T E
v ious
Ġo ld
ĠThe y
D ef
ra ft
Ġth row
l ang
Ġw omen
] .
ac ed
F orm
Ġass ert
E vent
` `
A dd
O r
r ation
uth or
Ġre st
et ers
Ġ ?
20 19
f il
() )
In fo
o o
t ing
in clud
il le
od es
ide o
st er
N ode
/ **
Ġ z
## ##
I ON
con fig
Ġre quest
Ġl aw
$ .
ĠB ar
Ġor der
/ *
Ġl and
Ġcl ub
ĠS w
id es
Ġv is
Ġbe gan
an a
ĠP art
Ġ( )
} {
It em
av ing
E lement
com p
Ġrep resent
st it
ĠD ist
ic on
Ġ );
r ag
Ġdiffer ent
Ġg overnment
ay out
og le
Ġt ext
P E
Ġne ed
u f
al ign
Ġpro cess
ot s
w rit
Ġp resent
6 0
sh ip
ain er
Ġs ol
t able
Ġe lement
Ġhe ld
Ġal ign
Ġv ill
ĠA fter
D es
r ide
in ing
20 20
ord ing
Con fig
F ield
200 5
our ces
i od
l or
W ith
Ġb and
Ġm ake
ĠEng lish
ific ation
Ġestabl ished
he ad
em pt
c ast
E n
ĠT r
ad em
ĠJ apan
ĠH ar
Ġbec ause
' :
ames pace
Ġp o
Ġinclud e
Ind ex
n ext
se c
18 8
v ir
.. .
St ate
st ance
ole an
l ength
T R
ĠCh rist
ĠH is
ĠĠĠĠĠĠĠĠĠĠĠĠĠĠĠĠ ĠĠĠĠĠĠĠĠĠĠĠ
f in
i us
Q u
S ervice
Ġp erson
per t
Ġloc ated
M ap
ĠU S
Ġb ase
d om
oci ation
ition al
ap i
pon ent
in ation
Ġl a
w idth
ra ck
p i
Ġserv ice
Ġw orld
ard s
s erv
ĠĠ Ċ
us iness
it ch
Ġd ue
O ver
ĠW e
a us
Ġm ajor
e q
Ar ray
at ely
P I
Ġex pect
Ġp ost
Ġj o
f rac
Ġwith in
in o
Ġle g
Ġpro t
ĠM c
iv ely
Ġpro ject
Cont ext
tr ue
et work
et y
ĠL ist
ate g
Ġ( !
l t
ĠN o
ond on
our t
Ġd own
Ġm ark
Ġh ome
200 4
$ ,
Res ult
Ġrece ived
d a
Ġdes ign
t itle
Ġa round
ĠH igh
bo x
' ;
ĠM ed
Ġst ation
ak es
ne y
Ġj ust
d e
E qu
re st
is on
ĠAf ric
Ã ³
ill ion
A ll
a im
Ġp ort
re w
Ġc ap
Ġpop ulation
m en
iv ision
ou ble
B uild
Ġto ok
ĠCol lege
he s
ol ic
f ord
ĠS er
Ġh ouse
Ġerr or
Com m
al k
Ġn ational
f rom
oc ial
s w
le g
Ġbu ilt
Ġl ike
plic ation
ust om
ĠR ec
Ġ} );
Ġ/ *
Ġsh ort
Ġcomp any
ĠCh ampionship
d ay
" "
tt p
htt ps
re qu
= '
Ġar ray
Ġle vel
ess ion
Ġserv ed
Ġn ext
ress ion
Ġcont ent
anc es
Ġg ames
ĠS ec
le ar
err or
ĠH owever
m odel
res ult
Ġ Ð
ap ache
Ġt arget
Ġl arge
ob ject
ĠE ast
ĠI f
ed er
I C
Ġ} ,
ef ore
ĠF rench
. ,
ou n
Ġl og
nd er
Ġs l
ial ly
Ġpubl ished
=" ../../../../
Ġd el
ly mp
ĠR uss
Ġdef ault
ĠS ystem
abl ed
A s
ĠA ir
Ġst and
if t
ĠPh il
ar i
Ġcent ury
m ap
Ġd i
Ġt yp
ri es
a ul
ur ther
ric k
um e
Ġpro fess
ent ly
Ġpos ition
Ġm atch
ĠH er
A tt
Ġb orn
ĠS up
Ġh istory
ilit ary
a it
n ess
a ut
ĠL ondon
ens ion
ĠY ou
v ersion
r m
ee k
at ter
l in
Ġm en
op h
st ate
ener al
ĠCh ar
b lock
Ġf act
Ġre port
Ġt elevision
Ġcomp let
ĠWil liam
//// ////
in put
w ord
ev el
ru ction
al y
val id
on es
Ġc ar
Ġa v
Ġs aid
ing ton
Ġe lection
ĠGerm an
Ġa ge
Ġplay er
our s
> &
Ġs rc
et urn
C ode
ĠA b
Ġs k
Ġd ay
U R
Ġb reak
ĠDist rict
18 7
ĠC up
Ã Ń
ounc il
ail ed
[ ]
re et
I s
Ġe p
g t
Ġcomm and
arri ed
end er
8 0
S ize
******** ********
t n
Ġchild ren
al t
j ava
Ġto t
ĠC or
} ;
Ġin cre
M essage
h old
200 3
op s
n a
S er
Ġ_ _
l s
Ġv iew
ph a
ure d
Ġpos s
p en
cent er
Ġdo es
Ġm ult
um mer
ĠE n
Ġed uc
Ġis s
pl ace
Ġch ang
c ount
k en
N ew
Ġs ix
ict ion
Ġspec ies
Ġs w
20 21
row n
Ġd em
l ess
d own
cre ate
ain ing
c ss
n et
L oc
Ġr ad
al f
Ġinclud ed
ĠCom p
rid ge
and roid
al d
y d
200 1
art ment
c ed
ic le
Ġcharact er
re ate
Ġc amp
or ies
Ġf ind
lob al
Ġad v
ĠM e
b ody
a ff
ass ert
def ault
th ers
i ef
H and
Ġdescri bed
ul es
Ġro le
Ġl arg
ĠA ng
st ruct
w are
Ð °
r ont
ug g
A ss
ĠAr t
ar ray
Ġin itial
+ +
Ġcre ate
A cc
4 5
ĠP ark
Ġhe lp
ag ed
ĠN or
pl oy
Ġth ose
A D
A t
Ġpre vious
ne ction
ĠB ro
Ã ¼
at ors
u x
ele ct
M L
ĠL a
Ġar ch
200 2
Ġc rit
th ough
Ġj ava
Ġan other
empl ate
O f
Ġf ive
ĠD av
re c
Ġeff ect
in fo
ag s
Ġst ill
ĠH ouse
L iving
Ġper iod
b l
ec ut
p art
b f
end ing
3 1
Th is
ol ution
Ġth ird
Ġs ide
ac hed
cont ent
b ase
er a
ann el
Ġc ode
Ġm ust
Ġn orth
Ġp ower
om in
U T
lo at
Ġv ery
Ġd ied
pert ies
om et
Ġw eb
im it
oc us
ib r
H istory
V al
L O
r un
} .
n o
M odel
Ġ es
inn ing
Ġbo ok
c ite
Ġse e
att le
w eb
R ec
um an
Ġever y
Ġbuild ing
s l
p oint
Ġappe ar
=" #
ott om
3 5
s ite
Ġcon fig
n ode
os ed
M A
ail s
ĠC he
Ġa uthor
Ġvill age
D is
e ad
Ġe lect
Ġtot al
Ġf ore
Ġm ag
at ures
Ġ enc
ĠA ct
Ġp ath
L og
P eople
Ġc r
ail able
Ġcre ated
Ġw ar
Ġbe g
Ġus er
Ġev en
ear ch
ug ht
Ġv ol
F rom
ater ial
Ð ¾
Col or
ĠIn ternational
Ġa ir
ur ity
Ġp at
cont ext
Ġbe st
i ber
Ġ ident
ic o
Ġ= ==
ay er
ĠA g
se e
Ġwh at
b ol
im ent
ĉĉĉĉ ĉĉ
p ed
Ġ} ;
um ents
am ent
ĠInd ian
6 6
c all
if orn
con om
Ġh ost
ĠR iver
I G
st yle
op er
; </
Ġd ocument
Man ager
oy al
n ing
ic a
pr int
ix ed
iv ity
T rans
ent ial
Ġs outh
Ġs on
o on
i que
199 0
Ġgener al
Ġp e
---------------- ----------------
E nt
ĠS ch
iforn ia
A d
w ith
ĠS an
ĠP er
C ount
or ge
ĠB y
G roup
roll er
E T
m et
ĠEng land
ĠC ont
; &
ar a
ĠE l
Ġex per
y l
Ġs pe
Ġl ate
ĠTh ere
ĠA c
n ect
199 9
b urg
min ist
Ġk ill
ĠG et
O ut
use um
g ed
equ ation
f alse
Com p
U p
Ġex pl
Ġ u
t ings
Ġwith out
P r
includ e
Ġt em
IN G
land s
ĠM ich
A S
re l
er ence
20 22
er ing
Ġfe ature
In ter
ĠO ff
oug ht
ounc ed
3 9
opt ion
pos ition
P h
5 5
Ġw ater
T D
Ġa ff
st art
Ġcon f
Ġit em
ĠPart y
ĠO lymp
ĠD es
Ġf ac
pl es
Ġro und
) </
Ġcon d
Ġin c
t rans
g color
R eg
Ġb order
< !--
ĠV al
vir on
pos ed
ĠCal ifornia
oci ety
av y
U ser
=" ../
p ackage
arg in
Ġle t
om b
Ġreturn ed
UL L
Ġmov ed
Ġin s
ĠAustral ia
Ġb lock
g ress
Ġdist rict
Ġs ite
ra in
il ar
Ġcont ext
Ġb usiness
Ġt ry
ĠQ u
am a
Ġin formation
i j
Ġ: =
ĠD ep
Ġm at
Ġdeath s
Ġcount ry
Ġl ed
D O
A B
I S
Ġm ax
M P
on se
se qu
u el
ab ility
Ġex ample
ĠE m
T able
E D
ĠI m
Ġsh ip
C H
Ġinst ance
Ġw orks
it es
Ġm ale
Ġte chn
m ax
t es
C all
Ġw ay
Ġcol or
Ġh istor
, \
S ystem
Ġwrit ten
emb ly
Ġatt ack
ight s
Ġcomm on
Ġin put
e ction
F A
T r
B ar
Ġof ten
iv il
Ġd est
ĠQ ue
ĠRep ublic
ok en
======== ========
U N
Ġbe h
im ary
ith ub
li b
Ġtr ad
Ð µ
um p
ĠP ort
Ġst at
c a
ap er
Ġresp onse
Ġw est
Ġb gcolor
C lient
Ġs ource
Ġn ov
Ġf ull
ww w
n ow
Ġev ents
ĠĠĠĠĠĠĠĠ ĠĠĠĠ
Ġc ult
Ġc over
3 4
9 9
Ġt urn
3 7
) $
ourn al
Ġind ex
ĠAr my
Ġeng ine
Ġex ist
Ġm uch
n amespace
o ks
Ġde v
Ġand roid
ĠA ward
âĢ Ķ
ir t
Ġg en
Ġst d
Ġcont rol
n own
us ing
Ġs old
Ã ¶
Ġam ong
Ġt ake
ab or
se ction
b uild
Ġresult s
orm al
go ogle
way s
an ish
def ine
o ke
d ev
ym bol
Ġp res
Res ponse
Ar g
Ġin ternational
Ġg rad
qu ad
pro t
Ġs ent
if f
Ġa nt
âĢ Ŀ
199 8
} (
Ġp ri
st atic
N A
Ġe ast
d b
m ethod
> (
le te
Ġback ground
Ġestabl ish
Ġd a
Ġf ather
ĠCh urch
g ithub
Pro perty
g es
Ġspec ial
r s
Ġpro duction
9 0
el ta
eg er
idd le
ith er
Ġf em
Ġre al
Ġstart ed
Ġcon c
ĠR oman
6 5
s up
math cal
a el
Ġm y
it ive
Ġpro duced
198 0
og n
fin ished
ĠO ne
Ġint ro
ĠB er
act ory
ĠFran ce
C E
Ġb ool
Ġn ode
olv ed
ĠA meric
re ed
Ġche ck
al a
un k
Ġann ounced
Ġpart ic
o th
B e
d oc
Qu ery
ĠInd ia
Ġp arent
M od
Ġt imes
b or
Ġpro perty
id ual
Ġ Ã
ĠA cc
Ġm ap
Ġval ues
Ġreg ion
ĠĠĠĠĠĠĠĠ ĠĠ
Ġacc ess
Ġde but
Build er
ell ow
Over ride
ag ement
i ol
pro v
S p
if ier
Ġa ward
U S
ĠĠĠĠĠĠĠĠĠĠĠĠĠĠĠĠ ĠĠĠĠĠĠĠĠĠĠĠĠĠĠĠ
Ġpolit ic
E d
3 8
Ġb as
che ck
pt y
al pha
it ar
A fter
4 4
ĠR ed
Ġt w
at ab
M ethod
ĠF il
it ect
ĠH ol
Ġy our
Ġvar ious
B C
Ġv ideo
Ġdevelop ment
ev ent
Ġt able
Ġadd ress
O T
ad o
un icip
ĠR ev
os p
ĠB el
en ame
ĠA nt
Ġre search
Ġm iss
n ull
Ġran ge
y les
7 0
Ġ et
Ġa ction
viron ment
ro y
EN T
ĠM al
ab les
Ġd iv
qu ery
Ġep is
Ð ¸
Ġo ptions
W rit
res p
c ore
ĠCanad a
St ream
199 6
ĠM on
ĠS et
Ġm illion
Ġf ew
ou d
Ġav ailable
Ġyou ng
Ġc ell
fl u
3 6
j av
ic ense
d l
Ġn il
Ġb ody
Ġbecom e
Ġc ame
Ġoffic ial
ĠW hen
ĠC ouncil
h and
7 5
o z
g le
m ar
Ġrequ ire
E m
Ġm essage
Ġcommun ity
un finished
ĠG eneral
Ġcl aim
Ġh aving
erm an
ran t
ac y
Ġm er
199 7
Ġapp oint
l ight
E S
ur b
ak en
ĠR ober
ibr ary
ĠAmeric a
Ġpoint s
in ary
Ġcom b
ro te
ĠTh om
Ġw ent
y ear
im age
c le
al ian
d ir
o ice
h a
ĠJ ames
ist ry
} ^
O ff
ol l
D ate
E nd
w est
j o
Ġpolit ical
U til
4 8
ĠP resident
olog ical
ĠD ivision
ĠEurope an
m ing
pl it
] (
c urrent
A nd
u ation
ĠM or
ĠS m
Ġh old
g en
y a
Ġsim ilar
A ct
er o
ou thern
] )
ĠSt reet
au th
Ġ ke
Ġl abel
ĠGe orge
197 0
Ġm arried
ribut ion
e al
Ġh ow
ĠR oyal
i ers
S ub
li ed
it te
I L
ent ion
c er
re quest
k a
c lient
ph p
v ille
St atus
n s
amb da
Ġf ri
ĠB r
ĠCl ass
A ction
but ton
read y
ĠP al
ip le
Ġtra ck
an ia
opt ions
ag o
Ġra il
Ġl anguage
Ġcons id
ud e
Ġdef e
Ġc apt
ĠM ount
Ġdis play
ĠD i
itt le
st on
ĠâĢ ľ
Ġch ange
Ġm ilitary
D I
Ġass oci
Ġw idth
ĠThe se
ĠP aul
Ġinter est
ree k
Ġjo ined
c d
Ġm em
h ib
Ġpro duc
ig ation
} _
c ell
m ark
Ġ- >
umn i
ĠĠĠĠĠĠĠĠĠĠĠĠĠĠĠĠ Ġ
ra b
Ġwork ed
im ate
u it
199 5
Ġatt empt
ĠAss ociation
Ġinst all
Ġg l
he ader
199 4
ep s
Ġsup er
~ \
ĠP e
ĠD r
b tn
Ex p
epend ent
ĠI nt
ĠR ich
add ing
inn er
ĠS en
arn ing
Ġo ur
Ġ< <
Ġsp ace
at form
h an
I P
bo ard
ot o
ON T
ĠIn stit
q l
W e
ĠD em
ef f
arg s
Ġl ow
o e
ars er
ser ver
B ase
Ġw in
b it
C A
$ \
at al
ra v
ib ility
Ġrequ ired
ut es
N o
id a
ĠUn ion
Im age
ateg ory
ist ic
atri x
an el
ĠG l
oc r
m on
h as
and er
ĠGerm any
fer ence
et t
Ġinv est
av es
Ġpartic ular
N av
und le
Ġgroup s
act ive
Ġd er
199 2
Ġh owever
ĠAustral ian
itt ed
Ġe ar
ĠSt ud
ch o
Ġprofess ional
Ġp ract
m u
ĠN ULL
ra z
ĠA dd
Com ponent
Ġpop ular
Ġserv ices
18 5
ĠL ou
ĠN e
Ġa ver
ĠM ont
Ġpro ble
Ã ¤
W h
Ġw rote
ĉ Ċ
ill s
r d
Ġh alf
p age
Ġs ocial
Ġp resident
O ptions
Ġcol l
Ġde g
ar ies
Ġconsid ered
Ġimp lement
ĠDav id
= \
T H
ĠT o
A pp
Ġp age
ask et
Ġopen ed
Ġst ory
i ation
( (
Ġan im
Ġin div
Ġf ree
ĠT est
ĠĠĠĠĠĠĠĠ Ċ
Ġg ood
Ġpr int
ic ro
is ing
he ight
Ġf urther
he m
at ural
) \
a ur
P os
L ine
ut ure
y nc
Ġl ength
Y PE
ul a
Ġl ess
In put
ce ed
ĠG roup
Ġrele ase
Ġ" ""
= #
im um
Ġw ant
ĠA p
atab ase
eg a
Ġpart icip
ĠW ith
ul ated
ĠF irst
ĠH all
ug in
ĠD ef
ĠS im
ial og
an i
Ġch urch
Ð ½
k y
it z
ran ch
199 3
Ġact iv
c is
g in
Ġrel ations
Ñ Ĥ
E ng
nav bar
, "
D ec
Ġd ays
in it
Ġse par
ĠD uring
T oken
eb ug
am ma
Ġc al
N S
Ġimport ant
h ost
Ġdirect or
Ġsong s
S elect
18 6
f e
O S
id ence
Ġc aus
c hed
| |
ab ly
or age
Ġab ove
ri an
ash ington
x y
R A
f ont
op en
a ign
id get
ĠM ag
Ġstud ents
ĠT rans
app end
Ġst atus
Ġbro ad
Ġteam s
Ġcomplet ed
Ġv oc
f unc
Ġout put
[ "
ert ain
ar row
In stance
S ource
ĠM art
ĠD is
ak er
Ġindiv idual
an ies
Ġcol lection
oun ter
ĠR oad
t x
ĠBl ack
Ġl ost
Ġm id
RE F
Ex t
ele te
Ġro ad
ot ed
ot a
R un
ri a
S ec
y th
ip p
ĠAc adem
Res ource
y cl
S P
( {
ĠPro v
Cont ent
Ġto get
Ġph ys
4 9
es h
Ġtoget her
ig in
199 1
e h
Ġst ar
Att ribute
Ġro w
ĠCh ina
Ġcomp os
t ab
st and
ĠM ex
G e
ĠĠĠĠĠĠĠĠ ĠĠĠĠĊ
liam ent
Ġre view
Ġw he
Ġbo olean
r l
ĠAr ch
Ġre d
ap s
k nown
ugh ter
4 7
Ġcl ose
Ġstud y
ch ild
Ġre pl
Ġpro duct
wo od
\ \
ĠM ary
itte e
ch ange
is l
n el
j son
Ġres pect
196 0
Ġs igned
Ġind ust
Ġe conom
0 1
O per
Ġl o
t arget
x ml
e an
Ġcontin ued
Ġad minist
Ġbl ack
E X
Ġh ttp
C C
Ġim age
ĠCl ub
ĠF l
B ut
d o
P art
ĠC ourt
le m
ĠComp any
ĠL aw
Ġalbum s
ĠH en
Ġset t
Ġadd ition
Ġdif f
Ġm ot
il es
Ġpart y
U E
f inal
m ost
g r
Ġb ound
li es
A p
ĠP ri
Ġp aint
Hand ler
ĉĉĉĉ ĉĉĉĉ
Ġe ither
ish ing
ĠRober t
Ġme as
ĠM usic
Ġl ight
p arent
ĠG ames
B lock
Comm and
ig ma
N ull
t ain
Ch ar
C he
ĠD on
U s
I I
Ġar r
Ġsur v
am ples
Ġprov ided
ĠCent er
Ġm ass
ir it
ĠCanad ian
Ġm ove
c el
st ream
Ġare as
ĠIn ter
us ed
Ġsuccess ful
en a
Ġ( "
em ents
oc ol
g ing
Ġeduc ation
ic les
ĠKing dom
Ġc ross
Ġm ar
ines e
iz er
G ener
id ing
Ġ+ =
Ġstr ong
Ġp ut
Ġsup p
b ottom
ĠIs land
as ons
Ġwork ing
ar ian
Ġob serv
ĠS ociety
Ġrecord ed
Ñ Ģ
v is
ust er
ens us
in ition
T O
St art
asket ball
Ġin f
Ġdec l
Ġsign ific
ad ata
Ġse ction
M S
Ġb i
ĠS am
ic ial
ers hip
se lect
am ily
in st
f ind
Ġd ouble
Ġfootball ers
air s
ber g
Ġcol umn
F irst
Ġg row
row ser
ĠG o
Ġd ate
ĠM y
Ġor d
) {
ĠV ir
E E
Ġn etwork
C ell
ĠAfric an
ĠW ashington
ĠC ath
al let
P oint
and id
" ).
u a
Ġco ach
Ġadd ed
B ack
_ \
Ġweb site
f irst
ĠM et
ĠT own
Equ al
Ġe lected
Ġk m
Ġdirect ed
Ġfound ed
W indow
est ival
Ġmed ia
Ġw eek
one y
Ġt en
st atus
c an
pro perty
Ġreport ed
in i
Ġdevelop ed
198 9
Ġc ur
pr ivate
Ġra ce
ou ch
ĠH istor
Ġacc ount
Ġm aking
Ġl iter
E L
Ġn ever
S pec
ribut ed
198 8
c ks
i res
ĠS l
D e
Ġw ife
Ġf und
Ġind ic
Ġval id
Ġappoint ed
Def ault
Ġh on
b and
ot ype
back ground
ĠRec ords
p ost
le vel
ber t
at ives
C K
ct or
il ities
m eta
Ġc ast
Ġhe ight
ĠJapan ese
F actory
Ġon ce
ĠT ur
B uffer
ra ce
ĠM iss
Ġshow s
resp ond
ad a
" ),
Ġin flu
Ġconst ruct
ol it
id s
Ġexpect ed
Ġaver age
i qu
u z
O L
Ġkn ow
ugg est
he l
ĠInstit ute
writ e
Ġw indow
ict or
ft ware
ĠS ing
ĠP ress
Ġle ague
Ġal umni
4 6
ĠN one
Ġl ive
Ġfe atures
ĠĠĠĠĠĠĠĠ ĠĠĠĠĠĠ
ĠJ ack
al ys
ribut es
Ġ ide
Ġme et
med i
F l
Ġh uman
Ġal ready
h o
p ass
str ong
v es
ĠU p
Ġac ross
Ġg round
ourn ament
b s
pt r
as cript
LA SS
Ġv ia
d ec
ist ics
un t
Ġprot ected
Ġappe ared
Ġ( $
Ġh ere
Ġex ecut
im g
ch ar
Ġem ploy
s rc
Ġf ire
F unction
Ġform ed
ĠDep artment
du ce
all s
Ġo thers
Ġperform ance
Ġof fer
cl us
Ġo pt
Ġcent er
b a
s g
Ġm argin
Ġl oad
Ġcomp on
Ġact ive
at ory
mod ule
l im
des cription
Ġnov el
Ġf ocus
Ġc irc
ĠT V
Ġg reat
Ġposs ible
Ġres ource
im ately
re ct
ĠM useum
ir m
V ersion
ĠAng el
ĠT ex
ĠD o
Ġcont ract
m ember
our se
Ġinst ead
Pro v
overn or
F I
ĠIt alian
f rame
ĠG rand
L ink
Ġrec ogn
ĠR ail
un s
ĠS ummer
ĠV ol
ĠG reen
ĠThom as
th ing
ĠN ot
ph i
Ġs it
C o
H el
Ġvar i
if act
N umber
ĠAcadem y
Ġoff ice
p m
ĠCent ral
Ġarch itect
h i
ic y
il i
Ġp red
li er
Ġp ay
ic ation
ĠOlymp ics
ĠB est
ĠO bject
F rame
ĠS al
c ase
ĠG r
as ing
i ents
so le
Ġs em
ĠZ eal
eder al
ens ive
ĠM ark
* /
ĠB ut
ĠRuss ian
Ġb ar
ĠA lex
r t
ĠF ootball
th let
com e
st d
ĠB ay
ĠF rom
s m
" ]
ĠM ad
ĠZeal and
ĠAfric a
o ch
s pec
$ {
Ġte ach
Ġle ast
Ġqu al
Ġac cept
p ush
che ma
h at
ĠComm un
st ra
ire ction
ĠP at
ĠC ong
Ġv ict
Ġf low
198 7
ud io
4 2
Ġro ck
St yle
he et
00 00
ele ment
Ġst ates
Ġcomp ut
i i
l a
cl ose
R ow
on a
} );
wh ere
M ed
O P
ĠM ac
ĠWest ern
ock et
c ial
Ġass ist
Ġn av
i os
Ġpl an
Ġdet erm
Ġ\ \
R eturn
Ġc ost
ent ry
Ġ$ (
ed y
st yles
Ġt our
Ġh ous
r ish
Ġperform ed
k ed
ĠChar les
ar ter
irt ual
ap ter
P RO
as c
Tr ue
198 6
S up
Ġgu itar
ĠG old
l ayout
Ġst age
f low
Ġdef ined
sp ace
Ġm aterial
Ġschool s
Ġbir th
Ġd on
8 8
Ġt aken
Ġ< !--
Ġhim self
ĠSc ott
Ġform at
Ġph ot
Ġinclud es
Ġmod ern
Ġl im
Ġrem ov
bo ok
enc ed
Ġright s
pro ject
Ġrad io
Ġm other
H T
el ine
Ġc atch
ĠJ ew
p c
yp es
p ite
ĠVir gin
pect ed
irc raft
} ^{
ĠLou is
P age
Ġf ront
l ast
osp ital
h ood
Ġcont ains
ly ing
re land
Ġcons ist
jav ascript
0 5
ĠB en
Ð¾ Ð
ĠL eg
ud d
198 4
F ONT
Ġme an
7 7
er rit
Ġloc ation
AT E
ĠH am
Ġcl ient
enc ies
it ing
Ġreg ular
l v
ch iev
Ġstruct ure
ress ed
Ġd en
L abel
il er
ic an
Ġv iol
ĠMin ister
ĠY ear
ĠR eturn
l anguage
Ġbel iev
A G
ac ity
cont ainer
k i
B U
u ated
ĠChrist ian
ĠK ore
^ {\
5 00
198 5
Ġs ports
az ine
Ġt ro
re y
Ġcomp anies
Ñ ģ
V ER
L ast
Ġth ough
ĠR ad
ro s
Ġconst ruction
Ġt re
R ep
Ġre v
us ical
ran ge
p ack
ur a
Ġfin ished
Ġplay ing
Ġmed al
od ing
alys is
Ġd om
Ġsignific ant
ac ing
im al
Ġl ook
Ġbuild ings
M O
ro ad
ĠCar ol
} _{
Ġda ughter
form at
B ox
Ġa way
ell ing
ag ing
em s
Ġs at
Ġm unicip
D et
M et
Ġsub ject
yn am
Ġac qu
men u
ĠTex as
am s
he ast
ann ot
Ġse en
Ġn ames
Ġf ar
ĠU K
math bb
s ervice
Ġp ot
loc al
l en
Ġal though
con s
m i
A P
Cont roller
Ġe ight
B undle
Ġs uggest
Ġext ends
Ġcurrent ly
o res
idd en
Ġst ations
Ġthrow s
Ġ url
b our
ĠMich ael
Ġab s
- \
Ġ ener
L e
Ġse lected
S C
ache s
Ġin it
Ġbo x
Ġo ption
Ġin ternal
Ġtra ining
ex p
Ġelement s
Ġf a
row s
Ġp ref
ra el
ĠG reat
p ng
ĠM er
195 0
Ġwh ite
Fil ter
ĠT om
l ambda
P ar
pe ople
ĠCh inese
Ġab le
f oot
Ġresp ons
ĠFran cis
am l
sh ire
Ġcamp aign
G L
Ġassoci ated
T ask
( &
// /
Ġg e
ĠT or
ob j
dis play
ĠCath olic
at re
Ġf lo
ar io
Ġfollow ed
Ġmon ths
Ġwrit er
Ġ{ @
Ġl iving
Ġaut o
Ġc ustom
Ġf ail
ov iet
S ON
ĠI N
fil ter
Ġn or
Ġgo al
ĠC ons
Ġcon duct
AB LE
198 3
end if
ch an
g rad
U I
Ġprov ide
evel op
Ġ{ \
r ate
List ener
Ġhe alth
Ġepis ode
i as
ĠS ervice
id ae
Equ als
Ġd ram
erv e
r ated
ec ess
res ponse
; "
Ġcon v
Form at
art s
ĠE ar
Ch ild
un ch
al le
Ġt ransl
Ġf ight
A m
Ġc ou
Ġlead ing
P er
pp ed
M en
Ġocc ur
L ayout
: </
But ton
Ġd raw
ĠWh ite
C reate
Ġs ound
Ġse qu
duc ation
Ġent ire
Col umn
Ġcharact ers
Ġin j
Ġtrans fer
d et
//////// ////////
ĉ ĠĠĠ
Ġkill ed
Ġst op
om a
Ġn eg
Ġs uff
oc key
Ġse arch
Ġc opy
Ġp ur
C an
Ġbel ow
W eb
param s
Ġ ill
ĠL at
Ġs il
Ġst ream
198 2
vers e
Ġappro x
Ġoper ation
Ġst ri
Ġm ount
b eta
Ġdes igned
Ġg ave
ol s
ec k
li ke
up date
qu are
Ġp ress
ill a
ĠD ay
6 7
ut ch
Ġart ists
u an
ĠPar is
Ġpl aces
Ġv ers
Ġcons ider
id ents
Ġfem ale
B A
Ġt it
Ġrepl aced
0 9
er ry
0 8
Ġrel ig
ish op
ĠAr g
ĠA pp
ĠD irect
ig g
iz ing
Ġn umer
li p
ĠSp anish
< ?
ĠS ub
g ener
ef ined
Ã³ n
Ġl ower
or ial
ĠJ ose
e in
app ing
ag n
Ġj ournal
in stance
ry pt
Ġmark et
4 3
4 1
' '
Ġpolitic ian
M ar
Ġs m
197 9
Ġbo oks
ĠT ra
Ġc andid
Ġp ast
is es
Ġl oss
ĠT ri
it a
ĠF ore
Ġconst it
Ġl ink
ĠH REF
Ġde b
ol f
Ġfor ces
ĠD an
ĠDem ocr
er b
Ġlarg est
Ġp erm
b ased
Ġun it
m m
N O
ob ile
Ġf ig
Ġj ud
Ġ( (
s um
T P
b uf
n y
ens ions
Ġintro duced
n umber
ou l
g l
Ġspec ific
it ter
Ġmult iple
ĠSm ith
s im
ĠP eter
Ġh om
9 5
a o
Ã ¨
p ose
Ġfor ce
at tr
ist an
ĠAss embly
Ġn one
Ġf ont
Ġoriginal ly
ĠV ictor
Ġallow ed
ĠW eb
`` `
Ġd am
P re
ĠF lor
or iz
il ies
ĠO ut
p o
#### ####
ad ow
Ġf ailed
ĠFor ce
I f
F C
st ract
ĠOr der
ĠS ome
Ġun s
. )
ĠAcc ording
ĠM el
Re ad
Ġbro ther
S e
ĠGe org
raz il
E arly
sh ow
Ġc ivil
om s
por ary
' ).
ĠI reland
ĠRich ard
Ġc ourt
Ġcent ral
Ġestablish ments
Ġadd itional
O b
Ġme ans
z a
ĠB ill
A A
Ġsub sequ
Ġun its
198 1
A ut
ell a
Ġcomp lex
Val id
m em
ĠSup er
Che ck
Ġstand ard
ĠP enn
ĠC LASS
ER R
ri ef
ĠP ublic
ic ago
or ing
i Ä
=" ../../
ĠFran k
st ant
k m
ĠP an
="../../../../ ../
IN T
197 2
ult ure
Ġd one
Ġchang es
Ġrem ained
rem ove
ig an
Col lection
Ġc ases
ĠM ass
Ġse ven
B l
av en
uf act
ĠL os
Ġthrough out
il on
ã ģ
ĠHen ry
Ġchang ed
Ġmiss ing
Ġterm s
ĠH istory
Ġpro b
Not es
ĠO pen
ord in
Ä ģ
ã ĥ
anc ed
Ġfri end
Ġbo ard
an o
ĠO per
Ġaward ed
Ġpart s
Ġsystem s
ĠL ake
al ed
on ly
ol k
Ġinst it
Ġs en
m t
8 5
Ġ ens
ĠS ant
Ġinv olved
ĠS k
Ġfeature d
ant ic
ĠS o
0 7
197 6
i ra
re a
m ain
Ġcor respond
Ġener gy
ut ions
ĠE mp
S w
ĠSw ed
ĠFil m
ĠM od
Ġtyp es
Ġa ircraft
ĠJ ust
UR L
_ .
Ġdisc over
Ġf rame
y nt
Ġp ers
CO L
Ġlist ed
s i
Ġpr imary
Ġt reat
ĠD el
U rl
Ġ( \
F L
res h
out e
t ag
Ġwho se
197 8
Ġa chiev
Ġs ay
Ġf requ
I M
ĠW omen
ig ger
n um
Ġj ob
M ode
Ġdeg ree
ĠB ase
and s
U M
Ġ Â
Ser ver
ĠChampionship s
Th ere
ĠC amp
i ences
0 6
ian t
Ġh ard
l ong
Ġevent ually
Ġto o
Ġwrit e
ĠSec ond
Ġrun ning
L ength
Ġwrit ing
Ġup on
ĠVirgin ia
Ġex cept
el t
Ġcl osed
197 4
ĠL u
Ġup date
ric s
g or
T V
he st
ĠR ef
Ġlin es
s d
Ġsh own
ug by
Ġ ]
Ġf av
we ight
197 5
Ġint eg
ri al
ar ily
ĠĠĠĠĠĠĠĠĠĠĠĠĠĠĠĠ ĠĠĠĠĠĠĠĠĠĠĠĠĠĠĠĠĠĠĠ
ĠC ast
Ġwhe ther
w ise
Ġcl os
Ġoper ations
Ġcount ries
ĠH ill
d at
Des cription
ed s
Ġg old
ue st
Ġus ually
Ġst ated
ĠR ob
n on
arn ed
pro cess
ol a
Ġspec ified
ĠS pec
197 7
math bf
action s
Ġt ournament
T YPE
off set
Ġsing er
util s
196 8
Ġpl ant
Ġn atural
Ġsc ored
Ġpol ice
P ort
s igma
eth er
P op
M in
Ã §
ĠComm ission
Ġart ist
ĠR em
Ġen vironment
Ġbroad cast
ĠK h
ĠH T
0 2
az z
à ¤
A b
t ained
Ġsupport ed
im ation
Ġr ather
NA ME
P erson
t rack
Ġser ver
Ġl ik
Ġsc reen
F e
sy nc
ev e
Ġpass ed
en ed
k it
w ell
ĠT ype
Ġdest roy
ĠI ll
Ġ quest
col umn
T rack
d f
Ġhouse hold
Ġrel ated
el se
Ġpri or
H E
or por
Ġre n
er ia
E nc
ĠWh ile
I Z
ol ve
ĠF ound
ur i
ĠM il
Ġc red
b oot
197 3
ĠI D
Ġmat ches
ĠMex ico
Ġman ager
Ġst e
mer cial
Ġam ount
g u
Ġl imit
Ġc le
Ġne igh
ĠIs rael
ach ine
Add ress
Ġent ry
Ġb asketball
ens ity
y e
ĠN avy
ĠIt aly
af e
od ed
art ifact
9 6
Ġfil es
at o
ĠSc ot
^{ -
Ġc lear
=" -
ild e
Ġ čĊ
CO DE
O ne
Ġcompet ition
Ġcrit ic
d r
ĠM us
am i
T arget
sup port
Ġcall back
ĠL og
197 1
ĠAr ts
Ġs ch
Ġmod ule
Ġparam eter
8 6
Ġre ached
++ )
ĠS ur
ĠS aint
ad es
Ġus es
9 7
ot es
R em
Out put
194 0
( _
Ġ! ==
Ġhigh er
P C
Ġf all
s mall
0 4
d epend
st rap
Ġf uture
Ġits elf
Ġg lobal
ĠE v
M ax
194 5
Ġed itor
ĠR ock
Ġprevious ly
Ġfour th
Eng lish
Ġfield s
ĠT ime
D B
requ ire
k ing
Ġc are
5 7
C ache
out put
ĠF orm
ab it
C ON
w indow
it ory
ir l
Å į
ĠM o
196 9
ĠC O
ĠAr ray
Ġout side
ER T
ĠCh icago
c ond
0 3
ret ary
Ġc ut
Ġacc ording
Ġcol lege
) }
ell s
Ġmodel s
W idth
old er
Ġst aff
ĠAt l
he t
as y
Ġpl aced
b ind
Prov ider
d ist
all ery
Ġrelations hip
Ġb en
Ġpro perties
Ġtra vel
Ġv ert
Ġpro p
Up date
w ait
Ġde al
g reg
ot al
ĠG od
Ġmethod s
ref erence
umb ers
atri ate
il s
ĠAngel es
r as
Ġse lect
Ġs aw
T ypes
w rap
g n
w in
Ġ[ ]
5 8
Ġal ways
Ġcomp lete
Ġ ir
ul ate
r ative
Ġact ress
ens or
ub e
C areer
and om
ur d
ĠReg ister
ch i
Ġcontin ue
T op
ound s
Ġwrit ers
Ġd u
Ġparam eters
class es
ĠS oviet
Ġap plication
Ġreg ard
Ġvoc als
D ev
et te
Ġdisc uss
ĠK ar
ĠComm ittee
Ġex hib
Ġread ing
Ġt im
or a
comm on
ĠSt ar
Ġro ute
Ġpr inc
19 30
ĠProv ince
ĠPar liament
> >
ar ing
f a
T ag
Off set
b on
ian o
196 7
sc ope
Ġs om
er efore
iz ations
ĠSc ience
ĠF estival
ann ed
omet imes
Ġcon vert
ing u
le v
ĠO ther
ĠD u
Ġt ax
ollow ing
V is
Ġes c
b reak
l am
Ġcap ital
Ġn ight
; ->
ef t
ĠE X
Ġrefer ence
Ġind ependent
Ġ ...
i en
ess ages
I O
ro ot
ĠW ales
ĠL icense
ĠFlor ida
ĠIt s
d elta
iz es
Param eter
Ġpro te
b ig
Ent ity
ur t
ĠA PI
hed ul
Ġthe ory
Ġs ex
^ \
Ġexp and
Ġtrans port
ĠTe chn
**************** ****************
9 8
ong s
u ate
ĠCong ress
ig hest
ang ed
c m
Ġrun s
Ġact or
k o
ol ar
prot otype
c s
Ġeff ort
re me
d raw
d ocument
Ġs ym
ad ium
Ġreturn s
vent ion
p es
y r
i ro
b ool
~ ~
ian a
Ġle ader
j a
ĠV er
Ġal most
196 4
par se
ĠH el
Ġinter face
* }
C urrent
t emplate
m it
return s
l ic
li e
Ġocc up
Ġcal c
ĠCarol ina
Ġre ve
A M
um s
ĠHistor ic
I V
ã Ĥ
Ġarg s
Ġs us
ĠG overnment
ĠL and
ig ital
Ġre b
ru pt
Ġth us
5 6
Ġob j
Ġrepresent ed
Y ear
T ree
Fil ms
artifact Id
d s
ĠF ield
ĠRuss ia
P O
B o
ot ion
a ud
ĠF in
Ġdec ided
pro to
ic ult
Ġg raph
ĠA v
Ġor igin
Ġbeh ind
ĠB uild
IN E
He ader
Ġ q
Ġt ask
Acc ess
ec ute
unc hed
Ġr ate
Ġcon nection
ĠD en
] );
U P
ĠB rown
et ch
b es
p ing
ĠL ong
i h
Ġmov ement
Ġc ertain
Ġw ord
Ġf loat
) (
c y
. /
ĠAn n
A g
Ġch ampionship
Ġrail way
Ġke ep
b in
d ep
N D
evelop ment
Ġf if
Ġse asons
Ġro ot
ann er
Ġcult ure
ĠK n
196 5
ĠA wards
ov ers
M on
t imes
Ġqu ery
Ġproble m
ĠM em
Ġcond itions
it ors
+ \
ĠS un
7 6
al i
g amma
and a
styles heet
Ġg r
Ġbeg inning
() ->
ĠB razil
Ġ* *
' ),
196 6
Ġfunction s
Ġch annel
w ide
Ġmon th
auth or
t ree
L oad
Ġc ensus
Ġn et
Cont rol
Ġpol icy
loc ks
ĠEmp ire
or al
Ġbet ter
ĠK e
Ġh it
Ġst ore
19 20
ĠO ld
Ġim m
ĠM ain
L evel
sy lv
ic ient
Ġn ormal
Ġb ank
Util s
Ġd oc
ĠT wo
Ġd ivision
B S
Ġh app
Ġg rand
a ver
he nt
UL T
Ġiss ues
pec ially
M embers
u id
ĠT our
or se
Ġal t
Ġsc ient
it ude
n u
O pen
ĠS ince
Ġd im
Ġu int
Ent ry
ers ey
Ġorgan ization
Ġatt ended
Rec ord
t ml
C D
ĠD ev
Ġt aking
Ġsc ore
p y
so ft
V AL
ab s
ul ations
ĉĉĉĉ ĉĉĉ
Ġproduc er
s ign
Un it
% ;
ĠO h
sylv ania
m ission
Ġed ition
un it
Ġiss ue
ĠO F
ĠSer ies
Ġfam ilies
Ġp urch
Ġm ight
ĠNor thern
group Id
in et
ĠSp ace
ill er
ĠP et
anc ial
or ph
ĠR h
ĠS il
ec ution
ĠA rab
d en
ĠL ine
L o
C L
Å ¡
Ġdefe ated
Ġl ittle
H ttp
Ġim prov
Ġstud io
Ġaut om
Ġdep end
Ġt ree
C ase
re ater
Ġstud ies
rag ment
m atch
D uring
S he
oriz ont
5 1
Inter face
ĠG L
' .
ĠA tt
S l
ar p
Ġp ark
Ġw inning
A V
: (
in ct
at i
ĠN S
Ġs n
ĠM os
c ard
ĠH ow
sh ould
O ther
iÄ ĩ
Pro cess
ĠR o
fil es
ĠI rish
E CT
r ig
ĠRes earch
ĠL iber
Ġbro ught
fl ict
Ġl en
Param s
Ġplay s
ĠB attle
: #
Ġse lection
Ġindust ry
ann ing
Loc ation
ĠP ac
Ġr iver
amp ion
ent al
ĠD ec
an ks
Cont ainer
Ġb all
} {\
Ġpo et
Ġ ;
Ġnor thern
Ġtrans form
Ġg ive
T e
d rop
4 00
Ġs outhern
ĠS ir
n ected
ĠC D
ĠCol umb
Ġperson al
A c
Ġrem ove
to ken
Ġfil ter
im a
ĠM ur
Ġfollow s
Ġre ach
Pro ject
c ache
Ġsp ent
ĠD et
Ġm ode
ig a
5 9
H O
ĠL oc
Ġmin or
R el
a ught
Ġconc ern
f loat
mod al
ra k
Ġend ed
ĠC am
erv ices
Ġk ing
He ight
ĠC r
ĠO ver
Ġso ftware
p atch
ans as
Ġv irtual
ĠG ar
w an
olic y
IG N
ĠF ort
ĠMart in
Ġpl atform
ad y
Ġm usical
Ġco ast
ĠR os
Ġto wards
aw a
gor ith
P o
plic it
ĠB ur
Loc al
( [
X X
ĠF ile
u int
ĠB as
un ior
Ġcom ment
Ġman ufact
ic ated
ĠF e
Ġv eh
Ġ ::
Ġr ule
y an
ĉ Ġ
ag on
g ate
fig ure
Ġc rick
Ġman agement
ĠBo ard
: "
Ġsol id
if orm
Ġ{ }
pon ents
ĠD ata
Ġsc ale
iet y
s ort
b efore
Ġpr ison
Writ e
ĠB oy
is ation
Ġs cript
ĠIn c
Ġsing les
is ions
av al
iction ary
D irect
ex pected
ĠJose ph
ick er
m ut
Ġv er
ify ing
Ġgo als
ing le
8 7
Ġn ative
ĠT im
im ated
p op
Em pty
ĠL in
Ġx ml
Ġcom e
n am
ele br
S earch
h r
Ġoff set
ĠEng ine
ĠP o
Ġnew sp
tt ps
ĠSp ain
Ġsh ot
Config uration
ĠPenn sylvania
Ġac adem
ult ural
196 2
S cript
Ġes pecially
ĠTe am
stand ing
inn ers
g raph
196 3
DI R
Ġf ood
COL OR
Result s
ĠO l
cont rol
194 4
3 00
Ġs ession
ĠL ife
Ġsc ience
Ġis land
Ġa ud
ol y
Ġim medi
K E
os h
Ġt ag
dev ice
Ġb ur
Ġc ourse
ĠC reate
$ -
ĠW ood
Ġst ep
Ġapprox imately
FF FF
Ġun ion
k ind
math rm
Ġwh om
Ġso on
Ġst re
ĠT imes
ak a
ĠM a
ĠE r
empt y
Ġh ighest
le ase
is c
Ġc op
i ography
om ic
Ġsc ope
N e
Call back
J ohn
ĠL ove
ang er
ĠR un
ĠG reek
d im
ĠE nd
H ash
b uffer
act er
Ġent ered
" ))
Ġbeh av
d ated
Ġn ecess
r ho
Ġsur face
orizont al
t im
Ġph il
ix t
Ġown ed
F O
ĠM en
Ġlarg er
a res
5 4
h ouse
lo od
h ash
ug ins
Ġw ood
="../../../../ ../../
Ġh ttps
ĠF red
Ġstruct ures
Ġt errit
Ġad apt
N ext
ĠB ig
Ġ* )
que ue
ar ks
Ġla unched
Ġth ought
ĠC ap
m as
ĠE li
Ġcompon ent
w s
om y
R ange
ĠO b
Ġdist ribution
Ġ" \
d est
ent ity
Ġtem per
on ic
Mod ule
end ar
Pos ition
Ġcan not
urs or
ĠYou ng
em porary
Ġmag azine
8 9
it iz
ĠM at
AT ION
Ġtrad itional
p ress
ĠJ o
ou b
5 2
J son
Ġprov ides
Ġt akes
ist ers
m ore
t hen
Ġdescri ption
ĠCh ief
ous ly
D ist
ĠF inal
Ġal tern
Ġlong er
part ial
T S
yth on
res ource
ĠPro fess
ĠC ross
Ġear lier
Ġpract ice
ar ia
IZ E
et ts
ĠPl ay
itt ing
p ly
c over
ig en
Ġcon nect
Ġobject s
W hen
Ġdram a
ĠP ost
ĠM ore
boot strap
ĠP re
ĠĠĠĠĠĠĠĠĠĠĠĠĠĠĠĠ ĠĠĠĠĠ
S im
") );
ĠU k
N one
erv ed
In st
Ġfootball er
Ġcomm ission
Ð »
v a
Ġcom mercial
Ġw oman
m at
196 1
Ġp adding
Ġm oney
Ġparam s
Ġgo ing
Ġb uffer
ast ic
p ri
Con nection
ĠReturn s
m ond
Ġopen ing
led ge
re al
Ġgener ally
Ġdiff icult
ĠH on
k in
ĠU nder
enn is
erv ation
ad or
pre t
> ,
ct x
Ġper cent
=" _
Ġtra in
Ġp aper
Ch ange
A PI
ĠB ank
Ġcon cept
D ocument
ms g
em ic
Th read
b order
ĠG en
Ġnot ed
Ġdec ision
Ġre place
ĠT w
sc ale
ven ue
Ġk ind
Ser ial
R L
f ound
air man
trans form
cript or
Ar t
ĠS y
Ġd ro
Pro perties
c i
ä ¸
ĠA ut
Ġs ometimes
Ġg ot
Ġm iddle
yn ch
Ġdirect ly
ĠVal ley
w ar
Ġar my
ĠH aw
194 2
ĠS ocial
Ġre ason
ino is
Ġch ief
Ġstud ied
b ra
p at
ple te
t au
Ġg overn
B O
b ury
Ġl ack
model s
ent h
a fter
und er
ĠH ot
{ {
us band
Ġr ul
val ues
ĠM ost
ĠB ul
Men u
Ġp ack
sec ond
Ġcaus ed
] [
ĠC ivil
ĠU s
ov a
195 6
Ġb attle
A ust
d ebug
ĠII I
Set tings
Pro t
S O
ĠJ im
Ġs ummer
iss ions
Ġw id
Ġe mer
Ġpat tern
ĠW al
R ed
ĠC ro
ĠL ee
v ey
Ġch o
Ġstart ing
194 8
ĠE ducation
ach us
Ġappear ance
Ġtr ade
ĉĉ Ċ
Ġinst r
ĠT re
con f
Ġoffic er
Ġch art
Ġ> =
ĠC re
ost on
e es
angu ages
E l
Ð º
E v
ĠAl though
Ġpresent ed
ĠD utch
Ġ â
ĠDemocr atic
od er
om ent
Ġg rant
or ation
D elta
Ġsur round
Ġb ring
is f
ic ks
ĠA z
ĠSh ow
og gle
ĠC amb
Ġl ived
Ġremov ed
& #
ĠP ak
Ġlim ited
en ant
Ġneed ed
ĠTh at
Ġs uc
Ġrecord s
195 9
ĠF C
os oph
l ers
193 9
ĠBrit ain
ĠM ax
Ġl ibrary
F ont
ĠPol and
Ġinter view
Ġsim ple
il ed
5 3
D D
ref ix
Ġstud ent
im ages
C opy
195 8
ie ce
Ġcount y
ĠL ibrary
Ġcent re
S ports
Ġm akes
Ġmem ory
ĠS outhern
the ta
k er
Ġp en
w orks
ĠI ran
Ġ Å
ĠL em
% %
li ance
ĠD E
ĠFound ation
at ively
f s
Ġag re
Ġincre ased
inter face
AC K
194 3
Ġw ide
ell ed
Q L
est ed
Ġass um
arri age
Ġn umbers
Ġm ission
sk ip
Ġb att
Ġdev ice
Ġs pect
et ime
A F
l as
St at
r ich
194 1
ĠBo ok
rom e
ĠJ ud
it ation
Ġnew s
Ġpro posed
P ass
Ġqu ant
as ks
Ġgen us
ĠM P
ĠT ro
d i
ĠNew s
Ġem pty
Ġd irection
Ġinv olv
Ġcol lect
ĠEd ward
Ġleg al
T im
Ġfinal ly
ay a
Ġappro ach
ĠMich igan
AR T
ap se
Ġd ed
ĠM ah
foot er
Ġy et
8 2
Ġpos itive
achus etts
Ġequ ip
D ir
Ġcond ition
Q ue
He ad
Ġb ass
Int eger
Oper ation
194 6
Ġsen ior
for ce
Ġfil ename
c lear
Ġen ough
Ġro t
ĠHe alth
Ġs quad
Ġex ception
ĠPro ject
Ġmeas ure
ĠAl b
195 7
Ġold er
W E
ca ption
Ã £
s end
ĠO x
ĠG al
ict ure
Ġj av
Å Ĥ
O ption
web kit
ĠRad io
Ġactiv ities
Ġfor ms
R ev
Ġl ove
comm and
ĠS ar
writ er
ee ks
Ġ Î
Ġf ul
ĠOh io
Ġelection s
ĠCar l
ele ction
ore m
plic ations
Ġh ot
Ġhand le
f n
x i
P S
Ä ±
s v
m ult
burg h
Ġsw itch
Ġrem aining
D L
B rit
Ġme chan
Ġincre ase
ĠL ord
ind ing
y es
ard en
Ġant i
ĠJ ersey
em p
el ves
ĠM ap
u ge
er em
Ġinitial ly
ĠF ri
add ress
ir ing
ĠScot land
Ã ±
ĠAs ian
W ork
Ref erence
Nav Bar
P L
is k
O p
ang le
Ġrem ains
p resent
il a
sk i
Ġad j
] {
p ool
omin ated
c ing
wh ich
ĠIll inois
Ġf ace
ran g
w idget
Ġmed ical
Ġ` `
R I
Ġover ride
ĠPac ific
Ġmajor ity
Ġan alysis
Ġcontin u
or ter
Ġpr im
all ow
ĠP rem
oo ks
ĠDirect or
Ġmin utes
d elete
az on
Ġpro gress
sy ch
N ational
Ġprogram s
D raw
ish er
Ġset s
ing er
ĠK ent
Ġr ules
ill ed
Ġro om
wh ite
Ġpre vent
Ġb us
Ġch all
Ġsub s
Ġpot ential
M atch
1 000
v as
pl ugin
in ternal
en v
Ġc ause
Ġbecom ing
in em
Ġh usband
Ġship s
ĠR el
ol t
Ġa void
d irect
gy pt
T I
le q
A sync
ip al
ĠQue en
( :
Ġrem ain
195 5
l ad
ĠP eople
ev en
194 7
Ġdep artment
Ġvict ory
ĠF I
Ġh ours
Ġpolitic ians
Ġcoll abor
L eft
' >
195 2
) ]
Back ground
ac c
ĠCol or
================ ================
Ġc elebr
ex ample
Ġs ymbol
jo in
Ġm ention
v ed
av ed
Ġleg isl
Ġappe ars
i pe
el a
Ġin side
=" /
Ġr at
are t
ib li
ĠL uc
S ession
. $
ĠB ob
ĠAs ia
ri p
ĠĠĠĠĠĠĠĠĠĠĠĠĠĠĠĠ ĠĠĠĠ
Ġs end
7 8
Ġs ources
ERR OR
ĠCon ference
ĠT op
ĠRep resent
c opy
im s
ĠS ee
ĠM i
ri b
Ġev idence
ĠSt e
en ge
Ġse at
Ġspe ed
ĠRail way
eth ing
ĠPort ug
Hel per
Ġnumer ous
Ġsec urity
25 5
ir ls
ult y
Ġdet ails
Ġwe ight
Ġqu ick
ĠPhil ipp
T C
Ġrespect ively
Im pl
Ġinv oke
Ġwest ern
Ġret ired
Ġcol on
ĠB G
Ġrelig ious
vir t
ail y
N on
Ġun known
Ġatt ribute
7 2
e ch
P arser
Ġhas h
Ġoper ated
ĠMass achusetts
Ġth reat
Ġw ords
Ġover all
ĠG ener
Ġeconom ic
Ġact ors
C al
at ers
ol id
Ġup per
Ġitem s
Ġann ual
ad el
t ask
r b
M M
6 8
ans ion
ant ry
195 4
anc y
ĠI d
ĠJew ish
Ġsepar ate
Ġproble ms
C ons
Ġconst ant
Ġexist ing
os ing
Param eters
S ign
m itted
G B
annot ation
Ġarg uments
Ġfl ag
Ġext ra
Ġfor ced
Ġun ique
ĠG overnor
ut y
p id
Ġfore ign
Ġdist ance
'] ,
C ar
w er
D em
ĠAss ert
Ġsett lement
Ġcor rect
f ony
ir med
Ġar m
ty pes
L I
ĠW ork
ern ame
ran ts
Ġund efined
ou ri
ĠB ow
Ġequ al
Ġlet ter
ĠGeorg ia
195 3
f it
() :
V ector
Ġset ting
R ect
Ġf arm
Ġmost ly
h over
ic ons
ĠSp ring
}$ .
P tr
Ġfore st
ĠS at
Ġm aster
D ep
Ġmult i
ym fony
eq n
Pl ay
C ore
Ġmean ing
c ar
ĠJ ones
I con
Ġse g
ind er
Ġd ensity
ĠB re
Ġqu arter
w atch
Ġconfig uration
PE CT
9 4
Ġ[ '
k ins
r or
Brit ish
Ġcom edy
and ra
St ore
Ġra ised
Ġclass es
194 9
ĠCent re
P ost
Ġ ess
Ġb it
Ġserv ing
G o
Ġclub s
Ġun iversity
j i
D i
Ġoper ator
med ia
D own
u er
T ER
ĠSt ep
ĠJ ournal
ĠW rit
Ġparticular ly
## #
| \
fo o
to String
Ġcont ribut
param eter
C S
Ġt emplate
M ult
Ġse a
T ool
Un ited
Ġclaim ed
p adding
N ames
est amp
Ġun ivers
ĠP ubl
Ġp il
Ġext ended
ĠC all
E Q
Ġra ise
doc s
t ra
ĠPl aces
Ġar rest
Ġprofess or
Ġpe ak
P at
j e
Ġrecord ing
} (\
ert ific
n ote
I F
c f
ĠTr ue
Ġl atter
ĠCo ast
roll ed
s q
ap ers
U se
Ġre nder
atal og
Ġh ockey
ĠFrancis co
Ġto ken
Ġf ederal
S chema
Ġact ual
ĠPr ince
depend ency
Ġh um
U B
ri z
G ET
Ġc ounter
Ġart icle
ĠScott ish
ab eth
Ġrec ent
ĠB oston
Ġrel ative
W orld
Ġocc as
ol es
ĠK ong
m ode
Ġmunicip ality
Ġcons ists
Ġ eth
Ġit er
Ġd at
n es
ĠS oc
Ġto day
ĠWilliam s
ĠM iddle
195 1
9 2
Ġad opt
icro soft
Ġcont ain
ut s
ĠG ame
Ġexp ress
Ġdem on
ac cess
ran sp
ex port
y cle
Ġ ice
ĠM ajor
Ġob tained
ĠR am
Ġmax imum
cl ick
Ġb ranch
}$ ,
ĠEast ern
equ al
8 4
om ega
) "
D o
Ġcont aining
c at
ms elves
Ġmeet ing
orpor ated
Ġeffect s
F urther
Ġch arg
ph y
u ilt
ĠEx ception
Ġsc he
I ter
ĠThe atre
am era
ĠBl ue
Or der
Ġparent s
9 3
Ġc ard
st ack
Ġlik ely
ol ute
ĠJ ac
Ġrefer red
ĠE lect
Ġhistor ical
Ġn ine
ĠH ung
Ġs ister
Ġtra cks
ĠK ey
Ġc ouncil
} /
ĠB or
art ers
Ġe cho
Ġtechn ology
h ar
ul pt
ĠL i
D F
Ġon line
Ġwho le
Ã£ o
9 1
Ġcommun ities
Ġsuc ceed
b ass
a a
Ġin sp
Ġst ay
Ġthe mselves
D on
set tings
Ġ} )
Ġcompet ed
ĠPol ish
y o
Ġperson nel
ĠHe ad
Ġoffic ers
Ġf le
ict ed
on ia
co q
L ong
ĠOff ice
Ġw eeks
Ġ ign
ĠBG COLOR
P A
ĠP op
Ġm ut
s ymbol
193 6
Ġarg ument
ĠO R
x is
ĠEn ter
op ed
Ġdis e
Ġpar se
Dev ice
r ong
T itle
R ight
por ation
\ ,
ĠColumb ia
D r
ĠC ard
H ost
dis abled
g lobal
p ers
Ġreg ist
un a
ĠM att
com ponent
Y ou
ie ut
Ġp ick
re q
en ing
Ġsh oot
à ¸
v est
Ġsubsequ ently
ft y
Ġin fo
im b
pe ed
block List
virt ual
C R
Ġin come
sp irit
col l
in ated
equ als
m ir
h igh
ĠLat in
Ġexp ression
st one
Ġdes cent
-- >
c ustom
Ġsequ ence
eng er
Ġexper ience
ĠG ood
ĠN ame
Ġcomp osed
Ġn um
Ġd iss
Ġ ~
ell ig
M ark
ĠOx ford
Ġst ars
at uring
sh all
ĠV an
c or
s ession
c r
Ġown er
Ġcandid ate
urb an
Ġfin ancial
ĠO k
ĠUn ivers
AT A
Ġs u
r ames
h ire
Ġprom in
Ġcont act
B ig
it age
T emplate
l ines
Ġfor ward
ĠM ath
ron ic
Ġm useum
out heast
Ġre pe
Ġsmall er
aw s
R ender
arg ument
hed ule
Ġin n
Ã¡ n
Ġreg ional
gorith m
Ġb ad
ĠH and
d ouble
g a
Ġ( '
Ap plication
c irc
t ilde
Ġ er
am m
Ñ ĥ
ĠC ON
& &
Ġquest ion
Ġv ote
igh ter
6 2
sk y
Ġc arried
SE T
Ġallow s
ĠJohn son
ind s
S k
Ġche m
b al
I R
Ġacqu ired
v ector
ĠB ang
Ġle aving
ran ce
ĠJ r
ent y
pro p
Ġm atrix
> ();
" |
ĠSt an
Ġjo in
AL L
F alse
ch or
m es
ĠIn f
Ġhe avy
eder ation
ĠCor ps
Ġlevel s
ze ch
ĠE gypt
Ġf oot
ch er
S H
er red
ĠD ate
s plit
L a
Ġp ain
ĠCh ild
Ġp air
Ġvar iety
M em
Ġincre asing
ic ate
Ġde ep
ĠBel g
ont o
on ym
Ġvari able
ĠF ar
ĠSt ation
y ing
Ġhelp ed
co pe
ĠJ ean
Class es
Ġg as
ynam ic
re nder
in fty
S A
int s
Ġbeliev ed
Exp ression
ion e
Ġv on
ĠSen ate
f ly
Ġproduct s
pl ugins
ĠComm and
ĠM ov
y er
193 8
Ġs ort
b ec
Ġb rief
OR T
M usic
Ġe arned
er c
il ly
l n
19 18
6 3
c p
ĠB ern
Dec l
ĠOff icial
Ġbas is
ĠO p
re place
Ġappear ances
In valid
b ot
Ġlist ing
ĠSpec ial
ĠM r
ce an
ĠIs lam
m ann
Ġv an
ĠP oint
c ap
id ers
ĠComm on
Ġorgan izations
ĠSec retary
ĠBro ad
S L
C ast
Ġb omb
il ation
yd ro
Ġc itiz
Ġsh are
Ġtrans action
Ġserv e
ĠF ig
ĠSe a
p anel
hand le
Ġman aged
che ster
Ġrespons ible
6 1
Ġmov ie
w a
Ġle ave
Ġact ivity
ĠB et
m ake
m aterial
ĠT O
Ġp ow
$ $
inst all
Ġvol ume
Ġm ixed
yd ney
Ġp ackage
ur ies
AT H
= {
ĠM id
ĠM u
ic i
Ġc orn
f ocus
const ruct
tern et
ĠW is
ĠJ SON
193 7
un ct
M y
th ur
it o
ĠThe n
Ġeast ern
Con st
r ine
Test s
b i
ĠC reek
Ġc ities
.. ..
Ġpro file
m aster
ieut enant
he lp
h s
ĠL ab
Ġfam ous
D ebug
Ġext ension
Ġde lete
Ġb rand
Ġhe ader
act or
Ġv ector
Acc ording
8 3
Ġser ial
Ġinflu ence
ĠMed ia
Ġbecom es
te en
ĠL ater
ter m
ro om
D ialog
ĠPro gram
Ġd atabase
ĠEX PECT
Ã ¸
if est
-- -
Ġconc ert
Ġn ature
ĠBer lin
Ġhous es
Ġproject s
ĠEar th
ond s
ak ers
Ġd ark
H P
Ġbase ball
Ass ociation
pt on
S ION
Ġrest rict
Ġh ospital
Ġmain ly
? :
ĠM ethod
Ġde ad
7 4
ĠArg ent
ĠThe ir
Ġexp atriate
Val ues
ĠD evelopment
Ġphys ical
Ġconstruct ed
Ġdist ributed
is er
Ġindividual s
Ġtro ops
ĠH ong
nt ario
Ġben ef
Ġs plit
Ġm ur
Ġres ources
Ġrec over
P ublic
Ġet c
omet ry
8 1
Ġ ult
Ġth ink
n ers
al ing
il ton
Ġo s
ĠH a
ĠAlex ander
ip s
f amily
H as
Ġe val
Ġcon flict
Ġcomput er
ĠN ight
t oggle
Ġs ociety
Ġcont ainer
field s
Ġy outh
Ġapp lied
Ġb ridge
ĠVictor ia
Ġt ouch
Ġal leg
Ġoffer ed
Ġexper iment
Ġneigh bor
Ġfor t
ST R
Ġd raft
Ġdemon str
ĠĠĠĠĠĠ Ċ
ric ts
A pi
FA ULT
ĠIs lands
Ġcult ural
p an
Ġa wards
Ġph ase
d el
hen s
ĠĠĠĠĠĠĠĠĠĠĠĠĠĠĠĠ ĠĠĠĠĠĠĠĠĠĠĠĠĠĠĠĠĠĠĠĠĠĠĠ
Ġex ists
Ġsc ene
ĠD ar
P arent
Person al
e z
ex ports
Hand le
Ġgener ated
Ġturn ed
ĠV is
Ġother wise
r um
F ound
Ġpo or
s ystem
ĠR ay
Ġw inner
J ECT
Ġprom oted
Ġimp act
} "
ĠKore a
ĠA L
c os
per or
M ain
st ore
Ġinvest ig
ĠJ es
Ġa uth
P R
n ce
Ġprov ince
E C
ĠW ild
; <
Ġdes c
-------------------------------- --------------------------------
E M
Ġass igned
ot ing
enn es
ĠJack son
Ġdirect ory
Ġj son
ĠW ill
ĠS T
Ø §
Ġin her
Ġg un
ig ration
Ġl anguages
el li
Ġth r
con nect
z o
Ġelect ric
ĠB BC
ĠO f
Ġepis odes
Aust ral
ĠS ol
ĠW all
ĠHT ML
19 19
7 9
Ġpro duce
ag ers
Ġby te
ur er
ĠW ay
c ategory
X ml
i ate
D om
ig er
ap ed
ĠReg iment
En abled
Ġr andom
Ġth erefore
Re ader
olog ist
Ġm arriage
W est
( *
Ġcover ed
OR M
lo se
Un iversity
Met adata
n ic
St ack
ĠC apt
cl oud
os en
ĠH ospital
193 5
7 3
ign ment
al o
ĠOlymp ic
ap plication
D S
ĠReg ion
Ġpre p
Ġsh ape
Ġn amespace
ĠS and
ron ze
7 1
Ġcar ry
Ġcomp ared
Ġimmedi ately
ĠIn st
ic ens
ĠL ittle
hem at
Ġsh ared
os ph
Ġbeg in
Ġdes pite
Ġrece ive
ic ine
Ġide a
ĠI S
o ir
Ġc ache
en um
v m
Ġan g
ĠAl so
ro vers
n ames
B ody
F inal
16 0
Ġpro test
ĉĉĉ Ċ
Ġcomp ar
Ġdep art
Ġnear ly
raph ics
is hes
6 9
el d
by te
Ġiss ued
R oot
us ion
Ġpart ies
Ġall oc
Ġchar ge
` .
Ġpl ans
__ (
c it
Ġc ycl
f ull
ĠF our
Ġw ait
er g
ub y
adel ph
ass ets
Ġag reed
frame work
ĠKore an
Dis play
z abeth
ĠT am
st ein
und red
Ġp p
ĠM any
Ġh ar
ĠPri ze
inn es
_ ;
=" ">
ol ver
Arg s
Ġsc en
Def inition
form s
ff ic
Ġnear by
ĠAnd rew
P olit
os a
af ety
ĠRepublic an
ograph ic
Ġwant ed
ell er
ĠL o
i ated
ĠF ire
ĠL y
Ġneed s
ent er
l ay
put e
V ert
ad ian
Ġsil ver
uck y
ef e
ĠB ir
j ar
ether lands
ĠP ass
n ap
ĠS om
ĠK en
Ġst ories
eqn array
f ill
Ġcap acity
c ur
Ġin line
O K
Ġdiscover ed
Ġtransfer red
ĠV iet
Ġby tes
19 14
Ġnewsp aper
ay lor
ce st
ĠChe ck
Ġas ked
sh ort
Ġco ordin
Ġnecess ary
ĠH ome
ib ly
ĠS ydney
Ã© e
Ġo il
ĠE vent
Ġact ually
Ġfif th
=" "
="../../ ../
Ġarchitect ure
Bo olean
Ġg ives
ĠC orn
p a
w eg
Ġan c
sec ut
ĠÂ £
s en
TE D
Ġth read
Ġp ra
Cl ick
innes ota
j ection
b ro
on ed
adelph ia
r at
cri be
Ass ert
G eneral
ĠM ot
Ġto ld
ĠPe ak
Ġvers ions
ang o
ĠP en
Ġassist ant
Ġgrad uated
ĠPr ime
Ð° Ð
Ġm ix
L java
Ġent er
Arg ument
ol ume
Ġv oice
Ġsus p
Ġexecut ive
ad min
ĠAir port
$ (
bo olean
Ġord ered
> .
port un
ĠR oute
ĠPol ice
193 3
s uccess
Ġf ellow
P olicy
P ackage
Ġresult ing
In ternational
Ġvis it
Ġuns igned
ect s
f ri
Ġm sg
re es
rac y
rel ated
ĠSup reme
eq ref
n i
Ġsold iers
Ġre comm
aut o
im inal
Ġf ast
ĠP res
Ġsol ution
Ġg uest
m argin
clus ion
rom ise
u ct
R ule
ĠW ater
call back
Ġin h
ĠG ra
Ġcre ation
le ep
ĠB and
D oc
ins ert
Ġcon nected
Ġc at
R ad
ort heast
Ġg reen
Ġinstall ed
Ġn uc
Ġliter ature
Ġoccur red
al ion
Writ er
oo th
Ġsay ing
ific ations
Ġe as
wh ile
ĠC at
Ġtest s
Ġs port
Field s
Ġset tings
os l
ĠN etwork
D elete
ĠĠĠĠĠĠĠĠĠĠĠĠĠĠĠĠ ĠĠ
ĠO s
hold er
Ġbl ue
Ġarr ived
ĠR og
Ġ ),
ĠO ntario
ic ations
Ġn om
Ġwork ers
M D
Ġill ust
19 28
am ber
ra st
Ġdr ug
Ġran k
Ġbel ong
G u
Ġb ottom
Ġs low
Ġjav ax
' ))
epend ence
ĠK enn
b as
Ġob tain
ad s
19 29
Ġfig ure
ĠS und
Ġf ixed
Ġsat isf
19 17
ĠE st
reed om
che stra
Ġhon or
ell o
By tes
193 4
Ġalong side
am in
W il
u v
up le
Ġsp read
Ã º
Ġtrans ition
ibli ography
ic ed
Ġ' /
ĠT em
Ġdef ine
K ind
s ql
ĠB ad
b ound
ĠQue ens
ĠA ff
ĠL ight
ĠRev olution
ro t
ĠA venue
ĠBo th
itz er
OR D
sp ring
Ġs quare
ĠDan iel
Ġcon sole
Ġc ategory
Ġaccept ed
Ġfri ends
Ġint ended
ĠO tt
Ġcom es
ĠA k
ĠSt and
C ustom
ĠGu ard
bour ne
Ġren amed
Med ia
r ical
Ġs ave
ĠCor poration
Ġprob ably
cont in
Ġs umm
Ä į
em ail
A ME
key s
S ince
od ec
ĠJust ice
Ġv en
R et
Ġcall s
ĠE p
Ġhe art
E ach
Ġs al
Ġfe aturing
Ġl ives
( -
Ġus ers
ĠMin istry
By te
att ribute
Ġres idents
ou red
Ġgrow th
ed d
In s
ĠB att
Ġthe me
T ab
ly ph
ik i
Ġcrit ical
Ġ ring
Ġprim arily
ĠW in
Ġlaw s
uss ian
ĠR aj
f ree
Ġstre ng
P ool
ĠM odel
M ock
m o
}} \
193 2
Ġadminist rative
Ġs ample
per ial
") ]
Ġs ens
Ġed ge
Ġa thlet
k g
Ġexpand ed
Ġs ynt
el er
Ġf irm
or i
Ġsc ulpt
ynch ron
d ict
ĠR ome
Ġanc ient
C re
m ail
il ing
Th at
ĠJ oe
ĠU N
l an
ĠE ver
ĠT ext
\ "
Ġpos itions
ant a
E rr
in ity
19 10
Ġj oint
S outh
C P
ĠB ab
ĠS a
Ġmur der
Ġmin ister
ĠL O
ĠV ill
ĠMus lim
Ġsom ething
cons in
SS ERT
st ep
ps i
ris on
Ġcre w
Ġv s
Ġw allet
an th
Ġa ctions
ĠS ports
Ġt ele
Ġmov ing
g g
Ġl ock
ĠA sh
ri e
Ġreg ions
ĠCol lection
em et
Ġqu ality
Ġs ites
pass word
ĠP ers
ĠAr m
qu arters
it ness
St orage
Ġw inners
TE ST
Ar ch
ra ction
orn ing
t w
Ġre li
or gan
ĠJ eff
ul f
drop down
` ,
Ġequ ival
ĠE rror
est abl
ĠN ations
Ġhigh ly
Ġpres ence
Ġw alk
id i
ĠA thlet
ang es
ow a
ĠL et
Ġpre c
enn a
rop ical
cre en
Ġsol o
Sh ow
ra ine
clud e
19 22
Ġmusic ians
19 00
item s
Ġcle an
ĠF ederal
ĠS ong
ĠMed al
' re
b ad
ak i
B iography
ut t
Ġf re
Ġ< =
Ġadminist ration
Ġconstit u
Ġlead ers
ĠJ on
Ġex act
Ġsp irit
Ġst ra
ap h
ĠSwed ish
19 24
nc y
Ġg reater
Ġr ugby
Ġfe el
Ġreve aled
Ġre ject
Ġfail ure
ar r
ĠB C
Ġconduct ed
ul s
ĠL im
; /
in y
pro duct
Ġtreat ment
n ormal
M ay
us es
ĠT ok
ĠI l
ĠN etherlands
Ġest imated
ĠA li
Ġagre ement
M eta
Ġag ent
reg ion
Ġass ociation
Ġl i
se x
Ġparticip ated
Ġmunicip al
sh ot
ĠTor onto
Ġdef inition
ĠL ew
f ort
rap per
Ġquick ly
Ġab ility
Ġtyp ically
p g
O lymp
olit an
ke e
Ġpar ish
ĠE conom
Ġ icon
M e
ĠI O
Ġwe ap
Ġsem i
19 27
in ate
Ġdecl ared
Ġcre ating
Ġdestroy ed
Ġra ces
ar ation
od ay
G erman
% )
Ġ+ +
193 1
Ġb ig
O m
Ġcorrespond ing
ĠTh ree
T A
V ID
Ġbehav ior
Ġerr ors
v in
z er
ath an
ĠSer b
Ob j
Acc ount
h av
ut f
Ġla unch
Ġclass ical
ann els
Ġst rict
con nection
Ġdiv ided
ĠEli zabeth
ĠR od
ĠTechn ology
Ġn ation
emet ery
Ġz ero
Act ivity
ĠB i
ĠH an
erv ative
Act ive
F rench
ĠB al
Ġs urn
Ġdr iver
Ġoffic ially
c pp
W idget
Ġb tn
clud ed
Ġfav or
ixt ure
ren ce
cl aim
AG E
Ġfact ory
Ev ents
ern el
Ġded icated
Ġcompon ents
ĠCamb ridge
Ġcont est
c md
D U
Ġdoes n
Ġh y
Ġacadem ic
Ġim ages
ĠB ell
Ġtrad ition
Ġcomb ined
Ġ" /
Ġhold s
B R
15 0
alle l
Ġc ore
ĠM arg
Ġro les
N um
ĠH y
ĠPak istan
set s
ut er
weg ian
ĠH uman
x x
Ġsim ply
ĠB on
=" @
ĠAnt on
ĠSt adium
st ats
V ari
ĠM ember
Ġful ly
Ġh tml
Ġsc hedul
com ment
ĠU ser
Ġf un
i y
co in
Ġprogram ming
Ġb al
ĠV en
Ġsec ret
Select ed
ĠPrem ier
j query
Ġmet al
sq rt
ĠOr gan
ak h
ĠProfess or
V ideo
Ch anged
as ure
Ġhe l
ĠN OT
Ġth ings
V er
v ec
H is
19 21
ĠC irc
eps ilon
Ġbas ic
U RE
Ġ era
19 25
G E
in itial
ĠSc iences
Ġr ural
it led
Ch annel
Ġl y
Ġart icles
Ġch ampion
ĠP ower
Ġatt ention
v an
Ġop portun
Ġre duced
ĠM innesota
Ġtri al
ĠWil son
AC E
Ġfin ish
rec ord
Ġpl anned
By Id
ps ilon
i ec
In itial
gr ade
Ġdescri be
N et
ur ches
in f
ĠL es
ed it
ask a
Ġm ill
==== ==
i Ã³n
Ġmount ain
s f
ĠC ub
Ġg iving
Ġap i
ĠDu ke
Ġac com
ĠD er
Ġident ified
ra q
pos ite
ĠC E
st op
m iss
cd ot
om er
Ġm icro
iqu es
in line
P RE
ĠS u
rad ius
Ġhousehold s
Ġt al
g rid
} [
ro ke
Ġoper ating
Ġcompos er
m ock
Ġapp ly
Ġcapt ured
ĠB a
struct ure
ĠTur k
Ġnot able
ĠE nt
ly n
. '
EX T
w ater
AN D
ch a
r ase
P erm
agn ost
S ymfony
S ources
ĠT ai
Trans action
Ġpress ure
ĠBr ig
CT ION
ĠĠĠĠĠĠĠĠĠĠĠĠĠĠĠĠ ĠĠĠĠĠĠĠĠ
et ic
Ġw ing
n one
he im
st ar
Ġl ies
19 23
ĠUS A
Ġp al
Ġp iano
ĠT y
Ġhost ed
Ġpromin ent
Ġline ar
H igh
if ies
ce ived
KE Y
Ġd b
* )
Ġpro per
b old
Ġcell s
ĠW indow
J SON
Ġm achine
ĠWis consin
19 12
19 26
em an
ĠFore st
Ġg rew
Ġtit les
Ġch ain
ĠPhil adelphia
at ically
sc roll
ra wn
n umer
Ġm oment
ĠS quad
ol is
C I
r im
ĠCommun ity
ĠF ollowing
Ġcommon ly
A wards
er ies
Ġp urs
"> &
b ul
ag a
VER SION
ĠS ab
Ġle aves
Ġstat ement
ĠSant a
ant e
Ġeffect ive
ick et
ang a
ĠM aster
Ġdom ain
Ġobserv ed
g it
ĠB udd
Ġad ult
Ġphot ograph
Ġrec ently
Ġel im
ĠN ote
A uth
ï ¼
W omen
B efore
ele ase
ĠS us
ĠC zech
y al
a ug
ellig ence
od ies
Ġassert Equals
uck et
D A
pr imary
Ġf ish
ĠR E
ĠN ic
ĠB ishop
HT ML
ĠL ady
Ġm is
ĠR om
L et
s ur
T ax
ed itor
Ġtemper ature
Ġv otes
st at
ag ram
th read
c ut
Ġst orage
reg on
er ial
v o
Ġpre mi
G S
reg ister
ock er
Ġeffort s
Ġd oub
res ents
b rowser
Ġmedal ists
aly t
Ġmention ed
Ġflo or
Ġent ity
ĠF re
Ed it
Ñ ı
[ :
ĠH ind
ĠB ridge
Ġsecond ary
Ġconf irmed
Ġknow ledge
ĠB rad
L S
Que ue
S end
Olymp ic
ĠW ars
Ġfe ed
ĠM ike
} _{\
Ġfac ilities
ip eline
On ly
Ġp et
anc ing
Ġdefe at
ill ing
pro file
k w
ĠĠĠĠĠĠĠĠĠĠĠĠĠĠĠĠ ĠĠĠĠĠĠĠĠĠ
ĠSwed en
app ed
O M
St r
cre te
ad ing
Ġag ric
as et
Ġst reet
Ġorgan ized
rec ated
ĠM ic
ĠD iv
Ġequip ment
Ġmark ed
Ã ¢
Ġcon cent
Ġprot ect
1 20
Ġcont rovers
ĠB usiness
ĠC a
ĠW inter
Ġatt end
FI LE
Ġhistor ic
Ġw rest
RO M
Ġform ation
am ing
ĠAn th
aw n
ĠCon f
ast y
ĠB ack
ĠW alk
Ġnew ly
ne ctions
Ġadopt ed
h orizontal
ĠV iew
Ġb ul
j oy
Ġpur pose
Ġfl ight
ex ception
ĠU RL
l iving
ĠB ol
Ġd ance
Ġm ock
25 6
il li
Ġdist inct
Ġs ays
ĠGo ogle
W S
19 15
Ġcom ing
ĠF air
port ed
J ob
ĠV alue
D ele
Ġs ure
Ġident ity
Ġd igital
Ġsp ring
Trans port
ple x
re v
Ext ension
j an
om ot
uns igned
( !
ĠH ay
Ġa st
19 16
ĠR en
ĠT aylor
um es
\ !
c u
i able
ec ause
T ra
Ġcitiz ens
ĠE lement
ĠT er
Ġreview s
Ġdel iv
. *
Ġdem and
Comm on
Ġinstit utions
Ġtit led
h ome
o es
im pl
ĠG ro
e k
in son
Ġmed ian
Id ent
Ġex c
Ġ util
ĠF ree
ennes see
ĠU se
() {
Ġfact or
ĠStud ies
rac ks
c ow
ĠD oug
ĠBar on
Ġgrant ed
un n
ĠMc C
M sg
ĠTown ship
Ġtown s
al og
IT Y
h u
ear s
Ġra re
y ard
Ġimplement ation
Ġp ool
un es
ĠInd ust
Window s
Log ger
p ay
Ġs y
ran gle
Ġac comp
Re qu
$ /
Ġl ay
f ef
ĠK ir
rop olitan
Ġsign al
sc reen
Ġmot or
Ġm atter
Ġstat istics
eg o
amb ig
Ġnov els
ĠV ersion
ertific ate
al so
ed ge
Ġw all
Ġvis ible
ĠE ach
Ġp erman
Ġsecond s
ĠLeg isl
pl om
ĠInd ones
ĠMed ical
ph one
mod ules
Ġp sych
Ġch osen
ĠD own
Ġcon ference
th at
m ad
pos es
N ov
M ember
Ġengine er
pr ise
t ry
Ġg irl
Ġint ers
f aces
Ġe lev
a is
St ruct
Ġ% }
se ason
ĠIndian a
Ġpl ants
ian g
Time out
Ġen em
ĠIn itial
ens is
Ġc erem
Sports people
est ic
hent ication
ado op
Ġens ure
Ġpar liament
op her
ann a
ĠJ oh
Ġrepresent ation
Ġfem ales
Ġex ternal
######## ########
B ibliography
Ġst ack
ĠDef ault
ĠS on
ĠN ow
ic er
Ġdise ase
P ATH
ĠG i
ik a
Ġinstr ument
ĠOn ly
ut ional
Ġde leg
Ġrepresent ing
Ġprov iding
Ġde ploy
C rit
D C
s chema
V ar
he w
ts d
Ġn odes
Ġterrit ory
S U
Ġle arning
ĠâĢ ĺ
Ġpurch ased
Can adian
W A
ĠCh ris
ud get
print f
ĠOr iginal
Ġdam age
ĠS em
ĠM ilitary
ĠN az
Ġact ing
se ud
im ents
Ġphil osoph
Ġc ars
Ġres ist
w all
Ed itor
ĠW el
Î ±
Ġnot e
p et
A v
Ġc e
un te
tx t
Ġsl ight
add r
pect s
Ġder ived
Ġ$ {\
Ġpe ace
. \
G en
Ġl abor
ĠG h
ill ery
Ġp itch
H L
ĠGold en
s ave
ĠG ree
Ġhous ing
ost er
od d
Ġh undred
B est
ĠCh annel
S R
ol o
19 13
Ġh abit
fef efe
Ġsuccessful ly
Ġwid ely
@ "
)) )
N etwork
ĠA N
Ġinter pret
Pop ulated
ĠI P
Ġserv es
ĠMiss ouri
ç ļ
Ġlarg ely
ĠDes pite
Ġengine ering
L ock
pos itory
ĠRepresent atives
Ġnot es
Ġkey s
ĠRev iew
sub section
ĠK im
cont roller
Ġatt ract
ĠA h
Ġw or
Sec urity
G amma
ĠM ir
Ġest ate
Ġbe at
anc el
ĠE ll
l ah
com ing
ĠCast le
riz ona
Ġg overnor
ĠCol on
', '
Ġp ull
D el
ash ion
Ġteach er
C ond
ĠK itt
od s
EN D
ĠM un
ĠCapt ain
Ã¼ r
Ġdeterm ined
{ }
Ġc our
igh th
Ġlead ership
ire ment
Ġfound er
Ġw ild
ĠA rea
g ame
ĠCon stit
Ġtw ice
ĠH un
Ġneg ative
ph as
key word
ĠL android
N ote
proto buf
ĠSec urity
w orth
Fl ags
m ove
Ã ¥
Ġex change
ĠR et
T ABLE
Ġs oc
Ġrecogn ized
P AR
v are
Ġdocument ary
Sc ale
Ge ography
Ġinstance of
R est
ĠAd minist
ap ore
oc ation
Ġa wait
ic ian
ĠB h
ÃŃ a
ĠCount ry
ain e
Ġst one
LO G
ole c
Ġattack s
F loat
V D
ri ev
ĠB ra
am er
ĠHigh way
ĠA bb
Gener ic
Î ¿
ĠM unicip
sc ape
An y
log ger
ĠO regon
Fil es
ĠSt at
ĠG il
ĠBe ach
ian ts
Ġre ports
Ġgo es
Ġpri est
Ġ( *
] ]
ĠF alse
çļ Ħ
Direct ory
Ġoff ers
Ġ( ;
Ġg ained
ĠC ode
Ġb r
ĠMar ia
Ġl ot
) =
6 00
Ġpolit ics
Ġfac ulty
ast e
} =
20 23
Ġcomplet ely
Ġl ib
des c
S D
O F
d ot
we et
Ġindust rial
Ġc arri
ĠAr thur
eng ine
l g
Ġin form
Ġt alk
Ġbuild er
ential s
Ġs uit
th rows
Ġv ess
Ġpr iv
Ġcou ple
Ġs yn
ĠMan agement
ĠDav is
am pl
Ġsuff ered
() ));
ĠW at
ĠS i
Ġsit uation
z en
Ġresult ed
_ ,
ac count
ens es
ĠSl ov
X T
U ID
Ġreturn ing
ĠCon nect
Ä ĥ
Ġbut ton
Ġl iber
ĠI raq
G ame
Ġro ll
Ġb locks
ĠF ox
west ern
ast ers
Sec ond
ĠG allery
ĠU t
Fil m
right arrow
S o
ĠPl an
ĠBro ok
Ġs ense
Ġdist ricts
Ġins ert
ateg ories
ĠPhilipp ines
u y
ĠStep hen
D atabase
Ġl ayer
Ġexp ansion
S cope
ap es
ĠSh ort
Ġsw im
Ð ´
fl ags
In ternal
AR Y
ĠB all
() ).
P T
ĠF ederation
ĠK ansas
Ġbeg ins
J ava
Ġh arm
19 11
oper ation
J apan
e cho
we alth
Des c
Ġcont emporary
Ġhand ler
Ġcan cer
Ġcr ime
b m
//////////////// ////////////////
ĠV o
sec urity
w ild
end or
ĠC opy
s el
Ġenc our
Ġcan cell
Ġab and
L eg
or iginal
Ġse ats
^ *
Des criptor
M ENT
Ġsuggest ed
Ġn g
ĠT al
Ġrequ ires
ĠT ennessee
Ġofficial s
Ġocc urs
N E
anc er
Om ega
Ġsurv ey
Ġ urban
F ran
ĠSt eve
oc aml
Ġh idden
ĠV i
Ġallow ing
ĠDes ign
Ġf iction
Ġm o
ĠTur key
ĠEx t
. __
ty ped
app a
Item s
ĠJ ava
at ar
Ġatt ributes
Ġcl uster
} ).
ev ents
Ġreg ister
ĠAtl antic
z h
Ġco al
) /
Ġle tt
ĠTr ust
ol i
ĠBase ball
Ġres ident
Lo ader
ĠP aram
ĠW eek
dom ain
ĠD am
ĠO ption
ĠMex ican
Ã© s
Ġgener ation
Ġf elt
c hen
Ġ que
ambig uation
Ġpol y
Ġb ronze
l ife
Ġsex ual
Ġ[ ];
B rowser
ues e
Ġperform ances
Ġshow ed
Ġy ield
In it
)) );
Ġport ray
p icker
ĠNor way
Ġtra ffic
Ġs s
ĠK el
ĠFred er
Ġpre m
Ġconst ra
ĠY our
25 0
Ġconvert ed
h adoop
R oute
De ath
Ġgener ate
Ġmaterial s
Ġfl at
ĠMem orial
Ġclaim s
Ġc art
inc ial
ĠA uthor
ĠG reg
ĠM oh
CA A
os itory
Ġpro ceed
man ager
Ġke pt
p son
Ġw aves
Ġth ous
ĠAn other
Ġtest ing
C RE
ĠK al
Ġjournal ist
int on
g ar
} ),
Ġdeterm ine
ful ly
Ġs ales
ĠL ive
ĠJ unior
se ct
] :
ĠR a
I B
v ard
Ġcomm ittee
ĠL ev
Ġ{ };
sh ape
se y
Pro file
Ġse vent
ĠH o
S pace
web pack
ef ul
Ġt ransp
Ġm iles
Iter ator
Ġrec ip
ict ures
ĠA st
Ġ$ {
St ep
Ġ ×
Ġ= ========
Ġem b
ater n
Ġser ious
form er
Ġran ked
Ġsch olar
190 8
ĠEngine ering
au x
urre ncy
c b
c ert
Ġch airman
Ġsc oring
yn asty
O wn
k h
ang ular
ach ing
Ġar ts
Ġcall ing
ĠN O
ap el
ig rants
ĠSpace watch
and o
Ġe le
ĠHam ilton
ĠColor ado
are a
Ġex am
Ġdef end
tain ment
ĠR on
he ll
ord ers
se lected
p ur
ot ic
Ġvill ages
b ing
ĠH al
pro perties
ĠA ction
is a
Ġb lood
ul y
pro ve
} </
if ically
Ġn ominated
ab ilities
G raph
Ġ io
Ġcop ies
Ġbo y
ĠMount ain
f ire
P anel
Wh ile
as hed
Ġf ell
Ġsurround ing
tab s
Ġr isk
res et
and y
) $.
Prot ocol
net ic
ĠC as
MA X
S IZE
z y
N G
ĠJew s
ĠMary land
ct rine
Ġpaint ing
ru it
Ġc ab
S ome
f red
'] )
sup er
Ġl icense
ch annel
Ġpo inter
Ġp ages
ĠLem mon
assert Equals
in us
Ġvis ual
ĠN ative
Ġsp ons
point s
ĠMos cow
Ġen abled
Ġp y
ĠSt ock
Ġstr ugg
Ġrep resents
! [
hed ral
Ġ rom
Ġ" "
olog ies
Ġsh ift
o in
Ġp aid
NavBar Cell
ĠP ier
to ols
Ġ( ,
å ı
Ġvari ables
ix el
Ad apter
ĠPol it
config uration
CH E
sw itch
op es
p arser
col Last
To String
Ġon to
C lose
os is
o om
." );
Ġeduc ated
ro le
m b
G rid
Ġbur ied
Å «
ĠSur vey
M o
Ġl osing
h idden
Ġa im
Ġt aught
ĠG er
ĠI V
ĠH ard
f ect
ict ional
ON E
ĠN orm
Ġl if
AD D
Ġw atch
", "
Ġint eger
ĠA R
Ġs um
ĠBo oks
ĠP y
Ġrece iving
ĠLoc al
var phi
Ġauthor ities
Ġtri ed
ĠE P
ate gy
S eg
Ġprinc ipal
dis ambiguation
Austral ian
Pl ugin
be an
Ġin valid
ĠK han
Ġsucceed ed
ĠS ervices
Ġ\ ,
Ġdec re
H ar
Ġpl ot
Ġt er
nav List
ĠCol l
to ol
in her
ex ternal
Pr int
ĠD rag
arch y
col n
ĠLew is
Ġcontin ues
inal s
w ing
ĠT able
ĠP it
ĠFore ign
ĠB ru
ĠS av
ym n
Ġch oice
col First
B it
type of
Ġloc ations
L ife
Ġv ir
D ouble
ĠR oss
Ġfig ures
Ġt or
ĠM as
Â °
Ġb ow
vare psilon
Ġstar ring
h ard
Ġpro pos
Ġequival ent
P ay
Ġacc ur
S uccess
Ġlo op
oc ity
rain ian
ĠMel bourne
L P
Ġsh op
at ible
le an
Ġal one
Ġt ells
ĠRe al
t i
ĠJ os
o is
Ġcamp us
L in
Ñ Į
LE CT
Select or
cl es
qu es
++ ;
12 3
ĠD om
ĠUk raine
res hold
Ġd ir
Ġyoung er
or ney
Ġd ig
l imit
ĠLe on
ain ts
= >
Ġle arn
ĠPhil ip
Ġsubsequ ent
ĠT ask
}^ {\
ro g
Ġy ards
assert Equal
x s
Ġdel ay
ĠSquad ron
j ob
T elevision
Ġap plications
Ġdr ums
child ren
Ġ Ä
pe ar
D av
anc ell
play er
Ġre ally
u ce
^{ (
ord on
Ġpro of
Ġcont ained
ĠM ill
Ġregist ered
Ð ²
Ġat tr
Ġtr ust
Ġthe atre
M atrix
Ġn orm
I MP
Ġdiffer ence
Ġadv anced
Ġcol span
Ġra pid
Ġe lem
ĠN umber
ĠMal ays
Fe ature
Ġgrow ing
itzer land
est er
en abled
ak s
Ġsign ature
M at
an es
form ance
ĠSe ction
Ġaltern ative
% ,
Ex pr
Ġf unc
k es
ĠB at
Ġrel atively
Pl ot
Ġinsp ired
Ġseg ment
Ġachiev ed
is ms
_ ->
Ġveh icles
Ġcommand er
iter ator
Ġas ync
hand ler
á »
get Element
Not Null
Ġp iece
ĠCon fig
Ġd rop
ĠE nc
pro of
Ġa udio
Pro xy
Ġdesign ated
Ġbound ary
Ġex plicit
Ġco q
ĠĠĠĠĠĠĠĠĠĠĠĠĠĠĠĠ ĠĠĠĠĠĠ
ĠF amily
Ġoption al
Det ails
ing ham
ĠQueens land
Ġh yp
Ġse em
by tes
ĠA rizona
ĠH art
ĠC ur
I X
Ġm essages
ĠV AL
iec es
Sc roll
UT F
Ġaff ili
P ol
prov ider
=" $
Ġview s
Run time
Ġformer ly
Ġex amples
met adata
st an
) ).
D uration
ag en
Ġpro ced
Ġscient ific
A nt
reate st
Ġstra ight
ĠAl bert
Ġvoc al
icens ed
Ġ( _
p erson
Ġs ummary
port ing
Ġra cing
Ġs ides
Ġv el
iv als
Eng ine
ach ment
Ã© t
Ġmin imum
Ġend s
Ġn arrow
ok ed
ĠJ er
ĠN a
Ġpart ner
189 0
le ts
ra it
clus ive
Ġport ion
ĠInf antry
Ġbe y
Ġref lect
let ed
Ġup dated
ip h
Ġattempt s
Ġimplement s
Ġhe av
e ast
. âĢĿ
33 33
Ġarrest ed
ĠTO DO
l aw
Ġp anel
Ġfac ility
Ġme ant
ĠIn formation
ĠF le
oc ese
ĠG lobal
Ġun able
Ġ{ '
ĠAust ria
X ML
R ail
Ġdec or
ĠL abor
h ide
ĠP age
ĠAff airs
Ġt ranslation
Ġcrit ics
col lection
Ġlo an
er d
Ġresp ond
Ġcont rast
ĠInd ex
Ġan sw
ĠF ront
ĠEx ecut
Ġchall eng
ĠTh us
Ġm ales
S ymbol
e a
ĠViet nam
Ġinj ury
all oc
ous es
Ġear th
Ġauthor ity
S ingle
Ġnav igation
190 5
ru th
ĠS ri
P ri
Ġco aches
im p
) ">
Ġabs olute
Ġdo ing
ĠEm peror
Ġvert ical
Ġdo ctor
8 00
Ġappro pri
ly wood
Pat tern
An not
ĠM A
ĠEnter tainment
P ack
e ach
Ġno thing
Ġrest aur
head ers
ch ant
ĠKent ucky
S ervices
Ġf air
d ialog
Ġesc ape
bum s
ĠH ou
ĠI owa
Ġs afety
ov ed
ĠTrans port
Wil liam
Ġcapt ain
M iss
em ph
coll apse
L IC
u j
190 7
ĠW he
Ġro yal
ĠE s
Ġtw enty
Ġveh icle
out s
Ġpublic ation
t otal
Ġpol ic
Ġb re
ĠAr k
ge bra
Ġacc ident
ĠB ah
Ġdist ingu
ab ama
Ġord ers
m ont
A ng
BU G
E uro
ĠRe act
Ġcl imate
Ġl ayout
ĠC ab
ate ur
or ity
Ġ ri
Ġpart n
Ġz one
190 6
Ġre duce
Ġp an
ĠP ath
Aut o
Ġmod ified
12 8
Ġprote ction
struct or
w ich
w ords
Ġin ner
) ),
Ġtra ins
eg raphics
includ egraphics
ĠB os
R elease
ic ut
ym ph
ĠSing apore
C F
in v
Ġpart ial
ĠHol y
Ġl ab
C red
Con f
Ġget s
190 9
b en
um a
Ġbey ond
D est
leg al
Ġsupp ly
Ġold est
-> _
Ġcorn er
G r
result s
Ġw ays
ĠNor wegian
ĠF ellow
t ar
Ġf n
Ġtre es
ĠRec ord
M apping
ĠT urn
Ġ ip
comp iler
ĠF ame
Ġteach ing
Ġcandid ates
aj ax
ac ent
Ġenc oding
% .
Ġop position
ĠE th
Ġy ellow
ĠB alt
( __
Ġw ins
re ll
Ġre ct
Ġh all
Ġv ac
Ġadv oc
oc ks
Ġhead quarters
ol as
">< !--
v ant
H on
Ġf estival
Ġen joy
ord an
ĠAnd erson
Ġ( ),
ĠPh ys
tr igger
ĠEar l
In v
Con n
Ġman agers
Ġneighbor hood
Ġstart s
ĠUp date
Ġwe ak
Ġ= ======
Ġshe ll
Ġxml ns
Ġal gorithm
Ġmer ged
g ers
or ro
F ollowing
Ġdis establ
c uss
Ġform al
ĠC ape
F ailed
p ag
app ly
Ġjud ge
. ~\
as er
ĠGree ce
Ġvis ited
S ection
prot ected
ã Ģ
off s
Ġad vert
Not able
lah oma
get Name
s pect
Ġdr ive
Ġend ing
Ġun less
ĠL ow
com ponents
t mp
Ġass embly
all classes
Ġar ms
eng ers
Ġadv ance
Ġsurn ame
are n
var iant
ag u
ĠD or
ry st
typed ef
pl atform
Ġc ref
Ġto wer
n il
Ġre q
a ired
Ġcr iminal
IP T
Pro duct
r ift
[ $
ĠF unction
ĠL iter
ĠWindow s
Ġschedul ed
Ġfight ing
Ġpain ter
Ġpr ice
ĠFor ces
oun ce
Mem ory
Ñ ĭ
[ \
Ġdro pped
ro it
Ġsix th
c raft
ul ator
equ iv
ĠS ound
ap os
Ġn ob
pro ps
Ġn ortheast
Ġst ock
Ġhand s
ent ially
Ġsports people
Ġd omin
' m
ĠN ap
re nt
ure au
cont ains
Ġdet ail
igen ous
S ER
Att ributes
z i
190 4
En um
Ġsing ers
um in
ip pi
ĠE ric
u ing
Ġto ol
Ġqual ified
the me
N orth
ĠB eng
au ge
ubl in
M C
Ġre asons
Char acter
wild fly
o or
sh adow
Ġfocus ed
F ootball
ist ent
ect ive
Ġinv as
Ġanim ation
Ġdep th
I E
id ge
iv ation
ĠD a
Sh ort
Pl ayer
ug u
B E
= &
ĠBill board
ĠT ele
F ull
ĠM iller
Ġin vent
Ġ" ,
wrap per
over line
con n
Ġb illion
Ġperform ing
ĠJac ob
Ġprom otion
if er
import ant
Ġa ired
Ġlett ers
ĠChrist mas
N ow
Ġact s
ĠN ode
B as
T erm
ional ly
Ġch arts
Ġus eful
Ġhistor ian
ĉĉĉĉ ĉĉĉĉĉ
ĠK y
ĠSt aff
ship s
sw arm
m id
Ġon es
Ġattempt ed
go ing
ĠSw itzerland
Ġg al
Ġtry ing
Ġt ab
Ġmay or
F amily
Ġmusic ian
uer to
ist a
Ġsche me
VAL UE
Key s
Ġr g
Ġs ector
C or
Rep ository
Ġh ydro
Ġre form
Ġequ ation
Ġdi plom
ag h
E ducation
ĠM ult
Ġexp ressed
N or
Ġfrequ ently
el le
ĠA S
Ð ¼
in th
secut ive
ĠHar ry
ĠR oy
Ġpass ing
ol ished
in cess
R ole
t or
J an
ĠR ow
Ġexist ence
ens ional
at in
I mp
g al
Ġsp in
Ġslight ly
ĠO cean
ac ro
I A
Ġv e
ĠAd am
B P
S QL
ache lor
cd n
e en
ĠMod ern
f ail
Ġd aily
Ġbe aut
) $,
Ġbro thers
ĠCon st
ĠT elevision
A f
ĠV ar
Ġr h
Ġv ice
ĠLin coln
o a
ĠRe quest
ĠPr inc
ĠN av
Ġsit uated
Ġb or
Ġanim als
Ġcompet itions
H ER
ĠĠĠĠĠĠĠĠĠĠĠĠĠĠĠĠ ĠĠĠĠĠĠĠĠĠĠĠĠ
ĠTok yo
f rak
Ġcolumn s
g reen
ĠF ord
ĠAmerican s
ag an
ĠCh ile
P ORT
ST AT
ĠN ev
ĠT ony
Ġprot ocol
Ġt x
Pl ace
b ell
ĠL td
id x
iv a
p ol
Ġsch ol
Ġw ear
ok ing
T wo
ĠS pe
og s
S Y
Cl ub
Ġgu ard
C ap
d am
m aven
Ġcomm it
ĠG a
ess ions
Ġp le
d x
Ġpre v
~~ ~~
Ġappro ved
ĠMan chester
fil ename
DU LE
V ill
Ġref used
190 3
Ġs an
ru le
Ġs ons
ĠĠĠĠĠĠĠĠĠĠĠĠĠĠĠĠĠĠĠĠĠĠĠĠĠĠĠĠĠĠĠĠ ĠĠĠĠĠĠĠĠĠĠĠ
ĠSt art
het ic
Ġg rid
ĠN Y
ĠBuild ing
Ġtransl ate
Ġaud ience
Ġg rav
M ut
ond er
ĠR ose
ĠL INE
ĠB u
r ator
Ġmot ion
r ary
Ġun iform
ound ed
ip er
S ync
ĠSim on
Ġspe ech
Ġres c
ĉ ĠĠĠĠĠ
E p
h l
ĠT en
Ġfe et
PRO JECT
O D
Ġle ct
ĠBatt alion
Ġh orse
emb le
osl av
r ations
Cl uster
ĠWal ter
Par se
Ġ[ [
ene z
es c
log in
Rem ove
j ust
P P
R AN
Ġf ans
IN FO
p refix
ris is
w ig
Ġne ut
ĠAr men
Ġcomb at
Pass word
u ous
Ġrequest s
b at
ĠSund ay
_ (
Ġdoc uments
Ġcons um
ic ians
Ġd ict
Ph il
el ve
S equ
S m
Ġm and
N ULL
ĠAl abama
ĠO t
; )
N OT
ect ors
Ġeas ily
Ġb urn
Ġim prove
ĠC hen
Ġtem ple
m oz
RE AD
ĠI E
Ġcapt ure
ad i
math frak
Ch rist
Ġro ugh
Ġtype of
" `
d p
Ġadv ant
L ayer
190 1
M ilitary
ĠI mp
ĠCro at
Ġs ail
olog ists
ĠC op
ĠJan e
ĠMag azine
ot imes
ĠB run
Ġb ought
prot ocol
inem a
Ġoper a
att ributes
d ates
o en
ĠQue bec
h ol
ĠN aval
ĠA D
Ġcol lected
Ġcon sequ
ĠL ank
H R
ĠL ast
Ġrepresent ative
At tr
if ul
Ind ian
b oy
iss ippi
ĠS in
Ġpre par
< !
ĠC y
ĠBul g
Ï Ħ
build er
r v
ĠW ell
ge q
ĠB urn
rid ges
ĠK a
Ġpower ful
Ġly rics
Ġop posed
ĠHow ard
ĠD un
-------- ----
Ġp ush
t body
Ġeconom y
g i
Ġtechn ical
Ġf rag
Ġref ers
b us
Ġpil ot
Ġinc ident
G lobal
ile y
d em
Ġsett led
Ġb ill
Ġapp arent
Ġf olk
ĠH ash
enn y
ĠN et
ivers ary
Ġ ut
ð Ł
Ġneg ot
s ocket
Ġemploy ed
ex ecute
190 2
Ġc overs
Ġev olution
M er
ĠB arn
Ġ" -
ĠCommon wealth
d y
Ġcons ult
() </
Ġg ra
F unc
Ab stract
met ric
ĠW orks
Ġex it
ĠN AME
r Ã©
od ox
Ġlead s
Ġref erences
Ġst orm
ars ed
(' .
ard o
ĠT an
Ġs outheast
pp ing
Inst all
Ġcommission ed
in ces
Collection s
ours es
call ed
ĠReg ional
th row
Ġget ting
ĠTurk ish
10 1
Ġdown load
Ġrel ation
ĠE qu
Ġsize of
ĠG ab
ĠPri x
ĠH amp
Ġ" <
Ġro of
Ġre ar
mut able
r ons
Ġse ctions
D epend
re ens
á ĥ
ĠT a
ĠR ol
Ġp arser
ĠMar ine
Ġpass word
ar o
text bf
sv g
Ġregard ing
ĠSt one
iev al
Ġrat io
ĠR est
ĠL ind
Ġwh y
Ġe mp
ut ies
ĠConnect icut
Ġ ],
if iers
Ġconstruct or
I ST
Ã ł
ĠCO VID
Ġpref ix
g han
Ġd ie
n etwork
ĠF inn
ĠSe ver
Ġab stract
d ied
Ġth ir
Ġexecut ed
B orn
ĠG ram
og en
ĠZ h
Å ¾
s ince
Ġg ar
Ġrecogn ition
un nel
al ia
ev in
ĠL ike
d one
Reg ion
om orph
Ġcon secutive
=" ${
Ġex port
sub s
Ġv ent
ĠWh at
Ġl ang
ĠL com
numer us
ĠD omin
numerus form
sh ared
p ref
B B
Ġbro ke
gener ated
ĠN CAA
F in
ok ie
n ight
Ġoccup ied
ĠN ick
ass andra
Ġshow ing
ĠN ik
ĠL eb
Ġen v
en ers
t ons
ĠAd v
Ġw ind
ĠSt ory
Ġdi am
Ġhead ers
Ġinh abit
v ideo
G O
put er
ĠP ref
ĠPl ayer
Ġapp end
line ar
S em
ĠC ost
B AR
Ġhold ing
ĠSen ior
Ġsupport ing
ĠT el
Ġs and
ĠF urther
ĠĠĠ Ċ
; }
M ajor
ĠIO Exception
CHE CK
Ġfound ing
St and
ĠDi ego
Ġcont ributed
ĠPortug uese
fl ag
m box
ĠL ar
Ġattack ed
ĠS ky
Ġm orning
ĠTem ple
Ġconsist ed
S ocket
Ġex ecution
ric es
ĠDo ctor
s ingle
Ġmet res
Po inter
V M
on omy
F ail
ial s
Ġexhib ition
R C
Ġf ought
ap pro
Ġar ran
ĠM it
A rea
og y
Ġ? >
d on
t ags
Ã ´
ner gy
Ġw inter
Ġpresident ial
188 0
Re ception
Ġrem ote
Ġdescri bes
ax is
d eg
L ambda
Ġp ieces
medi ate
ĠOk lahoma
ĠArgent ina
ĠCh ampions
ĠM essage
Ġpl anning
Ġj azz
( --
Ġaff ected
Ġl ake
Ġcomb ination
ĠEn vironment
ĠB ecause
ĠC emetery
Vari able
Ġret irement
us ername
Ġfl ags
Ġloc omot
Ġqu ite
ect ure
ĠBrig ade
Ġult imately
Ġnuc lear
ĠS ix
Ġstring s
Ġ ).
;" |
D ay
F IG
Ġag ed
er al
ĠN ich
ĠHon or
ag ues
ser ial
Ġext ensive
Ġnull ptr
Ġkill ing
IN D
B el
ĠH ere
Ġfind s
Const ants
l ot
ex ists
ĠHe art
AR N
ant on
ĠLINE AR
b urn
ĠChild ren
Ġdef ense
ĠIn ternet
ĠD ream
) ^
Ġent itled
Ġlog ger
iz able
Ġintro duction
l on
r uby
Ġext rem
ĠOper ation
ĠSoc orro
Ġb rowser
Ġch urches
Ġf uel
Ġh ers
lo ader
P refix
Ġfrequ ency
ĠAll en
lad esh
c red
A uthor
ĠLab our
Ġt ennis
ra structure
Ġpl ane
ĠCont rol
ran e
Ġl ists
Ġra w
ad ed
serv ices
S ummary
Ġfund s
ĠG ib
w ick
Bl ack
Ġcrick et
det ail
J S
not es
p ubl
ĠS quare
w orld
ĠB rian
L iter
ĠN FL
Ġr ise
det ails
Ġshort ly
ar c
ym p
ĠP ot
Å Ł
ab y
ĠD ocument
Ġliter ary
Exp atriate
Ġem phas
Ġperman ent
II I
lang le
T race
in ch
as i
ĠR eb
AL SE
ĠH ockey
n ie
Ag ent
ĠOff icer
M I
Ġse ems
ur is
Ġinvest igation
x html
Ġf ashion
Con stra
ĠS ign
hes is
ĠSil ver
Ġdom estic
az a
? >
ition ally
L android
St ar
Ġstr ategy
Ġs ust
D P
æ ľ
Ġpow ers
ĠMar c
Ġactress es
Ġar rang
ĠG all
duc ing
Ac adem
Ġdev ices
ĠGu ide
Ġa xis
ĠĠĠĠĠĠĠĠĠĠĠĠĠĠĠĠ Ċ
ĠB rand
Ġopt im
ut ed
ĠB efore
Stat ement
T x
Ġpass es
ĠG ets
Ġdirect ors
189 8
Ġsub stit
En ter
Ġc ycle
op ter
ĠT ar
D T
Ġadd ing
ass embly
ĠT errit
ĠAb out
H S
are st
j ango
Pro gress
ĠN on
spring framework
Ġpat ients
ĠH or
Ġm ind
Ġprocess ing
Ġg irls
Ġ{ {
Ġassum ed
Ġc as
imit ive
Sim ple
T otal
ĠRe ad
ren a
ed ia
g ency
ĠâĢ ł
Head ers
us ers
el son
des ign
ĠD ur
ĠO ur
Ġ ui
ĠRes ource
N T
err ors
pre v
ĠT s
Pro ps
ang el
Ġenvironment al
ĠA ge
P e
final s
Ġcomp ris
ĠP ope
Ġag greg
Ġir on
Ġsoc cer
Ġcontribut ions
li br
pl us
Ġse ed
n amed
Ġd ates
ĠPro duction
Ġg uns
Ġk il
che ll
Ġen able
ow nt
ĠHT TP
Gener ator
ĠU l
ĠR ights
R oman
Ġst adium
r in
Ġind ependence
ĠP as
h op
. <
Ġcon nections
Ġprocess es
in burgh
ĠUn it
Res ources
Ġsup ports
j unit
Ġprov ed
ĠT HE
ĠW y
ĠHou ston
ĠF M
duc er
ĠTai wan
Ġf ill
Ġsome one
F S
mir al
.. .</
CT YPE
Ġcent uries
ud a
Ġcaus es
ĠJ am
Ġalleg ed
S election
Ġdevelop ing
ĠWh it
Ġis ol
ĠSw iss
l ayer
ĠF a
> ::
Over view
Ġtechn iques
f ixed
ĠBelg ium
el ess
Ġatt ached
F M
ĠM and
Ġf it
sh al
Ġto ols
ĠIm age
Ġenem y
fri end
includ ing
ĠDoug las
or er
C ategory
res ources
Ġanim ated
z one
os m
Ġstreng th
Ġband s
. }
index Of
ĠB ureau
ik h
ot on
ĠAn ne
id el
ĠG ordon
Ġ{ "
Ġus age
Ġm el
def ined
Ġass ess
UR I
Ġch ampions
Ġfact ors
ou ter
ĠD ark
ĠSh er
Build ings
M B
Ġclass ification
Ġcomp ilation
Ġinvolv ing
ab ad
Î ¹
ĠPortug al
ĠH ttp
Ġpr ime
pro gress
ĠMiss issippi
! "
ĠT ag
ĠS el
Ġsp an
cept ions
sign ature
Ġcont rolled
Ġweap ons
ĠU I
Ġf aced
Ġcompos ition
ĠV ice
O pt
Ġset up
N odes
Ġext ract
Ġrequest ed
Ġgl ass
ĠC rit
ĠDen mark
Ġstr ateg
Ġposs ibly
Vis ible
Ġh our
hemat ics
ev al
ĠM icrosoft
Ġrelig ion
Ġhot el
ĠL ieutenant
ĠN ag
ĠH as
Ġhigh way
%% %%
ĠD anish
M ag
od a
O UT
Ġ$ .
ĠK am
Ġsh all
Ġlaw yer
ĠB O
ĠLiber al
t wo
SE LECT
our ney
th odox
ĠJ ay
Ġsp ot
C ent
S ing
ĠTh ird
in valid
Ðµ Ð½
ĠA ND
ĠP uerto
Ġoff ices
ĠAnth ony
al ar
Ġpur poses
ore t
C B
ĠCh all
Ġf ine
ĠLouis iana
Ġin aug
Ã «
s pe
s a
E ast
ĠB uff
D at
Ġbeliev e
Ġmet adata
Ġf resh
ov iÄĩ
par a
ĠEx press
12 5
Dav id
Ġto ward
M ount
S ongs
ĠF ac
art icle
W orks
1 10
p ub
Ġeth nic
H er
li est
__ __
Ġcaus ing
Ġmid field
Ġchem ical
Ġhers elf
Ġreject ed
Ġconsist ing
7 00
ĠK az
F R
ag ger
Ġtra ined
Ġan cest
ĠK at
ĠC H
W N
c up
Ġg ain
189 9
print ln
ĠPat rick
Ġchar set
ĠB an
(' /
et ing
h line
m outh
param eters
Ident ifier
Trans form
Ġpar allel
Ġro utes
Ġdid n
ĠPl ace
Ġt end
ĠR ab
h y
Ex ecut
Ġcon ver
ĠCl ark
Ġs ought
t ransl
ĠAl ber
U SE
on i
ĠY outh
Ġem ail
U ri
" ].
st able
ur ric
Ġst ored
Be an
Ġm olec
Ġviol ence
W rapper
ĠR ey
Ġ' <
' ));
Î ½
ocr atic
k t
Ġdis abled
Ġrepe ated
Ġop in
ĠIslam ic
CE SS
Ġspec ifically
Ġair port
comm un
Ġlook ing
IC E
ĠAm ong
ay an
ĠU r
ograph ical
Ġsp aces
ĠF A
å Ī
pr ime
ĠCopy right
Ä «
DO CTYPE
Ġj Query
M any
ĠÃ ī
ĠG ard
ĠInt eger
Ġw ave
Ġp od
ĠHer itage
Ġstri ke
Ġd ialog
Ġw alls
Ġestablish ment
im ore
iss ance
ext ension
ĠBrazil ian
ad r
Ġwe alth
Ġm obile
Ġback ing
ok es
b rief
ĠExecut ive
Sk ip
an imation
ist ant
ĠF und
Hel p
pect ive
Ġp and
MO DULE
}, \
Ġsub stant
Ġimplement ed
{ %
r f
Ġ Ø
ĠStud ios
Ġimport ance
Ġc amera
Ġch annels
Ġor ient
ĠIsrael i
ĠĠĠĠĠĠĠĠĠĠĠĠĠĠĠĠ ĠĠĠĠĠĠĠĠĠĠĠĠĠ
lyph icon
M ost
Ġf ranch
ĠAnton io
h aps
Ġre ign
Ġ queue
ĠĠĠĠĠĠĠĠĠĠĠĠĠĠĠĠ ĠĠĠĠĠĠĠĠĠĠ
le ton
Al though
lo yd
Ġ[ "
check ed
Ġc tx
TI ME
IT E
ĠA le
s ch
TE XT
Reg istry
Ġf ix
arn ings
EE EE
Ġde put
Ġc ert
Ġd ynasty
ou st
ant asy
ĠFreder ick
Ġmain tained
Ġfund ing
Ġso ft
st orage
ĠArray List
Mult i
r ust
ap is
requ ired
Ġide as
it i
Ġdep ict
ĠBudd h
j pg
> :
un ique
d ed
Ġres erv
S ch
189 5
atter y
Ġstand ards
ĠMo ore
Ġdec ades
cont rib
arg o
PO ST
arn er
ell ite
M al
Ġb odies
Ġres olution
Ð° Ð½
Ġprogram me
ĠSt r
Ġcom pl
Ġeduc ational
ff ff
Ġmag n
Ġinit i
ĠJ uan
Ġsup erv
ĠD al
ĠÐ ¿
Ġsepar ated
pos s
e ed
W allet
ĠE ag
Ġmed ium
ĠLO G
U K
us hed
n old
IV E
Ġint ent
iv ated
com plete
Ġr ival
Ġs ac
Ġcommun ication
W R
ĠM oon
cuss ion
Ġindic ate
Dis c
ĠVill age
Ġar bit
ts burgh
ĠIm perial
p df
ĠK er
ĠCol omb
ri k
it ched
own er
Gener ated
Î µ
ĠD eb
Ġpoet ry
Ġpaint ings
) ->
Ġpartn ership
P si
ĠB us
187 0
ver y
Ġentire ly
ul us
ĠDet roit
Ġaband oned
iss ues
Ġent ries
inc orporated
ĠB lock
189 6
Ġste el
y ers
bor ough
nd ef
Ġimprov ed
Ġtransl ated
ĠA SSERT
It alian
ĠC art
Ġfin ishing
Ġinflu enced
Ġtyp ename
Ġcast le
Ġarg ued
level and
Ġs oci
ĠRes ult
Ġfore ach
Off icial
ĠM aur
Japan ese
h ref
an ian
Ġcho ose
ĠD ak
Ġprom ote
ur ance
Ġs afe
C M
R PC
Ġtyp ical
l ig
f lex
Ġv ary
ab out
ak ed
ch art
U nder
Ġe c
Ġb udget
ide os
ĠLegisl ative
mer ce
ist ed
ach er
TR UE
Ġcerem ony
ĠD ublin
Or gan
ĠTh rough
Ġmen u
ĠO ak
all ed
Ġpro xy
(' #
Ġm d
Ġt ail
ĠOr chestra
Ġv o
Ġindic ates
Us ers
F ore
ĠIndones ia
L en
ent ed
Ġmeas ures
f old
ir ation
Ġpol l
ĠD VD
Ġfin ite
f d
check box
Ġdis k
Col l
Ġwe ather
Ġbro ken
Ã³ w
f ront
v c
Ph i
p u
en able
Ġp ed
ĠEd inburgh
Euro pe
iss ue
| }
D en
Ġb inary
ram a
Ġv oted
Ġany thing
F ragment
as ync
Ġall Classes
enez uel
Ġn ick
ĠAb d
ĠAdminist ration
or ient
Com ment
az ines
Ġf lex
Ġinhabit ants
ĠArch itect
Child ren
v s
fe ature
Ġtouch down
Ġcon vent
ĠallClasses Link
ĠH ans
Ġappropri ate
ĠN ig
sc ss
ĠJ ordan
us al
Ð¾Ð ²
Ġinv ited
per m
Ġdr ivers
Ġinvas ion
ĠA ud
con sole
f r
Pro duction
Ġtra v
189 7
ru ctions
Not ification
in er
all as
ĠF ace
Ġ[ ],
ĠB ry
G A
= -
ĠJes us
m illion
ail and
ĠE ven
Dom ain
Ġrg ba
ĠHar ris
ĠH u
H istor
an im
ĠUk rainian
HT TP
Date Time
ĠHot el
ĠH om
Go ogle
el and
Enc oded
ĠComm ander
ov o
ĠP a
cle an
F lor
enc ing
Ġa id
Ġres erve
Ġst ating
av or
Ġass ign
ac on
Ġres igned
Vill ages
Ġc row
m ask
c atch
p ython
Ġr u
Ad min
Ġdeg rees
ĠPal est
Ġw rong
Ġb rown
Ġadapt ed
Ġent rance
ĠAf ghan
ÃŃ n
Ġfle et
Ġre ader
Pro gram
ĠF ern
Ġcl er
ic ide
Ġc ru
ĠIn n
Ġinc orporated
Form er
å ®
Ġcomplet ion
Ġexper i
w en
Med al
Ġheav ily
ur day
ug ar
Ġm yst
ĠStand ard
S an
k appa
em en
}} $
b ridge
Ġsh ut
R T
in x
ser ies
Ġj unior
ĠW olf
j d
Ġworld wide
B I
ĠF ROM
Ġscen es
w id
ĠM rs
Ġcont roller
ist ence
ĠA re
Ġm ask
Ġb an
Ġclos ely
/ \
es ome
ĠSam uel
B ook
ĠC ow
dec l
Ġemploy ees
og ether
Ġst ores
r ating
Ġp un
Ġauth ors
ĠM ake
P H
mon th
Ġbo at
res olve
Ġd rawn
Ġinj ured
Ġe asy
F T
n odes
ĠInd ependent
ĠC ulture
up load
ĠHaw ai
l ass
Ġw orth
Ġs aved
ĠBo x
Ġop posite
Ġcover age
i pl
ss on
w hen
ĠSo ftware
up s
ĠL ang
Ġautom atically
Ġm art
Ġh or
ĠC ru
Ġsuff icient
Ġhe ard
ĠP ap
Ġre ality
ĠH ills
lip se
che me
Ġpublic ations
ĠP ack
Ġnot ice
() ))
Rail way
Pr ivate
ug oslav
rand om
Ġprote in
ĠP ed
ĠAl an
Id s
ĠL am
i ors
g on
O ST
Ġc a
F ig
18 0
D b
l arge
ĠL anguage
Ġ ille
R ober
Ġs un
S ur
s ys
ird s
Ġadj acent
Ġd uration
Ġmain tain
Ġf reedom
Text ure
ch t
h ere
Ġjo ining
Ġsignificant ly
ĠT ig
ĠS ource
leg es
m ers
Pro p
Ġmatch ing
Ġpass enger
ynt ax
Ġbrief ly
sh ift
aps ed
ĠV ector
Ġproduc ing
ĠD C
ĠF all
Ġsec retary
O B
ro ute
Ġhe at
Ġdocument ation
ov es
Ġeng ines
Ġh ired
Ġad vent
Ġr ates
Ġis lands
ĠFin land
ish ops
Ġcon cluded
aw are
ĠArk ansas
ops is
c oh
f all
A CT
ĠH ug
pre c
ig ious
ĠV in
ers e
M ore
Ġm ent
OR TED
( @
u ating
s n
N ative
ĠN AV
D im
ap olis
ĠO bl
Cl oud
c am
ĠR ound
t emp
bl ank
Ġm ach
ens ure
en z
n est
Ġp ione
ĠY an
/ "
Ġoper ate
pro xy
f ol
Ġd ynam
Ġrun ner
ĠAust rian
Ġanim al
) -
Ġst yles
"" "
Ġopportun ity
s ong
Ġl aid
ĠG irl
Ġg ene
ĠG rant
ant ly
et ween
Ġresist ance
ig e
ra pped
Ġinter ior
ĠBang ladesh
ĠSt ew
sub set
ownt own
D ictionary
Ġk ick
W eek
ä »
189 3
Ġal ter
En vironment
M ich
ĠL ib
ĠHar vard
il arly
Ġpra ised
o i
Ġpre ced
az y
Ġlink ed
Ġr ating
Ġap plic
ĠWh o
US ER
uk i
Ġr ich
188 9
ĠMi ami
Ġrequire ments
ĠWalk er
EEEE FF
t k
ç Ķ
ĠP ow
cal endar
Ġo k
Ġeng aged
Ġd ry
bo ards
189 2
ld ots
ib l
Ġregard ed
Ġst eps
rit e
Ġp hen
ĠD ue
Com par
ĠG arden
Ġvol unte
L anguage
Ġro ut
Form s
Inter val
Ñģ ÑĤ
on ce
ĠC ensus
p ull
Ġval ign
Ġcom ic
Ġa head
te am
Ġ" $
Ġs amples
ex pr
ĠT oday
N amespace
cl osed
ĠS ud
ct ic
Ġreach ing
ĠR ang
Ġro b
ĠMay or
P ref
ph an
Frame work
B ind
Ġfound ation
ID TH
ĠC EL
' ve
ident ifier
Ġadvant age
Ñ ĩ
ow ed
Ġcl in
ĠBow l
ĠSh ar
nap shot
i ac
Comp at
ĠMalays ia
Ġb ishop
ĠC SS
Ġs ale
nd ered
ĠAn y
, '
ĠAL IGN
Ġelect ronic
C G
non umber
ĠOb serv
Ġdim ension
Ġs ell
Ġag ency
Ġw itness
Ġtem p
test s
ĠLaw rence
ĠS E
Ġcompet e
ĠDE FAULT
Ġf ragment
Ġload ed
L ight
Ġcharg es
Ġpolic ies
M ath
re tt
ĠC urrent
bl ack
' ll
rate gy
Ġd ivers
us cript
if fer
Ġsc roll
ĠL as
ĠB ou
ici ency
ĠR ugby
Ġbel ief
Return s
ĠE arly
f ather
ĠG on
189 4
Ġap art
on om
Ġrul ed
Ġan th
Reg ister
Ġconstitu ency
ĠEx p
Ġm ist
Ġpremi ered
uz z
GB T
N N
ĠMP s
Ġen h
Ġdis miss
ĠN ob
re lease
Ã ª
Ġar med
ĠRes erve
ĠDis ney
dep th
ur st
Ġcrick eters
P ers
LO CK
ĠD ol
ten ance
Ġpers ons
Ġdeb ug
l ate
put ed
ĠTam il
Ġj ump
Ġhigh light
v olume
ĠD ave
ĠP ur
È Ļ
Ġs qu
ĠHistor ical
ĠCommun ist
ĠV ideo
ran ches
Ġex ecute
Ġcomm itted
ĠPro t
ĠWel sh
S creen
M T
Ġcor por
Ġcharg ed
Ġquest ions
d ele
Ġrev olution
Ġrecord ings
if def
Ġhom es
ĠRe port
ĠHol lywood
ck now
ot ation
Ġh air
Ġpl ugin
ash i
j ack
ong o
ĠT R
w arning
R ich
h ill
v ia
uff ers
Ġcollection s
Ġexp ed
Ġopt s
Ġass ume
trans ition
ch anged
ual ity
Ġm ile
18 60
it als
ĠPal ace
Ġpl us
pat tern
Ġmon itor
Ġdo or
DE FAULT
ograph ics
Ġread only
R ussian
Ġread y
Ġlabel s
% "
ĠC ustom
Ġed ited
ul p
ĠT reat
Ġacc used
ĠMc K
up lic
Ġsom ew
ĠS IZE
Ġframe work
Ġch ose
Ġcont ribution
ather ine
ig o
k ens
Ġ@ "
ĠCon stant
Å Ħ
ĠRail road
Ġp airs
Ġturn s
ĠĠĠĠĠĠĠĠĠĠĠĠĠĠĠĠĠĠĠĠĠĠĠĠĠĠĠĠĠĠĠĠ ĠĠĠĠĠĠĠĠĠĠĠĠĠĠĠĠĠĠĠĠĠĠĠĠĠĠĠĠĠĠĠĠ
Ġwindow s
Fl ag
188 5
Ġreplace ment
NavBar Font
O C
Ġmap s
ink ing
A ugust
C ard
Ġl at
Ġs ed
189 1
Ġ ..
omin ations
The se
ann y
S K
Ġso le
Dele gate
Ġtw elve
Ġschol ars
Ġe q
ĠSh ah
An imation
ĠP eters
ri eve
cri bed
Ġlist ener
ï »
St op
Ġag o
met ry
f ix
Ġbir ds
, -
Method s
el i
as a
ĠUt ah
Ġa ware
Ġarch ae
f actory
DE BUG
bold symbol
Ġth ick
ĠD ick
Ġaccomp an
L C
Ġm us
Ġm urd
Sequ ence
Ġc md
ĠHung arian
ĠHung ary
H ub
li ps
g oto
n ia
ĠW rest
bar a
ĠAm azon
Ġtime out
ug s
æ ĸ
ind ent
Ġpro ps
or us
re pe
Ġcollabor ation
Ġp icture
Ġmin ute
Ġt ropical
ĠT it
ĠI ron
ĠP un
h ab
bass ador
Vert ex
ĠL anc
Ġdiff erences
Ġinterest s
p red
ĠDef ense
ĠDon ald
ï» ¿
ov ation
view s
a ire
ĠOper a
ĠB art
ĉ ĠĠĠĠĠĠĠ
Ġac id
ĠDe ath
RE Q
at omic
EL D
group s
Ġt asks
Ġnet works
Ġtransp arent
ac le
ĠNAV BAR
ĠTh ailand
d c
ĠMont real
umm y
F LA
Ġunder stand
iver pool
ĠC ond
188 8
Ġn p
Ġcont ents
elect ed
ĠPro cess
. ",
ĠK ings
ĠSing h
Ġa f
rel ation
ĠJos Ã©
Ġunder standing
ĠN E
od ge
Ġexperiment al
ott ed
L INE
int end
ĠLa ure
z z
St ats
à ¥
Ġf ee
ĠRoman ia
ord ered
ĠDep uty
Ġh its
ĠN ar
Pl atform
ĠCh ampion
Ġf ired
th rift
ĠCE O
time out
ĠE ND
Ġland s
put ation
side bar
am azon
ilt ers
R S
ĠAss oci
Ġgal ax
Ġre action
ine a
' ];
ĠC ole
ĠAtl anta
Ġl es
ĠR ace
Ġprov e
Ġfa ith
A li
test ing
M arch
Ġgr ade
Ġbu f
ĠMar shall
IG HT
down load
f ast
empl ates
hel per
P ER
Ġear liest
Ġth ing
Ġtem porary
Ġfav our
fl at
oc racy
ir i
Ġa x
Ġtri es
= (
b rid
ĠM es
b el
oc he
let ion
Ġleg end
Element s
Ġchall enge
Ġ ];
Ġinterest ed
he ets
Ġcost s
lo op
ud es
ro c
eb r
Ġf ly
ul ating
ĠR u
ĠMed icine
ĠB ull
ĠC ook
ĠPe ace
Ġg reatest
ĠR yan
abl a
Ġt ank
Ġb in
Polit ical
ĠAnd roid
Ã© n
Ġquant um
Ġagric ultural
Ġperm ission
Ġsk ip
ĠJoh ann
oc a
F ind
ah n
ĠMet ropolitan
Ġhum ans
Ġpurch ase
ament al
Ġrow s
Ġst ages
Ġcompar ison
nt il
ĠP rad
Ġd anger
und efined
Ġp up
Sc ott
Ġprob ability
Ġwith d
/ .
id ad
ot ional
ap y
Ġnav bar
Ġm ig
J ames
Ġres olve
ĠB ush
Ġch air
Ġw arning
ĠOr thodox
ĠVol ume
Ġstop ped
E st
Ġpand emic
Ġf lying
ĠO ri
Ġpri ze
Ġgener a
ist ical
em on
; ">
En v
S erv
Ġroad s
Ġaff ect
ĠH op
rick et
ĠAg ency
rupt ed
Ġp ub
Ġprom pt
}) $
Ġphilosoph y
ley ball
: \
ott en
å ħ
ĠDe ad
ĠMount ains
P air
Ġ' \
ĠP atri
Ġdest ination
ĠOtt oman
ĠPubl ishing
Re port
get Value
Ġdet ailed
Ġhost s
Ġh am
Ġo vers
="../../../../../../ ../
Re al
Ġevery thing
Ġint elligence
g ow
ĠHamp shire
am an
se g
å Ĳ
ĠC A
Ġcon n
support ed
ĠC rown
Ġsk ills
MO DE
VAL ID
Ġrail road
s ol
ĠK evin
Sh ape
Ġcol our
Ġprov ider
Ġt mp
ins ula
ĠTh erefore
Ġres idence
ming ham
op ts
F ORM
u ations
Ġver ify
ĠN AS
Ġmembers hip
Ġsevent h
Ġch apter
ĠG ran
Ġtri p
Ġpaint ers
Ī Ĵ
ob a
Ġstand s
} -
s em
ĠBoy s
Ġdeliv ered
erb ai
Ġm ilit
ĠAn na
M ouse
EN SE
ĠE nergy
id o
ĠS n
eff ect
i ples
um ed
red ited
Ġprop ag
in itions
ĠC ase
ĠC atal
f x
ĠAl fred
pr ison
ĠCh art
ĠC ra
ĠOption al
Ġdiv isions
NS String
ĠF ight
uc ks
li a
/ _
Ġc rown
ĠRuss ell
Ġbal ance
C apt
ĠCh amber
Ġs pl
B ound
ĠP RO
Ġt error
circ le
ĠMor gan
ĠObl ast
ab il
Ġim ag
Ï ģ
om as
cl uster
libr ary
Ġadj ust
bas ic
ish ment
O ld
ĠAd vent
comp ile
Ġdep ending
Ġenc ounter
Ġproduc ers
count ry
Ġfind ing
ĠK u
ĠS C
Ġre ception
Ġparticip ate
in ian
M ill
att ers
ret ch
Ġgrad uate
Ġc ool
z ip
sh a
ĠOn ce
bl ue
grad le
P al
Ġdis ap
ĠAp ache
ĠVi enna
Ġout er
low er
{ "
Ġth er
S M
h att
s uch
ĠIn vest
Ġown ership
B L
Ġres erved
ĠConstit ution
188 7
ĠD ance
I gn
ĠDe an
SC R
(" /
ĠO d
ĠG irls
m osph
onym ous
F UN
12 7
ĠIn put
ĠCh airman
Ġan gle
rad io
d uration
ĠCom ics
ĠD igital
ĠN ep
ibr aries
Ġcompos ers
ĠM ission
F ree
Ġdep ends
H ome
av el
select or
ĠR ick
{ -
igg est
Ï ĥ
Ġid x
Ġch ance
ĠMc G
Ġnorth west
ĠMarg aret
Ġen um
yth m
ĠW ard
ĠJ un
z ero
Sup port
Ġpen al
aval ry
Ġdesign s
ĠKn ight
act ivity
ĠF arm
U D
W arning
ĠN atural
ĠR io
ac cept
ul i
s ample
T T
do or
En umer
Ġsuggest s
18 65
Ġcolon ial
Ġt sd
ort ed
Ġres ign
Ġreg iment
p air
Ġpass engers
ed ed
Im port
RE S
pro duction
=\ "
Ġref uge
Ġtechn ique
Ġground s
l u
Ġs ph
End point
ĠO m
ĠC are
Ġ ere
P aul
Ġd ial
Ġass ault
Ġunivers ities
ĠBalt imore
Det ail
al ert
Ġd ies
at on
ch ain
Ġdepend encies
Ġcou pl
ry ption
ĠBru ce
ĠVal id
Ø ±
Ġgood s
i op
Ġdr iving
ĠRog er
ĠS earch
13 0
as m
Af ric
ĠPit tsburgh
ar us
ist ing
n ik
Ġc aught
er os
Ġsy nd
ĠP ear
ĠB ed
wh o
Or iginal
Ġ' '
Ġrecomm ended
Ġext end
cre ated
f are
y ll
Ġs uffer
Ġcirc um
ĠMet ro
ĠN elson
fess ional
Ġpred ict
Ġc ursor
Ġun c
(" #
er on
ĠF el
Ġdesign er
ĠC leveland
ke ep
Ġw aters
Ġrest ored
ble m
Ã¶ r
ĠAg ain
IT ION
az e
ĠC ore
Ġassert That
ĠR ural
Ġsurv ived
ce ive
ĠD ie
ĠKar l
Ġb reed
ĠG re
ĠKel ly
ĠW right
construct or
Ġm ort
li k
ĠN am
Ġstrong ly
Ġexpl an
vis ible
Con nect
ge o
ĠSe attle
ĠK on
ĠN i
ig ins
ier archy
Ġown ers
P UT
Ġste am
Ġmar ine
Ġsche ma
Ġident ify
Ġfranch ise
? "
ĠV enezuel
Ġ> >
Ġdec ade
if ndef
M ove
å ¤
ĠP ad
is set
t aining
INT ER
ĠB uck
or igin
ĠF al
ĠBet ween
b ishop
ran ean
ĠAl liance
Ġg ender
Ġcontinu ous
re le
Ã¨ re
Ġb ind
ort on
m obile
Ġprep ared
ĠMar ie
ru ption
Ġdisplay ed
ri ed
ĠN ash
T ube
re act
Ġsc hedule
kee per
S ample
Ġstand ing
ina e
Ġs b
S ql
B order
Ġaddress es
i our
Ġcar bon
ĠR y
Ġf illed
'] ['
Ġregular ly
ĠBro thers
Ġann iversary
ust ers
ab ric
Ġb rain
188 6
Ġmed icine
Ġv erb
Ġp ure
ĠA BC
Ġpubl ishing
eg as
Ġsing ing
Ġdam aged
ĠCamp bell
Ġdesc end
Ġathlet es
cit ep
getElement ById
it able
is ode
ĠP erson
end ment
ĠDes cription
ĠThom pson
Rec ip
Ã ¦
ult an
Wh at
Ġph one
valid ate
ĠB lo
L imit
; \
S I
ĠFri ed
alyt ics
kw args
cast ing
Ġpubl ish
Ġc risis
ĠAust in
h ai
ĠColon el
' d
b its
Ġachiev e
ĠMain e
Ġabs or
D ATA
list ed
ĠC P
act s
ĠL ith
L ater
Ġf an
Ġjust ice
S ave
Ġt ell
Pl an
Ġsol utions
ĠAd ams
th a
Ġshoot ing
P resent
Ġelect ron
H z
J une
Ġdeput y
Ġv eter
Ġsur g
Ġe ye
Em ail
Ġper fect
ĠTr ump
Ġlegisl ation
Ġ\ "
cre t
m ount
Ġst able
Ġdiscuss ed
H owever
Ġem bed
ate way
d ots
ĠKenn edy
s in
ou ver
en berg
Ġlocal ity
Rober t
ĠL ink
& \
Ġaccom mod
vert ical
Ġcon version
Ġpe er
Event Listener
M c
lo ok
IO Exception
V olume
ĠAN Y
ver ter
ĠSec ret
18 64
ĠA M
Ġrespons ibility
Ġc ourses
Ġdebut ed
ĠA rena
Ġret ained
188 4
Ġmag netic
ĠAg ric
A re
Ġp seud
Ġre new
Ġinvest ment
s is
Ġmet ric
ĠT ak
int eger
ĠMor ris
ĠBo olean
ä º
" ],
Ġchang ing
M ask
m ouse
ĠAcc ess
ĠS QL
sim ple
ĠStew art
p oly
ĠAthlet ic
ĠL iverpool
inher it
Ġ" ";
Ġbusiness es
st ory
Ġv ideos
Requ ired
Ġth erm
over view
ĠRes ponse
186 1
Ġjud ges
ast ery
apt ist
Ġrele vant
ĠP ay
ĠE q
Ġvict ims
opt ional
Ġv ot
M ake
Ġas pects
Ġle arned
u is
if le
Ġinc orpor
dim ensional
Ġd uty
is Empty
Ġven ues
} ]
d ale
ĠK an
ĠSt atus
Ġ' ./
ĠU rb
ĠV ik
Ġoper ators
ĠH end
ĠRef orm
il k
b atch
Ġconcern s
Un known
Ġscient ists
ĠH ell
âĢ ľ
spec ial
Ġc atalog
ĠTra ining
Ġneigh bour
Input Stream
cl one
v i
Ġrad ius
ĠS ac
Ġres et
Ġmin ing
oc al
Ġspec ify
ĠF ull
Ġdef ensive
Ġ ul
\! \!
iv idual
ĠL ower
over ty
Ġast ron
ic ator
Ġw a
ĠSen ator
ex tern
Ġim prison
ĠGl as
Ġcl ick
umb ent
Ġex ceed
Ġaccount s
amp s
Ġk id
Ġlate st
Ġg auge
D rag
Ġcl oud
ĠB it
le ans
ĠC G
Ġe gg
18 50
Ġs ynchron
ill o
Ġb ed
Ġ ig
s b
Ġf old
Ġextrem ely
am ents
Ġoper ates
os es
Ġ( [
Ġh un
ĠTh or
ĠR ud
sl ice
Ġcritic ized
ab et
E V
sp i
Ġtem por
Sub s
ĠPr incess
ir ates
is or
Ġsign ing
p ower
Ġbo ys
w right
Ġal ert
ĠOr d
og ram
ĠPro perty
Ġexact ly
Ġarran ged
fin ite
The me
Ġnav al
******************************** ********************************
ĠDak ota
J uly
A z
L L
ex ec
Ġal gebra
ors es
B ur
ĠYear s
es is
ĠK it
Ġmy th
nav igation
A pril
P y
ok a
ish ments
Ġro oms
RE G
Ġdr ag
Ġcl ock
ĠJ u
Ġsub urb
Ġinstr uments
duc es
Ġsubject s
a udio
ĠS ite
load ing
Ġh ill
cover y
d atabase
Ġcan cel
pan ic
Ġval ley
Ġl iqu
Ġposs ess
ĠY ugoslav
ol ia
ĠPol icy
p olicy
Ġsec ure
: [
ĠC arn
\ |
ĠAuthor ity
ian ce
Dem ographics
Ġst ats
ĠF ive
is ations
ĠR an
Ġs urre
Ġan aly
ĠD ictionary
E ff
t ed
Di agnost
hib ition
ĠMunicip ality
Po jo
ĠSchool s
Ġjob s
ĠK now
ME TH
n abla
il st
Ġprov incial
ĠTr ade
ĠT ournament
F older
186 3
y y
Ġinst ruction
cond ition
ĠFI FA
ĠBern ard
ĠB omb
× ķ
ĠG ulf
Ġvar iant
Ġform ally
ĠUp per
mar ine
ĠCo oper
Ġwhe el
t c
per iment
Ġinst ances
ï¼ Į
Ġfinal s
Ġmem orial
ĠĠĠĠĠĠĠĠĠĠĠĠĠĠĠĠ ĠĠĠĠĠĠĠĠĠĠĠĠĠĠ
ĠMov ement
Ġcour ts
ĠX ML
edd ing
ĠLeb an
cept or
Sup er
Ġsouth west
run time
F low
N C
ĠM ol
v et
Ġre duction
H tml
ĠSat urday
ĠL ane
Ġexpl ained
A udio
ĠK l
ĠH it
lo or
Ġg arden
object s
188 1
) ",
arch ive
ĠWeb site
orks hire
dest roy
Û Į
Ġpay load
Ġret ail
Ġt ack
pl an
Ġad mitted
u ction
ĠS ax
Ġco ins
Ġmer ge
Ġindic ated
ĠCont in
Valid ation
b g
Ġc ategories
ĠT H
hav ior
Le ague
Ġnot ably
ĠBrook lyn
Ġcirc uit
Ġappear ing
se a
Ġtr igger
comm ons
Ġent ertain
() ),
ĠSever al
Valid ator
ribut ions
ic ol
L ower
Ġ ðŁ
Al umni
R R
Ġresident ial
Ġcom ed
ĠLank a
M ac
Ġassist ance
Ġ" ",
Cons umer
Y Y
Ġcomm une
Ġaccompan ied
Ġre loc
or ce
Se ptember
t ers
ep ar
al is
S igma
ĠPref ecture
ic ode
ĠT ol
pro fit
R aw
ĠG ray
ĠD allas
ĠDef ence
ĠL java
Ġmet ers
188 2
Ġcarry ing
let ter
Ġvel ocity
ĠJ e
Ġan chor
st ances
B ad
dr iver
Serial izer
Ġdefe ating
log o
for ward
ev ens
K e
ĠO C
Ġpract ices
Ġexperi enced
B inding
ĠBe at
Ġtra ce
Ġrepl acing
w d
fol io
'] );
ĠCar ter
Ġman uscript
ĠChrist opher
Ġstre ets
w as
ia h
Ġa apt
m atrix
Ñ ĸ
Set ting
Ġprison ers
Dr iver
i ations
Ġin fl
Ġ" [
Ġexpl os
Ġle af
á º
Us age
ograph er
S V
Ġf est
S cal
Ġcred ited
O ctober
se par
aw ay
ĠRob inson
Ġte en
Ġuns uccess
Ġpro port
ty pen
c assandra
Ġcover ing
ĠN ever
Ġrough ly
ĠD B
F ocus
writ ten
Ġb rig
\ [
Ġh op
ex pect
Sp anish
Ġn ar
Ġm anner
or ia
S chool
Ġform ula
p b
Ġvalid ate
ĠB asketball
Ġequ ations
Ġclass ified
Ġth in
sp acing
ĠR ico
Seg ment
ĠSc ient
in ist
Ġinter action
iter ranean
CH AR
Ge orge
al ymp
ter y
qu is
e enth
ist ration
St ation
n p
Ġr ivers
ĠN ord
186 2
Con structor
ĠD ouble
Ġqual ifying
j ax
Ġp apers
j amin
SS L
Object s
Ġ' ';
ĠAthlet ics
al g
ĠCar ib
ia st
ĠSerb ia
f ish
Ġpl ate
Ġw ounded
lement ation
ĠT erm
lection s
G ER
N ET
Ġsub t
Ġcred it
ĠW oman
T F
p aper
Ġactiv ist
H ow
ie ge
cast le
ĠChe m
Ġsuccess or
Ġim g
Ġcross ing
R ob
ex it
S hip
Ð ¿
Ġs elling
W ait
Ġs ending
NO DE
ĠElement ary
writ ers
Ġtre ated
ra ctions
ĠSar ah
ĠW ing
m und
Ġher o
Ġstar red
Ġsupp lied
ĠBir mingham
ĠFrank lin
ĠCon vention
M IN
Ġm eta
Q U
Ġtown ship
ow ski
L ook
Ġkn ock
g ence
Argument Exception
el lect
Ġcomp ute
g ems
m aker
Pro to
Ġbusiness man
Comp iler
mer ge
ĠSup port
Ġere ct
ĠT ree
ĠCh ange
Ġb atch
Ġst ood
oth ing
se q
Ġcap able
j u
Ġinf rastructure
Ġflow s
App end
ag ent
Ġcr ash
Ġarr ival
d ig
ys ical
dep recated
1 14
ĠD aily
Ġl it
ĠCo q
66 66
Process or
sub mit
b rand
Ġre in
f i
Ġfil ed
N amed
Ġl ob
ĠK o
Ġc ited
Ġcommand s
BP ACK
ĠO S
Ġreg ime
ĠNaz i
v endor
Ġhabit at
B inary
typen ame
b ach
ac o
Ġadapt ation
ev a
f iction
Ġplan et
Ġsever e
oen ix
Ġopin ion
ĠOrgan ization
T ile
Ġel if
olt ip
ik o
Ġspect rum
Al bums
Jan uary
Ġche cks
Ġgu ar
Ġign ore
J ew
Ġj uris
c ia
Rad io
Ser ies
ä ½
N ormal
Ġb iggest
f c
Ġb ot
load ed
Ġd oll
Ġm ine
Ġb ranches
Ġpaint ed
dis able
ass ign
text it
Ġgr ass
Ġs leep
Ġjournal ists
ĠPl ant
Ġcom ments
anc ouver
ip her
Ġorgan isation
j et
Ġun us
Person nel
Ġmechan ism
ĠD ub
ĠT ob
ĠStud io
ĠC lient
CO MP
}} {
M aster
ĠN ext
Ġcritic ism
ĠWrest ling
T own
Ġd og
Ġra cial
on ian
uk a
for Each
Ġinher ited
ĠP i
Ins ert
ro duction
ant ine
ic he
; |
h aus
Ġg lob
ĠGra ham
Ġm al
ĠEconom ic
Con sole
Ġcol ors
De cember
DO M
Ġf alls
ĠSoc cer
ploy ment
Ġinstit ution
Ġthous ands
ult ane
Ġg ang
Ġlim its
Ġc old
ĠOr leans
ĠM ond
Ġvol umes
m ate
Ġhead ed
We ight
ĠCent ury
ĠStan ley
Ġinters ection
Ġpropos al
ĠJim my
Ġra p
Ġin duct
Not Found
Ġpart ition
IN S
ĠTro phy
oper ator
trans action
k ov
ak ia
Ġd ynamic
ĉĉĉĉ ĉĉĉĉĉĉ
ĠBelg ian
Ch art
riev ed
Ġb ra
ĠR ap
id en
ĠE sp
Ġper haps
ORD ER
ag ar
m essages
Ġrem ember
ic ht
Ġm ouse
D R
Ġd uties
_ );
aud i
b uilt
Ġben ch
Ġnewsp apers
tr l
Ġ" '
force ment
ĠMur ray
Ġpre t
em or
Ġl icensed
n an
pos ing
ĠM aj
Ġra in
ĠK r
Ġd ating
ĠY orkshire
ĠS O
k ar
et on
Ġdec om
Ġwork er
s ome
Ġco eff
B al
Ġclass ic
187 8
ri el
Am ount
Ġc ous
f g
Ġcomp act
Ġrele g
Ġp ian
188 3
Ġex pert
n ative
ĠM ak
ph rase
Ġph oto
Ġ_ .
ĠB illy
id ency
ĠCat hedral
Ġt all
ĠP ut
ĠA qu
ro ck
Ġwrit es
Ġaccom pl
sc ore
U C
os ure
Ã Ł
k top
in ations
Europe an
ĠCap ital
ĠMad rid
ĠS port
Ġs now
Ġc ards
Ġs ync
Ġcomp are
omet ric
Nav igation
as p
ĠAz erbai
Ġguitar ist
Ġoff ensive
ud son
b one
act ic
Ġansw er
h our
ĠE mer
m el
es ian
ĠP os
ĠM ock
ĠApp le
L ibrary
Des ign
pre p
re port
ation Token
alt Color
Test Case
styles heets
hatt an
E lect
ress es
it ime
usal em
P HP
F N
f etch
Ġmed ieval
ĠCarl os
E ST
C LASS
Ġher itage
ag raph
p in
t race
ĠN eg
ĠU pon
ĠSe ason
Ġc y
j ab
Ġconsist ent
ĠCons ervative
: `
Row s
Ġtop ic
Id entity
D iv
mem ory
Ġpattern s
re z
in ction
ap l
Ġsm ooth
l ater
n ob
Mo ths
l icense
Ġcoast al
Ġex erc
ĠZ one
Cond ition
ul u
Ġwhere as
Ġhe nce
Ġb inding
Ġmass ive
Q ual
Ġconf irm
External Task
HER E
op al
AN T
187 6
Ġload ing
> "
OR Y
Ġoccup ation
Ġv irt
A ir
rem arks
Ġ_ ,
v ol
Depend ency
te ction
Ġprov ision
Point s
Ġb its
# {
ĠÐ ²
ĠL ud
ExternalTask Pojo
Ġ' .
ĠP ictures
ĠV erm
ebr aska
ĠĠĠĠĠĠĠĠ ĠĠĊ
ĠN BA
ĠJud ge
Ġlog ging
ĠB ranch
duc ational
In formation
wid et
ĠS ets
method s
Ġa cknow
g z
ĠG rad
at ial
Ġphys ics
Ġrestaur ant
ĠV el
Pre v
Ġt ub
Ġmeas ured
ĠMot or
Ġplatform s
Ġassoci ate
Ġf ictional
col lect
arg uments
Ġsee k
ĠSt age
Ġweek ly
Ġm apping
Ġbring ing
Ġmag azines
Ġb anks
Ġend emic
ĠC ricket
Ð ·
Ġpopular ity
high light
p ow
Ġland ing
Medal ists
Ġthe ater
ught ers
C lear
Ġdiscover y
ĠL ag
W ord
Ġest im
Ġsup posed
Ġ} }
ang ing
oust ic
ark ed
ĠConf eder
pl ot
\ ]
N V
Log in
p ages
Ġb rick
Ġinter val
Run ner
Ġloss es
ab a
ĠSer ver
r g
Ġvess els
ĠN ad
EN V
Don ald
g lyphicon
le tt
Ġag ents
ĠF rid
av ailable
Ġal ias
ro v
ĠF ood
og a
Com plete
ĠPrad esh
exp and
Ġbo ost
lem ma
P an
Ġex ports
Ġpo em
P red
ar se
Nov ember
or f
ĠMil an
ĠL oad
Ed ge
Tax a
Ġt ied
ag g
ĠR ain
om ing
b ian
ĠNorm an
R ound
Ġdiscuss ion
Ġex cell
or o
B ottom
c ourse
Con stant
Ġan alog
sc r
J ust
Ġm ob
ĠNov a
ĠC our
ĠLim ited
Ġar c
Ġelect oral
ĠPort land
186 7
direct ory
ĠTig ers
10 2
ĠP rom
Ġmod al
b log
ĠFinn ish
ĠGlas gow
ĠR ange
on ical
Ġpercent age
D IS
D ATE
Ġarbit rary
us r
\ %
c are
Ġro se
Ġdraw ing
ĠNig eria
ĠAdd itionally
ele m
ĠT rack
Ġcon crete
W in
olv es
u art
LO C
rypt o
B ul
Ġindic ating
B egin
×ķ ×
ĠPro gress
ĠL ock
! !
em ale
d iff
ĠIl legal
ĠE ston
ĠH orn
Ġcon j
re pository
ĠAp plication
st e
ĠMe an
ĠBl ues
;| &
um ar
/ {
Ġgovern ing
Ġm outh
re ader
: @"
Ġd ual
> )
gener ate
ĠCl oud
Ġm ail
Null able
ĠB ud
ĠAb stract
iv an
Ġtyp ed
ĠS mall
ĠA ld
ĠR ub
op les
Ġsk in
c n
187 5
he el
ĠC er
ĠF er
Ġhy per
pro gram
Ġtarget s
h us
Ġteach ers
Ġw ire
Te am
ĠChall enge
w i
Ġmed als
Ġeven ing
Ġe yes
187 9
" },
E P
Ġwith draw
Dist ribution
Ġb es
ĠYou Tube
IL D
1 15
Ġag encies
ĠG ary
FI ELD
mar ks
Ġmunicipal ities
Ġproced ure
/ ">
Annot ation
St rategy
rt l
^ ^
ul um
ixt ures
ĠDer by
ĠSerb ian
ĠBroad way
ĠPer u
Map per
Ġinher it
Se ason
Ġcancell ed
Ġpath s
m ac
ext end
Ġhead s
Ġvert ex
Ġhapp ened
ext ra
con vert
rist ol
Âł Âł
Ġmon ument
Ġselect or
ĠE dd
Bas ic
widet ilde
ĠWrit e
Ġden ied
C enter
ĠJ ason
Ġloc ally
enc er
greg ation
dist ance
ĠR and
ur ers
Ġnom ination
ĠSal v
face book
ĠC ultural
Ġident ifier
Ġfilm ed
ĠD est
WE BPACK
Ġext ent
Ġrom antic
F rames
M essages
ĠGu y
ĠBor ough
n os
ĠM ong
Ðµ ÑĢ
Oper ator
Hon ours
ĠT ower
Group s
Ġpenal ty
l at
Ġm ental
ĠTh ough
sc ala
ĠW AR
Ġve get
Ø§ Ù
view port
Ġop acity
ĠThe ater
ov en
A ST
C ursor
ir y
Ġinst ruct
STR ING
appro x
ĠSt ruct
IMP ORTED
ĠS R
Ġcharacter istics
qu ote
u ke
poss ible
Ġda ughters
st ad
Ġre verse
bo ost
Ġre con
Ġde pos
ĠB aker
D rop
Ġent ering
ĠP R
Ġpo ets
Ġphen omen
ĠPr im
Ġrec ru
ĠM ack
Ġprom ise
urric ane
Ġsc atter
ĠD J
ĠJ azz
Ġmanufact uring
V E
fe ed
h um
Ġcirc le
TR Y
ĠD NA
ĠA y
Ġ" %
lot te
187 1
ĠT un
Ġround s
pl oad
Ġelim inated
ĠB eck
enc ode
Ġind igenous
ĠL iga
L ive
ĠP ont
10 5
n eg
ĠR i
ak u
ĠPol y
set up
R ate
Flor a
Ġat mosph
"> (
Ġn a
T ri
ab c
t own
udd en
Ġ æ
Ġresc ue
ĠN ation
Ġchampionship s
claim ed
Comm un
Th row
ĠM ust
Ġt y
Ġdeb ate
t ouch
Ġas sets
ur u
ace ae
b ow
iv ia
ĠI v
Ġtrans actions
ĠGu inea
Ġre nt
j Query
var iable
link ed
Ġal coh
z eta
ham mad
us c
m ag
ĠSt ars
Ġmod er
Disc ography
Ġart istic
Part y
ĠCl ar
clud es
SCR IPT
Ġstr uck
." ""
" /
ne ur
ĠS ymph
ĠAfghan istan
Ġass ass
Ġ' ',
Ġincre ases
F n
ĠBar ry
ĠEv ans
Ġstay ed
ick ets
Ġs ocket
ĠC ass
ff f
Ġn ations
pear ance
ĠH erm
ĠF uture
ST ATE
Ġme ets
ĠPro file
ĠMit chell
Ġoffer ing
s peed
ĠG un
Ġno ise
Ġthrow n
to Be
J oin
Ġpeak ed
ĠH ub
por ter
ĠInd ians
Ġeffect ively
t ies
Ġcons ervation
ryst al
p ine
Part icip
C md
h ot
Ex ecution
M ont
A bs
al ph
ah o
iv odes
Co in
ĠPier re
] ))
Ġ' %
Ġsim pl
lib s
Ġ Ñģ
en umer
re po
iz ard
Ġmov ements
Ġgo ogle
Ġhand ling
Sc hedule
ĠB enn
ĠL ore
evel oper
Ġc ro
186 8
ĠW IDTH
ĠPr imary
ĠEd ition
rop y
Ġaff airs
Ġs ql
ĠV irtual
ĠJer usalem
Stand ard
od o
Ġcon vers
Ï Ģ
Ġsound track
Ġbenef it
nc ient
Ġor chestra
Ġchild hood
è ¯
Ġsent ence
Ġp overty
it ations
Ġso il
ĠInst ead
UM M
Ġgu ide
B M
The n
Ġhistor ians
ĠRich mond
C ulture
Ġsomew hat
rypt ed
ĠH old
Ġform ing
Ġc raft
Ġrecomm end
m usic
ĠRang ers
aw esome
187 2
b d
187 7
} +
Ġcol leges
ĠE ss
ĠM oz
ĠCarib bean
p icture
ĠU E
Ġeff icient
m un
ĠHind u
Wh ite
Ġimmedi ate
Ġw at
Ġ" .
ĠJohn ny
ivodes hip
S u
Ġs ys
Ġest imate
Ġt ags
Ġpubl isher
Ġ< -
Ġed it
ij ing
Ġo verse
Ġcoll apse
ĉ ĠĠ
olv ing
Ġperm issions
C ity
Ġappoint ment
Ġflow ers
Ġw arm
Ġcount ies
And roid
Ġsusp ended
Ġb right
ĠR ight
AN CE
t ri
Ġthe orem
$ )
ĠI F
= [
ĠK ath
Ġf mt
Ġpr on
Sh ould
Ġtrans mission
Ġpart icle
ĠPr ivate
ĠSim ple
XX XX
j b
ĠR acing
Ġb on
ĠM S
g eneral
ĠT rad
ĠM ut
ĠSystem s
Ġig et
G ui
ah a
Ġacqu is
ĠFig ure
Ġ$ _
187 4
Ġterrit ories
ra ham
ill es
Ġterm inal
at en
Ġ{ },
3 60
ĠDel hi
T ur
Ġcomp iled
Ġobserv ations
cel and
ro ph
ĠHun ter
G reen
ĠWar ren
def inition
ĠNev ada
Ã¡ s
i at
m ill
Ġ" >
ue z
B en
Ġj s
ĠRoman ian
s ig
ĠÃ ł
ĠAlber ta
ge on
ix els
Rem ote
ĠB ible
B ro
et ition
Ġpartic les
Render er
ĠFle et
Ġstudy ing
} =\
ĠA T
Ġf ruit
Spec ial
sh aped
ĠI ce
Enc oding
Ġcon ven
h alf
is en
Ġrot ation
J ack
im ir
Ä Ł
Ġb id
Ġcomp atible
h al
Ġexped ition
ĠR equ
pre vious
Ġw ants
Ġj ourney
Ġb old
Ġdet ect
Ġprint ed
Ġexper iences
Ġremain der
Ġcelebr ated
St atic
aj a
ĠI van
Ġappe al
Ġg ather
ĠFl ore
Ġparliament ary
P Y
place ment
G allery
Ġrelationship s
Ġemer gency
ar on
Ġportray ed
oth y
ĠG reater
ĠW ind
Ġsu icide
T ransl
assert True
Mich ael
Ġforest s
Academ ic
ĠEgypt ian
b lob
ĠV as
c li
Ġking dom
ĠElect ric
can vas
Ġart illery
ĠMan hattan
S al
f olk
Ġmod ify
t f
a ac
head ing
ĠSer ge
ĠColomb ia
187 3
k an
Ġthem es
Ġdeleg ate
ĠI an
ĠF ine
M icrosoft
iz ers
Ġsh ares
Ġdim ensions
ĠB achelor
ĉ čĊ
grad uate
grad ient
f mt
Ġexplan ation
An other
Ġhelp ing
ĠS aints
ĠB eg
Un ivers
Ġrele ases
ĠPolit ical
ĠH um
18 66
ĠWay ne
ent e
ensure math
Ġ> >>
Ġh ip
Ġincreasing ly
amp a
ĠPh ot
Ġmark ets
ĠM eg
ĠVo ivodeship
Ġcon vention
ĠP il
1 12
t p
å Ń
ĠB urg
ĠV ancouver
In f
T ex
tr im
ĠPro test
ĠY e
Ġd ream
ĠZ e
ĠM ess
Ġmin isters
ĠMatt hew
inc inn
Ġs ax
ĠSt orm
int eg
Ġdef ence
oph one
Ġsuit able
ĠU g
min a
Ġunc ertain
Ġd ated
Ġapplic able
ĠSt ream
Ch ain
ĠPark er
Tim er
Def unct
Ġhyp ot
Ġh ope
ĠTra il
Ġequip ped
sc ious
itar ian
Ġreli ef
n of
ann on
Ġconstra ints
Ġf ear
Ġmount ains
N UM
ĠAl aska
ĠS ongs
ĠE ug
str ument
Ġille gal
ĠL P
ast s
C ONT
p kg
ĠN at
Ġp or
Pr imary
Recip ients
AT TR
ĠM embers
sequ ence
ĠRef erence
Ġre pository
Liter al
Ġexist ed
Ġappro val
ĠL GBT
iv o
Ġh uge
oped ia
st age
> %
Ġl ift
ĠAss istant
V P
Ġlocomot ives
1 17
Ġcre ates
Ġpres erved
ĠAlex and
ub le
ĠAd miral
Ġcent ers
ĠN ebraska
sw ing
ĠF ab
l arg
Ġinflu ential
ĠJ ama
ĠAnd y
ile vel
Ġran king
ĠWAR RAN
et ry
ell ar
Ġparticip ants
le e
A UT
G C
ĠU lt
Ġexper iments
U ST
Ġdisestabl ished
Ġs we
hemat ical
l ive
ellect ual
L ou
ĠAl bum
Ġhor ror
ĠVictor ian
B atch
Ġacc eler
C ur
ier ra
ĠLu ther
Ġg ap
.* ;
L and
ĠF itz
Ġm oth
ĠB ron
ach t
m ms
ĠS peed
Ġh a
Array List
Ġentertain ment
Us es
Ġdecl ined
Ġabs ence
ĠFace book
Ġcontrovers y
get Id
comp are
Ġam ateur
OP T
Ġwood en
Ġhapp en
og ue
incinn ati
Ġt d
tim estamp
) }\
ĠW IT
Ex ample
Ġprior ity
ĠS S
re pre
ĠP ra
z ym
Ġcoordin ates
com pute
ran k
ĠPubl ished
au i
A SSERT
s un
ĠPar ish
: '
cd ots
Ġs izes
ĠS even
Ġsim ultane
ĠS id
Ġt ruth
Ġland scape
1 13
Ġel der
Ġsquad ron
t ip
Ġex posed
A X
Ġv oting
I AL
L ike
ourn als
G P
Ġcompet ing
Ġmain tenance
part y
ul ner
Crit ical
Ġspe ak
Ġmix ing
Ġm anga
( ()
Ġdes ired
æ ķ
Ph one
Ġrun time
S ite
Lo op
Ġbe ar
Ġperiod s
ĠBeng al
AN G
c rit
ex ecut
ĠB und
P od
} '
Ġmov es
Ġder iv
ac re
Ġatt ributed
d ependent
ĠF alls
Ġpop ulations
Ġlow est
Pro fessional
V AR
Ġf ishing
UR CE
back s
F uture
alle st
Ġmiss ions
Ġf ake
Sh ared
Perm ission
) [
u uid
ĠRem ove
ĠChar lie
Ġinteg rated
ĠW ang
ĠT ab
ĠMark et
Ð ¹
Ġa ria
ph oton
Ġpost ed
ent i
Ġw ine
Ġunder lying
ĠIn s
( ['
Ġf urn
and al
hol m
ĠAl ice
g un
ĠM ars
app y
ĠS H
ĠProfess ional
dis patch
Ġgrad uating
ĠL iving
Tim estamp
B usiness
Ġdel iver
Ġg ran
Dep recated
Err ors
HE AD
p read
B r
ol ph
form ed
part s
Ġsat ellite
st own
Ġthreat ened
Ġconv icted
Ġlong est
S am
as hes
f am
Ġd owntown
18 40
Ġpay ment
Ġide al
ĠHawai i
c ity
S plit
Ġprofess ion
en o
Ext ensions
Ġf ails
F ebruary
Ġparticip ation
ĠS uch
ĠAcc ount
/* !
Ġvess el
Ġm ac
li x
Ġsent enced
IC ATION
M usical
} %
Ġpo ems
ent ine
ĠEd itor
arian t
ĠV ic
ĠI ss
ĠMic hel
Ġsubs idi
Ġvers us
\ {
u its
ĠB ert
st ers
Ġinvolv ement
9 00
Ġex cess
Ġc up
Ġsurround ed
R oyal
Cont ents
ĠColl ins
) =\
Ġab b
Ĩ Ĵ
Ġmult ip
ĠK os
n orm
ĠBen jamin
ĠSte el
Ġ ^
ĠMed iterranean
Ġv ision
sub ject
ĠCh ron
ĠM O
ĠConfig uration
Ġinj uries
G N
10 4
Res olver
the less
Ġnorm ally
Ġposs ibility
. :
ĠOn line
} :
ĠTerrit ory
ĠPro p
Ġman age
Ġphot ography
ent o
em it
Ġsn ap
ĠO N
Th omas
Ġt ensor
ok er
Ġb log
H en
Ġdistingu ished
ĠA C
Ġproduc es
if ts
Name Link
ĠĠĠĠĠĠĠĠĠĠĠĠĠĠĠĠĠĠĠĠĠĠĠĠĠĠĠĠĠĠĠĠ ĠĠĠĠĠĠĠĠĠĠĠĠĠĠĠ
, âĢĿ
G overnment
$ _
ĠC le
Ġdet ection
ĠP romise
ounc ill
ĠĠĠĠĠĠĠĠĠĠĠĠĠĠĠĠĠĠĠĠĠĠĠĠĠĠĠĠĠĠĠĠ Ġ
ĠJon athan
U AL
iven ess
ast rop
min ute
ox y
ĠGh ana
ail ability
Afric an
Ġn ominations
LO W
ag i
Ġw ides
F ac
Ġbatt les
ĠM all
Ġign ored
en ia
ot ton
ĠS outheast
ĠSh a
Ġj unction
Add r
Ġpref erred
Ġrecip ient
uck land
V ol
Ġh ide
Ġad m
Ġclos ing
ĠJ enn
er ic
ing ly
ĠSt ra
A thlet
C ounter
lement s
ĠR ot
h n
Ġpat ient
ĠBar bara
Ġcopy right
Ġsol ar
Ġ à¤
qu er
HO ME
P M
te enth
ĠLe ad
Ġdec line
ce iver
r pc
w ill
ĠCirc uit
Ġdoub les
hedul er
p res
Ġcomp iler
Ġsold ier
ke ley
url ing
Ġgen re
tab ular
om on
186 9
FF ER
ter ior
< <
ĠD atabase
The y
ĠFran ces
f b
Ġmer chant
( .
Ġconsider able
Ġl ieutenant
ĠD og
ĠF ind
ĠL is
u et
Ġ ----------------------------------------------------------------
Ġre putation
P i
ĠM aced
AT CH
R UN
ĠU SS
Ġrec re
Ġsubstant ial
Ġw el
Ġswim ming
UMM ARY
Ġed ges
ster dam
z ed
Ġbu y
ãĢ Ĥ
ela ide
Ġdisc ipl
Ġvis itors
A xis
Ġ( ).
ĠRes p
ĠClass ic
11 1
ĠEx pl
in os
Ġconf ront
Ġcons umer
cel ona
Ġoccas ionally
ĠR av
ĠK E
Ġap ilevel
ĠJ osh
um i
ab e
Miss ing
ist ani
d ark
Ġs in
T ouch
Ð° ÑĤ
ĠO range
an ne
Ġ å
Ġtransport ation
Ġper cussion
arri er
ĠQu ery
r us
th rough
um ps
cont ents
a que
s che
Ġcr imes
Ġg oto
Ġprinc iple
ĠCon n
Ġstri p
Ġcle arly
Ġtest ed
ĠUE FA
se lection
ĠB ristol
Ġimp lies
comm it
am ond
Ġpro to
sd k
qu al
ĠCub a
Ġ{ %
Sw itch
G R
Sp an
Ä ĩ
Ġcur ve
Ġp ray
Ġd ub
S il
ĠCan al
Ġdi agn
ĠPri or
Ext ra
ic ular
ĠF light
Ġcous in
ĠMan ager
Ġo dd
am pton
Ġcl ip
Ob server
DE F
Ob serv
im ize
Ġcomm emor
Ġann ually
m k
ex amples
Ġbelong ing
Ġspec im
Ġthe at
× Ļ
Ġbel ongs
14 0
Ġl ap
D an
d al
ĠEver y
m apping
under line
Ġgener ic
Ġe ighth
w ik
Ġactiv ists
Ġcontinu ing
ĠCont ext
ĠIran ian
Ġre un
il ia
Ġtrans m
oun sel
STAT US
Scott ish
Ġrow span
Ġdiam eter
Ġp sy
Ġpart ially
ig s
Ġlog ic
ĠCommun ications
ĠCommission er
Do ctrine
W ORD
ĠST ART
Ġcontrol s
Ġ-- ></
ĠC OL
h istory
ĠV lad
ĠHar rison
On ce
ĠSh ang
Ġarchitect ural
C amp
Ġo x
i ology
Ġmod ules
ĠS eg
Ġdescri bing
W IN
c z
ar an
ĠU til
ĠG iants
Ġinteg ration
ĠMu hammad
Ġident ical
Ġg allery
i u
ĠSp irit
Ġplace holder
Ġresearch ers
Draw ing
Ġleg acy
A lex
m ates
ON G
Jew ish
Ġdem olished
Ġbreak ing
ĠM atch
l int
M art
18 00
ĠSt ore
ad oc
ĠR ing
Ġconcent ration
ig ible
o j
Ġinstall ation
et e
Ġinterest ing
Ġt ur
R out
Ġperson ality
Z one
Ġtre nd
Ġt ables
18 48
elli j
ĠS D
Sh ader
m ay
Ġne uro
am o
Char les
Arg uments
Ġele ven
\ '
pr iv
T ags
Ġover l
Ġoper ational
Ġsurv iving
Ġcalc ulated
hem atic
ĠD elete
Ġcol le
ul se
ĠB ris
rem ote
Ġt ie
T y
AT ED
Ġann ounce
ĠAnd re
ĠB aptist
**** **
b ers
Ġconnect ing
ĠUs ing
H C
Ġlast ed
ĠF reedom
ĠS ultan
ĠHe b
c ord
Ġsp oken
Ġdat aset
ĠClass es
UN D
r ules
B Y
ĠS ide
Ã ī
ĠY am
ĠAnt ar
ĠT u
ĠR ic
METH OD
Ġclass Name
ĠPr int
ĠNich olas
op am
ĠB ey
op l
ĠPhil osoph
h ow
R a
ĠDe ep
Ġrece iver
Ġvis iting
Ġtim estamp
d k
Ġrapid ly
RE D
ĠC BS
id al
ĠN BC
Ġacc um
Ġrepresent atives
Ġfriend ly
ĠAut o
ĠBuff alo
Dep th
Mon th
ĠL ate
ĠF ather
ich i
T om
at che
os hi
ĠTurn er
Ġnuc le
int ellij
Ġwait ing
sc al
Ġtext s
M ale
IN ST
ur ring
Ġcharacter ized
ĠG ot
const ant
F oot
top ic
Ġproper ly
ir k
b ane
{ $
Ġbeaut iful
Ġwrest ling
Ġevery one
= %
sc ar
apt ers
resp ons
Ġhel ps
p rom
Ï Ĥ
ĠV a
Ġelev ation
s u
Ġf oss
d irection
Column s
ĠV egas
w t
ag ma
185 7
Ġn am
ach i
Re act
h om
w inning
A E
Ġab use
pl ane
Ã ½
ordin ate
ĠThe orem
Ġm it
ĠB ass
ĠUrb an
Ġth reshold
ov ing
end a
Sign ature
B its
ĠOC aml
Ġdon ated
yn om
Or igin
) ^{
Bl ue
ĠL yn
ook ie
Ġinitial ize
Ġconcern ed
185 9
Ġdeliv ery
ĠF r
Ġinf antry
CON FIG
Ġrecover ed
pos ure
ĠMun ich
Film ography
Ġst ress
) +
Ġs ampl
Fail ure
ĠD raft
Î ·
ĠEx change
Ġview ed
> ;
iz z
ĠIn v
Ġbir d
column s
ir th
ĠP C
Ġpl ain
w p
Ġge ometry
H older
ri er
ĠK un
> ()
T AG
ars ing
ĠD h
P ubl
Ġcl ar
Ġexpl o
^ +
ĠD im
Ġmeet ings
ĠL loyd
Ġg rown
sl ide
S ide
jack son
get String
ĠOut put
il ty
ele ments
Ġagric ulture
LE D
ĠTreat y
P res
Ġro ots
> '
u able
Football ers
en os
F act
bor ne
Ġbenef its
is ch
10 3
AC H
ĠS eb
B ounds
Ġfunction al
ĠPhilipp ine
w eek
>< !--
get Instance
B ool
exp ression
Ġc b
Ġcab inet
ĠH unt
K it
ĠS UMMARY
ĠP ython
g if
ĠTr inity
ĠArt illery
1 16
ĠV I
is i
r ub
w allet
Ġrul ing
Ġwides pread
MA P
d iction
ĠS P
ĠC F
Or d
Ġvalid ation
us k
hel m
Ġag ree
Ġne ither
ĠMin or
M ass
ok u
t re
B etween
Ġ uri
ĠL ear
Ġact ed
T asks
ĠN an
create Element
ĠCl are
M aterial
Ġpred ecess
al ias
Ġd rew
Ġcrow d
Ġcre ative
ĠM obile
Ġstat ements
Ġsurg ery
ĠBe ijing
Ġus ual
S epar
Ġtrad ing
ow s
ĠM other
ĠArt ist
Ġ Ù
Ġprep are
oret ical
ĠArab ic
Ġann ounc
Con vert
osp itals
ĠVAL IGN
Ġcou ples
cy cle
Ġend point
St ud
Ġkn ew
ber ry
ific ial
f ake
el astic
im o
ĠR aw
å Ĭ
et he
em a
Ex port
T our
g ood
Ġsil ent
v als
Ġbe ach
Ġyoung est
Ġover flow
ew ay
z eg
ĠP A
ol ly
cal c
Ġg one
Ġfac ilit
G old
or ne
Ġe ase
Ġbound aries
re ck
ĠBer g
Ġne arest
Î »
f av
tw itter
RA Y
ĠS elect
ell ion
ĠSing les
ĠL ad
Ġpre gn
ĠFac ulty
ĠSymph ony
String Builder
Ġb ond
Ab out
ĠAtt orney
Ġcontrovers ial
Ġto w
function s
Ġm orph
ĠSocial ist
All oc
Ġrot ate
Sw ed
Ġs essions
plic ated
Ġsign s
V ICE
Ġbeh alf
Ġhon our
lin ks
ĠEn s
Ġtrans formation
Ġgreat ly
Ġlaw yers
ĠB ath
c ursor
ĠI gn
enn ial
Ġch amber
Ġemploy ment
un lock
ĠChar lotte
Ġcal endar
Ġthir ty
cf g
H ung
S ame
yn opsis
Ġmart ial
Ġf etch
Ġclos ure
ĠM ig
Control s
Ġr ub
Ġmar ry
l ican
valid ation
Ġst roke
Ġd ominated
ĠW arner
Ġh olid
stats models
script ions
LE TE
map s
Cont ains
ĠGon z
L ib
Ġse es
center ing
del ay
Ġpublic ly
build ing
ĠB ot
Rep ublic
. ~
Ġdel ta
ro se
ers et
w arn
ĠLu is
Ġis n
Ġsh ock
ĠÐ ½
LE MENT
ĠW a
Ġs alt
} |
Ġkeep ing
Ã± a
Ø ¯
ĠJ son
}^ \
ĠM ind
10 7
Ġtra il
Ch arts
ĠJ erry
Ġturn ing
ĠVin cent
ĠE U
Ġdisc rim
ĠRober ts
Ġdis able
0000 00
ĠB reak
Ġcon gress
ath on
at io
Ġm ir
Ġpol ar
Cal c
Ġass ignment
P aint
c op
ĠCol umn
spec ific
Ġven ue
ĠU P
Ġt unnel
Us ing
S W
Ġcl ients
Ġdet ected
Ġrestrict ed
gorith ms
ben ch
Ġg olf
ĠI celand
ĠD raw
ĠJ a
B ooks
n n
ĠN ature
ct ors
Ġsh ore
Ġstat ue
Ġdepart ure
Ġearth qu
ĠPh oenix
Ġhe lic
Ġinstrument al
L uc
or rect
Ġang ular
ĠCom puter
reg ular
L at
Ġund ert
H ere
ĠCost a
ĠJ oy
ĠT i
K ing
, $
Ġany one
ĠT ib
Ġdi agram
ĉĉ ĠĠĠ
Ġtri be
our g
al am
Ġwor ship
Ġcons ervative
Ġf ighter
Ġatt orney
own ed
Ġexplicit ly
S ir
Ġv ic
f our
ĠJ ob
ĠI ter
l iter
ĠD O
ĠSt evens
ut o
Ver ify
è ¿
Ġhon ors
ver b
en ess
Ġran ges
(' <
google apis
spec ies
St age
ĠKE Y
an ion
ĠBroad casting
S at
ĠC ob
Ġsp oke
Ex pected
Ġmiss ed
Ġcustom ers
Ġprotest s
}_ \
on al
Ġwh ilst
ĠB uch
Ġam b
Ġfund amental
ĠL ions
ĠBy z
ĠK il
Ġcont ested
R andom
ann i
ed a
att ice
Ġmount ed
gener ator
Con verter
Ġaccess ible
b c
hens ive
B razil
z es
xy gen
Ġinput s
ĠAd elaide
ĠH ope
ĠA uckland
Ġpat rol
ĠO wn
B us
> \
n ed
d ays
Be en
Ġc inema
qu arter
Ġappro aches
D irection
Ġin ject
ĠG rey
repe at
Ġgovern ments
Ġl ose
log ging
Met rics
re p
ĠComm ons
s ites
Ġunder ground
ick ing
================================ ================================
Ġg ram
ĠM ix
Ġem igrants
ourn aments
}) \
Ġcom ics
ool s
Ġill ness
Ġdrug s
lic enses
21 3
Ġinn ings
Play ers
Ñ Ĩ
Ġhundred s
ĠE le
ĠY ang
Ch inese
Ġins urance
ine e
L Y
ĠOl iver
Ġmarket ing
Ġemer ged
W ar
cont act
rele ased
V irtual
Ġ urg
Loc ale
ĠS end
Ġs udden
Ġweap on
Ġg ay
Ġsignific ance
Ġsub mitted
ĠP el
sequ ently
ĠMov ie
Ġcompet itive
ĠHer bert
Ġrespect ive
ĠBar celona
ĠD ays
." )
Ġcan vas
Ġopportun ities
Ġattract ed
ĠD OM
am ount
ĠL an
ĠE ff
Ġinc idents
Res et
ĠPar alymp
am ar
ĠMunicip al
ĠUnivers al
on na
al ink
Ġlay ers
P oly
ĠC R
ĠLiter ature
c ross
ARN ING
S ort
CO UN
Ġseg ments
Ac cept
Ġan ime
Ġw et
Ġt urb
writ ing
Ġthous and
h is
b ug
ĠPer formance
E val
elf are
m iddle
ĠTh read
ĠM ey
Ġor bit
it ure
Ġtop ics
ub ern
Ġsettlement s
Ġf older
Sec ret
f older
18 30
Ġt ort
ĠAzerbai jan
ĠKir k
Ġt el
ĠCh i
com b
ĠMor oc
app oint
Ġliqu id
ĠN HL
Ġchar ter
ĠMuslim s
Ġf s
Ġinteg ral
Ġm arg
ĠEnc ycl
e or
AT OR
ĠSt ein
Man agement
tim eline
Diagnost ics
c ounter
lin ux
ĠAm sterdam
Wh ere
Ġ ib
ĠSpring s
Con stit
Aut hentication
Ġcrit eria
Ġt orn
Ġafter wards
Ġab road
ĠDi ocese
> ${
ĠF err
Ġc ertificate
- (
ĠH udson
ar as
i ya
ĠIn ternal
onom ous
Decl aration
Ġhe aring
y ou
Ġrest ore
Ġdr iven
Ġfl ed
Ġbound s
Th rough
ĠVenezuel a
Ġsupp lies
end ers
Ġdest ruction
Model s
Ġess ential
S aint
get Type
Ġdeploy ed
âĢ ¦
}\ ,
ĠH amb
f ragment
Ġtri bes
ĠB og
i est
Ġg rey
ĠR AF
Ġfest ivals
Ġprinc iples
ac a
s ym
ĠU RI
ĠS Ã£o
ĠAl ger
ĠWar ri
Ġsk y
b est
C AR
s afe
Ġst y
F E
Ġshe l
ic us
w x
Ġbroadcast ing
ĠCh and
Ġr ig
Ġd ress
an chor
ĠArmen ian
G rad
ĠL ost
ĠSy ria
ph ant
ĠĠĠĠĠĠĠĠĠĠĠĠĠĠĠĠĠĠĠĠĠĠĠĠĠĠĠĠĠĠĠĠ ĠĠĠĠ
t racks
d ing
t l
Ġclos er
ĠEx ample
au er
uss ia
Ġch apel
ra ud
Ġadvert ising
185 4
en eg
Ġex clus
ĠSh ip
sect s
ĠArgent ine
Ġimp lied
ĠB rew
Struct ure
ĠFrid ay
ĠP le
C odec
ĠG round
Ġcon clusion
ic ity
Ġgrad ually
185 8
g om
r age
Ġext reme
l oss
T L
Ġv m
ush ing
Ġspirit ual
Ġarrang ement
UB LIC
ĠS or
ĠMont ana
Ġtemper atures
Ġreported ly
T ok
t ol
Ġb orders
Ġbo ats
ant i
Copy right
ĠIt em
ĠAct or
Col lect
M achine
P ower
Ġtravel ed
ĠAd vis
C r
Ġran ks
æ Ī
ĠT ang
ĠL ook
run ning
Ġ" ${
Ġsupport ers
bind ing
Ġinvolv es
q quad
Ġbehav iour
ĠK ap
ĠS ay
ĠN iger
(" \
ĠS r
A SE
l ab
T Y
Ġplay offs
Ġsee king
ĠOper ations
ur able
Ġfac ing
ancell or
ĠS ah
BU FFER
Ġacknow led
ab ul
ĠCroat ia
> ../
ĠDemocr ats
stand ard
Ġscient ist
Ġsp ending
end point
Ex ists
æ ĺ
ij i
Ġviol in
ĠT oy
Ġfrequ ent
ĠG oth
(" %
Ġout break
ĠM yst
Ġsl ave
Ġunus ual
Ġmov ies
Ġcl one
Ġsc ores
Ġass emb
ĠAp pe
Ġobserv ation
Ġpack ages
ĠS af
Ġc odes
os er
ĠAbb ey
at ra
ĠM ason
Ġacc ord
E conom
amazon aws
Ġassert True
ĠShe l
ĠChe l
ĠForm ula
Ġform ations
oper at
Ġkey boards
10 6
Ġlimit ations
Ġvir us
Ġon going
ĠM achine
ĠSh aw
ĠT on
ash a
ĠCont ent
Ġk ernel
ne e
Ġp ipeline
d rag
! </
Death s
( {\
ĠMag ic
us p
po inter
U pload
ĠCl ay
Ġc able
N R
Ġclaim ing
ĠGr ade
ĠC ov
if old
dec ode
C ALL
Ġ& #
Ã¼ n
Ġ( %
over e
c apt
ĠB Y
Ġcred its
Line ar
ro uter
max cdn
Ġencour aged
Ġun cle
ĠHol land
ĠSt re
ack s
Ġfl u
ĠP av
ix on
Ġt ip
3 50
_ )
Ġpro hib
ys ql
ĠS now
agon al
Ġsymbol s
Ġdis patch
PRO C
b n
Ġrest oration
ĠRepresent ative
Ġres emb
ĠCra ig
ĠA ber
ĠNep al
Ġt ribut
ĠC ad
Ġo cean
rav es
ili ar
ĠCr ime
Ġf raction
18 55
Ġup grad
Ġsl ot
second ary
hen g
ĠCre ates
Ġal pha
Ġten ure
leg iate
ĠFurther more
ĠM IT
orn ame
Ġreport ing
.... ....
it ches
ort ion
Ġspe aking
Ġpick ed
uplic ate
d n
Ġcorpor ate
Ġj ournals
ĠBer keley
Ġaim ed
Ð¾Ð »
Ġcomp re
app le
Ġcoach ing
FFFF FF
Ġoccas ions
Ġtr im
Ġenc oded
o ard
ĠF isher
ĠY u
Ġd ictionary
Ġdis contin
ĠGerm ans
Ġphys ician
Ġden ote
In ner
ĠAl t
D TD
T uple
Ġr ational
ĠSh adow
Ġcomment ed
Ġliter al
empl oy
CRE ATE
ĠH ob
ĠM asters
ĠCont emporary
185 6
Ġmat hematics
ĠC atherine
ĠM ans
En able
}^{ (
ĠPers ian
Ġ\ {
ĠPen insula
Ġn est
ĠF rame
igg s
ĠF u
ĠF oot
sh are
ĠBuddh ist
Ġcap s
d anger
ut ter
it is
Ġapparent ly
ĠP sych
W atch
LI ST
Ġh ole
clud ing
} ",
Constra int
Ġcas ual
Stat istics
ĠF OR
Ġb ridges
Ġw ings
Ġop ponents
or ous
Rich ard
ĠS z
Ġsuffer ing
ĠSer ial
Ġpred omin
Ġdu o
lement ed
( /
st ates
á ¹
class Name
Ġm atters
ĠT erry
ingu ished
ĠF if
ĠDiv is
Ġvot ers
Ġerect ed
Ġorgan isations
Ġreb uilt
former ly
ĠTechn ical
Ġl ooks
an alysis
L icense
Ġreloc ated
Ġpremi ere
F RA
Ġpers pective
Ġcrick eter
rid es
__ )
Ġb undle
Ġman ifest
ri en
unk nown
ĠBulg aria
t ail
ĠW es
Ġman ip
ĠTe ch
B road
f p
ĠJ S
UE ST
ĠÃ ģ
Ġfall ing
ĠR ank
Ġc ached
Ġcomp ens
Ġinterpret ation
Ġh orses
em ed
DE X
Ġch unk
ash board
at ibility
ĠL eft
ĠC incinnati
ĠCl inton
Ġaffili ated
Fe atures
ĠIndust ry
Load ing
Ġl oyal
ath ers
Ġcol ony
Ġnob le
P eter
Ġsc alar
ĠFinal ly
ĠS ad
ct ree
b ie
Option al
Ġmar ks
BO OL
res ize
Ġelect rical
l iga
W ill
Ġvar iation
Ġbeg un
Ġd ire
ai ro
V ec
ĠT as
ĠI r
atern al
Ġco inc
att ed
ĠM ann
S yntax
ĠL ion
ĠP in
ib ilities
et ta
Ġliber al
ĠThe od
iber n
f rag
G IN
th umb
Ġcustom er
Ġb at
ep age
ĠDrag on
Ġh orizontal
Ġret ain
Output Stream
ĠC old
. ),
L B
ĠH ad
Ġmin imal
ĠHe avy
st rip
Ġthe ories
ĠS audi
ol ition
ĠB right
çĶ ¨
J o
ul ates
Ġg ymn
ig ator
Ġp atch
55 5
et ary
ĠS ak
S ever
EN ABLE
ĠNor folk
Ġcl imb
R ivers
on ies
Ġcharacter istic
Dis patch
T or
ov an
ĠBuild er
âĢĿ .
operat orname
Det ector
cre ment
Table Row
P rom
Ġneut ral
ed u
ĠPun jab
Ġdes ert
et ies
el o
cu ador
Ġc ub
BU ILD
Ġed itions
Ġ& =
I ss
ĠChrist ians
Ã© r
av an
ur ations
ĠKen ya
au kee
Ġp ert
C ancel
Ġas k
Ġdomin ant
< >();
m embers
Ġsust ain
Ġp ending
er es
Ġb ases
\ /
ir s
ĠP ast
He alth
ext ensions
Ġinaug ural
U nd
en burg
ĠJ ess
Serv let
Ġp ip
ĠH ugh
Ġv ast
-------- --
Ġac oustic
ĠJeff erson
U ES
Ġe arn
ĠNew ton
Ġadv ice
ĠB lood
ĠB ird
und a
ov sky
Ġbe am
Ġrep air
LA Y
Ġl ibraries
ĠIn valid
File Name
ss l
ĠEd wards
ĠDel aware
Ġaggreg ate
W OR
ĠM end
D ER
Ġf aster
Ġadult s
M ad
ĠMar vel
ĠEth iop
Ġt act
Å Ļ
Ġ' "
Ġtyped ef
S ound
m aking
art a
Ġrecover y
d jango
viron ments
Ġtri als
M r
Ġl ingu
sy nt
ĠS ask
Ġh at
t ains
ĠS ox
Ġmer ger
Ġcivil ian
N a
Ġview ers
Ġcl im
it ual
Ġamong st
": "
ĠIndust rial
local host
annot ations
ĠAt hens
ĠFin ance
c aster
Ġdec isions
Ġmuseum s
185 2
ĠP ic
iv ic
ĠGl en
Ġisol ated
Comm unes
Ġsubstit ute
ex cept
TO M
Ġf ib
ĠF ont
med ium
ĠAct ive
not ify
sol r
th ree
__ ["
ĠCo al
Ġaltern ate
rel ative
Ġconcert s
Mill is
Ġmod es
Ġcheck ed
ĠCons erv
Ġen umer
Ġp arsed
ling ton
ah l
Ġm ines
G M
Ġfor wards
Ġpar a
ĠLog ger
Th ree
Ġperm itted
ch at
SO URCE
Ġalcoh ol
Error f
Ġsym pt
ID E
Ġdef ines
Ġas c
g ov
Ass embly
Ġf r
ĠAv iation
Ġw ish
get Class
Ġcommun ications
o ons
Ġ( -
Ġvol can
F ar
iffer ent
Ġdef ending
Mark er
ĉ ĠĠĠĠ
est yle
Ġg all
Ĥ ¬
ov ich
F ixed
dat etime
SP AN
Ġas ks
O k
ĠRog ers
Ġlegisl ative
Ġk it
Ġdecl aration
Ġ' #
eng ths
TI ES
if i
mult i
ĠÃ Ĺ
Ġus ername
Ġf antasy
ub a
met ic
Ġphotograph s
agnost ic
Ġcircum stances
ag re
ign ore
Ġexerc ise
g red
Ġpart ly
Ġcommand ed
pr ising
ĠW alt
ĠRo om
Ġrep orter
Ġprot otype
Ġc p
Ġreve als
Ġmin i
ĠT ABLE
Ġmark er
ĉĉĉĉ Ċ
to oltip
trans port
' }
Ġrh ythm
ĠC urt
ĠB av
Ġad min
Ġpart ners
pr agma
Ġred irect
() ">
th y
. ',
Cal endar
as ant
j or
Ġsk i
w br
Ġn urs
et o
Ġorgan ised
Ġrece ives
CO MM
G EN
th m
ĠA P
ĠPeters burg
Ġcorrect ly
Ġhe ar
Des pite
Ġmagn itude
ĠDr ive
Ġdepend ent
l ag
roll ers
Ġfl ash
ĠAng lo
ath ered
D ry
Int ent
Ġem ission
h ave
t one
st roke
Ġkey board
th lete
Fe ed
Ġcoordin ate
F ALSE
Del ay
Ġres olved
Work er
con nected
ĠH ann
Ġint ellectual
ot he
Ġst em
b inary
Ġmach ines
Ġiter ator
D id
Ġbi ography
cit et
Ġl iv
BA SE
Ġrel ay
w aukee
Ġg ate
ric ks
Ġbo ot
Ġinter actions
F ire
ĠL en
Ġmechan ical
F OR
Execut or
ff bb
ili ary
Ġdefend ers
ins ky
Ġconstit utional
ĠMad ison
ĠL ux
ut ton
Ġcell padding
ĠWARRAN TIES
] +
Ġaccur ate
Ġstrugg le
Ġde leted
Ġman ual
ĠLar ry
Ġleg s
Ġposs ession
Ġext ensions
y t
ĠCal c
uff ix
or um
Ġcell spacing
ĠHen ri
unc redited
LIC ENSE
ĠC row
Ġatt ending
ĠH av
Ġpass age
ĠArch bishop
Ġt ournaments
be ans
Ġf at
Ign ore
ring ton
ĠG lob
act ual
Ġap artment
D utch
S ocial
ĠKe ith
ĠHis panic
ens ively
Ġcorrespond s
Sing les
Ġpat ron
el in
Ġs oul
Ġpar ks
ĠK ay
l ined
Ġcomp liance
Ġqual ify
C LA
ul o
P romise
ran o
Ġdec ay
Ġread s
Ġdis band
B ob
ĠAdd ress
h m
ĠÅ ł
nof rame
ph al
ĠP od
Ġsub div
Ġre aches
Ġc ash
Ġenjoy ed
Ġp ole
B IT
Leg acy
Ġunivers e
Ġm or
ĠFil ip
Ġce ased
Ġn inth
RE CT
ĠHeb rew
A I
Ġra c
Ġprov inces
ĠBas ic
Ġd st
Res p
Ġmake up
R ules
enc oding
Ġpe oples
ateg or
loc ale
Ġbound ed
P REF
ou p
I l
Ġdec ide
h istor
c ancel
Ġs ight
ĠB es
ĠS V
get Message
ĠH orse
Ex pect
Ġregist ration
Ġhard ware
Ġb attery
ĠS ans
v ars
ur an
Ġbe et
Ġcoal ition
Ġop ponent
ĠÐ ¸
ĠĠĠĠĠĠĠĠĠĠĠĠĠĠĠĠĠĠĠĠĠĠĠĠĠĠĠĠĠĠĠĠ ĠĠ
D iff
Ġas pect
ĠG ay
Ġautom atic
Ġc yl
Ã¶ n
ĠArt icle
Ġsp end
00 1
Ġspons or
Ġconstit ution
ĠCh er
ol en
Ġart ifact
Ġport rait
Ġhand led
r h
B i
Ġtrad ed
Ġw idget
Z ero
Ġ' @
Ï ħ
ur as
ĠJ ar
ĠTw itter
ĠVerm ont
pl aced
Ġwithd rew
Ġr id
CO M
ri um
iss a
b ank
Ġstand ings
ĠO ct
" ];
Ġinst ructions
Christ ian
ĠT OP
10 9
Cont act
not ification
Ġmanufact urer
Ġexpl ain
int o
ĠCh apel
Ġman aging
L aw
ch unk
O W
Ġpost s
Ġfund ed
Ġgu ilty
ĠSt uart
ĠA ws
Ġgener ator
Ġweek end
Ġc argo
et es
10 24
Ġgrand father
ĠChristian ity
ut a
string s
Ġpal ace
ĠL I
ĠG race
Ġestablish ing
st ood
Ġre vers
IL ITY
Ġob vious
ĠConst ruction
s pl
Ġim perial
Ġgen etic
ĠPro tection
st ri
Ġf itted
T w
at um
Ġpoint ed
Ġbul k
ĠC HE
Run ning
k l
Ã Ĺ
set Text
Ġminor ity
Ġst im
Ġ| =
Ġco ff
Ġcl an
ĠM D
ĠEag les
ĠRes ources
Ġsequ ences
ĠBris bane
ĠD ra
Ġg od
Ġthr one
ut ing
f eld
Ġre venue
Ġdise ases
Ġtal ent
ĠSt even
Ġillust rated
nob r
includ es
ĠRob in
Ġfocus es
Ġen zym
Comp anies
Ġrun ners
Ġsee ing
ĠWars aw
ĠS M
10 8
Ġsign als
LO AD
ane ous
bass y
ĠPh D
Ġstreng then
Ġexclus ively
Ġconv inc
Ġh ook
Ġpack et
Ġh al
Ġpract ical
ĠCru z
ev ille
Ġb anned
ĠĠĠĠĠĠĠĠĠĠĠĠĠĠĠĠĠĠĠĠĠĠĠĠĠĠĠĠĠĠĠĠ ĠĠĠĠĠ
sub Nav
ĠN ull
Ġ======= =
z ig
Ġup dates
Ġfl ux
Ġspons ored
Ġb ug
185 1
G LE
Ġsec ured
Own er
ull ivan
Ġle agues
St ub
Serial ization
ĠCh ap
ĠG P
ĠCh air
Ġdismiss ed
ĠCon sole
Count ry
Ġrespond ed
ĠInt elligence
ĠInd ependence
ĠMur phy
if ting
S ong
ic ing
Ġt icket
m oment
è ®
Ġengine ers
ĠMer c
Ġconcern ing
Ġlog o
ert on
Ġoccas ion
D er
ĠK le
ĠQue st
Ġjuris diction
ĠCamp aign
Ġ# {
Ġab und
Ġvol leyball
F ictional
S F
G rand
Sc ore
ir ms
ĠFri ends
Ġcl othing
18 49
Ġdemonstr ated
Al pha
Ġcomplet ing
Ġre ndered
K O
inn ed
sw ick
T reat
Î ¼
Ġplay wright
J ose
Ġstruct ural
ĠG ust
repre neur
run ner
Ġsh arp
ĠBy te
ip edia
h aw
Ġaccur acy
Ġacquis ition
Ġinit iated
om o
ĠBut ler
Ġg ift
Ġmat ched
ĠM Ã©
Ġt oured
Group Name
cript ions
Ġphot os
ĠAr c
on ial
el ia
=" {{
ĠĠĠĠĠĠĠĠĠĠĠĠĠĠĠĠ ĠĠĠĠĊ
T yp
Ġdes ire
Ġiniti ative
Ġeff iciency
Ġs a
il o
Ġev ac
qu et
ĠOver all
################ ################
C amera
ig ion
s at
Ġ- =
math sf
pro d
Ð¾ ÑĢ
Ġg ard
man agement
ĠTh ai
aur us
Ġbelong ed
ing en
ond a
Ġclin ical
= $
ie u
Ex ecute
Ñ ħ
Ġw edding
Ġlab our
roll ing
me an
form ing
Ġg iant
Ġsculpt ure
M ex
il iation
ig ate
N P
Sup ported
Ġw x
l ights
row Color
L IN
Ġexc av
k ernel
Ġsh adow
Ġ _{
ur se
ĠArch ive
ĠW u
get Attribute
Ġhonor ary
og ene
Ġdeb t
Ġsuper ior
Ġmeasure ment
V C
ver ify
hold ers
Ġunsuccess ful
Ch anges
ĠProduction s
Ġre ven
Ġcr uc
ĠC ycl
Ġsequ el
Ge ometry
Ðµ ÑĤ
design ated
Ġb io
Ġelectric ity
D ig
Ġreg ulations
is an
ent le
ĠC elt
Ġgrow s
ĠBulg arian
â ĪĴ
ĠDen ver
ud o
Ġim pl
Ġbatt alion
K n
ĠHe in
3 000
ĠEl li
ĠO il
Ġmurd ered
wide hat
ĠCong o
Ġrem ark
ĠPer ry
ĠBob by
ĠLe ader
IM IT
ĠEr nest
ous el
Ġt anks
ĠT ry
ĠArg ument
O cc
Ġobject ive
Ġ' -
om i
ĠRun time
Ġnam ely
æ Ĺ
red irect
ĠAl lied
ĠAng lican
Ġvict im
OT TOM
ĠStud y
="../ _
Ġbor ough
Ġdivers e
S elf
ĠF am
s quare
Ġsubsidi ary
ĠR ivers
akes pe
ĠV ari
ÅĤ aw
S oviet
{ (
ĠĠĠĠ čĊ
Fran k
ĠNot able
Ġsurv iv
ĠMan uel
Ġex clusive
ĠPro duct
Pre vious
ĠC atalog
I rish
Ġwear ing
I ce
Ġis instance
ĠS ic
ĠG T
Menu Item
P resident
L ines
Ġt ight
const ra
Ġa ux
2 20
g lob
Ġchalleng es
H am
N eg
ĠFran Ã§
Ġdr ummer
S napshot
Ġout standing
ĠQ ual
Ġesc aped
Ġremov al
ator ial
ĠLe eds
SU C
Ġrestrict ions
az i
Ġexp ensive
f rames
ed e
Ġpro fit
u ency
Ġal liance
ĠHel en
act ers
Ġattempt ing
Ġe arning
e ing
Ġr ising
Ġem peror
ĠF un
Ġconvent ional
Ġc emetery
pay load
g rav
ĠS alt
P ane
ĠBaron et
â Ķ
jav ax
Ġmat hematic
ĠF ighter
Ġchar ity
Ġdelay ed
w alk
ĠLat ino
Ġmeasure ments
Ġ` ``
ĠE c
ĠCom ponent
cl s
Rev iew
Ġb ishops
SS ION
is o
d m
Ġ" )
Ġtrad itions
ĠC lear
IN VALID
h all
ĠF low
Text View
Ġdis pute
Ġsong writer
Ġf rames
i am
cent ral
Ġtext ure
ĠW HERE
Ġm os
Ġ à
ĠA round
Sh arp
B reak
S peed
185 3
B ridge
ĠHar old
Reg ular
ĠWell ington
Ġdisestabl ishments
f aster
B g
M s
om ents
Ġdraft ed
Ġg ro
u pt
Ġc osm
Ġadd r
Ġp lease
ĠMod al
Ġcalc ulate
shall er
ĠW atch
ĠBO OST
p al
ĠUn like
ĠGil bert
est ure
p ad
ort s
ĠSh ould
list ener
in ject
Ġren ov
ĠD ennis
18 47
Ġsimultane ously
Ġel dest
') ->
Ġdec ides
Ġopt ical
Ġvert ices
ĠF ALSE
ro at
Ġb ay
ĠT ax
ĠF actory
Cont ract
ĠMean while
ĠF ish
ĠPed ro
ĠH ost
Ġw ard
Ġpol ynom
Writ ers
G ood
Ġmag ic
" ])
Ġâ ĨĴ
akespe are
r ates
Ġfarm ers
av ia
min us
Ġhy brid
Ġg ross
Ð ±
om es
5 000
/ )
App Compat
Ġas ym
it ro
pi pe
Av ailable
ĠR alph
ĠY ale
ĠG or
Ġelse where
Ġlog in
ref resh
ĠSw an
U k
Cont in
Ġcomput ed
Ġsett lers
Ġ' _
ĠLeban on
Ġinc orrect
ĠMA X
ĠO cc
for ced
Is rael
C annot
ĠPar se
Ġp s
Match er
p iece
om m
ov ina
ĠM ach
ĠE C
ro d
B locks
U A
Cre ated
ĠS ang
Ġco operation
Al t
con current
ĠV e
ĠFlore nce
ĠCon vert
ĠW as
Ġor igins
13 5
f w
A ctions
Ġsurv ive
Ġch rom
ĠCHE CK
ĠW ed
ch arg
ub ble
ipp ing
I ll
40 4
Ġpro f
19 2
Ġarch ive
Ġatt ractions
H ol
os ity
ĠB E
bo th
RE E
ĠTri b
Ġim plicit
ĠB our
ĠScot ia
Tax onomy
ĠN ak
Id x
ĠN g
requ ency
Ġv acc
Ġinter mediate
H y
U ntil
M ur
R ugby
te chn
Ġr ated
Ġaccomp any
ĠÐ º
Re ason
ĠGuard ian
d st
ĠCh a
Al ert
99 99
up dated
Ġa w
ĠCons ervation
Cent ral
min ster
Ġpat ent
is ons
fl ush
com plex
d ocker
è ¡
r ise
in ery
ĠEconom ics
Ġterm in
atche wan
SP ACE
og g
chi at
\ ,\
Ġimm igrants
Ġstrateg ic
W F
ĠCroat ian
ist ered
ĠK ur
14 4
Ġf ault
Ġin ternet
it ars
Ġtr igg
h agen
Å Ľ
p ot
S n
he x
ĠHand le
ĠSing le
Ġprote ins
display Name
ĠBe aut
Mut able
Ġre act
ĠQu arter
ĠS ierra
ac ional
Ġprepar ation
Ġj ury
ĠK i
Ġelement ary
p us
publ ished
ĠHug hes
Ġremov es
ĠT ogether
ĠR ou
de ep
ens itive
Ġs af
ĠS uz
24 0
ec lipse
Ġscholar ship
pop up
ro oms
An im
ĠSt op
Int eg
Sc ene
is che
- $
add Class
g ra
Ġp ictures
D ynamic
Ġv ulner
ĠK ra
h ook
per cent
Dec imal
Ġc ul
L ondon
aw t
ĠAb u
C ities
M ust
t em
ena issance
b olic
ĠVen ice
Ġa qu
graph ics
Ġpurs ue
ut down
ĠM ul
osp el
ĠNe il
ĠS ym
ĉĉĉĉĉĉĉĉ ĉĉĉ
ĠAr nold
uc c
ĠPr ice
Ġorigin ated
ĠForm er
Ġinst ant
Red uce
ott ingham
] </
ĠArchitect ure
ro st
Ġalloc ated
Ġdynam ics
ĠK rist
Ġtreat y
__ ,
ĠProtest ant
ĠS oph
Ġdep icted
set ting
}\ \
ĠM icro
to ctree
osl ov
ĠB ald
Ġsh aring
Ġ$ (\
l it
ind a
ĠAnt i
}} ,
Spec ies
th ird
ĠDate Time
u h
M el
Ġspe aker
ia o
å ľ
ĠR idge
d ie
Ġcor re
ĠS yl
Ġpres erve
K ar
Ġintro duce
% "><
fore ach
ust ed
Ġcarri er
Ġtw in
Ġcross ed
Ġ' ''
gom ery
em e
Ġinn ov
ĠConfeder ate
Ġt ons
PRO P
ĠP rest
Ġen forcement
H ouses
Ġint ention
ĠH at
ĠPhil lips
ĠRev ival
Ġconstra int
if inals
Ġm asc
ĠWith in
lim its
ah an
ĠWork ers
Ġ ray
Ġent ities
ĠH az
Ġsp ir
Ġ! !
Ġassist ed
ers hire
ens on
> [
ĠTre as
Col lege
Ġsim ulation
Ġph rase
15 00
ĠWh ere
ĠNash ville
ĠO g
T imes
s hell
con cat
Ġret rieve
at able
ĠBrun swick
Ġm arch
ĠRem arks
ĠArab ia
Ġcontribut ing
Ġrad iation
(' ./
agon ist
ĠD elta
Ġeval uation
Ġs ender
ch anges
ĠAl ong
Style ID
c ock
=- =-
ĠS oul
text width
}} (
Ġlook ed
st ub
ĠJ oint
Ġm i
Ġcampaign s
ĠG raph
Ġpop ulated
Ġe igen
Ġal ive
enc ia
Ġrad ical
Ġmon astery
Ġorient ation
ĠBro ther
] $
Ġess ay
ĠOtt awa
ĠWat son
Ġp rices
draw able
ĠD ele
F rance
ĠArt ists
iv ial
ne q
Hash Map
Ass et
faster xml
ĠLe o
Icon Error
Ġsound s
W alk
Ġsing ular
ĠSh im
V O
Ġn eck
Ġimp ress
Ġco in
TableRow Color
oc om
ff ield
ĠBel arus
Pack et
it ol
f urt
iff s
it Hub
E r
ac iÃ³n
Ġstream s
Ġm igration
Ġc am
Ġex posure
ĠB ond
Trans ition
pl ain
Ġcond em
Ġnovel ist
Ġprint f
ĠMal ay
Ġess entially
ĠW ells
m other
Ġ Ã©
Pr inc
av ier
end um
F ixture
ĠS um
ver age
; %
ĠÐ ´
ĠB ear
HO UT
ĠG ang
Ġind epend
é Ģ
il ib
R h
Ġp ale
AP P
new s
Ġamount s
ĠG as
P ush
Ġre const
CD ATA
Â ½
ĠD oc
M iddle
ident ity
value Of
T emp
ĠL ess
ph ase
ĠShang hai
Austral ia
Ġst retch
Ġcou p
Ġnar rative
t oc
Un ion
M R
ĠM ort
separ ator
{ {\
con v
names e
ĠN y
L ow
ĠTh ir
pt ic
ish a
Ġc oh
ĠGener ated
At l
Ġn ep
S en
tern ative
Ġbi ological
Ġthan ks
Ġfil ters
ĠRh ode
pect or
Ġrequire ment
or ough
Ġfl uid
un i
project s
pag ination
ĠW ag
Ġs ke
Ġj et
d td
18 46
Ġre ducing
ry s
h pp
Ġport s
Ġs ang
Ġbe ating
Ġpow ered
Public ations
Par cel
>( <
ob serv
ĠLin ux
ĠS elf
Part ition
Ġtour ing
Ġconsider ing
B er
Ġfin ance
Dis k
Ġeas ier
Ġ ion
AV E
bo oks
urs ive
ĠFried rich
IconError Encoded
ĠC ant
'] .
Ġpitch er
Ġt ill
INS ERT
Ġinduct ed
ĠS ul
ĠL evel
ĠD od
* ,
ĠNew castle
ĠR us
Ġdesign ation
ĠM az
" ?>
TR AN
V R
ĠH em
ĠLem ma
Ñ Ī
open ed
Ġn ut
i eg
G l
ĠV iol
Ġmoment um
ĠSus an
art et
Ġsp ell
it an
Ġcomp ound
ĠRevolution ary
pos er
ra h
Ġh orn
Ġviol ent
Ġthr iller
ĠJ en
r ink
ache l
Ġw inds
Ġparticip ating
ĠStan ford
ĠRh odes
Ġor th
ĠYugoslav ia
V I
Ġin variant
Ġaut hent
âĢĿ ,
Ġnegot iations
ĠAir lines
F P
Ġplay off
ĠMore over
="@ +
× ª
Ġpresent ation
12 4
ĠI R
erial ize
ĠT ed
song writer
Ġdes criptor
Ġconduct or
X Y
ĠE cuador
Ġdisap pe
s outh
il ian
Ġbreak s
Ġ( #
ĠW ait
Ġbeaut y
Ġass ists
ic ia
Data Type
Ġmanufact urers
ĠRel ations
Ġp ushed
Ġhel per
Ġf er
Ġdebut s
ĠCh ang
ĠWall ace
ĠW ol
u ates
ADD ING
ĠKer ala
pe ction
L ists
Ġw ider
oid s
(" .
Ġs isters
pro c
Ġtempor arily
W I
Ġinc umbent
1 18
b an
ĠNap ole
Ġspecial ized
fe atures
Ġro cks
st ock
Ġproduction s
.. ."
ĠMag n
ĠM is
h p
im m
Un incorporated
Ġinflu ences
ĠO P
Ġcl s
er i
Ġdev oted
T ip
int ers
Ġrespons es
bo at
play ing
S rc
ĠPr ague
w yn
SP AC
D evelopment
Sup press
Ġch ron
Sc an
ĠEnvironment al
ĠDe uts
ĠPaul o
ĠCard inals
b org
ch rome
Ġr ide
Ġtim ber
F B
ĠI T
ĠLu ke
st ud
Form atter
Ġt ies
Te chn
Ġt ribute
ra ble
ĠEdd ie
Ġestim ates
tim er
pe g
Ġwas n
ĠK ash
Ġflo od
ĠDemocr at
ĠN athan
u um
M a
Ġr itual
ĠAb raham
C trl
Ġrecogn ised
Ġeconom ics
ĠL ex
ĠIm mutable
ĠCirc le
) |
Ġbeliev es
Record ed
Pe er
M or
] \
ĠJ in
Ġsympt oms
transl ate
ĠGreg ory
Ġ ĉ
View Controller
Ġterm inus
Ġrare ly
l is
Fore ign
Ġun like
ĠGro ve
att a
AR G
ĠS ig
mat ches
%%%% %%%%
I reland
u in
Pri ority
Sh adow
Ġb ars
'' '
Ġdecor ated
R ay
Ġinterview s
ĠFor um
Ġro bot
ĠLeon ard
ĠF ul
Ġcompet itors
ent in
Ġor n
Ġvis its
ĠTun is
F our
Ġpref er
Q uest
s ass
ar th
Ch o
M obile
f ac
Class Name
ab we
Java Script
R ock
Ġgraph ics
plic a
Ġdevelop ers
Ġre organ
uck er
ĠE SP
om eters
Mon itor
t v
Ġt ape
Ġmanufact ured
Ġcont ribute
Ġconcept s
A ff
al ter
est one
ĠS A
E LEMENT
Ġ' ,
cs v
RE T
Ġro ster
Transport ation
Ġthe oretical
~~~~ ~~~~
Ex it
Pri or
ĠRay mond
f ilters
Ġcompos itions
Ġsub set
SS AGE
L ittle
fav icon
Ġconsum ption
Ġs ailed
Ġoverse as
ĠPal mer
Ġm acro
Ġphotograph er
ĠS oon
ĠB ak
Ġimprov ements
ith metic
Ġquant ity
ĠSh akespeare
Pr ice
Com ponents
all ing
ĠL ot
ĠA ires
Ġc attle
Ġp in
Ġdocument ed
L com
Ġco oper
Ġinter act
ĠMer it
Ġhous ed
Ġf aces
Ġst ops
Ġel igible
k et
ĠFin ancial
P ut
Ġsl aves
Ġwor st
EX PORT
ĠB ody
uff ered
at om
ĠR ah
Ġpers u
Ġpet ition
ĠC S
ĠP HP
Per iod
Ġguest s
Ġind ices
P OS
V A
ĠS creen
Ġt on
Ġbut ter
ĠM ills
FA IL
b undle
Separ ator
Ġunivers al
Ġsub marine
def er
Down load
m al
S y
Ġprom oting
f ers
int ro
lo pe
Ġd ra
c aret
inter val
b ucket
script s
Ġm ath
ĠFil ms
` )
ĠD in
Ġra bb
Ġ} ).
ĠC ec
m ix
Ä Ľ
Ġexcept ions
f loor
ĠArch ives
ys ics
per iod
ĠB oot
Ġdanger ous
RES ULT
T ranslation
Ġst ead
D ict
C irc
ĠW inn
uc lear
Ġk w
ar ry
An n
vel t
Ġthink ing
ĠCon nection
- ">
process or
Ġsc ales
Ġfl ights
ĠInt eg
Ã °
se cret
Ġtechn ologies
O FF
Ġr is
Ġind eed
Ġl ic
re ason
ok o
ater al
ĠNS String
Swed ish
te le
sk a
ĠG olf
Ġadd s
ĠS umm
ĠD rama
== =
pack ages
Ġ" ;
pro duced
Ġfun eral
Ġpot entially
ĠDev on
h space
ĠL ov
b p
ne ut
AR D
ab i
k n
ĠR oll
Qu ant
Ġvari ations
Dist ance
ĠĠĠĠ ĠĊ
ĠB il
Ġd ense
ad ier
Ġo m
Ġdo ors
ĠWil helm
B uf
Ġconstitu encies
Ġlif etime
ĠJ ak
Ġadvent ure
ĠDi amond
ad v
ĠAr med
Has Been
ic ients
Ġf asc
f ailed
k u
å Ľ
oc o
iv ities
An alysis
ĠScient ific
UR N
Ġinternational ly
Ġmolec ular
... )
off icial
nos cript
ĠVis ual
ĠByz antine
db c
Ġinvestig ate
Pay ment
Re ceived
ĠBab y
Ġresign ation
V ote
In jection
ne z
4 50
ĠM ik
im er
ĠSt ef
Ġindust ries
Ã§ Ã£o
ĠStud ent
Ġim possible
Look up
West ern
Ġexhib it
nd ez
ĠR ender
Ġshop ping
Ġwealth y
Ġto ler
ot ions
ĠEnt ity
ĠDec l
w iki
Ġwalk ing
Ġcl usters
Ġto kens
ĠB ach
Ġexhib itions
rac le
ub b
ĠChe ster
imb abwe
s ources
Ġtr ump
Ġas set
ĠS cript
uch i
ĠUnivers e
F etch
w ent
Ġb ucket
Enumer able
ĠB eth
serv let
oy age
Ġsym metry
Ġut ility
Ġo ct
Ġ& \
inter pret
( `
ĠHamb urg
ĠDivis iÃ³n
O ur
æķ °
t ensor
he ld
Mod ifier
ĠTas man
Ġin fer
ĠR oche
Ġbon us
ĠT ong
ĠClar ke
Ġb aby
Ġran ging
b uffers
label s
ear ing
Ġqu eries
Ð¸ ÑĤ
Ġconst ants
AR RAY
ugg ing
ĠB ORDER
Ġ" #
ij a
Ġop ens
w ind
ĠA ncient
Ġb ath
ĠG host
ick y
it udes
ĠSud an
Ġdiplom atic
Ġdis order
pos al
ĠGab riel
Ġsm art
ĠHigh er
Ġmidfield er
ĠIndones ian
des cribe
ĠFe ature
r ity
co okie
ĠS ession
ĠCom merce
it ivity
ir ts
ĠSeb ast
no indent
Ġfight ers
ĠHar bor
Ġearthqu ake
Ġpre st
ĠMethod ist
Ġtr uck
Ġback up
sc reens
Ġthere after
ĠP att
M ary
Ġtri ple
Ġrul er
Ġhun ting
or p
ad apter
equ ality
Ġdepart ments
Ġdifficult y
E q
M ix
Ġlegisl ature
sur face
Ġmidfield ers
ĠStud ents
ĠW onder
m ov
gu ide
Ġexhib ited
C ost
ĠL abel
flu id
Ġland ed
SUC CESS
ct rl
ĠK ol
Ġn s
ĠBen ed
Ġsynt ax
Ġther apy
M ail
inem at
er ion
Ġrev ised
Hen ry
N I
C ross
Ġdep ression
ĠAnn ual
Ġfilm ing
Ġcollect ive
M ot
man ifest
aver y
ap ing
Ġgalax ies
RE NT
et ics
18 44
ĠDis c
C ertificate
sp er
D ao
qu ant
vent ory
RO UP
C a
ĠU TC
r if
yth ing
Ã© g
ĠStock holm
Ġst ability
Ġo xygen
FN GL
Ġext ensively
ĠFri end
Ġgu id
ĠO ptions
Ġlist ening
N ECT
ĠBos nia
ĠP aint
ph is
Ġtrav elled
18 37
Ġshe et
Ġfif teen
Ġdevelop er
ĠSh in
ĠP ackage
ĠEs sex
Ġmet ropolitan
ĠG uild
ĠSt ri
x sd
C am
ĠOut standing
Ġm amm
g s
fin ity
ĠT rav
Ġfem in
oc ene
IT LE
Ä Ļ
I p
ph ib
Ġb ott
uss els
Up dated
W ater
enumer ate
Ġnumer ical
Ġpro x
ĠPer th
ĠOb ama
ĠT otal
Ġnot ification
Prov ince
allow ed
late st
Ġguar ant
ĠF ix
ĠHar vey
Oper ations
> .</
] ->
18 45
ĠK in
ens en
ĠSy rian
HasBeen Set
Ġun incorporated
Ġslow ly
at ile
ĠS ex
erv es
Ġatmosph ere
om atic
Particip ant
Ġegg s
Ġdisplay s
Ġimprov ement
ats u
ĠThe ory
c art
i ot
CR IPT
Ġs ugar
ĠCh an
pr us
` :
B ased
ph abet
char acter
Ġinsp iration
W el
g h
on ing
as se
Ġm m
ĠTransport ation
Ġfast est
Ġhe x
ch arge
og ical
Ã ¯
ID S
ad ers
ĠWhe ther
C UR
Ġchem istry
Ġexcell ent
ĠB AS
ĠG az
E ducational
Ġmon arch
ĠTR UE
Ġsepar ation
member NameLink
] ['
ĠLeg ion
ĠCom plex
ĠM orning
ess a
TER N
ĠS urre
Ġex ponent
ĠF lying
ĠV ict
ĠN ear
Ġdef initions
N ON
Vis ual
ĠIllegal ArgumentException
ĠL ak
Ġ< ?
Inst ruction
Ġw aste
Ġathlet ics
ĠCEL L
Ġbirth day
re ts
Ġelect ro
Ġarrang ements
pr ice
Ġn inet
pt s
Ġdecre ase
L ove
}} {\
Ġcarri es
Ġnick name
act eria
AP PL
l ua
ab b
Ġtradition ally
e u
Ġrest art
ar ag
b ird
Ġann otation
ard ed
ĠP ick
Ġcons olid
$ }
ĠS oci
F ill
ĠMont gomery
sl ider
item ize
tool bar
? ?
it us
col ogy
Ġrel ating
EN TRY
ri ent
Ġharm ony
ĠV ent
ic z
ĠAdv anced
Ġph arm
w ire
Ġrep ublic
contin ue
Ġstat istical
Ġdef ended
Ġfail ing
var i
Ġmin istry
ĠTib et
M IT
fort un
ose velt
W rap
Ġc urrency
ĠExp ression
Ġequ ality
ĠCh apter
Ġt ours
tern oon
ĠMil waukee
Ġor che
Set up
Ġinform ed
av i
Ġspe akers
First Name
Ġm oral
Cred entials
Lou is
ĠL ie
ĠOt to
ĠW or
ĠFran co
F actor
ur ated
Ġburn ed
Ġprint ing
ãģ ®
Ġsynd rome
Polit icians
ÑĢ Ðµ
Ġunder stood
MP L
ĠR at
umber land
Ġan al
REQ UEST
ĠSecond ary
ĠE RR
ĠV illa
Dim ension
as ia
Ġexpress ions
ĠBenn ett
ĠSask atchewan
depend encies
SPAC ING
} +\
empl es
Add itional
g art
i ago
Constra ints
Ġa thlete
/** */
ĠR af
Ġrem ix
vert ed
greg ate
pp ers
Arch itect
the orem
Ġde emed
Ġpredecess or
Ġup load
Ġac res
Ġsuff ix
ĠDist inguished
ĠHit ler
ir us
ĠSe an
Ġclose st
Ġev olved
+ "
Mod ified
ĠT arget
ĠColumb us
Ġdeploy ment
ĠSp encer
Ġcom fort
Tool s
Ġvent ure
Ġcert ified
ĠKn ights
ĠEncycl opedia
ĠB orn
Ġhapp ens
ĠMc L
st eps
Ġann ex
N ONE
Ġconf idence
H ot
Ġrestaur ants
Ġdepart ed
21 30
om ber
ett ers
Ġfavor ite
Ġra ising
RO OT
Ġvar iants
ant ed
B ACK
P lease
ĠA w
H ello
at em
ath a
ĠAct ress
ĠB ag
fil m
}} _
Ġb low
Pol ish
Ġdifficult ies
Ġr um
! (
Ġtor ped
17 0
ĠAgric ulture
ĠE ld
ĠV oice
S eq
18 39
Ġord inary
S ol
' =>
ic ates
Ġs av
Ġs iege
ex ecution
Ġt s
ĠWild life
Ġres umed
ĠPalest ine
att ach
boy s
ĠK id
Ġsc r
Ġsumm it
ĠBu enos
zeg ovina
h ou
ph ere
Ref resh
ĠO w
ĠSom erset
ĠF ly
7 50
Ġr iding
ĠTom my
Rad ius
am ation
ĠB OTTOM
os opher
Last Name
L D
ĠT oken
Ġmet rics
ĠMethod s
ĠPhys ics
Array s
Ġcamp s
Ġp ython
S ig
po i
Ġw rapper
T ry
r ators
sub string
ĠP eng
by ter
ĠV M
a ude
ĠB elf
Sup p
ĠS old
ĠC ork
cam el
Ð ³
Ġperm it
n ell
Ġc od
Y our
t z
ĠTh ose
Ġin finite
Ġappro ached
ĠC ox
Ġent ers
le af
mark er
d an
ĠP lease
ĠHash Map
ĉĉ Ġ
ĠSt ill
The ta
Ġtherm al
Ġcor ruption
Ġsw itched
Ġattend ance
18 20
S in
Ġal gorithms
Ø ª
ext ype
s igned
Ġnovel ists
ĠT YPE
Ġexpl ains
ĠP UBLIC
Ġcount s
Ġmin im
S port
p n
h arm
Ġpian ist
om p
c odec
ĠC red
ĠId aho
' "
pro b
ath i
Ġsubs cription
Ali as
ĠPlay ers
Ġ$ ('#
st ed
ĠOriginal ly
Ġag es
ose x
Ġdecl are
ĠMond ay
anth rop
sche mas
uan ian
ĠLabor atory
add ed
S G
ain ers
Ġco ok
ĠMont e
C op
Ã µ
Ġsit uations
: &
Ġg it
ç »
Ù Ĩ
ĠCol lect
ĠF ast
Ġcan al
Ġre ward
ĠL icensed
ĠEngine ers
Ass ignment
WA RE
ĉĉ čĊ
D Y
any on
ĠD aw
) }{
emb ourg
Ġform ats
us a
ĠI L
O s
Ġport ions
ĠGrand e
Ġ. =
Ġdescend ants
c ott
Ġg ear
D ITION
Ġbl ank
Col umb
Ġsh a
am y
Met ric
Ġsol ve
C AC
Ġc oc
Ġpull ed
Ġdial ect
mod ifier
Ä ħ
ĠWIT HOUT
c amera
ĠW ord
decl are
ĠO scar
ĠĠĠĠĠĠĠĠĠĠĠĠĠĠĠĠĠĠĠĠĠĠĠĠĠĠĠĠĠĠĠĠ ĠĠĠĠĠĠ
Ġm ess
Ġtransform ed
LP ADDING
d ynamic
ĠJac ques
ĠO ber
Ġdat etime
EN CE
un ks
math scr
ĠCre ated
Ġcollabor ated
Ġregard less
cl osure
ĠSw itch
Ġprec ision
ĠY ellow
c as
ĠInd ies
Ġbrand s
first row
ĠSc ar
AC CE
H F
az ing
ĠÃ ĸ
Ġrec alled
Bit map
Ġor ange
ap a
ĠW ald
AR GET
P G
Ġav iation
il inx
Ġpro jection
LA B
Ġâ Ĥ¬
ĠFran z
qu iry
erd in
h w
ond o
Ġsim ilarly
Ġr ice
H ook
ov anni
Ġdist inction
des criptor
Ġprocess ed
Ġco at
ĠS ony
Ġconsequ ence
Ġm es
ĠCEL LPADDING
Ġcompre hensive
ĠAl f
ĠAm bassador
item pty
ibern ate
f bb
om ar
ST ART
Ġev il
ĠCELL SPACING
ĠRe ich
ĠRe ading
ĠCo ach
B ER
ĠMult i
RE SS
ĠN um
]( #
Pop up
× Ķ
ĠM usical
Ġ// -->
Ġassoci ations
F ace
s heet
Ġd iver
18 38
ĠNorth west
Ġex tr
ibl ings
be k
ĠS of
om itempty
Ġart ificial
ĠMod ule
FLA G
M ah
Ġ} ),
N umer
Ġconnect s
Ġwrit ings
Ġref lected
Conf irm
DE D
Ġdefault s
ĠT ake
t ile
: %
ĠMig uel
ate ver
18 41
ac co
periment al
ĠPan ama
open hagen
ĠS ou
s r
ĠIN TO
ari os
ish i
ft en
c v
w heel
Ġpres ents
Ġcred entials
abl ing
ist ance
ĠK or
g ary
Ġl attice
ĠP and
ia z
ĠL ac
Ġsh orter
Ġend ors
, .
Track er
ist ogram
ĠG rid
Ġpost er
ĠR enaissance
ĠLeg end
Ġind ent
Ġdec k
hell o
12 1
U r
l b
Ġc ir
ĠM uch
ens ed
ĠC raw
MA GE
Ġflo ating
Ġt um
ed o
Ġf atal
ĠP erm
ouri er
ĠAh med
Ġt enth
Ġpl acing
Ġint ensity
PAR AM
ĠWeek ly
eg al
ĠCam eron
ĠCab inet
Ġindepend ently
ĠMar x
Ġapp lies
Ġrefer ring
u ania
it oba
S pe
Ġpred icted
____ ____
ĠR uth
ĠN ottingham
Ġfarm ing
Ġapp rec
Ġt ar
Ġ" _
ĠK ill
Ġencounter ed
**************************************************************** ********
WOR K
t m
Ġlist ings
ĠJ unction
Ġdem ands
Ġinter change
th al
Ġgard ens
Ġw rap
ok i
ĠG ate
ĠLa ura
Ġdoll ars
Ġend if
Ġalign ment
arg v
Dest roy
v y
ĠP ent
er k
h orn
ide a
Ġvary ing
ri bs
ump y
Ġreleg ated
op ens
ĠF oster
ĠJo an
Dem ocratic
> {
cl ine
ĠM idd
ĠD ame
uch y
Ġconflict s
Ġh ospitals
ĠAg es
to Equal
s ocial
igh bor
ĠJama ica
D ue
m ic
Ġdifferent ial
) _
Ġnot ation
Ġen rolled
5 12
Ġf raud
Sm ith
ĠHer o
Ġl os
Ġinh ab
ĠK IND
ä¸ Ń
ĠG Ã¶
Ġun expected
ĠCar r
Ġhapp y
elastic search
Ġen vironments
Ġst ub
Ġpriest s
ĠUg anda
ill on
Ġt uple
mut ex
ĠH il
col span
vis ibility
ãĥ ¼
umb ai
Ġscreen play
Ġarr ive
ĠUr ugu
Ġemploy ee
Ġident ification
ĠLuc as
ĠC lose
Ġ/ ><
B T
ĠG y
ac ion
an z
ĠSus sex
en vironment
intend o
ic ious
_{ (
18 36
ĠS ymbol
Ġfam iliar
Ġtal ks
ĠHer zegovina
t rain
ĠT rain
eth yl
re present
P ak
ob e
I ME
Ġequ als
ĠMaur ice
ap ps
Ġaff air
; ]
B D
Ġjud g
lev ard
C lean
Ġsort ed
Ġinterpret ed
Ġread ers
F ellow
m c
Ġarr iving
S mall
18 12
ash ire
ĠD ynam
' \
fil er
Ġanth rop
Ġf oo
Ġassess ment
zh ou
Ġbank rupt
G RA
ro e
ĠD anny
ll a
Ġv ow
uc he
initial ize
ĠVlad imir
18 35
ro tt
A MP
Ġfeel ing
bor o
it ative
r ar
AT O
Ġpione er
P ending
Ġc avalry
ĠRo osevelt
ĠW ik
Rec ords
ĠJ erem
Ġdis aster
Ġproced ures
G reek
ĠS SL
Ġ- \
C andid
h d
18 42
ĠSl av
ĠK rish
ĠLe ic
Comm it
Ġgu itars
c amp
ĠE ight
ĠUs ed
x FFFF
Ġphys ic
ĠKaz akh
on so
ĠE sc
ĠPhilosoph y
Ġb oss
Ġab oard
Ġrepe at
ĠIs aac
dele gate
C SS
Ġcop per
ĠC inema
ĠMan ila
ĠSalv ador
Ġrad ar
ĠE V
sm art
Ġt ut
ĠJ ung
ĠSt ories
Ġf ur
Ġremov ing
Ġext ending
an ch
C art
ĠL or
ĠS ey
US A
h im
ĠM atrix
op ic
Ġs itting
ĠS ET
ig i
Brazil ian
Ġcomplex ity
DO CK
ĠEag le
ĠShe ffield
c ases
ĠH D
c lip
Ġaware ness
Ent ries
ro b
Ġl icens
ĠBro oks
ĠLiber ty
isc opal
is ers
Ġtax es
t asks
gr pc
} -\
Res earch
rict ion
Ġpl astic
ĠFour th
T wig
ĠPro perties
Up per
Vis ibility
le z
Ġro uter
prep are
Ġqual ification
ĠMar io
Un iform
Ġcap abilities
Ġcent res
="# "
Ġse eds
Z oom
Ġab olished
Ġso ap
re view
anim ous
Ġob st
; ,
n Ã©e
ĠS erv
ett i
ĠRon ald
Ġorgan ic
ol lo
Ġaut hentication
Ġlist eners
Ġrequ iring
ĠMem ory
Ġcho ir
Ġscript s
look up
ĠK as
Ġref ere
dir name
Ġs oph
Ġr ifle
in ia
Ġacadem y
Ġf iring
Ad minist
in as
Ġdeal ing
18 32
Ġj e
ĠÐ ¾
stan bul
È Ľ
Ġscen ario
Ġfor g
L ite
ing o
18 43
Ġmain stream
ĠJul ian
unc an
Ġw orn
21 1
ĠP ract
R oad
d id
fam ilies
A ud
J im
B ill
Ġst ake
Ġb one
Ġdiss olved
å į
c orn
ĠG ene
Ġdr ink
he nd
as is
av ian
ick en
Eff ect
All ow
3 20
Ġto x
L iber
Ġc m
Ġob lig
Ġcur ves
ĠO pt
Check ed
Ad v
ĠDur ham
Ġh ills
Ġsh ops
oy s
path s
Ġbas in
Ġenh ance
omorph ic
á ¸
ĠH ence
Ġc ogn
ĠJohann es
ĠA uth
ĠIm port
×Ļ ×
Ġsh ield
Ġseem ed
Own Property
text ure
p ending
en i
ĠV il
Ġ ì
Ġbus es
Jose ph
vel ope
et c
oy a
ĠRe ed
Ġp ixel
Ġemphas is
rack et
ĠCorn wall
ĠProv incial
iet ies
ter bury
Ġas king
Nor thern
l ift
Ġin comp
AS H
Ġb achelor
but tons
Ġbl ind
anc ers
S cheme
at ype
bal ena
Ġelev ated
Ġcross es
al in
Ġs ung
Ġsusp ension
Ġl akes
In c
Ġbomb ing
D one
n ail
Ġsc iences
S om
ub er
cl ock
ĠAng els
Ġme at
J ud
ĠS ummary
Ġcon fess
12 2
Base ball
Ġmonth ly
SER VER
Ġpil ots
Ġcitiz en
) *
ĠT all
Dec oder
Lower Case
Pay load
S afe
ĠBro s
m ade
EV ENT
FORM AT
ĠR ule
Ġbl ues
B ag
ĠN R
atin um
J ean
Ġmiss ile
ĠPrinc eton
om pass
Ġpriv ile
Ġtim er
uet ooth
Ġa ims
ĠS yn
ĠB ears
append Child
b locks
ĠV ert
Ġdisband ed
attr s
Ġarchae ological
-------------------------------- ----------------
ĠM old
sc ene
Ġup grade
Ġenc ode
ĠB un
d eb
ĠR aid
ĠS uff
C itations
Ġfle w
Ġcirc ular
ĠN ancy
oir s
WR ITE
bro ok
Ġreserv es
j in
Mod ern
ĠN ames
g ie
Path s
found er
In her
ĠTh under
As ian
orient ed
os c
Ġrat ings
is cher
b ranch
Ġ" );
im an
elect ric
pr ises
Ġat omic
mem Item
Ġpan els
D M
P ress
Ġem it
Compar ison
ĠEx ped
Ġaddress ed
Trans fer
T ING
\ ":
inst ein
Ġst ere
Ġcould n
Ġent hus
ĠCy prus
itte es
' $
ĠĠĠĠĠĠĠĠĠĠĠĠĠĠĠĠĠĠĠĠĠĠĠĠĠĠĠĠĠĠĠĠ ĠĠĠĠĠĠĠĠĠĠĠĠĠĠĠĠĠĠĠ
Ġfew er
Ġrecip ients
Ġto String
Ġm emb
Ġc ouncill
Ġvocal ist
Ġcontract s
Ġhousehold er
Ã© m
az ar
respons ive
c urrency
Ġcomm enced
h ad
? </
Ġg athered
Def ined
Ġam bassador
Ġob server
Ġhistor ically
Ġsatisf ies
Ġs overe
M W
ĠM ail
Ġapprox imation
Ġdr um
ĠBr as
Ġbrig ade
Read y
() ]
ĠString Builder
Ge org
ull ah
dis k
ĠMe chan
or ange
Ġf abric
Republic an
Ġt ier
Ġmonitor ing
Ġc iting
ĠT odd
++ ++
Ġcart oon
sh i
Ġsynt hes
Data Source
h base
ĠK umar
ke es
Ġart work
ra f
Ù Ī
Ġun ions
Ġpro c
Ġpsych ology
ĠĠĠĠĠĠĠĠ čĊ
ĠDes ert
ĠD A
Ġpret ty
O h
el ly
og o
n ut
M ov
ĠGl ou
F K
B ucket
G erm
Ġt elling
ĠR out
Ġval uable
Ñ İ
ME SSAGE
Ġex pr
Ġveter an
loc als
! =
ĠK ate
Ġin clusion
ĠK arn
ĠCon struct
ĠR overs
stream ing
az ure
Ġsens itive
Al so
Ġres id
ol ics
non atomic
ancell ationToken
ĠRail ways
sen al
st rict
P adding
ĠR ams
ĠD ebug
ĠViet namese
å ¯
Ġp m
__ .
Sl ot
ĠWest minster
ae us
Ġput ting
Sp ring
aj i
Ġsl ide
U UID
Ġspect ral
Ġp it
> )</
Ġship ping
Ġdepend ency
Ġp ist
ĠB ent
Ġj u
um per
'] ))
Ġeval uate
op acity
ert y
ess ed
Test ing
ĠSh op
Ġcor relation
ĠM ine
Ġbot an
Ġpr ince
hash Code
s ent
ĠOther wise
work er
Ġem otional
Ġext inct
v or
seg ment
p aces
Ġn arr
b ors
Ġc ad
ĠLi u
cp u
Ð¾Ð ´
Ass ign
ĠO K
à ¦
Athlet es
Ġex ha
com es
Ġarchitect s
sc ill
Ġst uff
Ġimport ed
ĠStat istics
ĠG iven
and ro
ĠT ow
e i
ĠShort ly
Ġche ss
Vis itor
Ġhold er
Ġfocus ing
Ġassum ption
Ġreg ulation
amb ers
AA AA
Ġtribut ary
Ġste ep
x l
Ġarr ives
ĠJava Script
Ġfor cing
Ġt ube
Ġc url
ĠL iv
Ġd eter
ĠNo thing
ĠA aron
ĠAl bums
Ġsub mit
ĠM Ã¼
H ave
ĠA B
Ġr hs
Stack Trace
ĠStruct ure
ĠB ased
Ġcut s
ĠP red
Ġv ectors
Ġstud ios
ĠS ter
ĠC openhagen
Can vas
man uel
w oman
: /
ig rated
ĠT alk
sc an
un ion
se ed
ĠĠĠĠĠĠĠĠĠĠĠĠĠĠĠĠĠĠĠĠĠĠĠĠĠĠĠĠĠĠĠĠ ĠĠĠĠĠĠĠĠ
ĠIs le
Ġens emble
Ġcler gy
P ac
Ġd ancer
S ets
Ġ\ (
P ixel
ĠI SO
Load ed
f ive
Ġloc ale
l ar
m ime
ĠD as
ff cc
w al
Ġfor th
land o
Ġnecess arily
ĠIraq i
ath y
m x
ĠArmen ia
ĠJust in
Ġsc hem
Î º
ul atory
"> &#
Be havior
e ctions
over ride
Ġgraph ic
ĠF at
ĠV II
ĠC os
Ġgalax y
ĠT ir
ĠFil ter
ĠPear l
Ġsyn onym
he art
Ġreal ized
S un
Ġf ixture
ĠP resent
Ġdis appoint
Mod al
c ached
Ġneighbor ing
| ^
vert ex
ĉĉĉĉĉĉĉĉ ĉĉĉĉ
on ica
Ġout door
Ġf ert
ec onds
Ġfoot age
oriz on
Ġg host
Ġmer ch
Ġden otes
Ġdevelop ments
ĠTra vel
Ġmain taining
ĠCub an
Ġab ilities
ĠG ren
ar ound
sh iv
Ġwid ow
ĠP icture
ĠZh ang
ĠAbd ul
ĠNAS A
Ġimprison ed
ĠWith out
="# ">
Function s
ĠN ine
ĠOak land
] ),
Ġbre ast
ĠO wen
Ġhead ing
back end
ĠEd ge
ĠIndian apolis
Ġlabor atory
ĠD at
g re
ass et
up per
ĠCollection s
Ġdef ender
over flow
sp in
J ac
ĠIn spect
Ġib n
N EXT
Ġtrans it
ob i
R ank
oc ent
Ñģ Ðº
ĠPak istani
Mer ge
Ġd ust
ĠMot ors
m akers
iz a
found ed
mont on
subs cribe
Ġt f
ĠMal ta
L im
ĠS ave
Ġre forms
Ġsoci eties
ÑĢ Ð°Ð
ĠAn alysis
c x
w art
File Path
ĠInitial ize
Ġ"- //
Ġembed ded
ĠV ern
ĠComp etition
ME M
ĠResp ond
Ġgold en
c ost
ty p
ĠI rv
ĠCard inal
un stable
ĠMarc us
v space
Ġvers e
Re place
Ġdialog ue
Ġres on
Ġenem ies
ĠS uccess
d ump
ap ur
ĠL akes
Ġrefuge es
Ġfeel ings
Mat ches
ĠGoth ic
Mult iple
Ġwill ing
ĠMont eneg
==== =
R outer
ĠC itiz
Ġinstit ute
IN IT
âĶ Ģ
Ġel abor
eli hood
Ġl ar
Ġto mb
it ational
Ġaffili ate
Ġauthor ized
Ġdram atic
erdin and
ĠC ord
ĠC ategory
ĠTrans itional
Ġtour ist
Access or
Ġenc ompass
ĠS K
16 5
_ *
Status Code
ĠFinal s
L y
Ġvolunte ers
Ġshel ter
Ġref resh
Ġam plit
F red
å °
COUN T
OB JECT
s amples
Ġw ars
Ġcor ps
c od
ĠP ul
Ġpark ing
Ġthere by
g io
ĠTr in
Ġattack ing
ĠLanc ashire
g em
ol ine
Ġn aming
ar u
Ð° Ð»
Ġtour ism
ape st
Ġt one
ĠT ool
ist o
M esh
Ġdig it
Ã ®
ĠB order
Ġ" +
Ġed iting
Ġret reat
Ġpre lim
ĠSant iago
uis ine
ĠEx hibition
Ġal lies
com ments
ĠCom b
ĠSt akes
Ġres ort
St e
ĠHol mes
) }$
Ġsp ots
UT C
Ġcomput ers
ĠPlay Station
ĠDomin ican
ib a
Ġst reak
ĠForm ation
B lob
Custom er
c us
jb oss
> `
ĠF olk
Ġpe ers
r n
Pop ulation
Ġbox ing
Ġde prec
ĠSh ield
Ġann ot
il io
Music ians
Ġsp atial
OPT ION
M ir
dat aset
Ġm oments
un ing
13 6
Ġgrad es
Ġsatisf ied
H A
Ġprogram mes
ĠArch ae
ĠMoroc co
ĠPar ad
> ()</
cover ed
Label s
ĠTrans it
Ġtravel s
ĠGard ens
Ġp ixels
ĉĉĉĉĉĉ Ċ
Gener ate
Ġare na
ĠZ imbabwe
spe aking
esc ape
J ul
x space
ish ers
ot yp
Ġrep ly
Ġco ached
ĠPr ison
ĠS W
Ġy ard
ĠP si
B ecause
ĠM TV
Ġpro secut
Ar thur
ĠS weet
ĠB od
ĠVol unte
ĠCON FIG
st o
Ġrepeated ly
enti eth
iff e
ĠC rist
B oth
Ġed itors
pre ter
Scal ar
ĠParalymp ics
Ġw arn
Ġb are
ĠH ale
ar ity
ĠCzech oslov
Ġput s
ent ries
Ġvis ibility
ĠEd mund
Ġfound ers
ern ess
) {\
Ġsk ill
Ġvo iced
A U
ĠU nd
ig ue
Ġ( `
ĠG ill
ĠCon cert
Ġf o
Ġf Ã¼r
ĠHer ald
ener gy
th ere
Ġfrag ments
ĠS afety
M unicip
add y
Ġsport ing
el n
ER S
Ġdistinct ive
Ġlocomot ive
ast ics
Ġpass phrase
l ane
Ġcon scious
ĠSt yle
ĠFl ag
N orm
K ernel
ak ov
ib ling
Ġins cription
al one
Ġp itched
ir ical
AUT H
Comp letion
C at
N U
ĠG mina
Ġsurn ames
Ġent repreneur
Ġfe ud
Ġc ust
ĠS che
ĠC ort
ĠT yp
ard i
ach ers
ĠS ullivan
un ning
ate st
ĠPet e
Ġcivil ians
aa aa
Ġin tern
Ġsculpt or
pri ority
Sever al
ĠAdd ed
St rip
50 9
ĠA ur
ĠGe off
ĠGram my
omorph ism
MS G
Ġprogress ive
ra its
18 15
r ice
ĠD y
13 4
Ġpo ison
Ġphil osopher
ab stract
ĠHar per
Ġfeed back
Ġshift ed
Ġin hib
ĠGu ang
ph ony
Ġgl ac
ang ered
Ġcomp ounds
Ġcoll ision
Ġf ung
ĠM C
ĠMan itoba
Ġconfig ured
ri o
ĠAp ost
iv ery
ĠT itle
Ġper ceived
Top ic
Ġkid n
Ġannounce ment
ĠMon th
o que
Ġgener ating
Ind ividual
S ent
y arn
met rics
P K
Ġcoupl ing
m ass
r ins
ĠVer ify
ĠL L
Ġres iding
Ġlook up
ĠEll is
ĠAm endment
war f
intend ent
Play ing
Ġb le
Ġw rapped
Ġ" ./
Ġsust ained
ĠAtt ribute
Ġcoeff icients
mod ern
ĠM umbai
SH A
Ġholid ay
Ġobserv e
18 34
ĠA udio
Co ins
end region
ex pl
ĠPl ate
dem o
ĠPlan et
Ġcolle agues
Ġcompris es
cri ber
å ¼
Ġcomed ian
Ġnep hew
post s
ĠP om
Ġh ub
Ġgrand son
Ġcomput ing
Ġstream ing
Ġatt ach
id y
clus ions
A SS
Ġbi as
Ġh unt
ĠLou ise
Ġc ounsel
be at
Ġvol t
Polit ics
Ref lection
er ie
el ing
Ã¨ s
Can ada
Ġgra ve
? (
b ur
g ies
Ġpredomin antly
Ġre lying
Sur face
H ouse
oun s
' },
mark et
Art icles
] ).
ĠSet t
p ipeline
Ġsur faces
Const ruction
Ġfre estyle
Ġc os
Ġr m
em ann
Ġattr s
per mission
Ġabb rev
ĠK re
ĠTest s
comp iled
g ender
ref lect
att en
gu ard
Ġman ages
ĠCom edy
Ġleg it
Ġdro ve
g ro
Ġcasual ties
In ject
ations hip
ec ca
uk u
W arnings
ĠB rid
ĠLith uania
Ġs id
f actor
Ġn an
Ġsurre nder
H ard
Re pe
Ġdistingu ish
Ġfl ank
re cht
ĠH us
ĠH ass
Ġsynchron ized
or row
ĠGu ards
Ġc ave
ĠInitial ly
Ġgrav ity
AR B
Ġcelebr ation
Ġsatisf y
red uce
Ġcomment ary
t ax
Ġfind ings
: -
Ġc ow
ere k
lock ed
Lin q
Ġgrad ient
M F
ĠH im
ĠG and
ĠM ales
âĢ ł
ĠDav ies
ĠF ras
ĠCont est
Rel ative
hedul ed
=" //
set Attribute
oy e
b idden
Ġsc an
ber ger
ĠCom par
Ġacqu ire
Î ¯
ad os
; -
ĠRepublic ans
Ġsepar ately
Ġcre ator
All owed
Dest ination
ĠB uilt
Ġp atri
ol in
Ġarg ues
s ender
N ay
Sub ject
Ġpresent er
spi racy
lik ely
h or
ĠR andom
nes day
100 00
Ġaccommod ate
ll er
Ã§ a
ĠL amb
12 6
ĠHind i
17 5
Ġal ien
che z
ĠBr ussels
ĠNiger ian
S UB
Ġaff ord
Ġpass ion
Ġlaws uit
Ġqu adr
Ġque en
G T
ĠLegisl ature
; =
U int
Ġfor ty
Ġb atter
F ort
ĠBlo om
parent Node
i ens
Ġspec ification
ĠAn a
Un ique
prov ed
Ġ il
ĠAp pro
APPL ICATION
i ator
h art
ĠCurrent ly
Ġdiscontin ued
/ #
ĠPar ks
Ġreg istry
ĠSp ider
Ġflow er
ĠTh row
ĠD ig
car bon
Ġfunction ality
B N
v ik
---- ---
Ġl ie
Ġaccess ed
ĠO st
Ġconc urrent
att ing
Ġperform s
Ġd Ã©
il is
ites pace
ail ing
ĠS ymfony
ĠCelt ic
ĠA ch
ĠL isa
and i
ond e
Ġm ixture
n io
Ġstrateg ies
ch ief
Ġd iversity
Ġcult ures
Ġp unk
uff icient
Ġreview ed
nold s
Ġb ell
ordin ates
ax y
() [
A K
Nov els
For ce
ĠP aper
ĠFa ith
w edge
Ġh ol
ous ing
ĠM ang
Ġ/ .
Ġapp lying
om eter
Ġdo ctors
à ¹
Ġprevent ed
NG TH
C over
ĠPl atform
second s
ĠW inds
Ġthe sis
Ġph osph
ĠDis play
ĠGr iff
Ġrev ival
ĠEngine er
ĠBelf ast
subs cription
Ġ/ ></
ĠSc out
f ight
ĠĠ čĊ
ĠSh i
ibl ical
ĠU tt
ĠAl pha
" }
Ġ* ,
Ġlog ical
Ġon click
Ġinter vention
Ġb er
Ġf i
lv m
(" -
ild a
ĠLear ning
ag le
urs day
Ġalt itude
Al ignment
Ġgen es
F ri
Ġm a
Ġcomp ile
ĠD ob
ar ians
Ġimm igration
Ġgovern ed
Ġt emples
Ġwar fare
Bel g
L ab
h ind
Ġin equality
Ġg ray
ĠS pect
ĠC yr
ĠM aterial
ĠAll an
um ped
Ġlist en
FUN CTION
Ġathlet ic
q a
ĠK om
List eners
Ġnumber ed
uc ed
Ġwe ights
External Project
ĠCamp us
ĠH ait
dist rict
Ġd iet
Ġnot ing
F ront
ib us
Ġbel t
F rag
quest ion
Ġv in
Ġdis p
Ġret iring
Ġmoder ate
Ġh yd
Ġcommun ist
Ġexpl ore
2 30
Ġt ile
l ived
Ù ħ
C zech
ĠRod rig
E very
Ġexper ts
font s
ĠC ache
Ġch ore
St ates
le ston
reg istry
Ġrecru ited
ĠC avalry
ĠWood s
Ġvict ories
Ġdr inking
Ġhon ours
Ġm ilk
ĠS aw
Ġconfig ure
in ating
16 8
Ġbroadcast s
Any Ref
Ġdire ctions
Ġhypot hesis
et ter
ĠWarri ors
as ma
et al
ĠG ael
ĠBou levard
ĠR PC
ĠMar shal
ĠBel grade
ĠH ur
Ġbring s
Ġdiplom at
ĠD ale
Exp ress
Th ird
qu o
Ġm oll
al bum
Ġcomp lement
ĠS ize
Ġcoll apsed
Ġthread s
ĠArm strong
ou x
}} }
ĠProt ocol
STR U
Ù ĩ
ĠH aving
ĠPol l
ĠR T
ĠP orter
By Name
ĠDec ision
OR S
Ġob taining
ĠM oney
Ġan alyt
DOCK ED
ĠResult s
ĠHe ights
Ar m
Ġsnap shot
:: $
Ġen act
n st
Ġrecogn ize
Ġchalleng ed
B and
] -->
xFFFF FFFF
âĢ ¢
Ġgrad uation
am as
iers hip
custom er
ru ce
byter ian
T rad
. ;
ĠR ice
Ġadminist ered
Ġtheat rical
pe er
Ġair line
Ġtrack ing
um inate
Ġemp ire
us age
Ġcent ered
Ġunder graduate
n ick
Ġreconst ruction
Ġcut ting
Ġconj unction
d eveloper
Ġbo ards
ext ract
ĠFrank furt
m g
io let
Ġover view
place holder
M G
c ycl
Ġact ively
al ks
Ġ. /
à¤ ¾
it ic
ĠSp art
P aired
ĠHop kins
ĠA chiev
Ġh i
Ġquarter back
cr umb
Ġs ensor
ĠFern ando
ĠExped ition
Ġs le
IN DEX
C ath
uls ion
Ġp ipe
ilib rium
Ġsh allow
Ġtarget ed
to LowerCase
Ġp ap
dec oration
Ap pearance
ĠV AR
ĠTw enty
Sec onds
ĠPo etry
00 5
Valid ate
J s
asc ade
Ġv ec
Constit uency
cf c
ĠField s
Ġrender ing
sh ore
Ġmain land
ec a
Rep ly
V ir
work ing
ra ils
ĠHe aven
ĠN as
rac ing
Ġj ew
Ġqu oted
ĠV eter
ic ul
Ġalleg ations
2 10
ĠTri ple
ring tone
ĠKenn eth
ĠB uffer
Ġreve al
M X
ĠPolit ics
act iv
N OS
om ed
bad ge
Ġag gress
Ġd ol
ĠEvent ually
hab ilit
F oo
ĠSm art
c ategories
\ }$
Ġperman ently
int ent
Ġexam ination
N L
ri x
Bur ials
Ã¤ r
Ġtravel ing
M i
ov al
Ġadminist rator
R ot
ct uary
Ġfif ty
Tur k
ĠCh rome
Ġ' ')
Ġsl ice
ĠC av
Ġre nown
ĠH ir
Ġto ll
Ġdel iber
oy le
B asketball
ĠN acional
ĠE g
ĠR ut
Ġaf ternoon
æ ī
ĠT ennis
Ġdem ocracy
b ital
ĠEnt ry
c mp
pre view
Ġbelief s
Ġto m
ĠO z
Ġsp okes
Reduce Action
Reg istration
f ar
k le
P ipeline
Re q
ĠAh mad
Ġcalc ulation
Ġconvinc ed
ĠS ep
ĠPl anning
Ġbreed ing
Ġ" (
Ġadvoc ate
" </
N atural
Ġout line
Us ername
Ã± o
prec ision
ĠChar ter
ĠESP N
Hung arian
12 9
al igned
P rem
ĠD uncan
Ġprov isions
Ġmass es
ob s
T oday
Draw able
ĠD ir
Ġkil ometers
Ġt rick
Ġd rain
ĠW ool
s ized
ĠA ub
ĠD CHECK
å º
Ex amples
s With
é ĩ
it he
es ar
re ement
Ġeng agement
Ġc rypt
Ġmat hematical
B ot
Nor wegian
ĠC u
Ġrock et
Ġs ick
ĠR oot
ex isting
ex clude
Ã¡ l
Ġtele phone
ĠCan terbury
ĠG em
18 31
Ġra id
T em
Sl ice
Ġtouchdown s
H ide
Ġt issue
ĠVAL UES
ĠYan kees
Subs cription
C ookie
Ch unk
ä¸ Ģ
ĠAndrew s
ĠGl ass
l r
18 33
ĠEx amples
Meta Data
Ġopt imal
Ġcor on
at z
Ġqu iet
ĠNob el
ĠG overn
es ch
Ġhand ed
Ġl ights
ĠK urd
ĠBl ake
AB ILITY
ubern etes
add le
R o
ĠPow ell
PREF IX
ack ed
Ġsuccess ion
P icker
ĠBa iley
iss on
Ġsuggest ing
oca ust
ĠM ull
n able
Ġdiscrim ination
k al
Ġm s
Ġconf used
Per cent
v card
ĠJul ia
g ang
Ġblock ed
H uman
Ġd t
f lix
h urst
ĠNever theless
Ġhydro gen
ĠB ark
und ers
he ws
ber y
V ariant
Ġcan n
ene ath
ĠP ink
Ġcommit ment
im i
c ats
P ier
Ġs ends
ic it
Ġb ats
Ġn ested
found land
ĠPalest inian
oxy gen
g ression
an che
Ġpr imitive
Pr imitive
p k
the ad
mult icol
Ġprov iders
ĠAb original
Ġdiv or
Ġalleged ly
Con struct
Tr igger
pref erred
over lay
Ġpay ments
ien ne
Arch ive
Ġ um
ĠNe ed
Ġabs ent
app ings
Fellow s
Ġnot ify
for ge
Ġeditor ial
W ild
[] {
ac er
NotFound Exception
ograph ers
ĠChe ss
ĠP M
Ġsu ite
j ud
Ġth rew
ul er
Ġ' $
V erb
//////////////////////////////// ////////////////////////////////
ĠCh o
L ead
ĠLux embourg
C ould
ĠT iger
Ġch apters
ĠEston ia
Ġcat hedral
tab End
Ġwrest ler
* >(
as ide
ĠA my
Ġcoff ee
ĠQ String
Ġgener ations
ĠFellow ship
Ġb rew
ist le
16 9
Equal To
a uc
Ġfl our
Ġint ense
Ch ief
ĠE lection
ip zig
ĠMar in
Ġx si
Ġo scill
Ġmer ely
. ).
Ã ²
"> Â
nt on
Ġcl ause
ĠF iction
Ð¾Ð ¼
ec ycle
ric ulum
yl an
ĠNad u
ĠL oss
ĠW ak
Ġle x
bul let
ĠSt orage
ĠParam eters
Ġa ster
ic ism
n pm
at ivity
Ġjud icial
ĠNot es
ĠĠĠĠĠĠĠĠĠĠĠĠĠĠĠĠĠĠĠĠĠĠĠĠĠĠĠĠĠĠĠĠ ĠĠĠĠĠĠĠĠĠ
Ġcho ices
Ġsax ophone
am med
Dist rict
un its
ĠAn imation
size of
LIN K
ĠHigh land
put es
idel ines
ĠCar lo
b u
ĠInspect or
gener ic
n l
ator ies
Ġs i
' ):
1 19
st ead
ĠSol omon
Ġstrong er
Ġout come
z ier
With out
Ġinter cept
Ġst olen
Ġrefer endum
Ind ia
multicol umn
å Į
f uture
Ġre vision
Port ug
ĠA ri
foot note
M id
Ġpro l
Ġd ot
config ure
im mer
n ai
Ġhe ir
ge ometry
reg ex
enc il
Im ages
go al
W ashington
ro us
L es
Ġexpand ing
G ateway
Ġ} \
Ġcolon ies
all a
ĠR ole
Ġrap per
ol ate
ĠV ers
Ġs print
ĠId ent
Ġs weet
Ġr c
in ator
ĠFilip ino
ĠGeorg ian
An chor
Ġfair ly
_ [
Ġcr ashed
Ġbor row
Ġcap ita
qu in
Ġsub str
Ð½ Ð¸
St udio
R GB
ĠAdd itional
% ),
Y ea
Ġpl ates
ĠRichard son
u pe
ĠPr iv
Ġfollow ers
Ġl ig
ĠC C
ĠK w
Ġprocess or
aw i
ĠCa uc
ĠRol ling
ĠB iography
Ġkill s
Ġinf ection
ĠWrit ing
Ġsculpt ures
zo om
Ġknow s
fo x
s ame
Ġmain tains
Ġj ail
sp ark
Ġgener als
Ġmechan isms
P D
Ġf ame
Ġvar ies
F ix
linked ExternalProject
æ Ŀ
ĠX I
Ġsim ulations
ĠEm ma
, </
Ship s
ĠUn less
Annot ations
P TED
Ġs el
. -
Ġp ill
Ġlo ader
pack et
ĠF erdinand
Ġup coming
b id
ĠP ly
ĠP irates
neg ative
Ġfre ight
ĠHend erson
Q t
alt ies
Ġm ature
Ġreb ellion
O l
Ġown s
ĠF ut
M AN
Re ceive
ch air
27 0
For ward
H ex
Ġgu ards
Recorded Vote
D eb
Ġb out
ĠH aven
Ġmurd ers
r x
od ia
Ġperform ers
Sh ift
Municip al
Ġmut ual
st ation
Ġdist ributions
ĠB anks
W ire
Ġh oles
ce ased
( []
Ġsus pected
Ġbeat en
Histor ic
[ -
ĠW orth
linkedExternalProject Path
T urn
Ġdem o
c ue
ĠS ed
log ical
ĠN ortheast
Ġprom ised
Ġs v
Econom y
raz y
flu ence
w m
Ġph on
R IGHT
V EL
is cal
ĠQ ing
T ele
default s
Ġexpl oration
cript ors
V ictor
Ġeng age
ot hes
ĠH od
ĠCol in
ĠS qu
ĠSurre y
14 5
text area
RO W
Com b
h ra
ĠCh oice
om al
g p
B rien
Ġr iders
Ġfriend ship
à ®
ot er
St mt
af ka
ĠOs lo
t le
Ġind irect
ĠLes lie
S ym
33 3
mult ip
C MD
ĠEp iscopal
Î ³
il ion
s an
Ġa u
Ġoutput s
Ġwrest lers
Ġserious ly
Ġaver aged
Ġim posed
Un able
Ġf irms
Ġtro uble
ĠI sh
ĠPrinc ipal
re ach
ord ination
ĠWy oming
opl us
Ġl t
g rand
l c
Ġphenomen on
ell ers
Ġsc andal
Ġant icip
Ġyield s
Part ial
Ġw elfare
Ġsh ots
ĠX X
****** /
er ious
Ġd ogs
P ub
ĠNew port
Ġc amer
C orn
ar ms
ĠGer ald
Ġbeet le
st a
ĠK urt
Ġachiev ements
Ġpsych ological
Â »
ric a
D a
Ġm k
aus es
Treat ies
Ġas h
ĠS OF
H D
Ġf inger
ov y
Ġcul min
? )
ĠCal gary
ĠP or
ĠTest ament
ĠL odge
Ġphil anthrop
ĠRobert son
hand ed
ĠL if
sign al
b t
Ġa uction
Ar r
F ROM
ak o
lo ating
ĠEx cell
~ $
St yles
Enc oder
Conn ector
TO OL
fortun ately
ĠParam eter
ĠFight ing
ĠSlov akia
ipp et
Ġl ambda
T ITLE
ev o
Ġarray s
Ø§ Ø
[ (
ĠP Ã©
ĠTan z
ĠR ush
Ġte eth
m ud
kin son
C ycl
ĠSlov enia
ĠGi ovanni
Ġhead quarter
Ġadv is
Back up
Ġfoss il
Ġg rants
] >
TE X
L R
Ġmag net
Ġsur prise
Ġimprison ment
Ġjo ins
Ġunder went
Ġevent ual
ĠGib son
">( </
Ġprison er
Ġtorn ado
h ops
pe z
CH AN
Ġdiv orce
ĠA ug
Ġcle ared
g ui
ĠCl if
on omic
ĠLud wig
Ġb read
Found ation
ĠU ntil
Comp et
oc hem
SD K
Ġencour age
I ts
Ġdemand ed
ĠFif th
ĠD epend
Ġhand les
Ġdepend ence
at iv
ĠDev il
row se
ĠT EST
Ġexecut ives
18 14
ĠS ons
ĠC ell
Ġcont rad
ĠE state
Th an
new command
unt ary
Ġ(! (
Ġb ull
am bo
Ġst abil
anc a
Part s
Ġal phabet
MS earch
ĠAlb anian
DITION S
op ing
Ġex terior
(" [
ĠPublic ations
ĠCO MM
ĠH es
Ġend ings
Ġmyth ology
Ġex ile
ĠPop ular
------------ -
p od
ĠL omb
Ġcheck ing
Rel ated
ĠL ok
Ġsurviv ors
re ne
oot ing
On line
} "/>
Ġdiscuss ions
Ch at
ĠNik ol
Ġman ifold
ant om
e o
abul ary
h uman
Ġcub ic
ac l
ĠCh ase
Dan iel
R atio
Ġel ite
CC CC
Ġrout ine
E th
t uple
Ġl umin
ht ra
date picker
Ġinvestig ated
ĠLiber ation
PA SS
ĠInst all
Ġimprov ing
m ma
Ch oice
0000 0000
ĠLore n
Ġm ast
Ġg aining
FRA ME
Ġneighbour hood
Ġl lvm
iÄ į
Ġdesign ers
ĠS chema
ĠP rec
18 25
Ġkind s
in ks
Ġth orough
ro zen
ĠT ul
z ing
ĠBened ict
ĠHe at
ĠEug ene
// ----------------------------------------------------------------
Ġ Âł
ĠG ol
add er
Ġspecial ist
inher ited
pow ered
Ġche st
ĠCo hen
g est
omet own
Ext ract
18 28
Ġenc ryption
ĠF erg
ĠSer ie
Ġnot ion
Ġper pet
ĠMet al
ĠM iles
Ġat om
ĠBAS IS
Ġw arri
col m
Author ization
G ROUP
s z
Ġcons ent
ĠGener ation
Ġsever ely
Ġrenew ed
Ġmem or
Ġimm un
S a
Ġmat rices
Ġachiev ement
Vari ables
. ');
ĠSim pson
Ġsph ere
Ġfa una
ĠSch olar
F D
G reat
ah u
ÐµÐ½ Ð¸
Ġinv olve
ĠR as
ĠH ack
ĠBry an
Ġe at
ĠH arm
Ġcro ps
ĠC ann
short cut
+ -
is se
G uid
) '
w y
al an
Ġconf erences
stat ement
n ov
Ġdef ining
Az ure
Ġcitizens hip
if rame
F IL
b ounds
18 29
Ġre actions
Ġd ancing
ab lo
Ġcan onical
Ġactiv ated
ĠWag ner
k ok
List View
ik es
Ġinv oked
Ġfall en
Me asure
u ity
Ġ' ../
Ġsail ing
Ġh ierarchy
Ġthreat s
or acle
Ġ$ $
ipe g
ĠÂ ©
Ġderiv ative
ĠMax im
ĠCath olics
conf irm
ĠY a
BU FR
Ġthir teen
Ġon wards
T oggle
SET TING
H orizontal
ĠC ut
ĠF ixed
ĠP S
Ġ( );
=" <?
Ġcompris ing
ug a
ĠB CE
Ġg a
ĠM otion
Ġlock ed
Ġp ump
Ch ina
Back end
Ġprelim inary
ĠPre vious
ĠBund es
Ġstation ed
k ers
ĠM ing
ĠBrad ley
ĠS hen
Ġh ang
stad t
Ġqu ad
z el
ĠInter state
n m
Ġp index
ip ur
Ġc er
Ġcelebr ate
Ġdemonstr ate
Int o
æ ł
ins k
ĠLuther an
neut ral
ĠIP v
uzz le
Ġexplos ion
18 24
Ġ-- -
ĠCr iminal
mun ition
W C
ĠAdvis ory
ĠContin ental
S UP
ĠG ET
ge om
Ġcirc ulation
Ġrele asing
Ġby pass
Ð Ł
on el
le ys
ĠAdvent ures
ĠA x
Ġde als
Ġrevolution ary
Ġalter ed
Ġle ase
ĠSOF T
Ñ Ħ
ad al
ĠKing ston
Art icle
<? >
Ġkw args
Ġs aving
Ġdies el
amm ad
Ġm aid
to kens
Ġd ock
Ġprofession als
with out
Y S
P et
Ġp our
K EN
sl f
." ;
< \
ĠI stanbul
Ġst ellar
Ġreb ounds
Ġserial ized
ĠBut ton
d ating
m acro
ĠR ib
Ġcons ensus
Ġhelic opter
ĠSim ilarly
L ang
S um
IE W
get Text
Ġvar ied
Ġ ur
ĠB rowser
ĠCr us
End emic
ĠSh ir
ĠCom plete
ĠJ i
Ġment ions
Ġguid ance
Ġd jango
ĠWrit ers
Ġhe ter
ĠHe ath
process ing
remove Class
ĠCom bat
Sign al
ĠMem phis
help ers
ĠRey nolds
STRU CT
Ġvar ieties
ĠCh in
Ġind oor
ĠC ourse
ul ative
t ex
ĠL A
m ile
ĠT ampa
che m
M att
Ġgoal keeper
log ue
ĠCON DITIONS
ay e
Ġs iblings
Ġst eal
ok ia
ĠR iv
in verse
ĠStaff ord
ĠAntar ctic
wh at
H a
en es
Ġbur ial
ib ration
Exp and
Ġupgrad ed
ĠM uk
ĠN ATO
Ġk ings
ĠD id
13 2
Ġeduc ator
Ġlight ing
inv oke
Rep resent
Ġrob ust
ĠN ormal
Ġdisc overs
j oint
s leep
Ġbe ars
cha ft
P ad
> ');
p el
ĠA I
ĠG ir
b read
Ret ry
Ġinitial ized
ĠIm m
Ġsym metric
ant ics
ĠFranÃ§ ois
sl ot
(" <
ant o
ĠE RA
15 2
Ġmyst ery
ott a
Ġtalk ing
subset eq
ĠAgain st
ĉĉĉĉĉ Ċ
ĠP ars
Ġbusiness people
Us ed
ĠClass ical
ĠAlb ania
ĠB ee
Ġd ens
x ref
ĠEm my
re ports
ag ne
Ġround ed
t ransp
oub les
Ġiter ation
Ġprem ier
Ġfl av
Ġrefer enced
ĠSOFT WARE
d evelop
asc ar
ĠN intendo
É Ļ
ĠAt omic
Ind icator
Ġo w
f illed
ast ed
Ġcruc ial
Write Line
ind ices
V T
Ġspecim ens
ĠGl enn
Ġsm allest
p f
Ġpl ural
Ġun ve
Oper and
Ġlocal ities
Ġdoub t
ical s
String s
Ġsurv ival
Ġserv ant
e ur
ĠInd igenous
p olit
Al ign
ĠCard iff
ĠMaced onia
ess ment
ĠAd ult
v iv
15 5
Ġlob by
ĠCam er
Fig ure
port folio
ĠAnd ers
ern er
Ġrenown ed
Ġaccept s
ĠConstant in
Ġover w
R oom
ĠV R
So ftware
Town s
C ultural
ĠCatalog ue
ĠE k
Ġvolunte er
ĠL etters
ĠInter face
ĠTy ler
ACCE PTED
C y
St d
ĠChel sea
ma jor
Ġf ires
Ġdist ribut
Ġrep o
Ġagre ements
s ock
/ '
Ġw ore
p ent
car ousel
Ġc uisine
ĠGu itar
Ġpost hum
enz ie
Capt ure
ch annels
utt le
Ġa z
Ġo v
l ore
ĠB ug
ĠEv angel
Ġmod ification
thread s
ĠGlob e
Ġret ry
Ġconvers ation
Ġcol ours
DE LETE
im ming
---- -
ĠH alf
ĠP iano
aw k
u o
ĠAnd rÃ©
Ġkil omet
Ġ ../
Ġ\ ;
Ġfour teen
Ġconsider ation
all i
over y
Ġc c
Ġhost ing
ĠT ales
ĠM ET
it Ã©
ĠCh al
Sw ift
ĠHead quarters
Ġse ar
Ġbi ology
ĠA UT
ex ceptions
Ġperson ally
ĠBas in
ĠBrad ford
dest ination
ĠA FC
Ġdem ocratic
Ġsole ly
m f
ar in
ĠC ou
G iven
ĠOr lando
Ġh alt
De ep
Ġconcent rated
ĠGen eva
Ġin coming
Ġd ump
ĠK ot
ĠBar b
App ly
Ġremember ed
H om
} &
ol utions
ĠD um
Ġtransl ations
U Int
AME TER
S amples
Ġpro spect
Sc heduler
Ġl engths
Ġz ones
Ġtack les
Ġch ronic
ĠMat hematics
ar re
m ust
Ġa est
ĠTr igger
Ġviol ation
cest ershire
histor ic
ĠâĢ ¢
ĠT at
w ave
ĠK ab
ord inary
y aml
Ġch orus
std err
ĠBed ford
ĠPl at
Ġtrigg ered
ĠPhys ical
m any
im ity
ĠRe id
Ġar ithmetic
ĠH urricane
M argin
Ġse ized
Ġsumm ar
Ġschem es
is le
Inter op
pos itions
LE NGTH
Ġtransl ator
ĠLe op
Ġ ÑĤ
Ã¡ r
ĠCall ed
Ġrel ax
S heet
Dependency Injection
if ax
ic ers
ĠSh ore
Ġrestrict ion
ad h
ĠP ep
tern ate
Ġmin er
N ested
ĠTh an
Ġex ec
Ġliter acy
m art
s ix
Ġpsy chiat
Ġenzym e
k ill
ĠCl in
Ġf reed
we ak
miss ing
Ġinsert ed
atern ity
S N
plic ity
Ġhash Code
add EventListener
Ang le
atri ates
ac les
ĠN A
à ¬
Ġin duced
or ate
li o
col ors
inf all
ad ors
re ply
Ġcom plicated
ĠG ul
ip per
13 1
P rec
ĠK ind
Ġconsequ ences
we ather
... ]
if a
Ġcall er
Prot ected
ĠKe ep
Ġaccompany ing
B ank
sub str
Serial izable
ĠP ir
123 45
ĠDis covery
air y
13 7
ĠF eder
add on
s he
^ -
ĠL av
Ġnom inee
Ġnational ly
Ġ$\ {
Un its
ĠFras er
c ro
M ean
ĠH els
op rano
x f
Ġreal m
um ble
ĠAg ent
Ġdeep ly
Ġemer ging
L os
ĠA ircraft
ĠRet rieved
AR CH
Ġph ases
av atar
Ġneighbour ing
at aka
serial ize
ip es
Sh are
ĠForm at
e per
Ġcollect or
ol ith
Ġcl ay
C odes
O rient
S on
Ġb ag
Dis abled
Ġaud iences
* >
ae a
ĠMor rison
rid or
ĠV III
Ġnatural ly
Pre p
g overnment
Ġconduct ing
Ġinvent ed
Ġst aged
Ġco okie
ee per
if ference
go og
Arg entine
so lete
Ġinter rupt
S B
ĠCon structor
Ġs word
ĠAmeric as
FLA GS
H idden
Ġspec ifies
ar is
amb a
Ġcomb ine
as ets
Ġor al
18 26
mer c
ffff ff
Ġpun ishment
input s
inter action
j iang
Ġ- &
Mod ules
Ep isode
ĠK ann
R en
ĠN C
M ic
Ġun w
her o
ĠLuc y
($ _
ĠGu atem
ĠH ull
Ġ$ |
ĠGram mar
get Key
ĠC WE
pre vent
ĠCommun ication
} `
Ġc ss
Ġtow ers
ĠL t
ĠInter ior
M il
ot ypes
ĠC i
Ġreb els
Comp leted
s elling
pl oma
oid es
window s
TH ER
CON ST
Ġsp y
ur red
ĠK ang
Ġloc als
ĠB ound
Ġmay be
st orm
pay ment
ĠR ican
Ġst ones
valid ator
Start ing
ĠSe qu
30 4
Ġ[ {
ĠInstit ution
B LOCK
ĠBo eing
ĠU SE
ĠD ATA
ĠÐ ±
erg i
wall paper
ogene ous
Ġen ables
Ġs ig
Ġcon quest
ĠW H
Ġr ally
vis it
Ġoccur ring
in ar
Ġcalc ulations
ĠMar sh
F ake
ĠP ool
! ,
ĠL ey
Ð° ÑĢ
H int
W ood
ĠAr d
M u
m ne
re verse
18 21
CL I
ĠCurt is
ĠPres byterian
ĠCh ad
ĠEnter prise
ĠH off
Ġcomp ression
ĠI C
Ġwhen ever
Request s
Ġo c
ĠPrest on
}^{ -
ĠB ran
Ġ// !
omin ator
ĠD j
ERT Y
ĠF an
ĠV ale
Ġs hed
ĠN in
play back
Ġprot agonist
Ġquant ities
ĠLeg al
Ġav ailability
Ġscreen writer
ĠColon ial
i q
ĠH ab
ik er
Ġsix teen
ograph ies
ur ai
Ġdraw ings
Ġ utils
Ġcollect ing
New s
NO TE
G raphics
que z
Ġmarg inal
M AC
ric ia
atab ases
Ġstrict ly
ĠEm ily
ĠL il
ĠAlb any
Are Equal
eg an
Ġpract ition
Ġalloc ation
ĠAchiev ement
Ġref lection
ard e
Ġmet all
Ġconsult ant
b age
ĠE N
ĠMar ÃŃa
Su ite
f ootball
ĠRh ine
Ġeval uated
Ġtri o
Ġbank ing
z on
14 6
ĠD und
Project s
ard ing
Over lay
ĠBurn s
ĠM ade
if les
ĠG C
Am ong
Ġwe aken
Ġadv isor
ĠAg reement
ĠV iv
Ġ( $\
Ġg rain
Th reshold
Ġmeas uring
PRO TO
ent ities
ĠSpe aker
ĠP ush
ĠLy on
ĠS Ã©
V ers
Ġm ic
Ġprov en
Head ing
Ġt ou
Ġ( <
T ensor
m us
=" {
F at
es a
ĠR achel
TE GER
MA KE
vari ables
f act
In line
Ġacknowled ged
* .
amp ed
Ġinvest ors
v ae
Ġplace ment
ato es
ĠLe ipzig
ell ation
ĠF BI
18 10
ĠN atal
az el
ĠUSS R
ĠNew foundland
Ġter rain
C tx
ĠEll en
imp lementation
am on
Ġw ake
18 18
Att empt
y u
Ġback ed
Ġh ind
Ġequ ally
ĠTrans action
ĠW end
Ġjournal ism
ĠH i
ĠF emale
Ø§Ù Ħ
ĠCom ment
Ġexp atriates
ĠS olar
Ġas p
Ġmon uments
T ick
mid t
ĠIm Gui
ĠAd rian
Ġpay ing
Ġcap ability
ĠD ew
ĠEd monton
ĠM ob
Ġun employ
ĠAber de
to ok
Ġtorped o
Ġdisappe ared
Ġ(! $
ĠL az
Ġt ale
ast ore
ĠDirect ory
M useum
Ġa er
Ġa erial
Ġmission ary
Ġp icks
Ġcomput ation
ĠA way
Ġwatch ing
i ary
Ġdi ocese
Ġlect ures
Ġinv erse
ĠNap les
ĠD ong
r il
ĠMar l
if fin
Ġprest igious
ĠK ad
per ature
Ġh ull
LE VEL
Ġpropos als
ĠR ica
Ġdom ains
ĠIn it
ĠBat man
he e
Ġ" ")
ogn ition
Ġproport ion
ĠMar cel
Ġpred iction
ret val
Red irect
ab ol
ĠFl ash
ci pl
ĠSe oul
at ics
ĠL enn
amb ia
j as
Ġd y
L i
ĠSt rong
ĠD ialog
enn ium
comm ands
Ġpolynom ial
C atalog
pr ised
Ġir regular
IT H
Ġâ ĪĴ
Ġs lope
nav Bar
ĠNot re
ik ing
Ġc s
n orth
M us
ĠB ever
AT URE
ĠBur ton
Ġprec ise
sh an
Y es
ĠM ale
Ġincre ment
Ġre construct
ĠCarol ine
-> {
af a
Ġpra ise
ĠR ifle
Ġartifact s
ody nam
ĠIll ust
ĠHug o
Ġtr unc
Ġfar ms
ĠB alk
Ġorder ing
ĠI BM
render er
aras htra
Ġserv ers
ues day
ĠCap itol
W ARNING
m icrosoft
Ġrel atives
ĠPar agu
Call ed
Browser Detector
gen re
Ġmanuscript s
m ot
screens aver
al ions
ri ans
yl um
icy cle
rest rial
Ġsl avery
Act or
ip el
em in
lim ited
m ysql
Ġ$ ("#
ĠA FL
Ġdivor ced
[ <
Ġen listed
i ad
t el
A rab
G al
s By
um en
ĠPubl ishers
Ġdepos its
ĠPly mouth
Ġex cluded
ĠV oc
ne apolis
Ġresearch er
if iable
Sw iss
ĠL ayout
Ġh o
U V
an mar
13 3
LO AT
Ä Ĺ
ĠIn g
ĠSt rat
0000 000
l ists
Ġcompar able
or ian
Ġv oyage
rit z
Ġdec ode
ĠA V
ĠU z
G a
id an
is odes
Ġp ink
ad ic
Ġmod ifications
t emplates
ĠE ve
c ourt
Co ord
Ġvo ices
Ġhe m
Thread ing
NOS CRIPT
Ġcop ied
ov i
16 6
Al gorithm
hl js
st mt
ĠS event
Ġmer c
ĠSab ha
el ong
list en
id ay
Ġf erry
Ġwithd rawn
ĠC over
Ġarg ue
m ine
ĠA j
Ġcontest ants
Ġpro sec
Ġc ategor
na issance
ĠWork ing
ath am
26 0
ĠS isters
Ġsudden ly
ros se
Ġoptim ization
ĠH IV
Ġc ele
ĠBas il
ĠH ave
Ġid s
ĠJenn ifer
orient ation
um ption
ps y
ch in
Requ ire
Ġâ Ķ
Ġrec ruit
sm ith
or ers
le ading
ĠMil ton
LE S
Ġp tr
ĠK iss
18 01
m aml
oz a
Ġaccord ance
DI RECT
Ġinhab ited
ĠRequ ired
Ġlearn s
Ġthe olog
S i
ĠH ood
ante ed
Ġvis itor
Ġh ometown
er ical
ab ar
Ġvolt age
ĠBur ke
"/ ></
Ġat oms
Ġenh anced
ĠEd it
job s
Ġweb sites
ĠJes se
ĠK ids
ĠEthiop ia
ep pe
mod ified
Debug ger
l uc
ĠI g
Ġsh aped
B oot
ĠNapole on
Ġa ug
cl ub
Ġdub bed
ĠH ook
Ġpurs ued
ĠLyn n
m inton
Art ifact
ian e
stit ution
TO DO
* {
Ġre pro
ĠPl aza
ĠEx per
Ġdoctor ate
ĠD ocker
T ables
op a
C lip
Ġen roll
Ġcir cles
ĠZ ero
Ġmir ror
L ev
uff le
ĠWe ather
ĠEv ents
ĠAlexand ria
Ġ& =&
Ġc ov
ĠR ever
MA SK
I ES
te ch
ĉ ĠĠĠĠĠĠĠĠĠĠĠ
Ġl ung
ĠBarn es
ĠLind a
ĠM B
ä ¿
ĠAn at
ve ill
ĠExt ension
ĠV ij
Ġnation wide
Ġv ault
iv ot
c atalog
Char acters
abs olute
ĠD w
Ġconv ey
Ġflo ors
Ġl ux
un ar
Ġob sc
B ir
se at
ĠE rr
h on
ĠC ool
ĠB j
---- --
ĠP ere
HO ST
Ġc ock
Ġrem n
Ġdist ances
Ġrepresent ations
. &
Prot otype
æ ³
P reference
ĠPal m
ĠRec ording
ĠLiter ary
Ġstri king
ĠF loat
V el
Ġpar ad
ĠÎ ±
Ġreven ge
ĠReg ulations
ĠV id
14 3
ĠD I
ĠDocument ation
Ġcomp anion
Ġpres ervation
Ġb arrier
ĠAlger ia
Mart in
odd ess
Ġpup ils
ew idth
g row
Ġf rust
Ġh oped
Ġtransport ed
ĠBav aria
og an
ynchron ous
Ġheadquarter ed
k k
n h
ĠK aw
Ã¡ ndez
ĠÐ ·
Ġ è
v ing
ç ½
od ot
Ġatt raction
TR A
t ables
ĠSher iff
ĠHar bour
ĠM aid
ĠC anyon
Ġtr am
ĠWes ley
to o
d agger
ĠDet erm
ĠHonor ary
ĠA sp
Ù Ħ
ĠB ronze
ur ities
ĠMar ion
St an
ĠEston ian
Ġliter ally
Ġra pe
ĠCont ainer
( @"
Ġpregn ant
ĠUtt ar
Ġop am
Te ams
Th rows
Ext ended
ĠBir th
U pon
ĠC anton
sm outh
ifest yle
ĠM LB
00 2
Ġnow rap
Ġconsid ers
Ġbe aring
Ġpres idency
Ġs ock
M ixed
c odes
Ar c
ĠW i
Ġ' </
18 13
Operation Exception
Ġad apter
m ons
Ġinter im
ĠAgric ultural
Ġan ch
Ġk nee
Th us
Ġep id
37 5
ĠG an
Ġhon ored
Cl imate
ĠEd gar
Ġcongress ional
et les
ĠH iro
ĠMidd les
TR ACE
20 3
Ġp ag
un al
Ġru ins
ĠRos en
Ġbox es
Ġcompens ation
let te
pro ducer
Ġc um
ĠR az
Ġswim mers
Ġar row
ĠS F
Ġball ot
ĠSet tings
Ġpriv ately
2 25
ĠR ag
Ġmathematic ian
ĠI z
T l
AR K
erm ark
Ġdraw s
ced ure
Ġlect urer
Ġsup ers
Ġr ivals
ik k
Ġaut umn
sp ot
est y
13 8
C ert
ĠK aren
Ġ| \
Ġsoutheast ern
Event Args
Ġz oom
LO B
und les
Ġm all
Ġcon gregation
Ġw ww
sw er
ĠH AL
u ent
ef ield
ĠAr ctic
itt ers
He ap
MA IN
Ġcolon el
has OwnProperty
Ġen larg
> ';
ed uc
F ee
ĠWh y
ĠSem inary
en ario
text tt
Ġsufficient ly
ĠMc Donald
Ġperform er
Ġpar ishes
Ġfe els
Å ¼
ĠP ret
Ġcon qu
Ġbatt ing
Perm issions
Ġm esh
le en
en za
ĠCh uck
log ic
D AT
en ic
ĠR oc
an alytics
us on
Man ifest
Ġord ained
c in
Ġl ac
ĠR uby
part ition
Ġdecre ased
il ateral
are l
99 9
illi an
Link ed
m ology
s il
Ġterrit orial
Un mar
Im g
Ġreason able
ĠHol ocaust
Cre ation
Ġin gred
I BU
ĠEx tra
navBar Cell
ĠU FC
ĠRem ix
ch urch
Ġfar mer
ĠI de
B attle
ĠC T
aint ed
PT ION
Ġanal yst
ter min
Block Index
Ġcertain ly
Ġpreced ing
Ġw arnings
ĠMy anmar
Json Property
p d
Ġl ens
conf irmed
ĠD eg
Ġmolec ules
ĠK yle
ob ar
ĠX ml
ĠD ow
Ġfe es
w ald
Ġatt itude
Ġrul ers
cles iast
Ġbet a
ĠF antasy
p arsed
Ġra infall
on ne
ĠG O
CL U
Ġthe ology
18 22
ĠAr senal
Ġconf usion
ĠD ynasty
Ġret rieved
und o
Ġev ident
Ġfl uct
Ph ase
Re ceiver
ST RE
Ġtrav elling
Ġfrequ encies
Ġp ad
ĠÄ Į
ak k
B tn
ĠH ern
0 100
Ġlocal ized
Pr iv
IR T
Ġsc aling
g ae
ĠSerge ant
eh icle
ĠApp end
Ġrecon c
Ġc otton
ĠO THER
f ee
ĠWinds or
Ġf ran
Ġsearch ing
ĠKazakh stan
ĠElli ott
ver ts
Ġline up
mult iple
Ġv ital
control s
() `
ĠCar roll
Ġz ip
am ine
ĠP arent
Ã© d
at ro
ĠTh ings
ch y
Ġch ains
> /
T i
ĠParliament ary
C V
th an
Ġburn ing
Ġun clear
La unch
ĠBud apest
A st
ĠS v
ĠBright on
Ġqu it
es cope
Ġdec imal
s al
ew ard
ĠProgress ive
veill ance
ĠH ert
Ġdis orders
ĠS yntax
Ġw reck
ĠD ud
Ġwh atever
Ġdram at
ĠSil va
ĠPos ition
Ġreli able
Crit eria
oci ated
eb e
Ġw are
on o
Ġc ant
he y
pers istence
East ern
et z
ch arts
dim en
Perm alink
ĠB uc
15 1
rom ag
K h
ĠAz ure
Ġmand atory
ov ld
A meric
ĠT roy
ĠB end
Ġdis pers
u cl
inner HTML
ĠBol ivia
le igh
eg u
ĠC ly
Ġproject ed
Ġmark ing
Ġbe er
Ġc ryst
ĠJane iro
T ARGET
g overnor
Input s
) &
ĠV ision
Ġd ella
ĠPer iod
L ee
ĠK end
CON NECT
ĠÅ ģ
sub title
ĠMin isters
Ġ" --
Ġmass acre
D igital
y g
ev es
IBU TE
** *
Ġfavour ite
Ġtest im
sl ug
ĠObserv atory
au f
ĠSant os
mar ines
Ġ/* !
æĸ ĩ
h ibernate
ĠDev ice
r ÃŃ
ĠJ ur
init ely
ecess ary
ink i
Ġl aser
k rit
ĠCop a
er ent
Pl aces
Ã© l
ĠChile an
ĠL ah
port ion
Ġprepar ing
S PE
n is
Ġwhe els
ĠBel le
st en
Ġb eneath
Architect ure
Ġt et
ob iography
in formation
up p
ĠAnd rea
en ary
Second ary
ĠÄ Ĳ
You ng
ĠM ove
Ġl ying
Ġmotor cycle
= </
im edia
20 2
re nd
Ġp arsing
s izing
Dispatch er
head ed
ĠCoal ition
Ġin sects
ux er
ĠTri p
ĠBey ond
$ ^{-
Ġprompt ed
Ġrom ance
Ġadvert is
ĠThe me
Component Model
ighth ouse
UP DATE
ĠQ t
Ġuncertain ty
ir ie
Foot notes
> -
ĠW inners
G reg
Ġam munition
Ġsupp lement
Ġbut tons
b etween
ival ent
Ġshould er
ĠGust av
Uk rainian
Turk ish
Ġ= ================================================================
Ġ{ })
Fil ename
S IGN
Ġf ate
ĠT ransl
ag ascar
Ġterm inated
Ġspect ra
Ġcritic ised
Ġthe or
x ilinx
Car l
Ġpert urb
W inners
Ġrad ial
oper ating
sw orth
Ġcompos ite
Ġ' {
ele ased
ain es
Ġagre es
f und
Ġcon sec
J on
Im mutable
ĠSte am
ENT ER
ĠZ end
Ġtri angle
Ġphys ically
AND LE
Ġdef in
Ġf ru
M icro
ig raph
Ġdev ast
Ġdo ctrine
Ġcorrespond ence
ia e
ertific ates
ĠH MS
18 16
Pro ducer
ĠMic he
an imate
20 4
ew ise
Ġt ent
u en
ĠBuddh ism
in is
Tag Name
p ick
ĠJohn s
Ġarg v
Ġhighlight ed
Ġf ract
Ġpract iced
F ilters
. (
ĠJerem y
ac ular
18 23
Ġpar as
ĠPresident ial
Vert ical
Columb ia
Ġc fg
Ġb acteria
Ġre ceptor
pr inter
17 75
R M
N il
the mes
[ _
Ġw ickets
Ġcor poration
ch oice
' _
ĠJul ius
ĠC M
um ph
Que en
/ %
E s
× ľ
( ",
=' #
ĠPop ulation
ed ar
ĠPal omar
Organ ization
ĠAr ms
Ġnortheast ern
Ġancest or
17 90
erv ing
u w
any a
Y P
Ġsub m
S ar
Israel i
ĠRich ards
Ġbass ist
ĠM ats
T X
ile e
b igg
Ġsec ular
Ġaccompl ished
s id
ĠB allet
ĠAm ateur
yl on
Ġhealth care
Ġconstant ly
Ġnew er
28 0
h ole
t ec
ĠStr ateg
E lem
Ġinteg rity
Ġnormal ized
Ġm apped
Ġad option
Ġshe ep
G UI
Ġactiv ation
ĠRos a
Ġf iber
Ġd ors
rac use
_{ -
ĠSebast ian
Ġan onymous
DO WN
fl ash
Ġham let
is Array
ĠAcadem ic
^^ ^^
g c
ĠC ome
ĠRoche ster
ĠS uk
od b
ser if
ĠIN T
ĠSw ift
aly zer
re ject
ĠR elease
Ġring s
A CTION
p ixel
Read Only
Ġafter math
igg ins
Ġh opes
__ _
ĠThrough out
as an
ĠP O
md c
ĠIn side
f u
Ġn ose
Ġfurn iture
S outhern
r te
14 7
Ġdeleg ates
Ġabsor bed
Ġd x
ran ger
string ify
Ġdist ant
ĠC lean
Ġesc ort
Rev ision
const ants
std lib
ĠL ip
D ark
as ium
me asure
Ġnob ility
é Ļ
oc es
ĠBo hem
ne o
ant es
ant le
Ġenter prise
Ġsampl ing
Ġse aled
C ivil
Ġare n
k el
Ġd w
ĠP FNGL
Ġguitar ists
eg ie
ĠP sy
INST ANCE
Ġrec all
File System
ord e
Ġpre y
Cath olic
Ġh itting
Ġprec ip
Is Null
Ġexhib its
Ġdeprec ated
TEXT URE
18 27
="../ ..
document ation
ĠRaid ers
ĠP ine
ace ous
ĠLoc ation
ĠAst ron
to k
Ġd ying
] ];
d ag
W ay
er ick
ĠPro ducer
14 1
Rec ent
L T
ch rom
Ġmilit ia
Collect or
Ġwithdraw al
ĠIss ue
ĠD ylan
ĠE ye
ĠKos ovo
I MAGE
EE E
n om
Ġm ild
Ġimpress ive
ĠB ac
) }(
p ark
commun ications
b ars
Ġstri kes
U TE
cess ion
ĠMon ument
Ġsett le
Ġch lor
ra ise
Ġm oon
ĠR ect
ĠHe ader
en heim
ĠKh al
Ġo l
Ġsystem atic
Image View
ĠChron icle
w ings
ĠCO M
å® ļ
Ġte a
Ġpoor ly
Ġj ack
ĠMc N
an an
ĠWed nesday
Ex ec
Ġassemb led
Ġmechan ics
un ches
ĠGar c
ar ations
ĠAdvent ure
ĠLith uanian
ĠP iet
Ġpref erence
ĠWinn ipeg
ĠS ent
Ġcar ved
Ġto pped
Ġtra ct
ĠMen u
ĠNO TE
ĠUrugu ay
Ġcon form
ime q
]] ></
Ġterror ist
s chool
h in
Ġm ansion
Ġcoeff icient
ĠÂ «
Ġre ly
i ating
Ġassass ination
{ },
S and
C lock
Ġgirl friend
ann ah
ĠTasman ia
Ġb ore
Ġest ates
Ġoccas ional
ace ut
Ch icago
? .
ĠChurch ill
Ġb igger
ĠLanc aster
olog ically
am oto
f lies
if s
comp any
oll ary
ĠT ropical
Ġcons ort
æľ ī
Ġb apt
de ploy
pl er
Ġinter pol
ĠLet ter
F ish
ĠM E
ĠNic ol
ne um
Ġtro ubl
Ġbankrupt cy
ul ine
ĠK Ã¶
Ġsen ators
Ġvic inity
Ġr idge
m atic
ĠJud a
Event Handler
Lin ks
Ġproport ional
Suppress Warnings
i ade
ĠCD P
Ġb rows
ĠRe in
Ġbul let
She ll
ĠInter view
ĠZ en
Cl osed
Ġpre cis
Ġinter faces
13 9
pt iles
Ġconsist ently
Ġd ish
ĠAssoci ate
ĠAp ollo
Int roduction
A ge
ĠRoman ized
F ast
ier i
Ġexp elled
Ġstory line
ĠValue Error
Ġvac uum
ig rant
Ġf action
ĠF ed
ĠUn ity
ĠChief s
] }
Ġassum ing
ÏĦ Î¿
Ex cel
Ġfl ush
NAME SPACE
Ġt ension
ĠEp isode
B on
ass is
Ġmus cle
Ġexpl ored
Ð½ Ñĭ
Ġc rop
art e
get Property
Ġgather ing
ĠL LC
ĠY uan
Cl one
Ġfinal e
trans fer
el m
erm o
Ġcab in
Ġdepict ing
Ġc rack
Ġm ad
ĠA WS
Ġvar s
Ġm eter
s imeq
Ġre duces
f un
Ġ} ));
et ype
set minus
Pref erences
ĠGael ic
] *
å ·
Ġd il
d h
od i
en h
ĠMerc ury
ĠL ap
Ġf usion
20 5
Ġsouth western
ĠHay es
c py
m aint
lo o
Ġcl ine
opter a
ĠĠĠĠĠĠĠĠĠĠĠĠĠĠĠĠĠĠĠĠĠĠĠĠĠĠĠĠĠĠĠĠ ĠĠĠĠĠĠĠĠĠĠ
b re
V IS
Ġg oddess
Ġad res
ĠÐ ¼
Ġarm ies
ard ment
class v
ott i
ĠBe a
Ġaut onomous
K S
um ing
k ie
In clude
min imum
it les
set Value
Ġvin yl
ĠCP U
ĠCh ancellor
View s
ĠW inner
Ġdef erred
Ġd s
Ġpersonal ities
Ġcon spiracy
Ġgen res
ĠGrad uate
Pac ific
r int
Ġmyst erious
Ġcontact s
r ina
Ġ" ...
Ġtra ces
ĠP DF
ĠC B
ĠO UT
FO RE
Ġs ectors
Q UE
ãĥ ³
ct ica
Ġsup porter
com par
ĠG ur
Ġm arri
Ġcon clude
ĠMar ian
en ium
ĠB rom
ut i
ĠSac ram
B rown
L if
pe i
ĠGener ate
ä ¼
ç Ľ
Tour ist
á Ģ
Ġfem inist
bass adors
cl air
ol an
ĠMah arashtra
Ġfort ress
Ã ¬
ident ial
ĠCatal ina
Ġinvestig ations
ĠTerm inal
Ġvirt ually
Å ĳ
Ï ī
Ġad equ
Ġkill er
ĠPat tern
Ġfacilit ate
ĠMal colm
uv ian
F all
Ġsur f
^{ -\
numer ic
ĠMar co
Ġl as
Pl us
Ġst rand
Ġany where
copy right
ĠK och
Ġtra ff
Ġproceed ed
field set
ĠPro f
stit ute
ĠKn ox
Ä ĵ
> ";
qu ality
Be etles
ĠHal ifax
ĠD art
oph on
ĠP ag
Ġhom osex
Ġmission aries
B ranch
f air
ĠInd ividual
ĠT emplate
ict ions
ĠS ag
GEN ER
om ore
Con flict
Ġwat ched
ĠIn sur
Ar ts
P ACK
× ¨
ĠSpring field
Ġtre as
ĠPan thers
Ġstrugg led
Ġless ons
Ġcycl ing
ĠHeavy weight
=" ./
ĠL it
Princ ipal
ĠY uk
Ġcount ed
Comp are
ev iÄĩ
"> "
Ġinitial ization
ount ain
ĠQu int
o ine
b ay
Ġflo oding
he alth
Ġsub species
Ġf rog
R pc
Ġs ulf
ĠCl aude
Ġhand ball
Ġ* _
S uch
im iter
sw ap
Ġninet eenth
ĠR ules
udd y
ĠVict ory
Ġt ap
res olved
Ġtri ps
ĠSax ony
grav ity
ĠE val
Ġlog s
r ass
Add ed
ĠB ec
ĠCom mercial
op ol
illa ume
st ones
Ġh urricane
ĠHein rich
pl ant
haus en
View ById
ar ith
ĠL ynch
ĠCOL SPAN
ĠB io
14 9
Ġdiscipl ine
ĠD iana
ĠL ed
ĠCre ative
Ġchalleng ing
ĠObserv able
Ġfact s
(" ")]
Ġcur riculum
G H
ĠC rystal
Ġgram mar
Ġsur pass
b eck
Ġ< ![
Key word
R B
Ġp ig
Ġcl othes
Ġpar agraph
ĠTrin idad
ĠG row
ext ends
Ġconv ex
Ġvulner able
Ġhigh ways
ĠRed s
1 200
t cp
g ulp
Ph oto
che l
Ġp ul
ĠCub s
Ġp ace
Ġpray er
ram er
std out
ĠK oh
os ion
run t
or get
Ġcontin ental
ĠRec on
h it
Ġal umin
es que
Ġteam mate
ĠC L
H it
l ov
Ġbroad caster
ap o
="../../../../ ../../../../
ĠLouis ville
Ġpol o
Ġop posing
Tok ens
18 17
ĠIndust ries
Ġcamer as
b ash
ĠBul ld
Ġ# #
ĠN orton
s napshot
at ur
Ġsynt hesis
Ġl azy
ĠN urs
Ġmon ks
Ġdeleg ation
Ġse al
em por
Ġfl own
Ġan alys
Ġmemb rane
em y
Ġbad ly
Ġ*/ ;
ĠMin i
XML Schema
Ðµ Ð»
Ex pl
Ġsk ull
Error Code
Ġsh apes
Ġinter active
V IEW
t ion
Ed ward
Ġcoupl ed
ĠCont roller
ĠDep ression
ole y
ck er
t ake
Ġs ew
Type Def
ĠMalays ian
ĠKash mir
ct l
Ġto g
P ages
char set
Ġcondem ned
Ġpos it
iling ual
or ig
u ator
Ġstart up
Ġapp rent
Abs olute
get Current
Ġinteg ers
PO INT
Dem o
Ġrec urring
cred entials
Com position
Ġne ur
Ġas ide
ys elf
V an
Icon Success
E lections
W H
ĠS N
loc ations
18 06
ĠB har
Ġdepict s
Ġscatter ing
Ġnick named
T a
ĠTh ames
Ġb onds
Ph ot
n or
ĠEuro vision
(' \
Ġconsider ably
ĠMonteneg ro
Ġ" :
Ġtack le
Art ists
Comp any
Ġb allet
ĠR id
rop ic
æ į
Ġintro ducing
-------- ---
Iss ue
Ġtra p
ĠM ile
li us
ĠMin neapolis
Ï Į
ĠPro position
Linear Layout
Ġpl ugins
40 1
ĠW ings
Ġplan es
Ġguarant ee
ĠM ode
Ġbur st
ĠRab bi
Quest ion
ĠChar acter
Supp lier
ĠP u
ĠAg u
ĠL ords
ĠJam ie
Ġb lo
ĠS ql
ĠG ian
est s
jo ined
dist ribution
Ġg ods
Enc ode
[ [
à ´
ĠW aters
ĠB in
ĠIn iti
Ġund ers
Pred icate
M igration
vent h
Ġrival ry
(' ../
ron ics
ĠHun ting
ram id
_{ {\
ĠĠĠĠĠĠĠĠĠĠĠĠĠĠ Ċ
Ġsail ors
? ,
R eb
al gorithm
ĠDay ton
Dat aset
Ã³ d
c oc
ĠM oss
Ġreserv oir
amp ire
ĠBor is
ĠN iel
User Agent
Ġdo zen
ĠL E
Ġun ity
Ġsocial ist
Ġport folio
14 8
ĠPl ain
ĠA G
Ġdr ives
put ing
ed ing
Dec ode
ĠGener ic
ĠI X
Ġscatter ed
Ġimp ressed
ĠMes a
Ġch a
iv ar
Ġs its
act ivated
ĠDem ocracy
h ls
M arg
n ational
Ġse q
el ist
ĠDar win
E MP
_ +
am ination
Ġac claim
Ġsl opes
Ð¾Ð ³
ĠSuper ior
Ġl ord
Ġtop ology
ĠC od
Ġsynt hetic
tw ig
ĠP L
Sc ot
[] )
Germ any
ĠF est
DE P
ĠC and
ĠJul ie
ĠBer ry
Open Tl
up iter
Ġl oved
Final ly
ĠC airo
Ġst ret
Ġint ens
Max imum
ORM AL
ang les
Ġpre val
aus ed
Ġcustom s
Ġess ays
ĠNE AT
ĠW on
Ġl ip
Ġequ ilibrium
Ġconfig urations
ĠBang kok
ĠEn able
Ġbox er
L arge
ĠT ank
Em itter
w b
æ ŀ
p resident
18 19
C AL
s ound
ĠM Äģ
ĠEr nst
D K
ĠW WE
Ġr s
p end
ĠKenn y
Ġsal v
15 3
Ġinstruct or
Ġcontinu ously
Mex ican
Ġcomp atibility
Ġke eps
Ġped est
Ġcancel ed
I ran
sh ots
PAR AMETER
ĠNAS CAR
Ġinter ference
aff e
ĠLog an
Ġful fill
Ġrev olt
h orse
ĠJ ake
Ġcor rupt
ĠJohn ston
ufact uring
30 1
ĠWe i
Ġamplit ude
Ġcancell ation
ĠExcell ence
I LED
get Time
at u
Ġd ancers
Ġh az
æ İ
ĠW ander
ĠMar tha
ĠH ed
Ġsk etch
get Default
ĠGriff ith
ĠNS W
Ġinaug urated
ĠCorn ell
Ġjoint ly
ĠInsur ance
LE N
ĠPort smouth
role um
Ġre print
ĠMar itime
ctx t
and in
ĠL IC
Ġconsum ers
Ġrel uct
Ġren ovation
ON LY
V S
n x
s aved
mon itor
Ġdis crete
Ġtri bal
Ġgraph s
uc a
div ider
Ġpod cast
:// $
J ournal
ĠInt el
Ġaccident ally
cont ribs
Ġal igned
Ġident ifying
ĠI TV
Ġair ing
Ġpen et
Ġh ack
ethe less
Ġpro files
ĠCl uster
Is lam
C N
ç ±
ĠN ass
ĠSouth west
C ached
as List
Click Listener
Check er
T ake
IconSuccess Encoded
ĠMax well
Ġmill is
lin ewidth
Ġenthus iast
Ġprox imity
ĠBra h
Ġproceed ings
: **
D X
N EL
ĠTh ursday
Ġpost pon
Ġo d
ä ¹
16 00
ĠProgram me
ĠA pi
F IN
s cheme
cos ystem
50 1
ĠDod gers
c rypto
ĠE y
Ġflow ering
Ġhar ass
Ġref uses
Ù Ĭ
ĠNew man
B all
Ġsuccess ive
block quote
BY TE
Ġrev ived
ĠDor othy
Key board
itor ies
ĠO thers
Instance Of
ow l
ment ion
15 6
Ġw ound
ĠMey er
ĠY emen
Ġb alls
ĠC lement
em o
Ġadv ised
Ph aser
AB C
ĠCrit ics
4 80
ĠArg s
ĠR he
ĠR oth
ĠLeic ester
Typ ed
Ġam pl
Ġgame play
ĠL ob
Rout ing
ĠAn im
Ġgar rison
P TS
b is
th ouse
ĠE du
ick ers
ĠFor bes
da ughter
ĠHel p
act ivate
Ġdist ribute
W D
Pier re
Ġsup ern
ĠH E
ĠInd o
sc ience
hard t
Ġap ps
Rel ation
ĠSuff olk
L iga
Week ly
Ġlegend ary
ĠS it
g ent
Ġup ris
Ġcommand ing
ĠW allet
Ġland mark
fail ure
x e
Ġd iving
fin ish
h int
18 09
m ess
Ġmo ist
ĠB ast
ar ra
ĠA A
ĠT ah
Ġnorth western
ĠChem ical
ĠChar leston
Ġoverw hel
ph oto
ĠP am
tr on
Ġten or
ĠTheod ore
Cl ause
18 03
Ġacadem ics
url s
c ong
Ġitem Members
ĠSing er
ĠAn imal
Ġmodel ing
Ðº Ð°
ĠF uj
ĠIter ator
: @
widget s
be it
MA G
n ear
j sp
ĠPerson al
h ouses
20 8
ant is
urch ase
ĠM ouse
sh arp
ĠL arge
Ġboard ing
Ġcompris ed
Sc ience
cond uct
2130 77
Dis covery
Ġl aps
Ġback end
D ot
ĠMan or
Ġsac red
Ġpron ounced
m eter
ĠIs abel
ĠTe h
Ġsur geon
Ġport raits
O RE
leg end
Ġsustain able
V en
ĠM LA
as aki
/ :
ĠJo el
Ġtog gle
Con version
Ġleg ally
ĠMad agascar
Ġfavor able
d ad
m icro
ĠChar l
NE W
Mount ains
u ctor
Ġrenov ated
Ġsem ifinals
Ġinterview ed
ĠJoh an
o auth
do es
Ġs unk
P ython
sh aw
Command s
g ray
Ġs ou
et ches
ĠCl ara
Ġman or
ĠTanz ania
ust ain
Ġman ually
ĠGar cia
15 4
), \
east ern
Ġreleg ation
ĠT ouch
Ġreg iments
A sh
m and
ĠP ione
Ġp ounds
ass o
ĠShe ll
al ore
ĠAut om
ĠF alk
sp ons
Ġsupp ress
Ġaggress ive
ĠCraw ford
od ium
ĠH erman
Ġmed all
B eg
Americ a
G i
Observ able
ĠW ant
OP EN
Ġveget ation
establ ished
g res
sp ired
ĠRock y
Ġsub marines
\ }
cer to
------------ --
ĠAm b
âĶĢ âĶĢ
bour g
/ (
ĠM am
Ġun e
b uck
ĠQu ant
Ġa pt
ph erd
print StackTrace
Ke ep
em i
ĠKarn ataka
ĠB raves
Ġcancell ationToken
ĠS tern
18 08
Ġorche str
Ġprohib ited
Ġun lock
ĠWal sh
Ġinn ovation
ĠChem istry
f ork
ĠGu jar
constra int
Ġcont rolling
) },
Ar n
School s
ĠGreen e
"> ,</
sc apes
Ġcomb ining
Un lock
Log ging
est e
ĠF ant
cor rect
Ġmin eral
ĠBe ing
qu ire
call s
r vm
R ST
o ct
ĠMon roe
Ġ} .
Ġdist urb
Ġpurs uit
Ġkit chen
ĠS TR
Ġhabit ats
oph yll
Ch ris
ĠLank an
ĠE yes
Ġrun way
ocol ate
ing ers
erv ille
ha o
Cal ifornia
Ġextract ed
Ġcast ing
Ġep ic
Â ²
Ã¨ res
il ogy
get Context
Ġlar vae
ĠEd win
Ġspecim en
L ost
la unch
Ġcontribut or
R otation
Ġg ates
ĠSo ft
Ġt ang
urre nc
ĠE t
ocom plete
Cap acity
p romise
C ss
Ġk ids
head s
ĠConstit utional
s ap
Ġexp ired
inter faces
z an
ĠP ok
Ġover lo
Ġworks hops
ĠG lor
Man aged
UN K
Ġder ive
AA F
ĠStef an
cur r
Ġhe ct
pro blem
Ġtr uly
Pro c
Ġ" ");
Ġprom otional
ĠMos es
F H
m ith
ĠC ounter
oc cup
ÑĢ Ð¸
c out
Ġguar anteed
Ġc anton
ĠS ard
Ġup set
Ġprecis ely
M ike
ch ard
ellig ent
{ |
Ġab ort
Ġpeak s
Loc ator
Ġmiss iles
oh an
S ink
olog ne
ĠBas el
ĠĠĠĠĠĠĠĠĠĠĠĠĠĠĠĠĠĠĠĠĠĠĠĠĠĠĠĠĠĠĠĠ ĠĠĠĠĠĠĠĠĠĠĠĠĠĠĠĠĠĠĠĠĠĠĠ
' +
d atab
d w
q q
Ġp ent
mem item
end e
let cher
Ġwe igh
Ġsit com
Ġdim in
Ġcool ing
ĠLad ies
å ĩ
Ġsc oped
ĠBl air
al ong
E lection
ĠM ilit
P ur
K en
c ov
Ġsub stance
ĠInd eed
Ġtrump et
Ġt ick
ge ons
Att rib
al us
opt im
Ġg arn
Ġsy ll
im ar
get Logger
}$ -
ĠP omer
R ace
p ie
ent on
er cis
17 98
æ Ń
Ġfact ories
15 7
Ġarch ives
d v
omet ime
Ġwild life
ĠG ymn
iev e
ut z
lo ose
Ph ysical
ĠC e
ĠPr ussia
L ess
E li
res olver
"> #
> #
Ġaccept ance
ĠHard y
Histor ical
T M
ell es
ĠPh arm
parent s
ĠT ruth
B rand
Ġexam ined
Inher ited
per p
ĠR ac
ĠFI X
Ġpred icate
al gebra
ĠCong reg
ĠSt ack
TO KEN
S printf
ount ers
rins ic
Comp ilation
ĠC raft
Per formance
charg ed
ric ing
æĺ ¯
uc ci
Î ®
ĠG reatest
à¥ į
ĠJen kins
G er
J oe
vers ions
Ġanth ology
ĠTh er
w ang
ici ary
[ ],
Ġcallback s
] <
w so
Ġdirect ive
habilit ation
ĠU ri
G od
Ġinter vals
ĠBut ter
Ġundert aken
ari at
ĠRel igion
rell a
ĠL Ã©
ĠCol ony
RET URN
an us
Ġgener ates
Ġenc rypted
Ġunve iled
F a
an za
col ogical
Ġ$ ('.
å Ĩ
orce ster
um bo
ĠI MP
On Search
sup ports
ĠUl ster
it ary
im eter
Ġth umb
Ġis ot
Ġmanufact ure
Ġelim inate
ĠL af
or is
ĠB erm
Ġm eg
ĠD oll
m ur
U i
Ġun likely
ĠGarc ÃŃa
r er
ĠL al
Ġpl asma
ĠMar ines
Fl at
t ot
/ $
ĠR FC
Ġdeterm ines
ĠĠĠĠ ĉ
CRE X
ĠBul let
ĠBre nt
Ġsaf ely
ad ia
ĠM ets
ĠB org
Ġtrain er
v ian
An th
A h
Ġfl ora
UM ENT
Ġ ^{
ĠC osm
Tool bar
Ġprevent ing
Ġwh it
Ġsp arse
ĠVal ues
rat io
22 2
Ġconv oy
Ġpil gr
Ġquestion ed
qu ick
( <
Ġin complete
Ġfac ade
Ġinnov ative
17 94
ram ed
ĠC ancer
Inv ocation
ul ous
ĠPrim era
t b
Ġl od
ĠV it
Ġfilm maker
Ġant ib
NUM BER
ib ia
pos able
Ġne ural
ĠAs ync
ĠE asy
y ellow
ĠD awn
HEAD ER
Ġret ire
Ġto b
ĠB agh
br as
ĠC IA
Ġrail ways
Ġelim ination
18 05
Ġoper and
Ġbl ob
Ġtw entieth
ĠQ atar
am ous
Ġg rab
18 07
Ã©t ico
ĠEmer gency
un til
Ġv it
W rong
re ls
() "
Initial ize
Ġs ink
ĠG ospel
Ġf d
Ġsuperv ision
ĠR O
assert False
Î ¬
ĠMar qu
Ġp el
um ann
isc hen
Ġhum or
ĠG ross
ks and
ĠC OP
ĠD rop
ar ium
ĠM I
Ġim per
ĠBet ty
Ġdeterm in
ev t
Get String
Count y
Ġthrow ing
aut hent
Ġem issions
ug o
Ġb is
G h
Ġ{ $
m ig
ĠN il
ĠUn known
rif ice
n it
e er
ĠH ousing
ffbb bb
sh ake
Ġatt achment
Ġgrand mother
ro ach
ĠBrown s
Ġroll ing
Ġox id
ĠAppe als
Ġun con
26 4
ĠSpeed way
ĠFI LE
Ġaux iliary
Ġsh rub
ĠG am
Ġrefere e
ĠIn ner
ĠRe ader
man aged
ah i
t oday
ĠCamer oon
Ġkilomet res
il ine
Ġant iqu
ĠSof ia
R oles
ĠW ick
IS O
x ff
exp ress
ĠCast ro
p enter
E ven
Ġsent ences
ĠWrit er
math comp
ĠRom ans
2 12
Ġex clude
synt ax
Ġtim eline
Ġtour ists
' ><
P N
ann ers
st y
ĠD ock
os o
ĠY osh
Ġworks hop
5 50
ĠPot ter
] =
ĠP AR
rit ion
Ġinter ven
ç± »
ros so
Com plex
rem ark
ĠBad en
ĠD up
Ġcommission er
Ġreflect s
} ))
U nc
Ġpropag anda
B ra
ĠN u
Ø ³
oc y
liter al
n ar
Ġhealth y
ĠAl leg
Ġview ing
3 30
6 50
Ġcomput ational
li ers
Com posite
ĠAnd r
ĠH err
Ġ$ [
Ġtact ics
Ð ¶
ĠG ates
Ġstep ped
Ġexha ust
ĠS ugar
Ġcomp aring
Ġend angered
Ġd orm
18 11
Ġsc reens
P F
bra him
ĠGeorg es
Organ izations
qual ified
Ġacc us
ĠA ST
ĠH its
sh op
Ġqu ot
Ġsen ator
Ġaband on
r ino
ĠAnn ie
ï¼ ļ
ĠKy iv
Ġrecommend ations
L ay
s om
Ġen abling
end l
Ġsw ing
ĠCh ern
ĠAberde en
g iven
ay ette
Ġserv ants
ĠSet ting
Ġcoordin ator
anc o
h ub
Sub mit
A WS
c ern
Ġj ur
Ġnational ist
Ġphysic ist
Ġt ens
}} _{
ĠSumm it
O x
Ġo mitted
poly mer
ercis es
/ ******/
ĠW olver
ĠMc Car
Inv oke
] ",
ĠP oss
Ġt u
ĠL ines
pret ty
Ġcust ody
art ime
ĠRaj a
sh ine
Ġpoll ution
type Name
comp act
Ġsuburb s
å ¾
Ġcycl es
d type
ital ic
18 04
op us
Ser bian
ĠThom son
ind ers
Ġparse Int
merc ially
ĠS olid
ĠD ry
Ġmill ions
Ġrect angular
C roat
c ence
Ġs ab
log y
ĠLIC ENSE
Ġd yn
D J
Ġn avy
ft s
ĠV all
ĠDom ain
Ð ¡
un iform
eb ook
ST AR
ĠSic ily
ĠHer oes
16 7
D ays
Ġdeterm ining
m n
pe st
ex ist
ĠJ ets
Com puted
ĠR ao
Ġpen insula
T s
getElement sBy
m esh
ĠGuatem ala
Ġt une
pon ym
Ġdiff ers
Ġp ic
Ġ! (
Ġch ip
And rew
Ġless er
Ġg em
at an
clesiast ical
r ases
Ġrank ings
Ġcan on
map per
ĠLis bon
Ġpro be
Ġcon ce
> $
ĠH our
ĠSpec ies
ĠG av
ES CO
Con v
11 11
Ã¨ ne
harm onic
) ^{-
Ġd inner
Default s
Ġret riev
get s
Ġover come
ĠIn stance
Ap is
ĠAr ist
Ð½ Ð¾
B uilt
ĠAtl as
14 2
Ġqu ote
ĠCl aud
ĠImp act
æ Ķ
ĠT ell
ism iss
ious ly
> ("
ĠL ep
ĠD IS
capt ure
Ã¡ lez
ä» ¶
Ġmet re
Ġdeg rad
sec ure
W ords
Ġre nd
ĠRes et
ĠPap ua
Ġb ones
ĠQu artet
Med ical
Ġmar ble
pl ed
Ġdes criptions
Ġep och
b red
Ġsw iper
m itt
am ic
rest ore
Ġn ec
Ġe ating
ort e
L ake
With in
ĠS L
art on
on er
ĠTrans form
ĠLeban ese
Ġdeter ior
Ġs aint
Ġdef orm
Ġrespons ibilities
15 9
Ne ill
U INT
Ġport al
Att achment
17 93
ĠBald win
y ar
ph ysical
Ġremark able
Ġcrown ed
Aust rian
od on
ĠĠĠĠĠĠĠĠĠĠĠĠĠĠĠĠĠĠĠĠĠĠĠĠĠĠĠĠĠĠĠĠ ĠĠĠĠĠĠĠĠĠĠĠĠ
ä¸ į
ĠMid lands
ĠFrame work
Ġi OS
ĠNorth ampton
Ġinit With
Ġpriv acy
Ġtr adem
EQ UAL
oc on
Not ify
< >(
ĠDirect ors
ĠElect ronic
Ġfeed ing
Ġbr ut
Orient ation
Å ¿
Ġh alo
Ġdemonstr ation
F un
type param
ĠX V
Ġd type
y i
Ġinter rupted
ĠA ce
file Name
ĠChap man
Ġhar vest
row span
Ġmos que
Ġaccount ing
Ġshut down
l ap
Ġbow l
ä¸ ª
Ġm ont
ĠR ip
Ġsub group
ĠWin ston
m our
Neg ative
å ½
ĠS ara
ir on
15 8
Ġtranslate Y
ĠCarn egie
fri ed
ĠE aster
ott age
Ġtra vers
P DF
ĠE ducational
ul ent
N ick
Ġhot els
% );
H aw
ast on
Res olution
Bo ard
Ġreview er
iform es
verb ose
Ġsm oke
ic ion
ri ble
ĠHaw ks
ĠWik ipedia
D ar
N ear
ri que
) ";
O IN
Ġ ):
ĠL ay
P ark
Ġv ig
Di agram
Ġbus y
bread crumb
ier arch
it as
por a
B ang
O ps
q s
ĠGal axy
Ġcard inal
ĠSh an
Ġd os
Ġm aternal
Ġcon ceived
Ġly ric
Ġcontest ant
ĠSh am
fold ing
b lo
L atin
Ġtim ing
ĠTele graph
ĠY ES
source forge
ĠTh r
}} </
Ġinv itation
m achine
Ġdiagn osed
ĠLat via
ĠTreas ury
ĠF erry
Ġadvoc ated
re x
So ft
ĠSc ene
Z end
Ġprop ri
ih ar
ĠT error
ass igned
') ).
Ġreb el
Ġprem ises
di ocese
Ġdep ot
Ġcorre ction
it ud
ikh ail
unt u
A ws
ĠB A
ales e
Ġw orse
Throw able
Ġimp ression
Ġr amp
ĠVar ious
ius eppe
B ay
ĠH H
18 02
Ġsub mission
Ġrep airs
ĠCons ult
ro sc
23 5
ĠCow boys
ty mology
17 95
ind ed
ĠC ave
ĠSte phan
Ġcerem onies
Ġunder go
ĠJ ag
S ender
Com puter
Reg ex
F LOAT
Ġt iny
Ġn urse
Ġplant ed
Ġt i
ĠB U
Ġarg uing
Ġconver gence
publ ish
Ġm ud
Ġs or
le arning
Ġor ig
Ġoff ense
eros pace
ry ing
C amb
ath ing
Ġkey word
ĠKle in
ĠFil es
ĠRuntime Exception
c nt
ĠPatri ots
ass ic
17 96
æĹ ¶
Ġlink ing
Ġt ickets
ĠLe af
Ġam id
Ġac claimed
ĠConstantin ople
c id
Ġacc idents
df s
Ġf rig
ĠL ing
ĠT F
ĠC elebr
Ġrecre ational
! ");
3 80
an ions
Ġ[ ...]
Ġhand lers
ced es
Ant i
Ġd f
Ġplan ets
Tim eline
l ord
text rm
ÃŃ s
" +
Ġb ills
ĠV ish
Ġfound ations
co ins
Il legal
{ })
ĠA sc
Ġor phan
w el
Http Request
Ã© es
Ġis set
D anish
Ġam big
ĠTre k
mer ged
../../ ../
Ġm u
ĠEst abl
ac i
bit coin
ĠMong ol
ĠR up
Pr ime
User Id
arri ers
ĠD rew
ĠV atic
Ġsc ar
ĠSc ots
prevent Default
min or
ĠN uclear
K nown
ap k
Ð¾Ð º
-------- -
Ġprinc ip
ĠF ur
b ard
ĠValid ate
ou rable
cont ainers
Gr ade
C li
p oll
Ġdescend ant
f requency
P in
Ñ ī
jav ase
Ġancest ry
SE C
Ġfe at
Ġswe ep
om ical
% ).
Ġe uro
Ġcomm ittees
Ġ{ ?
Ġun set
Ġun used
Ġent ert
Qu arter
Ġre dis
lo res
CA P
ĠPoint s
Ġcontain ers
ĠSant o
Ġjav adoc
ob y
Byte Array
Lin ux
ĠC risis
Ġpro sper
Ġobject ives
Ġsal ary
Ġhe ating
j ani
t ick
Ġhum id
ID s
Ġb acter
ĠJuda ism
ĠD S
g mail
en ko
ĠH appy
ab ella
Ġcarri ers
ĠBro ck
Ġhigh lights
Ġpast or
ĠTour ism
c ards
Non Null
Ġper f
.~ (\
oc ate
ĠUlt imate
ĠP all
Ġhuman ity
Mar shal
che cks
F i
or ic
ĠPsych ology
it ated
ĠO le
Ġdirect ing
red uc
ĠConf ederation
Ġcler k
orget own
Ġveter ans
Ġap olog
ĠApp lied
ĠL IMIT
Ġpresent ing
ĠS ER
Type Name
4 000
ol ut
D ead
ĠE S
N ever
request s
ey er
Ġw ra
ĠAdv ance
d og
{ $\
Ġauthor ization
ĠStart ing
Ġinj ection
ĠStre ets
M gr
ĠT ru
GL enum
Che cks
Ġl ifestyle
L ONG
ĠS ind
ap on
ĠCor por
ĠSh ak
Hand lers
Ġhar sh
ĠS ister
H ong
Ġillust rations
Ġvac ant
Ġiniti atives
Ġmem oir
Ġlo ose
Ġmamm als
n od
è ¦
ert s
ĠReg ular
Ġar ist
Ġab ortion
par agraph
G itHub
b gcolor
Ġw avel
Ġnom inal
Ġgu idelines
ĠÅ ½
ĠA er
ĠGr iffin
y ang
ar l
Ġbox ers
us hes
ĠD iet
Ġqu arters
Ġver ification
ĠOri ental
v id
ĠPre p
Ġlim estone
ĠB ash
Ġ ----------------
be ing
ĠT oo
G ram
Aut om
ath lon
Ġspe aks
Ġp i
Ġachiev ing
Initial ized
} ")
Ġproceed s
ĠK um
LE FT
Ġapprox imate
an ic
ĠBeat les
\ _
ĠTrib une
rit ic
Ġflag ship
ĠH ond
ĠS plit
utt gart
el ic
r ud
Ġent ropy
rec v
io x
Ġsk ating
ĠBre nd
for um
ĠDr iver
** :
;& #
un ix
is Valid
ĠW E
ĠSen ators
Ġ] );
Ġsn ake
AT T
Ġbe an
Block ly
ĠBalt ic
B a
Ġdestroy ing
e us
access or
ĠWeb b
ĠHels inki
he ed
ATTR IBUTE
ĠG uest
Ġdis puted
auth ors
S el
H OT
Con nected
ST EM
Ġr ises
ung en
ĠRober to
LI B
ject ory
ĠGa ussian
Dec or
D oug
Mar ie
ash ing
Ġst rain
se en
ufact urer
ĉĉĉ ĠĠĠ
Ġmem ories
Ġemb arked
Ġp orn
ĠD erek
G uest
ment ed
ĠK ane
v p
ĠB attery
ĠElect oral
ĠCzechoslov akia
n P
Ġw arned
Ġelect rons
ĠBeg inning
pe x
ĠBrun o
N ORMAL
read only
Ġden oted
ĠA TP
ract ed
Ġdi agonal
v r
ra red
ĠF loyd
De ployment
Ġge ometric
Ġdi agnostic
ĠS EC
Ġge ographical
ĠM orton
ir al
Ġancest ors
Ġf ights
Ġqual ifier
ĠDra ke
Ġin land
N Y
W all
ĠM are
h ydro
Cre ator
ĠFel ix
ĠPl us
L ex
g rey
ĠS ki
å ¹
Map s
integ ration
elf th
Am azon
Ġdeb ugging
ĠP itt
ĠF ol
Ġcre am
Ġp ressed
ĠWil lie
ĠInt ent
Ġrecon naissance
D roid
(( (
Ġt iles
et ric
ĠC off
ĠB Ã©
Ġk iss
ĠSac red
)) {
d ashboard
Ġauth ored
AS C
x r
b ours
tol ua
Ġcho osing
ĠM ast
ĠDub ai
ĠS leep
Ġdec ree
W M
-- ;
NO WN
Ġprint s
K im
K ore
le ad
sc hedule
Ġcycl ists
Har vard
b rit
St eve
Ġsimilar ity
ĠDrag ons
F ixtures
Ent ities
ĠC ash
ĠSaf ari
Ġtro phy
alth ough
Ġab olition
v oice
Ġb uff
RO P
) _{
Ġopen ly
led on
d ong
ĠZ oo
Ġh iding
ob il
b il
t ailed
ĠK erry
Ġasym pt
17 99
tt i
n r
ç ī
agre b
Ġo ak
Ġc ord
ĠS ales
Ġl iver
Ġl over
E tymology
Ð½ Ð°
id ian
ĠEm irates
ĠM ick
Ġfin anc
Gen us
Attr s
h ang
] ));
ĠSett lement
Al b
17 6
Ġorgan ize
Ġbatter ies
ĠEl is
ĠProv idence
ĠGr ass
ĠCl imate
Ġbatt alions
c ole
Ġtra ils
Ġc ere
ĠJosh ua
T er
17 80
Ġknock ed
ĠVern on
Ġin cl
ĠJ ah
ber ra
keep ers
J eff
Ġw alks
ri ot
back up
View Model
aut hentication
ab is
Ġend l
Ġeight een
ce ae
High light
Ġf are
Ġspe eds
ĠJ iang
land ers
om ination
Ġknow ing
R oy
2 16
Text Field
ĠInd oor
Ġchecks um
as o
ib an
ĠBO OL
my Item
h dr
ĠAssoci ated
Ġrevers ed
s and
Ġun ited
Fl ush
Ġoverl ap
Ġgu ided
R ing
Ġre cept
Ġg astrop
CK ET
Ġ umb
Writ ing
G rant
ĠM VP
cl amation
Ġper ception
V ars
udd in
Alex ander
Ġf ed
j q
Ġbas ement
Ġl ady
L u
ĠE isen
ĠG rav
Conn or
cc ffcc
Ġtra its
å ±
ĠB ren
Ã³ pez
ertific ations
Ġt ends
ĠBo at
des cr
Ġfl ute
P en
Res olve
ĠZ ion
ĠB uk
Ġd ressed
Ġprotect ing
ĠSup p
Ú ©
Ġcapt uring
ĠSch ol
Ġw onder
ĠP ub
ì Ŀ
get Data
ĠL ives
Ġsee ks
eb ack
red is
Ġcontin uation
é ¡
art en
Ġsens itivity
L ord
Municipal ities
ut ation
break ing
Ġpoint ing
Ġsc orer
ĠBulld ogs
ĠH utch
ĠCl aire
Config ure
ĠC ul
gener ation
Ġtransm itter
SE CON
20 6
S yn
Ġa rose
est ock
17 58
ĠFl at
ĠL on
ĠGonz Ã¡lez
ĠAntar ctica
m ixed
Ġn ights
enc oded
22 4
t ap
Ġir r
Ġb anner
ore n
ĠAr n
Vir gin
y log
ad vert
ter a
Ġlast ing
h bar
Ġresc ued
Ġ= \
ĠVis count
Ġsub urban
ĠA part
ĠTre nt
é Ĺ
Broad cast
h ir
Ġcor rel
ĠTel ugu
Ch urches
Ġspace craft
et erm
Ġm aj
Ġra ids
Ġrender er
ĠOs aka
Ġp t
Ġd ent
ĠM eta
asc ular
the l
ĠÃ ĩ
Ġ\ |
cc cc
Ġt aste
ĠSign al
Ġlabel ed
ĠD ou
Ġpre view
Ġdiv ide
Ġstop ping
Ġrect angle
t an
ĠJ et
Ġst range
Ġreg ex
[ ];
ĠSlov ak
ĠRaf ael
E le
Ġset Up
Eng land
al and
ĠP ale
He art
Ã¢ te
D ivision
ĠA F
Print f
S ix
ĠW A
Aut hent
ĠNeg ro
Ġlater al
H op
en ne
ĠCamb odia
} >
ĠKrish na
Ġbomb s
S uffix
ĠD ixon
Opt s
Ġpublish ers
Ġrein force
Ind ices
ãĤ ¹
ch ing
il ers
Fran cis
Ġc ms
Ġnot or
ĠTh ing
d eps
ĠC ay
ĠV K
out ube
Ġtob acco
W T
Ġor bital
ĠMay a
and an
C AT
Ġb ush
PROP ERTY
Ġst er
ĠF i
ĠFerg uson
Ġg ains
Ġcommun icate
Äģ n
Ġde ceased
Action Bar
at as
ag ogue
Ġblock ing
Ġf ade
Ġre opened
Ġtranslate X
Ġ" </
Ġcontract ed
18 2
ĠSt atic
Ġwitness es
Ġfilter ed
Ġo g
ray ed
Ġtra iler
Ar row
Ġtrans mitted
BO DY
M U
ĠM s
ĠN ou
ĠC ologne
Qu ick
ĠB ess
Ï Ĩ
Ġnot iced
17 2
Ġinvent or
ĠVa ugh
res olution
ĠHum ph
ĠOr t
Ġsur prising
ĠCor p
Ġscreen ing
ĠSal em
its u
od ore
Ġc ass
Ġp ine
ĠType Error
Ġdis putes
ĠLead ership
DE V
ĠT unnel
romag netic
es i
Ġt emplates
Ġd ocker
Ġconven ient
17 89
XXXX XXXX
ĠP ole
cl iffe
ĠLe one
Ġpolit ically
Ġexpect ations
Ġswitch ing
ul in
) ',
Ġc rystal
ĠSup porting
ĠFrances co
Ġc pu
Res ize
23 2
ĠLa ur
ĠGl ac
ĠRol and
ĠJ orge
Ġw ishes
iss ued
Ġendors ed
H ANDLE
d ater
p ic
is ive
Tex as
R os
ro les
itt est
Ġpers istent
Ġst int
åı ĸ
Ġmob il
an ese
cont rolled
Ġre build
Ġtrans itions
ID ENT
Ġm eth
Ġdig est
Ġ) {
Ġpur ple
Ġtra iling
og rap
IN PUT
ĠMur der
Ġout lets
ĠCon cord
ĠAnn iversary
Ġener gies
Ġr ider
ĠE D
F inder
am en
Ġun iqu
ĠÅ Į
B IND
us ually
omb re
ĠSp ark
sup p
pl ing
! \
ĠCount ies
rac ed
ĠUnder ground
ĠERR OR
ac io
ĠTunis ia
Ġd warf
Ġins pect
oz o
Ġperiod ic
Pos itive
Ġde alt
ĠOl iv
un ting
Ġcon son
Named Cell
CO RE
B ern
host name
Ġclean up
ĠChen g
B oston
om bo
ĠAugust us
u ario
Roman ian
ĠD uchy
Inst ances
Ġc av
Ġlin er
ad just
R G
Y M
ĠBron cos
Ġcur v
ĠGard ner
OL DER
SY S
ĠHerm ann
andid ate
' </
$ ).
ull a
ĠMar athon
Ġprom ising
ĠMon ter
ce ster
ĠSt rait
ĠPh ase
t icket
Ġs ans
Ġassum es
ĠSh erman
Ġcogn itive
Ġp b
ĠLeg acy
TH READ
Spec ific
B AD
A k
ov sk
re ceived
Sem i
ĠT D
rot ate
Ġem igrated
ĠCase y
Ġsp elling
Ch rome
Ġsub family
Ġrout ing
ĠH ank
ĠL und
Ġcom mercially
Ġadv ancing
ĠY es
Ã¼ ck
ph ot
det erm
Ġst amp
Ġsw ap
ĠM PI
Ġc odec
Ġshell s
Ġmerch ants
G ed
\ .
n at
Ġr ushing
ĠSim ilar
ĠHam mer
ĠSD K
Ġt a
go als
ĠH undred
ru z
EX P
ĠCole man
att i
Ġmet aph
ĠL ima
ĠG reens
UM N
DE VICE
Trans actions
in fl
com be
ĠW W
Ad apt
Pro pag
re ation
ig on
sp aces
Ġarg c
). </
ĠW orcester
arn a
W ell
Ġt ear
ĠW ire
Ġfail ures
ĠR ally
ĠCon v
ĠCal vin
spec ified
Ġst air
ĠH ast
Ġaff ects
' ",
ig nt
) ];
ap or
Ġdestroy er
Ġcyl inder
ĠSacram ento
Ġd ign
class path
Process ing
emb ed
ĠW id
17 92
CO PY
Ġelectron ics
Ġelder ly
b anner
col on
part icle
S ens
Vers ions
Loc ations
ort ex
inn ings
B in
Ġ ))
od ic
yn a
aut s
z burg
ĠSand y
ĠKu wait
ĠParad ise
y ml
on line
Ġint act
c g
N ER
Ġt body
sl ash
f ollow
d ue
sub subsection
rest rict
ĠEns ure
T am
ell ites
Ġderiv atives
Ġnumer us
ĠSub sequently
r ific
o op
ĠDo es
unn els
ĠY ok
Ġris ks
ĠV ander
cons istent
K B
ĠC rom
Numer ic
Ġ$ -
ĠC ertificate
ĠCal endar
z ens
ĠPat ricia
ĠMe adow
ĠSl am
P atch
æ ģ
iz ational
Ġs olved
Ġim aging
ĠLib ya
Ġpredict ions
E mp
Ġs ap
gu id
ĠFre eman
ud i
uche ss
Ġh int
Ġdis pat
ĠAt hen
ĠMichel le
al er
ĠBer gen
ĠJ ourney
19 1
Ġmod est
g ol
inet ic
C LO
Ġe cosystem
og h
Sp rite
ĠPatri arch
Ġident ifies
Ġbar on
Ġro okie
Ġverb ose
Ġs ad
Ġg amb
Start ed
")) );
OL D
re ceive
Ġlong time
Ġphys icians
ĠN amed
ĠMoh ammad
t ier
ul ators
ĠE ra
ĠÄ °
IRT UAL
'. $
Ġb eds
"> @
Cl aim
d ensity
t pl
Ġd ip
Code Attribute
Filter Database
ĠCh ip
Ġneighborhood s
Fin ished
ĠPl ugin
ĠHamilton ian
ĠA th
Ġcert ification
= |
Ġb omber
Ġdevelop s
Ġlift ed
ĠT uesday
sh ader
Ġattract ive
Ġg entle
P a
writ eln
by e
Ġstead y
ch id
reg istration
ĠWhit ney
dele ted
ij k
Ġind ie
ĠSouth ampton
Ã¶ m
Ġdet ective
ĠI con
Ã¤ t
ÅĦ ski
ĠW R
ĠR ust
Pers istent
CLI ENT
Ġhe ll
ĠF en
illi ant
m idi
le ague
yl inder
Ġch at
Ġimplement ing
w on
17 7
}} (\
ĠH ew
Ġkn ight
F old
ĠJeff rey
Ġp av
ĠJ ub
Ġment or
ĠZ agreb
jav u
Ġ Ñĥ
le et
Ġun n
Portug uese
PI O
ĠTe en
query Selector
Ġang les
mk dir
inds ay
Belg ian
j dbc
( %
ĠEm pty
s uffix
ĠH ours
Ġpregn ancy
Ġsurre ndered
ĠV ec
) ");
i pt
Ġk in
bb ffbb
ĠMaur it
M LE
ĠMon ica
Ġgovern ors
oc ide
et i
pro position
ĠRecord ings
ĠPo ems
ur us
or io
ĠW ong
b ill
ĠB oh
ĠCon certo
Ġelabor ate
Ġins urg
ĠGu illaume
Ġunsuccess fully
ĠC NN
lay ers
P enn
ĠJess ica
ĠO ce
17 97
Des cribe
ĠR ost
Ġen orm
Ġeconom ist
ble ms
Wh o
ĠCom pute
Sh op
sp h
inherit doc
ĠGu adal
Ġbeliev ing
ĠSid ney
em ia
Ġdef unct
Ġcare ful
ĠSy racuse
Ġm im
Sc ient
Ġf itting
t itled
er ance
ĠĠĠĠĠĠĠĠĠĠĠĠĠĠĠĠĠĠĠĠĠĠĠĠĠĠĠĠĠĠĠĠ ĠĠĠĠĠĠĠĠĠĠĠĠĠ
itor ium
ĠLo op
Ġbrows ers
ĠPl ains
Ġ[ `
b usiness
Com pute
ipher al
Ġdr agon
Ð° Ðº
ĠMar ri
p it
olith ic
3 65
T en
STRE AM
ĠBe au
ret ry
Ġan x
Ġtr ucks
>: ]<
al ways
Ġcur r
ĠH ok
Ġst ick
ĠHam pton
ĠSp ot
empl ating
ch ars
Content Type
ist on
Dis able
Ġconsum ed
Rep o
Ġbad ge
ir ling
ĠW ARNING
Ġpostpon ed
om it
se p
ĠBudd ha
Ġpreced ed
Ġd in
ven ile
H ind
ĠId entity
ĠPh oto
ĠI st
g able
Ch urch
Ġc v
St ock
vent ions
. ')
rec ords
Ġhar bour
Ġel li
ĠD M
Pre view
= _
16 4
load s
R oll
S pl
de javu
Ġ<!-- [
Ġdecom position
ĠBar oque
ĠK ok
16 1
SE SSION
ĠEuro pa
Ġsym bolic
Ġdig its
ogen ic
Ġf iscal
ĠR oma
ĠR iley
ĠDecl aration
ĠC K
Ġmet eor
organ ization
In strument
Ġlog ged
' }),
ĠNav igation
Ġ ic
et ian
Ġsus pect
expand ed
s ung
2 15
ĠB rain
Ġpromin ence
ĠJ as
Ð¾ Ð½
Ġclimb ing
Col ors
Ge o
ordin ator
ov Ã¡
F inn
em ption
ĠLaw s
ĠSt a
Ġaccess key
ĠObject s
Install ation
ĠF letcher
Ġam endment
17 76
ograph s
Ġparticip ant
ĠP K
Ġex ported
Ġsp ite
Ġem bassy
y am
dr ive
F ederal
ĠColomb ian
Ġc d
ĠT ucker
S NA
ad vant
Ġ iv
od or
Ġcomment ator
N an
Ġcond itional
ĠGL enum
w ara
ine es
P seud
if inal
ĠD ion
um ably
Ġadv ances
Ġdiagn osis
ĠPri est
Ġassum ptions
ĠGaz ette
and e
cover age
Ġknock out
aw ait
Ġlo ans
b et
ul as
ĠDE BUG
âĢ ĺ
Sm art
Off ice
P ot
in crement
)\ ,
ĠZ am
Ġalt ar
Sp ain
Ġposthum ously
ugg ed
R ol
ĠBoy d
Ġcatalog ue
FA ILED
ĠH ydro
ĠY ard
Ġm p
Ġsp elled
ĠW ave
d ro
w omen
ĠZ hu
Ġswim mer
Ġvolcan ic
Ġ" {
ĠG ott
c url
ĠPr ussian
ĠVolunte er
Ġred ist
Ġreg isters
Ġavoid ed
,\ ,
Ġcost ume
ĠVatic an
ĠLeop old
ĠEx ternal
eff ective
ĠDen is
Ġsubdiv ision
ĠPro to
ĠStat istical
åľ ¨
P OL
Ġdon ations
Ġvalid ity
b x
ĠT ian
M Hz
Ġinfl ation
Ġb ail
Ġad mission
ib ald
fer red
Ġe leg
l od
Class ification
current Time
ĠK ub
Ġce iling
S ky
Com bo
BU F
ĠF ear
st aff
Ġle mma
Ġ+ \
E F
LOC AL
Doc uments
L ear
ener ate
Ġfre ely
Callback s
m ans
Ġpar ade
ÑĨ Ð¸
Ġl ith
ĠL ub
an as
ĠCh arg
å ¸
Ġpro claimed
Ġelect r
r ors
SER VICE
Ġlic ence
}) $.
olec ular
ĠIniti ative
fore st
Ġder ives
ĠAv iv
Ġf ut
ĠC areer
ĠN ixon
Ġtr ivial
Ġcounter part
ĠS ources
Ġg lyphicon
Ġrub ber
f el
Ġneigh bors
ul ia
Ġt ough
Ġb os
Ġscr atch
ER Y
Ġtot ally
Ð¾Ð ±
ĠNet flix
Ġanaly ze
Sl ider
Imp lemented
M ime
Ġprotest ers
ĠInt roduction
ĠDef ine
Ġl anes
ĠX box
ĠMyst ery
z k
ĠV or
are ncy
ĠP ART
ht m
12 34
Ġf us
pi res
76 8
P ow
ĠB row
ĠDeuts che
then Return
ĠPh one
Ġsuggest ion
Ġon Click
cat Desc
ĠM ell
Ġgeneral ized
ĠR andy
Util ities
ĠHait i
th reshold
s ampl
For Key
Ġp id
Ġbro ader
Ġpure ly
Ġco oking
Serial ize
Ġtra pped
ĠRoad s
Ġ( {
ĠF iji
}^ *
Ġmedal ist
Ġdro pping
Pr ince
ĠDol ph
sw ift
Ġsubstant ially
t bl
ĠL uz
Ġset Timeout
Ġen closed
start ed
define Property
r w
Ġfin ishes
ĠMoh ammed
Ġski ing
ĠSt ad
ĠX XX
Ġcommand ers
STAT IC
OFF SET
s qu
Ġaud ition
ank ar
Ġscen arios
Ġret re
Ġtermin ology
in qu
Ġgovern ance
\!\! \!\!
Ġupris ing
cont ribut
ĠParagu ay
ĠR ex
ĠMad ras
m ak
ion ic
Ġconv iction
keep ing
ĠW an
ors et
Ġpol ling
co res
ĠFor ward
ãĤ Ĵ
ĠBel t
Ġconscious ness
Cons ervative
os ome
ham pton
Ġv est
ĠK ai
Ã¤ n
Cred ential
P icture
th or
Ġlik es
Ġjudg ment
list ing
ĠNe uro
ĠBur ma
17 00
Pro of
ure n
AS K
Ġopin ions
ĠPow ers
Ġtestim ony
iser ies
ĠPe er
author ized
ĠBundes liga
ott ing
Sin ergi
ĠV ery
Ð» Ð¸
ĠCart esian
G F
Ġdet ector
Ġres ume
ĠD NS
Ġpr incess
Data Set
Ġeduc ators
25 2
ĠAlber to
AC CESS
Ġcomp ress
L em
ĠL ists
3 40
min i
work space
ĠPr ide
Ġbatt ed
Ġc arn
art icles
Comp atible
[...]
