{
  "version": "1.0",
  "truncation": null,
  "padding": null,
  "added_tokens": [
    {
      "id": 0,
      "content": "[UNK]",
      "single_word": false,
      "lstrip": false,
      "rstrip": false,
      "normalized": false,
      "special": true
    }
  ],
  "normalizer": null,
  "pre_tokenizer": {
    "type": "Sequence",
    "pretokenizers": [
      {
        "type": "Digits",
        "individual_digits": false
      },
      {
        "type": "ByteLevel",
        "add_prefix_space": false,
        "trim_offsets": true,
        "use_regex": true
      }
    ]
  },
  "post_processor": null,
  "decoder": null,
  "model": {
    "type": "BPE",
    "dropout": null,
    "unk_token": "[UNK]",
    "continuing_subword_prefix": null,
    "end_of_word_suffix": null,
    "fuse_unk": false,
    "byte_fallback": false,
    "vocab": {
      "[UNK]": 0,
      "!": 1,
      "\"": 2,
      "#": 3,
      "$": 4,
      "%": 5,
      "&": 6,
      "'": 7,
      "(": 8,
      ")": 9,
      "*": 10,
      "+": 11,
      ",": 12,
      "-": 13,
      ".": 14,
      "/": 15,
      "0": 16,
      "1": 17,
      "2": 18,
      "3": 19,
      "4": 20,
      "5": 21,
      "6": 22,
      "7": 23,
      "8": 24,
      "9": 25,
      ":": 26,
      ";": 27,
      "<": 28,
      "=": 29,
      ">": 30,
      "?": 31,
      "@": 32,
      "A": 33,
      "B": 34,
      "C": 35,
      "D": 36,
      "E": 37,
      "F": 38,
      "G": 39,
      "H": 40,
      "I": 41,
      "J": 42,
      "K": 43,
      "L": 44,
      "M": 45,
      "N": 46,
      "O": 47,
      "P": 48,
      "Q": 49,
      "R": 50,
      "S": 51,
      "T": 52,
      "U": 53,
      "V": 54,
      "W": 55,
      "X": 56,
      "Y": 57,
      "Z": 58,
      "[": 59,
      "\\": 60,
      "]": 61,
      "^": 62,
      "_": 63,
      "`": 64,
      "a": 65,
      "b": 66,
      "c": 67,
      "d": 68,
      "e": 69,
      "f": 70,
      "g": 71,
      "h": 72,
      "i": 73,
      "j": 74,
      "k": 75,
      "l": 76,
      "m": 77,
      "n": 78,
      "o": 79,
      "p": 80,
      "q": 81,
      "r": 82,
      "s": 83,
      "t": 84,
      "u": 85,
      "v": 86,
      "w": 87,
      "x": 88,
      "y": 89,
      "z": 90,
      "{": 91,
      "|": 92,
      "}": 93,
      "~": 94,
      "¡": 95,
      "¢": 96,
      "£": 97,
      "¤": 98,
      "¥": 99,
      "¦": 100,
      "§": 101,
      "¨": 102,
      "©": 103,
      "ª": 104,
      "«": 105,
      "¬": 106,
      "®": 107,
      "¯": 108,
      "°": 109,
      "±": 110,
      "²": 111,
      "³": 112,
      "´": 113,
      "µ": 114,
      "¶": 115,
      "·": 116,
      "¸": 117,
      "¹": 118,
      "º": 119,
      "»": 120,
      "¼": 121,
      "½": 122,
      "¾": 123,
      "¿": 124,
      "Â": 125,
      "Ã": 126,
      "Ä": 127,
      "Å": 128,
      "Æ": 129,
      "Ç": 130,
      "È": 131,
      "É": 132,
      "Ê": 133,
      "Ë": 134,
      "Ì": 135,
      "Í": 136,
      "Î": 137,
      "Ï": 138,
      "Ð": 139,
      "Ñ": 140,
      "Ò": 141,
      "Ó": 142,
      "Ô": 143,
      "Õ": 144,
      "Ö": 145,
      "×": 146,
      "Ø": 147,
      "Ù": 148,
      "Ú": 149,
      "Û": 150,
      "Ü": 151,
      "Ý": 152,
      "Þ": 153,
      "ß": 154,
      "à": 155,
      "á": 156,
      "â": 157,
      "ã": 158,
      "ä": 159,
      "å": 160,
      "æ": 161,
      "ç": 162,
      "è": 163,
      "é": 164,
      "ê": 165,
      "ë": 166,
      "ì": 167,
      "í": 168,
      "î": 169,
      "ï": 170,
      "ð": 171,
      "ñ": 172,
      "ò": 173,
      "ó": 174,
      "ô": 175,
      "Ā": 176,
      "ā": 177,
      "Ă": 178,
      "ă": 179,
      "Ą": 180,
      "ą": 181,
      "Ć": 182,
      "ć": 183,
      "Ĉ": 184,
      "ĉ": 185,
      "Ċ": 186,
      "ċ": 187,
      "Č": 188,
      "č": 189,
      "Ď": 190,
      "ď": 191,
      "Đ": 192,
      "đ": 193,
      "Ē": 194,
      "ē": 195,
      "Ĕ": 196,
      "Ė": 197,
      "Ę": 198,
      "ę": 199,
      "Ě": 200,
      "ě": 201,
      "Ĝ": 202,
      "ĝ": 203,
      "Ğ": 204,
      "ğ": 205,
      "Ġ": 206,
      "ġ": 207,
      "Ģ": 208,
      "ģ": 209,
      "Ĥ": 210,
      "ĥ": 211,
      "Ħ": 212,
      "ħ": 213,
      "Ĩ": 214,
      "ĩ": 215,
      "Ī": 216,
      "ī": 217,
      "Ĭ": 218,
      "ĭ": 219,
      "Į": 220,
      "į": 221,
      "İ": 222,
      "ı": 223,
      "Ĳ": 224,
      "ĳ": 225,
      "Ĵ": 226,
      "ĵ": 227,
      "Ķ": 228,
      "ķ": 229,
      "ĸ": 230,
      "Ĺ": 231,
      "ĺ": 232,
      "Ļ": 233,
      "ļ": 234,
      "Ľ": 235,
      "ľ": 236,
      "Ŀ": 237,
      "ŀ": 238,
      "Ł": 239,
      "ł": 240,
      "Ń": 241,
      "ĠĠ": 242,
      "ĠĠĠĠ": 243,
      "Ġt": 244,
      "in": 245,
      "er": 246,
      "Ġa": 247,
      "on": 248,
      "he": 249,
      "re": 250,
      "at": 251,
      "Ġthe": 252,
      "or": 253,
      "en": 254,
      "st": 255,
      "an": 256,
      "al": 257,
      "ar": 258,
      "ed": 259,
      "it": 260,
      "Ġo": 261,
      "Ġc": 262,
      "es": 263,
      "Ġs": 264,
      "Ġw": 265,
      "is": 266,
      "ion": 267,
      "Ġf": 268,
      "ĠĠĠ": 269,
      "Ġin": 270,
      "ic": 271,
      "nd": 272,
      "le": 273,
      "ĠĠĠĠĠĠĠĠ": 274,
      "Ġof": 275,
      "Ġp": 276,
      "ing": 277,
      "as": 278,
      "ro": 279,
      "Ġb": 280,
      "Ġand": 281,
      "ou": 282,
      "Ġd": 283,
      "ent": 284,
      "et": 285,
      "am": 286,
      "Ġm": 287,
      "ct": 288,
      "il": 289,
      "ĠS": 290,
      "Ġto": 291,
      "el": 292,
      "Ġh": 293,
      "ĠC": 294,
      "om": 295,
      "Ġre": 296,
      "ĠA": 297,
      "ol": 298,
      "Ġ(": 299,
      "ĠT": 300,
      "Ġn": 301,
      "id": 302,
      "ur": 303,
      "ad": 304,
      "ĠĠĠĠĠĠĠ": 305,
      "th": 306,
      "ation": 307,
      "ce": 308,
      "Ġl": 309,
      "iv": 310,
      "ig": 311,
      "ĠM": 312,
      "ch": 313,
      "im": 314,
      "Ġth": 315,
      "Ġe": 316,
      "ut": 317,
      "ers": 318,
      "us": 319,
      "ag": 320,
      "Ġ=": 321,
      "ĠB": 322,
      "ul": 323,
      "</": 324,
      "ot": 325,
      "ĠP": 326,
      "ra": 327,
      "ĉĉ": 328,
      "19": 329,
      "em": 330,
      "un": 331,
      "=\"": 332,
      "ĠI": 333,
      "od": 334,
      "ist": 335,
      "Ġfor": 336,
      "ir": 337,
      "20": 338,
      "ĠH": 339,
      "if": 340,
      "Ġg": 341,
      "Ġis": 342,
      "ow": 343,
      "ay": 344,
      "ĠR": 345,
      ");": 346,
      "um": 347,
      "Ġst": 348,
      "se": 349,
      "Ġon": 350,
      "Ġv": 351,
      "ly": 352,
      "Ġwas": 353,
      "ĠD": 354,
      "pe": 355,
      "ter": 356,
      "ĠL": 357,
      "Ġ<": 358,
      "oc": 359,
      "ate": 360,
      "ith": 361,
      "--": 362,
      "ĠF": 363,
      "ac": 364,
      "Ġ{": 365,
      "Ġas": 366,
      "and": 367,
      "ab": 368,
      "ĠN": 369,
      "Ġ\"": 370,
      "ue": 371,
      "Ġbe": 372,
      "ĠG": 373,
      "ri": 374,
      "ass": 375,
      "op": 376,
      "ĠĠĠĠĠĠĠĠĠĠĠ": 377,
      "Ġcon": 378,
      "ĠW": 379,
      "ame": 380,
      "ĠThe": 381,
      "ver": 382,
      "pt": 383,
      "ĠE": 384,
      "//": 385,
      "Ġwith": 386,
      "Ġal": 387,
      "ub": 388,
      "ew": 389,
      "rom": 390,
      "av": 391,
      "ht": 392,
      "res": 393,
      "ex": 394,
      "Ġ*": 395,
      "Ġby": 396,
      "ef": 397,
      "ction": 398,
      "ess": 399,
      "ort": 400,
      "čĊ": 401,
      "ĠJ": 402,
      "âĢ": 403,
      "os": 404,
      "up": 405,
      "Ġwh": 406,
      "nt": 407,
      "est": 408,
      "all": 409,
      "ap": 410,
      "our": 411,
      "end": 412,
      "age": 413,
      "Ġat": 414,
      "\">": 415,
      "Ġcl": 416,
      "ĠO": 417,
      "ain": 418,
      "art": 419,
      "Ġan": 420,
      "Ġ}": 421,
      "ity": 422,
      "qu": 423,
      "ran": 424,
      "'s": 425,
      "Ġthat": 426,
      "Ġpro": 427,
      "ere": 428,
      "Ġfrom": 429,
      "Ġcom": 430,
      "li": 431,
      "ine": 432,
      "ber": 433,
      "Ġ$": 434,
      "ment": 435,
      "ec": 436,
      "og": 437,
      "ies": 438,
      "ĠĊ": 439,
      "ore": 440,
      "Ġhe": 441,
      "ĠU": 442,
      "ect": 443,
      "ian": 444,
      "ĠĠĠĠĠĠĠĠĠĠĠĠĠĠĠĠ": 445,
      "Ġit": 446,
      "urn": 447,
      "ud": 448,
      "ĠĠĠĠĠ": 449,
      "ĠK": 450,
      "Ġor": 451,
      "ak": 452,
      "âĢĵ": 453,
      "()": 454,
      "ia": 455,
      "Ġex": 456,
      "ĠSt": 457,
      "port": 458,
      "pl": 459,
      "ard": 460,
      "ary": 461,
      "ill": 462,
      "ial": 463,
      "ge": 464,
      "ast": 465,
      "ip": 466,
      "ov": 467,
      "iz": 468,
      "ive": 469,
      "**": 470,
      "cl": 471,
      "ated": 472,
      "ld": 473,
      "ight": 474,
      "sp": 475,
      "ult": 476,
      "ack": 477,
      "ath": 478,
      "Ġclass": 479,
      "Ġpl": 480,
      "Ġde": 481,
      "00": 482,
      "201": 483,
      "ont": 484,
      "ure": 485,
      "ord": 486,
      "turn": 487,
      "ant": 488,
      "und": 489,
      "Ġch": 490,
      "ring": 491,
      "ich": 492,
      "per": 493,
      "ug": 494,
      "ype": 495,
      "ire": 496,
      "ext": 497,
      "==": 498,
      "Ġ|": 499,
      "..": 500,
      "----": 501,
      "Ġr": 502,
      "ong": 503,
      "Ġse": 504,
      "Ġare": 505,
      "In": 506,
      "ĠV": 507,
      "ĠIn": 508,
      "Ġ'": 509,
      "St": 510,
      "),": 511,
      "ust": 512,
      "get": 513,
      "int": 514,
      "The": 515,
      "200": 516,
      "Ġhis": 517,
      "Ġ\\": 518,
      "orm": 519,
      "ign": 520,
      "ode": 521,
      "ff": 522,
      "are": 523,
      "ish": 524,
      "ell": 525,
      "ubl": 526,
      "Ġthis": 527,
      "enc": 528,
      "ther": 529,
      "able": 530,
      "ĠCh": 531,
      "ost": 532,
      "ph": 533,
      "ke": 534,
      "ile": 535,
      "18": 536,
      "ions": 537,
      "ks": 538,
      "Ġif": 539,
      "ry": 540,
      "ĠĠĠĠĠĠĠĠĠĠĠĠĠĠĠ": 541,
      "Ġ-": 542,
      "mer": 543,
      "ind": 544,
      "ice": 545,
      "so": 546,
      "uc": 547,
      "eg": 548,
      "Ġle": 549,
      "ear": 550,
      "ase": 551,
      "Ġy": 552,
      "erv": 553,
      "ical": 554,
      "rit": 555,
      "Ġsh": 556,
      "rans": 557,
      "Ġus": 558,
      "com": 559,
      "Ġ||": 560,
      "ount": 561,
      "ang": 562,
      "ide": 563,
      "out": 564,
      "ime": 565,
      "ace": 566,
      "Ġreturn": 567,
      "ata": 568,
      "ep": 569,
      "ory": 570,
      "Ġcomp": 571,
      ").": 572,
      "to": 573,
      "ublic": 574,
      "Ġar": 575,
      "ref": 576,
      "Ġcont": 577,
      "Ġnot": 578,
      "ild": 579,
      "Ġ//": 580,
      "ject": 581,
      "Ġwhich": 582,
      "ev": 583,
      "Ġ</": 584,
      "Ġ&": 585,
      "Ġwere": 586,
      "ition": 587,
      "act": 588,
      "../": 589,
      "ork": 590,
      "ĉĉĉĉ": 591,
      "Ġun": 592,
      "ru": 593,
      "\",": 594,
      "ric": 595,
      "::": 596,
      "ens": 597,
      "alue": 598,
      "irst": 599,
      "->": 600,
      "ond": 601,
      "tern": 602,
      "ok": 603,
      "Ġj": 604,
      "hed": 605,
      "ob": 606,
      "Ġalso": 607,
      "Ġnew": 608,
      "ource": 609,
      "ib": 610,
      "pro": 611,
      "ations": 612,
      "ĠUn": 613,
      "Ex": 614,
      "ave": 615,
      "ĠTh": 616,
      "ach": 617,
      "own": 618,
      "Ġk": 619,
      "ĠHe": 620,
      "cri": 621,
      "ous": 622,
      "ence": 623,
      "Ġad": 624,
      "Ġres": 625,
      "ress": 626,
      "amp": 627,
      "ail": 628,
      "form": 629,
      "199": 630,
      "Ġplay": 631,
      "ock": 632,
      "ert": 633,
      "ance": 634,
      "ss": 635,
      "Ġhas": 636,
      "Ġro": 637,
      "ll": 638,
      "unction": 639,
      "Ġ[": 640,
      "ite": 641,
      "one": 642,
      "ool": 643,
      "Ġap": 644,
      "inal": 645,
      "Ġ@": 646,
      "hen": 647,
      "ree": 648,
      "elf": 649,
      "ml": 650,
      "te": 651,
      "con": 652,
      "div": 653,
      "ull": 654,
      "aram": 655,
      "ft": 656,
      "ng": 657,
      "ĠâĢĵ": 658,
      "ption": 659,
      "ound": 660,
      "eb": 661,
      "cc": 662,
      "erm": 663,
      "low": 664,
      "essage": 665,
      "ĠY": 666,
      "ents": 667,
      "sh": 668,
      "(\"": 669,
      "Ġ/": 670,
      "ne": 671,
      "clud": 672,
      "ences": 673,
      "span": 674,
      "ates": 675,
      "Ġfirst": 676,
      "over": 677,
      "row": 678,
      "ĠIt": 679,
      "fter": 680,
      "ational": 681,
      "();": 682,
      "ould": 683,
      "></": 684,
      "iel": 685,
      "Ġhad": 686,
      "ener": 687,
      "que": 688,
      "ater": 689,
      "Ref": 690,
      "ual": 691,
      "Ġname": 692,
      "io": 693,
      "ors": 694,
      "Ġ.": 695,
      "old": 696,
      "wo": 697,
      "Ġim": 698,
      "Ġpart": 699,
      "land": 700,
      "><": 701,
      "set": 702,
      "ele": 703,
      "Ġab": 704,
      "ember": 705,
      "Ġ+": 706,
      "Ġbo": 707,
      "ize": 708,
      "aw": 709,
      "iss": 710,
      "meric": 711,
      "ark": 712,
      "Ġsc": 713,
      "ield": 714,
      "10": 715,
      "--------": 716,
      "iew": 717,
      "ĠAr": 718,
      "les": 719,
      "',": 720,
      "erences": 721,
      "Ġpublic": 722,
      "../../": 723,
      "Ġwho": 724,
      "orn": 725,
      "ome": 726,
      "lo": 727,
      "put": 728,
      "Ġits": 729,
      "but": 730,
      "Ġdef": 731,
      "ck": 732,
      "Ġbut": 733,
      "any": 734,
      "roup": 735,
      "198": 736,
      "Ġhave": 737,
      "Ġone": 738,
      "ames": 739,
      "ited": 740,
      "Ġint": 741,
      "Ġtheir": 742,
      "eth": 743,
      "pec": 744,
      "ie": 745,
      "oot": 746,
      "eng": 747,
      "References": 748,
      "Ġfil": 749,
      "ople": 750,
      "ax": 751,
      "Ġcan": 752,
      "fer": 753,
      "ix": 754,
      "Ġpr": 755,
      "igh": 756,
      "pr": 757,
      "====": 758,
      "red": 759,
      "_{": 760,
      "Ġ*/": 761,
      "Ġdis": 762,
      "Ġdes": 763,
      "vent": 764,
      "ings": 765,
      "Ġ:": 766,
      "html": 767,
      "Ġher": 768,
      "ivers": 769,
      "ee": 770,
      "Ġcol": 771,
      "****": 772,
      "ons": 773,
      "Ġhref": 774,
      "Ġset": 775,
      "ery": 776,
      "merican": 777,
      "Ġout": 778,
      "yst": 779,
      "Ġag": 780,
      "ern": 781,
      "lect": 782,
      "ĉĉĉ": 783,
      "Ġvar": 784,
      "ics": 785,
      "ĠĠĠĠĠĠĠĠĠĠĠĠĠĠĠĠĠĠĠ": 786,
      "source": 787,
      "ray": 788,
      "oint": 789,
      "ade": 790,
      "Ġtr": 791,
      "Pro": 792,
      "tr": 793,
      "col": 794,
      "message": 795,
      "Ġup": 796,
      "che": 797,
      "('": 798,
      "ms": 799,
      "key": 800,
      "ose": 801,
      "Ġyear": 802,
      "Ġtwo": 803,
      "16": 804,
      "Ġcomm": 805,
      "Ġconst": 806,
      "ĠĠĠĠĠĠĠĠĠ": 807,
      "Ġinclud": 808,
      "cess": 809,
      "ann": 810,
      "we": 811,
      "err": 812,
      "eople": 813,
      "arg": 814,
      "ty": 815,
      "197": 816,
      "oid": 817,
      "ied": 818,
      "Ġall": 819,
      "vel": 820,
      "ased": 821,
      "Ġfunction": 822,
      "Ġper": 823,
      "uild": 824,
      "ransl": 825,
      "ick": 826,
      "ball": 827,
      "ished": 828,
      "ward": 829,
      "ĠNew": 830,
      "Ġrec": 831,
      "Ġte": 832,
      "ĠCom": 833,
      "ict": 834,
      "arch": 835,
      "12": 836,
      "ton": 837,
      "17": 838,
      "ake": 839,
      "tt": 840,
      "uring": 841,
      "Name": 842,
      "nc": 843,
      "Ġass": 844,
      "Ġsp": 845,
      "Ġ#": 846,
      "ternal": 847,
      "this": 848,
      "ely": 849,
      "son": 850,
      "round": 851,
      "name": 852,
      "Ġover": 853,
      "fig": 854,
      "Ġbeen": 855,
      "ystem": 856,
      "als": 857,
      "lement": 858,
      "))": 859,
      "ey": 860,
      "atch": 861,
      "uch": 862,
      "ts": 863,
      "atic": 864,
      "td": 865,
      "ĠAl": 866,
      "ator": 867,
      "ps": 868,
      "Ġafter": 869,
      "ale": 870,
      "Ġund": 871,
      "ER": 872,
      "Ġother": 873,
      "Type": 874,
      "Ġ=>": 875,
      "chool": 876,
      "du": 877,
      "oy": 878,
      "Ġtype": 879,
      "quest": 880,
      "Ġ_": 881,
      "ink": 882,
      "15": 883,
      "use": 884,
      "bject": 885,
      "Ġend": 886,
      "import": 887,
      "Ġoff": 888,
      "umber": 889,
      "Ġloc": 890,
      "cont": 891,
      "Id": 892,
      "ans": 893,
      "alse": 894,
      "/>": 895,
      "String": 896,
      "196": 897,
      "Ġtime": 898,
      "cript": 899,
      "Ġwe": 900,
      "Ġline": 901,
      "ugh": 902,
      "cent": 903,
      "ON": 904,
      "param": 905,
      "ren": 906,
      "raph": 907,
      "ision": 908,
      "Ġserv": 909,
      "ram": 910,
      "let": 911,
      "Ġatt": 912,
      "ribut": 913,
      "ative": 914,
      "odel": 915,
      "Ġact": 916,
      "Ch": 917,
      "Ġra": 918,
      "ranslation": 919,
      "ific": 920,
      "oug": 921,
      "ĠSh": 922,
      "ists": 923,
      "Ġpre": 924,
      "Com": 925,
      "ral": 926,
      "att": 927,
      "ars": 928,
      "outh": 929,
      "irect": 930,
      "##": 931,
      "Ġget": 932,
      "\"/>": 933,
      "pect": 934,
      "IN": 935,
      "Ġinto": 936,
      "way": 937,
      "wn": 938,
      "anc": 939,
      "Ġwork": 940,
      "orld": 941,
      "ins": 942,
      "ash": 943,
      "Ġtra": 944,
      "oh": 945,
      "Ġvalue": 946,
      "dd": 947,
      "Ġwhen": 948,
      "abl": 949,
      "pos": 950,
      "ah": 951,
      "ury": 952,
      "ruct": 953,
      "Cont": 954,
      "code": 955,
      "{\\": 956,
      "Ġreg": 957,
      "Ġdo": 958,
      "loc": 959,
      "az": 960,
      "Con": 961,
      "bo": 962,
      "return": 963,
      "Re": 964,
      "Ġthey": 965,
      "gan": 966,
      "ove": 967,
      "Ġsup": 968,
      "itle": 969,
      "translation": 970,
      "ĠAmerican": 971,
      "urre": 972,
      "Ġadd": 973,
      "iversity": 974,
      "Ġsub": 975,
      "olog": 976,
      "ĠPro": 977,
      "21": 978,
      "ident": 979,
      "Ġsec": 980,
      "sc": 981,
      "Ġlin": 982,
      "Ġco": 983,
      "List": 984,
      "emb": 985,
      "Ġshe": 986,
      "ason": 987,
      "add": 988,
      "Ġinst": 989,
      "ered": 990,
      "Ġpeople": 991,
      "ince": 992,
      "ollow": 993,
      "app": 994,
      "ious": 995,
      "Ġel": 996,
      "Ġpol": 997,
      "Res": 998,
      "class": 999,
      "duc": 1000,
      "ating": 1001,
      "man": 1002,
      "ular": 1003,
      "Ġspec": 1004,
      "Ġself": 1005,
      "ethod": 1006,
      "14": 1007,
      "ik": 1008,
      "Ġunder": 1009,
      "194": 1010,
      "Ã©": 1011,
      "ily": 1012,
      "Ġop": 1013,
      "Ġform": 1014,
      "resent": 1015,
      "lection": 1016,
      "right": 1017,
      "ood": 1018,
      "ĠCol": 1019,
      "Ġinter": 1020,
      "ault": 1021,
      "Ġonly": 1022,
      "ma": 1023,
      "Ġbet": 1024,
      "yle": 1025,
      "ĠThis": 1026,
      "lock": 1027,
      "pon": 1028,
      "Ġbec": 1029,
      "ities": 1030,
      "Ġind": 1031,
      "195": 1032,
      "Ġmore": 1033,
      "Ġ!": 1034,
      "orth": 1035,
      "ĠSe": 1036,
      "ersion": 1037,
      "Âł": 1038,
      "Ġme": 1039,
      "Ġcall": 1040,
      "ym": 1041,
      "ception": 1042,
      "ĠZ": 1043,
      "13": 1044,
      "RE": 1045,
      "line": 1046,
      "hip": 1047,
      "ined": 1048,
      "oci": 1049,
      "ache": 1050,
      "Ar": 1051,
      "ier": 1052,
      "ĠLe": 1053,
      "abel": 1054,
      "Ġqu": 1055,
      "ues": 1056,
      "ader": 1057,
      "Ġrel": 1058,
      "inn": 1059,
      "Ġcre": 1060,
      "Ġwhere": 1061,
      "text": 1062,
      "Ġused": 1063,
      "type": 1064,
      "Ġen": 1065,
      "cre": 1066,
      "Ġdata": 1067,
      "Ġkn": 1068,
      "ument": 1069,
      "ween": 1070,
      "ootball": 1071,
      "Th": 1072,
      "val": 1073,
      "ĠInd": 1074,
      "://": 1075,
      "urrent": 1076,
      "ĠUnited": 1077,
      "Ġrem": 1078,
      "ouse": 1079,
      "au": 1080,
      "ise": 1081,
      "25": 1082,
      "ever": 1083,
      "Ġresult": 1084,
      "air": 1085,
      "fo": 1086,
      "aj": 1087,
      "Ġ$\\": 1088,
      "min": 1089,
      "ature": 1090,
      "its": 1091,
      "Ġso": 1092,
      "Cl": 1093,
      "Ġser": 1094,
      "Ġ==": 1095,
      "__": 1096,
      "Ġdec": 1097,
      "def": 1098,
      "Ġcons": 1099,
      "Ġwould": 1100,
      "ife": 1101,
      "der": 1102,
      "External": 1103,
      "ĠCl": 1104,
      "Ġac": 1105,
      "11": 1106,
      "ask": 1107,
      "ivate": 1108,
      "Ġpos": 1109,
      "Ġlinks": 1110,
      "Ġcent": 1111,
      "Ġwill": 1112,
      "ĠUniversity": 1113,
      "ys": 1114,
      "Ġfollow": 1115,
      "ST": 1116,
      "uff": 1117,
      "Ġest": 1118,
      "rough": 1119,
      "Ġnull": 1120,
      "22": 1121,
      "\"><": 1122,
      ".\"": 1123,
      "AT": 1124,
      "Ġfound": 1125,
      "Ġman": 1126,
      "ĠQ": 1127,
      "Ġthen": 1128,
      "Ġdist": 1129,
      "ages": 1130,
      "org": 1131,
      "Ġhim": 1132,
      "Ġent": 1133,
      "math": 1134,
      "Ġfinal": 1135,
      "mp": 1136,
      "Ġteam": 1137,
      "back": 1138,
      "30": 1139,
      "ures": 1140,
      "ser": 1141,
      "arn": 1142,
      "rad": 1143,
      "ient": 1144,
      "Ġacc": 1145,
      "ĠAn": 1146,
      "Ġbetween": 1147,
      "Ġwrit": 1148,
      "ement": 1149,
      "Ġagain": 1150,
      "Ġprov": 1151,
      "Ġed": 1152,
      "ĠâĢ": 1153,
      "of": 1154,
      "overn": 1155,
      "):": 1156,
      "read": 1157,
      "ĠDe": 1158,
      "Ġev": 1159,
      "ĠCon": 1160,
      "rict": 1161,
      "Ġi": 1162,
      "Ġplayers": 1163,
      "Ġduring": 1164,
      "the": 1165,
      "Ġtrans": 1166,
      "ole": 1167,
      "Ġno": 1168,
      "Ġvoid": 1169,
      "Ġchar": 1170,
      "ired": 1171,
      "til": 1172,
      "Ġfalse": 1173,
      "htt": 1174,
      "ĠĠĠĠĠĠĠĠĠĠĠĠĠ": 1175,
      "Ġstud": 1176,
      "Ġyears": 1177,
      "ute": 1178,
      "Ġabout": 1179,
      "ional": 1180,
      "self": 1181,
      "\")": 1182,
      "Ġfe": 1183,
      "var": 1184,
      "usic": 1185,
      "ott": 1186,
      "ina": 1187,
      "ough": 1188,
      "by": 1189,
      "ober": 1190,
      "string": 1191,
      "ĠSc": 1192,
      "AR": 1193,
      "Ġrele": 1194,
      "iving": 1195,
      "ract": 1196,
      "ava": 1197,
      "rid": 1198,
      "ron": 1199,
      "Ġmost": 1200,
      "OR": 1201,
      "Ġnumber": 1202,
      "istory": 1203,
      "Ġthan": 1204,
      "bum": 1205,
      "\".": 1206,
      "Col": 1207,
      "ines": 1208,
      "ĠEng": 1209,
      "ces": 1210,
      "Ġsuch": 1211,
      "ule": 1212,
      "ĠSp": 1213,
      "itt": 1214,
      "ized": 1215,
      "Ġback": 1216,
      "Ġthere": 1217,
      "ID": 1218,
      "Ġthrough": 1219,
      "ograph": 1220,
      "ĠĠĠĠĠĠĠĠĠĠĠĠĠĠĠĠĠĠĠĠĠĠĠ": 1221,
      "ĠMar": 1222,
      "Ġsing": 1223,
      "pp": 1224,
      "co": 1225,
      "Ġinv": 1226,
      "Ġsecond": 1227,
      "Ġph": 1228,
      "eter": 1229,
      "Ġext": 1230,
      "LE": 1231,
      "erson": 1232,
      "Ġ`": 1233,
      "ths": 1234,
      "umm": 1235,
      "Ġfilm": 1236,
      "}}": 1237,
      "ived": 1238,
      "enn": 1239,
      "ohn": 1240,
      "Ġlist": 1241,
      "----------------": 1242,
      "view": 1243,
      "ĠStates": 1244,
      "iver": 1245,
      "000": 1246,
      "ble": 1247,
      "umn": 1248,
      "Ġart": 1249,
      "Ġthree": 1250,
      "Ġfam": 1251,
      "Ġtrue": 1252,
      "ve": 1253,
      "ague": 1254,
      "Ġoper": 1255,
      "ody": 1256,
      "Ġgroup": 1257,
      "Ġsome": 1258,
      "Ġgener": 1259,
      "ible": 1260,
      "uss": 1261,
      "ange": 1262,
      "Ġam": 1263,
      "Ġdirect": 1264,
      "ets": 1265,
      "ĠCount": 1266,
      "\");": 1267,
      "idth": 1268,
      "ength": 1269,
      "rr": 1270,
      "opt": 1271,
      "Ġyou": 1272,
      "ower": 1273,
      "Ġmade": 1274,
      "fore": 1275,
      "Ġuse": 1276,
      "ĠShe": 1277,
      "Ġ>": 1278,
      "Ġem": 1279,
      "Ġfootball": 1280,
      "ĠIs": 1281,
      "data": 1282,
      "me": 1283,
      "Ġmay": 1284,
      "fl": 1285,
      "Ġrecord": 1286,
      "********": 1287,
      "Ġ)": 1288,
      "Ġbir": 1289,
      "other": 1290,
      "Ġlater": 1291,
      "Ġid": 1292,
      "193": 1293,
      "Ġne": 1294,
      "Ġhigh": 1295,
      "ream": 1296,
      "imes": 1297,
      "ley": 1298,
      "On": 1299,
      "Ġstart": 1300,
      "Ġpop": 1301,
      "Ġmed": 1302,
      "ices": 1303,
      "},": 1304,
      "Ġseason": 1305,
      "Value": 1306,
      "Ġerr": 1307,
      "ments": 1308,
      "nb": 1309,
      "arly": 1310,
      "une": 1311,
      "px": 1312,
      "perty": 1313,
      "////": 1314,
      "Ġval": 1315,
      "SS": 1316,
      "yn": 1317,
      "He": 1318,
      "Data": 1319,
      "plic": 1320,
      "Ġtest": 1321,
      "Ġcount": 1322,
      "));": 1323,
      "igned": 1324,
      "Ġshow": 1325,
      "Ġelse": 1326,
      "ĠComm": 1327,
      "play": 1328,
      "24": 1329,
      "ility": 1330,
      "atus": 1331,
      "yp": 1332,
      "Un": 1333,
      "Ġapp": 1334,
      "value": 1335,
      "Ġmin": 1336,
      "bar": 1337,
      "Ġ--": 1338,
      "ister": 1339,
      "reat": 1340,
      "location": 1341,
      "ism": 1342,
      "ten": 1343,
      "Ġstring": 1344,
      "Ġalbum": 1345,
      "arget": 1346,
      "ervice": 1347,
      "work": 1348,
      "Ġany": 1349,
      "Ġbuild": 1350,
      "Ġwhile": 1351,
      "Ġexp": 1352,
      "It": 1353,
      "ler": 1354,
      "omen": 1355,
      "ural": 1356,
      "ĠEx": 1357,
      "^{": 1358,
      "Ġknown": 1359,
      "ĠOn": 1360,
      "ather": 1361,
      "roid": 1362,
      "AL": 1363,
      "Ġrun": 1364,
      "ai": 1365,
      "cept": 1366,
      "Ġbeing": 1367,
      "ĠAs": 1368,
      "Ġbefore": 1369,
      "ounc": 1370,
      "ĠFran": 1371,
      "EN": 1372,
      "ĠFor": 1373,
      "To": 1374,
      "str": 1375,
      "ports": 1376,
      "Ġob": 1377,
      "nbsp": 1378,
      "ĠĠĠĠĠĠ": 1379,
      "Ġdif": 1380,
      "ution": 1381,
      "========": 1382,
      "my": 1383,
      "rac": 1384,
      "Ġstate": 1385,
      "roll": 1386,
      "ĠWorld": 1387,
      "pre": 1388,
      "ĠPh": 1389,
      "log": 1390,
      "ĠJan": 1391,
      "file": 1392,
      "ĠMay": 1393,
      "Ġwell": 1394,
      "ally": 1395,
      "23": 1396,
      "equ": 1397,
      "Ġschool": 1398,
      "ared": 1399,
      "apt": 1400,
      "Ġrep": 1401,
      "ĠJohn": 1402,
      "uth": 1403,
      "Ġfl": 1404,
      "be": 1405,
      "ta": 1406,
      "date": 1407,
      "ĠPl": 1408,
      "ĠNational": 1409,
      "Ġthem": 1410,
      "ple": 1411,
      "Ġ/**": 1412,
      "Ġbecame": 1413,
      "}\\": 1414,
      "uro": 1415,
      "item": 1416,
      "ĠAust": 1417,
      "Ġtitle": 1418,
      "Ġgo": 1419,
      "Set": 1420,
      "ank": 1421,
      "Ġestabl": 1422,
      "left": 1423,
      "Ġ///": 1424,
      "arent": 1425,
      "ote": 1426,
      "test": 1427,
      "Ġprivate": 1428,
      "ĠWar": 1429,
      "action": 1430,
      "Ġbro": 1431,
      "par": 1432,
      "ause": 1433,
      "af": 1434,
      "}$": 1435,
      "gram": 1436,
      "ger": 1437,
      "Ġmov": 1438,
      "($": 1439,
      "ives": 1440,
      "Ġfour": 1441,
      "Ġseries": 1442,
      "Exception": 1443,
      "Ġlong": 1444,
      "amb": 1445,
      "Ġsystem": 1446,
      "];": 1447,
      "amed": 1448,
      "ĠAss": 1449,
      "Ġmain": 1450,
      "urch": 1451,
      "iginal": 1452,
      "ternational": 1453,
      "Ġappe": 1454,
      "ĠĠĠĠĠĠĠĠĠĠĠĠĠĠĠĠĠĠĠĠĠĠĠĠĠĠĠĠĠĠĠĠ": 1455,
      "mall": 1456,
      "Ġincluding": 1457,
      "ays": 1458,
      "ified": 1459,
      "rol": 1460,
      "rror": 1461,
      "ĠRe": 1462,
      "Ġmod": 1463,
      "reg": 1464,
      "ĠCar": 1465,
      "ground": 1466,
      "rand": 1467,
      "color": 1468,
      "ission": 1469,
      "eta": 1470,
      "Ġ&&": 1471,
      "ĠBrit": 1472,
      "script": 1473,
      "ĠCounty": 1474,
      "|-": 1475,
      "Ġcase": 1476,
      "new": 1477,
      "rc": 1478,
      "ats": 1479,
      "Ġagainst": 1480,
      "Ġboth": 1481,
      "')": 1482,
      "Ġown": 1483,
      "ĠCan": 1484,
      "ains": 1485,
      "Ġstatic": 1486,
      "uccess": 1487,
      "Object": 1488,
      "velop": 1489,
      "ĠSchool": 1490,
      "owever": 1491,
      "Ġx": 1492,
      "50": 1493,
      "oad": 1494,
      "ĠString": 1495,
      "ĠOr": 1496,
      "Ġdevelop": 1497,
      "ummary": 1498,
      "Ġran": 1499,
      "liam": 1500,
      "ike": 1501,
      "ĠJul": 1502,
      "arri": 1503,
      "field": 1504,
      "CT": 1505,
      "embers": 1506,
      "32": 1507,
      "Ind": 1508,
      "angu": 1509,
      "Ġsame": 1510,
      "ium": 1511,
      "uary": 1512,
      "Ġmon": 1513,
      "ager": 1514,
      "ĠPr": 1515,
      "Ġmany": 1516,
      "Ġsur": 1517,
      "ross": 1518,
      "Ġsong": 1519,
      "ider": 1520,
      "rop": 1521,
      "for": 1522,
      "ampions": 1523,
      "ology": 1524,
      "ĠGerm": 1525,
      "DE": 1526,
      "Test": 1527,
      "ĠSouth": 1528,
      "ĠBo": 1529,
      "ample": 1530,
      "ians": 1531,
      "led": 1532,
      "Ġstr": 1533,
      "ĠNov": 1534,
      "med": 1535,
      "ained": 1536,
      "']": 1537,
      "ĠX": 1538,
      "Ġ!=": 1539,
      "her": 1540,
      "order": 1541,
      "ulation": 1542,
      "Ġdeath": 1543,
      "Ġperform": 1544,
      "SE": 1545,
      ".</": 1546,
      "100": 1547,
      "face": 1548,
      "ugust": 1549,
      "aid": 1550,
      "Ġfollowing": 1551,
      "Ġpass": 1552,
      "Ġrece": 1553,
      "size": 1554,
      "areer": 1555,
      "ency": 1556,
      "Ġpoint": 1557,
      "ization": 1558,
      "().": 1559,
      "ocument": 1560,
      "Ġdescri": 1561,
      "Ġ%": 1562,
      "ĠWest": 1563,
      "Ġuntil": 1564,
      "Ġfield": 1565,
      "ĠYork": 1566,
      "ptember": 1567,
      "Ġsim": 1568,
      "nav": 1569,
      "rame": 1570,
      "rist": 1571,
      "Ġdr": 1572,
      "indow": 1573,
      "public": 1574,
      "overnment": 1575,
      "egin": 1576,
      "inter": 1577,
      "ush": 1578,
      "const": 1579,
      "Ġdep": 1580,
      "\"></": 1581,
      "js": 1582,
      "Ġopen": 1583,
      "ify": 1584,
      "ior": 1585,
      "Ġcurrent": 1586,
      "Ġevent": 1587,
      "ĠĠĠĠĊ": 1588,
      "ĠBl": 1589,
      "());": 1590,
      "els": 1591,
      "Ġkey": 1592,
      "url": 1593,
      "unc": 1594,
      "Ġpolit": 1595,
      "ae": 1596,
      "Ġeach": 1597,
      "ctober": 1598,
      "\";": 1599,
      "time": 1600,
      "ĠPar": 1601,
      "duct": 1602,
      "26": 1603,
      "ĠWh": 1604,
      "Ġann": 1605,
      "ww": 1606,
      "ĠAt": 1607,
      "mod": 1608,
      "ilt": 1609,
      "ĠAd": 1610,
      "reak": 1611,
      "View": 1612,
      "28": 1613,
      "2010": 1614,
      "âĢĻ": 1615,
      "Ġdet": 1616,
      "Ġchild": 1617,
      "label": 1618,
      "IT": 1619,
      "list": 1620,
      "ital": 1621,
      "born": 1622,
      "27": 1623,
      "raw": 1624,
      "iven": 1625,
      "Ġfamily": 1626,
      "Error": 1627,
      "Key": 1628,
      "(\\": 1629,
      "itions": 1630,
      "ually": 1631,
      "reen": 1632,
      "ants": 1633,
      "Class": 1634,
      "Ġrequ": 1635,
      "Ġlead": 1636,
      "Sh": 1637,
      "Ġcalled": 1638,
      "ense": 1639,
      "por": 1640,
      "irc": 1641,
      "ĉĉĉĉĉ": 1642,
      "Get": 1643,
      "link": 1644,
      "ĠAugust": 1645,
      "ME": 1646,
      "iter": 1647,
      "mber": 1648,
      "wh": 1649,
      "Ġret": 1650,
      "Ġlocal": 1651,
      "ĠMarch": 1652,
      "ĠSeptember": 1653,
      "lient": 1654,
      "lish": 1655,
      "An": 1656,
      "ĠCent": 1657,
      "sub": 1658,
      "Ġmusic": 1659,
      "ful": 1660,
      "Ġsupport": 1661,
      "['": 1662,
      "Ġobject": 1663,
      "vision": 1664,
      "._": 1665,
      "Ġthese": 1666,
      "util": 1667,
      "istor": 1668,
      "ourn": 1669,
      "ret": 1670,
      "duced": 1671,
      "!--": 1672,
      "CO": 1673,
      "ĠWil": 1674,
      "ĠJanuary": 1675,
      "fess": 1676,
      "Ġcontin": 1677,
      "begin": 1678,
      "bed": 1679,
      "quot": 1680,
      "rem": 1681,
      "pril": 1682,
      "itial": 1683,
      "ĠGe": 1684,
      "Ġsever": 1685,
      "oman": 1686,
      "wards": 1687,
      "ĠMan": 1688,
      "Ġresp": 1689,
      "cal": 1690,
      "Ġpar": 1691,
      "ner": 1692,
      "Ġsign": 1693,
      "epend": 1694,
      "index": 1695,
      "Ġorg": 1696,
      "lege": 1697,
      "dis": 1698,
      "=\"+": 1699,
      "function": 1700,
      "ĠOctober": 1701,
      "ajor": 1702,
      "ox": 1703,
      "ird": 1704,
      "ĠPol": 1705,
      "icip": 1706,
      "Ġ/>": 1707,
      "ically": 1708,
      "ris": 1709,
      "Al": 1710,
      "duction": 1711,
      "Pl": 1712,
      "off": 1713,
      "Ġplayed": 1714,
      "Ġeff": 1715,
      "By": 1716,
      "Ġfin": 1717,
      "cember": 1718,
      "Ġreleased": 1719,
      "Ġarea": 1720,
      "oss": 1721,
      "ĠJune": 1722,
      "ĠâĢĶ": 1723,
      "Ġoffic": 1724,
      "Ġbl": 1725,
      "idd": 1726,
      "Ġmet": 1727,
      "ven": 1728,
      "load": 1729,
      "ane": 1730,
      "ĠAustral": 1731,
      "iet": 1732,
      "umb": 1733,
      "29": 1734,
      "../../../../": 1735,
      "aint": 1736,
      "ĠReg": 1737,
      "itor": 1738,
      "orks": 1739,
      "Ġref": 1740,
      "Not": 1741,
      "Ġbirths": 1742,
      "inc": 1743,
      "Ġbel": 1744,
      "ĠJuly": 1745,
      "ptions": 1746,
      "40": 1747,
      "lected": 1748,
      "pace": 1749,
      "See": 1750,
      "sk": 1751,
      "Ġgame": 1752,
      "http": 1753,
      "top": 1754,
      "2011": 1755,
      "Ġmethod": 1756,
      "Ġwon": 1757,
      "arm": 1758,
      "gy": 1759,
      "Ġformer": 1760,
      "ony": 1761,
      "');": 1762,
      "lex": 1763,
      "go": 1764,
      "Ġarg": 1765,
      "Ġfile": 1766,
      "Ġsince": 1767,
      "ided": 1768,
      "ended": 1769,
      "Ġstyle": 1770,
      "century": 1771,
      "190": 1772,
      "Ġright": 1773,
      "ĠApril": 1774,
      "ampionship": 1775,
      "FF": 1776,
      "Ġorgan": 1777,
      "ĠLeague": 1778,
      "not": 1779,
      "ĠEuro": 1780,
      "Ġhand": 1781,
      "ĠBritish": 1782,
      "Ġcor": 1783,
      "thern": 1784,
      "ĠNorth": 1785,
      "Ġimp": 1786,
      "Ġdiffer": 1787,
      "ĠNovember": 1788,
      "void": 1789,
      "ales": 1790,
      "rap": 1791,
      "summary": 1792,
      "resident": 1793,
      "2008": 1794,
      "Ġlife": 1795,
      "\":": 1796,
      "chn": 1797,
      "side": 1798,
      "Ġhead": 1799,
      "ected": 1800,
      "2014": 1801,
      "Ġmodel": 1802,
      "Ġche": 1803,
      "Ã¡": 1804,
      "ches": 1805,
      "ĠRes": 1806,
      "Im": 1807,
      "lob": 1808,
      "2012": 1809,
      "Ġcharact": 1810,
      "Ġoriginal": 1811,
      "ung": 1812,
      "AN": 1813,
      "ĠGu": 1814,
      "2015": 1815,
      "ĠDecember": 1816,
      "anguage": 1817,
      "ĠCal": 1818,
      "ĠCity": 1819,
      "search": 1820,
      "comm": 1821,
      "(),": 1822,
      "ector": 1823,
      "Ġbased": 1824,
      "ĠState": 1825,
      "urg": 1826,
      "64": 1827,
      "ography": 1828,
      "br": 1829,
      "ene": 1830,
      "2016": 1831,
      "Ġusing": 1832,
      "ape": 1833,
      "Ġbu": 1834,
      "Ġleft": 1835,
      "ook": 1836,
      "uck": 1837,
      "2013": 1838,
      "Ġpubl": 1839,
      "Ġlast": 1840,
      "Ġplace": 1841,
      "Ġprogram": 1842,
      "aces": 1843,
      "aster": 1844,
      "Ġcommun": 1845,
      "2009": 1846,
      "Ġgu": 1847,
      "Ġimport": 1848,
      "2007": 1849,
      "apan": 1850,
      "ebru": 1851,
      "arge": 1852,
      "Ġseveral": 1853,
      "sy": 1854,
      "ience": 1855,
      "ored": 1856,
      "ackage": 1857,
      "ĠAll": 1858,
      "ĠII": 1859,
      "uk": 1860,
      "ling": 1861,
      "ised": 1862,
      "ebruary": 1863,
      "File": 1864,
      "ival": 1865,
      "group": 1866,
      "uffer": 1867,
      "2006": 1868,
      "md": 1869,
      "Ġterm": 1870,
      "ords": 1871,
      "cription": 1872,
      "ribute": 1873,
      "ilit": 1874,
      "2017": 1875,
      "Ġfilms": 1876,
      "Ġ,": 1877,
      "AC": 1878,
      "Ġequ": 1879,
      "path": 1880,
      "RO": 1881,
      "ze": 1882,
      "ponse": 1883,
      "aking": 1884,
      "Ġcity": 1885,
      "})": 1886,
      "urs": 1887,
      "Time": 1888,
      "ĠEd": 1889,
      "elevision": 1890,
      "Ġnon": 1891,
      "Ġshould": 1892,
      "UL": 1893,
      "uration": 1894,
      "ĠAf": 1895,
      "ĠCanad": 1896,
      "],": 1897,
      "33": 1898,
      "Ġread": 1899,
      "_{\\": 1900,
      "Int": 1901,
      "empl": 1902,
      "189": 1903,
      "ĠKing": 1904,
      "ued": 1905,
      "olv": 1906,
      "Ġearly": 1907,
      "Man": 1908,
      "American": 1909,
      "Ġocc": 1910,
      "Text": 1911,
      "ends": 1912,
      "Ġappro": 1913,
      "ĠBe": 1914,
      "umer": 1915,
      "Ġprom": 1916,
      "lp": 1917,
      "Ġdisc": 1918,
      "opy": 1919,
      "atri": 1920,
      "bb": 1921,
      "Ġtop": 1922,
      "Ġnear": 1923,
      "rench": 1924,
      "Fil": 1925,
      "Ġsmall": 1926,
      "Ġnow": 1927,
      "vers": 1928,
      "ham": 1929,
      "iev": 1930,
      "Ġversion": 1931,
      "vert": 1932,
      "Ġcareer": 1933,
      "ality": 1934,
      "Request": 1935,
      "'t": 1936,
      "des": 1937,
      "ĠAnd": 1938,
      "ĠFebruary": 1939,
      "2018": 1940,
      "2000": 1941,
      "Ġstruct": 1942,
      "ope": 1943,
      "Ġ-->": 1944,
      "Ġaut": 1945,
      "ĠAm": 1946,
      "Ġsuccess": 1947,
      "Ġparam": 1948,
      "ui": 1949,
      "Ġnamed": 1950,
      "Ġmember": 1951,
      "Ġtown": 1952,
      "user": 1953,
      "ese": 1954,
      "ĠMin": 1955,
      "Sc": 1956,
      "Ġrefer": 1957,
      "ĠEurope": 1958,
      "Ġsize": 1959,
      "alth": 1960,
      "dt": 1961,
      "Ġtri": 1962,
      "ĠCo": 1963,
      "Ġmembers": 1964,
      "iness": 1965,
      "Ġcould": 1966,
      "Ġdid": 1967,
      "Ġallow": 1968,
      "Param": 1969,
      "Ġsingle": 1970,
      "Ġever": 1971,
      "Ġgiven": 1972,
      "ĠRep": 1973,
      "ctions": 1974,
      "For": 1975,
      "ases": 1976,
      "formation": 1977,
      "Ġbecom": 1978,
      "Ġeng": 1979,
      "Ġalong": 1980,
      "Ġcompet": 1981,
      "ĠTe": 1982,
      "Path": 1983,
      "LA": 1984,
      "TE": 1985,
      "vious": 1986,
      "Ġold": 1987,
      "ĠThey": 1988,
      "Def": 1989,
      "raft": 1990,
      "Ġthrow": 1991,
      "lang": 1992,
      "Ġwomen": 1993,
      "].": 1994,
      "aced": 1995,
      "Form": 1996,
      "Ġassert": 1997,
      "Event": 1998,
      "``": 1999,
      "Add": 2000,
      "Or": 2001,
      "ration": 2002,
      "uthor": 2003,
      "Ġrest": 2004,
      "eters": 2005,
      "Ġ?": 2006,
      "2019": 2007,
      "fil": 2008,
      "())": 2009,
      "Info": 2010,
      "oo": 2011,
      "ting": 2012,
      "includ": 2013,
      "ille": 2014,
      "odes": 2015,
      "ideo": 2016,
      "ster": 2017,
      "Node": 2018,
      "/**": 2019,
      "Ġz": 2020,
      "####": 2021,
      "ION": 2022,
      "config": 2023,
      "Ġrequest": 2024,
      "Ġlaw": 2025,
      "$.": 2026,
      "ĠBar": 2027,
      "Ġorder": 2028,
      "/*": 2029,
      "Ġland": 2030,
      "Ġclub": 2031,
      "ĠSw": 2032,
      "ides": 2033,
      "Ġvis": 2034,
      "Ġbegan": 2035,
      "ana": 2036,
      "ĠPart": 2037,
      "Ġ()": 2038,
      "}{": 2039,
      "Item": 2040,
      "aving": 2041,
      "Element": 2042,
      "comp": 2043,
      "Ġrepresent": 2044,
      "stit": 2045,
      "ĠDist": 2046,
      "icon": 2047,
      "Ġ);": 2048,
      "rag": 2049,
      "Ġdifferent": 2050,
      "Ġgovernment": 2051,
      "ayout": 2052,
      "ogle": 2053,
      "Ġtext": 2054,
      "PE": 2055,
      "Ġneed": 2056,
      "uf": 2057,
      "align": 2058,
      "Ġprocess": 2059,
      "ots": 2060,
      "writ": 2061,
      "Ġpresent": 2062,
      "60": 2063,
      "ship": 2064,
      "ainer": 2065,
      "Ġsol": 2066,
      "table": 2067,
      "Ġelement": 2068,
      "Ġheld": 2069,
      "Ġalign": 2070,
      "Ġvill": 2071,
      "ĠAfter": 2072,
      "Des": 2073,
      "ride": 2074,
      "ining": 2075,
      "2020": 2076,
      "ording": 2077,
      "Config": 2078,
      "Field": 2079,
      "2005": 2080,
      "ources": 2081,
      "iod": 2082,
      "lor": 2083,
      "With": 2084,
      "Ġband": 2085,
      "Ġmake": 2086,
      "ĠEnglish": 2087,
      "ification": 2088,
      "Ġestablished": 2089,
      "head": 2090,
      "empt": 2091,
      "cast": 2092,
      "En": 2093,
      "ĠTr": 2094,
      "adem": 2095,
      "ĠJapan": 2096,
      "ĠHar": 2097,
      "Ġbecause": 2098,
      "':": 2099,
      "amespace": 2100,
      "Ġpo": 2101,
      "Ġinclude": 2102,
      "Index": 2103,
      "next": 2104,
      "sec": 2105,
      "188": 2106,
      "vir": 2107,
      "...": 2108,
      "State": 2109,
      "stance": 2110,
      "olean": 2111,
      "length": 2112,
      "TR": 2113,
      "ĠChrist": 2114,
      "ĠHis": 2115,
      "ĠĠĠĠĠĠĠĠĠĠĠĠĠĠĠĠĠĠĠĠĠĠĠĠĠĠĠ": 2116,
      "fin": 2117,
      "ius": 2118,
      "Qu": 2119,
      "Service": 2120,
      "Ġperson": 2121,
      "pert": 2122,
      "Ġlocated": 2123,
      "Map": 2124,
      "ĠUS": 2125,
      "Ġbase": 2126,
      "dom": 2127,
      "ociation": 2128,
      "itional": 2129,
      "api": 2130,
      "ponent": 2131,
      "ination": 2132,
      "Ġla": 2133,
      "width": 2134,
      "rack": 2135,
      "pi": 2136,
      "Ġservice": 2137,
      "Ġworld": 2138,
      "ards": 2139,
      "serv": 2140,
      "ĠĠĊ": 2141,
      "usiness": 2142,
      "itch": 2143,
      "Ġdue": 2144,
      "Over": 2145,
      "ĠWe": 2146,
      "aus": 2147,
      "Ġmajor": 2148,
      "eq": 2149,
      "Array": 2150,
      "ately": 2151,
      "PI": 2152,
      "Ġexpect": 2153,
      "Ġpost": 2154,
      "Ġjo": 2155,
      "frac": 2156,
      "Ġwithin": 2157,
      "ino": 2158,
      "Ġleg": 2159,
      "Ġprot": 2160,
      "ĠMc": 2161,
      "ively": 2162,
      "Ġproject": 2163,
      "Context": 2164,
      "true": 2165,
      "etwork": 2166,
      "ety": 2167,
      "ĠList": 2168,
      "ateg": 2169,
      "Ġ(!": 2170,
      "lt": 2171,
      "ĠNo": 2172,
      "ondon": 2173,
      "ourt": 2174,
      "Ġdown": 2175,
      "Ġmark": 2176,
      "Ġhome": 2177,
      "2004": 2178,
      "$,": 2179,
      "Result": 2180,
      "Ġreceived": 2181,
      "da": 2182,
      "Ġdesign": 2183,
      "title": 2184,
      "Ġaround": 2185,
      "ĠHigh": 2186,
      "box": 2187,
      "';": 2188,
      "ĠMed": 2189,
      "Ġstation": 2190,
      "akes": 2191,
      "ney": 2192,
      "Ġjust": 2193,
      "de": 2194,
      "Equ": 2195,
      "rest": 2196,
      "ison": 2197,
      "ĠAfric": 2198,
      "Ã³": 2199,
      "illion": 2200,
      "All": 2201,
      "aim": 2202,
      "Ġport": 2203,
      "rew": 2204,
      "Ġcap": 2205,
      "Ġpopulation": 2206,
      "men": 2207,
      "ivision": 2208,
      "ouble": 2209,
      "Build": 2210,
      "Ġtook": 2211,
      "ĠCollege": 2212,
      "hes": 2213,
      "olic": 2214,
      "ford": 2215,
      "ĠSer": 2216,
      "Ġhouse": 2217,
      "Ġerror": 2218,
      "Comm": 2219,
      "alk": 2220,
      "Ġnational": 2221,
      "from": 2222,
      "ocial": 2223,
      "sw": 2224,
      "leg": 2225,
      "Ġbuilt": 2226,
      "Ġlike": 2227,
      "plication": 2228,
      "ustom": 2229,
      "ĠRec": 2230,
      "Ġ});": 2231,
      "Ġ/*": 2232,
      "Ġshort": 2233,
      "Ġcompany": 2234,
      "ĠChampionship": 2235,
      "day": 2236,
      "\"\"": 2237,
      "ttp": 2238,
      "https": 2239,
      "requ": 2240,
      "='": 2241,
      "Ġarray": 2242,
      "Ġlevel": 2243,
      "ession": 2244,
      "Ġserved": 2245,
      "Ġnext": 2246,
      "ression": 2247,
      "Ġcontent": 2248,
      "ances": 2249,
      "Ġgames": 2250,
      "ĠSec": 2251,
      "lear": 2252,
      "error": 2253,
      "ĠHowever": 2254,
      "model": 2255,
      "result": 2256,
      "ĠÐ": 2257,
      "apache": 2258,
      "Ġtarget": 2259,
      "Ġlarge": 2260,
      "object": 2261,
      "ĠEast": 2262,
      "ĠIf": 2263,
      "eder": 2264,
      "IC": 2265,
      "Ġ},": 2266,
      "efore": 2267,
      "ĠFrench": 2268,
      ".,": 2269,
      "oun": 2270,
      "Ġlog": 2271,
      "nder": 2272,
      "Ġsl": 2273,
      "ially": 2274,
      "Ġpublished": 2275,
      "=\"../../../../": 2276,
      "Ġdel": 2277,
      "lymp": 2278,
      "ĠRuss": 2279,
      "Ġdefault": 2280,
      "ĠSystem": 2281,
      "abled": 2282,
      "As": 2283,
      "ĠAir": 2284,
      "Ġstand": 2285,
      "ift": 2286,
      "ĠPhil": 2287,
      "ari": 2288,
      "Ġcentury": 2289,
      "map": 2290,
      "Ġdi": 2291,
      "Ġtyp": 2292,
      "ries": 2293,
      "aul": 2294,
      "urther": 2295,
      "rick": 2296,
      "ume": 2297,
      "Ġprofess": 2298,
      "ently": 2299,
      "Ġposition": 2300,
      "Ġmatch": 2301,
      "ĠHer": 2302,
      "Att": 2303,
      "Ġborn": 2304,
      "ĠSup": 2305,
      "Ġhistory": 2306,
      "ilitary": 2307,
      "ait": 2308,
      "ness": 2309,
      "aut": 2310,
      "ĠLondon": 2311,
      "ension": 2312,
      "ĠYou": 2313,
      "version": 2314,
      "rm": 2315,
      "eek": 2316,
      "atter": 2317,
      "lin": 2318,
      "Ġmen": 2319,
      "oph": 2320,
      "state": 2321,
      "eneral": 2322,
      "ĠChar": 2323,
      "block": 2324,
      "Ġfact": 2325,
      "Ġreport": 2326,
      "Ġtelevision": 2327,
      "Ġcomplet": 2328,
      "ĠWilliam": 2329,
      "////////": 2330,
      "input": 2331,
      "word": 2332,
      "evel": 2333,
      "ruction": 2334,
      "aly": 2335,
      "valid": 2336,
      "ones": 2337,
      "Ġcar": 2338,
      "Ġav": 2339,
      "Ġsaid": 2340,
      "ington": 2341,
      "Ġelection": 2342,
      "ĠGerman": 2343,
      "Ġage": 2344,
      "Ġplayer": 2345,
      "ours": 2346,
      ">&": 2347,
      "Ġsrc": 2348,
      "eturn": 2349,
      "Code": 2350,
      "ĠAb": 2351,
      "Ġsk": 2352,
      "Ġday": 2353,
      "UR": 2354,
      "Ġbreak": 2355,
      "ĠDistrict": 2356,
      "187": 2357,
      "ĠCup": 2358,
      "ÃŃ": 2359,
      "ouncil": 2360,
      "ailed": 2361,
      "[]": 2362,
      "reet": 2363,
      "Is": 2364,
      "Ġep": 2365,
      "gt": 2366,
      "Ġcommand": 2367,
      "arried": 2368,
      "ender": 2369,
      "80": 2370,
      "Size": 2371,
      "****************": 2372,
      "tn": 2373,
      "Ġchildren": 2374,
      "alt": 2375,
      "java": 2376,
      "Ġtot": 2377,
      "ĠCor": 2378,
      "};": 2379,
      "Ġincre": 2380,
      "Message": 2381,
      "hold": 2382,
      "2003": 2383,
      "ops": 2384,
      "na": 2385,
      "Ser": 2386,
      "Ġ__": 2387,
      "ls": 2388,
      "Ġview": 2389,
      "pha": 2390,
      "ured": 2391,
      "Ġposs": 2392,
      "pen": 2393,
      "center": 2394,
      "Ġdoes": 2395,
      "Ġmult": 2396,
      "ummer": 2397,
      "ĠEn": 2398,
      "Ġeduc": 2399,
      "Ġiss": 2400,
      "place": 2401,
      "Ġchang": 2402,
      "count": 2403,
      "ken": 2404,
      "New": 2405,
      "Ġsix": 2406,
      "iction": 2407,
      "Ġspecies": 2408,
      "Ġsw": 2409,
      "2021": 2410,
      "rown": 2411,
      "Ġdem": 2412,
      "less": 2413,
      "down": 2414,
      "create": 2415,
      "aining": 2416,
      "css": 2417,
      "net": 2418,
      "Loc": 2419,
      "Ġrad": 2420,
      "alf": 2421,
      "Ġincluded": 2422,
      "ĠComp": 2423,
      "ridge": 2424,
      "android": 2425,
      "ald": 2426,
      "yd": 2427,
      "2001": 2428,
      "artment": 2429,
      "ced": 2430,
      "icle": 2431,
      "Ġcharacter": 2432,
      "reate": 2433,
      "Ġcamp": 2434,
      "ories": 2435,
      "Ġfind": 2436,
      "lobal": 2437,
      "Ġadv": 2438,
      "ĠMe": 2439,
      "body": 2440,
      "aff": 2441,
      "assert": 2442,
      "default": 2443,
      "thers": 2444,
      "ief": 2445,
      "Hand": 2446,
      "Ġdescribed": 2447,
      "ules": 2448,
      "Ġrole": 2449,
      "Ġlarg": 2450,
      "ĠAng": 2451,
      "struct": 2452,
      "ware": 2453,
      "Ð°": 2454,
      "ront": 2455,
      "ugg": 2456,
      "Ass": 2457,
      "ĠArt": 2458,
      "array": 2459,
      "Ġinitial": 2460,
      "++": 2461,
      "Ġcreate": 2462,
      "Acc": 2463,
      "45": 2464,
      "ĠPark": 2465,
      "Ġhelp": 2466,
      "aged": 2467,
      "ĠNor": 2468,
      "ploy": 2469,
      "Ġthose": 2470,
      "AD": 2471,
      "At": 2472,
      "Ġprevious": 2473,
      "nection": 2474,
      "ĠBro": 2475,
      "Ã¼": 2476,
      "ators": 2477,
      "ux": 2478,
      "elect": 2479,
      "ML": 2480,
      "ĠLa": 2481,
      "Ġarch": 2482,
      "2002": 2483,
      "Ġcrit": 2484,
      "though": 2485,
      "Ġjava": 2486,
      "Ġanother": 2487,
      "emplate": 2488,
      "Of": 2489,
      "Ġfive": 2490,
      "ĠDav": 2491,
      "rec": 2492,
      "Ġeffect": 2493,
      "info": 2494,
      "ags": 2495,
      "Ġstill": 2496,
      "ĠHouse": 2497,
      "Living": 2498,
      "Ġperiod": 2499,
      "bl": 2500,
      "ecut": 2501,
      "part": 2502,
      "bf": 2503,
      "ending": 2504,
      "31": 2505,
      "This": 2506,
      "olution": 2507,
      "Ġthird": 2508,
      "Ġside": 2509,
      "ached": 2510,
      "content": 2511,
      "base": 2512,
      "era": 2513,
      "annel": 2514,
      "Ġcode": 2515,
      "Ġmust": 2516,
      "Ġnorth": 2517,
      "Ġpower": 2518,
      "omin": 2519,
      "UT": 2520,
      "loat": 2521,
      "Ġvery": 2522,
      "Ġdied": 2523,
      "perties": 2524,
      "omet": 2525,
      "Ġweb": 2526,
      "imit": 2527,
      "ocus": 2528,
      "ibr": 2529,
      "History": 2530,
      "Val": 2531,
      "LO": 2532,
      "run": 2533,
      "}.": 2534,
      "no": 2535,
      "Model": 2536,
      "Ġes": 2537,
      "inning": 2538,
      "Ġbook": 2539,
      "cite": 2540,
      "Ġsee": 2541,
      "attle": 2542,
      "web": 2543,
      "Rec": 2544,
      "uman": 2545,
      "Ġevery": 2546,
      "Ġbuilding": 2547,
      "sl": 2548,
      "point": 2549,
      "Ġappear": 2550,
      "=\"#": 2551,
      "ottom": 2552,
      "35": 2553,
      "site": 2554,
      "Ġconfig": 2555,
      "node": 2556,
      "osed": 2557,
      "MA": 2558,
      "ails": 2559,
      "ĠChe": 2560,
      "Ġauthor": 2561,
      "Ġvillage": 2562,
      "Dis": 2563,
      "ead": 2564,
      "Ġelect": 2565,
      "Ġtotal": 2566,
      "Ġfore": 2567,
      "Ġmag": 2568,
      "atures": 2569,
      "Ġenc": 2570,
      "ĠAct": 2571,
      "Ġpath": 2572,
      "Log": 2573,
      "People": 2574,
      "Ġcr": 2575,
      "ailable": 2576,
      "Ġcreated": 2577,
      "Ġwar": 2578,
      "Ġbeg": 2579,
      "Ġuser": 2580,
      "Ġeven": 2581,
      "earch": 2582,
      "ught": 2583,
      "Ġvol": 2584,
      "From": 2585,
      "aterial": 2586,
      "Ð¾": 2587,
      "Color": 2588,
      "ĠInternational": 2589,
      "Ġair": 2590,
      "urity": 2591,
      "Ġpat": 2592,
      "context": 2593,
      "Ġbest": 2594,
      "iber": 2595,
      "Ġident": 2596,
      "ico": 2597,
      "Ġ===": 2598,
      "ayer": 2599,
      "ĠAg": 2600,
      "see": 2601,
      "Ġwhat": 2602,
      "bol": 2603,
      "iment": 2604,
      "ĉĉĉĉĉĉ": 2605,
      "ped": 2606,
      "Ġ};": 2607,
      "uments": 2608,
      "ament": 2609,
      "ĠIndian": 2610,
      "66": 2611,
      "call": 2612,
      "iforn": 2613,
      "conom": 2614,
      "Ġhost": 2615,
      "ĠRiver": 2616,
      "IG": 2617,
      "style": 2618,
      "oper": 2619,
      ";</": 2620,
      "Ġdocument": 2621,
      "Manager": 2622,
      "oyal": 2623,
      "ning": 2624,
      "ica": 2625,
      "print": 2626,
      "ixed": 2627,
      "ivity": 2628,
      "Trans": 2629,
      "ential": 2630,
      "Ġsouth": 2631,
      "Ġson": 2632,
      "oon": 2633,
      "ique": 2634,
      "1990": 2635,
      "Ġgeneral": 2636,
      "Ġpe": 2637,
      "--------------------------------": 2638,
      "Ent": 2639,
      "ĠSch": 2640,
      "ifornia": 2641,
      "Ad": 2642,
      "with": 2643,
      "ĠSan": 2644,
      "ĠPer": 2645,
      "Count": 2646,
      "orge": 2647,
      "ĠBy": 2648,
      "Group": 2649,
      "roller": 2650,
      "ET": 2651,
      "met": 2652,
      "ĠEngland": 2653,
      "ĠCont": 2654,
      ";&": 2655,
      "ara": 2656,
      "ĠEl": 2657,
      "Ġexper": 2658,
      "yl": 2659,
      "Ġspe": 2660,
      "Ġlate": 2661,
      "ĠThere": 2662,
      "ĠAc": 2663,
      "nect": 2664,
      "1999": 2665,
      "burg": 2666,
      "minist": 2667,
      "Ġkill": 2668,
      "ĠGet": 2669,
      "Out": 2670,
      "useum": 2671,
      "ged": 2672,
      "equation": 2673,
      "false": 2674,
      "Comp": 2675,
      "Up": 2676,
      "Ġexpl": 2677,
      "Ġu": 2678,
      "tings": 2679,
      "Ġwithout": 2680,
      "Pr": 2681,
      "include": 2682,
      "Ġtem": 2683,
      "ING": 2684,
      "lands": 2685,
      "ĠMich": 2686,
      "AS": 2687,
      "rel": 2688,
      "erence": 2689,
      "2022": 2690,
      "ering": 2691,
      "Ġfeature": 2692,
      "Inter": 2693,
      "ĠOff": 2694,
      "ought": 2695,
      "ounced": 2696,
      "39": 2697,
      "option": 2698,
      "position": 2699,
      "Ph": 2700,
      "55": 2701,
      "Ġwater": 2702,
      "TD": 2703,
      "Ġaff": 2704,
      "start": 2705,
      "Ġconf": 2706,
      "Ġitem": 2707,
      "ĠParty": 2708,
      "ĠOlymp": 2709,
      "ĠDes": 2710,
      "Ġfac": 2711,
      "ples": 2712,
      "Ġround": 2713,
      ")</": 2714,
      "Ġcond": 2715,
      "Ġinc": 2716,
      "trans": 2717,
      "gcolor": 2718,
      "Reg": 2719,
      "Ġborder": 2720,
      "<!--": 2721,
      "ĠVal": 2722,
      "viron": 2723,
      "posed": 2724,
      "ĠCalifornia": 2725,
      "ociety": 2726,
      "avy": 2727,
      "User": 2728,
      "=\"../": 2729,
      "package": 2730,
      "argin": 2731,
      "Ġlet": 2732,
      "omb": 2733,
      "Ġreturned": 2734,
      "ULL": 2735,
      "Ġmoved": 2736,
      "Ġins": 2737,
      "ĠAustralia": 2738,
      "Ġblock": 2739,
      "gress": 2740,
      "Ġdistrict": 2741,
      "Ġsite": 2742,
      "rain": 2743,
      "ilar": 2744,
      "Ġcontext": 2745,
      "Ġbusiness": 2746,
      "Ġtry": 2747,
      "ĠQu": 2748,
      "ama": 2749,
      "Ġinformation": 2750,
      "ij": 2751,
      "Ġ:=": 2752,
      "ĠDep": 2753,
      "Ġmat": 2754,
      "Ġdeaths": 2755,
      "Ġcountry": 2756,
      "Ġled": 2757,
      "DO": 2758,
      "AB": 2759,
      "IS": 2760,
      "Ġmax": 2761,
      "MP": 2762,
      "onse": 2763,
      "sequ": 2764,
      "uel": 2765,
      "ability": 2766,
      "Ġexample": 2767,
      "ĠEm": 2768,
      "Table": 2769,
      "ED": 2770,
      "ĠIm": 2771,
      "Ġship": 2772,
      "CH": 2773,
      "Ġinstance": 2774,
      "Ġworks": 2775,
      "ites": 2776,
      "Ġmale": 2777,
      "Ġtechn": 2778,
      "max": 2779,
      "tes": 2780,
      "Call": 2781,
      "Ġway": 2782,
      "Ġcolor": 2783,
      "Ġhistor": 2784,
      ",\\": 2785,
      "System": 2786,
      "Ġwritten": 2787,
      "embly": 2788,
      "Ġattack": 2789,
      "ights": 2790,
      "Ġcommon": 2791,
      "Ġinput": 2792,
      "ection": 2793,
      "FA": 2794,
      "Tr": 2795,
      "Bar": 2796,
      "Ġoften": 2797,
      "ivil": 2798,
      "Ġdest": 2799,
      "ĠQue": 2800,
      "ĠRepublic": 2801,
      "oken": 2802,
      "================": 2803,
      "UN": 2804,
      "Ġbeh": 2805,
      "imary": 2806,
      "ithub": 2807,
      "lib": 2808,
      "Ġtrad": 2809,
      "Ðµ": 2810,
      "ump": 2811,
      "ĠPort": 2812,
      "Ġstat": 2813,
      "ca": 2814,
      "aper": 2815,
      "Ġresponse": 2816,
      "Ġwest": 2817,
      "Ġbgcolor": 2818,
      "Client": 2819,
      "Ġsource": 2820,
      "Ġnov": 2821,
      "Ġfull": 2822,
      "www": 2823,
      "now": 2824,
      "Ġevents": 2825,
      "ĠĠĠĠĠĠĠĠĠĠĠĠ": 2826,
      "Ġcult": 2827,
      "Ġcover": 2828,
      "34": 2829,
      "99": 2830,
      "Ġturn": 2831,
      "37": 2832,
      ")$": 2833,
      "ournal": 2834,
      "Ġindex": 2835,
      "ĠArmy": 2836,
      "Ġengine": 2837,
      "Ġexist": 2838,
      "Ġmuch": 2839,
      "namespace": 2840,
      "oks": 2841,
      "Ġdev": 2842,
      "Ġandroid": 2843,
      "ĠAward": 2844,
      "âĢĶ": 2845,
      "irt": 2846,
      "Ġgen": 2847,
      "Ġstd": 2848,
      "Ġcontrol": 2849,
      "nown": 2850,
      "using": 2851,
      "Ġsold": 2852,
      "Ã¶": 2853,
      "Ġamong": 2854,
      "Ġtake": 2855,
      "abor": 2856,
      "section": 2857,
      "build": 2858,
      "Ġresults": 2859,
      "ormal": 2860,
      "google": 2861,
      "ways": 2862,
      "anish": 2863,
      "define": 2864,
      "oke": 2865,
      "dev": 2866,
      "ymbol": 2867,
      "Ġpres": 2868,
      "Response": 2869,
      "Arg": 2870,
      "Ġinternational": 2871,
      "Ġgrad": 2872,
      "quad": 2873,
      "prot": 2874,
      "Ġsent": 2875,
      "iff": 2876,
      "Ġant": 2877,
      "âĢĿ": 2878,
      "1998": 2879,
      "}(": 2880,
      "Ġpri": 2881,
      "static": 2882,
      "NA": 2883,
      "Ġeast": 2884,
      "db": 2885,
      "method": 2886,
      ">(": 2887,
      "lete": 2888,
      "Ġbackground": 2889,
      "Ġestablish": 2890,
      "Ġda": 2891,
      "Ġfather": 2892,
      "ĠChurch": 2893,
      "github": 2894,
      "Property": 2895,
      "ges": 2896,
      "Ġspecial": 2897,
      "rs": 2898,
      "Ġproduction": 2899,
      "90": 2900,
      "elta": 2901,
      "eger": 2902,
      "iddle": 2903,
      "ither": 2904,
      "Ġfem": 2905,
      "Ġreal": 2906,
      "Ġstarted": 2907,
      "Ġconc": 2908,
      "ĠRoman": 2909,
      "65": 2910,
      "sup": 2911,
      "mathcal": 2912,
      "ael": 2913,
      "Ġmy": 2914,
      "itive": 2915,
      "Ġproduced": 2916,
      "1980": 2917,
      "ogn": 2918,
      "finished": 2919,
      "ĠOne": 2920,
      "Ġintro": 2921,
      "ĠBer": 2922,
      "actory": 2923,
      "ĠFrance": 2924,
      "CE": 2925,
      "Ġbool": 2926,
      "Ġnode": 2927,
      "olved": 2928,
      "ĠAmeric": 2929,
      "reed": 2930,
      "Ġcheck": 2931,
      "ala": 2932,
      "unk": 2933,
      "Ġannounced": 2934,
      "Ġpartic": 2935,
      "oth": 2936,
      "Be": 2937,
      "doc": 2938,
      "Query": 2939,
      "ĠIndia": 2940,
      "Ġparent": 2941,
      "Mod": 2942,
      "Ġtimes": 2943,
      "bor": 2944,
      "Ġproperty": 2945,
      "idual": 2946,
      "ĠÃ": 2947,
      "ĠAcc": 2948,
      "Ġmap": 2949,
      "Ġvalues": 2950,
      "Ġregion": 2951,
      "ĠĠĠĠĠĠĠĠĠĠ": 2952,
      "Ġaccess": 2953,
      "Ġdebut": 2954,
      "Builder": 2955,
      "ellow": 2956,
      "Override": 2957,
      "agement": 2958,
      "iol": 2959,
      "prov": 2960,
      "Sp": 2961,
      "ifier": 2962,
      "Ġaward": 2963,
      "US": 2964,
      "ĠĠĠĠĠĠĠĠĠĠĠĠĠĠĠĠĠĠĠĠĠĠĠĠĠĠĠĠĠĠĠ": 2965,
      "Ġpolitic": 2966,
      "Ed": 2967,
      "38": 2968,
      "Ġbas": 2969,
      "check": 2970,
      "pty": 2971,
      "alpha": 2972,
      "itar": 2973,
      "After": 2974,
      "44": 2975,
      "ĠRed": 2976,
      "Ġtw": 2977,
      "atab": 2978,
      "Method": 2979,
      "ĠFil": 2980,
      "itect": 2981,
      "ĠHol": 2982,
      "Ġyour": 2983,
      "Ġvarious": 2984,
      "BC": 2985,
      "Ġvideo": 2986,
      "Ġdevelopment": 2987,
      "event": 2988,
      "Ġtable": 2989,
      "Ġaddress": 2990,
      "OT": 2991,
      "ado": 2992,
      "unicip": 2993,
      "ĠRev": 2994,
      "osp": 2995,
      "ĠBel": 2996,
      "ename": 2997,
      "ĠAnt": 2998,
      "Ġresearch": 2999,
      "Ġmiss": 3000,
      "null": 3001,
      "Ġrange": 3002,
      "yles": 3003,
      "70": 3004,
      "Ġet": 3005,
      "Ġaction": 3006,
      "vironment": 3007,
      "roy": 3008,
      "ENT": 3009,
      "ĠMal": 3010,
      "ables": 3011,
      "Ġdiv": 3012,
      "query": 3013,
      "Ġepis": 3014,
      "Ð¸": 3015,
      "Ġoptions": 3016,
      "Writ": 3017,
      "resp": 3018,
      "core": 3019,
      "ĠCanada": 3020,
      "Stream": 3021,
      "1996": 3022,
      "ĠMon": 3023,
      "ĠSet": 3024,
      "Ġmillion": 3025,
      "Ġfew": 3026,
      "oud": 3027,
      "Ġavailable": 3028,
      "Ġyoung": 3029,
      "Ġcell": 3030,
      "flu": 3031,
      "36": 3032,
      "jav": 3033,
      "icense": 3034,
      "dl": 3035,
      "Ġnil": 3036,
      "Ġbody": 3037,
      "Ġbecome": 3038,
      "Ġcame": 3039,
      "Ġofficial": 3040,
      "ĠWhen": 3041,
      "ĠCouncil": 3042,
      "hand": 3043,
      "75": 3044,
      "oz": 3045,
      "gle": 3046,
      "mar": 3047,
      "Ġrequire": 3048,
      "Em": 3049,
      "Ġmessage": 3050,
      "Ġcommunity": 3051,
      "unfinished": 3052,
      "ĠGeneral": 3053,
      "Ġclaim": 3054,
      "Ġhaving": 3055,
      "erman": 3056,
      "rant": 3057,
      "acy": 3058,
      "Ġmer": 3059,
      "1997": 3060,
      "Ġappoint": 3061,
      "light": 3062,
      "ES": 3063,
      "urb": 3064,
      "aken": 3065,
      "ĠRober": 3066,
      "ibrary": 3067,
      "ĠAmerica": 3068,
      "Ġpoints": 3069,
      "inary": 3070,
      "Ġcomb": 3071,
      "rote": 3072,
      "ĠThom": 3073,
      "Ġwent": 3074,
      "year": 3075,
      "image": 3076,
      "cle": 3077,
      "alian": 3078,
      "dir": 3079,
      "oice": 3080,
      "ha": 3081,
      "ĠJames": 3082,
      "istry": 3083,
      "}^": 3084,
      "Off": 3085,
      "oll": 3086,
      "Date": 3087,
      "End": 3088,
      "west": 3089,
      "jo": 3090,
      "Ġpolitical": 3091,
      "Util": 3092,
      "48": 3093,
      "ĠPresident": 3094,
      "ological": 3095,
      "ĠDivision": 3096,
      "ĠEuropean": 3097,
      "ming": 3098,
      "plit": 3099,
      "](": 3100,
      "current": 3101,
      "And": 3102,
      "uation": 3103,
      "ĠMor": 3104,
      "ĠSm": 3105,
      "Ġhold": 3106,
      "gen": 3107,
      "ya": 3108,
      "Ġsimilar": 3109,
      "Act": 3110,
      "ero": 3111,
      "outhern": 3112,
      "])": 3113,
      "ĠStreet": 3114,
      "auth": 3115,
      "Ġke": 3116,
      "Ġlabel": 3117,
      "ĠGeorge": 3118,
      "1970": 3119,
      "Ġmarried": 3120,
      "ribution": 3121,
      "eal": 3122,
      "Ġhow": 3123,
      "ĠRoyal": 3124,
      "iers": 3125,
      "Sub": 3126,
      "lied": 3127,
      "itte": 3128,
      "IL": 3129,
      "ention": 3130,
      "cer": 3131,
      "request": 3132,
      "ka": 3133,
      "client": 3134,
      "php": 3135,
      "ville": 3136,
      "Status": 3137,
      "ns": 3138,
      "ambda": 3139,
      "Ġfri": 3140,
      "ĠBr": 3141,
      "ĠClass": 3142,
      "Action": 3143,
      "button": 3144,
      "ready": 3145,
      "ĠPal": 3146,
      "iple": 3147,
      "Ġtrack": 3148,
      "ania": 3149,
      "options": 3150,
      "ago": 3151,
      "Ġrail": 3152,
      "Ġlanguage": 3153,
      "Ġconsid": 3154,
      "ude": 3155,
      "Ġdefe": 3156,
      "Ġcapt": 3157,
      "ĠMount": 3158,
      "Ġdisplay": 3159,
      "ĠDi": 3160,
      "ittle": 3161,
      "ston": 3162,
      "ĠâĢľ": 3163,
      "Ġchange": 3164,
      "Ġmilitary": 3165,
      "DI": 3166,
      "Ġassoci": 3167,
      "Ġwidth": 3168,
      "ĠThese": 3169,
      "ĠPaul": 3170,
      "Ġinterest": 3171,
      "reek": 3172,
      "Ġjoined": 3173,
      "cd": 3174,
      "Ġmem": 3175,
      "hib": 3176,
      "Ġproduc": 3177,
      "igation": 3178,
      "}_": 3179,
      "cell": 3180,
      "mark": 3181,
      "Ġ->": 3182,
      "umni": 3183,
      "ĠĠĠĠĠĠĠĠĠĠĠĠĠĠĠĠĠ": 3184,
      "rab": 3185,
      "Ġworked": 3186,
      "imate": 3187,
      "uit": 3188,
      "1995": 3189,
      "Ġattempt": 3190,
      "ĠAssociation": 3191,
      "Ġinstall": 3192,
      "Ġgl": 3193,
      "header": 3194,
      "1994": 3195,
      "eps": 3196,
      "Ġsuper": 3197,
      "~\\": 3198,
      "ĠPe": 3199,
      "ĠDr": 3200,
      "btn": 3201,
      "Exp": 3202,
      "ependent": 3203,
      "ĠInt": 3204,
      "ĠRich": 3205,
      "adding": 3206,
      "inner": 3207,
      "ĠSen": 3208,
      "arning": 3209,
      "Ġour": 3210,
      "Ġ<<": 3211,
      "Ġspace": 3212,
      "atform": 3213,
      "han": 3214,
      "IP": 3215,
      "board": 3216,
      "oto": 3217,
      "ONT": 3218,
      "ĠInstit": 3219,
      "ql": 3220,
      "We": 3221,
      "ĠDem": 3222,
      "eff": 3223,
      "args": 3224,
      "Ġlow": 3225,
      "oe": 3226,
      "arser": 3227,
      "server": 3228,
      "Base": 3229,
      "Ġwin": 3230,
      "bit": 3231,
      "CA": 3232,
      "$\\": 3233,
      "atal": 3234,
      "rav": 3235,
      "ibility": 3236,
      "Ġrequired": 3237,
      "utes": 3238,
      "No": 3239,
      "ida": 3240,
      "ĠUnion": 3241,
      "Image": 3242,
      "ategory": 3243,
      "istic": 3244,
      "atrix": 3245,
      "anel": 3246,
      "ĠGl": 3247,
      "ocr": 3248,
      "mon": 3249,
      "has": 3250,
      "ander": 3251,
      "ĠGermany": 3252,
      "ference": 3253,
      "ett": 3254,
      "Ġinvest": 3255,
      "aves": 3256,
      "Ġparticular": 3257,
      "Nav": 3258,
      "undle": 3259,
      "Ġgroups": 3260,
      "active": 3261,
      "Ġder": 3262,
      "1992": 3263,
      "Ġhowever": 3264,
      "ĠAustralian": 3265,
      "itted": 3266,
      "Ġear": 3267,
      "ĠStud": 3268,
      "cho": 3269,
      "Ġprofessional": 3270,
      "Ġpract": 3271,
      "mu": 3272,
      "ĠNULL": 3273,
      "raz": 3274,
      "ĠAdd": 3275,
      "Component": 3276,
      "Ġpopular": 3277,
      "Ġservices": 3278,
      "185": 3279,
      "ĠLou": 3280,
      "ĠNe": 3281,
      "Ġaver": 3282,
      "ĠMont": 3283,
      "Ġproble": 3284,
      "Ã¤": 3285,
      "Wh": 3286,
      "Ġwrote": 3287,
      "ĉĊ": 3288,
      "ills": 3289,
      "rd": 3290,
      "Ġhalf": 3291,
      "page": 3292,
      "Ġsocial": 3293,
      "Ġpresident": 3294,
      "Options": 3295,
      "Ġcoll": 3296,
      "Ġdeg": 3297,
      "aries": 3298,
      "Ġconsidered": 3299,
      "Ġimplement": 3300,
      "ĠDavid": 3301,
      "=\\": 3302,
      "TH": 3303,
      "ĠTo": 3304,
      "App": 3305,
      "Ġpage": 3306,
      "asket": 3307,
      "Ġopened": 3308,
      "Ġstory": 3309,
      "iation": 3310,
      "((": 3311,
      "Ġanim": 3312,
      "Ġindiv": 3313,
      "Ġfree": 3314,
      "ĠTest": 3315,
      "ĠĠĠĠĠĠĠĠĊ": 3316,
      "Ġgood": 3317,
      "Ġprint": 3318,
      "icro": 3319,
      "ising": 3320,
      "height": 3321,
      "Ġfurther": 3322,
      "hem": 3323,
      "atural": 3324,
      ")\\": 3325,
      "aur": 3326,
      "Pos": 3327,
      "Line": 3328,
      "uture": 3329,
      "ync": 3330,
      "Ġlength": 3331,
      "YPE": 3332,
      "ula": 3333,
      "Ġless": 3334,
      "Input": 3335,
      "ceed": 3336,
      "ĠGroup": 3337,
      "Ġrelease": 3338,
      "Ġ\"\"\"": 3339,
      "=#": 3340,
      "imum": 3341,
      "Ġwant": 3342,
      "ĠAp": 3343,
      "atabase": 3344,
      "ega": 3345,
      "Ġparticip": 3346,
      "ĠWith": 3347,
      "ulated": 3348,
      "ĠFirst": 3349,
      "ĠHall": 3350,
      "ugin": 3351,
      "ĠDef": 3352,
      "ĠSim": 3353,
      "ialog": 3354,
      "ani": 3355,
      "Ġchurch": 3356,
      "Ð½": 3357,
      "ky": 3358,
      "itz": 3359,
      "ranch": 3360,
      "1993": 3361,
      "Ġactiv": 3362,
      "cis": 3363,
      "gin": 3364,
      "Ġrelations": 3365,
      "ÑĤ": 3366,
      "Eng": 3367,
      "navbar": 3368,
      ",\"": 3369,
      "Dec": 3370,
      "Ġdays": 3371,
      "init": 3372,
      "Ġsepar": 3373,
      "ĠDuring": 3374,
      "Token": 3375,
      "ebug": 3376,
      "amma": 3377,
      "Ġcal": 3378,
      "NS": 3379,
      "Ġimportant": 3380,
      "host": 3381,
      "Ġdirector": 3382,
      "Ġsongs": 3383,
      "Select": 3384,
      "186": 3385,
      "fe": 3386,
      "OS": 3387,
      "idence": 3388,
      "Ġcaus": 3389,
      "ched": 3390,
      "||": 3391,
      "ably": 3392,
      "orage": 3393,
      "Ġabove": 3394,
      "rian": 3395,
      "ashington": 3396,
      "xy": 3397,
      "RA": 3398,
      "font": 3399,
      "open": 3400,
      "aign": 3401,
      "idget": 3402,
      "ĠMag": 3403,
      "Ġstudents": 3404,
      "ĠTrans": 3405,
      "append": 3406,
      "Ġstatus": 3407,
      "Ġbroad": 3408,
      "Ġteams": 3409,
      "Ġcompleted": 3410,
      "Ġvoc": 3411,
      "func": 3412,
      "Ġoutput": 3413,
      "[\"": 3414,
      "ertain": 3415,
      "arrow": 3416,
      "Instance": 3417,
      "Source": 3418,
      "ĠMart": 3419,
      "ĠDis": 3420,
      "aker": 3421,
      "Ġindividual": 3422,
      "anies": 3423,
      "Ġcollection": 3424,
      "ounter": 3425,
      "ĠRoad": 3426,
      "tx": 3427,
      "ĠBlack": 3428,
      "Ġlost": 3429,
      "Ġmid": 3430,
      "REF": 3431,
      "Ext": 3432,
      "elete": 3433,
      "Ġroad": 3434,
      "oted": 3435,
      "ota": 3436,
      "Run": 3437,
      "ria": 3438,
      "Sec": 3439,
      "yth": 3440,
      "ipp": 3441,
      "ĠAcadem": 3442,
      "Resource": 3443,
      "ycl": 3444,
      "SP": 3445,
      "({": 3446,
      "ĠProv": 3447,
      "Content": 3448,
      "Ġtoget": 3449,
      "Ġphys": 3450,
      "49": 3451,
      "esh": 3452,
      "Ġtogether": 3453,
      "igin": 3454,
      "1991": 3455,
      "eh": 3456,
      "Ġstar": 3457,
      "Attribute": 3458,
      "Ġrow": 3459,
      "ĠChina": 3460,
      "Ġcompos": 3461,
      "tab": 3462,
      "stand": 3463,
      "ĠMex": 3464,
      "Ge": 3465,
      "ĠĠĠĠĠĠĠĠĠĠĠĠĊ": 3466,
      "liament": 3467,
      "Ġreview": 3468,
      "Ġwhe": 3469,
      "Ġboolean": 3470,
      "rl": 3471,
      "ĠArch": 3472,
      "Ġred": 3473,
      "aps": 3474,
      "known": 3475,
      "ughter": 3476,
      "47": 3477,
      "Ġclose": 3478,
      "Ġstudy": 3479,
      "child": 3480,
      "Ġrepl": 3481,
      "Ġproduct": 3482,
      "wood": 3483,
      "\\\\": 3484,
      "ĠMary": 3485,
      "ittee": 3486,
      "change": 3487,
      "isl": 3488,
      "nel": 3489,
      "json": 3490,
      "Ġrespect": 3491,
      "1960": 3492,
      "Ġsigned": 3493,
      "Ġindust": 3494,
      "Ġeconom": 3495,
      "01": 3496,
      "Oper": 3497,
      "Ġlo": 3498,
      "target": 3499,
      "xml": 3500,
      "ean": 3501,
      "Ġcontinued": 3502,
      "Ġadminist": 3503,
      "Ġblack": 3504,
      "EX": 3505,
      "Ġhttp": 3506,
      "CC": 3507,
      "Ġimage": 3508,
      "ĠClub": 3509,
      "ĠFl": 3510,
      "But": 3511,
      "do": 3512,
      "Part": 3513,
      "ĠCourt": 3514,
      "lem": 3515,
      "ĠCompany": 3516,
      "ĠLaw": 3517,
      "Ġalbums": 3518,
      "ĠHen": 3519,
      "Ġsett": 3520,
      "Ġaddition": 3521,
      "Ġdiff": 3522,
      "Ġmot": 3523,
      "iles": 3524,
      "Ġparty": 3525,
      "UE": 3526,
      "final": 3527,
      "most": 3528,
      "gr": 3529,
      "Ġbound": 3530,
      "lies": 3531,
      "Ap": 3532,
      "ĠPri": 3533,
      "Ġpaint": 3534,
      "Handler": 3535,
      "ĉĉĉĉĉĉĉĉ": 3536,
      "Ġeither": 3537,
      "ishing": 3538,
      "ĠRobert": 3539,
      "Ġmeas": 3540,
      "ĠMusic": 3541,
      "Ġlight": 3542,
      "parent": 3543,
      "ĠGames": 3544,
      "Block": 3545,
      "Command": 3546,
      "igma": 3547,
      "Null": 3548,
      "tain": 3549,
      "Char": 3550,
      "Che": 3551,
      "ĠDon": 3552,
      "Us": 3553,
      "II": 3554,
      "Ġarr": 3555,
      "Ġsurv": 3556,
      "amples": 3557,
      "Ġprovided": 3558,
      "ĠCenter": 3559,
      "Ġmass": 3560,
      "irit": 3561,
      "ĠCanadian": 3562,
      "Ġmove": 3563,
      "cel": 3564,
      "stream": 3565,
      "Ġareas": 3566,
      "ĠInter": 3567,
      "used": 3568,
      "Ġsuccessful": 3569,
      "ena": 3570,
      "Ġ(\"": 3571,
      "ements": 3572,
      "ocol": 3573,
      "ging": 3574,
      "Ġeducation": 3575,
      "icles": 3576,
      "ĠKingdom": 3577,
      "Ġcross": 3578,
      "Ġmar": 3579,
      "inese": 3580,
      "izer": 3581,
      "Gener": 3582,
      "iding": 3583,
      "Ġ+=": 3584,
      "Ġstrong": 3585,
      "Ġput": 3586,
      "Ġsupp": 3587,
      "bottom": 3588,
      "ĠIsland": 3589,
      "asons": 3590,
      "Ġworking": 3591,
      "arian": 3592,
      "Ġobserv": 3593,
      "ĠSociety": 3594,
      "Ġrecorded": 3595,
      "ÑĢ": 3596,
      "vis": 3597,
      "uster": 3598,
      "ensus": 3599,
      "inition": 3600,
      "TO": 3601,
      "Start": 3602,
      "asketball": 3603,
      "Ġinf": 3604,
      "Ġdecl": 3605,
      "Ġsignific": 3606,
      "adata": 3607,
      "Ġsection": 3608,
      "MS": 3609,
      "Ġbi": 3610,
      "ĠSam": 3611,
      "icial": 3612,
      "ership": 3613,
      "select": 3614,
      "amily": 3615,
      "inst": 3616,
      "find": 3617,
      "Ġdouble": 3618,
      "Ġfootballers": 3619,
      "airs": 3620,
      "berg": 3621,
      "Ġcolumn": 3622,
      "First": 3623,
      "Ġgrow": 3624,
      "rowser": 3625,
      "ĠGo": 3626,
      "Ġdate": 3627,
      "ĠMy": 3628,
      "Ġord": 3629,
      "){": 3630,
      "ĠVir": 3631,
      "EE": 3632,
      "Ġnetwork": 3633,
      "Cell": 3634,
      "ĠAfrican": 3635,
      "ĠWashington": 3636,
      "ĠCath": 3637,
      "allet": 3638,
      "Point": 3639,
      "andid": 3640,
      "\").": 3641,
      "ua": 3642,
      "Ġcoach": 3643,
      "Ġadded": 3644,
      "Back": 3645,
      "_\\": 3646,
      "Ġwebsite": 3647,
      "first": 3648,
      "ĠMet": 3649,
      "ĠTown": 3650,
      "Equal": 3651,
      "Ġelected": 3652,
      "Ġkm": 3653,
      "Ġdirected": 3654,
      "Ġfounded": 3655,
      "Window": 3656,
      "estival": 3657,
      "Ġmedia": 3658,
      "Ġweek": 3659,
      "oney": 3660,
      "Ġten": 3661,
      "status": 3662,
      "can": 3663,
      "property": 3664,
      "Ġreported": 3665,
      "ini": 3666,
      "Ġdeveloped": 3667,
      "1989": 3668,
      "Ġcur": 3669,
      "private": 3670,
      "Ġrace": 3671,
      "ouch": 3672,
      "ĠHistor": 3673,
      "Ġaccount": 3674,
      "Ġmaking": 3675,
      "Ġliter": 3676,
      "EL": 3677,
      "Ġnever": 3678,
      "Spec": 3679,
      "ributed": 3680,
      "1988": 3681,
      "cks": 3682,
      "ires": 3683,
      "ĠSl": 3684,
      "De": 3685,
      "Ġwife": 3686,
      "Ġfund": 3687,
      "Ġindic": 3688,
      "Ġvalid": 3689,
      "Ġappointed": 3690,
      "Default": 3691,
      "Ġhon": 3692,
      "band": 3693,
      "otype": 3694,
      "background": 3695,
      "ĠRecords": 3696,
      "post": 3697,
      "level": 3698,
      "bert": 3699,
      "atives": 3700,
      "CK": 3701,
      "ctor": 3702,
      "ilities": 3703,
      "meta": 3704,
      "Ġcast": 3705,
      "Ġheight": 3706,
      "ĠJapanese": 3707,
      "Factory": 3708,
      "Ġonce": 3709,
      "ĠTur": 3710,
      "Buffer": 3711,
      "race": 3712,
      "ĠMiss": 3713,
      "Ġshows": 3714,
      "respond": 3715,
      "ada": 3716,
      "\"),": 3717,
      "Ġinflu": 3718,
      "Ġconstruct": 3719,
      "olit": 3720,
      "ids": 3721,
      "Ġexpected": 3722,
      "Ġaverage": 3723,
      "iqu": 3724,
      "uz": 3725,
      "OL": 3726,
      "Ġknow": 3727,
      "uggest": 3728,
      "hel": 3729,
      "ĠInstitute": 3730,
      "write": 3731,
      "Ġwindow": 3732,
      "ictor": 3733,
      "ftware": 3734,
      "ĠSing": 3735,
      "ĠPress": 3736,
      "Ġleague": 3737,
      "Ġalumni": 3738,
      "46": 3739,
      "ĠNone": 3740,
      "Ġlive": 3741,
      "Ġfeatures": 3742,
      "ĠĠĠĠĠĠĠĠĠĠĠĠĠĠ": 3743,
      "ĠJack": 3744,
      "alys": 3745,
      "ributes": 3746,
      "Ġide": 3747,
      "Ġmeet": 3748,
      "medi": 3749,
      "Fl": 3750,
      "Ġhuman": 3751,
      "Ġalready": 3752,
      "ho": 3753,
      "pass": 3754,
      "strong": 3755,
      "ves": 3756,
      "ĠUp": 3757,
      "Ġacross": 3758,
      "Ġground": 3759,
      "ournament": 3760,
      "bs": 3761,
      "ptr": 3762,
      "ascript": 3763,
      "LASS": 3764,
      "Ġvia": 3765,
      "dec": 3766,
      "istics": 3767,
      "unt": 3768,
      "Ġprotected": 3769,
      "Ġappeared": 3770,
      "Ġ($": 3771,
      "Ġhere": 3772,
      "Ġexecut": 3773,
      "img": 3774,
      "char": 3775,
      "Ġemploy": 3776,
      "src": 3777,
      "Ġfire": 3778,
      "Function": 3779,
      "Ġformed": 3780,
      "ĠDepartment": 3781,
      "duce": 3782,
      "alls": 3783,
      "Ġothers": 3784,
      "Ġperformance": 3785,
      "Ġoffer": 3786,
      "clus": 3787,
      "Ġopt": 3788,
      "Ġcenter": 3789,
      "ba": 3790,
      "sg": 3791,
      "Ġmargin": 3792,
      "Ġload": 3793,
      "Ġcompon": 3794,
      "Ġactive": 3795,
      "atory": 3796,
      "module": 3797,
      "lim": 3798,
      "description": 3799,
      "Ġnovel": 3800,
      "Ġfocus": 3801,
      "Ġcirc": 3802,
      "ĠTV": 3803,
      "Ġgreat": 3804,
      "Ġpossible": 3805,
      "Ġresource": 3806,
      "imately": 3807,
      "rect": 3808,
      "ĠMuseum": 3809,
      "irm": 3810,
      "Version": 3811,
      "ĠAngel": 3812,
      "ĠTex": 3813,
      "ĠDo": 3814,
      "Ġcontract": 3815,
      "member": 3816,
      "ourse": 3817,
      "Ġinstead": 3818,
      "Prov": 3819,
      "overnor": 3820,
      "FI": 3821,
      "ĠItalian": 3822,
      "frame": 3823,
      "ĠGrand": 3824,
      "Link": 3825,
      "Ġrecogn": 3826,
      "ĠRail": 3827,
      "uns": 3828,
      "ĠSummer": 3829,
      "ĠVol": 3830,
      "ĠGreen": 3831,
      "ĠThomas": 3832,
      "thing": 3833,
      "ĠNot": 3834,
      "phi": 3835,
      "Ġsit": 3836,
      "Co": 3837,
      "Hel": 3838,
      "Ġvari": 3839,
      "ifact": 3840,
      "Number": 3841,
      "ĠAcademy": 3842,
      "Ġoffice": 3843,
      "pm": 3844,
      "ĠCentral": 3845,
      "Ġarchitect": 3846,
      "hi": 3847,
      "icy": 3848,
      "ili": 3849,
      "Ġpred": 3850,
      "lier": 3851,
      "Ġpay": 3852,
      "ication": 3853,
      "ĠOlympics": 3854,
      "ĠBest": 3855,
      "ĠObject": 3856,
      "Frame": 3857,
      "ĠSal": 3858,
      "case": 3859,
      "ĠGr": 3860,
      "asing": 3861,
      "ients": 3862,
      "sole": 3863,
      "Ġsem": 3864,
      "ĠZeal": 3865,
      "ederal": 3866,
      "ensive": 3867,
      "ĠMark": 3868,
      "*/": 3869,
      "ĠBut": 3870,
      "ĠRussian": 3871,
      "Ġbar": 3872,
      "ĠAlex": 3873,
      "rt": 3874,
      "ĠFootball": 3875,
      "thlet": 3876,
      "come": 3877,
      "std": 3878,
      "ĠBay": 3879,
      "ĠFrom": 3880,
      "sm": 3881,
      "\"]": 3882,
      "ĠMad": 3883,
      "ĠZealand": 3884,
      "ĠAfrica": 3885,
      "och": 3886,
      "spec": 3887,
      "${": 3888,
      "Ġteach": 3889,
      "Ġleast": 3890,
      "Ġqual": 3891,
      "Ġaccept": 3892,
      "push": 3893,
      "chema": 3894,
      "hat": 3895,
      "ĠCommun": 3896,
      "stra": 3897,
      "irection": 3898,
      "ĠPat": 3899,
      "ĠCong": 3900,
      "Ġvict": 3901,
      "Ġflow": 3902,
      "1987": 3903,
      "udio": 3904,
      "42": 3905,
      "Ġrock": 3906,
      "Style": 3907,
      "heet": 3908,
      "0000": 3909,
      "element": 3910,
      "Ġstates": 3911,
      "Ġcomput": 3912,
      "ii": 3913,
      "la": 3914,
      "close": 3915,
      "Row": 3916,
      "ona": 3917,
      "});": 3918,
      "where": 3919,
      "Med": 3920,
      "OP": 3921,
      "ĠMac": 3922,
      "ĠWestern": 3923,
      "ocket": 3924,
      "cial": 3925,
      "Ġassist": 3926,
      "Ġnav": 3927,
      "ios": 3928,
      "Ġplan": 3929,
      "Ġdeterm": 3930,
      "Ġ\\\\": 3931,
      "Return": 3932,
      "Ġcost": 3933,
      "entry": 3934,
      "Ġ$(": 3935,
      "edy": 3936,
      "styles": 3937,
      "Ġtour": 3938,
      "Ġhous": 3939,
      "rish": 3940,
      "Ġperformed": 3941,
      "ked": 3942,
      "ĠCharles": 3943,
      "arter": 3944,
      "irtual": 3945,
      "apter": 3946,
      "PRO": 3947,
      "asc": 3948,
      "True": 3949,
      "1986": 3950,
      "Sup": 3951,
      "Ġguitar": 3952,
      "ĠGold": 3953,
      "layout": 3954,
      "Ġstage": 3955,
      "flow": 3956,
      "Ġdefined": 3957,
      "space": 3958,
      "Ġmaterial": 3959,
      "Ġschools": 3960,
      "Ġbirth": 3961,
      "Ġdon": 3962,
      "88": 3963,
      "Ġtaken": 3964,
      "Ġ<!--": 3965,
      "Ġhimself": 3966,
      "ĠScott": 3967,
      "Ġformat": 3968,
      "Ġphot": 3969,
      "Ġincludes": 3970,
      "Ġmodern": 3971,
      "Ġlim": 3972,
      "Ġremov": 3973,
      "book": 3974,
      "enced": 3975,
      "Ġrights": 3976,
      "project": 3977,
      "Ġradio": 3978,
      "Ġmother": 3979,
      "HT": 3980,
      "eline": 3981,
      "Ġcatch": 3982,
      "ĠJew": 3983,
      "pc": 3984,
      "ypes": 3985,
      "pite": 3986,
      "ĠVirgin": 3987,
      "pected": 3988,
      "ircraft": 3989,
      "}^{": 3990,
      "ĠLouis": 3991,
      "Page": 3992,
      "Ġfront": 3993,
      "last": 3994,
      "ospital": 3995,
      "hood": 3996,
      "Ġcontains": 3997,
      "lying": 3998,
      "reland": 3999,
      "Ġconsist": 4000,
      "javascript": 4001,
      "05": 4002,
      "ĠBen": 4003,
      "Ð¾Ð": 4004,
      "ĠLeg": 4005,
      "udd": 4006,
      "1984": 4007,
      "FONT": 4008,
      "Ġmean": 4009,
      "77": 4010,
      "errit": 4011,
      "Ġlocation": 4012,
      "ATE": 4013,
      "ĠHam": 4014,
      "Ġclient": 4015,
      "encies": 4016,
      "iting": 4017,
      "Ġregular": 4018,
      "lv": 4019,
      "chiev": 4020,
      "Ġstructure": 4021,
      "ressed": 4022,
      "Ġden": 4023,
      "Label": 4024,
      "iler": 4025,
      "ican": 4026,
      "Ġviol": 4027,
      "ĠMinister": 4028,
      "ĠYear": 4029,
      "ĠReturn": 4030,
      "language": 4031,
      "Ġbeliev": 4032,
      "AG": 4033,
      "acity": 4034,
      "container": 4035,
      "ki": 4036,
      "BU": 4037,
      "uated": 4038,
      "ĠChristian": 4039,
      "ĠKore": 4040,
      "^{\\": 4041,
      "500": 4042,
      "1985": 4043,
      "Ġsports": 4044,
      "azine": 4045,
      "Ġtro": 4046,
      "rey": 4047,
      "Ġcompanies": 4048,
      "Ñģ": 4049,
      "VER": 4050,
      "Last": 4051,
      "Ġthough": 4052,
      "ĠRad": 4053,
      "ros": 4054,
      "Ġconstruction": 4055,
      "Ġtre": 4056,
      "Rep": 4057,
      "Ġrev": 4058,
      "usical": 4059,
      "range": 4060,
      "pack": 4061,
      "ura": 4062,
      "Ġfinished": 4063,
      "Ġplaying": 4064,
      "Ġmedal": 4065,
      "oding": 4066,
      "alysis": 4067,
      "Ġdom": 4068,
      "Ġsignificant": 4069,
      "acing": 4070,
      "imal": 4071,
      "Ġlook": 4072,
      "Ġbuildings": 4073,
      "MO": 4074,
      "road": 4075,
      "ĠCarol": 4076,
      "}_{": 4077,
      "Ġdaughter": 4078,
      "format": 4079,
      "Box": 4080,
      "Ġaway": 4081,
      "elling": 4082,
      "aging": 4083,
      "ems": 4084,
      "Ġsat": 4085,
      "Ġmunicip": 4086,
      "Det": 4087,
      "Met": 4088,
      "Ġsubject": 4089,
      "ynam": 4090,
      "Ġacqu": 4091,
      "menu": 4092,
      "ĠTexas": 4093,
      "ams": 4094,
      "heast": 4095,
      "annot": 4096,
      "Ġseen": 4097,
      "Ġnames": 4098,
      "Ġfar": 4099,
      "ĠUK": 4100,
      "mathbb": 4101,
      "service": 4102,
      "Ġpot": 4103,
      "local": 4104,
      "len": 4105,
      "Ġalthough": 4106,
      "cons": 4107,
      "mi": 4108,
      "AP": 4109,
      "Controller": 4110,
      "Ġeight": 4111,
      "Bundle": 4112,
      "Ġsuggest": 4113,
      "Ġextends": 4114,
      "Ġcurrently": 4115,
      "ores": 4116,
      "idden": 4117,
      "Ġstations": 4118,
      "Ġthrows": 4119,
      "Ġurl": 4120,
      "bour": 4121,
      "ĠMichael": 4122,
      "Ġabs": 4123,
      "-\\": 4124,
      "Ġener": 4125,
      "Le": 4126,
      "Ġselected": 4127,
      "SC": 4128,
      "aches": 4129,
      "Ġinit": 4130,
      "Ġbox": 4131,
      "Ġoption": 4132,
      "Ġinternal": 4133,
      "Ġtraining": 4134,
      "exp": 4135,
      "Ġelements": 4136,
      "Ġfa": 4137,
      "rows": 4138,
      "Ġpref": 4139,
      "rael": 4140,
      "ĠGreat": 4141,
      "png": 4142,
      "ĠMer": 4143,
      "1950": 4144,
      "Ġwhite": 4145,
      "Filter": 4146,
      "ĠTom": 4147,
      "lambda": 4148,
      "Par": 4149,
      "people": 4150,
      "ĠChinese": 4151,
      "Ġable": 4152,
      "foot": 4153,
      "Ġrespons": 4154,
      "ĠFrancis": 4155,
      "aml": 4156,
      "shire": 4157,
      "Ġcampaign": 4158,
      "GL": 4159,
      "Ġassociated": 4160,
      "Task": 4161,
      "(&": 4162,
      "///": 4163,
      "Ġge": 4164,
      "ĠTor": 4165,
      "obj": 4166,
      "display": 4167,
      "ĠCatholic": 4168,
      "atre": 4169,
      "Ġflo": 4170,
      "ario": 4171,
      "Ġfollowed": 4172,
      "Ġmonths": 4173,
      "Ġwriter": 4174,
      "Ġ{@": 4175,
      "Ġliving": 4176,
      "Ġauto": 4177,
      "Ġcustom": 4178,
      "Ġfail": 4179,
      "oviet": 4180,
      "SON": 4181,
      "ĠIN": 4182,
      "filter": 4183,
      "Ġnor": 4184,
      "Ġgoal": 4185,
      "ĠCons": 4186,
      "Ġconduct": 4187,
      "ABLE": 4188,
      "1983": 4189,
      "endif": 4190,
      "chan": 4191,
      "grad": 4192,
      "UI": 4193,
      "Ġprovide": 4194,
      "evelop": 4195,
      "Ġ{\\": 4196,
      "rate": 4197,
      "Listener": 4198,
      "Ġhealth": 4199,
      "Ġepisode": 4200,
      "ias": 4201,
      "ĠService": 4202,
      "idae": 4203,
      "Equals": 4204,
      "Ġdram": 4205,
      "erve": 4206,
      "rated": 4207,
      "ecess": 4208,
      "response": 4209,
      ";\"": 4210,
      "Ġconv": 4211,
      "Format": 4212,
      "arts": 4213,
      "ĠEar": 4214,
      "Child": 4215,
      "unch": 4216,
      "alle": 4217,
      "Ġtransl": 4218,
      "Ġfight": 4219,
      "Am": 4220,
      "Ġcou": 4221,
      "Ġleading": 4222,
      "Per": 4223,
      "pped": 4224,
      "Men": 4225,
      "Ġoccur": 4226,
      "Layout": 4227,
      ":</": 4228,
      "Button": 4229,
      "Ġdraw": 4230,
      "ĠWhite": 4231,
      "Create": 4232,
      "Ġsound": 4233,
      "Ġsequ": 4234,
      "ducation": 4235,
      "Ġentire": 4236,
      "Column": 4237,
      "Ġcharacters": 4238,
      "Ġinj": 4239,
      "Ġtransfer": 4240,
      "det": 4241,
      "////////////////": 4242,
      "ĉĠĠĠ": 4243,
      "Ġkilled": 4244,
      "Ġstop": 4245,
      "oma": 4246,
      "Ġneg": 4247,
      "Ġsuff": 4248,
      "ockey": 4249,
      "Ġsearch": 4250,
      "Ġcopy": 4251,
      "Ġpur": 4252,
      "Can": 4253,
      "Ġbelow": 4254,
      "Web": 4255,
      "params": 4256,
      "Ġill": 4257,
      "ĠLat": 4258,
      "Ġsil": 4259,
      "Ġstream": 4260,
      "1982": 4261,
      "verse": 4262,
      "Ġapprox": 4263,
      "Ġoperation": 4264,
      "Ġstri": 4265,
      "Ġmount": 4266,
      "beta": 4267,
      "Ġdesigned": 4268,
      "Ġgave": 4269,
      "ols": 4270,
      "eck": 4271,
      "like": 4272,
      "update": 4273,
      "quare": 4274,
      "Ġpress": 4275,
      "illa": 4276,
      "ĠDay": 4277,
      "67": 4278,
      "utch": 4279,
      "Ġartists": 4280,
      "uan": 4281,
      "ĠParis": 4282,
      "Ġplaces": 4283,
      "Ġvers": 4284,
      "Ġconsider": 4285,
      "idents": 4286,
      "Ġfemale": 4287,
      "BA": 4288,
      "Ġtit": 4289,
      "Ġreplaced": 4290,
      "09": 4291,
      "erry": 4292,
      "08": 4293,
      "Ġrelig": 4294,
      "ishop": 4295,
      "ĠArg": 4296,
      "ĠApp": 4297,
      "ĠDirect": 4298,
      "igg": 4299,
      "izing": 4300,
      "Ġnumer": 4301,
      "lip": 4302,
      "ĠSpanish": 4303,
      "<?": 4304,
      "ĠSub": 4305,
      "gener": 4306,
      "efined": 4307,
      "Ã³n": 4308,
      "Ġlower": 4309,
      "orial": 4310,
      "ĠJose": 4311,
      "ein": 4312,
      "apping": 4313,
      "agn": 4314,
      "Ġjournal": 4315,
      "instance": 4316,
      "rypt": 4317,
      "Ġmarket": 4318,
      "43": 4319,
      "41": 4320,
      "''": 4321,
      "Ġpolitician": 4322,
      "Mar": 4323,
      "Ġsm": 4324,
      "1979": 4325,
      "Ġbooks": 4326,
      "ĠTra": 4327,
      "Ġcandid": 4328,
      "Ġpast": 4329,
      "ises": 4330,
      "Ġloss": 4331,
      "ĠTri": 4332,
      "ita": 4333,
      "ĠFore": 4334,
      "Ġconstit": 4335,
      "Ġlink": 4336,
      "ĠHREF": 4337,
      "Ġdeb": 4338,
      "olf": 4339,
      "Ġforces": 4340,
      "ĠDan": 4341,
      "ĠDemocr": 4342,
      "erb": 4343,
      "Ġlargest": 4344,
      "Ġperm": 4345,
      "based": 4346,
      "Ġunit": 4347,
      "mm": 4348,
      "NO": 4349,
      "obile": 4350,
      "Ġfig": 4351,
      "Ġjud": 4352,
      "Ġ((": 4353,
      "sum": 4354,
      "TP": 4355,
      "buf": 4356,
      "ny": 4357,
      "ensions": 4358,
      "Ġintroduced": 4359,
      "number": 4360,
      "oul": 4361,
      "gl": 4362,
      "Ġspecific": 4363,
      "itter": 4364,
      "Ġmultiple": 4365,
      "ĠSmith": 4366,
      "sim": 4367,
      "ĠPeter": 4368,
      "Ġhom": 4369,
      "95": 4370,
      "ao": 4371,
      "Ã¨": 4372,
      "pose": 4373,
      "Ġforce": 4374,
      "attr": 4375,
      "istan": 4376,
      "ĠAssembly": 4377,
      "Ġnone": 4378,
      "Ġfont": 4379,
      "Ġoriginally": 4380,
      "ĠVictor": 4381,
      "Ġallowed": 4382,
      "ĠWeb": 4383,
      "```": 4384,
      "Ġdam": 4385,
      "Pre": 4386,
      "ĠFlor": 4387,
      "oriz": 4388,
      "ilies": 4389,
      "ĠOut": 4390,
      "po": 4391,
      "########": 4392,
      "adow": 4393,
      "Ġfailed": 4394,
      "ĠForce": 4395,
      "If": 4396,
      "FC": 4397,
      "stract": 4398,
      "ĠOrder": 4399,
      "ĠSome": 4400,
      "Ġuns": 4401,
      ".)": 4402,
      "ĠAccording": 4403,
      "ĠMel": 4404,
      "Read": 4405,
      "Ġbrother": 4406,
      "Se": 4407,
      "ĠGeorg": 4408,
      "razil": 4409,
      "Early": 4410,
      "show": 4411,
      "Ġcivil": 4412,
      "oms": 4413,
      "porary": 4414,
      "').": 4415,
      "ĠIreland": 4416,
      "ĠRichard": 4417,
      "Ġcourt": 4418,
      "Ġcentral": 4419,
      "Ġestablishments": 4420,
      "Ġadditional": 4421,
      "Ob": 4422,
      "Ġmeans": 4423,
      "za": 4424,
      "ĠBill": 4425,
      "AA": 4426,
      "Ġsubsequ": 4427,
      "Ġunits": 4428,
      "1981": 4429,
      "Aut": 4430,
      "ella": 4431,
      "Ġcomplex": 4432,
      "Valid": 4433,
      "mem": 4434,
      "ĠSuper": 4435,
      "Check": 4436,
      "Ġstandard": 4437,
      "ĠPenn": 4438,
      "ĠCLASS": 4439,
      "ERR": 4440,
      "rief": 4441,
      "ĠPublic": 4442,
      "icago": 4443,
      "oring": 4444,
      "iÄ": 4445,
      "=\"../../": 4446,
      "ĠFrank": 4447,
      "stant": 4448,
      "km": 4449,
      "ĠPan": 4450,
      "=\"../../../../../": 4451,
      "INT": 4452,
      "1972": 4453,
      "ulture": 4454,
      "Ġdone": 4455,
      "Ġchanges": 4456,
      "Ġremained": 4457,
      "remove": 4458,
      "igan": 4459,
      "Collection": 4460,
      "Ġcases": 4461,
      "ĠMass": 4462,
      "Ġseven": 4463,
      "Bl": 4464,
      "aven": 4465,
      "ufact": 4466,
      "ĠLos": 4467,
      "Ġthroughout": 4468,
      "ilon": 4469,
      "ãģ": 4470,
      "ĠHenry": 4471,
      "Ġchanged": 4472,
      "Ġmissing": 4473,
      "Ġterms": 4474,
      "ĠHistory": 4475,
      "Ġprob": 4476,
      "Notes": 4477,
      "ĠOpen": 4478,
      "ordin": 4479,
      "Äģ": 4480,
      "ãĥ": 4481,
      "anced": 4482,
      "Ġfriend": 4483,
      "Ġboard": 4484,
      "ano": 4485,
      "ĠOper": 4486,
      "Ġawarded": 4487,
      "Ġparts": 4488,
      "Ġsystems": 4489,
      "ĠLake": 4490,
      "aled": 4491,
      "only": 4492,
      "olk": 4493,
      "Ġinstit": 4494,
      "Ġsen": 4495,
      "mt": 4496,
      "85": 4497,
      "Ġens": 4498,
      "ĠSant": 4499,
      "Ġinvolved": 4500,
      "ĠSk": 4501,
      "Ġfeatured": 4502,
      "antic": 4503,
      "ĠSo": 4504,
      "07": 4505,
      "1976": 4506,
      "ira": 4507,
      "rea": 4508,
      "main": 4509,
      "Ġcorrespond": 4510,
      "Ġenergy": 4511,
      "utions": 4512,
      "ĠEmp": 4513,
      "Sw": 4514,
      "ĠSwed": 4515,
      "ĠFilm": 4516,
      "ĠMod": 4517,
      "Ġtypes": 4518,
      "Ġaircraft": 4519,
      "ĠJust": 4520,
      "URL": 4521,
      "_.": 4522,
      "Ġdiscover": 4523,
      "Ġframe": 4524,
      "ynt": 4525,
      "Ġpers": 4526,
      "COL": 4527,
      "Ġlisted": 4528,
      "si": 4529,
      "Ġprimary": 4530,
      "Ġtreat": 4531,
      "ĠDel": 4532,
      "Url": 4533,
      "Ġ(\\": 4534,
      "FL": 4535,
      "resh": 4536,
      "oute": 4537,
      "tag": 4538,
      "Ġwhose": 4539,
      "1978": 4540,
      "Ġachiev": 4541,
      "Ġsay": 4542,
      "Ġfrequ": 4543,
      "IM": 4544,
      "ĠWomen": 4545,
      "igger": 4546,
      "num": 4547,
      "Ġjob": 4548,
      "Mode": 4549,
      "Ġdegree": 4550,
      "ĠBase": 4551,
      "ands": 4552,
      "UM": 4553,
      "ĠÂ": 4554,
      "Server": 4555,
      "ĠChampionships": 4556,
      "There": 4557,
      "ĠCamp": 4558,
      "iences": 4559,
      "06": 4560,
      "iant": 4561,
      "Ġhard": 4562,
      "long": 4563,
      "Ġeventually": 4564,
      "Ġtoo": 4565,
      "Ġwrite": 4566,
      "ĠSecond": 4567,
      "Ġrunning": 4568,
      "Length": 4569,
      "Ġwriting": 4570,
      "Ġupon": 4571,
      "ĠVirginia": 4572,
      "Ġexcept": 4573,
      "elt": 4574,
      "Ġclosed": 4575,
      "1974": 4576,
      "ĠLu": 4577,
      "Ġupdate": 4578,
      "rics": 4579,
      "gor": 4580,
      "TV": 4581,
      "hest": 4582,
      "ĠRef": 4583,
      "Ġlines": 4584,
      "sd": 4585,
      "Ġshown": 4586,
      "ugby": 4587,
      "Ġ]": 4588,
      "Ġfav": 4589,
      "weight": 4590,
      "1975": 4591,
      "Ġinteg": 4592,
      "rial": 4593,
      "arily": 4594,
      "ĠĠĠĠĠĠĠĠĠĠĠĠĠĠĠĠĠĠĠĠĠĠĠĠĠĠĠĠĠĠĠĠĠĠĠ": 4595,
      "ĠCast": 4596,
      "Ġwhether": 4597,
      "wise": 4598,
      "Ġclos": 4599,
      "Ġoperations": 4600,
      "Ġcountries": 4601,
      "ĠHill": 4602,
      "dat": 4603,
      "Description": 4604,
      "eds": 4605,
      "Ġgold": 4606,
      "uest": 4607,
      "Ġusually": 4608,
      "Ġstated": 4609,
      "ĠRob": 4610,
      "non": 4611,
      "arned": 4612,
      "process": 4613,
      "ola": 4614,
      "Ġspecified": 4615,
      "ĠSpec": 4616,
      "1977": 4617,
      "mathbf": 4618,
      "actions": 4619,
      "Ġtournament": 4620,
      "TYPE": 4621,
      "offset": 4622,
      "Ġsinger": 4623,
      "utils": 4624,
      "1968": 4625,
      "Ġplant": 4626,
      "Ġnatural": 4627,
      "Ġscored": 4628,
      "Ġpolice": 4629,
      "Port": 4630,
      "sigma": 4631,
      "ether": 4632,
      "Pop": 4633,
      "Min": 4634,
      "Ã§": 4635,
      "ĠCommission": 4636,
      "Ġartist": 4637,
      "ĠRem": 4638,
      "Ġenvironment": 4639,
      "Ġbroadcast": 4640,
      "ĠKh": 4641,
      "ĠHT": 4642,
      "02": 4643,
      "azz": 4644,
      "à¤": 4645,
      "Ab": 4646,
      "tained": 4647,
      "Ġsupported": 4648,
      "imation": 4649,
      "Ġrather": 4650,
      "NAME": 4651,
      "Person": 4652,
      "track": 4653,
      "Ġserver": 4654,
      "Ġlik": 4655,
      "Ġscreen": 4656,
      "Fe": 4657,
      "sync": 4658,
      "eve": 4659,
      "Ġpassed": 4660,
      "ened": 4661,
      "kit": 4662,
      "well": 4663,
      "ĠType": 4664,
      "Ġdestroy": 4665,
      "ĠIll": 4666,
      "Ġquest": 4667,
      "column": 4668,
      "Track": 4669,
      "df": 4670,
      "Ġhousehold": 4671,
      "Ġrelated": 4672,
      "else": 4673,
      "Ġprior": 4674,
      "HE": 4675,
      "orpor": 4676,
      "Ġren": 4677,
      "eria": 4678,
      "Enc": 4679,
      "ĠWhile": 4680,
      "IZ": 4681,
      "olve": 4682,
      "ĠFound": 4683,
      "uri": 4684,
      "ĠMil": 4685,
      "Ġcred": 4686,
      "boot": 4687,
      "1973": 4688,
      "ĠID": 4689,
      "Ġmatches": 4690,
      "ĠMexico": 4691,
      "Ġmanager": 4692,
      "Ġste": 4693,
      "mercial": 4694,
      "Ġamount": 4695,
      "gu": 4696,
      "Ġlimit": 4697,
      "Ġcle": 4698,
      "Ġneigh": 4699,
      "ĠIsrael": 4700,
      "achine": 4701,
      "Address": 4702,
      "Ġentry": 4703,
      "Ġbasketball": 4704,
      "ensity": 4705,
      "ye": 4706,
      "ĠNavy": 4707,
      "ĠItaly": 4708,
      "afe": 4709,
      "oded": 4710,
      "artifact": 4711,
      "96": 4712,
      "Ġfiles": 4713,
      "ato": 4714,
      "ĠScot": 4715,
      "^{-": 4716,
      "Ġclear": 4717,
      "=\"-": 4718,
      "ilde": 4719,
      "ĠčĊ": 4720,
      "CODE": 4721,
      "One": 4722,
      "Ġcompetition": 4723,
      "Ġcritic": 4724,
      "dr": 4725,
      "ĠMus": 4726,
      "ami": 4727,
      "Target": 4728,
      "support": 4729,
      "Ġcallback": 4730,
      "ĠLog": 4731,
      "1971": 4732,
      "ĠArts": 4733,
      "Ġsch": 4734,
      "Ġmodule": 4735,
      "Ġparameter": 4736,
      "86": 4737,
      "Ġreached": 4738,
      "++)": 4739,
      "ĠSur": 4740,
      "ĠSaint": 4741,
      "ades": 4742,
      "Ġuses": 4743,
      "97": 4744,
      "otes": 4745,
      "Rem": 4746,
      "Output": 4747,
      "1940": 4748,
      "(_": 4749,
      "Ġ!==": 4750,
      "Ġhigher": 4751,
      "PC": 4752,
      "Ġfall": 4753,
      "small": 4754,
      "04": 4755,
      "depend": 4756,
      "strap": 4757,
      "Ġfuture": 4758,
      "Ġitself": 4759,
      "Ġglobal": 4760,
      "ĠEv": 4761,
      "Max": 4762,
      "1945": 4763,
      "Ġeditor": 4764,
      "ĠRock": 4765,
      "Ġpreviously": 4766,
      "Ġfourth": 4767,
      "English": 4768,
      "Ġfields": 4769,
      "ĠTime": 4770,
      "DB": 4771,
      "require": 4772,
      "king": 4773,
      "Ġcare": 4774,
      "57": 4775,
      "Cache": 4776,
      "output": 4777,
      "ĠForm": 4778,
      "abit": 4779,
      "CON": 4780,
      "window": 4781,
      "itory": 4782,
      "irl": 4783,
      "Åį": 4784,
      "ĠMo": 4785,
      "1969": 4786,
      "ĠCO": 4787,
      "ĠArray": 4788,
      "Ġoutside": 4789,
      "ERT": 4790,
      "ĠChicago": 4791,
      "cond": 4792,
      "03": 4793,
      "retary": 4794,
      "Ġcut": 4795,
      "Ġaccording": 4796,
      "Ġcollege": 4797,
      ")}": 4798,
      "ells": 4799,
      "Ġmodels": 4800,
      "Width": 4801,
      "older": 4802,
      "Ġstaff": 4803,
      "ĠAtl": 4804,
      "het": 4805,
      "asy": 4806,
      "Ġplaced": 4807,
      "bind": 4808,
      "Provider": 4809,
      "dist": 4810,
      "allery": 4811,
      "Ġrelationship": 4812,
      "Ġben": 4813,
      "Ġproperties": 4814,
      "Ġtravel": 4815,
      "Ġvert": 4816,
      "Ġprop": 4817,
      "Update": 4818,
      "wait": 4819,
      "Ġdeal": 4820,
      "greg": 4821,
      "otal": 4822,
      "ĠGod": 4823,
      "Ġmethods": 4824,
      "reference": 4825,
      "umbers": 4826,
      "atriate": 4827,
      "ils": 4828,
      "ĠAngeles": 4829,
      "ras": 4830,
      "Ġselect": 4831,
      "Ġsaw": 4832,
      "Types": 4833,
      "wrap": 4834,
      "gn": 4835,
      "win": 4836,
      "Ġ[]": 4837,
      "58": 4838,
      "Ġalways": 4839,
      "Ġcomplete": 4840,
      "Ġir": 4841,
      "ulate": 4842,
      "rative": 4843,
      "Ġactress": 4844,
      "ensor": 4845,
      "ube": 4846,
      "Career": 4847,
      "andom": 4848,
      "urd": 4849,
      "ĠRegister": 4850,
      "chi": 4851,
      "Ġcontinue": 4852,
      "Top": 4853,
      "ounds": 4854,
      "Ġwriters": 4855,
      "Ġdu": 4856,
      "Ġparameters": 4857,
      "classes": 4858,
      "ĠSoviet": 4859,
      "Ġapplication": 4860,
      "Ġregard": 4861,
      "Ġvocals": 4862,
      "Dev": 4863,
      "ette": 4864,
      "Ġdiscuss": 4865,
      "ĠKar": 4866,
      "ĠCommittee": 4867,
      "Ġexhib": 4868,
      "Ġreading": 4869,
      "Ġtim": 4870,
      "ora": 4871,
      "common": 4872,
      "ĠStar": 4873,
      "Ġroute": 4874,
      "Ġprinc": 4875,
      "1930": 4876,
      "ĠProvince": 4877,
      "ĠParliament": 4878,
      ">>": 4879,
      "aring": 4880,
      "fa": 4881,
      "Tag": 4882,
      "Offset": 4883,
      "bon": 4884,
      "iano": 4885,
      "1967": 4886,
      "scope": 4887,
      "Ġsom": 4888,
      "erefore": 4889,
      "izations": 4890,
      "ĠScience": 4891,
      "ĠFestival": 4892,
      "anned": 4893,
      "ometimes": 4894,
      "Ġconvert": 4895,
      "ingu": 4896,
      "lev": 4897,
      "ĠOther": 4898,
      "ĠDu": 4899,
      "Ġtax": 4900,
      "ollowing": 4901,
      "Vis": 4902,
      "Ġesc": 4903,
      "break": 4904,
      "lam": 4905,
      "Ġcapital": 4906,
      "Ġnight": 4907,
      ";->": 4908,
      "eft": 4909,
      "ĠEX": 4910,
      "Ġreference": 4911,
      "Ġindependent": 4912,
      "Ġ...": 4913,
      "ien": 4914,
      "essages": 4915,
      "IO": 4916,
      "root": 4917,
      "ĠWales": 4918,
      "ĠLicense": 4919,
      "ĠFlorida": 4920,
      "ĠIts": 4921,
      "delta": 4922,
      "izes": 4923,
      "Parameter": 4924,
      "Ġprote": 4925,
      "big": 4926,
      "Entity": 4927,
      "urt": 4928,
      "ĠAPI": 4929,
      "hedul": 4930,
      "Ġtheory": 4931,
      "Ġsex": 4932,
      "^\\": 4933,
      "Ġexpand": 4934,
      "Ġtransport": 4935,
      "ĠTechn": 4936,
      "********************************": 4937,
      "98": 4938,
      "ongs": 4939,
      "uate": 4940,
      "ĠCongress": 4941,
      "ighest": 4942,
      "anged": 4943,
      "cm": 4944,
      "Ġruns": 4945,
      "Ġactor": 4946,
      "ko": 4947,
      "olar": 4948,
      "prototype": 4949,
      "cs": 4950,
      "Ġeffort": 4951,
      "reme": 4952,
      "draw": 4953,
      "document": 4954,
      "Ġsym": 4955,
      "adium": 4956,
      "Ġreturns": 4957,
      "vention": 4958,
      "pes": 4959,
      "yr": 4960,
      "iro": 4961,
      "bool": 4962,
      "~~": 4963,
      "iana": 4964,
      "Ġleader": 4965,
      "ja": 4966,
      "ĠVer": 4967,
      "Ġalmost": 4968,
      "1964": 4969,
      "parse": 4970,
      "ĠHel": 4971,
      "Ġinterface": 4972,
      "*}": 4973,
      "Current": 4974,
      "template": 4975,
      "mit": 4976,
      "returns": 4977,
      "lic": 4978,
      "lie": 4979,
      "Ġoccup": 4980,
      "Ġcalc": 4981,
      "ĠCarolina": 4982,
      "Ġreve": 4983,
      "AM": 4984,
      "ums": 4985,
      "ĠHistoric": 4986,
      "IV": 4987,
      "ãĤ": 4988,
      "Ġargs": 4989,
      "Ġsus": 4990,
      "ĠGovernment": 4991,
      "ĠLand": 4992,
      "igital": 4993,
      "Ġreb": 4994,
      "rupt": 4995,
      "Ġthus": 4996,
      "56": 4997,
      "Ġobj": 4998,
      "Ġrepresented": 4999,
      "Year": 5000,
      "Tree": 5001,
      "Films": 5002,
      "artifactId": 5003,
      "ds": 5004,
      "ĠField": 5005,
      "ĠRussia": 5006,
      "PO": 5007,
      "Bo": 5008,
      "otion": 5009,
      "aud": 5010,
      "ĠFin": 5011,
      "Ġdecided": 5012,
      "proto": 5013,
      "icult": 5014,
      "Ġgraph": 5015,
      "ĠAv": 5016,
      "Ġorigin": 5017,
      "Ġbehind": 5018,
      "ĠBuild": 5019,
      "INE": 5020,
      "Header": 5021,
      "Ġq": 5022,
      "Ġtask": 5023,
      "Access": 5024,
      "ecute": 5025,
      "unched": 5026,
      "Ġrate": 5027,
      "Ġconnection": 5028,
      "ĠDen": 5029,
      "]);": 5030,
      "UP": 5031,
      "ĠBrown": 5032,
      "etch": 5033,
      "bes": 5034,
      "ping": 5035,
      "ĠLong": 5036,
      "ih": 5037,
      "Ġmovement": 5038,
      "Ġcertain": 5039,
      "Ġword": 5040,
      "Ġfloat": 5041,
      ")(": 5042,
      "cy": 5043,
      "./": 5044,
      "ĠAnn": 5045,
      "Ag": 5046,
      "Ġchampionship": 5047,
      "Ġrailway": 5048,
      "Ġkeep": 5049,
      "bin": 5050,
      "dep": 5051,
      "ND": 5052,
      "evelopment": 5053,
      "Ġfif": 5054,
      "Ġseasons": 5055,
      "Ġroot": 5056,
      "anner": 5057,
      "Ġculture": 5058,
      "ĠKn": 5059,
      "1965": 5060,
      "ĠAwards": 5061,
      "overs": 5062,
      "Mon": 5063,
      "times": 5064,
      "Ġquery": 5065,
      "Ġproblem": 5066,
      "ĠMem": 5067,
      "Ġconditions": 5068,
      "itors": 5069,
      "+\\": 5070,
      "ĠSun": 5071,
      "76": 5072,
      "ali": 5073,
      "gamma": 5074,
      "anda": 5075,
      "stylesheet": 5076,
      "Ġgr": 5077,
      "Ġbeginning": 5078,
      "()->": 5079,
      "ĠBrazil": 5080,
      "Ġ**": 5081,
      "'),": 5082,
      "1966": 5083,
      "Ġfunctions": 5084,
      "Ġchannel": 5085,
      "wide": 5086,
      "Ġmonth": 5087,
      "author": 5088,
      "tree": 5089,
      "Load": 5090,
      "Ġcensus": 5091,
      "Ġnet": 5092,
      "Control": 5093,
      "Ġpolicy": 5094,
      "locks": 5095,
      "ĠEmpire": 5096,
      "oral": 5097,
      "Ġbetter": 5098,
      "ĠKe": 5099,
      "Ġhit": 5100,
      "Ġstore": 5101,
      "1920": 5102,
      "ĠOld": 5103,
      "Ġimm": 5104,
      "ĠMain": 5105,
      "Level": 5106,
      "sylv": 5107,
      "icient": 5108,
      "Ġnormal": 5109,
      "Ġbank": 5110,
      "Utils": 5111,
      "Ġdoc": 5112,
      "ĠTwo": 5113,
      "Ġdivision": 5114,
      "BS": 5115,
      "Ġhapp": 5116,
      "Ġgrand": 5117,
      "aver": 5118,
      "hent": 5119,
      "ULT": 5120,
      "Ġissues": 5121,
      "pecially": 5122,
      "Members": 5123,
      "uid": 5124,
      "ĠTour": 5125,
      "orse": 5126,
      "Ġalt": 5127,
      "Ġscient": 5128,
      "itude": 5129,
      "nu": 5130,
      "Open": 5131,
      "ĠSince": 5132,
      "Ġdim": 5133,
      "Ġuint": 5134,
      "Entry": 5135,
      "ersey": 5136,
      "Ġorganization": 5137,
      "Ġattended": 5138,
      "Record": 5139,
      "tml": 5140,
      "CD": 5141,
      "ĠDev": 5142,
      "Ġtaking": 5143,
      "Ġscore": 5144,
      "py": 5145,
      "soft": 5146,
      "VAL": 5147,
      "abs": 5148,
      "ulations": 5149,
      "ĉĉĉĉĉĉĉ": 5150,
      "Ġproducer": 5151,
      "sign": 5152,
      "Unit": 5153,
      "%;": 5154,
      "ĠOh": 5155,
      "sylvania": 5156,
      "mission": 5157,
      "Ġedition": 5158,
      "unit": 5159,
      "Ġissue": 5160,
      "ĠOF": 5161,
      "ĠSeries": 5162,
      "Ġfamilies": 5163,
      "Ġpurch": 5164,
      "Ġmight": 5165,
      "ĠNorthern": 5166,
      "groupId": 5167,
      "inet": 5168,
      "ĠSpace": 5169,
      "iller": 5170,
      "ĠPet": 5171,
      "ancial": 5172,
      "orph": 5173,
      "ĠRh": 5174,
      "ĠSil": 5175,
      "ecution": 5176,
      "ĠArab": 5177,
      "den": 5178,
      "ĠLine": 5179,
      "Lo": 5180,
      "CL": 5181,
      "Å¡": 5182,
      "Ġdefeated": 5183,
      "Ġlittle": 5184,
      "Http": 5185,
      "Ġimprov": 5186,
      "Ġstudio": 5187,
      "Ġautom": 5188,
      "Ġdepend": 5189,
      "Ġtree": 5190,
      "Case": 5191,
      "reater": 5192,
      "Ġstudies": 5193,
      "ragment": 5194,
      "match": 5195,
      "During": 5196,
      "She": 5197,
      "orizont": 5198,
      "51": 5199,
      "Interface": 5200,
      "ĠGL": 5201,
      "'.": 5202,
      "ĠAtt": 5203,
      "Sl": 5204,
      "arp": 5205,
      "Ġpark": 5206,
      "Ġwinning": 5207,
      "AV": 5208,
      ":(": 5209,
      "inct": 5210,
      "ati": 5211,
      "ĠNS": 5212,
      "Ġsn": 5213,
      "ĠMos": 5214,
      "card": 5215,
      "ĠHow": 5216,
      "should": 5217,
      "Other": 5218,
      "iÄĩ": 5219,
      "Process": 5220,
      "ĠRo": 5221,
      "files": 5222,
      "ĠIrish": 5223,
      "ECT": 5224,
      "rig": 5225,
      "ĠResearch": 5226,
      "ĠLiber": 5227,
      "Ġbrought": 5228,
      "flict": 5229,
      "Ġlen": 5230,
      "Params": 5231,
      "Ġplays": 5232,
      "ĠBattle": 5233,
      ":#": 5234,
      "Ġselection": 5235,
      "Ġindustry": 5236,
      "anning": 5237,
      "Location": 5238,
      "ĠPac": 5239,
      "Ġriver": 5240,
      "ampion": 5241,
      "ental": 5242,
      "ĠDec": 5243,
      "anks": 5244,
      "Container": 5245,
      "Ġball": 5246,
      "}{\\": 5247,
      "Ġpoet": 5248,
      "Ġ;": 5249,
      "Ġnorthern": 5250,
      "Ġtransform": 5251,
      "Ġgive": 5252,
      "Te": 5253,
      "drop": 5254,
      "400": 5255,
      "Ġsouthern": 5256,
      "ĠSir": 5257,
      "nected": 5258,
      "ĠCD": 5259,
      "ĠColumb": 5260,
      "Ġpersonal": 5261,
      "Ac": 5262,
      "Ġremove": 5263,
      "token": 5264,
      "Ġfilter": 5265,
      "ima": 5266,
      "ĠMur": 5267,
      "Ġfollows": 5268,
      "Ġreach": 5269,
      "Project": 5270,
      "cache": 5271,
      "Ġspent": 5272,
      "ĠDet": 5273,
      "Ġmode": 5274,
      "iga": 5275,
      "59": 5276,
      "HO": 5277,
      "ĠLoc": 5278,
      "Ġminor": 5279,
      "Rel": 5280,
      "aught": 5281,
      "Ġconcern": 5282,
      "float": 5283,
      "modal": 5284,
      "rak": 5285,
      "Ġended": 5286,
      "ĠCam": 5287,
      "ervices": 5288,
      "Ġking": 5289,
      "Height": 5290,
      "ĠCr": 5291,
      "ĠOver": 5292,
      "Ġsoftware": 5293,
      "patch": 5294,
      "ansas": 5295,
      "Ġvirtual": 5296,
      "ĠGar": 5297,
      "wan": 5298,
      "olicy": 5299,
      "IGN": 5300,
      "ĠFort": 5301,
      "ĠMartin": 5302,
      "Ġplatform": 5303,
      "ady": 5304,
      "Ġmusical": 5305,
      "Ġcoast": 5306,
      "ĠRos": 5307,
      "Ġtowards": 5308,
      "awa": 5309,
      "gorith": 5310,
      "Po": 5311,
      "plicit": 5312,
      "ĠBur": 5313,
      "Local": 5314,
      "([": 5315,
      "XX": 5316,
      "ĠFile": 5317,
      "uint": 5318,
      "ĠBas": 5319,
      "unior": 5320,
      "Ġcomment": 5321,
      "Ġmanufact": 5322,
      "icated": 5323,
      "ĠFe": 5324,
      "Ġveh": 5325,
      "Ġ::": 5326,
      "Ġrule": 5327,
      "yan": 5328,
      "ĉĠ": 5329,
      "agon": 5330,
      "gate": 5331,
      "figure": 5332,
      "Ġcrick": 5333,
      "Ġmanagement": 5334,
      "ĠBoard": 5335,
      ":\"": 5336,
      "Ġsolid": 5337,
      "iform": 5338,
      "Ġ{}": 5339,
      "ponents": 5340,
      "ĠData": 5341,
      "Ġscale": 5342,
      "iety": 5343,
      "sort": 5344,
      "before": 5345,
      "Ġprison": 5346,
      "Write": 5347,
      "ĠBoy": 5348,
      "isation": 5349,
      "Ġscript": 5350,
      "ĠInc": 5351,
      "Ġsingles": 5352,
      "isions": 5353,
      "aval": 5354,
      "ictionary": 5355,
      "Direct": 5356,
      "expected": 5357,
      "ĠJoseph": 5358,
      "icker": 5359,
      "mut": 5360,
      "Ġver": 5361,
      "ifying": 5362,
      "Ġgoals": 5363,
      "ingle": 5364,
      "87": 5365,
      "Ġnative": 5366,
      "ĠTim": 5367,
      "imated": 5368,
      "pop": 5369,
      "Empty": 5370,
      "ĠLin": 5371,
      "Ġxml": 5372,
      "Ġcome": 5373,
      "nam": 5374,
      "elebr": 5375,
      "Search": 5376,
      "hr": 5377,
      "Ġoffset": 5378,
      "ĠEngine": 5379,
      "ĠPo": 5380,
      "Ġnewsp": 5381,
      "ttps": 5382,
      "ĠSpain": 5383,
      "Ġshot": 5384,
      "Configuration": 5385,
      "ĠPennsylvania": 5386,
      "Ġacadem": 5387,
      "ultural": 5388,
      "1962": 5389,
      "Script": 5390,
      "Ġespecially": 5391,
      "ĠTeam": 5392,
      "standing": 5393,
      "inners": 5394,
      "graph": 5395,
      "1963": 5396,
      "DIR": 5397,
      "Ġfood": 5398,
      "COLOR": 5399,
      "Results": 5400,
      "ĠOl": 5401,
      "control": 5402,
      "1944": 5403,
      "300": 5404,
      "Ġsession": 5405,
      "ĠLife": 5406,
      "Ġscience": 5407,
      "Ġisland": 5408,
      "Ġaud": 5409,
      "oly": 5410,
      "Ġimmedi": 5411,
      "KE": 5412,
      "osh": 5413,
      "Ġtag": 5414,
      "device": 5415,
      "Ġbur": 5416,
      "Ġcourse": 5417,
      "ĠCreate": 5418,
      "$-": 5419,
      "ĠWood": 5420,
      "Ġstep": 5421,
      "Ġapproximately": 5422,
      "FFFF": 5423,
      "Ġunion": 5424,
      "kind": 5425,
      "mathrm": 5426,
      "Ġwhom": 5427,
      "Ġsoon": 5428,
      "Ġstre": 5429,
      "ĠTimes": 5430,
      "aka": 5431,
      "ĠMa": 5432,
      "ĠEr": 5433,
      "empty": 5434,
      "Ġhighest": 5435,
      "lease": 5436,
      "isc": 5437,
      "Ġcop": 5438,
      "iography": 5439,
      "omic": 5440,
      "Ġscope": 5441,
      "Ne": 5442,
      "Callback": 5443,
      "John": 5444,
      "ĠLove": 5445,
      "anger": 5446,
      "ĠRun": 5447,
      "ĠGreek": 5448,
      "dim": 5449,
      "ĠEnd": 5450,
      "Hash": 5451,
      "buffer": 5452,
      "acter": 5453,
      "Ġentered": 5454,
      "\"))": 5455,
      "Ġbehav": 5456,
      "dated": 5457,
      "Ġnecess": 5458,
      "rho": 5459,
      "Ġsurface": 5460,
      "orizontal": 5461,
      "tim": 5462,
      "Ġphil": 5463,
      "ixt": 5464,
      "Ġowned": 5465,
      "FO": 5466,
      "ĠMen": 5467,
      "Ġlarger": 5468,
      "ares": 5469,
      "54": 5470,
      "house": 5471,
      "lood": 5472,
      "hash": 5473,
      "ugins": 5474,
      "Ġwood": 5475,
      "=\"../../../../../../": 5476,
      "Ġhttps": 5477,
      "ĠFred": 5478,
      "Ġstructures": 5479,
      "Ġterrit": 5480,
      "Ġadapt": 5481,
      "Next": 5482,
      "ĠBig": 5483,
      "Ġ*)": 5484,
      "queue": 5485,
      "arks": 5486,
      "Ġlaunched": 5487,
      "Ġthought": 5488,
      "ĠCap": 5489,
      "mas": 5490,
      "ĠEli": 5491,
      "Ġcomponent": 5492,
      "ws": 5493,
      "omy": 5494,
      "Range": 5495,
      "ĠOb": 5496,
      "Ġdistribution": 5497,
      "Ġ\"\\": 5498,
      "dest": 5499,
      "entity": 5500,
      "Ġtemper": 5501,
      "onic": 5502,
      "Module": 5503,
      "endar": 5504,
      "Position": 5505,
      "Ġcannot": 5506,
      "ursor": 5507,
      "ĠYoung": 5508,
      "emporary": 5509,
      "Ġmagazine": 5510,
      "89": 5511,
      "itiz": 5512,
      "ĠMat": 5513,
      "ATION": 5514,
      "Ġtraditional": 5515,
      "press": 5516,
      "ĠJo": 5517,
      "oub": 5518,
      "52": 5519,
      "Json": 5520,
      "Ġprovides": 5521,
      "Ġtakes": 5522,
      "isters": 5523,
      "more": 5524,
      "then": 5525,
      "Ġdescription": 5526,
      "ĠChief": 5527,
      "ously": 5528,
      "Dist": 5529,
      "ĠFinal": 5530,
      "Ġaltern": 5531,
      "Ġlonger": 5532,
      "partial": 5533,
      "TS": 5534,
      "ython": 5535,
      "resource": 5536,
      "ĠProfess": 5537,
      "ĠCross": 5538,
      "Ġearlier": 5539,
      "Ġpractice": 5540,
      "aria": 5541,
      "IZE": 5542,
      "etts": 5543,
      "ĠPlay": 5544,
      "itting": 5545,
      "ply": 5546,
      "cover": 5547,
      "igen": 5548,
      "Ġconnect": 5549,
      "Ġobjects": 5550,
      "When": 5551,
      "Ġdrama": 5552,
      "ĠPost": 5553,
      "ĠMore": 5554,
      "bootstrap": 5555,
      "ĠPre": 5556,
      "ĠĠĠĠĠĠĠĠĠĠĠĠĠĠĠĠĠĠĠĠĠ": 5557,
      "Sim": 5558,
      "\"));": 5559,
      "ĠUk": 5560,
      "None": 5561,
      "erved": 5562,
      "Inst": 5563,
      "Ġfootballer": 5564,
      "Ġcommission": 5565,
      "Ð»": 5566,
      "va": 5567,
      "Ġcommercial": 5568,
      "Ġwoman": 5569,
      "mat": 5570,
      "1961": 5571,
      "Ġpadding": 5572,
      "Ġmoney": 5573,
      "Ġparams": 5574,
      "Ġgoing": 5575,
      "Ġbuffer": 5576,
      "astic": 5577,
      "pri": 5578,
      "Connection": 5579,
      "ĠReturns": 5580,
      "mond": 5581,
      "Ġopening": 5582,
      "ledge": 5583,
      "real": 5584,
      "Ġgenerally": 5585,
      "Ġdifficult": 5586,
      "ĠHon": 5587,
      "kin": 5588,
      "ĠUnder": 5589,
      "ennis": 5590,
      "ervation": 5591,
      "ador": 5592,
      "pret": 5593,
      ">,": 5594,
      "ctx": 5595,
      "Ġpercent": 5596,
      "=\"_": 5597,
      "Ġtrain": 5598,
      "Ġpaper": 5599,
      "Change": 5600,
      "API": 5601,
      "ĠBank": 5602,
      "Ġconcept": 5603,
      "Document": 5604,
      "msg": 5605,
      "emic": 5606,
      "Thread": 5607,
      "border": 5608,
      "ĠGen": 5609,
      "Ġnoted": 5610,
      "Ġdecision": 5611,
      "Ġreplace": 5612,
      "ĠTw": 5613,
      "scale": 5614,
      "venue": 5615,
      "Ġkind": 5616,
      "Serial": 5617,
      "RL": 5618,
      "found": 5619,
      "airman": 5620,
      "transform": 5621,
      "criptor": 5622,
      "Art": 5623,
      "ĠSy": 5624,
      "Ġdro": 5625,
      "Properties": 5626,
      "ci": 5627,
      "ä¸": 5628,
      "ĠAut": 5629,
      "Ġsometimes": 5630,
      "Ġgot": 5631,
      "Ġmiddle": 5632,
      "ynch": 5633,
      "Ġdirectly": 5634,
      "ĠValley": 5635,
      "war": 5636,
      "Ġarmy": 5637,
      "ĠHaw": 5638,
      "1942": 5639,
      "ĠSocial": 5640,
      "Ġreason": 5641,
      "inois": 5642,
      "Ġchief": 5643,
      "Ġstudied": 5644,
      "bra": 5645,
      "pat": 5646,
      "plete": 5647,
      "tau": 5648,
      "Ġgovern": 5649,
      "BO": 5650,
      "bury": 5651,
      "Ġlack": 5652,
      "models": 5653,
      "enth": 5654,
      "after": 5655,
      "under": 5656,
      "ĠHot": 5657,
      "{{": 5658,
      "usband": 5659,
      "Ġrul": 5660,
      "values": 5661,
      "ĠMost": 5662,
      "ĠBul": 5663,
      "Menu": 5664,
      "Ġpack": 5665,
      "second": 5666,
      "Ġcaused": 5667,
      "][": 5668,
      "ĠCivil": 5669,
      "ĠUs": 5670,
      "ova": 5671,
      "1956": 5672,
      "Ġbattle": 5673,
      "Aust": 5674,
      "debug": 5675,
      "ĠIII": 5676,
      "Settings": 5677,
      "Prot": 5678,
      "SO": 5679,
      "ĠJim": 5680,
      "Ġsummer": 5681,
      "issions": 5682,
      "Ġwid": 5683,
      "Ġemer": 5684,
      "Ġpattern": 5685,
      "ĠWal": 5686,
      "Red": 5687,
      "ĠCro": 5688,
      "ĠLee": 5689,
      "vey": 5690,
      "Ġcho": 5691,
      "Ġstarting": 5692,
      "1948": 5693,
      "ĠEducation": 5694,
      "achus": 5695,
      "Ġappearance": 5696,
      "Ġtrade": 5697,
      "ĉĉĊ": 5698,
      "Ġinstr": 5699,
      "ĠTre": 5700,
      "conf": 5701,
      "Ġofficer": 5702,
      "Ġchart": 5703,
      "Ġ>=": 5704,
      "ĠCre": 5705,
      "oston": 5706,
      "ees": 5707,
      "anguages": 5708,
      "El": 5709,
      "Ðº": 5710,
      "Ev": 5711,
      "ĠAlthough": 5712,
      "Ġpresented": 5713,
      "ĠDutch": 5714,
      "Ġâ": 5715,
      "ĠDemocratic": 5716,
      "oder": 5717,
      "oment": 5718,
      "Ġgrant": 5719,
      "oration": 5720,
      "Delta": 5721,
      "Ġsurround": 5722,
      "Ġbring": 5723,
      "isf": 5724,
      "icks": 5725,
      "ĠAz": 5726,
      "ĠShow": 5727,
      "oggle": 5728,
      "ĠCamb": 5729,
      "Ġlived": 5730,
      "Ġremoved": 5731,
      "&#": 5732,
      "ĠPak": 5733,
      "Ġlimited": 5734,
      "enant": 5735,
      "Ġneeded": 5736,
      "ĠThat": 5737,
      "Ġsuc": 5738,
      "Ġrecords": 5739,
      "1959": 5740,
      "ĠFC": 5741,
      "osoph": 5742,
      "lers": 5743,
      "1939": 5744,
      "ĠBritain": 5745,
      "ĠMax": 5746,
      "Ġlibrary": 5747,
      "Font": 5748,
      "ĠPoland": 5749,
      "Ġinterview": 5750,
      "Ġsimple": 5751,
      "iled": 5752,
      "53": 5753,
      "DD": 5754,
      "refix": 5755,
      "Ġstudent": 5756,
      "images": 5757,
      "Copy": 5758,
      "1958": 5759,
      "iece": 5760,
      "Ġcounty": 5761,
      "ĠLibrary": 5762,
      "Ġcentre": 5763,
      "Sports": 5764,
      "Ġmakes": 5765,
      "Ġmemory": 5766,
      "ĠSouthern": 5767,
      "theta": 5768,
      "ker": 5769,
      "Ġpen": 5770,
      "works": 5771,
      "ĠIran": 5772,
      "ĠÅ": 5773,
      "ĠLem": 5774,
      "%%": 5775,
      "liance": 5776,
      "ĠDE": 5777,
      "ĠFoundation": 5778,
      "atively": 5779,
      "fs": 5780,
      "Ġagre": 5781,
      "Ġincreased": 5782,
      "interface": 5783,
      "ACK": 5784,
      "1943": 5785,
      "Ġwide": 5786,
      "elled": 5787,
      "QL": 5788,
      "ested": 5789,
      "Ġassum": 5790,
      "arriage": 5791,
      "Ġnumbers": 5792,
      "Ġmission": 5793,
      "skip": 5794,
      "Ġbatt": 5795,
      "Ġdevice": 5796,
      "Ġspect": 5797,
      "etime": 5798,
      "AF": 5799,
      "las": 5800,
      "Stat": 5801,
      "rich": 5802,
      "1941": 5803,
      "ĠBook": 5804,
      "rome": 5805,
      "ĠJud": 5806,
      "itation": 5807,
      "Ġnews": 5808,
      "Ġproposed": 5809,
      "Pass": 5810,
      "Ġquant": 5811,
      "asks": 5812,
      "Ġgenus": 5813,
      "ĠMP": 5814,
      "ĠTro": 5815,
      "di": 5816,
      "ĠNews": 5817,
      "Ġempty": 5818,
      "Ġdirection": 5819,
      "Ġinvolv": 5820,
      "Ġcollect": 5821,
      "ĠEdward": 5822,
      "Ġlegal": 5823,
      "Tim": 5824,
      "Ġfinally": 5825,
      "aya": 5826,
      "Ġapproach": 5827,
      "ĠMichigan": 5828,
      "ART": 5829,
      "apse": 5830,
      "Ġded": 5831,
      "ĠMah": 5832,
      "footer": 5833,
      "Ġyet": 5834,
      "82": 5835,
      "Ġpositive": 5836,
      "achusetts": 5837,
      "Ġequip": 5838,
      "Dir": 5839,
      "Ġcondition": 5840,
      "Que": 5841,
      "Head": 5842,
      "Ġbass": 5843,
      "Integer": 5844,
      "Operation": 5845,
      "1946": 5846,
      "Ġsenior": 5847,
      "force": 5848,
      "Ġfilename": 5849,
      "clear": 5850,
      "Ġenough": 5851,
      "Ġrot": 5852,
      "ĠHealth": 5853,
      "Ġsquad": 5854,
      "Ġexception": 5855,
      "ĠProject": 5856,
      "Ġmeasure": 5857,
      "ĠAlb": 5858,
      "1957": 5859,
      "Ġolder": 5860,
      "WE": 5861,
      "caption": 5862,
      "Ã£": 5863,
      "send": 5864,
      "ĠOx": 5865,
      "ĠGal": 5866,
      "icture": 5867,
      "Ġjav": 5868,
      "ÅĤ": 5869,
      "Option": 5870,
      "webkit": 5871,
      "ĠRadio": 5872,
      "Ġactivities": 5873,
      "Ġforms": 5874,
      "Rev": 5875,
      "Ġlove": 5876,
      "command": 5877,
      "ĠSar": 5878,
      "writer": 5879,
      "eeks": 5880,
      "ĠÎ": 5881,
      "Ġful": 5882,
      "ĠOhio": 5883,
      "Ġelections": 5884,
      "ĠCarl": 5885,
      "election": 5886,
      "orem": 5887,
      "plications": 5888,
      "Ġhot": 5889,
      "Ġhandle": 5890,
      "fn": 5891,
      "xi": 5892,
      "PS": 5893,
      "Ä±": 5894,
      "sv": 5895,
      "mult": 5896,
      "burgh": 5897,
      "Ġswitch": 5898,
      "Ġremaining": 5899,
      "DL": 5900,
      "Brit": 5901,
      "Ġmechan": 5902,
      "Ġincrease": 5903,
      "ĠLord": 5904,
      "inding": 5905,
      "yes": 5906,
      "arden": 5907,
      "Ġanti": 5908,
      "ĠJersey": 5909,
      "emp": 5910,
      "elves": 5911,
      "ĠMap": 5912,
      "uge": 5913,
      "erem": 5914,
      "Ġinitially": 5915,
      "ĠFri": 5916,
      "address": 5917,
      "iring": 5918,
      "ĠScotland": 5919,
      "Ã±": 5920,
      "ĠAsian": 5921,
      "Work": 5922,
      "Reference": 5923,
      "NavBar": 5924,
      "PL": 5925,
      "isk": 5926,
      "Op": 5927,
      "angle": 5928,
      "Ġremains": 5929,
      "present": 5930,
      "ila": 5931,
      "ski": 5932,
      "Ġadj": 5933,
      "]{": 5934,
      "pool": 5935,
      "ominated": 5936,
      "cing": 5937,
      "which": 5938,
      "ĠIllinois": 5939,
      "Ġface": 5940,
      "rang": 5941,
      "widget": 5942,
      "Ġmedical": 5943,
      "Ġ``": 5944,
      "RI": 5945,
      "Ġoverride": 5946,
      "ĠPacific": 5947,
      "Ġmajority": 5948,
      "Ġanalysis": 5949,
      "Ġcontinu": 5950,
      "orter": 5951,
      "Ġprim": 5952,
      "allow": 5953,
      "ĠPrem": 5954,
      "ooks": 5955,
      "ĠDirector": 5956,
      "Ġminutes": 5957,
      "delete": 5958,
      "azon": 5959,
      "Ġprogress": 5960,
      "sych": 5961,
      "National": 5962,
      "Ġprograms": 5963,
      "Draw": 5964,
      "isher": 5965,
      "Ġsets": 5966,
      "inger": 5967,
      "ĠKent": 5968,
      "Ġrules": 5969,
      "illed": 5970,
      "Ġroom": 5971,
      "white": 5972,
      "Ġprevent": 5973,
      "Ġbus": 5974,
      "Ġchall": 5975,
      "Ġsubs": 5976,
      "Ġpotential": 5977,
      "Match": 5978,
      "1000": 5979,
      "vas": 5980,
      "plugin": 5981,
      "internal": 5982,
      "env": 5983,
      "Ġcause": 5984,
      "Ġbecoming": 5985,
      "inem": 5986,
      "Ġhusband": 5987,
      "Ġships": 5988,
      "ĠRel": 5989,
      "olt": 5990,
      "Ġavoid": 5991,
      "direct": 5992,
      "gypt": 5993,
      "TI": 5994,
      "leq": 5995,
      "Async": 5996,
      "ipal": 5997,
      "ĠQueen": 5998,
      "(:": 5999,
      "Ġremain": 6000,
      "1955": 6001,
      "lad": 6002,
      "ĠPeople": 6003,
      "even": 6004,
      "1947": 6005,
      "Ġdepartment": 6006,
      "Ġvictory": 6007,
      "ĠFI": 6008,
      "Ġhours": 6009,
      "Ġpoliticians": 6010,
      "Ġcollabor": 6011,
      "Left": 6012,
      "'>": 6013,
      "1952": 6014,
      ")]": 6015,
      "Background": 6016,
      "acc": 6017,
      "ĠColor": 6018,
      "================================": 6019,
      "Ġcelebr": 6020,
      "example": 6021,
      "Ġsymbol": 6022,
      "join": 6023,
      "Ġmention": 6024,
      "ved": 6025,
      "aved": 6026,
      "Ġlegisl": 6027,
      "Ġappears": 6028,
      "ipe": 6029,
      "ela": 6030,
      "Ġinside": 6031,
      "=\"/": 6032,
      "Ġrat": 6033,
      "aret": 6034,
      "ibli": 6035,
      "ĠLuc": 6036,
      "Session": 6037,
      ".$": 6038,
      "ĠBob": 6039,
      "ĠAsia": 6040,
      "rip": 6041,
      "ĠĠĠĠĠĠĠĠĠĠĠĠĠĠĠĠĠĠĠĠ": 6042,
      "Ġsend": 6043,
      "78": 6044,
      "Ġsources": 6045,
      "ERROR": 6046,
      "ĠConference": 6047,
      "ĠTop": 6048,
      "ĠRepresent": 6049,
      "copy": 6050,
      "ims": 6051,
      "ĠSee": 6052,
      "ĠMi": 6053,
      "rib": 6054,
      "Ġevidence": 6055,
      "ĠSte": 6056,
      "enge": 6057,
      "Ġseat": 6058,
      "Ġspeed": 6059,
      "ĠRailway": 6060,
      "ething": 6061,
      "ĠPortug": 6062,
      "Helper": 6063,
      "Ġnumerous": 6064,
      "Ġsecurity": 6065,
      "255": 6066,
      "irls": 6067,
      "ulty": 6068,
      "Ġdetails": 6069,
      "Ġweight": 6070,
      "Ġquick": 6071,
      "ĠPhilipp": 6072,
      "TC": 6073,
      "Ġrespectively": 6074,
      "Impl": 6075,
      "Ġinvoke": 6076,
      "Ġwestern": 6077,
      "Ġretired": 6078,
      "Ġcolon": 6079,
      "ĠBG": 6080,
      "Ġreligious": 6081,
      "virt": 6082,
      "aily": 6083,
      "Non": 6084,
      "Ġunknown": 6085,
      "Ġattribute": 6086,
      "72": 6087,
      "ech": 6088,
      "Parser": 6089,
      "Ġhash": 6090,
      "Ġoperated": 6091,
      "ĠMassachusetts": 6092,
      "Ġthreat": 6093,
      "Ġwords": 6094,
      "Ġoverall": 6095,
      "ĠGener": 6096,
      "Ġeconomic": 6097,
      "Ġactors": 6098,
      "Cal": 6099,
      "aters": 6100,
      "olid": 6101,
      "Ġupper": 6102,
      "Ġitems": 6103,
      "Ġannual": 6104,
      "adel": 6105,
      "task": 6106,
      "rb": 6107,
      "MM": 6108,
      "68": 6109,
      "ansion": 6110,
      "antry": 6111,
      "1954": 6112,
      "ancy": 6113,
      "ĠId": 6114,
      "ĠJewish": 6115,
      "Ġseparate": 6116,
      "Ġproblems": 6117,
      "Cons": 6118,
      "Ġconstant": 6119,
      "Ġexisting": 6120,
      "osing": 6121,
      "Parameters": 6122,
      "Sign": 6123,
      "mitted": 6124,
      "GB": 6125,
      "annotation": 6126,
      "Ġarguments": 6127,
      "Ġflag": 6128,
      "Ġextra": 6129,
      "Ġforced": 6130,
      "Ġunique": 6131,
      "ĠGovernor": 6132,
      "uty": 6133,
      "pid": 6134,
      "Ġforeign": 6135,
      "Ġdistance": 6136,
      "'],": 6137,
      "Car": 6138,
      "wer": 6139,
      "Dem": 6140,
      "ĠAssert": 6141,
      "Ġsettlement": 6142,
      "Ġcorrect": 6143,
      "fony": 6144,
      "irmed": 6145,
      "Ġarm": 6146,
      "types": 6147,
      "LI": 6148,
      "ĠWork": 6149,
      "ername": 6150,
      "rants": 6151,
      "Ġundefined": 6152,
      "ouri": 6153,
      "ĠBow": 6154,
      "Ġequal": 6155,
      "Ġletter": 6156,
      "ĠGeorgia": 6157,
      "1953": 6158,
      "fit": 6159,
      "():": 6160,
      "Vector": 6161,
      "Ġsetting": 6162,
      "Rect": 6163,
      "Ġfarm": 6164,
      "Ġmostly": 6165,
      "hover": 6166,
      "icons": 6167,
      "ĠSpring": 6168,
      "}$.": 6169,
      "Ptr": 6170,
      "Ġforest": 6171,
      "ĠSat": 6172,
      "Ġmaster": 6173,
      "Dep": 6174,
      "Ġmulti": 6175,
      "ymfony": 6176,
      "eqn": 6177,
      "Play": 6178,
      "Core": 6179,
      "Ġmeaning": 6180,
      "car": 6181,
      "ĠJones": 6182,
      "Icon": 6183,
      "Ġseg": 6184,
      "inder": 6185,
      "Ġdensity": 6186,
      "ĠBre": 6187,
      "Ġquarter": 6188,
      "watch": 6189,
      "Ġconfiguration": 6190,
      "PECT": 6191,
      "94": 6192,
      "Ġ['": 6193,
      "kins": 6194,
      "ror": 6195,
      "British": 6196,
      "Ġcomedy": 6197,
      "andra": 6198,
      "Store": 6199,
      "Ġraised": 6200,
      "Ġclasses": 6201,
      "1949": 6202,
      "ĠCentre": 6203,
      "Post": 6204,
      "Ġess": 6205,
      "Ġbit": 6206,
      "Ġserving": 6207,
      "Go": 6208,
      "Ġclubs": 6209,
      "Ġuniversity": 6210,
      "ji": 6211,
      "Di": 6212,
      "Ġoperator": 6213,
      "media": 6214,
      "Down": 6215,
      "uer": 6216,
      "TER": 6217,
      "ĠStep": 6218,
      "ĠJournal": 6219,
      "ĠWrit": 6220,
      "Ġparticularly": 6221,
      "###": 6222,
      "|\\": 6223,
      "foo": 6224,
      "toString": 6225,
      "Ġcontribut": 6226,
      "parameter": 6227,
      "CS": 6228,
      "Ġtemplate": 6229,
      "Mult": 6230,
      "Ġsea": 6231,
      "Tool": 6232,
      "United": 6233,
      "Ġclaimed": 6234,
      "padding": 6235,
      "Names": 6236,
      "estamp": 6237,
      "Ġunivers": 6238,
      "ĠPubl": 6239,
      "Ġpil": 6240,
      "Ġextended": 6241,
      "ĠCall": 6242,
      "EQ": 6243,
      "Ġraise": 6244,
      "docs": 6245,
      "tra": 6246,
      "ĠPlaces": 6247,
      "Ġarrest": 6248,
      "Ġprofessor": 6249,
      "Ġpeak": 6250,
      "Pat": 6251,
      "je": 6252,
      "Ġrecording": 6253,
      "}(\\": 6254,
      "ertific": 6255,
      "note": 6256,
      "IF": 6257,
      "cf": 6258,
      "ĠTrue": 6259,
      "Ġlatter": 6260,
      "ĠCoast": 6261,
      "rolled": 6262,
      "sq": 6263,
      "apers": 6264,
      "Use": 6265,
      "Ġrender": 6266,
      "atalog": 6267,
      "Ġhockey": 6268,
      "ĠFrancisco": 6269,
      "Ġtoken": 6270,
      "Ġfederal": 6271,
      "Schema": 6272,
      "Ġactual": 6273,
      "ĠPrince": 6274,
      "dependency": 6275,
      "Ġhum": 6276,
      "UB": 6277,
      "riz": 6278,
      "GET": 6279,
      "Ġcounter": 6280,
      "Ġarticle": 6281,
      "ĠScottish": 6282,
      "abeth": 6283,
      "Ġrecent": 6284,
      "ĠBoston": 6285,
      "Ġrelative": 6286,
      "World": 6287,
      "Ġoccas": 6288,
      "oles": 6289,
      "ĠKong": 6290,
      "mode": 6291,
      "Ġmunicipality": 6292,
      "Ġconsists": 6293,
      "Ġeth": 6294,
      "Ġiter": 6295,
      "Ġdat": 6296,
      "nes": 6297,
      "ĠSoc": 6298,
      "Ġtoday": 6299,
      "ĠWilliams": 6300,
      "ĠMiddle": 6301,
      "1951": 6302,
      "92": 6303,
      "Ġadopt": 6304,
      "icrosoft": 6305,
      "Ġcontain": 6306,
      "uts": 6307,
      "ĠGame": 6308,
      "Ġexpress": 6309,
      "Ġdemon": 6310,
      "access": 6311,
      "ransp": 6312,
      "export": 6313,
      "ycle": 6314,
      "Ġice": 6315,
      "ĠMajor": 6316,
      "Ġobtained": 6317,
      "ĠRam": 6318,
      "Ġmaximum": 6319,
      "click": 6320,
      "Ġbranch": 6321,
      "}$,": 6322,
      "ĠEastern": 6323,
      "equal": 6324,
      "84": 6325,
      "omega": 6326,
      ")\"": 6327,
      "Do": 6328,
      "Ġcontaining": 6329,
      "cat": 6330,
      "mselves": 6331,
      "Ġmeeting": 6332,
      "orporated": 6333,
      "Ġeffects": 6334,
      "Further": 6335,
      "Ġcharg": 6336,
      "phy": 6337,
      "uilt": 6338,
      "ĠException": 6339,
      "Ġsche": 6340,
      "Iter": 6341,
      "ĠTheatre": 6342,
      "amera": 6343,
      "ĠBlue": 6344,
      "Order": 6345,
      "Ġparents": 6346,
      "93": 6347,
      "Ġcard": 6348,
      "stack": 6349,
      "Ġlikely": 6350,
      "olute": 6351,
      "ĠJac": 6352,
      "Ġreferred": 6353,
      "ĠElect": 6354,
      "Ġhistorical": 6355,
      "Ġnine": 6356,
      "ĠHung": 6357,
      "Ġsister": 6358,
      "Ġtracks": 6359,
      "ĠKey": 6360,
      "Ġcouncil": 6361,
      "}/": 6362,
      "ĠBor": 6363,
      "arters": 6364,
      "Ġecho": 6365,
      "Ġtechnology": 6366,
      "har": 6367,
      "ulpt": 6368,
      "ĠLi": 6369,
      "DF": 6370,
      "Ġonline": 6371,
      "Ġwhole": 6372,
      "Ã£o": 6373,
      "91": 6374,
      "Ġcommunities": 6375,
      "Ġsucceed": 6376,
      "bass": 6377,
      "aa": 6378,
      "Ġinsp": 6379,
      "Ġstay": 6380,
      "Ġthemselves": 6381,
      "Don": 6382,
      "settings": 6383,
      "Ġ})": 6384,
      "Ġcompeted": 6385,
      "ĠPolish": 6386,
      "yo": 6387,
      "Ġpersonnel": 6388,
      "ĠHead": 6389,
      "Ġofficers": 6390,
      "Ġfle": 6391,
      "icted": 6392,
      "onia": 6393,
      "coq": 6394,
      "Long": 6395,
      "ĠOffice": 6396,
      "Ġweeks": 6397,
      "Ġign": 6398,
      "ĠBGCOLOR": 6399,
      "PA": 6400,
      "ĠPop": 6401,
      "Ġmut": 6402,
      "symbol": 6403,
      "1936": 6404,
      "Ġargument": 6405,
      "ĠOR": 6406,
      "xis": 6407,
      "ĠEnter": 6408,
      "oped": 6409,
      "Ġdise": 6410,
      "Ġparse": 6411,
      "Device": 6412,
      "rong": 6413,
      "Title": 6414,
      "Right": 6415,
      "poration": 6416,
      "\\,": 6417,
      "ĠColumbia": 6418,
      "Dr": 6419,
      "ĠCard": 6420,
      "Host": 6421,
      "disabled": 6422,
      "global": 6423,
      "pers": 6424,
      "Ġregist": 6425,
      "una": 6426,
      "ĠMatt": 6427,
      "component": 6428,
      "You": 6429,
      "ieut": 6430,
      "Ġpick": 6431,
      "req": 6432,
      "ening": 6433,
      "Ġshoot": 6434,
      "à¸": 6435,
      "vest": 6436,
      "Ġsubsequently": 6437,
      "fty": 6438,
      "Ġinfo": 6439,
      "imb": 6440,
      "peed": 6441,
      "blockList": 6442,
      "virtual": 6443,
      "CR": 6444,
      "Ġincome": 6445,
      "spirit": 6446,
      "coll": 6447,
      "inated": 6448,
      "equals": 6449,
      "mir": 6450,
      "high": 6451,
      "ĠLatin": 6452,
      "Ġexpression": 6453,
      "stone": 6454,
      "Ġdescent": 6455,
      "-->": 6456,
      "custom": 6457,
      "Ġsequence": 6458,
      "enger": 6459,
      "Ġexperience": 6460,
      "ĠGood": 6461,
      "ĠName": 6462,
      "Ġcomposed": 6463,
      "Ġnum": 6464,
      "Ġdiss": 6465,
      "Ġ~": 6466,
      "ellig": 6467,
      "Mark": 6468,
      "ĠOxford": 6469,
      "Ġstars": 6470,
      "aturing": 6471,
      "shall": 6472,
      "ĠVan": 6473,
      "cor": 6474,
      "session": 6475,
      "cr": 6476,
      "Ġowner": 6477,
      "Ġcandidate": 6478,
      "urban": 6479,
      "Ġfinancial": 6480,
      "ĠOk": 6481,
      "ĠUnivers": 6482,
      "ATA": 6483,
      "Ġsu": 6484,
      "rames": 6485,
      "hire": 6486,
      "Ġpromin": 6487,
      "Ġcontact": 6488,
      "Big": 6489,
      "itage": 6490,
      "Template": 6491,
      "lines": 6492,
      "Ġforward": 6493,
      "ĠMath": 6494,
      "ronic": 6495,
      "Ġmuseum": 6496,
      "outheast": 6497,
      "Ġrepe": 6498,
      "Ġsmaller": 6499,
      "aws": 6500,
      "Render": 6501,
      "argument": 6502,
      "hedule": 6503,
      "Ġinn": 6504,
      "Ã¡n": 6505,
      "Ġregional": 6506,
      "gorithm": 6507,
      "Ġbad": 6508,
      "ĠHand": 6509,
      "double": 6510,
      "ga": 6511,
      "Ġ('": 6512,
      "Application": 6513,
      "circ": 6514,
      "tilde": 6515,
      "Ġer": 6516,
      "amm": 6517,
      "Ñĥ": 6518,
      "ĠCON": 6519,
      "&&": 6520,
      "Ġquestion": 6521,
      "Ġvote": 6522,
      "ighter": 6523,
      "62": 6524,
      "sky": 6525,
      "Ġcarried": 6526,
      "SET": 6527,
      "Ġallows": 6528,
      "ĠJohnson": 6529,
      "inds": 6530,
      "Sk": 6531,
      "Ġchem": 6532,
      "bal": 6533,
      "IR": 6534,
      "Ġacquired": 6535,
      "vector": 6536,
      "ĠBang": 6537,
      "Ġleaving": 6538,
      "rance": 6539,
      "ĠJr": 6540,
      "enty": 6541,
      "prop": 6542,
      "Ġmatrix": 6543,
      ">();": 6544,
      "\"|": 6545,
      "ĠStan": 6546,
      "Ġjoin": 6547,
      "ALL": 6548,
      "False": 6549,
      "chor": 6550,
      "mes": 6551,
      "ĠInf": 6552,
      "Ġheavy": 6553,
      "ederation": 6554,
      "ĠCorps": 6555,
      "Ġlevels": 6556,
      "zech": 6557,
      "ĠEgypt": 6558,
      "Ġfoot": 6559,
      "cher": 6560,
      "SH": 6561,
      "erred": 6562,
      "ĠDate": 6563,
      "split": 6564,
      "La": 6565,
      "Ġpain": 6566,
      "ĠChild": 6567,
      "Ġpair": 6568,
      "Ġvariety": 6569,
      "Mem": 6570,
      "Ġincreasing": 6571,
      "icate": 6572,
      "Ġdeep": 6573,
      "ĠBelg": 6574,
      "onto": 6575,
      "onym": 6576,
      "Ġvariable": 6577,
      "ĠFar": 6578,
      "ĠStation": 6579,
      "ying": 6580,
      "Ġhelped": 6581,
      "cope": 6582,
      "ĠJean": 6583,
      "Classes": 6584,
      "Ġgas": 6585,
      "ynamic": 6586,
      "render": 6587,
      "infty": 6588,
      "SA": 6589,
      "ints": 6590,
      "Ġbelieved": 6591,
      "Expression": 6592,
      "ione": 6593,
      "Ġvon": 6594,
      "ĠSenate": 6595,
      "fly": 6596,
      "Ġproducts": 6597,
      "plugins": 6598,
      "ĠCommand": 6599,
      "ĠMov": 6600,
      "yer": 6601,
      "1938": 6602,
      "Ġsort": 6603,
      "bec": 6604,
      "Ġbrief": 6605,
      "ORT": 6606,
      "Music": 6607,
      "Ġearned": 6608,
      "erc": 6609,
      "illy": 6610,
      "ln": 6611,
      "1918": 6612,
      "63": 6613,
      "cp": 6614,
      "ĠBern": 6615,
      "Decl": 6616,
      "ĠOfficial": 6617,
      "Ġbasis": 6618,
      "ĠOp": 6619,
      "replace": 6620,
      "Ġappearances": 6621,
      "Invalid": 6622,
      "bot": 6623,
      "Ġlisting": 6624,
      "ĠSpecial": 6625,
      "ĠMr": 6626,
      "cean": 6627,
      "ĠIslam": 6628,
      "mann": 6629,
      "Ġvan": 6630,
      "ĠPoint": 6631,
      "cap": 6632,
      "iders": 6633,
      "ĠCommon": 6634,
      "Ġorganizations": 6635,
      "ĠSecretary": 6636,
      "ĠBroad": 6637,
      "SL": 6638,
      "Cast": 6639,
      "Ġbomb": 6640,
      "ilation": 6641,
      "ydro": 6642,
      "Ġcitiz": 6643,
      "Ġshare": 6644,
      "Ġtransaction": 6645,
      "Ġserve": 6646,
      "ĠFig": 6647,
      "ĠSea": 6648,
      "panel": 6649,
      "handle": 6650,
      "Ġmanaged": 6651,
      "chester": 6652,
      "Ġresponsible": 6653,
      "61": 6654,
      "Ġmovie": 6655,
      "wa": 6656,
      "Ġleave": 6657,
      "Ġactivity": 6658,
      "ĠBet": 6659,
      "make": 6660,
      "material": 6661,
      "ĠTO": 6662,
      "Ġpow": 6663,
      "$$": 6664,
      "install": 6665,
      "Ġvolume": 6666,
      "Ġmixed": 6667,
      "ydney": 6668,
      "Ġpackage": 6669,
      "uries": 6670,
      "ATH": 6671,
      "={": 6672,
      "ĠMid": 6673,
      "ĠMu": 6674,
      "ici": 6675,
      "Ġcorn": 6676,
      "focus": 6677,
      "construct": 6678,
      "ternet": 6679,
      "ĠWis": 6680,
      "ĠJSON": 6681,
      "1937": 6682,
      "unct": 6683,
      "My": 6684,
      "thur": 6685,
      "ito": 6686,
      "ĠThen": 6687,
      "Ġeastern": 6688,
      "Const": 6689,
      "rine": 6690,
      "Tests": 6691,
      "bi": 6692,
      "ĠCreek": 6693,
      "Ġcities": 6694,
      "....": 6695,
      "Ġprofile": 6696,
      "master": 6697,
      "ieutenant": 6698,
      "help": 6699,
      "hs": 6700,
      "ĠLab": 6701,
      "Ġfamous": 6702,
      "Debug": 6703,
      "Ġextension": 6704,
      "Ġdelete": 6705,
      "Ġbrand": 6706,
      "Ġheader": 6707,
      "actor": 6708,
      "Ġvector": 6709,
      "According": 6710,
      "83": 6711,
      "Ġserial": 6712,
      "Ġinfluence": 6713,
      "ĠMedia": 6714,
      "Ġbecomes": 6715,
      "teen": 6716,
      "ĠLater": 6717,
      "term": 6718,
      "room": 6719,
      "Dialog": 6720,
      "ĠProgram": 6721,
      "Ġdatabase": 6722,
      "ĠEXPECT": 6723,
      "Ã¸": 6724,
      "ifest": 6725,
      "---": 6726,
      "Ġconcert": 6727,
      "Ġnature": 6728,
      "ĠBerlin": 6729,
      "Ġhouses": 6730,
      "Ġprojects": 6731,
      "ĠEarth": 6732,
      "onds": 6733,
      "akers": 6734,
      "Ġdark": 6735,
      "HP": 6736,
      "Ġbaseball": 6737,
      "Association": 6738,
      "pton": 6739,
      "SION": 6740,
      "Ġrestrict": 6741,
      "Ġhospital": 6742,
      "Ġmainly": 6743,
      "?:": 6744,
      "ĠMethod": 6745,
      "Ġdead": 6746,
      "74": 6747,
      "ĠArgent": 6748,
      "ĠTheir": 6749,
      "Ġexpatriate": 6750,
      "Values": 6751,
      "ĠDevelopment": 6752,
      "Ġphysical": 6753,
      "Ġconstructed": 6754,
      "Ġdistributed": 6755,
      "iser": 6756,
      "Ġindividuals": 6757,
      "Ġtroops": 6758,
      "ĠHong": 6759,
      "ntario": 6760,
      "Ġbenef": 6761,
      "Ġsplit": 6762,
      "Ġmur": 6763,
      "Ġresources": 6764,
      "Ġrecover": 6765,
      "Public": 6766,
      "Ġetc": 6767,
      "ometry": 6768,
      "81": 6769,
      "Ġult": 6770,
      "Ġthink": 6771,
      "ners": 6772,
      "aling": 6773,
      "ilton": 6774,
      "Ġos": 6775,
      "ĠHa": 6776,
      "ĠAlexander": 6777,
      "ips": 6778,
      "family": 6779,
      "Has": 6780,
      "Ġeval": 6781,
      "Ġconflict": 6782,
      "Ġcomputer": 6783,
      "ĠNight": 6784,
      "toggle": 6785,
      "Ġsociety": 6786,
      "Ġcontainer": 6787,
      "fields": 6788,
      "Ġyouth": 6789,
      "Ġapplied": 6790,
      "Ġbridge": 6791,
      "ĠVictoria": 6792,
      "Ġtouch": 6793,
      "Ġalleg": 6794,
      "Ġoffered": 6795,
      "Ġexperiment": 6796,
      "Ġneighbor": 6797,
      "Ġfort": 6798,
      "STR": 6799,
      "Ġdraft": 6800,
      "Ġdemonstr": 6801,
      "ĠĠĠĠĠĠĊ": 6802,
      "ricts": 6803,
      "Api": 6804,
      "FAULT": 6805,
      "ĠIslands": 6806,
      "Ġcultural": 6807,
      "pan": 6808,
      "Ġawards": 6809,
      "Ġphase": 6810,
      "del": 6811,
      "hens": 6812,
      "ĠĠĠĠĠĠĠĠĠĠĠĠĠĠĠĠĠĠĠĠĠĠĠĠĠĠĠĠĠĠĠĠĠĠĠĠĠĠĠ": 6813,
      "Ġexists": 6814,
      "Ġscene": 6815,
      "ĠDar": 6816,
      "Parent": 6817,
      "Personal": 6818,
      "ez": 6819,
      "exports": 6820,
      "Handle": 6821,
      "Ġgenerated": 6822,
      "Ġturned": 6823,
      "ĠVis": 6824,
      "Ġotherwise": 6825,
      "rum": 6826,
      "Found": 6827,
      "Ġpoor": 6828,
      "system": 6829,
      "ĠRay": 6830,
      "Ġwinner": 6831,
      "JECT": 6832,
      "Ġpromoted": 6833,
      "Ġimpact": 6834,
      "}\"": 6835,
      "ĠKorea": 6836,
      "ĠAL": 6837,
      "cos": 6838,
      "peror": 6839,
      "Main": 6840,
      "store": 6841,
      "Ġinvestig": 6842,
      "ĠJes": 6843,
      "Ġauth": 6844,
      "PR": 6845,
      "nce": 6846,
      "Ġprovince": 6847,
      "EC": 6848,
      "ĠWild": 6849,
      ";<": 6850,
      "Ġdesc": 6851,
      "----------------------------------------------------------------": 6852,
      "EM": 6853,
      "Ġassigned": 6854,
      "oting": 6855,
      "ennes": 6856,
      "ĠJackson": 6857,
      "Ġdirectory": 6858,
      "Ġjson": 6859,
      "ĠWill": 6860,
      "ĠST": 6861,
      "Ø§": 6862,
      "Ġinher": 6863,
      "Ġgun": 6864,
      "igration": 6865,
      "Ġlanguages": 6866,
      "elli": 6867,
      "Ġthr": 6868,
      "connect": 6869,
      "zo": 6870,
      "Ġelectric": 6871,
      "ĠBBC": 6872,
      "ĠOf": 6873,
      "Ġepisodes": 6874,
      "Austral": 6875,
      "ĠSol": 6876,
      "ĠWall": 6877,
      "ĠHTML": 6878,
      "1919": 6879,
      "79": 6880,
      "Ġproduce": 6881,
      "agers": 6882,
      "Ġbyte": 6883,
      "urer": 6884,
      "ĠWay": 6885,
      "category": 6886,
      "Xml": 6887,
      "iate": 6888,
      "Dom": 6889,
      "iger": 6890,
      "aped": 6891,
      "ĠRegiment": 6892,
      "Enabled": 6893,
      "Ġrandom": 6894,
      "Ġtherefore": 6895,
      "Reader": 6896,
      "ologist": 6897,
      "Ġmarriage": 6898,
      "West": 6899,
      "(*": 6900,
      "Ġcovered": 6901,
      "ORM": 6902,
      "lose": 6903,
      "University": 6904,
      "Metadata": 6905,
      "nic": 6906,
      "Stack": 6907,
      "ĠCapt": 6908,
      "cloud": 6909,
      "osen": 6910,
      "ĠHospital": 6911,
      "1935": 6912,
      "73": 6913,
      "ignment": 6914,
      "alo": 6915,
      "ĠOlympic": 6916,
      "application": 6917,
      "DS": 6918,
      "ĠRegion": 6919,
      "Ġprep": 6920,
      "Ġshape": 6921,
      "Ġnamespace": 6922,
      "ĠSand": 6923,
      "ronze": 6924,
      "71": 6925,
      "Ġcarry": 6926,
      "Ġcompared": 6927,
      "Ġimmediately": 6928,
      "ĠInst": 6929,
      "icens": 6930,
      "ĠLittle": 6931,
      "hemat": 6932,
      "Ġshared": 6933,
      "osph": 6934,
      "Ġbegin": 6935,
      "Ġdespite": 6936,
      "Ġreceive": 6937,
      "icine": 6938,
      "Ġidea": 6939,
      "ĠIS": 6940,
      "oir": 6941,
      "Ġcache": 6942,
      "enum": 6943,
      "vm": 6944,
      "Ġang": 6945,
      "ĠAlso": 6946,
      "rovers": 6947,
      "names": 6948,
      "Body": 6949,
      "Final": 6950,
      "160": 6951,
      "Ġprotest": 6952,
      "ĉĉĉĊ": 6953,
      "Ġcompar": 6954,
      "Ġdepart": 6955,
      "Ġnearly": 6956,
      "raphics": 6957,
      "ishes": 6958,
      "69": 6959,
      "eld": 6960,
      "byte": 6961,
      "Ġissued": 6962,
      "Root": 6963,
      "usion": 6964,
      "Ġparties": 6965,
      "Ġalloc": 6966,
      "Ġcharge": 6967,
      "`.": 6968,
      "Ġplans": 6969,
      "__(": 6970,
      "cit": 6971,
      "Ġcycl": 6972,
      "full": 6973,
      "ĠFour": 6974,
      "Ġwait": 6975,
      "erg": 6976,
      "uby": 6977,
      "adelph": 6978,
      "assets": 6979,
      "Ġagreed": 6980,
      "framework": 6981,
      "ĠKorean": 6982,
      "Display": 6983,
      "zabeth": 6984,
      "ĠTam": 6985,
      "stein": 6986,
      "undred": 6987,
      "Ġpp": 6988,
      "ĠMany": 6989,
      "Ġhar": 6990,
      "ĠPrize": 6991,
      "innes": 6992,
      "_;": 6993,
      "=\"\">": 6994,
      "olver": 6995,
      "Args": 6996,
      "Ġscen": 6997,
      "Definition": 6998,
      "forms": 6999,
      "ffic": 7000,
      "Ġnearby": 7001,
      "ĠAndrew": 7002,
      "Polit": 7003,
      "osa": 7004,
      "afety": 7005,
      "ĠRepublican": 7006,
      "ographic": 7007,
      "Ġwanted": 7008,
      "eller": 7009,
      "ĠLo": 7010,
      "iated": 7011,
      "ĠFire": 7012,
      "ĠLy": 7013,
      "Ġneeds": 7014,
      "enter": 7015,
      "lay": 7016,
      "pute": 7017,
      "Vert": 7018,
      "adian": 7019,
      "Ġsilver": 7020,
      "ucky": 7021,
      "efe": 7022,
      "ĠBir": 7023,
      "jar": 7024,
      "etherlands": 7025,
      "ĠPass": 7026,
      "nap": 7027,
      "ĠSom": 7028,
      "ĠKen": 7029,
      "Ġstories": 7030,
      "eqnarray": 7031,
      "fill": 7032,
      "Ġcapacity": 7033,
      "cur": 7034,
      "Ġinline": 7035,
      "OK": 7036,
      "Ġdiscovered": 7037,
      "Ġtransferred": 7038,
      "ĠViet": 7039,
      "Ġbytes": 7040,
      "1914": 7041,
      "Ġnewspaper": 7042,
      "aylor": 7043,
      "cest": 7044,
      "ĠCheck": 7045,
      "Ġasked": 7046,
      "short": 7047,
      "Ġcoordin": 7048,
      "Ġnecessary": 7049,
      "ĠHome": 7050,
      "ibly": 7051,
      "ĠSydney": 7052,
      "Ã©e": 7053,
      "Ġoil": 7054,
      "ĠEvent": 7055,
      "Ġactually": 7056,
      "Ġfifth": 7057,
      "=\"\"": 7058,
      "=\"../../../": 7059,
      "Ġarchitecture": 7060,
      "Boolean": 7061,
      "Ġgives": 7062,
      "ĠCorn": 7063,
      "pa": 7064,
      "weg": 7065,
      "Ġanc": 7066,
      "secut": 7067,
      "ĠÂ£": 7068,
      "sen": 7069,
      "TED": 7070,
      "Ġthread": 7071,
      "Ġpra": 7072,
      "Click": 7073,
      "innesota": 7074,
      "jection": 7075,
      "bro": 7076,
      "oned": 7077,
      "adelphia": 7078,
      "rat": 7079,
      "cribe": 7080,
      "Assert": 7081,
      "General": 7082,
      "ĠMot": 7083,
      "Ġtold": 7084,
      "ĠPeak": 7085,
      "Ġversions": 7086,
      "ango": 7087,
      "ĠPen": 7088,
      "Ġassistant": 7089,
      "Ġgraduated": 7090,
      "ĠPrime": 7091,
      "Ð°Ð": 7092,
      "Ġmix": 7093,
      "Ljava": 7094,
      "Ġenter": 7095,
      "Argument": 7096,
      "olume": 7097,
      "Ġvoice": 7098,
      "Ġsusp": 7099,
      "Ġexecutive": 7100,
      "admin": 7101,
      "ĠAirport": 7102,
      "$(": 7103,
      "boolean": 7104,
      "Ġordered": 7105,
      ">.": 7106,
      "portun": 7107,
      "ĠRoute": 7108,
      "ĠPolice": 7109,
      "1933": 7110,
      "success": 7111,
      "Ġfellow": 7112,
      "Policy": 7113,
      "Package": 7114,
      "Ġresulting": 7115,
      "International": 7116,
      "Ġvisit": 7117,
      "Ġunsigned": 7118,
      "ects": 7119,
      "fri": 7120,
      "Ġmsg": 7121,
      "rees": 7122,
      "racy": 7123,
      "related": 7124,
      "ĠSupreme": 7125,
      "eqref": 7126,
      "ni": 7127,
      "Ġsoldiers": 7128,
      "Ġrecomm": 7129,
      "auto": 7130,
      "iminal": 7131,
      "Ġfast": 7132,
      "ĠPres": 7133,
      "Ġsolution": 7134,
      "Ġguest": 7135,
      "margin": 7136,
      "clusion": 7137,
      "romise": 7138,
      "uct": 7139,
      "Rule": 7140,
      "ĠWater": 7141,
      "callback": 7142,
      "Ġinh": 7143,
      "ĠGra": 7144,
      "Ġcreation": 7145,
      "leep": 7146,
      "ĠBand": 7147,
      "Doc": 7148,
      "insert": 7149,
      "Ġconnected": 7150,
      "Ġcat": 7151,
      "Rad": 7152,
      "ortheast": 7153,
      "Ġgreen": 7154,
      "Ġinstalled": 7155,
      "Ġnuc": 7156,
      "Ġliterature": 7157,
      "Ġoccurred": 7158,
      "alion": 7159,
      "Writer": 7160,
      "ooth": 7161,
      "Ġsaying": 7162,
      "ifications": 7163,
      "Ġeas": 7164,
      "while": 7165,
      "ĠCat": 7166,
      "Ġtests": 7167,
      "Ġsport": 7168,
      "Fields": 7169,
      "Ġsettings": 7170,
      "osl": 7171,
      "ĠNetwork": 7172,
      "Delete": 7173,
      "ĠĠĠĠĠĠĠĠĠĠĠĠĠĠĠĠĠĠ": 7174,
      "ĠOs": 7175,
      "holder": 7176,
      "Ġblue": 7177,
      "Ġarrived": 7178,
      "ĠRog": 7179,
      "Ġ),": 7180,
      "ĠOntario": 7181,
      "ications": 7182,
      "Ġnom": 7183,
      "Ġworkers": 7184,
      "MD": 7185,
      "Ġillust": 7186,
      "1928": 7187,
      "amber": 7188,
      "rast": 7189,
      "Ġdrug": 7190,
      "Ġrank": 7191,
      "Ġbelong": 7192,
      "Gu": 7193,
      "Ġbottom": 7194,
      "Ġslow": 7195,
      "Ġjavax": 7196,
      "'))": 7197,
      "ependence": 7198,
      "ĠKenn": 7199,
      "bas": 7200,
      "Ġobtain": 7201,
      "ads": 7202,
      "1929": 7203,
      "Ġfigure": 7204,
      "ĠSund": 7205,
      "Ġfixed": 7206,
      "Ġsatisf": 7207,
      "1917": 7208,
      "ĠEst": 7209,
      "reedom": 7210,
      "chestra": 7211,
      "Ġhonor": 7212,
      "ello": 7213,
      "Bytes": 7214,
      "1934": 7215,
      "Ġalongside": 7216,
      "amin": 7217,
      "Wil": 7218,
      "uv": 7219,
      "uple": 7220,
      "Ġspread": 7221,
      "Ãº": 7222,
      "Ġtransition": 7223,
      "ibliography": 7224,
      "iced": 7225,
      "Ġ'/": 7226,
      "ĠTem": 7227,
      "Ġdefine": 7228,
      "Kind": 7229,
      "sql": 7230,
      "ĠBad": 7231,
      "bound": 7232,
      "ĠQueens": 7233,
      "ĠAff": 7234,
      "ĠLight": 7235,
      "ĠRevolution": 7236,
      "rot": 7237,
      "ĠAvenue": 7238,
      "ĠBoth": 7239,
      "itzer": 7240,
      "ORD": 7241,
      "spring": 7242,
      "Ġsquare": 7243,
      "ĠDaniel": 7244,
      "Ġconsole": 7245,
      "Ġcategory": 7246,
      "Ġaccepted": 7247,
      "Ġfriends": 7248,
      "Ġintended": 7249,
      "ĠOtt": 7250,
      "Ġcomes": 7251,
      "ĠAk": 7252,
      "ĠStand": 7253,
      "Custom": 7254,
      "ĠGuard": 7255,
      "bourne": 7256,
      "Ġrenamed": 7257,
      "Media": 7258,
      "rical": 7259,
      "Ġsave": 7260,
      "ĠCorporation": 7261,
      "Ġprobably": 7262,
      "contin": 7263,
      "Ġsumm": 7264,
      "Äį": 7265,
      "email": 7266,
      "AME": 7267,
      "keys": 7268,
      "Since": 7269,
      "odec": 7270,
      "ĠJustice": 7271,
      "Ġven": 7272,
      "Ret": 7273,
      "Ġcalls": 7274,
      "ĠEp": 7275,
      "Ġheart": 7276,
      "Each": 7277,
      "Ġsal": 7278,
      "Ġfeaturing": 7279,
      "Ġlives": 7280,
      "(-": 7281,
      "Ġusers": 7282,
      "ĠMinistry": 7283,
      "Byte": 7284,
      "attribute": 7285,
      "Ġresidents": 7286,
      "oured": 7287,
      "Ġgrowth": 7288,
      "edd": 7289,
      "Ins": 7290,
      "ĠBatt": 7291,
      "Ġtheme": 7292,
      "Tab": 7293,
      "lyph": 7294,
      "iki": 7295,
      "Ġcritical": 7296,
      "Ġring": 7297,
      "Ġprimarily": 7298,
      "ĠWin": 7299,
      "Ġlaws": 7300,
      "ussian": 7301,
      "ĠRaj": 7302,
      "free": 7303,
      "Ġstreng": 7304,
      "Pool": 7305,
      "ĠModel": 7306,
      "Mock": 7307,
      "mo": 7308,
      "}}\\": 7309,
      "1932": 7310,
      "Ġadministrative": 7311,
      "Ġsample": 7312,
      "perial": 7313,
      "\")]": 7314,
      "Ġsens": 7315,
      "Ġedge": 7316,
      "Ġathlet": 7317,
      "kg": 7318,
      "Ġexpanded": 7319,
      "Ġsynt": 7320,
      "eler": 7321,
      "Ġfirm": 7322,
      "ori": 7323,
      "Ġsculpt": 7324,
      "ynchron": 7325,
      "dict": 7326,
      "ĠRome": 7327,
      "Ġancient": 7328,
      "Cre": 7329,
      "mail": 7330,
      "iling": 7331,
      "That": 7332,
      "ĠJoe": 7333,
      "ĠUN": 7334,
      "lan": 7335,
      "ĠEver": 7336,
      "ĠText": 7337,
      "\\\"": 7338,
      "Ġpositions": 7339,
      "anta": 7340,
      "Err": 7341,
      "inity": 7342,
      "1910": 7343,
      "Ġjoint": 7344,
      "South": 7345,
      "CP": 7346,
      "ĠBab": 7347,
      "ĠSa": 7348,
      "Ġmurder": 7349,
      "Ġminister": 7350,
      "ĠLO": 7351,
      "ĠVill": 7352,
      "ĠMuslim": 7353,
      "Ġsomething": 7354,
      "consin": 7355,
      "SSERT": 7356,
      "step": 7357,
      "psi": 7358,
      "rison": 7359,
      "Ġcrew": 7360,
      "Ġvs": 7361,
      "Ġwallet": 7362,
      "anth": 7363,
      "Ġactions": 7364,
      "ĠSports": 7365,
      "Ġtele": 7366,
      "Ġmoving": 7367,
      "gg": 7368,
      "Ġlock": 7369,
      "ĠAsh": 7370,
      "rie": 7371,
      "Ġregions": 7372,
      "ĠCollection": 7373,
      "emet": 7374,
      "Ġquality": 7375,
      "Ġsites": 7376,
      "password": 7377,
      "ĠPers": 7378,
      "ĠArm": 7379,
      "quarters": 7380,
      "itness": 7381,
      "Storage": 7382,
      "Ġwinners": 7383,
      "TEST": 7384,
      "Arch": 7385,
      "raction": 7386,
      "orning": 7387,
      "tw": 7388,
      "Ġreli": 7389,
      "organ": 7390,
      "ĠJeff": 7391,
      "ulf": 7392,
      "dropdown": 7393,
      "`,": 7394,
      "Ġequival": 7395,
      "ĠError": 7396,
      "establ": 7397,
      "ĠNations": 7398,
      "Ġhighly": 7399,
      "Ġpresence": 7400,
      "Ġwalk": 7401,
      "idi": 7402,
      "ĠAthlet": 7403,
      "anges": 7404,
      "owa": 7405,
      "ĠLet": 7406,
      "Ġprec": 7407,
      "enna": 7408,
      "ropical": 7409,
      "creen": 7410,
      "Ġsolo": 7411,
      "Show": 7412,
      "raine": 7413,
      "clude": 7414,
      "1922": 7415,
      "Ġmusicians": 7416,
      "1900": 7417,
      "items": 7418,
      "Ġclean": 7419,
      "ĠFederal": 7420,
      "ĠSong": 7421,
      "ĠMedal": 7422,
      "'re": 7423,
      "bad": 7424,
      "aki": 7425,
      "Biography": 7426,
      "utt": 7427,
      "Ġfre": 7428,
      "Ġ<=": 7429,
      "Ġadministration": 7430,
      "Ġconstitu": 7431,
      "Ġleaders": 7432,
      "ĠJon": 7433,
      "Ġexact": 7434,
      "Ġspirit": 7435,
      "Ġstra": 7436,
      "aph": 7437,
      "ĠSwedish": 7438,
      "1924": 7439,
      "ncy": 7440,
      "Ġgreater": 7441,
      "Ġrugby": 7442,
      "Ġfeel": 7443,
      "Ġrevealed": 7444,
      "Ġreject": 7445,
      "Ġfailure": 7446,
      "arr": 7447,
      "ĠBC": 7448,
      "Ġconducted": 7449,
      "uls": 7450,
      "ĠLim": 7451,
      ";/": 7452,
      "iny": 7453,
      "product": 7454,
      "Ġtreatment": 7455,
      "normal": 7456,
      "May": 7457,
      "uses": 7458,
      "ĠTok": 7459,
      "ĠIl": 7460,
      "ĠNetherlands": 7461,
      "Ġestimated": 7462,
      "ĠAli": 7463,
      "Ġagreement": 7464,
      "Meta": 7465,
      "Ġagent": 7466,
      "region": 7467,
      "Ġassociation": 7468,
      "Ġli": 7469,
      "sex": 7470,
      "Ġparticipated": 7471,
      "Ġmunicipal": 7472,
      "shot": 7473,
      "ĠToronto": 7474,
      "Ġdefinition": 7475,
      "ĠLew": 7476,
      "fort": 7477,
      "rapper": 7478,
      "Ġquickly": 7479,
      "Ġability": 7480,
      "Ġtypically": 7481,
      "pg": 7482,
      "Olymp": 7483,
      "olitan": 7484,
      "kee": 7485,
      "Ġparish": 7486,
      "ĠEconom": 7487,
      "Ġicon": 7488,
      "Me": 7489,
      "ĠIO": 7490,
      "Ġweap": 7491,
      "Ġsemi": 7492,
      "1927": 7493,
      "inate": 7494,
      "Ġdeclared": 7495,
      "Ġcreating": 7496,
      "Ġdestroyed": 7497,
      "Ġraces": 7498,
      "aration": 7499,
      "oday": 7500,
      "German": 7501,
      "%)": 7502,
      "Ġ++": 7503,
      "1931": 7504,
      "Ġbig": 7505,
      "Om": 7506,
      "Ġcorresponding": 7507,
      "ĠThree": 7508,
      "TA": 7509,
      "VID": 7510,
      "Ġbehavior": 7511,
      "Ġerrors": 7512,
      "vin": 7513,
      "zer": 7514,
      "athan": 7515,
      "ĠSerb": 7516,
      "Obj": 7517,
      "Account": 7518,
      "hav": 7519,
      "utf": 7520,
      "Ġlaunch": 7521,
      "Ġclassical": 7522,
      "annels": 7523,
      "Ġstrict": 7524,
      "connection": 7525,
      "Ġdivided": 7526,
      "ĠElizabeth": 7527,
      "ĠRod": 7528,
      "ĠTechnology": 7529,
      "Ġnation": 7530,
      "emetery": 7531,
      "Ġzero": 7532,
      "Activity": 7533,
      "ĠBi": 7534,
      "ĠHan": 7535,
      "ervative": 7536,
      "Active": 7537,
      "French": 7538,
      "ĠBal": 7539,
      "Ġsurn": 7540,
      "Ġdriver": 7541,
      "Ġofficially": 7542,
      "cpp": 7543,
      "Widget": 7544,
      "Ġbtn": 7545,
      "cluded": 7546,
      "Ġfavor": 7547,
      "ixture": 7548,
      "rence": 7549,
      "claim": 7550,
      "AGE": 7551,
      "Ġfactory": 7552,
      "Events": 7553,
      "ernel": 7554,
      "Ġdedicated": 7555,
      "Ġcomponents": 7556,
      "ĠCambridge": 7557,
      "Ġcontest": 7558,
      "cmd": 7559,
      "DU": 7560,
      "Ġdoesn": 7561,
      "Ġhy": 7562,
      "Ġacademic": 7563,
      "Ġimages": 7564,
      "ĠBell": 7565,
      "Ġtradition": 7566,
      "Ġcombined": 7567,
      "Ġ\"/": 7568,
      "Ġholds": 7569,
      "BR": 7570,
      "150": 7571,
      "allel": 7572,
      "Ġcore": 7573,
      "ĠMarg": 7574,
      "Ġroles": 7575,
      "Num": 7576,
      "ĠHy": 7577,
      "ĠPakistan": 7578,
      "sets": 7579,
      "uter": 7580,
      "wegian": 7581,
      "ĠHuman": 7582,
      "xx": 7583,
      "Ġsimply": 7584,
      "ĠBon": 7585,
      "=\"@": 7586,
      "ĠAnton": 7587,
      "ĠStadium": 7588,
      "stats": 7589,
      "Vari": 7590,
      "ĠMember": 7591,
      "Ġfully": 7592,
      "Ġhtml": 7593,
      "Ġschedul": 7594,
      "comment": 7595,
      "ĠUser": 7596,
      "Ġfun": 7597,
      "iy": 7598,
      "coin": 7599,
      "Ġprogramming": 7600,
      "Ġbal": 7601,
      "ĠVen": 7602,
      "Ġsecret": 7603,
      "Selected": 7604,
      "ĠPremier": 7605,
      "jquery": 7606,
      "Ġmetal": 7607,
      "sqrt": 7608,
      "ĠOrgan": 7609,
      "akh": 7610,
      "ĠProfessor": 7611,
      "Video": 7612,
      "Changed": 7613,
      "asure": 7614,
      "Ġhel": 7615,
      "ĠNOT": 7616,
      "Ġthings": 7617,
      "Ver": 7618,
      "vec": 7619,
      "His": 7620,
      "1921": 7621,
      "ĠCirc": 7622,
      "epsilon": 7623,
      "Ġbasic": 7624,
      "URE": 7625,
      "Ġera": 7626,
      "1925": 7627,
      "GE": 7628,
      "initial": 7629,
      "ĠSciences": 7630,
      "Ġrural": 7631,
      "itled": 7632,
      "Channel": 7633,
      "Ġly": 7634,
      "Ġarticles": 7635,
      "Ġchampion": 7636,
      "ĠPower": 7637,
      "Ġattention": 7638,
      "van": 7639,
      "Ġopportun": 7640,
      "Ġreduced": 7641,
      "ĠMinnesota": 7642,
      "Ġtrial": 7643,
      "ĠWilson": 7644,
      "ACE": 7645,
      "Ġfinish": 7646,
      "record": 7647,
      "Ġplanned": 7648,
      "ById": 7649,
      "psilon": 7650,
      "iec": 7651,
      "Initial": 7652,
      "grade": 7653,
      "Ġdescribe": 7654,
      "Net": 7655,
      "urches": 7656,
      "inf": 7657,
      "ĠLes": 7658,
      "edit": 7659,
      "aska": 7660,
      "Ġmill": 7661,
      "======": 7662,
      "iÃ³n": 7663,
      "Ġmountain": 7664,
      "sf": 7665,
      "ĠCub": 7666,
      "Ġgiving": 7667,
      "Ġapi": 7668,
      "ĠDuke": 7669,
      "Ġaccom": 7670,
      "ĠDer": 7671,
      "Ġidentified": 7672,
      "raq": 7673,
      "posite": 7674,
      "ĠCE": 7675,
      "stop": 7676,
      "miss": 7677,
      "cdot": 7678,
      "omer": 7679,
      "Ġmicro": 7680,
      "iques": 7681,
      "inline": 7682,
      "PRE": 7683,
      "ĠSu": 7684,
      "radius": 7685,
      "Ġhouseholds": 7686,
      "Ġtal": 7687,
      "grid": 7688,
      "}[": 7689,
      "roke": 7690,
      "Ġoperating": 7691,
      "Ġcomposer": 7692,
      "mock": 7693,
      "Ġapply": 7694,
      "Ġcaptured": 7695,
      "ĠBa": 7696,
      "structure": 7697,
      "ĠTurk": 7698,
      "Ġnotable": 7699,
      "ĠEnt": 7700,
      "lyn": 7701,
      ".'": 7702,
      "EXT": 7703,
      "water": 7704,
      "AND": 7705,
      "cha": 7706,
      "rase": 7707,
      "Perm": 7708,
      "agnost": 7709,
      "Symfony": 7710,
      "Sources": 7711,
      "ĠTai": 7712,
      "Transaction": 7713,
      "Ġpressure": 7714,
      "ĠBrig": 7715,
      "CTION": 7716,
      "ĠĠĠĠĠĠĠĠĠĠĠĠĠĠĠĠĠĠĠĠĠĠĠĠ": 7717,
      "etic": 7718,
      "Ġwing": 7719,
      "none": 7720,
      "heim": 7721,
      "star": 7722,
      "Ġlies": 7723,
      "1923": 7724,
      "ĠUSA": 7725,
      "Ġpal": 7726,
      "Ġpiano": 7727,
      "ĠTy": 7728,
      "Ġhosted": 7729,
      "Ġprominent": 7730,
      "Ġlinear": 7731,
      "High": 7732,
      "ifies": 7733,
      "ceived": 7734,
      "KEY": 7735,
      "Ġdb": 7736,
      "*)": 7737,
      "Ġproper": 7738,
      "bold": 7739,
      "Ġcells": 7740,
      "ĠWindow": 7741,
      "JSON": 7742,
      "Ġmachine": 7743,
      "ĠWisconsin": 7744,
      "1912": 7745,
      "1926": 7746,
      "eman": 7747,
      "ĠForest": 7748,
      "Ġgrew": 7749,
      "Ġtitles": 7750,
      "Ġchain": 7751,
      "ĠPhiladelphia": 7752,
      "atically": 7753,
      "scroll": 7754,
      "rawn": 7755,
      "numer": 7756,
      "Ġmoment": 7757,
      "ĠSquad": 7758,
      "olis": 7759,
      "CI": 7760,
      "rim": 7761,
      "ĠCommunity": 7762,
      "ĠFollowing": 7763,
      "Ġcommonly": 7764,
      "Awards": 7765,
      "eries": 7766,
      "Ġpurs": 7767,
      "\">&": 7768,
      "bul": 7769,
      "aga": 7770,
      "VERSION": 7771,
      "ĠSab": 7772,
      "Ġleaves": 7773,
      "Ġstatement": 7774,
      "ĠSanta": 7775,
      "ante": 7776,
      "Ġeffective": 7777,
      "icket": 7778,
      "anga": 7779,
      "ĠMaster": 7780,
      "Ġdomain": 7781,
      "Ġobserved": 7782,
      "git": 7783,
      "ĠBudd": 7784,
      "Ġadult": 7785,
      "Ġphotograph": 7786,
      "Ġrecently": 7787,
      "Ġelim": 7788,
      "ĠNote": 7789,
      "Auth": 7790,
      "ï¼": 7791,
      "Women": 7792,
      "Before": 7793,
      "elease": 7794,
      "ĠSus": 7795,
      "ĠCzech": 7796,
      "yal": 7797,
      "aug": 7798,
      "elligence": 7799,
      "odies": 7800,
      "ĠassertEquals": 7801,
      "ucket": 7802,
      "DA": 7803,
      "primary": 7804,
      "Ġfish": 7805,
      "ĠRE": 7806,
      "ĠNic": 7807,
      "ĠBishop": 7808,
      "HTML": 7809,
      "ĠLady": 7810,
      "Ġmis": 7811,
      "ĠRom": 7812,
      "Let": 7813,
      "sur": 7814,
      "Tax": 7815,
      "editor": 7816,
      "Ġtemperature": 7817,
      "Ġvotes": 7818,
      "stat": 7819,
      "agram": 7820,
      "thread": 7821,
      "cut": 7822,
      "Ġstorage": 7823,
      "regon": 7824,
      "erial": 7825,
      "vo": 7826,
      "Ġpremi": 7827,
      "GS": 7828,
      "register": 7829,
      "ocker": 7830,
      "Ġefforts": 7831,
      "Ġdoub": 7832,
      "resents": 7833,
      "browser": 7834,
      "Ġmedalists": 7835,
      "alyt": 7836,
      "Ġmentioned": 7837,
      "Ġfloor": 7838,
      "Ġentity": 7839,
      "ĠFre": 7840,
      "Edit": 7841,
      "Ñı": 7842,
      "[:": 7843,
      "ĠHind": 7844,
      "ĠBridge": 7845,
      "Ġsecondary": 7846,
      "Ġconfirmed": 7847,
      "Ġknowledge": 7848,
      "ĠBrad": 7849,
      "LS": 7850,
      "Queue": 7851,
      "Send": 7852,
      "Olympic": 7853,
      "ĠWars": 7854,
      "Ġfeed": 7855,
      "ĠMike": 7856,
      "}_{\\": 7857,
      "Ġfacilities": 7858,
      "ipeline": 7859,
      "Only": 7860,
      "Ġpet": 7861,
      "ancing": 7862,
      "Ġdefeat": 7863,
      "illing": 7864,
      "profile": 7865,
      "kw": 7866,
      "ĠĠĠĠĠĠĠĠĠĠĠĠĠĠĠĠĠĠĠĠĠĠĠĠĠ": 7867,
      "ĠSweden": 7868,
      "apped": 7869,
      "OM": 7870,
      "Str": 7871,
      "crete": 7872,
      "ading": 7873,
      "Ġagric": 7874,
      "aset": 7875,
      "Ġstreet": 7876,
      "Ġorganized": 7877,
      "recated": 7878,
      "ĠMic": 7879,
      "ĠDiv": 7880,
      "Ġequipment": 7881,
      "Ġmarked": 7882,
      "Ã¢": 7883,
      "Ġconcent": 7884,
      "Ġprotect": 7885,
      "120": 7886,
      "Ġcontrovers": 7887,
      "ĠBusiness": 7888,
      "ĠCa": 7889,
      "ĠWinter": 7890,
      "Ġattend": 7891,
      "FILE": 7892,
      "Ġhistoric": 7893,
      "Ġwrest": 7894,
      "ROM": 7895,
      "Ġformation": 7896,
      "aming": 7897,
      "ĠAnth": 7898,
      "awn": 7899,
      "ĠConf": 7900,
      "asty": 7901,
      "ĠBack": 7902,
      "ĠWalk": 7903,
      "Ġnewly": 7904,
      "nections": 7905,
      "Ġadopted": 7906,
      "horizontal": 7907,
      "ĠView": 7908,
      "Ġbul": 7909,
      "joy": 7910,
      "Ġpurpose": 7911,
      "Ġflight": 7912,
      "exception": 7913,
      "ĠURL": 7914,
      "living": 7915,
      "ĠBol": 7916,
      "Ġdance": 7917,
      "Ġmock": 7918,
      "256": 7919,
      "illi": 7920,
      "Ġdistinct": 7921,
      "Ġsays": 7922,
      "ĠGoogle": 7923,
      "WS": 7924,
      "1915": 7925,
      "Ġcoming": 7926,
      "ĠFair": 7927,
      "ported": 7928,
      "Job": 7929,
      "ĠValue": 7930,
      "Dele": 7931,
      "Ġsure": 7932,
      "Ġidentity": 7933,
      "Ġdigital": 7934,
      "Ġspring": 7935,
      "Transport": 7936,
      "plex": 7937,
      "rev": 7938,
      "Extension": 7939,
      "jan": 7940,
      "omot": 7941,
      "unsigned": 7942,
      "(!": 7943,
      "ĠHay": 7944,
      "Ġast": 7945,
      "1916": 7946,
      "ĠRen": 7947,
      "ĠTaylor": 7948,
      "umes": 7949,
      "\\!": 7950,
      "cu": 7951,
      "iable": 7952,
      "ecause": 7953,
      "Tra": 7954,
      "Ġcitizens": 7955,
      "ĠElement": 7956,
      "ĠTer": 7957,
      "Ġreviews": 7958,
      "Ġdeliv": 7959,
      ".*": 7960,
      "Ġdemand": 7961,
      "Common": 7962,
      "Ġinstitutions": 7963,
      "Ġtitled": 7964,
      "home": 7965,
      "oes": 7966,
      "impl": 7967,
      "ĠGro": 7968,
      "ek": 7969,
      "inson": 7970,
      "Ġmedian": 7971,
      "Ident": 7972,
      "Ġexc": 7973,
      "Ġutil": 7974,
      "ĠFree": 7975,
      "ennessee": 7976,
      "ĠUse": 7977,
      "(){": 7978,
      "Ġfactor": 7979,
      "ĠStudies": 7980,
      "racks": 7981,
      "cow": 7982,
      "ĠDoug": 7983,
      "ĠBaron": 7984,
      "Ġgranted": 7985,
      "unn": 7986,
      "ĠMcC": 7987,
      "Msg": 7988,
      "ĠTownship": 7989,
      "Ġtowns": 7990,
      "alog": 7991,
      "ITY": 7992,
      "hu": 7993,
      "ears": 7994,
      "Ġrare": 7995,
      "yard": 7996,
      "Ġimplementation": 7997,
      "Ġpool": 7998,
      "unes": 7999,
      "ĠIndust": 8000,
      "Windows": 8001,
      "Logger": 8002,
      "pay": 8003,
      "Ġsy": 8004,
      "rangle": 8005,
      "Ġaccomp": 8006,
      "Requ": 8007,
      "$/": 8008,
      "Ġlay": 8009,
      "fef": 8010,
      "ĠKir": 8011,
      "ropolitan": 8012,
      "Ġsignal": 8013,
      "screen": 8014,
      "Ġmotor": 8015,
      "Ġmatter": 8016,
      "Ġstatistics": 8017,
      "ego": 8018,
      "ambig": 8019,
      "Ġnovels": 8020,
      "ĠVersion": 8021,
      "ertificate": 8022,
      "also": 8023,
      "edge": 8024,
      "Ġwall": 8025,
      "Ġvisible": 8026,
      "ĠEach": 8027,
      "Ġperman": 8028,
      "Ġseconds": 8029,
      "ĠLegisl": 8030,
      "plom": 8031,
      "ĠIndones": 8032,
      "ĠMedical": 8033,
      "phone": 8034,
      "modules": 8035,
      "Ġpsych": 8036,
      "Ġchosen": 8037,
      "ĠDown": 8038,
      "Ġconference": 8039,
      "that": 8040,
      "mad": 8041,
      "poses": 8042,
      "Nov": 8043,
      "Member": 8044,
      "Ġengineer": 8045,
      "prise": 8046,
      "try": 8047,
      "Ġgirl": 8048,
      "Ġinters": 8049,
      "faces": 8050,
      "Ġelev": 8051,
      "ais": 8052,
      "Struct": 8053,
      "Ġ%}": 8054,
      "season": 8055,
      "ĠIndiana": 8056,
      "Ġplants": 8057,
      "iang": 8058,
      "Timeout": 8059,
      "Ġenem": 8060,
      "ĠInitial": 8061,
      "ensis": 8062,
      "Ġcerem": 8063,
      "Sportspeople": 8064,
      "estic": 8065,
      "hentication": 8066,
      "adoop": 8067,
      "Ġensure": 8068,
      "Ġparliament": 8069,
      "opher": 8070,
      "anna": 8071,
      "ĠJoh": 8072,
      "Ġrepresentation": 8073,
      "Ġfemales": 8074,
      "Ġexternal": 8075,
      "################": 8076,
      "Bibliography": 8077,
      "Ġstack": 8078,
      "ĠDefault": 8079,
      "ĠSon": 8080,
      "ĠNow": 8081,
      "icer": 8082,
      "Ġdisease": 8083,
      "PATH": 8084,
      "ĠGi": 8085,
      "ika": 8086,
      "Ġinstrument": 8087,
      "ĠOnly": 8088,
      "utional": 8089,
      "Ġdeleg": 8090,
      "Ġrepresenting": 8091,
      "Ġproviding": 8092,
      "Ġdeploy": 8093,
      "Crit": 8094,
      "DC": 8095,
      "schema": 8096,
      "Var": 8097,
      "hew": 8098,
      "tsd": 8099,
      "Ġnodes": 8100,
      "Ġterritory": 8101,
      "SU": 8102,
      "Ġlearning": 8103,
      "ĠâĢĺ": 8104,
      "Ġpurchased": 8105,
      "Canadian": 8106,
      "WA": 8107,
      "ĠChris": 8108,
      "udget": 8109,
      "printf": 8110,
      "ĠOriginal": 8111,
      "Ġdamage": 8112,
      "ĠSem": 8113,
      "ĠMilitary": 8114,
      "ĠNaz": 8115,
      "Ġacting": 8116,
      "seud": 8117,
      "iments": 8118,
      "Ġphilosoph": 8119,
      "Ġcars": 8120,
      "Ġresist": 8121,
      "wall": 8122,
      "Editor": 8123,
      "ĠWel": 8124,
      "Î±": 8125,
      "Ġnote": 8126,
      "pet": 8127,
      "Av": 8128,
      "Ġce": 8129,
      "unte": 8130,
      "txt": 8131,
      "Ġslight": 8132,
      "addr": 8133,
      "pects": 8134,
      "Ġderived": 8135,
      "Ġ${\\": 8136,
      "Ġpeace": 8137,
      ".\\": 8138,
      "Gen": 8139,
      "Ġlabor": 8140,
      "ĠGh": 8141,
      "illery": 8142,
      "Ġpitch": 8143,
      "HL": 8144,
      "ĠGolden": 8145,
      "save": 8146,
      "ĠGree": 8147,
      "Ġhousing": 8148,
      "oster": 8149,
      "odd": 8150,
      "Ġhundred": 8151,
      "Best": 8152,
      "ĠChannel": 8153,
      "SR": 8154,
      "olo": 8155,
      "1913": 8156,
      "Ġhabit": 8157,
      "fefefe": 8158,
      "Ġsuccessfully": 8159,
      "Ġwidely": 8160,
      "@\"": 8161,
      ")))": 8162,
      "Network": 8163,
      "ĠAN": 8164,
      "Ġinterpret": 8165,
      "Populated": 8166,
      "ĠIP": 8167,
      "Ġserves": 8168,
      "ĠMissouri": 8169,
      "çļ": 8170,
      "Ġlargely": 8171,
      "ĠDespite": 8172,
      "Ġengineering": 8173,
      "Lock": 8174,
      "pository": 8175,
      "ĠRepresentatives": 8176,
      "Ġnotes": 8177,
      "Ġkeys": 8178,
      "ĠReview": 8179,
      "subsection": 8180,
      "ĠKim": 8181,
      "controller": 8182,
      "Ġattract": 8183,
      "ĠAh": 8184,
      "Ġwor": 8185,
      "Security": 8186,
      "Gamma": 8187,
      "ĠMir": 8188,
      "Ġestate": 8189,
      "Ġbeat": 8190,
      "ancel": 8191,
      "ĠEll": 8192,
      "lah": 8193,
      "coming": 8194,
      "ĠCastle": 8195,
      "rizona": 8196,
      "Ġgovernor": 8197,
      "ĠColon": 8198,
      "','": 8199,
      "Ġpull": 8200,
      "Del": 8201,
      "ashion": 8202,
      "Ġteacher": 8203,
      "Cond": 8204,
      "ĠKitt": 8205,
      "ods": 8206,
      "END": 8207,
      "ĠMun": 8208,
      "ĠCaptain": 8209,
      "Ã¼r": 8210,
      "Ġdetermined": 8211,
      "{}": 8212,
      "Ġcour": 8213,
      "ighth": 8214,
      "Ġleadership": 8215,
      "irement": 8216,
      "Ġfounder": 8217,
      "Ġwild": 8218,
      "ĠArea": 8219,
      "game": 8220,
      "ĠConstit": 8221,
      "Ġtwice": 8222,
      "ĠHun": 8223,
      "Ġnegative": 8224,
      "phas": 8225,
      "keyword": 8226,
      "ĠLandroid": 8227,
      "Note": 8228,
      "protobuf": 8229,
      "ĠSecurity": 8230,
      "worth": 8231,
      "Flags": 8232,
      "move": 8233,
      "Ã¥": 8234,
      "Ġexchange": 8235,
      "ĠRet": 8236,
      "TABLE": 8237,
      "Ġsoc": 8238,
      "Ġrecognized": 8239,
      "PAR": 8240,
      "vare": 8241,
      "Ġdocumentary": 8242,
      "Scale": 8243,
      "Geography": 8244,
      "Ġinstanceof": 8245,
      "Rest": 8246,
      "ĠAdminist": 8247,
      "apore": 8248,
      "ocation": 8249,
      "Ġawait": 8250,
      "ician": 8251,
      "ĠBh": 8252,
      "ÃŃa": 8253,
      "ĠCountry": 8254,
      "aine": 8255,
      "Ġstone": 8256,
      "LOG": 8257,
      "olec": 8258,
      "Ġattacks": 8259,
      "Float": 8260,
      "VD": 8261,
      "riev": 8262,
      "ĠBra": 8263,
      "amer": 8264,
      "ĠHighway": 8265,
      "ĠAbb": 8266,
      "Generic": 8267,
      "Î¿": 8268,
      "ĠMunicip": 8269,
      "scape": 8270,
      "Any": 8271,
      "logger": 8272,
      "ĠOregon": 8273,
      "Files": 8274,
      "ĠStat": 8275,
      "ĠGil": 8276,
      "ĠBeach": 8277,
      "iants": 8278,
      "Ġreports": 8279,
      "Ġgoes": 8280,
      "Ġpriest": 8281,
      "Ġ(*": 8282,
      "]]": 8283,
      "ĠFalse": 8284,
      "çļĦ": 8285,
      "Directory": 8286,
      "Ġoffers": 8287,
      "Ġ(;": 8288,
      "Ġgained": 8289,
      "ĠCode": 8290,
      "Ġbr": 8291,
      "ĠMaria": 8292,
      "Ġlot": 8293,
      ")=": 8294,
      "600": 8295,
      "Ġpolitics": 8296,
      "Ġfaculty": 8297,
      "aste": 8298,
      "}=": 8299,
      "2023": 8300,
      "Ġcompletely": 8301,
      "Ġlib": 8302,
      "desc": 8303,
      "SD": 8304,
      "OF": 8305,
      "dot": 8306,
      "weet": 8307,
      "Ġindustrial": 8308,
      "Ġcarri": 8309,
      "ĠArthur": 8310,
      "engine": 8311,
      "lg": 8312,
      "Ġinform": 8313,
      "Ġtalk": 8314,
      "Ġbuilder": 8315,
      "entials": 8316,
      "Ġsuit": 8317,
      "throws": 8318,
      "Ġvess": 8319,
      "Ġpriv": 8320,
      "Ġcouple": 8321,
      "Ġsyn": 8322,
      "ĠManagement": 8323,
      "ĠDavis": 8324,
      "ampl": 8325,
      "Ġsuffered": 8326,
      "()));": 8327,
      "ĠWat": 8328,
      "ĠSi": 8329,
      "Ġsituation": 8330,
      "zen": 8331,
      "Ġresulted": 8332,
      "_,": 8333,
      "account": 8334,
      "enses": 8335,
      "ĠSlov": 8336,
      "XT": 8337,
      "UID": 8338,
      "Ġreturning": 8339,
      "ĠConnect": 8340,
      "Äĥ": 8341,
      "Ġbutton": 8342,
      "Ġliber": 8343,
      "ĠIraq": 8344,
      "Game": 8345,
      "Ġroll": 8346,
      "Ġblocks": 8347,
      "ĠFox": 8348,
      "western": 8349,
      "asters": 8350,
      "Second": 8351,
      "ĠGallery": 8352,
      "ĠUt": 8353,
      "Film": 8354,
      "rightarrow": 8355,
      "So": 8356,
      "ĠPlan": 8357,
      "ĠBrook": 8358,
      "Ġsense": 8359,
      "Ġdistricts": 8360,
      "Ġinsert": 8361,
      "ategories": 8362,
      "ĠPhilippines": 8363,
      "uy": 8364,
      "ĠStephen": 8365,
      "Database": 8366,
      "Ġlayer": 8367,
      "Ġexpansion": 8368,
      "Scope": 8369,
      "apes": 8370,
      "ĠShort": 8371,
      "Ġswim": 8372,
      "Ð´": 8373,
      "flags": 8374,
      "Internal": 8375,
      "ARY": 8376,
      "ĠBall": 8377,
      "()).": 8378,
      "PT": 8379,
      "ĠFederation": 8380,
      "ĠKansas": 8381,
      "Ġbegins": 8382,
      "Java": 8383,
      "Ġharm": 8384,
      "1911": 8385,
      "operation": 8386,
      "Japan": 8387,
      "echo": 8388,
      "wealth": 8389,
      "Desc": 8390,
      "Ġcontemporary": 8391,
      "Ġhandler": 8392,
      "Ġcancer": 8393,
      "Ġcrime": 8394,
      "bm": 8395,
      "////////////////////////////////": 8396,
      "ĠVo": 8397,
      "security": 8398,
      "wild": 8399,
      "endor": 8400,
      "ĠCopy": 8401,
      "sel": 8402,
      "Ġencour": 8403,
      "Ġcancell": 8404,
      "Ġaband": 8405,
      "Leg": 8406,
      "original": 8407,
      "Ġseats": 8408,
      "^*": 8409,
      "Descriptor": 8410,
      "MENT": 8411,
      "Ġsuggested": 8412,
      "Ġng": 8413,
      "ĠTal": 8414,
      "Ġrequires": 8415,
      "ĠTennessee": 8416,
      "Ġofficials": 8417,
      "Ġoccurs": 8418,
      "NE": 8419,
      "ancer": 8420,
      "Omega": 8421,
      "Ġsurvey": 8422,
      "Ġurban": 8423,
      "Fran": 8424,
      "ĠSteve": 8425,
      "ocaml": 8426,
      "Ġhidden": 8427,
      "ĠVi": 8428,
      "Ġallowing": 8429,
      "ĠDesign": 8430,
      "Ġfiction": 8431,
      "Ġmo": 8432,
      "ĠTurkey": 8433,
      "ĠExt": 8434,
      ".__": 8435,
      "typed": 8436,
      "appa": 8437,
      "Items": 8438,
      "ĠJava": 8439,
      "atar": 8440,
      "Ġattributes": 8441,
      "Ġcluster": 8442,
      "}).": 8443,
      "events": 8444,
      "Ġregister": 8445,
      "ĠAtlantic": 8446,
      "zh": 8447,
      "Ġcoal": 8448,
      ")/": 8449,
      "Ġlett": 8450,
      "ĠTrust": 8451,
      "oli": 8452,
      "ĠBaseball": 8453,
      "Ġresident": 8454,
      "Loader": 8455,
      "ĠParam": 8456,
      "ĠWeek": 8457,
      "domain": 8458,
      "ĠDam": 8459,
      "ĠOption": 8460,
      "ĠMexican": 8461,
      "Ã©s": 8462,
      "Ġgeneration": 8463,
      "Ġfelt": 8464,
      "chen": 8465,
      "Ġque": 8466,
      "ambiguation": 8467,
      "Ġpoly": 8468,
      "Ġbronze": 8469,
      "life": 8470,
      "Ġsexual": 8471,
      "Ġ[];": 8472,
      "Browser": 8473,
      "uese": 8474,
      "Ġperformances": 8475,
      "Ġshowed": 8476,
      "Ġyield": 8477,
      "Init": 8478,
      ")));": 8479,
      "Ġportray": 8480,
      "picker": 8481,
      "ĠNorway": 8482,
      "Ġtraffic": 8483,
      "Ġss": 8484,
      "ĠKel": 8485,
      "ĠFreder": 8486,
      "Ġprem": 8487,
      "Ġconstra": 8488,
      "ĠYour": 8489,
      "250": 8490,
      "Ġconverted": 8491,
      "hadoop": 8492,
      "Route": 8493,
      "Death": 8494,
      "Ġgenerate": 8495,
      "Ġmaterials": 8496,
      "Ġflat": 8497,
      "ĠMemorial": 8498,
      "Ġclaims": 8499,
      "Ġcart": 8500,
      "incial": 8501,
      "ĠAuthor": 8502,
      "ĠGreg": 8503,
      "ĠMoh": 8504,
      "CAA": 8505,
      "ository": 8506,
      "Ġproceed": 8507,
      "manager": 8508,
      "Ġkept": 8509,
      "pson": 8510,
      "Ġwaves": 8511,
      "Ġthous": 8512,
      "ĠAnother": 8513,
      "Ġtesting": 8514,
      "CRE": 8515,
      "ĠKal": 8516,
      "Ġjournalist": 8517,
      "inton": 8518,
      "gar": 8519,
      "}),": 8520,
      "Ġdetermine": 8521,
      "fully": 8522,
      "Ġsales": 8523,
      "ĠLive": 8524,
      "ĠJunior": 8525,
      "sect": 8526,
      "]:": 8527,
      "ĠRa": 8528,
      "IB": 8529,
      "vard": 8530,
      "Ġcommittee": 8531,
      "ĠLev": 8532,
      "Ġ{};": 8533,
      "shape": 8534,
      "sey": 8535,
      "Profile": 8536,
      "Ġsevent": 8537,
      "ĠHo": 8538,
      "Space": 8539,
      "webpack": 8540,
      "eful": 8541,
      "Ġtransp": 8542,
      "Ġmiles": 8543,
      "Iterator": 8544,
      "Ġrecip": 8545,
      "ictures": 8546,
      "ĠAst": 8547,
      "Ġ${": 8548,
      "Step": 8549,
      "Ġ×": 8550,
      "Ġ=========": 8551,
      "Ġemb": 8552,
      "atern": 8553,
      "Ġserious": 8554,
      "former": 8555,
      "Ġranked": 8556,
      "Ġscholar": 8557,
      "1908": 8558,
      "ĠEngineering": 8559,
      "aux": 8560,
      "urrency": 8561,
      "cb": 8562,
      "cert": 8563,
      "Ġchairman": 8564,
      "Ġscoring": 8565,
      "ynasty": 8566,
      "Own": 8567,
      "kh": 8568,
      "angular": 8569,
      "aching": 8570,
      "Ġarts": 8571,
      "Ġcalling": 8572,
      "ĠNO": 8573,
      "apel": 8574,
      "igrants": 8575,
      "ĠSpacewatch": 8576,
      "ando": 8577,
      "Ġele": 8578,
      "ĠHamilton": 8579,
      "ĠColorado": 8580,
      "area": 8581,
      "Ġexam": 8582,
      "Ġdefend": 8583,
      "tainment": 8584,
      "ĠRon": 8585,
      "hell": 8586,
      "orders": 8587,
      "selected": 8588,
      "pur": 8589,
      "otic": 8590,
      "Ġvillages": 8591,
      "bing": 8592,
      "ĠHal": 8593,
      "properties": 8594,
      "ĠAction": 8595,
      "isa": 8596,
      "Ġblood": 8597,
      "uly": 8598,
      "prove": 8599,
      "}</": 8600,
      "ifically": 8601,
      "Ġnominated": 8602,
      "abilities": 8603,
      "Graph": 8604,
      "Ġio": 8605,
      "Ġcopies": 8606,
      "Ġboy": 8607,
      "ĠMountain": 8608,
      "fire": 8609,
      "Panel": 8610,
      "While": 8611,
      "ashed": 8612,
      "Ġfell": 8613,
      "Ġsurrounding": 8614,
      "tabs": 8615,
      "Ġrisk": 8616,
      "reset": 8617,
      "andy": 8618,
      ")$.": 8619,
      "Protocol": 8620,
      "netic": 8621,
      "ĠCas": 8622,
      "MAX": 8623,
      "SIZE": 8624,
      "zy": 8625,
      "NG": 8626,
      "ĠJews": 8627,
      "ĠMaryland": 8628,
      "ctrine": 8629,
      "Ġpainting": 8630,
      "ruit": 8631,
      "Ġcab": 8632,
      "Some": 8633,
      "fred": 8634,
      "'])": 8635,
      "super": 8636,
      "Ġlicense": 8637,
      "channel": 8638,
      "Ġpointer": 8639,
      "Ġpages": 8640,
      "ĠLemmon": 8641,
      "assertEquals": 8642,
      "inus": 8643,
      "Ġvisual": 8644,
      "ĠNative": 8645,
      "Ġspons": 8646,
      "points": 8647,
      "ĠMoscow": 8648,
      "Ġenabled": 8649,
      "Ġpy": 8650,
      "ĠStock": 8651,
      "Ġstrugg": 8652,
      "Ġrepresents": 8653,
      "![": 8654,
      "hedral": 8655,
      "Ġrom": 8656,
      "Ġ\"\"": 8657,
      "ologies": 8658,
      "Ġshift": 8659,
      "oin": 8660,
      "Ġpaid": 8661,
      "NavBarCell": 8662,
      "ĠPier": 8663,
      "tools": 8664,
      "Ġ(,": 8665,
      "åı": 8666,
      "Ġvariables": 8667,
      "ixel": 8668,
      "Adapter": 8669,
      "ĠPolit": 8670,
      "configuration": 8671,
      "CHE": 8672,
      "switch": 8673,
      "opes": 8674,
      "parser": 8675,
      "colLast": 8676,
      "ToString": 8677,
      "Ġonto": 8678,
      "Close": 8679,
      "osis": 8680,
      "oom": 8681,
      ".\");": 8682,
      "Ġeducated": 8683,
      "role": 8684,
      "mb": 8685,
      "Grid": 8686,
      "Ġburied": 8687,
      "Å«": 8688,
      "ĠSurvey": 8689,
      "Mo": 8690,
      "Ġlosing": 8691,
      "hidden": 8692,
      "Ġaim": 8693,
      "Ġtaught": 8694,
      "ĠGer": 8695,
      "ĠIV": 8696,
      "ĠHard": 8697,
      "fect": 8698,
      "ictional": 8699,
      "ONE": 8700,
      "ĠNorm": 8701,
      "Ġlif": 8702,
      "ADD": 8703,
      "Ġwatch": 8704,
      "\",\"": 8705,
      "Ġinteger": 8706,
      "ĠAR": 8707,
      "Ġsum": 8708,
      "ĠBooks": 8709,
      "ĠPy": 8710,
      "Ġreceiving": 8711,
      "ĠLocal": 8712,
      "varphi": 8713,
      "Ġauthorities": 8714,
      "Ġtried": 8715,
      "ĠEP": 8716,
      "ategy": 8717,
      "Seg": 8718,
      "Ġprincipal": 8719,
      "disambiguation": 8720,
      "Australian": 8721,
      "Plugin": 8722,
      "bean": 8723,
      "Ġinvalid": 8724,
      "ĠKhan": 8725,
      "Ġsucceeded": 8726,
      "ĠServices": 8727,
      "Ġ\\,": 8728,
      "Ġdecre": 8729,
      "Har": 8730,
      "Ġplot": 8731,
      "Ġter": 8732,
      "navList": 8733,
      "ĠColl": 8734,
      "tool": 8735,
      "inher": 8736,
      "external": 8737,
      "Print": 8738,
      "ĠDrag": 8739,
      "archy": 8740,
      "coln": 8741,
      "ĠLewis": 8742,
      "Ġcontinues": 8743,
      "inals": 8744,
      "wing": 8745,
      "ĠTable": 8746,
      "ĠPit": 8747,
      "ĠForeign": 8748,
      "ĠBru": 8749,
      "ĠSav": 8750,
      "ymn": 8751,
      "Ġchoice": 8752,
      "colFirst": 8753,
      "Bit": 8754,
      "typeof": 8755,
      "Ġlocations": 8756,
      "Life": 8757,
      "Ġvir": 8758,
      "Double": 8759,
      "ĠRoss": 8760,
      "Ġfigures": 8761,
      "Ġtor": 8762,
      "ĠMas": 8763,
      "Â°": 8764,
      "Ġbow": 8765,
      "varepsilon": 8766,
      "Ġstarring": 8767,
      "hard": 8768,
      "Ġpropos": 8769,
      "Ġequivalent": 8770,
      "Pay": 8771,
      "Ġaccur": 8772,
      "Success": 8773,
      "Ġloop": 8774,
      "ocity": 8775,
      "rainian": 8776,
      "ĠMelbourne": 8777,
      "LP": 8778,
      "Ġshop": 8779,
      "atible": 8780,
      "lean": 8781,
      "Ġalone": 8782,
      "Ġtells": 8783,
      "ĠReal": 8784,
      "ti": 8785,
      "ĠJos": 8786,
      "ois": 8787,
      "Ġcampus": 8788,
      "Lin": 8789,
      "ÑĮ": 8790,
      "LECT": 8791,
      "Selector": 8792,
      "cles": 8793,
      "ques": 8794,
      "++;": 8795,
      "123": 8796,
      "ĠDom": 8797,
      "ĠUkraine": 8798,
      "reshold": 8799,
      "Ġdir": 8800,
      "Ġyounger": 8801,
      "orney": 8802,
      "Ġdig": 8803,
      "limit": 8804,
      "ĠLeon": 8805,
      "aints": 8806,
      "=>": 8807,
      "Ġlearn": 8808,
      "ĠPhilip": 8809,
      "Ġsubsequent": 8810,
      "ĠTask": 8811,
      "}^{\\": 8812,
      "rog": 8813,
      "Ġyards": 8814,
      "assertEqual": 8815,
      "xs": 8816,
      "Ġdelay": 8817,
      "ĠSquadron": 8818,
      "job": 8819,
      "Television": 8820,
      "Ġapplications": 8821,
      "Ġdrums": 8822,
      "children": 8823,
      "ĠÄ": 8824,
      "pear": 8825,
      "Dav": 8826,
      "ancell": 8827,
      "player": 8828,
      "Ġreally": 8829,
      "uce": 8830,
      "^{(": 8831,
      "ordon": 8832,
      "Ġproof": 8833,
      "Ġcontained": 8834,
      "ĠMill": 8835,
      "Ġregistered": 8836,
      "Ð²": 8837,
      "Ġattr": 8838,
      "Ġtrust": 8839,
      "Ġtheatre": 8840,
      "Matrix": 8841,
      "Ġnorm": 8842,
      "IMP": 8843,
      "Ġdifference": 8844,
      "Ġadvanced": 8845,
      "Ġcolspan": 8846,
      "Ġrapid": 8847,
      "Ġelem": 8848,
      "ĠNumber": 8849,
      "ĠMalays": 8850,
      "Feature": 8851,
      "Ġgrowing": 8852,
      "itzerland": 8853,
      "ester": 8854,
      "enabled": 8855,
      "aks": 8856,
      "Ġsignature": 8857,
      "Mat": 8858,
      "anes": 8859,
      "formance": 8860,
      "ĠSection": 8861,
      "Ġalternative": 8862,
      "%,": 8863,
      "Expr": 8864,
      "Ġfunc": 8865,
      "kes": 8866,
      "ĠBat": 8867,
      "Ġrelatively": 8868,
      "Plot": 8869,
      "Ġinspired": 8870,
      "Ġsegment": 8871,
      "Ġachieved": 8872,
      "isms": 8873,
      "_->": 8874,
      "Ġvehicles": 8875,
      "Ġcommander": 8876,
      "iterator": 8877,
      "Ġasync": 8878,
      "handler": 8879,
      "á»": 8880,
      "getElement": 8881,
      "NotNull": 8882,
      "Ġpiece": 8883,
      "ĠConfig": 8884,
      "Ġdrop": 8885,
      "ĠEnc": 8886,
      "proof": 8887,
      "Ġaudio": 8888,
      "Proxy": 8889,
      "Ġdesignated": 8890,
      "Ġboundary": 8891,
      "Ġexplicit": 8892,
      "Ġcoq": 8893,
      "ĠĠĠĠĠĠĠĠĠĠĠĠĠĠĠĠĠĠĠĠĠĠ": 8894,
      "ĠFamily": 8895,
      "Ġoptional": 8896,
      "Details": 8897,
      "ingham": 8898,
      "ĠQueensland": 8899,
      "Ġhyp": 8900,
      "Ġseem": 8901,
      "bytes": 8902,
      "ĠArizona": 8903,
      "ĠHart": 8904,
      "ĠCur": 8905,
      "IX": 8906,
      "Ġmessages": 8907,
      "ĠVAL": 8908,
      "ieces": 8909,
      "Scroll": 8910,
      "UTF": 8911,
      "Ġaffili": 8912,
      "Pol": 8913,
      "provider": 8914,
      "=\"$": 8915,
      "Ġviews": 8916,
      "Runtime": 8917,
      "Ġformerly": 8918,
      "Ġexamples": 8919,
      "metadata": 8920,
      "stan": 8921,
      ")).": 8922,
      "Duration": 8923,
      "agen": 8924,
      "Ġproced": 8925,
      "Ġscientific": 8926,
      "Ant": 8927,
      "reatest": 8928,
      "Ġstraight": 8929,
      "ĠAlbert": 8930,
      "Ġvocal": 8931,
      "icensed": 8932,
      "Ġ(_": 8933,
      "person": 8934,
      "Ġsummary": 8935,
      "porting": 8936,
      "Ġracing": 8937,
      "Ġsides": 8938,
      "Ġvel": 8939,
      "ivals": 8940,
      "Engine": 8941,
      "achment": 8942,
      "Ã©t": 8943,
      "Ġminimum": 8944,
      "Ġends": 8945,
      "Ġnarrow": 8946,
      "oked": 8947,
      "ĠJer": 8948,
      "ĠNa": 8949,
      "Ġpartner": 8950,
      "1890": 8951,
      "lets": 8952,
      "rait": 8953,
      "clusive": 8954,
      "Ġportion": 8955,
      "ĠInfantry": 8956,
      "Ġbey": 8957,
      "Ġreflect": 8958,
      "leted": 8959,
      "Ġupdated": 8960,
      "iph": 8961,
      "Ġattempts": 8962,
      "Ġimplements": 8963,
      "Ġheav": 8964,
      "east": 8965,
      ".âĢĿ": 8966,
      "3333": 8967,
      "Ġarrested": 8968,
      "ĠTODO": 8969,
      "law": 8970,
      "Ġpanel": 8971,
      "Ġfacility": 8972,
      "Ġmeant": 8973,
      "ĠInformation": 8974,
      "ĠFle": 8975,
      "ocese": 8976,
      "ĠGlobal": 8977,
      "Ġunable": 8978,
      "Ġ{'": 8979,
      "ĠAustria": 8980,
      "XML": 8981,
      "Rail": 8982,
      "Ġdecor": 8983,
      "ĠLabor": 8984,
      "hide": 8985,
      "ĠPage": 8986,
      "ĠAffairs": 8987,
      "Ġtranslation": 8988,
      "Ġcritics": 8989,
      "collection": 8990,
      "Ġloan": 8991,
      "erd": 8992,
      "Ġrespond": 8993,
      "Ġcontrast": 8994,
      "ĠIndex": 8995,
      "Ġansw": 8996,
      "ĠFront": 8997,
      "ĠExecut": 8998,
      "Ġchalleng": 8999,
      "ĠThus": 9000,
      "Ġmales": 9001,
      "Symbol": 9002,
      "ea": 9003,
      "ĠVietnam": 9004,
      "Ġinjury": 9005,
      "alloc": 9006,
      "ouses": 9007,
      "Ġearth": 9008,
      "Ġauthority": 9009,
      "Single": 9010,
      "Ġnavigation": 9011,
      "1905": 9012,
      "ruth": 9013,
      "ĠSri": 9014,
      "Pri": 9015,
      "Ġcoaches": 9016,
      "imp": 9017,
      ")\">": 9018,
      "Ġabsolute": 9019,
      "Ġdoing": 9020,
      "ĠEmperor": 9021,
      "Ġvertical": 9022,
      "Ġdoctor": 9023,
      "800": 9024,
      "Ġappropri": 9025,
      "lywood": 9026,
      "Pattern": 9027,
      "Annot": 9028,
      "ĠMA": 9029,
      "ĠEntertainment": 9030,
      "Pack": 9031,
      "each": 9032,
      "Ġnothing": 9033,
      "Ġrestaur": 9034,
      "headers": 9035,
      "chant": 9036,
      "ĠKentucky": 9037,
      "Services": 9038,
      "Ġfair": 9039,
      "dialog": 9040,
      "Ġescape": 9041,
      "bums": 9042,
      "ĠHou": 9043,
      "ĠIowa": 9044,
      "Ġsafety": 9045,
      "oved": 9046,
      "ĠTransport": 9047,
      "William": 9048,
      "Ġcaptain": 9049,
      "Miss": 9050,
      "emph": 9051,
      "collapse": 9052,
      "LIC": 9053,
      "uj": 9054,
      "1907": 9055,
      "ĠWhe": 9056,
      "Ġroyal": 9057,
      "ĠEs": 9058,
      "Ġtwenty": 9059,
      "Ġvehicle": 9060,
      "outs": 9061,
      "Ġpublication": 9062,
      "total": 9063,
      "Ġpolic": 9064,
      "Ġbre": 9065,
      "ĠArk": 9066,
      "gebra": 9067,
      "Ġaccident": 9068,
      "ĠBah": 9069,
      "Ġdistingu": 9070,
      "abama": 9071,
      "Ġorders": 9072,
      "mont": 9073,
      "Ang": 9074,
      "BUG": 9075,
      "Euro": 9076,
      "ĠReact": 9077,
      "Ġclimate": 9078,
      "Ġlayout": 9079,
      "ĠCab": 9080,
      "ateur": 9081,
      "ority": 9082,
      "Ġri": 9083,
      "Ġpartn": 9084,
      "Ġzone": 9085,
      "1906": 9086,
      "Ġreduce": 9087,
      "Ġpan": 9088,
      "ĠPath": 9089,
      "Auto": 9090,
      "Ġmodified": 9091,
      "128": 9092,
      "Ġprotection": 9093,
      "structor": 9094,
      "wich": 9095,
      "words": 9096,
      "Ġinner": 9097,
      ")),": 9098,
      "Ġtrains": 9099,
      "egraphics": 9100,
      "includegraphics": 9101,
      "ĠBos": 9102,
      "Release": 9103,
      "icut": 9104,
      "ymph": 9105,
      "ĠSingapore": 9106,
      "CF": 9107,
      "inv": 9108,
      "Ġpartial": 9109,
      "ĠHoly": 9110,
      "Ġlab": 9111,
      "Cred": 9112,
      "Conf": 9113,
      "Ġgets": 9114,
      "1909": 9115,
      "ben": 9116,
      "uma": 9117,
      "Ġbeyond": 9118,
      "Dest": 9119,
      "legal": 9120,
      "Ġsupply": 9121,
      "Ġoldest": 9122,
      "->_": 9123,
      "Ġcorner": 9124,
      "Gr": 9125,
      "results": 9126,
      "Ġways": 9127,
      "ĠNorwegian": 9128,
      "ĠFellow": 9129,
      "tar": 9130,
      "Ġfn": 9131,
      "Ġtrees": 9132,
      "ĠRecord": 9133,
      "Mapping": 9134,
      "ĠTurn": 9135,
      "Ġip": 9136,
      "compiler": 9137,
      "ĠFame": 9138,
      "Ġteaching": 9139,
      "Ġcandidates": 9140,
      "ajax": 9141,
      "acent": 9142,
      "Ġencoding": 9143,
      "%.": 9144,
      "Ġopposition": 9145,
      "ĠEth": 9146,
      "Ġyellow": 9147,
      "ĠBalt": 9148,
      "(__": 9149,
      "Ġwins": 9150,
      "rell": 9151,
      "Ġrect": 9152,
      "Ġhall": 9153,
      "Ġvac": 9154,
      "Ġadvoc": 9155,
      "ocks": 9156,
      "Ġheadquarters": 9157,
      "olas": 9158,
      "\"><!--": 9159,
      "vant": 9160,
      "Hon": 9161,
      "Ġfestival": 9162,
      "Ġenjoy": 9163,
      "ordan": 9164,
      "ĠAnderson": 9165,
      "Ġ(),": 9166,
      "ĠPhys": 9167,
      "trigger": 9168,
      "ĠEarl": 9169,
      "Inv": 9170,
      "Conn": 9171,
      "Ġmanagers": 9172,
      "Ġneighborhood": 9173,
      "Ġstarts": 9174,
      "ĠUpdate": 9175,
      "Ġweak": 9176,
      "Ġ=======": 9177,
      "Ġshell": 9178,
      "Ġxmlns": 9179,
      "Ġalgorithm": 9180,
      "Ġmerged": 9181,
      "gers": 9182,
      "orro": 9183,
      "Following": 9184,
      "Ġdisestabl": 9185,
      "cuss": 9186,
      "Ġformal": 9187,
      "ĠCape": 9188,
      "Failed": 9189,
      "pag": 9190,
      "apply": 9191,
      "Ġjudge": 9192,
      ".~\\": 9193,
      "aser": 9194,
      "ĠGreece": 9195,
      "Ġvisited": 9196,
      "Section": 9197,
      "protected": 9198,
      "ãĢ": 9199,
      "offs": 9200,
      "Ġadvert": 9201,
      "Notable": 9202,
      "lahoma": 9203,
      "getName": 9204,
      "spect": 9205,
      "Ġdrive": 9206,
      "Ġending": 9207,
      "Ġunless": 9208,
      "ĠLow": 9209,
      "components": 9210,
      "tmp": 9211,
      "Ġassembly": 9212,
      "allclasses": 9213,
      "Ġarms": 9214,
      "engers": 9215,
      "Ġadvance": 9216,
      "Ġsurname": 9217,
      "aren": 9218,
      "variant": 9219,
      "agu": 9220,
      "ĠDor": 9221,
      "ryst": 9222,
      "typedef": 9223,
      "platform": 9224,
      "Ġcref": 9225,
      "Ġtower": 9226,
      "nil": 9227,
      "Ġreq": 9228,
      "aired": 9229,
      "Ġcriminal": 9230,
      "IPT": 9231,
      "Product": 9232,
      "rift": 9233,
      "[$": 9234,
      "ĠFunction": 9235,
      "ĠLiter": 9236,
      "ĠWindows": 9237,
      "Ġscheduled": 9238,
      "Ġfighting": 9239,
      "Ġpainter": 9240,
      "Ġprice": 9241,
      "ĠForces": 9242,
      "ounce": 9243,
      "Memory": 9244,
      "Ñĭ": 9245,
      "[\\": 9246,
      "Ġdropped": 9247,
      "roit": 9248,
      "Ġsixth": 9249,
      "craft": 9250,
      "ulator": 9251,
      "equiv": 9252,
      "ĠSound": 9253,
      "apos": 9254,
      "Ġnob": 9255,
      "props": 9256,
      "Ġnortheast": 9257,
      "Ġstock": 9258,
      "Ġhands": 9259,
      "entially": 9260,
      "Ġsportspeople": 9261,
      "Ġdomin": 9262,
      "'m": 9263,
      "ĠNap": 9264,
      "rent": 9265,
      "ureau": 9266,
      "contains": 9267,
      "Ġdetail": 9268,
      "igenous": 9269,
      "SER": 9270,
      "Attributes": 9271,
      "zi": 9272,
      "1904": 9273,
      "Enum": 9274,
      "Ġsingers": 9275,
      "umin": 9276,
      "ippi": 9277,
      "ĠEric": 9278,
      "uing": 9279,
      "Ġtool": 9280,
      "Ġqualified": 9281,
      "theme": 9282,
      "North": 9283,
      "ĠBeng": 9284,
      "auge": 9285,
      "ublin": 9286,
      "MC": 9287,
      "Ġreasons": 9288,
      "Character": 9289,
      "wildfly": 9290,
      "oor": 9291,
      "shadow": 9292,
      "Ġfocused": 9293,
      "Football": 9294,
      "istent": 9295,
      "ective": 9296,
      "Ġinvas": 9297,
      "Ġanimation": 9298,
      "Ġdepth": 9299,
      "IE": 9300,
      "idge": 9301,
      "ivation": 9302,
      "ĠDa": 9303,
      "Short": 9304,
      "Player": 9305,
      "ugu": 9306,
      "BE": 9307,
      "=&": 9308,
      "ĠBillboard": 9309,
      "ĠTele": 9310,
      "Full": 9311,
      "ĠMiller": 9312,
      "Ġinvent": 9313,
      "Ġ\",": 9314,
      "wrapper": 9315,
      "overline": 9316,
      "conn": 9317,
      "Ġbillion": 9318,
      "Ġperforming": 9319,
      "ĠJacob": 9320,
      "Ġpromotion": 9321,
      "ifer": 9322,
      "important": 9323,
      "Ġaired": 9324,
      "Ġletters": 9325,
      "ĠChristmas": 9326,
      "Now": 9327,
      "Ġacts": 9328,
      "ĠNode": 9329,
      "Bas": 9330,
      "Term": 9331,
      "ionally": 9332,
      "Ġcharts": 9333,
      "Ġuseful": 9334,
      "Ġhistorian": 9335,
      "ĉĉĉĉĉĉĉĉĉ": 9336,
      "ĠKy": 9337,
      "ĠStaff": 9338,
      "ships": 9339,
      "swarm": 9340,
      "mid": 9341,
      "Ġones": 9342,
      "Ġattempted": 9343,
      "going": 9344,
      "ĠSwitzerland": 9345,
      "Ġgal": 9346,
      "Ġtrying": 9347,
      "Ġtab": 9348,
      "Ġmayor": 9349,
      "Family": 9350,
      "Ġmusician": 9351,
      "uerto": 9352,
      "ista": 9353,
      "Ġscheme": 9354,
      "VALUE": 9355,
      "Keys": 9356,
      "Ġrg": 9357,
      "Ġsector": 9358,
      "Cor": 9359,
      "Repository": 9360,
      "Ġhydro": 9361,
      "Ġreform": 9362,
      "Ġequation": 9363,
      "Ġdiplom": 9364,
      "agh": 9365,
      "Education": 9366,
      "ĠMult": 9367,
      "Ġexpressed": 9368,
      "Nor": 9369,
      "Ġfrequently": 9370,
      "elle": 9371,
      "ĠAS": 9372,
      "Ð¼": 9373,
      "inth": 9374,
      "secutive": 9375,
      "ĠHarry": 9376,
      "ĠRoy": 9377,
      "Ġpassing": 9378,
      "olished": 9379,
      "incess": 9380,
      "Role": 9381,
      "tor": 9382,
      "Jan": 9383,
      "ĠRow": 9384,
      "Ġexistence": 9385,
      "ensional": 9386,
      "atin": 9387,
      "Imp": 9388,
      "gal": 9389,
      "Ġspin": 9390,
      "Ġslightly": 9391,
      "ĠOcean": 9392,
      "acro": 9393,
      "IA": 9394,
      "Ġve": 9395,
      "ĠAdam": 9396,
      "BP": 9397,
      "SQL": 9398,
      "achelor": 9399,
      "cdn": 9400,
      "een": 9401,
      "ĠModern": 9402,
      "fail": 9403,
      "Ġdaily": 9404,
      "Ġbeaut": 9405,
      ")$,": 9406,
      "Ġbrothers": 9407,
      "ĠConst": 9408,
      "ĠTelevision": 9409,
      "Af": 9410,
      "ĠVar": 9411,
      "Ġrh": 9412,
      "Ġvice": 9413,
      "ĠLincoln": 9414,
      "oa": 9415,
      "ĠRequest": 9416,
      "ĠPrinc": 9417,
      "ĠNav": 9418,
      "Ġsituated": 9419,
      "Ġbor": 9420,
      "Ġanimals": 9421,
      "Ġcompetitions": 9422,
      "HER": 9423,
      "ĠĠĠĠĠĠĠĠĠĠĠĠĠĠĠĠĠĠĠĠĠĠĠĠĠĠĠĠ": 9424,
      "ĠTokyo": 9425,
      "frak": 9426,
      "Ġcolumns": 9427,
      "green": 9428,
      "ĠFord": 9429,
      "ĠAmericans": 9430,
      "agan": 9431,
      "ĠChile": 9432,
      "PORT": 9433,
      "STAT": 9434,
      "ĠNev": 9435,
      "ĠTony": 9436,
      "Ġprotocol": 9437,
      "Ġtx": 9438,
      "Place": 9439,
      "bell": 9440,
      "ĠLtd": 9441,
      "idx": 9442,
      "iva": 9443,
      "pol": 9444,
      "Ġschol": 9445,
      "Ġwear": 9446,
      "oking": 9447,
      "Two": 9448,
      "ĠSpe": 9449,
      "ogs": 9450,
      "SY": 9451,
      "Club": 9452,
      "Ġguard": 9453,
      "Cap": 9454,
      "dam": 9455,
      "maven": 9456,
      "Ġcommit": 9457,
      "ĠGa": 9458,
      "essions": 9459,
      "Ġple": 9460,
      "dx": 9461,
      "Ġprev": 9462,
      "~~~~": 9463,
      "Ġapproved": 9464,
      "ĠManchester": 9465,
      "filename": 9466,
      "DULE": 9467,
      "Vill": 9468,
      "Ġrefused": 9469,
      "1903": 9470,
      "Ġsan": 9471,
      "rule": 9472,
      "Ġsons": 9473,
      "ĠĠĠĠĠĠĠĠĠĠĠĠĠĠĠĠĠĠĠĠĠĠĠĠĠĠĠĠĠĠĠĠĠĠĠĠĠĠĠĠĠĠĠ": 9474,
      "ĠStart": 9475,
      "hetic": 9476,
      "Ġgrid": 9477,
      "ĠNY": 9478,
      "ĠBuilding": 9479,
      "Ġtranslate": 9480,
      "Ġaudience": 9481,
      "Ġgrav": 9482,
      "Mut": 9483,
      "onder": 9484,
      "ĠRose": 9485,
      "ĠLINE": 9486,
      "ĠBu": 9487,
      "rator": 9488,
      "Ġmotion": 9489,
      "rary": 9490,
      "Ġuniform": 9491,
      "ounded": 9492,
      "iper": 9493,
      "Sync": 9494,
      "ĠSimon": 9495,
      "Ġspeech": 9496,
      "Ġresc": 9497,
      "ĉĠĠĠĠĠ": 9498,
      "Ep": 9499,
      "hl": 9500,
      "ĠTen": 9501,
      "Ġfeet": 9502,
      "PROJECT": 9503,
      "OD": 9504,
      "Ġlect": 9505,
      "ĠBattalion": 9506,
      "Ġhorse": 9507,
      "emble": 9508,
      "oslav": 9509,
      "rations": 9510,
      "Cluster": 9511,
      "ĠWalter": 9512,
      "Parse": 9513,
      "Ġ[[": 9514,
      "enez": 9515,
      "esc": 9516,
      "login": 9517,
      "Remove": 9518,
      "just": 9519,
      "PP": 9520,
      "RAN": 9521,
      "Ġfans": 9522,
[...]
