#version: 0.2
Ġ Ġ
Ġ t
i n
h e
Ġ a
o n
r e
e r
Ġt he
a t
e n
ĠĠ ĠĠ
o r
Ġ s
a l
i t
i s
Ġ o
a n
e s
Ġ c
Ġ w
a r
e d
i on
Ġ f
Ġo f
Ġ p
n d
Ġ in
Ġ b
in g
i c
l e
r o
a s
Ġa nd
Ġ m
Ġ d
Ġt o
c t
o u
en t
e t
Ġ \
e l
s t
Ġt h
i l
Ġ h
Ġ $
o m
Ġ re
a m
i g
Ġ n
at ion
Ġ e
o l
ĠĠ Ġ
i m
Ġ S
a c
Ġ T
Ġ l
o t
ĠĠĠĠ ĠĠĠĠ
i d
Ġ (
Ġ is
Ġ C
Ġ A
u t
u r
i v
â Ģ
s e
Ġf or
Ġ g
a d
l y
o w
Ġ I
{ \
u l
c e
Ġ on
Ġb e
Ġ M
a y
Ġs t
c h
e m
Ġth at
v er
a b
it h
u s
u m
q u
u n
i f
i r
o d
t er
Ġa s
Ġ P
Ġ B
Ġc on
a g
2 0
Ġw ith
a p
t h
v e
is t
er s
Ġ H
at e
en d
Ġa l
Ġp ro
he r
Ġa n
_ {
ct ion
Ġ F
Ġ =
Ġ v
ĠT he
Ġ R
p e
Ġ D
an d
r i
Ġw e
h t
re s
at h
e g
Ġ L
Ġw h
es t
a in
Ġb y
Ġ W
it y
č Ċ
o p
o c
o s
ĠĠĠĠ ĠĠĠ
Ġw as
u p
Ġ it
Ġ$ \
Ġ N
e x
1 9
Ġe x
Ġa t
Ġc om
Ġd e
Ġ G
ro m
Ġ E
Ġ r
e w
o re
u b
ar t
Ġa re
es s
Ġ Ċ
ig ht
il l
u re
Ġ &
i es
n t
m ath
Ġ or
or t
ĉ ĉ
p l
m ent
Ġ he
i al
Ġf rom
an t
a k
Ġs e
âĢ Ļ
iv e
p t
in e
al l
l d
u d
} \
g e
) ;
Ġ y
Ġ {
Ġ J
it e
ou r
} $
as s
Ġth is
^ {
r a
Ġ O
am e
- -
u e
i z
T he
e re
re f
p h
b er
o g
e ct
a ve
ic h
ul t
Ġ "
Ġc h
Ġn ot
c l
Ġs h
u nd
p er
Ġ U
ex t
Ġ âĢ
el l
ic al
at ed
Ġ <
u st
ar d
/ /
f f
0 0
ac k
r an
ar y
m a
Ġc l
Ġ le
ag e
Ġ *
or m
a re
} }
i p
it ion
f t
ĠĠĠĠĠĠĠĠ ĠĠĠ
( \
p ort
' s
f r
t a
Ġ k
ig n
Ġcom p
20 1
Ġh ave
= "
c on
Ġre s
o st
i an
ab le
as t
in t
eg in
ĠI n
Ġ K
Ġin t
) ,
u g
b egin
ation s
Ġ }
on g
e p
ac e
Ġp l
e f
i a
i re
en s
p ro
Ġwh ich
c al
or k
Ġc an
or d
im e
a v
ou t
_ {\
ĠS t
Ġw he
c c
) .
) $
Ġh as
e ar
t her
Ġ -
as e
Ġcon t
ur n
ou ld
Ġa b
Ġ us
. .
id e
Ġal l
ion s
in d
< /
Ġ un
s o
i b
a ct
} {
d u
e qu
Ġ im
ic e
ou s
o k
Ġ V
Ġh is
r y
c om
Ġa p
il d
Ġ j
Ġ if
Ġa d
o v
r m
I n
en ce
fr ac
} ,
t ext
ac h
an g
e q
u se
ĠĠĠĠĠĠĠĠ ĠĠĠĠĠĠĠĠ
f orm
r ight
en er
ĠĠĠĠ Ġ
i le
ĠT h
r u
er v
ab el
c ite
t he
ent s
20 0
or y
o ver
Ġon e
ĠC h
ou nt
âĢ Ŀ
an ce
Ġal so
Ġp art
ol l
e c
Ġa r
i k
Ġs u
* *
ro w
c es
er m
om e
et a
Ġd is
Ġwe re
res s
al ly
1 0
ou nd
Ġm e
o se
Ġt r
ow n
el y
un ction
j ect
Ġw ill
Ġthe ir
m er
at es
ir st
or s
Ġb ut
is h
t urn
ol d
ri b
e y
l abel
ic t
ub l
s p
re e
math b
o b
Ġy ou
w o
od e
r ing
at a
Ġs p
cl ud
f ig
, \
$ ,
Ġ +
Ġo ut
i e
$ .
y pe
ter n
g et
Ġe v
ar k
ran s
p le
equ ation
Ġ qu
Ġd o
Ġp er
p s
Ġo b
pe ct
Ġn ew
1 8
Ġ en
r it
l l
Ġit s
S t
Ġm od
w e
Ġo ther
math cal
re d
Ġ |
le ft
ic s
} )
" >
ĠâĢ ľ
Ġthe y
Ġ '
} .
Ġm ore
Ġ up
v el
Ġwh o
r ap
er t
if f
on e
Ġm an
Ġcl ass
Ġ ro
s um
} (
Ġw ork
Ġ Y
t e
Ġbe en
Ġf irst
i el
ĠI t
Ġa g
he d
o int
Ġt wo
-- --
Ġh ad
am b
( )
ĠU n
Ġo ver
Ġs c
Ġde f
} ^
y st
ak e
= =
ation al
Ġt ime
r ay
~ \
Ġs et
Ġv al
ĠH e
} _
l ine
Ġs o
Ġy ear
Ġf unction
le ct
oc k
p on
s s
a w
ul ar
o ok
ubl ic
m b
im es
iel d
Ġn e
ut ion
c ent
ph a
n g
Ġin d
in k
f ter
iz e
d a
s et
ar i
Ġ [
p os
ver y
al pha
s c
et h
Ġre turn
Ġthe re
ar am
o ol
pe c
Ġt e
Ġ und
u al
i ed
at er
Ġd es
yst em
ing s
) \
is s
ic k
Ġg o
Ġab out
i x
Ġre l
um ber
ig h
Ġwhe n
a il
Ġp e
c ed
t o
v i
1 2
Ġth an
oll ow
at ive
Ġcom m
Ġof f
Ġp re
o f
l es
Ġa cc
Ġb et
Ġs ub
Ġd iff
Ġo ur
$ \
Ġre g
op le
ere n
ĠĠĠĠĠĠĠĠ ĠĠĠĠĠĠĠ
Ġp r
Ġan y
Ġs up
an s
amb da
ay s
el ta
Ġwhe re
el f
Ġon ly
ug h
n e
Ġ her
r am
s h
rap h
ul l
Ġsu ch
a x
on t
Ġint o
Ġcon s
o ve
h at
ro up
c k
if ic
Ġw ould
Ġcon st
i ent
h o
ĠW e
it ies
in al
as ed
p ut
ou g
Ġres ult
Ġs ome
Ġfor m
19 9
y s
ĠTh is
Ġ //
am ma
c re
Ġf ollow
ĠâĢ ĵ
_ \
or n
Ġk n
pt ion
p r
Ġund er
ro und
res ent
ot h
Ġin clud
ad e
Ġp os
at ing
ik e
s ub
m u
id ent
ol og
is e
Ġt rans
on s
ig ma
Ġin ter
Ġpl ay
Ġ\ \
it ed
em ber
a id
d ot
= \
Ġthe n
d ition
t y
Ġd ist
we en
Ġmod el
" ,
1 5
in ce
v al
Ġa ct
Ġg ener
} _{
il ity
} ^{
o x
w ard
ap p
Ġp ol
Ġp h
Ġf l
iv ers
d er
eg a
o y
Ġn o
mathb b
Ġat t
Ġpro v
u es
ar g
ĠC om
ru ct
Ġpe ople
1 6
Ġs im
Ġre c
âĢ ĵ
Ġ @
- \
E x
Ġthe m
i o
Ġg et
Ġ /
ĠS e
- >
Ġsh ow
le m
Ġthe se
l and
mer ic
ment s
Ġbet ween
^ {\
Ġst ud
Ġc ol
ph i
u res
it s
Ġc o
: :
em ent
2 1
Ġ {\
Ġin v
an n
l i
ere d
ar ch
ur ing
or ld
ib le
ĉĉ ĉĉ
t t
in ed
er r
Ġbe c
l ambda
Ġs he
re n
Ġe qu
Ġ| |
Ġa fter
al s
at or
ro ugh
1 1
e v
Ġc or
p art
Ġas s
Ġo p
a use
Ġl oc
Ġp ublic
Ġm ay
p i
Ġd ata
b f
Ġm ost
en g
an ge
ĠN ew
Ġ .
ar s
Ġf e
our ce
t ain
c he
le t
il y
Ġe ff
Ġ use
r ic
ow er
se ction
id th
Ġs ystem
Ġre m
W e
c y
r al
1 7
at ure
ist s
Ġb l
ire ct
ĠP ro
ĠA r
Ġus ed
Ġg iv
Ġpro du
is m
Ġf il
T h
Ġs aid
Ġe ach
Ġm at
f l
Ġ end
w n
Ġin st
ut e
Ġex t
il on
b ar
re at
y n
con d
Ġc ase
Ġp oint
Ġn umber
Ġ i
Ġs pec
Ġa m
1 3
Ġb u
a ir
ab l
it t
Ġ :
am p
mathb f
eth od
Ġ ent
o ot
ver s
Ġth rough
al ign
s igma
c ess
m in
Ġc ur
ar n
iz ed
t r
ra ct
ere nt
Ġw ell
Ġpro b
t on
ction s
us s
oug h
e ver
ĠA l
pl ic
ĠA meric
Ġyear s
Ġh ow
ch ool
in es
Ġre f
Ġ( \
an y
1 4
am es
oc i
Ġre qu
Ġ est
ĠF or
is ion
Ġn ame
ic es
Ġs m
b eta
Ġc all
^{ -
' ,
} {\
y m
as h
ot e
t s
d ef
g y
re nt
19 8
u ch
ild e
er n
Ġwh at
Ġap pro
Ġst r
Ġe m
C on
at ic
( "
Ġl ine
Ġb ack
Ġs erv
g an
( );
Ġst ate
ep s
2 5
Ġl ike
Ġdiff erent
Ġ< /
Ġ x
ut h
iz ation
Ġs ame
ou n
Ġs ol
P ro
Ġre p
Ġs ign
if e
. ,
he n
vel op
Ġj ust
h ip
) )
ap t
o id
it em
ar ray
c ol
Ġpart ic
Ġval ue
Ġ* /
g amma
Ġ ed
ivers ity
ĠA s
st r
3 0
as on
+ \
an k
Ġa c
over n
Ġ Q
on d
ical ly
f or
Ġm on
in s
v ar
is hed
Ġo per
Ġv ari
Ġag ain
he re
id er
2 2
E R
math rm
Ġc ount
am ple
r ad
\ \
Ġs ur
Ġex p
Ġde c
Ġ Z
ĠD e
Ġc ent
* }
Ġh im
Ġse e
f ul
o h
Ġg roup
---- ----
Ġman y
Ġb oth
r ho
ot her
Ġne ed
^ \
aram et
Ġch ar
Ġf ound
Ġf ield
o od
ag es
Ġc re
Ġn on
Ġh igh
Ġf act
u c
d elta
** **
p ar
Ġt erm
Ġle ad
ers on
Ġc ould
Ġs er
Ġm in
) }
Ġr ight
Ġdis c
form ation
00 0
] {
_ _
t en
Ġe le
Ġth ree
v ent
m an
Ġbe ing
Ġd et
e ad
the ta
th is
le q
ĠA n
s on
Ġf in
$ -
Ġbec ause
fig ure
ta u
ver t
re ad
c dot
i er
Ġus ing
eren ces
a h
e e
Ġgiv en
19 7
Ġ el
iv er
as es
. âĢĿ
ion al
Ġn ow
Ġl ong
at t
Ġf am
ĉĉ ĉ
ĠĠĠĠĠĠĠĠ Ġ
as k
n er
Ġwh ile
m l
ĠC on
}$ ,
R ef
ĠI nd
ak ing
}$ .
Ġad d
Ġe very
f ore
Ġm y
Ġb el
Ġ X
n u
5 0
I N
Ġfollow ing
vi ew
Ġsh ould
or th
b ig
r on
ar row
ir c
Ġex per
ant s
ĠS h
Ġm ade
} (\
ire d
Ġse cond
ri pt
Ġor der
Ġst art
y le
ar ly
ĠC l
O N
: //
Ġar t
ro ss
part ial
.. /
Ġs ing
Ġper form
ur al
w idth
t imes
iv ely
at her
Ġde velop
a z
Ġ very
Ġdes c
olog y
ent ial
s erv
y p
Ġd uring
ĠĠĠĠĠĠĠĠ ĠĠĠĠĠĠĠĠĠĠĠ
m s
Ġeff ect
C h
ou se
a j
( '
al ity
o ad
w ay
er y
Ġt ype
Ġd irect
al th
g ram
I t
se c
e b
S T
om ega
eq ref
p m
Ġ `
er ing
w ork
are d
Ġev en
Ġcont in
Ġbe fore
ĠUn iversity
Ġkn ow
C l
Ġth ose
Ġsup port
ce pt
iv ed
eren ce
ess age
um ent
== ==
Ġ z
Ġm ethod
ul ation
ou th
2 4
Ġm ed
ain s
Ġsm all
ur y
N ame
b all
ot s
iv es
l ed
en cy
et s
Ġt est
ter s
qu ad
ĠA nd
i ence
ab ility
Ġdo es
e le
Ġv i
eng th
Ġd r
t ilde
eq n
iss ion
s y
Ġd id
b ers
o le
ft y
t ing
if ied
e k
Ġo wn
ar ge
ac he
b y
tern al
n ot
at ch
in fty
Ġ err
al e
v ed
Ġpro cess
r id
Ġs ince
ĠC ol
Ġm ake
Ġw orld
ĠAmeric an
Ġw ay
Ġm ov
| \
19 6
ch n
D elta
C om
ran g
ĠS c
p end
d iv
Ġy our
m e
Ġv ar
Ġw rit
Ġm ain
sp an
u ally
re turn
Ġpro per
2 3
al se
ĠI s
Ġs elf
ain ing
sp ace
ĠA d
d ay
A T
Ġf ind
r t
ct or
ĠUn ited
um n
Ġhe l
b ack
pon d
Ġre le
ro p
R E
Ġ _
Ġg u
rib ut
Ġ #
en se
Ġresult s
Ġcomm un
n ess
F or
Ġg overn
om en
in clud
it al
. "
Ġim port
ĠE x
Th is
T ype
Ġm em
\ ,
an c
âĢ ľ
m od
u le
Ġl ast
i qu
Ġp op
Ġin cre
Ġan al
Ġinclud ing
p re
Ġte am
Ġp resent
a ult
ist ory
Ġo pt
Ġpos s
in a
l og
Ġp res
ĠCom m
a f
p aram
I D
n ame
Ġst at
w here
cc ess
n ing
Ġp aramet
4 0
Ġob tain
Ġre ad
el s
> </
od y
Ġrep resent
, âĢĿ
Ġap pe
ri x
if y
ĠH ow
ĠL e
w w
x i
ot t
Ġh and
Ref erences
v en
ag n
Ġprob lem
Ġb ro
Ġme as
in ess
ff ic
i or
re l
ener gy
us ic
Ġl aw
Ġr un
Ġ !
Ġcur rent
oh n
A s
Ġm uch
A R
vi ous
Ġm et
r ation
Ġs chool
a u
m ed
Ġ$ (
Ġch ild
le x
ĠI f
Ġm ass
Ġl ist
Ġs l
com e
s q
al k
Ġcon dition
$ $
c o
)$ .
ce ption
} [
ĠĠ Ċ
Ġst ruct
Ġor ig
mb ol
Ġb ound
t ype
3 2
ĠS he
ere st
Ġin formation
Ġprov id
p or
p ly
Ġf our
R es
.. .
ore m
Ġagain st
T o
} }\
b l
' t
Ġloc al
ĠR e
Ġre al
Ġ >
Ġres pect
an e
i ous
Ġl im
Ġbu ild
Ġre port
iv ing
Ġto p
et y
et work
t il
im port
o ber
ad d
Ġc our
ĠP h
Ġm ult
g or
Ġob ject
Ġ )
Ġe lect
ĠO n
ĠE ng
ain ed
ep end
Ġrec ord
Ġl arge
eps ilon
Ġall ow
St ring
ĠS p
u ro
are nt
eqn array
> <
Ġtr ue
Ġg l
Ġex pl
rib ution
s im
iv ate
Ġp erson
ra w
ro l
s elf
Ġl ife
Ġkn own
O m
ol ution
Ġpro gram
v es
l ang
s er
ill ion
Ġc ar
I d
l ess
) :
Ġop en
Ġl ink
uth or
en n
1 00
Ġsp ace
P h
V al
g er
Ġp ass
m et
it ive
Ġa v
ak es
} _{\
c ur
ps i
ĠB l
us iness
ur ther
Ã ©
Ġb ased
Ġpro f
ac es
ht t
ĠSt ates
20 20
Ġex pect
es c
re am
Ġm ust
Om ega
S S
Ġgener al
Ġchar act
Ġdesc rib
Ġhel p
Ġst ill
ial ly
os s
Ġst and
Ġf inal
in c
iv al
cl ass
2 6
2 7
20 21
Ġp ower
um er
O R
A r
ar m
res pond
Ġob serv
Ġa round
Ġcons ider
ĠT r
at ely
Ġhe re
ĠF ig
Ġ energy
is ed
Ġ ident
ĠâĢ Ķ
Ġin it
ar get
com m
ect ed
^ *
op t
Ġm ark
pos ition
Ġt ake
n ew
f ace
Ġc are
tern ational
re qu
Ġgo od
Ġd own
is ter
ĠM ar
Ġfam ily
A L
Ġle vel
le y
2 8
le ction
Ġre ce
un e
ri es
d d
ac y
Ġint erest
Ġc he
or g
og raph
Ġg r
re m
pl ay
Ġv is
Ġ u
pl oy
G amma
Ġt em
sq rt
Ġ ve
Ġb ook
Ġin s
)$ ,
Ġl ater
ir d
Ġcall ed
ĠP l
r ist
Ġd i
ert ain
om et
b e
Ġl ook
Ġth ink
Ġfil m
Ġas sum
ht ml
Ġwith in
Ġdes ign
it le
re g
Ġ --
c m
ps ilon
Ġr ad
ro du
Ġ ,
.. ..
in ation
s k
Ġs cal
O n
Ġis s
Ġad dition
Ġor gan
re en
Ġw ant
Ġ$ {\
Ġar g
Ġle ft
ĠB ut
L E
ĠJ ohn
vers ion
r is
Ġb o
Ġn ull
ord ing
../ ../
ĠThe y
im ens
Ġd em
Ġpol it
ĠM ay
iv id
201 8
f o
r r
i od
c ode
201 6
i j
Ġle t
aj or
Ġc ap
ĠR es
201 7
sub section
Ġex ample
t d
Ġte chn
d is
l er
Ġval ues
Ġpartic ular
t rans
ur ch
Ġo cc
Ġ= =
20 19
Ġev ent
Ġp ar
Ġt ra
2 9
ĠW h
il ar
ver al
av ing
g round
A n
Ġel se
right arrow
Ġcor respond
Ġst ring
} =
v are
p oint
if t
oc ial
Ġd ue
text bf
Ġbe h
a im
b m
at ors
Ġcon f
19 4
ĠĠĠĠĠĠĠĠĠĠĠĠĠĠĠĠ ĠĠĠĠĠĠĠĠĠĠĠĠĠĠĠĠ
c apt
Ġser ies
b r
ĠN ational
B y
Ġle g
le ar
um an
Ġab ove
E N
ĠC ent
raph ics
Ġinv est
ian s
Ġc al
201 5
Ġres pon
^{ (
Ġpl ace
Ġre se
pos ed
vare psilon
Ġpro t
t ab
ĠY ork
ĠF ran
se e
w h
im ate
ĠA ll
L ist
Ġf alse
}^ {\
Ġb est
ro ll
ug g
Ġk ey
Ġpro ject
rang le
con om
Ġgovern ment
Ġint eg
Ġad v
âĢ Ķ
} ;
it er
ĠHow ever
orm al
b old
) =
ĠC ount
eta il
o pe
Ġle arn
Ġsing le
ĠJ an
con t
Ġs ay
Ġn ear
Ġn ext
p ress
Ġp at
t ies
ur s
th s
Ġoff ic
Ġmeas ure
Ġs um
Ġ\ ,
i um
capt ion
Ġwith out
A N
3 3
Ġd on
ap er
ĠW orld
Ġl arg
ĠA t
a ction
r ict
un c
ĠĠĠĠ ĠĠ
ens ure
he s
Ġb as
U n
am pl
ific ation
ch i
Ġest abl
ap e
ĠO r
Ġt ri
Ġan n
t ime
201 4
Ġhe ad
19 5
ĠC an
Ġd en
n on
Ġ čĊ
Ġimport ant
Ġse veral
6 0
O b
Ġd ay
Ġal ong
Ġp ost
ob al
Ġpos ition
Ġv oid
Ġto t
Ġs at
ĠC ar
en e
Ġb re
Ġse ason
er o
ir on
ĠY ou
Ġs ize
l im
k e
I T
us h
an ces
Ġ& &
ĠP r
Ġdet erm
b s
Ġan other
Ġde pend
Ġh ref
id d
k ey
oot ball
eg raphics
includ egraphics
' )
ref ore
val ue
end ed
S E
Ġse ction
in ition
Ġ et
" .
m p
ward s
Ġa ff
A A
st and
w ays
a i
ent ion
le ment
b um
Ġvi ew
st ring
ĠE uro
our n
var phi
in ter
3 5
em ph
Ġstud y
Ġb usiness
Ġsu ccess
Ġdisc uss
201 0
ord s
Ġcontin u
Ġterm s
Ġg ame
201 3
Ġun til
ĠM an
Ġd om
d ata
ĠN ov
] ,
. ~\
Ġm ap
Ġre du
# #
our ces
Ġn etwork
Ġf r
Ġcomp ut
Ġin f
201 2
Ġme an
Ġh ig
ĠU S
t able
A l
Ġl ow
u ary
op er
gor ith
Ġ= >
' '
Ġh old
end s
ict ion
8 0
Ġch ang
Ġm usic
Ġex ist
ĠA ust
Ġcharact er
is on
// //
w ith
ĠG e
Ġc rit
st it
ic le
Ġare a
Ġt yp
Ġh ome
im al
Ġs pect
ens ity
Ġg reat
oc us
ain t
Ġs pe
as ter
ĠâĢ ĺ
ĠA ss
am ent
ĠSt ate
f ield
ot ential
A C
Ġplay ers
Ġqu ant
Ġsim ilar
en ces
ist ic
ord er
201 1
r ite
s ource
fr ak
l ation
Ġdef ined
f unction
**** ****
Ġcl os
Ġd el
4 5
u ild
Ġf ew
a us
i am
p ed
Ġpre vious
Ġc r
Ġpr ivate
ĠT o
d e
ge q
ag ue
ĠB rit
" )
H e
ĠThe re
Ġper iod
p ose
ĠW ar
n o
Ġsh own
Ġch ange
C ont
ĠJ u
D ata
Ġposs ible
ĠS chool
Ġo ld
Ġm ajor
Ġg row
ys is
. }
Ġ ide
sy mbol
ĠP ol
ĠM in
il it
. _
che s
ail able
over line
e ction
Ġwe ek
Ġbec ame
[ \
at s
Ġcount ry
am ed
6 4
ore d
u ff
le ge
Ġass oci
at ures
iv ity
ic y
ĠA ug
ĠS outh
Ġp red
du ct
col or
c ul
port s
ve c
pro of
re t
o ff
Ġstr ong
g in
ĠEuro pe
ou b
em pt
Ġmodel s
Ġst ates
Ġshow s
Ġcomp any
it her
it or
yn am
Ġw on
} ).
ĠA p
-------- --------
Ġw omen
Ġde ath
p d
B ig
9 0
Ġa ut
Ġtot al
& \
oc ument
od es
Ġch o
en c
Ġl ess
ĠB e
Ġhe alth
epend ent
Ġd eg
m essage
b ox
Ġt urn
Ġmem bers
Ġfollow s
Ġe arly
Ġman ag
Ġpoint s
ĠO ct
os p
Ġlink s
C ol
}, \
Ġexp ress
Ġk e
con st
m ber
ist or
Ġap plic
Ġen g
l oc
le g
Ġgo ing
m ary
c or
oug ht
) ^
im ent
Ġprodu ct
ix ed
ĠN o
at ter
ĠM arch
sc ript
Ġsh ort
Val ue
ĠF l
Ġinclud e
Â ł
math frak
pl it
I nd
pt ember
g o
S h
Ġf ull
ru ction
l ing
Ġm ax
om an
he ad
Ġre cent
ri ption
ĠT e
Ġa uthor
Ġint rodu
v iron
ym met
L ambda
Ġt imes
m m
Ġqu est
Ġd er
Ġl and
Ġerr or
pr il
Ġs k
Ġal bum
ĠCh rist
Ġs ong
lect ed
Ġc ity
Ġf ac
Ġa ction
cent er
L et
3 1
iqu e
3 4
s ide
bold symbol
ĠCount y
Ġp ubl
Ġchild ren
s l
Ġph ot
I C
Ġb r
ĠC al
Ġm illion
D E
um p
Ġinv ol
Ġp otential
ab ly
200 9
se qu
ut ure
ur b
s m
h line
Ġb and
S et
is f
] ;
s ize
Ġcom b
200 8
Ġf und
Ġsign ific
m at
Ġh istory
l in
ight s
Ġh tt
ĠG erm
ur g
al f
ce mber
mb ox
ĠJan uary
Ġpro m
ivid ual
} }$
Ġs it
Ġ/ **
i ents
7 5
ĠB y
Ġstruct ure
Ġe as
ard s
lang le
ĠJ une
Ġcomp let
ang u
or ph
olog ical
A M
ple ment
or ies
ic a
R e
Ġdist ribution
il t
th ough
A S
o or
u ation
Ġw in
ĠS o
Ġf urther
Ġre st
im um
ĠR eg
cl us
Ġph ys
op y
Ġrese arch
Ġle ast
ĠSe ptember
Ġreg ion
3 6
t op
ak en
Ġfor mer
ĠJu ly
" );
b it
ld ots
Ġr ange
ed er
7 0
Ġm ar
ĠC ity
ĠC o
id ence
ĠAug ust
h old
Ġcont rol
Ġav ailable
ĠP ar
Ġcomp on
Ġim pro
) );
ĠĠĠĠĠĠĠĠĠĠĠĠĠĠĠĠ ĠĠĠĠĠĠĠ
ut ions
Ġed uc
ĠOct ober
Ġp ath
ud e
b o
k s
ĠS up
et ic
Ġs om
ind ow
ĠA pril
m ult
u x
itt le
Ġv ol
Ġd etail
ĠP art
Ġem ploy
Ġc ou
ĠĠĠĠĠĠĠĠ ĠĠĠĠĠ
Ġf ore
Ġcon c
rr or
ĠM ed
Ex ternal
is ing
n abl
app a
Ġa ver
Ġf ree
3 9
l oad
read y
Ġh app
ĠN orth
Ġe conom
Ph i
" /
ĠG u
on y
Ġrel ations
em s
her n
Ġorig inal
i ef
T r
I f
ma x
I I
Ġre ally
Ġm agn
ĠDe cember
Ġam ong
ab les
( $
Ġp ract
ur ation
I nt
ri ed
et er
cite p
3 8
Ġm om
ĠR ep
Ġt arget
. \
ĠP res
200 7
in o
Ġcl aim
) (
Ġprov ide
id es
Ġserv ice
i i
Ġal ways
Ġc ost
ĠThe n
Ġlim it
al es
Ġcommun ity
ĠW ill
C O
viron ment
Ġind ividual
ĠNov ember
Ġacc ess
Ġof ten
Ġs ocial
x im
Ġp ut
t est
Ġbe come
ip le
a ut
r ary
Ġbet ter
un g
Ġf ootball
Ġthe ory
Ġre t
in ary
u ck
Ġf ocus
w are
Ġspec ial
b ut
gorith m
Ġne ver
ĠThe se
200 6
and om
Ġcons id
ĠG r
Ġs ide
Ġh uman
Ġest im
Ġsignific ant
Ġro le
ent ly
Ġs ource
Ġt ext
Ġl a
Ġc ases
ĠA ct
l ish
Ġme ans
Ob ject
Ġc oll
Ġm ight
k appa
g es
âĢ ¦
Ġ! =
Ġ %
ot imes
ĠAust ral
Ġw ar
c irc
C T
Ġr ate
il es
Ġm ot
Ġt ry
w ide
==== ====
ec ess
n ode
Ġind ic
Ġcomp lex
Ġsat isf
w id
Ġparamet ers
s up
Ġf ail
Ġappro ach
Ġb ir
ĠE n
ul es
ate g
ĠA b
Ġg rad
z e
A P
non umber
as ing
Ġacc ount
W ith
text it
Ġ` `
Ġl og
ib ility
Ġp aper
Ġcomp et
3 7
} ),
st yle
Ġen c
Ġ q
Ġto o
ac ed
Ġ id
} )$
9 9
Ġperform ance
oun c
] .
, "
ĠD r
c it
n ow
s f
ater ial
Ġdescrib ed
Ġse qu
av a
rib ute
sub set
ĠF eb
ĠCan ad
s w
Ġrequ ire
i us
u k
ĠM c
Ġf ive
Ġstud ents
T est
Ġdevelop ment
Ġm ember
m ost
Ġse en
Ġfunction s
M od
h am
Ġh ard
ri or
ide o
\ %
Ġcomm on
erv ice
Ġst atic
Ġab le
"/ >
Ġn ational
Ġinit ial
S igma
Ġto ok
Ġim p
Ġ version
Ex ception
Ġobtain ed
I m
ust om
a e
Ġst ory
ĠH ar
ra ft
Ġn eg
ab or
"> <
Ġin fl
Ġal ready
og n
ampl es
ĠC or
ĠA fr
ch ie
ut il
ru ary
Ġbel ie
Ġpl an
ĠB o
Ġl ight
Ġac ross
get her
Ġto gether
I S
ĠL et
Ġsystem s
G et
ensure math
Ġd ensity
Ġf ar
0 1
re w
Ġs ays
\ !
Ġsup er
Ġan t
E D
um b
ad em
ap s
ener al
Ġh aving
g ress
Ġm en
Ġl ik
d om
nabl a
Ġanal ysis
Ġprof ess
em ents
Ġc over
Ġyou ng
Ġin put
Ġ( $
ĠH is
ugg est
\ |
p x
Ġc ult
ĠTh at
Ġcom e
Ġc amp
Ġsol ution
0 5
Ġ// /
e ed
Ġre d
Ġwork ing
Ġconst ant
um ents
Ġwhe ther
Ġcondition s
Ġp ort
P s
Ġg ive
at ural
Ġth ird
Ġab s
Ġproper ty
itt ed
ĠE d
on es
Ġg raph
i ber
Ġc irc
our s
Ġ: =
Ġj o
le te
L L
Ġconsid ered
Ġt itle
Ġplay ed
c er
Ġmat rix
Ġde v
Ġc ertain
ug ht
Ġe ither
Ġf uture
ap an
ĠBrit ish
Ġhig her
iv en
Ġw ater
i ew
f ile
Ġa ge
Ġpop ulation
4 8
Ġp ay
ĠW hen
ĠD ep
ĠO ne
Ġtr aining
Ġb ig
Ġrele ased
ar ing
Ġl ength
Ġrequ est
Ġbl ock
ĠA fter
Ġs ix
K ey
end ing
Ġvari ous
u i
N ot
}} {
Ġche ck
Ġele ment
Ġn ode
R O
ww w
ĠK ing
um e
E S
E rror
' );
ĠW est
Ġind ust
Ġexpect ed
Ġse par
l ength
Ġhow ever
ay er
eth ing
20 00
in ally
Ġhe ld
a ul
dot s
re ed
Ġe p
oc r
c her
v ision
Cl ass
ĠO b
Ġ vert
Ġs w
ĠS ec
Ġev ents
ĠFeb ruary
ing ton
200 5
Ġcare er
ĠW ith
6 5
min ist
g roup
/ \
P l
il ities
Ġfe ature
ĠA g
Ġcon n
al d
Ġl ower
Ġrece ived
Ġre ason
u f
Ġd at
Ġim age
Ġs y
ure d
oci ety
Ġb en
Ġd ays
Ġth ings
~ ~
ĠB ar
Ġh om
ĠR uss
Ġst re
in ing
Ġme et
D ef
an a
Ġcont ext
Ġl angu
ĠM e
Ġtr ad
a it
Ġparamet er
pr ime
Ġm aking
ir t
l ist
Ġrequ ired
s cal
Ġatt ack
Ġunder stand
Ġaver age
ourn al
ĠSt ring
sum mary
Ġbe gan
Ġst ar
Ġequ ation
c ap
Ġs uggest
Ġre pl
op h
th ing
v ing
Ġcal cul
Ġh ouse
p ath
Ġb ase
Ġpolit ical
a ff
A p
wid et
Ġc ame
f er
ĠA m
Ġt aken
ond on
Ġcre ate
ograph y
Ġa chie
d ate
amp ions
b ased
Ġc ross
S e
Ġcons ist
F ig
Ġcorrespond ing
ilit ary
ounc il
ur l
s el
re ct
ens ion
\ [
ĠPres ident
Ġappro xim
Ġf ri
( ).
c ast
Ġp air
htt p
ĠAr t
Ġg ot
Ġrespect ively
Ġbuild ing
ind ex
Ġf ile
d own
Ġpr im
Ġk ind
st er
() );
Ġwrit ten
ĠC O
N ew
m ap
ec ut
9 5
Ġserv ices
ce ed
l o
Ġt re
widet ilde
Ġas k
u ed
Ġp ast
Ġpubl ished
ĠS ch
Ġb i
Ġstand ard
Ġs ent
Ġst yle
Ġor g
Ġl oss
ĠB r
ĠCom p
Ġbel ow
d raw
4 4
ĠC our
ĠD av
Ġar ch
op s
per ty
ear ch
Ġph ase
at us
Ġbl ack
Ġprovid ed
ĠH ouse
A ll
Ġl ot
Ġgroup s
b or
row n
Ġacc ording
Ġd imens
Ġn ecess
Ġbre ak
re st
ann el
Ġvi ol
Ġe ar
Ġtem per
b ra
Ġpos itive
Ġwork s
{ -
Ġmark et
Ġtr ack
ag ed
ic an
Ġback ground
Ġadd ress
ĠA rm
ul ations
Ġa ir
S c
ag er
ac hed
Ġc ell
trans lation
Ġbeh av
Ġsom ething
nd er
I M
} -
ĠCol lege
ĠS w
Ġg e
Ġp ur
Ġh y
Ġc y
Ġind ependent
Ġmom ent
p ace
Ġgl obal
Ġl ittle
cent ering
ĠG l
Ġcl ose
pl ies
Q u
ffic ient
st ate
r c
200 4
Ġp erm
ian ce
w ise
Ġar ray
ill ed
and s
Ġto wn
Ġassoci ated
Ġinvest ig
; \
Ġre view
Ġmethod s
Ġinclud ed
h ib
Ġother s
ĠR ec
Ġs em
ĠAmeric a
Ġass ert
ers hip
Ġd oub
ren ch
art ment
Ġfe atures
P E
Ġd one
med i
ĠEng lish
al ax
Ġp arent
se mb
Ġf requ
ĠJ apan
ĠE l
ĠS er
Ġproper ties
ĠĠĠĠĠĠĠĠ ĠĠĠĠ
Ġg en
Ġth us
pl ied
I ON
O r
Ġt w
Ġ ill
es e
il le
A nd
ĠL ondon
Ġg round
n a
ĠE q
al t
Ġbe com
iv il
Ġinst ance
du c
Ġa way
Ġappe ar
ĠSe ction
wh ich
E T
L e
pro t
err or
Ġth ough
Ġt ask
Ġind ex
ord in
m y
20 22
Ġn amed
Ġmat ch
ĉĉĉĉ ĉ
ign ed
n b
ĠI I
ĠIn ternational
l ink
g l
Ġh ost
T ime
Ġ es
Ġg ames
ra v
it ch
ĠD ist
Ġbe gin
Ġst ep
z eta
Ġsc he
sh ip
Ġl ines
Ġen ough
Ġd ynam
Ġbu ilt
ex p
Ġestabl ished
Ġim plement
y ear
g ed
E qu
Ġm aterial
5 5
Ġh alf
Ġn ormal
Ġd iv
R equ
ro id
c ell
Ġ& =
f ord
tab ular
iz ing
} +
Ġc aus
Ġp ress
Ġrel ated
0 8
Ġpro of
Ġcour se
ch an
0 7
Ġe mb
\ {
Ġt reat
og le
ar ies
ĠM ore
Ġrespon se
Ġr andom
Ġstart ed
i et
Ġline ar
F rom
Ġ Â
ĠP ark
Ġcomp os
it te
A t
ne ction
Ġ ?
/ **
ot ed
Ġn umer
Ġf ig
ĠCh ar
htt ps
c le
ĠQ u
in it
Ġw ent
am a
ĠC he
com p
Ġsub ject
Ġc lear
ĠH er
end er
Ġin ternational
ĠM on
Ġan g
M an
Ġref er
ic ro
th m
idd le
Ġsh all
F ile
Ġj ob
f rom
c os
Ġcre ated
Ġa rm
S ee
Ġd est
) =\
Ġann oun
ac c
is k
Ġ/ *
Ġprodu ction
Ġact iv
res ult
0 4
Ġke ep
Ġv ia
ho od
ĠB ro
Ġquest ion
ĠV al
ul a
| -
ĠP e
ĠWill iam
A D
Ġen vironment
Ġcont ent
ĠP er
Ġve ctor
ess ion
ĠI m
n own
Ġloc ated
Ġte le
om orph
ic ult
Ġb ody
Ġd ocument
ish ing
Ġele ments
Ġcent ury
Ġr ather
m ark
N ode
m on
row s
A B
Ġon ce
und er
The re
I s
( ),
ver se
ill s
b ody
" ;
p ack
g r
Ġc le
Ġreg ular
" :
Ġch all
Ġright s
U T
\ ]
Ġd ire
E n
Ġcan not
Ġoffic ial
Ġcomp an
Ġpro posed
B l
} =\
ĠA ir
b orn
Ġconst ruct
ĠS ince
St ate
0 6
ition s
Ġc ode
Ġl o
Ġrespon s
Ġdef ine
ĠLe ague
Ġh istor
es tern
Ã ¡
E lement
Ġt alk
Ġs ymmet
Ġdeg ree
Ġper cent
i res
Ġor d
) }\
ou d
Ġ );
Ġl abel
ĠA ng
un ity
Ġfl ow
Ġp o
4 7
Ġwh ose
) ^{
ĠH igh
{ (
Ġsim ple
if orn
Ġscal e
at ives
al y
ir m
Ġconc ern
Ġpartic ip
em ma
/ *
$ )
id ed
U R
ap pro
Ġcon fig
Ġcl ust
D e
200 3
f oot
} ]
Ġexper ience
eder al
ĠThe orem
4 9
Ġ} ,
Ġr a
st ance
Ġfil ms
Ġrec ogn
Ġal most
Ġfe el
ĠH am
0 9
Ġreport ed
Ġobserv ed
Ġs ite
ag s
Ġt ax
ĠPh il
E vent
av y
ott om
C C
r ain
Ġpred ict
Ġspec ific
H E
B ut
] [
Ġfin ite
Ġex act
r um
Ġlearn ing
Ġdef inition
ell ing
6 6
Ġpol icy
ĠG overn
iforn ia
c all
Ġfact or
0 2
Ġb orn
p en
S ystem
Ġmult i
. ~
0 3
Ġam ount
er a
A d
A tt
o o
Ġmat ter
r s
W h
ĠCour t
H ow
ig en
Ġserv ed
V iew
ĠL a
A meric
ampions hip
y l
Ġset t
L O
pon se
Ġev al
ra ction
Ġs af
p ing
Ġl ed
Ġz ero
ĠC ont
Ġaddition al
ĠSt ud
ite ct
Ġap ply
Ind ex
Ġimp act
Ġmed ia
Ġus er
s in
Ġto day
Ġal gorithm
Ġent ire
s ing
Ġth ought
Ġex ists
Ġ= ==
h an
nb sp
. </
itt ing
Ġr at
ut es
rid ge
Ġl ive
led ge
c is
r up
ĠInd ia
ache s
Ġinfl u
ĠM ich
anc ial
cdot s
ok en
ĠAss oci
g en
Ġeduc ation
Ġn atural
}\ ,
o on
}_ \
ribut ions
T R
Ġm iss
}^ \
ĠL aw
+ +
en ed
Ġcour t
ĠS m
Ġfield s
Ġbro ad
at ory
ole an
200 1
sm all
Ġcl ub
Ġst ation
ove red
ĠR et
F orm
Ġlarg er
Ġm akes
Ġcol or
200 2
Ġcount ries
Ġn ov
8 5
9 7
Ar ray
in ated
ĠCh ina
B C
Ġlangu age
def ine
ĠN ot
Ġpr inc
Ġout put
Ġp rior
} |
.... ....
Ġchang es
ir l
oun ter
T ext
L A
att le
ew ork
Ġdiff icult
in n
r ated
Ġg alax
Ġl ate
P ath
Ġn um
ĠS an
ĠS ystem
m it
ĠI nt
Ġc ut
U S
{ {\
itte e
and id
Ġcou pl
ĠEurope an
e ff
il i
Ġreg ard
O ver
cc ording
m ore
Ġval id
Ġincre ase
b ook
o ch
ĠCent er
ĠCal ifornia
T E
Ġb ring
pec ially
Ġt aking
Ġpres ident
ĠF irst
Ġsur face
plic it
ĠDep artment
F ield
Ġwh y
pon ent
^ +
pro p
Ġv ideo
ĠF rench
at rix
Ġl iter
Ġatt empt
Ġequ ival
m ar
use um
Ġm er
or ge
l ike
Ġdist ance
Ġ/ >
Ġopt ions
Ġde al
un ic
Ps i
ge bra
Ġben ef
) ]
ĠRep ublic
av es
Ġde cl
ta ct
Ġf ixed
Ġthe refore
Ġrelations hip
Ġoper ator
ĠEng land
Ġmon ths
Ġlead ing
c hed
ic les
F F
Ġp ers
6 7
q quad
In fo
}) \
ac ing
Ġun it
ĠIn stit
Ġare as
Ġquant um
. )
Ġh on
ĉ Ċ
p an
re et
ast ic
Ġexper iment
9 8
Ġin c
ĠS im
ĠD is
u el
Ġiss ues
Ġinst ead
Ġeffect s
Ġeff ort
ell ow
he l
ĠV ol
wide hat
a el
qu e
Ġd ied
Ġf all
Ġcont ains
Ġv ill
lem ma
p ublic
Ġac cept
Ġf ather
ist ics
ĠD ef
Ġeffect ive
as c
' :
` `
ic on
ch ange
F il
A dd
l ight
& =
Ġgiv es
Ġwork ed
Ġr ank
Requ est
ul ly
j s
Ġcomp lete
ed d
Ġne igh
Ġl ove
Ġe ver
ĠM ark
Ġhtt ps
Ġs on
v an
k nown
Ġadd ed
Ġpop ular
Ġmon ey
b b
ib rary
Ġsequ ence
Ġbas is
Ġcompan ies
c up
ĠInd ian
v oid
Ġdef ault
Ġm ilitary
ar ily
( {\
ĠF rom
, -
I G
Ġplay er
ĠD em
text width
Ġ( !
ol ic
O f
ve y
ĠM y
ash ington
Ġt able
Ġeng ine
Ġ} );
Ġw rite
) {
Ġiss ue
Ġ __
M S
is ions
Ġcont ract
ĠC ouncil
//// ////
Res ult
Americ an
is es
Ġsp in
ĠFig ure
Ġspec ies
pt ions
Ġlik ely
ic o
Ġprodu ced
Ġdist rict
[ '
b urg
ĠA c
Ġits elf
bs ite
ribut ed
Ġp an
ap i
a ugh
Ġre str
ĠG od
Ġmult iple
4 6
a ctions
Ġprob ability
Ġb ar
Ġcon duct
l or
Ġact ually
8 8
Ġproblem s
ak er
n ey
cent ury
Ġocc ur
ul ated
ĠE ast
sk ip
Ġprovid es
a ign
Ġag re
st ruct
ĠS y
ens ive
Ġ\ {
}^{ (
x space
ot a
in put
Ġup on
e es
oc al
Ġg as
Ġj ud
ens or
qu are
ip s
Ġanal y
om s
Ġsuccess ful
Con text
Ġw idth
pd f
Ġassum e
Ġcent ral
Ġset s
Ġdevelop ed
math sf
Ġw ords
Ġwho le
Ġs old
Ġtemper ature
ĠGerm an
00 00
P r
Ġap p
b re
ra el
Ġdid n
ari ant
Ġdec ision
ĠP al
Ġcomp ar
Ġa ud
id s
Ġpart y
IN G
Ġto ld
tr ue
u ate
9 6
M ap
R ec
Ġacc ur
I P
Ġop port
iz es
Ġar r
ist ry
Ġy et
at ively
Ġfor ce
et t
comm and
Ġc ustom
ind ent
Ġad minist
Ġequ al
ĠT rans
c ing
Ġconst ruction
ĠS en
ĠG eneral
ĠM od
it z
Ġro und
sel ves
M L
Ġinclud es
val id
Ġindust ry
Ġtrans form
Ġcontin ue
ic ol
ĠDist rict
ach ing
m id
p ol
Ġst ars
it ude
M A
Ġnot e
o res
equ iv
Ġun c
y ing
Ġ$ (\
dis play
Ġcol umn
() )
d t
ag ing
ĠD o
Ġpresent ed
Ġs ample
Ġm ove
Ġcent er
ĠTh us
Ġ ess
W hen
4 2
Ġme chan
ot es
p ite
Ġcomp ared
ĠU K
h and
}} (
Ġh or
om b
ĠBl ack
Ġde b
ĠHe alth
on str
Ġes pecially
Ġcompon ent
pl ate
scal e
d en
u it
Ġst op
Ġs ense
Ġn il
ar a
Ġse arch
g s
Ġvis it
Ġbir ths
ag on
ok e
Ġse cur
us ed
Con fig
ass ert
}\ \
5 00
th at
Ġre v
ĠĠĠĠ Ċ
enc ies
ames pace
ct ors
oy al
' ]
Ġde p
ĠW hat
U N
Ġed ge
b and
ro te
7 7
ĠAustral ia
r ate
Ġ} ;
Ġev idence
A fter
c ial
D is
ĠCh urch
ad es
Ġneed s
Ġc apt
at form
cit et
ĠCanad a
Ġcor rel
' ;
ĠR ef
Ġpro p
d imens
el oc
Ġa ward
r ide
ĠDav id
Ġdiff erence
ag ram
ateg ory
ĠW ashington
Ġperson al
land s
un k
g ing
Ġannoun ced
Ġt akes
Ġ ver
it es
Ġf av
Ġstud ies
Ġs ound
Ġphys ical
Ġth ing
ov ed
******** ********
Ġeff ic
Ġneed ed
st ar
ict ure
n ote
C H
h a
i ers
Ġf ram
e in
ĠP aul
Ġmov ed
as ons
if orm
ran ch
O T
Ġd ate
ber g
ĠM or
i ences
Ġtrad ition
Ġhold s
Ġdirect ly
Ġun ique
4 3
ĠH ol
Ġc andid
a res
Ġfr ont
ur ity
Ġdirect or
Ġb it
Ġim m
Ġal ign
ĠN e
ers ion
O ne
Ġide a
Ġincre asing
w ord
ĠJ ames
Ġ( )
C ode
Ġn uc
Ġsu ff
Ġoff ice
Ġv ict
T rans
ĠL ist
Ġso ft
Ġwe ight
ob ject
x y
d r
v ant
ĠĠĠĠĠĠĠĠĠĠĠĠĠĠĠĠ ĠĠĠĠĠĠĠĠĠĠĠ
ĠL emma
Ġrel ation
ĠD irect
oper at
I R
Ġclos ed
el t
pt y
S ervice
Ġapplic ation
en ing
un n
Ġ& \
at al
id a
rup t
press ion
Ġf em
Ġperform ed
Ġs ex
Ġrel ig
Ġtrans ition
S ize
Ġinvol ved
H and
Ġdo ing
Ġsol utions
Ġrele ase
operat orn
} :
Ġb ank
ĠE m
Ġdire ction
Ġbound ary
Ġdem onstr
[ ]
ac her
ĠG et
ĠPart y
Ġcurrent ly
ac ity
Ġm essage
ot ype
O S
Ġcom es
199 9
Ġco ordin
ĠG o
Ġnecess ary
] $
B uild
esc ription
ed ge
operatorn ame
ĠD es
Ġnew s
clus ion
m ember
R eg
ect or
"> </
199 8
ĠP at
Ġtyp es
i pl
ari o
Ġst age
Ġcont ain
Ġcon v
O ut
Ġt ell
el ine
In ter
C D
ĠWh ile
Ġear li
ou l
Ġout side
o e
al le
ĠĠĠĠĠĠĠĠ ĠĠ
199 0
ĠG roup
n s
Ġdat as
loc ation
Ġequ ations
} +\
cre t
Ġm ention
Ġn orth
Ġl ost
ĠTh om
Ġl iving
Ġon line
m ing
Ġcrit ical
ĠP ort
M P
ĠR ober
' re
Ġtele vision
iz ations
ĠB er
Ġp ref
6 8
and er
c an
Ġim ages
v ille
l ong
Ġin j
Ġwh ite
ag o
P e
ous ly
ly mp
le vel
if ier
) -
Ġsh are
' $
Ġtrans fer
ĠInstit ute
Ġinst it
}} {\
ĠT est
Ġv eloc
Ġcol lection
Ġfor ward
ĠD on
S ince
Ġlarg est
ri ate
Ġw rote
C E
W hat
Ġeconom ic
ĠA nt
n av
4 1
Ġn ight
Ġpol ice
Ġfin ancial
Ġreturn ed
il ton
Ġp ack
ap ache
Ġass ist
Ġro ad
Ġintrodu ced
S P
Ġdetail s
che ck
Ġm other
h space
Ġrepresent ation
ĠIs rael
Ġs ens
Ġpart s
Ġs ources
ĠD iv
k en
Ġp age
( -
Ã ³
ĠR ed
~ $
Ġe mer
ĠO ff
Ġnum bers
ab s
ri ef
Ġarch itect
ber t
Ġsim ply
Ġs ure
} -\
pre t
Ġthrough out
ĠC up
ĠNew s
Ġc red
ĠSt reet
Ġestabl ish
irt ual
ĠJ ust
Ġm id
ĠAssoci ation
Ġele ction
cre ate
def ault
ro y
Ġsecur ity
yn c
Ġden ote
uff er
ip al
n eq
e an
Ġw ave
ĠR ich
il ies
umer ate
ĠJ ew
Ġgrow th
Ġgener ated
o oth
ĠA ward
5 8
Ġde ep
Ġfl u
i en
O D
ly ing
Ġwe bsite
n es
Ġex ecut
ang le
Ġres id
S er
Ġt en
Ġf ace
ĠFran ce
Ġmon th
Ġ- \
Ġim medi
G roup
199 6
ĠC ong
Ġbecom es
Ġal though
f unc
5 7
ĠR iver
on ic
Ġcor rect
N o
Ġtechn ology
b ound
Ġwrit ing
Ġart icle
ĠGe orge
d ag
s pec
Ġpro ve
f in
Ġsc en
Ġad j
ĠAr ch
un ch
app ing
Ġmod ern
t es
Ġap point
Ġobject s
f ill
Ġhim self
Ġr isk
no indent
f il
Ġcamp aign
Ġd ig
osp ital
Ġbelie ve
ic ation
Ġre ve
Ġbeh ind
us ing
Ġhtt p
Ã Ń
ran ge
Ġgo al
Ġtra vel
ĠH all
d o
i ation
Ġs outh
n ov
ĠComp any
Ġopt im
Ġcompon ents
Ġev olution
| ^
wo od
p c
Ġqu al
Ġact ive
Ġch arg
E d
Ġap plied
im ents
Ġmax imum
k y
Ġm ag
ĠUn ion
Ġdoes n
mod el
u ge
$ }
) }{
Ġf ood
m d
Ġleg al
d ist
199 7
Ġep is
plic ation
cont ent
Ġallow ed
dimens ional
Ġcon ver
s plit
Ġro t
Ġbehav ior
ĠM al
Ġlong er
abl ed
con fig
Ġrecent ly
8 7
Ġg re
appro x
" "
Ġmagn etic
ri an
ĠC ons
oc ol
Ġconst it
a ur
ay out
he t
en umerate
he st
Ġknow ledge
S C
Ġw ord
Ġd raw
Ġde part
] \
ef ore
sc r
it ar
Ġim plies
E nd
ann ing
Ġallow s
Ġcap ital
ap ter
ma il
Ġcho ice
Ġn ature
Ġstat ement
ĠRes earch
Ġse em
Ġbook s
Ġacc om
us er
ĠM r
Ġs us
V ID
op l
It em
Ġstat us
ĠAfr ica
Ġsmall er
Ġset ting
i os
Ġschool s
Ġto ol
S ub
ort hern
ĠIn ter
S up
y a
Ġrem ains
out hern
Ġdis play
pr int
ra z
I L
ĠCh ampionship
ĠB el
m ethod
Ġc it
Ġelect ron
Ġ Ð
the orem
R ead
ĠF il
we b
ĉ ĠĠĠ
Ġac qu
bl ock
is ation
Ġnov el
re c
Ġdeterm ined
item ize
ec k
ĠF ound
ri p
ag ement
Ġcontinu ed
n ce
ad o
Ġco e
5 6
ic ense
st art
Ġf it
ru le
Ġpro ced
I F
includ e
os en
Ġc ivil
Ġstre ng
Ġqu ite
ĠG reen
at ur
r im
Ġcon sum
E E
ĠP ress
Ġspect rum
Ġr ule
st ant
) }$
Ġy ield
n et
un t
om ial
T able
ĠO ur
Ġdoub le
Ġcon cept
Ġwe ak
ĠSc ience
Ġf ire
am ily
Ġto wards
ĠDem ocr
C all
C ount
Ġw alk
ĠThe refore
re me
Ġoper ations
Ġup per
w rit
Ġt ro
or ing
vent ion
ist an
Ġpract ice
Ġsc ient
Ġsupport ed
Ġoper ation
G e
ar r
ĠArm y
P i
o at
Ġrad io
Ġbo ard
em ic
m en
ines e
for ce
m es
e ch
ĠT V
} /
Ġpro te
Ġw ife
Ġb ox
Ġrel ative
Ġad m
\ ,\
ĠS ome
Ġchall eng
EN T
Ġus es
p ng
P ol
M essage
N N
Ġthem selves
ans ion
Ġde cre
Ġlim ited
Ġloc ation
Ġref erence
Ġst aff
Y ou
c ase
ĠT ex
ĠM art
A G
Ġad opt
Ġmanag ement
Ġprofess ional
u ated
Ġne ut
Ġpat tern
Ġmain tain
] (
Ã ¼
he ight
au ge
semb ly
Ġrun ning
Ġan sw
( (
V ert
ĠD an
ĠC ap
ĠQ ue
ĠN ote
! --
mult icol
t em
st on
Ġb order
Ġqu ality
S U
Ġw indow
omet imes
l t
cur rent
Ġus ually
v is
Ġex hib
roll er
{ }
ec ause
ĠCl ass
o ice
ĠP ublic
}} }
Ġproduct s
Ġlevel s
}} _
ant ic
F l
U LL
ĠM ary
z z
198 0
ub e
Ġfollow ed
Ġp ain
p at
Ġal tern
9 3
multicol umn
us ion
v space
fl ow
ify ing
Ġro ck
y r
Ġin du
omorph ism
Ġexpress ion
Ġplay ing
c ount
Ġfri end
r un
P S
d s
L og
ot o
Ġf ight
ĠGerm any
Ġal gebra
Ġdesign ed
im age
Ġch urch
Ġd am
ent al
h as
Ġ\ ;
ĠComm ission
Ġl at
Ġm ind
ar ter
Ġsit uation
opt ions
Ġc opy
ict ed
Ġdom ain
A ss
pect ed
Mod el
ĠS et
Ġest imate
Ġse lected
ĠS ub
Ġs aw
Ġsur v
ĠL ou
Ġav oid
Ġqu ick
Ġse ems
Ġchar ge
Ġr ace
ĠT able
Ġmed ical
Ġcon tact
ri a
air s
Ġp le
l a
ĠI N
8 6
ĠW ork
n ormal
Ġl ives
ĠM ex
Ġagre ement
199 5
= '
Ġearli er
ĠWh ite
Ġit er
Ġrem ain
Ġsign al
oc ation
el es
Ġh ours
Ġvill age
---------------- ----------------
Ġjo ined
## ##
Ġrat io
h ing
The n
Ġprim ary
Ġg ave
Ġinterest ing
t urb
ing u
g ence
Ġ ir
g rad
Ġsc ience
iz er
all s
Ġd ed
Ġconn ected
Ġcom ing
ĠO lymp
Ġstud ent
act ive
Ġcon clud
B e
f ess
9 4
in ct
ĠChrist ian
Ġl ack
iver se
=" ../../
ĠH ere
Ġbro ther
Ġro b
e al
Ġex cept
Qu ery
Ġtrans port
ĠD ay
in fo
Ġm ode
ri er
duc ation
Ġexp and
t itle
Ġr ules
Ġveloc ity
ĠS ociety
ĉĉĉĉ ĉĉ
or age
Ġarg ument
Ġa im
Ġw ays
9 2
ĠJ ack
Ġh ous
w in
ym pt
Ġreg ions
Ġvari ables
\ }$
Ġa x
P I
Ġpro gress
Ġcon nection
Ġfor ces
ĠE ar
math scr
Ġth row
Ġ vers
Ġspe ed
b a
ĠV ir
ch ild
Ð °
ĠL eg
Ġc ause
ĠN ow
er ve
9 1
re ate
pl ace
Ġmov ie
alle l
ĠAfr ican
Ġill ust
Ġe ight
Ġwant ed
ĠGovern ment
mod ule
ol ar
Ġhe ight
Ġw or
^ -
Ġatt ention
Ġst ream
ab ase
5 1
Ġequival ent
Ġask ed
P R
Ġse lect
Ġprogram s
Ġfam ilies
Ġtreat ment
Ġd augh
Ġpr int
Pro perty
ĠMin ister
Ġs eg
Ġc a
Ġmean ing
7 8
Ġ ensure
w ell
E nt
f ect
Ġag o
Ġe arn
f ort
Ġsu fficient
r d
Ġ _{
. [
over y
Ġfig ure
ĠM usic
line ar
ĠTr ump
Ġm ach
ĠTex as
Ġclass es
ot ic
b on
ĠR ev
ribut es
Ġch annel
ĠB ook
5 4
7 6
Ġin ternal
reed om
Ġlook ing
ĠJ er
Ġcol lect
Ġaut om
5 2
199 4
k a
Ġparticular ly
Ġth reat
Ġcomm and
in i
Ġad apt
Ġprevious ly
ree k
Ġv an
l am
Ġhe art
ĠO f
S o
ĠR oman
Ġdis e
ri al
Ġm ale
Ġneg ative
r ong
S p
Ġins ide
l n
b ase
ĠS pec
S O
Ġpe ak
Ġc ast
& &
Ġve h
) +
ig ation
Ġunc ertain
ark s
I V
Ġcomplet ed
Ġf ederal
Ġpres ence
Ġto ur
ĠAc adem
Ġcult ure
se y
od ing
in os
F irst
con tain
Ġc ele
Ġm ix
Ġe igen
Ġn ation
Ġh it
Ġd ark
ĠBo ard
ĠS um
Ġincre ased
st ein
ĠD i
Ġbegin ning
5 3
Ġt ree
Ġl oad
uf act
Ġsong s
ĠComm ittee
Ġw oman
| |
ĠS am
ĠB ay
ed y
b uild
Ġpass ed
N ote
Ġh ol
Ġj ournal
Ġess ential
Ġstud ied
Ġcon sequ
. $
ro s
Ġf ully
uss ian
Ġpre c
Man ager
Ġan im
Ġex am
ĠY ear
P art
is l
D F
Ġmar ried
on a
Ġ row
Ġsy mbol
Ġdiscuss ed
Cl ient
text tt
Ġteam s
Ġso on
aramet er
Ġdimens ion
Ġtr ade
it able
ĠG a
ĠMich ael
Ġdeath s
Ġprob ably
ĠFl or
Ġb ad
N S
Ġopen ed
ill ing
Ġ\ |
Ġex plicit
Ġbro ught
ĠR oyal
ul let
ĠCh inese
act ory
ĠM at
is her
ate gy
Ġchang ed
Ġant i
ed ia
ĠD uring
Ġd rop
Ġs ociety
st ream
Ġlaw s
om in
Ġres ources
ĠO ther
n ers
er ia
Ġappro p
li ament
Ġstart ing
Ġresult ing
Ġgener ally
ir it
g t
j o
h ost
Ġo ption
The ta
ĠH istory
\ '
Ġgr ant
197 0
Ġs il
Ġcharact ers
======== ========
ĠB ill
Ġmod ule
c el
Pe ople
ĠW il
Ġ ...
Ġinter view
p age
Ġp ick
199 2
Ġclass ical
] )
est ival
Ġeas y
ĠTe chn
Ġge omet
ĠM us
t ical
Ġde but
bo ard
ĠM et
B A
Ġappe ars
O M
c ore
ĠS ing
Ġget ting
ter m
Ġon es
Ġfrequ ency
Ġh ot
Ġexist ing
Ġse ven
ĠCong ress
Ġb ool
Ġpl atform
con text
C A
Com m
Ġform ed
S ource
Ġrecord ed
Ġst ay
b our
C ell
B ar
ĠS ervice
}^{ -
Res ponse
Ġsub sequ
M ethod
O P
ĠH en
Ġsign ed
Ġj ava
o z
Ð ¾
ĠM useum
Ġorgan ization
Ġinter pret
Ġinter action
In put
go ogle
5 9
cre te
Ġun its
Ġform s
Ġb ur
ĠRober t
ie ce
ĠB en
Ġgalax ies
Ġm arg
Ġcons erv
ate gor
Ġdeterm ine
ĠCO VID
f erence
Ġover all
ĠDiv ision
N ow
Ġstruct ures
Ġnear ly
att ice
d et
ĠG reat
Ġfram ework
6 3
sy ch
Ġr ap
Ġactiv ities
ĠT ur
Ġmeet ing
n orm
Ġvari able
Ġs en
Ġg irl
Ġobserv ations
prot otype
199 3
< \
Ġrequ ires
Ġmov ement
sh ift
so ft
} '
H istory
Ġcom ment
mer cial
7 2
Ġmin imum
Ġappe ared
Ġin equ
8 9
Ġh ope
Ġpl aces
Ġfact ors
Ġg auge
on om
Ġsche me
Ġb illion
i as
Ġhig hest
Ġn ames
Ġtry ing
it ing
Ġoper ators
S pec
en ge
fl ict
v ement
ĠG old
idd en
Ġg rav
S im
Ġsol id
re p
Ġmet ric
ĠO ut
d i
Ġdr ug
ĠC ath
min us
ĠAustral ian
it ter
ĠĠĠ Ċ
por ary
G L
ĠM er
al ian
ĉ Ġ
subset eq
Ġf a
Ġr ail
ĠA lex
_ +
as hed
Ġl atter
Ġfl ux
h i
ĠM iss
Ġt im
ĠThom as
h y
Ġder iv
{ $
text rm
Ġpur pose
Ġs ort
res ents
yn omial
ir ing
ĠN or
pro d
m ain
( {
Ġbe y
Ġun iform
d oc
empt y
A b
Ġpolit ic
re es
AT E
H T
Ġ Ã
ĠM ount
al ed
ad a
ell ar
C he
Ġlead s
Ġmem ory
loc al
Ġcont ribution
Ġsc reen
Ġoff er
Ġmot ion
f g
Ġbel ong
Ġbey ond
st atic
Ġb all
Ġem ission
Col or
f alse
under line
Ġm us
Ġstr ategy
Ġbir th
Ġnot hing
Ġt er
uth ors
ay ers
F A
Ġgre ater
s u
Ġpress ure
Ġexp ansion
Ġrele vant
Ġquest ions
ĠCent ral
Ġab ility
ev ent
Ġdescrib e
foot note
ĠCar ol
Ġ$\ {
Ġvol ume
ch ar
Ġdec ided
ĠF ore
ĠIs land
Ġcont r
ĠR oad
ma z
ĠB ank
R et
Ġthe orem
Ġc ounter
Ġident ity
Ġdirect ed
Ġsh ape
Ġn orm
Ġpre vent
ĠW estern
Ġother wise
Ġe y
a ud
Ġwork ers
Ġin sp
Ġocc up
Ġfore ign
p p
ĠK ore
Ġredu ced
set s
d ro
Ġext ended
ĠSm ith
Ġre comm
E X
ĠFound ation
el er
H ead
}} _{
ĠA ccording
Ġread ing
8 4
j ection
M ore
Ġsh ip
ĠFran cis
Ġst ated
Ġr ates
ĠM ac
Ġsm ooth
Ġm is
Ġparent s
6 1
Ex t
Ġro om
dag ger
ĠB est
Ġcho ose
Ġb al
Ġle ave
Ġneigh bor
3 00
Ġ( $\
et her
ĠF in
Ġhigh ly
if old
Ġk illed
j oy
ot ing
T hat
Ġdesc ription
velop ment
ĠIn c
ĠRuss ian
ĠHam ilton
Ġcomp act
6 2
ar p
ial og
Ġmechan ism
199 1
n ext
Ġany thing
Ġd ram
ĠSe e
ab ilities
Ġhe nce
8 2
Ġ$ |
Ġinst all
le ctions
ĠS al
Ġw ide
Ġder ived
f e
T D
ĠL at
ib ly
Ġre pe
8 3
Ġ ult
Ġar bit
Ã ¶
Ġexact ly
ĠPro v
ĠE v
Ġtrans l
Ġorig in
Ġconn ect
Ġc ore
Ġc am
Ġcol lege
Ġnot ed
in y
Ġaff ect
}} ,
Ġspec ified
ĠT om
Ġre ach
ĠM ont
Ġprot ect
ir us
Ġeas ily
ele ment
ĠSec ret
Ġfri ends
s pect
pack age
ro ad
Ð µ
Ġfin ally
Ġdi agram
ĠFlor ida
ur rent
Ġno ise
ĠR em
Ġprodu ce
Ġestim ated
How ever
O ur
Ġclust er
ĠD el
v est
Ġrepresent ed
8 1
Ġh yp
Ġcommun ities
Ġpartic les
Ġindividual s
pos es
ens us
St ream
ĠSc ott
ar c
Ġbas ic
d b
am s
Ġcur ve
Ġob ser
ĠSt e
Ġcom pl
ul ate
St atus
Ġch osen
Ġf un
Ġcoll abor
Ġus ers
C P
Ġprot ected
Ġproject s
ic ago
ĠM ag
ĠE ducation
Ġpan el
T oken
Ġp en
Ġcontinu ous
Ġsymmet ry
ĠĠĠĠĠĠĠĠĠĠĠĠĠĠĠĠ Ġ
Ġlead er
st ack
ĠS ur
) |
7 3
w ar
ĠPro gram
S he
Ġ$ -
Ġche m
Ġprocess es
Ġp urch
Ġst ories
Ġf ast
ra ight
ip p
d ev
Ġit em
re y
Ġtr ain
col umn
ann ed
Ġdef e
ĠM ad
Ġvari ety
ĠVir gin
the n
ĠP ost
an ced
Ġpartic le
Ġw id
Ġf air
un s
ĠM em
Ġimpro ve
ri z
ind ing
L iving
ult ure
Ġapplic ations
Ġte acher
ew idth
or ial
op en
Ġext ra
h aps
Ġsp ent
ang er
con n
opl us
g n
C L
ĠAn n
Ġ< <
u ations
Ġcit iz
Ġmajor ity
4 00
ĠCanad ian
O ptions
ve re
E L
P er
iqu es
ĠR ad
ill er
Ġl ayer
Ġinflu ence
ĠDirect or
ĠP et
Ġst e
Ġevery thing
Ġn odes
ir al
Ġex amples
Ġun ivers
ub b
ĠS l
Ġcomplet ely
s ol
Ġs ometimes
Ġa ctions
T H
g g
Ġsome one
f irst
Ġre ached
Ġsl ow
ask et
r ick
Ġdaugh ter
cl os
set minus
Ġ-- >
d iff
M C
av en
U til
und le
F L
H ere
x x
Ġrep resents
aramet ers
ĠR el
Ġsay ing
Ġweek s
7 1
ĠS k
ĠJapan ese
S I
Ġtradition al
D r
Ġs ch
Ġevent ually
ĠA tt
ar ant
Ġsc ore
Equ al
Ġuse ful
Ġpat ients
ĠJ ournal
Ġw atch
ĠSer ies
ren ce
g ent
Ġk m
Ġabs ol
ĠL and
Ġact ivity
Ġac adem
az ine
N ext
ĠT w
Ġc os
Ġse c
cl es
> (
Ġsh ift
Ġapproxim ately
Ġgr and
ail y
Ġst d
d ec
AA AA
Ġhy per
ĠJ ose
L ine
Ġ ]
g u
7 4
Ġm iddle
Ġelect ric
Ġopport unity
Ġfr ame
ĠU nder
N et
Ġup date
p arent
Ġmention ed
ĠF urther
ĠLou is
Im age
ĠR ob
ĠAl though
ĠOff ice
Ġman ufact
Ġser ious
Ġmeas ures
ul s
at re
ĠRet urn
Ġdem and
Ġconsist ent
\ }
res hold
ur t
ollow ing
Ġst eps
ran sp
m as
Ġas pect
Ġcompar ison
Ġwrit er
w edge
il arly
O per
O L
Ġmin or
Ġvert ex
rop y
' m
con s
is hes
Ġres olution
Ġinter val
val ues
Build er
al o
ĠCl ub
Ġs ports
^{ -\
U E
Ġse ctor
ĠM ass
B S
6 9
or al
k ing
P C
_{ (
\ "
Ġs amples
Ġw orth
p ost
Ġd oc
ot ion
Ġact ual
Ġpre m
Ġup d
Ġunderstand ing
Ġse lection
Ġeffort s
tern et
7 9
Ġcl ient
Over ride
Ġm ount
ĠN ULL
F T
str ong
Ġcaus ed
Ġdatas et
Ġet c
Ġpl ant
D A
Ġgo es
Ġform ation
Ġexper iments
= {
Ġm ur
d ir
Ġconst rain
if ically
Ġmap s
ĠC E
N ull
* {
t x
Ġthe rm
ĠL os
ic ated
Ġ( -
ĠRuss ia
Ġen joy
g ener
) /
Ġcontr ast
u a
ĠI r
i h
ak ers
Ġde ad
i ency
Ġpre p
M M
Ġdynam ics
Ġbl ue
in em
198 9
Ġgener ation
Ġpol ynomial
iss ions
Ġpl ans
; &
o om
Ġinteg r
en a
t arget
ĠAcadem y
en ame
ell ig
Ġequ ip
Ġpro ceed
qu ot
Ġres ol
Ġimmedi ately
Ġs rc
Ġ ~
Ġmeasure d
id ing
ri ev
Ġident ified
ĠR ock
ef ined
Ġexist ence
Ġform ula
al a
F r
In stance
Ġart ists
F unction
ĠO ver
196 0
Ġnetwork s
Ġredu ce
m ission
ow ers
$ _
ĠT imes
Ġres ource
Ġsl ight
\! \!
ĠT or
Ġpr ison
ĠW omen
n ull
def inition
Ġmoment um
ĠSe cond
Ġ$ [
und red
Ġv acc
Ġin cor
app end
in ite
an i
Ġbo olean
it a
Ġass ess
_{ {\
ĠKing dom
C o
Ġemb edd
Ġelect ed
ĠRich ard
O ff
lim its
' ve
Ġfail ed
Ġc op
Ġfem ale
Ġconfig uration
r l
lin ewidth
Ġrece ive
Ġbound ed
ob ile
Ġart ist
ĠV ict
Ġ ign
) {\
Ġpl ane
ag raph
ul ed
Ġs quare
ĠT ime
ĠP o
ith ub
Ġarg uments
Ġreturn s
Ġrun s
t n
Ġliter ature
ĠĠĠĠĠĠĠĠĠĠĠĠĠĠĠĠ ĠĠĠĠĠĠĠĠĠĠĠĠĠĠĠ
Ġent ry
res h
Ġsp read
ex ample
Ġext ension
Ġpol ic
est s
align ed
g raph
re land
Ġtr ust
Ġfound ed
f ree
* /
Ġprovid ing
Ġrem aining
pro cess
ĠO ffic
ĠĠĠĠĠĠĠĠ ĠĠĠĠĠĠ
Ġcar ry
Ġb rief
cl ient
and emic
ĠGr and
Ġapproxim ation
Ġfav or
Wh ile
A ct
P re
Ġrad ius
ck now
b in
col on
Ġdiscuss ion
Ġst ri
Ġrespons ible
ĠH ill
ĠM ost
Ġper turb
ĠT own
_{ -
Ġmov ing
ament al
r ant
Ġstr ateg
ĠFran k
Ġcons ists
ĠSup er
C K
erv ices
Ġm icro
iv ial
Ġconst r
)\ ,
Ġw ait
St yle
Ġcoupl ing
Ġan c
ĠI S
Ġsoft ware
ĠP eter
Ġlead ers
Ġmin utes
ER T
erm an
pre c
B ase
ĠU N
Ġcl imate
P os
ĠChar les
Ġlist ed
Ġl if
st ract
Ġfe ed
w est
Ġf ix
ĠPro fess
Ġinst r
Ġh arm
ĠOb ject
Ġres pond
ĠF orm
Ġin come
Ġapprop riate
Ġg old
Ġh um
S y
ĠCh icago
an cy
ĠS ocial
ĠH istor
ĠA re
ant a
Ġreg ist
Ġdel iver
R A
com ple
arn ing
d eg
Ġerr ors
Ġ esc
Ġst raight
it ation
Ġch art
198 8
Ġrelig ious
D ate
Ġnumer ical
Ġpol ar
Ġin form
Ġdev ice
E C
Att ribute
as tern
), \
ust er
Ġa mb
Ġref lect
Ġgiv ing
Ġcon flict
Ġpr iv
Ð ¸
ven ue
f it
Ġper fect
per ties
ĠPar is
ow s
Ġappoint ed
Ġpl aced
Ġproced ure
s g
Ġsim pl
big g
ĠD ata
Ġst ore
ap ers
Ġ eth
L T
Ġsur round
om a
Ġcor por
S ec
âĢĿ .
_ *
Ġenc our
ur a
th let
l ig
Ġsignificant ly
qu ery
Ġthe ore
Ġrecord s
Ġcle arly
re al
Ġcap acity
R un
w rite
ol f
in v
St art
pd ate
ĠB rown
Ġp urs
l en
Ġn om
Ġm ission
bre ak
on ly
Ġsp at
Ġj oint
cher s
Ġc ru
E ng
ern el
Ch ar
ĠL ife
an ish
eg er
Ġse cret
Ġsum mer
g ithub
c ss
Ġprof ile
Ġ ;
stit ution
U ser
i ant
od er
: \
Ġbuild ings
The se
ĠO per
l ib
in ner
se lect
~ $\
Ġmin im
ĠA N
com ing
Ġhe avy
ruct ure
Ġ util
Ġ( (
$ (
os ing
Ġl attice
it led
p g
Ġ }\
Ġshow ed
= (
Ġcom mercial
E m
E M
s he
aram s
Ġth ous
ot al
et ime
Ġa uthors
=" +
ĠT wo
Ġepis ode
F e
ĠAng eles
ĠCath olic
ĠMore over
Ġrepl aced
sub figure
k et
bl ack
b ottom
Ġ+ =
Ġp oor
Ġv irtual
Ġpart ies
Ġspect ral
Ġcont ributions
Ġcou ple
Ġfour th
Ġg reen
Com p
ĠE nd
ĠO pen
E q
F I
Ġext ends
P ost
z a
Ġsepar ate
C S
Ġcon cent
Ġcele br
Ġpl ot
and a
Ġc ategory
Ġext rem
Ġro ot
Ġph il
ĠAr ts
an o
Ġim ag
ch o
Ġdise ase
Ġsim ulations
Ġcrit ic
se arch
Ġdepend s
Ġmiss ing
r or
as ure
Ġinit i
Ġam plit
Ġc atch
oll ary
ĠPro position
Ġal leg
rodu ction
ic ate
z ero
ĠIn st
Ġturn ed
n amespace
ĠJ ud
ĠC amp
Ġ er
Ġdom in
Ġsur pr
Ġadv ant
yp es
C an
ĠAt l
,\ ,
il s
ĠB re
' \
ad ata
Ġpl ays
Ġcalcul ated
Ġaccur acy
irc raft
Ġh op
Ġnuc lear
Ġv ote
or ation
ĠAl so
Ġd ual
ar ian
Ġdist inct
Ġcost s
ĠF e
Ġch ain
Ġ| \
ĠH ence
asket ball
ri e
Ġco ach
Ġw est
Ġstr ict
Ġexperiment al
Ġ! ==
wh ile
f inal
ĠS und
ĠG ames
Ġsh ared
but ton
ic ine
arg s
Ġwh om
Ġevery one
Ġform at
ĠFor ce
pro du
ry pt
Ġser ve
text sc
Ġsp aces
F C
198 7
D P
ĠZ eal
=" #
om ic
p ass
Ġf reedom
Ġd ivid
y les
Ġpr ice
Ġw ind
Ġeconom y
ĠD en
orn ey
s ur
Ġp ark
Ġquick ly
Hand ler
oub le
Ġcor re
h ouse
Ġdet ect
ĠPe ople
Ġdec ay
Ġcar ried
Ġs yn
er c
ffic ients
n umber
Ġsaf ety
ud get
ĠMex ico
Ġincre ases
ĠD ec
i able
Ġqu ery
Ġorgan izations
ĠP re
er red
) }(
Ġfl at
Ġf raction
Def ault
Ġfil ter
ON T
anc ing
Ġopt imal
ig an
Ġinteg ral
k er
Ġcompet ition
Ġhelp ed
Ġqu arter
Ġsh ot
sh ire
M y
G B
Ġinter face
Ġmeasure ments
ic ity
Ġgrow ing
Ġex ception
ot hes
Ġob vious
P P
ĠZeal and
M em
ri age
ac ement
ig ration
ĠIt alian
> &
Ġr ise
ĠAr ab
B ack
Ġorig inally
c ar
Ġreg ime
Ġassum ption
Ġsatisf ies
et te
Ġe ast
ĠI reland
r ics
ent y
Ġcont aining
in f
at ically
Ġbe aut
ĠP enn
Ġ{ @
Ġform al
stand ing
ĠB usiness
Ġmanag er
ĠI ll
Ġis n
back ground
Ġrestr ict
ang es
C R
ug in
ĠVirgin ia
Ġf irm
M ar
c a
Ġcomp ute
198 6
$ ^{-
Ġent er
Ġ â
Ġm ut
Ġbe g
Ġrel atively
Ġf elt
Cont ent
Ch ild
l ock
Ġreport s
Ġcorrespond s
Ġinequ ality
Ġdig ital
Ġconstrain ts
Ġdes pite
Ġb ottom
il er
Ġle ague
ol k
.~ (\
Ġposition s
Ġex ec
Ġfin ished
d x
ĠL u
ĠO F
ex pected
Ã ¤
Ġm ole
G ener
Ġp andemic
Ġcandid ate
Ġcorrel ation
Ġre asons
Ġann ual
Ġvert ices
b i
N umber
erv ed
ĠM el
ĠB ur
Ġident ify
ĠO h
ĠGe org
Ġs n
n um
ĠHen ry
rel ated
' _
P oint
ol a
Ġf arm
ĠF r
ĠB ig
ĠK e
ĠDe velopment
Ġ url
b ullet
olog ies
ĠH el
roll ed
Ġpe ace
ut y
ĠI ran
}} (\
Ġh undred
ĠD u
= -
ĠIt s
ell ed
orn ing
P T
p y
) _{
sub subsection
Ġgu itar
c r
pt r
ĠRec ords
ime q
Ġw rong
Bl ock
ĠCh ild
add ing
ĠR ead
Ġex change
Ġ( "
s imeq
ĠIs lam
="../../ ../../
B uffer
Ġpre t
ĠSt ar
ĠCh ief
se ct
) ^{\
Ġcomput er
Ġstr ugg
} );
g reg
Ġprop ag
p ush
Ġext ract
k i
Ġ&= &
Ġnot ice
Ġget s
} %
Ġ+ \
Ġsc ene
k m
se ud
Ġgener ate
ric es
198 4
R em
Ġrem ove
Ġadminist ration
umn i
h ab
Ġvis ual
per p
ĠI D
Ġansw er
N A
Ġexpress ed
gorith ms
ph p
Ġstreng th
Ġcomb ination
Ġimplement ation
c s
Ġappro aches
ris is
Ġb g
ĠT ra
he mat
Ġp hen
Ġb ranch
ill a
Ġin ner
or ter
return s
R ep
ud d
ĠEar th
Ġsc atter
al ysis
ĠSp anish
Ġm aster
Ġachie ve
Ġun ion
unc hed
P A
ĠAmeric ans
Ġend ed
âĢĿ ,
Ġopen ing
Ġoffic er
" ),
requ est
d escription
az z
ful ly
os oph
Ġofficial s
ĠH uman
l aw
Ġp aid
198 5
ĠL ord
Ġn one
Ġcell s
l ines
Ġra ised
T op
ob j
Ġed itor
Ġdist ributed
ĠPro ject
S A
f ont
ĠE qu
{ $\
}$ -
as ion
il ed
B ox
av al
c d
a o
Ġb us
rib e
Ġf oot
Ġdis k
j ava
I A
Ġrem ained
ed s
Ġscal ar
Ġs ust
Ġed ges
Ġmost ly
Y PE
Ġcomb ined
ar se
n y
Ġoff ers
Ġt ensor
Ġex cit
Ġex c
Ġst ock
Ġf if
ĠL ake
Ġrap id
un ities
ĠM o
epend ence
sc he
us band
ĠC D
Ġinterest ed
pro perty
Ġdest roy
Ġc ard
Ġcon vert
m t
Ġwas n
Ġt ru
ĠRe view
Ġv ac
Ġtest ing
Ġdet ection
T e
Fig ure
Ġrefer red
Ġgo als
M et
od ay
Ġl ived
Ġclaim s
Q L
Ġtri al
ser ver
Ġh ospital
raz il
ars er
ĠEng ine
Ġatt ract
for all
en ced
N O
Ġintrodu ce
if ies
al g
st o
Ġtechn iques
Ġassum ed
Ġcult ural
Ġp iece
Ġcall back
Fil ter
ĠSecret ary
d im
T O
N e
ĠP an
ĠE X
ĠVict or
we ight
l ast
Ġrem oved
c ases
ĠE conom
ĠR ail
in ity
m ic
og ene
Ġ\ (
f s
as er
r ich
Ġcoe fficients
Tr ue
ĠJew ish
Ġvict im
g est
Ġag ent
f ind
Ġhistor ical
Ġang le
Ġsen ior
Ġalbum s
ĠAd d
ĠL ong
il ib
Ġimport ance
m ann
Ġp ure
t ings
Ġh ar
Ġsur vey
Ġeffic ient
Ġde com
Ġcitiz ens
A ut
a fter
Ġ- >
ĠMart in
Ġtyp ically
Ġestim ates
ategor ies
Ġs al
$ ).
ĠH on
Ġviol ence
row ser
Ġconstruct ed
) ^{-
L abel
Ġar rest
d ep
~~ ~~
s rc
Ġd u
Ġth rows
$ $\
ud es
Ġm ill
A ccording
ing er
Ġal one
ir med
1 000
Ġmach ine
Ġsy nt
ĠCarol ina
Ð ½
Ġcomp are
ĠE ach
" ).
os h
em b
R el
ĠV er
A ction
Ar g
L S
//////// ////////
R ight
h om
Ġst able
Ġdist ributions
Ġlet ter
Ġsim ulation
ĠG en
........ ........
sec ut
sk i
Ñ Ĥ
Ġop in
Ġhor iz
es h
Ġbg color
( [
Ġrese ar
Ġc ert
Ġit ems
Ġmod es
ic ens
im b
T P
l s
go ing
mat rix
Ġex ternal
pos s
n eg
Ġdiff erences
Ġr ac
ĠI ss
Ġbehav i
Ġsh oot
Ġst ress
s ystem
ve x
ress ion
ult ural
Ġo il
Che ck
opt ion
Ġfund amental
Ġtrans formation
Ġn et
Ġmass ive
Res ource
un it
ĠL ie
t ag
pect ive
ĠB i
Ġcre ating
requ ire
end if
Ġbu ff
Ġsit es
a a
Ġsex ual
it ors
Ġar rang
Ġor ient
ĠJ es
> >
riev ed
Ġfor ced
198 3
Ġc orn
ĠFil m
Ġqu e
Ġnumer ous
Ġdepend ence
c ript
Ġch ief
S D
Ġdetail ed
ĠM ax
Ġor b
ang ed
{ {
Ġp ull
__ __
Ġinv ariant
Ġcur ves
r ons
Ġpolic ies
Ġcomm ission
ph as
Equ als
Ġf ine
H el
Ġv s
Ġad ult
AM E
ell a
_ .
19 50
ĠT op
Ġemploy ees
ĠS un
ĠT ype
Ġin nov
Ġide as
Ġaward ed
at o
Ġcl oud
Ġarchitect ure
Ġhe ard
Ġmaterial s
Ġst ellar
ri ze
it ness
Ġs plit
ov iet
15 0
Ġbecom ing
Ġth reshold
Ġcr im
ĠÂ £
Ġl iber
Ġsp irit
ĠM ur
Ġal t
ĠC r
tr ack
Ġfam ous
Ġgu arant
Ġinter actions
Ġaltern ative
ĠThe ir
Ġs ales
Ġem pty
Ġb ill
Ġtest s
display style
Ġc ities
Ġa w
ĠU p
}^ *
ro t
ĠL ee
Ġrec all
W indow
Ġinvest ment
ro om
ĠS ol
Ġbl ood
ound s
Ġcomm it
ock et
ĠW ell
J ohn
Ġpair s
w p
L ast
Pro v
ĠIt aly
ri um
Ġlead ership
ĠUS A
ĠSc ot
D esc
ens ions
Ġslight ly
pon ents
Ġden otes
ĠM ain
j son
C ase
Ġcle an
ĠW ood
Ġtr uth
ult y
198 2
m itted
Com ponent
Ġwe b
ĠE ven
ĠAs ia
em porary
Ġa ircraft
ell i
ĠJose ph
Ġb attle
ĠS T
n el
pro b
V ersion
) _
Ġa ware
Ġem p
ĠC ast
Ġrequire ments
Ġqu as
\ _
Ġun iversity
d at
agon al
IN T
st atus
cl aim
Th us
Ġold er
Ġabs or
Ġsing ular
cont in
ĠF ort
Ġcall s
ain er
ĠM il
Ġachie ved
B O
Ġcal c
Ġun known
est ic
ĠS il
T ag
ele te
k in
Ġprov ed
ick et
k l
Ġcomput ed
D o
p ers
pm atrix
Ġjo in
y an
Form at
Ġh usband
Ġg ap
M ax
Ġarbit rary
Ġincor por
Ġs ampl
Ġstrong ly
Ġon to
Ġpar allel
Ġspect ra
F actory
ific ations
Ġv oice
app ed
k ins
ĠC am
am ely
ĠJust ice
Ġcont ained
es ter
L ink
Ġshow ing
; </
v a
Ġregard ing
)\ \
Ġseg ment
ĠYou ng
ĠF estival
Ġanal og
ĠJ o
ĠCol umb
M in
a ver
Ġgalax y
pend ix
ĠM any
Ġ" ""
Ġfund ing
ĠF ield
AB LE
ĠT HE
ian o
are n
D B
Ġth r
Ġpol y
Ġdepart ment
Ġcl in
ac ific
ev en
st ances
mult i
Ġfa ith
197 9
T ask
c are
L ength
Ġg rid
new command
Ġinteg er
}} ^
ann els
) }{\
ul k
Ġpro pos
Ġlearn ed
lang u
Ġhouse hold
ĠM os
ĠH ig
il ing
Ġfeature d
Ġre form
L oad
ĠN S
Ġkn ew
Ġoff ered
Ġter rit
Ġass ign
Ġm ess
Ġser ver
ĠN etwork
G C
od ot
Ġwin ning
Ġr are
ans as
W ork
n ership
Ñ Ģ
ost on
is ters
ĠB ob
Ġcontin ues
ĠO ld
ĠBrit ain
vi ation
Ġphen omen
Ġcy cle
ĠS u
^{ +
ist ical
ish op
Ġtyp ical
Ġpro port
Ġal gorithms
M E
Ġchall enge
E l
ĠL iber
S che
Ġspat ial
ak istan
L P
const ruct
We b
Ġax is
ĠH aw
Ġcommun ication
omorph ic
Ġv ary
I O
ĠA ut
Ġiss ued
Ġ= \
Ġto ward
D on
Ġpower ful
head er
Ġmus ical
O ther
Ġoffic ers
im ages
Ġfil es
ĠJohn son
Ġclass ification
ĠG ood
Ġr ing
Ġspe ak
Ġla unched
Ġhand le
ER R
Ġtask s
u ing
F urther
ĠI II
D S
Ġc ool
Ġexpl ained
ov ing
Ġdec ades
Ġoff set
Ġco ast
pro ject
Ġdiv ision
Ġp icture
Ġcrim inal
icro soft
Ġredu ction
pt on
Ġm unic
urb an
} )$.
Ġcirc um
rem ove
ĠPar liament
ĠB ecause
C reate
at ers
r ical
ĠN one
Ġst ations
Ġun s
in et
Ġhapp en
ĠSund ay
ut ch
ad y
ĠSum mer
Ġl ab
Ġfail ure
OR T
Ġqu ad
U s
ĠSt ep
Ġse a
_ -
act er
Ġf ans
198 1
=" ../
ĠE U
pos ite
ĠT im
at tr
ĠF ootball
Ġpur poses
ĠD et
cknow led
v ol
g ate
ploy ment
ve ctor
pr ivate
Ġmain ly
eb ug
ab il
ĉ ĠĠĠĠĠĠĠ
Ġdep th
H S
Ġmat ches
ellig ence
ĠOr der
ian a
ĠM iddle
Ġcent re
Ġany one
Ġbenef its
ĠL ove
ĠG L
fr ont
Ġmass es
Ġmeasure ment
Ġto urn
ĠC ivil
Ġact or
The y
Ġide al
AR T
Ġo dd
Ġfl ag
p o
ĠJ im
Ġdef end
ĠA ff
Ġprote ction
ĠO p
Ġb inary
( &
Ġ$ $
ĠB as
rid ay
Ġdeg rees
Ġcan cer
Ġopt ical
ĠB uild
Ġp sych
Ġlo op
Ġexecut ive
Ġfind ing
b el
T V
Ġchalleng es
Ġhy dro
Ġadopt ed
Ġlat est
Ġ ut
Ġobser ve
R L
air man
G l
ĠSw ed
ĠS ervices
ail ed
act or
Ġs end
Ġhapp ened
ce an
Ġto uch
y er
t ri
t ic
ra q
langu age
ay lor
Ġp oll
ur ies
Ġn ine
ick s
Ġj ourn
Ġn ative
ĠK n
il ation
b as
Ġ[ ]
ĠPl an
)$ -
Ġinvestig ation
Ġbenef it
Ġke pt
\| _{
all ery
ĠW al
ik i
Ġresid ents
et ween
ent h
Ġconsider ing
Ġfocus ed
Ġcoordin ates
Ġsup ply
Ġt or
ĠOlymp ics
-- -
Ġs qu
Ġp i
Ġk ing
ig ger
Ġob j
Ġm ixed
Ġprinc iple
d el
Ġsymmet ric
Ġro ute
Ġtr ained
C ON
ĠH ome
Ġover l
' }
ĠF ederal
co pe
el se
or ig
Ġand roid
Ġindic ates
M e
Ġhand s
van ia
Ġord ered
Ġt end
Ġl ock
Ġsub set
Ġ ens
Ġapp arent
ad ow
Ġinstit utions
1 20
rem ark
S ON
Ġsing er
Ġl abor
Ġl um
Ġs ession
Ġper haps
D es
Ġis land
Ġre ality
Ġenvironment al
Ġ$ {
m c
: (
ĠB oth
Ġocc urs
ĠJ ac
Ġnew sp
Ġsh ock
Ġsem i
Ġres on
port ed
ĠWe b
f aces
Ġacadem ic
Ġle aving
Ġem phas
Ġch ance
Ġdist ingu
el i
map sto
Ġyield s
cal e
od ies
S ection
ĠM a
Ġr an
ĠMan agement
Ġv oc
P age
Ġse ctions
Ġappear ance
In it
Ġbelie ved
Ġadminist r
s ign
x ml
Ġc overed
ott ed
Ġpolit ics
M on
C ar
Ġsub stant
d es
id el
Ġh uge
out put
Ġexpl ain
ĠGa ussian
Ġpart ial
le ase
Ġconduct ed
197 8
ind er
Ġin fr
Ġtre nd
ĠG al
H z
$ {
ner gy
ĠL og
w an
197 6
Ġdel ay
Ġmat rices
od ed
A m
ist ance
ent ry
D uring
Ġsc hed
Ġtri ed
ĠA wards
Ġinit ially
ank s
Ġbusiness es
h bar
Val id
ig r
Ġact s
in st
Ġsaf e
k o
Ġsc ope
Ġ$ .
ĠB razil
ĠL ibrary
st ep
z er
Out put
plic ations
Ġoper ating
IN E
gy pt
up date
ĠSen ate
ĠHamilton ian
Ret urn
Ġadvant age
sh ould
ĠHe ad
du le
Ġauthor ity
Ġind eed
ĠĠĠĠĠĠĠĠ Ċ
Ġindic ate
Ġattack s
u ous
$ ;
pon ential
ĠCor por
ĠT re
ograph ic
ĠJ ones
C ons
Ġpl anning
cl ose
Ġnuc le
se cond
P O
++ )
Ġwe ap
con dition
ĠProfess or
ĠN avy
a uthor
Ġp aint
sy l
ĠTechn ology
}} ^{
Ġtechn ical
ĠMus lim
m em
ĠA cc
M B
if ul
ilib rium
Ġas ympt
fl oat
Ġro ugh
ra wn
197 2
atal og
form at
Ġaut o
ran k
Ġdisc overed
Ġdr ive
S R
t ed
ĠJ ul
ĠF und
Ġag reed
197 5
Ġaff ected
Ġlim its
Ġbroad cast
Ġc risis
dis c
ĠVal ley
T C
Ġchem ical
ĠE mp
M R
S L
C or
Ġneighbor hood
ib r
le ep
n am
197 7
Ġra ise
Se lect
it an
Ġacc eler
d esc
ĠDemocr atic
Ġb udget
i ate
ĠK ar
sc ill
Ġro ll
Ġdevelop ing
call ed
W rit
Ġsatisf y
Ġpret ty
Ġt ransp
h igh
h box
ĠO l
) </
t ree
Ġl ies
Ġcre ation
Ġcon vers
ĠW ay
ĠAs sembly
( _
ĠS pe
ĠSup reme
ul f
ĠSt at
ash ion
Ġbr and
N R
ĠT er
Ġf ear
Ġm ask
ist ent
Ġman ifold
Ġc at
hen s
or a
Ġcons ult
clus ive
197 4
Ġmagn itude
p op
Ġw all
ĠAd minist
Ġclaim ed
. /
Ġw ood
Ġc ov
ĠR ights
ang ing
Ġdem ocr
h r
ĠF ace
Ñ ģ
ĠS oviet
Ġspe ech
Ġn or
B o
Ġstud io
Ġfore st
Ġag ree
ic ed
l ow
ĠN orthern
in ate
Ġrem ark
Ġcirc le
if act
Ġg ain
Ġmarg in
m ass
he m
k rain
ro ph
Ġsuggest ed
D ec
: "
Ġobserv ation
ul er
\ {\
Ġown er
Ġsw itch
[ "
Ġview s
r at
ock ey
I ST
Ġwrit ers
ry st
on al
pro position
ad ium
ĠH ot
Ġm orph
ĠS ar
ĠB ase
d l
Ġw ild
ĠC re
c at
fr ame
Ġtheore tical
t wo
Ġadd ing
ĠGl obal
$ ~
ĠSec urity
ĠIn formation
LA SS
V ER
F R
ĠL in
ard en
N E
Ġent ered
rom e
m ond
est ed
' ll
}( {\
ĠL icense
f ound
ov a
Ġsc ript
ĠI raq
Ġhe ar
Ġfund s
m osp
Result s
Ġs s
so le
syl vania
and roid
ĠT em
) },
The orem
Ġcount y
ok es
Ġjob s
che n
ĠF inally
ri end
Ġel im
ain ts
ont al
he rent
Ġm iles
Ġed ition
Ġve ctors
ĠT our
ĠReg ister
ap se
ĠWilliam s
Ġscient ific
Ġfac ilities
Ġscatter ing
197 3
Ġman ner
Ġcandid ates
av ed
Ġopport unities
T em
Ġconf erence
Ġcomput ation
Ġcr ime
Ġatt ended
im er
D O
Ġphys ics
Ġsuggest s
Ġplan et
Ġ ener
af e
Ġme ant
ĠS outhern
ĠD ev
ĠComm unity
Ġtool s
U p
ĠSpec ial
r as
Ġveh icle
im ately
old er
Ġact ing
t ik
Ġal umni
t ool
Ġt ag
ty p
Ġdifferent ial
Ġprocess ing
Ġcharg ed
Ġp ush
Ġpart ner
Ġsom ew
ĠR E
t ure
Ġth ick
ĠB oston
ell er
Ġclust ers
sh ow
ĠSp ain
Ġabsol ute
ĠCent re
ast ructure
196 8
Ġinterest s
c ut
P L
d em
Ġwid ely
un ct
ĠFurther more
G u
ĠC ross
Ġread y
A V
ĠP akistan
ĠM ond
N av
im a
Ġreg ional
Ġsett ings
W idth
Ġint ended
ĠK h
ĠIr ish
Ġpart ition
Ġstat istics
" ]
ĠSt and
ĠY our
List ener
M ode
s uch
q l
ynam ic
' (
ĠTe am
in stance
it age
ĠSp ring
el ess
Ġd raft
ĠC amb
Ġart icles
Ġconclud e
Ġt error
Ġis ol
as y
Ġb right
Ġadv oc
Ã ¨
Ġconver gence
) +\
Ġmar riage
atur day
fil ter
Ġ ^
Ġl ibrary
ĠH y
RE F
Ġmin imal
Ġr iver
ĠSh ow
Ġs outhern
Ġp et
ĠAss ert
AT ION
Ġeffic iency
ĠMed ia
ĠG reek
Ġdi agn
ur ance
Ġatt end
Ġown ed
Ġdis s
Ġpo et
Ġcred it
ĠStud ies
S ome
Ġdimens ions
Ġre ject
ĠU s
Ġl en
P ort
er ies
ic ip
Ġu int
UR L
st ra
Ġreve aled
in ations
Ġo scill
&= &
Ġ{ };
ĠS aint
Ġdoc uments
ad el
Ġmanag ed
Ġord ers
ript or
S ch
Ġsol ar
Ġev ol
Ġallow ing
ĠV is
he nt
ĠF riday
ap ed
he ast
P RO
Ġun less
ĠGo ogle
Ġaud ience
ĠIn it
ab eth
Ġdepend ing
U I
ent ed
result s
Ġcol on
ĠE lect
c ular
leg al
en ess
bl ue
ad or
Ġprofess or
Ġcertain ly
D C
} &
if ts
off set
Ġcalcul ations
t w
Ġcom ments
ĠFrancis co
S w
Ġt al
< !--
m eta
Ġmed al
ĠL ine
Ġposs ibility
i ro
Ġserv ing
Ġconf irmed
j a
Ġus ual
ĠW ales
p icture
ymmet ric
ĠB u
Ġe mail
press ed
Ġf ellow
| _{
Ġjust ice
M O
ĠPh ys
Ġla unch
Ġprodu cer
Ġexper t
Ġp il
ec es
og rap
197 1
Ġb asketball
Ġm orning
tik z
Ġh ole
Ġrecomm end
w a
Ġhe at
sc ope
Ġwon der
m iss
Ġarm y
C al
Ġsc ored
iction ary
im g
on ym
Ġext end
Col umn
Ġcalc ulation
Ġfig ures
a ug
ipl es
Ġded icated
ĠS ir
ĠJ eff
Ġn orthern
g ies
ino is
ĠF red
Ġm ental
I B
Ġthan k
u an
Ġuncertain ty
ĠOr gan
ĠM ov
Ġbu y
Ġdev ices
Ġconstr aint
F inally
Comm and
ĠâĢ ¦
Ġint r
A ccess
j av
Ġmod ified
Ġn av
ĠMod el
al ing
ĠM en
ĠCon ference
Ġflu ct
Ġang ular
ĠRepublic an
Ġsk ills
Ġs ave
Ġrem ember
Ġmot iv
Ġamplit ude
Ġnot ation
O p
ĠE gypt
ro ot
Ġmet al
Ġpred iction
Ġfunction al
) }_{
V is
het ic
ĠP op
ĠPenn sylvania
T arget
Ġp p
ĠS and
H O
Ġor th
Ġele ctions
D irect
Ġte aching
ch ron
Ġscal es
Ġg un
op ic
aw a
ĠOh io
ĠPol icy
Int roduction
con f
Ġd oll
g ency
ĠMich igan
ap pe
Ġpro min
[ (
Ġfootball ers
av el
ĠL i
c f
Ġp ix
Ġeval uation
Ġthink ing
Ð¾ Ð
et ch
for ward
Ġchang ing
Ġear th
Ġscen ario
196 9
Ġauthor ities
Ġd anger
Ġd aily
Ġfr ag
ĠW all
Ġextrem ely
] );
U pdate
b al
ĠL y
M D
ĠC oll
force ment
Ġinstr ument
Ġlarg ely
Ġrot ation
ĠE very
t ask
T ypes
Ġre tain
b an
ĠS uch
Ġhyp othes
g ers
P o
Ġyou th
t an
Ġbel ief
un te
v ari
Ġf re
Ġag ency
ĠP acific
Ġsol ve
Ġcon ven
Ġco oper
Ġunder lying
st d
A F
a ught
Ġw ants
G r
$ ),
i y
Ġs pl
Ġstand ards
} }$,
ab y
ĉĉĉĉ ĉĉĉĉ
ogene ous
Ġ\ &
Ġimpro ved
196 7
ĠAr ray
}$ )
ĠE r
Ġindu ced
d rop
) -\
ĠCon n
pe ople
Ġadj ust
Ġinteg ration
} )$,
ĠMed ical
A rt
Ġprot ocol
Ġb in
id ents
Ġbe am
S l
ĠR am
Ã³ n
ed u
= #
ris on
N on
Ġvict ory
Ġconc ert
ĠPol it
el a
Ġdisc rim
} }$.
ĠO x
ĠE ll
Ġdescrib es
h ar
Ġexpl ore
M en
ĠL ead
ip age
Ġ ice
Ġhous ing
Ġsu c
Ġprinc ipal
res ponse
sc ape
k it
19 40
P at
Ġl ayers
ĠPol ice
on ical
ĠReturn s
ĠJ r
oth ing
e ctions
Ġprim arily
à ¤
ĠU sing
R ange
ĠL ab
Ġp owers
h ol
Ġk ernel
Ġm useum
Ġsub group
ne ctions
M at
Ġtherm al
Ġass igned
ing ly
Ġb ond
Ġs ides
ecut ive
min ipage
Ġgraph s
ĠJer sey
Ġdr iving
Ġen h
Cont roller
ĠH T
Ġdat abase
ĠJ oe
? âĢĿ
ĠP M
ĠKore a
Ġspec ifically
**************** ****************
h or
ĠRet rieved
ir a
Inter face
M ult
Ġex cell
ĠK enn
put e
B U
Ġc row
ĠE p
ors hip
contain er
U sing
g a
Ġconcern s
m ode
Ġmag azine
m ma
ĠQue en
script style
ĠB ern
ĠH or
}{ (
iven ess
Ġch annels
ob s
Ġstat ements
C ache
init ely
Ġstart s
ĠWil son
Ġtourn ament
et ts
25 0
ct x
Ġse asons
Ġsuc ceed
z en
Ġmed ium
ĠCol or
E v
ĠGeorg ia
Ġdis pl
agn etic
Ġ{ }
Ä ģ
ĠEmp ire
Ġp seud
sk y
Ġ il
ĠC a
Ġb oy
Add ress
os is
Ġro ut
ak a
Ġcharg es
V ar
Ġc ouncil
Ġfe et
}{ |
ĠK ey
m atch
Ġcomm itted
ĠEn ter
Off set
Ġwhere as
amp ion
it ivity
Ġdec isions
we et
ĠC all
D R
Ġaspect s
Ġ$ |\
ĠG ener
Ġimplement ed
ĠAs ian
ar ia
Ġaccept ed
serv ice
Ġrepresent ing
ĠB ow
Ġg rew
ĠEx t
s or
Ġinvol ving
ta il
) )$
out e
Ġtra ffic
con g
Ġthous ands
C urrent
at i
ion e
ĠC are
ĠSt an
The refore
Ġequip ment
od d
Ġearn ed
Ġbound s
R ow
Ġr ich
omet ry
Ġsust ain
and on
- $
194 5
K E
Ġact ress
W ill
Ġext ent
ron ic
Ġtechn ique
medi ate
Ġcomm ittee
act ic
ran ce
Ġir re
am m
Ġcamp us
ran e
Ġinc ident
d irect
Ġband s
ĠI R
al i
osoph y
ac le
ĠChar l
Ġcomplex ity
Ġ era
Ġw itness
omet ric
b tn
c ref
Ġcon j
param s
wh ite
ĠF amily
Ġtra ject
Ġcompos ition
ĠLat in
P op
Ġco al
Ġ ion
clus ions
D ev
ĠL ag
ach us
comm on
Ġblock s
Ġap i
ig er
Ġstre et
ĠM ajor
Ġst orage
Ġoccur red
19 30
Ġcoordin ate
def ined
ĠD E
igh ter
Ġgrad ient
uck y
ĉĉ Ċ
poss ible
) }}
b ury
Ġloc ations
Ġpart nership
Ġrob ust
Ġadv ance
ĠU krain
ĠAnd rew
Ġcover age
Le ft
S m
Ġorgan ized
Ġopin ion
f n
Ġund efined
rap per
S M
Ġbuff er
ĠOb ama
etail s
1 10
ap es
Ġarg s
\ ;
cc cc
fl oor
Ġw el
Ġnot es
ĠV i
par se
Ġor bit
W rite
Ġbig gest
ĠIll inois
l ife
Ġmark ed
Ġinf inite
F ONT
ĠP ower
st one
ĠH ospital
burg h
196 4
Ġpen al
Cont ainer
point s
U rl
ĠJack son
l ers
Ã §
rom ise
pro v
Ġdynam ic
Ġscal ing
ĠV an
Ġins ert
un ately
Ġrecord ing
ĠC y
Ġa head
Ġlook s
iz abeth
Ġoptim ization
Ġv ision
Ġst ack
Ġf le
Al though
Ġpr ime
op her
Ġobject ive
im ation
Ġrecogn ized
ĠJ un
ĠA v
Ġst ability
PE CT
Ġ[ \
tt p
Ġat mosp
Ġcustom ers
Ġpre par
ĠA uthor
fin ished
ro vers
ĠScot land
Ġrepl ace
' ),
ĠSc iences
ist ed
Ġp ages
Ġs ell
ann ot
Ġdef ense
Ġs ister
ĠChe ck
ĠPal est
Ġd ust
ur i
Ġengine ering
v as
' ).
}\ ,\
Ġdivid ed
D at
X X
Ġn arrow
Ġcompos ed
erson al
o ir
Ġab und
T ree
Ġsp ot
L ocal
Ġaccur ate
s i
Ġturn s
ĠPl ay
Ġvert ical
ĠRad io
But ton
L a
Ġro les
achus etts
Ġex ponential
ĠE astern
ord ers
Ġle aves
Ġcalcul ate
Ġthe ories
Ġl ie
Con n
gl obal
AN D
is er
ĠK ong
am in
ĠT aylor
Ġarr ived
s v
ĠMond ay
Ġanc ient
v in
: }
ĠFace book
ad ing
Ġmur der
ĠR un
Ġcapt ure
Ġl i
Ġdis p
Ġact ors
up s
ĠW ho
Ġhon or
ĠComm on
Tr ack
S H
Ġgeomet ry
im ary
Ġpolitic ian
Ġtre es
St at
enn is
Ġp od
u int
Ġch ampionship
ier arch
Ġbr ain
ĠS aturday
Ġdam age
Ġtalk ing
Ġdet ected
p arameter
Ġbal ance
P U
Ġinstit ution
Ġag ents
Ap p
E Q
ĠCE O
d ocument
Ġn amely
ĠM id
Ġs port
v ard
on to
j pg
ĠD C
D D
Ġhapp ens
Ġcy cl
ĠW ater
id ae
Ġfl oor
d est
Ġwe alth
Ġrepe ated
Ġtem plate
F O
j i
Ġd ie
ĠThe atre
ins on
$ {\
Ġserv es
Ġperform ing
Ġ* *
p et
A cc
ĠA PI
Ġatt ribute
L ong
Ġm apping
Ġtre ated
Ġfor t
ĠG re
Ġcaus es
ĠN ations
ren ew
T S
Ġk ids
] }
19 20
w er
Ġtrack s
t frac
script size
Ġd ream
Ġbehavi our
maz on
ĠE nergy
Ġpers pective
Ġcoe fficient
ĠInd eed
Ġhigh light
ĠG ame
Ġcharacter istic
Ġneg ot
g ment
ĠA G
Ġb att
ook ing
p a
com es
D escription
ult ane
j ust
Ġdr iver
ĠR o
E ach
Ġsupport ing
196 5
Ġentire ly
Head er
cis ely
Ġposs ibly
Ġlum inos
Ġcall ing
w indow
ĠK en
u um
M ark
tem plate
Ġexplicit ly
ĠC ode
ĠO R
s id
it ory
D ir
s pe
Ġconsequ ence
te en
Ġex clud
Ġdom estic
Ġnecess arily
ĠGovern or
ĠSe a
ĠP ubl
Ġc m
ĠM ethod
ĠColumb ia
ã ģ
Ġse vere
ĠBl ue
ĠF ile
Ġsub t
st able
// /
b u
l as
Se cond
G o
O pen
Ġeval uate
Ġh idden
ĠJes us
ĠL o
, $
Ġpredict ed
Ġh our
ĠCar l
Em pty
Ġleg isl
Ġco inc
Ġdis crete
ed nes
Ġf ont
T YPE
ĠM u
Ġfac ility
' .
Ġemploy ed
Ġop posite
,\ ,\
ĠWe ek
ĠB ack
$ :
Ġindust rial
Ġdram a
ĠMin istry
Ser ver
ĠDan iel
ĠEd ward
eff ect
) --
br ace
Ġresear chers
Ġconcern ed
Ġad vert
Ġtell s
ĠK ent
Ġrad iation
Ġcar bon
Ġc ere
is c
ĠTr ust
st ood
s d
ĠOn ly
Ġrecogn ition
ĠT ele
ĠAn other
urs day
Ġv ot
mod els
ĠM ot
Ġperm an
ib li
ul i
ĠI d
let s
fg han
Mod ule
ĠIn ternet
ĠC ard
Ġsubsequ ent
8 00
Ġapply ing
ues day
G R
ĠPr ime
6 00
V ol
ack et
Ġres ident
Ġh ab
| }
< ?
Ġmat hemat
, {\
le ments
Ġvis ible
is lation
Ġsum mar
ĠCo ast
ĠS ong
sh ot
Ġcol lected
Ġlangu ages
Ġtw ice
ĠBro ok
Prov ider
Ġend s
Ġinter section
er g
Ġex erc
S ing
E arly
AC K
ĠB attle
um s
Q ue
adel ph
ar ity
M ay
B I
s es
Ġdecom position
ĠG i
ĠP y
Ġloc ally
196 6
ĠS ta
ĠInd ust
ex ports
Ġbeg ins
ĠJ on
Ġclos ely
Ġread er
ic ial
Ġjud ge
if er
Ġsecond ary
He ight
Ġg ender
ĠR os
L ayout
b rid
J son
Ġf ill
ĠĠĠĠĠĠĠĠĠĠĠĠĠĠĠĠ ĠĠĠĠĠ
e z
Ġe q
^* $
per form
Ġappro ved
Ġsh op
p ool
Ġc ars
Ġrepresent ations
Ġexpl an
Ġ urban
st at
Ġbo ost
ĠSp ace
Ġd ro
Pro cess
Ġsuccessful ly
id en
ate ver
Ġvari ation
Ġsup erv
ĠR ay
Ġstat istical
ĠN Y
Un it
am ing
og g
Ġpro jection
ol es
Ġph one
it ative
Ġb os
P D
Ġgrav it
ĠRe port
Ġreason able
Ġre action
z h
ĠF ree
ĠMass achusetts
Ġpat ient
fl u
Ġsp ring
adelph ia
b ot
M ed
Ġent ropy
ĠP oint
Ġvers ions
b ell
Fr ame
ĠM ath
Ġpass ing
ĠM aster
ĠF our
Ġp ool
erv ation
ĠS U
Def inition
Ġequ ality
men u
Ġinsp ired
Ġsufficient ly
Ġs an
Ġcon vex
ab b
s en
Ġcre w
Ġmon itor
Ġassoci ation
ien ced
Ġsatisf ying
Ġregist ered
O C
ĠV iet
P H
am ber
l ik
ath an
Ġexper iences
Ġexpl o
Ġsold iers
Ġf erm
H ome
Ġm ys
ru it
ĠBro ad
n amed
Call back
ug by
Ġnear by
,\ \
ĠL ike
Ġpract ices
c ard
Ġconf idence
er ior
ĠIn vest
cl ip
ĠAn y
ĠM ap
Ġrepresent ative
renew command
Pro t
ĠRep resent
ĉ ĠĠĠĠĠ
T wo
s ch
ednes day
fo o
Ġcont rad
Ġdes ired
plic ity
ver b
Ġtem por
olog ist
ograp her
d frac
Ġeffect ively
ip eline
Ġfind s
Ġmin ister
ar ters
Ġveh icles
f old
ob e
ar iance
Ġw estern
Ġadv anced
: =
B efore
ĠOx ford
Ġinvestig ate
ĠF ar
opy right
Ġwe ights
or row
ĠA R
Ġsu itable
Ġden oted
P Y
lo op
Ġdatas ets
Config uration
or ough
Ġpack age
Ġrest aur
il bert
Ġpl us
Ġex ceed
Ġupd ated
eng er
int on
ip ality
che ster
const ruction
ict ures
Ġs ym
| }{
Ġdec ade
Ġrespons ibility
Ġest ate
Ġpattern s
Ġacqu ired
Ġtro ops
Ġg one
b ool
if est
P ar
Ġjourn ey
ax is
Ġa wards
Ġcon clusion
Ġinfr astructure
f a
Ġc ategories
ird s
Ġt ail
] $.
Ġd og
Ġse at
Ġneut r
Ġcon vent
en ant
Ġ\ !
Ġdi am
M T
Ġsurround ing
h s
Ġsee k
sum e
ĠW ild
Ġhe ro
big l
ĠB al
ĠEx ecutive
Ġassum ptions
Ġthe rap
Ġag ric
Ä ĩ
Ġb ridge
i em
ĠGu ard
Ġsee ing
ĠU r
ĠChrist mas
Ent ry
Ġhous es
ph ant
ĠH ong
ar ation
' d
h ow
Ġanim als
C are
Ġbi as
Ġlook ed
c oh
Ġbe at
ĠB ol
Ġmatch ing
Ġlabel s
plic ated
og en
$ _{
pl ot
ĠHistor ic
ĠChampionship s
Ġto ken
Ġref erences
Ġhom es
Ġen em
Ġprofess ion
ĠEX PECT
Ġcomp at
Ġpre cisely
() ->
Ġfe at
ĠM ember
S um
Ġrelig ion
re q
c oll
ĠP rem
G eneral
Ġpl anned
Ġequ ilibrium
writ er
Le vel
end ar
n ic
Ġcommon ly
ĠCh ris
du ction
res ource
Util s
il a
d y
ĠW rit
i ary
Ġtrans lation
ul ing
Ġw aves
Ġrelationship s
U M
Ġen able
ĠM ah
Ġpers ons
196 3
A c
ch or
load s
ĠCon stitution
K ind
Ġelectron ic
big r
ĠB ell
ĠAd dition
par agraph
Ġre nd
ĠCorpor ation
ĠL ittle
ĠPr ince
ĠG ra
) )\
Eng lish
Ġth read
itz er
il ly
en um
e lect
ce ived
ĠN ight
O K
Ġbeaut iful
Ġindic ated
Ġvoc als
Ġle mma
Ġrel ax
Ġhe av
ĠR en
trans form
Ġm ist
Ġr ational
ĠR h
Ġw ish
ĠĠĠĠĠĠĠĠĠĠĠĠĠĠĠĠ ĠĠĠĠĠĠĠĠĠĠĠĠĠĠĠĠĠĠĠ
ĠB ang
ĠM ike
L ocation
ĠA M
][ ]{
ĠH and
ĠL ast
Ġphot o
\ }$.
m ake
Ġdisc over
ly n
ou ch
Ġin verse
Ġfl ight
f i
Ġa id
ĠL ew
ĠW is
ĠE st
Ġred shift
ĠJew s
ph one
th on
Ġs oc
Ġem ot
Ġbro ken
Ġl iqu
Ġinter act
Ġshe ll
Ġinterpret ation
Ġessential ly
ere r
Ġthem e
Ġcam era
Ġf ashion
ĠS ports
? :
Ġ> =
Ġdimens ional
ĠG ar
Ġoper ated
Ġestablish ments
12 8
Ġalleg ed
Ġgreat est
? ?
Ġpolitic ians
Col lection
Ġmys elf
AP I
D own
Ġsh ares
Ġpredict ions
Ġd rawn
Ġpract ical
ĠEl izabeth
Ġgrant ed
Not es
ĠC reate
Ġv irus
Ġcom edy
Oper ation
Ġret ired
not es
Ġl P
all ow
w ater
in ction
ref erence
D M
Ġhapp y
ĠU se
Ġn arr
ĠPhil ipp
ay a
equ al
Ġtemper atures
W E
it les
ific ate
j oint
igr ants
B L
art s
O ption
D i
N ational
erv es
B E
v ements
ĠProv ince
semb le
m i
id get
al so
ig ital
Ġex pos
Ġsatisf ied
ink ing
Ġmom ents
c i
ps on
] $,
Ġpath s
eli hood
ord an
Ġinteg rated
Ġfl oat
long rightarrow
Ġsupport s
rib ed
L C
d ependent
B r
pro duct
d epend
Th read
ĠS om
Ġent ity
Ġb urn
ens ities
math op
Ġunivers al
Ġtr ace
ĠEngine ering
ĠH a
V AL
Ġcomput ing
g reen
Ġrail way
& $
Ġz one
Ġgirl s
nav bar
Y ear
;\ ;\
ren cy
Ġa thlet
Ġey es
In st
Ġm and
ind u
ant ly
Ġconst ants
Ġcont rovers
ã ĥ
Ġmark ets
ĠA fghan
196 2
f ull
Ġr ig
Ġpl ants
% )
P arameter
ĠEn vironment
Ġa f
âĢ ħ
}[ \
Ġf uel
anc er
Ġprep ared
ĠAb out
}} )
ov es
b uffer
Ġleg islation
v ature
et al
cont rol
Ġm ir
Ġult imately
Ġr ural
ĠDis c
ac ent
Ġmay be
Ġport ion
ĠN et
Ġexpand ed
Ġdecl ared
Ġrec ip
ĠW he
as ters
Ġf an
i ated
W S
Ġext ensive
angu age
Ġener gies
end ment
Ġca ref
Ġag greg
um es
ĠPort ug
Ġwin ner
V D
Ġinj ury
ens es
Ġre ct
Ġrec over
Ġre new
ubb le
ĠL im
Ġbl og
ymmet ry
Ġhistor ic
Ġintrodu ction
Ġs ale
th ur
Id ent
ĠC irc
ĠN ame
c p
#### ####
ly wood
Ġar ts
art he
ost er
less sim
Ġdo ctor
Z E
Ġeduc ational
Ġgen us
Ġhelp ing
bm atrix
ĠD ir
circ le
Ġsim ultane
let on
er al
Ġconstit ution
y e
Ġsh ips
Ġreg ul
Ġhe aring
12 3
.. .,
ĠE nt
ĠMc C
Com ple
Ġabs ence
S u
Ġcapt ured
}} _{\
Ġexper ienced
Ġk ill
Ġsubsequ ently
Ġc e
Ġhold ing
ĠG irl
Ġab use
Ġfac ulty
Ġb ulk
; "
P tr
}} }\
Ġr id
Ġcont ribute
R R
Ġm obile
ĠH ung
G E
h ard
AL L
inal s
H ash
T T
el d
Ġsum mary
Ġfight ing
Ġcircum stances
av or
Ġstrateg ies
Ġc ensus
ct ic
ĠE val
Ġ\ ]
194 4
ĠAg ain
N AME
ref ix
up le
Sc ript
Ġpi eces
Ġex cess
field s
asc ript
00 1
ĠC ro
Ġfif th
og ether
Ġthan ks
er ry
un finished
al gorithm
Pro p
w ing
Ġis omorphism
the less
ĠBer lin
. '
Ġent ries
Ġdo or
Ġparticip ants
ur ations
ial ize
Ġqu ark
Ġrev olution
Ġderiv ative
Ġcon form
et ing
Ġsup posed
$ };
Ġin tern
empty set
Ġcorn er
Ġlow est
ĠAdminist ration
onom y
Ġt urb
Ġpromin ent
och astic
I E
ĠD own
Ġw arm
Ġcont rolled
Ġunder stood
Ġstand s
ĠS her
ĠW alk
Ġey e
Ġalong side
Ġp apers
Ġcontain er
Ġdeb ate
Å į
Ġatt orney
Ġout er
Ġcos m
h av
ib ilities
par ison
i ota
ang ular
ĠB a
[ -
d f
ex ec
rop ic
Ġs un
ĠT uesday
âĢ ĺ
Ġf ell
m n
Ġnew ly
25 5
Ġrece iving
se x
ent er
w orld
Ġple ase
ĠAp pendix
Ġprom ote
ff ect
ĠPhil adelphia
uss ion
Ġperson nel
Ġb odies
su ccess
ĠN on
Ġm yst
ĠP ass
ĠTh ursday
ĠTh ree
avel ength
ru ctions
ĠR om
196 1
D ocument
Ġn ob
^{ *
ul pt
Ġt aught
16 0
ĠK el
ĠR og
Ġgrav ity
18 0
H ost
Ġfil ed
on av
Ġsequ ences
ve e
ap l
ĠĠĠĠĠĠĠĠĠĠĠĠĠĠĠĠ ĠĠ
Ġtop ic
ire ction
Ġnot ion
Ġd iver
Ġch apter
rupt ion
Ex p
com ponent
per iment
Ġestim ation
sl ash
Ġcont emporary
Ġdefe ated
Ġj ur
Ġcan cell
Dis c
Ġexec ution
ĠE vent
ĠB rad
Ġcomp re
ĠB BC
Ġsampl ing
rit ical
ĠDes ign
Ġr is
ĠUn ivers
D ep
ĠG iven
An other
ĠInst ead
ĠB oy
u ating
Ġcl ients
Ġm ent
ĠC ur
Ġemploy ment
ou rier
Ġsecond s
S ign
Ġf resh
ĠD utch
s ort
Ġmanufact ure
rop ol
b ind
ad s
Ġ< !--
Ġl icense
Ġpublic ation
Ġcomp ens
Ġdi agonal
ĠA mazon
ĠL ight
Ġnewsp aper
Ġdemonstr ate
Ġdepend ent
ĠS M
II I
Ġv en
ĠT ri
oc ated
Ġreview s
}) }
int eg
Ġmax im
ĠC at
y o
ĠE th
> ,
Ġtrans mission
ĠM A
Ġ* )
ĠPol and
ĠTw itter
ĠL abor
Ġaccount s
ain e
b ro
ĠC ase
B i
}) =
`` `
Ġmat ters
ĠT oday
ĠD ar
" ))
ĠRev olution
ĠTh rough
includ ing
ĠC ON
ĠChild ren
S earch
ĠG R
Ġmov ies
it o
Ġgener ic
A ust
Ġacc ident
med ia
v s
Ġun able
G en
l ayout
Ġapplic able
Pro ject
sh ape
Ġder ive
Ġop position
h l
Ġb omb
ide os
on ia
ĠH REF
ĠĠĠĠĠĠĠĠĠĠĠĠĠĠĠĠ ĠĠĠĠ
ĠMed icine
ĠK im
Pol icy
Ġsch olar
Ġexc ited
Ġin n
Ġrough ly
G iven
pl an
Ġprogram ming
Ġmax imal
Ġf lex
Ġmed ian
H is
A re
ĠJ ean
p ic
Ġb ass
C M
Ġs ac
k g
ĠW ednesday
ĠM ult
Pos ition
ĠP en
oun sel
Ġflu id
Ġreg ister
ĠF air
eg o
enn es
Ġun iverse
Ġne ural
Ġcolumn s
A g
Ġcop ies
ST R
s ince
Ġcould n
Ġint elligence
}_{ -
}} ^{\
P arams
Ġsp ons
ĠAlex ander
ĠOlymp ic
p res
Ġc old
Ġident ical
Ġap prec
Ġclin ical
Ġsh ut
Ġag encies
Ġsub section
Ġfrequ ently
r atic
eder ation
ist ant
Ġre produ
Ġluminos ity
ul se
ĠCl ark
ad ed
Cont rol
Ġgood s
Ġcharacter istics
Ġcomm ut
ĠĠĠĠĠĠĠĠĠĠĠĠ Ċ
Ġcorpor ate
at on
Ġp ri
Ġbre aking
h u
Ġ( {\
B R
Ġext reme
ĉĉĉĉ ĉĉĉ
ev in
s at
Ġquant ities
b en
\ )
Ġcru cial
atur ally
pl ane
Ġassist ance
10 1
P M
p arameters
Ġd ance
Rec ord
t ml
ann er
ĠH om
Ġclos er
ĠDes pite
Ġfact s
ad er
Ġins urance
Ch ange
}} .
Ġphys ic
Ġmot or
CO L
Ġ$ ,
Ġimmedi ate
ĠC LASS
fort unately
Ġm ere
g rid
ĠF re
Ġint ensity
}) ^
br as
Ġvol unte
ĠA ud
ism s
ĠTor onto
Ġf ra
ĠFore ign
Ġphot on
AAAA AAAA
U nder
ĠP rize
ĠC ub
ĠB C
ĠOffic er
Ġj et
/ (
ro sc
12 5
Ġst uff
Ġenh ance
Pro perties
) [
g eneral
ĠAff airs
ack s
ĠRe al
Ġmess ages
Ġsk y
Ġtr ivial
Ġc ache
Ġpre ced
Ġfin ish
ra it
194 2
Ġm ac
ul ner
em an
Ġassist ant
Ġcollabor ation
Ġattempt s
riz ona
ĠCon f
}$ }
Ġs quad
us es
Ġben ch
ĠR ome
Ġarm s
Ġhel ps
Ġkeep ing
put ation
ĠR od
Ġsomew hat
Ġpart ners
Ġtransfer red
al gebra
d ney
ĠN C
ĠN ext
ele ction
Ġacc ord
Ġlist en
Ġb undle
F S
H C
Ġas sets
ic ular
onav irus
Ġp al
Ġf illed
ĠA li
Ġconf irm
Ġreg ulations
ĠL ocal
Ġepis odes
D om
et ies
jo in
ĠF ollowing
over ty
Ġdeb t
Ġweap ons
N ames
ru ck
ĠCor ps
x imate
Ġset up
Or der
Ġcont ribut
s ite
Ġded u
Ġlet ters
Ġ iron
t iny
Ġperform ances
Ġ icon
Ġscient ists
Ġembedd ing
Ġgl ass
ak i
typ es
Ġtop ological
Ġf iction
Ġcover s
e ah
Ġso le
ĠC orn
Ġposs ess
Ġvictim s
or gan
Ġresult ed
D av
pt ic
Ġp un
> \
f iles
Ġhas h
Ġappe al
ĠF C
Ġaccom pl
ĠĠĠĠĠĠĠĠĠĠĠĠĠĠĠĠĠĠĠĠĠĠĠĠĠĠĠĠĠĠĠĠ ĠĠĠĠĠĠĠĠĠĠĠĠĠĠĠĠĠĠĠĠĠĠĠĠĠĠĠĠĠĠĠĠ
Ġdecre ase
) ).
the re
ĠSt ation
ook s
Ġyoung er
ĠW in
195 8
us hed
c ert
Ġcon nections
W idget
ĠS us
W orld
Ġrad ial
D em
) }_
195 9
Ġpr ices
194 1
G S
Ã ±
sc ription
ĠF ire
hold er
ĠM arg
math it
Ġgu ard
Ġx ml
st rap
ick er
19 39
Ġteacher s
sh ort
R C
Ġesc ape
ra ise
w hen
^{ (\
hens ive
Ġtri p
Ġv on
Ġcomput ational
ĠSte ve
Ġ{ $
Ġv irt
Ġv eter
Ġsing les
ili ar
ĠS che
Ġclub s
re pre
ag ues
ĠO nt
Ġpro pose
Set tings
ĠC le
e ach
Ġfeel ing
osp it
Ġtrans action
() :
Ġret ire
194 8
+ (
u v
R ev
os es
Ġimpro vement
Ġsat ell
195 6
Ġdynam ical
Ġprinc iples
Ġquant ity
e en
Ex pression
Ġexpress ions
ĠScott ish
N one
Ġassum ing
ĠDav is
Ġsp ending
ĠS D
ic ing
ĠF ox
ĠL uc
D ist
Ġoff ering
ĠN az
repre ne
Ġdi pl
el lect
am i
w s
ĠR on
Hand le
w orth
ĠS i
ut ed
ort ion
Ġcover ing
ĠTr ue
Ġref ers
ĠV ill
ĠCamb ridge
ĠA k
Ġseem ed
sc ious
ĠAn th
Ġhypothes is
Ġincreasing ly
B rit
Ġdemonstr ated
AG E
Ġinst ances
M eta
Ġsec ure
ĠBe ach
Ġinter ior
ud den
195 7
Ġadministr ative
ĠD ate
ir ms
ĠVictor ia
c ache
ari os
IG N
Ġcommun ic
Ġinvol ves
ow a
Ġdestroy ed
enc ing
Ġnon linear
ĠA ction
r ine
Ġanaly z
ĠMin nes
ĠN O
Ġterrit ory
ĠB on
re ll
Ġgrad uate
ge bras
Ġap art
Ġ ^{
Ġd iverse
} ~
Ġcan onical
Ġworld wide
Cons ider
red it
Ġneut ral
ĠT al
V er
X ml
h ash
Ġtw enty
Ġconsist ing
F OR
194 3
per ial
Ġmagn et
Ġillust r
Ġspe aking
in ternal
Ġsepar ation
Ġc art
Ġ ::
Ġvar iance
Ġsp end
Ġw arn
cm d
ĠP ers
Ġm ort
st op
ac cess
ro ke
Ġv ice
Ġde leg
es ian
b efore
Ġsent ence
ache lor
Ġsign als
web pack
Ġbase ball
Ġasympt otic
ĠL ear
Ġn amespace
Ġmix ing
Ġp it
u zz
ater n
Ġin fo
}} =
ĠAir port
M ain
ĠSt r
ĠMar sh
l arge
R I
ĠDon ald
Ġr ain
. âĢĻ
Ġs izes
ĠV ice
ĠOn ce
ĠMinnes ota
An y
ĠAp p
St ore
Â °
ĠL ater
Pro of
Ġsett lement
Ġref uge
ĠEx ception
ĠV iew
Ġd ialog
ĠWh y
Ġher self
ir ation
un a
") );
ick ing
sequ ently
__ (
ĠAN D
t oken
Ġsuff ered
ou pl
Ġmult ip
ask a
Ġgeneral ized
ï ¿
sup er
Post ed
Ġcorre ction
oot strap
D I
Ġent itled
ĠSt ock
p erson
s n
Ġrec overy
an th
Ġv ent
Ġdr iven
Ġpotential ly
ii i
ĠC A
b its
Ġlink ed
E rr
R ed
ĠI P
ivers ary
P ass
Ġknow s
Ġj ump
ĠR equ
CO DE
Ġdes cent
ĠHig gs
ell o
in ating
Ġover ride
ĠR ight
res ol
Ġf aster
ĠKore an
ag g
) ),
ĠIslam ic
a is
Ġarrest ed
Ġsol o
ve ct
conn ect
ĠL ind
Ġconserv ation
Sy mbol
Ġarg ued
Ġl icens
( *
at iv
N G
Ġre venue
ĠC H
u able
om ent
Ġind ependence
ã Ĥ
ï¿ ½
Ġm es
Ġsens itive
Ġc ash
Ġgrad uated
ĠA sh
ĠS em
pro fit
Ġim possible
c lear
ĠE rror
V ari
Ġprogram me
Ġan imal
Ġhundred s
Ġv otes
ĠTur key
Ġtru ly
are t
\ }\
ĠB and
Con nection
Ġcontrol s
jav ascript
sub sec
f riend
b order
Ġap plies
Ġver ify
Ġpurch ase
Ġsepar ated
Ref erence
ic ide
reg ular
P arameters
ĠH un
\ }$,
ĠF unction
ĠC as
ĠA venue
H ence
Ġcrit eria
ib ration
HT ML
AC T
Ġeas tern
ĠM ic
ou ri
p red
S QL
ĠL ive
w ill
Ġfeat uring
Ġ rom
Ġexerc ise
ap ore
Å ¡
ĠOr ig
Ġprov ision
spec ial
Ġprov ince
clos ed
Ġcorre ctions
Ġmarket ing
ĠIn f
Ġvers us
rel ation
Ġpropos al
nt ax
Ġpar se
Ġop posed
ĠB efore
Ġrequire ment
ost ic
us al
M any
ĠS anta
fig ures
am l
Ġclass ic
ĠL O
ive red
Ġne ither
column width
Ġadv ice
Ġ ),
Ġcur vature
k ind
Ġwe ather
tikz picture
Ġfluct uations
_ ;
Ġl oved
Ġgu ide
Ġl ay
or i
f ocus
R ad
in er
ĠStep hen
Ġdire ctions
it udes
con sin
Ð »
P an
Ġ urg
Ġaff ord
ĠK ansas
Ġc atalog
re nder
re nd
Ġb ran
es ides
ĠC ov
Ġatt ributes
25 6
Ġst ead
Ġ\ (\
Ġemer gency
ĠF ellow
Ġar c
Ġtest ed
ĠIs lands
ĠT ok
ĠG ree
& =\
Ġdoub t
ĠBel g
ann a
Ġdeterm in
Ġa cknowled
ut ely
L emma
Ġs ought
Ġphot ograph
Ġautom atically
$- $
Ġconstit u
ĠW at
Ġwh atever
d ict
n i
ag an
ĠPr inc
Ġab andon
Ġaff ili
ĠH ard
Ġstand ing
Mem bers
ĠColor ado
ĠIsrael i
Ġab stract
Ġg ained
194 6
Ġexcell ent
Ġk id
ĠBook s
Ġcommit ment
Ġp m
ERR OR
M r
ur st
Ġf ant
Ġfl ood
class es
Ġd ashed
Ġfind ings
Ġmov es
au x
AT A
cy cl
Ġs oci
Ġfac ilit
Sche ma
Ġsh aring
og ram
Ġsched uled
ach ine
P ublic
res p
Ġfound er
h ave
Ġim ply
ag a
} |\
ĠB et
N C
% ,
Ġd uty
Ġele v
J an
Ġdocument ary
b ed
ĠM ir
util s
are st
P ORT
O O
St ep
un ing
B ody
19 18
I ter
âĢ¦ âĢ¦
Ġdrop ped
Ġfav our
ir ical
Ġpass ion
195 2
M ost
ĠW ars
Ġsup ers
ether lands
Ġreturn ing
pl us
k es
Ġappro ximate
is or
Ġdomin ant
Ġcrow d
T A
Ġare n
multi row
H L
eng ine
ĠGr ant
rep resent
pr ise
Ġf ish
Care er
ĠM icrosoft
unn el
195 5
aw n
ĠSt ory
194 7
] {\
Ġ Î
e h
\ |\
function s
ĠN AS
Ġexper ts
ĠS ym
N ov
ap h
Ġp ray
Ġhum ans
ak ed
comple te
Ġgravit ational
Ġcre ative
Ġcho ices
ĠT am
ĠJac ob
ĠVal ue
Un ited
F ont
T ool
ĠI mm
On ly
Ġgovern ments
ĠN ever
Ġl osing
m al
Ġeas ier
mer ce
Ġvis ited
Ġmole cular
Ġfeed back
ĠAr gent
che stra
arthe ta
ro g
Ġsign ature
Ġpop ulations
ic ons
iz able
ĠH ay
in ian
arg in
Ġwor st
ĠH ou
Ġan om
Ġannoun ce
Ġc as
Ġocc asion
More over
v artheta
Ġint ent
ound ed
Ġon going
ĠA rizona
he red
ut her
En c
Ġsign s
hold ers
Un iversity
f amily
Ġend ing
Ġwill ing
) })
by te
Ġc ryst
rop ical
ĠOnt ario
n n
ĠI V
Ġchalleng ing
De cl
ĉ ĠĠĠĠĠĠĠĠĠĠĠ
Ġpoint ed
Ġin clusion
b p
Ġd x
ĠFore st
ĠLew is
Ġconsequ ences
Ġbring ing
Ġlo an
Ġsup pose
Ġde lete
Ġgener ating
Ġdiscuss ions
^* \
ur d
ĠSy dney
Ġtechn ologies
ur ches
ut able
Ġquas i
Ġpercent age
P res
re ement
fr am
Ġcap able
ĠTur k
ĠW indow
Ġdrug s
Ġb ed
op es
Ġd iversity
Ġ} {
ĠAd am
ĠGe V
Ġfact ory
Ent ity
B B
Ġprof iles
Ġsm art
and ra
Ġconsider ation
Ġpres ents
aw s
Ġrestr icted
Ġd ense
ĠD oug
Ġkey s
) "
Ġv ulner
Ġst orm
! \
ĠS ant
Ġt itles
out s
D T
Ġreal ized
195 3
================ ================
ĠPer form
ĠG ro
dev ice
Ġc ook
Ġd ress
195 4
Ġsub stit
: =\
S k
H ar
p resent
d ebug
Ġeval uated
Ġst rip
em et
ĠB ush
ak h
Ġe cho
ant ry
Ġ ,\
Ġph ases
ul ating
child ren
qu arters
Ġ\ ,\
Ġen forcement
Ġrestrict ions
Ġst ages
Ġcoupl ed
ĠCount ry
ĠâĢ ¢
C ap
Ġsee king
ĠB ul
Ġdef ines
Ġvac uum
Ġent ertain
w ave
Ġh alo
Ġpres c
Ġt ight
ot on
ex ist
ĠL ady
d ouble
Ġdom inated
hand le
ing ham
Ġsc ulpt
Ġoper ate
Ġin her
Ġcom fort
ch ain
m ad
Ġd uration
ip her
ĠAp ple
ĠT y
Ġro ots
reg on
Ġprodu cing
c ow
Ð º
Ġvacc ine
Ġin ject
ra ve
Ġad vers
gr ade
ĠAtl antic
Ġw ww
igen ous
A uthor
ĠM iller
sl ant
Ġproper ly
y al
Ġpriv acy
Ġperman ent
Ġh ierarch
Ġc ref
ud a
Ġdec ide
Ġwait ing
Ġrespect ive
P RE
U LT
Ġpre v
Ġrequest s
M atch
Ġg ather
Ġp arams
Fil ms
: #
Ġbound aries
Ġown ers
Ġoffic ially
ship s
ĠN E
ms g
U RE
Ġrapid ly
B M
Ġflow s
ĠW el
Ġappro val
Sup pose
p ower
Ġl it
By tes
ys ical
ĠComm unic
ĠComm and
Ġb an
ĠAnt on
Ġperiod s
P arent
ĠMem orial
Ġbank s
Ġinter mediate
id ay
m o
Ġind ices
@ {
Ġsc ores
Ġgu ess
Ġpay ment
ĠK ir
Ġfavor ite
= .
Ġsp ac
194 9
Ġdel ivered
Ġdisc overy
Ġprec ision
C I
ĠS at
Ġprom pt
Ġbring s
Ġcour ts
ĠF ac
Ġn ations
ĠT urn
IT Y
Ġconcern ing
Ġt rib
ze ch
Ġliqu id
Ġreport ing
Ġv ess
Ġproport ional
Ġcom plicated
qu ant
ĠRes ult
Ġperiod ic
B P
st yles
web kit
Ġsil ver
in stein
ĠB ad
Ġcon d
- (
Ġaud io
ĠAg ency
Ġe c
maz ing
Ġsur g
ĠPol ish
ĠCom put
ĠJ ordan
Ġinst ant
Ġdis appe
ĠL eb
n ight
G A
Ġstring s
ol i
W A
dom ain
Ã £
] ]
Ġre nt
Con st
and y
iss on
is ot
ST ATE
Ġorient ation
Ġeng aged
d elete
inter face
r ig
Ġg ate
ĠCont rol
ak s
ir ty
Ġwould n
rad ius
ĠM ill
Ġm ob
com ment
Ġprom ise
Ġv ast
Ġstudy ing
Ġund ert
Ġstrong er
m aster
ĠOb serv
In valid
Ass ert
AN T
Ġv ideos
J o
ch annel
ĠDu ke
B N
f all
Ġtri ple
Ġinc red
Ġbrief ly
ast e
Or ig
Ġsch ol
igh th
Ġw inter
y ers
Ġat oms
og onal
ĠS on
Ġtarget s
OR D
Ġsur ve
ĠA L
\% $
neg ative
Ġpro hib
Ġwor se
Ġcomp lement
ĠS E
Ch rist
dep th
C F
Ġperturb ation
Ġabsor ption
um a
Ġout come
ĠWis consin
Hel per
ĠSh ort
195 1
Ġvari ations
Ġpost ed
pt o
ĠV en
ĠS a
ow nt
Ġpl as
Ġsubstant ial
ĠViet nam
ĠC reek
Ġhot el
se lected
Ġr aw
Wh y
ĠReg ion
t im
Ġatt ached
Read er
Ġappear ances
Ġser ial
. \\
gress ive
Ġleg end
AC E
ĠH o
ure au
med skip
g b
Ġnot able
Ġconsum er
ĠA D
ff ff
Ġcomplet ion
call back
Ġc odes
w as
Ġuncertain ties
Ġst ret
ĠSta ff
Ġw avelength
Ġcont ributed
H ttp
Ġpresident ial
( -\
Ġis ot
Ġ }}
Ġle ct
om atic
h d
R oot
ĠO t
Ġw rap
\! \
ear s
Ġparticip ate
Ġad vent
Ġmount ain
ĠM S
secut ive
ĠA ge
i ative
f ol
ĠS O
ĠL ore
bold math
ĠR est
Ġch ampion
Ġscen es
% .
Ġprodu ces
Ġjo ining
Ġaccom mod
H as
anc ell
Ġm ock
ĠT ai
Ġfound ation
rang ian
Ġmusic ians
ĠB ru
ĠGold en
c opy
Ġk in
back slash
duc ible
) ^\
hed ral
Ġsp oke
Ġn aturally
Ġeigen values
Ġp adding
con str
ĠCons ider
Ġhab it
ian g
Ġassess ment
Ġmet rics
S ession
ĠN etherlands
Ġt ack
Ġcol our
Ġrem ote
Ġfac ed
T ER
F ollowing
type of
n ames
ĠRail way
bo olean
Ġfor th
ĠA P
Ass oci
ĠB udd
is a
bour ne
Ġpar liament
ellect ual
Ġl ens
itar ian
Ġexplan ation
ord on
ĠBro ther
Ġdet ector
ĠMod ern
cl ine
ĠD am
Ġconcent ration
emet ery
ĠL es
C ore
un es
ĠAre a
Ġp ed
Ġcharacter ized
ĠD om
ĠMary land
Ġcontinu um
st ore
Im pl
ĠS ign
Ġport ray
Ġst ored
Ġre ward
ĠN OT
not ag
Ġequival ence
Ġredu ces
X i
r ac
Ġl ose
Ġ( '
Ab out
ĠM ilitary
add ress
Ġhost ed
Ġadj acent
)-- (
equ ations
Ġemploy ee
Int eger
Ġdoll ars
Ġby tes
Ġm el
ĠL iter
Ġb ought
down arrow
ex ists
ĠR ose
Ġgovern or
Ġde ploy
S outh
D oc
Ġs leep
Ġord inary
aw are
H igh
Ġk illing
Ġconvert ed
phant om
Ġpurch ased
col n
Ġexhib ition
ĠL td
Ġrank ed
Ġconvers ation
ĠH art
Ġstop ped
iv als
Ġexpl ains
Ġscen arios
script scriptstyle
ut enant
Ġloss es
Ġst ochastic
A v
ĠArt icle
D el
r ase
ĠHol y
Ġw alls
ĠS oc
ĠOffic ial
Ġs udden
Ġview ed
L in
s end
Ġse vent
ĠHol lywood
ennes see
Ġy ards
coh ol
Ġelect rons
to String
ĠE s
Ġcour ses
~ (\
os a
ab et
re place
* \
}\ |
Ġprom oted
t ra
b uf
As ync
Ġdeliver y
Ġman age
Ġnormal ized
Ġst one
Ġjur is
ĠO cean
v m
is ition
A E
ĠC art
Ġby te
G a
Ã¡ n
ĠB ridge
Ġsit uations
Ġstrateg ic
Ġres istance
ĠB all
Ġth in
` .
er on
ple ments
Ġamount s
Ed itor
Val ues
V ector
Ġdis miss
Ġproced ures
ob serv
ĠS af
F alse
t or
s quare
ĠN umber
ĠAm ong
ĠF ord
Ġsim ilarly
Ġdeg ener
7 00
Ġconfig urations
C re
Ġw at
B undle
$ ^
& #
ĠM oh
Ġregard ed
Brit ish
ar ith
ĠT O
T itle
Ġsche dule
âĢĻ ,
Ġass ault
ele ase
Ġm al
Ġprec ise
Ġshoot ing
Ġen abled
ject ure
. ;
P od
Ġcon version
ov al
l at
d on
ĠF ood
Ġstraight forward
Ġsum m
Ġres c
! !
Ġmill ions
Arg ument
Ġenc oding
Ġfam iliar
ig ious
Ġent ang
Ġs ympt
T im
ok ed
Ġ$\ {\
ess ions
Ġcol le
L i
c raft
Ġcl ock
ol is
ĠEconom ic
ĠConn ect
Ġacc ret
eng ers
Ġte en
pos ing
Ġgu y
est amp
Ġh all
ul us
Ġa st
com b
Ser ial
Ġdown load
Ġiter ation
Ġmunic ipal
Ġan not
Ġuns igned
Ġst ores
Ġf itting
id ance
ĠIndian a
Ġadult s
Ġsystem atic
Ġch ose
ĠC R
Ġprov isions
Ġsubject s
: </
ĠE u
Ġconclud ed
han ced
Ġparticip ated
Ġris ks
Ġdescrib ing
Ġh ockey
Ġr aces
Ġinstall ed
^* (
19 36
C ast
Al so
ou red
Ġdefinition s
Tem plate
ĠT ro
R ule
ins ic
Ġf estival
Ġhead er
ĠAfghan istan
y ard
key s
M c
Ġ" \
Ġprem i
Ġsub sid
Ġ" /
Ġhoriz ontal
ĠP u
ĠN FL
Ġpain ting
Ġref used
Ġ+ +
Ġp y
ou st
Time out
}{ *
Ġacc used
Ġmod er
Ġp overty
et ary
ish ment
ĠPl aces
ĠSing apore
ual ity
Ġread s
ins ert
Ġcent ers
Ġel ig
ĠA ccess
ĠC ost
l ayer
se ason
ach ment
l ate
t i
unn y
Ġat omic
Gl obal
L R
Ġse ed
Ġp ot
Ġt ang
EN D
J ust
f ast
Ġl ift
Ġstrict ly
Ġs we
Ġca ught
19 38
ĠSt art
Ġexpl os
ĠDis ney
Ġexpect ation
S ports
par a
U P
Ob j
U L
ir cles
ĠB ra
E very
Ġ rows
enn a
Ġcompre hensive
ĠO regon
ĠCh annel
ĠT ext
ey n
ĠAnd erson
Ġcont est
Ġv o
Ġarg ue
Ġv oting
im m
ĠSt adium
ĠG allery
Ã£ o
Ġin hab
Ġre in
ĠHar ry
Ġput ting
Ġre aching
Ġorb ital
Ġsymbol s
ut ies
e val
Ġd ensities
St r
Ġdirect ors
Ġ ..
Ġw ire
ĠD ue
Ġexpos ure
v o
form er
ĠP age
IC E
w all
ĠTrans port
Ġphil osophy
Ġyour self
Ġl ists
Ġdefe at
ĠLe on
D iff
ĠSo ft
Ġh air
Ġdisc ipl
u on
Ġweek end
ĠM P
text color
ĠCom ple
t otal
ubl ished
ur able
fram ework
` ,
St ack
Ġconvent ional
Ġp iano
tain ment
Ġsche mes
M F
ĠA T
ĠH as
ĠL ow
Ar gs
Ġneigh b
th rough
=" _
Ġstrugg le
Å Ĥ
ĠT R
Ġpro spect
Ġcon secutive
ig a
Dev ice
Ġoff ices
ĠS ri
Ġillust rated
ĠCons erv
Ġcustom er
ĠA mb
ĠR aj
T ags
Ġheav ily
Ġcomb at
ĠQue ens
Ġf aces
if iers
Ġb its
ver age
ĠH al
ĠA z
ten ance
me an
con duct
n etwork
Ġident ification
Ġdanger ous
Ġsimultane ously
Ġcollect ive
Ġread ers
Ġjournal ist
ific ial
up arrow
Ġmed icine
ĠUkrain e
Ġsol ving
per or
ri ers
Ġcirc uit
ĠB iden
ut r
ĠCol lection
ik a
Ġd ict
Ġredu cing
Ġpro ud
Ġbelong s
Ġw ing
Ġf asc
ĠU RL
struct ure
F ound
az a
ar on
Ġpar agraph
ĠS C
a uth
Ġre tail
over set
Ġtop ics
el le
Ġb ow
Ġil legal
s ample
Ġtrans itions
C ref
ĠG ib
Ġpan els
Ġn ice
est ion
off s
Ġunivers ities
Ġwrit es
i pe
Ġinvestig ated
w iki
ĠSim ilarly
ĠW here
z y
stack rel
Cl ick
L oc
Ġmodel ing
ĠSur vey
Ġfrequ encies
iss ip
Ġpil ot
id al
Ġsup por
Ġconserv ative
Ġus age
Ġbelie ves
Ġvari ant
ĠH op
ĠT H
ĠSup port
13 0
t z
Ġlog ic
Ġstri ke
CT ION
art ifact
con nection
pro pto
_ ->
cl ick
Ġmechanism s
ut ing
olog ists
c ategory
Ġdisplay ed
ile y
$. }
Ġattempt ed
app ly
M usic
Ġeven ing
w rap
leg es
Ġnov els
b ec
Ġcoll apse
Ġuniform ly
Ġtransp arent
Ġsu it
ĠN ative
Ġw ins
ĠI l
Ġrestr iction
erv ing
$ ^{
Ġask ing
ĠF inal
sec urity
Back ground
? "
ab ama
ĠSwed en
Ġpolar ization
Ġoccup ied
19 37
con c
ĠM att
Ġ( *
par allel
s ession
Ġsurpr ising
Ġanal ys
Ġbro ke
Ġdiff usion
inv ariant
ĠS N
" `
Ġcol ors
S F
anc el
her ical
reg ion
ĠR oss
Ġbrother s
ĠBuild ing
ĠMe an
cor ollary
Ġsp an
ow ski
| $
Ġatmosp here
Ap plication
Ġfootball er
Ġexp ensive
ĠCap ital
F lo
Ġmembers hip
Ġsur faces
ĠHou ston
Ġthe atre
Ġp uls
ir th
Ġkind s
âĢ ¢
we alth
equ als
| ^{
Ġvary ing
Ġstre ets
ut ation
Desc riptor
Ġs elling
ĠMex ican
ĠTh ose
Ġtown s
19 17
ĠN ick
Ġcaus ing
conn ected
Ġsynt hes
ĠB rian
ĠMag azine
ĠSen ior
ĠK r
ĠAr thur
ĠPro b
ĠMiss ouri
! ]
z one
Ġlaw yer
19 00
Ġdef initely
ĠL em
ĠK now
ĠSup pose
Ġs ight
Ġprov ider
ad i
Writ er
Ġ elli
w ait
ĠĠĠĠĠĠĠĠĠĠĠĠĠĠĠĠ ĠĠĠĠĠĠĠĠĠ
Ġdesign ated
ĠW inter
Ġmanufact uring
f ix
B est
ĠD igital
> .
TE ST
ĠStand ard
Aust ral
ag en
st ates
M s
Ø §
Ġaccord ance
Ġm oral
Ġmaintain ed
Ġ[ ];
g rav
Ġconj ug
ĠB an
Ġ Å
is ations
( :
mod ules
ĠBr ig
ynam ics
Ġe lem
u id
l ie
Ġpart ially
Dav id
St ar
ĠT ask
ug ins
Ġs oul
Ġindic ating
Ġh ospit
p ur
ĠF ourier
Ġfac ing
IT E
ron ze
ĠD or
ĠC ulture
Ġqual ified
Ġex port
Ġdistrict s
G ET
c ross
out heast
Ġgener ator
iam i
fin ite
Pre vious
ĠT ennessee
Ġqu ot
Ġcre ates
ph y
Ġcan cel
ik ip
ĠCo oper
im it
Men u
oy d
ub le
H er
Ar ch
ĠI owa
ĠĠĠĠĠĠĠĠĠĠĠĠĠĠĠĠ ĠĠĠĠĠĠ
ER S
Ġvalid ation
viron ments
ĠAtt orney
Ġd ates
Ġin ternet
Ġtr ig
op ed
ĠComm un
Ġcoll ision
Ġwatch ing
ch anged
Ġse ats
Ġneutr ino
Ġbeh alf
Ġcr icket
ĠK at
aud i
m ony
sq l
ĠInd ones
our se
Ġs and
Ġd im
Ġgeomet ric
H R
or ient
Ġvot ers
Ġro yal
lim it
ĠG er
ĠN orm
inem a
Ġparticip ation
EX T
% ;
Ġ[ '
ĠG reg
Ġform ulation
mat htt
ĠDemocr ats
Ġresol ve
&= &\
Ġmeet ings
ĠSy ria
N um
âĢĻ .
Ġland scape
te ction
est abl
D elete
Ġaccess ible
D et
U se
s a
Ġpenal ty
Ġregular ly
Ġ< =
sup port
h fill
Ġim press
Ġgl ob
ogg le
j e
Ġcent uries
u z
ĠF a
Ġdeal ing
ĠCap tain
ĠPrem ier
are a
b ad
Ġsens itivity
foot notes
erm i
Ġgu est
' ],
Ġpass es
ĠL ink
Ġhand ler
ropol itan
F E
H om
w ords
ĠI T
P ack
S cope
Ġpl ate
Ġhy brid
ĠB alt
Ġconsum ption
Ġdecre ases
Ġcarry ing
Ġse es
Ġh aven
ĠT ony
Ġo k
Ġdist ances
Right arrow
iam ond
v c
Ġsp here
Ġcompos er
Ġlist ing
Ä ±
ĠL ank
O wn
ĠAddition ally
ĠMos cow
Ġcompar able
A nt
Ġisol ated
Ġexecut ed
ikip edia
Ġcross ing
$\ ,
Ġc ab
19 19
ĠD M
Ġexhib it
end a
) }.
ĠSc ient
Ġsignific ance
orig inal
Ġmunic ipality
ĠB arn
)} (\
ĠD ark
Ġf ranch
v ance
Ġderiv atives
Ġh un
Ġdiagram s
ĠAr k
Ġplatform s
Ġpresent ation
Ġmod ules
Ġhom ogeneous
ĠS ky
Ġas sembly
Ġl yr
Ġperm ission
l ass
ĠLeg isl
Ġte ach
B as
ĠC urrent
ĠDef ense
Ġaim s
g p
{ (\
Ġreject ed
ĠCol on
text up
R ect
ro it
Ġneigh bour
Ġdes ire
G M
Ġprot est
edd ing
} /\
19 14
1 15
1 12
Ge V
Ġrel ief
ĠReg iment
A ng
wid get
Ġmet all
Ġhousehold s
ĠÂ »
diff erent
Ġt itled
Ġf its
Ġenem y
Ġ _{\
) (\
T IM
Ġestablish ment
Ġdisp ersion
Ġwin ners
ĠIm age
ĠHar ris
ail s
Ġcontinu ing
ĠAl f
up l
ol id
Ġdep ict
ĠSim on
Ġch airman
footnotes ize
Ġc od
m aking
Ġhor se
' _{
T ube
a ired
ĠÂ §
ast y
Ġbo ys
Ġch air
ow ered
ip art
ĠGree ce
ick ets
j u
Ġre nder
us cript
st an
ex ception
Ġold est
um ps
Ġob st
ĠH an
F ull
s ome
ĠN ig
Ġcompet itive
Ġg ar
set tings
Ġpro position
SS ERT
d ensity
Ġtop ology
ap shot
ĠC ru
St orage
Ġdec or
19 33
er ion
Ġent reprene
Ġde viation
ĠLin coln
os ed
c ustom
ĠR oll
pl es
L o
fl at
N etwork
Ġmur d
B en
ĠP ut
Ġwork er
l an
Ġinv ited
nabl ed
rate gy
S V
se p
Ġh its
Ġw a
Ġun us
g ather
Ġrequest ed
Bo olean
Ġgrow n
ĠD er
St ud
ĠDi ego
ib l
ĠLab our
Ġl aid
Ġm it
ĠM it
c b
Ġdemocr acy
ĠP itt
cul es
ativ istic
ĠMount ain
Ġbut ton
Ġinvest ors
ĠT erm
con v
w eg
Ġpubl isher
ĠFin ancial
w ho
}^{ +
ĠT reat
l arg
Ġk il
ĠCh ap
r andom
ph ase
O pt
Ġexp at
U C
up loads
ĠPro cess
In ternational
T ab
Ġcont roller
19 35
Ġre vers
SE T
Ġinfl ation
al let
rom agnetic
doc s
Ġd ip
Ġguarant ee
Ġclass ified
Ġadapt ed
Ġun iqu
ich ol
Ġde let
Ġbur ied
ĠMar ia
ĠMo ore
Sec urity
Ġcounter part
Ġsc r
ĠĠĠĠĠĠĠĠĠĠĠĠĠĠĠĠ ĠĠĠĠĠĠĠĠ
B ecause
Ġstruct ural
ĠJ ane
Ġinput s
COL OR
left arrow
l ower
Met adata
Ġquad ratic
or ous
ig ate
sp in
Que ue
Will iam
ĠKenn edy
pl ugin
Ġanaly tic
Ġc reat
Ġprior ity
P aram
Ġdecl ine
Ġenjoy ed
Ġcon crete
pro perties
c ers
roll ing
ĠG h
Ġag ed
ah oma
_ ,
HE CK
Ġa mazing
Ġhon est
ĠF uture
ĠPhil ip
Ġtempor al
dis abled
w t
Ġman ip
Ġst abil
Ġsub mitted
ĠA h
ĠC ab
qu es
AT H
Ġinnov ation
ĠB G
-------------------------------- --------------------------------
g ov
um ul
ĠPh ot
$ '
L eg
t ion
Ġconcept s
10 5
ĠE ric
ĠR a
Ġf ib
m ag
ĠB ureau
Ġemot ional
Ġcap tain
ĠB ishop
writ ten
ĠN a
Ä į
Ġabsol utely
M I
Ġassoci ate
import ant
Ġem issions
ail ing
Ġanaly ze
Ġinstance of
Ġrat ios
ĠAll en
A ug
Ġsc oring
over s
ic ut
ĠK al
Ġde pos
ĠS ix
Ġg iant
Ġhealth care
ĠMar ine
Ġmin ute
}$ \
Ġcr imes
p air
ĠCl inton
ock er
Ġour selves
ĠM L
Ġown ership
Ġprep are
ĠSwed ish
ĠB att
ub y
Ġen semble
Ġdis order
ĠSt one
ow ed
w ick
Ġ-- -
Ġarm ed
h ang
Ġap pend
ĠDo ctor
her ic
Ġturn ing
Ġground s
A lex
l ook
Ġp aram
T ra
Ã© e
H D
ĠInd ex
' ))
ĠS av
part icle
Ġappe aring
M ich
ser ies
ĠEnter tainment
ĠB or
Ġcut s
ĠHar vard
d ash
M edia
Ġtru ck
ĠĠĠĠ ĠĠĊ
Ġre ly
Ġresid ual
C ustom
Ġcorrel ations
ĠPhilipp ines
19 29
Ġdef ining
spec ific
Ġtraject ory
Ġb atter
="../../../../ ../
14 0
Ġval uable
Ġretire ment
ĠCast le
z o
*} [
19 34
ĠSe ason
Ġobvious ly
el and
Ġtalk s
Ġin valid
Ġaccom pan
Ġwhen ever
N D
ĠT en
ĠM rs
Ġair port
il ty
Ġre construction
Ġrac ial
ĠB ible
Ġsound s
aut o
m argin
idel ines
Ġviol ation
N T
Ġdest ination
iv ation
ĠP ath
Ġprote in
ĠFr ont
ĠJ am
V ideo
ĠGu ide
Ġlimit ations
Ġcount s
ĠMed al
sing le
at ar
Ġaddress ed
ail ure
ĠTh ird
the w
init ial
Ġpre gn
is en
ĠO s
Ġprov en
Ġcompat ible
Ġcor onavirus
ĉ ĠĠĠĠ
Ġg ene
f act
en v
Ġvisit ors
Ġv oted
ĠC NN
____ ____
Ġengine er
Ġadm itted
ĠS quare
Ġbas eline
Ġinflu enced
a ire
Ġassert Equals
ĠMon te
im its
Ġtem porary
Ġk ick
Ġconven ient
By te
ta h
Ġshe l
E nabled
Ġt elling
qu ir
S pan
OD O
P arser
ĠDe ath
ĠP C
Ġpublic ly
Ġupd ates
Ġy ellow
D en
Pol it
ĠI O
Ġf ought
Ġmanag ers
Ġv ocal
Ġrel ating
el son
Ġin line
Ġarr ival
ĠAl abama
Ġgu ys
ĠM oon
ĠBl ock
Ġlik elihood
Ġill ness
Ġtrans verse
ur ric
Ġann iversary
he et
m f
el ve
Ġb rowser
be an
ram ework
Ġfor g
{ |
ĠC zech
f ire
ind s
lik ely
ok ing
Con str
E ven
Bl ack
Ġfocus es
Ġtransform ations
ĠV ari
Ġm ilit
ĠB at
Ġsett led
t ex
n od
ĠP ier
Ġcrit ics
w estern
Ġdis cret
Ġfall s
ĠR yan
se m
Ev ents
Ġdef ect
Ñ ĥ
Ġjud gment
ĠN ev
ĠTr ade
itzer land
od ge
Ġdeterm ination
Ġob lig
Ġliter ary
clos ure
ĠF ederation
cl oud
Ġ( âĢľ
Ġfe els
Ġrepl acing
Ġapparent ly
Ġaccret ion
D ialog
id ers
Ġc ub
Ġtra v
Ġdirect ory
Ġalgebra ic
ĠP sych
ĠRec ord
M ember
ĠD aily
Ġnegot i
Ġr uled
Ġ} )
O ct
ĠPat rick
ĠU V
ĠD iff
Ġhoriz on
ĠMal ays
ob uf
ĠJ SON
Ġrecomm ended
_{ +
ĠReg ional
Ġsol ved
11 1
artifact Id
Ġrecogn ize
el ian
J S
Ġcompl iance
ĠHe art
p adding
Pat tern
ĠP R
ĠA thlet
ĠDef inition
y es
Ġw arning
ĠR eb
Ġtal ent
sc reen
Ġcommunic ations
Ġweight ed
all as
Ġindependent ly
p ot
W est
D raw
Ġex ports
Dat abase
Ġd t
ad min
Ġdr ivers
Ġgu idance
os l
new s
ous es
ang a
ĠP A
Ġbench mark
G raph
in line
ĠPe ace
GB T
19 10
ĠPro t
Ġfail s
ob by
Ġa str
Ġirre ducible
ĠD ream
Ġout comes
Ġant icip
Ġr ising
kl ahoma
Ġinvol ve
Ġm il
) >
ĠS ab
Ġd a
ĠG rad
Ġtype of
g ments
p atch
ad ian
mon th
Ġst im
ĠTem ple
}. }
ĠV ersion
Ġentertain ment
ĠWindow s
Ġhealth y
ĠMar c
Ġr uling
ĠAG N
requ ency
Ġsuff ering
ane ous
Ġa ug
Ġaut hent
ĠMan chester
ĠTok yo
ers et
grad uate
R est
ĠR oy
Ġfew er
Dis play
sp ring
ĠN av
Ġref lection
Ġextract ed
ip ped
G O
th ick
Ġshort ly
F M
\, {\
Ġregard less
res pect
ĠCh ange
Ġform ul
B ook
Ġorth ogonal
m ay
l ined
Ġsympt oms
ownt own
W here
Ġpolynomial s
Ġsustain able
t ensor
onym ous
ĠU ser
Ġque ue
) _{\
ado op
ch ant
Ġb inding
S end
Ġcompet ed
s is
h ire
ele gate
small skip
Ġo s
Ġdiff er
o is
sim ple
om y
Ġconv olution
Act ive
c am
ĠLag rangian
al ion
ang el
Ġembedd ed
ĠHow ard
Ġdistingu ish
Ġto wer
app oint
ĠKent ucky
Ġneg lig
Ġfin ance
o es
Ġre ar
S em
ĠP ot
l ights
overn ment
ĠN ob
ant e
ul um
Ġst ake
ĠR ow
Ġrob ot
ch a
d am
ern ame
ï¿½ ï¿½
g ar
m ask
Ġcooper ation
ffic ial
ĠR oute
Ġphot os
Ġnarr ative
old s
M ock
Ġdraw ing
st ud
ĠM un
Ġiniti ative
ab out
ĠD ick
$\ \
ĠJ oh
ĠD NA
Ġreal ize
Ġar ise
iem ann
Ġch ap
Ġt ab
ĠArch itect
Ġen vironments
Ġnom inated
ĠAuthor ity
Ġcere mony
pro file
pon s
Ġsl ope
Ġs ending
Ġphenomen on
Ġthous and
ĠC ustom
Ġsh arp
) &
}) ^{
Ġsyn chron
in th
ĠD at
Ġst ood
Ġequ ally
Ġrepl acement
Ġex posed
Com mon
ĠL ib
Ext ension
Ġtr igger
ev ents
Ġf unc
Ġint ellectual
Ġf ul
V E
Ġs in
Ġinstr uments
. $$
Ġencour age
l u
ĠM C
arn er
//////////////// ////////////////
Sh ow
Ġexam ine
Ġg ift
Ġphot ons
Ġint ention
Ġent ering
ia h
ĠC P
Ġrandom ly
Ġclos ure
h over
Ġinv ent
) ">
Ġf ly
Ġreson ance
Ġpseud o
F unc
E uro
ro c
per iod
cor respond
19 32
ĠG ram
Ġhol es
Ġconsider able
Ġc ounsel
Ġtot ally
ĠMark et
Ġferm ion
ail ability
ee per
ex pect
n m
n ol
Ġsatell ite
Field s
amb ig
Ġm ine
Ġtransport ation
Ġimpro ving
ov en
Ġre verse
Ġpublic ations
Ġpix el
Ġfair ly
Ġb ars
ĠDe ad
Ġtrad ing
v y
ĠY et
le e
inc ial
Ġs ons
issip pi
Ġdom ains
I X
Ġsim plicity
Ġp ra
n one
Ġsim ulated
Ġent ities
b etween
ar ry
re v
ar o
Ġfram es
ĠB ry
ĠE mer
ĠAnth ony
ro le
& &\
Ġcomp aring
Ġd il
b urn
d oor
Ġgr ade
sum er
Ã ¢
P ool
Ġp ione
Ġign ore
Ġc raft
Ġturb ul
Ġrel iable
\| _
ĠCont in
Ġex it
Ġinterpret ed
b c
Ġadd s
m oment
ĠDef ault
Ġelement ary
ce il
Ġ\ |\
Ġ\ [
Ġ$ ^{
var rho
ĠD O
Ġd ry
ĠC ook
Ġim posed
Ġsix th
Ġcl ick
mod al
Ã ¸
ĠJ ay
ĠM iami
> ();
Ġsk in
ex port
Ġmov ements
Ġal cohol
ĠA S
ĠA st
F ix
ĠY es
p in
19 28
ä ¸
prob lem
Ġ' /
ag u
Ġinst ruct
ĠW ol
ĠE arly
ET H
H am
Ġconf ident
Ġgreat ly
Ġfrag ment
ep ing
=\ {
ĠCh airman
ore st
ĠB ah
ĠJ enn
' >
ol ly
ater al
l m
em pl
Ġfound ing
+ $
v ia
ĠA I
ĠAl bert
ĠN atural
Ġr anges
B ased
Ġform ally
ap plication
ĠPh oto
Ġr acing
u its
se par
Ġinform ed
ĠHT ML
ĠSer b
uns igned
Select or
Ġrespons es
i est
S pace
W omen
Ġfl o
Ġreve als
s ym
Ġtri als
ene z
ab ric
PY G
ĠFor ces
Ġpar ish
group Id
ĠB uck
Ġs now
const ant
W R
Ġcon vention
item s
Ġabund ance
w ich
iss ue
Ġm eta
Ġbig ger
ĠB os
Ġequip ped
{ .
ard o
ĠOn line
Ex ec
Ġcirc ular
Ġinj ured
ĠH MS
ĠF all
ine ar
Ġep och
ĠPro p
Ġf ault
Ġslow ly
ut s
elf are
ĠB urn
ac on
ĠCon vention
19 15
ator ial
ĠT a
ie val
S Y
Ġcons ent
C opy
] ^
Ch annel
Ġliber al
Ġdr ag
ĠOrgan ization
fol io
y g
bin om
S ur
l ad
)) )
Ġtax es
h us
Ġden ied
Ġkin etic
Ġplas ma
ĠE c
Flo at
X T
Ġsus pend
Ġdifficult y
ĠM ake
com put
usal em
Ġdise ases
Ġf iber
Ġf olk
er k
E P
FI LE
Ġaware ness
ĠL as
Ġresol ved
ĠS quad
ĠJ ava
Ġre putation
equ ate
Ġanc est
b d
im ore
B el
ĠG ard
Ġleg it
ĠK evin
Ġsurg ery
Ġcorrect ly
L ock
Ġf at
Ġspirit ual
pro ps
vious ly
he im
Ġn urs
On ce
Ġl es
Ġelect ro
be ing
ĠAl ice
20 23
Ġt err
and o
Ġwith draw
Ġeth nic
Ġhapp ening
Ġac id
Ġadapt ation
Ġrad ical
Ġev ident
g ame
is cal
Ġemp irical
ĠT ax
Ġinterval s
oc a
ĠYou Tube
Ġindu ction
\ },
[ $
il st
im ated
Ġmere ly
Ġcon front
Ġch urches
RO M
Ġg od
ĠSar ah
19 22
. __
Ġbran ches
she et
Ġs itting
Ġro of
U D
Ġsub space
Ġch iral
Ġmarg inal
re tt
Ġhead s
ĠC it
Ġ ~\
ĠB eng
Ġpriv ile
ĠSystem s
att ribute
ĠS ound
Style ID
Ġreg ression
M sg
Fl ags
Ġb are
Ġb id
is ons
Ġ" "
Ġrepresent atives
Ġpoet ry
Ġchild hood
Ġdesign s
c ounter
E st
an es
ĠCh all
al ities
ĠF ull
ĠE P
}{ {\
reg ister
Ġconsum ers
ĠAtl anta
19 27
Ġat om
10 2
i at
ĠP ay
Ġb atch
fr ag
ĠHaw ai
D ebug
u ity
Ġstead y
ass um
weg ian
Ġcorrespond ence
Ġmonitor ing
m ove
ĠH ilbert
Ġp up
Ġpref erred
AR Y
Ġcopy right
ĠJud ge
i Äĩ
Ġregist ration
grad ient
S cale
Ġrestaur ant
Further more
ct rine
â Ĩ
Ġout standing
Ġste el
eg as
ĠRober ts
ĠL anguage
new line
Ġmiss ed
Ġincorpor ated
Ġmorph ism
Nav Bar
Ġag es
Ġmin ing
ĠU pdate
ĠS ite
che ll
Ġim plicit
Ġsus pect
A pi
B bb
FA ULT
od ox
Ġimpro vements
cre en
th an
at ivity
Ġcoupl ings
T erm
an aly
ur se
g i
Des pite
ition al
Ġl ayout
Ġre named
D L
ĠG ets
Ġsmall est
sh op
Ġt all
19 31
Th rough
Ġsw im
Ġprof it
ĠO ak
S ym
Ã º
Ġattack ed
Ġlif etime
Ġ\ {\
co in
19 16
19 21
ut t
Ġm or
ĠCor ollary
i ot
S pe
Ġp ipeline
ĠP as
Ġc ircles
Vol ume
t ics
ord ered
Ġbl ow
if ting
ĠHer itage
Ġman ifest
pan el
det erm
R ober
KE Y
c over
Ġinter pol
Ġfil ename
ograph ical
Ġp ictures
ĠN GC
ĠC opyright
ĠFred er
ĠHot el
oun ced
ap olis
n ie
G P
Ġelse where
Ġprom otion
Ġdis abled
ri k
Ġcol lections
Trans port
Ġreal istic
Ġreve al
m ont
ĠN ode
ĠV ideo
Ġtransl ated
ĠM as
mult line
-> _
Ġcho osing
ĠHigh way
h ome
Ġcompet e
Ġj av
sc roll
iz ers
ĠEq s
d iction
ĠT an
ĠSw itzerland
ĠD omin
ĠT rib
Ġal ter
Ġrese mb
Ġaff airs
Ġeng age
l ay
ĠF alse
P ersonal
Ġcondition al
ang o
arg o
Ġg ay
19 24
ĠCommon wealth
Ġ( _
Ġwalk ing
ĠTurk ish
od a
Ġhydro gen
ro b
Ġ{ $\
Ġen hanced
Ġleg acy
ĠĠ čĊ
19 25
f ather
as p
ĠAn alysis
aint iff
Ġpres erve
Ġinf erence
Ġm sg
ĠTh ough
F IG
ĠKel ly
ed it
} >
N orth
cept ions
ĠE lement
Ġspec ify
ĠB ab
ĠMel bourne
comple x
ert o
Ġexpand ing
ibli ography
ĠY outh
Ġprint ed
Ġre construct
Ġd uties
Ġocc as
Ġt on
ĠP a
Ġseg ments
eles cope
ot ten
Ġgen etic
ĠQ CD
Ġcomp ris
) }$.
Ġfra ud
Ġelectric ity
Ġfe e
dition al
ĠR ic
aw ay
big cup
Pl ay
ĠM and
ĠB ox
Ġman uscript
m atic
ĠAl gorithm
Ġcele b
Ġb aby
Ġdef ic
J ames
\ }.
Ġlyr ics
ĠAn ne
19 12
Ġse ctors
Ġs aved
k h
Ġcr ash
Ġfe as
rid ges
ph an
Ġhe ter
m ock
ĠDet roit
ĠRepresent atives
Ġrequ iring
n umer
em ed
ĠC ape
Ġadvert ising
Ġcon sole
Ġfl ags
h adoop
ĠCh apter
ĠDe ep
assert Equals
Ġg uns
ĠK han
ĠCon st
Ġre aches
l oss
Ġreg ulation
ĠPro perty
Ġmathemat ical
Ġmain tenance
Ġut ility
ĠWh it
Ġh al
assert Equal
In ternal
F ree
U ID
tr ivial
mid rule
ind ependent
f ixed
] =
Ġimm igration
ĠO klahoma
G erman
ĠG all
Ġschol ars
Ġre normal
ĠĠĠĠĠĠĠĠĠĠĠĠĠĠĠĠĠĠĠĠĠĠĠĠĠĠĠĠĠĠĠĠ ĠĠĠĠĠĠĠ
ĠTai wan
Ġref ere
P AR
/ .
Ġm art
Pro position
sp ir
ON E
MA X
Ġsucceed ed
G G
Ġproject ed
Ġfor get
y ou
Ġw rest
10 4
ĠP rior
ili ary
ĠF ame
D ay
ch arge
^+ $
19 26
à ¸
op ol
_{ -\
C ent
def n
ĠS n
ik h
ĠEx per
ĠW ind
Ġover se
J u
tx t
rec ord
Ġelig ible
ang ers
Ġform ing
Ġdiscrim ination
! âĢĿ
Ġgu ilty
M ac
k ern
ĠF ather
Ġt ens
l ades
F amily
Ġhead quarters
Ġcompens ation
Ġbuild er
Ġ ).
que ue
10 3
ĠAp pe
Ð° Ð
Ġpref er
Ġcosm ological
ĠL yn
=" -
ĠDe b
Ġtherap y
K e
P erm
Ġeduc ated
Ġe at
vert ex
ĠV in
u in
du ctor
ĠWal ter
St ruct
Ġeigen value
lem an
Ġsimilar ity
D iv
on i
at hered
Ġal gebras
Ġf ired
ĠAd vis
ĠUn it
Ġa u
Ġ{ {
F P
Ġfem ales
Ġorb its
19 23
Ġsepar ately
Ġaim ed
ĠH ans
Ġmark s
3 50
ph ony
om ot
cl uster
Cl ose
Ġaug ment
form s
Big g
est yle
Se lected
Ġsh r
ather ine
Ġdr ink
ĠNor way
In s
Att ributes
em ail
Ġbo at
Ġwindow s
ex pr
b oth
ĠN aval
Ġmay or
Ġwas te
Ġmusic ian
Ġres idence
In v
ĠN ation
Ġacc um
P aul
Ġres erved
R T
Ġsurpr ise
, .
} "
m akers
int end
Ġacqu isition
ĠS V
Ġw aters
ues e
Ġv ort
ĠMiss issippi
ĠP ope
ĠL ev
Ġdeep ly
ĠH it
ĠChe m
Ġexpect ations
Ġneut ron
ĠSil ver
in cess
Ġcl ar
u er
Ġw ider
Ġarr ive
E V
ĠSchool s
Ġhard ware
Ġdeterm ining
W ell
}} ,\
ĠJer usalem
Ġviol ent
ĠS audi
Ġj azz
, ...,
Ġwe ar
Ġindust ries
Ġr ating
H P
Ġfund ed
Ġc ited
Ġdecre asing
}[ !
Ġdeterm ines
Ġsecret ary
Ġun ity
Ġsing ing
Ġfranch ise
all oc
ass ador
;\ ;
az e
ort ed
Ġfocus ing
ug ar
Ĥ ¬
Ġroad s
ĠLear ning
( !
Ġl aser
Ġan th
Ġclos ing
ĠMem bers
Acc ount
ĠM D
Ġpubl ishing
Ġstar ring
Ġsu icide
Ġexcit ing
m ates
ĠAll iance
ĠF ermi
ĠPl ace
Ġgener ators
he rence
Run time
ĠTr aining
ort heast
}\ ;
Ġdr um
ibr aries
ĠConnect icut
b rief
vol ume
Ġne uro
ĠMay or
Ġang les
ĠW y
it ure
Ġvill ages
Ġrec overed
J apan
ĠB ased
Ġpay ments
Ġthought s
ĠStud ents
S n
Associ ation
Ġinj uries
Ġun f
Ph il
Ġj un
Ġinst ruction
Ġconnect ing
i Ã³n
Sh ort
Ġpref ix
ĠMan ager
ty ped
Ġremark able
ĠF A
ul ator
ĠLa ure
se a
st age
Ġcap abilities
Ġl ib
ĠPolit ical
Ġd war
text normal
Ġland s
ĠAs sum
as et
Ġch a
Ġagric ultural
Ġunit ary
M ENT
ĠBer k
Ġre act
ex pl
Ġcritic ism
] :
Ġanim ation
t ry
ĠPro tection
Ġstation ary
O h
om as
ĠCh ile
Ġprofession als
Ġoccup ation
ĠR ab
u y
Ġorgan isation
b rane
ĠSt ew
ĠStud y
Ġne arest
Ġemer ging
Ġins ight
Not Null
Ġtr ains
Ġdest ruction
Ġaddress es
J SON
sub equations
level and
ent ity
i op
1 18
ĠPh ill
com ponents
ub er
Ġto ler
Ġign ored
ĠEx pl
Ġa ux
ĠP DF
hav ior
le arning
os c
Ġher itage
W rapper
Ġwel come
Ġtransform ed
r f
ic he
ĠE ss
oust ic
R ich
W H
bo ost
Ġp itch
we ak
Ġf itted
Ġpass age
ĠWith out
ĠYear s
ĠS ud
res ize
F rench
w en
ĠAg reement
ĠN ap
ĠChrist ians
cl ide
Ġimag ine
ar ial
}{ }
g ood
do i
le ading
Ġcontrad iction
Ġdis ag
ĠH ug
claim ed
ĠV AL
et he
ĠEqu ation
leq slant
ab ove
ast s
Ġco aches
ĠMor gan
Ġpar ad
Ġdevelop ments
ĠBe at
th ree
Ġhelp ful
Ġt ries
ĠC op
art icle
Po inter
get s
Ġun like
ot te
ĠAust ria
ĠEd itor
Don ald
Ġprovid ers
ĠBow l
ĠE ag
^* _
I ES
Ġgovern ing
ist a
Ġen ables
Ġlabel ed
ĠCom b
Ġme ets
................ ................
Ex ample
Ġgener ations
Ġfe es
Ġst yles
ĠAg ric
12 7
Ġperform s
am ents
rupt ed
Ã© s
Ġcolle agues
Ġs ick
Ġjud ges
Ġa er
Ġrece ives
Ġcont ents
U psilon
Ġpl ots
Ġext ensions
ordin ate
L at
Ph ys
Ġnorm ally
in ch
Ġ âĢĻ
p ay
Ġlog arith
ĠS ource
ĠCent ury
ĠP ract
Ġexpl oration
Ġmechan ical
ill ery
Ġvulner able
Ġserious ly
Ġappoint ment
U K
ĠM O
ra red
Ġintr insic
Ġim plications
Ġsup plement
ear ing
Ġconform al
im p
Ġpurs ue
| _{\
ĠArm en
Ġchart s
Ġinvol vement
u j
Ġtr unc
C apt
ĠD ur
t b
Ġmer ger
ĠEx ample
Ġf lying
S N
}) =\
h ist
1 16
k ov
$ &
om er
\ /
Ġtri angle
m ix
L ife
Ġco herent
J ob
Ġp ars
Ġaver aged
Ġcy l
ĠS el
Ġj son
ĠM unic
Ġan isot
ĠDe an
Ġformer ly
pr imary
Ġref lected
Ġresident ial
Sum mary
Ġaccompan ied
Ġrec urs
## #
Ġdem ands
Ġres p
Ġn an
19 13
Ġcon scious
Ġb rown
ĠF OR
Ġro oms
Ġal ive
ess ages
contain s
ĠD ave
Ġs av
Ġabandon ed
Ġcom ic
Ġpo inter
W N
ĠG ab
IV E
Ġvisit ing
ĠNig eria
periment al
ĠC hen
ĠP ear
Ġcool ing
add r
n ed
Ġpick ed
Ġencour aged
Ġpost s
Ġoption al
ĠE dition
de ep
Ġpl otted
hand ler
Ġ\ }
clide an
Sing le
Ġinnov ative
ug s
Ġsurv ive
ĠD un
rosc opic
ĠP lease
Ġprison ers
Ġexpat riate
ig e
Ġassign ment
Ġs ad
Ġsp okes
It ems
Ã¼ r
ĠK a
ĠP ed
Ġprepar ation
ĠG ordon
ubl in
ĠS QL
) }$,
ential s
S ol
ĠT rad
Ġh ired
Ġall oc
3 60
Ġpix els
Ġcon clusions
Ġproport ion
Ġse ar
Ġpaint ings
Ġst ruck
al og
ĠU tah
ĠLaw rence
ann y
equ ence
ĠRel ations
Window s
ĠP ur
L ike
ĠN BA
10 8
ĠPr ivate
win ning
Ġ ur
Ġthere by
ĠPalest inian
Ġt ables
Ġneighb ors
ĠW atch
ĠAust in
ĠN ichol
styles heet
Ġclust ering
tri angle
Ch anged
Ġcomp ress
Ġm m
per ature
Ġpeak s
ĠH erm
ĠFin ance
o a
SI ZE
aps ed
Ġsurv ived
ĠF er
ĠAd ams
Ġcontract s
b log
ĠMc K
Ġamplit udes
nol imits
ĠD al
iv acy
Ġspl itting
e a
ĠSe attle
Ġdistingu ished
p read
ey ond
Ġent rance
Ġnot ing
iss ance
H on
ĠK y
M er
$ _{\
Ġjournal ists
ĠAcc ount
Ġf irms
Ġp ulse
stand ard
ym n
Ġoper ates
Ġh tml
Ġhor ror
Mem ory
Ġbeaut y
ĠLouis iana
van ced
Ġpure ly
nov ation
0000 0000
s un
u ates
ors es
S G
Ġ' '
Ġle af
oper ator
ri ends
ĠV o
p otential
Ġpr on
by tes
Ġequ ity
Ġl ake
Test s
M arch
\, ,
P arse
nt il
H A
Ġsit uated
Ġanaly tical
U LE
Ġc ards
z i
Ġunus ual
M ath
Ġch ains
ĠLank a
Ġoper ational
Ġim plements
" |
T otal
sequ ence
Ġdep icted
Ġdiam eter
b est
Ġbe ar
ĠNew ton
9 00
Ġadm its
Ġr ugby
ĠAss istant
Ġprob abilities
ĠS earch
Ġorder ing
as i
prot obuf
Ġt ied
Init ial
Ġtem ple
ĠBar on
uc lear
Ġtrend s
T F
Ġinf ection
re le
d ashed
Ġhost s
Ġprob e
Ġsem antic
. (\
Ġex clusive
an alysis
19 11
Ġdev oted
j ar
Ġp atch
Ġun likely
Ġathlet es
Ġgeneral ization
Fe ature
Ġtrack ing
ĠRepublic ans
++ ;
="../../../../ ../../
nt z
h n
~~~~ ~~~~
Ġhand ling
ĠWalk er
ĠD a
hel p
ĠRes erve
ĠP ack
Ġis omorphic
Reg ister
S eg
ĠSp irit
Pl ugin
Ġterm in
Ġdo ctors
Ġn a
bar a
Ġr anging
e enth
Ġdialog ue
Ġout break
P rior
are r
S ION
Ġin duct
Ġmy th
ĠL am
ĠResult s
)) );
ĠDep uty
Ġsp herical
Ġo cean
Ġf urn
ij ing
Ġpro secut
se q
Ġgen re
dist ance
Ġcomm ander
ĠM ission
Ġinter sect
ĠPh D
j et
ate ful
ĠG ulf
Rec all
Ġcheck ed
N odes
\ }_{
Ġinv oke
Ġfall ing
Ġtrans actions
Ġintrodu cing
ĠSoft ware
cons istent
Ġ ri
Ġthe ater
Ġsoc cer
f ly
h skip
ĠP os
ĠJun ior
Ġge odes
ĠAl an
Stat ement
Ġoff ensive
Ġde vi
Ġtri ang
Ġinteg ers
bu ilt
Ġremain der
B D
Ġpay ing
ĠBase ball
Ġro se
ĠInd ependent
v skip
Ġcond ens
R S
C oll
B ound
Ġmanag ing
Ġcelebr ated
S ong
ist ence
ĠBG COLOR
\ [\
C N
Ġev il
Ġconver ges
ĠIn s
ides pread
ed itor
ĠL GBT
or ia
ĠD allas
ĠS port
' $.
Ġr ival
i ac
ĠD VD
() {
Ġco ff
Ġde put
F iles
um in
Ġsy nd
Class es
Ġcent ered
Ġmut ual
bel ow
Ġeng agement
ram a
Ġconsist ency
ent ric
ĠB h
Ġeffect iveness
$ }}
on na
Ġmole cules
F act
Ġqu iet
Ġmach ines
Ġf ruit
ord inary
Ġv ic
Key s
J E
Ġs urn
ĠF arm
ĠDir ac
Ñ ı
ĠThom pson
Ġt unnel
Ph oto
B it
Ġre b
ce ive
Ġc ro
Ġ[ [
pr ison
ĠSm all
J une
ge red
}_{ {\
Ġfem in
Ġ io
Ġproceed ings
t ip
ĠN ash
ĠHistor ical
C am
ĠS in
iver pool
Ġd ies
ĠChrist opher
Ġmod ify
Ap J
ĠP O
ĠRef orm
Euro pe
t oggle
val ued
Prot ocol
Ġrank ing
Ġto ugh
Ġsuper ior
Ġestim ator
_{ [
pat tern
Ġsuppor ters
Ġcy cles
ĠW as
cite alt
Ġrece iver
v dots
Cl uster
Ġminor ity
int ro
Head ers
Ġemb r
xy gen
the ory
Ġup coming
Ġoverl ap
ĠNever theless
Re al
Ġbur st
Eng ine
e per
Ġpost erior
Ġinter ference
j amin
op les
tern oon
Aut o
ly ph
Ġover come
10 7
Ġwhe el
M OD
Ġconsid ers
ist ically
ĠG arden
Ġinst ability
f d
ĠHon or
ĠSt ill
ĠJ os
Ġtransl ate
ey l
and al
not in
ect ure
Ġhop es
ens ively
th read
iter ator
Ġdifficult ies
} ~\
re ction
Ġb ath
ĠOr th
n est
Ġk inem
D IR
F inal
in burgh
Ġart ificial
Ġim aging
s ave
Ġjuris diction
ĠSe veral
Ġdesc ript
Ġinhab it
v irtual
ĠF ive
ĠD ak
ĠĠĠĠĠĠĠĠĠĠĠĠĠĠĠĠ ĠĠĠĠĠĠĠĠĠĠ
ĠJ ason
13 5
iz ontal
o i
ĠN eg
Ġis lands
Ġab road
Ġv ital
Ġpos it
Ġansw ers
ĠRuss ell
ist ing
A x
Ġs oph
ĠAm endment
Ġm outh
ry ing
Pr int
Ġvol umes
yn chron
ou ter
Ġhistor ian
ĠVill age
Ġgrow s
N amed
ĠRes ource
Ġb ary
Ġcoll isions
Ġillust rate
. }\
ĠEnvironment al
Ġc rypt
Ġpropag ation
S W
cy cle
. -
M al
ĠPro du
in ces
Ġb old
10 6
P y
Ġdocument ation
M atrix
ĠA C
ĠT ODO
fl ags
Ġknow ing
Ġpet ition
Iter ator
C ur
Ġatt ributed
Sy ntax
ict ional
ĠBr un
Ġkn ock
Ġcont rary
ĠMc G
tr im
Ġanalyz ed
w he
s burgh
ĠCh air
ĠR iemann
Ġin aug
Ġemer ged
ĠF reedom
ext ension
g iven
ap ing
Ġequ als
A ud
ĠH um
M art
w hel
L INE
Ġde als
W ho
F eb
per turb
Ġcommission ed
y cle
ĠStud ent
. ),
Ġf ol
ĠCh amber
ĠE instein
Ġbas ically
ĠL ang
Ġm ales
el ines
ext end
she ll
Ġg ang
B orn
ĠP RO
( __
Ġmer ged
Ġsac r
E O
struct or
rib le
text sf
ĠL A
Ġconstitution al
qu ote
Mich ael
P ER
ĠW right
. *
pro to
Ġres erve
T ax
19 08
ĠAb b
trans ition
ĠMark ov
Ġbelong ing
Ġart istic
Ġt ort
Ġregul atory
em en
Ġun em
ef e
ob i
Ġas c
E lements
is ode
Ġdec ays
le w
Ġt ends
vert ed
t mp
ĠDoug las
Ġdist urb
Ġearli est
ha ust
in ement
N amespace
ion ed
Ġprodu cers
is p
ĠT ake
Ġst ating
_ (
iv a
Ġro utes
und efined
Ġb irds
ĠB uff
ĠBang lades
Ġprot ests
B oth
' =
Ġcaref ully
y y
im s
Ġf n
v able
in her
im pl
end ers
t age
t ically
ÃŃ a
ĠD ocument
ĠRes ources
Ġwonder ful
oid s
sche ma
Ġve get
Ġp rize
", "
Ġpopular ity
Ġf old
Ġc av
cc c
Ġcolon ial
le an
ĠR ick
um my
Ġph arm
Ġspac etime
Ġp ole
ĠSam uel
ĠArgent ina
ĠK az
Ġtarget ed
Ġbi ological
k t
Ġdiv or
i ors
Ġj ury
sec ution
i eg
qu ality
Ġinv asion
h alf
Ġw orship
ĠH oll
oc he
Ġfore cast
ĠBru ce
dist ribution
ĠTele vision
n ik
N OT
app y
2 20
Ġinterview s
Ġbu ck
Ġre q
Ġiter ations
ĠEar l
ĠLeb an
enez uel
ĠT ag
et ition
ĠAnton io
ĠPe ak
am ps
v ideo
Ġfr ust
Ġlaw yers
A pril
ĠC emetery
Ġ ×
Ġphotograph s
Ġb ronze
Ġexpert ise
arg ument
b le
}} =\
k w
Ġobtain ing
de cl
ĠP rom
Ġanalog ous
ĠMuslim s
Ġmag ic
R ob
Res ol
Ġsup plies
L I
Ġsurv ival
S an
ĠTown ship
acc ount
Ġnormal ization
Child ren
Ġweek ly
Ġhospit als
es is
Ġret rie
F in
Ġpro xy
sv g
Ġcert ificate
ate ur
d ale
Pro b
in cre
} <
Ġpre lim
Ġf ake
D an
IN D
Ġop ens
f our
Ġvan ishes
l ia
E p
Ġb ases
Ġwe aring
Ġrem oval
depend ency
Ġfarm ers
el astic
Ġed ited
ĠEx change
h our
Ġ& $
Ġs ke
Ġlist ening
D ouble
at ics
Ġgr ants
B re
ro se
ĠO N
Ġthem es
| =
\| ^
ĠBrook lyn
d p
it is
Ġoutput s
Ġgener ates
Ġreflect s
ĠUn iverse
11 3
Ġ[ ],
Ġperson ality
ig rant
th rows
up per
bound ed
ps hire
ĠPo isson
ation ally
or se
olog ically
ĠEx press
inst all
ĠC ow
id ge
Ġtraject ories
clud e
ST AT
ro ck
Ġcl ip
ra ctions
ĠJ osh
ĠBalt imore
T ele
Ġra ising
ĠO ption
Ġb il
= -\
ĠC rim
Ġw idespread
ĠB etween
ĠH ills
Ġmet adata
chi at
Ġm igration
ch ing
I con
res et
Ġpl ain
ĠCol omb
m ut
ig m
T oday
Ġdiss ip
Ġun stable
ĠThe ory
Ġrepe at
ĠAl b
alax y
! "
Ġso il
Ġdis appoint
Ġan nu
Ġfrequ ent
[ :
h al
Ġy es
)= (
Ġdefend ant
ra id
ĠM s
Ġtw elve
cent ral
ĠAnd re
b ecause
ĠOr d
ac les
sw itch
Ġcol leges
Ġâ Ĩ
Ġident ifying
Ġpass engers
ĠT E
Ġestabl ishing
Pro ps
ĠAr g
}{* }{
Ġh at
Ġimpress ive
' }\
ĠCl oud
L ayer
print f
Com ment
ĠF ried
Ġl ots
Ġplan ets
pd ated
Ġemploy er
Ġrecommend ations
Ġtouch down
A cknowled
Ġpass enger
Ġorgan isations
Can adian
Ġthreat s
Ġadv is
ab ul
pol y
pl er
int o
Ġsp arse
Ġ ĉ
18 90
Ġre ven
Mult i
' )$
Ġre ign
ĠA le
Ġpres erved
sc ar
Ġst range
tr ace
Direct ory
ĠA BC
ĠB E
yn asty
ĠO k
R end
Pro file
pass word
Ġcov ariance
B F
Ġtyp ename
ho en
Col lections
S ources
Ġcompet ing
Ġcon e
Ġ$- $
re du
le ans
ost ics
ĠAl ber
Pan el
ĠMat thew
work s
Ġh a
Ġevery where
view s
it ol
Ġcomb ine
b olic
ash i
oun ce
Ġfin it
Ġnav igation
ĠH ad
Ġcomb ining
Ġlab our
Ġstay ed
ĠC S
Ġbreak s
Ġentang lement
Ġhead ed
Ġdis joint
att ered
m outh
Pl an
f x
ĠP i
Ġexec ute
ss on
ĠM other
ĠH u
ĠF isher
Ġveloc ities
met adata
Ġharm onic
ĠF le
ĠW ard
Gener ic
Ġexpl ored
Ġcrit erion
Ġhol iday
ĠK am
ĠAl bum
ĠN ik
Ġrem oving
on der
st ory
Ġlimit ing
Ġconsist ently
c od
IN S
Sim ple
ĠR ule
New ton
Ġimpact s
ĠC arn
y cl
Ġperm itted
ĠAb d
we ek
Ġh am
Ġpe er
Bi ography
O B
. },
ĠQueens land
ĠN ature
d etails
Ġphys ically
n p
Aug ust
Ġst adium
Ġne ur
Ġrec ru
Ġ> >
Ġb on
ĠOr chestra
b ootstrap
Ġbelief s
ĠNAS A
is o
s ys
er as
Ġtalk ed
Ġg arden
ĠO tt
Ġmix ture
ch arg
Tr ace
s b
Ġdis contin
clus ively
sol id
B T
ĠM ars
Ġinter vention
ix el
ter y
center line
ĠS ac
ĠS P
drop down
h arm
Ġoper a
ĠSw iss
ann on
ĠR ound
let ter
Ġperm it
Ġaffect s
ĠCl in
ĠCar lo
ch anges
ed a
Con f
Ġeng ines
Ġrep orter
; <
ah n
ĠFrank lin
Ġcancell ation
Ġas set
Ġproject ive
Ed it
Ġagre ements
Ġcheck s
Ġterm inal
j k
Ġex ponent
Ġkil omet
ĠB ull
Ġstreng then
tool s
Ġc oc
S election
ĠC leveland
qu al
rit ory
r ations
Ġs essions
ĠP ap
F ind
ĠC rit
ren a
Ġlist ener
ĠF ind
ĠLiber al
Ġre actions
Ġf usion
m ate
Ġind irect
U SE
Ġd b
Ġsurround ed
RE AD
G reen
Ġdr ums
Ġtro uble
}} )$
Ġinflu ential
ĠN ag
() ));
Ġgr ass
Ġphot ography
du al
Ġrank s
ĠPu erto
onom ous
ĠDen mark
ĠPet ers
m ac
oc ese
Ġimm igrants
ac cept
ĠBelg ium
or b
Ġbos on
. ]
not ation
Com b
ele y
ĠL uther
ĠSen ator
Ġsk ip
ĠMor oc
New s
ĠIndones ia
Ġin g
Ġprom oting
ĠCov id
Ġsynt hetic
d ynamic
de velop
C V
Rem ove
Ġmaintain ing
Form er
pos itory
m issions
Jan uary
27 0
Ġcor ruption
Ġr ide
hy per
ĠN eed
ĠF inn
ser ve
B s
ell s
G s
}) )
ĠM ess
Ġc ogn
| _
Ġk it
al ia
ĠB art
enn y
ch art
P al
ard ing
Ġc tx
Label s
Ġj Query
@ "
display math
TR UE
Ġcl imb
ĠD id
ub s
hat tan
Ġt ennis
Ġconstr ained
N ULL
f actor
ĠPortug uese
r in
an im
b ib
M iss
Ġb ott
-- >
, '
et ry
O lymp
g ray
ĠH old
M ean
ĠEd inburgh
L en
Ġshe et
ĠV egas
Ġperturb ations
R oute
ĠBill board
z an
Ġp ushed
ĠCommission er
ĠTe ch
ĠLe ft
Ġphot ographer
C ert
Ġconv icted
Ġarrang ement
n il
li er
oid al
Big l
Con dition
Ġperfect ly
Ġpropos als
) |\
Ġmeaning ful
l ab
Ġanom al
Pres ident
Ġ$ <
he res
Ġtext s
Ġan xi
Ġsign ing
ĠArk ansas
ĠVol ume
if def
ĠĠĠĠĠĠĠĠĠĠĠĠĠĠĠĠ ĠĠĠĠĠĠĠĠĠĠĠĠĠ
Sc roll
Ġdef ensive
at omic
ĠStud ios
Ġdram atic
Ġla ugh
10 9
Ġpain ter
iv ated
j ud
Ġfle et
}^ +
; ->
al ph
ĠOr leans
ov ak
Ju ly
An alysis
sy chiat
ind ed
ĠWork s
form ed
ĠS S
q q
Ġaf ternoon
19 05
oth s
ĠAd vent
{ [
ol o
Ġshift ed
ĠPortug al
Ġthreat ened
ĠPolit ics
Ġacceler ation
bound s
Ġconsist ed
Ġe ase
Ġt ropical
Ġprov es
ĠIndust ry
ĠCar ter
Ġcos mic
Ġgrad ually
Big r
ou ver
ĠStew art
ĠK ings
igh ters
Ġlegisl ative
Ġaff ine
Ġn g
Ġt ip
iz z
ident ifier
Ġsh orter
Ġcomp ilation
S ER
Com parison
ĠRob inson
b n
st e
prot ocol
iv ia
Ġdemocr atic
part y
Ġt ension
Ġdesign er
Ġmer ge
Ġsub mit
Ġdesc end
Pl ot
erv ised
ab i
Ġarrang ed
Ġar ises
m aker
Ġe g
ĠH D
D IS
back s
the y
Ġdecl ined
Ġ{ {\
Load er
cur s
' ',
d z
24 0
Ġf iscal
ĠĠĠĠĠĠĠĠĠĠĠĠĠĠĠĠ ĠĠĠĠĠĠĠĠĠĠĠĠ
Ġsole ly
e ast
Ġactiv ists
Ġmotiv ated
char acter
cal cul
Ġsub sets
ĠOper ation
ict ions
I LE
Ġim prison
Ġposs ession
UT F
r b
Ġiniti atives
im ir
L M
ĠT her
Ġmem orial
err ors
Sim ilarly
B H
ĠAng el
Ġ ip
l iving
Ġd ating
Ġmir ror
ĠMarsh all
test ing
Ġbar rier
Ġcontribut ing
ĠH ope
ĠK l
Ġent hus
H y
Ġres et
Ġprom ising
sl ice
ĠL ock
ĠBe ijing
Ġt um
Ġth orough
Ġsuggest ing
Ġcomb inations
n c
ĠN elson
b ridge
d ig
Ġrev ol
ĠSch olar
Ġ$ [\
ra ig
Ġaw ait
p mb
EE E
ĠN eb
ail and
me asure
ĠPal ace
ĠB achelor
ac o
osp el
op ter
m ir
Ġf est
Ġexclud ed
ĠC ore
Ġexp ed
ĠMarg aret
Ġpart ly
Ġput s
ĠE mb
ge on
Ġrelax ation
}) _{
As sume
op ts
ra ham
Ġaccount ing
Ġim plied
To String
Pro xy
ĠNC AA
Ġsuff er
deg ree
red ited
cont roller
ĠL iverpool
M icrosoft
ĠCommun ist
FOR M
ĠLim ited
ER E
Ġjun ior
Ġannounce ment
ic ians
gener ated
Ġanim ated
pl ugins
Ġload ed
Ġl oyal
T w
ĠC ensus
[ ],
A li
ib bean
ol ph
ĠCon fig
ester day
ĠF M
$ --
roph y
Sh ape
ĠChristian ity
Ġclos est
Ġglob ally
Ġover whel
ĠCl imate
Ġsh ifts
umer able
th row
Ġinst ructions
{ %
Ġsurv iv
Ġpull ed
Ġal ert
the mes
Ġcontrovers ial
. ).
Ġun expected
' $,
Ġdo i
Ġde eper
Ġgu idelines
Ġbeg un
b es
f are
G rid
; /
)} _{\
Ġdef ence
Ġrespond ed
Ġelect rical
c ov
Ġmat ched
Ġcut ting
Ġco hom
hy thm
ĠCamp bell
play er
Ġel der
Ġmet ers
sub stack
man ifold
Ġintegr als
/ >
s pl
ĠS R
and ed
19 09
Ġinvest ments
ĠMain e
ĠSquad ron
Ġb orrow
Ġde emed
Ġke eps
Ġcelebr ate
Ġpotential s
ĠMed ic
AL SE
ĠD ub
Ġde pression
ĠEconom ics
ĠI C
comp are
Ġdist inction
)} =
ĠNor wegian
Ġlength s
ĠM agn
ĠR y
Ġanalys es
Ġrecord ings
ĠMalays ia
Ġconstant ly
Ġd owntown
dr iven
00 2
Ġvar ies
Ġany where
Ġapprop ri
AS H
âĢ ĭ
Ġsk ill
() ).
Ñ ĭ
ĠInt erest
D est
Ġar ising
Ġth rown
mathbb m
Ġt ank
ĠR ap
b one
ĠPl ayer
Ġmod ification
sc ribe
ĠNot ice
ĠAs sume
Ident ifier
S cal
ĠIm ages
Ġt ies
ĠK o
sh arp
Ġhas n
ĠMic hel
re r
Rober t
Fil m
Ġvari ants
ter ior
raz y
i ology
ĠSpec ifically
ho le
me as
rect ed
ĠL anc
ĠF am
ard ed
Ġspe aker
Ġf ishing
Ġtrans it
h ref
Ġagric ulture
Ġnot iced
p us
comp at
E ffect
config uration
Oct ober
Ġmar ine
ĠAnn ual
Se ptember
K S
ĠR ace
Q U
i ability
Ġens ures
ĠEm peror
ĠH ell
Ġfil ters
X ML
Ġamong st
ĠD ance
ĠJu an
} &\
][ '
ĠBanglades h
Ġmeas uring
ĠRog er
tem p
Log ger
Ġmen u
CO MP
Ġres ign
ĠD ublin
Ġsegment ation
, âĢĻ
De ath
Ġsp oken
it ud
ĠBul g
ĠH IV
col lection
âĢĿ )
St e
Ġg rap
St and
ĠCr ime
ĠAn na
Ġcorrel ated
Ġjav ax
al actic
Ġg host
C ategory
ag ger
Ġcon jecture
n an
ab ad
Ġphenomen a
ĠN ic
Ġtyp ed
des ign
d irection
ĠI ron
ĠC ass
19 07
set up
n odes
Ġw ine
ĠL iving
Ġweap on
ĠB it
ant i
le in
ĠArch ived
p refix
De cember
Ġcloud s
Ġemphas is
Ġ ],
U V
ĠPubl ishing
ĠL P
or ious
Ġweak ly
Ġens uring
Su ccess
ĠCommunic ations
Ġcon qu
ĠB ou
19 06
ĠY ang
}, {\
typed ef
Ġpres um
Ġb om
ĠM ort
ĉĉĉ Ċ
Ġsus p
Ġhigh way
ĠMor ris
pl ant
ass oci
ĠI mp
Ġpod cast
ap y
Ġinsp iration
LO G
writ ing
Ġo xygen
Ġto k
Di agn
id ency
id ity
> :
sh adow
Ġpl enty
s ig
. (
Ġin cl
own ed
Ġnot ably
Ġevol ved
am y
sur face
ĠF ro
est one
ĠSaf ety
ens is
Ġdis aster
list ed
Ġfeel ings
IG HT
d one
uch y
ĠG P
Ġcred its
tr igger
Ġas ide
Ġb orders
M AP
plement ation
Ġmechan ics
ĠB Y
ĠF L
ĠE ffect
LE CT
Ġr aid
Ġcitiz en
ĠPitt sburgh
M us
Ã© t
) *
Sup port
Th ree
ĠComm ons
Ġrest ored
as hes
Ġrele ases
index Of
as m
Ġsize of
ĠK u
s ong
urric ane
C ho
Fl ow
Ġrare ly
f und
bre aking
ĠS ex
IT ION
appro xim
}^{ (\
A wards
Ġrefuge es
Ġad mit
en able
ist ration
Ġm ail
] ^{
man ager
Ġsurve ys
Ġn ick
Ġactiv ist
P ers
is an
h ook
Ġquot ient
Ġover view
id x
Ġnon zero
j ections
erv oir
row th
ol ished
ĠE dd
Ġconstruct or
Ġtherm od
ĠSing h
end or
ĠS ep
p f
u is
Ġap artment
Ġsh adow
Ġh ide
Reg ion
P refix
Ġmain stream
ĠW oman
t ar
en abled
un ique
Ġstream ing
irm ingham
Ġf oss
Ġround s
u ct
Ġact ively
Ġalign ment
F ran
Ġcontinu ity
Ġ }$
Ġd ir
ĠMov ement
d ays
h ot
Ġlong est
att ributes
ac er
l ibrary
ĠF ern
ign ment
az y
h idden
Ġph on
Ġext ending
b ow
in formation
ran ean
Ġcon dem
Ġnegoti ations
Ġchar ity
cc a
pan ic
Ġparticip ating
ĠG il
Ġcons ensus
L iter
anc ouver
Ġcaref ul
> $
quir y
ĠCirc uit
Ġ ^{\
Ġdis pute
ĠGra ham
on z
Ġa ired
comp act
ir ates
12 2
-------- ----
sim ilar
Y es
ĠB eck
ject ive
ĠS W
M ill
ĠU lt
tr aining
tri ang
Ġlat ent
ampl ing
Ġport folio
build ing
Ġexist ed
ial s
Ġsup plied
He alth
Ġ$ $\
Ġhierarch y
F ailed
Ġp ose
Ġcount ing
Ġarch ae
ĠPhys ics
mult ip
ĠC rown
Ġres ort
st ers
ens on
ĠUn fortunately
spe ed
n l
re str
uck et
ĠLore ntz
Ġline arly
Ġperson ally
Ġfriend ly
Ġdedu ce
}} }$
w atch
ĠM essage
Ġex haust
Ġcompet itions
Ġdispl ays
foot er
bor ough
cknow ledge
av ailable
ĠCro at
er os
2 30
r ating
pre v
ĠQue bec
ĠV enezuel
Ġreview ed
ĠLie utenant
ĠHung ary
ĠCon sequently
Ġing red
ĠCon stant
Ġexam ination
Ġful fill
ID S
b ul
em or
ess ed
Ġsing ers
}= (
nd ef
C r
Ġformal ism
ache l
Ġannu ally
c ost
Ġh ist
ĠE V
Olymp ic
ĠWel sh
ĠComm ander
ĠC os
st ats
ant on
Ġrep air
book s
Ġentreprene ur
ĠT el
sc ience
ĠAp pro
Ġbroad er
un iform
Ġmon ot
19 01
Ġnumer ically
Ġincred ible
ĠJon athan
* )
omin ations
Ġob l
Ġindu ces
Ġse p
Ġsub div
Ġtrans mit
ĠPat ri
ac ht
th a
Ġprelim inary
Ġexcit ation
% %
un ed
equ ival
Pack age
B Y
t c
et o
con ver
Ġult ra
he astern
Ġ} {\
Dom ain
Ġcomp r
ĠNaz i
Ġint ense
Ġm ic
ĠH ash
M ass
Ġw elfare
Ġas semb
Ġsuspend ed
Ġt act
ill o
Ġscreen ing
ri el
FF FF
Ġpat ent
A uth
k ee
oth y
Ġop acity
ĠS pect
os opher
Ġback ing
Ġpl astic
fl ix
Ġf er
Ġav ailability
k n
ĠCh ampions
Ġattract ive
Ġrepeated ly
ĠK ath
ĠDel hi
18 80
Ġc ul
h ide
ĠB us
ĠB apt
ĠPro duct
Ġobject ives
ĠMe V
iv an
Ġ$\ |
ĠMan hattan
Ġenc ounter
ĠBrother s
Ġ\, ,
Ġcy ber
Ġfun ctor
Ġin herent
get Name
ĠProb lem
Ġbe ach
am an
Ġnewsp apers
bl ing
on line
c rit
az ines
b g
Ġliter ally
Nov ember
t ransp
ĠS A
pl ates
Ġvis its
S ync
ĠWhe ther
Ġre cre
Ġcar ries
Ġarrang ements
n ecess
or us
Ġbox es
N ative
. :
Ġqu eries
ĠCharl ie
Ġmoder ate
Ġs ensor
__ _
Ġcl ause
ĠArab ia
ĠD og
um ann
Ġmedal ists
= (\
O ld
u ition
ust ain
Ġp ending
Ġpri est
vel ope
D uration
Ġenc oded
Ġd y
Ġin cent
Ġre plic
ĠD R
Ġattract ed
hoen ix
f requency
Ġout perform
$ (\
ol ation
}( -
ĠU pon
Pro fess
Ġfin ishing
Ġsh apes
am ination
Ġto x
Ġhuman ity
P DF
t ons
\, .
Ġex clusively
Ab stract
11 4
Ġsevent h
Ġtra il
ĠG ary
Ġmem ories
ey er
~ (
bas ic
Ġd elta
ĠR io
ĠIm perial
Ġdevelop ers
Ġep id
respect ively
Trans form
ook ie
ĠInd ians
11 7
ĠBrazil ian
Ð ²
Ġg olf
P red
Ġdam aged
Ġfacilit ate
l g
ro oms
ro d
ĠGirl s
ĠPerform ance
17 0
M apping
for ced
cos ystem
ĠTh ank
ĠEu clidean
b urst
Ġlicens ed
Ġst em
ĠB aker
Ġinhabit ants
ĠS hip
Ġdis put
Ġobserv able
ĠMar ie
Ġdel iber
In f
pl ier
ĠKn ight
Ġwh ilst
Ġexhib its
4 50
T ABLE
Ġexam ined
Go ogle
Wh ite
) !
19 03
ĠLeg al
prot ected
Ġlo ops
Ġm ile
19 04
Ġexp enses
ĠMur ray
ad ic
}. \
au er
Ġposs ibilities
Ġ_ .
Ġdiv isions
imens ion
ĠIO Exception
ĠI L
ĠP aper
b oy
ĠBen jamin
ĠO pt
Ġdo ors
M a
pl atform
Ġpro ton
Austral ian
S equence
fl ag
Ġl ic
ĠH end
Ġpass word
Ġlabor atory
Ġth irty
Ġprocess ed
Ġeconom ics
d c
ĠK er
h uman
ĠBo olean
ĠP erson
on ce
Ġcryst al
ĠInf antry
ex tern
Ġautom atic
F N
ETH OD
Rel ated
own er
j an
ĠAr n
ĠRes ponse
Ġking dom
Ġd ated
' }$
Pro duct
Ġo x
ac ies
ĠBatt alion
Ġcoal ition
Ġinstrument al
effect ive
ĠT ree
Ġ> >>
=" /
Ġmin i
Ġactiv ation
un ning
ric ulum
}) (
Ġretain ed
d etail
ĠM es
Ġneglig ible
Ġrel ate
Ġatt ending
Ġmet res
annot ation
AN G
m aterial
Ġexception al
ĠMont real
Ġsuff ices
oupl ing
ĠMov ie
h ai
abl ing
ĠWith in
ĠBroad way
AAAAAAAA AAAAAAAA
") ]
ĠBo ys
Ġart ifact
, ~
Ġg ross
ĠW ord
Ġli ability
M ount
it ime
ure r
Ġag enda
l floor
ĠC C
Ġt ur
ĠEv ans
Ġdemonstr ates
Ġobser ver
Ġelli ptic
ĠP ref
Ġas ks
d or
Ġsampl ed
f ony
os itory
at en
ĠL ane
e or
ev a
Ġcon gress
ĠSh ould
Ġsup ern
}) -
rec ated
Å «
og y
ace ut
ĠF BI
Ġinf inity
Ġwe bs
M ajor
Ġmem or
Ġimag inary
Ġph rase
ĠOper a
m iral
Ġtrans c
ac re
Pro gress
ĠAlf red
Ġcorpor ation
is y
Ġrem arks
Ġevery body
Ġrestaur ants
Ġp ump
ĠC ultural
ĠM aj
1 19
st ellar
Ġaccept ance
P ay
ĠG ray
Ġaux iliary
Ġg all
Ġderiv ation
Ġcount ies
ut er
Ġa cknowledge
LO CK
sup ervised
Ġagre es
') );
Ġguarant eed
Ġel astic
Ġcompl aint
r age
e u
Ġvari ed
ĠFor um
ill iant
p b
Ġhe ating
Ġinvestig ations
ment ioned
ĠFac ulty
Ġval ley
Ġd ot
em on
Ġwere n
Ġper pet
ens itive
Ġcur rency
p ref
ĠUr ban
ĠU C
ĠVal id
ĠWar ren
Ġsw it
Ġen orm
ĠF ix
N umer
left rightarrow
ĠS I
ĠP ad
the me
ĠNev ada
> ::
Ġcal endar
Ġ( ;
ack ing
group s
Ġ( [
r floor
ĠCar ibbean
ĠStan ley
Ġim pose
di ag
ol ute
v t
ĠInt eg
ins ula
b us
Ġ\ :
Ġpack et
Ġadopt ion
Cont in
Ġte ch
ĠFreder ick
S en
Ġbr ands
ĠDak ota
f c
es ome
ĠS F
sub float
R a
Ġstr ain
ew ise
Ġefficient ly
Ġclaim ing
ĠComput er
ĠH ave
m ill
enc er
ĠMit chell
Ġsubstant ially
ue z
Ġsub stance
ĠL ad
ĠTh ailand
C ity
ĠG ill
comm unic
) )$.
Ġj unction
P G
om on
og a
et on
rel ax
E val
Ġc up
xx xx
ĠW olf
ĠWay ne
19 02
Vari able
ĠR N
h ill
Ġcom ed
}{ $
Ġr um
ag ers
Ġun w
Ġdes ert
VER SION
L ibrary
Ġformul as
\ -
Ġbond s
Ġwat ched
Ġbl ind
Ġdeput y
ĠK itt
rel ative
r gb
Ġrom antic
Ġinteract ing
ĠHe b
m ount
12 1
ĠAl tern
cycl op
ĠBrig ade
v oc
M o
c ule
ĠC ert
ĠW AR
as g
pro xy
Ġrest ore
iss ues
Ġg athered
^- $
Pop ulated
Ġpl aintiff
Ġm o
Ġdeploy ed
um ped
Ġt icket
Re port
min ute
V M
Ī Ĵ
Ġfl av
Ġconflict s
Ġpo em
D etails
Ġw ounded
Ġresc ue
Ġass ass
T om
a uc
ay an
######## ########
ĠInt elligence
e fficient
Ġvalid ity
Ġhom omorphism
\| _{\
ar us
Ġu i
ĠB A
Ġbus y
un ion
ĠHam pshire
Ġs ql
Ġlo ans
Ġall ocation
Ġident ities
ĠL l
Ġst ick
D elegate
ĠF act
Ġsudden ly
Ġtravel ing
Ġg ains
cle an
d ing
Ġhigh lights
Ġfor cing
Ġtest im
ĠMot or
N a
). }
Ġmount ains
us ive
Ġlaws uit
ĠO ri
Ġaccur ately
="../../ ../
Ġfinit ely
ĠR ub
ĠT alk
S ep
Ġlog ical
ĠMad rid
S al
ir i
Ġrel ies
ĠSy rian
S ever
Ġh ip
Ġvirt ually
h op
hib ition
Ġwar rant
AR D
Ġpred omin
ex ternal
IF A
und erset
Ġcal ibration
met ic
Ġdiscrim in
Ġp in
}} }{
ĠDo es
ĠThe ater
ĠC T
Ġd ial
im od
Ġselect or
Ġfant asy
S uch
JE CT
pro gram
Ġreported ly
Ġr u
us ers
ĠE C
o ys
tem perature
L ower
Ġc ust
Ġforest s
ne e
ud son
b rowser
aceut ical
Ġac oustic
5 12
ĠY eah
Ġhom ot
Im port
Ġdaugh ters
s per
M ake
u art
ĠC redit
av ia
iter ranean
Ind ian
ĠD ise
Ġde formation
Ġso vere
Ġcoupl es
Ġas ync
B ibliography
Ġc rown
ĠC her
ĠT ar
Ġhand led
ST M
Ind eed
ĠO wn
ĠW rite
Ġgener ality
as ant
ĠRem ark
ĠM aur
Ġveter an
Ġh ill
ĠF al
Ġb ind
Ġd otted
Ġanal yst
pe ction
ĠDan ish
p aper
ĠP il
ĠArch ives
Ġcar rier
Ġenc oder
Ġcon figure
ir able
count ry
ĠV eter
akes pe
Ġemploy ers
ug u
Ġauthor ized
Ġins ights
Ġh ate
Ġun con
Ġbatter y
ĠMean while
load ed
Ġmonth ly
ĉ čĊ
Ge orge
H ol
u ant
Ph one
uk i
Ġhard er
Ġcampaign s
p any
ĠGi ants
Ġi i
Gener ator
Ġland ing
rat io
iv ities
ok er
ĠM achine
ĠRec all
fe ature
& -
ĠAnd y
tr ained
V I
Ġdis ability
Ġcomp ression
ut ter
ĠR an
ĠS ho
N ormal
sup ported
ĠH AL
w hat
Ex pr
ĠOper ations
ĠB ond
w right
Ġext inction
tt ing
Ġfeas ible
L imit
ĠP ast
Ġt ie
ĠInt eger
ur ities
res olution
E ducation
ĠPark er
Ġscholar ship
oun ters
Ġcompos ite
Ġen v
Ġinequ alities
Ġw ake
l b
Ġatt itude
Ġreason ing
' )\
ĠSt ein
Ġpark ing
Ġtr ick
Ġincor rect
Ġs ed
Ġinv ariance
at in
Ġan chor
Ġsche ma
ĠCub a
Ġrefer ring
our t
Ġsurpr ised
ĠT ig
Ð ´
Ġpaint ed
TE XT
ock s
uc le
Ġsent enced
R elease
Ġgr ateful
in ery
ĠLe vel
Pro to
Or gan
ow ell
Ġv ir
Ġam pl
Ġess ay
Ġdis cre
ut f
ob tain
ĉ ĠĠ
im edia
» ¿
Ġch amber
t ot
Ġbirth day
ĠOrth odox
ĠB H
ĠFin land
us p
m iddle
ĠW H
14 4
S ervices
Ġasympt ot
ĠSt ev
ract ed
ĠUp per
Ġmed ieval
Ġl ying
) |^
r ative
Ġgovern ance
Ġdiv ide
Ġcons olid
G ood
form ing
Ġrun time
Ġst ere
Î ±
Ġopin ions
re pe
Ġpro ps
Ġprogress ive
ĠColl ins
UR I
ĠM ind
12 4
B egin
Ġcoast al
Ġcast le
ĠPro f
T M
ĠT ower
h ad
ĠOther wise
ĠC oul
Ġobserv ables
ĠC ancer
ĠF em
en berg
Ġab ortion
ã Ģ
Ġtok ens
A rm
Ġ" <
Ġ' <
ed ing
ï »¿
Ġ" ,
Ġcoff ee
ĠM eg
G old
B ro
Ġvol tage
Ġless ons
prot ect
ig ion
ush ing
ĠR and
J ack
ĠD esc
ac cur
ĠProfess ional
Ġim per
Ġcontinu ously
B IT
Ġattempt ing
Ġmathemat ics
ous ing
Ġaggreg ate
V A
c ient
c ritical
Ġsymmet ries
Ġin ev
Ġen act
In formation
Ġvan ishing
Ġrecip ient
aut ore
ĠM ust
Ġcub ic
as ury
ĠT ab
Ġbre ath
ord ination
Trans action
Ġvalid ate
ĠT s
Ġre ception
p od
orig in
Ġcontrovers y
Ġm esh
Ġven ues
N P
akespe are
Ġc ategor
ple ctic
L D
vari able
ĠConf eder
re ach
ĠA the
Ġachie ving
}}\ ,
s qu
Ġste ep
ĠP rix
ĠC old
Ġstri king
Ã ´
ĠW ang
Ð ¼
Sports people
ces ter
dis ambig
ĠRequ est
Ġvess els
re ck
establ ished
ĠS elf
ĠB irmingham
Ġsc roll
ĠJim my
Ġflow ers
Ġqu oted
Ġvacc ines
ĠH ockey
Ġch rom
Ġj ets
ĠBar bara
g it
re ason
no ise
Ñ Į
St op
Ġb ird
ass y
Ġearth qu
Ġt iny
}| ^
B al
j or
k ip
}_{ (
Ġen um
Ġpubl ish
se en
ĠV ik
ĠA SSERT
ĠHung arian
: [
Ġv it
sh aped
p arser
Ġelim inate
Ġhighlight ed
'] )
ĠIs a
Ġext ensively
Ġh int
Ġvo ices
B ur
Ġabs ent
Ġvari ability
Ġmiss ions
clip se
ĠB orn
Ġread ily
ab c
Ġsl ave
Ġprim itive
ĠSt ore
Ġb ot
}$ ).
Ġtrad itions
p kg
Ġcult ures
Ġmulti plication
Char acter
ĠP od
ĠE ver
ĠZ e
ĠS H
Ġmod uli
En ter
ĠIran ian
Ġdifferent ly
ĠVi enna
sc ore
F LA
Ġto w
ab olic
Ġact ed
ĠO S
Ġinflu ences
w ang
ĠJ e
rick et
Pr ivate
ĠL ower
ĠAp plication
ĠW orth
ĠG C
ll i
ĠMet ropolitan
Ġpsych ological
Ġcas ual
Ġt ract
Ġver ified
= }
Ġrail road
ĠV ancouver
met ric
Ġsee ks
Ġdepart ure
t ered
Ġshop ping
V P
f m
Ġlocal ized
ĠMat hemat
ĠD ouble
ĠSt even
S am
with out
Ġcomput ers
ĠUn like
R ole
Sc ott
Ge ography
ĠW W
spir acy
"> &
Ġconsider ations
ĠP un
ĠB ag
Ġaud iences
Ġalleg ations
ĠR O
itud inal
Act ivity
Ġperm utation
R ail
Ġguarant ees
Ġdipl om
$ &$
( .
Ġrel ativistic
Spec ial
ĠT ogether
Ġsh ots
per t
Ġbank ing
Ġnom ination
) }^
ĠB R
b t
ï ¼
Ġd s
ĠF R
RE G
EN SE
Ġterror ist
ch t
ĠO d
H istor
Ġcomp ound
= [
Ġhead ers
ĠB ed
pect ives
ic ian
ĠPort land
t re
ry ption
ĠU SS
it ious
Ġferm ions
ĠV I
ĠElect ric
ĠSe pt
Ġc ous
Ġdr inking
ari ate
ĠK it
en z
D ue
ham mad
Ġiniti ated
ĠAl aska
D ictionary
se lection
requ ired
ill ance
$ /
Ġprepar ing
W ait
Ġtim ing
ĠCon dition
bo ards
w alk
Ġj ail
En um
ĠTurn er
ĠIn ternal
Fr ag
Ġacqu ire
m illion
indu ced
Ġf mt
Ġdev ast
Ġn eck
arg uments
, [
G ame
." );
te chn
am az
Ġlik ed
18 70
ĠSh ar
P ress
as a
c pp
ĠI an
ĠSe lect
Const ants
P erson
Ġrout ine
ith uan
ĠH orn
ĠK an
Ġpoint ing
g ements
ĠA qu
ch itz
ĠSt ream
M W
ĠR ain
pol ar
ĠU l
ĠPr int
Ġuniqu ely
G rad
ant um
Ġelect oral
n ia
Ġde ployment
En vironment
Ġb at
ĠPol y
Ġjud icial
ĠStan ford
Ġdepart ments
h ig
Sup er
}} +
ĠL apl
Ã ¥
Ġscient ist
Ġcomp iled
Ġdecl aration
Ġd rew
ine a
Ġconven ience
\!\! \!\!
Ġvent ure
U ri
add le
ĠAnd roid
pos itive
Ġover s
ul u
0000 00
Ġvolunte ers
Ġt ags
ro v
Ġ_ ,
m other
ĠD ie
Ġt y
Ġs ends
}\ !
Ġcan n
ĠHawai i
ig s
ul o
Ġphysic ian
Ġhabit at
Ġres igned
b ach
12 6
og ue
Ġhyper bolic
Ġcap ability
A z
ĠE uler
Ġcl othing
ĠConserv ative
ĠGu y
m ade
17 5
Ġd amp
ĠK ur
ir k
ys ics
Ġadvant ages
ĠD est
Ġal igned
st orage
ĠX ML
inc or
20 2
Ġthink s
ĠPr ice
ish ops
18 00
ĠO cc
Ġch ampions
in valid
ic ator
ĠN ep
Ġb ul
. ",
U ST
Ġste am
D epend
Ġdelay ed
ear ly
Ġmin istry
ai ro
re port
Ġelim inated
v ation
Ġr ivers
ĠC SS
Ġaccom pany
Ġg ray
ĠM ack
ĠBl ues
Ġel abor
Ġult imate
d ark
em p
o ft
ĠI E
ob a
Ġc inema
ĠC L
und les
ĠSt atus
Th omas
Pro gram
Reg istry
ĠB illy
ac ew
ĠĠĠĠĠĠĠĠĠĠĠĠĠĠĠĠĠĠĠĠĠĠĠĠĠĠĠĠĠĠĠĠ ĠĠĠĠĠĠĠĠĠĠĠ
Ad apter
t own
ĠDef ence
Ġad equate
Ġpre st
ĠM ach
Ġto m
um ar
}\ }$
Ġsup pressed
Ġminim ize
Ġw et
ĠN i
ĠMar vel
Ġ( ,
Ġl ad
ĠCh art
Ġgu ests
comp ass
fil ename
u h
Ġadvent ure
the se
ĠShe l
Ġas p
at ile
sp aces
ĠJ azz
Ġ Ä
Ġf ro
res ources
MOD ULE
int ell
ĠUkrain ian
ĠUnivers al
P lease
ĠT itle
Ġg ra
Ġfor b
ĠSt age
ab e
g ba
Ġsuccess or
J ava
Ġoccur ring
Ġg ram
Error f
Ġsequ el
Ġst roke
por ated
Ġdiver gence
ĠLiter ature
Ġneighbor ing
ĠBr and
ĠCap itol
IP T
ĠAN Y
Ġoverse as
ĠEgypt ian
Event Listener
at om
he ll
ph oton
Ġview ers
Ġinn oc
Ġshe ar
Ġinc idents
igh bor
ĠSh ah
Ġj oy
Ġaddress ing
Ġassum es
ĠWe bsite
ON G
Ġhe ll
Ġcontrad ict
Ġl ibraries
Ġan ten
Date Time
Ġf abric
Res ources
ĠA B
Ġscal ed
Ġbal anced
Ġneg lect
AT O
Ġreprodu ce
y ll
ĠĠĠĠ ĠĊ
ĠG raph
or ters
18 98
ol en
j unit
E lect
ul ous
ethe less
K K
Ġsc iences
Ġsuper conduct
ĠGr iff
build er
Ġopt s
ĠR oom
Ġbatt les
= {\
ĠBern ard
Ġcohom ology
ech o
ĠLegisl ative
Ġcam ps
intell ij
Ġqu arks
Ġrad ii
Ġamb ig
Ġorient ed
. <
Ġrest oration
ount ered
ĠMount ains
pl oad
ĠSt re
ĠÂ ©
ag ic
correspond ing
Ġob sc
Ġinstall ation
ĠTh ings
L ook
Ġ )$
r ust
ĠM E
Ġprom ised
O fficial
Ġmon ument
Ġ% }
or o
ips chitz
ĠCon c
Ġb ull
Ġwith d
f ac
), (
Ġext raction
ic ates
Ġsurn ame
Feb ruary
Ġw age
(' .
A bs
Ġm ild
Ġxml ns
ix on
Ġatt r
F ore
ĠPro test
Ġall ies
Ġtor us
Ġt one
sp ot
Ġper ceived
ĠKar l
Ġsl ot
R oman
Ġsent ences
Ġclass ifier
AD D
Ġtour ism
Lin q
text style
Ġadvoc ate
f ish
Ch ina
ont r
N ET
Ġt mp
ĠIndust rial
B rowser
ĠCh ron
if ndef
aren cy
Ġwalk ed
, (
r ish
ĠP S
Ġconstit ute
Ġextra ordinary
vis ible
l on
ĠLead er
Ġimplement ing
Ġarg ues
ĠBar ry
asg ow
Ġprom ot
re act
Ġvess el
Ġad min
AT ED
iv ic
ĠI ce
ĠK on
E ar
I gn
f am
Ù Ħ
ber ry
Ġtang ent
Ġgre y
Ġbur den
S ocket
ot ton
Ġven ue
ĠS ide
ĠG ran
Ġland mark
vers ely
Ġfl ash
m ers
A fr
Ġoscill ations
A ir
re lease
Ġachie vement
ab a
14 5
ĠSte el
Ġexpl oring
ĠCont ent
ĠC u
ĠTra vel
H en
Ġhar ass
Ġp arks
Ġdiagn osis
umb le
ĠT ob
Ġunder graduate
ĠCo al
Ġcav ity
Ġh urt
Ġ" -
Ġwind s
Ġmotiv ation
Ġpl ugin
VAL UE
Ġsqu ares
Ġcomm ands
ĠR ico
ĠM aterial
ĠJ ess
Ġr ings
Ġfail ing
Ġcross ed
Ġchem istry
Ġarbit r
ĠIn put
Ġorgan ic
ĠHT TP
h um
Ġsus cept
Ġdiam ond
Ġe cosystem
Ġwalk s
ĠS now
m oz
Ġm ouse
ĠCom ments
SS L
By Id
Ġend point
ĠChall enge
ĠC row
r v
ĠH ind
ourn ament
Ġcompan ion
ĠJohn ny
ĠL ook
ĠN BC
e conom
re ens
Ġprov incial
ĠR ud
Ġbright ness
ĠGal actic
Ġceleb ration
in x
Ġsummar ized
Ġwebs ites
Ġobserv ational
Ġfraction al
Ġtime out
ĠMar x
Ġfl avor
Oper ator
Ġf unny
Ch art
ĠL LC
Â ©
7 50
Ġs ail
Ġrem emb
ĠV ector
}$ ;
s ocial
F i
ĠH aving
ĠPr incess
Ġb oss
Ġsubstit ute
ĠIn v
Ä «
Ġdr ift
18 99
Ġpra ised
Inter val
Ġh orses
==== ==
__ )
ele ments
d ue
Ġgovern ed
F ramework
P UT
V ill
Ġrun ner
inn ed
m aps
ĠPl ant
ancell or
ĠDirect ors
19 2
Ġhead ing
= $
r ically
', '
d k
Ġh ook
Ġcritic ized
ĠV erm
Ġ\\ [
Ġcomfort able
Ġnucle i
ĠA y
Ġflex ible
ĠBl ood
Ġsold ier
ose x
ish ments
Ġpers u
ĠA f
ĠC BS
Ġterrit ories
Ġthick ness
End point
Ġs weet
Ġpe oples
L Y
ĠStud io
ĠAp ache
Ġhol omorphic
W ord
ĠH ero
Ġs ake
Ġtem p
] _{
Vert ex
ĠF ROM
sup p
bor ne
ub ern
Ġaccept able
c n
ĠO scar
Ġdist ant
ĠR ot
l r
ors ion
j query
C RE
Ġsomew here
iss a
Ġenc ountered
moment um
R ender
Ġab elian
ĠNorm an
ĠM Ps
Ġman ual
Ġcomm emor
Ġem otion
^ +\
Ġconsider ably
Ġtro ubl
Ġind igenous
M aster
ĠSim ilar
EL D
ĠInst agram
Ġsol it
Ġoccasion ally
ĠD im
Ġconf usion
ol s
ĠR at
r int
Ġvan ish
OR Y
Ġbre ast
ĠL ess
Ġfore ver
Ġtravel ed
Ġcivil ian
mem ory
u ine
Ġmyst ery
Ġpreced ing
ov ich
U B
Ġprov ing
cur sor
ĠF ine
ĠZ one
ĠE ve
ĠW IT
Ġf inger
ĠU I
ĠS eg
nt hes
Ġsp ark
Ġlik es
ĠA ld
Ġtack le
L aw
Ġch ronic
Ġcommun icate
lim ited
hip s
_{ {
Ġintegr ity
b atch
re view
W he
os ph
ack ed
Ġrec ur
ar ound
ĠDe cl
ĠC atal
sh ifts
autore f
Ġmed ic
ĠEth iop
pro gress
ĠS EC
Ġvol unt
uls ion
Ġm as
2 25
Rich ard
Ġinv ari
DE F
Ġrac ism
umb ered
Ġop ponents
Ä ĥ
Ġsearch ing
sh ared
P ublished
ann es
opt ional
Ġphil osopher
ĠJeff erson
Ġleg s
d ialog
Ser ies
her s
S i
( |
ĠF ant
18 97
l ive
Ġunder ground
r and
opt imal
a very
ply ing
- {\
em ption
ĠJ S
ov o
Not ice
Ġgeodes ic
Ġloc omot
Ob serv
ann ah
Ġintrodu ces
pend ing
Ġadapt ive
ĠF if
e lem
Ġp arser
Ġann ih
?? ??
rad io
Ġdeg rad
Ġc able
big gl
ĠColon el
h yp
Ġin coming
inter val
L and
Ġcomplet ing
Jo in
Ġdual ity
=" "
Ġdetermin istic
pol icy
D rop
Ġper ception
18 95
key word
om ed
L anguage
Ġst ops
ĠE li
ĠD ays
Ġhop ing
N Y
{ "
Ġband width
Ġplan es
Ġs alt
ĠO range
ĠSh akespeare
ĠD J
Ġc umul
! [
Ġbr illiant
Ġmanifold s
Ġoblig ations
Ġreal ization
ĉ ĠĠĠĠĠĠĠĠ
duc ational
ick en
Ġproceed s
Bas ic
Ġg ates
iss ible
Ġmetall icity
Ġorig ins
Ġg ard
Tele vision
ĠG un
ĠAust rian
Ġinstitution al
ĠM uch
Ġprot otype
Ġelect romagnetic
Ġsingular ity
Ġstream s
p rom
Ġtr ap
Ġw ars
Ġexp ense
pre p
select or
Ġâ Ĥ¬
disambig uation
Ġintern ationally
Ġval ign
qu et
D er
p icker
Ġenter prise
ent i
Ġb ubble
Ġquant itative
Ġembedd ings
Ã «
th y
ĠU g
M or
Ġdel ight
Ġg ro
k k
ed ed
A K
00 5
process ing
Ġ\ #
Ġsound track
Ġl iv
Ġport rait
ĠSer ge
Ġengine ers
I AL
Ġt rem
ĠComp an
Ġunem ployment
ĠVi ol
form al
r aska
ac co
Ã ł
Ġin vert
Ġt ill
Ġapprec iate
cons ider
o il
in ced
ĠSt ars
et es
Ġre cept
/** */
Ġsimpl ified
ĠS oul
Ġspeak s
ĠP rad
ĠW arner
Ġob ey
on ed
N V
ĠHun ter
M ilitary
ĠF ed
Ġg ent
d n
Ġal ias
)\ ,\
ĠBl oom
Ġsil ent
sh all
f ive
ĠTreat y
F lor
ĠMed iterranean
Ġpre val
resol ve
ĠScient ific
W in
T Y
op ing
An n
hol m
Ġant ib
ĠS ett
Ġsome how
f un
St ats
Ġdispl acement
ty pen
con j
Ġres um
Ġp ace
ĠS r
ĠS L
Ġg allery
f ail
S chool
ĠTh or
ĠG ate
ĠT rophy
object s
ĠB O
18 60
Ġm arch
ĠC F
Ġun ions
ĠEx p
d in
19 0
Ġb ol
ĠP hoenix
raise box
T or
cel ona
Ġins pect
BU G
We ek
Ġviol ations
Ġbu ying
ĠCon cert
om ing
Ġam endment
Ġnob le
Ġgr ain
Ġobserv ing
Ġstrugg ling
ĠMay be
check ed
math ds
it atively
18 96
cc entric
ĠAl ban
i u
Ġprotect ing
Ġqu bit
ant ics
quant um
f ar
ĠM yst
h ou
Comple te
Ġcheck ing
Ġpred ecess
ĠB enn
Ġarchitect ural
ĠTechn ical
ĠW inn
Ġillustr ates
_ );
l icens
ter ms
Ġaccompl ished
Europe an
Ġf ract
ĠR ank
Ġmanufacture rs
Ġshould n
s ame
ĠB OO
vel oc
Cl oud
ag h
ex act
ĠJ oint
Ġproof s
Ġme at
IC ENSE
Ġdismiss ed
ĠMin or
ĠM IT
ĠCat hedral
}$ $
Ġunc lear
) ~
Ġpract ition
g om
vent ions
ĠCit iz
L ight
Ġdwar f
V C
F n
k ar
ĠAnt i
B inary
Ġspecial ized
SQL ite
[ {\
f eed
P ATH
ĠDr ive
ĠBapt ist
P eter
Ġconduct ing
it ual
ba ij
Ġch unk
ĠArchitect ure
Ġachie ves
ĠPhil osophy
ĠSym phony
Ġ{ '
ĠHig her
Ġlegit imate
as is
ling ton
_{ (\
pl ain
ĠSus an
Ed ge
Ġregular ization
Work s
ĠP ictures
ĠĠĠĠĠĠĠĠĠĠĠĠĠĠĠĠ ĠĠĠĠĠĠĠĠĠĠĠĠĠĠ
Ġmid field
M ask
Ġbr ut
s elling
13 2
Ġ ions
he ld
Method s
Ac adem
Ġcomplet es
}] \
p u
Ġjourn als
Ġdis ks
le tt
Ġl ingu
Ġlocal ization
Ġadvers arial
Con ver
ĠAb u
sh al
f iction
ĠCamp aign
f ef
Ġsl ice
run time
rict ion
O UT
c z
HT TP
Ġvot er
Ġrecommend ation
ĠF el
Ġm os
Fig ures
Ġoccas ions
F ailure
\ }}
A gent
Ġhon our
D u
w art
an chor
Ġsup press
Ġval ued
im et
Ġany way
h on
Ġst rang
Text ure
ĠCl aim
Ġconvers ations
Ġn aval
Ġconv inced
Ġacknowled ged
F ootball
augh ter
zer baij
ĠK os
l ooking
ĠF un
C a
b ishop
Att r
big gr
Ġin clusive
Ġw edding
m ouse
Ġsp ots
ĠM ason
if iable
ĠCom ment
) <
ĠB ud
Ġreform s
ĠA rena
Ġrec ruit
Ġreason ably
ĠB ron
ĠOrig inal
int erest
b ran
ĠRe act
or ry
Ar r
Ġsurv iving
ĠRail road
ens en
es y
Ġm ath
D id
ĠP ant
Ġqu art
Ġbu f
typen ame
st ock
ocr atic
grad ed
Ġhel ic
2 10
Var id
ars on
ĠC raig
ab is
c op
Ġ ];
Ġmodel ed
L ive
) ->
big skip
t ags
Ġenorm ous
ĠM ak
AM P
ĠF alls
ĠFl ore
Ġ\ "
ĠCom merce
war z
Ġaut omorphism
ĠWork ing
Ġexplos ion
): =\
ĠS id
ĠVin cent
Valid ation
Ġcomp ly
ĠCharl otte
ĠIS BN
ĠN ord
Ġout flow
m agn
ĠCrim inal
F our
ĠInit ial
ro us
Ġsoci eties
if ice
ĠBerk eley
Ġexponential ly
ĠE le
idel ity
G T
Com put
' ,\
Ġsec ured
@ {}
Ġfl ights
W atch
Fl ag
ĠLeg end
z ym
ĠA str
ĠMet ro
Ġl ux
Ġconver ge
Ġsus pic
Ġvis ibility
ĠPl anning
ĠJ oy
iz on
Ġt ickets
ig g
Ġall ocated
B ind
B ad
ĠG as
j ango
' (\
}} +\
ĠGuard ian
ious ly
ĠRich mond
Ġsoph istic
Sh ared
Ġmag azines
Ġbehavi ors
Ġal ien
Ġco aching
Ġdog s
A U
ĠCarl os
Ġ( ),
mid t
s afe
p iece
15 5
Ġany more
Not able
Ġpre vention
ĠHar rison
}] $
Ġhard ly
it us
ĠP ic
ĠM ong
itte es
ĠNet flix
ĠO il
ĠR ange
ĠT ak
Is rael
ĠDel aware
osoph ical
ob b
Ġsure ly
ĠG ot
( @
* {-
ĠB esides
Ġappro ached
Sh ould
pend icular
Ġcred ited
' -
Ġbr ick
ĠMu hammad
An imation
log ger
Null able
t ake
orient ed
ĠDemocr at
ĠPr ivacy
P N
] }\
h is
ĠG W
cl ock
col lect
Ġl ights
ĠDen ver
ĠF O
ĠB S
ĠP red
With out
F ocus
e very
ĠCh o
S il
Ġsimpl est
Ġmask s
F uture
r Ã©
Ġcur riculum
ĠGre ater
Ġtw ist
R ussian
Ġdecre ased
Ġinf ected
f p
ĠH indu
D b
Ġd ivers
Ġinj ection
Ġfore ach
Ġpresc ribed
ĠR ules
Ġrespons ibilities
hab ilit
ok a
Ġmanufacture r
ĠC arm
$ }\
Ġconcent rated
Ġprotocol s
Ġent ers
ĠCom ics
condition s
Ġloc ality
Ġer g
Ġsc an
Ġaver aging
utr ition
ĠJ en
ĠRoman ia
+ }
Ġthe sis
ĠIn n
sh a
ĠH im
Ġrev ised
Ġaccess ed
ograph ics
act eria
Ġveter ans
ĠHit ler
Ġload ing
n atural
ier ra
m apping
RE Q
method s
Ġcycl ic
time out
Ġafter wards
ĠâĢ ł
00 3
J ac
ĠAlex and
Ġaffect ing
P ut
Ġinher ited
ĠD ictionary
St rategy
ĠR ural
Ġwealth y
~ {\
Ġs isters
^{ [
12 9
ĠAssoci ate
Ġel ite
word press
fef efe
pr ises
ĠP ri
ĠC ele
Ġb ins
Ġsimpl er
opt im
un ate
ĠJer ry
ĉĉĉĉ ĉĉĉĉĉ
Ġcurrent s
t p
Ġcancell ed
P et
Ġwor ry
Ġeng aging
Ġdes per
ib an
ĠGl asgow
ĠF ight
Ġqual ify
com position
ĠAgain st
ĠF itz
Ġprote ins
Ġam end
Ġthe at
ust ers
l brace
ĠT ol
ĠKen ya
G D
ĠBeng al
Ins ert
dr iver
ĠP oll
Ġspe akers
col head
Ġ' \
ĠN iger
Pass word
Ġy esterday
Ġ\ }$
te enth
ĠOtt oman
Un known
j ob
display Name
h aus
) /\
ĠW ikipedia
Ġb read
oper ation
Ġcert ified
J ew
Ġdip ole
pre ced
Ġm eth
Ġam id
omet er
construct or
Ġflux es
j Query
l iter
ĠD elta
r h
L ear
ĠPro of
assert True
ĠInd igenous
ĠLeban on
C ard
ex cept
Ġqu ote
Ġc md
ener ate
Ġterror ism
Ġsynthes is
r ift
Ġnucle us
w d
Ġout line
te ch
t f
Ġdetect ors
Ġdeb ug
Ġpurs uant
top rule
ĠU E
10 24
reg ation
ie ve
Ġdo zen
Con tact
Ġincre ment
ĠM icro
atern al
Ġm apped
ĠTam il
th ird
th in
Ġinter pre
Ġmethod ology
18 65
l ag
Ġburn ing
fig s
Ġcap s
Ġl obby
W I
ĠâĨ Ĵ
Ġbar riers
& +
ĠMult i
Ġfun eral
v v
Ġmicro sc
Ġinteg rate
ĠConst ruction
18 93
L ater
ç ļ
Ġim perial
Ġg aps
ellig ent
T L
Ġb anned
3 20
S ocial
) ~\
ic z
Ġb ag
ĠN ad
ex pression
ĠC M
ĠLabor atory
ag ent
Ġcomput ations
im eter
Ġneighbour hood
Ġmod ifications
NavBar Cell
is i
Ġincorpor ate
i pt
ph ot
Ġdepend encies
Ġimportant ly
ĠM all
Ġnom ine
sm ooth
produ ction
Ġen force
Ġsequ ential
Ġcorpor ations
ÃŃ n
ĠN am
ack now
id o
ĠS olar
^ ^
ĠP ent
ĠL arry
ĠY ank
13 3
t ures
ĠColomb ia
Ġpo ems
ĠI da
Japan ese
ĠBOO ST
ar an
Ġsub mar
ili ation
A I
Ġdiff ers
ĠP ersonal
Con clusion
sur ance
Ġsust ained
Ġvolunte er
Ġdon ated
Are a
L u
ĠPalest ine
ĠF riends
Ġtr aces
Ġgen es
R F
test s
cur ve
as sembly
ĠN othing
it i
exec ute
Ġtestim ony
Ġs hed
K ing
Ġal le
Ġt ons
ĠChe l
ĠDef ine
rist ol
Ġoff ense
Ġparamet riz
cl one
ĠPer haps
F ace
Ġt ribute
ĠRead ing
g h
Ġrot ating
Ġf illing
final s
Y our
yl um
Ġmod ular
inc inn
Ġpush ing
el ing
ĠÃ ī
ĠV ent
Ġcom ics
ĠSe ven
Ġcam eras
Ġd ynasty
ĠIn novation
Ġsub str
Ġ[ "
Ġdisappe ar
' +
Ġyoung est
P ref
Ġalleged ly
à ¥
ĠSt ories
Pl ace
v et
Ġ{ },
r n
rel ations
Ġcorrect ed
Ġrecogn ised
Ġassoci ations
T HE
p ull
ĠS ad
Ġj ew
ij k
inter pret
Ġimpro ves
ĠSim ple
Ġcoinc ides
Test Case
ĠPer ry
ĠAl ong
ic ht
am er
ĠLu ke
Ġb es
Ġdoll ar
ĠM ans
Ġatmosp heric
: `
Ġg amma
Ġac res
f actory
ĠBe ing
Ġa uth
Id x
Ġindic ator
Ġout lined
ĠAut o
b x
Ġexcept ions
Ġh az
Ġap ps
ced ure
Ġwood en
Ñģ ÑĤ
Ġqual ifying
Over view
Ġeval uating
Ġconj unction
Ġinf er
Ġcaus al
ĠMon th
Ġmist ake
}} }}
Ġprogram mes
ĠClass ic
ĠH ttp
uck er
a qu
block List
ĠOl iver
ĠD eg
Ġdiscuss ing
as ync
'' .
ve ctors
cast ing
Ġcharacter ization
sat isf
Ġtreat y
z ing
){ $
Ġf ert
ep he
ĠAlber ta
Ġtechn ological
Ġpar ity
ontr ivial
AN CE
ĠSud an
Ġke V
m k
Ġn ortheast
18 91
******************************** ********************************
Ġten ure
Ġdepend ency
Conn ect
ox ide
Ġpsych ology
Ġm oon
18 50
> "
Ġmob ility
Ġtele phone
ĠStr ateg
Ġ$ -\
ĠT IM
ĠCh ampion
+ |
Ġvari eties
f ers
Ġtr im
Ġtyped ef
et ics
ĠJ ere
18 92
Ġdevelop er
Ġc rop
ath on
Ġd upl
Ġple ased
Ġguitar ist
Ġconjug ate
ĠF riend
di agram
Ġrend ered
Ġo ct
incinn ati
g tr
ĠP L
ad vant
ĠB asketball
ĠSh ang
ĠHeb rew
Ġevolution ary
ett i
ĠSh aw
Ġb ills
Ġt issue
Ġsum s
Ġadjust ed
Ġcan vas
ĠKir k
; }
Ġdig it
Ġstop ping
ĠP el
g un
out ing
18 94
Ġe ating
Ġp ian
Ġstret ch
int eger
Ġsl avery
head ers
b ank
Å ¾
Ġinher it
Ġpoll ution
ĠS ets
Ġt ale
Ġfre ely
uss ia
v ars
Ġexp end
he alth
Ġstr at
Ġlast ed
Å Ł
Ġt orn
Ġbank rupt
ur u
ID E
ĠS ay
Ġdocument ed
C ross
ĠF IFA
Ġwarn ed
at z
Ġtrib es
z ens
Ġf ictional
Ġtreat ments
s ymmetric
Ġbackground s
if le
Ġpres erving
18 89
ul ates
ĠĠĠĠĠĠĠ Ċ
vert ical
w ind
ĠSing le
ĠB ranch
Ġfl ed
Ġvol can
U ES
16 5
aus es
Ġswim ming
Ġreg imes
\' {
T ur
hor izontal
N or
ibli ograph
cyclop edia
çļ Ħ
t l
Ġsp iral
x rightarrow
ĠAb raham
Ġdeleg ate
Ġtra ff
Ġobtain s
S ame
Ġcard inal
Ġdegener ate
Ġsome body
ball o
ĠC ox
ĠTr ack
ĠO K
Ġp ip
}) }\
Ġnorm s
ĠM atch
}}\ \
Ġpref erence
15 00
ĠM oz
Ġen abling
od ic
Ġj s
IN FO
ĠÐ ¿
Ġpro jections
ĠCl ient
ĠL en
s burg
or bit
Ġjoint ly
SC R
ĠStat istics
Ġrig id
5 000
Am ong
ĠW or
ir s
ster dam
ĠÂ ·
L ou
ĠC ole
ĠH E
u u
grav ity
ĠA x
ĠG round
Ġmin isters
Ġr ay
ĠL ost
Ġprof ound
necess ary
ace ae
Ġsal ary
wp engine
Ġw is
eyn olds
Ġdis orders
ĠM i
Ġsecur ities
Ġstar red
row ing
hent ication
ĠL L
amp a
Ġbo ards
Ġf atal
ull ivan
ĠNeb raska
13 4
Ġd ictionary
18 85
ol ia
âĢ ī
âĢ¦âĢ¦ âĢ¦âĢ¦
* ,
ĠNichol as
ĠAd vanced
Ġut ter
Ġsp ins
13 7
con vex
Ġthere in
Ġfast est
Ġam ended
Ġpat ri
Ġa z
Ġreg iment
Ġharm on
Ġgen uine
S elf
INT ER
Ġenem ies
ĠQu arter
m und
ĉ ĠĠĠĠĠĠĠĠĠĠĠĠĠĠĠ
ĠW i
ĠGr ace
Ap pend
Sever al
N U
Ġpremi ered
Ġearn ing
ĠRob in
ex amples
Ġ\, .
DE FAULT
om o
Ġassert ion
Ġs aving
Ġaltern ate
Ġevery day
Ġb ishop
ĠY ale
ĠM asters
Ġdelet ed
ug osl
str ument
RE D
Ġinvestig ating
Ġdef inite
est on
Ġintegr ating
cel and
P romise
Ġcogn itive
hand ed
Ġcoinc ide
H AL
ĠN icol
ĠCo hen
resize box
Ġen compass
13 6
Ġev ac
eq q
ak u
tab s
ĠDiff erent
Ġmount ed
Ġneg lected
ĠArt ist
Ġt ub
ac ular
Ġsusp ension
Ġw allet
Rep ository
}} ^{(
Ax is
r brace
Ġres ist
Ġphot ometric
Ġhistor ians
ext ra
Ġhand ed
Ġmac ro
( $\
f olk
P resent
ĠIm port
face book
Ġpray er
ĠB egin
ĠSp acew
bour g
c oc
is ible
ig roup
ik es
s ized
ĠR ugby
W il
ht bp
ass ets
Z Z
× Ļ
Ġdipl omatic
}\ ;\
pi res
bound ary
Ġisot ropic
ĠSong s
Ġrel ates
ĠMur phy
Ġadv ances
cast le
Ġfall en
Ġcollect ing
ĉĉ ĠĠĠ
B usiness
UN D
he ro
Ġg ran
P ower
Ġche ap
Ġqu bits
Ġs ink
car ballo
Ġsports people
Ġstructure d
Ġviol in
Ġsynd rome
Ġafford able
Ġim pression
ĠL E
] _
big oplus
he art
m any
ĠT un
Re view
) ",
z ip
f b
acknow led
ĠF ast
Z one
Ġanom aly
Ġsc attered
Requ ired
Ġtext ure
ra its
Ġd inner
Bl ue
pt ical
Ġd ying
Ġfollow ers
ĠSpe ed
Ġbl ank
duc ing
R andom
En v
serv ices
Ġassert That
ig o
ri ors
g age
Ġdec ides
ĠAd miral
ĠBar celona
Ġsk etch
Ġisol ation
Ġb ullet
com pute
s z
Ġ ell
Ġn it
O F
ak ov
}} }{\
abet es
W ar
d m
C red
Ġch ron
Ġgrad ients
id ad
ĠN N
U pload
ĠT otal
Ġhistor ically
s it
Ġrecall ed
g ap
)$ $
ĠW ing
Ðµ Ð½
2 15
Ġcalcul ating
ĠCl ay
Ġsp ont
ex per
make box
Ġres ervoir
Ġpl acing
Ġactress es
ars ity
ĠL ithuan
qu er
ĠK il
M ouse
E ast
ĠVictor ian
on ian
ĠT i
Ġun success
ph abet
Ġcont ributes
97 8
ĠMad ison
Ã ª
ĠE T
Ġmoment a
ĠSpacew atch
K L
Ġcol span
Ġed it
Ġwe aker
less ly
}_ +
Ġadm ission
Ġcon vey
Ġar row
Ġpun ishment
ic iary
Ġp ill
Ġfoss il
ĠKe ith
h istory
cons ist
ri en
Ġins pection
ur ious
^* (\
ĠH udson
ĠLead ership
Ġcont rolling
Ġfit ness
Ġfl ower
ĠMoroc co
Ġo mitted
Ġlog ger
ĠW es
ĠMon ey
Ġcompos ers
Ġq q
set length
Ġspons ored
Ġ' ';
h h
Ġlimit ation
as ia
=" ${
ĠB our
IM PORT
US Y
Ġgrad uating
ĠSt op
M ad
ĠB rew
Ġ" '
Ġv ib
Ġn p
Ġ{ "
ĠPr imary
}$ ),
De ep
M IN
ĠMe chan
Ġdiscipl ine
E mail
á ĥ
sche me
Ġemphas ize
Ġinf erred
gom ery
13 1
ĠTe acher
$ ^{\
o j
ĠSt orm
et ter
Constr aint
ĠDr ug
Ġparliament ary
b inding
Ġen code
cell color
Ġqual itative
h ind
ol ition
Ġhom eless
e ing
Ġland ed
cos h
cos ity
Vis ible
b os
g ender
osp here
3 30
Ġachie vements
Ġchalleng ed
Ġaf raid
Ġconstitu ency
ht b
ig ator
Ġ rib
Ġb ipart
P air
ar ms
Ġt une
qu ark
Ġsens ors
H I
ĠB ody
ĠB urg
D ATA
ĠN an
Ġcl im
Î ¿
Ġmon arch
b ian
ir ts
i ref
}, \\
ĠAgric ulture
Ġdro ve
Ġdef ending
ur ated
ab atic
Ġpl acement
s ync
Ġre conc
Ġown s
Ġmurd ered
id i
Ġsh ore
ĠSpring s
ra h
Id s
Ġdream s
ĠFle et
atter ing
ĠS outheast
NR AS
T ex
ĠK rist
var pi
Ġobl igation
Ġout door
F ac
Ġspecial ist
Ġcur sor
X Y
Ex ecut
ĠR ing
ĠR elease
ĠArch ive
pos al
Ġseem ingly
Ġmuseum s
^{ {\
13 8
ĠZ end
Ġprof its
Ġal pha
ĠTra il
Ġrememb ered
Q ual
Ġdis abilities
ĠPr im
Ġcut off
18 61
Ġunder go
ĠGerm ans
ĠN HL
Ġinf rared
ĠBe aut
ore r
ĠV lad
ne ut
Ġapproxim ations
ĠN at
Ġgraph ic
Ġsingular ities
c u
re z
Ġb io
Dr iver
Ġfaith ful
am ation
mer ge
ĠT u
Ġcomment ed
Ġsuperv ised
s ay
Ġe ccentric
ĠComple x
Ġportray ed
ĠCoul omb
}{ $\
T ok
Ġfin ancing
{ }\
ĠMer c
ĠFl ight
Ġpremi ere
c ott
ĠTer ry
Ġgrand father
Ġr gba
Ġele ven
ym an
Ġfoot age
SE LECT
yst yle
a que
on ing
Ġag gressive
Ġw ages
Ġj u
ro ute
Ġsub graph
at im
() </
Ġpo ison
Ġprom ises
Ġencour aging
Ġvari ational
C opyright
ĠJ ob
che m
Ġorgan ised
Ġstreng ths
ĠG ay
Ġsaf ely
Ġastr onom
ĠL ud
Ġsh aped
Ġarch ive
ĠMont ana
cho ose
m art
Ġconclud es
Ġcommut ative
B a
20 5
CH AR
ĠMil an
ĠRef erence
ĠG O
Requ ire
Ġincred ibly
Ġg est
Ġt ube
us k
Ġcour age
urs or
ut o
Ġicon ic
k ernel
C LASS
ĠL oad
Ġenhance ment
umb ent
incor porated
Â ·
Ġe ighth
ĠP T
Ġc ow
Ġh ang
18 88
ĠInd ependence
sub ject
^{ *}
Ġgather ing
' }(
th lete
T ake
ĠInvest ment
Ġinter active
ath y
hed uler
Ġimm une
ĠPier re
Ġjournal ism
o ons
x pos
ĠMag ic
m el
ĠAssoci ated
ĠP le
ĠG onz
d ied
t body
ĠIn surance
Ġp uzz
Ġsec ular
Ġt et
x it
ĠFran ces
$ =
ot ypes
ĠGu inea
z b
vel t
Ġanxi ety
r ag
ĠS yn
aval ry
veloc ity
ĠRem ove
M ove
Ġcomp ounds
Con stant
Ġdr ives
Ġdo ctrine
Ġtrans mitted
oca ust
Ġn s
w rapper
ĠWork ers
ĠB log
s olution
Ġstat ue
ĠAdvis ory
ĠBy te
ĠFe ature
Ġor ange
ĠCost a
3 000
g overnment
Ġfil med
ĠSe an
p q
} </
ĠF u
Ġpregn ant
Ġmaintain s
sh ops
ĠR ather
] ^{\
Ø ±
Ġid x
ĠN ar
Ġtax p
ĠG alaxy
Ġrenew able
il ia
ĠM obile
Ġext rap
d uration
Rad io
Ġb one
å ı
L ondon
] +
Ġd ad
, }
Ġresear cher
preced ented
L ead
Ġcon spiracy
Ġanticip ated
ik o
ĠArab ic
Â ®
ĠE ug
Ġutil ize
ĠJenn ifer
Ġaccommod ate
}} -
Ġrevolution ary
s al
Ġt uple
Hel p
Ġfol ks
ugg ing
ĠJos Ã©
iz ard
Ġb unch
Char les
ĠI gn
un al
y pos
Ġn inet
ĠPro file
It alian
d v
H H
Ġp or
Ġnorth west
ĠJust in
Ġoverwhel ming
ĠG arc
An aly
Ġdecl are
Ġrele vance
Ġcent res
writ ers
ryst al
t k
ĠMax well
dest roy
up d
valid ation
Ġsear ches
ĠC IA
spect or
ĠTransport ation
ne ver
ĠYork shire
Ġemot ions
"/ ></
it ian
ack ets
Ġpro l
ĠOver all
Ġse cre
á »
Com par
Ġsurve illance
ab we
ipl inary
Ġtrem end
ĠD A
bottom rule
ĠWrit ing
ĠRog ers
Ġst uck
Ġer up
Ġsl aves
F ar
ĠPy thon
M ix
ore l
Ġk pc
' ];
V R
ĠW a
coll apse
ĠT on
Ġhuman itarian
us ername
18 64
ĠCon text
Ġall iance
Ġl ung
w oman
D OM
por al
Ġconf ined
Ġfasc inating
ĠC atherine
Ġrat ings
Ġcorn ers
ĠSt rategy
eg u
b ibliograph
Ġgl obe
Ġoptim ized
Ġbe ings
Ġsh ops
resol ved
Ġtw in
Ġor chestra
eren ced
14 3
ĠLiber ty
ins ky
Ġlong itudinal
amb ers
ĠF ab
ĠDe velop
C G
Ġreconstruct ed
| {\
em e
Ġd ots
ĠD B
\, $
R ules
Ġres il
sh ore
Cl ub
Ġb ug
Ġturbul ence
× ķ
bibliograph ystyle
Th m
ĠLl oyd
Ġrobust ness
Sm ith
inher it
Ġcomm od
Not ification
Ġau ction
H a
ĠB eth
ĠR u
Group Name
Ġter rible
ex it
ĠEd wards
ĠLO G
âĨ ĳ
valid ate
ant ed
ab br
C AL
S B
ffic iency
AM ES
con sole
Ġl oves
ĠEx cell
ĠE SP
all ing
Ġflex ibility
Ġhon ors
Ġinterpol ation
I ll
ĠV ic
ĠVenezuel a
flu id
Ġcharacter ize
run ner
ĠO bl
ĠM ock
Ġr ally
aged y
gtr sim
Ġz ones
Ġmot ions
Ġassist ed
Ġlogarith mic
er ious
Ġview ing
do es
Ġdebut ed
trans fer
Ġwire less
Ġmod est
elect ron
Polit ical
class ical
Ġt aste
ĠW u
ot he
Ġsus pected
Ġ ul
Pl ayer
I Z
ov ic
r ates
Ġdes k
L ie
Ġor al
tw itter
Ġse eds
ĠTre asury
ĠM is
}} )\
ĠCl iff
33 33
Ġt ribe
Ġen velope
ĠE M
Ġwork force
Ġdam ages
Z ero
S ample
check box
og s
ĠCons ervation
Ġcounterpart s
ĠC urt
Ġmind s
Ġn ontrivial
ber y
Ġdim in
ĠK ate
Argument Exception
am o
ĠR ele
Ġsan ctions
Ġas ymmetry
Ġh itting
Sec ret
ĠCam eron
ĠPro duction
). $$
sp ired
Ġver ification
ĠPsych ology
Ġt el
}. $
iv ariate
Ġre nown
Ġto urs
ĠD iamond
ĠBuff alo
H or
ĠPer u
Ġ" ",
Ġconsequ ently
imb abwe
ĠRon ald
ĠSoc cer
n ative
Ġtw isted
for Each
sin h
]{ ./
Ġutil ized
Ġsustain ability
p ub
Ġpair ing
dis k
Ġbenef icial
Des ign
St ation
Ġexplo it
C ONT
ĠJ ama
ĠC lear
ĠPar ish
arch ive
Ġconnect ivity
ĠI van
at able
o ard
ĠY uk
m ot
Ġr itual
ĠCont emporary
system s
Ġmil k
* }\
Ġto ll
Ġt elescope
Ġsubsid iary
R aw
ĠAb stract
| }{\
Ġconstruct ing
ast rop
000 1
Ġdescript ions
ĠR andom
Ġharm ony
Ġsophistic ated
ĠS ect
}; \
Fe atures
fl ux
ĠN ATO
H F
Ġbusiness man
ĠH ost
Ġr hythm
Ġhomot opy
ĠB og
ĠL ate
f lex
Ġfest ivals
ĠA zerbaij
) _\
f eld
Ġbranch ing
Ġsummar ize
Ġin hib
**** **
Ġcon greg
Ġhe m
ĠT ool
Ġw ishes
Ġf ighter
Ã¨ re
Ġb ridges
RE E
Ġsum mit
Ġconcert s
Ġin ad
B ottom
Song s
ĠCl are
Ġspec ification
Ġdisc ount
15 2
tr ain
b inary
Ġop ponent
16 8
ĠFa ith
C AR
ĠLa ura
ĠGh ana
er gy
Ġexclud e
Ġt ar
Group s
ĠSerb ia
Ġde ck
Ġmeas urable
N ever
Ġco ins
Ġread only
Ġtr apped
Un ivers
Ġoccur rence
vers al
g as
STR ING
em it
Ġsuperv ision
M el
Ġnon profit
Ġpresent ing
Ġhop ed
Ġrect angle
es ters
Ġres erves
BP ACK
F rank
ĠInit iative
Ġrep ly
cor relation
ĠI F
Ġconnect s
ĠM ol
C enter
> [
G AN
ð Ł
Ġf isher
] \\
p rior
ort s
Ġb achelor
der iv
ĠT ib
Ġsym plectic
/ _
Ġpeak ed
ia o
Con structor
ĠT oy
ĠForm ula
I mm
Ġed iting
Ġpoor ly
L java
ĠEv ents
ĠWat son
transp arent
ĠBas ic
ĠS ometimes
B ill
Ġab ilities
Ġp sychiat
ĠV irtual
Ġ@ "
Arg uments
ĠR acing
ĠC PU
ĠI ter
th al
Ġconv iction
}$ :
ĠR angers
18 87
com parison
Ġperturb ative
So ft
Ġtal ented
Ġsurviv ors
Ġf ate
Ġport s
del ay
Ġre write
ĠĠĠĠĠĠĠĠĠĠĠĠĠĠĠĠĠĠĠĠĠĠĠĠĠĠĠĠĠĠĠĠ Ġ
od ec
e V
Ġaut onomous
ĠOut put
te am
Ġmod elling
Ġexhib ited
Ġcust ody
am ic
up load
Ġdis par
Ġexpl aining
Ġl in
Ġcompris es
ĠD OM
Ġquant ization
abil istic
Ġhist ogram
ond o
di agonal
ort on
Ġdist ribut
ph ysical
Ġvort ex
harm onic
Ġpro sper
ĠR ivers
ĠCommunic ation
Ġevol ve
= &
Ġs ugar
ĠB ir
ĠW eyl
OP T
Ġsub sc
)} =\
au kee
Ġbi ology
^ *}
=" @
C amp
' ]['
or ro
ĠAcadem ic
Ġd ose
ĠC hern
Ġinvari ants
pro j
ĠD oc
ĠP resent
Ġir regular
Ġneutr inos
ĠLem mon
Ġsav ings
Ġwitness es
ĠT ournament
c v
Ġfarm ing
Ġarr iving
ĠImp act
ĠHis panic
i w
}{ !
ley ball
Ġcon ce
() ))
Ġcompar isons
ĠAnt ar
Ġattend ance
J ul
ĠC ricket
Ġper pendicular
H ub
18 63
Ġcare ers
ĠD raft
ron es
R ate
Ġm amm
Ġsh ield
Ġsu ite
xim ity
Ġdec oder
ĠBay esian
Ġl ap
- $\
H aving
Ġident ifier
ĠHealth care
f ollowing
Ġple asure
br and
Ġred shifts
Ġsimpl ify
L arge
FI ELD
ĠH ousing
ĠCle arly
Man agement
Ġsk ew
ĠS aints
Ġship ping
00 4
Ġb oot
Ġpol es
Ġsubt le
Ġle tting
ĠTh anks
Ġbos ons
Ġhost ing
ĠE lection
\ `
ĠH unt
Ġflo ating
over view
}{ .
Ġdevi ations
ounc ing
t ouch
he imer
Ġa fore
l ies
act ivity
Ġover head
Ġstat s
C le
Rend erer
ĠL oc
Ġlegisl ature
ĠR AF
C rit
ke ep
B atch
ian ces
att ices
Ġnation wide
ĠA round
ou p
Ġen roll
ĠB ird
hel per
Ġ )\
ific ant
l p
Ġh ub
fore ach
emb ed
ĠCurrent ly
ĠS ax
aster y
Ġchar ter
Ġtrig gered
R ay
ĠI de
ĠB ass
ĠP romise
ingu ished
; ">
Ex pat
18 86
Ġan onymous
ĠElement ary
ph on
ĠC ant
ym p
be it
ell ers
Ġdro ps
Ġexp ans
Ġcitizens hip
ĠAthe ns
ĠM end
Ġcomb in
j ax
ist ered
x t
Ġarray s
ancell ation
ĠBre ak
ĠB ristol
Al bum
Christ ian
f mt
ibl ical
Ġabund ances
ess ment
Ġfl ip
Ġvacc ination
Ġcivil ians
VAL ID
Ġregular ity
Ġdemand ing
> ;
): =
ĠRepresent ative
ĠHar vey
ĠHor se
Ġlegend ary
Ġjust ified
Ġequival ently
Ġe V
Ã© n
Ġinsert ed
N I
Ġin ert
MO DE
Ġbo ats
}) :
Ġdi et
Re ception
Ġdiff e
Dist ribution
Ġhe x
Ġpar a
Ġdram atically
Aud io
ber ger
AT CH
Ġdistinct ive
ĠCor p
under brace
N orm
Ġtradition ally
Ġm ad
f ollow
ult an
Add r
Ġmole cule
Ð¾Ð ²
Ġreg ret
ĠM ix
Ġnurs ing
Ġgold en
e eq
}. $$
ĠBer g
st ad
Ġcook ies
ick ed
Ġcab inet
st eps
Ġconf used
Ġide als
alth ough
ĠEn c
Ġfant astic
ator ies
item pty
ĠNov a
ĠS ustain
Ġrad iative
Ġhold er
) },\
ut ory
ĠR uth
Ġform ulated
av i
Ġbi ography
Ga ussian
Ġfinal s
S ave
Ġpack ages
Ġcontext s
Build ings
ĠIraq i
Ġprevent ing
Ġmand ate
en ers
ose velt
Ġf ed
in ar
top ic
J ose
ĠNe il
Ġlif estyle
Ġm s
B inding
Ġa qu
ĠWh ich
Ġcl othes
15 4
Ġlog ging
Ġund erm
OR M
Ġcous in
/ {
Ġa est
Ġp our
om itempty
ĠHoll and
h all
Ñ ĩ
ĠT ed
)$ }
Res earch
nod enum
Ġsouth west
Ġswitch ing
Ġdiagn osed
pr ising
Ġele g
Ġp c
colon eqq
Ġatt raction
ĠW rest
i encing
ĠB ert
Ġcompet itors
ĠA ctor
Ġver b
Ġhun ting
ĠPh arm
ounc ill
ju ana
Ġw ings
ew ay
Ġsqu ared
Ġun changed
B AR
ĠFig s
f ake
ĠT arget
ĠCol umn
ps y
s outh
ĠCons ult
all ed
Ġpres erves
ĠSc ript
Ġcross es
US A
Ġprest igious
ent a
ĠC incinnati
Expat riate
ĠG DP
ĠDise ase
x ym
Ġn ominations
M NRAS
Ġinter cept
ĠCru z
Ġindic ation
Ġen rolled
Ġemer ge
Ġvic inity
licens es
ari juana
Ġaffili ated
AT OR
Ad min
H ig
Ġrad ar
Ġfriend ship
Per form
ĠAthlet ic
Ġt ap
Ġill um
ĠL ion
l ater
Ġco in
Ġspread ing
ĠJo an
Ġtrad ed
ash a
Ġcontinu ation
ĠVerm ont
Ġde alt
ĠS z
ad apt
eb ox
q ed
ĠEm ploy
Ġinter f
Ð° Ð½
ĠR F
Ġb tn
ĠO P
itt en
ĠAm sterdam
prov ider
Ġpro c
Ġsp ir
ĠH R
Ġorig inated
}= -
app ings
13 9
vi ol
ĠAm y
hem atic
ĠK ay
Ġp ub
18 62
Ġgrad ed
Object s
Ġa ster
;" |
Ġp iv
or ic
om i
Ġlock ed
Ġun precedented
}\, ,
K ar
Ġc razy
g re
Ġs outheast
enn ial
Ġadv ised
Ġexped ition
Ġstrugg les
ĠC V
dat abase
ĠR eynolds
S creen
ĠForm er
Ġsett lements
18 81
Ġhon ored
ĠD escription
Ġep ic
ĠAdd ress
ist le
Ġgl uon
Ġadvoc acy
ant ine
14 8
ĠEx amples
Ġex terior
Ġinf ections
Ġadvert is
PO ST
uk a
ith metic
Def ine
Ġliter al
Ġearthqu ake
ident ity
Ġno isy
Ġsign atures
ic ious
ĠB ald
Ġpoly g
w aukee
Ġapproxim ated
14 2
Ġshall ow
ĠHel en
Ġjust ify
Ġillust ration
Ġleg ally
uss els
M N
ĠE state
ĠM orning
Ġdraw s
ĠH ur
}) ^{\
Ġback ed
n ational
enti eth
d ie
Ġmass less
ĠA aron
T I
Ġe uro
Ġr am
represent ation
Ġafore mentioned
Ġ" $
can vas
ĠD ennis
set ting
ĠSh a
Ġl oud
load ing
Ġconscious ness
Ġr ape
ul p
ĠB right
amaz on
ĠTr inity
Ġemp ower
oth ic
Ġin cur
ena issance
18 84
W alk
Ġtempor arily
Ġearn ings
ĠI celand
18 82
rypt o
hom ogeneous
zh ou
Ġcomp ass
algorithm ic
14 7
Ġdivor ce
Stand ard
Ġg rave
Ġl os
ĠL arge
Ġdis closure
Ġdeliver ing
ĠArray List
Ġre pository
ĠY e
Ġ å
appro p
ĠAng lo
ens ely
ind a
pol it
op al
ĠN AME
Ġeditor ial
Â ½
Ġclass room
ĠB eyond
ound ing
ĠL INE
G Hz
st ation
ĠSal v
anc ies
Ġle ase
Ġle ver
M ETHOD
r ator
Ġavoid ed
Ġperm issions
F s
Ġeth ical
Ġenthus i
0 10
n ear
ĠF err
ĠEag les
ĠL an
Ġinvest ed
c ussion
et ta
Ġselect ing
Ġhar vest
Ġtransp arency
Ġarbitr arily
W ORD
Ġsup pression
al in
ra f
the ir
ĠMethod s
ĠP arent
Ġpat rol
ĠG ov
Ġchap ters
ig ue
ĠR aw
ma jor
Ġtour ist
Newton soft
M ary
Ġdis sol
ĠR ey
ĠAn cient
Ġball ot
ĠTer ritory
ĠG rey
f erm
Ġcap ac
C lear
ĠTig ers
Ġpe ers
Ġc ave
Mean while
Ġsub scription
L ee
Å Ħ
az i
Ġmulti plicity
Ġdis pers
ĠP ick
Ġgot ten
Ġlit igation
Ġinf ect
U pdated
Ġp ec
Ġexpect s
Ġturbul ent
Exec ution
p ublished
Ã³ w
Ġfif ty
us r
fl ush
Al gorithm
Ġtre ating
WE BPACK
}} _\
act ing
ĠNash ville
Ġpen et
Ġprint ing
run ning
ĠC G
ev olution
Ġwe aken
ros so
ĠCre ates
Ġblock ed
Ġmunicipal ities
Ġdesc riptor
ĠMark eting
pg f
land o
ĠM I
\\ [
Ġaccording ly
he ne
Ġcont our
g ement
M ot
C B
ĠMont gomery
comp ile
oc hem
Ġ Ø
omin ator
n om
Ġmem oir
Ġsc rap
ĠM ann
W IN
ĠSm art
Ġdu o
Ġlog o
Ġplan ar
A SE
ĠColumb us
ĠT yp
xym atrix
Ġmed als
perform ance
Ġmand atory
part s
ole cular
dis able
ĠH ob
Ġcr ack
ordin ates
Ġin sect
Ġfactor ization
Ġf ulf
Ġadminist ered
w ig
Ġsh ar
un i
ĠPhill ips
âĢ¦ .
N L
m r
G al
Ġviol ated
as ive
Ġsevere ly
Ġlisten ers
Ġp ounds
ops is
T X
Ġindu ce
Ġwrit ings
ĠL ot
Ġmulti plic
Ġadj oint
Ġcomment ary
ent e
b ing
ĠB omb
Ġmagn itudes
Ġreven ues
Ġst eal
Ġasymptot ically
+ {\
ĠS oci
Ġfil ing
Ġneighborhood s
Ġover flow
ĠArn old
Ġn od
Ġstat ute
w arn
le ad
ĠBelg ian
Ġeth ics
Ġun e
" ],
part ition
}) ^{-
T ri
Ġb alls
(' #
ĠM ut
Ġanomal ous
Ġcompl aints
ĠFellow ship
at io
ĠU til
ij i
ĠCan al
F B
Ġt weet
Ġax es
ĠMe eting
} '$
Ġlearn s
Ġquarter back
Ġb le
Ġh ur
ĠL isa
high light
ĠAddition al
(' /
t ok
Ġb undles
Ġrenormal ization
A UT
15 6
ĠL HC
Ġwor ried
x s
Ġass ists
ubb ed
Ġen zym
Ġexecut ives
ĠS ah
ĠR oche
ĠBut ler
" },
Ġcompos itions
v p
ĠDer by
L ow
andid ate
Ġelev ation
Seg ment
18 83
amp ed
Ag ain
Ġfunction ality
ĠQ ual
Ġ" [
Ġbl ues
Ġcontact s
py thon
ĠPrad esh
AC H
T yp
Ġund ers
26 0
Ġdo zens
ĠTe V
ig rated
A X
oph one
s r
Sh are
ĠD od
Ġplay offs
agn ostic
ĠV el
period ic
Ġgo ogle
Ġ\| _{
ubern etes
Ġhe li
Ġtr adem
Ġrot ational
Ġf ame
Ġte a
Ġem itted
ur istic
ĠG host
ĠS alt
ta wa
ag i
c ity
ie v
J ud
Ġtransform s
un ches
ĠLu is
D s
Err ors
Ġv ig
Ġun ve
ĠDat abase
Ġfavour ite
ĠGrad uate
ĠW onder
Ġstay ing
ĠTal iban
\\ \
c ancel
or ate
ĠPlan ck
s chool
Ġsc andal
Ġro ster
14 6
ash ing
Ġansw ered
ĠJ a
B ool
scal ar
un ks
ph al
Ġdetermin ant
ĠS NR
Ġsett le
ĠSu ccess
Ġjo ins
d al
ag ar
Ġr iding
ĠPh ase
Us age
Ġf aint
ta x
ch anging
Ġpregn ancy
ĠN athan
Ġesc aped
Lo op
il ateral
{ |\
Ġcol ored
ĠCont ract
K A
Ġl ang
Ġin ches
ach i
Ġstrong est
)) =
S ort
Ġanth rop
Ġf iring
ph inx
ĠT aking
add Class
cor r
Ġadvoc ates
Ġrefere nd
15 3
J im
ac a
cre ated
Ā Ā
hy dro
Ġc argo
Ġc oding
Ġ( .
ĠLeon ard
Sh ift
m usic
Ġwork place
cont ents
ro gen
ĠÃ Ĺ
Ġd ign
ĠFour th
Ġsuggest ions
Ġs its
Int eg
Ġch ances
28 0
ll a
Ġback ward
s amples
Ġman ages
ĠPract ice
Ġkit chen
Ġdel ays
Ġpron ounced
Ġ( +
B G
Ġfl our
r ules
Ġvis cosity
ĠV ar
Ġchampionship s
Ġrend ering
"" "
asc ade
ern els
Ind ia
ĠAthlet ics
Ġconserv ed
Ġcollabor ative
Ġrep orters
ĠWell s
Ġburn ed
the ore
uch i
~~ ~
R ock
Ġprivile ge
Ġadm issible
(" /
Ġlight ing
Ġpers pectives
ĠChap el
Resol ver
co ordinate
Ġkid n
LO W
w ik
Ġin quiry
ivid ually
ĠNot es
ĠE sp
Ġcomplet eness
Ġprocess or
ĠM ick
Dr ag
ĠP ain
Ġrel ay
Ġexper iencing
B ounds
ent in
R ANT
Ġ( #
ĠP ont
ĠR idge
[ ]{
m x
RE S
Con clusions
ibl ings
Ġident ifies
ĠAmb assador
Ġins u
Ġexperiment ally
Ġpay load
22 4
P rom
clud ing
B etween
Ġm ood
m ust
Ġhad n
Ġshel ter
equ ilibrium
b ie
Ġbe ating
Ġsculpt ure
St atic
Ġpain ters
Th ough
m itting
Ġprevent ed
Ġpeace ful
Ġs ync
ass ign
Ġpo ets
is set
Ġadd itive
pan cy
Ġwrap ped
Ġbe er
Ġbare ly
ro at
Ġrenown ed
Ġc inem
Ġc f
T y
ĠâĢ Ŀ
Ġrespect ed
Ġmer ch
ĠSt uart
Ġreg ards
ub a
Ġun cle
co q
l c
ce iver
H uman
Sm all
Ġemp ire
ĠRo osevelt
am ine
Ġr ic
is Empty
ĠK ash
Ġalt ered
bal ance
ĠS ey
ĠEd ge
al ong
Ġrem n
W C
ĠS cal
20 4
Ġbre ach
20 8
ĠPubl isher
ĠK ol
L U
SO UR
Cont ains
Ġb eta
ĠF DA
Ġco herence
Ġst olen
Or d
Ġn ut
ce q
Ġcl one
ĠFil ms
B u
ĠCol lect
Ġartifact s
Pro duction
c orn
Ġvacc inated
ĠY ugosl
AR N
ĠDr agon
Ġsymbol ic
ĠL icens
Ġgr ace
found er
Ġdiagn ostic
Ġp owered
ĠP U
ĠS oph
ĠSh op
Ġl y
gl s
S ir
Ġc ry
Ġcov ariant
ĠObserv atory
V irtual
Ġbl ame
Ġf reed
C ursor
Rail way
e ur
Orig inal
side bar
Ġam ateur
W el
Ġth rew
Ġabsor bed
Ġsp anning
aud io
ĠV as
Ġbr acket
Ġnob ody
arc sec
ĠP in
ĠInd ies
ĠHar bor
Ġco res
ĠAng l
rosc opy
al ias
Ġdomin ate
Ġex empt
Ġhyp ers
log in
Ġrel iability
b ol
18 75
ĠFinn ish
Ġfor ty
Ġser vers
sat z
Ġmes on
Ġgu ided
pl acement
ĠY u
? >
B er
ĠW ait
ĠC er
21 7
ĠZ imbabwe
Point s
Ġim pl
40 4
Te chn
ĠVis ual
Ġbon us
ĠE N
pos able
i ating
Through out
Ġsent iment
Ġsubgroup s
ĠH at
comp iler
$ ~\
iz ational
Ġpop ulated
F UN
to o
is ch
Ġsp ite
G overnment
ĠL ux
per m
Ġgrad uation
ĠR osen
E U
\" {
Ġstake holders
Frag ment
ĠB ath
Ġfif teen
ï¿½ï¿½ ï¿½ï¿½
ĠOption al
unt ed
Ġra ises
ĠThrough out
Ch apter
ĠR achel
^* _{
habilit ation
Gener ated
h aw
Ex pected
Ġacceler ated
C HECK
b undle
ring ton
Ġtriang les
Sk ip
Ġt idal
}} ^\
ĠNob el
M AN
x f
ĠBl u
Ġwarm ing
ĠN ancy
Ġ" %
Ġplay off
pred ict
dot ted
ĠC ad
B ean
Ġth ir
Ġapplic ant
}$ ~
Ġcapt ures
F ALSE
Ġor che
ma ven
Ġpart itions
comm ons
att ing
am med
amb ling
ĠWAR RANT
Ġcomplex es
ik ing
R G
Ġwild life
ĠTest ament
S un
ĠMun ich
Ġdis advant
constr aint
Ġt uning
iff s
15 1
INS ERT
d ynamics
ĠI o
20 3
bl ank
Ġbr ig
ĠH em
Ġarr ives
Ġinn ings
gener ation
ĠNep al
ĠA viation
M ont
Ġpresc ription
E u
fe atures
Ġmer chant
mic ron
ĠCre ative
Ġmar ry
en ario
oupl ed
ĠE mm
r k
p ages
Ġweak ness
el ly
Ġmanufact ured
compat ible
ut ton
ern ess
Ġt ape
lect ric
{- }
bran es
Ġmark er
Ġcol ony
Ġexceed s
ĠCh an
) )$,
ĠĠĠĠĠĠĠĠĠĠĠĠĠĠĠĠĠĠĠĠĠĠĠĠĠĠĠĠĠĠĠĠ ĠĠ
H tml
s om
Ġepoch s
Ġcomp elling
Ġpers istent
ĠHop kins
ed ges
L ove
e igen
C U
DB LP
ĠReg ulation
ĠSer ver
Ġstri kes
Not Found
in come
}) }{
AR S
S at
est ions
ĠH ait
Ġdiscuss es
Th row
ĠV ery
Ġexpl ores
ĠHug hes
18 76
Ġmus cle
ĠSec urities
Ġdoub les
with in
aver age
H ave
ich let
Ġprem ium
Ġprodu ctions
d w
Ġpolit ically
n ob
ĠE ston
Ġconf erences
ĠWall ace
ĠAn aly
ene ath
ĠSo on
Ġo w
ĠB aby
Ġr ays
S ql
ĠLaw s
c amp
ĠId ent
Ġs el
Ġwe igh
Ġcha os
b ast
ĠF ish
Me V
Ġpredomin antly
Ġthere of
ĠBob by
sen al
15 8
Ġemer gence
R en
18 71
ĠS yl
14 1
ris k
Ġ$\ |\
Ġan ime
A ff
Ġdemonstr ation
ĠShang hai
ĠP icture
Ġf oster
A gg
18 5
21 1
rot ate
Diagn ostics
ĠGener ation
exist ing
Dan iel
Ġf ighters
16 9
_{ |
Ġthermod ynamic
18 78
Ġcontin ent
ĠL is
con tact
ĠR alph
Ġaltern atives
Ġpro ximity
Ġfail ures
Sign ature
th ood
spring framework
ĠC ome
Ġnot ification
, ...
Ġb acteria
eg al
Ġanalyz ing
Ġapproach ing
Ġrock s
] }$
h pp
Ġdes irable
econom ic
O H
Ġtri ps
ĠHol ocaust
n orth
ĠI SO
create Element
ac ian
ĠB ot
LA Y
h art
ĠS ony
an imation
Ph ot
S ite
ĠCo ach
ĠPubl ished
Ġun ified
Ġthere after
Ġap pendix
pre vious
Ġtend ency
Ġrenew ed
Liter al
# {
-- \
E conom
Ġar rows
iz a
Ġcompr ised
Ġpref erences
p ad
us c
ĠN urs
Ġcomplement ary
ĠHol mes
S plit
Ġt ut
R M
asc ular
p her
ĠB und
ĠE D
R ank
sc apes
Line ar
ĠPan el
exist ence
ĠConfeder ate
d ependence
av an
be at
flu ence
Ġp ension
Ġm ature
Ġspeed s
Ġen jo
Ġlock down
Ġconsult ant
t v
Ġde ce
Ham ilton
ĠDe ut
ĠG az
V O
Ġvirt ue
ess ing
Ġin complete
ass er
Ġ' ',
tr on
ĠP rison
Ġpat ron
pro port
Ġsuccess ive
Ï Ħ
Equ ation
ĠThe ore
RE SS
assum ption
ĠT odd
pr im
ĠOther s
ĠOak land
Ġnation ally
Ġcooper ative
weight ed
t m
ĠAct ive
ĠE ld
Ġacknowled ges
16 7
et erm
ĠH ugh
res a
ĠG ent
BO OL
ĠLat ino
Return s
Ġprot agon
Ġstep ped
Ġpartnership s
Ġeth n
en os
Ġdial ect
ex a
bor o
Ġcyl ind
ĠGl en
Ġend e
AS K
mark et
Ġle verage
tr ation
ĠFlore nce
W W
r ar
w ould
ĠInstit ution
G N
Th ird
aj a
ol er
ch oice
read er
C at
Ġrel atives
ray s
ĉĉĉĉĉĉ Ċ
Ġfrag ments
Ġinter ven
g auge
}) +
Ġc b
15 9
Ġdon ations
ĠWood s
< !
Ġch ip
dimens ion
s ocket
Ġform ats
ĠTh read
O k
g ue
Ġwitness ed
class Name
ĠPart ners
Ġport ions
Ġpredict s
ĠStat ement
am pton
14 9
ĠPrinc eton
ĠM ade
cur rency
G reat
b ane
al p
ĠCh i
gener ate
ovak ia
U ntil
L ab
ib ling
Ġsl ower
spect rum
ĠD raw
get Value
ĠCom par
Ġinitial ize
Ġwis dom
Ġnecess ity
j ournal
Ġa viation
Te am
ĠB uch
âĢ¦ ]
}} %
G F
ĠProgram me
is se
ĠB io
Ġmiss ile
Ġ= ========
Ġpres ervation
Ġprohib ited
st rip
Ġcirc ulation
Vill ages
Ġsp acing
ĠS old
ĠS ox
rypt ed
Down load
ol an
ĠPart nership
Ġtransl ations
Ġprem ises
B uff
F ort
c atch
Med al
ĠIl legal
Ġrele g
ĠAl t
Ġvi able
C ost
ĠInter view
ĠD rama
ox y
ab ol
ĠS ierra
100 00
F D
Ġinterview ed
Ġcumul ative
ĠG T
We ight
Con vert
ĠH amb
Ġmem brane
Ġif f
ĠHer bert
Ġaccept ing
w arning
}, $
comm ut
Ġsort ed
Ġg ear
w ere
Ġf u
Ġs b
Ġn m
Ġarchitect ures
Ġinvest ing
R oyal
Ġs ocket
Ġcol ours
G H
Ġco ordination
cess ion
RA Y
Ġretrie ve
Ġmort ality
Ġare na
, +
A SS
Ġle ak
ĠS end
ĠP si
ĠEm ily
)$ )
Ġre bell
16 3
ĠLet ter
ĠF E
op ting
Ġelder ly
Ġon set
av ier
15 7
con e
Ġto mb
ĠIda ho
contain ers
Ġto uring
ĠK id
l it
ĠK ill
ĠHar old
Ġhom ology
ĠCong o
em a
U nd
in ians
Ġg raphics
PAR AM
ĠK ids
Ex amples
T own
ĠTr uth
vent h
18 68
C NN
out ube
M ur
Ġ" ";
ard i
Cent ral
). $
ib n
ong o
16 6
Â »
ĠZ hang
sup set
Ġ| =
Ġnull ptr
v or
ĠPer iod
Ġoptim ize
Ġcount ed
ĠEn cyclopedia
Ġle x
Ġinv oked
Ġre vel
Ġdis able
ĠB irth
I l
ĠK re
clud ed
ĠPers ian
Ġroll ing
Ġr ub
Ġc ached
Ġcomb ines
Ġang ry
Ġ' .
ĠIN TO
Ġsim ulate
V i
Ġred und
ie u
Ġexhib itions
18 40
OR K
ĠL ik
Ġr ated
Ġingred ients
Ġl iver
Ġsur ge
ĠCamp us
f its
Ġaff air
ĠP ere
p al
Ġj e
Ġprov inces
G re
f itting
po inter
Ġpr ide
add ed
m un
ĠA U
ĠRod rig
Ġautom ated
def er
ĠMem ory
16 4
Vis ual
G od
FLA G
N eg
ĠSpe aker
Ġs ubl
ĠG ene
Ġgener a
ut ers
Sim ilar
Jew ish
Ġcop per
Ġconcept ual
Ġconsult ation
Ġpro secution
ĠV oice
Ġ' "
Ġstrugg led
att ed
ĠMunic ipal
Ġmyst erious
Ġlux ury
18 67
Ġdefe ating
Span ish
Ġpair wise
Ġwavelength s
ĠB ris
ĠC ell
Enc oding
ĠCh and
ĠIsa ac
ĠF iction
ĠR enaissance
L ittle
] ))
Ġs ys
ĠAppe als
Ġhum or
Ġperm its
ĠV ision
ĠSocial ist
H ard
ĠP ra
Ġreal m
od o
ĠL ipschitz
Ch inese
UN T
ĠWeek ly
t uple
ĠK E
Ġconvolution al
Ġent ert
Ġdesign ing
Ġpat ches
Ġt ent
ĠW alt
Ch ris
B ob
Ġcou p
ĠSoc orro
Own Property
ĠProt ocol
S yn
ĠNe uro
Ġurg ed
ĠAssum ption
ic ans
im ates
IMPORT ED
Ġped est
Ġa thlete
ab ases
Ġad verse
ĠSw ift
er ial
T x
% "
Ġsup rem
Ġtremend ous
Th ose
Ġas h
string s
ĠL ex
Ġse ver
Ġoscill ation
r us
Ġb ay
Ġess ence
ri o
Ġsc ar
L y
st roke
ĠL ions
ev ol
Ġanisot ropy
aj ax
ĠEmer gency
ĠC ounsel
DE X
Ġdest ro
ah l
Ġcompris ing
TR Y
ĠDemocr acy
R P
c aster
Ġg aining
Mart in
C art
Ġneur ons
Ġo ught
Ob server
k now
rem arks
Ġdead line
Ġinject ive
}\, .
ic ism
ĠB ach
}} ;
Ġamb itious
Ġed itors
Ġs id
n ucle
ĠMunic ipality
Ġsub mission
Ġanalog y
Ġlift ed
cc i
EN ABLE
ĠPear l
Ġa xi
23 5
cer pt
17 4
21 3
Ġdefect s
Ġun fold
Ġkey board
Ġdemand ed
ss l
Ġk ernels
Ġwithdraw al
ov an
Input Stream
pl iers
ĠPen insula
l um
Ġcl arity
! }
ĠLuc as
oll o
18 77
Ġreflect ing
el ong
Ġal phabet
< <
ĠRe ed
Cont ents
p ag
ced es
Ġb is
An notation
Ġex empl
s yn
om p
'' $
ĠQu ery
Ġb ail
ĠPl us
Ġ[ -
ĠCom edy
Ġprec ip
c as
)} }\
ĠBenn ett
Ġm im
ĠPre vention
os hi
ĠIss ue
ile vel
> '
}$ &
Decl aration
intend o
an che
Ident ity
Ġpro to
ĠT rav
Ġcompat ibility
F older
ich i
ent o
form ula
? )
ĠS or
W ashington
I EEE
com ed
( /
Ġsk i
ĠArmen ian
S ar
Ġhand ful
Ù ħ
Ġpassion ate
ĠÃ ł
ro e
h istor
ĠR ou
ĠJ ar
Av ailable
Ġsl ip
Ġfix ing
ast ically
in is
Ġsac red
w ikipedia
qu ire
Ġtra uma
dec ay
p el
ĠSand ers
Ġs le
at ial
ra ising
AP P
Ġpurs uit
18 79
ĠH az
Ġl on
ĠN um
column s
Ġuniqu eness
m ak
Ġinsu fficient
ne apolis
Ġharass ment
E nergy
eth yl
ĠLe o
c uda
Ġl ucky
Ġh ire
Ġbut ter
Ġup grade
ĠArm ed
ch air
17 6
Ġl ag
ĠPhys ical
), \\
Ġatt ractions
get Element
the o
min ster
ĠF oster
24 5
it ations
erv ous
% ),
con cat
Ġan ger
ull ah
ise cond
ĠUs ed
ĠV A
ap is
S K
s il
Ġarg uing
Ġchar set
r ise
ĠS FR
path y
)$ ;
Ġper ipher
Ad ditional
b eq
ĠGen eva
Ġn ested
ĠClin ical
id ays
Ġint elligent
Ġn ights
Ġdown stream
Ġexcell ence
ĠP erm
ĠPart icip
p ars
Ġwant ing
Ġs ax
section s
Ġm aj
Ġ um
plic ial
or ne
scal ebox
Ġag gress
ĠCon vert
=" ">
16 2
Pr inc
T i
ĠNe umann
Valid ator
ĠConfig uration
M id
er cis
Ġinv ention
Ġp ion
K im
ĠAir lines
Ġn urse
sign al
Ġswit ched
enc oding
Ġbe ars
Ġf ut
Tr ump
Ġmod ulation
22 2
æ ľ
Rep ublic
ĠW I
bl ob
Ġtraff icking
ĠPeters burg
in j
EE EE
ĠDr ag
K n
Ġh ung
C irc
ups ilon
ĠV II
ic i
Ġminim izing
sign ature
Ġg aming
Ġg onna
Ġind ividually
Ġdissip ation
Ġob s
ĠN uclear
Ġspect roscopic
D ig
L F
Ġh alt
Ġcont raction
ĠH ab
Ġodd s
ĠA ges
m us
Ġmaxim ize
Ġab bre
Named Cell
Ġirre le
STAT US
C s
ĠS ize
Ġpres idency
ĠH ubble
ĠM atrix
ĠHel p
ic ode
ĠPro gress
Met rics
Ġt anks
Ġwork shops
Ad dition
Ġst er
Ġcyl inder
Part ition
ĠJ ur
script ions
' },
Ġm ines
Ġco arse
ĠS Y
}\ )
., ][]{
Ġnot ions
Ġsatell ites
ĠPark s
ĠD ame
Ġlic ence
un ting
ĠDe lete
ĠLINE AR
h p
ĠA part
pr inc
Ġphot ometry
Ġ\ )
Al tern
Ġfor um
ow ards
NS String
Ġpl aus
r ceil
D etail
W arning
Ġsubdiv ision
Ġt orsion
18 72
Ġphysic ians
ser ial
ĠP H
ĠK un
qu estion
ad ows
ow ing
Ġattack ing
R ot
am ous
K it
ge ometry
Ġhierarch ical
Ġcon current
Ġn inth
ĠP E
ĠGreg ory
Ġconduct ivity
Ġap pl
str ict
Ġbuild s
it ic
ĠR ice
ur as
Ġfilm ing
ple t
ID TH
Ġpurs uing
ent ropy
ĠArt ists
M ag
Ġ} (
Ġwork shop
ah an
Ġcro ps
Ġd ancing
qu art
ĠNor folk
Ġpars ed
c ially
r ame
ĠF ramework
ĠA ber
Ġtour ists
Ġevol ving
Ġforg otten
ĠSp encer
Ġcatalog ue
al tern
Ġthr one
ĠCa uchy
E r
ĠCirc le
ĠN ak
Ġcricket ers
ĠN P
Ġex clusion
com press
part icular
^+ _
Ġrecip ients
Ġtoler ance
ond e
Ġant is
: -
ĠS ED
ag ain
Ġdress ed
E SS
T ouch
Ġlect ure
Ġ verse
in us
act ual
Ġliber ty
() ),
V ec
che l
IN K
p aces
br acket
Ġpropag ator
? ,
ĠZ ion
ĠRel igion
Î ¹
st ars
The me
ĠMc Donald
w al
Ġsm oke
Ġaccompany ing
Ġadv isor
Ġshould er
r ors
Ġed itions
Ġwe ird
Ġexcit ations
Ġinaug ural
Ġr amp
St age
6 50
Ġparticip ant
Dep th
Ġsacr ifice
? }
Ġeg gs
d dot
ĠF I
cont rolled
in ject
Ġr ice
Per iod
Ġfilter ing
CO MM
Ġsn apshot
Ġre nov
Ġin version
Ġche st
Ġsil ence
al gebras
V ict
n or
w ild
\ @
3 40
in ters
rel im
Ġcit ing
Ġte eth
}}{ (
ĠHer z
ĠInt roduction
ĠBrook s
ĠH av
Ġdevelop s
As sum
l ceil
ĠS ob
Ġtom orrow
A SSERT
at ra
Ġgl ad
Ġh orn
ĠHar per
Ġundert aken
Ġdiv isor
Ġdepict s
Filter Database
ac ements
Ġtri angular
m ime
en o
in z
Ġestim ating
N AS
Ġre un
ĠEnter prise
AT TR
ert on
Ġsql ite
qu is
Ù Ĩ
ĠAd S
Ġtrans ient
as ures
^* ,
pat cher
Ġdimension less
Ã Ł
Disc ussion
Ġreferend um
k an
Ġbad ly
ĠU ntil
> )
i ov
R ound
ĠComp etition
Ġpi pe
Ġdisappe ared
ĠL amb
Ġper f
Ġlast ing
ĠLe ave
Ġtravel s
Ġpropag anda
Ġless er
Ġion ization
Ġre n
Ġconc aten
ab stract
ow der
Ġlo ose
D U
Ġe ject
sc ss
Ġdesign ation
C ounter
ĠY am
ĠA w
ĠG olf
ĠPresident ial
Ġb ab
ke V
IO Exception
C ritical
ĠM B
A Y
i q
gr and
ere rs
og an
ĠS ales
ĠA bs
En umerable
abul ary
ĠS ullivan
uck s
Ġelev ated
Ġad s
ĠFil ip
Ġreson ant
( (\
ass o
\% ,
ĠM ills
ĠFig ures
ĠEdd ie
Ġw ard
'] );
Ġinf initely
Ġphil anth
l st
Ġbroadcast ing
Ġcre ator
ĠLand roid
18 30
ĠLegisl ature
ĠN ear
Ġen umer
ĠBudd hist
18 74
Set ting
ĠG ilbert
Ġ- =
oc y
ess el
ack er
tr l
Ġvolunt ary
Ġl unch
ig nt
charg ed
ĠM illion
cl s
16 1
Ġdraft ed
Ġrom ance
ĠCle an
The ir
B ern
en vironment
Ġexc av
2 12
Ġf ires
m itt
ĠG PU
ĠM aced
Ġcere mon
ĠSher iff
ar re
ĠG and
ĠBel arus
ĠCab inet
Ġrot ate
B us
ĠThe od
ĠE E
33 3
Le ague
Ġpolar ized
B ay
Ġcann abis
il o
ĠM ail
ess a
st reet
ĠTr ain
im pro
Americ a
ĠRiemann ian
g oto
Ġro oted
Ġtarget ing
| }\
H M
Con sumer
È Ļ
Ġad i
V ICE
print ln
Ġconcent rations
ah u
Ġd w
em ark
ign ore
leg iate
Ġwar fare
Con v
Ġrig orous
Mon th
Ġh o
@ {\
Ġconstit utes
Ġal arm
Ġrefuge e
ĠAl ger
As sembly
ĠMil waukee
trans port
18 66
reed y
Ġsimilar ities
int rodu
Ġsynt ax
ela ide
V s
." ""
Ġintegr able
Ġtr agedy
Ġbelong ed
â ĪĴ
at em
ĠM R
Ġenjo ys
Ġcrow ds
R ows
Ġend orse
Ġavoid ing
Ġener get
Ġinvert ible
Comp iler
_ )
ĠEm ma
Ġdiscret ion
exp and
Ġgard ens
Ġtrav elling
an ch
AN N
DE BUG
HE AD
p n
ĠE ight
TIM E
r ants
sk a
ĠM W
Ġart illery
Ġlink ing
eyn man
Ġsort s
Ġc attle
ah ler
Ġwrest ling
ĠB order
ill es
Ġcharg ing
friend ly
Ġaccommod ation
D a
Ġinter im
l ov
ĠN PR
vi o
sl ide
Ġdrum mer
Ġpec uli
IM IT
) '
F eed
observ ed
v dash
AV E
Ġmist akes
Ġdecor ated
5 50
Ġ| ___
ĠEconom y
Ġsem antics
Ġch rome
RE T
Ġcart oon
label s
Ġm anga
gu ide
ĠChar ter
W at
m ans
h im
Ġinv ented
ĠR ole
ĠSt ef
m g
Ġdiscre pancy
Ġhand les
ĠD anny
All oc
Rec ip
Ġle pton
al most
ĠBar ack
18 73
Ġhero es
Ġpredecess or
99 9
ĠSy mbol
ĠAbb ey
Process or
Ġk nee
ink s
)) ^
)- (
Ġmart ial
gener ic
ĠEp isode
CON FIG
Ã ¦
sub mit
ret ch
Ġprior ities
ĠG aza
st ead
ĠD j
er als
Run ner
Ġt ile
ĠSt rong
Ġbel t
Ġsport ing
Ġsl ide
ĠM idd
g io
ĠRef s
Ġe rected
Serial izer
C ancel
Ġart ic
Ġsw ing
ĠJul ian
p k
. ][]{
t le
Ġdist ribute
ynam ical
Ġbreak down
Se ason
ĠLe eds
Pl atform
ĠM aking
18 48
Ġem it
Ġrec ycl
add y
ĠM ig
Ġk iller
ann i
Ġb esides
pro c
ĠA pr
Ġthr iller
Ġpri ests
obtain ed
con vert
Ġnot ations
AN S
Dec imal
}} -\
res pons
J on
Ġ ----------------------------------------------------------------
g al
Ġtown ship
18 69
Ġmin us
Ġpenal ties
Ġmetall ic
ĠGr ade
y ang
ĠPro perties
angel ical
ĠC MB
Ġtra iler
Ġbuck et
ĠGl ass
×ķ ×
Ġim pressed
bo ys
Ġir r
an ia
Ap pendix
Ġadvis ory
Ä Ł
Ġdef ended
ogene ity
ourn ey
Ġt we
ĠM ario
(" %
Ġmake up
intend ent
M essages
Ġbe aring
contin uous
ĠP eng
Ġc emetery
Afr ican
ploy ed
ĠOt tawa
Ġp ic
Ġreg ulated
Ġart work
Ġg alactic
Ġcoll apsed
ĠPhilipp ine
Ġdescend ants
ĠC ut
Ġr h
T aking
le af
Ġret reat
s ymmetry
Ġfound ations
Ġobst acles
CO M
50 9
pl ots
00 7
ĠAr ctic
ĠVAL UES
S ide
an mar
Hen ry
Art icle
im ag
Ġinitial ization
om es
prop ag
Ġmort gage
M ov
$ ]
Ġopen ly
Ġinfr ing
B road
Ġy eah
ĠDet erm
ĠWild life
ĠT ry
pr us
A ST
oc ide
Ap pro
Ġcul min
I ts
j d
ĠPlan et
Ġbomb ing
bro ok
ĠAzerbaij an
le igh
ĠC elt
ĠReview s
Ġinvest or
umb ai
md c
S om
Ġreson ances
Ġrevers ed
Ġinter faces
in aries
Ġ' %
Ġemploy ing
on aut
ol ine
ĠSch r
And rew
ĠE rr
log y
ĠUn less
ĠF oot
Ġperman ently
ĠW ald
Ġdefic it
B ooks
Q CD
V AR
D G
ch unk
m icro
ĠB orough
Ġres cal
ran o
Ġgrad es
od ia
m ov
Ġcomm ittees
ĠCon tact
Ġpredict ive
Ġiter ator
Ġpass ive
Ġden y
Ġnever theless
ĠTy ler
ĠD ig
b ur
Ġz eros
Ġinitial ized
ve ction
Ġfavor able
Ġirrele vant
Austral ia
ĠS uff
Ġsuggest ion
ĠPl atform
Ġl ady
Ġhom osex
Ġpal ace
M aterial
Ġgr ains
Ġprison er
Ġun anim
mem bers
t abl
ĠAr c
ot yp
Ġpl ates
Ġman ually
W rap
Ġannot ation
Ġm d
ĠEthiop ia
Ġcomp iler
ĠCl ose
ĠSp ider
ĠPal mer
ĠL ov
Ġmer ging
ĠSD SS
Ġrep ublic
Ġprior i
com fort
ĠNorth west
Ġassert True
L em
ĠM atter
ĠBr ussels
ĠA u
ĠK aren
}{ -
comm it
ĠĠĠĠĠĠĠĠĠĠĠĠĠĠĠĠĠĠĠĠĠĠĠĠĠĠĠĠĠĠĠĠ ĠĠĠĠ
Ġp ale
b is
ĠW E
sp acing
Ġeconom ies
Inst ead
Ġcell ular
ific ates
L IST
Ġ\ %
Ġcomp romise
Ġpurs ued
4 80
ĠPref ecture
rid es
s ix
Ġinnoc ent
ĠIR S
load er
c fg
al ter
ĠMus ical
C ulture
Ġtim estamp
Ġrele asing
Ġw ore
ĠOr lando
ĠPet e
T imer
Ġcon ductor
Ġmagnet ization
ĠImm utable
Ġcert ification
00 6
F W
ĠKaz akh
n ell
)\ ;
roll ers
pot ent
Ġkilomet ers
">< !--
M ust
Ġcrit ically
Trans fer
ĠK ind
rosso ver
ĠB ened
stit ute
Ġl uck
associ ated
30 4
Ġre con
ange red
Ġfil tered
seud o
ĠESP N
(' ./
se gment
Ġde form
Ġgeneral ize
Ġke en
ot er
az ar
ĠMathemat ics
Ġprop ri
ĠG M
Ġrel uct
ed uc
ĠA chie
Ġdi abetes
Ġdesign ers
Ġthread s
ĠÐ ²
ĠBulg aria
ĠA id
is ive
oy le
yl an
Î ½
ĠChel sea
Ġstock s
ĠDisc overy
W ang
Ġunf air
Ġ\\ \
30 1
ĠT ang
Ġbound ing
ĠGl obe
Ġassess ed
18 7
Sym fony
Ġp raise
ĠCub an
ĠL if
UE ST
iv o
Ġrac ist
Rec ently
S us
Ġup set
ĠRoman ian
e i
Ġ à¤
ĠIm pro
ĠPrinc ipal
ĠCroat ia
CT YPE
Ġamb assador
en ue
.\ ]
Ġfar ms
Ġdisput es
________ ________
UT C
h agen
Pr im
Ġre vision
ĠĠĠĠĠĠĠĠĠĠĠĠĠĠĠĠ Ċ
Ġwel comed
l icense
ĠCon sumer
Ġfermion ic
C ALL
ĠGram my
W ater
ish a
Ġw orn
Ġsp ell
ĠAll ied
ĠVen ice
Ġatt ach
23 4
Ġs ang
ĠG Hz
Ġdet ention
Trans ition
ĠQ atar
Ġshare holders
At l
Ġdet erior
Ġmer gers
ĠW ag
Ġsett lers
Ġconsult ing
equival ent
ĠPop ulation
Gr and
Ġsurprising ly
h orn
ĠRec ently
Map per
Ġca ution
Ġgrad uates
SOUR CE
ignt y
st orm
Ġbankrupt cy
Ġg ig
anc ers
Ġspat ially
Column s
Ġintr ig
Ġ æ
Ġimm un
ĠL oss
Ġap olog
ar as
im uth
ha o
Task s
ĠWrest ling
ĠK as
Ġref ined
Ġcle ared
Can ada
re b
ĠLi u
pl oys
Ġper cussion
B its
g em
Ġpract ically
hel m
re ts
Ch ief
ĠH us
Ġas ylum
be am
36 5
ĠBroad casting
f uture
You ng
Ġ" .
av g
ĠHe avy
Ġemb od
c ourse
prec ision
k u
Ġm arijuana
Ġbel oved
sup ers
ĠMod ule
Ġar ithmetic
Ġh i
ĠBy z
y u
Ġdis rupt
ĠG rid
M ir
Ġhe aven
Ġany body
Com pat
Ġgr at
ĠB ound
ph ones
Ġinter rupt
Ã ī
ĠB ent
oc cup
17 8
Ġsatisf action
Ġc ad
ĠM ik
ĠSh are
le ave
ĠS K
ĠL abel
Ġlab elled
el o
ĠCh ang
man uel
l attice
ts d
Ġprompt ed
Ġtox ic
L ib
Ġ& -
G ate
ĠK ap
Ġw ond
With in
Ġfear s
Ġil leg
St ructure
Ġfund ament
Ġtrav elled
Ġmicrosc opic
Sche dule
he nd
Ġaccount ed
l ived
EEEE FF
Ġfin anc
Ġemb ark
M ex
ĠN ormal
Ġsong writer
Ġfle w
Ġt x
Inst all
b ird
cor rect
Ġtact ics
p ubl
Ġn ic
Ġun necessary
uck land
ĠI MF
ĠSol omon
F rance
ĠD aw
ĠC risis
ĠCE LL
] _{\
H ouse
} --\
ĠD IS
vari ables
ĠAd ult
Ġparad igm
ft en
repe at
ĠEx ec
21 4
ĠBi ography
ĠCoal ition
ĠSerb ian
3 25
ĠC over
ĠPar ad
th us
Ch ain
ĠL ives
second ary
| $.
ert s
UR N
Ġn est
ĠEvery thing
Ġgrand mother
ĠM ari
ark er
no align
le v
ĠR ah
ĠM ul
ĠF actory
Ġhar sh
e lected
h m
Ð ¿
Ġnom inal
d st
i ens
ĠRe id
}: \
Ġok ay
sing ular
ĠR aid
Ġdem olished
ĠHer ald
z ig
Ġtrib al
T s
Ġal ike
Ġcont ested
up iter
18 3
Ġab oard
ĠH O
ĠObl ast
unc an
IL ITY
Ġdef in
_{\ {
Ġlens ing
erg us
Ġto b
scal ing
P a
ĠBro s
ov iÄĩ
med ium
ĠSum mit
Cor ollary
Part icip
ĠEngine ers
ĠEvent ually
Ġbar rel
ul in
Jose ph
l ift
Ġun ited
Ġind oor
Ġse ized
ĠComple te
FF ER
Ġac ute
G erm
found ed
Ġpre jud
ĠPun j
Ġfound ers
p aren
ĠP owell
Ġbus es
ĠR M
." )
Ġincorpor ating
un known
ĠCom mercial
20 7
Ġout lets
ĠDe al
Ġatt ain
/ "
ĠN HS
in as
Ġb eneath
Ġim posing
Ġimpact ed
um i
ĠR ams
s ided
Ġacc us
Ġs iblings
ĠB orel
ĠArch bishop
ĠBet ter
ĠMin neapolis
Ġdead ly
P ad
ĠB ear
Ġspec ifies
ĠUg anda
ol ics
link s
Ġhous ed
allow ed
ĠGard ens
ĠProtest ant
Ġinf antry
ĠN y
the ning
Ġproduct ive
ĠEr nest
ĠChem ical
Ġfib ers
ĠExcell ence
ou x
ĠP av
Ġte aches
Ġm igrants
Ġexplan ations
Ġatt itudes
F ollow
ĠIn cre
20 6
ĠJul ia
iat ric
r ink
17 3
other apy
Ġstat utory
var iance
in vert
fr astructure
Ġrob ots
ĠBat man
amb le
ĠN L
Ex pect
e cca
w ent
Ġaccept s
ĠS ession
Ġ= ======
Ġr het
che z
t oc
l vert
ĠRh ode
LE TE
ĠH alf
Ġcirc uits
Ġ? >
Ġtrust ed
rel ativistic
ĠRay mond
RE SU
co e
Ġathlet ic
Ġg ifts
Ġch at
f red
Rem ote
ĠB ak
Ġind ent
18 59
multip ut
ĠS creen
Pr imary
ol y
fr ames
ĠGab riel
, $$
E t
Ġide ology
B on
Ġepid emic
M il
Ext ensions
Ġph ones
Ġresign ation
l ap
Ġr ul
ĠY ellow
Ġsl opes
ĠR av
){ $\
Ġint im
Ġactiv ated
g ie
Ġf s
V V
ĠR isk
Ġdist ortion
ĠJere my
}^{ *
d an
DO CTYPE
Del ay
_+ $
Ġelabor ate
T ON
ĠDub ai
ĠTerm s
Ġquestion ed
ĠSi eg
Ġf riction
ff ield
ĠStand ards
Ex pl
air y
other wise
Ġfra ctions
rele ased
act ers
Ġmet als
ur bs
m os
Ġsub stitution
el ia
G EN
Ġrad i
ĠEc u
I J
path s
est imate
{ },
ĠCom ponent
ORD ER
Ġf ur
ill ation
Up per
OM E
ĠDec ision
to Be
z ed
er ie
ĠVer ify
Ġdec iding
ĠPar se
Ġscr ut
Ġcommun e
ap or
ĠCompan ies
Ġsol ic
product ive
Ġbeh ave
ĠMet al
Ġadministr ator
D ynamic
S pect
ĠHe aven
Ġstat istic
m agnetic
le en
c x
v ary
is cher
Ġ< -
Ġproceed ing
ĠBre xit
Ġn ervous
Ġterm ination
Res et
Ġrem ind
ask at
Ġcha otic
ĠSp ot
c ass
Ġn ephe
}\ |_{
ff f
b ranch
ĠProdu ctions
ad just
Ġaddition ally
ĠQu antum
Ġre jection
Ġhot els
! <
Ġpuls es
ĠB udget
ercis es
ĠReg ulations
ĠC apt
ĠP aram
}), \
Ġp unct
C md
Capt ure
Type Def
spec ies
Ġrock et
Ġphil osophical
)\ |_{
Mod els
ĠG ross
math rel
ĠEnt ry
ĠInd ividual
ort ium
ĠT error
Ġpione er
c oupling
50 1
Ġcommand ed
ow itz
Ġref use
n at
Ġf older
H older
Ġemphas ized
ĠT one
ĠF ul
ĠE ND
Ġvis itor
Sh arp
ĠLin ux
)} ]
Ġimprison ment
sh ots
names e
O s
Ġment ions
' })
18 4
in verse
Ġrelax ed
Ġpick s
ther mal
Tim estamp
ĠF at
ĠField s
19 3
min imum
eck er
Ġmob il
I ss
ĠDecl aration
Ġpil ots
Ġre fr
se min
sh are
ĠD epend
Ġtrans fers
T imes
Ġtermin ology
Ġinstit ute
ĠTib et
Ġm ism
Ġcont ours
cont rib
B razil
Ġproblem atic
ĠSI ZE
ore n
AB C
Ġdrop ping
ĠVeter ans
Th anks
ĠPar al
ĠY a
Ġdispl aced
Ġsoc io
ing ers
mathb in
cal c
Ġ( @
Ġtr illion
A W
F G
ĠTun is
F K
p aramet
al is
Ġkinem atic
Ġst ays
Ġde pr
ĠC inema
ad joint
Ġdamp ing
ĠT as
Ã± a
col Last
Ġworld s
ĠR T
Rem ark
IL D
Ġconvent ions
Ġspokes man
" ];
Ġsp anned
Ġsem igroup
Ġsimultane ous
ynchron ous
D ash
bas is
Ġsh ifting
Ġmod ulo
ct uary
Ġanalog ue
. \,
c ock
40 1
Ġiter ative
ern er
M ah
f etch
Ġtrunc ated
NavBar Font
ĠC ould
Ġless on
ĠMA X
Orig in
elect ric
Ġs ew
ant om
}= -\
Ġsat uration
ĠAd elaide
ĠVlad imir
Ġquad rup
Ġsur f
isen berg
ĠR ac
Ġoutperform s
Ġperform ers
ĠPop ular
ic ia
ina e
Ġquant ify
` )
Ġround ed
L ag
ĠFl ag
S a
Ġpl ural
Ġqu it
Ġsu ited
22 3
Ġre lying
Ġz oom
Ġspl its
Ġas ymmetric
Ġconfigure d
ĠM N
ĠG ospel
ast ics
direct ory
pop up
17 7
OL D
t bl
Ġ$ ^
Ġdefend ers
ri ke
lock ed
Ġassemb led
Ġsup erm
Ġcar riers
Ġw are
ĠĠĠĠĠĠĠĠĠĠĠĠĠĠĠĠĠĠĠĠĠĠĠĠĠĠĠĠĠĠĠĠ ĠĠĠĠĠĠĠĠĠĠĠĠĠĠĠ
ĠL ords
emph is
O l
17 2
ĠEag le
ĠStrateg ic
ĠL I
Ġde cent
=\ "
exp ansion
). \
inc ar
ĠEll is
ĠTh an
Ġup load
Ġac claimed
Ġpress ures
SE C
ig ating
Ġen larg
ĠDav ies
ĠD ipl
Ġwh ites
pos er
L ICENSE
ĠK lein
am ount
ĠG uild
Ġle pt
Ġsur pass
ĠGa uss
omet own
integ ral
ĠA V
J eff
de velopment
Ġexcess ive
Ġattorney s
col First
27 5
Ġmer c
Ġcom plications
Ġtransport ed
O cc
Ġst up
ĠO w
Ġprob abilistic
ĠPl ayers
ĠV ert
geq slant
fin ity
Ġcongress ional
Ġ`` `
Ex ists
ĠPut in
the m
Ġpharm aceutical
ure auc
Ġab st
im en
Ġproduct ivity
F ixed
ins ki
Ġtort ure
Ġret rieved
ĠH aven
ĠCh oice
) ]{
Ac cept
ur ally
^* $.
umb n
Ġprot esters
re ne
Ġimport ed
C y
} ],
ĠMarc us
ĠTh under
Ġimm igrant
ĠNew castle
Ã© l
Ġcont amination
Ġpractition ers
al one
Ġtens ors
Ġupd ating
Ġdiff use
ĠMod els
o S
ĠIn side
Ġblock ing
ĠCh ase
ĠFl oyd
{ }{
ĠC ir
ĠG ust
Ġcourt esy
ĠEcu ador
ĠM ental
Ġ! !
Ġbe ams
Ġ$ _
RE CT
Ġsumm ation
18 43
Ġimag ination
Ġfulf illed
H o
Ġaff irm
Ġcur ious
ĠR af
mark s
Comp ilation
B rown
Ġrepl ied
Ġreve aling
Ġfood s
j j
" ].
L uc
ov sky
Ġf ru
Ġstress ed
u itive
18 6
Ġimplement ations
ĠE W
Ð ·
Ġop posing
Ġtob acco
Ġkn ot
ĠY O
mult iple
ri ans
ices ter
ĠEx pression
per ture
Ġlack ing
ĠR ush
Ġpos ed
ĠCorpor ate
3 75
Ï ģ
ĠP rest
}$ \\
ut ations
Ġf ier
ri ent
M u
Ġto y
ag ma
log o
Ġdraw ings
ur c
approxim ation
P ubl
Ġrespond ents
Ġbin aries
}}{ {\
ĠBeat les
Ġhypothes es
ĠZ ero
p id
ed ged
Ġmin eral
Ġcreat ivity
^+ (
D eb
ä »
im an
ĠT ell
G W
RESU LT
ĠM otion
ĠUE FA
ĠH urricane
IE W
V an
r g
18 2
ĠJ in
append ix
Ġcapt uring
Ġchap el
b ands
Col lect
init es
Perform ance
ĠM ull
cam el
Ġc ig
Ġh ull
em er
rit ies
T uple
st own
ĠClark e
Ġapplic ants
ĠWe ather
IN ST
P acific
V ir
v d
o fficial
Ġfurn iture
ĠD S
ĠYank ees
Ġthrow ing
contin ue
sh own
en burg
ĠY emen
work ing
ĠM iles
inn ers
ĠC N
Ġresid ing
ĠProgram s
Academ ic
ĠJ ung
ĠFran co
ĠAg ent
Ġre ass
aw i
Ġout going
any on
ext ensions
Ġre he
H aw
ĠH arm
Ġcor ollary
sm ith
E mb
ĠPalest inians
| ,
ĠR C
Ġhol y
out heastern
ĠCon v
Ġcapital ism
ĠC e
Ġco at
ĠWars aw
ĠM az
Ġe ager
Ġ[ âĢ¦]
Ġ$( {\
re a
ĠL akes
for th
Ġbroad ly
ĠTom my
Ġy ard
Rec ent
Ġb if
Ġre organ
Ġres ume
car bon
18 57
Ġess ays
Ġspect roscopy
ĠInter ior
Ġprospect s
Ġentreprene urs
Ġbary on
ĠI BM
C ut
ĠB L
Ġce ased
ĠGl enn
Phys Rev
Ġign or
ĠMov ies
] ).
Ġh anging
go og
Ġ Ñģ
Ġmother s
Ġpup ils
Ġg ymn
min ent
ĠĠĠĠĠĠĠĠĠĠĠĠĠĠĠĠĠĠĠĠĠĠĠĠĠĠĠĠĠĠĠĠ ĠĠĠĠĠ
dat aset
Ġreg istry
22 8
im o
Ġdomin ates
approp riate
* {\
20 30
Ġlie utenant
ĠG ang
Al umni
Ġtourn aments
Ġgu ards
Ġindic ators
ĠPan ama
o qu
ĠP ul
ugg ed
Ġfluct uation
Ġsupers ymmetry
CD M
ĠMichel le
20 9
ĠK err
Ġconfident ial
Ġbl ast
ĠMan uel
Ġunsuccess ful
Ġtra its
Ġd ys
Ġresol utions
Î µ
Ġlaunch ing
Ġbos onic
ĠR L
IC S
Ġcolon ies
Ġf ool
itect ure
Ġdepart ed
ĠPal m
BA SE
Reg ular
H ung
ĠTechn ologies
8 50
stit u
Ġobser vers
Ġmorph isms
Ġast roph
Â Ń
ĠGro ve
am as
Ġan ch
Sn apshot
per cent
V T
ĠM ob
ĠL it
Ġfro zen
Run ning
Ġsquad ron
Ġmod ulus
ere f
ĠD y
ract ing
m ons
an ne
Ġcontribut or
P rep
ĠF ly
ĠD oll
as se
Ġappe als
v b
in vest
ĠSc ar
Ġmark ing
Pe er
Ex per
Ġrece ipt
Ġl oving
Ġliter acy
Function s
Ġcan on
Ch anges
Ġdefend ants
Ġhal os
ĠH ey
pe ak
ĠFif th
van ishing
Ġannih ilation
T urn
ps line
Ġcor rupt
se cret
rest rial
Ġpost er
ĠAn imal
Y Y
Ġan satz
is ors
Perm ission
F red
G ui
Ġpos es
Ġcomp ares
Ġph osph
ĠDE FAULT
ĠWARRANT IES
I mp
is ers
ĠLicens ed
18 58
uff le
Ġb ootstrap
R o
Ġpoly mer
Ġprev ents
}: =\
s phinx
LE S
former ly
tz mann
ro gate
hook rightarrow
ĠKe ep
E s
... )
Ge org
s ampling
23 1
c ies
ĠB ullet
Ġtrans cript
al go
mod es
ho o
enc ia
en za
Ġr ises
Ġair line
0000 000
Ġtre asure
Ġtri um
comb ination
Ġassign ments
' _{\
b org
u uid
00 8
Do es
Ġre built
ol ate
Ġexam ining
ĠNetwork s
UT E
=\ !
Ġafter math
ri ber
ĠAh med
Ġ rip
ar in
Ġh ills
Ġtr ump
ym ph
Ġlect ures
ĠBry an
: @"
Ġplay wright
Ġnucle on
PH P
Dem ographics
k el
Ġ= &
Ġconf inement
C SS
ĠP om
18 9
Ġend points
Ġamend ments
ĠB rid
st re
Ġre written
ĠInt el
ĠAud io
cm p
x html
Ġp unk
Ġprior it
ere k
ĠR us
ri ages
Ġpublisher s
On line
Ġinc umbent
im als
ĠAb original
Ġprem ier
30 3
Ġstat istically
ĠIll ust
; )
Ġn u
ĠD I
ĠGr ass
M oths
ĠCour se
produ ced
Ver ify
un ivers
Int erest
Ġn ons
18 8
S aint
ut ic
T our
p ine
Sw itch
Ġc ock
Ġun fortunately
Ġdemonstr ating
ĠBris bane
ub ert
ĠC raw
Ġscr atch
ĠS ak
ut z
oy age
Ġdepos its
Ġorgan izing
iod iversity
ch at
perturb ative
ĠC ord
ĠCh ancellor
ĠTo o
Ġoscill ator
Ġloc als
Ġconf irms
}\ |\
Ġcor pus
^* $,
Ġ ì
Ġmet ropolitan
iv ially
ield s
j ack
atin um
ian e
Ġqual ities
Ġheart s
@{ }}
Ġel if
17 1
Ġlocomot ives
Ġ{ (
Ġin consistent
Ġamb ient
ĠRevolution ary
kw args
ĠO wen
gener ator
chi ef
Ġf el
Ġstart up
Ġb ike
ĠSl oven
Ġet ern
ĠN A
Un fortunately
ok o
zh ang
Ġsk illed
ers en
Ġsn ap
ĠPed ro
Ġincl ination
Ġnot ify
Cle arly
down load
Ġplanet ary
Ġshort est
3 80
Ġdef ender
Ġrel ocated
ĠS ultan
Ġdec oding
enn ium
Ġrid ic
ĠAng els
m essages
ĠSt yle
Ġhe aling
ĠM umbai
Ġf oo
ĠCh a
ĠA CT
ram id
sw ick
Ù Ī
ĠHe ights
Ġinter ventions
ĠBer ry
ĠMal ta
Ġspace craft
Option al
$ ^\
as ta
Ġl od
ubb ard
Ġin set
ĠArt icles
ĠS SL
ĠRe agan
ĠC ategory
Ġdifferent iable
inter action
**************************************************************** ********
neut ral
f urt
ä º
ĠP oss
ĠK ra
Ġtr acing
ĠW aters
Ġinter change
IP S
×Ļ ×
local host
im plies
wh ose
O FF
iff e
Ġsystem atically
c ot
der r
tain ing
mod ern
b ay
ad j
in fl
Ġsing let
Ġstud ios
Ġell ip
ĠA uckland
23 2
Ġst y
ĠH ir
Ġaud it
Ġsp y
by e
Ġconfirm ation
ĠRec ent
Ġde prec
ĠArm strong
ĠMethod ist
Ġembr ace
Ġc ube
Ġfore ground
Ġsupers ymmetric
T AG
Ġv iral
Ġex changes
Comple x
N eed
Ġint ensive
Pol y
ĠHen ri
sc an
Ġmat hematic
ĠC ities
ess ential
whe el
b uff
Ġrel ied
ys on
ĠCol lections
Ġorgan ize
IC T
Ġem peror
Ġconv ince
ĠK or
by ter
ĠDir ichlet
ĠT ong
Ġsp heres
Ġretrie val
R oll
Ġb arg
ĠM ead
Ġsubject ed
Ġvis a
us hes
un ov
enc il
. }}
' ')
Ġconcent rate
list ing
dr ag
Ġdisp atch
E ll
W estern
log ical
ett es
ben ch
d g
n ick
ole v
Com pan
ĠQ uality
na issance
Ġhapp iness
V S
Ġap par
Ġanten na
s ure
ĠN J
ĠEv olution
Ġbeat en
text ure
ee k
Ġl attices
Ġpian ist
th reshold
oc om
Ġmon omial
Ġposit ively
z oom
ĠD ol
en code
Ġf etch
ION S
ĠNap ole
Ġsm oking
Ġpar abolic
{ -\
Ù Ĭ
all classes
art en
US ER
mb f
ump y
Ġle agues
Ġfunction ing
ĠSe bast
Ġint ra
\% .
ĠT ampa
Ġem ploys
ĠHand le
in ion
ĠE ducational
ry s
les h
Ġrev ival
Ġpeculi ar
Scal ar
Ġad opting
col m
)\, ,
! )
Ġinform al
Top ic
s P
ĠAmeric as
ĠKn ights
{ #
Ġexpress ing
Ġflood ing
Ġforb idden
Ġnomine e
Ġrem oves
ogn ition
d ocker
ĠO DI
position s
I sl
Can vas
Ġindex ed
z el
Ġsubstr ate
Ġt ensions
á º
N i
Ġr ab
Ġfair ness
Mult iple
ew ard
- }
] ,\
{- .
ĠBl ake
check mark
oc o
Ġhistor ies
Sep ar
p ixel
Ġn ose
Ġsc reens
ĠCol in
,\,\ ,\,\
elastic search
Ġqual ification
ĠG A
Ġcustom s
Ġv ibr
Sp ring
Ġappropri ately
Ġpresum ably
C hen
Comp are
ĠCy prus
à ¦
Ġle an
communic ations
ĠL ac
g reat
ro ots
r uby
ish i
Ġclass Name
Ġgl ac
Ġadi abatic
Ġanaly tically
eg an
ĠAp plied
Ġl akes
ĠP ink
Ġch ore
Read y
Ġgirl friend
ĠO ptions
ĠCy ber
f ailed
28 8
Ġmanip ulation
Ġsacr ific
Ġh iring
script s
ĠBank s
role um
u ons
ĠD etails
Ġcompress ed
Ġcompass ion
Ġsched uling
C ategories
;\;\ ;\;\
Ġcal ib
id ered
In ner
Ġpick ing
FI X
Ġsh ame
S erv
r ab
Con sole
ĠOcc up
ct r
Bl ob
Ġnurs es
Ph ase
ĠBi ology
Direct or
Ġb ones
Ġdr ain
ĠBen ef
Th ank
Ġes cal
M ike
ĠH ess
ĠS ave
ĠLind a
|\ ,
bi ased
Ġt ips
or um
Ġbl ur
Ġb ishops
ĠM ine
spect ral
ĠCitiz ens
SCR IPT
Album s
S eq
ec a
edd ed
Ġelim ination
Ġthe ology
Over all
= %
our cing
Sp in
e as
ĠC B
F oot
11 11
ĠF P
ĠIss ues
ĠColl abor
d eb
Ġen rich
Ġlat ency
Ġcelebr ating
EV ENT
Ġevent ual
con serv
ĠMc L
S ound
Ġpack ed
Ġdes erve
Ġanisot ropic
Ġtheore ms
atern ity
andid ates
Ġcosm ology
Ġre op
F it
Ġsh oes
Ġenc ounters
/* !
Ġaugment ed
Ġtw entieth
k pc
F ail
ĠRichard son
ĠK i
ect ive
G IN
ĠO g
Ġb orough
over rightarrow
sp here
Å Ļ
Diff erent
Ġc ens
rib es
omorphism s
Ġins isted
ĠU nd
Ġrun ners
ĠT elescope
ĠF ont
Ġtim ely
Ġst ones
ĠN u
osp ace
ĠIndian apolis
ĠMot ors
ĠPot ter
Ġhad ronic
ĠSh ir
ĠRev enue
d B
Ġmut ually
ourn als
ĠWest minster
ph oto
task s
link ed
Ġb ell
Ġto ured
Ġend emic
Ðµ ÑĢ
triang leq
Y S
Ġag ing
Ġback up
G allery
18 56
J ournal
ç Ķ
Ġs ender
ĠN intendo
ĠKenn eth
$\ %
small matrix
ĠE R
ĠDi ocese
ĠObserv able
/ ?
Ġshock ed
Ð ¹
ĠOut standing
19 1
Ġpred icate
com par
Le ave
isp here
ĠSum mary
Ġaggreg ation
res on
ĠG ates
ats u
ah a
Ex port
Ġcal m
Ġaw s
ĠImm igration
uls ive
Sw ed
ĠC ec
w y
ĠT D
n as
ĠS weet
ĠBrad ley
Ġbi ased
ĠM ask
ĠH ass
ĠN ull
ock ets
arr ass
ĠTh ink
let ed
Ġpost pon
Ġcombin atorial
Ġt uned
EN CE
ĠT F
ĠE sc
22 6
ĠRoll ing
ĠW R
__ ,
ĠPr ague
Ġelectron ics
ract ive
ĠCO MP
Ġspect acular
Ġb ij
ĠCare er
m and
}) }{\
ĠSur v
it ars
es pecially
ĠB row
ĠSch warz
ari um
ĠVol unte
Ġdefault s
Ġf o
ĠCard inals
}} |
Ġcelebr ity
Ġentang led
and ez
est y
ope z
18 54
Ġnon negative
Addition ally
es ar
ĠP ars
3 70
ĠCon struct
ogen ic
Serial ization
Sc ience
integ ration
/ {\
gu ard
ĠMan it
Ġcred entials
ĠDist inguished
Ġdiv ine
Ġs ung
Ġl ip
Ġdist ress
Cal ifornia
H op
Ġrecurs ive
Ġfeed ing
iling ual
Constr aints
Part y
Ġinev itable
ĠQu estion
or ange
pe g
Ġinc idence
Ġimplicit ly
Ġenact ed
l ane
Us ers
Ġyield ing
Prior ity
Ġk ings
Ġmon etary
Ar thur
ordin ator
plan es
on er
}\ {
ĠG rowth
å ħ
ĠIt em
Ġmed i
s ources
w yn
eg ie
function al
ust ed
song writer
um m
Ġint imate
ting ham
Ġscript s
ref lect
ĠV illa
Ġconsum ed
Ġadd iction
ĠMos es
Ġpack ets
Ġestabl ishes
Ġsub urb
Ġutil izing
] ),
} ''
nav List
ort ex
. }.
Ġp ink
und a
Ġmore over
Ġlong time
Met ric
ap est
Ġdevast ating
Ġcancel ed
Ġax ial
Ġsqu ee
Hon ours
Ġr uler
24 1
Ġwidth s
ĠSol utions
Ġalt ogether
NE W
ĠT X
Ġsocial ist
18 51
por ter
Stat istics
K O
opl an
)}\ \
Ġdivid ing
ps frag
ĠRe ports
Ġcasual ties
Ġref erenced
Ġded ication
ĠLink ed
as ympt
ric ia
m ixed
Ġcom merce
ĠAct ress
ĠP arameters
Ġ} .
Ġsovere ignty
AT URE
Col lege
ĠAppe al
od s
ĠE g
Person nel
ĠGib son
Ġb icy
b id
18 55
Ġtow ers
ĠS ic
ĠR out
att i
met rics
ign er
d h
Ġexplo itation
kins on
disc uss
Ġcontract ed
ĠArgent ine
r ice
Ġmurd ers
R edu
T rad
get Instance
stitution al
Alex a
pe red
Ġoff ence
Ġsur jective
Ġsubmar ine
v ac
Ġal beit
Ġhonor ary
ing o
ho e
Ġf idelity
^* )
ĠTw enty
Ign ore
m orph
n r
ĠIn valid
ĠAug sburg
Ġoccas ional
ĠT at
Ġval uation
G RO
Ġenter prises
Ġpr icing
he y
Ġquad r
Ġde ple
4 000
ĠH I
hold s
Ġhope fully
Ġdeb ates
ind ices
Ġsp ans
Ġpro poses
H K
min imal
ĠNiger ian
ir cl
Ġ" ${
ĠWrit er
J oe
Ġt ear
Ġref inement
Ġspons or
: '
f illed
Ġl ane
ne um
Ġcoordin ator
Ġcommission er
ram es
ĠStart ing
stan bul
Ġdon ation
ieg e
Ġthreat ening
Ġ' #
Ġhelic opter
ĠK yle
Ġspont aneous
al ert
Ġcont ing
disc iplinary
Sup ported
ĠJo el
T reat
annot ations
ĠLib ya
Ġreprodu ced
================================ ================================
eqn o
ĠJess ica
Lou is
Ġex otic
ĠHill ary
hen ce
ĠCart esian
M achine
Ġtri o
) }}{
F em
Ġp orn
Ġmach inery
Ġdon or
Y eah
a ft
ĠAp ost
ĠBa iley
Ġfemin ist
op acity
Al pha
ergus on
Ġtim ber
redu ce
ĠFant asy
k ers
Ġpost ing
ic us
17 9
Ġhad ron
Ġrest art
CE SS
ĠFl ow
Ġc ooking
Ġrecru ited
ĠR G
in ance
id uc
ĠAn a
Ġtem plates
ĠDev il
Ġlicens es
ĠV ern
18 49
sq cup
tr uth
PE C
Ġdirect ing
ĠA IDS
in ous
\ ":
trans l
Ġtruck s
re li
-> ]
=\ ,
ĠSche dule
Ġb ureauc
B order
ĠIn g
Ġbr ackets
Re pe
ĠMy anmar
M AC
q a
Ġc ris
Ġm akers
St ill
prob ability
Ġh iding
Ġaccompl ish
ur rection
Ġpar as
Ġdis charge
b eck
ĠR oot
ĠTE ST
U r
Ġs i
ĠH aus
D istance
ĠMan ufact
Ġalt itude
Ġpit cher
mat ches
Ġdat abases
un ar
ĠR oth
Ġcho oses
ĠCath olics
Ġgreen house
ĠAndrew s
ih ad
Ġacc idents
ĠDes ert
it ches
ip per
ĠA ub
ĠSw an
ut a
Ġtr agic
Ġadv ancing
ĠT all
and ro
ud ed
ĠT iger
Ġdeleg ation
Ġdiscipl ines
ink owski
ĠLet ters
23 8
Ġstory t
Ġ\ ,\,
end ant
G ER
ĠB P
ill ary
Ġcomp rom
ĠK illing
dep recated
Ġf t
L icense
Ġb ra
ĠC ob
ĠDep ression
Prob lem
Ġcur ved
Profess or
Ġd ash
Ġminim ization
HO UT
is ure
year s
Cre ated
Ġaccum ulated
Ġmain land
Ġb rane
Ġ} ),
99 99
Path s
Ġpriv ately
Ġfar mer
dec re
min a
Ġpoll s
atic an
Ġtransl ates
J ean
ĠB ears
Ġtimes cale
Ġrout ing
ar ations
Ġm a
spe aking
Ã ½
å ®
18 1
ER N
Ġst iff
PRO P
con tr
ĠP ac
Ġhol idays
ĠF an
Ġtim eline
W arn
get Id
ĠDev on
ĠP f
Ġcommun ist
fil m
a ude
Ġthe or
y on
ter min
yl on
BL IC
qu bit
ruct ive
Ġapp ell
Ġannot ations
I p
al am
ĠK umar
ĠM ell
å Ī
ĠH off
Ġp t
met er
Cal endar
ĠN as
Ġdynam ically
Ġwarn ings
Profess ional
Miss ing
ĠJohn s
Ġ' ''
ĠSalv ador
Ġt enth
Ġgen res
Ġann ex
Ġend ors
print s
or f
press ions
Rep resent
NO DE
ĠStev ens
ec ycle
Ġcomp ile
ul atory
ep age
Ġterm inated
23 3
Ġsaf egu
er re
Ġninet eenth
Ph aser
| <
Ġtr aced
Cont ract
Ġ$ +
Fore ign
Ġplaus ible
ĠBrun swick
Ġs addle
Ġ' -
ĠCal cul
ĠS askat
Ġinsp ire
loc ale
ĠAngl ican
H ot
0 11
c ould
Ġharm ful
18 47
aur us
Ġgener ous
le vard
ĠU P
p owered
op ard
' }{
if i
Ġstre ak
vis ual
Ġgrap hene
Ġque en
Ġneighbour ing
16 00
22 7
Ġnovel ist
ĠAd voc
Ġbo om
.\ ,\
play ing
ĠBan ach
Ġal umin
st ed
Ġimply ing
Execut or
Ġterror ists
Ñ Ĩ
ident ified
Ġrect angular
os ity
Ġobst acle
deg enerate
Ġtradem ark
est e
b right
c ool
l os
Ġex ercises
abb ed
rid or
Ġsepar able
h it
ĠSh adow
ĠArch ae
ĠPo etry
h w
R eb
ĠE t
Ġdr unk
ĠBr ain
ĠChar acter
Ġwithd rew
Ġd st
ag le
ĠE ye
ok u
ĠMe asure
Ġline up
Pro c
Ġcollabor ated
th rift
Pro du
ĠDist ribution
oun s
ĠX X
$ _\
Ġby pass
ĠLeg acy
Ġadvers ary
Ġph r
ĠL or
ĠL S
ian i
Ġclass ify
t ens
ch ro
ĠK in
ident ial
et e
ĠV ers
ak is
rem ote
ĠEs sex
ĠDur ham
Qu ant
H u
ĠAct s
Ġarchitect s
ĠStock holm
ant is
ĠAL IGN
ĠExper ience
bal anced
ul ent
nthes is
Ġcan al
D ITION
Ġcast ing
B ol
our ced
Ġab ort
ĠCent ers
Ġm i
ĠM om
ĠBel ow
\ ).
que z
Comb ining
Ġrespond ing
Ġtum or
Ġarchae ological
ĠĠĠĠĠĠĠĠĠĠĠĠĠĠĠĠĠĠĠĠĠĠĠĠĠĠĠĠĠĠĠĠ ĠĠĠĠĠĠ
B rien
et c
bo at
for cing
Ġ$ %
B esides
Ġcomm enced
ai res
Ġdegener acy
online cite
Ġ\ '
Ġn umbered
K M
ĠV eh
ĉĉĉĉ Ċ
Ġpredict ing
Ġdisc ourse
ĠBudd h
f box
ĠFil ter
M ale
Ġex ponents
ĠO z
conver gence
tabular newline
AR K
ĠOrig inally
w ald
ĠH S
ens ing
Ġcho ir
ĠN ine
Ġor n
ĠChe ster
ĠP and
ĠKE Y
verb atim
M ut
Ġo mit
ht m
Ġsim plicial
Ġcivil ization
Ġcook ie
Ġimprison ed
ĠA ve
Ġencour ages
urch ase
Ġaccount ability
Ġapprec iation
Ġtheat rical
Ġour s
)} +
ĠPro ceed
.* ;
F ast
SH A
parent s
ĠAl pha
Ġsuperconduct ing
In cre
d yn
ĠRh odes
clud es
ĠCom pton
ĠCar r
ĠRel igious
ĠConstitution al
ĠDeg ree
Ch unk
23 7
ĠViet namese
P OS
ĠKash mir
ĠD h
Ġbas in
Ġn aming
t imer
ĠJ ak
}^ -
OR S
Scott ish
Ġadjust ment
i ott
Ġimm ers
Ġa perture
ĠTh ai
Ġworth y
Depend ency
Ġb rows
hig her
ĠM BA
ĠF olk
... ]
he x
Ġp ig
F at
c red
Ġbro ker
ĠP apers
Sc ore
ĠG ender
Ġminor ities
M EM
g lyph
Ġn ond
um en
Ġred ist
Ġoverl apping
^ -\
ĉ ĠĠĠĠĠĠĠĠĠ
Ġport al
Ġi Phone
26 4
ocol ate
Ġc c
Ġsur render
/ $
Ġsem if
Ġred irect
m ile
ĠQu art
r x
DE D
ec hes
2 16
ur face
big cap
ĠS ang
Ġhel per
aff e
Medal ists
M iddle
] &
Ġv in
1 200
ort heastern
Ġexpect ing
T ech
IN IT
esc ape
LE MENT
d ra
condition al
Az ure
Ġlaw makers
leg end
Im ages
Ġrent al
ĠD ow
Ġmod al
Ġurg ent
ĠPublic ations
ĠHend erson
ĠArt illery
ist on
Ġloc ate
v ik
ĠClass es
ĠDi agnostic
ĠSac ram
it ably
Ġbre eding
graph s
ĠG y
av in
rob ust
c in
Ġperform er
Ġpro gen
head ing
effect s
E W
Ġ Ã©
Ġv m
ĠShe ffield
E th
se ek
In vest
can onical
k r
Nav igation
\% )
Ġsuff ix
Ġjew el
ĠN LO
ĠAccording ly
desc ribed
s ent
ĠA F
hed ron
Ġdece ased
Ġim g
Ġcondem ned
K B
Ġton ight
ĠBos nia
Ġenroll ment
H ello
Ġform ations
ĠN GO
sql ite
30 2
__ ["
ĠCon nection
ĠM emphis
ĠRom ans
) ?
Ġover see
Ġshell s
Ġestim ators
ant le
Conver ter
uc hed
Ġviol ating
t in
Ġshe ep
ĠB AS
ĠSim pson
Ġdepos it
ĠCorn ell
æ ĸ
ab ic
Ġsepar ating
Ġinject ed
Ġaz imuth
Ġinv itation
w at
Ġd ump
us a
Ġj umps
Ġdetect ing
Ġcryst all
i encies
p romise
Ġo wing
ĠL ed
For ce
ĠEm ployment
l ord
ĠM T
3 45
Ġg aug
ĠF ollow
CRE ATE
Ġre wards
Ġqu arters
append Child
s an
ar u
ĠR GB
ĠS aw
Ã© r
Ġp ocket
Link ed
ĠW end
ĠExt ension
D irection
Ġdef erred
ĠAt omic
ĠGrand e
Acknowled gements
ir atory
Ġshe af
et ed
Start ing
ĠCa uc
)} +\
B ank
Ġc rossover
Ġl ov
Ġemb arrass
B and
ĠN om
Ġmut ation
ĠG D
ĠR S
Ġcriminal s
r vert
ari ous
open hagen
J ones
IM P
Ġdemonstr ations
ĠArmen ia
Ġcapt ion
ĠC ay
Ġvict ories
frag ment
L ang
s uggest
), $
L t
qu o
z ier
Ġc ivic
ĠD uncan
Ġenc ryption
F ire
Ġbreak through
Ġchar itable
L iber
ol in
vent ional
ar ians
ĠIn spector
ĠSy ntax
il inear
Ñ ħ
} ",
nav igation
ĠJeff rey
Ġthorough ly
Ġge ographical
ĠCD C
H ER
ĠW ant
EX PORT
22 9
atter y
Ġt ired
Ġfor wards
)$ :
ĠGe off
ĠH ern
Ġm oth
il ogy
pr iv
ĠE RA
J P
ĠH app
al exa
b ucket
p ent
d ers
ĠEth ics
Ġhold ers
ĠPaul o
k ed
Ï ĥ
ĠF lem
ocr acy
Ġrelig ions
ĠWy oming
k ubernetes
Ġh ometown
mod ified
IF AR
ĠRoberts on
ĠSt ructure
Ġprotect ive
ur an
qu est
ĠS TE
vers ions
}^{ -\
Ġaver ages
tex cmd
Ġacadem ics
ĠSch ol
ĠA er
ord ering
ĠArg ument
ĠCh ad
ĠMarsh al
ract or
Ġimport s
Ġaffili ate
[ [
en es
ĠHe at
constr ained
Ġmer it
Ġ ðŁ
Car thy
ĠB rief
Un iform
Ġlif ting
i ago
ĠB ever
d ed
ĠI M
Output Stream
ĠFem ale
ĠJama ica
Ġacceler ate
Writ ten
ĠTh r
IC ATION
Ġauthent ication
trans action
plement ary
ĠSol id
Ġgod s
Ġw reck
> ()
ĠN R
ĠLapl acian
Ġme al
Ġarch ives
pm od
Ġprob able
pd ates
] =\
H ook
ĠÐ ½
ĠClass ical
}{* }{\
K h
ĠVal ent
ĠS Ã£o
ĠP rec
Re ason
A mb
Ä Ļ
ĠRic ci
)= -
Ġconst ructions
Ġdign ity
w i
ba um
ĉĉ Ġ
li u
ĠBarn es
ĠC ool
Ġst ance
ill on
Ġunder way
d iamond
ĠL ip
tool bar
SS M
Ġcru el
Ġce iling
ĠL iga
ep per
10 16
38 4
ĠDomin ican
Ġkey boards
aint ed
v on
ĠN AV
Ã ¯
ĠRe ich
Sub ject
p ion
ĠCh uck
P V
P b
umber land
der ived
Ġshort age
0 12
Ġ[ (
pack et
iver y
Ġloc us
)}{ (
ĠBuild er
ĠWrit ers
ĠV e
Ġcontact ed
ĠLu cy
et ric
Ġiter ate
W F
ĠLe icester
up les
3 10
G LE
ĠC ounter
omet ime
Test ing
ĠU t
Ġnetwork ing
Ġchemical s
Const ruction
t uning
ĠC ash
ho ff
Ġst unning
pl aced
18 52
W ood
ĠMor rison
Ġfilm maker
n ut
d elegate
}=\ {
le ys
ring e
Ġqu otes
ĠLyn n
ari us
Ġqual itatively
Ġreb els
Ġsc ream
ĠChem istry
Ġt s
av our
ĠKnow ledge
let te
Ġsens ing
C ong
ul g
i ya
ĠH od
art icles
Ġs orry
ĠL t
Ġcoll aps
Ġcomputation ally
Ġ ...,
Ex perimental
Ġrespect s
Ġbur ial
Ġch lor
ĠWell ington
ĠA ires
Cert ificate
ll ll
Ġund erest
ot ics
ĠE ST
Ġheli um
Ġh ind
Ġtem pt
File Name
ĠAss essment
Ġbipart ite
Ġel dest
ĠAgric ultural
ĠP iano
Ġacadem y
Ġdisag ree
Y et
ĠLeg ion
Ġinsp iring
ĠGer ald
Ġcl s
site info
ĠGR B
Ġd ubbed
Ġshe ets
ĠJam ie
on ormal
Ġorgan izational
lass ical
ĠW ire
CC ESS
Ġaer ial
Ġexplo ited
ĠBur ke
ĠV a
ud s
d ens
et itive
ĠS ER
N F
T ensor
Ġblock chain
ĠViol ence
ĠInit ially
Ġbi ases
ĠBened ict
st retch
bre ve
he ng
Ġsuccess ion
18 12
Ġtheore tically
ĠAr ist
Ġpossess es
ĠLou ise
Ġb reat
Ġ' ./
Ã¡ s
Ð° ÑĤ
P ic
Ġment or
Ġsuscept ibility
Ġinterpret ations
Ġdoub led
FORM AT
ancellation Token
Ġshock s
Ġcap ita
ĠSing les
Ã¶ r
ĠSe ctions
Valid ate
Ġterrit orial
ol ith
24 2
Ġexclud ing
ĠS part
ĠF ocus
Ġtouchdown s
Ġb apt
âĢĿ ).
Ġserv ant
Ġcount less
aa aa
_* $
ne ighbor
Ġatt ained
ĠT es
ĠR ut
Ġposition ed
Ġpast or
ĠN g
]{ $
Ġep it
ĠLand au
Ġperm utations
ĠK urt
Ġen listed
ĠEx hibition
Ġret ro
Ġgrand children
Ġchar m
}) \\
Ġinvestig ators
d ia
ĠSch midt
ĠUn c
IC K
Ġp ap
im ization
-\ !
Ġcor ps
n os
at ility
Mer ge
Ġint end
Ġl iable
ĠScot ia
Ġauthent ic
b ug
u pe
Ġcomm ute
dis crete
Ġcontain ers
A thlet
Ġw rapper
ĠE S
Ste ve
( ['
ĠC atalog
ĠTre k
u ably
iv odes
D MA
Look up
26 5
Ġauthor ization
Disc ography
Ġg ospel
Ġnot orious
cy l
ĠMaterial s
LO AD
å Ĳ
ĠN umer
Ġaut obi
Ġresil ience
at op
en ary
own ers
ĠRes olution
ĠLore n
t alk
C AP
Ġcollect ively
p aid
y i
v g
Ġthe aters
Ġto uched
(' <
hed uled
ĠNY C
part icles
G I
Ġrank ings
Ġar cs
Flor a
0 25
j b
Ġtag ged
ĠS ons
media wiki
Ġclin ic
ĠHamb urg
Ġap ilevel
Ġsupport ive
ĠB elt
Un like
f air
label ed
Ġbom bs
ĠEmm y
ĠK end
y ellow
ĠS ent
Own er
Ġst ip
D IF
m or
wart z
not ations
Ġdomin ance
Ġre dd
Ġten ant
W ild
ĠC ertain
.. ."
rib ing
24 3
Ġt d
Ġsoc ially
ion ic
Mod ified
Ġhost ile
Ġpull ing
ĠH ip
ĠAv ailable
ĠKazakh stan
Ġcomed ian
ex c
Ġk iss
ĠAbd ul
Ġmemor able
ay ette
ĠG OP
ĠFried rich
Ġlater al
Ġmorph ology
Ġhaz ard
ond s
18 46
30 5
Ġexpans ions
ĠG ren
ĠBit coin
A ctions
Ġtal ents
' ^
Mus ical
Ġeduc ator
Ġgo alk
Ġfac ial
Ġindirect ly
ĠD ylan
end ors
ĠE RR
Ġsol ver
ĠLGBT Q
Ġcommit ments
Ġform ulate
S afe
he v
getElement ById
ĠN ixon
l int
M icro
k le
Pre v
Ġbrut al
Ġre bounds
ip ro
Ar row
Ġdon ors
Ġlength y
' ].
s amp
ubb les
ĠFl ash
ĠGib bs
40 5
ĠAd v
ĠML B
ĠD NN
Ġman s
ĠFran Ã§
ĠEx ped
alax ies
Ġinstruct or
] ->
Cl aim
Ġeduc ators
IF T
Ġcop ied
ĠAlexand ria
Mod ern
ĠPakistan i
c ia
n ice
Tax a
f u
it on
ro tt
ole y
ĠJul ie
ĠEll en
ĠManit oba
Ġd z
ĠJud a
ĠA LL
Wh ich
Ġclean ing
Ġbehavior al
ĠChief s
Ġpreced ed
Ġterr ain
ĠU pdated
Ġtim er
ĠGre ens
) }^{
F ake
Ġthe ft
Ġlabel ing
( --
} &=&
âĢĿ ),
ĠCar roll
ĠLes lie
2 21
b ons
v arn
Ġun t
Ġg i
og l
ĠSecond ary
W M
ĠAdvent ure
I ran
g overn
v ir
Ġ( {
che wan
log ging
AAAAAAAAAAAAAAAA AAAAAAAAAAAAAAAA
Un ion
ĠM Ã©
****** /
Ġin accur
Ġenjoy ing
ĠP rep
parent Node
ograph s
Ġd ans
Ġc otton
Lower Case
em ission
ĠAl leg
roph ic
ĠC ond
ĠÂ «
ĠTour ism
ĠIndones ian
K ernel
ĠT ru
Ġfin est
Ch arts
Ġe gg
Ch icago
Ġnews letter
Ġl ighter
tim estamp
ĠCard inal
C ov
ib a
- )
ac ional
ĠG em
lim sup
Ġsm ile
ES CO
Ġbelie ving
D one
ĠS USY
ĠF T
ĠC anyon
ĠW ould
ear chers
AR CH
dom inated
ĠJosh ua
Ġnick name
ph ib
Ġind ef
Ġdegrad ation
% ).
Ġp ays
Ġfact ories
ĠTest s
Ġp aired
Ġpro long
block s
ĠCurt is
i ological
Ġinvent ory
Ġle ts
Ġsol ves
ĠÃ ģ
ĠPos ition
Ġ& =\
ress es
ĠIS IS
Ġfort une
G overn
ĠJ ake
ma re
ĠH i
Ġfil tration
ĠU T
Ġmot if
L V
Ġge ographic
ĠRun time
urg ery
Hash Map
Ġforth coming
P K
Ġmon astery
Ġteen ager
list ener
Ġsem ic
Ġnav igate
Ġancest ors
M ET
R h
Ġt ong
br ack
ĠIm plement
cd n
m otion
max imum
ĠS B
Ġmultiplic ative
Ġsmooth ing
ĠP orter
Ġdel ivers
M ic
ivodes hip
Ġtriple t
ĠA A
ish able
l is
ke eping
isecond s
AR G
ĠP HP
ĠNot re
it ational
Ġ} ).
Ġinduct ed
Ġsecre ts
t ick
ĠFor bes
Ġsex ually
Ġaugment ation
Ġsw ord
ge o
// !
AM S
Ġjust ification
Ġprotagon ist
ĠA WS
set Attribute
Ġgot o
\ ;\
on so
sh i
Ġdig its
Ġw ound
Ġl oses
Loc ale
ĠPaul i
Ġg a
)\ |
F und
c art
if a
head ed
j ee
ĠA DC
ĠL iv
Ġm uon
Ġnow here
Ġatt achment
ĠD iana
ud er
Count ry
... </
R D
se mi
w r
ens itivity
ĠCongress ional
Ġdeliber ately
Ġen forced
m atter
D isk
ĠG it
ĠPl aza
Ġapp rent
p ure
Ġtherap e
ĠMerc ury
get Attribute
Ġaltern ating
)\, .
ĠJ ourney
Ġserv ants
spec ified
hard t
id ation
24 7
Ġvol leyball
Ã¼ n
Ġa rose
29 0
Ġor acle
orth y
Ġd ining
}} }(
Col umb
Ġver dict
e clipse
ver ify
ĠU RI
ick y
ĠGu atem
Ġ' _
Ġinter fer
Ġloc ale
ST ART
r ina
prep are
Ġmit igate
Q A
ĠTrans form
{ +
Ġro ok
has OwnProperty
/ #
ĠS hen
ĠA way
Ġappe aling
uzz y
18 53
Part s
Ġconv inc
Ġorche str
sh ine
agn et
Ġpract iced
En able
Ġdro ught
S ets
ing ale
Ġflat ten
BU FFER
ĠC av
Ġsw ap
29 5
ĠR ol
oper ators
WH M
ĠVis it
ĠE aster
Ġparamet ric
stit uting
ĠOb viously
ĠSw itch
ac l
int roduction
imm ers
/ ">
ch ap
ĠV il
p ole
aus ed
Ġcr ashed
Ġclar ify
ĠAssum ing
Ã Ĺ
ov ina
L ines
ic it
Mat cher
Ġc ipher
Ġhon ey
Ġintent ions
Log in
Ġreven ge
ĠByz antine
ote chn
ĠC rist
ĠB elf
ĠElect ronic
ĠA ur
Ġbl end
Ġsovere ign
ĠSe lection
ĠE b
Ġrebell ion
p ark
ĠC W
Form s
St ub
stat ement
Ġpreval ence
Ġfe ver
Ġsp rint
Ġvisual ization
ĠSh in
ĠB od
ik er
k ill
att ention
Rec ords
L es
P ur
ari at
stud y
utr ino
ĠAr senal
ĠF lying
l ore
Ġconsolid ated
d og
ed o
ĠG or
Ġwid ow
Ġresum ed
cl amation
Ġsever ity
ĠCl uster
qual ified
Ġm aker
Key word
Ġattack er
ĠHe ath
Ġfl aw
ven ile
ĠH BO
Ġim ped
ĠUS D
Ġentert aining
Un ity
Ġs ailed
et imes
ĠMer cedes
Status Code
N GC
ĠS ure
ĠCele br
get Type
(" #
Ġaest hetic
J y
e ither
Ġrefere e
Ġbas elines
Ġinfect ious
\ ),
Ġsu cc
ĠCarol ine
ĠVo ivodeship
M Hz
c ached
L im
en ot
ĠC yr
em ia
St an
ĠEvery one
18 44
view port
not ify
_* (
}} [
Ġequ iv
ne ed
23 6
P B
ad ays
Ġpath way
represent ed
Ġmed ication
ĠSt rat
diff erence
Ġt ick
Ġdies el
Ġpurch asing
ĠOp port
Ġincent ives
Ġsear ched
sl o
ĠRed u
ĠLithuan ia
Ġrid ers
Ġsm oot
ĠBe havior
l if
em bourg
ĠRes pond
Ġprogress ion
L AS
en i
pr agma
U pon
âĢ ĥ
Ġg ases
ĠD rop
Ġhe ights
disc ussion
A h
ĠS qu
ex plicit
ob ic
25 3
ĠL enn
24 4
b at
{( -
ĠÐ ¸
Ġ( `
Ġmar itime
o que
ren ces
ĠIm ag
Ġflo ors
Ġc ant
ac iÃ³n
rep o
ĠUnivers ities
ol ated
Ġeigen states
Ġwid get
Numer ical
ï¼ Į
r p
h ouses
Ġdissol ved
Ġprom otes
Ġmid st
ĠMig uel
Ġmark ers
commut ative
Ġrow span
CE PT
ĠEug ene
Ġre ck
ĠG B
Ġspecific ations
Â «
h urst
å ¤
ar cer
dis patch
pol ynomial
Ġs iege
os i
Ġrandom ized
Ġmiss iles
byter ian
enz ie
Ġpr ince
Tem p
N ONE
18 36
ĠC ritical
ĠF ighter
Ġapprec iated
L AB
t u
24 8
ĠInit ialize
L android
} <\
Ġdis band
ograph ies
mark er
Ġplace holder
Error Code
ĠHy per
Ġwhere in
}= {\
Ex it
ĠPer th
small er
ĠLuther an
30 6
ĠLe vi
Ġsk et
Ġsem icon
ĠAnn iversary
oc ene
ĠBl air
Ġimp air
F ive
b usiness
U Int
23 9
C odec
ĠSt okes
Ġmet eor
Ġr ivals
ĠSt orage
includ es
Ġcru ise
ĠWIT HOUT
h ort
ia z
ĠSh ore
consist ency
ĠBulg arian
Ġhospit ality
e ous
Tool s
chro tron
ĠL il
Ġillustr ations
l ic
Ġse al
decl are
Ġcardinal ity
c ourt
ĠAp ollo
Ġsynchron ized
Ġp riz
Spe ed
ĠGarc ia
B ACK
ĠB in
> {
ĠTe aching
ĠRev ival
Ġthreshold s
Ġp ad
Ġcl an
In side
ĠPr ide
Ġaut onomy
Ġad equ
Ġdem ographic
os er
Ġfin ishes
Ġsuppor ter
ĠPre vious
ĠCarn egie
ĠI X
ĠDen ote
ĠL ak
Ġrem inded
Recip ients
\ &
== =
b et
Ġna ive
sw ap
Ġcreat ures
)^{ -\
Ġmag ical
ell ation
ou cester
Ġfirm ly
ĠRoche ster
is Array
ĠS ale
ĠC ork
od el
ans k
Ġche ss
ĠNurs ing
4 40
ct ive
[...]
