{
  "version": "1.0",
  "truncation": null,
  "padding": null,
  "added_tokens": [
    {
      "id": 0,
      "content": "[UNK]",
      "single_word": false,
      "lstrip": false,
      "rstrip": false,
      "normalized": false,
      "special": true
    }
  ],
  "normalizer": null,
  "pre_tokenizer": {
    "type": "Sequence",
    "pretokenizers": [
      {
        "type": "Digits",
        "individual_digits": false
      },
      {
        "type": "ByteLevel",
        "add_prefix_space": false,
        "trim_offsets": true,
        "use_regex": true
      }
    ]
  },
  "post_processor": null,
  "decoder": null,
  "model": {
    "type": "BPE",
    "dropout": null,
    "unk_token": "[UNK]",
    "continuing_subword_prefix": null,
    "end_of_word_suffix": null,
    "fuse_unk": false,
    "byte_fallback": false,
    "vocab": {
      "[UNK]": 0,
      "!": 1,
      "\"": 2,
      "#": 3,
      "$": 4,
      "%": 5,
      "&": 6,
      "'": 7,
      "(": 8,
      ")": 9,
      "*": 10,
      "+": 11,
      ",": 12,
      "-": 13,
      ".": 14,
      "/": 15,
      "0": 16,
      "1": 17,
      "2": 18,
      "3": 19,
      "4": 20,
      "5": 21,
      "6": 22,
      "7": 23,
      "8": 24,
      "9": 25,
      ":": 26,
      ";": 27,
      "<": 28,
      "=": 29,
      ">": 30,
      "?": 31,
      "@": 32,
      "A": 33,
      "B": 34,
      "C": 35,
      "D": 36,
      "E": 37,
      "F": 38,
      "G": 39,
      "H": 40,
      "I": 41,
      "J": 42,
      "K": 43,
      "L": 44,
      "M": 45,
      "N": 46,
      "O": 47,
      "P": 48,
      "Q": 49,
      "R": 50,
      "S": 51,
      "T": 52,
      "U": 53,
      "V": 54,
      "W": 55,
      "X": 56,
      "Y": 57,
      "Z": 58,
      "[": 59,
      "\\": 60,
      "]": 61,
      "^": 62,
      "_": 63,
      "`": 64,
      "a": 65,
      "b": 66,
      "c": 67,
      "d": 68,
      "e": 69,
      "f": 70,
      "g": 71,
      "h": 72,
      "i": 73,
      "j": 74,
      "k": 75,
      "l": 76,
      "m": 77,
      "n": 78,
      "o": 79,
      "p": 80,
      "q": 81,
      "r": 82,
      "s": 83,
      "t": 84,
      "u": 85,
      "v": 86,
      "w": 87,
      "x": 88,
      "y": 89,
      "z": 90,
      "{": 91,
      "|": 92,
      "}": 93,
      "~": 94,
      "¡": 95,
      "¢": 96,
      "£": 97,
      "¤": 98,
      "¥": 99,
      "¦": 100,
      "§": 101,
      "¨": 102,
      "©": 103,
      "ª": 104,
      "«": 105,
      "¬": 106,
      "®": 107,
      "¯": 108,
      "°": 109,
      "±": 110,
      "²": 111,
      "³": 112,
      "´": 113,
      "µ": 114,
      "¶": 115,
      "·": 116,
      "¸": 117,
      "¹": 118,
      "º": 119,
      "»": 120,
      "¼": 121,
      "½": 122,
      "¾": 123,
      "¿": 124,
      "Â": 125,
      "Ã": 126,
      "Ä": 127,
      "Å": 128,
      "Æ": 129,
      "Ç": 130,
      "È": 131,
      "É": 132,
      "Ê": 133,
      "Ë": 134,
      "Ì": 135,
      "Í": 136,
      "Î": 137,
      "Ï": 138,
      "Ð": 139,
      "Ñ": 140,
      "Ò": 141,
      "Ó": 142,
      "Ô": 143,
      "Õ": 144,
      "Ö": 145,
      "×": 146,
      "Ø": 147,
      "Ù": 148,
      "Ú": 149,
      "Û": 150,
      "Ü": 151,
      "Ý": 152,
      "Þ": 153,
      "ß": 154,
      "à": 155,
      "á": 156,
      "â": 157,
      "ã": 158,
      "ä": 159,
      "å": 160,
      "æ": 161,
      "ç": 162,
      "è": 163,
      "é": 164,
      "ê": 165,
      "ë": 166,
      "ì": 167,
      "í": 168,
      "î": 169,
      "ï": 170,
      "ð": 171,
      "ó": 172,
      "ô": 173,
      "Ā": 174,
      "ā": 175,
      "Ă": 176,
      "ă": 177,
      "Ą": 178,
      "ą": 179,
      "Ć": 180,
      "ć": 181,
      "Ĉ": 182,
      "ĉ": 183,
      "Ċ": 184,
      "ċ": 185,
      "Č": 186,
      "č": 187,
      "Ď": 188,
      "ď": 189,
      "Đ": 190,
      "đ": 191,
      "Ē": 192,
      "ē": 193,
      "Ĕ": 194,
      "ĕ": 195,
      "Ė": 196,
      "ė": 197,
      "Ę": 198,
      "ę": 199,
      "Ě": 200,
      "ě": 201,
      "Ĝ": 202,
      "ĝ": 203,
      "Ğ": 204,
      "ğ": 205,
      "Ġ": 206,
      "ġ": 207,
      "Ģ": 208,
      "ģ": 209,
      "Ĥ": 210,
      "ĥ": 211,
      "Ħ": 212,
      "ħ": 213,
      "Ĩ": 214,
      "ĩ": 215,
      "Ī": 216,
      "ī": 217,
      "Ĭ": 218,
      "ĭ": 219,
      "Į": 220,
      "į": 221,
      "İ": 222,
      "ı": 223,
      "Ĳ": 224,
      "ĳ": 225,
      "Ĵ": 226,
      "ĵ": 227,
      "Ķ": 228,
      "ķ": 229,
      "ĸ": 230,
      "Ĺ": 231,
      "ĺ": 232,
      "Ļ": 233,
      "ļ": 234,
      "Ľ": 235,
      "ľ": 236,
      "Ŀ": 237,
      "ŀ": 238,
      "Ł": 239,
      "ł": 240,
      "Ń": 241,
      "ĠĠ": 242,
      "Ġt": 243,
      "in": 244,
      "he": 245,
      "Ġa": 246,
      "on": 247,
      "re": 248,
      "er": 249,
      "Ġthe": 250,
      "at": 251,
      "en": 252,
      "ĠĠĠĠ": 253,
      "or": 254,
      "Ġs": 255,
      "al": 256,
      "it": 257,
      "is": 258,
      "Ġo": 259,
      "an": 260,
      "es": 261,
      "Ġc": 262,
      "Ġw": 263,
      "ar": 264,
      "ed": 265,
      "ion": 266,
      "Ġf": 267,
      "Ġof": 268,
      "Ġp": 269,
      "nd": 270,
      "Ġin": 271,
      "Ġb": 272,
      "ing": 273,
      "ic": 274,
      "le": 275,
      "ro": 276,
      "as": 277,
      "Ġand": 278,
      "Ġm": 279,
      "Ġd": 280,
      "Ġto": 281,
      "ct": 282,
      "ou": 283,
      "ent": 284,
      "et": 285,
      "Ġ\\": 286,
      "el": 287,
      "st": 288,
      "Ġth": 289,
      "il": 290,
      "Ġh": 291,
      "Ġ$": 292,
      "om": 293,
      "Ġre": 294,
      "am": 295,
      "ig": 296,
      "Ġn": 297,
      "ation": 298,
      "Ġe": 299,
      "ol": 300,
      "ĠĠĠ": 301,
      "im": 302,
      "ĠS": 303,
      "ac": 304,
      "ĠT": 305,
      "Ġl": 306,
      "ot": 307,
      "ĠĠĠĠĠĠĠĠ": 308,
      "id": 309,
      "Ġ(": 310,
      "Ġis": 311,
      "ĠC": 312,
      "ĠA": 313,
      "ut": 314,
      "ur": 315,
      "iv": 316,
      "âĢ": 317,
      "se": 318,
      "Ġfor": 319,
      "Ġg": 320,
      "ad": 321,
      "ly": 322,
      "ow": 323,
      "ĠI": 324,
      "{\\": 325,
      "ul": 326,
      "ce": 327,
      "Ġon": 328,
      "Ġbe": 329,
      "ĠM": 330,
      "ay": 331,
      "Ġst": 332,
      "ch": 333,
      "em": 334,
      "Ġthat": 335,
      "ver": 336,
      "ab": 337,
      "ith": 338,
      "us": 339,
      "um": 340,
      "qu": 341,
      "un": 342,
      "if": 343,
      "ir": 344,
      "od": 345,
      "ter": 346,
      "Ġas": 347,
      "ĠP": 348,
      "ĠB": 349,
      "Ġcon": 350,
      "ag": 351,
      "20": 352,
      "Ġwith": 353,
      "ap": 354,
      "th": 355,
      "ve": 356,
      "ist": 357,
      "ers": 358,
      "ĠH": 359,
      "ate": 360,
      "end": 361,
      "Ġal": 362,
      "Ġpro": 363,
      "her": 364,
      "Ġan": 365,
      "_{": 366,
      "ction": 367,
      "ĠF": 368,
      "Ġ=": 369,
      "Ġv": 370,
      "ĠThe": 371,
      "ĠR": 372,
      "pe": 373,
      "ĠD": 374,
      "and": 375,
      "ri": 376,
      "Ġwe": 377,
      "ht": 378,
      "res": 379,
      "ath": 380,
      "eg": 381,
      "ĠL": 382,
      "Ġwh": 383,
      "est": 384,
      "ain": 385,
      "Ġby": 386,
      "ĠW": 387,
      "ity": 388,
      "čĊ": 389,
      "op": 390,
      "oc": 391,
      "os": 392,
      "ĠĠĠĠĠĠĠ": 393,
      "Ġwas": 394,
      "up": 395,
      "Ġit": 396,
      "Ġ$\\": 397,
      "ĠN": 398,
      "ex": 399,
      "19": 400,
      "Ġex": 401,
      "Ġat": 402,
      "Ġcom": 403,
      "Ġde": 404,
      "ĠG": 405,
      "rom": 406,
      "ĠE": 407,
      "Ġr": 408,
      "ew": 409,
      "ore": 410,
      "ub": 411,
      "art": 412,
      "Ġare": 413,
      "ess": 414,
      "ĠĊ": 415,
      "ight": 416,
      "ill": 417,
      "ure": 418,
      "Ġ&": 419,
      "ies": 420,
      "nt": 421,
      "math": 422,
      "Ġor": 423,
      "ort": 424,
      "ĉĉ": 425,
      "pl": 426,
      "ment": 427,
      "Ġhe": 428,
      "ial": 429,
      "Ġfrom": 430,
      "ant": 431,
      "ak": 432,
      "Ġse": 433,
      "âĢĻ": 434,
      "ive": 435,
      "pt": 436,
      "ine": 437,
      "all": 438,
      "ld": 439,
      "ud": 440,
      "}\\": 441,
      "ge": 442,
      ");": 443,
      "Ġy": 444,
      "Ġ{": 445,
      "ĠJ": 446,
      "ite": 447,
      "our": 448,
      "}$": 449,
      "ass": 450,
      "Ġthis": 451,
      "^{": 452,
      "ra": 453,
      "ĠO": 454,
      "ame": 455,
      "--": 456,
      "ue": 457,
      "iz": 458,
      "The": 459,
      "ere": 460,
      "ref": 461,
      "ph": 462,
      "ber": 463,
      "og": 464,
      "ect": 465,
      "ave": 466,
      "ich": 467,
      "ult": 468,
      "Ġ\"": 469,
      "Ġch": 470,
      "Ġnot": 471,
      "cl": 472,
      "Ġsh": 473,
      "und": 474,
      "per": 475,
      "ĠU": 476,
      "ext": 477,
      "ĠâĢ": 478,
      "ell": 479,
      "ical": 480,
      "ated": 481,
      "Ġ<": 482,
      "ust": 483,
      "ard": 484,
      "//": 485,
      "ff": 486,
      "00": 487,
      "ack": 488,
      "ran": 489,
      "ary": 490,
      "ma": 491,
      "Ġcl": 492,
      "Ġle": 493,
      "age": 494,
      "Ġ*": 495,
      "orm": 496,
      "are": 497,
      "}}": 498,
      "ip": 499,
      "ition": 500,
      "ft": 501,
      "ĠĠĠĠĠĠĠĠĠĠĠ": 502,
      "(\\": 503,
      "port": 504,
      "'s": 505,
      "fr": 506,
      "ta": 507,
      "Ġk": 508,
      "ign": 509,
      "Ġcomp": 510,
      "201": 511,
      "Ġhave": 512,
      "=\"": 513,
      "con": 514,
      "Ġres": 515,
      "ost": 516,
      "ian": 517,
      "able": 518,
      "ast": 519,
      "int": 520,
      "egin": 521,
      "ĠIn": 522,
      "ĠK": 523,
      "Ġint": 524,
      "),": 525,
      "ug": 526,
      "begin": 527,
      "ations": 528,
      "Ġ}": 529,
      "ong": 530,
      "ep": 531,
      "ace": 532,
      "Ġpl": 533,
      "ef": 534,
      "ia": 535,
      "ire": 536,
      "ens": 537,
      "pro": 538,
      "Ġwhich": 539,
      "cal": 540,
      "ork": 541,
      "Ġcan": 542,
      "ord": 543,
      "ime": 544,
      "av": 545,
      "out": 546,
      "_{\\": 547,
      "ĠSt": 548,
      "Ġwhe": 549,
      "cc": 550,
      ").": 551,
      ")$": 552,
      "Ġhas": 553,
      "ear": 554,
      "ther": 555,
      "Ġ-": 556,
      "ase": 557,
      "Ġcont": 558,
      "urn": 559,
      "ould": 560,
      "Ġab": 561,
      "Ġus": 562,
      "..": 563,
      "ide": 564,
      "Ġall": 565,
      "ions": 566,
      "ind": 567,
      "</": 568,
      "Ġun": 569,
      "so": 570,
      "ib": 571,
      "act": 572,
      "}{": 573,
      "du": 574,
      "equ": 575,
      "Ġim": 576,
      "ice": 577,
      "ous": 578,
      "ok": 579,
      "ĠV": 580,
      "Ġhis": 581,
      "ry": 582,
      "com": 583,
      "Ġap": 584,
      "ild": 585,
      "Ġj": 586,
      "Ġif": 587,
      "Ġad": 588,
      "ov": 589,
      "rm": 590,
      "In": 591,
      "ence": 592,
      "frac": 593,
      "},": 594,
      "text": 595,
      "ach": 596,
      "ang": 597,
      "eq": 598,
      "use": 599,
      "ĠĠĠĠĠĠĠĠĠĠĠĠĠĠĠĠ": 600,
      "form": 601,
      "right": 602,
      "ener": 603,
      "ĠĠĠĠĠ": 604,
      "ile": 605,
      "ĠTh": 606,
      "ru": 607,
      "erv": 608,
      "abel": 609,
      "cite": 610,
      "the": 611,
      "ents": 612,
      "200": 613,
      "ory": 614,
      "over": 615,
      "Ġone": 616,
      "ĠCh": 617,
      "ount": 618,
      "âĢĿ": 619,
      "ance": 620,
      "Ġalso": 621,
      "Ġpart": 622,
      "oll": 623,
      "ec": 624,
      "Ġar": 625,
      "ik": 626,
      "Ġsu": 627,
      "**": 628,
      "row": 629,
      "ces": 630,
      "erm": 631,
      "ome": 632,
      "eta": 633,
      "Ġdis": 634,
      "Ġwere": 635,
      "ress": 636,
      "ally": 637,
      "10": 638,
      "ound": 639,
      "Ġme": 640,
      "ose": 641,
      "Ġtr": 642,
      "own": 643,
      "ely": 644,
      "unction": 645,
      "ject": 646,
      "Ġwill": 647,
      "Ġtheir": 648,
      "mer": 649,
      "ates": 650,
      "irst": 651,
      "ors": 652,
      "Ġbut": 653,
      "ish": 654,
      "turn": 655,
      "old": 656,
      "rib": 657,
      "ey": 658,
      "label": 659,
      "ict": 660,
      "ubl": 661,
      "sp": 662,
      "ree": 663,
      "mathb": 664,
      "ob": 665,
      "Ġyou": 666,
      "wo": 667,
      "ode": 668,
      "ring": 669,
      "ata": 670,
      "Ġsp": 671,
      "clud": 672,
      "fig": 673,
      ",\\": 674,
      "$,": 675,
      "Ġ+": 676,
      "Ġout": 677,
      "ie": 678,
      "$.": 679,
      "ype": 680,
      "tern": 681,
      "get": 682,
      "Ġev": 683,
      "ark": 684,
      "rans": 685,
      "ple": 686,
      "equation": 687,
      "Ġqu": 688,
      "Ġdo": 689,
      "Ġper": 690,
      "ps": 691,
      "Ġob": 692,
      "pect": 693,
      "Ġnew": 694,
      "18": 695,
      "Ġen": 696,
      "rit": 697,
      "ll": 698,
      "Ġits": 699,
      "St": 700,
      "Ġmod": 701,
      "we": 702,
      "Ġother": 703,
      "mathcal": 704,
      "red": 705,
      "Ġ|": 706,
      "left": 707,
      "ics": 708,
      "})": 709,
      "\">": 710,
      "ĠâĢľ": 711,
      "Ġthey": 712,
      "Ġ'": 713,
      "}.": 714,
      "Ġmore": 715,
      "Ġup": 716,
      "vel": 717,
      "Ġwho": 718,
      "rap": 719,
      "ert": 720,
      "iff": 721,
      "one": 722,
      "Ġman": 723,
      "Ġclass": 724,
      "Ġro": 725,
      "sum": 726,
      "}(": 727,
      "Ġwork": 728,
      "ĠY": 729,
      "te": 730,
      "Ġbeen": 731,
      "Ġfirst": 732,
      "iel": 733,
      "ĠIt": 734,
      "Ġag": 735,
      "hed": 736,
      "oint": 737,
      "Ġtwo": 738,
      "----": 739,
      "Ġhad": 740,
      "amb": 741,
      "()": 742,
      "ĠUn": 743,
      "Ġover": 744,
      "Ġsc": 745,
      "Ġdef": 746,
      "}^": 747,
      "yst": 748,
      "ake": 749,
      "==": 750,
      "ational": 751,
      "Ġtime": 752,
      "ray": 753,
      "~\\": 754,
      "Ġset": 755,
      "Ġval": 756,
      "ĠHe": 757,
      "}_": 758,
      "line": 759,
      "Ġso": 760,
      "Ġyear": 761,
      "Ġfunction": 762,
      "lect": 763,
      "ock": 764,
      "pon": 765,
      "ss": 766,
      "aw": 767,
      "ular": 768,
      "ook": 769,
      "ublic": 770,
      "mb": 771,
      "imes": 772,
      "ield": 773,
      "Ġne": 774,
      "ution": 775,
      "cent": 776,
      "pha": 777,
      "ng": 778,
      "Ġind": 779,
      "ink": 780,
      "fter": 781,
      "ize": 782,
      "da": 783,
      "set": 784,
      "ari": 785,
      "Ġ[": 786,
      "pos": 787,
      "very": 788,
      "alpha": 789,
      "sc": 790,
      "eth": 791,
      "Ġreturn": 792,
      "Ġthere": 793,
      "aram": 794,
      "ool": 795,
      "pec": 796,
      "Ġte": 797,
      "Ġund": 798,
      "ual": 799,
      "ied": 800,
      "ater": 801,
      "Ġdes": 802,
      "ystem": 803,
      "ings": 804,
      ")\\": 805,
      "iss": 806,
      "ick": 807,
      "Ġgo": 808,
      "Ġabout": 809,
      "ix": 810,
      "Ġrel": 811,
      "umber": 812,
      "igh": 813,
      "Ġwhen": 814,
      "ail": 815,
      "Ġpe": 816,
      "ced": 817,
      "to": 818,
      "vi": 819,
      "12": 820,
      "Ġthan": 821,
      "ollow": 822,
      "ative": 823,
      "Ġcomm": 824,
      "Ġoff": 825,
      "Ġpre": 826,
      "of": 827,
      "les": 828,
      "Ġacc": 829,
      "Ġbet": 830,
      "Ġsub": 831,
      "Ġdiff": 832,
      "Ġour": 833,
      "$\\": 834,
      "Ġreg": 835,
      "ople": 836,
      "eren": 837,
      "ĠĠĠĠĠĠĠĠĠĠĠĠĠĠĠ": 838,
      "Ġpr": 839,
      "Ġany": 840,
      "Ġsup": 841,
      "ans": 842,
      "ambda": 843,
      "ays": 844,
      "elta": 845,
      "Ġwhere": 846,
      "elf": 847,
      "Ġonly": 848,
      "ugh": 849,
      "ne": 850,
      "Ġher": 851,
      "ram": 852,
      "sh": 853,
      "raph": 854,
      "ull": 855,
      "Ġsuch": 856,
      "ax": 857,
      "ont": 858,
      "Ġinto": 859,
      "Ġcons": 860,
      "ove": 861,
      "hat": 862,
      "roup": 863,
      "ck": 864,
      "ific": 865,
      "Ġwould": 866,
      "Ġconst": 867,
      "ient": 868,
      "ho": 869,
      "ĠWe": 870,
      "ities": 871,
      "inal": 872,
      "ased": 873,
      "put": 874,
      "oug": 875,
      "Ġresult": 876,
      "Ġsome": 877,
      "Ġform": 878,
      "199": 879,
      "ys": 880,
      "ĠThis": 881,
      "Ġ//": 882,
      "amma": 883,
      "cre": 884,
      "Ġfollow": 885,
      "ĠâĢĵ": 886,
      "_\\": 887,
      "orn": 888,
      "Ġkn": 889,
      "ption": 890,
      "pr": 891,
      "Ġunder": 892,
      "round": 893,
      "resent": 894,
      "oth": 895,
      "Ġinclud": 896,
      "ade": 897,
      "Ġpos": 898,
      "ating": 899,
      "ike": 900,
      "sub": 901,
      "mu": 902,
      "ident": 903,
      "olog": 904,
      "ise": 905,
      "Ġtrans": 906,
      "ons": 907,
      "igma": 908,
      "Ġinter": 909,
      "Ġplay": 910,
      "Ġ\\\\": 911,
      "ited": 912,
      "ember": 913,
      "aid": 914,
      "dot": 915,
      "=\\": 916,
      "Ġthen": 917,
      "dition": 918,
      "ty": 919,
      "Ġdist": 920,
      "ween": 921,
      "Ġmodel": 922,
      "\",": 923,
      "15": 924,
      "ince": 925,
      "val": 926,
      "Ġact": 927,
      "Ġgener": 928,
      "}_{": 929,
      "ility": 930,
      "}^{": 931,
      "ox": 932,
      "ward": 933,
      "app": 934,
      "Ġpol": 935,
      "Ġph": 936,
      "Ġfl": 937,
      "ivers": 938,
      "der": 939,
      "ega": 940,
      "oy": 941,
      "Ġno": 942,
      "mathbb": 943,
      "Ġatt": 944,
      "Ġprov": 945,
      "ues": 946,
      "arg": 947,
      "ĠCom": 948,
      "ruct": 949,
      "Ġpeople": 950,
      "16": 951,
      "Ġsim": 952,
      "Ġrec": 953,
      "âĢĵ": 954,
      "Ġ@": 955,
      "-\\": 956,
      "Ex": 957,
      "Ġthem": 958,
      "io": 959,
      "Ġget": 960,
      "Ġ/": 961,
      "ĠSe": 962,
      "->": 963,
      "Ġshow": 964,
      "lem": 965,
      "Ġthese": 966,
      "land": 967,
      "meric": 968,
      "ments": 969,
      "Ġbetween": 970,
      "^{\\": 971,
      "Ġstud": 972,
      "Ġcol": 973,
      "phi": 974,
      "ures": 975,
      "its": 976,
      "Ġco": 977,
      "::": 978,
      "ement": 979,
      "21": 980,
      "Ġ{\\": 981,
      "Ġinv": 982,
      "ann": 983,
      "li": 984,
      "ered": 985,
      "arch": 986,
      "uring": 987,
      "orld": 988,
      "ible": 989,
      "ĉĉĉĉ": 990,
      "tt": 991,
      "ined": 992,
      "err": 993,
      "Ġbec": 994,
      "lambda": 995,
      "Ġshe": 996,
      "ren": 997,
      "Ġequ": 998,
      "Ġ||": 999,
      "Ġafter": 1000,
      "als": 1001,
      "ator": 1002,
      "rough": 1003,
      "11": 1004,
      "ev": 1005,
      "Ġcor": 1006,
      "part": 1007,
      "Ġass": 1008,
      "Ġop": 1009,
      "ause": 1010,
      "Ġloc": 1011,
      "Ġpublic": 1012,
      "Ġmay": 1013,
      "pi": 1014,
      "Ġdata": 1015,
      "bf": 1016,
      "Ġmost": 1017,
      "eng": 1018,
      "ange": 1019,
      "ĠNew": 1020,
      "Ġ.": 1021,
      "ars": 1022,
      "Ġfe": 1023,
      "ource": 1024,
      "tain": 1025,
      "che": 1026,
      "let": 1027,
      "ily": 1028,
      "Ġeff": 1029,
      "Ġuse": 1030,
      "ric": 1031,
      "ower": 1032,
      "section": 1033,
      "idth": 1034,
      "Ġsystem": 1035,
      "Ġrem": 1036,
      "We": 1037,
      "cy": 1038,
      "ral": 1039,
      "17": 1040,
      "ature": 1041,
      "ists": 1042,
      "Ġbl": 1043,
      "irect": 1044,
      "ĠPro": 1045,
      "ĠAr": 1046,
      "Ġused": 1047,
      "Ġgiv": 1048,
      "Ġprodu": 1049,
      "ism": 1050,
      "Ġfil": 1051,
      "Th": 1052,
      "Ġsaid": 1053,
      "Ġeach": 1054,
      "Ġmat": 1055,
      "fl": 1056,
      "Ġend": 1057,
      "wn": 1058,
      "Ġinst": 1059,
      "ute": 1060,
      "Ġext": 1061,
      "ilon": 1062,
      "bar": 1063,
      "reat": 1064,
      "yn": 1065,
      "cond": 1066,
      "Ġcase": 1067,
      "Ġpoint": 1068,
      "Ġnumber": 1069,
      "Ġi": 1070,
      "Ġspec": 1071,
      "Ġam": 1072,
      "13": 1073,
      "Ġbu": 1074,
      "air": 1075,
      "abl": 1076,
      "itt": 1077,
      "Ġ:": 1078,
      "amp": 1079,
      "mathbf": 1080,
      "ethod": 1081,
      "Ġent": 1082,
      "oot": 1083,
      "vers": 1084,
      "Ġthrough": 1085,
      "align": 1086,
      "sigma": 1087,
      "cess": 1088,
      "min": 1089,
      "Ġcur": 1090,
      "arn": 1091,
      "ized": 1092,
      "tr": 1093,
      "ract": 1094,
      "erent": 1095,
      "Ġwell": 1096,
      "Ġprob": 1097,
      "ton": 1098,
      "ctions": 1099,
      "uss": 1100,
      "ough": 1101,
      "ever": 1102,
      "ĠAl": 1103,
      "plic": 1104,
      "ĠAmeric": 1105,
      "Ġyears": 1106,
      "Ġhow": 1107,
      "chool": 1108,
      "ines": 1109,
      "Ġref": 1110,
      "Ġ(\\": 1111,
      "any": 1112,
      "14": 1113,
      "ames": 1114,
      "oci": 1115,
      "Ġrequ": 1116,
      "Ġest": 1117,
      "ĠFor": 1118,
      "ision": 1119,
      "Ġname": 1120,
      "ices": 1121,
      "Ġsm": 1122,
      "beta": 1123,
      "Ġcall": 1124,
      "^{-": 1125,
      "',": 1126,
      "}{\\": 1127,
      "ym": 1128,
      "ash": 1129,
      "ote": 1130,
      "ts": 1131,
      "def": 1132,
      "gy": 1133,
      "rent": 1134,
      "198": 1135,
      "uch": 1136,
      "ilde": 1137,
      "ern": 1138,
      "Ġwhat": 1139,
      "Ġappro": 1140,
      "Ġstr": 1141,
      "Ġem": 1142,
      "Con": 1143,
      "atic": 1144,
      "(\"": 1145,
      "Ġline": 1146,
      "Ġback": 1147,
      "Ġserv": 1148,
      "gan": 1149,
      "();": 1150,
      "Ġstate": 1151,
      "eps": 1152,
      "25": 1153,
      "Ġlike": 1154,
      "Ġdifferent": 1155,
      "Ġ</": 1156,
      "Ġx": 1157,
      "uth": 1158,
      "ization": 1159,
      "Ġsame": 1160,
      "oun": 1161,
      "Ġsol": 1162,
      "Pro": 1163,
      "Ġrep": 1164,
      "Ġsign": 1165,
      "ife": 1166,
      ".,": 1167,
      "hen": 1168,
      "velop": 1169,
      "Ġjust": 1170,
      "hip": 1171,
      "))": 1172,
      "apt": 1173,
      "oid": 1174,
      "item": 1175,
      "array": 1176,
      "col": 1177,
      "Ġpartic": 1178,
      "Ġvalue": 1179,
      "Ġ*/": 1180,
      "gamma": 1181,
      "Ġed": 1182,
      "iversity": 1183,
      "ĠAs": 1184,
      "str": 1185,
      "30": 1186,
      "ason": 1187,
      "+\\": 1188,
      "ank": 1189,
      "Ġac": 1190,
      "overn": 1191,
      "ĠQ": 1192,
      "ond": 1193,
      "ically": 1194,
      "for": 1195,
      "Ġmon": 1196,
      "ins": 1197,
      "var": 1198,
      "ished": 1199,
      "Ġoper": 1200,
      "Ġvari": 1201,
      "Ġagain": 1202,
      "here": 1203,
      "ider": 1204,
      "22": 1205,
      "ER": 1206,
      "mathrm": 1207,
      "Ġcount": 1208,
      "ample": 1209,
      "rad": 1210,
      "\\\\": 1211,
      "Ġsur": 1212,
      "Ġexp": 1213,
      "Ġdec": 1214,
      "ĠZ": 1215,
      "ĠDe": 1216,
      "Ġcent": 1217,
      "*}": 1218,
      "Ġhim": 1219,
      "Ġsee": 1220,
      "ful": 1221,
      "oh": 1222,
      "Ġgroup": 1223,
      "--------": 1224,
      "Ġmany": 1225,
      "Ġboth": 1226,
      "rho": 1227,
      "other": 1228,
      "Ġneed": 1229,
      "^\\": 1230,
      "aramet": 1231,
      "Ġchar": 1232,
      "Ġfound": 1233,
      "Ġfield": 1234,
      "ood": 1235,
      "ages": 1236,
      "Ġcre": 1237,
      "Ġnon": 1238,
      "Ġhigh": 1239,
      "Ġfact": 1240,
      "uc": 1241,
      "delta": 1242,
      "****": 1243,
      "par": 1244,
      "Ġterm": 1245,
      "Ġlead": 1246,
      "erson": 1247,
      "Ġcould": 1248,
      "Ġser": 1249,
      "Ġmin": 1250,
      ")}": 1251,
      "Ġright": 1252,
      "Ġdisc": 1253,
      "formation": 1254,
      "000": 1255,
      "]{": 1256,
      "__": 1257,
      "ten": 1258,
      "Ġele": 1259,
      "Ġthree": 1260,
      "vent": 1261,
      "man": 1262,
      "Ġbeing": 1263,
      "Ġdet": 1264,
      "ead": 1265,
      "theta": 1266,
      "this": 1267,
      "leq": 1268,
      "ĠAn": 1269,
      "son": 1270,
      "Ġfin": 1271,
      "$-": 1272,
      "Ġbecause": 1273,
      "figure": 1274,
      "tau": 1275,
      "vert": 1276,
      "read": 1277,
      "cdot": 1278,
      "ier": 1279,
      "Ġusing": 1280,
      "erences": 1281,
      "ah": 1282,
      "ee": 1283,
      "Ġgiven": 1284,
      "197": 1285,
      "Ġel": 1286,
      "iver": 1287,
      "ases": 1288,
      ".âĢĿ": 1289,
      "ional": 1290,
      "Ġnow": 1291,
      "Ġlong": 1292,
      "att": 1293,
      "Ġfam": 1294,
      "ĉĉĉ": 1295,
      "ĠĠĠĠĠĠĠĠĠ": 1296,
      "ask": 1297,
      "ner": 1298,
      "Ġwhile": 1299,
      "ml": 1300,
      "ĠCon": 1301,
      "}$,": 1302,
      "Ref": 1303,
      "ĠInd": 1304,
      "aking": 1305,
      "}$.": 1306,
      "Ġadd": 1307,
      "Ġevery": 1308,
      "fore": 1309,
      "Ġmy": 1310,
      "Ġbel": 1311,
      "ĠX": 1312,
      "nu": 1313,
      "50": 1314,
      "IN": 1315,
      "Ġfollowing": 1316,
      "view": 1317,
      "Ġshould": 1318,
      "orth": 1319,
      "big": 1320,
      "ron": 1321,
      "arrow": 1322,
      "irc": 1323,
      "Ġexper": 1324,
      "ants": 1325,
      "ĠSh": 1326,
      "Ġmade": 1327,
      "}(\\": 1328,
      "ired": 1329,
      "Ġsecond": 1330,
      "ript": 1331,
      "Ġorder": 1332,
      "Ġstart": 1333,
      "yle": 1334,
      "arly": 1335,
      "ĠCl": 1336,
      "ON": 1337,
      "://": 1338,
      "Ġart": 1339,
      "ross": 1340,
      "partial": 1341,
      "../": 1342,
      "Ġsing": 1343,
      "Ġperform": 1344,
      "ural": 1345,
      "width": 1346,
      "times": 1347,
      "ively": 1348,
      "ather": 1349,
      "Ġdevelop": 1350,
      "az": 1351,
      "Ġvery": 1352,
      "Ġdesc": 1353,
      "ology": 1354,
      "ential": 1355,
      "serv": 1356,
      "yp": 1357,
      "Ġduring": 1358,
      "ĠĠĠĠĠĠĠĠĠĠĠĠĠĠĠĠĠĠĠ": 1359,
      "ms": 1360,
      "Ġeffect": 1361,
      "Ch": 1362,
      "ouse": 1363,
      "aj": 1364,
      "('": 1365,
      "ality": 1366,
      "oad": 1367,
      "way": 1368,
      "ery": 1369,
      "Ġtype": 1370,
      "Ġdirect": 1371,
      "alth": 1372,
      "gram": 1373,
      "It": 1374,
      "sec": 1375,
      "eb": 1376,
      "ST": 1377,
      "omega": 1378,
      "eqref": 1379,
      "pm": 1380,
      "Ġ`": 1381,
      "ering": 1382,
      "work": 1383,
      "ared": 1384,
      "Ġeven": 1385,
      "Ġcontin": 1386,
      "Ġbefore": 1387,
      "ĠUniversity": 1388,
      "Ġknow": 1389,
      "Cl": 1390,
      "Ġthose": 1391,
      "Ġsupport": 1392,
      "cept": 1393,
      "ived": 1394,
      "erence": 1395,
      "essage": 1396,
      "ument": 1397,
      "====": 1398,
      "Ġz": 1399,
      "Ġmethod": 1400,
      "ulation": 1401,
      "outh": 1402,
      "24": 1403,
      "Ġmed": 1404,
      "ains": 1405,
      "Ġsmall": 1406,
      "ury": 1407,
      "Name": 1408,
      "ball": 1409,
      "ots": 1410,
      "ives": 1411,
      "led": 1412,
      "ency": 1413,
      "ets": 1414,
      "Ġtest": 1415,
      "ters": 1416,
      "quad": 1417,
      "ĠAnd": 1418,
      "ience": 1419,
      "ability": 1420,
      "Ġdoes": 1421,
      "ele": 1422,
      "Ġvi": 1423,
      "ength": 1424,
      "Ġdr": 1425,
      "tilde": 1426,
      "eqn": 1427,
      "ission": 1428,
      "sy": 1429,
      "Ġdid": 1430,
      "bers": 1431,
      "ole": 1432,
      "fty": 1433,
      "ting": 1434,
      "ified": 1435,
      "ek": 1436,
      "Ġown": 1437,
      "arge": 1438,
      "ache": 1439,
      "by": 1440,
      "ternal": 1441,
      "not": 1442,
      "atch": 1443,
      "infty": 1444,
      "Ġerr": 1445,
      "ale": 1446,
      "ved": 1447,
      "Ġprocess": 1448,
      "rid": 1449,
      "Ġsince": 1450,
      "ĠCol": 1451,
      "Ġmake": 1452,
      "Ġworld": 1453,
      "ĠAmerican": 1454,
      "Ġway": 1455,
      "Ġmov": 1456,
      "|\\": 1457,
      "196": 1458,
      "chn": 1459,
      "Delta": 1460,
      "Com": 1461,
      "rang": 1462,
      "ĠSc": 1463,
      "pend": 1464,
      "div": 1465,
      "Ġyour": 1466,
      "me": 1467,
      "Ġvar": 1468,
      "Ġwrit": 1469,
      "Ġmain": 1470,
      "span": 1471,
      "ually": 1472,
      "return": 1473,
      "Ġproper": 1474,
      "23": 1475,
      "alse": 1476,
      "ĠIs": 1477,
      "Ġself": 1478,
      "aining": 1479,
      "space": 1480,
      "ĠAd": 1481,
      "day": 1482,
      "AT": 1483,
      "Ġfind": 1484,
      "rt": 1485,
      "ctor": 1486,
      "ĠUnited": 1487,
      "umn": 1488,
      "Ġhel": 1489,
      "back": 1490,
      "pond": 1491,
      "Ġrele": 1492,
      "rop": 1493,
      "RE": 1494,
      "Ġ_": 1495,
      "Ġgu": 1496,
      "ribut": 1497,
      "Ġ#": 1498,
      "ense": 1499,
      "Ġresults": 1500,
      "Ġcommun": 1501,
      "ness": 1502,
      "For": 1503,
      "Ġgovern": 1504,
      "omen": 1505,
      "includ": 1506,
      "ital": 1507,
      ".\"": 1508,
      "Ġimport": 1509,
      "ĠEx": 1510,
      "This": 1511,
      "Type": 1512,
      "Ġmem": 1513,
      "\\,": 1514,
      "anc": 1515,
      "âĢľ": 1516,
      "mod": 1517,
      "ule": 1518,
      "Ġlast": 1519,
      "iqu": 1520,
      "Ġpop": 1521,
      "Ġincre": 1522,
      "Ġanal": 1523,
      "Ġincluding": 1524,
      "pre": 1525,
      "Ġteam": 1526,
      "Ġpresent": 1527,
      "ault": 1528,
      "istory": 1529,
      "Ġopt": 1530,
      "Ġposs": 1531,
      "ina": 1532,
      "log": 1533,
      "Ġpres": 1534,
      "ĠComm": 1535,
      "af": 1536,
      "param": 1537,
      "ID": 1538,
      "name": 1539,
      "Ġstat": 1540,
      "where": 1541,
      "ccess": 1542,
      "ning": 1543,
      "Ġparamet": 1544,
      "40": 1545,
      "Ġobtain": 1546,
      "Ġread": 1547,
      "els": 1548,
      "></": 1549,
      "ody": 1550,
      "Ġrepresent": 1551,
      ",âĢĿ": 1552,
      "Ġappe": 1553,
      "rix": 1554,
      "ify": 1555,
      "ĠHow": 1556,
      "ĠLe": 1557,
      "ww": 1558,
      "xi": 1559,
      "ott": 1560,
      "Ġhand": 1561,
      "References": 1562,
      "ven": 1563,
      "agn": 1564,
      "Ġproblem": 1565,
      "Ġbro": 1566,
      "Ġmeas": 1567,
      "iness": 1568,
      "ffic": 1569,
      "ior": 1570,
      "rel": 1571,
      "energy": 1572,
      "usic": 1573,
      "Ġlaw": 1574,
      "Ġrun": 1575,
      "Ġ!": 1576,
      "Ġcurrent": 1577,
      "ohn": 1578,
      "As": 1579,
      "Ġmuch": 1580,
      "AR": 1581,
      "vious": 1582,
      "Ġmet": 1583,
      "ration": 1584,
      "Ġschool": 1585,
      "au": 1586,
      "med": 1587,
      "Ġ$(": 1588,
      "Ġchild": 1589,
      "lex": 1590,
      "ĠIf": 1591,
      "Ġmass": 1592,
      "Ġlist": 1593,
      "Ġsl": 1594,
      "come": 1595,
      "sq": 1596,
      "alk": 1597,
      "Ġcondition": 1598,
      "$$": 1599,
      "co": 1600,
      ")$.": 1601,
      "ception": 1602,
      "}[": 1603,
      "ĠĠĊ": 1604,
      "Ġstruct": 1605,
      "Ġorig": 1606,
      "mbol": 1607,
      "Ġbound": 1608,
      "type": 1609,
      "32": 1610,
      "ĠShe": 1611,
      "erest": 1612,
      "Ġinformation": 1613,
      "Ġprovid": 1614,
      "por": 1615,
      "ply": 1616,
      "Ġfour": 1617,
      "Res": 1618,
      "...": 1619,
      "orem": 1620,
      "Ġagainst": 1621,
      "To": 1622,
      "}}\\": 1623,
      "bl": 1624,
      "'t": 1625,
      "Ġlocal": 1626,
      "ĠRe": 1627,
      "Ġreal": 1628,
      "Ġ>": 1629,
      "Ġrespect": 1630,
      "ane": 1631,
      "ious": 1632,
      "Ġlim": 1633,
      "Ġbuild": 1634,
      "Ġreport": 1635,
      "iving": 1636,
      "Ġtop": 1637,
      "ety": 1638,
      "etwork": 1639,
      "til": 1640,
      "import": 1641,
      "ober": 1642,
      "add": 1643,
      "Ġcour": 1644,
      "ĠPh": 1645,
      "Ġmult": 1646,
      "gor": 1647,
      "Ġobject": 1648,
      "Ġ)": 1649,
      "Ġelect": 1650,
      "ĠOn": 1651,
      "ĠEng": 1652,
      "ained": 1653,
      "epend": 1654,
      "Ġrecord": 1655,
      "Ġlarge": 1656,
      "epsilon": 1657,
      "Ġallow": 1658,
      "String": 1659,
      "ĠSp": 1660,
      "uro": 1661,
      "arent": 1662,
      "eqnarray": 1663,
      "><": 1664,
      "Ġtrue": 1665,
      "Ġgl": 1666,
      "Ġexpl": 1667,
      "ribution": 1668,
      "sim": 1669,
      "ivate": 1670,
      "Ġperson": 1671,
      "raw": 1672,
      "rol": 1673,
      "self": 1674,
      "Ġlife": 1675,
      "Ġknown": 1676,
      "Om": 1677,
      "olution": 1678,
      "Ġprogram": 1679,
      "ves": 1680,
      "lang": 1681,
      "ser": 1682,
      "illion": 1683,
      "Ġcar": 1684,
      "Id": 1685,
      "less": 1686,
      "):": 1687,
      "Ġopen": 1688,
      "Ġlink": 1689,
      "uthor": 1690,
      "enn": 1691,
      "100": 1692,
      "Ġspace": 1693,
      "Ph": 1694,
      "Val": 1695,
      "ger": 1696,
      "Ġpass": 1697,
      "met": 1698,
      "itive": 1699,
      "Ġav": 1700,
      "akes": 1701,
      "}_{\\": 1702,
      "cur": 1703,
      "psi": 1704,
      "ĠBl": 1705,
      "usiness": 1706,
      "urther": 1707,
      "Ã©": 1708,
      "Ġbased": 1709,
      "Ġprof": 1710,
      "aces": 1711,
      "htt": 1712,
      "ĠStates": 1713,
      "2020": 1714,
      "Ġexpect": 1715,
      "esc": 1716,
      "ream": 1717,
      "Ġmust": 1718,
      "Omega": 1719,
      "SS": 1720,
      "Ġgeneral": 1721,
      "Ġcharact": 1722,
      "Ġdescrib": 1723,
      "Ġhelp": 1724,
      "Ġstill": 1725,
      "ially": 1726,
      "oss": 1727,
      "Ġstand": 1728,
      "Ġfinal": 1729,
      "inc": 1730,
      "ival": 1731,
      "class": 1732,
      "26": 1733,
      "27": 1734,
      "2021": 1735,
      "Ġpower": 1736,
      "umer": 1737,
      "OR": 1738,
      "Ar": 1739,
      "arm": 1740,
      "respond": 1741,
      "Ġobserv": 1742,
      "Ġaround": 1743,
      "Ġconsider": 1744,
      "ĠTr": 1745,
      "ately": 1746,
      "Ġhere": 1747,
      "ĠFig": 1748,
      "Ġenergy": 1749,
      "ised": 1750,
      "Ġident": 1751,
      "ĠâĢĶ": 1752,
      "Ġinit": 1753,
      "arget": 1754,
      "comm": 1755,
      "ected": 1756,
      "^*": 1757,
      "opt": 1758,
      "Ġmark": 1759,
      "position": 1760,
      "Ġtake": 1761,
      "new": 1762,
      "face": 1763,
      "Ġcare": 1764,
      "ternational": 1765,
      "requ": 1766,
      "Ġgood": 1767,
      "Ġdown": 1768,
      "ister": 1769,
      "ĠMar": 1770,
      "Ġfamily": 1771,
      "AL": 1772,
      "Ġlevel": 1773,
      "ley": 1774,
      "28": 1775,
      "lection": 1776,
      "Ġrece": 1777,
      "une": 1778,
      "ries": 1779,
      "dd": 1780,
      "acy": 1781,
      "Ġinterest": 1782,
      "Ġche": 1783,
      "org": 1784,
      "ograph": 1785,
      "Ġgr": 1786,
      "rem": 1787,
      "play": 1788,
      "Ġvis": 1789,
      "Ġu": 1790,
      "ploy": 1791,
      "Gamma": 1792,
      "Ġtem": 1793,
      "sqrt": 1794,
      "Ġve": 1795,
      "Ġbook": 1796,
      "Ġins": 1797,
      ")$,": 1798,
      "Ġlater": 1799,
      "ird": 1800,
      "Ġcalled": 1801,
      "ĠPl": 1802,
      "rist": 1803,
      "Ġdi": 1804,
      "ertain": 1805,
      "omet": 1806,
      "be": 1807,
      "Ġlook": 1808,
      "Ġthink": 1809,
      "Ġfilm": 1810,
      "Ġassum": 1811,
      "html": 1812,
      "Ġwithin": 1813,
      "Ġdesign": 1814,
      "itle": 1815,
      "reg": 1816,
      "Ġ--": 1817,
      "cm": 1818,
      "psilon": 1819,
      "Ġrad": 1820,
      "rodu": 1821,
      "Ġ,": 1822,
      "....": 1823,
      "ination": 1824,
      "sk": 1825,
      "Ġscal": 1826,
      "On": 1827,
      "Ġiss": 1828,
      "Ġaddition": 1829,
      "Ġorgan": 1830,
      "reen": 1831,
      "Ġwant": 1832,
      "Ġ${\\": 1833,
      "Ġarg": 1834,
      "Ġleft": 1835,
      "ĠBut": 1836,
      "LE": 1837,
      "ĠJohn": 1838,
      "version": 1839,
      "ris": 1840,
      "Ġbo": 1841,
      "Ġnull": 1842,
      "ording": 1843,
      "../../": 1844,
      "ĠThey": 1845,
      "imens": 1846,
      "Ġdem": 1847,
      "Ġpolit": 1848,
      "ĠMay": 1849,
      "ivid": 1850,
      "2018": 1851,
      "fo": 1852,
      "rr": 1853,
      "iod": 1854,
      "code": 1855,
      "2016": 1856,
      "ij": 1857,
      "Ġlet": 1858,
      "ajor": 1859,
      "Ġcap": 1860,
      "ĠRes": 1861,
      "2017": 1862,
      "subsection": 1863,
      "Ġexample": 1864,
      "td": 1865,
      "Ġtechn": 1866,
      "dis": 1867,
      "ler": 1868,
      "Ġvalues": 1869,
      "Ġparticular": 1870,
      "trans": 1871,
      "urch": 1872,
      "Ġocc": 1873,
      "Ġ==": 1874,
      "2019": 1875,
      "Ġevent": 1876,
      "Ġpar": 1877,
      "Ġtra": 1878,
      "29": 1879,
      "ĠWh": 1880,
      "ilar": 1881,
      "veral": 1882,
      "aving": 1883,
      "ground": 1884,
      "An": 1885,
      "Ġelse": 1886,
      "rightarrow": 1887,
      "Ġcorrespond": 1888,
      "Ġstring": 1889,
      "}=": 1890,
      "vare": 1891,
      "point": 1892,
      "ift": 1893,
      "ocial": 1894,
      "Ġdue": 1895,
      "textbf": 1896,
      "Ġbeh": 1897,
      "aim": 1898,
      "bm": 1899,
      "ators": 1900,
      "Ġconf": 1901,
      "194": 1902,
      "ĠĠĠĠĠĠĠĠĠĠĠĠĠĠĠĠĠĠĠĠĠĠĠĠĠĠĠĠĠĠĠĠ": 1903,
      "capt": 1904,
      "Ġseries": 1905,
      "br": 1906,
      "ĠNational": 1907,
      "By": 1908,
      "Ġleg": 1909,
      "lear": 1910,
      "uman": 1911,
      "Ġabove": 1912,
      "EN": 1913,
      "ĠCent": 1914,
      "raphics": 1915,
      "Ġinvest": 1916,
      "ians": 1917,
      "Ġcal": 1918,
      "2015": 1919,
      "Ġrespon": 1920,
      "^{(": 1921,
      "Ġplace": 1922,
      "Ġrese": 1923,
      "posed": 1924,
      "varepsilon": 1925,
      "Ġprot": 1926,
      "tab": 1927,
      "ĠYork": 1928,
      "ĠFran": 1929,
      "see": 1930,
      "wh": 1931,
      "imate": 1932,
      "ĠAll": 1933,
      "List": 1934,
      "Ġfalse": 1935,
      "}^{\\": 1936,
      "Ġbest": 1937,
      "roll": 1938,
      "ugg": 1939,
      "Ġkey": 1940,
      "Ġproject": 1941,
      "rangle": 1942,
      "conom": 1943,
      "Ġgovernment": 1944,
      "Ġinteg": 1945,
      "Ġadv": 1946,
      "âĢĶ": 1947,
      "};": 1948,
      "iter": 1949,
      "ĠHowever": 1950,
      "ormal": 1951,
      "bold": 1952,
      ")=": 1953,
      "ĠCount": 1954,
      "etail": 1955,
      "ope": 1956,
      "Ġlearn": 1957,
      "Ġsingle": 1958,
      "ĠJan": 1959,
      "cont": 1960,
      "Ġsay": 1961,
      "Ġnear": 1962,
      "Ġnext": 1963,
      "press": 1964,
      "Ġpat": 1965,
      "ties": 1966,
      "urs": 1967,
      "ths": 1968,
      "Ġoffic": 1969,
      "Ġmeasure": 1970,
      "Ġsum": 1971,
      "Ġ\\,": 1972,
      "ium": 1973,
      "caption": 1974,
      "Ġwithout": 1975,
      "AN": 1976,
      "33": 1977,
      "Ġdon": 1978,
      "aper": 1979,
      "ĠWorld": 1980,
      "Ġlarg": 1981,
      "ĠAt": 1982,
      "action": 1983,
      "rict": 1984,
      "unc": 1985,
      "ĠĠĠĠĠĠ": 1986,
      "ensure": 1987,
      "hes": 1988,
      "Ġbas": 1989,
      "Un": 1990,
      "ampl": 1991,
      "ification": 1992,
      "chi": 1993,
      "Ġestabl": 1994,
      "ape": 1995,
      "ĠOr": 1996,
      "Ġtri": 1997,
      "Ġann": 1998,
      "time": 1999,
      "2014": 2000,
      "Ġhead": 2001,
      "195": 2002,
      "ĠCan": 2003,
      "Ġden": 2004,
      "non": 2005,
      "ĠčĊ": 2006,
      "Ġimportant": 2007,
      "Ġseveral": 2008,
      "60": 2009,
      "Ob": 2010,
      "Ġday": 2011,
      "Ġalong": 2012,
      "Ġpost": 2013,
      "obal": 2014,
      "Ġposition": 2015,
      "Ġvoid": 2016,
      "Ġtot": 2017,
      "Ġsat": 2018,
      "ĠCar": 2019,
      "ene": 2020,
      "Ġbre": 2021,
      "Ġseason": 2022,
      "ero": 2023,
      "iron": 2024,
      "ĠYou": 2025,
      "Ġsize": 2026,
      "lim": 2027,
      "ke": 2028,
      "IT": 2029,
      "ush": 2030,
      "ances": 2031,
      "Ġ&&": 2032,
      "ĠPr": 2033,
      "Ġdeterm": 2034,
      "bs": 2035,
      "Ġanother": 2036,
      "Ġdepend": 2037,
      "Ġhref": 2038,
      "idd": 2039,
      "key": 2040,
      "ootball": 2041,
      "egraphics": 2042,
      "includegraphics": 2043,
      "')": 2044,
      "refore": 2045,
      "value": 2046,
      "ended": 2047,
      "SE": 2048,
      "Ġsection": 2049,
      "inition": 2050,
      "Ġet": 2051,
      "\".": 2052,
      "mp": 2053,
      "wards": 2054,
      "Ġaff": 2055,
      "AA": 2056,
      "stand": 2057,
      "ways": 2058,
      "ai": 2059,
      "ention": 2060,
      "lement": 2061,
      "bum": 2062,
      "Ġview": 2063,
      "string": 2064,
      "ĠEuro": 2065,
      "ourn": 2066,
      "varphi": 2067,
      "inter": 2068,
      "35": 2069,
      "emph": 2070,
      "Ġstudy": 2071,
      "Ġbusiness": 2072,
      "Ġsuccess": 2073,
      "Ġdiscuss": 2074,
      "2010": 2075,
      "ords": 2076,
      "Ġcontinu": 2077,
      "Ġterms": 2078,
      "Ġgame": 2079,
      "2013": 2080,
      "Ġuntil": 2081,
      "ĠMan": 2082,
      "Ġdom": 2083,
      "data": 2084,
      "ĠNov": 2085,
      "],": 2086,
      ".~\\": 2087,
      "Ġmap": 2088,
      "Ġredu": 2089,
      "##": 2090,
      "ources": 2091,
      "Ġnetwork": 2092,
      "Ġfr": 2093,
      "Ġcomput": 2094,
      "Ġinf": 2095,
      "2012": 2096,
      "Ġmean": 2097,
      "Ġhig": 2098,
      "ĠUS": 2099,
      "table": 2100,
      "Al": 2101,
      "Ġlow": 2102,
      "uary": 2103,
      "oper": 2104,
      "gorith": 2105,
      "Ġ=>": 2106,
      "''": 2107,
      "Ġhold": 2108,
      "ends": 2109,
      "iction": 2110,
      "80": 2111,
      "Ġchang": 2112,
      "Ġmusic": 2113,
      "Ġexist": 2114,
      "ĠAust": 2115,
      "Ġcharacter": 2116,
      "ison": 2117,
      "////": 2118,
      "with": 2119,
      "ĠGe": 2120,
      "Ġcrit": 2121,
      "stit": 2122,
      "icle": 2123,
      "Ġarea": 2124,
      "Ġtyp": 2125,
      "Ġhome": 2126,
      "imal": 2127,
      "Ġspect": 2128,
      "ensity": 2129,
      "Ġgreat": 2130,
      "ocus": 2131,
      "aint": 2132,
      "Ġspe": 2133,
      "aster": 2134,
      "ĠâĢĺ": 2135,
      "ĠAss": 2136,
      "ament": 2137,
      "ĠState": 2138,
      "field": 2139,
      "otential": 2140,
      "AC": 2141,
      "Ġplayers": 2142,
      "Ġquant": 2143,
      "Ġsimilar": 2144,
      "ences": 2145,
      "istic": 2146,
      "order": 2147,
      "2011": 2148,
      "rite": 2149,
      "source": 2150,
      "frak": 2151,
      "lation": 2152,
      "Ġdefined": 2153,
      "function": 2154,
      "********": 2155,
      "Ġclos": 2156,
      "Ġdel": 2157,
      "45": 2158,
      "uild": 2159,
      "Ġfew": 2160,
      "aus": 2161,
      "iam": 2162,
      "ped": 2163,
      "Ġprevious": 2164,
      "Ġcr": 2165,
      "Ġprivate": 2166,
      "ĠTo": 2167,
      "de": 2168,
      "geq": 2169,
      "ague": 2170,
      "ĠBrit": 2171,
      "\")": 2172,
      "He": 2173,
      "ĠThere": 2174,
      "Ġperiod": 2175,
      "pose": 2176,
      "ĠWar": 2177,
      "no": 2178,
      "Ġshown": 2179,
      "Ġchange": 2180,
      "Cont": 2181,
      "ĠJu": 2182,
      "Data": 2183,
      "Ġpossible": 2184,
      "ĠSchool": 2185,
      "Ġold": 2186,
      "Ġmajor": 2187,
      "Ġgrow": 2188,
      "ysis": 2189,
      ".}": 2190,
      "Ġide": 2191,
      "symbol": 2192,
      "ĠPol": 2193,
      "ĠMin": 2194,
      "ilit": 2195,
      "._": 2196,
      "ches": 2197,
      "ailable": 2198,
      "overline": 2199,
      "ection": 2200,
      "Ġweek": 2201,
      "Ġbecame": 2202,
      "[\\": 2203,
      "ats": 2204,
      "Ġcountry": 2205,
      "amed": 2206,
      "64": 2207,
      "ored": 2208,
      "uff": 2209,
      "lege": 2210,
      "Ġassoci": 2211,
      "atures": 2212,
      "ivity": 2213,
      "icy": 2214,
      "ĠAug": 2215,
      "ĠSouth": 2216,
      "Ġpred": 2217,
      "duct": 2218,
      "color": 2219,
      "cul": 2220,
      "ports": 2221,
      "vec": 2222,
      "proof": 2223,
      "ret": 2224,
      "off": 2225,
      "Ġstrong": 2226,
      "gin": 2227,
      "ĠEurope": 2228,
      "oub": 2229,
      "empt": 2230,
      "Ġmodels": 2231,
      "Ġstates": 2232,
      "Ġshows": 2233,
      "Ġcompany": 2234,
      "ither": 2235,
      "itor": 2236,
      "ynam": 2237,
      "Ġwon": 2238,
      "}).": 2239,
      "ĠAp": 2240,
      "----------------": 2241,
      "Ġwomen": 2242,
      "Ġdeath": 2243,
      "pd": 2244,
      "Big": 2245,
      "90": 2246,
      "Ġaut": 2247,
      "Ġtotal": 2248,
      "&\\": 2249,
      "ocument": 2250,
      "odes": 2251,
      "Ġcho": 2252,
      "enc": 2253,
      "Ġless": 2254,
      "ĠBe": 2255,
      "Ġhealth": 2256,
      "ependent": 2257,
      "Ġdeg": 2258,
      "message": 2259,
      "box": 2260,
      "Ġturn": 2261,
      "Ġmembers": 2262,
      "Ġfollows": 2263,
      "Ġearly": 2264,
      "Ġmanag": 2265,
      "Ġpoints": 2266,
      "ĠOct": 2267,
      "osp": 2268,
      "Ġlinks": 2269,
      "Col": 2270,
      "},\\": 2271,
      "Ġexpress": 2272,
      "Ġke": 2273,
      "const": 2274,
      "mber": 2275,
      "istor": 2276,
      "Ġapplic": 2277,
      "Ġeng": 2278,
      "loc": 2279,
      "leg": 2280,
      "Ġgoing": 2281,
      "mary": 2282,
      "cor": 2283,
      "ought": 2284,
      ")^": 2285,
      "iment": 2286,
      "Ġproduct": 2287,
      "ixed": 2288,
      "ĠNo": 2289,
      "atter": 2290,
      "ĠMarch": 2291,
      "script": 2292,
      "Ġshort": 2293,
      "Value": 2294,
      "ĠFl": 2295,
      "Ġinclude": 2296,
      "Âł": 2297,
      "mathfrak": 2298,
      "plit": 2299,
      "Ind": 2300,
      "ptember": 2301,
      "go": 2302,
      "Sh": 2303,
      "Ġfull": 2304,
      "ruction": 2305,
      "ling": 2306,
      "Ġmax": 2307,
      "oman": 2308,
      "head": 2309,
      "Ġrecent": 2310,
      "ription": 2311,
      "ĠTe": 2312,
      "Ġauthor": 2313,
      "Ġintrodu": 2314,
      "viron": 2315,
      "ymmet": 2316,
      "Lambda": 2317,
      "Ġtimes": 2318,
      "mm": 2319,
      "Ġquest": 2320,
      "Ġder": 2321,
      "Ġland": 2322,
      "Ġerror": 2323,
      "pril": 2324,
      "Ġsk": 2325,
      "Ġalbum": 2326,
      "ĠChrist": 2327,
      "Ġsong": 2328,
      "lected": 2329,
      "Ġcity": 2330,
      "Ġfac": 2331,
      "Ġaction": 2332,
      "center": 2333,
      "Let": 2334,
      "31": 2335,
      "ique": 2336,
      "34": 2337,
      "side": 2338,
      "boldsymbol": 2339,
      "ĠCounty": 2340,
      "Ġpubl": 2341,
      "Ġchildren": 2342,
      "sl": 2343,
      "Ġphot": 2344,
      "IC": 2345,
      "Ġbr": 2346,
      "ĠCal": 2347,
      "Ġmillion": 2348,
      "DE": 2349,
      "ump": 2350,
      "Ġinvol": 2351,
      "Ġpotential": 2352,
      "ably": 2353,
      "2009": 2354,
      "sequ": 2355,
      "uture": 2356,
      "urb": 2357,
      "sm": 2358,
      "hline": 2359,
      "Ġband": 2360,
      "Set": 2361,
      "isf": 2362,
      "];": 2363,
      "size": 2364,
      "Ġcomb": 2365,
      "2008": 2366,
      "Ġfund": 2367,
      "Ġsignific": 2368,
      "mat": 2369,
      "Ġhistory": 2370,
      "lin": 2371,
      "ights": 2372,
      "Ġhtt": 2373,
      "ĠGerm": 2374,
      "urg": 2375,
      "alf": 2376,
      "cember": 2377,
      "mbox": 2378,
      "ĠJanuary": 2379,
      "Ġprom": 2380,
      "ividual": 2381,
      "}}$": 2382,
      "Ġsit": 2383,
      "Ġ/**": 2384,
      "ients": 2385,
      "75": 2386,
      "ĠBy": 2387,
      "Ġstructure": 2388,
      "Ġeas": 2389,
      "ards": 2390,
      "langle": 2391,
      "ĠJune": 2392,
      "Ġcomplet": 2393,
      "angu": 2394,
      "orph": 2395,
      "ological": 2396,
      "AM": 2397,
      "plement": 2398,
      "ories": 2399,
      "ica": 2400,
      "Re": 2401,
      "Ġdistribution": 2402,
      "ilt": 2403,
      "though": 2404,
      "AS": 2405,
      "oor": 2406,
      "uation": 2407,
      "Ġwin": 2408,
      "ĠSo": 2409,
      "Ġfurther": 2410,
      "Ġrest": 2411,
      "imum": 2412,
      "ĠReg": 2413,
      "clus": 2414,
      "Ġphys": 2415,
      "opy": 2416,
      "Ġresearch": 2417,
      "Ġleast": 2418,
      "ĠSeptember": 2419,
      "Ġregion": 2420,
      "36": 2421,
      "top": 2422,
      "aken": 2423,
      "Ġformer": 2424,
      "ĠJuly": 2425,
      "\");": 2426,
      "bit": 2427,
      "ldots": 2428,
      "Ġrange": 2429,
      "eder": 2430,
      "70": 2431,
      "Ġmar": 2432,
      "ĠCity": 2433,
      "ĠCo": 2434,
      "idence": 2435,
      "ĠAugust": 2436,
      "hold": 2437,
      "Ġcontrol": 2438,
      "Ġavailable": 2439,
      "ĠPar": 2440,
      "Ġcompon": 2441,
      "Ġimpro": 2442,
      "));": 2443,
      "ĠĠĠĠĠĠĠĠĠĠĠĠĠĠĠĠĠĠĠĠĠĠĠ": 2444,
      "utions": 2445,
      "Ġeduc": 2446,
      "ĠOctober": 2447,
      "Ġpath": 2448,
      "ude": 2449,
      "bo": 2450,
      "ks": 2451,
      "ĠSup": 2452,
      "etic": 2453,
      "Ġsom": 2454,
      "indow": 2455,
      "ĠApril": 2456,
      "mult": 2457,
      "ux": 2458,
      "ittle": 2459,
      "Ġvol": 2460,
      "Ġdetail": 2461,
      "ĠPart": 2462,
      "Ġemploy": 2463,
      "Ġcou": 2464,
      "ĠĠĠĠĠĠĠĠĠĠĠĠĠ": 2465,
      "Ġfore": 2466,
      "Ġconc": 2467,
      "rror": 2468,
      "ĠMed": 2469,
      "External": 2470,
      "ising": 2471,
      "nabl": 2472,
      "appa": 2473,
      "Ġaver": 2474,
      "Ġfree": 2475,
      "39": 2476,
      "load": 2477,
      "ready": 2478,
      "Ġhapp": 2479,
      "ĠNorth": 2480,
      "Ġeconom": 2481,
      "Phi": 2482,
      "\"/": 2483,
      "ĠGu": 2484,
      "ony": 2485,
      "Ġrelations": 2486,
      "ems": 2487,
      "hern": 2488,
      "Ġoriginal": 2489,
      "ief": 2490,
      "Tr": 2491,
      "If": 2492,
      "max": 2493,
      "II": 2494,
      "Ġreally": 2495,
      "Ġmagn": 2496,
      "ĠDecember": 2497,
      "Ġamong": 2498,
      "ables": 2499,
      "($": 2500,
      "Ġpract": 2501,
      "uration": 2502,
      "Int": 2503,
      "ried": 2504,
      "eter": 2505,
      "citep": 2506,
      "38": 2507,
      "Ġmom": 2508,
      "ĠRep": 2509,
      "Ġtarget": 2510,
      ".\\": 2511,
      "ĠPres": 2512,
      "2007": 2513,
      "ino": 2514,
      "Ġclaim": 2515,
      ")(": 2516,
      "Ġprovide": 2517,
      "ides": 2518,
      "Ġservice": 2519,
      "ii": 2520,
      "Ġalways": 2521,
      "Ġcost": 2522,
      "ĠThen": 2523,
      "Ġlimit": 2524,
      "ales": 2525,
      "Ġcommunity": 2526,
      "ĠWill": 2527,
      "CO": 2528,
      "vironment": 2529,
      "Ġindividual": 2530,
      "ĠNovember": 2531,
      "Ġaccess": 2532,
      "Ġoften": 2533,
      "Ġsocial": 2534,
      "xim": 2535,
      "Ġput": 2536,
      "test": 2537,
      "Ġbecome": 2538,
      "iple": 2539,
      "aut": 2540,
      "rary": 2541,
      "Ġbetter": 2542,
      "ung": 2543,
      "Ġfootball": 2544,
      "Ġtheory": 2545,
      "Ġret": 2546,
      "inary": 2547,
      "uck": 2548,
      "Ġfocus": 2549,
      "ware": 2550,
      "Ġspecial": 2551,
      "but": 2552,
      "gorithm": 2553,
      "Ġnever": 2554,
      "ĠThese": 2555,
      "2006": 2556,
      "andom": 2557,
      "Ġconsid": 2558,
      "ĠGr": 2559,
      "Ġside": 2560,
      "Ġhuman": 2561,
      "Ġestim": 2562,
      "Ġsignificant": 2563,
      "Ġrole": 2564,
      "ently": 2565,
      "Ġsource": 2566,
      "Ġtext": 2567,
      "Ġla": 2568,
      "Ġcases": 2569,
      "ĠAct": 2570,
      "lish": 2571,
      "Ġmeans": 2572,
      "Object": 2573,
      "Ġcoll": 2574,
      "Ġmight": 2575,
      "kappa": 2576,
      "ges": 2577,
      "âĢ¦": 2578,
      "Ġ!=": 2579,
      "Ġ%": 2580,
      "otimes": 2581,
      "ĠAustral": 2582,
      "Ġwar": 2583,
      "circ": 2584,
      "CT": 2585,
      "Ġrate": 2586,
      "iles": 2587,
      "Ġmot": 2588,
      "Ġtry": 2589,
      "wide": 2590,
      "========": 2591,
      "ecess": 2592,
      "node": 2593,
      "Ġindic": 2594,
      "Ġcomplex": 2595,
      "Ġsatisf": 2596,
      "wid": 2597,
      "Ġparameters": 2598,
      "sup": 2599,
      "Ġfail": 2600,
      "Ġapproach": 2601,
      "Ġbir": 2602,
      "ĠEn": 2603,
      "ules": 2604,
      "ateg": 2605,
      "ĠAb": 2606,
      "Ġgrad": 2607,
      "ze": 2608,
      "AP": 2609,
      "nonumber": 2610,
      "asing": 2611,
      "Ġaccount": 2612,
      "With": 2613,
      "textit": 2614,
      "Ġ``": 2615,
      "Ġlog": 2616,
      "ibility": 2617,
      "Ġpaper": 2618,
      "Ġcompet": 2619,
      "37": 2620,
      "}),": 2621,
      "style": 2622,
      "Ġenc": 2623,
      "Ġq": 2624,
      "Ġtoo": 2625,
      "aced": 2626,
      "Ġid": 2627,
      "})$": 2628,
      "99": 2629,
      "Ġperformance": 2630,
      "ounc": 2631,
      "].": 2632,
      ",\"": 2633,
      "ĠDr": 2634,
      "cit": 2635,
      "now": 2636,
      "sf": 2637,
      "aterial": 2638,
      "Ġdescribed": 2639,
      "Ġsequ": 2640,
      "ava": 2641,
      "ribute": 2642,
      "subset": 2643,
      "ĠFeb": 2644,
      "ĠCanad": 2645,
      "sw": 2646,
      "Ġrequire": 2647,
      "ius": 2648,
      "uk": 2649,
      "ĠMc": 2650,
      "Ġfive": 2651,
      "Ġstudents": 2652,
      "Test": 2653,
      "Ġdevelopment": 2654,
      "Ġmember": 2655,
      "most": 2656,
      "Ġseen": 2657,
      "Ġfunctions": 2658,
      "Mod": 2659,
      "ham": 2660,
      "Ġhard": 2661,
      "rior": 2662,
      "ideo": 2663,
      "\\%": 2664,
      "Ġcommon": 2665,
      "ervice": 2666,
      "Ġstatic": 2667,
      "Ġable": 2668,
      "\"/>": 2669,
      "Ġnational": 2670,
      "Ġinitial": 2671,
      "Sigma": 2672,
      "Ġtook": 2673,
      "Ġimp": 2674,
      "Ġversion": 2675,
      "Exception": 2676,
      "Ġobtained": 2677,
      "Im": 2678,
      "ustom": 2679,
      "ae": 2680,
      "Ġstory": 2681,
      "ĠHar": 2682,
      "raft": 2683,
      "Ġneg": 2684,
      "abor": 2685,
      "\"><": 2686,
      "Ġinfl": 2687,
      "Ġalready": 2688,
      "ogn": 2689,
      "amples": 2690,
      "ĠCor": 2691,
      "ĠAfr": 2692,
      "chie": 2693,
      "util": 2694,
      "ruary": 2695,
      "Ġbelie": 2696,
      "Ġplan": 2697,
      "ĠBo": 2698,
      "Ġlight": 2699,
      "Ġacross": 2700,
      "gether": 2701,
      "Ġtogether": 2702,
      "IS": 2703,
      "ĠLet": 2704,
      "Ġsystems": 2705,
      "Get": 2706,
      "ensuremath": 2707,
      "Ġdensity": 2708,
      "Ġfar": 2709,
      "01": 2710,
      "rew": 2711,
      "Ġsays": 2712,
      "\\!": 2713,
      "Ġsuper": 2714,
      "Ġant": 2715,
      "ED": 2716,
      "umb": 2717,
      "adem": 2718,
      "aps": 2719,
      "eneral": 2720,
      "Ġhaving": 2721,
      "gress": 2722,
      "Ġmen": 2723,
      "Ġlik": 2724,
      "dom": 2725,
      "nabla": 2726,
      "Ġanalysis": 2727,
      "Ġprofess": 2728,
      "ements": 2729,
      "Ġcover": 2730,
      "Ġyoung": 2731,
      "Ġinput": 2732,
      "Ġ($": 2733,
      "ĠHis": 2734,
      "uggest": 2735,
      "\\|": 2736,
      "px": 2737,
      "Ġcult": 2738,
      "ĠThat": 2739,
      "Ġcome": 2740,
      "Ġcamp": 2741,
      "Ġsolution": 2742,
      "05": 2743,
      "Ġ///": 2744,
      "eed": 2745,
      "Ġred": 2746,
      "Ġworking": 2747,
      "Ġconstant": 2748,
      "uments": 2749,
      "Ġwhether": 2750,
      "Ġconditions": 2751,
      "Ġport": 2752,
      "Ps": 2753,
      "Ġgive": 2754,
      "atural": 2755,
      "Ġthird": 2756,
      "Ġabs": 2757,
      "Ġproperty": 2758,
      "itted": 2759,
      "ĠEd": 2760,
      "ones": 2761,
      "Ġgraph": 2762,
      "iber": 2763,
      "Ġcirc": 2764,
      "ours": 2765,
      "Ġ:=": 2766,
      "Ġjo": 2767,
      "lete": 2768,
      "LL": 2769,
      "Ġconsidered": 2770,
      "Ġtitle": 2771,
      "Ġplayed": 2772,
      "cer": 2773,
      "Ġmatrix": 2774,
      "Ġdev": 2775,
      "Ġcertain": 2776,
      "ught": 2777,
      "Ġeither": 2778,
      "Ġfuture": 2779,
      "apan": 2780,
      "ĠBritish": 2781,
      "Ġhigher": 2782,
      "iven": 2783,
      "Ġwater": 2784,
      "iew": 2785,
      "file": 2786,
      "Ġage": 2787,
      "Ġpopulation": 2788,
      "48": 2789,
      "Ġpay": 2790,
      "ĠWhen": 2791,
      "ĠDep": 2792,
      "ĠOne": 2793,
      "Ġtraining": 2794,
      "Ġbig": 2795,
      "Ġreleased": 2796,
      "aring": 2797,
      "Ġlength": 2798,
      "Ġrequest": 2799,
      "Ġblock": 2800,
      "ĠAfter": 2801,
      "Ġsix": 2802,
      "Key": 2803,
      "ending": 2804,
      "Ġvarious": 2805,
      "ui": 2806,
      "Not": 2807,
      "}}{": 2808,
      "Ġcheck": 2809,
      "Ġelement": 2810,
      "Ġnode": 2811,
      "RO": 2812,
      "www": 2813,
      "ĠKing": 2814,
      "ume": 2815,
      "ES": 2816,
      "Error": 2817,
      "');": 2818,
      "ĠWest": 2819,
      "Ġindust": 2820,
      "Ġexpected": 2821,
      "Ġsepar": 2822,
      "length": 2823,
      "Ġhowever": 2824,
      "ayer": 2825,
      "ething": 2826,
      "2000": 2827,
      "inally": 2828,
      "Ġheld": 2829,
      "aul": 2830,
      "dots": 2831,
      "reed": 2832,
      "Ġep": 2833,
      "ocr": 2834,
      "cher": 2835,
      "vision": 2836,
      "Class": 2837,
      "ĠOb": 2838,
      "Ġvert": 2839,
      "Ġsw": 2840,
      "ĠSec": 2841,
      "Ġevents": 2842,
      "ĠFebruary": 2843,
      "ington": 2844,
      "2005": 2845,
      "Ġcareer": 2846,
      "ĠWith": 2847,
      "65": 2848,
      "minist": 2849,
      "group": 2850,
      "/\\": 2851,
      "Pl": 2852,
      "ilities": 2853,
      "Ġfeature": 2854,
      "ĠAg": 2855,
      "Ġconn": 2856,
      "ald": 2857,
      "Ġlower": 2858,
      "Ġreceived": 2859,
      "Ġreason": 2860,
      "uf": 2861,
      "Ġdat": 2862,
      "Ġimage": 2863,
      "Ġsy": 2864,
      "ured": 2865,
      "ociety": 2866,
      "Ġben": 2867,
      "Ġdays": 2868,
      "Ġthings": 2869,
      "~~": 2870,
      "ĠBar": 2871,
      "Ġhom": 2872,
      "ĠRuss": 2873,
      "Ġstre": 2874,
      "ining": 2875,
      "Ġmeet": 2876,
      "Def": 2877,
      "ana": 2878,
      "Ġcontext": 2879,
      "Ġlangu": 2880,
      "ĠMe": 2881,
      "Ġtrad": 2882,
      "ait": 2883,
      "Ġparameter": 2884,
      "prime": 2885,
      "Ġmaking": 2886,
      "irt": 2887,
      "list": 2888,
      "Ġrequired": 2889,
      "scal": 2890,
      "Ġattack": 2891,
      "Ġunderstand": 2892,
      "Ġaverage": 2893,
      "ournal": 2894,
      "ĠString": 2895,
      "summary": 2896,
      "Ġbegan": 2897,
      "Ġstar": 2898,
      "Ġequation": 2899,
      "cap": 2900,
      "Ġsuggest": 2901,
      "Ġrepl": 2902,
      "oph": 2903,
      "thing": 2904,
      "ving": 2905,
      "Ġcalcul": 2906,
      "Ġhouse": 2907,
      "path": 2908,
      "Ġbase": 2909,
      "Ġpolitical": 2910,
      "aff": 2911,
      "Ap": 2912,
      "widet": 2913,
      "Ġcame": 2914,
      "fer": 2915,
      "ĠAm": 2916,
      "Ġtaken": 2917,
      "ondon": 2918,
      "Ġcreate": 2919,
      "ography": 2920,
      "Ġachie": 2921,
      "date": 2922,
      "ampions": 2923,
      "based": 2924,
      "Ġcross": 2925,
      "Se": 2926,
      "Ġconsist": 2927,
      "Fig": 2928,
      "Ġcorresponding": 2929,
      "ilitary": 2930,
      "ouncil": 2931,
      "url": 2932,
      "sel": 2933,
      "rect": 2934,
      "ension": 2935,
      "\\[": 2936,
      "ĠPresident": 2937,
      "Ġapproxim": 2938,
      "Ġfri": 2939,
      "().": 2940,
      "cast": 2941,
      "Ġpair": 2942,
      "http": 2943,
      "ĠArt": 2944,
      "Ġgot": 2945,
      "Ġrespectively": 2946,
      "Ġbuilding": 2947,
      "index": 2948,
      "Ġfile": 2949,
      "down": 2950,
      "Ġprim": 2951,
      "Ġkind": 2952,
      "ster": 2953,
      "());": 2954,
      "Ġwritten": 2955,
      "ĠCO": 2956,
      "New": 2957,
      "map": 2958,
      "ecut": 2959,
      "95": 2960,
      "Ġservices": 2961,
      "ceed": 2962,
      "lo": 2963,
      "Ġtre": 2964,
      "widetilde": 2965,
      "Ġask": 2966,
      "ued": 2967,
      "Ġpast": 2968,
      "Ġpublished": 2969,
      "ĠSch": 2970,
      "Ġbi": 2971,
      "Ġstandard": 2972,
      "Ġsent": 2973,
      "Ġstyle": 2974,
      "Ġorg": 2975,
      "Ġloss": 2976,
      "ĠBr": 2977,
      "ĠComp": 2978,
      "Ġbelow": 2979,
      "draw": 2980,
      "44": 2981,
      "ĠCour": 2982,
      "ĠDav": 2983,
      "Ġarch": 2984,
      "ops": 2985,
      "perty": 2986,
      "earch": 2987,
      "Ġphase": 2988,
      "atus": 2989,
      "Ġblack": 2990,
      "Ġprovided": 2991,
      "ĠHouse": 2992,
      "All": 2993,
      "Ġlot": 2994,
      "Ġgroups": 2995,
      "bor": 2996,
      "rown": 2997,
      "Ġaccording": 2998,
      "Ġdimens": 2999,
      "Ġnecess": 3000,
      "Ġbreak": 3001,
      "rest": 3002,
      "annel": 3003,
      "Ġviol": 3004,
      "Ġear": 3005,
      "Ġtemper": 3006,
      "bra": 3007,
      "Ġpositive": 3008,
      "Ġworks": 3009,
      "{-": 3010,
      "Ġmarket": 3011,
      "Ġtrack": 3012,
      "aged": 3013,
      "ican": 3014,
      "Ġbackground": 3015,
      "Ġaddress": 3016,
      "ĠArm": 3017,
      "ulations": 3018,
      "Ġair": 3019,
      "Sc": 3020,
      "ager": 3021,
      "ached": 3022,
      "Ġcell": 3023,
      "translation": 3024,
      "Ġbehav": 3025,
      "Ġsomething": 3026,
      "nder": 3027,
      "IM": 3028,
      "}-": 3029,
      "ĠCollege": 3030,
      "ĠSw": 3031,
      "Ġge": 3032,
      "Ġpur": 3033,
      "Ġhy": 3034,
      "Ġcy": 3035,
      "Ġindependent": 3036,
      "Ġmoment": 3037,
      "pace": 3038,
      "Ġglobal": 3039,
      "Ġlittle": 3040,
      "centering": 3041,
      "ĠGl": 3042,
      "Ġclose": 3043,
      "plies": 3044,
      "Qu": 3045,
      "fficient": 3046,
      "state": 3047,
      "rc": 3048,
      "2004": 3049,
      "Ġperm": 3050,
      "iance": 3051,
      "wise": 3052,
      "Ġarray": 3053,
      "illed": 3054,
      "ands": 3055,
      "Ġtown": 3056,
      "Ġassociated": 3057,
      "Ġinvestig": 3058,
      ";\\": 3059,
      "Ġreview": 3060,
      "Ġmethods": 3061,
      "Ġincluded": 3062,
      "hib": 3063,
      "Ġothers": 3064,
      "ĠRec": 3065,
      "Ġsem": 3066,
      "ĠAmerica": 3067,
      "Ġassert": 3068,
      "ership": 3069,
      "Ġdoub": 3070,
      "rench": 3071,
      "artment": 3072,
      "Ġfeatures": 3073,
      "PE": 3074,
      "Ġdone": 3075,
      "medi": 3076,
      "ĠEnglish": 3077,
      "alax": 3078,
      "Ġparent": 3079,
      "semb": 3080,
      "Ġfrequ": 3081,
      "ĠJapan": 3082,
      "ĠEl": 3083,
      "ĠSer": 3084,
      "Ġproperties": 3085,
      "ĠĠĠĠĠĠĠĠĠĠĠĠ": 3086,
      "Ġgen": 3087,
      "Ġthus": 3088,
      "plied": 3089,
      "ION": 3090,
      "Or": 3091,
      "Ġtw": 3092,
      "Ġill": 3093,
      "ese": 3094,
      "ille": 3095,
      "And": 3096,
      "ĠLondon": 3097,
      "Ġground": 3098,
      "na": 3099,
      "ĠEq": 3100,
      "alt": 3101,
      "Ġbecom": 3102,
      "ivil": 3103,
      "Ġinstance": 3104,
      "duc": 3105,
      "Ġaway": 3106,
      "Ġappear": 3107,
      "ĠSection": 3108,
      "which": 3109,
      "ET": 3110,
      "Le": 3111,
      "prot": 3112,
      "error": 3113,
      "Ġthough": 3114,
      "Ġtask": 3115,
      "Ġindex": 3116,
      "ordin": 3117,
      "my": 3118,
      "2022": 3119,
      "Ġnamed": 3120,
      "Ġmatch": 3121,
      "ĉĉĉĉĉ": 3122,
      "igned": 3123,
      "nb": 3124,
      "ĠII": 3125,
      "ĠInternational": 3126,
      "link": 3127,
      "gl": 3128,
      "Ġhost": 3129,
      "Time": 3130,
      "Ġes": 3131,
      "Ġgames": 3132,
      "rav": 3133,
      "itch": 3134,
      "ĠDist": 3135,
      "Ġbegin": 3136,
      "Ġstep": 3137,
      "zeta": 3138,
      "Ġsche": 3139,
      "ship": 3140,
      "Ġlines": 3141,
      "Ġenough": 3142,
      "Ġdynam": 3143,
      "Ġbuilt": 3144,
      "exp": 3145,
      "Ġestablished": 3146,
      "Ġimplement": 3147,
      "year": 3148,
      "ged": 3149,
      "Equ": 3150,
      "Ġmaterial": 3151,
      "55": 3152,
      "Ġhalf": 3153,
      "Ġnormal": 3154,
      "Ġdiv": 3155,
      "Requ": 3156,
      "roid": 3157,
      "cell": 3158,
      "Ġ&=": 3159,
      "ford": 3160,
      "tabular": 3161,
      "izing": 3162,
      "}+": 3163,
      "Ġcaus": 3164,
      "Ġpress": 3165,
      "Ġrelated": 3166,
      "08": 3167,
      "Ġproof": 3168,
      "Ġcourse": 3169,
      "chan": 3170,
      "07": 3171,
      "Ġemb": 3172,
      "\\{": 3173,
      "Ġtreat": 3174,
      "ogle": 3175,
      "aries": 3176,
      "ĠMore": 3177,
      "Ġresponse": 3178,
      "Ġrandom": 3179,
      "Ġstarted": 3180,
      "iet": 3181,
      "Ġlinear": 3182,
      "From": 3183,
      "ĠÂ": 3184,
      "ĠPark": 3185,
      "Ġcompos": 3186,
      "itte": 3187,
      "At": 3188,
      "nection": 3189,
      "Ġ?": 3190,
      "/**": 3191,
      "oted": 3192,
      "Ġnumer": 3193,
      "Ġfig": 3194,
      "ĠChar": 3195,
      "https": 3196,
      "cle": 3197,
      "ĠQu": 3198,
      "init": 3199,
      "Ġwent": 3200,
      "ama": 3201,
      "ĠChe": 3202,
      "comp": 3203,
      "Ġsubject": 3204,
      "Ġclear": 3205,
      "ĠHer": 3206,
      "ender": 3207,
      "Ġinternational": 3208,
      "ĠMon": 3209,
      "Ġang": 3210,
      "Man": 3211,
      "Ġrefer": 3212,
      "icro": 3213,
      "thm": 3214,
      "iddle": 3215,
      "Ġshall": 3216,
      "File": 3217,
      "Ġjob": 3218,
      "from": 3219,
      "cos": 3220,
      "Ġcreated": 3221,
      "Ġarm": 3222,
      "See": 3223,
      "Ġdest": 3224,
      ")=\\": 3225,
      "Ġannoun": 3226,
      "acc": 3227,
      "isk": 3228,
      "Ġ/*": 3229,
      "Ġproduction": 3230,
      "Ġactiv": 3231,
      "result": 3232,
      "04": 3233,
      "Ġkeep": 3234,
      "Ġvia": 3235,
      "hood": 3236,
      "ĠBro": 3237,
      "Ġquestion": 3238,
      "ĠVal": 3239,
      "ula": 3240,
      "|-": 3241,
      "ĠPe": 3242,
      "ĠWilliam": 3243,
      "AD": 3244,
      "Ġenvironment": 3245,
      "Ġcontent": 3246,
      "ĠPer": 3247,
      "Ġvector": 3248,
      "ession": 3249,
      "ĠIm": 3250,
      "nown": 3251,
      "Ġlocated": 3252,
      "Ġtele": 3253,
      "omorph": 3254,
      "icult": 3255,
      "Ġbody": 3256,
      "Ġdocument": 3257,
      "ishing": 3258,
      "Ġelements": 3259,
      "Ġcentury": 3260,
      "Ġrather": 3261,
      "mark": 3262,
      "Node": 3263,
      "mon": 3264,
      "rows": 3265,
      "AB": 3266,
      "Ġonce": 3267,
      "under": 3268,
      "There": 3269,
      "Is": 3270,
      "(),": 3271,
      "verse": 3272,
      "ills": 3273,
      "body": 3274,
      "\";": 3275,
      "pack": 3276,
      "gr": 3277,
      "Ġcle": 3278,
      "Ġregular": 3279,
      "\":": 3280,
      "Ġchall": 3281,
      "Ġrights": 3282,
      "UT": 3283,
      "\\]": 3284,
      "Ġdire": 3285,
      "En": 3286,
      "Ġcannot": 3287,
      "Ġofficial": 3288,
      "Ġcompan": 3289,
      "Ġproposed": 3290,
      "Bl": 3291,
      "}=\\": 3292,
      "ĠAir": 3293,
      "born": 3294,
      "Ġconstruct": 3295,
      "ĠSince": 3296,
      "State": 3297,
      "06": 3298,
      "itions": 3299,
      "Ġcode": 3300,
      "Ġlo": 3301,
      "Ġrespons": 3302,
      "Ġdefine": 3303,
      "ĠLeague": 3304,
      "Ġhistor": 3305,
      "estern": 3306,
      "Ã¡": 3307,
      "Element": 3308,
      "Ġtalk": 3309,
      "Ġsymmet": 3310,
      "Ġdegree": 3311,
      "Ġpercent": 3312,
      "ires": 3313,
      "Ġord": 3314,
      ")}\\": 3315,
      "oud": 3316,
      "Ġ);": 3317,
      "Ġlabel": 3318,
      "ĠAng": 3319,
      "unity": 3320,
      "Ġflow": 3321,
      "Ġpo": 3322,
      "47": 3323,
      "Ġwhose": 3324,
      ")^{": 3325,
      "ĠHigh": 3326,
      "{(": 3327,
      "Ġsimple": 3328,
      "iforn": 3329,
      "Ġscale": 3330,
      "atives": 3331,
      "aly": 3332,
      "irm": 3333,
      "Ġconcern": 3334,
      "Ġparticip": 3335,
      "emma": 3336,
      "/*": 3337,
      "$)": 3338,
      "ided": 3339,
      "UR": 3340,
      "appro": 3341,
      "Ġconfig": 3342,
      "Ġclust": 3343,
      "De": 3344,
      "2003": 3345,
      "foot": 3346,
      "}]": 3347,
      "Ġexperience": 3348,
      "ederal": 3349,
      "ĠTheorem": 3350,
      "49": 3351,
      "Ġ},": 3352,
      "Ġra": 3353,
      "stance": 3354,
      "Ġfilms": 3355,
      "Ġrecogn": 3356,
      "Ġalmost": 3357,
      "Ġfeel": 3358,
      "ĠHam": 3359,
      "09": 3360,
      "Ġreported": 3361,
      "Ġobserved": 3362,
      "Ġsite": 3363,
      "ags": 3364,
      "Ġtax": 3365,
      "ĠPhil": 3366,
      "Event": 3367,
      "avy": 3368,
      "ottom": 3369,
      "CC": 3370,
      "rain": 3371,
      "Ġpredict": 3372,
      "Ġspecific": 3373,
      "HE": 3374,
      "But": 3375,
      "][": 3376,
      "Ġfinite": 3377,
      "Ġexact": 3378,
      "rum": 3379,
      "Ġlearning": 3380,
      "Ġdefinition": 3381,
      "elling": 3382,
      "66": 3383,
      "Ġpolicy": 3384,
      "ĠGovern": 3385,
      "ifornia": 3386,
      "call": 3387,
      "Ġfactor": 3388,
      "02": 3389,
      "Ġborn": 3390,
      "pen": 3391,
      "System": 3392,
      "Ġmulti": 3393,
      ".~": 3394,
      "03": 3395,
      "Ġamount": 3396,
      "era": 3397,
      "Ad": 3398,
      "Att": 3399,
      "oo": 3400,
      "Ġmatter": 3401,
      "rs": 3402,
      "Wh": 3403,
      "ĠCourt": 3404,
      "How": 3405,
      "igen": 3406,
      "Ġserved": 3407,
      "View": 3408,
      "ĠLa": 3409,
      "Americ": 3410,
      "ampionship": 3411,
      "yl": 3412,
      "Ġsett": 3413,
      "LO": 3414,
      "ponse": 3415,
      "Ġeval": 3416,
      "raction": 3417,
      "Ġsaf": 3418,
      "ping": 3419,
      "Ġled": 3420,
      "Ġzero": 3421,
      "ĠCont": 3422,
      "Ġadditional": 3423,
      "ĠStud": 3424,
      "itect": 3425,
      "Ġapply": 3426,
      "Index": 3427,
      "Ġimpact": 3428,
      "Ġmedia": 3429,
      "Ġuser": 3430,
      "sin": 3431,
      "Ġtoday": 3432,
      "Ġalgorithm": 3433,
      "Ġentire": 3434,
      "sing": 3435,
      "Ġthought": 3436,
      "Ġexists": 3437,
      "Ġ===": 3438,
      "han": 3439,
      "nbsp": 3440,
      ".</": 3441,
      "itting": 3442,
      "Ġrat": 3443,
      "utes": 3444,
      "ridge": 3445,
      "Ġlive": 3446,
      "ledge": 3447,
      "cis": 3448,
      "rup": 3449,
      "ĠIndia": 3450,
      "aches": 3451,
      "Ġinflu": 3452,
      "ĠMich": 3453,
      "ancial": 3454,
      "cdots": 3455,
      "oken": 3456,
      "ĠAssoci": 3457,
      "gen": 3458,
      "Ġeducation": 3459,
      "Ġnatural": 3460,
      "}\\,": 3461,
      "oon": 3462,
      "}_\\": 3463,
      "ributions": 3464,
      "TR": 3465,
      "Ġmiss": 3466,
      "}^\\": 3467,
      "ĠLaw": 3468,
      "++": 3469,
      "ened": 3470,
      "Ġcourt": 3471,
      "ĠSm": 3472,
      "Ġfields": 3473,
      "Ġbroad": 3474,
      "atory": 3475,
      "olean": 3476,
      "2001": 3477,
      "small": 3478,
      "Ġclub": 3479,
      "Ġstation": 3480,
      "overed": 3481,
      "ĠRet": 3482,
      "Form": 3483,
      "Ġlarger": 3484,
      "Ġmakes": 3485,
      "Ġcolor": 3486,
      "2002": 3487,
      "Ġcountries": 3488,
      "Ġnov": 3489,
      "85": 3490,
      "97": 3491,
      "Array": 3492,
      "inated": 3493,
      "ĠChina": 3494,
      "BC": 3495,
      "Ġlanguage": 3496,
      "define": 3497,
      "ĠNot": 3498,
      "Ġprinc": 3499,
      "Ġoutput": 3500,
      "Ġprior": 3501,
      "}|": 3502,
      "........": 3503,
      "Ġchanges": 3504,
      "irl": 3505,
      "ounter": 3506,
      "Text": 3507,
      "LA": 3508,
      "attle": 3509,
      "ework": 3510,
      "Ġdifficult": 3511,
      "inn": 3512,
      "rated": 3513,
      "Ġgalax": 3514,
      "Ġlate": 3515,
      "Path": 3516,
      "Ġnum": 3517,
      "ĠSan": 3518,
      "ĠSystem": 3519,
      "mit": 3520,
      "ĠInt": 3521,
      "Ġcut": 3522,
      "US": 3523,
      "{{\\": 3524,
      "ittee": 3525,
      "andid": 3526,
      "Ġcoupl": 3527,
      "ĠEuropean": 3528,
      "eff": 3529,
      "ili": 3530,
      "Ġregard": 3531,
      "Over": 3532,
      "ccording": 3533,
      "more": 3534,
      "Ġvalid": 3535,
      "Ġincrease": 3536,
      "book": 3537,
      "och": 3538,
      "ĠCenter": 3539,
      "ĠCalifornia": 3540,
      "TE": 3541,
      "Ġbring": 3542,
      "pecially": 3543,
      "Ġtaking": 3544,
      "Ġpresident": 3545,
      "ĠFirst": 3546,
      "Ġsurface": 3547,
      "plicit": 3548,
      "ĠDepartment": 3549,
      "Field": 3550,
      "Ġwhy": 3551,
      "ponent": 3552,
      "^+": 3553,
      "prop": 3554,
      "Ġvideo": 3555,
      "ĠFrench": 3556,
      "atrix": 3557,
      "Ġliter": 3558,
      "Ġattempt": 3559,
      "Ġequival": 3560,
      "mar": 3561,
      "useum": 3562,
      "Ġmer": 3563,
      "orge": 3564,
      "like": 3565,
      "Ġdistance": 3566,
      "Ġ/>": 3567,
      "Ġoptions": 3568,
      "Ġdeal": 3569,
      "unic": 3570,
      "Psi": 3571,
      "gebra": 3572,
      "Ġbenef": 3573,
      ")]": 3574,
      "ĠRepublic": 3575,
      "aves": 3576,
      "Ġdecl": 3577,
      "tact": 3578,
      "Ġfixed": 3579,
      "Ġtherefore": 3580,
      "Ġrelationship": 3581,
      "Ġoperator": 3582,
      "ĠEngland": 3583,
      "Ġmonths": 3584,
      "Ġleading": 3585,
      "ched": 3586,
      "icles": 3587,
      "FF": 3588,
      "Ġpers": 3589,
      "67": 3590,
      "qquad": 3591,
      "Info": 3592,
      "})\\": 3593,
      "acing": 3594,
      "Ġunit": 3595,
      "ĠInstit": 3596,
      "Ġareas": 3597,
      "Ġquantum": 3598,
      ".)": 3599,
      "Ġhon": 3600,
      "ĉĊ": 3601,
      "pan": 3602,
      "reet": 3603,
      "astic": 3604,
      "Ġexperiment": 3605,
      "98": 3606,
      "Ġinc": 3607,
      "ĠSim": 3608,
      "ĠDis": 3609,
      "uel": 3610,
      "Ġissues": 3611,
      "Ġinstead": 3612,
      "Ġeffects": 3613,
      "Ġeffort": 3614,
      "ellow": 3615,
      "hel": 3616,
      "ĠVol": 3617,
      "widehat": 3618,
      "ael": 3619,
      "que": 3620,
      "Ġdied": 3621,
      "Ġfall": 3622,
      "Ġcontains": 3623,
      "Ġvill": 3624,
      "lemma": 3625,
      "public": 3626,
      "Ġaccept": 3627,
      "Ġfather": 3628,
      "istics": 3629,
      "ĠDef": 3630,
      "Ġeffective": 3631,
      "asc": 3632,
      "':": 3633,
      "``": 3634,
      "icon": 3635,
      "change": 3636,
      "Fil": 3637,
      "Add": 3638,
      "light": 3639,
      "&=": 3640,
      "Ġgives": 3641,
      "Ġworked": 3642,
      "Ġrank": 3643,
      "Request": 3644,
      "ully": 3645,
      "js": 3646,
      "Ġcomplete": 3647,
      "edd": 3648,
      "Ġneigh": 3649,
      "Ġlove": 3650,
      "Ġever": 3651,
      "ĠMark": 3652,
      "Ġhttps": 3653,
      "Ġson": 3654,
      "van": 3655,
      "known": 3656,
      "Ġadded": 3657,
      "Ġpopular": 3658,
      "Ġmoney": 3659,
      "bb": 3660,
      "ibrary": 3661,
      "Ġsequence": 3662,
      "Ġbasis": 3663,
      "Ġcompanies": 3664,
      "cup": 3665,
      "ĠIndian": 3666,
      "void": 3667,
      "Ġdefault": 3668,
      "Ġmilitary": 3669,
      "arily": 3670,
      "({\\": 3671,
      "ĠFrom": 3672,
      ",-": 3673,
      "IG": 3674,
      "Ġplayer": 3675,
      "ĠDem": 3676,
      "textwidth": 3677,
      "Ġ(!": 3678,
      "olic": 3679,
      "Of": 3680,
      "vey": 3681,
      "ĠMy": 3682,
      "ashington": 3683,
      "Ġtable": 3684,
      "Ġengine": 3685,
      "Ġ});": 3686,
      "Ġwrite": 3687,
      "){": 3688,
      "Ġissue": 3689,
      "Ġ__": 3690,
      "MS": 3691,
      "isions": 3692,
      "Ġcontract": 3693,
      "ĠCouncil": 3694,
      "////////": 3695,
      "Result": 3696,
      "American": 3697,
      "ises": 3698,
      "Ġspin": 3699,
      "ĠFigure": 3700,
      "Ġspecies": 3701,
      "ptions": 3702,
      "Ġlikely": 3703,
      "ico": 3704,
      "Ġproduced": 3705,
      "Ġdistrict": 3706,
      "['": 3707,
      "burg": 3708,
      "ĠAc": 3709,
      "Ġitself": 3710,
      "bsite": 3711,
      "ributed": 3712,
      "Ġpan": 3713,
      "api": 3714,
      "augh": 3715,
      "Ġrestr": 3716,
      "ĠGod": 3717,
      "Ġmultiple": 3718,
      "46": 3719,
      "actions": 3720,
      "Ġprobability": 3721,
      "Ġbar": 3722,
      "Ġconduct": 3723,
      "lor": 3724,
      "Ġactually": 3725,
      "88": 3726,
      "Ġproblems": 3727,
      "aker": 3728,
      "ney": 3729,
      "century": 3730,
      "Ġoccur": 3731,
      "ulated": 3732,
      "ĠEast": 3733,
      "skip": 3734,
      "Ġprovides": 3735,
      "aign": 3736,
      "Ġagre": 3737,
      "struct": 3738,
      "ĠSy": 3739,
      "ensive": 3740,
      "Ġ\\{": 3741,
      "}^{(": 3742,
      "xspace": 3743,
      "ota": 3744,
      "input": 3745,
      "Ġupon": 3746,
      "ees": 3747,
      "ocal": 3748,
      "Ġgas": 3749,
      "Ġjud": 3750,
      "ensor": 3751,
      "quare": 3752,
      "ips": 3753,
      "Ġanaly": 3754,
      "oms": 3755,
      "Ġsuccessful": 3756,
      "Context": 3757,
      "Ġwidth": 3758,
      "pdf": 3759,
      "Ġassume": 3760,
      "Ġcentral": 3761,
      "Ġsets": 3762,
      "Ġdeveloped": 3763,
      "mathsf": 3764,
      "Ġwords": 3765,
      "Ġwhole": 3766,
      "Ġsold": 3767,
      "Ġtemperature": 3768,
      "ĠGerman": 3769,
      "0000": 3770,
      "Pr": 3771,
      "Ġapp": 3772,
      "bre": 3773,
      "rael": 3774,
      "Ġdidn": 3775,
      "ariant": 3776,
      "Ġdecision": 3777,
      "ĠPal": 3778,
      "Ġcompar": 3779,
      "Ġaud": 3780,
      "ids": 3781,
      "Ġparty": 3782,
      "ING": 3783,
      "Ġtold": 3784,
      "true": 3785,
      "uate": 3786,
      "96": 3787,
      "Map": 3788,
      "Rec": 3789,
      "Ġaccur": 3790,
      "IP": 3791,
      "Ġopport": 3792,
      "izes": 3793,
      "Ġarr": 3794,
      "istry": 3795,
      "Ġyet": 3796,
      "atively": 3797,
      "Ġforce": 3798,
      "ett": 3799,
      "command": 3800,
      "Ġcustom": 3801,
      "indent": 3802,
      "Ġadminist": 3803,
      "Ġequal": 3804,
      "ĠTrans": 3805,
      "cing": 3806,
      "Ġconstruction": 3807,
      "ĠSen": 3808,
      "ĠGeneral": 3809,
      "ĠMod": 3810,
      "itz": 3811,
      "Ġround": 3812,
      "selves": 3813,
      "ML": 3814,
      "Ġincludes": 3815,
      "valid": 3816,
      "Ġindustry": 3817,
      "Ġtransform": 3818,
      "Ġcontinue": 3819,
      "icol": 3820,
      "ĠDistrict": 3821,
      "aching": 3822,
      "mid": 3823,
      "pol": 3824,
      "Ġstars": 3825,
      "itude": 3826,
      "MA": 3827,
      "Ġnote": 3828,
      "ores": 3829,
      "equiv": 3830,
      "Ġunc": 3831,
      "ying": 3832,
      "Ġ$(\\": 3833,
      "display": 3834,
      "Ġcolumn": 3835,
      "())": 3836,
      "dt": 3837,
      "aging": 3838,
      "ĠDo": 3839,
      "Ġpresented": 3840,
      "Ġsample": 3841,
      "Ġmove": 3842,
      "Ġcenter": 3843,
      "ĠThus": 3844,
      "Ġess": 3845,
      "When": 3846,
      "42": 3847,
      "Ġmechan": 3848,
      "otes": 3849,
      "pite": 3850,
      "Ġcompared": 3851,
      "ĠUK": 3852,
      "hand": 3853,
      "}}(": 3854,
      "Ġhor": 3855,
      "omb": 3856,
      "ĠBlack": 3857,
      "Ġdeb": 3858,
      "ĠHealth": 3859,
      "onstr": 3860,
      "Ġespecially": 3861,
      "Ġcomponent": 3862,
      "plate": 3863,
      "scale": 3864,
      "den": 3865,
      "uit": 3866,
      "Ġstop": 3867,
      "Ġsense": 3868,
      "Ġnil": 3869,
      "ara": 3870,
      "Ġsearch": 3871,
      "gs": 3872,
      "Ġvisit": 3873,
      "Ġbirths": 3874,
      "agon": 3875,
      "oke": 3876,
      "Ġsecur": 3877,
      "used": 3878,
      "Config": 3879,
      "assert": 3880,
      "}\\\\": 3881,
      "500": 3882,
      "that": 3883,
      "Ġrev": 3884,
      "ĠĠĠĠĊ": 3885,
      "encies": 3886,
      "amespace": 3887,
      "ctors": 3888,
      "oyal": 3889,
      "']": 3890,
      "Ġdep": 3891,
      "ĠWhat": 3892,
      "UN": 3893,
      "Ġedge": 3894,
      "band": 3895,
      "rote": 3896,
      "77": 3897,
      "ĠAustralia": 3898,
      "rate": 3899,
      "Ġ};": 3900,
      "Ġevidence": 3901,
      "After": 3902,
      "cial": 3903,
      "Dis": 3904,
      "ĠChurch": 3905,
      "ades": 3906,
      "Ġneeds": 3907,
      "Ġcapt": 3908,
      "atform": 3909,
      "citet": 3910,
      "ĠCanada": 3911,
      "Ġcorrel": 3912,
      "';": 3913,
      "ĠRef": 3914,
      "Ġprop": 3915,
      "dimens": 3916,
      "eloc": 3917,
      "Ġaward": 3918,
      "ride": 3919,
      "ĠDavid": 3920,
      "Ġdifference": 3921,
      "agram": 3922,
      "ategory": 3923,
      "ĠWashington": 3924,
      "Ġpersonal": 3925,
      "lands": 3926,
      "unk": 3927,
      "ging": 3928,
      "Ġannounced": 3929,
      "Ġtakes": 3930,
      "Ġver": 3931,
      "ites": 3932,
      "Ġfav": 3933,
      "Ġstudies": 3934,
      "Ġsound": 3935,
      "Ġphysical": 3936,
      "Ġthing": 3937,
      "oved": 3938,
      "****************": 3939,
      "Ġeffic": 3940,
      "Ġneeded": 3941,
      "star": 3942,
      "icture": 3943,
      "note": 3944,
      "CH": 3945,
      "ha": 3946,
      "iers": 3947,
      "Ġfram": 3948,
      "ein": 3949,
      "ĠPaul": 3950,
      "Ġmoved": 3951,
      "asons": 3952,
      "iform": 3953,
      "ranch": 3954,
      "OT": 3955,
      "Ġdate": 3956,
      "berg": 3957,
      "ĠMor": 3958,
      "iences": 3959,
      "Ġtradition": 3960,
      "Ġholds": 3961,
      "Ġdirectly": 3962,
      "Ġunique": 3963,
      "43": 3964,
      "ĠHol": 3965,
      "Ġcandid": 3966,
      "ares": 3967,
      "Ġfront": 3968,
      "urity": 3969,
      "Ġdirector": 3970,
      "Ġbit": 3971,
      "Ġimm": 3972,
      "Ġalign": 3973,
      "ĠNe": 3974,
      "ersion": 3975,
      "One": 3976,
      "Ġidea": 3977,
      "Ġincreasing": 3978,
      "word": 3979,
      "ĠJames": 3980,
      "Ġ()": 3981,
      "Code": 3982,
      "Ġnuc": 3983,
      "Ġsuff": 3984,
      "Ġoffice": 3985,
      "Ġvict": 3986,
      "Trans": 3987,
      "ĠList": 3988,
      "Ġsoft": 3989,
      "Ġweight": 3990,
      "object": 3991,
      "xy": 3992,
      "dr": 3993,
      "vant": 3994,
      "ĠĠĠĠĠĠĠĠĠĠĠĠĠĠĠĠĠĠĠĠĠĠĠĠĠĠĠ": 3995,
      "ĠLemma": 3996,
      "Ġrelation": 3997,
      "ĠDirect": 3998,
      "operat": 3999,
      "IR": 4000,
      "Ġclosed": 4001,
      "elt": 4002,
      "pty": 4003,
      "Service": 4004,
      "Ġapplication": 4005,
      "ening": 4006,
      "unn": 4007,
      "Ġ&\\": 4008,
      "atal": 4009,
      "ida": 4010,
      "rupt": 4011,
      "pression": 4012,
      "Ġfem": 4013,
      "Ġperformed": 4014,
      "Ġsex": 4015,
      "Ġrelig": 4016,
      "Ġtransition": 4017,
      "Size": 4018,
      "Ġinvolved": 4019,
      "Hand": 4020,
      "Ġdoing": 4021,
      "Ġsolutions": 4022,
      "Ġrelease": 4023,
      "operatorn": 4024,
      "}:": 4025,
      "Ġbank": 4026,
      "ĠEm": 4027,
      "Ġdirection": 4028,
      "Ġboundary": 4029,
      "Ġdemonstr": 4030,
      "[]": 4031,
      "acher": 4032,
      "ĠGet": 4033,
      "ĠParty": 4034,
      "Ġcurrently": 4035,
      "acity": 4036,
      "Ġmessage": 4037,
      "otype": 4038,
      "OS": 4039,
      "Ġcomes": 4040,
      "1999": 4041,
      "Ġcoordin": 4042,
      "ĠGo": 4043,
      "Ġnecessary": 4044,
      "]$": 4045,
      "Build": 4046,
      "escription": 4047,
      "edge": 4048,
      "operatorname": 4049,
      "ĠDes": 4050,
      "Ġnews": 4051,
      "clusion": 4052,
      "member": 4053,
      "Reg": 4054,
      "ector": 4055,
      "\"></": 4056,
      "1998": 4057,
      "ĠPat": 4058,
      "Ġtypes": 4059,
      "ipl": 4060,
      "ario": 4061,
      "Ġstage": 4062,
      "Ġcontain": 4063,
      "Ġconv": 4064,
      "Out": 4065,
      "Ġtell": 4066,
      "eline": 4067,
      "Inter": 4068,
      "CD": 4069,
      "ĠWhile": 4070,
      "Ġearli": 4071,
      "oul": 4072,
      "Ġoutside": 4073,
      "oe": 4074,
      "alle": 4075,
      "ĠĠĠĠĠĠĠĠĠĠ": 4076,
      "1990": 4077,
      "ĠGroup": 4078,
      "ns": 4079,
      "Ġdatas": 4080,
      "location": 4081,
      "Ġequations": 4082,
      "}+\\": 4083,
      "cret": 4084,
      "Ġmention": 4085,
      "Ġnorth": 4086,
      "Ġlost": 4087,
      "ĠThom": 4088,
      "Ġliving": 4089,
      "Ġonline": 4090,
      "ming": 4091,
      "Ġcritical": 4092,
      "ĠPort": 4093,
      "MP": 4094,
      "ĠRober": 4095,
      "'re": 4096,
      "Ġtelevision": 4097,
      "izations": 4098,
      "ĠBer": 4099,
      "Ġpref": 4100,
      "68": 4101,
      "ander": 4102,
      "can": 4103,
      "Ġimages": 4104,
      "ville": 4105,
      "long": 4106,
      "Ġinj": 4107,
      "Ġwhite": 4108,
      "ago": 4109,
      "Pe": 4110,
      "ously": 4111,
      "lymp": 4112,
      "level": 4113,
      "ifier": 4114,
      ")-": 4115,
      "Ġshare": 4116,
      "'$": 4117,
      "Ġtransfer": 4118,
      "ĠInstitute": 4119,
      "Ġinstit": 4120,
      "}}{\\": 4121,
      "ĠTest": 4122,
      "Ġveloc": 4123,
      "Ġcollection": 4124,
      "Ġforward": 4125,
      "ĠDon": 4126,
      "Since": 4127,
      "Ġlargest": 4128,
      "riate": 4129,
      "Ġwrote": 4130,
      "CE": 4131,
      "What": 4132,
      "Ġeconomic": 4133,
      "ĠAnt": 4134,
      "nav": 4135,
      "41": 4136,
      "Ġnight": 4137,
      "Ġpolice": 4138,
      "Ġfinancial": 4139,
      "Ġreturned": 4140,
      "ilton": 4141,
      "Ġpack": 4142,
      "apache": 4143,
      "Ġassist": 4144,
      "Ġroad": 4145,
      "Ġintroduced": 4146,
      "SP": 4147,
      "Ġdetails": 4148,
      "check": 4149,
      "Ġmother": 4150,
      "hspace": 4151,
      "Ġrepresentation": 4152,
      "ĠIsrael": 4153,
      "Ġsens": 4154,
      "Ġparts": 4155,
      "Ġsources": 4156,
      "ĠDiv": 4157,
      "ken": 4158,
      "Ġpage": 4159,
      "(-": 4160,
      "Ã³": 4161,
      "ĠRed": 4162,
      "~$": 4163,
      "Ġemer": 4164,
      "ĠOff": 4165,
      "Ġnumbers": 4166,
      "abs": 4167,
      "rief": 4168,
      "Ġarchitect": 4169,
      "bert": 4170,
      "Ġsimply": 4171,
      "Ġsure": 4172,
      "}-\\": 4173,
      "pret": 4174,
      "Ġthroughout": 4175,
      "ĠCup": 4176,
      "ĠNews": 4177,
      "Ġcred": 4178,
      "ĠStreet": 4179,
      "Ġestablish": 4180,
      "irtual": 4181,
      "ĠJust": 4182,
      "Ġmid": 4183,
      "ĠAssociation": 4184,
      "Ġelection": 4185,
      "create": 4186,
      "default": 4187,
      "roy": 4188,
      "Ġsecurity": 4189,
      "ync": 4190,
      "Ġdenote": 4191,
      "uffer": 4192,
      "ipal": 4193,
      "neq": 4194,
      "ean": 4195,
      "Ġwave": 4196,
      "ĠRich": 4197,
      "ilies": 4198,
      "umerate": 4199,
      "ĠJew": 4200,
      "Ġgrowth": 4201,
      "Ġgenerated": 4202,
      "ooth": 4203,
      "ĠAward": 4204,
      "58": 4205,
      "Ġdeep": 4206,
      "Ġflu": 4207,
      "ien": 4208,
      "OD": 4209,
      "lying": 4210,
      "Ġwebsite": 4211,
      "nes": 4212,
      "Ġexecut": 4213,
      "angle": 4214,
      "Ġresid": 4215,
      "Ser": 4216,
      "Ġten": 4217,
      "Ġface": 4218,
      "ĠFrance": 4219,
      "Ġmonth": 4220,
      "Ġ-\\": 4221,
      "Ġimmedi": 4222,
      "Group": 4223,
      "1996": 4224,
      "ĠCong": 4225,
      "Ġbecomes": 4226,
      "Ġalthough": 4227,
      "func": 4228,
      "57": 4229,
      "ĠRiver": 4230,
      "onic": 4231,
      "Ġcorrect": 4232,
      "No": 4233,
      "Ġtechnology": 4234,
      "bound": 4235,
      "Ġwriting": 4236,
      "Ġarticle": 4237,
      "ĠGeorge": 4238,
      "dag": 4239,
      "spec": 4240,
      "Ġprove": 4241,
      "fin": 4242,
      "Ġscen": 4243,
      "Ġadj": 4244,
      "ĠArch": 4245,
      "unch": 4246,
      "apping": 4247,
      "Ġmodern": 4248,
      "tes": 4249,
      "Ġappoint": 4250,
      "Ġobjects": 4251,
      "fill": 4252,
      "Ġhimself": 4253,
      "Ġrisk": 4254,
      "noindent": 4255,
      "fil": 4256,
      "Ġcampaign": 4257,
      "Ġdig": 4258,
      "ospital": 4259,
      "Ġbelieve": 4260,
      "ication": 4261,
      "Ġreve": 4262,
      "Ġbehind": 4263,
      "using": 4264,
      "Ġhttp": 4265,
      "ÃŃ": 4266,
      "range": 4267,
      "Ġgoal": 4268,
      "Ġtravel": 4269,
      "ĠHall": 4270,
      "do": 4271,
      "iation": 4272,
      "Ġsouth": 4273,
      "nov": 4274,
      "ĠCompany": 4275,
      "Ġoptim": 4276,
      "Ġcomponents": 4277,
      "Ġevolution": 4278,
      "|^": 4279,
      "wood": 4280,
      "pc": 4281,
      "Ġqual": 4282,
      "Ġactive": 4283,
      "Ġcharg": 4284,
      "Ed": 4285,
      "Ġapplied": 4286,
      "iments": 4287,
      "Ġmaximum": 4288,
      "ky": 4289,
      "Ġmag": 4290,
      "ĠUnion": 4291,
      "Ġdoesn": 4292,
      "model": 4293,
      "uge": 4294,
      "$}": 4295,
      ")}{": 4296,
      "Ġfood": 4297,
      "md": 4298,
      "Ġlegal": 4299,
      "dist": 4300,
      "1997": 4301,
      "Ġepis": 4302,
      "plication": 4303,
      "content": 4304,
      "Ġallowed": 4305,
      "dimensional": 4306,
      "Ġconver": 4307,
      "split": 4308,
      "Ġrot": 4309,
      "Ġbehavior": 4310,
      "ĠMal": 4311,
      "Ġlonger": 4312,
      "abled": 4313,
      "config": 4314,
      "Ġrecently": 4315,
      "87": 4316,
      "Ġgre": 4317,
      "approx": 4318,
      "\"\"": 4319,
      "Ġmagnetic": 4320,
      "rian": 4321,
      "ĠCons": 4322,
      "ocol": 4323,
      "Ġconstit": 4324,
      "aur": 4325,
      "ayout": 4326,
      "het": 4327,
      "enumerate": 4328,
      "hest": 4329,
      "Ġknowledge": 4330,
      "SC": 4331,
      "Ġword": 4332,
      "Ġdraw": 4333,
      "Ġdepart": 4334,
      "]\\": 4335,
      "efore": 4336,
      "scr": 4337,
      "itar": 4338,
      "Ġimplies": 4339,
      "End": 4340,
      "anning": 4341,
      "Ġallows": 4342,
      "Ġcapital": 4343,
      "apter": 4344,
      "mail": 4345,
      "Ġchoice": 4346,
      "Ġnature": 4347,
      "Ġstatement": 4348,
      "ĠResearch": 4349,
      "Ġseem": 4350,
      "Ġbooks": 4351,
      "Ġaccom": 4352,
      "user": 4353,
      "ĠMr": 4354,
      "Ġsus": 4355,
      "VID": 4356,
      "opl": 4357,
      "Item": 4358,
      "Ġstatus": 4359,
      "ĠAfrica": 4360,
      "Ġsmaller": 4361,
      "Ġsetting": 4362,
      "ios": 4363,
      "Ġschools": 4364,
      "Ġtool": 4365,
      "Sub": 4366,
      "orthern": 4367,
      "ĠInter": 4368,
      "Sup": 4369,
      "ya": 4370,
      "Ġremains": 4371,
      "outhern": 4372,
      "Ġdisplay": 4373,
      "print": 4374,
      "raz": 4375,
      "IL": 4376,
      "ĠChampionship": 4377,
      "ĠBel": 4378,
      "method": 4379,
      "Ġcit": 4380,
      "Ġelectron": 4381,
      "ĠÐ": 4382,
      "theorem": 4383,
      "Read": 4384,
      "ĠFil": 4385,
      "web": 4386,
      "ĉĠĠĠ": 4387,
      "Ġacqu": 4388,
      "block": 4389,
      "isation": 4390,
      "Ġnovel": 4391,
      "rec": 4392,
      "Ġdetermined": 4393,
      "itemize": 4394,
      "eck": 4395,
      "ĠFound": 4396,
      "rip": 4397,
      "agement": 4398,
      "Ġcontinued": 4399,
      "nce": 4400,
      "ado": 4401,
      "Ġcoe": 4402,
      "56": 4403,
      "icense": 4404,
      "start": 4405,
      "Ġfit": 4406,
      "rule": 4407,
      "Ġproced": 4408,
      "IF": 4409,
      "include": 4410,
      "osen": 4411,
      "Ġcivil": 4412,
      "Ġstreng": 4413,
      "Ġquite": 4414,
      "ĠGreen": 4415,
      "atur": 4416,
      "rim": 4417,
      "Ġconsum": 4418,
      "EE": 4419,
      "ĠPress": 4420,
      "Ġspectrum": 4421,
      "Ġrule": 4422,
      "stant": 4423,
      ")}$": 4424,
      "Ġyield": 4425,
      "net": 4426,
      "unt": 4427,
      "omial": 4428,
      "Table": 4429,
      "ĠOur": 4430,
      "Ġdouble": 4431,
      "Ġconcept": 4432,
      "Ġweak": 4433,
      "ĠScience": 4434,
      "Ġfire": 4435,
      "amily": 4436,
      "Ġtowards": 4437,
      "ĠDemocr": 4438,
      "Call": 4439,
      "Count": 4440,
      "Ġwalk": 4441,
      "ĠTherefore": 4442,
      "reme": 4443,
      "Ġoperations": 4444,
      "Ġupper": 4445,
      "writ": 4446,
      "Ġtro": 4447,
      "oring": 4448,
      "vention": 4449,
      "istan": 4450,
      "Ġpractice": 4451,
      "Ġscient": 4452,
      "Ġsupported": 4453,
      "Ġoperation": 4454,
      "Ge": 4455,
      "arr": 4456,
      "ĠArmy": 4457,
      "Pi": 4458,
      "oat": 4459,
      "Ġradio": 4460,
      "Ġboard": 4461,
      "emic": 4462,
      "men": 4463,
      "inese": 4464,
      "force": 4465,
      "mes": 4466,
      "ech": 4467,
      "ĠTV": 4468,
      "}/": 4469,
      "Ġprote": 4470,
      "Ġwife": 4471,
      "Ġbox": 4472,
      "Ġrelative": 4473,
      "Ġadm": 4474,
      "\\,\\": 4475,
      "ĠSome": 4476,
      "Ġchalleng": 4477,
      "ENT": 4478,
      "Ġuses": 4479,
      "png": 4480,
      "Pol": 4481,
      "Message": 4482,
      "NN": 4483,
      "Ġthemselves": 4484,
      "ansion": 4485,
      "Ġdecre": 4486,
      "Ġlimited": 4487,
      "Ġlocation": 4488,
      "Ġreference": 4489,
      "Ġstaff": 4490,
      "You": 4491,
      "case": 4492,
      "ĠTex": 4493,
      "ĠMart": 4494,
      "AG": 4495,
      "Ġadopt": 4496,
      "Ġmanagement": 4497,
      "Ġprofessional": 4498,
      "uated": 4499,
      "Ġneut": 4500,
      "Ġpattern": 4501,
      "Ġmaintain": 4502,
      "](": 4503,
      "Ã¼": 4504,
      "height": 4505,
      "auge": 4506,
      "sembly": 4507,
      "Ġrunning": 4508,
      "Ġansw": 4509,
      "((": 4510,
      "Vert": 4511,
      "ĠDan": 4512,
      "ĠCap": 4513,
      "ĠQue": 4514,
      "ĠNote": 4515,
      "!--": 4516,
      "multicol": 4517,
      "tem": 4518,
      "ston": 4519,
      "Ġborder": 4520,
      "Ġquality": 4521,
      "SU": 4522,
      "Ġwindow": 4523,
      "ometimes": 4524,
      "lt": 4525,
      "current": 4526,
      "Ġusually": 4527,
      "vis": 4528,
      "Ġexhib": 4529,
      "roller": 4530,
      "{}": 4531,
      "ecause": 4532,
      "ĠClass": 4533,
      "oice": 4534,
      "ĠPublic": 4535,
      "}}}": 4536,
      "Ġproducts": 4537,
      "Ġlevels": 4538,
      "}}_": 4539,
      "antic": 4540,
      "Fl": 4541,
      "ULL": 4542,
      "ĠMary": 4543,
      "zz": 4544,
      "1980": 4545,
      "ube": 4546,
      "Ġfollowed": 4547,
      "Ġpain": 4548,
      "pat": 4549,
      "Ġaltern": 4550,
      "93": 4551,
      "multicolumn": 4552,
      "usion": 4553,
      "vspace": 4554,
      "flow": 4555,
      "ifying": 4556,
      "Ġrock": 4557,
      "yr": 4558,
      "Ġindu": 4559,
      "omorphism": 4560,
      "Ġexpression": 4561,
      "Ġplaying": 4562,
      "count": 4563,
      "Ġfriend": 4564,
      "run": 4565,
      "PS": 4566,
      "ds": 4567,
      "Log": 4568,
      "oto": 4569,
      "Ġfight": 4570,
      "ĠGermany": 4571,
      "Ġalgebra": 4572,
      "Ġdesigned": 4573,
      "image": 4574,
      "Ġchurch": 4575,
      "Ġdam": 4576,
      "ental": 4577,
      "has": 4578,
      "Ġ\\;": 4579,
      "ĠCommission": 4580,
      "Ġlat": 4581,
      "Ġmind": 4582,
      "arter": 4583,
      "Ġsituation": 4584,
      "options": 4585,
      "Ġcopy": 4586,
      "icted": 4587,
      "Ġdomain": 4588,
      "Ass": 4589,
      "pected": 4590,
      "Model": 4591,
      "ĠSet": 4592,
      "Ġestimate": 4593,
      "Ġselected": 4594,
      "ĠSub": 4595,
      "Ġsaw": 4596,
      "Ġsurv": 4597,
      "ĠLou": 4598,
      "Ġavoid": 4599,
      "Ġquick": 4600,
      "Ġseems": 4601,
      "Ġcharge": 4602,
      "Ġrace": 4603,
      "ĠTable": 4604,
      "Ġmedical": 4605,
      "Ġcontact": 4606,
      "ria": 4607,
      "airs": 4608,
      "Ġple": 4609,
      "la": 4610,
      "ĠIN": 4611,
      "86": 4612,
      "ĠWork": 4613,
      "normal": 4614,
      "Ġlives": 4615,
      "ĠMex": 4616,
      "Ġagreement": 4617,
      "1995": 4618,
      "='": 4619,
      "Ġearlier": 4620,
      "ĠWhite": 4621,
      "Ġiter": 4622,
      "Ġremain": 4623,
      "Ġsignal": 4624,
      "ocation": 4625,
      "eles": 4626,
      "Ġhours": 4627,
      "Ġvillage": 4628,
      "--------------------------------": 4629,
      "Ġjoined": 4630,
      "####": 4631,
      "Ġratio": 4632,
      "hing": 4633,
      "Then": 4634,
      "Ġprimary": 4635,
      "Ġgave": 4636,
      "Ġinteresting": 4637,
      "turb": 4638,
      "ingu": 4639,
      "gence": 4640,
      "Ġir": 4641,
      "grad": 4642,
      "Ġscience": 4643,
      "izer": 4644,
      "alls": 4645,
      "Ġded": 4646,
      "Ġconnected": 4647,
      "Ġcoming": 4648,
      "ĠOlymp": 4649,
      "Ġstudent": 4650,
      "active": 4651,
      "Ġconclud": 4652,
      "Be": 4653,
      "fess": 4654,
      "94": 4655,
      "inct": 4656,
      "ĠChristian": 4657,
      "Ġlack": 4658,
      "iverse": 4659,
      "=\"../../": 4660,
      "ĠHere": 4661,
      "Ġbrother": 4662,
      "Ġrob": 4663,
      "eal": 4664,
      "Ġexcept": 4665,
      "Query": 4666,
      "Ġtransport": 4667,
      "ĠDay": 4668,
      "info": 4669,
      "Ġmode": 4670,
      "rier": 4671,
      "ducation": 4672,
      "Ġexpand": 4673,
      "title": 4674,
      "Ġrules": 4675,
      "Ġvelocity": 4676,
      "ĠSociety": 4677,
      "ĉĉĉĉĉĉ": 4678,
      "orage": 4679,
      "Ġargument": 4680,
      "Ġaim": 4681,
      "Ġways": 4682,
      "92": 4683,
      "ĠJack": 4684,
      "Ġhous": 4685,
      "win": 4686,
      "ympt": 4687,
      "Ġregions": 4688,
      "Ġvariables": 4689,
      "\\}$": 4690,
      "Ġax": 4691,
      "PI": 4692,
      "Ġprogress": 4693,
      "Ġconnection": 4694,
      "Ġforces": 4695,
      "ĠEar": 4696,
      "mathscr": 4697,
      "Ġthrow": 4698,
      "Ġvers": 4699,
      "Ġspeed": 4700,
      "ba": 4701,
      "ĠVir": 4702,
      "child": 4703,
      "Ð°": 4704,
      "ĠLeg": 4705,
      "Ġcause": 4706,
      "ĠNow": 4707,
      "erve": 4708,
      "91": 4709,
      "reate": 4710,
      "place": 4711,
      "Ġmovie": 4712,
      "allel": 4713,
      "ĠAfrican": 4714,
      "Ġillust": 4715,
      "Ġeight": 4716,
      "Ġwanted": 4717,
      "ĠGovernment": 4718,
      "module": 4719,
      "olar": 4720,
      "Ġheight": 4721,
      "Ġwor": 4722,
      "^-": 4723,
      "Ġattention": 4724,
      "Ġstream": 4725,
      "abase": 4726,
      "51": 4727,
      "Ġequivalent": 4728,
      "Ġasked": 4729,
      "PR": 4730,
      "Ġselect": 4731,
      "Ġprograms": 4732,
      "Ġfamilies": 4733,
      "Ġtreatment": 4734,
      "Ġdaugh": 4735,
      "Ġprint": 4736,
      "Property": 4737,
      "ĠMinister": 4738,
      "Ġseg": 4739,
      "Ġca": 4740,
      "Ġmeaning": 4741,
      "78": 4742,
      "Ġensure": 4743,
      "well": 4744,
      "Ent": 4745,
      "fect": 4746,
      "Ġago": 4747,
      "Ġearn": 4748,
      "fort": 4749,
      "Ġsufficient": 4750,
      "rd": 4751,
      "Ġ_{": 4752,
      ".[": 4753,
      "overy": 4754,
      "Ġfigure": 4755,
      "ĠMusic": 4756,
      "linear": 4757,
      "ĠTrump": 4758,
      "Ġmach": 4759,
      "ĠTexas": 4760,
      "Ġclasses": 4761,
      "otic": 4762,
      "bon": 4763,
      "ĠRev": 4764,
      "ributes": 4765,
      "Ġchannel": 4766,
      "ĠBook": 4767,
      "54": 4768,
      "76": 4769,
      "Ġinternal": 4770,
      "reedom": 4771,
      "Ġlooking": 4772,
      "ĠJer": 4773,
      "Ġcollect": 4774,
      "Ġautom": 4775,
      "52": 4776,
      "1994": 4777,
      "ka": 4778,
      "Ġparticularly": 4779,
      "Ġthreat": 4780,
      "Ġcommand": 4781,
      "ini": 4782,
      "Ġadapt": 4783,
      "Ġpreviously": 4784,
      "reek": 4785,
      "Ġvan": 4786,
      "lam": 4787,
      "Ġheart": 4788,
      "ĠOf": 4789,
      "So": 4790,
      "ĠRoman": 4791,
      "Ġdise": 4792,
      "rial": 4793,
      "Ġmale": 4794,
      "Ġnegative": 4795,
      "rong": 4796,
      "Sp": 4797,
      "Ġinside": 4798,
      "ln": 4799,
      "base": 4800,
      "ĠSpec": 4801,
      "SO": 4802,
      "Ġpeak": 4803,
      "Ġcast": 4804,
      "&&": 4805,
      "Ġveh": 4806,
      ")+": 4807,
      "igation": 4808,
      "Ġuncertain": 4809,
      "arks": 4810,
      "IV": 4811,
      "Ġcompleted": 4812,
      "Ġfederal": 4813,
      "Ġpresence": 4814,
      "Ġtour": 4815,
      "ĠAcadem": 4816,
      "Ġculture": 4817,
      "sey": 4818,
      "oding": 4819,
      "inos": 4820,
      "First": 4821,
      "contain": 4822,
      "Ġcele": 4823,
      "Ġmix": 4824,
      "Ġeigen": 4825,
      "Ġnation": 4826,
      "Ġhit": 4827,
      "Ġdark": 4828,
      "ĠBoard": 4829,
      "ĠSum": 4830,
      "Ġincreased": 4831,
      "stein": 4832,
      "ĠDi": 4833,
      "Ġbeginning": 4834,
      "53": 4835,
      "Ġtree": 4836,
      "Ġload": 4837,
      "ufact": 4838,
      "Ġsongs": 4839,
      "ĠCommittee": 4840,
      "Ġwoman": 4841,
      "||": 4842,
      "ĠSam": 4843,
      "ĠBay": 4844,
      "edy": 4845,
      "build": 4846,
      "Ġpassed": 4847,
      "Note": 4848,
      "Ġhol": 4849,
      "Ġjournal": 4850,
      "Ġessential": 4851,
      "Ġstudied": 4852,
      "Ġconsequ": 4853,
      ".$": 4854,
      "ros": 4855,
      "Ġfully": 4856,
      "ussian": 4857,
      "Ġprec": 4858,
      "Manager": 4859,
      "Ġanim": 4860,
      "Ġexam": 4861,
      "ĠYear": 4862,
      "Part": 4863,
      "isl": 4864,
      "DF": 4865,
      "Ġmarried": 4866,
      "ona": 4867,
      "Ġrow": 4868,
      "Ġsymbol": 4869,
      "Ġdiscussed": 4870,
      "Client": 4871,
      "texttt": 4872,
      "Ġteams": 4873,
      "Ġsoon": 4874,
      "arameter": 4875,
      "Ġdimension": 4876,
      "Ġtrade": 4877,
      "itable": 4878,
      "ĠGa": 4879,
      "ĠMichael": 4880,
      "Ġdeaths": 4881,
      "Ġprobably": 4882,
      "ĠFlor": 4883,
      "Ġbad": 4884,
      "NS": 4885,
      "Ġopened": 4886,
      "illing": 4887,
      "Ġ\\|": 4888,
      "Ġexplicit": 4889,
      "Ġbrought": 4890,
      "ĠRoyal": 4891,
      "ullet": 4892,
      "ĠChinese": 4893,
      "actory": 4894,
      "ĠMat": 4895,
      "isher": 4896,
      "ategy": 4897,
      "Ġchanged": 4898,
      "Ġanti": 4899,
      "edia": 4900,
      "ĠDuring": 4901,
      "Ġdrop": 4902,
      "Ġsociety": 4903,
      "stream": 4904,
      "Ġlaws": 4905,
      "omin": 4906,
      "Ġresources": 4907,
      "ĠOther": 4908,
      "ners": 4909,
      "eria": 4910,
      "Ġapprop": 4911,
      "liament": 4912,
      "Ġstarting": 4913,
      "Ġresulting": 4914,
      "Ġgenerally": 4915,
      "irit": 4916,
      "gt": 4917,
      "jo": 4918,
      "host": 4919,
      "Ġoption": 4920,
      "Theta": 4921,
      "ĠHistory": 4922,
      "\\'": 4923,
      "Ġgrant": 4924,
      "1970": 4925,
      "Ġsil": 4926,
      "Ġcharacters": 4927,
      "================": 4928,
      "ĠBill": 4929,
      "Ġmodule": 4930,
      "cel": 4931,
      "People": 4932,
      "ĠWil": 4933,
      "Ġ...": 4934,
      "Ġinterview": 4935,
      "page": 4936,
      "Ġpick": 4937,
      "1992": 4938,
      "Ġclassical": 4939,
      "])": 4940,
      "estival": 4941,
      "Ġeasy": 4942,
      "ĠTechn": 4943,
      "Ġgeomet": 4944,
      "ĠMus": 4945,
      "tical": 4946,
      "Ġdebut": 4947,
      "board": 4948,
      "ĠMet": 4949,
      "BA": 4950,
      "Ġappears": 4951,
      "OM": 4952,
      "core": 4953,
      "ĠSing": 4954,
      "Ġgetting": 4955,
      "term": 4956,
      "Ġones": 4957,
      "Ġfrequency": 4958,
      "Ġhot": 4959,
      "Ġexisting": 4960,
      "Ġseven": 4961,
      "ĠCongress": 4962,
      "Ġbool": 4963,
      "Ġplatform": 4964,
      "context": 4965,
      "CA": 4966,
      "Comm": 4967,
      "Ġformed": 4968,
      "Source": 4969,
      "Ġrecorded": 4970,
      "Ġstay": 4971,
      "bour": 4972,
      "Cell": 4973,
      "Bar": 4974,
      "ĠService": 4975,
      "}^{-": 4976,
      "Response": 4977,
      "Ġsubsequ": 4978,
      "Method": 4979,
      "OP": 4980,
      "ĠHen": 4981,
      "Ġsigned": 4982,
      "Ġjava": 4983,
      "oz": 4984,
      "Ð¾": 4985,
      "ĠMuseum": 4986,
      "Ġorganization": 4987,
      "Ġinterpret": 4988,
      "Ġinteraction": 4989,
      "Input": 4990,
      "google": 4991,
      "59": 4992,
      "crete": 4993,
      "Ġunits": 4994,
      "Ġforms": 4995,
      "Ġbur": 4996,
      "ĠRobert": 4997,
      "iece": 4998,
      "ĠBen": 4999,
      "Ġgalaxies": 5000,
      "Ġmarg": 5001,
      "Ġconserv": 5002,
      "ategor": 5003,
      "Ġdetermine": 5004,
      "ĠCOVID": 5005,
      "ference": 5006,
      "Ġoverall": 5007,
      "ĠDivision": 5008,
      "Now": 5009,
      "Ġstructures": 5010,
      "Ġnearly": 5011,
      "attice": 5012,
      "det": 5013,
      "ĠGreat": 5014,
      "Ġframework": 5015,
      "63": 5016,
      "sych": 5017,
      "Ġrap": 5018,
      "Ġactivities": 5019,
      "ĠTur": 5020,
      "Ġmeeting": 5021,
      "norm": 5022,
      "Ġvariable": 5023,
      "Ġsen": 5024,
      "Ġgirl": 5025,
      "Ġobservations": 5026,
      "prototype": 5027,
      "1993": 5028,
      "<\\": 5029,
      "Ġrequires": 5030,
      "Ġmovement": 5031,
      "shift": 5032,
      "soft": 5033,
      "}'": 5034,
      "History": 5035,
      "Ġcomment": 5036,
      "mercial": 5037,
      "72": 5038,
      "Ġminimum": 5039,
      "Ġappeared": 5040,
      "Ġinequ": 5041,
      "89": 5042,
      "Ġhope": 5043,
      "Ġplaces": 5044,
      "Ġfactors": 5045,
      "Ġgauge": 5046,
      "onom": 5047,
      "Ġscheme": 5048,
      "Ġbillion": 5049,
      "ias": 5050,
      "Ġhighest": 5051,
      "Ġnames": 5052,
      "Ġtrying": 5053,
      "iting": 5054,
      "Ġoperators": 5055,
      "Spec": 5056,
      "enge": 5057,
      "flict": 5058,
      "vement": 5059,
      "ĠGold": 5060,
      "idden": 5061,
      "Ġgrav": 5062,
      "Sim": 5063,
      "Ġsolid": 5064,
      "rep": 5065,
      "Ġmetric": 5066,
      "ĠOut": 5067,
      "di": 5068,
      "Ġdrug": 5069,
      "ĠCath": 5070,
      "minus": 5071,
      "ĠAustralian": 5072,
      "itter": 5073,
      "ĠĠĠĊ": 5074,
      "porary": 5075,
      "GL": 5076,
      "ĠMer": 5077,
      "alian": 5078,
      "ĉĠ": 5079,
      "subseteq": 5080,
      "Ġfa": 5081,
      "Ġrail": 5082,
      "ĠAlex": 5083,
      "_+": 5084,
      "ashed": 5085,
      "Ġlatter": 5086,
      "Ġflux": 5087,
      "hi": 5088,
      "ĠMiss": 5089,
      "Ġtim": 5090,
      "ĠThomas": 5091,
      "hy": 5092,
      "Ġderiv": 5093,
      "{$": 5094,
      "textrm": 5095,
      "Ġpurpose": 5096,
      "Ġsort": 5097,
      "resents": 5098,
      "ynomial": 5099,
      "iring": 5100,
      "ĠNor": 5101,
      "prod": 5102,
      "main": 5103,
      "({": 5104,
      "Ġbey": 5105,
      "Ġuniform": 5106,
      "doc": 5107,
      "empty": 5108,
      "Ab": 5109,
      "Ġpolitic": 5110,
      "rees": 5111,
      "ATE": 5112,
      "HT": 5113,
      "ĠÃ": 5114,
      "ĠMount": 5115,
      "aled": 5116,
      "ada": 5117,
      "ellar": 5118,
      "Che": 5119,
      "Ġleads": 5120,
      "Ġmemory": 5121,
      "local": 5122,
      "Ġcontribution": 5123,
      "Ġscreen": 5124,
      "Ġoffer": 5125,
      "Ġmotion": 5126,
      "fg": 5127,
      "Ġbelong": 5128,
      "Ġbeyond": 5129,
      "static": 5130,
      "Ġball": 5131,
      "Ġemission": 5132,
      "Color": 5133,
      "false": 5134,
      "underline": 5135,
      "Ġmus": 5136,
      "Ġstrategy": 5137,
      "Ġbirth": 5138,
      "Ġnothing": 5139,
      "Ġter": 5140,
      "uthors": 5141,
      "ayers": 5142,
      "FA": 5143,
      "Ġgreater": 5144,
      "su": 5145,
      "Ġpressure": 5146,
      "Ġexpansion": 5147,
      "Ġrelevant": 5148,
      "Ġquestions": 5149,
      "ĠCentral": 5150,
      "Ġability": 5151,
      "event": 5152,
      "Ġdescribe": 5153,
      "footnote": 5154,
      "ĠCarol": 5155,
      "Ġ$\\{": 5156,
      "Ġvolume": 5157,
      "char": 5158,
      "Ġdecided": 5159,
      "ĠFore": 5160,
      "ĠIsland": 5161,
      "Ġcontr": 5162,
      "ĠRoad": 5163,
      "maz": 5164,
      "ĠBank": 5165,
      "Ret": 5166,
      "Ġtheorem": 5167,
      "Ġcounter": 5168,
      "Ġidentity": 5169,
      "Ġdirected": 5170,
      "Ġshape": 5171,
      "Ġnorm": 5172,
      "Ġprevent": 5173,
      "ĠWestern": 5174,
      "Ġotherwise": 5175,
      "Ġey": 5176,
      "aud": 5177,
      "Ġworkers": 5178,
      "Ġinsp": 5179,
      "Ġoccup": 5180,
      "Ġforeign": 5181,
      "pp": 5182,
      "ĠKore": 5183,
      "Ġreduced": 5184,
      "sets": 5185,
      "dro": 5186,
      "Ġextended": 5187,
      "ĠSmith": 5188,
      "Ġrecomm": 5189,
      "EX": 5190,
      "ĠFoundation": 5191,
      "eler": 5192,
      "Head": 5193,
      "}}_{": 5194,
      "ĠAccording": 5195,
      "Ġreading": 5196,
      "84": 5197,
      "jection": 5198,
      "More": 5199,
      "Ġship": 5200,
      "ĠFrancis": 5201,
      "Ġstated": 5202,
      "Ġrates": 5203,
      "ĠMac": 5204,
      "Ġsmooth": 5205,
      "Ġmis": 5206,
      "Ġparents": 5207,
      "61": 5208,
      "Ext": 5209,
      "Ġroom": 5210,
      "dagger": 5211,
      "ĠBest": 5212,
      "Ġchoose": 5213,
      "Ġbal": 5214,
      "Ġleave": 5215,
      "Ġneighbor": 5216,
      "300": 5217,
      "Ġ($\\": 5218,
      "ether": 5219,
      "ĠFin": 5220,
      "Ġhighly": 5221,
      "ifold": 5222,
      "Ġkilled": 5223,
      "joy": 5224,
      "oting": 5225,
      "That": 5226,
      "Ġdescription": 5227,
      "velopment": 5228,
      "ĠInc": 5229,
      "ĠRussian": 5230,
      "ĠHamilton": 5231,
      "Ġcompact": 5232,
      "62": 5233,
      "arp": 5234,
      "ialog": 5235,
      "Ġmechanism": 5236,
      "1991": 5237,
      "next": 5238,
      "Ġanything": 5239,
      "Ġdram": 5240,
      "ĠSee": 5241,
      "abilities": 5242,
      "Ġhence": 5243,
      "82": 5244,
      "Ġ$|": 5245,
      "Ġinstall": 5246,
      "lections": 5247,
      "ĠSal": 5248,
      "Ġwide": 5249,
      "Ġderived": 5250,
      "fe": 5251,
      "TD": 5252,
      "ĠLat": 5253,
      "ibly": 5254,
      "Ġrepe": 5255,
      "83": 5256,
      "Ġult": 5257,
      "Ġarbit": 5258,
      "Ã¶": 5259,
      "Ġexactly": 5260,
      "ĠProv": 5261,
      "ĠEv": 5262,
      "Ġtransl": 5263,
      "Ġorigin": 5264,
      "Ġconnect": 5265,
      "Ġcore": 5266,
      "Ġcam": 5267,
      "Ġcollege": 5268,
      "Ġnoted": 5269,
      "iny": 5270,
      "Ġaffect": 5271,
      "}},": 5272,
      "Ġspecified": 5273,
      "ĠTom": 5274,
      "Ġreach": 5275,
      "ĠMont": 5276,
      "Ġprotect": 5277,
      "irus": 5278,
      "Ġeasily": 5279,
      "element": 5280,
      "ĠSecret": 5281,
      "Ġfriends": 5282,
      "spect": 5283,
      "package": 5284,
      "road": 5285,
      "Ðµ": 5286,
      "Ġfinally": 5287,
      "Ġdiagram": 5288,
      "ĠFlorida": 5289,
      "urrent": 5290,
      "Ġnoise": 5291,
      "ĠRem": 5292,
      "Ġproduce": 5293,
      "Ġestimated": 5294,
      "However": 5295,
      "Our": 5296,
      "Ġcluster": 5297,
      "ĠDel": 5298,
      "vest": 5299,
      "Ġrepresented": 5300,
      "81": 5301,
      "Ġhyp": 5302,
      "Ġcommunities": 5303,
      "Ġparticles": 5304,
      "Ġindividuals": 5305,
      "poses": 5306,
      "ensus": 5307,
      "Stream": 5308,
      "ĠScott": 5309,
      "arc": 5310,
      "Ġbasic": 5311,
      "db": 5312,
      "ams": 5313,
      "Ġcurve": 5314,
      "Ġobser": 5315,
      "ĠSte": 5316,
      "Ġcompl": 5317,
      "ulate": 5318,
      "Status": 5319,
      "Ġchosen": 5320,
      "Ġfun": 5321,
      "Ġcollabor": 5322,
      "Ġusers": 5323,
      "CP": 5324,
      "Ġprotected": 5325,
      "Ġprojects": 5326,
      "icago": 5327,
      "ĠMag": 5328,
      "ĠEducation": 5329,
      "Ġpanel": 5330,
      "Token": 5331,
      "Ġpen": 5332,
      "Ġcontinuous": 5333,
      "Ġsymmetry": 5334,
      "ĠĠĠĠĠĠĠĠĠĠĠĠĠĠĠĠĠ": 5335,
      "Ġleader": 5336,
      "stack": 5337,
      "ĠSur": 5338,
      ")|": 5339,
      "73": 5340,
      "war": 5341,
      "ĠProgram": 5342,
      "She": 5343,
      "Ġ$-": 5344,
      "Ġchem": 5345,
      "Ġprocesses": 5346,
      "Ġpurch": 5347,
      "Ġstories": 5348,
      "Ġfast": 5349,
      "raight": 5350,
      "ipp": 5351,
      "dev": 5352,
      "Ġitem": 5353,
      "rey": 5354,
      "Ġtrain": 5355,
      "column": 5356,
      "anned": 5357,
      "Ġdefe": 5358,
      "ĠMad": 5359,
      "Ġvariety": 5360,
      "ĠVirgin": 5361,
      "then": 5362,
      "ĠPost": 5363,
      "anced": 5364,
      "Ġparticle": 5365,
      "Ġwid": 5366,
      "Ġfair": 5367,
      "uns": 5368,
      "ĠMem": 5369,
      "Ġimprove": 5370,
      "riz": 5371,
      "inding": 5372,
      "Living": 5373,
      "ulture": 5374,
      "Ġapplications": 5375,
      "Ġteacher": 5376,
      "ewidth": 5377,
      "orial": 5378,
      "open": 5379,
      "Ġextra": 5380,
      "haps": 5381,
      "Ġspent": 5382,
      "anger": 5383,
      "conn": 5384,
      "oplus": 5385,
      "gn": 5386,
      "CL": 5387,
      "ĠAnn": 5388,
      "Ġ<<": 5389,
      "uations": 5390,
      "Ġcitiz": 5391,
      "Ġmajority": 5392,
      "400": 5393,
      "ĠCanadian": 5394,
      "Options": 5395,
      "vere": 5396,
      "EL": 5397,
      "Per": 5398,
      "iques": 5399,
      "ĠRad": 5400,
      "iller": 5401,
      "Ġlayer": 5402,
      "Ġinfluence": 5403,
      "ĠDirector": 5404,
      "ĠPet": 5405,
      "Ġste": 5406,
      "Ġeverything": 5407,
      "Ġnodes": 5408,
      "iral": 5409,
      "Ġexamples": 5410,
      "Ġunivers": 5411,
      "ubb": 5412,
      "ĠSl": 5413,
      "Ġcompletely": 5414,
      "sol": 5415,
      "Ġsometimes": 5416,
      "Ġactions": 5417,
      "TH": 5418,
      "gg": 5419,
      "Ġsomeone": 5420,
      "first": 5421,
      "Ġreached": 5422,
      "Ġslow": 5423,
      "asket": 5424,
      "rick": 5425,
      "Ġdaughter": 5426,
      "clos": 5427,
      "setminus": 5428,
      "Ġ-->": 5429,
      "diff": 5430,
      "MC": 5431,
      "aven": 5432,
      "Util": 5433,
      "undle": 5434,
      "FL": 5435,
      "Here": 5436,
      "xx": 5437,
      "Ġrepresents": 5438,
      "arameters": 5439,
      "ĠRel": 5440,
      "Ġsaying": 5441,
      "Ġweeks": 5442,
      "71": 5443,
      "ĠSk": 5444,
      "ĠJapanese": 5445,
      "SI": 5446,
      "Ġtraditional": 5447,
      "Dr": 5448,
      "Ġsch": 5449,
      "Ġeventually": 5450,
      "ĠAtt": 5451,
      "arant": 5452,
      "Ġscore": 5453,
      "Equal": 5454,
      "Ġuseful": 5455,
      "Ġpatients": 5456,
      "ĠJournal": 5457,
      "Ġwatch": 5458,
      "ĠSeries": 5459,
      "rence": 5460,
      "gent": 5461,
      "Ġkm": 5462,
      "Ġabsol": 5463,
      "ĠLand": 5464,
      "Ġactivity": 5465,
      "Ġacadem": 5466,
      "azine": 5467,
      "Next": 5468,
      "ĠTw": 5469,
      "Ġcos": 5470,
      "Ġsec": 5471,
      "cles": 5472,
      ">(": 5473,
      "Ġshift": 5474,
      "Ġapproximately": 5475,
      "Ġgrand": 5476,
      "aily": 5477,
      "Ġstd": 5478,
      "dec": 5479,
      "AAAA": 5480,
      "Ġhyper": 5481,
      "ĠJose": 5482,
      "Line": 5483,
      "Ġ]": 5484,
      "gu": 5485,
      "74": 5486,
      "Ġmiddle": 5487,
      "Ġelectric": 5488,
      "Ġopportunity": 5489,
      "Ġframe": 5490,
      "ĠUnder": 5491,
      "Net": 5492,
      "Ġupdate": 5493,
      "parent": 5494,
      "Ġmentioned": 5495,
      "ĠFurther": 5496,
      "ĠLouis": 5497,
      "Image": 5498,
      "ĠRob": 5499,
      "ĠAlthough": 5500,
      "ĠOffice": 5501,
      "Ġmanufact": 5502,
      "Ġserious": 5503,
      "Ġmeasures": 5504,
      "uls": 5505,
      "atre": 5506,
      "ĠReturn": 5507,
      "Ġdemand": 5508,
      "Ġconsistent": 5509,
      "\\}": 5510,
      "reshold": 5511,
      "urt": 5512,
      "ollowing": 5513,
      "Ġsteps": 5514,
      "ransp": 5515,
      "mas": 5516,
      "Ġaspect": 5517,
      "Ġcomparison": 5518,
      "Ġwriter": 5519,
      "wedge": 5520,
      "ilarly": 5521,
      "Oper": 5522,
      "OL": 5523,
      "Ġminor": 5524,
      "Ġvertex": 5525,
      "ropy": 5526,
      "'m": 5527,
      "cons": 5528,
      "ishes": 5529,
      "Ġresolution": 5530,
      "Ġinterval": 5531,
      "values": 5532,
      "Builder": 5533,
      "alo": 5534,
      "ĠClub": 5535,
      "Ġsports": 5536,
      "^{-\\": 5537,
      "UE": 5538,
      "Ġsector": 5539,
      "ĠMass": 5540,
      "BS": 5541,
      "69": 5542,
      "oral": 5543,
      "king": 5544,
      "PC": 5545,
      "_{(": 5546,
      "\\\"": 5547,
      "Ġsamples": 5548,
      "Ġworth": 5549,
      "post": 5550,
      "Ġdoc": 5551,
      "otion": 5552,
      "Ġactual": 5553,
      "Ġprem": 5554,
      "Ġupd": 5555,
      "Ġunderstanding": 5556,
      "Ġselection": 5557,
      "Ġefforts": 5558,
      "ternet": 5559,
      "79": 5560,
      "Ġclient": 5561,
      "Override": 5562,
      "Ġmount": 5563,
      "ĠNULL": 5564,
      "FT": 5565,
      "strong": 5566,
      "Ġcaused": 5567,
      "Ġdataset": 5568,
      "Ġetc": 5569,
      "Ġplant": 5570,
      "DA": 5571,
      "Ġgoes": 5572,
      "Ġformation": 5573,
      "Ġexperiments": 5574,
      "={": 5575,
      "Ġmur": 5576,
      "dir": 5577,
      "Ġconstrain": 5578,
      "ifically": 5579,
      "Ġmaps": 5580,
      "ĠCE": 5581,
      "Null": 5582,
      "*{": 5583,
      "tx": 5584,
      "Ġtherm": 5585,
      "ĠLos": 5586,
      "icated": 5587,
      "Ġ(-": 5588,
      "ĠRussia": 5589,
      "Ġenjoy": 5590,
      "gener": 5591,
      ")/": 5592,
      "Ġcontrast": 5593,
      "ua": 5594,
      "ĠIr": 5595,
      "ih": 5596,
      "akers": 5597,
      "Ġdead": 5598,
      "iency": 5599,
      "Ġprep": 5600,
      "MM": 5601,
      "Ġdynamics": 5602,
      "Ġblue": 5603,
      "inem": 5604,
      "1989": 5605,
      "Ġgeneration": 5606,
      "Ġpolynomial": 5607,
      "issions": 5608,
      "Ġplans": 5609,
      ";&": 5610,
      "oom": 5611,
      "Ġintegr": 5612,
      "ena": 5613,
      "target": 5614,
      "ĠAcademy": 5615,
      "ename": 5616,
      "ellig": 5617,
      "Ġequip": 5618,
      "Ġproceed": 5619,
      "quot": 5620,
      "Ġresol": 5621,
      "Ġimmediately": 5622,
      "Ġsrc": 5623,
      "Ġ~": 5624,
      "Ġmeasured": 5625,
      "iding": 5626,
      "riev": 5627,
      "Ġidentified": 5628,
      "ĠRock": 5629,
      "efined": 5630,
      "Ġexistence": 5631,
      "Ġformula": 5632,
      "ala": 5633,
      "Fr": 5634,
      "Instance": 5635,
      "Ġartists": 5636,
      "Function": 5637,
      "ĠOver": 5638,
      "1960": 5639,
      "Ġnetworks": 5640,
      "Ġreduce": 5641,
      "mission": 5642,
      "owers": 5643,
      "$_": 5644,
      "ĠTimes": 5645,
      "Ġresource": 5646,
      "Ġslight": 5647,
      "\\!\\!": 5648,
      "ĠTor": 5649,
      "Ġprison": 5650,
      "ĠWomen": 5651,
      "null": 5652,
      "definition": 5653,
      "Ġmomentum": 5654,
      "ĠSecond": 5655,
      "Ġ$[": 5656,
      "undred": 5657,
      "Ġvacc": 5658,
      "Ġincor": 5659,
      "append": 5660,
      "inite": 5661,
      "ani": 5662,
      "Ġboolean": 5663,
      "ita": 5664,
      "Ġassess": 5665,
      "_{{\\": 5666,
      "ĠKingdom": 5667,
      "Co": 5668,
      "Ġembedd": 5669,
      "Ġelected": 5670,
      "ĠRichard": 5671,
      "Off": 5672,
      "limits": 5673,
      "'ve": 5674,
      "Ġfailed": 5675,
      "Ġcop": 5676,
      "Ġfemale": 5677,
      "Ġconfiguration": 5678,
      "rl": 5679,
      "linewidth": 5680,
      "Ġreceive": 5681,
      "Ġbounded": 5682,
      "obile": 5683,
      "Ġartist": 5684,
      "ĠVict": 5685,
      "Ġign": 5686,
      "){\\": 5687,
      "Ġplane": 5688,
      "agraph": 5689,
      "uled": 5690,
      "Ġsquare": 5691,
      "ĠTime": 5692,
      "ĠPo": 5693,
      "ithub": 5694,
      "Ġarguments": 5695,
      "Ġreturns": 5696,
      "Ġruns": 5697,
      "tn": 5698,
      "Ġliterature": 5699,
      "ĠĠĠĠĠĠĠĠĠĠĠĠĠĠĠĠĠĠĠĠĠĠĠĠĠĠĠĠĠĠĠ": 5700,
      "Ġentry": 5701,
      "resh": 5702,
      "Ġspread": 5703,
      "example": 5704,
      "Ġextension": 5705,
      "Ġpolic": 5706,
      "ests": 5707,
      "aligned": 5708,
      "graph": 5709,
      "reland": 5710,
      "Ġtrust": 5711,
      "Ġfounded": 5712,
      "free": 5713,
      "*/": 5714,
      "Ġproviding": 5715,
      "Ġremaining": 5716,
      "process": 5717,
      "ĠOffic": 5718,
      "ĠĠĠĠĠĠĠĠĠĠĠĠĠĠ": 5719,
      "Ġcarry": 5720,
      "Ġbrief": 5721,
      "client": 5722,
      "andemic": 5723,
      "ĠGrand": 5724,
      "Ġapproximation": 5725,
      "Ġfavor": 5726,
      "While": 5727,
      "Act": 5728,
      "Pre": 5729,
      "Ġradius": 5730,
      "cknow": 5731,
      "bin": 5732,
      "colon": 5733,
      "Ġdiscussion": 5734,
      "Ġstri": 5735,
      "Ġresponsible": 5736,
      "ĠHill": 5737,
      "ĠMost": 5738,
      "Ġperturb": 5739,
      "ĠTown": 5740,
      "_{-": 5741,
      "Ġmoving": 5742,
      "amental": 5743,
      "rant": 5744,
      "Ġstrateg": 5745,
      "ĠFrank": 5746,
      "Ġconsists": 5747,
      "ĠSuper": 5748,
      "CK": 5749,
      "ervices": 5750,
      "Ġmicro": 5751,
      "ivial": 5752,
      "Ġconstr": 5753,
      ")\\,": 5754,
      "Ġwait": 5755,
      "Style": 5756,
      "Ġcoupling": 5757,
      "Ġanc": 5758,
      "ĠIS": 5759,
      "Ġsoftware": 5760,
      "ĠPeter": 5761,
      "Ġleaders": 5762,
      "Ġminutes": 5763,
      "ERT": 5764,
      "erman": 5765,
      "prec": 5766,
      "Base": 5767,
      "ĠUN": 5768,
      "Ġclimate": 5769,
      "Pos": 5770,
      "ĠCharles": 5771,
      "Ġlisted": 5772,
      "Ġlif": 5773,
      "stract": 5774,
      "Ġfeed": 5775,
      "west": 5776,
      "Ġfix": 5777,
      "ĠProfess": 5778,
      "Ġinstr": 5779,
      "Ġharm": 5780,
      "ĠObject": 5781,
      "Ġrespond": 5782,
      "ĠForm": 5783,
      "Ġincome": 5784,
      "Ġappropriate": 5785,
      "Ġgold": 5786,
      "Ġhum": 5787,
      "Sy": 5788,
      "ĠChicago": 5789,
      "ancy": 5790,
      "ĠSocial": 5791,
      "ĠHistor": 5792,
      "ĠAre": 5793,
      "anta": 5794,
      "Ġregist": 5795,
      "Ġdeliver": 5796,
      "RA": 5797,
      "comple": 5798,
      "arning": 5799,
      "deg": 5800,
      "Ġerrors": 5801,
      "Ġesc": 5802,
      "Ġstraight": 5803,
      "itation": 5804,
      "Ġchart": 5805,
      "1988": 5806,
      "Ġreligious": 5807,
      "Date": 5808,
      "Ġnumerical": 5809,
      "Ġpolar": 5810,
      "Ġinform": 5811,
      "Ġdevice": 5812,
      "EC": 5813,
      "Attribute": 5814,
      "astern": 5815,
      "),\\": 5816,
      "uster": 5817,
      "Ġamb": 5818,
      "Ġreflect": 5819,
      "Ġgiving": 5820,
      "Ġconflict": 5821,
      "Ġpriv": 5822,
      "Ð¸": 5823,
      "venue": 5824,
      "fit": 5825,
      "Ġperfect": 5826,
      "perties": 5827,
      "ĠParis": 5828,
      "ows": 5829,
      "Ġappointed": 5830,
      "Ġplaced": 5831,
      "Ġprocedure": 5832,
      "sg": 5833,
      "Ġsimpl": 5834,
      "bigg": 5835,
      "ĠData": 5836,
      "Ġstore": 5837,
      "apers": 5838,
      "Ġeth": 5839,
      "LT": 5840,
      "Ġsurround": 5841,
      "oma": 5842,
      "Ġcorpor": 5843,
      "Sec": 5844,
      "âĢĿ.": 5845,
      "_*": 5846,
      "Ġencour": 5847,
      "ura": 5848,
      "thlet": 5849,
      "lig": 5850,
      "Ġsignificantly": 5851,
      "query": 5852,
      "Ġtheore": 5853,
      "Ġrecords": 5854,
      "Ġclearly": 5855,
      "real": 5856,
      "Ġcapacity": 5857,
      "Run": 5858,
      "write": 5859,
      "olf": 5860,
      "inv": 5861,
      "Start": 5862,
      "pdate": 5863,
      "ĠBrown": 5864,
      "Ġpurs": 5865,
      "len": 5866,
      "Ġnom": 5867,
      "Ġmission": 5868,
      "break": 5869,
      "only": 5870,
      "Ġspat": 5871,
      "Ġjoint": 5872,
      "chers": 5873,
      "Ġcru": 5874,
      "Eng": 5875,
      "ernel": 5876,
      "Char": 5877,
      "ĠLife": 5878,
      "anish": 5879,
      "eger": 5880,
      "Ġsecret": 5881,
      "Ġsummer": 5882,
      "github": 5883,
      "css": 5884,
      "Ġprofile": 5885,
      "Ġ;": 5886,
      "stitution": 5887,
      "User": 5888,
      "iant": 5889,
      "oder": 5890,
      ":\\": 5891,
      "Ġbuildings": 5892,
      "These": 5893,
      "ĠOper": 5894,
      "lib": 5895,
      "inner": 5896,
      "select": 5897,
      "~$\\": 5898,
      "Ġminim": 5899,
      "ĠAN": 5900,
      "coming": 5901,
      "Ġheavy": 5902,
      "ructure": 5903,
      "Ġutil": 5904,
      "Ġ((": 5905,
      "$(": 5906,
      "osing": 5907,
      "Ġlattice": 5908,
      "itled": 5909,
      "pg": 5910,
      "Ġ}\\": 5911,
      "Ġshowed": 5912,
      "=(": 5913,
      "Ġcommercial": 5914,
      "Em": 5915,
      "EM": 5916,
      "she": 5917,
      "arams": 5918,
      "Ġthous": 5919,
      "otal": 5920,
      "etime": 5921,
      "Ġauthors": 5922,
      "=\"+": 5923,
      "ĠTwo": 5924,
      "Ġepisode": 5925,
      "Fe": 5926,
      "ĠAngeles": 5927,
      "ĠCatholic": 5928,
      "ĠMoreover": 5929,
      "Ġreplaced": 5930,
      "subfigure": 5931,
      "ket": 5932,
      "black": 5933,
      "bottom": 5934,
      "Ġ+=": 5935,
      "Ġpoor": 5936,
      "Ġvirtual": 5937,
      "Ġparties": 5938,
      "Ġspectral": 5939,
      "Ġcontributions": 5940,
      "Ġcouple": 5941,
      "Ġfourth": 5942,
      "Ġgreen": 5943,
      "Comp": 5944,
      "ĠEnd": 5945,
      "ĠOpen": 5946,
      "Eq": 5947,
      "FI": 5948,
      "Ġextends": 5949,
      "Post": 5950,
      "za": 5951,
      "Ġseparate": 5952,
      "CS": 5953,
      "Ġconcent": 5954,
      "Ġcelebr": 5955,
      "Ġplot": 5956,
      "anda": 5957,
      "Ġcategory": 5958,
      "Ġextrem": 5959,
      "Ġroot": 5960,
      "Ġphil": 5961,
      "ĠArts": 5962,
      "ano": 5963,
      "Ġimag": 5964,
      "cho": 5965,
      "Ġdisease": 5966,
      "Ġsimulations": 5967,
      "Ġcritic": 5968,
      "search": 5969,
      "Ġdepends": 5970,
      "Ġmissing": 5971,
      "ror": 5972,
      "asure": 5973,
      "Ġiniti": 5974,
      "Ġamplit": 5975,
      "Ġcatch": 5976,
      "ollary": 5977,
      "ĠProposition": 5978,
      "Ġalleg": 5979,
      "roduction": 5980,
      "icate": 5981,
      "zero": 5982,
      "ĠInst": 5983,
      "Ġturned": 5984,
      "namespace": 5985,
      "ĠJud": 5986,
      "ĠCamp": 5987,
      "Ġer": 5988,
      "Ġdomin": 5989,
      "Ġsurpr": 5990,
      "Ġadvant": 5991,
      "ypes": 5992,
      "Can": 5993,
      "ĠAtl": 5994,
      ",\\,": 5995,
      "ils": 5996,
      "ĠBre": 5997,
      "'\\": 5998,
      "adata": 5999,
      "Ġplays": 6000,
      "Ġcalculated": 6001,
      "Ġaccuracy": 6002,
      "ircraft": 6003,
      "Ġhop": 6004,
      "Ġnuclear": 6005,
      "Ġvote": 6006,
      "oration": 6007,
      "ĠAlso": 6008,
      "Ġdual": 6009,
      "arian": 6010,
      "Ġdistinct": 6011,
      "Ġcosts": 6012,
      "ĠFe": 6013,
      "Ġchain": 6014,
      "Ġ|\\": 6015,
      "ĠHence": 6016,
      "asketball": 6017,
      "rie": 6018,
      "Ġcoach": 6019,
      "Ġwest": 6020,
      "Ġstrict": 6021,
      "Ġexperimental": 6022,
      "Ġ!==": 6023,
      "while": 6024,
      "final": 6025,
      "ĠSund": 6026,
      "ĠGames": 6027,
      "Ġshared": 6028,
      "button": 6029,
      "icine": 6030,
      "args": 6031,
      "Ġwhom": 6032,
      "Ġeveryone": 6033,
      "Ġformat": 6034,
      "ĠForce": 6035,
      "produ": 6036,
      "rypt": 6037,
      "Ġserve": 6038,
      "textsc": 6039,
      "Ġspaces": 6040,
      "FC": 6041,
      "1987": 6042,
      "DP": 6043,
      "ĠZeal": 6044,
      "=\"#": 6045,
      "omic": 6046,
      "pass": 6047,
      "Ġfreedom": 6048,
      "Ġdivid": 6049,
      "yles": 6050,
      "Ġprice": 6051,
      "Ġwind": 6052,
      "Ġeconomy": 6053,
      "ĠDen": 6054,
      "orney": 6055,
      "sur": 6056,
      "Ġpark": 6057,
      "Ġquickly": 6058,
      "Handler": 6059,
      "ouble": 6060,
      "Ġcorre": 6061,
      "house": 6062,
      "Ġdetect": 6063,
      "ĠPeople": 6064,
      "Ġdecay": 6065,
      "Ġcarried": 6066,
      "Ġsyn": 6067,
      "erc": 6068,
      "fficients": 6069,
      "number": 6070,
      "Ġsafety": 6071,
      "udget": 6072,
      "ĠMexico": 6073,
      "Ġincreases": 6074,
      "ĠDec": 6075,
      "iable": 6076,
      "Ġquery": 6077,
      "Ġorganizations": 6078,
      "ĠPre": 6079,
      "erred": 6080,
      ")}(": 6081,
      "Ġflat": 6082,
      "Ġfraction": 6083,
      "Default": 6084,
      "Ġfilter": 6085,
      "ONT": 6086,
      "ancing": 6087,
      "Ġoptimal": 6088,
      "igan": 6089,
      "Ġintegral": 6090,
      "ker": 6091,
      "Ġcompetition": 6092,
      "Ġhelped": 6093,
      "Ġquarter": 6094,
      "Ġshot": 6095,
      "shire": 6096,
      "My": 6097,
      "GB": 6098,
      "Ġinterface": 6099,
      "Ġmeasurements": 6100,
      "icity": 6101,
      "Ġgrowing": 6102,
      "Ġexception": 6103,
      "othes": 6104,
      "Ġobvious": 6105,
      "PP": 6106,
      "ĠZealand": 6107,
      "Mem": 6108,
      "riage": 6109,
      "acement": 6110,
      "igration": 6111,
      "ĠItalian": 6112,
      ">&": 6113,
      "Ġrise": 6114,
      "ĠArab": 6115,
      "Back": 6116,
      "Ġoriginally": 6117,
      "car": 6118,
      "Ġregime": 6119,
      "Ġassumption": 6120,
      "Ġsatisfies": 6121,
      "ette": 6122,
      "Ġeast": 6123,
      "ĠIreland": 6124,
      "rics": 6125,
      "enty": 6126,
      "Ġcontaining": 6127,
      "inf": 6128,
      "atically": 6129,
      "Ġbeaut": 6130,
      "ĠPenn": 6131,
      "Ġ{@": 6132,
      "Ġformal": 6133,
      "standing": 6134,
      "ĠBusiness": 6135,
      "Ġmanager": 6136,
      "ĠIll": 6137,
      "Ġisn": 6138,
      "background": 6139,
      "Ġrestrict": 6140,
      "anges": 6141,
      "CR": 6142,
      "ugin": 6143,
      "ĠVirginia": 6144,
      "Ġfirm": 6145,
      "Mar": 6146,
      "ca": 6147,
      "Ġcompute": 6148,
      "1986": 6149,
      "$^{-": 6150,
      "Ġenter": 6151,
      "Ġâ": 6152,
      "Ġmut": 6153,
      "Ġbeg": 6154,
      "Ġrelatively": 6155,
      "Ġfelt": 6156,
      "Content": 6157,
      "Child": 6158,
      "lock": 6159,
      "Ġreports": 6160,
      "Ġcorresponds": 6161,
      "Ġinequality": 6162,
      "Ġdigital": 6163,
      "Ġconstraints": 6164,
      "Ġdespite": 6165,
      "Ġbottom": 6166,
      "iler": 6167,
      "Ġleague": 6168,
      "olk": 6169,
      ".~(\\": 6170,
      "Ġpositions": 6171,
      "Ġexec": 6172,
      "Ġfinished": 6173,
      "dx": 6174,
      "ĠLu": 6175,
      "ĠOF": 6176,
      "expected": 6177,
      "Ã¤": 6178,
      "Ġmole": 6179,
      "Gener": 6180,
      "Ġpandemic": 6181,
      "Ġcandidate": 6182,
      "Ġcorrelation": 6183,
      "Ġreasons": 6184,
      "Ġannual": 6185,
      "Ġvertices": 6186,
      "bi": 6187,
      "Number": 6188,
      "erved": 6189,
      "ĠMel": 6190,
      "ĠBur": 6191,
      "Ġidentify": 6192,
      "ĠOh": 6193,
      "ĠGeorg": 6194,
      "Ġsn": 6195,
      "num": 6196,
      "ĠHenry": 6197,
      "related": 6198,
      "'_": 6199,
      "Point": 6200,
      "ola": 6201,
      "Ġfarm": 6202,
      "ĠFr": 6203,
      "ĠBig": 6204,
      "ĠKe": 6205,
      "ĠDevelopment": 6206,
      "Ġurl": 6207,
      "bullet": 6208,
      "ologies": 6209,
      "ĠHel": 6210,
      "rolled": 6211,
      "Ġpeace": 6212,
      "uty": 6213,
      "ĠIran": 6214,
      "}}(\\": 6215,
      "Ġhundred": 6216,
      "ĠDu": 6217,
      "=-": 6218,
      "ĠIts": 6219,
      "elled": 6220,
      "orning": 6221,
      "PT": 6222,
      "py": 6223,
      ")_{": 6224,
      "subsubsection": 6225,
      "Ġguitar": 6226,
      "cr": 6227,
      "ptr": 6228,
      "ĠRecords": 6229,
      "imeq": 6230,
      "Ġwrong": 6231,
      "Block": 6232,
      "ĠChild": 6233,
      "adding": 6234,
      "ĠRead": 6235,
      "Ġexchange": 6236,
      "Ġ(\"": 6237,
      "simeq": 6238,
      "ĠIslam": 6239,
      "=\"../../../../": 6240,
      "Buffer": 6241,
      "Ġpret": 6242,
      "ĠStar": 6243,
      "ĠChief": 6244,
      "sect": 6245,
      ")^{\\": 6246,
      "Ġcomputer": 6247,
      "Ġstrugg": 6248,
      "});": 6249,
      "greg": 6250,
      "Ġpropag": 6251,
      "push": 6252,
      "Ġextract": 6253,
      "ki": 6254,
      "Ġ&=&": 6255,
      "Ġnotice": 6256,
      "Ġgets": 6257,
      "}%": 6258,
      "Ġ+\\": 6259,
      "Ġscene": 6260,
      "km": 6261,
      "seud": 6262,
      "Ġgenerate": 6263,
      "rices": 6264,
      "1984": 6265,
      "Rem": 6266,
      "Ġremove": 6267,
      "Ġadministration": 6268,
      "umni": 6269,
      "hab": 6270,
      "Ġvisual": 6271,
      "perp": 6272,
      "ĠID": 6273,
      "Ġanswer": 6274,
      "NA": 6275,
      "Ġexpressed": 6276,
      "gorithms": 6277,
      "php": 6278,
      "Ġstrength": 6279,
      "Ġcombination": 6280,
      "Ġimplementation": 6281,
      "cs": 6282,
      "Ġapproaches": 6283,
      "risis": 6284,
      "Ġbg": 6285,
      "ĠTra": 6286,
      "hemat": 6287,
      "Ġphen": 6288,
      "Ġbranch": 6289,
      "illa": 6290,
      "Ġinner": 6291,
      "orter": 6292,
      "returns": 6293,
      "Rep": 6294,
      "udd": 6295,
      "ĠEarth": 6296,
      "Ġscatter": 6297,
      "alysis": 6298,
      "ĠSpanish": 6299,
      "Ġmaster": 6300,
      "Ġachieve": 6301,
      "Ġunion": 6302,
      "unched": 6303,
      "PA": 6304,
      "ĠAmericans": 6305,
      "Ġended": 6306,
      "âĢĿ,": 6307,
      "Ġopening": 6308,
      "Ġofficer": 6309,
      "\"),": 6310,
      "request": 6311,
      "description": 6312,
      "azz": 6313,
      "fully": 6314,
      "osoph": 6315,
      "Ġofficials": 6316,
      "ĠHuman": 6317,
      "law": 6318,
      "Ġpaid": 6319,
      "1985": 6320,
      "ĠLord": 6321,
      "Ġnone": 6322,
      "Ġcells": 6323,
      "lines": 6324,
      "Ġraised": 6325,
      "Top": 6326,
      "obj": 6327,
      "Ġeditor": 6328,
      "Ġdistributed": 6329,
      "ĠProject": 6330,
      "SA": 6331,
      "font": 6332,
      "ĠEqu": 6333,
      "{$\\": 6334,
      "}$-": 6335,
      "asion": 6336,
      "iled": 6337,
      "Box": 6338,
      "aval": 6339,
      "cd": 6340,
      "ao": 6341,
      "Ġbus": 6342,
      "ribe": 6343,
      "Ġfoot": 6344,
      "Ġdisk": 6345,
      "java": 6346,
      "IA": 6347,
      "Ġremained": 6348,
      "eds": 6349,
      "Ġscalar": 6350,
      "Ġsust": 6351,
      "Ġedges": 6352,
      "Ġmostly": 6353,
      "YPE": 6354,
      "Ġcombined": 6355,
      "arse": 6356,
      "ny": 6357,
      "Ġoffers": 6358,
      "Ġtensor": 6359,
      "Ġexcit": 6360,
      "Ġexc": 6361,
      "Ġstock": 6362,
      "Ġfif": 6363,
      "ĠLake": 6364,
      "Ġrapid": 6365,
      "unities": 6366,
      "ĠMo": 6367,
      "ependence": 6368,
      "sche": 6369,
      "usband": 6370,
      "ĠCD": 6371,
      "Ġinterested": 6372,
      "property": 6373,
      "Ġdestroy": 6374,
      "Ġcard": 6375,
      "Ġconvert": 6376,
      "mt": 6377,
      "Ġwasn": 6378,
      "Ġtru": 6379,
      "ĠReview": 6380,
      "Ġvac": 6381,
      "Ġtesting": 6382,
      "Ġdetection": 6383,
      "Te": 6384,
      "Figure": 6385,
      "Ġreferred": 6386,
      "Ġgoals": 6387,
      "Met": 6388,
      "oday": 6389,
      "Ġlived": 6390,
      "Ġclaims": 6391,
      "QL": 6392,
      "Ġtrial": 6393,
      "server": 6394,
      "Ġhospital": 6395,
      "razil": 6396,
      "arser": 6397,
      "ĠEngine": 6398,
      "Ġattract": 6399,
      "forall": 6400,
      "enced": 6401,
      "NO": 6402,
      "Ġintroduce": 6403,
      "ifies": 6404,
      "alg": 6405,
      "sto": 6406,
      "Ġtechniques": 6407,
      "Ġassumed": 6408,
      "Ġcultural": 6409,
      "Ġpiece": 6410,
      "Ġcallback": 6411,
      "Filter": 6412,
      "ĠSecretary": 6413,
      "dim": 6414,
      "TO": 6415,
      "Ne": 6416,
      "ĠPan": 6417,
      "ĠEX": 6418,
      "ĠVictor": 6419,
      "weight": 6420,
      "last": 6421,
      "Ġremoved": 6422,
      "cases": 6423,
      "ĠEconom": 6424,
      "ĠRail": 6425,
      "inity": 6426,
      "mic": 6427,
      "ogene": 6428,
      "Ġ\\(": 6429,
      "fs": 6430,
      "aser": 6431,
      "rich": 6432,
      "Ġcoefficients": 6433,
      "True": 6434,
      "ĠJewish": 6435,
      "Ġvictim": 6436,
      "gest": 6437,
      "Ġagent": 6438,
      "find": 6439,
      "Ġhistorical": 6440,
      "Ġangle": 6441,
      "Ġsenior": 6442,
      "Ġalbums": 6443,
      "ĠAdd": 6444,
      "ĠLong": 6445,
      "ilib": 6446,
      "Ġimportance": 6447,
      "mann": 6448,
      "Ġpure": 6449,
      "tings": 6450,
      "Ġhar": 6451,
      "Ġsurvey": 6452,
      "Ġefficient": 6453,
      "Ġdecom": 6454,
      "Ġcitizens": 6455,
      "Aut": 6456,
      "after": 6457,
      "Ġ->": 6458,
      "ĠMartin": 6459,
      "Ġtypically": 6460,
      "Ġestimates": 6461,
      "ategories": 6462,
      "Ġsal": 6463,
      "$).": 6464,
      "ĠHon": 6465,
      "Ġviolence": 6466,
      "rowser": 6467,
      "Ġconstructed": 6468,
      ")^{-": 6469,
      "Label": 6470,
      "Ġarrest": 6471,
      "dep": 6472,
      "~~~~": 6473,
      "src": 6474,
      "Ġdu": 6475,
      "Ġthrows": 6476,
      "$$\\": 6477,
      "udes": 6478,
      "Ġmill": 6479,
      "According": 6480,
      "inger": 6481,
      "Ġalone": 6482,
      "irmed": 6483,
      "1000": 6484,
      "Ġmachine": 6485,
      "Ġsynt": 6486,
      "ĠCarolina": 6487,
      "Ð½": 6488,
      "Ġcompare": 6489,
      "ĠEach": 6490,
      "\").": 6491,
      "osh": 6492,
      "emb": 6493,
      "Rel": 6494,
      "ĠVer": 6495,
      "Action": 6496,
      "Arg": 6497,
      "LS": 6498,
      "////////////////": 6499,
      "Right": 6500,
      "hom": 6501,
      "Ġstable": 6502,
      "Ġdistributions": 6503,
      "Ġletter": 6504,
      "Ġsimulation": 6505,
      "ĠGen": 6506,
      "................": 6507,
      "secut": 6508,
      "ski": 6509,
      "ÑĤ": 6510,
      "Ġopin": 6511,
      "Ġhoriz": 6512,
      "esh": 6513,
      "Ġbgcolor": 6514,
      "([": 6515,
      "Ġresear": 6516,
      "Ġcert": 6517,
      "Ġitems": 6518,
      "Ġmodes": 6519,
      "icens": 6520,
      "imb": 6521,
      "TP": 6522,
      "ls": 6523,
      "going": 6524,
      "matrix": 6525,
      "Ġexternal": 6526,
      "poss": 6527,
      "neg": 6528,
      "Ġdifferences": 6529,
      "Ġrac": 6530,
      "ĠIss": 6531,
      "Ġbehavi": 6532,
      "Ġshoot": 6533,
      "Ġstress": 6534,
      "system": 6535,
      "vex": 6536,
      "ression": 6537,
      "ultural": 6538,
      "Ġoil": 6539,
      "Check": 6540,
      "option": 6541,
      "Ġfundamental": 6542,
      "Ġtransformation": 6543,
      "Ġnet": 6544,
      "Ġmassive": 6545,
      "Resource": 6546,
      "unit": 6547,
      "ĠLie": 6548,
      "tag": 6549,
      "pective": 6550,
      "ĠBi": 6551,
      "Ġcreating": 6552,
      "require": 6553,
      "endif": 6554,
      "Ġbuff": 6555,
      "Ġsites": 6556,
      "aa": 6557,
      "Ġsexual": 6558,
      "itors": 6559,
      "Ġarrang": 6560,
      "Ġorient": 6561,
      "ĠJes": 6562,
      ">>": 6563,
      "rieved": 6564,
      "Ġforced": 6565,
      "1983": 6566,
      "Ġcorn": 6567,
      "ĠFilm": 6568,
      "Ġque": 6569,
      "Ġnumerous": 6570,
      "Ġdependence": 6571,
      "cript": 6572,
      "Ġchief": 6573,
      "SD": 6574,
      "Ġdetailed": 6575,
      "ĠMax": 6576,
      "Ġorb": 6577,
      "anged": 6578,
      "{{": 6579,
      "Ġpull": 6580,
      "____": 6581,
      "Ġinvariant": 6582,
      "Ġcurves": 6583,
      "rons": 6584,
      "Ġpolicies": 6585,
      "Ġcommission": 6586,
      "phas": 6587,
      "Equals": 6588,
      "Ġfine": 6589,
      "Hel": 6590,
      "Ġvs": 6591,
      "Ġadult": 6592,
      "AME": 6593,
      "ella": 6594,
      "_.": 6595,
      "1950": 6596,
      "ĠTop": 6597,
      "Ġemployees": 6598,
      "ĠSun": 6599,
      "ĠType": 6600,
      "Ġinnov": 6601,
      "Ġideas": 6602,
      "Ġawarded": 6603,
      "ato": 6604,
      "Ġcloud": 6605,
      "Ġarchitecture": 6606,
      "Ġheard": 6607,
      "Ġmaterials": 6608,
      "Ġstellar": 6609,
      "rize": 6610,
      "itness": 6611,
      "Ġsplit": 6612,
      "oviet": 6613,
      "150": 6614,
      "Ġbecoming": 6615,
      "Ġthreshold": 6616,
      "Ġcrim": 6617,
      "ĠÂ£": 6618,
      "Ġliber": 6619,
      "Ġspirit": 6620,
      "ĠMur": 6621,
      "Ġalt": 6622,
      "ĠCr": 6623,
      "track": 6624,
      "Ġfamous": 6625,
      "Ġguarant": 6626,
      "Ġinteractions": 6627,
      "Ġalternative": 6628,
      "ĠTheir": 6629,
      "Ġsales": 6630,
      "Ġempty": 6631,
      "Ġbill": 6632,
      "Ġtests": 6633,
      "displaystyle": 6634,
      "Ġcities": 6635,
      "Ġaw": 6636,
      "ĠUp": 6637,
      "}^*": 6638,
      "rot": 6639,
      "ĠLee": 6640,
      "Ġrecall": 6641,
      "Window": 6642,
      "Ġinvestment": 6643,
      "room": 6644,
      "ĠSol": 6645,
      "Ġblood": 6646,
      "ounds": 6647,
      "Ġcommit": 6648,
      "ocket": 6649,
      "ĠWell": 6650,
      "John": 6651,
      "Ġpairs": 6652,
      "wp": 6653,
      "Last": 6654,
      "Prov": 6655,
      "ĠItaly": 6656,
      "rium": 6657,
      "Ġleadership": 6658,
      "ĠUSA": 6659,
      "ĠScot": 6660,
      "Desc": 6661,
      "ensions": 6662,
      "Ġslightly": 6663,
      "ponents": 6664,
      "Ġdenotes": 6665,
      "ĠMain": 6666,
      "json": 6667,
      "Case": 6668,
      "Ġclean": 6669,
      "ĠWood": 6670,
      "Ġtruth": 6671,
      "ulty": 6672,
      "1982": 6673,
      "mitted": 6674,
      "Component": 6675,
      "Ġweb": 6676,
      "ĠEven": 6677,
      "ĠAsia": 6678,
      "emporary": 6679,
      "Ġaircraft": 6680,
      "elli": 6681,
      "ĠJoseph": 6682,
      "Ġbattle": 6683,
      "ĠST": 6684,
      "nel": 6685,
      "prob": 6686,
      "Version": 6687,
      ")_": 6688,
      "Ġaware": 6689,
      "Ġemp": 6690,
      "ĠCast": 6691,
      "Ġrequirements": 6692,
      "Ġquas": 6693,
      "\\_": 6694,
      "Ġuniversity": 6695,
      "dat": 6696,
      "agonal": 6697,
      "INT": 6698,
      "status": 6699,
      "claim": 6700,
      "Thus": 6701,
      "Ġolder": 6702,
      "Ġabsor": 6703,
      "Ġsingular": 6704,
      "contin": 6705,
      "ĠFort": 6706,
      "Ġcalls": 6707,
      "ainer": 6708,
      "ĠMil": 6709,
      "Ġachieved": 6710,
      "BO": 6711,
      "Ġcalc": 6712,
      "Ġunknown": 6713,
      "estic": 6714,
      "ĠSil": 6715,
      "Tag": 6716,
      "elete": 6717,
      "kin": 6718,
      "Ġproved": 6719,
      "icket": 6720,
      "kl": 6721,
      "Ġcomputed": 6722,
      "Do": 6723,
      "pers": 6724,
      "pmatrix": 6725,
      "Ġjoin": 6726,
      "yan": 6727,
      "Format": 6728,
      "Ġhusband": 6729,
      "Ġgap": 6730,
      "Max": 6731,
      "Ġarbitrary": 6732,
      "Ġincorpor": 6733,
      "Ġsampl": 6734,
      "Ġstrongly": 6735,
      "Ġonto": 6736,
      "Ġparallel": 6737,
      "Ġspectra": 6738,
      "Factory": 6739,
      "ifications": 6740,
      "Ġvoice": 6741,
      "apped": 6742,
      "kins": 6743,
      "ĠCam": 6744,
      "amely": 6745,
      "ĠJustice": 6746,
      "Ġcontained": 6747,
      "ester": 6748,
      "Link": 6749,
      "Ġshowing": 6750,
      ";</": 6751,
      "va": 6752,
      "Ġregarding": 6753,
      ")\\\\": 6754,
      "Ġsegment": 6755,
      "ĠYoung": 6756,
      "ĠFestival": 6757,
      "Ġanalog": 6758,
      "ĠJo": 6759,
      "ĠColumb": 6760,
      "Min": 6761,
      "aver": 6762,
      "Ġgalaxy": 6763,
      "pendix": 6764,
      "ĠMany": 6765,
      "Ġ\"\"\"": 6766,
      "Ġfunding": 6767,
      "ĠField": 6768,
      "ABLE": 6769,
      "ĠTHE": 6770,
      "iano": 6771,
      "aren": 6772,
      "DB": 6773,
      "Ġthr": 6774,
      "Ġpoly": 6775,
      "Ġdepartment": 6776,
      "Ġclin": 6777,
      "acific": 6778,
      "even": 6779,
      "stances": 6780,
      "multi": 6781,
      "Ġfaith": 6782,
      "1979": 6783,
      "Task": 6784,
      "care": 6785,
      "Length": 6786,
      "Ġgrid": 6787,
      "newcommand": 6788,
      "Ġinteger": 6789,
      "}}^": 6790,
      "annels": 6791,
      ")}{\\": 6792,
      "ulk": 6793,
      "Ġpropos": 6794,
      "Ġlearned": 6795,
      "langu": 6796,
      "Ġhousehold": 6797,
      "ĠMos": 6798,
      "ĠHig": 6799,
      "iling": 6800,
      "Ġfeatured": 6801,
      "Ġreform": 6802,
      "Load": 6803,
      "ĠNS": 6804,
      "Ġknew": 6805,
      "Ġoffered": 6806,
      "Ġterrit": 6807,
      "Ġassign": 6808,
      "Ġmess": 6809,
      "Ġserver": 6810,
      "ĠNetwork": 6811,
      "GC": 6812,
      "odot": 6813,
      "Ġwinning": 6814,
      "Ġrare": 6815,
      "ansas": 6816,
      "Work": 6817,
      "nership": 6818,
      "ÑĢ": 6819,
      "oston": 6820,
      "isters": 6821,
      "ĠBob": 6822,
      "Ġcontinues": 6823,
      "ĠOld": 6824,
      "ĠBritain": 6825,
      "viation": 6826,
      "Ġphenomen": 6827,
      "Ġcycle": 6828,
      "ĠSu": 6829,
      "^{+": 6830,
      "istical": 6831,
      "ishop": 6832,
      "Ġtypical": 6833,
      "Ġproport": 6834,
      "Ġalgorithms": 6835,
      "ME": 6836,
      "Ġchallenge": 6837,
      "El": 6838,
      "ĠLiber": 6839,
      "Sche": 6840,
      "Ġspatial": 6841,
      "akistan": 6842,
      "LP": 6843,
      "construct": 6844,
      "Web": 6845,
      "Ġaxis": 6846,
      "ĠHaw": 6847,
      "Ġcommunication": 6848,
      "omorphic": 6849,
      "Ġvary": 6850,
      "IO": 6851,
      "ĠAut": 6852,
      "Ġissued": 6853,
      "Ġ=\\": 6854,
      "Ġtoward": 6855,
      "Don": 6856,
      "Ġpowerful": 6857,
      "header": 6858,
      "Ġmusical": 6859,
      "Other": 6860,
      "Ġofficers": 6861,
      "images": 6862,
      "Ġfiles": 6863,
      "ĠJohnson": 6864,
      "Ġclassification": 6865,
      "ĠGood": 6866,
      "Ġring": 6867,
      "Ġspeak": 6868,
      "Ġlaunched": 6869,
      "Ġhandle": 6870,
      "ERR": 6871,
      "Ġtasks": 6872,
      "uing": 6873,
      "Further": 6874,
      "ĠIII": 6875,
      "DS": 6876,
      "Ġcool": 6877,
      "Ġexplained": 6878,
      "oving": 6879,
      "Ġdecades": 6880,
      "Ġoffset": 6881,
      "Ġcoast": 6882,
      "project": 6883,
      "Ġdivision": 6884,
      "Ġpicture": 6885,
      "Ġcriminal": 6886,
      "icrosoft": 6887,
      "Ġreduction": 6888,
      "pton": 6889,
      "Ġmunic": 6890,
      "urban": 6891,
      "})$.": 6892,
      "Ġcircum": 6893,
      "remove": 6894,
      "ĠParliament": 6895,
      "ĠBecause": 6896,
      "Create": 6897,
      "aters": 6898,
      "rical": 6899,
      "ĠNone": 6900,
      "Ġstations": 6901,
      "Ġuns": 6902,
      "inet": 6903,
      "Ġhappen": 6904,
      "ĠSunday": 6905,
      "utch": 6906,
      "ady": 6907,
      "ĠSummer": 6908,
      "Ġlab": 6909,
      "Ġfailure": 6910,
      "ORT": 6911,
      "Ġquad": 6912,
      "Us": 6913,
      "ĠStep": 6914,
      "Ġsea": 6915,
      "_-": 6916,
      "acter": 6917,
      "Ġfans": 6918,
      "1981": 6919,
      "=\"../": 6920,
      "ĠEU": 6921,
      "posite": 6922,
      "ĠTim": 6923,
      "attr": 6924,
      "ĠFootball": 6925,
      "Ġpurposes": 6926,
      "ĠDet": 6927,
      "cknowled": 6928,
      "vol": 6929,
      "gate": 6930,
      "ployment": 6931,
      "vector": 6932,
      "private": 6933,
      "Ġmainly": 6934,
      "ebug": 6935,
      "abil": 6936,
      "ĉĠĠĠĠĠĠĠ": 6937,
      "Ġdepth": 6938,
      "HS": 6939,
      "Ġmatches": 6940,
      "elligence": 6941,
      "ĠOrder": 6942,
      "iana": 6943,
      "ĠMiddle": 6944,
      "Ġcentre": 6945,
      "Ġanyone": 6946,
      "Ġbenefits": 6947,
      "ĠLove": 6948,
      "ĠGL": 6949,
      "front": 6950,
      "Ġmasses": 6951,
      "Ġmeasurement": 6952,
      "Ġtourn": 6953,
      "ĠCivil": 6954,
      "Ġactor": 6955,
      "They": 6956,
      "Ġideal": 6957,
      "ART": 6958,
      "Ġodd": 6959,
      "Ġflag": 6960,
      "po": 6961,
      "ĠJim": 6962,
      "Ġdefend": 6963,
      "ĠAff": 6964,
      "Ġprotection": 6965,
      "ĠOp": 6966,
      "Ġbinary": 6967,
      "(&": 6968,
      "Ġ$$": 6969,
      "ĠBas": 6970,
      "riday": 6971,
      "Ġdegrees": 6972,
      "Ġcancer": 6973,
      "Ġoptical": 6974,
      "ĠBuild": 6975,
      "Ġpsych": 6976,
      "Ġloop": 6977,
      "Ġexecutive": 6978,
      "Ġfinding": 6979,
      "bel": 6980,
      "TV": 6981,
      "Ġchallenges": 6982,
      "Ġhydro": 6983,
      "Ġadopted": 6984,
      "Ġlatest": 6985,
      "Ġut": 6986,
      "Ġobserve": 6987,
      "RL": 6988,
      "airman": 6989,
      "Gl": 6990,
      "ĠSwed": 6991,
      "ĠServices": 6992,
      "ailed": 6993,
      "actor": 6994,
      "Ġsend": 6995,
      "Ġhappened": 6996,
      "cean": 6997,
      "Ġtouch": 6998,
      "yer": 6999,
      "tri": 7000,
      "tic": 7001,
      "raq": 7002,
      "language": 7003,
      "aylor": 7004,
      "Ġpoll": 7005,
      "uries": 7006,
      "Ġnine": 7007,
      "icks": 7008,
      "Ġjourn": 7009,
      "Ġnative": 7010,
      "ĠKn": 7011,
      "ilation": 7012,
      "bas": 7013,
      "Ġ[]": 7014,
      "ĠPlan": 7015,
      ")$-": 7016,
      "Ġinvestigation": 7017,
      "Ġbenefit": 7018,
      "Ġkept": 7019,
      "\\|_{": 7020,
      "allery": 7021,
      "ĠWal": 7022,
      "iki": 7023,
      "Ġresidents": 7024,
      "etween": 7025,
      "enth": 7026,
      "Ġconsidering": 7027,
      "Ġfocused": 7028,
      "Ġcoordinates": 7029,
      "Ġsupply": 7030,
      "Ġtor": 7031,
      "ĠOlympics": 7032,
      "---": 7033,
      "Ġsqu": 7034,
      "Ġpi": 7035,
      "Ġking": 7036,
      "igger": 7037,
      "Ġobj": 7038,
      "Ġmixed": 7039,
      "Ġprinciple": 7040,
      "del": 7041,
      "Ġsymmetric": 7042,
      "Ġroute": 7043,
      "Ġtrained": 7044,
      "CON": 7045,
      "ĠHome": 7046,
      "Ġoverl": 7047,
      "'}": 7048,
      "ĠFederal": 7049,
      "cope": 7050,
      "else": 7051,
      "orig": 7052,
      "Ġandroid": 7053,
      "Ġindicates": 7054,
      "Me": 7055,
      "Ġhands": 7056,
      "vania": 7057,
      "Ġordered": 7058,
      "Ġtend": 7059,
      "Ġlock": 7060,
      "Ġsubset": 7061,
      "Ġens": 7062,
      "Ġapparent": 7063,
      "adow": 7064,
      "Ġinstitutions": 7065,
      "120": 7066,
      "remark": 7067,
      "SON": 7068,
      "Ġsinger": 7069,
      "Ġlabor": 7070,
      "Ġlum": 7071,
      "Ġsession": 7072,
      "Ġperhaps": 7073,
      "Des": 7074,
      "Ġisland": 7075,
      "Ġreality": 7076,
      "Ġenvironmental": 7077,
      "Ġ${": 7078,
      "mc": 7079,
      ":(": 7080,
      "ĠBoth": 7081,
      "Ġoccurs": 7082,
      "ĠJac": 7083,
      "Ġnewsp": 7084,
      "Ġshock": 7085,
      "Ġsemi": 7086,
      "Ġreson": 7087,
      "ported": 7088,
      "ĠWeb": 7089,
      "faces": 7090,
      "Ġacademic": 7091,
      "Ġleaving": 7092,
      "Ġemphas": 7093,
      "Ġchance": 7094,
      "Ġdistingu": 7095,
      "eli": 7096,
      "mapsto": 7097,
      "Ġyields": 7098,
      "cale": 7099,
      "odies": 7100,
      "Section": 7101,
      "ĠMa": 7102,
      "Ġran": 7103,
      "ĠManagement": 7104,
      "Ġvoc": 7105,
      "Page": 7106,
      "Ġsections": 7107,
      "Ġappearance": 7108,
      "Init": 7109,
      "Ġbelieved": 7110,
      "Ġadministr": 7111,
      "sign": 7112,
      "xml": 7113,
      "Ġcovered": 7114,
      "otted": 7115,
      "Ġpolitics": 7116,
      "Mon": 7117,
      "Car": 7118,
      "Ġsubstant": 7119,
      "des": 7120,
      "idel": 7121,
      "Ġhuge": 7122,
      "output": 7123,
      "Ġexplain": 7124,
      "ĠGaussian": 7125,
      "Ġpartial": 7126,
      "lease": 7127,
      "Ġconducted": 7128,
      "1978": 7129,
      "inder": 7130,
      "Ġinfr": 7131,
      "Ġtrend": 7132,
      "ĠGal": 7133,
      "Hz": 7134,
      "${": 7135,
      "nergy": 7136,
      "ĠLog": 7137,
      "wan": 7138,
      "1976": 7139,
      "Ġdelay": 7140,
      "Ġmatrices": 7141,
      "oded": 7142,
      "Am": 7143,
      "istance": 7144,
      "entry": 7145,
      "During": 7146,
      "Ġsched": 7147,
      "Ġtried": 7148,
      "ĠAwards": 7149,
      "Ġinitially": 7150,
      "anks": 7151,
      "Ġbusinesses": 7152,
      "hbar": 7153,
      "Valid": 7154,
      "igr": 7155,
      "Ġacts": 7156,
      "inst": 7157,
      "Ġsafe": 7158,
      "ko": 7159,
      "Ġscope": 7160,
      "Ġ$.": 7161,
      "ĠBrazil": 7162,
      "ĠLibrary": 7163,
      "step": 7164,
      "zer": 7165,
      "Output": 7166,
      "plications": 7167,
      "Ġoperating": 7168,
      "INE": 7169,
      "gypt": 7170,
      "update": 7171,
      "ĠSenate": 7172,
      "ĠHamiltonian": 7173,
      "Return": 7174,
      "Ġadvantage": 7175,
      "should": 7176,
      "ĠHead": 7177,
      "dule": 7178,
      "Ġauthority": 7179,
      "Ġindeed": 7180,
      "ĠĠĠĠĠĠĠĠĊ": 7181,
      "Ġindicate": 7182,
      "Ġattacks": 7183,
      "uous": 7184,
      "$;": 7185,
      "ponential": 7186,
      "ĠCorpor": 7187,
      "ĠTre": 7188,
      "ographic": 7189,
      "ĠJones": 7190,
      "Cons": 7191,
      "Ġplanning": 7192,
      "close": 7193,
      "Ġnucle": 7194,
      "second": 7195,
      "PO": 7196,
      "++)": 7197,
      "Ġweap": 7198,
      "condition": 7199,
      "ĠProfessor": 7200,
      "ĠNavy": 7201,
      "author": 7202,
      "Ġpaint": 7203,
      "syl": 7204,
      "ĠTechnology": 7205,
      "}}^{": 7206,
      "Ġtechnical": 7207,
      "ĠMuslim": 7208,
      "mem": 7209,
      "ĠAcc": 7210,
      "MB": 7211,
      "iful": 7212,
      "ilibrium": 7213,
      "Ġasympt": 7214,
      "float": 7215,
      "Ġrough": 7216,
      "rawn": 7217,
      "1972": 7218,
      "atalog": 7219,
      "format": 7220,
      "Ġauto": 7221,
      "rank": 7222,
      "Ġdiscovered": 7223,
      "Ġdrive": 7224,
      "SR": 7225,
      "ted": 7226,
      "ĠJul": 7227,
      "ĠFund": 7228,
      "Ġagreed": 7229,
      "1975": 7230,
      "Ġaffected": 7231,
      "Ġlimits": 7232,
      "Ġbroadcast": 7233,
      "Ġcrisis": 7234,
      "disc": 7235,
      "ĠValley": 7236,
      "TC": 7237,
      "Ġchemical": 7238,
      "ĠEmp": 7239,
      "MR": 7240,
      "SL": 7241,
      "Cor": 7242,
      "Ġneighborhood": 7243,
      "ibr": 7244,
      "leep": 7245,
      "nam": 7246,
      "1977": 7247,
      "Ġraise": 7248,
      "Select": 7249,
      "itan": 7250,
      "Ġacceler": 7251,
      "desc": 7252,
      "ĠDemocratic": 7253,
      "Ġbudget": 7254,
      "iate": 7255,
      "ĠKar": 7256,
      "scill": 7257,
      "Ġroll": 7258,
      "Ġdeveloping": 7259,
      "called": 7260,
      "Writ": 7261,
      "Ġsatisfy": 7262,
      "Ġpretty": 7263,
      "Ġtransp": 7264,
      "high": 7265,
      "hbox": 7266,
      "ĠOl": 7267,
      ")</": 7268,
      "tree": 7269,
      "Ġlies": 7270,
      "Ġcreation": 7271,
      "Ġconvers": 7272,
      "ĠWay": 7273,
      "ĠAssembly": 7274,
      "(_": 7275,
      "ĠSpe": 7276,
      "ĠSupreme": 7277,
      "ulf": 7278,
      "ĠStat": 7279,
      "ashion": 7280,
      "Ġbrand": 7281,
      "NR": 7282,
      "ĠTer": 7283,
      "Ġfear": 7284,
      "Ġmask": 7285,
      "istent": 7286,
      "Ġmanifold": 7287,
      "Ġcat": 7288,
      "hens": 7289,
      "ora": 7290,
      "Ġconsult": 7291,
      "clusive": 7292,
      "1974": 7293,
      "Ġmagnitude": 7294,
      "pop": 7295,
      "Ġwall": 7296,
      "ĠAdminist": 7297,
      "Ġclaimed": 7298,
      "./": 7299,
      "Ġwood": 7300,
      "Ġcov": 7301,
      "ĠRights": 7302,
      "anging": 7303,
      "Ġdemocr": 7304,
      "hr": 7305,
      "ĠFace": 7306,
      "Ñģ": 7307,
      "ĠSoviet": 7308,
      "Ġspeech": 7309,
      "Ġnor": 7310,
      "Bo": 7311,
      "Ġstudio": 7312,
      "Ġforest": 7313,
      "Ġagree": 7314,
      "iced": 7315,
      "low": 7316,
      "ĠNorthern": 7317,
      "inate": 7318,
      "Ġremark": 7319,
      "Ġcircle": 7320,
      "ifact": 7321,
      "Ġgain": 7322,
      "Ġmargin": 7323,
      "mass": 7324,
      "hem": 7325,
      "krain": 7326,
      "roph": 7327,
      "Ġsuggested": 7328,
      "Dec": 7329,
      ":\"": 7330,
      "Ġobservation": 7331,
      "uler": 7332,
      "\\{\\": 7333,
      "Ġowner": 7334,
      "Ġswitch": 7335,
      "[\"": 7336,
      "Ġviews": 7337,
      "rat": 7338,
      "ockey": 7339,
      "IST": 7340,
      "Ġwriters": 7341,
      "ryst": 7342,
      "onal": 7343,
      "proposition": 7344,
      "adium": 7345,
      "ĠHot": 7346,
      "Ġmorph": 7347,
      "ĠSar": 7348,
      "ĠBase": 7349,
      "dl": 7350,
      "Ġwild": 7351,
      "ĠCre": 7352,
      "cat": 7353,
      "frame": 7354,
      "Ġtheoretical": 7355,
      "two": 7356,
      "Ġadding": 7357,
      "ĠGlobal": 7358,
      "$~": 7359,
      "ĠSecurity": 7360,
      "ĠInformation": 7361,
      "LASS": 7362,
      "VER": 7363,
      "FR": 7364,
      "ĠLin": 7365,
      "arden": 7366,
      "NE": 7367,
      "Ġentered": 7368,
      "rome": 7369,
      "mond": 7370,
      "ested": 7371,
      "'ll": 7372,
      "}({\\": 7373,
      "ĠLicense": 7374,
      "found": 7375,
      "ova": 7376,
      "Ġscript": 7377,
      "ĠIraq": 7378,
      "Ġhear": 7379,
      "Ġfunds": 7380,
      "mosp": 7381,
      "Results": 7382,
      "Ġss": 7383,
      "sole": 7384,
      "sylvania": 7385,
      "android": 7386,
      "ĠTem": 7387,
      ")},": 7388,
      "Theorem": 7389,
      "Ġcounty": 7390,
      "okes": 7391,
      "Ġjobs": 7392,
      "chen": 7393,
      "ĠFinally": 7394,
      "riend": 7395,
      "Ġelim": 7396,
      "aints": 7397,
      "ontal": 7398,
      "herent": 7399,
      "Ġmiles": 7400,
      "Ġedition": 7401,
      "Ġvectors": 7402,
      "ĠTour": 7403,
      "ĠRegister": 7404,
      "apse": 7405,
      "ĠWilliams": 7406,
      "Ġscientific": 7407,
      "Ġfacilities": 7408,
      "Ġscattering": 7409,
      "1973": 7410,
      "Ġmanner": 7411,
      "Ġcandidates": 7412,
      "aved": 7413,
      "Ġopportunities": 7414,
      "Tem": 7415,
      "Ġconference": 7416,
      "Ġcomputation": 7417,
      "Ġcrime": 7418,
      "Ġattended": 7419,
      "imer": 7420,
      "DO": 7421,
      "Ġphysics": 7422,
      "Ġsuggests": 7423,
      "Ġplanet": 7424,
      "Ġener": 7425,
      "afe": 7426,
      "Ġmeant": 7427,
      "ĠSouthern": 7428,
      "ĠDev": 7429,
      "ĠCommunity": 7430,
      "Ġtools": 7431,
      "Up": 7432,
      "ĠSpecial": 7433,
      "ras": 7434,
      "Ġvehicle": 7435,
      "imately": 7436,
      "older": 7437,
      "Ġacting": 7438,
      "tik": 7439,
      "Ġalumni": 7440,
      "tool": 7441,
      "Ġtag": 7442,
      "typ": 7443,
      "Ġdifferential": 7444,
      "Ġprocessing": 7445,
      "Ġcharged": 7446,
      "Ġpush": 7447,
      "Ġpartner": 7448,
      "Ġsomew": 7449,
      "ĠRE": 7450,
      "ture": 7451,
      "Ġthick": 7452,
      "ĠBoston": 7453,
      "eller": 7454,
      "Ġclusters": 7455,
      "show": 7456,
      "ĠSpain": 7457,
      "Ġabsolute": 7458,
      "ĠCentre": 7459,
      "astructure": 7460,
      "1968": 7461,
      "Ġinterests": 7462,
      "cut": 7463,
      "PL": 7464,
      "dem": 7465,
      "Ġwidely": 7466,
      "unct": 7467,
      "ĠFurthermore": 7468,
      "Gu": 7469,
      "ĠCross": 7470,
      "Ġready": 7471,
      "AV": 7472,
      "ĠPakistan": 7473,
      "ĠMond": 7474,
      "Nav": 7475,
      "ima": 7476,
      "Ġregional": 7477,
      "Ġsettings": 7478,
      "Width": 7479,
      "Ġintended": 7480,
      "ĠKh": 7481,
      "ĠIrish": 7482,
      "Ġpartition": 7483,
      "Ġstatistics": 7484,
      "\"]": 7485,
      "ĠStand": 7486,
      "ĠYour": 7487,
      "Listener": 7488,
      "Mode": 7489,
      "such": 7490,
      "ql": 7491,
      "ynamic": 7492,
      "'(": 7493,
      "ĠTeam": 7494,
      "instance": 7495,
      "itage": 7496,
      "ĠSpring": 7497,
      "eless": 7498,
      "Ġdraft": 7499,
      "ĠCamb": 7500,
      "Ġarticles": 7501,
      "Ġconclude": 7502,
      "Ġterror": 7503,
      "Ġisol": 7504,
      "asy": 7505,
      "Ġbright": 7506,
      "Ġadvoc": 7507,
      "Ã¨": 7508,
      "Ġconvergence": 7509,
      ")+\\": 7510,
      "Ġmarriage": 7511,
      "aturday": 7512,
      "filter": 7513,
      "Ġ^": 7514,
      "Ġlibrary": 7515,
      "ĠHy": 7516,
      "REF": 7517,
      "Ġminimal": 7518,
      "Ġriver": 7519,
      "ĠShow": 7520,
      "Ġsouthern": 7521,
      "Ġpet": 7522,
      "ĠAssert": 7523,
      "ATION": 7524,
      "Ġefficiency": 7525,
      "ĠMedia": 7526,
      "ĠGreek": 7527,
      "Ġdiagn": 7528,
      "urance": 7529,
      "Ġattend": 7530,
      "Ġowned": 7531,
      "Ġdiss": 7532,
      "Ġpoet": 7533,
      "Ġcredit": 7534,
      "ĠStudies": 7535,
      "Some": 7536,
      "Ġdimensions": 7537,
      "Ġreject": 7538,
      "ĠUs": 7539,
      "Ġlen": 7540,
      "Port": 7541,
      "eries": 7542,
      "icip": 7543,
      "Ġuint": 7544,
      "URL": 7545,
      "stra": 7546,
      "Ġrevealed": 7547,
      "inations": 7548,
      "Ġoscill": 7549,
      "&=&": 7550,
      "Ġ{};": 7551,
      "ĠSaint": 7552,
      "Ġdocuments": 7553,
      "adel": 7554,
      "Ġmanaged": 7555,
      "Ġorders": 7556,
      "riptor": 7557,
      "Sch": 7558,
      "Ġsolar": 7559,
      "Ġevol": 7560,
      "Ġallowing": 7561,
      "ĠVis": 7562,
      "hent": 7563,
      "ĠFriday": 7564,
      "aped": 7565,
      "heast": 7566,
      "PRO": 7567,
      "Ġunless": 7568,
      "ĠGoogle": 7569,
      "Ġaudience": 7570,
      "ĠInit": 7571,
      "abeth": 7572,
      "Ġdepending": 7573,
      "UI": 7574,
      "ented": 7575,
      "results": 7576,
      "Ġcolon": 7577,
      "ĠElect": 7578,
      "cular": 7579,
      "legal": 7580,
      "eness": 7581,
      "blue": 7582,
      "ador": 7583,
      "Ġprofessor": 7584,
      "Ġcertainly": 7585,
      "DC": 7586,
      "}&": 7587,
      "ifts": 7588,
      "offset": 7589,
      "Ġcalculations": 7590,
      "tw": 7591,
      "Ġcomments": 7592,
      "ĠFrancisco": 7593,
      "Sw": 7594,
      "Ġtal": 7595,
      "<!--": 7596,
      "meta": 7597,
      "Ġmedal": 7598,
      "ĠLine": 7599,
      "Ġpossibility": 7600,
      "iro": 7601,
      "Ġserving": 7602,
      "Ġconfirmed": 7603,
      "ja": 7604,
      "Ġusual": 7605,
      "ĠWales": 7606,
      "picture": 7607,
      "ymmetric": 7608,
      "ĠBu": 7609,
      "Ġemail": 7610,
      "pressed": 7611,
      "Ġfellow": 7612,
      "|_{": 7613,
      "Ġjustice": 7614,
      "MO": 7615,
      "ĠPhys": 7616,
      "Ġlaunch": 7617,
      "Ġproducer": 7618,
      "Ġexpert": 7619,
      "Ġpil": 7620,
      "eces": 7621,
      "ograp": 7622,
      "1971": 7623,
      "Ġbasketball": 7624,
      "Ġmorning": 7625,
      "tikz": 7626,
      "Ġhole": 7627,
      "Ġrecommend": 7628,
      "wa": 7629,
      "Ġheat": 7630,
      "scope": 7631,
      "Ġwonder": 7632,
      "miss": 7633,
      "Ġarmy": 7634,
      "Cal": 7635,
      "Ġscored": 7636,
      "ictionary": 7637,
      "img": 7638,
      "onym": 7639,
      "Ġextend": 7640,
      "Column": 7641,
      "Ġcalculation": 7642,
      "Ġfigures": 7643,
      "aug": 7644,
      "iples": 7645,
      "Ġdedicated": 7646,
      "ĠSir": 7647,
      "ĠJeff": 7648,
      "Ġnorthern": 7649,
      "gies": 7650,
      "inois": 7651,
      "ĠFred": 7652,
      "Ġmental": 7653,
      "IB": 7654,
      "Ġthank": 7655,
      "uan": 7656,
      "Ġuncertainty": 7657,
      "ĠOrgan": 7658,
      "ĠMov": 7659,
      "Ġbuy": 7660,
      "Ġdevices": 7661,
      "Ġconstraint": 7662,
      "Finally": 7663,
      "Command": 7664,
      "ĠâĢ¦": 7665,
      "Ġintr": 7666,
      "Access": 7667,
      "jav": 7668,
      "Ġmodified": 7669,
      "Ġnav": 7670,
      "ĠModel": 7671,
      "aling": 7672,
      "ĠMen": 7673,
      "ĠConference": 7674,
      "Ġfluct": 7675,
      "Ġangular": 7676,
      "ĠRepublican": 7677,
      "Ġskills": 7678,
      "Ġsave": 7679,
      "Ġremember": 7680,
      "Ġmotiv": 7681,
      "Ġamplitude": 7682,
      "Ġnotation": 7683,
      "Op": 7684,
      "ĠEgypt": 7685,
      "root": 7686,
      "Ġmetal": 7687,
      "Ġprediction": 7688,
      "Ġfunctional": 7689,
      ")}_{": 7690,
      "Vis": 7691,
      "hetic": 7692,
      "ĠPop": 7693,
      "ĠPennsylvania": 7694,
      "Target": 7695,
      "Ġpp": 7696,
      "ĠSand": 7697,
      "HO": 7698,
      "Ġorth": 7699,
      "Ġelections": 7700,
      "Direct": 7701,
      "Ġteaching": 7702,
      "chron": 7703,
      "Ġscales": 7704,
      "Ġgun": 7705,
      "opic": 7706,
      "awa": 7707,
      "ĠOhio": 7708,
      "ĠPolicy": 7709,
      "Introduction": 7710,
      "conf": 7711,
      "Ġdoll": 7712,
      "gency": 7713,
      "ĠMichigan": 7714,
      "appe": 7715,
      "Ġpromin": 7716,
      "[(": 7717,
      "Ġfootballers": 7718,
      "avel": 7719,
      "ĠLi": 7720,
      "cf": 7721,
      "Ġpix": 7722,
      "Ġevaluation": 7723,
      "Ġthinking": 7724,
      "Ð¾Ð": 7725,
      "etch": 7726,
      "forward": 7727,
      "Ġchanging": 7728,
      "Ġearth": 7729,
      "Ġscenario": 7730,
      "1969": 7731,
      "Ġauthorities": 7732,
      "Ġdanger": 7733,
      "Ġdaily": 7734,
      "Ġfrag": 7735,
      "ĠWall": 7736,
      "Ġextremely": 7737,
      "]);": 7738,
      "Update": 7739,
      "bal": 7740,
      "ĠLy": 7741,
      "MD": 7742,
      "ĠColl": 7743,
      "forcement": 7744,
      "Ġinstrument": 7745,
      "Ġlargely": 7746,
      "Ġrotation": 7747,
      "ĠEvery": 7748,
      "task": 7749,
      "Types": 7750,
      "Ġretain": 7751,
      "ban": 7752,
      "ĠSuch": 7753,
      "Ġhypothes": 7754,
      "gers": 7755,
      "Po": 7756,
      "Ġyouth": 7757,
      "tan": 7758,
      "Ġbelief": 7759,
      "unte": 7760,
      "vari": 7761,
      "Ġfre": 7762,
      "Ġagency": 7763,
      "ĠPacific": 7764,
      "Ġsolve": 7765,
      "Ġconven": 7766,
      "Ġcooper": 7767,
      "Ġunderlying": 7768,
      "std": 7769,
      "AF": 7770,
      "aught": 7771,
      "Ġwants": 7772,
      "Gr": 7773,
      "$),": 7774,
      "iy": 7775,
      "Ġspl": 7776,
      "Ġstandards": 7777,
      "}}$,": 7778,
      "aby": 7779,
      "ĉĉĉĉĉĉĉĉ": 7780,
      "ogeneous": 7781,
      "Ġ\\&": 7782,
      "Ġimproved": 7783,
      "1967": 7784,
      "ĠArray": 7785,
      "}$)": 7786,
      "ĠEr": 7787,
      "Ġinduced": 7788,
      "drop": 7789,
      ")-\\": 7790,
      "ĠConn": 7791,
      "people": 7792,
      "Ġadjust": 7793,
      "Ġintegration": 7794,
      "})$,": 7795,
      "ĠMedical": 7796,
      "Art": 7797,
      "Ġprotocol": 7798,
      "Ġbin": 7799,
      "idents": 7800,
      "Ġbeam": 7801,
      "Sl": 7802,
      "ĠRam": 7803,
      "Ã³n": 7804,
      "edu": 7805,
      "=#": 7806,
      "rison": 7807,
      "Non": 7808,
      "Ġvictory": 7809,
      "Ġconcert": 7810,
      "ĠPolit": 7811,
      "ela": 7812,
      "Ġdiscrim": 7813,
      "}}$.": 7814,
      "ĠOx": 7815,
      "ĠEll": 7816,
      "Ġdescribes": 7817,
      "har": 7818,
      "Ġexplore": 7819,
      "Men": 7820,
      "ĠLead": 7821,
      "ipage": 7822,
      "Ġice": 7823,
      "Ġhousing": 7824,
      "Ġsuc": 7825,
      "Ġprincipal": 7826,
      "response": 7827,
      "scape": 7828,
      "kit": 7829,
      "1940": 7830,
      "Pat": 7831,
      "Ġlayers": 7832,
      "ĠPolice": 7833,
      "onical": 7834,
      "ĠReturns": 7835,
      "ĠJr": 7836,
      "othing": 7837,
      "ections": 7838,
      "Ġprimarily": 7839,
      "à¤": 7840,
      "ĠUsing": 7841,
      "Range": 7842,
      "ĠLab": 7843,
      "Ġpowers": 7844,
      "hol": 7845,
      "Ġkernel": 7846,
      "Ġmuseum": 7847,
      "Ġsubgroup": 7848,
      "nections": 7849,
      "Mat": 7850,
      "Ġthermal": 7851,
      "Ġassigned": 7852,
      "ingly": 7853,
      "Ġbond": 7854,
      "Ġsides": 7855,
      "ecutive": 7856,
      "minipage": 7857,
      "Ġgraphs": 7858,
      "ĠJersey": 7859,
      "Ġdriving": 7860,
      "Ġenh": 7861,
      "Controller": 7862,
      "ĠHT": 7863,
      "Ġdatabase": 7864,
      "ĠJoe": 7865,
      "?âĢĿ": 7866,
      "ĠPM": 7867,
      "ĠKorea": 7868,
      "Ġspecifically": 7869,
      "********************************": 7870,
      "hor": 7871,
      "ĠRetrieved": 7872,
      "ira": 7873,
      "Interface": 7874,
      "Mult": 7875,
      "Ġexcell": 7876,
      "ĠKenn": 7877,
      "pute": 7878,
      "BU": 7879,
      "Ġcrow": 7880,
      "ĠEp": 7881,
      "orship": 7882,
      "container": 7883,
      "Using": 7884,
      "ga": 7885,
      "Ġconcerns": 7886,
      "mode": 7887,
      "Ġmagazine": 7888,
      "mma": 7889,
      "ĠQueen": 7890,
      "scriptstyle": 7891,
      "ĠBern": 7892,
      "ĠHor": 7893,
      "}{(": 7894,
      "iveness": 7895,
      "Ġchannels": 7896,
      "obs": 7897,
      "Ġstatements": 7898,
      "Cache": 7899,
      "initely": 7900,
      "Ġstarts": 7901,
      "ĠWilson": 7902,
      "Ġtournament": 7903,
      "etts": 7904,
      "250": 7905,
      "ctx": 7906,
      "Ġseasons": 7907,
      "Ġsucceed": 7908,
      "zen": 7909,
      "Ġmedium": 7910,
      "ĠColor": 7911,
      "Ev": 7912,
      "ĠGeorgia": 7913,
      "Ġdispl": 7914,
      "agnetic": 7915,
      "Ġ{}": 7916,
      "Äģ": 7917,
      "ĠEmpire": 7918,
      "Ġpseud": 7919,
      "sky": 7920,
      "Ġil": 7921,
      "ĠCa": 7922,
      "Ġboy": 7923,
      "Address": 7924,
      "osis": 7925,
      "Ġrout": 7926,
      "aka": 7927,
      "Ġcharges": 7928,
      "Var": 7929,
      "Ġcouncil": 7930,
      "Ġfeet": 7931,
      "}{|": 7932,
      "ĠKey": 7933,
      "match": 7934,
      "Ġcommitted": 7935,
      "ĠEnter": 7936,
      "Offset": 7937,
      "Ġwhereas": 7938,
      "ampion": 7939,
      "itivity": 7940,
      "Ġdecisions": 7941,
      "weet": 7942,
      "ĠCall": 7943,
      "DR": 7944,
      "Ġaspects": 7945,
      "Ġ$|\\": 7946,
      "ĠGener": 7947,
      "Ġimplemented": 7948,
      "ĠAsian": 7949,
      "aria": 7950,
      "Ġaccepted": 7951,
      "service": 7952,
      "Ġrepresenting": 7953,
      "ĠBow": 7954,
      "Ġgrew": 7955,
      "ĠExt": 7956,
      "sor": 7957,
      "Ġinvolving": 7958,
      "tail": 7959,
      "))$": 7960,
      "oute": 7961,
      "Ġtraffic": 7962,
      "cong": 7963,
      "Ġthousands": 7964,
      "Current": 7965,
      "ati": 7966,
      "ione": 7967,
      "ĠCare": 7968,
      "ĠStan": 7969,
      "Therefore": 7970,
      "Ġequipment": 7971,
      "odd": 7972,
      "Ġearned": 7973,
      "Ġbounds": 7974,
      "Row": 7975,
      "Ġrich": 7976,
      "ometry": 7977,
      "Ġsustain": 7978,
      "andon": 7979,
      "-$": 7980,
      "1945": 7981,
      "KE": 7982,
      "Ġactress": 7983,
      "Will": 7984,
      "Ġextent": 7985,
      "ronic": 7986,
      "Ġtechnique": 7987,
      "mediate": 7988,
      "Ġcommittee": 7989,
      "actic": 7990,
      "rance": 7991,
      "Ġirre": 7992,
      "amm": 7993,
      "Ġcampus": 7994,
      "rane": 7995,
      "Ġincident": 7996,
      "direct": 7997,
      "Ġbands": 7998,
      "ĠIR": 7999,
      "ali": 8000,
      "osophy": 8001,
      "acle": 8002,
      "ĠCharl": 8003,
      "Ġcomplexity": 8004,
      "Ġera": 8005,
      "Ġwitness": 8006,
      "ometric": 8007,
      "btn": 8008,
      "cref": 8009,
      "Ġconj": 8010,
      "params": 8011,
      "white": 8012,
      "ĠFamily": 8013,
      "Ġtraject": 8014,
      "Ġcomposition": 8015,
      "ĠLatin": 8016,
      "Pop": 8017,
      "Ġcoal": 8018,
      "Ġion": 8019,
      "clusions": 8020,
      "Dev": 8021,
      "ĠLag": 8022,
      "achus": 8023,
      "common": 8024,
      "Ġblocks": 8025,
      "Ġapi": 8026,
      "iger": 8027,
      "Ġstreet": 8028,
      "ĠMajor": 8029,
      "Ġstorage": 8030,
      "Ġoccurred": 8031,
      "1930": 8032,
      "Ġcoordinate": 8033,
      "defined": 8034,
      "ĠDE": 8035,
      "ighter": 8036,
      "Ġgradient": 8037,
      "ucky": 8038,
      "ĉĉĊ": 8039,
      "possible": 8040,
      ")}}": 8041,
      "bury": 8042,
      "Ġlocations": 8043,
      "Ġpartnership": 8044,
      "Ġrobust": 8045,
      "Ġadvance": 8046,
      "ĠUkrain": 8047,
      "ĠAndrew": 8048,
      "Ġcoverage": 8049,
      "Left": 8050,
      "Sm": 8051,
      "Ġorganized": 8052,
      "Ġopinion": 8053,
      "fn": 8054,
      "Ġundefined": 8055,
      "rapper": 8056,
      "SM": 8057,
      "Ġbuffer": 8058,
      "ĠObama": 8059,
      "etails": 8060,
      "110": 8061,
      "apes": 8062,
      "Ġargs": 8063,
      "\\;": 8064,
      "cccc": 8065,
      "floor": 8066,
      "Ġwel": 8067,
      "Ġnotes": 8068,
      "ĠVi": 8069,
      "parse": 8070,
      "Ġorbit": 8071,
      "Write": 8072,
      "Ġbiggest": 8073,
      "ĠIllinois": 8074,
      "life": 8075,
      "Ġmarked": 8076,
      "Ġinfinite": 8077,
      "FONT": 8078,
      "ĠPower": 8079,
      "stone": 8080,
      "ĠHospital": 8081,
      "burgh": 8082,
      "1964": 8083,
      "Ġpenal": 8084,
      "Container": 8085,
      "points": 8086,
      "Url": 8087,
      "ĠJackson": 8088,
      "lers": 8089,
      "Ã§": 8090,
      "romise": 8091,
      "prov": 8092,
      "Ġdynamic": 8093,
      "Ġscaling": 8094,
      "ĠVan": 8095,
      "Ġinsert": 8096,
      "unately": 8097,
      "Ġrecording": 8098,
      "ĠCy": 8099,
      "Ġahead": 8100,
      "Ġlooks": 8101,
      "izabeth": 8102,
      "Ġoptimization": 8103,
      "Ġvision": 8104,
      "Ġstack": 8105,
      "Ġfle": 8106,
      "Although": 8107,
      "Ġprime": 8108,
      "opher": 8109,
      "Ġobjective": 8110,
      "imation": 8111,
      "Ġrecognized": 8112,
      "ĠJun": 8113,
      "ĠAv": 8114,
      "Ġstability": 8115,
      "PECT": 8116,
      "Ġ[\\": 8117,
      "ttp": 8118,
      "Ġatmosp": 8119,
      "Ġcustomers": 8120,
      "Ġprepar": 8121,
      "ĠAuthor": 8122,
      "finished": 8123,
      "rovers": 8124,
      "ĠScotland": 8125,
      "Ġreplace": 8126,
      "'),": 8127,
      "ĠSciences": 8128,
      "isted": 8129,
      "Ġpages": 8130,
      "Ġsell": 8131,
      "annot": 8132,
      "Ġdefense": 8133,
      "Ġsister": 8134,
      "ĠCheck": 8135,
      "ĠPalest": 8136,
      "Ġdust": 8137,
      "uri": 8138,
      "Ġengineering": 8139,
      "vas": 8140,
      "').": 8141,
      "}\\,\\": 8142,
      "Ġdivided": 8143,
      "Dat": 8144,
      "XX": 8145,
      "Ġnarrow": 8146,
      "Ġcomposed": 8147,
      "ersonal": 8148,
      "oir": 8149,
      "Ġabund": 8150,
      "Tree": 8151,
      "Ġspot": 8152,
      "Local": 8153,
      "Ġaccurate": 8154,
      "si": 8155,
      "Ġturns": 8156,
      "ĠPlay": 8157,
      "Ġvertical": 8158,
      "ĠRadio": 8159,
      "Button": 8160,
      "La": 8161,
      "Ġroles": 8162,
      "achusetts": 8163,
      "Ġexponential": 8164,
      "ĠEastern": 8165,
      "orders": 8166,
      "Ġleaves": 8167,
      "Ġcalculate": 8168,
      "Ġtheories": 8169,
      "Ġlie": 8170,
      "Conn": 8171,
      "global": 8172,
      "AND": 8173,
      "iser": 8174,
      "ĠKong": 8175,
      "amin": 8176,
      "ĠTaylor": 8177,
      "Ġarrived": 8178,
      "sv": 8179,
      "ĠMonday": 8180,
      "Ġancient": 8181,
      "vin": 8182,
      ":}": 8183,
      "ĠFacebook": 8184,
      "ading": 8185,
      "Ġmurder": 8186,
      "ĠRun": 8187,
      "Ġcapture": 8188,
      "Ġli": 8189,
      "Ġdisp": 8190,
      "Ġactors": 8191,
      "ups": 8192,
      "ĠWho": 8193,
      "Ġhonor": 8194,
      "ĠCommon": 8195,
      "Track": 8196,
      "SH": 8197,
      "Ġgeometry": 8198,
      "imary": 8199,
      "Ġpolitician": 8200,
      "Ġtrees": 8201,
      "Stat": 8202,
      "ennis": 8203,
      "Ġpod": 8204,
      "uint": 8205,
      "Ġchampionship": 8206,
      "ierarch": 8207,
      "Ġbrain": 8208,
      "ĠSaturday": 8209,
      "Ġdamage": 8210,
      "Ġtalking": 8211,
      "Ġdetected": 8212,
      "parameter": 8213,
      "Ġbalance": 8214,
      "PU": 8215,
      "Ġinstitution": 8216,
      "Ġagents": 8217,
      "App": 8218,
      "EQ": 8219,
      "ĠCEO": 8220,
      "document": 8221,
      "Ġnamely": 8222,
      "ĠMid": 8223,
      "Ġsport": 8224,
      "vard": 8225,
      "onto": 8226,
      "jpg": 8227,
      "ĠDC": 8228,
      "DD": 8229,
      "Ġhappens": 8230,
      "Ġcycl": 8231,
      "ĠWater": 8232,
      "idae": 8233,
      "Ġfloor": 8234,
      "dest": 8235,
      "Ġwealth": 8236,
      "Ġrepeated": 8237,
      "Ġtemplate": 8238,
      "FO": 8239,
      "ji": 8240,
      "Ġdie": 8241,
      "ĠTheatre": 8242,
      "inson": 8243,
      "${\\": 8244,
      "Ġserves": 8245,
      "Ġperforming": 8246,
      "Ġ**": 8247,
      "pet": 8248,
      "Acc": 8249,
      "ĠAPI": 8250,
      "Ġattribute": 8251,
      "Long": 8252,
      "Ġmapping": 8253,
      "Ġtreated": 8254,
      "Ġfort": 8255,
      "ĠGre": 8256,
      "Ġcauses": 8257,
      "ĠNations": 8258,
      "renew": 8259,
      "TS": 8260,
      "Ġkids": 8261,
      "]}": 8262,
      "1920": 8263,
      "wer": 8264,
      "Ġtracks": 8265,
      "tfrac": 8266,
      "scriptsize": 8267,
      "Ġdream": 8268,
      "Ġbehaviour": 8269,
      "mazon": 8270,
      "ĠEnergy": 8271,
      "Ġperspective": 8272,
      "Ġcoefficient": 8273,
      "ĠIndeed": 8274,
      "Ġhighlight": 8275,
      "ĠGame": 8276,
      "Ġcharacteristic": 8277,
      "Ġnegot": 8278,
      "gment": 8279,
      "ĠAG": 8280,
      "Ġbatt": 8281,
      "ooking": 8282,
      "pa": 8283,
      "comes": 8284,
      "Description": 8285,
      "ultane": 8286,
      "just": 8287,
      "Ġdriver": 8288,
      "ĠRo": 8289,
      "Each": 8290,
      "Ġsupporting": 8291,
      "1965": 8292,
      "Ġentirely": 8293,
      "Header": 8294,
      "cisely": 8295,
      "Ġpossibly": 8296,
      "Ġluminos": 8297,
      "Ġcalling": 8298,
      "window": 8299,
      "ĠKen": 8300,
      "uum": 8301,
      "Mark": 8302,
      "template": 8303,
      "Ġexplicitly": 8304,
      "ĠCode": 8305,
      "ĠOR": 8306,
      "sid": 8307,
      "itory": 8308,
      "Dir": 8309,
      "spe": 8310,
      "Ġconsequence": 8311,
      "teen": 8312,
      "Ġexclud": 8313,
      "Ġdomestic": 8314,
      "Ġnecessarily": 8315,
      "ĠGovernor": 8316,
      "ĠSea": 8317,
      "ĠPubl": 8318,
      "Ġcm": 8319,
      "ĠMethod": 8320,
      "ĠColumbia": 8321,
      "ãģ": 8322,
      "Ġsevere": 8323,
      "ĠBlue": 8324,
      "ĠFile": 8325,
      "Ġsubt": 8326,
      "stable": 8327,
      "///": 8328,
      "bu": 8329,
      "las": 8330,
      "Second": 8331,
      "Go": 8332,
      "Open": 8333,
      "Ġevaluate": 8334,
      "Ġhidden": 8335,
      "ĠJesus": 8336,
      "ĠLo": 8337,
      ",$": 8338,
      "Ġpredicted": 8339,
      "Ġhour": 8340,
      "ĠCarl": 8341,
      "Empty": 8342,
      "Ġlegisl": 8343,
      "Ġcoinc": 8344,
      "Ġdiscrete": 8345,
      "ednes": 8346,
      "Ġfont": 8347,
      "TYPE": 8348,
      "ĠMu": 8349,
      "Ġfacility": 8350,
      "'.": 8351,
      "Ġemployed": 8352,
      "Ġopposite": 8353,
      ",\\,\\": 8354,
      "ĠWeek": 8355,
      "ĠBack": 8356,
      "$:": 8357,
      "Ġindustrial": 8358,
      "Ġdrama": 8359,
      "ĠMinistry": 8360,
      "Server": 8361,
      "ĠDaniel": 8362,
      "ĠEdward": 8363,
      "effect": 8364,
      ")--": 8365,
      "brace": 8366,
      "Ġresearchers": 8367,
      "Ġconcerned": 8368,
      "Ġadvert": 8369,
      "Ġtells": 8370,
      "ĠKent": 8371,
      "Ġradiation": 8372,
      "Ġcarbon": 8373,
      "Ġcere": 8374,
      "isc": 8375,
      "ĠTrust": 8376,
      "stood": 8377,
      "sd": 8378,
      "ĠOnly": 8379,
      "Ġrecognition": 8380,
      "ĠTele": 8381,
      "ĠAnother": 8382,
      "ursday": 8383,
      "Ġvot": 8384,
      "models": 8385,
      "ĠMot": 8386,
      "Ġperman": 8387,
      "ibli": 8388,
      "uli": 8389,
      "ĠId": 8390,
      "lets": 8391,
      "fghan": 8392,
      "Module": 8393,
      "ĠInternet": 8394,
      "ĠCard": 8395,
      "Ġsubsequent": 8396,
      "800": 8397,
      "Ġapplying": 8398,
      "uesday": 8399,
      "GR": 8400,
      "ĠPrime": 8401,
      "600": 8402,
      "Vol": 8403,
      "acket": 8404,
      "Ġresident": 8405,
      "Ġhab": 8406,
      "|}": 8407,
      "<?": 8408,
      "Ġmathemat": 8409,
      ",{\\": 8410,
      "lements": 8411,
      "Ġvisible": 8412,
      "islation": 8413,
      "Ġsummar": 8414,
      "ĠCoast": 8415,
      "ĠSong": 8416,
      "shot": 8417,
      "Ġcollected": 8418,
      "Ġlanguages": 8419,
      "Ġtwice": 8420,
      "ĠBrook": 8421,
      "Provider": 8422,
      "Ġends": 8423,
      "Ġintersection": 8424,
      "erg": 8425,
      "Ġexerc": 8426,
      "Sing": 8427,
      "Early": 8428,
      "ACK": 8429,
      "ĠBattle": 8430,
      "ums": 8431,
      "Que": 8432,
      "adelph": 8433,
      "arity": 8434,
      "May": 8435,
      "BI": 8436,
      "ses": 8437,
      "Ġdecomposition": 8438,
      "ĠGi": 8439,
      "ĠPy": 8440,
      "Ġlocally": 8441,
      "1966": 8442,
      "ĠSta": 8443,
      "ĠIndust": 8444,
      "exports": 8445,
      "Ġbegins": 8446,
      "ĠJon": 8447,
      "Ġclosely": 8448,
      "Ġreader": 8449,
      "icial": 8450,
      "Ġjudge": 8451,
      "ifer": 8452,
      "Ġsecondary": 8453,
      "Height": 8454,
      "Ġgender": 8455,
      "ĠRos": 8456,
      "Layout": 8457,
      "brid": 8458,
      "Json": 8459,
      "Ġfill": 8460,
      "ĠĠĠĠĠĠĠĠĠĠĠĠĠĠĠĠĠĠĠĠĠ": 8461,
      "ez": 8462,
      "Ġeq": 8463,
      "^*$": 8464,
      "perform": 8465,
      "Ġapproved": 8466,
      "Ġshop": 8467,
      "pool": 8468,
      "Ġcars": 8469,
      "Ġrepresentations": 8470,
      "Ġexplan": 8471,
      "Ġurban": 8472,
      "stat": 8473,
      "Ġboost": 8474,
      "ĠSpace": 8475,
      "Ġdro": 8476,
      "Process": 8477,
      "Ġsuccessfully": 8478,
      "iden": 8479,
      "atever": 8480,
      "Ġvariation": 8481,
      "Ġsuperv": 8482,
      "ĠRay": 8483,
      "Ġstatistical": 8484,
      "ĠNY": 8485,
      "Unit": 8486,
      "aming": 8487,
      "ogg": 8488,
      "Ġprojection": 8489,
      "oles": 8490,
      "Ġphone": 8491,
      "itative": 8492,
      "Ġbos": 8493,
      "PD": 8494,
      "Ġgravit": 8495,
      "ĠReport": 8496,
      "Ġreasonable": 8497,
      "Ġreaction": 8498,
      "zh": 8499,
      "ĠFree": 8500,
      "ĠMassachusetts": 8501,
      "Ġpatient": 8502,
      "flu": 8503,
      "Ġspring": 8504,
      "adelphia": 8505,
      "bot": 8506,
      "Med": 8507,
      "Ġentropy": 8508,
      "ĠPoint": 8509,
      "Ġversions": 8510,
      "bell": 8511,
      "Frame": 8512,
      "ĠMath": 8513,
      "Ġpassing": 8514,
      "ĠMaster": 8515,
      "ĠFour": 8516,
      "Ġpool": 8517,
      "ervation": 8518,
      "ĠSU": 8519,
      "Definition": 8520,
      "Ġequality": 8521,
      "menu": 8522,
      "Ġinspired": 8523,
      "Ġsufficiently": 8524,
      "Ġsan": 8525,
      "Ġconvex": 8526,
      "abb": 8527,
      "sen": 8528,
      "Ġcrew": 8529,
      "Ġmonitor": 8530,
      "Ġassociation": 8531,
      "ienced": 8532,
      "Ġsatisfying": 8533,
      "Ġregistered": 8534,
      "OC": 8535,
      "ĠViet": 8536,
      "PH": 8537,
      "amber": 8538,
      "lik": 8539,
      "athan": 8540,
      "Ġexperiences": 8541,
      "Ġexplo": 8542,
      "Ġsoldiers": 8543,
      "Ġferm": 8544,
      "Home": 8545,
      "Ġmys": 8546,
      "ruit": 8547,
      "ĠBroad": 8548,
      "named": 8549,
      "Callback": 8550,
      "ugby": 8551,
      "Ġnearby": 8552,
      ",\\\\": 8553,
      "ĠLike": 8554,
      "Ġpractices": 8555,
      "card": 8556,
      "Ġconfidence": 8557,
      "erior": 8558,
      "ĠInvest": 8559,
      "clip": 8560,
      "ĠAny": 8561,
      "ĠMap": 8562,
      "Ġrepresentative": 8563,
      "renewcommand": 8564,
      "Prot": 8565,
      "ĠRepresent": 8566,
      "ĉĠĠĠĠĠ": 8567,
      "Two": 8568,
      "sch": 8569,
      "ednesday": 8570,
      "foo": 8571,
      "Ġcontrad": 8572,
      "Ġdesired": 8573,
      "plicity": 8574,
      "verb": 8575,
      "Ġtempor": 8576,
      "ologist": 8577,
      "ographer": 8578,
      "dfrac": 8579,
      "Ġeffectively": 8580,
      "ipeline": 8581,
      "Ġfinds": 8582,
      "Ġminister": 8583,
      "arters": 8584,
      "Ġvehicles": 8585,
      "fold": 8586,
      "obe": 8587,
      "ariance": 8588,
      "Ġwestern": 8589,
      "Ġadvanced": 8590,
      ":=": 8591,
      "Before": 8592,
      "ĠOxford": 8593,
      "Ġinvestigate": 8594,
      "ĠFar": 8595,
      "opyright": 8596,
      "Ġweights": 8597,
      "orrow": 8598,
      "ĠAR": 8599,
      "Ġsuitable": 8600,
      "Ġdenoted": 8601,
      "PY": 8602,
      "loop": 8603,
      "Ġdatasets": 8604,
      "Configuration": 8605,
      "orough": 8606,
      "Ġpackage": 8607,
      "Ġrestaur": 8608,
      "ilbert": 8609,
      "Ġplus": 8610,
      "Ġexceed": 8611,
      "Ġupdated": 8612,
      "enger": 8613,
      "inton": 8614,
      "ipality": 8615,
      "chester": 8616,
      "construction": 8617,
      "ictures": 8618,
      "Ġsym": 8619,
      "|}{": 8620,
      "Ġdecade": 8621,
      "Ġresponsibility": 8622,
      "Ġestate": 8623,
      "Ġpatterns": 8624,
      "Ġacquired": 8625,
      "Ġtroops": 8626,
      "Ġgone": 8627,
      "bool": 8628,
      "ifest": 8629,
      "Par": 8630,
      "Ġjourney": 8631,
      "axis": 8632,
      "Ġawards": 8633,
      "Ġconclusion": 8634,
      "Ġinfrastructure": 8635,
      "fa": 8636,
      "Ġcategories": 8637,
      "irds": 8638,
      "Ġtail": 8639,
      "]$.": 8640,
      "Ġdog": 8641,
      "Ġseat": 8642,
      "Ġneutr": 8643,
      "Ġconvent": 8644,
      "enant": 8645,
      "Ġ\\!": 8646,
      "Ġdiam": 8647,
      "MT": 8648,
      "Ġsurrounding": 8649,
      "hs": 8650,
      "Ġseek": 8651,
      "sume": 8652,
      "ĠWild": 8653,
      "Ġhero": 8654,
      "bigl": 8655,
      "ĠBal": 8656,
      "ĠExecutive": 8657,
      "Ġassumptions": 8658,
      "Ġtherap": 8659,
      "Ġagric": 8660,
      "Äĩ": 8661,
      "Ġbridge": 8662,
      "iem": 8663,
      "ĠGuard": 8664,
      "Ġseeing": 8665,
      "ĠUr": 8666,
      "ĠChristmas": 8667,
      "Entry": 8668,
      "Ġhouses": 8669,
      "phant": 8670,
      "ĠHong": 8671,
      "aration": 8672,
      "'d": 8673,
      "how": 8674,
      "Ġanimals": 8675,
      "Care": 8676,
      "Ġbias": 8677,
      "Ġlooked": 8678,
      "coh": 8679,
      "Ġbeat": 8680,
      "ĠBol": 8681,
      "Ġmatching": 8682,
      "Ġlabels": 8683,
      "plicated": 8684,
      "ogen": 8685,
      "$_{": 8686,
      "plot": 8687,
      "ĠHistoric": 8688,
      "ĠChampionships": 8689,
      "Ġtoken": 8690,
      "Ġreferences": 8691,
      "Ġhomes": 8692,
      "Ġenem": 8693,
      "Ġprofession": 8694,
      "ĠEXPECT": 8695,
      "Ġcompat": 8696,
      "Ġprecisely": 8697,
      "()->": 8698,
      "Ġfeat": 8699,
      "ĠMember": 8700,
      "Sum": 8701,
      "Ġreligion": 8702,
      "req": 8703,
      "coll": 8704,
      "ĠPrem": 8705,
      "General": 8706,
      "Ġplanned": 8707,
      "Ġequilibrium": 8708,
      "writer": 8709,
      "Level": 8710,
      "endar": 8711,
      "nic": 8712,
      "Ġcommonly": 8713,
      "ĠChris": 8714,
      "duction": 8715,
      "resource": 8716,
      "Utils": 8717,
      "ila": 8718,
      "dy": 8719,
      "ĠWrit": 8720,
      "iary": 8721,
      "Ġtranslation": 8722,
      "uling": 8723,
      "Ġwaves": 8724,
      "Ġrelationships": 8725,
      "UM": 8726,
      "Ġenable": 8727,
      "ĠMah": 8728,
      "Ġpersons": 8729,
      "1963": 8730,
      "Ac": 8731,
      "chor": 8732,
      "loads": 8733,
      "ĠConstitution": 8734,
      "Kind": 8735,
      "Ġelectronic": 8736,
      "bigr": 8737,
      "ĠBell": 8738,
      "ĠAddition": 8739,
      "paragraph": 8740,
      "Ġrend": 8741,
      "ĠCorporation": 8742,
      "ĠLittle": 8743,
      "ĠPrince": 8744,
      "ĠGra": 8745,
      "))\\": 8746,
      "English": 8747,
      "Ġthread": 8748,
      "itzer": 8749,
      "illy": 8750,
      "enum": 8751,
      "elect": 8752,
      "ceived": 8753,
      "ĠNight": 8754,
      "OK": 8755,
      "Ġbeautiful": 8756,
      "Ġindicated": 8757,
      "Ġvocals": 8758,
      "Ġlemma": 8759,
      "Ġrelax": 8760,
      "Ġheav": 8761,
      "ĠRen": 8762,
      "transform": 8763,
      "Ġmist": 8764,
      "Ġrational": 8765,
      "ĠRh": 8766,
      "Ġwish": 8767,
      "ĠĠĠĠĠĠĠĠĠĠĠĠĠĠĠĠĠĠĠĠĠĠĠĠĠĠĠĠĠĠĠĠĠĠĠ": 8768,
      "ĠBang": 8769,
      "ĠMike": 8770,
      "Location": 8771,
      "ĠAM": 8772,
      "][]{": 8773,
      "ĠHand": 8774,
      "ĠLast": 8775,
      "Ġphoto": 8776,
      "\\}$.": 8777,
      "make": 8778,
      "Ġdiscover": 8779,
      "lyn": 8780,
      "ouch": 8781,
      "Ġinverse": 8782,
      "Ġflight": 8783,
      "fi": 8784,
      "Ġaid": 8785,
      "ĠLew": 8786,
      "ĠWis": 8787,
      "ĠEst": 8788,
      "Ġredshift": 8789,
      "ĠJews": 8790,
      "phone": 8791,
      "thon": 8792,
      "Ġsoc": 8793,
      "Ġemot": 8794,
      "Ġbroken": 8795,
      "Ġliqu": 8796,
      "Ġinteract": 8797,
      "Ġshell": 8798,
      "Ġinterpretation": 8799,
      "Ġessentially": 8800,
      "erer": 8801,
      "Ġtheme": 8802,
      "Ġcamera": 8803,
      "Ġfashion": 8804,
      "ĠSports": 8805,
      "?:": 8806,
      "Ġ>=": 8807,
      "Ġdimensional": 8808,
      "ĠGar": 8809,
      "Ġoperated": 8810,
      "Ġestablishments": 8811,
      "128": 8812,
      "Ġalleged": 8813,
      "Ġgreatest": 8814,
      "??": 8815,
      "Ġpoliticians": 8816,
      "Collection": 8817,
      "Ġmyself": 8818,
      "API": 8819,
      "Down": 8820,
      "Ġshares": 8821,
      "Ġpredictions": 8822,
      "Ġdrawn": 8823,
      "Ġpractical": 8824,
      "ĠElizabeth": 8825,
      "Ġgranted": 8826,
      "Notes": 8827,
      "ĠCreate": 8828,
      "Ġvirus": 8829,
      "Ġcomedy": 8830,
      "Operation": 8831,
      "Ġretired": 8832,
      "notes": 8833,
      "ĠlP": 8834,
      "allow": 8835,
      "water": 8836,
      "inction": 8837,
      "reference": 8838,
      "DM": 8839,
      "Ġhappy": 8840,
      "ĠUse": 8841,
      "Ġnarr": 8842,
      "ĠPhilipp": 8843,
      "aya": 8844,
      "equal": 8845,
      "Ġtemperatures": 8846,
      "WE": 8847,
      "itles": 8848,
      "ificate": 8849,
      "joint": 8850,
      "igrants": 8851,
      "BL": 8852,
      "arts": 8853,
      "Option": 8854,
      "Di": 8855,
      "National": 8856,
      "erves": 8857,
      "BE": 8858,
      "vements": 8859,
      "ĠProvince": 8860,
      "semble": 8861,
      "mi": 8862,
      "idget": 8863,
      "also": 8864,
      "igital": 8865,
      "Ġexpos": 8866,
      "Ġsatisfied": 8867,
      "inking": 8868,
      "Ġmoments": 8869,
      "ci": 8870,
      "pson": 8871,
      "]$,": 8872,
      "Ġpaths": 8873,
      "elihood": 8874,
      "ordan": 8875,
      "Ġintegrated": 8876,
      "Ġfloat": 8877,
      "longrightarrow": 8878,
      "Ġsupports": 8879,
      "ribed": 8880,
      "LC": 8881,
      "dependent": 8882,
      "Br": 8883,
      "product": 8884,
      "depend": 8885,
      "Thread": 8886,
      "ĠSom": 8887,
      "Ġentity": 8888,
      "Ġburn": 8889,
      "ensities": 8890,
      "mathop": 8891,
      "Ġuniversal": 8892,
      "Ġtrace": 8893,
      "ĠEngineering": 8894,
      "ĠHa": 8895,
      "VAL": 8896,
      "Ġcomputing": 8897,
      "green": 8898,
      "Ġrailway": 8899,
      "&$": 8900,
      "Ġzone": 8901,
      "Ġgirls": 8902,
      "navbar": 8903,
      "Year": 8904,
      ";\\;\\": 8905,
      "rency": 8906,
      "Ġathlet": 8907,
      "Ġeyes": 8908,
      "Inst": 8909,
      "Ġmand": 8910,
      "indu": 8911,
      "antly": 8912,
      "Ġconstants": 8913,
      "Ġcontrovers": 8914,
      "ãĥ": 8915,
      "Ġmarkets": 8916,
      "ĠAfghan": 8917,
      "1962": 8918,
      "full": 8919,
      "Ġrig": 8920,
      "Ġplants": 8921,
      "%)": 8922,
      "Parameter": 8923,
      "ĠEnvironment": 8924,
      "Ġaf": 8925,
      "âĢħ": 8926,
      "}[\\": 8927,
      "Ġfuel": 8928,
      "ancer": 8929,
      "Ġprepared": 8930,
      "ĠAbout": 8931,
      "}})": 8932,
      "oves": 8933,
      "buffer": 8934,
      "Ġlegislation": 8935,
      "vature": 8936,
      "etal": 8937,
      "control": 8938,
      "Ġmir": 8939,
      "Ġultimately": 8940,
      "Ġrural": 8941,
      "ĠDisc": 8942,
      "acent": 8943,
      "Ġmaybe": 8944,
      "Ġportion": 8945,
      "ĠNet": 8946,
      "Ġexpanded": 8947,
      "Ġdeclared": 8948,
      "Ġrecip": 8949,
      "ĠWhe": 8950,
      "asters": 8951,
      "Ġfan": 8952,
      "iated": 8953,
      "WS": 8954,
      "Ġextensive": 8955,
      "anguage": 8956,
      "Ġenergies": 8957,
      "endment": 8958,
      "Ġcaref": 8959,
      "Ġaggreg": 8960,
      "umes": 8961,
      "ĠPortug": 8962,
      "Ġwinner": 8963,
      "VD": 8964,
      "Ġinjury": 8965,
      "enses": 8966,
      "Ġrect": 8967,
      "Ġrecover": 8968,
      "Ġrenew": 8969,
      "ubble": 8970,
      "ĠLim": 8971,
      "Ġblog": 8972,
      "ymmetry": 8973,
      "Ġhistoric": 8974,
      "Ġintroduction": 8975,
      "Ġsale": 8976,
      "thur": 8977,
      "Ident": 8978,
      "ĠCirc": 8979,
      "ĠName": 8980,
      "cp": 8981,
      "########": 8982,
      "lywood": 8983,
      "Ġarts": 8984,
      "arthe": 8985,
      "oster": 8986,
      "lesssim": 8987,
      "Ġdoctor": 8988,
      "ZE": 8989,
      "Ġeducational": 8990,
      "Ġgenus": 8991,
      "Ġhelping": 8992,
      "bmatrix": 8993,
      "ĠDir": 8994,
      "circle": 8995,
      "Ġsimultane": 8996,
      "leton": 8997,
      "eral": 8998,
      "Ġconstitution": 8999,
      "ye": 9000,
      "Ġships": 9001,
      "Ġregul": 9002,
      "Ġhearing": 9003,
      "123": 9004,
      "...,": 9005,
      "ĠEnt": 9006,
      "ĠMcC": 9007,
      "Comple": 9008,
      "Ġabsence": 9009,
      "Su": 9010,
      "Ġcaptured": 9011,
      "}}_{\\": 9012,
      "Ġexperienced": 9013,
      "Ġkill": 9014,
      "Ġsubsequently": 9015,
      "Ġce": 9016,
      "Ġholding": 9017,
      "ĠGirl": 9018,
      "Ġabuse": 9019,
      "Ġfaculty": 9020,
      "Ġbulk": 9021,
      ";\"": 9022,
      "Ptr": 9023,
      "}}}\\": 9024,
      "Ġrid": 9025,
      "Ġcontribute": 9026,
      "RR": 9027,
      "Ġmobile": 9028,
      "ĠHung": 9029,
      "GE": 9030,
      "hard": 9031,
      "ALL": 9032,
      "inals": 9033,
      "Hash": 9034,
      "TT": 9035,
      "eld": 9036,
      "Ġsummary": 9037,
      "Ġfighting": 9038,
      "Ġcircumstances": 9039,
      "avor": 9040,
      "Ġstrategies": 9041,
      "Ġcensus": 9042,
      "ctic": 9043,
      "ĠEval": 9044,
      "Ġ\\]": 9045,
      "1944": 9046,
      "ĠAgain": 9047,
      "NAME": 9048,
      "refix": 9049,
      "uple": 9050,
      "Script": 9051,
      "Ġpieces": 9052,
      "Ġexcess": 9053,
      "fields": 9054,
      "ascript": 9055,
      "001": 9056,
      "ĠCro": 9057,
      "Ġfifth": 9058,
      "ogether": 9059,
      "Ġthanks": 9060,
      "erry": 9061,
      "unfinished": 9062,
      "algorithm": 9063,
      "Prop": 9064,
      "wing": 9065,
      "Ġisomorphism": 9066,
      "theless": 9067,
      "ĠBerlin": 9068,
      ".'": 9069,
      "Ġentries": 9070,
      "Ġdoor": 9071,
      "Ġparticipants": 9072,
      "urations": 9073,
      "ialize": 9074,
      "Ġquark": 9075,
      "Ġrevolution": 9076,
      "Ġderivative": 9077,
      "Ġconform": 9078,
      "eting": 9079,
      "Ġsupposed": 9080,
      "$};": 9081,
      "Ġintern": 9082,
      "emptyset": 9083,
      "Ġcorner": 9084,
      "Ġlowest": 9085,
      "ĠAdministration": 9086,
      "onomy": 9087,
      "Ġturb": 9088,
      "Ġprominent": 9089,
      "ochastic": 9090,
      "IE": 9091,
      "ĠDown": 9092,
      "Ġwarm": 9093,
      "Ġcontrolled": 9094,
      "Ġunderstood": 9095,
      "Ġstands": 9096,
      "ĠSher": 9097,
      "ĠWalk": 9098,
      "Ġeye": 9099,
      "Ġalongside": 9100,
      "Ġpapers": 9101,
      "Ġcontainer": 9102,
      "Ġdebate": 9103,
      "Åį": 9104,
      "Ġattorney": 9105,
      "Ġouter": 9106,
      "Ġcosm": 9107,
      "hav": 9108,
      "ibilities": 9109,
      "parison": 9110,
      "iota": 9111,
      "angular": 9112,
      "ĠBa": 9113,
      "[-": 9114,
      "df": 9115,
      "exec": 9116,
      "ropic": 9117,
      "Ġsun": 9118,
      "ĠTuesday": 9119,
      "âĢĺ": 9120,
      "Ġfell": 9121,
      "mn": 9122,
      "Ġnewly": 9123,
      "255": 9124,
      "Ġreceiving": 9125,
      "sex": 9126,
      "enter": 9127,
      "world": 9128,
      "Ġplease": 9129,
      "ĠAppendix": 9130,
      "Ġpromote": 9131,
      "ffect": 9132,
      "ĠPhiladelphia": 9133,
      "ussion": 9134,
      "Ġpersonnel": 9135,
      "Ġbodies": 9136,
      "success": 9137,
      "ĠNon": 9138,
      "Ġmyst": 9139,
      "ĠPass": 9140,
      "ĠThursday": 9141,
      "ĠThree": 9142,
      "avelength": 9143,
      "ructions": 9144,
      "ĠRom": 9145,
      "1961": 9146,
      "Document": 9147,
      "Ġnob": 9148,
      "^{*": 9149,
      "ulpt": 9150,
      "Ġtaught": 9151,
      "160": 9152,
      "ĠKel": 9153,
      "ĠRog": 9154,
      "Ġgravity": 9155,
      "180": 9156,
      "Host": 9157,
      "Ġfiled": 9158,
      "onav": 9159,
      "Ġsequences": 9160,
      "vee": 9161,
      "apl": 9162,
      "ĠĠĠĠĠĠĠĠĠĠĠĠĠĠĠĠĠĠ": 9163,
      "Ġtopic": 9164,
      "irection": 9165,
      "Ġnotion": 9166,
      "Ġdiver": 9167,
      "Ġchapter": 9168,
      "ruption": 9169,
      "Exp": 9170,
      "component": 9171,
      "periment": 9172,
      "Ġestimation": 9173,
      "slash": 9174,
      "Ġcontemporary": 9175,
      "Ġdefeated": 9176,
      "Ġjur": 9177,
      "Ġcancell": 9178,
      "Disc": 9179,
      "Ġexecution": 9180,
      "ĠEvent": 9181,
      "ĠBrad": 9182,
      "Ġcompre": 9183,
      "ĠBBC": 9184,
      "Ġsampling": 9185,
      "ritical": 9186,
      "ĠDesign": 9187,
      "Ġris": 9188,
      "ĠUnivers": 9189,
      "Dep": 9190,
      "ĠGiven": 9191,
      "Another": 9192,
      "ĠInstead": 9193,
      "ĠBoy": 9194,
      "uating": 9195,
      "Ġclients": 9196,
      "Ġment": 9197,
      "ĠCur": 9198,
      "Ġemployment": 9199,
      "ourier": 9200,
      "Ġseconds": 9201,
      "Sign": 9202,
      "Ġfresh": 9203,
      "ĠDutch": 9204,
      "sort": 9205,
      "Ġmanufacture": 9206,
      "ropol": 9207,
      "bind": 9208,
      "ads": 9209,
      "Ġ<!--": 9210,
      "Ġlicense": 9211,
      "Ġpublication": 9212,
      "Ġcompens": 9213,
      "Ġdiagonal": 9214,
      "ĠAmazon": 9215,
      "ĠLight": 9216,
      "Ġnewspaper": 9217,
      "Ġdemonstrate": 9218,
      "Ġdependent": 9219,
      "ĠSM": 9220,
      "III": 9221,
      "Ġven": 9222,
      "ĠTri": 9223,
      "ocated": 9224,
      "Ġreviews": 9225,
      "})}": 9226,
      "integ": 9227,
      "Ġmaxim": 9228,
      "ĠCat": 9229,
      "yo": 9230,
      "ĠEth": 9231,
      ">,": 9232,
      "Ġtransmission": 9233,
      "ĠMA": 9234,
      "Ġ*)": 9235,
      "ĠPoland": 9236,
      "ĠTwitter": 9237,
      "ĠLabor": 9238,
      "Ġaccounts": 9239,
      "aine": 9240,
      "bro": 9241,
      "ĠCase": 9242,
      "Bi": 9243,
      "})=": 9244,
      "```": 9245,
      "Ġmatters": 9246,
      "ĠToday": 9247,
      "ĠDar": 9248,
      "\"))": 9249,
      "ĠRevolution": 9250,
      "ĠThrough": 9251,
      "including": 9252,
      "ĠCON": 9253,
      "ĠChildren": 9254,
      "Search": 9255,
      "ĠGR": 9256,
      "Ġmovies": 9257,
      "ito": 9258,
      "Ġgeneric": 9259,
      "Aust": 9260,
      "Ġaccident": 9261,
      "media": 9262,
      "vs": 9263,
      "Ġunable": 9264,
      "Gen": 9265,
      "layout": 9266,
      "Ġapplicable": 9267,
      "Project": 9268,
      "shape": 9269,
      "Ġderive": 9270,
      "Ġopposition": 9271,
      "hl": 9272,
      "Ġbomb": 9273,
      "ideos": 9274,
      "onia": 9275,
      "ĠHREF": 9276,
      "ĠĠĠĠĠĠĠĠĠĠĠĠĠĠĠĠĠĠĠĠ": 9277,
      "ĠMedicine": 9278,
      "ĠKim": 9279,
      "Policy": 9280,
      "Ġscholar": 9281,
      "Ġexcited": 9282,
      "Ġinn": 9283,
      "Ġroughly": 9284,
      "Given": 9285,
      "plan": 9286,
      "Ġprogramming": 9287,
      "Ġmaximal": 9288,
      "Ġflex": 9289,
      "Ġmedian": 9290,
      "His": 9291,
      "Are": 9292,
      "ĠJean": 9293,
      "pic": 9294,
      "Ġbass": 9295,
      "CM": 9296,
      "Ġsac": 9297,
      "kg": 9298,
      "ĠWednesday": 9299,
      "ĠMult": 9300,
      "Position": 9301,
      "ĠPen": 9302,
      "ounsel": 9303,
      "Ġfluid": 9304,
      "Ġregister": 9305,
      "ĠFair": 9306,
      "ego": 9307,
      "ennes": 9308,
      "Ġuniverse": 9309,
      "Ġneural": 9310,
      "Ġcolumns": 9311,
      "Ag": 9312,
      "Ġcopies": 9313,
      "STR": 9314,
      "since": 9315,
      "Ġcouldn": 9316,
      "Ġintelligence": 9317,
      "}_{-": 9318,
      "}}^{\\": 9319,
      "Params": 9320,
      "Ġspons": 9321,
      "ĠAlexander": 9322,
      "ĠOlympic": 9323,
      "pres": 9324,
      "Ġcold": 9325,
      "Ġidentical": 9326,
      "Ġapprec": 9327,
      "Ġclinical": 9328,
      "Ġshut": 9329,
      "Ġagencies": 9330,
      "Ġsubsection": 9331,
      "Ġfrequently": 9332,
      "ratic": 9333,
      "ederation": 9334,
      "istant": 9335,
      "Ġreprodu": 9336,
      "Ġluminosity": 9337,
      "ulse": 9338,
      "ĠClark": 9339,
      "aded": 9340,
      "Control": 9341,
      "Ġgoods": 9342,
      "Ġcharacteristics": 9343,
      "Ġcommut": 9344,
      "ĠĠĠĠĠĠĠĠĠĠĠĠĊ": 9345,
      "Ġcorporate": 9346,
      "aton": 9347,
      "Ġpri": 9348,
      "Ġbreaking": 9349,
      "hu": 9350,
      "Ġ({\\": 9351,
      "BR": 9352,
      "Ġextreme": 9353,
      "ĉĉĉĉĉĉĉ": 9354,
      "evin": 9355,
      "sat": 9356,
      "Ġquantities": 9357,
      "ben": 9358,
      "\\)": 9359,
      "Ġcrucial": 9360,
      "aturally": 9361,
      "plane": 9362,
      "Ġassistance": 9363,
      "101": 9364,
      "PM": 9365,
      "parameters": 9366,
      "Ġdance": 9367,
      "Record": 9368,
      "tml": 9369,
      "anner": 9370,
      "ĠHom": 9371,
      "Ġcloser": 9372,
      "ĠDespite": 9373,
      "Ġfacts": 9374,
      "ader": 9375,
      "Ġinsurance": 9376,
      "Change": 9377,
      "}}.": 9378,
      "Ġphysic": 9379,
      "Ġmotor": 9380,
      "COL": 9381,
      "Ġ$,": 9382,
      "Ġimmediate": 9383,
      "ĠCLASS": 9384,
      "fortunately": 9385,
      "Ġmere": 9386,
      "grid": 9387,
      "ĠFre": 9388,
      "Ġintensity": 9389,
      "})^": 9390,
      "bras": 9391,
      "Ġvolunte": 9392,
      "ĠAud": 9393,
      "isms": 9394,
      "ĠToronto": 9395,
      "Ġfra": 9396,
      "ĠForeign": 9397,
      "Ġphoton": 9398,
      "AAAAAAAA": 9399,
      "Under": 9400,
      "ĠPrize": 9401,
      "ĠCub": 9402,
      "ĠBC": 9403,
      "ĠOfficer": 9404,
      "Ġjet": 9405,
      "/(": 9406,
      "rosc": 9407,
      "125": 9408,
      "Ġstuff": 9409,
      "Ġenhance": 9410,
      "Properties": 9411,
      ")[": 9412,
      "general": 9413,
      "ĠAffairs": 9414,
      "acks": 9415,
      "ĠReal": 9416,
      "Ġmessages": 9417,
      "Ġsky": 9418,
      "Ġtrivial": 9419,
      "Ġcache": 9420,
      "Ġpreced": 9421,
      "Ġfinish": 9422,
      "rait": 9423,
      "1942": 9424,
      "Ġmac": 9425,
      "ulner": 9426,
      "eman": 9427,
      "Ġassistant": 9428,
      "Ġcollaboration": 9429,
      "Ġattempts": 9430,
      "rizona": 9431,
      "ĠConf": 9432,
      "}$}": 9433,
      "Ġsquad": 9434,
      "uses": 9435,
      "Ġbench": 9436,
      "ĠRome": 9437,
      "Ġarms": 9438,
      "Ġhelps": 9439,
      "Ġkeeping": 9440,
      "putation": 9441,
      "ĠRod": 9442,
      "Ġsomewhat": 9443,
      "Ġpartners": 9444,
[...]
