{"[UNK]":0,"!":1,"\"":2,"#":3,"$":4,"%":5,"&":6,"'":7,"(":8,")":9,"*":10,"+":11,",":12,"-":13,".":14,"/":15,"0":16,"1":17,"2":18,"3":19,"4":20,"5":21,"6":22,"7":23,"8":24,"9":25,":":26,";":27,"<":28,"=":29,">":30,"?":31,"@":32,"A":33,"B":34,"C":35,"D":36,"E":37,"F":38,"G":39,"H":40,"I":41,"J":42,"K":43,"L":44,"M":45,"N":46,"O":47,"P":48,"Q":49,"R":50,"S":51,"T":52,"U":53,"V":54,"W":55,"X":56,"Y":57,"Z":58,"[":59,"\\":60,"]":61,"^":62,"_":63,"`":64,"a":65,"b":66,"c":67,"d":68,"e":69,"f":70,"g":71,"h":72,"i":73,"j":74,"k":75,"l":76,"m":77,"n":78,"o":79,"p":80,"q":81,"r":82,"s":83,"t":84,"u":85,"v":86,"w":87,"x":88,"y":89,"z":90,"{":91,"|":92,"}":93,"~":94,"¡":95,"¢":96,"£":97,"¤":98,"¥":99,"¦":100,"§":101,"¨":102,"©":103,"ª":104,"«":105,"¬":106,"®":107,"¯":108,"°":109,"±":110,"²":111,"³":112,"´":113,"µ":114,"¶":115,"·":116,"¸":117,"¹":118,"º":119,"»":120,"¼":121,"½":122,"¾":123,"¿":124,"Â":125,"Ã":126,"Ä":127,"Å":128,"Æ":129,"Ç":130,"È":131,"É":132,"Ê":133,"Ë":134,"Ì":135,"Í":136,"Î":137,"Ï":138,"Ð":139,"Ñ":140,"Ò":141,"Ó":142,"Ô":143,"Õ":144,"Ö":145,"×":146,"Ø":147,"Ù":148,"Ú":149,"Û":150,"Ü":151,"Ý":152,"Þ":153,"ß":154,"à":155,"á":156,"â":157,"ã":158,"ä":159,"å":160,"æ":161,"ç":162,"è":163,"é":164,"ê":165,"ë":166,"ì":167,"í":168,"î":169,"ï":170,"ð":171,"ó":172,"ô":173,"Ā":174,"ā":175,"Ă":176,"ă":177,"Ą":178,"ą":179,"Ć":180,"ć":181,"Ĉ":182,"ĉ":183,"Ċ":184,"ċ":185,"Č":186,"č":187,"Ď":188,"ď":189,"Đ":190,"đ":191,"Ē":192,"ē":193,"Ĕ":194,"ĕ":195,"Ė":196,"ė":197,"Ę":198,"ę":199,"Ě":200,"ě":201,"Ĝ":202,"ĝ":203,"Ğ":204,"ğ":205,"Ġ":206,"ġ":207,"Ģ":208,"ģ":209,"Ĥ":210,"ĥ":211,"Ħ":212,"ħ":213,"Ĩ":214,"ĩ":215,"Ī":216,"ī":217,"Ĭ":218,"ĭ":219,"Į":220,"į":221,"İ":222,"ı":223,"Ĳ":224,"ĳ":225,"Ĵ":226,"ĵ":227,"Ķ":228,"ķ":229,"ĸ":230,"Ĺ":231,"ĺ":232,"Ļ":233,"ļ":234,"Ľ":235,"ľ":236,"Ŀ":237,"ŀ":238,"Ł":239,"ł":240,"Ń":241,"ĠĠ":242,"Ġt":243,"in":244,"he":245,"Ġa":246,"on":247,"re":248,"er":249,"Ġthe":250,"at":251,"en":252,"ĠĠĠĠ":253,"or":254,"Ġs":255,"al":256,"it":257,"is":258,"Ġo":259,"an":260,"es":261,"Ġc":262,"Ġw":263,"ar":264,"ed":265,"ion":266,"Ġf":267,"Ġof":268,"Ġp":269,"nd":270,"Ġin":271,"Ġb":272,"ing":273,"ic":274,"le":275,"ro":276,"as":277,"Ġand":278,"Ġm":279,"Ġd":280,"Ġto":281,"ct":282,"ou":283,"ent":284,"et":285,"Ġ\\":286,"el":287,"st":288,"Ġth":289,"il":290,"Ġh":291,"Ġ$":292,"om":293,"Ġre":294,"am":295,"ig":296,"Ġn":297,"ation":298,"Ġe":299,"ol":300,"ĠĠĠ":301,"im":302,"ĠS":303,"ac":304,"ĠT":305,"Ġl":306,"ot":307,"ĠĠĠĠĠĠĠĠ":308,"id":309,"Ġ(":310,"Ġis":311,"ĠC":312,"ĠA":313,"ut":314,"ur":315,"iv":316,"âĢ":317,"se":318,"Ġfor":319,"Ġg":320,"ad":321,"ly":322,"ow":323,"ĠI":324,"{\\":325,"ul":326,"ce":327,"Ġon":328,"Ġbe":329,"ĠM":330,"ay":331,"Ġst":332,"ch":333,"em":334,"Ġthat":335,"ver":336,"ab":337,"ith":338,"us":339,"um":340,"qu":341,"un":342,"if":343,"ir":344,"od":345,"ter":346,"Ġas":347,"ĠP":348,"ĠB":349,"Ġcon":350,"ag":351,"20":352,"Ġwith":353,"ap":354,"th":355,"ve":356,"ist":357,"ers":358,"ĠH":359,"ate":360,"end":361,"Ġal":362,"Ġpro":363,"her":364,"Ġan":365,"_{":366,"ction":367,"ĠF":368,"Ġ=":369,"Ġv":370,"ĠThe":371,"ĠR":372,"pe":373,"ĠD":374,"and":375,"ri":376,"Ġwe":377,"ht":378,"res":379,"ath":380,"eg":381,"ĠL":382,"Ġwh":383,"est":384,"ain":385,"Ġby":386,"ĠW":387,"ity":388,"čĊ":389,"op":390,"oc":391,"os":392,"ĠĠĠĠĠĠĠ":393,"Ġwas":394,"up":395,"Ġit":396,"Ġ$\\":397,"ĠN":398,"ex":399,"19":400,"Ġex":401,"Ġat":402,"Ġcom":403,"Ġde":404,"ĠG":405,"rom":406,"ĠE":407,"Ġr":408,"ew":409,"ore":410,"ub":411,"art":412,"Ġare":413,"ess":414,"ĠĊ":415,"ight":416,"ill":417,"ure":418,"Ġ&":419,"ies":420,"nt":421,"math":422,"Ġor":423,"ort":424,"ĉĉ":425,"pl":426,"ment":427,"Ġhe":428,"ial":429,"Ġfrom":430,"ant":431,"ak":432,"Ġse":433,"âĢĻ":434,"ive":435,"pt":436,"ine":437,"all":438,"ld":439,"ud":440,"}\\":441,"ge":442,");":443,"Ġy":444,"Ġ{":445,"ĠJ":446,"ite":447,"our":448,"}$":449,"ass":450,"Ġthis":451,"^{":452,"ra":453,"ĠO":454,"ame":455,"--":456,"ue":457,"iz":458,"The":459,"ere":460,"ref":461,"ph":462,"ber":463,"og":464,"ect":465,"ave":466,"ich":467,"ult":468,"Ġ\"":469,"Ġch":470,"Ġnot":471,"cl":472,"Ġsh":473,"und":474,"per":475,"ĠU":476,"ext":477,"ĠâĢ":478,"ell":479,"ical":480,"ated":481,"Ġ<":482,"ust":483,"ard":484,"//":485,"ff":486,"00":487,"ack":488,"ran":489,"ary":490,"ma":491,"Ġcl":492,"Ġle":493,"age":494,"Ġ*":495,"orm":496,"are":497,"}}":498,"ip":499,"ition":500,"ft":501,"ĠĠĠĠĠĠĠĠĠĠĠ":502,"(\\":503,"port":504,"'s":505,"fr":506,"ta":507,"Ġk":508,"ign":509,"Ġcomp":510,"201":511,"Ġhave":512,"=\"":513,"con":514,"Ġres":515,"ost":516,"ian":517,"able":518,"ast":519,"int":520,"egin":521,"ĠIn":522,"ĠK":523,"Ġint":524,"),":525,"ug":526,"begin":527,"ations":528,"Ġ}":529,"ong":530,"ep":531,"ace":532,"Ġpl":533,"ef":534,"ia":535,"ire":536,"ens":537,"pro":538,"Ġwhich":539,"cal":540,"ork":541,"Ġcan":542,"ord":543,"ime":544,"av":545,"out":546,"_{\\":547,"ĠSt":548,"Ġwhe":549,"cc":550,").":551,")$":552,"Ġhas":553,"ear":554,"ther":555,"Ġ-":556,"ase":557,"Ġcont":558,"urn":559,"ould":560,"Ġab":561,"Ġus":562,"..":563,"ide":564,"Ġall":565,"ions":566,"ind":567,"</":568,"Ġun":569,"so":570,"ib":571,"act":572,"}{":573,"du":574,"equ":575,"Ġim":576,"ice":577,"ous":578,"ok":579,"ĠV":580,"Ġhis":581,"ry":582,"com":583,"Ġap":584,"ild":585,"Ġj":586,"Ġif":587,"Ġad":588,"ov":589,"rm":590,"In":591,"ence":592,"frac":593,"},":594,"text":595,"ach":596,"ang":597,"eq":598,"use":599,"ĠĠĠĠĠĠĠĠĠĠĠĠĠĠĠĠ":600,"form":601,"right":602,"ener":603,"ĠĠĠĠĠ":604,"ile":605,"ĠTh":606,"ru":607,"erv":608,"abel":609,"cite":610,"the":611,"ents":612,"200":613,"ory":614,"over":615,"Ġone":616,"ĠCh":617,"ount":618,"âĢĿ":619,"ance":620,"Ġalso":621,"Ġpart":622,"oll":623,"ec":624,"Ġar":625,"ik":626,"Ġsu":627,"**":628,"row":629,"ces":630,"erm":631,"ome":632,"eta":633,"Ġdis":634,"Ġwere":635,"ress":636,"ally":637,"10":638,"ound":639,"Ġme":640,"ose":641,"Ġtr":642,"own":643,"ely":644,"unction":645,"ject":646,"Ġwill":647,"Ġtheir":648,"mer":649,"ates":650,"irst":651,"ors":652,"Ġbut":653,"ish":654,"turn":655,"old":656,"rib":657,"ey":658,"label":659,"ict":660,"ubl":661,"sp":662,"ree":663,"mathb":664,"ob":665,"Ġyou":666,"wo":667,"ode":668,"ring":669,"ata":670,"Ġsp":671,"clud":672,"fig":673,",\\":674,"$,":675,"Ġ+":676,"Ġout":677,"ie":678,"$.":679,"ype":680,"tern":681,"get":682,"Ġev":683,"ark":684,"rans":685,"ple":686,"equation":687,"Ġqu":688,"Ġdo":689,"Ġper":690,"ps":691,"Ġob":692,"pect":693,"Ġnew":694,"18":695,"Ġen":696,"rit":697,"ll":698,"Ġits":699,"St":700,"Ġmod":701,"we":702,"Ġother":703,"mathcal":704,"red":705,"Ġ|":706,"left":707,"ics":708,"})":709,"\">":710,"ĠâĢľ":711,"Ġthey":712,"Ġ'":713,"}.":714,"Ġmore":715,"Ġup":716,"vel":717,"Ġwho":718,"rap":719,"ert":720,"iff":721,"one":722,"Ġman":723,"Ġclass":724,"Ġro":725,"sum":726,"}(":727,"Ġwork":728,"ĠY":729,"te":730,"Ġbeen":731,"Ġfirst":732,"iel":733,"ĠIt":734,"Ġag":735,"hed":736,"oint":737,"Ġtwo":738,"----":739,"Ġhad":740,"amb":741,"()":742,"ĠUn":743,"Ġover":744,"Ġsc":745,"Ġdef":746,"}^":747,"yst":748,"ake":749,"==":750,"ational":751,"Ġtime":752,"ray":753,"~\\":754,"Ġset":755,"Ġval":756,"ĠHe":757,"}_":758,"line":759,"Ġso":760,"Ġyear":761,"Ġfunction":762,"lect":763,"ock":764,"pon":765,"ss":766,"aw":767,"ular":768,"ook":769,"ublic":770,"mb":771,"imes":772,"ield":773,"Ġne":774,"ution":775,"cent":776,"pha":777,"ng":778,"Ġind":779,"ink":780,"fter":781,"ize":782,"da":783,"set":784,"ari":785,"Ġ[":786,"pos":787,"very":788,"alpha":789,"sc":790,"eth":791,"Ġreturn":792,"Ġthere":793,"aram":794,"ool":795,"pec":796,"Ġte":797,"Ġund":798,"ual":799,"ied":800,"ater":801,"Ġdes":802,"ystem":803,"ings":804,")\\":805,"iss":806,"ick":807,"Ġgo":808,"Ġabout":809,"ix":810,"Ġrel":811,"umber":812,"igh":813,"Ġwhen":814,"ail":815,"Ġpe":816,"ced":817,"to":818,"vi":819,"12":820,"Ġthan":821,"ollow":822,"ative":823,"Ġcomm":824,"Ġoff":825,"Ġpre":826,"of":827,"les":828,"Ġacc":829,"Ġbet":830,"Ġsub":831,"Ġdiff":832,"Ġour":833,"$\\":834,"Ġreg":835,"ople":836,"eren":837,"ĠĠĠĠĠĠĠĠĠĠĠĠĠĠĠ":838,"Ġpr":839,"Ġany":840,"Ġsup":841,"ans":842,"ambda":843,"ays":844,"elta":845,"Ġwhere":846,"elf":847,"Ġonly":848,"ugh":849,"ne":850,"Ġher":851,"ram":852,"sh":853,"raph":854,"ull":855,"Ġsuch":856,"ax":857,"ont":858,"Ġinto":859,"Ġcons":860,"ove":861,"hat":862,"roup":863,"ck":864,"ific":865,"Ġwould":866,"Ġconst":867,"ient":868,"ho":869,"ĠWe":870,"ities":871,"inal":872,"ased":873,"put":874,"oug":875,"Ġresult":876,"Ġsome":877,"Ġform":878,"199":879,"ys":880,"ĠThis":881,"Ġ//":882,"amma":883,"cre":884,"Ġfollow":885,"ĠâĢĵ":886,"_\\":887,"orn":888,"Ġkn":889,"ption":890,"pr":891,"Ġunder":892,"round":893,"resent":894,"oth":895,"Ġinclud":896,"ade":897,"Ġpos":898,"ating":899,"ike":900,"sub":901,"mu":902,"ident":903,"olog":904,"ise":905,"Ġtrans":906,"ons":907,"igma":908,"Ġinter":909,"Ġplay":910,"Ġ\\\\":911,"ited":912,"ember":913,"aid":914,"dot":915,"=\\":916,"Ġthen":917,"dition":918,"ty":919,"Ġdist":920,"ween":921,"Ġmodel":922,"\",":923,"15":924,"ince":925,"val":926,"Ġact":927,"Ġgener":928,"}_{":929,"ility":930,"}^{":931,"ox":932,"ward":933,"app":934,"Ġpol":935,"Ġph":936,"Ġfl":937,"ivers":938,"der":939,"ega":940,"oy":941,"Ġno":942,"mathbb":943,"Ġatt":944,"Ġprov":945,"ues":946,"arg":947,"ĠCom":948,"ruct":949,"Ġpeople":950,"16":951,"Ġsim":952,"Ġrec":953,"âĢĵ":954,"Ġ@":955,"-\\":956,"Ex":957,"Ġthem":958,"io":959,"Ġget":960,"Ġ/":961,"ĠSe":962,"->":963,"Ġshow":964,"lem":965,"Ġthese":966,"land":967,"meric":968,"ments":969,"Ġbetween":970,"^{\\":971,"Ġstud":972,"Ġcol":973,"phi":974,"ures":975,"its":976,"Ġco":977,"::":978,"ement":979,"21":980,"Ġ{\\":981,"Ġinv":982,"ann":983,"li":984,"ered":985,"arch":986,"uring":987,"orld":988,"ible":989,"ĉĉĉĉ":990,"tt":991,"ined":992,"err":993,"Ġbec":994,"lambda":995,"Ġshe":996,"ren":997,"Ġequ":998,"Ġ||":999,"Ġafter":1000,"als":1001,"ator":1002,"rough":1003,"11":1004,"ev":1005,"Ġcor":1006,"part":1007,"Ġass":1008,"Ġop":1009,"ause":1010,"Ġloc":1011,"Ġpublic":1012,"Ġmay":1013,"pi":1014,"Ġdata":1015,"bf":1016,"Ġmost":1017,"eng":1018,"ange":1019,"ĠNew":1020,"Ġ.":1021,"ars":1022,"Ġfe":1023,"ource":1024,"tain":1025,"che":1026,"let":1027,"ily":1028,"Ġeff":1029,"Ġuse":1030,"ric":1031,"ower":1032,"section":1033,"idth":1034,"Ġsystem":1035,"Ġrem":1036,"We":1037,"cy":1038,"ral":1039,"17":1040,"ature":1041,"ists":1042,"Ġbl":1043,"irect":1044,"ĠPro":1045,"ĠAr":1046,"Ġused":1047,"Ġgiv":1048,"Ġprodu":1049,"ism":1050,"Ġfil":1051,"Th":1052,"Ġsaid":1053,"Ġeach":1054,"Ġmat":1055,"fl":1056,"Ġend":1057,"wn":1058,"Ġinst":1059,"ute":1060,"Ġext":1061,"ilon":1062,"bar":1063,"reat":1064,"yn":1065,"cond":1066,"Ġcase":1067,"Ġpoint":1068,"Ġnumber":1069,"Ġi":1070,"Ġspec":1071,"Ġam":1072,"13":1073,"Ġbu":1074,"air":1075,"abl":1076,"itt":1077,"Ġ:":1078,"amp":1079,"mathbf":1080,"ethod":1081,"Ġent":1082,"oot":1083,"vers":1084,"Ġthrough":1085,"align":1086,"sigma":1087,"cess":1088,"min":1089,"Ġcur":1090,"arn":1091,"ized":1092,"tr":1093,"ract":1094,"erent":1095,"Ġwell":1096,"Ġprob":1097,"ton":1098,"ctions":1099,"uss":1100,"ough":1101,"ever":1102,"ĠAl":1103,"plic":1104,"ĠAmeric":1105,"Ġyears":1106,"Ġhow":1107,"chool":1108,"ines":1109,"Ġref":1110,"Ġ(\\":1111,"any":1112,"14":1113,"ames":1114,"oci":1115,"Ġrequ":1116,"Ġest":1117,"ĠFor":1118,"ision":1119,"Ġname":1120,"ices":1121,"Ġsm":1122,"beta":1123,"Ġcall":1124,"^{-":1125,"',":1126,"}{\\":1127,"ym":1128,"ash":1129,"ote":1130,"ts":1131,"def":1132,"gy":1133,"rent":1134,"198":1135,"uch":1136,"ilde":1137,"ern":1138,"Ġwhat":1139,"Ġappro":1140,"Ġstr":1141,"Ġem":1142,"Con":1143,"atic":1144,"(\"":1145,"Ġline":1146,"Ġback":1147,"Ġserv":1148,"gan":1149,"();":1150,"Ġstate":1151,"eps":1152,"25":1153,"Ġlike":1154,"Ġdifferent":1155,"Ġ</":1156,"Ġx":1157,"uth":1158,"ization":1159,"Ġsame":1160,"oun":1161,"Ġsol":1162,"Pro":1163,"Ġrep":1164,"Ġsign":1165,"ife":1166,".,":1167,"hen":1168,"velop":1169,"Ġjust":1170,"hip":1171,"))":1172,"apt":1173,"oid":1174,"item":1175,"array":1176,"col":1177,"Ġpartic":1178,"Ġvalue":1179,"Ġ*/":1180,"gamma":1181,"Ġed":1182,"iversity":1183,"ĠAs":1184,"str":1185,"30":1186,"ason":1187,"+\\":1188,"ank":1189,"Ġac":1190,"overn":1191,"ĠQ":1192,"ond":1193,"ically":1194,"for":1195,"Ġmon":1196,"ins":1197,"var":1198,"ished":1199,"Ġoper":1200,"Ġvari":1201,"Ġagain":1202,"here":1203,"ider":1204,"22":1205,"ER":1206,"mathrm":1207,"Ġcount":1208,"ample":1209,"rad":1210,"\\\\":1211,"Ġsur":1212,"Ġexp":1213,"Ġdec":1214,"ĠZ":1215,"ĠDe":1216,"Ġcent":1217,"*}":1218,"Ġhim":1219,"Ġsee":1220,"ful":1221,"oh":1222,"Ġgroup":1223,"--------":1224,"Ġmany":1225,"Ġboth":1226,"rho":1227,"other":1228,"Ġneed":1229,"^\\":1230,"aramet":1231,"Ġchar":1232,"Ġfound":1233,"Ġfield":1234,"ood":1235,"ages":1236,"Ġcre":1237,"Ġnon":1238,"Ġhigh":1239,"Ġfact":1240,"uc":1241,"delta":1242,"****":1243,"par":1244,"Ġterm":1245,"Ġlead":1246,"erson":1247,"Ġcould":1248,"Ġser":1249,"Ġmin":1250,")}":1251,"Ġright":1252,"Ġdisc":1253,"formation":1254,"000":1255,"]{":1256,"__":1257,"ten":1258,"Ġele":1259,"Ġthree":1260,"vent":1261,"man":1262,"Ġbeing":1263,"Ġdet":1264,"ead":1265,"theta":1266,"this":1267,"leq":1268,"ĠAn":1269,"son":1270,"Ġfin":1271,"$-":1272,"Ġbecause":1273,"figure":1274,"tau":1275,"vert":1276,"read":1277,"cdot":1278,"ier":1279,"Ġusing":1280,"erences":1281,"ah":1282,"ee":1283,"Ġgiven":1284,"197":1285,"Ġel":1286,"iver":1287,"ases":1288,".âĢĿ":1289,"ional":1290,"Ġnow":1291,"Ġlong":1292,"att":1293,"Ġfam":1294,"ĉĉĉ":1295,"ĠĠĠĠĠĠĠĠĠ":1296,"ask":1297,"ner":1298,"Ġwhile":1299,"ml":1300,"ĠCon":1301,"}$,":1302,"Ref":1303,"ĠInd":1304,"aking":1305,"}$.":1306,"Ġadd":1307,"Ġevery":1308,"fore":1309,"Ġmy":1310,"Ġbel":1311,"ĠX":1312,"nu":1313,"50":1314,"IN":1315,"Ġfollowing":1316,"view":1317,"Ġshould":1318,"orth":1319,"big":1320,"ron":1321,"arrow":1322,"irc":1323,"Ġexper":1324,"ants":1325,"ĠSh":1326,"Ġmade":1327,"}(\\":1328,"ired":1329,"Ġsecond":1330,"ript":1331,"Ġorder":1332,"Ġstart":1333,"yle":1334,"arly":1335,"ĠCl":1336,"ON":1337,"://":1338,"Ġart":1339,"ross":1340,"partial":1341,"../":1342,"Ġsing":1343,"Ġperform":1344,"ural":1345,"width":1346,"times":1347,"ively":1348,"ather":1349,"Ġdevelop":1350,"az":1351,"Ġvery":1352,"Ġdesc":1353,"ology":1354,"ential":1355,"serv":1356,"yp":1357,"Ġduring":1358,"ĠĠĠĠĠĠĠĠĠĠĠĠĠĠĠĠĠĠĠ":1359,"ms":1360,"Ġeffect":1361,"Ch":1362,"ouse":1363,"aj":1364,"('":1365,"ality":1366,"oad":1367,"way":1368,"ery":1369,"Ġtype":1370,"Ġdirect":1371,"alth":1372,"gram":1373,"It":1374,"sec":1375,"eb":1376,"ST":1377,"omega":1378,"eqref":1379,"pm":1380,"Ġ`":1381,"ering":1382,"work":1383,"ared":1384,"Ġeven":1385,"Ġcontin":1386,"Ġbefore":1387,"ĠUniversity":1388,"Ġknow":1389,"Cl":1390,"Ġthose":1391,"Ġsupport":1392,"cept":1393,"ived":1394,"erence":1395,"essage":1396,"ument":1397,"====":1398,"Ġz":1399,"Ġmethod":1400,"ulation":1401,"outh":1402,"24":1403,"Ġmed":1404,"ains":1405,"Ġsmall":1406,"ury":1407,"Name":1408,"ball":1409,"ots":1410,"ives":1411,"led":1412,"ency":1413,"ets":1414,"Ġtest":1415,"ters":1416,"quad":1417,"ĠAnd":1418,"ience":1419,"ability":1420,"Ġdoes":1421,"ele":1422,"Ġvi":1423,"ength":1424,"Ġdr":1425,"tilde":1426,"eqn":1427,"ission":1428,"sy":1429,"Ġdid":1430,"bers":1431,"ole":1432,"fty":1433,"ting":1434,"ified":1435,"ek":1436,"Ġown":1437,"arge":1438,"ache":1439,"by":1440,"ternal":1441,"not":1442,"atch":1443,"infty":1444,"Ġerr":1445,"ale":1446,"ved":1447,"Ġprocess":1448,"rid":1449,"Ġsince":1450,"ĠCol":1451,"Ġmake":1452,"Ġworld":1453,"ĠAmerican":1454,"Ġway":1455,"Ġmov":1456,"|\\":1457,"196":1458,"chn":1459,"Delta":1460,"Com":1461,"rang":1462,"ĠSc":1463,"pend":1464,"div":1465,"Ġyour":1466,"me":1467,"Ġvar":1468,"Ġwrit":1469,"Ġmain":1470,"span":1471,"ually":1472,"return":1473,"Ġproper":1474,"23":1475,"alse":1476,"ĠIs":1477,"Ġself":1478,"aining":1479,"space":1480,"ĠAd":1481,"day":1482,"AT":1483,"Ġfind":1484,"rt":1485,"ctor":1486,"ĠUnited":1487,"umn":1488,"Ġhel":1489,"back":1490,"pond":1491,"Ġrele":1492,"rop":1493,"RE":1494,"Ġ_":1495,"Ġgu":1496,"ribut":1497,"Ġ#":1498,"ense":1499,"Ġresults":1500,"Ġcommun":1501,"ness":1502,"For":1503,"Ġgovern":1504,"omen":1505,"includ":1506,"ital":1507,".\"":1508,"Ġimport":1509,"ĠEx":1510,"This":1511,"Type":1512,"Ġmem":1513,"\\,":1514,"anc":1515,"âĢľ":1516,"mod":1517,"ule":1518,"Ġlast":1519,"iqu":1520,"Ġpop":1521,"Ġincre":1522,"Ġanal":1523,"Ġincluding":1524,"pre":1525,"Ġteam":1526,"Ġpresent":1527,"ault":1528,"istory":1529,"Ġopt":1530,"Ġposs":1531,"ina":1532,"log":1533,"Ġpres":1534,"ĠComm":1535,"af":1536,"param":1537,"ID":1538,"name":1539,"Ġstat":1540,"where":1541,"ccess":1542,"ning":1543,"Ġparamet":1544,"40":1545,"Ġobtain":1546,"Ġread":1547,"els":1548,"></":1549,"ody":1550,"Ġrepresent":1551,",âĢĿ":1552,"Ġappe":1553,"rix":1554,"ify":1555,"ĠHow":1556,"ĠLe":1557,"ww":1558,"xi":1559,"ott":1560,"Ġhand":1561,"References":1562,"ven":1563,"agn":1564,"Ġproblem":1565,"Ġbro":1566,"Ġmeas":1567,"iness":1568,"ffic":1569,"ior":1570,"rel":1571,"energy":1572,"usic":1573,"Ġlaw":1574,"Ġrun":1575,"Ġ!":1576,"Ġcurrent":1577,"ohn":1578,"As":1579,"Ġmuch":1580,"AR":1581,"vious":1582,"Ġmet":1583,"ration":1584,"Ġschool":1585,"au":1586,"med":1587,"Ġ$(":1588,"Ġchild":1589,"lex":1590,"ĠIf":1591,"Ġmass":1592,"Ġlist":1593,"Ġsl":1594,"come":1595,"sq":1596,"alk":1597,"Ġcondition":1598,"$$":1599,"co":1600,")$.":1601,"ception":1602,"}[":1603,"ĠĠĊ":1604,"Ġstruct":1605,"Ġorig":1606,"mbol":1607,"Ġbound":1608,"type":1609,"32":1610,"ĠShe":1611,"erest":1612,"Ġinformation":1613,"Ġprovid":1614,"por":1615,"ply":1616,"Ġfour":1617,"Res":1618,"...":1619,"orem":1620,"Ġagainst":1621,"To":1622,"}}\\":1623,"bl":1624,"'t":1625,"Ġlocal":1626,"ĠRe":1627,"Ġreal":1628,"Ġ>":1629,"Ġrespect":1630,"ane":1631,"ious":1632,"Ġlim":1633,"Ġbuild":1634,"Ġreport":1635,"iving":1636,"Ġtop":1637,"ety":1638,"etwork":1639,"til":1640,"import":1641,"ober":1642,"add":1643,"Ġcour":1644,"ĠPh":1645,"Ġmult":1646,"gor":1647,"Ġobject":1648,"Ġ)":1649,"Ġelect":1650,"ĠOn":1651,"ĠEng":1652,"ained":1653,"epend":1654,"Ġrecord":1655,"Ġlarge":1656,"epsilon":1657,"Ġallow":1658,"String":1659,"ĠSp":1660,"uro":1661,"arent":1662,"eqnarray":1663,"><":1664,"Ġtrue":1665,"Ġgl":1666,"Ġexpl":1667,"ribution":1668,"sim":1669,"ivate":1670,"Ġperson":1671,"raw":1672,"rol":1673,"self":1674,"Ġlife":1675,"Ġknown":1676,"Om":1677,"olution":1678,"Ġprogram":1679,"ves":1680,"lang":1681,"ser":1682,"illion":1683,"Ġcar":1684,"Id":1685,"less":1686,"):":1687,"Ġopen":1688,"Ġlink":1689,"uthor":1690,"enn":1691,"100":1692,"Ġspace":1693,"Ph":1694,"Val":1695,"ger":1696,"Ġpass":1697,"met":1698,"itive":1699,"Ġav":1700,"akes":1701,"}_{\\":1702,"cur":1703,"psi":1704,"ĠBl":1705,"usiness":1706,"urther":1707,"Ã©":1708,"Ġbased":1709,"Ġprof":1710,"aces":1711,"htt":1712,"ĠStates":1713,"2020":1714,"Ġexpect":1715,"esc":1716,"ream":1717,"Ġmust":1718,"Omega":1719,"SS":1720,"Ġgeneral":1721,"Ġcharact":1722,"Ġdescrib":1723,"Ġhelp":1724,"Ġstill":1725,"ially":1726,"oss":1727,"Ġstand":1728,"Ġfinal":1729,"inc":1730,"ival":1731,"class":1732,"26":1733,"27":1734,"2021":1735,"Ġpower":1736,"umer":1737,"OR":1738,"Ar":1739,"arm":1740,"respond":1741,"Ġobserv":1742,"Ġaround":1743,"Ġconsider":1744,"ĠTr":1745,"ately":1746,"Ġhere":1747,"ĠFig":1748,"Ġenergy":1749,"ised":1750,"Ġident":1751,"ĠâĢĶ":1752,"Ġinit":1753,"arget":1754,"comm":1755,"ected":1756,"^*":1757,"opt":1758,"Ġmark":1759,"position":1760,"Ġtake":1761,"new":1762,"face":1763,"Ġcare":1764,"ternational":1765,"requ":1766,"Ġgood":1767,"Ġdown":1768,"ister":1769,"ĠMar":1770,"Ġfamily":1771,"AL":1772,"Ġlevel":1773,"ley":1774,"28":1775,"lection":1776,"Ġrece":1777,"une":1778,"ries":1779,"dd":1780,"acy":1781,"Ġinterest":1782,"Ġche":1783,"org":1784,"ograph":1785,"Ġgr":1786,"rem":1787,"play":1788,"Ġvis":1789,"Ġu":1790,"ploy":1791,"Gamma":1792,"Ġtem":1793,"sqrt":1794,"Ġve":1795,"Ġbook":1796,"Ġins":1797,")$,":1798,"Ġlater":1799,"ird":1800,"Ġcalled":1801,"ĠPl":1802,"rist":1803,"Ġdi":1804,"ertain":1805,"omet":1806,"be":1807,"Ġlook":1808,"Ġthink":1809,"Ġfilm":1810,"Ġassum":1811,"html":1812,"Ġwithin":1813,"Ġdesign":1814,"itle":1815,"reg":1816,"Ġ--":1817,"cm":1818,"psilon":1819,"Ġrad":1820,"rodu":1821,"Ġ,":1822,"....":1823,"ination":1824,"sk":1825,"Ġscal":1826,"On":1827,"Ġiss":1828,"Ġaddition":1829,"Ġorgan":1830,"reen":1831,"Ġwant":1832,"Ġ${\\":1833,"Ġarg":1834,"Ġleft":1835,"ĠBut":1836,"LE":1837,"ĠJohn":1838,"version":1839,"ris":1840,"Ġbo":1841,"Ġnull":1842,"ording":1843,"../../":1844,"ĠThey":1845,"imens":1846,"Ġdem":1847,"Ġpolit":1848,"ĠMay":1849,"ivid":1850,"2018":1851,"fo":1852,"rr":1853,"iod":1854,"code":1855,"2016":1856,"ij":1857,"Ġlet":1858,"ajor":1859,"Ġcap":1860,"ĠRes":1861,"2017":1862,"subsection":1863,"Ġexample":1864,"td":1865,"Ġtechn":1866,"dis":1867,"ler":1868,"Ġvalues":1869,"Ġparticular":1870,"trans":1871,"urch":1872,"Ġocc":1873,"Ġ==":1874,"2019":1875,"Ġevent":1876,"Ġpar":1877,"Ġtra":1878,"29":1879,"ĠWh":1880,"ilar":1881,"veral":1882,"aving":1883,"ground":1884,"An":1885,"Ġelse":1886,"rightarrow":1887,"Ġcorrespond":1888,"Ġstring":1889,"}=":1890,"vare":1891,"point":1892,"ift":1893,"ocial":1894,"Ġdue":1895,"textbf":1896,"Ġbeh":1897,"aim":1898,"bm":1899,"ators":1900,"Ġconf":1901,"194":1902,"ĠĠĠĠĠĠĠĠĠĠĠĠĠĠĠĠĠĠĠĠĠĠĠĠĠĠĠĠĠĠĠĠ":1903,"capt":1904,"Ġseries":1905,"br":1906,"ĠNational":1907,"By":1908,"Ġleg":1909,"lear":1910,"uman":1911,"Ġabove":1912,"EN":1913,"ĠCent":1914,"raphics":1915,"Ġinvest":1916,"ians":1917,"Ġcal":1918,"2015":1919,"Ġrespon":1920,"^{(":1921,"Ġplace":1922,"Ġrese":1923,"posed":1924,"varepsilon":1925,"Ġprot":1926,"tab":1927,"ĠYork":1928,"ĠFran":1929,"see":1930,"wh":1931,"imate":1932,"ĠAll":1933,"List":1934,"Ġfalse":1935,"}^{\\":1936,"Ġbest":1937,"roll":1938,"ugg":1939,"Ġkey":1940,"Ġproject":1941,"rangle":1942,"conom":1943,"Ġgovernment":1944,"Ġinteg":1945,"Ġadv":1946,"âĢĶ":1947,"};":1948,"iter":1949,"ĠHowever":1950,"ormal":1951,"bold":1952,")=":1953,"ĠCount":1954,"etail":1955,"ope":1956,"Ġlearn":1957,"Ġsingle":1958,"ĠJan":1959,"cont":1960,"Ġsay":1961,"Ġnear":1962,"Ġnext":1963,"press":1964,"Ġpat":1965,"ties":1966,"urs":1967,"ths":1968,"Ġoffic":1969,"Ġmeasure":1970,"Ġsum":1971,"Ġ\\,":1972,"ium":1973,"caption":1974,"Ġwithout":1975,"AN":1976,"33":1977,"Ġdon":1978,"aper":1979,"ĠWorld":1980,"Ġlarg":1981,"ĠAt":1982,"action":1983,"rict":1984,"unc":1985,"ĠĠĠĠĠĠ":1986,"ensure":1987,"hes":1988,"Ġbas":1989,"Un":1990,"ampl":1991,"ification":1992,"chi":1993,"Ġestabl":1994,"ape":1995,"ĠOr":1996,"Ġtri":1997,"Ġann":1998,"time":1999,"2014":2000,"Ġhead":2001,"195":2002,"ĠCan":2003,"Ġden":2004,"non":2005,"ĠčĊ":2006,"Ġimportant":2007,"Ġseveral":2008,"60":2009,"Ob":2010,"Ġday":2011,"Ġalong":2012,"Ġpost":2013,"obal":2014,"Ġposition":2015,"Ġvoid":2016,"Ġtot":2017,"Ġsat":2018,"ĠCar":2019,"ene":2020,"Ġbre":2021,"Ġseason":2022,"ero":2023,"iron":2024,"ĠYou":2025,"Ġsize":2026,"lim":2027,"ke":2028,"IT":2029,"ush":2030,"ances":2031,"Ġ&&":2032,"ĠPr":2033,"Ġdeterm":2034,"bs":2035,"Ġanother":2036,"Ġdepend":2037,"Ġhref":2038,"idd":2039,"key":2040,"ootball":2041,"egraphics":2042,"includegraphics":2043,"')":2044,"refore":2045,"value":2046,"ended":2047,"SE":2048,"Ġsection":2049,"inition":2050,"Ġet":2051,"\".":2052,"mp":2053,"wards":2054,"Ġaff":2055,"AA":2056,"stand":2057,"ways":2058,"ai":2059,"ention":2060,"lement":2061,"bum":2062,"Ġview":2063,"string":2064,"ĠEuro":2065,"ourn":2066,"varphi":2067,"inter":2068,"35":2069,"emph":2070,"Ġstudy":2071,"Ġbusiness":2072,"Ġsuccess":2073,"Ġdiscuss":2074,"2010":2075,"ords":2076,"Ġcontinu":2077,"Ġterms":2078,"Ġgame":2079,"2013":2080,"Ġuntil":2081,"ĠMan":2082,"Ġdom":2083,"data":2084,"ĠNov":2085,"],":2086,".~\\":2087,"Ġmap":2088,"Ġredu":2089,"##":2090,"ources":2091,"Ġnetwork":2092,"Ġfr":2093,"Ġcomput":2094,"Ġinf":2095,"2012":2096,"Ġmean":2097,"Ġhig":2098,"ĠUS":2099,"table":2100,"Al":2101,"Ġlow":2102,"uary":2103,"oper":2104,"gorith":2105,"Ġ=>":2106,"''":2107,"Ġhold":2108,"ends":2109,"iction":2110,"80":2111,"Ġchang":2112,"Ġmusic":2113,"Ġexist":2114,"ĠAust":2115,"Ġcharacter":2116,"ison":2117,"////":2118,"with":2119,"ĠGe":2120,"Ġcrit":2121,"stit":2122,"icle":2123,"Ġarea":2124,"Ġtyp":2125,"Ġhome":2126,"imal":2127,"Ġspect":2128,"ensity":2129,"Ġgreat":2130,"ocus":2131,"aint":2132,"Ġspe":2133,"aster":2134,"ĠâĢĺ":2135,"ĠAss":2136,"ament":2137,"ĠState":2138,"field":2139,"otential":2140,"AC":2141,"Ġplayers":2142,"Ġquant":2143,"Ġsimilar":2144,"ences":2145,"istic":2146,"order":2147,"2011":2148,"rite":2149,"source":2150,"frak":2151,"lation":2152,"Ġdefined":2153,"function":2154,"********":2155,"Ġclos":2156,"Ġdel":2157,"45":2158,"uild":2159,"Ġfew":2160,"aus":2161,"iam":2162,"ped":2163,"Ġprevious":2164,"Ġcr":2165,"Ġprivate":2166,"ĠTo":2167,"de":2168,"geq":2169,"ague":2170,"ĠBrit":2171,"\")":2172,"He":2173,"ĠThere":2174,"Ġperiod":2175,"pose":2176,"ĠWar":2177,"no":2178,"Ġshown":2179,"Ġchange":2180,"Cont":2181,"ĠJu":2182,"Data":2183,"Ġpossible":2184,"ĠSchool":2185,"Ġold":2186,"Ġmajor":2187,"Ġgrow":2188,"ysis":2189,".}":2190,"Ġide":2191,"symbol":2192,"ĠPol":2193,"ĠMin":2194,"ilit":2195,"._":2196,"ches":2197,"ailable":2198,"overline":2199,"ection":2200,"Ġweek":2201,"Ġbecame":2202,"[\\":2203,"ats":2204,"Ġcountry":2205,"amed":2206,"64":2207,"ored":2208,"uff":2209,"lege":2210,"Ġassoci":2211,"atures":2212,"ivity":2213,"icy":2214,"ĠAug":2215,"ĠSouth":2216,"Ġpred":2217,"duct":2218,"color":2219,"cul":2220,"ports":2221,"vec":2222,"proof":2223,"ret":2224,"off":2225,"Ġstrong":2226,"gin":2227,"ĠEurope":2228,"oub":2229,"empt":2230,"Ġmodels":2231,"Ġstates":2232,"Ġshows":2233,"Ġcompany":2234,"ither":2235,"itor":2236,"ynam":2237,"Ġwon":2238,"}).":2239,"ĠAp":2240,"----------------":2241,"Ġwomen":2242,"Ġdeath":2243,"pd":2244,"Big":2245,"90":2246,"Ġaut":2247,"Ġtotal":2248,"&\\":2249,"ocument":2250,"odes":2251,"Ġcho":2252,"enc":2253,"Ġless":2254,"ĠBe":2255,"Ġhealth":2256,"ependent":2257,"Ġdeg":2258,"message":2259,"box":2260,"Ġturn":2261,"Ġmembers":2262,"Ġfollows":2263,"Ġearly":2264,"Ġmanag":2265,"Ġpoints":2266,"ĠOct":2267,"osp":2268,"Ġlinks":2269,"Col":2270,"},\\":2271,"Ġexpress":2272,"Ġke":2273,"const":2274,"mber":2275,"istor":2276,"Ġapplic":2277,"Ġeng":2278,"loc":2279,"leg":2280,"Ġgoing":2281,"mary":2282,"cor":2283,"ought":2284,")^":2285,"iment":2286,"Ġproduct":2287,"ixed":2288,"ĠNo":2289,"atter":2290,"ĠMarch":2291,"script":2292,"Ġshort":2293,"Value":2294,"ĠFl":2295,"Ġinclude":2296,"Âł":2297,"mathfrak":2298,"plit":2299,"Ind":2300,"ptember":2301,"go":2302,"Sh":2303,"Ġfull":2304,"ruction":2305,"ling":2306,"Ġmax":2307,"oman":2308,"head":2309,"Ġrecent":2310,"ription":2311,"ĠTe":2312,"Ġauthor":2313,"Ġintrodu":2314,"viron":2315,"ymmet":2316,"Lambda":2317,"Ġtimes":2318,"mm":2319,"Ġquest":2320,"Ġder":2321,"Ġland":2322,"Ġerror":2323,"pril":2324,"Ġsk":2325,"Ġalbum":2326,"ĠChrist":2327,"Ġsong":2328,"lected":2329,"Ġcity":2330,"Ġfac":2331,"Ġaction":2332,"center":2333,"Let":2334,"31":2335,"ique":2336,"34":2337,"side":2338,"boldsymbol":2339,"ĠCounty":2340,"Ġpubl":2341,"Ġchildren":2342,"sl":2343,"Ġphot":2344,"IC":2345,"Ġbr":2346,"ĠCal":2347,"Ġmillion":2348,"DE":2349,"ump":2350,"Ġinvol":2351,"Ġpotential":2352,"ably":2353,"2009":2354,"sequ":2355,"uture":2356,"urb":2357,"sm":2358,"hline":2359,"Ġband":2360,"Set":2361,"isf":2362,"];":2363,"size":2364,"Ġcomb":2365,"2008":2366,"Ġfund":2367,"Ġsignific":2368,"mat":2369,"Ġhistory":2370,"lin":2371,"ights":2372,"Ġhtt":2373,"ĠGerm":2374,"urg":2375,"alf":2376,"cember":2377,"mbox":2378,"ĠJanuary":2379,"Ġprom":2380,"ividual":2381,"}}$":2382,"Ġsit":2383,"Ġ/**":2384,"ients":2385,"75":2386,"ĠBy":2387,"Ġstructure":2388,"Ġeas":2389,"ards":2390,"langle":2391,"ĠJune":2392,"Ġcomplet":2393,"angu":2394,"orph":2395,"ological":2396,"AM":2397,"plement":2398,"ories":2399,"ica":2400,"Re":2401,"Ġdistribution":2402,"ilt":2403,"though":2404,"AS":2405,"oor":2406,"uation":2407,"Ġwin":2408,"ĠSo":2409,"Ġfurther":2410,"Ġrest":2411,"imum":2412,"ĠReg":2413,"clus":2414,"Ġphys":2415,"opy":2416,"Ġresearch":2417,"Ġleast":2418,"ĠSeptember":2419,"Ġregion":2420,"36":2421,"top":2422,"aken":2423,"Ġformer":2424,"ĠJuly":2425,"\");":2426,"bit":2427,"ldots":2428,"Ġrange":2429,"eder":2430,"70":2431,"Ġmar":2432,"ĠCity":2433,"ĠCo":2434,"idence":2435,"ĠAugust":2436,"hold":2437,"Ġcontrol":2438,"Ġavailable":2439,"ĠPar":2440,"Ġcompon":2441,"Ġimpro":2442,"));":2443,"ĠĠĠĠĠĠĠĠĠĠĠĠĠĠĠĠĠĠĠĠĠĠĠ":2444,"utions":2445,"Ġeduc":2446,"ĠOctober":2447,"Ġpath":2448,"ude":2449,"bo":2450,"ks":2451,"ĠSup":2452,"etic":2453,"Ġsom":2454,"indow":2455,"ĠApril":2456,"mult":2457,"ux":2458,"ittle":2459,"Ġvol":2460,"Ġdetail":2461,"ĠPart":2462,"Ġemploy":2463,"Ġcou":2464,"ĠĠĠĠĠĠĠĠĠĠĠĠĠ":2465,"Ġfore":2466,"Ġconc":2467,"rror":2468,"ĠMed":2469,"External":2470,"ising":2471,"nabl":2472,"appa":2473,"Ġaver":2474,"Ġfree":2475,"39":2476,"load":2477,"ready":2478,"Ġhapp":2479,"ĠNorth":2480,"Ġeconom":2481,"Phi":2482,"\"/":2483,"ĠGu":2484,"ony":2485,"Ġrelations":2486,"ems":2487,"hern":2488,"Ġoriginal":2489,"ief":2490,"Tr":2491,"If":2492,"max":2493,"II":2494,"Ġreally":2495,"Ġmagn":2496,"ĠDecember":2497,"Ġamong":2498,"ables":2499,"($":2500,"Ġpract":2501,"uration":2502,"Int":2503,"ried":2504,"eter":2505,"citep":2506,"38":2507,"Ġmom":2508,"ĠRep":2509,"Ġtarget":2510,".\\":2511,"ĠPres":2512,"2007":2513,"ino":2514,"Ġclaim":2515,")(":2516,"Ġprovide":2517,"ides":2518,"Ġservice":2519,"ii":2520,"Ġalways":2521,"Ġcost":2522,"ĠThen":2523,"Ġlimit":2524,"ales":2525,"Ġcommunity":2526,"ĠWill":2527,"CO":2528,"vironment":2529,"Ġindividual":2530,"ĠNovember":2531,"Ġaccess":2532,"Ġoften":2533,"Ġsocial":2534,"xim":2535,"Ġput":2536,"test":2537,"Ġbecome":2538,"iple":2539,"aut":2540,"rary":2541,"Ġbetter":2542,"ung":2543,"Ġfootball":2544,"Ġtheory":2545,"Ġret":2546,"inary":2547,"uck":2548,"Ġfocus":2549,"ware":2550,"Ġspecial":2551,"but":2552,"gorithm":2553,"Ġnever":2554,"ĠThese":2555,"2006":2556,"andom":2557,"Ġconsid":2558,"ĠGr":2559,"Ġside":2560,"Ġhuman":2561,"Ġestim":2562,"Ġsignificant":2563,"Ġrole":2564,"ently":2565,"Ġsource":2566,"Ġtext":2567,"Ġla":2568,"Ġcases":2569,"ĠAct":2570,"lish":2571,"Ġmeans":2572,"Object":2573,"Ġcoll":2574,"Ġmight":2575,"kappa":2576,"ges":2577,"âĢ¦":2578,"Ġ!=":2579,"Ġ%":2580,"otimes":2581,"ĠAustral":2582,"Ġwar":2583,"circ":2584,"CT":2585,"Ġrate":2586,"iles":2587,"Ġmot":2588,"Ġtry":2589,"wide":2590,"========":2591,"ecess":2592,"node":2593,"Ġindic":2594,"Ġcomplex":2595,"Ġsatisf":2596,"wid":2597,"Ġparameters":2598,"sup":2599,"Ġfail":2600,"Ġapproach":2601,"Ġbir":2602,"ĠEn":2603,"ules":2604,"ateg":2605,"ĠAb":2606,"Ġgrad":2607,"ze":2608,"AP":2609,"nonumber":2610,"asing":2611,"Ġaccount":2612,"With":2613,"textit":2614,"Ġ``":2615,"Ġlog":2616,"ibility":2617,"Ġpaper":2618,"Ġcompet":2619,"37":2620,"}),":2621,"style":2622,"Ġenc":2623,"Ġq":2624,"Ġtoo":2625,"aced":2626,"Ġid":2627,"})$":2628,"99":2629,"Ġperformance":2630,"ounc":2631,"].":2632,",\"":2633,"ĠDr":2634,"cit":2635,"now":2636,"sf":2637,"aterial":2638,"Ġdescribed":2639,"Ġsequ":2640,"ava":2641,"ribute":2642,"subset":2643,"ĠFeb":2644,"ĠCanad":2645,"sw":2646,"Ġrequire":2647,"ius":2648,"uk":2649,"ĠMc":2650,"Ġfive":2651,"Ġstudents":2652,"Test":2653,"Ġdevelopment":2654,"Ġmember":2655,"most":2656,"Ġseen":2657,"Ġfunctions":2658,"Mod":2659,"ham":2660,"Ġhard":2661,"rior":2662,"ideo":2663,"\\%":2664,"Ġcommon":2665,"ervice":2666,"Ġstatic":2667,"Ġable":2668,"\"/>":2669,"Ġnational":2670,"Ġinitial":2671,"Sigma":2672,"Ġtook":2673,"Ġimp":2674,"Ġversion":2675,"Exception":2676,"Ġobtained":2677,"Im":2678,"ustom":2679,"ae":2680,"Ġstory":2681,"ĠHar":2682,"raft":2683,"Ġneg":2684,"abor":2685,"\"><":2686,"Ġinfl":2687,"Ġalready":2688,"ogn":2689,"amples":2690,"ĠCor":2691,"ĠAfr":2692,"chie":2693,"util":2694,"ruary":2695,"Ġbelie":2696,"Ġplan":2697,"ĠBo":2698,"Ġlight":2699,"Ġacross":2700,"gether":2701,"Ġtogether":2702,"IS":2703,"ĠLet":2704,"Ġsystems":2705,"Get":2706,"ensuremath":2707,"Ġdensity":2708,"Ġfar":2709,"01":2710,"rew":2711,"Ġsays":2712,"\\!":2713,"Ġsuper":2714,"Ġant":2715,"ED":2716,"umb":2717,"adem":2718,"aps":2719,"eneral":2720,"Ġhaving":2721,"gress":2722,"Ġmen":2723,"Ġlik":2724,"dom":2725,"nabla":2726,"Ġanalysis":2727,"Ġprofess":2728,"ements":2729,"Ġcover":2730,"Ġyoung":2731,"Ġinput":2732,"Ġ($":2733,"ĠHis":2734,"uggest":2735,"\\|":2736,"px":2737,"Ġcult":2738,"ĠThat":2739,"Ġcome":2740,"Ġcamp":2741,"Ġsolution":2742,"05":2743,"Ġ///":2744,"eed":2745,"Ġred":2746,"Ġworking":2747,"Ġconstant":2748,"uments":2749,"Ġwhether":2750,"Ġconditions":2751,"Ġport":2752,"Ps":2753,"Ġgive":2754,"atural":2755,"Ġthird":2756,"Ġabs":2757,"Ġproperty":2758,"itted":2759,"ĠEd":2760,"ones":2761,"Ġgraph":2762,"iber":2763,"Ġcirc":2764,"ours":2765,"Ġ:=":2766,"Ġjo":2767,"lete":2768,"LL":2769,"Ġconsidered":2770,"Ġtitle":2771,"Ġplayed":2772,"cer":2773,"Ġmatrix":2774,"Ġdev":2775,"Ġcertain":2776,"ught":2777,"Ġeither":2778,"Ġfuture":2779,"apan":2780,"ĠBritish":2781,"Ġhigher":2782,"iven":2783,"Ġwater":2784,"iew":2785,"file":2786,"Ġage":2787,"Ġpopulation":2788,"48":2789,"Ġpay":2790,"ĠWhen":2791,"ĠDep":2792,"ĠOne":2793,"Ġtraining":2794,"Ġbig":2795,"Ġreleased":2796,"aring":2797,"Ġlength":2798,"Ġrequest":2799,"Ġblock":2800,"ĠAfter":2801,"Ġsix":2802,"Key":2803,"ending":2804,"Ġvarious":2805,"ui":2806,"Not":2807,"}}{":2808,"Ġcheck":2809,"Ġelement":2810,"Ġnode":2811,"RO":2812,"www":2813,"ĠKing":2814,"ume":2815,"ES":2816,"Error":2817,"');":2818,"ĠWest":2819,"Ġindust":2820,"Ġexpected":2821,"Ġsepar":2822,"length":2823,"Ġhowever":2824,"ayer":2825,"ething":2826,"2000":2827,"inally":2828,"Ġheld":2829,"aul":2830,"dots":2831,"reed":2832,"Ġep":2833,"ocr":2834,"cher":2835,"vision":2836,"Class":2837,"ĠOb":2838,"Ġvert":2839,"Ġsw":2840,"ĠSec":2841,"Ġevents":2842,"ĠFebruary":2843,"ington":2844,"2005":2845,"Ġcareer":2846,"ĠWith":2847,"65":2848,"minist":2849,"group":2850,"/\\":2851,"Pl":2852,"ilities":2853,"Ġfeature":2854,"ĠAg":2855,"Ġconn":2856,"ald":2857,"Ġlower":2858,"Ġreceived":2859,"Ġreason":2860,"uf":2861,"Ġdat":2862,"Ġimage":2863,"Ġsy":2864,"ured":2865,"ociety":2866,"Ġben":2867,"Ġdays":2868,"Ġthings":2869,"~~":2870,"ĠBar":2871,"Ġhom":2872,"ĠRuss":2873,"Ġstre":2874,"ining":2875,"Ġmeet":2876,"Def":2877,"ana":2878,"Ġcontext":2879,"Ġlangu":2880,"ĠMe":2881,"Ġtrad":2882,"ait":2883,"Ġparameter":2884,"prime":2885,"Ġmaking":2886,"irt":2887,"list":2888,"Ġrequired":2889,"scal":2890,"Ġattack":2891,"Ġunderstand":2892,"Ġaverage":2893,"ournal":2894,"ĠString":2895,"summary":2896,"Ġbegan":2897,"Ġstar":2898,"Ġequation":2899,"cap":2900,"Ġsuggest":2901,"Ġrepl":2902,"oph":2903,"thing":2904,"ving":2905,"Ġcalcul":2906,"Ġhouse":2907,"path":2908,"Ġbase":2909,"Ġpolitical":2910,"aff":2911,"Ap":2912,"widet":2913,"Ġcame":2914,"fer":2915,"ĠAm":2916,"Ġtaken":2917,"ondon":2918,"Ġcreate":2919,"ography":2920,"Ġachie":2921,"date":2922,"ampions":2923,"based":2924,"Ġcross":2925,"Se":2926,"Ġconsist":2927,"Fig":2928,"Ġcorresponding":2929,"ilitary":2930,"ouncil":2931,"url":2932,"sel":2933,"rect":2934,"ension":2935,"\\[":2936,"ĠPresident":2937,"Ġapproxim":2938,"Ġfri":2939,"().":2940,"cast":2941,"Ġpair":2942,"http":2943,"ĠArt":2944,"Ġgot":2945,"Ġrespectively":2946,"Ġbuilding":2947,"index":2948,"Ġfile":2949,"down":2950,"Ġprim":2951,"Ġkind":2952,"ster":2953,"());":2954,"Ġwritten":2955,"ĠCO":2956,"New":2957,"map":2958,"ecut":2959,"95":2960,"Ġservices":2961,"ceed":2962,"lo":2963,"Ġtre":2964,"widetilde":2965,"Ġask":2966,"ued":2967,"Ġpast":2968,"Ġpublished":2969,"ĠSch":2970,"Ġbi":2971,"Ġstandard":2972,"Ġsent":2973,"Ġstyle":2974,"Ġorg":2975,"Ġloss":2976,"ĠBr":2977,"ĠComp":2978,"Ġbelow":2979,"draw":2980,"44":2981,"ĠCour":2982,"ĠDav":2983,"Ġarch":2984,"ops":2985,"perty":2986,"earch":2987,"Ġphase":2988,"atus":2989,"Ġblack":2990,"Ġprovided":2991,"ĠHouse":2992,"All":2993,"Ġlot":2994,"Ġgroups":2995,"bor":2996,"rown":2997,"Ġaccording":2998,"Ġdimens":2999,"Ġnecess":3000,"Ġbreak":3001,"rest":3002,"annel":3003,"Ġviol":3004,"Ġear":3005,"Ġtemper":3006,"bra":3007,"Ġpositive":3008,"Ġworks":3009,"{-":3010,"Ġmarket":3011,"Ġtrack":3012,"aged":3013,"ican":3014,"Ġbackground":3015,"Ġaddress":3016,"ĠArm":3017,"ulations":3018,"Ġair":3019,"Sc":3020,"ager":3021,"ached":3022,"Ġcell":3023,"translation":3024,"Ġbehav":3025,"Ġsomething":3026,"nder":3027,"IM":3028,"}-":3029,"ĠCollege":3030,"ĠSw":3031,"Ġge":3032,"Ġpur":3033,"Ġhy":3034,"Ġcy":3035,"Ġindependent":3036,"Ġmoment":3037,"pace":3038,"Ġglobal":3039,"Ġlittle":3040,"centering":3041,"ĠGl":3042,"Ġclose":3043,"plies":3044,"Qu":3045,"fficient":3046,"state":3047,"rc":3048,"2004":3049,"Ġperm":3050,"iance":3051,"wise":3052,"Ġarray":3053,"illed":3054,"ands":3055,"Ġtown":3056,"Ġassociated":3057,"Ġinvestig":3058,";\\":3059,"Ġreview":3060,"Ġmethods":3061,"Ġincluded":3062,"hib":3063,"Ġothers":3064,"ĠRec":3065,"Ġsem":3066,"ĠAmerica":3067,"Ġassert":3068,"ership":3069,"Ġdoub":3070,"rench":3071,"artment":3072,"Ġfeatures":3073,"PE":3074,"Ġdone":3075,"medi":3076,"ĠEnglish":3077,"alax":3078,"Ġparent":3079,"semb":3080,"Ġfrequ":3081,"ĠJapan":3082,"ĠEl":3083,"ĠSer":3084,"Ġproperties":3085,"ĠĠĠĠĠĠĠĠĠĠĠĠ":3086,"Ġgen":3087,"Ġthus":3088,"plied":3089,"ION":3090,"Or":3091,"Ġtw":3092,"Ġill":3093,"ese":3094,"ille":3095,"And":3096,"ĠLondon":3097,"Ġground":3098,"na":3099,"ĠEq":3100,"alt":3101,"Ġbecom":3102,"ivil":3103,"Ġinstance":3104,"duc":3105,"Ġaway":3106,"Ġappear":3107,"ĠSection":3108,"which":3109,"ET":3110,"Le":3111,"prot":3112,"error":3113,"Ġthough":3114,"Ġtask":3115,"Ġindex":3116,"ordin":3117,"my":3118,"2022":3119,"Ġnamed":3120,"Ġmatch":3121,"ĉĉĉĉĉ":3122,"igned":3123,"nb":3124,"ĠII":3125,"ĠInternational":3126,"link":3127,"gl":3128,"Ġhost":3129,"Time":3130,"Ġes":3131,"Ġgames":3132,"rav":3133,"itch":3134,"ĠDist":3135,"Ġbegin":3136,"Ġstep":3137,"zeta":3138,"Ġsche":3139,"ship":3140,"Ġlines":3141,"Ġenough":3142,"Ġdynam":3143,"Ġbuilt":3144,"exp":3145,"Ġestablished":3146,"Ġimplement":3147,"year":3148,"ged":3149,"Equ":3150,"Ġmaterial":3151,"55":3152,"Ġhalf":3153,"Ġnormal":3154,"Ġdiv":3155,"Requ":3156,"roid":3157,"cell":3158,"Ġ&=":3159,"ford":3160,"tabular":3161,"izing":3162,"}+":3163,"Ġcaus":3164,"Ġpress":3165,"Ġrelated":3166,"08":3167,"Ġproof":3168,"Ġcourse":3169,"chan":3170,"07":3171,"Ġemb":3172,"\\{":3173,"Ġtreat":3174,"ogle":3175,"aries":3176,"ĠMore":3177,"Ġresponse":3178,"Ġrandom":3179,"Ġstarted":3180,"iet":3181,"Ġlinear":3182,"From":3183,"ĠÂ":3184,"ĠPark":3185,"Ġcompos":3186,"itte":3187,"At":3188,"nection":3189,"Ġ?":3190,"/**":3191,"oted":3192,"Ġnumer":3193,"Ġfig":3194,"ĠChar":3195,"https":3196,"cle":3197,"ĠQu":3198,"init":3199,"Ġwent":3200,"ama":3201,"ĠChe":3202,"comp":3203,"Ġsubject":3204,"Ġclear":3205,"ĠHer":3206,"ender":3207,"Ġinternational":3208,"ĠMon":3209,"Ġang":3210,"Man":3211,"Ġrefer":3212,"icro":3213,"thm":3214,"iddle":3215,"Ġshall":3216,"File":3217,"Ġjob":3218,"from":3219,"cos":3220,"Ġcreated":3221,"Ġarm":3222,"See":3223,"Ġdest":3224,")=\\":3225,"Ġannoun":3226,"acc":3227,"isk":3228,"Ġ/*":3229,"Ġproduction":3230,"Ġactiv":3231,"result":3232,"04":3233,"Ġkeep":3234,"Ġvia":3235,"hood":3236,"ĠBro":3237,"Ġquestion":3238,"ĠVal":3239,"ula":3240,"|-":3241,"ĠPe":3242,"ĠWilliam":3243,"AD":3244,"Ġenvironment":3245,"Ġcontent":3246,"ĠPer":3247,"Ġvector":3248,"ession":3249,"ĠIm":3250,"nown":3251,"Ġlocated":3252,"Ġtele":3253,"omorph":3254,"icult":3255,"Ġbody":3256,"Ġdocument":3257,"ishing":3258,"Ġelements":3259,"Ġcentury":3260,"Ġrather":3261,"mark":3262,"Node":3263,"mon":3264,"rows":3265,"AB":3266,"Ġonce":3267,"under":3268,"There":3269,"Is":3270,"(),":3271,"verse":3272,"ills":3273,"body":3274,"\";":3275,"pack":3276,"gr":3277,"Ġcle":3278,"Ġregular":3279,"\":":3280,"Ġchall":3281,"Ġrights":3282,"UT":3283,"\\]":3284,"Ġdire":3285,"En":3286,"Ġcannot":3287,"Ġofficial":3288,"Ġcompan":3289,"Ġproposed":3290,"Bl":3291,"}=\\":3292,"ĠAir":3293,"born":3294,"Ġconstruct":3295,"ĠSince":3296,"State":3297,"06":3298,"itions":3299,"Ġcode":3300,"Ġlo":3301,"Ġrespons":3302,"Ġdefine":3303,"ĠLeague":3304,"Ġhistor":3305,"estern":3306,"Ã¡":3307,"Element":3308,"Ġtalk":3309,"Ġsymmet":3310,"Ġdegree":3311,"Ġpercent":3312,"ires":3313,"Ġord":3314,")}\\":3315,"oud":3316,"Ġ);":3317,"Ġlabel":3318,"ĠAng":3319,"unity":3320,"Ġflow":3321,"Ġpo":3322,"47":3323,"Ġwhose":3324,")^{":3325,"ĠHigh":3326,"{(":3327,"Ġsimple":3328,"iforn":3329,"Ġscale":3330,"atives":3331,"aly":3332,"irm":3333,"Ġconcern":3334,"Ġparticip":3335,"emma":3336,"/*":3337,"$)":3338,"ided":3339,"UR":3340,"appro":3341,"Ġconfig":3342,"Ġclust":3343,"De":3344,"2003":3345,"foot":3346,"}]":3347,"Ġexperience":3348,"ederal":3349,"ĠTheorem":3350,"49":3351,"Ġ},":3352,"Ġra":3353,"stance":3354,"Ġfilms":3355,"Ġrecogn":3356,"Ġalmost":3357,"Ġfeel":3358,"ĠHam":3359,"09":3360,"Ġreported":3361,"Ġobserved":3362,"Ġsite":3363,"ags":3364,"Ġtax":3365,"ĠPhil":3366,"Event":3367,"avy":3368,"ottom":3369,"CC":3370,"rain":3371,"Ġpredict":3372,"Ġspecific":3373,"HE":3374,"But":3375,"][":3376,"Ġfinite":3377,"Ġexact":3378,"rum":3379,"Ġlearning":3380,"Ġdefinition":3381,"elling":3382,"66":3383,"Ġpolicy":3384,"ĠGovern":3385,"ifornia":3386,"call":3387,"Ġfactor":3388,"02":3389,"Ġborn":3390,"pen":3391,"System":3392,"Ġmulti":3393,".~":3394,"03":3395,"Ġamount":3396,"era":3397,"Ad":3398,"Att":3399,"oo":3400,"Ġmatter":3401,"rs":3402,"Wh":3403,"ĠCourt":3404,"How":3405,"igen":3406,"Ġserved":3407,"View":3408,"ĠLa":3409,"Americ":3410,"ampionship":3411,"yl":3412,"Ġsett":3413,"LO":3414,"ponse":3415,"Ġeval":3416,"raction":3417,"Ġsaf":3418,"ping":3419,"Ġled":3420,"Ġzero":3421,"ĠCont":3422,"Ġadditional":3423,"ĠStud":3424,"itect":3425,"Ġapply":3426,"Index":3427,"Ġimpact":3428,"Ġmedia":3429,"Ġuser":3430,"sin":3431,"Ġtoday":3432,"Ġalgorithm":3433,"Ġentire":3434,"sing":3435,"Ġthought":3436,"Ġexists":3437,"Ġ===":3438,"han":3439,"nbsp":3440,".</":3441,"itting":3442,"Ġrat":3443,"utes":3444,"ridge":3445,"Ġlive":3446,"ledge":3447,"cis":3448,"rup":3449,"ĠIndia":3450,"aches":3451,"Ġinflu":3452,"ĠMich":3453,"ancial":3454,"cdots":3455,"oken":3456,"ĠAssoci":3457,"gen":3458,"Ġeducation":3459,"Ġnatural":3460,"}\\,":3461,"oon":3462,"}_\\":3463,"ributions":3464,"TR":3465,"Ġmiss":3466,"}^\\":3467,"ĠLaw":3468,"++":3469,"ened":3470,"Ġcourt":3471,"ĠSm":3472,"Ġfields":3473,"Ġbroad":3474,"atory":3475,"olean":3476,"2001":3477,"small":3478,"Ġclub":3479,"Ġstation":3480,"overed":3481,"ĠRet":3482,"Form":3483,"Ġlarger":3484,"Ġmakes":3485,"Ġcolor":3486,"2002":3487,"Ġcountries":3488,"Ġnov":3489,"85":3490,"97":3491,"Array":3492,"inated":3493,"ĠChina":3494,"BC":3495,"Ġlanguage":3496,"define":3497,"ĠNot":3498,"Ġprinc":3499,"Ġoutput":3500,"Ġprior":3501,"}|":3502,"........":3503,"Ġchanges":3504,"irl":3505,"ounter":3506,"Text":3507,"LA":3508,"attle":3509,"ework":3510,"Ġdifficult":3511,"inn":3512,"rated":3513,"Ġgalax":3514,"Ġlate":3515,"Path":3516,"Ġnum":3517,"ĠSan":3518,"ĠSystem":3519,"mit":3520,"ĠInt":3521,"Ġcut":3522,"US":3523,"{{\\":3524,"ittee":3525,"andid":3526,"Ġcoupl":3527,"ĠEuropean":3528,"eff":3529,"ili":3530,"Ġregard":3531,"Over":3532,"ccording":3533,"more":3534,"Ġvalid":3535,"Ġincrease":3536,"book":3537,"och":3538,"ĠCenter":3539,"ĠCalifornia":3540,"TE":3541,"Ġbring":3542,"pecially":3543,"Ġtaking":3544,"Ġpresident":3545,"ĠFirst":3546,"Ġsurface":3547,"plicit":3548,"ĠDepartment":3549,"Field":3550,"Ġwhy":3551,"ponent":3552,"^+":3553,"prop":3554,"Ġvideo":3555,"ĠFrench":3556,"atrix":3557,"Ġliter":3558,"Ġattempt":3559,"Ġequival":3560,"mar":3561,"useum":3562,"Ġmer":3563,"orge":3564,"like":3565,"Ġdistance":3566,"Ġ/>":3567,"Ġoptions":3568,"Ġdeal":3569,"unic":3570,"Psi":3571,"gebra":3572,"Ġbenef":3573,")]":3574,"ĠRepublic":3575,"aves":3576,"Ġdecl":3577,"tact":3578,"Ġfixed":3579,"Ġtherefore":3580,"Ġrelationship":3581,"Ġoperator":3582,"ĠEngland":3583,"Ġmonths":3584,"Ġleading":3585,"ched":3586,"icles":3587,"FF":3588,"Ġpers":3589,"67":3590,"qquad":3591,"Info":3592,"})\\":3593,"acing":3594,"Ġunit":3595,"ĠInstit":3596,"Ġareas":3597,"Ġquantum":3598,".)":3599,"Ġhon":3600,"ĉĊ":3601,"pan":3602,"reet":3603,"astic":3604,"Ġexperiment":3605,"98":3606,"Ġinc":3607,"ĠSim":3608,"ĠDis":3609,"uel":3610,"Ġissues":3611,"Ġinstead":3612,"Ġeffects":3613,"Ġeffort":3614,"ellow":3615,"hel":3616,"ĠVol":3617,"widehat":3618,"ael":3619,"que":3620,"Ġdied":3621,"Ġfall":3622,"Ġcontains":3623,"Ġvill":3624,"lemma":3625,"public":3626,"Ġaccept":3627,"Ġfather":3628,"istics":3629,"ĠDef":3630,"Ġeffective":3631,"asc":3632,"':":3633,"``":3634,"icon":3635,"change":3636,"Fil":3637,"Add":3638,"light":3639,"&=":3640,"Ġgives":3641,"Ġworked":3642,"Ġrank":3643,"Request":3644,"ully":3645,"js":3646,"Ġcomplete":3647,"edd":3648,"Ġneigh":3649,"Ġlove":3650,"Ġever":3651,"ĠMark":3652,"Ġhttps":3653,"Ġson":3654,"van":3655,"known":3656,"Ġadded":3657,"Ġpopular":3658,"Ġmoney":3659,"bb":3660,"ibrary":3661,"Ġsequence":3662,"Ġbasis":3663,"Ġcompanies":3664,"cup":3665,"ĠIndian":3666,"void":3667,"Ġdefault":3668,"Ġmilitary":3669,"arily":3670,"({\\":3671,"ĠFrom":3672,",-":3673,"IG":3674,"Ġplayer":3675,"ĠDem":3676,"textwidth":3677,"Ġ(!":3678,"olic":3679,"Of":3680,"vey":3681,"ĠMy":3682,"ashington":3683,"Ġtable":3684,"Ġengine":3685,"Ġ});":3686,"Ġwrite":3687,"){":3688,"Ġissue":3689,"Ġ__":3690,"MS":3691,"isions":3692,"Ġcontract":3693,"ĠCouncil":3694,"////////":3695,"Result":3696,"American":3697,"ises":3698,"Ġspin":3699,"ĠFigure":3700,"Ġspecies":3701,"ptions":3702,"Ġlikely":3703,"ico":3704,"Ġproduced":3705,"Ġdistrict":3706,"['":3707,"burg":3708,"ĠAc":3709,"Ġitself":3710,"bsite":3711,"ributed":3712,"Ġpan":3713,"api":3714,"augh":3715,"Ġrestr":3716,"ĠGod":3717,"Ġmultiple":3718,"46":3719,"actions":3720,"Ġprobability":3721,"Ġbar":3722,"Ġconduct":3723,"lor":3724,"Ġactually":3725,"88":3726,"Ġproblems":3727,"aker":3728,"ney":3729,"century":3730,"Ġoccur":3731,"ulated":3732,"ĠEast":3733,"skip":3734,"Ġprovides":3735,"aign":3736,"Ġagre":3737,"struct":3738,"ĠSy":3739,"ensive":3740,"Ġ\\{":3741,"}^{(":3742,"xspace":3743,"ota":3744,"input":3745,"Ġupon":3746,"ees":3747,"ocal":3748,"Ġgas":3749,"Ġjud":3750,"ensor":3751,"quare":3752,"ips":3753,"Ġanaly":3754,"oms":3755,"Ġsuccessful":3756,"Context":3757,"Ġwidth":3758,"pdf":3759,"Ġassume":3760,"Ġcentral":3761,"Ġsets":3762,"Ġdeveloped":3763,"mathsf":3764,"Ġwords":3765,"Ġwhole":3766,"Ġsold":3767,"Ġtemperature":3768,"ĠGerman":3769,"0000":3770,"Pr":3771,"Ġapp":3772,"bre":3773,"rael":3774,"Ġdidn":3775,"ariant":3776,"Ġdecision":3777,"ĠPal":3778,"Ġcompar":3779,"Ġaud":3780,"ids":3781,"Ġparty":3782,"ING":3783,"Ġtold":3784,"true":3785,"uate":3786,"96":3787,"Map":3788,"Rec":3789,"Ġaccur":3790,"IP":3791,"Ġopport":3792,"izes":3793,"Ġarr":3794,"istry":3795,"Ġyet":3796,"atively":3797,"Ġforce":3798,"ett":3799,"command":3800,"Ġcustom":3801,"indent":3802,"Ġadminist":3803,"Ġequal":3804,"ĠTrans":3805,"cing":3806,"Ġconstruction":3807,"ĠSen":3808,"ĠGeneral":3809,"ĠMod":3810,"itz":3811,"Ġround":3812,"selves":3813,"ML":3814,"Ġincludes":3815,"valid":3816,"Ġindustry":3817,"Ġtransform":3818,"Ġcontinue":3819,"icol":3820,"ĠDistrict":3821,"aching":3822,"mid":3823,"pol":3824,"Ġstars":3825,"itude":3826,"MA":3827,"Ġnote":3828,"ores":3829,"equiv":3830,"Ġunc":3831,"ying":3832,"Ġ$(\\":3833,"display":3834,"Ġcolumn":3835,"())":3836,"dt":3837,"aging":3838,"ĠDo":3839,"Ġpresented":3840,"Ġsample":3841,"Ġmove":3842,"Ġcenter":3843,"ĠThus":3844,"Ġess":3845,"When":3846,"42":3847,"Ġmechan":3848,"otes":3849,"pite":3850,"Ġcompared":3851,"ĠUK":3852,"hand":3853,"}}(":3854,"Ġhor":3855,"omb":3856,"ĠBlack":3857,"Ġdeb":3858,"ĠHealth":3859,"onstr":3860,"Ġespecially":3861,"Ġcomponent":3862,"plate":3863,"scale":3864,"den":3865,"uit":3866,"Ġstop":3867,"Ġsense":3868,"Ġnil":3869,"ara":3870,"Ġsearch":3871,"gs":3872,"Ġvisit":3873,"Ġbirths":3874,"agon":3875,"oke":3876,"Ġsecur":3877,"used":3878,"Config":3879,"assert":3880,"}\\\\":3881,"500":3882,"that":3883,"Ġrev":3884,"ĠĠĠĠĊ":3885,"encies":3886,"amespace":3887,"ctors":3888,"oyal":3889,"']":3890,"Ġdep":3891,"ĠWhat":3892,"UN":3893,"Ġedge":3894,"band":3895,"rote":3896,"77":3897,"ĠAustralia":3898,"rate":3899,"Ġ};":3900,"Ġevidence":3901,"After":3902,"cial":3903,"Dis":3904,"ĠChurch":3905,"ades":3906,"Ġneeds":3907,"Ġcapt":3908,"atform":3909,"citet":3910,"ĠCanada":3911,"Ġcorrel":3912,"';":3913,"ĠRef":3914,"Ġprop":3915,"dimens":3916,"eloc":3917,"Ġaward":3918,"ride":3919,"ĠDavid":3920,"Ġdifference":3921,"agram":3922,"ategory":3923,"ĠWashington":3924,"Ġpersonal":3925,"lands":3926,"unk":3927,"ging":3928,"Ġannounced":3929,"Ġtakes":3930,"Ġver":3931,"ites":3932,"Ġfav":3933,"Ġstudies":3934,"Ġsound":3935,"Ġphysical":3936,"Ġthing":3937,"oved":3938,"****************":3939,"Ġeffic":3940,"Ġneeded":3941,"star":3942,"icture":3943,"note":3944,"CH":3945,"ha":3946,"iers":3947,"Ġfram":3948,"ein":3949,"ĠPaul":3950,"Ġmoved":3951,"asons":3952,"iform":3953,"ranch":3954,"OT":3955,"Ġdate":3956,"berg":3957,"ĠMor":3958,"iences":3959,"Ġtradition":3960,"Ġholds":3961,"Ġdirectly":3962,"Ġunique":3963,"43":3964,"ĠHol":3965,"Ġcandid":3966,"ares":3967,"Ġfront":3968,"urity":3969,"Ġdirector":3970,"Ġbit":3971,"Ġimm":3972,"Ġalign":3973,"ĠNe":3974,"ersion":3975,"One":3976,"Ġidea":3977,"Ġincreasing":3978,"word":3979,"ĠJames":3980,"Ġ()":3981,"Code":3982,"Ġnuc":3983,"Ġsuff":3984,"Ġoffice":3985,"Ġvict":3986,"Trans":3987,"ĠList":3988,"Ġsoft":3989,"Ġweight":3990,"object":3991,"xy":3992,"dr":3993,"vant":3994,"ĠĠĠĠĠĠĠĠĠĠĠĠĠĠĠĠĠĠĠĠĠĠĠĠĠĠĠ":3995,"ĠLemma":3996,"Ġrelation":3997,"ĠDirect":3998,"operat":3999,"IR":4000,"Ġclosed":4001,"elt":4002,"pty":4003,"Service":4004,"Ġapplication":4005,"ening":4006,"unn":4007,"Ġ&\\":4008,"atal":4009,"ida":4010,"rupt":4011,"pression":4012,"Ġfem":4013,"Ġperformed":4014,"Ġsex":4015,"Ġrelig":4016,"Ġtransition":4017,"Size":4018,"Ġinvolved":4019,"Hand":4020,"Ġdoing":4021,"Ġsolutions":4022,"Ġrelease":4023,"operatorn":4024,"}:":4025,"Ġbank":4026,"ĠEm":4027,"Ġdirection":4028,"Ġboundary":4029,"Ġdemonstr":4030,"[]":4031,"acher":4032,"ĠGet":4033,"ĠParty":4034,"Ġcurrently":4035,"acity":4036,"Ġmessage":4037,"otype":4038,"OS":4039,"Ġcomes":4040,"1999":4041,"Ġcoordin":4042,"ĠGo":4043,"Ġnecessary":4044,"]$":4045,"Build":4046,"escription":4047,"edge":4048,"operatorname":4049,"ĠDes":4050,"Ġnews":4051,"clusion":4052,"member":4053,"Reg":4054,"ector":4055,"\"></":4056,"1998":4057,"ĠPat":4058,"Ġtypes":4059,"ipl":4060,"ario":4061,"Ġstage":4062,"Ġcontain":4063,"Ġconv":4064,"Out":4065,"Ġtell":4066,"eline":4067,"Inter":4068,"CD":4069,"ĠWhile":4070,"Ġearli":4071,"oul":4072,"Ġoutside":4073,"oe":4074,"alle":4075,"ĠĠĠĠĠĠĠĠĠĠ":4076,"1990":4077,"ĠGroup":4078,"ns":4079,"Ġdatas":4080,"location":4081,"Ġequations":4082,"}+\\":4083,"cret":4084,"Ġmention":4085,"Ġnorth":4086,"Ġlost":4087,"ĠThom":4088,"Ġliving":4089,"Ġonline":4090,"ming":4091,"Ġcritical":4092,"ĠPort":4093,"MP":4094,"ĠRober":4095,"'re":4096,"Ġtelevision":4097,"izations":4098,"ĠBer":4099,"Ġpref":4100,"68":4101,"ander":4102,"can":4103,"Ġimages":4104,"ville":4105,"long":4106,"Ġinj":4107,"Ġwhite":4108,"ago":4109,"Pe":4110,"ously":4111,"lymp":4112,"level":4113,"ifier":4114,")-":4115,"Ġshare":4116,"'$":4117,"Ġtransfer":4118,"ĠInstitute":4119,"Ġinstit":4120,"}}{\\":4121,"ĠTest":4122,"Ġveloc":4123,"Ġcollection":4124,"Ġforward":4125,"ĠDon":4126,"Since":4127,"Ġlargest":4128,"riate":4129,"Ġwrote":4130,"CE":4131,"What":4132,"Ġeconomic":4133,"ĠAnt":4134,"nav":4135,"41":4136,"Ġnight":4137,"Ġpolice":4138,"Ġfinancial":4139,"Ġreturned":4140,"ilton":4141,"Ġpack":4142,"apache":4143,"Ġassist":4144,"Ġroad":4145,"Ġintroduced":4146,"SP":4147,"Ġdetails":4148,"check":4149,"Ġmother":4150,"hspace":4151,"Ġrepresentation":4152,"ĠIsrael":4153,"Ġsens":4154,"Ġparts":4155,"Ġsources":4156,"ĠDiv":4157,"ken":4158,"Ġpage":4159,"(-":4160,"Ã³":4161,"ĠRed":4162,"~$":4163,"Ġemer":4164,"ĠOff":4165,"Ġnumbers":4166,"abs":4167,"rief":4168,"Ġarchitect":4169,"bert":4170,"Ġsimply":4171,"Ġsure":4172,"}-\\":4173,"pret":4174,"Ġthroughout":4175,"ĠCup":4176,"ĠNews":4177,"Ġcred":4178,"ĠStreet":4179,"Ġestablish":4180,"irtual":4181,"ĠJust":4182,"Ġmid":4183,"ĠAssociation":4184,"Ġelection":4185,"create":4186,"default":4187,"roy":4188,"Ġsecurity":4189,"ync":4190,"Ġdenote":4191,"uffer":4192,"ipal":4193,"neq":4194,"ean":4195,"Ġwave":4196,"ĠRich":4197,"ilies":4198,"umerate":4199,"ĠJew":4200,"Ġgrowth":4201,"Ġgenerated":4202,"ooth":4203,"ĠAward":4204,"58":4205,"Ġdeep":4206,"Ġflu":4207,"ien":4208,"OD":4209,"lying":4210,"Ġwebsite":4211,"nes":4212,"Ġexecut":4213,"angle":4214,"Ġresid":4215,"Ser":4216,"Ġten":4217,"Ġface":4218,"ĠFrance":4219,"Ġmonth":4220,"Ġ-\\":4221,"Ġimmedi":4222,"Group":4223,"1996":4224,"ĠCong":4225,"Ġbecomes":4226,"Ġalthough":4227,"func":4228,"57":4229,"ĠRiver":4230,"onic":4231,"Ġcorrect":4232,"No":4233,"Ġtechnology":4234,"bound":4235,"Ġwriting":4236,"Ġarticle":4237,"ĠGeorge":4238,"dag":4239,"spec":4240,"Ġprove":4241,"fin":4242,"Ġscen":4243,"Ġadj":4244,"ĠArch":4245,"unch":4246,"apping":4247,"Ġmodern":4248,"tes":4249,"Ġappoint":4250,"Ġobjects":4251,"fill":4252,"Ġhimself":4253,"Ġrisk":4254,"noindent":4255,"fil":4256,"Ġcampaign":4257,"Ġdig":4258,"ospital":4259,"Ġbelieve":4260,"ication":4261,"Ġreve":4262,"Ġbehind":4263,"using":4264,"Ġhttp":4265,"ÃŃ":4266,"range":4267,"Ġgoal":4268,"Ġtravel":4269,"ĠHall":4270,"do":4271,"iation":4272,"Ġsouth":4273,"nov":4274,"ĠCompany":4275,"Ġoptim":4276,"Ġcomponents":4277,"Ġevolution":4278,"|^":4279,"wood":4280,"pc":4281,"Ġqual":4282,"Ġactive":4283,"Ġcharg":4284,"Ed":4285,"Ġapplied":4286,"iments":4287,"Ġmaximum":4288,"ky":4289,"Ġmag":4290,"ĠUnion":4291,"Ġdoesn":4292,"model":4293,"uge":4294,"$}":4295,")}{":4296,"Ġfood":4297,"md":4298,"Ġlegal":4299,"dist":4300,"1997":4301,"Ġepis":4302,"plication":4303,"content":4304,"Ġallowed":4305,"dimensional":4306,"Ġconver":4307,"split":4308,"Ġrot":4309,"Ġbehavior":4310,"ĠMal":4311,"Ġlonger":4312,"abled":4313,"config":4314,"Ġrecently":4315,"87":4316,"Ġgre":4317,"approx":4318,"\"\"":4319,"Ġmagnetic":4320,"rian":4321,"ĠCons":4322,"ocol":4323,"Ġconstit":4324,"aur":4325,"ayout":4326,"het":4327,"enumerate":4328,"hest":4329,"Ġknowledge":4330,"SC":4331,"Ġword":4332,"Ġdraw":4333,"Ġdepart":4334,"]\\":4335,"efore":4336,"scr":4337,"itar":4338,"Ġimplies":4339,"End":4340,"anning":4341,"Ġallows":4342,"Ġcapital":4343,"apter":4344,"mail":4345,"Ġchoice":4346,"Ġnature":4347,"Ġstatement":4348,"ĠResearch":4349,"Ġseem":4350,"Ġbooks":4351,"Ġaccom":4352,"user":4353,"ĠMr":4354,"Ġsus":4355,"VID":4356,"opl":4357,"Item":4358,"Ġstatus":4359,"ĠAfrica":4360,"Ġsmaller":4361,"Ġsetting":4362,"ios":4363,"Ġschools":4364,"Ġtool":4365,"Sub":4366,"orthern":4367,"ĠInter":4368,"Sup":4369,"ya":4370,"Ġremains":4371,"outhern":4372,"Ġdisplay":4373,"print":4374,"raz":4375,"IL":4376,"ĠChampionship":4377,"ĠBel":4378,"method":4379,"Ġcit":4380,"Ġelectron":4381,"ĠÐ":4382,"theorem":4383,"Read":4384,"ĠFil":4385,"web":4386,"ĉĠĠĠ":4387,"Ġacqu":4388,"block":4389,"isation":4390,"Ġnovel":4391,"rec":4392,"Ġdetermined":4393,"itemize":4394,"eck":4395,"ĠFound":4396,"rip":4397,"agement":4398,"Ġcontinued":4399,"nce":4400,"ado":4401,"Ġcoe":4402,"56":4403,"icense":4404,"start":4405,"Ġfit":4406,"rule":4407,"Ġproced":4408,"IF":4409,"include":4410,"osen":4411,"Ġcivil":4412,"Ġstreng":4413,"Ġquite":4414,"ĠGreen":4415,"atur":4416,"rim":4417,"Ġconsum":4418,"EE":4419,"ĠPress":4420,"Ġspectrum":4421,"Ġrule":4422,"stant":4423,")}$":4424,"Ġyield":4425,"net":4426,"unt":4427,"omial":4428,"Table":4429,"ĠOur":4430,"Ġdouble":4431,"Ġconcept":4432,"Ġweak":4433,"ĠScience":4434,"Ġfire":4435,"amily":4436,"Ġtowards":4437,"ĠDemocr":4438,"Call":4439,"Count":4440,"Ġwalk":4441,"ĠTherefore":4442,"reme":4443,"Ġoperations":4444,"Ġupper":4445,"writ":4446,"Ġtro":4447,"oring":4448,"vention":4449,"istan":4450,"Ġpractice":4451,"Ġscient":4452,"Ġsupported":4453,"Ġoperation":4454,"Ge":4455,"arr":4456,"ĠArmy":4457,"Pi":4458,"oat":4459,"Ġradio":4460,"Ġboard":4461,"emic":4462,"men":4463,"inese":4464,"force":4465,"mes":4466,"ech":4467,"ĠTV":4468,"}/":4469,"Ġprote":4470,"Ġwife":4471,"Ġbox":4472,"Ġrelative":4473,"Ġadm":4474,"\\,\\":4475,"ĠSome":4476,"Ġchalleng":4477,"ENT":4478,"Ġuses":4479,"png":4480,"Pol":4481,"Message":4482,"NN":4483,"Ġthemselves":4484,"ansion":4485,"Ġdecre":4486,"Ġlimited":4487,"Ġlocation":4488,"Ġreference":4489,"Ġstaff":4490,"You":4491,"case":4492,"ĠTex":4493,"ĠMart":4494,"AG":4495,"Ġadopt":4496,"Ġmanagement":4497,"Ġprofessional":4498,"uated":4499,"Ġneut":4500,"Ġpattern":4501,"Ġmaintain":4502,"](":4503,"Ã¼":4504,"height":4505,"auge":4506,"sembly":4507,"Ġrunning":4508,"Ġansw":4509,"((":4510,"Vert":4511,"ĠDan":4512,"ĠCap":4513,"ĠQue":4514,"ĠNote":4515,"!--":4516,"multicol":4517,"tem":4518,"ston":4519,"Ġborder":4520,"Ġquality":4521,"SU":4522,"Ġwindow":4523,"ometimes":4524,"lt":4525,"current":4526,"Ġusually":4527,"vis":4528,"Ġexhib":4529,"roller":4530,"{}":4531,"ecause":4532,"ĠClass":4533,"oice":4534,"ĠPublic":4535,"}}}":4536,"Ġproducts":4537,"Ġlevels":4538,"}}_":4539,"antic":4540,"Fl":4541,"ULL":4542,"ĠMary":4543,"zz":4544,"1980":4545,"ube":4546,"Ġfollowed":4547,"Ġpain":4548,"pat":4549,"Ġaltern":4550,"93":4551,"multicolumn":4552,"usion":4553,"vspace":4554,"flow":4555,"ifying":4556,"Ġrock":4557,"yr":4558,"Ġindu":4559,"omorphism":4560,"Ġexpression":4561,"Ġplaying":4562,"count":4563,"Ġfriend":4564,"run":4565,"PS":4566,"ds":4567,"Log":4568,"oto":4569,"Ġfight":4570,"ĠGermany":4571,"Ġalgebra":4572,"Ġdesigned":4573,"image":4574,"Ġchurch":4575,"Ġdam":4576,"ental":4577,"has":4578,"Ġ\\;":4579,"ĠCommission":4580,"Ġlat":4581,"Ġmind":4582,"arter":4583,"Ġsituation":4584,"options":4585,"Ġcopy":4586,"icted":4587,"Ġdomain":4588,"Ass":4589,"pected":4590,"Model":4591,"ĠSet":4592,"Ġestimate":4593,"Ġselected":4594,"ĠSub":4595,"Ġsaw":4596,"Ġsurv":4597,"ĠLou":4598,"Ġavoid":4599,"Ġquick":4600,"Ġseems":4601,"Ġcharge":4602,"Ġrace":4603,"ĠTable":4604,"Ġmedical":4605,"Ġcontact":4606,"ria":4607,"airs":4608,"Ġple":4609,"la":4610,"ĠIN":4611,"86":4612,"ĠWork":4613,"normal":4614,"Ġlives":4615,"ĠMex":4616,"Ġagreement":4617,"1995":4618,"='":4619,"Ġearlier":4620,"ĠWhite":4621,"Ġiter":4622,"Ġremain":4623,"Ġsignal":4624,"ocation":4625,"eles":4626,"Ġhours":4627,"Ġvillage":4628,"--------------------------------":4629,"Ġjoined":4630,"####":4631,"Ġratio":4632,"hing":4633,"Then":4634,"Ġprimary":4635,"Ġgave":4636,"Ġinteresting":4637,"turb":4638,"ingu":4639,"gence":4640,"Ġir":4641,"grad":4642,"Ġscience":4643,"izer":4644,"alls":4645,"Ġded":4646,"Ġconnected":4647,"Ġcoming":4648,"ĠOlymp":4649,"Ġstudent":4650,"active":4651,"Ġconclud":4652,"Be":4653,"fess":4654,"94":4655,"inct":4656,"ĠChristian":4657,"Ġlack":4658,"iverse":4659,"=\"../../":4660,"ĠHere":4661,"Ġbrother":4662,"Ġrob":4663,"eal":4664,"Ġexcept":4665,"Query":4666,"Ġtransport":4667,"ĠDay":4668,"info":4669,"Ġmode":4670,"rier":4671,"ducation":4672,"Ġexpand":4673,"title":4674,"Ġrules":4675,"Ġvelocity":4676,"ĠSociety":4677,"ĉĉĉĉĉĉ":4678,"orage":4679,"Ġargument":4680,"Ġaim":4681,"Ġways":4682,"92":4683,"ĠJack":4684,"Ġhous":4685,"win":4686,"ympt":4687,"Ġregions":4688,"Ġvariables":4689,"\\}$":4690,"Ġax":4691,"PI":4692,"Ġprogress":4693,"Ġconnection":4694,"Ġforces":4695,"ĠEar":4696,"mathscr":4697,"Ġthrow":4698,"Ġvers":4699,"Ġspeed":4700,"ba":4701,"ĠVir":4702,"child":4703,"Ð°":4704,"ĠLeg":4705,"Ġcause":4706,"ĠNow":4707,"erve":4708,"91":4709,"reate":4710,"place":4711,"Ġmovie":4712,"allel":4713,"ĠAfrican":4714,"Ġillust":4715,"Ġeight":4716,"Ġwanted":4717,"ĠGovernment":4718,"module":4719,"olar":4720,"Ġheight":4721,"Ġwor":4722,"^-":4723,"Ġattention":4724,"Ġstream":4725,"abase":4726,"51":4727,"Ġequivalent":4728,"Ġasked":4729,"PR":4730,"Ġselect":4731,"Ġprograms":4732,"Ġfamilies":4733,"Ġtreatment":4734,"Ġdaugh":4735,"Ġprint":4736,"Property":4737,"ĠMinister":4738,"Ġseg":4739,"Ġca":4740,"Ġmeaning":4741,"78":4742,"Ġensure":4743,"well":4744,"Ent":4745,"fect":4746,"Ġago":4747,"Ġearn":4748,"fort":4749,"Ġsufficient":4750,"rd":4751,"Ġ_{":4752,".[":4753,"overy":4754,"Ġfigure":4755,"ĠMusic":4756,"linear":4757,"ĠTrump":4758,"Ġmach":4759,"ĠTexas":4760,"Ġclasses":4761,"otic":4762,"bon":4763,"ĠRev":4764,"ributes":4765,"Ġchannel":4766,"ĠBook":4767,"54":4768,"76":4769,"Ġinternal":4770,"reedom":4771,"Ġlooking":4772,"ĠJer":4773,"Ġcollect":4774,"Ġautom":4775,"52":4776,"1994":4777,"ka":4778,"Ġparticularly":4779,"Ġthreat":4780,"Ġcommand":4781,"ini":4782,"Ġadapt":4783,"Ġpreviously":4784,"reek":4785,"Ġvan":4786,"lam":4787,"Ġheart":4788,"ĠOf":4789,"So":4790,"ĠRoman":4791,"Ġdise":4792,"rial":4793,"Ġmale":4794,"Ġnegative":4795,"rong":4796,"Sp":4797,"Ġinside":4798,"ln":4799,"base":4800,"ĠSpec":4801,"SO":4802,"Ġpeak":4803,"Ġcast":4804,"&&":4805,"Ġveh":4806,")+":4807,"igation":4808,"Ġuncertain":4809,"arks":4810,"IV":4811,"Ġcompleted":4812,"Ġfederal":4813,"Ġpresence":4814,"Ġtour":4815,"ĠAcadem":4816,"Ġculture":4817,"sey":4818,"oding":4819,"inos":4820,"First":4821,"contain":4822,"Ġcele":4823,"Ġmix":4824,"Ġeigen":4825,"Ġnation":4826,"Ġhit":4827,"Ġdark":4828,"ĠBoard":4829,"ĠSum":4830,"Ġincreased":4831,"stein":4832,"ĠDi":4833,"Ġbeginning":4834,"53":4835,"Ġtree":4836,"Ġload":4837,"ufact":4838,"Ġsongs":4839,"ĠCommittee":4840,"Ġwoman":4841,"||":4842,"ĠSam":4843,"ĠBay":4844,"edy":4845,"build":4846,"Ġpassed":4847,"Note":4848,"Ġhol":4849,"Ġjournal":4850,"Ġessential":4851,"Ġstudied":4852,"Ġconsequ":4853,".$":4854,"ros":4855,"Ġfully":4856,"ussian":4857,"Ġprec":4858,"Manager":4859,"Ġanim":4860,"Ġexam":4861,"ĠYear":4862,"Part":4863,"isl":4864,"DF":4865,"Ġmarried":4866,"ona":4867,"Ġrow":4868,"Ġsymbol":4869,"Ġdiscussed":4870,"Client":4871,"texttt":4872,"Ġteams":4873,"Ġsoon":4874,"arameter":4875,"Ġdimension":4876,"Ġtrade":4877,"itable":4878,"ĠGa":4879,"ĠMichael":4880,"Ġdeaths":4881,"Ġprobably":4882,"ĠFlor":4883,"Ġbad":4884,"NS":4885,"Ġopened":4886,"illing":4887,"Ġ\\|":4888,"Ġexplicit":4889,"Ġbrought":4890,"ĠRoyal":4891,"ullet":4892,"ĠChinese":4893,"actory":4894,"ĠMat":4895,"isher":4896,"ategy":4897,"Ġchanged":4898,"Ġanti":4899,"edia":4900,"ĠDuring":4901,"Ġdrop":4902,"Ġsociety":4903,"stream":4904,"Ġlaws":4905,"omin":4906,"Ġresources":4907,"ĠOther":4908,"ners":4909,"eria":4910,"Ġapprop":4911,"liament":4912,"Ġstarting":4913,"Ġresulting":4914,"Ġgenerally":4915,"irit":4916,"gt":4917,"jo":4918,"host":4919,"Ġoption":4920,"Theta":4921,"ĠHistory":4922,"\\'":4923,"Ġgrant":4924,"1970":4925,"Ġsil":4926,"Ġcharacters":4927,"================":4928,"ĠBill":4929,"Ġmodule":4930,"cel":4931,"People":4932,"ĠWil":4933,"Ġ...":4934,"Ġinterview":4935,"page":4936,"Ġpick":4937,"1992":4938,"Ġclassical":4939,"])":4940,"estival":4941,"Ġeasy":4942,"ĠTechn":4943,"Ġgeomet":4944,"ĠMus":4945,"tical":4946,"Ġdebut":4947,"board":4948,"ĠMet":4949,"BA":4950,"Ġappears":4951,"OM":4952,"core":4953,"ĠSing":4954,"Ġgetting":4955,"term":4956,"Ġones":4957,"Ġfrequency":4958,"Ġhot":4959,"Ġexisting":4960,"Ġseven":4961,"ĠCongress":4962,"Ġbool":4963,"Ġplatform":4964,"context":4965,"CA":4966,"Comm":4967,"Ġformed":4968,"Source":4969,"Ġrecorded":4970,"Ġstay":4971,"bour":4972,"Cell":4973,"Bar":4974,"ĠService":4975,"}^{-":4976,"Response":4977,"Ġsubsequ":4978,"Method":4979,"OP":4980,"ĠHen":4981,"Ġsigned":4982,"Ġjava":4983,"oz":4984,"Ð¾":4985,"ĠMuseum":4986,"Ġorganization":4987,"Ġinterpret":4988,"Ġinteraction":4989,"Input":4990,"google":4991,"59":4992,"crete":4993,"Ġunits":4994,"Ġforms":4995,"Ġbur":4996,"ĠRobert":4997,"iece":4998,"ĠBen":4999,"Ġgalaxies":5000,"Ġmarg":5001,"Ġconserv":5002,"ategor":5003,"Ġdetermine":5004,"ĠCOVID":5005,"ference":5006,"Ġoverall":5007,"ĠDivision":5008,"Now":5009,"Ġstructures":5010,"Ġnearly":5011,"attice":5012,"det":5013,"ĠGreat":5014,"Ġframework":5015,"63":5016,"sych":5017,"Ġrap":5018,"Ġactivities":5019,"ĠTur":5020,"Ġmeeting":5021,"norm":5022,"Ġvariable":5023,"Ġsen":5024,"Ġgirl":5025,"Ġobservations":5026,"prototype":5027,"1993":5028,"<\\":5029,"Ġrequires":5030,"Ġmovement":5031,"shift":5032,"soft":5033,"}'":5034,"History":5035,"Ġcomment":5036,"mercial":5037,"72":5038,"Ġminimum":5039,"Ġappeared":5040,"Ġinequ":5041,"89":5042,"Ġhope":5043,"Ġplaces":5044,"Ġfactors":5045,"Ġgauge":5046,"onom":5047,"Ġscheme":5048,"Ġbillion":5049,"ias":5050,"Ġhighest":5051,"Ġnames":5052,"Ġtrying":5053,"iting":5054,"Ġoperators":5055,"Spec":5056,"enge":5057,"flict":5058,"vement":5059,"ĠGold":5060,"idden":5061,"Ġgrav":5062,"Sim":5063,"Ġsolid":5064,"rep":5065,"Ġmetric":5066,"ĠOut":5067,"di":5068,"Ġdrug":5069,"ĠCath":5070,"minus":5071,"ĠAustralian":5072,"itter":5073,"ĠĠĠĊ":5074,"porary":5075,"GL":5076,"ĠMer":5077,"alian":5078,"ĉĠ":5079,"subseteq":5080,"Ġfa":5081,"Ġrail":5082,"ĠAlex":5083,"_+":5084,"ashed":5085,"Ġlatter":5086,"Ġflux":5087,"hi":5088,"ĠMiss":5089,"Ġtim":5090,"ĠThomas":5091,"hy":5092,"Ġderiv":5093,"{$":5094,"textrm":5095,"Ġpurpose":5096,"Ġsort":5097,"resents":5098,"ynomial":5099,"iring":5100,"ĠNor":5101,"prod":5102,"main":5103,"({":5104,"Ġbey":5105,"Ġuniform":5106,"doc":5107,"empty":5108,"Ab":5109,"Ġpolitic":5110,"rees":5111,"ATE":5112,"HT":5113,"ĠÃ":5114,"ĠMount":5115,"aled":5116,"ada":5117,"ellar":5118,"Che":5119,"Ġleads":5120,"Ġmemory":5121,"local":5122,"Ġcontribution":5123,"Ġscreen":5124,"Ġoffer":5125,"Ġmotion":5126,"fg":5127,"Ġbelong":5128,"Ġbeyond":5129,"static":5130,"Ġball":5131,"Ġemission":5132,"Color":5133,"false":5134,"underline":5135,"Ġmus":5136,"Ġstrategy":5137,"Ġbirth":5138,"Ġnothing":5139,"Ġter":5140,"uthors":5141,"ayers":5142,"FA":5143,"Ġgreater":5144,"su":5145,"Ġpressure":5146,"Ġexpansion":5147,"Ġrelevant":5148,"Ġquestions":5149,"ĠCentral":5150,"Ġability":5151,"event":5152,"Ġdescribe":5153,"footnote":5154,"ĠCarol":5155,"Ġ$\\{":5156,"Ġvolume":5157,"char":5158,"Ġdecided":5159,"ĠFore":5160,"ĠIsland":5161,"Ġcontr":5162,"ĠRoad":5163,"maz":5164,"ĠBank":5165,"Ret":5166,"Ġtheorem":5167,"Ġcounter":5168,"Ġidentity":5169,"Ġdirected":5170,"Ġshape":5171,"Ġnorm":5172,"Ġprevent":5173,"ĠWestern":5174,"Ġotherwise":5175,"Ġey":5176,"aud":5177,"Ġworkers":5178,"Ġinsp":5179,"Ġoccup":5180,"Ġforeign":5181,"pp":5182,"ĠKore":5183,"Ġreduced":5184,"sets":5185,"dro":5186,"Ġextended":5187,"ĠSmith":5188,"Ġrecomm":5189,"EX":5190,"ĠFoundation":5191,"eler":5192,"Head":5193,"}}_{":5194,"ĠAccording":5195,"Ġreading":5196,"84":5197,"jection":5198,"More":5199,"Ġship":5200,"ĠFrancis":5201,"Ġstated":5202,"Ġrates":5203,"ĠMac":5204,"Ġsmooth":5205,"Ġmis":5206,"Ġparents":5207,"61":5208,"Ext":5209,"Ġroom":5210,"dagger":5211,"ĠBest":5212,"Ġchoose":5213,"Ġbal":5214,"Ġleave":5215,"Ġneighbor":5216,"300":5217,"Ġ($\\":5218,"ether":5219,"ĠFin":5220,"Ġhighly":5221,"ifold":5222,"Ġkilled":5223,"joy":5224,"oting":5225,"That":5226,"Ġdescription":5227,"velopment":5228,"ĠInc":5229,"ĠRussian":5230,"ĠHamilton":5231,"Ġcompact":5232,"62":5233,"arp":5234,"ialog":5235,"Ġmechanism":5236,"1991":5237,"next":5238,"Ġanything":5239,"Ġdram":5240,"ĠSee":5241,"abilities":5242,"Ġhence":5243,"82":5244,"Ġ$|":5245,"Ġinstall":5246,"lections":5247,"ĠSal":5248,"Ġwide":5249,"Ġderived":5250,"fe":5251,"TD":5252,"ĠLat":5253,"ibly":5254,"Ġrepe":5255,"83":5256,"Ġult":5257,"Ġarbit":5258,"Ã¶":5259,"Ġexactly":5260,"ĠProv":5261,"ĠEv":5262,"Ġtransl":5263,"Ġorigin":5264,"Ġconnect":5265,"Ġcore":5266,"Ġcam":5267,"Ġcollege":5268,"Ġnoted":5269,"iny":5270,"Ġaffect":5271,"}},":5272,"Ġspecified":5273,"ĠTom":5274,"Ġreach":5275,"ĠMont":5276,"Ġprotect":5277,"irus":5278,"Ġeasily":5279,"element":5280,"ĠSecret":5281,"Ġfriends":5282,"spect":5283,"package":5284,"road":5285,"Ðµ":5286,"Ġfinally":5287,"Ġdiagram":5288,"ĠFlorida":5289,"urrent":5290,"Ġnoise":5291,"ĠRem":5292,"Ġproduce":5293,"Ġestimated":5294,"However":5295,"Our":5296,"Ġcluster":5297,"ĠDel":5298,"vest":5299,"Ġrepresented":5300,"81":5301,"Ġhyp":5302,"Ġcommunities":5303,"Ġparticles":5304,"Ġindividuals":5305,"poses":5306,"ensus":5307,"Stream":5308,"ĠScott":5309,"arc":5310,"Ġbasic":5311,"db":5312,"ams":5313,"Ġcurve":5314,"Ġobser":5315,"ĠSte":5316,"Ġcompl":5317,"ulate":5318,"Status":5319,"Ġchosen":5320,"Ġfun":5321,"Ġcollabor":5322,"Ġusers":5323,"CP":5324,"Ġprotected":5325,"Ġprojects":5326,"icago":5327,"ĠMag":5328,"ĠEducation":5329,"Ġpanel":5330,"Token":5331,"Ġpen":5332,"Ġcontinuous":5333,"Ġsymmetry":5334,"ĠĠĠĠĠĠĠĠĠĠĠĠĠĠĠĠĠ":5335,"Ġleader":5336,"stack":5337,"ĠSur":5338,")|":5339,"73":5340,"war":5341,"ĠProgram":5342,"She":5343,"Ġ$-":5344,"Ġchem":5345,"Ġprocesses":5346,"Ġpurch":5347,"Ġstories":5348,"Ġfast":5349,"raight":5350,"ipp":5351,"dev":5352,"Ġitem":5353,"rey":5354,"Ġtrain":5355,"column":5356,"anned":5357,"Ġdefe":5358,"ĠMad":5359,"Ġvariety":5360,"ĠVirgin":5361,"then":5362,"ĠPost":5363,"anced":5364,"Ġparticle":5365,"Ġwid":5366,"Ġfair":5367,"uns":5368,"ĠMem":5369,"Ġimprove":5370,"riz":5371,"inding":5372,"Living":5373,"ulture":5374,"Ġapplications":5375,"Ġteacher":5376,"ewidth":5377,"orial":5378,"open":5379,"Ġextra":5380,"haps":5381,"Ġspent":5382,"anger":5383,"conn":5384,"oplus":5385,"gn":5386,"CL":5387,"ĠAnn":5388,"Ġ<<":5389,"uations":5390,"Ġcitiz":5391,"Ġmajority":5392,"400":5393,"ĠCanadian":5394,"Options":5395,"vere":5396,"EL":5397,"Per":5398,"iques":5399,"ĠRad":5400,"iller":5401,"Ġlayer":5402,"Ġinfluence":5403,"ĠDirector":5404,"ĠPet":5405,"Ġste":5406,"Ġeverything":5407,"Ġnodes":5408,"iral":5409,"Ġexamples":5410,"Ġunivers":5411,"ubb":5412,"ĠSl":5413,"Ġcompletely":5414,"sol":5415,"Ġsometimes":5416,"Ġactions":5417,"TH":5418,"gg":5419,"Ġsomeone":5420,"first":5421,"Ġreached":5422,"Ġslow":5423,"asket":5424,"rick":5425,"Ġdaughter":5426,"clos":5427,"setminus":5428,"Ġ-->":5429,"diff":5430,"MC":5431,"aven":5432,"Util":5433,"undle":5434,"FL":5435,"Here":5436,"xx":5437,"Ġrepresents":5438,"arameters":5439,"ĠRel":5440,"Ġsaying":5441,"Ġweeks":5442,"71":5443,"ĠSk":5444,"ĠJapanese":5445,"SI":5446,"Ġtraditional":5447,"Dr":5448,"Ġsch":5449,"Ġeventually":5450,"ĠAtt":5451,"arant":5452,"Ġscore":5453,"Equal":5454,"Ġuseful":5455,"Ġpatients":5456,"ĠJournal":5457,"Ġwatch":5458,"ĠSeries":5459,"rence":5460,"gent":5461,"Ġkm":5462,"Ġabsol":5463,"ĠLand":5464,"Ġactivity":5465,"Ġacadem":5466,"azine":5467,"Next":5468,"ĠTw":5469,"Ġcos":5470,"Ġsec":5471,"cles":5472,">(":5473,"Ġshift":5474,"Ġapproximately":5475,"Ġgrand":5476,"aily":5477,"Ġstd":5478,"dec":5479,"AAAA":5480,"Ġhyper":5481,"ĠJose":5482,"Line":5483,"Ġ]":5484,"gu":5485,"74":5486,"Ġmiddle":5487,"Ġelectric":5488,"Ġopportunity":5489,"Ġframe":5490,"ĠUnder":5491,"Net":5492,"Ġupdate":5493,"parent":5494,"Ġmentioned":5495,"ĠFurther":5496,"ĠLouis":5497,"Image":5498,"ĠRob":5499,"ĠAlthough":5500,"ĠOffice":5501,"Ġmanufact":5502,"Ġserious":5503,"Ġmeasures":5504,"uls":5505,"atre":5506,"ĠReturn":5507,"Ġdemand":5508,"Ġconsistent":5509,"\\}":5510,"reshold":5511,"urt":5512,"ollowing":5513,"Ġsteps":5514,"ransp":5515,"mas":5516,"Ġaspect":5517,"Ġcomparison":5518,"Ġwriter":5519,"wedge":5520,"ilarly":5521,"Oper":5522,"OL":5523,"Ġminor":5524,"Ġvertex":5525,"ropy":5526,"'m":5527,"cons":5528,"ishes":5529,"Ġresolution":5530,"Ġinterval":5531,"values":5532,"Builder":5533,"alo":5534,"ĠClub":5535,"Ġsports":5536,"^{-\\":5537,"UE":5538,"Ġsector":5539,"ĠMass":5540,"BS":5541,"69":5542,"oral":5543,"king":5544,"PC":5545,"_{(":5546,"\\\"":5547,"Ġsamples":5548,"Ġworth":5549,"post":5550,"Ġdoc":5551,"otion":5552,"Ġactual":5553,"Ġprem":5554,"Ġupd":5555,"Ġunderstanding":5556,"Ġselection":5557,"Ġefforts":5558,"ternet":5559,"79":5560,"Ġclient":5561,"Override":5562,"Ġmount":5563,"ĠNULL":5564,"FT":5565,"strong":5566,"Ġcaused":5567,"Ġdataset":5568,"Ġetc":5569,"Ġplant":5570,"DA":5571,"Ġgoes":5572,"Ġformation":5573,"Ġexperiments":5574,"={":5575,"Ġmur":5576,"dir":5577,"Ġconstrain":5578,"ifically":5579,"Ġmaps":5580,"ĠCE":5581,"Null":5582,"*{":5583,"tx":5584,"Ġtherm":5585,"ĠLos":5586,"icated":5587,"Ġ(-":5588,"ĠRussia":5589,"Ġenjoy":5590,"gener":5591,")/":5592,"Ġcontrast":5593,"ua":5594,"ĠIr":5595,"ih":5596,"akers":5597,"Ġdead":5598,"iency":5599,"Ġprep":5600,"MM":5601,"Ġdynamics":5602,"Ġblue":5603,"inem":5604,"1989":5605,"Ġgeneration":5606,"Ġpolynomial":5607,"issions":5608,"Ġplans":5609,";&":5610,"oom":5611,"Ġintegr":5612,"ena":5613,"target":5614,"ĠAcademy":5615,"ename":5616,"ellig":5617,"Ġequip":5618,"Ġproceed":5619,"quot":5620,"Ġresol":5621,"Ġimmediately":5622,"Ġsrc":5623,"Ġ~":5624,"Ġmeasured":5625,"iding":5626,"riev":5627,"Ġidentified":5628,"ĠRock":5629,"efined":5630,"Ġexistence":5631,"Ġformula":5632,"ala":5633,"Fr":5634,"Instance":5635,"Ġartists":5636,"Function":5637,"ĠOver":5638,"1960":5639,"Ġnetworks":5640,"Ġreduce":5641,"mission":5642,"owers":5643,"$_":5644,"ĠTimes":5645,"Ġresource":5646,"Ġslight":5647,"\\!\\!":5648,"ĠTor":5649,"Ġprison":5650,"ĠWomen":5651,"null":5652,"definition":5653,"Ġmomentum":5654,"ĠSecond":5655,"Ġ$[":5656,"undred":5657,"Ġvacc":5658,"Ġincor":5659,"append":5660,"inite":5661,"ani":5662,"Ġboolean":5663,"ita":5664,"Ġassess":5665,"_{{\\":5666,"ĠKingdom":5667,"Co":5668,"Ġembedd":5669,"Ġelected":5670,"ĠRichard":5671,"Off":5672,"limits":5673,"'ve":5674,"Ġfailed":5675,"Ġcop":5676,"Ġfemale":5677,"Ġconfiguration":5678,"rl":5679,"linewidth":5680,"Ġreceive":5681,"Ġbounded":5682,"obile":5683,"Ġartist":5684,"ĠVict":5685,"Ġign":5686,"){\\":5687,"Ġplane":5688,"agraph":5689,"uled":5690,"Ġsquare":5691,"ĠTime":5692,"ĠPo":5693,"ithub":5694,"Ġarguments":5695,"Ġreturns":5696,"Ġruns":5697,"tn":5698,"Ġliterature":5699,"ĠĠĠĠĠĠĠĠĠĠĠĠĠĠĠĠĠĠĠĠĠĠĠĠĠĠĠĠĠĠĠ":5700,"Ġentry":5701,"resh":5702,"Ġspread":5703,"example":5704,"Ġextension":5705,"Ġpolic":5706,"ests":5707,"aligned":5708,"graph":5709,"reland":5710,"Ġtrust":5711,"Ġfounded":5712,"free":5713,"*/":5714,"Ġproviding":5715,"Ġremaining":5716,"process":5717,"ĠOffic":5718,"ĠĠĠĠĠĠĠĠĠĠĠĠĠĠ":5719,"Ġcarry":5720,"Ġbrief":5721,"client":5722,"andemic":5723,"ĠGrand":5724,"Ġapproximation":5725,"Ġfavor":5726,"While":5727,"Act":5728,"Pre":5729,"Ġradius":5730,"cknow":5731,"bin":5732,"colon":5733,"Ġdiscussion":5734,"Ġstri":5735,"Ġresponsible":5736,"ĠHill":5737,"ĠMost":5738,"Ġperturb":5739,"ĠTown":5740,"_{-":5741,"Ġmoving":5742,"amental":5743,"rant":5744,"Ġstrateg":5745,"ĠFrank":5746,"Ġconsists":5747,"ĠSuper":5748,"CK":5749,"ervices":5750,"Ġmicro":5751,"ivial":5752,"Ġconstr":5753,")\\,":5754,"Ġwait":5755,"Style":5756,"Ġcoupling":5757,"Ġanc":5758,"ĠIS":5759,"Ġsoftware":5760,"ĠPeter":5761,"Ġleaders":5762,"Ġminutes":5763,"ERT":5764,"erman":5765,"prec":5766,"Base":5767,"ĠUN":5768,"Ġclimate":5769,"Pos":5770,"ĠCharles":5771,"Ġlisted":5772,"Ġlif":5773,"stract":5774,"Ġfeed":5775,"west":5776,"Ġfix":5777,"ĠProfess":5778,"Ġinstr":5779,"Ġharm":5780,"ĠObject":5781,"Ġrespond":5782,"ĠForm":5783,"Ġincome":5784,"Ġappropriate":5785,"Ġgold":5786,"Ġhum":5787,"Sy":5788,"ĠChicago":5789,"ancy":5790,"ĠSocial":5791,"ĠHistor":5792,"ĠAre":5793,"anta":5794,"Ġregist":5795,"Ġdeliver":5796,"RA":5797,"comple":5798,"arning":5799,"deg":5800,"Ġerrors":5801,"Ġesc":5802,"Ġstraight":5803,"itation":5804,"Ġchart":5805,"1988":5806,"Ġreligious":5807,"Date":5808,"Ġnumerical":5809,"Ġpolar":5810,"Ġinform":5811,"Ġdevice":5812,"EC":5813,"Attribute":5814,"astern":5815,"),\\":5816,"uster":5817,"Ġamb":5818,"Ġreflect":5819,"Ġgiving":5820,"Ġconflict":5821,"Ġpriv":5822,"Ð¸":5823,"venue":5824,"fit":5825,"Ġperfect":5826,"perties":5827,"ĠParis":5828,"ows":5829,"Ġappointed":5830,"Ġplaced":5831,"Ġprocedure":5832,"sg":5833,"Ġsimpl":5834,"bigg":5835,"ĠData":5836,"Ġstore":5837,"apers":5838,"Ġeth":5839,"LT":5840,"Ġsurround":5841,"oma":5842,"Ġcorpor":5843,"Sec":5844,"âĢĿ.":5845,"_*":5846,"Ġencour":5847,"ura":5848,"thlet":5849,"lig":5850,"Ġsignificantly":5851,"query":5852,"Ġtheore":5853,"Ġrecords":5854,"Ġclearly":5855,"real":5856,"Ġcapacity":5857,"Run":5858,"write":5859,"olf":5860,"inv":5861,"Start":5862,"pdate":5863,"ĠBrown":5864,"Ġpurs":5865,"len":5866,"Ġnom":5867,"Ġmission":5868,"break":5869,"only":5870,"Ġspat":5871,"Ġjoint":5872,"chers":5873,"Ġcru":5874,"Eng":5875,"ernel":5876,"Char":5877,"ĠLife":5878,"anish":5879,"eger":5880,"Ġsecret":5881,"Ġsummer":5882,"github":5883,"css":5884,"Ġprofile":5885,"Ġ;":5886,"stitution":5887,"User":5888,"iant":5889,"oder":5890,":\\":5891,"Ġbuildings":5892,"These":5893,"ĠOper":5894,"lib":5895,"inner":5896,"select":5897,"~$\\":5898,"Ġminim":5899,"ĠAN":5900,"coming":5901,"Ġheavy":5902,"ructure":5903,"Ġutil":5904,"Ġ((":5905,"$(":5906,"osing":5907,"Ġlattice":5908,"itled":5909,"pg":5910,"Ġ}\\":5911,"Ġshowed":5912,"=(":5913,"Ġcommercial":5914,"Em":5915,"EM":5916,"she":5917,"arams":5918,"Ġthous":5919,"otal":5920,"etime":5921,"Ġauthors":5922,"=\"+":5923,"ĠTwo":5924,"Ġepisode":5925,"Fe":5926,"ĠAngeles":5927,"ĠCatholic":5928,"ĠMoreover":5929,"Ġreplaced":5930,"subfigure":5931,"ket":5932,"black":5933,"bottom":5934,"Ġ+=":5935,"Ġpoor":5936,"Ġvirtual":5937,"Ġparties":5938,"Ġspectral":5939,"Ġcontributions":5940,"Ġcouple":5941,"Ġfourth":5942,"Ġgreen":5943,"Comp":5944,"ĠEnd":5945,"ĠOpen":5946,"Eq":5947,"FI":5948,"Ġextends":5949,"Post":5950,"za":5951,"Ġseparate":5952,"CS":5953,"Ġconcent":5954,"Ġcelebr":5955,"Ġplot":5956,"anda":5957,"Ġcategory":5958,"Ġextrem":5959,"Ġroot":5960,"Ġphil":5961,"ĠArts":5962,"ano":5963,"Ġimag":5964,"cho":5965,"Ġdisease":5966,"Ġsimulations":5967,"Ġcritic":5968,"search":5969,"Ġdepends":5970,"Ġmissing":5971,"ror":5972,"asure":5973,"Ġiniti":5974,"Ġamplit":5975,"Ġcatch":5976,"ollary":5977,"ĠProposition":5978,"Ġalleg":5979,"roduction":5980,"icate":5981,"zero":5982,"ĠInst":5983,"Ġturned":5984,"namespace":5985,"ĠJud":5986,"ĠCamp":5987,"Ġer":5988,"Ġdomin":5989,"Ġsurpr":5990,"Ġadvant":5991,"ypes":5992,"Can":5993,"ĠAtl":5994,",\\,":5995,"ils":5996,"ĠBre":5997,"'\\":5998,"adata":5999,"Ġplays":6000,"Ġcalculated":6001,"Ġaccuracy":6002,"ircraft":6003,"Ġhop":6004,"Ġnuclear":6005,"Ġvote":6006,"oration":6007,"ĠAlso":6008,"Ġdual":6009,"arian":6010,"Ġdistinct":6011,"Ġcosts":6012,"ĠFe":6013,"Ġchain":6014,"Ġ|\\":6015,"ĠHence":6016,"asketball":6017,"rie":6018,"Ġcoach":6019,"Ġwest":6020,"Ġstrict":6021,"Ġexperimental":6022,"Ġ!==":6023,"while":6024,"final":6025,"ĠSund":6026,"ĠGames":6027,"Ġshared":6028,"button":6029,"icine":6030,"args":6031,"Ġwhom":6032,"Ġeveryone":6033,"Ġformat":6034,"ĠForce":6035,"produ":6036,"rypt":6037,"Ġserve":6038,"textsc":6039,"Ġspaces":6040,"FC":6041,"1987":6042,"DP":6043,"ĠZeal":6044,"=\"#":6045,"omic":6046,"pass":6047,"Ġfreedom":6048,"Ġdivid":6049,"yles":6050,"Ġprice":6051,"Ġwind":6052,"Ġeconomy":6053,"ĠDen":6054,"orney":6055,"sur":6056,"Ġpark":6057,"Ġquickly":6058,"Handler":6059,"ouble":6060,"Ġcorre":6061,"house":6062,"Ġdetect":6063,"ĠPeople":6064,"Ġdecay":6065,"Ġcarried":6066,"Ġsyn":6067,"erc":6068,"fficients":6069,"number":6070,"Ġsafety":6071,"udget":6072,"ĠMexico":6073,"Ġincreases":6074,"ĠDec":6075,"iable":6076,"Ġquery":6077,"Ġorganizations":6078,"ĠPre":6079,"erred":6080,")}(":6081,"Ġflat":6082,"Ġfraction":6083,"Default":6084,"Ġfilter":6085,"ONT":6086,"ancing":6087,"Ġoptimal":6088,"igan":6089,"Ġintegral":6090,"ker":6091,"Ġcompetition":6092,"Ġhelped":6093,"Ġquarter":6094,"Ġshot":6095,"shire":6096,"My":6097,"GB":6098,"Ġinterface":6099,"Ġmeasurements":6100,"icity":6101,"Ġgrowing":6102,"Ġexception":6103,"othes":6104,"Ġobvious":6105,"PP":6106,"ĠZealand":6107,"Mem":6108,"riage":6109,"acement":6110,"igration":6111,"ĠItalian":6112,">&":6113,"Ġrise":6114,"ĠArab":6115,"Back":6116,"Ġoriginally":6117,"car":6118,"Ġregime":6119,"Ġassumption":6120,"Ġsatisfies":6121,"ette":6122,"Ġeast":6123,"ĠIreland":6124,"rics":6125,"enty":6126,"Ġcontaining":6127,"inf":6128,"atically":6129,"Ġbeaut":6130,"ĠPenn":6131,"Ġ{@":6132,"Ġformal":6133,"standing":6134,"ĠBusiness":6135,"Ġmanager":6136,"ĠIll":6137,"Ġisn":6138,"background":6139,"Ġrestrict":6140,"anges":6141,"CR":6142,"ugin":6143,"ĠVirginia":6144,"Ġfirm":6145,"Mar":6146,"ca":6147,"Ġcompute":6148,"1986":6149,"$^{-":6150,"Ġenter":6151,"Ġâ":6152,"Ġmut":6153,"Ġbeg":6154,"Ġrelatively":6155,"Ġfelt":6156,"Content":6157,"Child":6158,"lock":6159,"Ġreports":6160,"Ġcorresponds":6161,"Ġinequality":6162,"Ġdigital":6163,"Ġconstraints":6164,"Ġdespite":6165,"Ġbottom":6166,"iler":6167,"Ġleague":6168,"olk":6169,".~(\\":6170,"Ġpositions":6171,"Ġexec":6172,"Ġfinished":6173,"dx":6174,"ĠLu":6175,"ĠOF":6176,"expected":6177,"Ã¤":6178,"Ġmole":6179,"Gener":6180,"Ġpandemic":6181,"Ġcandidate":6182,"Ġcorrelation":6183,"Ġreasons":6184,"Ġannual":6185,"Ġvertices":6186,"bi":6187,"Number":6188,"erved":6189,"ĠMel":6190,"ĠBur":6191,"Ġidentify":6192,"ĠOh":6193,"ĠGeorg":6194,"Ġsn":6195,"num":6196,"ĠHenry":6197,"related":6198,"'_":6199,"Point":6200,"ola":6201,"Ġfarm":6202,"ĠFr":6203,"ĠBig":6204,"ĠKe":6205,"ĠDevelopment":6206,"Ġurl":6207,"bullet":6208,"ologies":6209,"ĠHel":6210,"rolled":6211,"Ġpeace":6212,"uty":6213,"ĠIran":6214,"}}(\\":6215,"Ġhundred":6216,"ĠDu":6217,"=-":6218,"ĠIts":6219,"elled":6220,"orning":6221,"PT":6222,"py":6223,")_{":6224,"subsubsection":6225,"Ġguitar":6226,"cr":6227,"ptr":6228,"ĠRecords":6229,"imeq":6230,"Ġwrong":6231,"Block":6232,"ĠChild":6233,"adding":6234,"ĠRead":6235,"Ġexchange":6236,"Ġ(\"":6237,"simeq":6238,"ĠIslam":6239,"=\"../../../../":6240,"Buffer":6241,"Ġpret":6242,"ĠStar":6243,"ĠChief":6244,"sect":6245,")^{\\":6246,"Ġcomputer":6247,"Ġstrugg":6248,"});":6249,"greg":6250,"Ġpropag":6251,"push":6252,"Ġextract":6253,"ki":6254,"Ġ&=&":6255,"Ġnotice":6256,"Ġgets":6257,"}%":6258,"Ġ+\\":6259,"Ġscene":6260,"km":6261,"seud":6262,"Ġgenerate":6263,"rices":6264,"1984":6265,"Rem":6266,"Ġremove":6267,"Ġadministration":6268,"umni":6269,"hab":6270,"Ġvisual":6271,"perp":6272,"ĠID":6273,"Ġanswer":6274,"NA":6275,"Ġexpressed":6276,"gorithms":6277,"php":6278,"Ġstrength":6279,"Ġcombination":6280,"Ġimplementation":6281,"cs":6282,"Ġapproaches":6283,"risis":6284,"Ġbg":6285,"ĠTra":6286,"hemat":6287,"Ġphen":6288,"Ġbranch":6289,"illa":6290,"Ġinner":6291,"orter":6292,"returns":6293,"Rep":6294,"udd":6295,"ĠEarth":6296,"Ġscatter":6297,"alysis":6298,"ĠSpanish":6299,"Ġmaster":6300,"Ġachieve":6301,"Ġunion":6302,"unched":6303,"PA":6304,"ĠAmericans":6305,"Ġended":6306,"âĢĿ,":6307,"Ġopening":6308,"Ġofficer":6309,"\"),":6310,"request":6311,"description":6312,"azz":6313,"fully":6314,"osoph":6315,"Ġofficials":6316,"ĠHuman":6317,"law":6318,"Ġpaid":6319,"1985":6320,"ĠLord":6321,"Ġnone":6322,"Ġcells":6323,"lines":6324,"Ġraised":6325,"Top":6326,"obj":6327,"Ġeditor":6328,"Ġdistributed":6329,"ĠProject":6330,"SA":6331,"font":6332,"ĠEqu":6333,"{$\\":6334,"}$-":6335,"asion":6336,"iled":6337,"Box":6338,"aval":6339,"cd":6340,"ao":6341,"Ġbus":6342,"ribe":6343,"Ġfoot":6344,"Ġdisk":6345,"java":6346,"IA":6347,"Ġremained":6348,"eds":6349,"Ġscalar":6350,"Ġsust":6351,"Ġedges":6352,"Ġmostly":6353,"YPE":6354,"Ġcombined":6355,"arse":6356,"ny":6357,"Ġoffers":6358,"Ġtensor":6359,"Ġexcit":6360,"Ġexc":6361,"Ġstock":6362,"Ġfif":6363,"ĠLake":6364,"Ġrapid":6365,"unities":6366,"ĠMo":6367,"ependence":6368,"sche":6369,"usband":6370,"ĠCD":6371,"Ġinterested":6372,"property":6373,"Ġdestroy":6374,"Ġcard":6375,"Ġconvert":6376,"mt":6377,"Ġwasn":6378,"Ġtru":6379,"ĠReview":6380,"Ġvac":6381,"Ġtesting":6382,"Ġdetection":6383,"Te":6384,"Figure":6385,"Ġreferred":6386,"Ġgoals":6387,"Met":6388,"oday":6389,"Ġlived":6390,"Ġclaims":6391,"QL":6392,"Ġtrial":6393,"server":6394,"Ġhospital":6395,"razil":6396,"arser":6397,"ĠEngine":6398,"Ġattract":6399,"forall":6400,"enced":6401,"NO":6402,"Ġintroduce":6403,"ifies":6404,"alg":6405,"sto":6406,"Ġtechniques":6407,"Ġassumed":6408,"Ġcultural":6409,"Ġpiece":6410,"Ġcallback":6411,"Filter":6412,"ĠSecretary":6413,"dim":6414,"TO":6415,"Ne":6416,"ĠPan":6417,"ĠEX":6418,"ĠVictor":6419,"weight":6420,"last":6421,"Ġremoved":6422,"cases":6423,"ĠEconom":6424,"ĠRail":6425,"inity":6426,"mic":6427,"ogene":6428,"Ġ\\(":6429,"fs":6430,"aser":6431,"rich":6432,"Ġcoefficients":6433,"True":6434,"ĠJewish":6435,"Ġvictim":6436,"gest":6437,"Ġagent":6438,"find":6439,"Ġhistorical":6440,"Ġangle":6441,"Ġsenior":6442,"Ġalbums":6443,"ĠAdd":6444,"ĠLong":6445,"ilib":6446,"Ġimportance":6447,"mann":6448,"Ġpure":6449,"tings":6450,"Ġhar":6451,"Ġsurvey":6452,"Ġefficient":6453,"Ġdecom":6454,"Ġcitizens":6455,"Aut":6456,"after":6457,"Ġ->":6458,"ĠMartin":6459,"Ġtypically":6460,"Ġestimates":6461,"ategories":6462,"Ġsal":6463,"$).":6464,"ĠHon":6465,"Ġviolence":6466,"rowser":6467,"Ġconstructed":6468,")^{-":6469,"Label":6470,"Ġarrest":6471,"dep":6472,"~~~~":6473,"src":6474,"Ġdu":6475,"Ġthrows":6476,"$$\\":6477,"udes":6478,"Ġmill":6479,"According":6480,"inger":6481,"Ġalone":6482,"irmed":6483,"1000":6484,"Ġmachine":6485,"Ġsynt":6486,"ĠCarolina":6487,"Ð½":6488,"Ġcompare":6489,"ĠEach":6490,"\").":6491,"osh":6492,"emb":6493,"Rel":6494,"ĠVer":6495,"Action":6496,"Arg":6497,"LS":6498,"////////////////":6499,"Right":6500,"hom":6501,"Ġstable":6502,"Ġdistributions":6503,"Ġletter":6504,"Ġsimulation":6505,"ĠGen":6506,"................":6507,"secut":6508,"ski":6509,"ÑĤ":6510,"Ġopin":6511,"Ġhoriz":6512,"esh":6513,"Ġbgcolor":6514,"([":6515,"Ġresear":6516,"Ġcert":6517,"Ġitems":6518,"Ġmodes":6519,"icens":6520,"imb":6521,"TP":6522,"ls":6523,"going":6524,"matrix":6525,"Ġexternal":6526,"poss":6527,"neg":6528,"Ġdifferences":6529,"Ġrac":6530,"ĠIss":6531,"Ġbehavi":6532,"Ġshoot":6533,"Ġstress":6534,"system":6535,"vex":6536,"ression":6537,"ultural":6538,"Ġoil":6539,"Check":6540,"option":6541,"Ġfundamental":6542,"Ġtransformation":6543,"Ġnet":6544,"Ġmassive":6545,"Resource":6546,"unit":6547,"ĠLie":6548,"tag":6549,"pective":6550,"ĠBi":6551,"Ġcreating":6552,"require":6553,"endif":6554,"Ġbuff":6555,"Ġsites":6556,"aa":6557,"Ġsexual":6558,"itors":6559,"Ġarrang":6560,"Ġorient":6561,"ĠJes":6562,">>":6563,"rieved":6564,"Ġforced":6565,"1983":6566,"Ġcorn":6567,"ĠFilm":6568,"Ġque":6569,"Ġnumerous":6570,"Ġdependence":6571,"cript":6572,"Ġchief":6573,"SD":6574,"Ġdetailed":6575,"ĠMax":6576,"Ġorb":6577,"anged":6578,"{{":6579,"Ġpull":6580,"____":6581,"Ġinvariant":6582,"Ġcurves":6583,"rons":6584,"Ġpolicies":6585,"Ġcommission":6586,"phas":6587,"Equals":6588,"Ġfine":6589,"Hel":6590,"Ġvs":6591,"Ġadult":6592,"AME":6593,"ella":6594,"_.":6595,"1950":6596,"ĠTop":6597,"Ġemployees":6598,"ĠSun":6599,"ĠType":6600,"Ġinnov":6601,"Ġideas":6602,"Ġawarded":6603,"ato":6604,"Ġcloud":6605,"Ġarchitecture":6606,"Ġheard":6607,"Ġmaterials":6608,"Ġstellar":6609,"rize":6610,"itness":6611,"Ġsplit":6612,"oviet":6613,"150":6614,"Ġbecoming":6615,"Ġthreshold":6616,"Ġcrim":6617,"ĠÂ£":6618,"Ġliber":6619,"Ġspirit":6620,"ĠMur":6621,"Ġalt":6622,"ĠCr":6623,"track":6624,"Ġfamous":6625,"Ġguarant":6626,"Ġinteractions":6627,"Ġalternative":6628,"ĠTheir":6629,"Ġsales":6630,"Ġempty":6631,"Ġbill":6632,"Ġtests":6633,"displaystyle":6634,"Ġcities":6635,"Ġaw":6636,"ĠUp":6637,"}^*":6638,"rot":6639,"ĠLee":6640,"Ġrecall":6641,"Window":6642,"Ġinvestment":6643,"room":6644,"ĠSol":6645,"Ġblood":6646,"ounds":6647,"Ġcommit":6648,"ocket":6649,"ĠWell":6650,"John":6651,"Ġpairs":6652,"wp":6653,"Last":6654,"Prov":6655,"ĠItaly":6656,"rium":6657,"Ġleadership":6658,"ĠUSA":6659,"ĠScot":6660,"Desc":6661,"ensions":6662,"Ġslightly":6663,"ponents":6664,"Ġdenotes":6665,"ĠMain":6666,"json":6667,"Case":6668,"Ġclean":6669,"ĠWood":6670,"Ġtruth":6671,"ulty":6672,"1982":6673,"mitted":6674,"Component":6675,"Ġweb":6676,"ĠEven":6677,"ĠAsia":6678,"emporary":6679,"Ġaircraft":6680,"elli":6681,"ĠJoseph":6682,"Ġbattle":6683,"ĠST":6684,"nel":6685,"prob":6686,"Version":6687,")_":6688,"Ġaware":6689,"Ġemp":6690,"ĠCast":6691,"Ġrequirements":6692,"Ġquas":6693,"\\_":6694,"Ġuniversity":6695,"dat":6696,"agonal":6697,"INT":6698,"status":6699,"claim":6700,"Thus":6701,"Ġolder":6702,"Ġabsor":6703,"Ġsingular":6704,"contin":6705,"ĠFort":6706,"Ġcalls":6707,"ainer":6708,"ĠMil":6709,"Ġachieved":6710,"BO":6711,"Ġcalc":6712,"Ġunknown":6713,"estic":6714,"ĠSil":6715,"Tag":6716,"elete":6717,"kin":6718,"Ġproved":6719,"icket":6720,"kl":6721,"Ġcomputed":6722,"Do":6723,"pers":6724,"pmatrix":6725,"Ġjoin":6726,"yan":6727,"Format":6728,"Ġhusband":6729,"Ġgap":6730,"Max":6731,"Ġarbitrary":6732,"Ġincorpor":6733,"Ġsampl":6734,"Ġstrongly":6735,"Ġonto":6736,"Ġparallel":6737,"Ġspectra":6738,"Factory":6739,"ifications":6740,"Ġvoice":6741,"apped":6742,"kins":6743,"ĠCam":6744,"amely":6745,"ĠJustice":6746,"Ġcontained":6747,"ester":6748,"Link":6749,"Ġshowing":6750,";</":6751,"va":6752,"Ġregarding":6753,")\\\\":6754,"Ġsegment":6755,"ĠYoung":6756,"ĠFestival":6757,"Ġanalog":6758,"ĠJo":6759,"ĠColumb":6760,"Min":6761,"aver":6762,"Ġgalaxy":6763,"pendix":6764,"ĠMany":6765,"Ġ\"\"\"":6766,"Ġfunding":6767,"ĠField":6768,"ABLE":6769,"ĠTHE":6770,"iano":6771,"aren":6772,"DB":6773,"Ġthr":6774,"Ġpoly":6775,"Ġdepartment":6776,"Ġclin":6777,"acific":6778,"even":6779,"stances":6780,"multi":6781,"Ġfaith":6782,"1979":6783,"Task":6784,"care":6785,"Length":6786,"Ġgrid":6787,"newcommand":6788,"Ġinteger":6789,"}}^":6790,"annels":6791,")}{\\":6792,"ulk":6793,"Ġpropos":6794,"Ġlearned":6795,"langu":6796,"Ġhousehold":6797,"ĠMos":6798,"ĠHig":6799,"iling":6800,"Ġfeatured":6801,"Ġreform":6802,"Load":6803,"ĠNS":6804,"Ġknew":6805,"Ġoffered":6806,"Ġterrit":6807,"Ġassign":6808,"Ġmess":6809,"Ġserver":6810,"ĠNetwork":6811,"GC":6812,"odot":6813,"Ġwinning":6814,"Ġrare":6815,"ansas":6816,"Work":6817,"nership":6818,"ÑĢ":6819,"oston":6820,"isters":6821,"ĠBob":6822,"Ġcontinues":6823,"ĠOld":6824,"ĠBritain":6825,"viation":6826,"Ġphenomen":6827,"Ġcycle":6828,"ĠSu":6829,"^{+":6830,"istical":6831,"ishop":6832,"Ġtypical":6833,"Ġproport":6834,"Ġalgorithms":6835,"ME":6836,"Ġchallenge":6837,"El":6838,"ĠLiber":6839,"Sche":6840,"Ġspatial":6841,"akistan":6842,"LP":6843,"construct":6844,"Web":6845,"Ġaxis":6846,"ĠHaw":6847,"Ġcommunication":6848,"omorphic":6849,"Ġvary":6850,"IO":6851,"ĠAut":6852,"Ġissued":6853,"Ġ=\\":6854,"Ġtoward":6855,"Don":6856,"Ġpowerful":6857,"header":6858,"Ġmusical":6859,"Other":6860,"Ġofficers":6861,"images":6862,"Ġfiles":6863,"ĠJohnson":6864,"Ġclassification":6865,"ĠGood":6866,"Ġring":6867,"Ġspeak":6868,"Ġlaunched":6869,"Ġhandle":6870,"ERR":6871,"Ġtasks":6872,"uing":6873,"Further":6874,"ĠIII":6875,"DS":6876,"Ġcool":6877,"Ġexplained":6878,"oving":6879,"Ġdecades":6880,"Ġoffset":6881,"Ġcoast":6882,"project":6883,"Ġdivision":6884,"Ġpicture":6885,"Ġcriminal":6886,"icrosoft":6887,"Ġreduction":6888,"pton":6889,"Ġmunic":6890,"urban":6891,"})$.":6892,"Ġcircum":6893,"remove":6894,"ĠParliament":6895,"ĠBecause":6896,"Create":6897,"aters":6898,"rical":6899,"ĠNone":6900,"Ġstations":6901,"Ġuns":6902,"inet":6903,"Ġhappen":6904,"ĠSunday":6905,"utch":6906,"ady":6907,"ĠSummer":6908,"Ġlab":6909,"Ġfailure":6910,"ORT":6911,"Ġquad":6912,"Us":6913,"ĠStep":6914,"Ġsea":6915,"_-":6916,"acter":6917,"Ġfans":6918,"1981":6919,"=\"../":6920,"ĠEU":6921,"posite":6922,"ĠTim":6923,"attr":6924,"ĠFootball":6925,"Ġpurposes":6926,"ĠDet":6927,"cknowled":6928,"vol":6929,"gate":6930,"ployment":6931,"vector":6932,"private":6933,"Ġmainly":6934,"ebug":6935,"abil":6936,"ĉĠĠĠĠĠĠĠ":6937,"Ġdepth":6938,"HS":6939,"Ġmatches":6940,"elligence":6941,"ĠOrder":6942,"iana":6943,"ĠMiddle":6944,"Ġcentre":6945,"Ġanyone":6946,"Ġbenefits":6947,"ĠLove":6948,"ĠGL":6949,"front":6950,"Ġmasses":6951,"Ġmeasurement":6952,"Ġtourn":6953,"ĠCivil":6954,"Ġactor":6955,"They":6956,"Ġideal":6957,"ART":6958,"Ġodd":6959,"Ġflag":6960,"po":6961,"ĠJim":6962,"Ġdefend":6963,"ĠAff":6964,"Ġprotection":6965,"ĠOp":6966,"Ġbinary":6967,"(&":6968,"Ġ$$":6969,"ĠBas":6970,"riday":6971,"Ġdegrees":6972,"Ġcancer":6973,"Ġoptical":6974,"ĠBuild":6975,"Ġpsych":6976,"Ġloop":6977,"Ġexecutive":6978,"Ġfinding":6979,"bel":6980,"TV":6981,"Ġchallenges":6982,"Ġhydro":6983,"Ġadopted":6984,"Ġlatest":6985,"Ġut":6986,"Ġobserve":6987,"RL":6988,"airman":6989,"Gl":6990,"ĠSwed":6991,"ĠServices":6992,"ailed":6993,"actor":6994,"Ġsend":6995,"Ġhappened":6996,"cean":6997,"Ġtouch":6998,"yer":6999,"tri":7000,"tic":7001,"raq":7002,"language":7003,"aylor":7004,"Ġpoll":7005,"uries":7006,"Ġnine":7007,"icks":7008,"Ġjourn":7009,"Ġnative":7010,"ĠKn":7011,"ilation":7012,"bas":7013,"Ġ[]":7014,"ĠPlan":7015,")$-":7016,"Ġinvestigation":7017,"Ġbenefit":7018,"Ġkept":7019,"\\|_{":7020,"allery":7021,"ĠWal":7022,"iki":7023,"Ġresidents":7024,"etween":7025,"enth":7026,"Ġconsidering":7027,"Ġfocused":7028,"Ġcoordinates":7029,"Ġsupply":7030,"Ġtor":7031,"ĠOlympics":7032,"---":7033,"Ġsqu":7034,"Ġpi":7035,"Ġking":7036,"igger":7037,"Ġobj":7038,"Ġmixed":7039,"Ġprinciple":7040,"del":7041,"Ġsymmetric":7042,"Ġroute":7043,"Ġtrained":7044,"CON":7045,"ĠHome":7046,"Ġoverl":7047,"'}":7048,"ĠFederal":7049,"cope":7050,"else":7051,"orig":7052,"Ġandroid":7053,"Ġindicates":7054,"Me":7055,"Ġhands":7056,"vania":7057,"Ġordered":7058,"Ġtend":7059,"Ġlock":7060,"Ġsubset":7061,"Ġens":7062,"Ġapparent":7063,"adow":7064,"Ġinstitutions":7065,"120":7066,"remark":7067,"SON":7068,"Ġsinger":7069,"Ġlabor":7070,"Ġlum":7071,"Ġsession":7072,"Ġperhaps":7073,"Des":7074,"Ġisland":7075,"Ġreality":7076,"Ġenvironmental":7077,"Ġ${":7078,"mc":7079,":(":7080,"ĠBoth":7081,"Ġoccurs":7082,"ĠJac":7083,"Ġnewsp":7084,"Ġshock":7085,"Ġsemi":7086,"Ġreson":7087,"ported":7088,"ĠWeb":7089,"faces":7090,"Ġacademic":7091,"Ġleaving":7092,"Ġemphas":7093,"Ġchance":7094,"Ġdistingu":7095,"eli":7096,"mapsto":7097,"Ġyields":7098,"cale":7099,"odies":7100,"Section":7101,"ĠMa":7102,"Ġran":7103,"ĠManagement":7104,"Ġvoc":7105,"Page":7106,"Ġsections":7107,"Ġappearance":7108,"Init":7109,"Ġbelieved":7110,"Ġadministr":7111,"sign":7112,"xml":7113,"Ġcovered":7114,"otted":7115,"Ġpolitics":7116,"Mon":7117,"Car":7118,"Ġsubstant":7119,"des":7120,"idel":7121,"Ġhuge":7122,"output":7123,"Ġexplain":7124,"ĠGaussian":7125,"Ġpartial":7126,"lease":7127,"Ġconducted":7128,"1978":7129,"inder":7130,"Ġinfr":7131,"Ġtrend":7132,"ĠGal":7133,"Hz":7134,"${":7135,"nergy":7136,"ĠLog":7137,"wan":7138,"1976":7139,"Ġdelay":7140,"Ġmatrices":7141,"oded":7142,"Am":7143,"istance":7144,"entry":7145,"During":7146,"Ġsched":7147,"Ġtried":7148,"ĠAwards":7149,"Ġinitially":7150,"anks":7151,"Ġbusinesses":7152,"hbar":7153,"Valid":7154,"igr":7155,"Ġacts":7156,"inst":7157,"Ġsafe":7158,"ko":7159,"Ġscope":7160,"Ġ$.":7161,"ĠBrazil":7162,"ĠLibrary":7163,"step":7164,"zer":7165,"Output":7166,"plications":7167,"Ġoperating":7168,"INE":7169,"gypt":7170,"update":7171,"ĠSenate":7172,"ĠHamiltonian":7173,"Return":7174,"Ġadvantage":7175,"should":7176,"ĠHead":7177,"dule":7178,"Ġauthority":7179,"Ġindeed":7180,"ĠĠĠĠĠĠĠĠĊ":7181,"Ġindicate":7182,"Ġattacks":7183,"uous":7184,"$;":7185,"ponential":7186,"ĠCorpor":7187,"ĠTre":7188,"ographic":7189,"ĠJones":7190,"Cons":7191,"Ġplanning":7192,"close":7193,"Ġnucle":7194,"second":7195,"PO":7196,"++)":7197,"Ġweap":7198,"condition":7199,"ĠProfessor":7200,"ĠNavy":7201,"author":7202,"Ġpaint":7203,"syl":7204,"ĠTechnology":7205,"}}^{":7206,"Ġtechnical":7207,"ĠMuslim":7208,"mem":7209,"ĠAcc":7210,"MB":7211,"iful":7212,"ilibrium":7213,"Ġasympt":7214,"float":7215,"Ġrough":7216,"rawn":7217,"1972":7218,"atalog":7219,"format":7220,"Ġauto":7221,"rank":7222,"Ġdiscovered":7223,"Ġdrive":7224,"SR":7225,"ted":7226,"ĠJul":7227,"ĠFund":7228,"Ġagreed":7229,"1975":7230,"Ġaffected":7231,"Ġlimits":7232,"Ġbroadcast":7233,"Ġcrisis":7234,"disc":7235,"ĠValley":7236,"TC":7237,"Ġchemical":7238,"ĠEmp":7239,"MR":7240,"SL":7241,"Cor":7242,"Ġneighborhood":7243,"ibr":7244,"leep":7245,"nam":7246,"1977":7247,"Ġraise":7248,"Select":7249,"itan":7250,"Ġacceler":7251,"desc":7252,"ĠDemocratic":7253,"Ġbudget":7254,"iate":7255,"ĠKar":7256,"scill":7257,"Ġroll":7258,"Ġdeveloping":7259,"called":7260,"Writ":7261,"Ġsatisfy":7262,"Ġpretty":7263,"Ġtransp":7264,"high":7265,"hbox":7266,"ĠOl":7267,")</":7268,"tree":7269,"Ġlies":7270,"Ġcreation":7271,"Ġconvers":7272,"ĠWay":7273,"ĠAssembly":7274,"(_":7275,"ĠSpe":7276,"ĠSupreme":7277,"ulf":7278,"ĠStat":7279,"ashion":7280,"Ġbrand":7281,"NR":7282,"ĠTer":7283,"Ġfear":7284,"Ġmask":7285,"istent":7286,"Ġmanifold":7287,"Ġcat":7288,"hens":7289,"ora":7290,"Ġconsult":7291,"clusive":7292,"1974":7293,"Ġmagnitude":7294,"pop":7295,"Ġwall":7296,"ĠAdminist":7297,"Ġclaimed":7298,"./":7299,"Ġwood":7300,"Ġcov":7301,"ĠRights":7302,"anging":7303,"Ġdemocr":7304,"hr":7305,"ĠFace":7306,"Ñģ":7307,"ĠSoviet":7308,"Ġspeech":7309,"Ġnor":7310,"Bo":7311,"Ġstudio":7312,"Ġforest":7313,"Ġagree":7314,"iced":7315,"low":7316,"ĠNorthern":7317,"inate":7318,"Ġremark":7319,"Ġcircle":7320,"ifact":7321,"Ġgain":7322,"Ġmargin":7323,"mass":7324,"hem":7325,"krain":7326,"roph":7327,"Ġsuggested":7328,"Dec":7329,":\"":7330,"Ġobservation":7331,"uler":7332,"\\{\\":7333,"Ġowner":7334,"Ġswitch":7335,"[\"":7336,"Ġviews":7337,"rat":7338,"ockey":7339,"IST":7340,"Ġwriters":7341,"ryst":7342,"onal":7343,"proposition":7344,"adium":7345,"ĠHot":7346,"Ġmorph":7347,"ĠSar":7348,"ĠBase":7349,"dl":7350,"Ġwild":7351,"ĠCre":7352,"cat":7353,"frame":7354,"Ġtheoretical":7355,"two":7356,"Ġadding":7357,"ĠGlobal":7358,"$~":7359,"ĠSecurity":7360,"ĠInformation":7361,"LASS":7362,"VER":7363,"FR":7364,"ĠLin":7365,"arden":7366,"NE":7367,"Ġentered":7368,"rome":7369,"mond":7370,"ested":7371,"'ll":7372,"}({\\":7373,"ĠLicense":7374,"found":7375,"ova":7376,"Ġscript":7377,"ĠIraq":7378,"Ġhear":7379,"Ġfunds":7380,"mosp":7381,"Results":7382,"Ġss":7383,"sole":7384,"sylvania":7385,"android":7386,"ĠTem":7387,")},":7388,"Theorem":7389,"Ġcounty":7390,"okes":7391,"Ġjobs":7392,"chen":7393,"ĠFinally":7394,"riend":7395,"Ġelim":7396,"aints":7397,"ontal":7398,"herent":7399,"Ġmiles":7400,"Ġedition":7401,"Ġvectors":7402,"ĠTour":7403,"ĠRegister":7404,"apse":7405,"ĠWilliams":7406,"Ġscientific":7407,"Ġfacilities":7408,"Ġscattering":7409,"1973":7410,"Ġmanner":7411,"Ġcandidates":7412,"aved":7413,"Ġopportunities":7414,"Tem":7415,"Ġconference":7416,"Ġcomputation":7417,"Ġcrime":7418,"Ġattended":7419,"imer":7420,"DO":7421,"Ġphysics":7422,"Ġsuggests":7423,"Ġplanet":7424,"Ġener":7425,"afe":7426,"Ġmeant":7427,"ĠSouthern":7428,"ĠDev":7429,"ĠCommunity":7430,"Ġtools":7431,"Up":7432,"ĠSpecial":7433,"ras":7434,"Ġvehicle":7435,"imately":7436,"older":7437,"Ġacting":7438,"tik":7439,"Ġalumni":7440,"tool":7441,"Ġtag":7442,"typ":7443,"Ġdifferential":7444,"Ġprocessing":7445,"Ġcharged":7446,"Ġpush":7447,"Ġpartner":7448,"Ġsomew":7449,"ĠRE":7450,"ture":7451,"Ġthick":7452,"ĠBoston":7453,"eller":7454,"Ġclusters":7455,"show":7456,"ĠSpain":7457,"Ġabsolute":7458,"ĠCentre":7459,"astructure":7460,"1968":7461,"Ġinterests":7462,"cut":7463,"PL":7464,"dem":7465,"Ġwidely":7466,"unct":7467,"ĠFurthermore":7468,"Gu":7469,"ĠCross":7470,"Ġready":7471,"AV":7472,"ĠPakistan":7473,"ĠMond":7474,"Nav":7475,"ima":7476,"Ġregional":7477,"Ġsettings":7478,"Width":7479,"Ġintended":7480,"ĠKh":7481,"ĠIrish":7482,"Ġpartition":7483,"Ġstatistics":7484,"\"]":7485,"ĠStand":7486,"ĠYour":7487,"Listener":7488,"Mode":7489,"such":7490,"ql":7491,"ynamic":7492,"'(":7493,"ĠTeam":7494,"instance":7495,"itage":7496,"ĠSpring":7497,"eless":7498,"Ġdraft":7499,"ĠCamb":7500,"Ġarticles":7501,"Ġconclude":7502,"Ġterror":7503,"Ġisol":7504,"asy":7505,"Ġbright":7506,"Ġadvoc":7507,"Ã¨":7508,"Ġconvergence":7509,")+\\":7510,"Ġmarriage":7511,"aturday":7512,"filter":7513,"Ġ^":7514,"Ġlibrary":7515,"ĠHy":7516,"REF":7517,"Ġminimal":7518,"Ġriver":7519,"ĠShow":7520,"Ġsouthern":7521,"Ġpet":7522,"ĠAssert":7523,"ATION":7524,"Ġefficiency":7525,"ĠMedia":7526,"ĠGreek":7527,"Ġdiagn":7528,"urance":7529,"Ġattend":7530,"Ġowned":7531,"Ġdiss":7532,"Ġpoet":7533,"Ġcredit":7534,"ĠStudies":7535,"Some":7536,"Ġdimensions":7537,"Ġreject":7538,"ĠUs":7539,"Ġlen":7540,"Port":7541,"eries":7542,"icip":7543,"Ġuint":7544,"URL":7545,"stra":7546,"Ġrevealed":7547,"inations":7548,"Ġoscill":7549,"&=&":7550,"Ġ{};":7551,"ĠSaint":7552,"Ġdocuments":7553,"adel":7554,"Ġmanaged":7555,"Ġorders":7556,"riptor":7557,"Sch":7558,"Ġsolar":7559,"Ġevol":7560,"Ġallowing":7561,"ĠVis":7562,"hent":7563,"ĠFriday":7564,"aped":7565,"heast":7566,"PRO":7567,"Ġunless":7568,"ĠGoogle":7569,"Ġaudience":7570,"ĠInit":7571,"abeth":7572,"Ġdepending":7573,"UI":7574,"ented":7575,"results":7576,"Ġcolon":7577,"ĠElect":7578,"cular":7579,"legal":7580,"eness":7581,"blue":7582,"ador":7583,"Ġprofessor":7584,"Ġcertainly":7585,"DC":7586,"}&":7587,"ifts":7588,"offset":7589,"Ġcalculations":7590,"tw":7591,"Ġcomments":7592,"ĠFrancisco":7593,"Sw":7594,"Ġtal":7595,"<!--":7596,"meta":7597,"Ġmedal":7598,"ĠLine":7599,"Ġpossibility":7600,"iro":7601,"Ġserving":7602,"Ġconfirmed":7603,"ja":7604,"Ġusual":7605,"ĠWales":7606,"picture":7607,"ymmetric":7608,"ĠBu":7609,"Ġemail":7610,"pressed":7611,"Ġfellow":7612,"|_{":7613,"Ġjustice":7614,"MO":7615,"ĠPhys":7616,"Ġlaunch":7617,"Ġproducer":7618,"Ġexpert":7619,"Ġpil":7620,"eces":7621,"ograp":7622,"1971":7623,"Ġbasketball":7624,"Ġmorning":7625,"tikz":7626,"Ġhole":7627,"Ġrecommend":7628,"wa":7629,"Ġheat":7630,"scope":7631,"Ġwonder":7632,"miss":7633,"Ġarmy":7634,"Cal":7635,"Ġscored":7636,"ictionary":7637,"img":7638,"onym":7639,"Ġextend":7640,"Column":7641,"Ġcalculation":7642,"Ġfigures":7643,"aug":7644,"iples":7645,"Ġdedicated":7646,"ĠSir":7647,"ĠJeff":7648,"Ġnorthern":7649,"gies":7650,"inois":7651,"ĠFred":7652,"Ġmental":7653,"IB":7654,"Ġthank":7655,"uan":7656,"Ġuncertainty":7657,"ĠOrgan":7658,"ĠMov":7659,"Ġbuy":7660,"Ġdevices":7661,"Ġconstraint":7662,"Finally":7663,"Command":7664,"ĠâĢ¦":7665,"Ġintr":7666,"Access":7667,"jav":7668,"Ġmodified":7669,"Ġnav":7670,"ĠModel":7671,"aling":7672,"ĠMen":7673,"ĠConference":7674,"Ġfluct":7675,"Ġangular":7676,"ĠRepublican":7677,"Ġskills":7678,"Ġsave":7679,"Ġremember":7680,"Ġmotiv":7681,"Ġamplitude":7682,"Ġnotation":7683,"Op":7684,"ĠEgypt":7685,"root":7686,"Ġmetal":7687,"Ġprediction":7688,"Ġfunctional":7689,")}_{":7690,"Vis":7691,"hetic":7692,"ĠPop":7693,"ĠPennsylvania":7694,"Target":7695,"Ġpp":7696,"ĠSand":7697,"HO":7698,"Ġorth":7699,"Ġelections":7700,"Direct":7701,"Ġteaching":7702,"chron":7703,"Ġscales":7704,"Ġgun":7705,"opic":7706,"awa":7707,"ĠOhio":7708,"ĠPolicy":7709,"Introduction":7710,"conf":7711,"Ġdoll":7712,"gency":7713,"ĠMichigan":7714,"appe":7715,"Ġpromin":7716,"[(":7717,"Ġfootballers":7718,"avel":7719,"ĠLi":7720,"cf":7721,"Ġpix":7722,"Ġevaluation":7723,"Ġthinking":7724,"Ð¾Ð":7725,"etch":7726,"forward":7727,"Ġchanging":7728,"Ġearth":7729,"Ġscenario":7730,"1969":7731,"Ġauthorities":7732,"Ġdanger":7733,"Ġdaily":7734,"Ġfrag":7735,"ĠWall":7736,"Ġextremely":7737,"]);":7738,"Update":7739,"bal":7740,"ĠLy":7741,"MD":7742,"ĠColl":7743,"forcement":7744,"Ġinstrument":7745,"Ġlargely":7746,"Ġrotation":7747,"ĠEvery":7748,"task":7749,"Types":7750,"Ġretain":7751,"ban":7752,"ĠSuch":7753,"Ġhypothes":7754,"gers":7755,"Po":7756,"Ġyouth":7757,"tan":7758,"Ġbelief":7759,"unte":7760,"vari":7761,"Ġfre":7762,"Ġagency":7763,"ĠPacific":7764,"Ġsolve":7765,"Ġconven":7766,"Ġcooper":7767,"Ġunderlying":7768,"std":7769,"AF":7770,"aught":7771,"Ġwants":7772,"Gr":7773,"$),":7774,"iy":7775,"Ġspl":7776,"Ġstandards":7777,"}}$,":7778,"aby":7779,"ĉĉĉĉĉĉĉĉ":7780,"ogeneous":7781,"Ġ\\&":7782,"Ġimproved":7783,"1967":7784,"ĠArray":7785,"}$)":7786,"ĠEr":7787,"Ġinduced":7788,"drop":7789,")-\\":7790,"ĠConn":7791,"people":7792,"Ġadjust":7793,"Ġintegration":7794,"})$,":7795,"ĠMedical":7796,"Art":7797,"Ġprotocol":7798,"Ġbin":7799,"idents":7800,"Ġbeam":7801,"Sl":7802,"ĠRam":7803,"Ã³n":7804,"edu":7805,"=#":7806,"rison":7807,"Non":7808,"Ġvictory":7809,"Ġconcert":7810,"ĠPolit":7811,"ela":7812,"Ġdiscrim":7813,"}}$.":7814,"ĠOx":7815,"ĠEll":7816,"Ġdescribes":7817,"har":7818,"Ġexplore":7819,"Men":7820,"ĠLead":7821,"ipage":7822,"Ġice":7823,"Ġhousing":7824,"Ġsuc":7825,"Ġprincipal":7826,"response":7827,"scape":7828,"kit":7829,"1940":7830,"Pat":7831,"Ġlayers":7832,"ĠPolice":7833,"onical":7834,"ĠReturns":7835,"ĠJr":7836,"othing":7837,"ections":7838,"Ġprimarily":7839,"à¤":7840,"ĠUsing":7841,"Range":7842,"ĠLab":7843,"Ġpowers":7844,"hol":7845,"Ġkernel":7846,"Ġmuseum":7847,"Ġsubgroup":7848,"nections":7849,"Mat":7850,"Ġthermal":7851,"Ġassigned":7852,"ingly":7853,"Ġbond":7854,"Ġsides":7855,"ecutive":7856,"minipage":7857,"Ġgraphs":7858,"ĠJersey":7859,"Ġdriving":7860,"Ġenh":7861,"Controller":7862,"ĠHT":7863,"Ġdatabase":7864,"ĠJoe":7865,"?âĢĿ":7866,"ĠPM":7867,"ĠKorea":7868,"Ġspecifically":7869,"********************************":7870,"hor":7871,"ĠRetrieved":7872,"ira":7873,"Interface":7874,"Mult":7875,"Ġexcell":7876,"ĠKenn":7877,"pute":7878,"BU":7879,"Ġcrow":7880,"ĠEp":7881,"orship":7882,"container":7883,"Using":7884,"ga":7885,"Ġconcerns":7886,"mode":7887,"Ġmagazine":7888,"mma":7889,"ĠQueen":7890,"scriptstyle":7891,"ĠBern":7892,"ĠHor":7893,"}{(":7894,"iveness":7895,"Ġchannels":7896,"obs":7897,"Ġstatements":7898,"Cache":7899,"initely":7900,"Ġstarts":7901,"ĠWilson":7902,"Ġtournament":7903,"etts":7904,"250":7905,"ctx":7906,"Ġseasons":7907,"Ġsucceed":7908,"zen":7909,"Ġmedium":7910,"ĠColor":7911,"Ev":7912,"ĠGeorgia":7913,"Ġdispl":7914,"agnetic":7915,"Ġ{}":7916,"Äģ":7917,"ĠEmpire":7918,"Ġpseud":7919,"sky":7920,"Ġil":7921,"ĠCa":7922,"Ġboy":7923,"Address":7924,"osis":7925,"Ġrout":7926,"aka":7927,"Ġcharges":7928,"Var":7929,"Ġcouncil":7930,"Ġfeet":7931,"}{|":7932,"ĠKey":7933,"match":7934,"Ġcommitted":7935,"ĠEnter":7936,"Offset":7937,"Ġwhereas":7938,"ampion":7939,"itivity":7940,"Ġdecisions":7941,"weet":7942,"ĠCall":7943,"DR":7944,"Ġaspects":7945,"Ġ$|\\":7946,"ĠGener":7947,"Ġimplemented":7948,"ĠAsian":7949,"aria":7950,"Ġaccepted":7951,"service":7952,"Ġrepresenting":7953,"ĠBow":7954,"Ġgrew":7955,"ĠExt":7956,"sor":7957,"Ġinvolving":7958,"tail":7959,"))$":7960,"oute":7961,"Ġtraffic":7962,"cong":7963,"Ġthousands":7964,"Current":7965,"ati":7966,"ione":7967,"ĠCare":7968,"ĠStan":7969,"Therefore":7970,"Ġequipment":7971,"odd":7972,"Ġearned":7973,"Ġbounds":7974,"Row":7975,"Ġrich":7976,"ometry":7977,"Ġsustain":7978,"andon":7979,"-$":7980,"1945":7981,"KE":7982,"Ġactress":7983,"Will":7984,"Ġextent":7985,"ronic":7986,"Ġtechnique":7987,"mediate":7988,"Ġcommittee":7989,"actic":7990,"rance":7991,"Ġirre":7992,"amm":7993,"Ġcampus":7994,"rane":7995,"Ġincident":7996,"direct":7997,"Ġbands":7998,"ĠIR":7999,"ali":8000,"osophy":8001,"acle":8002,"ĠCharl":8003,"Ġcomplexity":8004,"Ġera":8005,"Ġwitness":8006,"ometric":8007,"btn":8008,"cref":8009,"Ġconj":8010,"params":8011,"white":8012,"ĠFamily":8013,"Ġtraject":8014,"Ġcomposition":8015,"ĠLatin":8016,"Pop":8017,"Ġcoal":8018,"Ġion":8019,"clusions":8020,"Dev":8021,"ĠLag":8022,"achus":8023,"common":8024,"Ġblocks":8025,"Ġapi":8026,"iger":8027,"Ġstreet":8028,"ĠMajor":8029,"Ġstorage":8030,"Ġoccurred":8031,"1930":8032,"Ġcoordinate":8033,"defined":8034,"ĠDE":8035,"ighter":8036,"Ġgradient":8037,"ucky":8038,"ĉĉĊ":8039,"possible":8040,")}}":8041,"bury":8042,"Ġlocations":8043,"Ġpartnership":8044,"Ġrobust":8045,"Ġadvance":8046,"ĠUkrain":8047,"ĠAndrew":8048,"Ġcoverage":8049,"Left":8050,"Sm":8051,"Ġorganized":8052,"Ġopinion":8053,"fn":8054,"Ġundefined":8055,"rapper":8056,"SM":8057,"Ġbuffer":8058,"ĠObama":8059,"etails":8060,"110":8061,"apes":8062,"Ġargs":8063,"\\;":8064,"cccc":8065,"floor":8066,"Ġwel":8067,"Ġnotes":8068,"ĠVi":8069,"parse":8070,"Ġorbit":8071,"Write":8072,"Ġbiggest":8073,"ĠIllinois":8074,"life":8075,"Ġmarked":8076,"Ġinfinite":8077,"FONT":8078,"ĠPower":8079,"stone":8080,"ĠHospital":8081,"burgh":8082,"1964":8083,"Ġpenal":8084,"Container":8085,"points":8086,"Url":8087,"ĠJackson":8088,"lers":8089,"Ã§":8090,"romise":8091,"prov":8092,"Ġdynamic":8093,"Ġscaling":8094,"ĠVan":8095,"Ġinsert":8096,"unately":8097,"Ġrecording":8098,"ĠCy":8099,"Ġahead":8100,"Ġlooks":8101,"izabeth":8102,"Ġoptimization":8103,"Ġvision":8104,"Ġstack":8105,"Ġfle":8106,"Although":8107,"Ġprime":8108,"opher":8109,"Ġobjective":8110,"imation":8111,"Ġrecognized":8112,"ĠJun":8113,"ĠAv":8114,"Ġstability":8115,"PECT":8116,"Ġ[\\":8117,"ttp":8118,"Ġatmosp":8119,"Ġcustomers":8120,"Ġprepar":8121,"ĠAuthor":8122,"finished":8123,"rovers":8124,"ĠScotland":8125,"Ġreplace":8126,"'),":8127,"ĠSciences":8128,"isted":8129,"Ġpages":8130,"Ġsell":8131,"annot":8132,"Ġdefense":8133,"Ġsister":8134,"ĠCheck":8135,"ĠPalest":8136,"Ġdust":8137,"uri":8138,"Ġengineering":8139,"vas":8140,"').":8141,"}\\,\\":8142,"Ġdivided":8143,"Dat":8144,"XX":8145,"Ġnarrow":8146,"Ġcomposed":8147,"ersonal":8148,"oir":8149,"Ġabund":8150,"Tree":8151,"Ġspot":8152,"Local":8153,"Ġaccurate":8154,"si":8155,"Ġturns":8156,"ĠPlay":8157,"Ġvertical":8158,"ĠRadio":8159,"Button":8160,"La":8161,"Ġroles":8162,"achusetts":8163,"Ġexponential":8164,"ĠEastern":8165,"orders":8166,"Ġleaves":8167,"Ġcalculate":8168,"Ġtheories":8169,"Ġlie":8170,"Conn":8171,"global":8172,"AND":8173,"iser":8174,"ĠKong":8175,"amin":8176,"ĠTaylor":8177,"Ġarrived":8178,"sv":8179,"ĠMonday":8180,"Ġancient":8181,"vin":8182,":}":8183,"ĠFacebook":8184,"ading":8185,"Ġmurder":8186,"ĠRun":8187,"Ġcapture":8188,"Ġli":8189,"Ġdisp":8190,"Ġactors":8191,"ups":8192,"ĠWho":8193,"Ġhonor":8194,"ĠCommon":8195,"Track":8196,"SH":8197,"Ġgeometry":8198,"imary":8199,"Ġpolitician":8200,"Ġtrees":8201,"Stat":8202,"ennis":8203,"Ġpod":8204,"uint":8205,"Ġchampionship":8206,"ierarch":8207,"Ġbrain":8208,"ĠSaturday":8209,"Ġdamage":8210,"Ġtalking":8211,"Ġdetected":8212,"parameter":8213,"Ġbalance":8214,"PU":8215,"Ġinstitution":8216,"Ġagents":8217,"App":8218,"EQ":8219,"ĠCEO":8220,"document":8221,"Ġnamely":8222,"ĠMid":8223,"Ġsport":8224,"vard":8225,"onto":8226,"jpg":8227,"ĠDC":8228,"DD":8229,"Ġhappens":8230,"Ġcycl":8231,"ĠWater":8232,"idae":8233,"Ġfloor":8234,"dest":8235,"Ġwealth":8236,"Ġrepeated":8237,"Ġtemplate":8238,"FO":8239,"ji":8240,"Ġdie":8241,"ĠTheatre":8242,"inson":8243,"${\\":8244,"Ġserves":8245,"Ġperforming":8246,"Ġ**":8247,"pet":8248,"Acc":8249,"ĠAPI":8250,"Ġattribute":8251,"Long":8252,"Ġmapping":8253,"Ġtreated":8254,"Ġfort":8255,"ĠGre":8256,"Ġcauses":8257,"ĠNations":8258,"renew":8259,"TS":8260,"Ġkids":8261,"]}":8262,"1920":8263,"wer":8264,"Ġtracks":8265,"tfrac":8266,"scriptsize":8267,"Ġdream":8268,"Ġbehaviour":8269,"mazon":8270,"ĠEnergy":8271,"Ġperspective":8272,"Ġcoefficient":8273,"ĠIndeed":8274,"Ġhighlight":8275,"ĠGame":8276,"Ġcharacteristic":8277,"Ġnegot":8278,"gment":8279,"ĠAG":8280,"Ġbatt":8281,"ooking":8282,"pa":8283,"comes":8284,"Description":8285,"ultane":8286,"just":8287,"Ġdriver":8288,"ĠRo":8289,"Each":8290,"Ġsupporting":8291,"1965":8292,"Ġentirely":8293,"Header":8294,"cisely":8295,"Ġpossibly":8296,"Ġluminos":8297,"Ġcalling":8298,"window":8299,"ĠKen":8300,"uum":8301,"Mark":8302,"template":8303,"Ġexplicitly":8304,"ĠCode":8305,"ĠOR":8306,"sid":8307,"itory":8308,"Dir":8309,"spe":8310,"Ġconsequence":8311,"teen":8312,"Ġexclud":8313,"Ġdomestic":8314,"Ġnecessarily":8315,"ĠGovernor":8316,"ĠSea":8317,"ĠPubl":8318,"Ġcm":8319,"ĠMethod":8320,"ĠColumbia":8321,"ãģ":8322,"Ġsevere":8323,"ĠBlue":8324,"ĠFile":8325,"Ġsubt":8326,"stable":8327,"///":8328,"bu":8329,"las":8330,"Second":8331,"Go":8332,"Open":8333,"Ġevaluate":8334,"Ġhidden":8335,"ĠJesus":8336,"ĠLo":8337,",$":8338,"Ġpredicted":8339,"Ġhour":8340,"ĠCarl":8341,"Empty":8342,"Ġlegisl":8343,"Ġcoinc":8344,"Ġdiscrete":8345,"ednes":8346,"Ġfont":8347,"TYPE":8348,"ĠMu":8349,"Ġfacility":8350,"'.":8351,"Ġemployed":8352,"Ġopposite":8353,",\\,\\":8354,"ĠWeek":8355,"ĠBack":8356,"$:":8357,"Ġindustrial":8358,"Ġdrama":8359,"ĠMinistry":8360,"Server":8361,"ĠDaniel":8362,"ĠEdward":8363,"effect":8364,")--":8365,"brace":8366,"Ġresearchers":8367,"Ġconcerned":8368,"Ġadvert":8369,"Ġtells":8370,"ĠKent":8371,"Ġradiation":8372,"Ġcarbon":8373,"Ġcere":8374,"isc":8375,"ĠTrust":8376,"stood":8377,"sd":8378,"ĠOnly":8379,"Ġrecognition":8380,"ĠTele":8381,"ĠAnother":8382,"ursday":8383,"Ġvot":8384,"models":8385,"ĠMot":8386,"Ġperman":8387,"ibli":8388,"uli":8389,"ĠId":8390,"lets":8391,"fghan":8392,"Module":8393,"ĠInternet":8394,"ĠCard":8395,"Ġsubsequent":8396,"800":8397,"Ġapplying":8398,"uesday":8399,"GR":8400,"ĠPrime":8401,"600":8402,"Vol":8403,"acket":8404,"Ġresident":8405,"Ġhab":8406,"|}":8407,"<?":8408,"Ġmathemat":8409,",{\\":8410,"lements":8411,"Ġvisible":8412,"islation":8413,"Ġsummar":8414,"ĠCoast":8415,"ĠSong":8416,"shot":8417,"Ġcollected":8418,"Ġlanguages":8419,"Ġtwice":8420,"ĠBrook":8421,"Provider":8422,"Ġends":8423,"Ġintersection":8424,"erg":8425,"Ġexerc":8426,"Sing":8427,"Early":8428,"ACK":8429,"ĠBattle":8430,"ums":8431,"Que":8432,"adelph":8433,"arity":8434,"May":8435,"BI":8436,"ses":8437,"Ġdecomposition":8438,"ĠGi":8439,"ĠPy":8440,"Ġlocally":8441,"1966":8442,"ĠSta":8443,"ĠIndust":8444,"exports":8445,"Ġbegins":8446,"ĠJon":8447,"Ġclosely":8448,"Ġreader":8449,"icial":8450,"Ġjudge":8451,"ifer":8452,"Ġsecondary":8453,"Height":8454,"Ġgender":8455,"ĠRos":8456,"Layout":8457,"brid":8458,"Json":8459,"Ġfill":8460,"ĠĠĠĠĠĠĠĠĠĠĠĠĠĠĠĠĠĠĠĠĠ":8461,"ez":8462,"Ġeq":8463,"^*$":8464,"perform":8465,"Ġapproved":8466,"Ġshop":8467,"pool":8468,"Ġcars":8469,"Ġrepresentations":8470,"Ġexplan":8471,"Ġurban":8472,"stat":8473,"Ġboost":8474,"ĠSpace":8475,"Ġdro":8476,"Process":8477,"Ġsuccessfully":8478,"iden":8479,"atever":8480,"Ġvariation":8481,"Ġsuperv":8482,"ĠRay":8483,"Ġstatistical":8484,"ĠNY":8485,"Unit":8486,"aming":8487,"ogg":8488,"Ġprojection":8489,"oles":8490,"Ġphone":8491,"itative":8492,"Ġbos":8493,"PD":8494,"Ġgravit":8495,"ĠReport":8496,"Ġreasonable":8497,"Ġreaction":8498,"zh":8499,"ĠFree":8500,"ĠMassachusetts":8501,"Ġpatient":8502,"flu":8503,"Ġspring":8504,"adelphia":8505,"bot":8506,"Med":8507,"Ġentropy":8508,"ĠPoint":8509,"Ġversions":8510,"bell":8511,"Frame":8512,"ĠMath":8513,"Ġpassing":8514,"ĠMaster":8515,"ĠFour":8516,"Ġpool":8517,"ervation":8518,"ĠSU":8519,"Definition":8520,"Ġequality":8521,"menu":8522,"Ġinspired":8523,"Ġsufficiently":8524,"Ġsan":8525,"Ġconvex":8526,"abb":8527,"sen":8528,"Ġcrew":8529,"Ġmonitor":8530,"Ġassociation":8531,"ienced":8532,"Ġsatisfying":8533,"Ġregistered":8534,"OC":8535,"ĠViet":8536,"PH":8537,"amber":8538,"lik":8539,"athan":8540,"Ġexperiences":8541,"Ġexplo":8542,"Ġsoldiers":8543,"Ġferm":8544,"Home":8545,"Ġmys":8546,"ruit":8547,"ĠBroad":8548,"named":8549,"Callback":8550,"ugby":8551,"Ġnearby":8552,",\\\\":8553,"ĠLike":8554,"Ġpractices":8555,"card":8556,"Ġconfidence":8557,"erior":8558,"ĠInvest":8559,"clip":8560,"ĠAny":8561,"ĠMap":8562,"Ġrepresentative":8563,"renewcommand":8564,"Prot":8565,"ĠRepresent":8566,"ĉĠĠĠĠĠ":8567,"Two":8568,"sch":8569,"ednesday":8570,"foo":8571,"Ġcontrad":8572,"Ġdesired":8573,"plicity":8574,"verb":8575,"Ġtempor":8576,"ologist":8577,"ographer":8578,"dfrac":8579,"Ġeffectively":8580,"ipeline":8581,"Ġfinds":8582,"Ġminister":8583,"arters":8584,"Ġvehicles":8585,"fold":8586,"obe":8587,"ariance":8588,"Ġwestern":8589,"Ġadvanced":8590,":=":8591,"Before":8592,"ĠOxford":8593,"Ġinvestigate":8594,"ĠFar":8595,"opyright":8596,"Ġweights":8597,"orrow":8598,"ĠAR":8599,"Ġsuitable":8600,"Ġdenoted":8601,"PY":8602,"loop":8603,"Ġdatasets":8604,"Configuration":8605,"orough":8606,"Ġpackage":8607,"Ġrestaur":8608,"ilbert":8609,"Ġplus":8610,"Ġexceed":8611,"Ġupdated":8612,"enger":8613,"inton":8614,"ipality":8615,"chester":8616,"construction":8617,"ictures":8618,"Ġsym":8619,"|}{":8620,"Ġdecade":8621,"Ġresponsibility":8622,"Ġestate":8623,"Ġpatterns":8624,"Ġacquired":8625,"Ġtroops":8626,"Ġgone":8627,"bool":8628,"ifest":8629,"Par":8630,"Ġjourney":8631,"axis":8632,"Ġawards":8633,"Ġconclusion":8634,"Ġinfrastructure":8635,"fa":8636,"Ġcategories":8637,"irds":8638,"Ġtail":8639,"]$.":8640,"Ġdog":8641,"Ġseat":8642,"Ġneutr":8643,"Ġconvent":8644,"enant":8645,"Ġ\\!":8646,"Ġdiam":8647,"MT":8648,"Ġsurrounding":8649,"hs":8650,"Ġseek":8651,"sume":8652,"ĠWild":8653,"Ġhero":8654,"bigl":8655,"ĠBal":8656,"ĠExecutive":8657,"Ġassumptions":8658,"Ġtherap":8659,"Ġagric":8660,"Äĩ":8661,"Ġbridge":8662,"iem":8663,"ĠGuard":8664,"Ġseeing":8665,"ĠUr":8666,"ĠChristmas":8667,"Entry":8668,"Ġhouses":8669,"phant":8670,"ĠHong":8671,"aration":8672,"'d":8673,"how":8674,"Ġanimals":8675,"Care":8676,"Ġbias":8677,"Ġlooked":8678,"coh":8679,"Ġbeat":8680,"ĠBol":8681,"Ġmatching":8682,"Ġlabels":8683,"plicated":8684,"ogen":8685,"$_{":8686,"plot":8687,"ĠHistoric":8688,"ĠChampionships":8689,"Ġtoken":8690,"Ġreferences":8691,"Ġhomes":8692,"Ġenem":8693,"Ġprofession":8694,"ĠEXPECT":8695,"Ġcompat":8696,"Ġprecisely":8697,"()->":8698,"Ġfeat":8699,"ĠMember":8700,"Sum":8701,"Ġreligion":8702,"req":8703,"coll":8704,"ĠPrem":8705,"General":8706,"Ġplanned":8707,"Ġequilibrium":8708,"writer":8709,"Level":8710,"endar":8711,"nic":8712,"Ġcommonly":8713,"ĠChris":8714,"duction":8715,"resource":8716,"Utils":8717,"ila":8718,"dy":8719,"ĠWrit":8720,"iary":8721,"Ġtranslation":8722,"uling":8723,"Ġwaves":8724,"Ġrelationships":8725,"UM":8726,"Ġenable":8727,"ĠMah":8728,"Ġpersons":8729,"1963":8730,"Ac":8731,"chor":8732,"loads":8733,"ĠConstitution":8734,"Kind":8735,"Ġelectronic":8736,"bigr":8737,"ĠBell":8738,"ĠAddition":8739,"paragraph":8740,"Ġrend":8741,"ĠCorporation":8742,"ĠLittle":8743,"ĠPrince":8744,"ĠGra":8745,"))\\":8746,"English":8747,"Ġthread":8748,"itzer":8749,"illy":8750,"enum":8751,"elect":8752,"ceived":8753,"ĠNight":8754,"OK":8755,"Ġbeautiful":8756,"Ġindicated":8757,"Ġvocals":8758,"Ġlemma":8759,"Ġrelax":8760,"Ġheav":8761,"ĠRen":8762,"transform":8763,"Ġmist":8764,"Ġrational":8765,"ĠRh":8766,"Ġwish":8767,"ĠĠĠĠĠĠĠĠĠĠĠĠĠĠĠĠĠĠĠĠĠĠĠĠĠĠĠĠĠĠĠĠĠĠĠ":8768,"ĠBang":8769,"ĠMike":8770,"Location":8771,"ĠAM":8772,"][]{":8773,"ĠHand":8774,"ĠLast":8775,"Ġphoto":8776,"\\}$.":8777,"make":8778,"Ġdiscover":8779,"lyn":8780,"ouch":8781,"Ġinverse":8782,"Ġflight":8783,"fi":8784,"Ġaid":8785,"ĠLew":8786,"ĠWis":8787,"ĠEst":8788,"Ġredshift":8789,"ĠJews":8790,"phone":8791,"thon":8792,"Ġsoc":8793,"Ġemot":8794,"Ġbroken":8795,"Ġliqu":8796,"Ġinteract":8797,"Ġshell":8798,"Ġinterpretation":8799,"Ġessentially":8800,"erer":8801,"Ġtheme":8802,"Ġcamera":8803,"Ġfashion":8804,"ĠSports":8805,"?:":8806,"Ġ>=":8807,"Ġdimensional":8808,"ĠGar":8809,"Ġoperated":8810,"Ġestablishments":8811,"128":8812,"Ġalleged":8813,"Ġgreatest":8814,"??":8815,"Ġpoliticians":8816,"Collection":8817,"Ġmyself":8818,"API":8819,"Down":8820,"Ġshares":8821,"Ġpredictions":8822,"Ġdrawn":8823,"Ġpractical":8824,"ĠElizabeth":8825,"Ġgranted":8826,"Notes":8827,"ĠCreate":8828,"Ġvirus":8829,"Ġcomedy":8830,"Operation":8831,"Ġretired":8832,"notes":8833,"ĠlP":8834,"allow":8835,"water":8836,"inction":8837,"reference":8838,"DM":8839,"Ġhappy":8840,"ĠUse":8841,"Ġnarr":8842,"ĠPhilipp":8843,"aya":8844,"equal":8845,"Ġtemperatures":8846,"WE":8847,"itles":8848,"ificate":8849,"joint":8850,"igrants":8851,"BL":8852,"arts":8853,"Option":8854,"Di":8855,"National":8856,"erves":8857,"BE":8858,"vements":8859,"ĠProvince":8860,"semble":8861,"mi":8862,"idget":8863,"also":8864,"igital":8865,"Ġexpos":8866,"Ġsatisfied":8867,"inking":8868,"Ġmoments":8869,"ci":8870,"pson":8871,"]$,":8872,"Ġpaths":8873,"elihood":8874,"ordan":8875,"Ġintegrated":8876,"Ġfloat":8877,"longrightarrow":8878,"Ġsupports":8879,"ribed":8880,"LC":8881,"dependent":8882,"Br":8883,"product":8884,"depend":8885,"Thread":8886,"ĠSom":8887,"Ġentity":8888,"Ġburn":8889,"ensities":8890,"mathop":8891,"Ġuniversal":8892,"Ġtrace":8893,"ĠEngineering":8894,"ĠHa":8895,"VAL":8896,"Ġcomputing":8897,"green":8898,"Ġrailway":8899,"&$":8900,"Ġzone":8901,"Ġgirls":8902,"navbar":8903,"Year":8904,";\\;\\":8905,"rency":8906,"Ġathlet":8907,"Ġeyes":8908,"Inst":8909,"Ġmand":8910,"indu":8911,"antly":8912,"Ġconstants":8913,"Ġcontrovers":8914,"ãĥ":8915,"Ġmarkets":8916,"ĠAfghan":8917,"1962":8918,"full":8919,"Ġrig":8920,"Ġplants":8921,"%)":8922,"Parameter":8923,"ĠEnvironment":8924,"Ġaf":8925,"âĢħ":8926,"}[\\":8927,"Ġfuel":8928,"ancer":8929,"Ġprepared":8930,"ĠAbout":8931,"}})":8932,"oves":8933,"buffer":8934,"Ġlegislation":8935,"vature":8936,"etal":8937,"control":8938,"Ġmir":8939,"Ġultimately":8940,"Ġrural":8941,"ĠDisc":8942,"acent":8943,"Ġmaybe":8944,"Ġportion":8945,"ĠNet":8946,"Ġexpanded":8947,"Ġdeclared":8948,"Ġrecip":8949,"ĠWhe":8950,"asters":8951,"Ġfan":8952,"iated":8953,"WS":8954,"Ġextensive":8955,"anguage":8956,"Ġenergies":8957,"endment":8958,"Ġcaref":8959,"Ġaggreg":8960,"umes":8961,"ĠPortug":8962,"Ġwinner":8963,"VD":8964,"Ġinjury":8965,"enses":8966,"Ġrect":8967,"Ġrecover":8968,"Ġrenew":8969,"ubble":8970,"ĠLim":8971,"Ġblog":8972,"ymmetry":8973,"Ġhistoric":8974,"Ġintroduction":8975,"Ġsale":8976,"thur":8977,"Ident":8978,"ĠCirc":8979,"ĠName":8980,"cp":8981,"########":8982,"lywood":8983,"Ġarts":8984,"arthe":8985,"oster":8986,"lesssim":8987,"Ġdoctor":8988,"ZE":8989,"Ġeducational":8990,"Ġgenus":8991,"Ġhelping":8992,"bmatrix":8993,"ĠDir":8994,"circle":8995,"Ġsimultane":8996,"leton":8997,"eral":8998,"Ġconstitution":8999,"ye":9000,"Ġships":9001,"Ġregul":9002,"Ġhearing":9003,"123":9004,"...,":9005,"ĠEnt":9006,"ĠMcC":9007,"Comple":9008,"Ġabsence":9009,"Su":9010,"Ġcaptured":9011,"}}_{\\":9012,"Ġexperienced":9013,"Ġkill":9014,"Ġsubsequently":9015,"Ġce":9016,"Ġholding":9017,"ĠGirl":9018,"Ġabuse":9019,"Ġfaculty":9020,"Ġbulk":9021,";\"":9022,"Ptr":9023,"}}}\\":9024,"Ġrid":9025,"Ġcontribute":9026,"RR":9027,"Ġmobile":9028,"ĠHung":9029,"GE":9030,"hard":9031,"ALL":9032,"inals":9033,"Hash":9034,"TT":9035,"eld":9036,"Ġsummary":9037,"Ġfighting":9038,"Ġcircumstances":9039,"avor":9040,"Ġstrategies":9041,"Ġcensus":9042,"ctic":9043,"ĠEval":9044,"Ġ\\]":9045,"1944":9046,"ĠAgain":9047,"NAME":9048,"refix":9049,"uple":9050,"Script":9051,"Ġpieces":9052,"Ġexcess":9053,"fields":9054,"ascript":9055,"001":9056,"ĠCro":9057,"Ġfifth":9058,"ogether":9059,"Ġthanks":9060,"erry":9061,"unfinished":9062,"algorithm":9063,"Prop":9064,"wing":9065,"Ġisomorphism":9066,"theless":9067,"ĠBerlin":9068,".'":9069,"Ġentries":9070,"Ġdoor":9071,"Ġparticipants":9072,"urations":9073,"ialize":9074,"Ġquark":9075,"Ġrevolution":9076,"Ġderivative":9077,"Ġconform":9078,"eting":9079,"Ġsupposed":9080,"$};":9081,"Ġintern":9082,"emptyset":9083,"Ġcorner":9084,"Ġlowest":9085,"ĠAdministration":9086,"onomy":9087,"Ġturb":9088,"Ġprominent":9089,"ochastic":9090,"IE":9091,"ĠDown":9092,"Ġwarm":9093,"Ġcontrolled":9094,"Ġunderstood":9095,"Ġstands":9096,"ĠSher":9097,"ĠWalk":9098,"Ġeye":9099,"Ġalongside":9100,"Ġpapers":9101,"Ġcontainer":9102,"Ġdebate":9103,"Åį":9104,"Ġattorney":9105,"Ġouter":9106,"Ġcosm":9107,"hav":9108,"ibilities":9109,"parison":9110,"iota":9111,"angular":9112,"ĠBa":9113,"[-":9114,"df":9115,"exec":9116,"ropic":9117,"Ġsun":9118,"ĠTuesday":9119,"âĢĺ":9120,"Ġfell":9121,"mn":9122,"Ġnewly":9123,"255":9124,"Ġreceiving":9125,"sex":9126,"enter":9127,"world":9128,"Ġplease":9129,"ĠAppendix":9130,"Ġpromote":9131,"ffect":9132,"ĠPhiladelphia":9133,"ussion":9134,"Ġpersonnel":9135,"Ġbodies":9136,"success":9137,"ĠNon":9138,"Ġmyst":9139,"ĠPass":9140,"ĠThursday":9141,"ĠThree":9142,"avelength":9143,"ructions":9144,"ĠRom":9145,"1961":9146,"Document":9147,"Ġnob":9148,"^{*":9149,"ulpt":9150,"Ġtaught":9151,"160":9152,"ĠKel":9153,"ĠRog":9154,"Ġgravity":9155,"180":9156,"Host":9157,"Ġfiled":9158,"onav":9159,"Ġsequences":9160,"vee":9161,"apl":9162,"ĠĠĠĠĠĠĠĠĠĠĠĠĠĠĠĠĠĠ":9163,"Ġtopic":9164,"irection":9165,"Ġnotion":9166,"Ġdiver":9167,"Ġchapter":9168,"ruption":9169,"Exp":9170,"component":9171,"periment":9172,"Ġestimation":9173,"slash":9174,"Ġcontemporary":9175,"Ġdefeated":9176,"Ġjur":9177,"Ġcancell":9178,"Disc":9179,"Ġexecution":9180,"ĠEvent":9181,"ĠBrad":9182,"Ġcompre":9183,"ĠBBC":9184,"Ġsampling":9185,"ritical":9186,"ĠDesign":9187,"Ġris":9188,"ĠUnivers":9189,"Dep":9190,"ĠGiven":9191,"Another":9192,"ĠInstead":9193,"ĠBoy":9194,"uating":9195,"Ġclients":9196,"Ġment":9197,"ĠCur":9198,"Ġemployment":9199,"ourier":9200,"Ġseconds":9201,"Sign":9202,"Ġfresh":9203,"ĠDutch":9204,"sort":9205,"Ġmanufacture":9206,"ropol":9207,"bind":9208,"ads":9209,"Ġ<!--":9210,"Ġlicense":9211,"Ġpublication":9212,"Ġcompens":9213,"Ġdiagonal":9214,"ĠAmazon":9215,"ĠLight":9216,"Ġnewspaper":9217,"Ġdemonstrate":9218,"Ġdependent":9219,"ĠSM":9220,"III":9221,"Ġven":9222,"ĠTri":9223,"ocated":9224,"Ġreviews":9225,"})}":9226,"integ":9227,"Ġmaxim":9228,"ĠCat":9229,"yo":9230,"ĠEth":9231,">,":9232,"Ġtransmission":9233,"ĠMA":9234,"Ġ*)":9235,"ĠPoland":9236,"ĠTwitter":9237,"ĠLabor":9238,"Ġaccounts":9239,"aine":9240,"bro":9241,"ĠCase":9242,"Bi":9243,"})=":9244,"```":9245,"Ġmatters":9246,"ĠToday":9247,"ĠDar":9248,"\"))":9249,"ĠRevolution":9250,"ĠThrough":9251,"including":9252,"ĠCON":9253,"ĠChildren":9254,"Search":9255,"ĠGR":9256,"Ġmovies":9257,"ito":9258,"Ġgeneric":9259,"Aust":9260,"Ġaccident":9261,"media":9262,"vs":9263,"Ġunable":9264,"Gen":9265,"layout":9266,"Ġapplicable":9267,"Project":9268,"shape":9269,"Ġderive":9270,"Ġopposition":9271,"hl":9272,"Ġbomb":9273,"ideos":9274,"onia":9275,"ĠHREF":9276,"ĠĠĠĠĠĠĠĠĠĠĠĠĠĠĠĠĠĠĠĠ":9277,"ĠMedicine":9278,"ĠKim":9279,"Policy":9280,"Ġscholar":9281,"Ġexcited":9282,"Ġinn":9283,"Ġroughly":9284,"Given":9285,"plan":9286,"Ġprogramming":9287,"Ġmaximal":9288,"Ġflex":9289,"Ġmedian":9290,"His":9291,"Are":9292,"ĠJean":9293,"pic":9294,"Ġbass":9295,"CM":9296,"Ġsac":9297,"kg":9298,"ĠWednesday":9299,"ĠMult":9300,"Position":9301,"ĠPen":9302,"ounsel":9303,"Ġfluid":9304,"Ġregister":9305,"ĠFair":9306,"ego":9307,"ennes":9308,"Ġuniverse":9309,"Ġneural":9310,"Ġcolumns":9311,"Ag":9312,"Ġcopies":9313,"STR":9314,"since":9315,"Ġcouldn":9316,"Ġintelligence":9317,"}_{-":9318,"}}^{\\":9319,"Params":9320,"Ġspons":9321,"ĠAlexander":9322,"ĠOlympic":9323,"pres":9324,"Ġcold":9325,"Ġidentical":9326,"Ġapprec":9327,"Ġclinical":9328,"Ġshut":9329,"Ġagencies":9330,"Ġsubsection":9331,"Ġfrequently":9332,"ratic":9333,"ederation":9334,"istant":9335,"Ġreprodu":9336,"Ġluminosity":9337,"ulse":9338,"ĠClark":9339,"aded":9340,"Control":9341,"Ġgoods":9342,"Ġcharacteristics":9343,"Ġcommut":9344,"ĠĠĠĠĠĠĠĠĠĠĠĠĊ":9345,"Ġcorporate":9346,"aton":9347,"Ġpri":9348,"Ġbreaking":9349,"hu":9350,"Ġ({\\":9351,"BR":9352,"Ġextreme":9353,"ĉĉĉĉĉĉĉ":9354,"evin":9355,"sat":9356,"Ġquantities":9357,"ben":9358,"\\)":9359,"Ġcrucial":9360,"aturally":9361,"plane":9362,"Ġassistance":9363,"101":9364,"PM":9365,"parameters":9366,"Ġdance":9367,"Record":9368,"tml":9369,"anner":9370,"ĠHom":9371,"Ġcloser":9372,"ĠDespite":9373,"Ġfacts":9374,"ader":9375,"Ġinsurance":9376,"Change":9377,"}}.":9378,"Ġphysic":9379,"Ġmotor":9380,"COL":9381,"Ġ$,":9382,"Ġimmediate":9383,"ĠCLASS":9384,"fortunately":9385,"Ġmere":9386,"grid":9387,"ĠFre":9388,"Ġintensity":9389,"})^":9390,"bras":9391,"Ġvolunte":9392,"ĠAud":9393,"isms":9394,"ĠToronto":9395,"Ġfra":9396,"ĠForeign":9397,"Ġphoton":9398,"AAAAAAAA":9399,"Under":9400,"ĠPrize":9401,"ĠCub":9402,"ĠBC":9403,"ĠOfficer":9404,"Ġjet":9405,"/(":9406,"rosc":9407,"125":9408,"Ġstuff":9409,"Ġenhance":9410,"Properties":9411,")[":9412,"general":9413,"ĠAffairs":9414,"acks":9415,"ĠReal":9416,"Ġmessages":9417,"Ġsky":9418,"Ġtrivial":9419,"Ġcache":9420,"Ġpreced":9421,"Ġfinish":9422,"rait":9423,"1942":9424,"Ġmac":9425,"ulner":9426,"eman":9427,"Ġassistant":9428,"Ġcollaboration":9429,"Ġattempts":9430,"rizona":9431,"ĠConf":9432,"}$}":9433,"Ġsquad":9434,"uses":9435,"Ġbench":9436,"ĠRome":9437,"Ġarms":9438,"Ġhelps":9439,"Ġkeeping":9440,"putation":9441,"ĠRod":9442,"Ġsomewhat":9443,"Ġpartners":9444,"Ġtransferred":9445,"algebra":9446,"dney":9447,"ĠNC":9448,"ĠNext":9449,"election":9450,"Ġaccord":9451,"Ġlisten":9452,"Ġbundle":9453,"FS":9454,"HC":9455,"Ġassets":9456,"icular":9457,"onavirus":9458,"Ġpal":9459,"Ġfilled":9460,"ĠAli":9461,"Ġconfirm":9462,"Ġregulations":9463,"ĠLocal":9464,"Ġepisodes":9465,"Dom":9466,"eties":9467,"join":9468,"ĠFollowing":9469,"overty":9470,"Ġdebt":9471,"Ġweapons":9472,"Names":9473,"ruck":9474,"ĠCorps":9475,"ximate":9476,"Ġsetup":9477,"Order":9478,"Ġcontribut":9479,"site":9480,"Ġdedu":9481,"Ġletters":9482,"Ġiron":9483,"tiny":9484,"Ġperformances":9485,"Ġicon":9486,"Ġscientists":9487,"Ġembedding":9488,"Ġglass":9489,"aki":9490,"types":9491,"Ġtopological":9492,"Ġfiction":9493,"Ġcovers":9494,"eah":9495,"Ġsole":9496,"ĠCorn":9497,"Ġpossess":9498,"Ġvictims":9499,"organ":9500,"Ġresulted":9501,"Dav":9502,"ptic":9503,"Ġpun":9504,">\\":9505,"files":9506,"Ġhash":9507,"Ġappeal":9508,"ĠFC":9509,"Ġaccompl":9510,"ĠĠĠĠĠĠĠĠĠĠĠĠĠĠĠĠĠĠĠĠĠĠĠĠĠĠĠĠĠĠĠĠĠĠĠĠĠĠĠĠĠĠĠĠĠĠĠĠĠĠĠĠĠĠĠĠĠĠĠĠĠĠĠĠ":9511,"Ġdecrease":9512,")).":9513,"there":9514,"ĠStation":9515,"ooks":9516,"Ġyounger":9517,"ĠWin":9518,"1958":9519,"ushed":9520,"cert":9521,"Ġconnections":9522,"Widget":9523,"ĠSus":9524,"World":9525,"Ġradial":9526,"Dem":9527,")}_":9528,"1959":9529,"Ġprices":9530,"1941":9531,"GS":9532,"Ã±":9533,"scription":9534,"ĠFire":9535,"holder":9536,"ĠMarg":9537,"mathit":9538,"Ġguard":9539,"Ġxml":9540,"strap":9541,"icker":9542,"1939":9543,"Ġteachers":9544,"short":9545,"RC":9546,"Ġescape":9547,"raise":9548,"when":9549,"^{(\\":9550,"hensive":9551,"Ġtrip":9552,"Ġvon":9553,"Ġcomputational":9554,"ĠSteve":9555,"Ġ{$":9556,"Ġvirt":9557,"Ġveter":9558,"Ġsingles":9559,"iliar":9560,"ĠSche":9561,"Ġclubs":9562,"repre":9563,"agues":9564,"ĠOnt":9565,"Ġpropose":9566,"Settings":9567,"ĠCle":9568,"each":9569,"Ġfeeling":9570,"ospit":9571,"Ġtransaction":9572,"():":9573,"Ġretire":9574,"1948":9575,"+(":9576,"uv":9577,"Rev":9578,"oses":9579,"Ġimprovement":9580,"Ġsatell":9581,"1956":9582,"Ġdynamical":9583,"Ġprinciples":9584,"Ġquantity":9585,"een":9586,"Expression":9587,"Ġexpressions":9588,"ĠScottish":9589,"None":9590,"Ġassuming":9591,"ĠDavis":9592,"Ġspending":9593,"ĠSD":9594,"icing":9595,"ĠFox":9596,"ĠLuc":9597,"Dist":9598,"Ġoffering":9599,"ĠNaz":9600,"reprene":9601,"Ġdipl":9602,"ellect":9603,"ami":9604,"ws":9605,"ĠRon":9606,"Handle":9607,"worth":9608,"ĠSi":9609,"uted":9610,"ortion":9611,"Ġcovering":9612,"ĠTrue":9613,"Ġrefers":9614,"ĠVill":9615,"ĠCambridge":9616,"ĠAk":9617,"Ġseemed":9618,"scious":9619,"ĠAnth":9620,"Ġhypothesis":9621,"Ġincreasingly":9622,"Brit":9623,"Ġdemonstrated":9624,"AGE":9625,"Ġinstances":9626,"Meta":9627,"Ġsecure":9628,"ĠBeach":9629,"Ġinterior":9630,"udden":9631,"1957":9632,"Ġadministrative":9633,"ĠDate":9634,"irms":9635,"ĠVictoria":9636,"cache":9637,"arios":9638,"IGN":9639,"Ġcommunic":9640,"Ġinvolves":9641,"owa":9642,"Ġdestroyed":9643,"encing":9644,"Ġnonlinear":9645,"ĠAction":9646,"rine":9647,"Ġanalyz":9648,"ĠMinnes":9649,"ĠNO":9650,"Ġterritory":9651,"ĠBon":9652,"rell":9653,"Ġgraduate":9654,"gebras":9655,"Ġapart":9656,"Ġ^{":9657,"Ġdiverse":9658,"}~":9659,"Ġcanonical":9660,"Ġworldwide":9661,"Consider":9662,"redit":9663,"Ġneutral":9664,"ĠTal":9665,"Ver":9666,"Xml":9667,"hash":9668,"Ġtwenty":9669,"Ġconsisting":9670,"FOR":9671,"1943":9672,"perial":9673,"Ġmagnet":9674,"Ġillustr":9675,"Ġspeaking":9676,"internal":9677,"Ġseparation":9678,"Ġcart":9679,"Ġ::":9680,"Ġvariance":9681,"Ġspend":9682,"Ġwarn":9683,"cmd":9684,"ĠPers":9685,"Ġmort":9686,"stop":9687,"access":9688,"roke":9689,"Ġvice":9690,"Ġdeleg":9691,"esian":9692,"before":9693,"Ġsentence":9694,"achelor":9695,"Ġsignals":9696,"webpack":9697,"Ġbaseball":9698,"Ġasymptotic":9699,"ĠLear":9700,"Ġnamespace":9701,"Ġmixing":9702,"Ġpit":9703,"uzz":9704,"atern":9705,"Ġinfo":9706,"}}=":9707,"ĠAirport":9708,"Main":9709,"ĠStr":9710,"ĠMarsh":9711,"large":9712,"RI":9713,"ĠDonald":9714,"Ġrain":9715,".âĢĻ":9716,"Ġsizes":9717,"ĠVice":9718,"ĠOnce":9719,"ĠMinnesota":9720,"Any":9721,"ĠApp":9722,"Store":9723,"Â°":9724,"ĠLater":9725,"Proof":9726,"Ġsettlement":9727,"Ġrefuge":9728,"ĠException":9729,"ĠView":9730,"Ġdialog":9731,"ĠWhy":9732,"Ġherself":9733,"iration":9734,"una":9735,"\"));":9736,"icking":9737,"sequently":9738,"__(":9739,"ĠAND":9740,"token":9741,"Ġsuffered":9742,"oupl":9743,"Ġmultip":9744,"aska":9745,"Ġgeneralized":9746,"ï¿":9747,"super":9748,"Posted":9749,"Ġcorrection":9750,"ootstrap":9751,"DI":9752,"Ġentitled":9753,"ĠStock":9754,"person":9755,"sn":9756,"Ġrecovery":9757,"anth":9758,"Ġvent":9759,"Ġdriven":9760,"Ġpotentially":9761,"iii":9762,"ĠCA":9763,"bits":9764,"Ġlinked":9765,"Err":9766,"Red":9767,"ĠIP":9768,"iversary":9769,"Pass":9770,"Ġknows":9771,"Ġjump":9772,"ĠRequ":9773,"CODE":9774,"Ġdescent":9775,"ĠHiggs":9776,"ello":9777,"inating":9778,"Ġoverride":9779,"ĠRight":9780,"resol":9781,"Ġfaster":9782,"ĠKorean":9783,"agg":9784,")),":9785,"ĠIslamic":9786,"ais":9787,"Ġarrested":9788,"Ġsolo":9789,"vect":9790,"connect":9791,"ĠLind":9792,"Ġconservation":9793,"Symbol":9794,"Ġargued":9795,"Ġlicens":9796,"(*":9797,"ativ":9798,"NG":9799,"Ġrevenue":9800,"ĠCH":9801,"uable":9802,"oment":9803,"Ġindependence":9804,"ãĤ":9805,"ï¿½":9806,"Ġmes":9807,"Ġsensitive":9808,"Ġcash":9809,"Ġgraduated":9810,"ĠAsh":9811,"ĠSem":9812,"profit":9813,"Ġimpossible":9814,"clear":9815,"ĠError":9816,"Vari":9817,"Ġprogramme":9818,"Ġanimal":9819,"Ġhundreds":9820,"Ġvotes":9821,"ĠTurkey":9822,"Ġtruly":9823,"aret":9824,"\\}\\":9825,"ĠBand":9826,"Connection":9827,"Ġcontrols":9828,"javascript":9829,"subsec":9830,"friend":9831,"border":9832,"Ġapplies":9833,"Ġverify":9834,"Ġpurchase":9835,"Ġseparated":9836,"Reference":9837,"icide":9838,"regular":9839,"Parameters":9840,"ĠHun":9841,"\\}$,":9842,"ĠFunction":9843,"ĠCas":9844,"ĠAvenue":9845,"Hence":9846,"Ġcriteria":9847,"ibration":9848,"HTML":9849,"ACT":9850,"Ġeastern":9851,"ĠMic":9852,"ouri":9853,"pred":9854,"SQL":9855,"ĠLive":9856,"will":9857,"Ġfeaturing":9858,"Ġrom":9859,"Ġexercise":9860,"apore":9861,"Å¡":9862,"ĠOrig":9863,"Ġprovision":9864,"special":9865,"Ġprovince":9866,"closed":9867,"Ġcorrections":9868,"Ġmarketing":9869,"ĠInf":9870,"Ġversus":9871,"relation":9872,"Ġproposal":9873,"ntax":9874,"Ġparse":9875,"Ġopposed":9876,"ĠBefore":9877,"Ġrequirement":9878,"ostic":9879,"usal":9880,"Many":9881,"ĠSanta":9882,"figures":9883,"aml":9884,"Ġclassic":9885,"ĠLO":9886,"ivered":9887,"Ġneither":9888,"columnwidth":9889,"Ġadvice":9890,"Ġ),":9891,"Ġcurvature":9892,"kind":9893,"Ġweather":9894,"tikzpicture":9895,"Ġfluctuations":9896,"_;":9897,"Ġloved":9898,"Ġguide":9899,"Ġlay":9900,"ori":9901,"focus":9902,"Rad":9903,"iner":9904,"ĠStephen":9905,"Ġdirections":9906,"itudes":9907,"consin":9908,"Ð»":9909,"Pan":9910,"Ġurg":9911,"Ġafford":9912,"ĠKansas":9913,"Ġcatalog":9914,"render":9915,"rend":9916,"Ġbran":9917,"esides":9918,"ĠCov":9919,"Ġattributes":9920,"256":9921,"Ġstead":9922,"Ġ\\(\\":9923,"Ġemergency":9924,"ĠFellow":9925,"Ġarc":9926,"Ġtested":9927,"ĠIslands":9928,"ĠTok":9929,"ĠGree":9930,"&=\\":9931,"Ġdoubt":9932,"ĠBelg":9933,"anna":9934,"Ġdetermin":9935,"Ġacknowled":9936,"utely":9937,"Lemma":9938,"Ġsought":9939,"Ġphotograph":9940,"Ġautomatically":9941,"$-$":9942,"Ġconstitu":9943,"ĠWat":9944,"Ġwhatever":9945,"dict":9946,"ni":9947,"agan":9948,"ĠPrinc":9949,"Ġabandon":9950,"Ġaffili":9951,"ĠHard":9952,"Ġstanding":9953,"Members":9954,"ĠColorado":9955,"ĠIsraeli":9956,"Ġabstract":9957,"Ġgained":9958,"1946":9959,"Ġexcellent":9960,"Ġkid":9961,"ĠBooks":9962,"Ġcommitment":9963,"Ġpm":9964,"ERROR":9965,"Mr":9966,"urst":9967,"Ġfant":9968,"Ġflood":9969,"classes":9970,"Ġdashed":9971,"Ġfindings":9972,"Ġmoves":9973,"aux":9974,"ATA":9975,"cycl":9976,"Ġsoci":9977,"Ġfacilit":9978,"Schema":9979,"Ġsharing":9980,"ogram":9981,"Ġscheduled":9982,"achine":9983,"Public":9984,"resp":9985,"Ġfounder":9986,"have":9987,"Ġimply":9988,"aga":9989,"}|\\":9990,"ĠBet":9991,"NC":9992,"%,":9993,"Ġduty":9994,"Ġelev":9995,"Jan":9996,"Ġdocumentary":9997,"bed":9998,"ĠMir":9999,"utils":10000,"arest":10001,"PORT":10002,"OO":10003,"Step":10004,"uning":10005,"Body":10006,"1918":10007,"Iter":10008,"âĢ¦âĢ¦":10009,"Ġdropped":10010,"Ġfavour":10011,"irical":10012,"Ġpassion":10013,"1952":10014,"Most":10015,"ĠWars":10016,"Ġsupers":10017,"etherlands":10018,"Ġreturning":10019,"plus":10020,"kes":10021,"Ġapproximate":10022,"isor":10023,"Ġdominant":10024,"Ġcrowd":10025,"TA":10026,"Ġaren":10027,"multirow":10028,"HL":10029,"engine":10030,"ĠGrant":10031,"represent":10032,"prise":10033,"Ġfish":10034,"Career":10035,"ĠMicrosoft":10036,"unnel":10037,"1955":10038,"awn":10039,"ĠStory":10040,"1947":10041,"]{\\":10042,"ĠÎ":10043,"eh":10044,"\\|\\":10045,"functions":10046,"ĠNAS":10047,"Ġexperts":10048,"ĠSym":10049,"Nov":10050,"aph":10051,"Ġpray":10052,"Ġhumans":10053,"aked":10054,"complete":10055,"Ġgravitational":10056,"Ġcreative":10057,"Ġchoices":10058,"ĠTam":10059,"ĠJacob":10060,"ĠValue":10061,"United":10062,"Font":10063,"Tool":10064,"ĠImm":10065,"Only":10066,"Ġgovernments":10067,"ĠNever":10068,"Ġlosing":10069,"mal":10070,"Ġeasier":10071,"merce":10072,"Ġvisited":10073,"Ġmolecular":10074,"Ġfeedback":10075,"ĠArgent":10076,"chestra":10077,"artheta":10078,"rog":10079,"Ġsignature":10080,"Ġpopulations":10081,"icons":10082,"izable":10083,"ĠHay":10084,"inian":10085,"argin":10086,"Ġworst":10087,"ĠHou":10088,"Ġanom":10089,"Ġannounce":10090,"Ġcas":10091,"Ġoccasion":10092,"Moreover":10093,"vartheta":10094,"Ġintent":10095,"ounded":10096,"Ġongoing":10097,"ĠArizona":10098,"hered":10099,"uther":10100,"Enc":10101,"Ġsigns":10102,"holders":10103,"University":10104,"family":10105,"Ġending":10106,"Ġwilling":10107,")})":10108,"byte":10109,"Ġcryst":10110,"ropical":10111,"ĠOntario":10112,"nn":10113,"ĠIV":10114,"Ġchallenging":10115,"Decl":10116,"ĉĠĠĠĠĠĠĠĠĠĠĠ":10117,"Ġpointed":10118,"Ġinclusion":10119,"bp":10120,"Ġdx":10121,"ĠForest":10122,"ĠLewis":10123,"Ġconsequences":10124,"Ġbringing":10125,"Ġloan":10126,"Ġsuppose":10127,"Ġdelete":10128,"Ġgenerating":10129,"Ġdiscussions":10130,"^*\\":10131,"urd":10132,"ĠSydney":10133,"Ġtechnologies":10134,"urches":10135,"utable":10136,"Ġquasi":10137,"Ġpercentage":10138,"Pres":10139,"reement":10140,"fram":10141,"Ġcapable":10142,"ĠTurk":10143,"ĠWindow":10144,"Ġdrugs":10145,"Ġbed":10146,"opes":10147,"Ġdiversity":10148,"Ġ}{":10149,"ĠAdam":10150,"ĠGeV":10151,"Ġfactory":10152,"Entity":10153,"BB":10154,"Ġprofiles":10155,"Ġsmart":10156,"andra":10157,"Ġconsideration":10158,"Ġpresents":10159,"aws":10160,"Ġrestricted":10161,"Ġdense":10162,"ĠDoug":10163,"Ġkeys":10164,")\"":10165,"Ġvulner":10166,"Ġstorm":10167,"!\\":10168,"ĠSant":10169,"Ġtitles":10170,"outs":10171,"DT":10172,"Ġrealized":10173,"1953":10174,"================================":10175,"ĠPerform":10176,"ĠGro":10177,"device":10178,"Ġcook":10179,"Ġdress":10180,"1954":10181,"Ġsubstit":10182,":=\\":10183,"Sk":10184,"Har":10185,"present":10186,"debug":10187,"Ġevaluated":10188,"Ġstrip":10189,"emet":10190,"ĠBush":10191,"akh":10192,"Ġecho":10193,"antry":10194,"Ġ,\\":10195,"Ġphases":10196,"ulating":10197,"children":10198,"quarters":10199,"Ġ\\,\\":10200,"Ġenforcement":10201,"Ġrestrictions":10202,"Ġstages":10203,"Ġcoupled":10204,"ĠCountry":10205,"ĠâĢ¢":10206,"Cap":10207,"Ġseeking":10208,"ĠBul":10209,"Ġdefines":10210,"Ġvacuum":10211,"Ġentertain":10212,"wave":10213,"Ġhalo":10214,"Ġpresc":10215,"Ġtight":10216,"oton":10217,"exist":10218,"ĠLady":10219,"double":10220,"Ġdominated":10221,"handle":10222,"ingham":10223,"Ġsculpt":10224,"Ġoperate":10225,"Ġinher":10226,"Ġcomfort":10227,"chain":10228,"mad":10229,"Ġduration":10230,"ipher":10231,"ĠApple":10232,"ĠTy":10233,"Ġroots":10234,"regon":10235,"Ġproducing":10236,"cow":10237,"Ðº":10238,"Ġvaccine":10239,"Ġinject":10240,"rave":10241,"Ġadvers":10242,"grade":10243,"ĠAtlantic":10244,"Ġwww":10245,"igenous":10246,"Author":10247,"ĠMiller":10248,"slant":10249,"Ġproperly":10250,"yal":10251,"Ġprivacy":10252,"Ġpermanent":10253,"Ġhierarch":10254,"Ġcref":10255,"uda":10256,"Ġdecide":10257,"Ġwaiting":10258,"Ġrespective":10259,"PRE":10260,"ULT":10261,"Ġprev":10262,"Ġrequests":10263,"Match":10264,"Ġgather":10265,"Ġparams":10266,"Films":10267,":#":10268,"Ġboundaries":10269,"Ġowners":10270,"Ġofficially":10271,"ships":10272,"ĠNE":10273,"msg":10274,"URE":10275,"Ġrapidly":10276,"BM":10277,"Ġflows":10278,"ĠWel":10279,"Ġapproval":10280,"Suppose":10281,"power":10282,"Ġlit":10283,"Bytes":10284,"ysical":10285,"ĠCommunic":10286,"ĠCommand":10287,"Ġban":10288,"ĠAnton":10289,"Ġperiods":10290,"Parent":10291,"ĠMemorial":10292,"Ġbanks":10293,"Ġintermediate":10294,"iday":10295,"mo":10296,"Ġindices":10297,"@{":10298,"Ġscores":10299,"Ġguess":10300,"Ġpayment":10301,"ĠKir":10302,"Ġfavorite":10303,"=.":10304,"Ġspac":10305,"1949":10306,"Ġdelivered":10307,"Ġdiscovery":10308,"Ġprecision":10309,"CI":10310,"ĠSat":10311,"Ġprompt":10312,"Ġbrings":10313,"Ġcourts":10314,"ĠFac":10315,"Ġnations":10316,"ĠTurn":10317,"ITY":10318,"Ġconcerning":10319,"Ġtrib":10320,"zech":10321,"Ġliquid":10322,"Ġreporting":10323,"Ġvess":10324,"Ġproportional":10325,"Ġcomplicated":10326,"quant":10327,"ĠResult":10328,"Ġperiodic":10329,"BP":10330,"styles":10331,"webkit":10332,"Ġsilver":10333,"instein":10334,"ĠBad":10335,"Ġcond":10336,"-(":10337,"Ġaudio":10338,"ĠAgency":10339,"Ġec":10340,"mazing":10341,"Ġsurg":10342,"ĠPolish":10343,"ĠComput":10344,"ĠJordan":10345,"Ġinstant":10346,"Ġdisappe":10347,"ĠLeb":10348,"night":10349,"GA":10350,"Ġstrings":10351,"oli":10352,"WA":10353,"domain":10354,"Ã£":10355,"]]":10356,"Ġrent":10357,"Const":10358,"andy":10359,"isson":10360,"isot":10361,"STATE":10362,"Ġorientation":10363,"Ġengaged":10364,"delete":10365,"interface":10366,"rig":10367,"Ġgate":10368,"ĠControl":10369,"aks":10370,"irty":10371,"Ġwouldn":10372,"radius":10373,"ĠMill":10374,"Ġmob":10375,"comment":10376,"Ġpromise":10377,"Ġvast":10378,"Ġstudying":10379,"Ġundert":10380,"Ġstronger":10381,"master":10382,"ĠObserv":10383,"Invalid":10384,"Assert":10385,"ANT":10386,"Ġvideos":10387,"Jo":10388,"channel":10389,"ĠDuke":10390,"BN":10391,"fall":10392,"Ġtriple":10393,"Ġincred":10394,"Ġbriefly":10395,"aste":10396,"Orig":10397,"Ġschol":10398,"ighth":10399,"Ġwinter":10400,"yers":10401,"Ġatoms":10402,"ogonal":10403,"ĠSon":10404,"Ġtargets":10405,"ORD":10406,"Ġsurve":10407,"ĠAL":10408,"\\%$":10409,"negative":10410,"Ġprohib":10411,"Ġworse":10412,"Ġcomplement":10413,"ĠSE":10414,"Christ":10415,"depth":10416,"CF":10417,"Ġperturbation":10418,"Ġabsorption":10419,"uma":10420,"Ġoutcome":10421,"ĠWisconsin":10422,"Helper":10423,"ĠShort":10424,"1951":10425,"Ġvariations":10426,"Ġposted":10427,"pto":10428,"ĠVen":10429,"ĠSa":10430,"ownt":10431,"Ġplas":10432,"Ġsubstantial":10433,"ĠVietnam":10434,"ĠCreek":10435,"Ġhotel":10436,"selected":10437,"Ġraw":10438,"Why":10439,"ĠRegion":10440,"tim":10441,"Ġattached":10442,"Reader":10443,"Ġappearances":10444,"Ġserial":10445,".\\\\":10446,"gressive":10447,"Ġlegend":10448,"ACE":10449,"ĠHo":10450,"ureau":10451,"medskip":10452,"gb":10453,"Ġnotable":10454,"Ġconsumer":10455,"ĠAD":10456,"ffff":10457,"Ġcompletion":10458,"callback":10459,"Ġcodes":10460,"was":10461,"Ġuncertainties":10462,"Ġstret":10463,"ĠStaff":10464,"Ġwavelength":10465,"Ġcontributed":10466,"Http":10467,"Ġpresidential":10468,"(-\\":10469,"Ġisot":10470,"Ġ}}":10471,"Ġlect":10472,"omatic":10473,"hd":10474,"Root":10475,"ĠOt":10476,"Ġwrap":10477,"\\!\\":10478,"ears":10479,"Ġparticipate":10480,"Ġadvent":10481,"Ġmountain":10482,"ĠMS":10483,"secutive":10484,"ĠAge":10485,"iative":10486,"fol":10487,"ĠSO":10488,"ĠLore":10489,"boldmath":10490,"ĠRest":10491,"Ġchampion":10492,"Ġscenes":10493,"%.":10494,"Ġproduces":10495,"Ġjoining":10496,"Ġaccommod":10497,"Has":10498,"ancell":10499,"Ġmock":10500,"ĠTai":10501,"Ġfoundation":10502,"rangian":10503,"Ġmusicians":10504,"ĠBru":10505,"ĠGolden":10506,"copy":10507,"Ġkin":10508,"backslash":10509,"ducible":10510,")^\\":10511,"hedral":10512,"Ġspoke":10513,"Ġnaturally":10514,"Ġeigenvalues":10515,"Ġpadding":10516,"constr":10517,"ĠConsider":10518,"Ġhabit":10519,"iang":10520,"Ġassessment":10521,"Ġmetrics":10522,"Session":10523,"ĠNetherlands":10524,"Ġtack":10525,"Ġcolour":10526,"Ġremote":10527,"Ġfaced":10528,"TER":10529,"Following":10530,"typeof":10531,"names":10532,"ĠRailway":10533,"boolean":10534,"Ġforth":10535,"ĠAP":10536,"Associ":10537,"ĠBudd":10538,"isa":10539,"bourne":10540,"Ġparliament":10541,"ellectual":10542,"Ġlens":10543,"itarian":10544,"Ġexplanation":10545,"ordon":10546,"ĠBrother":10547,"Ġdetector":10548,"ĠModern":10549,"cline":10550,"ĠDam":10551,"Ġconcentration":10552,"emetery":10553,"ĠLes":10554,"Core":10555,"unes":10556,"ĠArea":10557,"Ġped":10558,"Ġcharacterized":10559,"ĠDom":10560,"ĠMaryland":10561,"Ġcontinuum":10562,"store":10563,"Impl":10564,"ĠSign":10565,"Ġportray":10566,"Ġstored":10567,"Ġreward":10568,"ĠNOT":10569,"notag":10570,"Ġequivalence":10571,"Ġreduces":10572,"Xi":10573,"rac":10574,"Ġlose":10575,"Ġ('":10576,"About":10577,"ĠMilitary":10578,"address":10579,"Ġhosted":10580,"Ġadjacent":10581,")--(":10582,"equations":10583,"Ġemployee":10584,"Integer":10585,"Ġdollars":10586,"Ġbytes":10587,"Ġmel":10588,"ĠLiter":10589,"Ġbought":10590,"downarrow":10591,"exists":10592,"ĠRose":10593,"Ġgovernor":10594,"Ġdeploy":10595,"South":10596,"Doc":10597,"Ġsleep":10598,"Ġordinary":10599,"aware":10600,"High":10601,"Ġkilling":10602,"Ġconverted":10603,"phantom":10604,"Ġpurchased":10605,"coln":10606,"Ġexhibition":10607,"ĠLtd":10608,"Ġranked":10609,"Ġconversation":10610,"ĠHart":10611,"Ġstopped":10612,"ivals":10613,"Ġexplains":10614,"Ġscenarios":10615,"scriptscriptstyle":10616,"utenant":10617,"Ġlosses":10618,"Ġstochastic":10619,"Av":10620,"ĠArticle":10621,"Del":10622,"rase":10623,"ĠHoly":10624,"Ġwalls":10625,"ĠSoc":10626,"ĠOfficial":10627,"Ġsudden":10628,"Ġviewed":10629,"Lin":10630,"send":10631,"Ġsevent":10632,"ĠHollywood":10633,"ennessee":10634,"Ġyards":10635,"cohol":10636,"Ġelectrons":10637,"toString":10638,"ĠEs":10639,"Ġcourses":10640,"~(\\":10641,"osa":10642,"abet":10643,"replace":10644,"*\\":10645,"}\\|":10646,"Ġpromoted":10647,"tra":10648,"buf":10649,"Async":10650,"Ġdelivery":10651,"Ġmanage":10652,"Ġnormalized":10653,"Ġstone":10654,"Ġjuris":10655,"ĠOcean":10656,"vm":10657,"isition":10658,"AE":10659,"ĠCart":10660,"Ġbyte":10661,"Ga":10662,"Ã¡n":10663,"ĠBridge":10664,"Ġsituations":10665,"Ġstrategic":10666,"Ġresistance":10667,"ĠBall":10668,"Ġthin":10669,"`.":10670,"eron":10671,"plements":10672,"Ġamounts":10673,"Editor":10674,"Values":10675,"Vector":10676,"Ġdismiss":10677,"Ġprocedures":10678,"observ":10679,"ĠSaf":10680,"False":10681,"tor":10682,"square":10683,"ĠNumber":10684,"ĠAmong":10685,"ĠFord":10686,"Ġsimilarly":10687,"Ġdegener":10688,"700":10689,"Ġconfigurations":10690,"Cre":10691,"Ġwat":10692,"Bundle":10693,"$^":10694,"&#":10695,"ĠMoh":10696,"Ġregarded":10697,"British":10698,"arith":10699,"ĠTO":10700,"Title":10701,"Ġschedule":10702,"âĢĻ,":10703,"Ġassault":10704,"elease":10705,"Ġmal":10706,"Ġprecise":10707,"Ġshooting":10708,"Ġenabled":10709,"jecture":10710,".;":10711,"Pod":10712,"Ġconversion":10713,"oval":10714,"lat":10715,"don":10716,"ĠFood":10717,"Ġstraightforward":10718,"Ġsumm":10719,"Ġresc":10720,"!!":10721,"Ġmillions":10722,"Argument":10723,"Ġencoding":10724,"Ġfamiliar":10725,"igious":10726,"Ġentang":10727,"Ġsympt":10728,"Tim":10729,"oked":10730,"Ġ$\\{\\":10731,"essions":10732,"Ġcolle":10733,"Li":10734,"craft":10735,"Ġclock":10736,"olis":10737,"ĠEconomic":10738,"ĠConnect":10739,"Ġaccret":10740,"engers":10741,"Ġteen":10742,"posing":10743,"Ġguy":10744,"estamp":10745,"Ġhall":10746,"ulus":10747,"Ġast":10748,"comb":10749,"Serial":10750,"Ġdownload":10751,"Ġiteration":10752,"Ġmunicipal":10753,"Ġannot":10754,"Ġunsigned":10755,"Ġstores":10756,"Ġfitting":10757,"idance":10758,"ĠIndiana":10759,"Ġadults":10760,"Ġsystematic":10761,"Ġchose":10762,"ĠCR":10763,"Ġprovisions":10764,"Ġsubjects":10765,":</":10766,"ĠEu":10767,"Ġconcluded":10768,"hanced":10769,"Ġparticipated":10770,"Ġrisks":10771,"Ġdescribing":10772,"Ġhockey":10773,"Ġraces":10774,"Ġinstalled":10775,"^*(":10776,"1936":10777,"Cast":10778,"Also":10779,"oured":10780,"Ġdefinitions":10781,"Template":10782,"ĠTro":10783,"Rule":10784,"insic":10785,"Ġfestival":10786,"Ġheader":10787,"ĠAfghanistan":10788,"yard":10789,"keys":10790,"Mc":10791,"Ġ\"\\":10792,"Ġpremi":10793,"Ġsubsid":10794,"Ġ\"/":10795,"Ġhorizontal":10796,"ĠPu":10797,"ĠNFL":10798,"Ġpainting":10799,"Ġrefused":10800,"Ġ++":10801,"Ġpy":10802,"oust":10803,"Timeout":10804,"}{*":10805,"Ġaccused":10806,"Ġmoder":10807,"Ġpoverty":10808,"etary":10809,"ishment":10810,"ĠPlaces":10811,"ĠSingapore":10812,"uality":10813,"Ġreads":10814,"insert":10815,"Ġcenters":10816,"Ġelig":10817,"ĠAccess":10818,"ĠCost":10819,"layer":10820,"season":10821,"achment":10822,"late":10823,"ti":10824,"unny":10825,"Ġatomic":10826,"Global":10827,"LR":10828,"Ġseed":10829,"Ġpot":10830,"Ġtang":10831,"END":10832,"Just":10833,"fast":10834,"Ġlift":10835,"Ġstrictly":10836,"Ġswe":10837,"Ġcaught":10838,"1938":10839,"ĠStart":10840,"Ġexplos":10841,"ĠDisney":10842,"Ġexpectation":10843,"Sports":10844,"para":10845,"UP":10846,"Obj":10847,"UL":10848,"ircles":10849,"ĠBra":10850,"Every":10851,"Ġrows":10852,"enna":10853,"Ġcomprehensive":10854,"ĠOregon":10855,"ĠChannel":10856,"ĠText":10857,"eyn":10858,"ĠAnderson":10859,"Ġcontest":10860,"Ġvo":10861,"Ġargue":10862,"Ġvoting":10863,"imm":10864,"ĠStadium":10865,"ĠGallery":10866,"Ã£o":10867,"Ġinhab":10868,"Ġrein":10869,"ĠHarry":10870,"Ġputting":10871,"Ġreaching":10872,"Ġorbital":10873,"Ġsymbols":10874,"uties":10875,"eval":10876,"Ġdensities":10877,"Str":10878,"Ġdirectors":10879,"Ġ..":10880,"Ġwire":10881,"ĠDue":10882,"Ġexposure":10883,"vo":10884,"former":10885,"ĠPage":10886,"ICE":10887,"wall":10888,"ĠTransport":10889,"Ġphilosophy":10890,"Ġyourself":10891,"Ġlists":10892,"Ġdefeat":10893,"ĠLeon":10894,"Diff":10895,"ĠSoft":10896,"Ġhair":10897,"Ġdiscipl":10898,"uon":10899,"Ġweekend":10900,"ĠMP":10901,"textcolor":10902,"ĠComple":10903,"total":10904,"ublished":10905,"urable":10906,"framework":10907,"`,":10908,"Stack":10909,"Ġconventional":10910,"Ġpiano":10911,"tainment":10912,"Ġschemes":10913,"MF":10914,"ĠAT":10915,"ĠHas":10916,"ĠLow":10917,"Args":10918,"Ġneighb":10919,"through":10920,"=\"_":10921,"Ġstruggle":10922,"ÅĤ":10923,"ĠTR":10924,"Ġprospect":10925,"Ġconsecutive":10926,"iga":10927,"Device":10928,"Ġoffices":10929,"ĠSri":10930,"Ġillustrated":10931,"ĠConserv":10932,"Ġcustomer":10933,"ĠAmb":10934,"ĠRaj":10935,"Tags":10936,"Ġheavily":10937,"Ġcombat":10938,"ĠQueens":10939,"Ġfaces":10940,"ifiers":10941,"Ġbits":10942,"verage":10943,"ĠHal":10944,"ĠAz":10945,"tenance":10946,"mean":10947,"conduct":10948,"network":10949,"Ġidentification":10950,"Ġdangerous":10951,"Ġsimultaneously":10952,"Ġcollective":10953,"Ġreaders":10954,"Ġjournalist":10955,"ificial":10956,"uparrow":10957,"Ġmedicine":10958,"ĠUkraine":10959,"Ġsolving":10960,"peror":10961,"riers":10962,"Ġcircuit":10963,"ĠBiden":10964,"utr":10965,"ĠCollection":10966,"ika":10967,"Ġdict":10968,"Ġreducing":10969,"Ġproud":10970,"Ġbelongs":10971,"Ġwing":10972,"Ġfasc":10973,"ĠURL":10974,"structure":10975,"Found":10976,"aza":10977,"aron":10978,"Ġparagraph":10979,"ĠSC":10980,"auth":10981,"Ġretail":10982,"overset":10983,"Ġtopics":10984,"elle":10985,"Ġbow":10986,"Ġillegal":10987,"sample":10988,"Ġtransitions":10989,"Cref":10990,"ĠGib":10991,"Ġpanels":10992,"Ġnice":10993,"estion":10994,"offs":10995,"Ġuniversities":10996,"Ġwrites":10997,"ipe":10998,"Ġinvestigated":10999,"wiki":11000,"ĠSimilarly":11001,"ĠWhere":11002,"zy":11003,"stackrel":11004,"Click":11005,"Loc":11006,"Ġmodeling":11007,"ĠSurvey":11008,"Ġfrequencies":11009,"issip":11010,"Ġpilot":11011,"idal":11012,"Ġsuppor":11013,"Ġconservative":11014,"Ġusage":11015,"Ġbelieves":11016,"Ġvariant":11017,"ĠHop":11018,"ĠTH":11019,"ĠSupport":11020,"130":11021,"tz":11022,"Ġlogic":11023,"Ġstrike":11024,"CTION":11025,"artifact":11026,"connection":11027,"propto":11028,"_->":11029,"click":11030,"Ġmechanisms":11031,"uting":11032,"ologists":11033,"category":11034,"Ġdisplayed":11035,"iley":11036,"$.}":11037,"Ġattempted":11038,"apply":11039,"Music":11040,"Ġevening":11041,"wrap":11042,"leges":11043,"Ġnovels":11044,"bec":11045,"Ġcollapse":11046,"Ġuniformly":11047,"Ġtransparent":11048,"Ġsuit":11049,"ĠNative":11050,"Ġwins":11051,"ĠIl":11052,"Ġrestriction":11053,"erving":11054,"$^{":11055,"Ġasking":11056,"ĠFinal":11057,"security":11058,"Background":11059,"?\"":11060,"abama":11061,"ĠSweden":11062,"Ġpolarization":11063,"Ġoccupied":11064,"1937":11065,"conc":11066,"ĠMatt":11067,"Ġ(*":11068,"parallel":11069,"session":11070,"Ġsurprising":11071,"Ġanalys":11072,"Ġbroke":11073,"Ġdiffusion":11074,"invariant":11075,"ĠSN":11076,"\"`":11077,"Ġcolors":11078,"SF":11079,"ancel":11080,"herical":11081,"region":11082,"ĠRoss":11083,"Ġbrothers":11084,"ĠBuilding":11085,"ĠMean":11086,"corollary":11087,"Ġspan":11088,"owski":11089,"|$":11090,"Ġatmosphere":11091,"Application":11092,"Ġfootballer":11093,"Ġexpensive":11094,"ĠCapital":11095,"Flo":11096,"Ġmembership":11097,"Ġsurfaces":11098,"ĠHouston":11099,"Ġtheatre":11100,"Ġpuls":11101,"irth":11102,"Ġkinds":11103,"âĢ¢":11104,"wealth":11105,"equals":11106,"|^{":11107,"Ġvarying":11108,"Ġstreets":11109,"utation":11110,"Descriptor":11111,"Ġselling":11112,"ĠMexican":11113,"ĠThose":11114,"Ġtowns":11115,"1917":11116,"ĠNick":11117,"Ġcausing":11118,"connected":11119,"Ġsynthes":11120,"ĠBrian":11121,"ĠMagazine":11122,"ĠSenior":11123,"ĠKr":11124,"ĠArthur":11125,"ĠProb":11126,"ĠMissouri":11127,"!]":11128,"zone":11129,"Ġlawyer":11130,"1900":11131,"Ġdefinitely":11132,"ĠLem":11133,"ĠKnow":11134,"ĠSuppose":11135,"Ġsight":11136,"Ġprovider":11137,"adi":11138,"Writer":11139,"Ġelli":11140,"wait":11141,"ĠĠĠĠĠĠĠĠĠĠĠĠĠĠĠĠĠĠĠĠĠĠĠĠĠ":11142,"Ġdesignated":11143,"ĠWinter":11144,"Ġmanufacturing":11145,"fix":11146,"Best":11147,"ĠDigital":11148,">.":11149,"TEST":11150,"ĠStandard":11151,"Austral":11152,"agen":11153,"states":11154,"Ms":11155,"Ø§":11156,"Ġaccordance":11157,"Ġmoral":11158,"Ġmaintained":11159,"Ġ[];":11160,"grav":11161,"Ġconjug":11162,"ĠBan":11163,"ĠÅ":11164,"isations":11165,"(:":11166,"modules":11167,"ĠBrig":11168,"ynamics":11169,"Ġelem":11170,"uid":11171,"lie":11172,"Ġpartially":11173,"David":11174,"Star":11175,"ĠTask":11176,"ugins":11177,"Ġsoul":11178,"Ġindicating":11179,"Ġhospit":11180,"pur":11181,"ĠFourier":11182,"Ġfacing":11183,"ITE":11184,"ronze":11185,"ĠDor":11186,"ĠCulture":11187,"Ġqualified":11188,"Ġexport":11189,"Ġdistricts":11190,"GET":11191,"cross":11192,"outheast":11193,"Ġgenerator":11194,"iami":11195,"finite":11196,"Previous":11197,"ĠTennessee":11198,"Ġquot":11199,"Ġcreates":11200,"phy":11201,"Ġcancel":11202,"ikip":11203,"ĠCooper":11204,"imit":11205,"Menu":11206,"oyd":11207,"uble":11208,"Her":11209,"Arch":11210,"ĠIowa":11211,"ĠĠĠĠĠĠĠĠĠĠĠĠĠĠĠĠĠĠĠĠĠĠ":11212,"ERS":11213,"Ġvalidation":11214,"vironments":11215,"ĠAttorney":11216,"Ġdates":11217,"Ġinternet":11218,"Ġtrig":11219,"oped":11220,"ĠCommun":11221,"Ġcollision":11222,"Ġwatching":11223,"changed":11224,"Ġseats":11225,"Ġneutrino":11226,"Ġbehalf":11227,"Ġcricket":11228,"ĠKat":11229,"audi":11230,"mony":11231,"sql":11232,"ĠIndones":11233,"ourse":11234,"Ġsand":11235,"Ġdim":11236,"Ġgeometric":11237,"HR":11238,"orient":11239,"Ġvoters":11240,"Ġroyal":11241,"limit":11242,"ĠGer":11243,"ĠNorm":11244,"inema":11245,"Ġparticipation":11246,"EXT":11247,"%;":11248,"Ġ['":11249,"ĠGreg":11250,"Ġformulation":11251,"mathtt":11252,"ĠDemocrats":11253,"Ġresolve":11254,"&=&\\":11255,"Ġmeetings":11256,"ĠSyria":11257,"Num":11258,"âĢĻ.":11259,"Ġlandscape":11260,"tection":11261,"establ":11262,"Delete":11263,"Ġaccessible":11264,"Det":11265,"Use":11266,"sa":11267,"Ġpenalty":11268,"Ġregularly":11269,"Ġ<=":11270,"support":11271,"hfill":11272,"Ġimpress":11273,"Ġglob":11274,"oggle":11275,"je":11276,"Ġcenturies":11277,"uz":11278,"ĠFa":11279,"Ġdealing":11280,"ĠCaptain":11281,"ĠPremier":11282,"area":11283,"bad":11284,"Ġsensitivity":11285,"footnotes":11286,"ermi":11287,"Ġguest":11288,"'],":11289,"Ġpasses":11290,"ĠLink":11291,"Ġhandler":11292,"ropolitan":11293,"FE":11294,"Hom":11295,"words":11296,"ĠIT":11297,"Pack":11298,"Scope":11299,"Ġplate":11300,"Ġhybrid":11301,"ĠBalt":11302,"Ġconsumption":11303,"Ġdecreases":11304,"Ġcarrying":11305,"Ġsees":11306,"Ġhaven":11307,"ĠTony":11308,"Ġok":11309,"Ġdistances":11310,"Rightarrow":11311,"iamond":11312,"vc":11313,"Ġsphere":11314,"Ġcomposer":11315,"Ġlisting":11316,"Ä±":11317,"ĠLank":11318,"Own":11319,"ĠAdditionally":11320,"ĠMoscow":11321,"Ġcomparable":11322,"Ant":11323,"Ġisolated":11324,"Ġexecuted":11325,"ikipedia":11326,"Ġcrossing":11327,"$\\,":11328,"Ġcab":11329,"1919":11330,"ĠDM":11331,"Ġexhibit":11332,"enda":11333,")}.":11334,"ĠScient":11335,"Ġsignificance":11336,"original":11337,"Ġmunicipality":11338,"ĠBarn":11339,")}(\\":11340,"ĠDark":11341,"Ġfranch":11342,"vance":11343,"Ġderivatives":11344,"Ġhun":11345,"Ġdiagrams":11346,"ĠArk":11347,"Ġplatforms":11348,"Ġpresentation":11349,"Ġmodules":11350,"Ġhomogeneous":11351,"ĠSky":11352,"Ġassembly":11353,"Ġlyr":11354,"Ġpermission":11355,"lass":11356,"ĠLegisl":11357,"Ġteach":11358,"Bas":11359,"ĠCurrent":11360,"ĠDefense":11361,"Ġaims":11362,"gp":11363,"{(\\":11364,"Ġrejected":11365,"ĠColon":11366,"textup":11367,"Rect":11368,"roit":11369,"Ġneighbour":11370,"Ġdesire":11371,"GM":11372,"Ġprotest":11373,"edding":11374,"}/\\":11375,"1914":11376,"115":11377,"112":11378,"GeV":11379,"Ġrelief":11380,"ĠRegiment":11381,"Ang":11382,"widget":11383,"Ġmetall":11384,"Ġhouseholds":11385,"ĠÂ»":11386,"different":11387,"Ġtitled":11388,"Ġfits":11389,"Ġenemy":11390,"Ġ_{\\":11391,")(\\":11392,"TIM":11393,"Ġestablishment":11394,"Ġdispersion":11395,"Ġwinners":11396,"ĠImage":11397,"ĠHarris":11398,"ails":11399,"Ġcontinuing":11400,"ĠAlf":11401,"upl":11402,"olid":11403,"Ġdepict":11404,"ĠSimon":11405,"Ġchairman":11406,"footnotesize":11407,"Ġcod":11408,"making":11409,"Ġhorse":11410,"'_{":11411,"Tube":11412,"aired":11413,"ĠÂ§":11414,"asty":11415,"Ġboys":11416,"Ġchair":11417,"owered":11418,"ipart":11419,"ĠGreece":11420,"ickets":11421,"ju":11422,"Ġrender":11423,"uscript":11424,"stan":11425,"exception":11426,"Ġoldest":11427,"umps":11428,"Ġobst":11429,"ĠHan":11430,"Full":11431,"some":11432,"ĠNig":11433,"Ġcompetitive":11434,"Ġgar":11435,"settings":11436,"Ġproposition":11437,"SSERT":11438,"density":11439,"Ġtopology":11440,"apshot":11441,"ĠCru":11442,"Storage":11443,"Ġdecor":11444,"1933":11445,"erion":11446,"Ġentreprene":11447,"Ġdeviation":11448,"ĠLincoln":11449,"osed":11450,"custom":11451,"ĠRoll":11452,"ples":11453,"Lo":11454,"flat":11455,"Network":11456,"Ġmurd":11457,"Ben":11458,"ĠPut":11459,"Ġworker":11460,"lan":11461,"Ġinvited":11462,"nabled":11463,"rategy":11464,"SV":11465,"sep":11466,"Ġhits":11467,"Ġwa":11468,"Ġunus":11469,"gather":11470,"Ġrequested":11471,"Boolean":11472,"Ġgrown":11473,"ĠDer":11474,"Stud":11475,"ĠDiego":11476,"ibl":11477,"ĠLabour":11478,"Ġlaid":11479,"Ġmit":11480,"ĠMit":11481,"cb":11482,"Ġdemocracy":11483,"ĠPitt":11484,"cules":11485,"ativistic":11486,"ĠMountain":11487,"Ġbutton":11488,"Ġinvestors":11489,"ĠTerm":11490,"conv":11491,"weg":11492,"Ġpublisher":11493,"ĠFinancial":11494,"who":11495,"}^{+":11496,"ĠTreat":11497,"larg":11498,"Ġkil":11499,"ĠChap":11500,"random":11501,"phase":11502,"Opt":11503,"Ġexpat":11504,"UC":11505,"uploads":11506,"ĠProcess":11507,"International":11508,"Tab":11509,"Ġcontroller":11510,"1935":11511,"Ġrevers":11512,"SET":11513,"Ġinflation":11514,"allet":11515,"romagnetic":11516,"docs":11517,"Ġdip":11518,"Ġguarantee":11519,"Ġclassified":11520,"Ġadapted":11521,"Ġuniqu":11522,"ichol":11523,"Ġdelet":11524,"Ġburied":11525,"ĠMaria":11526,"ĠMoore":11527,"Security":11528,"Ġcounterpart":11529,"Ġscr":11530,"ĠĠĠĠĠĠĠĠĠĠĠĠĠĠĠĠĠĠĠĠĠĠĠĠ":11531,"Because":11532,"Ġstructural":11533,"ĠJane":11534,"Ġinputs":11535,"COLOR":11536,"leftarrow":11537,"lower":11538,"Metadata":11539,"Ġquadratic":11540,"orous":11541,"igate":11542,"spin":11543,"Queue":11544,"William":11545,"ĠKennedy":11546,"plugin":11547,"Ġanalytic":11548,"Ġcreat":11549,"Ġpriority":11550,"Param":11551,"Ġdecline":11552,"Ġenjoyed":11553,"Ġconcrete":11554,"properties":11555,"cers":11556,"rolling":11557,"ĠGh":11558,"Ġaged":11559,"ahoma":11560,"_,":11561,"HECK":11562,"Ġamazing":11563,"Ġhonest":11564,"ĠFuture":11565,"ĠPhilip":11566,"Ġtemporal":11567,"disabled":11568,"wt":11569,"Ġmanip":11570,"Ġstabil":11571,"Ġsubmitted":11572,"ĠAh":11573,"ĠCab":11574,"ques":11575,"ATH":11576,"Ġinnovation":11577,"ĠBG":11578,"----------------------------------------------------------------":11579,"gov":11580,"umul":11581,"ĠPhot":11582,"$'":11583,"Leg":11584,"tion":11585,"Ġconcepts":11586,"105":11587,"ĠEric":11588,"ĠRa":11589,"Ġfib":11590,"mag":11591,"ĠBureau":11592,"Ġemotional":11593,"Ġcaptain":11594,"ĠBishop":11595,"written":11596,"ĠNa":11597,"Äį":11598,"Ġabsolutely":11599,"MI":11600,"Ġassociate":11601,"important":11602,"Ġemissions":11603,"ailing":11604,"Ġanalyze":11605,"Ġinstanceof":11606,"Ġratios":11607,"ĠAllen":11608,"Aug":11609,"Ġscoring":11610,"overs":11611,"icut":11612,"ĠKal":11613,"Ġdepos":11614,"ĠSix":11615,"Ġgiant":11616,"Ġhealthcare":11617,"ĠMarine":11618,"Ġminute":11619,"}$\\":11620,"Ġcrimes":11621,"pair":11622,"ĠClinton":11623,"ocker":11624,"Ġourselves":11625,"ĠML":11626,"Ġownership":11627,"Ġprepare":11628,"ĠSwedish":11629,"ĠBatt":11630,"uby":11631,"Ġensemble":11632,"Ġdisorder":11633,"ĠStone":11634,"owed":11635,"wick":11636,"Ġ---":11637,"Ġarmed":11638,"hang":11639,"Ġappend":11640,"ĠDoctor":11641,"heric":11642,"Ġturning":11643,"Ġgrounds":11644,"Alex":11645,"look":11646,"Ġparam":11647,"Tra":11648,"Ã©e":11649,"HD":11650,"ĠIndex":11651,"'))":11652,"ĠSav":11653,"particle":11654,"Ġappearing":11655,"Mich":11656,"series":11657,"ĠEntertainment":11658,"ĠBor":11659,"Ġcuts":11660,"ĠHarvard":11661,"dash":11662,"Media":11663,"Ġtruck":11664,"ĠĠĠĠĠĠĊ":11665,"Ġrely":11666,"Ġresidual":11667,"Custom":11668,"Ġcorrelations":11669,"ĠPhilippines":11670,"1929":11671,"Ġdefining":11672,"specific":11673,"Ġtrajectory":11674,"Ġbatter":11675,"=\"../../../../../":11676,"140":11677,"Ġvaluable":11678,"Ġretirement":11679,"ĠCastle":11680,"zo":11681,"*}[":11682,"1934":11683,"ĠSeason":11684,"Ġobviously":11685,"eland":11686,"Ġtalks":11687,"Ġinvalid":11688,"Ġaccompan":11689,"Ġwhenever":11690,"ND":11691,"ĠTen":11692,"ĠMrs":11693,"Ġairport":11694,"ilty":11695,"Ġreconstruction":11696,"Ġracial":11697,"ĠBible":11698,"Ġsounds":11699,"auto":11700,"margin":11701,"idelines":11702,"Ġviolation":11703,"NT":11704,"Ġdestination":11705,"ivation":11706,"ĠPath":11707,"Ġprotein":11708,"ĠFront":11709,"ĠJam":11710,"Video":11711,"ĠGuide":11712,"Ġlimitations":11713,"Ġcounts":11714,"ĠMedal":11715,"single":11716,"atar":11717,"Ġaddressed":11718,"ailure":11719,"ĠThird":11720,"thew":11721,"initial":11722,"Ġpregn":11723,"isen":11724,"ĠOs":11725,"Ġproven":11726,"Ġcompatible":11727,"Ġcoronavirus":11728,"ĉĠĠĠĠ":11729,"Ġgene":11730,"fact":11731,"env":11732,"Ġvisitors":11733,"Ġvoted":11734,"ĠCNN":11735,"________":11736,"Ġengineer":11737,"Ġadmitted":11738,"ĠSquare":11739,"Ġbaseline":11740,"Ġinfluenced":11741,"aire":11742,"ĠassertEquals":11743,"ĠMonte":11744,"imits":11745,"Ġtemporary":11746,"Ġkick":11747,"Ġconvenient":11748,"Byte":11749,"tah":11750,"Ġshel":11751,"Enabled":11752,"Ġtelling":11753,"quir":11754,"Span":11755,"ODO":11756,"Parser":11757,"ĠDeath":11758,"ĠPC":11759,"Ġpublicly":11760,"Ġupdates":11761,"Ġyellow":11762,"Den":11763,"Polit":11764,"ĠIO":11765,"Ġfought":11766,"Ġmanagers":11767,"Ġvocal":11768,"Ġrelating":11769,"elson":11770,"Ġinline":11771,"Ġarrival":11772,"ĠAlabama":11773,"Ġguys":11774,"ĠMoon":11775,"ĠBlock":11776,"Ġlikelihood":11777,"Ġillness":11778,"Ġtransverse":11779,"urric":11780,"Ġanniversary":11781,"heet":11782,"mf":11783,"elve":11784,"Ġbrowser":11785,"bean":11786,"ramework":11787,"Ġforg":11788,"{|":11789,"ĠCzech":11790,"fire":11791,"inds":11792,"likely":11793,"oking":11794,"Constr":11795,"Even":11796,"Black":11797,"Ġfocuses":11798,"Ġtransformations":11799,"ĠVari":11800,"Ġmilit":11801,"ĠBat":11802,"Ġsettled":11803,"tex":11804,"nod":11805,"ĠPier":11806,"Ġcritics":11807,"western":11808,"Ġdiscret":11809,"Ġfalls":11810,"ĠRyan":11811,"sem":11812,"Events":11813,"Ġdefect":11814,"Ñĥ":11815,"Ġjudgment":11816,"ĠNev":11817,"ĠTrade":11818,"itzerland":11819,"odge":11820,"Ġdetermination":11821,"Ġoblig":11822,"Ġliterary":11823,"closure":11824,"ĠFederation":11825,"cloud":11826,"Ġ(âĢľ":11827,"Ġfeels":11828,"Ġreplacing":11829,"Ġapparently":11830,"Ġaccretion":11831,"Dialog":11832,"iders":11833,"Ġcub":11834,"Ġtrav":11835,"Ġdirectory":11836,"Ġalgebraic":11837,"ĠPsych":11838,"ĠRecord":11839,"Member":11840,"ĠDaily":11841,"Ġnegoti":11842,"Ġruled":11843,"Ġ})":11844,"Oct":11845,"ĠPatrick":11846,"ĠUV":11847,"ĠDiff":11848,"Ġhorizon":11849,"ĠMalays":11850,"obuf":11851,"ĠJSON":11852,"Ġrecommended":11853,"_{+":11854,"ĠRegional":11855,"Ġsolved":11856,"111":11857,"artifactId":11858,"Ġrecognize":11859,"elian":11860,"JS":11861,"Ġcompliance":11862,"ĠHeart":11863,"padding":11864,"Pattern":11865,"ĠPR":11866,"ĠAthlet":11867,"ĠDefinition":11868,"yes":11869,"Ġwarning":11870,"ĠReb":11871,"Ġtalent":11872,"screen":11873,"Ġcommunications":11874,"Ġweighted":11875,"allas":11876,"Ġindependently":11877,"pot":11878,"West":11879,"Draw":11880,"Ġexports":11881,"Database":11882,"Ġdt":11883,"admin":11884,"Ġdrivers":11885,"Ġguidance":11886,"osl":11887,"news":11888,"ouses":11889,"anga":11890,"ĠPA":11891,"Ġbenchmark":11892,"Graph":11893,"inline":11894,"ĠPeace":11895,"GBT":11896,"1910":11897,"ĠProt":11898,"Ġfails":11899,"obby":11900,"Ġastr":11901,"Ġirreducible":11902,"ĠDream":11903,"Ġoutcomes":11904,"Ġanticip":11905,"Ġrising":11906,"klahoma":11907,"Ġinvolve":11908,"Ġmil":11909,")>":11910,"ĠSab":11911,"Ġda":11912,"ĠGrad":11913,"Ġtypeof":11914,"gments":11915,"patch":11916,"adian":11917,"month":11918,"Ġstim":11919,"ĠTemple":11920,"}.}":11921,"ĠVersion":11922,"Ġentertainment":11923,"ĠWindows":11924,"Ġhealthy":11925,"ĠMarc":11926,"Ġruling":11927,"ĠAGN":11928,"requency":11929,"Ġsuffering":11930,"aneous":11931,"Ġaug":11932,"Ġauthent":11933,"ĠManchester":11934,"ĠTokyo":11935,"erset":11936,"graduate":11937,"Rest":11938,"ĠRoy":11939,"Ġfewer":11940,"Display":11941,"spring":11942,"ĠNav":11943,"Ġreflection":11944,"Ġextracted":11945,"ipped":11946,"GO":11947,"thick":11948,"Ġshortly":11949,"FM":11950,"\\,{\\":11951,"Ġregardless":11952,"respect":11953,"ĠChange":11954,"Ġformul":11955,"Book":11956,"Ġorthogonal":11957,"may":11958,"lined":11959,"Ġsymptoms":11960,"owntown":11961,"Where":11962,"Ġpolynomials":11963,"Ġsustainable":11964,"tensor":11965,"onymous":11966,"ĠUser":11967,"Ġqueue":11968,")_{\\":11969,"adoop":11970,"chant":11971,"Ġbinding":11972,"Send":11973,"Ġcompeted":11974,"sis":11975,"hire":11976,"elegate":11977,"smallskip":11978,"Ġos":11979,"Ġdiffer":11980,"ois":11981,"simple":11982,"omy":11983,"Ġconvolution":11984,"Active":11985,"cam":11986,"ĠLagrangian":11987,"alion":11988,"angel":11989,"Ġembedded":11990,"ĠHoward":11991,"Ġdistinguish":11992,"Ġtower":11993,"appoint":11994,"ĠKentucky":11995,"Ġneglig":11996,"Ġfinance":11997,"oes":11998,"Ġrear":11999,"Sem":12000,"ĠPot":12001,"lights":12002,"overnment":12003,"ĠNob":12004,"ante":12005,"ulum":12006,"Ġstake":12007,"ĠRow":12008,"Ġrobot":12009,"cha":12010,"dam":12011,"ername":12012,"ï¿½ï¿½":12013,"gar":12014,"mask":12015,"Ġcooperation":12016,"fficial":12017,"ĠRoute":12018,"Ġphotos":12019,"Ġnarrative":12020,"olds":12021,"Mock":12022,"Ġdrawing":12023,"stud":12024,"ĠMun":12025,"Ġinitiative":12026,"about":12027,"ĠDick":12028,"$\\\\":12029,"ĠJoh":12030,"ĠDNA":12031,"Ġrealize":12032,"Ġarise":12033,"iemann":12034,"Ġchap":12035,"Ġtab":12036,"ĠArchitect":12037,"Ġenvironments":12038,"Ġnominated":12039,"ĠAuthority":12040,"Ġceremony":12041,"profile":12042,"pons":12043,"Ġslope":12044,"Ġsending":12045,"Ġphenomenon":12046,"Ġthousand":12047,"ĠCustom":12048,"Ġsharp":12049,")&":12050,"})^{":12051,"Ġsynchron":12052,"inth":12053,"ĠDat":12054,"Ġstood":12055,"Ġequally":12056,"Ġreplacement":12057,"Ġexposed":12058,"Common":12059,"ĠLib":12060,"Extension":12061,"Ġtrigger":12062,"events":12063,"Ġfunc":12064,"Ġintellectual":12065,"Ġful":12066,"VE":12067,"Ġsin":12068,"Ġinstruments":12069,".$$":12070,"Ġencourage":12071,"lu":12072,"ĠMC":12073,"arner":12074,"////////////////////////////////":12075,"Show":12076,"Ġexamine":12077,"Ġgift":12078,"Ġphotons":12079,"Ġintention":12080,"Ġentering":12081,"iah":12082,"ĠCP":12083,"Ġrandomly":12084,"Ġclosure":12085,"hover":12086,"Ġinvent":12087,")\">":12088,"Ġfly":12089,"Ġresonance":12090,"Ġpseudo":12091,"Func":12092,"Euro":12093,"roc":12094,"period":12095,"correspond":12096,"1932":12097,"ĠGram":12098,"Ġholes":12099,"Ġconsiderable":12100,"Ġcounsel":12101,"Ġtotally":12102,"ĠMarket":12103,"Ġfermion":12104,"ailability":12105,"eeper":12106,"expect":12107,"nm":12108,"nol":12109,"Ġsatellite":12110,"Fields":12111,"ambig":12112,"Ġmine":12113,"Ġtransportation":12114,"Ġimproving":12115,"oven":12116,"Ġreverse":12117,"Ġpublications":12118,"Ġpixel":12119,"Ġfairly":12120,"Ġbars":12121,"ĠDead":12122,"Ġtrading":12123,"vy":12124,"ĠYet":12125,"lee":12126,"incial":12127,"Ġsons":12128,"issippi":12129,"Ġdomains":12130,"IX":12131,"Ġsimplicity":12132,"Ġpra":12133,"none":12134,"Ġsimulated":12135,"Ġentities":12136,"between":12137,"arry":12138,"rev":12139,"aro":12140,"Ġframes":12141,"ĠBry":12142,"ĠEmer":12143,"ĠAnthony":12144,"role":12145,"&&\\":12146,"Ġcomparing":12147,"Ġdil":12148,"burn":12149,"door":12150,"Ġgrade":12151,"sumer":12152,"Ã¢":12153,"Pool":12154,"Ġpione":12155,"Ġignore":12156,"Ġcraft":12157,"Ġturbul":12158,"Ġreliable":12159,"\\|_":12160,"ĠContin":12161,"Ġexit":12162,"Ġinterpreted":12163,"bc":12164,"Ġadds":12165,"moment":12166,"ĠDefault":12167,"Ġelementary":12168,"ceil":12169,"Ġ\\|\\":12170,"Ġ\\[":12171,"Ġ$^{":12172,"varrho":12173,"ĠDO":12174,"Ġdry":12175,"ĠCook":12176,"Ġimposed":12177,"Ġsixth":12178,"Ġclick":12179,"modal":12180,"Ã¸":12181,"ĠJay":12182,"ĠMiami":12183,">();":12184,"Ġskin":12185,"export":12186,"Ġmovements":12187,"Ġalcohol":12188,"ĠAS":12189,"ĠAst":12190,"Fix":12191,"ĠYes":12192,"pin":12193,"1928":12194,"ä¸":12195,"problem":12196,"Ġ'/":12197,"agu":12198,"Ġinstruct":12199,"ĠWol":12200,"ĠEarly":12201,"ETH":12202,"Ham":12203,"Ġconfident":12204,"Ġgreatly":12205,"Ġfragment":12206,"eping":12207,"=\\{":12208,"ĠChairman":12209,"orest":12210,"ĠBah":12211,"ĠJenn":12212,"'>":12213,"olly":12214,"ateral":12215,"lm":12216,"empl":12217,"Ġfounding":12218,"+$":12219,"via":12220,"ĠAI":12221,"ĠAlbert":12222,"ĠNatural":12223,"Ġranges":12224,"Based":12225,"Ġformally":12226,"application":12227,"ĠPhoto":12228,"Ġracing":12229,"uits":12230,"separ":12231,"Ġinformed":12232,"ĠHTML":12233,"ĠSerb":12234,"unsigned":12235,"Selector":12236,"Ġresponses":12237,"iest":12238,"Space":12239,"Women":12240,"Ġflo":12241,"Ġreveals":12242,"sym":12243,"Ġtrials":12244,"enez":12245,"abric":12246,"PYG":12247,"ĠForces":12248,"Ġparish":12249,"groupId":12250,"ĠBuck":12251,"Ġsnow":12252,"constant":12253,"WR":12254,"Ġconvention":12255,"items":12256,"Ġabundance":12257,"wich":12258,"issue":12259,"Ġmeta":12260,"Ġbigger":12261,"ĠBos":12262,"Ġequipped":12263,"{.":12264,"ardo":12265,"ĠOnline":12266,"Exec":12267,"Ġcircular":12268,"Ġinjured":12269,"ĠHMS":12270,"ĠFall":12271,"inear":12272,"Ġepoch":12273,"ĠProp":12274,"Ġfault":12275,"Ġslowly":12276,"uts":12277,"elfare":12278,"ĠBurn":12279,"acon":12280,"ĠConvention":12281,"1915":12282,"atorial":12283,"ĠTa":12284,"ieval":12285,"SY":12286,"Ġconsent":12287,"Copy":12288,"]^":12289,"Channel":12290,"Ġliberal":12291,"Ġdrag":12292,"ĠOrganization":12293,"folio":12294,"yg":12295,"binom":12296,"Sur":12297,"lad":12298,")))":12299,"Ġtaxes":12300,"hus":12301,"Ġdenied":12302,"Ġkinetic":12303,"Ġplasma":12304,"ĠEc":12305,"Float":12306,"XT":12307,"Ġsuspend":12308,"Ġdifficulty":12309,"ĠMake":12310,"comput":12311,"usalem":12312,"Ġdiseases":12313,"Ġfiber":12314,"Ġfolk":12315,"erk":12316,"EP":12317,"FILE":12318,"Ġawareness":12319,"ĠLas":12320,"Ġresolved":12321,"ĠSquad":12322,"ĠJava":12323,"Ġreputation":12324,"equate":12325,"Ġancest":12326,"bd":12327,"imore":12328,"Bel":12329,"ĠGard":12330,"Ġlegit":12331,"ĠKevin":12332,"Ġsurgery":12333,"Ġcorrectly":12334,"Lock":12335,"Ġfat":12336,"Ġspiritual":12337,"props":12338,"viously":12339,"heim":12340,"Ġnurs":12341,"Once":12342,"Ġles":12343,"Ġelectro":12344,"being":12345,"ĠAlice":12346,"2023":12347,"Ġterr":12348,"ando":12349,"Ġwithdraw":12350,"Ġethnic":12351,"Ġhappening":12352,"Ġacid":12353,"Ġadaptation":12354,"Ġradical":12355,"Ġevident":12356,"game":12357,"iscal":12358,"Ġempirical":12359,"ĠTax":12360,"Ġintervals":12361,"oca":12362,"ĠYouTube":12363,"Ġinduction":12364,"\\},":12365,"[$":12366,"ilst":12367,"imated":12368,"Ġmerely":12369,"Ġconfront":12370,"Ġchurches":12371,"ROM":12372,"Ġgod":12373,"ĠSarah":12374,"1922":12375,".__":12376,"Ġbranches":12377,"sheet":12378,"Ġsitting":12379,"Ġroof":12380,"UD":12381,"Ġsubspace":12382,"Ġchiral":12383,"Ġmarginal":12384,"rett":12385,"Ġheads":12386,"ĠCit":12387,"Ġ~\\":12388,"ĠBeng":12389,"Ġprivile":12390,"ĠSystems":12391,"attribute":12392,"ĠSound":12393,"StyleID":12394,"Ġregression":12395,"Msg":12396,"Flags":12397,"Ġbare":12398,"Ġbid":12399,"isons":12400,"Ġ\"\"":12401,"Ġrepresentatives":12402,"Ġpoetry":12403,"Ġchildhood":12404,"Ġdesigns":12405,"counter":12406,"Est":12407,"anes":12408,"ĠChall":12409,"alities":12410,"ĠFull":12411,"ĠEP":12412,"}{{\\":12413,"register":12414,"Ġconsumers":12415,"ĠAtlanta":12416,"1927":12417,"Ġatom":12418,"102":12419,"iat":12420,"ĠPay":12421,"Ġbatch":12422,"frag":12423,"ĠHawai":12424,"Debug":12425,"uity":12426,"Ġsteady":12427,"assum":12428,"wegian":12429,"Ġcorrespondence":12430,"Ġmonitoring":12431,"move":12432,"ĠHilbert":12433,"Ġpup":12434,"Ġpreferred":12435,"ARY":12436,"Ġcopyright":12437,"ĠJudge":12438,"iÄĩ":12439,"Ġregistration":12440,"gradient":12441,"Scale":12442,"Ġrestaurant":12443,"Furthermore":12444,"ctrine":12445,"âĨ":12446,"Ġoutstanding":12447,"Ġsteel":12448,"egas":12449,"ĠRoberts":12450,"ĠLanguage":12451,"newline":12452,"Ġmissed":12453,"Ġincorporated":12454,"Ġmorphism":12455,"NavBar":12456,"Ġages":12457,"Ġmining":12458,"ĠUpdate":12459,"ĠSite":12460,"chell":12461,"Ġimplicit":12462,"Ġsuspect":12463,"Api":12464,"Bbb":12465,"FAULT":12466,"odox":12467,"Ġimprovements":12468,"creen":12469,"than":12470,"ativity":12471,"Ġcouplings":12472,"Term":12473,"analy":12474,"urse":12475,"gi":12476,"Despite":12477,"itional":12478,"Ġlayout":12479,"Ġrenamed":12480,"DL":12481,"ĠGets":12482,"Ġsmallest":12483,"shop":12484,"Ġtall":12485,"1931":12486,"Through":12487,"Ġswim":12488,"Ġprofit":12489,"ĠOak":12490,"Sym":12491,"Ãº":12492,"Ġattacked":12493,"Ġlifetime":12494,"Ġ\\{\\":12495,"coin":12496,"1916":12497,"1921":12498,"utt":12499,"Ġmor":12500,"ĠCorollary":12501,"iot":12502,"Spe":12503,"Ġpipeline":12504,"ĠPas":12505,"Ġcircles":12506,"Volume":12507,"tics":12508,"ordered":12509,"Ġblow":12510,"ifting":12511,"ĠHeritage":12512,"Ġmanifest":12513,"panel":12514,"determ":12515,"Rober":12516,"KEY":12517,"cover":12518,"Ġinterpol":12519,"Ġfilename":12520,"ographical":12521,"Ġpictures":12522,"ĠNGC":12523,"ĠCopyright":12524,"ĠFreder":12525,"ĠHotel":12526,"ounced":12527,"apolis":12528,"nie":12529,"GP":12530,"Ġelsewhere":12531,"Ġpromotion":12532,"Ġdisabled":12533,"rik":12534,"Ġcollections":12535,"Transport":12536,"Ġrealistic":12537,"Ġreveal":12538,"mont":12539,"ĠNode":12540,"ĠVideo":12541,"Ġtranslated":12542,"ĠMas":12543,"multline":12544,"->_":12545,"Ġchoosing":12546,"ĠHighway":12547,"home":12548,"Ġcompete":12549,"Ġjav":12550,"scroll":12551,"izers":12552,"ĠEqs":12553,"diction":12554,"ĠTan":12555,"ĠSwitzerland":12556,"ĠDomin":12557,"ĠTrib":12558,"Ġalter":12559,"Ġresemb":12560,"Ġaffairs":12561,"Ġengage":12562,"lay":12563,"ĠFalse":12564,"Personal":12565,"Ġconditional":12566,"ango":12567,"argo":12568,"Ġgay":12569,"1924":12570,"ĠCommonwealth":12571,"Ġ(_":12572,"Ġwalking":12573,"ĠTurkish":12574,"oda":12575,"Ġhydrogen":12576,"rob":12577,"Ġ{$\\":12578,"Ġenhanced":12579,"Ġlegacy":12580,"ĠĠčĊ":12581,"1925":12582,"father":12583,"asp":12584,"ĠAnalysis":12585,"aintiff":12586,"Ġpreserve":12587,"Ġinference":12588,"Ġmsg":12589,"ĠThough":12590,"FIG":12591,"ĠKelly":12592,"edit":12593,"}>":12594,"North":12595,"ceptions":12596,"ĠElement":12597,"Ġspecify":12598,"ĠBab":12599,"ĠMelbourne":12600,"complex":12601,"erto":12602,"Ġexpanding":12603,"ibliography":12604,"ĠYouth":12605,"Ġprinted":12606,"Ġreconstruct":12607,"Ġduties":12608,"Ġoccas":12609,"Ġton":12610,"ĠPa":12611,"Ġsegments":12612,"elescope":12613,"otten":12614,"Ġgenetic":12615,"ĠQCD":12616,"Ġcompris":12617,")}$.":12618,"Ġfraud":12619,"Ġelectricity":12620,"Ġfee":12621,"ditional":12622,"ĠRic":12623,"away":12624,"bigcup":12625,"Play":12626,"ĠMand":12627,"ĠBox":12628,"Ġmanuscript":12629,"matic":12630,"ĠAlgorithm":12631,"Ġceleb":12632,"Ġbaby":12633,"Ġdefic":12634,"James":12635,"\\}.":12636,"Ġlyrics":12637,"ĠAnne":12638,"1912":12639,"Ġsectors":12640,"Ġsaved":12641,"kh":12642,"Ġcrash":12643,"Ġfeas":12644,"ridges":12645,"phan":12646,"Ġheter":12647,"mock":12648,"ĠDetroit":12649,"ĠRepresentatives":12650,"Ġrequiring":12651,"numer":12652,"emed":12653,"ĠCape":12654,"Ġadvertising":12655,"Ġconsole":12656,"Ġflags":12657,"hadoop":12658,"ĠChapter":12659,"ĠDeep":12660,"assertEquals":12661,"Ġguns":12662,"ĠKhan":12663,"ĠConst":12664,"Ġreaches":12665,"loss":12666,"Ġregulation":12667,"ĠProperty":12668,"Ġmathematical":12669,"Ġmaintenance":12670,"Ġutility":12671,"ĠWhit":12672,"Ġhal":12673,"assertEqual":12674,"Internal":12675,"Free":12676,"UID":12677,"trivial":12678,"midrule":12679,"independent":12680,"fixed":12681,"]=":12682,"Ġimmigration":12683,"ĠOklahoma":12684,"German":12685,"ĠGall":12686,"Ġscholars":12687,"Ġrenormal":12688,"ĠĠĠĠĠĠĠĠĠĠĠĠĠĠĠĠĠĠĠĠĠĠĠĠĠĠĠĠĠĠĠĠĠĠĠĠĠĠĠ":12689,"ĠTaiwan":12690,"Ġrefere":12691,"PAR":12692,"/.":12693,"Ġmart":12694,"Proposition":12695,"spir":12696,"ONE":12697,"MAX":12698,"Ġsucceeded":12699,"GG":12700,"Ġprojected":12701,"Ġforget":12702,"you":12703,"Ġwrest":12704,"104":12705,"ĠPrior":12706,"iliary":12707,"ĠFame":12708,"Day":12709,"charge":12710,"^+$":12711,"1926":12712,"à¸":12713,"opol":12714,"_{-\\":12715,"Cent":12716,"defn":12717,"ĠSn":12718,"ikh":12719,"ĠExper":12720,"ĠWind":12721,"Ġoverse":12722,"Ju":12723,"txt":12724,"record":12725,"Ġeligible":12726,"angers":12727,"Ġforming":12728,"Ġdiscrimination":12729,"!âĢĿ":12730,"Ġguilty":12731,"Mac":12732,"kern":12733,"ĠFather":12734,"Ġtens":12735,"lades":12736,"Family":12737,"Ġheadquarters":12738,"Ġcompensation":12739,"Ġbuilder":12740,"Ġ).":12741,"queue":12742,"103":12743,"ĠAppe":12744,"Ð°Ð":12745,"Ġprefer":12746,"Ġcosmological":12747,"ĠLyn":12748,"=\"-":12749,"ĠDeb":12750,"Ġtherapy":12751,"Ke":12752,"Perm":12753,"Ġeducated":12754,"Ġeat":12755,"vertex":12756,"ĠVin":12757,"uin":12758,"ductor":12759,"ĠWalter":12760,"Struct":12761,"Ġeigenvalue":12762,"leman":12763,"Ġsimilarity":12764,"Div":12765,"oni":12766,"athered":12767,"Ġalgebras":12768,"Ġfired":12769,"ĠAdvis":12770,"ĠUnit":12771,"Ġau":12772,"Ġ{{":12773,"FP":12774,"Ġfemales":12775,"Ġorbits":12776,"1923":12777,"Ġseparately":12778,"Ġaimed":12779,"ĠHans":12780,"Ġmarks":12781,"350":12782,"phony":12783,"omot":12784,"cluster":12785,"Close":12786,"Ġaugment":12787,"forms":12788,"Bigg":12789,"estyle":12790,"Selected":12791,"Ġshr":12792,"atherine":12793,"Ġdrink":12794,"ĠNorway":12795,"Ins":12796,"Attributes":12797,"email":12798,"Ġboat":12799,"Ġwindows":12800,"expr":12801,"both":12802,"ĠNaval":12803,"Ġmayor":12804,"Ġwaste":12805,"Ġmusician":12806,"Ġresidence":12807,"Inv":12808,"ĠNation":12809,"Ġaccum":12810,"Paul":12811,"Ġreserved":12812,"RT":12813,"Ġsurprise":12814,",.":12815,"}\"":12816,"makers":12817,"intend":12818,"Ġacquisition":12819,"ĠSV":12820,"Ġwaters":12821,"uese":12822,"Ġvort":12823,"ĠMississippi":12824,"ĠPope":12825,"ĠLev":12826,"Ġdeeply":12827,"ĠHit":12828,"ĠChem":12829,"Ġexpectations":12830,"Ġneutron":12831,"ĠSilver":12832,"incess":12833,"Ġclar":12834,"uer":12835,"Ġwider":12836,"Ġarrive":12837,"EV":12838,"ĠSchools":12839,"Ġhardware":12840,"Ġdetermining":12841,"Well":12842,"}},\\":12843,"ĠJerusalem":12844,"Ġviolent":12845,"ĠSaudi":12846,"Ġjazz":12847,",...,":12848,"Ġwear":12849,"Ġindustries":12850,"Ġrating":12851,"HP":12852,"Ġfunded":12853,"Ġcited":12854,"Ġdecreasing":12855,"}[!":12856,"Ġdetermines":12857,"Ġsecretary":12858,"Ġunity":12859,"Ġsinging":12860,"Ġfranchise":12861,"alloc":12862,"assador":12863,";\\;":12864,"aze":12865,"orted":12866,"Ġfocusing":12867,"ugar":12868,"Ĥ¬":12869,"Ġroads":12870,"ĠLearning":12871,"(!":12872,"Ġlaser":12873,"Ġanth":12874,"Ġclosing":12875,"ĠMembers":12876,"Account":12877,"ĠMD":12878,"Ġpublishing":12879,"Ġstarring":12880,"Ġsuicide":12881,"Ġexciting":12882,"mates":12883,"ĠAlliance":12884,"ĠFermi":12885,"ĠPlace":12886,"Ġgenerators":12887,"herence":12888,"Runtime":12889,"ĠTraining":12890,"ortheast":12891,"}\\;":12892,"Ġdrum":12893,"ibraries":12894,"ĠConnecticut":12895,"brief":12896,"volume":12897,"Ġneuro":12898,"ĠMayor":12899,"Ġangles":12900,"ĠWy":12901,"iture":12902,"Ġvillages":12903,"Ġrecovered":12904,"Japan":12905,"ĠBased":12906,"Ġpayments":12907,"Ġthoughts":12908,"ĠStudents":12909,"Sn":12910,"Association":12911,"Ġinjuries":12912,"Ġunf":12913,"Phil":12914,"Ġjun":12915,"Ġinstruction":12916,"Ġconnecting":12917,"iÃ³n":12918,"Short":12919,"Ġprefix":12920,"ĠManager":12921,"typed":12922,"Ġremarkable":12923,"ĠFA":12924,"ulator":12925,"ĠLaure":12926,"sea":12927,"stage":12928,"Ġcapabilities":12929,"Ġlib":12930,"ĠPolitical":12931,"Ġdwar":12932,"textnormal":12933,"Ġlands":12934,"ĠAssum":12935,"aset":12936,"Ġcha":12937,"Ġagricultural":12938,"Ġunitary":12939,"MENT":12940,"ĠBerk":12941,"Ġreact":12942,"expl":12943,"Ġcriticism":12944,"]:":12945,"Ġanimation":12946,"try":12947,"ĠProtection":12948,"Ġstationary":12949,"Oh":12950,"omas":12951,"ĠChile":12952,"Ġprofessionals":12953,"Ġoccupation":12954,"ĠRab":12955,"uy":12956,"Ġorganisation":12957,"brane":12958,"ĠStew":12959,"ĠStudy":12960,"Ġnearest":12961,"Ġemerging":12962,"Ġinsight":12963,"NotNull":12964,"Ġtrains":12965,"Ġdestruction":12966,"Ġaddresses":12967,"JSON":12968,"subequations":12969,"leveland":12970,"entity":12971,"iop":12972,"118":12973,"ĠPhill":12974,"components":12975,"uber":12976,"Ġtoler":12977,"Ġignored":12978,"ĠExpl":12979,"Ġaux":12980,"ĠPDF":12981,"havior":12982,"learning":12983,"osc":12984,"Ġheritage":12985,"Wrapper":12986,"Ġwelcome":12987,"Ġtransformed":12988,"rf":12989,"iche":12990,"ĠEss":12991,"oustic":12992,"Rich":12993,"WH":12994,"boost":12995,"Ġpitch":12996,"weak":12997,"Ġfitted":12998,"Ġpassage":12999,"ĠWithout":13000,"ĠYears":13001,"ĠSud":13002,"resize":13003,"French":13004,"wen":13005,"ĠAgreement":13006,"ĠNap":13007,"ĠChristians":13008,"clide":13009,"Ġimagine":13010,"arial":13011,"}{}":13012,"good":13013,"doi":13014,"leading":13015,"Ġcontradiction":13016,"Ġdisag":13017,"ĠHug":13018,"claimed":13019,"ĠVAL":13020,"ethe":13021,"ĠEquation":13022,"leqslant":13023,"above":13024,"asts":13025,"Ġcoaches":13026,"ĠMorgan":13027,"Ġparad":13028,"Ġdevelopments":13029,"ĠBeat":13030,"three":13031,"Ġhelpful":13032,"Ġtries":13033,"ĠCop":13034,"article":13035,"Pointer":13036,"gets":13037,"Ġunlike":13038,"otte":13039,"ĠAustria":13040,"ĠEditor":13041,"Donald":13042,"Ġproviders":13043,"ĠBowl":13044,"ĠEag":13045,"^*_":13046,"IES":13047,"Ġgoverning":13048,"ista":13049,"Ġenables":13050,"Ġlabeled":13051,"ĠComb":13052,"Ġmeets":13053,"................................":13054,"Example":13055,"Ġgenerations":13056,"Ġfees":13057,"Ġstyles":13058,"ĠAgric":13059,"127":13060,"Ġperforms":13061,"aments":13062,"rupted":13063,"Ã©s":13064,"Ġcolleagues":13065,"Ġsick":13066,"Ġjudges":13067,"Ġaer":13068,"Ġreceives":13069,"Ġcontents":13070,"Upsilon":13071,"Ġplots":13072,"Ġextensions":13073,"ordinate":13074,"Lat":13075,"Phys":13076,"Ġnormally":13077,"inch":13078,"ĠâĢĻ":13079,"pay":13080,"Ġlogarith":13081,"ĠSource":13082,"ĠCentury":13083,"ĠPract":13084,"Ġexploration":13085,"Ġmechanical":13086,"illery":13087,"Ġvulnerable":13088,"Ġseriously":13089,"Ġappointment":13090,"UK":13091,"ĠMO":13092,"rared":13093,"Ġintrinsic":13094,"Ġimplications":13095,"Ġsupplement":13096,"earing":13097,"Ġconformal":13098,"imp":13099,"Ġpursue":13100,"|_{\\":13101,"ĠArmen":13102,"Ġcharts":13103,"Ġinvolvement":13104,"uj":13105,"Ġtrunc":13106,"Capt":13107,"ĠDur":13108,"tb":13109,"Ġmerger":13110,"ĠExample":13111,"Ġflying":13112,"SN":13113,"})=\\":13114,"hist":13115,"116":13116,"kov":13117,"$&":13118,"omer":13119,"\\/":13120,"Ġtriangle":13121,"mix":13122,"Life":13123,"Ġcoherent":13124,"Job":13125,"Ġpars":13126,"Ġaveraged":13127,"Ġcyl":13128,"ĠSel":13129,"Ġjson":13130,"ĠMunic":13131,"Ġanisot":13132,"ĠDean":13133,"Ġformerly":13134,"primary":13135,"Ġreflected":13136,"Ġresidential":13137,"Summary":13138,"Ġaccompanied":13139,"Ġrecurs":13140,"###":13141,"Ġdemands":13142,"Ġresp":13143,"Ġnan":13144,"1913":13145,"Ġconscious":13146,"Ġbrown":13147,"ĠFOR":13148,"Ġrooms":13149,"Ġalive":13150,"essages":13151,"contains":13152,"ĠDave":13153,"Ġsav":13154,"Ġabandoned":13155,"Ġcomic":13156,"Ġpointer":13157,"WN":13158,"ĠGab":13159,"IVE":13160,"Ġvisiting":13161,"ĠNigeria":13162,"perimental":13163,"ĠChen":13164,"ĠPear":13165,"Ġcooling":13166,"addr":13167,"ned":13168,"Ġpicked":13169,"Ġencouraged":13170,"Ġposts":13171,"Ġoptional":13172,"ĠEdition":13173,"deep":13174,"Ġplotted":13175,"handler":13176,"Ġ\\}":13177,"clidean":13178,"Single":13179,"Ġinnovative":13180,"ugs":13181,"Ġsurvive":13182,"ĠDun":13183,"roscopic":13184,"ĠPlease":13185,"Ġprisoners":13186,"Ġexpatriate":13187,"ige":13188,"Ġassignment":13189,"Ġsad":13190,"Ġspokes":13191,"Items":13192,"Ã¼r":13193,"ĠKa":13194,"ĠPed":13195,"Ġpreparation":13196,"ĠGordon":13197,"ublin":13198,"ĠSQL":13199,")}$,":13200,"entials":13201,"Sol":13202,"ĠTrad":13203,"Ġhired":13204,"Ġalloc":13205,"360":13206,"Ġpixels":13207,"Ġconclusions":13208,"Ġproportion":13209,"Ġsear":13210,"Ġpaintings":13211,"Ġstruck":13212,"alog":13213,"ĠUtah":13214,"ĠLawrence":13215,"anny":13216,"equence":13217,"ĠRelations":13218,"Windows":13219,"ĠPur":13220,"Like":13221,"ĠNBA":13222,"108":13223,"ĠPrivate":13224,"winning":13225,"Ġur":13226,"Ġthereby":13227,"ĠPalestinian":13228,"Ġtables":13229,"Ġneighbors":13230,"ĠWatch":13231,"ĠAustin":13232,"ĠNichol":13233,"stylesheet":13234,"Ġclustering":13235,"triangle":13236,"Changed":13237,"Ġcompress":13238,"Ġmm":13239,"perature":13240,"Ġpeaks":13241,"ĠHerm":13242,"ĠFinance":13243,"oa":13244,"SIZE":13245,"apsed":13246,"Ġsurvived":13247,"ĠFer":13248,"ĠAdams":13249,"Ġcontracts":13250,"blog":13251,"ĠMcK":13252,"Ġamplitudes":13253,"nolimits":13254,"ĠDal":13255,"ivacy":13256,"Ġsplitting":13257,"ea":13258,"ĠSeattle":13259,"Ġdistinguished":13260,"pread":13261,"eyond":13262,"Ġentrance":13263,"Ġnoting":13264,"issance":13265,"Hon":13266,"ĠKy":13267,"Mer":13268,"$_{\\":13269,"Ġjournalists":13270,"ĠAccount":13271,"Ġfirms":13272,"Ġpulse":13273,"standard":13274,"ymn":13275,"Ġoperates":13276,"Ġhtml":13277,"Ġhorror":13278,"Memory":13279,"Ġbeauty":13280,"ĠLouisiana":13281,"vanced":13282,"Ġpurely":13283,"novation":13284,"00000000":13285,"sun":13286,"uates":13287,"orses":13288,"SG":13289,"Ġ''":13290,"Ġleaf":13291,"operator":13292,"riends":13293,"ĠVo":13294,"potential":13295,"Ġpron":13296,"bytes":13297,"Ġequity":13298,"Ġlake":13299,"Tests":13300,"March":13301,"\\,,":13302,"Parse":13303,"ntil":13304,"HA":13305,"Ġsituated":13306,"Ġanalytical":13307,"ULE":13308,"Ġcards":13309,"zi":13310,"Ġunusual":13311,"Math":13312,"Ġchains":13313,"ĠLanka":13314,"Ġoperational":13315,"Ġimplements":13316,"\"|":13317,"Total":13318,"sequence":13319,"Ġdepicted":13320,"Ġdiameter":13321,"best":13322,"Ġbear":13323,"ĠNewton":13324,"900":13325,"Ġadmits":13326,"Ġrugby":13327,"ĠAssistant":13328,"Ġprobabilities":13329,"ĠSearch":13330,"Ġordering":13331,"asi":13332,"protobuf":13333,"Ġtied":13334,"Initial":13335,"Ġtemple":13336,"ĠBaron":13337,"uclear":13338,"Ġtrends":13339,"TF":13340,"Ġinfection":13341,"rele":13342,"dashed":13343,"Ġhosts":13344,"Ġprobe":13345,"Ġsemantic":13346,".(\\":13347,"Ġexclusive":13348,"analysis":13349,"1911":13350,"Ġdevoted":13351,"jar":13352,"Ġpatch":13353,"Ġunlikely":13354,"Ġathletes":13355,"Ġgeneralization":13356,"Feature":13357,"Ġtracking":13358,"ĠRepublicans":13359,"++;":13360,"=\"../../../../../../":13361,"ntz":13362,"hn":13363,"~~~~~~~~":13364,"Ġhandling":13365,"ĠWalker":13366,"ĠDa":13367,"help":13368,"ĠReserve":13369,"ĠPack":13370,"Ġisomorphic":13371,"Register":13372,"Seg":13373,"ĠSpirit":13374,"Plugin":13375,"Ġtermin":13376,"Ġdoctors":13377,"Ġna":13378,"bara":13379,"Ġranging":13380,"eenth":13381,"Ġdialogue":13382,"Ġoutbreak":13383,"Prior":13384,"arer":13385,"SION":13386,"Ġinduct":13387,"Ġmyth":13388,"ĠLam":13389,"ĠResults":13390,")));":13391,"ĠDeputy":13392,"Ġspherical":13393,"Ġocean":13394,"Ġfurn":13395,"ijing":13396,"Ġprosecut":13397,"seq":13398,"Ġgenre":13399,"distance":13400,"Ġcommander":13401,"ĠMission":13402,"Ġintersect":13403,"ĠPhD":13404,"jet":13405,"ateful":13406,"ĠGulf":13407,"Recall":13408,"Ġchecked":13409,"Nodes":13410,"\\}_{":13411,"Ġinvoke":13412,"Ġfalling":13413,"Ġtransactions":13414,"Ġintroducing":13415,"ĠSoftware":13416,"consistent":13417,"Ġri":13418,"Ġtheater":13419,"Ġsoccer":13420,"fly":13421,"hskip":13422,"ĠPos":13423,"ĠJunior":13424,"Ġgeodes":13425,"ĠAlan":13426,"Statement":13427,"Ġoffensive":13428,"Ġdevi":13429,"Ġtriang":13430,"Ġintegers":13431,"built":13432,"Ġremainder":13433,"BD":13434,"Ġpaying":13435,"ĠBaseball":13436,"Ġrose":13437,"ĠIndependent":13438,"vskip":13439,"Ġcondens":13440,"RS":13441,"Coll":13442,"Bound":13443,"Ġmanaging":13444,"Ġcelebrated":13445,"Song":13446,"istence":13447,"ĠBGCOLOR":13448,"\\[\\":13449,"CN":13450,"Ġevil":13451,"Ġconverges":13452,"ĠIns":13453,"idespread":13454,"editor":13455,"ĠLGBT":13456,"oria":13457,"ĠDallas":13458,"ĠSport":13459,"'$.":13460,"Ġrival":13461,"iac":13462,"ĠDVD":13463,"(){":13464,"Ġcoff":13465,"Ġdeput":13466,"Files":13467,"umin":13468,"Ġsynd":13469,"Classes":13470,"Ġcentered":13471,"Ġmutual":13472,"below":13473,"Ġengagement":13474,"rama":13475,"Ġconsistency":13476,"entric":13477,"ĠBh":13478,"Ġeffectiveness":13479,"$}}":13480,"onna":13481,"Ġmolecules":13482,"Fact":13483,"Ġquiet":13484,"Ġmachines":13485,"Ġfruit":13486,"ordinary":13487,"Ġvic":13488,"Keys":13489,"JE":13490,"Ġsurn":13491,"ĠFarm":13492,"ĠDirac":13493,"Ñı":13494,"ĠThompson":13495,"Ġtunnel":13496,"Photo":13497,"Bit":13498,"Ġreb":13499,"ceive":13500,"Ġcro":13501,"Ġ[[":13502,"prison":13503,"ĠSmall":13504,"June":13505,"gered":13506,"}_{{\\":13507,"Ġfemin":13508,"Ġio":13509,"Ġproceedings":13510,"tip":13511,"ĠNash":13512,"ĠHistorical":13513,"Cam":13514,"ĠSin":13515,"iverpool":13516,"Ġdies":13517,"ĠChristopher":13518,"Ġmodify":13519,"ApJ":13520,"ĠPO":13521,"ĠReform":13522,"Europe":13523,"toggle":13524,"valued":13525,"Protocol":13526,"Ġranking":13527,"Ġtough":13528,"Ġsuperior":13529,"Ġestimator":13530,"_{[":13531,"pattern":13532,"Ġsupporters":13533,"Ġcycles":13534,"ĠWas":13535,"citealt":13536,"Ġreceiver":13537,"vdots":13538,"Cluster":13539,"Ġminority":13540,"intro":13541,"Headers":13542,"Ġembr":13543,"xygen":13544,"theory":13545,"Ġupcoming":13546,"Ġoverlap":13547,"ĠNevertheless":13548,"Real":13549,"Ġburst":13550,"Engine":13551,"eper":13552,"Ġposterior":13553,"Ġinterference":13554,"jamin":13555,"oples":13556,"ternoon":13557,"Auto":13558,"lyph":13559,"Ġovercome":13560,"107":13561,"Ġwheel":13562,"MOD":13563,"Ġconsiders":13564,"istically":13565,"ĠGarden":13566,"Ġinstability":13567,"fd":13568,"ĠHonor":13569,"ĠStill":13570,"ĠJos":13571,"Ġtranslate":13572,"eyl":13573,"andal":13574,"notin":13575,"ecture":13576,"Ġhopes":13577,"ensively":13578,"thread":13579,"iterator":13580,"Ġdifficulties":13581,"}~\\":13582,"rection":13583,"Ġbath":13584,"ĠOrth":13585,"nest":13586,"Ġkinem":13587,"DIR":13588,"Final":13589,"inburgh":13590,"Ġartificial":13591,"Ġimaging":13592,"save":13593,"Ġjurisdiction":13594,"ĠSeveral":13595,"Ġdescript":13596,"Ġinhabit":13597,"virtual":13598,"ĠFive":13599,"ĠDak":13600,"ĠĠĠĠĠĠĠĠĠĠĠĠĠĠĠĠĠĠĠĠĠĠĠĠĠĠ":13601,"ĠJason":13602,"135":13603,"izontal":13604,"oi":13605,"ĠNeg":13606,"Ġislands":13607,"Ġabroad":13608,"Ġvital":13609,"Ġposit":13610,"Ġanswers":13611,"ĠRussell":13612,"isting":13613,"Ax":13614,"Ġsoph":13615,"ĠAmendment":13616,"Ġmouth":13617,"rying":13618,"Print":13619,"Ġvolumes":13620,"ynchron":13621,"outer":13622,"Ġhistorian":13623,"ĠVillage":13624,"Ġgrows":13625,"Named":13626,"ĠResource":13627,"Ġbary":13628,"Ġcollisions":13629,"Ġillustrate":13630,".}\\":13631,"ĠEnvironmental":13632,"Ġcrypt":13633,"Ġpropagation":13634,"SW":13635,"cycle":13636,".-":13637,"Mal":13638,"ĠProdu":13639,"inces":13640,"Ġbold":13641,"106":13642,"Py":13643,"Ġdocumentation":13644,"Matrix":13645,"ĠAC":13646,"ĠTODO":13647,"flags":13648,"Ġknowing":13649,"Ġpetition":13650,"Iterator":13651,"Cur":13652,"Ġattributed":13653,"Syntax":13654,"ictional":13655,"ĠBrun":13656,"Ġknock":13657,"Ġcontrary":13658,"ĠMcG":13659,"trim":13660,"Ġanalyzed":13661,"whe":13662,"sburgh":13663,"ĠChair":13664,"ĠRiemann":13665,"Ġinaug":13666,"Ġemerged":13667,"ĠFreedom":13668,"extension":13669,"given":13670,"aping":13671,"Ġequals":13672,"Aud":13673,"ĠHum":13674,"Mart":13675,"whel":13676,"LINE":13677,"Ġdeals":13678,"Who":13679,"Feb":13680,"perturb":13681,"Ġcommissioned":13682,"ycle":13683,"ĠStudent":13684,".),":13685,"Ġfol":13686,"ĠChamber":13687,"ĠEinstein":13688,"Ġbasically":13689,"ĠLang":13690,"Ġmales":13691,"elines":13692,"extend":13693,"shell":13694,"Ġgang":13695,"Born":13696,"ĠPRO":13697,"(__":13698,"Ġmerged":13699,"Ġsacr":13700,"EO":13701,"structor":13702,"rible":13703,"textsf":13704,"ĠLA":13705,"Ġconstitutional":13706,"quote":13707,"Michael":13708,"PER":13709,"ĠWright":13710,".*":13711,"proto":13712,"Ġreserve":13713,"Tax":13714,"1908":13715,"ĠAbb":13716,"transition":13717,"ĠMarkov":13718,"Ġbelonging":13719,"Ġartistic":13720,"Ġtort":13721,"Ġregulatory":13722,"emen":13723,"Ġunem":13724,"efe":13725,"obi":13726,"Ġasc":13727,"Elements":13728,"isode":13729,"Ġdecays":13730,"lew":13731,"Ġtends":13732,"verted":13733,"tmp":13734,"ĠDouglas":13735,"Ġdisturb":13736,"Ġearliest":13737,"haust":13738,"inement":13739,"Namespace":13740,"ioned":13741,"Ġproducers":13742,"isp":13743,"ĠTake":13744,"Ġstating":13745,"_(":13746,"iva":13747,"Ġroutes":13748,"undefined":13749,"Ġbirds":13750,"ĠBuff":13751,"ĠBanglades":13752,"Ġprotests":13753,"Both":13754,"'=":13755,"Ġcarefully":13756,"yy":13757,"ims":13758,"Ġfn":13759,"vable":13760,"inher":13761,"impl":13762,"enders":13763,"tage":13764,"tically":13765,"ÃŃa":13766,"ĠDocument":13767,"ĠResources":13768,"Ġwonderful":13769,"oids":13770,"schema":13771,"Ġveget":13772,"Ġprize":13773,"\",\"":13774,"Ġpopularity":13775,"Ġfold":13776,"Ġcav":13777,"ccc":13778,"Ġcolonial":13779,"lean":13780,"ĠRick":13781,"ummy":13782,"Ġpharm":13783,"Ġspacetime":13784,"Ġpole":13785,"ĠSamuel":13786,"ĠArgentina":13787,"ĠKaz":13788,"Ġtargeted":13789,"Ġbiological":13790,"kt":13791,"Ġdivor":13792,"iors":13793,"Ġjury":13794,"secution":13795,"ieg":13796,"quality":13797,"Ġinvasion":13798,"half":13799,"Ġworship":13800,"ĠHoll":13801,"oche":13802,"Ġforecast":13803,"ĠBruce":13804,"distribution":13805,"ĠTelevision":13806,"nik":13807,"NOT":13808,"appy":13809,"220":13810,"Ġinterviews":13811,"Ġbuck":13812,"Ġreq":13813,"Ġiterations":13814,"ĠEarl":13815,"ĠLeban":13816,"enezuel":13817,"ĠTag":13818,"etition":13819,"ĠAntonio":13820,"ĠPeak":13821,"amps":13822,"video":13823,"Ġfrust":13824,"Ġlawyers":13825,"April":13826,"ĠCemetery":13827,"Ġ×":13828,"Ġphotographs":13829,"Ġbronze":13830,"Ġexpertise":13831,"argument":13832,"ble":13833,"}}=\\":13834,"kw":13835,"Ġobtaining":13836,"decl":13837,"ĠProm":13838,"Ġanalogous":13839,"ĠMuslims":13840,"Ġmagic":13841,"Rob":13842,"Resol":13843,"Ġsupplies":13844,"LI":13845,"Ġsurvival":13846,"San":13847,"ĠTownship":13848,"account":13849,"Ġnormalization":13850,"Children":13851,"Ġweekly":13852,"Ġhospitals":13853,"esis":13854,"Ġretrie":13855,"Fin":13856,"Ġproxy":13857,"svg":13858,"Ġcertificate":13859,"ateur":13860,"dale":13861,"Prob":13862,"incre":13863,"}<":13864,"Ġprelim":13865,"Ġfake":13866,"Dan":13867,"IND":13868,"Ġopens":13869,"four":13870,"Ġvanishes":13871,"lia":13872,"Ep":13873,"Ġbases":13874,"Ġwearing":13875,"Ġremoval":13876,"dependency":13877,"Ġfarmers":13878,"elastic":13879,"Ġedited":13880,"ĠExchange":13881,"hour":13882,"Ġ&$":13883,"Ġske":13884,"Ġlistening":13885,"Double":13886,"atics":13887,"Ġgrants":13888,"Bre":13889,"rose":13890,"ĠON":13891,"Ġthemes":13892,"|=":13893,"\\|^":13894,"ĠBrooklyn":13895,"dp":13896,"itis":13897,"Ġoutputs":13898,"Ġgenerates":13899,"Ġreflects":13900,"ĠUniverse":13901,"113":13902,"Ġ[],":13903,"Ġpersonality":13904,"igrant":13905,"throws":13906,"upper":13907,"bounded":13908,"pshire":13909,"ĠPoisson":13910,"ationally":13911,"orse":13912,"ologically":13913,"ĠExpress":13914,"install":13915,"ĠCow":13916,"idge":13917,"Ġtrajectories":13918,"clude":13919,"STAT":13920,"rock":13921,"Ġclip":13922,"ractions":13923,"ĠJosh":13924,"ĠBaltimore":13925,"Tele":13926,"Ġraising":13927,"ĠOption":13928,"Ġbil":13929,"=-\\":13930,"ĠCrim":13931,"Ġwidespread":13932,"ĠBetween":13933,"ĠHills":13934,"Ġmetadata":13935,"chiat":13936,"Ġmigration":13937,"ching":13938,"Icon":13939,"reset":13940,"Ġplain":13941,"ĠColomb":13942,"mut":13943,"igm":13944,"Today":13945,"Ġdissip":13946,"Ġunstable":13947,"ĠTheory":13948,"Ġrepeat":13949,"ĠAlb":13950,"alaxy":13951,"!\"":13952,"Ġsoil":13953,"Ġdisappoint":13954,"Ġannu":13955,"Ġfrequent":13956,"[:":13957,"hal":13958,"Ġyes":13959,")=(":13960,"Ġdefendant":13961,"raid":13962,"ĠMs":13963,"Ġtwelve":13964,"central":13965,"ĠAndre":13966,"because":13967,"ĠOrd":13968,"acles":13969,"switch":13970,"Ġcolleges":13971,"ĠâĨ":13972,"Ġidentifying":13973,"Ġpassengers":13974,"ĠTE":13975,"Ġestablishing":13976,"Props":13977,"ĠArg":13978,"}{*}{":13979,"Ġhat":13980,"Ġimpressive":13981,"'}\\":13982,"ĠCloud":13983,"Layer":13984,"printf":13985,"Comment":13986,"ĠFried":13987,"Ġlots":13988,"Ġplanets":13989,"pdated":13990,"Ġemployer":13991,"Ġrecommendations":13992,"Ġtouchdown":13993,"Acknowled":13994,"Ġpassenger":13995,"Ġorganisations":13996,"Canadian":13997,"Ġthreats":13998,"Ġadvis":13999,"abul":14000,"poly":14001,"pler":14002,"into":14003,"Ġsparse":14004,"Ġĉ":14005,"1890":14006,"Ġreven":14007,"Multi":14008,"')$":14009,"Ġreign":14010,"ĠAle":14011,"Ġpreserved":14012,"scar":14013,"Ġstrange":14014,"trace":14015,"Directory":14016,"ĠABC":14017,"ĠBE":14018,"ynasty":14019,"ĠOk":14020,"Rend":14021,"Profile":14022,"password":14023,"Ġcovariance":14024,"BF":14025,"Ġtypename":14026,"hoen":14027,"Collections":14028,"Sources":14029,"Ġcompeting":14030,"Ġcone":14031,"Ġ$-$":14032,"redu":14033,"leans":14034,"ostics":14035,"ĠAlber":14036,"Panel":14037,"ĠMatthew":14038,"works":14039,"Ġha":14040,"Ġeverywhere":14041,"views":14042,"itol":14043,"Ġcombine":14044,"bolic":14045,"ashi":14046,"ounce":14047,"Ġfinit":14048,"Ġnavigation":14049,"ĠHad":14050,"Ġcombining":14051,"Ġlabour":14052,"Ġstayed":14053,"ĠCS":14054,"Ġbreaks":14055,"Ġentanglement":14056,"Ġheaded":14057,"Ġdisjoint":14058,"attered":14059,"mouth":14060,"Plan":14061,"fx":14062,"ĠPi":14063,"Ġexecute":14064,"sson":14065,"ĠMother":14066,"ĠHu":14067,"ĠFisher":14068,"Ġvelocities":14069,"metadata":14070,"Ġharmonic":14071,"ĠFle":14072,"ĠWard":14073,"Generic":14074,"Ġexplored":14075,"Ġcriterion":14076,"Ġholiday":14077,"ĠKam":14078,"ĠAlbum":14079,"ĠNik":14080,"Ġremoving":14081,"onder":14082,"story":14083,"Ġlimiting":14084,"Ġconsistently":14085,"cod":14086,"INS":14087,"Simple":14088,"ĠRule":14089,"Newton":14090,"Ġimpacts":14091,"ĠCarn":14092,"ycl":14093,"Ġpermitted":14094,"ĠAbd":14095,"week":14096,"Ġham":14097,"Ġpeer":14098,"Biography":14099,"OB":14100,".},":14101,"ĠQueensland":14102,"ĠNature":14103,"details":14104,"Ġphysically":14105,"np":14106,"August":14107,"Ġstadium":14108,"Ġneur":14109,"Ġrecru":14110,"Ġ>>":14111,"Ġbon":14112,"ĠOrchestra":14113,"bootstrap":14114,"Ġbeliefs":14115,"ĠNASA":14116,"iso":14117,"sys":14118,"eras":14119,"Ġtalked":14120,"Ġgarden":14121,"ĠOtt":14122,"Ġmixture":14123,"charg":14124,"Trace":14125,"sb":14126,"Ġdiscontin":14127,"clusively":14128,"solid":14129,"BT":14130,"ĠMars":14131,"Ġintervention":14132,"ixel":14133,"tery":14134,"centerline":14135,"ĠSac":14136,"ĠSP":14137,"dropdown":14138,"harm":14139,"Ġopera":14140,"ĠSwiss":14141,"annon":14142,"ĠRound":14143,"letter":14144,"Ġpermit":14145,"Ġaffects":14146,"ĠClin":14147,"ĠCarlo":14148,"changes":14149,"eda":14150,"Conf":14151,"Ġengines":14152,"Ġreporter":14153,";<":14154,"ahn":14155,"ĠFranklin":14156,"Ġcancellation":14157,"Ġasset":14158,"Ġprojective":14159,"Edit":14160,"Ġagreements":14161,"Ġchecks":14162,"Ġterminal":14163,"jk":14164,"Ġexponent":14165,"Ġkilomet":14166,"ĠBull":14167,"Ġstrengthen":14168,"tools":14169,"Ġcoc":14170,"Selection":14171,"ĠCleveland":14172,"qual":14173,"ritory":14174,"rations":14175,"Ġsessions":14176,"ĠPap":14177,"Find":14178,"ĠCrit":14179,"rena":14180,"Ġlistener":14181,"ĠFind":14182,"ĠLiberal":14183,"Ġreactions":14184,"Ġfusion":14185,"mate":14186,"Ġindirect":14187,"USE":14188,"Ġdb":14189,"Ġsurrounded":14190,"READ":14191,"Green":14192,"Ġdrums":14193,"Ġtrouble":14194,"}})$":14195,"Ġinfluential":14196,"ĠNag":14197,"()));":14198,"Ġgrass":14199,"Ġphotography":14200,"dual":14201,"Ġranks":14202,"ĠPuerto":14203,"onomous":14204,"ĠDenmark":14205,"ĠPeters":14206,"mac":14207,"ocese":14208,"Ġimmigrants":14209,"accept":14210,"ĠBelgium":14211,"orb":14212,"Ġboson":14213,".]":14214,"notation":14215,"Comb":14216,"eley":14217,"ĠLuther":14218,"ĠSenator":14219,"Ġskip":14220,"ĠMoroc":14221,"News":14222,"ĠIndonesia":14223,"Ġing":14224,"Ġpromoting":14225,"ĠCovid":14226,"Ġsynthetic":14227,"dynamic":14228,"develop":14229,"CV":14230,"Remove":14231,"Ġmaintaining":14232,"Former":14233,"pository":14234,"missions":14235,"January":14236,"270":14237,"Ġcorruption":14238,"Ġride":14239,"hyper":14240,"ĠNeed":14241,"ĠFinn":14242,"serve":14243,"Bs":14244,"ells":14245,"Gs":14246,"}))":14247,"ĠMess":14248,"Ġcogn":14249,"|_":14250,"Ġkit":14251,"alia":14252,"ĠBart":14253,"enny":14254,"chart":14255,"Pal":14256,"arding":14257,"Ġctx":14258,"Labels":14259,"ĠjQuery":14260,"@\"":14261,"displaymath":14262,"TRUE":14263,"Ġclimb":14264,"ĠDid":14265,"ubs":14266,"hattan":14267,"Ġtennis":14268,"Ġconstrained":14269,"NULL":14270,"factor":14271,"ĠPortuguese":14272,"rin":14273,"anim":14274,"bib":14275,"Miss":14276,"Ġbott":14277,"-->":14278,",'":14279,"etry":14280,"Olymp":14281,"gray":14282,"ĠHold":14283,"Mean":14284,"ĠEdinburgh":14285,"Len":14286,"Ġsheet":14287,"ĠVegas":14288,"Ġperturbations":14289,"Route":14290,"ĠBillboard":14291,"zan":14292,"Ġpushed":14293,"ĠCommissioner":14294,"ĠTech":14295,"ĠLeft":14296,"Ġphotographer":14297,"Cert":14298,"Ġconvicted":14299,"Ġarrangement":14300,"nil":14301,"lier":14302,"oidal":14303,"Bigl":14304,"Condition":14305,"Ġperfectly":14306,"Ġproposals":14307,")|\\":14308,"Ġmeaningful":14309,"lab":14310,"Ġanomal":14311,"President":14312,"Ġ$<":14313,"heres":14314,"Ġtexts":14315,"Ġanxi":14316,"Ġsigning":14317,"ĠArkansas":14318,"ĠVolume":14319,"ifdef":14320,"ĠĠĠĠĠĠĠĠĠĠĠĠĠĠĠĠĠĠĠĠĠĠĠĠĠĠĠĠĠ":14321,"Scroll":14322,"Ġdefensive":14323,"atomic":14324,"ĠStudios":14325,"Ġdramatic":14326,"Ġlaugh":14327,"109":14328,"Ġpainter":14329,"ivated":14330,"jud":14331,"Ġfleet":14332,"}^+":14333,";->":14334,"alph":14335,"ĠOrleans":14336,"ovak":14337,"July":14338,"Analysis":14339,"sychiat":14340,"inded":14341,"ĠWorks":14342,"formed":14343,"ĠSS":14344,"qq":14345,"Ġafternoon":14346,"1905":14347,"oths":14348,"ĠAdvent":14349,"{[":14350,"olo":14351,"Ġshifted":14352,"ĠPortugal":14353,"Ġthreatened":14354,"ĠPolitics":14355,"Ġacceleration":14356,"bounds":14357,"Ġconsisted":14358,"Ġease":14359,"Ġtropical":14360,"Ġproves":14361,"ĠIndustry":14362,"ĠCarter":14363,"Ġcosmic":14364,"Ġgradually":14365,"Bigr":14366,"ouver":14367,"ĠStewart":14368,"ĠKings":14369,"ighters":14370,"Ġlegislative":14371,"Ġaffine":14372,"Ġng":14373,"Ġtip":14374,"izz":14375,"identifier":14376,"Ġshorter":14377,"Ġcompilation":14378,"SER":14379,"Comparison":14380,"ĠRobinson":14381,"bn":14382,"ste":14383,"protocol":14384,"ivia":14385,"Ġdemocratic":14386,"party":14387,"Ġtension":14388,"Ġdesigner":14389,"Ġmerge":14390,"Ġsubmit":14391,"Ġdescend":14392,"Plot":14393,"ervised":14394,"abi":14395,"Ġarranged":14396,"Ġarises":14397,"maker":14398,"Ġeg":14399,"ĠHD":14400,"DIS":14401,"backs":14402,"they":14403,"Ġdeclined":14404,"Ġ{{\\":14405,"Loader":14406,"curs":14407,"'',":14408,"dz":14409,"240":14410,"Ġfiscal":14411,"ĠĠĠĠĠĠĠĠĠĠĠĠĠĠĠĠĠĠĠĠĠĠĠĠĠĠĠĠ":14412,"Ġsolely":14413,"east":14414,"Ġactivists":14415,"Ġmotivated":14416,"character":14417,"calcul":14418,"Ġsubsets":14419,"ĠOperation":14420,"ictions":14421,"ILE":14422,"Ġimprison":14423,"Ġpossession":14424,"UTF":14425,"rb":14426,"Ġinitiatives":14427,"imir":14428,"LM":14429,"ĠTher":14430,"Ġmemorial":14431,"errors":14432,"Similarly":14433,"BH":14434,"ĠAngel":14435,"Ġip":14436,"living":14437,"Ġdating":14438,"Ġmirror":14439,"ĠMarshall":14440,"testing":14441,"Ġbarrier":14442,"Ġcontributing":14443,"ĠHope":14444,"ĠKl":14445,"Ġenthus":14446,"Hy":14447,"Ġreset":14448,"Ġpromising":14449,"slice":14450,"ĠLock":14451,"ĠBeijing":14452,"Ġtum":14453,"Ġthorough":14454,"Ġsuggesting":14455,"Ġcombinations":14456,"nc":14457,"ĠNelson":14458,"bridge":14459,"dig":14460,"Ġrevol":14461,"ĠScholar":14462,"Ġ$[\\":14463,"raig":14464,"Ġawait":14465,"pmb":14466,"EEE":14467,"ĠNeb":14468,"ailand":14469,"measure":14470,"ĠPalace":14471,"ĠBachelor":14472,"aco":14473,
[...]
