#version: 0.2
Ġ t
Ġ a
i n
h e
o n
r e
e r
Ġt he
a t
Ġ s
o r
e n
Ġ w
Ġ o
i t
a n
i s
e s
Ġ c
a l
Ġ f
e d
a r
in g
n d
Ġ b
Ġ p
Ġo f
o u
Ġ in
i c
i on
Ġ m
Ġt o
Ġa nd
Ġ Ġ
l e
Ġ d
a s
o m
Ġ h
â Ģ
Ġt h
en t
i l
e l
r o
s t
c t
Ġ S
Ġ re
e t
Ġ T
Ġ l
Ġ n
Ġ e
Ġ A
Ġ C
i d
o t
o l
v e
i g
a m
Ġ g
u t
Ġ I
i m
at ion
Ġ is
a c
l y
Ġ M
Ġf or
u r
Ġ on
a y
a d
o w
u s
Ġb e
Ġ (
v er
ĠĠ ĠĠ
Ġ P
Ġth at
Ġ B
Ġs t
i r
it h
c e
c h
âĢ Ļ
u l
Ġw ith
u n
s e
he r
t er
2 0
Ġ D
Ġ y
Ġa s
Ġ H
Ġ R
r a
Ġa n
Ġ F
e m
Ġ it
Ġ W
i f
Ġa l
Ġw h
Ġ \
Ġc on
a g
er s
o d
u m
r i
Ġ L
a b
il l
ĠT he
Ġw e
Ġ N
Ġp ro
is t
an d
t h
Ġ $
o p
Ġ he
Ġ G
at e
es t
Ġa t
Ġ E
q u
re s
h t
p p
e w
it y
Ġc om
r om
o re
Ġw as
Ġa re
Ġ v
es s
o s
l d
Ġy ou
Ġ âĢ
k e
Ġb y
e ct
Ġe x
Ġd e
o c
Ġ or
Ġ r
Ġ J
en d
i es
m ent
a in
or t
an t
ar t
i v
Ġs e
Ġ O
Ġf rom
Ġh a
i ve
Ġs u
ig ht
n t
20 1
u d
u re
u st
Ġs h
al l
Ġth is
Ġn ot
i al
ar d
p t
T he
Ġc h
ou r
el l
g e
e ar
Ġha ve
Ġ u
. .
o g
Ġ le
t e
re d
Ġ U
in e
o st
ac k
r ou
âĢ Ŀ
Ġ us
p l
ct ion
ou ld
ou t
' s
a k
p er
as t
{ \
p e
f f
ic h
om e
b er
Ġa b
Ġp l
ic al
Ġ K
o k
Ġw or
i a
1 9
0 0
Ġh as
at ed
id e
an s
Ġc an
ĠĠ Ġ
u b
at h
ĠĠĠĠ ĠĠĠĠ
on g
Ġal l
ar y
ĠI n
Ġ j
i z
Ġ k
Ġw he
Ġh is
or m
it e
i p
a p
ic e
t her
ag e
Ġw ill
Ġcom p
am e
ĠS t
ou s
Ġt r
ul t
u e
i e
p h
Ġc l
as s
c l
Ġb ut
a re
g h
ion s
in d
ĠâĢ ľ
Ġn e
c c
Ġ -
Ġa d
e p
Ġg o
Ġ V
Ġm e
ab le
ig n
ation s
ac e
Ġthe ir
a ct
Ġd o
Ġ &
Ġre s
Ġ im
Ġ en
im e
Ġcon t
Ġwh ich
on e
Ġo ut
Ġ un
Ġthe y
an ce
i b
a v
ĠT h
r y
o ok
Ġ "
Ġin t
en ce
Ġon e
d u
al ly
Ġm ore
i re
ĠC h
Ġwh o
or d
_ {
Ġu p
r u
s o
as e
on d
e g
Ġs p
en s
an g
k s
Ġs a
ac h
Ġa pp
ver y
in t
f orm
it ion
ent s
Ġwe re
o v
e re
a il
Ġ Y
a ke
Ġp er
Ġab out
Ġs o
Ġa r
Ġd is
Ġ$ \
or y
res s
i an
el y
Ġm an
x t
ay s
1 0
ow n
Ġl i
Ġ her
l l
Ġe v
Ġa g
i le
ou nt
p ort
Ġp art
f t
ou nd
c om
or s
o se
ar k
Ġs c
Ġn ew
Ġo ther
o b
re e
er v
m er
il d
Ġt e
v el
Ġit s
Ġy ear
ver s
Ġbe en
m ath
Ġ qu
Ġal so
Ġof f
) ,
is h
r ic
Ġh ad
n e
ol l
ir st
re at
o ve
) .
Ġo ur
Ġo ver
l ic
w o
20 0
ing s
Ġthe re
č Ċ
ol d
Ġ =
ĠI t
Ġw ould
e c
ro w
Ġt ime
at es
c es
Ġan y
Ġth an
Ġ if
Ġp re
Ġyou r
f ter
on s
Ġs ome
r it
Ġwor k
Ġp e
Ġsa id
nd er
Ġre c
w e
ĠâĢ ĵ
us e
Ġwhe n
Ġthe m
cl ud
Ġk n
v i
f ere
Ġint o
m a
Ġ ro
o y
} \
Ġm y
p s
he d
ĠH e
Ġ Ċ
op le
a w
Ġli ke
ter n
ig h
Ġf irst
} $
ic k
Ġa cc
in k
u al
on t
is s
Ġs he
n g
j ect
n ing
ad e
^ {
at er
Ġwh at
am p
ation al
s s
Ġb et
Ġt wo
Ġg et
I n
ĠU n
er m
o od
Ġcom m
Ġd es
ri b
ic s
ol og
Ġj ust
Ġn o
Ġin d
et h
Ġbe c
r am
ĠW e
le ct
Ġpe ople
u c
e f
p ect
1 2
Ġon ly
pe c
Ġcon s
Ġs y
Ġf e
ur n
o ol
.. .
o int
re f
t he
l i
Ġa m
/ /
c ed
Ġu nder
1 8
Ġh ow
l es
Ġb l
id ent
ĠC om
Ġa ct
en er
ĠĠĠĠ ĠĠĠ
is e
if ic
rou gh
Ġa fter
it ies
y s
rou nd
u g
Ġin clud
Ġm od
at ing
er t
} }
h at
ĠN ew
t a
ou gh
Ġm ay
oc k
Ġas s
ar i
ul ar
ic t
as ed
Ġe m
a use
Ġd if
Ġre g
Ġc o
ot h
1 1
Ġpro v
Ġwhe re
Ġpl ay
Ġin v
t y
Ġm ost
at a
( \
âĢ ľ
ĠR e
Ġo b
al s
Ġh im
w ard
or k
Ġf l
Ġat t
p ro
at ive
st em
ĠTh is
. âĢĿ
w n
Ġsu b
Ġp h
it t
Ġth rough
Ġre l
Ġb ack
el f
Ġst ud
ĠP ro
il ity
ment s
p r
eg in
it ed
g et
Ġad d
Ġthe se
ub lic
os s
- -
d ay
Ġc ould
Ġp ol
Ġsh ow
l and
Ġsu ch
Ġse c
ĠA r
1 5
Ġs et
Ġsu pp
ĉ ĉ
u nd
e x
b egin
u res
Ġin c
f r
ut ion
ar ch
Ġa c
an c
Ġse e
Ġyear s
Ġw ell
Ġt ra
ur ing
Ġp res
Ġtr ans
if e
ow er
an ge
i el
u p
il y
Ġne ed
i ed
' t
h ip
Ġkn ow
oll ow
Ġde f
Ġre m
c al
Ġthe n
c ess
Ġ [
ul l
he n
ib le
u ch
u es
r ight
i o
i vers
im es
Ġpro du
it s
ĠD e
T h
Ġin ter
re n
i x
in al
Ġe very
em ent
Ġn ow
ri v
) $
_ {\
t s
Ġe ff
f ul
an y
we en
Ġag ain
i ent
te xt
ar s
Ġ |
ra ct
he s
vel op
ĠA l
m an
Ġp r
Ġ <
in s
) ;
ĠS e
as h
ot her
n er
3 0
1 6
Ġd id
Ġ ent
a ir
ĠS h
ou n
Ġev en
Ġc ol
a x
ak ing
pt ion
Ġdif fere
Ġb u
ers on
f ore
Ġde c
t ing
b le
a h
ĠA n
Ġs m
in ce
vi ew
w w
Ġbet ween
} {
Ġl ook
is m
ic es
Ġ end
ch ool
l ine
Ġs ur
Ġman y
an k
Ġbe ing
ĠA nd
o ver
Ġus e
Ġre t
as on
in es
mer ic
Ġsy stem
1 4
Ġw ay
Ġr ight
Ġf ollow
Ġn um
i ence
el s
iel d
Ġch ar
Ġm ake
Ġfor m
Ġ very
o h
Ġ {
en c
Ġs erv
e qu
al th
1 7
form ation
Ġbec ause
1 3
Ġd et
c on
Ġl oc
p os
Ġsh ould
us s
t t
ĠT r
g an
Ġw ant
Ġh igh
Ġs im
Ġs pec
} ,
e k
p le
Ġg u
, âĢĿ
ut h
= "
ist s
Ġb r
ire ct
Ġ ke
o x
v en
Ġwor ld
s p
Ġf un
w ay
Ġs ign
Ġo wn
Ġc or
Ġex per
Ġar t
Ġhe l
Ġus ed
oc i
al e
at ure
iv es
Ġin st
W e
at ch
d er
in ess
ra ph
Ġl ong
Ġdo es
Ġdis c
s c
Ġc all
Ġm on
Ġv al
Ġp oint
Ġd ist
in ed
olog y
: //
ab el
fr ac
ĠF or
a ve
Ġg ener
r al
ĠC l
ĠL e
ĠS c
re st
Ġst r
od e
Ġb el
c ite
Ġm uch
t on
rou p
Ġth ose
Ġcl ass
Ġgo od
âĢ ¦
Ġst art
. ,
Ġth ink
Ġres ult
l ed
Ġle ad
Ġm em
iz e
p en
Ġm ade
at her
ch n
Ġ ra
19 9
Ġd own
Ġd ata
Ġex t
2 5
Ġe ach
c k
Ġc ount
Ġbe fore
ĠA meric
e q
et s
Ġg r
Ġc ur
ĠA s
ction s
ou se
Ġd on
Ġin te
t en
ĠâĢ ĺ
Ġ '
ect ion
t o
an n
Ġm in
Ġhe re
Ġde velop
Ġre ad
r m
am es
c ent
Ġl ast
i ous
o f
00 0
e ver
Ġs er
ag es
Ġf il
al k
Ġf am
ical ly
o ot
Ġb oth
Ġwh ile
S t
le t
g ram
iz ed
er n
ter s
Ġ Z
is ion
Ġm ed
Ġe ar
201 9
g y
or n
Ġre qu
us iness
ĠY ou
Ġs ame
it al
Ġ Q
ro ss
ivers ity
Ġdiffere nt
Ġhel p
Ġ ed
ĠI nd
v ent
2 1
Ġc ar
Ġex p
u ally
re nt
n ess
g er
Ġf ind
re ad
math b
ĠĠĠĠĠĠĠĠ ĠĠĠĠĠĠĠĠ
a u
n ce
Ġth ree
ut e
ĠA d
Ġre p
am b
Ġapp ro
a z
m s
e red
Ġf ound
ru ct
< /
ĠB ut
Ġg reat
Ġsupp ort
ĠI s
5 0
a pp
ĠB l
Ġ *
Ġre al
201 8
Ġ +
E R
Ġst ill
Ġv i
ĠâĢ Ķ
Ġc ent
ĠW h
ak es
l abel
f ig
Ġl ar
g ht
Ġcomm un
Ġt ake
i k
Ġf in
ant s
I t
ĠP h
Ġre port
Ġp ublic
Ġin formation
Ġs ay
er ing
Ġf act
Ġpart ic
Ġs om
r on
Ġh and
Ġte am
ur al
i er
Ġd uring
, \
Ġs ol
ce pt
$ ,
Ġp erson
ar r
a j
ĠF r
a red
at or
Ġcon st
ar m
2 4
ot s
re t
is hed
ot e
Ġa round
v ed
$ .
as es
p art
. "
m ber
Ġs l
Ġl ife
m b
Th is
âĢ ĵ
Ġsec ond
Ġex pl
Ġper form
Ġg l
Ġin f
math cal
equ ation
Ġnum ber
ĠC on
Ġv ari
Ġcont in
Ġe qu
Ġd ay
i red
um p
ĠP l
et y
Ġs ays
Ġp at
e b
Ġa v
an e
Ġc our
} .
ĠE x
Ġo per
in a
us ic
Ġeff ect
b y
Ġm ark
Ġprov id
he re
Ġc re
Ġb ook
p ar
Ġre f
ion al
Ġus ing
Ġagain st
Ġb est
Ġg ame
at t
Ġr un
et a
Ġst ate
Ġp ar
y ing
Ġpro cess
ial ly
b ers
Ġ }
en se
en g
ro l
Ġ i
r ation
iz ation
Ġres p
ĠCom m
2 2
od y
ĠM ar
Ġc he
or th
Ġ est
enc y
le y
ou th
v ing
Ġc ase
iv en
Ġt y
Ġch ild
s on
Ġin s
le ft
m in
Ġ .
Ġinclud ing
ĠM ay
Ġv is
ĠT e
ĠR es
ĠS he
oh n
ĠC ol
201 7
ill ion
} )
em ber
b s
Ġp ost
l ess
âĢ Ķ
Ġre ally
Ġ /
Ġs ince
Ġw rit
om en
Ġc a
re en
in ing
n ment
g ed
Ġo pen
ĠU S
iss ion
b e
v es
I N
} (
Ġgo ing
at ic
Ġre le
ĠH ow
Ġim p
r ist
un e
} _
m ed
Ġc r
Ġinc re
Ġgo ver
ĠS p
2 3
Ġc are
Ġte chn
y n
} ^
u ro
le ar
~ \
er r
Ġpro gram
o ad
ph a
Ġp oss
ĠUn iversity
ot t
Ġl aw
Ġd irect
ĠI f
Ġd el
Ġst and
Ġe le
Ġm ov
Ġp os
O N
s elf
Ġis s
Ġ el
ĠThe y
Ġm ain
ar n
201 6
ĠB e
Ġp ower
g est
Ġp ass
Ġdes ign
iv ely
al ity
ac y
.. ..
Ġm at
s h
Ġb usiness
ĠA ll
d a
Ġsm all
Ġto o
Ġim port
en n
ur y
Ġto p
Ġs chool
ir d
amp le
m e
Ġinte rest
Ġinv est
ĠĠĠĠĠĠĠĠ ĠĠĠ
i or
Ġt erm
ain s
o ber
i ver
Ġhe ad
iv ing
ab ility
p ut
is ed
uth or
Ġh um
l ing
Ġan n
Ġ Â
ri end
Ġpres ent
C h
Ġn on
c o
b r
eth od
Ġf ew
Ġh ist
Ġt est
Ġpro t
Ġan other
Ġre st
ou ght
w ays
Ġle vel
Ġs ing
Ġha pp
Ġad v
Ġl ist
it ions
Ġpl ace
Ġp op
al pha
Ġd em
Ġh ome
if ied
R e
ĠO r
ain ed
id er
Ġall ow
Ġbu ild
vi ous
ĠC ent
Ġt ri
ĠM an
et er
oc ial
4 0
itt le
A R
qu e
201 5
at ely
Ġwe ek
res ent
S T
Ġmon th
ert ain
Ġg roup
our ce
ur s
Ġle g
cc ess
A T
le x
Ġre ce
Ġm ust
u ly
pl oy
ĠĠĠĠ Ġ
Ġpro ject
uc k
Ġret urn
Ġcon f
Ġan al
Ġf our
2 6
en e
f or
Ġne xt
Ġwith out
Ġb ig
s y
Ġchar act
19 8
ic le
Ġ X
2 7
ĠO n
Ġo pp
2 8
w ork
o ard
p or
ul ation
Ġpro f
ĠE ng
ir c
or ies
Ġst at
Ġs pe
or ld
Ġbe h
Ġb re
ord ing
Ġor gan
ub l
ĠJ an
Ġm et
Ġg row
re am
st and
Ġcur rent
i um
Ġpro ble
th ing
) \
ĠT o
eth ing
a im
A N
g r
Ġmod el
20 20
ĠJ ohn
Ġre se
Ġqu est
201 4
e e
Ġse em
Ġne ver
o le
ail able
O R
Ġfun ction
ent ly
in c
Ġor der
Ġhe alth
ĠR ep
Ġle t
ht t
Ġfam ily
ne y
Ġf r
s ub
Ġn ame
tern ational
ent ion
el ta
Ġs k
Ġp ut
ent ial
at s
Ġbet ter
Ġw in
ir on
iv ed
Ġe lect
Ġdes c
2 9
Ġo ld
Ġst ory
Ġb ro
1 00
Ġcom e
Ġfollow ing
Ġc ap
a i
Ġwith in
er y
Ġcomp any
" >
is ing
6 0
$ \
A s
Ġl ine
Ġbel ie
ab ly
Ġg iven
Ġloc al
ĠC an
Ġde p
am ma
amb da
iv id
i ents
Ġcon d
Ġsom ething
Ġm ight
ight s
in ation
Ġoff ic
ĠThe re
ĠAmeric an
Ġ et
Ġth ings
Ġl ess
ĠC ar
Ġman ag
Ġg ot
Ġle ft
con om
ff ic
ĠM ed
ĠUn ited
Ġf ac
ur ch
ĠS u
h o
ww w
Ġex pect
s et
* *
Ġt urn
aj or
op e
ĠN o
ĠP r
Ġm ult
Ġh ard
Ġf ield
ĠB r
Ġprodu ct
Ġ ide
201 3
ro p
_ \
v al
g in
Ġ ident
ĠP ol
Ġrec ord
Ġvi ew
E S
Ġb as
ur ther
um ent
Ġpro per
Ġm usic
ĠC o
are nt
ric t
Ġpl an
og raph
Ġl ittle
Ġen g
Ġgover nment
it ive
, "
Ġch ang
Ġ\ \
us h
Ġp rom
on y
t r
Ġa ff
Ġn ear
or g
Ġwor d
Ġf ull
ig ma
Ġav ailable
ĠG r
Ġal ways
is on
A n
Ġor ig
m u
our n
Ġn et
Ġb ased
ab l
ĠTh at
ri es
Ġimport ant
Ġfe el
Ġke ep
Ġ #
ĠA t
Ġch ange
Ġm ethod
ate g
y l
ĠF l
fere nce
mathb b
Ġl im
id d
e ad
i am
Ġpol it
w are
Ġl ot
b all
m m
201 2
Ġm ar
Ġe as
is ter
ĠO ct
Ġh tt
ic y
E N
os p
ĠA pr
a f
Ġact iv
ure d
Ġas k
= \
Ġme as
et ing
one y
ĠG u
ut ure
Ġme an
i ke
ition al
Ġl a
our s
ĠS o
ide o
} _{
Ġal ong
o or
Ġf ree
as ter
ra w
end ed
i ans
ward s
o id
ĠE d
Ġcount ry
B y
Ġ z
t il
Ġcall ed
Ġc ost
st r
F or
al es
Ġcon c
Ġde v
ĠS y
ĠCh rist
Ġw ater
A S
Ġ :
ĠA ug
and s
it ing
ĠA pp
Ġcont rol
u ary
Ġstud y
I D
il ar
Ġf ar
Ġd ays
ver t
Ġl ove
A L
ĠA ss
us ed
w it
Ġresult s
le ction
Ġs it
i en
n ot
ĠE uro
" ,
an ces
al f
s ide
Ġval ue
Ġp ay
Ġse ason
v iron
ard s
19 7
Ġf riend
du ct
n ect
ĠW orld
ĠW ith
-- --
im ate
Ġ ve
ust om
Ġo cc
ru g
ag n
ĠY ork
Ã ©
ob al
} ^{
ac es
Ġle ast
Ġacc ess
end ing
m y
b f
Ġlar ge
rib ut
ĠS te
Ġc ell
ir l
ĠC ount
ĠSt ate
se c
Ġm ove
Ġo pt
ap s
Ġm ajor
Ġwh y
Ġare a
Ġf und
201 1
H e
it or
ur ity
- \
Ġsu ccess
Ġim pro
ort un
Ġp ot
it her
Ġli k
ph i
a ff
Ġser ies
P h
read y
ver al
ĠN ational
Ġm illion
Ġac ross
g es
ĠA b
ow s
Ġhum an
ĠJ uly
Ġ es
om an
Ġev ent
Ġp a
ĠM c
Ġa way
Ġfil m
ĠM arch
b ar
ore d
Ġchild ren
iv al
ĠNew s
on es
Ġcommun ity
Ġw omen
Ġkn own
ĠJ une
ĠE n
Ġpartic ular
re m
se ction
Ġsp ace
Ġp ast
Ġan t
Ġrep resent
I C
Ġ x
Ġex ample
i od
ĠA ust
Ġp ract
P ro
Ġserv ice
E x
Ġf ore
201 0
Ġres pect
Ġen er
y le
st er
id ence
re g
Ġd i
Ġth ought
3 5
Ġph ot
Ġexper ience
ort s
ĠP res
Ġm aking
^ {\
ol ution
Ġs ocial
Ġt imes
Ġl and
ĠS chool
id es
Ġprov ide
at ors
ĠM in
Ġ {\
ĠC ity
a ut
re w
Ġdisc uss
p m
Ġh y
Ġch o
Ġun til
Ġg ive
e le
c hed
W hat
b ack
if t
Ġc lear
I f
Ġex c
ĠF eb
Ġyou ng
Ġrese arch
Ġind ust
Ġre du
Ġl ater
Ġ vers
c he
a pe
8 0
Ġab le
Ġob s
Ġa uthor
Ġal ready
Ġcl aim
Ġcl os
ĠSt ates
Ġcharact er
Ġt em
Ġc ity
Ġ- -
re l
Ġdid n
p i
Ġmem bers
Ġ @
Ġh old
Ġapp lic
id th
al ign
l ambda
Ġwork ing
ĠM e
ĠEuro pe
viron ment
b l
Ġf re
as k
Ġl ow
Ġm il
ep s
4 5
Ġsh ort
Ġse veral
pl ay
ri pt
Ġc amp
ĠG e
ĠN e
un g
Ġha ving
Ġth ough
Ġear ly
Ġp riv
Ġstr ong
Ġto day
er al
Ġinv ol
our ces
st it
Ġs um
Ġposs ible
ys is
ĠS ec
Ġa ut
Ġre view
ĠW ill
Ġunder stand
ak en
Ġem ploy
d e
i pp
com m
I T
ĠApr il
ĠW hat
Ġt ell
Ġbec ome
Ġh ig
h y
Ġc ult
get her
Ġto gether
Ġs ide
g o
Ġinclud e
um e
Ġf oc
ĠSe pt
ĠC al
at ures
b ook
re et
ro ll
Ġm om
ro du
ater ial
ĠP art
il le
Ġsing le
ific ation
Ġe ver
d d
Ġapp ear
if y
u ed
is k
Ġcour se
ra in
ivid ual
Ġto t
Ġf uture
Ġk ind
A l
Ġth ing
Ġen ough
m ost
ress ion
Ġc rit
Ġpro b
3 3
is c
Ġspec ial
E D
ra ft
Ġhist ory
Ġl ight
Ġa ir
Ġd ue
ep end
mathb f
Ġr ad
) :
Ġf inal
ail s
s um
ver age
ĠS outh
ĠJan uary
H ow
ĠA g
Ġse en
f er
Ġnew s
Ġst ruct
Ġstud ents
Ġdesc rib
Ġsign ific
Ġdevelop ment
Ġm en
Ġcom b
Ġe conom
C om
Ġab ove
Ġam ong
l u
Ġof ten
ar ing
Ġt reat
le ase
s el
Ġme ans
pl es
Ġc ame
ove mber
ent al
Y ou
Ġw r
Ġener gy
le ge
i que
ĠC ont
A C
I S
Ġm ass
Ġb en
m p
n ers
ar get
3 1
ang le
ce mber
A nd
Ġin it
ĠA f
Ġc ou
Ġv ol
id s
Ġs elf
t ain
Ġtr ad
Ġc reat
Ġt alk
Ġc ertain
Ġf urther
ĠHow ever
ang u
ill s
Ġgener al
ĠN orth
Ġd r
ĠO ne
f ace
u k
ad a
Ġsu per
l er
il on
Ġsu g
Ġn ight
9 0
Ġserv ices
ic ro
ĠP ar
Ġproble m
ab or
u ff
Ġf ive
Ġto ok
Ġsim ilar
h am
R E
oun c
O n
ĠAr t
ĠW ar
Ġj ob
_ _
oc r
Ġm akes
ĠC or
' re
Ġass oci
Ġother s
he l
Ġc al
Ġind ividual
w here
ĠAug ust
c hes
= =
Ġmark et
Ġmed ia
Ġacc ount
ĠA ir
U S
Ġt re
ĠOct ober
Ġe p
200 9
olog ical
n ow
ĠG l
ill ed
7 0
Ġdet erm
Ġw on
ist ic
og n
Ġsu re
g a
Ġs ound
ĠTr ump
ĠSept ember
s igma
ĠW hen
ĠB y
Ġsa f
C on
am a
ie f
Ġdoes n
Ġs ong
g ing
Ġde ath
ild e
math rm
b eta
u ation
Ġpre vious
c er
Ġ >
Ġper iod
ĠM y
cl us
u le
it er
Ġw ar
Ġ ,
l in
Ġc ustom
ĠS erv
ĠD av
if f
ĠG o
ourn al
Ġshow s
an a
ear ch
Ġde al
Ġen c
c d
Ġd one
r ing
Ġl ive
} {\
Ġre ason
Ġst op
Ġp ubl
Ġsignific ant
ra p
Ġhapp en
Ġto ld
ĠN ovember
c ol
Ġed uc
Ġperform ance
ĠPres ident
Ġty pe
r ay
Ġex ist
0 1
( )
w h
Ġon ce
ru ary
Ġcons ider
o on
ĠH ouse
Ġke y
Ġb it
bs ite
ĠB rit
Ġob ject
ĠDe cember
a ul
o e
Ġs ite
ĠB ar
ĠW est
3 6
Ġpoint s
Ġg en
ĠA ct
Ġy et
Ġp ress
th ough
rib ution
n ew
Ġm oney
^{ -
Ġatt ack
Ġrel ations
T o
Ġd ri
in o
ĠCount y
Ġ( \
Ġm ot
à ¤
Ġd om
ĠQ u
he ad
ĠD ep
ĠS ch
her s
Ġa ction
The re
ib r
Ġp red
Ġle arn
un ch
Ġcomp ut
as ing
Ġl at
Ġag o
ing ton
Ġwor ks
il ities
ĠN ot
Ġv ideo
Ġh ouse
Ġty p
Ġj o
al d
Ġs at
ĠM ark
em pt
ib ility
Ġann oun
pl ic
H E
ĠR eg
S h
Ġwhe ther
n a
Ġph ys
ru ction
Ġact ually
Ġsug gest
Ġquest ion
il t
op y
ud e
ond on
a ction
ĠAust ral
Ġth ird
Ġm aterial
ul es
Ġp ri
3 4
itt ed
h ib
ĠCom p
Ġtr ue
Ġde b
ĠC O
Ġch all
N ew
ĠAmeric a
\ \
Ġfor mer
B ut
ar row
ĠThe se
au gh
200 8
Ġf oot
s w
it le
ĠA m
ĠP er
row n
ain t
Ġtr ack
A M
n ces
res p
* }
g amma
ict ion
Ġw ent
Ġp ort
3 7
Ġg ames
ri ed
ĠS m
c ast
Ġdif f
ĠE l
Ġcomp let
ĠR uss
Ġper cent
r is
o ff
um b
ĠP e
Ġf ood
ra g
Ġro le
y ear
Ġmonth s
im al
Ġh alf
ĠHe alth
ĠM r
0 5
b ig
Ġinvest ig
] {
it em
t ime
^ \
Ġd oc
Ġlook ing
Ġb ody
ir m
Ġs w
A r
Ġe ither
Ġprof ess
Ġcon nect
b um
3 2
tern al
pos ed
her n
Ġm or
ĠSt ud
Ġcom es
19 6
Ġobs erv
ĠCh ar
ĠD o
Ġtot al
Ġcomp et
3 8
Ġa ud
ur b
an ies
ut ions
Ġf av
the ta
+ \
at ory
a pt
ĠR ec
ĠFeb ruary
Ġdo ing
min ist
Ġs ix
Ġc oll
ounc il
end s
ĠM ore
Ġadd ress
Ġe y
Ġcomm on
ĠĠĠĠĠĠĠĠ ĠĠĠĠĠĠĠ
id ay
ĠP ark
Ġstart ed
Ġnet work
Ġacc ording
z e
j oy
ag ue
err or
Ġt aken
og le
) }
d ef
a ur
Ġf ace
ac ed
orm al
at ural
Ġb i
Ġterm s
Ġar g
Ġt ax
on se
ig ure
ĠH ar
ĠK e
ĠU K
Ġa ge
ess age
Ġab s
Ġt arget
0 7
Ġindust ry
Ġben ef
ĠH er
ĠH is
Ġest abl
ĠI nt
Ġopp ortun
ch ie
um n
ens ion
he m
Ġcont ent
Ġind ic
ĠAf ric
d elta
g ress
Ġm iss
htt p
ell ing
ĠL aw
b ased
4 8
Ġbr ing
Ġpot ential
Ġb o
Ġr ange
a el
Ġm ind
Ġperson al
r ho
Ġl in
9 9
f l
ĠI m
Ġal most
Ġp ur
ta u
a ign
Ġbuild ing
Ġs ent
Ġro om
ĠA fter
Ġpat ients
a ult
rou ps
Ġen vironment
Ġel se
fig ure
ip le
ut es
ct or
Ġint rodu
al y
Ġf all
oci ety
Ġpos ition
Ġplay ers
A P
Ġresp ons
ĠB ro
am ed
qu ad
l im
Ġon line
ĠM on
lect ed
Ġr ather
Ġd ou
Ġcl ose
ĠD r
Ġf ail
Ġcomp le
Ġc ut
le q
Ġse x
ir t
. )
Ġc ases
Ġorig inal
Ġn ational
ke y
U n
Ġc irc
ĠM ich
Ġword s
c y
Ġoffic ial
sel ves
T r
Ġbe gin
ĠL ondon
ĠG erm
Ġwho le
Ġsystem s
ig ital
pec ially
ĠS er
Ġbl ack
h ing
ou d
it ary
arr ay
3 9
Ġvis it
an ks
ĠK ing
is es
ĠD es
Ġiss ues
E C
Ġappro ach
Ġtechn ology
$ -
Ġr ate
it es
l ish
Ġget ting
Ġent ire
Ġrequ ire
4 4
Ġpar am
Ġfoc us
Ġt w
c a
angu age
ĠD on
ain ing
ad es
5 5
Ġbelie ve
Ġh om
Ġhe art
et ic
Ġfr ont
anc ial
ĠIn ternational
Ġvi ol
ĠT ra
g round
0 8
ic les
Ġw ind
Ġ ill
eq ref
Ġbel ow
e al
Ġw atch
f ect
w idth
Ġb ar
Ġt aking
n es
er a
Ġd en
el t
200 7
art ment
Ġbeh ind
ĠCent er
Ġpolit ical
Ġneed s
Ġanal ysis
Ġb ound
Ġsub ject
Ġrec ent
0 4
ĠP at
Ġfe atures
C l
Ġg round
ĠC our
Ġbre ak
Ġh ost
h old
Ġev ents
Ġimp act
' m
ĠD em
Ġvari ous
Ġprot ect
op h
}$ ,
m it
ad d
id ge
I I
Ġhig her
mb ol
idd le
ip s
at ur
x i
Ġlik ely
o res
ĠH igh
Ġh ours
Ġsh own
Ġhow ever
}$ .
al t
Ġc y
op s
m l
Ġprodu ction
Ġne g
ĠF in
eng th
u el
t imes
p d
0 6
ul ly
Ġwe bsite
os ed
ĠO f
} (\
b or
Ġreport ed
Ġp ath
Ġmom ent
B C
Ġb ad
Ġen joy
ma z
Ġcre ate
op er
id ed
ish ing
Ġim m
ĠO ff
Ġv ia
or ks
ak er
Ġpartic ip
in ary
ĉĉ ĉĉ
Ġr isk
Ġag re
end er
ĠT V
Ġcomp anies
ĠG od
Ġs ens
Ġprovid ed
Ġw a
ap an
ad em
Ġtra ining
am ent
Ġgl obal
m od
it te
med i
ec ut
f ield
0 9
ĠMan ag
Ġart icle
Ġs ection
ĠA ng
i res
ic ult
E T
ĠIn c
k y
att le
Ġhe ld
Ġpol icy
led ge
Ġchang es
Ġex am
Ġ ...
r an
c ont
av ing
W hen
Ġiss ue
7 5
Ġs ize
ens ive
resp ond
Ġte xt
Ġ //
Ġre d
f ord
se e
ĠS en
Ġsh are
ĠJ ust
Ġfe ature
iv ity
L L
Ġl o
Ġadd ition
Ġam ount
Ġvers ion
e ed
n u
Ġa chie
com ing
Ġd est
Ġcom ing
Ġany thing
y m
ri x
c le
Ġright s
Ġimpro ve
part ial
Ġo p
epend ent
4 9
- >
n ov
ft y
f act
ĠN et
Ġst re
Ġhtt p
Ġre pl
Ġpr im
ab les
Ġal bum
ĠInd ia
Ġide a
O T
op t
itt ing
ĠE m
Ġne cess
Ġseem s
Ġp arent
i et
Ġpart y
v ar
Ġl oss
Ġpriv ate
Ġdef in
u x
Ġcomp lex
Ġl og
0 3
' ve
Ġqu ick
ur g
Ġrelations hip
0 2
Ġpa per
il i
Ġp o
Ġche ck
Ġrec ogn
Ġup d
l ation
Ġsh all
W h
Ġqu ite
Ġmat ter
ener al
ĠS an
Ġso ft
Ġadd ed
Ġmem ber
Ġfriend s
Ġto wn
Ġg roups
Ġare as
se qu
Ġpol ice
Ġf ire
ĠV al
ul ations
Ġst ates
Ġsome one
ĠD ay
um ber
h ood
et t
Ġcont act
Ġpre t
ord er
A D
4 6
Ġes pecially
Ġen s
Ġb and
Ġpres ident
Ġfor ward
in clud
Ġnot hing
Ġro ad
Ġg irl
Ġbec ame
Ġrece ived
Ġt akes
Ġl ay
Ġde g
ĠDav id
ĠL a
Ġcontin ue
o o
Ġv ot
A ll
if orn
Ġcour t
ar ies
ch an
o ice
ce ption
Ġs ense
20 21
O S
ĠC ons
t ilde
im ent
Ġreg ion
Ġcond itions
htt ps
ce ed
Ġac cept
Ġval ues
Ġcamp aign
in fty
Ġem b
Ġw alk
Ġrequ ired
ail y
ov ed
et ers
at form
iz ing
4 7
Ġp ie
ag s
| \
p re
est s
ĠPh il
Ġqu ality
ĠBl ack
iv il
Ġsec urity
y pe
ic a
Ġoff er
Ġmod els
ome ga
Ġs ource
Ġask ed
b it
Ġh ot
ĠCh ina
Ġup on
Ġlead ers
u ge
l oad
: :
Ġre ve
ple ment
Ġl ate
im um
Ġis n
Ġtr ying
ĠComm un
Ġc ross
ĠF rom
s u
Ġconc ern
ed eral
er o
I G
l ight
Ġs us
200 6
pp ed
Ġevery thing
Ġtra vel
ot o
p ly
IN G
i j
du c
Ġp age
ĠDep artment
iforn ia
Ġproduct s
ien ces
an ced
osp ital
Ġmeas ure
ove red
c ome
' ,
Ġf ight
sp ace
h a
Ġme et
Ġspec ific
ograph y
Ġprob ably
t ies
S o
Ġreg ard
ĠD is
ĠTr ans
ĠM or
ra b
ĠO ur
Ġl ower
ĠAss oci
wo od
ou l
Ġinclud es
wit ter
ac hed
Ġcont ract
ĠSt reet
Ġrele ase
es e
ĠEng lish
Ġexpect ed
ar a
id a
Ġa verage
Ġh on
Ġl ink
ĠA c
I ON
or ge
ic ation
av es
Ġdiff icult
) )
ide red
Ġincre ase
Ġtr y
at ives
w ide
com es
ĠS w
ĠB ook
Ġst aff
ri ption
ĠG over
Ġp ers
Ġmanag ement
n y
Ġstand ard
ĠD irect
Ġim age
Ġp ack
Ġh or
ĠH ol
Ġhim self
ĠWill iam
Ġeng ine
d om
Ġwrit ten
Ġplay ed
v is
ĠC he
ĠCol lege
Ġcom ment
Ġcan not
Ġ< /
ix ed
Ġits elf
ly ing
ar c
re ct
ar ter
Ġar ch
Ġinf lu
W ith
Ġevery one
Ġcons um
Ġtreat ment
ĠR ed
Ġd am
u ild
ast ic
Ġse par
ill ing
Ġresp onse
li er
ĠRe view
or ing
! !
as c
Ġwant ed
Ġin ternational
Ġinclud ed
us es
Ġle ar
Ġv ict
ul ated
Ġcor respond
ĠH ist
c ial
D elta
Ġin j
ĠO b
Ġrele ased
Ġbe aut
cd ot
p ite
ĠJ apan
eg a
Ġatt empt
e ks
Ġout side
U R
um ents
v ille
n o
Ġrel ated
Ġw ond
ĠG roup
Ġgrow th
ful ly
L E
ĠA cc
ric k
ac hes
fere nces
Ġc red
un t
ĠCour t
ĠRep ublic
Ġde ep
R es
ress ed
Ġwh ite
Ġh it
Ġs ect
i ber
" .
v ision
od es
ĠF irst
Ġst e
Ġdec ision
Ġ ver
Ġneed ed
Ġoff ice
Ġw oman
Ġco ver
yn am
ĠThe n
Ġcons idered
Ġaff ect
d own
Ġev idence
Ġthem selves
Ġproper ty
Ġprovid es
Ġgr ad
g en
e v
Ġhtt ps
Ġpubl ished
Ġassoci ated
ag ing
e es
A t
Ġst ay
re c
Ġpri or
ir th
Ġrec ently
om et
m ing
ĠU s
i ew
Ġc le
am s
e xt
il es
li ke
Ġsp ect
Ġstruct ure
Ġbeh av
Ġst ep
er ve
Ġbe gan
Ġc ele
itte e
Ġl ost
5 6
Ġpop ular
Ġsa w
ash ington
ang er
es tern
ĠS im
ĠRes earch
ro te
Ġcre ated
ach ing
} [
5 00
o ke
Ġb oard
w ith
i qu
ĠN ow
Ġso on
all s
ĠE ast
om b
m on
Ġl iving
Ġcomple te
ĠC ouncil
Ġp ick
sy ch
p ose
c ing
ĠE ar
eq n
R O
S c
at ter
port s
ĠBrit ish
Ġd er
ro om
s q
I s
Ġn ov
Ġeduc ation
? âĢĿ
av y
ord s
ra el
Ġcount ries
Ġmov ie
Ġe mer
Ġse arch
Ġus er
Ġcon duct
air s
ĠIn stit
Ġdis e
oc al
ĠD ist
ess ion
200 5
Ġex act
Ġplay ing
Ġve h
Ġcal c
ĠCal ifornia
ĠP aul
Ġ ess
Ġbl ock
.... ....
Ġan sw
ve y
C C
Ġt our
m ission
Ġb ase
Ġto ol
P ost
Ġlear ning
Ġn atural
Ġcare er
Ġj ud
Ġlevel s
ĠY our
Ġse qu
ren ch
Ġbro ad
Ġqu ant
l am
g or
Ġbu ilt
Ġ$ (
' ll
Ġwrit ing
Ġh ope
Ġproble ms
en ces
9 5
Ġquest ions
t ained
Ġst ri
] .
l og
Ġr ound
y ond
Ġca pt
b ox
Ġdescrib ed
ĠTe chn
Ġest im
Ġd ate
Ġwho se
Ġannoun ced
Ġm other
m ar
ĠP ost
Ġm ag
ĠP al
Ġcell s
T hat
4 2
le ment
Ġl ives
C O
ob ile
Ġc and
Ġt al
Ġleg al
Ġinst ead
m ore
Ġmin utes
ĠA nt
Ġcons ist
Ġl anguage
ore m
Ġlead ing
Ġw ays
ace book
Ġsim ple
Ġdem on
r or
Ġeffect s
20 00
Ġim plement
it ation
le g
Ġanal y
use um
a res
Ġcomp on
Ġinvol ved
ĠL et
an ch
Ġth reat
ac c
Ġpret ty
Ġpop ulation
un k
ĠJ ames
Ġde ad
v est
is ode
Ġl ed
tern et
ra z
ic o
Ġt ou
rou ght
en ing
Ġfre qu
Ġ ut
Ġsim ply
Ġhist or
Ġeas y
Ġs il
em ents
r t
Ġwe eks
ac ing
ibr ary
Ġh op
Ġde cl
is f
ĠEurope an
ĠO ut
Ġdoc ument
Ġor d
Ġt itle
5 8
)$ .
\ ,
Ġm atch
Ġsol ution
Ġrun ning
ug ht
Ġm ention
Ġbook s
Ġset t
ĠCan ada
ĠE v
Ġst ar
e ff
Ġreg ular
he t
ens ity
N o
ĠM od
text bf
pp er
em s
in ter
Ġf ather
z z
Ġd rug
Ġtem per
Ġcom pl
---- ----
ag ed
Ġadd itional
ĠAustral ia
Ġpos itive
ĠInd ian
Ġpl atform
Ġlat est
Ġlong er
Ġstud ies
Ġte le
Ġm ax
ĠB usiness
Ġf em
Ġp ain
Ġfin ancial
5 7
O ne
Ġplay er
raph ics
} }\
and om
Ġper fect
Ġst age
h aps
Ġad minist
Ġcurrent ly
Ġinter view
Ġdist ribution
Ġus ers
ĠA re
Ġun ique
.. /
Ġdet ails
Ġany one
Ġd riv
Ġ| |
er c
ub e
Ġmult iple
i i
Ġw rote
r ad
ĠB en
N D
Ġp m
ĠG reen
Ġsay ing
Ġacc om
g l
x im
un ction
as ons
Ġc am
gor ith
Ġwork ed
4 3
ist ics
oun ter
ĠSy stem
Ġp ict
m ark
Ġs old
m ega
Ġd iv
Ġdev ice
ĠIn ter
r s
o om
Ġd ire
' '
ĠW ashington
ĠJ ack
w ise
Ġsur pr
5 9
s im
ĠWh ile
ri an
Ġthrough out
ht ml
Ġread ing
ĠR ober
ĠMich ael
land s
Ġsc reen
ĠP ublic
Ġfollow s
li ed
id ents
ra k
Ġfav or
Ġwas n
Ġchall eng
i us
Ġ\ ,
ĠI I
ir it
ĠWh ite
Ġan g
Ġme eting
pos ition
Ġknow ledge
Ġs on
Ġass ist
4 1
Ġinterest ing
ĠAn n
Ġre comm
Ġl iter
Ġcl ub
ĠDem ocr
Ġmod ern
L et
Ġ `
ĠR ich
ĠSc ience
P S
ĠT HE
$ $
Ġbu y
Ġm agn
le m
it ude
Ġt able
A b
it ect
Ġpr ice
ag o
ĠS ome
Ġget s
u fact
al se
row s
Ġs em
in ated
} _{\
ĠM art
ear s
um an
ĠD an
Ġev al
Ġg as
Ġgo al
Ġim medi
Ġg e
Ġp an
l a
Ġcomp ared
Ġwr ong
Ġb oy
Ġdef ined
ĠW ed
und ay
Ġb all
200 4
M S
Ġm id
t d
ĠH am
v ant
Ġpract ice
ur d
eps ilon
Ġme chan
S e
Ġwor th
i ation
ĠB re
Ġst ories
Ġeff ic
Ġser ious
ak ers
r im
U T
ps i
ann el
l or
âĢĿ .
E O
ult s
Ġsur face
N A
k i
b m
Ġgo es
G amma
p ri
ĠF ound
n ed
ou ra
Ġcult ure
^ *
Ġpre vent
Ġ â
M y
ist ry
Ġpred ict
L e
ar ily
Ġdevelop ed
ĠD ec
C ont
al ed
ber g
ĠTh om
Ġto wards
Ġn ormal
I nd
Ġin sp
Ġre v
ĠFr iday
Ġc at
Ġl ack
Ġg ave
Ġfl ow
ous ly
Ġd at
st on
O mega
ĠPro gram
Ġins ide
ĠG eneral
Ġle ave
n own
B l
E L
P l
ĠEng land
Ġ )
Ġfor ce
6 6
ĠPro f
Ġrequ est
Ġne igh
ĠC ong
ĠM usic
Ġg ives
a e
Ġapplic ation
ol ic
st e
Ġn ature
p ed
Ġcharact ers
ĠH ere
Ġd ark
atur day
Ġpre c
en ge
ĠS ur
Ġrel ig
Ġcontin u
e ch
m itted
Ġmed ical
Ġmethod s
Ġl ines
I V
ĠN ov
v in
Ġsur v
ĠP ort
il s
ur t
Ġmil itary
ĠIs rael
Ġst yle
Ġa im
ecut ive
ĠI N
Ġdesign ed
Ġm ach
Ġoff ers
amp ions
Ġd raw
ĠRe ad
re y
ĠSu per
ur ning
Ġopportun ity
ĠM al
Ġcond ition
Ġcand id
Ġc ause
b and
Ġcont ribut
ĠF acebook
ĠP M
Ġf air
Ġthe ory
Ġun c
ur ation
Ġr ace
ĠP ress
th is
Ġf ast
Ġbl ood
Ġdis play
Ġsu ff
ond ay
Ġass um
ĠA M
ol ar
est ival
ate gy
Ġa ward
i ant
b old
ĠF il
il ies
Ġocc ur
Ġm us
Ġsc ient
ell ow
ĠâĢ ¦
A fter
Ġeconom ic
d iv
Ġconst ant
u ate
)$ ,
ĠDe velop
Ġext ra
6 5
ĠAr ch
Ġp urch
Ġro ck
ĠGo ogle
ĠÂ £
Ġeffect ive
I M
sub section
Ġdirect or
ed s
ri al
Ġp le
Ġdiffere nce
ron ic
ĠP re
Ġaut om
I L
e y
Ġn amed
Ġde part
Ġcou ple
t op
Ġcent er
it ch
com p
Ġatt ention
ol f
Ġet c
Ġhand s
Ġb ox
ĠE duc
Ġphys ical
if ul
Ġpart ners
Ġab ility
Ġm is
ĠH all
C A
ps ilon
ro s
ĠInstit ute
Ġpl ans
ĠD ef
Ġu nd
Ġincre asing
C H
ch ange
ic ip
it iz
Ġinit ial
( "
ĠUS A
Ġdet ail
( );
Ġst ra
j ust
Ġb rought
es c
anc y
b oard
ĠL eg
p ing
Ġd im
Ġd igital
c m
ĠS am
s m
oc ks
200 3
cl ass
O r
ĠD el
Ġh ol
Ġc ode
Ġf ans
is ions
ill er
" :
Ġcol lect
7 8
Ġear lier
a per
and er
ĠJ ul
Ġpr inc
Ġcon cept
Ġass ess
sp an
Ġstat ement
Ġnecess ary
ĠG reat
Ġloc ated
eqn array
augh ter
Ġf elt
Ġpro posed
o ch
b on
y a
it ar
ĠT om
Ġfoot ball
Ġdirect ly
am ily
D e
ĠV ol
en ed
Ġac qu
sq rt
Ġpart s
tr ans
ell ig
mer cial
at ively
Ġincre ased
ĠIn st
Ġlim ited
ust r
Ġt en
ĠR oad
ĠM ag
ĠS ing
id ing
ul a
Ġhe ard
oy al
t ab
ir ing
Ġlook s
S p
b ody
Ġc ook
ĠĠĠĠĠĠĠĠ Ġ
6 4
ĠS ub
o es
Ġnot e
Ġsaf ety
ĠM us
for ce
Ġstre ng
ri ef
Ġsc ience
ĠF rench
ed y
Ġcap ital
Ġem ail
ĠB er
Ġth us
Ġturn ed
ot a
Ġsat isf
^{ (
F rom
ĠM at
ĠAng el
Ġ Ã
p oint
ĠM ac
rib ute
ĠManag ement
Ġc ard
ĠO F
ĠĠ Ċ
Ġwr ite
ĠS unday
Ġr at
Ġlim it
Ġstud ent
ist an
Ġm ap
E M
n on
Ġparent s
os h
Ġmult i
Ġv ill
S S
> <
A d
Ġl ic
I m
Ġb ank
ĠSt r
Ġim ag
right arrow
Ġwe ight
Ġ ri
I P
Ġn ation
Ġactiv ity
M ore
ĠPl ay
os ing
urs day
Ġp lease
Ġnum bers
Ġan im
ĠJ ew
ib ly
Ġdemon str
Ġhe ar
i os
ĠAssoci ation
ĠR ob
ed d
Ġey es
qu are
Ġsl ow
Ġs n
ĠAfric a
Ġcele br
Ġorig in
v are
Ġant i
k ing
ues day
i ers
Ġtr ade
Ġal tern
Ġm icro
Ġnear ly
Ġd ynam
I A
ir us
7 7
ĠT ex
a ctions
Ġar riv
N ot
Ġim ages
Ġbe yond
Ġav oid
Ġcho ice
ĠG old
Ġresp ond
Ġreport s
ca ption
res h
ĠAir port
O ur
nes day
> </
I R
S he
Ġactiv ities
ĠR el
O L
ĠB el
V ID
T S
Ġdet ect
oc ation
D A
se y
Ġus es
er ia
us ing
Ġb illion
em ph
ĠServ ices
ĠServ ice
i ance
Ġdise ase
iver se
Ġpre p
Ġv oice
Ġb ott
Ġres ources
ĠCh urch
Ġp ull
ĠS pec
Ġob tained
Ġl ength
Ġc ateg
Ġus ually
ĠOff ice
ĠA lex
all ed
Ġsoft ware
Ġst ation
Ġwond er
Ġkn ew
Ġsit uation
Ġcent ral
Ġcent ury
Ġpresent ed
8 8
on a
enc ies
n ection
Ġinst it
Ġcol lection
Ġind ependent
ĠB est
Ġsc en
ven ue
Ġcl in
Ġsc he
ffic ient
Ġproject s
Ġele ction
5 2
Ġb irth
he st
] ,
if ying
âĢ ĺ
Ġnov el
ĠW ork
ines e
Ġschool s
B ig
Ġp ark
ĠDirect or
b re
C ol
5 1
Ġd ro
ri e
Ġv s
Ġbas is
Ġallow ed
Ġsum mer
ĠO ver
et ry
Ġacc ur
5 3
Ġens ure
f ort
ĠS aturday
ec ause
Ġch ance
Ġon es
Ġspec ies
Ġdem and
Ġpro gress
ro y
w orks
Ġr ules
5 4
I nt
ĠS T
Ġb al
Ġdri ve
ĠGe orge
ĠLe ague
ĠB ay
Ġele ments
Ġparticular ly
Ġsh oot
ĠM et
iz es
ĠFr anc
ĠM il
Ġt er
Ġsh ot
ĠCl ass
Ġbr and
we et
ĠJ ournal
it ness
ent y
Ġpl ant
il ed
Ġs am
es ter
w in
Ġcol or
Ġro b
Ġcon text
ari o
Ġallow s
ul ate
ĉĉ ĉ
Ġfin ally
m as
Ġ$ {\
Ġrece ive
Ġmor ning
Ġinte gr
w ell
includ eg
includeg raphics
Ġs en
}^ {\
ĠM onday
r angle
st ate
Ġfun ctions
ĠR iver
Ġw ild
ĠB oard
The y
Ġh ous
Ġquick ly
200 1
Ġcustom ers
iz ations
Ġman ufact
Ġrem ain
u nder
Ġcomp ar
ic on
is ation
Ġm er
ad y
Ġsc ene
Ġc ast
ĠâĢ ¢
Ġg ra
Ġcost s
Ġhigh ly
ch i
Ġbl og
ĠSt ar
d o
ber t
ur ance
ĠComp any
Ġg iving
us ion
Ġ ult
ĠFl or
Ġcom ments
vare psilon
Ġw ife
Ġsom et
Ġmean ing
t able
P s
ud d
Ġal though
ĠB i
k a
Ġdeg ree
Ġprogram s
Ġteam s
al ing
Ġm essage
Ġlin ks
pro of
Ġrem ember
ĠComm ission
erv ed
Ġloc ation
ĠAd d
Ġfollow ed
ĠL ife
os ition
ign ed
Ġlar ger
Ġprodu ced
ur rent
b t
Ġcon vers
Ġk ids
) =
ap ter
sy mbol
k en
m en
Ġcor rect
Ġc ivil
hip s
Ġlar gest
Ġph one
R A
Ġfam ilies
n et
200 2
Ġdec ided
I d
Ġestabl ished
B e
ĠR et
ĠC ap
Ġe ight
ĠA tt
el ine
Ġw ide
Ġcomplet ely
Ġrem ains
Ġa w
âĢĿ ,
ĠGover nment
6 7
ĠT witter
Ġse ven
Ġs ales
Ġwant s
ĠO ther
wh ich
' d
Ġstart ing
6 8
ru pt
Ġtrans port
in y
** **
ic ks
ac ity
} =
Ġob tain
um er
Ġr andom
ud get
ĠB ig
B S
Ġappro xim
Ġb us
Ġfe ed
ĠPe ople
Ġprom ot
Ġh uge
ig ation
Ġshow ed
od ay
ĠS l
ri a
ro id
Ġqu al
und red
ĠG ood
Ġun it
Ġprofess ional
ing er
n ame
ĠEduc ation
Ġin nov
ĠH ill
A pp
Ġrespect ively
Ġg un
B A
ĠPl an
Ġtyp es
Ġin put
Ġd ied
Ġo il
ĠL ou
Ġconst ruction
ag ram
ĠF e
vent ion
ed om
ĠSu pp
Ġ ir
Ġex hib
os is
ĠF ore
ĠHist ory
Ġv ote
Ġre ach
ĠM o
Ġf irm
ĠFr ance
out hern
ĠQ ue
ĠĠĠĠĠĠĠĠĠĠĠĠĠĠĠĠ ĠĠĠ
Ġsc ale
Ġthere fore
ĠCong ress
. }
Ġg raph
Ġdep end
Ġproper ties
Ġmov ed
Ġal gorith
Ġcrit ical
ĠJ er
ĠTex as
Ġpat tern
Ġf ully
E n
Ġpr int
Ġgrow ing
ĠT imes
ĠSm ith
rug g
Ġspe ed
Ġlook ed
ĠM em
ĠS ince
in ate
Ġth ous
ad o
ĠPro ject
h ouse
it able
Ġph ase
ult ure
ĠMed ia
re me
Ġbegin ning
ĠSer ies
Ġpre m
clus ion
Ġtr ust
Ġpie ce
a ith
Ġro ll
ve c
Ġs le
Ġnum er
ĠB ill
ĠM ary
Ġc opy
Ġprim ary
Ġst ream
S u
Ġcan cer
ĠM iss
ver se
Ġs ociety
ĠS al
D on
c ell
Ġ čĊ
ĠT op
om a
r ang
d raw
ĠB ank
Ġansw er
Ġsuccess ful
Ġte ac
ĠU p
Ġtrans fer
ĠS un
N ame
Ġd ed
Ġact ive
Ġm ount
ĠTh ursday
Ġref er
Ġp oor
ĠT uesday
Ġdire ction
ĠW ell
Ġperform ed
anc ing
ĠSc ott
ĠSe e
ĠWed nesday
C T
P A
Ġspe ak
ĠChrist ian
Ġcomput er
ĠDevelop ment
Ġtrad itional
Ġwork ers
Ġag ree
Ġpress ure
Ġf arm
Ġs ort
m iss
Ġin form
ant ic
Ġj ournal
3 00
ty pe
olog ies
Ġback ground
Ġele ment
ĠC amp
Ġprovid ing
se mb
Ġachie ve
bold symbol
ĠPart y
Ġbro ther
ĠÂ »
ound s
Ġfl u
Ġsec ret
Ġtou ch
) (
ĠR ock
Ġbe g
Ġhappen ed
Ġsol utions
Ġmove ment
ĠH ome
ĠU nder
Ġpl aces
ent ially
Ġn uc
Ġb orn
ĠDist rict
ĠI S
9 8
Ġal one
az ine
Ġk illed
ĠWe ek
Ġexact ly
im b
ge q
Ġexp and
ĠG et
ort hern
ric es
Ġs al
Ġpro p
Ġf ile
ab y
e ared
v an
Ġ* /
ĠRober t
in f
var phi
Ġqu arter
Ġfact or
Ġlead er
pl it
Ġparam eters
Ġmov ing
c ap
Ġbe comes
Ġchang ed
ĠCh ild
Ġelect ric
Ġcar ry
Ġem ot
ĠCl ub
ĠM ad
Ġsp ent
Ġche m
Q u
m ary
Ġover all
d ro
ĠM ost
ĠV ir
ann ed
ig r
M an
Ġappro pri
Ġwe b
Ġcle an
por ary
Ġsomet imes
ĠT ime
ĠIs land
ĠD ata
Ġenc oura
Ġd ram
z a
Ġo ption
ĠF ig
ve re
Ġm iddle
an o
ĠCh inese
Ġent er
O P
Ġstat us
Ġchar ge
in n
Ġeas ily
Ġexper im
in i
Ġg reen
Ġobserv ed
ĠC are
n or
Ġ Ð
Ġexp ression
. ~\
Ġorgan ization
Ġclos ed
ic ations
ĠS ociety
as y
u it
Ġcoll abor
Ġdist ance
Ġgreat er
Ġread y
r d
Ġre pe
ĠR ad
ĠS ocial
Ġpro te
Ġoper ations
~ ~
b ut
Ġp en
ic ine
Ġcontin ued
G et
Ġc ry
k nown
ic ago
Ġunderstand ing
Ġopt ions
Ġsub st
G o
Ġpur pose
ĠPol icy
ul f
Ġw el
ĠS ection
Ġpro ced
Ġep isode
so ft
Ġt im
ruct ure
Ġcont roll
ĠM er
Ġthink ing
Ġob vious
Ġs ources
Ġtemper ature
r um
ĠC D
Ġb ill
pect ive
F L
Ġbeaut iful
Ġapplic ations
Ġop in
ash ion
Ġd og
Ġf ram
Ġf ine
Ġdou ble
and a
ĠGerm any
Ġas pect
ĠT or
Ġc ool
Ġst rugg
m at
Post ed
Ġf ederal
Ġeff ort
ter m
ĠFound ation
Ġstr ateg
ĠM ex
Ġh ospital
ĠE ven
ĠFlor ida
ĠS um
ĠW il
ĠComm ittee
Ġset ting
h line
Ġgr and
Ġ error
Ġn orth
ĠM icro
Ġindividual s
M e
ac he
por ate
Ġpres ence
& \
ĠE very
l ist
Ġd ream
it z
Ġr ates
s k
Ġn ames
ĠH el
Ġsu st
Ġa ware
ĠO pen
Ġstra ight
Ġeff orts
Ġfore ign
ĠY ear
Ġcl imate
in ct
A G
Ġcont r
9 7
ot ic
o very
Ġc ru
U N
Ġsc ore
g s
Ġhapp y
cal e
o oth
Ġst ore
ĠS a
n s
Ġclaim s
c her
Ġprevious ly
Ġf ra
P R
at re
Ġtra in
I F
Ġfil ms
ĠW ind
A meric
Ġv irt
C E
O M
c os
Ġla unch
Ġmem ory
Ġg old
in ks
ri ve
av a
Ġl if
Ġf alse
== ==
om s
Ġstr ategy
or ter
Ã ¡
Ġf igure
Ġp sych
Ġtr uth
Wh ile
Ġopen ing
ant a
ĠA ward
Ġs ell
Ġdes pite
Ġsh op
Ġsp read
Ġsit es
h an
par am
Ġh ref
oc ol
Ġarch itect
) ^
Ġdo or
it ely
Ġpa id
ĠCent ral
ĠMin ister
ed ia
ĠEar th
Ġp oll
g u
Ġl ab
b our
Ġrad io
EN T
Ġm ess
Ġtrans form
Ġtalk ing
Ġbehav ior
S P
ĠD et
Ġappear s
ig en
Ġimmedi ately
Ġla un
y an
Ġcon v
Ġh undred
ĠCar ol
Ġvari ety
row d
pp ing
Ġofficial s
Ġreg ist
Ġsaf e
ĠS ol
N ow
Ġexp ress
ĠM useum
Ġpat ient
as te
ad ian
Ġcommun ities
[ \
ĠGerm an
Ġexist ing
Ġper haps
. ;
Ġsong s
Ġp air
ĠN or
ĠS k
}, \
ĠRuss ia
is her
or age
ip ment
a it
ĠT ur
ĠFranc is
Ġen h
y er
Ġsp irit
Ġs outh
ĠD i
Ġabs ol
ef ul
Ġserv ed
ĠL at
l o
Ġt ick
Ġset s
../ ../
Ġfact ors
Ġart ist
over line
m ult
ĠP eter
ĠThom as
Ġun f
c el
ĠT re
ĠW omen
ĠIn formation
it ors
Ġsp orts
le vel
Ġrest rict
Ġ eth
ĠH ot
Ġr ank
Ġconst ruct
âĢ ¢
Ġapp ly
ĠR em
ĠC up
Ġcom mercial
et te
s f
Ġsh ared
wit ch
ĠD iv
ĠSh ow
Ġcho ose
Ġagre ement
} ;
st yle
E d
y p
Ġd ensity
Ġa head
Ġw at
Ġst uff
Ġpower ful
ĠFr ank
Ġdel iver
Ġs un
ri er
Ġeconom y
il ing
ĠUn ion
h i
Ġsl ight
Ġdev ices
Ġmay be
Ġide as
Ġdist ribut
ĠOb ama
Ġdis app
Ġgr ant
ĠE p
maz on
Ġval id
Ġconst it
Ġ id
d is
Ġm obile
f rak
p ret
ic ated
ĠC r
Ġann ual
W hy
Ġext rem
F r
app a
Ġcon nection
ol a
O D
ĠĠĠĠ ĠĠ
ĠI r
Ġvict im
Ġbl ue
Ġsm art
l angle
Ġc op
Ġcertain ly
ow ers
erv ation
ĠJ un
at al
ĠM a
S E
c are
Ġ ign
Ġcon cent
6 9
Ġfor ces
Ġc itiz
Ġtri ed
ĠWh y
Ġcont ain
} ).
Ġpro of
} }$
M ar
ĠL and
ĠApp le
199 9
A cc
uth ors
ĠLe ad
Ġchall enge
Ġprodu ce
Re ad
ĠB rown
Ġr ule
ĠRep ort
Ġadv ant
Ġsk ills
Ġf it
Ġrecord s
Ġclear ly
Ġsur round
Ġemploy ees
u a
Ġinit i
ĠCommun ity
or ph
Ġaud ience
T ype
maz ing
A B
( '
Ġdeterm ined
m ail
Ġre b
ĠS il
Ġed ge
Ġst ars
al le
H ere
Ġoper ation
? ?
Ġcont ains
Ġcould n
os en
Ġd aily
L ist
Ġar rest
Ġan c
ĠP et
Ġad apt
en a
Ġopt im
Ġpass ed
ĠRich ard
it a
S ee
Ġsp ot
om in
mb ox
ĠĠĠĠĠĠĠĠĠĠĠĠĠĠĠĠ ĠĠĠĠĠĠĠĠĠĠĠĠĠĠĠĠ
ĠAfric an
Ġlet ter
Ġm ission
c or
cite p
Ġreal ity
Ġa part
Ġse lect
Ġmaterial s
Ġsect or
Ġfem ale
ĠO h
Ġveh icle
Ġintrodu ced
er ation
Ġfe et
ĠSt at
Ġhig hest
ĠRuss ian
Ġinterest ed
ref ore
Ġv an
Ġcorrespond ing
ĠAl so
our ney
S A
Ġre ference
Ġcontin ues
s ource
Ġ _
Ġad opt
Ġinvest ment
ou te
lic k
al ax
Ġm ut
Ġex cept
Ġredu ce
Ġb rain
Ġh ar
Ġf ig
pl ace
Ġl oad
Ġbenef its
ig ration
Ġcol lege
ĠT wo
ree k
O C
ĠI ran
Ġgener ally
Ġse lected
ĠA ut
ĠK ore
Ġmy self
M P
Ġg one
Ġsol id
ĠM el
ew ork
ĠB u
an i
Ġleg is
Ġal le
am ing
Ġ( $
Ġrest aur
ner gy
ĠTechn ology
ĠL os
Ġgu y
Ġart ists
Ġrun s
text it
Ġapp lied
Ġpol ic
Ġstreng th
Ph i
ĠP riv
Ġmat rix
Ġdec re
Ġhelp ed
ĠCO VID
ĠE nd
Ġh arm
Ġopen ed
Ġ Î
Ġd anger
g ers
rel ated
og ue
Ġre asons
Ġpart ies
ĠE conom
ĠJ ud
Ġexc ell
Ġrespons ible
u ated
Ġmajor ity
Ġim pl
Ġform s
Ġgener ation
ĠS pr
ĠAc adem
Ġrele vant
Ġbig gest
stand ing
Ġtri al
ch ar
Ġbusiness es
Ġw ood
Ġcall s
Ġref lect
Ġra re
ar ant
ef ore
S C
H ome
Ġf an
f oot
g ment
ellig ence
ĠPro t
Ġbenef it
ĠT O
c ode
ĠSec ret
w rit
ste in
ole c
ĠWh o
Ġh our
k er
ag er
Ġc ounter
ĠGr and
Ġto ward
Ġs ample
ĠJ oe
Ġd oll
ĠN Y
Ġad vert
Ġout put
ay er
Ġown ers
Ġplan ning
ro ad
ĠA P
Ġra p
ate ver
ĠWe b
Ġca used
th at
Ġsign al
E E
Ġbas ic
ard en
ĠAr ts
V al
Ġcred it
el ess
Ġt ask
sc ript
Ġsex ual
act ive
ĠV ict
Ġident ified
\ %
Ġsa ve
Ġp ush
Ð ¾
Ġapp oint
ĠVir gin
ĠJ ose
A A
Ġother wise
ĠCh icago
Ġke pt
ĠH uman
ĠC EO
ĠT own
ĠW estern
est ic
iqu es
V iew
in em
i ency
ĠJ o
as ure
Ġch urch
Ġfund ing
ĠO ffic
gr ad
U s
Ġb attle
ĠT im
L ambda
ĠM ont
ĠEng ine
Ġact ual
Ġa p
Ġ ur
ag on
Ġ !
im port
ĠL ove
Ġrecomm end
p ir
ust er
Ġmain tain
9 6
cent er
7 6
Ġinst ance
Ġpe ace
c an
Ġpro pos
ess or
P re
b ra
on ic
ĠF amily
ĠJ im
Ġ er
8 5
Ġm ill
ĠF und
Ġhe avy
Ġser ve
Ġinflu ence
Ġfield s
Ġw all
ri age
ab ilities
Ġwould n
ĠB ur
Ġcap acity
C an
Ġcreat ing
Ġn ice
ĠGl obal
Ġd aughter
n el
Ġa ctions
ld ots
ot ed
Ġsmall er
Ġco ord
az z
ĠF re
n ight
us band
ĠIs lam
E W
b ed
al a
Ġconnect ed
ĠAb out
ir med
ĠS pe
O W
Ġf ixed
Ġtre nd
b i
Ġdeterm ine
pro f
M A
Ġb ur
Ġs end
Ġb ed
ĠMart in
Ġequ al
ans ion
ĠU N
ĠF ree
Ġz ero
Ġdiscuss ion
in ner
Ġmention ed
go ing
or ial
Ġjo in
l ife
Ġnot ice
Ġvis ual
ĠM ount
id ers
ap ers
math frak
Ġb udget
Ġb rief
L A
Ġmil es
ĠIn s
Ġc ore
Ġoff ered
ig an
Ġcl oud
ĠC am
ĠW ood
Ġopportun ities
Ġill ustr
Ġknow s
g ency
col or
d im
Ġf resh
og en
Ġst eps
Re ferences
4 00
em ic
Ġp ages
N N
th m
C D
or row
Ġappropri ate
ric s
Ġre ached
er ry
ĠRe v
Ġshow ing
Ġlin ear
Ġapp eared
ist ance
Ġregard ing
Ġexper t
Ġinst r
if ically
ĠE lect
g n
Ġmechan ism
Ġcon fig
ĠAngel es
S igma
lic t
ĠD en
Ġw arm
Ġestabl ish
Ġr ac
or ney
ĠChrist mas
! âĢĿ
ce an
or ation
ĠTe am
T V
199 8
Ġcr im
p ers
f rom
Ð °
Ġfavor ite
pd f
Ġequ ival
Ġp et
__ __
Ġt rou
Ġpart ner
Ġpict ure
ĠAt l
ĠCent re
ul ed
Ġviol ence
Ġmeas ures
hen s
Ġs ch
Ġmin or
ĠG ame
Ġwe ak
Ġac adem
Ġse a
Ġhold s
" /
ĠH y
S te
Ġatt ract
H S
8 7
ĠG en
Ġsus p
Ġsh ip
idd en
Ġneg ative
D o
Ġcompet ition
Ġcomplet ed
Ġey e
C ar
ol it
ĠM ass
ĠR E
Ġme ant
s l
ĠL ist
ĠJohn son
ĠP ower
Ġare n
Ġm ix
ĠThe ir
Ġon to
Ġview s
clus ive
pl ing
Ġl abel
Ġmach ine
Ġcon ference
ex p
Ġchalleng es
Ġind ex
ĠLou is
Ġear th
k appa
p an
ma x
Ġtool s
Ġcons ult
Ġra ised
ens ions
i very
Ġadminist ration
ĠF orm
Ġsignificant ly
ru it
Ġwe ap
Ġinvestig ation
Ġch ief
ot imes
Ġtest ing
Ġrequ ires
L C
Ġcol le
Ġwrit er
un te
Ġneigh bor
ang ing
ol k
ĠCh ampions
Ġf ant
R ec
od ies
re land
Ġbe at
M ay
Ġp urs
ĠA v
ut y
sub set
ĠP C
as ion
st ar
ĠL ong
ĠO per
Ġcommun ication
ĠAustral ian
Ġsequ ence
Ġyour self
\ |
Ġsupport ed
Ġcomm it
Ġvol ume
u ke
6 3
Ġcon sequ
Ġf ear
ĠSec urity
Ġinte g
Ġlaw s
Ġc rowd
ĠA rab
Ġwa it
ĠF estival
ct ors
b ur
% )
Ġsee ing
ĠLe e
Ġt it
Ġst ock
ĠVal ley
ret urn
Ġw ish
Ġus eful
ack s
ĠL ake
Ġstr ing
Ġr ise
ĠC y
Ġhe ro
R ep
te red
av en
D F
h ab
Ġsom ew
Ġcr is
Ġsign ed
ĠIn ternet
S ub
z er
l ig
ur der
Ġlead s
Ġrequire ments
Ġjo ined
Ġcompon ents
Ġc ars
x y
ok es
rib e
ĠM ike
h and
ĠIn vest
Ġseem ed
Ġpl ays
ĠEn ter
Ġcom fort
ot es
wh ile
ĠCh ris
Ġl ov
A dd
Ġar m
Ġgo als
ĠW ater
Ġmanag er
Ġpro s
Ġt ree
st ra
ĠTh us
Ġfeel ing
ab ase
fr ont
ic it
Ġfl oor
ĠB et
Ġident ity
ĠC ath
ĠH en
7 2
Ġ> >
c irc
Ġres idents
Ġpro ve
b urg
6 1
Ġequ ipment
The se
k ins
Ġsen ior
Ġprocess es
k et
ĠHe ad
ĠI ll
ĠCh ief
Ġdist rict
Ġatt end
Ġm aster
Ġst reet
199 0
Ġapp arent
Ġredu ced
Ġphot o
ĠMed ical
8 9
Ġdam age
li ament
Ġinst all
ens ure
Ġa mazing
Ġreve aled
ĠM ot
ĠDes ign
ind ing
id el
Ġpr ison
Ġw id
ĠT our
ent ed
. \
ĠS and
Ġm ale
pect ed
Ġth r
ĠB o
Ġenvironment al
G B
pr int
Ġident ify
os es
Ġpl aced
J ohn
at ically
ro ph
Ġwh om
} )$
is hes
ink ing
Ġnot ed
ĠSpec ial
Ġdriv ing
Ð µ
Ġtele vision
Ġjob s
Ġdi agn
Ġch annel
St ring
Ġw ww
Ġ q
6 2
i as
ĠE U
Ġun its
Ġweek end
Ġw ave
ĠL ibrary
ĠNet work
Ġn ode
Ġorgan izations
Ġit ems
ell er
du ction
Ġtr uly
Ġcult ural
Ġ %
ing ly
Ġreturn ed
at us
ren ce
uild ing
Ġcam era
fr ast
Ġmost ly
ĠM ov
Ġcol umn
ur ies
Ġleaders hip
Ġco ach
ars h
Ġr out
Ġinc ome
B I
7 9
Ġfail ed
Ġex ists
ĠR oyal
D ata
ak s
O ver
Ġmax imum
ĠA ND
Ġtra ffic
Ġlearn ed
w id
l ook
Ġs av
T C
Ġequ ation
Ġd u
Ġold er
Ġro t
Ġass ume
Americ an
# #
ing u
ĠO ld
ph one
Ġt error
Ġf aith
Ġhy p
Ġm ist
Ġrecord ed
h ire
ĠJ ones
al ysis
Ġclin ical
il er
ĠSen ate
Ġanim als
Ġmod e
Ab out
il ton
Ġpolic ies
rou d
h ow
ĠEx p
Ġsupp ly
Ġent ertain
Ġthan ks
cl es
i ate
Ġpre fer
Ġgu ess
Ġocc up
id en
ĠAl though
T H
em porary
ens ional
ĠA mazon
am in
Ġfam ous
Ġtri p
Ã ³
ĠS ar
Ġj oint
ĠP o
F irst
l ong
Ġevent ually
ide os
i pl
r id
Ġle aving
Ġsepar ate
ĠIn f
ĠPol it
Ġparam eter
Â ©
om y
b an
Ġinc or
f riend
ĠC A
al ian
199 7
ĠL ab
ĠW ay
M ed
Ġc atch
abl a
Ġhe at
ĠJ on
ell a
cent ering
Ġcrit ic
ĠV is
Ġk ill
ĠCan adian
pos es
P r
Ġmon itor
ay lor
ock ed
S ome
ic ians
Ġn ull
Â ł
Ġent ry
} ),
Ġsust ain
Ġalgorith m
Ġ err
n am
Ġst ated
Ġh usband
Ġgu ys
ĠI reland
ĠS ports
ill a
ĠB ack
ĠB ob
er ies
s pec
Ġoper ating
ĠB oy
b o
Ġbott om
ĠH or
Ġprot ection
od d
Ĥ ¬
Ġex erc
Ġstand ards
ĠPar is
Ġupd ate
Ġpan el
ĠF ire
Ġoffic er
Ġthan k
non umber
ĠH aw
Ġin ternal
ain e
Ġdefin ition
Ġthous ands
Ġrese arc
Ġdef ine
Ġph il
ĠPol ice
P e
ar p
u ing
Ġsh ape
g al
Ġse lection
Ġr ich
Ġpost ed
ĠR ights
How ever
are n
w est
ĠD own
Ġmark eting
Ġc ities
n abla
" )
M od
ĠJ eff
ĠL ike
Ġlaun ched
if orm
S ince
Ġfind ing
Ġa uthors
ĠE nergy
ĠMus lim
Ġopin ion
ul s
ĠSt and
Ġpro ceed
i h
ĠFil m
Ã ¢
Ġcon clud
h ost
Ġcompon ent
Ġinter pret
ĠL ord
Ġcr ime
à ¥
Ġfre edom
Ġt end
ĠA uthor
T e
ensure math
Ġcomb ination
Ġ` `
Ġrelig ious
ĠP ri
Ġv acc
Ġsp in
l ies
Ġaltern ative
ĠL ear
ĠSec ond
anc er
ĠA ff
Ġfor ced
uck y
Ġb ul
d ata
b orn
Ġed itor
Ġdeb ut
ĠMex ico
Ġtrans ition
D E
Ġev olution
Ġthe rap
ĠYou ng
Ġsh ut
Ġsy mbol
frast ructure
Ġbe coming
Ġmet al
R I
Ġcl ick
Ġpolit ics
Ġn or
Ġf uel
v a
Ġmiss ing
Ġcustom er
Ġj ourney
Ġwatch ing
Ġv ision
Ġdevelop ing
Ġart icles
w ar
199 6
app ing
Ġc ert
m essage
Ġb an
id ering
G e
Ġst ress
Ð ¸
ubl ished
Ġf ell
Ġspe ech
Ġapp rec
Ġs ale
F C
Ġoff ering
Ġend ed
ĠAmeric ans
por ation
ar ks
Ġad just
\ !
Ġdef ense
ĠP an
Ġfour th
ĠT est
ec k
8 6
ĠD ou
int on
Ġwind ow
p at
Ġadvant age
k now
ĠM iddle
ĠJapan ese
N ext
i at
Ġn orm
ĠL ast
Ġcar ried
Ġpl us
ĠIt s
Ġgirl s
ak istan
7 1
Ġwin ning
ens es
st ream
\ [
ĠM any
Ġy ield
Ã Ń
G u
e an
Ġfl ight
ĠAr my
th let
urb an
w ord
"/ >
Ġcontr ast
Ġdou bt
or ia
Ġth row
s ize
Ġtechn ical
st ruct
7 4
S ec
P C
Ġgener ated
15 0
Ġtell s
9 4
Ġc old
oth ing
Ġoper ator
Ġrel ative
Ġsur vey
? "
ic ed
9 3
ĠAcc ording
Ġsh ift
ĠR ef
am m
Ġdec ades
Ġl oved
Ġnet works
Ġmot ion
semb ly
or a
ĠF ood
Ġu pper
y stem
Ġreg ions
Ġdiscuss ed
Ġstart s
ac ement
Ġk id
ĠInd ust
ĠD aily
Ġprocess ing
ĠAn y
as er
Ġret ail
ili ar
ograph ic
Ġher self
ĠD uring
c ript
ĠP ac
m et
Ġcitiz ens
ĠAs ia
d en
Ġfund s
ĠC ast
Ġdefin itely
od cast
Ġinc red
O b
ĠR oman
ĠE r
Ġbel ong
Ġve ctor
ĠC ard
Ġmass ive
Ġlay er
Ġhapp ens
ĠF igure
C o
Ġtrans l
Ġgl ass
irc raft
Ġdown load
ĠT ri
re te
ĠG all
Ġown er
Ġform ed
Ġcris is
{ -
ĠGe org
ĠChar les
Ġvill age
t es
d ots
' )
Ġb order
Ġclass es
cl aim
ĠWilliam s
Ġrap id
ĠOr gan
D S
A ss
F ig
Ġdom ain
Ġnuc lear
ĠJust ice
ĠJ es
st ruction
. [
tab ular
ur a
ĠDe v
Ġsle ep
J ust
ost on
Ġn arr
Ġmanag ed
ĠAnd rew
Ġd ig
ï ¿
Ġf ashion
ind er
ĠP enn
Ġgover n
Ġj ump
Ġgu ide
Ġc overed
Ġexcell ent
ob s
}} {
Ġfoc used
ĠSc ot
ĠSte p
Ġinj ury
Ġextrem ely
Ġp un
Ġslight ly
ĠE ach
ĠW rit
Ã ¼
ag ged
Ġpl ot
Ġar rang
ol ved
ult ural
Ġconst ra
Ġli ber
U L
Ġannoun ce
Ġp hen
ĠN ight
ĠÂ ·
ĠBl ue
Ġco ast
Ġfin ished
Ġcl ients
as hed
an ish
ĠG ames
f ree
re es
Ġexpl ain
Ġst orage
Ġm ental
Ġfore st
Ġag ency
Ġcent re
ĠA wards
Ġadv ice
anc he
199 5
ĠV er
ot hes
f e
ĠG ra
Ġcomb ined
re al
ly mp
7 3
Ġn om
z en
b a
ĠH ospital
âĢ ī
ĠS af
m pt
Ġ ice
ab led
un ning
Ġess ential
Ġf if
ac hel
l t
Ġ ?
ĠB ecause
Ġapp eal
ï¿ ½
Ġsp end
c ons
r ig
Ġdiffere nces
Ġmin imum
Ġsound s
Ġd ie
9 2
Ġun ivers
wid et
Ġv oid
ian a
. âĢĻ
k in
Ġconcern s
ĠVirgin ia
ly wood
ĠZ eal
ath an
ell ed
Ġsam ples
r ical
ortun ately
ĠL im
p ath
c hen
ĠM en
ĠRe al
c oh
Ġcomm and
ri z
Ġdest roy
ger y
Ġexpl ore
Ġex change
Ġhistor ical
ak ed
AT ION
ĠChar l
and on
ol ars
Ġpract ices
ĠC oll
Ġdepart ment
it age
ĠDon ald
u ps
Ġfac ilities
g reg
Ġobject s
ĠF ar
g roup
Ġcl ient
opy right
res ents
Ġdef e
Ġha ir
ĠEx per
Ġphot os
O f
het ic
Ġdri ver
Ġapproxim ately
Ġex ecutive
ĠB as
as ks
N et
vent ure
ĠW all
Ġhel ps
Ġo dd
Ġdel ivery
i xt
Ġwh atever
8 2
Ġarg ument
ĠI T
val ue
Ġra il
u ations
Ġd rop
sc ape
Ġexper iences
f unction
new s
or ters
Ġexam ples
Ġp rices
Ġex pos
Ġcandid ate
as tern
Ġhelp ing
ĠZeal and
L ast
Ġyou th
ĠE qu
Ġattack s
s cale
Ġnot es
ĠV iew
Ġag ent
ĠW ild
ĠT H
ĠM ax
ĠAd minist
widet ilde
ĠIt aly
8 4
Ġdep th
The n
ĠAcadem y
Ġclass ic
R C
Ar t
P ar
Ġg ain
ien ced
Ġiss ued
m id
Ġv ar
Ġrel ation
Ġmov ies
w ater
ĠTr ust
Ġw itness
os op
m osp
b b
Ġchang ing
ĠF urther
Ġsche me
sec ut
Ġut il
ig er
Ġha ven
M C
om ic
s hip
s en
Ġk ick
Ġlist en
us hed
Ġsy mm
ĠM ur
c ious
Ġt un
Ġeffic ient
Ġimport ance
Ġp il
ĠT oday
ed ge
ĠA ud
ĠE ll
ipp ed
Ġmark ets
Ġhe aring
Ġpol y
ĠMicro soft
ut ely
Ġwe ather
ĠN ote
Ġc ash
Ġcre w
Ġresult ing
Ġcirc um
Ġconf irmed
oss ible
ĠL uc
198 0
ĠThe refore
Ġbr ings
Ġn ine
Ġhy per
Ġ rom
ER S
ĠMc C
Ġst atic
os c
Ġadd ing
Ġcor rel
in ity
Ġp aint
Ġsu fficient
ĠT able
ĠP op
Ġ= =
Ġcreat ive
Ġfl at
ĠL ive
act er
Ġliter ature
ĠPh ys
ĠR o
ĠD isc
ost er
Ġun less
ĠP erson
Ġeven ing
Ġl abor
Ġrel atively
Ġsub sequ
S U
Ġtechn iques
8 3
Ġsupp osed
ol es
Ġmus ical
Ġdoc uments
F A
ĠH a
Ġt on
ĠC a
el ly
Ġres olution
u an
art s
ĠCon ference
St ate
ĠF ederal
i pe
Ġbal ance
ĠK en
du le
Ġfac ility
Acc ording
Ġveh icles
ĠI d
Ġturn s
Ġd ial
Ġpre par
Ġsp ort
Ġin n
Ġp p
Ġfrequ ency
ĠFrancis co
ĠKing dom
Ġprote in
Ġl it
c ks
Ġext ended
Ġquant um
Ġprof ile
/ \
D ef
l aw
n ode
9 1
ot al
Ġen em
R eg
ic ol
ut r
ĠM u
stit ution
Ġmar ried
Ġrat io
Ġv ac
ĠA T
ĠS ep
M L
Ġjust ice
y e
Ġcon ver
ĠSp ace
ĠPro v
ag ement
........ ........
Ġman ner
Ġsk in
Ġexpl ained
Ġpurch ase
ĠDan iel
Tr ans
Ġ à¤
c ase
Ġch air
Ġhot el
ĠOn line
Ġr oute
D r
Ġed ition
ob e
Ġcall ing
at o
in ating
Ġrec on
ĠD C
Ġfail ure
Ġpl ants
Ġmot or
Ġunc ertain
Ġre li
ĠBe ach
g ent
Ġrep resents
Ġcrim inal
int s
Ġtre ated
l ink
Ġreg ul
Ġ vert
iven ess
Ġrepresent ation
Ġdec isions
Ġsy n
Ġl ived
Ġno ise
Ġk m
} -
199 4
el er
Ġf le
ĠL em
ad ing
âĢĻ .
Ġdat as
Ġm urder
Ġestim ated
Ġf ix
Ġcompar ison
Ġallow ing
Ġpass ion
ĠCarol ina
og rap
ra q
Ġbehav i
Ġagre ed
Ġconduct ed
per ty
ph as
Ġn one
Ġm olec
c up
ĠFor ce
r idge
Ġlist ed
{ (
ir al
Ġfe els
Ġchar ges
ĠL iber
ress ive
ond s
P er
Ġwa iting
8 1
Com p
et ric
ĠĠĠĠĠĠĠĠ ĠĠĠĠĠ
Ġam b
P M
ĠStud ies
Ġrem oved
Ġstruct ures
Ġdem ocr
Ġded icated
Ġrem aining
Ġis ol
Ġcateg ory
ĠB oth
em pl
Ġcar bon
z eta
Ġch osen
ĠC H
ĠB ow
Ġoffic ers
ĠJew ish
Ġb ird
Ġle aves
Ġread ers
ĠSe ason
at i
Ġdist inct
Ġexper iment
is ters
W ell
ĠW al
ic ian
Ġ= >
h op
Ġprob ability
ok en
D es
raz il
Ġind eed
Ġconsist ent
ĠSte ve
ĠW he
gy pt
ĠDiv ision
Ġgu arant
1 20
ident ial
Ġhy dro
il ly
Ġdescrib e
Ġprofess ion
ĠEn vironment
A m
ĠL i
Ġprep ared
re qu
Ġs quare
) -
ĠL y
Ġbuild ings
g ar
erm an
re hens
os ite
âĢĻ ,
dd en
or al
im ately
Ġtest s
ĠU pd
T op
ĠK ar
Ġsc hed
ab eth
"> <
F F
ĠL o
d ot
in os
Ġfr ame
ĠPh ot
ian o
ĠW alk
Ġexp ansion
ĠE q
m es
Ġfin ite
ĠP akistan
on ent
-------- --------
Ġgu itar
Ġaffect ed
alle l
B ook
Ġlat ter
Ġbeg ins
Ġsm ooth
T ags
ploy ment
ĠAd v
ĠH arr
Ġd ance
Ġp ure
ð Ł
Ġse at
Ġdetail ed
Ġex ception
Ġchem ical
Ġcomm itted
Ġhom es
F orm
ĠV an
ĠK im
ĠP lease
New s
P art
Ġexp ressed
ant ly
Ġkeep ing
Ġpie ces
ĠBrit ain
C L
T A
ic ate
ĠF ort
Ġnumer ous
e ah
str ing
ĠG irl
Ġcom plic
Ġan imal
Ġco verage
z y
Ġp roud
re ate
Ġimpro ved
Ġsupport ing
r ich
Ġd ivid
ad ium
Ġmeas ured
Ġhon est
Ġra ise
ĠO lymp
Ġpur poses
ĠJack son
Cl ass
Ġin ternet
Ġdisc overed
N e
Ġvict ory
Ġdeb ate
N S
Ġpl ane
\ ]
ĠCo ast
Ġwor se
Ġalle ged
Ġs an
ĠSe a
Ġadv oc
Ġdesc ription
Ġint ended
C S
ro g
Ġequival ent
Ġa ircraft
Ã ¶
ac le
aw a
Ġn av
Ġdef end
AT E
ens us
Ġcor ner
Ġhold ing
ĠT aylor
Ġk ing
ĠCath olic
Ġw est
p g
ĠI P
Ġsu dden
Ġca ught
Ġres ource
ic an
Ġhous ing
Ġqu e
Ġsub s
ive red
}_ \
; \
Ġs ession
ĠI D
Ġ ille
pr ise
text width
) =\
Ġbelie f
igh ter
Ġexper ienced
Ġre form
Ġch ain
Ġadv ance
ĠA D
c ar
ult y
Ġreview s
ĠR a
Ġis land
ic ious
Ġb right
Ġhigh light
Ð ½
Ġr an
Ġdel ay
u zz
en ger
ind ex
Ġfam iliar
is er
ĠChild ren
Ġl ose
Ġd raft
in ally
ĠD igital
ont o
ag ger
ut s
Ph oto
Ġsubst ant
ĠCol or
Ġtal ks
Ġtre es
ĠAg ain
Ġfram ework
ly n
Ġh ab
ĠE xt
Ġinter action
Ġpers pective
Ġplan et
ĠS up
Ġvol unte
ĠF ed
Ġloc ations
ord ers
Ġre ject
ra wn
Ġdis s
Go ogle
e z
ĠM id
ĠSt ory
ĠF oot
ĠR om
O ther
ĠB oston
ĠRepublic an
ĠSecret ary
Ġwill ing
p a
red it
ĠA R
Ġc ere
Ġ& =
Ġinc ident
st one
ĠPh oto
ĠW atch
p ublic
ĠD ie
in et
Ġfind s
Ġab use
Ġun iversity
Ġsec ure
ik i
ific ations
Ġspec ifically
Ġresearc hers
C ons
ak a
\ {
Ġentire ly
199 3
G l
Ġs oul
ĠProf essor
ĠH on
ĠÂ ©
W ill
ang es
ĠGu ide
ĠV i
ĠM ic
Ġsp ring
or ry
ĠV ideo
p ost
force ment
] [
m ap
ĠC all
Ġac id
Ġat mosp
Ġs witch
ĠJ ac
in ations
Ñ Ĥ
Ġfil ed
Ġinsp ired
T ime
Ġcy cle
Ġdirect ed
Ġaff ord
Ġv ent
Ġtyp ically
Ġcomm ission
Ġass ert
ig inal
ĠThe atre
Ġchar ged
Ġinterest s
) }\
Ġsh ares
erv ative
man n
Ġins urance
Ġad m
Ġadv anced
Ġcons idering
Ġcook ies
ĠThe orem
ĠK h
Ġm ort
G r
ore t
ann a
Ġin frastructure
il it
Ġhe ight
Ġform ation
Ġscient ific
rom e
Ġposs ibly
ĠC ross
at uring
Ġincre ases
ĠI II
Ġsol ar
Ġsy nt
Ġfight ing
ĠP R
ins on
ĠR am
Ġend s
Ġsp aces
i ples
Ġparticip ants
he nt
ĠIt alian
ĠD ar
Ġemb od
l ights
Ġaspect s
Ġmar riage
ĠL td
C he
Ġexc ited
Ġsuggest s
Ġf ish
S im
un c
Ġacc ident
ad ow
ĠI raq
ĠL ook
F ollow
Ġsee k
Ġeas ier
if er
E G
ul ner
} +
p age
Ġstud ied
ĠS P
ĠT erm
ans as
25 0
Ġp al
ĠJose ph
Ġmanufact ure
Ġfig ures
Ġest imate
ĠDemocr atic
y r
Ġreg ional
alax y
ĠJ r
Ġa st
S et
ipp ing
Ġpriv acy
Ġsub sc
ĠG a
Ġac know
Ġr ing
ĠP age
Ġs and
Ġe at
O h
ĠW at
Ġrelationship s
Ġa x
199 2
O U
Ġbring ing
Ġcor porate
Ġb atter
Ġorigin ally
Ġauthor ity
{ {\
Ġask ing
Ġstand ing
m ond
Ġem phas
en ced
Ġthought s
ĠL ittle
j a
T R
ind s
ĠS outhern
Ġappro ved
Ġmom ents
J an
Ġfav our
Ġp ool
Ġcandid ates
Ġexist ence
Ġanc ient
coh ol
ĠF ield
ĠW in
Ġhealth y
st ract
Ġv ideos
197 0
E very
i ated
j o
Ġex ec
Ġ row
Ġle ague
ĠI ss
Ġconcern ed
av id
edd ing
Ġrem ov
om orph
Ġinf ect
app ro
ĠS us
iz abeth
M M
Ġappear ance
ere st
um s
ĠM att
d et
Ġb aby
ĠC ur
t est
ony m
ĠBook s
Ġm ent
Ġus ual
ĠCol umb
} ]
Ġput ting
Ġg ender
E r
Â °
ual ity
e per
od ing
pr ime
Ġse vere
ut ch
av irus
Ġclos er
ap h
8 00
ĠG ar
S m
E P
oun sel
or ic
ĠEx ecutive
ff ee
Ġsuggest ed
al o
Ġelect ronic
ĠP ass
Ġs ac
Ġrespons ibility
os m
Ġear n
Ġinvol ve
Ġr ough
6 00
Ġcol lected
g ence
ĠRad io
ir ty
Ġs ister
ĠL ight
ĠM A
ĠO l
Ġext ract
} =\
Ġdisc over
Ġmat ters
Ġwor st
Ġe ast
Ġre action
ĠBl og
Ġauthor ities
B O
Ġes c
op l
Ġs ides
r un
ĠO N
Ġr is
Ġmot iv
ĠMed icine
pt ions
E l
ĠMark et
ĠIr ish
Ġconf lict
ack ing
1 000
w an
ĠU se
Ġpos itions
ir ms
ĠF our
Ġform at
and emic
ĉ Ċ
Ġsh aring
as ters
et her
Ġint elligence
ic ity
ĠL og
Ġexper ts
ĠP rem
Ġtechn ologies
im a
Ġrepresent ed
ĠA ction
ar ian
Ġreturn s
Ġdis cl
Ġw arn
ĠPr ime
Y es
if ies
math sf
l ines
Ġs we
al i
A g
Ġwe alth
p ol
p ower
) ^{
Ex ternal
ge bra
Ġappro aches
Ġth ick
pre ne
Ġme re
Ġfin ish
Ġdel ivered
Ġconvers ation
Ġmagn etic
ĠF air
ĠBro ok
erv ice
am ental
Ġwel come
Ġgreat est
ester day
Ġman age
Ġconc ert
ĠA ge
ĠSp anish
ĠWind ows
ĠHen ry
Ġneg ot
Ġin du
Ġcont ribution
Ġmed ium
b ury
Ġ& &
ru ption
Ġspect rum
Ġemer gency
out s
ip al
Ġto w
b el
Ġl ibrary
y ers
V D
ĠOn ly
p x
Ġex ternal
Ġdrug s
Ġf at
p o
}^ \
Ġt um
Ġteac her
E X
re prene
Ġport ion
pl oad
ĠY es
b ound
// //
Ġarriv ed
Ġwas te
1 10
Ġf illed
ĠPac ific
Ġsp ending
ul ating
h ar
ĠQue en
Ġacadem ic
M r
ĠS et
Ġpl anned
Ġel im
Ġar ray
In ter
Ġneighbor hood
ru ck
ĠK n
ol ve
an es
Ġ iron
Ġredu ction
Ġcont aining
ĠS ign
$ )
Ġc ouncil
ess ions
Ġl ies
ĠS her
Ġf lex
Ġnew sp
ĠE gypt
o ir
Ġy es
wide hat
ĠCl in
Ġre nt
Ġim plic
Ġtherap y
P D
Ġte aching
ĠS at
ĠCh air
Ġclaim ed
Ġs ad
c it
ĠC ivil
Ġdec ade
Ġconf idence
ĠT w
Ġimplement ation
f in
Ġhum ans
Ġfeature d
Ġm ir
Ġsp ons
i ro
F il
oc ument
R el
k es
ĠSupp ort
Ġstop ped
Ġg ar
Ġc raft
pl ed
Ġr ide
Ġthe rm
Ġte en
un ting
Ġt ro
K ey
Ġli qu
ĠW here
gh an
ĠF ox
} |
Ġcomm ittee
Ġv el
ap ore
trans lation
ĠEngine ering
in te
Ġvirt ual
ur l
Ġfil es
ir a
Ġbelie ved
O ut
on avirus
ĠO k
ff ect
ĠM aster
ĠN orthern
is a
ĠCar l
C or
Ġshoot ing
ĠL ar
un icip
ro vers
Ġproced ure
ĠSc iences
Ġv en
L S
Ch ar
Ġtrad ition
ĠPriv acy
Ph one
Ġrem ark
C R
Ġcircum st
Ġdanger ous
ĠB razil
Ġk it
Ġfor g
Ġpost s
Ġt ight
Ġbro ken
ra ction
. ~
Ġprotect ed
Ġthem e
og y
Ġm el
Ġupd ated
Ġsign s
Ġca uses
Ġhundred s
ĠS ong
Ġact s
ed u
Ġpl enty
ĠMich igan
Ġg ather
ĠN on
Ġm ixed
ad or
ud i
ĠM P
ab s
ow nt
p erson
Ġregist ered
k o
Ġachie ved
il a
ĠSp ain
ock ing
Ġsy mpt
Ġtw ice
Ġabsol utely
Ġwonder ful
Ġn ative
I ST
Ġco al
Ġ ;
Ġmin ute
rag on
erv es
Ġinstit utions
Ġ ~
Ġrepe ated
el a
Ġfor get
ĠKore a
! "
van ia
, -
Ġag ents
le ctions
Ġsee king
Ġexperim ents
ĠP ay
ĠO nce
Ġcre ation
Ġrestaur ant
Ġact ing
E ST
Ġun iform
uc ks
T ube
Ñ Ģ
ĠM ethod
ĠRec ords
ourn ament
Ġindust rial
Ġdom estic
Ġide al
Ġb ra
Ġtell ing
F igure
Ġst orm
Ġfor t
if ts
F l
E ng
ĠArt icle
in ition
lem ma
Ġc as
Ġp it
D is
ĠH ard
Ġpay ment
N ote
a ught
Ġreport ing
Ġinstr ument
Ġl ots
Ġb rows
Ġrece iving
Ã ¤
g ely
Ġwin ner
Ġfind ings
n oon
he red
ist ant
Ġstud io
A ct
idel ines
ĠA ccess
Ġre pro
cd ots
bur gh
H ist
Ġv eter
Ġ\ {
Ġtyp ical
c r
ĠOh io
Ġvari ables
ĠF ull
Ġtrack s
Ġspe aking
H T
d es
Ġgu ard
ast s
Ġexc iting
Ġdeath s
Ġrem ove
ĠM S
Ġman if
Ġord ers
vi ation
Ps i
ĠA S
ĠS om
Ġ urban
Ġser ver
Ġbound ary
enc ing
D P
Ġun known
ĠPhil ipp
199 1
Ġaud io
Ġst ick
ĠTh ree
ĠR ay
ow ered
osop hy
Ġg ene
Ġex ecut
Ġaccount s
ĠCont rol
ĠF ollow
q quad
Ġsp oke
n ormal
Ġ era
Ġrec ording
ĠB ern
ĠGeorg ia
Ġb ow
Ġar ms
Ġjud ge
Ġexpos ure
ĠS U
Ġsc ript
Ġoper ators
Ġarchitect ure
ion e
O V
A F
Ġrefer red
ino is
ĠK now
Ġ ing
Ġp owers
av or
ann els
Ġconsum er
br id
) ]
Ġsim pl
Ġteac hers
r ite
we ight
x space
n ote
pt on
Ġadminist r
Ġor g
Ġown ed
re p
T wo
Ġpict ures
Ġdec ide
Ġre venue
Ġg rew
ps on
u ous
Ġri ver
Ġhand le
ĠHam ilton
ĠE th
ĠSystem s
Ġest ate
ĠNe xt
ĠN ick
Ġsecond s
Ġext ent
ict ed
ĠSt an
Ġconcent r
ĠC ost
sy l
Ġw ire
Ġre new
Ġad ults
iz er
B L
dim ensional
ĠL u
Ġcontinu ous
Ġstand s
ĠS on
Ġf ly
Ġeffic iency
le ts
Ġ icon
Ġv ulner
Ġexerc ise
Ø §
ĠF OR
ĠM ult
Ġprogram me
er g
ĠC reat
Ġra in
Ġhouse hold
Ġform al
ĠA N
Ġdet ection
ĠT al
ad s
Ġassess ment
ĠP oint
in ent
pro p
p ass
Ġact or
ĠCon f
Ġcount y
g g
ĠD NA
Ġp ed
ĠF red
Ġd ry
ĠO p
Ġar bit
Ġter rit
R S
aw n
Ġaccur acy
}} (
Ġhe av
Ġtal ent
Ġf ellow
ĠScot land
Ġqu iet
Ġw idth
ĠC ase
ĠD un
Ġst im
Ñ ģ
ĠE ric
F e
Ġcon ven
ari ant
ES S
ĠF act
if ier
A V
ĠB a
p et
Ġad ult
Ġconf irm
Ġmag azine
P ol
ack ed
Ġc ab
Ġsu it
Ġdeb t
Ġrem ained
}) \
Ġm outh
j u
ial s
b ro
iss ions
ad el
ĠM ain
app ed
Ġlar gely
Ġvisit ors
Ġwalk ing
Ġposs ibility
ĠP sych
Ġind epend
ĠL abor
gr ade
Ġaccept ed
Ġent ered
ap es
Ġs now
Ġexperim ental
w orld
ĠC at
ĠU k
Ġr ig
d i
ĠH om
amp ion
Ġsurpr ise
ĠSup reme
Ġunder st
Ġconsum ers
ĠC irc
Ġstrateg ies
ĠCl inton
ĠOr der
ĠG al
Ġwin ter
A tt
âĢ¦ .
ell s
at rix
Ġcomp rehens
Ġphen omen
ĠR on
n b
ĠAd am
Ġh ate
ĠF ord
ĠR en
Ġpartners hip
ĠL ocal
Ġprom ote
ok ing
ĠL ew
Ġext ension
angu ages
ĠR ail
ab et
se m
Ġtr ig
ĠT em
}^{ (
ĠC ru
Ġon going
s he
st ery
ĠE nt
ĠW ars
b al
fere nt
B ar
or ough
the w
Ġcons ists
ĠĠĠĠĠĠĠĠĠĠĠĠĠĠĠĠ ĠĠĠĠĠĠĠ
ut ation
ĠBro ad
t ra
Ġdat abase
ĠWil son
Ġindic ate
ĠCor poration
ĠAn th
r as
Ġte ch
Ġdoll ars
Ġf asc
ĠR yan
v y
ĠHot el
Ġtop ic
ĠDemocr ats
ĠS ky
ĠM ah
Ġfor th
Ġscen es
M T
ĠR est
sm all
Ġdynam ic
Ġv ary
Ġrelig ion
li k
ĠDe ad
Ġc ro
u able
Val ue
ĠE mp
Ġelect ed
Ġaccom pl
us al
ĠĠĠĠ Ċ
Ġbroad cast
enn is
y ou
W here
d s
Ġenjoy ed
Ġco oper
ĠS C
An other
Ġabs or
form ance
Ġinter face
rib le
Su pp
ain ts
Ġ$ (\
ann y
ord an
Ġmill ions
Ġworld wide
ĠB al
Ġ ×
Ġcap able
et ime
Â ®
j i
] ;
Ġfl ood
Ġsc ored
ĠK ong
Ġ& \
Ġt iss
Ġmain ly
Ġbeaut y
ĠAn other
se ct
ĠTh rough
Ġexpl icit
p ace
Ġrepl aced
Ġwid ely
l ar
M ark
ĠC ook
te x
Ġsus pect
Ġt ough
Ġfact s
Ġm aps
ic ial
Ġin hib
Ġcontribut ions
Ġinstit ution
Pe ople
ĠK enn
i ary
Ġa id
Ġit em
ĠR os
ĠSt aff
Ġdef ault
mer ce
ud es
Ġweap ons
syl vania
Ġb odies
Ġupd ates
Ġcommit ment
el lect
oc ity
Ġvictim s
Ġd iverse
p ng
Ġemot ional
198 9
Ġgener ate
Ġserv ing
P L
ĠAre a
Ġun s
T ER
ĠSch olar
}\ ,
Ġinvest ors
ĠC amb
Ġlic ense
ivers ary
Ġexpl ains
^ +
Ġrem ote
Ġpattern s
Ġag encies
ten ance
Ġstat ements
ĠGu ard
Ġanaly t
ĠSw ed
Ġs itting
ĠL ic
Ġwrit ers
re ens
" );
Ġengine ering
ĠKe y
D T
Ġen able
ĠJer sey
a ug
ĠV ill
ĠR ight
am ber
Ġch ampions
Al so
Ġshe l
ĠR od
ail ed
um es
Ġs weet
St ud
Ġs plit
Ġimag ine
ott ed
Ġf ol
( $
ĠI mm
r c
Ġt or
hem at
Ġele ctions
Ġper man
ul ing
Ġfl o
a a
ĠK ent
au ge
ist ed
Ġboy s
Ġaccur ate
ĠTor onto
Ġdro pped
it i
Ġg ift
Ġs elling
Ġse gment
Ġwe ar
Ġder ived
Ġcont emporary
Ġvari able
is odes
Ġl ie
ic ide
in er
ell o
ear ing
Ġp andemic
Ġst ret
L a
ch o
ĠAs h
Ġtot ally
cont ent
Ġcontroll ed
Ġv irus
Ġdynam ics
Ġimp ossible
Ġscient ists
Ġc art
AN D
ĠDe ath
ĠS ir
ang ed
Ġbo ost
Ġfund amental
Ġimpl ies
Ġarrest ed
ĠTe le
M on
Ġmin ister
ish op
}\ \
Ġdiv ision
Ġfeed back
T able
Ġm al
ĠSpr ing
H O
Ġtest ed
Ġfound ed
Ġclass ical
Ġlink ed
Ġinvol ving
ĠHol lywood
ĠCom put
Ġdo ctor
Ġprot ocol
Ġdeg rees
S ource
ĠAdminist ration
f ast
Ġg all
Ġem pt
Ġprot est
Ġb urn
ĠEx pl
Ġpass ing
qu ir
Ġenh ance
ĠL A
ar on
G A
w orth
Ġv ast
Ġequ ations
Ġpro port
ra v
Ġdram a
ple te
In f
ĠAnd roid
10 1
Ġsub t
**** ****
Ġsurround ing
in ates
ist ical
res hold
ĠFin ancial
Ġk illing
ĠPar liament
Ġmov es
Ġhe ll
L ab
Ġbre ath
Ġmiss ed
Ġcomp r
Ġbig ger
i est
ĠC ustom
Ġstrong ly
ĠManag er
s es
ĠJes us
ĠS ite
B ack
Ġm useum
ĠH u
ĠStep hen
Ġclos ely
Ġaward ed
uss ian
ĠCount ry
Ġd ress
in st
Ġg ap
ĠR og
Ġelect ron
Ġtra ined
ĠH and
M E
In st
ens or
raz y
Im age
ind ent
ra ge
Ġco e
Ġadvert ising
Ġfunction al
Ġlegis lation
Ġdis pl
R ef
ĠI mp
Ġre act
a ire
ol is
W ho
Ġf aster
Ġch apter
Ġeffect ively
Ġhon or
ĠB rian
A re
Ġf ill
Ġfac ing
Ġro les
Ġt ack
ers hip
ĠEl izabeth
Ġass ets
C al
ap y
Ġl augh
Ġacc ord
( {\
19 60
Ġhistor ic
ĠL ine
ĠSum mer
Ġ riv
Ġafter noon
Ġeval uation
ĠC ode
p arent
ĠCon c
Ġcont ained
Ġvot ers
D avid
Ġl ock
& =
equ iv
ĠSo ft
Com m
Ġrecogn ized
Ġst able
Ġrec overy
ĠD ark
P lease
Ġn ob
u ction
Ġt urning
Ġpack age
ĠBr ad
Ġcircumst ances
Ġz one
Ġf iction
Ch rist
Ġincreasing ly
Ġb ought
ĠA L
ag raph
A uthor
re ll
B est
ĠB all
Ġfe aturing
te en
in als
Ġfac es
Ġtra il
Ġfew er
Ġc e
ĠPal est
im ents
ent h
Ġstre ets
Ġhappen ing
ĠC R
ib ilities
ĠP S
Ġobserv ations
Ġbas ket
Ġsk y
ĠG i
ĠE st
ĠL in
Ġcont est
ĠSing apore
vent ional
Ġr id
Ġcamp us
Ġtechn ique
Ġrecogn ition
w a
Ġreason able
Ġun ion
og ether
ul ous
Ġst ations
Ġgra v
R et
y o
Ġw ine
Ġpre gn
old s
Ġassist ance
Ġcollabor ation
Ġin ner
d ate
Ġcont rovers
Ġres istance
he ast
ĠB on
Ġestim ates
An y
ir ation
B M
ĠU r
w ing
Ġlim its
end a
ĠDis ney
Ġcalc ulated
end ment
Ġpot entially
Ġassoci ation
Ġs pl
Ġexpl an
Ġal t
â Ĥ¬
Ġa thlet
Ġult imately
ĠRes p
Ġcomp os
ĠH as
ĠA venue
Ġille gal
Ġg iant
ĠB ang
ĠN FL
op en
Ġa f
Ġdep ends
Ġf estival
Ġin ject
Ġentertain ment
Ġpract ical
Ġn arrow
Ġapparent ly
Ġl osing
ou ston
ism s
Ġs oc
ĠYou Tube
ĠInst ead
Ġsche dule
Ġup coming
ener ation
y les
ov a
Ġcontrol s
l ength
Ġintrodu ce
ab il
ĠA I
Ġdep ending
AL L
Ġindic ated
Ġpe ak
ock et
ĠTra vel
Ġread er
Y our
Ð¾ Ð
ĠLem ma
Ġprov ed
Ġbelie ves
Ġpublic ation
Ġoccur red
Ġsing er
ag ues
Ġele v
M ost
o z
Ġdisapp oint
it led
se x
f ol
ru le
b les
Ġacc used
A Y
EC T
ĠFoot ball
Ġst ores
00 00
ro t
ĠMag azine
Ġres c
Ġro ot
Ġperform ing
Ġtrans mission
Ġar ts
ort ion
Ġopp osite
h space
Ġend ing
Ġcy cl
ĠM ir
riz ona
Ġmin im
Ġhous es
ĠF ac
Ġs ight
] $
ĠJ enn
p ool
Ġsu c
Ġne ut
Ġb anks
S pec
e en
Ġg od
ĠSt ation
b oy
ĠTh ose
ap os
Ġsomew hat
Ġse ats
Ġord ered
ĠC hem
Ġcomp are
ĠIll inois
ĠCon nect
ĠMark eting
Ġal ign
Ġgood s
ra ine
Ġev il
Ġhor se
ile y
Ġl y
C P
i ot
ĠB at
Ġc ards
Ġcharacter istics
a o
ĠS n
}} }
ĠO x
Ġal cohol
ĠMod el
ĠB ul
O ct
Ġfil ter
Ġexp ensive
ĠC apt
Ġass ign
Ġsupport s
et ary
ĠG reg
ĠM ill
O K
Ġsuccess fully
ĠB BC
ĠM D
Ġrec ip
Ġout come
ĠP ot
ĠV eg
Ġh idden
Ġinnov ation
Ġrel ax
Ġad j
iam i
Ġh all
Ġst ood
ĠN OT
olog ist
Ġw ins
U M
d r
Ġdistribut ed
ĠT urn
Ġf ab
rodu ction
Ġst rict
O G
d ney
Ġder iv
Ġpl ate
Ġcol on
ĠE s
ĠB ad
an th
OR E
ol t
ĠA p
ar ters
the n
Ġgrow n
Ġar my
Ġh its
Ġext ensive
Ġsur gery
f ound
ri p
anche ster
Ġdes ire
Ġsett ings
Ġintegr ated
Ġcapt ure
ep ing
Ġm and
ĠT ax
Ġmess ages
ĠOffic er
ĠAs ian
ĠF all
ĠR ose
ict ure
u i
sc r
Ġris ks
ĠR un
ĠH ong
Ġsurpr ising
ow ing
aw ay
Ġocc asion
Ġserv es
M ich
Ġne ither
el d
ap ed
Ġy esterday
ren cy
ĠPr ince
cit et
id ance
AR T
ĠM iller
Ġprop ag
Ġaccom mod
ĠUs ing
Ġalong side
v ard
Ġch annels
ell ar
Ġdr ink
em an
Ġint ent
Ġam pl
ĠKe vin
. '
Ġinter actions
Ġm ob
ĠTh anks
at ial
Ġbr idge
ĠC ancer
ĠT ake
Ġreg ime
ce ived
c ription
is ition
ĠH ave
Ġfun ny
Ġmag ic
o ices
Al though
ĠFore st
ĠHar ry
ĠN AS
Ġyoung er
ĠDav is
Ġco vers
Ġhor iz
r at
Pre vious
Ġt ail
Ġcon vert
ĠCom ments
ĠAn alysis
Ġor ient
ĠO R
ĠChe ck
Ġin equ
j pg
n ic
198 8
Ġa wards
Ġs outhern
ch ild
Ġcl ar
} :
Ġexpl o
es ome
Ġhe nce
s in
ĠInst agram
f il
Ġfac ilit
Ġimp ressive
Ġdim ension
Ġmod ule
Ġtrou ble
Ġpartic les
Ġse es
Ġnear by
ĠB ell
ĠK at
tain ment
ateg ory
um a
Ġd iversity
Ġb omb
Ġent h
ĠP en
Ġpres ents
Ġsur f
omet ry
Â Ģ
Ġeduc ational
Ġb are
Ġden ote
d oor
Ġcomp ens
Ġsch olars
E ar
= >
D uring
ĠAg ency
est ion
Ġun able
ess ed
ĠF uture
ĠCap ital
it is
A pr
vers ion
âĢ ĭ
ĠB ox
Ġhead s
Ġag ric
el i
ĠD am
it als
Ġth read
ÂĢ Â
Ġemploy ment
Ġm ine
Ġsympt oms
ĠS anta
P P
R em
ĠL ow
l ow
ĠB ush
Ġsect ions
D irect
ĠT er
li x
ĠB and
Ġtrans formation
let ter
ĠColor ado
Ġpar allel
oc y
Ġprim arily
ĠPro duct
ĠH op
Ġpull ed
oc key
ĠMore over
Ġhol iday
cent ury
igr ants
ĠChampions hip
ĠTe ch
a fter
Ġimprove ment
Ġsecond ary
Ġsc ores
are t
Ġh ole
ap se
Ġ( +
ĠT ony
R equ
ĠS uch
Ġb ands
Ġs qu
inf o
Ġnecess arily
Ġobject ive
he rent
Ġmonitor ing
ĠE astern
st ers
e h
Ġphot ograph
ill iant
Ġsem i
ĠB uilding
Ġmark ed
Ġsubject s
per t
E qu
Ġinf o
ĠW orks
T est
Ġpers ons
ang ers
er ver
P at
Ġsuc ceed
Ġour selves
Ġpresent ation
Ġopp osition
Ġsur ve
s pe
ĠP ract
ĠB ru
Ġform ula
) );
Ġb ag
Ġ( @
( -
Ġi Phone
ĠH ig
us er
er ate
ir k
Ġobvious ly
S R
or ne
ay a
Ġin tern
Ġdescrib es
Ġrepl ace
ĠMay be
Ġb ond
Ġmeasure ments
bre ak
E A
Ġerr ors
an while
ĠH un
nes ota
ĠB efore
Ġstri ke
Ġ/ **
Ġatt ribut
ĠJ am
Ġbre aking
ĠSt art
reg on
ne q
Ġunderst ood
Ġnew ly
Ġreg ulations
Ġleg end
Ġbehavi our
ĠE mer
Ġpropos al
Ġt asks
ĠC as
Ġsched uled
on na
ĠG reek
Ġy ards
Ġcomp act
ĠR oss
ĠY et
Ġland scape
inem a
ĠC le
ĠM ajor
d isc
Ġdis p
ru ctions
Ġcur ve
ne ver
ot ype
Ġbr anch
Ġapp s
ĠApp lic
a ver
Ġproced ures
Ġcr ash
ĠS aint
ĠSt ring
Ġvers ions
Ġpr ime
re ction
Ġinit ially
ov en
ob by
c ore
Ġcomprehens ive
198 7
it ative
F R
b ell
P res
includ ing
I O
' .
Ġear ned
ĠW as
iz z
os ure
le te
Ġwrit es
ĠN ig
Ġd rawn
ask a
Ġass ault
Ġdriv en
Ġwe aring
err ing
U p
Ġso le
Ġinnov ative
ad ed
Ġhas n
ĠD ream
M D
hold ers
% ,
Ġal ive
Ġadopt ed
in ant
Ġdri vers
Ġinvestig ate
i y
ownt own
Ġlegis l
ĠM ake
do i
Ġp ra
g ov
U K
Ġcont ribute
ĠB ra
un a
Ġep isodes
Ġchalleng ing
. </
enn es
az e
Ġcommun ications
Ġimmedi ate
Ġco ffee
Ġfrequ ently
Ġintrodu ction
ĠC ulture
Ġperform ances
198 6
Ġrec all
pro t
Ġant ib
r ac
Ġrev olution
ĠPart ners
Ġsol ve
Ġpark ing
ĠSt ill
Ġindic ates
] \
Ġn orthern
E V
Ġconsum ption
K e
ĠCh ange
or gan
umer ate
Ġcom edy
Ġempt y
Ġd iam
+ +
Ġaut hent
Ġserious ly
h as
ĠC ond
adel ph
ac her
Ġreal ize
p ack
Ġemploy ee
Ġbe er
Ġcho ices
Ġgu ests
l s
Ġwor ry
mult icol
Ġto m
J o
che ck
Ġesc ape
ĠRes ources
ĠF riend
Ġe c
ĠA k
b ul
ĠEd itor
i ac
ĠP ubl
S W
on ents
A ug
ĠT her
prof it
I LL
Ġb one
Ġv oc
isc ons
S D
E ven
Ġex cess
ect or
Ġ- \
Ġwat ched
it ivity
Ġpay ing
Ġadd s
Ġr ural
ĠUn ivers
H L
Ġpol ar
iscons in
or i
Ġext reme
ĠP resent
| ^
H A
H is
M in
al ty
ĠC L
Ġex ceed
W orld
E m
Ġbl ocks
b u
am i
ĠEd ition
Ġsu itable
Ġprovid er
Ġout comes
Ġvot es
Ġpick ed
miss ions
multicol umn
Ġattempt s
ĠR h
Ġappro val
C ell
Ġappoint ed
l ock
ens ed
c ers
ow a
Ġlist ening
Ġw alls
Ġ âĢĻ
Ġb es
ĠB iden
Ġgu est
Ġlik ed
no indent
Ġatmosp here
adelph ia
ane ous
he im
ĠF inal
U LL
item ize
Ġair port
Ġatt ended
Ġres id
Ġmount ain
omet ric
ri ers
ĠTur key
a ud
ĠFin ally
Ġs ick
re ement
ĠH ay
Ġprodu cer
Ġproper ly
D ep
Ġfe es
ĠP A
Ġm ac
Ġprofess or
Ġbo at
E xt
Ġant icip
a uthor
Ġfra ud
ĠComm on
" =>
Ġab andon
ĠP ut
% .
ĠH D
Ġencoura ge
Ġpl astic
app y
F T
ĠC P
ay ers
ĠGr ant
. _
Ġcirc le
Ġoper ate
f ile
1 30
if ferent
ĠM ach
ellect ual
el le
Ġtick ets
Ġmoment um
Ġg ro
Ġth reshold
S I
Ġliqu id
t ed
or ical
Ġcateg ories
Ġtop ics
Ġslow ly
Ġparticip ate
> >
Ġlet ters
Ġang le
az a
Ġfe e
ĠMin istry
Ġatt orney
Ġp itch
um in
Ġhealth care
Ġ ðŁ
ĠP rom
Ġmeasure ment
Ġcomp osition
Ġinf ection
ot ten
ist ent
Ġprom pt
gress ive
Ġmanufact uring
Ġpoint ed
) {
ĠHe art
Ġvel ocity
ĠD id
Ġst one
Ã ¨
al g
ĠStud y
Ġact ors
lin ear
Ob ject
Ġw estern
Ġrecomm ended
}} {\
Ġocc urs
Ġext end
Ġres erved
Ġanaly z
Ġstr ange
ĠW ales
Ġdi agram
Ġdist ingu
ã ĥ
the orem
ĠC ro
Ex ception
ĠN ever
Ġj oy
ĠL ady
198 5
Ġimm un
ĠV en
st al
ĠPenn sylvania
ĠA G
Ġmat ches
Ġbus y
su pp
ĠA li
ĠA h
Ġdemonstr ated
f ortunately
Ġdisc rim
ĠJ osh
ĠSen ior
Ġre in
Ġopt imal
ĠN av
et ts
eng ers
Ġr ub
Ġstrugg le
Ġsp okes
Ġpercent age
' $
ĠSar ah
ĠMr s
u pp
Ġl anguages
Ġfif th
c alled
ĠCh all
â Ĩ
Ġbut ton
Ġl es
Ġg ay
Ġf ulf
Ġre ar
==== ====
Ġprinc iples
Ġbatter y
Ġdel ight
ol ly
ond er
Ġsurpr ised
ar g
Ġvers us
d t
y cl
Ġad venture
il ty
Ġinform ed
dis play
Ġbro ke
ĠC ub
Ġwhere as
ĠC ON
ĠV iet
p y
Ġinter act
v space
ĠL ink
Ġmeet ings
198 4
and y
b ing
en umerate
f ill
Ġcover ing
ĠReview s
Ġdatas et
Ġroom s
Ġinv ention
W rit
Ġincred ible
Ġl ift
B en
ĠF L
and al
Ġb on
Ġprofession als
Ġinteg ration
a id
Ġp apers
F ile
up id
E nd
O ff
Ġplatform s
ut ed
ĠF IG
Ġaware ness
Ġbr ands
ag a
ĠTrans port
ĠLew is
Ġcrit eria
Ġun iverse
ol n
Ġconsequ ences
Ġ ]
Ġt aught
c ount
d on
Ġben ch
ĠMar c
Ġ: =
ĠP ers
Ġansw ers
h av
N ational
Ġte ach
Ġexhib ition
Ġp ip
Ġtit les
Ġcon clusion
math scr
Ġv ess
T ra
ĠD O
i ology
Ġconcent ration
ĠS em
ĠCont in
ĠB ase
r ange
Ġinj uries
os ph
U nder
ĠAcc ount
Ġelect ro
ĠDo es
ĠIm ages
ĠD u
Ġcon j
Ġen forcement
{ }
ag an
Ġ( -
Ġsold iers
ĠAff airs
in ch
ĠA st
Ġsc al
h igh
Ġrel ief
Ġknow ing
ĠGall ery
Ġhop es
atur ally
Ġimplement ed
p ress
) }{
end ar
Ġsign als
Ġb ath
Ġhab it
Ġd uty
r ide
ex pected
Ġpil ot
ĠL ind
ã Ĥ
ĠDie go
Ġarbit r
ition ally
ĠBro ther
Ġf rag
} -\
Ġd ual
Ġany where
Ġper m
Ġsw im
Ġh at
} +\
ĠColumb ia
Ġexpl os
Ġpros pect
Ġvot ing
ers ion
ĠJ ean
Ġex posed
Ġcompet itive
ĠA rizona
uss ion
Ġcorrel ation
Ġkeep s
ĠH ouston
Ġnarr ative
ĠSaf ety
ag en
}} _
p c
Ġm o
U C
Ġent r
Ġstrateg ic
Ġsustain able
bs ites
ent er
ĠLat in
Ġabsol ute
M any
Ġcol our
l ocation
Ā Ā
Ġper t
ĠMod ern
Ġcomb at
Ġtw enty
ĠJ ordan
Ġtarget s
ĠGover nor
Ġdisc overy
ĠS av
Ġex clusive
Ġm g
Tr ump
Ġst ake
_{ {\
ĠM oon
bl ack
Ġmain tenance
ĠJew s
ĠGold en
Ġval uable
ĠT reat
ĠTh ings
T ext
Ġ! =
Ġrespons es
ĠV ice
ĠY ears
y ard
ateg ories
ĠPat rick
all as
P T
ious ly
Ġcons ent
or se
Ġcontinu ing
ou red
Ġsent ence
ath y
Ġreal ized
Ġlik es
Î ±
Ġincor por
a is
int end
f irst
Ġreg ister
Re view
Ġo k
Ġfair ly
ĠSt ock
on ly
Ġcl imb
mod el
in ator
d ep
ĠD om
str ong
ĠHarr is
con nect
Ġgrant ed
ol id
ish ment
ĠS ound
Ġconfig uration
Ġadv is
Ġreve al
Ġprinc iple
Ġg ate
ã ģ
Ġr u
ĠF arm
Ġd rag
oper at
Ġinv ent
ĠSt one
ĠEd ward
Ġfound er
ach us
roll ed
à ¸
Ġbe ach
est yle
Ġde als
Ġh urt
op her
Ġpresident ial
et ies
ĠE vent
h u
Ġre ward
ĠLear ning
F eb
ect ive
ĠSy dney
) }$
Ġb at
Ġwhe el
con st
Ġcele b
Ġsol o
Ġr ising
Ġche ap
Ġdemonstr ate
Ġcomfort able
Ġd ust
as m
7 00
Ġg auge
Ġcl uster
Ġstat istics
ell ite
ĠT en
ak i
op ic
ific ial
ari ous
Ġrad iation
c raft
G en
U pd
Ġl ux
Ġprovid ers
Ġth inks
Ġb att
Ġst ead
og s
â Ħ
Ġprof it
ĠEnter tainment
ĠIslam ic
Ġde pos
Ġret ire
Ġt aste
Ġf lying
Ġvis ited
Ġeng aged
Ġopt ical
operat orn
G ood
se a
Ġmod ified
ĠN avy
, âĢĻ
Ġent reprene
ĠSc he
ol y
ĠSy ria
b ase
M O
ĠPl us
ell i
Ġcru cial
Ġspec ified
ĠS earch
Ġal gebra
N Y
uc ed
C ount
Ġ// /
Ġth in
F ind
Ġm ail
ĠH old
Ġhor ror
Ġfl ag
Ġtr uck
A ust
ĠN umber
Ġeng age
Ġmed icine
Ġinj ured
operatorn ame
er on
Ġde ploy
ĠAr m
Ġabs ence
Ġorgan ized
E vent
Ġf uck
Ġso il
ĠM iami
k m
Ġph arm
il st
omet imes
ĠS ab
Ġlay ers
Ġm it
Ġperfect ly
Ġs ought
Ġsudden ly
ind ed
Ġwalk ed
Ġconstruct ed
tr ue
Ġins pect
Ġbe ar
c ut
p op
Ġacqu ired
ĠS ex
Ġelectric ity
St ar
Ġdis miss
ĠO cean
ĠE ffect
ĠTra ining
at in
Ġscen ario
Ġref uge
ul pt
Ġautom atically
ĠO nt
V is
rie ved
n orm
ĠF ind
over ty
Ġcl ust
ound ed
Ġvis ible
U D
ĠMat thew
Ġst ored
ess ional
ĠO s
in ite
Ġfra ction
Ġn odes
fol io
Ġaccord ance
ast y
Ġess entially
h ist
it ro
Ġemploy ed
ie ce
Ġre cept
S L
Ġem br
es is
Ġassum ed
ĠSim on
Ġto x
ĠJ ason
ĠPro cess
Ġenem y
Ġaim s
Ġo x
Ġaccess ible
Ġt ournament
Ġbas ically
Ġbr illiant
ĠDes pite
G E
sum mary
ĠCo oper
Ġse asons
Ġsurv ival
os a
st s
ant ed
m akers
ĠIs lands
T HE
ĠMin nesota
Ġr um
ĠPr inc
Ġb ass
Ġca using
ff ff
ĠH o
ĠMount ain
v ol
ĠR oom
Ġbu ying
Ġsubsequ ent
ĠVict oria
ĠN a
Ġun us
ĠC redit
Ġins ert
ĠAnt on
Ġmor al
c ases
ĠE T
ĠL iter
L ook
Ġg arden
Ġc m
oc ated
Ġunder lying
Ġbeh alf
og ene
ĠM anchester
Ġany way
M R
ĠP ack
ĠD ate
Ġrepresent ative
ĠG ro
es h
m ony
S O
Ġreve als
Ġm m
Ġh ur
Ġconnect ions
Ġs oci
b ott
Ġem issions
Ġâ Ĩ
' :
Ġw al
Ġnot iced
ĠM s
sk ip
" ;
- $
Ġwar ning
Ġbasket ball
Ġprodu cing
ĠEconom ic
els on
ĠI V
pt ic
Ġeval uate
o il
Ġste el
Ġsc ope
ia h
Ġanal ys
ĠW ord
ĠH ind
bour ne
w atch
Ġacknow led
fl ow
Ġclass ification
Ġv ice
G L
ĠD ave
Ġthe oret
Ġst ability
Ġtick et
ĠPerson al
o en
achus etts
Bl ack
l ers
D C
ch ing
ĠC T
ĠIn nov
Ġcarry ing
ĠAlex ander
an ing
ĠC ab
Ġlaw yer
ĠJ ay
ĠFurther more
Ġsit uations
Ġkind s
Ġtra v
A c
Ġc ounsel
ĠF un
Ġnewsp aper
em b
g age
ĠRepublic ans
an ning
Ġp ul
ple x
ĠB ol
th ur
ĠJ ane
Ġexpect ations
ĠK elly
Un iversity
ĠG un
\ }$
Ġaut o
ro it
J uly
ul us
um ps
Ġel ig
Ġrob ust
Ġf ault
M c
Ġprogram ming
N C
ĠFore ign
Ġph r
ĠRel ations
Ġstrong er
ĠS quare
er ning
ĠSh ort
it o
T oday
Ġcelebr ate
Ġenth us
ik a
Ġp odcast
Ġcommon ly
yp es
Ġbu ff
Ġprinc ipal
appro x
b led
d eg
Ġsuff ered
s up
Ġfr anch
Ġunder t
P i
Ġdise ases
ĠG ree
bl ock
ing ham
Ġst ages
arr ing
Ġeng agement
aly t
( ).
en ess
rib ed
eth yl
Ġapplic able
ĠEmp ire
ĠIndust ry
ĠN ations
re ts
ĠAuthor ity
Ġdivid ed
ĠC rit
Ġro of
il ation
Ġpartic le
ific ate
ĠMov ie
ip edia
ĠCol lection
Ġ( âĢľ
ĠDef ense
ĠB ab
Ġex clud
Ġvacc ine
ed ing
inc oln
ord on
19 50
ĠA mb
l n
Ġwere n
F ield
Ġcirc uit
t itle
Ġamount s
âĦ ¢
ĠTr ade
Ġcut s
Ġcons cious
ĠIsrael i
Ġredu cing
m aking
Ġop ens
od ge
on al
nb sp
c hers
it ure
Ġtrad ing
ay ing
Ġcut ting
Ġre fere
Ġgr ade
rop y
Ġregular ly
ĠSil ver
n ie
ĠĠĠĠĠĠĠĠ ĠĠ
Ġfol ks
Ġdisc ipl
Ġb oss
Ġgen etic
re tt
ak h
ok ed
ograp her
ĠR oll
Ġmet ric
onym ous
Ġflu id
ĠE V
Ġd ates
Ġo cean
Ġf ruit
Ġgu idance
Ġacc eler
ĠO regon
y es
ĠR ome
ad i
Ġsk ill
Ġdog s
im age
ĠM oh
Ġtri als
Ġfant astic
ĠAll en
is ations
Ġf ib
ĠT am
unicip al
Ġinv ited
text tt
L P
Ġfl ux
AS S
Ġv ital
Ġt all
Ġprom ise
ĠB C
Ġfac ed
C opyright
\ ,\
ĠCon stitution
Ġarg uments
Ġrec over
Ġrepresent ing
ĠL ib
Ġmy th
Ġprep are
ph p
ĠSc ient
Ġtiss ue
M I
Ġsil ver
Ġch ose
Ġb le
ĠAtt orney
Ī Ĵ
12 5
ig ious
as i
Ġins ight
P aul
B R
Ġsens itive
Ġb ike
s plit
$ }
se ud
Th anks
f ire
ug s
Ġhard ware
ĠW W
Ġdeal ing
ĠPl ace
Ġcour ses
ĠW isconsin
Ġsc r
Ġt err
Ġn urs
D R
j s
f lix
ĠAnd erson
Ġprov en
Ġlo an
Ġinter ior
Ġve get
ĠLe on
Ġd inner
m ain
Ġcor onavirus
J une
ĠCont act
ĠR oy
H igh
af e
C all
ĠR ick
ort ed
ĠB attle
Ġass igned
ĠL ie
Ġfarm ers
ĠL LC
Ġmin imal
P E
ĠM ember
ĠN ame
st ic
b in
ĠB ry
ĠLim ited
ow ed
Ġret urning
ĠStud ent
w ho
ĠI L
ĠP itt
ĠAf ghan
es y
Ġt act
ĠRep resent
Ġas ks
H z
Ġne uro
Ġsim ult
ĠH ence
ĠS H
Ġsuff ering
Ġal leg
Er ror
Ġfall ing
Ġvis iting
esc ription
ater n
or ous
Ġconsider ation
Ġrecogn ize
Ġsubs id
U E
od ed
Ġcapt ured
Ġcreat es
Ġgovern ments
Ġlo op
ro ke
ik ipedia
ane ously
Ġb id
c at
ĠD rive
18 0
end ix
Ġc osm
f i
ĉĉĉĉ ĉ
ĠS ales
ĠMo ore
ĠAtl antic
Ġinvol ves
Ġs in
Ġshop ping
ĠT R
ĠSm all
Ġfall s
W atch
Ġle ct
Ġlaw su
el come
ĠO ak
ĠS ant
Ġperson ally
re ated
Mich ael
ĠPolit ics
Ġiniti ative
198 2
Ġtrend s
Ġresult ed
Ġput s
S outh
IN E
t an
ĠRet urn
Ġg rab
Ġres on
Ġt iny
Ġdevelop ers
Ġper mission
S ch
ĠB udd
pen se
Ġw aves
Ġdo ors
ixt ure
Ġdes k
Ġsub mitted
ĠFin ance
ef ully
Ġtax es
Ġinst alled
ĠBr idge
198 3
Ġimpro ving
Ġcat al
Ġfound ation
Ġdeep ly
g ame
lik ely
Ġsh ips
Ġrapid ly
ĠM arsh
riv ing
Ġgr ass
is ely
Ġob lig
Ġhop ing
Hist ory
ix el
ĠL es
ail ability
a us
Ġnuc le
Ġad mitted
Ġem ission
Ġtemper atures
ĠOx ford
ry pt
se ason
W ork
d am
as p
Ġheav ily
Ġassum ption
im m
Ġt urb
Ġdestroy ed
P ublished
ur ities
w ords
Ġrestaur ants
B r
Ġpop ulations
Ġag es
ĠL yn
Ġinteg ral
Ġfriend ly
Ġgr id
Ġro se
ĠAnth ony
Ġcopy right
Ġvot ed
~ $
ĠVeg as
H ar
ĠH art
ĠS E
Ġl ights
er as
ĠAnn ual
T E
W est
ĠSe attle
ĠEnvironment al
Ġ( "
ĠReg ional
Ġrespect ive
Ġbrows er
ĠPhil adelphia
V ert
Ġperman ent
ĠA C
Lab els
x it
Ġro y
Ġsh ock
iff s
Ġdecl ared
s ur
Ġalbum s
Ġaff ili
Ġs ending
Ġprior ity
d ec
ennes see
ĠAs sembly
Ġjo ining
her lands
F O
Ġtransport ation
L og
Ġchild hood
un es
el and
ĠC urrent
Ġcon ventional
ĠG ard
R ed
M arch
our se
ĠMem orial
end ers
Ġsh ots
Ġfin ance
ĠT an
Ġexpand ed
Ġsupp orters
A nt
P G
Ġoff ices
Ġmod es
Ġe igen
Ġperson nel
Ġman ip
Ġexpl oration
ĠC orn
Ġd ies
ĠRe qu
Ġn ic
Ġatt ached
Ġab und
Ġrestrict ions
Ġent itled
Ġalgorith ms
ĠProt ection
ĠF A
Ġhyp othes
ĠStud ents
Ġwat ers
Ġre n
igen ous
ĠL as
L ike
ur is
st art
w hel
A ut
ĠSt adium
osp itals
() );
Ġconstra ints
Ġsurv ive
Ġk il
Un ited
ĠTra il
ĠSoft ware
Ġuncertain ty
Ġk ne
ot te
Ġwe bsites
Ġsim ulation
! )
Ġliter ally
Ġ\ |
Ġconstit ution
ĠMon th
Ġapprec iate
Ġprov ision
Ġgu idelines
Ġtem por
Ġconstant ly
Ġfant asy
Ġorgan ic
o vers
Ġthous and
ĠEv ents
ack et
Ġed ges
3 60
Ġcom ic
Ġopp osed
Ġf old
ĠT ype
ĠSh ould
ĠLeg al
Ġc razy
irl ines
ou ch
clus ions
Ġimm igration
ĠG row
r ate
Ġw arr
itar ian
Ġne ck
Ġsomew here
ĠM ap
Ġregist ration
ĠSa udi
ĠN ature
Ġf irms
Ġch art
g i
ĠE ss
H and
ĠC reek
ĠD VD
F ree
ĠH ur
ĠC ov
Ġn ations
t witter
ew idth
Ġobserv ation
âĢ¦ ]
Ġspirit ual
IV E
Ġact ress
Ġsp atial
uro pe
ĠPlan ning
ĠS port
ik es
c s
om atic
F P
Ġmechanism s
Ġr ating
ĠPr ice
Ġgrad uate
Ġch a
Ġfl ash
Ġst ruck
ĠG ab
ades h
Ġch ampion
Ġmen u
~~ ~~
b at
ĠD rug
S M
g t
Ġcop ies
ov iet
Ġpolit icians
Ġrele ases
Ġsymm etry
Ġroad s
K E
ĠD E
Ġweek ly
er ior
ĠB arn
Ġparticip ation
Ġconc erning
Ġpurch ased
Ġas ide
ĠW inter
ĠLab our
Ġla id
D em
Ġcap abilities
ĠR aj
Ġdetect ed
Ġequ ally
Ġj u
Ġill ness
th rough
Ġse ed
ĠL iving
h ard
H el
H er
S um
g ate
Ġg ang
Ġm ask
subset eq
Ġmere ly
P ath
ĠTh ank
Ġme ets
sub figure
Ġmanag ing
ĠNig eria
ĠCh apter
ĠAn ne
ĠPr im
in ian
ĠU lt
Ġtr ick
V I
Ġtrans lation
Ġy ellow
ĠDo ctor
st op
Ġinterpret ation
) +
Ġf inger
if ting
Ġgen es
ra id
Ġme at
ĠK ansas
ĠE X
ĠĠĠĠĠĠĠĠ ĠĠĠĠ
Ġmar ks
ou ri
ĠCom ment
Ġs quad
Ġrep orter
Ġoffic ially
S y
D an
Ġinterview s
ĠEp isode
s uch
r ine
Ġm urd
IT Y
197 9
` `
ie re
achel or
ool s
Ġannounce ment
in v
Ġpredict ed
ter y
Ã³ n
ĠBer lin
Ġrequ ests
ĠS D
ĠA z
on ia
Ġfeel ings
N orth
Ġp ump
F i
Ġgu ilty
Ġb oot
im p
ic ing
n i
Ġmem ories
n av
G eneral
ER T
Ġcare fully
Ġdocument ary
ĠMass achusetts
ar ia
ĠRes ults
Ġal ter
ĠN O
Ġemer ging
Ġcomplex ity
Ġloss es
d em
Ġacqu isition
Ġcons ervative
Ġreg ulation
min us
Ġarg ue
t ag
Ġout standing
Ġviol ent
ĠE P
Ġexpert ise
ĠMor gan
Ġexplan ation
à ¦
M ap
Ġtalk ed
ĠT ok
ĠP u
att ice
Ġtri es
Ġj un
Ġmy ster
____ ____
ĠG P
ĠĠĠ Ċ
Ġsome how
atter ing
D et
ol ving
Ġal ert
) {\
Ġpay ments
Don ald
Ġsens or
aw are
Ġdiscuss ions
Ġdraw ing
Ġgen u
em bers
l ie
room s
Ġmach ines
ur se
ig e
The ta
at hered
m ad
ĠCommun ications
u ating
Ġr ational
ors hip
ors es
Ġe ating
Ġcompl iance
Ġreli able
ĠC ele
r ated
ble m
Ġbre ast
d ist
Ġhy brid
Ġdes ired
ĠB an
Ġsy nd
e lect
aw s
Ġt one
Ã §
ĠN ob
Requ est
Ġpro hib
Ġra w
Ġcomplic ated
Ġgen re
Ġcou pling
er k
Ġrep utation
F inally
u ce
ĠMem bers
Ã ±
hes is
Ġtro ops
ams ung
Ġs oph
ĠN az
ĠOnt ario
olog ists
ĠF ant
yn c
Ġp ushed
ĠCh annel
Ġfavour ite
Ġpass engers
ĠTe xt
M s
Ġst upid
Th ank
Ġclub s
Apr il
F I
Inf o
Ġvari ation
Ġdem ands
Ġsh arp
Ġg ent
Ġim per
Ġdec ent
ĠAd vis
lin ewidth
ĠG il
D ec
i able
ĠScott ish
se arch
the re
Ġg ained
on om
erv ing
Ġhost ed
oun ce
Ġann iversary
ĠS N
st ep
Ġthe orem
ĠS O
abet es
Ġpart ial
Ġfac ulty
ac ent
Ġw edding
ĠYou th
B re
u f
in cess
1 12
Ġm ice
riv ial
f all
Ġmor ph
ĠFr ont
ad er
ĠWh ich
Ġaim ed
ather ine
oc us
Ġt ag
d y
IC E
in ction
Ġp ric
ĠO bs
ĠF ive
ĠO S
. -
ing ers
R L
Ġobs erve
Ġdes per
Pro f
Ġa er
g ments
ĠM it
Ġtrans action
h ang
Ġshould n
Ġinter vention
ĠW olf
Ġcons ervation
et al
T T
ĠMic hel
Ġregul atory
comm and
ich ol
Ġto ler
ĠF BI
ĠG h
Ġevery where
Ġdo i
ĠG arden
Ġinequ ality
v ised
O pen
ĠM ars
ĠS ix
ĠSt ore
Ġterrit ory
Ġmonth ly
Ġvert ical
Ġro ots
198 1
Ġdis ag
Ġleg it
che ll
Ġdo se
elf are
10 2
Ġcomput ing
or able
ĠSchool s
B N
Ġbi as
3 50
ĠHol y
d ale
Ġsum mary
Ä ģ
Ġcon front
ab ama
Ġindu ced
F S
Ġcour ts
cos ystem
Ġcr imes
less ly
Ġse vent
ĠP ed
Ġg aming
ĠM other
Ġdest ination
Ġweap on
ĠAust in
b ec
Ġregard less
) /
c ond
v o
Ġkit chen
ust ain
ack er
ĠNe ed
ĠB ible
ĠEar ly
ĠStand ard
Ġpo etry
ĠAg reement
ĠArch itect
as hes
Ġtarget ed
or ce
Ġstat istical
Ġwhere in
Ġfore cast
Ġl oud
spec ific
ot ion
O nce
ĠCl oud
ure au
ĠWe bsite
Ġwe ird
b ow
ĠR ub
und le
us cript
ist ing
ick en
Ġdesign s
Ġl ists
B ecause
Ġdecl ine
Ġre aching
ĠRev olution
aur a
Ġdecre ase
ĠPort ug
Ġocc as
Ġr acing
asc ular
Ġton ight
ĠP a
Ġdemocr acy
ĠPhilipp ines
ĠO pp
Ġp ace
Ġb ars
ul i
ĠTh ough
Ġag ed
Ġcollect ive
D I
ĠP ath
Ġfore ver
Ġphil osophy
10 5
Ġint ention
US A
Ġlow est
D own
B E
II I
ob ject
ĠLa ure
re ation
Ġt ank
S en
ĠT it
Ġnegot i
Ġapp lying
ĠFor um
}^{ -
i ors
m ates
Ġpre ced
ĠUk raine
ach ment
w ich
Ġch ronic
ĠJ ess
ĠK it
l ast
ĠI owa
m ont
Ġp airs
pro d
d ing
x x
ĠSim ilar
under line
Ġ/ >
Ġconc rete
Ġord inary
r ons
Ġbase ball
Ġsett lement
Ġre ferences
ĠT rib
ĠN atural
Ġshe ll
we b
D isc
ĠRec ord
ĠH IV
Ġr hy
Ġbird s
u z
Ġsing ing
ĠCamb ridge
ĠE le
Ġsim ulations
sem ble
ĠKore an
B efore
eli hood
Ġple ased
S ystem
ra ig
Â ·
ĠCons ult
ick ing
ĠP RO
ĠL incoln
Ġpass es
16 0
ĠNet herlands
alax ies
et ch
Ġh un
P ublic
ĠD er
ĠCl imate
ĠInt eg
) |
ost ic
Ġag greg
"> </
foot note
Ġsav ed
ĠBel g
Ġf urn
ĠAm ong
ot ing
Ġrequire ment
Ġcere mony
Ġcolle agues
Ġd ating
Ġpred iction
align ed
d agger
Ġdr inking
Ġaddress ed
ĠT alk
Se pt
ut her
ig ate
ĠM L
Ġsac r
Ġref used
Ù Ħ
E nt
ag u
Ġhelp ful
ut ers
' \
P ub
M B
ord inary
ĠCl ark
Ġint ensity
Ġconcept s
Ġa ver
ric ts
oy d
Ġ\ ;
rou s
vent ions
Ġdisplay ed
Ġsubstant ial
Ġident ification
ĠF ather
Ġdefe at
ĠVict or
ĠInter view
C lick
Ġinst ruct
ĠBl ood
Ġpain ting
bl og
Ġnumer ical
am ely
yn om
ĠD ise
ĠSp irit
S pe
F urther
gorith m
Ġdiagn osis
Ġqu ad
Ġdo ctors
ER E
Ġimprove ments
Ġt rib
Ġprefer red
ict ions
ch ain
ĠPe ace
| -
ĠN ation
Ġembod iment
ri um
Ġcy ber
is l
GB T
Ġprom inent
ĠSh op
ĠTur k
ĠM om
big g
ĠC ell
ing le
it ol
ĠP L
Ġclos ing
ĠTh ird
Ġn aturally
ĠWeek ly
u y
Ch ild
as ant
ĠO wn
Ġspe aker
{ $
Ġassist ant
be ing
Ġm ad
Ġcent ers
ĠH an
Ġint ellectual
ĠN ic
ĠH um
ĠH al
Ġp ic
Ġad s
qu arters
Ġres ident
Ġrecommend ations
ĠCapt ain
ĠSt ories
li ent
} /
Ġf ired
Ġb unch
Ġcontribut ed
viron ments
S ervice
00 1
G C
Ġmain tained
Ġdi pl
ta h
l ocal
win ning
ĠR ound
E v
Ġ$\ {
Ġaw esome
Ġinn oc
Ġhand ling
mon th
ab out
Ġpl ug
Ġthreat s
ĠP y
Ġrad ical
Ġmolec ular
Ġb ull
ĠIndian a
F ull
Ġun likely
Ġoff ensive
ĠMc G
om as
ĠTerm s
Ġmil k
Ġphys ics
ĠWith out
ĠJud ge
ol ves
it ory
S ty
ul um
Ġconf ident
Ġoper ated
Ġs essions
ust ration
Ġw ra
ĠIm age
Ġad equ
t wo
}} ,
Ġpublic ly
Ġher itage
Ġcol ors
Ġtherm al
M at
ĠMar g
Ġsupp lement
Ġh ook
ap i
Ġhigh lights
ĠInt erest
og a
Ġcontract s
ĠJac ob
medi ate
OR T
in put
ĠMal ays
ĠD ick
ĠMay or
ĠO tt
Ġelse where
ĠC ert
Ġar rive
Ġrep air
Ġv ocal
ĠG ene
Ph il
Ġsh it
Ġus age
Ġdist urb
ĠM ove
Ġperiod s
r in
ph an
Ġf ro
ĠDel hi
Ġmy stery
Ġfl ights
Ġent ity
ĠD allas
we ek
Ġunus ual
ĠM ess
ĠP ur
Ġo vers
Ġlov es
Ġent ering
Che ck
Ġing red
Ġtom orrow
ĠHaw ai
ern el
au x
Ġnorm ally
ĠDe an
AC K
ush ing
ĠK a
Col or
p ot
Ġag enda
St art
Ġrough ly
Ġunivers al
Ġl unch
qu ot
Ġtrack ing
umn i
out ube
ĠD utch
Ġwind ows
ĠT ennessee
ol i
Ġsub mit
14 0
f s
Ġmembers hip
P oint
ĠHer itage
Ġdial ogue
Ġd iver
ĠAll iance
form ed
z o
ic ular
ĠS A
off s
d el
ĠT ai
ĠHow ard
Ġapart ment
ĠE c
irt ual
Ġexec ution
igh ters
ater al
ĠB urn
Ġmar gin
Ġhead ed
Ġthe ories
Ġra ising
ra it
ha ust
Ġmusic ians
' );
Ġstream ing
ram a
Ġmove ments
R T
Ġthe atre
ĠB or
ĠC C
Ġowners hip
el ing
Ġ\ (
( ),
u h
V ideo
w ind
Ġsign ature
Ġsm ile
ĠD or
P H
w ill
Ġover whel
ĠP ier
Ġ },
ert o
Ġpriv ile
c ard
197 8
Ġrel ating
m o
Ġr uling
Ġref ers
ĠE ag
Ġdim ensions
R ober
Ð »
ĠNAS A
n eg
at ar
ĠV in
ĠE ver
ap olis
Ġinstr uments
S ign
writ er
Ġco inc
Ġrepl acement
comm un
ĠInd ones
Ġcomp osed
Ġloc ally
ĠInd eed
Ġvulner able
ens ing
ĠVill age
ĠN orm
er red
pro cess
igh th
Ġc ogn
c ur
Ġwin ners
L ear
Ġr aces
!! !
ĠD omin
ĠK han
Ġguarant ee
197 2
S H
& &
Ġfranch ise
Ġbl ind
Ġsuper ior
Ġgun s
Ġisol ated
am ps
od er
ĠBru ce
Ġdream s
ĠI C
Ġfem in
Ġneut ral
197 5
wit zer
u ct
ĠMil itary
xy gen
ĠÃ ¢
Ġenh anced
Ġre ly
Ġsc hem
20 22
j an
ĠExp ress
Ġth orough
so le
the less
Ġany more
H ead
Ġim aging
Ġnot ion
Ġg ig
ol ph
ub s
w as
Ġun expected
ĠRober ts
Ġsc ulpt
Ġt ale
Ġs orry
c urrent
iat ric
Ġgl ad
Ġt ied
Ġmus cle
âĢ¦ âĢ¦
Ġm oon
< \
ĠAtl anta
cc a
Ġdepend ent
Ġs ed
ut t
P ort
ĠP aper
Ġperson ality
u pload
G reat
ab is
ĠN EW
Ġd owntown
m al
Ġte a
ĠSm art
Ġb in
Ġcomp at
ĠL ag
is hers
Ġbl ow
oun ced
ĠPri ze
He alth
e ven
for ward
v ia
Ġst uck
G R
Ġmar g
J ames
T om
10 4
9 00
xi ety
Ġtheoret ical
ron es
ĠL anguage
ĠRe lease
text rm
Ġhead ing
Ġret ired
ĠP DF
Ġb rown
Ġl ands
Ġde eper
Ġcomp rom
in it
ĠDet roit
l ay
Ġrespond ed
Ġbound ed
Ġliber al
Ġch at
sy stem
Ġmin i
197 7
Ġbrother s
Ġl ad
Ġp overty
ong s
id al
av ed
E lement
igr ant
form ing
ĠM C
claim ed
b en
Ġcon ve
197 6
Ġbe am
Ġmet ab
R ich
Ġinter val
l ah
ĠPro du
h ol
re le
Cont act
ct ic
as ma
Ġc ov
Ġindust ries
Ġn an
Ġcompet e
Ġarriv al
ĠPolit ical
riv ate
it ter
Ġgover nor
ch ron
ĠAl an
C ode
ĠMar vel
Ġprote ins
ĠC NN
witzer land
Ġne ur
art icle
ĠU C
ĠGree ce
utr ition
ĠâĨ Ĵ
197 3
ĠT el
ĠM aterial
Ġ$ |
tr ack
Ġevery body
Ġf ake
ĠS oviet
Ġre ven
v ens
V er
ĠF C
G O
Ġter rible
Ġh ide
est ed
Ġmin ing
Ġdram atic
ist a
Ð º
D ay
ĠG alaxy
P N
ĠViet nam
Jan uary
ĠChair man
n ames
Ġb inding
set minus
Ġvis its
Ġinsp iration
Ġ( $\
rick et
Ġcont rad
im s
Ġprepar ation
Ġs s
R ight
Ġwire less
Ġw ake
Ġorgan isation
em ed
Ġmanag ers
Ġc ock
Ġneigh b
Ġd uration
Ġaddress es
ĠQue ens
ĠP ast
Ġor th
ĠM ind
Ġpre v
we red
ac on
ĠMot or
Ġeval uated
ant e
Ġwith draw
Ġstruct ural
Ġjournal ist
Ġlog ic
ĠLead ership
Ġar med
Des pite
b as
Ġt ips
vent ures
Ġh ang
ĠC ome
w hat
g ener
D ate
Ġt ort
w edge
Ġinvestig ated
ĠLe vel
ĠB alt
Ġdire ctions
Ġcry pt
Ġgener ations
Ġmist ake
over nment
d ie
Ġpet ition
Ġf olk
ĠG ib
B uild
ĠThom pson
ĠB ull
Ġt we
Ġdis aster
ĠS ac
Ġrad ius
p es
sc ribe
eral d
Ġaf raid
Ġpen alty
de v
Ġam id
Ġleg acy
Ġinst ant
Ġprov ince
Ġsing ular
Ġstud ying
Pres ident
Ġf ed
^{ -\
be an
ĠAg ric
Ġden ied
olit an
rop ical
bar a
ĠEx change
ĠPer haps
ĠH it
Ġscreen ing
Ġrequest ed
am ous
l en
Ġg alaxies
Ġhard er
Ġs ke
Ġl oyal
S earch
Ġdesign er
g ression
A lex
ĠPer formance
Ġfocus es
Ġview ed
Ġw et
ou ver
} '
Ġw ider
Ġmagn itude
P o
co in
Ġcorrespond s
I E
Ġcan n
Ġyield s
Ġshe et
Ġanc est
S an
Ġar c
w en
ous ing
ĠMc K
M ax
Ġdistribut ions
ĠM obile
C urrent
ĠPh ill
ri or
-- -
Ġple asure
\ '
b et
ĠN C
Ġchar ity
ace ut
ĠN BA
ĠT y
pl us
Ġfab ric
Ġpert urb
Ġb io
ĠB uff
Ġmax im
_ +
il ib
Ġdep ression
Ġint r
Ġv end
oc a
ĠD ub
U ST
Ġencoura ged
def inition
Ġbi ological
Ġincred ibly
Ġapproxim ation
Ġinst ructions
Ġinvolve ment
Ġless ons
Ġsc oring
che stra
Ġemot ion
ĠSh are
Ġdec or
at abase
E ach
B rit
al m
ĠBe at
w ick
ĠCr ime
ĠP H
Ġconclud e
ĠNet flix
ar o
Ġd ad
Ġground s
ph y
Ġult imate
ĠMuslim s
wh ite
ĠApp ro
ĠWh it
ph ones
ffic ients
ĠSt ew
ĠS W
ĠAnd re
ĠF le
] ]
ĠC opyright
Ġacc um
Ġlux ury
em en
edd ed
ĠAnd y
ĠPro p
Ġcompl aint
ĠBow l
ĠPh arm
ĠPrem ier
}} _{
Ġsat ellite
h our
\ }
E p
iss a
is cal
Ġdis order
ro ck
w all
ĠChrist opher
ĠD ur
d oc
ĠWalk er
S am
st atic
Ġre plic
ĠW oman
b es
ĠSwed en
iv a
Ġbirth day
ĠJon athan
Ġext ends
if act
ole an
Ġcritic ism
st an
ĠN HS
Ġbreak s
ĠM un
ĠG iven
Ġsupp ose
Ġoper ational
ĠO pt
ĠCharl ie
ĠH ell
Ġg ear
Ġdr um
Ġad mit
ĠBr and
B D
Ġint ense
ank a
Ġsp ark
Ġun like
Ġw ing
, ...
ph ant
Ġen ables
d x
Ġaccom pan
ib l
Ġelig ible
V ol
Ġc able
Ġsu icide
Ġg olf
ut ies
197 4
rim inal
agn etic
Ġfocus ing
ĠO il
ows ki
ont al
Ġapp lies
Ġport folio
ĠPriv ate
ĠB ird
Ġcomplet ion
ĠCast le
Ġleg s
ĠB ased
Ġj ail
Ġdepend ence
ul ator
Ġins ights
à¤ ¾
f it
ĠDe ep
Ġin clusion
âĢĿ )
ch a
Ġarbitr ary
ĠCor p
ĠM ission
Ġhost s
re ed
am er
n ell
ĠAr gent
et ition
196 8
ond a
Ġt weet
Ġprem ium
ĠHel p
C ent
Ġd il
Ġpush ing
Ġhad n
Ġs izes
ur ches
P ress
Ġl uck
Ġsequ ences
ĠL ess
), \
Ġas sembly
ill ance
ĠUn it
Ġspect ral
Ġsub stit
Ġorgan isations
T D
ge on
10 6
Ġdec ay
Ġc ul
Ġrec ru
Ġp iano
In ternational
L ong
ym pt
ĠArch ives
arch y
Ġeas tern
h om
Ġdef ensive
iver pool
ang el
Ġspe akers
B B
Ġlaw yers
ellig ent
Ġsatisf y
Ġp in
ĠC ow
col on
sc reen
Ġprec isely
Ġremark able
Ġconclud ed
un ct
Ġt ur
Ġly rics
Ġspeak s
Ġcompens ation
Ġpass enger
Ġen vironments
Ġan s
v s
Ġcomple ment
ĠH ills
ĠAl abama
A ng
Ġsum mar
Ġenc ounter
Ġmass es
S er
enn a
Ġeng aging
Ġdevelop ments
196 9
part y
Ġi P
g reen
Ġdest ruction
Ġexam ine
Oct ober
ari ju
osc ow
^ -
m n
ĠOlymp ic
Ġvolunte ers
Ġtem porary
ĠM as
Ġcur ves
! --
Ġ$ [
ĠAv ailable
Ġh am
ĠO sc
ene z
ĠT oy
Ġatt itude
Ġbl ame
the y
Ġequ ity
Ġe g
ĠIn v
Th us
ĠS oc
ĠR ab
ariju ana
ĠS elf
and ra
ĠS M
im ore
ber ry
ĠMar ine
ĠCent ury
Ġcam eras
Us ing
12 8
Ġel der
Ġex port
ĠB h
Ġpri ze
ĠIns urance
char ge
m ade
12 3
u um
Ġm ile
ĠW i
O H
ĠMar ia
Ġed ited
AN T
ĠD ance
Ġv oices
Ġde com
oll ary
ĠR ow
oc hem
Ġpubl ishing
ĠD uke
od a
ĠBe aut
l an
Ind ex
pir acy
av el
Ġcor ruption
ov ing
Ġres idential
ĠW y
Ġj azz
Ġd ict
Ġdi et
Su per
gl as
Ġimplic ations
uris d
Sty le
in ar
Ġrank ed
Ġwork er
ĠMary land
M en
AC T
Ġwhe never
Ġhuman ity
L ocation
Ġread s
ĠCont ract
Ġpol ynom
Ġtum or
Ġdisc ount
act ic
su per
ash ing
197 1
ate ful
d ays
ĠC ou
con f
ĠD ays
Ġout er
li ver
Ġrot ation
ard o
ĠBe ing
ĠG ordon
Ġc up
Ġv ibr
Ġb urd
ĠH im
R ob
at ers
Ġrare ly
Ġsy mp
anc ouver
Ġopin ions
riv en
Ġh ip
g ood
at on
aceut ical
Ġwh ilst
ne xt
p in
w p
ĠH ung
10 3
ĠAfghan istan
ag h
Ġattempt ed
Con fig
id ays
Ġprodu ces
text sc
ĠD J
Ġst em
ĠSy m
is ons
\ _
ĠâĢ Ŀ
ĠPh D
Ġ ion
Ġsuff er
Ġe cosystem
Ġprodu cers
T im
P erson
Ar ch
ym ph
S ection
ur i
ac ular
Ġrom ance
ĠLe ft
v oid
Ġf est
Ġpar ad
Â »
uc lear
Ġdis k
ĠBre xit
Ġcan cell
ug by
Ġcomp ute
ĠA BC
Aug ust
Ġsignific ance
opl us
ut ter
ĠB ron
Ġlab els
M W
are st
ĠInd ex
Ġelect rical
ĠH ug
Ġmat hemat
ĠJ oh
G roup
ĠRead ing
ĠM and
.. ...
Ġmer ch
ang a
Th ree
ĠWork ing
Ġtransfer red
Ġax is
ĠC ore
ar ation
( (
Ġpro secut
Ġoptim ization
ĠRuss ell
N on
ĠR s
Ġâ Ĥ¬
Ġrob ot
ĠH oll
ĠG ary
ĠSing h
F act
W ar
Ġriv al
i op
ĠCh ap
Ġph ones
ubl in
N ode
Ġdoll ar
ĠH ans
O per
Ġover se
Ġsimult aneously
ĠSt ars
ĠMel bourne
Aust ral
ibr aries
Ġcou pled
* {
m outh
Ġt ie
ĠElect ric
M icro
ĠC hen
el ve
Ġreview ed
level and
Ġmechan ical
Ġposs ess
ĠC ape
he ight
Mod el
ĠComput er
Ġadministr ative
ĠUpd ate
Ġinstall ation
P op
Ġprov isions
Ġport ray
Ġsign ing
Ġf ishing
ari os
ĠE N
Ġmain stream
sec urity
Ġpl ain
Ġper mit
ann on
| |
Ġdesc ript
Ġsam pling
ĠLic ense
Ġresc ue
oen ix
H D
is dom
ip her
ĠL ane
? )
Ġ _{
ĠInt elligence
Ġex haust
=" ../../
Ġ );
Ġav ailability
Ġl attice
ĠC op
b urn
ĠPro position
Will iam
ĠVi ol
Ġgreat ly
Ġterm inal
it udes
Ï Ħ
Ġsett le
z ero
Ġl ucky
back s
Ġentr ance
n n
i em
Ġl ip
ĠJust in
Ġsubst ance
Ġarg ued
Ġc ow
Ġst unning
Ġimpact s
pr ing
ous es
Ġor b
g raph
A K
col umn
L ink
ĠAn im
Ġthem es
Ġass et
Ġequ ipped
Ġsatisf ied
] )
Ġchampions hip
B el
p res
book s
ick ets
Ġenter prise
m ers
Ġm ood
Ġtrig ger
Ġch ap
Ġpan els
It em
Ġnob ody
Ġ( )
ĠL GBT
Ġ[ âĢ¦]
in ance
I ES
Ġl aser
Ġcl othes
Ġg athered
lah oma
ro le
Ġb old
res ult
f old
Ġcent uries
ĠM ort
ik ing
Ġqu ery
Ġver tex
ĠM oney
le ep
L eg
Ġst ellar
un s
o is
ar atus
Ġn amely
ĠE C
AR D
Ġre ct
Ġdifferent ial
Ġmind s
Ġpredict ions
Ġrep ly
ĠFollow ing
m ate
Ġpath s
ĠN ik
y mm
Ġbound aries
M art
ĠAd ams
Ġcl ock
A f
qu es
Ġequ ality
look ing
Ġl ying
S ize
Ġunivers ities
= {
Ġtem pl
Ġset up
vious ly
A E
h ou
ĠSe lect
Ġlawsu it
k ind
Ġs alt
S w
Ġan th
G reen
Ġident ical
as ive
ĠTem ple
s is
L ife
Ġg onna
Ġt ip
Ġstrugg ling
ĠD og
Ġconven ient
Ġman uscript
Sec ond
Ġent ries
Ġsupp lies
ap ing
ĠCont ent
ĠL am
Ġre nd
ĠE mb
le e
ke e
per ties
hold er
T O
ist ically
ĠId ent
E urope
Ġbare ly
Ġillustr ated
ĠD a
Ġindepend ence
Ġhard ly
j ud
Ġdom inant
St r
Ġmatch ing
Ġcoe fficients
ĠG ulf
Ġsuggest ing
lim its
ĠE state
s ign
Ġv ir
Ġtrans actions
ĠNor way
ub ble
Ġbirth s
B ased
Ġe ase
ĠAr thur
Ġl ung
Ġsens itivity
quir y
M ethod
e vent
Ġfund ed
pl an
Ġicon ic
Ġr ally
ĠC ole
ut en
Ġfact ory
Ġsepar ated
B ox
11 5
l ined
ĠAl f
om ed
enn y
Ġg host
Ġsp r
Ġjud gment
Ste p
ĠS in
b ling
Ġdes ert
k g
ĠH ad
Ġamong st
ĠB es
Î ¿
ĠStud io
Ġtown s
Ġenem ies
Ġprint ed
N ovember
Ġconsequ ence
con fig
Ġoff ense
L ocal
Ġdeterm ination
ĠI ron
ĠY an
_ *
ĠFre edom
Ġchair man
is an
DA Y
le ans
Ġpr on
/ *
Ġde leg
Ġsc ream
Ġre verse
ĠV eter
ĠB ureau
yl er
Ġne ural
b uild
Ġrepl ied
ĠReg ion
f ather
Ġcharacter istic
Ch ina
ri k
Ġexc it
19 30
ĠB E
Ġevery day
Ġpar liament
ĠK ate
ĠShe l
Pro v
Ġsett led
Ġcomput ed
Ġo xygen
ĠSen ator
Ġexpl oring
Ġattract ive
Sept ember
ĠBrook lyn
ĠR ace
an ne
19 40
ĠVol ume
ĠOrgan ization
Ġmaintain ing
ĠR ules
ĠR ain
ĠN eg
Ġh ill
u v
M ult
Ġcare ful
ĠGr ad
Ġab stract
ĠGirl s
Ġhe ter
{ $\
ac les
ĠSur vey
d ependent
ĠStr ategy
ĠP ear
Ġrece ives
ĠAl tern
med ia
Ġrad i
Ġsc ales
ĠIm pro
ĠG as
ĠK ings
ĠChrist ians
//// ////
Ġt ill
ĠOb ject
other apy
J ul
ĠCreat ive
Ġsatisf ies
et he
ĠGra ham
ĠS witzerland
Ġexpand ing
ĠN ichol
ĠWrit ing
an ia
Ġveter an
ir ates
Ġm apping
Ġretire ment
ol en
Pub Med
ok er
Ġqual ified
ĠAr k
oid s
ĠTr ue
= -
ot ive
out heast
ĠUn fortunately
Ġsure ly
Ġover come
upload s
com b
H C
11 1
Ġbul k
roll er
Ġexam ined
Ġqu ote
ĠB uild
ail and
D el
Ġ| \
am ples
ĠAl ice
Ġb read
Ġpromot ing
ĠN ULL
ĠPro perty
ing ing
sh ot
S ur
Ġut ility
Ġexhib it
Ġattack ed
10 8
ĠD ragon
Ġsee ks
Ġrec ruit
ĠB rew
Ġfasc inating
ĠB Y
on ed
ut il
E q
sh ift
ĠAgain st
st ack
Ġt ables
Ġb inary
ĠC lear
O UR
Ġimm une
ĠP il
Ġiniti atives
ĠKenn edy
Ġdel iber
196 7
Ġh ospitals
ĠB L
ĠMiss ouri
. ),
ĠPol and
ret ion
d irect
Ġdifficult y
ann ah
Ġtra iler
sub subsection
Ġgot ten
m ay
Ġrid ic
Ġpre val
ĠClin ical
Ġb orrow
ener gy
D id
st ory
) }(
Q U
ail ing
Ġafford able
Ġpro pose
Ġp seud
[ '
em eter
ĠM ust
Ġbr ut
Ġr anging
mark et
id ation
B P
ĠK ids
h ot
ra ham
Ġit er
ĠKent ucky
Ġsp oken
Ġsub set
Ġinc hes
ĠAn na
all ing
] (
act eria
/ **
te ch
Ġdis rupt
ĠChall enge
Ġrepe at
U P
Ġlif etime
Ġrout es
Ġc ir
Ġreported ly
Ġin ev
Ġprof iles
Con text
Ġcooper ation
ĠO K
Ġfor um
ĠRe le
Ġrestrict ed
ĠTok yo
g ies
Ġf ought
f und
Ar ray
Ġev ident
ĠG ov
Ġp uzz
De cember
ĠStr ateg
Ġphotograph s
or ized
Ġover l
Ġlight ing
ĠN at
Ġres erv
o a
roph y
ĠS ource
ĠB us
Ġextra ordinary
D M
Ġh al
l ad
anc hes
ĠPl ant
ĠD est
Ġshould er
H R
Ġliter ary
secut ive
Rel ated
Ġhol es
Ġl ake
u ber
omorph ism
Ġfl ags
ab ling
ar se
Ġch ances
Ġre vers
f ish
ĠC art
Ġremov al
m ember
Ġart ificial
Ġactiv ation
s ite
Ġinvest ments
Ġep ic
Ġrepresent atives
Ġpar agraph
Ġanalys es
t w
Ġ Ø
ĠM E
ĠS now
ĠS ri
on i
Ġex it
Ġcontroll er
ĠK am
Ġdirect ors
Ġcomput ers
Â Ń
Ġceleb ration
Ġcas ual
Ġestablish ment
ĠArab ia
Ġcred its
Ġp ig
ĠAdd itionally
Ġk in
ilib rium
pro duct
Ġconvers ion
Ġp ounds
or ious
Ġst eal
Ġes cap
Ġappoint ment
Ġfl ows
Ġch rom
F IG
1 18
ĠC ry
Ġabandon ed
Ġassum ptions
Ġj et
ipp i
ĠI R
ac ht
ast ing
ĠK al
Ġen orm
Ġven ue
ĠAss istant
ĠRog er
om al
ĠC lick
ation ally
ĠEconom ics
ple t
Ġvoc als
con duct
Ġcur rency
e als
. :
ĠSh ar
ĠPort land
Ġwarn ed
Ġph osph
M usic
pl ant
Ġun ve
ĠC ould
ing e
ĠAnton io
ĠN elson
he ro
j e
{ {
ĠN one
ĠWhe ther
X X
Ġanalyz ed
ĠBl oom
Ġman ual
her ic
ere my
19 20
ĠInnov ation
Ġaud iences
ri el
oth y
Ġconsist ently
ĠCamp aign
ric ane
ĠSp ot
ĠB O
ĠBre ak
Ġfle et
Ġsix th
Ġshort ly
m ethod
Ġmanif est
ĠÂ §
ĠF em
ĠN ash
or iginal
Ġl ens
Ġinst ances
Ġsm oke
s burgh
Ġex clus
ect ed
Ġmar ine
P age
ĠV ery
bl ue
Res earch
intend o
Ġtal ented
ĠIss ue
Ġrom antic
re nd
ĠImp act
Ġvent ure
Ġprom ised
Ġfl av
ĠReg ister
Ġprepar ing
Ġm ic
Ġgl ob
Ġob l
Ġwild life
st age
p aren
t own
Ġadj acent
B usiness
ĠI an
Ġut ter
$ _
Ġfrequ ent
Ġcelebr ated
Ġflex ible
ĠB ah
Ġun w
ri ver
Ġsepar ation
Ġg ram
ĠU tah
Ġpublic ations
ĠInd ependent
196 5
Ġal ien
G S
Ġproport ion
ĠMov ies
Ġl ady
Î ½
for all
I B
Ġnov els
Ġsurv iv
Ġstay ed
r r
Ġtrans f
ĠF iction
c i
ĠPh oenix
Ġt rem
Ġsp ots
Ġeffect iveness
Ġan ch
Ġout door
Ġcult ures
ĠAnt i
Ġreject ed
Res p
ĠP as
co very
ĠA ve
ĠOr leans
Ġwarr ant
S l
c ient
Ġcoll apse
Ġha z
Ġpromot ion
Ġpass age
Ġin hab
Ġcount s
ĠS ony
}} (\
om er
Ġcomp an
val ues
Ġh ung
Ġcommun icate
Ġmem br
10 7
z ens
ä ¸
ĠQu est
Ġprevent ion
grad uate
ĠE ST
L aw
ĠI l
ĠB ond
Ġprom ising
Ġmount ains
Form er
Ġsatisf ying
ap ache
Ġtr ace
Comm un
R ad
Ġmeaning ful
RE E
ass ment
Rober t
, '
ect s
Ġth rown
ĠH ope
ĠF isher
Ġtra ins
th an
bre aking
Ġdefe ated
B oth
Ġthreat ened
ĠB ishop
st ant
Ġcar rier
go ogle
Ġsubsequ ently
Ġb ene
Ġwor ried
k h
Ġp ione
ĠLead er
ĠP oll
sh ire
Ġneigh bour
in th
Ġg alaxy
ĠG ener
rop ri
j amin
Ġche st
oc he
f ull
ass ador
ĠR ic
ĠSte ven
Ġcalc ulation
Ġn ut
ĠBl ock
Ġcampaign s
Ġj urisd
M et
Ġang ry
Ġdevelop er
J ack
Ġdo zen
Ġthe ater
ound ing
F OR
op es
ĠB io
Eng lish
sh ow
Ġdeliver ing
Ġm es
Ġin aug
b ad
c in
A ir
Ġdr illing
ĠLaw rence
ra ctions
Follow ing
Ġens uring
Ġep id
Ġtra ject
w he
ĠW right
Ġcontrovers ial
ug g
ol o
Ġstri king
Ġan xiety
Ġaccompan ied
im ony
Ġposs ession
ĠM ath
Ġk iss
w estern
Ġathlet es
ell ows
Ġemer ged
Ġsh r
sh ore
) _{
ĠSol utions
point s
ĠUr ban
L D
l ang
ĠH R
ĠB it
agon al
Ġt ang
Ġexam ination
Ġphot ography
Ġgener ic
Ġadvert is
u ates
per p
Ġden otes
ĠS amsung
ĠK r
Ġjud ges
Ġs aving
ĠT ower
ĠE lection
m c
h r
Ġt ies
Ġanal og
Ġaff airs
Ġint rig
ĠDen ver
Ġexplicit ly
ĠMur ray
Ġc ited
\! \!
p iece
am an
ĠJ u
Ġprogress ive
ĠA qu
Ġb ills
Ġact ively
Ġor al
Ġj ew
u is
pro v
ic ut
ĠT ob
Ġalleg ations
Ġtit led
ra pe
W S
Ġrac ial
ĉ Ġ
Ġprec ise
ĠCl ar
ĠT a
Ġlimit ations
ĠĠĠĠĠĠĠĠĠĠĠĠĠĠĠĠ ĠĠĠĠĠĠĠĠĠĠĠ
Ġeng ines
Ġrece iver
Ġdesign ated
,\ ,
Ġcharacter ized
b id
he art
Ġpurs ue
ĠA le
ĠB ed
Ġland ing
Ġvert ices
Ġre nder
N E
f inal
Ġcalc ulations
196 4
Ġart istic
Ġinc ent
ĠO d
ĠM oscow
Ġinflu enced
Ġinf lam
ature d
Ġjournal ists
ĠJ azz
Ġtow er
ĠSt re
ĠBl u
sec ond
im mer
)\ ,
Ġsearch ing
b ot
Ġv it
Ġign ore
s elling
ĠK y
Ġprot ests
Ġlif estyle
et ics
Ġtack le
Ġstead y
Ġintegr ity
Ġcoord inates
ir ts
sc he
Ġview ers
Ġpo em
ĠW ang
Ġdev ast
Ġok ay
Ġh itting
ĠJ oy
ĠW H
ĠBar ry
it ual
n atural
Ġvari ations
ĠP red
Ġsurf aces
m ma
Ġre actions
Ġclaim ing
uff er
ĠL uke
f are
og g
Ġ} );
Ġsecret ary
Ġcre am
ĠMex ican
Ġdef ence
ĠN ear
Ġr uled
ze ch
ĠR ap
Feb ruary
Ġfr ustr
M al
c over
iss ippi
ĠD M
Ġp ill
W ind
ĠB art
Pro ject
iction ary
Ġbeg un
ter ior
ĠK rist
w hen
Ġwant ing
ĠCon vention
O B
ĠPat ri
Ġsh adow
ĠClass ic
Ġm ouse
pro ject
ĠG er
Ġstop s
ĠJ e
ere r
Ġlov ely
Ġcon secutive
Ġconsider able
Ġphenomen on
Ġf ur
Ġin her
Ġth ro
ĠMor ris
Ġo sc
Ġm ixture
ĠHar vard
ĠB R
Ġh orses
Ġcl othing
ĠS oul
ij ing
Ġcan cel
min ute
Ġfoot age
ĠG R
g ly
Ġclust ers
ac co
Ġseem ingly
s pect
Ġh ired
ov es
Ġenthus i
Ġsect ors
Ġcond em
ern and
ĠG OP
Ġp y
Ġd a
o at
unt ed
Ġb ab
AM E
Ġf iber
Ġ/ *
Ġexp enses
Ġimp ression
ĠA my
Ġab road
Ġsug ar
ĠUs er
Ġve ctors
Ġdriv es
Ġcon vin
ĠM os
ĠC over
ĠHill ary
Ġold est
um ar
Ġr iding
Ġle ts
n an
P O
ĠP ant
Le ave
b est
× Ļ
Ġreflect s
Ġpro l
O k
Ġm igration
ĠRes erve
Ġemot ions
ĠC raig
Ġsil ence
Ġindic ating
Ġbelief s
Ġsynd rome
ĠOper ations
() )
We b
mult i
plic ity
Ġident ifying
Ġkey board
N umber
ric ulum
Ġstret ch
ĠL ater
Ġrout ine
ĠN ative
' ;
ĠP arent
Ġob st
Ġautom atic
ent ry
ĠRob inson
h ome
hed ral
W he
ĠH aving
ĠO cc
Ġcho osing
ur u
ĠCar ter
ĠV ancouver
ĠLe ave
ĠA ren
B i
ys ical
Ġdispl ays
ĠFriend s
m i
= (
Ġinst ruction
ĠOr ig
st able
Ġparticip ating
## ##
ass ert
ĠJenn ifer
d f
our t
Ġproject ion
Ġbas eline
nt il
ĠW ould
Ġgener ating
Ġcon gress
ĠStew art
ĠMe eting
ib bean
v als
st ore
qu ality
m ass
Ġdist ricts
ogene ous
Ġinter active
al so
ĠLear n
h ind
Ġthere by
19 45
Ġscal ar
Ġd uties
bott om
op ter
pl ane
ĠWar ren
ĠFant asy
chn ology
Gl obal
ĠPal ace
Ġse ar
a uc
t ains
Ġpro be
av al
Ġme al
Ġdecre ased
196 6
Ġsh ipping
ĠL iverpool
Ġb its
ag ers
Ġcr ack
ĠThe ater
ĠG A
Ġ+ \
' _
ind uced
M essage
om ing
s ch
Ġg est
Ġt ension
th a
ĠJ en
Ġassoci ate
Ġgr ants
ĠM eg
ask et
od ox
ĠC hel
ĠK ir
Ġli ability
Ġ urg
ĠPr int
ul in
orne ys
de velop
ĠP ublished
Ġst rain
ĠJim my
ĠR u
Ġmir ror
ick ed
ĠAl bum
C are
Ġbank ing
t ri
Ġminor ity
ĠC IA
Ġrequ iring
Ġdom inated
Q ue
Ġphr ase
Ġredu ces
re r
cy cl
ĠOlymp ics
Ġsh ops
ut ic
ĠC leveland
uk i
ĠAl ber
Ġinflam m
Ġprotect ing
Ġmed ian
c all
Ġc odes
Ġsurround ed
ĠEm ploy
On ly
W A
Ġemphas is
ĠI de
ĠHigh way
o i
Ġk iller
ĠR isk
rop olitan
ĠG ill
ris es
Ġle af
Ġcalc ulate
ĠD ocument
air y
che m
) ^{\
ĠMag ic
h uman
Ġclass ified
ou stic
ib li
Ġlet ting
Ġf ails
Ġbl ank
Ġcor por
_{ (
Ġconnect ing
or us
p read
Ġg ains
ĠL isa
Ġscen arios
c reate
ĠDown load
d b
ud a
Ġag gressive
form er
ĠT ree
Ġmet ers
ĠCap itol
Ġconver gence
ĠR at
ik h
B T
ĠMalays ia
own ed
Ġem ails
Ġcal m
f ly
u ity
Ġ( !
ie val
Ñ ĥ
on z
Ġsh ame
â ĪĴ
ĠFed eration
Ġans wered
Ġm ild
rem ark
o ft
ĠSt orm
ĠPubl ishing
Ġtr ump
Ġcapt ain
Ġgrav ity
Ġtim ing
=" +
Ġbur ied
ard ing
Ġfall en
ĠReg ist
ĠE li
Ġpart ially
ĠC ars
. ]
ĠH E
be at
S F
ĠCov id
y outube
Ġcan on
ĠD ue
ĠG T
ĠĠĠĠĠĠĠĠĠĠĠĠĠĠĠĠ Ġ
ĠT ro
ĠHun ter
ĠPract ice
" "
ĠS ale
H ave
ĠD ak
................ ................
Ġdis orders
ĠD ublin
10 9
Ġflow ers
op les
Wh ite
enc er
Ġv on
Ġent ities
Ġoper ates
ĠC and
Ġmanufacture rs
Ġdatas ets
ĠAct iv
Ġ[ [
ĠProf essional
paren cy
Q L
}} ^
Ġtele phone
ĠCustom er
in stein
: \
Ġinf inite
ĠExper ience
Ġreal istic
Ġpat ent
ress ing
Ġview ing
ĠAut o
T ake
io x
Ġprom ises
Ġconstit u
O ld
Ġhypothes is
Ġconsist ing
on ing
$ (
ĠG ram
ĠIn n
b n
ĠS ide
S N
âĢ¦ âĢĿ
AS E
d rop
Ġwal ks
ĠA LL
Ġas semb
ĠGu y
ĠJ ava
ĠComm and
b ie
Ġmyster ious
Ġestim ation
ĠN BC
Ġsil ent
ari ance
ĠF al
Ġb urning
Ġprec ision
L Y
Ġpres um
Ġst yles
Ġd ying
ĠF ile
Y eah
T ag
Ġg ard
Ġup grade
Ġbox es
G M
ist ence
Ġactiv ists
t em
am ine
ex ample
enez uel
ac o
ĠB uck
ass ion
Ġconvers ations
Ġas c
h ops
Ġre aches
Ġmod erate
Int roduction
Ġinv ariant
Ġb ot
Ġac ute
Ġco aches
ĠÎ ¼
Ġwarm ing
Ġapp aratus
og ram
K S
ĠColl ins
Ġcont ents
A v
ĠDe al
Ġke ys
Ġess ay
Ġvol t
}$ -
ĠPro duction
ĠEvery thing
ĠOk lahoma
Ġalleged ly
Ġdis pers
c f
Ġper pet
b ird
Ġrepresent ations
ĠHist orical
ĠB aker
od ium
Ġlabor atory
Ġsystem atic
r us
ĠW ard
Ġcrit ics
Ġst ere
ĠC itiz
ĠI ce
ro se
Ġatt ending
Ġviol ation
Ġb uck
Ġengine er
w eg
Ġcorrect ly
Ġw ars
S un
og an
Ch ris
Pro perty
IN T
ĠM agn
bor ough
D ou
ĠF er
Ġtour ism
ĠN ort
def ine
Ġorient ation
ĠSe an
ĠCo al
Ph ot
P al
Ġte eth
ĠG olf
ffic ial
Ġroll ing
Ġth rows
ĠP odcast
ĠC ass
sec ution
11 6
Ġres ort
h ave
ides pread
Ġsc attering
ĠSte el
ain er
Ġrepeated ly
ry ing
ĠB ec
Ġcourt esy
Ġj ury
"=> "
Ġnot able
ict ures
Ġfacilit ate
An n
B et
in ely
11 4
Ġmanufacture r
ĠD al
E mail
Ġas ympt
Ġdescrib ing
emeter y
ĠIndones ia
ĠWay ne
C ity
C ap
le ading
ĠMit chell
Ġdis h
Î ¹
ĠDou glas
ĠV ent
Ġpsych ological
ĠOffic ial
Ġosc ill
ĠCamp bell
pm atrix
ĠMon te
ĠAl bert
Ġanaly ze
usal em
int age
Ġgrad ient
p ur
D O
Ġsp ir
Ġcross ing
Ġi OS
Ġm art
Ġ-- >
Ġpoll ution
Ġad vers
[ ]
Ġd ys
G iven
Ġsusp ended
Ġflu ct
ĠTurk ish
ĠP ope
ur able
RO M
id ate
Th rough
ĠE lement
Ġphys ically
Ġquant ity
Ġmat rices
ĠG M
ĠSpe ed
Ġg ross
I AL
S chool
m ake
Ġem p
Ġmix ing
Ġde put
ĠThe ory
Ġtravel ing
Ġf itness
Ġdiscrim ination
av an
Ġbrief ly
Ġs rc
Ġtrans it
Ġf er
ID S
ĠG ot
Ġpl asma
Ġal arm
ĠH em
Ġf ract
ĠS ustain
Ġvirt ually
ĠĠĠĠĠĠĠĠ ĠĠĠĠĠĠ
Ġbon us
Ġen abled
Ġl obby
Ġcheck ed
ĠM ade
ul er
ĠUpd ated
Ġpe er
Ġres olve
Ġrec ycl
ĠMor ning
Ġworks hop
Ġprocess or
ath on
if ice
ĠL P
st o
ĠApplic ation
ĠWal ter
ĠM uch
ĠCol omb
ĠA aron
at ics
Ġh ier
Ġinter section
ĠH ost
Ġimm igrants
ash i
ĠOr th
Ġmort ality
ĠF u
Ġbreak fast
ĠTh ink
m d
Ġper mitted
le ton
Ġtrad em
ĠS ay
Ġsc reens
writ ing
Ġcon ce
ocol ate
Ġsav ings
ĠT ar
Ġw elfare
Ġconf lic
ĠC her
ri ors
ĠBl ues
Ġc ust
Ġregard ed
fl oor
hat tan
Ġdi abetes
Ġf ool
in burgh
an im
li est
ĠSc i
Ġl iv
ĠPhil ip
Ġgl obe
olit ical
Ġn erv
Ġg ri
Ġcolle ctions
Ġdisp ute
d riven
form s
Ġo w
D ist
ĠOr d
ĠS F
Ġn a
ĠI M
Ġexecut ed
ĠJohn ny
Ġf its
Ġover t
Ġc rown
Ġhero es
m ir
Ġk ernel
ĠRes erved
ĉĉĉĉ ĉĉ
Ġconvert ed
ĠG re
ĠD ig
N ov
ĠR achel
Ġn ose
pect ives
ar ity
reg ular
ĠD R
AC E
Ġschem es
Ġel ite
ess ment
Ġodd s
Ġtreat ments
ĠSus an
ĠC BS
Ġlo ans
_{ -
Ġli ver
ĠUn iverse
Ġp atch
Ġun em
ĠAm endment
Ġult ra
Ġcompl aints
Ġpropos als
196 3
ĠSt op
ĠBar bara
H y
fr ame
ĠKe ep
ĠDise ase
U RE
Ġgather ing
Ġjun ior
Ġsmart phone
ĠLat est
Ġcur ious
om es
ps y
ĠLouis iana
friend ly
Ġst abil
ast ed
Ġr anks
ograph ical
ĠF el
ĠAn imal
Ġhar vest
ĠAb d
Ġassum ing
Ġvolunte er
Ġcult iv
Ġa ug
ON T
Ġg raphics
Ġab ortion
ĠTh ailand
Ġsufficient ly
Ġstay ing
ĠEv ans
!! !!
Ġsusp ension
Ġcompr ising
w alk
ĠK night
w oman
ĠH end
Ġpo et
ĠSu ccess
iv an
Ġbre w
' }
}^ *
ĠL aura
Ġdeterm ining
ĠAl aska
Ġsome body
Ġd ated
Ġa est
Sh ow
Ġconcentr ations
Ġpres erve
2 20
Ġcitiz en
IT H
Ġn ights
Ã ĥ
Ġt ab
Ġarrang ements
Ġpregn ancy
Ġup set
ĠM O
ĠBalt imore
ĠInvest ment
Ġtem ple
Ġex ch
Ġhe lic
CA A
Ġagric ultural
Ġcap ability
Ġeth nic
ell ers
Ġcar ries
Ġrat ings
Ġexclus ively
opt ion
ĠW orth
ed ly
es ters
ĠS olar
ĠR y
Wh ich
th y
Ġwe ights
cy cle
p red
Par am
ĠS el
ra ising
t ik
Ġign ored
ĠCon struction
Ġcal endar
Ġf itting
or ient
ĠY OU
Ã© s
o op
ĠCom merce
ĠBr un
at tered
ĠMe anwhile
Ġsimilar ly
get s
empl ate
iv als
ĠPalest inian
Ġf ate
Ġ= ==
Ġaccept able
P eter
ĠT otal
Ġast ron
ĠBet ween
Ġcomp elling
est one
ĠE R
epend ence
lim ited
Ġform ing
Ġfood s
ĠE D
Ġcor rection
br idge
Ġbut t
Ġdef ic
S k
ure r
ict s
l ib
im g
AR Y
im ental
ĠStud ios
) ^{-
ced es
ĠL ot
Ġs wit
Ġser ial
he alth
ig m
ĠB ody
ĠCor ps
Ġcy t
ĠOr ange
Ġres idence
M ain
ĠS ometimes
Ġaccom p
ĠP el
Ġh ire
Ġele g
Ġexception al
Ġcounter part
ĠGa ussian
Ġann oy
s cal
ĠS ure
ĠN iger
Ġc inema
Ġcomb ine
Ġan ger
Ġdif fer
Ġt ape
Ġj ava
Ġcomp ounds
Ġf ert
Ġfil mm
ĠT ogether
C N
ĠCh ron
qu er
ĠR and
ĠNe uro
Ġres ign
ĠS i
Ġlic ensed
Ġadopt ion
f a
Ġcomp eting
ĠPitt sburgh
' ]
ourn als
ĠAd vert
en z
ĠB os
Ġconvin ced
Ġpr ide
Ġpip eline
m t
Ġemploy er
Ġmil it
m other
val uation
iz ers
Ġf iscal
Ġste pped
Ġexpress ions
par ison
Ġd ining
osp el
ig ion
Ġaffect s
M il
) _
Ġobject ives
Ġcoord inate
Ġres erve
Ġdecl ined
Ġm unicipal
ĠEx hib
R un
ud son
Ġhead quarters
\ "
s ome
E lect
Ġpregn ant
Ġburd en
Ġab ilities
ĠN othing
ul u
Ġmet res
Ġforg otten
Ġadapt ation
Ġt ub
Ġsoph istic
Ġspecial ist
ĠRet rieved
---------------- ----------------
Ġser vers
Ġagre ements
ĠL ang
Ġ$ -
ĠR av
B ro
L ondon
ne cess
ĠCol on
ĠA thlet
ĠBet ter
re ach
ĠS pect
Ġround s
ĠComm ons
ĠTechn ologies
$ ).
ment ed
Ġcomp rises
Ġs ons
ĠS ud
ĠNe v
ĠN E
Ġf ingers
uck er
iv o
Ġb om
Ġparticip ated
Ġearn ings
ĠR ot
Ġexp on
Ġref erring
Ġgr ace
Ġsurve illance
ĠF R
Ġcomp aring
ĠZ e
Ġt ired
A ction
Ġenorm ous
Ġw rest
ol utions
g ie
Ġsub str
ĠHist oric
Ġor bit
EN D
Ġref lection
Ġun t
Ġpost ing
Ġoff set
ĠEnter prise
ĠJun ior
Ġs hed
ĠP ap
rep resent
Ġche cks
ĠBoy s
at est
inte rest
ro sc
Ġimportant ly
Ġemb edded
C r
Ġpo ison
ie v
Ġcogn itive
W omen
ĠC old
ab e
ĠRep orts
Ġfail ing
\| _{
Ġgall ery
Ġsustain ability
Ġconstra int
b ian
Ġsc aling
olog ically
spe ed
ï ¼
ĠA irlines
Ġpopular ity
iam ond
as is
ul ates
Ġcor rupt
Ġref lected
ĠIn iti
ĠTai wan
def ault
Ġposs ibilities
Ġhom eless
Ġmodel ing
w rite
Ġdam aged
Ġw idespread
Ġover view
Ġless on
Ġsc an
Ġarrang ement
G P
ĠPark er
ĠC atal
Ġinvestig ations
Th ose
ie ve
Ġsymm etric
com fort
ol s
... ]
Ġingred ients
Ġsh oes
Ġper ception
Ġgr ateful
ĠG ate
L ove
25 6
C ase
Ġampl itude
Ġaccount ing
ow ell
Ġd rew
ĠSc reen
Ġro cks
Ġadapt ed
Ġunder ground
ĠMet ro
re ctions
Ġt ap
ĠUn c
)\ \
i pt
F acebook
U se
Ġh unting
Ġsole ly
us ive
ĠX box
Ġentreprene urs
Ġindepend ently
Ġsh out
writ ten
ĠProduct s
Ġbene ath
Ġh ub
f lu
Ġmay or
Ġwor ship
S ocial
ĠCommission er
Ġ ^
Ġt ensor
pr ises
ĠA y
Ġde let
Ġch amber
ab ad
Ġtouch down
Ġge ometry
ul ative
Ġaccept ance
ĠCharl otte
ĠB aby
Ġg re
Ġbott le
Ġap olog
ĠT N
ĠPri or
on omic
Ġhand ed
Ġbound s
Ġvary ing
li ers
Ġdisc rete
ew s
Ġlegend ary
V P
s a
ĠM I
Ġfunction ality
$ &
ĠF alls
ĠNY C
ĠL ost
ĠQ uality
Ġtarget ing
u its
ĠS L
ĠGr ace
Ġpl ural
as ures
pe ople
omorph ic
Ġcou rage
Ġmult ip
Sp ace
id ency
Ġlog o
Ġb acteria
ĠCar ibbean
ĠP un
th on
U G
S ongs
ĠT X
ĠF ab
Ġnews letter
Ġtransform ed
Ġcompar able
Ġpart ition
ĠMarsh all
Ġtext s
ĠBe yond
ĠM ORE
ĠBroad way
Ġf ears
The refore
ĠMiss issippi
ĠConnect icut
Ġsp ell
Ġbar rier
Ġhot els
F M
Ġrac ist
D oes
Ġrepro du
ass y
ĠIran ian
Ġagric ulture
Ġd ancing
Ġemploy ers
ĠL oc
ass ing
Ġwe igh
Cont in
ĠF ish
ged y
ĠHawai i
Ġinte ger
emb ered
Ġneighb ors
Ġdiscuss ing
Ġst adium
Ġc ub
Ġdro ve
ĠS ad
Ġw age
Ġhum or
Ġcon vention
4 50
am med
Ð ²
ĠW onder
Ġtox ic
Ġroy al
Ġdead ly
Ġt une
Ġappear ances
11 3
Ġwond ering
if iers
M ike
Ġst om
ĠT s
Ġrec overed
st ock
ĠDemocr at
ut ing
?? ??
Ġhost ing
Ġm arch
ĠC u
Ġb reat
am ination
are r
T ech
Ġcloud s
Ġsubt le
Ġjo ke
Ġgenu ine
Ġh ockey
ĠA w
ĠHamilton ian
def ined
Ġvess el
ĠK ind
Ġa uction
ac re
ĠL l
ĠSt age
re ck
Ġadequ ate
13 5
ĠEm ail
oe ing
Ġl ocked
Ġdifferent ly
Ġd ense
Ġterror ist
Ġf o
ement ia
al ia
ime q
onom ous
Man ager
Ġlist ing
Ġarrang ed
M ac
Ġincorpor ated
AG E
ĠC ultural
ĠBelg ium
ud ge
C ross
M edia
mar ks
Ġstrict ly
Ġt ons
an z
iz on
ĠB ou
comm on
ul ent
ĠLar ry
i ov
Ġob sc
est y
ĠS EC
Ġpassion ate
ii i
t ail
Ġt ube
Ġvol umes
J apan
Con f
B o
Ġpr ayer
uss ia
Ġdec k
Ġcl im
s imeq
Ġmolec ules
ĠF ight
Ġembod iments
per or
irm ingham
Ġra pe
ĠRob in
Ġsymbol s
ĠR T
St at
ĠG L
Ġenjoy ing
ĠE ve
Ġ __
196 2
j ava
Ġm arijuana
le tt
Ġcomp ound
Ġdel ivers
ĠOsc ar
Ġengine ers
ĠJer usalem
Ġinfect ions
p icture
um ing
N O
U I
Ġint elligent
st ud
Ġassess ed
) }{\
sequ ently
ĠG ay
Ġencoura ging
ĠG host
and ed
mod ule
tik z
Ġconf used
Ġt ar
ĠArt ist
Ġswim ming
Ġde emed
Ġrep orters
ĠIndust rial
.~ (\
Me anwhile
ĠO liver
ĠHealth care
ĠMach ine
Ġh oney
u er
ĠTreat ment
Ġin herent
Ġattempt ing
M iss
con text
Ġbar rel
Ġheart s
Ġmag ical
Ġ }\
Ex p
Ġlab our
ĠD ynam
ĠN ap
Ġdo zens
Ġpos it
Ġpubl ish
ont in
Ġ rib
ĠL anc
il itation
Ġlo ose
Ġinnoc ent
Ġbel oved
aly st
Ġboard s
augh ters
S al
ĠFor ces
Ġproceed ings
Ġpromot ed
Ġm ath
ĠBrother s
ĠD ra
em ption
Ġtax p
Ġrail way
Ù ħ
Ġs ne
F iled
ar ms
Ġth irty
ĠTr ad
f alse
Ġmist akes
Ġvac uum
Ġdelay ed
$ $\
rop ic
Ġvari ed
Ġopp onents
Ind ia
Ġgold en
ĠCam eron
ĠC ris
ĠCh amber
Ġpack ed
J P
re port
to o
ĠTechn ical
Ġ&= &
A h
ĠBe ijing
Ġbroad er
Ġhydro gen
Ġw isdom
Ġs its
: }
ĠD eg
W E
Ġe uro
ĠOr iginal
iz able
ĠM illion
ĠMar ie
ogen ic
Ġeg gs
m aster
Ġsp ac
Ġsa ke
Ġy eah
× ķ
Ġpres c
v d
ĠJ ob
h ill
Ġrac ism
Ġim posed
ĠV A
Ġpre f
Ġappear ing
l oc
Ġsens ors
V A
alt ies
ĠAut om
ri en
Ġappro x
Ġ$ $
Ġtw ist
Ġspect acular
v as
G old
ĠP eters
Ġsm oking
Ġpar ks
Ġhe aling
ĠV ision
ĠF ro
L iving
ĠW a
Ġcook ing
ĠH P
Ġem pir
r ors
Ġcheck ing
24 0
r ative
Ġcons piracy
ĠTo o
mat rix
im ages
ĠEvery one
ĠFrank lin
ĠMur phy
ĠBu y
ĠP ra
ant ry
" ).
Ġcons ensus
ĠGr ay
Ġspect ra
ĠKen ya
ĠTh or
ant um
includ e
ĠUnivers al
Ġgent le
ĠT itle
ĠB irth
Ġph ases
Ġsus pected
Ġdemocr atic
b us
play er
ĠVal ue
Ġhe m
Ġgraph s
ĠCru z
ay ed
ĠT un
i ol
Ġremov ing
Ġdes erve
IC K
lar ge
ed a
St ream
Ġinter mediate
M ad
ĠK az
IG HT
ur ations
Ġke en
)$ -
AR S
Ġoverwhel ming
ĠF ast
Ġimp ressed
ĠPrim ary
os oph
v ance
cept ions
h al
Ġthrow ing
ĠTele vision
Ġsoc cer
Ġad mission
ĠKe ith
v ation
Ġnegoti ations
ĠB illy
amp ed
at ile
Ġwork place
Spec ial
Ġl um
ĠR ule
ĠPr incess
Ġcoe fficient
Ġcomment ary
ĠT es
ĠA B
Ġp up
L ive
Ex pl
ĠM aine
ĠMethod s
c ong
ĠPlay er
ĠSand ers
Ġinf lation
ĠSe veral
******** ********
com plete
new command
Ġr ated
17 0
Ġpubl isher
Ġcap s
Ġpaint ings
Ġcontr ary
ram ework
rol og
ĠSw iss
g iving
IG N
Dep artment
itte es
ĠTransport ation
Ġr itual
ib ration
Sc ript
Ġacknow ledge
ĠM ail
as a
Ġcontain er
ab a
Id ent
t arget
Ġbelong s
Ġbr anches
Ġch urches
N R
ĠF O
Ġfe as
Ġm os
Ġoccup ied
Ġback ed
ĠN intendo
ĠTr uth
Ġgraph ic
Ġt ears
ĠP ick
AS H
ĠAd venture
n um
ĠC rown
ĠS ays
Ġinvestig ating
ĠM ason
Ġsubsc ription
re view
J im
Ġreg ression
Ġachieve ment
Ġjo ins
ĠDet ails
Us er
~ $\
ĠM all
sen al
Ġbre ach
ĠC ut
C ategories
or o
ĠC riminal
F our
connect ed
ge red
Se lect
Ġoccasion ally
Ġth rew
ens ively
Ear ly
Ġp add
Ġaddress ing
ow een
ĠCl aim
Ġad min
Ġp owered
ĠL ore
ĠC zech
ĠMan hattan
T itle
ĠN urs
11 7
M ag
ĠB eck
is en
Ġadv ised
Ġret ain
Ġpoint ing
Ex per
à¤ °
ac cess
Ġmed al
} )$.
Ġcl ip
Ġearth qu
ĠN ag
amp a
ĠN J
Ġf oss
ĠAl b
Ġdepart ure
Ġgovern ance
f ont
om on
as ia
Ġam endment
Ġdis put
ĠG round
^{ +
ĠArch ive
bul let
z es
ĠF ine
Re al
display style
Ġsh ield
Ġvol unt
Ġex pense
ĠRest aur
ĠC S
Ġprocess ed
ah oo
Ġanticip ated
ue z
Ġed iting
T Y
Ġdev oted
h ole
ĠBen jamin
ĠM aj
Rich ard
ĠW ikipedia
Ġemb arr
ĠCele br
r ays
Ġclos ure
ĠSpr ings
Ġst ocks
om i
Ġev olved
ad ata
Ġsu ck
Ġelder ly
Ġsc andal
Ġste am
Ge orge
sp ot
per ial
Ġh anging
Î µ
ĠCol lect
Direct or
Ġcom ed
Ġst olen
B ase
ĠLiter ature
Ġglob ally
Ġmicro sc
ĠCom ics
ĠT arget
ĠPer ry
Ġrece ption
Ġtrem end
Ġsurv ived
Ġr ice
W H
Ġp or
( {
act iv
ĠAdv anced
Ġl on
Ġgrad uated
Ġnerv ous
ĠMarg aret
Ġs id
L ine
Ġworld s
Fr ank
pos al
Ġrel ate
Ø ±
ĠL ad
Ġconscious ness
ĠAn alyt
inc ial
ĠLeg isl
Ġflex ibility
ĠRail way
ane an
Ġmet rics
Ġdiscl osure
Ġgrow s
ĠK ay
Ġpre st
Ġsec rets
Ġkne e
ĠGr iff
um m
ĠRep ly
Ġp ension
ru p
D ev
E duc
f un
ac ies
ĠM erc
ĠFl ash
ass es
ĠTh an
Ġtri ps
M us
ĠMad ison
ĠVis it
ĠJ obs
s chool
Ġse gments
anc ell
ĠAust ria
ic he
Ġtest imony
ire ction
ĠLet ter
He y
ĠR F
akes pe
ĠA ld
Ġf atal
ĠL anka
En ter
Ġres ist
Ġaccompl ish
Ġdead line
Ġchem istry
ĠJ a
L em
g un
B ill
ra h
Ġscient ist
r ank
G ame
Ġc oc
Ġadvant ages
T otal
Ġd ivers
it ational
ĠEm ily
he ld
ith ub
al ph
Ġhe aven
Ġp ow
ĠEmer gency
ĠSing le
Ġdepart ments
\ )
e u
ĠIs a
Ġsevent h
id ges
ĠBen ef
i ang
ĠSam uel
ĠLabor atory
ol ine
Ġt ens
A ccess
Ġhousehold s
er ick
Ġign or
Ġp orn
ir able
Ġnot ation
em ail
ĠDep uty
ra ined
Ġhighlight ed
oun ters
T agged
Ġoverse as
ke ley
s ervice
Ñ ı
ant i
Ġnav igation
Ġdis abled
ari ans
ĠCom edy
Ġconf usion
Ġsol ving
Ġlik elihood
Ġbe ings
J on
Ġcreat ivity
Ġf ier
ĠF ellows
Ã Ĥ
Ġcomp ly
ard ed
ose x
Ġind irect
Ġcool ing
Ġem power
ĠGrow th
ĠSt ream
F amily
Ġ= \
Res ults
Ġprof ound
Ġd ens
Ġsum mit
ĠV enezuel
ĠSum mit
ĠR ank
s ky
pro position
ounc ing
we alth
m g
Ġch icken
cl osure
role um
ĠSh an
as ury
Ġen abling
Y ear
iss ance
Ġcomput ation
Pol ice
Down load
ĠEd inburgh
à ®
Ġor ange
Ġdr unk
Ġintrodu cing
ĠÂ ±
ah a
Ġopp onent
Ġclos est
ĠB eng
Ġsec ured
Jo in
Ġver ify
Ġsh orter
ĠK id
ĠS ug
Ġall ies
ĠAP I
M o
Ġstri kes
ĠPut in
Ġmut ual
Res ult
un it
Ġtri ple
Ġs orts
Ġis lands
akespe are
bor ne
Ġmarg inal
Ġmin istry
Ġl ymph
Ġper f
Ġper ceived
Ġkn ock
ĠNe il
Ġaccompl ished
Ġs li
ĠK l
Ġmeas uring
ĠN ad
196 1
Ġsubstant ially
Ġderiv ative
Ġm eth
ĀĀ ĀĀ
Ġch ip
Ġinter ference
Ġwind s
gl obal
Ġc ig
Ġcom ics
1 19
ĠProgram s
Ġlic ence
Ġtempl ate
Ġd ump
ĠGuard ian
Ġrem arks
Ġinfect ed
Ġcon sole
Ġfriends hip
ot ton
cl ip
ĠSimilar ly
ĠB egin
Ġsaf ely
Sc ott
Ġb orders
ĠN i
Ġprof its
Ġpaint ed
2 10
ĠV oice
ĠH ub
F ore
Ġchar ging
Ġd ub
ĠCor porate
Ġtw elve
Ġattribut es
Ġrefuge es
Ġfor cing
Ġconsult ation
W elcome
Ġin sect
Ġm a
Ġto ll
Ġa qu
Ġm ales
Ġany body
Ġbl ess
st ration
Ġde ar
ist le
Ġpolit ician
Ġacqu ire
Ġdiam eter
Ġre vel
Ġthe rape
ĠP O
Ġcoast al
The orem
Ġhigh way
Ġlegit imate
Ġdifficult ies
Ġpick ing
ĠJer ry
Ġfollow ers
am ents
Ġbut ter
Ġ$ {
ĠE L
7 50
Ġw ishes
Ġwh is
Ġmod ules
ĠD oc
=" #
ĠSch olars
Ġelim inate
ĠArgent ina
Ġentertain ing
Ġla pt
ling ton
à¥ į
Ġdef ines
Ġres olved
ĠStan ley
Ġrecept or
erv atives
ĠP i
ill o
ody nam
ĠT odd
Ġsp an
ĠIn j
ĠJess ica
Tr ue
im edia
ĠK ath
D D
Â ±
Ġcontroll ing
Ġgrad ually
D i
Ġu pload
Ġpart ly
Ġpract ition
Rep ort
Ġtrad itions
qu is
Ġcann abis
c ref
ĠEx cell
Ġcontribut ing
Ġperform s
ĠS R
m aker
ĠG ive
Ġdro ps
Ġsal ary
Ġout s
ob i
Ġcolumn s
is y
Ġfl avor
Ġst er
ĠC E
ah n
is p
$ ;
Ġt ribute
Ġthere of
Ġexpl ores
Ġdr inks
R NA
P I
g ow
it ime
Ġcompat ible
C ong
ĠB udget
iz za
Ġcomput ational
Ġoblig ations
Ġvolt age
ĠSy rian
Ġspokes man
Ġweak ness
ĠM i
Ġbuff er
U r
ĠPu erto
Ġdemand ing
ĠB right
land o
Ġproject ed
ĠS S
h aw
Ġhoriz ontal
ĠL ux
ĠM aking
Ret urn
ĠFac ulty
' (
ĠF ashion
Ġc um
OR D
Ġb anned
Ġdec ides
Ġmet aph
Ġc ous
map sto
Ġj e
it ations
ĠD anny
Ġdocument ation
ĠM asters
Ġv ig
ĠChampions hips
Ġdon ations
Ġass ass
Ġco aching
Ġp ocket
oll ar
Ġlaun ches
Ġaffect ing
Ġmagn et
ĠF ried
Ġrest ore
ĠFl ight
ĠS ent
ert s
Ġrhy thm
Ġsur g
Ġvill ages
um ption
m ic
Ġw it
Ġinject ion
Ġpre lim
ou p
ĠA the
au er
Ġdis ability
ĠC ann
ON E
Is rael
atch ing
ĠH ousing
Ġcross ed
Ġimag ination
Ġe ager
ĠNot es
ĠB enn
Ġsc rew
ax is
oc ate
Ġlog ical
Ġfram es
ern ess
Ġp ose
ort ex
ad ows
ir i
Ġdiscuss es
hav ior
ĠSe ven
Ġequ ilibrium
p rem
ĠMaterial s
ar re
Ġcert ificate
Ġtransl ated
ĠT rain
d l
Ġun pre
Ġsan ctions
Ġcatal og
Ġaccomp any
A p
N EW
AT H
Ġpolynom ial
Ġrank ing
ĠBat man
ĠK irk
ĠCo hen
ĠCons ider
17 5
2 30
Ġclass room
S il
ĠJ eremy
ĠCom mercial
Ġs que
ĠInd ians
ĠiP ad
Ġre hab
W ed
ER Y
Ġhere in
ĠMu eller
ĠL E
I Z
ot ypes
ĠL ock
Ġcry stal
ĠTurn er
Ġb onds
Ġcoal ition
Ġhand ful
ĠIss ues
Ġcon form
ĠPhys ics
Ġst roke
h box
Ġking dom
Ġactiv ist
ĠO P
w art
Ġappro ached
Ġquarter back
Pro t
Ġar ise
Ġveter ans
weg ian
Ġt ong
Ġtrans mit
Ġe cho
ĠG O
ĠD rama
Ġt ours
Ġjournal ism
Ġdom ains
Ġrepl acing
M AN
ĠSh ah
ĠT ed
Ġinv al
Ġinflu ences
Ġb ug
eg u
h l
c ss
Ù Ĩ
19 58
Ġguarant eed
_ -
ĠMed ic
C lient
L and
ĠAren a
Ġsa il
Ġmusic ian
Ġg ly
Ġsl ot
ĠY ang
Ġmon ster
12 1
ĠUS D
ĠC M
ĠIn clud
ĠNot ice
st at
ĠC arn
M er
Ġann ually
ĠR A
o ons
Ġf ont
AR E
Ġbur st
he ll
Ġn il
ĠComp anies
ĠH app
. /
Ġse eds
ĠBr ig
Ġh o
Ġexpl ored
D escription
ĠWith in
Ġcollect ing
) },
grad ed
ine e
ĠCo ach
Ġfem ales
\ {\
ĠCy ber
Ġtun nel
ĠDak ota
w ave
em ia
Ġp icks
Ġsing les
ĠSu ite
Ġcon clusions
Ġac res
au kee
ĠEd ge
od s
Ġal ike
res a
n ik
Ġstraight forward
Ġint im
ĠL ion
umb ai
ĠL if
ĠJ oint
Ġinter f
Ġbe ating
Ġdemonstr ates
ĠD A
ĠE ld
Ġsepar ately
Ġinstitution al
Ġquant ities
Ġm i
Ġvess els
Ġcoll aps
Ġr amp
Ġst yl
Ġch ains
âĢĿ :
Ġdraw s
Ġdef ining
ce ive
Ġdim ensional
AT O
Ġinc idents
Ġpull ing
i encing
ĠM aur
Ġfin ishing
A rm
n umber
cont rol
ĠPol y
Ġcam ps
if ully
ĠBar cel
Ġv iral
ĠOper a
ov ic
Ġad verse
w ear
ĠGover n
ĠS oph
ig a
Ġbet a
ĠL ED
ĠHind u
Ġnot ing
Brit ish
face book
) --
ant on
Bl ock
J oe
z one
K ing
Ġan ten
ĠLin ux
g ement
19 59
Ġb ags
L i
iv ic
Ġcreat ures
b ably
Ġcon vey
Ġconve x
Ġhand led
Ġc ave
ex per
Ġpresent ing
Ġ ..
add y
Ġdark ness
ĠP ictures
Ġche ese
Ġste ep
Ġbar riers
ĠQu arter
ĠM es
Ġcons iders
Ġfl ower
Ġm amm
Ġm eta
ĠT ell
Upd ate
Ġadvoc ate
ĠStat istics
Ġsupp lied
ĠEm ma
Ġphot ographer
M el
g row
ore r
Ġair line
ĠAr men
AT ED
Ġle an
lic ation
Ġmembr ane
S em
ĠCommun ication
Ġrese mb
ps hire
Ġsust ained
Ġrem ind
ĠH il
Ġhop ed
Ġrem embered
sc ience
l adesh
Ġim pe
se lect
es ity
Ġcru ise
ĠB rain
ĠMove ment
ĠF an
Ġabund ance
f amily
ĠMan ufact
Ġown s
Ġmob ility
ĠA F
Ġn ick
Dan iel
ĠAgric ulture
T erm
ix on
ĠPl atform
Ġcert ified
ĠN ancy
Ġeconom ics
ier ra
Ġm erc
f an
Ġquad r
ĠP ic
ind a
Ġt el
ver b
ĠNev ada
m ag
Ġstop ping
Ġsh apes
Ġdeploy ed
Ġdisappoint ed
dep th
Ġestabl ishing
t ree
Ġpers u
Ġstrugg les
Ġg ym
ĠJ uan
h bar
Ġvari ance
Ġf t
F in
12 2
k it
ĠCom pl
ve ment
ĠApp endix
Ġmetab ol
Ġtrans parent
math it
Ġdon ation
âĢ ²
b one
Ġbal anced
ah u
C ategory
Ġload ed
ĠBi ology
Ġe ars
Ġcou ples
Ġre nov
od ot
Ġin cl
ĠResp ons
Ġball ot
ĠW ire
Ġroll ed
Ġhop efully
Ġval ley
L O
f ind
Ã© e
Ġneg lig
olec ular
Ġcount ies
ah l
M aster
Ġt ends
ĠWar ner
Ġexpect ing
Ġprov es
G F
ĠH T
Ġt agged
ĠTr ack
ĠGi ants
ĠG arc
De velop
Ġb os
Ġre ign
d est
Ġf usion
Ġf ut
ph ony
Ġdam n
oun ces
Ġqu oted
Ġproduct ivity
Ġexpect ation
is co
Ġm akers
Ġimplement ing
Ġbatt les
Ġstreng the
B Y
Ġagre es
su ccess
ie g
May be
Ġsit uated
s it
ĠM ack
Ġj ack
Fil ter
u art
ĠN eb
Ġcle ver
res ults
ĠStat ement
Ã £
ĠK el
Ġ\ !
Ġsch olar
Ġsurve ys
ĠP ul
ĠD elta
ĠSur v
Ġun iqu
Sh are
D eb
ĠT ig
ĠMad rid
rist ol
Ġcons olid
ust ed
s i
st atus
ĠTh r
ĠF aith
B ER
ĠT erry
Bl ue
Ġannoun ces
Ġl os
us hes
Fr iday
Ass oci
Ġs ends
Ġinv asion
ĠRes ource
Ġfound ing
app ropri
k ed
ĠCom b
ĠV ersion
ĠP ent
Ġdiv orce
ĠB eth
12 4
Ġdesign ers
Ġmiss ions
ul atory
Supp ort
w aukee
10 16
ĠPhot os
= '
Ġexp ed
J ournal
ew ise
I RE
N AS
ress es
ph ot
Ġd ip
) -\
Ġlegisl ative
ĠCour se
ĠBarcel ona
ĠF am
ĠCamp us
Ġt ent
pr ison
ĠO ri
Ġspons ored
Ġtra g
Ġcorpor ations
ĠAb u
Ġh ug
ĠMe et
Ġpath way
Ġvot er
ĠMet al
Ġdam ages
yl an
ĠH unt
Micro soft
Ġf u
pp ers
Ġworks hops
Ġill um
Ġsw ord
ment ation
ĠZ one
ate ur
Ġhoriz on
Ġsh ifts
ix els
ĠR C
Ġachie ving
Ġpost er
N G
Ġle ather
am y
12 7
duct ive
ĠAssoci ate
ĠH orn
avel ength
. ).
Ġsophistic ated
ĠW A
Ġ} ;
Ġnom inated
ĠE DT
ĠC arm
ĠS old
Ġdisapp ear
ash a
l ive
Ġtour ists
Ġmet all
Ġc ensus
Ġprint ing
ĠArt icles
Ġshel ter
Ġw ound
it err
ĠLeg end
} &
Ġrecord ings
ĠD im
Ġrev ised
Ġexist ed
il ateral
H P
ed er
ced ented
ĠPar ks
Ġdefin itions
ĠLe ban
Ġcir cles
Ġlit igation
J un
Ġc rop
ĠP ain
rit ical
M ENT
h is
Ġclean ing
for ced
Ġb ases
| _{
S ports
Ù Ī
ĠR io
B as
ĠCond itions
Ġembr ace
12 6
Re v
Ġgirl friend
r h
ĠCons umer
et o
Ġcell ular
Ġto ken
ĠW ant
ĠCost a
Ġl ap
T or
ac hers
S at
D en
Ġline up
Qu ery
ĠC I
St ill
Ã¡ n
ĠChristian ity
L ar
ĠMichel le
d iff
Ġauthent ic
Ġeth ical
ĠH at
iv ia
cl osed
Ġf are
ĠV I
ĠF if
OR K
Ġdist ant
ĠForm er
ĠCirc uit
M or
ĠDen mark
Ġext ending
Ġtechn ological
Ġra ises
ss on
Ġstri p
um ble
les h
ĠU l
="../../ ../../
on omy
Ġworth y
$ ^{-
Ġdisag ree
re v
Sim ilar
Ġlabel ed
om o
Ġpen et
Ġtw in
Ġdes p
Ġattract ed
H aving
ĠK aren
t elling
he w
Ġcorrespond ence
Ġr anges
In s
ĠFil ms
Ġy ard
Ġr ush
Ġpric ing
ĠM ul
Ġbenef icial
ĠWood s
ĠL it
Ġforest s
Ġs isters
R ock
Lear n
ĠWat son
ĠV eh
d esc
19 00
Th ough
19 44
ĠCons ervation
ION S
ĠStand ards
Ġcomment ed
Ġinn ings
Ġterror ism
Ġref use
ip age
Ġst arring
ĠBase ball
Ġhe ating
ĠF M
th ird
ĠCh a
roll ing
g ithub
op ed
Ġn ons
Ġel abor
ĠJ ake
ĠAud io
ve ctor
Ġrecon struction
ĠY u
" ),
ĠP icture
ĠMin or
. $
Ġcha os
Ġp ink
ĠH udson
Ġland ed
ĠSwed ish
ion ed
ĠC V
Cont ent
L ead
Ġtempor al
Ġdistingu ish
Ġbad ly
m em
Ġb alls
Ġconstitution al
Ġrenew able
Ġd ressed
M a
ĠN ep
az ines
Ġsh ore
cont in
ke ys
ĠDou ble
Ġfrequ encies
ag ine
ĠG rey
Ġeditor ial
ĠE SP
Ġisol ation
I ll
}} ^{
Ġvac ation
G od
ount ered
k ar
c ott
ĠDe b
Ġer u
Ġret rie
vis or
19 57
row se
ĠPlan et
Ġsw ing
if le
Ġcontrovers y
}( {\
ĠL uther
; &
com ed
ĠLuc as
ĠPortug al
Ġexpl aining
in ery
ÂĢÂ Ļ
ĠK ill
pack age
om ething
Ġre nown
ĠJam ie
ĠF ame
oot s
Ġout break
ĠT yler
le in
Ġre un
s or
ĠM ario
Ġridic ulous
Ġen velop
P RO
ĠAssoci ated
e ast
heim er
necess ary
Ġcomb ining
Ġjurisd iction
Ġtreat ing
Ġrandom ly
Ġal umin
ang o
Ġblock ed
f eed
ĠN CAA
id o
Ġsurg ical
ĠR O
min ipage
ĠHor se
Ġdesper ate
Ġal umni
Ed itor
ĠAr n
Ġcompos er
Ġpri est
Ġw ise
ĠChel sea
Ġadjust ed
rol ogy
Ġarriv es
> &
u ition
ĠR ac
Ġwood en
ĠR acing
ĠW E
ĠTre k
Ġt rivial
ĠWe ather
child ren
iss on
ĠS quad
Ġg ifts
ĠInt o
Th omas
19 17
H ouse
f our
ĠF DA
Ġlov ing
ĠLiber al
Ġsh irt
ew ay
not es
Ġprogram mes
Ġb uses
}{ (
in itely
}{ |
Ġconv icted
Ġfl aw
Ġaccur ately
ĠSte vens
ĠB irmingham
Ġenc ountered
ĠB att
ĠH az
ĠAl t
Ġfin ancing
E st
Ï ĥ
m art
S ar
Ġt ennis
ut er
Ġp unch
Ġback ing
3 20
ĠP ad
J eff
o ose
Ġped est
an alysis
Ġbi om
Ġsn ap
ĠO t
C amp
Ġover night
ĠF itz
i w
l on
Ġfil ing
Ġc yl
l it
ĠMe chan
19 56
Ġaff air
Ġpeace ful
Ġg orge
Ġam bit
Ġinvest ed
Ġf a
iz ard
Ġtrans parency
P an
Ġassign ment
i ological
Ġc av
Ġabs ent
ĠE t
Ġmotiv ation
Ġexper iencing
Ġtra gedy
op ing
Ġpl aint
ĠIn it
Ġen semble
Ġo ught
ah o
Ġsold ier
Ġstake holders
Ġw ings
ut o
Ġsuggest ions
Ġbel t
Ġexplos ion
d ou
Ï ģ
Ġnewsp apers
Ġp our
H am
Ġexcit ement
j oint
} }$.
ĠS ett
l av
Ġcab in
Ġinflu ential
ĠT on
ĠTre nd
Ġven ues
Ġpass word
Ġsequ el
Ġinput s
ĠL ower
Ġunc lear
ster dam
he rence
ĠHe b
Ġst d
Ġang ular
ĠIn side
Ġh orn
Ġmotiv ated
ĠIniti ative
Ġrem inded
ro d
Ġconnect ivity
ĠArchitect ure
olog ic
Ġr iders
Ġann ot
Ġpoll s
ĠN athan
ĠLiber ty
Ġsynt hesis
ĠR ES
Ġauthor ized
19 48
s quare
ĠT error
Ġg rey
ĠCons ervative
ish a
Ġprison ers
ĠK u
c ity
Ġprem iere
14 5
ĠA er
App le
ag g
ens en
d frac
Ġman ages
ĠSh akespeare
Ġun ity
Ġanim ation
Ġtrust ed
atern al
Ġf illing
Ġsub mission
Ġwork force
Ġbuy ers
ĠCh ile
Ġmin eral
Ġdelight ed
Ġb ip
C M
Ġt ut
Ġpre view
Ġanalyt ics
ĠIm port
Ġwhe els
z i
ĠAg ent
ĠM is
Ġautom ated
Ġf ires
Ġb undle
IM E
ig o
Ġ$ |\
Resp onse
iterr anean
pe red
ĠOr chestra
o T
Ġinhab it
Ġreserv oir
Ġcollabor ative
ĠF ace
Ġne arest
Ġstreng then
Ġmem orable
in formation
Ġfeed ing
Ġcy cles
Ġnow here
M ary
Get ty
Ġdef ending
UL T
l anguage
Ġdecom position
} }$,
pos ing
Ġfast est
Ġattend ance
ull ivan
Ġb other
St and
Ġprelim inary
Ġst ack
Ġnation wide
ĠR ou
Ġretail ers
Ġanim ated
ethe less
Ġpul se
Ġh int
G ener
n ull
ĠCl ay
id ity
um ph
Ġinvest ing
Fil m
am ic
D B
ib e
ber y
c ost
Ġexecut ives
Ġed it
Ġro ster
Ġaccommod ation
ĠSt ra
Ġcry st
h all
ateg orized
ĠFin n
EE E
red ited
Ġp ole
le ments
19 55
Ġlaw makers
ĠK o
Ġnew est
ential s
id i
Ġhapp iness
ĠPol ish
M ake
Ġcou p
cast le
Ġtour ist
Ġbr on
Ġadm its
Ġscholars hip
ik o
Ġspe eds
ĠSh a
Ġlaunch ing
Ġkid n
Ġo h
Ġmed ic
ne red
el eration
Ġden y
19 39
az y
Ġle ase
Ġz ones
ak u
Ġf erm
s ized
Ġdu o
par agraph
er gy
Ġcust ody
ipl inary
Ġs ew
ig g
m illion
ent o
Ch apter
Ġme als
) }_{
A U
d ict
Ġmechan ics
ob ic
Ġabsor ption
Ġp uls
Ġviol ations
Ġsatisf action
Ġcar go
Ġvari ant
Ġener gies
ĠN am
oper ative
ĠF at
ur red
Ġcontact s
} )$,
ĠP erm
ĠPh ase
asket ball
c ure
Ġint imate
Ġstr ings
Ġextract ed
Ġcare ers
Ġh ack
ĠR ivers
2 25
Build er
ĠM ob
Ġchalleng ed
Over ride
Ù Ĭ
Ġrespons ibilities
ĠH alf
Ġc inem
Ġch arts
ĠEconom y
Ġres il
ct rine
ĠF ly
In vest
Ġstream s
Ġpl ates
Ġ\ ]
ĠPet e
Ġf ru
Ġ$ .
Ġgu ided
we i
And rew
Ġcoll ision
och astic
is ure
ĠQ ual
Ġtra uma
Ġsh aped
ĠQueens land
) +\
Ġc os
Ġlong est
ĠUp on
Ġentreprene ur
Ġcelebr ating
ili ation
ast ro
pl ot
rit ies
Ġdiagn osed
b ecause
O O
Ġl ibraries
Ġf itted
Ġpo ems
Ġpure ly
m itting
Ġsc ar
Ġreason ably
Ġt ear
Ġqu ot
Ġsol ved
ĠV ari
Ġinter rupt
unicip ality
as gow
ĠHarr ison
S ON
ĠAss essment
Ġt ropical
On line
19 18
Ġur ged
Ġrest ored
IT E
à¥ ĩ
ĠSp ons
work ing
Ġch lor
Ġhol idays
Ġsurprising ly
ick et
$ };
Ġdist inction
s ince
Ġoper a
ĠR oute
ĠVin cent
pl er
Writ ten
Ġder ive
ot ts
Ġne utr
ĠInvest ig
Ġart work
Le vel
C am
ĠGl ass
ass ed
Ġ- >
re nder
Ġinsp iring
Ġden oted
P DF
Ġconduct ing
ĠN HL
sh ort
Ġefficient ly
ĠHall oween
Ġres erves
Ġkick ed
Ġread ily
ĠResp onse
Europe an
ĠE M
ĠHer o
ĠQu estion
em or
ĠDub ai
? !
acter ial
12 9
Ġdes erves
Ġ* *
Ġdeput y
ĠOther s
T L
Ġg rain
found er
Ġc od
g eneral
Ġg am
Or gan
w iki
Ġco h
Ġphys ician
Ġsm ell
b uilding
Ġtr ucks
H ot
Ġaltern ate
b ank
ract ed
ĠSt ri
Ġoccas ions
Ġtherape utic
ĠB orn
ĠF ri
Ġfl our
ĠE ye
Ġinsp ire
ic iary
ĠT ask
19 0
Ġ[ \
Ġf isher
Ġcirc ular
F unction
Ġrecommend ation
ne x
Ġt orn
m ons
at as
al ities
Ġgener ator
Pl ay
ve e
ĠDe cl
Ġprotocol s
ict ional
op ath
14 4
i Ã³n
oot ing
erv ices
h h
ĠM ental
sh ould
ĠB S
Ġattribut ed
Ġam end
Ġrest oration
ex pl
ĠY eah
c amp
Ġassoci ations
t iny
Ġbi ology
I X
or f
Ġp ixel
ĠN an
Ġac oustic
Ġfuck ing
ĠC inema
iz ational
et on
Ġadv ances
Ġcontinu ously
H ol
rupt cy
ĠL ex
O p
In c
N av
em a
Ġjump ed
Ġinspect ion
amp ire
ĠHon or
Ġpl acing
Ġnurs ing
b oth
Ġst ating
Hand ler
20 2
ĠU V
ĠM ol
Ġsyn chron
ĠP D
$ ),
Ġbul let
E ast
Ġgr at
ĠD ifferent
Ġattack ing
Ġinter ventions
Ġcount ing
) )$
ap or
ĠY e
Ġsk illed
Ġeth ics
ĠB arr
Ġm igr
Ġpre ferences
ĠC row
Ġdes cent
Ġcur riculum
ĠCo ord
ĠW ol
T ON
ĠSher iff
Ġs our
C ON
Ġmother s
Ġpat ri
Ġelement ary
Ġambit ious
IS H
h or
ĠT ib
Ġpoor ly
ĠProgram me
Ġh arsh
Ġdim in
Ġtrav elling
ĠInt el
Ġdig it
on line
ĠPh one
ĠMont real
ĠC ounsel
ĠOpp ortun
Ġelev ated
Ġcolle ges
Ġvalid ation
19 53
Ġdetect or
g irl
om eter
et e
ĠAlber ta
Ġin verse
ĠEd wards
Ġf ighter
Ġcolon ial
| }{
Ġacknowled ged
C reate
Ste ve
Ġgl uc
ĠU pper
L ou
h alf
V ER
Ġsynt hetic
Ġtrans mitted
ĠP T
ĠR ather
ĠHar per
Ġindic ation
ĠVis ual
Ġexpect s
ĠWild life
Ġhabit at
ĠP os
ĠH erm
Ġobl igation
ĠJ ama
Ġp ub
ĠPart icip
R ay
sc apes
Ã Ĺ
ĠComp etition
Ġpreval ence
Ġpack ages
/ .
ĠK an
E U
F ound
Ġh unt
Ġdiscipl ine
S ep
ur ious
er ie
Ġcomb inations
Inst ance
in yl
Ġpra ise
ĠSpe aker
ĠC ob
ĠRem ember
v ari
36 5
Ġdel icious
St atus
ĠP ub
Ð ¼
ar in
B ay
Ġint ra
Ġsur ge
Ġw ore
Ġnom ination
ĠPan el
Ġshift ed
Ġst ir
es ian
Â «
Ġat oms
m el
all ow
Ġunpre cedented
T ur
Ġcent res
ess a
Ġd aughters
ĠEth iop
o qu
t le
st ation
Ġconven ience
Ġfurn iture
A I
Ġclin ic
ĠHor ror
ĠV irtual
Ġwel comed
AN S
Ġrenown ed
Ġex empl
Ġoccup ation
Me et
w al
Ġdismiss ed
us k
d escription
- (
Ġinter vals
... "
ip h
Con nect
ĠOak land
Ġdocument ed
Ġe gg
Ġear liest
ĠMon itor
Ġsacr ifice
ar ma
ĠSh aw
Ġburn ed
N ever
b age
ĠG MT
cl ient
Ġint ens
Ġchap ters
Or ig
Ġformer ly
Ġpe ers
Ġcook ie
lo op
ĠC reate
ĠP in
Ġgr an
Ġche er
Ġcompet itors
Ġde ployment
ĠElement ary
H on
Ġwas h
m are
Ġexp end
D esc
Ã º
Ġwitness es
d ir
Ġspread ing
idd ing
ĠP le
" ]
ĠA bs
} %
Ġh iding
us c
Can ada
T M
Ġep it
}$ )
Ġm ature
Ġto ile
N BC
Ġconflic ts
Look ing
Ġfarm ing
ĠBuff alo
Vis it
ĠSer ver
Ġcop per
H i
ĠW or
Ġlay out
ĠN SW
Ġang les
ĠAl ong
ĠH ab
ian ces
P ower
Ġas pir
yl um
Ġdist ances
il ia
Ġstart up
ĠHar vey
ment ioned
amb ers
ĠJo in
3 000
19 47
Ġintrodu ces
Ġprevent ing
g ender
oun ge
n c
W ashington
ele ment
ĠProv ince
ĠHig her
Ġtremend ous
s er
Ġgr ay
Ġ- --
ad vant
ĠK yle
ĠV el
Ġpro gression
ĠDou g
ud s
ĠMer cedes
ĠL en
Ġconsist ency
$ ~
ĠC atherine
ĠPsych ology
Ð ´
ĠB ear
Ġr ings
Ġapprox imate
Ġrec k
th al
Ġreg ards
ĠB MW
19 42
Â Ĵ
Ġexc use
be y
Ġsac red
Ġpl acement
ĠAll ah
Ġh il
ĠCont emporary
ĠPart ner
ĠGreat er
19 54
Ġmed i
head er
f ive
Ġorig ins
S aturday
ĠCarl os
ÃŃ a
Ġcommun ic
riv acy
Ġintern ationally
U B
Ġform ally
ĠPlay ers
Ġleg ally
Ġunf ortunately
C reat
ĠS alt
vert ed
anc ers
Ġinv ite
Ġinterpret ed
ff icking
Ġoffer ings
Ġn erve
qu al
ĠR ing
Ġmat ched
Ġcomple ting
Ġens ures
ĠU RL
Ġrestrict ion
Ġb atch
eff ective
ĠRog ers
Ġind igenous
Ġwealth y
L R
Ġsu ite
Ġtable t
th ree
Ġinstrument al
Ġend orse
Ġh iring
n ational
Ġthreat ening
[ (
Ġcelebr ity
Ġis ot
IN D
Sh ort
Ġf iring
ĠNor wegian
Ġpro pri
Ġhonest ly
ĠIm perial
ĠInc re
ĠA ven
Ġde ce
n m
Ġcru el
t ic
bro ok
19 41
Ġatt ribute
Ġbed room
ĉĉ Ċ
Ġpred omin
Ġsubstr ate
Ġpre ference
Ø§ ÙĦ
k ward
ĠSong s
le en
ĠNew ton
Ġstom ach
if iable
ĠM B
in ion
Ġoccur ring
v ine
Ġso vere
Ġdesc end
ond e
y on
ĠHam pshire
Ġent ropy
Le ft
ĠW es
ĠRe ally
ĠCom plete
C F
Ġd irty
ĠA V
anc ies
ov ie
ĠLook ing
ox ic
Ġc her
Ġend e
Cal ifornia
Ġret ro
ac er
Ġbelong ing
Ġtr im
ĠCris is
ĠPre vention
M ass
ĠDirect ors
ĠJ os
opt ions
Ġ\ (\
ĠWrit er
Ġbuild s
ĠAb raham
el ines
15 5
Ġr ic
Ġrele asing
st orm
In put
Ġpun ishment
ĠBar ack
Ġaccept ing
ida e
Ġri vers
Ġth y
Ġtou ched
Ġper ipher
n ia
ĠPal m
Ġillustr ate
Ġan ime
ĠS id
ĠI F
Ġoption al
T P
ĠB B
ĠNash ville
Art icle
prof ile
ĠS witch
Ġdeterm ines
ol er
Ġtong ue
Ġlim iting
St ation
amb ling
k n
omin ations
arent ly
Ġexec ute
Ġform ulation
Ġbl end
=" _
dom ain
Ġn ort
ĠBern ard
] }
Ġh orm
Ġmethod ology
More over
ĠI g
R R
ĠB ass
ins ic
Ġmurd ered
ĠA CT
ĠB apt
ĠN ord
ĠD ennis
ĠImm un
Ġd rain
ĠS und
ĠR ico
et ta
ĠSo on
ĠðŁ Ļ
ars er
Ġle ak
ĠCub a
ĠMed iterranean
Ġaccess ed
ĠB ath
us p
T witter
ĠC F
Ġdro pping
ĠS weet
Ġb ool
Ġincor rect
ĠBes ides
Ġconfig urations
Ġw ounded
}[ \
ang ular
Ġsurviv ors
P ubl
Ġanaly st
ĠRe ed
Ġtem pt
Ã£ o
ĠScient ific
L in
Ġsh ar
Ġacc us
ĠUn like
ĠBr anch
m ill
al gorithm
Ġarch ae
Ġret reat
Ġbu zz
Ġfun eral
Ġse am
ĠBang ladesh
ã Ģ
ĠIn sp
list ed
Af ric
ĠF err
agon ist
Ġhon our
C y
ĠStr ong
Ġpe oples
Ġin quiry
ĠY ellow
ĠA round
Ġdram atically
ox y
ĠR idge
hy dro
ĠMult i
Ġnon linear
Ġsl ave
ĠWork ers
ĠR ud
Ġinc idence
ĠSc ar
Ġatt orneys
inc inn
Ġreli ability
Ġlift ed
g on
Ġed itors
Add ress
pr ising
ĠPhil osophy
ĠNichol as
Ġfulf ill
Ġthorough ly
Ġinc ons
M embers
Ġend less
Ġeduc ated
ĠF eed
Ġprivile ge
c ross
ham mad
Ġl un
iz arre
ĠWell s
Ġrecip ient
ĠL ate
Ġmount ed
ll a
Ġact ed
Ġsign aling
ĠK il
est abl
um i
Ġplan es
Book s
C oll
Ġrecogn ised
ĠDis covery
ĠStrateg ic
cl ose
Ġconj unction
Ġto ss
A ud
cel and
Int erest
Ġadvoc ates
Ġl ane
ĠF est
9 11
Ġu pt
( [
ab we
F ar
els h
Ġg ut
ĠRod rig
ch air
Ġcro ps
Ġpl ots
Ġcomp assion
Ġempir ical
AN G
Ġgod s
ĠSp ider
ĠA viation
Ġvend ors
Ġre vis
AB LE
Ġproceed s
B ur
ĠMem ory
ĠM ut
Ġmathemat ical
Ġgener ous
Ġnon profit
Ġm ock
ĠHoll and
Ġsp o
Ġinst antly
ĠKar l
F ive
Ġresid ual
m atic
Person al
T ex
ĠViol ence
ĠOr lando
p her
Ġ{ $
Ġqu asi
Ġcert ification
Ġbench mark
H uman
r ong
Ġapprec iated
e enth
ĠTour ism
ĠRe uters
e or
ed it
Ġaccommod ate
ĠAdvis ory
w er
Ġan onymous
Ñ ĭ
ĠA part
Ġbe ars
ĠVal ent
Ġpers pectives
Ġaltern atives
Ġlock down
ĠPl aces
Ġbo ats
Ġstrugg led
ĠSom ething
ĠCom ing
az i
Ġb oring
ĠG y
c am
S a
ĠY am
Or der
$ :
Ġse ver
Com ment
======== ========
iz a
ale y
ĠD raw
Ġprior ities
Ġconfig ured
Ġdecre ases
Ġent ers
Ġexclud ed
Ġco at
ĠN uclear
ĠM ans
Ġunem ployment
Ġaw ful
ĠFin land
Ġas h
ĠG onz
19 14
Ġfre ely
ĠCle an
Ġpack et
Ġn urse
Ġcompan ion
ĠĠĠĠĠĠĠĠ Ċ
ĠZ hang
imb abwe
incinn ati
ĠM AR
Ġsc iences
Ġeffic acy
We ek
Ġrob ots
ĠHel en
Ġprot esters
Ġin duction
Ġreve aling
Ġqu otes
Ġqual ities
Ġsk i
M att
qu ery
Ġover d
Ġmort gage
enn ial
ĠFe atures
ĠR osen
Ġatt raction
C ast
ĠÂ «
ĠTO DAY
13 2
Ġtrans cript
Ġderiv atives
19 46
now led
ĠChem ical
Ġlect ure
ĠBer keley
ĠU TC
Ġrespect ed
Ġrad ar
fl oat
g rav
Ġqual ify
ĠT agged
Ġlack ing
= .
Ã ¸
ĠM umbai
Ġtrag ic
ĠV R
Ġsent ences
th ood
ĠA id
Ġb ay
ĠV erm
ĠSc ript
im er
ĠGrad uate
Ġiniti ated
ĠArk ansas
Ġvacc ines
Ġch ocolate
Ġb icy
Ġc attle
ar an
ĠPhill ips
^* $
Ġpropag anda
k ers
ĠM ak
Ġb ail
uk a
M ember
Ġcomm od
; </
ĠH erald
Ġbrut al
Ġdel ays
uss els
R est
G a
Ġsoci eties
cc cc
Ġch ron
er ion
Ġchemical s
Ġw ages
Ġfoss il
3 30
ĠM R
Ġconv ince
ĠArt ists
Ġhar assment
ke es
gh ai
p resent
Ġdi agonal
Ġde lete
ĠMat hemat
ĠM T
Ġ rows
Ġdest ro
Ġtact ics
Ġillustr ates
Ġsp here
Ġp upp
Ġmem orial
Ġqu it
ST R
se en
Ġal tered
Ġinvest or
Ġcount less
Ġess ence
Ġprec ious
ĠT ips
Ġcomb ines
Ġdem ol
Ġsl ide
Ġexcell ence
ograp hers
Ġdistingu ished
Ġbab ies
l ate
v ideo
ĠCirc le
Ġperm its
ĠC ox
Ġorder ing
ĠPer iod
Ġinterview ed
im ir
ĠH appy
Ġdep icted
j ournal
ĠHol iday
Ġprotect ive
ch ant
r ust
Ġsh ocked
m ans
el se
C K
Sm ith
ĠRel igion
greg ation
Ġwra pped
ffff ffff
ĠS ave
Ġshow case
ĠTher apy
ĠLink ed
a ired
ĠSu z
Ġreform s
ĠT ak
th ink
Ġdiagn ostic
Ġp ays
ĠCh and
u ant
ĠM end
ues e
N P
ĠC ities
c ery
ĠCon vers
oc co
ĠInf o
T ele
om eters
In formation
19 51
uten ant
ec onomic
Ġarg ues
ĠB ristol
Ġpartners hips
Ġout lets
z ing
ĠJ ets
ĠRe yn
Ġw are
ĠJeff erson
Ġsmall est
ĠC urt
Ġtra ils
Ġanalyt ical
Ã¼ r
ĠH ockey
Ġbreath ing
Equ al
qu est
Ġcor rections
&= &
ay an
ĠW u
In it
Ġnetwork ing
Ġbehavi ors
Â £
ir atory
Ġc ra
Ä ±
old ing
arm ing
Ġswitch ing
Ġconsult ant
ĠW ere
Ġpsych ology
Ġjust ify
sh aped
Ġproduct ive
ĠQuest ions
Ġsim plicity
ĠM atch
Ġhol y
Ġunf air
t or
Ġmed ication
ĠSh ows
ĠĠĠĠĠĠĠĠĠĠĠĠĠĠĠĠ ĠĠĠĠĠĠĠĠĠĠĠĠĠĠĠ
Ġbe ef
Ġ< <
olit ics
ĠF ou
VI EW
Ġsl ope
19 16
id ad
13 4
plic ation
ĠPat ients
âĨ Ĳ
oc aly
Ġimp ly
Ġchar ter
ĠB ott
Ġprospect s
ĠR NA
Ġag ing
ĠAdd itional
Ġobtain ing
Ġp orts
13 6
Ġdisapp eared
Ġmand atory
os i
Ġin clusive
ĠC ash
W ater
% ),
ĠVeter ans
t alk
ĠCh i
Ġdiv ide
Ġpoly mer
ed ed
Ġes cal
You ng
ĠDef ence
ch t
rit is
ine a
? âĢĻ
ĠAr c
ĠV ik
Ġresearc her
ens itive
Ġall iance
Ġrent al
Ġbes ides
ott nt
ĠRe ve
B U
Ġf oster
Ġsleep ing
B ob
Ġfin est
Ġpain ful
Ġle ver
Ġreven ues
Ġbl ast
Ġsil ly
ass oci
×Ļ ×
Ġl ips
empt y
13 3
ĠW ine
less sim
Ġpres erved
Ġgl ory
ĠF oster
ĠR S
Ġar ising
G T
Ġwitness ed
ĠCommon wealth
nd um
=" ../
UT C
ĠGard ens
ĠCro at
ĠL inks
ut ory
Ġgra ve
Ġf ights
eng u
oc ur
Ġshe ep
Ġw avelength
Ġvi able
ĠK umar
ount ain
ĠLeon ard
l ab
Ġdeal t
bm atrix
ric ks
C s
Ġmod ify
ĠBob by
est on
rom agnetic
ĠPhys ical
I r
fact ory
Ġrat ios
ï »
b c
deg ree
Ġconj ug
ĠF ra
ĠH ob
ĠCh oice
Ġdon ated
Ad v
Ġadvoc acy
ĠCom plex
Ġsp ray
ĠTes la
ĠT ry
Ġm aj
ĠR d
udd y
j ar
Ġtra pped
ĠU P
Ġyour s
Ġproport ional
ĠRich mond
ĠP ere
Ġemer ge
ĠB anks
Ġal k
ĠL ions
Ġcomplic ations
ĠBl ake
Ġr ats
l ord
Ġoccas ional
Ġen force
Ġet ern
Ġmod est
Ġrel ates
ĠRon ald
ĠMont ana
D igital
T unes
Ġflo ating
F rench
Ġg al
o j
Ġperiod ic
ĠAcadem ic
Upd ated
) }}
s un
ĠMil waukee
ĠEgypt ian
Ġat omic
ĠJul ia
âĨ ĳ
Ġto b
be it
ĠW ITH
ĠNaz i
Ġcreat or
H om
ĠCoal ition
ĠD raft
Ġd y
W in
res pect
ĠChar acter
ĠPar ad
cont rolled
Ġemb edding
an ol
Ġgorge ous
ĠAr ctic
ĠAn cient
ĠPr ison
Ġde viation
ĠLind a
Ġser um
ĠC arr
EX T
Ġcor n
ĠPot ter
ins ula
ĠD iamond
Ġad ventures
Ġhon ored
Ġinev itable
Ġbe aring
Ġche aper
j av
Des ign
math op
Ġrock et
Ġtim ely
ĠT rial
ĠB rief
Ġtre asure
Ġrece ipt
ĠS aints
Ġuncertain ties
Ġlad ies
ĠD ad
Ġtrans c
Ġcontact ed
Ġint ake
Cons ider
rele vant
Ġaw a
f iction
ĠB oeing
Ġimp ress
ĠS r
Ġprest igious
Ġgeneral ized
Ġfar ms
OR Y
ol ia
19 52
ot he
ef ined
Ġc ats
ens on
int o
Ġd ign
Ġvari ants
25 5
p se
Ġrem inds
A mazon
Ġgard ens
Ġaud it
Ġf ame
neg ative
iov ascular
or b
Ġdescript ions
Ġwor n
sh ine
ĠCare er
Ġbath room
U til
Ä ĩ
Ġb ones
s ki
v ature
ĠTh ought
r ise
AC H
ĠSt yle
Ġdr ums
ĠSh adow
ĠG eneration
com put
Ġev ac
ĠNever theless
ĠReg ulation
Ġsus cept
b ast
ol an
ĠAm sterdam
Ġdistinct ive
Ġactiv ated
Ġport al
Ġdef icit
UT H
p aper
Ġachieve ments
.... ..
orient ed
Ġm asks
he astern
Ġdis hes
Ġpack aging
Ġextra ction
Ġmod ification
ĠCl aire
ch annel
Ġpros pective
ĠRe form
Ġapproach ing
Ġe q
Å ¡
Ġsl a
Ġnot ably
Ġvibr ant
F ire
Ġsec urities
Ġcor related
Ġreson ance
Ġle verage
th lete
L uc
ĠR uth
IS S
c oll
in ces
V ict
script style
ĠN A
ET H
ere k
Ġcle ared
Ġr het
ĠNorm an
ĠS yn
Ġdiff usion
Ġb ol
Ġbeaut ifully
ibli ography
** *
] $.
ĠE mm
Ġ( (
F E
Ġim prison
AT A
Ġhor rible
ĠHit ler
Ġtravel ed
Ġsubsc rib
ĠBr andon
Ġmod er
Ġass ists
ĠBeaut y
Ġharm on
Ġval ued
Child ren
F inal
ĠMar x
C I
ke eper
C ard
19 43
Ġplural ity
Ġcomprom ise
ĠL ives
Ġpar ish
Ġarch ive
ï» ¿
ron ics
c ul
p rivate
19 49
Ġneur ons
P ass
Ġport rait
ĠSte in
Ġg aining
ĠEag les
T w
ĠN S
H en
ĠMc Donald
boy s
ers et
Ġj er
Ġatmosp heric
Ġcompl ain
J ose
ĠU g
2 12
Ġart ifact
ĠAnalyt ics
ĠT u
Ġinvent ory
L ittle
Ġthick ness
Ġex ports
Ġbet ray
ĠMus ical
ĠAnn iversary
ili ary
Ġcor ners
Ġk g
W O
Per haps
Ġre ass
Ġreason ing
n amed
re ne
Ġle mma
Ġback up
supp ort
multi row
ĠGl asgow
ĠMo z
t i
ĠAlex and
ĠInd igenous
Ġdiscl osed
Ġbes ide
N T
Ġtradem ark
Ġintegr ate
Ġscr ut
ac cept
Ġloc als
d og
S ever
ĠN ar
Ġclar ity
Ġphil osoph
Ġm aker
Ġtraject ory
Ġcelebr ates
itro gen
om p
Ġconf idential
ĠVol unte
Ġconstit ute
ĠB achelor
| }
ill ery
ab ases
ab ul
Ġarchitect ural
ia o
Ġcomp osite
ĠO w
by e
ub a
Ġarriv ing
d eb
back ground
Stud ent
ĠOver all
s n
ĠK ash
Ġspecial ized
im on
ĠRet ail
e lection
Ġboy friend
Ġret ained
ro e
ne ys
R a
ach i
Ġsp are
ĠR ice
uc le
ĠHug hes
27 0
Ġpurs uit
ar ound
long rightarrow
Christ ian
C V
ens ation
ĠH ait
Ġmed ieval
Ġhor r
Ġca ution
Ġcomm ander
umb led
op a
ĠG B
Ġdr one
Ġpath ways
ĠManag ing
Ġvis itor
ĠStan ford
Ġaw kward
ĠReturn s
ĠEag le
[ -
Y et
ĠJeff rey
Ġreal m
Ġearthqu ake
Ġfro zen
ĠS or
Ġsp otted
ĠESP N
Ġun con
B log
Ġkn ife
13 7
\ }$.
Ġen act
Ġp ending
13 1
ĠB ud
Ġtravel s
18 00
ĠEd die
ĠToy ota
ĠA x
Ġgover ning
) </
ĠTre asury
Ġutil ized
cl ick
ĠPartners hip
Ġrespond ing
ur ring
ĠC re
ĠInt roduction
9 78
H as
ounc ill
Ġmer ger
ĠT ru
ĠLar ge
13 8
Ġb ust
Ġg aps
ĠUnc ategorized
spec ial
b ach
d ynam
ĠElect ronic
ĠFl ore
requ est
h n
roll ment
ĠVenezuel a
Ġinvestig ators
16 5
E s
Ġand roid
Ġgener ates
rel ation
$ _{
: =
Ġmanif old
ĠGet ty
Ġm ur
C ould
um atic
orks hire
ĠTer rit
Ġit eration
ĠS eg
ĠL amb
Ġco in
ĠG and
s pring
ĠH ERE
ĠCh ase
Ġtop ological
S unday
g overnment
EN CE
L atest
Ġindic ator
ĠBrazil ian
ĠCl are
Ġterror ists
Ġgu ides
ia z
ĠTh under
Ġcre ep
u cl
Ġcreat ure
Ġsl ip
B er
set t
ĠC ool
ĠRes ort
ĠT ab
Spe aking
K A
th s
âĢ ³
Ġincor porate
ĠUs ers
Ġcar riers
in is
ir s
F re
lyn n
Ġcanon ical
Ġsla very
P ac
rain ian
Ġund ers
IC S
Ġdepos it
Ġquant itative
Ġconfirm ation
Ġadd iction
ĠBut ler
X i
ĠOrth odox
Ġcast le
W C
pro perty
ĠC ensus
Ġthe at
Ġtri o
Ġpubl ishers
Ġad op
OC K
Ġgen ius
Ġanaly sts
M em
field s
Ch ange
ĠW inn
rict ion
P rivate
Ġplay off
ĠGl en
ĠJ ar
Ġquiet ly
ian e
Ġmag azines
Ġpolit ically
od ic
ĠT ickets
ĠðŁĻ Ĥ
ĠPresident ial
g om
art icles
ĠEn c
c ence
ĠRepresent atives
> (
Ġun necessary
ĠLi u
Ġhaz ard
ĠU T
val id
ĠAnn ounces
Ġh ills
er als
appropri ate
ĠGr an
ĠAct ive
ĠHol mes
Å į
Ġconsider ably
}} )
Pro of
ĠPhot ography
Ġf ighters
ĠAd ult
ĠMount ains
it ud
Ġrecruit ment
,\ \
anc el
Ġorgan ised
Th ursday
Ġsuper b
Am ong
ĠU ntil
Ġwond ered
ĠRele ases
Ġd oses
op edia
Ġenjoy s
ry ption
et ed
Ġc ord
Ġless er
F oot
ĠColomb ia
Ġblock chain
am ation
Ġ\ ,\
Ġtob acco
ĠD rag
Ġrad ial
Ġf right
Ġg ates
OM E
is ers
Ag ain
C AR
min ster
ĠNet works
Ġbeat en
ĠâĢ º
ig ue
ĠS outheast
EN TS
Ġst ays
Ġblock ing
Ġspir its
d ig
ĠB order
Ñ Į
uls ion
Ã ł
Ġwood s
Ġgame play
Ġb out
UR L
ĠC ategories
Ġst ones
rect ed
Ġte ens
Ġdemand ed
Ġenc oding
Ġdipl om
omb ie
ĠEv il
Ġass ured
ĠB A
ĠP ink
ĠMot ion
ĠImm igration
Ġout rage
ogen esis
Ġsc ary
h arm
ĠM ann
Ġimpro ves
he nd
Ġsu pers
Ġalign ment
Ġphot on
ĠG aza
Ġdesk top
Ġf lesh
Ġn est
Ġcommission ed
Ġpred ec
C ustom
ĠCh an
The ir
ipp er
ĠS hip
Ġbl ues
Ġathlet ic
im ated
ĠM iles
Ġover look
ĠEm ployment
Ġce iling
P ER
}} }}
v et
Ġpros per
ific ant
it ic
ĠB ald
ĠChem istry
qu in
2 15
but ton
][ ]{
Ġ" ",
Ġb rick
Ġe ighth
Ġbe aches
ct uary
Ġconst ants
Ġrel at
}\ ,\
ĠD aw
sl ash
e a
ys et
Ġreg ret
Ġcor poration
gr ades
ur ate
ĠPop ular
Ġrel uct
Ġadminist ered
ĠPr adesh
Ġbit ter
ĠIns pect
Ġn utrition
Pl us
Ġple asant
ĠAn a
de ep
ĠGl enn
Ġaut onomous
N OT
Ġt ales
ĠB ot
Ġk ills
Ġphys icians
V ersion
ĠG raph
app er
Ġimp ose
Ġlist ened
ĠT D
Ġstrong est
RE AD
ĠE aster
Ġprov ing
ĠCh ampion
Ġload ing
Ġm elt
ab i
ud ed
Ġsupp liers
Ġfluct uations
Ġfig ured
ai ro
ĠC AN
te in
m ode
Ġthe ft
Ġp ixels
Ġafter wards
ĠN ATO
F un
Ġind ices
oll o
ful ness
br as
Ġb ully
c ies
h ma
ra red
um my
Ġoff shore
6 50
E ffect
H ence
20 5
CO M
Ġthe sis
ĠSp encer
Ï Ģ
15 00
Ġspec im
IF A
ĠZ ero
br ace
ĠY emen
Ġlast ing
fig ures
Ġmax imal
Int eg
Ġqu art
yl on
. (
Ġc ake
Ġrep ublic
p owered
ĠUS B
ol esc
if ference
l oss
Ġdevast ating
l at
oy s
Ġpres cription
ĠG PS
Ġaest hetic
pl ug
ific ent
Ġdemon stration
ios ity
ok a
Ġcivil ian
}) }
ĠMarc us
el ia
d ocument
Ġtra p
Ġn aked
ur st
Ġver ified
Ġdefend ant
Ġfl ed
M onday
is ible
m om
ĠT ampa
ĠMet ropolitan
Ġfirm ly
ĠGh ana
Ġw and
ĠPre view
Austral ia
ok o
r isk
Ġp anc
any on
ast ics
ĠE S
ĠProject s
ĠS ox
f iles
Ġb ump
Ġal pha
phan ie
h ad
bet ween
uck land
P ay
ĠVictor ian
Ġp ec
ĠT rou
p ay
ĠF ROM
ĠEr n
ill ary
Ġcl ause
op ard
C ore
xim ity
w right
Ġsp ite
Ġt anks
ph ase
ĠBrook s
Ġhead lines
ĠP ret
Ġrel ies
Ġanch or
Ġnav igate
Ġabs urd
Ġsh ifting
y our
Ġrel atives
duct or
Sub scribe
erm ined
ok u
Ġsucceed ed
an ium
Ġen comp
at z
ov o
ĠJul ian
Ġin ch
Ġcancell ed
ĠHe aven
ĠOcc up
ĠE ug
Y S
he res
Ġassist ed
Ġcycl ing
ĠF ocus
Ġgen us
ĠW ing
V R
m und
ag i
N one
Ġun ited
Ġout lined
ĠApplic ations
ĠL ect
lear ning
x ml
ig hed
oca ust
Ġreg ulated
C ome
Ġmar ry
zy me
Ġcab inet
K im
Ġun ions
Ġopp osing
ig s
M ic
ĠC ad
s eries
ĠM atter
ĠSw ift
ĠD ir
leg al
T alk
Ġanth rop
Ġdisc ontin
Ġa viation
Ġ' '
r ant
am as
Ġsuggest ion
ĠColl abor
Ġw ard
Ġlo vers
Ġtwe ets
Ġn od
Ind ian
Ġunder way
ĠRe b
ih ad
ĠS ierra
Ġp ale
Ġdis par
Ġstruct ured
Ġdr ift
Ġrecon struct
p ic
ĠAlf red
pro du
Ġenjoy able
B s
ĠCh uck
Ġob esity
ocy tes
ator ies
Ï Ĥ
ĠC raw
F lor
names pace
ĠF unction
Ġremain der
\ ;
Ġgu ards
$ {
Ġsport ing
J ac
S che
Ġexhib its
Ġhil arious
r aska
ĠA CC
ĠQu ick
Ġc ricket
Ġge ometric
ĠK on
Ġvari eties
an ic
Style ID
Ġneighborhood s
app end
g roups
Ġsc ared
US E
] $,
Ġfif ty
ĠAdvert ising
ĠClar ke
ĠJul ie
Ph ys
W alk
Ġtransl ate
Ġmid field
ĠSoc cer
ĠTown ship
i otic
k l
Ġmiss ile
Ġille g
I ran
ON G
p ired
Ġr ou
Res ource
ancell or
qu ire
ĠD atabase
Ġpurch asing
Ġde grad
tikz picture
Ġfac ial
Ġavoid ed
Ġconv iction
Ġphenomen a
ga e
e very
Ġtrans itions
Ġelectron ics
ĠR ange
Ġminim ize
O s
Ġresp iratory
T arget
Ġh alt
C apt
ĠC ategory
ĠE sc
Ġst ochastic
20 8
sc ope
Ġemp ire
M ill
ĠC emetery
Ġplan ets
erg us
Ġo ct
ĠTri p
ĠOper ation
Ġthro at
Ġmain tains
ffic iency
Ġd umb
14 8
ac ious
ĠB ever
ĠInd ividual
P ing
Ġshould ers
ĠConc ert
Ġt ender
Ġs q
Americ a
) }_
Ġpr ay
ĠMu hammad
Ġfest ivals
F und
}} .
Ġutil ize
ht m
}} }\
ĠGu est
M ont
ĠL ik
ĠM ull
ĠBro s
G erman
Ġperform ers
Ġprem ises
ĠR ole
Ġsim ulated
ĠT E
Ġsp ont
Ġex terior
ias m
N ick
Ġhab its
ĠLl oyd
Ġapprec iation
ID E
Ġbe ats
ĠBrad ley
Ġacc idents
oth s
ĠNe igh
Ġshow er
Ñģ ÑĤ
M arc
gom ery
H a
ĠPost ed
Ġd ashed
ace y
ĠGarc ia
Ġjud icial
b ane
ĠProt est
be cca
ĠMy stery
Ġsimilar ity
ĠB omb
Ġam en
Ġdies el
ĠGu ild
D L
ch anged
em on
Ġun comfort
Ġcomm ands
ĠBe hind
ĠFour th
Ġin comp
ĠKnow ledge
Ġa ux
ear chers
Ġport ions
De ath
Ġweight ed
in ians
ĠE PA
g ary
Ġunve iled
Ġtable ts
H ard
Ġc ute
Ġc ure
Ġpurch ases
Ġd airy
Ġsub group
Ġtra its
O pt
ĠS oci
empt yset
Ġfle w
P arent
Ġcount ed
RE F
ĠHur ricane
q q
Ġconsult ing
Ġstrength s
ĠSud an
ĠR alph
ĠCl ose
Ġpil ots
roph ic
ĠHar bor
Sum mary
ĠLa unch
Ġprec ip
Ġrespond ents
Ġtoler ance
ĠW ag
Cl oud
ĠT iger
os ity
Ġdis advant
Ġint ensive
ivid ually
Ġdis abilities
Rec ord
Not es
Ġflo at
ĠV lad
ĠI celand
ĠB asketball
Ab stract
Ġac ids
f unc
Ġas ymm
Ġdon ors
) )\
ĠLaw yers
Ġin fr
ĠH onda
Ġl ingu
ĠBry an
Ġqu eries
resp onse
Char les
Ġvari ability
ung le
ick er
D om
Ã ´
Ġcent ered
Ġv intage
IS A
Ġcompr ised
ft en
Be ing
Ġvalid ity
ĠL an
ĠMin i
k ov
Ġmark ers
ĠRec ent
19 36
ĠJoh ann
ĠSU V
AT CH
Ġconsider ations
ĠCol in
Ġsubsid iary
Ġwhere ver
ĠP apers
ĠRestaur ant
otts ym
re a
ĠEv olution
Ġtempor arily
Ġp iv
Ġd irt
Sc ience
ĠCom ic
ĠD ylan
Ġpract ically
ĠSec urities
Ġexcess ive
14 9
ĠPro gress
Ġbreak down
á »
quir ies
ĠEar l
S ex
Ġlim itation
Ġrun ner
ĠJ ourney
Ġeleg ant
Ġreven ge
ear ly
l ia
E ric
ing o
ut ton
Ġclick ing
Ġn u
Ġcon ferences
ocr atic
ĠQue bec
Ġnut ri
Ġfe ver
ĠTom my
Ġpharm aceutical
Ġam ended
ON D
Ġv aries
Ġquestion ed
ĠR ate
28 0
Ġart ic
13 9
Ġthr iller
Ġtrans cription
14 7
ĠSer ge
26 0
Ġdou b
ĠC e
Ġcast ing
G overnment
Ġcor rid
Ġn odd
Ġl ib
[ "
en ame
n ut
out put
Ġear ning
Ġp ipe
Ġsh ake
Ġtort ure
ĠI SS
Ġopen ly
Ġt at
w ait
Ġtrad ed
ĉ ĠĠĠ
z b
Ġlapt op
p rom
ĠR af
Ġhold er
it us
Ġare na
Ġcol ours
ĠTe aching
Ġcap ac
P rom
Ġshe er
ĠN Z
Ġdisc retion
ent ric
Ġpe aks
Ġavoid ing
Te am
Ġde vi
ob a
Ġfil ters
ĠS yl
ĠObs erv
Mart in
ĠR ah
Ġste ering
Ġcar ing
Ġselect ing
bor o
er ic
Ġche f
ĠLe o
Ġsent enced
ĠMil an
des ign
Ġs ink
ĠC ant
is ive
ang led
Ġd ive
Ġque en
R ow
hel ial
Ġchar ming
ĠW alt
Ġacc eleration
Ġall ocation
ĠRom ance
Ġbra ve
ĠSub ject
T oken
ĠColumb us
ne apolis
ĠTra iler
et itive
Ġmanufact ured
Ġarg uing
ĠL akes
g mail
al ink
Ġvulner ability
ĠF a
Ġcart oon
ĠBul gar
ĠF REE
Ġb ubble
ĠSt uart
AN CE
Ġloyal ty
p ages
v or
ĠH S
At l
Ġcrim inals
s ong
ĠF E
Ġelect oral
Ġdest inations
Ġvill ain
Ġc ens
ĠM N
Ġatt itudes
B rian
ĠR angers
ĠG ender
Ġdesign ing
14 6
ĠEm peror
ĠBenn ett
Ġins ult
, $
ĠSt ay
ĠSn ap
ĠJosh ua
j or
Ġestablish ments
Ġmod ifications
Ġn it
ject ion
âĢ¦ ..
ĠÃ ł
Ġdirect ory
Stud ents
ek ing
ibl ical
g eneration
i ota
ĠBor is
ĠZ ion
Ġse al
ua wei
Ġv o
pan ic
ĠMor r
Ġcat ast
ĠH arm
Ġrem inder
ĠGo ing
ĠRe id
ĠO H
Ġcontin ent
Ġantib ody
ĠP av
ĠK in
ĠRe becca
Ġexpon ential
do ors
Ġvolunt ary
and o
Ġposition ed
Ġpro position
ĠRepresent ative
Ġfr ank
ĠGr ade
Ġcr ude
k el
ble ms
ĠTib et
Ġ Å
ĠOtt awa
Ġmo ist
C at
xt on
param eter
ĠEffect s
D iv
ev in
Sever al
Ġb izarre
ĠD awn
Ġchar m
Ġfund ament
itt en
C a
f olk
ĠðŁ ĺ
ĠB ag
ĠNorth west
Ġtra ct
S n
ah an
Ġbar g
b p
ĠW ays
ett i
ĠC er
ĠT ournament
h um
Ġadjust ment
ĠEnt reprene
Ġro ok
ĠPro blem
Î ²
ari um
Ġco herent
Ġexerc ises
Ġshe ets
}) ^
ĠDel aware
Ġsp y
ĠZ imbabwe
ER R
im eter
Ġu ph
ros so
Ġj ournals
ĠPar am
< !--
ĠWar riors
Ġaver aged
man uel
ĠR oche
Ġl oses
}} _{\
Ġur ge
ĠB our
ĠFr ances
ph al
Ġu gly
Ġi Tunes
i eth
g reat
av ier
Ġcard iac
à¤ ¿
column width
Ġd ash
Ġfor b
Ġpress ing
Un fortunately
C redit
V ery
Ġm asc
19 15
Ġres ume
... ,
Ġeval uating
ĠGab riel
te chn
Ġin ning
if eration
c ology
Ġpost erior
ĠHig gs
atic an
Ġfle e
ĠCitiz ens
Ġunder go
ag ain
Ġtal ents
Commun ity
Ġfunction ing
ĠD S
Ġimm ers
ĠNav al
Ġto y
ĠS K
ed uc
c ue
Ġrecon c
ĠTig ers
Comp onent
Ġch ore
em p
Ġte aches
s d
Ġback s
ĠD od
Ġprevent ed
, ,
Ġunder m
ĠBr id
ĠCurrent ly
Ġn ost
Ġref und
ĠC raft
ram ento
ĠLaure n
Ġhelic opter
ĠC incinnati
Ġ$ ,
Ġcharacter ization
ĠPortug uese
ĠLeban on
Ġimplic it
ĠY orkshire
Ġcontract ors
b usiness
Ġun e
P ut
Ġsupport ive
ĠReg ulations
Ġrandom ized
Ġcur vature
B F
Ġfavor ites
L ee
p it
Ġbackground s
b ai
ĠW R
Ġ á
C lear
ro ot
ĠG ets
m ount
ĠW elsh
Ġwa ited
Ġind oor
Ġform ats
Ġqu ark
ĠE ight
16 8
h art
19 33
T ree
Ġparticip ant
g as
ĠB ach
Ġrele vance
ĠFact s
ac a
up date
Inter view
Ġtext ure
Ġv ic
T uesday
ĠU ber
Ġsacr ific
Ġriv als
am pton
ĠSur gery
ĠD uc
ĠBas ic
Ġconnect s
Ġl over
Ch icago
Ġrefere ndum
C ur
ug hed
ĠF ellow
ard i
ĠCh art
oy le
Ġm igrants
ĠM ong
bold math
Ġpurs uing
Ġdiv isions
eng ine
Ġhistor ically
Ġcontinu ity
in ology
ortun ate
ĠHung ary
L ight
n as
Ġcous in
O ptions
W R
Ġst ance
Com put
en es
ĠMc L
19 38
Ġbo olean
t x
ĠPo etry
Ġv inyl
Ġnormal ized
ĠSpec ifically
avor ite
}} ^{\
Ġn m
k ip
Ġident ities
Ġsear ches
av in
Ġsa fer
Ġref res
ĠTH IS
Sh ould
Ġclimb ing
ol ation
Ġra b
Ġsound track
, {\
th ritis
Ġev olving
e ur
h im
ĠP rest
cc i
Can adian
ĠSuper man
ĠNep al
re z
S ing
ve ct
al og
20 3
ro b
ry s
ĠInstit ution
Ġre wards
b efore
Ġmon ument
ĠCry stal
Ġcomp iled
Ġsu ited
inc ome
Ġencoura ges
Ġd ragon
Ġinhabit ants
St op
ĠS ak
ĠPro ceed
Ġurg ent
H H
Ġca f
Ġcrit ically
Ġfort un
ĠG az
ark er
ange red
Ġthr illed
ĠW el
Ġun re
ict ing
Ġun cle
Ġst raw
Ġgr ades
Ġinst inct
ĠWall ace
L oad
ĠHeb rew
G I
duc ing
Ġstra ins
F ood
ine z
Ġdiv ine
Ġasympt otic
Ġev olve
Ġgrand father
Ġsk etch
Ġspec ify
Ġnurs es
Ġb iod
EN S
b order
Ġover head
mod els
Ġgrand mother
ĠArab ic
ĠĠĠĠĠĠĠĠĠĠĠĠĠĠĠĠ ĠĠĠĠĠ
Ġbro ker
cl oud
hol m
Ġimag ery
ĠBit coin
Ġdis charge
Ġdeg ener
) ).
Ġnot ification
Ġcorrel ations
Ġtiss ues
ic ion
ĠP owell
Further more
Î ¼
V E
Ġintrig uing
le an
;\ ;\
ĠRe ference
ĠE b
Ġj okes
Ġconcert s
) [
Ġsu its
Ġtend ency
Ã© t
Ġal igned
Ġv itro
ĠT aking
ĠS ullivan
2 24
Ġgrav itational
T ax
Ġtradition ally
ĠV ideos
ĠA A
Ġb ite
ĠO z
pos ium
Ġtouch ing
Ġconv inc
m inded
ĠT ags
ke ep
Ġprompt ed
Ġvit amin
il ogy
s ocial
ĠProf ile
ĠS aw
Ġdecre asing
Ġatt ractions
Ġpresc ribed
Ġab oard
c p
Ġsl ower
Fact ory
Ġex empt
ĠC elt
ĠG DP
V M
Ġt ags
ĠM Ps
ĠG E
Ġg reet
Ġundert aken
w y
ĠExcell ence
Ġsynt hes
Ġimag ined
Ġpseud o
z heimer
al in
av ailable
form at
ĠD j
Ġla ughed
Whe ther
lect ic
! ]
Ġ( {\
Ġmuseum s
ock ets
et own
Ġload s
Ġdevelop s
ĠMot ors
f re
ph abet
bour g
Ġelim inated
un al
Rem ember
ĠYan kees
ĠHT ML
ĠD ame
red uc
5 50
Ġrend ered
hel p
Ġpow der
pl ess
N ull
ĠJes se
Ġaggreg ate
ĠReg iment
board s
ak y
14 3
G erm
ĠC anyon
ĠSche dule
Ġstory telling
se min
19 37
ĠShan ghai
U ND
ĠCh ad
ric ia
Ġindic ators
ĠBapt ist
ic ons
ĠPer fect
fil m
Ġpre jud
pr im
ĠH ours
ig ating
Ġpress ed
Ġpharm ac
re ational
ĠM az
ell ular
Ðµ Ð½
Ġp el
Ġsent iment
qu et
Ġen rolled
ĠHe at
stit ute
umb ling
Ġd ot
ĠPalest ine
Ġelect rons
ribut es
ĠAnt ar
ĠGro ve
Ġlaugh ing
Ġsm iled
B uffer
s at
ĠLu is
Ġind ie
aint ed
mid t
ĠH our
n ai
Ġin ference
ot ics
ĠP ok
ĠL uck
in ement
ĠG ang
ochem ical
ĠI BM
m usic
G H
Ġst ab
Ġspons or
Ġkid ney
Lem ma
Ġdraw ings
ar as
ĠA way
Ġout look
W il
ĠB ert
Ġgar age
2 11
ĠVi enna
Ġsound ed
}{ *
Ġpers istent
Ġcitizens hip
×ķ ×
Ġmark er
path y
ĠAssoci ates
Ġseason al
v ity
al gebra
ĠW ords
ad ers
read s
Wed nesday
Î »
R ussia
S uch
Ġteen age
Ġappeal ing
Ġalt ogether
/ (
ĠG C
Ġfaith ful
Ġfund raising
ĠR ams
ann ers
Ġcapt ures
count ry
edd ings
r ator
ud er
iss ue
ĠB ak
Ġmin isters
ĠM ix
Ġhy d
Ġgen ome
he y
... )
Ġt et
Sm all
Ch ief
Ġcivil ians
Ġdeterm in
Ġsub section
oc ese
ĠCent ers
ĠAl pha
ĠL ith
ĠMark ets
ob j
P rop
Ġb eds
ĠN I
M id
Ġhe sit
stand ard
Ġst iff
Ġsuper hero
ĉĉĉĉ ĉĉĉĉ
Ġf ond
Ġfin anc
ĠTop ics
19 35
We bsite
ĠApp lied
ail ure
ĠPr ide
ĠAn sw
Ġ[ ...]
ĠAr senal
Ġconcept ual
Ġexpress ing
ĠBroad cast
Ġfinal e
ĠNurs ing
br and
Ġfail ures
Ġharm ful
script size
Ġjew el
Ġblog s
Ġimpl ied
s rc
Ġappro ve
tain ing
ĠF ernand
ĠLuc y
ĠP rec
b ial
Ġco ins
ĠClin ic
] {\
Ġrail road
i ens
ĠM ills
Ġpro ximity
ĠK ap
Ø§ Ø
ord inate
ĠDisc ussion
cure ment
own ers
ope z
Ġbutt ons
mon ary
F ort
ĠN H
Ġoccur rence
Ġin coming
un ing
Ġlearn s
ĠDemocr acy
Ġjump ing
L y
are a
Ġdelet ed
ĠAdd ress
ĠM AN
Ġfor ty
}) =
Ġpolar ization
W W
ĠS ect
Ġam big
Ġan omal
Ġqual ifying
Ġpost p
ĠC AR
Ġind ividually
Ġwithdraw al
ĠB ent
Ġcontribut es
Ġdecl are
Ġcrowd s
Ġch ips
ĠEv idence
N L
m ile
Ġâ ĪĴ
Fr ance
R en
per ature
Ġprem ier
Ġsh ocking
Ġoverl ap
Ġflu ores
ven ile
Ġcatal ogue
Ġbatter ies
ĠFellows hip
Ġin k
Ġbow l
t frac
Ġflood ing
Ġo ste
gr id
\! \
Ġexplo it
Ad am
19 19
ĠPre p
Ġeth n
e fficient
15 7
Educ ation
ew ater
Ġtim eline
Ġtrans plant
R ussian
ĠCal if
Ġill ustration
ĠHom es
eff ect
ĠFil ip
itud inal
Ġshall ow
ĠLyn ch
ĠLet ters
pa id
Ġf el
ĠT ool
ĠAb use
Ġcoh ort
Ġpractition ers
Ġrec alled
15 8
ĠReyn olds
Ġc ache
Ġshare holders
Ġpresent ations
Ġimpact ed
ĠProdu ctions
ĠU t
5 000
ĠWorks hop
Ġor che
19 34
D H
Pro gram
Ġdynam ical
Ġp H
pt r
Ġhe d
ĠCy cl
Ġplay offs
Ġadapt ive
Ġv ine
Ġdec iding
ĠW HO
am az
Ġsc attered
Ġrevolution ary
ĠM M
33 3
ĠEth ics
ĠHop kins
ĠD I
ĠN as
ĠHe ath
}$ }
G reg
18 5
Ġveget ables
ĠH aven
ĠBa iley
Ġcost ume
ĠPre vious
cl ine
Att ribute
Ġsuspect s
ĠR ise
M obile
ĠT at
ĠS Y
\ |\
Ġsubstit ute
Ġs ulf
ar ial
ign ment
p al
20 4
Ġconf irms
ĠR ugby
ov ak
Ġon set
ĠW end
H ost
m icro
z el
Ar g
Ġpen alties
14 1
ĠRe ce
ĠPier re
ar us
Ġbill ions
Ġsum m
pos itive
ĠCP U
ĠTrib une
or ig
Ġpl ed
ĠGet ting
Ġsupposed ly
b d
19 10
Ġsoc io
Ep isode
G G
com merce
Ġenthus iasm
ĠCert ificate
ge bras
ĠG ates
ook s
Ġg rip
ĠNews letter
ĠG ift
Ġbr idges
Ġext ensively
Gr and
l ated
ĠAm anda
Ġconcentr ated
& #
in ers
ĠK os
Ġtransf ers
urch ase
Def ault
ure auc
own er
ĠSe bast
ĠK erry
ĠTe a
ĠW elcome
ĠWeek end
ort ium
oura ge
Ġprohib ited
Ġsex ually
Ġcivil ization
M ajor
ĠSym phony
ĠLib ya
c ock
Ġsu cc
ade qu
ĠM ine
ĠL oss
Ġext ensions
Ġapplic ants
Ġneg lect
ĠLaw yer
Ġcontract or
is ot
c lear
st ead
15 2
ĠJ in
Ġsec ular
est e
ĠSu ff
k t
lu ence
Ġr ides
Ġfoot print
Ġb ell
rodu ced
n l
ĠTh u
Ġwell s
^{ *
% ).
19 29
ĠTra ffic
ĠA W
ĠM ari
Ġprov incial
N or
Ġb g
15 4
ĠIS IS
read ing
Hel p
15 6
ĠFred erick
Ġb ugs
Ġsle e
Ġpur ple
us a
ĠP am
ER N
IC T
ixt ures
Ġrecycl ing
Ġsl aves
sc ription
b ia
Ġne at
as se
oc o
Ġuncomfort able
Ġutter ly
Ġm im
Rec ent
L im
Ġbuy er
& =\
Ġcompos itions
K en
Ġc iting
Ġanten na
Ġc oding
p ush
Ġpar ade
Ġc ops
14 2
Ġter rain
Ġoutput s
ĠD rew
ĠPatri ots
oc c
Ġwe aken
Ġident ifies
ĠBer g
ĠCat hedral
Ġgrad uates
ĠB ears
uis ine
Ġfeas ible
yn asty
ĠMedic are
f ar
}_{ -
Ġp enn
ĠD iet
Ġrub ber
ĠDeg ree
ĠL odge
ov ich
whe el
Ġca res
u u
Inst ead
Ġbehavior al
Ġfar mer
K K
Ġwith d
Ġspot light
fin ished
gr at
c ano
Cent ral
ĠT i
Ġaccount ability
Ġded ication
f eld
ĠMed al
ĠH O
ĠR ush
sub sec
Ping back
alth ough
Ġt witter
Add itional
S orry
cond ition
AM P
en za
Ġbott les
ĠEll en
Ġf ictional
K ar
W rite
Ġinv ented
Ġstat istically
Ġpro secution
Ġat om
ribut ed
F s
ĠC ricket
ĠWrit ers
m atch
Ġdon or
W ould
Ġs add
Ġs el
out ing
Ġmand ate
+ (
Ġfl ip
Prof essor
Ġdr ill
CO L
esc ope
Ġfif teen
v t
Ġsystem ic
Ġden ial
ber ger
ĠL ov
Ġen rich
Ġsubsc ribe
Ġimp air
v able
Ġconsist ed
r ina
ĠH ack
or p
Ind eed
Ġblood y
I ts
ĠAr med
Ġdecl aration
ll i
Ġinf ant
M ah
resp ons
O bs
s g
Ġsevere ly
Ġcond itional
ĠUs ed
ibl ings
Ġstat s
ĠFem ale
ĠInd ependence
IG H
En vironment
ĠW iki
B u
Ġc ement
ĠNew castle
Ġsurv iving
Ġpuzz le
ind ependent
ĠGreg ory
Ġrenew ed
d ifferent
Ġsell s
Ġ{ @
ce ans
ĠJo an
} ~
clip se
al one
Ġprot otype
ĠNov el
ĠJo el
Ġperman ently
on er
osex ual
' ).
ĠTe acher
Ġunderstand s
ĠM t
ĠR aw
Ġnecess ity
Ġspokes person
Ġuniform ly
Ġsid ew
og onal
big r
ĠAmb assador
pro gram
Ġassemb led
Ġac claimed
ĠPost s
ĠF resh
im an
Ġapp eals
Ġbo om
Ġd war
worth y
Ġver ification
Ġtun ed
ty pes
Ġmon sters
Ġmon op
in fl
ĠComm ander
ĠStat us
Ġp ist
Ġlink ing
ĠOther wise
________ ________
ĠUk rainian
oc used
ĠTe en
Ġview er
k ens
V ir
ĠK as
Ġdis g
ĠRom ney
ĠIsa ac
ch anging
Ġpromot es
ur ally
Ġr ises
st own
ĠAsh ley
Ġdiscl ose
ĠDev il
ĠE sp
ors che
50 1
ĠSustain able
! \
op p
Ġc rap
pat ient
ie ces
ele te
Ġmut ations
ĠN y
ĠDi agn
Û Į
ĠBr ady
Ġfu els
Ġglass es
ĠP it
in vest
t ry
Ġcompar isons
ergus on
ĠQ atar
Ġevolution ary
Ġgluc ose
ich i
Ġqu arters
me an
Ġkn ocked
is se
Ġcry ing
Form at
Ġb rak
ĠCl iff
Ġcomp ression
Ġexhib ited
ĠE ur
ĠCh ang
ĠEx ample
emph is
gu ard
ĠInj ury
Ġch ol
Ġdat abases
20 6
ĠIndust ries
Ġgrab bed
um bers
com ment
inos ity
2 16
E conom
u itive
Ġacc ent
Ġequival ence
Ġab ol
zer bai
ĠA ri
oc ide
yp ical
Ġtrig gered
Ġdisput es
es pecially
ou x
Ġrec ipe
Ġsusp icious
Ġmob il
ĠProt ocol
ĠEll is
ul se
par allel
Ġp unk
ĠSh ore
ĠM ig
15 1
ĠIS BN
Ġescap ed
ĠD iana
Ġdef ects
Ġw ines
Ġcalc ium
Ġuniqu ely
requ ency
is ch
ol ith
T ask
ĠE A
K evin
ĠK er
Ġtri umph
ar ith
ent e
ĠAd m
W orks
t urn
Ġunder graduate
Ġa fore
Ġpro long
Ġsu prem
ĠDes ert
Ġgen res
18 8
c ience
vi ol
ĠPer u
Ġhead line
i per
S eries
Ġnation ally
Ġir r
Ġteen ager
ill es
M ot
l ower
ĠNeb raska
Ġd rought
ĠT ol
ĠH annah
est inal
ĠÃ Ĺ
N ET
D ear
ĠA ra
ĠAng els
Ġc ant
Ġneighbour hood
} );
Ġmid st
Ġtr ash
ĠTam il
j et
ĠA SS
av our
Tra vel
ĠLe eds
Ġide ology
ĠRel ated
Ġrelax ed
c ert
ĠLyn n
Ġpar as
ĠPal mer
Ġr ugby
Ġjust ified
Ġland mark
ar u
aw i
ĠA uckland
asc ript
Ġhistor ian
ĠForm ula
ploy ed
ij i
str ument
rec ord
Ġdisc ourse
ĠId aho
n ick
Ġdist ribute
$ {\
ours es
ĠW als
Ġstim ulation
Ġnob le
big l
Ġmac ro
Ġpup ils
Ġyoung est
Ġpat rol
ĠHer oes
Ġinc ub
ĠPar ish
C ost
c od
are l
B orn
Ġtra fficking
Ġm ant
Ġlength s
ĠAngel a
Ġang el
ĠZ ach
Ġc ater
ĠAtt ack
ou bt
h in
leg raph
ĠRe comm
he ars
ĠHe y
Â ´
B ad
Ġprior it
g ra
N I
Ġdeb ates
ï¿½ ï¿½
Ġcompet itions
Ġst ressed
ic i
Ġarg u
Ġswit ched
ob ia
Ġ{ {
ane y
ĠSh in
ops is
Ġj am
Ġspec ification
Ġpurs uant
ĠP AR
text color
Ġg rief
a ft
ĠChe f
Ġintent ions
\ }$,
ĠSc ore
Ġadvis ory
ĠMc Car
Ġconsum ed
Ġspons ors
c ially
Ġconf using
e ous
Ġp ile
Ġsex y
W ood
Ġdet ention
Ġm ins
Ġceleb rities
pr ice
Ġout let
Ġpass ive
W N
Ġsl ice
Ġhead er
Ġtum ors
Ġexp ans
ri pp
Ġinter ven
Ġspec ulation
ĠV o
Ã ª
\ }\
in ters
p ark
ĠJ et
ĠBe havior
Ġstre ak
ab ove
let te
ĠLead ers
CO VID
ĠG oth
ĠK ick
at ility
Rad io
ĠN om
Ġdem ographic
Ġbom bs
ĠAh med
h aul
ĠNiger ian
t im
is le
est ock
Ġun to
ĠSum mary
ĠVerm ont
Ġf ence
Ġhuman itarian
itz er
Ġch ase
ĠSy nd
Ġdeliber ately
B ank
Pro cess
ĠK end
Ġmet als
Ġexcept ions
Ġpres ervation
Ġinflamm ation
y t
Ġenter prises
imp se
Ġscr atch
ĠF o
19 2
H op
Ġbook ing
Ġver se
Ġmus cles
Ġment ions
Ġantib odies
Ġg i
Ġindu ce
B uy
ĠCal c
vel t
ĠN ine
Ġcar cin
ĠV ic
Ġcoord ination
z ym
ne um
Ġvis ibility
ine es
Back ground
Ġtweet ed
ĠSw an
ĠA RE
Ġguarant ees
Ġt ribe
Ġauthent ication
Ġvis a
ĠCo ffee
ĠTh ing
Ġt ire
ĠM IT
ro v
Ġ{ $\
ĠDi pl
im ation
Ġins u
Ġins isted
ĠL ay
Ġsubject ed
Ġbron ze
ĠK or
Ġfru its
H u
ard less
)-- (
ĠO wen
Ġfil med
ĠContin ue
ord ered
Ġhe ated
l ings
Ġque ue
ĠHe avy
ĠSaf e
Ġtechn ically
ĠV P
Ġall ocated
Ġpres idency
im ag
Ġdispers ion
ĠP ref
Ġimpl ant
ĠCan on
Ġd os
ie u
Ġlic ensing
ĠS ites
ĠTh rones
Ġto ys
ed i
Ġv ivo
ĠF ear
Ġstr anger
I mm
Ġport able
b ons
ĠS ame
Ġox ide
Ġab normal
Ġel astic
ĠC os
s end
Ġcav ity
IN S
e ach
ys on
p ublished
Ġeconom ies
ĠFle et
ĠRe venue
S us
19 5
15 3
ĠH ear
Ġhe al
Ġint ro
ĠArn old
Ġshel f
Sen ior
ĠW on
ĠVen ice
Ġdiam ond
ĠChar ter
ment al
b its
ĠB ir
ĠCrit ical
âĤ¬ âĦ¢
Austral ian
G s
}\ |
Ġ+ =
Ġcapital ism
Ġtransform ations
ĠL il
O ption
p ine
Ġreview ing
ĠC ertain
Ġflow ing
Ġmon etary
el ong
Ġsh ook
Ġgreen house
ast ically
ĠV ers
ĠRes olution
With out
ipe g
Ġrecip ients
ĠT ools
ĠĠĠĠĠĠĠĠ ĠĠĠĠĊ
Ġdes irable
ĠD ow
19 32
Ġinv itation
S ta
Ġn uts
ĠMult iple
osh i
ire ment
atin um
ĠB og
Ġhung ry
row ning
Ġreflect ing
Ġstat ue
Ġm ph
ĠWalk ing
ĠMod i
Ġcrypt ocur
ed e
ĠGl obe
Ġintr insic
U V
id y
C ele
pl ings
Ġaccording ly
b is
ĠTh reat
ut able
Ġdon ate
ĠCh anges
Ġcompl iment
ook ie
cl er
B rien
Ġpresum ably
it ably
ĠPl ans
D ue
Ġfire f
ag ne
ĠG ross
Ġsculpt ure
Ġf ancy
ĠSal v
Ġforth coming
ĠLeg acy
Ġc raw
Ġto oth
//////// ////////
her ical
Ġam ino
OL D
ĠBr ussels
ĠWat ers
Pr int
L ength
ĠBre nd
atern ity
f n
w ent
Ġa ired
ac ial
Ġvirt ue
z ed
ĠCase y
in as
Ġmagn ificent
Ġl ighter
ĠĠĠĠĠĠĠĠĠĠĠĠĠĠĠĠĠĠĠĠĠĠĠĠĠĠĠĠĠĠĠĠ ĠĠĠĠĠĠĠĠĠĠĠĠĠĠĠĠĠĠĠĠĠĠĠĠĠĠĠĠĠĠĠĠ
ĠS ah
ĠLa un
H I
ĠEduc ational
Ġdiagram s
Ġg rap
Ġhop eful
am o
ĠSh ield
ĠDun can
ject ure
ĠR um
Ġr ushed
Con nell
d epend
Ġpron ounced
ĠAr s
) })
Ġtw isted
ĠM ead
ag ar
f ollow
ĠCru ise
urg ical
ĠMorr ison
ra ise
Supp ose
a que
Ġcreat ors
ĠDef inition
A Z
S ix
Ġelabor ate
ĠON E
ip es
Ġkil omet
Ġposit ively
ĠG roups
Ġcosm ic
se ctions
â ĺ
ant om
Ġwat ches
L ow
Ġnew er
Ġm ud
Ġnic ely
iox ide
Ġj acket
en berg
t v
is i
ĠPro ced
Ã ¥
Ġcomm emor
s ets
ĠTh ai
ĠSte am
reg n
Ġquestion ing
idel ity
Ġrem ed
Ġp ir
um at
Ġphil osop
R eb
Ġband width
ĠL ac
Ġpan ic
Ġm unicipality
Ġunf ortunate
Ġrecru iting
Ġro d
ĠD ementia
el ian
ĠIn tern
ĠC ases
Ġdens ities
ter ing
ĠIn ternal
ĠIn frastructure
ĠAl zheimer
Ġmid night
Ġdisturb ing
L abel
p ract
ĠB urg
Ġreal ise
d ated
s ol
ĠHy dro
Ġdys function
ĠApp eals
Ġa meric
Ġp ond
20 7
\% $
ĠA chie
add ing
d ers
y ll
Ġmarket place
Ġobst acles
r ically
ĠCar bon
the m
Ġdifferent iation
Re act
Step hen
3 80
Ġcont empl
Ke ep
Ġhat red
Ġfell ows
G N
Ġsoon er
Ġsubscrib ers
c ro
riv es
ul k
Ġsp ine
ĠBre tt
sy mm
ĠPublic ations
Ġinter pre
ĠS ara
Ġorient ed
ĠExper t
ĠKit chen
ĠM unicipal
ĠR ating
ĠT ouch
Ġsmart phones
Ġfort une
Ġdem o
ĠW ake
ĠÐ ¿
à¥ Ģ
il in
) ?
Ġflags hip
ag le
ĠGib son
3 40
Ġbe ast
Ġenc ounters
Ġn itrogen
} |\
ĠW ins
Ġalumin um
ĠZ immer
ĠDist ribution
ad ic
Ġpra ised
Ġint end
back slash
Ġsever ity
ex cept
ĠLGBT Q
Ġd ent
ĠGe V
Ġflo ors
ĠR andom
Ġassess ments
ĠIndian apolis
intend ent
d in
ĠH oney
Ġswe at
Ġlast ed
Ġsk ip
circ le
M ex
ĠLaw s
Ġargu ably
Ġapplic ant
ĠTH AT
ĠE asy
30 1
D oc
osp ace
Def inition
os ion
ĠM Y
ĠRec overy
ĠL LP
Ġstr at
Ġir rit
Ġgener ators
Ġtri angle
ĠB T
br is
A sh
Ġt ast
Ġar row
or ian
Ġgu ilt
Ġb ikes
Ġliber ty
Ġform ul
Ġunc ons
Ġtoile t
ĠM aps
ĠCon cept
ï ¬
ĠBloom berg
Ġw reck
Ġbg color
Ġw rap
ruct ive
Ġaccompany ing
Is lam
col m
us ions
ond o
Ġp ants
ib an
Â ½
Ġperturb ation
ov an
Ġloc ate
ĠBarn es
* /
at ra
ust ing
Ġdis ruption
reat ment
ĠE valuation
l ayer
ĠS ER
Ġl ig
Over all
Ġse ized
ish ops
ĠT ow
F uture
Ġinst ability
Ġfr ustration
) ^\
Ġgenu inely
iv ari
Ġis omorphism
Ġvend or
âĢĿ ?
Ġar ises
ĠAs k
ĠM ik
17 8
Every thing
Ġhas h
Ġcritic ized
div ision
Ġred shift
Ġtravel ers
Ġfilm ing
ĠRegist ration
L T
Ġsp arse
Ġmem or
Ġdepos its
ator ial
Ġplant ed
ica id
Ġl ately
Ġsubst ances
Ġour s
Ġsuccess or
ĠG ent
commun ications
ph oto
ĠTrans fer
D ays
Ġre vision
fact or
Ġafore mentioned
Ġeigen values
el o
Ġanalyt ic
Å Ĥ
al ion
ĠIS O
ĠFou rier
Ġneighbor ing
ĠTest ing
st ates
Ġillustr ations
: =\
b ard
ĠL ocation
ull ah
ote chnology
ne ath
Ġreal ised
S B
ĠP orter
Ġpot ent
Or iginal
per formance
I mp
ĠIraq i
_ .
dou ble
Ġterrit ories
Ġm ate
Ġph on
Ġo d
ĠPlay Station
ĠD ol
ĠR an
s ingle
Ġnorm s
Ġtr aces
Ġout fit
ĠMin neapolis
Ġconclud es
Î º
ĠLe af
Ġadvis or
ĠC ord
ĠInc ome
Ġmolec ule
with out
ĠHot els
ĠB P
ant o
Ġju ice
pre c
Ġk icks
ĠRe ality
Ġmark ing
Ġgrad uation
Ġcon grat
Ġt ensions
Ġbl essed
ett es
Ġp sy
Ġn inth
Ġr am
b ishop
ĠS ue
Com mon
c aster
Ġun stable
ĠKat ie
Ġfemin ist
ĠAst ron
ĠR ena
ĠC li
Ġl ag
ograph ics
Ġcul min
ĠC B
OR S
ĠA K
Ġhold ers
19 28
Ġguitar ist
h s
ĠRec ogn
m eta
sh irt
Ġancest ors
P ack
ĠFlore nce
Ġch airs
Ġmake up
Ä į
Ġsaf egu
rang ian
â ĸ
f est
it an
ch at
Ġf et
S ir
ĠN GO
ĠK i
we ets
Ġw itch
Ġc ad
Ġsw ift
Un ivers
Ġstation ary
P ORT
5 12
ĠH ip
c reat
Ġas ylum
List en
> \
Ġh ood
iss an
Ġprol iferation
ĠS ter
ĠB un
ĠDan ish
Ġnons ense
ĠArm strong
Ġten ure
ĠSol id
Ġlog istics
comp onent
ting ham
Ġtrib es
Ġl anes
Ġsuper vision
Ġg el
ĠA ub
Every one
Ġcol ored
Ġgl impse
od ia
Ġd x
ĠAct or
ĠG aming
Ġemb ark
med skip
ĠKash mir
Ġpreced ing
ure rs
Ġrelax ation
ĠV ac
Ġcontin ually
ĠG em
ĠOr acle
ev ents
Ġ" ""
Ġpre y
ĠSim ple
Ġmathemat ics
16 9
ĠSac ramento
ĠCele b
Ġtop ology
ĠMont gomery
15 9
ĠV a
riv ed
ĠA IDS
ĠH off
F riend
ĠFe ature
Ġsens ing
ĠA ur
Ġep och
inst ance
Ġa irlines
ĠAthe ns
) "
im o
om ore
Ġinnov ations
hand ed
S ometimes
Ġstim ulus
Ġl as
ĠT all
Ġ: :
ans on
c ategory
Ġenvelop e
ert on
Ġdo ctrine
Ġpe pt
Ġsh y
t ask
t otal
ĠSand y
V C
Ġtr illion
Ġex otic
ĠCar lo
ĠSpe aking
ĠBe er
Comm and
ĠFam ilies
ĠW AR
Sec urity
ĠEl se
ĠGene va
G D
m il
st ad
Ġres igned
ĠT ue
Ġint act
ĠĠĠĠĠĠĠĠĠĠĠĠĠĠĠĠ ĠĠĠĠ
ĠEm irates
Ġd ental
ĠSe qu
Ġrem ot
In v
j ah
Ġb und
ĠGu inea
ĠPl aza
99 9
Ġmem oir
ĠP rix
ĠCon stant
ograph s
enz ie
L os
r il
Ġcon e
Ġvol can
Ġaff irm
Ġun l
M aking
om aly
ĠS it
ĠM essage
plement ation
ĠL iz
Ġassum es
ĠAR T
ĠL O
uch i
3 10
Ġperform er
à¤ ¨
Ġprem ise
âĢĿ ).
Ġste pping
Ġh ike
equ al
Ġtou g
Ġautom ation
ĠRoman ia
Ġrel ie
Ġins ulin
ĠD olph
ĠL ed
Tex as
ĠBeaut iful
o an
Ġfound ations
U CT
ĠP E
ĠCont ribut
ocr acy
T en
Ġprodu ctions
Ġins ane
ĠO g
ĠUlt imate
ĠHe ights
23 5
Ġpos ed
Ġmer it
Ġb ureauc
Ġm asters
/ ?
Ġpr ayers
ire ments
ĠRen ew
ĠR AM
old er
ĠI oT
Equ als
T ok
ÑĢ Ð°
Ġa ston
Ġlong time
ĠBul let
Ġout line
Ġsy m
Ġabsor b
Ġpro xy
ĠPat ient
text sf
Ġsoul s
Off ice
D ocument
ys ics
Ġdisc overs
ĠBar on
Ġgr asp
ĠD erek
Ġra ge
. \\
w ild
p ent
ĠRodrig uez
ĠIn g
Ġess ays
it ated
Ġsimpl er
Ġrefere n
Ġret ros
ĠAl ways
over ing
Ġcounterpart s
ĠV atican
c z
19 12
Ġsupp lier
Ġ\ &
ĠPrinc ipal
Ġs aves
ish i
IT S
Ġbank ruptcy
Ġan at
Ġlack s
Ġcorrect ed
Ġlisten ers
Ġm eter
Ġrefuge e
Ġend ors
ĠEs pecially
at ri
ĠT ours
head ed
ĠML B
B rad
IS E
ĠFact ory
ĠY ale
que z
ĠPear l
Ġdis posal
ĠM ets
ĠCab inet
Ġre pos
Ġselect ive
m itt
ĠTrend s
aj a
m un
ĠN W
Ġnom inee
ĠJ P
Ñ ĩ
Ġsoc ially
ĠU nd
l iter
ĠC osm
}} =
æ ľ
it ars
ig ger
22 2
ĠL is
Ġir regular
r ace
Ġb urg
Ġref ined
O wn
ĠBl air
Ġspect rosc
na ire
ĠCon sequently
ĠAndre a
$\ ,
Ġox id
om ics
âĢĿ ),
Ġsc rap
Ġcolor ful
Ġincent ives
v on
ĠT ag
E nergy
Ġv ivid
ĠAl most
ĠCook ies
Ġdestro ying
Ġrum ors
ĠSim pson
oun s
sh op
IC AL
ĠMod els
ĠSupp ose
Ġforg ot
ru ce
ĠBeng al
ĠD ale
p atch
Ġbelie ving
am on
Ġdegrad ation
ĠHold ings
ĠRuss ians
Eng ine
Ġa thlete
st eps
ck nowled
W as
Ġexam ines
ĠNic ole
Ġret ention
ir ie
Sar ah
ĠGu itar
c ou
Ġcatch ing
Ġbas ement
ĠF olk
Ġbre eding
R on
ĠR N
ĠH ood
st airs
ĠSpe ech
ĠM urder
se ys
Ġredu nd
ĠPalest inians
le vard
ĠS ector
ograp hed
ĠEngine er
ĠQu inn
Ġhon ors
Ġinsert ed
Ġver b
ĠH ass
ĠM ight
Ġnodd ed
Ġl uc
Ġanalyz ing
16 4
Ġ{ };
ĠST R
Ġec ological
Ġle isure
ĠAl gorithm
Ġhom ogeneous
Ġtrou bles
ff ield
ĠV e
urs or
Ġperipher al
pt s
Ġadv ise
Ġst amp
17 7
ann ot
ch ief
Ġconv olution
Ġregul ators
Ġspecific ations
ĠF ix
D atabase
Ġca ption
W ild
ĠChap el
odynam ic
ĠL ines
Ġhier archy
^* \
ros is
Ġcontinu um
ĠC ult
ĠCommun ist
Ġpun ct
Ġorg ans
Ġsing ers
Ġce ase
uli ar
ĠB uch
As ync
Ġorb ital
Ġimm igrant
Ġat he
Ġm esh
Ġtour ing
Ġl ob
ĠAltern ative
w ire
k le
Ġinflamm atory
Ġdipl omatic
Ġinher ited
Ġdef ender
ĠCard inal
ĠLog an
17 4
D ar
P AR
Ġspl itting
ri ans
Ġ[ ]
ĠPet roleum
Ð¾Ð ²
ĠH BO
17 6
Ġexplos ive
ĠUg anda
st ick
K L
Ġir relevant
Ġmut ation
ĠFound er
Car l
Ġdisappoint ing
ĠGil bert
disc iplinary
Ġ }{
ad ians
ĠCL ASS
ĠAnim als
pr us
ela ide
,\ ,\
u rolog
ĠE g
Ġpos es
ĠC el
rem ove
R oyal
âĢĻ :
Ġannoy ing
I AN
ur ated
ĠS ession
16 7
Ġdef ect
year s
Ġexp ose
get ic
ĠP s
Ġarch ives
Ġc er
ĠChrist ine
ĠS B
c u
P rior
Ġ Ø§ÙĦ
Ġmon ot
Ġpress ures
ars ity
ĠG ur
ĠParent s
ĠExhib ition
ĠUpd ates
in el
Ind ust
Ġpar a
ĠMar riage
cor ollary
Ġd ont
ĠFor ward
ĠB oss
ĠCarol ine
ĠP om
Ġwh olly
Ġcompr ise
ĠSh ir
Ġ$\ {\
osp here
Th ird
Ġref uses
ĠI RS
So ft
Rep ublic
Pl an
v art
Publ isher
Ok ay
ĠD ust
Ġquadr atic
text normal
Ġres ur
io id
Ġplace bo
char ged
Ġopp ose
Ġspecial ists
Ġpredict ive
ĠPhilipp ine
Ġeduc ate
the ir
ĠFA Q
ĠM ining
ĠE lections
es ar
Ġdet erior
*} [
n ings
ĠD ial
ĠAN Y
27 5
it ored
ĠK urt
Ġad vent
led on
Ġz oom
Ġrhet oric
Ġvacc ination
S K
b ral
f c
Ġdom inate
Ġcl ay
× ¨
mont on
ĠConsult ing
ĠC lient
Jose ph
S elf
Ġobserv ing
Ġcomp ilation
Ġsur pass
mat htt
P et
o fficial
ĠD y
Ġal beit
16 6
ĠHol ocaust
Ġchrom os
ĠL ud
Ġshow c
Ġemb ry
Ġmod elling
ri o
Ġexam ining
mod ern
ĠThanks giving
art en
pt ical
ĠN L
ĠAven gers
Ù ĩ
ĠN icol
men u
net work
c ussion
ad ays
Ġele ven
- )
ĠW ave
Ġinv asive
D NA
ĠCal gary
Ġimag inary
Ġd amp
mar ine
ĠI van
Ġ ),
ĠBr is
Ġinter im
ĠInvest igation
ĠWest minster
ĠTim othy
ĠAd rian
O fficial
Ġaccount able
Sum mer
Ġby pass
ĠN R
16 1
Ġstud ios
Ġb er
Ġpull s
f illed
Î ·
Ð ·
Pro duct
ro c
19 31
× Ķ
ĠMcC ain
en h
Ġtou ches
ĠW OR
Ġproject ions
ĠPop ulation
?? ?
Ġpat ron
s am
ĠRail road
ĠUlt ra
ĠG D
Ġg aze
Ġroll s
Ġinaug ural
$& $
B rown
roll s
ĠS ed
Ġp ound
y en
ĠN atal
ĠJ ur
Ġth umb
Ch inese
ĠSex ual
se par
Ġse as
[ /
ĠT err
oubt edly
Ġp ier
V an
icon ductor
Ġwh oles
ĠBe ast
il ight
Ġsp ends
sp in
Ġutil izing
abl o
Ġdispl acement
por al
Ġsen iors
AV E
B es
Ġcoord inator
Ġterm ination
eal ous
Ġcollaps ed
Ġsem antic
he et
19 22
Ġkind a
Ġcrit erion
ĠH us
ĠGr ass
ĠAl ban
Te chn
Tr ack
ĠWord Press
Re ference
Ġfin als
am inated
ĠKn ights
Ġc otton
Ġg em
Ġw ounds
ĠNEW S
ĠF irm
Ġportray ed
ins ki
d ag
play ing
Ġhospital ity
F D
Ġ{ }
Ġbreak through
stan bul
Ġout per
ib les
Ġtr icks
fil ter
Ġcont ing
ĠAct ually
Ġrender ing
ĠRequ est
ĠE UR
Ġdetect ive
ĠS leep
ĠScholars hip
00 2
ĠCom par
tt es
ĠGu idelines
Ġwond ers
Ġapp l
Ġaim ing
Ġtaxp ayers
Ġbra ins
ĠCal endar
ian i
ĠP and
she et
ĠBenef its
ĠU AE
phant om
17 9
Ġapp le
Ġconvinc ing
f u
ec hes
Ġbroad band
Ġwel coming
P os
pt o
s ing
ĠN ak
Ġtransport ed
Ġviol ated
8 50
Ġdemonstr ating
Ġexc er
ĠS ize
ific ates
bel ow
ĠMon ster
Ġcol ony
Ġpropag ation
Ġwhe at
ĠEthiop ia
i ott
ĠS ai
Ġrecogn ise
Ġlength y
he tt
Ġjoint ly
n z
t ags
ĠĠĠĠĠĠĠĠĠĠĠĠĠĠĠĠ ĠĠ
ĠB in
st ructure
Ġhun ger
ĠFl oyd
Ġd read
ĠMe asure
ĠManufact uring
ĠÎ ±
Ġcirc ulation
Ġdign ity
f ox
F red
G rad
Ġment or
ĠVeh icle
Ġimper ial
iv ities
ĠShe ll
Ġrook ie
Ġcustom s
ĠBern ie
h appy
Ġbo asts
An th
Ġs ung
ĠM akes
Ġch op
Ġcost ly
D ave
Ġpri ests
ĠL ars
Ġj ets
Ġsexual ity
Ġs ang
Ġnost alg
ĠS QL
ĠE instein
Ġrig id
Ġmeant ime
ke eping
Pac ific
ĠW ik
Ġemotion ally
Ġcongress ional
pher d
ĠF erguson
ĠY ahoo
Ġinv isible
Ġcas ino
Ġtrib al
ĠN OW
Ġw olf
ĠF lynn
Ġsymm et
IC A
Ġmanip ulation
ĠG am
Ġovers ight
Ġproblem atic
ĠRE AD
Ġcontrad iction
Ġs iblings
F ac
Ġclust ering
ight ing
ĠSouth west
Ġlat ent
2 18
g io
ĠM olecular
Ġb acterial
ĠY OUR
miss ible
Ġus eless
Ġmotor cycle
Work ing
Ġli able
Ġshort age
ĠCard inals
ĠTr inity
Ġgover ned
f air
ĠNov a
Ġinfect ious
Ġrun ners
ĠRock y
ro ots
ĠEqu ity
Ġoptim istic
ĠBurn s
tri angle
eng es
et ically
ĠBel le
ener y
OW N
c op
st d
ĠSome one
Ġc ents
Ġinteract ing
Ġcl ue
40 1
res olution
Ġdes ires
Ġbl own
Ġlater al
Ġmess aging
Ġcapt uring
Ġsince re
pred ict
Ġ ).
ĠMe an
Ġc ort
S ingle
ĠC W
ĠM ale
ĠMon ica
Ġpit cher
Ġno on
Ġcar b
Ġ }}
Ġsymbol ic
H ello
ĠV ern
Ġfre el
ĠN ames
J ew
Ġorgan izational
ok ia
ul ence
Ġse aled
ĠChe v
ĠAthlet ic
Ġscrut iny
Ġam ateur
ĠNo ah
ĠHu gh
Ġgl ance
al ine
ĠBel ow
ĠI ND
Ġsens es
ip ation
^* (
Ex ample
C ond
ĠI gn
Ġmetabol ism
ĠM oss
ĠW rite
et ooth
ĠLinked In
Ġacceler ate
Ġepid emic
Ġs lic
ĠOF F
Ġphr ases
R Y
T F
Ġin adequ
ĠParliament ary
ĠC rew
up le
Ġpain ter
Ġs odium
Ġtax i
Ġsign atures
ĠB M
ĠD iversity
Ġl ou
j son
is al
p iring
ĠO UT
ĠL opez
19 11
Ġadm ire
Ã «
Ġs her
ĠG reens
Out put
abul ary
Ġwas hed
Ġg y
Ġbl oom
P rim
ol and
ĠS ens
ĠA verage
ĠG W
A BC
Ġtor que
atter y
re ference
Ġsc anning
% ;
ĠR oth
Ġad olesc
t ar
ĠOpen ing
Ġmetab olic
Ġland scapes
1 200
ĠF ans
Ġaccess ories
M ur
L iber
Ġble eding
rosso ver
w t
ĠAd ventures
Ġpat ience
h orn
Ġ ï¿½
Ġappropri ately
Ġkil ometers
Ġenhance ment
kins on
ĠR anch
pt a
In side
Ġf art
ef e
ĠBer ry
Ġaffili ated
Ge org
ĠMathemat ics
Ġsam pled
char acter
Ġprot agonist
Ġapart ments
Ġf oul
Sc ient
Ġhe y
Ġcere mon
om ical
\| _
16 2
Col lege
ĠR B
ST ATE
de al
Ġhapp ily
ĠJama ica
Ġwe aker
ĠSh i
equ ations
Ġdeal er
ĠSus sex
A H
H appy
ĠFl u
imb ledon
W estern
ĠV acc
ĠMun ich
Ġwrest ling
Ġor chestra
w ikipedia
un ts
ins ky
Ġrehab ilitation
on ce
4 80
ĠA ber
ĠBu zz
Ġpal m
ĠM add
ust ers
19 27
ĠRep orter
ha us
d c
Ġd well
id em
Ġdist ress
Ġprosecut ors
Ġb ub
B uilding
associ ated
ĠD h
ĠRo ose
ĠEn forcement
Ġp ad
Th ings
ĠEqu ation
ott age
ov i
C NN
land er
h fill
Ġd ioxide
ct r
ĠAp ollo
ĠMed icaid
ĠSol omon
uck ed
Ġpal ace
ĠUn less
ĠFund ing
Ġst ew
ĠH i
ĠAr g
ĠC ul
ĠOp inion
ĠC ounter
Ġcard iovascular
ĠEn joy
Ġoptim ized
Ġinhib ition
d ia
Ġmulti pl
ĠAud i
Ġelev ation
nt hesis
in ars
inc re
Ġamb assador
19 24
K at
Ġrec reational
Ġmod ular
se p
Ġpa ired
Ġh ind
Ġann ouncing
G al
Ġreg ulate
S pring
Ð ¹
op ening
Ġimm ense
ĠPat ent
ĠSk ills
cons cious
Ġdou bled
ĠCont est
ĠAct ivity
Ġphilosoph ical
24 5
ĠCa uc
ĠH av
Ġparad igm
in ist
Ġan onym
ĠAny one
Ġa u
cent ral
bu ilt
19 25
Ġautom otive
em er
oid al
ĠCurt is
Ġl akes
Ġun anim
Ġfresh man
Ġconstra ined
Ġsh ine
Ġatt ain
ĠRef uge
Ġhighlight ing
Ġdesper ately
Ġprev ents
per m
Ġmaxim ize
ĠIN TER
orm an
ĠN ice
ĠDec ision
Ġshut down
B achelor
Orig inally
ĠL ak
Ġsum s
so ever
ĠS eth
Ġfinger print
ĠG ospel
plet ion
ĠA j
ĠO ption
ĠClaim s
Ġfrustr ated
Ġcontribut or
ĠSupp ly
st rom
ĠP ET
Ġcont amination
Ġbre ed
ĠCO MP
Ent ry
ĠT um
Ġn inet
c ounter
Ġc ope
and roid
ur bs
Ġcar n
ow itz
ĠRe agan
ĠMor occo
d an
ĠT M
Ġro oted
Contin ue
Ġcl oth
Ġass ay
19 26
3 70
Ġdel icate
sl ant
ING S
sh are
param eters
Ġm ol
iff e
ĠR M
Se ason
Ġdu plic
Gen re
V ar
ĠK oh
ult an
o S
19 4
Ġst arter
Ġbet ting
ĠCars on
J es
Ġle ap
Ġdr illed
e val
ĠB rent
Ġmed ications
ĠCor onavirus
Ġ: )
ie ge
ĠEn cycl
Ġb ored
Ġun le
J osh
Ġ ul
ĠV ote
ĠRec ently
m us
16 3
erg ic
Ġp ause
ĠH ann
Ġà¤ ķ
Ġcrowd ed
Ġmach inery
Ġment ally
Ġexch anges
Ġkin etic
Ġext inction
Ġcred ibility
w ang
Ġen zyme
/ -
ĠSt a
anth a
Ġsc i
17 1
Ġvis ually
ĠEnt ry
Ġrank ings
W I
ĠT ales
if old
Ġl ined
Ġa pt
en stein
m and
)} (\
Ġliter acy
Ġg erm
Cont rol
Ġsa iling
ĠRichard son
Ġde bris
Ġsa uce
20 9
och ond
Ġp izza
iot ics
Ġb ind
ĠS cal
ĠCroat ia
r Ã©
ĠSt ruct
he ta
ĠV ar
Ġl ith
il ion
port ation
Ġorgan ize
inos a
AM A
ĠCh in
Ġhost ile
T aking
eg an
ĠK lein
b iqu
ĠP U
Ġinter sect
ell ites
Ġreb ounds
Ġorgan isms
per iod
Ġboot s
ĠAc qu
Ġdepth s
ĠH ers
Count ry
Ġaut umn
Ġelectro de
S i
Ġsem ester
em e
H ub
Ġg ently
bel iev
ig nt
Ġpat ches
Net work
Ġl ending
ĠJournal ism
Ġrecept ors
ĠWW E
ĠF ramework
Ġdef ended
Ġequ als
Ġswe pt
ĠM emphis
enc ia
Ġcred ited
ĠCommun ities
ĠProp het
Ġorgan izing
ĠBudd hist
ĠZ en
Ġcub ic
Ġcl ash
m ot
Ġlum inosity
w ould
ĠK arn
icult ural
OV E
Ġmet ast
Ġimport s
W al
Ġgr in
c as
ĠH uawei
ĠGe off
oc l
Ġse ating
ĠCongress ional
Ġremot ely
inds ay
Ġpost ers
Ġdeal ers
ĠFe atured
ĠDom estic
R P
Ġc it
ion ic
Ġmist aken
Ġbomb ing
Ġconstit utes
bo at
Ġl enses
aus ible
Ġcompet ent
ĠAmeric as
PD ATE
Ġoptim ize
ĠHend erson
ĠChron icle
Ġcontext s
ĠTw enty
fl at
ĠCas ino
B on
P resent
ĠLe v
ST M
er d
an mar
ĠM oses
pro b
Ġignor ance
Ġhand les
ĠCam era
Ġgar bage
um ed
Ġcr ashed
Ġlect ures
N F
T ypes
17 2
c ourse
Ġr ushing
Ġsegment ation
$. }
ĠPoint s
act ivity
Ġign oring
ĠV it
Ġpric ed
ĠWinn ipeg
un ks
um per
Ġadv iser
Ear lier
Ġattend ees
ĠE arn
ard on
Ġpol ym
Ġreal ization
ĠMcCar thy
n ar
ren cies
Ġindu ces
FOR M
Ġde er
Ġqual itative
ĠT akes
ĠEx amples
Ġfrag ments
lick r
ĠHait i
C enter
IL D
Ġg odd
Ġimport ed
ĠFl ag
ĠMan ual
Ġlif ting
ĠW ILL
ĠSt orage
Ġbox ing
ĠProceed ings
Ġstart ups
ang les
Ġmerch ant
ot ional
Ġed itions
Ġspecial ty
it ance
oc on
ĠW rest
see ing
19 21
J ason
ĠP ont
amb ig
ĠC av
D aily
c n
Ġre per
Ġgro cery
Ġin ability
Ġlo ops
N a
reduc ible
ĠV illa
22 3
Ġin complete
ĠNe ither
Ġc uisine
ĠAc cept
Ġemer gence
Ob ama
Ġclar ify
ĠDO I
vent h
30 3
ĠC ere
) ),
ĠS cale
Ġmer ged
Ġabsor bed
19 23
un ge
ĠR ural
ĠBen ed
Ġles ions
ochem istry
Ġresil ience
i u
ĠT win
ĠRay mond
Ġh ated
at em
ĠBeat les
Ġnot ified
Ġdece ased
het ics
ĠFr an
Ġpres erving
Col umn
ĠPy thon
ĠArch ae
Ġaer ial
el in
Ġunder neath
Ġreb ell
ĠPet erson
18 90
Germ any
Ġnot ices
ĠEv an
Ġincent ive
ĠCON T
W ow
Ġcancell ation
ĠC ed
Ġlic enses
Ġo lig
ĠB elf
Ġh i
st rap
cell color
Oper ation
K now
ĠWed ding
ĠVlad imir
3 25
Ġlocal ization
Com b
K n
Ġt v
ov al
Ġbroad ly
ĠP ages
30 5
Que en
ĠCO MM
ro ve
Ġdefin ite
ĠD L
Ġtun es
ĠH unting
aster y
ĠE yes
ĠCar roll
ask at
Ġ>> >
ĠAss istance
ĠOpt im
ĠK un
Ġd ancers
B a
d ensity
Ġs ab
ns ic
mid rule
à¤ Ĥ
37 5
ĠF IFA
Ġb ore
Ġunder going
ĠBris bane
ie ves
Ġa in
um en
Ġpri zes
b ag
ĠC it
Ġur l
Ġalgebra ic
ĠTrans it
sm ith
Ġscream ing
D ark
ĠApp eal
or ate
Med ical
s an
ĠD oll
der ived
Ã¶ r
N othing
h ouses
ĠR SS
20 30
ĠF erm
ĠAnn ie
Ġp ap
ĠRes cue
ĠBur ton
ĠB und
Ġmon itored
Ġcurrent s
aw ays
Ġl en
ch urch
all a
ĠQu otes
ING TON
ĠRoose velt
ra its
ĠWh atever
ĠSil icon
ĠD uty
ĠCon n
Ġun ified
ol ute
te enth
Ġsub missions
ĠS ere
Ġcolle ague
R yan
Ġrec ount
Let ter
ĠR us
Ġwh istle
Ġaccess ibility
Ġwarn s
Ġexplo itation
$ ^
De ep
ĠAndrew s
Ġsimpl ified
Ġnort heast
ĠA zerbai
Ġintegr ating
Ġteen agers
pl aced
cl ock
Ġinstruct or
word press
rel im
anche z
N amed
ĠCon duct
Ġsupp ression
inv ariant
let al
Ġconf ined
Ġenc ryption
Ġhe pat
it ate
ĠS ister
ĠR andy
act ers
l as
Ġfortun ate
Ġrepro duction
Ġa ka
ĠK ol
Ġd rones
Ġhum ble
Ġsk ull
D ead
Ġsec uring
Ġre lying
ĠL or
To o
Ġpropri etary
J ud
Ġinter pol
Pol icy
Ġm ines
App lication
Ġ ,\
Ġto mb
ce il
T ony
ri ages
Ġst airs
T our
ik er
Ġg ambling
L es
Ġb ush
Ġfl ies
rell a
oss ibly
Ġup grades
ĠWe ight
Ġapp et
ĠPro perties
30 4
S ite
ĠEd it
Ġansw ering
ĠEqu ipment
ĠBry ant
ic z
ĠW ald
Ġcommit ments
ĠExt ra
Â ²
ĠW ife
19 13
Ġassess ing
L ay
hel le
ĠD ied
Ġf li
Ġiter ations
f ood
Ġp ian
Al tern
Ġwarn ings
Ġaccum ulation
ĠDer by
Ġad hes
Ġkilomet res
W D
Ġair ports
Ġs ights
arr ho
Ġsimilar ities
J enn
ĠMart inez
Not ice
ĠMerc ury
ĠO DI
ĠHy per
Hen ry
ĠInter ior
pro duction
18 7
Ġplaint iff
ĠN utrition
Ġharm ony
foot notes
Ġcon gest
pl ain
Ġsomet ime
Ġd are
Ġthere in
( -\
ĠE ither
c orn
stitution al
pt ive
~~~~ ~~~~
Ġloc om
Ġadministr ator
Ġcor on
rag ue
Ġsol ic
Ġcraft ed
Ġimmun ity
ĠGerm ans
Ġche ss
Ġpersonal ities
17 3
$\ \
G irl
ul ance
S end
Ġamend ments
ĠEx pect
Ġartifact s
ATION S
c ourt
n is
if a
ĠC hes
ĠR unning
Ġafter math
Ġb ree
Ġr ider
ĠRel igious
P ark
ĠBank ing
38 8
Ġcomm ence
Sm art
ĠFac ility
Ġreprodu ce
2 14
Ġtrans verse
P a
26 4
Ġsad ly
Ġme g
2 13
ri ber
ĠList en
Get ting
ogen ous
Ġorth ogonal
ical s
00 5
ĠCor ner
10 80
Act ive
N ames
Ġthr one
' _{
Ġ< !--
r ans
ĠP DT
ĠP G
Ġmar row
ĠSte phanie
at ivity
ĠRena issance
val ued
w ig
Ġtow ers
Ġthread s
ĠFl oor
ĠSebast ian
As k
head s
ĠBill board
Ġlegisl ature
Ġf aint
Ġp ine
Ġspec ially
alyt ic
v oy
Ġfootball ers
Ġshoot er
Writ er
Ġimpe achment
L ess
ĠP orsche
ĠG ore
Ġteam mates
h p
ul ously
Ġsh adows
ĠC ards
th row
ixt y
Ġ elli
Ġex clusion
Ġw ished
ĠV as
ĠRec on
Ġinsu fficient
Ġto kens
ĠMel issa
ĠHis panic
C ref
Ġb ent
An alysis
Ġdiscipl ines
Ġl ion
ĠR ide
ĠC rist
ĠZ amb
x ious
Ġneed ing
ĠPe ak
i encies
Ġsp inal
h ran
ĠJ ill
Ġred es
Ġsear ched
end ant
Ġin appropriate
rib ly
ar ro
Ġind ul
oc cup
ick y
ĠGand hi
re x
Ġd angers
ĠMar co
ĠDar win
Ġswe ep
ĠRead y
Ġmal icious
nav bar
g ard
Ġprim itive
ach ine
Ġres istant
Ġcomm ittees
Ġ umb
rypt ed
^{ (\
rest rial
ĠAb bey
ĠV PN
Ġpredomin antly
Ġprof itable
Ġrecip es
at ta
Ġman ually
Re lease
Ġcost umes
ĠÃ Ĥ
udd en
ain es
ĠEll iott
ĠQ B
if i
Ġr ifle
PubMed Google
ĠHar old
le ys
Ġnight mare
ĠPen insula
ĠA ctions
ĠG ren
S ure
Ġbi ography
Ġinform al
W ay
Ġint ric
ic ism
jo in
ĠT roy
Ġres et
ĠP eg
ĠDav ies
ĠSche me
Ġfert il
00 7
Ġple a
writ ers
Ġuncons cious
Ġadministr ators
v ie
Ġfix ing
ol ics
Ġthreat en
Ġwilling ness
ĠN M
Ġinform ative
ĠF ut
op sy
ĠCong o
en ch
Mult i
ĠH ir
I l
al ore
__ _
B al
ĠSing er
| $
ĠRe hab
F ederal
we ather
let ters
and ro
ĠNor folk
F K
k ern
ag ent
Ġcirc uits
ĠHe ather
ĠS ans
Ġinj ust
Ġconcentr ate
Ġj umps
Ġrecogn izes
j ab
Ġr ust
Ġfavor able
Ġaccident ally
in us
Ġrec alls
ĠG ear
ĠB ren
ay ette
Ġcar pet
Ġsteal ing
Ġab used
ĠFood s
sh it
Ġneg lected
Ġaccept s
st ed
ĠStart ing
b rain
ĠR ising
ĠL G
av is
Ġware house
Ġth under
ĠT B
Ġval ve
J ob
ĠTe ams
Cl imate
ĠD rop
Ġorig inated
ĠDra ke
Ġthought ful
footnotes ize
Similar ly
Ġcur iosity
ĠNot re
Ġpun ish
g ue
ĠS I
Ġv oy
r and
Ġun limited
Ġsc ram
arm ed
V AL
Ġout reach
Ġge ographic
Ac adem
ĠS hen
Ġen light
Mat thew
Ġr ug
( &
Ġinf amous
Ġwrit ings
ĠS ach
Ġup side
ta x
Ġhom etown
w yn
Mod ern
Ã¨ re
S ave
ĠM W
ely n
ĠD river
ĠK urd
Ã© n
Cont roller
claim er
Ġmis under
ĠW id
Ġm ethyl
Ġamb ient
B ody
U lt
Ġsurround ings
Ġretail er
Ġun rest
Config uration
ĠPrinc eton
Ġcl ips
Ġup graded
Ġmill enn
Ġincorpor ating
ry n
ĠS qu
Ġmis leading
Ġtrou bled
B road
â Ķ
ĠSh aron
A li
Ġst aring
ĠH ook
Sec ret
> ,
R ule
Ġpriv ately
Mod ule
ĠT A
He ight
H aw
tt p
Ġrig orous
er vers
ĠO ptions
script ions
ut ral
Ġexhib itions
omed ical
ĠS ax
ex ists
W ant
ec ution
Ġlay ing
ol in
est hes
Ġwar fare
ĠBur ke
off set
th ouse
ĠMar tha
ĠPer th
Ġper me
g b
ĠD B
Ġwhat soever
aste red
ĠC ay
ĠQu antum
Ġdis semin
import ant
Ġneut ron
Ġnum b
Ġcall back
Ġg ases
are ttes
Ġm all
Ġbl amed
ar is
Ġcrew s
Ġpoll ing
Ġa rom
im ming
Ġpec uliar
oy a
RE L
18 9
Ġun changed
ĠPharm aceutical
Ġround ed
S ol
d p
Ġu pl
á ĥ
Ġsupp ressed
ĠChar ity
ĠF Y
ĠZ oo
ĠTe achers
Ġreject ion
Ġt ier
Ġnorth west
ĠH od
! ,
i ating
Ġ\ [
ĠBut ter
ĠWhe el
4 20
cl ub
Ġ ^{
ov ies
rows er
Ġswe eping
Ġl od
Ġinf ants
Ġdownload ed
ĠPil ot
Ġaver aging
and ing
ol utely
T ri
ĠAb original
h ash
Ġbureauc r
Ġlong itudinal
29 0
Ġtreat s
ent ieth
ĠMc N
ĠC ort
ĠAtl as
Ġkne es
Ġfe at
R N
ĠT rent
ĠH M
ĠB U
Ġsub space
ĠJohn s
Ġren amed
Ġinsect s
cal c
Ġclear ing
22 6
oh an
Ġatt achment
Ġpract icing
ĠProdu cer
Ġch rist
IN K
ignt y
ĠS olution
Ġinterf aces
ĠEr ror
Ġren al
ĠDes k
aret te
Ġsp at
ĠElect ronics
ĠT rophy
Ġapp rent
Ġadjust ments
Ġcro re
Ġpr ince
Ġdisappoint ment
l ag
l ining
un ion
prof its
Ġp ars
he ne
ĠBas in
ĠM ist
car bon
ĠW ait
ĠK iss
Ġmar vel
link ed
ĠPol ic
Ġch orus
N arr
up arrow
Ġpret end
develop ment
Ġc ried
ĠComput ing
18 6
for cing
r andom
ĠBou levard
Ġalt itude
Ġrot ating
ĠR PG
Rec ently
Ġaccus ations
Ġcom eb
Ġmarg ins
Ġobs erver
R oman
ĠBi ol
ĠÐ ²
] :
30 8
w s
Ġemphas ize
Ġback ward
Ġdil ig
ĠR ut
ĠM ode
J ay
Ġso ap
b ath
Ġread ings
St ore
ĠR id
, .
Ġcomplement ary
ĠMon roe
sim ilar
{ "
Ġtransform ing
det ails
h agen
19 3
Ġspace craft
ĠDes cription
Ġpedest rian
Ġri ot
isc her
Ġo l
ĠF lying
ĠGriff in
ar gs
ĠFor bes
Ġexplan ations
gr ay
Ġelect romagnetic
Ġresign ation
ĠUnder standing
Ser ial
Ġaff ection
Ġtraject ories
[ [
× ľ
18 4
ĠField s
ĠEug ene
Ġhyper t
ĠIdent ity
v ir
H all
Ġrep airs
Ġsal mon
op al
Ġserv ants
Ġarm or
ĠTan z
te am
b inding
ĠMe yer
ĠL on
ĠKenn eth
plit udes
ĠI Q
Ġr all
30 2
Ġbeh ave
Ġl aughter
ĠRh ode
ĠC ir
Ġprint s
Ġrel ent
ĠAb stract
Ġhier arch
ĠG ad
Ġsupp orter
Ġdam aging
29 6
ĠSupp lement
Ġeuro s
ĠD IS
ĠCh ain
Lou is
Ġvir uses
Ï ħ
ĠK ane
Ġt ide
Ġj unction
Ġadv ancing
v oc
ĠI EEE
gr ass
ĠCan adians
ĀĀĀĀ ĀĀĀĀ
Ġp iss
ĠP ine
Ġposition ing
Ġaffili ate
ĠFif th
O l
end if
az ing
ch ard
P osition
ĠP ool
Ġeduc ators
as per
Ġca usal
ĠCl aud
ĠP iano
Ġlight ning
Ġfor ums
ĠR iley
ĠÎ ²
Ġpredec essor
k ill
par se
ĠSur face
im od
ĠWals h
B bb
AP P
ĠRel ief
ĠWy oming
ill on
ĠAlexand ria
ĠGo es
ĠMat ters
er os
Ġdecor ated
ĠOb viously
Ġcompl ained
in fect
Ġy oga
Ġver dict
uff le
Ġcred entials
26 5
ĠOver view
Ġcontain ers
Ġh alo
Ġmean while
ĠTra vis
Ġth rive
Ġbr ush
a ude
ur an
Ġatt ach
Ġenc oded
p ad
Ġthere after
ĠAd elaide
reg ion
Ġthreat ens
Ġassert ion
ĠF alse
Ġprop he
Ġcommission er
ĠA sc
ĠAn at
OS S
Ġmil estone
Ġparliament ary
B ern
ra ining
ĠActiv ities
Ġdirect ing
Ġnever theless
Re uters
un finished
ord e
Ġrec ession
ĠB end
Ġclear ance
Ġnegot iate
im i
ĠOffic ers
Stud y
Ġg ospel
Ġund oubtedly
Î ³
Ġthr ust
Ġen zym
Ġsm iling
V ari
Ġover ride
Im port
Ġr ul
L I
ĠMy ers
Ġn ominations
Ġover time
A bs
at oes
ĠF ont
ĠL iv
att i
w ere
ple ted
or por
Ġf ines
ac ements
Ġnav al
s erver
ĠP I
Ġreb uild
Ġfat igue
Ġ! ==
ĠCy prus
p enter
Ġpromot ional
ĠD ent
any a
}{ {\
18 2
ĠCan al
sw orth
ir teen
Ġpro state
Flor ida
ĠD owntown
Ġcan vas
Ġprob abilities
ĠTh ous
Ġal iens
Ġcollect ively
fun ctions
f ac
vol ume
super vised
Ġinter cept
ĠH ands
âĢĶ âĢĶ
Ġtreat y
ĠWell ington
Ġabund ant
t z
Ġprem ie
Ġw rist
ari us
Ġtrav elled
f em
Un it
Ġaccount ed
ot y
Phot os
O x
ad min
Ġfound ers
Ġ Ä
Ġb arn
AP I
ass ic
Ġrecru ited
Ġpro x
cc entric
Fr ame
ĠView s
ĠN in
Ġcons ervatives
Ġemploy s
Ġgi ants
Be yond
L ater
aur us
Ġcoord inated
D am
pol y
oot er
mult line
Ġal ly
Det ails
E th
op athy
f requency
Ġsupp ress
ĠCol lections
Ġdiscover ing
Expl ore
ĠT ory
Ġrem inis
Ġa ster
ha o
Ġsens ation
d ue
Ġpl otted
ĠAr ms
ĠD ictionary
m ut
f alls
ALL Y
B oard
rac ellular
Ġprom in
Ġfier ce
ĠTal ent
ĠB le
ĠR EC
K ind
Ġl azy
Ġcat ches
0000 00
n om
us ers
? ,
Ġn g
ĠMax well
- ,
s hips
og l
Ġharm onic
Ġm align
Ġdetect ing
ĠWrit ten
en ary
ĠP ir
Ġbl ade
E ll
Ġout right
Ġcompar ative
au f
Ġpropos es
Ġetern al
ĠThe me
ces ter
Ġd ots
Ġfinanc ially
Ġcon cess
Ġnic he
Ġaux iliary
mom ent
L oc
Ben z
ĠA ges
ĠO mar
Ġcons ume
ĠDem on
h it
Ġinter rog
O UT
it ism
ĠGrand e
Ġfib ers
Ġexped ition
: (
ĠT yr
Ġany time
Ġex agger
ĠH A
B it
Ġterr ifying
blog spot
ĠA sp
Ġfrustr ating
C our
ĉĉĉĉ ĉĉĉ
ul ators
Ġst ro
ism ic
ĠE z
Ġse iz
Ġprefer ably
st en
ters on
Ag da
h ari
ĠH yp
7 37
Ġdraft ed
Ear th
l b
Ġdown stream
ĠL ok
Ġdes erved
ĠEvent ually
ĠR ig
Ġcal ibration
ĠThrough out
Ġrelig ions
D ir
ĠW I
Ġtaxp ayer
um ann
Ġinval id
^{ [
ĠPan ama
H M
ure n
it as
18 3
ĠS V
ĠMin utes
Ġachie ves
F ox
Ġre ef
ĠLeg ion
ĠCond ition
fund ed
b ay
Ġcomplex es
Wind ow
ĠF ul
ĠLiter ary
23 2
gr and
Ġver bal
ĠNob le
Ġshe ar
ĠCitiz en
Ġupd ating
ĠSh annon
Ġâ ī
ĠLegisl ature
Ġun itary
at hetic
Ð ¿
ĠS ally
ourn aments
=\ {
Ġcross es
Ġsusp icion
ĠT as
18 1
Ġnot ify
ĠLat ino
Ġ il
Ġanalog ous
Ġn asty
Ġf als
Ġsqu ares
Ġfe ared
ĠDel ivery
ĠAl leg
ĠBi ography
Ġs outheast
AT T
Ġrecomm ends
hist ory
AR C
AN K
Ġmer cy
angle ment
Ġm aternal
~ (\
anc k
ĠSol o
ĠEld er
og o
ost ics
à¤ ¤
Ġlow ered
pro pto
erm at
20 23
ĠTre asure
s ix
uff y
Ġsell er
M ode
Ġcom merce
Ġdri ed
Ġfair y
ĠL aur
Ġserv ant
22 7
ĠS end
od ore
ins pired
w hy
id ian
ould er
ES CO
Ġcho oses
ari at
Ġhe ights
ĠSh ot
AN C
ĠP ER
ĠChrist ie
Ġaccess ing
ĠCour ts
Ġout doors
not ag
Ġacadem ics
ley ball
OS E
iv ation
ivari ate
Ġb ats
Ġover ly
Ġv ag
ĠAust rian
ĠFe el
iv ier
Ġamb ition
m or
Ġsp iral
ĠNob el
par ams
Ġin box
) }.
Ġcondem n
G ive
Ġgl orious
ur istic
Ġmiss iles
Ġpair ing
Ġphil anth
ĠShe ffield
ĠApp arently
uth ored
ern ame
Ġ ions
ĠMonitor ing
omb ies
Ġl ively
r ice
ĠComm ittees
ĠCom pos
Ġdev il
ĠK ur
bor hood
Ġbicy cle
Ġbe e
Ġref using
Prov ider
ĠEmb assy
Ġlist ener
Ġhe x
Post by
ĠSt ructure
d ark
ĠC rypt
Ġlocal ized
Ġin acc
pt ed
ĠDep ression
Ġgest ure
Ġi i
ĠCoord inator
av i
ĠP BS
00 3
Ġprosecut or
ĠO ften
Ġint ends
h ig
ĠM urd
ir ational
Ne il
Ġm old
Ġcov ariance
Ġd iving
oc ative
Ġener getic
Ġsur render
ĠRoberts on
ĠSquad ron
Ġhum our
inf all
return s
ĠIde as
ĠK atherine
ĠMan ning
Ġar rog
Ġenh ancing
Ġmurd ers
H or
av ia
Ġdrum mer
Ġs ir
Ġfilmm aker
ĠNot tingham
P olitical
ĠLag rangian
ĠSat an
s il
con v
ĠL L
ĠBe e
Ġassoci ates
ne e
@ {
Ġst air
ĠHim self
St ory
ĠEng agement
Ġpo ets
ĠP oor
ĠIn fect
Ġcountry side
ĠW imbledon
ale z
Ġpredict ing
m ove
uss ions
Ev ents
Ġcollabor ate
gi ene
R oy
ĠB il
stit u
Ġtar iffs
ab olic
) (\
ĠW inner
Ġcomb ust
de ath
E mer
Ġepid em
Ġsp herical
Ġgu itars
40 4
ĠDur ham
ĠPers ian
iem ann
Ġvig il
Ġro pe
ĠWag ner
ĠC ec
Ġback drop
ĠJan et
ĠCol umn
Ġemploy ing
cont ainer
Ġfin ishes
Ġdefin itive
lu x
Ġexc av
Ġdi etary
ĠEp stein
Ġru in
Ø ¯
up iter
23 4
F ONT
aj i
Ġdial og
D er
qu art
g iven
Ġoff ence
Ġop ener
ĠFre eman
ĠSpons or
Ġa maz
Ġd t
plic it
Sh op
Ġsum mon
ĠReport ing
inte g
Ġto mat
ĠN D
; "
R o
ĠM BA
Ġbully ing
ĠS essions
Ġen rollment
Ġtherap ies
Ġhard est
ĠI stanbul
ĠAd obe
Ġh ipp
ĠMoh ammed
ĠMal colm
and ise
Ġsen ator
Ġn urt
Ġclos es
23 9
ĠCD C
the se
j k
h m
ĠG iant
ĠColon el
19 08
IT ION
Ġfab ulous
Ġinf rared
Ġst ole
Ġu biqu
Ġkick ing
Ġle aked
18 80
Ġsil icon
ump ing
accept able
ĠWe iss
22 8
T urn
T aylor
Ġp ockets
Ġcl iff
Ġsp anning
Ġstat utory
Ġarbit ration
ĠEx c
elect ric
Ġbi ased
ĠLe ices
ĠTrad itional
ĠMan ila
j ee
AN N
parent s
Ġrefres hing
Ġsp oil
ĠGreat est
ĠC afe
Ġaut ism
Ġgeneral ization
ĠDes c
ort al
* ,
Sub ject
ats u
' ),
Ġchar itable
H o
ig ator
ew orks
Ġy e
000 1
Ġrepro ductive
ucl ide
c ritical
person al
Ġh iking
lect ric
Ġdisc rep
ĠAd apt
ĠProt ect
ĠAbd ul
Ġdefic iency
Ġf lick
ram s
down arrow
Ġcum ulative
ass o
Ġble w
Ġmart ial
3 35
Ġsolid arity
en os
Ġat e
it on
Ġab rupt
Ġexclud e
Ġt ires
Ġclass ics
Ġstorm s
Ġadd itions
vart heta
ĠBright on
Ġ ~\
Ġbook ed
en i
c ular
Ġsl ides
l ot
p ub
Ġchar ities
âĢ ĥ
ĠW aste
ĠValent ine
ĠA Z
cont ract
ist ered
Ġsh ade
Ġback wards
ĠEd monton
ĠJen kins
al is
d at
Ġcred ible
Ġan omaly
Ġdisplay ing
ĠP ione
ĠY uk
arant ine
Ġre hears
ĠM RI
Ġrevers ed
à §
wart z
Ġpersonal ized
N ob
ĠSt ark
ĠT ale
Ġru ins
G row
c b
Ġrespons ive
c ov
Ġn aming
T own
Ġpredict able
art ifact
Ġham mer
ĠWire less
Ġinv ites
th ick
G raph
ott est
Ġinev itably
ĠW ade
l ove
ĠH amb
be e
Ġdig est
ĠLou ise
Ġcor ps
Ġingred ient
Ġstory line
al am
erc ise
H F
f urt
Ġdub bed
Ġher b
ĠW itch
Ġsens ory
ĠIll ustr
Ident ity
ip ed
Ġun for
Ġdom inance
sh ape
ĠChief s
ĠSustain ability
S ession
Ch annel
establ ished
az ar
Ġhar ness
ĠLouis ville
| ^{
Ġveget ation
enc il
Ġg rit
Ġobsc ure
Ġinfr ing
Ġd ull
ĠC BD
wind ow
ĠParad ise
Ġkin ase
K O
M ir
Ġbe ams
Ġhe els
}$ \
Ġwhere by
Ġcomeb ack
ĠP OL
Ġtun ing
Ġe go
class es
G ET
Wind ows
Ġball ots
ĠConf ed
g one
at aka
st ars
con nection
Ġban ner
init ial
ans om
Ġsl ots
Ed it
Ġdress ing
icular ly
ĠJ ak
P rem
ĠPro bably
Leg al
Vir gin
ĠC ork
ĠP V
ap a
ĠAb bott
Ġdevelopment al
ĠL enn
Pr ice
Ġst y
Ġd ictionary
ĠF ew
ĠBo at
A ge
Ġinc umb
23 6
od i
ĠL I
I ss
ir ling
ec a
ĠSer bia
Ġrout inely
ĠP P
Ġprov inces
E F
F ont
Ġpublic ity
ĠChe ster
ed o
af ety
ĠCon st
iat ry
ĠApp ly
ĠMe ghan
Sta ff
ĠG ust
Ġman eu
Ġmut ant
ĠKh al
prot otype
Ġmet adata
ester ol
ĠInf antry
Ġregul ator
HT ML
ĠTerrit ory
Ġbuild er
la us
ĠK ra
ĠMan uel
Ġcelebr ations
Qu estion
ĠĠĠĠĠĠĠĠĠĠĠĠĠĠĠĠ ĠĠĠĠĠĠĠĠĠĠĠĠĠĠĠĠĠĠĠ
ph il
ival ent
Ġcharacter ize
19 05
St ock
ĠSug ar
Ġdet ained
ĠT ang
Ġnon etheless
Mil itary
al ong
Ġse af
ĠDirect ory
ĠCub an
ĠS z
ĠR ica
ĠN ormal
he a
Ġhear ings
Ġbrows ing
Ġexpend iture
Ġg ast
ĠTr ading
ĠHer bert
rict ed
ĠLes lie
ĠBl vd
Ġrespect s
ag ra
Ġpione er
L ock
ĠEst abl
Ġre de
ĠG ru
Ġbless ing
as ian
Ġsummar ized
U ntil
ĠL un
> .
he ss
ĠE ra
;\ ;
Sim on
Ġfl aws
ĠProcess ing
Ġsk ew
ĠBro ck
g ather
Ġstri ve
Ġcontribut ors
Ġbuck et
ĠAdv ance
k ok
D a
Ġto pped
Ġsouth west
re hend
ĠB JP
Ġdispl aced
ĠA mazing
ere rs
Ġsettle ments
Ġh ints
Ġrespond s
Ġunder went
Ġmed itation
Pro position
bin om
Ġproceed ing
Ġwas hing
+ ,
7 20
Ġpay load
Ġmight y
Ġn ail
ass is
ĠFl a
Lear ning
H ER
Ġpotential s
}. }
iv istic
Ed ge
F eed
all i
Ġbe ers
ey ed
Ġgate way
Ġgram mar
Ġre lied
ĠApp s
ĠR ent
act ing
big cup
J son
Ġmer ge
os ures
pol icy
ad os
Ġreg imes
Ġir re
c ustom
ĠM ile
ĠKr ish
ĠLo an
ĠK ab
Ġp estic
ĠGard ner
post ed
Ġo ak
S ett
ĠImpro vement
Ġstrengthe ning
A z
yn es
Ġrecover ing
Ġneutr ino
k an
Ġdep icts
ä º
ĠCh rome
ĠAl ert
ocaly pse
ind ust
re ra
ĠCor ollary
uls ive
ĠClear ly
gl ass
ĠJenn y
Ġt urt
Ġwal let
Ġliv estock
ĠD anger
Ġl av
Ġdet er
ĠAll an
Ġhous ed
iling ual
ou st
ogg le
N eed
ba um
C ache
s ample
Ġpack ets
Ġint uitive
Ġundert ake
ĠWe ap
ĠPakistan i
oss ip
Ġwh ites
Ġad ul
Ġtail ored
Ġdis gu
ĠS le
end or
ĠFl at
Ġprison er
ĠAccount ing
t ake
Ġcrit ique
d oes
Ġmind set
P red
ĠSc ene
Ġconsequ ently
Ġ( #
ĠH ilton
pro blem
Ġind ef
inte gr
Ġto ps
Ġra id
80 2
Ġbudget s
Ġcalc ulating
is ite
ĠN T
less ness
Ġcondem ned
ĠR oc
Ġton nes
J ECT
m ac
Ġacknowled ges
ĠRe ason
ĠPrem ium
r ating
pl acement
im pl
oura ble
ĠCraw ford
Ġtr unc
iox id
O A
Ġno isy
Ġra infall
i q
Ġne o
g p
Ġinv iting
S on
ĠD uration
ĠS ons
Ġbe es
19 09
Ġsh aping
J ess
ĠV iv
ĠGovern ance
Ġend angered
Ġdefend ants
ĠL t
Ġcorrid or
ĠHay es
Ġbip art
Ġrec reation
Ġcou plings
ra iser
Ġst icks
Ġdis pro
St ay
Ġlist ings
ĠP rices
ĠL av
19 1
bal ance
ĠAr ray
W all
Ġcomplet es
ĠPharm ac
Ġsuper natural
Ġdou bles
Ġmedic ines
ant is
ĠDomin ican
ant ing
w ife
Dou ble
Ġhands ome
Ġge ographical
Ġresc ued
ĠM IN
ĠF itness
NY SE
re search
el ed
G ar
Ġsubject ive
J ones
urs ion
Ġf og
ad ia
ap est
al an
Ġoff line
ĠM ang
24 7
ĠDr um
Ġlog arith
ĠF uk
pp e
En c
r unning
Param eter
os er
ĠF I
Ġtim ber
F ast
Ġim posing
Ġmit igate
Ġdest ructive
Ġreb els
ĠEs sex
Ġfrag ment
or um
M u
p ref
Ġacceler ated
ĠTal iban
os lav
Ġir reducible
ĠNob ody
Ġsh aft
ĠD P
Ġqual ifications
Ġrevel ation
Ġmodel ed
Pro s
ĠG RE
am ar
ĠU I
Ġcl ues
c ultural
ĠS part
Ġhand y
Ġtrain er
ĠM itch
F all
ĠTon ight
b eck
Pro perties
ĠV ista
) !
ord able
ĠAdv oc
ind y
R ES
Ġcar ved
Ġm ush
part icle
Ġdark er
Ġpool s
Ġsuper conduct
et z
ĠQu art
Ġreal izes
Ġpl edge
ĠAnd ers
Ġas leep
ant ics
ĠMar athon
fin ite
ĠDream s
Ġbr ass
g ins
Ġcontin uation
? :
Ġ\ {\
ĠRa iders
Ġthe aters
Ġun law
c v
Ġv ibe
yn ote
ĠW ool
ĠAgric ultural
Ø ª
ĠV ander
ter ror
ĠD w
t n
ĠHol ly
ĠS askat
Ġwe ars
ĠO dd
Ġcondition ing
Ġsubs ets
ĠNew man
ject ive
ĠEx ception
Ġadop ting
ĠA u
ĠTre vor
Ġsoph omore
Ġv ague
ĠC ock
yn th
á ½
re lease
Ġey eb
M iddle
tra ining
F air
Ġn as
Ġlight weight
Ġir rad
ĠInteg rated
it ous
ĠMal ta
T I
oint ed
Ġsub urban
on so
ÂĢÂ ľ
Ġb od
ĠK B
, [
M N
Ġund erest
Ġestim ator
ĠBre aking
Ġre normal
ĠN SA
ĠAir ways
Ġvic inity
Ġp neum
ĠA FP
ĠMov ing
Current ly
Ġfl ame
OD E
ĠT S
ĠStr ange
Ġdiff ers
ĠC oul
Ġinhib itor
Ġpreval ent
Ġbright ness
ĠThe m
ident ified
com pl
Ġdesign ation
ĠInit ial
Ġcryst all
Ġmetaph or
Ġwas ted
Ġun success
ass er
Ġsn ake
pl aces
Ġrenew al
Ġpr one
f its
is factory
Ġca ut
AC C
d ad
Ġc ivic
G over
t rivial
23 8
But ton
ĠFl ood
ess ing
ĠPeters burg
acc ount
ĠR V
Th read
Ġpract iced
Ġsuper vised
C ert
Ġch ick
Ġut ilities
utr itional
Ġpit ched
ĠHung arian
Ġro de
ĠCourt esy
st yles
left arrow
ĠTreat y
orph ism
f ocused
Ġclin ics
ĠBulgar ia
Ġcan cers
ĠMir ror
Ġv ide
Ġsh oe
Ġqu as
ten ess
Big g
ĠEn h
Ġd orm
ĠKir by
ĠD ana
Mus lim
ĠPro of
ĠT ank
ĠKn ox
Qu ick
Ġswit ches
ĠC AP
ad itional
A st
ĠD ogs
Ġmis conduct
Ġt ilt
Key words
{ (\
ram id
Ġide als
ĠAdminist rative
Ġnarr atives
J am
ĠP ars
ĠEc u
ĠT ier
ĠB ast
port ed
ĠSe oul
ĠDise ases
f ix
p end
ĠP ip
ĠPo isson
Ġcreep y
ĠJack ie
Ġj unk
ons ored
Ġstret ched
æ µ
Ġr ay
Ġsp ins
ĠZ el
ĠL und
port ion
C B
] ^
Â §
ĠL iqu
Ġspont aneous
ann i
f d
our cing
ĠG ri
% %
2 17
ĠT ruck
Acc ount
ĠV II
ĠH ER
Ġst ain
Ġbroadcast ing
ĠDiv ine
jav ascript
ĠE y
19 06
oles cent
Ġpul monary
ĠRoll ing
Cele br
ĠBar rett
Ġlawsu its
P sych
ĠFl ow
ĠT ong
ĠRub y
S erver
ic iency
oph one
P LE
l m
rat ulations
Ġreward ing
Ġtox icity
ĠL ip
open hagen
Ġsed iment
our neys
mer cially
Ġprompt ly
ĠN P
Ġimag in
Ġsal aries
Care er
ĠN issan
Ġsuff ers
Ġt a
ĠFr aser
Ġbusiness man
Ġaw ait
ĠSpot light
Ġincons istent
Ġinc on
22 9
F W
Ġattack er
Ġadvertis ements
Ġamen ities
U psilon
Ġappoint ments
ĠP or
Ġhyper b
23 3
ĠCO UN
Ġpart nered
Lar ge
Ġ å
ĠD ell
res ource
Ġsp ouse
Ġgl ac
ĠLith uan
Ġam plitudes
ĠAnth rop
Ġendors ed
at en
ĠI A
Ġground ed
! âĢĻ
vi er
Ġflav ors
Ġcyl inder
Ġpanc reat
Bes ides
est ly
ĠR ew
ĠEp ic
oven ant
Ġintention ally
Stand ard
Ġpick up
Ġcoll isions
ĠJac obs
ort ions
Ġtheat rical
ĠK aw
ng th
ĠT ah
w agen
Ġturn over
ĠFact or
rele ased
s omething
Har ry
ĠG ir
ĠE RA
com plex
Ġhist ories
Ġboard ing
Ġsh aking
Ġsat ellites
Col lection
em bourg
Ġrequest ing
ĠJoy ce
ĠM aced
ut z
ĠR out
Ġ um
n one
eg al
^* _
Ġfather s
b ands
medi ated
script scriptstyle
Ġque er
v id
âĢ Ĭ
Ġmet eor
p us
Su ccess
ĠN g
Act ually
Ġemphas ized
ĠBelf ast
ro gen
Ġk ings
Ġgl oss
Ġa z
ĠLie utenant
Ġpast or
ĠT ut
Ġpack s
ĠG U
ĠRe y
oper ation
Ġpredict s
Ġvalid ate
Ġsp ike
Ġenthusi astic
ĠB orough
ĠSa id
ĠM ick
ĠRich ards
Ġjud ged
c ats
Ġt ense
ĠJ ung
ĠX ia
cent ric
ĠH REF
ist on
t emplate
ĠÂ °
ĠTom orrow
Ġ( .
add ress
Ġelim inating
Ġembr aced
m any
s v
Ġcr ashes
ĠPant hers
Ġecosystem s
ub le
duct ed
W idth
23 1
D est
F alse
Ġprotect ions
Ġsli pped
bl ank
ĠEd en
ĠOut side
Rep resent
Ġtub es
Ġem pathy
" ?
Ġcounsel ing
Ġtight ly
Ġgood ness
Ġle uk
ĠClass ical
ĠV ine
Ġlog ging
xim ately
Ġch im
Ġpil gr
$ '
4 000
ric ular
Ġelim ination
Ġtast es
Ġun lock
el ic
Ġar ter
Ġinhib itors
G AN
Ġre comb
Ġj aw
Ġdem ons
Ġdemonstr ations
Ġfe ather
ĠSc and
ĠSur rey
ĠTest ament
EC H
Z Z
Ġv ampire
Ġwho ever
ĠBlu etooth
ÂĢÂ Ŀ
Ġ ÏĦ
Ġsh ipped
Ġden ying
ĠS we
Com parison
am iliar
rown ed
Fr anc
r ates
Ġcompan ions
? '
Ġsk et
Ġfre ight
à¤ ķ
Ġsched uling
El izabeth
tra ined
ĠTal ks
ra ul
Ġgr im
Ġspin ning
Afric an
ĠPent agon
ĠA ware
ad der
th reat
ur ry
ĠSim mons
{ |
Ġlit eral
ĠCelt ic
ph alt
Ġsc aled
c apt
16 00
f aces
ĠHe in
ĠEven ing
18 60
sim ple
Ext ended
Ġilleg ally
Ġf erry
ĠExp o
Ġped iatric
Ġphot ons
Ġfair ness
ĠâĢ ĭ
ĠBirth day
Ġpop ul
Ġinstit ute
ĠPel osi
Ġcommunic ating
Ġch ord
ĠSch midt
Ġcooper ative
Ġfoc al
Ġcompet ed
ad vert
ĠE ston
he ng
Ġpurs ued
ĠAnim ation
Ġre fr
Ġgl am
bl ood
× Ĳ
ans ing
Ġsc am
Japan ese
P rivacy
ĠDev on
Ġshoot s
Ġge omet
amm atory
Ġmot if
ĠR ust
ran o
T ell
qu o
24 3
P ast
ĠMy anmar
Ġc yn
ĠL S
Ġnot orious
Ã ¯
ĠR ib
ĠL ights
ĠIs le
Ġhy pe
S aint
r ase
Ġfe eds
ĠArmen ian
R om
ĠD ro
AL E
ux e
ĠT urb
v ic
c opy
b ies
Ġr h
Ġjust ification
y ards
ĠF uel
pe x
Ġtrad es
ĠDay ton
Ġtack les
Ġ\ |\
ĠH uff
Ġtrans gender
Ġwor ries
or is
arr is
ĠTr acker
Ġfundament ally
M rs
ĠFal con
With in
Ġclimb ed
ograph ies
ĠN amed
Ġterr ific
ly mouth
ott i
() ->
,... ,
Ġb ang
Ġpro ton
Ġwild erness
Ġprolong ed
30 6
le ges
Ġy a
Ġal phabet
row ave
Ġbiom ass
Ġbl owing
Ġneed le
Ġinadequ ate
Y Y
Ġne on
ĠRec reation
ĠBelg ian
ĠR as
Ġpol es
sh arp
ĠC N
ĠAc ross
ĠM ED
ĠD oor
Ġcon ced
ĠRead er
ĠFund s
Ġcomm ut
Ġprocess ors
Ġstead ily
ĠB ri
app le
Ġfilter ing
E Q
R ange
ĠKenn y
ĠB oom
ĠSecond ary
S her
ĠO m
ĠMid west
Ġmot ions
th ro
}[ !
d istance
Ã ¦
Ġcon ventions
ill ation
che ster
S ky
Ġcon ceived
Ġar range
US D
Ġbelong ed
App ro
ĠSpot ify
Ġforb idden
R od
ai res
ĠLeg ends
Ġbarrel s
Ġj ealous
P U
ĠA ch
Ġrese ar
Ġsus pense
Ġnormal ization
Ġsimpl est
ĠS anchez
ĠH its
Ġup ward
ĠAh mad
ĠTun is
Ġoverlook ed
Ġu k
24 8
Ġd awn
att ed
Ġam ple
ox ide
Ġignor ant
, (
back ed
ĠN est
Ġbreat he
uss y
Ġunder water
Ġjewel ry
C HE
ĠAppro ach
Ġ Ñģ
oul os
Ġm um
en o
Ġmoist ure
ĠS ou
23 7
ĠCl ara
Ġlon ely
D raw
P y
ĠBab a
ĠIm agine
ĠExper imental
Ġg ad
ĠThe resa
ny der
dev ice
ĠSpecial ist
op us
ĠBal let
Ġst aged
Ġman kind
Ġsc roll
ĠCh ancellor
Ġid i
19 07
Ġp ets
act ly
Ġperf ection
Ġev angel
hand le
Ġwell ness
Ġpref ix
uclide an
M uch
Ġap opt
ĠA J
ĠB od
rib ing
Ġpop ulated
ĠStr at
Ġnucle us
Ar ts
Ġes p
Ġbest selling
Ġcapt iv
Ġle agues
ĠHigh lights
Ġcat alyst
Ġpro curement
Ġcomp ares
ĠWorld wide
lay out
ff e
ĠSp a
E t
ĠP f
ĠD ear
_{ -\
Ġgot ta
Ġastron aut
Ġsurpr ises
ĠD ES
19 01
atas et
ĠPl ate
P aper
ĠExpl orer
P RE
ple ments
Ġincl ined
ĠMy th
Ġmor ality
ĠUnder ground
it at
Ġmin erals
d igital
Ġrev ival
ĠP engu
ens is
Ġast hma
ob o
Ġinf inity
D im
all ery
Ġun aware
Gu ard
ĠTit ans
ĠCompl iance
act or
Ġcons cience
4 40
ED T
\ }_{
ĠTri ple
ĠNew sp
Ġattack ers
ĠK w
hy thm
Ġlear nt
ĠSk in
ĠBe en
Ġphys iological
J ean
ĠX X
ĠNe eds
Ġgrad uating
Bet ween
} /\
ĠAre as
ĠAnn ounce
Ġdefend ers
att r
Ġbrief ing
ĠWh ole
Ġsocial ist
Char acter
ĠEcu ador
ak is
Ġstr ang
Ġaccum ulated
Ġ( '
ĠWin ston
und ers
ĠGreen e
ĠPort al
Do ctor
Ġinf erior
w omen
Ġspark ed
ĠSoph ie
React ie
Ġwel comes
al ism
ĠW it
Ġv ascular
Ġleg ends
Ġch iral
Ġdoub ts
Ġ{ "
ĠPrest on
id ine
Ġminor ities
24 9
Un like
Sp ot
OU ND
y ang
Ġcan al
Ġpat ents
ies el
Ġcomprom ised
Ġn arc
18 70
Ġco res
Ġk its
Ġeat en
Ġsched ules
ĠAl ger
ĠDev ices
Ġfulf illed
ĠMeg an
ä¸ Ĭ
ĠU E
Ġinject ed
ĠBudd h
Ġfrank ly
y cle
Col umb
Ġdeliber ate
ĠN ixon
play ed
ĠB illion
osc opic
I ter
ĠPed ro
L INE
ĠAl umni
ĠIN C
Ġind ict
w at
ĠMark ov
ĠBever ly
Ġprob able
Ġquarter ly
orth y
Ġmar itime
Ġgall eries
ĠP RE
vi o
ĠRos a
E ver
ra isal
Th ink
ĠPat ricia
$- $
Ġhorm one
ĠSch ne
uzz y
Ġhur ricane
f red
Ġvers atile
Ġe ccentric
Ġobs ession
'' '
ĠW rong
) >
ĠS onic
ĠCorn wall
ĠL ily
ath olic
Ġpr incess
S ound
Ġv icious
Ġtransform s
aff e
Ġsu ed
Ġur ging
names e
< ?
ic ides
Ġimp aired
ĠGod s
Â ¢
Ġsa x
ĠB elt
y y
ar cer
++ )
Ġpl ausible
ĠIns ider
T X
ĠExt ension
O ffic
Ġt uition
In ternet
Ġplant ing
P erm
j ack
ĠB one
ĠCh ip
ĠBar b
Ġd ile
T el
ĠHand book
Ġtact ical
ac iÃ³n
ĠEngine ers
T em
ocy te
ĠPart ies
Ġhalf way
ĠPolic ies
el man
Ġindirect ly
Ġspecim ens
ĠMar itime
Ġexempl ary
\ },
Ġrem embers
Ar thur
Ur l
ve x
Ġc ared
\' {
Ġconc urrent
amm ad
R og
ĠV ot
Ġcent r
ĠBr ands
run ner
Ġinequ alities
LA Y
ĠB row
ĠRoche ster
Ġc rossover
ĠC ogn
Ġsc are
oh y
ĠW ii
List ener
artifact Id
ĠG amb
â Ļ
att ribute
ĠD ry
ĠSh ane
Ġcock tail
m ind
Ġwar rior
4 10
] =
ernand ez
Ġevent ual
S omething
AD E
ĠC J
u j
Ġstar red
: </
ĠPro blems
ĠG erald
Con nor
Ġfilmm akers
ĠMig uel
Ġlearn ers
grow ing
3 90
Ġins ist
Ġ _{\
ĠM ent
ĠW itness
) _{\
ĠM ood
an ie
Ġweek ends
P akistan
E mpt
ĠA ged
Ġreal ities
Ġten ants
id ates
ĠF CC
ul o
Ġprotect s
ĠF IR
Ġmorph ism
Ġfl ames
H ash
Ġde position
E ss
ĠB ills
the ory
ĠC able
ch art
ern s
vis ible
yp ically
ĠHard y
T er
ĠF iles
ĠBi ological
pe ak
Ġtouchdown s
ĠHor izon
ĠOk ay
Ġ ib
Ġf riction
29 9
EL D
ĠErn est
pos itions
ĠDrug s
M Y
stack rel
Ġexp ands
ĠC red
Ġsens ible
ĠT ill
Ġpro se
Ġsp ill
Ġcook ed
Ġrout ing
Ġdiscover ies
ĠRes istance
Ġprep ares
Bl ood
se at
ĠP owers
ĠEx cept
ĠSur ve
Ġscript s
ĠW elfare
Ġlad der
Ġsuccess ive
Ġdist ancing
Ġreal izing
Ġfree ze
Ġtrack ed
N ight
v arrho
Ġ\ }
Ġthr illing
Ġvict ories
Ġfo am
ĠI v
hem atic
Ġinaug uration
ĠB ound
Ġstat ute
Ġfore front
ĠU til
hib ition
S ources
Com ments
u o
ĠP B
Ġreact or
Jenn ifer
is o
âĶ Ģ
Ġup s
ert ation
ush i
Ġar rows
Ġp ushes
Ġd ug
Ġd ementia
B ron
24 1
ĠPract ices
Ġcryptocur rency
ĠTe legraph
Ġt rophy
Ġche ek
He art
Ġag gress
Ġdist ract
h on
ĠG or
B at
Ġweak ly
b eg
ĠS of
ĠMus k
Ġd uck
ĠKind le
Ġsc enery
Ġhel met
Ġsmooth ly
L ED
n els
ĠLit igation
ent ure
Ġfore most
M ovie
ĠTanz ania
Ġmount ing
S and
Ġcompl aining
ÃŃ n
er ner
om ers
Ġinstall ment
olt z
Ġanal ogy
ĠH C
ĠMar l
Ġlog in
i our
ĠH ash
ĠH ep
sub ject
ĠDet ective
ĠOper ating
ĠT ennis
ĠFerr ari
Ġhistor ians
Ġsl iding
Ġpar an
ogene ity
hard t
ĠRe e
ĠRequ irements
\ }.
Al ong
Ġtrick y
ĠPat rol
ĠMaur ice
id an
Ġsub way
EM A
Ġdis gr
St an
e er
Ġphot ographers
Ġ( *
18 50
A ff
l ists
t ails
Ġf ox
ĠTe hran
Ġexceed s
ĠP ure
Ġmetall ic
Ġgrat itude
! ).
Ġass ure
ĠBreak fast
ĠR are
Ġstick ing
ur rence
ĠAzerbai jan
l ash
Ġun int
Ġinstall ations
ĠLe vi
ĠAb ove
Ġmain land
Ġsque ez
ĠP ART
Ġprem ature
Ġc emetery
Ġshut tle
Ġst ark
Ġconduct or
Ġcontract ed
c rit
ib a
h urst
Ġwa ist
ĠCub s
Ġst akes
det erm
Ġcosm ological
st arter
Ġne urolog
con stra
AT ES
tern s
lem en
mod ules
Ġrepe ating
ĠJohann es
B oston
ĠH idden
ĠSh ares
i ya
ram er
b uffer
f m
ĠPart s
doc s
ĠLegisl ative
ĠGen esis
Ġjud gement
ĠAdm iral
Ġr ays
ĠK err
int ro
rad ius
Any way
Ġsp ear
Ġmin us
Ġdeleg ation
ĠLad ies
} ~\
Ġde formation
O cc
m ble
Ġhed ge
}^ +
C rit
ĠHil bert
Ġball oon
Ġir res
ro let
Ġref usal
Ġdrag ged
Ġcryst als
b ib
rim ination
ĠRab bi
ĠB uc
Ġrem n
Ġrem edy
Ġd ude
Add itionally
Ġelig ibility
yn chron
Ġnot ions
l ibrary
ĠAss ert
Ġbiod iversity
Ġsuccess ion
if est
3 15
R s
Ġan isot
aut ore
Ġref resh
S QL
Ġcyt ok
P ref
cl air
ks wagen
rit z
ĠInterview s
Ġenthusi asts
ĠEX P
Ġunf old
chem ical
Ġy acht
Ġdelight ful
Ġm igrant
op hy
R oad
arr ison
ĠPubl isher
ï¬ ģ
Ġmal ware
ĠD ollar
Ġinv oke
Ġeconom ically
Ġsound ing
ĠKaz akh
w elling
ĠB G
Ġex ert
Ġill usion
Ġsil k
Empt y
d al
ĠJ ared
Ġaddition ally
ĠHy brid
ĠDavid son
Ġrepos itory
Ġha unted
OT O
ĠEx cel
Ġimpair ment
d id
ĠD iane
qu ote
Ġsem inar
ĠCh at
Ġwell being
M ath
Ġst ip
Ġst ub
ĠNort heast
ĠT C
Ġactiv ate
Ġadmin ister
) }$.
Ġrest ing
Ġannounce ments
ĠOwn er
N atural
Ġm anga
Ġident ifier
Ġproud ly
Ġdecl ining
Ġassign ments
Ġve in
Ġcom mercially
con c
Ġacadem y
ĠW are
AM S
Ġneg atively
ĠMom ent
Ġd ancer
ĠHar bour
e ze
ĠRem ark
AL S
ĠBet ty
inos aur
ECT ION
ma jor
ĠS ounds
Ġtw ins
ĠCamb odia
g old
ĠS isters
e i
ĠR oh
con struct
ex ternal
ĠFig ures
E AR
r ift
P ot
Ġ$ ^{
Ġparent al
w ald
eb ook
ĠT ucker
min ent
s ided
Ġinv ari
s App
ĠIm aging
ĠKe ys
ĠPier ce
Ġdis joint
ĠOpportun ity
cor respond
du al
29 5
group Id
ĠS orry
ab etic
Ġlif elong
Ġproceed ed
ĠG one
r ations
ĠS par
St ack
Ġl aps
Ġacqu iring
ĠCow boys
Ġdesp air
ovak ia
Ġcont empt
Ġcur ved
ĠWeb b
Ġcyl ind
ĠSalv ador
et ermined
ov sky
Comp any
ĠG ul
Ġspe eches
ĠB ike
Off set
| _
sub equations
Ge V
Ġc ows
Ġrepl ies
Ġdis reg
Ġs urn
or ption
Ġmel ody
fl ight
d n
ĠC OR
art a
coh olic
ĠEncycl opedia
ĠCh rom
Ġstate wide
G ene
ĠS AP
ĠRem ote
ĠLab s
Ġfram ed
Ġsur geon
Ġcomed ian
ĠA uthors
Ġat op
ĠCh oose
Ġval uation
he e
ĠSp in
ĠBrig ade
Ch air
Ġendorse ment
M other
Z E
Ġarchitect s
Pr ince
Ġexplo ited
ĠBird s
ĠL C
q l
ĠL indsay
Fe ature
Ġqu o
g ements
ĠWW II
ĠBald win
Ġ{ {\
ĠD ob
Ġann ih
bt n
ĠPay ment
c ool
Ġexc itation
Ġlight ly
tes y
Ġdiver gence
ĠCole man
T imes
z h
ĠG S
19 04
Ġsun ny
st ill
Ġfrag ile
2 21
ĠRav ens
Ġra pper
Ġcertain ty
Ġquestion able
le ad
ĠBullet in
. $$
G ov
Ġg amma
ath am
Ġsymp athy
Ġtr ilogy
orpor ated
ĠMethod ist
Ġst alk
Ù İ
Ġgift ed
ĠSl oven
ĠAr rest
#### ####
ug u
Ġcho ir
24 6
ĠOl ivia
ĠJava Script
ĠDynam ics
l floor
Ġtrans ient
Ġsem iconductor
Ġin ert
Ġcon qu
ess es
ath a
ĠL EG
Ġpolynom ials
b org
per fect
Ġdev ote
Through out
ĠFO X
Ġt ournaments
ĠK och
Ġprinc ip
Ġneighb ours
00 4
Ġgam ers
j un
nt on
Any one
B BC
let cher
ĠMay a
L o
Ġobserv ational
Ġfact ories
Ġd ock
Ġstri pped
Ġroll er
ĠAltern atively
ĠUn cle
Ġviol in
ĠD inner
cl amation
ict ive
Ġadjust ing
Ġcancel ed
Ġsovere ign
Ġre imb
ra f
Ġarrest s
Ġth ou
Ġcur se
Ġin mates
ĠSynd rome
ĠMag gie
ab ol
ĠRe pe
Ġcompet itor
ATION AL
Ġsimult aneous
V en
ĠIn vent
arch ive
Ġp ave
Jon athan
Ġc asc
ĠJ agu
Ġdiss olved
Ġf ost
Ant i
Ġalert s
Ġun predict
âĢ ħ
Ġformul as
Ġprepar ations
Ġconfront ed
R F
ĠPro s
Ġqual ification
ĠWind sor
Ġvoc abulary
amaz on
C ouncil
KE Y
ason ic
W P
Ġposs essed
ĠHealth y
N ic
a verage
ĠK ard
Con c
ĠHop efully
Ġdeleg ates
Ġthr ill
Pr inc
ĠCount ries
N orthern
Ġw icked
ion a
& &\
20 25
Ġco ating
Ġkind ness
Ġpitch ing
Ġcand y
Ġmention ing
Qu est
W ait
eral a
Ġtr an
ĠWes ley
ĠSh ipping
ude au
Ġdis asters
Be aut
ĠC ave
ĠL ibraries
24 4
Ġhel m
ĠSom erset
Ġgu iding
ck er
su it
6 40
à¥ ĭ
ĠH ang
man agement
\ /
{ .
ĠC od
ij k
] );
Ġupt ake
ĠBened ict
ĠSat urn
Ġcompat ibility
ĠTr in
Ġso y
Ġtrad ers
Ġl ounge
Ġcr ush
Ġant it
Ġrun way
ĠCor respond
gu ided
pract ice
Ġmod ulation
Ġb ark
Ġcomm itting
Ġpo inter
ĠSpec ies
Ġneglig ible
Ġsh ark
ouncill or
ĠAr row
ĠOff er
Jew ish
l iving
ri ad
ell ation
opt imal
ĠAl cohol
ĠAg ents
Ã¡ s
Ġl ord
Dis play
m ith
ĠB ac
ĠL B
ant ine
Ġw ax
ĠH ank
ur as
Ġobs ervers
ĠPr ayer
19 03
Ġhug ely
Pat rick
Ġexclud ing
à ¯
ht ra
ut a
hy per
g em
Ġprejud ice
Ġne p
Ġbrand ing
road s
ĠOpportun ities
Ġfire arms
Ġremark ably
ĠAdvis or
r ar
ĠJos Ã©
believ able
g ang
trans form
ĠTerm inal
ĠAll ison
l oe
ĠB har
Ġex h
b ol
le igh
Ġacc retion
Ġo ath
ale igh
ĠAd just
ĠS ic
ial og
ĠPar ade
ĠReg ulatory
Ap J
Ġprosper ity
Ġpro gn
ĠTrans form
Ã ī
Ġsub mitting
Ġap ology
Aut o
. (\
Ġon board
ros se
Ġstr angers
Ġbe ans
Ġaug mented
Ġobs essed
Ġsyn c
ĠB oot
Ġins ists
Ġcateg or
en vironment
ĠMicro bi
Å «
Ġd ownt
Ġadvertis ers
A cknowled
ĠD as
[...]
