{
  "version": "1.0",
  "truncation": null,
  "padding": null,
  "added_tokens": [
    {
      "id": 0,
      "content": "[UNK]",
      "single_word": false,
      "lstrip": false,
      "rstrip": false,
      "normalized": false,
      "special": true
    }
  ],
  "normalizer": null,
  "pre_tokenizer": {
    "type": "Sequence",
    "pretokenizers": [
      {
        "type": "Digits",
        "individual_digits": false
      },
      {
        "type": "ByteLevel",
        "add_prefix_space": false,
        "trim_offsets": true,
        "use_regex": true
      }
    ]
  },
  "post_processor": null,
  "decoder": null,
  "model": {
    "type": "BPE",
    "dropout": null,
    "unk_token": "[UNK]",
    "continuing_subword_prefix": null,
    "end_of_word_suffix": null,
    "fuse_unk": false,
    "byte_fallback": false,
    "vocab": {
      "[UNK]": 0,
      "!": 1,
      "\"": 2,
      "#": 3,
      "$": 4,
      "%": 5,
      "&": 6,
      "'": 7,
      "(": 8,
      ")": 9,
      "*": 10,
      "+": 11,
      ",": 12,
      "-": 13,
      ".": 14,
      "/": 15,
      "0": 16,
      "1": 17,
      "2": 18,
      "3": 19,
      "4": 20,
      "5": 21,
      "6": 22,
      "7": 23,
      "8": 24,
      "9": 25,
      ":": 26,
      ";": 27,
      "<": 28,
      "=": 29,
      ">": 30,
      "?": 31,
      "@": 32,
      "A": 33,
      "B": 34,
      "C": 35,
      "D": 36,
      "E": 37,
      "F": 38,
      "G": 39,
      "H": 40,
      "I": 41,
      "J": 42,
      "K": 43,
      "L": 44,
      "M": 45,
      "N": 46,
      "O": 47,
      "P": 48,
      "Q": 49,
      "R": 50,
      "S": 51,
      "T": 52,
      "U": 53,
      "V": 54,
      "W": 55,
      "X": 56,
      "Y": 57,
      "Z": 58,
      "[": 59,
      "\\": 60,
      "]": 61,
      "^": 62,
      "_": 63,
      "`": 64,
      "a": 65,
      "b": 66,
      "c": 67,
      "d": 68,
      "e": 69,
      "f": 70,
      "g": 71,
      "h": 72,
      "i": 73,
      "j": 74,
      "k": 75,
      "l": 76,
      "m": 77,
      "n": 78,
      "o": 79,
      "p": 80,
      "q": 81,
      "r": 82,
      "s": 83,
      "t": 84,
      "u": 85,
      "v": 86,
      "w": 87,
      "x": 88,
      "y": 89,
      "z": 90,
      "{": 91,
      "|": 92,
      "}": 93,
      "~": 94,
      "¡": 95,
      "¢": 96,
      "£": 97,
      "¤": 98,
      "¥": 99,
      "¦": 100,
      "§": 101,
      "¨": 102,
      "©": 103,
      "ª": 104,
      "«": 105,
      "¬": 106,
      "®": 107,
      "¯": 108,
      "°": 109,
      "±": 110,
      "²": 111,
      "³": 112,
      "´": 113,
      "µ": 114,
      "¶": 115,
      "·": 116,
      "¸": 117,
      "¹": 118,
      "º": 119,
      "»": 120,
      "¼": 121,
      "½": 122,
      "¾": 123,
      "¿": 124,
      "Â": 125,
      "Ã": 126,
      "Ä": 127,
      "Å": 128,
      "Æ": 129,
      "Ç": 130,
      "È": 131,
      "É": 132,
      "Ê": 133,
      "Ë": 134,
      "Ì": 135,
      "Í": 136,
      "Î": 137,
      "Ï": 138,
      "Ð": 139,
      "Ñ": 140,
      "Ò": 141,
      "Ó": 142,
      "Ô": 143,
      "Õ": 144,
      "Ö": 145,
      "×": 146,
      "Ø": 147,
      "Ù": 148,
      "Ú": 149,
      "Û": 150,
      "Ü": 151,
      "Ý": 152,
      "Þ": 153,
      "ß": 154,
      "à": 155,
      "á": 156,
      "â": 157,
      "ã": 158,
      "ä": 159,
      "å": 160,
      "æ": 161,
      "ç": 162,
      "è": 163,
      "é": 164,
      "ê": 165,
      "ë": 166,
      "ì": 167,
      "í": 168,
      "î": 169,
      "ï": 170,
      "ð": 171,
      "ñ": 172,
      "ó": 173,
      "ô": 174,
      "Ā": 175,
      "ā": 176,
      "Ă": 177,
      "ă": 178,
      "Ą": 179,
      "ą": 180,
      "Ć": 181,
      "ć": 182,
      "Ĉ": 183,
      "ĉ": 184,
      "Ċ": 185,
      "ċ": 186,
      "Č": 187,
      "č": 188,
      "Ď": 189,
      "ď": 190,
      "Đ": 191,
      "đ": 192,
      "Ē": 193,
      "ē": 194,
      "Ĕ": 195,
      "ĕ": 196,
      "Ė": 197,
      "ė": 198,
      "Ę": 199,
      "ę": 200,
      "Ě": 201,
      "ě": 202,
      "Ĝ": 203,
      "ĝ": 204,
      "Ğ": 205,
      "ğ": 206,
      "Ġ": 207,
      "ġ": 208,
      "Ģ": 209,
      "ģ": 210,
      "Ĥ": 211,
      "ĥ": 212,
      "Ħ": 213,
      "ħ": 214,
      "Ĩ": 215,
      "ĩ": 216,
      "Ī": 217,
      "ī": 218,
      "Ĭ": 219,
      "ĭ": 220,
      "Į": 221,
      "į": 222,
      "İ": 223,
      "ı": 224,
      "Ĳ": 225,
      "ĳ": 226,
      "Ĵ": 227,
      "ĵ": 228,
      "Ķ": 229,
      "ķ": 230,
      "ĸ": 231,
      "Ĺ": 232,
      "ĺ": 233,
      "Ļ": 234,
      "ļ": 235,
      "Ľ": 236,
      "ľ": 237,
      "Ŀ": 238,
      "ŀ": 239,
      "Ł": 240,
      "ł": 241,
      "Ń": 242,
      "Ġt": 243,
      "Ġa": 244,
      "in": 245,
      "he": 246,
      "on": 247,
      "re": 248,
      "er": 249,
      "Ġthe": 250,
      "at": 251,
      "Ġs": 252,
      "or": 253,
      "en": 254,
      "Ġw": 255,
      "Ġo": 256,
      "it": 257,
      "an": 258,
      "is": 259,
      "es": 260,
      "Ġc": 261,
      "al": 262,
      "Ġf": 263,
      "ed": 264,
      "ar": 265,
      "ing": 266,
      "nd": 267,
      "Ġb": 268,
      "Ġp": 269,
      "Ġof": 270,
      "ou": 271,
      "Ġin": 272,
      "ic": 273,
      "ion": 274,
      "Ġm": 275,
      "Ġto": 276,
      "Ġand": 277,
      "ĠĠ": 278,
      "le": 279,
      "Ġd": 280,
      "as": 281,
      "om": 282,
      "Ġh": 283,
      "âĢ": 284,
      "Ġth": 285,
      "ent": 286,
      "il": 287,
      "el": 288,
      "ro": 289,
      "st": 290,
      "ct": 291,
      "ĠS": 292,
      "Ġre": 293,
      "et": 294,
      "ĠT": 295,
      "Ġl": 296,
      "Ġn": 297,
      "Ġe": 298,
      "ĠA": 299,
      "ĠC": 300,
      "id": 301,
      "ot": 302,
      "ol": 303,
      "ve": 304,
      "ig": 305,
      "am": 306,
      "Ġg": 307,
      "ut": 308,
      "ĠI": 309,
      "im": 310,
      "ation": 311,
      "Ġis": 312,
      "ac": 313,
      "ly": 314,
      "ĠM": 315,
      "Ġfor": 316,
      "ur": 317,
      "Ġon": 318,
      "ay": 319,
      "ad": 320,
      "ow": 321,
      "us": 322,
      "Ġbe": 323,
      "Ġ(": 324,
      "ver": 325,
      "ĠĠĠĠ": 326,
      "ĠP": 327,
      "Ġthat": 328,
      "ĠB": 329,
      "Ġst": 330,
      "ir": 331,
      "ith": 332,
      "ce": 333,
      "ch": 334,
      "âĢĻ": 335,
      "ul": 336,
      "Ġwith": 337,
      "un": 338,
      "se": 339,
      "her": 340,
      "ter": 341,
      "20": 342,
      "ĠD": 343,
      "Ġy": 344,
      "Ġas": 345,
      "ĠH": 346,
      "ĠR": 347,
      "ra": 348,
      "Ġan": 349,
      "ĠF": 350,
      "em": 351,
      "Ġit": 352,
      "ĠW": 353,
      "if": 354,
      "Ġal": 355,
      "Ġwh": 356,
      "Ġ\\": 357,
      "Ġcon": 358,
      "ag": 359,
      "ers": 360,
      "od": 361,
      "um": 362,
      "ri": 363,
      "ĠL": 364,
      "ab": 365,
      "ill": 366,
      "ĠThe": 367,
      "Ġwe": 368,
      "ĠN": 369,
      "Ġpro": 370,
      "ist": 371,
      "and": 372,
      "th": 373,
      "Ġ$": 374,
      "op": 375,
      "Ġhe": 376,
      "ĠG": 377,
      "ate": 378,
      "est": 379,
      "Ġat": 380,
      "ĠE": 381,
      "qu": 382,
      "res": 383,
      "ht": 384,
      "pp": 385,
      "ew": 386,
      "ity": 387,
      "Ġcom": 388,
      "rom": 389,
      "ore": 390,
      "Ġwas": 391,
      "Ġare": 392,
      "Ġv": 393,
      "ess": 394,
      "os": 395,
      "ld": 396,
      "Ġyou": 397,
      "ĠâĢ": 398,
      "ke": 399,
      "Ġby": 400,
      "ect": 401,
      "Ġex": 402,
      "Ġde": 403,
      "oc": 404,
      "Ġor": 405,
      "Ġr": 406,
      "ĠJ": 407,
      "end": 408,
      "ies": 409,
      "ment": 410,
      "ain": 411,
      "ort": 412,
      "ant": 413,
      "art": 414,
      "iv": 415,
      "Ġse": 416,
      "ĠO": 417,
      "Ġfrom": 418,
      "Ġha": 419,
      "ive": 420,
      "Ġsu": 421,
      "ight": 422,
      "nt": 423,
      "201": 424,
      "ud": 425,
      "ure": 426,
      "ust": 427,
      "Ġsh": 428,
      "all": 429,
      "Ġthis": 430,
      "Ġnot": 431,
      "ial": 432,
      "ard": 433,
      "pt": 434,
      "The": 435,
      "Ġch": 436,
      "our": 437,
      "ell": 438,
      "ge": 439,
      "ear": 440,
      "Ġhave": 441,
      "Ġu": 442,
      "..": 443,
      "og": 444,
      "Ġle": 445,
      "te": 446,
      "red": 447,
      "ĠU": 448,
      "ine": 449,
      "ost": 450,
      "ack": 451,
      "rou": 452,
      "âĢĿ": 453,
      "Ġus": 454,
      "pl": 455,
      "ction": 456,
      "ould": 457,
      "out": 458,
      "'s": 459,
      "ak": 460,
      "per": 461,
      "ast": 462,
      "{\\": 463,
      "pe": 464,
      "ff": 465,
      "ich": 466,
      "ome": 467,
      "ber": 468,
      "Ġab": 469,
      "Ġpl": 470,
      "ical": 471,
      "ĠK": 472,
      "ok": 473,
      "Ġwor": 474,
      "ia": 475,
      "19": 476,
      "00": 477,
      "Ġhas": 478,
      "ated": 479,
      "ide": 480,
      "ans": 481,
      "Ġcan": 482,
      "ĠĠĠ": 483,
      "ub": 484,
      "ath": 485,
      "ĠĠĠĠĠĠĠĠ": 486,
      "ong": 487,
      "Ġall": 488,
      "ary": 489,
      "ĠIn": 490,
      "Ġj": 491,
      "iz": 492,
      "Ġk": 493,
      "Ġwhe": 494,
      "Ġhis": 495,
      "orm": 496,
      "ite": 497,
      "ip": 498,
      "ap": 499,
      "ice": 500,
      "ther": 501,
      "age": 502,
      "Ġwill": 503,
      "Ġcomp": 504,
      "ame": 505,
      "ĠSt": 506,
      "ous": 507,
      "Ġtr": 508,
      "ult": 509,
      "ue": 510,
      "ie": 511,
      "ph": 512,
      "Ġcl": 513,
      "ass": 514,
      "cl": 515,
      "Ġbut": 516,
      "are": 517,
      "gh": 518,
      "ions": 519,
      "ind": 520,
      "ĠâĢľ": 521,
      "Ġne": 522,
      "cc": 523,
      "Ġ-": 524,
      "Ġad": 525,
      "ep": 526,
      "Ġgo": 527,
      "ĠV": 528,
      "Ġme": 529,
      "able": 530,
      "ign": 531,
      "ations": 532,
      "ace": 533,
      "Ġtheir": 534,
      "act": 535,
      "Ġdo": 536,
      "Ġ&": 537,
      "Ġres": 538,
      "Ġim": 539,
      "Ġen": 540,
      "ime": 541,
      "Ġcont": 542,
      "Ġwhich": 543,
      "one": 544,
      "Ġout": 545,
      "Ġun": 546,
      "Ġthey": 547,
      "ance": 548,
      "ib": 549,
      "av": 550,
      "ĠTh": 551,
      "ry": 552,
      "ook": 553,
      "Ġ\"": 554,
      "Ġint": 555,
      "ence": 556,
      "Ġone": 557,
      "du": 558,
      "ally": 559,
      "Ġmore": 560,
      "ire": 561,
      "ĠCh": 562,
      "Ġwho": 563,
      "ord": 564,
      "_{": 565,
      "Ġup": 566,
      "ru": 567,
      "so": 568,
      "ase": 569,
      "ond": 570,
      "eg": 571,
      "Ġsp": 572,
      "ens": 573,
      "ang": 574,
      "ks": 575,
      "Ġsa": 576,
      "ach": 577,
      "Ġapp": 578,
      "very": 579,
      "int": 580,
      "form": 581,
      "ition": 582,
      "ents": 583,
      "Ġwere": 584,
      "ov": 585,
      "ere": 586,
      "ail": 587,
      "ĠY": 588,
      "ake": 589,
      "Ġper": 590,
      "Ġabout": 591,
      "Ġso": 592,
      "Ġar": 593,
      "Ġdis": 594,
      "Ġ$\\": 595,
      "ory": 596,
      "ress": 597,
      "ian": 598,
      "ely": 599,
      "Ġman": 600,
      "xt": 601,
      "ays": 602,
      "10": 603,
      "own": 604,
      "Ġli": 605,
      "Ġher": 606,
      "ll": 607,
      "Ġev": 608,
      "Ġag": 609,
      "ile": 610,
      "ount": 611,
      "port": 612,
      "Ġpart": 613,
      "ft": 614,
      "ound": 615,
      "com": 616,
      "ors": 617,
      "ose": 618,
      "ark": 619,
      "Ġsc": 620,
      "Ġnew": 621,
      "Ġother": 622,
      "ob": 623,
      "ree": 624,
      "erv": 625,
      "mer": 626,
      "ild": 627,
      "Ġte": 628,
      "vel": 629,
      "Ġits": 630,
      "Ġyear": 631,
      "vers": 632,
      "Ġbeen": 633,
      "math": 634,
      "Ġqu": 635,
      "Ġalso": 636,
      "Ġoff": 637,
      "),": 638,
      "ish": 639,
      "ric": 640,
      "Ġhad": 641,
      "ne": 642,
      "oll": 643,
      "irst": 644,
      "reat": 645,
      "ove": 646,
      ").": 647,
      "Ġour": 648,
      "Ġover": 649,
      "lic": 650,
      "wo": 651,
      "200": 652,
      "ings": 653,
      "Ġthere": 654,
      "čĊ": 655,
      "old": 656,
      "Ġ=": 657,
      "ĠIt": 658,
      "Ġwould": 659,
      "ec": 660,
      "row": 661,
      "Ġtime": 662,
      "ates": 663,
      "ces": 664,
      "Ġany": 665,
      "Ġthan": 666,
      "Ġif": 667,
      "Ġpre": 668,
      "Ġyour": 669,
      "fter": 670,
      "ons": 671,
      "Ġsome": 672,
      "rit": 673,
      "Ġwork": 674,
      "Ġpe": 675,
      "Ġsaid": 676,
      "nder": 677,
      "Ġrec": 678,
      "we": 679,
      "ĠâĢĵ": 680,
      "use": 681,
      "Ġwhen": 682,
      "Ġthem": 683,
      "clud": 684,
      "Ġkn": 685,
      "vi": 686,
      "fere": 687,
      "Ġinto": 688,
      "ma": 689,
      "Ġro": 690,
      "oy": 691,
      "}\\": 692,
      "Ġmy": 693,
      "ps": 694,
      "hed": 695,
      "ĠHe": 696,
      "ĠĊ": 697,
      "ople": 698,
      "aw": 699,
      "Ġlike": 700,
      "tern": 701,
      "igh": 702,
      "Ġfirst": 703,
      "}$": 704,
      "ick": 705,
      "Ġacc": 706,
      "ink": 707,
      "ual": 708,
      "ont": 709,
      "iss": 710,
      "Ġshe": 711,
      "ng": 712,
      "ject": 713,
      "ning": 714,
      "ade": 715,
      "^{": 716,
      "ater": 717,
      "Ġwhat": 718,
      "amp": 719,
      "ational": 720,
      "ss": 721,
      "Ġbet": 722,
      "Ġtwo": 723,
      "Ġget": 724,
      "In": 725,
      "ĠUn": 726,
      "erm": 727,
      "ood": 728,
      "Ġcomm": 729,
      "Ġdes": 730,
      "rib": 731,
      "ics": 732,
      "olog": 733,
      "Ġjust": 734,
      "Ġno": 735,
      "Ġind": 736,
      "eth": 737,
      "Ġbec": 738,
      "ram": 739,
      "ĠWe": 740,
      "lect": 741,
      "Ġpeople": 742,
      "uc": 743,
      "ef": 744,
      "pect": 745,
      "12": 746,
      "Ġonly": 747,
      "pec": 748,
      "Ġcons": 749,
      "Ġsy": 750,
      "Ġfe": 751,
      "urn": 752,
      "ool": 753,
      "...": 754,
      "oint": 755,
      "ref": 756,
      "the": 757,
      "li": 758,
      "Ġam": 759,
      "//": 760,
      "ced": 761,
      "Ġunder": 762,
      "18": 763,
      "Ġhow": 764,
      "les": 765,
      "Ġbl": 766,
      "ident": 767,
      "ĠCom": 768,
      "Ġact": 769,
      "ener": 770,
      "ĠĠĠĠĠĠĠ": 771,
      "ise": 772,
      "ific": 773,
      "rough": 774,
      "Ġafter": 775,
      "ities": 776,
      "ys": 777,
      "round": 778,
      "ug": 779,
      "Ġinclud": 780,
      "Ġmod": 781,
      "ating": 782,
      "ert": 783,
      "}}": 784,
      "hat": 785,
      "ĠNew": 786,
      "ta": 787,
      "ough": 788,
      "Ġmay": 789,
      "ock": 790,
      "Ġass": 791,
      "ari": 792,
      "ular": 793,
      "ict": 794,
      "ased": 795,
      "Ġem": 796,
      "ause": 797,
      "Ġdif": 798,
      "Ġreg": 799,
      "Ġco": 800,
      "oth": 801,
      "11": 802,
      "Ġprov": 803,
      "Ġwhere": 804,
      "Ġplay": 805,
      "Ġinv": 806,
      "ty": 807,
      "Ġmost": 808,
      "ata": 809,
      "(\\": 810,
      "âĢľ": 811,
      "ĠRe": 812,
      "Ġob": 813,
      "als": 814,
      "Ġhim": 815,
      "ward": 816,
      "ork": 817,
      "Ġfl": 818,
      "Ġatt": 819,
      "pro": 820,
      "ative": 821,
      "stem": 822,
      "ĠThis": 823,
      ".âĢĿ": 824,
      "wn": 825,
      "Ġsub": 826,
      "Ġph": 827,
      "itt": 828,
      "Ġthrough": 829,
      "Ġrel": 830,
      "Ġback": 831,
      "elf": 832,
      "Ġstud": 833,
      "ĠPro": 834,
      "ility": 835,
      "ments": 836,
      "pr": 837,
      "egin": 838,
      "ited": 839,
      "get": 840,
      "Ġadd": 841,
      "Ġthese": 842,
      "ublic": 843,
      "oss": 844,
      "--": 845,
      "day": 846,
      "Ġcould": 847,
      "Ġpol": 848,
      "Ġshow": 849,
      "land": 850,
      "Ġsuch": 851,
      "Ġsec": 852,
      "ĠAr": 853,
      "15": 854,
      "Ġset": 855,
      "Ġsupp": 856,
      "ĉĉ": 857,
      "und": 858,
      "ex": 859,
      "begin": 860,
      "ures": 861,
      "Ġinc": 862,
      "fr": 863,
      "ution": 864,
      "arch": 865,
      "Ġac": 866,
      "anc": 867,
      "Ġsee": 868,
      "Ġyears": 869,
      "Ġwell": 870,
      "Ġtra": 871,
      "uring": 872,
      "Ġpres": 873,
      "Ġtrans": 874,
      "ife": 875,
      "ower": 876,
      "ange": 877,
      "iel": 878,
      "up": 879,
      "ily": 880,
      "Ġneed": 881,
      "ied": 882,
      "'t": 883,
      "hip": 884,
      "Ġknow": 885,
      "ollow": 886,
      "Ġdef": 887,
      "Ġrem": 888,
      "cal": 889,
      "Ġthen": 890,
      "cess": 891,
      "Ġ[": 892,
      "ull": 893,
      "hen": 894,
      "ible": 895,
      "uch": 896,
      "ues": 897,
      "right": 898,
      "io": 899,
      "ivers": 900,
      "imes": 901,
      "Ġprodu": 902,
      "its": 903,
      "ĠDe": 904,
      "Th": 905,
      "Ġinter": 906,
      "ren": 907,
      "ix": 908,
      "inal": 909,
      "Ġevery": 910,
      "ement": 911,
      "Ġnow": 912,
      "riv": 913,
      ")$": 914,
      "_{\\": 915,
      "ts": 916,
      "Ġeff": 917,
      "ful": 918,
      "any": 919,
      "ween": 920,
      "Ġagain": 921,
      "ient": 922,
      "text": 923,
      "ars": 924,
      "Ġ|": 925,
      "ract": 926,
      "hes": 927,
      "velop": 928,
      "ĠAl": 929,
      "man": 930,
      "Ġpr": 931,
      "Ġ<": 932,
      "ins": 933,
      ");": 934,
      "ĠSe": 935,
      "ash": 936,
      "other": 937,
      "ner": 938,
      "30": 939,
      "16": 940,
      "Ġdid": 941,
      "Ġent": 942,
      "air": 943,
      "ĠSh": 944,
      "oun": 945,
      "Ġeven": 946,
      "Ġcol": 947,
      "ax": 948,
      "aking": 949,
      "ption": 950,
      "Ġdiffere": 951,
      "Ġbu": 952,
      "erson": 953,
      "fore": 954,
      "Ġdec": 955,
      "ting": 956,
      "ble": 957,
      "ah": 958,
      "ĠAn": 959,
      "Ġsm": 960,
      "ince": 961,
      "view": 962,
      "ww": 963,
      "Ġbetween": 964,
      "}{": 965,
      "Ġlook": 966,
      "ism": 967,
      "ices": 968,
      "Ġend": 969,
      "chool": 970,
      "line": 971,
      "Ġsur": 972,
      "Ġmany": 973,
      "ank": 974,
      "Ġbeing": 975,
      "ĠAnd": 976,
      "over": 977,
      "Ġuse": 978,
      "Ġret": 979,
      "ason": 980,
      "ines": 981,
      "meric": 982,
      "Ġsystem": 983,
      "14": 984,
      "Ġway": 985,
      "Ġright": 986,
      "Ġfollow": 987,
      "Ġnum": 988,
      "ience": 989,
      "els": 990,
      "ield": 991,
      "Ġchar": 992,
      "Ġmake": 993,
      "Ġform": 994,
      "Ġvery": 995,
      "oh": 996,
      "Ġ{": 997,
      "enc": 998,
      "Ġserv": 999,
      "equ": 1000,
      "alth": 1001,
      "17": 1002,
      "formation": 1003,
      "Ġbecause": 1004,
      "13": 1005,
      "Ġdet": 1006,
      "con": 1007,
      "Ġloc": 1008,
      "pos": 1009,
      "Ġshould": 1010,
      "uss": 1011,
      "tt": 1012,
      "ĠTr": 1013,
      "gan": 1014,
      "Ġwant": 1015,
      "Ġhigh": 1016,
      "Ġsim": 1017,
      "Ġspec": 1018,
      "},": 1019,
      "ek": 1020,
      "ple": 1021,
      "Ġgu": 1022,
      ",âĢĿ": 1023,
      "uth": 1024,
      "=\"": 1025,
      "ists": 1026,
      "Ġbr": 1027,
      "irect": 1028,
      "Ġke": 1029,
      "ox": 1030,
      "ven": 1031,
      "Ġworld": 1032,
      "sp": 1033,
      "Ġfun": 1034,
      "way": 1035,
      "Ġsign": 1036,
      "Ġown": 1037,
      "Ġcor": 1038,
      "Ġexper": 1039,
      "Ġart": 1040,
      "Ġhel": 1041,
      "Ġused": 1042,
      "oci": 1043,
      "ale": 1044,
      "ature": 1045,
      "ives": 1046,
      "Ġinst": 1047,
      "We": 1048,
      "atch": 1049,
      "der": 1050,
      "iness": 1051,
      "raph": 1052,
      "Ġlong": 1053,
      "Ġdoes": 1054,
      "Ġdisc": 1055,
      "sc": 1056,
      "Ġcall": 1057,
      "Ġmon": 1058,
      "Ġval": 1059,
      "Ġpoint": 1060,
      "Ġdist": 1061,
      "ined": 1062,
      "ology": 1063,
      "://": 1064,
      "abel": 1065,
      "frac": 1066,
      "ĠFor": 1067,
      "ave": 1068,
      "Ġgener": 1069,
      "ral": 1070,
      "ĠCl": 1071,
      "ĠLe": 1072,
      "ĠSc": 1073,
      "rest": 1074,
      "Ġstr": 1075,
      "ode": 1076,
      "Ġbel": 1077,
      "cite": 1078,
      "Ġmuch": 1079,
      "ton": 1080,
      "roup": 1081,
      "Ġthose": 1082,
      "Ġclass": 1083,
      "Ġgood": 1084,
      "âĢ¦": 1085,
      "Ġstart": 1086,
      ".,": 1087,
      "Ġthink": 1088,
      "Ġresult": 1089,
      "led": 1090,
      "Ġlead": 1091,
      "Ġmem": 1092,
      "ize": 1093,
      "pen": 1094,
      "Ġmade": 1095,
      "ather": 1096,
      "chn": 1097,
      "Ġra": 1098,
      "199": 1099,
      "Ġdown": 1100,
      "Ġdata": 1101,
      "Ġext": 1102,
      "25": 1103,
      "Ġeach": 1104,
      "ck": 1105,
      "Ġcount": 1106,
      "Ġbefore": 1107,
      "ĠAmeric": 1108,
      "eq": 1109,
      "ets": 1110,
      "Ġgr": 1111,
      "Ġcur": 1112,
      "ĠAs": 1113,
      "ctions": 1114,
      "ouse": 1115,
      "Ġdon": 1116,
      "Ġinte": 1117,
      "ten": 1118,
      "ĠâĢĺ": 1119,
      "Ġ'": 1120,
      "ection": 1121,
      "to": 1122,
      "ann": 1123,
      "Ġmin": 1124,
      "Ġhere": 1125,
      "Ġdevelop": 1126,
      "Ġread": 1127,
      "rm": 1128,
      "ames": 1129,
      "cent": 1130,
      "Ġlast": 1131,
      "ious": 1132,
      "of": 1133,
      "000": 1134,
      "ever": 1135,
      "Ġser": 1136,
      "ages": 1137,
      "Ġfil": 1138,
      "alk": 1139,
      "Ġfam": 1140,
      "ically": 1141,
      "oot": 1142,
      "Ġboth": 1143,
      "Ġwhile": 1144,
      "St": 1145,
      "let": 1146,
      "gram": 1147,
      "ized": 1148,
      "ern": 1149,
      "ters": 1150,
      "ĠZ": 1151,
      "ision": 1152,
      "Ġmed": 1153,
      "Ġear": 1154,
      "2019": 1155,
      "gy": 1156,
      "orn": 1157,
      "Ġrequ": 1158,
      "usiness": 1159,
      "ĠYou": 1160,
      "Ġsame": 1161,
      "ital": 1162,
      "ĠQ": 1163,
      "ross": 1164,
      "iversity": 1165,
      "Ġdifferent": 1166,
      "Ġhelp": 1167,
      "Ġed": 1168,
      "ĠInd": 1169,
      "vent": 1170,
      "21": 1171,
      "Ġcar": 1172,
      "Ġexp": 1173,
      "ually": 1174,
      "rent": 1175,
      "ness": 1176,
      "ger": 1177,
      "Ġfind": 1178,
      "read": 1179,
      "mathb": 1180,
      "ĠĠĠĠĠĠĠĠĠĠĠĠĠĠĠĠ": 1181,
      "au": 1182,
      "nce": 1183,
      "Ġthree": 1184,
      "ute": 1185,
      "ĠAd": 1186,
      "Ġrep": 1187,
      "amb": 1188,
      "Ġappro": 1189,
      "az": 1190,
      "ms": 1191,
      "ered": 1192,
      "Ġfound": 1193,
      "ruct": 1194,
      "</": 1195,
      "ĠBut": 1196,
      "Ġgreat": 1197,
      "Ġsupport": 1198,
      "ĠIs": 1199,
      "50": 1200,
      "app": 1201,
      "ĠBl": 1202,
      "Ġ*": 1203,
      "Ġreal": 1204,
      "2018": 1205,
      "Ġ+": 1206,
      "ER": 1207,
      "Ġstill": 1208,
      "Ġvi": 1209,
      "ĠâĢĶ": 1210,
      "Ġcent": 1211,
      "ĠWh": 1212,
      "akes": 1213,
      "label": 1214,
      "fig": 1215,
      "Ġlar": 1216,
      "ght": 1217,
      "Ġcommun": 1218,
      "Ġtake": 1219,
      "ik": 1220,
      "Ġfin": 1221,
      "ants": 1222,
      "It": 1223,
      "ĠPh": 1224,
      "Ġreport": 1225,
      "Ġpublic": 1226,
      "Ġinformation": 1227,
      "Ġsay": 1228,
      "ering": 1229,
      "Ġfact": 1230,
      "Ġpartic": 1231,
      "Ġsom": 1232,
      "ron": 1233,
      "Ġhand": 1234,
      "Ġteam": 1235,
      "ural": 1236,
      "ier": 1237,
      "Ġduring": 1238,
      ",\\": 1239,
      "Ġsol": 1240,
      "cept": 1241,
      "$,": 1242,
      "Ġperson": 1243,
      "arr": 1244,
      "aj": 1245,
      "ĠFr": 1246,
      "ared": 1247,
      "ator": 1248,
      "Ġconst": 1249,
      "arm": 1250,
      "24": 1251,
      "ots": 1252,
      "ret": 1253,
      "ished": 1254,
      "ote": 1255,
      "Ġaround": 1256,
      "ved": 1257,
      "$.": 1258,
      "ases": 1259,
      "part": 1260,
      ".\"": 1261,
      "mber": 1262,
      "Ġsl": 1263,
      "Ġlife": 1264,
      "mb": 1265,
      "This": 1266,
      "âĢĵ": 1267,
      "Ġsecond": 1268,
      "Ġexpl": 1269,
      "Ġperform": 1270,
      "Ġgl": 1271,
      "Ġinf": 1272,
      "mathcal": 1273,
      "equation": 1274,
      "Ġnumber": 1275,
      "ĠCon": 1276,
      "Ġvari": 1277,
      "Ġcontin": 1278,
      "Ġequ": 1279,
      "Ġday": 1280,
      "ired": 1281,
      "ump": 1282,
      "ĠPl": 1283,
      "ety": 1284,
      "Ġsays": 1285,
      "Ġpat": 1286,
      "eb": 1287,
      "Ġav": 1288,
      "ane": 1289,
      "Ġcour": 1290,
      "}.": 1291,
      "ĠEx": 1292,
      "Ġoper": 1293,
      "ina": 1294,
      "usic": 1295,
      "Ġeffect": 1296,
      "by": 1297,
      "Ġmark": 1298,
      "Ġprovid": 1299,
      "here": 1300,
      "Ġcre": 1301,
      "Ġbook": 1302,
      "par": 1303,
      "Ġref": 1304,
      "ional": 1305,
      "Ġusing": 1306,
      "Ġagainst": 1307,
      "Ġbest": 1308,
      "Ġgame": 1309,
      "att": 1310,
      "Ġrun": 1311,
      "eta": 1312,
      "Ġstate": 1313,
      "Ġpar": 1314,
      "ying": 1315,
      "Ġprocess": 1316,
      "ially": 1317,
      "bers": 1318,
      "Ġ}": 1319,
      "ense": 1320,
      "eng": 1321,
      "rol": 1322,
      "Ġi": 1323,
      "ration": 1324,
      "ization": 1325,
      "Ġresp": 1326,
      "ĠComm": 1327,
      "22": 1328,
      "ody": 1329,
      "ĠMar": 1330,
      "Ġche": 1331,
      "orth": 1332,
      "Ġest": 1333,
      "ency": 1334,
      "ley": 1335,
      "outh": 1336,
      "ving": 1337,
      "Ġcase": 1338,
      "iven": 1339,
      "Ġty": 1340,
      "Ġchild": 1341,
      "son": 1342,
      "Ġins": 1343,
      "left": 1344,
      "min": 1345,
      "Ġ.": 1346,
      "Ġincluding": 1347,
      "ĠMay": 1348,
      "Ġvis": 1349,
      "ĠTe": 1350,
      "ĠRes": 1351,
      "ĠShe": 1352,
      "ohn": 1353,
      "ĠCol": 1354,
      "2017": 1355,
      "illion": 1356,
      "})": 1357,
      "ember": 1358,
      "bs": 1359,
      "Ġpost": 1360,
      "less": 1361,
      "âĢĶ": 1362,
      "Ġreally": 1363,
      "Ġ/": 1364,
      "Ġsince": 1365,
      "Ġwrit": 1366,
      "omen": 1367,
      "Ġca": 1368,
      "reen": 1369,
      "ining": 1370,
      "nment": 1371,
      "ged": 1372,
      "Ġopen": 1373,
      "ĠUS": 1374,
      "ission": 1375,
      "be": 1376,
      "ves": 1377,
      "IN": 1378,
      "}(": 1379,
      "Ġgoing": 1380,
      "atic": 1381,
      "Ġrele": 1382,
      "ĠHow": 1383,
      "Ġimp": 1384,
      "rist": 1385,
      "une": 1386,
      "}_": 1387,
      "med": 1388,
      "Ġcr": 1389,
      "Ġincre": 1390,
      "Ġgover": 1391,
      "ĠSp": 1392,
      "23": 1393,
      "Ġcare": 1394,
      "Ġtechn": 1395,
      "yn": 1396,
      "}^": 1397,
      "uro": 1398,
      "lear": 1399,
      "~\\": 1400,
      "err": 1401,
      "Ġprogram": 1402,
      "oad": 1403,
      "pha": 1404,
      "Ġposs": 1405,
      "ĠUniversity": 1406,
      "ott": 1407,
      "Ġlaw": 1408,
      "Ġdirect": 1409,
      "ĠIf": 1410,
      "Ġdel": 1411,
      "Ġstand": 1412,
      "Ġele": 1413,
      "Ġmov": 1414,
      "Ġpos": 1415,
      "ON": 1416,
      "self": 1417,
      "Ġiss": 1418,
      "Ġel": 1419,
      "ĠThey": 1420,
      "Ġmain": 1421,
      "arn": 1422,
      "2016": 1423,
      "ĠBe": 1424,
      "Ġpower": 1425,
      "gest": 1426,
      "Ġpass": 1427,
      "Ġdesign": 1428,
      "ively": 1429,
      "ality": 1430,
      "acy": 1431,
      "....": 1432,
      "Ġmat": 1433,
      "sh": 1434,
      "Ġbusiness": 1435,
      "ĠAll": 1436,
      "da": 1437,
      "Ġsmall": 1438,
      "Ġtoo": 1439,
      "Ġimport": 1440,
      "enn": 1441,
      "ury": 1442,
      "Ġtop": 1443,
      "Ġschool": 1444,
      "ird": 1445,
      "ample": 1446,
      "me": 1447,
      "Ġinterest": 1448,
      "Ġinvest": 1449,
      "ĠĠĠĠĠĠĠĠĠĠĠ": 1450,
      "ior": 1451,
      "Ġterm": 1452,
      "ains": 1453,
      "ober": 1454,
      "iver": 1455,
      "Ġhead": 1456,
      "iving": 1457,
      "ability": 1458,
      "put": 1459,
      "ised": 1460,
      "uthor": 1461,
      "Ġhum": 1462,
      "ling": 1463,
      "Ġann": 1464,
      "ĠÂ": 1465,
      "riend": 1466,
      "Ġpresent": 1467,
      "Ch": 1468,
      "Ġnon": 1469,
      "co": 1470,
      "br": 1471,
      "ethod": 1472,
      "Ġfew": 1473,
      "Ġhist": 1474,
      "Ġtest": 1475,
      "Ġprot": 1476,
      "Ġanother": 1477,
      "Ġrest": 1478,
      "ought": 1479,
      "ways": 1480,
      "Ġlevel": 1481,
      "Ġsing": 1482,
      "Ġhapp": 1483,
      "Ġadv": 1484,
      "Ġlist": 1485,
      "itions": 1486,
      "Ġplace": 1487,
      "Ġpop": 1488,
      "alpha": 1489,
      "Ġdem": 1490,
      "Ġhome": 1491,
      "ified": 1492,
      "Re": 1493,
      "ĠOr": 1494,
      "ained": 1495,
      "ider": 1496,
      "Ġallow": 1497,
      "Ġbuild": 1498,
      "vious": 1499,
      "ĠCent": 1500,
      "Ġtri": 1501,
      "ĠMan": 1502,
      "eter": 1503,
      "ocial": 1504,
      "40": 1505,
      "ittle": 1506,
      "AR": 1507,
      "que": 1508,
      "2015": 1509,
      "ately": 1510,
      "Ġweek": 1511,
      "resent": 1512,
      "ST": 1513,
      "Ġmonth": 1514,
      "ertain": 1515,
      "Ġgroup": 1516,
      "ource": 1517,
      "urs": 1518,
      "Ġleg": 1519,
      "ccess": 1520,
      "AT": 1521,
      "lex": 1522,
      "Ġrece": 1523,
      "Ġmust": 1524,
      "uly": 1525,
      "ploy": 1526,
      "ĠĠĠĠĠ": 1527,
      "Ġproject": 1528,
      "uck": 1529,
      "Ġreturn": 1530,
      "Ġconf": 1531,
      "Ġanal": 1532,
      "Ġfour": 1533,
      "26": 1534,
      "ene": 1535,
      "for": 1536,
      "Ġnext": 1537,
      "Ġwithout": 1538,
      "Ġbig": 1539,
      "sy": 1540,
      "Ġcharact": 1541,
      "198": 1542,
      "icle": 1543,
      "ĠX": 1544,
      "27": 1545,
      "ĠOn": 1546,
      "Ġopp": 1547,
      "28": 1548,
      "work": 1549,
      "oard": 1550,
      "por": 1551,
      "ulation": 1552,
      "Ġprof": 1553,
      "ĠEng": 1554,
      "irc": 1555,
      "ories": 1556,
      "Ġstat": 1557,
      "Ġspe": 1558,
      "orld": 1559,
      "Ġbeh": 1560,
      "Ġbre": 1561,
      "ording": 1562,
      "Ġorgan": 1563,
      "ubl": 1564,
      "ĠJan": 1565,
      "Ġmet": 1566,
      "Ġgrow": 1567,
      "ream": 1568,
      "stand": 1569,
      "Ġcurrent": 1570,
      "ium": 1571,
      "Ġproble": 1572,
      "thing": 1573,
      ")\\": 1574,
      "ĠTo": 1575,
      "ething": 1576,
      "aim": 1577,
      "AN": 1578,
      "gr": 1579,
      "Ġmodel": 1580,
      "2020": 1581,
      "ĠJohn": 1582,
      "Ġrese": 1583,
      "Ġquest": 1584,
      "2014": 1585,
      "ee": 1586,
      "Ġseem": 1587,
      "Ġnever": 1588,
      "ole": 1589,
      "ailable": 1590,
      "OR": 1591,
      "Ġfunction": 1592,
      "ently": 1593,
      "inc": 1594,
      "Ġorder": 1595,
      "Ġhealth": 1596,
      "ĠRep": 1597,
      "Ġlet": 1598,
      "htt": 1599,
      "Ġfamily": 1600,
      "ney": 1601,
      "Ġfr": 1602,
      "sub": 1603,
      "Ġname": 1604,
      "ternational": 1605,
      "ention": 1606,
      "elta": 1607,
      "Ġsk": 1608,
      "Ġput": 1609,
      "ential": 1610,
      "ats": 1611,
      "Ġbetter": 1612,
      "Ġwin": 1613,
      "iron": 1614,
      "ived": 1615,
      "Ġelect": 1616,
      "Ġdesc": 1617,
      "29": 1618,
      "Ġold": 1619,
      "Ġstory": 1620,
      "Ġbro": 1621,
      "100": 1622,
      "Ġcome": 1623,
      "Ġfollowing": 1624,
      "Ġcap": 1625,
      "ai": 1626,
      "Ġwithin": 1627,
      "ery": 1628,
      "Ġcompany": 1629,
      "\">": 1630,
      "ising": 1631,
      "60": 1632,
      "$\\": 1633,
      "As": 1634,
      "Ġline": 1635,
      "Ġbelie": 1636,
      "ably": 1637,
      "Ġgiven": 1638,
      "Ġlocal": 1639,
      "ĠCan": 1640,
      "Ġdep": 1641,
      "amma": 1642,
      "ambda": 1643,
      "ivid": 1644,
      "ients": 1645,
      "Ġcond": 1646,
      "Ġsomething": 1647,
      "Ġmight": 1648,
      "ights": 1649,
      "ination": 1650,
      "Ġoffic": 1651,
      "ĠThere": 1652,
      "ĠAmerican": 1653,
      "Ġet": 1654,
      "Ġthings": 1655,
      "Ġless": 1656,
      "ĠCar": 1657,
      "Ġmanag": 1658,
      "Ġgot": 1659,
      "Ġleft": 1660,
      "conom": 1661,
      "ffic": 1662,
      "ĠMed": 1663,
      "ĠUnited": 1664,
      "Ġfac": 1665,
      "urch": 1666,
      "ĠSu": 1667,
      "ho": 1668,
      "www": 1669,
      "Ġexpect": 1670,
      "set": 1671,
      "**": 1672,
      "Ġturn": 1673,
      "ajor": 1674,
      "ope": 1675,
      "ĠNo": 1676,
      "ĠPr": 1677,
      "Ġmult": 1678,
      "Ġhard": 1679,
      "Ġfield": 1680,
      "ĠBr": 1681,
      "Ġproduct": 1682,
      "Ġide": 1683,
      "2013": 1684,
      "rop": 1685,
      "_\\": 1686,
      "val": 1687,
      "gin": 1688,
      "Ġident": 1689,
      "ĠPol": 1690,
      "Ġrecord": 1691,
      "Ġview": 1692,
      "ES": 1693,
      "Ġbas": 1694,
      "urther": 1695,
      "ument": 1696,
      "Ġproper": 1697,
      "Ġmusic": 1698,
      "ĠCo": 1699,
      "arent": 1700,
      "rict": 1701,
      "Ġplan": 1702,
      "ograph": 1703,
      "Ġlittle": 1704,
      "Ġeng": 1705,
      "Ġgovernment": 1706,
      "itive": 1707,
      ",\"": 1708,
      "Ġchang": 1709,
      "Ġ\\\\": 1710,
      "ush": 1711,
      "Ġprom": 1712,
      "ony": 1713,
      "tr": 1714,
      "Ġaff": 1715,
      "Ġnear": 1716,
      "org": 1717,
      "Ġword": 1718,
      "Ġfull": 1719,
      "igma": 1720,
      "Ġavailable": 1721,
      "ĠGr": 1722,
      "Ġalways": 1723,
      "ison": 1724,
      "An": 1725,
      "Ġorig": 1726,
      "mu": 1727,
      "ourn": 1728,
      "Ġnet": 1729,
      "Ġbased": 1730,
      "abl": 1731,
      "ĠThat": 1732,
      "ries": 1733,
      "Ġimportant": 1734,
      "Ġfeel": 1735,
      "Ġkeep": 1736,
      "Ġ#": 1737,
      "ĠAt": 1738,
      "Ġchange": 1739,
      "Ġmethod": 1740,
      "ateg": 1741,
      "yl": 1742,
      "ĠFl": 1743,
      "ference": 1744,
      "mathbb": 1745,
      "Ġlim": 1746,
      "idd": 1747,
      "ead": 1748,
      "iam": 1749,
      "Ġpolit": 1750,
      "ware": 1751,
      "Ġlot": 1752,
      "ball": 1753,
      "mm": 1754,
      "2012": 1755,
      "Ġmar": 1756,
      "Ġeas": 1757,
      "ister": 1758,
      "ĠOct": 1759,
      "Ġhtt": 1760,
      "icy": 1761,
      "EN": 1762,
      "osp": 1763,
      "ĠApr": 1764,
      "af": 1765,
      "Ġactiv": 1766,
      "ured": 1767,
      "Ġask": 1768,
      "=\\": 1769,
      "Ġmeas": 1770,
      "eting": 1771,
      "oney": 1772,
      "ĠGu": 1773,
      "uture": 1774,
      "Ġmean": 1775,
      "ike": 1776,
      "itional": 1777,
      "Ġla": 1778,
      "ours": 1779,
      "ĠSo": 1780,
      "ideo": 1781,
      "}_{": 1782,
      "Ġalong": 1783,
      "oor": 1784,
      "Ġfree": 1785,
      "aster": 1786,
      "raw": 1787,
      "ended": 1788,
      "ians": 1789,
      "wards": 1790,
      "oid": 1791,
      "ĠEd": 1792,
      "Ġcountry": 1793,
      "By": 1794,
      "Ġz": 1795,
      "til": 1796,
      "Ġcalled": 1797,
      "Ġcost": 1798,
      "str": 1799,
      "For": 1800,
      "ales": 1801,
      "Ġconc": 1802,
      "Ġdev": 1803,
      "ĠSy": 1804,
      "ĠChrist": 1805,
      "Ġwater": 1806,
      "AS": 1807,
      "Ġ:": 1808,
      "ĠAug": 1809,
      "ands": 1810,
      "iting": 1811,
      "ĠApp": 1812,
      "Ġcontrol": 1813,
      "uary": 1814,
      "Ġstudy": 1815,
      "ID": 1816,
      "ilar": 1817,
      "Ġfar": 1818,
      "Ġdays": 1819,
      "vert": 1820,
      "Ġlove": 1821,
      "AL": 1822,
      "ĠAss": 1823,
      "used": 1824,
      "wit": 1825,
      "Ġresults": 1826,
      "lection": 1827,
      "Ġsit": 1828,
      "ien": 1829,
      "not": 1830,
      "ĠEuro": 1831,
      "\",": 1832,
      "ances": 1833,
      "alf": 1834,
      "side": 1835,
      "Ġvalue": 1836,
      "Ġpay": 1837,
      "Ġseason": 1838,
      "viron": 1839,
      "ards": 1840,
      "197": 1841,
      "Ġfriend": 1842,
      "duct": 1843,
      "nect": 1844,
      "ĠWorld": 1845,
      "ĠWith": 1846,
      "----": 1847,
      "imate": 1848,
      "Ġve": 1849,
      "ustom": 1850,
      "Ġocc": 1851,
      "rug": 1852,
      "agn": 1853,
      "ĠYork": 1854,
      "Ã©": 1855,
      "obal": 1856,
      "}^{": 1857,
      "aces": 1858,
      "Ġleast": 1859,
      "Ġaccess": 1860,
      "ending": 1861,
      "my": 1862,
      "bf": 1863,
      "Ġlarge": 1864,
      "ribut": 1865,
      "ĠSte": 1866,
      "Ġcell": 1867,
      "irl": 1868,
      "ĠCount": 1869,
      "ĠState": 1870,
      "sec": 1871,
      "Ġmove": 1872,
      "Ġopt": 1873,
      "aps": 1874,
      "Ġmajor": 1875,
      "Ġwhy": 1876,
      "Ġarea": 1877,
      "Ġfund": 1878,
      "2011": 1879,
      "He": 1880,
      "itor": 1881,
      "urity": 1882,
      "-\\": 1883,
      "Ġsuccess": 1884,
      "Ġimpro": 1885,
      "ortun": 1886,
      "Ġpot": 1887,
      "ither": 1888,
      "Ġlik": 1889,
      "phi": 1890,
      "aff": 1891,
      "Ġseries": 1892,
      "Ph": 1893,
      "ready": 1894,
      "veral": 1895,
      "ĠNational": 1896,
      "Ġmillion": 1897,
      "Ġacross": 1898,
      "ges": 1899,
      "ĠAb": 1900,
      "ows": 1901,
      "Ġhuman": 1902,
      "ĠJuly": 1903,
      "Ġes": 1904,
      "oman": 1905,
      "Ġevent": 1906,
      "Ġpa": 1907,
      "ĠMc": 1908,
      "Ġaway": 1909,
      "Ġfilm": 1910,
      "ĠMarch": 1911,
      "bar": 1912,
      "ored": 1913,
      "Ġchildren": 1914,
      "ival": 1915,
      "ĠNews": 1916,
      "ones": 1917,
      "Ġcommunity": 1918,
      "Ġwomen": 1919,
      "Ġknown": 1920,
      "ĠJune": 1921,
      "ĠEn": 1922,
      "Ġparticular": 1923,
      "rem": 1924,
      "section": 1925,
      "Ġspace": 1926,
      "Ġpast": 1927,
      "Ġant": 1928,
      "Ġrepresent": 1929,
      "IC": 1930,
      "Ġx": 1931,
      "Ġexample": 1932,
      "iod": 1933,
      "ĠAust": 1934,
      "Ġpract": 1935,
      "Pro": 1936,
      "Ġservice": 1937,
      "Ex": 1938,
      "Ġfore": 1939,
      "2010": 1940,
      "Ġrespect": 1941,
      "Ġener": 1942,
      "yle": 1943,
      "ster": 1944,
      "idence": 1945,
      "reg": 1946,
      "Ġdi": 1947,
      "Ġthought": 1948,
      "35": 1949,
      "Ġphot": 1950,
      "Ġexperience": 1951,
      "orts": 1952,
      "ĠPres": 1953,
      "Ġmaking": 1954,
      "^{\\": 1955,
      "olution": 1956,
      "Ġsocial": 1957,
      "Ġtimes": 1958,
      "Ġland": 1959,
      "ĠSchool": 1960,
      "ides": 1961,
      "Ġprovide": 1962,
      "ators": 1963,
      "ĠMin": 1964,
      "Ġ{\\": 1965,
      "ĠCity": 1966,
      "aut": 1967,
      "rew": 1968,
      "Ġdiscuss": 1969,
      "pm": 1970,
      "Ġhy": 1971,
      "Ġcho": 1972,
      "Ġuntil": 1973,
      "Ġgive": 1974,
      "ele": 1975,
      "ched": 1976,
      "What": 1977,
      "back": 1978,
      "ift": 1979,
      "Ġclear": 1980,
      "If": 1981,
      "Ġexc": 1982,
      "ĠFeb": 1983,
      "Ġyoung": 1984,
      "Ġresearch": 1985,
      "Ġindust": 1986,
      "Ġredu": 1987,
      "Ġlater": 1988,
      "Ġvers": 1989,
      "che": 1990,
      "ape": 1991,
      "80": 1992,
      "Ġable": 1993,
      "Ġobs": 1994,
      "Ġauthor": 1995,
      "Ġalready": 1996,
      "Ġclaim": 1997,
      "Ġclos": 1998,
      "ĠStates": 1999,
      "Ġcharacter": 2000,
      "Ġtem": 2001,
      "Ġcity": 2002,
      "Ġ--": 2003,
      "rel": 2004,
      "Ġdidn": 2005,
      "pi": 2006,
      "Ġmembers": 2007,
      "Ġ@": 2008,
      "Ġhold": 2009,
      "Ġapplic": 2010,
      "idth": 2011,
      "align": 2012,
      "lambda": 2013,
      "Ġworking": 2014,
      "ĠMe": 2015,
      "ĠEurope": 2016,
      "vironment": 2017,
      "bl": 2018,
      "Ġfre": 2019,
      "ask": 2020,
      "Ġlow": 2021,
      "Ġmil": 2022,
      "eps": 2023,
      "45": 2024,
      "Ġshort": 2025,
      "Ġseveral": 2026,
      "play": 2027,
      "ript": 2028,
      "Ġcamp": 2029,
      "ĠGe": 2030,
      "ĠNe": 2031,
      "ung": 2032,
      "Ġhaving": 2033,
      "Ġthough": 2034,
      "Ġearly": 2035,
      "Ġpriv": 2036,
      "Ġstrong": 2037,
      "Ġtoday": 2038,
      "eral": 2039,
      "Ġinvol": 2040,
      "ources": 2041,
      "stit": 2042,
      "Ġsum": 2043,
      "Ġpossible": 2044,
      "ysis": 2045,
      "ĠSec": 2046,
      "Ġaut": 2047,
      "Ġreview": 2048,
      "ĠWill": 2049,
      "Ġunderstand": 2050,
      "aken": 2051,
      "Ġemploy": 2052,
      "de": 2053,
      "ipp": 2054,
      "comm": 2055,
      "IT": 2056,
      "ĠApril": 2057,
      "ĠWhat": 2058,
      "Ġtell": 2059,
      "Ġbecome": 2060,
      "Ġhig": 2061,
      "hy": 2062,
      "Ġcult": 2063,
      "gether": 2064,
      "Ġtogether": 2065,
      "Ġside": 2066,
      "go": 2067,
      "Ġinclude": 2068,
      "ume": 2069,
      "Ġfoc": 2070,
      "ĠSept": 2071,
      "ĠCal": 2072,
      "atures": 2073,
      "book": 2074,
      "reet": 2075,
      "roll": 2076,
      "Ġmom": 2077,
      "rodu": 2078,
      "aterial": 2079,
      "ĠPart": 2080,
      "ille": 2081,
      "Ġsingle": 2082,
      "ification": 2083,
      "Ġever": 2084,
      "dd": 2085,
      "Ġappear": 2086,
      "ify": 2087,
      "ued": 2088,
      "isk": 2089,
      "Ġcourse": 2090,
      "rain": 2091,
      "ividual": 2092,
      "Ġtot": 2093,
      "Ġfuture": 2094,
      "Ġkind": 2095,
      "Al": 2096,
      "Ġthing": 2097,
      "Ġenough": 2098,
      "most": 2099,
      "ression": 2100,
      "Ġcrit": 2101,
      "Ġprob": 2102,
      "33": 2103,
      "isc": 2104,
      "Ġspecial": 2105,
      "ED": 2106,
      "raft": 2107,
      "Ġhistory": 2108,
      "Ġlight": 2109,
      "Ġair": 2110,
      "Ġdue": 2111,
      "epend": 2112,
      "mathbf": 2113,
      "Ġrad": 2114,
      "):": 2115,
      "Ġfinal": 2116,
      "ails": 2117,
      "sum": 2118,
      "verage": 2119,
      "ĠSouth": 2120,
      "ĠJanuary": 2121,
      "How": 2122,
      "ĠAg": 2123,
      "Ġseen": 2124,
      "fer": 2125,
      "Ġnews": 2126,
      "Ġstruct": 2127,
      "Ġstudents": 2128,
      "Ġdescrib": 2129,
      "Ġsignific": 2130,
      "Ġdevelopment": 2131,
      "Ġmen": 2132,
      "Ġcomb": 2133,
      "Ġeconom": 2134,
      "Com": 2135,
      "Ġabove": 2136,
      "Ġamong": 2137,
      "lu": 2138,
      "Ġoften": 2139,
      "aring": 2140,
      "Ġtreat": 2141,
      "lease": 2142,
      "sel": 2143,
      "Ġmeans": 2144,
      "ples": 2145,
      "Ġcame": 2146,
      "ovember": 2147,
      "ental": 2148,
      "You": 2149,
      "Ġwr": 2150,
      "Ġenergy": 2151,
      "lege": 2152,
      "ique": 2153,
      "ĠCont": 2154,
      "AC": 2155,
      "IS": 2156,
      "Ġmass": 2157,
      "Ġben": 2158,
      "mp": 2159,
      "ners": 2160,
      "arget": 2161,
      "31": 2162,
      "angle": 2163,
      "cember": 2164,
      "And": 2165,
      "Ġinit": 2166,
      "ĠAf": 2167,
      "Ġcou": 2168,
      "Ġvol": 2169,
      "ids": 2170,
      "Ġself": 2171,
      "tain": 2172,
      "Ġtrad": 2173,
      "Ġcreat": 2174,
      "Ġtalk": 2175,
      "Ġcertain": 2176,
      "Ġfurther": 2177,
      "ĠHowever": 2178,
      "angu": 2179,
      "ills": 2180,
      "Ġgeneral": 2181,
      "ĠNorth": 2182,
      "Ġdr": 2183,
      "ĠOne": 2184,
      "face": 2185,
      "uk": 2186,
      "ada": 2187,
      "Ġsuper": 2188,
      "ler": 2189,
      "ilon": 2190,
      "Ġsug": 2191,
      "Ġnight": 2192,
      "90": 2193,
      "Ġservices": 2194,
      "icro": 2195,
      "ĠPar": 2196,
      "Ġproblem": 2197,
      "abor": 2198,
      "uff": 2199,
      "Ġfive": 2200,
      "Ġtook": 2201,
      "Ġsimilar": 2202,
      "ham": 2203,
      "RE": 2204,
      "ounc": 2205,
      "On": 2206,
      "ĠArt": 2207,
      "ĠWar": 2208,
      "Ġjob": 2209,
      "__": 2210,
      "ocr": 2211,
      "Ġmakes": 2212,
      "ĠCor": 2213,
      "'re": 2214,
      "Ġassoci": 2215,
      "Ġothers": 2216,
      "hel": 2217,
      "Ġcal": 2218,
      "Ġindividual": 2219,
      "where": 2220,
      "ĠAugust": 2221,
      "ches": 2222,
      "==": 2223,
      "Ġmarket": 2224,
      "Ġmedia": 2225,
      "Ġaccount": 2226,
      "ĠAir": 2227,
      "US": 2228,
      "Ġtre": 2229,
      "ĠOctober": 2230,
      "Ġep": 2231,
      "2009": 2232,
      "ological": 2233,
      "now": 2234,
      "ĠGl": 2235,
      "illed": 2236,
      "70": 2237,
      "Ġdeterm": 2238,
      "Ġwon": 2239,
      "istic": 2240,
      "ogn": 2241,
      "Ġsure": 2242,
      "ga": 2243,
      "Ġsound": 2244,
      "ĠTrump": 2245,
      "ĠSeptember": 2246,
      "sigma": 2247,
      "ĠWhen": 2248,
      "ĠBy": 2249,
      "Ġsaf": 2250,
      "Con": 2251,
      "ama": 2252,
      "ief": 2253,
      "Ġdoesn": 2254,
      "Ġsong": 2255,
      "ging": 2256,
      "Ġdeath": 2257,
      "ilde": 2258,
      "mathrm": 2259,
      "beta": 2260,
      "uation": 2261,
      "Ġprevious": 2262,
      "cer": 2263,
      "Ġ>": 2264,
      "Ġperiod": 2265,
      "ĠMy": 2266,
      "clus": 2267,
      "ule": 2268,
      "iter": 2269,
      "Ġwar": 2270,
      "Ġ,": 2271,
      "lin": 2272,
      "Ġcustom": 2273,
      "ĠServ": 2274,
      "ĠDav": 2275,
      "iff": 2276,
      "ĠGo": 2277,
      "ournal": 2278,
      "Ġshows": 2279,
      "ana": 2280,
      "earch": 2281,
      "Ġdeal": 2282,
      "Ġenc": 2283,
      "cd": 2284,
      "Ġdone": 2285,
      "ring": 2286,
      "Ġlive": 2287,
      "}{\\": 2288,
      "Ġreason": 2289,
      "Ġstop": 2290,
      "Ġpubl": 2291,
      "Ġsignificant": 2292,
      "rap": 2293,
      "Ġhappen": 2294,
      "Ġtold": 2295,
      "ĠNovember": 2296,
      "col": 2297,
      "Ġeduc": 2298,
      "Ġperformance": 2299,
      "ĠPresident": 2300,
      "Ġtype": 2301,
      "ray": 2302,
      "Ġexist": 2303,
      "01": 2304,
      "()": 2305,
      "wh": 2306,
      "Ġonce": 2307,
      "ruary": 2308,
      "Ġconsider": 2309,
      "oon": 2310,
      "ĠHouse": 2311,
      "Ġkey": 2312,
      "Ġbit": 2313,
      "bsite": 2314,
      "ĠBrit": 2315,
      "Ġobject": 2316,
      "ĠDecember": 2317,
      "aul": 2318,
      "oe": 2319,
      "Ġsite": 2320,
      "ĠBar": 2321,
      "ĠWest": 2322,
      "36": 2323,
      "Ġpoints": 2324,
      "Ġgen": 2325,
      "ĠAct": 2326,
      "Ġyet": 2327,
      "Ġpress": 2328,
      "though": 2329,
      "ribution": 2330,
      "new": 2331,
      "Ġmoney": 2332,
      "^{-": 2333,
      "Ġattack": 2334,
      "Ġrelations": 2335,
      "To": 2336,
      "Ġdri": 2337,
      "ino": 2338,
      "ĠCounty": 2339,
      "Ġ(\\": 2340,
      "Ġmot": 2341,
      "à¤": 2342,
      "Ġdom": 2343,
      "ĠQu": 2344,
      "head": 2345,
      "ĠDep": 2346,
      "ĠSch": 2347,
      "hers": 2348,
      "Ġaction": 2349,
      "There": 2350,
      "ibr": 2351,
      "Ġpred": 2352,
      "Ġlearn": 2353,
      "unch": 2354,
      "Ġcomput": 2355,
      "asing": 2356,
      "Ġlat": 2357,
      "Ġago": 2358,
      "ington": 2359,
      "Ġworks": 2360,
      "ilities": 2361,
      "ĠNot": 2362,
      "Ġvideo": 2363,
      "Ġhouse": 2364,
      "Ġtyp": 2365,
      "Ġjo": 2366,
      "ald": 2367,
      "Ġsat": 2368,
      "ĠMark": 2369,
      "empt": 2370,
      "ibility": 2371,
      "Ġannoun": 2372,
      "plic": 2373,
      "HE": 2374,
      "ĠReg": 2375,
      "Sh": 2376,
      "Ġwhether": 2377,
      "na": 2378,
      "Ġphys": 2379,
      "ruction": 2380,
      "Ġactually": 2381,
      "Ġsuggest": 2382,
      "Ġquestion": 2383,
      "ilt": 2384,
      "opy": 2385,
      "ude": 2386,
      "ondon": 2387,
      "action": 2388,
      "ĠAustral": 2389,
      "Ġthird": 2390,
      "Ġmaterial": 2391,
      "ules": 2392,
      "Ġpri": 2393,
      "34": 2394,
      "itted": 2395,
      "hib": 2396,
      "ĠComp": 2397,
      "Ġtrue": 2398,
      "Ġdeb": 2399,
      "ĠCO": 2400,
      "Ġchall": 2401,
      "New": 2402,
      "ĠAmerica": 2403,
      "\\\\": 2404,
      "Ġformer": 2405,
      "But": 2406,
      "arrow": 2407,
      "ĠThese": 2408,
      "augh": 2409,
      "2008": 2410,
      "Ġfoot": 2411,
      "sw": 2412,
      "itle": 2413,
      "ĠAm": 2414,
      "ĠPer": 2415,
      "rown": 2416,
      "aint": 2417,
      "Ġtrack": 2418,
      "AM": 2419,
      "nces": 2420,
      "resp": 2421,
      "*}": 2422,
      "gamma": 2423,
      "iction": 2424,
      "Ġwent": 2425,
      "Ġport": 2426,
      "37": 2427,
      "Ġgames": 2428,
      "ried": 2429,
      "ĠSm": 2430,
      "cast": 2431,
      "Ġdiff": 2432,
      "ĠEl": 2433,
      "Ġcomplet": 2434,
      "ĠRuss": 2435,
      "Ġpercent": 2436,
      "ris": 2437,
      "off": 2438,
      "umb": 2439,
      "ĠPe": 2440,
      "Ġfood": 2441,
      "rag": 2442,
      "Ġrole": 2443,
      "year": 2444,
      "Ġmonths": 2445,
      "imal": 2446,
      "Ġhalf": 2447,
      "ĠHealth": 2448,
      "ĠMr": 2449,
      "05": 2450,
      "big": 2451,
      "Ġinvestig": 2452,
      "]{": 2453,
      "item": 2454,
      "time": 2455,
      "^\\": 2456,
      "Ġdoc": 2457,
      "Ġlooking": 2458,
      "Ġbody": 2459,
      "irm": 2460,
      "Ġsw": 2461,
      "Ar": 2462,
      "Ġeither": 2463,
      "Ġprofess": 2464,
      "Ġconnect": 2465,
      "bum": 2466,
      "32": 2467,
      "ternal": 2468,
      "posed": 2469,
      "hern": 2470,
      "Ġmor": 2471,
      "ĠStud": 2472,
      "Ġcomes": 2473,
      "196": 2474,
      "Ġobserv": 2475,
      "ĠChar": 2476,
      "ĠDo": 2477,
      "Ġtotal": 2478,
      "Ġcompet": 2479,
      "38": 2480,
      "Ġaud": 2481,
      "urb": 2482,
      "anies": 2483,
      "utions": 2484,
      "Ġfav": 2485,
      "theta": 2486,
      "+\\": 2487,
      "atory": 2488,
      "apt": 2489,
      "ĠRec": 2490,
      "ĠFebruary": 2491,
      "Ġdoing": 2492,
      "minist": 2493,
      "Ġsix": 2494,
      "Ġcoll": 2495,
      "ouncil": 2496,
      "ends": 2497,
      "ĠMore": 2498,
      "Ġaddress": 2499,
      "Ġey": 2500,
      "Ġcommon": 2501,
      "ĠĠĠĠĠĠĠĠĠĠĠĠĠĠĠ": 2502,
      "iday": 2503,
      "ĠPark": 2504,
      "Ġstarted": 2505,
      "Ġnetwork": 2506,
      "Ġaccording": 2507,
      "ze": 2508,
      "joy": 2509,
      "ague": 2510,
      "error": 2511,
      "Ġtaken": 2512,
      "ogle": 2513,
      ")}": 2514,
      "def": 2515,
      "aur": 2516,
      "Ġface": 2517,
      "aced": 2518,
      "ormal": 2519,
      "atural": 2520,
      "Ġbi": 2521,
      "Ġterms": 2522,
      "Ġarg": 2523,
      "Ġtax": 2524,
      "onse": 2525,
      "igure": 2526,
      "ĠHar": 2527,
      "ĠKe": 2528,
      "ĠUK": 2529,
      "Ġage": 2530,
      "essage": 2531,
      "Ġabs": 2532,
      "Ġtarget": 2533,
      "07": 2534,
      "Ġindustry": 2535,
      "Ġbenef": 2536,
      "ĠHer": 2537,
      "ĠHis": 2538,
      "Ġestabl": 2539,
      "ĠInt": 2540,
      "Ġopportun": 2541,
      "chie": 2542,
      "umn": 2543,
      "ension": 2544,
      "hem": 2545,
      "Ġcontent": 2546,
      "Ġindic": 2547,
      "ĠAfric": 2548,
      "delta": 2549,
      "gress": 2550,
      "Ġmiss": 2551,
      "http": 2552,
      "elling": 2553,
      "ĠLaw": 2554,
      "based": 2555,
      "48": 2556,
      "Ġbring": 2557,
      "Ġpotential": 2558,
      "Ġbo": 2559,
      "Ġrange": 2560,
      "ael": 2561,
      "Ġmind": 2562,
      "Ġpersonal": 2563,
      "rho": 2564,
      "Ġlin": 2565,
      "99": 2566,
      "fl": 2567,
      "ĠIm": 2568,
      "Ġalmost": 2569,
      "Ġpur": 2570,
      "tau": 2571,
      "aign": 2572,
      "Ġbuilding": 2573,
      "Ġsent": 2574,
      "Ġroom": 2575,
      "ĠAfter": 2576,
      "Ġpatients": 2577,
      "ault": 2578,
      "roups": 2579,
      "Ġenvironment": 2580,
      "Ġelse": 2581,
      "figure": 2582,
      "iple": 2583,
      "utes": 2584,
      "ctor": 2585,
      "Ġintrodu": 2586,
      "aly": 2587,
      "Ġfall": 2588,
      "ociety": 2589,
      "Ġposition": 2590,
      "Ġplayers": 2591,
      "AP": 2592,
      "Ġrespons": 2593,
      "ĠBro": 2594,
      "amed": 2595,
      "quad": 2596,
      "lim": 2597,
      "Ġonline": 2598,
      "ĠMon": 2599,
      "lected": 2600,
      "Ġrather": 2601,
      "Ġdou": 2602,
      "Ġclose": 2603,
      "ĠDr": 2604,
      "Ġfail": 2605,
      "Ġcomple": 2606,
      "Ġcut": 2607,
      "leq": 2608,
      "Ġsex": 2609,
      "irt": 2610,
      ".)": 2611,
      "Ġcases": 2612,
      "Ġoriginal": 2613,
      "Ġnational": 2614,
      "key": 2615,
      "Un": 2616,
      "Ġcirc": 2617,
      "ĠMich": 2618,
      "Ġwords": 2619,
      "cy": 2620,
      "Ġofficial": 2621,
      "selves": 2622,
      "Tr": 2623,
      "Ġbegin": 2624,
      "ĠLondon": 2625,
      "ĠGerm": 2626,
      "Ġwhole": 2627,
      "Ġsystems": 2628,
      "igital": 2629,
      "pecially": 2630,
      "ĠSer": 2631,
      "Ġblack": 2632,
      "hing": 2633,
      "oud": 2634,
      "itary": 2635,
      "array": 2636,
      "39": 2637,
      "Ġvisit": 2638,
      "anks": 2639,
      "ĠKing": 2640,
      "ises": 2641,
      "ĠDes": 2642,
      "Ġissues": 2643,
      "EC": 2644,
      "Ġapproach": 2645,
      "Ġtechnology": 2646,
      "$-": 2647,
      "Ġrate": 2648,
      "ites": 2649,
      "lish": 2650,
      "Ġgetting": 2651,
      "Ġentire": 2652,
      "Ġrequire": 2653,
      "44": 2654,
      "Ġparam": 2655,
      "Ġfocus": 2656,
      "Ġtw": 2657,
      "ca": 2658,
      "anguage": 2659,
      "ĠDon": 2660,
      "aining": 2661,
      "ades": 2662,
      "55": 2663,
      "Ġbelieve": 2664,
      "Ġhom": 2665,
      "Ġheart": 2666,
      "etic": 2667,
      "Ġfront": 2668,
      "ancial": 2669,
      "ĠInternational": 2670,
      "Ġviol": 2671,
      "ĠTra": 2672,
      "ground": 2673,
      "08": 2674,
      "icles": 2675,
      "Ġwind": 2676,
      "Ġill": 2677,
      "eqref": 2678,
      "Ġbelow": 2679,
      "eal": 2680,
      "Ġwatch": 2681,
      "fect": 2682,
      "width": 2683,
      "Ġbar": 2684,
      "Ġtaking": 2685,
      "nes": 2686,
      "era": 2687,
      "Ġden": 2688,
      "elt": 2689,
      "2007": 2690,
      "artment": 2691,
      "Ġbehind": 2692,
      "ĠCenter": 2693,
      "Ġpolitical": 2694,
      "Ġneeds": 2695,
      "Ġanalysis": 2696,
      "Ġbound": 2697,
      "Ġsubject": 2698,
      "Ġrecent": 2699,
      "04": 2700,
      "ĠPat": 2701,
      "Ġfeatures": 2702,
      "Cl": 2703,
      "Ġground": 2704,
      "ĠCour": 2705,
      "Ġbreak": 2706,
      "Ġhost": 2707,
      "hold": 2708,
      "Ġevents": 2709,
      "Ġimpact": 2710,
      "'m": 2711,
      "ĠDem": 2712,
      "Ġvarious": 2713,
      "Ġprotect": 2714,
      "oph": 2715,
      "}$,": 2716,
      "mit": 2717,
      "add": 2718,
      "idge": 2719,
      "II": 2720,
      "Ġhigher": 2721,
      "mbol": 2722,
      "iddle": 2723,
      "ips": 2724,
      "atur": 2725,
      "xi": 2726,
      "Ġlikely": 2727,
      "ores": 2728,
      "ĠHigh": 2729,
      "Ġhours": 2730,
      "Ġshown": 2731,
      "Ġhowever": 2732,
      "}$.": 2733,
      "alt": 2734,
      "Ġcy": 2735,
      "ops": 2736,
      "ml": 2737,
      "Ġproduction": 2738,
      "Ġneg": 2739,
      "ĠFin": 2740,
      "ength": 2741,
      "uel": 2742,
      "times": 2743,
      "pd": 2744,
      "06": 2745,
      "ully": 2746,
      "Ġwebsite": 2747,
      "osed": 2748,
      "ĠOf": 2749,
      "}(\\": 2750,
      "bor": 2751,
      "Ġreported": 2752,
      "Ġpath": 2753,
      "Ġmoment": 2754,
      "BC": 2755,
      "Ġbad": 2756,
      "Ġenjoy": 2757,
      "maz": 2758,
      "Ġcreate": 2759,
      "oper": 2760,
      "ided": 2761,
      "ishing": 2762,
      "Ġimm": 2763,
      "ĠOff": 2764,
      "Ġvia": 2765,
      "orks": 2766,
      "aker": 2767,
      "Ġparticip": 2768,
      "inary": 2769,
      "ĉĉĉĉ": 2770,
      "Ġrisk": 2771,
      "Ġagre": 2772,
      "ender": 2773,
      "ĠTV": 2774,
      "Ġcompanies": 2775,
      "ĠGod": 2776,
      "Ġsens": 2777,
      "Ġprovided": 2778,
      "Ġwa": 2779,
      "apan": 2780,
      "adem": 2781,
      "Ġtraining": 2782,
      "ament": 2783,
      "Ġglobal": 2784,
      "mod": 2785,
      "itte": 2786,
      "medi": 2787,
      "ecut": 2788,
      "field": 2789,
      "09": 2790,
      "ĠManag": 2791,
      "Ġarticle": 2792,
      "Ġsection": 2793,
      "ĠAng": 2794,
      "ires": 2795,
      "icult": 2796,
      "ET": 2797,
      "ĠInc": 2798,
      "ky": 2799,
      "attle": 2800,
      "Ġheld": 2801,
      "Ġpolicy": 2802,
      "ledge": 2803,
      "Ġchanges": 2804,
      "Ġexam": 2805,
      "Ġ...": 2806,
      "ran": 2807,
      "cont": 2808,
      "aving": 2809,
      "When": 2810,
      "Ġissue": 2811,
      "75": 2812,
      "Ġsize": 2813,
      "ensive": 2814,
      "respond": 2815,
      "Ġtext": 2816,
      "Ġ//": 2817,
      "Ġred": 2818,
      "ford": 2819,
      "see": 2820,
      "ĠSen": 2821,
      "Ġshare": 2822,
      "ĠJust": 2823,
      "Ġfeature": 2824,
      "ivity": 2825,
      "LL": 2826,
      "Ġlo": 2827,
      "Ġaddition": 2828,
      "Ġamount": 2829,
      "Ġversion": 2830,
      "eed": 2831,
      "nu": 2832,
      "Ġachie": 2833,
      "coming": 2834,
      "Ġdest": 2835,
      "Ġcoming": 2836,
      "Ġanything": 2837,
      "ym": 2838,
      "rix": 2839,
      "cle": 2840,
      "Ġrights": 2841,
      "Ġimprove": 2842,
      "partial": 2843,
      "Ġop": 2844,
      "ependent": 2845,
      "49": 2846,
      "->": 2847,
      "nov": 2848,
      "fty": 2849,
      "fact": 2850,
      "ĠNet": 2851,
      "Ġstre": 2852,
      "Ġhttp": 2853,
      "Ġrepl": 2854,
      "Ġprim": 2855,
      "ables": 2856,
      "Ġalbum": 2857,
      "ĠIndia": 2858,
      "Ġidea": 2859,
      "OT": 2860,
      "opt": 2861,
      "itting": 2862,
      "ĠEm": 2863,
      "Ġnecess": 2864,
      "Ġseems": 2865,
      "Ġparent": 2866,
      "iet": 2867,
      "Ġparty": 2868,
      "var": 2869,
      "Ġloss": 2870,
      "Ġprivate": 2871,
      "Ġdefin": 2872,
      "ux": 2873,
      "Ġcomplex": 2874,
      "Ġlog": 2875,
      "03": 2876,
      "'ve": 2877,
      "Ġquick": 2878,
      "urg": 2879,
      "Ġrelationship": 2880,
      "02": 2881,
      "Ġpaper": 2882,
      "ili": 2883,
      "Ġpo": 2884,
      "Ġcheck": 2885,
      "Ġrecogn": 2886,
      "Ġupd": 2887,
      "lation": 2888,
      "Ġshall": 2889,
      "Wh": 2890,
      "Ġquite": 2891,
      "Ġmatter": 2892,
      "eneral": 2893,
      "ĠSan": 2894,
      "Ġsoft": 2895,
      "Ġadded": 2896,
      "Ġmember": 2897,
      "Ġfriends": 2898,
      "Ġtown": 2899,
      "Ġgroups": 2900,
      "Ġareas": 2901,
      "sequ": 2902,
      "Ġpolice": 2903,
      "Ġfire": 2904,
      "ĠVal": 2905,
      "ulations": 2906,
      "Ġstates": 2907,
      "Ġsomeone": 2908,
      "ĠDay": 2909,
      "umber": 2910,
      "hood": 2911,
      "ett": 2912,
      "Ġcontact": 2913,
      "Ġpret": 2914,
      "order": 2915,
      "AD": 2916,
      "46": 2917,
      "Ġespecially": 2918,
      "Ġens": 2919,
      "Ġband": 2920,
      "Ġpresident": 2921,
      "Ġforward": 2922,
      "includ": 2923,
      "Ġnothing": 2924,
      "Ġroad": 2925,
      "Ġgirl": 2926,
      "Ġbecame": 2927,
      "Ġreceived": 2928,
      "Ġtakes": 2929,
      "Ġlay": 2930,
      "Ġdeg": 2931,
      "ĠDavid": 2932,
      "ĠLa": 2933,
      "Ġcontinue": 2934,
      "oo": 2935,
      "Ġvot": 2936,
      "All": 2937,
      "iforn": 2938,
      "Ġcourt": 2939,
      "aries": 2940,
      "chan": 2941,
      "oice": 2942,
      "ception": 2943,
      "Ġsense": 2944,
      "2021": 2945,
      "OS": 2946,
      "ĠCons": 2947,
      "tilde": 2948,
      "iment": 2949,
      "Ġregion": 2950,
      "Ġconditions": 2951,
      "https": 2952,
      "ceed": 2953,
      "Ġaccept": 2954,
      "Ġvalues": 2955,
      "Ġcampaign": 2956,
      "infty": 2957,
      "Ġemb": 2958,
      "Ġwalk": 2959,
      "Ġrequired": 2960,
      "aily": 2961,
      "oved": 2962,
      "eters": 2963,
      "atform": 2964,
      "izing": 2965,
      "47": 2966,
      "Ġpie": 2967,
      "ags": 2968,
      "|\\": 2969,
      "pre": 2970,
      "ests": 2971,
      "ĠPhil": 2972,
      "Ġquality": 2973,
      "ĠBlack": 2974,
      "ivil": 2975,
      "Ġsecurity": 2976,
      "ype": 2977,
      "ica": 2978,
      "Ġoffer": 2979,
      "Ġmodels": 2980,
      "omega": 2981,
      "Ġsource": 2982,
      "Ġasked": 2983,
      "bit": 2984,
      "Ġhot": 2985,
      "ĠChina": 2986,
      "Ġupon": 2987,
      "Ġleaders": 2988,
      "uge": 2989,
      "load": 2990,
      "::": 2991,
      "Ġreve": 2992,
      "plement": 2993,
      "Ġlate": 2994,
      "imum": 2995,
      "Ġisn": 2996,
      "Ġtrying": 2997,
      "ĠCommun": 2998,
      "Ġcross": 2999,
      "ĠFrom": 3000,
      "su": 3001,
      "Ġconcern": 3002,
      "ederal": 3003,
      "ero": 3004,
      "IG": 3005,
      "light": 3006,
      "Ġsus": 3007,
      "2006": 3008,
      "pped": 3009,
      "Ġeverything": 3010,
      "Ġtravel": 3011,
      "oto": 3012,
      "ply": 3013,
      "ING": 3014,
      "ij": 3015,
      "duc": 3016,
      "Ġpage": 3017,
      "ĠDepartment": 3018,
      "ifornia": 3019,
      "Ġproducts": 3020,
      "iences": 3021,
      "anced": 3022,
      "ospital": 3023,
      "Ġmeasure": 3024,
      "overed": 3025,
      "come": 3026,
      "',": 3027,
      "Ġfight": 3028,
      "space": 3029,
      "ha": 3030,
      "Ġmeet": 3031,
      "Ġspecific": 3032,
      "ography": 3033,
      "Ġprobably": 3034,
      "ties": 3035,
      "So": 3036,
      "Ġregard": 3037,
      "ĠDis": 3038,
      "ĠTrans": 3039,
      "ĠMor": 3040,
      "rab": 3041,
      "ĠOur": 3042,
      "Ġlower": 3043,
      "ĠAssoci": 3044,
      "wood": 3045,
      "oul": 3046,
      "Ġincludes": 3047,
      "witter": 3048,
      "ached": 3049,
      "Ġcontract": 3050,
      "ĠStreet": 3051,
      "Ġrelease": 3052,
      "ese": 3053,
      "ĠEnglish": 3054,
      "Ġexpected": 3055,
      "ara": 3056,
      "ida": 3057,
      "Ġaverage": 3058,
      "Ġhon": 3059,
      "Ġlink": 3060,
      "ĠAc": 3061,
      "ION": 3062,
      "orge": 3063,
      "ication": 3064,
      "aves": 3065,
      "Ġdifficult": 3066,
      "))": 3067,
      "idered": 3068,
      "Ġincrease": 3069,
      "Ġtry": 3070,
      "atives": 3071,
      "wide": 3072,
      "comes": 3073,
      "ĠSw": 3074,
      "ĠBook": 3075,
      "Ġstaff": 3076,
      "ription": 3077,
      "ĠGover": 3078,
      "Ġpers": 3079,
      "Ġmanagement": 3080,
      "ny": 3081,
      "Ġstandard": 3082,
      "ĠDirect": 3083,
      "Ġimage": 3084,
      "Ġpack": 3085,
      "Ġhor": 3086,
      "ĠHol": 3087,
      "Ġhimself": 3088,
      "ĠWilliam": 3089,
      "Ġengine": 3090,
      "dom": 3091,
      "Ġwritten": 3092,
      "Ġplayed": 3093,
      "vis": 3094,
      "ĠChe": 3095,
      "ĠCollege": 3096,
      "Ġcomment": 3097,
      "Ġcannot": 3098,
      "Ġ</": 3099,
      "ixed": 3100,
      "Ġitself": 3101,
      "lying": 3102,
      "arc": 3103,
      "rect": 3104,
      "arter": 3105,
      "Ġarch": 3106,
      "Ġinflu": 3107,
      "With": 3108,
      "Ġeveryone": 3109,
      "Ġconsum": 3110,
      "Ġtreatment": 3111,
      "ĠRed": 3112,
      "Ġdam": 3113,
      "uild": 3114,
      "astic": 3115,
      "Ġsepar": 3116,
      "illing": 3117,
      "Ġresponse": 3118,
      "lier": 3119,
      "ĠReview": 3120,
      "oring": 3121,
      "!!": 3122,
      "asc": 3123,
      "Ġwanted": 3124,
      "Ġinternational": 3125,
      "Ġincluded": 3126,
      "uses": 3127,
      "Ġlear": 3128,
      "Ġvict": 3129,
      "ulated": 3130,
      "Ġcorrespond": 3131,
      "ĠHist": 3132,
      "cial": 3133,
      "Delta": 3134,
      "Ġinj": 3135,
      "ĠOb": 3136,
      "Ġreleased": 3137,
      "Ġbeaut": 3138,
      "cdot": 3139,
      "pite": 3140,
      "ĠJapan": 3141,
      "ega": 3142,
      "Ġattempt": 3143,
      "eks": 3144,
      "Ġoutside": 3145,
      "UR": 3146,
      "uments": 3147,
      "ville": 3148,
      "no": 3149,
      "Ġrelated": 3150,
      "Ġwond": 3151,
      "ĠGroup": 3152,
      "Ġgrowth": 3153,
      "fully": 3154,
      "LE": 3155,
      "ĠAcc": 3156,
      "rick": 3157,
      "aches": 3158,
      "ferences": 3159,
      "Ġcred": 3160,
      "unt": 3161,
      "ĠCourt": 3162,
      "ĠRepublic": 3163,
      "Ġdeep": 3164,
      "Res": 3165,
      "ressed": 3166,
      "Ġwhite": 3167,
      "Ġhit": 3168,
      "Ġsect": 3169,
      "iber": 3170,
      "\".": 3171,
      "vision": 3172,
      "odes": 3173,
      "ĠFirst": 3174,
      "Ġste": 3175,
      "Ġdecision": 3176,
      "Ġver": 3177,
      "Ġneeded": 3178,
      "Ġoffice": 3179,
      "Ġwoman": 3180,
      "Ġcover": 3181,
      "ynam": 3182,
      "ĠThen": 3183,
      "Ġconsidered": 3184,
      "Ġaffect": 3185,
      "down": 3186,
      "Ġevidence": 3187,
      "Ġthemselves": 3188,
      "Ġproperty": 3189,
      "Ġprovides": 3190,
      "Ġgrad": 3191,
      "gen": 3192,
      "ev": 3193,
      "Ġhttps": 3194,
      "Ġpublished": 3195,
      "Ġassociated": 3196,
      "aging": 3197,
      "ees": 3198,
      "At": 3199,
      "Ġstay": 3200,
      "rec": 3201,
      "Ġprior": 3202,
      "irth": 3203,
      "Ġrecently": 3204,
      "omet": 3205,
      "ming": 3206,
      "ĠUs": 3207,
      "iew": 3208,
      "Ġcle": 3209,
      "ams": 3210,
      "ext": 3211,
      "iles": 3212,
      "like": 3213,
      "Ġspect": 3214,
      "Ġstructure": 3215,
      "Ġbehav": 3216,
      "Ġstep": 3217,
      "erve": 3218,
      "Ġbegan": 3219,
      "Ġcele": 3220,
      "ittee": 3221,
      "Ġlost": 3222,
      "56": 3223,
      "Ġpopular": 3224,
      "Ġsaw": 3225,
      "ashington": 3226,
      "anger": 3227,
      "estern": 3228,
      "ĠSim": 3229,
      "ĠResearch": 3230,
      "rote": 3231,
      "Ġcreated": 3232,
      "aching": 3233,
      "}[": 3234,
      "500": 3235,
      "oke": 3236,
      "Ġboard": 3237,
      "with": 3238,
      "iqu": 3239,
      "ĠNow": 3240,
      "Ġsoon": 3241,
      "alls": 3242,
      "ĠEast": 3243,
      "omb": 3244,
      "mon": 3245,
      "Ġliving": 3246,
      "Ġcomplete": 3247,
      "ĠCouncil": 3248,
      "Ġpick": 3249,
      "sych": 3250,
      "pose": 3251,
      "cing": 3252,
      "ĠEar": 3253,
      "eqn": 3254,
      "RO": 3255,
      "Sc": 3256,
      "atter": 3257,
      "ports": 3258,
      "ĠBritish": 3259,
      "Ġder": 3260,
      "room": 3261,
      "sq": 3262,
      "Is": 3263,
      "Ġnov": 3264,
      "Ġeducation": 3265,
      "?âĢĿ": 3266,
      "avy": 3267,
      "ords": 3268,
      "rael": 3269,
      "Ġcountries": 3270,
      "Ġmovie": 3271,
      "Ġemer": 3272,
      "Ġsearch": 3273,
      "Ġuser": 3274,
      "Ġconduct": 3275,
      "airs": 3276,
      "ĠInstit": 3277,
      "Ġdise": 3278,
      "ocal": 3279,
      "ĠDist": 3280,
      "ession": 3281,
      "2005": 3282,
      "Ġexact": 3283,
      "Ġplaying": 3284,
      "Ġveh": 3285,
      "Ġcalc": 3286,
      "ĠCalifornia": 3287,
      "ĠPaul": 3288,
      "Ġess": 3289,
      "Ġblock": 3290,
      "........": 3291,
      "Ġansw": 3292,
      "vey": 3293,
      "CC": 3294,
      "Ġtour": 3295,
      "mission": 3296,
      "Ġbase": 3297,
      "Ġtool": 3298,
      "Post": 3299,
      "Ġlearning": 3300,
      "Ġnatural": 3301,
      "Ġcareer": 3302,
      "Ġjud": 3303,
      "Ġlevels": 3304,
      "ĠYour": 3305,
      "Ġsequ": 3306,
      "rench": 3307,
      "Ġbroad": 3308,
      "Ġquant": 3309,
      "lam": 3310,
      "gor": 3311,
      "Ġbuilt": 3312,
      "Ġ$(": 3313,
      "'ll": 3314,
      "Ġwriting": 3315,
      "Ġhope": 3316,
      "Ġproblems": 3317,
      "ences": 3318,
      "95": 3319,
      "Ġquestions": 3320,
      "tained": 3321,
      "Ġstri": 3322,
      "].": 3323,
      "log": 3324,
      "Ġround": 3325,
      "yond": 3326,
      "Ġcapt": 3327,
      "box": 3328,
      "Ġdescribed": 3329,
      "ĠTechn": 3330,
      "Ġestim": 3331,
      "Ġdate": 3332,
      "Ġwhose": 3333,
      "Ġannounced": 3334,
      "Ġmother": 3335,
      "mar": 3336,
      "ĠPost": 3337,
      "Ġmag": 3338,
      "ĠPal": 3339,
      "Ġcells": 3340,
      "That": 3341,
      "42": 3342,
      "lement": 3343,
      "Ġlives": 3344,
      "CO": 3345,
      "obile": 3346,
      "Ġcand": 3347,
      "Ġtal": 3348,
      "Ġlegal": 3349,
      "Ġinstead": 3350,
      "more": 3351,
      "Ġminutes": 3352,
      "ĠAnt": 3353,
      "Ġconsist": 3354,
      "Ġlanguage": 3355,
      "orem": 3356,
      "Ġleading": 3357,
      "Ġways": 3358,
      "acebook": 3359,
      "Ġsimple": 3360,
      "Ġdemon": 3361,
      "ror": 3362,
      "Ġeffects": 3363,
      "2000": 3364,
      "Ġimplement": 3365,
      "itation": 3366,
      "leg": 3367,
      "Ġanaly": 3368,
      "useum": 3369,
      "ares": 3370,
      "Ġcompon": 3371,
      "Ġinvolved": 3372,
      "ĠLet": 3373,
      "anch": 3374,
      "Ġthreat": 3375,
      "acc": 3376,
      "Ġpretty": 3377,
      "Ġpopulation": 3378,
      "unk": 3379,
      "ĠJames": 3380,
      "Ġdead": 3381,
      "vest": 3382,
      "isode": 3383,
      "Ġled": 3384,
      "ternet": 3385,
      "raz": 3386,
      "ico": 3387,
      "Ġtou": 3388,
      "rought": 3389,
      "ening": 3390,
      "Ġfrequ": 3391,
      "Ġut": 3392,
      "Ġsimply": 3393,
      "Ġhistor": 3394,
      "Ġeasy": 3395,
      "Ġsil": 3396,
      "ements": 3397,
      "rt": 3398,
      "Ġweeks": 3399,
      "acing": 3400,
      "ibrary": 3401,
      "Ġhop": 3402,
      "Ġdecl": 3403,
      "isf": 3404,
      "ĠEuropean": 3405,
      "ĠOut": 3406,
      "Ġdocument": 3407,
      "Ġord": 3408,
      "Ġtitle": 3409,
      "58": 3410,
      ")$.": 3411,
      "\\,": 3412,
      "Ġmatch": 3413,
      "Ġsolution": 3414,
      "Ġrunning": 3415,
      "ught": 3416,
      "Ġmention": 3417,
      "Ġbooks": 3418,
      "Ġsett": 3419,
      "ĠCanada": 3420,
      "ĠEv": 3421,
      "Ġstar": 3422,
      "eff": 3423,
      "Ġregular": 3424,
      "het": 3425,
      "ensity": 3426,
      "No": 3427,
      "ĠMod": 3428,
      "textbf": 3429,
      "pper": 3430,
      "ems": 3431,
      "inter": 3432,
      "Ġfather": 3433,
      "zz": 3434,
      "Ġdrug": 3435,
      "Ġtemper": 3436,
      "Ġcompl": 3437,
      "--------": 3438,
      "aged": 3439,
      "Ġadditional": 3440,
      "ĠAustralia": 3441,
      "Ġpositive": 3442,
      "ĠIndian": 3443,
      "Ġplatform": 3444,
      "Ġlatest": 3445,
      "Ġlonger": 3446,
      "Ġstudies": 3447,
      "Ġtele": 3448,
      "Ġmax": 3449,
      "ĠBusiness": 3450,
      "Ġfem": 3451,
      "Ġpain": 3452,
      "Ġfinancial": 3453,
      "57": 3454,
      "One": 3455,
      "Ġplayer": 3456,
      "raphics": 3457,
      "}}\\": 3458,
      "andom": 3459,
      "Ġperfect": 3460,
      "Ġstage": 3461,
      "haps": 3462,
      "Ġadminist": 3463,
      "Ġcurrently": 3464,
      "Ġinterview": 3465,
      "Ġdistribution": 3466,
      "Ġusers": 3467,
      "ĠAre": 3468,
      "Ġunique": 3469,
      "../": 3470,
      "Ġdetails": 3471,
      "Ġanyone": 3472,
      "Ġdriv": 3473,
      "Ġ||": 3474,
      "erc": 3475,
      "ube": 3476,
      "Ġmultiple": 3477,
      "ii": 3478,
      "Ġwrote": 3479,
      "rad": 3480,
      "ĠBen": 3481,
      "ND": 3482,
      "Ġpm": 3483,
      "ĠGreen": 3484,
      "Ġsaying": 3485,
      "Ġaccom": 3486,
      "gl": 3487,
      "xim": 3488,
      "unction": 3489,
      "asons": 3490,
      "Ġcam": 3491,
      "gorith": 3492,
      "Ġworked": 3493,
      "43": 3494,
      "istics": 3495,
      "ounter": 3496,
      "ĠSystem": 3497,
      "Ġpict": 3498,
      "mark": 3499,
      "Ġsold": 3500,
      "mega": 3501,
      "Ġdiv": 3502,
      "Ġdevice": 3503,
      "ĠInter": 3504,
      "rs": 3505,
      "oom": 3506,
      "Ġdire": 3507,
      "''": 3508,
      "ĠWashington": 3509,
      "ĠJack": 3510,
      "wise": 3511,
      "Ġsurpr": 3512,
      "59": 3513,
      "sim": 3514,
      "ĠWhile": 3515,
      "rian": 3516,
      "Ġthroughout": 3517,
      "html": 3518,
      "Ġreading": 3519,
      "ĠRober": 3520,
      "ĠMichael": 3521,
      "lands": 3522,
      "Ġscreen": 3523,
      "ĠPublic": 3524,
      "Ġfollows": 3525,
      "lied": 3526,
      "idents": 3527,
      "rak": 3528,
      "Ġfavor": 3529,
      "Ġwasn": 3530,
      "Ġchalleng": 3531,
      "ius": 3532,
      "Ġ\\,": 3533,
      "ĠII": 3534,
      "irit": 3535,
      "ĠWhite": 3536,
      "Ġang": 3537,
      "Ġmeeting": 3538,
      "position": 3539,
      "Ġknowledge": 3540,
      "Ġson": 3541,
      "Ġassist": 3542,
      "41": 3543,
      "Ġinteresting": 3544,
      "ĠAnn": 3545,
      "Ġrecomm": 3546,
      "Ġliter": 3547,
      "Ġclub": 3548,
      "ĠDemocr": 3549,
      "Ġmodern": 3550,
      "Let": 3551,
      "Ġ`": 3552,
      "ĠRich": 3553,
      "ĠScience": 3554,
      "PS": 3555,
      "ĠTHE": 3556,
      "$$": 3557,
      "Ġbuy": 3558,
      "Ġmagn": 3559,
      "lem": 3560,
      "itude": 3561,
      "Ġtable": 3562,
      "Ab": 3563,
      "itect": 3564,
      "Ġprice": 3565,
      "ago": 3566,
      "ĠSome": 3567,
      "Ġgets": 3568,
      "ufact": 3569,
      "alse": 3570,
      "rows": 3571,
      "Ġsem": 3572,
      "inated": 3573,
      "}_{\\": 3574,
      "ĠMart": 3575,
      "ears": 3576,
      "uman": 3577,
      "ĠDan": 3578,
      "Ġeval": 3579,
      "Ġgas": 3580,
      "Ġgoal": 3581,
      "Ġimmedi": 3582,
      "Ġge": 3583,
      "Ġpan": 3584,
      "la": 3585,
      "Ġcompared": 3586,
      "Ġwrong": 3587,
      "Ġboy": 3588,
      "Ġdefined": 3589,
      "ĠWed": 3590,
      "unday": 3591,
      "Ġball": 3592,
      "2004": 3593,
      "MS": 3594,
      "Ġmid": 3595,
      "td": 3596,
      "ĠHam": 3597,
      "vant": 3598,
      "Ġpractice": 3599,
      "urd": 3600,
      "epsilon": 3601,
      "Ġmechan": 3602,
      "Se": 3603,
      "Ġworth": 3604,
      "iation": 3605,
      "ĠBre": 3606,
      "Ġstories": 3607,
      "Ġeffic": 3608,
      "Ġserious": 3609,
      "akers": 3610,
      "rim": 3611,
      "UT": 3612,
      "psi": 3613,
      "annel": 3614,
      "lor": 3615,
      "âĢĿ.": 3616,
      "EO": 3617,
      "ults": 3618,
      "Ġsurface": 3619,
      "NA": 3620,
      "ki": 3621,
      "bm": 3622,
      "Ġgoes": 3623,
      "Gamma": 3624,
      "pri": 3625,
      "ĠFound": 3626,
      "ned": 3627,
      "oura": 3628,
      "Ġculture": 3629,
      "^*": 3630,
      "Ġprevent": 3631,
      "Ġâ": 3632,
      "My": 3633,
      "istry": 3634,
      "Ġpredict": 3635,
      "Le": 3636,
      "arily": 3637,
      "Ġdeveloped": 3638,
      "ĠDec": 3639,
      "Cont": 3640,
      "aled": 3641,
      "berg": 3642,
      "ĠThom": 3643,
      "Ġtowards": 3644,
      "Ġnormal": 3645,
      "Ind": 3646,
      "Ġinsp": 3647,
      "Ġrev": 3648,
      "ĠFriday": 3649,
      "Ġcat": 3650,
      "Ġlack": 3651,
      "Ġgave": 3652,
      "Ġflow": 3653,
      "ously": 3654,
      "Ġdat": 3655,
      "ston": 3656,
      "Omega": 3657,
      "ĠProgram": 3658,
      "Ġinside": 3659,
      "ĠGeneral": 3660,
      "Ġleave": 3661,
      "nown": 3662,
      "Bl": 3663,
      "EL": 3664,
      "Pl": 3665,
      "ĠEngland": 3666,
      "Ġ)": 3667,
      "Ġforce": 3668,
      "66": 3669,
      "ĠProf": 3670,
      "Ġrequest": 3671,
      "Ġneigh": 3672,
      "ĠCong": 3673,
      "ĠMusic": 3674,
      "Ġgives": 3675,
      "ae": 3676,
      "Ġapplication": 3677,
      "olic": 3678,
      "ste": 3679,
      "Ġnature": 3680,
      "ped": 3681,
      "Ġcharacters": 3682,
      "ĠHere": 3683,
      "Ġdark": 3684,
      "aturday": 3685,
      "Ġprec": 3686,
      "enge": 3687,
      "ĠSur": 3688,
      "Ġrelig": 3689,
      "Ġcontinu": 3690,
      "ech": 3691,
      "mitted": 3692,
      "Ġmedical": 3693,
      "Ġmethods": 3694,
      "Ġlines": 3695,
      "IV": 3696,
      "ĠNov": 3697,
      "vin": 3698,
      "Ġsurv": 3699,
      "ĠPort": 3700,
      "ils": 3701,
      "urt": 3702,
      "Ġmilitary": 3703,
      "ĠIsrael": 3704,
      "Ġstyle": 3705,
      "Ġaim": 3706,
      "ecutive": 3707,
      "ĠIN": 3708,
      "Ġdesigned": 3709,
      "Ġmach": 3710,
      "Ġoffers": 3711,
      "ampions": 3712,
      "Ġdraw": 3713,
      "ĠRead": 3714,
      "rey": 3715,
      "ĠSuper": 3716,
      "urning": 3717,
      "Ġopportunity": 3718,
      "ĠMal": 3719,
      "Ġcondition": 3720,
      "Ġcandid": 3721,
      "Ġcause": 3722,
      "band": 3723,
      "Ġcontribut": 3724,
      "ĠFacebook": 3725,
      "ĠPM": 3726,
      "Ġfair": 3727,
      "Ġtheory": 3728,
      "Ġunc": 3729,
      "uration": 3730,
      "Ġrace": 3731,
      "ĠPress": 3732,
      "this": 3733,
      "Ġfast": 3734,
      "Ġblood": 3735,
      "Ġdisplay": 3736,
      "Ġsuff": 3737,
      "onday": 3738,
      "Ġassum": 3739,
      "ĠAM": 3740,
      "olar": 3741,
      "estival": 3742,
      "ategy": 3743,
      "Ġaward": 3744,
      "iant": 3745,
      "bold": 3746,
      "ĠFil": 3747,
      "ilies": 3748,
      "Ġoccur": 3749,
      "Ġmus": 3750,
      "Ġscient": 3751,
      "ellow": 3752,
      "ĠâĢ¦": 3753,
      "After": 3754,
      "Ġeconomic": 3755,
      "div": 3756,
      "Ġconstant": 3757,
      "uate": 3758,
      ")$,": 3759,
      "ĠDevelop": 3760,
      "Ġextra": 3761,
      "65": 3762,
      "ĠArch": 3763,
      "Ġpurch": 3764,
      "Ġrock": 3765,
      "ĠGoogle": 3766,
      "ĠÂ£": 3767,
      "Ġeffective": 3768,
      "IM": 3769,
      "subsection": 3770,
      "Ġdirector": 3771,
      "eds": 3772,
      "rial": 3773,
      "Ġple": 3774,
      "Ġdifference": 3775,
      "ronic": 3776,
      "ĠPre": 3777,
      "Ġautom": 3778,
      "IL": 3779,
      "ey": 3780,
      "Ġnamed": 3781,
      "Ġdepart": 3782,
      "Ġcouple": 3783,
      "top": 3784,
      "Ġcenter": 3785,
      "itch": 3786,
      "comp": 3787,
      "Ġattention": 3788,
      "olf": 3789,
      "Ġetc": 3790,
      "Ġhands": 3791,
      "Ġbox": 3792,
      "ĠEduc": 3793,
      "Ġphysical": 3794,
      "iful": 3795,
      "Ġpartners": 3796,
      "Ġability": 3797,
      "Ġmis": 3798,
      "ĠHall": 3799,
      "CA": 3800,
      "psilon": 3801,
      "ros": 3802,
      "ĠInstitute": 3803,
      "Ġplans": 3804,
      "ĠDef": 3805,
      "Ġund": 3806,
      "Ġincreasing": 3807,
      "CH": 3808,
      "change": 3809,
      "icip": 3810,
      "itiz": 3811,
      "Ġinitial": 3812,
      "(\"": 3813,
      "ĠUSA": 3814,
      "Ġdetail": 3815,
      "();": 3816,
      "Ġstra": 3817,
      "just": 3818,
      "Ġbrought": 3819,
      "esc": 3820,
      "ancy": 3821,
      "board": 3822,
      "ĠLeg": 3823,
      "ping": 3824,
      "Ġdim": 3825,
      "Ġdigital": 3826,
      "cm": 3827,
      "ĠSam": 3828,
      "sm": 3829,
      "ocks": 3830,
      "2003": 3831,
      "class": 3832,
      "Or": 3833,
      "ĠDel": 3834,
      "Ġhol": 3835,
      "Ġcode": 3836,
      "Ġfans": 3837,
      "isions": 3838,
      "iller": 3839,
      "\":": 3840,
      "Ġcollect": 3841,
      "78": 3842,
      "Ġearlier": 3843,
      "aper": 3844,
      "ander": 3845,
      "ĠJul": 3846,
      "Ġprinc": 3847,
      "Ġconcept": 3848,
      "Ġassess": 3849,
      "span": 3850,
      "Ġstatement": 3851,
      "Ġnecessary": 3852,
      "ĠGreat": 3853,
      "Ġlocated": 3854,
      "eqnarray": 3855,
      "aughter": 3856,
      "Ġfelt": 3857,
      "Ġproposed": 3858,
      "och": 3859,
      "bon": 3860,
      "ya": 3861,
      "itar": 3862,
      "ĠTom": 3863,
      "Ġfootball": 3864,
      "Ġdirectly": 3865,
      "amily": 3866,
      "De": 3867,
      "ĠVol": 3868,
      "ened": 3869,
      "Ġacqu": 3870,
      "sqrt": 3871,
      "Ġparts": 3872,
      "trans": 3873,
      "ellig": 3874,
      "mercial": 3875,
      "atively": 3876,
      "Ġincreased": 3877,
      "ĠInst": 3878,
      "Ġlimited": 3879,
      "ustr": 3880,
      "Ġten": 3881,
      "ĠRoad": 3882,
      "ĠMag": 3883,
      "ĠSing": 3884,
      "iding": 3885,
      "ula": 3886,
      "Ġheard": 3887,
      "oyal": 3888,
      "tab": 3889,
      "iring": 3890,
      "Ġlooks": 3891,
      "Sp": 3892,
      "body": 3893,
      "Ġcook": 3894,
      "ĠĠĠĠĠĠĠĠĠ": 3895,
      "64": 3896,
      "ĠSub": 3897,
      "oes": 3898,
      "Ġnote": 3899,
      "Ġsafety": 3900,
      "ĠMus": 3901,
      "force": 3902,
      "Ġstreng": 3903,
      "rief": 3904,
      "Ġscience": 3905,
      "ĠFrench": 3906,
      "edy": 3907,
      "Ġcapital": 3908,
      "Ġemail": 3909,
      "ĠBer": 3910,
      "Ġthus": 3911,
      "Ġturned": 3912,
      "ota": 3913,
      "Ġsatisf": 3914,
      "^{(": 3915,
      "From": 3916,
      "ĠMat": 3917,
      "ĠAngel": 3918,
      "ĠÃ": 3919,
      "point": 3920,
      "ĠMac": 3921,
      "ribute": 3922,
      "ĠManagement": 3923,
      "Ġcard": 3924,
      "ĠOF": 3925,
      "ĠĠĊ": 3926,
      "Ġwrite": 3927,
      "ĠSunday": 3928,
      "Ġrat": 3929,
      "Ġlimit": 3930,
      "Ġstudent": 3931,
      "istan": 3932,
      "Ġmap": 3933,
      "EM": 3934,
      "non": 3935,
      "Ġparents": 3936,
      "osh": 3937,
      "Ġmulti": 3938,
      "Ġvill": 3939,
      "SS": 3940,
      "><": 3941,
      "Ad": 3942,
      "Ġlic": 3943,
      "Im": 3944,
      "Ġbank": 3945,
      "ĠStr": 3946,
      "Ġimag": 3947,
      "rightarrow": 3948,
      "Ġweight": 3949,
      "Ġri": 3950,
      "IP": 3951,
      "Ġnation": 3952,
      "Ġactivity": 3953,
      "More": 3954,
      "ĠPlay": 3955,
      "osing": 3956,
      "ursday": 3957,
      "Ġplease": 3958,
      "Ġnumbers": 3959,
      "Ġanim": 3960,
      "ĠJew": 3961,
      "ibly": 3962,
      "Ġdemonstr": 3963,
      "Ġhear": 3964,
      "ios": 3965,
      "ĠAssociation": 3966,
      "ĠRob": 3967,
      "edd": 3968,
      "Ġeyes": 3969,
      "quare": 3970,
      "Ġslow": 3971,
      "Ġsn": 3972,
      "ĠAfrica": 3973,
      "Ġcelebr": 3974,
      "Ġorigin": 3975,
      "vare": 3976,
      "Ġanti": 3977,
      "king": 3978,
      "uesday": 3979,
      "iers": 3980,
      "Ġtrade": 3981,
      "Ġaltern": 3982,
      "Ġmicro": 3983,
      "Ġnearly": 3984,
      "Ġdynam": 3985,
      "IA": 3986,
      "irus": 3987,
      "77": 3988,
      "ĠTex": 3989,
      "actions": 3990,
      "Ġarriv": 3991,
      "Not": 3992,
      "Ġimages": 3993,
      "Ġbeyond": 3994,
      "Ġavoid": 3995,
      "Ġchoice": 3996,
      "ĠGold": 3997,
      "Ġrespond": 3998,
      "Ġreports": 3999,
      "caption": 4000,
      "resh": 4001,
      "ĠAirport": 4002,
      "Our": 4003,
      "nesday": 4004,
      "></": 4005,
      "IR": 4006,
      "She": 4007,
      "Ġactivities": 4008,
      "ĠRel": 4009,
      "OL": 4010,
      "ĠBel": 4011,
      "VID": 4012,
      "TS": 4013,
      "Ġdetect": 4014,
      "ocation": 4015,
      "DA": 4016,
      "sey": 4017,
      "Ġuses": 4018,
      "eria": 4019,
      "using": 4020,
      "Ġbillion": 4021,
      "emph": 4022,
      "ĠServices": 4023,
      "ĠService": 4024,
      "iance": 4025,
      "Ġdisease": 4026,
      "iverse": 4027,
      "Ġprep": 4028,
      "Ġvoice": 4029,
      "Ġbott": 4030,
      "Ġresources": 4031,
      "ĠChurch": 4032,
      "Ġpull": 4033,
      "ĠSpec": 4034,
      "Ġobtained": 4035,
      "Ġlength": 4036,
      "Ġcateg": 4037,
      "Ġusually": 4038,
      "ĠOffice": 4039,
      "ĠAlex": 4040,
      "alled": 4041,
      "Ġsoftware": 4042,
      "Ġstation": 4043,
      "Ġwonder": 4044,
      "Ġknew": 4045,
      "Ġsituation": 4046,
      "Ġcentral": 4047,
      "Ġcentury": 4048,
      "Ġpresented": 4049,
      "88": 4050,
      "ona": 4051,
      "encies": 4052,
      "nection": 4053,
      "Ġinstit": 4054,
      "Ġcollection": 4055,
      "Ġindependent": 4056,
      "ĠBest": 4057,
      "Ġscen": 4058,
      "venue": 4059,
      "Ġclin": 4060,
      "Ġsche": 4061,
      "fficient": 4062,
      "Ġprojects": 4063,
      "Ġelection": 4064,
      "52": 4065,
      "Ġbirth": 4066,
      "hest": 4067,
      "],": 4068,
      "ifying": 4069,
      "âĢĺ": 4070,
      "Ġnovel": 4071,
      "ĠWork": 4072,
      "inese": 4073,
      "Ġschools": 4074,
      "Big": 4075,
      "Ġpark": 4076,
      "ĠDirector": 4077,
      "bre": 4078,
      "Col": 4079,
      "51": 4080,
      "Ġdro": 4081,
      "rie": 4082,
      "Ġvs": 4083,
      "Ġbasis": 4084,
      "Ġallowed": 4085,
      "Ġsummer": 4086,
      "ĠOver": 4087,
      "etry": 4088,
      "Ġaccur": 4089,
      "53": 4090,
      "Ġensure": 4091,
      "fort": 4092,
      "ĠSaturday": 4093,
      "ecause": 4094,
      "Ġchance": 4095,
      "Ġones": 4096,
      "Ġspecies": 4097,
      "Ġdemand": 4098,
      "Ġprogress": 4099,
      "roy": 4100,
      "works": 4101,
      "Ġrules": 4102,
      "54": 4103,
      "Int": 4104,
      "ĠST": 4105,
      "Ġbal": 4106,
      "Ġdrive": 4107,
      "ĠGeorge": 4108,
      "ĠLeague": 4109,
      "ĠBay": 4110,
      "Ġelements": 4111,
      "Ġparticularly": 4112,
      "Ġshoot": 4113,
      "ĠMet": 4114,
      "izes": 4115,
      "ĠFranc": 4116,
      "ĠMil": 4117,
      "Ġter": 4118,
      "Ġshot": 4119,
      "ĠClass": 4120,
      "Ġbrand": 4121,
      "weet": 4122,
      "ĠJournal": 4123,
      "itness": 4124,
      "enty": 4125,
      "Ġplant": 4126,
      "iled": 4127,
      "Ġsam": 4128,
      "ester": 4129,
      "win": 4130,
      "Ġcolor": 4131,
      "Ġrob": 4132,
      "Ġcontext": 4133,
      "ario": 4134,
      "Ġallows": 4135,
      "ulate": 4136,
      "ĉĉĉ": 4137,
      "Ġfinally": 4138,
      "mas": 4139,
      "Ġ${\\": 4140,
      "Ġreceive": 4141,
      "Ġmorning": 4142,
      "Ġintegr": 4143,
      "well": 4144,
      "includeg": 4145,
      "includegraphics": 4146,
      "Ġsen": 4147,
      "}^{\\": 4148,
      "ĠMonday": 4149,
      "rangle": 4150,
      "state": 4151,
      "Ġfunctions": 4152,
      "ĠRiver": 4153,
      "Ġwild": 4154,
      "ĠBoard": 4155,
      "They": 4156,
      "Ġhous": 4157,
      "Ġquickly": 4158,
      "2001": 4159,
      "Ġcustomers": 4160,
      "izations": 4161,
      "Ġmanufact": 4162,
      "Ġremain": 4163,
      "under": 4164,
      "Ġcompar": 4165,
      "icon": 4166,
      "isation": 4167,
      "Ġmer": 4168,
      "ady": 4169,
      "Ġscene": 4170,
      "Ġcast": 4171,
      "ĠâĢ¢": 4172,
      "Ġgra": 4173,
      "Ġcosts": 4174,
      "Ġhighly": 4175,
      "chi": 4176,
      "Ġblog": 4177,
      "ĠStar": 4178,
      "do": 4179,
      "bert": 4180,
      "urance": 4181,
      "ĠCompany": 4182,
      "Ġgiving": 4183,
      "usion": 4184,
      "Ġult": 4185,
      "ĠFlor": 4186,
      "Ġcomments": 4187,
      "varepsilon": 4188,
      "Ġwife": 4189,
      "Ġsomet": 4190,
      "Ġmeaning": 4191,
      "table": 4192,
      "Ps": 4193,
      "udd": 4194,
      "Ġalthough": 4195,
      "ĠBi": 4196,
      "ka": 4197,
      "Ġdegree": 4198,
      "Ġprograms": 4199,
      "Ġteams": 4200,
      "aling": 4201,
      "Ġmessage": 4202,
      "Ġlinks": 4203,
      "proof": 4204,
      "Ġremember": 4205,
      "ĠCommission": 4206,
      "erved": 4207,
      "Ġlocation": 4208,
      "ĠAdd": 4209,
      "Ġfollowed": 4210,
      "ĠLife": 4211,
      "osition": 4212,
      "igned": 4213,
      "Ġlarger": 4214,
      "Ġproduced": 4215,
      "urrent": 4216,
      "bt": 4217,
      "Ġconvers": 4218,
      "Ġkids": 4219,
      ")=": 4220,
      "apter": 4221,
      "symbol": 4222,
      "ken": 4223,
      "men": 4224,
      "Ġcorrect": 4225,
      "Ġcivil": 4226,
      "hips": 4227,
      "Ġlargest": 4228,
      "Ġphone": 4229,
      "RA": 4230,
      "Ġfamilies": 4231,
      "net": 4232,
      "2002": 4233,
      "Ġdecided": 4234,
      "Id": 4235,
      "Ġestablished": 4236,
      "Be": 4237,
      "ĠRet": 4238,
      "ĠCap": 4239,
      "Ġeight": 4240,
      "ĠAtt": 4241,
      "eline": 4242,
      "Ġwide": 4243,
      "Ġcompletely": 4244,
      "Ġremains": 4245,
      "Ġaw": 4246,
      "âĢĿ,": 4247,
      "ĠGovernment": 4248,
      "67": 4249,
      "ĠTwitter": 4250,
      "Ġseven": 4251,
      "Ġsales": 4252,
      "Ġwants": 4253,
      "ĠOther": 4254,
      "which": 4255,
      "'d": 4256,
      "Ġstarting": 4257,
      "68": 4258,
      "rupt": 4259,
      "Ġtransport": 4260,
      "iny": 4261,
      "****": 4262,
      "icks": 4263,
      "acity": 4264,
      "}=": 4265,
      "Ġobtain": 4266,
      "umer": 4267,
      "Ġrandom": 4268,
      "udget": 4269,
      "ĠBig": 4270,
      "BS": 4271,
      "Ġapproxim": 4272,
      "Ġbus": 4273,
      "Ġfeed": 4274,
      "ĠPeople": 4275,
      "Ġpromot": 4276,
      "Ġhuge": 4277,
      "igation": 4278,
      "Ġshowed": 4279,
      "oday": 4280,
      "ĠSl": 4281,
      "ria": 4282,
      "roid": 4283,
      "Ġqual": 4284,
      "undred": 4285,
      "ĠGood": 4286,
      "Ġunit": 4287,
      "Ġprofessional": 4288,
      "inger": 4289,
      "name": 4290,
      "ĠEducation": 4291,
      "Ġinnov": 4292,
      "ĠHill": 4293,
      "App": 4294,
      "Ġrespectively": 4295,
      "Ġgun": 4296,
      "BA": 4297,
      "ĠPlan": 4298,
      "Ġtypes": 4299,
      "Ġinput": 4300,
      "Ġdied": 4301,
      "Ġoil": 4302,
      "ĠLou": 4303,
      "Ġconstruction": 4304,
      "agram": 4305,
      "ĠFe": 4306,
      "vention": 4307,
      "edom": 4308,
      "ĠSupp": 4309,
      "Ġir": 4310,
      "Ġexhib": 4311,
      "osis": 4312,
      "ĠFore": 4313,
      "ĠHistory": 4314,
      "Ġvote": 4315,
      "Ġreach": 4316,
      "ĠMo": 4317,
      "Ġfirm": 4318,
      "ĠFrance": 4319,
      "outhern": 4320,
      "ĠQue": 4321,
      "ĠĠĠĠĠĠĠĠĠĠĠĠĠĠĠĠĠĠĠ": 4322,
      "Ġscale": 4323,
      "Ġtherefore": 4324,
      "ĠCongress": 4325,
      ".}": 4326,
      "Ġgraph": 4327,
      "Ġdepend": 4328,
      "Ġproperties": 4329,
      "Ġmoved": 4330,
      "Ġalgorith": 4331,
      "Ġcritical": 4332,
      "ĠJer": 4333,
      "ĠTexas": 4334,
      "Ġpattern": 4335,
      "Ġfully": 4336,
      "En": 4337,
      "Ġprint": 4338,
      "Ġgrowing": 4339,
      "ĠTimes": 4340,
      "ĠSmith": 4341,
      "rugg": 4342,
      "Ġspeed": 4343,
      "Ġlooked": 4344,
      "ĠMem": 4345,
      "ĠSince": 4346,
      "inate": 4347,
      "Ġthous": 4348,
      "ado": 4349,
      "ĠProject": 4350,
      "house": 4351,
      "itable": 4352,
      "Ġphase": 4353,
      "ulture": 4354,
      "ĠMedia": 4355,
      "reme": 4356,
      "Ġbeginning": 4357,
      "ĠSeries": 4358,
      "Ġprem": 4359,
      "clusion": 4360,
      "Ġtrust": 4361,
      "Ġpiece": 4362,
      "aith": 4363,
      "Ġroll": 4364,
      "vec": 4365,
      "Ġsle": 4366,
      "Ġnumer": 4367,
      "ĠBill": 4368,
      "ĠMary": 4369,
      "Ġcopy": 4370,
      "Ġprimary": 4371,
      "Ġstream": 4372,
      "Su": 4373,
      "Ġcancer": 4374,
      "ĠMiss": 4375,
      "verse": 4376,
      "Ġsociety": 4377,
      "ĠSal": 4378,
      "Don": 4379,
      "cell": 4380,
      "ĠčĊ": 4381,
      "ĠTop": 4382,
      "oma": 4383,
      "rang": 4384,
      "draw": 4385,
      "ĠBank": 4386,
      "Ġanswer": 4387,
      "Ġsuccessful": 4388,
      "Ġteac": 4389,
      "ĠUp": 4390,
      "Ġtransfer": 4391,
      "ĠSun": 4392,
      "Name": 4393,
      "Ġded": 4394,
      "Ġactive": 4395,
      "Ġmount": 4396,
      "ĠThursday": 4397,
      "Ġrefer": 4398,
      "Ġpoor": 4399,
      "ĠTuesday": 4400,
      "Ġdirection": 4401,
      "ĠWell": 4402,
      "Ġperformed": 4403,
      "ancing": 4404,
      "ĠScott": 4405,
      "ĠSee": 4406,
      "ĠWednesday": 4407,
      "CT": 4408,
      "PA": 4409,
      "Ġspeak": 4410,
      "ĠChristian": 4411,
      "Ġcomputer": 4412,
      "ĠDevelopment": 4413,
      "Ġtraditional": 4414,
      "Ġworkers": 4415,
      "Ġagree": 4416,
      "Ġpressure": 4417,
      "Ġfarm": 4418,
      "Ġsort": 4419,
      "miss": 4420,
      "Ġinform": 4421,
      "antic": 4422,
      "Ġjournal": 4423,
      "300": 4424,
      "type": 4425,
      "ologies": 4426,
      "Ġbackground": 4427,
      "Ġelement": 4428,
      "ĠCamp": 4429,
      "Ġproviding": 4430,
      "semb": 4431,
      "Ġachieve": 4432,
      "boldsymbol": 4433,
      "ĠParty": 4434,
      "Ġbrother": 4435,
      "ĠÂ»": 4436,
      "ounds": 4437,
      "Ġflu": 4438,
      "Ġsecret": 4439,
      "Ġtouch": 4440,
      ")(": 4441,
      "ĠRock": 4442,
      "Ġbeg": 4443,
      "Ġhappened": 4444,
      "Ġsolutions": 4445,
      "Ġmovement": 4446,
      "ĠHome": 4447,
      "ĠUnder": 4448,
      "Ġplaces": 4449,
      "entially": 4450,
      "Ġnuc": 4451,
      "Ġborn": 4452,
      "ĠDistrict": 4453,
      "ĠIS": 4454,
      "98": 4455,
      "Ġalone": 4456,
      "azine": 4457,
      "Ġkilled": 4458,
      "ĠWeek": 4459,
      "Ġexactly": 4460,
      "imb": 4461,
      "geq": 4462,
      "Ġexpand": 4463,
      "ĠGet": 4464,
      "orthern": 4465,
      "rices": 4466,
      "Ġsal": 4467,
      "Ġprop": 4468,
      "Ġfile": 4469,
      "aby": 4470,
      "eared": 4471,
      "van": 4472,
      "Ġ*/": 4473,
      "ĠRobert": 4474,
      "inf": 4475,
      "varphi": 4476,
      "Ġquarter": 4477,
      "Ġfactor": 4478,
      "Ġleader": 4479,
      "plit": 4480,
      "Ġparameters": 4481,
      "Ġmoving": 4482,
      "cap": 4483,
      "Ġbecomes": 4484,
      "Ġchanged": 4485,
      "ĠChild": 4486,
      "Ġelectric": 4487,
      "Ġcarry": 4488,
      "Ġemot": 4489,
      "ĠClub": 4490,
      "ĠMad": 4491,
      "Ġspent": 4492,
      "Ġchem": 4493,
      "Qu": 4494,
      "mary": 4495,
      "Ġoverall": 4496,
      "dro": 4497,
      "ĠMost": 4498,
      "ĠVir": 4499,
      "anned": 4500,
      "igr": 4501,
      "Man": 4502,
      "Ġappropri": 4503,
      "Ġweb": 4504,
      "Ġclean": 4505,
      "porary": 4506,
      "Ġsometimes": 4507,
      "ĠTime": 4508,
      "ĠIsland": 4509,
      "ĠData": 4510,
      "Ġencoura": 4511,
      "Ġdram": 4512,
      "za": 4513,
      "Ġoption": 4514,
      "ĠFig": 4515,
      "vere": 4516,
      "Ġmiddle": 4517,
      "ano": 4518,
      "ĠChinese": 4519,
      "Ġenter": 4520,
      "OP": 4521,
      "Ġstatus": 4522,
      "Ġcharge": 4523,
      "inn": 4524,
      "Ġeasily": 4525,
      "Ġexperim": 4526,
      "ini": 4527,
      "Ġgreen": 4528,
      "Ġobserved": 4529,
      "ĠCare": 4530,
      "nor": 4531,
      "ĠÐ": 4532,
      "Ġexpression": 4533,
      ".~\\": 4534,
      "Ġorganization": 4535,
      "Ġclosed": 4536,
      "ications": 4537,
      "ĠSociety": 4538,
      "asy": 4539,
      "uit": 4540,
      "Ġcollabor": 4541,
      "Ġdistance": 4542,
      "Ġgreater": 4543,
      "Ġready": 4544,
      "rd": 4545,
      "Ġrepe": 4546,
      "ĠRad": 4547,
      "ĠSocial": 4548,
      "Ġprote": 4549,
      "Ġoperations": 4550,
      "~~": 4551,
      "but": 4552,
      "Ġpen": 4553,
      "icine": 4554,
      "Ġcontinued": 4555,
      "Get": 4556,
      "Ġcry": 4557,
      "known": 4558,
      "icago": 4559,
      "Ġunderstanding": 4560,
      "Ġoptions": 4561,
      "Ġsubst": 4562,
      "Go": 4563,
      "Ġpurpose": 4564,
      "ĠPolicy": 4565,
      "ulf": 4566,
      "Ġwel": 4567,
      "ĠSection": 4568,
      "Ġproced": 4569,
      "Ġepisode": 4570,
      "soft": 4571,
      "Ġtim": 4572,
      "ructure": 4573,
      "Ġcontroll": 4574,
      "ĠMer": 4575,
      "Ġthinking": 4576,
      "Ġobvious": 4577,
      "Ġsources": 4578,
      "Ġtemperature": 4579,
      "rum": 4580,
      "ĠCD": 4581,
      "Ġbill": 4582,
      "pective": 4583,
      "FL": 4584,
      "Ġbeautiful": 4585,
      "Ġapplications": 4586,
      "Ġopin": 4587,
      "ashion": 4588,
      "Ġdog": 4589,
      "Ġfram": 4590,
      "Ġfine": 4591,
      "Ġdouble": 4592,
      "anda": 4593,
      "ĠGermany": 4594,
      "Ġaspect": 4595,
      "ĠTor": 4596,
      "Ġcool": 4597,
      "Ġstrugg": 4598,
      "mat": 4599,
      "Posted": 4600,
      "Ġfederal": 4601,
      "Ġeffort": 4602,
      "term": 4603,
      "ĠFoundation": 4604,
      "Ġstrateg": 4605,
      "ĠMex": 4606,
      "Ġhospital": 4607,
      "ĠEven": 4608,
      "ĠFlorida": 4609,
      "ĠSum": 4610,
      "ĠWil": 4611,
      "ĠCommittee": 4612,
      "Ġsetting": 4613,
      "hline": 4614,
      "Ġgrand": 4615,
      "Ġerror": 4616,
      "Ġnorth": 4617,
      "ĠMicro": 4618,
      "Ġindividuals": 4619,
      "Me": 4620,
      "ache": 4621,
      "porate": 4622,
      "Ġpresence": 4623,
      "&\\": 4624,
      "ĠEvery": 4625,
      "list": 4626,
      "Ġdream": 4627,
      "itz": 4628,
      "Ġrates": 4629,
      "sk": 4630,
      "Ġnames": 4631,
      "ĠHel": 4632,
      "Ġsust": 4633,
      "Ġaware": 4634,
      "ĠOpen": 4635,
      "Ġstraight": 4636,
      "Ġefforts": 4637,
      "Ġforeign": 4638,
      "ĠYear": 4639,
      "Ġclimate": 4640,
      "inct": 4641,
      "AG": 4642,
      "Ġcontr": 4643,
      "97": 4644,
      "otic": 4645,
      "overy": 4646,
      "Ġcru": 4647,
      "UN": 4648,
      "Ġscore": 4649,
      "gs": 4650,
      "Ġhappy": 4651,
      "cale": 4652,
      "ooth": 4653,
      "Ġstore": 4654,
      "ĠSa": 4655,
      "ns": 4656,
      "Ġclaims": 4657,
      "cher": 4658,
      "Ġpreviously": 4659,
      "Ġfra": 4660,
      "PR": 4661,
      "atre": 4662,
      "Ġtrain": 4663,
      "IF": 4664,
      "Ġfilms": 4665,
      "ĠWind": 4666,
      "Americ": 4667,
      "Ġvirt": 4668,
      "CE": 4669,
      "OM": 4670,
      "cos": 4671,
      "Ġlaunch": 4672,
      "Ġmemory": 4673,
      "Ġgold": 4674,
      "inks": 4675,
      "rive": 4676,
      "ava": 4677,
      "Ġlif": 4678,
      "Ġfalse": 4679,
      "====": 4680,
      "oms": 4681,
      "Ġstrategy": 4682,
      "orter": 4683,
      "Ã¡": 4684,
      "Ġfigure": 4685,
      "Ġpsych": 4686,
      "Ġtruth": 4687,
      "While": 4688,
      "Ġopening": 4689,
      "anta": 4690,
      "ĠAward": 4691,
      "Ġsell": 4692,
      "Ġdespite": 4693,
      "Ġshop": 4694,
      "Ġspread": 4695,
      "Ġsites": 4696,
      "han": 4697,
      "param": 4698,
      "Ġhref": 4699,
      "ocol": 4700,
      "Ġarchitect": 4701,
      ")^": 4702,
      "Ġdoor": 4703,
      "itely": 4704,
      "Ġpaid": 4705,
      "ĠCentral": 4706,
      "ĠMinister": 4707,
      "edia": 4708,
      "ĠEarth": 4709,
      "Ġpoll": 4710,
      "gu": 4711,
      "Ġlab": 4712,
      "bour": 4713,
      "Ġradio": 4714,
      "ENT": 4715,
      "Ġmess": 4716,
      "Ġtransform": 4717,
      "Ġtalking": 4718,
      "Ġbehavior": 4719,
      "SP": 4720,
      "ĠDet": 4721,
      "Ġappears": 4722,
      "igen": 4723,
      "Ġimmediately": 4724,
      "Ġlaun": 4725,
      "yan": 4726,
      "Ġconv": 4727,
      "Ġhundred": 4728,
      "ĠCarol": 4729,
      "Ġvariety": 4730,
      "rowd": 4731,
      "pping": 4732,
      "Ġofficials": 4733,
      "Ġregist": 4734,
      "Ġsafe": 4735,
      "ĠSol": 4736,
      "Now": 4737,
      "Ġexpress": 4738,
      "ĠMuseum": 4739,
      "Ġpatient": 4740,
      "aste": 4741,
      "adian": 4742,
      "Ġcommunities": 4743,
      "[\\": 4744,
      "ĠGerman": 4745,
      "Ġexisting": 4746,
      "Ġperhaps": 4747,
      ".;": 4748,
      "Ġsongs": 4749,
      "Ġpair": 4750,
      "ĠNor": 4751,
      "ĠSk": 4752,
      "},\\": 4753,
      "ĠRussia": 4754,
      "isher": 4755,
      "orage": 4756,
      "ipment": 4757,
      "ait": 4758,
      "ĠTur": 4759,
      "ĠFrancis": 4760,
      "Ġenh": 4761,
      "yer": 4762,
      "Ġspirit": 4763,
      "Ġsouth": 4764,
      "ĠDi": 4765,
      "Ġabsol": 4766,
      "eful": 4767,
      "Ġserved": 4768,
      "ĠLat": 4769,
      "lo": 4770,
      "Ġtick": 4771,
      "Ġsets": 4772,
      "../../": 4773,
      "Ġfactors": 4774,
      "Ġartist": 4775,
      "overline": 4776,
      "mult": 4777,
      "ĠPeter": 4778,
      "ĠThomas": 4779,
      "Ġunf": 4780,
      "cel": 4781,
      "ĠTre": 4782,
      "ĠWomen": 4783,
      "ĠInformation": 4784,
      "itors": 4785,
      "Ġsports": 4786,
      "level": 4787,
      "Ġrestrict": 4788,
      "Ġeth": 4789,
      "ĠHot": 4790,
      "Ġrank": 4791,
      "Ġconstruct": 4792,
      "âĢ¢": 4793,
      "Ġapply": 4794,
      "ĠRem": 4795,
      "ĠCup": 4796,
      "Ġcommercial": 4797,
      "ette": 4798,
      "sf": 4799,
      "Ġshared": 4800,
      "witch": 4801,
      "ĠDiv": 4802,
      "ĠShow": 4803,
      "Ġchoose": 4804,
      "Ġagreement": 4805,
      "};": 4806,
      "style": 4807,
      "Ed": 4808,
      "yp": 4809,
      "Ġdensity": 4810,
      "Ġahead": 4811,
      "Ġwat": 4812,
      "Ġstuff": 4813,
      "Ġpowerful": 4814,
      "ĠFrank": 4815,
      "Ġdeliver": 4816,
      "Ġsun": 4817,
      "rier": 4818,
      "Ġeconomy": 4819,
      "iling": 4820,
      "ĠUnion": 4821,
      "hi": 4822,
      "Ġslight": 4823,
      "Ġdevices": 4824,
      "Ġmaybe": 4825,
      "Ġideas": 4826,
      "Ġdistribut": 4827,
      "ĠObama": 4828,
      "Ġdisapp": 4829,
      "Ġgrant": 4830,
      "ĠEp": 4831,
      "mazon": 4832,
      "Ġvalid": 4833,
      "Ġconstit": 4834,
      "Ġid": 4835,
      "dis": 4836,
      "Ġmobile": 4837,
      "frak": 4838,
      "pret": 4839,
      "icated": 4840,
      "ĠCr": 4841,
      "Ġannual": 4842,
      "Why": 4843,
      "Ġextrem": 4844,
      "Fr": 4845,
      "appa": 4846,
      "Ġconnection": 4847,
      "ola": 4848,
      "OD": 4849,
      "ĠĠĠĠĠĠ": 4850,
      "ĠIr": 4851,
      "Ġvictim": 4852,
      "Ġblue": 4853,
      "Ġsmart": 4854,
      "langle": 4855,
      "Ġcop": 4856,
      "Ġcertainly": 4857,
      "owers": 4858,
      "ervation": 4859,
      "ĠJun": 4860,
      "atal": 4861,
      "ĠMa": 4862,
      "SE": 4863,
      "care": 4864,
      "Ġign": 4865,
      "Ġconcent": 4866,
      "69": 4867,
      "Ġforces": 4868,
      "Ġcitiz": 4869,
      "Ġtried": 4870,
      "ĠWhy": 4871,
      "Ġcontain": 4872,
      "}).": 4873,
      "Ġproof": 4874,
      "}}$": 4875,
      "Mar": 4876,
      "ĠLand": 4877,
      "ĠApple": 4878,
      "1999": 4879,
      "Acc": 4880,
      "uthors": 4881,
      "ĠLead": 4882,
      "Ġchallenge": 4883,
      "Ġproduce": 4884,
      "Read": 4885,
      "ĠBrown": 4886,
      "Ġrule": 4887,
      "ĠReport": 4888,
      "Ġadvant": 4889,
      "Ġskills": 4890,
      "Ġfit": 4891,
      "Ġrecords": 4892,
      "Ġclearly": 4893,
      "Ġsurround": 4894,
      "Ġemployees": 4895,
      "ua": 4896,
      "Ġiniti": 4897,
      "ĠCommunity": 4898,
      "orph": 4899,
      "Ġaudience": 4900,
      "Type": 4901,
      "mazing": 4902,
      "AB": 4903,
      "('": 4904,
      "Ġdetermined": 4905,
      "mail": 4906,
      "Ġreb": 4907,
      "ĠSil": 4908,
      "Ġedge": 4909,
      "Ġstars": 4910,
      "alle": 4911,
      "Here": 4912,
      "Ġoperation": 4913,
      "??": 4914,
      "Ġcontains": 4915,
      "Ġcouldn": 4916,
      "osen": 4917,
      "Ġdaily": 4918,
      "List": 4919,
      "Ġarrest": 4920,
      "Ġanc": 4921,
      "ĠPet": 4922,
      "Ġadapt": 4923,
      "ena": 4924,
      "Ġoptim": 4925,
      "Ġpassed": 4926,
      "ĠRichard": 4927,
      "ita": 4928,
      "See": 4929,
      "Ġspot": 4930,
      "omin": 4931,
      "mbox": 4932,
      "ĠĠĠĠĠĠĠĠĠĠĠĠĠĠĠĠĠĠĠĠĠĠĠĠĠĠĠĠĠĠĠĠ": 4933,
      "ĠAfrican": 4934,
      "Ġletter": 4935,
      "Ġmission": 4936,
      "cor": 4937,
      "citep": 4938,
      "Ġreality": 4939,
      "Ġapart": 4940,
      "Ġselect": 4941,
      "Ġmaterials": 4942,
      "Ġsector": 4943,
      "Ġfemale": 4944,
      "ĠOh": 4945,
      "Ġvehicle": 4946,
      "Ġintroduced": 4947,
      "eration": 4948,
      "Ġfeet": 4949,
      "ĠStat": 4950,
      "Ġhighest": 4951,
      "ĠRussian": 4952,
      "Ġinterested": 4953,
      "refore": 4954,
      "Ġvan": 4955,
      "Ġcorresponding": 4956,
      "ĠAlso": 4957,
      "ourney": 4958,
      "SA": 4959,
      "Ġreference": 4960,
      "Ġcontinues": 4961,
      "source": 4962,
      "Ġ_": 4963,
      "Ġadopt": 4964,
      "Ġinvestment": 4965,
      "oute": 4966,
      "lick": 4967,
      "alax": 4968,
      "Ġmut": 4969,
      "Ġexcept": 4970,
      "Ġreduce": 4971,
      "Ġbrain": 4972,
      "Ġhar": 4973,
      "Ġfig": 4974,
      "place": 4975,
      "Ġload": 4976,
      "Ġbenefits": 4977,
      "igration": 4978,
      "Ġcollege": 4979,
      "ĠTwo": 4980,
      "reek": 4981,
      "OC": 4982,
      "ĠIran": 4983,
      "Ġgenerally": 4984,
      "Ġselected": 4985,
      "ĠAut": 4986,
      "ĠKore": 4987,
      "Ġmyself": 4988,
      "MP": 4989,
      "Ġgone": 4990,
      "Ġsolid": 4991,
      "ĠMel": 4992,
      "ework": 4993,
      "ĠBu": 4994,
      "ani": 4995,
      "Ġlegis": 4996,
      "Ġalle": 4997,
      "aming": 4998,
      "Ġ($": 4999,
      "Ġrestaur": 5000,
      "nergy": 5001,
      "ĠTechnology": 5002,
      "ĠLos": 5003,
      "Ġguy": 5004,
      "Ġartists": 5005,
      "Ġruns": 5006,
      "textit": 5007,
      "Ġapplied": 5008,
      "Ġpolic": 5009,
      "Ġstrength": 5010,
      "Phi": 5011,
      "ĠPriv": 5012,
      "Ġmatrix": 5013,
      "Ġdecre": 5014,
      "Ġhelped": 5015,
      "ĠCOVID": 5016,
      "ĠEnd": 5017,
      "Ġharm": 5018,
      "Ġopened": 5019,
      "ĠÎ": 5020,
      "Ġdanger": 5021,
      "gers": 5022,
      "related": 5023,
      "ogue": 5024,
      "Ġreasons": 5025,
      "Ġparties": 5026,
      "ĠEconom": 5027,
      "ĠJud": 5028,
      "Ġexcell": 5029,
      "Ġresponsible": 5030,
      "uated": 5031,
      "Ġmajority": 5032,
      "Ġimpl": 5033,
      "Ġforms": 5034,
      "Ġgeneration": 5035,
      "ĠSpr": 5036,
      "ĠAcadem": 5037,
      "Ġrelevant": 5038,
      "Ġbiggest": 5039,
      "standing": 5040,
      "Ġtrial": 5041,
      "char": 5042,
      "Ġbusinesses": 5043,
      "Ġwood": 5044,
      "Ġcalls": 5045,
      "Ġreflect": 5046,
      "Ġrare": 5047,
      "arant": 5048,
      "efore": 5049,
      "SC": 5050,
      "Home": 5051,
      "Ġfan": 5052,
      "foot": 5053,
      "gment": 5054,
      "elligence": 5055,
      "ĠProt": 5056,
      "Ġbenefit": 5057,
      "ĠTO": 5058,
      "code": 5059,
      "ĠSecret": 5060,
      "writ": 5061,
      "stein": 5062,
      "olec": 5063,
      "ĠWho": 5064,
      "Ġhour": 5065,
      "ker": 5066,
      "ager": 5067,
      "Ġcounter": 5068,
      "ĠGrand": 5069,
      "Ġtoward": 5070,
      "Ġsample": 5071,
      "ĠJoe": 5072,
      "Ġdoll": 5073,
      "ĠNY": 5074,
      "Ġadvert": 5075,
      "Ġoutput": 5076,
      "ayer": 5077,
      "Ġowners": 5078,
      "Ġplanning": 5079,
      "road": 5080,
      "ĠAP": 5081,
      "Ġrap": 5082,
      "atever": 5083,
      "ĠWeb": 5084,
      "Ġcaused": 5085,
      "that": 5086,
      "Ġsignal": 5087,
      "EE": 5088,
      "Ġbasic": 5089,
      "arden": 5090,
      "ĠArts": 5091,
      "Val": 5092,
      "Ġcredit": 5093,
      "eless": 5094,
      "Ġtask": 5095,
      "script": 5096,
      "Ġsexual": 5097,
      "active": 5098,
      "ĠVict": 5099,
      "Ġidentified": 5100,
      "\\%": 5101,
      "Ġsave": 5102,
      "Ġpush": 5103,
      "Ð¾": 5104,
      "Ġappoint": 5105,
      "ĠVirgin": 5106,
      "ĠJose": 5107,
      "AA": 5108,
      "Ġotherwise": 5109,
      "ĠChicago": 5110,
      "Ġkept": 5111,
      "ĠHuman": 5112,
      "ĠCEO": 5113,
      "ĠTown": 5114,
      "ĠWestern": 5115,
      "estic": 5116,
      "iques": 5117,
      "View": 5118,
      "inem": 5119,
      "iency": 5120,
      "ĠJo": 5121,
      "asure": 5122,
      "Ġchurch": 5123,
      "Ġfunding": 5124,
      "ĠOffic": 5125,
      "grad": 5126,
      "Us": 5127,
      "Ġbattle": 5128,
      "ĠTim": 5129,
      "Lambda": 5130,
      "ĠMont": 5131,
      "ĠEngine": 5132,
      "Ġactual": 5133,
      "Ġap": 5134,
      "Ġur": 5135,
      "agon": 5136,
      "Ġ!": 5137,
      "import": 5138,
      "ĠLove": 5139,
      "Ġrecommend": 5140,
      "pir": 5141,
      "uster": 5142,
      "Ġmaintain": 5143,
      "96": 5144,
      "center": 5145,
      "76": 5146,
      "Ġinstance": 5147,
      "Ġpeace": 5148,
      "can": 5149,
      "Ġpropos": 5150,
      "essor": 5151,
      "Pre": 5152,
      "bra": 5153,
      "onic": 5154,
      "ĠFamily": 5155,
      "ĠJim": 5156,
      "Ġer": 5157,
      "85": 5158,
      "Ġmill": 5159,
      "ĠFund": 5160,
      "Ġheavy": 5161,
      "Ġserve": 5162,
      "Ġinfluence": 5163,
      "Ġfields": 5164,
      "Ġwall": 5165,
      "riage": 5166,
      "abilities": 5167,
      "Ġwouldn": 5168,
      "ĠBur": 5169,
      "Ġcapacity": 5170,
      "Can": 5171,
      "Ġcreating": 5172,
      "Ġnice": 5173,
      "ĠGlobal": 5174,
      "Ġdaughter": 5175,
      "nel": 5176,
      "Ġactions": 5177,
      "ldots": 5178,
      "oted": 5179,
      "Ġsmaller": 5180,
      "Ġcoord": 5181,
      "azz": 5182,
      "ĠFre": 5183,
      "night": 5184,
      "usband": 5185,
      "ĠIslam": 5186,
      "EW": 5187,
      "bed": 5188,
      "ala": 5189,
      "Ġconnected": 5190,
      "ĠAbout": 5191,
      "irmed": 5192,
      "ĠSpe": 5193,
      "OW": 5194,
      "Ġfixed": 5195,
      "Ġtrend": 5196,
      "bi": 5197,
      "Ġdetermine": 5198,
      "prof": 5199,
      "MA": 5200,
      "Ġbur": 5201,
      "Ġsend": 5202,
      "Ġbed": 5203,
      "ĠMartin": 5204,
      "Ġequal": 5205,
      "ansion": 5206,
      "ĠUN": 5207,
      "ĠFree": 5208,
      "Ġzero": 5209,
      "Ġdiscussion": 5210,
      "inner": 5211,
      "Ġmentioned": 5212,
      "going": 5213,
      "orial": 5214,
      "Ġjoin": 5215,
      "life": 5216,
      "Ġnotice": 5217,
      "Ġvisual": 5218,
      "ĠMount": 5219,
      "iders": 5220,
      "apers": 5221,
      "mathfrak": 5222,
      "Ġbudget": 5223,
      "Ġbrief": 5224,
      "LA": 5225,
      "Ġmiles": 5226,
      "ĠIns": 5227,
      "Ġcore": 5228,
      "Ġoffered": 5229,
      "igan": 5230,
      "Ġcloud": 5231,
      "ĠCam": 5232,
      "ĠWood": 5233,
      "Ġopportunities": 5234,
      "Ġillustr": 5235,
      "Ġknows": 5236,
      "gency": 5237,
      "color": 5238,
      "dim": 5239,
      "Ġfresh": 5240,
      "ogen": 5241,
      "Ġsteps": 5242,
      "References": 5243,
      "400": 5244,
      "emic": 5245,
      "Ġpages": 5246,
      "NN": 5247,
      "thm": 5248,
      "CD": 5249,
      "orrow": 5250,
      "Ġappropriate": 5251,
      "rics": 5252,
      "Ġreached": 5253,
      "erry": 5254,
      "ĠRev": 5255,
      "Ġshowing": 5256,
      "Ġlinear": 5257,
      "Ġappeared": 5258,
      "istance": 5259,
      "Ġregarding": 5260,
      "Ġexpert": 5261,
      "Ġinstr": 5262,
      "ifically": 5263,
      "ĠElect": 5264,
      "gn": 5265,
      "Ġmechanism": 5266,
      "Ġconfig": 5267,
      "ĠAngeles": 5268,
      "Sigma": 5269,
      "lict": 5270,
      "ĠDen": 5271,
      "Ġwarm": 5272,
      "Ġestablish": 5273,
      "Ġrac": 5274,
      "orney": 5275,
      "ĠChristmas": 5276,
      "!âĢĿ": 5277,
      "cean": 5278,
      "oration": 5279,
      "ĠTeam": 5280,
      "TV": 5281,
      "1998": 5282,
      "Ġcrim": 5283,
      "pers": 5284,
      "from": 5285,
      "Ð°": 5286,
      "Ġfavorite": 5287,
      "pdf": 5288,
      "Ġequival": 5289,
      "Ġpet": 5290,
      "____": 5291,
      "Ġtrou": 5292,
      "Ġpartner": 5293,
      "Ġpicture": 5294,
      "ĠAtl": 5295,
      "ĠCentre": 5296,
      "uled": 5297,
      "Ġviolence": 5298,
      "Ġmeasures": 5299,
      "hens": 5300,
      "Ġsch": 5301,
      "Ġminor": 5302,
      "ĠGame": 5303,
      "Ġweak": 5304,
      "Ġacadem": 5305,
      "Ġsea": 5306,
      "Ġholds": 5307,
      "\"/": 5308,
      "ĠHy": 5309,
      "Ste": 5310,
      "Ġattract": 5311,
      "HS": 5312,
      "87": 5313,
      "ĠGen": 5314,
      "Ġsusp": 5315,
      "Ġship": 5316,
      "idden": 5317,
      "Ġnegative": 5318,
      "Do": 5319,
      "Ġcompetition": 5320,
      "Ġcompleted": 5321,
      "Ġeye": 5322,
      "Car": 5323,
      "olit": 5324,
      "ĠMass": 5325,
      "ĠRE": 5326,
      "Ġmeant": 5327,
      "sl": 5328,
      "ĠList": 5329,
      "ĠJohnson": 5330,
      "ĠPower": 5331,
      "Ġaren": 5332,
      "Ġmix": 5333,
      "ĠTheir": 5334,
      "Ġonto": 5335,
      "Ġviews": 5336,
      "clusive": 5337,
      "pling": 5338,
      "Ġlabel": 5339,
      "Ġmachine": 5340,
      "Ġconference": 5341,
      "exp": 5342,
      "Ġchallenges": 5343,
      "Ġindex": 5344,
      "ĠLouis": 5345,
      "Ġearth": 5346,
      "kappa": 5347,
      "pan": 5348,
      "max": 5349,
      "Ġtools": 5350,
      "Ġconsult": 5351,
      "Ġraised": 5352,
      "ensions": 5353,
      "ivery": 5354,
      "Ġadministration": 5355,
      "ĠForm": 5356,
      "Ġsignificantly": 5357,
      "ruit": 5358,
      "Ġweap": 5359,
      "Ġinvestigation": 5360,
      "Ġchief": 5361,
      "otimes": 5362,
      "Ġtesting": 5363,
      "Ġrequires": 5364,
      "LC": 5365,
      "Ġcolle": 5366,
      "Ġwriter": 5367,
      "unte": 5368,
      "Ġneighbor": 5369,
      "anging": 5370,
      "olk": 5371,
      "ĠChampions": 5372,
      "Ġfant": 5373,
      "Rec": 5374,
      "odies": 5375,
      "reland": 5376,
      "Ġbeat": 5377,
      "May": 5378,
      "Ġpurs": 5379,
      "ĠAv": 5380,
      "uty": 5381,
      "subset": 5382,
      "ĠPC": 5383,
      "asion": 5384,
      "star": 5385,
      "ĠLong": 5386,
      "ĠOper": 5387,
      "Ġcommunication": 5388,
      "ĠAustralian": 5389,
      "Ġsequence": 5390,
      "Ġyourself": 5391,
      "\\|": 5392,
      "Ġsupported": 5393,
      "Ġcommit": 5394,
      "Ġvolume": 5395,
      "uke": 5396,
      "63": 5397,
      "Ġconsequ": 5398,
      "Ġfear": 5399,
      "ĠSecurity": 5400,
      "Ġinteg": 5401,
      "Ġlaws": 5402,
      "Ġcrowd": 5403,
      "ĠArab": 5404,
      "Ġwait": 5405,
      "ĠFestival": 5406,
      "ctors": 5407,
      "bur": 5408,
      "%)": 5409,
      "Ġseeing": 5410,
      "ĠLee": 5411,
      "Ġtit": 5412,
      "Ġstock": 5413,
      "ĠValley": 5414,
      "return": 5415,
      "Ġwish": 5416,
      "Ġuseful": 5417,
      "acks": 5418,
      "ĠLake": 5419,
      "Ġstring": 5420,
      "Ġrise": 5421,
      "ĠCy": 5422,
      "Ġhero": 5423,
      "Rep": 5424,
      "tered": 5425,
      "aven": 5426,
      "DF": 5427,
      "hab": 5428,
      "Ġsomew": 5429,
      "Ġcris": 5430,
      "Ġsigned": 5431,
      "ĠInternet": 5432,
      "Sub": 5433,
      "zer": 5434,
      "lig": 5435,
      "urder": 5436,
      "Ġleads": 5437,
      "Ġrequirements": 5438,
      "Ġjoined": 5439,
      "Ġcomponents": 5440,
      "Ġcars": 5441,
      "xy": 5442,
      "okes": 5443,
      "ribe": 5444,
      "ĠMike": 5445,
      "hand": 5446,
      "ĠInvest": 5447,
      "Ġseemed": 5448,
      "Ġplays": 5449,
      "ĠEnter": 5450,
      "Ġcomfort": 5451,
      "otes": 5452,
      "while": 5453,
      "ĠChris": 5454,
      "Ġlov": 5455,
      "Add": 5456,
      "Ġarm": 5457,
      "Ġgoals": 5458,
      "ĠWater": 5459,
      "Ġmanager": 5460,
      "Ġpros": 5461,
      "Ġtree": 5462,
      "stra": 5463,
      "ĠThus": 5464,
      "Ġfeeling": 5465,
      "abase": 5466,
      "front": 5467,
      "icit": 5468,
      "Ġfloor": 5469,
      "ĠBet": 5470,
      "Ġidentity": 5471,
      "ĠCath": 5472,
      "ĠHen": 5473,
      "72": 5474,
      "Ġ>>": 5475,
      "circ": 5476,
      "Ġresidents": 5477,
      "Ġprove": 5478,
      "burg": 5479,
      "61": 5480,
      "Ġequipment": 5481,
      "These": 5482,
      "kins": 5483,
      "Ġsenior": 5484,
      "Ġprocesses": 5485,
      "ket": 5486,
      "ĠHead": 5487,
      "ĠIll": 5488,
      "ĠChief": 5489,
      "Ġdistrict": 5490,
      "Ġattend": 5491,
      "Ġmaster": 5492,
      "Ġstreet": 5493,
      "1990": 5494,
      "Ġapparent": 5495,
      "Ġreduced": 5496,
      "Ġphoto": 5497,
      "ĠMedical": 5498,
      "89": 5499,
      "Ġdamage": 5500,
      "liament": 5501,
      "Ġinstall": 5502,
      "ensure": 5503,
      "Ġamazing": 5504,
      "Ġrevealed": 5505,
      "ĠMot": 5506,
      "ĠDesign": 5507,
      "inding": 5508,
      "idel": 5509,
      "Ġprison": 5510,
      "Ġwid": 5511,
      "ĠTour": 5512,
      "ented": 5513,
      ".\\": 5514,
      "ĠSand": 5515,
      "Ġmale": 5516,
      "pected": 5517,
      "Ġthr": 5518,
      "ĠBo": 5519,
      "Ġenvironmental": 5520,
      "GB": 5521,
      "print": 5522,
      "Ġidentify": 5523,
      "oses": 5524,
      "Ġplaced": 5525,
      "John": 5526,
      "atically": 5527,
      "roph": 5528,
      "Ġwhom": 5529,
      "})$": 5530,
      "ishes": 5531,
      "inking": 5532,
      "Ġnoted": 5533,
      "ĠSpecial": 5534,
      "Ġdriving": 5535,
      "Ðµ": 5536,
      "Ġtelevision": 5537,
      "Ġjobs": 5538,
      "Ġdiagn": 5539,
      "Ġchannel": 5540,
      "String": 5541,
      "Ġwww": 5542,
      "Ġq": 5543,
      "62": 5544,
      "ias": 5545,
      "ĠEU": 5546,
      "Ġunits": 5547,
      "Ġweekend": 5548,
      "Ġwave": 5549,
      "ĠLibrary": 5550,
      "ĠNetwork": 5551,
      "Ġnode": 5552,
      "Ġorganizations": 5553,
      "Ġitems": 5554,
      "eller": 5555,
      "duction": 5556,
      "Ġtruly": 5557,
      "Ġcultural": 5558,
      "Ġ%": 5559,
      "ingly": 5560,
      "Ġreturned": 5561,
      "atus": 5562,
      "rence": 5563,
      "uilding": 5564,
      "Ġcamera": 5565,
      "frast": 5566,
      "Ġmostly": 5567,
      "ĠMov": 5568,
      "Ġcolumn": 5569,
      "uries": 5570,
      "Ġleadership": 5571,
      "Ġcoach": 5572,
      "arsh": 5573,
      "Ġrout": 5574,
      "Ġincome": 5575,
      "BI": 5576,
      "79": 5577,
      "Ġfailed": 5578,
      "Ġexists": 5579,
      "ĠRoyal": 5580,
      "Data": 5581,
      "aks": 5582,
      "Over": 5583,
      "Ġmaximum": 5584,
      "ĠAND": 5585,
      "Ġtraffic": 5586,
      "Ġlearned": 5587,
      "wid": 5588,
      "look": 5589,
      "Ġsav": 5590,
      "TC": 5591,
      "Ġequation": 5592,
      "Ġdu": 5593,
      "Ġolder": 5594,
      "Ġrot": 5595,
      "Ġassume": 5596,
      "American": 5597,
      "##": 5598,
      "ingu": 5599,
      "ĠOld": 5600,
      "phone": 5601,
      "Ġterror": 5602,
      "Ġfaith": 5603,
      "Ġhyp": 5604,
      "Ġmist": 5605,
      "Ġrecorded": 5606,
      "hire": 5607,
      "ĠJones": 5608,
      "alysis": 5609,
      "Ġclinical": 5610,
      "iler": 5611,
      "ĠSenate": 5612,
      "Ġanimals": 5613,
      "Ġmode": 5614,
      "About": 5615,
      "ilton": 5616,
      "Ġpolicies": 5617,
      "roud": 5618,
      "how": 5619,
      "ĠExp": 5620,
      "Ġsupply": 5621,
      "Ġentertain": 5622,
      "Ġthanks": 5623,
      "cles": 5624,
      "iate": 5625,
      "Ġprefer": 5626,
      "Ġguess": 5627,
      "Ġoccup": 5628,
      "iden": 5629,
      "ĠAlthough": 5630,
      "TH": 5631,
      "emporary": 5632,
      "ensional": 5633,
      "ĠAmazon": 5634,
      "amin": 5635,
      "Ġfamous": 5636,
      "Ġtrip": 5637,
      "Ã³": 5638,
      "ĠSar": 5639,
      "Ġjoint": 5640,
      "ĠPo": 5641,
      "First": 5642,
      "long": 5643,
      "Ġeventually": 5644,
      "ideos": 5645,
      "ipl": 5646,
      "rid": 5647,
      "Ġleaving": 5648,
      "Ġseparate": 5649,
      "ĠInf": 5650,
      "ĠPolit": 5651,
      "Ġparameter": 5652,
      "Â©": 5653,
      "omy": 5654,
      "ban": 5655,
      "Ġincor": 5656,
      "friend": 5657,
      "ĠCA": 5658,
      "alian": 5659,
      "1997": 5660,
      "ĠLab": 5661,
      "ĠWay": 5662,
      "Med": 5663,
      "Ġcatch": 5664,
      "abla": 5665,
      "Ġheat": 5666,
      "ĠJon": 5667,
      "ella": 5668,
      "centering": 5669,
      "Ġcritic": 5670,
      "ĠVis": 5671,
      "Ġkill": 5672,
      "ĠCanadian": 5673,
      "poses": 5674,
      "Pr": 5675,
      "Ġmonitor": 5676,
      "aylor": 5677,
      "ocked": 5678,
      "Some": 5679,
      "icians": 5680,
      "Ġnull": 5681,
      "Âł": 5682,
      "Ġentry": 5683,
      "}),": 5684,
      "Ġsustain": 5685,
      "Ġalgorithm": 5686,
      "Ġerr": 5687,
      "nam": 5688,
      "Ġstated": 5689,
      "Ġhusband": 5690,
      "Ġguys": 5691,
      "ĠIreland": 5692,
      "ĠSports": 5693,
      "illa": 5694,
      "ĠBack": 5695,
      "ĠBob": 5696,
      "eries": 5697,
      "spec": 5698,
      "Ġoperating": 5699,
      "ĠBoy": 5700,
      "bo": 5701,
      "Ġbottom": 5702,
      "ĠHor": 5703,
      "Ġprotection": 5704,
      "odd": 5705,
      "Ĥ¬": 5706,
      "Ġexerc": 5707,
      "Ġstandards": 5708,
      "ĠParis": 5709,
      "Ġupdate": 5710,
      "Ġpanel": 5711,
      "ĠFire": 5712,
      "Ġofficer": 5713,
      "Ġthank": 5714,
      "nonumber": 5715,
      "ĠHaw": 5716,
      "Ġinternal": 5717,
      "aine": 5718,
      "Ġdefinition": 5719,
      "Ġthousands": 5720,
      "Ġresearc": 5721,
      "Ġdefine": 5722,
      "Ġphil": 5723,
      "ĠPolice": 5724,
      "Pe": 5725,
      "arp": 5726,
      "uing": 5727,
      "Ġshape": 5728,
      "gal": 5729,
      "Ġselection": 5730,
      "Ġrich": 5731,
      "Ġposted": 5732,
      "ĠRights": 5733,
      "However": 5734,
      "aren": 5735,
      "west": 5736,
      "ĠDown": 5737,
      "Ġmarketing": 5738,
      "Ġcities": 5739,
      "nabla": 5740,
      "\")": 5741,
      "Mod": 5742,
      "ĠJeff": 5743,
      "ĠLike": 5744,
      "Ġlaunched": 5745,
      "iform": 5746,
      "Since": 5747,
      "Ġfinding": 5748,
      "Ġauthors": 5749,
      "ĠEnergy": 5750,
      "ĠMuslim": 5751,
      "Ġopinion": 5752,
      "uls": 5753,
      "ĠStand": 5754,
      "Ġproceed": 5755,
      "ih": 5756,
      "ĠFilm": 5757,
      "Ã¢": 5758,
      "Ġconclud": 5759,
      "host": 5760,
      "Ġcomponent": 5761,
      "Ġinterpret": 5762,
      "ĠLord": 5763,
      "Ġcrime": 5764,
      "à¥": 5765,
      "Ġfreedom": 5766,
      "Ġtend": 5767,
      "ĠAuthor": 5768,
      "Te": 5769,
      "ensuremath": 5770,
      "Ġcombination": 5771,
      "Ġ``": 5772,
      "Ġreligious": 5773,
      "ĠPri": 5774,
      "Ġvacc": 5775,
      "Ġspin": 5776,
      "lies": 5777,
      "Ġalternative": 5778,
      "ĠLear": 5779,
      "ĠSecond": 5780,
      "ancer": 5781,
      "ĠAff": 5782,
      "Ġforced": 5783,
      "ucky": 5784,
      "Ġbul": 5785,
      "data": 5786,
      "born": 5787,
      "Ġeditor": 5788,
      "Ġdebut": 5789,
      "ĠMexico": 5790,
      "Ġtransition": 5791,
      "DE": 5792,
      "Ġevolution": 5793,
      "Ġtherap": 5794,
      "ĠYoung": 5795,
      "Ġshut": 5796,
      "Ġsymbol": 5797,
      "frastructure": 5798,
      "Ġbecoming": 5799,
      "Ġmetal": 5800,
      "RI": 5801,
      "Ġclick": 5802,
      "Ġpolitics": 5803,
      "Ġnor": 5804,
      "Ġfuel": 5805,
      "va": 5806,
      "Ġmissing": 5807,
      "Ġcustomer": 5808,
      "Ġjourney": 5809,
      "Ġwatching": 5810,
      "Ġvision": 5811,
      "Ġdeveloping": 5812,
      "Ġarticles": 5813,
      "war": 5814,
      "1996": 5815,
      "apping": 5816,
      "Ġcert": 5817,
      "message": 5818,
      "Ġban": 5819,
      "idering": 5820,
      "Ge": 5821,
      "Ġstress": 5822,
      "Ð¸": 5823,
      "ublished": 5824,
      "Ġfell": 5825,
      "Ġspeech": 5826,
      "Ġapprec": 5827,
      "Ġsale": 5828,
      "FC": 5829,
      "Ġoffering": 5830,
      "Ġended": 5831,
      "ĠAmericans": 5832,
      "poration": 5833,
      "arks": 5834,
      "Ġadjust": 5835,
      "\\!": 5836,
      "Ġdefense": 5837,
      "ĠPan": 5838,
      "Ġfourth": 5839,
      "ĠTest": 5840,
      "eck": 5841,
      "86": 5842,
      "ĠDou": 5843,
      "inton": 5844,
      "Ġwindow": 5845,
      "pat": 5846,
      "Ġadvantage": 5847,
      "know": 5848,
      "ĠMiddle": 5849,
      "ĠJapanese": 5850,
      "Next": 5851,
      "iat": 5852,
      "Ġnorm": 5853,
      "ĠLast": 5854,
      "Ġcarried": 5855,
      "Ġplus": 5856,
      "ĠIts": 5857,
      "Ġgirls": 5858,
      "akistan": 5859,
      "71": 5860,
      "Ġwinning": 5861,
      "enses": 5862,
      "stream": 5863,
      "\\[": 5864,
      "ĠMany": 5865,
      "Ġyield": 5866,
      "ÃŃ": 5867,
      "Gu": 5868,
      "ean": 5869,
      "Ġflight": 5870,
      "ĠArmy": 5871,
      "thlet": 5872,
      "urban": 5873,
      "word": 5874,
      "\"/>": 5875,
      "Ġcontrast": 5876,
      "Ġdoubt": 5877,
      "oria": 5878,
      "Ġthrow": 5879,
      "size": 5880,
      "Ġtechnical": 5881,
      "struct": 5882,
      "74": 5883,
      "Sec": 5884,
      "PC": 5885,
      "Ġgenerated": 5886,
      "150": 5887,
      "Ġtells": 5888,
      "94": 5889,
      "Ġcold": 5890,
      "othing": 5891,
      "Ġoperator": 5892,
      "Ġrelative": 5893,
      "Ġsurvey": 5894,
      "?\"": 5895,
      "iced": 5896,
      "93": 5897,
      "ĠAccording": 5898,
      "Ġshift": 5899,
      "ĠRef": 5900,
      "amm": 5901,
      "Ġdecades": 5902,
      "Ġloved": 5903,
      "Ġnetworks": 5904,
      "Ġmotion": 5905,
      "sembly": 5906,
      "ora": 5907,
      "ĠFood": 5908,
      "Ġupper": 5909,
      "ystem": 5910,
      "Ġregions": 5911,
      "Ġdiscussed": 5912,
      "Ġstarts": 5913,
      "acement": 5914,
      "Ġkid": 5915,
      "ĠIndust": 5916,
      "ĠDaily": 5917,
      "Ġprocessing": 5918,
      "ĠAny": 5919,
      "aser": 5920,
      "Ġretail": 5921,
      "iliar": 5922,
      "ographic": 5923,
      "Ġherself": 5924,
      "ĠDuring": 5925,
      "cript": 5926,
      "ĠPac": 5927,
      "met": 5928,
      "Ġcitizens": 5929,
      "ĠAsia": 5930,
      "den": 5931,
      "Ġfunds": 5932,
      "ĠCast": 5933,
      "Ġdefinitely": 5934,
      "odcast": 5935,
      "Ġincred": 5936,
      "Ob": 5937,
      "ĠRoman": 5938,
      "ĠEr": 5939,
      "Ġbelong": 5940,
      "Ġvector": 5941,
      "ĠCard": 5942,
      "Ġmassive": 5943,
      "Ġlayer": 5944,
      "Ġhappens": 5945,
      "ĠFigure": 5946,
      "Co": 5947,
      "Ġtransl": 5948,
      "Ġglass": 5949,
      "ircraft": 5950,
      "Ġdownload": 5951,
      "ĠTri": 5952,
      "rete": 5953,
      "ĠGall": 5954,
      "Ġowner": 5955,
      "Ġformed": 5956,
      "Ġcrisis": 5957,
      "{-": 5958,
      "ĠGeorg": 5959,
      "ĠCharles": 5960,
      "Ġvillage": 5961,
      "tes": 5962,
      "dots": 5963,
      "')": 5964,
      "Ġborder": 5965,
      "Ġclasses": 5966,
      "claim": 5967,
      "ĠWilliams": 5968,
      "Ġrapid": 5969,
      "ĠOrgan": 5970,
      "DS": 5971,
      "Ass": 5972,
      "Fig": 5973,
      "Ġdomain": 5974,
      "Ġnuclear": 5975,
      "ĠJustice": 5976,
      "ĠJes": 5977,
      "struction": 5978,
      ".[": 5979,
      "tabular": 5980,
      "ura": 5981,
      "ĠDev": 5982,
      "Ġsleep": 5983,
      "Just": 5984,
      "oston": 5985,
      "Ġnarr": 5986,
      "Ġmanaged": 5987,
      "ĠAndrew": 5988,
      "Ġdig": 5989,
      "ï¿": 5990,
      "Ġfashion": 5991,
      "inder": 5992,
      "ĠPenn": 5993,
      "Ġgovern": 5994,
      "Ġjump": 5995,
      "Ġguide": 5996,
      "Ġcovered": 5997,
      "Ġexcellent": 5998,
      "obs": 5999,
      "}}{": 6000,
      "Ġfocused": 6001,
      "ĠScot": 6002,
      "ĠStep": 6003,
      "Ġinjury": 6004,
      "Ġextremely": 6005,
      "Ġpun": 6006,
      "Ġslightly": 6007,
      "ĠEach": 6008,
      "ĠWrit": 6009,
      "Ã¼": 6010,
      "agged": 6011,
      "Ġplot": 6012,
      "Ġarrang": 6013,
      "olved": 6014,
      "ultural": 6015,
      "Ġconstra": 6016,
      "Ġliber": 6017,
      "UL": 6018,
      "Ġannounce": 6019,
      "Ġphen": 6020,
      "ĠNight": 6021,
      "ĠÂ·": 6022,
      "ĠBlue": 6023,
      "Ġcoast": 6024,
      "Ġfinished": 6025,
      "Ġclients": 6026,
      "ashed": 6027,
      "anish": 6028,
      "ĠGames": 6029,
      "free": 6030,
      "rees": 6031,
      "Ġexplain": 6032,
      "Ġstorage": 6033,
      "Ġmental": 6034,
      "Ġforest": 6035,
      "Ġagency": 6036,
      "Ġcentre": 6037,
      "ĠAwards": 6038,
      "Ġadvice": 6039,
      "anche": 6040,
      "1995": 6041,
      "ĠVer": 6042,
      "othes": 6043,
      "fe": 6044,
      "ĠGra": 6045,
      "Ġcombined": 6046,
      "real": 6047,
      "lymp": 6048,
      "73": 6049,
      "Ġnom": 6050,
      "zen": 6051,
      "ba": 6052,
      "ĠHospital": 6053,
      "âĢī": 6054,
      "ĠSaf": 6055,
      "mpt": 6056,
      "Ġice": 6057,
      "abled": 6058,
      "unning": 6059,
      "Ġessential": 6060,
      "Ġfif": 6061,
      "achel": 6062,
      "lt": 6063,
      "Ġ?": 6064,
      "ĠBecause": 6065,
      "Ġappeal": 6066,
      "ï¿½": 6067,
      "Ġspend": 6068,
      "cons": 6069,
      "rig": 6070,
      "Ġdifferences": 6071,
      "Ġminimum": 6072,
      "Ġsounds": 6073,
      "Ġdie": 6074,
      "92": 6075,
      "Ġunivers": 6076,
      "widet": 6077,
      "Ġvoid": 6078,
      "iana": 6079,
      ".âĢĻ": 6080,
      "kin": 6081,
      "Ġconcerns": 6082,
      "ĠVirginia": 6083,
      "lywood": 6084,
      "ĠZeal": 6085,
      "athan": 6086,
      "elled": 6087,
      "Ġsamples": 6088,
      "rical": 6089,
      "ortunately": 6090,
      "ĠLim": 6091,
      "path": 6092,
      "chen": 6093,
      "ĠMen": 6094,
      "ĠReal": 6095,
      "coh": 6096,
      "Ġcommand": 6097,
      "riz": 6098,
      "Ġdestroy": 6099,
      "gery": 6100,
      "Ġexplore": 6101,
      "Ġexchange": 6102,
      "Ġhistorical": 6103,
      "aked": 6104,
      "ATION": 6105,
      "ĠCharl": 6106,
      "andon": 6107,
      "olars": 6108,
      "Ġpractices": 6109,
      "ĠColl": 6110,
      "Ġdepartment": 6111,
      "itage": 6112,
      "ĠDonald": 6113,
      "ups": 6114,
      "Ġfacilities": 6115,
      "greg": 6116,
      "Ġobjects": 6117,
      "ĠFar": 6118,
      "group": 6119,
      "Ġclient": 6120,
      "opyright": 6121,
      "resents": 6122,
      "Ġdefe": 6123,
      "Ġhair": 6124,
      "ĠExper": 6125,
      "Ġphotos": 6126,
      "Of": 6127,
      "hetic": 6128,
      "Ġdriver": 6129,
      "Ġapproximately": 6130,
      "Ġexecutive": 6131,
      "ĠBas": 6132,
      "asks": 6133,
      "Net": 6134,
      "venture": 6135,
      "ĠWall": 6136,
      "Ġhelps": 6137,
      "Ġodd": 6138,
      "Ġdelivery": 6139,
      "ixt": 6140,
      "Ġwhatever": 6141,
      "82": 6142,
      "Ġargument": 6143,
      "ĠIT": 6144,
      "value": 6145,
      "Ġrail": 6146,
      "uations": 6147,
      "Ġdrop": 6148,
      "scape": 6149,
      "Ġexperiences": 6150,
      "function": 6151,
      "news": 6152,
      "orters": 6153,
      "Ġexamples": 6154,
      "Ġprices": 6155,
      "Ġexpos": 6156,
      "Ġcandidate": 6157,
      "astern": 6158,
      "Ġhelping": 6159,
      "ĠZealand": 6160,
      "Last": 6161,
      "Ġyouth": 6162,
      "ĠEqu": 6163,
      "Ġattacks": 6164,
      "scale": 6165,
      "Ġnotes": 6166,
      "ĠView": 6167,
      "Ġagent": 6168,
      "ĠWild": 6169,
      "ĠTH": 6170,
      "ĠMax": 6171,
      "ĠAdminist": 6172,
      "widetilde": 6173,
      "ĠItaly": 6174,
      "84": 6175,
      "Ġdepth": 6176,
      "Then": 6177,
      "ĠAcademy": 6178,
      "Ġclassic": 6179,
      "RC": 6180,
      "Art": 6181,
      "Par": 6182,
      "Ġgain": 6183,
      "ienced": 6184,
      "Ġissued": 6185,
      "mid": 6186,
      "Ġvar": 6187,
      "Ġrelation": 6188,
      "Ġmovies": 6189,
      "water": 6190,
      "ĠTrust": 6191,
      "Ġwitness": 6192,
      "osop": 6193,
      "mosp": 6194,
      "bb": 6195,
      "Ġchanging": 6196,
      "ĠFurther": 6197,
      "Ġscheme": 6198,
      "secut": 6199,
      "Ġutil": 6200,
      "iger": 6201,
      "Ġhaven": 6202,
      "MC": 6203,
      "omic": 6204,
      "ship": 6205,
      "sen": 6206,
      "Ġkick": 6207,
      "Ġlisten": 6208,
      "ushed": 6209,
      "Ġsymm": 6210,
      "ĠMur": 6211,
      "cious": 6212,
      "Ġtun": 6213,
      "Ġefficient": 6214,
      "Ġimportance": 6215,
      "Ġpil": 6216,
      "ĠToday": 6217,
      "edge": 6218,
      "ĠAud": 6219,
      "ĠEll": 6220,
      "ipped": 6221,
      "Ġmarkets": 6222,
      "Ġhearing": 6223,
      "Ġpoly": 6224,
      "ĠMicrosoft": 6225,
      "utely": 6226,
      "Ġweather": 6227,
      "ĠNote": 6228,
      "Ġcash": 6229,
      "Ġcrew": 6230,
      "Ġresulting": 6231,
      "Ġcircum": 6232,
      "Ġconfirmed": 6233,
      "ossible": 6234,
      "ĠLuc": 6235,
      "1980": 6236,
      "ĠTherefore": 6237,
      "Ġbrings": 6238,
      "Ġnine": 6239,
      "Ġhyper": 6240,
      "Ġrom": 6241,
      "ERS": 6242,
      "ĠMcC": 6243,
      "Ġstatic": 6244,
      "osc": 6245,
      "Ġadding": 6246,
      "Ġcorrel": 6247,
      "inity": 6248,
      "Ġpaint": 6249,
      "Ġsufficient": 6250,
      "ĠTable": 6251,
      "ĠPop": 6252,
      "Ġ==": 6253,
      "Ġcreative": 6254,
      "Ġflat": 6255,
      "ĠLive": 6256,
      "acter": 6257,
      "Ġliterature": 6258,
      "ĠPhys": 6259,
      "ĠRo": 6260,
      "ĠDisc": 6261,
      "oster": 6262,
      "Ġunless": 6263,
      "ĠPerson": 6264,
      "Ġevening": 6265,
      "Ġlabor": 6266,
      "Ġrelatively": 6267,
      "Ġsubsequ": 6268,
      "SU": 6269,
      "Ġtechniques": 6270,
      "83": 6271,
      "Ġsupposed": 6272,
      "oles": 6273,
      "Ġmusical": 6274,
      "Ġdocuments": 6275,
      "FA": 6276,
      "ĠHa": 6277,
      "Ġton": 6278,
      "ĠCa": 6279,
      "elly": 6280,
      "Ġresolution": 6281,
      "uan": 6282,
      "arts": 6283,
      "ĠConference": 6284,
      "State": 6285,
      "ĠFederal": 6286,
      "ipe": 6287,
      "Ġbalance": 6288,
      "ĠKen": 6289,
      "dule": 6290,
      "Ġfacility": 6291,
      "According": 6292,
      "Ġvehicles": 6293,
      "ĠId": 6294,
      "Ġturns": 6295,
      "Ġdial": 6296,
      "Ġprepar": 6297,
      "Ġsport": 6298,
      "Ġinn": 6299,
      "Ġpp": 6300,
      "Ġfrequency": 6301,
      "ĠFrancisco": 6302,
      "ĠKingdom": 6303,
      "Ġprotein": 6304,
      "Ġlit": 6305,
      "cks": 6306,
      "Ġextended": 6307,
      "Ġquantum": 6308,
      "Ġprofile": 6309,
      "/\\": 6310,
      "Def": 6311,
      "law": 6312,
      "node": 6313,
      "91": 6314,
      "otal": 6315,
      "Ġenem": 6316,
      "Reg": 6317,
      "icol": 6318,
      "utr": 6319,
      "ĠMu": 6320,
      "stitution": 6321,
      "Ġmarried": 6322,
      "Ġratio": 6323,
      "Ġvac": 6324,
      "ĠAT": 6325,
      "ĠSep": 6326,
      "ML": 6327,
      "Ġjustice": 6328,
      "ye": 6329,
      "Ġconver": 6330,
      "ĠSpace": 6331,
      "ĠProv": 6332,
      "agement": 6333,
      "................": 6334,
      "Ġmanner": 6335,
      "Ġskin": 6336,
      "Ġexplained": 6337,
      "Ġpurchase": 6338,
      "ĠDaniel": 6339,
      "Trans": 6340,
      "Ġà¤": 6341,
      "case": 6342,
      "Ġchair": 6343,
      "Ġhotel": 6344,
      "ĠOnline": 6345,
      "Ġroute": 6346,
      "Dr": 6347,
      "Ġedition": 6348,
      "obe": 6349,
      "Ġcalling": 6350,
      "ato": 6351,
      "inating": 6352,
      "Ġrecon": 6353,
      "ĠDC": 6354,
      "Ġfailure": 6355,
      "Ġplants": 6356,
      "Ġmotor": 6357,
      "Ġuncertain": 6358,
      "Ġreli": 6359,
      "ĠBeach": 6360,
      "gent": 6361,
      "Ġrepresents": 6362,
      "Ġcriminal": 6363,
      "ints": 6364,
      "Ġtreated": 6365,
      "link": 6366,
      "Ġregul": 6367,
      "Ġvert": 6368,
      "iveness": 6369,
      "Ġrepresentation": 6370,
      "Ġdecisions": 6371,
      "Ġsyn": 6372,
      "Ġlived": 6373,
      "Ġnoise": 6374,
      "Ġkm": 6375,
      "}-": 6376,
      "1994": 6377,
      "eler": 6378,
      "Ġfle": 6379,
      "ĠLem": 6380,
      "ading": 6381,
      "âĢĻ.": 6382,
      "Ġdatas": 6383,
      "Ġmurder": 6384,
      "Ġestimated": 6385,
      "Ġfix": 6386,
      "Ġcomparison": 6387,
      "Ġallowing": 6388,
      "Ġpassion": 6389,
      "ĠCarolina": 6390,
      "ograp": 6391,
      "raq": 6392,
      "Ġbehavi": 6393,
      "Ġagreed": 6394,
      "Ġconducted": 6395,
      "perty": 6396,
      "phas": 6397,
      "Ġnone": 6398,
      "Ġmolec": 6399,
      "cup": 6400,
      "ĠForce": 6401,
      "ridge": 6402,
      "Ġlisted": 6403,
      "{(": 6404,
      "iral": 6405,
      "Ġfeels": 6406,
      "Ġcharges": 6407,
      "ĠLiber": 6408,
      "ressive": 6409,
      "onds": 6410,
      "Per": 6411,
      "Ġwaiting": 6412,
      "81": 6413,
      "Comp": 6414,
      "etric": 6415,
      "ĠĠĠĠĠĠĠĠĠĠĠĠĠ": 6416,
      "Ġamb": 6417,
      "PM": 6418,
      "ĠStudies": 6419,
      "Ġremoved": 6420,
      "Ġstructures": 6421,
      "Ġdemocr": 6422,
      "Ġdedicated": 6423,
      "Ġremaining": 6424,
      "Ġisol": 6425,
      "Ġcategory": 6426,
      "ĠBoth": 6427,
      "empl": 6428,
      "Ġcarbon": 6429,
      "zeta": 6430,
      "Ġchosen": 6431,
      "ĠCH": 6432,
      "ĠBow": 6433,
      "Ġofficers": 6434,
      "ĠJewish": 6435,
      "Ġbird": 6436,
      "Ġleaves": 6437,
      "Ġreaders": 6438,
      "ĠSeason": 6439,
      "ati": 6440,
      "Ġdistinct": 6441,
      "Ġexperiment": 6442,
      "isters": 6443,
      "Well": 6444,
      "ĠWal": 6445,
      "ician": 6446,
      "Ġ=>": 6447,
      "hop": 6448,
      "Ġprobability": 6449,
      "oken": 6450,
      "Des": 6451,
      "razil": 6452,
      "Ġindeed": 6453,
      "Ġconsistent": 6454,
      "ĠSteve": 6455,
      "ĠWhe": 6456,
      "gypt": 6457,
      "ĠDivision": 6458,
      "Ġguarant": 6459,
      "120": 6460,
      "idential": 6461,
      "Ġhydro": 6462,
      "illy": 6463,
      "Ġdescribe": 6464,
      "Ġprofession": 6465,
      "ĠEnvironment": 6466,
      "Am": 6467,
      "ĠLi": 6468,
      "Ġprepared": 6469,
      "requ": 6470,
      "Ġsquare": 6471,
      ")-": 6472,
      "ĠLy": 6473,
      "Ġbuildings": 6474,
      "gar": 6475,
      "erman": 6476,
      "rehens": 6477,
      "osite": 6478,
      "âĢĻ,": 6479,
      "dden": 6480,
      "oral": 6481,
      "imately": 6482,
      "Ġtests": 6483,
      "ĠUpd": 6484,
      "Top": 6485,
      "ĠKar": 6486,
      "Ġsched": 6487,
      "abeth": 6488,
      "\"><": 6489,
      "FF": 6490,
      "ĠLo": 6491,
      "dot": 6492,
      "inos": 6493,
      "Ġframe": 6494,
      "ĠPhot": 6495,
      "iano": 6496,
      "ĠWalk": 6497,
      "Ġexpansion": 6498,
      "ĠEq": 6499,
      "mes": 6500,
      "Ġfinite": 6501,
      "ĠPakistan": 6502,
      "onent": 6503,
      "----------------": 6504,
      "Ġguitar": 6505,
      "Ġaffected": 6506,
      "allel": 6507,
      "Book": 6508,
      "Ġlatter": 6509,
      "Ġbegins": 6510,
      "Ġsmooth": 6511,
      "Tags": 6512,
      "ployment": 6513,
      "ĠAdv": 6514,
      "ĠHarr": 6515,
      "Ġdance": 6516,
      "Ġpure": 6517,
      "ðŁ": 6518,
      "Ġseat": 6519,
      "Ġdetailed": 6520,
      "Ġexception": 6521,
      "Ġchemical": 6522,
      "Ġcommitted": 6523,
      "Ġhomes": 6524,
      "Form": 6525,
      "ĠVan": 6526,
      "ĠKim": 6527,
      "ĠPlease": 6528,
      "News": 6529,
      "Part": 6530,
      "Ġexpressed": 6531,
      "antly": 6532,
      "Ġkeeping": 6533,
      "Ġpieces": 6534,
      "ĠBritain": 6535,
      "CL": 6536,
      "TA": 6537,
      "icate": 6538,
      "ĠFort": 6539,
      "Ġnumerous": 6540,
      "eah": 6541,
      "string": 6542,
      "ĠGirl": 6543,
      "Ġcomplic": 6544,
      "Ġanimal": 6545,
      "Ġcoverage": 6546,
      "zy": 6547,
      "Ġproud": 6548,
      "reate": 6549,
      "Ġimproved": 6550,
      "Ġsupporting": 6551,
      "rich": 6552,
      "Ġdivid": 6553,
      "adium": 6554,
      "Ġmeasured": 6555,
      "Ġhonest": 6556,
      "Ġraise": 6557,
      "ĠOlymp": 6558,
      "Ġpurposes": 6559,
      "ĠJackson": 6560,
      "Class": 6561,
      "Ġinternet": 6562,
      "Ġdiscovered": 6563,
      "Ne": 6564,
      "Ġvictory": 6565,
      "Ġdebate": 6566,
      "NS": 6567,
      "Ġplane": 6568,
      "\\]": 6569,
      "ĠCoast": 6570,
      "Ġworse": 6571,
      "Ġalleged": 6572,
      "Ġsan": 6573,
      "ĠSea": 6574,
      "Ġadvoc": 6575,
      "Ġdescription": 6576,
      "Ġintended": 6577,
      "CS": 6578,
      "rog": 6579,
      "Ġequivalent": 6580,
      "Ġaircraft": 6581,
      "Ã¶": 6582,
      "acle": 6583,
      "awa": 6584,
      "Ġnav": 6585,
      "Ġdefend": 6586,
      "ATE": 6587,
      "ensus": 6588,
      "Ġcorner": 6589,
      "Ġholding": 6590,
      "ĠTaylor": 6591,
      "Ġking": 6592,
      "ĠCatholic": 6593,
      "Ġwest": 6594,
      "pg": 6595,
      "ĠIP": 6596,
      "Ġsudden": 6597,
      "Ġcaught": 6598,
      "Ġresource": 6599,
      "ican": 6600,
      "Ġhousing": 6601,
      "Ġque": 6602,
      "Ġsubs": 6603,
      "ivered": 6604,
      "}_\\": 6605,
      ";\\": 6606,
      "Ġsession": 6607,
      "ĠID": 6608,
      "Ġille": 6609,
      "prise": 6610,
      "textwidth": 6611,
      ")=\\": 6612,
      "Ġbelief": 6613,
      "ighter": 6614,
      "Ġexperienced": 6615,
      "Ġreform": 6616,
      "Ġchain": 6617,
      "Ġadvance": 6618,
      "ĠAD": 6619,
      "car": 6620,
      "ulty": 6621,
      "Ġreviews": 6622,
      "ĠRa": 6623,
      "Ġisland": 6624,
      "icious": 6625,
      "Ġbright": 6626,
      "Ġhighlight": 6627,
      "Ð½": 6628,
      "Ġran": 6629,
      "Ġdelay": 6630,
      "uzz": 6631,
      "enger": 6632,
      "index": 6633,
      "Ġfamiliar": 6634,
      "iser": 6635,
      "ĠChildren": 6636,
      "Ġlose": 6637,
      "Ġdraft": 6638,
      "inally": 6639,
      "ĠDigital": 6640,
      "onto": 6641,
      "agger": 6642,
      "uts": 6643,
      "Photo": 6644,
      "Ġsubstant": 6645,
      "ĠColor": 6646,
      "Ġtalks": 6647,
      "Ġtrees": 6648,
      "ĠAgain": 6649,
      "Ġframework": 6650,
      "lyn": 6651,
      "Ġhab": 6652,
      "ĠExt": 6653,
      "Ġinteraction": 6654,
      "Ġperspective": 6655,
      "Ġplanet": 6656,
      "ĠSup": 6657,
      "Ġvolunte": 6658,
      "ĠFed": 6659,
      "Ġlocations": 6660,
      "orders": 6661,
      "Ġreject": 6662,
      "rawn": 6663,
      "Ġdiss": 6664,
      "Google": 6665,
      "ez": 6666,
      "ĠMid": 6667,
      "ĠStory": 6668,
      "ĠFoot": 6669,
      "ĠRom": 6670,
      "Other": 6671,
      "ĠBoston": 6672,
      "ĠRepublican": 6673,
      "ĠSecretary": 6674,
      "Ġwilling": 6675,
      "pa": 6676,
      "redit": 6677,
      "ĠAR": 6678,
      "Ġcere": 6679,
      "Ġ&=": 6680,
      "Ġincident": 6681,
      "stone": 6682,
      "ĠPhoto": 6683,
      "ĠWatch": 6684,
      "public": 6685,
      "ĠDie": 6686,
      "inet": 6687,
      "Ġfinds": 6688,
      "Ġabuse": 6689,
      "Ġuniversity": 6690,
      "Ġsecure": 6691,
      "iki": 6692,
      "ifications": 6693,
      "Ġspecifically": 6694,
      "Ġresearchers": 6695,
      "Cons": 6696,
      "aka": 6697,
      "\\{": 6698,
      "Ġentirely": 6699,
      "1993": 6700,
      "Gl": 6701,
      "Ġsoul": 6702,
      "ĠProfessor": 6703,
      "ĠHon": 6704,
      "ĠÂ©": 6705,
      "Will": 6706,
      "anges": 6707,
      "ĠGuide": 6708,
      "ĠVi": 6709,
      "ĠMic": 6710,
      "Ġspring": 6711,
      "orry": 6712,
      "ĠVideo": 6713,
      "post": 6714,
      "forcement": 6715,
      "][": 6716,
      "map": 6717,
      "ĠCall": 6718,
      "Ġacid": 6719,
      "Ġatmosp": 6720,
      "Ġswitch": 6721,
      "ĠJac": 6722,
      "inations": 6723,
      "ÑĤ": 6724,
      "Ġfiled": 6725,
      "Ġinspired": 6726,
      "Time": 6727,
      "Ġcycle": 6728,
      "Ġdirected": 6729,
      "Ġafford": 6730,
      "Ġvent": 6731,
      "Ġtypically": 6732,
      "Ġcommission": 6733,
      "Ġassert": 6734,
      "iginal": 6735,
      "ĠTheatre": 6736,
      "Ġcharged": 6737,
      "Ġinterests": 6738,
      ")}\\": 6739,
      "Ġshares": 6740,
      "ervative": 6741,
      "mann": 6742,
      "Ġinsurance": 6743,
      "Ġadm": 6744,
      "Ġadvanced": 6745,
      "Ġconsidering": 6746,
      "Ġcookies": 6747,
      "ĠTheorem": 6748,
      "ĠKh": 6749,
      "Ġmort": 6750,
      "Gr": 6751,
      "oret": 6752,
      "anna": 6753,
      "Ġinfrastructure": 6754,
      "ilit": 6755,
      "Ġheight": 6756,
      "Ġformation": 6757,
      "Ġscientific": 6758,
      "rome": 6759,
      "Ġpossibly": 6760,
      "ĠCross": 6761,
      "aturing": 6762,
      "Ġincreases": 6763,
      "ĠIII": 6764,
      "Ġsolar": 6765,
      "Ġsynt": 6766,
      "Ġfighting": 6767,
      "ĠPR": 6768,
      "inson": 6769,
      "ĠRam": 6770,
      "Ġends": 6771,
      "Ġspaces": 6772,
      "iples": 6773,
      "Ġparticipants": 6774,
      "hent": 6775,
      "ĠItalian": 6776,
      "ĠDar": 6777,
      "Ġembod": 6778,
      "lights": 6779,
      "Ġaspects": 6780,
      "Ġmarriage": 6781,
      "ĠLtd": 6782,
      "Che": 6783,
      "Ġexcited": 6784,
      "Ġsuggests": 6785,
      "Ġfish": 6786,
      "Sim": 6787,
      "unc": 6788,
      "Ġaccident": 6789,
      "adow": 6790,
      "ĠIraq": 6791,
      "ĠLook": 6792,
      "Follow": 6793,
      "Ġseek": 6794,
      "Ġeasier": 6795,
      "ifer": 6796,
      "EG": 6797,
      "ulner": 6798,
      "}+": 6799,
      "page": 6800,
      "Ġstudied": 6801,
      "ĠSP": 6802,
      "ĠTerm": 6803,
      "ansas": 6804,
      "250": 6805,
      "Ġpal": 6806,
      "ĠJoseph": 6807,
      "Ġmanufacture": 6808,
      "Ġfigures": 6809,
      "Ġestimate": 6810,
      "ĠDemocratic": 6811,
      "yr": 6812,
      "Ġregional": 6813,
      "alaxy": 6814,
      "ĠJr": 6815,
      "Ġast": 6816,
      "Set": 6817,
      "ipping": 6818,
      "Ġprivacy": 6819,
      "Ġsubsc": 6820,
      "ĠGa": 6821,
      "Ġacknow": 6822,
      "Ġring": 6823,
      "ĠPage": 6824,
      "Ġsand": 6825,
      "Ġeat": 6826,
      "Oh": 6827,
      "ĠWat": 6828,
      "Ġrelationships": 6829,
      "Ġax": 6830,
      "1992": 6831,
      "OU": 6832,
      "Ġbringing": 6833,
      "Ġcorporate": 6834,
      "Ġbatter": 6835,
      "Ġoriginally": 6836,
      "Ġauthority": 6837,
      "{{\\": 6838,
      "Ġasking": 6839,
      "Ġstanding": 6840,
      "mond": 6841,
      "Ġemphas": 6842,
      "enced": 6843,
      "Ġthoughts": 6844,
      "ĠLittle": 6845,
      "ja": 6846,
      "TR": 6847,
      "inds": 6848,
      "ĠSouthern": 6849,
      "Ġapproved": 6850,
      "Ġmoments": 6851,
      "Jan": 6852,
      "Ġfavour": 6853,
      "Ġpool": 6854,
      "Ġcandidates": 6855,
      "Ġexistence": 6856,
      "Ġancient": 6857,
      "cohol": 6858,
      "ĠField": 6859,
      "ĠWin": 6860,
      "Ġhealthy": 6861,
      "stract": 6862,
      "Ġvideos": 6863,
      "1970": 6864,
      "Every": 6865,
      "iated": 6866,
      "jo": 6867,
      "Ġexec": 6868,
      "Ġrow": 6869,
      "Ġleague": 6870,
      "ĠIss": 6871,
      "Ġconcerned": 6872,
      "avid": 6873,
      "edding": 6874,
      "Ġremov": 6875,
      "omorph": 6876,
      "Ġinfect": 6877,
      "appro": 6878,
      "ĠSus": 6879,
      "izabeth": 6880,
      "MM": 6881,
      "Ġappearance": 6882,
      "erest": 6883,
      "ums": 6884,
      "ĠMatt": 6885,
      "det": 6886,
      "Ġbaby": 6887,
      "ĠCur": 6888,
      "test": 6889,
      "onym": 6890,
      "ĠBooks": 6891,
      "Ġment": 6892,
      "Ġusual": 6893,
      "ĠColumb": 6894,
      "}]": 6895,
      "Ġputting": 6896,
      "Ġgender": 6897,
      "Er": 6898,
      "Â°": 6899,
      "uality": 6900,
      "eper": 6901,
      "oding": 6902,
      "prime": 6903,
      "Ġsevere": 6904,
      "utch": 6905,
      "avirus": 6906,
      "Ġcloser": 6907,
      "aph": 6908,
      "800": 6909,
      "ĠGar": 6910,
      "Sm": 6911,
      "EP": 6912,
      "ounsel": 6913,
      "oric": 6914,
      "ĠExecutive": 6915,
      "ffee": 6916,
      "Ġsuggested": 6917,
      "alo": 6918,
      "Ġelectronic": 6919,
      "ĠPass": 6920,
      "Ġsac": 6921,
      "Ġresponsibility": 6922,
      "osm": 6923,
      "Ġearn": 6924,
      "Ġinvolve": 6925,
      "Ġrough": 6926,
      "600": 6927,
      "Ġcollected": 6928,
      "gence": 6929,
      "ĠRadio": 6930,
      "irty": 6931,
      "Ġsister": 6932,
      "ĠLight": 6933,
      "ĠMA": 6934,
      "ĠOl": 6935,
      "Ġextract": 6936,
      "}=\\": 6937,
      "Ġdiscover": 6938,
      "Ġmatters": 6939,
      "Ġworst": 6940,
      "Ġeast": 6941,
      "Ġreaction": 6942,
      "ĠBlog": 6943,
      "Ġauthorities": 6944,
      "BO": 6945,
      "Ġesc": 6946,
      "opl": 6947,
      "Ġsides": 6948,
      "run": 6949,
      "ĠON": 6950,
      "Ġris": 6951,
      "Ġmotiv": 6952,
      "ĠMedicine": 6953,
      "ptions": 6954,
      "El": 6955,
      "ĠMarket": 6956,
      "ĠIrish": 6957,
      "Ġconflict": 6958,
      "acking": 6959,
      "1000": 6960,
      "wan": 6961,
      "ĠUse": 6962,
      "Ġpositions": 6963,
      "irms": 6964,
      "ĠFour": 6965,
      "Ġformat": 6966,
      "andemic": 6967,
      "ĉĊ": 6968,
      "Ġsharing": 6969,
      "asters": 6970,
      "ether": 6971,
      "Ġintelligence": 6972,
      "icity": 6973,
      "ĠLog": 6974,
      "Ġexperts": 6975,
      "ĠPrem": 6976,
      "Ġtechnologies": 6977,
      "ima": 6978,
      "Ġrepresented": 6979,
      "ĠAction": 6980,
      "arian": 6981,
      "Ġreturns": 6982,
      "Ġdiscl": 6983,
      "Ġwarn": 6984,
      "ĠPrime": 6985,
      "Yes": 6986,
      "ifies": 6987,
      "mathsf": 6988,
      "lines": 6989,
      "Ġswe": 6990,
      "ali": 6991,
      "Ag": 6992,
      "Ġwealth": 6993,
      "pol": 6994,
      "power": 6995,
      ")^{": 6996,
      "External": 6997,
      "gebra": 6998,
      "Ġapproaches": 6999,
      "Ġthick": 7000,
      "prene": 7001,
      "Ġmere": 7002,
      "Ġfinish": 7003,
      "Ġdelivered": 7004,
      "Ġconversation": 7005,
      "Ġmagnetic": 7006,
      "ĠFair": 7007,
      "ĠBrook": 7008,
      "ervice": 7009,
      "amental": 7010,
      "Ġwelcome": 7011,
      "Ġgreatest": 7012,
      "esterday": 7013,
      "Ġmanage": 7014,
      "Ġconcert": 7015,
      "ĠAge": 7016,
      "ĠSpanish": 7017,
      "ĠWindows": 7018,
      "ĠHenry": 7019,
      "Ġnegot": 7020,
      "Ġindu": 7021,
      "Ġcontribution": 7022,
      "Ġmedium": 7023,
      "bury": 7024,
      "Ġ&&": 7025,
      "ruption": 7026,
      "Ġspectrum": 7027,
      "Ġemergency": 7028,
      "outs": 7029,
      "ipal": 7030,
      "Ġtow": 7031,
      "bel": 7032,
      "Ġlibrary": 7033,
      "yers": 7034,
      "VD": 7035,
      "ĠOnly": 7036,
      "px": 7037,
      "Ġexternal": 7038,
      "Ġdrugs": 7039,
      "Ġfat": 7040,
      "po": 7041,
      "}^\\": 7042,
      "Ġtum": 7043,
      "Ġteacher": 7044,
      "EX": 7045,
      "reprene": 7046,
      "Ġportion": 7047,
      "pload": 7048,
      "ĠYes": 7049,
      "bound": 7050,
      "////": 7051,
      "Ġarrived": 7052,
      "Ġwaste": 7053,
      "110": 7054,
      "Ġfilled": 7055,
      "ĠPacific": 7056,
      "Ġspending": 7057,
      "ulating": 7058,
      "har": 7059,
      "ĠQueen": 7060,
      "Ġacademic": 7061,
      "Mr": 7062,
      "ĠSet": 7063,
      "Ġplanned": 7064,
      "Ġelim": 7065,
      "Ġarray": 7066,
      "Inter": 7067,
      "Ġneighborhood": 7068,
      "ruck": 7069,
      "ĠKn": 7070,
      "olve": 7071,
      "anes": 7072,
      "Ġiron": 7073,
      "Ġreduction": 7074,
      "Ġcontaining": 7075,
      "ĠSign": 7076,
      "$)": 7077,
      "Ġcouncil": 7078,
      "essions": 7079,
      "Ġlies": 7080,
      "ĠSher": 7081,
      "Ġflex": 7082,
      "Ġnewsp": 7083,
      "ĠEgypt": 7084,
      "oir": 7085,
      "Ġyes": 7086,
      "widehat": 7087,
      "ĠClin": 7088,
      "Ġrent": 7089,
      "Ġimplic": 7090,
      "Ġtherapy": 7091,
      "PD": 7092,
      "Ġteaching": 7093,
      "ĠSat": 7094,
      "ĠChair": 7095,
      "Ġclaimed": 7096,
      "Ġsad": 7097,
      "cit": 7098,
      "ĠCivil": 7099,
      "Ġdecade": 7100,
      "Ġconfidence": 7101,
      "ĠTw": 7102,
      "Ġimplementation": 7103,
      "fin": 7104,
      "Ġhumans": 7105,
      "Ġfeatured": 7106,
      "Ġmir": 7107,
      "Ġspons": 7108,
      "iro": 7109,
      "Fil": 7110,
      "ocument": 7111,
      "Rel": 7112,
      "kes": 7113,
      "ĠSupport": 7114,
      "Ġstopped": 7115,
      "Ġgar": 7116,
      "Ġcraft": 7117,
      "pled": 7118,
      "Ġride": 7119,
      "Ġtherm": 7120,
      "Ġteen": 7121,
      "unting": 7122,
      "Ġtro": 7123,
      "Key": 7124,
      "Ġliqu": 7125,
      "ĠWhere": 7126,
      "ghan": 7127,
      "ĠFox": 7128,
      "}|": 7129,
      "Ġcommittee": 7130,
      "Ġvel": 7131,
      "apore": 7132,
      "translation": 7133,
      "ĠEngineering": 7134,
      "inte": 7135,
      "Ġvirtual": 7136,
      "url": 7137,
      "Ġfiles": 7138,
      "ira": 7139,
      "Ġbelieved": 7140,
      "Out": 7141,
      "onavirus": 7142,
      "ĠOk": 7143,
      "ffect": 7144,
      "ĠMaster": 7145,
      "ĠNorthern": 7146,
      "isa": 7147,
      "ĠCarl": 7148,
      "Cor": 7149,
      "Ġshooting": 7150,
      "ĠLar": 7151,
      "unicip": 7152,
      "rovers": 7153,
      "Ġprocedure": 7154,
      "ĠSciences": 7155,
      "Ġven": 7156,
      "LS": 7157,
      "Char": 7158,
      "Ġtradition": 7159,
      "ĠPrivacy": 7160,
      "Phone": 7161,
      "Ġremark": 7162,
      "CR": 7163,
      "Ġcircumst": 7164,
      "Ġdangerous": 7165,
      "ĠBrazil": 7166,
      "Ġkit": 7167,
      "Ġforg": 7168,
      "Ġposts": 7169,
      "Ġtight": 7170,
      "Ġbroken": 7171,
      "raction": 7172,
      ".~": 7173,
      "Ġprotected": 7174,
      "Ġtheme": 7175,
      "ogy": 7176,
      "Ġmel": 7177,
      "Ġupdated": 7178,
      "Ġsigns": 7179,
      "Ġcauses": 7180,
      "Ġhundreds": 7181,
      "ĠSong": 7182,
      "Ġacts": 7183,
      "edu": 7184,
      "Ġplenty": 7185,
      "ĠMichigan": 7186,
      "Ġgather": 7187,
      "ĠNon": 7188,
      "Ġmixed": 7189,
      "ador": 7190,
      "udi": 7191,
      "ĠMP": 7192,
      "abs": 7193,
      "ownt": 7194,
      "person": 7195,
      "Ġregistered": 7196,
      "ko": 7197,
      "Ġachieved": 7198,
      "ila": 7199,
      "ĠSpain": 7200,
      "ocking": 7201,
      "Ġsympt": 7202,
      "Ġtwice": 7203,
      "Ġabsolutely": 7204,
      "Ġwonderful": 7205,
      "Ġnative": 7206,
      "IST": 7207,
      "Ġcoal": 7208,
      "Ġ;": 7209,
      "Ġminute": 7210,
      "ragon": 7211,
      "erves": 7212,
      "Ġinstitutions": 7213,
      "Ġ~": 7214,
      "Ġrepeated": 7215,
      "ela": 7216,
      "Ġforget": 7217,
      "ĠKorea": 7218,
      "!\"": 7219,
      "vania": 7220,
      ",-": 7221,
      "Ġagents": 7222,
      "lections": 7223,
      "Ġseeking": 7224,
      "Ġexperiments": 7225,
      "ĠPay": 7226,
      "ĠOnce": 7227,
      "Ġcreation": 7228,
      "Ġrestaurant": 7229,
      "Ġacting": 7230,
      "EST": 7231,
      "Ġuniform": 7232,
      "ucks": 7233,
      "Tube": 7234,
      "ÑĢ": 7235,
      "ĠMethod": 7236,
      "ĠRecords": 7237,
      "ournament": 7238,
      "Ġindustrial": 7239,
      "Ġdomestic": 7240,
      "Ġideal": 7241,
      "Ġbra": 7242,
      "Ġtelling": 7243,
      "Figure": 7244,
      "Ġstorm": 7245,
      "Ġfort": 7246,
      "ifts": 7247,
      "Fl": 7248,
      "Eng": 7249,
      "ĠArticle": 7250,
      "inition": 7251,
      "lemma": 7252,
      "Ġcas": 7253,
      "Ġpit": 7254,
      "Dis": 7255,
      "ĠHard": 7256,
      "Ġpayment": 7257,
      "Note": 7258,
      "aught": 7259,
      "Ġreporting": 7260,
      "Ġinstrument": 7261,
      "Ġlots": 7262,
      "Ġbrows": 7263,
      "Ġreceiving": 7264,
      "Ã¤": 7265,
      "gely": 7266,
      "Ġwinner": 7267,
      "Ġfindings": 7268,
      "noon": 7269,
      "hered": 7270,
      "istant": 7271,
      "Ġstudio": 7272,
      "Act": 7273,
      "idelines": 7274,
      "ĠAccess": 7275,
      "Ġrepro": 7276,
      "cdots": 7277,
      "burgh": 7278,
      "Hist": 7279,
      "Ġveter": 7280,
      "Ġ\\{": 7281,
      "Ġtypical": 7282,
      "cr": 7283,
      "ĠOhio": 7284,
      "Ġvariables": 7285,
      "ĠFull": 7286,
      "Ġtracks": 7287,
      "Ġspeaking": 7288,
      "HT": 7289,
      "des": 7290,
      "Ġguard": 7291,
      "asts": 7292,
      "Ġexciting": 7293,
      "Ġdeaths": 7294,
      "Ġremove": 7295,
      "ĠMS": 7296,
      "Ġmanif": 7297,
      "Ġorders": 7298,
      "viation": 7299,
      "Psi": 7300,
      "ĠAS": 7301,
      "ĠSom": 7302,
      "Ġurban": 7303,
      "Ġserver": 7304,
      "Ġboundary": 7305,
      "encing": 7306,
      "DP": 7307,
      "Ġunknown": 7308,
      "ĠPhilipp": 7309,
      "1991": 7310,
      "Ġaudio": 7311,
      "Ġstick": 7312,
      "ĠThree": 7313,
      "ĠRay": 7314,
      "owered": 7315,
      "osophy": 7316,
      "Ġgene": 7317,
      "Ġexecut": 7318,
      "Ġaccounts": 7319,
      "ĠControl": 7320,
      "ĠFollow": 7321,
      "qquad": 7322,
      "Ġspoke": 7323,
      "normal": 7324,
      "Ġera": 7325,
      "Ġrecording": 7326,
      "ĠBern": 7327,
      "ĠGeorgia": 7328,
      "Ġbow": 7329,
      "Ġarms": 7330,
      "Ġjudge": 7331,
      "Ġexposure": 7332,
      "ĠSU": 7333,
      "Ġscript": 7334,
      "Ġoperators": 7335,
      "Ġarchitecture": 7336,
      "ione": 7337,
      "OV": 7338,
      "AF": 7339,
      "Ġreferred": 7340,
      "inois": 7341,
      "ĠKnow": 7342,
      "Ġing": 7343,
      "Ġpowers": 7344,
      "avor": 7345,
      "annels": 7346,
      "Ġconsumer": 7347,
      "brid": 7348,
      ")]": 7349,
      "Ġsimpl": 7350,
      "Ġteachers": 7351,
      "rite": 7352,
      "weight": 7353,
      "xspace": 7354,
      "note": 7355,
      "pton": 7356,
      "Ġadministr": 7357,
      "Ġorg": 7358,
      "Ġowned": 7359,
      "rep": 7360,
      "Two": 7361,
      "Ġpictures": 7362,
      "Ġdecide": 7363,
      "Ġrevenue": 7364,
      "Ġgrew": 7365,
      "pson": 7366,
      "uous": 7367,
      "Ġriver": 7368,
      "Ġhandle": 7369,
      "ĠHamilton": 7370,
      "ĠEth": 7371,
      "ĠSystems": 7372,
      "Ġestate": 7373,
      "ĠNext": 7374,
      "ĠNick": 7375,
      "Ġseconds": 7376,
      "Ġextent": 7377,
      "icted": 7378,
      "ĠStan": 7379,
      "Ġconcentr": 7380,
      "ĠCost": 7381,
      "syl": 7382,
      "Ġwire": 7383,
      "Ġrenew": 7384,
      "Ġadults": 7385,
      "izer": 7386,
      "BL": 7387,
      "dimensional": 7388,
      "ĠLu": 7389,
      "Ġcontinuous": 7390,
      "Ġstands": 7391,
      "ĠSon": 7392,
      "Ġfly": 7393,
      "Ġefficiency": 7394,
      "lets": 7395,
      "Ġicon": 7396,
      "Ġvulner": 7397,
      "Ġexercise": 7398,
      "Ø§": 7399,
      "ĠFOR": 7400,
      "ĠMult": 7401,
      "Ġprogramme": 7402,
      "erg": 7403,
      "ĠCreat": 7404,
      "Ġrain": 7405,
      "Ġhousehold": 7406,
      "Ġformal": 7407,
      "ĠAN": 7408,
      "Ġdetection": 7409,
      "ĠTal": 7410,
      "ads": 7411,
      "Ġassessment": 7412,
      "ĠPoint": 7413,
      "inent": 7414,
      "prop": 7415,
      "pass": 7416,
      "Ġactor": 7417,
      "ĠConf": 7418,
      "Ġcounty": 7419,
      "gg": 7420,
      "ĠDNA": 7421,
      "Ġped": 7422,
      "ĠFred": 7423,
      "Ġdry": 7424,
      "ĠOp": 7425,
      "Ġarbit": 7426,
      "Ġterrit": 7427,
      "RS": 7428,
      "awn": 7429,
      "Ġaccuracy": 7430,
      "}}(": 7431,
      "Ġheav": 7432,
      "Ġtalent": 7433,
      "Ġfellow": 7434,
      "ĠScotland": 7435,
      "Ġquiet": 7436,
      "Ġwidth": 7437,
      "ĠCase": 7438,
      "ĠDun": 7439,
      "Ġstim": 7440,
      "Ñģ": 7441,
      "ĠEric": 7442,
      "Fe": 7443,
      "Ġconven": 7444,
      "ariant": 7445,
      "ESS": 7446,
      "ĠFact": 7447,
      "ifier": 7448,
      "AV": 7449,
      "ĠBa": 7450,
      "pet": 7451,
      "Ġadult": 7452,
      "Ġconfirm": 7453,
      "Ġmagazine": 7454,
      "Pol": 7455,
      "acked": 7456,
      "Ġcab": 7457,
      "Ġsuit": 7458,
      "Ġdebt": 7459,
      "Ġremained": 7460,
      "})\\": 7461,
      "Ġmouth": 7462,
      "ju": 7463,
      "ials": 7464,
      "bro": 7465,
      "issions": 7466,
      "adel": 7467,
      "ĠMain": 7468,
      "apped": 7469,
      "Ġlargely": 7470,
      "Ġvisitors": 7471,
      "Ġwalking": 7472,
      "Ġpossibility": 7473,
      "ĠPsych": 7474,
      "Ġindepend": 7475,
      "ĠLabor": 7476,
      "grade": 7477,
      "Ġaccepted": 7478,
      "Ġentered": 7479,
      "apes": 7480,
      "Ġsnow": 7481,
      "Ġexperimental": 7482,
      "world": 7483,
      "ĠCat": 7484,
      "ĠUk": 7485,
      "Ġrig": 7486,
      "di": 7487,
      "ĠHom": 7488,
      "ampion": 7489,
      "Ġsurprise": 7490,
      "ĠSupreme": 7491,
      "Ġunderst": 7492,
      "Ġconsumers": 7493,
      "ĠCirc": 7494,
      "Ġstrategies": 7495,
      "ĠClinton": 7496,
      "ĠOrder": 7497,
      "ĠGal": 7498,
      "Ġwinter": 7499,
      "Att": 7500,
      "âĢ¦.": 7501,
      "ells": 7502,
      "atrix": 7503,
      "Ġcomprehens": 7504,
      "Ġphenomen": 7505,
      "ĠRon": 7506,
      "nb": 7507,
      "ĠAdam": 7508,
      "Ġhate": 7509,
      "ĠFord": 7510,
      "ĠRen": 7511,
      "Ġpartnership": 7512,
      "ĠLocal": 7513,
      "Ġpromote": 7514,
      "oking": 7515,
      "ĠLew": 7516,
      "Ġextension": 7517,
      "anguages": 7518,
      "ĠRail": 7519,
      "abet": 7520,
      "sem": 7521,
      "Ġtrig": 7522,
      "ĠTem": 7523,
      "}^{(": 7524,
      "ĠCru": 7525,
      "Ġongoing": 7526,
      "she": 7527,
      "stery": 7528,
      "ĠEnt": 7529,
      "ĠWars": 7530,
      "bal": 7531,
      "ferent": 7532,
      "Bar": 7533,
      "orough": 7534,
      "thew": 7535,
      "Ġconsists": 7536,
      "ĠĠĠĠĠĠĠĠĠĠĠĠĠĠĠĠĠĠĠĠĠĠĠ": 7537,
      "utation": 7538,
      "ĠBroad": 7539,
      "tra": 7540,
      "Ġdatabase": 7541,
      "ĠWilson": 7542,
      "Ġindicate": 7543,
      "ĠCorporation": 7544,
      "ĠAnth": 7545,
      "ras": 7546,
      "Ġtech": 7547,
      "Ġdollars": 7548,
      "Ġfasc": 7549,
      "ĠRyan": 7550,
      "vy": 7551,
      "ĠHotel": 7552,
      "Ġtopic": 7553,
      "ĠDemocrats": 7554,
      "ĠSky": 7555,
      "ĠMah": 7556,
      "Ġforth": 7557,
      "Ġscenes": 7558,
      "MT": 7559,
      "ĠRest": 7560,
      "small": 7561,
      "Ġdynamic": 7562,
      "Ġvary": 7563,
      "Ġreligion": 7564,
      "lik": 7565,
      "ĠDead": 7566,
      "Ġcro": 7567,
      "uable": 7568,
      "Value": 7569,
      "ĠEmp": 7570,
      "Ġelected": 7571,
      "Ġaccompl": 7572,
      "usal": 7573,
      "ĠĠĠĠĊ": 7574,
      "Ġbroadcast": 7575,
      "ennis": 7576,
      "you": 7577,
      "Where": 7578,
      "ds": 7579,
      "Ġenjoyed": 7580,
      "Ġcooper": 7581,
      "ĠSC": 7582,
      "Another": 7583,
      "Ġabsor": 7584,
      "formance": 7585,
      "Ġinterface": 7586,
      "rible": 7587,
      "Supp": 7588,
      "aints": 7589,
      "Ġ$(\\": 7590,
      "anny": 7591,
      "ordan": 7592,
      "Ġmillions": 7593,
      "Ġworldwide": 7594,
      "ĠBal": 7595,
      "Ġ×": 7596,
      "Ġcapable": 7597,
      "etime": 7598,
      "Â®": 7599,
      "ji": 7600,
      "];": 7601,
      "Ġflood": 7602,
      "Ġscored": 7603,
      "ĠKong": 7604,
      "Ġ&\\": 7605,
      "Ġtiss": 7606,
      "Ġmainly": 7607,
      "Ġbeauty": 7608,
      "ĠAnother": 7609,
      "sect": 7610,
      "ĠThrough": 7611,
      "Ġexplicit": 7612,
      "pace": 7613,
      "Ġreplaced": 7614,
      "Ġwidely": 7615,
      "lar": 7616,
      "Mark": 7617,
      "ĠCook": 7618,
      "tex": 7619,
      "Ġsuspect": 7620,
      "Ġtough": 7621,
      "Ġfacts": 7622,
      "Ġmaps": 7623,
      "icial": 7624,
      "Ġinhib": 7625,
      "Ġcontributions": 7626,
      "Ġinstitution": 7627,
      "People": 7628,
      "ĠKenn": 7629,
      "iary": 7630,
      "Ġaid": 7631,
      "Ġitem": 7632,
      "ĠRos": 7633,
      "ĠStaff": 7634,
      "Ġdefault": 7635,
      "merce": 7636,
      "udes": 7637,
      "Ġweapons": 7638,
      "sylvania": 7639,
      "Ġbodies": 7640,
      "Ġupdates": 7641,
      "Ġcommitment": 7642,
      "ellect": 7643,
      "ocity": 7644,
      "Ġvictims": 7645,
      "Ġdiverse": 7646,
      "png": 7647,
      "Ġemotional": 7648,
      "1989": 7649,
      "Ġgenerate": 7650,
      "Ġserving": 7651,
      "PL": 7652,
      "ĠArea": 7653,
      "Ġuns": 7654,
      "TER": 7655,
      "ĠScholar": 7656,
      "}\\,": 7657,
      "Ġinvestors": 7658,
      "ĠCamb": 7659,
      "Ġlicense": 7660,
      "iversary": 7661,
      "Ġexplains": 7662,
      "^+": 7663,
      "Ġremote": 7664,
      "Ġpatterns": 7665,
      "Ġagencies": 7666,
      "tenance": 7667,
      "Ġstatements": 7668,
      "ĠGuard": 7669,
      "Ġanalyt": 7670,
      "ĠSwed": 7671,
      "Ġsitting": 7672,
      "ĠLic": 7673,
      "Ġwriters": 7674,
      "reens": 7675,
      "\");": 7676,
      "Ġengineering": 7677,
      "ĠKey": 7678,
      "DT": 7679,
      "Ġenable": 7680,
      "ĠJersey": 7681,
      "aug": 7682,
      "ĠVill": 7683,
      "ĠRight": 7684,
      "amber": 7685,
      "Ġchampions": 7686,
      "Also": 7687,
      "Ġshel": 7688,
      "ĠRod": 7689,
      "ailed": 7690,
      "umes": 7691,
      "Ġsweet": 7692,
      "Stud": 7693,
      "Ġsplit": 7694,
      "Ġimagine": 7695,
      "otted": 7696,
      "Ġfol": 7697,
      "($": 7698,
      "ĠImm": 7699,
      "rc": 7700,
      "Ġtor": 7701,
      "hemat": 7702,
      "Ġelections": 7703,
      "Ġperman": 7704,
      "uling": 7705,
      "Ġflo": 7706,
      "aa": 7707,
      "ĠKent": 7708,
      "auge": 7709,
      "isted": 7710,
      "Ġboys": 7711,
      "Ġaccurate": 7712,
      "ĠToronto": 7713,
      "Ġdropped": 7714,
      "iti": 7715,
      "Ġgift": 7716,
      "Ġselling": 7717,
      "Ġsegment": 7718,
      "Ġwear": 7719,
      "Ġderived": 7720,
      "Ġcontemporary": 7721,
      "Ġvariable": 7722,
      "isodes": 7723,
      "Ġlie": 7724,
      "icide": 7725,
      "iner": 7726,
      "ello": 7727,
      "earing": 7728,
      "Ġpandemic": 7729,
      "Ġstret": 7730,
      "La": 7731,
      "cho": 7732,
      "ĠAsh": 7733,
      "Ġtotally": 7734,
      "content": 7735,
      "Ġcontrolled": 7736,
      "Ġvirus": 7737,
      "Ġdynamics": 7738,
      "Ġimpossible": 7739,
      "Ġscientists": 7740,
      "Ġcart": 7741,
      "AND": 7742,
      "ĠDeath": 7743,
      "ĠSir": 7744,
      "anged": 7745,
      "Ġboost": 7746,
      "Ġfundamental": 7747,
      "Ġimplies": 7748,
      "Ġarrested": 7749,
      "ĠTele": 7750,
      "Mon": 7751,
      "Ġminister": 7752,
      "ishop": 7753,
      "}\\\\": 7754,
      "Ġdivision": 7755,
      "Ġfeedback": 7756,
      "Table": 7757,
      "Ġmal": 7758,
      "ĠSpring": 7759,
      "HO": 7760,
      "Ġtested": 7761,
      "Ġfounded": 7762,
      "Ġclassical": 7763,
      "Ġlinked": 7764,
      "Ġinvolving": 7765,
      "ĠHollywood": 7766,
      "ĠComput": 7767,
      "Ġdoctor": 7768,
      "Ġprotocol": 7769,
      "Ġdegrees": 7770,
      "Source": 7771,
      "ĠAdministration": 7772,
      "fast": 7773,
      "Ġgall": 7774,
      "Ġempt": 7775,
      "Ġprotest": 7776,
      "Ġburn": 7777,
      "ĠExpl": 7778,
      "Ġpassing": 7779,
      "quir": 7780,
      "Ġenhance": 7781,
      "ĠLA": 7782,
      "aron": 7783,
      "GA": 7784,
      "worth": 7785,
      "Ġvast": 7786,
      "Ġequations": 7787,
      "Ġproport": 7788,
      "rav": 7789,
      "Ġdrama": 7790,
      "plete": 7791,
      "Inf": 7792,
      "ĠAndroid": 7793,
      "101": 7794,
      "Ġsubt": 7795,
      "********": 7796,
      "Ġsurrounding": 7797,
      "inates": 7798,
      "istical": 7799,
      "reshold": 7800,
      "ĠFinancial": 7801,
      "Ġkilling": 7802,
      "ĠParliament": 7803,
      "Ġmoves": 7804,
      "Ġhell": 7805,
      "Lab": 7806,
      "Ġbreath": 7807,
      "Ġmissed": 7808,
      "Ġcompr": 7809,
      "Ġbigger": 7810,
      "iest": 7811,
      "ĠCustom": 7812,
      "Ġstrongly": 7813,
      "ĠManager": 7814,
      "ses": 7815,
      "ĠJesus": 7816,
      "ĠSite": 7817,
      "Back": 7818,
      "Ġmuseum": 7819,
      "ĠHu": 7820,
      "ĠStephen": 7821,
      "Ġclosely": 7822,
      "Ġawarded": 7823,
      "ussian": 7824,
      "ĠCountry": 7825,
      "Ġdress": 7826,
      "inst": 7827,
      "Ġgap": 7828,
      "ĠRog": 7829,
      "Ġelectron": 7830,
      "Ġtrained": 7831,
      "ĠHand": 7832,
      "ME": 7833,
      "Inst": 7834,
      "ensor": 7835,
      "razy": 7836,
      "Image": 7837,
      "indent": 7838,
      "rage": 7839,
      "Ġcoe": 7840,
      "Ġadvertising": 7841,
      "Ġfunctional": 7842,
      "Ġlegislation": 7843,
      "Ġdispl": 7844,
      "Ref": 7845,
      "ĠImp": 7846,
      "Ġreact": 7847,
      "aire": 7848,
      "olis": 7849,
      "Who": 7850,
      "Ġfaster": 7851,
      "Ġchapter": 7852,
      "Ġeffectively": 7853,
      "Ġhonor": 7854,
      "ĠBrian": 7855,
      "Are": 7856,
      "Ġfill": 7857,
      "Ġfacing": 7858,
      "Ġroles": 7859,
      "Ġtack": 7860,
      "ership": 7861,
      "ĠElizabeth": 7862,
      "Ġassets": 7863,
      "Cal": 7864,
      "apy": 7865,
      "Ġlaugh": 7866,
      "Ġaccord": 7867,
      "({\\": 7868,
      "1960": 7869,
      "Ġhistoric": 7870,
      "ĠLine": 7871,
      "ĠSummer": 7872,
      "Ġriv": 7873,
      "Ġafternoon": 7874,
      "Ġevaluation": 7875,
      "ĠCode": 7876,
      "parent": 7877,
      "ĠConc": 7878,
      "Ġcontained": 7879,
      "Ġvoters": 7880,
      "David": 7881,
      "Ġlock": 7882,
      "&=": 7883,
      "equiv": 7884,
      "ĠSoft": 7885,
      "Comm": 7886,
      "Ġrecognized": 7887,
      "Ġstable": 7888,
      "Ġrecovery": 7889,
      "ĠDark": 7890,
      "Please": 7891,
      "Ġnob": 7892,
      "uction": 7893,
      "Ġturning": 7894,
      "Ġpackage": 7895,
      "ĠBrad": 7896,
      "Ġcircumstances": 7897,
      "Ġzone": 7898,
      "Ġfiction": 7899,
      "Christ": 7900,
      "Ġincreasingly": 7901,
      "Ġbought": 7902,
      "ĠAL": 7903,
      "agraph": 7904,
      "Author": 7905,
      "rell": 7906,
      "Best": 7907,
      "ĠBall": 7908,
      "Ġfeaturing": 7909,
      "teen": 7910,
      "inals": 7911,
      "Ġfaces": 7912,
      "Ġtrail": 7913,
      "Ġfewer": 7914,
      "Ġce": 7915,
      "ĠPalest": 7916,
      "iments": 7917,
      "enth": 7918,
      "Ġstreets": 7919,
      "Ġhappening": 7920,
      "ĠCR": 7921,
      "ibilities": 7922,
      "ĠPS": 7923,
      "Ġobservations": 7924,
      "Ġbasket": 7925,
      "Ġsky": 7926,
      "ĠGi": 7927,
      "ĠEst": 7928,
      "ĠLin": 7929,
      "Ġcontest": 7930,
      "ĠSingapore": 7931,
      "ventional": 7932,
      "Ġrid": 7933,
      "Ġcampus": 7934,
      "Ġtechnique": 7935,
      "Ġrecognition": 7936,
      "wa": 7937,
      "Ġreasonable": 7938,
      "Ġunion": 7939,
      "ogether": 7940,
      "ulous": 7941,
      "Ġstations": 7942,
      "Ġgrav": 7943,
      "Ret": 7944,
      "yo": 7945,
      "Ġwine": 7946,
      "Ġpregn": 7947,
      "olds": 7948,
      "Ġassistance": 7949,
      "Ġcollaboration": 7950,
      "Ġinner": 7951,
      "date": 7952,
      "Ġcontrovers": 7953,
      "Ġresistance": 7954,
      "heast": 7955,
      "ĠBon": 7956,
      "Ġestimates": 7957,
      "Any": 7958,
      "iration": 7959,
      "BM": 7960,
      "ĠUr": 7961,
      "wing": 7962,
      "Ġlimits": 7963,
      "enda": 7964,
      "ĠDisney": 7965,
      "Ġcalculated": 7966,
      "endment": 7967,
      "Ġpotentially": 7968,
      "Ġassociation": 7969,
      "Ġspl": 7970,
      "Ġexplan": 7971,
      "Ġalt": 7972,
      "âĤ¬": 7973,
      "Ġathlet": 7974,
      "Ġultimately": 7975,
      "ĠResp": 7976,
      "Ġcompos": 7977,
      "ĠHas": 7978,
      "ĠAvenue": 7979,
      "Ġillegal": 7980,
      "Ġgiant": 7981,
      "ĠBang": 7982,
      "ĠNFL": 7983,
      "open": 7984,
      "Ġaf": 7985,
      "Ġdepends": 7986,
      "Ġfestival": 7987,
      "Ġinject": 7988,
      "Ġentertainment": 7989,
      "Ġpractical": 7990,
      "Ġnarrow": 7991,
      "Ġapparently": 7992,
      "Ġlosing": 7993,
      "ouston": 7994,
      "isms": 7995,
      "Ġsoc": 7996,
      "ĠYouTube": 7997,
      "ĠInstead": 7998,
      "Ġschedule": 7999,
      "Ġupcoming": 8000,
      "eneration": 8001,
      "yles": 8002,
      "ova": 8003,
      "Ġcontrols": 8004,
      "length": 8005,
      "Ġintroduce": 8006,
      "abil": 8007,
      "ĠAI": 8008,
      "Ġdepending": 8009,
      "ALL": 8010,
      "Ġindicated": 8011,
      "Ġpeak": 8012,
      "ocket": 8013,
      "ĠTravel": 8014,
      "Ġreader": 8015,
      "Your": 8016,
      "Ð¾Ð": 8017,
      "ĠLemma": 8018,
      "Ġproved": 8019,
      "Ġbelieves": 8020,
      "Ġpublication": 8021,
      "Ġoccurred": 8022,
      "Ġsinger": 8023,
      "agues": 8024,
      "Ġelev": 8025,
      "Most": 8026,
      "oz": 8027,
      "Ġdisappoint": 8028,
      "itled": 8029,
      "sex": 8030,
      "fol": 8031,
      "rule": 8032,
      "bles": 8033,
      "Ġaccused": 8034,
      "AY": 8035,
      "ECT": 8036,
      "ĠFootball": 8037,
      "Ġstores": 8038,
      "0000": 8039,
      "rot": 8040,
      "ĠMagazine": 8041,
      "Ġresc": 8042,
      "Ġroot": 8043,
      "Ġperforming": 8044,
      "Ġtransmission": 8045,
      "Ġarts": 8046,
      "ortion": 8047,
      "Ġopposite": 8048,
      "hspace": 8049,
      "Ġending": 8050,
      "Ġcycl": 8051,
      "ĠMir": 8052,
      "rizona": 8053,
      "Ġminim": 8054,
      "Ġhouses": 8055,
      "ĠFac": 8056,
      "Ġsight": 8057,
      "]$": 8058,
      "ĠJenn": 8059,
      "pool": 8060,
      "Ġsuc": 8061,
      "Ġneut": 8062,
      "Ġbanks": 8063,
      "Spec": 8064,
      "een": 8065,
      "Ġgod": 8066,
      "ĠStation": 8067,
      "boy": 8068,
      "ĠThose": 8069,
      "apos": 8070,
      "Ġsomewhat": 8071,
      "Ġseats": 8072,
      "Ġordered": 8073,
      "ĠChem": 8074,
      "Ġcompare": 8075,
      "ĠIllinois": 8076,
      "ĠConnect": 8077,
      "ĠMarketing": 8078,
      "Ġalign": 8079,
      "Ġgoods": 8080,
      "raine": 8081,
      "Ġevil": 8082,
      "Ġhorse": 8083,
      "iley": 8084,
      "Ġly": 8085,
      "CP": 8086,
      "iot": 8087,
      "ĠBat": 8088,
      "Ġcards": 8089,
      "Ġcharacteristics": 8090,
      "ao": 8091,
      "ĠSn": 8092,
      "}}}": 8093,
      "ĠOx": 8094,
      "Ġalcohol": 8095,
      "ĠModel": 8096,
      "ĠBul": 8097,
      "Oct": 8098,
      "Ġfilter": 8099,
      "Ġexpensive": 8100,
      "ĠCapt": 8101,
      "Ġassign": 8102,
      "Ġsupports": 8103,
      "etary": 8104,
      "ĠGreg": 8105,
      "ĠMill": 8106,
      "OK": 8107,
      "Ġsuccessfully": 8108,
      "ĠBBC": 8109,
      "ĠMD": 8110,
      "Ġrecip": 8111,
      "Ġoutcome": 8112,
      "ĠPot": 8113,
      "ĠVeg": 8114,
      "Ġhidden": 8115,
      "Ġinnovation": 8116,
      "Ġrelax": 8117,
      "Ġadj": 8118,
      "iami": 8119,
      "Ġhall": 8120,
      "Ġstood": 8121,
      "ĠNOT": 8122,
      "ologist": 8123,
      "Ġwins": 8124,
      "UM": 8125,
      "dr": 8126,
      "Ġdistributed": 8127,
      "ĠTurn": 8128,
      "Ġfab": 8129,
      "roduction": 8130,
      "Ġstrict": 8131,
      "OG": 8132,
      "dney": 8133,
      "Ġderiv": 8134,
      "Ġplate": 8135,
      "Ġcolon": 8136,
      "ĠEs": 8137,
      "ĠBad": 8138,
      "anth": 8139,
      "ORE": 8140,
      "olt": 8141,
      "ĠAp": 8142,
      "arters": 8143,
      "then": 8144,
      "Ġgrown": 8145,
      "Ġarmy": 8146,
      "Ġhits": 8147,
      "Ġextensive": 8148,
      "Ġsurgery": 8149,
      "found": 8150,
      "rip": 8151,
      "anchester": 8152,
      "Ġdesire": 8153,
      "Ġsettings": 8154,
      "Ġintegrated": 8155,
      "Ġcapture": 8156,
      "eping": 8157,
      "Ġmand": 8158,
      "ĠTax": 8159,
      "Ġmessages": 8160,
      "ĠOfficer": 8161,
      "ĠAsian": 8162,
      "ĠFall": 8163,
      "ĠRose": 8164,
      "icture": 8165,
      "ui": 8166,
      "scr": 8167,
      "Ġrisks": 8168,
      "ĠRun": 8169,
      "ĠHong": 8170,
      "Ġsurprising": 8171,
      "owing": 8172,
      "away": 8173,
      "Ġoccasion": 8174,
      "Ġserves": 8175,
      "Mich": 8176,
      "Ġneither": 8177,
      "eld": 8178,
      "aped": 8179,
      "Ġyesterday": 8180,
      "rency": 8181,
      "ĠPrince": 8182,
      "citet": 8183,
      "idance": 8184,
      "ART": 8185,
      "ĠMiller": 8186,
      "Ġpropag": 8187,
      "Ġaccommod": 8188,
      "ĠUsing": 8189,
      "Ġalongside": 8190,
      "vard": 8191,
      "Ġchannels": 8192,
      "ellar": 8193,
      "Ġdrink": 8194,
      "eman": 8195,
      "Ġintent": 8196,
      "Ġampl": 8197,
      "ĠKevin": 8198,
      ".'": 8199,
      "Ġinteractions": 8200,
      "Ġmob": 8201,
      "ĠThanks": 8202,
      "atial": 8203,
      "Ġbridge": 8204,
      "ĠCancer": 8205,
      "ĠTake": 8206,
      "Ġregime": 8207,
      "ceived": 8208,
      "cription": 8209,
      "isition": 8210,
      "ĠHave": 8211,
      "Ġfunny": 8212,
      "Ġmagic": 8213,
      "oices": 8214,
      "Although": 8215,
      "ĠForest": 8216,
      "ĠHarry": 8217,
      "ĠNAS": 8218,
      "Ġyounger": 8219,
      "ĠDavis": 8220,
      "Ġcovers": 8221,
      "Ġhoriz": 8222,
      "rat": 8223,
      "Previous": 8224,
      "Ġtail": 8225,
      "Ġconvert": 8226,
      "ĠComments": 8227,
      "ĠAnalysis": 8228,
      "Ġorient": 8229,
      "ĠOR": 8230,
      "ĠCheck": 8231,
      "Ġinequ": 8232,
      "jpg": 8233,
      "nic": 8234,
      "1988": 8235,
      "Ġawards": 8236,
      "Ġsouthern": 8237,
      "child": 8238,
      "Ġclar": 8239,
      "}:": 8240,
      "Ġexplo": 8241,
      "esome": 8242,
      "Ġhence": 8243,
      "sin": 8244,
      "ĠInstagram": 8245,
      "fil": 8246,
      "Ġfacilit": 8247,
      "Ġimpressive": 8248,
      "Ġdimension": 8249,
      "Ġmodule": 8250,
      "Ġtrouble": 8251,
      "Ġparticles": 8252,
      "Ġsees": 8253,
      "Ġnearby": 8254,
      "ĠBell": 8255,
      "ĠKat": 8256,
      "tainment": 8257,
      "ategory": 8258,
      "uma": 8259,
      "Ġdiversity": 8260,
      "Ġbomb": 8261,
      "Ġenth": 8262,
      "ĠPen": 8263,
      "Ġpresents": 8264,
      "Ġsurf": 8265,
      "ometry": 8266,
      "ÂĢ": 8267,
      "Ġeducational": 8268,
      "Ġbare": 8269,
      "Ġdenote": 8270,
      "door": 8271,
      "Ġcompens": 8272,
      "Ġscholars": 8273,
      "Ear": 8274,
      "=>": 8275,
      "During": 8276,
      "ĠAgency": 8277,
      "estion": 8278,
      "Ġunable": 8279,
      "essed": 8280,
      "ĠFuture": 8281,
      "ĠCapital": 8282,
      "itis": 8283,
      "Apr": 8284,
      "version": 8285,
      "âĢĭ": 8286,
      "ĠBox": 8287,
      "Ġheads": 8288,
      "Ġagric": 8289,
      "eli": 8290,
      "ĠDam": 8291,
      "itals": 8292,
      "Ġthread": 8293,
      "ÂĢÂ": 8294,
      "Ġemployment": 8295,
      "Ġmine": 8296,
      "Ġsymptoms": 8297,
      "ĠSanta": 8298,
      "PP": 8299,
      "Rem": 8300,
      "ĠLow": 8301,
      "low": 8302,
      "ĠBush": 8303,
      "Ġsections": 8304,
      "Direct": 8305,
      "ĠTer": 8306,
      "lix": 8307,
      "ĠBand": 8308,
      "Ġtransformation": 8309,
      "letter": 8310,
      "ĠColorado": 8311,
      "Ġparallel": 8312,
      "ocy": 8313,
      "Ġprimarily": 8314,
      "ĠProduct": 8315,
      "ĠHop": 8316,
      "Ġpulled": 8317,
      "ockey": 8318,
      "ĠMoreover": 8319,
      "Ġholiday": 8320,
      "century": 8321,
      "igrants": 8322,
      "ĠChampionship": 8323,
      "ĠTech": 8324,
      "after": 8325,
      "Ġimprovement": 8326,
      "Ġsecondary": 8327,
      "Ġscores": 8328,
      "aret": 8329,
      "Ġhole": 8330,
      "apse": 8331,
      "Ġ(+": 8332,
      "ĠTony": 8333,
      "Requ": 8334,
      "ĠSuch": 8335,
      "Ġbands": 8336,
      "Ġsqu": 8337,
      "info": 8338,
      "Ġnecessarily": 8339,
      "Ġobjective": 8340,
      "herent": 8341,
      "Ġmonitoring": 8342,
      "ĠEastern": 8343,
      "sters": 8344,
      "eh": 8345,
      "Ġphotograph": 8346,
      "illiant": 8347,
      "Ġsemi": 8348,
      "ĠBuilding": 8349,
      "Ġmarked": 8350,
      "Ġsubjects": 8351,
      "pert": 8352,
      "Equ": 8353,
      "Ġinfo": 8354,
      "ĠWorks": 8355,
      "Test": 8356,
      "Ġpersons": 8357,
      "angers": 8358,
      "erver": 8359,
      "Pat": 8360,
      "Ġsucceed": 8361,
      "Ġourselves": 8362,
      "Ġpresentation": 8363,
      "Ġopposition": 8364,
      "Ġsurve": 8365,
      "spe": 8366,
      "ĠPract": 8367,
      "ĠBru": 8368,
      "Ġformula": 8369,
      "));": 8370,
      "Ġbag": 8371,
      "Ġ(@": 8372,
      "(-": 8373,
      "ĠiPhone": 8374,
      "ĠHig": 8375,
      "user": 8376,
      "erate": 8377,
      "irk": 8378,
      "Ġobviously": 8379,
      "SR": 8380,
      "orne": 8381,
      "aya": 8382,
      "Ġintern": 8383,
      "Ġdescribes": 8384,
      "Ġreplace": 8385,
      "ĠMaybe": 8386,
      "Ġbond": 8387,
      "Ġmeasurements": 8388,
      "break": 8389,
      "EA": 8390,
      "Ġerrors": 8391,
      "anwhile": 8392,
      "ĠHun": 8393,
      "nesota": 8394,
      "ĠBefore": 8395,
      "Ġstrike": 8396,
      "Ġ/**": 8397,
      "Ġattribut": 8398,
      "ĠJam": 8399,
      "Ġbreaking": 8400,
      "ĠStart": 8401,
      "regon": 8402,
      "neq": 8403,
      "Ġunderstood": 8404,
      "Ġnewly": 8405,
      "Ġregulations": 8406,
      "Ġlegend": 8407,
      "Ġbehaviour": 8408,
      "ĠEmer": 8409,
      "Ġproposal": 8410,
      "Ġtasks": 8411,
      "ĠCas": 8412,
      "Ġscheduled": 8413,
      "onna": 8414,
      "ĠGreek": 8415,
      "Ġyards": 8416,
      "Ġcompact": 8417,
      "ĠRoss": 8418,
      "ĠYet": 8419,
      "Ġlandscape": 8420,
      "inema": 8421,
      "ĠCle": 8422,
      "ĠMajor": 8423,
      "disc": 8424,
      "Ġdisp": 8425,
      "ructions": 8426,
      "Ġcurve": 8427,
      "never": 8428,
      "otype": 8429,
      "Ġbranch": 8430,
      "Ġapps": 8431,
      "ĠApplic": 8432,
      "aver": 8433,
      "Ġprocedures": 8434,
      "Ġcrash": 8435,
      "ĠSaint": 8436,
      "ĠString": 8437,
      "Ġversions": 8438,
      "Ġprime": 8439,
      "rection": 8440,
      "Ġinitially": 8441,
      "oven": 8442,
      "obby": 8443,
      "core": 8444,
      "Ġcomprehensive": 8445,
      "1987": 8446,
      "itative": 8447,
      "FR": 8448,
      "bell": 8449,
      "Pres": 8450,
      "including": 8451,
      "IO": 8452,
      "'.": 8453,
      "Ġearned": 8454,
      "ĠWas": 8455,
      "izz": 8456,
      "osure": 8457,
      "lete": 8458,
      "Ġwrites": 8459,
      "ĠNig": 8460,
      "Ġdrawn": 8461,
      "aska": 8462,
      "Ġassault": 8463,
      "Ġdriven": 8464,
      "Ġwearing": 8465,
      "erring": 8466,
      "Up": 8467,
      "Ġsole": 8468,
      "Ġinnovative": 8469,
      "aded": 8470,
      "Ġhasn": 8471,
      "ĠDream": 8472,
      "MD": 8473,
      "holders": 8474,
      "%,": 8475,
      "Ġalive": 8476,
      "Ġadopted": 8477,
      "inant": 8478,
      "Ġdrivers": 8479,
      "Ġinvestigate": 8480,
      "iy": 8481,
      "owntown": 8482,
      "Ġlegisl": 8483,
      "ĠMake": 8484,
      "doi": 8485,
      "Ġpra": 8486,
      "gov": 8487,
      "UK": 8488,
      "Ġcontribute": 8489,
      "ĠBra": 8490,
      "una": 8491,
      "Ġepisodes": 8492,
      "Ġchallenging": 8493,
      ".</": 8494,
      "ennes": 8495,
      "aze": 8496,
      "Ġcommunications": 8497,
      "Ġimmediate": 8498,
      "Ġcoffee": 8499,
      "Ġfrequently": 8500,
      "Ġintroduction": 8501,
      "ĠCulture": 8502,
      "Ġperformances": 8503,
      "1986": 8504,
      "Ġrecall": 8505,
      "prot": 8506,
      "Ġantib": 8507,
      "rac": 8508,
      "Ġrevolution": 8509,
      "ĠPartners": 8510,
      "Ġsolve": 8511,
      "Ġparking": 8512,
      "ĠStill": 8513,
      "Ġindicates": 8514,
      "]\\": 8515,
      "Ġnorthern": 8516,
      "EV": 8517,
      "Ġconsumption": 8518,
      "Ke": 8519,
      "ĠChange": 8520,
      "organ": 8521,
      "umerate": 8522,
      "Ġcomedy": 8523,
      "Ġempty": 8524,
      "Ġdiam": 8525,
      "++": 8526,
      "Ġauthent": 8527,
      "Ġseriously": 8528,
      "has": 8529,
      "ĠCond": 8530,
      "adelph": 8531,
      "acher": 8532,
      "Ġrealize": 8533,
      "pack": 8534,
      "Ġemployee": 8535,
      "Ġbeer": 8536,
      "Ġchoices": 8537,
      "Ġguests": 8538,
      "ls": 8539,
      "Ġworry": 8540,
      "multicol": 8541,
      "Ġtom": 8542,
      "Jo": 8543,
      "check": 8544,
      "Ġescape": 8545,
      "ĠResources": 8546,
      "ĠFriend": 8547,
      "Ġec": 8548,
      "ĠAk": 8549,
      "bul": 8550,
      "ĠEditor": 8551,
      "iac": 8552,
      "ĠPubl": 8553,
      "SW": 8554,
      "onents": 8555,
      "Aug": 8556,
      "ĠTher": 8557,
      "profit": 8558,
      "ILL": 8559,
      "Ġbone": 8560,
      "Ġvoc": 8561,
      "iscons": 8562,
      "SD": 8563,
      "Even": 8564,
      "Ġexcess": 8565,
      "ector": 8566,
      "Ġ-\\": 8567,
      "Ġwatched": 8568,
      "itivity": 8569,
      "Ġpaying": 8570,
      "Ġadds": 8571,
      "Ġrural": 8572,
      "ĠUnivers": 8573,
      "HL": 8574,
      "Ġpolar": 8575,
      "isconsin": 8576,
      "ori": 8577,
      "Ġextreme": 8578,
      "ĠPresent": 8579,
      "|^": 8580,
      "HA": 8581,
      "His": 8582,
      "Min": 8583,
      "alty": 8584,
      "ĠCL": 8585,
      "Ġexceed": 8586,
      "World": 8587,
      "Em": 8588,
      "Ġblocks": 8589,
      "bu": 8590,
      "ami": 8591,
      "ĠEdition": 8592,
      "Ġsuitable": 8593,
      "Ġprovider": 8594,
      "Ġoutcomes": 8595,
      "Ġvotes": 8596,
      "Ġpicked": 8597,
      "missions": 8598,
      "multicolumn": 8599,
      "Ġattempts": 8600,
      "ĠRh": 8601,
      "Ġapproval": 8602,
      "Cell": 8603,
      "Ġappointed": 8604,
      "lock": 8605,
      "ensed": 8606,
      "cers": 8607,
      "owa": 8608,
      "Ġlistening": 8609,
      "Ġwalls": 8610,
      "ĠâĢĻ": 8611,
      "Ġbes": 8612,
      "ĠBiden": 8613,
      "Ġguest": 8614,
      "Ġliked": 8615,
      "noindent": 8616,
      "Ġatmosphere": 8617,
      "adelphia": 8618,
      "aneous": 8619,
      "heim": 8620,
      "ĠFinal": 8621,
      "ULL": 8622,
      "itemize": 8623,
      "Ġairport": 8624,
      "Ġattended": 8625,
      "Ġresid": 8626,
      "Ġmountain": 8627,
      "ometric": 8628,
      "riers": 8629,
      "ĠTurkey": 8630,
      "aud": 8631,
      "ĠFinally": 8632,
      "Ġsick": 8633,
      "reement": 8634,
      "ĠHay": 8635,
      "Ġproducer": 8636,
      "Ġproperly": 8637,
      "Dep": 8638,
      "Ġfees": 8639,
      "ĠPA": 8640,
      "Ġmac": 8641,
      "Ġprofessor": 8642,
      "Ġboat": 8643,
      "Ext": 8644,
      "Ġanticip": 8645,
      "author": 8646,
      "Ġfraud": 8647,
      "ĠCommon": 8648,
      "\"=>": 8649,
      "Ġabandon": 8650,
      "ĠPut": 8651,
      "%.": 8652,
      "ĠHD": 8653,
      "Ġencourage": 8654,
      "Ġplastic": 8655,
      "appy": 8656,
      "FT": 8657,
      "ĠCP": 8658,
      "ayers": 8659,
      "ĠGrant": 8660,
      "._": 8661,
      "Ġcircle": 8662,
      "Ġoperate": 8663,
      "file": 8664,
      "130": 8665,
      "ifferent": 8666,
      "ĠMach": 8667,
      "ellectual": 8668,
      "elle": 8669,
      "Ġtickets": 8670,
      "Ġmomentum": 8671,
      "Ġgro": 8672,
      "Ġthreshold": 8673,
      "SI": 8674,
      "Ġliquid": 8675,
      "ted": 8676,
      "orical": 8677,
      "Ġcategories": 8678,
      "Ġtopics": 8679,
      "Ġslowly": 8680,
      "Ġparticipate": 8681,
      ">>": 8682,
      "Ġletters": 8683,
      "Ġangle": 8684,
      "aza": 8685,
      "Ġfee": 8686,
      "ĠMinistry": 8687,
      "Ġattorney": 8688,
      "Ġpitch": 8689,
      "umin": 8690,
      "Ġhealthcare": 8691,
      "ĠðŁ": 8692,
      "ĠProm": 8693,
      "Ġmeasurement": 8694,
      "Ġcomposition": 8695,
      "Ġinfection": 8696,
      "otten": 8697,
      "istent": 8698,
      "Ġprompt": 8699,
      "gressive": 8700,
      "Ġmanufacturing": 8701,
      "Ġpointed": 8702,
      "){": 8703,
      "ĠHeart": 8704,
      "Ġvelocity": 8705,
      "ĠDid": 8706,
      "Ġstone": 8707,
      "Ã¨": 8708,
      "alg": 8709,
      "ĠStudy": 8710,
      "Ġactors": 8711,
      "linear": 8712,
      "Object": 8713,
      "Ġwestern": 8714,
      "Ġrecommended": 8715,
      "}}{\\": 8716,
      "Ġoccurs": 8717,
      "Ġextend": 8718,
      "Ġreserved": 8719,
      "Ġanalyz": 8720,
      "Ġstrange": 8721,
      "ĠWales": 8722,
      "Ġdiagram": 8723,
      "Ġdistingu": 8724,
      "ãĥ": 8725,
      "theorem": 8726,
      "ĠCro": 8727,
      "Exception": 8728,
      "ĠNever": 8729,
      "Ġjoy": 8730,
      "ĠLady": 8731,
      "1985": 8732,
      "Ġimmun": 8733,
      "ĠVen": 8734,
      "stal": 8735,
      "ĠPennsylvania": 8736,
      "ĠAG": 8737,
      "Ġmatches": 8738,
      "Ġbusy": 8739,
      "supp": 8740,
      "ĠAli": 8741,
      "ĠAh": 8742,
      "Ġdemonstrated": 8743,
      "fortunately": 8744,
      "Ġdiscrim": 8745,
      "ĠJosh": 8746,
      "ĠSenior": 8747,
      "Ġrein": 8748,
      "Ġoptimal": 8749,
      "ĠNav": 8750,
      "etts": 8751,
      "engers": 8752,
      "Ġrub": 8753,
      "Ġstruggle": 8754,
      "Ġspokes": 8755,
      "Ġpercentage": 8756,
      "'$": 8757,
      "ĠSarah": 8758,
      "ĠMrs": 8759,
      "upp": 8760,
      "Ġlanguages": 8761,
      "Ġfifth": 8762,
      "called": 8763,
      "ĠChall": 8764,
      "âĨ": 8765,
      "Ġbutton": 8766,
      "Ġles": 8767,
      "Ġgay": 8768,
      "Ġfulf": 8769,
      "Ġrear": 8770,
      "========": 8771,
      "Ġprinciples": 8772,
      "Ġbattery": 8773,
      "Ġdelight": 8774,
      "olly": 8775,
      "onder": 8776,
      "Ġsurprised": 8777,
      "arg": 8778,
      "Ġversus": 8779,
      "dt": 8780,
      "ycl": 8781,
      "Ġadventure": 8782,
      "ilty": 8783,
      "Ġinformed": 8784,
      "display": 8785,
      "Ġbroke": 8786,
      "ĠCub": 8787,
      "Ġwhereas": 8788,
      "ĠCON": 8789,
      "ĠViet": 8790,
      "py": 8791,
      "Ġinteract": 8792,
      "vspace": 8793,
      "ĠLink": 8794,
      "Ġmeetings": 8795,
      "1984": 8796,
      "andy": 8797,
      "bing": 8798,
      "enumerate": 8799,
      "fill": 8800,
      "Ġcovering": 8801,
      "ĠReviews": 8802,
      "Ġdataset": 8803,
      "Ġrooms": 8804,
      "Ġinvention": 8805,
      "Writ": 8806,
      "Ġincredible": 8807,
      "Ġlift": 8808,
      "Ben": 8809,
      "ĠFL": 8810,
      "andal": 8811,
      "Ġbon": 8812,
      "Ġprofessionals": 8813,
      "Ġintegration": 8814,
      "aid": 8815,
      "Ġpapers": 8816,
      "File": 8817,
      "upid": 8818,
      "End": 8819,
      "Off": 8820,
      "Ġplatforms": 8821,
      "uted": 8822,
      "ĠFIG": 8823,
      "Ġawareness": 8824,
      "Ġbrands": 8825,
      "aga": 8826,
      "ĠTransport": 8827,
      "ĠLewis": 8828,
      "Ġcriteria": 8829,
      "Ġuniverse": 8830,
      "oln": 8831,
      "Ġconsequences": 8832,
      "Ġ]": 8833,
      "Ġtaught": 8834,
      "count": 8835,
      "don": 8836,
      "Ġbench": 8837,
      "ĠMarc": 8838,
      "Ġ:=": 8839,
      "ĠPers": 8840,
      "Ġanswers": 8841,
      "hav": 8842,
      "National": 8843,
      "Ġteach": 8844,
      "Ġexhibition": 8845,
      "Ġpip": 8846,
      "Ġtitles": 8847,
      "Ġconclusion": 8848,
      "mathscr": 8849,
      "Ġvess": 8850,
      "Tra": 8851,
      "ĠDO": 8852,
      "iology": 8853,
      "Ġconcentration": 8854,
      "ĠSem": 8855,
      "ĠContin": 8856,
      "ĠBase": 8857,
      "range": 8858,
      "Ġinjuries": 8859,
      "osph": 8860,
      "Under": 8861,
      "ĠAccount": 8862,
      "Ġelectro": 8863,
      "ĠDoes": 8864,
      "ĠImages": 8865,
      "ĠDu": 8866,
      "Ġconj": 8867,
      "Ġenforcement": 8868,
      "{}": 8869,
      "agan": 8870,
      "Ġ(-": 8871,
      "Ġsoldiers": 8872,
      "ĠAffairs": 8873,
      "inch": 8874,
      "ĠAst": 8875,
      "Ġscal": 8876,
      "high": 8877,
      "Ġrelief": 8878,
      "Ġknowing": 8879,
      "ĠGallery": 8880,
      "Ġhopes": 8881,
      "aturally": 8882,
      "Ġimplemented": 8883,
      "press": 8884,
      ")}{": 8885,
      "endar": 8886,
      "Ġsignals": 8887,
      "Ġbath": 8888,
      "Ġhabit": 8889,
      "Ġduty": 8890,
      "ride": 8891,
      "expected": 8892,
      "Ġpilot": 8893,
      "ĠLind": 8894,
      "ãĤ": 8895,
      "ĠDiego": 8896,
      "Ġarbitr": 8897,
      "itionally": 8898,
      "ĠBrother": 8899,
      "Ġfrag": 8900,
      "}-\\": 8901,
      "Ġdual": 8902,
      "Ġanywhere": 8903,
      "Ġperm": 8904,
      "Ġswim": 8905,
      "Ġhat": 8906,
      "}+\\": 8907,
      "ĠColumbia": 8908,
      "Ġexplos": 8909,
      "Ġprospect": 8910,
      "Ġvoting": 8911,
      "ersion": 8912,
      "ĠJean": 8913,
      "Ġexposed": 8914,
      "Ġcompetitive": 8915,
      "ĠArizona": 8916,
      "ussion": 8917,
      "Ġcorrelation": 8918,
      "Ġkeeps": 8919,
      "ĠHouston": 8920,
      "Ġnarrative": 8921,
      "ĠSafety": 8922,
      "agen": 8923,
      "}}_": 8924,
      "pc": 8925,
      "Ġmo": 8926,
      "UC": 8927,
      "Ġentr": 8928,
      "Ġstrategic": 8929,
      "Ġsustainable": 8930,
      "bsites": 8931,
      "enter": 8932,
      "ĠLatin": 8933,
      "Ġabsolute": 8934,
      "Many": 8935,
      "Ġcolour": 8936,
      "location": 8937,
      "ĀĀ": 8938,
      "Ġpert": 8939,
      "ĠModern": 8940,
      "Ġcombat": 8941,
      "Ġtwenty": 8942,
      "ĠJordan": 8943,
      "Ġtargets": 8944,
      "ĠGovernor": 8945,
      "Ġdiscovery": 8946,
      "ĠSav": 8947,
      "Ġexclusive": 8948,
      "Ġmg": 8949,
      "Trump": 8950,
      "Ġstake": 8951,
      "_{{\\": 8952,
      "ĠMoon": 8953,
      "black": 8954,
      "Ġmaintenance": 8955,
      "ĠJews": 8956,
      "ĠGolden": 8957,
      "Ġvaluable": 8958,
      "ĠTreat": 8959,
      "ĠThings": 8960,
      "Text": 8961,
      "Ġ!=": 8962,
      "Ġresponses": 8963,
      "ĠVice": 8964,
      "ĠYears": 8965,
      "yard": 8966,
      "ategories": 8967,
      "ĠPatrick": 8968,
      "allas": 8969,
      "PT": 8970,
      "iously": 8971,
      "Ġconsent": 8972,
      "orse": 8973,
      "Ġcontinuing": 8974,
      "oured": 8975,
      "Ġsentence": 8976,
      "athy": 8977,
      "Ġrealized": 8978,
      "Ġlikes": 8979,
      "Î±": 8980,
      "Ġincorpor": 8981,
      "ais": 8982,
      "intend": 8983,
      "first": 8984,
      "Ġregister": 8985,
      "Review": 8986,
      "Ġok": 8987,
      "Ġfairly": 8988,
      "ĠStock": 8989,
      "only": 8990,
      "Ġclimb": 8991,
      "model": 8992,
      "inator": 8993,
      "dep": 8994,
      "ĠDom": 8995,
      "strong": 8996,
      "ĠHarris": 8997,
      "connect": 8998,
      "Ġgranted": 8999,
      "olid": 9000,
      "ishment": 9001,
      "ĠSound": 9002,
      "Ġconfiguration": 9003,
      "Ġadvis": 9004,
      "Ġreveal": 9005,
      "Ġprinciple": 9006,
      "Ġgate": 9007,
      "ãģ": 9008,
      "Ġru": 9009,
      "ĠFarm": 9010,
      "Ġdrag": 9011,
      "operat": 9012,
      "Ġinvent": 9013,
      "ĠStone": 9014,
      "ĠEdward": 9015,
      "Ġfounder": 9016,
      "achus": 9017,
      "rolled": 9018,
      "à¸": 9019,
      "Ġbeach": 9020,
      "estyle": 9021,
      "Ġdeals": 9022,
      "Ġhurt": 9023,
      "opher": 9024,
      "Ġpresidential": 9025,
      "eties": 9026,
      "ĠEvent": 9027,
      "hu": 9028,
      "Ġreward": 9029,
      "ĠLearning": 9030,
      "Feb": 9031,
      "ective": 9032,
      "ĠSydney": 9033,
      ")}$": 9034,
      "Ġbat": 9035,
      "Ġwheel": 9036,
      "const": 9037,
      "Ġceleb": 9038,
      "Ġsolo": 9039,
      "Ġrising": 9040,
      "Ġcheap": 9041,
      "Ġdemonstrate": 9042,
      "Ġcomfortable": 9043,
      "Ġdust": 9044,
      "asm": 9045,
      "700": 9046,
      "Ġgauge": 9047,
      "Ġcluster": 9048,
      "Ġstatistics": 9049,
      "ellite": 9050,
      "ĠTen": 9051,
      "aki": 9052,
      "opic": 9053,
      "ificial": 9054,
      "arious": 9055,
      "Ġradiation": 9056,
      "craft": 9057,
      "Gen": 9058,
      "Upd": 9059,
      "Ġlux": 9060,
      "Ġproviders": 9061,
      "Ġthinks": 9062,
      "Ġbatt": 9063,
      "Ġstead": 9064,
      "ogs": 9065,
      "âĦ": 9066,
      "Ġprofit": 9067,
      "ĠEntertainment": 9068,
      "ĠIslamic": 9069,
      "Ġdepos": 9070,
      "Ġretire": 9071,
      "Ġtaste": 9072,
      "Ġflying": 9073,
      "Ġvisited": 9074,
      "Ġengaged": 9075,
      "Ġoptical": 9076,
      "operatorn": 9077,
      "Good": 9078,
      "sea": 9079,
      "Ġmodified": 9080,
      "ĠNavy": 9081,
      ",âĢĻ": 9082,
      "Ġentreprene": 9083,
      "ĠSche": 9084,
      "oly": 9085,
      "ĠSyria": 9086,
      "base": 9087,
      "MO": 9088,
      "ĠPlus": 9089,
      "elli": 9090,
      "Ġcrucial": 9091,
      "Ġspecified": 9092,
      "ĠSearch": 9093,
      "Ġalgebra": 9094,
      "NY": 9095,
      "uced": 9096,
      "Count": 9097,
      "Ġ///": 9098,
      "Ġthin": 9099,
      "Find": 9100,
      "Ġmail": 9101,
      "ĠHold": 9102,
      "Ġhorror": 9103,
      "Ġflag": 9104,
      "Ġtruck": 9105,
      "Aust": 9106,
      "ĠNumber": 9107,
      "Ġengage": 9108,
      "Ġmedicine": 9109,
      "Ġinjured": 9110,
      "operatorname": 9111,
      "eron": 9112,
      "Ġdeploy": 9113,
      "ĠArm": 9114,
      "Ġabsence": 9115,
      "Ġorganized": 9116,
      "Event": 9117,
      "Ġfuck": 9118,
      "Ġsoil": 9119,
      "ĠMiami": 9120,
      "km": 9121,
      "Ġpharm": 9122,
      "ilst": 9123,
      "ometimes": 9124,
      "ĠSab": 9125,
      "Ġlayers": 9126,
      "Ġmit": 9127,
      "Ġperfectly": 9128,
      "Ġsought": 9129,
      "Ġsuddenly": 9130,
      "inded": 9131,
      "Ġwalked": 9132,
      "Ġconstructed": 9133,
      "true": 9134,
      "Ġinspect": 9135,
      "Ġbear": 9136,
      "cut": 9137,
      "pop": 9138,
      "Ġacquired": 9139,
      "ĠSex": 9140,
      "Ġelectricity": 9141,
      "Star": 9142,
      "Ġdismiss": 9143,
      "ĠOcean": 9144,
      "ĠEffect": 9145,
      "ĠTraining": 9146,
      "atin": 9147,
      "Ġscenario": 9148,
      "Ġrefuge": 9149,
      "ulpt": 9150,
      "Ġautomatically": 9151,
      "ĠOnt": 9152,
      "Vis": 9153,
      "rieved": 9154,
      "norm": 9155,
      "ĠFind": 9156,
      "overty": 9157,
      "Ġclust": 9158,
      "ounded": 9159,
      "Ġvisible": 9160,
      "UD": 9161,
      "ĠMatthew": 9162,
      "Ġstored": 9163,
      "essional": 9164,
      "ĠOs": 9165,
      "inite": 9166,
      "Ġfraction": 9167,
      "Ġnodes": 9168,
      "folio": 9169,
      "Ġaccordance": 9170,
      "asty": 9171,
      "Ġessentially": 9172,
      "hist": 9173,
      "itro": 9174,
      "Ġemployed": 9175,
      "iece": 9176,
      "Ġrecept": 9177,
      "SL": 9178,
      "Ġembr": 9179,
      "esis": 9180,
      "Ġassumed": 9181,
      "ĠSimon": 9182,
      "Ġtox": 9183,
      "ĠJason": 9184,
      "ĠProcess": 9185,
      "Ġenemy": 9186,
      "Ġaims": 9187,
      "Ġox": 9188,
      "Ġaccessible": 9189,
      "Ġtournament": 9190,
      "Ġbasically": 9191,
      "Ġbrilliant": 9192,
      "ĠDespite": 9193,
      "GE": 9194,
      "summary": 9195,
      "ĠCooper": 9196,
      "Ġseasons": 9197,
      "Ġsurvival": 9198,
      "osa": 9199,
      "sts": 9200,
      "anted": 9201,
      "makers": 9202,
      "ĠIslands": 9203,
      "THE": 9204,
      "ĠMinnesota": 9205,
      "Ġrum": 9206,
      "ĠPrinc": 9207,
      "Ġbass": 9208,
      "Ġcausing": 9209,
      "ffff": 9210,
      "ĠHo": 9211,
      "ĠMountain": 9212,
      "vol": 9213,
      "ĠRoom": 9214,
      "Ġbuying": 9215,
      "Ġsubsequent": 9216,
      "ĠVictoria": 9217,
      "ĠNa": 9218,
      "Ġunus": 9219,
      "ĠCredit": 9220,
      "Ġinsert": 9221,
      "ĠAnton": 9222,
      "Ġmoral": 9223,
      "cases": 9224,
      "ĠET": 9225,
      "ĠLiter": 9226,
      "Look": 9227,
      "Ġgarden": 9228,
      "Ġcm": 9229,
      "ocated": 9230,
      "Ġunderlying": 9231,
      "Ġbehalf": 9232,
      "ogene": 9233,
      "ĠManchester": 9234,
      "Ġanyway": 9235,
      "MR": 9236,
      "ĠPack": 9237,
      "ĠDate": 9238,
      "Ġrepresentative": 9239,
      "ĠGro": 9240,
      "esh": 9241,
      "mony": 9242,
      "SO": 9243,
      "Ġreveals": 9244,
      "Ġmm": 9245,
      "Ġhur": 9246,
      "Ġconnections": 9247,
      "Ġsoci": 9248,
      "bott": 9249,
      "Ġemissions": 9250,
      "ĠâĨ": 9251,
      "':": 9252,
      "Ġwal": 9253,
      "Ġnoticed": 9254,
      "ĠMs": 9255,
      "skip": 9256,
      "\";": 9257,
      "-$": 9258,
      "Ġwarning": 9259,
      "Ġbasketball": 9260,
      "Ġproducing": 9261,
      "ĠEconomic": 9262,
      "elson": 9263,
      "ĠIV": 9264,
      "ptic": 9265,
      "Ġevaluate": 9266,
      "oil": 9267,
      "Ġsteel": 9268,
      "Ġscope": 9269,
      "iah": 9270,
      "Ġanalys": 9271,
      "ĠWord": 9272,
      "ĠHind": 9273,
      "bourne": 9274,
      "watch": 9275,
      "Ġacknowled": 9276,
      "flow": 9277,
      "Ġclassification": 9278,
      "Ġvice": 9279,
      "GL": 9280,
      "ĠDave": 9281,
      "Ġtheoret": 9282,
      "Ġstability": 9283,
      "Ġticket": 9284,
      "ĠPersonal": 9285,
      "oen": 9286,
      "achusetts": 9287,
      "Black": 9288,
      "lers": 9289,
      "DC": 9290,
      "ching": 9291,
      "ĠCT": 9292,
      "ĠInnov": 9293,
      "Ġcarrying": 9294,
      "ĠAlexander": 9295,
      "aning": 9296,
      "ĠCab": 9297,
      "Ġlawyer": 9298,
      "ĠJay": 9299,
      "ĠFurthermore": 9300,
      "Ġsituations": 9301,
      "Ġkinds": 9302,
      "Ġtrav": 9303,
      "Ac": 9304,
      "Ġcounsel": 9305,
      "ĠFun": 9306,
      "Ġnewspaper": 9307,
      "emb": 9308,
      "gage": 9309,
      "ĠRepublicans": 9310,
      "anning": 9311,
      "Ġpul": 9312,
      "plex": 9313,
      "ĠBol": 9314,
      "thur": 9315,
      "ĠJane": 9316,
      "Ġexpectations": 9317,
      "ĠKelly": 9318,
      "University": 9319,
      "ĠGun": 9320,
      "\\}$": 9321,
      "Ġauto": 9322,
      "roit": 9323,
      "July": 9324,
      "ulus": 9325,
      "umps": 9326,
      "Ġelig": 9327,
      "Ġrobust": 9328,
      "Ġfault": 9329,
      "Mc": 9330,
      "Ġprogramming": 9331,
      "NC": 9332,
      "ĠForeign": 9333,
      "Ġphr": 9334,
      "ĠRelations": 9335,
      "Ġstronger": 9336,
      "ĠSquare": 9337,
      "erning": 9338,
      "ĠShort": 9339,
      "ito": 9340,
      "Today": 9341,
      "Ġcelebrate": 9342,
      "Ġenthus": 9343,
      "ika": 9344,
      "Ġpodcast": 9345,
      "Ġcommonly": 9346,
      "ypes": 9347,
      "Ġbuff": 9348,
      "Ġprincipal": 9349,
      "approx": 9350,
      "bled": 9351,
      "deg": 9352,
      "Ġsuffered": 9353,
      "sup": 9354,
      "Ġfranch": 9355,
      "Ġundert": 9356,
      "Pi": 9357,
      "Ġdiseases": 9358,
      "ĠGree": 9359,
      "block": 9360,
      "ingham": 9361,
      "Ġstages": 9362,
      "arring": 9363,
      "Ġengagement": 9364,
      "alyt": 9365,
      "().": 9366,
      "eness": 9367,
      "ribed": 9368,
      "ethyl": 9369,
      "Ġapplicable": 9370,
      "ĠEmpire": 9371,
      "ĠIndustry": 9372,
      "ĠNations": 9373,
      "rets": 9374,
      "ĠAuthority": 9375,
      "Ġdivided": 9376,
      "ĠCrit": 9377,
      "Ġroof": 9378,
      "ilation": 9379,
      "Ġparticle": 9380,
      "ificate": 9381,
      "ĠMovie": 9382,
      "ipedia": 9383,
      "ĠCollection": 9384,
      "Ġ(âĢľ": 9385,
      "ĠDefense": 9386,
      "ĠBab": 9387,
      "Ġexclud": 9388,
      "Ġvaccine": 9389,
      "eding": 9390,
      "incoln": 9391,
      "ordon": 9392,
      "1950": 9393,
      "ĠAmb": 9394,
      "ln": 9395,
      "Ġweren": 9396,
      "Field": 9397,
      "Ġcircuit": 9398,
      "title": 9399,
      "Ġamounts": 9400,
      "âĦ¢": 9401,
      "ĠTrade": 9402,
      "Ġcuts": 9403,
      "Ġconscious": 9404,
      "ĠIsraeli": 9405,
      "Ġreducing": 9406,
      "making": 9407,
      "Ġopens": 9408,
      "odge": 9409,
      "onal": 9410,
      "nbsp": 9411,
      "chers": 9412,
      "iture": 9413,
      "Ġtrading": 9414,
      "aying": 9415,
      "Ġcutting": 9416,
      "Ġrefere": 9417,
      "Ġgrade": 9418,
      "ropy": 9419,
      "Ġregularly": 9420,
      "ĠSilver": 9421,
      "nie": 9422,
      "ĠĠĠĠĠĠĠĠĠĠ": 9423,
      "Ġfolks": 9424,
[...]
