#version: 0.2
Ġ Ġ
ĠĠ ĠĠ
Ġ t
i n
e r
o n
Ġ a
h e
r e
a t
e n
o r
s t
Ġt he
a n
a l
ĠĠ Ġ
i t
ĠĠĠĠ ĠĠĠĠ
a r
Ġ c
l e
i on
Ġ o
e d
Ġ s
e s
i s
Ġ f
Ġ w
i c
Ġ p
in g
r o
Ġ in
n d
a s
Ġ b
Ġo f
e t
c t
o u
en t
Ġ d
Ġ m
a m
Ġa nd
e l
Ġt o
ĠĠĠĠ ĠĠĠ
i l
Ġ re
Ġ h
o m
Ġ n
i d
Ġ S
o l
Ġ (
Ġt h
c e
u r
Ġ =
at ion
Ġ C
i m
u t
i g
ĉ ĉ
Ġ T
a d
Ġ A
< /
i v
Ġ l
o t
s e
Ġ e
= "
) ;
c h
o d
a g
u l
i f
t h
- -
Ġ {
r a
u n
e m
Ġ M
Ġ <
Ġ I
Ġ is
er s
p e
Ġ v
Ġ g
Ġf or
ĠĠĠĠĠĠĠĠ ĠĠĠ
o w
u s
at e
Ġ st
u m
i st
Ġ P
/ /
a b
u e
o c
Ġ *
l y
Ġ B
p t
a y
i r
as s
Ġ on
â Ģ
č Ċ
a c
e x
t er
Ġb e
Ġ $
it h
am e
Ġc on
t r
2 0
Ġ "
Ġ R
ct ion
h t
Ġ H
Ġa s
Ġ D
Ġ }
an d
v er
u b
e w
a v
Ġ \
" >
Ġ F
Ġ L
re s
1 9
or t
en d
e f
Ġ N
l ass
es s
u p
r i
o p
Ġth at
ag e
Ġw ith
q u
a p
Ġw as
Ġ G
Ġa l
ou r
e st
ĠĠĠĠĠĠĠĠ ĠĠĠĠĠĠĠĠ
Ġ W
Ġw h
ro m
ĠĠĠĠ Ġ
Ġ E
( )
ĠT he
o s
Ġa n
l i
Ġp ro
e ct
ur n
it y
n t
Ġb y
ar t
m ent
in e
* *
a in
Ġ it
o re
Ġc om
e c
Ġa t
Ġe x
. .
er e
s p
= =
o g
al l
Ġ or
k e
Ġ O
i z
ex t
t urn
Ġ J
at h
-- --
p ort
y pe
l ic
Ġc lass
ab le
i es
ul t
i le
Ġf rom
Ġ '
Ġth is
g et
an s
ig ht
i al
u d
er t
od e
ac k
Ġ if
on t
u re
iv e
Ġ r
an g
Ġ he
l d
il l
an t
Ġ U
0 0
e p
in t
ĠĠĠĠĠĠĠĠ ĠĠĠĠĠĠĠ
ar y
b er
e g
Ġ y
or m
Ġa re
pt ion
i p
I n
a st
' s
Ġ Ċ
ar d
re f
Ġ &
o v
Ġc h
u nd
at a
at ed
f f
or d
st r
e v
p l
- >
in d
Ġ //
i b
i re
u g
a re
as e
Ġre turn
p h
: :
Ġ le
i a
c om
ig n
Ġ K
Ġn ot
20 1
j ect
al ue
) ,
o st
ou t
Ġ </
ĉĉ ĉĉ
ic h
on g
it ion
ub lic
Ġ -
Ġt r
l o
.. /
a ce
im e
T he
Ġs h
_ {
p ro
ĠI n
el l
Ġs e
a k
Ġp l
u st
ic e
Ġ âĢ
or k
it e
our ce
er v
t o
) .
c on
Ġ V
a ct
id e
av e
" ,
il d
g e
c l
p er
ĠS t
Ġ @
Ġw e
âĢ Ļ
p le
S t
un ction
Ġn ew
ic al
Ġ [
c c
ar am
Ġ |
s s
i an
Ġ j
o k
or y
oc k
en c
e ar
Ġcon t
Ġa r
c ri
( "
m l
an ce
d d
el f
f orm
( );
Ġh is
en s
Ġ /
en ce
s o
Ġre s
d iv
E x
Ġ us
ul l
res s
s et
ro w
ess age
p ut
Ġ un
th er
s h
Ġ +
ĠC h
> </
Ġwh ich
iz e
d u
c k
tr ing
ou ld
20 0
is h
on e
Ġh as
' ,
q ue
ĠT h
m a
---- ----
u se
Ġ k
f t
sp an
ou nt
ation s
a ch
Ġa p
{ \
o b
Ġ im
in k
m er
Ġ .
Ġh ave
ent s
er r
i el
1 8
Ġp ublic
Ġal l
> <
== ==
he n
ou s
Ġn ame
l l
Ġ* /
ow n
en er
e le
ir st
ter n
Ġst r
../ ../
Ġc an
Ġa b
t e
iel d
e b
in al
c he
i ew
Ġ :
** **
on d
o ver
re e
Ġ$ \
et h
ĉĉ ĉ
u al
Ġd ef
ĠĠĠĠĠĠĠĠ ĠĠĠĠĠĠĠĠĠĠĠ
f ig
Ġw ere
ou nd
o ol
cl ud
le s
a il
ht ml
( '
r it
1 0
ic t
Ġcom p
n ame
o id
Ġin t
Ġal so
Ġf unction
er m
m ath
Ġh ref
ĠĠĠĠĠĠĠĠ Ġ
P ro
r y
ra y
n e
th is
Ġ| |
at or
ar k
at es
N ame
p r
y st
ol d
ro up
ĠU n
om e
) )
Ġs et
le d
Ġp r
E R
ol l
s ource
t p
Ġo ut
Ġp art
Ġv ar
Ġ ro
Ġb ut
m essage
b ject
f er
Ġd is
_ _
T ype
l ation
er y
que st
im port
ot h
Ġon e
ke y
en g
pe c
p aram
Ġ #
ing s
i o
O N
ion s
i x
Ġ Y
Ġd o
Ġg et
yst em
S tring
n g
tr ans
v ent
Ġwh o
o int
I d
ĠH e
at ic
Ġthe ir
Ġs u
Ġ up
al se
he d
t d
a w
f ter
Ġy ou
od el
Ġt ype
C on
I N
w o
ĠI t
} }
c al
Ġf irst
Ġ= >
at er
âĢ ĵ
re turn
c ol
Ġh ad
am es
o ok
ar g
a x
Ġit s
t ext
or s
Ġw ill
pe ct
ation al
is s
le ct
c re
at ch
c ont
# #
c ode
Ġv alue
ic s
ap p
C ont
an y
u ild
em ber
ab el
Ġas s
cri pt
/ >
Ġpl ay
p ert
a ke
f o
l ock
Ġd e
el y
1 2
Ġa g
Ġp er
Ġcon st
R e
Ġw ork
19 9
eth od
ic k
Ġp re
C om
Ġd es
ig h
ĠâĢ ĵ
Ġo ver
um ber
Ġ !
u ct
R E
am p
R es
ut e
Ġc l
ce ption
Ġs elf
ur re
" />
p on
s er
w e
l ine
an n
ou n
Ġm e
^ {
Ġl ine
ĠA r
t on
ad d
Ġc ol
i e
Ġcom m
ar ch
L ist
ang e
Ġo ther
Ġy ear
m s
d ef
1 6
Ġbe en
Ġthe y
c lass
a ult
Ġt ime
t ype
Ġ _
Ġ end
Ġ el
C h
trans lation
} \
op le
ro und
an c
Ġd ata
ov e
it le
Ġs p
b o
: //
} $
al s
âĢ Ŀ
Ġ und
e y
Ġ= =
} ,
i ed
s on
p os
Ġh er
Ġm ore
Ġa dd
if ic
it ed
Ġw hen
ad e
R ef
T h
Ġa d
enc es
r ight
S T
Ġ id
c ent
oc ation
at ive
Ġt wo
Ġin ter
Ġn ull
v al
o se
Ġp e
l and
ac he
mer ic
A T
t a
ĠC om
y n
le ment
Ġin clud
"> <
Ġv oid
Ġs o
Ġs up
s um
m b
ers ion
tr ib
Ġ en
Ġ i
ra ph
Ġs ub
ra c
A r
as k
Ġs c
ad er
erv ice
as ed
ire ct
1 5
Ġn e
g r
Ġf il
as h
Ġof f
eg in
or n
iv ate
on s
u es
Ġt e
er n
Ġc re
Ġres ult
( \
um ent
Ġre g
iv ers
) );
v ar
w ard
Ġa ct
urre nt
ht tp
O R
Ġ qu
re ad
is hed
ug h
Ġin to
ĠTh is
Ġ `
y le
o f
t he
y s
oc al
p p
e qu
cc ess
1 7
ut ion
c ess
Ġor g
y p
ou g
ul ar
tern al
or g
ĠN ew
b egin
Ġon ly
L E
Ġg o
id th
) :
c a
ut h
is e
Ġab out
Ġ >
Ġf alse
ĠĠĠĠĠĠĠĠ ĠĠĠĠĠ
at ing
Ġap p
i ous
ĠĠĠĠĠĠĠĠĠĠĠĠĠĠĠĠ ĠĠĠĠĠĠĠ
in ed
an ag
A R
ĠâĢ ľ
" );
str ing
Ġa fter
b ack
-------- --------
in s
\ \
e e
Ġan y
t em
1 1
Ġre c
et a
r r
d ata
ption s
le ction
Ġt ra
an k
I D
m in
Ġ err
ay s
s elf
ur ing
ĠP ro
Ġtr ue
19 8
Ġund er
r u
Ġs pec
it ies
oll ow
Ġin st
d er
Ġo p
or ld
w n
Ġw ould
av a
Ġp os
V alue
Ġth ere
Ġe v
Ġin d
am ple
Ġb et
res ent
it s
Ref er
ol og
Ġfor m
D ata
Ġpro v
Ġn o
eng th
ist s
Ġwh ere
Ġd ec
Ġpe ople
r ic
f ile
c o
ĠA meric
**** ****
re n
Ġtr ans
// //
Ġk n
o ot
Ġel se
pert y
1 3
qu ire
is ion
==== ====
o le
l abel
w ork
Ġs ec
1 4
Ġ use
A L
2 5
E N
ĠA l
at ure
T o
ag es
" )
i er
Ġl i
Ġf inal
id er
Ġs he
re d
Ġre m
in ce
C ol
Ġp ol
Ġus ed
Ġv al
li ent
ar n
b le
em ent
v alue
u le
ch ool
Ġ )
Ġc o
c ed
ev el
Ġt est
ra ct
Ġth an
p s
p x
_{ \
S et
Ġ/ **
Ġs ome
v el
u ff
Ġ --
Ġ ent
ib le
S S
Ġthe n
v e
ar get
t s
o y
il y
) $
od y
il ity
ĠS h
u res
Ex ception
Ġstr ing
le ft
ow er
ĠĠĠĠ ĠĠ
Ġex t
Ġcon s
Ġf ollow
b ar
Ġre l
a ir
Ġb ack
Ġch ar
} {
Ġo b
f l
19 7
l og
ĠĠĠĠĠĠĠĠĠĠĠĠĠĠĠĠ ĠĠĠĠĠĠĠĠĠĠĠĠĠĠĠĠ
re am
we en
E rr
n b
E n
v iew
Ġ// /
ro ugh
t est
Ġsu ch
ment s
s ub
] ;
Refer ences
a z
it em
oc i
ĠA n
( $
d ate
at us
et er
3 2
Ġn umber
iz ed
Ġst atic
Ġ ra
Ġm ay
Ġa c
Ġf ile
Ġc ase
im es
O bject
ic es
Ġ& &
Ġd ist
ĠC on
ivers ity
Ġg ener
l ocation
ro id
n ot
Ġf e
ar s
in es
Ġpro du
as on
um n
ĠS tring
Ġd if
at t
nb sp
n ew
3 0
m ary
Ġ x
Ġ Q
are nt
w w
A t
Ġl ist
Ġthe m
Ġin v
al ly
a ction
p re
Ġpr ivate
a h
b all
T r
Ġ! =
e q
Ġs er
T est
Ġst ud
a id
p ress
o h
Ġbet ween
Ġm ost
G et
' )
() .
D E
ou se
00 0
id ent
if e
ep end
' ]
s ize
b r
U n
Ġ %
i ent
Ġyear s
b e
C T
Ġ ed
() );
r c
Ġp h
iv er
2 2
pl ay
m an
f or
m p
I T
it t
t il
over n
Ġst art
Ġ Z
f rac
oug h
Ġf ound
ot t
Ġth rough
b y
Err or
19 6
ro l
et s
ĠE x
Ġsh ow
Ġb o
Ġf l
r ame
in n
l er
le t
str uct
2 1
i k
ĠS e
Ġh im
a pt
tr y
S E
. </
K ey
Ġag ain
ur y
c es
evel op
Ġo per
l ink
a j
. _
he ck
ist er
f ace
ĠA s
ro ll
Ġc ent
5 0
sh ip
g er
ers on
ou th
ĠI nd
ĠC ol
Ġa cc
Ġat t
if y
Ġo bject
Ġe st
H e
F ile
ord er
Ġst ate
oth er
l ish
p ublic
or th
Ġa m
Ġh igh
" ;
Ġg roup
ĠĠĠĠ Ċ
Ã ©
p ace
[ '
f ield
f ore
o od
b f
s cript
C lass
Ġ key
n av
ĠAmeric an
Ġo ur
"> </
w ay
re at
M E
m e
e ver
Ġm od
I nd
ĉĉĉĉ ĉ
Ġc al
Ġt itle
Ġl ink
is m
u c
ĠT r
ind ow
l ist
V iew
Ġm in
ut il
m od
A N
s c
Ġre p
if ied
am b
B y
} )
oc ument
' );
us s
Ġg r
Ġm ethod
ur l
sum mary
ce pt
ess ion
iz ation
ĠUn iversity
. "
I m
ĠF or
t ime
Ġs ign
ind ex
Ġthe se
Ġs erv
O n
Ġl ong
j s
l ay
C O
Ġs ystem
b ers
c ite
cri ption
S h
Ġsh ould
l ang
ot e
Ġd irect
Ġr un
in ter
f unction
con st
Ġm odel
Ġs im
Ġf ield
Ġw ell
ant s
re g
r ite
en se
p ar
Ġwh ile
m all
lo ad
() ,
r m
lo b
w h
al e
2 4
Ġar t
f ul
iv en
are d
$ .
} .
Ġd r
$ ,
Ġp oint
Ġc all
iv ed
Ġdif fer
gr am
g o
ĠL e
Ġd uring
Ġar g
ĠUn ited
g round
Ġe ach
t tp
Ġbe fore
t en
ĠI s
r on
t op
a f
Ġw rit
ist ory
col or
1 00
re ak
U L
Ġbe ing
! --
Ġ/ >
iv es
ra w
] ,
Ġf am
Ġr ight
=" ../../
Ġc urrent
Ġsec ond
d is
com m
Ġe m
ĠW e
enc y
Ġs ame
A n
o ad
v oid
Ġh ow
Ġre sp
Ġd et
Ġne ed
uff er
Ġsup port
y m
Ġm ade
19 4
h er
ĠF r
m ed
ĠR e
Ġb uild
b b
anag er
ack age
6 4
ĠD e
Ġm ed
Ġc oun
g roup
Ġp aram
ain s
Ġth ree
ath er
iv ing
Ġcom ple
us h
Ġs ing
pon se
math cal
Ġre le
Ġe ff
Ġm any
Ġs aid
t ing
R O
" :
Ġm em
T ime
it ial
t able
form ation
qu ot
ur ation
Ġli ke
u ch
Ġe ver
Re quest
Ġo wn
Ġc or
Ġj ust
us ic
Ġte am
=" +
w idth
in clud
ect ed
ect or
Ġ X
ra p
ĠS c
m y
F or
Ġus ing
Ġwh at
Ġre quire
ate g
A s
Ġb oth
l ished
it or
p ath
Ġim port
' t
in a
ur al
trib ute
d a
Ġre ad
re m
T ext
op y
uth or
m d
Ġp ass
Ġh and
ĠCom m
t t
E vent
In fo
Ġass ert
, \
A dd
/ *
I ON
.. .
iss ion
` `
se arch
e k
us er
oh n
p i
ph a
un c
2 3
ar ly
ist r
b ut
at s
I nt
og raph
E lement
L A
ro p
Ġth row
Ġd evelop
P ath
Ġl ocal
ical ly
ĠW h
ĠE ng
equ ation
Ġrec ord
Ġe vent
u i
P E
T E
Ġp op
Ġbe g
Ġy our
Ġs ur
Â ł
" .
Ġ ?
port s
N ode
() )
Ġm y
Con fig
Ġ );
og le
P aram
' :
Ġch ild
Ġm ov
/ **
] .
Ġe qu
an e
ĠI f
en n
ĠO n
ĠS he
ole an
ĠM ar
Ġm ain
I tem
Ġc ould
Ġs ize
ro ss
ign ed
olog y
Ġm on
l p
om en
Ġre quest
3 3
F ield
r ide
Ġper form
o x
Ġex pect
## ##
Ġn ow
con fig
St ate
T R
ĠP h
Ġb el
E qu
ction s
A C
ain er
ĠSt ates
ition s
ca use
an u
Ġfollow ing
Cont ext
lo se
P I
ig inal
Ġ/ *
Ġp ar
D ef
b s
et ers
} (
Ġb r
Ġl ast
Ġbe cause
l ength
Ind ex
M ap
Ġg overn
oot ball
Ġm ake
Ġs ol
ĠC l
} _
ames pace
ir c
Ġlink s
st ance
~ \
Ġcont in
ual ly
d es
o ff
et work
Ġ-- >
id d
ĠR es
i ev
Ġor der
Ġerr or
it er
Ġre f
N ot
Ġfil m
Ġpart ic
Ex ternal
F orm
Ġinclud ing
} ^
ot s
w ord
Ġap pro
ap i
Ar ray
n er
19 5
Ġb ro
ain ed
un e
Ġ( !
i ence
} ;
se ction
ĠĠĠĠĠĠĠĠĠĠĠĠĠĠĠĠ ĠĠĠĠĠĠĠĠĠĠĠ
W ith
yp es
Ġn on
ir t
ar m
Ġs chool
Ġdo es
. ,
O ver
el ta
d t
bo x
Ġpro cess
Ġle ad
ver t
le y
tr ue
4 0
Ġagain st
as es
Ġd id
Ġl ater
Ġex p
Ġdiffer ent
l t
Ġg iven
Ġe lement
Ġar ray
S ervice
" "
u ro
D es
al ign
Q u
Ġ z
ens ion
Ġa ut
u str
Ġre ce
ĠA nd
Ġd ep
n ext
al th
b um
m ap
' ;
Ġap pe
it al
Ġb l
ul ation
ĠO r
Ġdef ault
I C
Ġop en
Ġdis c
http s
pt y
Ġ} );
2 7
2 8
ap ache
el s
ur s
i or
al pha
tern ational
O r
pon ent
Ġt erm
ĠP r
m odel
Ġstr uct
s y
t itle
ount y
u k
Ġt ext
yn c
ĠM ay
Ġkn own
am ed
Ġplay ers
lob al
res ult
2 6
S ize
ĠA ss
end s
ic on
al ity
U R
ak ing
err or
ar ri
ch n
Ġf our
Ġto p
ur ch
n ode
i um
ĠJ ohn
[ ]
lic ation
p or
//// ////
ar ray
Ġm at
re t
S ystem
ust om
d ay
= '
b lock
C ode
le ss
Ġs ince
in put
ut es
ob ject
a i
p art
le ar
ass ert
Res ult
ĠA t
Ġw orld
u age
id ed
Ġst yle
Ġcal led
Ġf act
Ġever y
os s
Ġf in
en u
r al
Ġ} ,
Ġt arget
ile d
g t
f rom
Ġle ft
th s
Ġcont ent
et urn
Ġcomm un
val id
H and
f in
A ll
2 9
s ide
ĠN ational
il ter
il t
ag ue
al k
Ġp res
ir d
r ist
A l
B uild
ĠW orld
able d
Ġv is
Ġm et
M essage
amb da
ĠA d
ag s
Ġt em
Ġpro t
Ġall ow
in ess
pl ate
v ersion
s w
ef ore
ar ge
Ġl og
i ans
lect ed
s k
cre ate
******** ********
F F
ĠS ystem
Ġg u
Ġpro gram
he ad
Ġse ason
nd er
if t
Ġl aw
com e
Ġv ersion
Ġf ind
ast er
Ġ u
ĠC an
um er
ific ation
Th is
Ġm ust
A D
p an
et y
201 7
O f
i able
our ces
v ious
Ġth ose
b ody
Ġpol it
201 5
lo at
Ġl ife
ĠY ork
Ġv ery
ent ial
Ġev en
="../../ ../../
ĠĠ Ċ
u ck
Ġh ttp
in ing
Ġser ies
+ +
en e
act er
Ġs rc
201 6
Ġc are
20 19
Ġ: =
od es
Ġj ava
W e
Ġus er
Ġc a
id es
Ġse e
re ate
ict ion
def ault
re c
U T
Ġest ab
I s
Ġfam ily
> &
L O
Ġm ark
V al
Ġt ri
in ation
p oint
ac es
ĠH ow
j ava
201 8
g y
Ġpl ace
Ġin formation
se c
in c
mb ol
Ġal bum
a it
Ġb ook
end ed
t ings
ne ction
ĠJ ul
ĠC ent
= \
Com m
c ame
am ma
Ġ __
on y
Ġre fer
che s
ou ble
Ġcon fig
st art
201 4
Ġre t
Ġbe came
O ut
ev ice
in fo
Ġp erson
aj or
Ġw ay
pert ies
st ate
is ed
ĠâĢ Ķ
n ess
Ġdes cri
A pp
Ġorg an
Ġcons ider
s erv
Ġun til
Ġcre ate
and roid
du ct
Ġhe ad
def ine
Ġb ased
b l
) \
cont ent
Ġs mall
Ġn ext
Ġc r
li am
Ġse ver
Ġd own
6 0
Ġf ootball
I G
ĠC ar
Ġb lock
Ġb ase
Ð °
ĠP l
S er
ĠA ll
M odel
ĠB rit
b ed
ĠB r
L og
ol v
us ing
Ġs l
our n
ĠN ov
Ġrep resent
ĠS chool
M L
ww w
iv ely
Ġb reak
Ġm an
ur ity
---------------- ----------------
ĠB l
Ġc heck
end er
ig ma
us iness
======== ========
Ġkn ow
b ase
M anager
ire d
Ġp ath
8 0
IN G
Ġv iew
im it
Ġc our
Ġex ample
Ġo ld
ore d
ĠW ar
com p
Ġpro ject
ĠG r
and s
Ġ= ==
3 4
M A
ĠP ar
Ġan n
Ġp resent
it ch
Ġsu ccess
Ġle vel
ition al
Ġ\ \
c d
m u
. âĢĿ
ĠW est
UL L
ak es
includ e
T able
u f
ĠC ounty
ic y
Ġ ,
h at
ra ck
ĠG et
n et
Ġ Ð
ĉĉĉĉ ĉĉ
ĠE n
Ġoff ic
p ackage
ir on
ele te
_ \
Ġtr y
ma x
Ġin cre
um e
Ġm usic
Ġp ub
U ser
ĠS outh
In ter
201 0
eg a
I S
Ġc ode
Ġo cc
Ġor iginal
Ġin put
Ġcon f
Ġp ost
H E
en ame
Ġcont ext
Ġhe lp
k en
anu ary
201 3
ĠR eg
Ġb ir
c ss
t es
ward s
roll er
ab ility
che d
P l
F rom
iv al
Ġeff ect
Ġa v
ĠSt ate
f alse
Col or
is on
Ġde ath
cal e
U p
ĠY ou
; &
cont ext
Ġf r
Ġ( )
anc es
Ġm ult
ri x
Ġ} ;
a u
ail s
ĠO ct
Pro perty
ug ust
Ġs ong
Ġp rom
Ġl oc
Ġpos s
erm an
M P
ustr al
o ber
pt ember
w eb
ele ct
Ġinst ance
d own
go ogle
press ion
ott om
m ber
E T
201 2
n o
ist or
l ing
om an
Ġle g
201 1
ĠThe y
math bb
ĠG e
a ut
t n
a pe
ill ion
Ġgovern ment
Ġis s
an sp
Ġg ame
eb ug
G roup
Ġare a
o ption
ĠC al
=" ../
Ġre port
se mb
oc us
R eg
er ing
c ast
ĠP ol
ide o
le ge
d b
N ew
um p
av ing
i od
ĠU S
Ġs ervice
d oc
Res ponse
w are
ok en
uro pe
m ethod
ev ent
Ġex per
Ġn il
oc ial
c ore
at ely
ĠM arch
Ġsing le
Ð ¾
Ġm ax
Ġa round
} _{
Ġb ool
3 5
se e
Ġle t
U N
.. ..
Ġwith in
D O
ord ing
Ġval ues
Ġpos ition
Ġit em
ail able
t ed
Ġm uch
pro t
Ġw ant
um ents
ĠW il
pr il
C lient
Ġn ode
D is
C all
Ar g
Ġst ill
Tr ans
C E
a im
ĠL ist
T D
c ount
ĠJ anuary
s up
Ġp o
ĠĠĠĠĠĠĠĠ ĠĠĠĠ
ĠR ep
orm al
m et
=" #
Ġcon d
ep s
ĠĠĠĠĠĠĠĠ ĠĠ
A B
} ^{
; </
iv ity
Ġch ang
str u
il it
Ġind ex
ĠC o
ear ch
3 9
pr int
ĠSe ptember
Ġp ower
Ġim p
Ġid ent
ord s
Ġsever al
d om
Ġinclud e
$ \
ĠA ugust
um an
R ec
Ġad v
C l
Ð µ
u ed
A S
st it
M ethod
E D
Qu ery
ĠG u
ĠJ une
arg in
EN T
I t
ith ub
P r
Over ride
st atic
C ount
Ġl ang
ol ution
Ġresult s
ce mber
ĠJul y
P h
v ision
Ġst d
che ck
ĠOct ober
> (
Ġo ptions
Ġh ere
ater ial
ar r
ref er
Ġs ource
ic le
h old
ib r
st yle
Ġp at
Ġ enc
if ier
amp ion
Ġc ap
ĠB e
Ġex pl
ann el
Ġmem bers
a e
Ġd em
- \
Ġd ay
pos ition
Ġn ear
l in
Ġcol or
Ġre al
Ġin itial
o in
v iron
Ġp ort
o pe
< !--
e ad
on se
n amespace
Ġwith out
le g
c all
al es
ple ment
\\ \\
t ab
Ġl ook
9 9
pl ace
Ġ eng
ph i
Ġw on
) </
u les
s l
Ġd el
h o
Ġt ake
he s
ĠA pril
Ġd ocument
Ġc ity
Ġb u
Ġw omen
n ing
lic k
g ress
Ġpro f
al t
ĠA f
200 9
ator s
eg er
Ġfor mer
Ġs om
I L
irt ual
20 20
math bf
A nd
Ġb order
Ġresp onse
al y
Ġal ong
M od
ĠE d
un g
Ġt able
ĠE urope
F act
ĠS et
w ith
g ithub
Ġan other
ĠN orth
3 7
6 6
Ġe arly
li b
3 1
Ġadd ress
A d
Ġm ap
v en
Ġs k
ĠC ity
Ġl a
200 8
ur g
b uild
E S
Build er
St ream
ĠA ustral
Ġl arge
ix ed
ur ther
ĠCh rist
ain ing
Ġand roid
i us
le x
Ġst and
am a
ec ut
B ar
Ġm atch
Ġgo od
ard s
Ġf a
A ss
| -
Ġd on
ĠI m
h ip
or ies
c urrent
Ġm essage
ĠNov ember
Ġm ember
T H
n ull
ug g
Ġback ground
Ġh ome
Ġin s
ĠDe cember
G ener
p en
9 0
but ton
Ġpro ble
Ġm ajor
w ays
Ġcont rol
ain t
Ġpro perty
o ptions
qu ery
] )
ra ft
z e
ĠS ec
ure d
n ect
S ub
l ambda
Ġd iv
ĠT e
Ã ¡
Ġrele ased
ad a
end ing
i que
In put
St atus
F l
at ures
Ġbe st
ĠN o
Ġp arent
Ġa ccess
Ġa ction
Ġto t
3 8
Ġs w
o pt
U til
A ME
Im age
f unc
ther n
at ab
Ġ{ \
Ġ es
^ {\
3 6
con om
Ġf ore
E nd
Ġchild ren
q l
ne y
eb ru
re quest
Ġplay ed
Ġsh ort
ĠM in
Ġst at
ac ed
er o
I P
ĠĠĠĠĠĠĠĠĠĠĠĠĠĠĠĠ ĠĠĠĠĠĠĠĠĠĠĠĠĠĠĠ
Ġh istory
âĢ Ķ
c lient
ograph y
ebru ary
Ġd ue
ĠP art
4 5
ĠM ed
200 7
] (
b eta
Ġex ist
ĠBrit ish
U S
ĠN ULL
rit er
read y
d ir
ON T
ĠF l
op er
Ġch ange
im age
D ate
sp ace
O T
c er
( (
ĠB ut
u x
Ġw idth
Ġbe h
Ġ< <
Ġs pe
arg s
Ġdist ri
Ġc ar
Ġa uthor
ĠI I
ĠS p
con d
T oken
P ar
it ive
ĠB o
ĠHow ever
pos ed
ĠĠĠĠĠĠĠĠĠĠĠĠĠĠĠĠ Ġ
d e
Ġpre vious
b orn
7 5
Ġs um
Ġcomp any
ed er
fin ished
Ġinter est
ĠS up
re en
arn ing
Ġdes ign
Ġte chn
ou d
n s
il on
Ġro le
Ġ ->
viron ment
S ee
an a
al f
19 0
ĉ Ċ
P os
s igma
B ut
Ġ$ (
pec ial
r un
h am
Ġchar acter
200 6
20 00
Ð ¸
âĢ ľ
ĠG ener
ĠC ont
stru ction
B e
add ing
um b
S c
ĠT o
op s
E d
ut ure
us ed
ch o
B lock
In stance
le m
ph p
ĠK ing
ad em
Ġa ff
st er
Ġout put
Ġreg ion
Ġb usiness
Ġgener al
ac y
ap an
Ġr ad
re l
h and
D I
Ġass oci
O ptions
A ct
ar row
ay out
ar i
ac hed
Y PE
Ġd i
ith er
co pe
d l
ight s
y les
e ction
Ġl arg
Ġcomp et
che ma
pro v
ĠA ct
S tr
ĠS er
res p
ĠTh ere
Ġbo olean
ser ver
R un
h as
v ers
5 5
ĠF ebruary
id get
Equ al
Ġf ull
re w
Ġr ange
un finished
m at
j av
, "
Ġb as
Ġre search
E X
in it
er ed
he ight
on es
er a
Ġwe ek
N ull
ĠB y
ĠP res
C H
Ġtot al
an ch
Ġrece ived
id ge
Ġn etwork
oug ht
O ff
t x
B ase
ro du
, âĢĿ
Ġcare er
Ġn ational
L ine
At tribute
un k
ap er
S ource
ĠM c
cre en
Ġn amed
Ġ ke
ug in
ent ion
m ark
N av
N o
a ff
Com ponent
ad ata
ic ense
Ġcoun try
Ġcom put
r ag
l a
ĠH is
ĠR ec
if f
x y
Ġed uc
Ġper iod
im ate
T O
Ġav ailable
Ġrequire d
Ġhe ld
ren ch
qu ad
7 0
ĠS w
ing ton
art ment
Ġv ol
Ġth ink
Ġre st
o ke
Ġ" ""
ĠLe ague
im ary
ild e
Ġinv est
il ar
* }
Ġcomm and
ib ility
C ell
N S
Ġt ele
ĠT est
cent er
th ers
ĠA fter
R ep
[ "
m ember
he ader
p age
os ed
Ġto wn
Hand ler
re st
RE F
row s
Ġc amp
C K
ig ation
( {
at ter
or age
Ġto ok
Ġh ost
Ġal ign
pl oy
Ġbeg an
d ec
Ġs ide
ch ild
ip le
D ec
in ition
app end
B uffer
atab ase
ĠAf ric
r ad
) }
im ent
F A
ampion ship
Ġf re
st and
id ual
ĠĠĠĠĠĠĠĠ ĠĠĠĠĊ
in o
ig r
ĠR ob
Ġe lect
O per
Ġb ound
A ction
act ive
Ġf ew
ĠA b
ĠR uss
Ġt urn
Ex t
Ñ Ĥ
Ġs y
Ġsp ace
Ġo pt
n own
ĠB ar
Ġc ount
Com p
Ġ+ =
Ġd est
math rm
Ġfil ms
A meric
ot o
r t
Ġsup er
i et
p arent
im al
epend ent
ic ro
in ary
Ġ( \
l s
im um
Ġ( $
Ġw he
ug ht
Ġim age
Ġcre ated
ra in
S ec
Res ource
Ġm ag
Ġd eb
Ġh ouse
cent ury
n ow
Ġd om
ri or
Ġp age
n a
Ġs ay
c il
i ef
Ġh old
ĠEng lish
d o
Ġm anag
T ask
E E
semb ly
Ġob t
Ġc ert
O L
ateg ory
und le
c y
Ġbir ths
Ġpartic ular
Ġval id
ĠĠĠĠĠĠĠĠ ĠĠĠĠĠĠ
g amma
S C
our s
Ġ et
00 00
j son
ĠA dd
Ġl and
Cont ent
Ġres pect
ond on
S elect
t arget
m it
St art
Ġtra ck
nav bar
L ink
ĠC oun
ilit ary
trib utes
Ð ½
ial og
th ough
ĠĠĠĠĠĠĠĠ Ċ
se qu
Ġa ge
re et
op h
Ġl abel
ĠCh ar
H el
pro perty
a ul
) {
p m
ĠC or
se lect
and om
4 4
200 5
ĠM an
ot ype
it es
pt r
P oint
A P
ĠD es
b it
Fact ory
Ġl ength
0 1
p ost
wh ere
og n
Def ault
d elta
Ġe p
Ġbu ilt
Ġme as
Ġimport ant
Ġpop ulation
l ocal
Ġc ell
e ed
e ople
] {
ang le
Ġt imes
Ġspec ial
S P
li ed
ĠCol lege
+ \
r am
Ġf ac
Ġexpect ed
Ġev ents
x ml
ĠD ep
ĠH igh
W indow
es e
il le
idd le
Tr ue
rame work
s rc
fig ure
at form
Ġl ate
ĠAr t
l ight
Ġle ss
ĠE ast
Ġpub lished
al ys
itt le
ĠJ apan
Ġf ive
^{ -
Ġres ource
r l
} {\
op en
ef f
F unction
iz er
^ \
Ġestab lished
Ġar ch
E L
LA SS
* /
fl ow
Ġab ove
G L
Ġin c
st atus
ĠI nt
Ġp ut
Ġof ten
Ġs ix
v is
Americ an
im g
lection s
U E
O P
Ġpr int
Ġcon c
yn am
b tn
Ġal ready
resp ond
ĠC lass
Ġm en
Ġm illion
V ersion
I f
b ottom
ĠW hen
ma il
ansp ort
AT E
ĠH ouse
c le
f irst
Ġoffic ial
ĠO bject
ĠO ff
Ġcomm on
St yle
Ġprot ected
mod ule
ep ar
i ol
ĠS o
4 8
" ]
i j
s g
c ase
Ġdis play
g ed
ip p
Ġc over
re ct
ĠPh il
Ġs ent
Ġb and
Ġth ird
Ġinclud ed
ist ry
Ġc lient
Ġb ody
ele ment
ĠCom p
Ġfe ature
u ation
is ing
end if
w rite
Ġob serv
Ġar r
ad o
ĠL ondon
200 4
Ã ³
ĠD av
ust er
P RO
Ġloc ated
H T
Ġn um
ĠM e
m eta
ist ic
Ġc ult
ĠN one
Ġt ask
g le
Ġam ong
Ġse ction
Ġdef ined
istr ict
Ġcl ub
ud e
l ast
Ġ ide
Ġw ar
oc ol
ab ly
Ġc rit
le q
ut ions
d f
Ġprodu ct
h ost
ap s
pr ivate
ĠA m
Ġh app
Ġne ver
M S
Ġcent ury
C C
Ñ Ģ
des cription
Ġcommun ity
p ng
f ord
st ream
v es
Ġdevelop ment
( &
inn ing
N umber
im ation
Ġdescri bed
Ġg reat
Ġthrow s
ĠD ef
ab or
f ind
A G
row n
ourn al
row ser
Ġf ree
b ook
ak en
r ho
Ġbuild ing
ibr ary
ĠI N
ĠQ u
tem pt
F ONT
p ush
P ol
Ġ{ @
ĠP ark
U s
Ġt yp
Comm and
ĠR eturn
Ġserv ed
ĠWil liam
y d
the ta
F I
al d
b ig
Ġst ory
am l
Ġcl aim
ra ce
olv ed
oci ety
Ġappe ar
o ice
Ġin div
Ġpoint s
Ġc ur
it ory
V ER
Ġ( (
P art
ir m
Ġg ames
Ġacc ount
un ic
itt ed
am ent
ent ly
ch ar
Ġst atus
Ġcomp on
Ġv ill
} );
ĠG L
Ġplay er
Ġbe come
Pro v
Ġlang uage
st d
Ġs ocial
om et
L abel
t imes
// /
c ell
Ġp ay
he et
R eturn
Ġcol umn
Ġgr ad
O S
6 5
Ġposs ible
Ġsim ilar
Ġcom b
Ġ quest
ĠB ro
Ġw ater
R ow
il er
g es
g ener
g ing
l en
p y
g or
Ġstud y
id ence
Ġre du
Ġatt ack
Ġme an
ĉĉĉĉ ĉĉĉĉ
Ġd epend
str ong
Ġs ite
ch ange
ĠV al
b uf
min istr
ro y
Ġhe ight
$ -
Ġp ract
alys is
ĠD r
) (
eq ref
Ġe conom
so le
arri ed
ĠC our
o o
el ine
Ġl oad
Ġreturn ed
l im
Ġm argin
~ ~
f ont
Ġh uman
Re ad
ob j
C reate
ĠF rench
N O
ĠPres ident
re quire
Ã Ń
ĠL a
ĠIn ternational
if act
ĠA ir
Equ als
ĠâĢ ĺ
att le
pect ed
ĠH er
Ġyou ng
Ġwrit ten
as cript
Ġ url
Ġdet erm
ta u
p ol
s igned
m o
Ġa ir
Ġann oun
Ġe ither
Ġhe alth
Ġtr ad
dis play
$ {
ent ry
Ġindiv idual
Ġl ow
M et
C heck
Ġst ation
F ilter
m ar
200 1
Ġin f
Ġstr ong
Ġf und
in st
Ġm ass
Ġf ri
ĠO ne
ock et
ĠH ar
ener gy
r ict
Ġb orn
P age
iv il
Ġprov ided
al let
oci ation
cl us
m em
Ġre cent
pro ject
he m
at al
Ġint rodu
B U
Ġm ove
" ).
Ġh aving
bo ard
m on
p c
lay out
li es
Ġpolit ical
M em
p ose
s im
ĠP er
raph ics
Ch ild
i ke
ĠD is
g en
ot ion
Ch ar
Ġim plement
fl u
n um
Cont roller
Ġle ast
cont ainer
inn er
} (\
S up
Ġre lation
Ġwork s
Ġ Ã
Ġin ternational
Ġc ame
Ġw indow
ce ed
part ial
s ol
//////// ////////
ĠThe se
Ġext ends
M O
Ġg lobal
he l
IN T
fo ot
Form at
Ġo ption
c lose
Con st
F irst
List ener
But ton
ĠR ev
Ġstud ents
Ġwhe ther
Ġm er
Ġc lose
ig ger
h a
c od
u ccess
ic o
idd en
ĠA c
p ack
Ġgo ing
res ponse
Ġwork ing
S ON
g l
Ġto o
Ġal ways
Ġf urther
if orn
f act
olog ical
ud io
i ation
r ing
Ġd eg
20 21
Out put
li p
Ġstart ed
Ġind ic
7 7
AB LE
Ġan t
8 8
fer ence
ĠW ith
Ġc opy
at tr
apt er
ĠAmeric a
200 3
Ġc atch
k s
" ),
ĠI r
f ilter
Ġd en
Ġt w
m enu
ver age
A cc
c ul
d et
gor ith
ĠS ch
ic a
W h
m ost
le vel
id s
Ġvar ious
m t
ĠD istrict
L ength
B ox
up date
ĠG erman
Ġg en
18 9
iforn ia
Ġ< !--
t y
Ġvar iable
Ġd ouble
Ġj o
form at
ĠM ich
i i
ig in
em ents
y ear
param s
Ġd ate
Ġh istor
c an
b ution
st yles
Ġc oll
it te
_ .
Ġc ost
Ġd ays
Ġdist rict
jav ascript
Ġem ploy
Ġprov ide
Ġpro b
E m
b or
B C
Ġserv ices
| \
st ract
ĠA g
B ack
Ġsign ific
W eb
Ġj ob
200 2
Ġto get
E nt
Add ress
or ge
Ġproble m
L ast
Ġtoget her
p ly
one y
#### ####
Ġmed ia
Ġm iss
Ð¾ Ð
Ġl o
U I
ay er
use um
app ing
s ervice
c el
ra int
ĠA pp
Ġs at
i as
Ñ ģ
ĠN or
Col umn
os p
ER T
A M
r is
Ġtele vision
Val id
< ?
ĠN ot
Ġspec ies
Ġd ied
Ġd er
Ġparam eter
Ġparam eters
Ġd one
ers hip
ire ction
4 9
A fter
ĠS an
Ġc ustom
Ġle d
ang ed
t ag
P re
Ġ Â
}$ ,
ill s
s i
ugg est
Ġbel iev
Ġv ideo
Ġshow s
Ġ čĊ
ly mp
Ġmod ule
ens or
Ġg l
struct or
Ġspec ified
Ġg row
ar ies
ref ix
d ev
i res
d raw
ĠH REF
ev en
% %
Ġm ight
ĠRep ublic
Ġaut o
w ise
' '
M ode
ĠD o
c it
Ġp ot
Ġv er
I M
Ġs on
Ġperform ance
d ep
T YPE
ele g
Ġin ternal
Ġs epar
Ġme ans
ac ity
T em
Ġf ar
Ġf ont
ĠCh ampionship
0 5
U M
`` `
Ġw ent
ĠInd ian
UR L
L ayout
n u
ft ware
Ġn ov
Ġup date
Ġsub ject
Ġadd ed
ĠCal ifornia
ĠC LASS
Ġcor respond
p o
Ġ ]
Ġph ys
th ing
a use
Ġac ross
tr ies
ann ot
Ġsu ff
av es
Ġd ev
ĠG o
k nown
Ġright s
Ġf ocus
Ġeng ine
Ġe ar
ou ch
Ġse arch
eth ing
Ġ energy
Ġc irc
D elta
Ġl ight
pro cess
x i
il ities
D et
rem ove
Ġon ce
Ġme et
Ġw rite
6 7
Ġro und
ER R
refer ence
}$ .
Ġgroup s
C ON
Ġf ail
4 7
id ing
Ġre d
ell ow
ĠM on
Ġst ates
ĠQ ue
Ġm aking
eg r
A A
Ġab le
Ġc lear
ry pt
d ict
in stance
Ġact iv
A ut
Ġhow ever
' ).
ens ure
on ly
n on
h ib
T P
em s
un it
ag ed
: </
s mall
ĠEng land
at ural
ĠR ed
med i
to ol
Ġat tempt
f inal
p ass
ĠC up
it ect
m ult
Ġn av
Ã ¼
off set
Ser ver
S pec
C ache
Ġh ard
ag n
as ing
ur b
land s
Ġre view
Ġn orth
col umn
ca ption
Ġbet ter
CO L
ft y
Ġconsider ed
ĠS im
Ġd a
ĠĠĠĠĠĠĠĠĠĠĠĠĠĠĠĠ ĠĠĠĠĠĠĠĠĠĠĠĠĠĠĠĠĠĠĠ
ĠD iv
ĠIn ter
ad es
Ġpl an
Ġcon trib
Ġelement s
ĠA cc
ĠE l
Ġmethod s
f e
el se
y l
U rl
d at
H istory
B undle
s m
a el
out put
n umber
t ilde
Ġterm s
oc r
V ar
ĠE m
d r
ef ined
Ġcall back
Ġdisc uss
Ġser ver
Ġ[ ]
pro to
Ġin it
am ily
Ġform at
enc ies
Ġpres ident
sh ow
Prov ider
Ġdec l
ĠCh urch
c m
sy mbol
and id
in fty
ã ģ
ession al
ust ri
Ġag re
199 0
Ġn one
Ġac cept
om ega
ĉ ĠĠĠ
ĠCour t
b a
ĠAustral ia
k it
Ġmov ed
ar a
++ )
Ġspec ific
ĠM y
Off set
199 9
Ġo thers
ĠU p
ex p
ak er
ĠI D
m ain
Ġre ally
b urg
k a
Ġf uture
Ġbl ack
Ġdif f
Ġp ast
P er
18 8
0 8
Ġp erm
Ġ q
ĠA PI
Ġinst ead
prot otype
Ġpartic ip
du c
Ġh alf
Ġstruct ure
util s
ĠD em
Ġprodu ction
e h
ile s
I Z
âĢ ¦
Ġsuccess ful
a ign
Ġf ather
ore m
ĠP ort
ĠG overn
Ġl imit
Ġof fer
I O
Ġse en
F rame
Ġst ream
ĠPart y
Ġs old
text bf
Ġadd ition
Ġv ia
ĠGener al
ĠL aw
4 6
s v
iz ing
Ġn ec
Ġmodel s
comm on
Ġs it
ĠE X
( _
R em
so ft
L ocal
> >
Ġob j
ĠAr ray
Ġm ilitary
Ġm aterial
Ġn eg
il led
o on
Ġoper ation
Ġs che
Ġrele ase
ĠR iver
ĠInd ia
Ġse qu
f a
Ġ! ==
Ġtra ining
t ask
Up date
av y
ov ed
Ġsignific ant
ĠP al
S y
Ġc apt
Param eter
Ġ row
T ypes
ĠS tr
om b
lay er
Ġcom e
ĠEurope an
ĠL icense
T ag
ch iev
return s
Ġc ases
stit ute
ord in
ĠS en
Ġs outh
air s
m m
ĠH T
ed ia
Ġb en
s cope
Ġresp ons
T arget
N AME
le ase
im ension
ĠR oy
b m
ic ation
Ġt re
C L
ens ions
Ġf em
itte e
4 2
Ġc ross
Ġ ::
rap per
ar ing
A b
Ġinter face
r s
ĠCoun cil
li er
Ġk ind
A ccess
er efore
ig ure
h an
Ġassoci ated
Ġfe atures
ly ing
ash ington
Ġs ample
Th read
} [
Ġin du
Ġestab lish
sup port
Ġcent er
Ġcontin ue
Ġwork ed
Ġsur v
Ġth ough
W idth
eder al
D B
Ġprodu ced
ach ing
cd ot
ĠTr ans
s q
Ġl ive
action s
Ġcont ains
Ġt aken
ĠO F
ver se
Ġsh own
an el
ic les
Ġen vironment
ĠF irst
Ġv iol
w indow
Ġli k
Ġc le
is es
b ased
u el
tem plate
par se
Ġp ur
ro te
i ers
Ġp ain
cript or
M ax
ĠCan ada
() ->
20 22
9 5
ot ed
art ifact
Ġex ecut
Ġv ert
Ġa ward
Inter face
ic ult
ist ics
back ground
ĠG roup
b ind
V is
ul a
' ),
Ġact ive
b ool
Ġas k
Ġeduc ation
Ġbel ow
="../../../../ ../
i ber
Ġvill age
Ġl iter
af e
Ġe lection
Ġpro perties
ĠCent er
Ġt ypes
Ġqu ery
Ġke ep
d epend
ĠTh at
ĠA ward
Ġst op
Ġa way
Config uration
I I
$ $
or iz
Ġrec ogn
ot a
u int
ing le
Ġpart y
M in
old er
r id
Ġchang es
Ġw est
ess ages
s d
f loat
Cont ainer
Ġmark et
ad ian
Ġe as
at ives
Ġfile s
ol ve
P eople
Ġl ocation
un ch
un ity
Ġs uggest
N D
Ġl ower
Ġa verage
: "
Ent ity
G e
**************** ****************
. /
Ġannoun ced
Ġam ount
Ġapp lication
ĠP aul
s pec
l ate
Ġcon v
] );
ĠG erm
Ġl im
ĠM ark
Ġs em
P O
W ork
Ġse lect
ĠM al
W rite
] [
( [
Ġre ason
ĠT ype
ĠD on
u id
ĉĉĉĉ ĉĉĉ
ĠA p
ĠB er
6 8
ex ample
\\\\ \\\\
ĠJ ames
199 8
ĠS m
m atch
ã ĥ
ra b
0 2
Ġwe bs
P C
lic it
Ġ* *
Ġsom ething
b old
Call back
Ġarg s
c ap
ĠRob ert
7 8
Ġ ...
Ġcert ain
ĠB el
Ġpop ular
L iving
ic ient
O ne
Ġc ou
i ents
Ġp ress
w ait
C ase
Ġcomp an
En try
b uffer
al le
Ġs ays
Ġcol lection
E ng
ĠCh ina
Ġl ittle
ĠA nt
Ġth ings
av en
comm and
Ġvar i
Ġinst all
ol ic
A PI
ĠFr ance
e al
Ġg round
Ġf loat
ĠAr my
Ġl en
ound s
it ar
Pro cess
Ġb ig
Ġcomple x
ĠDep artment
. )
ĠP at
Ġreturn s
Ġreport ed
Ġpol icy
ĠTh om
Ġent ry
Ġg ot
ĠSt reet
erv e
0 6
Ġw in
Ġcan not
Ġare as
=" -
ĠF ile
act ers
Ġ( "
st rap
Ġex press
c ache
ec ute
ank s
0 9
T op
ĠDav id
Ġbe com
l ong
il m
ra el
gorith m
Ġoff set
Ġg ive
ĠW eb
Ġfield s
Ġf all
Ġn ames
Ġu int
ess or
Ġin flu
B o
b ert
Util s
ĠO lymp
ĠH ol
d ocument
ot al
Ġfunction s
ell ing
5 00
t yp
UL T
Ġpot ential
at ory
}} \
Ġg e
ĠS y
Ġn ormal
Ġse lected
& #
Ġmult iple
ĠS k
vent ion
U P
Ġbo x
ĠS um
ĠSt ud
cont rol
Ġph ot
l it
ĠGe orge
L oad
et t
Ġe ast
Ġsh ip
sh ould
h ood
ra k
Ġbro ad
bo ot
Ġapp oint
N ext
Ġm ale
ĠD i
S p
He ader
ip al
" ))
a uthor
m ega
T ree
Ġ{ }
res h
ĠAss ociation
Ġep is
r ics
O b
Ġt ax
Ã ¶
ut ed
ĠR oman
u a
Ġb uffer
Cont rol
Ġcons ist
Ġw rote
artifact Id
0 7
ro ot
Ġfil ter
ra v
t ml
CO DE
Ġ` `
Ġst ep
Ġl oss
Ġcurrent ly
5 8
id a
Ġa chiev
et ch
Ġb it
Ġm ode
ens ity
Ġstand ard
ĠD ata
t ree
b reak
ĠR ich
ag o
L evel
O pen
Ġdirect or
ra z
ĠW ashington
Ġvis it
ch an
em pty
ĠS ub
un t
Ġent ire
y a
="../../../../ ../../
Ġrefer ence
Ġv irtual
que ue
ct or
5 7
ct x
th on
198 0
Ġt reat
Ã ¤
ĠR em
a ur
od ing
I V
Ġhttp s
en ed
ri ef
R ange
C o
Ġun it
Ġcon nection
Ġsystem s
% ;
Pos ition
0 4
ex pected
un n
Ġh on
Ġh om
res ource
lo y
pl it
A V
Em pty
Ġe mb
Ġl ost
Th ere
Ġdeath s
P ort
AT ION
ĠĠĠĠĠĠĠĠĠĠĠĠĠĠĠĠ ĠĠĠĠĠ
Ġr ate
pp ed
Ġacc ording
r d
ĠL og
ad ow
lic e
Ġreg ular
H ttp
Ġb g
5 9
H O
Ġp rior
Un it
Ġex ception
199 7
ĠR ef
He ight
gr ad
ef t
t im
he nt
ĠReturn s
Ġinclud es
0 3
Ġadd itional
Des cription
Ġb i
L ocation
C urrent
as ons
Ġ" \
ou thern
Ġd oc
Ġfa iled
ĠG od
ch i
iz es
ĠUn ion
Ġnec ess
group Id
Mod ule
ps i
ri es
A g
to ken
li ke
Ġc y
ist ance
} _{\
Ġcour se
.... ....
ic ial
ag ing
Ġper cent
Ġj ud
)$ .
Ġr ather
Ġt im
c ard
Ġp ers
ĠBl ack
w est
class es
ĠAr ch
ĠF rom
Ġ ill
J son
z er
eps ilon
Ġfollow s
ĠD irect
199 6
g in
om in
F e
wo od
Ġoff ice
an ia
D irect
Ġv ict
str y
enc ed
ree k
Ġcont ract
Ġn umer
ĠC reate
Ġjo ined
eq n
Ġcond itions
V AL
S earch
K E
ac ing
ens ive
Ġtrans form
ST R
Q ue
ec ution
Ġwrit ing
Ġd raw
b efore
Ġd at
w ide
Ġcomp os
Ġappro x
Ġrem ove
Ġrel ated
Con nection
Ġad ministr
Ġmon ths
om ent
Ġro ad
v ille
IG N
Set tings
Ġ* )
i os
Ġdistri bution
Ġcour t
and er
Ġiss ue
5 6
Ġg raph
Ġro ot
us es
. $
Ġhigh er
Ġcre d
S cript
ĠS ervice
Ġparam s
Ġre pl
L o
Ġdevelop ed
H ash
| |
m ut
err y
R el
O mega
Ġt en
Ġde al
O ption
=" _
D ep
E CT
sub section
Ġfor ce
m ing
Ġpolit ic
Ġwh ite
pro p
Ġat tribute
p atch
ĠH all
S ession
Ġm id
Ġcompan ies
> ,
Ġcoun tries
is f
) ]
Ġrun ning
C D
d ated
l or
ms g
Ġ rac
ir it
Ġwho se
ar ter
Ġwebs ite
N one
As ync
im ated
anc ial
Ġqu ant
Ser ial
ĠIn stitute
ĠGerm any
Ġover ride
ĠC ong
model s
Ġcon duct
Ġch urch
il i
Ġfr ont
qu are
ĠS ee
F O
anc ed
ug e
Ġp adding
st on
av ior
ã Ĥ
d ebug
is k
Param s
ĠN e
Ġfil ename
f r
IZ E
L e
================ ================
M at
ĠAss ert
Ġre nder
\ ,
b in
c ial
Ġiss ues
Ġquest ion
; ->
Ġcomple ted
ud d
4 1
Ġits elf
Ġst age
i qu
sq rt
p at
ri ate
Ġen ough
ru pt
s cale
{ {
al ian
j o
ul ated
am s
ĠM ary
im ately
^ *
Ġm arried
COL OR
ache s
led ge
ĠM od
ĠU K
Ġup on
as c
ĉĉ Ċ
197 0
ber g
styles heet
AR T
Ġpass ed
B O
Ġcl os
Ġcompon ent
D ocument
ĠRoy al
St at
Ġcomple te
Ġunder stand
Ex pression
Ġle arn
en a
ob ile
ĠL ou
Ġth ought
S O
Ġrel ig
Ġcamp aign
Ġc andid
en v
M enu
Ġreg ard
val ues
Ġprof essional
" ));
ps ilon
Ġ> =
lang uage
199 5
con f
im ages
ca pe
ent ity
Ġset t
pon ents
Ġl ot
Ġallow ed
Ġb ar
s ign
B l
Ġsc ope
ĠM et
Ġlead ing
Ġto ol
Ġbg color
ĠDiv ision
Ġchar acters
Ġc ast
Ġpro p
h ash
Ġl ines
C an
Ġre v
Ġt alk
Ġexper ience
p ite
ĠComp any
d evice
ugh ter
ĠM ount
n ap
Ġl iving
Ġy et
4 3
ĠO ut
Ġopen ed
ĠM art
ĠJ ust
Ġrelation ship
S im
Ch ange
ĠP ress
g n
file s
ines e
L I
Ġhim self
icro soft
Ġconc ern
u it
ĠD an
sk ip
Im pl
z on
ar io
ateg y
Ġf av
Ð° Ð
ĠM ont
b and
Ġdistri but
o res
U B
ĠP e
Pro perties
erv ices
s f
it ter
Ġapp lic
ĠIs rael
ark s
C opy
ĠT ra
Ġm akes
Ġsupport ed
ang er
ĠM at
Ġex cept
Ġs cale
Ġfl ow
P tr
Ġcontin ued
T I
ĠM usic
Ġto day
c or
o e
Ġs m
Ġreg ister
ĠJ ew
Ġal most
Ġf ire
Ġqu al
iction ary
d rop
R L
Ġdef e
c s
b order
Ġsim ple
Pro t
Oper ation
Ġfre qu
ub e
or ph
Ġ ;
P o
Rec ord
se cond
om s
urs or
c ert
w s
iss ions
Ġp aper
: (
Ġind ependent
a a
em ph
ĠN S
Ġdoes n
F ont
Ġmod ern
W hen
ĠP ublic
Ġro ck
Ġsign ed
Ġeff ort
Col lection
PE CT
ĠM ex
u ate
Ġf lo
Ġs ex
B ig
Ġit er
ĠS ome
Ġch all
he st
ĠAc adem
g lobal
ĠEx ception
Ġass um
Ġra il
In st
Q L
ĠS ociety
ĠW ork
Ġchang ed
199 4
Ġmeas ure
Nav Bar
O p
ĠC am
Ġt ag
() :
T ER
ur i
c irc
? :
DI R
Ġw ife
anag ement
7 6
ĠA ng
pecial ly
osp ital
u z
re a
ri a
h i
Ġappro ach
D e
Ġneed ed
Ġcond ition
l am
Ġhand le
Ġsong s
Pro ject
ĠO pen
K ind
Ġd evice
Ġem pty
P ost
Ġdes cription
Ġan alysis
liam ent
ynam ic
Ġarch itect
g reg
c r
Ġwrit er
al led
)$ ,
Ġsol id
ex port
Ġarg uments
ĠC O
B A
ĠM ag
ĠAustral ian
Ġs ure
ist an
oriz ont
ĠV ol
Ġoper ations
ri p
Ġf ight
ĠFr anc
T rack
Ġl ove
ĠD ec
ĠT ex
Ġfe el
mod al
ĠV ir
d est
ann er
Ġt our
S w
199 2
AC K
Ġs ession
9 8
F r
Ġra ce
Ġnov el
v are
ĠF ound
ĠT V
f s
re nder
Ġpr inc
Ġobject s
Ġdeg ree
} /
Ġc ut
C P
5 1
ĠT ime
ĠD uring
Ġr ule
Ġpart s
ĠPro v
F alse
t rack
ĠThe n
G amma
n ected
Refer ence
ĠAfric a
ĠAfric an
Ġm oney
ĠM or
ĉ Ġ
Ġch o
Int eger
Ġus es
ĠT O
Ġt ro
Ġw ord
Ġm ot
if orm
Ġm other
Ġin j
Ġto ken
ĠJ ack
h r
doc s
Y ou
w idget
est ival
AL L
Th at
nt ax
eg raphics
includ egraphics
Ġschool s
OR T
trans form
ĠAr g
e in
ĠC ath
ĠT ur
ĠB uild
or ing
Ġconst ant
R A
Ġap i
ach ine
a uth
we ight
ant ic
ast ic
Ġperson al
Ġmat rix
Ġinst it
S chema
d elete
ERR OR
Ġcon struct
Ġperform ed
9 6
ĠC r
k ind
AT A
ĠChrist ian
Ġaut om
ĠR oad
St ore
c lear
Ġcor rect
c ing
Hand le
ĠF re
Ġthe ory
Ġx ml
Ġinv olved
ĠM ore
it ude
ed y
I F
Ġr andom
Ġcon struction
v ec
ĠB ook
ar ily
Ġ( '
5 4
Ġteam s
i ences
eleg ate
inter face
D L
ĠC ons
ug ins
ple te
il ies
ĠH am
in i
M ult
Ġtem plate
S H
Ġim prov
C A
Ġdet ails
Ġe val
Hel per
Ġprov ides
ens us
ĠD E
Ġarg ument
el t
se y
Ġgo al
Ġ ~
M on
sh ire
Ġsec urity
ĠJ er
om ic
ĠM ac
Ġout side
Ġt aking
Ġdisc over
Param eters
boot strap
ot es
ro ad
E Q
c opy
Ġst ore
ab s
ang es
Ġal t
R ender
Ġhas h
199 3
sp lit
o ch
Ġmon th
Ġcom ment
m ission
ĠM iss
Ġr ank
p op
Ġfri end
v as
Ġd ig
web kit
an o
Ġ[ '
Ġset s
Ġt ree
Ġc ivil
param eter
H ost
orizont al
Ġbook s
con s
t ra
out e
Ġf rame
^{ (
Par ser
'] ,
ĠH en
add ress
est amp
t hen
Ġact ually
Ġs creen
erv ed
Ġconfig uration
f rame
Ġim m
in ternal
m en
ask et
id ents
Ġth us
D own
ĠS am
Ġneed s
el ves
Ġw ords
j oin
Ġs pect
equ al
' re
ict ure
Ġch annel
al a
Ġindu stry
it ing
S k
Ġpol ice
ul ly
Ġp ack
Ġne igh
c p
P ass
Ġconst it
por ary
l v
X X
h over
med ia
vare psilon
ĠB G
ĠIs land
N ames
Ġm ar
Ġmem ory
ĠD ay
to String
Ġal though
ĠM useum
Ġin fo
ma ke
ĠO per
Ġdeb ut
Ġthrough out
D ir
Ġn or
Ġs ort
Ġlarg est
for ce
Ġn ight
he t
s end
ĠC heck
og gle
st ack
D ebug
Ġg re
ĠE rr
pl ugin
ro s
ĠM o
urre n
T im
Ġbo ard
Ġs end
Ġplay ing
m ore
ĠWh ite
t ion
Ġequ al
ĠF orm
ĠP re
ar p
S ign
ĠB ase
ĠL eg
c ustom
ĠS T
ĠRuss ian
M atch
itt ing
ĠWh ile
5 2
Ġrecord ed
Ġben ef
Ġcl osed
Ġn atural
Ġdec ision
Ġoper ator
199 1
5 3
Ġh ous
Ġsh all
ĠO R
iz ations
ill ing
Met adata
Ġpr imary
Ġ$ {\
V ert
equ als
ĠCan adian
is ions
ĠA lex
ĠY ear
ĠU s
9 7
c f
Ġs cript
yn ch
V ector
str ict
I ter
Ġtrans fer
Ġpos itive
A pi
umn i
Or der
a o
Ġ ign
ĠG reen
ĠMich ael
end ar
IN E
c at
fo o
25 5
Ġun ique
ix t
D raw
T ool
Ġfollow ed
__ __
M ar
u ated
Ġt akes
o om
_ ;
eg ment
j ust
Ġpro posed
D D
ĠThom as
g u
m ode
( :
ĠB ay
ĠDem ocr
Ġund efined
ver y
ĠEX PECT
ĠE nd
L eft
M M
ic ons
196 0
und er
Ġse lection
Ġex ists
G ET
Ġg ave
Ġset ting
Ġdes igned
N on
) =
Ġappe ared
Ġdef ine
ĠC ON
Ġwho le
c over
Ġdiff icult
Ġv ers
Ġes pecially
ion al
Ġnew s
d irect
Ġd am
b our
ĠCl ub
P at
oun ter
E v
Ġj av
L ong
Ġrad io
Ġpro gress
s ession
ĠM em
ĠB est
art s
Ġwh y
Ġsol ution
ĠH istory
ou l
duc ation
U se
Ġt ell
Ġdirect ly
z a
P R
ĠTex as
Ġde ep
Ġs ound
ĠS ince
=" /
pon s
T itle
Ġn amespace
s ort
bold symbol
ĠCent ral
s cri
foot er
c lick
ĠHe alth
R ect
r ange
Ġact ual
ĠWest ern
In valid
ac cess
S l
D o
Ġto ld
Ġe cho
Ġe ight
Ġbir th
Ġpat tern
a fter
all s
ĠMin ister
Tem plate
En cod
Ġso ftware
B ind
Ġsw itch
s uccess
ĠT own
i ant
Ġdirect ed
pan ish
ann ing
ĠM ap
u ous
= {
ä ¸
s ite
ĠM ad
Ġte ach
Ġs il
ul ations
Ġobt ain
m es
Ġe lected
t ypes
ĠH el
ĠM er
L et
Ġsat isf
He ad
s ystem
ac c
Ġpar se
ĠNew s
ick er
Ġv ector
ĠComm ission
ĠCh inese
Ġmanag ement
as et
ĠM us
pro of
Ġbeh ind
C ore
as ic
ĠC re
ĠRes earch
ĠK ore
ĠG old
im s
="../../ ../
ick et
> ();
Ġj ournal
ill a
ĠKing dom
Ġexp and
ĠVir gin
Ġst ar
p ed
is l
ĠBG COLOR
## #
I con
Arg ument
Ġed itor
ed d
Ġleg al
ĠP y
S A
pr ing
ĠSc ott
Ġcap ital
Re ader
Ġsy mbol
ex ception
Ġra ise
* )
OR D
Ġform ed
ĠAcc ording
ist ri
4 00
e es
Ġd elete
D F
ĠAs sembly
. }
Ġlik ely
ĠAcadem y
depend ency
Ġcal cul
Ġf ood
D r
Ġfound ed
an i
ge q
3 00
ict or
Ġus ually
e an
Ġint egr
Ġincre ase
d s
Ġpro te
8 6
ĠĠĠĠĠĠĠĠĠĠĠĠĠĠĠĠ ĠĠĠĠ
Ġev idence
hand le
Ġintrodu ced
n ov
ĠH istor
p g
re me
Ġcont ainer
l n
Ġread ing
g an
Ġcent ral
Ġrel ative
ĠS al
ĠE ar
ex ports
-- -
Ġfor ces
Ġobt ained
r angle
Ġst re
Class es
Ġim medi
Ġgener ated
Ġlong er
Ġs us
R ight
H as
eqn array
ri an
re place
quire d
Ġproble ms
} =
D evice
ĠP ost
ĠTr ue
ed ef
} ).
Ġcon sum
ĠR ad
Ġs cal
ur a
}^ {\
ĠE v
ĠT om
Ġimp act
198 9
ĠSc ience
a iled
D om
Ġm ount
Ġexist ing
b on
Ġmain t
omet ry
Ġw ait
mer cial
Ġst aff
ĠJapan ese
m as
Ġ} )
Ġtr ansport
en ing
ĠĠĠĠĠĠĠĠĠĠĠĠĠĠĠĠ ĠĠĠĠĠĠĠĠĠĠĠĠĠĠĠĠĠĠĠĠĠĠĠ
W E
; /
Ġwe b
et ime
7 2
ra ction
A p
over line
l as
wh ich
ĠV er
Ġf ace
Ġs aw
SE T
re q
ĠCar ol
n ormal
p adding
Ġappoint ed
dis abled
ĠGr and
Ġs ym
w rit
Ġin line
St ack
right arrow
} ),
Ġfin ished
ĠG ames
Ġk illed
Ġsc ient
leg al
S L
Val ues
Ġtra vel
' >
field s
Ġmiss ing
H ow
Ġa ud
ĠM r
w in
Ġm anager
ify ing
Ġop port
pan el
Ġca use
ter m
ic ate
M eta
Ġpl aces
ĠB en
N um
ĠF ore
Ġm us
Ġa void
Ġle arning
1 000
Ġpl atform
Ġex pression
bo olean
b ra
Ġb ad
7 9
at tribute
com ponent
az ine
f ocus
Ġsh are
aw s
Ġcon nect
ĠG reat
ĠFranc is
` .
ĠT or
d i
R ev
G o
Arg s
Ġs en
-------------------------------- --------------------------------
[ \
ĠO ther
f ill
Ġother wise
OR M
ĠComm ittee
Ġro t
Ġdid n
I R
P arent
Ass ert
om a
e ch
Ġstud ies
var phi
Ġsequ ence
qu ires
-- >
or se
$ (
Ġth read
ĠCong ress
v ector
ar ian
By tes
Ġcon vert
x is
Ġ\ ,
ĠLou is
Ġres ources
Ġfor ward
y es
ĠB ill
Ġeconom ic
it iz
ĠF ield
Ð »
M y
App lication
ĠChar les
Ġrespect ively
Ġfin ancial
C S
ĠL at
Ġun its
Ġalbum s
ĠM a
clud e
198 8
E M
d el
Ġtem per
. ~\
Ġre ve
( *
Ġcult ure
able s
cl oud
Ġda ughter
ir l
EX T
Ġitem s
Ġprevious ly
Ġinv oke
asket ball
AN D
L ambda
ĠS l
Ġd irection
P op
is ation
Ġbr ing
al ed
ĠIt alian
V er
en um
. \
Ġlarg er
re land
Ġart icle
wh ite
ĠPro f
Ġide a
Ġk m
ĠR un
Ġdest roy
Ġun signed
X ml
ĠT ri
set tings
AT H
Ġh it
Result s
Ġs even
Ġwe ight
con nect
Ġex act
M ock
Ġor igin
Ġc ache
rom e
ĠCath olic
od er
F L
Ġhe ader
B r
Ġcorrespond ing
p ub
ourn ament
or a
Ġnum bers
by te
Ġo s
w ell
Ġapp ly
En abled
Ġby te
ĠSm ith
ele br
' .
S ION
ĠD et
ĠL et
at re
f ramework
D oc
k i
ĠD ate
st ep
ĠI S
ĠZ eal
W riter
anu fact
y e
A m
Ġ er
ĠN ame
Ġm oment
ret ary
U RE
he lp
Ġtrans action
at io
ĠJ ose
ĠS ing
Ġbeg inning
Bo olean
az z
ĠRe ad
am era
O K
rec ated
ap se
Ġth ing
= #
Ġr ules
h line
f n
b es
Ġmax imum
T S
ĠRec ords
Ġgr ant
St orage
ĠFr ank
Ġdem on
Ġsc ience
ed it
not e
Ġart ists
ĠR E
Ġsub sequ
ĠZeal and
N et
ĠL ong
Ġorgan ization
Ġdist ance
Ġdo ing
ĠD el
Ġ ess
Ġsur face
proto buf
if est
{ }
HE CK
Ġs ports
ĠI O
li ance
6 9
Dec l
ĠTe chn
th let
G E
evelop ment
Ġnecess ary
Ġex hib
r b
Ġpract ice
ins ert
Ġd atabase
R oot
et te
h igh
Ġfinal ly
Ġz ero
ut y
Ġn et
Ġtechn ology
Ġcou ple
P ackage
a res
call back
ĠGovern ment
7 4
B ody
ĠReg ister
r ong
Ġcol lect
Ġor d
` ,
ĠJ SON
Test s
Ġrepl aced
app lication
block List
Ġset tings
ig en
hold er
ub y
it a
Ġe mer
v irtual
ĠĠĠĠĠĠĠĠĠĠĠĠĠĠĠĠ ĠĠ
Ġfem ale
Ġfam ilies
f ony
ent al
198 7
") ]
ĠTr ump
Ġcont ain
Ġh ours
& \
text it
Ġle ague
ĠA ut
ĠBo ard
ĠWh at
6 2
Ġmat ter
Ġclass es
Ġl ibrary
Ġpre c
reg ister
ĠPar is
Ġp ackage
f rak
ĠRich ard
ill er
re al
D elete
ym fony
Ġw oman
Ġim ages
Pol icy
c oll
in line
lo od
ec k
By te
ĠF in
ĠSup er
ms elves
6 3
Ġj son
ie ce
ĠO ver
h ing
Ġle ader
8 9
Ġstud ent
Ġqu ick
ĠIn c
; <
( -
ig hest
F C
at ively
eth er
ult ure
Ġallow s
Ġby tes
Ġcom es
ann ed
\ "
ic ago
irc raft
av ed
ĠL O
Ġdirect ory
Ġass ist
ĠM ath
Ġt it
est ed
Ġbro ught
} "
C lick
in ct
R ule
he ast
198 6
ĠP eter
Ġc op
Ġthe mselves
' ))
P A
ed s
ag on
m i
Ġal tern
Ġmov ement
Ch anged
m itted
ue st
}, \
M D
Ġm ention
W idget
Ñ ĥ
ern el
ĠW omen
Ġ+ +
s ql
up le
ond s
Ġin side
R ed
oc als
Ġto wards
S he
R I
s cal
ĠFl or
n ab
P L
st ore
Ġme chan
Ġbuild ings
ing u
Ex p
a ud
ĠC he
ĠP o
Ġre place
> .
c pp
od ed
Des criptor
Ġgu itar
f ree
m ock
Ġcon cept
M ark
FA ULT
S e
ĠRuss ia
le v
rom ise
D ialog
Ġart ist
Ġstat ement
ĠHT ML
ele ction
ul ate
f il
à ¤
Ġepis ode
TE D
ĠOr der
Dis play
ĠR el
F ound
Ġd ensity
x x
ĠL em
Ġdef inition
Ġpre vent
; "
Ġcomp ar
ĠFound ation
Ã §
C al
Ġsp ent
ĠM ass
d ouble
Ġso on
6 1
Ġpresent ed
st ant
sh ot
co q
Ġbas is
atal og
8 5
G B
Ġcol lege
ign ment
ur t
ĠT w
ĠR ock
Ġb ank
D i
] ]
__ (
ĠA L
ĠK ey
ĠI d
Ġth reat
ĠL os
ol ume
ĠV alue
Ġf ixed
ol f
ĠR ail
id ers
Ġline ar
on om
Ġevent ually
198 4
Sec urity
Ġp ick
ĠFor ce
ee k
ish ing
Ġst ated
Ġco ach
7 3
A c
Ġm iddle
D U
il s
Ã³ n
S o
ic ated
Ġro om
Ġro ute
Ġs ense
rec ord
Ġre ached
at ur
198 5
Ġstart ing
Ð º
Ġdec ided
Ġear lier
y ing
av i
Ġm sg
Ġst e
Ġab s
SS ERT
Ġw alk
annot ation
Ġs ch
ĠSum mer
Ġeffect s
ĠM el
j ection
igr ation
re y
C re
Ġmat ches
p id
l ines
g raph
D S
Ġtr ade
Ġcont act
ĠS ur
m aterial
Ġv eh
en ge
v m
ol ar
Ġpl ant
Ġfootball ers
TE ST
Acc ount
Field s
or ial
Ġerr ors
Ġmov ie
Ġnot e
Ġbeg in
pr imary
Ġon line
Ġprogram s
Ġinter view
Ġmed ical
7 1
b ound
p ing
ĠErr or
Ġlim ited
P S
Ġph ase
i pe
Ġst ri
ang uage
clus ion
Ġl ack
ĠPro ject
key s
Ġext ension
Ġrem oved
ip eline
ynch ron
c os
her it
ip s
agn ost
Ġf ederal
Ġsh ape
k m
Ġl ock
Ġn ative
Ġc ref
ou b
t oggle
J ECT
i h
19 50
ĉĉĉ Ċ
Ġpre dict
Ġal umni
f ull
ant a
) ^
ig an
ĠĠĠĠĠĠ Ċ
Ġassert Equals
Ġdemon str
ĠN ote
Ġ' /
J ob
ĠSec ond
ass ets
ov ers
Ġsc ore
Ġrun s
mat rix
Ġfore ign
ol a
or al
Ġbro ther
Ġext ra
Def inition
in ated
Ġ< =
ĠS panish
Ġrecord s
Ġp urch
pass word
: #
ĠI reland
ĠP enn
ĠH ill
Ob j
C R
Ġbut ton
Ġg old
ĠAn n
Ġinvest ig
ail y
p df
Ġs s
c ategory
Ġoriginal ly
ĠVirgin ia
ĠC amp
ic i
Ġsim ply
Ġexper iment
em ail
ĠE vent
In s
ĠP ub
Ġn odes
w rap
E ach
d en
pl ugins
k y
Ġincre asing
app a
Ġac com
Ġwant ed
anc y
ĠF ootball
ple ments
Ġapp lied
Y ear
B S
ĠO b
ĠM ethod
ĠSer ies
m argin
th read
D A
Ġdistribut ed
Ġth erefore
Ġre pe
Ġ ensure
all ery
Ġus ers
ado op
ov iet
Ġlist ed
am i
& &
Ġtest s
Ġcrit ic
Ġfl ag
aut o
or ter
Ġp air
ĠT imes
Ġmean ing
Var iable
ol ver
Ø §
Ġpl aced
CT ION
Ġcoun ter
l ers
v ed
ĠOlymp ics
or ation
ĠU ser
Ġh ot
co in
ĠSe ction
raz il
AG E
ĠB ig
198 3
Act ive
Ġa uth
Ġal gorithm
Ġocc up
Ġe arn
Ġinv olv
ĠV ictor
Ġprob ably
Ġtrans ition
Mem bers
R et
ĠF ilm
ĠHen ry
i ra
Ġproduct s
ĠGe org
stit ution
ell a
os en
et imes
ĠI ll
du le
c md
ĠĠĠĠĠĠĠĠĠĠĠĠĠĠĠĠ ĠĠĠĠĠĠĠĠĠ
on ic
Ġac adem
it z
}} $
Ġs ources
F T
Ġco ordin
h s
F il
Ġed ge
Ġant i
Ġd ed
Ġan sw
P RE
u an
TE X
T ab
IT Y
Ġactiv ities
ev e
Ġask ed
ĠF ig
Que ue
Ġd b
ru le
Ġrem ains
Ġrece ive
E l
Ar t
Run time
add r
com ment
li e
ens es
Ġ" /
ĠT em
b al
Ġlevel s
Ġnot hing
p ool
key word
HT ML
ir ing
n el
ĠU se
ĠAr ts
Ġgr and
H P
I X
ly ph
Ġad apt
Ġqu ality
erv ation
Ġfr ag
d ot
Ġrem ain
Ġn ature
Ġd ro
arg ument
c ur
In itial
ĠA v
in itial
Ġbeh avior
Ġse em
h y
Ġbroad cast
Ġl ives
W S
Ġm ur
es h
Ġr isk
ro t
8 2
all ow
tern et
\ %
C ustom
inst all
ut ch
L P
print f
Ġcont aining
Ġab sol
Ġst ations
p are
Ġm unic
Ġpro of
p ers
S cope
ad min
ĠL ife
ĠT im
ĠFlor ida
Ġimplement ation
Ġm ut
Ġrepresent ed
Ġrepresent ation
Time out
math frak
ab it
Ġb ind
Ġrecent ly
Ġdescri be
M ember
ĠMex ico
Ġser ial
ge les
J SON
ĠCh icago
ĠM il
Ġet c
pro duct
Ext ension
Ġh tml
FI LE
n ames
Ġcomp ared
form s
Ġdis e
c ar
Ġg ives
8 7
Act ivity
Ġb ur
pe ople
item s
u ke
Ġjav ax
KE Y
Ġpr ison
lang le
Ġbeliev e
ĠIr an
Ġc elebr
Ġrem ained
n one
Ed it
Ġparticular ly
ĠC ast
N E
Ġphys ical
sy ch
ĠL ake
Ġmin or
ang o
ul er
le ep
r or
ĠO p
Ã ¨
8 4
ĠO f
S um
Ġh ighest
er ies
P erson
198 2
ĠEng ine
mp ire
un signed
Ġup per
Ġtra in
Ġknow ledge
Ġg un
Ġcom mercial
Trans action
Ġp ri
Ġgener ally
ress ion
Ġre comm
ĠAn geles
in et
Ġcompet ition
j a
m id
t w
T C
Ġpart ial
ĠP an
W hat
gr id
Ġb all
Ġmeet ing
Ġs ociety
con nection
ish op
Sy mbol
st at
ol k
Ġsc en
Ġsom etimes
or por
ĠPro gram
cit ep
Ġgrow th
ĠK e
rad ius
Ġch arg
ĠM odel
M ain
ĠDirect or
res ents
Ġincre ased
L ock
Ġparent s
T e
D C
Ġfor ms
ĠB ank
ous ly
v est
Ġm anufact
Ġfour th
Ġc ore
os ing
i en
197 9
du ction
put e
ĠJ ournal
\ |
ell ig
sp ring
ld ots
Ġc he
ĠE ducation
s che
ĠA rab
sh ort
Ġaward ed
us ion
%% %%
Ġ( *
ic an
Ġp en
ĠT HE
Id ent
Ġtrad itional
Ġs af
ĠU RL
Ġpub lish
N etwork
ĠU nder
Fl ags
Ġdom ain
Ġcle an
Ġbel ong
Ġhold s
Ġ ir
ĠU N
M edia
ĠGo ogle
Ġst ay
Ġc itiz
In it
Ġse ek
Ġacc ur
25 6
Ch annel
P erm
ĠH and
ollow ing
Sh ow
Ġsh ared
k er
tt y
Ġhe art
ĠC ap
Ġmin utes
Ġact ivity
==== ==
Ġw atch
Ġinstance of
y r
An y
S end
Ġ â
h ouse
Ġcall s
Ġmajor ity
and a
Ġfeature d
ĠSc ot
Ġwh om
Ġstr ict
T V
Ġle ave
L java
Ġspe ed
Ġproject s
ĠV AL
~~ ~~
h adoop
org an
urre d
f ly
th m
Ġequ ival
ad y
Ġeffect ive
Ġ ),
ĠF alse
######## ########
ent er
Ġm ind
ist ers
Ġ{ };
sh ape
EN D
M sg
ĠSt ar
ĠT wo
ĠSh ow
On ly
Ġl ib
Ġm aster
Ġopt im
Ġcon sole
ĠF e
Ġs ave
Ġvol ume
ĠD O
Ġm ock
rel ated
P ool
In ternal
br idge
ĠN OT
Ġt err
set s
Ġa ctions
ig er
Ġinter pre
( !
ĠDef ault
ĠS ocial
oc key
ed om
Ġh um
Ġdr ug
uck et
Ġtr ansp
Ġb re
Ġst ack
st op
O ther
Ġcompon ents
() {
=" ">
Ġhand ler
VER SION
Ġm is
im pl
Ġfact or
ĠN ow
reg ion
M ENT
ans ion
ian a
ĠJ ud
b ot
G r
M an
) /
ĠF inal
at o
Ġw allet
anc el
! [
Ġad opt
ĠIt aly
Ġpro file
ĠSw ed
Ġa ircraft
) "
Ġbecom es
ĠM ost
16 0
sc roll
Ġlaw s
cent ering
Ġin sp
ock er
if ies
=" @
Ġent ity
k g
ĠG en
ev ents
@ "
el li
Ġag o
p resent
Ġv ote
g g
Ġde ad
s cription
198 1
ĠD en
Ġp y
[ :
f ort
Ġan g
ĠT ext
Ġact or
B it
ific ations
er c
Ġc ard
ĠSt ep
ĠC opy
os h
ec ause
() ));
Ġw ide
E C
st ats
_ ->
un ched
Ġcom ing
m aster
Ġpro per
ar ation
ix el
con trib
Sup port
() ).
Ġmed al
c ut
=" "
. *
B R
ook ie
ĠC all
D atabase
sh all
in ate
wh ile
U ID
n es
ĠM ax
nab la
it ness
t ip
f ound
n umer
aly t
Ġd u
N A
Ġnot ed
Ġg as
Ġstruct ures
p ay
Ġm ission
Ġb tn
Ġb al
Ġvariable s
v ey
ut f
Ġun known
Ġatt ention
Ġin str
th rows
oper ator
are t
ĠG l
ĠIt s
Ġca used
ĠF estival
By Id
assert Equal
alle l
ĠT able
Ġb ottom
)) )
Ġ% }
Ä ģ
m ove
197 2
ĠL ine
Ġappe ars
Ġph il
u ing
Ġsing er
L S
Ġconf lic
Ġ icon
import ant
ĠOff ice
Ġsmall er
AD D
res hold
Ġown er
s ample
hent ication
9 4
sub set
at ically
Ġrelig ious
Ġj oin
raint s
197 8
ing er
F loat
Ġhe l
ĠR et
_ ,
Ġat tributes
197 6
Ġsh ot
f amily
Ġs ens
//////////////// ////////////////
Ġin come
Ev ents
} )$
ĠCol or
Fe ature
ĠO ld
Ph i
Log ger
iver se
T ra
ĠO h
ro om
c i
ĠS il
A uth
nap shot
R est
tx t
ven ue
Ġmult i
pe ed
. __
-> _
al i
LO G
sec urity
ag ram
Ġtry ing
not ation
Ġp ark
Ġchall eng
S igma
Ġf unc
Ġst ories
Ġgener ate
Ġl ayer
r ine
ĠĠĠĠĠĠĠĠĠĠĠĠĠĠĠĠ ĠĠĠĠĠĠĠĠ
Str uct
ĠIn st
Ġtreat ment
Ġ eth
Ġre quires
ixt ure
ĠT ask
ir med
'] )
ĠIs lam
ĠM ur
Ġindividual s
ot ing
c b
ĠA N
Ñ ı
Ġbas ic
. '
fl ags
pro file
B efore
drop down
Ġany thing
Ġopen ing
Ġsc ene
Ġall oc
ĠT op
id ae
Ġb attle
ad s
in y
mod ules
Ġover all
Ġy ield
Ġcoll abor
ĠCarol ina
Not es
Ġgre ater
Ġget ting
se ct
\\\\\\\\ \\\\\\\\
9 2
MA X
Ġf ully
ĠAl though
Ġrec over
9 1
k o
Pro xy
197 4
ĠPar liament
Window s
BU G
Item s
Direct ory
ĠO ption
197 5
"> &
j query
k appa
Ġend ed
Ġn g
ĠI P
Ġn uc
Ġse ems
Ġplay s
Ġkey s
Ġprot ect
im inal
Ġpolitic ian
J ohn
ĠT re
Ġab ility
G S
ific ate
Lo ader
ĠP eople
Ex pr
Con f
Ġsum mer
Ġfri ends
196 8
Ġcommun ities
ĠB ur
ĠM iddle
Back ground
Ġrem aining
ĠAt l
ĠL ibrary
O O
Ġsay ing
w id
AR Y
ic ol
ĠMart in
Ġn ation
in em
Not Null
P AR
Ġw ays
c ient
Pat tern
197 7
se lected
T ABLE
Ġcrit ical
A v
ĠCh ild
i ate
Ġ$ {
n y
9 3
n amed
Re ce
w riter
N ow
Ġlook ing
os oph
Ġf oot
S IZE
ĠN O
St ep
s ave
th at
Ġdiffer ence
Ġwrit ers
S ince
ib ly
type of
Ġappro p
ron ic
C I
8 1
urren cy
Ġrespons ible
Ġsepar ate
ot imes
Ġ[ ];
Des c
arri age
ĠP et
Ġsur round
it ation
m box
Ġsign al
os itory
ĠJ an
ĠN avy
Ġfail ure
Ġh y
Ġqu ite
rag ment
ĠV ersion
r um
At tributes
ĠL and
ann els
g it
Ġapprox imately
P T
rac y
ĠC ode
Ġstre ng
Ġnear ly
Ġcon nected
il ing
cont roller
)) );
assert Equals
s chema
Ġw inning
er ial
Ġpo et
En um
ĠV iew
ĠK h
ick s
C lose
Ġweek s
Ġdiv ision
Ġstud ied
im a
O wn
struct ure
Ġa wait
Ġw id
ĠS aint
Ed itor
ĠL android
E arly
Ġf ast
w ar
ĠA wards
P ATH
ĠS un
197 3
pro perties
Ġdes c
point s
id ay
Ġimmedi ately
v ant
Ġ" "
Ġt ournament
Ġchar ge
Ġcre ating
and ra
] :
Ġsc ored
Ġe mail
Ġgo als
Ġent er
as ion
E O
Ġbr anch
g a
Ġal leg
ĠCh ief
M e
Ġw or
Ġhouse hold
Mem ory
ow ers
ĠB rown
ĠE r
b ad
j oy
ĠK n
f ect
j i
To String
ĠJose ph
{ -
pro ve
result s
Ġent ered
ateg ories
ensure math
Ġint eger
ĠIn itial
Ġf igure
st ar
Ġch ief
ĠCol umb
ed ge
ag er
Ġcl uster
Ġcandid ate
ac count
ap ers
G raph
Ġen abled
} </
ĠS oviet
ab ilities
Ġun ion
s creen
are er
ĠAl so
Ġobserv ed
Pl ugin
Ġann ual
us band
sup er
ra st
j ob
u ages
Iter ator
ĠB re
ne ctions
ĠM os
eng ine
ĠL in
n am
Ġst orage
ug by
pos es
m anager
Ġ util
8 3
Select or
" `
on ym
Ġequ ation
Ġpo or
ĠB razil
ad or
Ġinflu ence
ple x
Ad apter
ak ers
ĠP lay
P lay
as y
ĠP ac
N ote
Ġc ategory
h ol
NavBar Cell
ĠE li
ĠG al
D P
u ilt
Ġprodu cer
F inal
cre te
Ġext ended
ĠĠĠĠĠĠĠĠĠĠĠĠĠĠĠĠ ĠĠĠĠĠĠ
ian o
Ġfav or
Ġpr iv
Gener ic
N N
Ġt ouch
Ġco ast
Ġexp licit
Ġch art
Ġd ark
Ġlet ter
v a
it o
Ġf un
Ġpur pose
ï ¼
Ġident ity
Ġl ived
Ġra ised
Ġwork ers
Ġnew sp
', '
Reg ister
Ġpart ies
Ġmus ical
des c
Ġold er
met adata
ĠK ar
ans as
X ML
D el
Ġpr im
ĠN etwork
Ġprodu ce
ĠW ales
Ġas ync
com ing
Ġk ing
ad ium
el er
it able
ĠYou ng
Ġoffic er
F unc
Ġre strict
ts d
equ iv
as ure
194 0
ĠF ort
ĠS pace
197 1
und red
P ublic
Ġd imension
Mat rix
Ġag ent
ent y
W A
pos itory
Ġserv e
P anel
f aces
ip l
Ġins ert
196 9
G rid
ro ke
Ä ĩ
Ġ( _
L ayer
P ORT
Ġbuild er
pl ing
Ġb asketball
Ġcon ver
el a
Ġch oice
Ġact ress
ĠJ o
Par se
. [
D uring
gy pt
Pr int
Ġturn ed
od ay
ĠTO DO
AC E
Ġpro ced
N G
s ur
Ġre ject
re es
all oc
Ġst ars
L IC
Ġs plit
ĠN ode
Ġin valid
pect s
Ġcomput er
Ġpl ans
Ġch ain
Ġex am
L a
test s
Ġa mb
++ ;
h orizontal
Ġsen ior
ĠT our
m iss
Ġed ition
ĠMed ia
Ġrep resents
N e
Ġpart n
st ra
ĠIr ish
Ġp oll
res et
ic ies
Ġre ach
Ġoption al
ud get
ond er
ĠC ivil
Ġun less
Ġt ab
Ġvari ety
Ġ& =
Ġla unched
iter ator
Ġf arm
ic ine
Ġbl ue
196 7
Ġorgan izations
il ation
par a
Prot ocol
ĠV is
ĠO l
y er
19 30
f it
ĠU k
Ġtrans l
Ġv an
ut er
C ond
194 5
Ġp p
n ce
log ger
Ġagre ement
ĠH aw
F R
' m
Ġar rest
F ind
Ġc hem
sy lv
Ġneg ative
/ \
oth ing
i ro
ĠTe am
ĠL ee
ch annel
is c
Ġatt ended
Ġneigh bor
Ġat tr
ou ri
b i
aw a
Ġser ious
Ġ{ '
and ard
gr ade
air man
Ġestablish ments
Ġ Î
tab ular
Ġcomm ission
Ġstud io
Ġs n
Ġcap acity
hand ler
mut able
h ome
Ġex port
Ġmur der
ĠW ood
ĠD evelopment
ain ment
Ġf n
Ġlead ers
it an
j ar
Ġsome one
equ ence
Ġsit uation
ĠJew ish
ĠJ im
ĠM essage
ĠNor thern
cont in
Ġhigh ly
are a
Ġcre ation
Ġdr iver
Eng lish
ĠL ove
h idden
S U
k in
Ġis land
Å ¡
ir ls
im ents
Ġdeterm ine
ĠF ri
ĠB i
) ">
UT F
ON E
ç ļ
y an
Ġ io
Ġh idden
J ava
ĠCon fig
ost on
} ]
sylv ania
com ponents
d ots
RO M
Pro file
w an
t ely
e cho
in f
ĠO ur
D on
Ġagre ed
l g
get Element
Ġl atter
Ġfe ed
Ġhelp ed
Trans form
Ġex ternal
ĠS und
sw itch
) ).
ov es
File s
b rowser
dom ain
hen s
Comm on
Ġevery thing
d ates
Ġpres ence
ar ia
at i
Ġb rief
ult y
ed itor
Ġgo es
S ymfony
Ġqu arter
ustri al
Ġbecom ing
Aut o
Ġim plements
ĠG ame
Ġresult ing
Ġcar ry
R ad
Ġill ustr
çļ Ħ
ĠH ot
w ild
} -
ĠF unction
ĠE mpire
ĠĠĠĠĠĠĠĠĠĠĠĠĠĠĠĠĠĠĠĠĠĠĠĠĠĠĠĠĠĠĠĠ ĠĠĠĠĠĠĠĠĠĠĠĠĠĠĠĠĠĠĠĠĠĠĠĠĠĠĠĠĠĠĠĠ
n etwork
ĠChampionship s
w atch
ĠBrit ain
orn er
ist ent
config uration
ential s
Ġ" <
o z
ff ic
Select ed
Ġf air
r ate
Ġ ip
Ġsh ift
Eng ine
Ġfor ced
Key s
\ [
Po inter
ens ed
k w
Ġhistor ical
Ġcomm it
", "
Ġown ed
Ġm ill
ĠW indow
Ġh usband
ĠUp date
k ins
ĠP ri
app ly
ĠD ev
T erm
Pro p
Ġpo inter
en ant
15 0
Ġl ay
Ġm achine
196 4
ma zon
wid et
Ġf irm
Ġnumer ous
Ġ= ========
F ail
Ġd im
M apping
à ¸
_ (
ĠL ord
ut ing
irt y
N ULL
ĠI l
Ġmin imum
Ġtemper ature
ĠDemocr atic
' ve
19 20
Ġcons ists
t mp
P y
app ed
S uccess
ĠAs ia
ĠSec retary
Ġg reen
Ġst ra
Ġeffort s
Ġrel ations
ĠW al
C ar
Ġpre m
D uration
Ġre ports
$ /
RE AD
child ren
I MP
Ġdep artment
Ġmost ly
os ph
Ġre li
ĠVal ley
Ġdel iver
Ġre b
oc ity
ov a
Ġe lections
Ġe lem
Ġmov ing
ĠSp ain
il ton
e ach
Ġw rong
ex ternal
por ation
S D
ĉĉĉĉ ĉĉĉĉĉ
er g
In v
ĠS ir
in v
Ġnor thern
) ),
Ġs outhern
Ġh ope
r ase
A F
I B
W orld
ĠC ross
cont ains
Ġsh oot
ĠJ es
as er
tool s
L oc
tr igger
at tributes
ĠTh us
b ing
orn ing
lo ok
R AN
it ors
ĠRev iew
D est
ĠG reek
ĠS ol
t otal
ell er
Ġquest ions
ip ality
Ġreg ions
ik i
Ġabsol ute
Ġref lect
tab s
ĠII I
ak istan
d im
P ack
ĠH on
d x
ĠEx t
Ġp ool
Ġon es
by tes
Ġc ounty
s el
Ġpre d
cal led
Ġm ixed
196 5
r ich
h aps
ĠA tt
ĠM P
stand ing
get Name
l imit
typ edef
non umber
S ER
Ġh arm
Ġm essages
Ġse asons
ĠH uman
build er
widet ilde
ĠSt at
Ä ±
Ġprov iding
Ġdeterm ined
Stat ement
Ġtest ing
Ġup dated
Ġf if
Ġs al
I E
ook s
F ailed
ang ular
Ġsl ow
li br
Ġr iver
Ġappear ance
Ġsp irit
ĠG ood
Ġun iversity
D ouble
Sc roll
Ġgener ation
Ġh ar
Ġv s
sum er
Ġpe ak
, -
Ġass ume
Ġenc oding
ĠB ob
Ã £
on a
ex pr
[ $
Ġadministr ation
ĠIO Exception
i ated
ĠA R
S Y
ĠL i
Ġtr ust
S ervices
r ick
IP T
Ġ ult
Ġo il
Ġre q
istr ation
S R
Ġ[ ],
Ġxml ns
cri be
ra q
Ġvis ible
Ġsup p
f ail
> :
Ġcult ural
Ġinst alled
Ðµ Ð
cl aim
re lation
Ġdes pite
Ġw ind
Det ails
Ġd raft
SC R
Ġen joy
pos ite
ĠSen ate
ĠHistor ic
Ġb us
Ġw ood
Ġcent re
ĠPenn sylvania
Ġb illion
196 6
Ġin form
Ġex pert
Ġf ramework
at ible
}} {
at ers
ĠP aram
ĠH ere
Rem ove
Ġth r
Rep ository
urb an
is hes
Ġc ities
Ġf ig
S cale
oper ation
ent h
her ited
V ideo
Ġh ospital
Ġbe y
ĠB usiness
B rowser
l oc
S ocket
Ġan im
ĠM ain
Ġapplic ations
Ġdem and
S pace
Ġf le
ĠEn ter
S ingle
TEX T
ĠP oint
Ġp urs
Ġuse ful
n il
ect ors
a ver
Ġd ebug
Ġelect ric
Ġn orm
C HECK
M ed
ĠL ocal
Ġresp ond
G u
ele ase
ĠS outhern
Ġr an
ceed ed
Ġeas y
if def
Ġquick ly
M C
ĠComm and
AL SE
head ers
P ay
Ġget s
ĠEar th
Ġfact ory
Ġenc our
id x
ĠN umber
Ġsu c
Ġse a
Ġthem e
ĠCent re
Ġmag azine
Ġmanag ed
ĠM ov
Ġrefer red
st one
Col lections
w rapper
c up
D em
Ġ[ [
Ġar m
R oute
Ġpass word
ĠProv ince
Ġbey ond
Ġg iving
Ġstr ategy
ĠS pecial
av al
Ġv ocals
sh adow
Ġcomple tely
Ġblock s
Ġcitiz ens
pro x
ĠP op
web pack
Ġch ampionship
m ond
param eters
Ġm ix
Ġar my
ĠJohn son
M ore
Ġj oint
ĠG ets
ĠE conom
1 20
op ed
w er
S che
ph one
F IG
ch or
y g
um s
ST AT
d ist
Ġis n
ind ent
12 8
tr iev
H igh
Const ants
oun try
ĠM i
em porary
g reen
Ġtri al
! \
ĠS ar
Ġc arried
l ig
Ġcol on
Ġsize of
ĠSec urity
Ġp anel
ĠE gypt
ar ant
33 33
ĠJ ones
; \
Ġwe ak
Ġocc ur
S ync
ars ed
Ġaff ect
Ġc ensus
ult ural
A X
b ul
ard en
ĠJ ava
Ġpos itions
Ġun ivers
nav List
m ask
ĠMich igan
P si
Ġs egment
riter ia
Å į
Ġr g
ĠJust ice
Ġprob ability
ev al
Ġsp read
Ab stract
clud ed
col Last
prot ected
sh ared
Ġocc urred
Ġth ous
am ing
( __
ĠA ction
ĠCon ference
F ull
IT E
ak a
Ġc li
Ġb rowser
M B
Ġc tx
var iant
Ġv oice
Gener ator
Sim ple
FF FF
ĠS O
Ġhe avy
net ic
uss ian
Ġcell s
-------- ----
Ġfam ous
Ġpe ace
ĠĠĠĠĠĠĠĠĠĠĠĠĠĠĠĠĠĠĠĠĠĠĠĠĠĠĠĠĠĠĠĠ ĠĠĠĠĠĠĠĠĠĠĠ
ellig ence
j pg
Ġm icro
Ġdise ase
ĠB attle
F LA
Ġdec re
f ri
ĠG i
ĠA ND
Ġdep loy
sk i
G lobal
Ġ" ,
Ġinitial ly
Ġredu ce
Ġim prove
line ar
un ior
Ġest imated
Ġpress ure
ĠG ar
anc ing
Ġtype of
olog ies
\ ]
ĠĠĠ Ċ
Pro duct
ino is
Ġlo op
us et
prov ider
d eg
Ġ Å
eff ect
inn ers
S ection
e z
Ġcall ing
ĠW ill
Ġ ×
ĠF I
ograph ic
b ury
Wh ile
ĠM any
ang ing
C areer
pl atform
ĠThe ir
col First
Ġexample s
Ġdefe ated
C ap
Ġsec ret
ĠA ff
! !
Ġoffer ed
Ġf iction
Ġp refer
ĠA ri
Ġpr ice
h ide
Ġserv ing
ĠĠĠĠĠĠĠĠĠĠĠĠĠĠĠĠ ĠĠĠĠĠĠĠĠĠĠĠĠĠ
def ined
ĠOh io
Ġliter ature
iqu es
Ġs quare
C ast
ful ly
Ġopport unity
ĠInd ex
ro le
se ud
ct rine
ge bra
text width
IN FO
lem ma
ĠMus lim
Ġoffic ers
j unit
A uthor
met ric
if ically
par ser
fil ename
ĠT ele
Ġprof essor
Ġp ush
Ġbound ary
ĠG re
var iable
ĠSup reme
du led
ĠB ul
st ein
ĠS ong
Ġrail way
Ġdr ama
pect ive
C ategory
Ġn ine
" /
ĠRad io
W rapper
At tr
em on
. ");
Ġl ic
Ġl icense
Ġc at
Ġvict ory
ast e
Ġdet ail
ĠO x
ĠÂ £
ur ies
ĠH ash
Ġen able
S QL
p refix
Ġv el
å ı
Ġab stract
d ialog
ĠE q
Ġ ut
ser ial
ul f
Ġrequest s
d p
Ġredu ced
bit r
Ġle aving
se x
ĠComm on
Ġf elt
Ġ= ======
ĠHe ad
C ert
R ole
Ġident ified
Ġmult ip
ĠP ass
ĠPac ific
Ġexecut ive
M ut
Ġequival ent
Ġcon structor
j ango
Ġc ru
yd ro
un ct
Ġla unch
Ġmention ed
m ann
Ġd oub
Ġw aves
Ġ il
Ġext ract
Ġclaim ed
anc er
DU LE
Ã£ o
ĠB oston
Ġsche me
; }
Ġview s
ĠRe quest
ĠJer sey
Ġt x
Ġsex ual
O pt
Ġ$ .
re v
Ġcover ed
sw arm
ul y
Ñ ĭ
Ġapp end
ip ment
Ġprot ocol
ĠE ach
Char acter
ĠUS A
Ġd rop
I ST
Ġvers ions
196 2
ĠScot land
Ġbe aut
ach ment
ĠC ard
IC E
Ġvis ual
Ġh undred
H R
ĠH ome
ĠF ederal
ident ifier
k l
ĠH a
G en
Ġm ask
=" ${
ĠOn ly
m aven
Ġapprop riate
196 3
Ġofficial s
s ys
ĠR o
Ġcon sequ
ĠWilliam s
\ {
Ġclaim s
wild fly
A CT
ĠL u
all classes
Ġprov e
Ġcl imate
Ġ" -
CE SS
V M
Ġh yp
Ġiss ued
cre d
ĠM ah
am m
ĠE lement
Ġm arriage
ĠAs ian
pr ime
At t
Reg istry
Ñ Į
ĠB et
j e
Ġb ul
enn is
ĠE lect
p a
Ġ queue
f d
oc aml
em y
m ir
ĠJ ac
ĠR h
ĠL iber
ad el
Ġass igned
ag raph
= (
Ġnot ice
t ags
Ġbeliev ed
qu is
dec l
Ġsurv ey
Ġp il
L android
Pass word
ĠĠĠĠĠĠĠĠĠĠĠĠĠĠĠĠ ĠĠĠĠĠĠĠĠĠĠ
Ġr u
Acc ording
O UT
ĠS ervices
Ġlead ership
M ay
Ġdig ital
Ġtr igger
pro ps
. <
Ġpat ients
ĠFrancis co
ĠQue en
ab eth
B P
ce an
Ġfl ags
iz able
Ġ que
Ġd ir
ĠL o
Ġsus p
Ġregion al
ĠL ab
T race
Ġarchitect ure
f x
ĠT ro
Ġex c
Ġfin ite
Ġp ages
Ġad ult
Ġ{ "
Ġm useum
Ġset up
) -
Ġsecond s
et ic
B E
ĠI raq
Ġdel ay
N odes
Ġint ended
con n
Ġnav igation
igh ter
Ag ent
Text ure
ĠM anagement
Ġaccept ed
(' .
Ġgrow ing
ĠK ong
il a
t body
() </
Ġre con
det ail
Gener ated
g est
Ġsett lement
ex ists
alt y
Ġse at
ex ecute
">< !--
ĠW all
ĠP ath
Ġin ner
Ġch osen
Ġmet adata
Ġinterest ing
Ex ample
C red
ach uset
Ġf ix
P refix
= >
ĠRep resent
achuset ts
burg h
z one
ĠC D
R ob
ĠCar l
Reg ion
Fil ms
n ic
? >
HT TP
Ã ±
ĠF igure
ĠEd ward
Ident ifier
ĠM en
Ġre asons
Ġact ors
UR I
a is
ĠAl bert
Ġess ential
Ġlate st
aj ax
sh ift
ĠK ent
C or
ĠProf essor
al og
ĠBl ue
ĠInt eger
TI ME
Ġra w
S ample
g ame
Dom ain
ff ff
ĠY our
Ġsaf ety
ĠAmeric ans
Ġstr ugg
ĠG lobal
sv g
it age
ĠM u
ĠB ack
Ġp iece
ul s
em ic
N OT
Ġread only
ipp ed
ic ip
pro gress
Ġcho ose
194 4
Ġacadem ic
Ar ch
as is
ion e
........ ........
Ġoff ers
F S
Ġen v
up load
ac ro
ĠThe orem
Hel p
196 1
Ġsl ight
ĠB ow
ĠSt art
ĠGeorg ia
nd ef
ĠIll inois
col lection
comp iler
ĠP akistan
sec ut
ĠCopy right
á ĥ
SCR IPT
' ));
ĠRepublic an
Ġ[ "
Ġdep th
Ġ? >
z z
ĠG ra
U ri
Ġrecord ing
Ġb inary
det ails
Ġs ites
and on
pre v
T A
Pro ps
ur er
Ġw orth
d imension
Ġl ands
bl ack
Ġsuccessful ly
Ġl ab
tem p
S equence
Ġeas ily
Ġres idents
Ġf ellow
ĠJ r
Ġclass ical
Ġconstruct ed
Ġpre v
ag ger
ĠAl b
ĠLat in
} +
Ġpl ot
pr ise
ĠIn formation
ĠH ttp
os a
Ġcomb ined
Ġsum mary
Ġn omin
Ġfore st
Ġsing les
Ġder ived
I A
ĠM ajor
ib li
clus ive
Ġa im
ĠD utch
Ġex change
^ ^
Ġorder ed
' ll
P ub
op es
iv ation
Ðµ Ð½
Ġcan cer
Ġop in
s ingle
g ers
Ġp aid
Ġeconom y
S election
Ġd ynam
h ar
Ġwest ern
Ġpart ner
ĉ ĠĠĠĠĠ
ĠRe act
Ġre ader
Ġinc orpor
Ġdist inct
z en
ĠKore a
W N
ff ect
Ġp refix
ĠEast ern
ph y
am az
z eta
l an
or ney
le an
or iginal
6 00
ĠThe atre
we et
Ġtrack s
Ġmaterial s
ĠE qu
test ing
end or
D epend
IN D
Ġprom in
Ġass ess
Ġconc ert
ĠB ern
ĠN AME
Cl uster
p et
Ġf it
a ught
Ġexact ly
Ġst eps
Ġw ild
G ame
res ources
umer ate
Ġwe ap
ã Ģ
ot ic
ĠS pec
ĠTechn ology
Ġal one
ab y
est ic
P layer
N amespace
Ġ{ {
B AR
Ġs ales
W R
ate way
T x
Ġco q
ĠA uthor
serv ices
f ix
ĠHT TP
ex tern
Ġpolitic ians
< !
Res ources
N ational
ele ted
C RE
g s
Ġvert ical
Ġtyp ically
S ome
} :
atic s
ic ed
Ġcoun cil
} =\
Ġshow ed
aw n
Ġ ice
ĠR am
eta iled
Ġsample s
Ġrepresent ing
ay a
Com ment
Ġp le
ĠP age
Ġsol utions
Head ers
Ġg al
coll apse
Ġs ister
Ġart icles
ĠA ustri
ĠOr gan
Ġstr ateg
P air
Ġdiscover ed
Ġp i
Ġpro pos
Ġl ayout
Ġcr iminal
Ġearn ed
B i
go ing
IN S
ĠAnd rew
err ors
own er
Ġmain ly
Ġb lood
ĠI E
% ,
Ġp sych
art ers
t ex
ĠC ro
) =\
ĠSt an
ĠT H
in valid
ĠLO G
gener ated
eng er
at ar
Ġ\ {
il ly
) }\
o les
ole c
194 8
log in
prot ocol
as sembly
ĠIm age
Ġpro xy
Sec ond
IV E
en abled
Ġcon ference
ĠColumb ia
ĠRe port
Ġlist ing
F urther
ay lor
rior ity
Ġdoc uments
w a
ĠF ree
Ġunderstand ing
Ġp et
bl ue
N T
J S
Ġdis s
b rief
Ġra re
TR UE
ĠMass achusetts
Ġ ],
Ġdep art
s he
Ġl abor
Vis ible
Ġdef end
Ġst ock
Ġship s
r im
en ers
Ġcon cent
Ġn om
Ġquant um
ĠC y
O D
) ->
Ġpolit ics
Ġfore ach
d one
od s
it ical
fe ature
ĠW ay
Ġc lick
ĠW ell
Gener al
Ġre ct
ĠU I
Ġb ill
ont o
Go ogle
ĠRes ource
ĠW AR
ĠGovern or
19 39
od ies
Ġdat aset
LE CT
user name
Re port
st orage
194 2
Ġtime out
ch er
Ġun iform
epend ence
D elegate
}^ \
Ġoper ating
are n
as ync
Ġ' <
Ġinstit utions
ĠP rem
l ow
Ġev olution
Ġhead ers
; )
ax is
Ġrele vant
Ġcr ime
Ġg uest
Ġconduct ed
Ġyou th
Ġcontin uous
ĠB oth
M T
Ġfor t
ĠH ospital
Ġret ired
Ä į
Ġansw er
Ġd ict
ess ions
ĠP ower
Ġtrans late
ec es
ĠPol and
r uby
ĠL uc
ro vers
ĠCo ast
s afe
the me
en able
U SE
Con n
ĠB as
Ġm otion
Ġrem ote
Ġsign ature
Ġm enu
195 6
Ġattack s
Ġex it
Im port
us ers
ĠL ib
Ġro les
ĠE p
u v
s pecial
Ġtask s
ĠArray List
ĠS and
Ġim ag
ĠA SSERT
Ġl if
ĠJack son
om orph
Return s
ĠSe a
T wo
st able
ĠV an
ou ter
St ats
is ms
Ġlang uages
Ġfact ors
{ %
Ġen um
index Of
ĠIn f
Ġnull ptr
D T
Ġpre p
ra wn
Ġtem p
mo z
ĠPhil ipp
ĠTh erefore
Ġatt ract
arch y
art icle
D at
ĠComm unity
ĠH arr
f ire
Ġn p
ĠR ights
DE BUG
"" "
Ġ ens
M er
= -
Ġauthor ity
r andom
Ġexp ansion
press ed
ĠCon f
iter al
mo oth
anc ell
pe ar
ĠL y
Ġre triev
spring framework
Ġatt end
V ID
sk y
Ġj Query
EE EE
Ġcont roller
f ixed
RE S
Ġprote ction
} '
Ġcolumn s
25 0
j d
Ġo k
ĠM icrosoft
Ġb att
ĠPr ince
ap os
dep th
LO CK
Ġs afe
Ġs ector
Ġbr idge
pt on
Ġcom edy
Pro gress
r ical
Ġtyp ename
uck y
O B
if iers
ĠAn y
g lyph
il li
Å Ĥ
math sf
195 9
195 8
Ġf ill
cd n
Ġgr id
play er
/ _
Ð¸ Ð
ĠK enn
re port
Date Time
Ġest im
Ġdown load
Ġregister ed
Ġr atio
ĠBro ad
Ġstra ight
Ġpro ceed
Ġdecl ared
G R
te en
Ġcomp osed
Ġne ut
Ġb ass
Ex ecut
âĢĿ .
o ir
Ġ ui
h ere
Ġchar set
Ġver ify
f lex
Ġrem ember
Ġfe at
bo ost
ict ed
ĠW is
s en
Ġke pt
Ġstr ings
om ial
Ġprocess ing
z y
Ġprocess es
( @
ĠOx ford
ĠSund ay
in ity
Ġlog ger
istri bution
> ::
Sh ort
} |
194 1
F N
ĠÐ ¿
s in
v ideo
ĠM ember
s ince
time out
ele d
Ġded icated
10 1
ing ham
ĠM ult
Mult i
ad ing
ĠW ater
th row
od ec
iv ery
on ia
Ġfin ish
ĠJ eff
d em
ĠW ild
M icrosoft
pro xy
ĠPol ice
Ġassert That
( .
r ift
ched uler
Ġadv ant
ition ally
un te
Ġext rem
od d
ĠM id
un ities
ĠR ay
Ġex ecution
ĠH ong
Ġevery one
Ġexpand ed
T otal
Ġcost s
Ġpol icies
195 7
form ance
pat tern
ĠPl an
bs erv
ĠAd ministr
Com par
Ġhand s
Ġconflic t
Ġtri ed
r an
s id
Ġr ates
Ġsp in
P ER
ĠS om
}_ \
Ġcont rast
ext ension
g ment
B rit
Ġp an
ul pt
L anguage
Ġg irl
z abeth
Sum mary
Ġmod ified
Ġide as
2 13
% )
um es
Ġar bitr
=" $
L en
un ique
Ġsuff icient
Ġmark ed
Un ited
ĠN ight
ĠĠĠĠĠĠĠĠĠĠĠĠĠĠĠĠ Ċ
Ġc er
py thon
w all
Ġhe ard
ĠPort ug
Ġh ol
Ġlead s
ord ers
w orld
Ġcontin ues
t c
Ġpl ugin
as hed
Ġa xis
Ġac quired
D ictionary
sc ss
ov ing
C F
\ '
ĠB ang
eder ation
ĠRes ult
194 6
Ġpar ser
L L
s ocket
ĠB lock
ĠĠĠĠĠĠĠĠĠĠĠĠĠĠĠĠ ĠĠĠĠĠĠĠĠĠĠĠĠ
um my
Ġdev ices
$ )
ĠB BC
Ġrg ba
amp ions
Ġreve aled
ĠA li
194 3
Ġres olution
ĠStud ies
Ġaltern ative
or ough
Ġarr ived
ch a
M iss
M I
Ġoper ated
Ġcl in
Ġnot es
RE Q
ash ion
Ġa wards
ĠV iet
ke ep
Ġread y
al o
s b
B ound
th ur
fact ory
Ġan cient
Ġs quad
M ask
Ġspe ak
ĠF ace
us form
() ))
Ġ> >
Ġperson nel
p res
libr ary
Ġhon or
VAL ID
numer usform
Tr ansport
Ġregard ing
f c
Ġhapp y
Ġsp an
: \
ĠSt e
Ġtro ops
ird s
Ġphot ograph
ĠC a
b en
ĠG a
hel per
ĠD ocument
Ġs ust
l ife
wide hat
(' /
fl ag
Ġdis abled
ĠD ar
PO ST
Ġbr and
Ġfootball er
Ġexist ence
am in
bl ank
Ġtr uth
Id s
b ro
CT YPE
Ġfocus ed
ĠT R
Ġa ware
cd ots
p icker
un a
w p
am ber
H ome
DE FAULT
Ġad j
The n
IG HT
p u
ĠD own
Ġgen us
(' #
Ġspe ech
ĠK en
Us ers
ĠW he
{ "
Ġhapp en
ĠCor poration
v in
ĠM ake
Sh ape
ĠJ on
E V
Ġfl at
Ġper fect
ĠMed ical
h ref
check box
ĠJ ean
IT ION
ĠGu ard
ĠH ung
el d
Ġc md
ĠOff icial
ĠF our
ĠA rea
Ġtool s
T ags
Ġcont ained
Ġpur poses
Ġmin ister
amaz on
Ġocc urs
Ġfre edom
option al
EEEE FF
Ġmatch ing
8 00
reate st
ra ine
ĠEx ecut
Ġfrequ ency
Ġent ries
Ġid x
MO DULE
out heast
VAL UE
194 7
Ġhous es
F ORM
195 2
require d
ĠPr ime
imit ive
Ġviol ence
ĠScott ish
ĠL ittle
che ster
Ġf ish
pos s
Ġcomp are
195 5
End point
Ġsubsequ ently
ĠDan iel
t k
n odes
Ġme ant
Ġan imation
ĠC oll
Vert ex
it led
ĠC apt
{ (
p erson
Ġadd ing
ĠV ector
Ġb oy
Ġgrant ed
Ġf ine
Ġ ul
ĠB ol
Ġsupport s
Comp iler
Ġ ..
ag ent
ress ed
Ġel im
Ġon to
Ġint eg
'] ['
x html
Method s
y o
ĠC reek
Ġ era
Ð° Ð½
w hen
lo ader
est er
Ġshow ing
ĠF ar
Ġcom ments
Ġstat istics
Ġst reet
En v
ĠW alk
W allet
os is
k t
Ġdr ive
ĠCol lection
is er
ck now
Inter val
F in
) ^{
Sy ntax
DO CTYPE
Ġw all
m aml
Ġpower ful
print ln
Ġ\ "
}} (
Ġp al
sc r
ĠJ oe
Ġprim arily
Ġm iles
Ġconf irmed
ĠBro ok
if ul
195 4
V olume
ĠA S
ĠBer lin
ĠM ot
olog ist
PRO JECT
cle an
Ġg rew
ĠReg ion
Ġs port
Ġsup ply
ĠC irc
Ġstart s
Ġprov ider
Ġa udio
ĠEx ample
ĠOr iginal
Ġrequire ments
Sk ip
» ¿
ĠF urther
i Äĩ
Be an
ST ATE
ĠF C
Ġfac ilities
Ġrel atively
im b
Ġdocument ation
Ġtransp arent
n n
an try
pl us
Ġfa ith
side bar
Ġsc roll
OR TED
I gn
Ġcomput e
p red
ĠB ad
Ġst ored
pp ing
Ġform ation
ath an
Ġnetwork s
ĠC EL
ï »¿
h u
check ed
ĠN ations
Ġcons ult
194 9
Ġclub s
Ġd ialog
Ġp ull
het ic
ri ev
EN SE
az y
ph ia
L in
c am
erv ative
E ST
t f
ĠE ven
Ġdam age
Ġscient ific
Ġ& \
Ġcompar ison
195 3
S ql
Ġallow ing
Ġjob s
res olve
NavBar Font
Encod ed
' ];
F ree
Ġte aching
Child ren
Ġadopt ed
Ġd aily
Ġt mp
Ġteach er
Ġas sembly
ĠE st
Ġear th
Ġdepend s
Ġb uf
S ports
n orm
ĠAlex ander
Pro gram
if ndef
Ġflo or
St op
Ġassoci ation
Ġ' ./
att ers
Ġf lex
Ġhous ing
x s
En umer
Ġcomm ittee
rop ol
Ġmeas ures
}) \
Ġwas n
cl one
Ġnewsp aper
not es
.. .</
ĠP RO
Ġinterest ed
w ater
stru ctions
(" /
mon th
Ġsold iers
ĠL ight
iss ues
ĠHam ilton
Ġnuc lear
Ġt error
pl ates
Ġv on
Ġautom atically
E mail
Ñģ ÑĤ
Inst all
Ġcom pl
z ure
Ġact ing
v s
k ens
Ġlist ener
ĠA mazon
Ġrecogn ized
ð Ł
W est
Ġ ).
Ġw inner
met ry
19 18
ind er
Ġb udget
Ġequ ipment
l arge
Ġcon nections
Ġ$ (\
z ero
b g
n i
lo op
def inition
c hen
Ġtra ffic
be an
TR Y
Ġphil osoph
Ġsem i
Cl oud
hes is
Ġcandid ates
ĠLem ma
t ar
Ġvert ex
b el
R C
Ġcan cel
Ġt al
g oto
A ng
at ial
Ġto ward
arri er
enn es
adel phia
Ġdes cent
Ġf ans
Ġ ];
con sole
u ite
N V
yd ney
ore t
Ġass ign
oc cer
M ath
ze ch
A rea
Ñ ĩ
Ġinvest igation
Ġl ies
v o
ĠR oute
ĠMin istry
i Ã³n
li k
Ġv en
nt ario
Ġaud ience
p ower
ID TH
N ative
Ġco al
12 3
d ig
ship s
; ">
Ġwid ely
u y
in ant
Ġlarg ely
ĠIs lands
lic ations
ig a
ĠSup port
Pl ace
Ġra pid
Ġadv oc
pe at
Element s
Ġus age
Ġlabel s
ĠPol ish
ist ence
ilt ers
M ake
ĠPol icy
ĠV ar
ĠP en
ĠL ink
Ġin nov
Ġserv es
ĠCor ps
Ġtop ic
Ġw ave
Ġr ural
agnost ics
Ġauth ors
ĠPro cess
Ġr ise
Ġp erman
group s
M ouse
ĠC ustom
trans ition
Ã¡ n
Ġexpress ed
Ġimplement ed
" ],
Ġpl ane
ĠR og
al ing
us al
P P
, '
m ouse
Ġprov ince
M usic
Ġemploy ees
up s
ĠVictor ia
Ġsp aces
Ġrece iving
ĠRail way
Ġfund ing
Ġnew ly
ut s
ĠD ub
Form s
ie ut
ĠM inn
T T
F ramework
ĠL ater
ĠWindow s
ap es
l ace
Ġdiv ided
Ġg ra
Ġauthor ities
Ġalong side
Ad min
ĠM aster
195 1
if fer
Ġrec ip
ĠAN Y
or i
Ġinstr ument
ĠR om
The se
ĠL ew
Ġg a
b its
Ġmet ric
ĠS pring
Ġre ality
Ġw arn
f g
up lic
g ence
Ġs chema
int on
Fl ag
ĠIn put
L INE
Ġex ecute
W il
Ġmet al
å Ī
CO MP
Ġign ore
Ġdis k
ĠWil son
Ġpl anning
b ec
am er
: `
Ġchall enge
Ġcommun ication
Ġs an
ĠB ecause
Ġsuggest ed
ĠRev olution
per ial
ĠSc iences
ĠIn s
atur day
Com ple
Re quired
Ġform al
our se
âĢĿ ,
/ .
Ġnear by
Ġro ll
W rit
Ġbase ball
ĠM ike
Ġexp at
an th
Ġsy nt
Ġindic ates
Ġan aly
L imit
ici ency
Ġdestroy ed
Ġeast ern
Ġdec ades
ĠW eek
Ġfif th
com plete
Ġcomb ination
Ġimport ance
Pr ivate
ĠS us
ĠVal id
Ġepis odes
word s
S ort
Ġres olve
ĠBel g
ur ance
ĠSt ation
medi ate
Ġsecond ary
Ġenvironment al
B egin
ge o
ĠB it
ĠDes ign
Ġgu arant
Ġinterpre t
down load
Ġall Classes
Ġconcent r
ĠP ers
G O
H S
Brit ish
ĠR ome
it zer
Ġdevelop ing
Ġp ra
Ġident ify
Ġ" $
ĠF amily
Ġle aves
ex ec
Ġm orning
ĠPl aces
circ le
D R
ĠallClasses Link
Ġ" ",
Ġs eg
Ġleg isl
}\ \
Ġch ance
Not ification
Ġest imate
ĠE ND
Ġloc ations
Fl ow
an z
12 5
Ġachiev ed
Argument Exception
z ip
Ġhigh light
Ġin h
Ġval ign
ict ures
Ġh ockey
ĠS ports
ĠN AV
Ġpro ps
Ġf ru
n eg
ĠS i
Ġre form
es ota
ra structure
select or
in herit
w arning
Ġen h
ĠIn ternet
B I
Ġdiscuss ed
Ġveh icle
Ġp od
Ã© e
ĠS pe
ĠL im
ĠKore an
Ġk ill
Ġorgan ized
f lo
Ġrequest ed
Ġad vert
v an
ĠRef er
ĠC ount
Ġsub stant
R PC
ĠBo olean
h ard
ist ant
Ġcont rovers
Comp at
D iv
Ġt er
ic er
Ġh our
Ġassist ant
Ġc amera
t or
ĠSo ftware
Ġcontrib utions
Ġadv ance
ĠTh ree
fr ont
ab out
Ġpl anned
an es
Ġhistor ic
x space
Ġhapp ened
Event Listener
Ġem ph
Ġfund s
ĠTr ust
ĠMc C
ĠArg ent
ĠPal est
ĠR os
ĠEli zabeth
ĠB and
ĠCh ris
ex pect
support ed
B est
Ġco eff
ĠF ire
Ġag ric
ĠB a
N amed
ap prox
ament al
ch ain
D ay
ĠCont rol
En vironment
w x
Ġz one
Ġcon vention
H ER
f old
s ync
Ġact s
. ~
dest roy
Ġany one
cl uster
ĉ ĠĠĠĠĠĠĠ
Ġm d
Ġmot or
cons in
F ragment
ass andra
S erv
Ġsh ut
Ġcor por
ĠPri ze
M ove
ĠS QL
ĠCon stitution
Ass ociation
Ġcop ies
Ġro b
ow a
Ġemb edd
ap h
Const ant
L eg
Ġreturn ing
W ait
Ġcont ents
G ER
Ġad just
Ġcl oud
Ġtw ice
ĠA sh
Ġt or
Ġd uration
D b
M any
Ġpre tty
on ce
A re
C G
Ġres et
Ġex erc
ater n
Ġsh op
ĠH y
H is
ĠEn vironment
Ġdet ect
ĠOption al
Q U
ĠL ast
Ġcapt ured
cre ated
ile vel
19 36
Ġmap s
typ ename
ipl om
ad r
re p
ĠE nt
get Value
Ġapp arent
Ġprogram ming
Ġis ol
ro g
How ever
Ġ rows
ĠB on
Ġimp lies
Ġkn ew
Ġinvest ment
Ġprom oted
Ġcapt ure
| ^
Ġprinc ipal
und efined
in son
RE G
Ġs yn
Ġun cert
O ur
s lice
C apt
ether lands
Ġest ate
US ER
Ġsignificant ly
Ġlearn ed
{ $
Ġt ensor
Ġ@ "
S em
ul ator
A li
EL D
ĠS ign
t wo
Ġtransfer red
Ġg ather
Ġdiscuss ion
ro ute
ĠPh ys
INT ER
in itions
u ations
Ġ urban
Ġe q
f i
r g
ĠT aylor
) +
t ers
="../../../../../../ ../
Ġfig ures
tr l
MO DE
NS String
ou red
Un iversity
ĠR est
il arly
Ġn arr
Ġachiev e
Ġbeg ins
Ġopt s
ation Token
æ ľ
Ġf ear
Ġcirc um
En ter
Ġgrad uated
Ġspec ify
p ag
l at
In ternational
19 38
ĠS ource
ĠD ig
Ġind ustrial
an imation
ĠS em
Ġappear ances
Ex ecution
H ere
Ã ¸
Oper ator
P UT
Ġd ynamic
Ġinst ances
ĠM ic
Ġslight ly
ist ed
. ",
ost er
Ġdest ination
ac cept
Ġdef ense
D ATA
is is
Ġ' '
Ġfe et
ĠR en
Ð ²
sign ature
mult i
Ġfeat uring
b at
cond ition
Ġbe at
ĠOlymp ic
Ġgal ax
Ġengine ering
ĠC ub
Ġ Ø
Ġa thlet
ieut enant
ĠS a
Î ±
An imation
S creen
Ġp icture
Ġtrans lation
S ave
c atch
ĠC at
ĠS IZE
Ġper haps
Ġrefer ences
greg ate
ĠA venue
con structor
ĠC H
All ow
ul ing
ĠN ative
Ġv otes
ĠCh annel
Ġs ell
Ġ_ ,
Ġaff ected
ix els
Ġbal ance
f ol
F ig
n p
dimension al
1 10
Ġtra ined
ĠCam bridge
lip se
% "
Ġcon tr
and o
F E
ĠTor onto
run time
ĠO tt
Ġtechn iques
ĠF und
Ġcre w
pro du
igr ants
Ġres erved
Ġinterest s
Ġadministr ative
Ġend s
che stra
Ġc ars
es ome
dr iver
ĠO s
op her
Ġload ed
$ _
z ing
q quad
Ġcommon ly
M IN
Ġres ident
ra pped
____ ____
Î ¿
ĠNAV BAR
Ġtechn ical
IO Exception
ĠRe al
Ġdist ingu
ĠS ydney
Ġcontrib ution
Ġp lease
un es
Ġsol o
arr ing
Ġd og
Ġreview s
Ġcy cle
ĠJew s
Ġtell s
ĠUn ivers
ask a
ar c
ME TH
Ġinit i
P ers
Ð¾Ð ²
ĠT y
ĠAn other
Ġcle arly
Ġc e
Ġneg ot
Ġ( -
ok ed
U nder
ĠR a
ver ter
en umerate
Input Stream
Ġd anger
ĠF air
sim ple
V D
Ġmon itor
Ġinter action
ĠS ant
per iment
ĠO ntario
] \
Ġv ac
ĠĠĠĠĠĠĠĠĠĠĠĠĠĠĠĠ ĠĠĠĠĠĠĠĠĠĠĠĠĠĠ
ĠF il
c rypt
ĠB ell
ĠW rite
Ġli ber
if er
p ull
Ġd ance
Ġstand ards
19 37
uff ers
B inary
_ );
Ġjud ge
ch anged
pol icy
ĠOb ama
Ġbenef it
et o
ap is
Ġcon vers
******************************** ********************************
ĠT er
c uss
ry ption
R elease
qu arters
Ġhe ar
Ġadv anced
Ġindic ate
Ġse ctions
N C
P e
re lease
d atabase
mult icol
av or
Ġ' ',
l aw
Ġm eta
put er
Ġpromin ent
Ġc ursor
v c
Ġw itness
h avior
s ent
og ram
view s
12 7
B ook
L ook
Ġes cape
Ġmunic ipality
Ġden ote
Ġcol span
Ġg ain
eg o
] $
ĠW el
Ġfac ulty
Ġb atch
Ġneighbor hood
ert o
# {
Ġd etailed
at omic
ĠB oy
Ġap ilevel
ĠTur k
}^{ (
B asic
Ġequ ations
Ġ ri
ĠB al
' d
h space
Ġs ides
C ard
Con structor
ĠK im
valid ate
Ġsubsequ ent
ir ation
Ġb urn
Ġstreng th
F ore
cal endar
'] );
Ġapplic able
ĠCon nect
c u
Ġfac ility
method s
Ġmag n
Un known
Ġrepe ated
Ġd oll
ĠM arg
ag a
per or
C oll
Ġc os
18 0
ly wood
zon a
our ney
ĠPro perty
" ].
o es
ĠN Y
H tml
ĠChrist mas
Ġpl ants
/ "
Ġsc ulpt
OR Y
Ġs ql
multicol umn
ort heast
Ġfl ight
ip les
S M
}\ ,
for ward
S I
Ġor ient
: [
G P
or igin
ĠM ock
k es
Ġconf irm
Ġcont est
F amily
ĠF ind
al ert
Ġpass ing
ä »
Ġfind ing
Ġt end
gorith ms
ĠJes us
ĠC lient
N ormal
Ġse ats
Ġno ise
Person al
re act
ĠE very
is Empty
ĠAr m
kw args
Ġcred it
opt s
ĠN C
ĠAp ache
Test Case
ic ator
he im
Ġtit les
A ustral
ĠD er
Ġcompet ed
p son
ist ing
Ġconstit u
U D
ian ce
ast ers
App end
Det ail
ev in
Ġconvert ed
ap ore
ur d
Ġconsist ent
ades h
comm ons
Ġr ing
w ing
Us age
Ġar ts
Ġm apping
ĠV ill
{ {\
Ã º
Ġd ie
oc racy
Ġpre par
G LE
ill is
comp ile
Task s
d c
id el
Ġs aved
Ġexpl an
R R
R aw
d uration
ĠB ra
em et
ĠSh ort
Ġt aught
Ġ( [
Ġl y
}} ,
Ġg rav
ĠT ok
Ġjust ice
ĠBe ach
Ġinsp ired
ĠPhil adelphia
F older
Ġperform ing
el ly
ĠN on
ĠT am
P i
bour ne
ĠAL IGN
Ġclass ification
Ġf mt
over view
as m
set up
Ġmed ian
is a
ĠR od
G C
Ġvis ited
ss l
Ġin struction
ur ches
Ġr ich
Pl atform
Ġbel ief
T w
b atch
b log
Ġanim als
ĠS earch
St atic
Ġsil ver
Ġpart ition
um in
Ġ ^
le ts
ĠR ow
os ure
ĠReg iment
Ġm ys
s n
Ġtre es
Ġan gle
}} {\
19 19
Ġcont emporary
S K
W arning
T ile
al g
ch art
Ġconst raints
onom y
ce ived
Ġofficial ly
b ute
ĠDav is
Ġdiffer ences
S ur
per m
Sh ould
ne q
AN CE
." ""
ĠN az
s a
pl ot
object s
P H
ĠWis consin
Ġob vious
C lear
Ġcomm itted
Ġmusic ians
Ġbeh avi
d iff
Ġc row
N ET
al so
ĠB udd
alyt ics
ĠAn th
ĠFore ign
i y
Ġassum ed
vis ible
fin ite
Ġsupport ing
Ġmin im
ĠL abor
19 14
Ġexper i
Ġrest aur
Ġf ell
Ġproced ure
B atch
ĠMinn esota
S cal
Ġsom ew
mer ge
Ġhold ing
STR ING
dep recated
ele m
S outh
Ġs ys
ĠW ars
Ġattempt s
Ġconstit ution
Ġw ants
Ġun able
Ġ" ";
ĠB C
ĠQue ens
Ġ' \
Ġp airs
plement ation
ĠA re
Ġshe ll
Ġbenef its
Ġsk ills
> )
assert True
Ġh uge
Ġopin ion
ed u
Ġcamp us
L C
N ov
DO M
Not Found
Valid ation
ĠRec ord
Ġexecut ed
ĠA k
ĠD om
ext end
() ),
L ower
f ast
Ġcover age
y cle
ĠA ccess
Ġp ul
Ġrelig ion
Con nect
C LASS
PRO C
Ġaddress es
Ġl at
Dr iver
Ġterr itory
W ORD
ĠAir port
ĠSt eve
aps ed
ĠSt atus
ual ity
h ow
v ard
ĠEngine ering
s heet
Ġag ency
^ +
ORD ER
ĠN etherlands
mer ce
Ġt ags
g ency
ĠD oug
Ġa f
Ġdo ctor
int eger
act ivity
c raft
v space
Ġc orner
Ġinstit ution
Ġb log
ĠAnt on
z h
R T
ç Ķ
B B
N UM
Ġca uses
U ES
or ient
Ġperm ission
ĠH om
Ġt sd
% .
Ġdescri bes
Ġh abit
ĠCoun try
Ġspec ifically
ĠD u
Ġsurround ing
Ġpar allel
Ġm obile
Ġrecomm end
Ġinc ident
emet ery
et ing
c li
Con sumer
H ub
Ġext end
Ġent ert
item ize
Ġcon n
t race
ĠTur key
ĠF ox
ĠM ond
ex it
under line
ĠR aj
Ġle tt
ac le
ĠFace book
Ġpr ime
nav igation
Ġprop ag
high light
sp i
19 17
ĠS anta
sh al
p icture
SE LECT
Ġad min
Ġ' ';
Ġop position
getElement ById
Ġdec or
Ġchang ing
An notation
rop ical
Valid ator
Object s
SS L
W AR
19 35
Err ors
M essages
ĠS ab
Ġro ugh
Ġp aint
Ġcal c
Ġv ir
Re al
rop y
AN T
F ocus
us hed
ĠL ike
iss ue
DE F
The me
Ġrad ius
h l
S ources
Ġoper ators
Ġn arrow
Ġadvant age
ann a
Ġpar liament
Ġdepend encies
w d
Ġappro ved
Ġeff icient
Ġparticip ated
ĠH as
is set
cf g
ĠF ROM
19 33
Ġel if
C md
ĠL com
Ġbo ost
Ġinter val
or row
Ġprom ise
ĠAb out
ĠStep hen
istri but
w orth
S m
a ug
can vas
ĠH ay
Null able
tr im
Ġg ender
Ġmaint ain
m ad
Ġsch olar
ap ed
ĠAff airs
ĠF ollowing
Ġselect or
ĠSt adium
Ġp itch
scri be
ĠS on
=\ "
Ġhost ed
P res
Serial izer
Ġe lev
ĠDes pite
S pan
rit ical
face book
ĠW rit
Ġveh icles
Ġpartn ership
Ġph one
O F
Ġord ers
ĠIl legal
Ġfrag ment
ak h
Ġs pons
ĠG ro
y y
Com plete
ĠC urrent
Ġacc ident
ĠUn it
ĠS ets
Ġv ary
Ġc art
C B
Ġp owers
ĠR on
) [
v olume
} +\
Over view
& =
Ġport ion
Ġb omb
ur is
Ġs b
cit et
Ġcol lected
T ele
ĠK ir
mem ory
ĠP u
Ġwe alth
ic ian
L ibrary
Ġvalid ate
ĠH o
Ġp hen
Ġg ained
Ġch ampion
LO C
s r
ĠL ady
Ġrac es
}} _
D ev
In formation
Ġent r
Ġposs ibly
fri end
se m
Ġmunic ipal
Ġpublic ation
Ġv ot
Add r
ĠO S
Ġag ree
D IS
Ġprov ed
ĠBr idge
Ġ" %
19 00
ĠC A
ĠL es
itor ies
Ġin vent
Ġhy per
ĠE ner
agnost ic
A udio
7 00
ĠE U
sp irit
F n
/ {
trans action
ĠAd v
Ġcompos er
å ®
Ġmag netic
ron ze
Ġa head
con vert
arg uments
Ġch annels
C ONT
w arn
CH AR
Ġsuff ered
Ġresult ed
w eg
j ack
Ġvel ocity
ĠPub lish
ĠG er
ast y
c ow
is lation
Ġse ed
bo se
Ġsubstant ial
ĠE th
as i
Ġw arning
re ader
Ġin n
Ġrecogn ition
D rag
el i
Ġdeg rees
P od
ĠV en
ĠS elect
ĠH ind
ĠC P
IL D
ĠW at
ab ric
Pro to
t i
p ur
Ġc lock
cl osed
Ġs pring
Ġfight ing
ĠS aturday
vert ical
Ġbu y
Id entity
ĠAnd roid
au x
Cond ition
ry st
Ġj ump
ce st
ĠA D
ĠExecut ive
the orem
ĠL ive
sub mit
Ġs ynchron
Ġh or
yn omial
for Each
Th row
enn a
act or
d k
min us
Ġperform ances
et es
ext ra
ĠP erson
Ab out
19 34
Ġcr isis
Render er
Ġfound er
Ġret ire
æ ĸ
The y
Ġinj ury
ak i
Ġpro test
Ġpri est
Ġspect rum
J oin
fl at
ĠG reg
in er
Ġtra ce
ipp ing
Ġexperiment al
Process or
: @"
Ġm olec
} -\
pro d
Ins ert
ĠI V
z o
Ġb rain
Ġdom estic
> "
Ġe mp
Ġvalid ation
pro gram
Ġhousehold s
Ð ´
ĠH un
ain ts
Ġexper iments
S egment
Ġw inners
Ġmer ge
Ġp ure
lic ense
Ġalleg ed
Ġm and
ot on
Ġpi eces
Am ount
Ġdet ection
Ġmount ain
ong o
text tt
dis able
19 29
Bind ing
ĠDes cription
Ġbusiness es
s ome
ĠBr ig
ĠFr iday
ĉĉĉĉ ĉĉĉĉĉĉ
f mt
Ġf ee
ĠChild ren
Ġrespons ibility
m essages
enc ing
Ġsp ot
Ġlett ers
Ġprom otion
Ġaccur acy
ĠH ard
ĠUk raine
Ġdefe at
p kg
Ġs ocket
se par
re nt
ik a
Ġ rom
con struct
ert y
Ġed ges
S V
Ġident ifier
66 66
Ġth reshold
ĠN iger
Ġab andon
UR CE
R ate
st ances
ĠS af
Ġe le
CD ATA
ord an
Ġth er
os l
ound ed
F UN
Ġm anner
ĠM ilitary
n ob
N ING
Ġchem ical
ĠL ind
Ġgu ard
qu ote
ĠN et
ĠGold en
ĠD uke
force ment
elli j
( {\
ĠRem ove
Ġpath s
L ight
Ã© s
Ġnav bar
Ġtw enty
' $
c are
Ġnot able
Ġentire ly
ĠT ai
ĠS E
Str ategy
Ġpers ons
ĉ čĊ
ĠW in
Ġdr ink
ĠC orn
Ġsubject s
p air
ent ed
col lect
ĠBook s
Ġmed ium
19 10
est ab
I AL
Ġb its
ĠM O
ra it
Ġc ab
Ġsup erv
å Ĳ
ĠD or
Ġh ers
Ġstat ements
ĠGu ide
FF ER
e en
br and
Ø ±
ĠT al
ac ent
ru ption
P resent
" },
ĠP R
j an
Ġf resh
Â °
ly n
Ġdocument ary
Ġexpat riate
ĠAb stract
ust ers
Ġ} }
ĠMiss ouri
int ellij
ide os
Map per
ch ant
Nav igation
19 28
Res olver
Ġsche duled
Ġgovern or
sp acing
Ġso ft
Ġbound s
Ġthous ands
f etch
Ġs mooth
and y
second ary
s ig
reg on
Ġl ists
Ġlook s
Ġarrest ed
ĠRes ponse
e a
Ġpl us
LO W
rodu ction
al igned
st rip
Ġpurch ased
A xis
ĠK r
Ġdr am
> ;
Ġb in
Ġre named
Ġw ing
ĠX ML
Ġg irls
ĠAtl antic
ip her
O M
Ġhe nce
Ġperm issions
19 32
Ġopport unities
ĠCh ange
ĠSwed ish
UM M
exp and
Ġpain ting
Ġinvolv ing
Ġtem ple
av id
b d
t ensor
Ġhe av
Ġexpl ained
Ġ' .
ass ign
Ġr at
ĠDE FAULT
Ġ" .
ĠK ansas
ĠS at
Ġform ula
cre t
Ġport ray
Ġm yst
Ġyoung er
ĠHol y
/ ">
f eed
al ion
unn el
%%%% %%%%
Ġdro pped
Ġtyp ical
ĠG allery
ap y
ĠW IT
ĠSt ock
B al
Ġh ydro
Ġ> >>
Ġfrequ ently
> \
Ġunder lying
Ġal ert
Ġfind s
ĠF ellow
ier archy
ĠColor ado
W ord
Fail ure
ennes see
semb le
T ax
onym ous
Û Į
Ġ- \
ĠC ur
ĠIn vest
INS ERT
ï¼ Į
T F
const ant
Ġprom ote
ĠT urn
rupt ed
log o
ĠWAR RAN
Ġrepresent ative
Const raint
Ġch unk
cre ens
g i
y ard
ĠR equ
ĠWh o
Ġqual ified
ĠInd ones
Ġend ing
ĠIndian a
D rop
Ġcomple tion
Ġf ashion
ĠLew is
Ġex ports
Ġst ats
ĠDon ald
ut ies
se q
Ġult imately
Ġ ðŁ
ĠSwed en
ĠH al
j Query
ĠC zech
Ġtown s
ok es
comm it
igh th
Ġcomp act
Ġemploy ed
Rem ote
Ġconcern s
S ite
um a
ip h
Ġdo or
ĠIslam ic
T ri
pol y
Ġ ig
Ġcur ve
s es
M aterial
ĠA M
Ed ge
Ġp un
Ġst yles
D ATE
poss ible
Ġal gebra
Ġv ess
Ġcirc le
direct ory
L at
ĠIsrael i
19 22
Ġa cknow
ropol itan
ĠG ree
ON G
get Id
Ġro y
Ġst able
R out
Ġdepend ing
pl oad
ĠFore st
Ġs ync
Row s
Ġreject ed
C ALL
Ġ" >
Ġtrans actions
ad ed
Ġst one
Ġincre ases
C ur
Ġv ice
ĠP O
ibli ography
Set ting
Ġtrad ition
ĠE ll
iv ated
ĠSer b
H L
Ġchalleng es
ĠEner gy
ew idth
Ġph oto
ĠM oh
Ġar ms
Ġpol y
S G
Ġcharg es
\\\\\\\\\\\\\\\\ \\\\\\\\\\\\\\\\
Ġprof ession
ĠA thlet
Ġthink ing
ĠL oad
Ġle ct
ar ry
m osph
19 24
ĠPrem ier
Ġarbitr ary
Ġres c
ĠB ru
19 31
S N
h om
Ġcontrol led
Ġext ensive
ĠB att
Ġmod ify
qu es
n ight
ĠAri zona
ĠA bb
rem arks
Ġ\ |
gener ate
ĠE s
Ġv e
Ġocc asion
Cont act
Ġimprov ed
ĠAss oci
pl er
Ġin tr
Ġs un
enc ode
Ġs ac
Ġl osing
B order
ĠM ir
no indent
ĠTr ansport
d evelop
ĠG h
P red
Ġnov els
HE AD
G erman
Ġprior ity
av ailable
des ign
C enter
ar ity
includ ing
d ependent
he ets
ĠMed al
Ġs pl
Y Y
on ical
Ġbig gest
Ġsk ip
b as
Ġpay load
Ġtre ated
B Y
d ash
se ason
el le
Ġhe at
Ġlink ed
Ġreg ime
CON FIG
glyph icon
Pre v
Ġext ent
em an
ĠB ishop
to Be
Ġtit led
v ol
top ic
n ers
ff f
Ġappro aches
Ġj s
ĠPr inc
Point s
ef e
ĠN a
Ġth erm
Ġv ent
Ex port
ĠAd am
ĠB at
AT ED
Log in
All oc
BP ACK
Ġpresident ial
Ġatt ached
W omen
ĠA h
Ġn ob
" |
W arn
] ))
ĠB efore
Sign ature
Ġcli ents
ĠMary land
Ġlog ging
Us ing
Ġstrong ly
Ġas pects
m apping
Ġop acity
ĠN orm
Ġm o
sub ject
Ġk ernel
d y
ĠMem orial
ĠC EO
rad io
ivers ary
Ġinput s
19 27
put ation
Ġint elligence
Ġs event
Ġd ream
Ġextrem ely
fol io
ar se
AT TR
Ġop posed
uz z
in ations
Ġpract ices
ĠT erm
cont act
.* ;
Ġben ch
ĠT oday
ĠSt ream
ten ance
ĠSur vey
R S
ibr aries
ĠD rag
M anagement
ĠC ase
Ġr ugby
head ing
im p
Ġjournal ist
ĠO C
FN GL
el astic
Ġpartic le
ure au
ab il
D ig
ĠM iller
Ġhers elf
Ã ¢
}} }
ĠN ext
ott ed
19 21
Ġp iano
ĠPro t
ĠSing apore
Ġs ending
G A
Ġg ap
Ġc ook
ĠL java
Ġ_ .
Encod ing
Ġp ref
loy ment
19 12
ĠAr thur
Ġdec om
Tim estamp
Ġs ph
not ations
Ġmechan ism
ĠAdministr ation
ĠV i
Ġm ist
Cont ains
Ġtre nd
Ġt ail
F rench
Ġab ort
! "
Ġa x
Ġw el
Ġleg islation
n ative
ĠG il
Ġrun time
ĠB u
a udio
Ġa id
Ġs ale
al ias
op l
Ġend point
ain ers
V ICE
C ursor
Group s
Ġm ent
Ġcon version
ocr atic
U ST
Tim er
ĠCast le
p b
å ħ
Ġtrans formation
Ġa apt
ĠCapt ain
t ainment
FI ELD
ĠĠĠĠĠĠĠĠĠĠĠĠĠĠĠĠĠĠĠĠĠĠĠĠĠĠĠĠĠĠĠĠ Ġ
Ġturn s
ĠL anguage
We ight
pl an
weg ian
Ä ĥ
ĠW inter
ĠOper ation
ad i
Ġlim its
iven ess
eng ers
AR B
ĠB all
ĠViet nam
og en
load ed
Ġf estival
A nt
ĠRefer ence
ĠT ag
Ġobserv ations
Group Name
ĠLeg isl
ĠB ush
Ġbro ken
EN TRY
Ġp ert
anag ed
re pository
ang a
qu ir
ĠJ oh
Ġb ow
Ch rist
Ġp ipeline
it i
Ġcomm ands
ĠJac ob
c ounter
ĠD C
ĠR ose
ele ments
Ġlo an
al ink
Ġpar ish
Ġal ias
Ġdr ag
Ġeduc ational
ust in
Ġmass ive
) }{
ĠC as
Ġcharg ed
ĠMod ern
ĠD am
Draw ing
B ottom
Ġengine er
Name Link
ing ly
Ġv ision
Ġth ick
ĠMar ia
ag ma
pect or
c les
Pro f
Ġ' %
19 25
ĠL ic
ĠSim ple
ist ical
Ġm ental
Al though
ĠF OR
Ġfem ales
V E
re po
Ġem otion
Ġthe orem
Ġdec ade
B ool
Ġload ing
Ġop posite
Dep th
ud es
j et
ĠW IDTH
ĠS che
ble m
br id
n of
w ik
Ġhom es
are st
col n
Ġmeas ured
ĠB h
A SSERT
Ġvol unte
Con vert
19 23
Ġvert ices
( ['
Ġg reatest
Ï Ħ
Ġc as
Cont ents
ĠBr ad
ĠApp lication
Ġ< -
ord on
M aster
Ġpat ient
ĠIN TO
Ġ$ _
Ġent itled
lim its
ĠSt aff
× ķ
ĠSt ory
Ġd rawn
m ac
ĠL ow
cont ents
19 15
Ġsuggest s
Ġsch ol
ĠPe ak
Ġdr iving
K e
Ġref ers
m ers
comp are
p ages
Array List
ĠD elete
Depend ency
; |
Des ign
Ġredu ction
ĠRet riev
st an
RE E
ĠH ou
Ġpro to
S ong
Ġy ards
Ġb odies
g if
Ġwrit es
Ġcopy right
iv als
ag ues
ĠFr ont
Ġst orm
Ġweap ons
Ġfund amental
ĠC are
Ġrev olution
g ems
Ġan imal
00 1
On ce
ph rase
C ounter
pr iv
ĠBar on
j ax
ri e
================================ ================================
19 26
Ġm el
ĠV ice
Ġcomput ed
ĠL td
a ired
Ġs leep
tim estamp
ĠN av
ic ode
ic ing
Ġdec isions
Ġpre ced
Ġcompos ition
Ġclos ely
g ov
og y
ĠAf g
Ġal ter
ĠW ed
ate ver
Ġprep ared
Ex ists
ĠJ son
ĠÐ ²
Ġ Ñģ
er al
Ġe ye
Ch ain
p aper
ĠO regon
Ġsec ure
Bl ack
k h
Ġdisc rim
g overn
LI ST
ĠT ennessee
ĠMex ican
Arg uments
s un
Ġm ach
Ġrem ark
Ġpattern s
ug s
WE BPACK
Ġm ouse
ĠĠĠĠĠĠĠĠĠĠĠĠĠĠĠĠĠĠĠĠĠĠĠĠĠĠĠĠĠĠĠĠ ĠĠĠĠĠĠĠĠĠĠĠĠĠĠĠ
m c
Ġo dd
A bs
ĠM ill
Ġsup posed
Ġwork er
igen ous
ĠA mb
Ġrank ed
ãĢ Ĥ
19 16
Sw itch
P HP
ĠĠĠĠĠĠĠĠ ĠĠĊ
ĠMed icine
is or
á »
LE D
Ġpro port
Ġdistrict s
Ġg one
UN D
Ġw ish
Ġdes ired
' }
ĠF ederation
iv ial
equ ality
end ment
P Y
Style ID
Ġsw im
Ġs am
Ġb ands
N orth
Z one
\ }$
L ib
RE D
Ġd iplom
Con sole
b ell
hed ral
Ġtim estamp
ĠAp ple
G ui
re du
b c
ĠLe on
ov en
M ost
ĠS ym
Ġcoordin ates
res ize
IMP ORTED
ic ians
f red
Ġperman ent
ĠD B
Di agnostics
Ġw rest
new s
Ġref used
Ġc overs
} %
B ounds
atter y
ĠC ore
ĠC SS
Ġdeb ate
Ġprom pt
o or
ĠP it
ĠM un
ov al
ĠOff icer
METH OD
Ġap art
ĠF ord
Ġelect ronic
ĠI owa
Ġcalcul ated
Ġe yes
Ġex cell
Ġk illing
b us
lin ewidth
S ame
grad ient
ĠP ack
OP T
ĠO N
ow nt
ĠComm unic
ĠSt andard
Ġh all
sh op
ex ecut
operator name
IN ST
( ()
ill ery
ari ant
ĠQu ery
Ġaccount s
ĠP os
O ct
) }$
In ner
ak ed
Copy right
uth er
T ex
v ing
ĠTh rough
BU FFER
= [
Ã ¥
F uture
west ern
ĠCol on
Ġconsum er
Ġfil led
Ġbind ing
ir th
E ffect
Ġinitial ize
s pe
ro it
ĠÃ ĥ
d jango
we alth
Dep recated
Ðµ ÑĢ
Ġs and
b lob
Error f
Ġc ategories
Ġinst ant
A UT
NO DE
l int
Ġwe ather
~ $
inem a
H er
Ġc ool
Ġs ought
And roid
ĠC ost
Ġf ails
ĠPhilipp ines
rem ote
Ġch airman
ĠMount ain
V AR
Ġcre ates
et ween
es ian
Ġd yn
Ġclass Name
Ġgener ic
el lect
a us
ren ce
E st
HER E
ĠC OL
ĠOn ce
Fr ames
math scr
Ġexplan ation
ĠStr uct
Sh ared
alt Color
< \
d on
load ing
Ġcertain ly
R andom
ab ama
scal a
err ing
ĠRepresent atives
Data Type
ache lor
Perm ission
Ð ¿
view port
St ar
Ġg lass
ah oma
Ġaff ili
ĠBuild ing
Ġag ents
Ġst ores
Ac cept
ĠP ut
ER S
Ġ ----------------------------------------------------------------
s ch
Ġb an
Ġint ent
inal s
DE X
patch er
b asic
erv es
ĠConfig uration
Ġst ress
Ġd st
' \
Ġf uel
Ġexper iences
Ġdim ensions
Ġs urn
) |
Option al
Ġs izes
m k
C ancel
C M
Ġsche dule
$ }
V ec
Ġtyp edef
Ġind ependence
secut ive
Ġexpl ain
ĠVAL UES
ic ide
k top
g ar
ott en
g re
ru les
Ġworld wide
Ġl it
B L
Bi ography
Ġsepar ated
Ġthe atre
gle w
ist a
Or igin
Sh arp
L ife
ĠH an
or er
ĠS quad
c ases
M ount
az a
Ġmay be
or ne
Ġbur ied
u uid
amb ig
Ġtem por
ĠCl oud
Ġprogram me
omet ric
Ġw ins
Ġ{ },
Ġ iron
ĠK al
UMM ARY
ĠAfg han
Ġarr ang
lic enses
F ALSE
ser ies
Ġtra v
Ph ys
;| &
Ġre new
ĠC G
Ġrec ru
Ġf an
Ġdesign ated
Ġhapp ens
tw itter
ĠR oss
th rift
Ġign ored
itzer land
Ġd ates
ĠMos cow
s uch
Ġp seud
inc ial
T Y
ĠF ac
Ġattempt ed
ĠCre ates
Run ner
Ġwait ing
ĠP romise
Ġtem porary
Ġcomp liance
con v
Ġtri p
Ġpay ment
Ġrelationship s
_ )
ĠP ier
Ġ` ``
Ġresearch ers
t ile
flo or
Ġelect ron
Ġcon ven
ĠTh read
res pons
Ġs oci
( --
Ġdi am
Ġcontrib uted
Ġdis able
Met rics
ĠSer ver
class Name
Ġsur pr
ĠM A
Ġprov ision
Ġ| =
Ġtarget s
Ġsuc ceeded
Ġb ought
? "
Pl an
Ġcustom ers
F ilm
ĠAnd erson
(" #
Ġpers pective
Ġgovern ing
Ġpurch ase
Ġcould n
Ġh orse
ĠD ouble
h d
) ",
Ġdis miss
Ġlaw yer
Î ¹
Ġintrodu ction
H older
Ġre action
ĠLab our
ĠH art
ĠA ge
Ob server
Ġold est
ear s
V irtual
ĠS in
Ð ¼
EN V
oc a
ang el
Ġhot el
STAT US
Ġcan cell
Ġprinc iple
w ill
Ġsc atter
Ġdisplay ed
t ouch
ĠPhil ip
Res et
W atch
li bs
in ian
ĠUs ing
- (
Ġstop ped
l u
Ġvict ims
ret ch
l ab
ĠK han
sol r
ĠTw itter
Ġst uff
ĠHar ry
o is
an im
RA Y
valid ation
re peat
19 13
over ty
Ġexhib ition
F OR
ÃŃ a
se lection
ĠÐ ½
Ġt d
ĠEnter tainment
ĠPr int
u er
Ġmod al
arch ive
ant e
ĠCont ent
Ġt rac
em ony
r ons
Ġproper ly
l iving
Ġig et
ĠE ric
ĠV ideo
ĠTown ship
r ank
F ollowing
in x
k ing
ĠCo q
ĠOut put
c ers
u ating
Ġp m
ĠS u
ĠD eb
ĠAg ain
re ll
Ġd elegate
ex pression
Ġnomin ated
Ġbeaut iful
: '
M ag
Ph one
Ġex cit
- $
ĠL ang
ar on
ig ate
B ad
O lymp
ĠC ab
Ġphen omen
Ġcrit ics
d am
Ġ( ;
os es
og ether
Ġover flow
olog ists
Column s
link s
ile y
ĠS ound
In f
ag en
= %
S W
Ġre pository
**** **
Ġf s
Ġscen es
I mp
Ġlimit ations
D irection
Ver ify
Ġcomb at
ub ble
Ġed it
Ġhand ling
P M
(" %
Ġim g
St andard
Wh ere
g z
Ġthrow n
d ark
R UN
ĠL ev
Wil liam
ĠD a
Ġag encies
f all
ĠT ony
Ġenc ounter
aint y
Ġout er
ph ys
ĠBuild er
ur ations
Miss ing
> ()
Ġf ake
Ġw inter
ĠCl ark
ĠComm un
ac on
ol is
ph ony
Ġplan et
Ġch apter
ĠAr k
Ġassert True
B IT
Ġpartic les
Ġ/* !
ĠO ak
Ġa ria
clud es
Ġeval uation
Ġlay ers
ric es
Ġsc oring
En able
ars ing
te ction
spec ific
TH ER
out s
styles heets
cover y
ĠS ri
st age
Ġ{ %
ĠA ud
Ġas sets
b x
II I
Ġopt imal
Ġtalk ing
ĠPl ace
Ġpol ynomial
el led
greg ation
old s
ä ½
T y
Ġin herit
Ġlog ic
Ġdynam ics
E q
Ġp ed
w ick
Ġder iv
ĠR oll
lin ux
ĠJ ane
Ġv ocal
D en
ĠF ish
ĠL eb
Ġconst raint
o a
ud a
Lo op
Ġexperi enced
TR AN
ad oc
Ġgu ide
ĠC ulture
Ø§ Ù
Ġexplicit ly
de ep
AT CH
ap el
Ġconcern ed
ip pi
Ġw arm
ĠB ox
Ġso le
Ġbro thers
get Instance
m ont
ĠP M
ĠMore over
Ġhe aring
ĠSen ior
Ġtro ub
ĠA ws
×ķ ×
ĠB OO
Ġrecomm ended
UN T
~~~~ ~~~~
er red
Ġmer ged
Output Stream
ool s
Ġf etch
ĠMag azine
j b
Ġm atters
ver ify
50 9
c ountry
ĠCont ext
ĠB rian
an ches
Ex pected
ĠE P
M ac
ĠFre der
Ġw onder
ä º
SO URCE
J ust
E P
Ġsust ain
Ġarg ued
e ast
Ġy ellow
Ġstri ke
ues e
ĠSim on
del ay
ĠIn ternal
f ake
ĠS UMMARY
ĠSh er
ĠInst ead
gener ator
Ġup dates
ĠHol lywood
c ursor
The ta
Ġbro ke
AR G
S epar
Ġv eter
S ch
ĠF act
ĠF A
c assandra
T AG
Å ¾
ĠC art
Ġp arsed
OR K
Ġinf rastructure
aud i
f re
Ġm om
Ġscient ists
ous es
l ot
ĠC ape
ĠN ick
Î µ
L Y
od ox
P romise
sub figure
ordin ate
Con verter
Ġleg end
Ġpe er
ĠMel bourne
er d
ops is
ĠP lease
B el
ĠÐ ¸
Ġst ands
ag an
Ġc b
AT OR
ĠHigh way
ĠS av
ĠM att
Ġen emy
A SE
Ġ" '
Ġcomp atible
ap ple
> '
Ġpass es
Ġhyp ot
Ġf aced
Ġre verse
A wards
Ġgrad uate
Ġsent ence
ĠMond ay
Ġtechn ique
r as
unk nown
urs day
cuss ion
ĠâĢ ¦
ĠNor way
log ging
ĠS C
Pl ot
Ġcomp iler
ĠST ART
ĠT ree
ĠR ight
Ġmin ute
Ġdis ap
Ġb ed
Ġposs ibility
Ġal gorithms
Serial ization
Ġ& #
Ġeth nic
ĠJ S
ĠP ay
Con s
comp any
Decl aration
f uture
LE MENT
nt il
19 11
13 0
ĠSe ver
Ign ore
Or gan
ĠI F
Ġmod ules
E val
ich ol
u ce
u ction
ur able
ĠMal ays
Ġs in
ĠW ind
bind ing
Ġcommun ic
J apan
CO M
Ġobject ive
ab c
P lease
( /
Ġcar bon
sequ ence
y ers
off s
Ġsupp lied
tr i
Ġst arring
B en
Ġf older
ĠL iter
Ġpil ot
P al
ĠS quare
O ld
ĠT en
Ser ies
Ġunder st
ĠJ ob
Ġmay or
Ġat trib
ĠV irtual
ail ability
P ower
R ot
Ġmanag ers
Ġat mosph
ĠSt one
Ġhum ans
W IN
ĠP ot
Ġrot ate
Ġan chor
Ġgood s
Ġown ers
om ot
Ġm ales
1 15
Ã¼ r
Ġ' "
ĠClass es
ĠPr ivate
ĠR eb
Ġteach ers
annot ations
å ¤
Ġstand ing
Ġjo ining
create Element
tim eline
ic ut
Ġdes criptor
Ġro utes
Ġf raction
rt l
ach er
m obile
ĠLin coln
ĉĉ ĠĠĠ
ĠI ss
20 23
Ġhelp ing
Ġabs or
Ġk id
ĠDef ense
ĠB alt
ro uter
ĠPy thon
0000 00
Be en
le ton
MA P
ĠKent ucky
ĠO cean
ĠN ap
Ġhel ps
Ġad vent
Ã ł
sh a
C ent
Ġeduc ated
Ġbound ed
ul p
Ġdi agram
z ed
foot note
i ations
U C
ĉ ĠĠ
ĠW y
ĠD ark
Ġmembers hip
__ )
S plit
p end
n os
ĠS D
act ual
Ġb oot
av el
us r
Ġca ught
ĠDi ego
ĠGree ce
ĠFor ces
ĠAl abama
UB LIC
Ġcheck ed
ĠP layer
iv a
ĠM unic
it ics
am ar
rain ian
get String
Ġa st
str ings
Ġprem ier
Ġoper ate
Ġab use
ow s
grad le
form er
ĠBase ball
ĠP a
od o
ĠB ah
ĠĠĠĠĠĠĠĠĠĠĠĠĠĠĠĠĠĠĠĠĠĠĠĠĠĠĠĠĠĠĠĠ ĠĠ
Ġide al
column s
ĠTurk ish
pos ing
ĠS H
IL ITY
ĠS ite
c ancel
Can adian
Ġ uri
Ġv o
Ġk ids
U K
Ġang ular
ĠArt icle
po inter
Ġca using
Ġfound ation
LIC ENSE
Sh ader
Ġintrodu ce
pre vious
ĠC hen
Ġind eed
Ġeffect ively
ĠPar se
ues day
Ġw a
Ġman ifest
w allet
kl ahoma
M illis
UE ST
ct ic
>< !--
h ab
Ġdirect ors
ĠI ter
ĠPro p
h pp
Ġcour ts
Ġd elta
Ġlook ed
m ic
ene z
Ġcent uries
ist ogram
Us es
Ġm al
C oin
Ġc atalog
Ex pect
rel ative
Ġman age
ĉ ĠĠĠĠ
Ġb old
sh are
Ġb undle
ĠB ureau
ens is
r pc
Ġmov ies
function s
Ġcon secutive
Ġp ending
Ġe igen
} ",
ĠS uch
Ext ensions
Ġrot ation
> %
get Type
f b
ĠS end
Ġin ject
ut t
lic a
Ġmark ets
as ets
be ans
ĠF uture
Ġacc used
el ve
(' <
Ġass istance
anch or
tool tip
ĠN E
ĠDis ney
ol t
Ġ$\ {
Ġintegr ation
Ġp ray
Ġdeliver ed
Ġcol ors
nes day
T ube
"> (
arn er
ĠHow ard
LE TE
Ð° ÑĤ
Aut hentication
v als
è ¯
w ich
}} _{
ign ore
ĠTem ple
Ġw alls
tr m
refer red
Ġsee ing
Ġv irt
CO MM
pre c
TI ES
gener al
te am
M R
IN VALID
Label s
cre ment
Ġcl one
Ġbring ing
Ġpercent age
Ġan alog
Ġro ut
Ġh ide
ĠHe art
F P
pear ance
yg on
part s
Ġ' ''
Ġoff ices
ell ar
Ġhead quarters
Ġclass ic
ĠK itt
un lock
ĠL ear
ĠVAL IGN
K it
not ify
Ġparticip ants
ĠJ ordan
aw are
Execut or
in th
I p
ĠSer ial
Ġcollabor ation
Ġacc eler
Ġeng aged
m n
æ ķ
subset eq
Ġmet rics
Ġrac ing
Ġm ort
Ġge ometry
Col lect
Ġfile d
L ike
u um
Ġe ase
ren a
Ġappe al
Ġconsider ing
p rom
Ġass ault
S am
Ġparticip ate
ĠAustri a
Ġj ourney
ĠÂ §
ig ious
Ġsc r
ĠDo ctor
tex trm
ĠB uffer
Ġd uty
Ġins urance
Ġcol lections
An other
f p
Ġcorrespond s
Ġsett led
Ġs ons
Ġsix th
ĠBy te
SS ION
run ner
ĠB urn
li a
l ower
ĠT err
\ ,\
ĠL ank
u j
Ġv oted
hem atics
LA Y
) _
ĠGr ant
Ġm ail
aw esome
Ġestim ates
Ġh air
< <
iss ippi
ĠSw itzerland
M s
m ount
Id x
h istory
enn y
part y
ĠC ru
att ice
ĠAcc ount
ĠAll en
Ġk ick
app y
ĠF ame
Line ar
ĠJ unior
Ã© t
D ynamic
10 2
Ġor ig
Ġcustom er
Ġinv ited
Ġf ant
ĠF ull
ĠWARRAN TIES
Ġpost ed
Ġmaint ained
Ġf ra
go og
ĠAg ency
arg o
Olymp ic
De ath
un ately
ĠC op
Ġgener ator
Ġsh ares
Î ½
Ġv m
Ġf ought
ĠP ope
ick ets
ĠMan chester
uplic ate
Ġs qu
At trib
ol i
r v
Ġindic ated
(" \
ca pt
Ġplace holder
ĠA T
T ouch
Ġa w
Thread ing
Ġvill ages
itect ure
Sup er
Ġsp end
v endor
ĠB ab
12 34
Ġs i
Ġdecl are
HO ME
ĠAm ong
ĠK y
L icense
M en
Ġimp lied
= $
ĠB os
Ġprodu cing
E Y
BU ILD
Ġassum ption
< >();
Ġestablish ment
writ ten
ĠF a
ĠH ans
Ch art
ĠJ os
Ġheav ily
Ġd ual
ĠFinal ly
add ed
r f
ov ak
Ġcommand er
g ood
Ġk il
z i
Ġcomp ilation
Ġpol ar
ĠK at
Ġsatisf ies
Ġpropos al
p in
b urn
Ġindic ating
put ed
Ġ- =
Ġ' _
Ġtext ure
Ġ" [
ĠM as
Ġoccup ied
Ġn s
Ġiter ator
Ġw ire
ĠAdd ress
ock s
ann y
ul ating
Ġf olk
A ctions
RE CT
Ġwindow s
U pload
L IN
F ixed
om er
Ġmedal ists
190 8
pro duction
Ġ-- ></
st o
]] ></
m ag
Ġcorrect ly
Ġoffer ing
el and
od a
10 24
pro fit
Ġcircum stances
d ocker
Local e
er os
Down load
Ġfav our
" ];
em bed
Ġretire ment
Ġsim ulation
w t
ĠWh it
pe ction
Ph il
M ust
it als
ĠF ood
ĠReg ional
at om
ĠPat rick
Ġcalcul ate
text ure
Ġil legal
BO OL
cod ec
udd en
Ġh its
mit ter
ĠS ix
Ġformer ly
end a
Ġsp atial
Ġsol ar
Ġemploy ment
Ġca ref
h ot
Ġad m
Ġscal ar
ixt ures
ĠDe ath
d irection
Ġimmedi ate
Ġp apers
Ġcon cluded
w i
Ġg oto
ĠC HECK
Del ay
Ġcontrol s
rypt ed
Ġf ired
Ġthe oret
lic ated
Ġfr anch
Ġj azz
mem bers
3 60
el son
ĠD omin
Ġin equality
ult ane
Re quire
Ġsub sid
pl ays
ĠV o
Ġcon j
ell ite
Ġcr ick
al ia
Ġreport ing
A SS
ra ined
H z
ym n
Ġb right
ĠD ream
oy al
B ibliography
ang ers
Ġgo ogle
Part ition
vert ex
li est
ur ric
ĠT reat
Ġreplace ment
Ġcapt ain
n ie
set minus
in cess
O C
egr ation
ĠWal ter
Ġfunction al
ĠHar vard
S napshot
18 90
Ġdiscover y
Ġfound ing
Ġown ership
Ġconsist ing
Ġover l
Ġwhere as
Ġto wer
process or
Serv let
Ġcorpor ate
Ġliter ary
ĠN ev
sd k
Ġj uris
Or iginal
Ġcoordin ate
ro ck
th odox
Ġb ronze
ag u
con nected
ate ur
s ym
Ġcre ative
in ating
] +
ĠHou ston
ĠMar c
ip er
Ġm igr
âĢ ¢
ĠK a
M ich
ĠT a
b inary
i ary
Ġsur g
be h
Ġexpl o
all enge
Ġly rics
d anger
Ġch arts
nob r
U A
pre ne
Ġpre pare
Ġliter al
get Message
ĠO bserv
Ġg lob
ut or
Ġ Ä
IM IT
Ġes cap
end point
f older
am ount
ĠD un
Ġinter actions
M ajor
ĠMar ine
qu al
Ġaccom pl
ĠM and
ip edia
Av ailable
ĠEd itor
Ġcomp re
C odec
ĠDO M
ĠHand le
Ġmed icine
> ${
ĠHarr is
Ġsp ending
iev al
D avid
PRO P
B uf
Ġpack et
com pute
map s
* {
ĠD ick
Ġst rip
Pop ulated
ĠTh ird
Rel ation
m ms
all as
t re
Ġcap able
ĠRetriev ed
d ays
ĠHot el
å Ĭ
R ules
ĠB arn
Ġuser name
Ge ometry
in ject
Ġmusic ian
è ¿
re prene
ĠAr men
inter pre
Ġdr ivers
ĠSk y
Ġch urches
Own er
ellect ual
Ġex ceed
ĠTok yo
ĠM rs
Ex ecute
ug ar
Ġres istance
o en
display Name
IC ATION
AN G
example s
Fe atures
l on
ĠC ond
Ġaccur ate
iz ers
L iteral
ĠCh ile
in ces
ĠAut o
Ġm ob
Ġund ert
ĠPro du
Sports people
Ðµ ÑĤ
d ers
dec ode
l ad
Ġm ile
ĠQueens land
Ġw idget
Ġv ul
Ġch air
T uple
TO M
ir ror
": "
Ġincreasing ly
em ploy
St ub
M r
Ġn ations
re ce
r ont
Ġhistor ian
Ge ography
Ch anges
Ġc old
Ġsol ve
Ġpain ter
text sc
amazon aws
M al
con current
Ġw at
l ined
ĠSh ould
Ġind ices
ĠMo ore
ĠG ard
pr agma
Ġcrow d
sw ing
ĠD ictionary
em it
ol o
Ġret ail
A ST
s peed
Å «
ri ent
ard o
enc oding
ri ed
ĠRun time
ell s
get Class
H on
Ġair port
cri bed
v et
ĠM it
ĠLog ger
ĠSy ria
ta h
ownt own
ĠU RI
\ _
F eed
E ast
P ane
ch unk
1 16
ĠH ence
Ġr ating
Ġch ose
C trl
ĠB ible
R a
ig o
10 5
s z
g raphics
ĠJ am
Ġdr um
Ġan imated
Ġsu itable
oun ce
1 12
Ġsub t
Ġc ro
Ġst ages
-------- --
refer ences
sc ore
ĠPub lished
ĠT rack
Dec imal
D TD
k et
if ts
lo om
Ġadv ice
f ef
Ġs ail
Support ed
Ġattack ed
Ġv ideos
ĠBOO ST
Mon th
Ġr ational
unn y
cept or
Ġdrug s
Ġn a
################ ################
SP AN
quis ition
Z ero
Ġus ual
m iddle
ĠF all
Br idge
Ġinflu enced
Ġeff iciency
Ġeval uate
ben ch
he mat
? âĢĿ
ĠMat the
ĠJ ay
Ġshort ly
Ġf ly
Ġt f
ĠN FL
Ġsm art
ĠG ib
Ġinter ior
ustri es
ĠLiber al
Ġag ed
An alysis
oc ese
we ek
Do ctrine
Ġint ention
Ġannoun ce
d st
m ay
ĠA z
Ġ' #
do or
ĠK now
Ġtra ins
Ġpoet ry
ĠG ab
Ġcan vas
RES ULT
Ġte en
Ġphys ics
Ġga uge
ĠS P
190 5
b p
Ġphilosoph y
Ġl aid
C ountry
Ġregard ed
Ġar med
, $
ĠF ALSE
ĠCon st
Ġmov es
Ġh un
ol id
Ġinteg ral
ĠSil ver
ĠAnth ony
Ġmin imal
N or
ĠH or
c mp
im ize
B reak
Ġmarket ing
agon al
ic ients
Ġcl s
Ġ$ |
Ġkeep ing
Ġprinc iples
Ġshoot ing
Ġli qu
col on
Ġ# {
tim er
s quare
ob serv
Ġc lip
Ġas ym
B its
Ġrun ner
Ġg ene
Ġhundred s
ĠDet roit
Ġclin ical
ĠTele vision
p ref
Ġaccom pan
Ġprint f
Ġmeasure ments
Ġd eleted
p ot
stand ard
Run ning
Ġgun s
Menu Item
T L
Ġdi agn
d istance
Ġro of
oth s
leg es
St ud
Ġtable s
AV E
Ġpartn ers
ĠN ic
Ġre aching
11 1
C ity
hens ive
Ġnumer ical
Ġunivers ities
F re
P OS
o i
File Name
att ed
Ġstre ets
ĉĉĉĉ Ċ
ĠInf antry
ĠN ever
w as
Ġlocal ly
Ġ ing
Ġc riteria
ĠO klahoma
E p
ĠEconom ic
G EN
v ia
ou st
c urrency
">< ![
As sembly
D id
Ġcol our
ĠĠĠĠĠĠĠĠĠĠĠĠĠĠĠĠĠĠĠĠĠĠĠĠĠĠĠĠĠĠĠĠ ĠĠĠĠĠ
' _
Ġdr ums
ĠCon vert
Ġco aches
Ġmeasure ment
Ġcer emony
ĠB or
form ed
cl s
Ð ·
ĠDig ital
Ġ( %
Ġcert ificate
P ut
ĠDe ad
re le
ĠEx press
String Builder
ĠN ob
EV ENT
aa aa
pub lish
ĠAn ne
Austral ian
Ġcour ses
14 0
h us
az e
ĠConnect icut
Fact or
Ġre nt
Ġoptim ization
Q ual
Ġcheck s
Load ing
ĠF le
Ġgovern ments
Ġapprox imation
Pr imary
Ð¾Ð »
Ġ Ù
ul i
Ġdep ict
Ġ* ,
Ġvot ers
Ġseek ing
ambig uation
S ide
Ch unk
Ġp overty
ĠCom ponent
Ġal pha
db c
ass ador
Ġare n
(' ./
Ġobserv ation
Ø ¯
Ġmod es
ĠL ook
c ross
ĠDoug las
190 7
Ġdet ected
fore ach
wh o
ĠEm peror
Ġobserv e
W eek
t l
Ġpro hib
Ġsomew hat
Ġspe aking
ĠB E
Ġeas ier
Ġd ry
Enumer able
y ou
Ġ _{
ĠIm mutable
po i
Ġroy al
ograph ical
Ġd ictionary
Trans ition
M achine
ĠCommon wealth
jav ax
Ġher o
B ER
st ory
EN CE
190 9
f av
Ġinj ured
C annot
ĠHaw ai
ĠFurther more
or rect
æ ĺ
Ġmys elf
ib ilities
Ġadj acent
Ġtrans mission
Cre ated
Ġne ither
Ġbehavi our
1 17
ĠM anager
Ġvari ant
G IN
ĠD ak
Ġf i
Pre vious
Ġex ponent
BA SE
G overn
U AL
Ġpublic ations
Per iod
C amera
Ġexerc ise
Ġr is
gr icult
link ed
ĠCont in
id o
ĠCol umn
Ġco ins
Ġdef ines
Ġgr ade
Ġb anks
AC H
190 6
ĠCon stant
ĠMiss issippi
me an
h ave
us cript
ik h
Ġsuc ceed
99 99
ĠU til
ĠE uro
P riority
Ġoper a
Ġdel ivery
ili ar
Ġcom ic
Ġcover ing
h our
Ġ' @
an alysis
th umb
ĠT ABLE
ĠY outh
W ill
ep er
list ener
Ġemer gency
Ġl ose
Ġprote in
as p
| }
Ġs ed
__ ["
Ġleg acy
ĠA P
/* !
Int ent
ĠA st
× Ļ
Ġeven ing
UR N
C ulture
p n
10 4
med ium
Ġcomp ens
Ġgu ilt
Ġdraw ing
ĠArg ument
Ġaccom mod
Ġcon clusion
jack son
Å Ł
Po jo
ĠWhe ther
Ġadd r
Rep lace
C CESS
H ave
Ġcr ash
ĠK EY
HO UT
k ernel
S UB
Ġh op
s pect
bar a
local e
ĠN AS
ag ement
ĠC ert
âĢ ĺ
ĠPe ace
F igure
ĠG ordon
ĠPu erto
` )
inter val
ĠNor wegian
in us
Ġcell padding
ateg or
Ġdep os
ĠHer itage
F ace
Ġtri es
Ġsc ores
um ps
Ġdec ay
ĠLem mon
bul let
n est
. ',
Ġregular ly
Ġsit uated
ĠR yan
ĠH op
Sec ret
Ġc ached
Ġconf idence
ig e
a ire
Ġhost s
Ġa ver
Ġpar a
ĠN um
OL D
ĠWh y
Ġknow s
Ġcommission ed
ick y
Re ason
Ġdec ide
local host
Ġ' -
iffer ent
ĠP ed
ĠB ry
Ġmoment um
ĠR ey
Ï ĥ
Ġpain tings
act ic
pl ain
Ġcharacter istics
ĠR ab
por ter
j u
ĠMi ami
Ġc arri
GB T
() ">
[ -
Ġd ire
_{ (
Ġn ortheast
lo yd
Ġbo ys
Ġacc ord
ĠWalk er
ĠB Y
Ġequ ality
ĠH ug
Ġrac ial
oc om
ol ly
Hash Map
S elf
F M
con cat
Ġreg ulations
ĠOC aml
In struction
ig ator
Table Row
G rad
Ġ urg
work s
Ġsec retary
ĠE V
it ched
tr ansport
Ġann iversary
li ps
ĠEar l
Ġatt orney
ia h
ĠAl bum
ĠCh airman
es is
ĠTr ade
Ġex cess
Ġsl ot
Ġt ack
d rag
ub ern
Ġc odes
ĠZ h
fef efe
Ġsym metry
Cont in
ĠKenn edy
Ġseem ed
Ġcor relation
at on
Ġs we
â Ķ
ĠMem bers
Ġsever e
Ġste el
Ġfavor ite
Ġscen ario
Ġm ilit
ĠLouis iana
Ġth anks
Ġtest ed
Ġtransl ated
Ġv ast
ag g
ĠE arly
ĠLe ad
pos ure
E urope
Ġsub set
Ġd eleg
ur st
Ġm arg
ĠK evin
Ġp atch
ĠQue bec
Ġposs ess
Ġcy cl
ĠHon or
Post ed
ĠD est
Ġbrief ly
urs ive
d n
itar ian
ĠI L
Ġf aster
Ġsh ock
Ġcomplex ity
Ï ģ
at ibility
Ġacc um
') ->
ĠM oon
LO AD
opl us
y ll
nof rame
is ations
ĠSquad ron
Ġfeel ing
Ġfac ilit
Ġcon crete
Ġon going
ĠĠĠĠĠĠĠĠĠĠĠĠĠĠĠĠĠĠĠĠĠĠĠĠĠĠĠĠĠĠĠĠ ĠĠĠĠ
Ġ ĉ
Rece ived
b uilt
ar o
ĠS V
A f
Ġcl er
Ali as
Ġinh abit
Form atter
cl osure
Ġp ione
Ġapp rec
RE SS
ĠIt em
Cal endar
th rough
ĠIllegal ArgumentException
Model s
Ġ/*! <
Ġre in
ĠP ur
ĠBill board
ĠS to
Ġclos er
av ia
Pack et
Ġcor re
çĶ ¨
Ġar c
erial ize
r ink
aw ay
Ġcell spacing
ĠSc ient
Ġgrad ient
st ion
Sup press
in ction
Ġprefer red
f ragment
u able
Ġw x
level and
ĠTh ursday
RE T
Ġc ash
}^{ -
ĠNC AA
'] .
get Attribute
ĠB eng
FLA G
to Equal
ĠâĢ ¢
ĠBr un
Ġ( ),
! </
for all
ĠN ull
ens itive
ke e
ĠG P
Ġd iverse
google apis
S an
w iki
Ġqu eries
big g
Ġden ied
ĠIn valid
ĠH amp
Ġwh atever
ĠP as
st ates
U nd
hold ers
t v
ĠVol ume
ID E
CRE ATE
ĠD ue
S core
ĠArgent ina
Ġl ake
is ode
com es
el lo
iv idual
ĠCap ital
H C
plement ed
Ġground s
ĠCl inton
Ġocc as
Ġinter section
h ook
w en
if i
Ġpract ical
am ely
D an
Ġsp oke
com ple
ĠD ebug
pay load
mark s
B orn
I ss
Ġru led
ific ial
190 4
ir ms
b one
Ġ| \
op am
S pecial
c ity
Ġadd s
W in
ĠTai wan
Ext ra
Ġsub mitted
D iff
ri k
Ġfl ux
- ">
u ity
s ong
Ġappro val
ĠU P
Ġass ignment
Ġb id
Ġdeb t
Ġr ival
ĠCon vention
ĠM ust
190 1
cc cc
ĠB O
Mut able
0000 0000
B M
Ġin structions
ĠH u
ĠD ur
it ivity
se a
member NameLink
= &
fe atures
R ail
ĠL ag
Ġdo ct
re ason
AR D
Ġ$ $
Ġabandon ed
fl ush
she ll
il ib
Ġsim ultane
Ġenc oded
Ġnecess arily
Ġschol ars
Ġassoci ate
C LA
ĠE ag
ĠÐ ´
Ġl ob
ĠT uesday
Ġs v
ĠO k
Ġis instance
Ġres erve
_ [
ĠC emetery
B ro
i at
viron ments
ust ed
clus ions
im ore
uff ix
Ġp up
ĠN ichol
fa iled
ather ine
ial ect
Ġbo at
Ġas pect
ĠD aily
c n
Ã ´
Ġth ank
ut down
Ġcol le
m aker
Ġ( $\
Ġplatform s
Ġsim pl
N ONE
Cont ract
ĠDemocr ats
ĠWed nesday
on al
å Ń
fr ames
_ *
C r
Ġent ities
Ġacknow led
A MP
usal em
ĠVer ify
ĠBudd h
E ducation
Ġapp lies
M arch
ĠN aval
og ene
stats models
ru ction
Ġre venue
Bit map
i ac
m outh
Ġto kens
enez uel
ĠF ix
se cret
pr ite
ect ure
Ġcl im
ĠN atural
Ġinter act
Ġpr ices
Ġs elling
qu iring
ol ished
S ing
ĠM AX
ref resh
ĠMar shall
P REF
ĠC hem
reg ular
Ġad mitted
add Class
__ ,
in ator
ĠSt ore
Ġex posed
Ġsing ers
in ch
Ġpred iction
ox y
dis ambiguation
Ġpack ages
ĠÂ ©
Ġexpl ore
Ġcomp r
ut r
ĠC ow
co hol
ĠMe an
Ġrough ly
Ġcoll apse
Re act
Ñ Ĩ
W I
Ġabs ence
M c
S F
Ġres olved
Ġin herited
Ġ' ,
ial s
h al
y cl
iss ance
b ug
f ather
ad v
ĠR ound
pre pare
pi pe
ĠOrgan ization
Ġ\ (
Ġadapt ed
T yp
Ph oto
R ich
Ġman ip
Ġext ensions
Ġun us
Tele vision
ĠA le
Ġst roke
ĠAl an
[ <
10 3
I l
l oss
ĠK elly
Ġd ependent
ĠÃ ł
EN ABLE
ex cept
Vis ual
ĠVill age
com b
Ġpass ion
red irect
ĠS el
Ġem ission
Ġpublish ing
project s
ĠLaw rence
" ])
st e
Ġre ign
ĠG irl
ĠDate Time
Ġincorpor ated
FLA GS
init ely
Wh ite
Ġdoub t
Ġprec ision
mat ches
ĠPro duct
Ġmin ing
S rc
Ġa ired
up dated
Ġintegr ated
sl ider
in burgh
Ġ======= =
Ġt uple
ĠD VD
ĠDep uty
run ning
ĠB an
Ġreg istration
Ġred irect
Ġan th
Cert ificate
Ġlow est
Ġsh aring
ĠSw iss
C UR
Ġinterpret ation
}} (\
b undle
Ġ( ,
Ñ ĸ
Ġc ub
Ġcr imes
Ġemph as
contin ue
190 3
the less
Ġr ig
Ġim pl
edd ing
Ġm orph
qu ency
Ġext reme
ĠS port
Ġw rapper
Ġconst ants
Ġbeh alf
Ġpen alty
item pty
Ġlist en
ĠMay or
ĠJud ge
eg as
x sd
er on
Ġsk in
ĠGener ated
ec lipse
T ok
Ġinv asion
Ġp ixel
G it
label s
id ency
ĠN ik
^{ -\
Ġrece iver
Sh ift
ĠU l
Al ert
re ement
om itempty
Ġw ww
L ines
Ġb ias
Ġin aug
Ġle af
od ge
def er
ĠT OP
Ġback ing
ol y
ĠR ange
_{ {\
pan ic
dis patch
ĠOr chestra
Ġident ical
AR RAY
and al
N R
Al pha
ĠAct ive
IN IT
Ġimp licit
Ġed ited
ĠD al
Ġk w
ĠC ensus
ĠAnton io
\ }
ĠJ un
B ased
t ail
ĠE RR
Ġc raft
int end
mult ip
c ached
ĠS mall
let ter
AP P
k ov
s ure
elastic search
Ġnuc le
Ġwill ing
et ary
View Controller
ĠÐ º
late st
ex ecution
ĠAuthor ity
at en
Ġtop ics
ĠS oc
ts burgh
Ġrespons es
Ġre ception
om m
ADD ING
Ġl ift
Ġh ired
ma ch
Ġs outheast
eb r
Ġsum mar
ĠEx pression
Ġclos ing
Ġm art
str iction
ub er
ĠB uck
Ġconsist ed
Ġmanufact uring
_ +
ĠS ud
Ġst ood
He alth
190 2
Ġcarry ing
h is
Ġcirc uit
i op
Ġm ine
ĠInd ependent
SP AC
Ġv ectors
A I
Control s
set Text
Ġsign ing
ĠBelg ium
Ġs ender
OT TOM
Look up
ic ity
Ġb ug
Ġt ennis
Ġrecover y
à ¥
Ġb ucket
ĠB asic
Ġcompet itions
ĠBul g
Ġr c
Ġg it
ident ity
ge ometry
ĠW atch
Det ector
Ġro ots
Ġlog in
Ã «
Ġfact s
MA GE
=" {{
F etch
in os
ĠD raw
value Of
ĠSec ret
Ġwe ights
Ġst ating
Ġden otes
Ġle s
ĠAfghan istan
ĠH ills
æ Ī
ul um
Ġlist ening
Ġen forcement
n an
c op
ant on
ok ing
Ġcons ervative
ĠF M
F ac
Ġim possible
ĠV in
ĠSt ew
Ġmod er
task s
cp u
ĠT ry
f ish
ĠB us
T ry
Ġsign s
ĠR O
Ġh ole
Ġwor st
Ġlands cape
E s
ĠD ave
ail and
pop up
Ġsymbol s
ĠGr am
Ġparticip ation
ĠR ender
Mod ifier
Ġp ixels
Ġcompet e
decl are
H istor
Ġpost s
Ġjud ges
Ġs udden
Ġpl ain
TER N
ĠSe ason
% "><
ph ase
Ġentr ance
ĠH it
18 80
Ind ian
ĠIndones ia
Ġsu it
ĠCol omb
Ġemploy ee
met ic
ĠD atabase
ĠWh ere
Ġnot ification
Ġaccess ible
Ġreason able
Ġe c
Ġroad s
Ġsh adow
ĠL I
Ġtr uck
trans late
ĠAb d
ĠPortug uese
M us
Ġdefault s
ors es
St age
ĠBatt alion
Ã ª
Ġrest ore
Ġsurn ame
ĠHash Map
ĠPro position
V ol
Ġst ability
Ġpotential ly
> {
ĠRes erve
55 5
ĠSpace watch
sl ide
id ges
Ġ" ${
r uct
ĠMc K
var s
ĠRes ources
Rob ert
ĠSam uel
ĠC R
D ITION
ĠHistor ical
Ġcr icket
Ġcom fort
am an
== =
ĠE mer
Match er
Ġcontin uing
str ument
Ġs now
ous el
gu ide
Ġc ards
includ es
ĠRef orm
c ourse
Ġstudy ing
Ġsing ular
Ġexpl os
Mer ge
Tr igger
P aul
ĠR ap
m oment
P ush
Ġbelong s
9 00
V O
ug u
Ġmy th
ĠStud ios
az ure
Work er
Com ponents
ma zing
Ġs occer
SU CCESS
J ames
p ond
t ik
Ġro oms
Ġmet res
ext ensions
ĠM atch
ĠG iven
s ass
Ġm ath
ĠP C
ĠF inn
ath y
not ification
ig ible
ant om
D Y
ch at
Ġweek end
qu ant
E very
Ġsing ing
ĠDen mark
Ġaut hent
/ )
ĠD NA
(" .
iv ia
ĠE ver
Ġadult s
cam el
Ġtechn ologies
Ġa str
t ol
Pro c
app oint
iber n
ĠTra ining
l ive
Set up
A ugust
oll ary
O FF
ĠWIT HOUT
gress ive
c lip
Ġloss es
Ġcent ers
es a
m aking
ĠSy ntax
ĠI gn
max cdn
ĠS n
App Compat
Ġd t
Ġm it
ĠIn v
f rag
H ar
d iction
... )
Comm it
Ġ" #
em en
ĠP i
hemat ical
ĠSystem s
draw able
Ġin ternet
Ġfr ames
Ġ å
Ġstrugg le
Ġv oting
Ġvisit ors
Ġfle et
l ights
ryst al
Ġmeet ings
ĠM ission
C irc
f ilters
Ġis lands
Un iform
ĠSe attle
ST ART
ĠCh amber
Ġsign als
ĠM aur
Stat istics
Ġb es
al gorithm
ĠN ag
Ch o
w alk
pag ination
] ['
ĠL as
p ad
serv let
riter ion
ĠDub lin
m f
mut ex
Ġs ounds
ĠP ap
Ġb om
Mark er
WA RE
Ġpass enger
ĠWork s
40 4
ĠOper a
Ġre ar
Ġstrateg ies
on i
h att
ĉĉĉĉĉĉĉĉ ĉĉĉ
f are
dat etime
Ġsatisf y
G RO
it ative
" ?>
iz ard
Ġagric ultural
ĠC F
Ġvers us
Ġg ar
ĠM IT
Ġterm inal
ĠR ule
Ġdesc end
Ġdoll ars
ĠK er
External Task
Ġin variant
ort s
ĠG arden
Ġcons ervation
Ġexcell ent
ĠL eft
ĠJer usalem
ph oton
Prot otype
Ġhead s
19 2
Ġsub scription
ĠAl liance
Ġperiod s
pr ison
ĠI ron
âĢ¦ .
a ui
Ġres idence
ancell ationToken
Ġpop ulations
ĠJ uan
Ġ" );
Ġfall s
Ġhel per
b est
ĠYou Tube
sub Nav
L ive
[ (
com plex
Ġr uling
, .
ĠO P
Ġtr uly
os er
ĠK az
Ġfac ing
Ġread s
G reen
s is
ĠS audi
M IT
ĠP A
ĠApp end
ĠBang l
des criptor
fort unately
Dis k
Ġear liest
IT LE
Ġw aters
Ġdesign s
sub subsection
ish ment
Ġbreak ing
W ORK
ĠDe an
Ġsy ntax
Ġclass ified
che ll
Ġsequ ences
MP L
B ACK
Ġf old
roll ers
Met ric
eli hood
ĠĠĠĠĠĠĠĠĠĠĠĠĠĠĠĠ ĠĠĠĠĊ
Ġb rown
ĠP si
ĠAtl anta
Ġfor th
N ECT
ol ph
attr s
ĠB ORDER
is o
ĠM ut
man ifest
Has Been
Ġpl ate
Ġdanger ous
Ġexpress ions
m ix
Te am
or ce
Icon Error
ĠMot or
r at
Ġin fer
Ġeng ines
] ->
Ġtouch down
Ġread ers
Ġd ies
Ġm ac
Ġra in
il st
Ġn ick
Ġpri ze
11 4
DE D
ExternalTask Pojo
Mon itor
w br
Ġcoeff icients
> .</
ĠO t
**************************************************************** ********
Ġf oo
st ud
Not able
ĠH oll
Ġst adium
par agraph
ĠI T
Ġ" _
Ġc ited
Ġrequire ment
ĠSen ator
V ill
ir i
__ _
apt ers
Ġseg ments
d td
EX PORT
Ġfranch ise
Ġf lying
Ġdecl aration
Rad io
M ilitary
ĠSar ah
Ġaff ord
Ġmagn itude
ĠP rix
Ġcon tribute
Access or
Ġrob ust
ĠĠĠĠĠĠĠĠĠĠĠĠĠĠĠĠĠĠĠĠĠĠĠĠĠĠĠĠĠĠĠĠ ĠĠĠĠĠĠ
m x
Ġprodu ces
ĠC ook
ak s
Ġin finite
ĠTR UE
ĠCO VID
Ġsim ulations
Ġh orizontal
Cl ub
om as
Ġd uties
ĠYear s
ĠI mp
n c
ĠPh ot
Ġc ov
ĠT ab
IconError Encoded
5 12
Ġp and
se gment
Ġdes ire
Test ing
ĠL ock
Ä «
P ixel
Ġarch ae
ĠRuss ell
d ynamic
ĠA ustin
ari os
D istance
ĠLa ure
em pl
ĠC ole
Ġinvolv es
Ġfil ters
ĠCro at
Ġpoint ed
Ġapp lying
Ġyour self
ĠBow l
m ys
J uly
Ġex ec
Ġessential ly
ĠMark et
G N
Ġ" ;
Lin q
ĠBrazil ian
Ġdistribut ions
Ġflow s
ĠArk ansas
Ġrec all
REQ UEST
ĠSt and
pro f
B lob
ĠIm perial
), \
elf are
[] {
J une
ĠPortug al
ĠAdd itionally
"/ ></
ĠBru ce
Ġspirit ual
Ġre ward
Ġc m
Ġcommit ment
AT URE
Ġpredict ed
Ġb irds
Oper and
Ġt s
Ġhand led
Ġj unior
L ang
Ġ æ
ĠK am
n ia
1 18
ĠCh ampions
ĠN ash
depend encies
Ġh am
Ref lection
Ġnorm ally
Ġdr iven
Ġentert ainment
> ../
F ootball
ĠK IND
R oman
Ġun iverse
Ġhigh way
10 7
ĠDe ep
t oc
ac o
è ®
dat aset
Ġcritic ism
T ensor
Y our
alle st
] </
Ġpro jection
Ġinc orrect
sche mas
Th rough
File Path
ch anges
Ġqu adr
N ON
ĠS ingle
ĠK u
Ġinvestig ate
istribut ed
ĠT oken
olv ing
F ill
AS H
Ġimprov ement
ĠW oman
pt ic
cul ate
l b
ĠLic ensed
ĠT YPE
AR GET
ĠH ockey
Ġneigh bour
* ,
ĠS cript
periment al
ĠComm ander
ĠUk rainian
ĠEd inburgh
Ġcho ices
Ġarr ival
Ġprodu cers
Ġrestaur ant
> `
olv es
Tem p
Ġm oral
ĠF oot
ĠF arm
bo ards
Ġvol umes
Qu ant
he el
ĠG all
M F
P ending
Ġunivers al
ss on
f aster
Ġwith draw
Ġdisc ip
+ "
Ġtw elve
HasBeen Set
Ġcons c
s at
Ġview ed
Ġreli ef
Ġtri ple
Ġfem in
ĠPl ant
Ġorgan isation
Struct ure
ast s
ĠN eg
Ġdef initions
An im
pl ane
Ġvict im
A E
I ME
li x
ĠM organ
ul us
Ġaff airs
Ġrespect ive
Ġbr anches
m ime
Can vas
ĠAtt orney
ĠD allas
! (
P ress
D ict
Ġconvers ation
Ġcolon ial
ĠF red
Ġ< ?
Ġref uge
ct ree
f w
ev ens
Ġdesign er
Ġtransport ation
Ġtim er
as a
Dec oder
D er
mark er
SPAC ING
Ġsports people
Ġg rown
as hes
Ġh a
Ġf asc
bor ough
Ġchild hood
Ġbeliev es
il k
Ġ$ [
mar shall
Ġbul k
Ġexp ed
Ex it
ĠOr thodox
Ġmov ements
order ed
Ġinstr uments
in herited
>( <
P rom
ĠU r
Text View
Ġvar iation
Form er
Ġunderst ood
Ġcur ves
d elegate
Ġpublic ly
ĠCEL L
Ġcomp iled
j or
Ġsub mit
N eed
P adding
arg v
Ġin fl
id ad
Ġg ay
ĠPol itical
Function s
ĠT ax
B us
ĠCent ury
Separ ator
SS AGE
cl ock
Ġretriev e
A pril
Ġh ook
Ġent ering
Ġdescri bing
Ġturn ing
ĠChrist opher
ĠP HP
Ġdis estab
g p
Ġm i
Ġstrateg ic
Ġpre gn
Ġconf ront
ĠA C
Ġrepl acing
Ġfin ishing
ab ad
is co
Ġtheoret ical
ĠL L
Ġgu id
le ans
X Y
RE NT
Ġgu ess
^^ ^^
ĠE ss
ad apter
) },
Ġappear ing
g ate
op les
ĠAd ams
ĠM S
sub string
J anuary
os ity
O cc
Ġb ond
C SS
ĠL ieutenant
ĠDan ish
un ion
Ġvul ner
Ġrestrict ed
Ġthe ories
Ġ{ $
CO UNT
ĠCon sole
ĠD CHECK
Ġpass engers
Ġp sy
10 6
Ġjournal ists
ur se
ĠA gricult
Ġprocess ed
ĠW olf
per iod
Ġg ro
Ġt ank
ah o
j amin
Ġman uscript
Ġconcern ing
ump y
ĠC ra
Ġprov isions
ĠBrig ade
Ġmom ents
ĠK ings
ref lect
Ġfl u
Ġrender ed
Ġe gg
ri um
Track er
Ġbr ings
Ġinstall ation
clud ing
Ġdemonstr ated
Debug ger
ate st
ĠP rom
ob i
ĠEx p
189 8
Ġnot ation
ĠOther wise
Trans fer
ĠT arget
met rics
ĠM L
ĠOn line
D M
er ic
STR U
ĠD A
row Color
Ġfeed back
Ġmat rices
Ġdec line
Ġexp ensive
Ġim press
Ġac id
ĠB ou
Sche dule
Sc ene
Ġ} \
script s
F ixture
N a
ed ing
Ġmain tenance
Ġlic ensed
Ġco inc
u its
p ending
Oper ations
p aces
Ġan notation
en o
Ġf urn
Up dated
ĠA ug
ĠP UBLIC
des cribe
m anagement
Al bum
Ġv ec
ĠU tah
al ph
Ġint ellectual
ĠFreder ick
Mod ified
Ġspect ral
Ġb ot
Ġappoint ment
const raint
Ġamount s
A lt
ĠL P
ĠU rb
grad uate
redu ce
TableRow Color
R ound
Ġbe am
ĠW ord
claim ed
ap olis
Ġrest ored
Oct ober
Ġ" )
ĠR ace
Ġcast le
ur ers
ĠL oc
SH A
ess aging
Ġgalax ies
em pt
ĠK o
ĠH eb
Ġover se
Sh adow
Ġpresent ation
Ġask ing
14 4
Ġcommunic ations
ĠP eters
set ting
Ġtr im
g rav
Ġs essions
ĠCo oper
n ik
T X
Ġapparent ly
Ġres ign
Ġequ als
m ate
Set s
Ġyield s
Ġt ied
ĠSchool s
Ġre putation
Ġg ift
Dest roy
Ġf ault
amp s
Ġassess ment
LP ADDING
ĠO wn
] ).
Ġdyn asty
Ñ ħ
Ī Ĵ
Ġthe ater
ĠC leveland
Ġhard ware
l arg
Ġas set
ĠC lear
Ð¾ ÑĢ
Ġpar agraph
Ġprint ed
Ġoper ates
âĶ Ģ
N eg
b ucket
n ed
Ġup load
ĠMalays ia
3 50
Ġo vers
re tt
list ed
ĠT ar
at ype
Rel ative
Ġend if
ĠAd vis
Sl ot
Ġn amely
ĠD og
Data Source
Ġpriv ile
Ġliber al
lo be
S eg
D ry
Ġsatisf ied
Ġ. =
Ð¾Ð ´
ĠCELL SPACING
Ġrapid ly
he x
oun ced
ĠCEL LPADDING
ĠPro file
ow ski
Ġher itage
A zure
cl ine
Ġinhabit ants
ut ter
ĠN ation
ĠP ear
Ac adem
et ition
Ġstr uck
ĠP ref
ĉĉ čĊ
scri ber
Top ic
a que
az ines
Ġenjoy ed
P an
18 70
S UP
ud son
m illion
S peed
sect s
AC HE
Ã© r
ĠF ern
Ġoutput s
ĠMod ule
Ġl ibraries
u ary
O k
ĠTh ailand
ab stract
C am
if old
Ġresc ue
Ġcomput ation
w edge
_{ -
Ġrecord ings
ab a
omorph ism
ĠS ession
Ġt ort
J s
f am
ĠEnt ity
Ġmat ched
cast ing
18 99
Ġsurv ived
ĠThom pson
Ġadapt ation
N umer
XX XX
ĠA BC
ĠD im
a ac
ĠMov ement
Ġbound aries
Ġl oved
th a
ĠChrist ians
Ġd iversity
Array s
h alf
ĠO ptions
Ġphot os
Ġcou pling
! =
ic ious
Ġp or
ĠD ist
ĠTh ough
pe g
F ix
Ġdepend ency
Ġs napshot
Capt ure
d agger
Ġorient ation
ic he
Ġsu icide
g lob
Ġv acc
SP ACE
__ .
ãĥ ¼
Ġaccompan ied
Ġra p
ĠL INE
Ġcal endar
c ookie
Ġs a
Ġse es
ev a
10 8
ĠN elson
look up
ul atory
ick ing
yn opsis
Ġexpert s
ah n
row se
ĠTh ose
ĠI R
ustr y
ĠBe at
Ġcred entials
Ġwould n
Ġres on
S afe
ĠT s
' ):
Ġm outh
En tries
Final ly
append Child
Pop up
ĠF ive
bo y
: &
urren ce
ĠG ulf
st ub
Ġex pr
Ġch ampions
ĠE mb
Ġg ang
Trans lation
Ġsort ed
Ġres igned
Ġrep ly
Ġbe ar
Ġrem oves
Ġdeploy ment
Be havior
tool bar
Sub scription
B ul
s ocial
Ġr anges
Ġiter ation
M ix
ish ops
b t
Ġenh ance
Ġput ting
( `
oc he
att ach
ĠD ance
Ġcompet itive
ok er
Ġexception s
æķ °
faster xml
Ġ} ).
ĠB AS
id i
Read y
ĠG on
Ġthem es
Ġenc ode
g c
Z oom
ĠF ilter
OB JECT
int s
="@ +
end ers
ĠCommun ist
: %
Sec onds
Ġprison ers
respons ive
Ġfor g
Ġgen re
md c
vent ions
Ġt y
pr ice
W alk
ĠSy mbol
Ġm or
; ,
pack ages
ine a
un ing
render er
Ġexpl ains
M ail
ĠAss istant
Ass et
D one
v i
ĠMethod s
ĠAng el
ĠGr ad
0000 000
iv o
ir al
ĠR io
Ġcontr ad
ĠB art
mod ifier
Path s
Ġconcentr ation
ĠN eed
ĠInitial ize
sp in
tik z
ĠLegisl ative
id en
k n
ĠAd vent
Ġcharacter istic
p matrix
Sc an
op acity
ĠD oc
Valid ate
final s
Ġpartial ly
Rev iew
Ġcl usters
Ġfind ings
Ġart ifact
Ġor bit
ĠN i
Ġpriv acy
Ġmark er
T imes
Ġut ility
ĠMarg aret
ub b
De cember
Ġsy nd
or us
az el
Ġdep uty
? ?
Rec ip
ff ee
Ġstreng then
Ġfam iliar
ĠPublish ing
} &
Ġne uro
Dis c
Ġm acro
ĠBo ys
Don ald
ec onds
() ]
Ġwatch ing
ĠRog er
b n
ĠMc G
C rypt
Ġsuff ering
Ġill ness
Ġwhe el
U int
Ġdis patch
Pro duction
ĠDak ota
ĠCh art
ĠS SL
Ġim prison
sc ar
Ġw rap
ĠMod al
ĠM D
ĠSt op
ĠĠĠĠ čĊ
="../ _
ĠT el
E LEMENT
hy thm
or ro
ĠEx pl
t rain
Ġf aces
ĠF el
Class Name
An chor
Ġthous and
D ao
ĠG raph
ĠW right
Ġes c
Tool s
Ð¸ ÑĤ
Ġproced ures
b ounds
cy cle
et he
Ġre vers
Lower Case
M esh
ĠS ac
ĠB ull
D istribution
Ġb ra
; %
\ ":
ĠV enezuel
Ġro bot
Str ip
FORM AT
Ġind ent
. âĢĻ
ĠN ep
Ġf est
ĠNS String
br anch
ĠB eck
Ġb on
Ġadvert ising
Se ptember
ĠBet ween
10 9
ext ype
andid ate
th ird
se ed
IN DEX
Ġsk y
initial ize
sub scription
at able
Ġsc an
id al
Ġl attice
Ġam plit
Ġrecip ient
Ġcomput ing
k ar
Ġm oth
Warn ings
R ussian
Ġl ie
p ipeline
lic ity
ĠC le
Th us
dir name
Ġsym pt
B ucket
Ġform ally
G iven
Ĩ Ĵ
N P
Ġro se
ĠAn na
Ġactress es
L ite
Ġvisit ing
Ġinvolv ement
ĠCon nection
ĠC rown
rem ark
d ied
h base
Ġcompre hensive
Ġc orn
]( #
ol ute
ĠSt udio
sp er
m ates
C ookie
pro b
ĠCar ter
Ġregard less
ay an
Off icial
Ġaut hentication
Pr ice
Ġuncert ainty
K ernel
ol ate
ĠBro thers
sequ ently
Ġtal ent
Ġm igration
S uite
Ġweek ly
Ass ign
ith metic
Ã© n
ed a
Ġdemonstr ate
ME M
J o
Ġresident ial
Ġlocal e
ane ous
Pro du
Rad ius
ou ver
Ass ignment
ic ates
Ġdest ruction
sc an
N I
ov o
Ġent reprene
. ")
Ġt elling
Ġt ight
ĠÃ ī
Ġrele ases
ĠNiger ia
Ġkn ock
Own Property
LA B
ĠY e
U UID
f ac
ĠW HERE
ĠLeb an
Ġemotion al
r and
Ġquant ity
nos cript
ĠC atal
c ref
ĠFrank lin
Wh y
ĠWel sh
ĠLank a
ĠSh ah
Ġs oul
u art
Dest ination
Re ception
un s
ĠIm port
ĠW ard
cript ors
MS G
ãģ ®
e enth
ĠL evel
Mich ael
FA IL
ĠFin ancial
sc ill
Ġrepresent atives
Ġreg istry
Ġpost er
Ġhead ed
WR ITE
ourn als
ĠPro perties
c sv
Ġmark s
189 5
n l
stat ement
sp ark
Ġhor ror
File System
uk i
ĠP sych
Ġrad iation
ep age
ĠHung ary
separ ator
Ġpres ents
W rap
ĠKn ight
Ġnarr ative
ul o
ĠH ost
ĠL anc
ĠG it
sur face
ĠFin land
Ġen umer
en vironment
Ġ$ ('#
urric ane
at ile
Ġdem ocracy
oen ix
Ġtrad ing
Ġsit uations
ĠPal ace
is ons
Ġrece ives
Ø ª
cast le
Ġt ropical
Ġactiv ist
ut ely
Pay ment
ĠSever al
ash i
Ġgr ass
Ġbl ank
Ġret ained
M o
or ate
z oom
reg istry
Ġathlet es
ins ula
ĠSp irit
Ġconnect ing
om ing
u is
h ai
Ġme ets
Ġshe l
ĠB reak
2 20
post s
Ġfocus es
ĠMet ropolitan
ĠB OTTOM
ĠWeb site
' },
Ġsevent h
St d
Pay load
fav icon
L D
ĠBalt imore
over flow
Ġret ain
Ġdeal ing
Ġsurg ery
Ġcon clude
ec ess
i ang
ĠMor ris
ĠPr iv
With out
ra ham
og a
'] ))
Ġs lice
hatt an
FFFF FF
ĠÐ ¾
Ġcru cial
Ġ( `
an Ã§
c aret
RO OT
It alian
189 6
) *
Vis itor
set Attribute
hel lo
ĠC red
ort on
SER VER
Ġoff ensive
ant ed
Check ed
Ġre act
ch t
Block s
Ext ract
ĠMuslim s
c v
Ġdiv isions
AB ILITY
S ent
T ip
C a
Ġperm itted
Ġout come
ter y
] ),
ĠString Builder
" }
Ġt on
ĠAl fred
ĠOr leans
cl op
th ree
ĠPat ri
Ġart istic
ĠS ize
Ex pat
Ġrestrict ions
Ġopt ical
iz z
w ind
ĠG irls
Ġpra ised
Ġne ural
Ġlaw yers
Ġto ler
Ġpres erve
189 7
() [
] <
Ġs urre
l ua
M AN
ĠPro tection
( []
Ġour s
Ġgraph s
eg e
× ª
S ound
ĠStew art
` :
Comple tion
sample s
qu o
St yles
ĠOtt oman
Key word
Ġst ub
Ġh al
ĠAustri an
ubern etes
ĠPit tsburgh
Ġcelebr ated
U Int
her ent
FR AME
Ġal ive
ĠSing h
ĠVi enna
p od
ĠH AL
path s
Ġoccup ation
ĠL ower
ĠMont real
Ġr id
pan ies
D im
to ctree
ĠIran ian
ant i
Ġn ice
Ġclos ure
iver pool
Ġsignific ance
Ġp ictures
over lay
Comp are
Part icip
N EXT
C over
ic ular
ge on
Ġmiss ed
com ments
Ġconfig ure
j oint
p oll
ĠJ ason
\| _{
Ġredu cing
Ġob lig
Ġconsequ ence
c rs
ĠG ray
Status Code
B usiness
ĠMa ine
-------------------------------- ----------------
b ai
own ed
ĠEx change
ĠAt tribute
ĠJ enn
C lean
Ġm eters
Ġalloc ated
ind ices
Ġan alyt
back end
ĠS W
vers ions
min ute
Dis abled
first row
ĠGr id
Ġconsider able
app s
Ġpopular ity
^ -
Ġcom ed
ĠB uff
ĠMatthe w
ĠK on
Ġtax es
==== =
ĠCons ervative
Ġdat asets
Ġso il
ĠHamp shire
ĠM achine
ĠUs ed
å ľ
Un ique
ĠFre edom
omet imes
Load ed
Ġloc omot
Ġdam aged
ĠRem arks
ĠâĢ ł
) --
L ater
ĠS pr
ÃŃ n
Ġpick ed
Ġpy thon
Work s
c py
G raphics
Ġrepe at
ib bean
Ġwe ar
s u
Ġconfig ured
om atic
Ref resh
Ġto String
Ġtemper atures
ĠP rior
Ġcoun sel
Ġtalk s
Ġgreat ly
ib ling
Ġinj uries
p al
s ources
quest ion
* >(
ane an
st roke
) ^{\
is ely
ĠUn less
Ġ+ \
Ġattr s
S eq
pt s
Ġ// -->
ibern ate
) }(
Expat riate
ex clude
stream ing
ĠParam eters
ĠE u
ab ul
r ig
ĠF ight
ĠY an
ograph er
mir al
ĠS M
ĠBrook lyn
Event Args
Ġcross ing
Ġmix ing
re present
Ġput s
Ġperson ality
ilib rium
Ġ\ ;
i est
at in
Ġconsequ ences
F oot
st eps
mark et
ext ract
Ġnot ably
è ¡
ĠZ one
ĠA lice
ĠPh D
At tempt
C MD
im m
Ġre start
Ï Ģ
ĠR ot
Ġmar ine
S cheduler
In jection
Ġmid field
Ġarr anged
ites pace
S ig
hash Code
A lex
Ġfl ash
Ġstat istical
ir ates
ĠAp pe
ouri er
en ess
Nov ember
24 0
Mult iple
Compar ison
ro b
ĠCamp bell
ĠF ather
osp itals
Ġpr on
gr pc
FT WARE
Ġconver gence
ĠH ell
Ġout standing
ĠCON FIG
o il
Ġatmosph ere
F ire
ĠGra ham
ÑĢ Ð°Ð
Ġnot ion
roll ing
Ġsl ave
ĠB ed
ĠR y
ĠC os
fin ity
A K
ĠO d
ĠJoh ann
Ġb aby
writ ing
ĠNaz i
c as
ent ries
Ġlook up
ĠR ico
OR S
TEXT URE
irm ingham
ĠMP s
place ment
Ġguilt y
ĠP ad
Ġiniti ative
ĠLim ited
ĠF al
Ñ Ī
Ġs ight
á º
ĠSt age
ĠV ik
Ġex clusive
ĠBangl adesh
act iv
AME TER
Ġp ip
Ġmill ions
Japan ese
Ġman ual
Ġg arden
lo ver
18 60
Part y
ĠS R
Ġ ion
enc il
Ad v
ĠMar ie
Ġex posure
ĠRob inson
Ġh aven
ĠC er
ĠM obile
att ing
m ov
Ġd ress
Hel lo
K G
For ward
ĠInd ians
Ġnewsp apers
le af
ĠL abel
}} ^
Ġrep orter
Ġvis ibility
// ----------------------------------------------------------------
Ġ ener
ĠR ugby
Ġsupport ers
Ġal cohol
Ġref resh
p us
Ġdom inant
ĠH um
CH AN
Ġcount s
Ġve get
Rel ated
ĠL ane
Ġreal ized
work er
Ġrad ical
P ref
Bl ue
ap l
ex pl
ĠTam il
ĠBern ard
e or
Sc ott
S pe
Const raints
ĠMet ro
Ġliqu id
P G
Write Line
Ġcharacter ized
Ĥ ¬
Ġh ill
Ġste am
back s
sub scribe
Ġ" +
ĠFri ed
rol led
es c
Ġp in
Ġw orse
up per
ĠRequ ired
ĠStud y
Ġst ead
es cape
is cal
Ġc rypt
Ġrecogn ize
r ides
ĠCon struct
dis k
L ow
Ġstay ed
Ġw aste
Ġab road
ĠHung arian
it ches
Ġd ele
b ow
Build ings
ĠAn alysis
Ġdom inated
DE P
ĠRoman ia
Ġjuris diction
pro c
/** */
A U
ĠC ache
Ġre nov
Ġw ounded
Ġarch ive
parent Node
v y
? (
Ġco operation
' =>
sc ene
cond itions
atur ally
Ġconstitution al
Ġm m
Ġpert urb
ĠJ osh
Ġgener ating
inc orpor
188 9
ĠĠĠĠĠĠĠĠĠĠĠĠĠĠĠĠĠĠĠĠĠĠĠĠĠĠĠĠĠĠĠĠ ĠĠĠĠĠĠĠĠ
Ġd ating
P ipeline
ĠT ig
ID S
al yst
Ġconstitu ency
ĠL GBT
Ex cel
Ġn ested
od ot
ĠMem ory
ill o
qu er
ĠMin or
Ġrail road
I ce
app ings
Ġpre mi
P icker
Ġencour aged
N orm
Sub ject
Up per
Stack Trace
Ġtherm al
ĠCon n
Ġpat ent
ĠP ackage
ĠEd ition
ro se
am ents
en berg
Ġsens itive
B N
Ġpet ition
n ail
ĠMov ie
Ġmem orial
Ge orge
m ma
J ack
ĠĠĠĠĠĠĠĠĠĠĠĠĠĠĠĠĠĠĠĠĠĠĠĠĠĠĠĠĠĠĠĠ ĠĠĠĠĠĠĠĠĠĠĠĠĠĠĠĠĠĠĠ
p read
Ġ} ),
Ġgen etic
Conf irm
ob a
se ctions
Ġfriend ly
Ġoper ational
ograph ics
=- =-
i ot
we ak
em ed
per p
Ġm s
ĠUp per
] }
Ġcomput ational
ĠRail road
g ow
Ġt icket
Java Script
Ġcalc ulation
ort ed
Ġsam pling
é Ģ
ĠĠĠĠĠ Ċ
âĢĻ ,
aw t
Ġc urrency
ĠInd eed
Vis ibility
le e
ĠCom ics
B LOCK
Ġpublish er
R outer
Ġfin ance
189 2
ĠP un
Ġthreat ened
Ġd owntown
Ġab und
Ġcontrovers ial
ud o
ĠA uth
Ġconvention al
M iddle
Ġmanag ing
æ Ĺ
In line
se g
iff s
char acter
IE W
ha us
Af ric
ĠMur ray
Ġdepend ence
ĠCre ated
Cred entials
. ;
B D
ĠT an
ĠN othing
IL L
Ġf oc
apt ist
lik ely
C ould
ar us
Ġ-- -
y c
et c
cont ainers
Ġfall ing
Ġen vironments
Ġin duct
ĠWar ren
ĠCommunic ations
Ġactiv ists
Ġimm igration
ĠC arn
Ġgu y
NG TH
on ed
t one
Song s
it ure
um ed
iv an
b ors
ĠJava Script
oth y
allow ed
Al so
Ġdevelop ers
ĠFin ance
Ġ= ================================================================
Ġsym metric
Ġaim ed
ug osl
Scal ar
Ġdise ases
est ure
ĠW ait
Ġb ishop
Ġ( );
Ġdef ensive
ĠSum mary
Ġmach ines
Ġan cest
Ġelse where
Ġconsum ption
Request s
Ġscal es
ract ice
t uple
rac ing
umb ent
Ġint ensity
Ġth in
Ġthread s
Ġisol ated
Ġwith d
M ov
Def ined
Ġa ims
over ride
ught ers
100 00
ĠU pon
STRU CT
Ġembedd ed
{ $\
189 4
Ġfra ud
w inning
ĠC ultural
Ġexist ed
S al
M art
ç »
Ġpres erved
Ġass ass
ard ing
Ġir re
} ))
ĠN ature
ĠCh ampion
C amp
189 3
ack s
ĠH ope
wh at
------------ -
Ã ¦
pre view
ĠS ide
g ui
ult an
Ġ"- //
Ġalign ment
) ^{-
Ġst im
Ġviol ent
ibr ation
am ond
Al ign
ĠGa ussian
S lice
Ġd ust
ater al
int o
Ġshe et
ann on
oriz on
Ġev il
t z
Ù Ĩ
ut orial
ĠL ith
dem o
Ġd ense
Ġcancel led
ĠT EST
Ġrel ax
flu id
lot te
Ġnot ify
Ġrel oc
Ġdecre ase
---- ---
Sche me
Ar r
ĉĉ Ġ
Ġminor ity
ec ycle
U ntil
Ġtri als
R GB
Ġpo em
S mall
Ġr m
anc ouver
ath ers
5 000
help ers
u ates
ĠA WS
sl f
over e
Pe er
ĠB egin
ĠCom puter
Sur face
at ivity
t m
18 88
std err
form ing
Ġcomp ile
c ia
Ġconsider ation
ij ing
Ġord inary
Ġcon gress
oust ic
Ġr ising
ĠBr anch
x f
LO B
Ġwor ship
Ġkind s
enc er
ĠU lt
Ġsimultane ously
ab et
In ject
the ad
C he
> [
c ord
w right
Ġprov incial
Fore ign
et on
Ġlist eners
lock ed
ĠO K
I ES
Al ignment
ĠEgypt ian
. &
Ġm es
Pr iv
ĉ ĠĠĠĠĠĠĠĠĠĠĠ
: /
to LowerCase
Ġequ ipped
Ã ½
189 1
S n
ĠD ie
Ġtext s
Ġo pp
et ry
Ġ(! (
Ġrel ating
Ġround s
................ ................
// !
pos er
) _{
Al gorithm
sign al
. :
12 4
ides pread
D ist
Ġcor ruption
non atomic
ĠCh air
Ġwalk ing
ĠS ET
Ġs ink
AA AA
tr as
vent ory
Y S
Ġincre d
l ings
on na
ore st
ĠDec l
Ġflo ating
lic t
Ġinflu ential
st ers
ME SSAGE
Ġcount ies
Per cent
Ġremain der
Ġunus ual
//////////////////////////////// ////////////////////////////////
Ġcollect ive
quir y
Ġmag ic
LE V
Ġdecl ined
ĠE C
Ġrank ing
Ġc fg
ber ry
Ġscal ing
mod ified
C tx
Ġin verse
pack et
11 3
fact or
ĠR ub
ĠL iving
St ation
incorpor ated
Ġo scill
188 5
Ġinform ed
. ),
D imension
Ġaware ness
ĠC C
ok u
ĠÂ »
ĠB aker
ch rome
ĠM other
G ateway
Ġpro tests
m ass
p k
Ġpremier ed
t own
Ġb igger
Ġconcept s
ĠZ end
L i
ĠJon athan
ĠB ag
Ġt ar
ĠS ave
ĠS ymfony
Th ree
block s
Ġt urb
: @
et ies
if ference
Ġa ux
New s
et al
ĠL uther
ĠA rena
Ġsp oken
Ġsat ellite
Equal To
s am
Ġj ury
Ġfe els
our t
Ġleg it
Ġreve als
Ġfair ly
ĠKar l
it is
ĠG las
Ġpain ted
B etween
Ġprot otype
Encod er
T oday
h w
Ã³ w
AC CE
Ġrom antic
Ġform ing
V P
em ale
ĠCON DITION
Link ed
ĠStan ley
Ġtrack ing
G ood
vis it
Ġking dom
Ġsound track
ĠB ey
ĠB ody
ĠH erm
Ġgalax y
Ġsub mar
Ġdifferent ial
A ir
r x
ĠNew ton
Ġconv ex
omorph ic
Ġpass age
m ust
re ports
Ġprov iders
ĠC lose
OPT ION
ĠCr ime
ĠA qu
ĠMan hattan
Ġchalleng ing
d al
f iction
Ġst ake
neg ative
ĠC S
V C
ĠR ud
>: ]<
ĠJ u
gener ic
Ġlog ical
zer bai
ir k
d ating
ac re
Ġfund ed
serial ize
ĠG ary
ĠM ind
ĠM eg
Ġtra il
Back end
C ost
/ '
place holder
ens ing
ĠF ont
interpre t
Ġw rapped
ĠThe ater
Ġind igenous
s ender
ĠM ong
t ax
ĠU SE
Ġpro sec
M ass
cont ract
Ġfl uid
Ġpro ud
dest ination
ĠM ak
Ġrep o
ĠMount ains
For ce
S heet
Î ·
ham mad
Ġval ley
Ġ' ')
Ġh at
St mt
c amera
Ġn urs
O bserv
Ġsepar ation
ĠR and
> ()</
ĠT itle
ĠP erm
n pm
Ġs itting
dd ie
err anean
ĠN am
Dep loyment
Ġnom ination
Co ord
Ġfru it
Ġinter mediate
Ġdistingu ished
Int roduction
; ]
ig s
S chool
ĠS cal
Ġg iant
Ġcap abilities
Ġmass es
Ġcol leges
ĠM aj
Ġcritic ized
ĠStud ent
}$ -
ĠPer formance
P aint
Ret ry
m icrosoft
Ġ# #
="# "
ĠH end
!\ !\
ers et
E lect
f our
ol s
Rep ly
Ġimm igrants
ĠMad rid
LIN K
is i
ri al
ynchron ous
vel ope
ĠT ower
ast ery
ĠM ars
ĠH old
User name
F ake
inc ipal
end region
An notations
Ġconv icted
ĠPalest inian
n io
Ġneut r
ol ia
Ġmer ely
ĠJim my
per cent
3 000
Ġt ip
Ġcompos ers
r ish
NotFound Exception
ĠT ool
Mod al
Ġident ification
Ġcoal ition
IT H
if ting
Ġro uter
13 5
us age
Ġeval uated
build ing
z es
Ġsuccess or
---- -
Rece ive
="# ">
s With
ĠR andom
ĠAr n
ĠQ String
Ġlegisl ative
se p
ĠT ake
Ġac quisition
ĠSt orage
G M
ĠBroad way
ke leton
qu ick
ĠPh oto
Ġfrequ ent
T om
Ġst y
Conn ector
Ġven ues
ĠBAS IS
af ka
Ġencour age
Ġ ur
develop er
Ġkw args
TO DO
ot ions
}^ *
u pt
ipp et
Ġda ughters
ur ring
ĠCommission er
oid s
ĠSh ar
it udes
ear ing
Draw able
String s
ĠComm ons
ĠPr imary
Ġautom atic
Ġcons ent
ĠL iverpool
ĠPr incess
ĠB enn
ĠJos Ã©
per mission
$ ).
ne ed
18 65
. ');
ĠCirc uit
ific ates
ĠCONDITION S
ul ates
Ġb orders
ĠCl in
Ġelectric ity
ĠEnvironment al
ers h
Ġhe x
S il
<? >
an ian
c ost
ĠD at
Ġs av
Ġem it
; -
ĠT ob
ley ball
Ġmed ieval
Y es
× Ķ
Ġel der
T ur
C ross
12 1
Ġw ine
H ook
b ach
u h
ow ed
Ġsusp ended
Ġlong est
or ous
ĠBen jamin
ĠEv ans
âĢĻ .
Ġfew er
Ġattrib uted
ĠS elf
ift y
second s
Ġaddress ed
tr ansp
Ġne arest
Ġrepresent ations
ro v
ass y
last ic
default s
) \\
part ition
ch arge
Ġr ivers
b ishop
Ġmin i
uc ene
} )$.
bad ge
\ /
comm unic
ke ley
ĠS r
jb oss
C alled
size of
App ly
Ġpand emic
G a
ĠR oom
Ġ/ ></
Ġnav al
Ġland ing
R IGHT
Ġcheck ing
Ġemer ged
Ġd ated
t ility
Ġrem oval
d ump
ĠParam eter
Ġinter rupt
it ime
config ure
ĠChar lie
l ocals
ĠMo z
Ġc rown
Ġbelong ing
B road
k an
TO OL
Are Equal
ac er
å Ľ
s leep
ĠB illy
Ġc ous
i em
)$ -
Ġcompet ing
Ġelect oral
Ġcomple ment
ĠEn try
Ġre try
Ġo cean
or o
ĠAl aska
V I
Ġcoast al
Ġdef ence
Ġstruct ural
Ã¨ re
Pol itical
Ġrecover ed
Ġsu ite
lv m
ĠOper ations
Â Ń
++ ++
Ġr hs
re ck
ĠMult i
? </
L R
Ġun expected
B ur
Block ly
Ġharm ony
Ġlocal ity
Mar shall
Des pite
Ġph rase
ĠG C
List eners
Ġstream s
ĠTe ch
p riority
$ $\
it ations
ĠB ind
Ġin clusion
ĠB achelor
ĠG ET
re view
Us ed
ĠVar iable
ĠA y
F ebruary
Ġf oss
is an
if le
ĠLINE AR
s creens
ĠGu y
Ġdat etime
chi at
ĠRes pond
ĉĉĉĉĉĉ Ċ
{ },
un i
Ġf ishing
get Text
Ġw idespread
Ġag gregate
Ġtra ject
Ġann ually
Table s
ĠTrans itional
Ġcalcul ations
Ġmonitor ing
ĠSal v
osp el
3 20
ĠCar ibbean
m und
ur ities
Ġtransform ed
Ġjud gment
s ock
E r
Ġwhen ever
Ġrem oving
Ġsuff ix
Q t
tern oon
ĠO bl
ĠMit chell
Ġcontrovers y
prec ision
En c
ab i
Ġp tr
ĠSO FTWARE
:: $
ĠA I
le te
18 50
ĠPort land
ĠDel hi
Ġd x
get Key
ĠR ural
Ġqu iet
Ð¸ Ñı
ĠR ic
Ġval uable
h p
Ġweap on
PO INT
Br anch
XML Schema
AUT H
ok a
Ġpay ments
Ġall ocation
Ġsynchron ized
Ġcl ar
ĠDef ence
c ill
Ġbeaut y
ab e
Meta Data
ĠĠĠĠĠĠĠĠĠĠĠĠĠĠĠĠĠĠĠĠĠĠĠĠĠĠĠĠĠĠĠĠ ĠĠĠĠĠĠĠĠĠ
Ġagric ulture
V ariant
ĠB irmingham
og ue
ĠW ik
ĠFe ature
ul u
ĠBar bara
) &
Ġarg ue
inn ed
an ne
Ġperm it
Vill ages
ĠW as
clus ively
Ġcon fer
~ $\
th ere
ĠSoc orro
Ġcouple s
Ġbl ind
ĠPark er
duc ational
on ian
Pub lish
ĠP ictures
Ġdis p
c art
LE S
ir ical
c atalog
Å Ħ
Ġsurround ed
Europe an
ter ior
ĠPro test
Ġphot ography
Over lay
ĠIm m
Ġt all
Ġvess els
un iform
ĠY es
Ñ İ
Ġorgan isations
Se ason
ĠC atalog
Ph ase
ĠMat rix
Ġarray s
Th reshold
Ġillustr ated
onom ous
ĠL ie
O h
display style
Ġg ate
m akers
Ġguarant ee
S ever
ĠCh allenge
Ġlif etime
ĠHawai i
Ġinnov ation
Ġhypot hesis
Ġa mazing
ĠNov a
NE W
) {\
ĠCont ainer
Ġinitial ized
input s
Ġf ixture
Ġbe ach
C ritical
ab ling
ĠR PC
Ġind ustries
ver b
ĠWay ne
Des cribe
Ġhon est
PREF IX
CL I
18 61
sl ot
Ġc c
ĠBl ues
ĠL ess
ph an
u eto
Ã¶ r
Rail way
Ä Ł
(" <
Ġimprov ements
re ach
ĠTh row
ĠCat hedral
stit u
short cut
Ġeng age
Ġstrong er
en z
b oth
d ale
rac le
Re q
ffff ff
Ex ec
Ġinvest ors
W ell
ĠF i
An n
Ġ[ \
Ġnormal ized
Ġun success
Ġcred ited
r ang
Ġphotograph s
} "/>
ĠK it
Ġor th
ĠAnd y
Ġdialog ue
M X
Ġnorth west
Ġth irty
ĠColon el
Ġdeploy ed
en h
ĠEn able
Ġf abric
Ġart ificial
Med al
Ġther apy
R ank
op ic
Ġpurs ue
ĠP ast
S PE
ĠR aw
T ITLE
00 5
re z
ĠLear ning
ident ial
Ang le
Ġreg iment
Ind icator
ine e
Ġsupp lies
PAR AM
ĠH ero
Ġmount ains
Ġviol ation
Ġel igible
Ġt act
writ ers
idel ines
if rame
ĠCh rome
Ġre ven
Gener ate
Ġcomm em
ĠColl ins
Ġrem ind
ĠI an
CC CC
Ġdef initely
ĠNorm an
ĠE N
Reg istration
ĠElement ary
erv ing
Ġcond em
S ink
ĠM C
AR CH
pres erve
be at
Ġdiscuss ions
Rec ords
Ġfarm ers
Ġas semb
Ġexhib it
Ġspe aker
ĠCon structor
att en
ĠJohn ny
ĠB ron
ĠCh ron
erm ont
Ġprof it
ĠEm ploy
ac ion
un stable
hib ition
Ġc ss
Ġdis crete
I BU
prot oc
t ele
vis ibility
ĠSt ars
ĠR ain
ĠC E
to kens
GRO UP
ĠL ore
qu et
188 7
ch arts
miss ing
( @"
Ġ$ -
Ġhash Code
18 64
ĠArab ia
Ġ// !
ra ble
Ġkey board
Ġ" ./
Ġrespond ed
Ġ à¤
Ġinter pol
Ġoccasion ally
ĠCom ment
Ġz ip
re ts
Ġcoeff icient
y aml
ĠChristian ity
Ġdire ctions
M obile
ĠO pt
Inst ances
List s
bit coin
ĠSt ra
Ġbreak s
Exp and
m any
ĠInt elligence
Ġp ushed
book s
ra ctions
×Ļ ×
ĠSt orm
Py thon
re ply
Author ization
ĠIm Gui
Ġcut s
c ong
Ġbeg un
struct ed
Ġterr itories
FUN CTION
ĠM ess
Ġsl a
Ġob server
ĠF R
m usic
Fr ont
Ġexc ited
ĠStud ents
F ROM
Ġatt ach
or ia
Ġsympt oms
Ġincre ment
ex isting
ĠRepublic ans
BY TE
i ator
Ġsuper ior
Ġsil ent
N ested
ik o
g un
Ġinterview s
add EventListener
188 6
] *
en ario
ĠT ak
ili ary
Ġris ks
ĠR ick
Ġhealth y
h ill
s By
B ag
Ġcall er
dec oration
Ġr ide
Ġsurv ive
Ġstar red
Ġdiscrim ination
Ġt ile
Ġc up
CL U
F oo
ĠD evelop
scri ptions
Ñ Ħ
p ixel
ĠDis play
Back up
Ġassum ptions
Ġt ur
im edia
ĠElect ric
ĠTro phy
Ġdis order
Ġperform s
Ġst ellar
Un able
pe ated
ĠF ine
Ġst retch
ĠT ournament
UN K
N EL
L ONG
P FNGL
as ant
Ġco oper
col ors
ebr aska
S IGN
d m
ĠJ azz
B T
p f
ĠC ass
ĠX ml
Ġd ump
ueto oth
h um
ĠT i
ĠS S
ĠConf eder
trans l
Ġsufficient ly
e ctions
ĠN ad
H y
Ġl lvm
ĠB ud
window s
or um
Part ial
Ġcomp licated
\ )
ĠM s
,\ ,
ĠPos ition
ut o
ious ly
Allow ed
LE NGTH
ĠProf essional
lo pe
Ġfor get
An aly
Ġindu ced
ĠW rest
Ġout line
" </
Ġcred its
Ġpaint ers
am o
Any Ref
ur u
Ġscript s
ĠUrb an
Ġpredict ions
Ġr anks
mult iple
ĠB oot
The orem
min ip
p lier
}} ^{
ch annels
Ġdem ands
Com b
Ġimprov ing
Î »
ĠInd ustry
Ġg allery
Ġserious ly
st ock
Ġpro pose
Custom er
ĠCol lections
H ex
Ġ/ ><
reg ex
ĠFac ulty
ĠH MS
bal ena
Ġun like
rack et
Pr imitive
ĠCom par
MA SK
ogene ous
el ines
process ing
Ġb acter
for ced
SD K
M a
Ġinv oked
Ġ ray
. -
Rece iver
Ġbr ick
Ġdis ag
off icial
ĠStruct ure
Ġsur prise
ĠK os
ĠBr and
J ew
Ġj et
do i
us c
G l
ĠV egas
ĠS outheast
remove Class
R M
Ġre aches
Ġd iver
Ġhealth care
Ġh ip
ard ed
Ġup grade
St ates
B ecause
ĠPhil osoph
188 4
ĠH ad
ix on
ĠCh apter
Ġag es
Ġtroub le
Ġaccord ance
18 00
he alth
= &#
S en
Ġlab our
Sh are
=" //
ĠCarl os
ĠF eb
Ï Ĥ
Ġsim ilarly
text area
ĠMic hel
Reg ular
Ġ! !
Ġmiss ions
Ġ' </
Ġfe es
ĠP red
s ime
govern or
****** /
Ġâ ĨĴ
Ġt ies
ĠCub a
Ġdifficult y
Ġb ases
b uffers
Ġst em
ĠLin ux
Ġprepar ation
Ġhabit at
ĠAdd ed
ĠU g
Ġspec ifies
Ġvary ing
ĠForm at
G UI
ue z
Ġk it
T ARGET
Ġw ider
S ol
ĠI ce
ĠN BA
Ġb ars
ush ing
4 50
I ll
ĠH em
A ud
Ġsatisf ying
Ġmon ument
. (
ERT Y
Ã§ Ã£o
Comple ted
sime q
om y
Ù Ī
Ġf at
LEV EL
\\\\\\\\\\\\\\\\\\\\\\\\\\\\\\\\ \\\\\\\\\\\\\\\\\\\\\\\\\\\\\\\\
Ġpan els
ag h
Ġprec isely
Ġc inema
enn ial
ĠE ffect
Ġcolle agues
ct rl
ĠC arm
ou p
) '
ĠSong s
R ay
Ġ' ../
Ġdef ining
Ġpass phrase
ĠL A
Dis patcher
Ġsac r
Ġre lying
Ġf ul
Ġdeb uted
og g
> ');
Ap pearance
() `
)} {\
ĠG ot
ĠSt yle
ĠMar vel
bour g
get C
L com
Ġestablish ing
ĠS chema
Ġgrad ually
Ġelect ro
Con version
pub lished
Ġchar ter
Ġpro x
Ġfunction ality
im ir
ĠY et
Im ages
inst ein
> ';
xy gen
ĠP il
Ġp s
ĠGener ic
pro position
field set
Ġagre ements
variable s
im o
ĠArch ives
c ategories
ĠN ord
iv ic
WAR NING
Ġamong st
Ġ' $
ass et
PI O
ĠS peed
Å ¿
end um
res olved
ĠC BS
trans fer
ĠSt ill
Ġ. /
Ġrender ing
e i
aval ry
Ġas c
}} $,
Ġbas eline
Ġ[ {
> )</
L and
ĠB ound
ast ro
ge om
i ology
um ar
Ġc url
Ġrep air
ĠSerb ia
Ġsub group
Ġs alt
Ġd rew
keep er
ĠSw itch
Ġattempt ing
AND LE
c z
Ġsent enced
ĠTest s
ĠĠ čĊ
ĠAl tern
\ {\
minip age
ĠM I
Ġwe aring
Ġre ly
ĠO cc
ĠPol y
Ġt um
ĠD evice
17 0
Ġforest s
Ġprofession als
ro oms
Ġas ks
sp l
A ff
Ġc ookie
it us
Ġc am
ĠAnn ual
Ġreve al
re verse
ĠWith out
M ont
Ġclaim ing
Ġdeep ly
g ies
Ġguitar ist
å ¯
Ġinter vention
Ġdes ert
ĠInst all
Ġwh ilst
Ġsold ier
Ġcontract s
Ġs ensor
ĠPl atform
Ġd jango
ĠGu inea
ĠTrans action
Ġra ising
uk a
Ġb at
ath on
Ġspect ra
;" |
ĠV I
Com plex
Ġposs ession
Ġto w
MA IN
Ġac company
ent e
Ġg od
Ġb are
Ġt unnel
: -
Ġd ialect
Ġmechan isms
ĠGL enum
font s
read cr
AR K
Fil ename
ĠV ancouver
ĠBe ijing
erv oir
IBU TE
ĠL ayout
al ter
ĠS ax
ĠG un
ma jor
T oggle
od b
HO ST
con duct
ĠAlbert a
Ġsouth west
Mult ip
E ven
Ġw arr
cel ona
ĠMu hammad
ĠW ang
ĠM aterial
ĠCl ar
PAR AMETER
Ġover view
ĠW ing
ĠA ld
Ġgener a
Ġclose st
/ (
: }
Ġparliament ary
en kins
G uid
Ġmag azines
Ġb ird
cover ed
ĠD I
ĠFact ory
Ġb attery
ĠS ex
Ġslow ly
ĠBar ry
t iny
exception s
16 8
j ud
Event Handler
Ä Ļ
G T
ĠP oll
16 9
Ġ utils
ĠC NN
Pro of
RO W
car ousel
ĠGre ater
T or
Ð ±
Ġl ambda
Ġdis appoint
Ġch rome
Ġhy brid
ro tt
âĶĢ âĶĢ
Ġprom oting
ĠN BC
Ġwel come
Ġat omic
ĠR elease
ä¸ Ń
Ġ/ .
PT ION
L em
if iable
Ġfiction al
$ ;
poly mer
Ġven ue
18 63
par allel
Ġexponent ial
Ġbi ological
Ġcrick eters
Ġdiam eter
Ġpre dec
Ġreg ulation
Ġatt ending
comp atible
elect ed
Ġact ed
Ġg lyph
job s
ĠNev ada
[] )
Ġflow ers
ynam ics
Ġchar ity
go al
ĉĉĉĉĉĉĉĉ ĉĉĉĉ
ĠW a
Ġlo ader
ĠH ig
ĠGener ate
---- --
Ġcl ause
lic al
' }),
or acle
com par
12 2
E mb
el en
ĠTurn er
ĠL ad
Ġf ib
Ġn est
y arn
18 62
DI RECT
Ġ= \
Ġadv is
ĠEconom ics
am pton
ĠP od
Dat aset
(" -
Ġpro c
ĠId ent
Ġmolec ular
ĠSet tings
C art
ĠB es
) }}
Ġequ ally
H idden
Error Code
Ġconflic ts
EE E
custom er
ĠColomb ia
inv oke
G re
Ġfoc using
"> &#
ele ss
S panish
Ġattract ed
Ġt ie
ĠTh er
Ġvari ations
Ġcitiz en
Ġh orses
Ġre striction
00 2
Th omas
Ġpo ems
ĠAlex and
rg b
Im mutable
ordin ates
ĠMed it
ĠDr ive
Ġcan onical
NO SCRIPT
et ics
ess ment
ĠB rowser
ĠInter face
P atch
Ġen ables
with out
ol en
Ġelement ary
Ġvess el
ĠFor um
comp ass
Ġhand les
Ġbr ig
UM N
ert on
Ġearth qu
ĠUnivers al
/ #
à ¬
ĠM ack
ĠO THER
ĠD ATA
Ġd ot
Tag Name
im plementation
R atio
ĠFI FA
the mes
^{ +
ĠYork shire
Perm issions
Ġpe ers
Ġhistor ians
Ġo x
ĠN AT
Ġconsum ers
ĠP ow
ĠPol itics
ĠP arent
Ġap artment
Ġest imation
188 1
ĠNO TE
Ġpay ing
oc o
Ġon click
rist ol
Ġop ens
c x
Ġtr ivial
Head ing
Ġ( #
ĠM ans
ache l
Ġinc idents
S pring
t cp
. ";
Ġb ott
Ġd ub
ĠDo es
ĠHarr ison
cor rect
over y
Rep resent
Ġsurpr ising
H ide
Ù ĩ
ĠF ast
che str
Ġbusiness man
Ù ħ
ĠV el
ab sol
Ġ ÑĤ
ĠN ar
ĠCons ider
Ġa ug
ĠTra il
Ġad apter
ĠSer ge
ĠDet erm
ĠB ased
im iter
F ar
ĠJ ama
car bon
P ages
rop ic
Red irect
Ġrecon struction
Mod ules
g ray
Ġep och
Par cel
m issions
Th erefore
Ġ" --
tab End
ĠRobert s
ĠH il
ĠClass ic
sh iv
sh arp
188 2
Ġmechan ical
ens ively
F W
S ocial
Ġco in
ĠS now
ĠB asketball
Ġw et
Ġ' {
thread s
ĠL amb
ĠS even
it ro
DE V
ĠResult s
ĠSt ein
ĠShe l
Ġelim inated
Ġmin isters
| _{
ĠW arner
b matrix
Ð°Ð »
Perm alink
cri ptions
ĠTre as
Å Ļ
I OS
ĠN an
Ġcampaign s
=" ./
C lip
in ery
ier ra
ĠMay be
Ġreported ly
Ġelect rical
Ġant icip
p iece
' +
ĠA zure
Is Null
Ġrare ly
T ick
ir s
d ed
st ad
ĠAthlet ic
Ġportray ed
T own
st mt
Ġb io
Ġr ub
Variable s
Ġderiv ative
Ġgr pc
Ġd s
Ġmod ification
.~ (\
Ġat om
ai ro
om on
ĠF itz
Ġdis pute
ĠC old
Sign al
Ġscient ist
Rout ing
ĠI C
ĠHind u
ak u
Serial izable
ID ENT
sm art
Ġex clusively
ĠF alls
Ġneut ral
ĠF loat
sp ot
=" <?
Ġ" ")
LO AT
ĠCo al
Ġcas ual
Act or
Ġarrang ement
ĠM ET
ig ion
($ _
M argin
Bind er
ĠVis ual
Ġassum ing
Ġph arm
ĠCon cert
Ġsurv iv
Ġdec ode
m ill
Ġcoll ision
Ġre produ
Ġsp okes
Ġvis its
ick en
Ġdepart ure
Suppress Warnings
A IN
ĠL ud
cy clop
Ġre quiring
d w
14 7
at iv
raz y
N U
Ġnegot iations
Ġx si
K EN
sub str
NUM BER
B oth
Ġn aturally
ĠV a
l ater
È Ļ
Ġref lected
el m
ĠJ e
prov ed
Ġm k
Ġqual ifying
ins ic
Ġden oted
Ġm esh
ĠC T
F ilters
Ġasym pt
Ġf atal
Ġfinal s
Art icle
widget s
un its
V A
Ent ities
Ġany where
Ġent ropy
P ACK
g em
ĠH orn
Ġenc ryption
g h
Ġpart ly
Cre ation
ĠE sp
Ġobt aining
Ġout break
B oot
Ġp ian
ut ors
ĠR ank
ne e
ĠGlas gow
Ġdis aster
' (
Ġn an
Component Model
V IEW
ĠP ont
ĠAm endment
Ġproport ion
T IM
me asure
uss ia
ĠY ugosl
Ex press
Ġdoct ors
H int
Ġfil med
ĠTreat y
Ġdep ression
Read Only
] -->
conf irm
Ġinterpre ted
ri el
iv ot
Ġs oph
Ġinstrument al
Ġm ess
h arm
ĠLe ader
Ġinsert ed
ĠDer by
ĠK an
Ġpe oples
ov iÄĩ
Ġfant asy
ĠL yn
ĠHamilton ian
Ġd type
U TE
Ġe at
oc ent
ĠSte el
Ġr anging
ĠProt ocol
get Property
Ġgener ations
ĠBut ton
188 3
}} $.
ĠS ay
Ä ħ
s ame
Ġprov en
Ġpul led
( ",
Rev ision
ĠNichol as
q q
ĠD id
cel and
Ġl in
CON NECT
Cap acity
$ ^{-
Ġ ib
' "
Ġstrict ly
ĠD ays
ĠV iol
ĠD IS
Ġtown ship
ra ise
ĠT otal
ĠH D
Ġlog o
Ġeng agement
ph ere
MA KE
ĠFI LE
C op
er en
um per
mys ql
H D
ĠCamp aign
DE LETE
Ġdevelop er
Ġs ock
ĠS uccess
Ġch amber
Ġmarg inal
Ġdefe ating
Un ion
Ġ(! $
ĠSh a
Ġdev oted
ĠMil an
ĠP FNGL
qu arter
amp ed
il ia
ĠA zerbai
Ġdevelop ments
] >
13 6
ĠM ason
B g
Ġb ath
ĠSym phony
Th an
ĠĠĠĠĠĠĠĠĠĠĠĠĠĠĠĠĠĠĠĠĠĠĠĠĠĠĠĠĠĠĠĠ ĠĠĠĠĠĠĠĠĠĠ
Ġhol iday
0 100
ĠA udio
b ie
le arning
Ġport s
ÐµÐ ´
Ġguid ance
ĠA UT
pay ment
ĠMag ic
p referred
ĠPr adesh
Res earch
Ġhold er
v p
pre vent
ĠMedit erranean
Ġsk ill
ĠB urg
x e
p arsed
sh aped
Ġc able
ĠS aints
In clude
Ġcom ics
Ġview ers
ĠH IV
const ants
vert ed
DO CK
Ġt ill
Ġp arsing
sub title
O rient
T i
ĠS A
Ġgr am
Pred icate
Ġreal ize
ster dam
C AL
Ġc p
ĠM yst
../../ ../
Ġent hus
ĠAthlet ics
Ġv ital
ĠB ot
m g
Ġemph asis
au er
el o
F rag
ul ative
t ies
ĠChar lotte
Ġrow span
Ġtarget ed
> /
Ġaf ternoon
@ {
}{ |
Ġsustain able
Man ifest
PA SS
g ender
dis c
Ġg ard
ĠGL int
al tern
Ġparticip ating
ĠPar ish
Add ed
M ean
L aw
Ġ Ã©
Ġdem ocratic
Ġup coming
ĠPer u
ĠF BI
Ġg olf
Ġpr imitive
Ġback up
L ou
Ġmar ry
Ġaltern ate
Ð Ł
ĠU TC
Ġop ponents
ĠBelg ian
Ġinsp iration
ĠM icro
z ant
map sto
c g
> ("
G old
ĠValid ate
Ġdis plays
PL ICATION
ĠA F
? )
ab b
Ġd w
Ġg ross
c ock
h uman
ĠIn n
numer ic
ch arg
m atic
Ġs ad
Ġapp s
C V
ĠIN T
ĠM enu
INST ANCE
Ġre cre
d atab
Ġrefuge es
Ġtrans f
gu ard
or f
Ġcompens ation
Ġfail ing
g om
table s
ĠU E
ĠIn it
ver bose
Ġf irms
Log ging
Ġhapp ening
inc inn
Ġauthor ized
for ge
ĠCons erv
ĠF ly
ĠLiter ature
b id
ĠL is
ĠF am
Ġthe at
Ġdo ors
E MP
ĠF err
Ġinv olve
out ube
ĠI MP
Ġs ick
Ġab b
Ġim perial
s napshot
ĠAct or
ĠST AT
Ġcivil ian
V oid
ĠT u
Ġserial ized
ri ble
Ġabsol utely
Ġdelay ed
7 50
Ġc ul
it ational
ĠPier re
ĠERR OR
Un its
Add itional
Ġarr ive
b re
ĠTig ers
H en
å ¼
uc lear
ĠO UT
ĠRich mond
oxy gen
l ag
Ġt ough
ĠPr ice
Ġadv ers
button s
w ave
Ġpre dom
Ġref lection
ĠAnd re
Ġprocess or
Ġqu ote
[ ],
om ething
Ġorder ing
Ġmount ed
LE N
Ġtrav eled
K ing
E lem
rit ic
ĠArt ist
ĠHun ter
12 6
r ub
pos al
He ap
Ġsp ark
S in
Ï ħ
Ġ( <
Ġin tern
ĠOr ange
Ġad equ
he ld
Ġp a
C atalog
Ġexpl oration
S uch
add on
By Name
Ø§ Ø
ĠÐ ·
Ġcancell ationToken
18 78
b ank
x l
ĠSt evens
ĠZ e
ĠC hel
ĠJ erry
13 4
ĉĉĉĉĉ Ċ
s izing
Ġgrad uating
Ð¾Ð ¼
ĠSy rian
Un ivers
F at
Ġspec ification
N il
ĠEv ents
pe er
} )$,
ĠU SS
ĠA pi
Ġcab inet
ĠDocument ation
co res
comm ands
ĠF ant
pi res
ĠKir k
type param
Ġjud icial
Ġindependent ly
per ature
is ch
ĠE ston
ĠF er
Ġphys ician
De ep
Ġoccas ions
Ġansw ers
w ig
uff icient
Ġrepeated ly
ĠFl ore
Ġj ournals
ĠVictor ian
ecess ary
Ġinnov ative
Ġv oc
Ġr s
.. ."
ina e
Ġb lob
bor ne
Is rael
p el
iss on
Ġl ots
r ation
iv ities
M AC
incinn ati
; =
Ġmain stream
em in
mem Item
F D
F IL
in verse
Ġaccess ed
Ġexped ition
act ivate
ĠSim ilarly
Ġconsc ious
Ġim posed
ord inary
ĠS id
d v
) +\
A CTION
Ġdon ated
Check er
Ġinitial ization
capt ure
ĠB lood
akes pe
ĠL loyd
Ã Ł
ĠSt even
z ier
ĠR u
Ġextract ed
Ġbelief s
ĠSh ang
ĠE ug
Ġsem antic
Ġviol in
Le ague
ĠT alk
sl ash
ĠC urt
Pol y
2 30
* .
ant ly
Ġhead ing
ovak ia
c ott
te enth
P eter
Part s
Ġguest s
ĠEth iop
Ġder ive
Ġre semb
18 76
Ġsurre nder
Ġess ay
Ġf ol
r ated
ĠV ert
Ġembedd ing
I MAGE
iss a
Ġrest oration
p ic
Ġtrad itions
ĠT un
C odes
ĠL uke
ĠN ebraska
tem plates
el n
und les
}( {\
ens ors
ot ton
ĠS creen
Ġy es
he art
ent i
Ġthreat s
Ġsurv iving
Vert ical
Ġform ats
ĠR ou
ĠTr igger
Ġe ighth
ĠCra ig
FO RE
ĠG T
Ġvar iance
itte es
F IN
ose x
H orizontal
UT C
let t
F i
us k
Ġbl ow
f olk
ĠP DF
) >
Ġcomb ine
Cl one
re ject
P DF
div ider
im ony
Ġsh arp
Ġthought s
Ġscatter ing
has OwnProperty
ĠS occer
Ġtr unc
ĠP S
G allery
ĠFr ances
se ek
Ġg all
Ġgener ates
ĠArab ic
h n
Ġmer chant
Ġgrav ity
L ear
33 3
ĠSaf ety
ĠE val
Ġunder ground
Found ation
________ ________
RET URN
Ġin coming
Ġfl uct
Ġsc oped
Ġconfig urations
U V
ĠOl iver
Ġswim ming
ey er
ĠC amb
ĠO scar
ĠL E
12 9
Art ifact
Pres ident
ĠM asters
m icro
W el
å º
Ġcontrib uting
%%%%%%%% %%%%%%%%
ĠVin cent
Ġrel ay
Ġmaint aining
ĠB aptist
ST RE
Ġinit iated
ant ics
ä¸ Ģ
ĠCr icket
mach ine
R oll
op al
ĠSt re
as ide
ĠS ep
e ur
ĠPh oenix
Ġsph er
Ġc od
em ies
Ġse ar
Ġch rom
, </
S printf
l iteral
ring tone
ĠIP v
ĠFle et
Ġh ack
o j
Ġsl ide
] ];
d eb
ĠUn like
Collect or
Ġb lo
st own
ĠThe ory
ĠH unt
le ading
Ġfl ower
pl aced
hol m
Ġ} .
ĠAt omic
Ġc ogn
Ġlock ed
Ġours elves
Ġfeel ings
Ġh opes
ĠBer keley
ĠArch ive
og s
Ġwood en
r ant
Ġdistingu ish
Ġrele g
Ġscen arios
r ans
ro zen
T HE
ĠM es
Example s
Ġdep icted
"/ ><
Ġ} ));
te chn
new command
ret val
akespe are
Ġgu ys
Ġtot ally
f v
Ġw elfare
inter action
ĠT yp
Ġtrigger ed
Ġpo ets
Ġor chestra
Ġescap ed
w ire
Ġp our
Ġmat hematics
Ġdisap pe
ad ers
Ã¡ s
" +
ĠObl ast
S us
Dem ographics
Json Property
ĠTri b
"> Â
Ġvir us
Ġt ang
ĠC ell
g gle
ĠB row
ĠBar celona
Ġnomin ations
ĠS or
Ġprogress ive
ĠC ob
Ġafter wards
TE GER
Ġstream ing
Co ins
is Array
ĠC ategory
Ġout comes
Ġrout ine
i am
tri angle
amp a
DO WN
ĠGi ants
ĠV lad
ĠPr im
Ġpred icate
} `
Ġ{ })
C lock
ad ic
ĠCP U
Ġcl othing
Char les
2 10
Ġarchitect ural
Ġequ ilibrium
Ġsche mes
sw ap
fail ure
Ġcomp ression
Ġgr ants
opt im
W ar
ust ering
Ġdismiss ed
ĠDen ver
18 75
ced ure
Ġprec ise
un ning
ĠMunic ipality
Ġg rows
ĠUn iverse
Ġscholar ship
ar ound
Ġm apped
Ġsub stitute
ĠGh ana
ĠAnt i
. ).
18 67
ar ations
ĠG race
Ġde emed
ĠĠĠĠĠĠĠĠ čĊ
string ify
Ġperson ally
">( </
ENT ER
Ġmunicipal ities
ç ½
Ġ ì
ur as
or ange
qu ality
vis ual
0 77
it ual
E mitter
copy right
inner HTML
Ġb anned
ĠAb u
Link s
Ġorig ins
Ġto x
ĠJeff erson
Ġdram atic
Ġp ole
oth ic
18 71
Ġport rait
control s
Ġcomment ed
Ġeconom ics
Get ter
Con struct
g mail
w hel
Ġphenomen on
absol ute
} >
in ar
Ġemer ging
Ġspec im
A mazon
ĠĠĠĠ ĉ
il o
] =
Ġsub div
Ñģ Ðº
ĠArg s
ĠMean while
)\ ,
ĠC row
** *
Abs olute
Govern ment
ĠG round
te ch
/ %
ĠSh adow
Ġem issions
ĠK ath
ĠD ocker
Ġcub ic
* >
F ri
Cl osed
ĠIn stance
11 11
Not ify
Ġgre y
Ġb orrow
ĠKen ya
Ġhon our
Ġdom ains
AS C
ric ulum
Ġinvestig ated
Ġcut ting
Ġdifficult ies
Ġvent ure
Ġqu ot
S at
18 79
re nd
ĠH udson
D ot
P oll
t bl
ĠJ oint
ĠLeg al
ĠHel p
Ġm os
Ġadmin ister
V R
P TED
Ġencounter ed
C N
ri en
b idden
Ġ" (
: =
ĠM ach
Ġref erring
ra f
99 9
op ol
ĠL ate
Th rows
Rich ard
ĠY ang
V IS
La unch
cho ice
Ġsepar ately
ĠTechn ical
à ®
Ġde als
Ġreli able
Ġg ray
Ġc um
Ġph ases
Ġprint ing
ii i
Ġl t
Ġs ig
Ġr um
Ġen act
F our
int ro
Ġstart up
PRO TO
ĠH E
ĠGr an
ĠFl ight
ĠJ ess
ĠDel aware
ac iÃ³n
Named Cell
ĠDef inition
aly mp
Ġbirth day
Ġexpand ing
ĠAg reement
ĠO il
h op
av atar
Ġs overe
Initial ize
Ġcon form
ĠF ixed
sec ure
in formation
mon itor
Ġcirc ular
Ġmer ger
Ġlast ed
Ġke eps
Ġamplit ude
ĠValue Error
Ġst ops
m acro
Ġw edding
Ġor b
27 0
ĠÐ¿ ÑĢ
ĠC ov
om p
Ġitem Members
ĠWith in
17 5
H ard
Inv oke
Ġvis itor
T l
ĠL ion
ĠC WE
assert False
Ġserv ers
ĠFri ends
ul se
f un
ri eve
tensor flow
date picker
30 4
I LED
H am
n m
ĠFinn ish
Byte Array
Ch oice
o ons
et ta
Com pute
leg end
Ġgather ed
ĠPref ecture
Ġid s
Rec ogn
NO WN
ĠKe ep
Ġc yl
ash a
Ġmonth ly
Ġth orough
ĠM ail
Ġl os
dep loy
pers istence
ĠR ing
Res olution
20 2
ĠMon th
Tw ig
Ġcos m
T ON
Ġ&= &
Ġannounce ment
Ġh ub
Ġdef ending
Al umni
ĠEn cyclop
l c
Ġknow ing
Ġdoub les
Ġz oom
Ġtri bes
Ġb rows
Ġele ven
get Default
Ġa ws
ĠB log
Ġm arch
18 68
Ġh ospitals
Ġun w
ĠRel ations
Ġper ception
ĠTra vel
t b
F ast
'' '
å Į
æ ī
om ed
ub a
Ġpremi ere
ĠCh i
Ġinflu ences
ĠD J
Ġf led
Ġdist inction
aj a
)-- (
Ġthere by
Ġpre st
ancell or
cred ited
ela ide
Ġcelebr ate
ra h
ĠĠĠĠĠĠĠĠĠĠĠĠĠĠĠĠĠĠĠĠĠĠĠĠĠĠĠĠĠĠĠĠ ĠĠĠĠĠĠĠĠĠĠĠĠ
Ġf itted
ĠGuard ian
Il legal
Ġc rack
ĠV AR
15 5
Ġdis cre
Ġj unction
Ġen semble
Z ip
Ġyoung est
ĠVenezuel a
) })
Ġind irect
Inv ocation
ST EM
Ġoverse as
Ġmodel ing
Ġc s
m al
å į
uff le
ĠSt ack
ĠH ave
Ġsub stit
ĠDemocr at
ob s
ann ah
Key board
Filter Database
ĠBer g
h istor
ĠCom plex
ĠP le
ĠTh or
ĠTerr itory
Sub mit
ĠCom merce
ĠSh aw
ct l
ect ive
ĠV ic
c amp
Ġpop ulated
ance led
i ors
Ġ* _
sw er
Ġsph ere
Ġco aching
ĠCl are
Initial ized
hen g
r h
ext ends
Type Name
2 11
if th
Ġav ailability
Ġcous in
Operation Exception
ac a
Ġp ipe
H A
Ġpro s
D ash
ĠP in
as se
Ġto ggle
Ġpl ugins
ĠSh im
Ġam ateur
ĠB omb
ch rom
Ġw ake
Ġsec ured
L ittle
}} )
comp iled
ched uling
+ (
ĠHeb rew
ĠCon struction
Ġart illery
log ue
Ġshop ping
{ })
Ġsh a
Ġaccess key
Cl ause
Ġspons or
ĠS ER
ell ion
Ġdel iber
UP DATE
f air
at ra
ĠF lo
Ġalleg ations
Ġmill is
Ġdocument ed
ĠKe ith
Ġchampionship s
H ol
Ġre vision
18 77
ĠĠĠĠĠĠĠĠĠĠĠĠĠĠ Ċ
C AP
[ [
g al
ĠRes et
ĠL en
Ġproceed ings
Ġobvious ly
IC K
Ġwarn ings
Ġspe akers
ĠI van
O s
Ch at
an alytics
Ġrefer enced
ĠIn nov
w so
Ġfest ivals
Ġj e
Ġs aving
ser if
ĠM all
ast rop
Ġtri be
host s
ĠSpr ings
L arge
1 19
ro c
B ot
k k
Cons ider
ĠP erry
Ġmag net
ĠF ab
Ġf o
ol utions
Ġex ha
Ġquant ities
set Value
ĠJ oy
Ġco ffee
Un lock
ac l
ĠSus an
Ġmax im
Ġ- &
Ġanaly ze
Ġb le
Ġs ends
Ġdep recated
Ġed iting
Ġcond itional
Ġcult ures
ĠAppend ix
S ym
Ġrestaur ants
P ad
ĠS ans
Ġex clude
utr ition
F ee
Com bo
Ġmuseum s
Ġback end
Ġs pr
ĠM aced
it ol
Ġd ens
ĠL ost
Ġten ure
Ġsettlement s
ot he
ĠL arry
itor ial
18 72
Ġmanufact urer
15 00
W ho
l ists
View s
s an
valid ator
Ġsy mp
Max imum
å °
Ġsp arse
dash board
ĠM ix
Ġsh orter
Î ¼
ĠM ol
Ġimpress ive
r atio
ĠPro duction
Ġmin istry
Ġp b
port folio
Ġhon ors
Ġcomple ting
Ġsh ore
Ġbus y
H ot
Ġvari ants
rot ate
ĠPalest ine
Ġpseud o
R G
ĠCan al
u cc
Ġspecial ized
ĠD epend
, ...
col ogy
ic ht
ĠT ib
und a
atern al
ut ation
M LE
th y
Ġj ail
Ġpar ad
ĠDE BUG
ĠExample s
op ens
ne ut
log ical
ING S
Mat ches
M anaged
i ota
Ġ$ |\
Ġqual ify
ĠS z
ĠJ a
Ġredu ces
det erm
ĠPerson al
Ġpro files
Ġal liance
ĠC ant
ĠH ob
Input s
5 67
ĠC lay
ĠCost a
Comm ands
Ġengine ers
Ġh ierarchy
U INT
L ab
MA G
-- ;
Ġflo od
Ġf ighter
put es
ond a
nav Bar
Ġstat ue
ĠDrag on
Ġleg s
ĠMont ana
getElement sBy
open api
Ġpers u
ĠW onder
Iss ue
Ġs ax
âĢ¦. âĢ¦.
i pt
(" [
sh ots
Code Attribute
tikz picture
ĠB orough
std out
ĠInd ustrial
Ġcomp ound
ĠS eb
ĠR acing
ĠV as
Dec ode
and box
ĠSerb ian
MS earch
s or
ĠB rew
Ġhand lers
um ption
Process ing
orient ed
Ġfl ush
Ġintegr ity
Ġal lies
B ooks
text color
M oths
get Time
ĠAs ync
F atal
Ġexpect ations
arri ors
Ġrecommend ations
et ric
il ine
Person nel
is b
(' \
ĠCont act
at che
Ġact ively
och astic
Ġd y
ĠCOL SPAN
ĠLink ed
\ !
ĠK ind
Ġl ingu
Ġsub section
um bs
Int o
ĠB ristol
18 74
ĠNot es
H om
ĠQ ual
ĠG rey
ik es
ah l
Ġdecom position
Dependency Injection
En code
Ġspons ored
ĠC over
Ġkey word
Ġg raphics
Ġev ident
Ġsequ el
q a
Ġcop ied
F X
ang les
b uck
[ ];
h ibernate
Ã¼ n
Ø§Ù Ħ
Ġsim p
ĠMar x
Ġdeterm ines
O RE
( <
ĠN ear
TR ACT
sche dule
ĠE le
ous ing
Ġhe ter
ĠL ex
he w
ĠP ic
Ġ um
em a
sy ntax
Ġsm allest
Ġ) {
LI B
ĠWrest ling
She ll
ent o
ĠC ancer
Ġarrang ements
M ad
Ġt body
Ġinter faces
ĠL LC
Ġentreprene ur
Ġ( âĢľ
ov y
ĠK le
(' ../
oph one
Ã ī
2 25
p ine
ĠCont emporary
Ġmed als
ent ities
m other
Ġp arks
ĠPro gress
é ĩ
Ġdi agonal
Ġdepart ments
M ur
h bar
std lib
ĠExt ension
ĠS ad
ĠB ond
Ġnot ing
Ġle mma
f ar
Ġdig it
la unch
ĠG ay
Ġsurv ival
n r
Leg acy
Ġwat ched
Ġarg v
d ater
Ġf inger
ĠC ad
ĠTr inity
var i
c aster
sche me
bel ow
f und
ĠFri end
orient ation
Fr ank
ĠRoman ian
ĠMor oc
Ġch ron
Ġop ponent
Ġbutton s
ri er
Ġat oms
ĠQu arter
Ġpeak ed
b an
al gebra
ent ine
Ġac oustic
Ġinternational ly
Ġterror ist
ĠL IC
h int
(( (
ĠN ames
Ġhas n
ĠQ t
Ġcap s
Ġp index
Image View
Ã µ
Default s
ĠCal led
ut ton
x ref
M Q
av an
Ġqu oted
ĠMad ison
ORM AL
18 40
Ġwonder ful
ĠRob in
Ġport ions
Ġdeterm ining
Ap is
Ġan alys
Ġconstant ly
Ġst ere
Ġcons ensus
ĠC atherine
g uid
ĠB ird
sl ug
ĠRog ers
ĠP L
18 73
B as
Album s
14 5
ĠHis panic
P reference
][ <
Ġch a
ĠCurrent ly
ĠB right
Play ers
ĠAnt ar
ĠM E
Ġac quire
ref ox
> ";
S ender
H it
Ġlocal ized
Ġf d
ĠBuff alo
ĠL am
ph abet
we ather
s aved
Ġl umin
A WS
ĠS ultan
ra ke
S dk
Ġv ic
et ype
-> {
ĠAb raham
ĠV ermont
Ġt ou
Ġpark ing
m r
ig gers
Ġd eter
ĠH O
W ashington
ter min
Ġactiv ation
Ġreal m
Ġt ons
Ġshould n
Ġinteg ers
18 66
ĠC lean
Ġconst expr
15 2
Ġh oles
Ġob st
US A
13 1
æĸ ĩ
enc oded
Ġper pet
Ġr hythm
Ġcons olid
AS K
Work flow
| }{
ĠSpe aker
ingu ished
t ain
cur r
Ġbox es
Me asure
Ġmem or
Ġvulner able
y t
ĠAdv anced
ĠGon z
ĠEd ge
Ġsur faces
au kee
multi row
æ ł
Ġb one
ĠMur phy
m ade
Ġt ick
Ġabort ion
ar an
ĠS eg
ĠSch olar
Tra its
fin ish
Ġp ag
ull ivan
ĠB our
et e
Ġh ate
ict ions
d ummy
Get String
Ġhe lic
Ġdef erred
ĠBe aut
Ġapprox imate
ĠSocial ist
U i
Ġt ape
_ -
get Logger
Ġun likely
ĠG as
Ġex cluded
Ġt one
igh bor
Ġun iqu
organ ization
Ġ@ @
Ġadvent ure
R oom
DE VICE
ĠStan ford
SO CK
ar ith
U r
Ġ" :
Ġc ust
ĠLu is
Ġp ump
ĠT ol
Christ ian
$ ),
Ġr iding
BO O
e ing
do es
Ġreview ed
ov an
block quote
Afric an
N atural
ig uous
16 5
B ob
an imate
ve ill
37 5
ĠPhys ics
Ġ( +
ast ore
r ust
ĠI celand
Ġar ithmetic
B er
$ };
Ġcomput ers
æĺ ¯
ĠCh o
w b
Ġev olved
Ġcur v
Ġcamp s
ĠB und
ID s
Te chn
Ġlaws uit
E ar
ĠDis c
Ġl ap
sol id
ĠGerm ans
Ġelev ation
T er
ich i
40 1
v r
eb ook
Ġmurder ed
Ġveter an
f lix
wall paper
J ose
s il
Ġs q
Ġdirect ive
Ġbo ats
Ġan ime
ĠFl ag
Ġse q
as List
Ġstr ange
uck land
um inate
Ġdef in
ĠR T
ACCE PTED
ĠSe pt
mes h
="../ ..
t age
Ġremark able
X R
char set
dim en
Ã± a
Ġdecor ated
OP EN
Ġdis contin
Ġpro be
ĠÐ ±
HEAD ER
navBar Cell
Ġsol ving
rec v
ol ition
S yn
In c
d type
get s
log ic
crypt o
ĠT ogether
ĠL ocation
b ower
Pers istent
Ġident ifying
B tn
æ ³
d ensity
opt er
al one
Ġal ien
Arch ive
Ġinn ings
ĠK ap
ĠH orse
im its
Ġcor rel
Que stion
Ġend emic
ĠÐ ¼
Ġsole ly
20 4
Ġliter ally
CP P
ĠM end
ĠHoll and
on ing
Ġst abil
fig ures
Ġd Ã©
Reg ex
Ġs ectors
Ġorgan ised
ĠBro ther
< >(
ĠP resent
ĠSh akespeare
om o
ĠC itiz
ob e
V el
Ġcap ability
fl ash
Ġimport ed
vers al
ĠInd ependence
Con v
ĠW ol
13 8
Ġrender er
ĠMun ich
Ġdec imal
ad os
ĠEd wards
spi racy
Ġassert False
Ġbi ography
i q
ĠNe il
Ġb oss
ĠAnd r
B in
Ġs cre
om al
Ġas ide
lin ary
ĠRead ing
ĠTem plate
en os
ĠCol lect
or ig
ĠP ent
Ġcallback s
Ġcarri es
Ġtri angle
ĠP el
be ing
Ġtri bute
ĠP ra
ĠStat istics
grad ed
20 3
ul ous
ĠAm sterdam
lim ited
ĠM B
ĠB uch
Ġwealth y
ro d
Ġbroadcast ing
ĠCh ap
ĠW es
Ġgovern ed
Type Def
ĠL IMIT
l ift
Ġdrink ing
Academ ic
ĠRuntime Exception
ev t
H I
l r
im er
Ġpl astic
Ġvolunte ers
ĠNAS A
L ead
Ġf er
ĠIn stit
*) "
Ġt orn
Ġexcit ing
ĠT F
Ġtravel ing
cent ral
ĠBuddh ist
ass oci
Ġver ification
Ġgrand father
Ġpsych ological
E t
Ġwrest ling
b ird
Out come
M igration
Ġsh apes
Ġins ight
Ġpropos als
Ġcert ified
f ee
Ġinf ection
Ġreg ression
Ġsynt hetic
D X
Ġcorre ction
veill ance
Ġperiod ic
ĠS TR
Ġcomp aring
ĠDef ine
ĠF un
ĠC OP
Ġe arning
Ġl iv
er gy
Ġ/** <
om i
Ġtop ology
ĠS ah
Ġguarant eed
ĠB ir
High light
ĠM is
ism iss
ĠT on
ĠBO OL
df s
ĠD ialog
-------- ---
Ġc arrier
ĠF u
Ġpsych ology
t ot
ĠR ole
Ġrad ial
13 2
ers ions
Ġcent ered
DOCK ED
C ss
ft en
ov ich
ĠM ove
Or d
Dis able
ĠCons ervation
get Context
Ġbr ands
ĠArch itecture
Pre view
Code Dom
v ik
Ġan onymous
Ġgraph ic
Ġexam ination
inter faces
ER Y
ĠLeban on
g ent
m v
ĠRepresent ative
Ġcomm une
ĠT erry
ĠK ur
ĠR angers
get Current
P rior
w aukee
L T
rele ased
ĠB og
Ġprote ins
ĠScient ific
ĠV eter
ĠR oot
ĠL ions
Ġconcert s
get Data
ĠPhil lips
Util ities
Ġdeterm ination
Ġsuggest ing
)) $
p ick
Ġlog s
] ));
Ġun employ
Ġover whel
th lete
urch ase
Ġs isters
ĠW W
C at
i ating
Ġm irror
ĠHit ler
ĠWat son
H uman
o ard
/ ******/
pp ers
. $$
k u
Tok ens
Recip ients
) -\
om es
ĠSt ories
ĠR out
os hi
sp aces
Ġcross ed
-------- -
Ġm ixture
ĠM anu
Ex change
Ġmut ual
ĠB loom
Att ach
Ġre forms
ment ion
ĠSh ip
Find er
col og
ĠP AR
Tax a
ĠD elta
> ",
spec ies
Ġcaref ul
ĠL ux
Ġse aled
H ANDLE
min a
Ġ" ");
ĠN A
th reshold
Ġw ars
14 6
Ġman ifold
um m
port ion
W ire
ĠObserv able
b age
cc c
V S
ĠHigh er
Ġcompar able
Ġp t
Ġlab eled
D ER
add le
Ð½ Ñĭ
res olution
Ġreg ulatory
Non User
Ġfru str
as ma
Ġd ol
En crypt
t ake
ĠCO M
Sl ider
Ġfor cing
Ġâ Ĥ¬
Ġdef orm
ins ky
E conom
aw k
ĠForm ula
B ill
H ung
ĠL iga
ĠSud an
x ff
az i
P references
load s
Ġcol ony
ism atch
Ġclean up
pre tty
Open Tl
Ġmat hematical
h yp
ĠWeek ly
LOB AL
Ġac res
ab we
ĠG R
Ġman ually
Ġcouple d
ĠP aper
Ġprov inces
j ab
Ġdist ances
D a
Ġchem istry
s ay
ĠC IA
Ġl ights
PROP ERTY
tra ining
ENT S
pos itions
NO TE
unit test
ĠSm art
14 3
Att achment
request s
Ġassoci ations
S ir
Ġme at
S ys
Aut hent
Ex pl
ĠAd elaide
ĠHer bert
ĠAr c
ĠK l
Ġint ense
part icle
Ġiniti atives
T LS
Throw able
R oyal
Ġto mb
Ġconsist ently
AT T
C ached
Ġsup pose
ĠSet ting
Null Exception
Ġmart ial
Debugger NonUser
Ġtreat y
ocom plete
ĠM ul
param ref
Ġconven ient
ĠVal ues
des cr
[ _
F ollow
erg i
ĠPre vious
sw ift
Ġ[ #
sl ant
is se
ĠN ormal
ro st
script size
M ULT
ĠBeng al
CP U
Ġdefend ant
Ä Ľ
Ġis set
ic it
Ġbr idges
30 1
r age
Ù Ħ
Ġ/// <
J an
Ġaffili ated
Ġexam ine
Ġp reference
ĠM uch
Ass oci
> -
Ġdec ides
r int
Ġmanufact urers
Instance Of
ĠS ample
Ġsudden ly
on line
Ch inese
lay ers
int ent
ĠIter ator
13 3
aren cy
18 48
ĠCh and
file Name
Ph aser
ĠB orn
Tool bar
Ġcons iders
Jew ish
ph oto
Ġgeneral ized
Ġexpert ise
H AL
V ote
Ġsl aves
ĠMont e
ĠF rame
F all
Ġmyst ery
ĠIm ages
W ater
enc ia
Al tern
Produ cer
Ġpat rol
C Y
ĠB ath
Ġpre lim
ĠP ain
Ġfun eral
GEN ER
Res ize
L ondon
Ġg ent
alt ies
Ġp ad
Ġun e
Ġorgan ic
Ġdu o
Ġapprop ri
ĠCont roller
Ġ" </
a ine
c odes
ĠY u
n ested
CON F
Orient ation
M ot
18 69
ĠY ale
13 7
AP PLICATION
play back
ar as
Ġev ac
Ġext ending
Ġun cle
ĠS erv
ĠW alt
ĠPat tern
Ġper cussion
avel ength
st ri
Ġd il
Ġsearch ing
vel t
. ]
row th
Ġproject ed
TH READ
Ġbas ically
ĠArt illery
sup ports
r us
ĠS K
ĠC incinnati
ĠNep al
Ġt iny
à ¹
ĠHe ader
Ðµ Ð»
ĠA w
Ġel abor
Rep o
ij i
ĠDes cribe
Ġtour ism
') ).
ĠR ect
ĠNash ville
ĠP ART
}$ )
Ġtempor arily
Ġsoci eties
ind a
Ġenh anced
f ive
il ateral
Ġdes erial
Ġsuff er
] ",
or ious
ĠPhilipp ine
ĠLIC ENSE
ĠTh ings
ĠTransport ation
um i
Ġext ensively
^* $
M el
ĠBy zant
\ }$.
ĠC ris
Ġpro secut
eg u
Ġc argo
ĠCirc le
B AD
Ġs le
P K
Ġver b
sp ort
ĠP ick
re strict
ad itional
ĠÂ ·
Ġaud iences
jav ase
imb abwe
Ġprom ised
Ġm anga
b ash
ĠF ramework
Âł Âł
ib lings
s outh
Ġcomp atibility
ãĤ Ĵ
th an
Ġdem olished
ĠCl imate
! âĢĿ
ia o
ĠK ay
Ġtrans it
F LOAT
ĠT ang
Ġenc rypted
="../../../../../../ ../../
Å Ľ
Ġhuman ity
ĠA V
Browser Detector
ier arch
Ġrect angle
F iction
TR A
et ter
ĠT oy
in ance
ĠPen insula
Ġin ference
Res olve
M ary
h m
Ġcelebr ation
Ġs ugar
Ġadvoc ate
Ġ$ ("#
ĠChar acter
s al
ĠO ri
$ :
Ġgen es
ĠD raft
ĠCom b
!! !!
Ġimag ine
ĠV ari
P D
Over flow
Ġinit With
Ġexpect ation
Un icode
Ġvo ices
Linear Layout
" <
ĠQu ant
) ?
F K
in ced
Ġl ieutenant
ĠEl li
Ġo ct
ĠF IX
) ";
ĠB ass
------------ --
x c
ĠL ot
size i
Ġrecogn ised
Ar n
Ġsubsid iary
p romise
Ġshift ed
ĠCru z
Ġassist ed
min imum
uby te
Ġconv ey
Ġ{ ?
IF T
Ġvol can
C LO
() "
ON LY
ĠS alt
S prite
Ġal i
ri o
Ġag greg
Ind ices
ĠForm er
gom ery
Ġan alyst
Ġtw in
Ġsub str
ĠC L
ot hes
m os
Ġtempor al
ĠWork ers
Ġpredom inant
14 9
ĠLabor atory
b u
list ing
SE CON
ĠAssoci ate
Le ave
Ð½ Ð¾
define Property
Serial ize
M W
d id
se en
Ġle x
Ġn ep
Hon ours
Rec ent
Ġsk i
g ulp
ter rit
ĠU nd
> $
Ġper ceived
ĠMed ic
Direct ive
STAT IC
Medal ists
ann i
ĠAdd itional
h ad
Ġ$ ('.
Pl us
Ġpat ron
Ã© d
ĠL an
:: _
Ġlik elihood
â ĪĴ
ĠPers ian
Ġcon current
)) {
ĠEd it
OP ER
Ġ( {
om eter
Ar c
Ġ! (
list en
Ġr itual
ĠAl ger
/ $
W ild
> #
t le
Ġar row
bar s
ver ts
(" ")]
ĠCar r
Ġimplement ing
g able
Ġdistri bute
Ġaffect s
ĠĠĠĠĠĠĠĠĠĠĠĠĠĠĠĠĠĠĠĠĠĠĠĠĠĠĠĠĠĠĠĠ ĠĠĠĠĠĠĠĠĠĠĠĠĠĠĠĠĠĠĠĠĠĠĠ
ĠDirect ory
u ced
Un expected
Ġc amer
lig a
out line
Ġsp y
oc on
16 6
ĠPl anning
adem ark
if ecycle
oss ible
ĠS ent
d ing
) }_{
T our
il io
Ð° ÑĢ
T ake
Ġinf antry
ĠB order
ax y
comp act
p d
ä ¿
2 64
Particip ant
Ġb less
Ġfrag ments
hem atic
å® ļ
ĠM agn
Start ed
Ġgo og
ourn aments
her o
Ġlabor atory
C li
ĠĠĠĠĠĠĠĠĠĠĠĠĠĠĠĠĠĠĠĠĠĠĠĠĠĠĠĠĠĠĠĠ ĠĠĠĠĠĠĠĠĠĠĠĠĠ
P OL
column width
ĠMunic ipal
ĠGr ade
on er
18 30
Ġcor rupt
Ġrev ised
Ġl azy
bra ins
' </
lic es
W rong
c lic
ADD R
ield s
Ġcur r
Ġatt itude
Ġa qu
co ins
Block Index
Ġsystem atic
ĠAt hens
ĠSD K
Ge o
ust ain
$ ~
ĠSe an
Ġaccept s
Ġ ):
Ġal igned
Ġor ange
Loc ator
ĠK un
ag ar
Ġaccount ing
ĠH aving
Ġen emies
uck er
n x
ĠOver all
ĠI SO
Ġachiev ement
ĠV ent
t ick
tr ivial
ĠH at
}{ (
ĠArmen ian
ĠT ed
Ġg enu
Ġset Up
Ġdiplom atic
B razil
Ġcitizens hip
à ¦
Ġo mitted
ĠM oney
Ġf itting
W ITH
15 1
ĠM ann
ator ial
ĠNAT O
ex ist
Ġshut down
ĠCong o
Ġneigh bors
Ġj u
IN PUT
Ġ\ (\
ĠM ort
Ġc ow
ec on
atab ases
ĠH ugh
ac co
Rep ublic
Ġcaref ully
Ġnon linear
ĠH im
18 59
art z
ort ex
Ġwind s
Ġhar ass
LOC AL
l ap
Ġw ings
Fl ora
ĠBroad casting
Ġover come
Ġsh ipping
BO DY
18 57
Ġbre ast
ĠR alph
USE D
W ords
h ou
ĠEag les
ĠHer z
D ue
Ġun ions
conf irmed
View ById
M icro
g ro
Ġo c
v art
Ġf iscal
ose velt
ett ers
ĠWall ace
Ġun set
Ġfl ights
ester day
ĠAgricult ure
ĠCall back
ĠY am
Ġop am
c ov
t ec
cal c
ĠE SP
Ġtri but
re try
call s
Icon Success
in istic
Ġsc iences
m ong
;& #
Ġcont ested
) ',
Ext ended
Http Request
t u
Ġf ert
ĠNever theless
æ į
Ġdog s
Call able
Ġh int
p ip
Ġtrans itions
ĠAng lo
Ġexc av
ĉĉĉ ĠĠĠ
Ġbank rupt
D TO
igr ant
hy per
D AT
Ġmax imal
ĠLib erty
ĠFil ms
ĠHel en
Q UE
Ġsol ved
ĠAv iation
=" {
Ġaug ment
Hand lers
Ġsens itivity
om eters
Ġconv inced
Ġappro ached
Ġport folio
k le
B uilt
! ");
U G
Ġenc oder
ĠAl ong
ĠW allet
Ġlegisl ature
c ook
ol ine
ĠLat ino
spec ified
Sw ed
> @
el ist
= .
ĠV M
bl ing
Comp any
ev ille
M ale
ĠK rist
Ġs ang
ical s
× ľ
Ġpl aint
Ġun ity
AC CESS
Ġsub stance
ens on
Doc s
Ġs weet
lo ose
Fin ished
Ã Ĺ
Ġany way
ĠHug hes
14 1
F B
Ġretriev ed
lic an
Ġmake up
ĠB uilt
26 0
Ġt anks
Ġpre t
Ġre actions
ĠâĢ Ļ
Ġbo ards
Ġvol unt
ace ae
M ex
prevent Default
ĠA B
Ġless ons
Ġdet ector
back up
arri ers
Ġattend ance
Project s
h it
ĠP att
Ġrandom ly
Disc ography
Ġinter cept
ĠEn um
Sup plier
Rot ation
p ared
br ane
elect ric
FE ATURE
ir ts
Ġas p
mod ern
ens en
ic us
el ia
æ İ
print StackTrace
Ġinvestig ations
Ġsculpt ure
ĠUE FA
æľ ī
ĠA round
ort ion
g iven
Ġprepar ing
host name
A ws
he ap
Ġiter ations
Ġ( ).
ena issance
ail ing
b usiness
Ġcre ator
ĠCl uster
ĠEn sure
he ll
ĠS N
K ar
is Valid
Ġel ite
Ġe cc
28 0
Ñ ī
Ġmoder ate
}} .
ĠThe od
20 8
Ġch ronic
000 1
Ġs id
leg iate
Ġlob by
ĠAmb assador
Ġown s
Ġpl acing
Prof essional
,\ ,\
Ġinter active
ĠH av
Ġarg ues
IconSuccess Encoded
ĠS ql
Ġoverl ap
Ġhun ting
Alloc ator
ĠN HL
Ġbl ues
Ġsquad ron
Ġg rain
arian ce
ĠRes erved
B ank
] $,
Ġcho osing
ling ton
Ex ist
w oman
ĠT it
ĠM orning
art icles
ess ors
Ġblock ed
ĠIraq i
ĠGil bert
J ud
ordin ator
Ġcorrespond ence
at em
Config ure
less sim
J ul
ĠJ ar
am ation
ĠT ru
Im g
Ġsus pect
Ġreflect s
Ġconv olution
Ġm eth
Ġb ag
us a
ãĥ ³
ĠA uckland
p ent
ĠL ar
m anaged
o auth
us ive
then Return
Number Of
ew ay
Ġfre ed
al am
Ġnull able
ex press
screens aver
ĠOtt awa
Ġag enda
ĠAgain st
ĠA aron
Ġun lock
pos able
open ed
ĠCam eron
rest ore
Ġres ort
Ð¾ ÑĤ
i u
Ġg fx
Ð¾Ð ³
Ġre public
Ġtrend s
sole te
O ps
S aint
Ġreg ex
query Selector
ĠCh apel
ĠV oice
Opt s
ĠS oci
ĠSw ift
)) \
Trans l
Ġcontr ary
ĠD h
Ġres id
Ġunder graduate
resource GroupName
Ġopin ions
ie u
"> '
hel m
] $.
ad just
Text Field
CO PY
ĠI M
Ġcr ude
Ġh ang
Ġcou p
14 8
Ġm as
Ġtrad itionally
x r
Ġtr ick
ams ung
Cent ral
grav ity
}[ \
ĠN athan
K n
Content Type
p ow
T urn
res olver
ĠSt atic
Ġse eds
per form
Ġeffect iveness
ifest yle
Ġt ours
ĠD ennis
ATTR IBUTE
f ade
ĠHar vey
arr ison
ĠBob by
Ġplay offs
m el
ĠH amb
Ġex tern
ä ¹
ĠS ony
b etween
ap ing
ĠW i
amb ers
Ġjav adoc
k ill
Ġconsist ency
ĠCr iminal
æ Ŀ
unit Pattern
document ation
Z end
Ġd ocker
Ġgu idelines
count s
Ġwebs ites
d istribution
ĠSh op
Ġinaug ural
× ¨
ĠR ivers
Ġparse Int
ra id
Ġm a
Ġed itions
Ġland ed
x it
Ġpower ed
g res
Ġr ated
ac les
Ġnob le
2 15
ach i
Ġcirc les
Ġlength s
Ġdev ast
ĠCo hen
ä» ¶
N ORMAL
ot er
ib lical
ĠS pect
Ġphotograph er
User Id
uss els
ĠSV G
op ing
ĠAg ent
cover age
LE AN
u ator
for um
ar ms
ĠLa ura
ĠF LA
Circ le
Ġcook ies
Prop ag
ag i
ĠMe chan
min ster
v ation
D eb
ro ut
Ġc emetery
LE FT
Com posite
Ġvolunte er
Ġdef ect
ah an
Ġequ ity
Ke ep
Ġep id
Ġcor poration
b readcr
Ġ< ![
ĠV ict
Ð°Ð º
Ġsum mit
cred entials
Ġhighlight ed
ĠU INT
Ġd ummy
Ġl ux
ĠG len
av ier
ĠGL ubyte
Ġsimilar ity
Ġtrad ed
Ġinter vals
Ġfilter ed
n able
J ac
Ġf iring
\ }$,
ADD RESS
Ġl od
ĠC M
ro at
Ġn inet
por al
Ġindic ator
Ġwarr ant
g ather
l w
SC HE
cons istent
Ġsub mission
Sm ith
Ġc v
Ġpun ishment
Ġsw ap
Ġd ash
Ġob l
L ess
if ice
aut hent
Ġrat ings
A mb
A thlet
L M
ener ate
Ġch apel
sh ops
First Name
ĠThe me
Ġsc andal
uzz le
phys ical
Ġrecip ients
jet brains
Last Name
asc ii
ĠN at
w heel
ach t
Com ments
Ġorigin ated
ĠWrit ing
RO P
Ġn inth
d ag
ĠD NS
R ock
c out
Ġmanag es
ĠL ov
Gr and
Ġsett lers
ĠTH IS
map per
Start ing
Ġsp ell
Ġer ected
ĠBit coin
"> #
Ġf iber
Ġdist urb
Ġshel ter
ap id
Cre ator
A ge
play ing
Ġgr an
ĠB eth
Ġvac uum
us b
}} _{\
Ġprogram mes
Ġbank ing
ok ia
Ġcommun icate
an che
ĠP icture
A W
ĠWork ing
y led
Ġprodu ctions
v irt
perm alink
IT ER
ĠSyntax Kind
ĠA ber
Ġfacilit ate
ival ent
l ishes
Ġ} {
ĠW u
ĠCom plete
AR N
Ġtest imony
asc ade
Typ ed
Pr incipal
d frac
Ġfe as
Ġm ines
if s
Ġpo ison
Ġdebug ging
d an
Ġdec k
S i
Ġneighbor ing
oper ations
ĠLe o
Ġchalleng ed
ag netic
Im plemented
nap shots
N Y
R en
ide a
normal ize
Ġpat ri
Ġch ains
IT S
Ignore Case
Ġexecut or
: **
M acro
br as
get Parent
Non Null
Ġterror ism
li ers
ĠD od
Ġent ers
ĠAzerbai jan
territ ory
Ġc ategor
Ġm oon
ĠAbb ey
Ġset Timeout
oc c
Ġs ep
Ġp ill
Qu ick
lic as
> ',
ç ±
hab ilit
Ġfight ers
âĢ ĭ
SER VICE
ĠArn old
Ġdev iation
to o
Ch ina
Q R
sk in
Ġfoot age
k ubernetes
ĠBut ler
Ġbe ating
ĠN amed
ĠR AF
Sw ift
ä¸ ª
erm ark
Ġexpl ored
Ġnot iced
Res p
Ġad res
aut hentication
Ġfast est
ĠK id
url s
ĠSim pson
ĠLeg end
"> "
ĠPeters burg
h h
v or
Ġlik ed
h dr
ĠSet up
Ġearthqu ake
Ġass ists
ĠAr med
CON ST
Do es
Ġhelp ful
ace ut
C XX
s ound
ec ca
ish a
ĠI con
Ġtr ump
Ġconj unction
ag ers
ĠR at
com press
ĠM ig
rac es
Ġge ometric
ĠRE AD
ĠArt ists
SY S
ĠK i
Ġm p
Ch arts
st orm
C riteria
M i
Ġle ase
Ġab ilities
Ġd f
ut a
ĠM eta
13 9
Ġrefer endum
Ð¸ Ðµ
C Sharp
SE SSION
Ġfrequ encies
ĠCroat ia
ĠN icol
Ġwrit ings
ĠChar ter
Ġfor wards
FA ILED
Ġl ens
ĠN ancy
Ġ" {
Ġener gies
ĠIn iti
direct ive
P ac
f ollow
ĠS oph
ĠS yn
Dec or
Ġdoc s
ĠR ules
ĠSh ared
Ġsh ots
ĠSt uart
Ġloc als
Ġplace ment
Th ird
Ġmod ifications
Ġseek s
Ġbon us
Id le
Im plementation
Ġex tr
Ġb eta
Ġb arrier
h box
ro ach
ĠCom pute
Ġre nd
b io
Ġb read
ĠI de
ĠS ask
ĠAl t
Ġsust ained
Ġ( ((
So ft
F lo
Ġp ose
az ard
Ġspeak s
Ġalleged ly
r ating
Ġ ../
ing e
Ġcompet itors
fre quency
Ġm ature
M gr
ç Ľ
ĠW or
Ġimp lications
port let
ĠMer c
Ġbre ath
ĠNor folk
Ġrock s
th ick
ĠB ak
"> {
RE C
NE SS
ĠProtest ant
ĠU ri
ĠA DD
Ġpract ition
Ġinc umbent
Ġdi agnostic
W M
agon ist
% );
ĠBulg aria
Ġthr one
CLI ENT
Ġo xygen
ĠVen ice
Ġcommand ed
Ġintrodu cing
unt u
ĠLeon ard
ĠField s
Ġra bb
Ġtem plates
Â ©
Ġhistor ically
ãģ Ļ
ĠType Error
ĠSl oven
Ġback ed
Ġtele phone
cl osing
Ġdo ctrine
l is
Ġb ay
B and
e er
oc os
Ġtalk ed
Ġoper and
Ġs ans
Ġten ant
Ġdeep er
ĠD ise
ĠPl ugin
Ġ] );
Ġs z
ist le
18 58
ĠB ach
Ġres idual
CL UD
< '
Ġs el
ĠK ate
Ð°Ð ´
ĠCh a
ĠWild life
CLUD ING
ob ar
Ġhigh lights
Ġdiv orce
Y P
ĠS IL
ht m
eng u
Ġobject ives
18 54
:// $
j sp
ar ial
as ia
Ġ{ :
Hel pers
default Value
ĠUtil s
=" '
New ton
ĠC ONT
is ot
V T
Ġp ace
ĠF iction
() }
Click Listener
s ap
Ġen orm
UL AR
ĠVo iv
EO F
Log ical
Ġsup press
seud o
match er
Ġl aser
Ġreb uilt
insert ion
ast ed
Ġun n
ĠProdu ctions
ĠGreg ory
ĠW ag
Ġjust ify
ĠIss ue
ĠColumb us
ĠF L
/ :
ĠPhilosoph y
c ern
Ġ$ ,
ĠD rop
ĠHe in
Ġfif teen
}} </
ans wer
pro blem
Fr ance
m un
keyword s
Ġthe sis
ĠFl ow
ĠAdd s
j q
foot notes
ĠJust in
Ġtour ing
")) );
look ing
{ |
cu ador
Ġa pt
has Next
ĠN g
work ing
ĠPed ro
P icture
Ġweight ed
ĠD aw
Ġf its
Hash Code
Ġre called
ĠS ierra
âĢ¦ âĢ¦
em p
FIL TER
cos ystem
ĠM ode
18 55
product s
M or
Ġw ra
ĠRo osevelt
Ġfarm ing
Ġreloc ated
Ġco ord
t ls
"] ["
CON TEXT
ĠAl gorithm
j dbc
al bum
Ġe u
ĠInter est
Ġres erves
ellig ent
GL enum
ĠFish er
ion ic
empty set
ĠS Ã£o
Ġen rolled
OFF SET
Numer ic
odes hip
Ġaccept ance
L ay
Ġc attle
Ġbench mark
Ġmed ic
ĠAn cient
Ġtop ological
Ð¸ Ð½
ĠY ES
D N
ĠDec ision
> ]
ĠHar old
ici ary
war f
Ġins pect
ĠEx per
CO RE
Ġcoll apsed
BE GIN
Ġanth rop
m q
ĠD yn
ĠT ensor
Ġdisestab lished
Ġf ur
ĠS uz
acc ur
Â »
ÐµÐ ¼
ĠK ill
ĠAll ow
Character Offset
ĠB ald
Ġens uring
Ġst ick
ov sky
to k
Ġens ures
Ġprelim inary
! ]
Ġcompl aint
u o
ĠS ak
Ġeditor ial
ĠEr nest
und ers
Ġsh ops
ok o
Ġg ains
Project Path
Ġabs ent
Ġo w
al is
Ġbatt les
Ġhydro gen
m ot
M id
S B
W ay
ress es
Ġsomew here
n P
f m
ink s
Ġ è
Ġcle ared
rip ple
ĠEncyclop edia
anc ers
d h
det ect
W H
Ġburn ed
Ġunsuccess ful
ĠS oul
STRE AM
ĠTh ank
Ġt issue
ĠS ox
) ];
ĠM ills
St udio
Git Hub
J O
P TR
" =>
Ġmolec ules
Ġsup plement
User Agent
ĠUS B
inherit doc
** :
f eld
Ġpray er
\ -
Ġen compass
ĠIns ert
T reat
Ġsent ences
ĠR osen
Ġr ally
Ġvar ied
bo ys
Ġad option
Ġmem ories
en burg
ot ypes
d eleted
m ob
Ġqu asi
Cred ential
inherit Doc
ĠFa ith
Ġegg s
ĠR uth
Ġdefend ers
sp h
un used
ĠP ush
Ġdrum mer
Def unct
ĠR ES
Ġdefault Value
ST AR
$ _{
Ġconnect s
Ġt ale
ĠB ear
Ġgra ve
current Time
Ġexhib itions
Ġnec k
names e
ĠR ever
ĠK il
Ġpre view
Ġe mpire
Ġout door
Ġt ension
ĠArch bishop
Bal ance
Ġ nd
avi ors
s elling
Ġare na
L F
TIME OUT
Ġlocomot ives
ĠSing les
ĠR us
Ġsurpr ised
Scott ish
Ġ ))
mall oc
Fl ush
am med
Ġatt achment
V ars
Ġgold en
Ġacknowled ged
4 80
Ġan notations
read able
arn ess
vet ica
Cl aim
Ġh o
Ġvirt ually
TO KEN
sent ence
ĠShang hai
Ġwalk ed
Ġpal ace
Ġaccompany ing
n ick
Per formance
ĠB A
ĠD ol
ĠFlore nce
S un
w y
Ġaver aged
C ACHE
Ar row
Ġinf lation
ind ependent
+ -
Ġc inem
Ġpos it
Ġwor ry
Ġsp ots
Ġshall ow
ĠJo an
Ġis ot
ĠR an
ä¸ į
ç± »
( %
f ilm
P ull
Ġto ll
ĠHar bor
Ġcomb ining
213 077
i ast
ed e
Ġcheck sum
Ġbuild s
IS O
ce il
ĠS EC
Ġun safe
Ġam endment
Mus ical
l ar
Ġbut ter
ist ically
Ġdiv ide
ss h
Ġgovern ance
Ġbro ader
Ġdraft ed
ĠCred it
work space
}) }
ĠLuc as
ĠArgent ine
Ġtim ing
Ø ³
ĠHash Set
Ġst ochastic
pr ises
sh ader
ever y
Ġb ishops
38 4
Char Field
Neg ative
th al
Ġrun ners
eff icient
Ġp id
] "
former ly
Vis it
Ġphys ically
ĠFil ip
em ption
ĠDi amond
T M
Ġhe ap
Ġen force
22 4
Ġt ickets
ĠAir lines
Ġch at
oper ating
h or
l ane
m ine
Ġdec oder
ĠCon trib
Ġfall en
ĠHel per
Rect angle
pr us
ĠPy Object
ĠS ang
Ġinvest ments
Ġor chestr
Ġmanufact ured
Ġcancell ation
s ess
Ġcy cles
ĠG ene
user Id
ĠK el
govern ment
S eed
ĠT as
U tility
Ġf ate
et ri
Austral ia
ĠK ash
ĠGL uint
ab ove
ro les
Fat alf
Ġviol ations
Ġcomment ary
Ġcer emon
Ġsla very
Ġm amm
z ens
tr on
Con nected
Ġbr ut
D ele
Min imum
Ġexhib ited
it ious
Ġsynd rome
ï¼ ļ
Organ ization
el ing
by ter
Ġthink s
Ġdescend ants
Mix in
Ġver bose
Ġcivil ians
ĠE lection
Ġoff ense
CLU DE
un ix
ĠId aho
ĠP av
ib us
r in
ĠT rain
mk dir
W C
18 56
Ġform ulation
ĠHar per
Ġsaf ely
eg al
Ġmeaning ful
un ed
ĠB aby
Spec ific
ĠDi ocese
ĠAll oc
Ġatt ractions
Record ed
J im
Ġbelong ed
Ġac qu
St e
Ġcontain ers
getElementsBy TagName
Col ors
i ov
Ġm ilk
Ġlik es
he ther
intend o
ĠWell s
? .
Callback s
ĠMont gomery
aur us
Ġs or
Attr s
g ra
Ġcent res
Ġc ad
COL UMN
OUT PUT
Ġf usion
Ġl ying
ĠRe ader
col s
Ġpl ural
ĠSt ef
Ġscr atch
Ġthr iller
ĠHe avy
ur bs
Ġsong writer
track s
Ġdem o
Ġaff air
Ġ' )
c nt
olog ically
rec ogn
Ġfail ures
Ġconduct or
Ġadvert is
am y
Ġvar s
Get Type
ĠWik ipedia
Ð¸ Ðº
ĠW E
ĠVoiv odeship
man ual
st ation
che l
ĠJul ian
å ĩ
B IN
Ġform ations
read only
Ġh i
ew ise
ĠLe eds
Ġhand ed
NAME SPACE
und ef
enti eth
ost ream
A RE
Sc anner
Ġrad ar
Ġconf usion
Ġi i
Ġspec ifying
Ġed itors
Ġd inner
h ole
ĠIn sur
Ġreal istic
t frac
pt o
go als
Cred it
Ġh urt
\ .
ĠE ld
ĠL it
Ġdimension al
ĠSo on
ĠB ert
Dis covery
re vision
ĠEm pty
y ellow
Ú ©
ĠCal endar
h all
Ġassert ion
Ġbrows ers
ĠUn ity
ĠGro ve
Ġing red
ĠUn fortunately
yl um
ap k
C ategories
Ġinter ference
ĠTH REE
K O
Ġne ur
Ph ot
Ġaccept able
Lin ux
ess a
Ġv it
Ġstraight forward
type Name
14 2
Ġh orn
ĠR idge
\ |\
"> @
Ġ[ (
Comp ile
G G
hand lers
Ġmaint ains
ĠD y
ĠJ O
Ġemploy er
Ġconduct ing
Ġpredec essor
H ouse
ĠRh ode
PO SE
ĠA SC
Ġ' [
Ġver se
Ġperfect ly
S uffix
Ġcollect ing
Ġprevent ed
Ġaccompl ished
s ized
Ġe ating
um ph
CONT ENT
Transform er
R o
Represent ation
Inter op
feed back
Ġt ub
Ġg ymn
ĠN ak
Ġla ugh
ãĤ ¹
ĠAdvis ory
auth ors
sh ore
Ġw ard
Ġtour ist
ĠScot ia
O bs
ac ular
m itt
Ġi OS
Ġresource GroupName
Ġpriest s
Ġconven ience
Ġp it
Ġg ear
Ġfile Name
Ġpoint ing
ĠQue st
ris k
Ġauthor ization
is EqualTo
the y
d eps
Ġ ic
Ġart work
R ew
re quires
Ġarr iving
Ġfollow ers
P ur
class path
isb ane
Ġpro l
ĠArch itect
oca ust
g ie
w al
Ġ* **
N ER
ine es
Ġ* */
Ġterm in
ĠPO ST
TO P
transp arent
in crement
Ġproport ional
Ġdig est
D K
}} }\
Ġt ournaments
Ġend l
ĠS eq
id y
ĠC raw
Ġpl enty
Pro jection
Ġf ires
Ġde ce
Ġcl an
Ġbomb ing
ll a
20 5
datab ind
Ġg ateway
D ark
Ġcompos itions
ĉĉĉ čĊ
eh icle
illi ant
Lem ma
c url
æ ŀ
ĠBr isbane
åı ĸ
z ig
ĠAd miral
Ġplay wright
Ġmeas uring
IF Y
Ġult imate
Bal ancer
Ġor n
G LA
ĠFour th
r w
Ġmem oir
Ã¶ n
Ġst olen
math op
Ġthere after
Ġ\ ]
ĠBe h
Ch rome
P ART
c id
Depend encies
ĠG or
Ġexam ined
ff ield
Ġdis orders
wik ipedia
less ly
mar shal
ĠDirect ors
str ategy
ĠAn imation
Ġsusp ension
W P
Ġvar ies
ĠH ub
en ue
ĠM otion
y our
Ġm ic
Ġce ased
Ġcart oon
v ee
Ġenter prise
omin ator
Ġmand atory
At l
Ð¾Ð º
ĠMil waukee
Ġar ise
Ġim per
col lections
Aut om
Ġw age
Ġth ir
set Name
Ġlight ing
A st
N ever
ĠC elt
rece ive
Ġcurv ature
Ġa est
Al ready
d ro
Ġdo zen
od ia
Ġdro ve
s chool
Ġin hib
it ely
'] [
Ġdef ended
Fin ish
L ove
Ġf ade
D to
Ġadministr ator
al in
p ure
ro e
expand ed
ĠOr d
O VER
Phys ical
ĠDr ama
ern ess
Ġneg lig
Ġassum es
C AT
um ing
ĠP anel
sw ick
' ><
ĠW orth
ĠG ust
Ġdesign ation
ĠRey n
Ġd ashed
ĠEx cell
contrib s
Ġposter ior
t odo
In crement
ab br
State Exception
GR AM
ĠC u
Ġa uction
Ġth rew
Ġf ifty
red is
Ġcollect or
up iter
Ġor al
15 4
Ġevery where
Ġp ale
R eb
ach ers
Ġw ond
writ eln
C y
Ġfoot er
ĠPhys ical
Ġsw itched
so ap
Ġartifact s
stitu ency
EN S
Ġp ow
Compiler Services
IN LINE
cr im
ĠPrinc eton
ĠP rest
ĠBe ing
Ġmiss ile
ĠPar alymp
Ġro uting
ĠB UT
w ang
ing o
ĠL isa
Dem o
D MA
ĠTh under
Ġconf used
ĠRay mond
Ġelim inate
Ġfoss il
ĠConfeder ate
SE C
Ġj ew
ĠRe ed
ĠEnter prise
t an
ed ges
D istrict
Ġaccompl ish
p it
West ern
2 32
ĠG em
Ġcur riculum
Ġremember ed
fold ing
break ing
ig ue
ĠB inary
Ġav iation
P TS
Byte String
Ġs lope
Ġb orough
j p
ĠM az
Ġwhe at
Ġpers istent
Ġimpact s
Ġfl our
Ġrespons ibilities
AT IVE
Ġ{ !
ĠE state
DA Y
ĠC inema
ĠNorth west
ij a
ĠD M
ĠPal mer
ĠGu id
7 68
vers ation
Ġastr onom
ll vm
ĠN y
0 10
ĠJenn ifer
ĠS olar
d og
ĠBenn ett
Ġro ster
Ġnumer ic
bro ok
} ")
Th umb
t pl
Ġre nown
Ġsp ir
Ġprotect ing
ĠCOP Y
b az
>{ @
Ġm u
3 30
Ġsus pected
Ġstead y
n v
ĠK in
ĠĠĠĠĠĠĠĠĠĠĠĠĠĠĠĠĠĠĠĠĠĠĠĠĠĠĠĠĠĠĠĠ ĠĠĠĠĠĠĠĠĠĠĠĠĠĠ
dr iven
ĠC ox
= _
Ġto m
ter ms
Ġachiev ements
Can ada
Ġjournal ism
rupted Exception
b ay
ĠS old
Ġch apters
ĠA ST
ĠE ddie
= </
P in
Ġth umb
Pub lished
æ Ķ
Ġ ----------------
Ġst eal
Ġcompos ite
cat Desc
Sample s
ĠSk ip
Film ography
P LAY
im an
ul ers
MPL ATE
Ĺ ãģ
AL LOW
Ġveter ans
ac ional
ĠU TF
Ġkey boards
On Search
Action Bar
K nown
ĠLi u
parent s
Ġcop per
Ð¾ Ð½
Target s
al ways
pred icate
Ġd ip
ĠS G
ĠF ed
More over
ish i
og onal
TR ACE
Q T
ĠK ra
im i
ĠE D
ĠZ imbabwe
Ġstri king
found er
er ious
ĠR unn
Pub Key
For Key
t alk
Ġsup ers
Map s
M ON
d ims
ĠTh ai
ar ians
ĠDom ain
2 12
n orth
ĠLead ership
H F
Ġste ep
h ub
at um
Prov ince
ĠInsur ance
CONT RO
PHP Excel
ol ics
18 52
Ġlog ged
ene ath
ĠF iles
Ġresign ation
ĠCre ative
] {\
access or
t om
Ð» Ñı
h orn
ĠF oster
ĠD R
Ġt ap
Thread s
Ġ"\ "
Ġ ));
in as
Ġb achelor
ĠR enaissance
node Type
Ġnormal ize
n ational
Ġrecru it
m and
Ġf erm
Ġin cent
int egration
ĠDet ails
ĠHen ri
F it
Ġem peror
D ays
ĠStr ateg
Ġbi ology
Opt im
G LOBAL
N ear
g ol
Ġvalid ity
ĠÃ ģ
Ġtravel led
Na N
b z
Ġle agues
D irty
Ġcon ce
re ceived
ĠRevolution ary
un al
Ap ache
VER TEX
Trans actions
Ġ' --
Ġdistinct ive
upload s
pro logue
oy age
Ġu uid
uch i
in el
linked External
Ġcamer as
deg ree
l m
ĠCh ang
Ġhost ing
w ent
Ġqu ota
h ls
Ġt oured
land o
Ġspecial ist
ĠIs aac
ĠCl iff
Ġc ave
"> ,</
Ġqu it
Ġang les
ENABLE D
> *
Ġhous ed
Football ers
Or Empty
Compar ator
Ġglob ally
Ġgather ing
start ed
BU F
art et
abul ary
Ġconfer ences
Work space
ĠAl lied
ĠD S
Ġan not
Ġb ull
ĠE ight
Ra ises
ĠEp isode
ĠR oche
Ġc rop
Ġen abling
eb ody
Ġfilm ing
ĠZ ero
ĠRe ce
Ġprom ising
Ġwork space
EX P
ris es
Ġun used
Ġam end
und o
Ġfor ty
uch y
So ftware
Ġp c
ĠB ug
Ġaccommod ate
16 7
Ġf ulf
Ġop s
IC S
19 3
del im
. ')
f ixture
Ġim pression
sub sec
Ġactiv ated
22 2
Ġpsy chiat
anc o
ĠTest ament
Ġjo ins
F un
ĠAR M
ĠEV ENT
å Ĩ
add er
15 8
15 6
Ġprom ises
RE SOURCE
Ġt ends
Ġexp enses
ĠRE G
Ġtab index
friend ly
c ue
15 7
Ġn ut
at trib
ĠCom ments
Sever al
ĠIn stitution
B F
ĠPr ison
Ð ¡
bo at
Ġany more
linkedExternal ProjectPath
ĠT odd
Ġoccur ring
. #
ĠCheck s
00 3
Ġpl ots
Ġob sc
rec ords
ĠCar lo
Ġlimit ation
Symbol s
ĠOak land
Ġbe er
B uffers
iz a
Ġphot on
ĠD ynamic
WIN DO
ro bot
ĠS yl
ĠA ra
Ġem igrants
Ġresearch er
iet ies
class v
d yn
ah u
Match ers
Button s
> ")
w m
ĠS Y
ĠId entity
Ġsubmar ine
sc opic
umb ai
Ġs cheduler
ĠPr ague
DA O
o ct
V ari
Ġr uler
Dis patch
uls ion
m ons
Ins pector
ĠG uild
B G
ĠPer iod
Ġc odec
g ments
iz ar
Ġrevolution ary
ĠS ter
ĠVis it
ĠW riter
Ġdoll ar
Request ed
Enumer ator
ĠAl ert
aff ected
footnotes ize
DEF IN
ic z
ĠNob el
Ġf unny
X i
ER ENCE
ĠD ame
ĠSaf ari
h in
Dis pose
M ah
Ġver ified
Ã ¯
Ġdig its
N d
UNK NOWN
n od
Ġn aming
ĠC rit
á ¹
ĠA my
Ġd uplicate
' })
initial ized
âĢ ł
Ġd ying
15 3
v ect
U k
List View
Ġz ones
ry s
ME DI
I FI
Ġarg c
Off ice
SH OT
C U
get User
). </
cess ion
Data Set
\ }\
b ecause
ĠNap ole
Ġachiev ing
Î º
Ġcy ber
P AGE
glew Get
Ġextra ordinary
ĠI Enumerable
add y
Co ordinate
ĠG az
Ġwithd rew
EX CE
ĠG ate
Ġequival ence
ne z
ĠTrans form
Ġdis band
Ġphil anth
Imp licit
18 51
Ġt ier
Ġsynt hes
or p
B log
Ġb onds
is y
s uffix
) ](
null able
ĠB av
GLE W
ĠR av
ĠCO MM
El se
ĠEx ternal
ĠAc cept
id ays
ĠC ec
Ġinstitution al
vel ocity
Table Name
Con nections
Ġhonor ary
' ></
ĠCatalog ue
N AL
} |\
Ġg race
Comp ilation
ĠPaul o
ç½ ®
18 49
Initial izer
Ġamb assador
Ġr ice
Cur ve
ĠG olf
ĠCo ach
Observ able
ĠT ypes
ĠClar ke
t lement
Ġant ib
andid ates
Ġvol leyball
s ing
ĠCont ract
TH ON
( ',
ĠComp etition
o ys
ap on
DI F
effect ive
ĠTun is
Ġt ear
Ù Ĭ
Ġper f
ĠArray s
ass ignment
D ead
Ġw eren
Ð¾Ð ±
os opher
Ġra pe
Ġ ^{
Comp atible
Ġim aging
ĠTib et
s yn
Ġas h
r idden
Ġb os
ff bb
ĠBro s
ĠAl pha
Ġdecre ases
ir us
Ġgard ens
Ġpure ly
ĠH alf
St amp
gener ation
Ġel dest
, {\
ett i
G al
Ġlo ans
æ Ń
Ġin cl
re load
s it
F ort
ad apt
Ġl ung
m is
ĠS ig
Ġplay off
Ġimport s
Ġpreced ing
Ġwork flow
ex act
L y
Con struction
ĠWAR NING
% ),
ĠInd ies
ĠHop kins
Ġfor um
Ġdiscip line
all ing
rot ation
he ta
Sh ard
Ġsh aped
S port
ĠD eg
ĠSh ape
Ġc iting
Dan iel
bor o
ĠDiv is
ĠAh med
Ġsec ular
Ġbe an
con sum
pos itive
Ġa thlete
Mod ify
Ġcompan ion
ĠDes ert
"> :
atern ion
Ad ministr
GL uint
Mut ex
ĠB arr
Ġup dating
Ġpod cast
if etime
EQ UAL
20 6
ĠBos nia
Cover age
Hen ry
roll ment
do ct
cap acity
ĠGab riel
Ġalter ed
control led
P a
m eter
ĠF at
Ġquadr atic
lic h
ĠB ened
ĠWars aw
ĠFellow ship
cod ing
* }{
Ġdifferent ly
18 47
Or g
Ġte eth
Fl at
Par allel
Ġb ills
ov ina
math comp
m aint
m ile
80 80
sup erv
ethe less
Ġexecut ives
ĠY ellow
Ġtim ber
Ġalloc ate
ull ah
je ctions
Ġan ce
ĠWell ington
Ġmet all
s qu
ĠChe ster
p ane
min or
ĠCons ult
h art
Ġd ign
ff icking
put ing
ĠGener ation
ĠS ou
ĠA str
Ġhop ing
Jose ph
est yle
Ġnovel ist
ĠD WORD
F ACE
DE SC
ĠObject s
ĠB lo
ond e
ĠRe ich
ĠE mail
ĠÃ Ĺ
ĠPriv acy
Â ½
Ġw avelength
SN AP
Ġgrad uation
Ġwitness es
Ġderiv atives
ĠMar io
Proc Address
ĠIn fo
en i
To Array
) }.
ĠStat ement
ĠCommunic ation
ĠAng lican
ĠPlan et
% ">
ĠBel arus
im ity
D evelopment
ĠH ait
Ġli ability
le ave
({ },
Ġlegit imate
Ġmer ch
Ġcon spiracy
pect ives
Ġdi et
ell ers
Ġscreen ing
Î ¯
le arn
ĠPan ama
ĠCab inet
IC AL
ĠN R
Ġag gressive
6 55
ex e
author ized
Ġin quiry
ĠSp encer
ĠV ec
\ ;
ĠM ouse
mock ito
l ucene
Ġform atted
ĠW inn
ĠT ong
Spec ies
Ġmillis econds
Ġc ry
ĠA pr
ge bras
sk a
Up dates
ĠTom my
ĠGL sizei
Bo ard
g ot
Ġ[] *
50 1
ĠFr anÃ§
Ġarr ives
ĠP NG
comm unity
Ġmot ivated
ĠR ah
At omic
D NS
Ġprest igious
" ):
D utch
g allery
work flow
ĠAct ivity
atche wan
p ause
ĠT IM
Ġview ing
im mer
ph antom
n f
Print f
b rowse
ĠCon sumer
Ġemp ower
R pc
n ear
Ġattack ing
D J
ĠNew castle
d ns
Ġfavour ite
ĠA CT
Ġstri kes
Ġf ame
Ġsurviv ors
Ch ars
oc hem
Ġgrav itational
Ġwar fare
Ġcomfort able
g ary
ĠH AVE
Ġun clear
MLE lement
é ¡
og o
ex c
ĠF E
Ġan ger
C AR
H a
ob server
ĠUn known
Ġcontext s
Ġcro ps
ĠF oo
border ed
C ities
ĠĠĠĠĠĠĠĠ ĠĊ
get Path
ĠC lick
ist ency
Ġelect rons
Ġpregn ant
man uel
S pl
Ġb atter
Ġ================================================================= ========
ĠMET HO
V ersions
Ġres ervoir
Ġiter ate
Ġwarn ed
s cheduler
Es cape
neut ral
Ġtraject ory
é Ļ
4 000
min i
Pack ages
Ġhon ored
n ut
Ġre dis
ĠJ ak
Ġrem arks
he nd
UM ENT
ĠSc ar
Cal c
ber y
end l
Job s
ĠS F
Ġj oy
R ivers
ĠApp ly
åľ ¨
* \
| _
\% $
Ġattract ive
l azy
re pos
ĠKn ights
ĠPh arm
&= &
ĠBrun swick
ĠJ ung
Ġre interpret
ink ing
h im
Ġst reak
ĠValid ation
sh ake
Ġpre val
ĠA DC
ĠO wen
Ġ* =
ĠDefault s
char At
mu x
bal ance
M AT
v t
ĠG ang
Ġdist ant
heim er
Ġas ynchronous
ĠUg anda
it les
eg an
Ġl as
Ġreg isters
17 8
ĠDis covery
Ġburn ing
ĠRh odes
Ġmet ropolitan
SY STEM
Ġtra ct
Ġbu ying
scal ar
Ġdiagn osis
ĠS ic
ĠEx ecute
Ġmat hematic
fe at
ot yp
ak ef
azel cast
Ġph on
unc an
^ (
Death s
n th
Ġc rystal
ĠS ullivan
I o
Lou is
is che
1 200
Pos itive
n om
Ġdemonstr ates
API ENTRY
ĠB il
Ch annels
}_{ -
ĠIns pector
Ġ\ &
Ġal arm
Ġh orizon
Col lege
Ġdraw s
Ġst rain
ĠB io
ir q
b road
Ġfriend ship
G reat
> ".
ĠG ent
P rec
s ites
re start
ĠR uby
Ġhom eless
ĠHer ald
Ġemp irical
/// <
Ġdescri ptions
ĠInitial ized
execut or
ĠM IN
Ġr pc
ĠRem ote
Ġj ack
Ġparticip ant
em b
ĠA post
Ġf printf
Ġdis ability
Ġp kg
ĠVol unte
J ournal
in fl
out ing
ĠH H
ential ly
ĠR ice
com puter
Ġeng aging
g ateway
Pol ygon
y ml
18 53
Ġvol atile
Ġexhib its
ĠWood s
ator ies
be havior
Ġt ube
Ġfore cast
ĠDown load
Ġrecommend ation
Ġequal To
Ġad mit
Ð ³
flu ence
MO VE
ĠCh an
Com panies
D ocker
ĠE T
Ġbe et
ĠR ol
sh utdown
Mod ern
source forge
S uggest
song writer
perm issions
~~~~~~~~ ~~~~~~~~
m ans
Ġnumer us
Ġpoll ing
n ell
Ġfl av
ĠDis able
ĠPlay ers
Ġtravel s
ĠF ail
ĠSecond ary
Ġh oped
\| _
Ġ Ñĥ
Ġnow rap
ĠInt ent
Ġb uses
ĠW A
S oviet
Ġ[ -
Ġsim ulated
Ġpoll ution
in ja
Display Name
17 2
it ars
Ġsub urb
Ġelev ated
") ).
16 1
tt ify
Ġuncert ain
Ġexp ense
Sh utdown
ĠM ik
h agen
Ġtool tip
ĠÅ ¿
w yn
Ġconj ug
up les
ra its
ap a
Ġquarter back
C OR
Ġbe ings
rack s
}) =
Ġstand ings
Ġmist ake
Ġtack le
dr ive
ed uc
ent on
add itional
Ġcrick eter
ĠCamp us
Ġconsult ant
ĠManu el
con sc
Ġimplement ations
n ets
pro j
Ġsome how
at z
Play ing
ĠSalv ador
Ġtra its
Ġfore ver
Ġdam ages
Loc ations
ĠEag le
ipher al
Ġcomp rises
We ak
ch ars
Ġut ter
design ated
stan bul
\ ",
ĠPark s
ang ered
Ġpil ots
es lint
> =
LE ASE
ĠPet e
Ġte ch
am as
LI ED
ĠEngine ers
ĠByzant ine
Ġep ic
Ġg aining
Ġgrad es
C ycle
g ap
Ġblock ing
ĠS urre
ĠTr uth
ĠPrinc ipal
Ġagre es
ĠA chiev
it ic
Ġint ens
36 5
ĠCour se
Ġr df
Ġ` --
start sWith
Ġp unk
L ex
ĠD iana
ĠW idget
Ġcl othes
") ),
ĠBey ond
d ac
Ġcomp ress
ott ingham
Ġterm inated
ĠSeb ast
Am ong
ĠInnov ation
ĠM ER
View Model
url ing
ĠCard inal
è ¦
ĠĠĠĠĠĠĠ Ċ
ĠZh ang
Ġc hest
REQ UI
ĠP E
Ġpres ervation
s uggest
ĠEm ily
Ġdepart ed
Ġte a
IG H
ĠLe ave
Ġdecre ased
ĠCard inals
Ġkid n
Ġsal ary
Ġche ss
Ġsynt hesis
Ġg host
R oles
ĠGen eva
t ap
Ġre un
Ġident ifies
DebuggerNonUser CodeAttribute
u ania
am en
assert Raises
)) :
Ind ent
iv ar
atin um
n ol
DIS ABLE
Â ·
18 46
Ġsur veillance
Americ a
Ġal phabet
Ġcont rolling
Ġtranslate X
ĠM ine
che m
:: ~
Ġel li
oot ing
h il
ĠUs age
Ġflex ible
ĠWIT H
Ġcross es
ul ent
Ġevery body
ĠOut standing
dig est
Ġin ev
be k
23 4
am ination
ĠO w
un ate
Ġa u
ĠRev ival
ark er
}$ }
Ð¸Ð ¹
U tf
sh im
ĠDist inguished
d ue
' ",
F ixtures
Ġab c
elect ron
AB C
Ġon Click
Ind ividual
Ġr v
prom pt
I rish
Ġh yd
ĠK re
ber ger
ĠY emen
Marshall er
Y ES
Ġ( &
ĠA ub
P LA
ĠCy prus
Ġpitch er
aw i
Ġarchae ological
W IDTH
m igr
AN Y
ĠG host
15 9
r ice
ĠR af
found ed
ĠCor p
Ġres ize
Cl osure
ĠD anny
An swer
Ġtranslate Y
ro uting
ĠE cuador
Ġadequ ate
Ġbur st
PRE SS
Ġann ex
y ang
17 6
RE L
Ġinstit ute
ĠT X
inst on
MO D
M arg
as ures
Ġrenown ed
Ġd ock
Ġbel t
Ġpro sper
H AS
Ag gregate
enc oder
ĠR achel
W ER
ĠThrow able
j as
Ġrec urs
ĠCap itol
Ġdemand ed
Ġmechan ics
tw ig
s ix
Tim eline
b ian
sp y
P en
ab etes
Ġreason ing
ĠQue stion
yl an
x a
Ġsubstantial ly
ĠS ales
With in
H ence
Ġund ers
ia z
ĠCom edy
m or
child node
Ġabb rev
ab ol
Ġorb ital
: ",
G erm
ĠI v
Ġleg ally
COM PI
ĠK or
ĠV e
Key Value
account s
ĠK ol
Ġo d
Ġtra iling
tes y
Ġaddress ing
Ġplan es
Ġconcentr ated
Ġnew er
Ġs ou
Ġball ot
ĠVlad imir
Î ³
er ie
Ġdr ives
Sup pose
Ġnation wide
18 5
att achment
ĠPar ad
St roke
ĠMus ical
Install ation
Inf os
ĠP om
ĠE mber
y outube
Ġext raction
Ġpione er
est one
r df
Address es
Ġcust ody
] ):
is en
ĠBr ussels
================ ========
May be
ĠCoun ter
Ġaffect ing
xx xx
gr and
Ġdes per
Mar shal
ĠDem ocracy
Ð¸Ð ¼
key board
ĠH ousing
IN X
Ġad mission
DE SCRIPT
Ġcomb inations
g b
ĠS DL
Ġam pl
FAIL URE
Ġsub scri
Ġperman ently
Ġsimp licity
Enc ryption
hes es
Ġswe ep
* (
Ġab oard
ĠEx ecution
ĠMar shal
Serial ized
er i
ĠP UR
Ġeigen values
il iation
Ch ief
xi ety
ĠLegisl ature
EMP TY
Ġcomp ounds
Ġs printf
ĠRon ald
Ġp ounds
Ġh istogram
f urt
ĠH us
ĠBat man
ip linary
m art
Ġn umpy
ĠĠĠĠĠĠĠĠĠĠĠĠĠĠĠĠĠĠĠĠĠĠĠĠĠĠĠĠĠĠĠĠ ĠĠĠĠĠĠĠĠĠĠĠĠĠĠĠĠ
Red uce
ĠAct ress
ĠJama ica
ĠLIMIT ED
r n
re b
fam ilies
ĠSus sex
ig i
Ġaux iliary
Ġun s
U X
sp lice
ĠPo etry
Ġin comp
ĠG lass
Ġtri ps
3 80
M otion
Ġ} }</
Ġvol tage
Ġstop ping
ĠÐ½ Ð°
Ġtra p
Ġmon astery
Ġexplos ion
Ġb rew
Ad just
Ġc d
$ &
en umer
ĠGrand e
Sm art
ĠIndones ian
Ġd ancing
, âĢĻ
ou x
ĠRep lace
b ur
P s
ĠE ve
Ġrel atives
assert That
ĠLet ter
. {
marshall er
IT EM
Tem plates
W T
Ġpre vention
Ġf t
Ġe cosystem
ĠEll is
ĠM ob
ĠV II
Ġcontrib utor
Ġf ract
rele ases
Ġc riterion
å ½
ĠS ey
pro portion
ĠCom ple
Ġw orn
ĠA ires
ĠCh oice
sp ons
Ġwe aken
Grad ient
Ġgram mar
Art icles
Ġpredominant ly
Ġc f
Be h
Ġco at
to Array
Ġcan al
ik ing
Ġap ple
GLA PI
x si
Ġcontinuous ly
P IN
Ġlic enses
ag le
k el
j ournal
Ġin set
atic an
m ud
list eners
b org
ĠC ut
F s
Ġh itting
Ġenorm ous
Ġanaly zed
Ġcorpor ations
ĠGit Hub
inst ances
ph al
ĠX XX
ĠAssoci ated
ĠG NU
ĠF ake
ĠSp ider
rang ian
ĠGard ens
9 78
Ġs ailed
Ġdeg rad
ĠAcadem ic
Render ing
Ġprison er
id ity
aw ks
ĠDr iver
ĠPsych ology
Ġret reat
ĠP and
ph ot
ĠV illa
SE D
Ġelse if
Ext ent
) }_
Ġun ve
mention ed
æį ®
r ases
ĠE S
Ġ ].
C urrency
ĠArch ae
ĠPear l
it ize
Ġrenew ed
) ");
st ed
ĠB U
"> {{
ol er
EN SION
L azy
Ġl oves
ch air
Ġnational ly
cal cul
r idge
ĠAd ult
F old
c riteria
m itting
Ġl ua
ĠU UID
ĠSch w
Ġharm on
ĠArmen ia
get Int
Ġa ster
ĠPh one
Ġcon clusions
] /
"> )</
ong s
ĠR ele
D evelop
ĠC ome
INTER NAL
Ġemploy ers
ĠPar ser
or ic
sql ite
COMM AND
; :
ke es
ug ee
Ġtrac es
Ġdel ight
ä ¼
ĠL arge
Gu ard
Ġch ore
Ġsett le
ĠStock holm
Ġsk etch
Ġprevent ing
ah a
ĠMethod ist
a ude
ĠCh anges
Contin ue
Ġs sl
ur ated
Ġs creens
ĠB SD
On line
ĠPer th
ĠP sy
ĠStr ong
Ġuniform ly
Ġ& $
Out Of
30 2
Prot ected
m ind
set Property
log s
Ġhom osex
ist o
inter est
ĠV ern
y u
her its
L IMIT
ĠL oss
Ġsp ac
M u
us hes
eq z
Q String
D eleted
em bourg
qual ified
Ġqu otes
ĠX I
ĠEs sex
+ '
Ð ¶
Ġcontin uation
ul ators
ĠDecl aration
Ġt m
av ian
> ?
Ġexception al
ular ity
Exception s
Ġin complete
S a
sort ed
Ġtrans mitted
Rem oved
ject ure
cho ose
Ġs iblings
ĠP ul
ĠS TD
60 1
Ġlegend ary
M il
ĠInd igenous
Ġ( @
im on
depend s
}) ^
View er
ĠÅ ł
H op
act ivation
Def ine
ed ed
Object Meta
ĠInitial izes
Ġso ap
sm ith
Ġincred ible
n or
aint ies
Buffer ed
Ðµ Ðº
Ġadjust ed
Out er
dev ices
Ġbatt alion
Ġch ip
ĠBulg arian
en es
ĠViet namese
il ian
Ġpres idency
ĠDi agnostic
Ġinj ection
ĠWest minster
Set ter
ĠDur ham
') [
Ġrele asing
ĠG and
ĠK as
Ġt rem
ĠNot able
Ġg em
20 9
publish er
d up
ĠA bs
ĠW R
sp ired
int egr
List en
Ġbur den
inet ic
pass ed
Ġbul let
Writ able
Ġoblig ations
O Auth
d irty
Ġh ills
im ag
ape st
Get Value
Ġfle w
Ġtransl ations
C ut
da o
Ġv ow
ĠU ntil
Ind ia
Ġadv ised
ĠM umbai
ASS IGN
Writ ers
x FF
Ġimp ly
ari ate
Ġnick name
/ ************************************************************************
Ġ[ `
Ġpop up
ĠOriginal ly
Ġt u
æĹ ¶
Ġconfirm ation
Ad apt
ou ple
ĠV k
h ir
l st
node Name
Ġpoor ly
op eng
Ġ<!-- [
ĠAppe als
E mit
ĠG ill
k now
Hash Set
ĠReyn olds
Des criptors
ĠF ourier
Byte Buffer
Ġcongress ional
Ġv ibr
Ġo l
ĠC ork
Ġev t
ĠTreas ury
ex pects
Ġexpl oring
big l
Work ing
? ,
Ġm ild
P N
Ge org
... ]
SNAP SHOT
b igr
ĠF ighter
DI O
s uite
Event Type
Ġround ed
Con cept
max imum
ĠC yr
R oad
W all
ig g
ED IT
=" .
art a
Char acters
status Code
lev ard
L uc
Ġindu ction
orne ys
> ");
Ġtim eline
ST M
icy cle
intend ent
Ġacc red
ĠJ in
m ixed
ĠC ord
Ġsever ely
hand ed
Ġp ap
ĠShe ffield
h ang
ĠL iv
Ġd atabases
Ð Ĵ
ond o
ĠFried rich
mem item
dat as
port ed
FO UND
r ss
Ġful fill
ĠI X
Ġstud ios
ĠPresident ial
cod er
ĠMarc us
ĠBl ake
Ġlit igation
- %
arri or
6666 66
ĠF olk
16 2
Ġs f
err no
single ton
aaaa aaaa
Ġadv isor
un ches
Ġaut onomous
P ipe
VAR I
l os
us p
k ed
UB LE
ĠYugosl avia
Prot os
ĠT E
Ġun anim
Ġref ere
ch ip
Ġadminister ed
Ġis omorphism
Ġcontact s
Und efined
output s
ast ics
18 45
mid i
3333 3333
Tr im
ĠKaz akh
Ġl ifestyle
files ystem
Ġcommem or
Ġsw ing
ĠPow ell
Ġ= =====
ĠOt to
f ork
Ã© g
ĠPo inter
Ġdream s
e o
ĠU int
Ġcons erv
alloc ate
Ġprefer ences
u ant
Ġabsor ption
ĠH ur
Ġtransform ations
Sort ed
V ir
ĠMet al
Sl ide
ĠA G
Ġf ut
Ġcorre ctions
ĠTh anks
ĠModel s
B attle
ĠD oll
ĠAL L
Ġl ac
ĠS ometimes
ĠMal ay
produ cer
Ġstr len
ital ic
Ġsem if
Mon o
aw ait
of ill
ME TA
Ġsan ctions
Ġd rain
Ġb ail
ĠSup pose
Ġtoler ance
in ion
Ġmon arch
ĠH ass
ĠD ES
cl ub
fl ink
As String
byter ian
= }
r ise
16 4
ĠAng els
ĠJac ques
rece iver
Em ploy
d istrict
ok emon
å ·
ol ation
Ġpress ed
Ġpack ed
Ġstrugg ling
ere k
en ium
du al
B on
Ġun stable
Ġdead line
>: <
^{ (\
ad j
row ing
ĠSh in
user Agent
Ġm eg
ĠHol mes
reg istration
. \\
ĉ ĠĠĠĠĠĠĠĠĠĠĠĠĠĠĠ
Ġgu ards
ĠS part
Call ing
G uest
ĠT all
Ġ' *
Ġancest or
ch r
ĠH urricane
Sing les
focus ed
ib a
v iol
Ġfound ers
Pro blem
17 7
âĢĿ )
ĠJul ia
ĠCon v
spe aking
Ġh ooks
av ef
ĠMe eting
reg ation
rom agnetic
Tool tip
loc ations
ĠP ool
Ġsql ite
ang led
R U
sc apes
Ġdim in
Ġpian ist
D ump
cl ide
ĠCath olics
Ġdesign ers
Second ary
Non null
Ġl oyal
Ġpolit ically
ĠCub an
Ġconstitu encies
Ġcul min
Ġcho ir
Stud ent
40 3
à¤ ¾
Ġwild life
Ġwalk s
ĠI BM
ext ended
is cher
Ġ'/ '
Ġan ten
Ġm ad
*} [
ĠO thers
ĠGram my
28 8
K S
P rem
Ġback ward
At Index
Ġgener ators
Ġphys ic
Ġdec ent
ĠZ ion
Ġboot strap
ĠImp act
R anges
un til
ĠCO MP
ĠI o
iz ational
}\ ,\
Ġimprison ed
ep per
Ġres ume
CA SE
Ġt ent
ill on
parse Int
^* (
ĠBry an
Ġnom inee
in ia
Col umb
U ng
ad vert
ĠL ac
Direct or
ĠGrad uate
Ġx hr
Call s
5 50
ann ers
we ights
-- ">
Ġcomp ressed
asm ine
Ġb uffers
ĠSp ark
Ġdisappe ared
ĠJer emy
ct uary
Ġhard er
e ah
Ġconv iction
ag ic
Ġport al
Ġatt raction
Ġment ions
ĠF lem
ĠDav ies
ĠDr ug
Ġseem ingly
( ::
ul as
Ġhe ll
Ġdisc ount
sen al
nt hetic
J oint
M irror
HO W
, \\
ĠSh are
Ġc ant
18 37
ĠSim ilar
IR T
ff e
Ð½ Ð°
Ġcard inal
Ġs its
Ġt weet
Ġjoint ly
ĠLeg ion
cred it
[ @
ĠL or
aged y
Ġimm une
C ENTER
Pol it
Ġliter acy
Ġemb ark
ĠCoal ition
Ġpeak s
ĠAuth ors
ĠS uff
B ay
ĠC elebr
Ġinduct ed
Ġt une
Ġl hs
ĠG PIO
Ġacc us
Ġcare ers
G esture
Ġadv ances
é Ĺ
Ġsoph istic
Ġdecre asing
ĠO z
Ġb ip
ĠSher iff
ten ant
++ ]
ad vant
Ġfall back
Ġsuperv ision
å ¾
====== =
ersh ire
ĠA ges
W D
e u
ch ief
18 2
Ġair line
st ead
Ġconsider ably
end ant
Ġlist ings
ĠF unc
To o
Pr inter
Ġpra ise
LOC ATION
Ġl akes
Ġadm its
Pl ugins
Ġs ung
ĠE g
ĠR ut
Ġpropag ation
g rey
ĠGr iff
Ġbehavi ors
Ġrac ism
og an
Ġprof its
S ensor
Ġwork shops
DE CL
ãĥ Ī
udd y
Ġdiff usion
Combo Box
ĠHamb urg
ĠSw an
Ġre pr
ĠS weet
Ġ[ &
Ġv in
ĠMal ta
i ago
ĠT error
root Scope
ĠDev on
ĠF lying
B IND
ex perimental
illa ume
ĠJohann es
Ġre lies
Ġam id
SV G
Ġsi ege
equ ations
Ġca ption
ĠHol ocaust
Str ict
Ġcheck point
Ġt aste
pred ict
ĠG lobe
Ġro l
Ġmys ql
per formance
AR M
ĠH ack
be it
ĠGe off
: .
ĠFl ash
Start Time
S ibling
ĠS equence
Ġpresent ing
} ~
ĠEvent ually
illi an
Ġimprison ment
Ġw ishes
25 4
Ġip ut
Ġr ings
Ġcasual ties
are l
Ġserial ize
J ean
com pressed
Ġperform ers
Access ibility
Ġsac red
se ver
ele t
umber land
ĠNot ice
ĠConst ants
Int egration
Heading Color
Re peat
Ġcount ing
ic ion
LE T
ĠL ak
Di agnostic
eval uate
Build ing
Ġdynam ical
Ġexha ust
Ġl oud
ĠEthiop ia
ĠTas man
Ġam ended
Ġst uck
up pet
17 1
> {{
ĠEngine er
Ġinh ab
Ġf ed
å Ģ
Ġy ard
Ġacadem y
ĠMoroc co
Ġsample d
SET T
ĠBa iley
Ġpush ing
avi our
Ġsegment ation
Ġv i
ĠS ort
ĠC V
Ġprop ri
PE G
CUR RENT
Ġpl asma
ĠE asy
Ġaccept ing
Vertex Attrib
] ],
thumb nail
ĠMor r
ĠB elf
ĠF ul
ĠKenn eth
ĠHe aven
Ġathlet ics
add All
Ġbit map
Ġcollabor ated
AUT O
an mar
ĠTrans it
G od
ĠD in
}} ^{\
ĠCoun sel
istribut ions
ĠR aid
Ġqual ification
io let
Ġinter change
IP S
z el
Ġasympt otic
Ġbe ars
Ġisol ation
Ġper sec
ĠS U
Draw er
Mart in
Ġres umed
ĠBrook s
8 75
Exp licit
Ġpropag anda
ĠDomin ican
ĠL akes
anc a
Ġc ele
rack ets
left arrow
ĠIniti ative
Ġend orse
ĠBu enos
Sin ergi
M ic
Ø ¨
ĠSh i
mid rule
IT NESS
Ġcontrib utors
Ġacknow ledge
sim ilar
ira ble
ĠArm strong
ĠMig uel
; "><
ĠSo ft
Ġ@ {
Spec ify
S DL
ĠNe uro
mid t
cons ider
Ġadvant ages
R X
ĠB irth
ah oo
G ed
Des erial
ĠCr us
}} =
Ġdiagn osed
Ġrevers ed
Ch ris
Ġlimit ing
tra ined
Ġt abs
Public ations
ĠEm ma
qu in
ĠKer ala
kin son
Broad cast
Ġproceed s
Ġcler gy
ath a
ĠF ifth
omet own
st ones
Ġmem o
ĠR ather
G reg
Ġmin er
Qu ota
Ġathlet ic
Ġneighbour hood
ĠSum mit
Ġkit chen
}) (
con sumer
ĠRE ST
Ġcl ine
Ġcomm ittees
ors ed
ir y
Ġhard ly
Ġrem ix
Ġbas in
Ġh ind
Ġ" __
SP H
ic ers
18 7
ĠSask atchewan
t ier
DE C
Ġconstit ute
un ting
AR GS
Ġrad i
Ġt a
Ġem otions
ĠKr ish
Ġ' ;
Ġbacter ia
el if
nt on
Ġh unt
Ġtor ped
Fiction al
L ER
um ann
Ġstruct ured
ĠBi ography
h on
ĠC av
Ġlo ops
ĠNav igation
n at
Ġt c
Ġ ------------------------------------------------
Ġdiscuss ing
Ġl ig
ĠM old
Ġcomm enced
Ġir regular
ub le
Ġaffili ate
hom epage
ĠM ade
ours es
ĠSpec ifically
L es
Phys ics
Ġkil ometers
oc ene
ĠMan it
et ched
ok i
Ġevery day
c ats
ĠNet flix
An alytics
Ġbr illiant
rec ip
Ġaccur ately
ĠK ids
Ġvar ieties
/* .
R ele
Ġdraw ings
Ġk iller
c ence
ĠP ink
Col on
ĠP H
r hs
Ġex terior
Ġsport ing
Ġinvent ed
k b
Ġd ancer
ph ant
dep loyment
Ġwithdraw al
Ġland mark
ad ier
Con serv
P et
ĠStr ategy
Ġcap ita
ĠMat hematics
term inal
Ġb ubble
18 44
rac ed
on so
um en
ĠÂ «
c ards
Ġb uck
Propag ation
ĠInter view
) `
Ġin clusive
16 3
ĠWil helm
ĠUn supported
Ġthrow ing
ik er
Ġv ig
Ġhum or
Ġtact ics
Ġfar ms
Mov ie
Ġestim ator
Ġdest ruct
ĠTy ler
ãĤ ĭ
a uc
lish ments
ĠAbd ul
Ġstat ute
ĠM Ã©
Ġ$\ {\
er ia
ĠB R
ord ion
d oxygen
Ġbe aring
dec imal
- "
ol in
Ġlearn s
ĠF O
ĠF erg
cell s
O l
S leep
Ġd ivers
ĠPl us
Ġphil osopher
6 50
J on
Ġ" ../
18 39
Ġconsum ed
Ġprohib ited
http Request
Ðµ Ñģ
I reland
Ġtechn ological
Quant ity
ut ory
ĠE t
conn ector
, (
L iter
ĠL ands
ĠN ine
n ership
um ble
ĠX X
Ġdrop down
ĠC rypt
ĠF erm
un credited
Ġmet aph
Ġwork shop
iev e
Qu ote
Get s
Ġsup ern
In herited
Ġb er
et erm
Cal cul
Ġfilter ing
Gener ation
strict Equal
l hs
ĠHe ights
Ġlect ures
Ġconscious ness
ï ¿
get Item
re comm
Ġb eneath
Ġinterview ed
Ġfre ely
ĠN ortheast
In side
ä¸ º
Ġsm oke
clean up
Ġmyst erious
ĠRichard son
ĠCustom er
ĠRel igion
ĠK aren
i ya
QU ERY
S equ
Ġinvestig ating
Ġrep lica
Ġbound ing
b anner
( _.
ĠC LI
Ġsymbol ic
P ORTED
ĠOff set
ĠSl av
Ġpregn ancy
H istogram
ĠS of
Ġ' ');
x d
Ġp ension
Ġgrand son
l ived
form atter
Ġoverwhel ming
ĠAd min
Ġunemploy ment
/ ?
beh aviors
ĠExt ract
Ġminim ize
ĠD ir
ced es
EX TERN
Bind ings
33 5
Ġneut ron
eg ral
Ġtour ists
He art
ĠDo ctrine
Doc uments
im eter
is ible
iff e
Ġview port
Ġd irty
Ġcogn itive
ter bury
im ited
x t
ĠReg Exp
ĠMer ge
Ġs hed
ev o
R ugby
ĠT ouch
ĠN as
Ġsur f
ĠPun jab
w at
ĠCon sequently
Un supported
Ġeth ics
ĠR N
Ġm ere
Ġbad ly
Ġbeat en
h ooks
Ġc ock
S PI
an aly
In strument
Ġmain land
air y
T s
j k
ĠSc ene
Act ual
ĠMc Donald
Ch apter
ĠM iles
and ro
CA ST
Ġspl itting
ĠIndian apolis
Ġs word
ĠPro blem
ĠNiger ian
Ġrecru ited
Ġdebut s
Ġrev ival
Ġguarant ees
Tax onomy
Ġtable Name
Ġefficient ly
K B
Ã¨ s
åĲ į
P referred
St ock
l iter
ab lo
Ġillustr ate
Ġpick s
U uid
ĠG othic
web site
d z
ĠD as
Ġ\ |\
Ġmus cle
ĠFunction s
filter ed
ĠN intendo
Ġprof ound
17 3
Ġcount ed
Sub scriber
d ma
ro utes
g ement
Ġlo ose
ur an
Ġsuggest ion
Ġ" *
Å ¼
Ġl p
ĠG ren
c ro
PRO CESS
} ',
oy a
Ġplan ets
le ad
Ar thur
ĠAut om
re ction
Instance State
ç ī
Ġn u
az ar
Pl ain
Ġp ist
e pt
k ers
Ġcolon ies
Ġarchitect s
Ġm oll
Ġpl ates
Ġrel ate
Ġcontin uity
it Ã©
le z
Ġd ish
25 7
ĠRem ember
64 0
on aut
am ine
track er
n st
Dig est
Ġst ret
Ġindex es
duc ible
ĠFranc o
Ġswitch ing
l ighter
Ġtra iler
Ġcirc ulation
Ġque en
ĠK umar
å ¸
ĠS ul
ĠĠĠĠĠĠĠĠĠĠĠĠĠĠĠĠ ĠĠĠĠĠĠĠĠĊ
ĠFr anz
S ens
Ġw ore
al ic
}{ }
Field Value
ol an
Ġposs ibilities
ĠPer haps
Ġdiss olved
S py
Ġlink ing
enn ium
ĠSom erset
zy me
ĠP orter
ĠL ayer
Ġget ter
ĠG UI
ĠC ann
ĠD b
em e
Ġv ault
med skip
Ġprivile ge
^* \
Ġh over
ing ers
t ou
ĠMer it
h appy
Ġv a
Ġmark ing
Sw ap
H ierarchy
S ar
Ġ( .
DO C
Ġgl ad
Ġl n
ble ms
omb re
Ġhar vest
ĠBaron et
ĠRoll ing
Ġabund ance
ÑĢ Ñĥ
Ġprov es
Ġconf ident
RA W
eg ovina
A MS
Ġexp ired
Ð¸ Ñģ
> }
ĠP ractice
amb ling
el ong
St and
Ġexecut ing
Ġre build
Ġrom ance
ĠSTAT US
ate ful
P ager
Ġtheat rical
ĠO g
ref s
ĠV ER
Ġse ized
18 20
$ {\
ĠN urs
ak ov
open hagen
asc ular
habilit ation
Ġwe igh
Ġcomp ly
Ġget Name
ĠR ams
Ġreport ers
ĠBe an
Ġexpl aining
Tr ust
if a
ĠAr ctic
Ġbar rel
Ġadvoc acy
ĠT ampa
ĠB ears
Ġc pu
ĉĉĉ Ġ
Ġselect ing
bound ed
Ġpen et
17 4
ig nt
get Node
ĠV ision
P aired
ĠWh ich
Arch itecture
Ġres iding
Http Servlet
ipl oma
ĠCol in
Analy zer
ĠFoot notes
pro per
Ġoptim ized
ĠD uncan
ĠEx pect
uan ian
19 1
Index Of
Ġs ke
Ġinter im
ĠLine ar
print s
Ġprompt ed
in ely
get All
ĠO bs
ĠH arm
ĠG ospel
ĠOr lando
B all
B rien
Ġde alt
Ġhar sh
Ġprosec ution
(' -
Ġphenomen a
ĠInvest ment
ĠL etters
not ag
ĠInd ividual
Ġmod est
des ktop
Ġroll ing
ĠID s
Ġ[ ])
ĠWy oming
Ġsearch Box
Ġt enth
ĠÃ ĸ
Ġp ic
Ġqu ark
Ġcommun ist
Ġbre eding
G lob
Ġ\ ,\
ĠAn a
: =\
ph ib
ĠEx hibition
Ġexceed s
â Ĩ
level s
ĠTw enty
Ġcompl aints
H H
ĠS UB
WA IT
Ġview er
Ġdirect ories
ec a
UN IT
Ġpurs uit
hl js
Ġtort ure
S IL
Ġcomple tes
Require ment
Ġb uff
Ġgu ided
Sh op
ĠS leep
Ð°Ð ·
Ġsh ield
ĠSol omon
N an
Ġthe ology
Ad s
ĠProp Types
Ġ" @
Property Name
26 3
edd ed
Ġencour aging
Tur k
Ġsh ifts
Ġg ates
40 5
Ġdeleg ates
S on
Ġprotocol s
Ġtrav elling
ĠE c
ĠV il
Ġ? ?
Pl ane
Ġocc urrence
Ġcool ing
H ouses
J av
ĠEx tra
Gr ant
ps y
Ġl ady
ĠTri ple
Ġun icode
Ġbro ker
Ġim pressed
18 38
ER O
Ġindex ed
W F
Ġsurvey s
Ġarch ives
ĠPh ase
Ġter rain
ĠC ould
Ġdef ender
x hr
Ġr b
Ġfe ud
ain es
G ram
Is lam
Dem ocratic
ĠTh an
LO T
`` .
ĠThrough out
DI V
Ġdemonstr ation
ĠChel sea
Ġinv ocation
I ts
ap prop
Comp act
A k
u pe
Ġ iv
ut ility
Ġ* (
ĠE sc
H over
f bb
Comm unes
ĠProgram me
u en
ĠN ottingham
back slash
Result Set
ass o
ĠCh ase
ĠC I
Cho ose
ra ises
ĠFe atures
ĠLind a
ĠInt egr
con cept
Ġsens ors
Ġk ings
v b
Ġclass room
ĠBes ides
c ritical
ĠL ists
sc ience
Ġstrugg les
ĠG LE
Ġple asure
1234 567
L B
23 5
ĠV atican
Ġins ights
al ib
n ai
p ix
ĠR ush
Ġcl ustering
Ġscal ed
Ġwid ow
ĠCa uc
ĠB ever
ĠHe at
ĠSp ot
ĠLith uania
C ref
---------------------------------------------------------------- ----------
ï¿ ½
18 41
ĠShe ll
l od
Cont ainers
Ġinternal ly
Ġnumber ed
erd in
Ġpolar ization
c lo
m otion
u ent
ĠH ook
Ġcomed ian
uc le
ĠL ap
Ġ% (
ĠBrad ley
q s
20 7
IN TEGER
22 6
Ġref id
N s
Ġ ie
Ð°Ð ²
ĠCl aim
Ġsent iment
oy alty
Tr ansp
Ġvict ories
Ġmidfield er
ĠM ega
PO M
! ,
V ictor
US H
A verage
Ġalgebra ic
è¡ ¨
col m
Ġmatch er
parameter Value
in ians
45 6
Ġmut able
ĠM ull
G U
Ġevent ual
ĠInitial ly
17 9
j gl
Ġk ills
Ġgl ac
clide an
ne apolis
^{ *
Up grade
isc opal
ĠPop ular
: {
ath am
Ġf illing
Con trib
log y
ĠAn imal
ol ith
Ġang ry
M ixed
Ġdiv or
Ġintr insic
Ġdisestab lishments
Y M
ĠPUR POSE
t oday
Ġdiff ers
Ð ¹
Fl ash
Part icle
dat atype
Ġpup ils
be am
ĠLe ic
D roid
null ptr
ĠSQL Exception
ĠAb original
Ġsepar ator
Ġr ifle
18 42
comple tion
ĠT race
it he
# /
Num bers
it ary
l ining
Ġup set
Ġtri bal
Ġcour age
E ducational
Ġn erv
N ay
[ ^
sh rink
Ġfluct uations
Ġ× Ķ
Ġneutr ino
ab ar
18 32
ĠIS BN
col span
L ee
Inter action
ĠD uck
ĠF ut
all a
Ġun ited
CH ANT
zh ou
D ummy
18 1
acc um
et ches
Ġterm inus
is dom
ru it
In ventory
enc rypted
ĠNot ification
ĠM ead
Ġvar char
Interop Services
fo od
Track ing
P ag
head s
Ġcompr ised
h yd
u ario
p ark
M ARK
ĠT EXT
Ġshe ep
prov iders
q t
Ġfin ancing
ĠMark eting
Ġalt itude
or ian
ĠSpec ifies
mont on
S u
Inst ant
C AN
ĳ ¼
pe st
Ġped est
Ġf el
ĠC K
ĠY O
any on
cor ollary
Ġlux ury
LAB EL
Ġanalys es
g pu
Ġrespect ed
Ġvacc ine
ĠIs le
ĠAndrew s
ĠT ell
30 3
Ġcompr ising
j in
Ġra id
ĠMan ila
Ġsuggest ions
Pop ulation
Ġf p
ĠW H
Transport ation
ĠPal m
Rep orter
Ġb arriers
ĠN UM
is ers
Ġm im
ĠR ib
we ets
ram id
Ġf Ã¼r
Ġreson ance
av g
draw er
atern ity
Ġuncert ainties
ĠB B
ric ia
ãģ Ĺãģ
pre ced
TRAN SL
Ġmer c
ĠR ET
Ġ' __
Ġind oor
ĠWe ather
Ġins pection
Ġan ch
Ġpolynomial s
Ġmap per
è §
Ġprob abilities
Ġp uls
Ġm eter
Ġaf raid
Ex act
ĠA part
Ġcomp ass
ĠOpen SSL
Foreign Key
ĠTo o
At om
; ",
Ġsyn onym
Ġbrig ade
ĠEmer gency
>? [<
L oss
Ġarg uing
Un ary
Ġtouchdown s
Swed ish
ĠCom mercial
EX EC
Ġinvest ed
al an
Ġp ink
ĠCh uck
Is Valid
Ġche ap
ĠRec on
(" {
| ^{
key frames
Ġ# [
Ã© m
Ġgu itars
PR INT
ut ers
18 36
Ġtal ented
L int
stat istics
18 35
Ġel astic
Ġneighborhood s
ĠCert ificate
ĠF eed
18 12
ĠCON TRACT
Ġpoll s
Ġpr ince
ĠQu ick
Ġc av
ĠGi ov
Pers istence
Ġil leg
ĠPakistan i
Ġtra it
Ġrock et
ĠCroat ian
B uck
æ Į
ĠB in
Ged mo
Ġd ans
R x
å ¹
ĠHe ath
Ġinvent ory
M ime
ĠMon o
Ġle an
Ġher oes
/ </
am d
ats u
ĠT uple
por ate
ys ide
Port ug
ĠV ery
Ġcustom s
(" ./
ĠAmeric as
Ġp as
un set
Ġmark ers
Ġpurs ued
Min or
ĠF eder
power ed
G AN
Ġm b
ĠA ur
ĠM anag
ĠQue ue
Ġn ose
ĠM ask
Ġstep ped
ST OP
Ġb t
f name
Ġval ued
ĠMETHO D
ard i
(" ");
Ġw are
Ð» Ð¸
Ġdemand ing
ĠDivis iÃ³n
ĠR M
Ġcor ps
Ġtarget ing
Ã¡ l
Ġrec ursive
uis ine
re name
Ġab st
Index es
Le af
( -\
Ġax es
Ġ' :
Ġbankrupt cy
Ġes lint
Op acity
ÅĤ aw
Ġshould er
ĠGib son
ĠT S
Ġproto buf
k v
ch y
22 3
Ã¤ r
ux er
ĠClin ical
g id
27 5
Ġdon ations
Ġhot els
Extract or
Full Name
B rows
Ġre vel
Ġreprodu ce
Ġb out
sw orth
ĠS ources
å ±
Ġund erm
aj i
Ġobserv able
un checked
Ġaud it
ĠF P
ĠRe id
RO WS
ĠProv incial
ĠTre k
ĠSO CK
Ġap olog
ym ph
dec oder
Ġeth ical
Tool Strip
oc y
C andidate
ĠE ye
Ġinf ring
cont aining
List Item
Check point
register ed
am ous
art en
model Version
us on
comple ted
il ion
ĠCont est
roup ed
Dec ision
tim ing
Writ ten
Ġnav igate
Ġsuccess ion
ĠS ed
× ©
ĠO ber
ĠWag ner
Th ough
const it
real m
Con sum
Ġred shift
IST S
Need ed
ĠGl enn
ĠBar ack
ĠUr ugu
pe x
Ġphys icians
ĠW ool
**************** ********
ierarch ical
Ġs ake
el ian
aut om
ĠInter ior
SPH INX
| $
ãĢ ģ
Ä Ĺ
Ġw ages
ĠS election
Ġr amp
ĠĠĠĠĠĠĠĠĠĠĠĠĠĠĠĠĠĠĠĠĠĠĠĠĠĠĠĠĠĠĠĠ ĠĠĠĠĠĠĠĠĠĠĠĠĠĠĠĠĠ
Ġaut obi
scal atest
re ne
Ġm ir
um bo
ex clusion
Ġcast ing
ĠShort ly
rec ation
Ġimp ose
ĠS ame
ant o
unic ode
Ã¡ r
Ġbox ing
Ġcert ification
L ost
R ing
ĠRev ision
GP KG
at ta
aut ore
unknown Fields
as io
ĠM TV
Ġph p
he y
Gu ide
Ġ{} ",
Sp ot
Ġm ood
ow l
You ng
ĠH od
Nor thern
enz ie
A IL
Ġstd out
ĠH aven
I CT
ĠMet adata
ĠMaur ice
æ Ģ
Ġglyph icon
er ase
ĠS aw
Ġsl ots
G OO
N L
ograph ies
ĠAPI s
oc ide
ĠCris is
ĠMar tha
bootstrap cdn
Ġstay ing
åı ¯
J P
Ġexp ose
ra ising
../../ ../../
ĠForm ation
d ead
Ġf ung
ra ils
ĠFor ward
Ð ŀ
Im m
ĠB atch
f u
Ġvocal ist
my Item
ĠWrit ers
Ġwire less
Pac ific
form ula
ĠBou levard
Ġdis putes
ir ate
Ġtreat ments
ĠCh ad
Ġbur ial
spec s
Ġpul se
leq slant
ĠS ocket
ĠP P
TE MPLATE
S el
YY YY
Ġstrugg led
;\ ;\
ĠLo op
22 9
eck o
Ġbal anced
Ġh iding
Ġhe ating
ĠPart ners
Ġpeace ful
Con str
Bound ing
CHAN NEL
R TC
Ġp itched
Ġcoun cill
Ġg ods
"> .</
ãģ «
ĠK urt
Ġra ises
ĠFr ag
Ġag gress
Rest ore
ĠDev il
ĠChem istry
Ġle ts
ĠAl ways
S ING
Ġdis abilities
Relation ship
Ġclip board
Ã± o
K ER
_ '
amb a
dec or
d ismiss
ĠT anz
Ġ$ ('
Stream s
Gre ater
Ġter rible
Assert ion
il inx
ĠExcell ence
ĠJ unction
Ġundert aken
Ġ"/ "
ĠAll an
vert ices
b is
ĠB alk
= */
ĠBer k
En ergy
Ġassign ments
Ġdeleg ation
Ġless er
ĠPublic ations
Ġdef er
ACT IVE
t ro
ç ¤
Ġnormal ization
Ġwh it
Histor ic
ard e
cknow led
Ġlect ure
ĠEx ped
OB J
D st
Ġreleg ated
oc cup
Ġhouse holder
le ston
ST AMP
Ġmind s
am bo
ch ard
ĠIn side
p es
Ġ" #{
ĠSand ers
Ġtensor flow
Ġb ones
bl ur
ĠEm my
Ġinter sect
ĠEd mund
Ġobl igation
Q Name
2 16
igr ated
ĠLib ya
che v
Ġact ivate
Ġload s
vart heta
Ġprint s
ĠTrans fer
i ar
ĠAh mad
Ġw ound
æĪ Ĳ
L u
m ne
Ġafter math
ĠT iger
ĠE R
G reek
h urst
Dim ensions
Ġple ased
Ġintrodu ces
ĠS ustain
ĠC rist
bold math
) ^\
ĠSign al
ĠD ob
ash ing
Ġansw ered
ass igned
MA IL
IM ARY
18 43
}{ *}{
ĠI stanbul
Ġread ily
ĠD ew
IC ULAR
Ġincorpor ate
cal culate
ĠPro to
st a
pol lo
Ġisol ate
Ġapprec iate
f illed
Ġcontin ent
Ġsav ings
ack ed
Ġexpect s
Ġex iting
ian e
N ick
li o
Ġext inct
ĠCart esian
es ar
ĠCond ition
APIENTRY P
T CP
Res pons
P ier
Ġg rap
] ])
ĠF T
[...]
