{
  "version": "1.0",
  "truncation": null,
  "padding": null,
  "added_tokens": [
    {
      "id": 0,
      "content": "[UNK]",
      "single_word": false,
      "lstrip": false,
      "rstrip": false,
      "normalized": false,
      "special": true
    }
  ],
  "normalizer": null,
  "pre_tokenizer": {
    "type": "Sequence",
    "pretokenizers": [
      {
        "type": "Digits",
        "individual_digits": false
      },
      {
        "type": "ByteLevel",
        "add_prefix_space": false,
        "trim_offsets": true,
        "use_regex": true
      }
    ]
  },
  "post_processor": null,
  "decoder": null,
  "model": {
    "type": "BPE",
    "dropout": null,
    "unk_token": "[UNK]",
    "continuing_subword_prefix": null,
    "end_of_word_suffix": null,
    "fuse_unk": false,
    "byte_fallback": false,
    "vocab": {
      "[UNK]": 0,
      "!": 1,
      "\"": 2,
      "#": 3,
      "$": 4,
      "%": 5,
      "&": 6,
      "'": 7,
      "(": 8,
      ")": 9,
      "*": 10,
      "+": 11,
      ",": 12,
      "-": 13,
      ".": 14,
      "/": 15,
      "0": 16,
      "1": 17,
      "2": 18,
      "3": 19,
      "4": 20,
      "5": 21,
      "6": 22,
      "7": 23,
      "8": 24,
      "9": 25,
      ":": 26,
      ";": 27,
      "<": 28,
      "=": 29,
      ">": 30,
      "?": 31,
      "@": 32,
      "A": 33,
      "B": 34,
      "C": 35,
      "D": 36,
      "E": 37,
      "F": 38,
      "G": 39,
      "H": 40,
      "I": 41,
      "J": 42,
      "K": 43,
      "L": 44,
      "M": 45,
      "N": 46,
      "O": 47,
      "P": 48,
      "Q": 49,
      "R": 50,
      "S": 51,
      "T": 52,
      "U": 53,
      "V": 54,
      "W": 55,
      "X": 56,
      "Y": 57,
      "Z": 58,
      "[": 59,
      "\\": 60,
      "]": 61,
      "^": 62,
      "_": 63,
      "`": 64,
      "a": 65,
      "b": 66,
      "c": 67,
      "d": 68,
      "e": 69,
      "f": 70,
      "g": 71,
      "h": 72,
      "i": 73,
      "j": 74,
      "k": 75,
      "l": 76,
      "m": 77,
      "n": 78,
      "o": 79,
      "p": 80,
      "q": 81,
      "r": 82,
      "s": 83,
      "t": 84,
      "u": 85,
      "v": 86,
      "w": 87,
      "x": 88,
      "y": 89,
      "z": 90,
      "{": 91,
      "|": 92,
      "}": 93,
      "~": 94,
      "¡": 95,
      "¢": 96,
      "£": 97,
      "¤": 98,
      "¥": 99,
      "¦": 100,
      "§": 101,
      "¨": 102,
      "©": 103,
      "ª": 104,
      "«": 105,
      "¬": 106,
      "®": 107,
      "¯": 108,
      "°": 109,
      "±": 110,
      "²": 111,
      "³": 112,
      "´": 113,
      "µ": 114,
      "¶": 115,
      "·": 116,
      "¸": 117,
      "¹": 118,
      "º": 119,
      "»": 120,
      "¼": 121,
      "½": 122,
      "¾": 123,
      "¿": 124,
      "Â": 125,
      "Ã": 126,
      "Ä": 127,
      "Å": 128,
      "Æ": 129,
      "Ç": 130,
      "È": 131,
      "É": 132,
      "Ê": 133,
      "Ë": 134,
      "Ì": 135,
      "Í": 136,
      "Î": 137,
      "Ï": 138,
      "Ð": 139,
      "Ñ": 140,
      "Ò": 141,
      "Ó": 142,
      "Ô": 143,
      "Õ": 144,
      "Ö": 145,
      "×": 146,
      "Ø": 147,
      "Ù": 148,
      "Ú": 149,
      "Û": 150,
      "Ü": 151,
      "Ý": 152,
      "Þ": 153,
      "ß": 154,
      "à": 155,
      "á": 156,
      "â": 157,
      "ã": 158,
      "ä": 159,
      "å": 160,
      "æ": 161,
      "ç": 162,
      "è": 163,
      "é": 164,
      "ê": 165,
      "ë": 166,
      "ì": 167,
      "í": 168,
      "î": 169,
      "ï": 170,
      "ð": 171,
      "ò": 172,
      "ó": 173,
      "ô": 174,
      "Ā": 175,
      "ā": 176,
      "Ă": 177,
      "ă": 178,
      "Ą": 179,
      "ą": 180,
      "Ć": 181,
      "ć": 182,
      "Ĉ": 183,
      "ĉ": 184,
      "Ċ": 185,
      "ċ": 186,
      "Č": 187,
      "č": 188,
      "Ď": 189,
      "ď": 190,
      "Đ": 191,
      "đ": 192,
      "Ē": 193,
      "ē": 194,
      "Ĕ": 195,
      "ĕ": 196,
      "Ė": 197,
      "ė": 198,
      "Ę": 199,
      "ę": 200,
      "Ě": 201,
      "ě": 202,
      "Ĝ": 203,
      "ĝ": 204,
      "Ğ": 205,
      "ğ": 206,
      "Ġ": 207,
      "ġ": 208,
      "Ģ": 209,
      "ģ": 210,
      "Ĥ": 211,
      "ĥ": 212,
      "Ħ": 213,
      "ħ": 214,
      "Ĩ": 215,
      "ĩ": 216,
      "Ī": 217,
      "ī": 218,
      "Ĭ": 219,
      "ĭ": 220,
      "Į": 221,
      "į": 222,
      "İ": 223,
      "ı": 224,
      "Ĳ": 225,
      "ĳ": 226,
      "Ĵ": 227,
      "ĵ": 228,
      "Ķ": 229,
      "ķ": 230,
      "ĸ": 231,
      "Ĺ": 232,
      "ĺ": 233,
      "Ļ": 234,
      "ļ": 235,
      "Ľ": 236,
      "ľ": 237,
      "Ŀ": 238,
      "ŀ": 239,
      "Ł": 240,
      "ł": 241,
      "Ń": 242,
      "ĠĠ": 243,
      "ĠĠĠĠ": 244,
      "Ġt": 245,
      "in": 246,
      "er": 247,
      "on": 248,
      "Ġa": 249,
      "he": 250,
      "re": 251,
      "at": 252,
      "en": 253,
      "or": 254,
      "st": 255,
      "Ġthe": 256,
      "an": 257,
      "al": 258,
      "ĠĠĠ": 259,
      "it": 260,
      "ĠĠĠĠĠĠĠĠ": 261,
      "ar": 262,
      "Ġc": 263,
      "le": 264,
      "ion": 265,
      "Ġo": 266,
      "ed": 267,
      "Ġs": 268,
      "es": 269,
      "is": 270,
      "Ġf": 271,
      "Ġw": 272,
      "ic": 273,
      "Ġp": 274,
      "ing": 275,
      "ro": 276,
      "Ġin": 277,
      "nd": 278,
      "as": 279,
      "Ġb": 280,
      "Ġof": 281,
      "et": 282,
      "ct": 283,
      "ou": 284,
      "ent": 285,
      "Ġd": 286,
      "Ġm": 287,
      "am": 288,
      "Ġand": 289,
      "el": 290,
      "Ġto": 291,
      "ĠĠĠĠĠĠĠ": 292,
      "il": 293,
      "Ġre": 294,
      "Ġh": 295,
      "om": 296,
      "Ġn": 297,
      "id": 298,
      "ĠS": 299,
      "ol": 300,
      "Ġ(": 301,
      "Ġth": 302,
      "ce": 303,
      "ur": 304,
      "Ġ=": 305,
      "ation": 306,
      "ĠC": 307,
      "im": 308,
      "ut": 309,
      "ig": 310,
      "ĉĉ": 311,
      "ĠT": 312,
      "ad": 313,
      "ĠA": 314,
      "</": 315,
      "iv": 316,
      "Ġl": 317,
      "ot": 318,
      "se": 319,
      "Ġe": 320,
      "=\"": 321,
      ");": 322,
      "ch": 323,
      "od": 324,
      "ag": 325,
      "ul": 326,
      "if": 327,
      "th": 328,
      "--": 329,
      "Ġ{": 330,
      "ra": 331,
      "un": 332,
      "em": 333,
      "ĠM": 334,
      "Ġ<": 335,
      "ĠI": 336,
      "Ġis": 337,
      "ers": 338,
      "pe": 339,
      "Ġv": 340,
      "Ġg": 341,
      "Ġfor": 342,
      "ĠĠĠĠĠĠĠĠĠĠĠ": 343,
      "ow": 344,
      "us": 345,
      "ate": 346,
      "Ġst": 347,
      "um": 348,
      "ist": 349,
      "ĠP": 350,
      "//": 351,
      "ab": 352,
      "ue": 353,
      "oc": 354,
      "Ġ*": 355,
      "ly": 356,
      "ĠB": 357,
      "pt": 358,
      "ay": 359,
      "ir": 360,
      "ass": 361,
      "Ġon": 362,
      "âĢ": 363,
      "čĊ": 364,
      "ac": 365,
      "ex": 366,
      "ter": 367,
      "Ġbe": 368,
      "Ġ$": 369,
      "ith": 370,
      "ame": 371,
      "Ġcon": 372,
      "tr": 373,
      "20": 374,
      "Ġ\"": 375,
      "ĠR": 376,
      "ction": 377,
      "ht": 378,
      "ĠH": 379,
      "Ġas": 380,
      "ĠD": 381,
      "Ġ}": 382,
      "and": 383,
      "ver": 384,
      "ub": 385,
      "ew": 386,
      "av": 387,
      "Ġ\\": 388,
      "\">": 389,
      "ĠF": 390,
      "ĠL": 391,
      "res": 392,
      "19": 393,
      "ort": 394,
      "end": 395,
      "ef": 396,
      "ĠN": 397,
      "lass": 398,
      "ess": 399,
      "up": 400,
      "ri": 401,
      "op": 402,
      "Ġthat": 403,
      "age": 404,
      "Ġwith": 405,
      "qu": 406,
      "ap": 407,
      "Ġwas": 408,
      "ĠG": 409,
      "Ġal": 410,
      "our": 411,
      "est": 412,
      "ĠĠĠĠĠĠĠĠĠĠĠĠĠĠĠĠ": 413,
      "ĠW": 414,
      "Ġwh": 415,
      "rom": 416,
      "ĠĠĠĠĠ": 417,
      "ĠE": 418,
      "()": 419,
      "ĠThe": 420,
      "os": 421,
      "Ġan": 422,
      "li": 423,
      "Ġpro": 424,
      "ect": 425,
      "urn": 426,
      "ity": 427,
      "nt": 428,
      "Ġby": 429,
      "art": 430,
      "ment": 431,
      "ine": 432,
      "**": 433,
      "ain": 434,
      "Ġit": 435,
      "ore": 436,
      "Ġcom": 437,
      "ec": 438,
      "Ġat": 439,
      "Ġex": 440,
      "..": 441,
      "ere": 442,
      "sp": 443,
      "==": 444,
      "og": 445,
      "all": 446,
      "Ġor": 447,
      "ke": 448,
      "ĠO": 449,
      "iz": 450,
      "ext": 451,
      "turn": 452,
      "ĠJ": 453,
      "ath": 454,
      "----": 455,
      "port": 456,
      "ype": 457,
      "lic": 458,
      "Ġclass": 459,
      "able": 460,
      "ies": 461,
      "ult": 462,
      "ile": 463,
      "Ġfrom": 464,
      "Ġ'": 465,
      "Ġthis": 466,
      "get": 467,
      "ans": 468,
      "ight": 469,
      "ial": 470,
      "ud": 471,
      "ert": 472,
      "ode": 473,
      "ack": 474,
      "Ġif": 475,
      "ont": 476,
      "ure": 477,
      "ive": 478,
      "Ġr": 479,
      "ang": 480,
      "Ġhe": 481,
      "ld": 482,
      "ill": 483,
      "ant": 484,
      "ĠU": 485,
      "00": 486,
      "ep": 487,
      "int": 488,
      "ĠĠĠĠĠĠĠĠĠĠĠĠĠĠĠ": 489,
      "ary": 490,
      "ber": 491,
      "eg": 492,
      "Ġy": 493,
      "orm": 494,
      "Ġare": 495,
      "ption": 496,
      "ip": 497,
      "In": 498,
      "ast": 499,
      "'s": 500,
      "ĠĊ": 501,
      "ard": 502,
      "ref": 503,
      "Ġ&": 504,
      "ov": 505,
      "Ġch": 506,
      "und": 507,
      "ata": 508,
      "ated": 509,
      "ff": 510,
      "ord": 511,
      "str": 512,
      "ev": 513,
      "pl": 514,
      "->": 515,
      "ind": 516,
      "Ġ//": 517,
      "ib": 518,
      "ire": 519,
      "ug": 520,
      "are": 521,
      "ase": 522,
      "Ġreturn": 523,
      "ph": 524,
      "::": 525,
      "Ġle": 526,
      "ia": 527,
      "com": 528,
      "ign": 529,
      "ĠK": 530,
      "Ġnot": 531,
      "201": 532,
      "ject": 533,
      "alue": 534,
      "),": 535,
      "ost": 536,
      "out": 537,
      "Ġ</": 538,
      "ĉĉĉĉ": 539,
      "ich": 540,
      "ong": 541,
      "ition": 542,
      "ublic": 543,
      "Ġ-": 544,
      "Ġtr": 545,
      "lo": 546,
      "../": 547,
      "ace": 548,
      "ime": 549,
      "The": 550,
      "Ġsh": 551,
      "_{": 552,
      "pro": 553,
      "ĠIn": 554,
      "ell": 555,
      "Ġse": 556,
      "ak": 557,
      "Ġpl": 558,
      "ust": 559,
      "ice": 560,
      "ĠâĢ": 561,
      "ork": 562,
      "ite": 563,
      "ource": 564,
      "erv": 565,
      "to": 566,
      ").": 567,
      "con": 568,
      "ĠV": 569,
      "act": 570,
      "ide": 571,
      "ave": 572,
      "\",": 573,
      "ild": 574,
      "ge": 575,
      "cl": 576,
      "per": 577,
      "ĠSt": 578,
      "Ġ@": 579,
      "Ġwe": 580,
      "âĢĻ": 581,
      "ple": 582,
      "St": 583,
      "unction": 584,
      "Ġnew": 585,
      "ical": 586,
      "Ġ[": 587,
      "cc": 588,
      "aram": 589,
      "Ġ|": 590,
      "ss": 591,
      "ian": 592,
      "Ġj": 593,
      "ok": 594,
      "ory": 595,
      "ock": 596,
      "enc": 597,
      "ear": 598,
      "Ġcont": 599,
      "Ġar": 600,
      "cri": 601,
      "(\"": 602,
      "ml": 603,
      "ance": 604,
      "dd": 605,
      "elf": 606,
      "form": 607,
      "();": 608,
      "Ġhis": 609,
      "ens": 610,
      "Ġ/": 611,
      "ence": 612,
      "so": 613,
      "Ġres": 614,
      "div": 615,
      "Ex": 616,
      "Ġus": 617,
      "ull": 618,
      "ress": 619,
      "set": 620,
      "row": 621,
      "essage": 622,
      "put": 623,
      "Ġun": 624,
      "ther": 625,
      "sh": 626,
      "Ġ+": 627,
      "ĠCh": 628,
      "></": 629,
      "Ġwhich": 630,
      "ize": 631,
      "du": 632,
      "ck": 633,
      "tring": 634,
      "ould": 635,
      "200": 636,
      "ish": 637,
      "one": 638,
      "Ġhas": 639,
      "',": 640,
      "que": 641,
      "ĠTh": 642,
      "ma": 643,
      "--------": 644,
      "use": 645,
      "Ġk": 646,
      "ft": 647,
      "span": 648,
      "ount": 649,
      "ations": 650,
      "ach": 651,
      "Ġap": 652,
      "{\\": 653,
      "ob": 654,
      "Ġim": 655,
      "ink": 656,
      "mer": 657,
      "Ġ.": 658,
      "Ġhave": 659,
      "ents": 660,
      "err": 661,
      "iel": 662,
      "18": 663,
      "Ġpublic": 664,
      "Ġall": 665,
      "><": 666,
      "====": 667,
      "hen": 668,
      "ous": 669,
      "Ġname": 670,
      "ll": 671,
      "Ġ*/": 672,
      "own": 673,
      "ener": 674,
      "ele": 675,
      "irst": 676,
      "tern": 677,
      "Ġstr": 678,
      "../../": 679,
      "Ġcan": 680,
      "Ġab": 681,
      "te": 682,
      "ield": 683,
      "eb": 684,
      "inal": 685,
      "che": 686,
      "iew": 687,
      "Ġ:": 688,
      "****": 689,
      "ond": 690,
      "over": 691,
      "ree": 692,
      "Ġ$\\": 693,
      "eth": 694,
      "ĉĉĉ": 695,
      "ual": 696,
      "Ġdef": 697,
      "ĠĠĠĠĠĠĠĠĠĠĠĠĠĠĠĠĠĠĠ": 698,
      "fig": 699,
      "Ġwere": 700,
      "ound": 701,
      "ool": 702,
      "clud": 703,
      "les": 704,
      "ail": 705,
      "html": 706,
      "('": 707,
      "rit": 708,
      "10": 709,
      "ict": 710,
      "Ġcomp": 711,
      "name": 712,
      "oid": 713,
      "Ġint": 714,
      "Ġalso": 715,
      "Ġfunction": 716,
      "erm": 717,
      "math": 718,
      "Ġhref": 719,
      "ĠĠĠĠĠĠĠĠĠ": 720,
      "Pro": 721,
      "ry": 722,
      "ray": 723,
      "ne": 724,
      "this": 725,
      "Ġ||": 726,
      "ator": 727,
      "ark": 728,
      "ates": 729,
      "Name": 730,
      "pr": 731,
      "yst": 732,
      "old": 733,
      "roup": 734,
      "ĠUn": 735,
      "ome": 736,
      "))": 737,
      "Ġset": 738,
      "led": 739,
      "Ġpr": 740,
      "ER": 741,
      "oll": 742,
      "source": 743,
      "tp": 744,
      "Ġout": 745,
      "Ġpart": 746,
      "Ġvar": 747,
      "Ġro": 748,
      "Ġbut": 749,
      "message": 750,
      "bject": 751,
      "fer": 752,
      "Ġdis": 753,
      "__": 754,
      "Type": 755,
      "lation": 756,
      "ery": 757,
      "quest": 758,
      "import": 759,
      "oth": 760,
      "Ġone": 761,
      "key": 762,
      "eng": 763,
      "pec": 764,
      "param": 765,
      "Ġ#": 766,
      "ings": 767,
      "io": 768,
      "ON": 769,
      "ions": 770,
      "ix": 771,
      "ĠY": 772,
      "Ġdo": 773,
      "Ġget": 774,
      "ystem": 775,
      "String": 776,
      "ng": 777,
      "trans": 778,
      "vent": 779,
      "Ġwho": 780,
      "oint": 781,
      "Id": 782,
      "ĠHe": 783,
      "atic": 784,
      "Ġtheir": 785,
      "Ġsu": 786,
      "Ġup": 787,
      "alse": 788,
      "hed": 789,
      "td": 790,
      "aw": 791,
      "fter": 792,
      "Ġyou": 793,
      "odel": 794,
      "Ġtype": 795,
      "Con": 796,
      "IN": 797,
      "wo": 798,
      "ĠIt": 799,
      "}}": 800,
      "cal": 801,
      "Ġfirst": 802,
      "Ġ=>": 803,
      "ater": 804,
      "âĢĵ": 805,
      "return": 806,
      "col": 807,
      "Ġhad": 808,
      "ames": 809,
      "ook": 810,
      "arg": 811,
      "ax": 812,
      "Ġits": 813,
      "text": 814,
      "ors": 815,
      "Ġwill": 816,
      "pect": 817,
      "ational": 818,
      "iss": 819,
      "lect": 820,
      "cre": 821,
      "atch": 822,
      "cont": 823,
      "##": 824,
      "code": 825,
      "Ġvalue": 826,
      "ics": 827,
      "app": 828,
      "Cont": 829,
      "any": 830,
      "uild": 831,
      "ember": 832,
      "abel": 833,
      "Ġass": 834,
      "cript": 835,
      "/>": 836,
      "Ġplay": 837,
      "pert": 838,
      "ake": 839,
      "fo": 840,
      "lock": 841,
      "Ġde": 842,
      "ely": 843,
      "12": 844,
      "Ġag": 845,
      "Ġper": 846,
      "Ġconst": 847,
      "Re": 848,
      "Ġwork": 849,
      "199": 850,
      "ethod": 851,
      "ick": 852,
      "Ġpre": 853,
      "Com": 854,
      "Ġdes": 855,
      "igh": 856,
      "ĠâĢĵ": 857,
      "Ġover": 858,
      "umber": 859,
      "Ġ!": 860,
      "uct": 861,
      "RE": 862,
      "amp": 863,
      "Res": 864,
      "ute": 865,
      "Ġcl": 866,
      "ception": 867,
      "Ġself": 868,
      "urre": 869,
      "\"/>": 870,
      "pon": 871,
      "ser": 872,
      "we": 873,
      "line": 874,
      "ann": 875,
      "oun": 876,
      "Ġme": 877,
      "^{": 878,
      "Ġline": 879,
      "ĠAr": 880,
      "ton": 881,
      "add": 882,
      "Ġcol": 883,
      "ie": 884,
      "Ġcomm": 885,
      "arch": 886,
      "List": 887,
      "ange": 888,
      "Ġother": 889,
      "Ġyear": 890,
      "ms": 891,
      "def": 892,
      "16": 893,
      "Ġbeen": 894,
      "Ġthey": 895,
      "class": 896,
      "ault": 897,
      "Ġtime": 898,
      "type": 899,
      "Ġ_": 900,
      "Ġend": 901,
      "Ġel": 902,
      "Ch": 903,
      "translation": 904,
      "}\\": 905,
      "ople": 906,
      "round": 907,
      "anc": 908,
      "Ġdata": 909,
      "ove": 910,
      "itle": 911,
      "Ġsp": 912,
      "bo": 913,
      "://": 914,
      "}$": 915,
      "als": 916,
      "âĢĿ": 917,
      "Ġund": 918,
      "ey": 919,
      "Ġ==": 920,
      "},": 921,
      "ied": 922,
      "son": 923,
      "pos": 924,
      "Ġher": 925,
      "Ġmore": 926,
      "Ġadd": 927,
      "ific": 928,
      "ited": 929,
      "Ġwhen": 930,
      "ade": 931,
      "Ref": 932,
      "Th": 933,
      "Ġad": 934,
      "ences": 935,
      "right": 936,
      "ST": 937,
      "Ġid": 938,
      "cent": 939,
      "ocation": 940,
      "ative": 941,
      "Ġtwo": 942,
      "Ġinter": 943,
      "Ġnull": 944,
      "val": 945,
      "ose": 946,
      "Ġpe": 947,
      "land": 948,
      "ache": 949,
      "meric": 950,
      "AT": 951,
      "ta": 952,
      "ĠCom": 953,
      "yn": 954,
      "lement": 955,
      "Ġinclud": 956,
      "\"><": 957,
      "Ġvoid": 958,
      "Ġso": 959,
      "Ġsup": 960,
      "sum": 961,
      "mb": 962,
      "ersion": 963,
      "trib": 964,
      "Ġen": 965,
      "Ġi": 966,
      "raph": 967,
      "Ġsub": 968,
      "rac": 969,
      "Ar": 970,
      "ask": 971,
      "Ġsc": 972,
      "ader": 973,
      "ervice": 974,
      "ased": 975,
      "irect": 976,
      "15": 977,
      "Ġne": 978,
      "gr": 979,
      "Ġfil": 980,
      "ash": 981,
      "Ġoff": 982,
      "egin": 983,
      "orn": 984,
      "ivate": 985,
      "ons": 986,
      "ues": 987,
      "Ġte": 988,
      "ern": 989,
      "Ġcre": 990,
      "Ġresult": 991,
      "(\\": 992,
      "ument": 993,
      "Ġreg": 994,
      "ivers": 995,
      "));": 996,
      "var": 997,
      "ward": 998,
      "Ġact": 999,
      "urrent": 1000,
      "http": 1001,
      "OR": 1002,
      "Ġqu": 1003,
      "read": 1004,
      "ished": 1005,
      "ugh": 1006,
      "Ġinto": 1007,
      "ĠThis": 1008,
      "Ġ`": 1009,
      "yle": 1010,
      "of": 1011,
      "the": 1012,
      "ys": 1013,
      "ocal": 1014,
      "pp": 1015,
      "equ": 1016,
      "ccess": 1017,
      "17": 1018,
      "ution": 1019,
      "cess": 1020,
      "Ġorg": 1021,
      "yp": 1022,
      "oug": 1023,
      "ular": 1024,
      "ternal": 1025,
      "org": 1026,
      "ĠNew": 1027,
      "begin": 1028,
      "Ġonly": 1029,
      "LE": 1030,
      "Ġgo": 1031,
      "idth": 1032,
      "):": 1033,
      "ca": 1034,
      "uth": 1035,
      "ise": 1036,
      "Ġabout": 1037,
      "Ġ>": 1038,
      "Ġfalse": 1039,
      "ĠĠĠĠĠĠĠĠĠĠĠĠĠ": 1040,
      "ating": 1041,
      "Ġapp": 1042,
      "ious": 1043,
      "ĠĠĠĠĠĠĠĠĠĠĠĠĠĠĠĠĠĠĠĠĠĠĠ": 1044,
      "ined": 1045,
      "anag": 1046,
      "AR": 1047,
      "ĠâĢľ": 1048,
      "\");": 1049,
      "string": 1050,
      "Ġafter": 1051,
      "back": 1052,
      "----------------": 1053,
      "ins": 1054,
      "\\\\": 1055,
      "ee": 1056,
      "Ġany": 1057,
      "tem": 1058,
      "11": 1059,
      "Ġrec": 1060,
      "eta": 1061,
      "rr": 1062,
      "data": 1063,
      "ptions": 1064,
      "lection": 1065,
      "Ġtra": 1066,
      "ank": 1067,
      "ID": 1068,
      "min": 1069,
      "Ġerr": 1070,
      "ays": 1071,
      "self": 1072,
      "uring": 1073,
      "ĠPro": 1074,
      "Ġtrue": 1075,
      "198": 1076,
      "Ġunder": 1077,
      "ru": 1078,
      "Ġspec": 1079,
      "ities": 1080,
      "ollow": 1081,
      "Ġinst": 1082,
      "der": 1083,
      "Ġop": 1084,
      "orld": 1085,
      "wn": 1086,
      "Ġwould": 1087,
      "ava": 1088,
      "Ġpos": 1089,
      "Value": 1090,
      "Ġthere": 1091,
      "Ġev": 1092,
      "Ġind": 1093,
      "ample": 1094,
      "Ġbet": 1095,
      "resent": 1096,
      "its": 1097,
      "Refer": 1098,
      "olog": 1099,
      "Ġform": 1100,
      "Data": 1101,
      "Ġprov": 1102,
      "Ġno": 1103,
      "ength": 1104,
      "ists": 1105,
      "Ġwhere": 1106,
      "Ġdec": 1107,
      "Ġpeople": 1108,
      "ric": 1109,
      "file": 1110,
      "co": 1111,
      "ĠAmeric": 1112,
      "********": 1113,
      "ren": 1114,
      "Ġtrans": 1115,
      "////": 1116,
      "Ġkn": 1117,
      "oot": 1118,
      "Ġelse": 1119,
      "perty": 1120,
      "13": 1121,
      "quire": 1122,
      "ision": 1123,
      "========": 1124,
      "ole": 1125,
      "label": 1126,
      "work": 1127,
      "Ġsec": 1128,
      "14": 1129,
      "Ġuse": 1130,
      "AL": 1131,
      "25": 1132,
      "EN": 1133,
      "ĠAl": 1134,
      "ature": 1135,
      "To": 1136,
      "ages": 1137,
      "\")": 1138,
      "ier": 1139,
      "Ġli": 1140,
      "Ġfinal": 1141,
      "ider": 1142,
      "Ġshe": 1143,
      "red": 1144,
      "Ġrem": 1145,
      "ince": 1146,
      "Col": 1147,
      "Ġpol": 1148,
      "Ġused": 1149,
      "Ġval": 1150,
      "lient": 1151,
      "arn": 1152,
      "ble": 1153,
      "ement": 1154,
      "value": 1155,
      "ule": 1156,
      "chool": 1157,
      "Ġ)": 1158,
      "Ġco": 1159,
      "ced": 1160,
      "evel": 1161,
      "Ġtest": 1162,
      "ract": 1163,
      "Ġthan": 1164,
      "ps": 1165,
      "px": 1166,
      "_{\\": 1167,
      "Set": 1168,
      "Ġ/**": 1169,
      "Ġsome": 1170,
      "vel": 1171,
      "uff": 1172,
      "Ġ--": 1173,
      "Ġent": 1174,
      "ible": 1175,
      "SS": 1176,
      "Ġthen": 1177,
      "ve": 1178,
      "arget": 1179,
      "ts": 1180,
      "oy": 1181,
      "ily": 1182,
      ")$": 1183,
      "ody": 1184,
      "ility": 1185,
      "ĠSh": 1186,
      "ures": 1187,
      "Exception": 1188,
      "Ġstring": 1189,
      "left": 1190,
      "ower": 1191,
      "ĠĠĠĠĠĠ": 1192,
      "Ġext": 1193,
      "Ġcons": 1194,
      "Ġfollow": 1195,
      "bar": 1196,
      "Ġrel": 1197,
      "air": 1198,
      "Ġback": 1199,
      "Ġchar": 1200,
      "}{": 1201,
      "Ġob": 1202,
      "fl": 1203,
      "197": 1204,
      "log": 1205,
      "ĠĠĠĠĠĠĠĠĠĠĠĠĠĠĠĠĠĠĠĠĠĠĠĠĠĠĠĠĠĠĠĠ": 1206,
      "ream": 1207,
      "ween": 1208,
      "Err": 1209,
      "nb": 1210,
      "En": 1211,
      "view": 1212,
      "Ġ///": 1213,
      "rough": 1214,
      "test": 1215,
      "Ġsuch": 1216,
      "ments": 1217,
      "sub": 1218,
      "];": 1219,
      "References": 1220,
      "az": 1221,
      "item": 1222,
      "oci": 1223,
      "ĠAn": 1224,
      "($": 1225,
      "date": 1226,
      "atus": 1227,
      "eter": 1228,
      "32": 1229,
      "Ġnumber": 1230,
      "ized": 1231,
      "Ġstatic": 1232,
      "Ġra": 1233,
      "Ġmay": 1234,
      "Ġac": 1235,
      "Ġfile": 1236,
      "Ġcase": 1237,
      "imes": 1238,
      "Object": 1239,
      "ices": 1240,
      "Ġ&&": 1241,
      "Ġdist": 1242,
      "ĠCon": 1243,
      "iversity": 1244,
      "Ġgener": 1245,
      "location": 1246,
      "roid": 1247,
      "not": 1248,
      "Ġfe": 1249,
      "ars": 1250,
      "ines": 1251,
      "Ġprodu": 1252,
      "ason": 1253,
      "umn": 1254,
      "ĠString": 1255,
      "Ġdif": 1256,
      "att": 1257,
      "nbsp": 1258,
      "new": 1259,
      "30": 1260,
      "mary": 1261,
      "Ġx": 1262,
      "ĠQ": 1263,
      "arent": 1264,
      "ww": 1265,
      "At": 1266,
      "Ġlist": 1267,
      "Ġthem": 1268,
      "Ġinv": 1269,
      "ally": 1270,
      "action": 1271,
      "pre": 1272,
      "Ġprivate": 1273,
      "ah": 1274,
      "ball": 1275,
      "Tr": 1276,
      "Ġ!=": 1277,
      "eq": 1278,
      "Ġser": 1279,
      "Test": 1280,
      "Ġstud": 1281,
      "aid": 1282,
      "press": 1283,
      "oh": 1284,
      "Ġbetween": 1285,
      "Ġmost": 1286,
      "Get": 1287,
      "')": 1288,
      "().": 1289,
      "DE": 1290,
      "ouse": 1291,
      "000": 1292,
      "ident": 1293,
      "ife": 1294,
      "epend": 1295,
      "']": 1296,
      "size": 1297,
      "br": 1298,
      "Un": 1299,
      "Ġ%": 1300,
      "ient": 1301,
      "Ġyears": 1302,
      "be": 1303,
      "CT": 1304,
      "Ġed": 1305,
      "());": 1306,
      "rc": 1307,
      "Ġph": 1308,
      "iver": 1309,
      "22": 1310,
      "play": 1311,
      "man": 1312,
      "for": 1313,
      "mp": 1314,
      "IT": 1315,
      "itt": 1316,
      "til": 1317,
      "overn": 1318,
      "Ġstart": 1319,
      "ĠZ": 1320,
      "frac": 1321,
      "ough": 1322,
      "Ġfound": 1323,
      "ott": 1324,
      "Ġthrough": 1325,
      "by": 1326,
      "Error": 1327,
      "196": 1328,
      "rol": 1329,
      "ets": 1330,
      "ĠEx": 1331,
      "Ġshow": 1332,
      "Ġbo": 1333,
      "Ġfl": 1334,
      "rame": 1335,
      "inn": 1336,
      "ler": 1337,
      "let": 1338,
      "struct": 1339,
      "21": 1340,
      "ik": 1341,
      "ĠSe": 1342,
      "Ġhim": 1343,
      "apt": 1344,
      "try": 1345,
      "SE": 1346,
      ".</": 1347,
      "Key": 1348,
      "Ġagain": 1349,
      "ury": 1350,
      "ces": 1351,
      "evelop": 1352,
      "Ġoper": 1353,
      "link": 1354,
      "aj": 1355,
      "._": 1356,
      "heck": 1357,
      "ister": 1358,
      "face": 1359,
      "ĠAs": 1360,
      "roll": 1361,
      "Ġcent": 1362,
      "50": 1363,
      "ship": 1364,
      "ger": 1365,
      "erson": 1366,
      "outh": 1367,
      "ĠInd": 1368,
      "ĠCol": 1369,
      "Ġacc": 1370,
      "Ġatt": 1371,
      "ify": 1372,
      "Ġobject": 1373,
      "Ġest": 1374,
      "He": 1375,
      "File": 1376,
      "order": 1377,
      "Ġstate": 1378,
      "other": 1379,
      "lish": 1380,
      "public": 1381,
      "orth": 1382,
      "Ġam": 1383,
      "Ġhigh": 1384,
      "\";": 1385,
      "Ġgroup": 1386,
      "ĠĠĠĠĊ": 1387,
      "Ã©": 1388,
      "pace": 1389,
      "['": 1390,
      "field": 1391,
      "fore": 1392,
      "ood": 1393,
      "bf": 1394,
      "script": 1395,
      "Class": 1396,
      "Ġkey": 1397,
      "nav": 1398,
      "ĠAmerican": 1399,
      "Ġour": 1400,
      "\"></": 1401,
      "way": 1402,
      "reat": 1403,
      "ME": 1404,
      "me": 1405,
      "ever": 1406,
      "Ġmod": 1407,
      "Ind": 1408,
      "ĉĉĉĉĉ": 1409,
      "Ġcal": 1410,
      "Ġtitle": 1411,
      "Ġlink": 1412,
      "ism": 1413,
      "uc": 1414,
      "ĠTr": 1415,
      "indow": 1416,
      "list": 1417,
      "View": 1418,
      "Ġmin": 1419,
      "util": 1420,
      "mod": 1421,
      "AN": 1422,
      "sc": 1423,
      "Ġrep": 1424,
      "ified": 1425,
      "amb": 1426,
      "By": 1427,
      "})": 1428,
      "ocument": 1429,
      "');": 1430,
      "uss": 1431,
      "Ġgr": 1432,
      "Ġmethod": 1433,
      "url": 1434,
      "summary": 1435,
      "cept": 1436,
      "ession": 1437,
      "ization": 1438,
      "ĠUniversity": 1439,
      ".\"": 1440,
      "Im": 1441,
      "ĠFor": 1442,
      "time": 1443,
      "Ġsign": 1444,
      "index": 1445,
      "Ġthese": 1446,
      "Ġserv": 1447,
      "On": 1448,
      "Ġlong": 1449,
      "js": 1450,
      "lay": 1451,
      "CO": 1452,
      "Ġsystem": 1453,
      "bers": 1454,
      "cite": 1455,
      "cription": 1456,
      "Sh": 1457,
      "Ġshould": 1458,
      "lang": 1459,
      "ote": 1460,
      "Ġdirect": 1461,
      "Ġrun": 1462,
      "inter": 1463,
      "function": 1464,
      "const": 1465,
      "Ġmodel": 1466,
      "Ġsim": 1467,
      "Ġfield": 1468,
      "Ġwell": 1469,
      "ants": 1470,
      "reg": 1471,
      "rite": 1472,
      "ense": 1473,
      "par": 1474,
      "Ġwhile": 1475,
      "mall": 1476,
      "load": 1477,
      "(),": 1478,
      "rm": 1479,
      "lob": 1480,
      "wh": 1481,
      "ale": 1482,
      "24": 1483,
      "Ġart": 1484,
      "ful": 1485,
      "iven": 1486,
      "ared": 1487,
      "$.": 1488,
      "}.": 1489,
      "Ġdr": 1490,
      "$,": 1491,
      "Ġpoint": 1492,
      "Ġcall": 1493,
      "ived": 1494,
      "Ġdiffer": 1495,
      "gram": 1496,
      "go": 1497,
      "ĠLe": 1498,
      "Ġduring": 1499,
      "Ġarg": 1500,
      "ĠUnited": 1501,
      "ground": 1502,
      "Ġeach": 1503,
      "ttp": 1504,
      "Ġbefore": 1505,
      "ten": 1506,
      "ĠIs": 1507,
      "ron": 1508,
      "top": 1509,
      "af": 1510,
      "Ġwrit": 1511,
      "istory": 1512,
      "color": 1513,
      "100": 1514,
      "reak": 1515,
      "UL": 1516,
      "Ġbeing": 1517,
      "!--": 1518,
      "Ġ/>": 1519,
      "ives": 1520,
      "raw": 1521,
      "],": 1522,
      "Ġfam": 1523,
      "Ġright": 1524,
      "=\"../../": 1525,
      "Ġcurrent": 1526,
      "Ġsecond": 1527,
      "dis": 1528,
      "comm": 1529,
      "Ġem": 1530,
      "ĠWe": 1531,
      "ency": 1532,
      "Ġsame": 1533,
      "An": 1534,
      "oad": 1535,
      "void": 1536,
      "Ġhow": 1537,
      "Ġresp": 1538,
      "Ġdet": 1539,
      "Ġneed": 1540,
      "uffer": 1541,
      "Ġsupport": 1542,
      "ym": 1543,
      "Ġmade": 1544,
      "194": 1545,
      "her": 1546,
      "ĠFr": 1547,
      "med": 1548,
      "ĠRe": 1549,
      "Ġbuild": 1550,
      "bb": 1551,
      "anager": 1552,
      "ackage": 1553,
      "64": 1554,
      "ĠDe": 1555,
      "Ġmed": 1556,
      "Ġcoun": 1557,
      "group": 1558,
      "Ġparam": 1559,
      "ains": 1560,
      "Ġthree": 1561,
      "ather": 1562,
      "iving": 1563,
      "Ġcomple": 1564,
      "ush": 1565,
      "Ġsing": 1566,
      "ponse": 1567,
      "mathcal": 1568,
      "Ġrele": 1569,
      "Ġeff": 1570,
      "Ġmany": 1571,
      "Ġsaid": 1572,
      "ting": 1573,
      "RO": 1574,
      "\":": 1575,
      "Ġmem": 1576,
      "Time": 1577,
      "itial": 1578,
      "table": 1579,
      "formation": 1580,
      "quot": 1581,
      "uration": 1582,
      "Ġlike": 1583,
      "uch": 1584,
      "Ġever": 1585,
      "Request": 1586,
      "Ġown": 1587,
      "Ġcor": 1588,
      "Ġjust": 1589,
      "usic": 1590,
      "Ġteam": 1591,
      "=\"+": 1592,
      "width": 1593,
      "includ": 1594,
      "ected": 1595,
      "ector": 1596,
      "ĠX": 1597,
      "rap": 1598,
      "ĠSc": 1599,
      "my": 1600,
      "For": 1601,
      "Ġusing": 1602,
      "Ġwhat": 1603,
      "Ġrequire": 1604,
      "ateg": 1605,
      "As": 1606,
      "Ġboth": 1607,
      "lished": 1608,
      "itor": 1609,
      "path": 1610,
      "Ġimport": 1611,
      "'t": 1612,
      "ina": 1613,
      "ural": 1614,
      "tribute": 1615,
      "da": 1616,
      "Ġread": 1617,
      "rem": 1618,
      "Text": 1619,
      "opy": 1620,
      "uthor": 1621,
      "md": 1622,
      "Ġpass": 1623,
      "Ġhand": 1624,
      "ĠComm": 1625,
      "tt": 1626,
      "Event": 1627,
      "Info": 1628,
      "Ġassert": 1629,
      ",\\": 1630,
      "Add": 1631,
      "/*": 1632,
      "ION": 1633,
      "...": 1634,
      "ission": 1635,
      "``": 1636,
      "search": 1637,
      "ek": 1638,
      "user": 1639,
      "ohn": 1640,
      "pi": 1641,
      "pha": 1642,
      "unc": 1643,
      "23": 1644,
      "arly": 1645,
      "istr": 1646,
      "but": 1647,
      "ats": 1648,
      "Int": 1649,
      "ograph": 1650,
      "Element": 1651,
      "LA": 1652,
      "rop": 1653,
      "Ġthrow": 1654,
      "Ġdevelop": 1655,
      "Path": 1656,
      "Ġlocal": 1657,
      "ically": 1658,
      "ĠWh": 1659,
      "ĠEng": 1660,
      "equation": 1661,
      "Ġrecord": 1662,
      "Ġevent": 1663,
      "ui": 1664,
      "PE": 1665,
      "TE": 1666,
      "Ġpop": 1667,
      "Ġbeg": 1668,
      "Ġyour": 1669,
      "Ġsur": 1670,
      "Âł": 1671,
      "\".": 1672,
      "Ġ?": 1673,
      "ports": 1674,
      "Node": 1675,
      "())": 1676,
      "Ġmy": 1677,
      "Config": 1678,
      "Ġ);": 1679,
      "ogle": 1680,
      "Param": 1681,
      "':": 1682,
      "Ġchild": 1683,
      "Ġmov": 1684,
      "/**": 1685,
      "].": 1686,
      "Ġequ": 1687,
      "ane": 1688,
      "ĠIf": 1689,
      "enn": 1690,
      "ĠOn": 1691,
      "ĠShe": 1692,
      "olean": 1693,
      "ĠMar": 1694,
      "Ġmain": 1695,
      "Item": 1696,
      "Ġcould": 1697,
      "Ġsize": 1698,
      "ross": 1699,
      "igned": 1700,
      "ology": 1701,
      "Ġmon": 1702,
      "lp": 1703,
      "omen": 1704,
      "Ġrequest": 1705,
      "33": 1706,
      "Field": 1707,
      "ride": 1708,
      "Ġperform": 1709,
      "ox": 1710,
      "Ġexpect": 1711,
      "####": 1712,
      "Ġnow": 1713,
      "config": 1714,
      "State": 1715,
      "TR": 1716,
      "ĠPh": 1717,
      "Ġbel": 1718,
      "Equ": 1719,
      "ctions": 1720,
      "AC": 1721,
      "ainer": 1722,
      "ĠStates": 1723,
      "itions": 1724,
      "cause": 1725,
      "anu": 1726,
      "Ġfollowing": 1727,
      "Context": 1728,
      "lose": 1729,
      "PI": 1730,
      "iginal": 1731,
      "Ġ/*": 1732,
      "Ġpar": 1733,
      "Def": 1734,
      "bs": 1735,
      "eters": 1736,
      "}(": 1737,
      "Ġbr": 1738,
      "Ġlast": 1739,
      "Ġbecause": 1740,
      "length": 1741,
      "Index": 1742,
      "Map": 1743,
      "Ġgovern": 1744,
      "ootball": 1745,
      "Ġmake": 1746,
      "Ġsol": 1747,
      "ĠCl": 1748,
      "}_": 1749,
      "amespace": 1750,
      "irc": 1751,
      "Ġlinks": 1752,
      "stance": 1753,
      "~\\": 1754,
      "Ġcontin": 1755,
      "ually": 1756,
      "des": 1757,
      "off": 1758,
      "etwork": 1759,
      "Ġ-->": 1760,
      "idd": 1761,
      "ĠRes": 1762,
      "iev": 1763,
      "Ġorder": 1764,
      "Ġerror": 1765,
      "iter": 1766,
      "Ġref": 1767,
      "Not": 1768,
      "Ġfilm": 1769,
      "Ġpartic": 1770,
      "External": 1771,
      "Form": 1772,
      "Ġincluding": 1773,
      "}^": 1774,
      "ots": 1775,
      "word": 1776,
      "Ġappro": 1777,
      "api": 1778,
      "Array": 1779,
      "ner": 1780,
      "195": 1781,
      "Ġbro": 1782,
      "ained": 1783,
      "une": 1784,
      "Ġ(!": 1785,
      "ience": 1786,
      "};": 1787,
      "section": 1788,
      "ĠĠĠĠĠĠĠĠĠĠĠĠĠĠĠĠĠĠĠĠĠĠĠĠĠĠĠ": 1789,
      "With": 1790,
      "ypes": 1791,
      "Ġnon": 1792,
      "irt": 1793,
      "arm": 1794,
      "Ġschool": 1795,
      "Ġdoes": 1796,
      ".,": 1797,
      "Over": 1798,
      "elta": 1799,
      "dt": 1800,
      "box": 1801,
      "Ġprocess": 1802,
      "Ġlead": 1803,
      "vert": 1804,
      "ley": 1805,
      "true": 1806,
      "40": 1807,
      "Ġagainst": 1808,
      "ases": 1809,
      "Ġdid": 1810,
      "Ġlater": 1811,
      "Ġexp": 1812,
      "Ġdifferent": 1813,
      "lt": 1814,
      "Ġgiven": 1815,
      "Ġelement": 1816,
      "Ġarray": 1817,
      "Service": 1818,
      "\"\"": 1819,
      "uro": 1820,
      "Des": 1821,
      "align": 1822,
      "Qu": 1823,
      "Ġz": 1824,
      "ension": 1825,
      "Ġaut": 1826,
      "ustr": 1827,
      "Ġrece": 1828,
      "ĠAnd": 1829,
      "Ġdep": 1830,
      "next": 1831,
      "alth": 1832,
      "bum": 1833,
      "map": 1834,
      "';": 1835,
      "Ġappe": 1836,
      "ital": 1837,
      "Ġbl": 1838,
      "ulation": 1839,
      "ĠOr": 1840,
      "Ġdefault": 1841,
      "IC": 1842,
      "Ġopen": 1843,
      "Ġdisc": 1844,
      "https": 1845,
      "pty": 1846,
      "Ġ});": 1847,
      "27": 1848,
      "28": 1849,
      "apache": 1850,
      "els": 1851,
      "urs": 1852,
      "ior": 1853,
      "alpha": 1854,
      "ternational": 1855,
      "Or": 1856,
      "ponent": 1857,
      "Ġterm": 1858,
      "ĠPr": 1859,
      "model": 1860,
      "Ġstruct": 1861,
      "sy": 1862,
      "title": 1863,
      "ounty": 1864,
      "uk": 1865,
      "Ġtext": 1866,
      "ync": 1867,
      "ĠMay": 1868,
      "Ġknown": 1869,
      "amed": 1870,
      "Ġplayers": 1871,
      "lobal": 1872,
      "result": 1873,
      "26": 1874,
      "Size": 1875,
      "ĠAss": 1876,
      "ends": 1877,
      "icon": 1878,
      "ality": 1879,
      "UR": 1880,
      "aking": 1881,
      "error": 1882,
      "arri": 1883,
      "chn": 1884,
      "Ġfour": 1885,
      "Ġtop": 1886,
      "urch": 1887,
      "node": 1888,
      "ium": 1889,
      "ĠJohn": 1890,
      "[]": 1891,
      "lication": 1892,
      "por": 1893,
      "////////": 1894,
      "array": 1895,
      "Ġmat": 1896,
      "ret": 1897,
      "System": 1898,
      "ustom": 1899,
      "day": 1900,
      "='": 1901,
      "block": 1902,
      "Code": 1903,
      "less": 1904,
      "Ġsince": 1905,
      "input": 1906,
      "utes": 1907,
      "object": 1908,
      "ai": 1909,
      "part": 1910,
      "lear": 1911,
      "assert": 1912,
      "Result": 1913,
      "ĠAt": 1914,
      "Ġworld": 1915,
      "uage": 1916,
      "ided": 1917,
      "Ġstyle": 1918,
      "Ġcalled": 1919,
      "Ġfact": 1920,
      "Ġevery": 1921,
      "oss": 1922,
      "Ġfin": 1923,
      "enu": 1924,
      "ral": 1925,
      "Ġ},": 1926,
      "Ġtarget": 1927,
      "iled": 1928,
      "gt": 1929,
      "from": 1930,
      "Ġleft": 1931,
      "ths": 1932,
      "Ġcontent": 1933,
      "eturn": 1934,
      "Ġcommun": 1935,
      "valid": 1936,
      "Hand": 1937,
      "fin": 1938,
      "All": 1939,
      "29": 1940,
      "side": 1941,
      "ĠNational": 1942,
      "ilter": 1943,
      "ilt": 1944,
      "ague": 1945,
      "alk": 1946,
      "Ġpres": 1947,
      "ird": 1948,
      "rist": 1949,
      "Al": 1950,
      "Build": 1951,
      "ĠWorld": 1952,
      "abled": 1953,
      "Ġvis": 1954,
      "Ġmet": 1955,
      "Message": 1956,
      "ambda": 1957,
      "ĠAd": 1958,
      "ags": 1959,
      "Ġtem": 1960,
      "Ġprot": 1961,
      "Ġallow": 1962,
      "iness": 1963,
      "plate": 1964,
      "version": 1965,
      "sw": 1966,
      "efore": 1967,
      "arge": 1968,
      "Ġlog": 1969,
      "ians": 1970,
      "lected": 1971,
      "sk": 1972,
      "create": 1973,
      "****************": 1974,
      "FF": 1975,
      "ĠSystem": 1976,
      "Ġgu": 1977,
      "Ġprogram": 1978,
      "head": 1979,
      "Ġseason": 1980,
      "nder": 1981,
      "ift": 1982,
      "Ġlaw": 1983,
      "come": 1984,
      "Ġversion": 1985,
      "Ġfind": 1986,
      "aster": 1987,
      "Ġu": 1988,
      "ĠCan": 1989,
      "umer": 1990,
      "ification": 1991,
      "This": 1992,
      "Ġmust": 1993,
      "AD": 1994,
      "pan": 1995,
      "ety": 1996,
      "2017": 1997,
      "Of": 1998,
      "iable": 1999,
      "ources": 2000,
      "vious": 2001,
      "Ġthose": 2002,
      "body": 2003,
      "Ġpolit": 2004,
      "2015": 2005,
      "loat": 2006,
      "Ġlife": 2007,
      "ĠYork": 2008,
      "Ġvery": 2009,
      "ential": 2010,
      "Ġeven": 2011,
      "=\"../../../../": 2012,
      "ĠĠĊ": 2013,
      "uck": 2014,
      "Ġhttp": 2015,
      "ining": 2016,
      "Ġseries": 2017,
      "++": 2018,
      "ene": 2019,
      "acter": 2020,
      "Ġsrc": 2021,
      "2016": 2022,
      "Ġcare": 2023,
      "2019": 2024,
      "Ġ:=": 2025,
      "odes": 2026,
      "Ġjava": 2027,
      "We": 2028,
      "Ġuser": 2029,
      "Ġca": 2030,
      "ides": 2031,
      "Ġsee": 2032,
      "reate": 2033,
      "iction": 2034,
      "default": 2035,
      "rec": 2036,
      "UT": 2037,
      "Ġestab": 2038,
      "Is": 2039,
      "Ġfamily": 2040,
      ">&": 2041,
      "LO": 2042,
      "Ġmark": 2043,
      "Val": 2044,
      "Ġtri": 2045,
      "ination": 2046,
      "point": 2047,
      "aces": 2048,
      "ĠHow": 2049,
      "java": 2050,
      "2018": 2051,
      "gy": 2052,
      "Ġplace": 2053,
      "Ġinformation": 2054,
      "sec": 2055,
      "inc": 2056,
      "mbol": 2057,
      "Ġalbum": 2058,
      "ait": 2059,
      "Ġbook": 2060,
      "ended": 2061,
      "tings": 2062,
      "nection": 2063,
      "ĠJul": 2064,
      "ĠCent": 2065,
      "=\\": 2066,
      "Comm": 2067,
      "came": 2068,
      "amma": 2069,
      "Ġ__": 2070,
      "ony": 2071,
      "Ġrefer": 2072,
      "ches": 2073,
      "ouble": 2074,
      "Ġconfig": 2075,
      "start": 2076,
      "2014": 2077,
      "Ġret": 2078,
      "Ġbecame": 2079,
      "Out": 2080,
      "evice": 2081,
      "info": 2082,
      "Ġperson": 2083,
      "ajor": 2084,
      "Ġway": 2085,
      "perties": 2086,
      "state": 2087,
      "ised": 2088,
      "ĠâĢĶ": 2089,
      "ness": 2090,
      "Ġdescri": 2091,
      "App": 2092,
      "Ġorgan": 2093,
      "Ġconsider": 2094,
      "serv": 2095,
      "Ġuntil": 2096,
      "Ġcreate": 2097,
      "android": 2098,
      "duct": 2099,
      "Ġhead": 2100,
      "define": 2101,
      "Ġbased": 2102,
      "bl": 2103,
      ")\\": 2104,
      "content": 2105,
      "Ġsmall": 2106,
      "Ġnext": 2107,
      "Ġcr": 2108,
      "liam": 2109,
      "Ġsever": 2110,
      "Ġdown": 2111,
      "60": 2112,
      "Ġfootball": 2113,
      "IG": 2114,
      "ĠCar": 2115,
      "Ġblock": 2116,
      "Ġbase": 2117,
      "Ð°": 2118,
      "ĠPl": 2119,
      "Ser": 2120,
      "ĠAll": 2121,
      "Model": 2122,
      "ĠBrit": 2123,
      "bed": 2124,
      "ĠBr": 2125,
      "Log": 2126,
      "olv": 2127,
      "using": 2128,
      "Ġsl": 2129,
      "ourn": 2130,
      "ĠNov": 2131,
      "Ġrepresent": 2132,
      "ĠSchool": 2133,
      "ML": 2134,
      "www": 2135,
      "ively": 2136,
      "Ġbreak": 2137,
      "Ġman": 2138,
      "urity": 2139,
      "--------------------------------": 2140,
      "ĠBl": 2141,
      "Ġcheck": 2142,
      "ender": 2143,
      "igma": 2144,
      "usiness": 2145,
      "================": 2146,
      "Ġknow": 2147,
      "base": 2148,
      "Manager": 2149,
      "ired": 2150,
      "Ġpath": 2151,
      "80": 2152,
      "ING": 2153,
      "Ġview": 2154,
      "imit": 2155,
      "Ġcour": 2156,
      "Ġexample": 2157,
      "Ġold": 2158,
      "ored": 2159,
      "ĠWar": 2160,
      "comp": 2161,
      "Ġproject": 2162,
      "ĠGr": 2163,
      "ands": 2164,
      "Ġ===": 2165,
      "34": 2166,
      "MA": 2167,
      "ĠPar": 2168,
      "Ġann": 2169,
      "Ġpresent": 2170,
      "itch": 2171,
      "Ġsuccess": 2172,
      "Ġlevel": 2173,
      "itional": 2174,
      "Ġ\\\\": 2175,
      "cd": 2176,
      "mu": 2177,
      ".âĢĿ": 2178,
      "ĠWest": 2179,
      "ULL": 2180,
      "akes": 2181,
      "include": 2182,
      "Table": 2183,
      "uf": 2184,
      "ĠCounty": 2185,
      "icy": 2186,
      "Ġ,": 2187,
      "hat": 2188,
      "rack": 2189,
      "ĠGet": 2190,
      "net": 2191,
      "ĠÐ": 2192,
      "ĉĉĉĉĉĉ": 2193,
      "ĠEn": 2194,
      "Ġoffic": 2195,
      "package": 2196,
      "iron": 2197,
      "elete": 2198,
      "_\\": 2199,
      "Ġtry": 2200,
      "max": 2201,
      "Ġincre": 2202,
      "ume": 2203,
      "Ġmusic": 2204,
      "Ġpub": 2205,
      "User": 2206,
      "ĠSouth": 2207,
      "Inter": 2208,
      "2010": 2209,
      "ega": 2210,
      "IS": 2211,
      "Ġcode": 2212,
      "Ġocc": 2213,
      "Ġoriginal": 2214,
      "Ġinput": 2215,
      "Ġconf": 2216,
      "Ġpost": 2217,
      "HE": 2218,
      "ename": 2219,
      "Ġcontext": 2220,
      "Ġhelp": 2221,
      "ken": 2222,
      "anuary": 2223,
      "2013": 2224,
      "ĠReg": 2225,
      "Ġbir": 2226,
      "css": 2227,
      "tes": 2228,
      "wards": 2229,
      "roller": 2230,
      "ability": 2231,
      "ched": 2232,
      "Pl": 2233,
      "From": 2234,
      "ival": 2235,
      "Ġeffect": 2236,
      "Ġav": 2237,
      "ĠState": 2238,
      "false": 2239,
      "Color": 2240,
      "ison": 2241,
      "Ġdeath": 2242,
      "cale": 2243,
      "Up": 2244,
      "ĠYou": 2245,
      ";&": 2246,
      "context": 2247,
      "Ġfr": 2248,
      "Ġ()": 2249,
      "ances": 2250,
      "Ġmult": 2251,
      "rix": 2252,
      "Ġ};": 2253,
      "au": 2254,
      "ails": 2255,
      "ĠOct": 2256,
      "Property": 2257,
      "ugust": 2258,
      "Ġsong": 2259,
      "Ġprom": 2260,
      "Ġloc": 2261,
      "Ġposs": 2262,
      "erman": 2263,
      "MP": 2264,
      "ustral": 2265,
      "ober": 2266,
      "ptember": 2267,
      "web": 2268,
      "elect": 2269,
      "Ġinstance": 2270,
      "down": 2271,
      "google": 2272,
      "pression": 2273,
      "ottom": 2274,
      "mber": 2275,
      "ET": 2276,
      "2012": 2277,
      "no": 2278,
      "istor": 2279,
      "ling": 2280,
      "oman": 2281,
      "Ġleg": 2282,
      "2011": 2283,
      "ĠThey": 2284,
      "mathbb": 2285,
      "ĠGe": 2286,
      "aut": 2287,
      "tn": 2288,
      "ape": 2289,
      "illion": 2290,
      "Ġgovernment": 2291,
      "Ġiss": 2292,
      "ansp": 2293,
      "Ġgame": 2294,
      "ebug": 2295,
      "Group": 2296,
      "Ġarea": 2297,
      "option": 2298,
      "ĠCal": 2299,
      "=\"../": 2300,
      "Ġreport": 2301,
      "semb": 2302,
      "ocus": 2303,
      "Reg": 2304,
      "ering": 2305,
      "cast": 2306,
      "ĠPol": 2307,
      "ideo": 2308,
      "lege": 2309,
      "db": 2310,
      "New": 2311,
      "ump": 2312,
      "aving": 2313,
      "iod": 2314,
      "ĠUS": 2315,
      "Ġservice": 2316,
      "doc": 2317,
      "Response": 2318,
      "ware": 2319,
      "oken": 2320,
      "urope": 2321,
      "method": 2322,
      "event": 2323,
      "Ġexper": 2324,
      "Ġnil": 2325,
      "ocial": 2326,
      "core": 2327,
      "ately": 2328,
      "ĠMarch": 2329,
      "Ġsingle": 2330,
      "Ð¾": 2331,
      "Ġmax": 2332,
      "Ġaround": 2333,
      "}_{": 2334,
      "Ġbool": 2335,
      "35": 2336,
      "see": 2337,
      "Ġlet": 2338,
      "UN": 2339,
      "....": 2340,
      "Ġwithin": 2341,
      "DO": 2342,
      "ording": 2343,
      "Ġvalues": 2344,
      "Ġposition": 2345,
      "Ġitem": 2346,
      "ailable": 2347,
      "ted": 2348,
      "Ġmuch": 2349,
      "prot": 2350,
      "Ġwant": 2351,
      "uments": 2352,
      "ĠWil": 2353,
      "pril": 2354,
      "Client": 2355,
      "Ġnode": 2356,
      "Dis": 2357,
      "Call": 2358,
      "Arg": 2359,
      "Ġstill": 2360,
      "Trans": 2361,
      "CE": 2362,
      "aim": 2363,
      "ĠList": 2364,
      "TD": 2365,
      "count": 2366,
      "ĠJanuary": 2367,
      "sup": 2368,
      "Ġpo": 2369,
      "ĠĠĠĠĠĠĠĠĠĠĠĠ": 2370,
      "ĠRep": 2371,
      "ormal": 2372,
      "met": 2373,
      "=\"#": 2374,
      "Ġcond": 2375,
      "eps": 2376,
      "ĠĠĠĠĠĠĠĠĠĠ": 2377,
      "AB": 2378,
      "}^{": 2379,
      ";</": 2380,
      "ivity": 2381,
      "Ġchang": 2382,
      "stru": 2383,
      "ilit": 2384,
      "Ġindex": 2385,
      "ĠCo": 2386,
      "earch": 2387,
      "39": 2388,
      "print": 2389,
      "ĠSeptember": 2390,
      "Ġpower": 2391,
      "Ġimp": 2392,
      "Ġident": 2393,
      "ords": 2394,
      "Ġseveral": 2395,
      "dom": 2396,
      "Ġinclude": 2397,
      "$\\": 2398,
      "ĠAugust": 2399,
      "uman": 2400,
      "Rec": 2401,
      "Ġadv": 2402,
      "Cl": 2403,
      "Ðµ": 2404,
      "ued": 2405,
      "AS": 2406,
      "stit": 2407,
      "Method": 2408,
      "ED": 2409,
      "Query": 2410,
      "ĠGu": 2411,
      "ĠJune": 2412,
      "argin": 2413,
      "ENT": 2414,
      "It": 2415,
      "ithub": 2416,
      "Pr": 2417,
      "Override": 2418,
      "static": 2419,
      "Count": 2420,
      "Ġlang": 2421,
      "olution": 2422,
      "Ġresults": 2423,
      "cember": 2424,
      "ĠJuly": 2425,
      "Ph": 2426,
      "vision": 2427,
      "Ġstd": 2428,
      "check": 2429,
      "ĠOctober": 2430,
      ">(": 2431,
      "Ġoptions": 2432,
      "Ġhere": 2433,
      "aterial": 2434,
      "arr": 2435,
      "refer": 2436,
      "Ġsource": 2437,
      "icle": 2438,
      "hold": 2439,
      "ibr": 2440,
      "style": 2441,
      "Ġpat": 2442,
      "Ġenc": 2443,
      "ifier": 2444,
      "ampion": 2445,
      "Ġcap": 2446,
      "ĠBe": 2447,
      "Ġexpl": 2448,
      "annel": 2449,
      "Ġmembers": 2450,
      "ae": 2451,
      "Ġdem": 2452,
      "-\\": 2453,
      "Ġday": 2454,
      "position": 2455,
      "Ġnear": 2456,
      "lin": 2457,
      "Ġcolor": 2458,
      "Ġreal": 2459,
      "Ġinitial": 2460,
      "oin": 2461,
      "viron": 2462,
      "Ġport": 2463,
      "ope": 2464,
      "<!--": 2465,
      "ead": 2466,
      "onse": 2467,
      "namespace": 2468,
      "Ġwithout": 2469,
      "leg": 2470,
      "call": 2471,
      "ales": 2472,
      "plement": 2473,
      "\\\\\\\\": 2474,
      "tab": 2475,
      "Ġlook": 2476,
      "99": 2477,
      "place": 2478,
      "Ġeng": 2479,
      "phi": 2480,
      "Ġwon": 2481,
      ")</": 2482,
      "ules": 2483,
      "sl": 2484,
      "Ġdel": 2485,
      "ho": 2486,
      "Ġtake": 2487,
      "hes": 2488,
      "ĠApril": 2489,
      "Ġdocument": 2490,
      "Ġcity": 2491,
      "Ġbu": 2492,
      "Ġwomen": 2493,
      "ning": 2494,
      "lick": 2495,
      "gress": 2496,
      "Ġprof": 2497,
      "alt": 2498,
      "ĠAf": 2499,
      "2009": 2500,
      "ators": 2501,
      "eger": 2502,
      "Ġformer": 2503,
      "Ġsom": 2504,
      "IL": 2505,
      "irtual": 2506,
      "2020": 2507,
      "mathbf": 2508,
      "And": 2509,
      "Ġborder": 2510,
      "Ġresponse": 2511,
      "aly": 2512,
      "Ġalong": 2513,
      "Mod": 2514,
      "ĠEd": 2515,
      "ung": 2516,
      "Ġtable": 2517,
      "ĠEurope": 2518,
      "Fact": 2519,
      "ĠSet": 2520,
      "with": 2521,
      "github": 2522,
      "Ġanother": 2523,
      "ĠNorth": 2524,
      "37": 2525,
      "66": 2526,
      "Ġearly": 2527,
      "lib": 2528,
      "31": 2529,
      "Ġaddress": 2530,
      "Ad": 2531,
      "Ġmap": 2532,
      "ven": 2533,
      "Ġsk": 2534,
      "ĠCity": 2535,
      "Ġla": 2536,
      "2008": 2537,
      "urg": 2538,
      "build": 2539,
      "ES": 2540,
      "Builder": 2541,
      "Stream": 2542,
      "ĠAustral": 2543,
      "Ġlarge": 2544,
      "ixed": 2545,
      "urther": 2546,
      "ĠChrist": 2547,
      "aining": 2548,
      "Ġandroid": 2549,
      "ius": 2550,
      "lex": 2551,
      "Ġstand": 2552,
      "ama": 2553,
      "ecut": 2554,
      "Bar": 2555,
      "Ġmatch": 2556,
      "Ġgood": 2557,
      "ards": 2558,
      "Ġfa": 2559,
      "Ass": 2560,
      "|-": 2561,
      "Ġdon": 2562,
      "ĠIm": 2563,
      "hip": 2564,
      "ories": 2565,
      "current": 2566,
      "Ġmessage": 2567,
      "ĠNovember": 2568,
      "Ġmember": 2569,
      "TH": 2570,
      "null": 2571,
      "ugg": 2572,
      "Ġbackground": 2573,
      "Ġhome": 2574,
      "Ġins": 2575,
      "ĠDecember": 2576,
      "Gener": 2577,
      "pen": 2578,
      "90": 2579,
      "button": 2580,
      "Ġproble": 2581,
      "Ġmajor": 2582,
      "ways": 2583,
      "Ġcontrol": 2584,
      "aint": 2585,
      "Ġproperty": 2586,
      "options": 2587,
      "query": 2588,
      "])": 2589,
      "raft": 2590,
      "ze": 2591,
      "ĠSec": 2592,
      "ured": 2593,
      "nect": 2594,
      "Sub": 2595,
      "lambda": 2596,
      "Ġdiv": 2597,
      "ĠTe": 2598,
      "Ã¡": 2599,
      "Ġreleased": 2600,
      "ada": 2601,
      "ending": 2602,
      "ique": 2603,
      "Input": 2604,
      "Status": 2605,
      "Fl": 2606,
      "atures": 2607,
      "Ġbest": 2608,
      "ĠNo": 2609,
      "Ġparent": 2610,
      "Ġaccess": 2611,
      "Ġaction": 2612,
      "Ġtot": 2613,
      "38": 2614,
      "Ġsw": 2615,
      "opt": 2616,
      "Util": 2617,
      "AME": 2618,
      "Image": 2619,
      "func": 2620,
      "thern": 2621,
      "atab": 2622,
      "Ġ{\\": 2623,
      "Ġes": 2624,
      "^{\\": 2625,
      "36": 2626,
      "conom": 2627,
      "Ġfore": 2628,
      "End": 2629,
      "Ġchildren": 2630,
      "ql": 2631,
      "ney": 2632,
      "ebru": 2633,
      "request": 2634,
      "Ġplayed": 2635,
      "Ġshort": 2636,
      "ĠMin": 2637,
      "Ġstat": 2638,
      "aced": 2639,
      "ero": 2640,
      "IP": 2641,
      "ĠĠĠĠĠĠĠĠĠĠĠĠĠĠĠĠĠĠĠĠĠĠĠĠĠĠĠĠĠĠĠ": 2642,
      "Ġhistory": 2643,
      "âĢĶ": 2644,
      "client": 2645,
      "ography": 2646,
      "ebruary": 2647,
      "Ġdue": 2648,
      "ĠPart": 2649,
      "45": 2650,
      "ĠMed": 2651,
      "2007": 2652,
      "](": 2653,
      "beta": 2654,
      "Ġexist": 2655,
      "ĠBritish": 2656,
      "US": 2657,
      "ĠNULL": 2658,
      "riter": 2659,
      "ready": 2660,
      "dir": 2661,
      "ONT": 2662,
      "ĠFl": 2663,
      "oper": 2664,
      "Ġchange": 2665,
      "image": 2666,
      "Date": 2667,
      "space": 2668,
      "OT": 2669,
      "cer": 2670,
      "((": 2671,
      "ĠBut": 2672,
      "ux": 2673,
      "Ġwidth": 2674,
      "Ġbeh": 2675,
      "Ġ<<": 2676,
      "Ġspe": 2677,
      "args": 2678,
      "Ġdistri": 2679,
      "Ġcar": 2680,
      "Ġauthor": 2681,
      "ĠII": 2682,
      "ĠSp": 2683,
      "cond": 2684,
      "Token": 2685,
      "Par": 2686,
      "itive": 2687,
      "ĠBo": 2688,
      "ĠHowever": 2689,
      "posed": 2690,
      "ĠĠĠĠĠĠĠĠĠĠĠĠĠĠĠĠĠ": 2691,
      "de": 2692,
      "Ġprevious": 2693,
      "born": 2694,
      "75": 2695,
      "Ġsum": 2696,
      "Ġcompany": 2697,
      "eder": 2698,
      "finished": 2699,
      "Ġinterest": 2700,
      "ĠSup": 2701,
      "reen": 2702,
      "arning": 2703,
      "Ġdesign": 2704,
      "Ġtechn": 2705,
      "oud": 2706,
      "ns": 2707,
      "ilon": 2708,
      "Ġrole": 2709,
      "Ġ->": 2710,
      "vironment": 2711,
      "See": 2712,
      "ana": 2713,
      "alf": 2714,
      "190": 2715,
      "ĉĊ": 2716,
      "Pos": 2717,
      "sigma": 2718,
      "But": 2719,
      "Ġ$(": 2720,
      "pecial": 2721,
      "run": 2722,
      "ham": 2723,
      "Ġcharacter": 2724,
      "2006": 2725,
      "2000": 2726,
      "Ð¸": 2727,
      "âĢľ": 2728,
      "ĠGener": 2729,
      "ĠCont": 2730,
      "struction": 2731,
      "Be": 2732,
      "adding": 2733,
      "umb": 2734,
      "Sc": 2735,
      "ĠTo": 2736,
      "ops": 2737,
      "Ed": 2738,
      "uture": 2739,
      "used": 2740,
      "cho": 2741,
      "Block": 2742,
      "Instance": 2743,
      "lem": 2744,
      "php": 2745,
      "ĠKing": 2746,
      "adem": 2747,
      "Ġaff": 2748,
      "ster": 2749,
      "Ġoutput": 2750,
      "Ġregion": 2751,
      "Ġbusiness": 2752,
      "Ġgeneral": 2753,
      "acy": 2754,
      "apan": 2755,
      "Ġrad": 2756,
      "rel": 2757,
      "hand": 2758,
      "DI": 2759,
      "Ġassoci": 2760,
      "Options": 2761,
      "Act": 2762,
      "arrow": 2763,
      "ayout": 2764,
      "ari": 2765,
      "ached": 2766,
      "YPE": 2767,
      "Ġdi": 2768,
      "ither": 2769,
      "cope": 2770,
      "dl": 2771,
      "ights": 2772,
      "yles": 2773,
      "ection": 2774,
      "Ġlarg": 2775,
      "Ġcompet": 2776,
      "chema": 2777,
      "prov": 2778,
      "ĠAct": 2779,
      "Str": 2780,
      "ĠSer": 2781,
      "resp": 2782,
      "ĠThere": 2783,
      "Ġboolean": 2784,
      "server": 2785,
      "Run": 2786,
      "has": 2787,
      "vers": 2788,
      "55": 2789,
      "ĠFebruary": 2790,
      "idget": 2791,
      "Equal": 2792,
      "Ġfull": 2793,
      "rew": 2794,
      "Ġrange": 2795,
      "unfinished": 2796,
      "mat": 2797,
      "jav": 2798,
      ",\"": 2799,
      "Ġbas": 2800,
      "Ġresearch": 2801,
      "EX": 2802,
      "init": 2803,
      "ered": 2804,
      "height": 2805,
      "ones": 2806,
      "era": 2807,
      "Ġweek": 2808,
      "Null": 2809,
      "ĠBy": 2810,
      "ĠPres": 2811,
      "CH": 2812,
      "Ġtotal": 2813,
      "anch": 2814,
      "Ġreceived": 2815,
      "idge": 2816,
      "Ġnetwork": 2817,
      "ought": 2818,
      "Off": 2819,
      "tx": 2820,
      "Base": 2821,
      "rodu": 2822,
      ",âĢĿ": 2823,
      "Ġcareer": 2824,
      "Ġnational": 2825,
      "Line": 2826,
      "Attribute": 2827,
      "unk": 2828,
      "aper": 2829,
      "Source": 2830,
      "ĠMc": 2831,
      "creen": 2832,
      "Ġnamed": 2833,
      "Ġke": 2834,
      "ugin": 2835,
      "ention": 2836,
      "mark": 2837,
      "Nav": 2838,
      "No": 2839,
      "aff": 2840,
      "Component": 2841,
      "adata": 2842,
      "icense": 2843,
      "Ġcountry": 2844,
      "Ġcomput": 2845,
      "rag": 2846,
      "la": 2847,
      "ĠHis": 2848,
      "ĠRec": 2849,
      "iff": 2850,
      "xy": 2851,
      "Ġeduc": 2852,
      "Ġperiod": 2853,
      "imate": 2854,
      "TO": 2855,
      "Ġavailable": 2856,
      "Ġrequired": 2857,
      "Ġheld": 2858,
      "rench": 2859,
      "quad": 2860,
      "70": 2861,
      "ĠSw": 2862,
      "ington": 2863,
      "artment": 2864,
      "Ġvol": 2865,
      "Ġthink": 2866,
      "Ġrest": 2867,
      "oke": 2868,
      "Ġ\"\"\"": 2869,
      "ĠLeague": 2870,
      "imary": 2871,
      "ilde": 2872,
      "Ġinvest": 2873,
      "ilar": 2874,
      "*}": 2875,
      "Ġcommand": 2876,
      "ibility": 2877,
      "Cell": 2878,
      "NS": 2879,
      "Ġtele": 2880,
      "ĠTest": 2881,
      "center": 2882,
      "thers": 2883,
      "ĠAfter": 2884,
      "Rep": 2885,
      "[\"": 2886,
      "member": 2887,
      "header": 2888,
      "page": 2889,
      "osed": 2890,
      "Ġtown": 2891,
      "Handler": 2892,
      "rest": 2893,
      "REF": 2894,
      "rows": 2895,
      "Ġcamp": 2896,
      "CK": 2897,
      "igation": 2898,
      "({": 2899,
      "atter": 2900,
      "orage": 2901,
      "Ġtook": 2902,
      "Ġhost": 2903,
      "Ġalign": 2904,
      "ploy": 2905,
      "Ġbegan": 2906,
      "dec": 2907,
      "Ġside": 2908,
      "child": 2909,
      "iple": 2910,
      "Dec": 2911,
      "inition": 2912,
      "append": 2913,
      "Buffer": 2914,
      "atabase": 2915,
      "ĠAfric": 2916,
      "rad": 2917,
      ")}": 2918,
      "iment": 2919,
      "FA": 2920,
      "ampionship": 2921,
      "Ġfre": 2922,
      "stand": 2923,
      "idual": 2924,
      "ĠĠĠĠĠĠĠĠĠĠĠĠĊ": 2925,
      "ino": 2926,
      "igr": 2927,
      "ĠRob": 2928,
      "Ġelect": 2929,
      "Oper": 2930,
      "Ġbound": 2931,
      "Action": 2932,
      "active": 2933,
      "Ġfew": 2934,
      "ĠAb": 2935,
      "ĠRuss": 2936,
      "Ġturn": 2937,
      "Ext": 2938,
      "ÑĤ": 2939,
      "Ġsy": 2940,
      "Ġspace": 2941,
      "Ġopt": 2942,
      "nown": 2943,
      "ĠBar": 2944,
      "Ġcount": 2945,
      "Comp": 2946,
      "Ġ+=": 2947,
      "Ġdest": 2948,
      "mathrm": 2949,
      "Ġfilms": 2950,
      "Americ": 2951,
      "oto": 2952,
      "rt": 2953,
      "Ġsuper": 2954,
      "iet": 2955,
      "parent": 2956,
      "imal": 2957,
      "ependent": 2958,
      "icro": 2959,
      "inary": 2960,
      "Ġ(\\": 2961,
      "ls": 2962,
      "imum": 2963,
      "Ġ($": 2964,
      "Ġwhe": 2965,
      "ught": 2966,
      "Ġimage": 2967,
      "Ġcreated": 2968,
      "rain": 2969,
      "Sec": 2970,
      "Resource": 2971,
      "Ġmag": 2972,
      "Ġdeb": 2973,
      "Ġhouse": 2974,
      "century": 2975,
      "now": 2976,
      "Ġdom": 2977,
      "rior": 2978,
      "Ġpage": 2979,
      "na": 2980,
      "Ġsay": 2981,
      "cil": 2982,
      "ief": 2983,
      "Ġhold": 2984,
      "ĠEnglish": 2985,
      "do": 2986,
      "Ġmanag": 2987,
      "Task": 2988,
      "EE": 2989,
      "sembly": 2990,
      "Ġobt": 2991,
      "Ġcert": 2992,
      "OL": 2993,
      "ategory": 2994,
      "undle": 2995,
      "cy": 2996,
      "Ġbirths": 2997,
      "Ġparticular": 2998,
      "Ġvalid": 2999,
      "ĠĠĠĠĠĠĠĠĠĠĠĠĠĠ": 3000,
      "gamma": 3001,
      "SC": 3002,
      "ours": 3003,
      "Ġet": 3004,
      "0000": 3005,
      "json": 3006,
      "ĠAdd": 3007,
      "Ġland": 3008,
      "Content": 3009,
      "Ġrespect": 3010,
      "ondon": 3011,
      "Select": 3012,
      "target": 3013,
      "mit": 3014,
      "Start": 3015,
      "Ġtrack": 3016,
      "navbar": 3017,
      "Link": 3018,
      "ĠCoun": 3019,
      "ilitary": 3020,
      "tributes": 3021,
      "Ð½": 3022,
      "ialog": 3023,
      "though": 3024,
      "ĠĠĠĠĠĠĠĠĊ": 3025,
      "sequ": 3026,
      "Ġage": 3027,
      "reet": 3028,
      "oph": 3029,
      "Ġlabel": 3030,
      "ĠChar": 3031,
      "Hel": 3032,
      "property": 3033,
      "aul": 3034,
      "){": 3035,
      "pm": 3036,
      "ĠCor": 3037,
      "select": 3038,
      "andom": 3039,
      "44": 3040,
      "2005": 3041,
      "ĠMan": 3042,
      "otype": 3043,
      "ites": 3044,
      "ptr": 3045,
      "Point": 3046,
      "AP": 3047,
      "ĠDes": 3048,
      "bit": 3049,
      "Factory": 3050,
      "Ġlength": 3051,
      "01": 3052,
      "post": 3053,
      "where": 3054,
      "ogn": 3055,
      "Default": 3056,
      "delta": 3057,
      "Ġep": 3058,
      "Ġbuilt": 3059,
      "Ġmeas": 3060,
      "Ġimportant": 3061,
      "Ġpopulation": 3062,
      "local": 3063,
      "Ġcell": 3064,
      "eed": 3065,
      "eople": 3066,
      "]{": 3067,
      "angle": 3068,
      "Ġtimes": 3069,
      "Ġspecial": 3070,
      "SP": 3071,
      "lied": 3072,
      "ĠCollege": 3073,
      "+\\": 3074,
      "ram": 3075,
      "Ġfac": 3076,
      "Ġexpected": 3077,
      "Ġevents": 3078,
      "xml": 3079,
      "ĠDep": 3080,
      "ĠHigh": 3081,
      "Window": 3082,
      "ese": 3083,
      "ille": 3084,
      "iddle": 3085,
      "True": 3086,
      "ramework": 3087,
      "src": 3088,
      "figure": 3089,
      "atform": 3090,
      "Ġlate": 3091,
      "ĠArt": 3092,
      "light": 3093,
      "Ġless": 3094,
      "ĠEast": 3095,
      "Ġpublished": 3096,
      "alys": 3097,
      "ittle": 3098,
      "ĠJapan": 3099,
      "Ġfive": 3100,
      "^{-": 3101,
      "Ġresource": 3102,
      "rl": 3103,
      "}{\\": 3104,
      "open": 3105,
      "eff": 3106,
      "Function": 3107,
      "izer": 3108,
      "^\\": 3109,
      "Ġestablished": 3110,
      "Ġarch": 3111,
      "EL": 3112,
      "LASS": 3113,
      "*/": 3114,
      "flow": 3115,
      "Ġabove": 3116,
      "GL": 3117,
      "Ġinc": 3118,
      "status": 3119,
      "ĠInt": 3120,
      "Ġput": 3121,
      "Ġoften": 3122,
      "Ġsix": 3123,
      "vis": 3124,
      "American": 3125,
      "img": 3126,
      "lections": 3127,
      "UE": 3128,
      "OP": 3129,
      "Ġprint": 3130,
      "Ġconc": 3131,
      "ynam": 3132,
      "btn": 3133,
      "Ġalready": 3134,
      "respond": 3135,
      "ĠClass": 3136,
      "Ġmen": 3137,
      "Ġmillion": 3138,
      "Version": 3139,
      "If": 3140,
      "bottom": 3141,
      "ĠWhen": 3142,
      "mail": 3143,
      "ansport": 3144,
      "ATE": 3145,
      "ĠHouse": 3146,
      "cle": 3147,
      "first": 3148,
      "Ġofficial": 3149,
      "ĠObject": 3150,
      "ĠOff": 3151,
      "Ġcommon": 3152,
      "Style": 3153,
      "Ġprotected": 3154,
      "module": 3155,
      "epar": 3156,
      "iol": 3157,
      "ĠSo": 3158,
      "48": 3159,
      "\"]": 3160,
      "ij": 3161,
      "sg": 3162,
      "case": 3163,
      "Ġdisplay": 3164,
      "ged": 3165,
      "ipp": 3166,
      "Ġcover": 3167,
      "rect": 3168,
      "ĠPhil": 3169,
      "Ġsent": 3170,
      "Ġband": 3171,
      "Ġthird": 3172,
      "Ġincluded": 3173,
      "istry": 3174,
      "Ġclient": 3175,
      "Ġbody": 3176,
      "element": 3177,
      "ĠComp": 3178,
      "Ġfeature": 3179,
      "uation": 3180,
      "ising": 3181,
      "endif": 3182,
      "write": 3183,
      "Ġobserv": 3184,
      "Ġarr": 3185,
      "ado": 3186,
      "ĠLondon": 3187,
      "2004": 3188,
      "Ã³": 3189,
      "ĠDav": 3190,
      "uster": 3191,
      "PRO": 3192,
      "Ġlocated": 3193,
      "HT": 3194,
      "Ġnum": 3195,
      "ĠMe": 3196,
      "meta": 3197,
      "istic": 3198,
      "Ġcult": 3199,
      "ĠNone": 3200,
      "Ġtask": 3201,
      "gle": 3202,
      "Ġamong": 3203,
      "Ġsection": 3204,
      "Ġdefined": 3205,
      "istrict": 3206,
      "Ġclub": 3207,
      "ude": 3208,
      "last": 3209,
      "Ġide": 3210,
      "Ġwar": 3211,
      "ocol": 3212,
      "ably": 3213,
      "Ġcrit": 3214,
      "leq": 3215,
      "utions": 3216,
      "df": 3217,
      "Ġproduct": 3218,
      "host": 3219,
      "aps": 3220,
      "private": 3221,
      "ĠAm": 3222,
      "Ġhapp": 3223,
      "Ġnever": 3224,
      "MS": 3225,
      "Ġcentury": 3226,
      "CC": 3227,
      "ÑĢ": 3228,
      "description": 3229,
      "Ġcommunity": 3230,
      "png": 3231,
      "ford": 3232,
      "stream": 3233,
      "ves": 3234,
      "Ġdevelopment": 3235,
      "(&": 3236,
      "inning": 3237,
      "Number": 3238,
      "imation": 3239,
      "Ġdescribed": 3240,
      "Ġgreat": 3241,
      "Ġthrows": 3242,
      "ĠDef": 3243,
      "abor": 3244,
      "find": 3245,
      "AG": 3246,
      "rown": 3247,
      "ournal": 3248,
      "rowser": 3249,
      "Ġfree": 3250,
      "book": 3251,
      "aken": 3252,
      "rho": 3253,
      "Ġbuilding": 3254,
      "ibrary": 3255,
      "ĠIN": 3256,
      "ĠQu": 3257,
      "tempt": 3258,
      "FONT": 3259,
      "push": 3260,
      "Pol": 3261,
      "Ġ{@": 3262,
      "ĠPark": 3263,
      "Us": 3264,
      "Ġtyp": 3265,
      "Command": 3266,
      "ĠReturn": 3267,
      "Ġserved": 3268,
      "ĠWilliam": 3269,
      "yd": 3270,
      "theta": 3271,
      "FI": 3272,
      "ald": 3273,
      "big": 3274,
      "Ġstory": 3275,
      "aml": 3276,
      "Ġclaim": 3277,
      "race": 3278,
      "olved": 3279,
      "ociety": 3280,
      "Ġappear": 3281,
      "oice": 3282,
      "Ġindiv": 3283,
      "Ġpoints": 3284,
      "Ġcur": 3285,
      "itory": 3286,
      "VER": 3287,
      "Ġ((": 3288,
      "Part": 3289,
      "irm": 3290,
      "Ġgames": 3291,
      "Ġaccount": 3292,
      "unic": 3293,
      "itted": 3294,
      "ament": 3295,
      "ently": 3296,
      "char": 3297,
      "Ġstatus": 3298,
      "Ġcompon": 3299,
      "Ġvill": 3300,
      "});": 3301,
      "ĠGL": 3302,
      "Ġplayer": 3303,
      "Ġbecome": 3304,
      "Prov": 3305,
      "Ġlanguage": 3306,
      "std": 3307,
      "Ġsocial": 3308,
      "omet": 3309,
      "Label": 3310,
      "times": 3311,
      "///": 3312,
      "cell": 3313,
      "Ġpay": 3314,
      "heet": 3315,
      "Return": 3316,
      "Ġcolumn": 3317,
      "Ġgrad": 3318,
      "OS": 3319,
      "65": 3320,
      "Ġpossible": 3321,
      "Ġsimilar": 3322,
      "Ġcomb": 3323,
      "Ġquest": 3324,
      "ĠBro": 3325,
      "Ġwater": 3326,
      "Row": 3327,
      "iler": 3328,
      "ges": 3329,
      "gener": 3330,
      "ging": 3331,
      "len": 3332,
      "py": 3333,
      "gor": 3334,
      "Ġstudy": 3335,
      "idence": 3336,
      "Ġredu": 3337,
      "Ġattack": 3338,
      "Ġmean": 3339,
      "ĉĉĉĉĉĉĉĉ": 3340,
      "Ġdepend": 3341,
      "strong": 3342,
      "Ġsite": 3343,
      "change": 3344,
      "ĠVal": 3345,
      "buf": 3346,
      "ministr": 3347,
      "roy": 3348,
      "Ġheight": 3349,
      "$-": 3350,
      "Ġpract": 3351,
      "alysis": 3352,
      "ĠDr": 3353,
      ")(": 3354,
      "eqref": 3355,
      "Ġeconom": 3356,
      "sole": 3357,
      "arried": 3358,
      "ĠCour": 3359,
      "oo": 3360,
      "eline": 3361,
      "Ġload": 3362,
      "Ġreturned": 3363,
      "lim": 3364,
      "Ġmargin": 3365,
      "~~": 3366,
      "font": 3367,
      "Ġhuman": 3368,
      "Read": 3369,
      "obj": 3370,
      "Create": 3371,
      "ĠFrench": 3372,
      "NO": 3373,
      "ĠPresident": 3374,
      "require": 3375,
      "ÃŃ": 3376,
      "ĠLa": 3377,
      "ĠInternational": 3378,
      "ifact": 3379,
      "ĠAir": 3380,
      "Equals": 3381,
      "ĠâĢĺ": 3382,
      "attle": 3383,
      "pected": 3384,
      "ĠHer": 3385,
      "Ġyoung": 3386,
      "Ġwritten": 3387,
      "ascript": 3388,
      "Ġurl": 3389,
      "Ġdeterm": 3390,
      "tau": 3391,
      "pol": 3392,
      "signed": 3393,
      "mo": 3394,
      "Ġair": 3395,
      "Ġannoun": 3396,
      "Ġeither": 3397,
      "Ġhealth": 3398,
      "Ġtrad": 3399,
      "display": 3400,
      "${": 3401,
      "entry": 3402,
      "Ġindividual": 3403,
      "Ġlow": 3404,
      "Met": 3405,
      "Check": 3406,
      "Ġstation": 3407,
      "Filter": 3408,
      "mar": 3409,
      "2001": 3410,
      "Ġinf": 3411,
      "Ġstrong": 3412,
      "Ġfund": 3413,
      "inst": 3414,
      "Ġmass": 3415,
      "Ġfri": 3416,
      "ĠOne": 3417,
      "ocket": 3418,
      "ĠHar": 3419,
      "energy": 3420,
      "rict": 3421,
      "Ġborn": 3422,
      "Page": 3423,
      "ivil": 3424,
      "Ġprovided": 3425,
      "allet": 3426,
      "ociation": 3427,
      "clus": 3428,
      "mem": 3429,
      "Ġrecent": 3430,
      "project": 3431,
      "hem": 3432,
      "atal": 3433,
      "Ġintrodu": 3434,
      "BU": 3435,
      "Ġmove": 3436,
      "\").": 3437,
      "Ġhaving": 3438,
      "board": 3439,
      "mon": 3440,
      "pc": 3441,
      "layout": 3442,
      "lies": 3443,
      "Ġpolitical": 3444,
      "Mem": 3445,
      "pose": 3446,
      "sim": 3447,
      "ĠPer": 3448,
      "raphics": 3449,
      "Child": 3450,
      "ike": 3451,
      "ĠDis": 3452,
      "gen": 3453,
      "otion": 3454,
      "Char": 3455,
      "Ġimplement": 3456,
      "flu": 3457,
      "num": 3458,
      "Controller": 3459,
      "Ġleast": 3460,
      "container": 3461,
      "inner": 3462,
      "}(\\": 3463,
      "Sup": 3464,
      "Ġrelation": 3465,
      "Ġworks": 3466,
      "ĠÃ": 3467,
      "Ġinternational": 3468,
      "Ġcame": 3469,
      "Ġwindow": 3470,
      "ceed": 3471,
      "partial": 3472,
      "sol": 3473,
      "////////////////": 3474,
      "ĠThese": 3475,
      "Ġextends": 3476,
      "MO": 3477,
      "Ġglobal": 3478,
      "hel": 3479,
      "INT": 3480,
      "foot": 3481,
      "Format": 3482,
      "Ġoption": 3483,
      "close": 3484,
      "Const": 3485,
      "First": 3486,
      "Listener": 3487,
      "Button": 3488,
      "ĠRev": 3489,
      "Ġstudents": 3490,
      "Ġwhether": 3491,
      "Ġmer": 3492,
      "Ġclose": 3493,
      "igger": 3494,
      "ha": 3495,
      "cod": 3496,
      "uccess": 3497,
      "ico": 3498,
      "idden": 3499,
      "ĠAc": 3500,
      "pack": 3501,
      "Ġgoing": 3502,
      "response": 3503,
      "Ġworking": 3504,
      "SON": 3505,
      "gl": 3506,
      "Ġtoo": 3507,
      "Ġalways": 3508,
      "Ġfurther": 3509,
      "iforn": 3510,
      "fact": 3511,
      "ological": 3512,
      "udio": 3513,
      "iation": 3514,
      "ring": 3515,
      "Ġdeg": 3516,
      "2021": 3517,
      "Output": 3518,
      "lip": 3519,
      "Ġstarted": 3520,
      "Ġindic": 3521,
      "77": 3522,
      "ABLE": 3523,
      "Ġant": 3524,
      "88": 3525,
      "ference": 3526,
      "ĠWith": 3527,
      "Ġcopy": 3528,
      "attr": 3529,
      "apter": 3530,
      "ĠAmerica": 3531,
      "2003": 3532,
      "Ġcatch": 3533,
      "ks": 3534,
      "\"),": 3535,
      "ĠIr": 3536,
      "filter": 3537,
      "Ġden": 3538,
      "Ġtw": 3539,
      "menu": 3540,
      "verage": 3541,
      "Acc": 3542,
      "cul": 3543,
      "det": 3544,
      "gorith": 3545,
      "ĠSch": 3546,
      "ica": 3547,
      "Wh": 3548,
      "most": 3549,
      "level": 3550,
      "ids": 3551,
      "Ġvarious": 3552,
      "mt": 3553,
      "ĠDistrict": 3554,
      "Length": 3555,
      "Box": 3556,
      "update": 3557,
      "ĠGerman": 3558,
      "Ġgen": 3559,
      "189": 3560,
      "ifornia": 3561,
      "Ġ<!--": 3562,
      "ty": 3563,
      "Ġvariable": 3564,
      "Ġdouble": 3565,
      "Ġjo": 3566,
      "format": 3567,
      "ĠMich": 3568,
      "ii": 3569,
      "igin": 3570,
      "ements": 3571,
      "year": 3572,
      "params": 3573,
      "Ġdate": 3574,
      "Ġhistor": 3575,
      "can": 3576,
      "bution": 3577,
      "styles": 3578,
      "Ġcoll": 3579,
      "itte": 3580,
      "_.": 3581,
      "Ġcost": 3582,
      "Ġdays": 3583,
      "Ġdistrict": 3584,
      "javascript": 3585,
      "Ġemploy": 3586,
      "Ġprovide": 3587,
      "Ġprob": 3588,
      "Em": 3589,
      "bor": 3590,
      "BC": 3591,
      "Ġservices": 3592,
      "|\\": 3593,
      "stract": 3594,
      "ĠAg": 3595,
      "Back": 3596,
      "Ġsignific": 3597,
      "Web": 3598,
      "Ġjob": 3599,
      "2002": 3600,
      "Ġtoget": 3601,
      "Ent": 3602,
      "Address": 3603,
      "orge": 3604,
      "Ġproblem": 3605,
      "Last": 3606,
      "Ġtogether": 3607,
      "ply": 3608,
      "oney": 3609,
      "########": 3610,
      "Ġmedia": 3611,
      "Ġmiss": 3612,
      "Ð¾Ð": 3613,
      "Ġlo": 3614,
      "UI": 3615,
      "ayer": 3616,
      "useum": 3617,
      "apping": 3618,
      "service": 3619,
      "cel": 3620,
      "raint": 3621,
      "ĠApp": 3622,
      "Ġsat": 3623,
      "ias": 3624,
      "Ñģ": 3625,
      "ĠNor": 3626,
      "Column": 3627,
      "osp": 3628,
      "ERT": 3629,
      "AM": 3630,
      "ris": 3631,
      "Ġtelevision": 3632,
      "Valid": 3633,
      "<?": 3634,
      "ĠNot": 3635,
      "Ġspecies": 3636,
      "Ġdied": 3637,
      "Ġder": 3638,
      "Ġparameter": 3639,
      "Ġparameters": 3640,
      "Ġdone": 3641,
      "ership": 3642,
      "irection": 3643,
      "49": 3644,
      "After": 3645,
      "ĠSan": 3646,
      "Ġcustom": 3647,
      "Ġled": 3648,
      "anged": 3649,
      "tag": 3650,
      "Pre": 3651,
      "ĠÂ": 3652,
      "}$,": 3653,
      "ills": 3654,
      "si": 3655,
      "uggest": 3656,
      "Ġbeliev": 3657,
      "Ġvideo": 3658,
      "Ġshows": 3659,
      "ĠčĊ": 3660,
      "lymp": 3661,
      "Ġmodule": 3662,
      "ensor": 3663,
      "Ġgl": 3664,
      "structor": 3665,
      "Ġspecified": 3666,
      "Ġgrow": 3667,
      "aries": 3668,
      "refix": 3669,
      "dev": 3670,
      "ires": 3671,
      "draw": 3672,
      "ĠHREF": 3673,
      "even": 3674,
      "%%": 3675,
      "Ġmight": 3676,
      "ĠRepublic": 3677,
      "Ġauto": 3678,
      "wise": 3679,
      "''": 3680,
      "Mode": 3681,
      "ĠDo": 3682,
      "cit": 3683,
      "Ġpot": 3684,
      "Ġver": 3685,
      "IM": 3686,
      "Ġson": 3687,
      "Ġperformance": 3688,
      "dep": 3689,
      "TYPE": 3690,
      "eleg": 3691,
      "Ġinternal": 3692,
      "Ġsepar": 3693,
      "Ġmeans": 3694,
      "acity": 3695,
      "Tem": 3696,
      "Ġfar": 3697,
      "Ġfont": 3698,
      "ĠChampionship": 3699,
      "05": 3700,
      "UM": 3701,
      "```": 3702,
      "Ġwent": 3703,
      "ĠIndian": 3704,
      "URL": 3705,
      "Layout": 3706,
      "nu": 3707,
      "ftware": 3708,
      "Ġnov": 3709,
      "Ġupdate": 3710,
      "Ġsubject": 3711,
      "Ġadded": 3712,
      "ĠCalifornia": 3713,
      "ĠCLASS": 3714,
      "Ġcorrespond": 3715,
      "po": 3716,
      "Ġ]": 3717,
      "Ġphys": 3718,
      "thing": 3719,
      "ause": 3720,
      "Ġacross": 3721,
      "tries": 3722,
      "annot": 3723,
      "Ġsuff": 3724,
      "aves": 3725,
      "Ġdev": 3726,
      "ĠGo": 3727,
      "known": 3728,
      "Ġrights": 3729,
      "Ġfocus": 3730,
      "Ġengine": 3731,
      "Ġear": 3732,
      "ouch": 3733,
      "Ġsearch": 3734,
      "ething": 3735,
      "Ġenergy": 3736,
      "Ġcirc": 3737,
      "Delta": 3738,
      "Ġlight": 3739,
      "process": 3740,
      "xi": 3741,
      "ilities": 3742,
      "Det": 3743,
      "remove": 3744,
      "Ġonce": 3745,
      "Ġmeet": 3746,
      "Ġwrite": 3747,
      "67": 3748,
      "Ġround": 3749,
      "ERR": 3750,
      "reference": 3751,
      "}$.": 3752,
      "Ġgroups": 3753,
      "CON": 3754,
      "Ġfail": 3755,
      "47": 3756,
      "iding": 3757,
      "Ġred": 3758,
      "ellow": 3759,
      "ĠMon": 3760,
      "Ġstates": 3761,
      "ĠQue": 3762,
      "Ġmaking": 3763,
      "egr": 3764,
      "AA": 3765,
      "Ġable": 3766,
      "Ġclear": 3767,
      "rypt": 3768,
      "dict": 3769,
      "instance": 3770,
      "Ġactiv": 3771,
      "Aut": 3772,
      "Ġhowever": 3773,
      "').": 3774,
      "ensure": 3775,
      "only": 3776,
      "non": 3777,
      "hib": 3778,
      "TP": 3779,
      "ems": 3780,
      "unit": 3781,
      "aged": 3782,
      ":</": 3783,
      "small": 3784,
      "ĠEngland": 3785,
      "atural": 3786,
      "ĠRed": 3787,
      "medi": 3788,
      "tool": 3789,
      "Ġattempt": 3790,
      "final": 3791,
      "pass": 3792,
      "ĠCup": 3793,
      "itect": 3794,
      "mult": 3795,
      "Ġnav": 3796,
      "Ã¼": 3797,
      "offset": 3798,
      "Server": 3799,
      "Spec": 3800,
      "Cache": 3801,
      "Ġhard": 3802,
      "agn": 3803,
      "asing": 3804,
      "urb": 3805,
      "lands": 3806,
      "Ġreview": 3807,
      "Ġnorth": 3808,
      "column": 3809,
      "caption": 3810,
      "Ġbetter": 3811,
      "COL": 3812,
      "fty": 3813,
      "Ġconsidered": 3814,
      "ĠSim": 3815,
      "Ġda": 3816,
      "ĠĠĠĠĠĠĠĠĠĠĠĠĠĠĠĠĠĠĠĠĠĠĠĠĠĠĠĠĠĠĠĠĠĠĠ": 3817,
      "ĠDiv": 3818,
      "ĠInter": 3819,
      "ades": 3820,
      "Ġplan": 3821,
      "Ġcontrib": 3822,
      "Ġelements": 3823,
      "ĠAcc": 3824,
      "ĠEl": 3825,
      "Ġmethods": 3826,
      "fe": 3827,
      "else": 3828,
      "yl": 3829,
      "Url": 3830,
      "dat": 3831,
      "History": 3832,
      "Bundle": 3833,
      "sm": 3834,
      "ael": 3835,
      "output": 3836,
      "number": 3837,
      "tilde": 3838,
      "Ġterms": 3839,
      "ocr": 3840,
      "Var": 3841,
      "ĠEm": 3842,
      "dr": 3843,
      "efined": 3844,
      "Ġcallback": 3845,
      "Ġdiscuss": 3846,
      "Ġserver": 3847,
      "Ġ[]": 3848,
      "proto": 3849,
      "Ġinit": 3850,
      "amily": 3851,
      "Ġformat": 3852,
      "encies": 3853,
      "Ġpresident": 3854,
      "show": 3855,
      "Provider": 3856,
      "Ġdecl": 3857,
      "ĠChurch": 3858,
      "cm": 3859,
      "symbol": 3860,
      "andid": 3861,
      "infty": 3862,
      "ãģ": 3863,
      "essional": 3864,
      "ustri": 3865,
      "Ġagre": 3866,
      "1990": 3867,
      "Ġnone": 3868,
      "Ġaccept": 3869,
      "omega": 3870,
      "ĉĠĠĠ": 3871,
      "ĠCourt": 3872,
      "ba": 3873,
      "ĠAustralia": 3874,
      "kit": 3875,
      "Ġmoved": 3876,
      "ara": 3877,
      "++)": 3878,
      "Ġspecific": 3879,
      "ĠMy": 3880,
      "Offset": 3881,
      "1999": 3882,
      "Ġothers": 3883,
      "ĠUp": 3884,
      "exp": 3885,
      "aker": 3886,
      "ĠID": 3887,
      "main": 3888,
      "Ġreally": 3889,
      "burg": 3890,
      "ka": 3891,
      "Ġfuture": 3892,
      "Ġblack": 3893,
      "Ġdiff": 3894,
      "Ġpast": 3895,
      "Per": 3896,
      "188": 3897,
      "08": 3898,
      "Ġperm": 3899,
      "Ġq": 3900,
      "ĠAPI": 3901,
      "Ġinstead": 3902,
      "prototype": 3903,
      "Ġparticip": 3904,
      "duc": 3905,
      "Ġhalf": 3906,
      "Ġstructure": 3907,
      "utils": 3908,
      "ĠDem": 3909,
      "Ġproduction": 3910,
      "eh": 3911,
      "iles": 3912,
      "IZ": 3913,
      "âĢ¦": 3914,
      "Ġsuccessful": 3915,
      "aign": 3916,
      "Ġfather": 3917,
      "orem": 3918,
      "ĠPort": 3919,
      "ĠGovern": 3920,
      "Ġlimit": 3921,
      "Ġoffer": 3922,
      "IO": 3923,
      "Ġseen": 3924,
      "Frame": 3925,
      "Ġstream": 3926,
      "ĠParty": 3927,
      "Ġsold": 3928,
      "textbf": 3929,
      "Ġaddition": 3930,
      "Ġvia": 3931,
      "ĠGeneral": 3932,
      "ĠLaw": 3933,
      "46": 3934,
      "sv": 3935,
      "izing": 3936,
      "Ġnec": 3937,
      "Ġmodels": 3938,
      "common": 3939,
      "Ġsit": 3940,
      "ĠEX": 3941,
      "(_": 3942,
      "Rem": 3943,
      "soft": 3944,
      "Local": 3945,
      ">>": 3946,
      "Ġobj": 3947,
      "ĠArray": 3948,
      "Ġmilitary": 3949,
      "Ġmaterial": 3950,
      "Ġneg": 3951,
      "illed": 3952,
      "oon": 3953,
      "Ġoperation": 3954,
      "Ġsche": 3955,
      "Ġrelease": 3956,
      "ĠRiver": 3957,
      "ĠIndia": 3958,
      "Ġsequ": 3959,
      "fa": 3960,
      "Ġ!==": 3961,
      "Ġtraining": 3962,
      "task": 3963,
      "Update": 3964,
      "avy": 3965,
      "oved": 3966,
      "Ġsignificant": 3967,
      "ĠPal": 3968,
      "Sy": 3969,
      "Ġcapt": 3970,
      "Parameter": 3971,
      "Ġrow": 3972,
      "Types": 3973,
      "ĠStr": 3974,
      "omb": 3975,
      "layer": 3976,
      "Ġcome": 3977,
      "ĠEuropean": 3978,
      "ĠLicense": 3979,
      "Tag": 3980,
      "chiev": 3981,
      "returns": 3982,
      "Ġcases": 3983,
      "stitute": 3984,
      "ordin": 3985,
      "ĠSen": 3986,
      "Ġsouth": 3987,
      "airs": 3988,
      "mm": 3989,
      "ĠHT": 3990,
      "edia": 3991,
      "Ġben": 3992,
      "scope": 3993,
      "Ġrespons": 3994,
      "Target": 3995,
      "NAME": 3996,
      "lease": 3997,
      "imension": 3998,
      "ĠRoy": 3999,
      "bm": 4000,
      "ication": 4001,
      "Ġtre": 4002,
      "CL": 4003,
      "ensions": 4004,
      "Ġfem": 4005,
      "ittee": 4006,
      "42": 4007,
      "Ġcross": 4008,
      "Ġ::": 4009,
      "rapper": 4010,
      "aring": 4011,
      "Ab": 4012,
      "Ġinterface": 4013,
      "rs": 4014,
      "ĠCouncil": 4015,
      "lier": 4016,
      "Ġkind": 4017,
      "Access": 4018,
      "erefore": 4019,
      "igure": 4020,
      "han": 4021,
      "Ġassociated": 4022,
      "Ġfeatures": 4023,
      "lying": 4024,
      "ashington": 4025,
      "Ġsample": 4026,
      "Thread": 4027,
      "}[": 4028,
      "Ġindu": 4029,
      "Ġestablish": 4030,
      "support": 4031,
      "Ġcenter": 4032,
      "Ġcontinue": 4033,
      "Ġworked": 4034,
      "Ġsurv": 4035,
      "Ġthough": 4036,
      "Width": 4037,
      "ederal": 4038,
      "DB": 4039,
      "Ġproduced": 4040,
      "aching": 4041,
      "cdot": 4042,
      "ĠTrans": 4043,
      "sq": 4044,
      "Ġlive": 4045,
      "actions": 4046,
      "Ġcontains": 4047,
      "Ġtaken": 4048,
      "ĠOF": 4049,
      "verse": 4050,
      "Ġshown": 4051,
      "anel": 4052,
      "icles": 4053,
      "Ġenvironment": 4054,
      "ĠFirst": 4055,
      "Ġviol": 4056,
      "window": 4057,
      "Ġlik": 4058,
      "Ġcle": 4059,
      "ises": 4060,
      "based": 4061,
      "uel": 4062,
      "template": 4063,
      "parse": 4064,
      "Ġpur": 4065,
      "rote": 4066,
      "iers": 4067,
      "Ġpain": 4068,
      "criptor": 4069,
      "Max": 4070,
      "ĠCanada": 4071,
      "()->": 4072,
      "2022": 4073,
      "95": 4074,
      "oted": 4075,
      "artifact": 4076,
      "Ġexecut": 4077,
      "Ġvert": 4078,
      "Ġaward": 4079,
      "Interface": 4080,
      "icult": 4081,
      "istics": 4082,
      "background": 4083,
      "ĠGroup": 4084,
      "bind": 4085,
      "Vis": 4086,
      "ula": 4087,
      "'),": 4088,
      "Ġactive": 4089,
      "bool": 4090,
      "Ġask": 4091,
      "Ġeducation": 4092,
      "Ġbelow": 4093,
      "=\"../../../../../": 4094,
      "iber": 4095,
      "Ġvillage": 4096,
      "Ġliter": 4097,
      "afe": 4098,
      "Ġelection": 4099,
      "Ġproperties": 4100,
      "ĠCenter": 4101,
      "Ġtypes": 4102,
      "Ġquery": 4103,
      "Ġkeep": 4104,
      "depend": 4105,
      "ĠThat": 4106,
      "ĠAward": 4107,
      "Ġstop": 4108,
      "Ġaway": 4109,
      "Configuration": 4110,
      "II": 4111,
      "$$": 4112,
      "oriz": 4113,
      "Ġrecogn": 4114,
      "ota": 4115,
      "uint": 4116,
      "ingle": 4117,
      "Ġparty": 4118,
      "Min": 4119,
      "older": 4120,
      "rid": 4121,
      "Ġchanges": 4122,
      "Ġwest": 4123,
      "essages": 4124,
      "sd": 4125,
      "float": 4126,
      "Container": 4127,
      "Ġmarket": 4128,
      "adian": 4129,
      "Ġeas": 4130,
      "atives": 4131,
      "Ġfiles": 4132,
      "olve": 4133,
      "People": 4134,
      "Ġlocation": 4135,
      "unch": 4136,
      "unity": 4137,
      "Ġsuggest": 4138,
      "ND": 4139,
      "Ġlower": 4140,
      "Ġaverage": 4141,
      ":\"": 4142,
      "Entity": 4143,
      "Ge": 4144,
      "********************************": 4145,
      "./": 4146,
      "Ġannounced": 4147,
      "Ġamount": 4148,
      "Ġapplication": 4149,
      "ĠPaul": 4150,
      "spec": 4151,
      "late": 4152,
      "Ġconv": 4153,
      "]);": 4154,
      "ĠGerm": 4155,
      "Ġlim": 4156,
      "ĠMark": 4157,
      "Ġsem": 4158,
      "PO": 4159,
      "Work": 4160,
      "Ġselect": 4161,
      "ĠMal": 4162,
      "Write": 4163,
      "][": 4164,
      "([": 4165,
      "Ġreason": 4166,
      "ĠType": 4167,
      "ĠDon": 4168,
      "uid": 4169,
      "ĉĉĉĉĉĉĉ": 4170,
      "ĠAp": 4171,
      "ĠBer": 4172,
      "68": 4173,
      "example": 4174,
      "\\\\\\\\\\\\\\\\": 4175,
      "ĠJames": 4176,
      "1998": 4177,
      "ĠSm": 4178,
      "match": 4179,
      "ãĥ": 4180,
      "rab": 4181,
      "02": 4182,
      "Ġwebs": 4183,
      "PC": 4184,
      "licit": 4185,
      "Ġ**": 4186,
      "Ġsomething": 4187,
      "bold": 4188,
      "Callback": 4189,
      "Ġargs": 4190,
      "cap": 4191,
      "ĠRobert": 4192,
      "78": 4193,
      "Ġ...": 4194,
      "Ġcertain": 4195,
      "ĠBel": 4196,
      "Ġpopular": 4197,
      "Living": 4198,
      "icient": 4199,
      "One": 4200,
      "Ġcou": 4201,
      "ients": 4202,
      "Ġpress": 4203,
      "wait": 4204,
      "Case": 4205,
      "Ġcompan": 4206,
      "Entry": 4207,
      "buffer": 4208,
      "alle": 4209,
      "Ġsays": 4210,
      "Ġcollection": 4211,
      "Eng": 4212,
      "ĠChina": 4213,
      "Ġlittle": 4214,
      "ĠAnt": 4215,
      "Ġthings": 4216,
      "aven": 4217,
      "command": 4218,
      "Ġvari": 4219,
      "Ġinstall": 4220,
      "olic": 4221,
      "API": 4222,
      "ĠFrance": 4223,
      "eal": 4224,
      "Ġground": 4225,
      "Ġfloat": 4226,
      "ĠArmy": 4227,
      "Ġlen": 4228,
      "ounds": 4229,
      "itar": 4230,
      "Process": 4231,
      "Ġbig": 4232,
      "Ġcomplex": 4233,
      "ĠDepartment": 4234,
      ".)": 4235,
      "ĠPat": 4236,
      "Ġreturns": 4237,
      "Ġreported": 4238,
      "Ġpolicy": 4239,
      "ĠThom": 4240,
      "Ġentry": 4241,
      "Ġgot": 4242,
      "ĠStreet": 4243,
      "erve": 4244,
      "06": 4245,
      "Ġwin": 4246,
      "Ġcannot": 4247,
      "Ġareas": 4248,
      "=\"-": 4249,
      "ĠFile": 4250,
      "acters": 4251,
      "Ġ(\"": 4252,
      "strap": 4253,
      "Ġexpress": 4254,
      "cache": 4255,
      "ecute": 4256,
      "anks": 4257,
      "09": 4258,
      "Top": 4259,
      "ĠDavid": 4260,
      "Ġbecom": 4261,
      "long": 4262,
      "ilm": 4263,
      "rael": 4264,
      "gorithm": 4265,
      "Ġoffset": 4266,
      "Ġgive": 4267,
      "ĠWeb": 4268,
      "Ġfields": 4269,
      "Ġfall": 4270,
      "Ġnames": 4271,
      "Ġuint": 4272,
      "essor": 4273,
      "Ġinflu": 4274,
      "Bo": 4275,
      "bert": 4276,
      "Utils": 4277,
      "ĠOlymp": 4278,
      "ĠHol": 4279,
      "document": 4280,
      "otal": 4281,
      "Ġfunctions": 4282,
      "elling": 4283,
      "500": 4284,
      "typ": 4285,
      "ULT": 4286,
      "Ġpotential": 4287,
      "atory": 4288,
      "}}\\": 4289,
      "Ġge": 4290,
      "ĠSy": 4291,
      "Ġnormal": 4292,
      "Ġselected": 4293,
      "&#": 4294,
      "Ġmultiple": 4295,
      "ĠSk": 4296,
      "vention": 4297,
      "UP": 4298,
      "Ġbox": 4299,
      "ĠSum": 4300,
      "ĠStud": 4301,
      "control": 4302,
      "Ġphot": 4303,
      "lit": 4304,
      "ĠGeorge": 4305,
      "Load": 4306,
      "ett": 4307,
      "Ġeast": 4308,
      "Ġship": 4309,
      "should": 4310,
      "hood": 4311,
      "rak": 4312,
      "Ġbroad": 4313,
      "boot": 4314,
      "Ġappoint": 4315,
      "Next": 4316,
      "Ġmale": 4317,
      "ĠDi": 4318,
      "Sp": 4319,
      "Header": 4320,
      "ipal": 4321,
      "\"))": 4322,
      "author": 4323,
      "mega": 4324,
      "Tree": 4325,
      "Ġ{}": 4326,
      "resh": 4327,
      "ĠAssociation": 4328,
      "Ġepis": 4329,
      "rics": 4330,
      "Ob": 4331,
      "Ġtax": 4332,
      "Ã¶": 4333,
      "uted": 4334,
      "ĠRoman": 4335,
      "ua": 4336,
      "Ġbuffer": 4337,
      "Control": 4338,
      "Ġconsist": 4339,
      "Ġwrote": 4340,
      "artifactId": 4341,
      "07": 4342,
      "root": 4343,
      "Ġfilter": 4344,
      "rav": 4345,
      "tml": 4346,
      "CODE": 4347,
      "Ġ``": 4348,
      "Ġstep": 4349,
      "Ġloss": 4350,
      "Ġcurrently": 4351,
      "58": 4352,
      "ida": 4353,
      "Ġachiev": 4354,
      "etch": 4355,
      "Ġbit": 4356,
      "Ġmode": 4357,
      "ensity": 4358,
      "Ġstandard": 4359,
      "ĠData": 4360,
      "tree": 4361,
      "break": 4362,
      "ĠRich": 4363,
      "ago": 4364,
      "Level": 4365,
      "Open": 4366,
      "Ġdirector": 4367,
      "raz": 4368,
      "ĠWashington": 4369,
      "Ġvisit": 4370,
      "chan": 4371,
      "empty": 4372,
      "ĠSub": 4373,
      "unt": 4374,
      "Ġentire": 4375,
      "ya": 4376,
      "=\"../../../../../../": 4377,
      "Ġreference": 4378,
      "Ġvirtual": 4379,
      "queue": 4380,
      "ctor": 4381,
      "57": 4382,
      "ctx": 4383,
      "thon": 4384,
      "1980": 4385,
      "Ġtreat": 4386,
      "Ã¤": 4387,
      "ĠRem": 4388,
      "aur": 4389,
      "oding": 4390,
      "IV": 4391,
      "Ġhttps": 4392,
      "ened": 4393,
      "rief": 4394,
      "Range": 4395,
      "Co": 4396,
      "Ġunit": 4397,
      "Ġconnection": 4398,
      "Ġsystems": 4399,
      "%;": 4400,
      "Position": 4401,
      "04": 4402,
      "expected": 4403,
      "unn": 4404,
      "Ġhon": 4405,
      "Ġhom": 4406,
      "resource": 4407,
      "loy": 4408,
      "plit": 4409,
      "AV": 4410,
      "Empty": 4411,
      "Ġemb": 4412,
      "Ġlost": 4413,
      "There": 4414,
      "Ġdeaths": 4415,
      "Port": 4416,
      "ATION": 4417,
      "ĠĠĠĠĠĠĠĠĠĠĠĠĠĠĠĠĠĠĠĠĠ": 4418,
      "Ġrate": 4419,
      "pped": 4420,
      "Ġaccording": 4421,
      "rd": 4422,
      "ĠLog": 4423,
      "adow": 4424,
      "lice": 4425,
      "Ġregular": 4426,
      "Http": 4427,
      "Ġbg": 4428,
      "59": 4429,
      "HO": 4430,
      "Ġprior": 4431,
      "Unit": 4432,
      "Ġexception": 4433,
      "1997": 4434,
      "ĠRef": 4435,
      "Height": 4436,
      "grad": 4437,
      "eft": 4438,
      "tim": 4439,
      "hent": 4440,
      "ĠReturns": 4441,
      "Ġincludes": 4442,
      "03": 4443,
      "Ġadditional": 4444,
      "Description": 4445,
      "Ġbi": 4446,
      "Location": 4447,
      "Current": 4448,
      "asons": 4449,
      "Ġ\"\\": 4450,
      "outhern": 4451,
      "Ġdoc": 4452,
      "Ġfailed": 4453,
      "ĠGod": 4454,
      "chi": 4455,
      "izes": 4456,
      "ĠUnion": 4457,
      "Ġnecess": 4458,
      "groupId": 4459,
      "Module": 4460,
      "psi": 4461,
      "ries": 4462,
      "Ag": 4463,
      "token": 4464,
      "like": 4465,
      "Ġcy": 4466,
      "istance": 4467,
      "}_{\\": 4468,
      "Ġcourse": 4469,
      "........": 4470,
      "icial": 4471,
      "aging": 4472,
      "Ġpercent": 4473,
      "Ġjud": 4474,
      ")$.": 4475,
      "Ġrather": 4476,
      "Ġtim": 4477,
      "card": 4478,
      "Ġpers": 4479,
      "ĠBlack": 4480,
      "west": 4481,
      "classes": 4482,
      "ĠArch": 4483,
      "ĠFrom": 4484,
      "Ġill": 4485,
      "Json": 4486,
      "zer": 4487,
      "epsilon": 4488,
      "Ġfollows": 4489,
      "ĠDirect": 4490,
      "1996": 4491,
      "gin": 4492,
      "omin": 4493,
      "Fe": 4494,
      "wood": 4495,
      "Ġoffice": 4496,
      "ania": 4497,
      "Direct": 4498,
      "Ġvict": 4499,
      "stry": 4500,
      "enced": 4501,
      "reek": 4502,
      "Ġcontract": 4503,
      "Ġnumer": 4504,
      "ĠCreate": 4505,
      "Ġjoined": 4506,
      "eqn": 4507,
      "Ġconditions": 4508,
      "VAL": 4509,
      "Search": 4510,
      "KE": 4511,
      "acing": 4512,
      "ensive": 4513,
      "Ġtransform": 4514,
      "STR": 4515,
      "Que": 4516,
      "ecution": 4517,
      "Ġwriting": 4518,
      "Ġdraw": 4519,
      "before": 4520,
      "Ġdat": 4521,
      "wide": 4522,
      "Ġcompos": 4523,
      "Ġapprox": 4524,
      "Ġremove": 4525,
      "Ġrelated": 4526,
      "Connection": 4527,
      "Ġadministr": 4528,
      "Ġmonths": 4529,
      "oment": 4530,
      "Ġroad": 4531,
      "ville": 4532,
      "IGN": 4533,
      "Settings": 4534,
      "Ġ*)": 4535,
      "ios": 4536,
      "Ġdistribution": 4537,
      "Ġcourt": 4538,
      "ander": 4539,
      "Ġissue": 4540,
      "56": 4541,
      "Ġgraph": 4542,
      "Ġroot": 4543,
      "uses": 4544,
      ".$": 4545,
      "Ġhigher": 4546,
      "Ġcred": 4547,
      "Script": 4548,
      "ĠService": 4549,
      "Ġparams": 4550,
      "Ġrepl": 4551,
      "Lo": 4552,
      "Ġdeveloped": 4553,
      "Hash": 4554,
      "||": 4555,
      "mut": 4556,
      "erry": 4557,
      "Rel": 4558,
      "Omega": 4559,
      "Ġten": 4560,
      "Ġdeal": 4561,
      "Option": 4562,
      "=\"_": 4563,
      "Dep": 4564,
      "ECT": 4565,
      "subsection": 4566,
      "Ġforce": 4567,
      "ming": 4568,
      "Ġpolitic": 4569,
      "Ġwhite": 4570,
      "prop": 4571,
      "Ġattribute": 4572,
      "patch": 4573,
      "ĠHall": 4574,
      "Session": 4575,
      "Ġmid": 4576,
      "Ġcompanies": 4577,
      ">,": 4578,
      "Ġcountries": 4579,
      "isf": 4580,
      ")]": 4581,
      "Ġrunning": 4582,
      "CD": 4583,
      "dated": 4584,
      "lor": 4585,
      "msg": 4586,
      "Ġrac": 4587,
      "irit": 4588,
      "Ġwhose": 4589,
      "arter": 4590,
      "Ġwebsite": 4591,
      "None": 4592,
      "Async": 4593,
      "imated": 4594,
      "ancial": 4595,
      "Ġquant": 4596,
      "Serial": 4597,
      "ĠInstitute": 4598,
      "ĠGermany": 4599,
      "Ġoverride": 4600,
      "ĠCong": 4601,
      "models": 4602,
      "Ġconduct": 4603,
      "Ġchurch": 4604,
      "ili": 4605,
      "Ġfront": 4606,
      "quare": 4607,
      "ĠSee": 4608,
      "FO": 4609,
      "anced": 4610,
      "uge": 4611,
      "Ġpadding": 4612,
      "ston": 4613,
      "avior": 4614,
      "ãĤ": 4615,
      "debug": 4616,
      "isk": 4617,
      "Params": 4618,
      "ĠNe": 4619,
      "Ġfilename": 4620,
      "fr": 4621,
      "IZE": 4622,
      "Le": 4623,
      "================================": 4624,
      "Mat": 4625,
      "ĠAssert": 4626,
      "Ġrender": 4627,
      "\\,": 4628,
      "bin": 4629,
      "cial": 4630,
      "Ġissues": 4631,
      "Ġquestion": 4632,
      ";->": 4633,
      "Ġcompleted": 4634,
      "udd": 4635,
      "41": 4636,
      "Ġitself": 4637,
      "Ġstage": 4638,
      "iqu": 4639,
      "sqrt": 4640,
      "pat": 4641,
      "riate": 4642,
      "Ġenough": 4643,
      "rupt": 4644,
      "scale": 4645,
      "{{": 4646,
      "alian": 4647,
      "jo": 4648,
      "ulated": 4649,
      "ams": 4650,
      "ĠMary": 4651,
      "imately": 4652,
      "^*": 4653,
      "Ġmarried": 4654,
      "COLOR": 4655,
      "aches": 4656,
      "ledge": 4657,
      "ĠMod": 4658,
      "ĠUK": 4659,
      "Ġupon": 4660,
      "asc": 4661,
      "ĉĉĊ": 4662,
      "1970": 4663,
      "berg": 4664,
      "stylesheet": 4665,
      "ART": 4666,
      "Ġpassed": 4667,
      "BO": 4668,
      "Ġclos": 4669,
      "Ġcomponent": 4670,
      "Document": 4671,
      "ĠRoyal": 4672,
      "Stat": 4673,
      "Ġcomplete": 4674,
      "Ġunderstand": 4675,
      "Expression": 4676,
      "Ġlearn": 4677,
      "ena": 4678,
      "obile": 4679,
      "ĠLou": 4680,
      "Ġthought": 4681,
      "SO": 4682,
      "Ġrelig": 4683,
      "Ġcampaign": 4684,
      "Ġcandid": 4685,
      "env": 4686,
      "Menu": 4687,
      "Ġregard": 4688,
      "values": 4689,
      "Ġprofessional": 4690,
      "\"));": 4691,
      "psilon": 4692,
      "Ġ>=": 4693,
      "language": 4694,
      "1995": 4695,
      "conf": 4696,
      "images": 4697,
      "cape": 4698,
      "entity": 4699,
      "Ġsett": 4700,
      "ponents": 4701,
      "Ġlot": 4702,
      "Ġallowed": 4703,
      "Ġbar": 4704,
      "sign": 4705,
      "Bl": 4706,
      "Ġscope": 4707,
      "ĠMet": 4708,
      "Ġleading": 4709,
      "Ġtool": 4710,
      "Ġbgcolor": 4711,
      "ĠDivision": 4712,
      "Ġcharacters": 4713,
      "Ġcast": 4714,
      "Ġprop": 4715,
      "hash": 4716,
      "Ġlines": 4717,
      "Can": 4718,
      "Ġrev": 4719,
      "Ġtalk": 4720,
      "Ġexperience": 4721,
      "pite": 4722,
      "ĠCompany": 4723,
      "device": 4724,
      "ughter": 4725,
      "ĠMount": 4726,
      "nap": 4727,
      "Ġliving": 4728,
      "Ġyet": 4729,
      "43": 4730,
      "ĠOut": 4731,
      "Ġopened": 4732,
      "ĠMart": 4733,
      "ĠJust": 4734,
      "Ġrelationship": 4735,
      "Sim": 4736,
      "Change": 4737,
      "ĠPress": 4738,
      "gn": 4739,
      "files": 4740,
      "inese": 4741,
      "LI": 4742,
      "Ġhimself": 4743,
      "icrosoft": 4744,
      "Ġconcern": 4745,
      "uit": 4746,
      "ĠDan": 4747,
      "skip": 4748,
      "Impl": 4749,
      "zon": 4750,
      "ario": 4751,
      "ategy": 4752,
      "Ġfav": 4753,
      "Ð°Ð": 4754,
      "ĠMont": 4755,
      "band": 4756,
      "Ġdistribut": 4757,
      "ores": 4758,
      "UB": 4759,
      "ĠPe": 4760,
      "Properties": 4761,
      "ervices": 4762,
      "sf": 4763,
      "itter": 4764,
      "Ġapplic": 4765,
      "ĠIsrael": 4766,
      "arks": 4767,
      "Copy": 4768,
      "ĠTra": 4769,
      "Ġmakes": 4770,
      "Ġsupported": 4771,
      "anger": 4772,
      "ĠMat": 4773,
      "Ġexcept": 4774,
      "Ġscale": 4775,
      "Ġflow": 4776,
      "Ptr": 4777,
      "Ġcontinued": 4778,
      "TI": 4779,
      "ĠMusic": 4780,
      "Ġtoday": 4781,
      "cor": 4782,
      "oe": 4783,
      "Ġsm": 4784,
      "Ġregister": 4785,
      "ĠJew": 4786,
      "Ġalmost": 4787,
      "Ġfire": 4788,
      "Ġqual": 4789,
      "ictionary": 4790,
      "drop": 4791,
      "RL": 4792,
      "Ġdefe": 4793,
      "cs": 4794,
      "border": 4795,
      "Ġsimple": 4796,
      "Prot": 4797,
      "Operation": 4798,
      "Ġfrequ": 4799,
      "ube": 4800,
      "orph": 4801,
      "Ġ;": 4802,
      "Po": 4803,
      "Record": 4804,
      "second": 4805,
      "oms": 4806,
      "ursor": 4807,
      "cert": 4808,
      "ws": 4809,
      "issions": 4810,
      "Ġpaper": 4811,
      ":(": 4812,
      "Ġindependent": 4813,
      "aa": 4814,
      "emph": 4815,
      "ĠNS": 4816,
      "Ġdoesn": 4817,
      "Font": 4818,
      "Ġmodern": 4819,
      "When": 4820,
      "ĠPublic": 4821,
      "Ġrock": 4822,
      "Ġsigned": 4823,
      "Ġeffort": 4824,
      "Collection": 4825,
      "PECT": 4826,
      "ĠMex": 4827,
      "uate": 4828,
      "Ġflo": 4829,
      "Ġsex": 4830,
      "Big": 4831,
      "Ġiter": 4832,
      "ĠSome": 4833,
      "Ġchall": 4834,
      "hest": 4835,
      "ĠAcadem": 4836,
      "global": 4837,
      "ĠException": 4838,
      "Ġassum": 4839,
      "Ġrail": 4840,
      "Inst": 4841,
      "QL": 4842,
      "ĠSociety": 4843,
      "ĠWork": 4844,
      "Ġchanged": 4845,
      "1994": 4846,
      "Ġmeasure": 4847,
      "NavBar": 4848,
      "Op": 4849,
      "ĠCam": 4850,
      "Ġtag": 4851,
      "():": 4852,
      "TER": 4853,
      "uri": 4854,
      "circ": 4855,
      "?:": 4856,
      "DIR": 4857,
      "Ġwife": 4858,
      "anagement": 4859,
      "76": 4860,
      "ĠAng": 4861,
      "pecially": 4862,
      "ospital": 4863,
      "uz": 4864,
      "rea": 4865,
      "ria": 4866,
      "hi": 4867,
      "Ġapproach": 4868,
      "De": 4869,
      "Ġneeded": 4870,
      "Ġcondition": 4871,
      "lam": 4872,
      "Ġhandle": 4873,
      "Ġsongs": 4874,
      "Project": 4875,
      "ĠOpen": 4876,
      "Kind": 4877,
      "Ġdevice": 4878,
      "Ġempty": 4879,
      "Post": 4880,
      "Ġdescription": 4881,
      "Ġanalysis": 4882,
      "liament": 4883,
      "ynamic": 4884,
      "Ġarchitect": 4885,
      "greg": 4886,
      "cr": 4887,
      "Ġwriter": 4888,
      "alled": 4889,
      ")$,": 4890,
      "Ġsolid": 4891,
      "export": 4892,
      "Ġarguments": 4893,
      "ĠCO": 4894,
      "BA": 4895,
      "ĠMag": 4896,
      "ĠAustralian": 4897,
      "Ġsure": 4898,
      "istan": 4899,
      "orizont": 4900,
      "ĠVol": 4901,
      "Ġoperations": 4902,
      "rip": 4903,
      "Ġfight": 4904,
      "ĠFranc": 4905,
      "Track": 4906,
      "Ġlove": 4907,
      "ĠDec": 4908,
      "ĠTex": 4909,
      "Ġfeel": 4910,
      "modal": 4911,
      "ĠVir": 4912,
      "dest": 4913,
      "anner": 4914,
      "Ġtour": 4915,
      "Sw": 4916,
      "1992": 4917,
      "ACK": 4918,
      "Ġsession": 4919,
      "98": 4920,
      "Fr": 4921,
      "Ġrace": 4922,
      "Ġnovel": 4923,
      "vare": 4924,
      "ĠFound": 4925,
      "ĠTV": 4926,
      "fs": 4927,
      "render": 4928,
      "Ġprinc": 4929,
      "Ġobjects": 4930,
      "Ġdegree": 4931,
      "}/": 4932,
      "Ġcut": 4933,
      "CP": 4934,
      "51": 4935,
      "ĠTime": 4936,
      "ĠDuring": 4937,
      "Ġrule": 4938,
      "Ġparts": 4939,
      "ĠProv": 4940,
      "False": 4941,
      "track": 4942,
      "ĠThen": 4943,
      "Gamma": 4944,
      "nected": 4945,
      "Reference": 4946,
      "ĠAfrica": 4947,
      "ĠAfrican": 4948,
      "Ġmoney": 4949,
      "ĠMor": 4950,
      "ĉĠ": 4951,
      "Ġcho": 4952,
      "Integer": 4953,
      "Ġuses": 4954,
      "ĠTO": 4955,
      "Ġtro": 4956,
      "Ġword": 4957,
      "Ġmot": 4958,
      "iform": 4959,
      "Ġmother": 4960,
      "Ġinj": 4961,
      "Ġtoken": 4962,
      "ĠJack": 4963,
      "hr": 4964,
      "docs": 4965,
      "You": 4966,
      "widget": 4967,
      "estival": 4968,
      "ALL": 4969,
      "That": 4970,
      "ntax": 4971,
      "egraphics": 4972,
      "includegraphics": 4973,
      "Ġschools": 4974,
      "ORT": 4975,
      "transform": 4976,
      "ĠArg": 4977,
      "ein": 4978,
      "ĠCath": 4979,
      "ĠTur": 4980,
      "ĠBuild": 4981,
      "oring": 4982,
      "Ġconstant": 4983,
      "RA": 4984,
      "Ġapi": 4985,
      "achine": 4986,
      "auth": 4987,
      "weight": 4988,
      "antic": 4989,
      "astic": 4990,
      "Ġpersonal": 4991,
      "Ġmatrix": 4992,
      "Ġinstit": 4993,
      "Schema": 4994,
      "delete": 4995,
      "ERROR": 4996,
      "Ġconstruct": 4997,
      "Ġperformed": 4998,
      "96": 4999,
      "ĠCr": 5000,
      "kind": 5001,
      "ATA": 5002,
      "ĠChristian": 5003,
      "Ġautom": 5004,
      "ĠRoad": 5005,
      "Store": 5006,
      "clear": 5007,
      "Ġcorrect": 5008,
      "cing": 5009,
      "Handle": 5010,
      "ĠFre": 5011,
      "Ġtheory": 5012,
      "Ġxml": 5013,
      "Ġinvolved": 5014,
      "ĠMore": 5015,
      "itude": 5016,
      "edy": 5017,
      "IF": 5018,
      "Ġrandom": 5019,
      "Ġconstruction": 5020,
      "vec": 5021,
      "ĠBook": 5022,
      "arily": 5023,
      "Ġ('": 5024,
      "54": 5025,
      "Ġteams": 5026,
      "iences": 5027,
      "elegate": 5028,
      "interface": 5029,
      "DL": 5030,
      "ĠCons": 5031,
      "ugins": 5032,
      "plete": 5033,
      "ilies": 5034,
      "ĠHam": 5035,
      "ini": 5036,
      "Mult": 5037,
      "Ġtemplate": 5038,
      "SH": 5039,
      "Ġimprov": 5040,
      "CA": 5041,
      "Ġdetails": 5042,
      "Ġeval": 5043,
      "Helper": 5044,
      "Ġprovides": 5045,
      "ensus": 5046,
      "ĠDE": 5047,
      "Ġargument": 5048,
      "elt": 5049,
      "sey": 5050,
      "Ġgoal": 5051,
      "Ġ~": 5052,
      "Mon": 5053,
      "shire": 5054,
      "Ġsecurity": 5055,
      "ĠJer": 5056,
      "omic": 5057,
      "ĠMac": 5058,
      "Ġoutside": 5059,
      "Ġtaking": 5060,
      "Ġdiscover": 5061,
      "Parameters": 5062,
      "bootstrap": 5063,
      "otes": 5064,
      "road": 5065,
      "EQ": 5066,
      "copy": 5067,
      "Ġstore": 5068,
      "abs": 5069,
      "anges": 5070,
      "Ġalt": 5071,
      "Render": 5072,
      "Ġhash": 5073,
      "1993": 5074,
      "split": 5075,
      "och": 5076,
      "Ġmonth": 5077,
      "Ġcomment": 5078,
      "mission": 5079,
      "ĠMiss": 5080,
      "Ġrank": 5081,
      "pop": 5082,
      "Ġfriend": 5083,
      "vas": 5084,
      "Ġdig": 5085,
      "webkit": 5086,
      "ano": 5087,
      "Ġ['": 5088,
      "Ġsets": 5089,
      "Ġtree": 5090,
      "Ġcivil": 5091,
      "parameter": 5092,
      "Host": 5093,
      "orizontal": 5094,
      "Ġbooks": 5095,
      "cons": 5096,
      "tra": 5097,
      "oute": 5098,
      "Ġframe": 5099,
      "^{(": 5100,
      "Parser": 5101,
      "'],": 5102,
      "ĠHen": 5103,
      "address": 5104,
      "estamp": 5105,
      "then": 5106,
      "Ġactually": 5107,
      "Ġscreen": 5108,
      "erved": 5109,
      "Ġconfiguration": 5110,
      "frame": 5111,
      "Ġimm": 5112,
      "internal": 5113,
      "men": 5114,
      "asket": 5115,
      "idents": 5116,
      "Ġthus": 5117,
      "Down": 5118,
      "ĠSam": 5119,
      "Ġneeds": 5120,
      "elves": 5121,
      "Ġwords": 5122,
      "join": 5123,
      "Ġspect": 5124,
      "equal": 5125,
      "'re": 5126,
      "icture": 5127,
      "Ġchannel": 5128,
      "ala": 5129,
      "Ġindustry": 5130,
      "iting": 5131,
      "Sk": 5132,
      "Ġpolice": 5133,
      "ully": 5134,
      "Ġpack": 5135,
      "Ġneigh": 5136,
      "cp": 5137,
      "Pass": 5138,
      "Ġconstit": 5139,
      "porary": 5140,
      "lv": 5141,
      "XX": 5142,
      "hover": 5143,
      "media": 5144,
      "varepsilon": 5145,
      "ĠBG": 5146,
      "ĠIsland": 5147,
      "Names": 5148,
      "Ġmar": 5149,
      "Ġmemory": 5150,
      "ĠDay": 5151,
      "toString": 5152,
      "Ġalthough": 5153,
      "ĠMuseum": 5154,
      "Ġinfo": 5155,
      "make": 5156,
      "ĠOper": 5157,
      "Ġdebut": 5158,
      "Ġthroughout": 5159,
      "Dir": 5160,
      "Ġnor": 5161,
      "Ġsort": 5162,
      "Ġlargest": 5163,
      "force": 5164,
      "Ġnight": 5165,
      "het": 5166,
      "send": 5167,
      "ĠCheck": 5168,
      "oggle": 5169,
      "stack": 5170,
      "Debug": 5171,
      "Ġgre": 5172,
      "ĠErr": 5173,
      "plugin": 5174,
      "ros": 5175,
      "ĠMo": 5176,
      "urren": 5177,
      "Tim": 5178,
      "Ġboard": 5179,
      "Ġsend": 5180,
      "Ġplaying": 5181,
      "more": 5182,
      "ĠWhite": 5183,
      "tion": 5184,
      "Ġequal": 5185,
      "ĠForm": 5186,
      "ĠPre": 5187,
      "arp": 5188,
      "Sign": 5189,
      "ĠBase": 5190,
      "ĠLeg": 5191,
      "custom": 5192,
      "ĠST": 5193,
      "ĠRussian": 5194,
      "Match": 5195,
      "itting": 5196,
      "ĠWhile": 5197,
      "52": 5198,
      "Ġrecorded": 5199,
      "Ġbenef": 5200,
      "Ġclosed": 5201,
      "Ġnatural": 5202,
      "Ġdecision": 5203,
      "Ġoperator": 5204,
      "1991": 5205,
      "53": 5206,
      "Ġhous": 5207,
      "Ġshall": 5208,
      "ĠOR": 5209,
      "izations": 5210,
      "illing": 5211,
      "Metadata": 5212,
      "Ġprimary": 5213,
      "Ġ${\\": 5214,
      "Vert": 5215,
      "equals": 5216,
      "ĠCanadian": 5217,
      "isions": 5218,
      "ĠAlex": 5219,
      "ĠYear": 5220,
      "ĠUs": 5221,
      "97": 5222,
      "cf": 5223,
      "Ġscript": 5224,
      "ynch": 5225,
      "Vector": 5226,
      "strict": 5227,
      "Iter": 5228,
      "Ġtransfer": 5229,
      "Ġpositive": 5230,
      "Api": 5231,
      "umni": 5232,
      "Order": 5233,
      "ao": 5234,
      "Ġign": 5235,
      "ĠGreen": 5236,
      "ĠMichael": 5237,
      "endar": 5238,
      "INE": 5239,
      "cat": 5240,
      "foo": 5241,
      "255": 5242,
      "Ġunique": 5243,
      "ixt": 5244,
      "Draw": 5245,
      "Tool": 5246,
      "Ġfollowed": 5247,
      "____": 5248,
      "Mar": 5249,
      "uated": 5250,
      "Ġtakes": 5251,
      "oom": 5252,
      "_;": 5253,
      "egment": 5254,
      "just": 5255,
      "Ġproposed": 5256,
      "DD": 5257,
      "ĠThomas": 5258,
      "gu": 5259,
      "mode": 5260,
      "(:": 5261,
      "ĠBay": 5262,
      "ĠDemocr": 5263,
      "Ġundefined": 5264,
      "very": 5265,
      "ĠEXPECT": 5266,
      "ĠEnd": 5267,
      "Left": 5268,
      "MM": 5269,
      "icons": 5270,
      "1960": 5271,
      "under": 5272,
      "Ġselection": 5273,
      "Ġexists": 5274,
      "GET": 5275,
      "Ġgave": 5276,
      "Ġsetting": 5277,
      "Ġdesigned": 5278,
      "Non": 5279,
      ")=": 5280,
      "Ġappeared": 5281,
      "Ġdefine": 5282,
      "ĠCON": 5283,
      "Ġwhole": 5284,
      "cover": 5285,
      "Ġdifficult": 5286,
      "Ġvers": 5287,
      "Ġespecially": 5288,
      "ional": 5289,
      "Ġnews": 5290,
      "direct": 5291,
      "Ġdam": 5292,
      "bour": 5293,
      "ĠClub": 5294,
      "Pat": 5295,
      "ounter": 5296,
      "Ev": 5297,
      "Ġjav": 5298,
      "Long": 5299,
      "Ġradio": 5300,
      "Ġprogress": 5301,
      "session": 5302,
      "ĠMem": 5303,
      "ĠBest": 5304,
      "arts": 5305,
      "Ġwhy": 5306,
      "Ġsolution": 5307,
      "ĠHistory": 5308,
      "oul": 5309,
      "ducation": 5310,
      "Use": 5311,
      "Ġtell": 5312,
      "Ġdirectly": 5313,
      "za": 5314,
      "PR": 5315,
      "ĠTexas": 5316,
      "Ġdeep": 5317,
      "Ġsound": 5318,
      "ĠSince": 5319,
      "=\"/": 5320,
      "pons": 5321,
      "Title": 5322,
      "Ġnamespace": 5323,
      "sort": 5324,
      "boldsymbol": 5325,
      "ĠCentral": 5326,
      "scri": 5327,
      "footer": 5328,
      "click": 5329,
      "ĠHealth": 5330,
      "Rect": 5331,
      "range": 5332,
      "Ġactual": 5333,
      "ĠWestern": 5334,
      "Invalid": 5335,
      "access": 5336,
      "Sl": 5337,
      "Do": 5338,
      "Ġtold": 5339,
      "Ġecho": 5340,
      "Ġeight": 5341,
      "Ġbirth": 5342,
      "Ġpattern": 5343,
      "after": 5344,
      "alls": 5345,
      "ĠMinister": 5346,
      "Template": 5347,
      "Encod": 5348,
      "Ġsoftware": 5349,
      "Bind": 5350,
      "Ġswitch": 5351,
      "success": 5352,
      "ĠTown": 5353,
      "iant": 5354,
      "Ġdirected": 5355,
      "panish": 5356,
      "anning": 5357,
      "ĠMap": 5358,
      "uous": 5359,
      "={": 5360,
      "ä¸": 5361,
      "site": 5362,
      "ĠMad": 5363,
      "Ġteach": 5364,
      "Ġsil": 5365,
      "ulations": 5366,
      "Ġobtain": 5367,
      "mes": 5368,
      "Ġelected": 5369,
      "types": 5370,
      "ĠHel": 5371,
      "ĠMer": 5372,
      "Let": 5373,
      "Ġsatisf": 5374,
      "Head": 5375,
      "system": 5376,
      "acc": 5377,
      "Ġparse": 5378,
      "ĠNews": 5379,
      "icker": 5380,
      "Ġvector": 5381,
      "ĠCommission": 5382,
      "ĠChinese": 5383,
      "Ġmanagement": 5384,
      "aset": 5385,
      "ĠMus": 5386,
      "proof": 5387,
      "Ġbehind": 5388,
      "Core": 5389,
      "asic": 5390,
      "ĠCre": 5391,
      "ĠResearch": 5392,
      "ĠKore": 5393,
      "ĠGold": 5394,
      "ims": 5395,
      "=\"../../../": 5396,
      "icket": 5397,
      ">();": 5398,
      "Ġjournal": 5399,
      "illa": 5400,
      "ĠKingdom": 5401,
      "Ġexpand": 5402,
      "ĠVirgin": 5403,
      "Ġstar": 5404,
      "ped": 5405,
      "isl": 5406,
      "ĠBGCOLOR": 5407,
      "###": 5408,
      "Icon": 5409,
      "Argument": 5410,
      "Ġeditor": 5411,
      "edd": 5412,
      "Ġlegal": 5413,
      "ĠPy": 5414,
      "SA": 5415,
      "pring": 5416,
      "ĠScott": 5417,
      "Ġcapital": 5418,
      "Reader": 5419,
      "Ġsymbol": 5420,
      "exception": 5421,
      "Ġraise": 5422,
      "*)": 5423,
      "ORD": 5424,
      "Ġformed": 5425,
      "ĠAccording": 5426,
      "istri": 5427,
      "400": 5428,
      "ees": 5429,
      "Ġdelete": 5430,
      "DF": 5431,
      "ĠAssembly": 5432,
      ".}": 5433,
      "Ġlikely": 5434,
      "ĠAcademy": 5435,
      "dependency": 5436,
      "Ġcalcul": 5437,
      "Ġfood": 5438,
      "Dr": 5439,
      "Ġfounded": 5440,
      "ani": 5441,
      "geq": 5442,
      "300": 5443,
      "ictor": 5444,
      "Ġusually": 5445,
      "ean": 5446,
      "Ġintegr": 5447,
      "Ġincrease": 5448,
      "ds": 5449,
      "Ġprote": 5450,
      "86": 5451,
      "ĠĠĠĠĠĠĠĠĠĠĠĠĠĠĠĠĠĠĠĠ": 5452,
      "Ġevidence": 5453,
      "handle": 5454,
      "Ġintroduced": 5455,
      "nov": 5456,
      "ĠHistor": 5457,
      "pg": 5458,
      "reme": 5459,
      "Ġcontainer": 5460,
      "ln": 5461,
      "Ġreading": 5462,
      "gan": 5463,
      "Ġcentral": 5464,
      "Ġrelative": 5465,
      "ĠSal": 5466,
      "ĠEar": 5467,
      "exports": 5468,
      "---": 5469,
      "Ġforces": 5470,
      "Ġobtained": 5471,
      "rangle": 5472,
      "Ġstre": 5473,
      "Classes": 5474,
      "Ġimmedi": 5475,
      "Ġgenerated": 5476,
      "Ġlonger": 5477,
      "Ġsus": 5478,
      "Right": 5479,
      "Has": 5480,
      "eqnarray": 5481,
      "rian": 5482,
      "replace": 5483,
      "quired": 5484,
      "Ġproblems": 5485,
      "}=": 5486,
      "Device": 5487,
      "ĠPost": 5488,
      "ĠTrue": 5489,
      "edef": 5490,
      "}).": 5491,
      "Ġconsum": 5492,
      "ĠRad": 5493,
      "Ġscal": 5494,
      "ura": 5495,
      "}^{\\": 5496,
      "ĠEv": 5497,
      "ĠTom": 5498,
      "Ġimpact": 5499,
      "1989": 5500,
      "ĠScience": 5501,
      "ailed": 5502,
      "Dom": 5503,
      "Ġmount": 5504,
      "Ġexisting": 5505,
      "bon": 5506,
      "Ġmaint": 5507,
      "ometry": 5508,
      "Ġwait": 5509,
      "mercial": 5510,
      "Ġstaff": 5511,
      "ĠJapanese": 5512,
      "mas": 5513,
      "Ġ})": 5514,
      "Ġtransport": 5515,
      "ening": 5516,
      "ĠĠĠĠĠĠĠĠĠĠĠĠĠĠĠĠĠĠĠĠĠĠĠĠĠĠĠĠĠĠĠĠĠĠĠĠĠĠĠ": 5517,
      "WE": 5518,
      ";/": 5519,
      "Ġweb": 5520,
      "etime": 5521,
      "72": 5522,
      "raction": 5523,
      "Ap": 5524,
      "overline": 5525,
      "las": 5526,
      "which": 5527,
      "ĠVer": 5528,
      "Ġface": 5529,
      "Ġsaw": 5530,
      "SET": 5531,
      "req": 5532,
      "ĠCarol": 5533,
      "normal": 5534,
      "padding": 5535,
      "Ġappointed": 5536,
      "disabled": 5537,
      "ĠGrand": 5538,
      "Ġsym": 5539,
      "writ": 5540,
      "Ġinline": 5541,
      "Stack": 5542,
      "rightarrow": 5543,
      "}),": 5544,
      "Ġfinished": 5545,
      "ĠGames": 5546,
      "Ġkilled": 5547,
      "Ġscient": 5548,
      "legal": 5549,
      "SL": 5550,
      "Values": 5551,
      "Ġtravel": 5552,
      "'>": 5553,
      "fields": 5554,
      "Ġmissing": 5555,
      "How": 5556,
      "Ġaud": 5557,
      "ĠMr": 5558,
      "win": 5559,
      "Ġmanager": 5560,
      "ifying": 5561,
      "Ġopport": 5562,
      "panel": 5563,
      "Ġcause": 5564,
      "term": 5565,
      "icate": 5566,
      "Meta": 5567,
      "Ġplaces": 5568,
      "ĠBen": 5569,
      "Num": 5570,
      "ĠFore": 5571,
      "Ġmus": 5572,
      "Ġavoid": 5573,
      "Ġlearning": 5574,
      "1000": 5575,
      "Ġplatform": 5576,
      "Ġexpression": 5577,
      "boolean": 5578,
      "bra": 5579,
      "Ġbad": 5580,
      "79": 5581,
      "attribute": 5582,
      "component": 5583,
      "azine": 5584,
      "focus": 5585,
      "Ġshare": 5586,
      "aws": 5587,
      "Ġconnect": 5588,
      "ĠGreat": 5589,
      "ĠFrancis": 5590,
      "`.": 5591,
      "ĠTor": 5592,
      "di": 5593,
      "Rev": 5594,
      "Go": 5595,
      "Args": 5596,
      "Ġsen": 5597,
      "----------------------------------------------------------------": 5598,
      "[\\": 5599,
      "ĠOther": 5600,
      "fill": 5601,
      "Ġotherwise": 5602,
      "ORM": 5603,
      "ĠCommittee": 5604,
      "Ġrot": 5605,
      "Ġdidn": 5606,
      "IR": 5607,
      "Parent": 5608,
      "Assert": 5609,
      "oma": 5610,
      "ech": 5611,
      "Ġstudies": 5612,
      "varphi": 5613,
      "Ġsequence": 5614,
      "quires": 5615,
      "-->": 5616,
      "orse": 5617,
      "$(": 5618,
      "Ġthread": 5619,
      "ĠCongress": 5620,
      "vector": 5621,
      "arian": 5622,
      "Bytes": 5623,
      "Ġconvert": 5624,
      "xis": 5625,
      "Ġ\\,": 5626,
      "ĠLouis": 5627,
      "Ġresources": 5628,
      "Ġforward": 5629,
      "yes": 5630,
      "ĠBill": 5631,
      "Ġeconomic": 5632,
      "itiz": 5633,
      "ĠField": 5634,
      "Ð»": 5635,
      "My": 5636,
      "Application": 5637,
      "ĠCharles": 5638,
      "Ġrespectively": 5639,
      "Ġfinancial": 5640,
      "CS": 5641,
      "ĠLat": 5642,
      "Ġunits": 5643,
      "Ġalbums": 5644,
      "ĠMa": 5645,
      "clude": 5646,
      "1988": 5647,
      "EM": 5648,
      "del": 5649,
      "Ġtemper": 5650,
      ".~\\": 5651,
      "Ġreve": 5652,
      "(*": 5653,
      "Ġculture": 5654,
      "ables": 5655,
      "cloud": 5656,
      "Ġdaughter": 5657,
      "irl": 5658,
      "EXT": 5659,
      "Ġitems": 5660,
      "Ġpreviously": 5661,
      "Ġinvoke": 5662,
      "asketball": 5663,
      "AND": 5664,
      "Lambda": 5665,
      "ĠSl": 5666,
      "Ġdirection": 5667,
      "Pop": 5668,
      "isation": 5669,
      "Ġbring": 5670,
      "aled": 5671,
      "ĠItalian": 5672,
      "Ver": 5673,
      "enum": 5674,
      ".\\": 5675,
      "Ġlarger": 5676,
      "reland": 5677,
      "Ġarticle": 5678,
      "white": 5679,
      "ĠProf": 5680,
      "Ġidea": 5681,
      "Ġkm": 5682,
      "ĠRun": 5683,
      "Ġdestroy": 5684,
      "Ġunsigned": 5685,
      "Xml": 5686,
      "ĠTri": 5687,
      "settings": 5688,
      "ATH": 5689,
      "Ġhit": 5690,
      "Results": 5691,
      "Ġseven": 5692,
      "Ġweight": 5693,
      "connect": 5694,
      "Ġexact": 5695,
      "Mock": 5696,
      "Ġorigin": 5697,
      "Ġcache": 5698,
      "rome": 5699,
      "ĠCatholic": 5700,
      "oder": 5701,
      "FL": 5702,
      "Ġheader": 5703,
      "Br": 5704,
      "Ġcorresponding": 5705,
      "pub": 5706,
      "ournament": 5707,
      "ora": 5708,
      "Ġnumbers": 5709,
      "byte": 5710,
      "Ġos": 5711,
      "well": 5712,
      "Ġapply": 5713,
      "Enabled": 5714,
      "Ġbyte": 5715,
      "ĠSmith": 5716,
      "elebr": 5717,
      "'.": 5718,
      "SION": 5719,
      "ĠDet": 5720,
      "ĠLet": 5721,
      "atre": 5722,
      "framework": 5723,
      "Doc": 5724,
      "ki": 5725,
      "ĠDate": 5726,
      "step": 5727,
      "ĠIS": 5728,
      "ĠZeal": 5729,
      "Writer": 5730,
      "anufact": 5731,
      "ye": 5732,
      "Am": 5733,
      "Ġer": 5734,
      "ĠName": 5735,
      "Ġmoment": 5736,
      "retary": 5737,
      "URE": 5738,
      "help": 5739,
      "Ġtransaction": 5740,
      "atio": 5741,
      "ĠJose": 5742,
      "ĠSing": 5743,
      "Ġbeginning": 5744,
      "Boolean": 5745,
      "azz": 5746,
      "ĠRead": 5747,
      "amera": 5748,
      "OK": 5749,
      "recated": 5750,
      "apse": 5751,
      "Ġthing": 5752,
      "=#": 5753,
      "Ġrules": 5754,
      "hline": 5755,
      "fn": 5756,
      "bes": 5757,
      "Ġmaximum": 5758,
      "TS": 5759,
      "ĠRecords": 5760,
      "Ġgrant": 5761,
      "Storage": 5762,
      "ĠFrank": 5763,
      "Ġdemon": 5764,
      "Ġscience": 5765,
      "edit": 5766,
      "note": 5767,
      "Ġartists": 5768,
      "ĠRE": 5769,
      "Ġsubsequ": 5770,
      "ĠZealand": 5771,
      "Net": 5772,
      "ĠLong": 5773,
      "Ġorganization": 5774,
      "Ġdistance": 5775,
      "Ġdoing": 5776,
      "ĠDel": 5777,
      "Ġess": 5778,
      "Ġsurface": 5779,
      "protobuf": 5780,
      "ifest": 5781,
      "{}": 5782,
      "HECK": 5783,
      "Ġsports": 5784,
      "ĠIO": 5785,
      "liance": 5786,
      "69": 5787,
      "Decl": 5788,
      "ĠTechn": 5789,
      "thlet": 5790,
      "GE": 5791,
      "evelopment": 5792,
      "Ġnecessary": 5793,
      "Ġexhib": 5794,
      "rb": 5795,
      "Ġpractice": 5796,
      "insert": 5797,
      "Ġdatabase": 5798,
      "Root": 5799,
      "ette": 5800,
      "high": 5801,
      "Ġfinally": 5802,
      "Ġzero": 5803,
      "uty": 5804,
      "Ġnet": 5805,
      "Ġtechnology": 5806,
      "Ġcouple": 5807,
      "Package": 5808,
      "ares": 5809,
      "callback": 5810,
      "ĠGovernment": 5811,
      "74": 5812,
      "Body": 5813,
      "ĠRegister": 5814,
      "rong": 5815,
      "Ġcollect": 5816,
      "Ġord": 5817,
      "`,": 5818,
      "ĠJSON": 5819,
      "Tests": 5820,
      "Ġreplaced": 5821,
      "application": 5822,
      "blockList": 5823,
      "Ġsettings": 5824,
      "igen": 5825,
      "holder": 5826,
      "uby": 5827,
      "ita": 5828,
      "Ġemer": 5829,
      "virtual": 5830,
      "ĠĠĠĠĠĠĠĠĠĠĠĠĠĠĠĠĠĠ": 5831,
      "Ġfemale": 5832,
      "Ġfamilies": 5833,
      "fony": 5834,
      "ental": 5835,
      "1987": 5836,
      "\")]": 5837,
      "ĠTrump": 5838,
      "Ġcontain": 5839,
      "Ġhours": 5840,
      "&\\": 5841,
      "textit": 5842,
      "Ġleague": 5843,
      "ĠAut": 5844,
      "ĠBoard": 5845,
      "ĠWhat": 5846,
      "62": 5847,
      "Ġmatter": 5848,
      "Ġclasses": 5849,
      "Ġlibrary": 5850,
      "Ġprec": 5851,
      "register": 5852,
      "ĠParis": 5853,
      "Ġpackage": 5854,
      "frak": 5855,
      "ĠRichard": 5856,
      "iller": 5857,
      "real": 5858,
      "Delete": 5859,
      "ymfony": 5860,
      "Ġwoman": 5861,
      "Ġimages": 5862,
      "Policy": 5863,
      "coll": 5864,
      "inline": 5865,
      "lood": 5866,
      "eck": 5867,
      "Byte": 5868,
      "ĠFin": 5869,
      "ĠSuper": 5870,
      "mselves": 5871,
      "63": 5872,
      "Ġjson": 5873,
      "iece": 5874,
      "ĠOver": 5875,
      "hing": 5876,
      "Ġleader": 5877,
      "89": 5878,
      "Ġstudent": 5879,
      "Ġquick": 5880,
      "ĠInc": 5881,
      ";<": 5882,
      "(-": 5883,
      "ighest": 5884,
      "FC": 5885,
      "atively": 5886,
      "ether": 5887,
      "ulture": 5888,
      "Ġallows": 5889,
      "Ġbytes": 5890,
      "Ġcomes": 5891,
      "anned": 5892,
      "\\\"": 5893,
      "icago": 5894,
      "ircraft": 5895,
      "aved": 5896,
      "ĠLO": 5897,
      "Ġdirectory": 5898,
      "Ġassist": 5899,
      "ĠMath": 5900,
      "Ġtit": 5901,
      "ested": 5902,
      "Ġbrought": 5903,
      "}\"": 5904,
      "Click": 5905,
      "inct": 5906,
      "Rule": 5907,
      "heast": 5908,
      "1986": 5909,
      "ĠPeter": 5910,
      "Ġcop": 5911,
      "Ġthemselves": 5912,
      "'))": 5913,
      "PA": 5914,
      "eds": 5915,
      "agon": 5916,
      "mi": 5917,
      "Ġaltern": 5918,
      "Ġmovement": 5919,
      "Changed": 5920,
      "mitted": 5921,
      "uest": 5922,
      "},\\": 5923,
      "MD": 5924,
      "Ġmention": 5925,
      "Widget": 5926,
      "Ñĥ": 5927,
      "ernel": 5928,
      "ĠWomen": 5929,
      "Ġ++": 5930,
      "sql": 5931,
      "uple": 5932,
      "onds": 5933,
      "Ġinside": 5934,
      "Red": 5935,
      "ocals": 5936,
      "Ġtowards": 5937,
      "She": 5938,
      "RI": 5939,
      "scal": 5940,
      "ĠFlor": 5941,
      "nab": 5942,
      "PL": 5943,
      "store": 5944,
      "Ġmechan": 5945,
      "Ġbuildings": 5946,
      "ingu": 5947,
      "Exp": 5948,
      "aud": 5949,
      "ĠChe": 5950,
      "ĠPo": 5951,
      "Ġreplace": 5952,
      ">.": 5953,
      "cpp": 5954,
      "oded": 5955,
      "Descriptor": 5956,
      "Ġguitar": 5957,
      "free": 5958,
      "mock": 5959,
      "Ġconcept": 5960,
      "Mark": 5961,
      "FAULT": 5962,
      "Se": 5963,
      "ĠRussia": 5964,
      "lev": 5965,
      "romise": 5966,
      "Dialog": 5967,
      "Ġartist": 5968,
      "Ġstatement": 5969,
      "ĠHTML": 5970,
      "election": 5971,
      "ulate": 5972,
      "fil": 5973,
      "à¤": 5974,
      "Ġepisode": 5975,
      "TED": 5976,
      "ĠOrder": 5977,
      "Display": 5978,
      "ĠRel": 5979,
      "Found": 5980,
      "Ġdensity": 5981,
      "xx": 5982,
      "ĠLem": 5983,
      "Ġdefinition": 5984,
      "Ġprevent": 5985,
      ";\"": 5986,
      "Ġcompar": 5987,
      "ĠFoundation": 5988,
      "Ã§": 5989,
      "Cal": 5990,
      "Ġspent": 5991,
      "ĠMass": 5992,
      "double": 5993,
      "Ġsoon": 5994,
      "61": 5995,
      "Ġpresented": 5996,
      "stant": 5997,
      "shot": 5998,
      "coq": 5999,
      "Ġbasis": 6000,
      "atalog": 6001,
      "85": 6002,
      "GB": 6003,
      "Ġcollege": 6004,
      "ignment": 6005,
      "urt": 6006,
      "ĠTw": 6007,
      "ĠRock": 6008,
      "Ġbank": 6009,
      "Di": 6010,
      "]]": 6011,
      "__(": 6012,
      "ĠAL": 6013,
      "ĠKey": 6014,
      "ĠId": 6015,
      "Ġthreat": 6016,
      "ĠLos": 6017,
      "olume": 6018,
      "ĠValue": 6019,
      "Ġfixed": 6020,
      "olf": 6021,
      "ĠRail": 6022,
      "iders": 6023,
      "Ġlinear": 6024,
      "onom": 6025,
      "Ġeventually": 6026,
      "1984": 6027,
      "Security": 6028,
      "Ġpick": 6029,
      "ĠForce": 6030,
      "eek": 6031,
      "ishing": 6032,
      "Ġstated": 6033,
      "Ġcoach": 6034,
      "73": 6035,
      "Ac": 6036,
      "Ġmiddle": 6037,
      "DU": 6038,
      "ils": 6039,
      "Ã³n": 6040,
      "So": 6041,
      "icated": 6042,
      "Ġroom": 6043,
      "Ġroute": 6044,
      "Ġsense": 6045,
      "record": 6046,
      "Ġreached": 6047,
      "atur": 6048,
      "1985": 6049,
      "Ġstarting": 6050,
      "Ðº": 6051,
      "Ġdecided": 6052,
      "Ġearlier": 6053,
      "ying": 6054,
      "avi": 6055,
      "Ġmsg": 6056,
      "Ġste": 6057,
      "Ġabs": 6058,
      "SSERT": 6059,
      "Ġwalk": 6060,
      "annotation": 6061,
      "Ġsch": 6062,
      "ĠSummer": 6063,
      "Ġeffects": 6064,
      "ĠMel": 6065,
      "jection": 6066,
      "igration": 6067,
      "rey": 6068,
      "Cre": 6069,
      "Ġmatches": 6070,
      "pid": 6071,
      "lines": 6072,
      "graph": 6073,
      "DS": 6074,
      "Ġtrade": 6075,
      "Ġcontact": 6076,
      "ĠSur": 6077,
      "material": 6078,
      "Ġveh": 6079,
      "enge": 6080,
      "vm": 6081,
      "olar": 6082,
      "Ġplant": 6083,
      "Ġfootballers": 6084,
      "TEST": 6085,
      "Account": 6086,
      "Fields": 6087,
      "orial": 6088,
      "Ġerrors": 6089,
      "Ġmovie": 6090,
      "Ġnote": 6091,
      "Ġbegin": 6092,
      "primary": 6093,
      "Ġonline": 6094,
      "Ġprograms": 6095,
      "Ġinterview": 6096,
      "Ġmedical": 6097,
      "71": 6098,
      "bound": 6099,
      "ping": 6100,
      "ĠError": 6101,
      "Ġlimited": 6102,
      "PS": 6103,
      "Ġphase": 6104,
      "ipe": 6105,
      "Ġstri": 6106,
      "anguage": 6107,
      "clusion": 6108,
      "Ġlack": 6109,
      "ĠProject": 6110,
      "keys": 6111,
      "Ġextension": 6112,
      "Ġremoved": 6113,
      "ipeline": 6114,
      "ynchron": 6115,
      "cos": 6116,
      "herit": 6117,
      "ips": 6118,
      "agnost": 6119,
      "Ġfederal": 6120,
      "Ġshape": 6121,
      "km": 6122,
      "Ġlock": 6123,
      "Ġnative": 6124,
      "Ġcref": 6125,
      "oub": 6126,
      "toggle": 6127,
      "JECT": 6128,
      "ih": 6129,
      "1950": 6130,
      "ĉĉĉĊ": 6131,
      "Ġpredict": 6132,
      "Ġalumni": 6133,
      "full": 6134,
      "anta": 6135,
      ")^": 6136,
      "igan": 6137,
      "ĠĠĠĠĠĠĊ": 6138,
      "ĠassertEquals": 6139,
      "Ġdemonstr": 6140,
      "ĠNote": 6141,
      "Ġ'/": 6142,
      "Job": 6143,
      "ĠSecond": 6144,
      "assets": 6145,
      "overs": 6146,
      "Ġscore": 6147,
      "Ġruns": 6148,
      "matrix": 6149,
      "Ġforeign": 6150,
      "ola": 6151,
      "oral": 6152,
      "Ġbrother": 6153,
      "Ġextra": 6154,
      "Definition": 6155,
      "inated": 6156,
      "Ġ<=": 6157,
      "ĠSpanish": 6158,
      "Ġrecords": 6159,
      "Ġpurch": 6160,
      "password": 6161,
      ":#": 6162,
      "ĠIreland": 6163,
      "ĠPenn": 6164,
      "ĠHill": 6165,
      "Obj": 6166,
      "CR": 6167,
      "Ġbutton": 6168,
      "Ġgold": 6169,
      "ĠAnn": 6170,
      "Ġinvestig": 6171,
      "aily": 6172,
      "pdf": 6173,
      "Ġss": 6174,
      "category": 6175,
      "Ġoriginally": 6176,
      "ĠVirginia": 6177,
      "ĠCamp": 6178,
      "ici": 6179,
      "Ġsimply": 6180,
      "Ġexperiment": 6181,
      "email": 6182,
      "ĠEvent": 6183,
      "Ins": 6184,
      "ĠPub": 6185,
      "Ġnodes": 6186,
      "wrap": 6187,
      "Each": 6188,
      "den": 6189,
      "plugins": 6190,
      "ky": 6191,
      "Ġincreasing": 6192,
      "appa": 6193,
      "Ġaccom": 6194,
      "Ġwanted": 6195,
      "ancy": 6196,
      "ĠFootball": 6197,
      "plements": 6198,
      "Ġapplied": 6199,
      "Year": 6200,
      "BS": 6201,
      "ĠOb": 6202,
      "ĠMethod": 6203,
      "ĠSeries": 6204,
      "margin": 6205,
      "thread": 6206,
      "DA": 6207,
      "Ġdistributed": 6208,
      "Ġtherefore": 6209,
      "Ġrepe": 6210,
      "Ġensure": 6211,
      "allery": 6212,
      "Ġusers": 6213,
      "adoop": 6214,
      "oviet": 6215,
      "Ġlisted": 6216,
      "ami": 6217,
      "&&": 6218,
      "Ġtests": 6219,
      "Ġcritic": 6220,
      "Ġflag": 6221,
      "auto": 6222,
      "orter": 6223,
      "Ġpair": 6224,
      "ĠTimes": 6225,
      "Ġmeaning": 6226,
      "Variable": 6227,
      "olver": 6228,
      "Ø§": 6229,
      "Ġplaced": 6230,
      "CTION": 6231,
      "Ġcounter": 6232,
      "lers": 6233,
      "ved": 6234,
      "ĠOlympics": 6235,
      "oration": 6236,
      "ĠUser": 6237,
      "Ġhot": 6238,
      "coin": 6239,
      "ĠSection": 6240,
      "razil": 6241,
      "AGE": 6242,
      "ĠBig": 6243,
      "1983": 6244,
      "Active": 6245,
      "Ġauth": 6246,
      "Ġalgorithm": 6247,
      "Ġoccup": 6248,
      "Ġearn": 6249,
      "Ġinvolv": 6250,
      "ĠVictor": 6251,
      "Ġprobably": 6252,
      "Ġtransition": 6253,
      "Members": 6254,
      "Ret": 6255,
      "ĠFilm": 6256,
      "ĠHenry": 6257,
      "ira": 6258,
      "Ġproducts": 6259,
      "ĠGeorg": 6260,
      "stitution": 6261,
      "ella": 6262,
      "osen": 6263,
      "etimes": 6264,
      "ĠIll": 6265,
      "dule": 6266,
      "cmd": 6267,
      "ĠĠĠĠĠĠĠĠĠĠĠĠĠĠĠĠĠĠĠĠĠĠĠĠĠ": 6268,
      "onic": 6269,
      "Ġacadem": 6270,
      "itz": 6271,
      "}}$": 6272,
      "Ġsources": 6273,
      "FT": 6274,
      "Ġcoordin": 6275,
      "hs": 6276,
      "Fil": 6277,
      "Ġedge": 6278,
      "Ġanti": 6279,
      "Ġded": 6280,
      "Ġansw": 6281,
      "PRE": 6282,
      "uan": 6283,
      "TEX": 6284,
      "Tab": 6285,
      "ITY": 6286,
      "Ġactivities": 6287,
      "eve": 6288,
      "Ġasked": 6289,
      "ĠFig": 6290,
      "Queue": 6291,
      "Ġdb": 6292,
      "rule": 6293,
      "Ġremains": 6294,
      "Ġreceive": 6295,
      "El": 6296,
      "Art": 6297,
      "Runtime": 6298,
      "addr": 6299,
      "comment": 6300,
      "lie": 6301,
      "enses": 6302,
      "Ġ\"/": 6303,
      "ĠTem": 6304,
      "bal": 6305,
      "Ġlevels": 6306,
      "Ġnothing": 6307,
      "pool": 6308,
      "keyword": 6309,
      "HTML": 6310,
      "iring": 6311,
      "nel": 6312,
      "ĠUse": 6313,
      "ĠArts": 6314,
      "Ġgrand": 6315,
      "HP": 6316,
      "IX": 6317,
      "lyph": 6318,
      "Ġadapt": 6319,
      "Ġquality": 6320,
      "ervation": 6321,
      "Ġfrag": 6322,
      "dot": 6323,
      "Ġremain": 6324,
      "Ġnature": 6325,
      "Ġdro": 6326,
      "argument": 6327,
      "cur": 6328,
      "Initial": 6329,
      "ĠAv": 6330,
      "initial": 6331,
      "Ġbehavior": 6332,
      "Ġseem": 6333,
      "hy": 6334,
      "Ġbroadcast": 6335,
      "Ġlives": 6336,
      "WS": 6337,
      "Ġmur": 6338,
      "esh": 6339,
      "Ġrisk": 6340,
      "rot": 6341,
      "82": 6342,
      "allow": 6343,
      "ternet": 6344,
      "\\%": 6345,
      "Custom": 6346,
      "install": 6347,
      "utch": 6348,
      "LP": 6349,
      "printf": 6350,
      "Ġcontaining": 6351,
      "Ġabsol": 6352,
      "Ġstations": 6353,
      "pare": 6354,
      "Ġmunic": 6355,
      "Ġproof": 6356,
      "pers": 6357,
      "Scope": 6358,
      "admin": 6359,
      "ĠLife": 6360,
      "ĠTim": 6361,
      "ĠFlorida": 6362,
      "Ġimplementation": 6363,
      "Ġmut": 6364,
      "Ġrepresented": 6365,
      "Ġrepresentation": 6366,
      "Timeout": 6367,
      "mathfrak": 6368,
      "abit": 6369,
      "Ġbind": 6370,
      "Ġrecently": 6371,
      "Ġdescribe": 6372,
      "Member": 6373,
      "ĠMexico": 6374,
      "Ġserial": 6375,
      "geles": 6376,
      "JSON": 6377,
      "ĠChicago": 6378,
      "ĠMil": 6379,
      "Ġetc": 6380,
      "product": 6381,
      "Extension": 6382,
      "Ġhtml": 6383,
      "FILE": 6384,
      "names": 6385,
      "Ġcompared": 6386,
      "forms": 6387,
      "Ġdise": 6388,
      "car": 6389,
      "Ġgives": 6390,
      "87": 6391,
      "Activity": 6392,
      "Ġbur": 6393,
      "people": 6394,
      "items": 6395,
      "uke": 6396,
      "Ġjavax": 6397,
      "KEY": 6398,
      "Ġprison": 6399,
      "langle": 6400,
      "Ġbelieve": 6401,
      "ĠIran": 6402,
      "Ġcelebr": 6403,
      "Ġremained": 6404,
      "none": 6405,
      "Edit": 6406,
      "Ġparticularly": 6407,
      "ĠCast": 6408,
      "NE": 6409,
      "Ġphysical": 6410,
      "sych": 6411,
      "ĠLake": 6412,
      "Ġminor": 6413,
      "ango": 6414,
      "uler": 6415,
      "leep": 6416,
      "ror": 6417,
      "ĠOp": 6418,
      "Ã¨": 6419,
      "84": 6420,
      "ĠOf": 6421,
      "Sum": 6422,
      "Ġhighest": 6423,
      "eries": 6424,
      "Person": 6425,
      "1982": 6426,
      "ĠEngine": 6427,
      "mpire": 6428,
      "unsigned": 6429,
      "Ġupper": 6430,
      "Ġtrain": 6431,
      "Ġknowledge": 6432,
      "Ġgun": 6433,
      "Ġcommercial": 6434,
      "Transaction": 6435,
      "Ġpri": 6436,
      "Ġgenerally": 6437,
      "ression": 6438,
      "Ġrecomm": 6439,
      "ĠAngeles": 6440,
      "inet": 6441,
      "Ġcompetition": 6442,
      "ja": 6443,
      "mid": 6444,
      "tw": 6445,
      "TC": 6446,
      "Ġpartial": 6447,
      "ĠPan": 6448,
      "What": 6449,
      "grid": 6450,
      "Ġball": 6451,
      "Ġmeeting": 6452,
      "Ġsociety": 6453,
      "connection": 6454,
      "ishop": 6455,
      "Symbol": 6456,
      "stat": 6457,
      "olk": 6458,
      "Ġscen": 6459,
      "Ġsometimes": 6460,
      "orpor": 6461,
      "ĠProgram": 6462,
      "citep": 6463,
      "Ġgrowth": 6464,
      "ĠKe": 6465,
      "radius": 6466,
      "Ġcharg": 6467,
      "ĠModel": 6468,
      "Main": 6469,
      "ĠDirector": 6470,
      "resents": 6471,
      "Ġincreased": 6472,
      "Lock": 6473,
      "Ġparents": 6474,
      "Te": 6475,
      "DC": 6476,
      "Ġforms": 6477,
      "ĠBank": 6478,
      "ously": 6479,
      "vest": 6480,
      "Ġmanufact": 6481,
      "Ġfourth": 6482,
      "Ġcore": 6483,
      "osing": 6484,
      "ien": 6485,
      "1979": 6486,
      "duction": 6487,
      "pute": 6488,
      "ĠJournal": 6489,
      "\\|": 6490,
      "ellig": 6491,
      "spring": 6492,
      "ldots": 6493,
      "Ġche": 6494,
      "ĠEducation": 6495,
      "sche": 6496,
      "ĠArab": 6497,
      "short": 6498,
      "Ġawarded": 6499,
      "usion": 6500,
      "%%%%": 6501,
      "Ġ(*": 6502,
      "ican": 6503,
      "Ġpen": 6504,
      "ĠTHE": 6505,
      "Ident": 6506,
      "Ġtraditional": 6507,
      "Ġsaf": 6508,
      "ĠURL": 6509,
      "Ġpublish": 6510,
      "Network": 6511,
      "ĠUnder": 6512,
      "Flags": 6513,
      "Ġdomain": 6514,
      "Ġclean": 6515,
      "Ġbelong": 6516,
      "Ġholds": 6517,
      "Ġir": 6518,
      "ĠUN": 6519,
      "Media": 6520,
      "ĠGoogle": 6521,
      "Ġstay": 6522,
      "Ġcitiz": 6523,
      "Init": 6524,
      "Ġseek": 6525,
      "Ġaccur": 6526,
      "256": 6527,
      "Channel": 6528,
      "Perm": 6529,
      "ĠHand": 6530,
      "ollowing": 6531,
      "Show": 6532,
      "Ġshared": 6533,
      "ker": 6534,
      "tty": 6535,
      "Ġheart": 6536,
      "ĠCap": 6537,
      "Ġminutes": 6538,
      "Ġactivity": 6539,
      "======": 6540,
      "Ġwatch": 6541,
      "Ġinstanceof": 6542,
      "yr": 6543,
      "Any": 6544,
      "Send": 6545,
      "Ġâ": 6546,
      "house": 6547,
      "Ġcalls": 6548,
      "Ġmajority": 6549,
      "anda": 6550,
      "Ġfeatured": 6551,
      "ĠScot": 6552,
      "Ġwhom": 6553,
      "Ġstrict": 6554,
      "TV": 6555,
      "Ġleave": 6556,
      "Ljava": 6557,
      "Ġspeed": 6558,
      "Ġprojects": 6559,
      "ĠVAL": 6560,
      "~~~~": 6561,
      "hadoop": 6562,
      "organ": 6563,
      "urred": 6564,
      "fly": 6565,
      "thm": 6566,
      "Ġequival": 6567,
      "ady": 6568,
      "Ġeffective": 6569,
      "Ġ),": 6570,
      "ĠFalse": 6571,
      "################": 6572,
      "enter": 6573,
      "Ġmind": 6574,
      "isters": 6575,
      "Ġ{};": 6576,
      "shape": 6577,
      "END": 6578,
      "Msg": 6579,
      "ĠStar": 6580,
      "ĠTwo": 6581,
      "ĠShow": 6582,
      "Only": 6583,
      "Ġlib": 6584,
      "Ġmaster": 6585,
      "Ġoptim": 6586,
      "Ġconsole": 6587,
      "ĠFe": 6588,
      "Ġsave": 6589,
      "Ġvolume": 6590,
      "ĠDO": 6591,
      "Ġmock": 6592,
      "related": 6593,
      "Pool": 6594,
      "Internal": 6595,
      "bridge": 6596,
      "ĠNOT": 6597,
      "Ġterr": 6598,
      "sets": 6599,
      "Ġactions": 6600,
      "iger": 6601,
      "Ġinterpre": 6602,
      "(!": 6603,
      "ĠDefault": 6604,
      "ĠSocial": 6605,
      "ockey": 6606,
      "edom": 6607,
      "Ġhum": 6608,
      "Ġdrug": 6609,
      "ucket": 6610,
      "Ġtransp": 6611,
      "Ġbre": 6612,
      "Ġstack": 6613,
      "stop": 6614,
      "Other": 6615,
      "Ġcomponents": 6616,
      "(){": 6617,
      "=\"\">": 6618,
      "Ġhandler": 6619,
      "VERSION": 6620,
      "Ġmis": 6621,
      "impl": 6622,
      "Ġfactor": 6623,
      "ĠNow": 6624,
      "region": 6625,
      "MENT": 6626,
      "ansion": 6627,
      "iana": 6628,
      "ĠJud": 6629,
      "bot": 6630,
      "Gr": 6631,
      "Man": 6632,
      ")/": 6633,
      "ĠFinal": 6634,
      "ato": 6635,
      "Ġwallet": 6636,
      "ancel": 6637,
      "![": 6638,
      "Ġadopt": 6639,
      "ĠItaly": 6640,
      "Ġprofile": 6641,
      "ĠSwed": 6642,
      "Ġaircraft": 6643,
      ")\"": 6644,
      "Ġbecomes": 6645,
      "ĠMost": 6646,
      "160": 6647,
      "scroll": 6648,
      "Ġlaws": 6649,
      "centering": 6650,
      "Ġinsp": 6651,
      "ocker": 6652,
      "ifies": 6653,
      "=\"@": 6654,
      "Ġentity": 6655,
      "kg": 6656,
      "ĠGen": 6657,
      "events": 6658,
      "@\"": 6659,
      "elli": 6660,
      "Ġago": 6661,
      "present": 6662,
      "Ġvote": 6663,
      "gg": 6664,
      "Ġdead": 6665,
      "scription": 6666,
      "1981": 6667,
      "ĠDen": 6668,
      "Ġpy": 6669,
      "[:": 6670,
      "fort": 6671,
      "Ġang": 6672,
      "ĠText": 6673,
      "Ġactor": 6674,
      "Bit": 6675,
      "ifications": 6676,
      "erc": 6677,
      "Ġcard": 6678,
      "ĠStep": 6679,
      "ĠCopy": 6680,
      "osh": 6681,
      "ecause": 6682,
      "()));": 6683,
      "Ġwide": 6684,
      "EC": 6685,
      "stats": 6686,
      "_->": 6687,
      "unched": 6688,
      "Ġcoming": 6689,
      "master": 6690,
      "Ġproper": 6691,
      "aration": 6692,
      "ixel": 6693,
      "contrib": 6694,
      "Support": 6695,
      "()).": 6696,
      "Ġmedal": 6697,
      "cut": 6698,
      "=\"\"": 6699,
      ".*": 6700,
      "BR": 6701,
      "ookie": 6702,
      "ĠCall": 6703,
      "Database": 6704,
      "shall": 6705,
      "inate": 6706,
      "while": 6707,
      "UID": 6708,
      "nes": 6709,
      "ĠMax": 6710,
      "nabla": 6711,
      "itness": 6712,
      "tip": 6713,
      "found": 6714,
      "numer": 6715,
      "alyt": 6716,
      "Ġdu": 6717,
      "NA": 6718,
      "Ġnoted": 6719,
      "Ġgas": 6720,
      "Ġstructures": 6721,
      "pay": 6722,
      "Ġmission": 6723,
      "Ġbtn": 6724,
      "Ġbal": 6725,
      "Ġvariables": 6726,
      "vey": 6727,
      "utf": 6728,
      "Ġunknown": 6729,
      "Ġattention": 6730,
      "Ġinstr": 6731,
      "throws": 6732,
      "operator": 6733,
      "aret": 6734,
      "ĠGl": 6735,
      "ĠIts": 6736,
      "Ġcaused": 6737,
      "ĠFestival": 6738,
      "ById": 6739,
      "assertEqual": 6740,
      "allel": 6741,
      "ĠTable": 6742,
      "Ġbottom": 6743,
      ")))": 6744,
      "Ġ%}": 6745,
      "Äģ": 6746,
      "move": 6747,
      "1972": 6748,
      "ĠLine": 6749,
      "Ġappears": 6750,
      "Ġphil": 6751,
      "uing": 6752,
      "Ġsinger": 6753,
      "LS": 6754,
      "Ġconflic": 6755,
      "Ġicon": 6756,
      "important": 6757,
      "ĠOffice": 6758,
      "Ġsmaller": 6759,
      "ADD": 6760,
      "reshold": 6761,
      "Ġowner": 6762,
      "sample": 6763,
      "hentication": 6764,
      "94": 6765,
      "subset": 6766,
      "atically": 6767,
      "Ġreligious": 6768,
      "Ġjoin": 6769,
      "raints": 6770,
      "1978": 6771,
      "inger": 6772,
      "Float": 6773,
      "Ġhel": 6774,
      "ĠRet": 6775,
      "_,": 6776,
      "Ġattributes": 6777,
      "1976": 6778,
      "Ġshot": 6779,
      "family": 6780,
      "Ġsens": 6781,
      "////////////////////////////////": 6782,
      "Ġincome": 6783,
      "Events": 6784,
      "})$": 6785,
      "ĠColor": 6786,
      "Feature": 6787,
      "ĠOld": 6788,
      "Phi": 6789,
      "Logger": 6790,
      "iverse": 6791,
      "Tra": 6792,
      "ĠOh": 6793,
      "room": 6794,
      "ci": 6795,
      "ĠSil": 6796,
      "Auth": 6797,
      "napshot": 6798,
      "Rest": 6799,
      "txt": 6800,
      "venue": 6801,
      "Ġmulti": 6802,
      "peed": 6803,
      ".__": 6804,
      "->_": 6805,
      "ali": 6806,
      "LOG": 6807,
      "security": 6808,
      "agram": 6809,
      "Ġtrying": 6810,
      "notation": 6811,
      "Ġpark": 6812,
      "Ġchalleng": 6813,
      "Sigma": 6814,
      "Ġfunc": 6815,
      "Ġstories": 6816,
      "Ġgenerate": 6817,
      "Ġlayer": 6818,
      "rine": 6819,
      "ĠĠĠĠĠĠĠĠĠĠĠĠĠĠĠĠĠĠĠĠĠĠĠĠ": 6820,
      "Struct": 6821,
      "ĠInst": 6822,
      "Ġtreatment": 6823,
      "Ġeth": 6824,
      "Ġrequires": 6825,
      "ixture": 6826,
      "ĠTask": 6827,
      "irmed": 6828,
      "'])": 6829,
      "ĠIslam": 6830,
      "ĠMur": 6831,
      "Ġindividuals": 6832,
      "oting": 6833,
      "cb": 6834,
      "ĠAN": 6835,
      "Ñı": 6836,
      "Ġbasic": 6837,
      ".'": 6838,
      "flags": 6839,
      "profile": 6840,
      "Before": 6841,
      "dropdown": 6842,
      "Ġanything": 6843,
      "Ġopening": 6844,
      "Ġscene": 6845,
      "Ġalloc": 6846,
      "ĠTop": 6847,
      "idae": 6848,
      "Ġbattle": 6849,
      "ads": 6850,
      "iny": 6851,
      "modules": 6852,
      "Ġoverall": 6853,
      "Ġyield": 6854,
      "Ġcollabor": 6855,
      "ĠCarolina": 6856,
      "Notes": 6857,
      "Ġgreater": 6858,
      "Ġgetting": 6859,
      "sect": 6860,
      "\\\\\\\\\\\\\\\\\\\\\\\\\\\\\\\\": 6861,
      "92": 6862,
      "MAX": 6863,
      "Ġfully": 6864,
      "ĠAlthough": 6865,
      "Ġrecover": 6866,
      "91": 6867,
      "ko": 6868,
      "Proxy": 6869,
      "1974": 6870,
      "ĠParliament": 6871,
      "Windows": 6872,
      "BUG": 6873,
      "Items": 6874,
      "Directory": 6875,
      "ĠOption": 6876,
      "1975": 6877,
      "\">&": 6878,
      "jquery": 6879,
      "kappa": 6880,
      "Ġended": 6881,
      "Ġng": 6882,
      "ĠIP": 6883,
      "Ġnuc": 6884,
      "Ġseems": 6885,
      "Ġplays": 6886,
      "Ġkeys": 6887,
      "Ġprotect": 6888,
      "iminal": 6889,
      "Ġpolitician": 6890,
      "John": 6891,
      "ĠTre": 6892,
      "Ġability": 6893,
      "GS": 6894,
      "ificate": 6895,
      "Loader": 6896,
      "ĠPeople": 6897,
      "Expr": 6898,
      "Conf": 6899,
      "Ġsummer": 6900,
      "Ġfriends": 6901,
      "1968": 6902,
      "Ġcommunities": 6903,
      "ĠBur": 6904,
      "ĠMiddle": 6905,
      "Background": 6906,
      "Ġremaining": 6907,
      "ĠAtl": 6908,
      "ĠLibrary": 6909,
      "OO": 6910,
      "Ġsaying": 6911,
      "wid": 6912,
      "ARY": 6913,
      "icol": 6914,
      "ĠMartin": 6915,
      "Ġnation": 6916,
      "inem": 6917,
      "NotNull": 6918,
      "PAR": 6919,
      "Ġways": 6920,
      "cient": 6921,
      "Pattern": 6922,
      "1977": 6923,
      "selected": 6924,
      "TABLE": 6925,
      "Ġcritical": 6926,
      "Av": 6927,
      "ĠChild": 6928,
      "iate": 6929,
      "Ġ${": 6930,
      "ny": 6931,
      "93": 6932,
      "named": 6933,
      "Rece": 6934,
      "writer": 6935,
      "Now": 6936,
      "Ġlooking": 6937,
      "osoph": 6938,
      "Ġfoot": 6939,
      "SIZE": 6940,
      "ĠNO": 6941,
      "Step": 6942,
      "save": 6943,
      "that": 6944,
      "Ġdifference": 6945,
      "Ġwriters": 6946,
      "Since": 6947,
      "ibly": 6948,
      "typeof": 6949,
      "Ġapprop": 6950,
      "ronic": 6951,
      "CI": 6952,
      "81": 6953,
      "urrency": 6954,
      "Ġresponsible": 6955,
      "Ġseparate": 6956,
      "otimes": 6957,
      "Ġ[];": 6958,
      "Desc": 6959,
      "arriage": 6960,
      "ĠPet": 6961,
      "Ġsurround": 6962,
      "itation": 6963,
      "mbox": 6964,
      "Ġsignal": 6965,
      "ository": 6966,
      "ĠJan": 6967,
      "ĠNavy": 6968,
      "Ġfailure": 6969,
      "Ġhy": 6970,
      "Ġquite": 6971,
      "ragment": 6972,
      "ĠVersion": 6973,
      "rum": 6974,
      "Attributes": 6975,
      "ĠLand": 6976,
      "annels": 6977,
      "git": 6978,
      "Ġapproximately": 6979,
      "PT": 6980,
      "racy": 6981,
      "ĠCode": 6982,
      "Ġstreng": 6983,
      "Ġnearly": 6984,
      "Ġconnected": 6985,
      "iling": 6986,
      "controller": 6987,
      ")));": 6988,
      "assertEquals": 6989,
      "schema": 6990,
      "Ġwinning": 6991,
      "erial": 6992,
      "Ġpoet": 6993,
      "Enum": 6994,
      "ĠView": 6995,
      "ĠKh": 6996,
      "icks": 6997,
      "Close": 6998,
      "Ġweeks": 6999,
      "Ġdivision": 7000,
      "Ġstudied": 7001,
      "ima": 7002,
      "Own": 7003,
      "structure": 7004,
      "Ġawait": 7005,
      "Ġwid": 7006,
      "ĠSaint": 7007,
      "Editor": 7008,
      "ĠLandroid": 7009,
      "Early": 7010,
      "Ġfast": 7011,
      "war": 7012,
      "ĠAwards": 7013,
      "PATH": 7014,
      "ĠSun": 7015,
      "1973": 7016,
      "properties": 7017,
      "Ġdesc": 7018,
      "points": 7019,
      "iday": 7020,
      "Ġimmediately": 7021,
      "vant": 7022,
      "Ġ\"\"": 7023,
      "Ġtournament": 7024,
      "Ġcharge": 7025,
      "Ġcreating": 7026,
      "andra": 7027,
      "]:": 7028,
      "Ġscored": 7029,
      "Ġemail": 7030,
      "Ġgoals": 7031,
      "Ġenter": 7032,
      "asion": 7033,
      "EO": 7034,
      "Ġbranch": 7035,
      "ga": 7036,
      "Ġalleg": 7037,
      "ĠChief": 7038,
      "Me": 7039,
      "Ġwor": 7040,
      "Ġhousehold": 7041,
      "Memory": 7042,
      "owers": 7043,
      "ĠBrown": 7044,
      "ĠEr": 7045,
      "bad": 7046,
      "joy": 7047,
      "ĠKn": 7048,
      "fect": 7049,
      "ji": 7050,
      "ToString": 7051,
      "ĠJoseph": 7052,
      "{-": 7053,
      "prove": 7054,
      "results": 7055,
      "Ġentered": 7056,
      "ategories": 7057,
      "ensuremath": 7058,
      "Ġinteger": 7059,
      "ĠInitial": 7060,
      "Ġfigure": 7061,
      "star": 7062,
      "Ġchief": 7063,
      "ĠColumb": 7064,
      "edge": 7065,
      "ager": 7066,
      "Ġcluster": 7067,
      "Ġcandidate": 7068,
      "account": 7069,
      "apers": 7070,
      "Graph": 7071,
      "Ġenabled": 7072,
      "}</": 7073,
      "ĠSoviet": 7074,
      "abilities": 7075,
      "Ġunion": 7076,
      "screen": 7077,
      "areer": 7078,
      "ĠAlso": 7079,
      "Ġobserved": 7080,
      "Plugin": 7081,
      "Ġannual": 7082,
      "usband": 7083,
      "super": 7084,
      "rast": 7085,
      "job": 7086,
      "uages": 7087,
      "Iterator": 7088,
      "ĠBre": 7089,
      "nections": 7090,
      "ĠMos": 7091,
      "engine": 7092,
      "ĠLin": 7093,
      "nam": 7094,
      "Ġstorage": 7095,
      "ugby": 7096,
      "poses": 7097,
      "manager": 7098,
      "Ġutil": 7099,
      "83": 7100,
      "Selector": 7101,
      "\"`": 7102,
      "onym": 7103,
      "Ġequation": 7104,
      "Ġpoor": 7105,
      "ĠBrazil": 7106,
      "ador": 7107,
      "Ġinfluence": 7108,
      "plex": 7109,
      "Adapter": 7110,
      "akers": 7111,
      "ĠPlay": 7112,
      "Play": 7113,
      "asy": 7114,
      "ĠPac": 7115,
      "Note": 7116,
      "Ġcategory": 7117,
      "hol": 7118,
      "NavBarCell": 7119,
      "ĠEli": 7120,
      "ĠGal": 7121,
      "DP": 7122,
      "uilt": 7123,
      "Ġproducer": 7124,
      "Final": 7125,
      "crete": 7126,
      "Ġextended": 7127,
      "ĠĠĠĠĠĠĠĠĠĠĠĠĠĠĠĠĠĠĠĠĠĠ": 7128,
      "iano": 7129,
      "Ġfavor": 7130,
      "Ġpriv": 7131,
      "Generic": 7132,
      "NN": 7133,
      "Ġtouch": 7134,
      "Ġcoast": 7135,
      "Ġexplicit": 7136,
      "Ġchart": 7137,
      "Ġdark": 7138,
      "Ġletter": 7139,
      "va": 7140,
      "ito": 7141,
      "Ġfun": 7142,
      "Ġpurpose": 7143,
      "ï¼": 7144,
      "Ġidentity": 7145,
      "Ġlived": 7146,
      "Ġraised": 7147,
      "Ġworkers": 7148,
      "Ġnewsp": 7149,
      "','": 7150,
      "Register": 7151,
      "Ġparties": 7152,
      "Ġmusical": 7153,
      "desc": 7154,
      "Ġolder": 7155,
      "metadata": 7156,
      "ĠKar": 7157,
      "ansas": 7158,
      "XML": 7159,
      "Del": 7160,
      "Ġprim": 7161,
      "ĠNetwork": 7162,
      "Ġproduce": 7163,
      "ĠWales": 7164,
      "Ġasync": 7165,
      "coming": 7166,
      "Ġking": 7167,
      "adium": 7168,
      "eler": 7169,
      "itable": 7170,
      "ĠYoung": 7171,
      "Ġofficer": 7172,
      "Func": 7173,
      "Ġrestrict": 7174,
      "tsd": 7175,
      "equiv": 7176,
      "asure": 7177,
      "1940": 7178,
      "ĠFort": 7179,
      "ĠSpace": 7180,
      "1971": 7181,
      "undred": 7182,
      "Public": 7183,
      "Ġdimension": 7184,
      "Matrix": 7185,
      "Ġagent": 7186,
      "enty": 7187,
      "WA": 7188,
      "pository": 7189,
      "Ġserve": 7190,
      "Panel": 7191,
      "faces": 7192,
      "ipl": 7193,
      "Ġinsert": 7194,
      "1969": 7195,
      "Grid": 7196,
      "roke": 7197,
      "Äĩ": 7198,
      "Ġ(_": 7199,
      "Layer": 7200,
      "PORT": 7201,
      "Ġbuilder": 7202,
      "pling": 7203,
      "Ġbasketball": 7204,
      "Ġconver": 7205,
      "ela": 7206,
      "Ġchoice": 7207,
      "Ġactress": 7208,
      "ĠJo": 7209,
      "Parse": 7210,
      ".[": 7211,
      "During": 7212,
      "gypt": 7213,
      "Print": 7214,
      "Ġturned": 7215,
      "oday": 7216,
      "ĠTODO": 7217,
      "ACE": 7218,
      "Ġproced": 7219,
      "NG": 7220,
      "sur": 7221,
      "Ġreject": 7222,
      "rees": 7223,
      "alloc": 7224,
      "Ġstars": 7225,
      "LIC": 7226,
      "Ġsplit": 7227,
      "ĠNode": 7228,
      "Ġinvalid": 7229,
      "pects": 7230,
      "Ġcomputer": 7231,
      "Ġplans": 7232,
      "Ġchain": 7233,
      "Ġexam": 7234,
      "La": 7235,
      "tests": 7236,
      "Ġamb": 7237,
      "++;": 7238,
      "horizontal": 7239,
      "Ġsenior": 7240,
      "ĠTour": 7241,
      "miss": 7242,
      "Ġedition": 7243,
      "ĠMedia": 7244,
      "Ġrepresents": 7245,
      "Ne": 7246,
      "Ġpartn": 7247,
      "stra": 7248,
      "ĠIrish": 7249,
      "Ġpoll": 7250,
      "reset": 7251,
      "icies": 7252,
      "Ġreach": 7253,
      "Ġoptional": 7254,
      "udget": 7255,
      "onder": 7256,
      "ĠCivil": 7257,
      "Ġunless": 7258,
      "Ġtab": 7259,
      "Ġvariety": 7260,
      "Ġ&=": 7261,
      "Ġlaunched": 7262,
      "iterator": 7263,
      "Ġfarm": 7264,
      "icine": 7265,
      "Ġblue": 7266,
      "1967": 7267,
      "Ġorganizations": 7268,
      "ilation": 7269,
      "para": 7270,
      "Protocol": 7271,
      "ĠVis": 7272,
      "ĠOl": 7273,
      "yer": 7274,
      "1930": 7275,
      "fit": 7276,
      "ĠUk": 7277,
      "Ġtransl": 7278,
      "Ġvan": 7279,
      "uter": 7280,
      "Cond": 7281,
      "1945": 7282,
      "Ġpp": 7283,
      "nce": 7284,
      "logger": 7285,
      "Ġagreement": 7286,
      "ĠHaw": 7287,
      "FR": 7288,
      "'m": 7289,
      "Ġarrest": 7290,
      "Find": 7291,
      "Ġchem": 7292,
      "sylv": 7293,
      "Ġnegative": 7294,
      "/\\": 7295,
      "othing": 7296,
      "iro": 7297,
      "ĠTeam": 7298,
      "ĠLee": 7299,
      "channel": 7300,
      "isc": 7301,
      "Ġattended": 7302,
      "Ġneighbor": 7303,
      "Ġattr": 7304,
      "ouri": 7305,
      "bi": 7306,
      "awa": 7307,
      "Ġserious": 7308,
      "Ġ{'": 7309,
      "andard": 7310,
      "grade": 7311,
      "airman": 7312,
      "Ġestablishments": 7313,
      "ĠÎ": 7314,
      "tabular": 7315,
      "Ġcommission": 7316,
      "Ġstudio": 7317,
      "Ġsn": 7318,
      "Ġcapacity": 7319,
      "handler": 7320,
      "mutable": 7321,
      "home": 7322,
      "Ġexport": 7323,
      "Ġmurder": 7324,
      "ĠWood": 7325,
      "ĠDevelopment": 7326,
      "ainment": 7327,
      "Ġfn": 7328,
      "Ġleaders": 7329,
      "itan": 7330,
      "jar": 7331,
      "Ġsomeone": 7332,
      "equence": 7333,
      "Ġsituation": 7334,
      "ĠJewish": 7335,
      "ĠJim": 7336,
      "ĠMessage": 7337,
      "ĠNorthern": 7338,
      "contin": 7339,
      "Ġhighly": 7340,
      "area": 7341,
      "Ġcreation": 7342,
      "Ġdriver": 7343,
      "English": 7344,
      "ĠLove": 7345,
      "hidden": 7346,
      "SU": 7347,
      "kin": 7348,
      "Ġisland": 7349,
      "Å¡": 7350,
      "irls": 7351,
      "iments": 7352,
      "Ġdetermine": 7353,
      "ĠFri": 7354,
      "ĠBi": 7355,
      ")\">": 7356,
      "UTF": 7357,
      "ONE": 7358,
      "çļ": 7359,
      "yan": 7360,
      "Ġio": 7361,
      "Ġhidden": 7362,
      "Java": 7363,
      "ĠConfig": 7364,
      "oston": 7365,
      "}]": 7366,
      "sylvania": 7367,
      "components": 7368,
      "dots": 7369,
      "ROM": 7370,
      "Profile": 7371,
      "wan": 7372,
      "tely": 7373,
      "echo": 7374,
      "inf": 7375,
      "ĠOur": 7376,
      "Don": 7377,
      "Ġagreed": 7378,
      "lg": 7379,
      "getElement": 7380,
      "Ġlatter": 7381,
      "Ġfeed": 7382,
      "Ġhelped": 7383,
      "Transform": 7384,
      "Ġexternal": 7385,
      "ĠSund": 7386,
      "switch": 7387,
      ")).": 7388,
      "oves": 7389,
      "Files": 7390,
      "browser": 7391,
      "domain": 7392,
      "hens": 7393,
      "Common": 7394,
      "Ġeverything": 7395,
      "dates": 7396,
      "Ġpresence": 7397,
      "aria": 7398,
      "ati": 7399,
      "Ġbrief": 7400,
      "ulty": 7401,
      "editor": 7402,
      "Ġgoes": 7403,
      "Symfony": 7404,
      "Ġquarter": 7405,
      "ustrial": 7406,
      "Ġbecoming": 7407,
      "Auto": 7408,
      "Ġimplements": 7409,
      "ĠGame": 7410,
      "Ġresulting": 7411,
      "Ġcarry": 7412,
      "Rad": 7413,
      "Ġillustr": 7414,
      "çļĦ": 7415,
      "ĠHot": 7416,
      "wild": 7417,
      "}-": 7418,
      "ĠFunction": 7419,
      "ĠEmpire": 7420,
      "ĠĠĠĠĠĠĠĠĠĠĠĠĠĠĠĠĠĠĠĠĠĠĠĠĠĠĠĠĠĠĠĠĠĠĠĠĠĠĠĠĠĠĠĠĠĠĠĠĠĠĠĠĠĠĠĠĠĠĠĠĠĠĠĠ": 7421,
      "network": 7422,
      "ĠChampionships": 7423,
      "watch": 7424,
      "ĠBritain": 7425,
      "orner": 7426,
      "istent": 7427,
      "configuration": 7428,
      "entials": 7429,
      "Ġ\"<": 7430,
      "oz": 7431,
      "ffic": 7432,
      "Selected": 7433,
      "Ġfair": 7434,
      "rate": 7435,
      "Ġip": 7436,
      "Ġshift": 7437,
      "Engine": 7438,
      "Ġforced": 7439,
      "Keys": 7440,
      "\\[": 7441,
      "Pointer": 7442,
      "ensed": 7443,
      "kw": 7444,
      "Ġhistorical": 7445,
      "Ġcommit": 7446,
      "\",\"": 7447,
      "Ġowned": 7448,
      "Ġmill": 7449,
      "ĠWindow": 7450,
      "Ġhusband": 7451,
      "ĠUpdate": 7452,
      "kins": 7453,
      "ĠPri": 7454,
      "apply": 7455,
      "ĠDev": 7456,
      "Term": 7457,
      "Prop": 7458,
      "Ġpointer": 7459,
      "enant": 7460,
      "150": 7461,
      "Ġlay": 7462,
      "Ġmachine": 7463,
      "1964": 7464,
      "mazon": 7465,
      "widet": 7466,
      "Ġfirm": 7467,
      "Ġnumerous": 7468,
      "Ġ=========": 7469,
      "Fail": 7470,
      "Ġdim": 7471,
      "Mapping": 7472,
      "à¸": 7473,
      "_(": 7474,
      "ĠLord": 7475,
      "uting": 7476,
      "irty": 7477,
      "NULL": 7478,
      "ĠIl": 7479,
      "Ġminimum": 7480,
      "Ġtemperature": 7481,
      "ĠDemocratic": 7482,
      "'ve": 7483,
      "1920": 7484,
      "Ġconsists": 7485,
      "tmp": 7486,
      "Py": 7487,
      "apped": 7488,
      "Success": 7489,
      "ĠAsia": 7490,
      "ĠSecretary": 7491,
      "Ġgreen": 7492,
      "Ġstra": 7493,
      "Ġefforts": 7494,
      "Ġrelations": 7495,
      "ĠWal": 7496,
      "Car": 7497,
      "Ġprem": 7498,
      "Duration": 7499,
      "Ġreports": 7500,
      "$/": 7501,
      "READ": 7502,
      "children": 7503,
      "IMP": 7504,
      "Ġdepartment": 7505,
      "Ġmostly": 7506,
      "osph": 7507,
      "Ġreli": 7508,
      "ĠValley": 7509,
      "Ġdeliver": 7510,
      "Ġreb": 7511,
      "ocity": 7512,
      "ova": 7513,
      "Ġelections": 7514,
      "Ġelem": 7515,
      "Ġmoving": 7516,
      "ĠSpain": 7517,
      "ilton": 7518,
      "each": 7519,
      "Ġwrong": 7520,
      "external": 7521,
      "poration": 7522,
      "SD": 7523,
      "ĉĉĉĉĉĉĉĉĉ": 7524,
      "erg": 7525,
      "Inv": 7526,
      "ĠSir": 7527,
      "inv": 7528,
      "Ġnorthern": 7529,
      ")),": 7530,
      "Ġsouthern": 7531,
      "Ġhope": 7532,
      "rase": 7533,
      "AF": 7534,
      "IB": 7535,
      "World": 7536,
      "ĠCross": 7537,
      "contains": 7538,
      "Ġshoot": 7539,
      "ĠJes": 7540,
      "aser": 7541,
      "tools": 7542,
      "Loc": 7543,
      "trigger": 7544,
      "attributes": 7545,
      "ĠThus": 7546,
      "bing": 7547,
      "orning": 7548,
      "look": 7549,
      "RAN": 7550,
      "itors": 7551,
      "ĠReview": 7552,
      "Dest": 7553,
      "ĠGreek": 7554,
      "ĠSol": 7555,
      "total": 7556,
      "eller": 7557,
      "Ġquestions": 7558,
      "ipality": 7559,
      "Ġregions": 7560,
      "iki": 7561,
      "Ġabsolute": 7562,
      "Ġreflect": 7563,
      "tabs": 7564,
      "ĠIII": 7565,
      "akistan": 7566,
      "dim": 7567,
      "Pack": 7568,
      "ĠHon": 7569,
      "dx": 7570,
      "ĠExt": 7571,
      "Ġpool": 7572,
      "Ġones": 7573,
      "bytes": 7574,
      "Ġcounty": 7575,
      "sel": 7576,
      "Ġpred": 7577,
      "called": 7578,
      "Ġmixed": 7579,
      "1965": 7580,
      "rich": 7581,
      "haps": 7582,
      "ĠAtt": 7583,
      "ĠMP": 7584,
      "standing": 7585,
      "getName": 7586,
      "limit": 7587,
      "typedef": 7588,
      "nonumber": 7589,
      "SER": 7590,
      "Ġharm": 7591,
      "Ġmessages": 7592,
      "Ġseasons": 7593,
      "ĠHuman": 7594,
      "builder": 7595,
      "widetilde": 7596,
      "ĠStat": 7597,
      "Ä±": 7598,
      "Ġproviding": 7599,
      "Ġdetermined": 7600,
      "Statement": 7601,
      "Ġtesting": 7602,
      "Ġupdated": 7603,
      "Ġfif": 7604,
      "Ġsal": 7605,
      "IE": 7606,
      "ooks": 7607,
      "Failed": 7608,
      "angular": 7609,
      "Ġslow": 7610,
      "libr": 7611,
      "Ġriver": 7612,
      "Ġappearance": 7613,
      "Ġspirit": 7614,
      "ĠGood": 7615,
      "Ġuniversity": 7616,
      "Double": 7617,
      "Scroll": 7618,
      "Ġgeneration": 7619,
      "Ġhar": 7620,
      "Ġvs": 7621,
      "sumer": 7622,
      "Ġpeak": 7623,
      ",-": 7624,
      "Ġassume": 7625,
      "Ġencoding": 7626,
      "ĠBob": 7627,
      "Ã£": 7628,
      "ona": 7629,
      "expr": 7630,
      "[$": 7631,
      "Ġadministration": 7632,
      "ĠIOException": 7633,
      "iated": 7634,
      "ĠAR": 7635,
      "SY": 7636,
      "ĠLi": 7637,
      "Ġtrust": 7638,
      "Services": 7639,
      "rick": 7640,
      "IPT": 7641,
      "Ġult": 7642,
      "Ġoil": 7643,
      "Ġreq": 7644,
      "istration": 7645,
      "SR": 7646,
      "Ġ[],": 7647,
      "Ġxmlns": 7648,
      "cribe": 7649,
      "raq": 7650,
      "Ġvisible": 7651,
      "Ġsupp": 7652,
      "fail": 7653,
      ">:": 7654,
      "Ġcultural": 7655,
      "Ġinstalled": 7656,
      "ÐµÐ": 7657,
      "claim": 7658,
      "relation": 7659,
      "Ġdespite": 7660,
      "Ġwind": 7661,
      "Details": 7662,
      "Ġdraft": 7663,
      "SCR": 7664,
      "Ġenjoy": 7665,
      "posite": 7666,
      "ĠSenate": 7667,
      "ĠHistoric": 7668,
      "Ġbus": 7669,
      "Ġwood": 7670,
      "Ġcentre": 7671,
      "ĠPennsylvania": 7672,
      "Ġbillion": 7673,
      "1966": 7674,
      "Ġinform": 7675,
      "Ġexpert": 7676,
      "Ġframework": 7677,
      "atible": 7678,
      "}}{": 7679,
      "aters": 7680,
      "ĠParam": 7681,
      "ĠHere": 7682,
      "Remove": 7683,
      "Ġthr": 7684,
      "Repository": 7685,
      "urban": 7686,
      "ishes": 7687,
      "Ġcities": 7688,
      "Ġfig": 7689,
      "Scale": 7690,
      "operation": 7691,
      "enth": 7692,
      "herited": 7693,
      "Video": 7694,
      "Ġhospital": 7695,
      "Ġbey": 7696,
      "ĠBusiness": 7697,
      "Browser": 7698,
      "loc": 7699,
      "Socket": 7700,
      "Ġanim": 7701,
      "ĠMain": 7702,
      "Ġapplications": 7703,
      "Ġdemand": 7704,
      "Space": 7705,
      "Ġfle": 7706,
      "ĠEnter": 7707,
      "Single": 7708,
      "TEXT": 7709,
      "ĠPoint": 7710,
      "Ġpurs": 7711,
      "Ġuseful": 7712,
      "nil": 7713,
      "ectors": 7714,
      "aver": 7715,
      "Ġdebug": 7716,
      "Ġelectric": 7717,
      "Ġnorm": 7718,
      "CHECK": 7719,
      "Med": 7720,
      "ĠLocal": 7721,
      "Ġrespond": 7722,
      "Gu": 7723,
      "elease": 7724,
      "ĠSouthern": 7725,
      "Ġran": 7726,
      "ceeded": 7727,
      "Ġeasy": 7728,
      "ifdef": 7729,
      "Ġquickly": 7730,
      "MC": 7731,
      "ĠCommand": 7732,
      "ALSE": 7733,
      "headers": 7734,
      "Pay": 7735,
      "Ġgets": 7736,
      "ĠEarth": 7737,
      "Ġfactory": 7738,
      "Ġencour": 7739,
      "idx": 7740,
      "ĠNumber": 7741,
      "Ġsuc": 7742,
      "Ġsea": 7743,
      "Ġtheme": 7744,
      "ĠCentre": 7745,
      "Ġmagazine": 7746,
      "Ġmanaged": 7747,
      "ĠMov": 7748,
      "Ġreferred": 7749,
      "stone": 7750,
      "Collections": 7751,
      "wrapper": 7752,
      "cup": 7753,
      "Dem": 7754,
      "Ġ[[": 7755,
      "Ġarm": 7756,
      "Route": 7757,
      "Ġpassword": 7758,
      "ĠProvince": 7759,
      "Ġbeyond": 7760,
      "Ġgiving": 7761,
      "Ġstrategy": 7762,
      "ĠSpecial": 7763,
      "aval": 7764,
      "Ġvocals": 7765,
      "shadow": 7766,
      "Ġcompletely": 7767,
      "Ġblocks": 7768,
      "Ġcitizens": 7769,
      "prox": 7770,
      "ĠPop": 7771,
      "webpack": 7772,
      "Ġchampionship": 7773,
      "mond": 7774,
      "parameters": 7775,
      "Ġmix": 7776,
      "Ġarmy": 7777,
      "ĠJohnson": 7778,
      "More": 7779,
      "Ġjoint": 7780,
      "ĠGets": 7781,
      "ĠEconom": 7782,
      "120": 7783,
      "oped": 7784,
      "wer": 7785,
      "Sche": 7786,
      "phone": 7787,
      "FIG": 7788,
      "chor": 7789,
      "yg": 7790,
      "ums": 7791,
      "STAT": 7792,
      "dist": 7793,
      "Ġisn": 7794,
      "indent": 7795,
      "128": 7796,
      "triev": 7797,
      "High": 7798,
      "Constants": 7799,
      "ountry": 7800,
      "ĠMi": 7801,
      "emporary": 7802,
      "green": 7803,
      "Ġtrial": 7804,
      "!\\": 7805,
      "ĠSar": 7806,
      "Ġcarried": 7807,
      "lig": 7808,
      "Ġcolon": 7809,
      "Ġsizeof": 7810,
      "ĠSecurity": 7811,
      "Ġpanel": 7812,
      "ĠEgypt": 7813,
      "arant": 7814,
      "3333": 7815,
      "ĠJones": 7816,
      ";\\": 7817,
      "Ġweak": 7818,
      "Ġoccur": 7819,
      "Sync": 7820,
      "arsed": 7821,
      "Ġaffect": 7822,
      "Ġcensus": 7823,
      "ultural": 7824,
      "AX": 7825,
      "bul": 7826,
      "arden": 7827,
      "ĠJava": 7828,
      "Ġpositions": 7829,
      "Ġunivers": 7830,
      "navList": 7831,
      "mask": 7832,
      "ĠMichigan": 7833,
      "Psi": 7834,
      "Ġsegment": 7835,
      "riteria": 7836,
      "Åį": 7837,
      "Ġrg": 7838,
      "ĠJustice": 7839,
      "Ġprobability": 7840,
      "eval": 7841,
      "Ġspread": 7842,
      "Abstract": 7843,
      "cluded": 7844,
      "colLast": 7845,
      "protected": 7846,
      "shared": 7847,
      "Ġoccurred": 7848,
      "Ġthous": 7849,
      "aming": 7850,
      "(__": 7851,
      "ĠAction": 7852,
      "ĠConference": 7853,
      "Full": 7854,
      "ITE": 7855,
      "aka": 7856,
      "Ġcli": 7857,
      "Ġbrowser": 7858,
      "MB": 7859,
      "Ġctx": 7860,
      "variant": 7861,
      "Ġvoice": 7862,
      "Generator": 7863,
      "Simple": 7864,
      "FFFF": 7865,
      "ĠSO": 7866,
      "Ġheavy": 7867,
      "netic": 7868,
      "ussian": 7869,
      "Ġcells": 7870,
      "------------": 7871,
      "Ġfamous": 7872,
      "Ġpeace": 7873,
      "ĠĠĠĠĠĠĠĠĠĠĠĠĠĠĠĠĠĠĠĠĠĠĠĠĠĠĠĠĠĠĠĠĠĠĠĠĠĠĠĠĠĠĠ": 7874,
      "elligence": 7875,
      "jpg": 7876,
      "Ġmicro": 7877,
      "Ġdisease": 7878,
      "ĠBattle": 7879,
      "FLA": 7880,
      "Ġdecre": 7881,
      "fri": 7882,
      "ĠGi": 7883,
      "ĠAND": 7884,
      "Ġdeploy": 7885,
      "ski": 7886,
      "Global": 7887,
      "Ġ\",": 7888,
      "Ġinitially": 7889,
      "Ġreduce": 7890,
      "Ġimprove": 7891,
      "linear": 7892,
      "unior": 7893,
      "Ġestimated": 7894,
      "Ġpressure": 7895,
      "ĠGar": 7896,
      "ancing": 7897,
      "Ġtypeof": 7898,
      "ologies": 7899,
      "\\]": 7900,
      "ĠĠĠĊ": 7901,
      "Product": 7902,
      "inois": 7903,
      "Ġloop": 7904,
      "uset": 7905,
      "provider": 7906,
      "deg": 7907,
      "ĠÅ": 7908,
      "effect": 7909,
      "inners": 7910,
      "Section": 7911,
      "ez": 7912,
      "Ġcalling": 7913,
      "ĠWill": 7914,
      "Ġ×": 7915,
      "ĠFI": 7916,
      "ographic": 7917,
      "bury": 7918,
      "While": 7919,
      "ĠMany": 7920,
      "anging": 7921,
      "Career": 7922,
      "platform": 7923,
      "ĠTheir": 7924,
      "colFirst": 7925,
      "Ġexamples": 7926,
      "Ġdefeated": 7927,
      "Cap": 7928,
      "Ġsecret": 7929,
      "ĠAff": 7930,
      "!!": 7931,
      "Ġoffered": 7932,
      "Ġfiction": 7933,
      "Ġprefer": 7934,
      "ĠAri": 7935,
      "Ġprice": 7936,
      "hide": 7937,
      "Ġserving": 7938,
      "ĠĠĠĠĠĠĠĠĠĠĠĠĠĠĠĠĠĠĠĠĠĠĠĠĠĠĠĠĠ": 7939,
      "defined": 7940,
      "ĠOhio": 7941,
      "Ġliterature": 7942,
      "iques": 7943,
      "Ġsquare": 7944,
      "Cast": 7945,
      "fully": 7946,
      "Ġopportunity": 7947,
      "ĠIndex": 7948,
      "role": 7949,
      "seud": 7950,
      "ctrine": 7951,
      "gebra": 7952,
      "textwidth": 7953,
      "INFO": 7954,
      "lemma": 7955,
      "ĠMuslim": 7956,
      "Ġofficers": 7957,
      "junit": 7958,
      "Author": 7959,
      "metric": 7960,
      "ifically": 7961,
      "parser": 7962,
      "filename": 7963,
      "ĠTele": 7964,
      "Ġprofessor": 7965,
      "Ġpush": 7966,
      "Ġboundary": 7967,
      "ĠGre": 7968,
      "variable": 7969,
      "ĠSupreme": 7970,
      "duled": 7971,
      "ĠBul": 7972,
      "stein": 7973,
      "ĠSong": 7974,
      "Ġrailway": 7975,
      "Ġdrama": 7976,
      "pective": 7977,
      "Category": 7978,
      "Ġnine": 7979,
      "\"/": 7980,
      "ĠRadio": 7981,
      "Wrapper": 7982,
      "Attr": 7983,
      "emon": 7984,
      ".\");": 7985,
      "Ġlic": 7986,
      "Ġlicense": 7987,
      "Ġcat": 7988,
      "Ġvictory": 7989,
      "aste": 7990,
      "Ġdetail": 7991,
      "ĠOx": 7992,
      "ĠÂ£": 7993,
      "uries": 7994,
      "ĠHash": 7995,
      "Ġenable": 7996,
      "SQL": 7997,
      "prefix": 7998,
      "Ġvel": 7999,
      "åı": 8000,
      "Ġabstract": 8001,
      "dialog": 8002,
      "ĠEq": 8003,
      "Ġut": 8004,
      "serial": 8005,
      "ulf": 8006,
      "Ġrequests": 8007,
      "dp": 8008,
      "Ġreduced": 8009,
      "bitr": 8010,
      "Ġleaving": 8011,
      "sex": 8012,
      "ĠCommon": 8013,
      "Ġfelt": 8014,
      "Ġ=======": 8015,
      "ĠHead": 8016,
      "Cert": 8017,
      "Role": 8018,
      "Ġidentified": 8019,
      "Ġmultip": 8020,
      "ĠPass": 8021,
      "ĠPacific": 8022,
      "Ġexecutive": 8023,
      "Mut": 8024,
      "Ġequivalent": 8025,
      "Ġconstructor": 8026,
      "jango": 8027,
      "Ġcru": 8028,
      "ydro": 8029,
      "unct": 8030,
      "Ġlaunch": 8031,
      "Ġmentioned": 8032,
      "mann": 8033,
      "Ġdoub": 8034,
      "Ġwaves": 8035,
      "Ġil": 8036,
      "Ġextract": 8037,
      "Ġclaimed": 8038,
      "ancer": 8039,
      "DULE": 8040,
      "Ã£o": 8041,
      "ĠBoston": 8042,
      "Ġscheme": 8043,
      ";}": 8044,
      "Ġviews": 8045,
      "ĠRequest": 8046,
      "ĠJersey": 8047,
      "Ġtx": 8048,
      "Ġsexual": 8049,
      "Opt": 8050,
      "Ġ$.": 8051,
      "rev": 8052,
      "Ġcovered": 8053,
      "swarm": 8054,
      "uly": 8055,
      "Ñĭ": 8056,
      "Ġappend": 8057,
      "ipment": 8058,
      "Ġprotocol": 8059,
      "ĠEach": 8060,
      "Character": 8061,
      "ĠUSA": 8062,
      "Ġdrop": 8063,
      "IST": 8064,
      "Ġversions": 8065,
      "1962": 8066,
      "ĠScotland": 8067,
      "Ġbeaut": 8068,
      "achment": 8069,
      "ĠCard": 8070,
      "ICE": 8071,
      "Ġvisual": 8072,
      "Ġhundred": 8073,
      "HR": 8074,
      "ĠHome": 8075,
      "ĠFederal": 8076,
      "identifier": 8077,
      "kl": 8078,
      "ĠHa": 8079,
      "Gen": 8080,
      "Ġmask": 8081,
      "=\"${": 8082,
      "ĠOnly": 8083,
      "maven": 8084,
      "Ġappropriate": 8085,
      "1963": 8086,
      "Ġofficials": 8087,
      "sys": 8088,
      "ĠRo": 8089,
      "Ġconsequ": 8090,
      "ĠWilliams": 8091,
      "\\{": 8092,
      "Ġclaims": 8093,
      "wildfly": 8094,
      "ACT": 8095,
      "ĠLu": 8096,
      "allclasses": 8097,
      "Ġprove": 8098,
      "Ġclimate": 8099,
      "Ġ\"-": 8100,
      "CESS": 8101,
      "VM": 8102,
      "Ġhyp": 8103,
      "Ġissued": 8104,
      "cred": 8105,
      "ĠMah": 8106,
      "amm": 8107,
      "ĠElement": 8108,
      "Ġmarriage": 8109,
      "ĠAsian": 8110,
      "prime": 8111,
      "Att": 8112,
      "Registry": 8113,
      "ÑĮ": 8114,
      "ĠBet": 8115,
      "je": 8116,
      "Ġbul": 8117,
      "ennis": 8118,
      "ĠElect": 8119,
      "pa": 8120,
      "Ġqueue": 8121,
      "fd": 8122,
      "ocaml": 8123,
      "emy": 8124,
      "mir": 8125,
      "ĠJac": 8126,
      "ĠRh": 8127,
      "ĠLiber": 8128,
      "adel": 8129,
      "Ġassigned": 8130,
      "agraph": 8131,
      "=(": 8132,
      "Ġnotice": 8133,
      "tags": 8134,
      "Ġbelieved": 8135,
      "quis": 8136,
      "decl": 8137,
      "Ġsurvey": 8138,
      "Ġpil": 8139,
      "Landroid": 8140,
      "Password": 8141,
      "ĠĠĠĠĠĠĠĠĠĠĠĠĠĠĠĠĠĠĠĠĠĠĠĠĠĠ": 8142,
      "Ġru": 8143,
      "According": 8144,
      "OUT": 8145,
      "ĠServices": 8146,
      "Ġleadership": 8147,
      "May": 8148,
      "Ġdigital": 8149,
      "Ġtrigger": 8150,
      "props": 8151,
      ".<": 8152,
      "Ġpatients": 8153,
      "ĠFrancisco": 8154,
      "ĠQueen": 8155,
      "abeth": 8156,
      "BP": 8157,
      "cean": 8158,
      "Ġflags": 8159,
      "izable": 8160,
      "Ġque": 8161,
      "Ġdir": 8162,
      "ĠLo": 8163,
      "Ġsusp": 8164,
      "Ġregional": 8165,
      "ĠLab": 8166,
      "Trace": 8167,
      "Ġarchitecture": 8168,
      "fx": 8169,
      "ĠTro": 8170,
      "Ġexc": 8171,
      "Ġfinite": 8172,
      "Ġpages": 8173,
      "Ġadult": 8174,
      "Ġ{\"": 8175,
      "Ġmuseum": 8176,
      "Ġsetup": 8177,
      ")-": 8178,
      "Ġseconds": 8179,
      "etic": 8180,
      "BE": 8181,
      "ĠIraq": 8182,
      "Ġdelay": 8183,
      "Nodes": 8184,
      "Ġintended": 8185,
      "conn": 8186,
      "Ġnavigation": 8187,
      "ighter": 8188,
      "Agent": 8189,
      "Texture": 8190,
      "ĠManagement": 8191,
      "Ġaccepted": 8192,
      "('.": 8193,
      "Ġgrowing": 8194,
      "ĠKong": 8195,
      "ila": 8196,
      "tbody": 8197,
      "()</": 8198,
      "Ġrecon": 8199,
      "detail": 8200,
      "Generated": 8201,
      "gest": 8202,
      "Ġsettlement": 8203,
      "exists": 8204,
      "alty": 8205,
      "Ġseat": 8206,
      "execute": 8207,
      "\"><!--": 8208,
      "ĠWall": 8209,
      "ĠPath": 8210,
      "Ġinner": 8211,
      "Ġchosen": 8212,
      "Ġmetadata": 8213,
      "Ġinteresting": 8214,
      "Example": 8215,
      "Cred": 8216,
      "achuset": 8217,
      "Ġfix": 8218,
      "Prefix": 8219,
      "=>": 8220,
      "ĠRepresent": 8221,
      "achusetts": 8222,
      "burgh": 8223,
      "zone": 8224,
      "ĠCD": 8225,
      "Rob": 8226,
      "ĠCarl": 8227,
      "Region": 8228,
      "Films": 8229,
      "nic": 8230,
      "?>": 8231,
      "HTTP": 8232,
      "Ã±": 8233,
      "ĠFigure": 8234,
      "ĠEdward": 8235,
      "Identifier": 8236,
      "ĠMen": 8237,
      "Ġreasons": 8238,
      "Ġactors": 8239,
      "URI": 8240,
      "ais": 8241,
      "ĠAlbert": 8242,
      "Ġessential": 8243,
      "Ġlatest": 8244,
      "ajax": 8245,
      "shift": 8246,
      "ĠKent": 8247,
      "Cor": 8248,
      "ĠProfessor": 8249,
      "alog": 8250,
      "ĠBlue": 8251,
      "ĠInteger": 8252,
      "TIME": 8253,
      "Ġraw": 8254,
      "Sample": 8255,
      "game": 8256,
      "Domain": 8257,
      "ffff": 8258,
      "ĠYour": 8259,
      "Ġsafety": 8260,
      "ĠAmericans": 8261,
      "Ġstrugg": 8262,
      "ĠGlobal": 8263,
      "svg": 8264,
      "itage": 8265,
      "ĠMu": 8266,
      "ĠBack": 8267,
      "Ġpiece": 8268,
      "uls": 8269,
      "emic": 8270,
      "NOT": 8271,
      "Ġreadonly": 8272,
      "ipped": 8273,
      "icip": 8274,
      "progress": 8275,
      "Ġchoose": 8276,
      "1944": 8277,
      "Ġacademic": 8278,
      "Arch": 8279,
      "asis": 8280,
      "ione": 8281,
      "................": 8282,
      "Ġoffers": 8283,
      "FS": 8284,
      "Ġenv": 8285,
      "upload": 8286,
      "acro": 8287,
      "ĠTheorem": 8288,
      "Help": 8289,
      "1961": 8290,
      "Ġslight": 8291,
      "ĠBow": 8292,
      "ĠStart": 8293,
      "ĠGeorgia": 8294,
      "ndef": 8295,
      "ĠIllinois": 8296,
      "collection": 8297,
      "compiler": 8298,
      "ĠPakistan": 8299,
      "secut": 8300,
      "ĠCopyright": 8301,
      "áĥ": 8302,
      "SCRIPT": 8303,
      "'));": 8304,
      "ĠRepublican": 8305,
      "Ġ[\"": 8306,
      "Ġdepth": 8307,
      "Ġ?>": 8308,
      "zz": 8309,
      "ĠGra": 8310,
      "Uri": 8311,
      "Ġrecording": 8312,
      "Ġbinary": 8313,
      "details": 8314,
      "Ġsites": 8315,
      "andon": 8316,
      "prev": 8317,
      "TA": 8318,
      "Props": 8319,
      "urer": 8320,
      "Ġworth": 8321,
      "dimension": 8322,
      "Ġlands": 8323,
      "black": 8324,
      "Ġsuccessfully": 8325,
      "Ġlab": 8326,
      "temp": 8327,
      "Sequence": 8328,
      "Ġeasily": 8329,
      "Ġresidents": 8330,
      "Ġfellow": 8331,
      "ĠJr": 8332,
      "Ġclassical": 8333,
      "Ġconstructed": 8334,
      "Ġprev": 8335,
      "agger": 8336,
      "ĠAlb": 8337,
      "ĠLatin": 8338,
      "}+": 8339,
      "Ġplot": 8340,
      "prise": 8341,
      "ĠInformation": 8342,
      "ĠHttp": 8343,
      "osa": 8344,
      "Ġcombined": 8345,
      "Ġsummary": 8346,
      "Ġnomin": 8347,
      "Ġforest": 8348,
      "Ġsingles": 8349,
      "Ġderived": 8350,
      "IA": 8351,
      "ĠMajor": 8352,
      "ibli": 8353,
      "clusive": 8354,
      "Ġaim": 8355,
      "ĠDutch": 8356,
      "Ġexchange": 8357,
      "^^": 8358,
      "Ġordered": 8359,
      "'ll": 8360,
      "Pub": 8361,
      "opes": 8362,
      "ivation": 8363,
      "ÐµÐ½": 8364,
      "Ġcancer": 8365,
      "Ġopin": 8366,
      "single": 8367,
      "gers": 8368,
      "Ġpaid": 8369,
      "Ġeconomy": 8370,
      "Selection": 8371,
      "Ġdynam": 8372,
      "har": 8373,
      "Ġwestern": 8374,
      "Ġpartner": 8375,
      "ĉĠĠĠĠĠ": 8376,
      "ĠReact": 8377,
      "Ġreader": 8378,
      "Ġincorpor": 8379,
      "Ġdistinct": 8380,
      "zen": 8381,
      "ĠKorea": 8382,
      "WN": 8383,
      "ffect": 8384,
      "Ġprefix": 8385,
      "ĠEastern": 8386,
      "phy": 8387,
      "amaz": 8388,
      "zeta": 8389,
      "lan": 8390,
      "orney": 8391,
      "lean": 8392,
      "original": 8393,
      "600": 8394,
      "ĠTheatre": 8395,
      "weet": 8396,
      "Ġtracks": 8397,
      "Ġmaterials": 8398,
      "ĠEqu": 8399,
      "testing": 8400,
      "endor": 8401,
      "Depend": 8402,
      "IND": 8403,
      "Ġpromin": 8404,
      "Ġassess": 8405,
      "Ġconcert": 8406,
      "ĠBern": 8407,
      "ĠNAME": 8408,
      "Cluster": 8409,
      "pet": 8410,
      "Ġfit": 8411,
      "aught": 8412,
      "Ġexactly": 8413,
      "Ġsteps": 8414,
      "Ġwild": 8415,
      "Game": 8416,
      "resources": 8417,
      "umerate": 8418,
      "Ġweap": 8419,
      "ãĢ": 8420,
      "otic": 8421,
      "ĠSpec": 8422,
      "ĠTechnology": 8423,
      "Ġalone": 8424,
      "aby": 8425,
      "estic": 8426,
      "Player": 8427,
      "Namespace": 8428,
      "Ġ{{": 8429,
      "BAR": 8430,
      "Ġsales": 8431,
      "WR": 8432,
      "ateway": 8433,
      "Tx": 8434,
      "Ġcoq": 8435,
      "ĠAuthor": 8436,
      "services": 8437,
      "fix": 8438,
      "ĠHTTP": 8439,
      "extern": 8440,
      "Ġpoliticians": 8441,
      "<!": 8442,
      "Resources": 8443,
      "National": 8444,
      "eleted": 8445,
      "CRE": 8446,
      "gs": 8447,
      "Ġvertical": 8448,
      "Ġtypically": 8449,
      "Some": 8450,
      "}:": 8451,
      "atics": 8452,
      "iced": 8453,
      "Ġcouncil": 8454,
      "}=\\": 8455,
      "Ġshowed": 8456,
      "awn": 8457,
      "Ġice": 8458,
      "ĠRam": 8459,
      "etailed": 8460,
      "Ġsamples": 8461,
      "Ġrepresenting": 8462,
      "aya": 8463,
      "Comment": 8464,
      "Ġple": 8465,
      "ĠPage": 8466,
      "Ġsolutions": 8467,
      "Headers": 8468,
      "Ġgal": 8469,
      "collapse": 8470,
      "Ġsister": 8471,
      "Ġarticles": 8472,
      "ĠAustri": 8473,
      "ĠOrgan": 8474,
      "Ġstrateg": 8475,
      "Pair": 8476,
      "Ġdiscovered": 8477,
      "Ġpi": 8478,
      "Ġpropos": 8479,
      "Ġlayout": 8480,
      "Ġcriminal": 8481,
      "Ġearned": 8482,
      "Bi": 8483,
      "going": 8484,
      "INS": 8485,
      "ĠAndrew": 8486,
      "errors": 8487,
      "owner": 8488,
      "Ġmainly": 8489,
      "Ġblood": 8490,
      "ĠIE": 8491,
      "%,": 8492,
      "Ġpsych": 8493,
      "arters": 8494,
      "tex": 8495,
      "ĠCro": 8496,
      ")=\\": 8497,
      "ĠStan": 8498,
      "ĠTH": 8499,
      "invalid": 8500,
      "ĠLOG": 8501,
      "generated": 8502,
      "enger": 8503,
      "atar": 8504,
      "Ġ\\{": 8505,
      "illy": 8506,
      ")}\\": 8507,
      "oles": 8508,
      "olec": 8509,
      "1948": 8510,
      "login": 8511,
      "protocol": 8512,
      "assembly": 8513,
      "ĠImage": 8514,
      "Ġproxy": 8515,
      "Second": 8516,
      "IVE": 8517,
      "enabled": 8518,
      "Ġconference": 8519,
      "ĠColumbia": 8520,
      "ĠReport": 8521,
      "Ġlisting": 8522,
      "Further": 8523,
      "aylor": 8524,
      "riority": 8525,
      "Ġdocuments": 8526,
      "wa": 8527,
      "ĠFree": 8528,
      "Ġunderstanding": 8529,
      "Ġpet": 8530,
      "blue": 8531,
      "NT": 8532,
      "JS": 8533,
      "Ġdiss": 8534,
      "brief": 8535,
      "Ġrare": 8536,
      "TRUE": 8537,
      "ĠMassachusetts": 8538,
      "Ġ],": 8539,
      "Ġdepart": 8540,
      "she": 8541,
      "Ġlabor": 8542,
      "Visible": 8543,
      "Ġdefend": 8544,
      "Ġstock": 8545,
      "Ġships": 8546,
      "rim": 8547,
      "eners": 8548,
      "Ġconcent": 8549,
      "Ġnom": 8550,
      "Ġquantum": 8551,
      "ĠCy": 8552,
      "OD": 8553,
      ")->": 8554,
      "Ġpolitics": 8555,
      "Ġforeach": 8556,
      "done": 8557,
      "ods": 8558,
      "itical": 8559,
      "feature": 8560,
      "ĠWay": 8561,
      "Ġclick": 8562,
      "ĠWell": 8563,
      "General": 8564,
      "Ġrect": 8565,
      "ĠUI": 8566,
      "Ġbill": 8567,
      "onto": 8568,
      "Google": 8569,
      "ĠResource": 8570,
      "ĠWAR": 8571,
      "ĠGovernor": 8572,
      "1939": 8573,
      "odies": 8574,
      "Ġdataset": 8575,
      "LECT": 8576,
      "username": 8577,
      "Report": 8578,
      "storage": 8579,
      "1942": 8580,
      "Ġtimeout": 8581,
      "cher": 8582,
      "Ġuniform": 8583,
      "ependence": 8584,
      "Delegate": 8585,
      "}^\\": 8586,
      "Ġoperating": 8587,
      "aren": 8588,
      "async": 8589,
      "Ġ'<": 8590,
      "Ġinstitutions": 8591,
      "ĠPrem": 8592,
      "low": 8593,
      "Ġevolution": 8594,
      "Ġheaders": 8595,
      ";)": 8596,
      "axis": 8597,
      "Ġrelevant": 8598,
      "Ġcrime": 8599,
      "Ġguest": 8600,
      "Ġconducted": 8601,
      "Ġyouth": 8602,
      "Ġcontinuous": 8603,
      "ĠBoth": 8604,
      "MT": 8605,
      "Ġfort": 8606,
      "ĠHospital": 8607,
      "Ġretired": 8608,
      "Äį": 8609,
      "Ġanswer": 8610,
      "Ġdict": 8611,
      "essions": 8612,
      "ĠPower": 8613,
      "Ġtranslate": 8614,
      "eces": 8615,
      "ĠPoland": 8616,
      "ruby": 8617,
      "ĠLuc": 8618,
      "rovers": 8619,
      "ĠCoast": 8620,
      "safe": 8621,
      "theme": 8622,
      "enable": 8623,
      "USE": 8624,
      "Conn": 8625,
      "ĠBas": 8626,
      "Ġmotion": 8627,
      "Ġremote": 8628,
      "Ġsignature": 8629,
      "Ġmenu": 8630,
      "1956": 8631,
      "Ġattacks": 8632,
      "Ġexit": 8633,
      "Import": 8634,
      "users": 8635,
      "ĠLib": 8636,
      "Ġroles": 8637,
      "ĠEp": 8638,
      "uv": 8639,
      "special": 8640,
      "Ġtasks": 8641,
      "ĠArrayList": 8642,
      "ĠSand": 8643,
      "Ġimag": 8644,
      "ĠASSERT": 8645,
      "Ġlif": 8646,
      "ĠJackson": 8647,
      "omorph": 8648,
      "Returns": 8649,
      "ĠSea": 8650,
      "Two": 8651,
      "stable": 8652,
      "ĠVan": 8653,
      "outer": 8654,
      "Stats": 8655,
      "isms": 8656,
      "Ġlanguages": 8657,
      "Ġfactors": 8658,
      "{%": 8659,
      "Ġenum": 8660,
      "indexOf": 8661,
      "ĠInf": 8662,
      "Ġnullptr": 8663,
      "DT": 8664,
      "Ġprep": 8665,
      "rawn": 8666,
      "Ġtemp": 8667,
      "moz": 8668,
      "ĠPhilipp": 8669,
      "ĠTherefore": 8670,
      "Ġattract": 8671,
      "archy": 8672,
      "article": 8673,
      "Dat": 8674,
      "ĠCommunity": 8675,
      "ĠHarr": 8676,
      "fire": 8677,
      "Ġnp": 8678,
      "ĠRights": 8679,
      "DEBUG": 8680,
      "\"\"\"": 8681,
      "Ġens": 8682,
      "Mer": 8683,
      "=-": 8684,
      "Ġauthority": 8685,
      "random": 8686,
      "Ġexpansion": 8687,
      "pressed": 8688,
      "ĠConf": 8689,
      "iteral": 8690,
      "mooth": 8691,
      "ancell": 8692,
      "pear": 8693,
      "ĠLy": 8694,
      "Ġretriev": 8695,
      "springframework": 8696,
      "Ġattend": 8697,
      "VID": 8698,
      "sky": 8699,
      "ĠjQuery": 8700,
      "EEEE": 8701,
      "Ġcontroller": 8702,
      "fixed": 8703,
      "RES": 8704,
      "Ġprotection": 8705,
      "}'": 8706,
      "Ġcolumns": 8707,
      "250": 8708,
      "jd": 8709,
      "Ġok": 8710,
      "ĠMicrosoft": 8711,
      "Ġbatt": 8712,
      "ĠPrince": 8713,
      "apos": 8714,
      "depth": 8715,
      "LOCK": 8716,
      "Ġsafe": 8717,
      "Ġsector": 8718,
      "Ġbridge": 8719,
      "pton": 8720,
      "Ġcomedy": 8721,
      "Progress": 8722,
      "rical": 8723,
      "Ġtypename": 8724,
      "ucky": 8725,
      "OB": 8726,
      "ifiers": 8727,
      "ĠAny": 8728,
      "glyph": 8729,
      "illi": 8730,
      "ÅĤ": 8731,
      "mathsf": 8732,
      "1959": 8733,
      "1958": 8734,
      "Ġfill": 8735,
      "cdn": 8736,
      "Ġgrid": 8737,
      "player": 8738,
      "/_": 8739,
      "Ð¸Ð": 8740,
      "ĠKenn": 8741,
      "report": 8742,
      "DateTime": 8743,
      "Ġestim": 8744,
      "Ġdownload": 8745,
      "Ġregistered": 8746,
      "Ġratio": 8747,
      "ĠBroad": 8748,
      "Ġstraight": 8749,
      "Ġproceed": 8750,
      "Ġdeclared": 8751,
      "GR": 8752,
      "teen": 8753,
      "Ġcomposed": 8754,
      "Ġneut": 8755,
      "Ġbass": 8756,
      "Execut": 8757,
      "âĢĿ.": 8758,
      "oir": 8759,
      "Ġui": 8760,
      "here": 8761,
      "Ġcharset": 8762,
      "Ġverify": 8763,
      "flex": 8764,
      "Ġremember": 8765,
      "Ġfeat": 8766,
      "boost": 8767,
      "icted": 8768,
      "ĠWis": 8769,
      "sen": 8770,
      "Ġkept": 8771,
      "Ġstrings": 8772,
      "omial": 8773,
      "Ġprocessing": 8774,
      "zy": 8775,
      "Ġprocesses": 8776,
      "(@": 8777,
      "ĠOxford": 8778,
      "ĠSunday": 8779,
      "inity": 8780,
      "Ġlogger": 8781,
      "istribution": 8782,
      ">::": 8783,
      "Short": 8784,
      "}|": 8785,
      "1941": 8786,
      "FN": 8787,
      "ĠÐ¿": 8788,
      "sin": 8789,
      "video": 8790,
      "ĠMember": 8791,
      "since": 8792,
      "timeout": 8793,
      "eled": 8794,
      "Ġdedicated": 8795,
      "101": 8796,
      "ingham": 8797,
      "ĠMult": 8798,
      "Multi": 8799,
      "ading": 8800,
      "ĠWater": 8801,
      "throw": 8802,
      "odec": 8803,
      "ivery": 8804,
      "onia": 8805,
      "Ġfinish": 8806,
      "ĠJeff": 8807,
      "dem": 8808,
      "ĠWild": 8809,
      "Microsoft": 8810,
      "proxy": 8811,
      "ĠPolice": 8812,
      "ĠassertThat": 8813,
      "(.": 8814,
      "rift": 8815,
      "cheduler": 8816,
      "Ġadvant": 8817,
      "itionally": 8818,
      "unte": 8819,
      "Ġextrem": 8820,
      "odd": 8821,
      "ĠMid": 8822,
      "unities": 8823,
      "ĠRay": 8824,
      "Ġexecution": 8825,
      "ĠHong": 8826,
      "Ġeveryone": 8827,
      "Ġexpanded": 8828,
      "Total": 8829,
      "Ġcosts": 8830,
      "Ġpolicies": 8831,
      "1957": 8832,
      "formance": 8833,
      "pattern": 8834,
      "ĠPlan": 8835,
      "bserv": 8836,
      "ĠAdministr": 8837,
      "Compar": 8838,
      "Ġhands": 8839,
      "Ġconflict": 8840,
      "Ġtried": 8841,
      "ran": 8842,
      "sid": 8843,
      "Ġrates": 8844,
      "Ġspin": 8845,
      "PER": 8846,
      "ĠSom": 8847,
      "}_\\": 8848,
      "Ġcontrast": 8849,
      "extension": 8850,
      "gment": 8851,
      "Brit": 8852,
      "Ġpan": 8853,
      "ulpt": 8854,
      "Language": 8855,
      "Ġgirl": 8856,
      "zabeth": 8857,
      "Summary": 8858,
      "Ġmodified": 8859,
      "Ġideas": 8860,
      "213": 8861,
      "%)": 8862,
      "umes": 8863,
      "Ġarbitr": 8864,
      "=\"$": 8865,
      "Len": 8866,
      "unique": 8867,
      "Ġsufficient": 8868,
      "Ġmarked": 8869,
      "United": 8870,
      "ĠNight": 8871,
      "ĠĠĠĠĠĠĠĠĠĠĠĠĠĠĠĠĊ": 8872,
      "Ġcer": 8873,
      "python": 8874,
      "wall": 8875,
      "Ġheard": 8876,
      "ĠPortug": 8877,
      "Ġhol": 8878,
      "Ġleads": 8879,
      "orders": 8880,
      "world": 8881,
      "Ġcontinues": 8882,
      "tc": 8883,
      "Ġplugin": 8884,
      "ashed": 8885,
      "Ġaxis": 8886,
      "Ġacquired": 8887,
      "Dictionary": 8888,
      "scss": 8889,
      "oving": 8890,
      "CF": 8891,
      "\\'": 8892,
      "ĠBang": 8893,
      "ederation": 8894,
      "ĠResult": 8895,
      "1946": 8896,
      "Ġparser": 8897,
      "LL": 8898,
      "socket": 8899,
      "ĠBlock": 8900,
      "ĠĠĠĠĠĠĠĠĠĠĠĠĠĠĠĠĠĠĠĠĠĠĠĠĠĠĠĠ": 8901,
      "ummy": 8902,
      "Ġdevices": 8903,
      "$)": 8904,
      "ĠBBC": 8905,
      "Ġrgba": 8906,
      "ampions": 8907,
      "Ġrevealed": 8908,
      "ĠAli": 8909,
      "1943": 8910,
      "Ġresolution": 8911,
      "ĠStudies": 8912,
      "Ġalternative": 8913,
      "orough": 8914,
      "Ġarrived": 8915,
      "cha": 8916,
      "Miss": 8917,
      "MI": 8918,
      "Ġoperated": 8919,
      "Ġclin": 8920,
      "Ġnotes": 8921,
      "REQ": 8922,
      "ashion": 8923,
      "Ġawards": 8924,
      "ĠViet": 8925,
      "keep": 8926,
      "Ġready": 8927,
      "alo": 8928,
      "sb": 8929,
      "Bound": 8930,
      "thur": 8931,
      "factory": 8932,
      "Ġancient": 8933,
      "Ġsquad": 8934,
      "Mask": 8935,
      "Ġspeak": 8936,
      "ĠFace": 8937,
      "usform": 8938,
      "()))": 8939,
      "Ġ>>": 8940,
      "Ġpersonnel": 8941,
      "pres": 8942,
      "library": 8943,
      "Ġhonor": 8944,
      "VALID": 8945,
      "numerusform": 8946,
      "Transport": 8947,
      "Ġregarding": 8948,
      "fc": 8949,
      "Ġhappy": 8950,
      "Ġspan": 8951,
      ":\\": 8952,
      "ĠSte": 8953,
      "Ġtroops": 8954,
      "irds": 8955,
      "Ġphotograph": 8956,
      "ĠCa": 8957,
      "ben": 8958,
      "ĠGa": 8959,
      "helper": 8960,
      "ĠDocument": 8961,
      "Ġsust": 8962,
      "life": 8963,
      "widehat": 8964,
      "('/": 8965,
      "flag": 8966,
      "Ġdisabled": 8967,
      "ĠDar": 8968,
      "POST": 8969,
      "Ġbrand": 8970,
      "Ġfootballer": 8971,
      "Ġexistence": 8972,
      "amin": 8973,
      "blank": 8974,
      "Ġtruth": 8975,
      "Ids": 8976,
      "bro": 8977,
      "CTYPE": 8978,
      "Ġfocused": 8979,
      "ĠTR": 8980,
      "Ġaware": 8981,
      "cdots": 8982,
      "picker": 8983,
      "una": 8984,
      "wp": 8985,
      "amber": 8986,
      "Home": 8987,
      "DEFAULT": 8988,
      "Ġadj": 8989,
      "Then": 8990,
      "IGHT": 8991,
      "pu": 8992,
      "ĠDown": 8993,
      "Ġgenus": 8994,
      "('#": 8995,
      "Ġspeech": 8996,
      "ĠKen": 8997,
      "Users": 8998,
      "ĠWhe": 8999,
      "{\"": 9000,
      "Ġhappen": 9001,
      "ĠCorporation": 9002,
      "vin": 9003,
      "ĠMake": 9004,
      "Shape": 9005,
      "ĠJon": 9006,
      "EV": 9007,
      "Ġflat": 9008,
      "Ġperfect": 9009,
      "ĠMedical": 9010,
      "href": 9011,
      "checkbox": 9012,
      "ĠJean": 9013,
      "ITION": 9014,
      "ĠGuard": 9015,
      "ĠHung": 9016,
      "eld": 9017,
      "Ġcmd": 9018,
      "ĠOfficial": 9019,
      "ĠFour": 9020,
      "ĠArea": 9021,
      "Ġtools": 9022,
      "Tags": 9023,
      "Ġcontained": 9024,
      "Ġpurposes": 9025,
      "Ġminister": 9026,
      "amazon": 9027,
      "Ġoccurs": 9028,
      "Ġfreedom": 9029,
      "optional": 9030,
      "EEEEFF": 9031,
      "Ġmatching": 9032,
      "800": 9033,
      "reatest": 9034,
      "raine": 9035,
      "ĠExecut": 9036,
      "Ġfrequency": 9037,
      "Ġentries": 9038,
      "Ġidx": 9039,
      "MODULE": 9040,
      "outheast": 9041,
      "VALUE": 9042,
      "1947": 9043,
      "Ġhouses": 9044,
      "FORM": 9045,
      "1952": 9046,
      "required": 9047,
      "ĠPrime": 9048,
      "imitive": 9049,
      "Ġviolence": 9050,
      "ĠScottish": 9051,
      "ĠLittle": 9052,
      "chester": 9053,
      "Ġfish": 9054,
      "poss": 9055,
      "Ġcompare": 9056,
      "1955": 9057,
      "Endpoint": 9058,
      "Ġsubsequently": 9059,
      "ĠDaniel": 9060,
      "tk": 9061,
      "nodes": 9062,
      "Ġmeant": 9063,
      "Ġanimation": 9064,
      "ĠColl": 9065,
      "Vertex": 9066,
      "itled": 9067,
      "ĠCapt": 9068,
      "{(": 9069,
      "person": 9070,
      "Ġadding": 9071,
      "ĠVector": 9072,
      "Ġboy": 9073,
      "Ġgranted": 9074,
      "Ġfine": 9075,
      "Ġul": 9076,
      "ĠBol": 9077,
      "Ġsupports": 9078,
      "Compiler": 9079,
      "Ġ..": 9080,
      "agent": 9081,
      "ressed": 9082,
      "Ġelim": 9083,
      "Ġonto": 9084,
      "Ġinteg": 9085,
      "']['": 9086,
      "xhtml": 9087,
      "Methods": 9088,
      "yo": 9089,
      "ĠCreek": 9090,
      "Ġera": 9091,
      "Ð°Ð½": 9092,
      "when": 9093,
      "loader": 9094,
      "ester": 9095,
      "Ġshowing": 9096,
      "ĠFar": 9097,
      "Ġcomments": 9098,
      "Ġstatistics": 9099,
      "Ġstreet": 9100,
      "Env": 9101,
      "ĠWalk": 9102,
      "Wallet": 9103,
      "osis": 9104,
      "kt": 9105,
      "Ġdrive": 9106,
      "ĠCollection": 9107,
      "iser": 9108,
      "cknow": 9109,
      "Interval": 9110,
      "Fin": 9111,
      ")^{": 9112,
      "Syntax": 9113,
      "DOCTYPE": 9114,
      "Ġwall": 9115,
      "maml": 9116,
      "Ġpowerful": 9117,
      "println": 9118,
      "Ġ\\\"": 9119,
      "}}(": 9120,
      "Ġpal": 9121,
      "scr": 9122,
      "ĠJoe": 9123,
      "Ġprimarily": 9124,
      "Ġmiles": 9125,
      "Ġconfirmed": 9126,
      "ĠBrook": 9127,
      "iful": 9128,
      "1954": 9129,
      "Volume": 9130,
      "ĠAS": 9131,
      "ĠBerlin": 9132,
      "ĠMot": 9133,
      "ologist": 9134,
      "PROJECT": 9135,
      "clean": 9136,
      "Ġgrew": 9137,
      "ĠRegion": 9138,
      "Ġsport": 9139,
      "Ġsupply": 9140,
      "ĠCirc": 9141,
      "Ġstarts": 9142,
      "Ġprovider": 9143,
      "Ġaudio": 9144,
      "ĠExample": 9145,
      "ĠOriginal": 9146,
      "Ġrequirements": 9147,
      "Skip": 9148,
      "»¿": 9149,
      "ĠFurther": 9150,
      "iÄĩ": 9151,
      "Bean": 9152,
      "STATE": 9153,
      "ĠFC": 9154,
      "Ġfacilities": 9155,
      "Ġrelatively": 9156,
      "imb": 9157,
      "Ġdocumentation": 9158,
      "Ġtransparent": 9159,
      "nn": 9160,
      "antry": 9161,
      "plus": 9162,
      "Ġfaith": 9163,
      "sidebar": 9164,
      "Ġscroll": 9165,
      "ORTED": 9166,
      "Ign": 9167,
      "Ġcompute": 9168,
      "pred": 9169,
      "ĠBad": 9170,
      "Ġstored": 9171,
      "pping": 9172,
      "Ġformation": 9173,
      "athan": 9174,
      "Ġnetworks": 9175,
      "ĠCEL": 9176,
      "ï»¿": 9177,
      "hu": 9178,
      "checked": 9179,
      "ĠNations": 9180,
      "Ġconsult": 9181,
      "1949": 9182,
      "Ġclubs": 9183,
      "Ġdialog": 9184,
      "Ġpull": 9185,
      "hetic": 9186,
      "riev": 9187,
      "ENSE": 9188,
      "azy": 9189,
      "phia": 9190,
      "Lin": 9191,
      "cam": 9192,
      "ervative": 9193,
      "EST": 9194,
      "tf": 9195,
      "ĠEven": 9196,
      "Ġdamage": 9197,
      "Ġscientific": 9198,
      "Ġ&\\": 9199,
      "Ġcomparison": 9200,
      "1953": 9201,
      "Sql": 9202,
      "Ġallowing": 9203,
      "Ġjobs": 9204,
      "resolve": 9205,
      "NavBarFont": 9206,
      "Encoded": 9207,
      "'];": 9208,
      "Free": 9209,
      "Ġteaching": 9210,
      "Children": 9211,
      "Ġadopted": 9212,
      "Ġdaily": 9213,
      "Ġtmp": 9214,
      "Ġteacher": 9215,
      "Ġassembly": 9216,
      "ĠEst": 9217,
      "Ġearth": 9218,
      "Ġdepends": 9219,
      "Ġbuf": 9220,
      "Sports": 9221,
      "norm": 9222,
      "ĠAlexander": 9223,
      "Program": 9224,
      "ifndef": 9225,
      "Ġfloor": 9226,
      "Stop": 9227,
      "Ġassociation": 9228,
      "Ġ'./": 9229,
      "atters": 9230,
      "Ġflex": 9231,
      "Ġhousing": 9232,
      "xs": 9233,
      "Enumer": 9234,
      "Ġcommittee": 9235,
      "ropol": 9236,
      "Ġmeasures": 9237,
      "})\\": 9238,
      "Ġwasn": 9239,
      "clone": 9240,
      "Ġnewspaper": 9241,
      "notes": 9242,
      "...</": 9243,
      "ĠPRO": 9244,
      "Ġinterested": 9245,
      "water": 9246,
      "structions": 9247,
      "(\"/": 9248,
      "month": 9249,
      "Ġsoldiers": 9250,
      "ĠLight": 9251,
      "issues": 9252,
      "ĠHamilton": 9253,
      "Ġnuclear": 9254,
      "Ġterror": 9255,
      "plates": 9256,
      "Ġvon": 9257,
      "Ġautomatically": 9258,
      "Email": 9259,
      "ÑģÑĤ": 9260,
      "Install": 9261,
      "Ġcompl": 9262,
      "zure": 9263,
      "Ġacting": 9264,
      "vs": 9265,
      "kens": 9266,
      "Ġlistener": 9267,
      "ĠAmazon": 9268,
      "Ġrecognized": 9269,
      "ðŁ": 9270,
      "West": 9271,
      "Ġ).": 9272,
      "Ġwinner": 9273,
      "metry": 9274,
      "1918": 9275,
      "inder": 9276,
      "Ġbudget": 9277,
      "Ġequipment": 9278,
      "large": 9279,
      "Ġconnections": 9280,
      "Ġ$(\\": 9281,
      "zero": 9282,
      "bg": 9283,
      "ni": 9284,
      "loop": 9285,
      "definition": 9286,
      "chen": 9287,
      "Ġtraffic": 9288,
      "bean": 9289,
      "TRY": 9290,
      "Ġphilosoph": 9291,
      "Ġsemi": 9292,
      "Cloud": 9293,
      "hesis": 9294,
      "Ġcandidates": 9295,
      "ĠLemma": 9296,
      "tar": 9297,
      "Ġvertex": 9298,
      "bel": 9299,
      "RC": 9300,
      "Ġcancel": 9301,
      "Ġtal": 9302,
      "goto": 9303,
      "Ang": 9304,
      "atial": 9305,
      "Ġtoward": 9306,
      "arrier": 9307,
      "ennes": 9308,
      "adelphia": 9309,
      "Ġdescent": 9310,
      "Ġfans": 9311,
      "Ġ];": 9312,
      "console": 9313,
      "uite": 9314,
      "NV": 9315,
      "ydney": 9316,
      "oret": 9317,
      "Ġassign": 9318,
      "occer": 9319,
      "Math": 9320,
      "zech": 9321,
      "Area": 9322,
      "Ñĩ": 9323,
      "Ġinvestigation": 9324,
      "Ġlies": 9325,
      "vo": 9326,
      "ĠRoute": 9327,
      "ĠMinistry": 9328,
      "iÃ³n": 9329,
      "lik": 9330,
      "Ġven": 9331,
      "ntario": 9332,
      "Ġaudience": 9333,
      "power": 9334,
      "IDTH": 9335,
      "Native": 9336,
      "Ġcoal": 9337,
      "123": 9338,
      "dig": 9339,
      "ships": 9340,
      ";\">": 9341,
      "Ġwidely": 9342,
      "uy": 9343,
      "inant": 9344,
      "Ġlargely": 9345,
      "ĠIslands": 9346,
      "lications": 9347,
      "iga": 9348,
      "ĠSupport": 9349,
      "Place": 9350,
      "Ġrapid": 9351,
      "Ġadvoc": 9352,
      "peat": 9353,
      "Elements": 9354,
      "Ġusage": 9355,
      "Ġlabels": 9356,
      "ĠPolish": 9357,
      "istence": 9358,
      "ilters": 9359,
      "Make": 9360,
      "ĠPolicy": 9361,
      "ĠVar": 9362,
      "ĠPen": 9363,
      "ĠLink": 9364,
      "Ġinnov": 9365,
      "Ġserves": 9366,
      "ĠCorps": 9367,
      "Ġtopic": 9368,
      "Ġwave": 9369,
      "Ġrural": 9370,
      "agnostics": 9371,
      "Ġauthors": 9372,
      "ĠProcess": 9373,
      "Ġrise": 9374,
      "Ġperman": 9375,
      "groups": 9376,
      "Mouse": 9377,
      "ĠCustom": 9378,
      "transition": 9379,
      "Ã¡n": 9380,
      "Ġexpressed": 9381,
      "Ġimplemented": 9382,
      "\"],": 9383,
      "Ġplane": 9384,
      "ĠRog": 9385,
      "aling": 9386,
      "usal": 9387,
      "PP": 9388,
      ",'": 9389,
      "mouse": 9390,
      "Ġprovince": 9391,
      "Music": 9392,
      "Ġemployees": 9393,
      "ups": 9394,
      "ĠVictoria": 9395,
      "Ġspaces": 9396,
      "Ġreceiving": 9397,
      "ĠRailway": 9398,
      "Ġfunding": 9399,
      "Ġnewly": 9400,
      "uts": 9401,
      "ĠDub": 9402,
      "Forms": 9403,
      "ieut": 9404,
      "ĠMinn": 9405,
      "TT": 9406,
      "Framework": 9407,
      "ĠLater": 9408,
      "ĠWindows": 9409,
      "apes": 9410,
      "lace": 9411,
      "Ġdivided": 9412,
      "Ġgra": 9413,
      "Ġauthorities": 9414,
      "Ġalongside": 9415,
      "Admin": 9416,
      "ĠMaster": 9417,
      "1951": 9418,
      "iffer": 9419,
      "Ġrecip": 9420,
      "ĠANY": 9421,
      "ori": 9422,
      "Ġinstrument": 9423,
      "ĠRom": 9424,
      "These": 9425,
      "ĠLew": 9426,
      "Ġga": 9427,
      "bits": 9428,
      "Ġmetric": 9429,
      "ĠSpring": 9430,
      "Ġreality": 9431,
      "Ġwarn": 9432,
      "fg": 9433,
      "uplic": 9434,
      "gence": 9435,
      "Ġschema": 9436,
      "inton": 9437,
      "Flag": 9438,
      "ĠInput": 9439,
      "LINE": 9440,
      "Ġexecute": 9441,
      "Wil": 9442,
      "Ġmetal": 9443,
      "åĪ": 9444,
      "COMP": 9445,
      "Ġignore": 9446,
      "Ġdisk": 9447,
      "ĠWilson": 9448,
      "Ġplanning": 9449,
      "bec": 9450,
      "amer": 9451,
      ":`": 9452,
      "Ġchallenge": 9453,
      "Ġcommunication": 9454,
      "Ġsan": 9455,
      "ĠBecause": 9456,
      "Ġsuggested": 9457,
      "ĠRevolution": 9458,
      "perial": 9459,
      "ĠSciences": 9460,
      "ĠIns": 9461,
      "aturday": 9462,
      "Comple": 9463,
      "Required": 9464,
      "Ġformal": 9465,
      "ourse": 9466,
      "âĢĿ,": 9467,
      "/.": 9468,
      "Ġnearby": 9469,
      "Ġroll": 9470,
      "Writ": 9471,
      "Ġbaseball": 9472,
      "ĠMike": 9473,
      "Ġexpat": 9474,
      "anth": 9475,
      "Ġsynt": 9476,
      "Ġindicates": 9477,
      "Ġanaly": 9478,
      "Limit": 9479,
      "iciency": 9480,
      "Ġdestroyed": 9481,
      "Ġeastern": 9482,
      "Ġdecades": 9483,
      "ĠWeek": 9484,
      "Ġfifth": 9485,
      "complete": 9486,
      "Ġcombination": 9487,
      "Ġimportance": 9488,
      "Private": 9489,
      "ĠSus": 9490,
      "ĠValid": 9491,
      "Ġepisodes": 9492,
      "words": 9493,
      "Sort": 9494,
      "Ġresolve": 9495,
      "ĠBelg": 9496,
      "urance": 9497,
      "ĠStation": 9498,
      "mediate": 9499,
      "Ġsecondary": 9500,
      "Ġenvironmental": 9501,
      "Begin": 9502,
      "geo": 9503,
      "ĠBit": 9504,
      "ĠDesign": 9505,
      "Ġguarant": 9506,
      "Ġinterpret": 9507,
      "download": 9508,
      "ĠallClasses": 9509,
      "Ġconcentr": 9510,
      "ĠPers": 9511,
      "GO": 9512,
      "HS": 9513,
      "British": 9514,
      "ĠRome": 9515,
      "itzer": 9516,
      "Ġdeveloping": 9517,
      "Ġpra": 9518,
      "Ġidentify": 9519,
      "Ġ\"$": 9520,
      "ĠFamily": 9521,
      "Ġleaves": 9522,
      "exec": 9523,
      "Ġmorning": 9524,
      "ĠPlaces": 9525,
      "circle": 9526,
      "DR": 9527,
[...]
