#version: 0.2
Ġ Ġ
ĠĠ ĠĠ
i n
Ġ t
e r
o n
Ġ a
h e
r e
a t
e n
o r
s t
Ġt he
a n
a l
ĠĠ Ġ
a r
i t
ĠĠĠĠ ĠĠĠĠ
Ġ c
l e
i on
e d
Ġ o
Ġ s
e s
i s
Ġ f
Ġ w
i c
Ġ p
r o
in g
Ġ in
a s
n d
Ġ b
Ġo f
e t
c t
Ġ d
en t
a m
o u
Ġ m
e l
Ġa nd
ĠĠĠĠ ĠĠĠ
Ġt o
i l
Ġ re
o m
Ġ n
Ġ h
i d
Ġ S
Ġ (
o l
at ion
a c
i g
Ġ =
u r
i m
Ġ C
Ġ T
Ġt h
ĉ ĉ
< /
u t
a d
Ġ A
o t
i v
Ġ l
e x
s e
= "
c e
o d
a g
) ;
u l
t h
e m
Ġ $
i f
Ġ \
Ġ {
Ġ <
u n
Ġ M
- -
c h
Ġ is
er s
u m
a y
Ġ v
p e
u s
Ġf or
a b
o w
i st
Ġ g
ĠĠĠĠĠĠĠĠ ĠĠĠ
Ġ st
at e
Ġ I
Ġ P
č Ċ
t r
a p
Ġ B
o c
q u
i r
as s
/ /
l y
t er
Ġ *
Ġ on
it h
2 0
e st
Ġc on
e f
am e
Ġ "
ct ion
Ġ R
p t
1 9
Ġ H
h t
Ġa s
an d
Ġ D
a v
u b
Ġ }
Ġ L
Ġ F
v er
en d
" >
Ġb e
re s
e w
u e
l ass
Ġ N
r i
Ġ e
Ġw as
u p
o p
es s
ag e
Ġw ith
Ġ G
or t
Ġa l
a in
ĠĠĠĠĠĠĠĠ ĠĠĠĠĠĠĠĠ
o s
ĠT he
ro m
ou r
Ġ W
Ġ E
Ġth at
ĠĠĠĠ Ġ
l i
Ġb y
( )
at h
Ġa n
â Ģ
Ġw h
Ġp ro
e ct
in e
ex t
it y
ur n
ar t
n t
* *
s p
m ent
Ġc om
e c
Ġ r
o re
Ġa t
al l
o g
er e
_ {
i z
e g
Ġ O
Ġ Ċ
Ġc lass
ac k
Ġ J
t urn
p l
ul t
. .
Ġ or
Ġ it
ig ht
y pe
= =
Ġf rom
ab le
i es
k e
an s
p ort
-- --
i al
i le
u re
b er
an g
u d
Ġ '
Ġ &
Ġ ex
od e
p er
st r
re f
g et
c on
Ġth is
iv e
0 0
Ġ if
an t
' s
Ġ U
Ġt r
e p
in t
ar y
or m
I n
Ġ he
ĠĠĠĠĠĠĠĠ ĠĠĠĠĠĠĠ
il l
a st
Ġa re
i p
l d
at ed
l ic
o v
ar d
a ct
or d
{ \
pt ion
u nd
Ġ -
at a
Ġc h
) ,
Ġ K
ig n
a re
e v
as e
i re
i a
in d
u g
i b
Ġre turn
ac e
Ġ //
ic h
20 1
it ion
it e
Ġ le
c om
Ġ </
on g
ĉĉ ĉĉ
p ro
T he
Ġ$ \
: :
al ue
.. /
a k
s er
c l
j ect
t o
- >
f f
Ġp l
Ġ y
o st
âĢ ĵ
ĠI n
p h
g e
im e
Ġ |
el l
our ce
) .
Ġ V
i an
ub lic
Ġs e
ou t
Ġs h
Ġn ot
t ext
il d
m ath
p le
Ġw e
ic e
C on
id e
ic al
un ction
or k
" ,
en c
Ġ [
ĠS t
u st
f t
l oc
m a
c c
en s
l o
c ri
Ġ @
or y
ar am
S t
s o
av e
Ġn ew
s et
20 0
r a
m l
Ġa r
f orm
d d
Ġ +
d iv
( "
an ce
ess age
Ġ us
E x
o k
is h
s h
( );
el f
Ġh is
p ut
ro w
d u
Ġ j
en ce
Ġre s
Ġwh ich
Ġ un
e ar
s s
Ġ /
ĠC h
} }
ul l
1 8
th er
ation s
res s
> </
iz e
sp an
ac h
' ,
ou nt
ĠT h
l ow
en er
tr ing
Ġ k
ter n
^ {
Ġa p
> <
i el
on e
ow n
m er
ir st
f ig
---- ----
u se
in k
Ġst r
c he
Ġ im
../ ../
er r
e le
e qu
f r
Ġcon t
Ġ| |
Ġ .
ent s
Ġh as
a il
} \
t e
in al
c al
iel d
ou s
Ġc an
} $
Ġp ublic
er v
o b
Ġn ame
re e
** **
cl ud
ou nd
e b
ou ld
Ġ* /
o ver
Ġd ef
er m
he n
Ġal so
on d
l l
Ġf unction
le s
Ġw ere
== ==
i ew
ic t
Ġ :
ĉĉ ĉ
r it
1 0
Ġcom p
ĠĠĠĠĠĠĠĠ ĠĠĠĠĠĠĠĠĠĠĠ
et h
ol d
at or
Ġp r
o ol
Ġin t
ht ml
ĠĠĠĠĠĠĠĠ Ġ
Ġh ave
( '
t a
n ame
r y
u al
s ource
Ġs et
at es
n e
Ġh ref
m essage
o id
ab el
P ro
l ation
p r
Ġa b
p s
ar k
) )
ro up
r ay
ĠU n
( \
c k
f er
le d
th is
eg in
tr ans
Ġ ro
Ġv ar
r ap
od el
i x
N ame
i o
Ġp art
y st
o int
er t
ot h
b egin
c ol
E R
en g
he d
w o
n g
Ġd is
} ,
pe c
om e
ion s
t y
ke y
ĠH e
r ight
T ype
Ġf irst
Ġs u
Ġ Y
b ject
im port
Ġon e
er y
t d
ic s
Ġ #
19 9
f ter
Ġt ype
Ġ= >
v ent
ing s
I d
Ġpl ay
O N
at er
b o
Ġ _
Ġal l
yst em
ar g
ĠI t
Ġo ut
p aram
S tring
at ic
al se
am es
Ġb ut
a w
I N
pe ct
Ġd e
/ >
Ġc ol
le ct
Ġg et
ation al
a x
or s
s um
um ber
l ine
is s
on t
cri pt
c re
c ode
re turn
u ild
Ġit s
_{ \
ĠA r
1 2
Ġ up
Ġv alue
) $
R ef
Ġl ine
Ġh ad
u ct
w e
ig h
enc es
o se
Ġ qu
eth od
Ġd es
loc k
at ch
f o
" />
em ber
Ġ âĢĵ
Ġthe ir
ic k
el y
t on
trans lation
an y
# #
} {
Ġp re
Ġp er
C om
an n
am p
1 6
t he
Ġs p
d ef
m s
Ġc l
ap p
R es
Ġd o
oc k
Ġs elf
Ġo ver
L ist
c ent
c lass
i e
Ġt wo
ur re
l abel
Ġ !
ad d
i ed
Ġcon st
ut e
ar ch
l and
Ġa g
Ġd ata
p os
p on
et a
y m
a ult
rap h
R E
it ed
t ype
n c
ro und
Ġwh o
Ġ id
Ġw ork
ce ption
ang e
Ġcom m
v al
e q
C h
it le
ic an
Ġ end
Ġt ime
Ġ el
ov e
a ke
e y
if ic
Ġo ther
an c
Ġa dd
as ed
or n
at ive
le ft
Ġw ill
le ment
al s
Ġ= =
Ġin ter
fr ac
Ġres ult
s on
Ġ i
Ġ und
ac he
op le
S T
v ar
Ġin clud
tern al
t ain
o f
Ġf il
id th
1 5
: //
Ġs ub
ad e
Ġbe en
T h
Ġm e
ul ar
ers ion
Ref er
er n
Ġa d
19 8
Ġn ull
is hed
t t
Ġw hen
ĠC om
c o
g r
1 7
âĢ Ļ
Ġs up
Ġh er
A r
Ġv oid
A T
Ġy ear
ire ct
w ard
Ġl oc
ut ion
ol low
tr ib
as k
Ġb o
as h
_ _
Ġre g
u es
Ġre qu
"> <
on s
ad er
um ent
ĠTh is
iv ers
Ġt e
Ġ `
e e
iv ate
y le
math b
e ople
y s
Ġfor m
ht t
re d
urre nt
ĠĠĠĠĠĠĠĠ ĠĠĠĠĠ
res ent
Ġm ore
Ġon ly
Ġ en
Ġa ct
m in
) :
Ġin to
) );
Refer ences
c ess
s ub
ur ing
am ple
ĠĠĠĠĠĠĠĠĠĠĠĠĠĠĠĠ ĠĠĠĠĠĠĠ
c ite
Ġof f
ĠN ew
Ġf alse
$ .
t s
ug h
Ġc o
b ar
at ing
d er
Ġthe y
or g
Ġa fter
T r
ef ore
$ ,
cc ess
Ġn e
Ġre c
b ack
" );
Ġor g
str ing
re ad
is e
Ġy ou
am b
Ġ >
1 1
Ġs o
r m
r u
O R
Ġp os
Ġs pec
Ġ )
Ġwh ere
mer ican
o ot
an ag
ĠA l
Ġin d
in ed
Ġin st
Ġb et
ĠP ro
Ġtr ans
I D
ist s
in ce
le ction
ut h
is ion
Ġf ollow
ou g
ser v
an k
Ġ err
A R
av a
L E
19 7
Ġs erv
s elf
} .
Ġs c
Ġtr ue
w ork
i ous
eng th
, \
ser t
-------- --------
**** ****
} )
Ġund er
ption s
Ġus ed
t em
1 3
1 4
im es
Ġo b
at ure
it s
i er
r r
w ay
it em
id er
C ol
it ies
ol og
Ġs ec
f ile
Ġf inal
du c
Ġv al
math cal
d ata
w n
o le
p en
n b
Ġc re
Ġ use
D ata
b all
re n
Ġthe n
2 5
Ġp ol
Ġd ist
ag es
Ġpro v
i k
V alue
Ġ âĢ
b le
per ty
Ġd ec
o y
equ ation
Ġ em
we en
pl ic
em ent
or ld
Ġ x
Ġ --
u res
v alue
" )
// //
Ġg ener
ĠC on
ch ool
Ġel se
loc ation
Ġre m
T o
ĠS h
Ġn umber
ĠĠĠĠ ĠĠ
Ġan y
il y
o od
Ġstr ing
l og
a ction
E N
ĠĠĠĠĠĠĠĠĠĠĠĠĠĠĠĠ ĠĠĠĠĠĠĠĠĠĠĠĠĠĠĠĠ
S S
Ġt est
ib le
nb sp
li ent
Ġsu ch
ar get
ar n
Ġn o
in s
d a
Ġth ere
u le
ĠA s
Ġe v
Ġch ar
S et
ph a
a z
2 1
a ir
ef f
Ġd if
A L
p re
Ġc ase
Ġ/ **
um n
p x
Ġ Q
Ġ ent
il ity
iz ed
Ġk n
od y
ep end
Ġre l
19 6
==== ====
Ġcon s
et er
Ġbe c
} (
ev el
Ġs he
b r
Ġbet ween
} _
ic es
in es
Ġw ould
as on
oc i
Ġp eople
v iew
u ff
} ^
ar s
d ate
Ġ Z
] ;
Ex ception
n ot
Ġm odel
ro id
Ġst atic
3 2
t est
~ \
s c
Ġs er
ire d
pl ay
( $
Ġ est
ĠA n
o h
Ġ& &
Ġf ile
Ġth an
con t
Ġb ack
' )
a h
t ed
at us
ivers ity
re am
n ew
E rr
3 0
ment s
ro ugh
f or
Ġab out
Ġf e
Ġs ome
Ġl ink
\ \
Ġp h
Ġ// /
p p
Ã ©
ou n
Ġo per
ow er
Ġg r
ur y
al pha
2 2
Ġa c
ĠS e
Ġl ist
Ġsh ow
i ent
ĠC ol
R e
p ress
ou se
y n
Ġ ed
Ġpr ivate
O bject
ĠT r
at t
Ġm ay
v e
iv er
ĠS tring
ou th
b y
U n
al e
s cript
m e
l ish
are nt
Ġ %
in n
y p
Ġst ud
m an
t il
str uct
Ġf ound
l er
T est
D E
m ary
l ang
00 0
s ize
ap t
sh ip
p i
Ġ! =
Ġs im
a j
r c
w h
el ta
al ly
Ġc ent
v el
C T
ot t
ro l
() .
b e
' ]
f ace
Ġc al
l ink
ĠA merican
g er
or th
Con t
o ok
Ġm ethod
Ġin v
. </
ĠI nd
le t
5 0
Ġm ost
e ver
Ġg roup
() );
Ġas s
Ġa m
Ġst ate
G et
Ġ ext
H e
Ġh igh
us s
n av
ĠE x
ord er
Ġs ystem
Ġm od
al ign
Ġst art
ĠĠĠĠ Ċ
Ġf ield
oug h
iv en
ĠF or
m all
19 4
S E
A s
. _
he ck
p ublic
ro ll
u c
Ġap p
et s
ist er
Ġe ach
amb da
id ent
if e
Ġs ign
Err or
re qu
iz ation
m od
r ic
if y
Ġo bject
K ey
ot e
O n
j s
l ay
over n
Ġth rough
V iew
Ġag ain
I nd
Ġm in
ĠL e
I T
" ;
a use
Ġdif fer
Ġt itle
Ġp oint
A t
"> </
Ġa cc
ĉĉĉĉ ĉ
se ction
w w
Â ł
w idth
Ġre p
C lass
M E
evel op
ind ex
I m
Ġc or
re g
Ġ key
if ied
F ile
Ġs ing
E n
Ġsec ond
[ '
Ġd irect
cri ption
ind ow
ĠUn ited
oth er
tr y
ut il
t ing
d is
Ġp aram
r on
Ġe qu
in clud
Ġh im
l ist
ur l
2 4
am ma
Ġd et
ra w
) \
Ġyear s
col or
b ers
in ter
Ġd uring
ĠUn iversity
p ar
are d
oc ument
ers on
. "
g round
Ġr un
f ield
f unction
t en
ĠF r
Ġ X
ot s
B y
Ġwh ile
t ime
t op
p ace
S h
Ġcom ple
C O
iv ed
m u
= \
Ġre le
Ġth ree
is m
! --
ce pt
A N
m p
=" +
c es
1 00
ess ion
Ġs ame
' );
Ex ternal
ĠW e
Ġus ing
_ \
R equ
Ġlink s
Ġd r
ect or
Ġl ong
=" ../../
ist ory
ĠD e
Ġthe se
Ġte am
f l
ant s
$ \
lo ad
o ad
r ite
Ġw ell
l ished
g o
oot ball
Ġ\ \
enc y
Ġf l
() ,
qu ot
it ial
htt p
Ġw rit
du ct
sum mary
iv ing
t able
mathb b
m ed
a f
Ġg o
ath er
Ġar t
} _{
Ġc urrent
bo x
] ,
Ġar g
Ġb uild
ri b
Ġf am
re ak
ig ma
" .
ro p
erv ice
i ke
F or
Ġthe m
Ġfollow ing
g roup
Ġ eff
m on
m y
in a
iv es
anag er
A l
ack age
U L
ar ray
qu e
p ath
lo b
A n
v oid
us ic
Ġb efore
re m
p art
ect ed
Ġb oth
19 5
u i
2 3
ir c
h er
ar ly
Ġ/ >
re at
6 4
Ġat t
og raph
h at
Ġm ed
o ber
ur ation
port s
Ġs ol
en se
b f
ut ton
eg a
Ġbe ing
con st
Ġc all
ĠE ng
ĠS c
gr am
T ime
Ġm em
ĠI s
us h
us er
ay s
a id
pon se
Ġb r
Ġm ade
} ^{
Ġper form
uff er
Ġp op
oh n
ur al
Ġn on
Ġf r
Ġsh ould
h o
T ext
ist r
" :
Ġrec ord
ow ever
Ġm ain
ical ly
g y
an e
ĠO n
it or
Ġplay ers
ition s
Ġre sp
Ġe vent
m d
et ers
Ġor der
Ġ z
ain s
- \
Ġ );
m it
Ġs ur
m and
et work
Ġo ur
ĠM ar
ig inal
ĠSt ates
b um
Ġg iven
R O
at ri
iss ion
In fo
o x
Ġs ize
Ġap pro
en n
an u
at s
N ode
f ul
c d
Ġp ass
Ġh and
E vent
ph i
3 3
r al
E lement
Ġbe g
trib ute
Requ est
op y
ro ss
ens ion
F ield
/ *
I ON
Ġ ?
b ed
A C
] .
Ġl ater
D ef
form ation
I nt
og le
Ġpart ic
ul ation
âĢ Ŀ
u str
ic a
` `
Ġdiffer ent
A dd
^ {\
con fig
} ;
Ġe lement
ĠR e
Ġkn own
P E
ĠS he
P ath
l ambda
Ġloc al
Ġp ar
Ġm any
o ff
Ġim port
un c
l ength
Ġ{ \
uth or
ole an
Ġfil m
Ġstr uct
Ġt erm
Ġas sert
() )
ain ing
I tem
' :
ĠP r
un e
Ġth row
u ch
Ġr ight
w ord
Ġne ed
Ġsup port
d es
ac es
om en
le y
d t
se arch
Q u
Ġm on
Ġo wn
N ot
Ġ u
as es
ount y
Ġ-- >
Ġerr or
Con fig
/ **
Ġd evelop
ag ue
Ġm ov
b ol
P aram
.. .
ign ed
Ġex pect
it er
olog y
el s
id d
f in
ĠĠĠĠĠĠĠĠĠĠĠĠĠĠĠĠ ĠĠĠĠĠĠĠĠĠĠĠ
Ind ex
St ate
per t
ĠC l
r ide
L A
n er
Ġap pe
a i
mathb f
T E
s k
m ap
T R
st ance
M ap
Ġb ir
Ġrequ est
ĠĠ Ċ
2 7
Ġinclud ing
th s
ĠI f
E qu
Ġcont in
Ġf our
ou nc
Ġb ro
4 0
e k
O ver
Con text
a pe
D es
ap i
ĠO r
i or
Ġse ason
F orm
ĠP h
Ġpro cess
Ġa ut
Ġre ad
Ġb el
ĠR es
ction s
ar ge
P I
2 8
pt y
' ;
O r
ames pace
2 6
se c
" "
Ġf ootball
ual ly
ĠB r
am ed
Ġo pen
ic on
## ##
m b
um er
Ġ( !
W ith
m odel
ar ri
i um
htt ps
Ġre ce
pon ent
Ġf in
b lock
il on
al ity
Ġch ild
ep s
n ode
Ġs chool
Ġt ext
ap ache
os s
Ġle ad
ĠM ay
W e
Ġt em
Ġ} );
' t
Ġ ,
u ro
p or
ĠW orld
Ġser ies
Ġal bum
Ġe ver
Ġst yle
Ġm et
ĠJ ohn
[ ]
duc ed
Ġdis c
S ervice
tr ue
ĠG r
Ġagain st
t itle
Ġest ab
in put
Ar ray
Ġs ince
l p
l ack
cent er
Ġar ray
b eta
Ġcal led
i ev
od es
Ġl ast
ym bol
ĠA t
ĠN ational
Ġto p
lect ed
Ġn ow
tern ational
res ult
Ġdef ault
f rom
Ġ/ *
Ġle ft
re t
2 9
Ġdes cri
S ize
Ġt arget
ur ch
Res ult
Ġo p
Ġg u
B uild
s igma
ar i
Ġg overn
I C
Ġcons ider
Ġre f
Ġc oun
Ġre fer
Ġbec ame
end s
ob ject
p an
Ġ} ,
******** ********
plic ation
id ed
ut es
ific ation
act er
Ġf act
Ġvar i
u age
in c
math rm
Ġrep resent
Ġcont ent
iv ely
Ġl og
n ext
Ġv ersion
ast er
Ġs mall
ur s
ĠC an
ĠâĢ ľ
y nc
Ġal low
//// ////
ild e
ile d
a it
ate g
ent ial
en e
F r
et urn
ver t
ĠC ar
it al
="../../ ../../
Ġb ased
il t
tt p
s ide
} {\
ch n
v ious
l t
v ersion
he ad
U R
M essage
val id
able d
en u
le ss
201 6
C ode
err or
a u
F F
pl ate
H and
n o
Ġc ould
b ody
Ġ( \
Th is
ust om
le ar
^{ -
ass ert
ain ed
pert ies
g t
s w
v ir
Ġun til
ĠY ork
nd er
n et
du ction
ĠB rit
ict ion
li am
b s
id es
Ġm ake
Ġj ava
m et
Ġus er
cre ate
ĠC ounty
; &
ĠW ar
che s
= '
ĠA d
end ed
lo at
Ġpro t
. ,
Ġbec ause
Ġdo es
im it
tr act
Ġse ver
fig ure
ĠJ ul
> &
l ing
t ings
our ces
Ġfam ily
ag s
Ġp res
ar row
P h
ĠS ystem
Ġv is
201 5
* }
def ault
ev ice
lob al
Ġs rc
+ +
Ġm ult
ĠP ar
201 0
A D
il ter
ak ing
in fo
Ġb u
ĠS chool
cal e
iv al
Ġd ep
t ab
Ġp resent
i ans
Ġl ike
old s
ĠN ov
ou ble
ma x
g amma
i ence
ĠG erm
Ġc are
201 7
V al
b ig
Ġj ust
L O
atri x
ir d
co pe
p oint
201 4
Ġp ath
st ate
Ġf ind
Ġex p
^ \
Ġex ample
Ġs ong
Ġpol it
Ġde ath
U T
ustr al
t n
6 0
ug ust
Ġresult s
qu ad
ĠS outh
19 3
sp ace
aj or
is ed
ition al
ab ility
orm al
| -
re ate
O f
+ \
Ġor iginal
Ġval ues
Ġb lock
Ġb ase
201 8
amp ion
Ġsing le
Ġ$ (
anu ary
ore d
I s
com p
ne ction
l a
ward s
L oc
includ e
Ġcomm un
Ġpro gram
c ss
Ġhe ad
our n
ĠR eg
at ter
ĠW est
st art
Ġ( )
Ġn ode
M L
d elta
Ġeff ect
20 20
j ava
l in
ĠC ent
pt ember
cont ent
201 1
is on
Ġ: =
M A
p m
ĠG e
Ġin put
al th
the ta
if t
Ġ= ==
M odel
et y
8 0
r ist
) }
in ation
S er
Ġp ub
Ġo cc
t al
201 2
a e
and roid
r ho
on y
I G
201 3
Ġare a
ct ober
Ġc ode
ĠP l
M anager
m ber
Ġan n
us ing
L og
Ġc heck
ol v
s up
re c
it ch
Ġcon d
Ġm ust
d own
b ase
ta u
ail s
ĠA nd
pos ition
Ġb reak
ĉĉĉĉ ĉĉ
ott om
ain t
ist or
yp es
Ġm ax
Ġcre ate
Ġn ext
le q
Ġm usic
v ision
Ġle vel
U ser
ĠM arch
ĠW h
Ġg ame
Ġ_ _
20 19
end er
b u
ĠP ol
Ġorg an
ic ial
Ġsu ccess
p ackage
---------------- ----------------
F rom
] {
o ption
ĠA ugust
ĠW il
Ġc r
=" ../
Col or
Ġever y
Ġcon fig
se e
IN G
com e
ele te
P l
o in
ĠJ anuary
tain er
Ġy our
go ogle
Ġpl ace
t es
O ut
roll er
w ith
Ġd id
ar m
T able
i od
Ġm ark
st yle
ĠC al
ele ct
a ut
Ġl ife
ĠSe ptember
def ine
Ġin cre
pr il
Ġpro ject
s q
T D
anc es
Ġ} ;
; </
om an
u k
Ġsever al
Ġpos s
n ess
G roup
$ -
Ġin itial
Ġinst ance
ĠG et
Ġl arge
Ġc ap
res p
k en
l ight
Ġs aid
ĠL ist
le ge
=" #
c ast
ide o
Ġv iew
UL L
E D
Ġm ap
Ġd i
con text
an sp
Ġo ld
che d
In ter
b orn
Ġa v
eq ref
Ġbo ok
Ġin formation
ĠO ctober
ĠG u
d om
U p
Ġcon text
le m
Ġind ex
Ar g
Ġ Ð
un g
S C
str u
in ess
ix ed
ce mber
ev ent
Ġwith in
ĠSt ate
s l
Ġpos ition
er o
ĠJ une
R ec
ol ution
press ion
ord ing
Ġid ent
Ġm an
Ġl aw
Ġp rom
ak es
pr int
t imes
eb ug
Ġdist rib
Ġwh at
Ġse e
Ġrele ased
Tr ans
ĠâĢ Ķ
ur ther
Ġp ost
S ee
200 9
ĠJul y
ator s
pro t
ĠA ll
d e
w are
c ount
che ck
N ew
iv ity
Ġit em
w eb
Ġle t
Ġd own
E T
Ġinclud e
ac ed
Ġfor mer
R eg
Ġn ear
P r
Ġal ong
al k
Ġst and
ith ub
200 8
9 9
at ely
ĠA ustral
ord s
Ã ¡
pl oy
d oc
Pro perty
om et
Ġw orld
ang le
) </
A ll
Ġserv ice
u ed
======== ========
} (\
Ġd ue
uro pe
D is
Ġw on
4 5
A B
Ġplay ed
av ing
ĠA pril
st atic
Ġex per
Ð °
c ore
Ġb ound
oc us
ĠĠĠĠĠĠĠĠ ĠĠ
ann el
if ier
d ay
f alse
ail able
ic y
M P
< !--
Ġb ool
Ġv ery
Ġn il
S ystem
it t
i us
Over ride
al es
ĠN orth
z e
Qu ery
C H
Ġm atch
Ġand roid
il it
ur g
A d
C lient
at ures
ib r
ĠNov ember
Ġth ose
Ġp o
ww w
19 0
D O
part ial
d b
Ġst d
ur ity
Res ponse
ĠC ity
he s
ĠI I
ĠĠĠĠĠĠĠĠ ĠĠĠĠ
a ff
Ġev en
n u
ĠE d
ĠC o
Ġr ad
ĠDe cember
Ġt ri
Ġc ity
Ġch ang
C all
Ġgener al
g ithub
M ethod
b utton
al y
m ethod
ac y
ĠS p
ref er
Ġob tain
9 0
ĠBrit ish
eg er
Build er
ĠThe y
200 7
ple ment
ra ft
ut ed
> (
ar r
u x
I S
arg in
Ġcol or
Ġm y
ther n
ĠB e
Ġtr y
Ġp erson
Ġs ource
Ġe arly
Ġl ang
ear ch
st it
7 5
op er
C ount
ograph y
u les
wh ere
ĠH owever
Ġ enc
r t
u ck
ad a
um ents
Ġo ptions
C l
U N
] (
Ġmem bers
Ġcon f
Ġa round
Ġbir ths
ĠĠĠĠĠĠĠĠĠĠĠĠĠĠĠĠ ĠĠĠĠĠĠĠĠĠĠĠĠĠĠĠ
um e
eb ru
b l
200 6
c all
le x
b uild
Ġcom put
e ad
M od
on se
Ġm ember
20 00
Ġp ower
3 5
Ġ eng
ap an
C E
Ġcomm and
| \
ok en
i que
ater ial
p ed
it ive
ebru ary
ĠR ep
us iness
cent ury
ampion ship
Ġpro ble
Ġback ground
se mb
Ġs um
Ġl a
T H
t ual
n ect
Ġre t
Ġd iv
o ptions
Ġd ocument
6 6
ĠLe ague
Ġre port
ĠM in
Ġb order
Ġresp onse
ĠS et
ĠY ou
EN T
Ġpre vious
act ory
B ar
ft y
Ġw idth
Ð ¾
d ir
}$ ,
Ġn etwork
Ġt able
resp ond
c urrent
Ġex pl
n ing
Ġsh ort
epend ent
}$ .
ĠE n
in ition
Ġgovern ment
ĠA ss
ĠK ing
in fty
Ġpro perty
e ction
n amespace
h am
Ġle g
re l
lic k
ĠE urope
ĠT e
fin ished
Ġb and
Ġcont rol
Ġal ign
Ġre al
t ilde
as ure
Ġreg ion
il ar
Ġw ay
ut ions
at ab
ĠI m
Ġhe lp
Ġex ist
Ġm ag
n ull
am a
Ġs w
Ġto tal
D ate
oc ial
ĠU S
Ġsp ace
li b
G ener
a im
D elta
Ġchar acter
Ġo pt
Ġad v
I L
Ġpro f
Ġob serv
qu ery
arn ing
Ġm essage
Ġs k
g ress
ĠĠĠĠĠĠĠĠĠĠĠĠĠĠĠĠ Ġ
Ġc our
Ġh ow
le g
om ega
Ġass oci
ĠS ec
b it
y l
ĠP art
Ġn amed
ard s
Ġl and
ic le
Ġdes ign
Ġd el
St ream
Ġt ele
Ġadd ress
Ġ čĊ
ap er
Ġw omen
Ġfil ms
h and
x i
Ġd em
S ub
Ġwith out
pos ed
an a
lo se
( (
Ġst ill
Ġf a
Ġp at
stru ction
an ch
ĉ Ċ
Ġis s
vir on
ill ion
c lient
s im
I P
rit er
N A
] )
ĠF ebruary
Ġl arg
ren ch
d l
ĠS up
Ġcare er
Ġcomp et
j av
i j
O ff
Ġm ajor
con d
ĠN o
E nd
Ġres pect
un finished
Ġto wn
re en
5 5
In put
er g
Ġrequ ire
Ġ< <
P ar
or ies
U til
v en
im al
im ent
Ġex ec
op s
o pt
ĠS w
arg s
c apt
3 4
ĠG ener
ph p
st er
Ġh ome
im age
ac hed
c ed
P os
ore m
he ight
ug g
7 0
in o
requ est
Ġa ction
ĠA fter
old er
id ge
Ġan other
Ġe lect
A merican
S c
St atus
A S
r un
O T
3 1
ĠR ec
os ed
c it
B lock
20 21
A nd
ad em
Ð µ
ĠB o
l or
ust er
end ing
Ġst at
pl ace
U S
cd ot
ĠCh rist
Ġbe h
E d
f unc
Ġim p
00 00
Ġbo olean
ĠB y
ON T
che ma
ay out
um b
Ġd om
E S
g or
Ġ( $
Ġrece ived
D I
Ġout put
N av
Ġr ange
Ġro le
pro v
es e
k n
h ip
if f
tr a
Ġbeg an
Im age
Ġb as
ch o
ĠS er
add ing
200 5
ĠM ed
ĠĠĠĠĠĠĠĠ Ċ
3 9
Ġper iod
r ad
im um
Ġp arent
Ġhe ld
Ġc ar
Ġd ay
Ġs ide
ser ver
Ġv ol
ith er
Ġ es
Ġb est
raph ics
ip le
} [
al f
Ġdef ined
l s
Ġa ccess
Ġim age
se qu
Ġh istory
ĠT o
B e
ĠEng lish
re w
um p
ou d
Ġc a
Ġab ove
Ġcomp any
al t
im ate
Ġl abel
S tr
eq n
ĠH is
Ġestab lished
us ed
Ġ- >
\ ,
and om
p age
ne y
way s
Ġpop ulation
ĠA b
y les
er a
ĠM c
re st
F A
In stance
Ġm ass
t x
in it
( {
Ġloc ated
Ġsup er
Ġdescri bed
ĠJ apan
Res ource
Y PE
cre en
Ġm uch
ĠN ULL
he ader
ed er
read y
act ive
Ġf ull
um an
Ġt ake
A ct
Ġh ouse
ĠCom m
Ġf ore
und le
m ark
en ame
Ġ" ""
b tn
Ġchild ren
atab ase
Ġte chn
in ary
B ase
Ã ³
n a
istr ict
A pp
ateg ory
m o
Ġm at
Ġcl ub
Ġbu ilt
Ġc ount
Ġpoint s
200 4
Ġe p
Ġa uthor
app end
er ed
Ġl ength
N S
Ġs pe
Ġh ere
Ġch ange
Ġh ost
I t
Ġ et
$ $
il le
row s
Ġcomp on
) {
capt ion
ond on
r am
on es
gor ith
Ġc ell
ĠC or
nav bar
Ġto ok
T oken
Ġrequ ired
Ġp ort
3 6
RE F
ad ata
L ine
h as
al ys
Hand ler
ĠA fr
Ġar ch
Ġtr ack
S ource
Ġint ro
Ġv ill
id get
t arget
Ġn ational
ĠH igh
Ġpartic ular
ĠB ar
viron ment
At tribute
4 8
N o
th ough
Ġcre ated
Ġa ff
A ction
ener gy
d ec
3 8
ing ton
Ġcor respond
d f
able s
A p
pec ial
Ġp e
Ġfe ature
Ġas sum
Ġd epend
ĠR uss
Ġpub lished
ĠM an
Ġav ailable
x y
ri or
c or
Ġsim ilar
Equ al
im ation
ug in
i et
N ull
ĠA ct
Ġse ction
fr ame
E E
Ġdis play
yn am
c m
im ary
ĠQ u
T O
Ġinclud ed
Ġ+ =
Ġval id
Ġa ge
ĠT est
Com ponent
Ġst ation
p arent
' '
n s
ial og
he m
Ð ¸
S elect
ent ion
ch ild
n on
ic ense
oc ol
ĠA dd
Ġd eb
Cont ent
D ec
0 1
a ul
un ic
x ml
ĠĠĠĠĠĠĠĠ ĠĠĠĠĠĠ
ĠCh ar
text bf
Ġplay er
P ol
pro perty
j son
semb ly
Com p
Ġc ur
ig ation
re et
p ost
Def ault
Ġkn ow
li ed
ĠTh ere
Ġre st
str ong
op h
S P
ilit ary
ep ar
Ġd er
O per
Ġd en
ĠCol lege
[ "
d r
E L
ĠA ir
Com mand
ĠD r
Ġb l
our s
O ptions
Ġd est
Ġg ames
P oint
E X
art ment
or age
ĠE ast
3 7
Ġp age
e ed
Ġappe ar
L ink
B uffer
ĠD es
}} \
)$ .
ib ility
ist ic
Ġw ant
O m
du ce
ansp ort
y c
ut ure
Ġs it
Ġed uc
) (
Ġserv ed
id ual
i ber
p ol
eps ilon
ps i
b ottom
Ġs ix
4 4
ac ing
res h
l im
i ef
er ing
Ġinter est
ĠL ondon
Ġcom b
Ã Ń
Ġth ird
Ġcent ury
f ord
200 1
Ġev ents
n ow
ad o
se lect
ĠPh il
Ġn um
Ġt imes
ĠWil liam
th ers
trib utes
ele ment
r l
om ic
u ation
ĠF rench
Ġcomm on
R un
ĠM e
am ent
Ġt urn
Ġf ive
F actory
re ct
r s
ud e
ounc il
r ict
} _{\
fo ot
^ *
Ġexpect ed
Ġb orn
al d
arri ed
c ul
ent ly
Ġs at
Ġl ow
S ec
ĠA mer
ĠB l
alys is
200 3
ĠĠĠĠĠĠĠĠ ĠĠĠĠĊ
Ġm anag
Ġe lection
C C
Ġar r
kn own
18 9
ĠP res
Ġs l
m eta
Ġparam eters
Ġc rit
iz er
s i
Ġspec ial
ch ar
Ġgr ad
Ġh ttp
v ers
ight s
Ġt ask
ĠF ig
f low
g es
p tr
U E
Ġreturn ed
d raw
p ng
li es
ĠCh ampionship
f irst
LA SS
ure d
ĠGerm an
St art
m ar
at form
18 8
mod ule
Ġdet erm
dis play
ot o
ĠC lass
6 5
b m
st atus
G amma
Ġ ke
f ind
A P
Ġc over
av es
O L
op en
Om ega
$ {
pr ivate
ĠAr t
y d
âĢ Ķ
ĉĉĉĉ ĉĉĉĉ
lay out
ug ht
g ener
h ost
ĠP ark
Ġres ource
ĠD istrict
200 2
ert ain
W indow
row n
s rc
im ension
C K
o ke
in st
Ġ\ ,
ĠN one
Ã ¼
Ġpr int
Ġbuild ing
Ġtele vision
im g
w rite
o ice
A G
I f
m ult
ent ry
idd le
V ersion
ĠH ouse
c ase
Ġc amp
Ġb usiness
F unction
Ġspec ies
Ġmodel s
Ġl ook
oug ht
ĠD ef
ig r
Ġparam eter
he l
ĠCom p
F I
ĠV al
Ġd eg
~ ~
Ñ Ĥ
row ser
} );
sub section
ĠD av
T ask
Ġwrit ten
Ġwe ek
Tr ue
Ġre search
Ġprot ected
N umber
Fr ame
ĠI nt
Ġhe ight
Ġg ood
Ġdist rict
Ġoff icial
i i
un k
O P
ĠO bject
Ġcol umn
p c
Ġf ew
f ont
ĠH ar
Ġb ody
AT E
Ġ energy
U s
h a
Ġ{ @
ĠL a
ic ro
Ġme asure
og n
H T
Ġs ent
Ġof ten
Ġposs ible
st d
* /
ly mp
ps ilon
ĠB ro
Ġa ir
s g
oci ation
Ġm en
des cription
u id
as cript
d o
ot ype
att le
ĠO ff
ĠA m
Ġpro duct
st and
p ose
c ap
re ed
Ġv ir
Ġ q
H el
Ġs ite
ĠW hen
l en
ist ry
Ġstud y
p ush
ro y
Ð ½
Ġinv est
H istory
ĠM on
it ory
inn ing
Ġl ate
Ġa ver
loc al
Ġthrow s
ĠR eturn
ĠH er
s u
Ġf ree
eg r
sq rt
ens ure
ob j
Ġatt ack
if act
l ast
" ]
ibr ary
p y
ult ure
he et
Ġam ong
s igned
bu f
Ġc lient
C heck
ay er
ak en
F ONT
Ġp erm
so le
ĠN or
F l
R eturn
Ġimport ant
bo ard
ĠC ont
Ġind ic
Pro v
L abel
el ine
c ell
v is
M S
ĠD ep
)$ ,
st ream
Ġl oad
C reate
P art
pro ject
cl us
Ġshow s
ĠC up
cl ose
Ġext ends
B utton
Ġr a
P age
olog ical
Ġw he
// /
il er
ire ction
Ġst atus
ĠIn ternational
ĠS ch
g le
Ġcoun try
eqn array
al let
ab or
Ġd ied
O S
Ġcont ain
Ġe ither
Ġsh own
M em
Ġcon struct
Ġw ar
Ġpro b
Ġcon c
olv ed
ĠThe se
ic o
m t
Ġs ample
Ġstruct ure
" ),
s mall
ap s
Ġvar ious
is ing
ot ion
Ġproble m
form at
Ġse qu
S up
if orn
Ġf urther
inn er
Ġre lation
6 7
ens ity
Ġal ready
^{ (
Ġro und
Ġw indow
ĠP er
Ġw ater
ch i
Ġf ac
Ġl o
ur b
at as
Ġstr ong
Ġwork s
Ex t
C ell
ĠI N
ch ange
Ġre d
V ER
m ain
Ġim plement
le vel
B ack
Ġ< !--
at tr
Ġme an
com m
s ol
Cont roller
ĠO ne
Ġn orth
Ġterm s
Ġs epar
N O
Ġperform ance
Ġmethod s
con tainer
Ġst ates
bo ok
Ġm argin
ev en
4 9
oy al
iforn ia
ĠA c
d et
ap ter
20 22
m m
Ch ar
0 5
idd en
serv ice
Ġc irc
er efore
M et
Ġ ]
od ing
av y
end if
Ġlang uage
Ġn ov
v are
ourn al
Ġacc ount
li p
jav ascript
Ġprov ided
b or
( &
v ec
Ġd on
gorith m
E m
Ġtr ad
Ġt w
F irst
Ġd ouble
ir m
" ).
: </
pl it
it ect
A fter
oci ety
Ġle ss
R ow
ĠInd ian
A cc
at al
m em
Ġg en
i ol
q l
Ġl imit
199 9
Ġm iss
Ġs on
ĠD iv
Ġc lose
ĠI r
ĠA p
B ox
ig ger
Ġp ot
L iving
or ge
Ġv er
Ġdevelop ment
y nt
min istr
Ġph ys
p o
Ġbe come
ig in
Form at
Ġelement s
Ġre pl
Ġconsider ed
ounc ed
l ong
List ener
P eople
Ñ Ģ
m ember
action s
Ġ url
Equ als
W eb
4 7
U I
use um
ĠM ich
Ġcol l
Ġ$ {\
Ġin div
ĠD is
param s
Ġin s
Ġcl aim
est ion
fer ence
}^ {\
Ġo ption
ex p
ock et
Ġfr ame
ab ly
, "
ĠS an
ce ed
S ON
199 0
res ponse
m enu
ĠEng land
g en
r ing
Ġfollow s
Ġin ternal
IN T
includ eg
includeg raphics
Ġsign ific
ĠR iver
Ġsu ff
f ilter
Ġh aving
ud io
Ġeng ine
Ġv ideo
Ġvill age
w ise
d ev
vare psilon
ar a
//////// ////////
Col umn
Ġfunction s
AB LE
M ode
pect ed
Ġh istor
em ph
Ġqu ant
r angle
Ġle d
Ġstart ed
iv il
Ġ( (
ĠCal ifornia
B C
R ep
Ġf ont
ens or
t ag
Ġm illion
b urg
f e
ul a
f inal
Ġd ate
i as
ann ot
o o
Ġgroup s
d ict
p ack
ĠS tr
up date
Ġform at
itt le
k s
le an
P RO
Ġcommun ity
Ġle ast
em ents
G r
st yles
app ing
O D
Ġ` `
k a
R A
ol l
land s
n um
ar ies
Ġcon trib
y ear
Ġd a
ĠS im
< ?
Ġ ide
7 7
Ġfe atures
Ġaut o
oc r
Ġmov ed
Ġs outh
off set
right arrow
ft ware
Ġtr aining
Ġv ert
Ġl ight
P re
p ass
ĠPart y
L ayout
ord in
or ph
v es
Ġv ia
Ġm ove
ĠA g
ĠR ed
Val id
ref ix
ĠH REF
} =
rem ove
i qu
c an
Ġp ut
Re ad
St yle
to ol
D et
ĠC LASS
) =
ĠĠĠĠĠĠĠĠĠĠĠĠĠĠĠĠ ĠĠĠĠĠĠĠĠĠĠĠĠĠĠĠĠĠĠĠ
Ġcol lection
c el
Ġpr act
T em
Ġup date
ĠRep ublic
tem pt
ER T
ang ed
Ġsh ip
Ġc atch
in stance
Ġindiv idual
B ig
L ast
med i
id ence
ot a
ĠAustral ia
Ġpro duced
Ġin ternational
Ġc ross
ĠE l
b olds
ĠW ith
B undle
ĠS o
ly ing
i ers
Ġh owever
Ġpro perties
O b
ell ow
bolds ymbol
str act
S pec
Ġ Ã
% %
Ġcont ains
`` `
ession al
am ily
6 8
ak er
E nt
Ġappro x
Ch ild
Ġd ev
i ation
Ġs em
Ġb g
sh ow
Ġassoci ated
Ġpro duction
is f
Ġestab lish
Ġf low
un it
Ġserv ices
G L
col umn
Ġw rite
Ġyou ng
ĠG o
F ilter
ĠE m
Ġf ri
U M
Ġdisc uss
om b
Ġan t
n umber
Col lection
ad ian
Ġn ormal
I I
Ġs che
Off set
ic ient
pro cess
as ing
Ġse arch
L ength
os p
Ġcomple x
ĠA cc
w rap
ã ģ
Ġn av
B U
Ġdistrib ution
UR L
ac ity
Ġc opy
Ġadd ition
ri es
ag ed
r is
Ġser ver
fl u
i res
l it
m ost
h ib
s f
Ġspec ified
s cope
Out put
H E
' ).
ot ed
Ġf ather
I Z
Ġc ou
enc ies
ge q
Ġs old
ĠA ward
Ġprov ide
Ġto get
ĠP ort
T P
[ \
ele g
Ġtoget her
G e
refer ence
Ġinter face
Ġw est
Ġdif f
_ .
Ser ver
Ã ¶
C ache
Ġaver age
pro of
el se
w ide
Ġinst ead
ĠAr my
b a
s m
D B
at ural
Ġdeath s
Ġg e
Ġc ame
Ġs ocial
an el
Add ress
pro to
Ġadd ed
Ġm ale
I M
ill s
Ġat tempt
ĠN ot
g ing
Ġl ower
A A
ens ions
Ġp ay
Ġf em
a el
A ut
or iz
ĠC our
ou ch
il ities
CO L
ĠInd ia
. }
199 8
ĠGener al
ĠPres ident
0 8
ad es
Ġb lack
R em
Ġg raph
g l
am l
out put
Ġbel ow
Ġun it
var phi
> >
ĠO lymp
al le
Ġt yp
Ġn one
Ġact iv
ĠR ev
Ġmod ule
="../../../../ ../
T YPE
Ġann ounced
P er
p ly
C ON
Ġf und
Ġpolit ical
ag n
Ġg lobal
ĠAmer ica
ĠD o
Ġc ost
Ð¾ Ð
il m
ĠIn ter
Ġcent er
Ġfield s
back ground
Ġpro duc
ĠCh urch
Ġspec ific
ER R
id ing
it es
Ġ row
b ased
4 2
Ġstand ard
c irc
A ss
Ġcons ist
Ġh alf
Ġs ym
ĠH T
ry pt
ex ec
ĠM al
ĠU p
Ġc ustom
k it
Ġw ent
Ġc ases
Ġe ast
ex ample
air s
Ġoper ation
++ )
Ñ ģ
ĠA PI
Ġf ail
Ġin f
Ġm atrix
ĠS um
Ġn eg
ĠF irst
Ġsignific ant
ĠV ir
L et
5 8
} ).
Ġbg color
ch iev
198 0
Ġact ive
. ~\
NA ME
Ġd ays
Ġne ver
Ġe ar
D e
ef ined
Ġrefer ence
Ġst ory
U rl
W h
Ġj o
Ġre view
s pec
Ġre cent
Ġsuccess ful
4 6
util s
ĠFr ance
ĠB el
ist ics
d epend
h line
ĠB ut
Ġse lect
Ġl iter
Ġme ans
Ġrele ase
W idth
Ġ[ ]
ĠP al
Ġs pect
#### ####
ĠC ouncil
Ġa ward
art ifact
ĠCan ada
ĠQ ue
Ġt ypes
Ġd one
e h
Ġwhe ther
var i
Ġep is
ag o
Ġf ocus
Prov ider
Ġin it
P C
u el
Ġloc ation
d ep
Up date
ip al
Ġon ce
Ġrem ov
Ġmult iple
i ents
Ġcall back
Ġac ross
Ġn umer
ĠI D
ĠEurope an
ĠH ol
ĠG overn
v ey
w indow
Ġob j
com mand
av el
id s
sup port
ri a
ing le
y r
s d
sk ip
ĠR oman
iz ing
E ng
**************** ****************
on ly
Ġqu ery
ver se
f a
ro te
Ġpl an
ĠAr ray
ile s
li er
A b
7 8
and id
0 9
=" -
Ġl oss
Ġwork ing
Ġsystem s
it ar
il led
Ġs ay
Ã ¤
Ġpot ential
ĠTh om
T ypes
y a
c er
Ġmed ia
ĠA nt
C L
199 6
Ġpolit ic
com mon
ail way
ugg est
pro p
Ġstud ents
Ġ! ==
fr ak
0 2
ĠTr ans
Ġreg ular
5 9
T ree
Ġse lected
stit ute
) ]
0 4
ch an
Ġpartic ip
f act
}, \
h an
Ġe con
ĠJ ames
ĉĉĉĉ ĉĉĉ
ic ation
Ġ( "
ĠT ype
ã ĥ
ĠR ober
A g
199 7
& \
Ġm ilitary
plic it
.. ..
Ġac cept
t ask
Ġh uman
. \
Ġn ec
ĠS k
Ġst ream
s cale
Ġm ode
Ġapp oint
e al
Ġl im
Ġfile s
ĠG roup
str ap
M in
Ġg l
Ġc lear
Ġem ploy
em pty
Ġthe ory
ĠP aul
Ġbe com
ĠSt reet
Ġr ank
Ġg reat
Ġse en
lay er
Ġr ate
ĠD em
ĠD i
w est
Des cription
ĠL icense
Ġm aterial
o on
Ġal ways
Ġcomp os
T arget
Ġwork ed
over line
ĠE X
Ġpop ular
) ^
Ġinst all
8 8
prot otype
Ġph ot
V is
Ġf loat
ĠR oyal
ĠThe n
s v
Ġsub ject
ĉ ĠĠĠ
Ġbo x
O pen
ĠS en
a ign
M ax
at ives
a a
| |
Ġab le
Ġm aking
( _
Ġp ain
Ġg round
v an
ĠM y
id a
bo ot
5 7
A ccess
199 5
Ġex press
ĠS m
im ated
Ġv ector
ic les
ĠGe orge
z er
Ġt aken
ĠR ich
Ġchang es
par se
M ed
Ġw in
CO DE
Ġdec l
b in
lang le
tr ies
class es
Ġp aper
is es
i os
I O
Ġbro ad
W ork
om ent
Ġcond itions
one y
Ġt re
Ġcompon ent
En try
ou thern
ug e
Ġarg s
app a
Ġadd itional
Ġst ep
Ġconst ant
Ġfil ter
ion al
L ambda
X X
Ġpres ident
Ġhigh er
ach ing
iz es
5 00
av en
b ool
Ġsat isf
Ġreport ed
c ache
ree k
ul ated
Ġc apt
t ree
0 6
r d
Ġs cal
artifact Id
Ġl ines
h ood
Ġg row
Ġwe bs
d ocument
Cont rol
] );
m at
0 7
ot al
Ġf ar
cript or
Ġf requ
N D
Ġm arried
ĠAss ociation
197 0
' ),
. /
S p
C o
} ),
Ent ity
gr ad
ĠR em
b ind
] [
T op
C ase
tem plate
Ġreturn s
ĠDiv ision
P O
Ġhe alth
{ {
Un it
Ġind ependent
Ġ* *
ess ages
ĠDav id
ers hip
am il
}} $
() ->
Ġh om
ol ve
ĠUn ion
te e
Ġap plication
Ġjo ined
Ġcon v
Ġj ob
li ke
ĠM ark
} /
Util s
Ġent ry
act ers
O ne
Ġn ames
m atch
Ġa chiev
L oad
y th
U P
Ġcond ition
0 3
Ġme et
b b
199 4
et t
Ġw rote
Ġe as
requ ire
Ġs cale
m box
cit ep
a ur
Ġdef e
Ġm er
( [
T ag
ĠW eb
: "
Ġr andom
B o
c r
Ġo thers
ash ington
He ader
Ġrel ated
199 2
ol ic
ĠR ef
qu are
at ory
Ġam ount
Ġ ...
Ġobtain ed
Ġcomm it
sh ould
at tern
f loat
Ph i
Ġl en
Ġin flu
ra z
ef t
ĠGerm any
ound s
ĠD on
t ml
Param eter
d ist
Ġoff set
Ġto o
group Id
Con tainer
et ch
cont rol
Ġh ard
ĠB lack
UL T
w ait
a uthor
Ġst op
ro ot
od ed
Pos ition
ld ots
b and
ber g
Inter face
Ġsol ution
b reak
v ille
con f
ĠCh ina
He ight
st ant
math frak
ar ing
AT ION
ĠF l
S H
Ġan alysis
Ġtrans form
Config uration
ache s
5 6
Ġl ost
Ġu int
ess or
Ġcomple ted
Ġf uture
ĠP o
Ġdevelop ed
ob ile
ĠF ile
Ġrec ogn
Loc ation
Ġof fer
ĠF rom
g ed
. âĢĿ
Ġbet ter
Ġp ur
Ġoper ator
m ing
ber t
. $
Ġp ress
af e
ĠL aw
d s
ĠL og
ar io
Ġ ill
text it
Ġro ot
in ated
ĠL ou
u int
Ġsim ple
ri an
ĠM ount
Ġm id
Call back
ã Ĥ
l ate
ut ive
Ġare as
ach ine
ĠAr g
Ġinclud es
Ġpart y
Ġs om
Ġdirect or
Ġen vironment
Ġ ::
Ġcal cul
Ġsign ed
="../../../../ ../../
Pro cess
N ext
b uffer
Ġcon ver
ĠS ub
st on
val ues
Ġp rior
Ġopen ed
ĠCent er
Ġarch itect
ĠO F
un ch
A M
un t
Ġbeh av
D r
ip p
od er
an i
Ġs uggest
return s
im er
Ġrespect ively
S earch
Ġd ensity
4 3
res ource
Ġcon nection
to ken
Ġ Â
o ch
à ¤
Ġcorrespond ing
Ġf ig
Ġl ik
un n
ĠAustral ian
Ġth us
IG N
ĠB er
umn i
ĠN e
Ġappro ach
Ġeduc ation
ct or
Ex ec
Ġcomp an
Ġro ad
as ons
IZ E
all s
styles heet
Em pty
199 3
ĠĠĠĠĠĠĠĠĠĠĠĠĠĠĠĠ ĠĠĠĠĠ
u a
Ġcan not
Ġl ive
Ġrem ove
\ %
sp lit
K E
P o
err y
9 5
W rite
n ected
Ġcurrent ly
ĠM et
s ign
le ase
g in
lic e
en a
c a
Ġvir tual
F O
ĠN S
ĠD ata
A V
wo od
4 1
() :
Ġ{ }
Ġperform ed
lang uage
Ġright s
ĠAs sert
em s
A PI
ri ef
Ġoff ic
ĠD uring
Ġth ough
H ttp
Ġresp ons
ab s
m ut
Ġpro p
ĠAr ch
R L
Ġb uffer
Ġprof essional
Ġm ight
ĠCour t
ĠPro v
Ġbel iev
Ġd raw
ma il
199 1
im ately
ĠP e
Ġb i
Ġx ml
ĠH all
n ab
sub set
ask et
\ |
Ġwh ose
Ġch urch
ĠReturn s
Th read
L e
he nt
file s
Ġe val
Ġex ists
Ġcon tract
Ġfa iled
ad ow
L evel
ĠM art
sh ire
h i
Ġdef ine
ens ive
S im
we ight
ens us
model s
b ra
E nc
ult ural
Ġt en
k appa
Ġsong s
Ġ* )
H ash
Ġdeb ut
Ġcomple te
Ġb en
ar ter
Ġset t
Ġteam s
mod al
in i
pon ents
ĠA pp
Ġst age
ĠG L
Ġv oc
om y
ĠDep artment
s y
Ġcontin ue
g reg
COL OR
Ġfor ce
Ġent ire
b efore
L o
5 1
tr ack
if orm
ĠSt ud
Ġsupport ed
Ġcon struction
Mod ule
ĉĉ Ċ
R ange
ont al
Ġv iol
C urrent
ty p
am s
Ġobject s
ugh ter
Ġwebs ite
J son
anc ed
ĠS ince
Ġpos itive
u z
F e
Ġqu al
so ft
= #
n ap
Ġit er
il i
ct x
Ġa way
p atch
d evice
Ġdeg ree
Ġacc ording
ĠC r
S igma
V AL
Ġh app
> ,
: (
P ort
ro s
Set tings
Ġcontin ued
tain s
ĠAc adem
Ġc ast
ĠComp any
ot es
B r
C D
S O
V ert
% ;
d at
Ġpro posed
ain ts
d ebug
im ages
ĠV ol
Ġnov el
Ġre nder
Ġint egr
ell ing
ot imes
liam ent
it ing
ĠA ng
Ġset s
Ch ange
d rop
wh ich
ag ing
IN E
ĠW ashington
Q L
B A
c ial
N one
Tr ack
DI R
D irect
enc ed
Ġallow ed
Pro t
st ack
ĠS ervice
eder al
ut or
ĠM ex
S chema
Ġd ynam
Ġlead ing
E CT
ĠM ag
Ġh on
Ġp adding
Ġh old
Ġwh ite
6 9
ĠC O
ines e
doc s
Ġ ~
Ġg ive
" ))
Param s
ĠM od
C an
ĠM ary
ast ic
Loc al
Ġcl osed
? :
Ġ ;
ĠRober t
Ġt ag
m en
u ous
O p
ĠM usic
s in
Ġcon duct
ST R
18 7
ĠO pen
Ġtem per
ĠD an
ex pected
R el
Ġdes cription
b order
Ġrecord ed
Ġrun ning
ĠR oad
c i
Ġfil ename
Ġaut om
ĠC reate
Ġc ertain
ĠH en
S cript
Ġd oc
us es
L I
Con nection
Ġnec ess
a o
Ġpol icy
ĠL et
Th ere
ig en
} )$
ark s
ma ke
ĠM or
d ot
ĠFr anc
Ġ" \
f s
l n
Ġus es
he st
ĠS ee
und er
o e
Ġro ck
Ġsequ ence
ug ins
Ġline ar
ent ity
Ġcon str
Ġto ol
Ġex ception
Ġt ree
ms g
196 0
Ġcl os
" ));
Pro ject
Ġf ire
Ġdirect ed
ĠO ut
Ġp ast
Rec ord
ĠT own
ĠS ociety
ĠIn stitute
out e
Ġat tribute
ĠIt al
Ġch annel
Ġex cept
d ated
b our
Ġad ministr
S D
u ated
O ption
F T
= {
a uth
al a
S w
Ġintro duced
it ude
Ġfr ont
ĠCan adian
Ġmark et
ub e
Im pl
ĠP ress
Ġse lection
Ġoper ations
Ġch o
Ġchar acters
C P
Ġgo al
Ġr ather
M M
h r
ur i
oriz ontal
198 9
. )
Ġb ar
; ->
Ġoff ice
ir it
p ite
ag on
ĠAfr ican
c s
I V
t og
Ġre ason
St at
ĠM iss
tt ps
Ġke ep
ĠKing dom
Ġin c
ĠL em
atas et
M on
u ate
ĠS am
Ġequ al
9 8
D ir
Ġdist ance
Ġw ife
an o
ick er
Ġv ict
ĠT ur
ple te
Ġsol id
oun ter
Ġth ink
Pro perties
Ġre v
Ġne igh
and s
h ash
Ġconfig uration
Ġz ero
ĠIs land
F ont
ain e
d i
Ġhand le
Ġem pty
ĠM ac
Ġpart s
un ity
est ival
5 4
ĠD E
d elete
w s
inter face
ag ment
Ġ> =
Ġrad io
T I
ĠB uild
Ġb it
Ġ ir
Ġc andid
e in
Par ser
f g
se y
Ġm ot
Ġpass ed
Ġass ist
Ġph ase
im est
boot strap
ar ily
M O
ru pt
Ġgener ated
C opy
Ġt reat
Nav Bar
urs or
Ser ial
al led
Ġalbum s
ĠG ames
Ġs cope
ĠJ ack
center ing
5 2
ĠB ay
en ed
D ocument
nab la
iction ary
Ġcon tr
ĠB G
om s
Ġst ar
ĠC ap
M enu
ĠRuss ian
Ġf lo
Ġform ed
Ġchang ed
Ġparam s
g u
ar ian
ĠD irect
Ġpat tern
z a
Ġh ttps
ĠEx ception
ĠT V
Ġmod ern
As ync
ant ic
Ġwrit er
Ġal though
not e
in ternal
ĠC ong
Ġim prov
k ind
se cond
j oin
ĠM ore
ict ure
& #
n ormal
re a
f ill
Ġtem plate
j o
Ġe lected
Ġover ride
Ġqu e
param eter
Ġtrans fer
Ġr ace
Ġits elf
ang es
ĠJapan ese
g n
$ (
Ġcent ral
w id
Ġp ers
d est
ĠC ath
Ġk m
ĠB est
Ġwrit ing
Ġcor rect
ate gy
Ġfound ed
ĠH istor
Ġsur face
at io
Ġst ri
Ġac qu
Ġlarg er
198 8
Ġcompan ies
ĠB ase
re y
Ġap plic
asket ball
s ort
c os
Ġrel ative
Ġappe ared
Ġc ut
Int eger
Ġd evice
P tr
Ġappoint ed
Ġgo ing
{ }
ĠCl ub
ĠA lex
Ġset ting
Ġal gorithm
Ġv ers
ĠS ome
pan ish
w idget
yc le
omet ry
re nder
PE CT
Ġreg ister
ĠT ex
Oper ation
v ector
Ġdet ails
Ġmon ths
ĠThom as
c lear
Ġpr inc
ĠM useum
ĠT ime
S k
\ [
m ission
Ġhas h
t hen
d en
Ġs eg
ensure math
\ !
Ġpro of
Ġt our
Ġf ixed
s end
Ġfollow ed
non umber
as c
and er
H O
ur a
P ass
S ession
{ -
ra el
su ccess
Ġmult i
6 3
ro ad
ĠU s
ĠRec ords
ĠF orm
Ġn atural
ourn ament
led ge
5 3
add ress
Ġwe ight
Ġhim self
ict or
Ġreg ard
ĠG reen
Ġc red
ĠCent ral
ill a
c ard
Ġn or
ĠL eg
ĠJ ew
ĠU K
AR T
Ex pression
Ġn om
ĠAfr ica
str ict
Ġun its
Ġlarg est
ĠO per
equ al
p op
Ġcamp aign
on a
Or der
Ġmem ory
Ġequ ation
Ġpr imary
erm an
L eft
Ġprov ides
yn ch
C ore
ĠM o
Ġt ro
ĠP ublic
is k
m ore
C A
================ ================
Ġd irection
Hel per
S u
or ing
Ġs ession
D evice
ĠJ er
Ġm other
9 7
Ġr ule
str y
Ġbir th
M atch
ĠM ad
ec k
ound ation
AL L
Ġarg uments
Ġschool s
; "
ar p
Ġw ord
ang er
ĠW ork
Ġrelation ship
Ġmiss ing
en v
In st
ä ¸
ĠGr and
Ġup on
g lobal
ou l
block List
ĠSe ction
ix t
Ġl iving
Ġst ore
ĠAcadem y
ul ations
D raw
foot er
c at
trans form
Ġs creen
ann er
ul ly
R ender
ick et
n ce
U B
ic ol
ĠAs sembly
Ġfootball ers
Ġal most
ĠAcc ording
=" /
eleg ate
Ġp ack
Ġdes igned
b on
Ġm ar
Ġrepl aced
c opy
Ġdirect ly
Ġ[ '
ed y
d ots
6 2
Ġf it
ĠB ook
St ore
ĠItal ian
struct or
Ġdisc over
P op
'] ,
p ing
Ġh ous
Ġvari able
Ġun ique
ĠBG COLOR
anag ement
Ġmax imum
ĠChrist ian
ĠM at
w in
ank s
Ġal umni
Ġin j
Result s
pl ugin
ĠZ eal
1 000
198 7
Ġfin ished
Ġle arning
Ġle ague
s ystem
ĠM ont
Ġal t
ĠP re
wid et
T itle
irc raft
to String
iss ions
v m
ĠY ear
D D
R ect
Ġplay ing
Ġiss ue
c ur
tab ular
D own
ĠWest ern
m id
ĠK ore
ĠR ad
Ġde al
u an
Ġarg ument
equ als
p df
Ġe ight
ĠZeal and
B O
m es
Ġsub sequ
osp ital
Tem plate
ĠMin ister
web kit
( -
Ġk ind
oper ator
ĠChar les
m ode
h over
( :
ĠSc ott
Ġas k
t ion
Ġen ough
ĠDem ocr
a fter
por ary
ĠP at
} -
Ġf av
Ġso ftware
Class es
d irect
Ġwe b
l as
art s
N et
Ġneed ed
198 6
om a
ĠMich ael
Ġf ight
Ġin fo
\\ \\
Ex p
e an
W hen
M ar
Ġex pression
Ġus ually
ĠSum mer
S ign
it ter
ĠLou is
Ġs cript
th let
Ġsw itch
Ġconst it
ĠS al
re land
az ine
ic ult
M ult
9 6
ĠE ar
ĠM er
Ġpre c
P R
u it
Ġinv olved
Ġout side
iz ations
I con
ĠWh ite
ĠCar ol
r ics
Ġj av
Ġto ken
V ari
N ames
T ER
y cl
c lick
typ es
Ġro t
ĠWh ile
arg ument
E Q
Ġf all
widet ilde
and ed
Ġcom e
ĠVir gin
ĠS l
Ġm ount
Ġs ymbol
Ġcoun tries
S A
s ite
Ġfri end
& &
Ġequ ival
ac cess
ex port
Ġp air
Ġ} )
r ange
Ġgu itar
198 4
fo o
eth ing
Ġed itor
ĠOlymp ics
arn ed
ĠL at
P L
H ost
Ġtr ansport
E v
set tings
Ġfor ces
Ġs il
Ġdef inition
et ime
Ġor igin
4 00
Ġexper iment
pl ing
Ġj ud
Met adata
ru le
ĠO R
AC K
ĠT or
## #
he t
ĠE nd
ĠĠĠĠĠĠĠĠĠĠĠĠĠĠĠĠ ĠĠĠĠĠĠĠĠĠĠĠĠĠĠĠĠĠĠĠĠĠĠĠ
k m
s cal
ĠN ame
-- >
ĠĠĠĠĠĠĠĠĠĠĠĠĠĠĠĠ ĠĠĠĠ
ap se
Ġt aking
Ġs end
ĠG old
depend ency
Ġre serv
re ater
c over
b ound
ĠM ap
end ar
Q ue
ĠTex as
Param eters
L ong
F ig
ri al
Ð »
ĠF ield
wh ite
v as
pan el
ĠCh inese
="../../ ../
Ġthrough out
U se
ern el
j ust
c p
/ \
us ical
clud e
id ents
He ad
s ession
ĠO b
ĉ Ġ
T ool
Ġm anager
ĠT O
ERR OR
Ġrel ig
duc ation
Ġin line
o om
ĠJ ust
as ic
Ġcomp ar
w rit
Ġcon nect
Ġl ittle
F C
F alse
Ġex act
198 5
N on
Ġd ig
Ġg ave
Ġda ughter
Ġs ports
-- -
ĠT om
ic ons
com ponent
=" _
Ġco ordin
Ġe cho
Ġcl uster
ĠE rr
ĠFranc is
dis abled
pecial ly
Hand le
Ġbook s
Ġn odes
H P
pr ing
ĠTh at
ĠG reat
Refer ence
F L
T e
Ġm oment
it a
Ġprevious ly
Ġclass es
st ep
ĠM em
f n
}} {
} ]
ĠD ec
Ġme chan
re q
6 1
ĠF ootball
P ost
Ã³ n
Ġund efined
OR T
D ebug
Ġpl aces
hand le
pen ame
S l
am era
Ġbo ard
ĠS ing
AN D
D ep
3 00
Ġed ge
F il
Ġcour se
ify ing
Ġinst it
Ġj ournal
ĠD ay
at ively
Ġt akes
ĠEX PECT
is l
ĠTr ue
p g
ynt ax
he ast
c ustom
Ġm akes
; \
Ġim ages
el t
S erv
Ġfact or
Ġpre dict
x is
g an
R ev
Ã §
o pe
ĠO ther
Ġnum bers
Ġd am
Ġcour t
Ġiss ues
Ġexist ing
R ight
Ġpresent ed
at re
ĠC heck
Def inition
Ġbuild ings
imest amp
> ();
Ġqu estion
Ġepis ode
Ġc ache
f ocus
k r
Ġc ivil
pe ople
ind ing
Ġco ach
V ector
vent ion
anc ial
Ġpar se
k i
N um
i ences
ĠP ri
re al
Ġsym met
Ġk illed
' .
S L
Ġn amespace
, -
Val ues
_ ;
Ġstud ies
Ġb ig
mer cial
Ġ& =
ff ff
Ġup per
for ce
in ct
Ġm unic
K ind
ĠOr der
Ġconc ern
In valid
I R
is ation
ĠL oc
p adding
s cri
\ ]
ĠCom mit
SE T
annot ation
Ap plication
G o
col l
Ġy et
ĠN ote
med ia
âĢ ľ
th ing
Ġdest roy
ĠSup er
ĠH istory
A pi
Ġeff ort
Ġrepresent ation
y per
Ġh it
19 50
h igh
Ġmat ches
ĠF ore
ĠReg ister
Ġj oin
ĠR un
OR D
Ġper cent
equ iv
\ {
8 7
Ġmon th
frame work
H as
ĠFor ce
eth er
, âĢĿ
D om
id ae
Ġcontain er
Ġallow s
As sert
ĠH el
Ġt it
ĠC he
ĠPar is
ĠJ ose
ing u
Ġdom ain
} "
I ter
m as
Ġim medi
ĠS T
198 3
a iled
Ġs ound
Ġdiff icult
Ġincre ase
V er
8 6
ge bra
Ġfem ale
Ġst ations
Ġg ot
stand ing
az z
E M
Ġd elete
w ell
Arg ument
Ġt ax
ill ing
Ġart ists
Ġact ual
P arent
ĠD el
ed ge
8 9
St ack
AT H
ĠSec ond
Ġitem s
ex ception
Ġs even
A m
Ä ģ
f ony
Ġex hib
P T
Ġproble ms
Ġun signed
P erson
d el
ĠCath olic
ov iet
I F
con nect
co q
ĠC re
tog gle
Ġst re
Ġa void
ĠSm ith
Ġre n
os en
i pe
ĠB en
A c
D o
Ġpl atform
ĠD et
sq l
Ã ¨
Ġch all
Re ader
X ml
re es
oun try
Ġmed al
l am
ĠV er
ĠD ate
y e
Ġpol ice
Ġ ign
Ġspe ed
M D
Ġra ise
Ġoriginal ly
Ġlist ed
Ġw ords
ym fony
Ġread ing
Ġcom ment
ĠFr ank
Ġs en
Ġpro gress
ĠRich ard
( *
M ock
Ġs ort
Ġeffect s
8 5
25 5
Ġat tr
ist an
ig hest
se m
Ġth erefore
proto buf
Ġor d
all ow
-------------------------------- --------------------------------
E l
icro soft
G ET
ĠIs rael
Dec l
ĠP eter
198 2
Ġst ated
g raph
Ġo s
Ġcompon ents
Ġt err
le v
' >
ĠSc ience
ut ch
Ġfin ite
AT A
Ġtrans action
Ġbas is
Ġapp lied
Ġrepresent ed
Ġlong er
ĠJ SON
pl ugins
; <
lem ma
Ġd imension
z eta
Th at
Ġal tern
Ġd atabase
ĠCom mand
clus ion
all ery
is ions
h older
Ð º
ĠA ust
ĠA ut
Ġtrans ition
he lp
Arg s
D F
ĠE q
\ "
Ġro ute
S ION
field s
in ing
ĠF lor
p ub
st ar
Ġext ension
P si
Ġl ibrary
ĠC ON
it able
ĠE v
Ġevent ually
Ġ" /
j ection
ĠR ob
ann ing
Ġsur v
ĠL ong
Ġobserv ed
ind ent
Ġ( '
Ġre ached
on str
S e
t ip
av ed
Ġs us
Ġre ve
omet imes
> .
ĠG od
Ġhe ader
Ġh olds
Ġab s
Ġg ives
n el
set s
rec ated
ic ago
ĠThe orem
ell a
Ġacc ur
sh ot
By tes
ĠV ictor
Ġh ar
j a
ĠM ath
ert ific
k y
ov ers
} +
r um
est ed
ĠĠĠĠĠĠ Ċ
ish op
Ġsc ore
Ġrun s
oc key
re me
Ġvis it
in line
197 9
raz il
Ġs plit
or se
rom e
Ġother wise
ĠF ilm
ad min
anu fact
c ategory
ollow ing
Ġset tings
c up
ann ed
ĠS panish
ĠL os
Ġp ackage
text width
W E
p resent
Ġs m
Ġj son
ĠB ill
ac ement
Ġnot e
Ġpro te
et te
Ġopt im
ish ing
ĠD u
Y ou
ĠI reland
ĠHT ML
B ody
ĠComm ission
Ġapp ly
Ġby te
EN D
Ġby tes
Ġn et
Ġc op
p ers
Ġvari ables
by te
ĠM el
D ialog
Field s
Ġbro ther
ĠL ake
Ġcomp ared
Ġth read
") ]
En abled
Ġdec ision
aw s
Ġtr ain
i h
sum er
it z
ĠM ass
Ġst e
av er
ĠHen ry
Ġpolitic ian
Ġcont aining
) =\
ĠO ver
ĠRes earch
ant a
Ġstart ing
vir tual
}_ \
ĠR E
pr ime
ong s
ĠGe org
Ġes pecially
Ġin side
W riter
wide hat
Ġs ources
ell s
Ġneed s
n am
ĠS ur
erv e
Ġerr ors
Ġ er
al ed
ill er
Ġ$ {
Not es
Ġl ayer
Ġcap ital
aut o
198 1
in et
ig an
R oot
ĠI O
m ock
at tribute
re place
M ain
f ree
a res
ir l
) }\
ĠP enn
Pol icy
Ġrem ained
im s
Ġst aff
Ġsec urity
call back
v ed
Ġmanag ement
S ince
Ġa ircraft
C S
up le
Ġr ules
Ġbeh ind
Ġbroad cast
ol f
bo olean
ret ary
D elete
en um
f ull
Ġim m
ĠPro f
Ġstruct ures
ic ate
i en
Y ear
W rap
mit ted
a ud
Ġa uth
Ġbeg inning
Ġart ist
ĠTe chn
Mem bers
Ġth ought
y es
' ))
at o
Ġn ight
C al
Test s
ap plication
Ġpl ant
d ouble
` .
Ġremov ed
Ġfam il
Ġdirect ory
in sert
C lick
N N
ut y
ter m
ĠW omen
L S
P ackage
ans ion
Ġdistrib uted
reg ister
form s
ag ram
Ġs aw
Ġpl aced
D oc
ex ports
th at
Ġan aly
ĠH ow
FA ULT
ro t
ĠK ey
ad s
T ab
Ġbut ton
C are
ĠSw ed
leg al
f il
ĠR ock
R I
Ġinv oke
cl oud
Ġto wards
m aterial
com ment
o res
Ġperson al
id ers
197 6
OR M
Ġs ex
D i
Ġin du
om orph
Ġsign al
net ic
By te
b ot
Ġfour th
Ġm ention
ut ing
Ch anged
Ġsmall er
ĠCommit tee
7 2
ĠF inal
Ġ+ +
ele ction
evelop ment
Ġd u
Ġocc up
O K
Ġy ield
k er
ang uage
Ġindu stry
E arly
M ark
197 2
ĠT able
} =\
atal og
Ġ\ {
R ed
ul ate
ab it
ynch ron
ĠVirgin ia
co in
$ )
Bo olean
Ġcon cept
Ġcou ple
t w
Ġaward ed
if est
Ġp or
Ġfeature d
h old
sh ort
x x
ip eline
8 2
re ement
}^ \
Ġbehav ior
; /
or ation
ĠP ost
197 8
P S
P A
Ġ' /
U RE
c pp
Ġpart ial
key word
Ġprob ability
Ġstud ied
ĠK n
T V
Ġg old
Ġdem onstr
th m
or a
ee k
reg ion
Ġfamil ies
al ax
B l
Ġwho le
Ġsc en
Ġcol lege
ĠP an
ĠC amp
Ġs ure
st ore
us ion
item s
ĠH ill
O ther
Ġphys ical
N ote
à ¸
ĠI ll
Ġsh ape
Ġtemper ature
Ġf ace
h s
) ^{
Ġcrit ic
Ġte ach
Ġn ative
Ġfinal ly
S he
Ä ĩ
Ġlim ited
G B
l ers
7 9
C re
) /
Des criptor
Ġ ess
ĠM ethod
Ġcoun ter
ĠL O
pass word
Ġsc ient
Ġeffect ive
Ġs ch
c md
ĠĠĠĠĠĠĠĠĠĠĠĠĠĠĠĠ ĠĠ
Ġnecess ary
Ġdescri be
ĠCong ress
Ġfor ward
Ġm sg
bed d
ol k
ado op
y ing
Ġsing er
197 4
f amily
197 5
Ġcol lect
ĠM il
Ġimp act
St orage
Ġestablish ments
Ġmov ement
Sh ow
ĠE vent
ol ar
Ġgener ally
C ustom
ĠR equ
ĠâĢ ĺ
ĠA L
ud d
Ġgr ant
197 7
Ġc ause
ic ated
pro x
el oc
Ġl i
Ġincre asing
ĠF in
li e
ĠC ast
Ġorgan ization
k o
Ġlik ely
Ġ ),
ĉĉĉ Ċ
Ġw ait
Ġst ars
8 4
Ġle ader
Ġdoes n
Ġbound ary
st at
ond s
ic i
Ġcompet ition
in itial
ĠI S
Ġbecom es
Ñ ĥ
inst all
er ies
Ġvol ume
Ġassum e
R ule
n ames
J ECT
Ġfl ag
ĠAr ts
f ly
ign ment
Ġt ournament
e es
Ġun known
Ġ< =
Ġc ulture
Ġin cor
S um
Ġpract ice
en ing
g s
196 8
ur t
D L
Ġrem ains
alle l
em ail
{ (
ĠMex ico
ge les
Ar t
ĠM us
ĠB ig
Ġsom ething
Ġm iddle
m argin
p ool
M y
J ob
Ġh ighest
Ġm oney
Ġw allet
es h
ie ce
__ (
Ġan g
M eta
li ance
G E
Ġg as
Ġa ud
Ġear lier
ĠGovern ment
math sf
ple ments
un signed
Ġm ut
pre t
Ġtest s
E ach
Ġb all
Ġv eh
Ġf ood
Ġdec ided
Ġres ources
ĠT em
ĠFig ure
ĠĠĠĠĠĠĠĠĠĠĠĠĠĠĠĠ ĠĠĠĠĠĠĠĠĠ
Ġre pe
Ġpre m
Ob j
Ġs ens
ĠA v
: #
Ġd ro
con trib
SS ERT
ĠCh icago
Ġex tra
ol ume
Ġus ers
Ġpro file
put e
Ġcon nected
ĠIt aly
Trans action
AG E
ĠS aint
am i
=" @
Ġfor ms
n umer
Ġact or
ĠU ser
ĠV alue
} |
ĠIt s
7 6
tain ed
s che
ac c
s pe
Ġde ep
ĠAn geles
Ġd ed
el ves
Ġinv olv
ad y
gr id
ĠM odel
ĠTh us
Ext ension
pro duct
197 3
g a
ĠD en
ip ality
Ġv an
ĠRuss ia
Ġinvest ig
uss ian
rom ise
ĠN avy
ĠL ine
agn ost
u f
ĠC D
Ġrem aining
Ġquant um
M an
ou b
mo oth
key s
sc r
ĠChampionship s
HT ML
Ġp ri
ug by
Ġimplement ation
Ġsc ored
Ġsp ent
Ġb ank
ig er
ĠPro ject
Ġser ial
rad ius
ĠP ub
Ġact ually
ĠT wo
ĠK e
Ġun c
ag ger
ĠL and
s ur
Ġl ock
cd ots
Ġpre vent
se ct
j i
ĠSc ot
line ar
Ġjav ax
con nection
rel ated
ress ion
"> &
` ,
Ġart icle
th read
add r
Ġp ick
on ic
her it
al i
ĠE mp
ous ly
ĠSer ies
y an
im ents
Ġext ended
Acc ount
In itial
ĠK h
Ġrem ain
sc roll
im a
ĠIn c
ing er
C R
ĠE r
Ġh tml
Ġt y
Ġp urch
194 0
AC E
Ġassert Equals
D ist
) -
ĠFlor ida
Ġso on
ent al
ed it
Ġ Î
Ġbro ught
Ġb asketball
sol ute
R et
ĠF e
rec ord
TE ST
sp ring
cre te
ĠU RL
Ġad opt
KE Y
Ġth ings
Ġto day
9 4
ub y
B S
anc y
ĠR el
197 1
Ġac com
lo od
c ar
d imension
du le
Ġb ottom
}) \
ol ver
re lation
res ents
Ġcon sole
Ġb ur
* )
} :
Ġex plicit
org an
Ġapprox imately
ol a
F inal
16 0
ĠM ax
Ġgr and
ev e
at ically
Ġcont act
CT ION
pp ed
A ME
Ġsc ience
q quad
il s
Act ive
194 5
ind er
Que ue
Ġqu ick
Ġstr ict
B R
ut er
h adoop
Ġev idence
Ġexper ience
ĠT w
ĠErr or
ĠF oundation
ĠPar liament
Ġmin or
Ġl ove
Ġgener ate
. ~
Ġn uc
Ġrecord s
ĠS oviet
Eng lish
os ing
Ġl ack
ĠBo ard
==== ==
Ġpe ak
Ġb tn
ĠCarol ina
196 9
Id ent
Ġlevel s
ov a
Å į
Ġon line
Ġre ally
F loat
Ġwrit ers
Ġnew s
j query
S end
ĠF estival
Ġcom mercial
ĠL ife
od ec
Ġint eger
b i
Ġappe ars
n one
Ġact ress
Ġg un
Ġtr avel
Ġf if
un ched
9 3
V ar
w ar
On ly
N etwork
Ġet c
yl van
Ġc it
Dis play
Time out
ist ers
h ouse
ĠEng ine
Ġc ategory
Ġin str
Ġdiffer ence
ĠĠĠ Ċ
Ġresult ing
ĠV AL
Act ivity
Ø §
n y
Ġm ur
Ġl atter
or al
Å ¡
J SON
yth on
Ġdiv ision
Ġg a
P lay
ele br
=" ">
ly ph
Ġleg al
ian a
urre nc
m aster
Ġincre ased
v a
Ġd b
%% %%
drop down
e ch
ĠSt ep
ut f
~~ ~~
el li
Ġbr anch
op ed
ĠU se
ay ed
25 6
Ġtr ade
ang o
9 2
Ġ$ (\
ĠP lay
h ar
Ġproduc er
ect ors
ir med
Ġplay s
Ġap i
Ġstud ent
Ġca used
ĠAn n
ĠSt ar
FI LE
Ġp en
Ġsh are
Ġpub lish
' re
Ġover all
19 30
Ġben ef
Ġm anufact
ou ri
Ġbeg in
st ats
@ "
Con st
ian o
B it
ĠO ld
vari ant
Ġ$ .
if ies
Ġun ion
f aces
b al
ock er
l ines
Back ground
ĠHe alth
Ġmean ing
Ġcons ists
c ut
p are
}} (
Ġsp in
W idget
Ġch arg
ir ing
Ġst ack
Ġw ide
ĠG l
os h
in em
Ġsim ply
) "
nap shot
Ġh ot
Ġtrad itional
i ro
ix el
ĠGo ogle
ĠU nder
ĠNew s
at i
w a
ul er
ĠH and
ri p
sh ape
x space
7 4
[ :
Ġw rap
u ages
st op
P RE
Ġreg ions
ass ets
196 7
ĠK ar
pro perties
M ember
Ġcrit ical
ent er
b ul
Ġpro per
Ġrec over
j ar
ts d
Ġb ad
Ġnot ed
in ate
Ġide a
W S
9 1
Ġh ours
Ġ% }
Ġ{ };
196 4
ĠF I
m iss
Ġp ark
By Id
amil ton
Ġchar ge
mod ules
ad ium
f it
P ool
ĠT ext
resh old
ĠS il
8 1
Ġac adem
}^{ (
ylvan ia
G S
ĠAl though
Ġsh ared
app ed
umer ate
ĠB razil
anc el
ip s
Ġelect ron
or ter
ĠDef ault
Fl ags
s pect
ĠW ales
Ġant i
( !
M e
Ġ( *
ĠA wards
ĠO h
L P
s ample
result s
ĠSh ow
Ġvoc als
Ġs ometimes
Ġm ock
N ow
en ge
at ur
ĠProv ince
Ġro om
C I
ĠT imes
Ġt alk
Ch annel
T S
8 3
IT Y
ple x
p ri
Med ia
ĠM ost
Ġ icon
Ġent ered
ĠAt l
S che
Ad apter
Ġm atter
Ġs ays
stit ution
Ġproduct s
Ġtrans l
hent ication
w riter
r b
{ {\
Ġr ap
Ġact ivity
=" "
Ġfin ancial
cont in
D uring
^ +
Ġinstance of
ĠM ur
g it
Ġm aster
T C
atri ate
. *
ik i
Ġpr ison
Ð° Ð
in v
ixt ure
Ġwh om
ĠL u
ĠP et
m ove
r or
ir a
ĠIr ish
TE D
Ġsepar ate
() {
Ġre strict
Ġfe ed
Ġprogram s
L ock
Care er
ific ations
Ġw oman
Ä ±
Ġ â
ĠN OT
Ġsh ot
Ġill ustr
ann els
it an
A tt
il ation
Ġ ensure
ĠF alse
ĠHistor ic
J ohn
S U
VER SION
ar ia
)) )
d im
y g
and ra
7 3
Ġend ed
Ġ& \
Ġrequ ires
ma z
Item s
Ġal loc
wh ile
k g
ĠP ac
Prot ocol
196 5
ĠL iber
ĠM a
N e
ĠS un
re v
ĠRe ad
Ġc ore
im pl
ĠCol or
ĠAl so
Ġw id
ack et
Ġhand ler
ĠEmp ire
k in
Ġch ain
d x
ĠB ur
Ġstat ement
Ġequival ent
b es
}\ \
ĠAr ab
print f
Ġactiv ities
Ġfig ure
Ġparticular ly
196 6
19 20
U ID
urre d
P attern
bit r
Ġc ensus
Ġse asons
E C
ud a
Log ger
] $
Ġed ition
Ġneg ative
P ATH
sec urity
ĠĠĠĠĠĠĠĠĠĠĠĠĠĠĠĠ ĠĠĠĠĠĠĠĠ
Ġch art
ĠB rown
ĠB ank
Ġat tributes
Ġf ully
Ġmin utes
T ABLE
An y
Ġch oice
Ġc lean
Ġk ing
ans as
Str uct
Ġatt ended
Ġb attle
p ay
all oc
Ġkey s
s ave
ĠT our
ĠLem ma
not ation
am m
ec ause
Ġag ent
ĠG en
ar ation
Ġrece ive
}\ ,
ex ternal
um s
se lected
point s
th rows
tx t
ĠMart in
Ġpo et
com ponents
Ġc ard
fl ags
Ġrel ations
V ID
ĠS ocial
Ġecon omic
Ev ents
. __
Ġch ampionship
Ġopen ing
() ));
w an
Ġtechn ology
M sg
ig a
O M
ĠM os
G u
ail y
l g
Ġgo als
Des c
act or
Ġequ ip
Ġw inning
pr imary
Fil ms
ĠJose ph
ne ctions
igr ation
Ġclass ical
Ġnew sp
EX T
ĠD om
Ġs ense
o z
el er
ĠL i
Ed it
Ġem erg
em ic
Ġw alk
ĠC all
Ġa ctions
Ġd ir
in y
Ġm usical
Direct ory
Ġstud io
& =
ĠS ir
ri z
Ġent ity
ĠNor thern
7 1
Ġbas ic
Ġp anel
ĠF ort
Ġmed ical
Ġr ailway
Ġme as
sh all
it o
ens es
) ),
() ).
on ym
B efore
s ylvania
Ġqu ality
) ).
Ġn ature
des c
b ad
Ġappear ance
er c
Mem ory
ĠL in
ĠG i
ĠO l
sk i
AD D
Gr id
Ġinter view
Ġdeterm ined
hand ler
ĠL ibrary
P erm
Ġpl ot
] :
S IZE
Con f
Ġown er
P anel
que ue
ĠE ducation
Ġr iver
_ ->
Ġph il
ĠYou ng
Ġpre d
Ġsur round
om ial
Sup port
Ġlo op
ĠT op
Ġcom es
ook s
Ġco ast
Ġd im
Ġe lem
h orizontal
LO G
A F
Ġpr im
Ġmajor ity
ĠE li
t ex
Ġc he
Ġnor thern
ĠCh ief
Ġs ave
)) );
L java
S cope
L a
ms elves
are t
Ġbl ue
h ol
Ġre comm
In ternal
S o
MA X
Ġl ay
Ġsh all
eloc ity
ĠV ersion
Ġd ataset
S ymfony
ĠV iew
} </
Ġb al
ĠH ot
AR Y
Ġis land
In it
Ġ[ ];
ad or
ĠCol umb
ĠN etwork
Con str
orn er
f c
ĠIr an
ĠW ood
le ep
Ġs outhern
X T
Ġhe l
//////////////// ////////////////
av al
Ġbr ing
Ġtr ansp
N E
Trans form
type of
Ġpro duce
and ard
Ġdec re
Ġ" "
Ġpro ced
ĠD ev
struct ure
Ġwe ak
ĠG a
Ġl ot
Ġ util
Ġknow ledge
pro file
Ġcall s
f ound
SC R
P ublic
ynam ic
h av
el a
v ant
Ġth reat
import ant
Ġequ ations
ĠTe am
Ġla unched
and a
ick s
r ine
w ild
Ġthe mselves
Ġmin imum
as ion
Ġprov e
Ġm ission
Ġold er
s chema
Ġstre ng
ç ļ
P AR
s cription
Ġframe work
Ġcoll abor
Ġdefe ated
ph ere
ĠI l
ven ue
Ġdeterm ine
n etwork
Ġn g
ĠDirect or
R est
ĠH aw
ĠI d
Ġident ity
. '
Ġex ternal
un ct
ap ers
Ġcontin uous
Ã £
dom ain
s creen
ĠL ove
ĠG reek
Sec urity
ĠB attle
Ġown ed
Ġneigh bor
ĠC opy
ac count
p a
Ġatt ention
are a
ĠR h
cont roller
D atabase
u er
N ULL
ĠC ross
ertific ate
Ġfe el
r ich
Ġfore ign
S ection
çļ Ħ
_ ,
( {\
Ġrep resents
Ġf ast
ĠII I
ĠIn st
res et
Ġm ixed
Ġch ief
A uth
ell ig
ĠI P
Ġn orm
b lack
} '
', '
St ep
Ed itor
Ġpres ence
RO M
Ġs low
m anager
assert Equal
ne q
ï ¼
ĠĠĠĠĠĠĠĠĠĠĠĠĠĠĠĠ ĠĠĠĠĠĠ
M ENT
sh ift
ab ilities
Ġimmedi ately
Ġd ark
Ġvari ety
" `
Ġco eff
At tributes
NavBar Cell
Select ed
os itory
Ġg reater
cit et
Ġden ote
++ ;
Ġc hem
Ġf oot
ect s
ĠEx ec
] \
sup er
Ġcent re
R ad
Ġsum mer
Ġdes c
iver se
w er
ĠSp ain
S R
al og
ag er
ĠG al
O wn
File s
Not Null
Ġest im
Lo ader
un ior
en ant
Ġest imated
C ar
Ġbuild er
se ud
ĠT im
os oph
j e
âĢ ¦
us band
Ġw ood
ap prox
Ġle ave
yd ro
ĠPenn sylvania
Ġre duced
h space
ĠM r
Ġsol utions
Ġin n
as y
tr igger
Ġcandid ate
ĠF ri
Pro xy
}} }
ot ic
ĠPro gram
e cho
ĠA R
air man
= -
str a
A v
IN FO
e ach
ĠP oint
Ġdis e
Ġcomm ission
ib li
Ġinitial ly
In v
L IC
tern et
Ġin sp
Pro p
Ġst orage
ĠB ul
arri age
ĠN O
196 2
ĠN ow
def ined
######## ########
c b
Ġvis ible
Ġf ra
F urther
Ġm ix
196 3
Ġinter val
mut able
Ġt im
Ġoffic er
or ial
ĠV is
Ġder ived
F ound
ch annel
B rowser
Ġc elebr
ĠL ee
J ava
Ġg alax
inn ers
by tes
Ġm achine
$ /
W orld
r ong
Ġmag azine
t mp
Ġsche me
Ġre con
ateg ories
Ġmeet ing
D el
Ġh idden
c ape
ang ular
assert Equals
f ore
Ġcomput er
Ġr atio
ĠTh erefore
Ġle arn
h idden
Ġ= ========
j ob
ak a
Ġcon serv
= (
ĠW al
ĠP y
C lose
Ġmost ly
=" ${
b rowser
Ġh um
Element s
Window s
Ġblock s
-> _
Ġsing les
dimension al
is hes
ĠP eople
ĠO ption
sy ch
Ġliter ature
Ġinflu ence
Ġl ived
ĠH amilton
Ġs quare
Ġ" <
ev ents
Pr int
Ġproject s
W A
194 4
Ġf ederal
Select or
ĠC ivil
eng ine
Ġre ach
N G
ĠG ame
ed s
Re ce
Ġgrow th
Ġch osen
i ography
ĠA tt
Ġex tract
Com mon
Ġparent s
ploy ment
item ize
pro ve
Ġc ounty
test s
ĠC ode
Ġuse ful
is c
Ġsample s
u ing
Ġsc ene
ot ing
D em
ar c
Ġconstruct ed
ĠM ain
ĠO p
du led
d p
ro om
l imit
Ġb rief
Ġim plements
Ġfail ure
ib ly
t otal
pos itory
Ġenc oding
Ġseg ment
tab s
ele vision
as er
at ible
gr ade
ost on
config uration
ĠJ im
ĠC am
log ger
ĠH on
ĠC amb
Ġin valid
m ann
Ġinst alled
Ġto ld
ĠIn itial
cal led
Ġimp lies
SCR IP
'] )
S ymbol
Ġw aves
h ome
_ (
k ins
Ġ Å
r ase
ceed ed
ĠP aram
Ġrecent ly
math scr
ĠĠĠĠĠĠĠĠĠĠĠĠĠĠĠĠĠĠĠĠĠĠĠĠĠĠĠĠĠĠĠĠ ĠĠĠĠĠĠĠĠĠĠĠ
por ation
Ġexample s
ent h
ĠVal ley
ro ke
ĠS ol
Ġsen ior
met adata
k w
] ]
Ġmov ie
k l
Ġar my
ĠOff ice
Ġhe avy
V ideo
Ġt ouch
pos ite
reed om
Ġs af
ĠM P
ĠRep resent
ĠCol lection
ĠJ o
Ġra ised
Ġa wait
Ġfrequ ency
b ing
Ġin sert
{ $
Ġun iform
Ġr an
iqu es
Ġev olution
n es
Po inter
\ '
h ide
UT F
196 1
Ġconf lic
Ġf unc
ill is
M B
Ġr isk
Ġdr ama
ĠBrit ain
ust rial
Ġsup p
ĠB ob
Ġarchitect ure
n orm
Ġprob ably
Ġcap acity
Ġrefer red
Ġs n
r ift
Ġqu arter
Ġfor ced
m i
ĠS y
Cl uster
Ġtest ing
en umerate
ĠA N
tool s
Ġt ab
Ġj oint
F ull
Ġc ref
ĠTO DO
D S
Ġapplic ations
the orem
Ġc le
Con d
enn is
D uration
er ial
ĠJ ournal
Ġelect ric
Ġag reement
wrap per
To String
Ġsu c
ed itor
Ġappro pri
urrenc y
Ġ ip
Ġbecom ing
mult icol
ĠT ri
ult y
", "
ST AT
col lection
in f
Ġan sw
ĠCon fig
ad r
Ġoption al
Ġad apt
Ġlet ter
Ġ io
ĠCom mon
ĠM ah
12 3
Ġnumer ous
con s
D A
Ġcommun ities
> :
con tains
Ġrespons ible
Ġf n
X ML
M atrix
Ġindividual s
cre d
d ialog
Ġab solute
15 0
P i
ens ed
ĠDemocr atic
M C
Pro file
The n
Fe ature
C ap
ĠS outhern
P ay
h ing
Ġop port
multicol umn
b ury
Ġint eg
Ġ{ '
Ġh usband
ĠH a
Ġf le
}} {\
| ^
nav List
Ġprot ocol
Ġcre ation
Ġc arried
Ġal gebra
H R
Ġm ask
sw itch
Ġann ual
G raph
Ġen abled
ac le
Ġcol on
Ġas ync
D on
r ick
operator name
Ġass igned
ĠW indow
Ġocc ur
ĠP ak
Ġ- \
param eters
Ġun iversity
ĠO f
Ñ ı
R oute
Ġar m
Ġt rib
et ts
ĠF unction
S pace
Ġ eth
st one
En um
1 20
Ġcre ating
C ast
ĠOh io
in ations
ach us
) +
} +\
i Äĩ
Ã£ o
Ġgen us
ĠJ ac
ĠEd ward
Ġpos itions
Ġse a
Ġdep artment
Ġrelig ious
P P
ĠS ar
D ouble
ĠL ord
i ate
che n
ĠMich igan
ĠAs ia
r idge
ĠU kr
Ġg reen
et ween
pon s
Ġ[ [
Ġde ad
gy pt
ĠT ask
Ġl ib
is ms
t ely
p icker
Ġhigh ly
il a
tr iev
no indent
ĠĠĠĠĠĠĠĠĠĠĠĠĠĠĠĠ ĠĠĠĠĠĠĠĠĠĠĠĠĠ
ential s
Ä į
Su ccess
Ã ±
ay a
ul s
Ġd ebug
Ġin ner
av ity
ON E
194 2
Ġd raft
ap os
Iter ator
T erm
Ġab ility
Ġest imate
Ġweek s
ĠP op
ĠS erv
Ġcell s
Ġb inary
ĠU N
ĠJew ish
Sc roll
app ly
v space
194 8
Ġvers ions
fr ont
BU G
Ġar rest
Ġserv e
Gener ic
L ayer
D est
Ġmur der
ino is
Ġin come
Ġmet ric
prot ocol
[ $
Ġelection s
Ġf arm
Char acter
sw arm
at ers
S ER
f ort
ĠH ere
Ġfootball er
} -\
Key s
Run time
wild fly
aw a
end or
com ing
r id
Ġre ject
Ġar bitr
ac ro
Ġne ut
ex ists
S I
Ġcit iz
Ġnear ly
head ers
ind s
Ġhistor ical
Ġr ail
ĠAs ian
ĠN ode
ĠO x
hem at
ĠF red
f ail
ce an
ch or
ĠPac ific
Ġask ed
Ġag reed
Ġent er
S Y
at ial
Ġcar ry
195 6
195 8
id x
ĠL android
t im
ĠJer sey
ĠM ajor
Ġpress ure
refer red
ĠCh ild
sequ ence
ist ent
Pl ugin
ĠRad io
Ġv s
Ġpur pose
Ġpass word
prot ected
S ingle
Rem ove
Ġwant ed
ĠD utch
get Name
ev al
n il
ĠC ro
ard en
ar ant
Ġexp ansion
y er
ĠPol and
ĠEar th
ĠS pe
Ġmov ing
< !
) }{
ph er
195 9
Ġtreat ment
cent r
igh ter
Aut o
Ġex port
Ġdist inct
ĠJ an
Ġf ix
ĠQue en
it ation
Ġcon sum
CH E
Å Ĥ
ĠE ach
) ">
Ġident ified
H igh
ĠUp date
Ġun ivers
S ocket
m ir
Ġh yp
ir ls
iz able
Ġup dated
ĠT ro
Ġv ote
ĠCar l
burg h
Ġpo or
g reen
Ġb ul
Ġs ociety
ĠCon ference
SCRIP T
193 9
Ġvert ical
ent y
pro ps
ĠIO Exception
Ex ample
ĠCent re
M apping
ver y
pos es
pl atform
fil ename
ele ase
Ġsp read
ĠMed ia
Reg ister
ĠJ ava
Ġgener ation
195 7
Ġset up
ĠK ent
ow ers
Ġvict ory
Det ails
d eg
ĠM ov
Ġserv ing
Ġthe me
Ġbel ong
ur er
Ġs light
Ġcomb ined
Ġwh y
Ġxml ns
Ġmention ed
}} _
M ore
achus etts
ion e
ĠS u
: \
Ġact ors
it ors
ph one
Par se
B E
Ġ( _
Ġmain ly
Ġsuff icient
bl ue
Ġvis ual
Ġmanag ed
Ġoper ators
) }$
at tributes
oc aml
def inition
Ġre li
os a
cri be
S equ
prov ider
å ı
Ġtyp ically
Ġf iction
C or
S QL
F ailed
Ġprof essor
Ġid x
G en
Ġ" ,
Ġp ool
ad el
Ġdr iver
Ġm otion
Ġp il
par ser
Ġon es
pt on
ĠSec retary
Ġmag netic
sk y
Ġm essages
Ġse ek
her ited
d ates
Ġm icro
col Last
Ġsur vey
ĠĠĠĠĠĠĠĠĠĠĠĠĠĠĠĠĠĠĠĠĠĠĠĠĠĠĠĠĠĠĠĠ ĠĠĠĠĠĠĠĠĠĠĠĠĠĠĠĠĠĠĠĠĠĠĠĠĠĠĠĠĠĠĠĠ
N ational
ograph ic
Ġorder ed
Ġclaim ed
z ero
ell o
ĠRes ource
Ġ= ======
ĠScot land
Ġl if
M at
Ġpolitic ians
child ren
comp iler
194 3
ĠM iddle
Ġcover ed
Ġw ave
Ġstr ategy
194 1
B rit
Ġrecord ing
riter ia
T A
Ar ch
al o
ole c
Ġdet ail
Ġty pename
ĠJ ones
ell er
eng er
D C
all classes
Ġ ui
ĠEn ter
Ġl ives
or iginal
serv ices
ore t
Rep ository
ĠS pecial
Ġb ass
S ports
Ġ( -
O pt
Ġturn ed
Ġsett lement
v c
ym met
s ymbol
oper ation
m aven
Ġre q
Ġorgan izations
ĠC ons
est ions
Ġs quad
Ġfact ory
ĠF C
am ing
iter ator
Ġc ities
coll apse
Ġsh oot
Ġd rop
Ġlist ing
F ail
Ġn ine
Acc ording
con n
ĠPr ince
Ġtrack s
ĠO ur
Pro duct
ĠR o
P ORT
ĠP rem
ĠHe ad
Ġre ct
istr ation
Ġse at
Gener ator
s ingle
Eng ine
ĠM i
Ġr u
if ically
ĠB ow
st ein
col First
cl aim
Ġcomp osed
Ġship s
ĠG ood
ĠP ass
ĠPort ug
m ask
Ġ ul
ak ers
f ect
Ġnav igation
hen s
Ġm is
Ġsit uation
12 8
Ġconstruct or
I X
Ġdo ing
ĠR am
ĠD evelopment
Ġtype of
ĠB re
Ġsecond s
ĠM en
urb an
Ġcomput e
p refix
Ġgr id
I B
Ġv elocity
Ġtask s
Ġre place
b el
log in
amp ions
Ġc tx
Ġre duce
Pass word
Ġan im
194 6
B ound
Ġder iv
Ã ¸
Ġhelp ed
clud ed
ro le
195 2
the me
ĠFrancis co
m ond
Ġp p
Ġex am
Ġpo inter
Gener al
Ġdr ug
">< !--
Ġun less
Ġno ise
Ġle aving
ĠGovern or
Ġoper ated
FF FF
Ġpr iv
Stat ement
ĠIs lam
Ġco q
F unc
Un ited
ĠB ern
as hed
R AN
ĠK ong
ĠE lect
() </
G lobal
Ġoffic ers
lo ok
Ġfore st
Ġsem i
text tt
ĠWilliam s
en abled
Ġas pect
St op
ĠB as
l an
ĠN umber
Ag ent
Ġsay ing
ab eth
j pg
pre v
ĠC ard
ĉĉĉĉ ĉĉĉĉĉ
i ated
' $
Ġh yper
Ġwork ers
Ġcom edy
Ġhe art
Ġret ired
Ġ ice
ty ped
Ġpl ans
195 5
Ġnetwork s
ĠIll inois
ĠGeorg ia
ĠE qu
Ġsize of
S ync
Ġwest ern
ĠK r
Ġcho ose
ĠL uc
Ġdepend s
Ġdes pite
Ġem bedd
aj ax
Ġcontr ast
eta iled
I E
Ġ\ |
194 7
Ġe igen
CHE CK
ĠB oston
ĠH am
\ }$
m atrix
Ġocc urred
A X
Ġpl ane
ph y
Ġprom in
Ident ifier
Ġapp end
por ated
Ġtr aff
Ġa xis
f ri
Ġst ories
il ly
N odes
Ġs al
Ġform ation
build er
on to
und red
ĠJohn son
c y
g ence
Ġt x
Ġlang uages
Ġl ayout
ax is
ĠThe ir
Const ants
Ġvert ex
Ġd at
t body
_{ {\
Ġcomple tely
Ġfri ends
ĠT re
ĠR et
Ġdep th
F S
Ex pr
mo z
ĠInd ex
ĠW hat
Ġbr idge
ĠI E
un a
Ġc ouncil
e z
ĠMass achusetts
Ġeas ily
ĠĠĠĠĠĠĠĠĠĠĠĠĠĠĠĠ ĠĠĠĠĠĠĠĠĠĠ
f lo
Ġinter action
Ġal leg
Ab stract
195 4
est s
Ġdes cent
ĠS pec
Ġad j
.... ....
O UT
ĠSen ate
art ers
Ġpart ies
Ġcompar ison
s ys
Ġ" -
$ }
Ġcom ing
t ags
Ġe q
ĠJ ud
n ic
Ġj Query
Ġmap s
Ġsit es
Ġin fin
Ġfam ous
ĠPhil ipp
oth ing
Ġsubsequ ently
Ġthe orem
Reg ion
sh adow
ĠOn ly
Ġ? >
Ġrequest s
in ant
a is
; }
ĠThe atre
S eg
\ ,\
Ġchall eng
g ame
Ġspect rum
ĠLat in
Ġlead s
ch er
Ġnot hing
sv g
Ġst ra
ĠT HE
ĠEast ern
Ġsp aces
j unit
ĠF urther
Ġs ister
-------- ----
r ical
eff ect
Ġc at
ou ter
Ġrepresent ing
Ġp ages
Ġm useum
Ġb us
194 9
ĠH ash
LE CT
ĠS oc
Ġfav or
ic ine
=" $
min us
E O
Ġst eps
? >
RE AD
ĠR ailway
Ð ´
}} ,
th on
Ġref lect
Ġbeliev ed
ĠBl ue
ĠB oth
Ġprocess es
ĠM any
w all
Ġgo es
x s
ier arch
Ġque ue
Ġp refix
Ġmod ified
ul pt
d iff
Ġsuccessful ly
b g
s en
rior ity
Ġ{ {
s ince
Ġsum mary
ĠL o
Ġ ],
ul f
ĠS O
Ġrad ius
s he
ĠE lement
Ġaccept ed
33 33
ex tern
ag raph
F IG
Ġdis k
ch a
! [
Ġcomp are
Ġga uge
Ġf un
lo op
Ġacqu ired
ay lor
Ñ Į
if fer
6 00
ars ed
ĠL ie
ach ment
ĠE gypt
195 3
Î ¿
ĠC a
Ġquick ly
Ġregion al
Ġprov iding
ĠA ction
Ġmet adata
user name
Ġfe at
Ġr aw
ĠCo ast
ĠL ab
ĠT ra
ĠB u
Com par
Ġs mooth
v est
á ĥ
n ers
Ġoffer ed
b ro
ing ham
CE SS
Ġtr igger
ĠA ND
ĠOff icial
Ġm erg
rib ution
it age
Ġen able
ĠG ets
numer us
Ġim prove
Ġv on
ĠH ung
numerus form
F LA
ĠB or
V M
if iers
od ay
nt ario
M ut
yn omial
Ġperson nel
Ġcont ained
Ġ ).
em porary
Ġocc urs
Brit ish
b as
Collection s
sh ared
eder ation
Reg istry
Ġstat istics
.. .</
Ġr g
o ir
ĠInt eger
ud get
Ġab stract
d ependent
ĠĠĠĠĠĠĠĠĠĠĠĠĠĠĠĠ Ċ
and on
ĠPl aces
Wrap per
P refix
ĠEx t
id ay
Ġ' <
Ġex change
y o
ĠB ol
em on
ic ies
pro gress
an try
p ower
Ġcon centr
ĠSt an
Hel p
Ġdiscover ed
Vari able
St ats
Ġclass ification
Ġg iving
s el
Ġclub s
exec ute
(' .
ov ed
d one
. <
ic ans
ct rine
ĠOx ford
Ġl ic
. ");
Ġcon vert
ĠCor ps
Ġf irm
Ġint ended
At tr
Ġw atch
G ame
em y
Ġla unch
tem p
ic ip
B AR
N OT
S ample
el d
Ġc ru
z one
IN S
in ity
Ġt or
ĠH ome
Ġcolumn s
m os
gener ated
( __
pro d
ition ally
il arly
C ategory
Ġexist ence
Ġo il
ĠSe a
Ġfl ags
ĠScott ish
Ġ{ "
ĠP ath
- $
ĠReg ion
Ġth r
g g
b its
f ixed
Ġeas y
Ġe arned
Ġc li
TE XT
Ġv oice
Ġre triev
at ar
195 1
Ġl ab
Ġb rowser
erv ed
out heast
Ġp y
R R
H ER
Ġcomp act
ĠM id
Ġver ify
im inal
ra wn
ĠColumb ia
cd n
iv ial
j d
{ %
ĠR ay
ã Ģ
Pro ps
mult i
Ġc os
ident ifier
ur ies
S cale
Gener ated
f d
Ġsec ret
olog ies
Ġse em
play er
p at
= >
ĠKore a
te en
Ġw ays
Res ources
anc ing
P layer
Î ±
ĠB ack
b en
h u
on ia
Ġin form
sc ape
medi ate
o les
D P
Ġiss ued
ĠJ r
ĠN AME
IT E
Tr ansport
Ġh ockey
ĠV an
ser ial
ĠHT TP
ĠW ay
li br
Wh ile
Ġconstr aints
IN D
Ġex it
) ->
ĠPol ish
$ _
Sim ple
Ġmunic ipality
Ġexec ution
Ġbe y
Ġfact ors
Ġw or
Ġ[ "
hes is
Inter val
Ġsign ature
ĠIn f
Ġlog ger
th ur
> ::
subset eq
Ġhe nce
Ġstr ings
Pro gress
ĠM u
Ġform al
sc ss
ĠBro ad
Ñ ĭ
Ġh ospital
Tr ace
Ġmark ed
Ġm enu
ellig ence
ĠA ff
ĠR oute
press ed
det ail
Ġess ential
iter al
ĠW all
Ġcall ing
HT TP
ĠB ang
Ġres olution
ew idth
rop ol
W R
s id
Ġ il
ĠM essage
spring framework
r andom
Ġpor tr
Ass ociation
ex pr
Ġdel iver
ĠS und
align ed
Ġlead ers
Ġexp anded
n i
Ġdiscuss ed
L INE
Ġstra ight
z z
ĠAlex ander
ĠJ ean
Ġm arriage
ele ted
M usic
19 18
CT YPE
ĠBer lin
Sec ond
Ġget s
Ð ¼
Ġn ation
Ġc ultural
Ġqu ite
ĠAl b
att al
b rief
ĠJ es
UR I
ĠB O
v s
ict ed
Ġconduct ed
h olds
U LE
Ġbey ond
A uthor
v o
T x
Ġ ut
Ã¡ n
Ġmag n
j ango
imit ive
ĠE con
f x
Ġexec utive
Ġdep art
' \
r an
art icle
am az
rop y
193 6
ut enant
Ġmatch ing
ĠOr iginal
up load
Ġsus p
Con n
__ __
U SE
ĠW is
h om
Ġprot ect
det ails
check box
Sh ort
Ġcont roller
M ay
Ġhead ers
Ġd oub
Ġl icense
od d
B egin
f ix
orn ing
Ġel im
AL SE
Ġ[ ],
ĠJack son
(' #
Ġshow ed
Ġa wards
en able
Ġcontrib ution
Ġappropri ate
Ã© e
Ġex c
ĠEx ample
ĠL ater
f ire
ĠAnd rew
ĠC reek
ĠU I
The ta
ĠSt at
AR N
d em
" |
Ġprov ince
' ));
i Ã³n
uck y
ĠH ong
w hen
ian ce
Ġeffort s
Ġrele vant
Ġp an
il ing
Ġhigh light
ang ing
Ġprocess ing
Ġfor t
Ġfin ish
P ub
epend ence
ic ed
ro vers
Ġp airs
Ġa im
ĠLoc al
Ġpre v
l at
Ġcompet ed
ĠSt ation
al g
circ le
us ers
x html
Sum mary
ĠRe act
ĠSt e
Ġtr a
ĠN ight
r uby
lo ader
Ġhous es
ĠL ittle
PO ST
requ ired
Ġconc ert
Ġpartic le
Ġoper ating
ck et
ĠIm age
Ġr ac
op es
TI ME
ĠSec urity
R ole
I ST
Ġrel atively
N T
Ġan c
ze ch
L anguage
193 8
in valid
Ġadministr ation
Ġent ries
N amespace
gorith ms
yd ney
Inst all
st orage
ĠSup port
P ER
ĠS and
maz on
F low
Ġro b
th row
Ġtro ops
P H
(' /
Ġfore ach
h ref
Ġp ush
ĠB i
che ster
print ln
ĠSt art
ĠH ttp
Ġc er
l arge
att ice
ĠH arr
Ġ ×
' }
IC E
Serv ices
j oy
inn es
Ġdiv ided
ate way
S election
Ġt ensor
ĠVictor ia
~ $
aw n
ĠCon serv
Frame work
Ð ²
ĠA SSERT
Ġr ing
Vis ible
Ġon to
/ _
z en
ĠH uman
t ar
err ors
Ġdid n
Ġcur ve
un ique
S ome
c f
Ġnull ptr
c lean
fe ature
D T
Ġwe ap
ĠW ild
Ġem ail
Ġexp and
Ġrem ote
duc es
Ġprim arily
Ġan gle
p et
ĠK en
ys ical
sub figure
Ġindic ates
Ġexper iments
ĠO ntario
Ġp urs
Ġf air
od s
DE FAULT
h l
Ġnear by
cl uster
ĠF our
h ard
nd ef
Ġ ens
ĠCon f
um es
u v
ĠPol ice
ĠBel g
Ġf ill
p icture
Ġexact ly
as ync
< \
EE EE
( @
ĠP ower
T otal
Ġcomb ination
it ical
25 0
am ber
A rea
Ġform ula
Ġbase ball
n n
ĠRepublic an
Ġre ports
Ġchar set
ĠM ult
Ġro les
anc er
web pack
ĠM ot
on om
t or
et ic
Ġassoci ation
ĠF ar
Ġdet ection
I MP
ĠProf essor
C red
; ">
under line
com plete
Ġmain tain
Ġtime out
Ġmaterial s
z abeth
we et
Ġs ynt
ĠF ree
Com ment
, '
ast e
Ġtri al
Ġd ict
Ġth erm
S pe
C RE
Ġdecl ared
ĠS om
Ġmet al
Ġres idents
ĠTechn ology
R PC
M I
Head ers
M ath
v in
lin ewidth
L eg
an th
Ġaltern ative
hel per
Ġeast ern
Ġat tract
% )
Ġl ies
Sk ip
Ġunder stand
olog ist
res ources
Ġtransfer red
Ġepis odes
form ance
innes ota
Ġf re
Ġf ellow
D epend
ĠA z
op l
ĠOr gan
Ġdec om
A ng
\\\\ \\\\
ĠLO G
193 7
PRO JECT
Ġyou th
Ġlabel s
Ġl at
index Of
) |
Com m
Ġre ader
TR UE
Ġaccur acy
Ġpro xy
ĠS i
Ġcal c
Ġdig ital
ĠD ub
Ġprom oted
Ġreve aled
Ġexperiment al
Ġor ient
^ ^
Ġadopt ed
ĠE st
if def
DO CTYPE
Ġauth ors
p erson
M ake
Person al
Ġfif th
pl ot
Ġachiev ed
ID TH
Go ogle
ĠOlymp ic
ĠArray List
Ġt a
Ġpr ice
um in
W est
ĠReg iment
ĠĠĠĠĠĠĠĠĠĠĠĠĠĠĠĠ ĠĠĠĠĠĠĠĠĠĠĠĠ
ĠJust ice
not es
ĠL ight
an z
ec es
ad ing
ĠCopy right
ĠArg ent
ĠH ospital
ĠRes ult
ĠF ederal
U ri
Ġappear ances
Ġp ert
ĠM ember
ĠSup reme
Ġfl at
s afe
Ġw inner
Ġse ems
Ġsecond ary
M OD
Ġconf irmed
typed ef
Im port
Ġth ing
ĠV iet
pos al
M iss
p ull
Ġadv ant
Ġsymmet ry
Ġassum ed
O B
Ġtry ing
b at
pl us
Ġen v
n eg
Ġacadem ic
ĠÂ £
Ġd ual
Ġr are
Ġart icles
Ġed ges
Ġcan cel
for ward
Ġcontrib utions
A CT
ĠW ater
ĠC EL
Ġnewsp aper
Text ure
as i
Ġp i
Ġp al
ĠW ill
en ers
it ness
ire ment
Ġattack s
E V
per or
plic ations
ĠK enn
ĠB a
M T
ĠB usiness
b old
f lex
p attern
Ġsh ift
O ST
Ġview s
ĠF re
ĠCor poration
Ġprop ag
Ġded icated
Re port
ĠR ail
ist ance
g ers
t k
Ġtr ust
Ġle aves
Sequ ence
foot note
per ial
ĠMin istry
ex pect
up lic
Ġn p
duc ing
ĠB C
ĠP en
ĠIs lands
or i
\ _
ĠP age
Ġdis s
Ġc md
Ġag greg
Date Time
r ate
Ġtr ained
Ġpartic les
W il
Ġsold iers
Ġdis abled
Ã º
ĠA S
Ġtem p
Ġobserv ations
Ġprogram ming
ph ia
d atabase
ĠO s
od ies
Ġsc atter
ĠB ad
Ġarr ived
cond ition
n odes
ra q
}^{ -
A ustral
Ġbound ed
big g
Ġdise ase
time out
Ġenc our
ĠKore an
am ps
n p
Ġ$\ {
Ġexpress ed
In ternational
pl er
clus ive
as sembly
group s
Ġsignificant ly
p red
Ġpar ser
Ġtrans lation
ag ent
b ec
ĠE p
ĠC ount
ĠRev iew
ab y
Ġmin im
sign ature
Un iversity
EEEE FF
lim its
Ġsp an
pe ar
dec l
ĠB al
u ations
Ġp ra
Ġv ac
Ġcapt ured
RE S
ĠA li
c ert
Ġs ector
Ġcon nections
Ġallow ing
ck now
L L
19 19
t i
Ġget ting
W rit
Ġslight ly
Ġsp irit
Ġtraff ic
Ġtechn iques
sp irit
1 10
Ġpl ugin
Dom ain
Ġadd ing
b ell
ĠB and
ĠA k
st able
con sole
ess ions
ĠM aster
Ġco ok
al so
Ġm d
F R
% ,
L android
Mult i
Ġhon or
it zer
ag a
ke e
be an
ĠDan iel
m ouse
H owever
Ġdown load
VAL UE
Ġloc ations
Ġshow ing
Ġconsist ent
Ġcommon ly
ether lands
Ġact ing
re pe
Ġnot ice
arri er
adel phia
k ens
Ġassist ant
Ġv en
ĠPri ze
re port
Ġpart ition
B B
ĠA uthor
Ġdi agram
ust ers
omet ric
ĠS a
Ġautom atically
Ġoff ers
å Ī
il li
us r
Ġarbitr ary
D elegate
G O
Ġdestroy ed
S ql
v ideo
arn ings
Ġs port
EL D
ĠD own
p u
Ġ\ ;
d y
ici ency
ĠG lobal
Ġrap id
Ġinstr ument
g lyph
B est
t wo
ĠY our
option al
iss ues
ĠBro ok
enn es
Ġr ates
Ġ ];
Return s
Ġmed ian
Ġprinc ipal
Ġwid ely
check ed
aly t
get Element
go ing
ME TH
Ġmeas ures
W N
Be an
"" "
IV E
ĠMus lim
fl ag
Ġimplement ed
Ġregister ed
act iv
Ġp iece
ĠAir port
Ġass ign
ĠUS A
Ġl abor
Ġan imation
ĠB lock
Ġf ish
'] ['
S K
Ġd uration
Ġcitiz ens
Ġdev ices
Ġanc ient
h ere
ĠJ oe
Ġall Classes
amaz on
ro duction
Ġproced ure
H ere
on ical
Ġalong side
ĠallClasses Link
c uss
w eg
Ġmeasure d
Ġresp ond
Ġad ult
19 14
ĠR og
ĠJ eff
LO CK
ord ers
tr m
S ort
c u
ĠD ocument
D ictionary
Ġc lick
T wo
ĠS ydney
in itions
Ġexp atriate
ĠRequ est
Ġdynam ics
Ġnew ly
Ġopt imal
Ġ ..
am er
193 5
/ "
T ra
ĠJ on
Ġen um
Ġcol span
ST ATE
ĠB BC
Ġse ctions
ĠPr ime
Ġgrad uated
() ))
ou red
Ġre set
d agger
Ġpre p
s ocket
ab ric
19 33
W allet
ĠGu ard
w orld
ak i
pl an
Ġh undred
8 00
ul ator
Ġst ored
w ater
anc ell
Ġpol ynomial
ath an
Ġle tt
py thon
ot on
bl ank
Ġlook ing
Ġbeliev e
ist ence
Ġcirc le
B P
ĠR ome
Ġser ious
NavBar Font
ĠC at
Ġorgan ized
f i
ap es
ĠN ations
ĠS em
ĠT R
sim ple
M ask
ab out
J S
w edge
' m
F in
ĠWil son
Ġstart s
æ ľ
pl ates
Ġvert ices
Ġindic ate
Ġa udio
test ing
side bar
D ev
it led
Ġ era
tex trm
Ġpar allel
Ġdist ingu
Ġpart ner
t ers
ĠV ill
ĠComm unity
ĠN AV
z h
Ġt mp
r im
y ard
ron ze
Ġs qu
Ġcapt ure
Ġsuggest ed
Ġst ay
ĠB on
ĠPl an
^{ -\
C G
L en
ĠS pring
th rift
Ġw ild
Ġh ol
Ġfeat uring
ĠSc iences
ĠM ir
Ġrec ip
ort heast
Ġsc ulpt
Ġs b
Ġconstit u
Ġp et
k es
Ġ" $
ĠE ND
The se
ef e
US ER
oun ce
ĠRev olution
ĠT ok
Ġin h
D ay
Ġw all
ag g
um my
pr ise
ps on
Ġflo or
ĠTh ree
own er
RE Q
Method s
L in
ĠG ar
Ġprov ed
k t
Ġm apping
ĠM anagement
Ġz one
ĠD ar
Ġth ous
est ic
Ġc ycle
ĠF ollowing
Ġnot es
qu arters
ð Ł
Ġadministr ative
ĠTor onto
19 17
ĠL ew
ĠS ource
ĠS IZE
S ources
STR ING
Ġcl oud
Ġatt end
Ġcon ference
ĠC irc
ĠIn formation
; )
Ġany thing
Ġcop ies
Ġus age
Ġre asons
Ġpl anned
ĠR os
D iv
Fr agment
Ġ ^
ibli ography
bour ne
Ġcoordin ates
pos s
ĠS QL
193 4
ĠS ant
Ġtw ice
c ases
ĠF ire
}} _{
Ġal one
Ġnuc lear
) {\
rop ical
ix els
Ġfl ight
ĠS ports
ĠA sh
S outh
S em
con sin
Ġke pt
Ġfl ux
Ġscal ar
vis ible
19 28
mon th
Ġa thlet
ext ension
w arning
pro xy
Ġfac ilities
Ġtrans late
Ġtool s
Ġrg ba
Ġinstit utions
isl ative
Ġgrant ed
ĠWindow s
Ġsc roll
V ir
r ices
_ +
\ }
Ġmin ister
C F
I gn
s pecial
ĠP ers
Ġbehav i
Ġinterest ing
» ¿
ĠM innesota
set minus
Com ple
es ian
Ġ rows
Ġcalcul ated
oc ation
dep th
ell ar
ut s
Ġst reet
Ġsup ports
ash ion
ĠT aylor
" ],
al ty
ĠR aj
E q
Ġcomput ed
Ġ( $\
Ġren amed
Ġqu estions
19 29
el i
ĠM ake
12 5
S ur
ĠEli zabeth
am in
equ ality
com mit
S M
Id s
Ġd etailed
ĠPro perty
Ġ$ [
An imation
ï »¿
ass andra
Ġassert That
Ġc ult
10 1
W hat
ĠM icrosoft
b c
trans ition
V D
B ind
R C
Ġen h
ĠW he
á »
App end
Ġclaim s
A re
our se
bu ilt
ry st
METH OD
Ġg rew
ĠW alk
Ġcre w
Fl ag
Ġdoc uments
ĠM arg
Ġf ine
I A
E mail
Ġconver ted
(" /
ĠServ ices
par a
ĠCamb ridge
ater n
s n
Not ification
Ġrece iving
ic ients
Ġmusic ians
Ã ¥
p ur
g overn
ä »
ĠBr ig
Ġe le
R elease
Ġpromin ent
Ġcon sec
Ġdynam ic
ĠA venue
19 00
Ġ ult
os l
ilt ers
Ġpath s
Ġmot or
Ġm olec
Ġ$ |
Ġexec ute
Ġopt s
Ġsil ver
Ġsaf ety
Ġsubsequ ent
Ġf lex
ag ination
ic er
Ġr ural
Ġ@ "
is er
ĠL com
Ġofficial s
het ic
Ġstr ateg
ament al
Ġident ify
Ġv ary
Ġh ydro
Ġreview s
ow a
est ab
Ġmunic ipal
Ġcorrespond s
Ġex tr
Ġas sembly
Ġinst ances
IT ION
ades h
Ġk ernel
p res
Ġcommun ication
word s
Ġlead ership
Ġequip ment
av or
Ġch annels
Ġtransp arent
Ġstreng th
set up
am pling
ĠW el
Ġreturn ing
ĠC ub
Ġp sych
on omy
Ġmult ip
stru ctions
Comp at
em et
Ġperm an
Child ren
Ġdocument ation
Ġrefer ences
Ġlist ener
au x
Ġb illion
Ġs ales
Ġofficial ly
Ġsol o
Ġgrow ing
Pro to
Ġpro ceed
ĠPak istan
ap h
Ġp ull
P U
i y
Ġlarg ely
Ġphot ograph
H is
ĠStud ies
ĠN etherlands
ul y
in son
End point
ĠR en
ble m
ĠUn ivers
Ġvis ited
% "
Ġgu arant
Ġact s
b d
l aw
' ];
EN SE
ĠB it
ĠSwed ish
at omic
Ġsatisf ies
un te
support ed
ĠM ic
iv ery
M ouse
ĠQue ens
m ic
Ġl iber
Ġshe ll
C B
19 32
Ġbu f
ĠNAV BAR
Pr ivate
ĠD er
w p
Ġs yn
Ġd ialog
Ġass ess
Ġf elt
lip se
ĠAn other
Ġcan cer
che stra
ph as
ĠDu ke
co res
Ġserv es
ress ed
E ff
ĠAL IGN
F ORM
b ut
Ġsk ip
ĠCO VID
ĠSh ort
F ind
Ġdet ect
ĠL y
ĠAd ministr
up s
Ġhouse holds
Ðµ Ð½
Ġv otes
ĠR od
r g
S cal
ask a
m c
ro g
Ġapprox imation
ĠS ign
ĠS ong
Ġfocus ed
Ġis ol
SE LECT
IG HT
Ġconstr aint
Ġnumer ical
Ġw inners
En ter
Ad min
ar se
Ġs chema
18 0
Requ ired
Ġext rem
Ġr aces
ĠVal id
! !
or ient
Ġdam age
H ub
and o
13 0
Ġst ock
Ġparticip ated
Ġbound s
ĠR om
S creen
over view
ro ute
Ġteach er
Ġread only
az y
Ġtit les
ĠMed ical
Draw ing
Ġappro aches
Ġpol y
j an
Ġnot able
ĠF il
ond er
* {
est er
Ġext end
******************************** ********************************
down load
ĠE nc
P air
sem ble
ak h
Ġlaw s
ĠF air
Ġspec ify
Ġb in
attal ion
Ã© s
kw args
ist ical
Over view
ac ent
19 10
P y
f old
Ġm ind
Ġpol ar
Ġcont rovers
am el
ĠT H
ĠI raq
ĠTur k
ĠSt adium
s ync
Ġhous ing
t c
arr ing
D b
H S
o is
ĠDes ign
Ġneighbor hood
ĠAnt on
get Value
Det ail
ĠV ector
a ug
VAL ID
re lease
z ip
ed ia
Ġg irl
ĠK ir
^ -
Ġinter pret
Ġ _{
comp ile
Ġt sd
Ġdem and
Ġ' \
Us ing
Ġst able
NS String
uz z
d ig
Ġload ed
object s
Ġval ign
Input Stream
ack s
s b
T ax
Ġc e
P e
ĠPro cess
Ġm eta
Ġ\ (
k et
Ġstr ugg
Ġrecogn ized
19 27
ab il
ĠB oy
ĠS ab
if i
ship s
emet ery
Ġcont ents
ĠL es
Ġvalid ate
G erman
RE G
ĠBo olean
Ġconflic t
Ġtri ed
Ġb lood
ĠOb serv
19 22
Ġcompos er
Ġord ers
F amily
Ġsp atial
193 1
SS L
ĠÐ ¿
ap is
Ġhost ed
Ï Ħ
st o
" ].
Ġo k
Ġeff icient
Cl oud
Argument Exception
ch ain
select or
ĠG ra
19 24
="../../../../../../ ../
ĠAn y
Ġdiffer ences
Ġbeg ins
ched uler
res olve
eg o
Ġincre ases
Ġpolit ics
Ġp aid
Pro gram
Ġengine ering
Ġw ind
: `
Ġp ure
ĠE nt
F ore
N ov
ĠCon nect
ĠT y
flo or
ĠL ink
weg ian
Ġdescri bes
P UT
Vert ex
f ol
IO Exception
. ",
Ġperform ing
Ġhistor ic
run time
Ġs ides
pect ive
ĠSo ftware
s a
Ġdr ive
ĠA thlet
oll ary
ry ption
os is
Ð° Ð½
Al low
un es
agon al
ĠIn put
Ġ} }
Ġfig ures
ict ures
Ġc amera
Ġc ars
Ġch ampion
aps ed
ĠPhil adelphia
Ġcl imate
Ġag ric
Ġs ql
Ġinteg ral
se q
e a
p air
ĠM ike
und efined
se g
fl at
li k
ex it
Ġprote ction
Ġdec or
cre ated
ĠMed al
Ġw ing
Ġpro ps
ele m
ĠWis consin
Ġr ise
tr ace
opl us
ist ed
Ġs y
INT ER
ĠD oug
D ATA
Ġs afe
Oper ator
col on
W arning
ĠL im
l ig
ĠS anta
G ui
Ġregard ing
Ġcandid ates
ĠH ence
ĠB ell
ĠA rea
if ndef
Ġtre es
Valid ation
Ġend s
ĠK im
Ġro ugh
m ad
is a
Ġdiscuss ion
Ġtr ace
ĠB ecause
Ġtyp ical
ĠCh ris
Ġro ll
Ġg ain
atter y
ĠCh annel
M any
ost er
ap ed
Ġp hen
ĠPub lish
ĠAN Y
ĠPrem ier
å ®
Ġe lev
function s
ur ches
L ower
DE BUG
Ġp ul
Ġpr ime
Ġes cape
æ ĸ
Ġphil osoph
per iment
Ġtrans formation
Ġr ugby
f actory
F ree
Ġpar ish
F E
s r
' _
B iography
ĠCol l
Q ual
F rench
ĠN C
u um
S yntax
V olume
Ġmoment um
Ġachiev e
ĠCont rol
op her
Ġpass ing
Ġlay ers
g oto
ĠBr idge
cal endar
ip her
us al
Ġpat ients
ĠMore over
ĠT ai
ang a
Ġw rong
Ġcontin ues
M er
bo ost
Ġdeg rees
Ġpl ants
r ons
Un known
Ġal gorithms
) [
reate st
ik a
( --
T T
Ġh abit
ud es
ile vel
is set
Comp iler
al ing
B ook
Ġin tr
ç Ķ
Event Listener
in herit
ĠV en
Ġc ursor
ast ers
Ġbe at
dest roy
Ġsex ual
ĠSwed en
ĠTown ship
Ġmechan ism
Set ting
ri e
Ġind ustrial
tain ment
ĠP RO
pre c
Ġag o
ĠDes pite
ĠR est
19 21
Ġp aint
O ur
on ce
Ġn arrow
ĠS pace
c li
Ġfra ction
it ted
h aps
ĠDes cription
Ġso ft
Ġent r
Ã ¢
s lice
Ġse ed
sp acing
dr iver
ĠD ig
or igin
N C
Re al
enn a
=\ "
ĠO t
Ġmount ain
Enc oded
ac cept
om er
og ram
ĠH un
ann a
Ġdepend encies
ag en
ĠF ROM
ĠN ative
N ative
Ġadv anced
Ġc orner
Ġs ynchron
ĠSer b
ĠOption al
ist ant
l ife
H z
Ġcon n
Ġprov ider
Ġsome one
low er
Ġsp ot
ĠSt ock
Ġaff ect
nav igation
CO MP
Ġ| \
ĠR a
Ġrequest ed
Ġdepend ing
ĠL ady
pl om
ĠB ishop
Sh ape
{ "
Dr iver
Ġrepe ated
Ġest ate
des ign
19 25
Ġunc ertain
Ġcou pling
MO DE
Con nect
igh th
Ġad just
text sc
ty pename
Ġp itch
ĠG ro
19 23
ĠRe al
M ove
Ġevery thing
Ġ urban
ĠW ars
_ *
Ġign ore
Ġcon figure
ĠAn th
Ġinter section
ĠC orn
ĠS quad
H L
Ġa x
ĠD or
ĠMc C
ĠH o
tr l
amb ig
c ow
er ence
ap ore
Ġfac ulty
Ġnav bar
Ġb re
E ST
reg on
), \
Ġcommit tee
ORD ER
Ġd ance
agnost ics
Ġimport ance
Ġf reedom
Ġcr ime
put er
em pt
| }
Ġex ponent
Ġdefe at
g est
getElement ById
pol y
Ġreg ime
XX XX
libr ary
Ġcol lected
A nt
H ome
S ave
Ġterr itory
F ocus
C apt
Î ¹
vert ical
et o
Ġtechn ical
Ġresult ed
ĠH ay
comm ons
> \
Ġpower ful
ĠG er
n ob
Ġres olve
rit ical
ĉ čĊ
Ed ge
Ġs urn
ĠC ustom
19 26
Ġunder standing
ut t
Ġw orth
ĠS on
Ġth reshold
se par
ap ol
view s
valid ate
' ve
ĠV i
En vironment
Ġselect or
re ce
Ġstrong ly
ast y
Ġveh icle
ĠN a
Ġsim ulation
> )
ĉ ĠĠĠĠĠ
ver ter
high light
ropol itan
is Empty
En umer
rad io
ev in
Ġpur poses
W omen
ok ed
Ġf ru
ĠW at
Ġspe ech
Ġscient ific
Ġan alog
ill ery
Ġco al
ĠH ind
M IN
ĠĠĠĠĠĠĠĠĠĠĠĠĠĠĠĠ ĠĠĠĠĠĠĠĠĠĠĠĠĠĠ
Ġtown s
N ormal
G C
f etch
ĠB udd
19 12
C ALL
U D
Ġ> >
Ġsurround ing
opt s
riz ona
O lymp
Ġme ant
ĠTr ump
Ġassum ption
Ġth ick
Ġmod es
O F
S ch
Ġport ion
Ġpar liament
ĠAp ache
ĠM ilitary
Ġrequire ments
cl one
b us
ĠPro position
Ġg ained
se ason
' ll
O C
Ġr at
Ġdef end
ĠS D
Ġpurch ased
Us ers
ĠI V
Ġintro duce
and y
Ġb atch
ĠC zech
G ER
Ġ\ "
Ġauthor ity
Ġexec uted
ĠF amily
Ġen joy
Ġbe aut
ch anged
Ġl attice
LO C
Ġsup ply
Ġansw er
Test Case
ail ing
Pl ot
int on
or ney
Ġdim ensions
Ġad min
Ġvalid ation
ĠN az
Ġt ells
f all
s ome
Ġm iles
el ly
sub subsection
Ġaff ected
atas ets
Ġprom otion
id el
Con sumer
Ġ" ";
Ġam plit
c atch
ĠT err
M R
Ġtem ple
Ġinsp ired
L imit
ĠW in
Ġres ident
N R
ĠMiss ouri
Ġad vert
Ġnov els
D rop
ĠD B
Ġp seud
Ġf mt
ĠW inter
Ġel if
b log
Ġb ill
Ġp iano
igr ants
ĠRec ord
Ġm ill
pol icy
Ġperform ances
Ġin equality
mer ge
s uch
Ġs aved
Ġexpl an
duc er
Ġread y
ĠD ist
as m
v olume
Ġattempt s
å ħ
ĠA D
Ġtr av
Ġap ilevel
k h
ful ly
Ġ' '
al ert
Ġadv ance
F older
qu ote
FI ELD
Add r
Ġs ys
Ġ' ',
f eed
Ġ Ø
ĠL ast
Ġfem ales
0000 00
ĠIl legal
Ġ( [
act ivity
omorph ism
for all
H tml
Î µ
F ilm
if er
Ġaddress es
con structor
ens is
Ġcor relation
ph ony
ist ing
W ait
qu es
ic ian
ĠBe ach
ĠC lient
> "
19 15
sh al
ĠAr m
sub mit
ĠL ive
Ä ĥ
Ġapp arent
19 16
w ing
tr im
Am ount
Ġdel ay
ad i
hed ral
(" #
Ġtit led
U nder
ext end
L ight
/ {
ym pt
Ġchem ical
plement ation
ĠM ock
Ġconf irm
grad le
agnost ic
h y
Ġun able
ĠEngine ering
d uration
an imation
ce st
o or
con struct
Con s
_ );
in er
Ġrecogn ition
an ia
Ġauthor ities
: [
Ġre form
S pan
Ġmeasure ments
cl osed
Nav igation
Object s
C ard
Ġemploy ed
por ate
um a
m essages
j Query
Ġpro port
con v
og ene
ak s
n ership
ĠUs ing
ĠM un
Ġge ometry
Ġp le
t f
Ġ ig
A li
le ts
trans action
C lear
ĠRes ponse
ĠInd ones
Ġcoeff icients
in ion
d c
F n
z o
Ġ' ./
ĠG allery
Exec ution
Ġ rom
Ġw rest
itor ies
Ġl ie
ra structure
Ġmon itor
ĠGold en
A wards
Ġsub stant
B asic
[ -
Ġinc ident
dep recated
us c
N UM
ĠSt eve
Ġveh icles
ĠR ow
) }(
Â °
W ORD
å Ĳ
Ġg ap
con str
Ġdec ay
om ot
Ġper fect
ĠAr thur
Ġcont emporary
ĠTur key
à ¥
Ġ' ';
% .
Ġinterest ed
Ġb omb
ĠW eek
Ġcont est
) _
ĠJ oh
Ġem phas
Ġb urn
ĠC ur
f ast
Ġhe av
Ġsw im
Ñ ĩ
Ġp od
Ġfound er
ĠĠĠĠĠĠĠĠĠĠĠĠĠĠĠĠĠĠĠĠĠĠĠĠĠĠĠĠĠĠĠĠ Ġ
ĠG re
Ġbr and
7 00
Ġpol icies
ĠCap tain
Ñģ ÑĤ
Ġadvant age
ĠN av
Q U
ĠFore ign
Ġdocument ary
ĠIndian a
T w
Ġ" ",
Form s
Ġ_ ,
Con structor
R aw
Ġide as
cre ens
Ġunder lying
B L
Ġmed ium
ĠM unic
ĠG ree
Ġpre par
Ġc ycl
Col l
Serial izer
Ġtyp ed
iss ue
Ġdest ination
Ġimprov ed
}} (\
ĠH al
mem ory
Ġc lock
ĠH ard
ĠN orm
Ġcor re
ĠAnd roid
< <
Ġin variant
ĠS ets
Ġengine er
ĠN on
anag ed
ennes see
ĠAmer icans
Con stant
b atch
ĠStep hen
Ġsub set
Ġgalax ies
Ġrot ation
cre t
l iving
Pl atform
ĠTr ust
ĠJac ob
ĠS E
Ġin vent
ĠC art
Ġecon om
Ġsim ulations
ĠK ansas
Ġden otes
Ġrank ed
Ð¾Ð ²
Ġd ie
ch ant
ĠRepresent atives
Ġar ts
are st
ĠUn it
Ġdes ired
: @"
Ġk ill
face book
Ġcompos ition
ĠCol on
Rem ote
Ġbal ance
Ġsh op
ĠD am
Ġb ind
Ġecon omy
Ġmedal ists
Pl an
Ġanaly t
_{ (
ĠA mazon
Ġfr agment
re act
im b
Ġsuff ered
Ġout er
Ġb its
Ġem ission
Ġsup erv
Ġcr ick
ĠC as
Ġm obile
og en
evelop er
'] );
ĠK al
Ġfind ing
av ailable
f mt
Ġgovern or
Ġt ags
Olymp ic
Ġs pring
Ġt ell
() ),
Ġang ular
du ctions
ĠB h
Ġrepresent ative
ĠCast le
I tal
ĠComm un
Valid ator
P HP
d ash
S m
B ut
Ġsp ons
ĠSur vey
b x
Ġs an
Ġab andon
} %
R T
l ab
s ig
method s
ĠC ountry
Ġca uses
Ġspect ral
Ġpublic ation
Ġmer ge
el le
Ġhe at
." ""
w orth
Ġhar mon
y y
ÃŃ a
Ġsch olar
Ġtem por
ĠW IDTH
em an
ĠBar on
ĠDav is
Ġ( ;
Ġcr iminal
Al loc
ĠRe port
Y Y
Ġd aily
Ġ" .
Ġposs ibly
Ġinvest igation
vari able
ĠF ox
Ġlim its
ĠEn vironment
ur ations
w atch
ĠR on
Ġf ell
ron ic
Ġdi am
ov es
Ġben ch
bo se
ĉ ĠĠĠĠĠĠĠ
Ġadv oc
Ġthe oret
Ġto ward
ierarch y
const ant
mer ce
ĠX ML
ound ed
ut down
ord an
ĠB ru
Ġband s
pl oad
Ġse ats
P ers
Ġt ail
S V
ĠLe on
Map per
ĠRem ove
ĠT al
if old
Ġem b
ant e
Us age
v ard
( .
refer ences
ĠG reg
il ib
Î ½
F act
ĠFore st
{ $\
ĠAtl antic
Ġpl anning
OR Y
ĠG il
Ġfac ility
U ES
Ġl ists
ys ics
f ef
Ġsepar ated
L ook
Ġc ab
Ġinter actions
B al
Ġref ers
Ġsche duled
Ġte aching
UM M
Null able
Ġlett ers
Ġinvolv ing
Ġatt ached
cknow led
Ġp icture
ĠC G
/ ">
ĠĠĠĠĠĠĠĠ ĠĠĊ
Ã¼ r
per m
ul ing
C md
ĠR ights
Can adian
Ġcomple tion
ĠG h
Ġfr ag
ĠD a
ĠW rite
ial ly
Com plete
Ġcontrol led
Ġde ploy
12 7
ĠMar ia
Ġv ectors
Ġst one
anch or
per p
tr i
Ġv ess
ĠO regon
AN CE
ĠColor ado
scri be
Ġmeasure ment
Ġhyp ot
Ġcost s
Ġabs or
Res olver
Ġrest aur
s heet
att ers
ĠPe ak
Ġear th
res ize
Ġspec ifically
ĠH as
ph rase
T ags
Ġapplic able
R ate
Ġt al
Å «
W ord
ĠMex ican
Ġc art
ad ed
ĠA h
ĠC H
Ġtechn ique
ĠJew s
Ġta ught
ĠE ll
N ET
G R
Ġcl in
B ibliography
Ġ$ $
Ġcalcul ate
Ġd og
we alth
f red
Ġcamp us
Ġfind s
Ġreserv ed
ï¼ Į
col lect
Ġdro pped
Ġd yn
Pre v
Ġt end
, $
F ollowing
Ġestim ates
ĠT urn
Ġopport unity
ĠH y
ĠF ederation
Ġh our
Ġdistrict s
Ġb udget
ear s
ĠMem orial
IL D
Ġcon j
Ġcover age
Ġg ather
ĠE ven
LO W
s ch
Ġp and
ĠHigh way
MOD ULE
Ġyoung er
Ġlate st
Ġ ðŁ
Ġmod al
m k
B lack
in us
v ing
Ġdistrib utions
B inding
19 13
Ġjournal ist
gener al
Ġtop ic
log o
ĠF ace
Ġsuc ceeded
The me
direct ory
Ġs event
Ġal ias
ĠL abor
y al
Log in
o es
Ġcons ult
ĠTr ansport
inal s
ĠBook s
ĠM oh
Ġhouse hold
Pop ulated
for Each
D R
AN G
ĠS av
Ġl osing
Ġ" >
Ġ' .
p ot
Ġmerg ed
Ġaud ience
St atic
on al
Ġcoordin ate
west ern
T F
p b
Ġqual ified
unn el
ĠA ccess
p id
Sports people
d k
H ow
ong o
sub ject
ord on
od a
Ġend ing
ĠN iger
; |
comp are
Ġp owers
Ġs ust
sequ ently
ĠNor way
int eger
Ġp ref
Pl ace
et es
E val
Ġs izes
ĠSund ay
Id entity
B I
ly n
L C
Ġgener ic
dis able
Ġexplicit ly
Ġin struction
assert True
Ġpain ting
P res
Ġpattern s
Ġm and
ĠIn ternet
Ġs oc
ues e
Ġinput s
bul let
ĠS earch
ĠSt atus
Ex port
A udio
Ġc ert
ĠO cean
ĠGu ide
ĠL oad
Ġh ope
Th row
ide os
Point s
pl acement
Ġb ow
cont ents
Ġacc ident
d ing
R out
hav ior
P ack
inc ial
ĠMount ain
II I
os ure
Ġpi eces
Ġcom ments
Ġf ans
J oin
= [
ly wood
J apan
es ome
Ġre duction
T im
ĠB all
Group Name
Ġm orph
ele d
Ġcommand s
Err ors
In formation
An notation
Ġfrequ ently
Ġpe ace
Ġpl us
Ġgu ard
cuss ion
w d
Ġperm ission
%%%% %%%%
ir ation
Ġlo an
ĠW AR
B ottom
ct ic
ĠC SS
Ġ Ä
Ġv ice
ed u
ĠLew is
rem ark
Ġident ifier
Ġ> >>
ĠR ose
Render er
e ast
ĠOper ation
ym p
Ġdo ctor
AR G
De ath
C ONT
Ġmat rices
HER E
ĠP ier
Ġam b
Ġappro ved
Ġpert urb
Ġcur ves
fef efe
Ġsupport ing
re ader
Cond ition
ĠH an
/ .
ah oma
ĠAff airs
}$ -
) },
20 23
Ġgrad ient
Ġconsist ing
u y
ĠW rit
m ers
Ge ography
rupt ed
) _{
arg uments
r ank
av id
Ġy ards
in ator
Not Found
Ġdef ense
ĠC urrent
Ġar ms
Group s
Ġfund s
19 11
Ġst yles
Al though
ĠV ari
ĠPhilipp ines
ro uter
ut ies
Ġarrest ed
) ^{\
cont act
ĠFred er
tool tip
Ġ" %
a us
Ġperm issions
Ġle arned
INS ERT
L ife
Ġop acity
ĠL ang
CH AR
n ative
Ġpay load
d on
Ġdevelop ing
por ter
gener ate
ĠAb stract
j ack
ĠA rizona
[] {
Ġ+ \
Ġeval uation
} &
Ġpro to
Ġgu est
Ġintegr ation
ĠT ennessee
Ġcle arly
Ġb or
F uture
a ired
el astic
ĠS elect
w t
Ġb undle
Ġop posite
" },
Å ¾
Ġfunction al
Ġchall enge
\! \!
onym ous
ĠSl ov
# {
ĠS che
V E
Ġres c
ĠE P
lic ense
En v
> ;
ar ry
Ġenvironment al
Ġbur ied
Ġmod ify
ĠĠĠĠĠĠĠĠĠĠĠĠĠĠĠĠĠĠĠĠĠĠĠĠĠĠĠĠĠĠĠĠ ĠĠĠĠĠĠĠĠĠĠĠĠĠĠĠ
A ST
D ATE
ĠO C
v ol
Ġn arr
ĠBr ad
Ġsing ular
Ġinst ant
Ġchang ing
fri end
ur r
Ġcon version
RE D
Ġdesign ated
Ġal ert
Ġmin imal
includ ing
Ġturn s
Ġfe et
Ġpre t
OR TED
m ag
Ġbo ost
DE F
H er
ĠSt andard
ĠBase ball
ĠMos cow
Ġjud ge
u uid
Ġs ync
Ġop position
ĠH art
Ġo dd
Ġsc oring
Fig ure
glyph icon
ĠPhil ip
ĠFinal ly
elli j
Ġtw enty
E st
ĠUkr aine
Ġcon vent
Ġbro ken
,\ ,
rem ote
o a
ĠO S
Ġcomp atible
Ġneg ot
Ġch airman
u j
Ġsom ew
ĠE th
b ug
b lob
ĠAd v
In sert
_{ -
Ġhand s
r f
ĠP it
ĠL anguage
ĠJ unior
Ġf ee
re pository
Sh ared
Ġc ov
! "
Ġc overs
Ġis n
ĠMel bourne
P red
Ġim ag
Ġnom inated
ĠSing apore
Ġr ain
Ġbo y
H older
C ulture
ĠL ow
yr ics
B Y
Ġanim als
iv als
t ensor
ap ted
Ġc ategories
st an
Ġobserv e
rypt ed
AN T
Cont ents
ich ol
190 8
B el
Seg ment
int ellij
if ul
ge o
ĠU l
Ġdr am
Ġext ensive
- (
Ġloc ally
load ing
ĠChrist mas
ĠAnd erson
p kg
ĠF und
K n
Ġviol ence
Ġfund ing
form er
Ġfight ing
Ġhapp en
ĠSt aff
h ist
ĠPr inc
r pc
ĠM ill
ĠB at
ĠH ou
ĠF ellow
Ġb ronze
Dep th
sc ore
Ġy ellow
Ġs ending
Ġinj ury
B inary
ĠCo q
Ġload ing
to Be
Data Type
Ġhold ing
enc ode
Ġthe atre
Ġoptim ization
Ġl iqu
Ġr ich
ĠS af
s un
load ed
g ar
Ġlog ging
ĠS at
G A
Ġexpl ained
Ġconsec utive
Constr aint
are n
ĉĉĉĉ ĉĉĉĉĉĉ
Fr ames
Ġa ware
ibr aries
ĠFr ont
Ġcharg ed
Ġ( ),
Cont act
w iki
Ġmat hemat
Ġobserv ation
Ġdisplay ed
ĠC ore
e en
ic ator
Ġreject ed
Ġphen omen
ambig uation
Ġd rawn
Ġphys ics
Ġlink ed
Ġide al
iv a
p aper
P Y
Ġ} \
ĠViet nam
)\ ,
am ely
C enter
ĠC ab
å ¤
Ã ł
ĠS ri
Ġeduc ated
valid ation
ĠT ag
ĠWAR RAN
ĠMary land
ĠAl bert
;| &
STAT US
Ġdec ades
ĠL ike
te am
view port
ĠR oss
eng ers
CON FIG
Ġsh if
Ġwhere as
Ġclass Name
Ġle ct
P resent
B ounds
ĠDE FAULT
itzer land
r as
ĠJ son
Ch ain
\| _{
ĠIN TO
T imer
Ñ ĸ
Ġ' %
Ġocc asion
ex tra
i ative
Ġcon ven
ĠCon stitution
C M
put ed
Ġintro duction
F UN
Ġ{ },
ĠMal ays
Ġmass ive
ĠE ss
C LASS
an im
Ġinter pre
Ġst ats
ang el
pro gram
Ġqu adr
Ġm ales
}} ^
s es
ĠAb out
Ġaff ili
66 66
arch ive
Str ategy
Ġn ob
Ġs ocket
ĠBuild er
ĠP R
Ġle s
ä º
li bs
br id
Pro f
t ouch
ĠM iller
Z one
t ik
Ġop posed
Ġnot ation
Ø ±
Ob server
Ġsuggest s
] ))
u ating
Ġm o
Ġm ouse
fol io
Ġc row
Sh ould
off s
ist a
M essages
et ing
Ġjob s
DO M
Ġm orning
ri um
cover y
ĠN ext
ass ign
ff f
Wil liam
col n
Ġattempt ed
Ġvill ages
Ġst arring
' d
head ing
Ġold est
ĠC ase
ĠN et
act ic
M ag
is is
ult ane
d am
ĠE ner
AT TR
clud es
g z
put ation
ĠC A
can vas
ĠJ os
in cess
ĠAust ria
Ġre ality
Ġw ins
Ġprior ity
Ġw arning
ic ity
AT CH
Ġfund amental
m n
get Id
C ounter
Ð ¿
b asic
pm atrix
co ok
Process or
he im
St andard
ĠC hen
ĠF ord
Ġmod ules
Ġst ress
j ax
Ġem p
We ight
ĠM it
d irection
Ï ĥ
ation Token
Ġf ashion
ĠL td
Ġcom pl
Ġprem ier
UMM ARY
ĠFurther more
L at
ä ½
> %
ous es
re p
ĠP ython
Ġh all
Ġro utes
ĠT a
ate ur
Ġwe ights
com pute
00 1
Ġan chor
ĠMod ern
ĠAd am
ĠAr k
Ġcrit ics
in x
Ġcharg es
scal a
Ġclos ely
UN D
ro it
Row s
Ġex erc
Ac cept
ym n
ĠW IT
Ġacc eler
Ġtrans actions
ip les
B atch
ag r
Ġ$ _
ĠKent ucky
B IT
ĠB efore
Ġult imately
Ġentire ly
Ġr acing
Austral ian
m ac
re ll
re po
se lection
Ġrem ark
ĠL INE
ĠN Y
Ġsymmet ric
Ġc as
j et
lin ux
Ġf ails
Ġm anner
Ġrun time
rypt o
ĠStr uct
ĠSquad ron
ĠHol y
ĠL ic
Ġmanag ers
Ġelectron ic
ĠL java
ĠEnter tainment
ret ch
Dep recated
ab ama
or er
kl ahoma
ac on
Ġa ria
ĠGa ussian
C r
S ite
Ġch unk
Ġf estival
br and
ops is
Ġpre ced
iv ation
ĠSer ver
N orth
Ġpred iction
uth er
p end
ure au
c ounter
ĠB os
Ġvoc al
Ġtr uth
Ġst ores
UR CE
ac ew
c fg
Ġc atalog
i ant
or ro
ele ments
ĠT er
Ġemploy ees
ĠL ev
Ġan imated
Ġcomplex ity
ĠPro t
l ot
.* ;
Ġj ump
Ġhe ard
> ()
ĠC are
ĠSim ple
b p
E P
l u
c assandra
Ġdifferent ial
w ick
Ġcomp ilation
ĠF ish
AC H
Ġexper i
Ġre action
Ġig et
C ursor
HE AD
Or gan
Ġdom estic
ĠS us
ir th
Ġyield s
C ent
Ġcommand er
Ġdr ums
Ã© t
Ch rist
$ ).
ĠSim on
ĠVir tual
Fail ure
Ġal ter
Ġs and
Ġpro test
Name Link
ĠC y
Ġtr ains
I AL
ĉĉ ĠĠĠ
> '
M ajor
ad oc
Ġh y
ul i
Ġf resh
Ġh orse
an ches
ĠHar ry
ĠFor ces
Ġplace holder
B uck
Ġag ents
Ġformer ly
Ġpass es
ser ies
ĠM as
Ġsu itable
Ġsatisf y
Ġeval uate
pos ing
log ging
ub ble
St ar
è ¯
ĠGree ce
uff ers
Ġ( ,
Ġdr ag
Ġcap tain
M en
Ġ[ \
ĠZ h
Ï ģ
ex pression
18 90
/* !
) ",
c ountry
ip h
ĠSe ver
Ġtrad ition
ĠI owa
L ibrary
Th us
Ġst orm
new command
ol o
ap el
ache lor
Ġcirc um
Ġd ates
Ġsix th
ĠPal est
Ob serv
Ph one
Ġadj acent
ag ma
Ġdepend ence
Ġpain ter
Ġinitial ize
R S
Ġ' ''
A UT
Ġv ent
Array List
us hed
enc ing
Ġdi plom
Ġr h
ile y
}^ *
ĠB et
Res et
) ^{-
K it
ĠConfig uration
In ner
nob r
U K
ĠBuild ing
ard o
ĠSt ream
alyt ics
ic ut
Ġch ance
sh a
bum s
ain ian
Ġbel ief
Ġtre ated
T elevision
z y
190 5
Ġm el
od o
Sign ature
M anagement
con vert
ĠC ape
Ġind ices
( ()
Ġdet ected
Ġhead quarters
ag an
V ICE
Ġ$ -
Ġinstit ution
al gorithm
Ġsim pl
ten ance
le ton
D IS
ĉ ĠĠ
ĠB urn
Po jo
k top
Ġgener ator
Ġmay or
alt Color
ĠL eb
dis ambiguation
Lo op
Ġcomb at
Decl aration
ĠChild ren
err ing
Ġmagn itude
ĠO tt
F M
p in
ĠAp plication
Ġmet rics
Ġdr ivers
Ġsch ol
Å Ł
Ġnuc le
H on
G P
omorph ic
Ġch arts
ordin ate
Ġb ought
er os
ene z
= %
T Y
ĠS ound
ĠEm peror
p ages
S W
Ġtarget s
Ġprom ise
B ool
apt ers
ĠV o
Ġweap ons
an es
M ost
ĠB alt
ĠJ ane
B ad
Ä «
is or
ĠQu ery
ĠOut put
l ap
ur d
ĠNor wegian
And roid
ĠOff icer
ĠW ell
Ġb inding
w br
out s
Ext ensions
Ġ{ $
Ġcontrib uted
ĠN ick
pr iv
Ġconver gence
cc cc
br idge
m iddle
M ount
Ġprinc iple
Ġoccup ied
m ont
ic ians
Ġ{ %
Ġt d
Enc oding
Ġim g
ĠS UMMARY
Ġref used
rel ative
D irection
Ġn a
Ġpol l
ĠQueens land
Ġto wer
create Element
( ['
M s
Ġd ire
Ġwe alth
S napshot
ĠS in
Ġwe ather
Ġrem ember
poss ible
k ing
Ġaspect s
ĠAr men
Ġin ject
iss ip
Ġinfin ite
oc ese
"> (
ĠK han
ur is
M aster
Ġstand ards
) --
As set
ĠP layer
ĠN ev
: '
ĠSt ory
ĠMag azine
ĠA re
ĠT ree
C oin
ach er
h ave
dis patch
ĠF ame
Ġed it
ĠTok yo
R UN
ur ance
ĠF A
Ġconstit ution
ak ed
Ù Ħ
M aterial
Ð ·
Ġw itness
r ame
b ounds
ĠCl ark
] +
A xis
example s
ss l
ĠD ouble
[ (
ĠD un
Ġ< -
ĠL ind
con nected
em it
Ġpil ot
Depend ency
on i
ĠL ank
Ġg lass
ĠB ab
] }
Con sole
Ġfa ith
ĠH om
ĠN E
Ġinter ior
ĠInf antry
s ime
Ġindic ating
T ile
ĠVAL IGN
U C
dist ance
Miss ing
run ner
Û Į
ĠR oy
ĠCh ange
ig ate
Ġpro jection
og y
Ġm ach
190 7
ĠD elete
Ġhistor ian
not ations
190 6
our ney
m ms
ell ite
ĠAp ple
ag ues
Ġconsider ing
Ġcomput ation
Ġalleg ed
hel lo
Dr ag
ĠT en
Ġco aches
Ġexplan ation
oth s
ivers ary
Ġc ool
LI ST
(" %
ĠF ind
z i
Line ar
ĠC ost
res pons
cl ine
**** **
B order
g i
spec ific
az a
pre vious
UB LIC
ag u
Ġobject ive
Ġbro thers
Ġdis able
Control s
ĠVAL UES
190 9
ãĢ Ĥ
Ġmusic ian
grad ient
ke ep
class Name
Ġend point
rem arks
Ġbe am
sol r
R ob
sime q
Ġconst ants
itect ure
Ġs ell
l int
a udio
ĠSh er
ĠC OL
inem a
On ce
Ġperman ent
ĠD ir
ĠST ART
n amed
Ġarr ang
b urn
t l
K e
Ġag ency
Ġa id
v endor
Ġd elegate
ĠÐ ²
ov ation
ren ce
uer to
ent ed
in th
Ġcheck ed
ĠS ym
qu ant
writ ten
AT OR
IN ST
h ook
ĠSw itzerland
Bit map
c raft
ĠT ony
Ġcol ors
_ )
Ġ ----------------------------------------------------------------
gener ator
stand ard
Ġj s
D ig
Ġpand emic
M icrosoft
Ġpart nership
el ve
) }{\
ĠExec utive
O ld
Ġar c
ĠE ric
Ġth ir
olog ists
it ivity
Ġent itled
ol i
Ġb odies
s quare
Ġh ers
k ov
S plit
st ates
w ich
s at
Or iginal
fg han
Us es
ĠH ans
Ġind ependence
Ġbrief ly
Ġus ual
T L
Ġprom pt
pp ing
ou st
Ġs ons
ĠCh ile
Ġcommit ted
ĠEar l
tik z
ĠG ib
Ġinvest ment
Ġbehavi our
Table Row
ĠPol icy
de ep
Ġprom ote
C ancel
ĠB eng
ĠTh rough
Output Stream
Ġeff iciency
em ony
ook ie
l ad
Ġph one
CO MM
Ġindic ated
: }
F eed
er al
NO DE
get Instance
Ġaccount s
$ $\
ĠD C
ĠTurk ish
et ies
lic enses
(' <
me an
Ġscen ario
iffer ent
Con tains
ĠOn ce
ug u
ĠR ol
Ser ies
^{ +
Ġinterest s
ĠEner gy
ĠC op
Ġb ug
C ur
LE D
m obile
ĠE ver
A SSERT
æ ķ
M al
Ġm ir
tw itter
Ġrelig ion
Ġrecomm ended
Ġsett led
Ġplan et
ilib rium
ĠComm unic
d ark
D at
Ġsol ve
ĠĠĠĠĠĠĠĠĠĠĠĠĠĠĠĠĠĠĠĠĠĠĠĠĠĠĠĠĠĠĠĠ ĠĠĠĠĠ
enn y
RA Y
FF ER
c ancel
ĠV ice
} ))
repe at
ĠTh read
Ġsum mar
Ã ´
ru les
Ġv m
Ġex ports
st age
Option al
HO ME
ĠP ot
ĠS uch
ĠS C
ĠCon text
y ers
igen ous
Ġre pro
ĠF OR
ĠPr int
Ġsupp lied
h ot
Ġoper a
ĠA mb
ĠLab our
U pload
at on
sh op
Ġk illing
Ġwindow s
Ġdr iving
g if
Ġext ent
n os
Ġpers ons
Ph il
2 13
ĠB ah
ars ing
OP T
ĠP i
part s
force ment
Ġn ortheast
O W
Ġover flow
w ill
Ġd elta
Ġdep ict
) \\
Ġrecomm end
Ġg irls
Ġcomp iler
Ġenc ounter
ĠDi ego
ĠD ue
Ġ| =
Ġopt ical
ĠWal ter
ur able
Ġcl usters
T imestamp
Ġ ion
Ġm igr
ĠReg ional
ĠL iter
IC ATION
Column s
ĠT ele
Ġpe er
Ġsit uated
Ġexhib ition
ĠApp end
Ġw inter
Ġf s
AT ED
B en
Ġrepl acement
F OR
Ġcon vers
Ġcontrol s
un ities
N or
} )$.
Ġca using
D iff
R andom
Ġp ed
iven ess
Ġ= \
un lock
ap ple
ĠA ge
B M
ren a
Perm ission
atur day
' (
Ġre verse
Ag greg
ĠC ru
U ST
V AR
ĠLin coln
Ġtem porary
190 4
Sup er
ĠAl abama
ĠHamilton ian
g ov
link ed
Ġf etch
~~~~ ~~~~
Ġstat ements
end o
Ġpack et
ĠSk y
Ġob vious
ĠRef erence
c ing
Ġat trib
ĠF ac
ĠS H
Ġrec ru
m oment
od ox
Sw itch
å Ĭ
Ġpresident ial
ĠD eb
Ġarg ued
Ver ify
Ġf uel
Ġa head
Ġgovern ing
l on
ac o
Ġwork er
t imestamp
Ġw alls
Ġh or
ĠB an
Ġtre nd
Ġattack ed
po inter
Ġtheoret ical
T AG
E ducation
Met rics
Ġf olk
Ġbro ke
The orem
Ġcol our
Ġoper ate
govern or
Ġs i
Ġeduc ational
Ġtyped ef
Ġextrem ely
Ġl yrics
ĠN aval
d ynamic
ĠS quare
ĠPro p
id o
Ġhand ling
ant om
link s
Ġdr um
1 15
A bs
ĠGr ant
ĠMan chester
t p
Ġproper ly
ĠSen ior
mit ter
st ory
)$ -
Ġb right
.~ (\
G N
ĠD O
Ġp lease
è ¿
o i
ph oton
reg ular
ĠB uck
u ity
Ġp ipeline
Ġbr ain
Ġlog ic
Ġcred it
h d
Ab out
ĠAm ong
ON G
Arg uments
ĠD ream
ĠO N
ĠC ulture
Ġir on
Ġg ender
Ġshort ly
ĠK y
Ġtrans mission
Ġfav our
Aut hentication
MA P
Vir tual
En able
S ame
ĠClass es
ial s
Ex pected
ow nt
ant asy
Ġsurn ame
Ġliter al
ĠH or
Not able
ĠWh it
Ġd atasets
ol ished
ail ability
In f
Ġas ympt
ĠJ am
ur st
inter val
ĠV ideo
ĠEx press
id ges
ĠBill board
Ġsing ers
ĠTem ple
D en
pl ane
ĠP os
iev al
display style
" /
Ġfil led
top ic
Ġsec ure
P acket
ĠO klahoma
st rip
Ġign ored
m ass
ĠSt one
nt il
Ġd anger
Ġcollection s
ĠB ox
ĠE RR
str ings
ĠCont ent
av it
Ġvari ant
ĠCl oud
Ġbenef it
ĠTh ird
ĠK at
Ġp un
ĠA ud
Ġprec ision
Ġident ical
Ġs ac
ĠLINE AR
os es
Ġf aced
pro position
M illis
L Y
ĠCommon wealth
Ġmet res
S ing
in ces
Ġd ot
Ġlimit ations
ob serv
ĠP erson
External Task
ĠP a
n ie
T ube
c ross
Ġs ought
ĠAn ne
10 2
~ $\
Ġcre ates
Ġ&= &
ock s
aw are
> ${
ĠB ra
$ &
W eek
Ġexpl ain
Ġprep ared
ĠB rian
Ġregard ed
pear ance
Ġad apted
Ġscen es
Col lect
sc ill
comp any
m ount
Ġsche dule
Ġsim ultane
L ib
Ġa ired
Ġcalc ulation
Ġj azz
Ġs pr
ĠIn n
Ġor ig
ĠB arn
Ġeffect ively
B its
$ ;
AR D
Ġst ages
is lation
Ġdr ink
ch art
ĠDo ctor
Ġtransl ated
ĠBul g
pl ain
× ķ
Ign ore
ĠIslam ic
ta h
ĠHow ard
ExternalTask Pojo
u ce
ĠT erm
ok es
ymmet ric
ĠIsrael i
ĠN FL
ĠS ix
LE TE
ut ors
ĠT elevision
Ġper haps
ĠR eb
un known
int ro
Con vert
Ġproduc ing
ixt ures
egr ation
el led
ĠF a
Error f
ĠF ix
column s
un ing
Ġk il
Ch art
( /
Ġen emy
Ġret irement
Ġ' "
. ',
Ġdirect ors
v i
Ġhot el
ĠS to
Ġap art
ĠP romise
Ġstri ke
ect ure
Ġa f
M ac
Ġvari ation
Ġ-- ></
ĠJes us
TR Y
c are
Ġdis estab
Ġf ought
Ġconcern s
Ġaccur ate
ĠJ ordan
li est
Ġexpl o
Ġne ural
own ed
\ )
N V
Ġr ational
Ġm yst
ĠAut o
Ġhers elf
ĠSoc orro
ĠB attalion
ĠAdministr ation
ĠW ho
Con verter
Ġposs ibility
iz ers
issip pi
ul p
TER N
ĠPat rick
P M
ĠV ar
i ations
Di agnostics
190 3
v ia
ab c
Ġbusiness es
Ġsk ills
V ill
% "><
Exec utor
A E
Ġsent ence
ab ad
Ġsports people
y ll
T ouch
g ood
Ġliter ary
map sto
Ġqu eries
G IN
Ġconv ex
E p
h ow
Ġes cap
Ġm ent
def er
Ġso le
ĠK itt
Ġdef ines
Ġt error
Ġt imestamp
Ġstand s
Ġin herit
Ex ists
190 1
RES ULT
al ias
Run ner
f b
Ġair port
Ġflow s
n ight
ĠD al
Ġscal es
h al
Ġs oci
Ġleg end
Ġrob ust
Ġco ins
pen se
spe ed
EN V
ĠN ik
Ġrev olution
Ġ uri
Ġlaw yer
sd k
Ġscal ing
P ower
Ġs un
Own er
B orn
ĠPortug uese
m ma
oc al
>< !--
Ġtherm al
Ġh ole
Ġdis ap
ĠF inn
Ġdisc rim
Ġtri ple
Ġst ellar
Copy right
M ilitary
ĠConnect icut
G overn
Ġb an
Ġfound ing
stats models
Ġup dates
ĠDoug las
all enge
ĠN ap
Ġmain tained
UN T
= $
j oint
Ġprogram me
Ġ Ñģ
att ing
od ot
10 24
Ġstop ped
Ġcharacter istic
li a
Ġint ent
Ġinh abit
Ġfl uid
Ġint elligence
Ġex pert
Ind ian
ĠG ab
UE ST
Ġl ake
H ar
ip age
Ġre pository
osl av
ĠBr un
Ġheav ily
w as
ĠD ark
ac er
Ġn amely
190 2
Ġcompet itions
ĠMar ine
f p
ĠCro at
Ġmin ute
ĠCre ates
Ġag ed
ens itive
w ik
Ġh ide
Ġ" '
Ġsequ ences
ĠF le
arn er
An other
Ġcan cell
Ù Ĩ
L iteral
Ġworld wide
Be en
P al
ant on
Ġa st
P OS
ro c
St ud
ĠĠĠĠĠĠĠĠĠĠĠĠĠĠĠĠĠĠĠĠĠĠĠĠĠĠĠĠĠĠĠĠ ĠĠ
tim eline
ar ity
Ġat mos
ĠPl ace
ĠF er
c ursor
Ġexpress ions
Ġthrow n
ri ev
ĠM and
ap y
ĠS end
! </
D TD
erv ation
ĠD ictionary
ĠMar c
ocr atic
L em
clus ions
S epar
Ġcon sumer
F ootball
Ġf older
Ġph oto
Ġm ist
Ġch apter
ĠP as
Ġdo or
E Y
ĠS M
Ġre aching
Ġcent uries
Ġmix ing
RA ME
18 80
ĠP ay
Ġsign als
ĠA C
Ġp apers
Ġcommission ed
A SE
}} $.
ĠAll en
Ġan imal
Ġs s
\ {\
Ġc ached
ĠHou ston
acew atch
i ors
Ġcar bon
P at
k ernel
Ġgun s
Ðµ ÑĢ
Cl ub
ĠW y
ig o
ĠC R
L icense
Ġc odes
ĠS el
ĠQue bec
ĠHe art
Ġf ake
Ġcorrect ly
Ġassert True
am ount
p rom
Ġf ired
Ġro yal
Ġm al
Ġuser name
Ġst ability
ann y
E ast
Ġs outheast
ĠAss oci
Ġa apt
Ġro of
ĠBy te
jav ax
Ġ_ .
R ot
A z
Ġr ating
Ġp ixels
Ex pect
P romise
Ġcirc uit
D M
ĠSil ver
f older
ograph ical
Ġc y
Ġp ixel
Ġcomput ational
op ic
Ġg ene
riter ion
Ġsc r
Ġcr isis
? "
Ġch urches
(" \
ir al
Ġv ot
am an
Mon th
h ill
ĠC ond
ĠB ureau
ĠA M
ĠN ichol
LE MENT
ĠPri x
Ġt ennis
Ġv o
uplic ate
us cript
Ġor bit
arg o
ĠIn vest
1 12
i ary
it ched
ĠTai wan
Ġhom es
she ll
ul ating
Ġpay ment
Ġbel ongs
Ġeth nic
Ġimp lied
ĠI F
ĠCon vert
Ġapp lying
Final ly
Ġco inc
aa aa
bind ing
eli hood
Ġp arsed
Ġoff ices
s ong
Ġconsist ed
Ġ æ
ĠSp acewatch
ouri er
Ã© r
ĠF all
we ek
Serv let
h pp
Z ero
================================ ================================
Ġd ependent
Ġ( %
LIC ENSE
ĠS ud
el son
Ġ ri
ĠNC AA
part y
um ps
d anger
ug ar
Ġs ale
Ġrun ner
ĠG ard
ĠI ter
IL ITY
IM IT
Ġcover ing
ĠC emetery
}} $,
Ġw x
pro b
ĠR ab
Ġfr anch
w allet
Ġjoin ing
ogene ous
l b
Ġgu ide
Ġpercent age
f av
Ġgraph s
Ġlow est
ĠHon or
re le
ĠDef ense
ĠArgent ina
ĠOC aml
Ġ\ !
ĠLem mon
Ġro ut
Ġc lip
M obile
Ġch ose
w en
l oss
Ġag ree
ik h
ĠCon stant
Ġh orizontal
ĠAdd ress
ver ify
Ġinflu enced
Ġres on
Ġestablish ment
Ġdis miss
Task s
ĉĉĉĉ Ċ
P riority
ul us
Ġ' #
Ġscatter ing
Ġsol ar
ri ent
w arn
inc or
ĠA st
map s
Ð° ÑĤ
ĠF ull
Ġmass es
Ġstat istical
display Name
ar o
Int roduction
h ab
ĠM S
Ġrough ly
Ġle af
plic ated
< >();
ĠSer ial
U CT
Ġre str
z ed
P od
th odox
con cat
$ ^{-
St ub
Ġpublic ations
Ġuncertain ty
ĠBrig ade
b one
Ġg reatest
DE X
t z
min ipage
ig e
3 60
ĠP ut
ĠSw iss
an alysis
Ġ- =
TI ES
T y
= &
M achine
Ġg oto
Ġmembers hip
Ġ` ``
sl ide
ĠR ight
ĠD ick
in ch
ĠA le
Ġincor porated
Ã ª
ĠInst ead
Sh ader
ĠMo ore
Ġpredict ed
m apping
ĠVill age
Ġcon clude
ĠA fghan
pr agma
Ġintegr ated
Ï Ģ
ang ers
ic ing
ryst al
Ġ" [
ĠM rs
Ġcr icket
R a
ĠT oday
D ER
Ġneigh bour
ĠK er
Ġw idget
ĠE uro
Ġprof ession
ĠAg ain
Ġ& #
t re
ĠD OM
com plex
RE E
SO URCE
d n
ĠJ ay
ĠH u
ov ing
Ġk ick
par agraph
ĠAnth ony
Ġdis crete
ĠU RI
Ġtest ed
Ġin duced
not ify
be ans
i em
ĠĠĠĠĠĠĠĠĠĠĠĠĠĠĠĠ ĠĠĠĠĊ
BU ILD
amazon aws
ĠPo pe
ys ql
Ġvol unte
ĠLog ger
Ġaccom pan
f ake
enc oding
ĠC EO
}} ^{
d ers
get Type
Ġsoc cer
ist ol
ĠIn it
Ġv ideos
ĠHot el
s z
LA Y
d jango
Ġcollabor ation
con current
cre ment
ac ht
S am
as p
ĠN ag
Ġin fer
__ )
C ity
ĠM oon
br ace
Ġevery one
Ġre ception
SP ACE
G EN
Ġin verse
iss ance
ĠĠĠĠ čĊ
Des ign
ex ual
Ġcon cluded
Ġcoll apse
ĠF uture
Ġcharacter istics
Ġh air
c ref
in burgh
Ġ' @
ign ore
ĠDen mark
ĠN ever
Ġinv ited
Id x
ĠIt em
Ġrepresent ations
Ġad vent
ĠWARRAN TIES
Ac adem
Ġo scill
requ ency
ĠBelg ium
Ġhapp ened
Ġstri p
d st
d ied
RE CT
Ã «
urs ive
H C
U uid
V ol
_ [
Ġhost s
op ter
includ es
Ġth er
Re ception
Ġe ye
P ane
ĠDon ald
Ġtra ject
Ġs leep
() ">
ĠU r
ĠG ordon
add Class
Te am
Ġpurch ase
Ġcan vas
ĠHaw ai
A ctions
E urope
Ġn ick
S an
PRO P
Ġrec all
ARN ING
ĠB us
Ġthe ories
ĠH ockey
ĠLie utenant
Ġind eed
TO M
Ġto kens
Ġb old
Ġprote in
Ġfound ation
Ġab ort
Ġc b
ĠM att
os ity
Ġd ry
h box
ĠE ag
ĠE V
tr ansport
Ġc arri
ĠK az
ub ern
Ġv oted
S F
Part ition
Ġsubject s
0000 0000
Ġp atch
Ġcli ents
ĠLouis iana
ĠM L
Ġm art
Ġrepl acing
ĠDub lin
Ġin aug
Ġop inion
": "
Ġtri es
al ink
ĠR ey
B ro
ĠY outh
Ġh its
ĠN um
ĠCol umn
Ġbul k
lo yd
ĠDet roit
H istor
ph ase
pub lish
Ġamplit ude
ĠS ite
sur face
Ġres istance
tr ain
S ol
act ual
10 5
ĠB uffer
get Class
TableRow Color
Ġre new
alle st
in ian
BU FFER
14 0
ĠB ry
Ġ ing
Ġloc omot
st ances
ment ion
Ġinter act
Ġreserv e
BO OL
M ust
ap l
S elf
ĠM A
ow ski
Ġtext ure
at en
Ġtable s
op am
Ġdeliver ed
Ġe ase
Ġex cit
get Message
get String
d ays
te ction
Ġcl one
×ķ ×
ĠAg ency
Model s
Ġex ceed
Ġ ener
Ch anges
ĠVol ume
Ù ħ
=" {{
v et
ru ption
| _{
mark s
exec ution
Ġs ed
Ġback ing
h bar
m ix
W in
ĠInd ependent
Eff ect
second ary
w x
Ġw ants
ĠH op
Ġequ ality
The y
Ġm arg
Ġs ud
Ġjust ice
ĠĠĠĠĠĠĠĠĠĠĠĠĠĠĠĠĠĠĠĠĠĠĠĠĠĠĠĠĠĠĠĠ ĠĠĠĠ
ĠS pr
Ġb ias
com b
Ġim plicit
Av ailable
ĠHarr is
Ġste el
Ã© n
D avid
list ener
qu al
b inary
Ġ' _
Ġpoet ry
oc om
Ġdec ade
Ġimmedi ate
ĠG iven
ĠP ur
Ġc ertificate
ben ch
cept or
do or
Ġin herited
N amed
Ð ¹
exp and
Ġf an
ir y
Ġ-- -
ĠIm perial
it als
Ġsatisf ied
Ġrespons ibility
Ġw a
Ġgalax y
Ġleg islation
Ġal pha
annot ations
Ġown ership
Ġcopy right
ĠCh ampions
cri bed
An alysis
st ud
11 1
) -\
ĠHol lywood
Do ctrine
B uf
ĠP ack
Ġp ending
ĠPortug al
ĠHer itage
ĠBrazil ian
Ġpain tings
th ird
ĠA T
Wh ere
ĠR ound
sh are
he ets
Ġiter ation
fore ach
ĠP uerto
T ex
ĠFace book
ĠMed icine
Ġrelationship s
Ġhum ans
Ġcalcul ations
n an
L ike
ĠPub lished
F ixed
Ġcell padding
c uda
Ġcer emony
çĶ ¨
p ref
ĠGr am
ĠMiss issippi
T ri
Dis c
enez uel
ĠS P
189 8
at ibility
ĠF M
M c
ĠDan ish
d in
Ġcon sequence
Ġd st
Re ason
Ġ ĉ
Ġcomp liance
d ocker
ĠO ak
mem bers
Ġs ampling
T uple
t imer
-------- --
Fe atures
r ather
Ġsp ac
Ġd eleted
Ġproduc es
Ġh uge
Ġabandon ed
1 16
Ġ å
gr ic
Ġenc oded
Ġthous ands
sw ing
Ġas sets
the less
CO M
per iod
M ich
el and
Ġst ating
ct ree
Ġtouch down
ĠK EY
Ġs cores
Or igin
ad v
ĠAl ber
ĠLiber al
Ġw ire
A I
R oman
ir i
ĠK o
in ction
is en
Cre ated
ĠT reat
no frame
az e
ĠD ak
Ġman ifest
Ġeng ines
math it
ĠP ref
ĠAcc ount
ĠHand le
S ide
Ġre tain
ĠIllegal ArgumentException
ĠIn ternal
Dis patch
final s
á º
ace ae
" ];
Ġr ival
f ish
im ore
po i
ott en
ool s
es is
Ġpro posal
ĠCom ponent
BA SE
it ative
Ġp ione
Rad io
ref resh
Ġdiscover y
Ġext ensions
n est
id ad
ĠK a
Pr imary
Ġsl ot
ĠRun time
ari os
local host
L IN
Ġl aid
Ex tra
ID E
ĠM ond
Ġinf rastructure
Ġest imation
iv idual
Ġcommun ic
ĠSh ar
B ased
google apis
Ġwrit es
Ġd iver
od ge
Ġdep os
Ġb ed
Ġinv asion
Ge ometry
ing ly
ĠL am
ĠV in
ri k
Ġtr ivial
all as
Ġsub sid
Ġg lob
T yp
viron ments
w i
Ġmov es
Ġdef initions
ĠAb d
Ġcoeff icient
W atch
h istory
Ġpar a
Ġactress es
form ed
ĠPr ivate
ĠDis ney
Ġvers us
Ġre ar
sp in
ne ut
Ġm ile
ĠH ig
ĠM aur
c lip
h our
Ġeng aged
serv let
del ay
ig ious
Ġc riteria
D ynamic
ĠWalk er
Ġre ign
Ġcell spacing
Down load
Ġcan onical
s is
Ġprint f
Ġden oted
Ġappear ing
ĠJ uan
Ġc old
ĠRes erve
ĠGener ated
ĠD est
jack son
Load ing
Ġbenef its
Ch unk
R ich
Ġd oll
ĠCol omb
TR AN
String Builder
bo ards
SP AN
18 99
Ġquant ity
im p
RE SS
Ġfr ames
ĠâĢ ł
ĠHar vard
Ġru led
Ġfle et
Exp atriate
Ġb rown
ĠH amp
ut able
D an
c ity
Det ector
Ġinvestig ate
Ġspect ra
CRE ATE
ĠL ib
ĠAnton io
ĠÃ ī
dat etime
th rough
Ġf aster
File Name
b ey
item pty
av is
ĠM O
Con tract
ĠDe ath
ĠP ed
ĠB lo
cl s
yg on
om itempty
} ",
Ġch air
Rel ation
ĠFreder ick
@ {
ail and
55 5
) }_{
uff ix
Ġpat ient
Ġabs ence
Ġparticip ate
F ac
Ġp referred
1 17
Ġtri p
SU C
as a
ĠBow l
Ġcap able
V ec
Ġred irect
W IN
Ġf ly
}{ |
G iven
az ure
Ġacc used
Compar ison
R ules
n ia
Dec imal
Ġinj ured
ĠFr ame
Ġ$ |\
L i
Ġlog in
Ġs ender
pt ic
Ġca ught
ce ived
im ize
tool bar
ĠC ensus
Ġr ig
ĠE u
ts burgh
Ġb ot
ĠÃ ł
max cdn
Ġpl ate
Loc ale
ĠD atabase
level and
ĠD ur
pi pe
Ġst adium
Ġtr ail
fe atures
ĠA ws
Ġgr ade
Ġcomput ing
ĠD ebug
Ġbo at
Ġt ack
Ġdes criptor
ĠIm mutable
ĠAdd itionally
ox y
ĠStud ios
fl ush
>( <
Ġed ited
Ġpract ices
sl ash
Ġentr ance
æ ĺ
'] .
ĠPar se
Ġsymbol s
ĠT ab
Ġcon clusion
med ium
Ġex cess
Ġch ampions
st e
F P
th umb
Ġseg ments
Ġsec retary
Ġs pl
Ġro ots
Ġ# {
Ġent ertain
ick y
leg es
R ober
) +\
ss ue
C trl
Ġd t
Ġbreak ing
Ġfin ishing
project s
Ġv ision
Ġm ort
ĠE arly
u ction
ic ode
Ġdesc end
Ġk w
u is
Ġstand ing
ownt own
Ġ' -
ĠMat the
f ather
Ġassist ance
Ġown ers
A SS
Ġexperi enced
G a
Ġm es
G it
Ġass ignment
D ict
il k
Ġc ub
Ġbig gest
Ġdesign s
C odec
Ġcomp r
Ġrestrict ed
) }}
Ġhigh way
ĠK am
ĠEd inburgh
is ition
ĠÐ ½
Ġ* ,
;" |
Ġlook s
Ġis lands
ch anges
eg et
Ġparticip ants
} )$,
ĠIn valid
GB T
U A
ĠCommand er
Ġh un
Off icial
m anagement
18 70
Ġsomew hat
J ust
_ -
con g
t ele
Ġcast le
el come
OT TOM
in os
Ġd ense
work s
Ġ======= =
Ġpass enger
ĠIndones ia
Ġgood s
Build ings
Ġwait ing
G rad
Run ning
ev a
g raphics
Ġc yc
Ġh ired
He alth
Ġcom ic
contin ue
Hash Map
Ġposs ess
Sec ret
EN ABLE
Ġclass ified
over ty
Ġdis patch
Ġf i
vert ex
ĠDig ital
H ol
Ġl l
Ġpre pare
ĠCh art
Ġhapp ens
Ġassoci ate
IN VALID
}( {\
ver b
Ġpen alty
om ents
Form er
Ġan th
Ġgrad uate
Ġpri est
BP ACK
ĠG irl
rt l
Dis k
B reak
Ġar med
Ġac id
ĠLeg islative
iv ated
189 6
Ġdescri bing
m ay
View Controller
Ġa str
Ġsup posed
bar a
ĠS port
Ġres igned
Ġd ial
ash i
Mod ifier
F ALSE
Ġl it
ĠMay or
ĠDep uty
Ġderiv ative
ĠN ob
ĠD VD
ĠB ush
ĠSam uel
Ġchalleng es
C amera
con tain
ah n
Ġf old
}{ (
ĠL ear
ĠOper a
Ġsur g
Ġpers pective
ĠP lease
Ġfeed back
Ġplatform s
com par
div ision
S ongs
plic ity
Ġinhabit ants
N a
ic ide
dec ode
ic ular
Ġis instance
li ps
ĠH ug
Ġadd r
Mut able
ĠC ow
ĠR yan
Ġvir t
HO UT
Com mit
Ġd ictionary
Ġir re
ĠAl an
Ġacc um
Ġinter mediate
re nt
Ġim pr
i pl
Work er
ĠArk ansas
an Ã§
SP AC
Ġhel ps
Ġdyn asty
R ound
ĠN ull
str ument
Ġrespect ive
c le
t v
ass ador
189 5
Sh arp
$ };
Rec ip
Ġj unior
j b
ĠH ills
Ġre in
late st
è ®
189 7
st mt
Ġw ish
ĠD ol
Ġb om
az ines
ADD ING
Ġorient ation
10 4
Th erefore
g re
var s
wh o
ĠJ ob
S core
ro ph
ĠF ern
Ġform ally
Ġprov ision
ĠDe ad
id en
g ate
Ġm it
0000 000
Ġsuc ceed
ĠP ap
Ġdecl are
ĠSt ew
Ġc m
F lor
Ġread s
com ple
Ġent ropy
aw esome
Ġh op
Ġap pre
met ic
t iny
L ive
M F
ct rl
ĠCont in
ĠMe an
Ġd x
Ġtemper atures
n ik
sub Nav
b undle
Support ed
M arch
> `
Ġresearch ers
Ġloss es
D id
/ )
Ġbound aries
Ġvol umes
Ġmid field
ĠT OP
Al pha
C irc
AV E
ver age
ĠW ed
ĠL as
Ġw arm
ĠF ALSE
Work s
Ġadapt ation
ĠCh airman
ĠMot or
m outh
40 4
ay an
ĠMi ami
. :
Ġocc as
ub le
iber n
ĠB erg
Ġiter ator
ĠU til
ĠCommun ist
Exec ute
red irect
Text View
run ning
Mon itor
Ġconserv ation
r ink
Ġ\ ]
] ->
$ ),
ĠR ange
Ġl ob
ĠS aturday
ex cept
An im
Int ent
it ics
ĠK now
Ġperiod s
uk i
Ġunivers ities
ĠT ABLE
g ies
mat ches
ĠS V
pay load
ĠK evin
ĠTr aining
l ive
ĠR ap
C annot
roll ers
pan ic
50 9
Ġp up
Ġr anges
Ġscient ists
Ġt urb
ĠM AX
Ġsh ock
Ġcompet e
Ī Ĵ
Ġag encies
Ġman age
c mp
OR K
Ġrece iver
iss on
Ġpract ical
== =
Ġunivers al
LO AD
Ġclass ic
ĠH il
ather ine
a ui
en ess
ĠOr chestra
Menu Item
O FF
App Compat
Ġequ als
5 12
ĠI R
sect s
Ġinterpret ation
ĠM IT
Ġpack ages
ĠU P
Ġm ental
p ad
Ġbo ot
ig ator
Ġterm inal
ĠL anc
ĠSt ore
Japan ese
Pro duction
ĠMar shall
Ġconf idence
Ġder ive
depend encies
bor ough
Al ert
Ġaccom mod
Ġex cell
Ð¾Ð »
ch unk
Ġsign ing
Sche dule
D ry
æ Ī
Ġor th
Per iod
S pecial
] </
ĠO k
j u
ĠLa ure
er on
ĠB asic
ateg or
å Ń
el lect
Ġcross ing
p agination
ain er
$ :
Ġd ies
Ġcheck s
incor porated
in ating
Ġphilosoph y
Ġmin ing
Ġcharacter ized
$ ~
Ġany one
Wh ite
ĠJ un
Su ite
Ġear liest
al gebra
EV ENT
urr ican
ĠD ave
ĠM es
Ital ian
St age
="../ _
Ġpra ised
âĢĿ .
Ġcl im
B us
Ġexpl os
Ġretriev e
Î ·
ibr ation
Ġrecord ings
fl ux
Ġbir ds
Ġwrap per
Ã ¦
ec lipse
="@ +
3 50
As sembly
j or
Ġcour ses
Ġpartial ly
Ġfil ters
up dated
Ġf erm
ĠTr ack
Ñ Ĩ
t oc
Ġres olved
Ġm ob
db c
ĠM ust
)) $
Ġb log
Ġim pl
Ġdraw ing
ĠArg ument
}$ )
ĠWel sh
d frac
om as
P aul
set Text
Ġsatisf ying
d ag
Trans ition
Ġm ac
se a
ĠG arden
Del ay
ĠB E
Ġw at
(' ./
Al t
Ġbr anches
ĠBO OST
J s
Ġmed icine
Ġkn ew
Ġv eter
ĠT rib
ĠMalays ia
Vis ual
ĠP HP
Ġrest ored
ors es
Ġrad iation
ish ops
Ġland s
ĠG all
is ations
op ol
ĠL ore
Pro of
Ġg it
Ġinvolv es
not ification
ĠHistor ical
ĠFin land
a ire
ĠT amil
UR N
! (
Ġcon crete
ĠMod ule
Ġt ropical
st ood
i per
Ġb id
ĠB ORDER
M o
Ġm ilit
Ġpublish ing
FLA GS
Ã³ w
W ill
aud i
ĠBang l
plement ed
Ġschol ars
Tem p
re present
Ġcr ash
char acter
c n
Ġhel per
Ġregular ly
m illion
s ass
ĠSing h
Ġsever e
Br idge
ĠSh ould
ĠĠĠĠĠĠĠĠĠĠĠĠĠĠĠĠĠĠĠĠĠĠĠĠĠĠĠĠĠĠĠĠ ĠĠĠĠĠĠ
man ifest
eb r
oc he
ĠP eters
av ers
> {
Ġca ref
ĠN atural
Ġ' ,
is ely
ĠLaw rence
\\\\\\\\ \\\\\\\\
Ġb ishop
Look up
oc a
ĠWork s
ov o
t ile
Ø ¯
- ">
ĠAct ive
Ġman uscript
Ġsufficient ly
Spe ed
fr agment
Ġmod er
Ġaccom pl
Ġne ither
pos ure
Ġd uty
fa iled
Ġab und
Ġd eleg
ST ART
oriz on
ĠB ou
Ġm ail
ĠW ol
Ġk id
t ail
T ok
| }{
Ġem otion
Ġstudy ing
che ll
Ġpret ty
Ġr aid
188 9
ith uan
Struct ure
ver ted
Ġt uple
" ?>
AR RAY
Ġf alls
ers et
Ġtw elve
; %
is ode
ick ets
re ason
Ġv ul
Sh ift
Ġlocal ized
10 3
neg ative
**************************************************************** ********
re tt
ub er
__ ,
Mod ified
Ġsubstant ial
Ġext reme
ĠIn v
ĉĉ čĊ
loc ale
ĠL ock
J ames
button s
Ġclos ure
to ctree
ĠUkr ainian
Ġinstr uments
ĠA P
ĠAust rian
Ġoutput s
in ject
Ġass ault
aw ay
19 2
Î »
Ġdesign er
G reen
Ġle mma
bu cket
ad apter
ĠL P
end point
ĠU tah
Ġexper iences
ĠĠ čĊ
Ðµ ÑĤ
Ġoper ates
Ġf lying
ĠPal ace
g lob
') ->
Ġrecover y
ĠM ol
ĠC P
ĠAtl anta
ĠB art
Ġh am
ĠTh ailand
Ġdecom position
> ../
ch at
get Attribute
ĠP ear
yn opsis
Ġ< ?
WE BPACK
P ut
ri ed
Ġfile d
ĠMP s
Ġdi agonal
ograph ics
Ġ" #
9 00
ĠE U
Ġroad s
Ġ" )
ĠN ep
ĠPublish ing
he el
trans late
ĠMod al
Mark er
ĠT ar
d ale
ĠNS String
N ON
end ment
ĠS R
ge ometry
met rics
A ugust
Ġres idence
u ent
ĠT og
ĠG on
Ġb os
Ġcarry ing
Ġcl s
ĠTr ade
b ai
ĠSec ret
Tr igger
Ġexp ed
ĠC ole
Ġe yes
ul um
rib uted
re duce
################ ################
arg v
trans l
Ġman ip
189 1
ĠPro file
label s
or us
pro fit
ĠT el
ĠI ron
ss on
Sup press
N eg
P lease
Ġshoot ing
T og
W I
Ġ" ${
ĠS mall
ĠH it
Ġd ream
}[ \
Ġrest ore
Ġarch ae
ĠC le
b est
Ġconcern ed
at iv
> [
Ġspe ak
L ang
Ġcontr ad
}} )
ĠF al
ĠOrgan ization
Ġgener ating
ug oslav
ĠCEL L
iz ard
Ġvict ims
Th rough
L ater
Sc ene
/ (
az el
Ġpri ze
ane ous
less sim
d td
Ġarr ival
Ġad m
Ġimprov ement
p ond
Ġconcentr ation
es ides
Vill ages
Ġground s
Ġessential ly
CE PT
process or
FLA G
ext ensions
member NameLink
ĠAl liance
^* $
ĠOtt oman
Pre vious
F ix
et ition
Ch o
Ġclos er
ĠF i
ĠEd itor
ĠSc ient
Ġnecess arily
SPAC ING
ort s
" ])
ĠS n
ĠE very
Ġpost er
ĠR ender
> .</
Ġint ention
Ġfl uct
spect or
189 3
Ġproduc ers
ĠPl ant
Ġn s
P ush
cast ing
H AND
SS ION
Ġpop ulations
Ġreg istration
ĠF arm
ÃŃ n
Med al
Ġd ust
s ym
ĠEx pression
isl ature
189 2
Ġbring ing
ĠHung ary
IT LE
h att
y ou
ĠG raph
Ġpredict ions
Ġdom inant
ir ical
Ġhard ware
id i
ĠAust in
list ed
ust ries
ident ity
ught ers
g un
IMP ORTED
Ġ( #
Ġdec isions
up per
Ġoffer ing
U nd
ĠFri ed
l arg
eg as
R ussian
ia h
v ee
(" .
Ġmat ched
pre pare
Ġnormal ized
m f
ic he
Ġcour ts
Ġrot ate
c urrency
MA SK
SUC CESS
k an
Ġh al
ĠĠĠĠĠ Ċ
m el
Ġcomp iled
p d
P REF
ĠAn na
R ailway
ĠOr thodox
Ġcon vention
Ġun us
c ycle
Ġdemonstr ated
P an
189 4
se cret
D er
Ġconstitu ency
s ure
Dist ribution
oust ic
set ting
ous el
ĠB Y
olv ing
app ings
ĠM ission
N umer
ic ht
ĠAd vent
P ipeline
Ġincor rect
Ġkeep ing
Ġb at
Rel ative
T ip
Ġagric ultural
Ġpass engers
Ġg ate
ĠUp per
ĠD og
styles heets
Ġint ensity
ĠAl fred
Rece ived
ĠHung arian
+ (
en ix
Ġpro sec
MP L
P rom
e per
ĠT YPE
Track er
Ġdecre ase
A SC
Pay ment
ev ens
bl ast
Ġremain der
r at
ĠK u
Ġbu y
Ġcustom er
AP P
Ġmark ets
ĠMethod s
f ac
eg e
ĠJ S
Ġwas n
Ġassum ptions
ĠMet ropolitan
Part icip
i op
path s
ĠF ood
Ġex posed
math op
Ġf ear
st ri
ĠMont real
ĠMarg aret
LP ADDING
Ġopport unities
Ġro bot
ĠY an
urre nce
Ġ$ ('#
Ġequ ilibrium
ar ith
D im
h ai
ins ic
Ġsub mit
olv es
script s
Ġher o
Un ique
er red
ul o
Ġent ities
ine a
her ent
Ġan notation
Ġto t
Ġw aters
ĠF ight
N P
Ġre tained
k ar
Ġro oms
Ġleg acy
Ġconnect ing
Cal endar
ĠCEL LPADDING
c v
99 99
Ġann iversary
ĠJoh ann
the ad
ib ilities
Ġpremier ed
× Ļ
ĠCELL SPACING
ĠH erm
Ġeval uated
c ached
ĠD raw
Ġret ail
Ġcolon ial
188 5
Ġdom inated
ĠR ugby
ĠSever al
Sc ott
Ġincreasing ly
m x
C UR
Ġb reed
Ġt s
lo pe
ĠS ingle
ili ary
ĉĉĉĉĉĉĉĉ ĉĉĉ
ĠPe ace
ĠP atri
Ġpro pose
ĠThom pson
Re pe
fl uid
Ġembedd ing
h n
../../ ../
h alf
Ġsh ut
N ONE
ins ula
æķ °
B ul
ĠW HERE
Re act
F actor
G RO
Has Been
18 60
Ġc ro
ĠL ower
i ac
Ġsh ares
L ines
d elegate
order ed
I p
des cribe
ĠQ ual
task s
ĠT ry
b ow
B lob
In struction
ĠC hem
Ġremov es
: &
le arning
Ġdr iven
ĠWIT HOUT
Ġstre ets
Å Ħ
I ME
Ġemerg ency
ĠK elly
Ġgr avity
Ġs yntax
ec onds
Q t
en o
ĠP C
st ub
Ġcomp re
RE T
bm atrix
Ġh ook
Ġa ux
Sl ot
ir t
Dist ance
i ang
Ġs pher
Enumer able
Ġpro hib
ĠK on
10 7
ãģ ®
Ġsy nd
Ġdiv isions
draw able
] $.
Ġc ards
ĠT ig
ort on
ĠL ook
ĠDate Time
ĠSh ah
Ġneut ral
hens ive
ĠTw itter
gu ide
Ġrel ax
Ġdeb ate
Ġaccompan ied
Ġview ed
B ER
Ġrequire ment
Dest roy
] ).
Qu ant
ĠEcon omic
f are
ĠV enezuel
Ġcrick eters
cast le
f aster
Ġe c
T ry
ĠO P
ĠHash Map
Ġinstall ation
ĠN eg
Ġsevent h
id al
ĠW ard
ĠBo ys
ĠD aily
des criptor
am ents
or acle
\ }$.
ĠB etween
ĠVi enna
Ġp a
Ġ. =
c od
Ġm ine
ra ction
Ġeas ier
elastic search
ĠK it
ĠKenn edy
Part y
F ace
tr ivial
Pop up
Ġfac ilit
Ġdi agn
Ġequip ped
Ġappro val
apol is
ĠDe an
Ġart ifact
th ree
B u
Ġhypot hesis
Ġcl er
Ġtr uck
J une
ĠRail road
Ġapp lies
ne ur
Ġs we
ĠE mer
ub b
Ġte en
ĠInd eed
Ġfranch ise
ĠCom ics
ĠPr incess
ĠPro gress
ĠAuthor ity
ĠF el
at om
s ent
C la
S eq
al ph
L D
F etch
il st
REQ UEST
Ġnot ification
M r
Ġb ond
I l
Ġprocess ed
et r
ĠA BC
se p
é Ģ
ĠCon vention
ĠSe attle
ĠB uff
ĠDom in
Ġin structions
O k
188 8
pack ages
ĠCh amber
value Of
Ġrapid ly
ĠJos Ã©
ep age
Ġcustom ers
Match er
i able
Ġconfig urations
et ary
C ertificate
g ow
d ataset
Ali as
Ġrac ial
ĠN i
Data Source
SS AGE
Ġt er
14 4
Ġs elling
Test ing
ĠRem arks
Ġcor rel
Ġdep uty
Form atter
m aker
ip edia
ĠK ings
ĠG ray
pr ice
= .
ate st
text ure
Ġhead s
Ġb anks
Ġhelp ing
iver pool
Ġsurv ived
Ġre ward
sl ider
ĠN ash
ĉĉ Ġ
m ate
Ġnorm ally
ĠE ff
: =
f our
AR GET
mut ex
ĠMc K
Ġval ley
Ġj et
fr ames
Ñ ħ
ĠA ug
Ġsk in
et he
ĠAd ams
V O
og a
Ġre nt
ĠW rest
ru ction
ĠC rown
Ġdire ctions
Sche me
a que
Ġdemonstr ate
N ECT
Ġcon tribute
Ġwith d
clud ing
( `
Ġa cknowled
new s
Ġaccess ible
ĠMount ains
C ountry
D ITION
em en
Ġcho ices
Com ponents
Ġad mitted
Ġne arest
Cont in
Ġ} ).
ĠBru ce
ro b
)-- (
Pol itical
Ġarr anged
ĠM anager
ĠKn ight
Ġste am
Ġpl ain
p n
Access or
Ġin duct
O cc
ffff ffff
ill o
Ġup load
f ilters
Ġgo ogle
add ed
fav icon
he x
Ġres ign
ĠA lice
Str ip
ĠRuss ell
Ġsimultane ously
separ ator
s ources
10 9
]( #
Ġs in
ĠI gn
) })
A ir
Ġor b
u able
Ġsing ing
Ġvar iance
vent ory
am ond
Ġj uris
att ach
ĠCap ital
Ġdam aged
&= &
or ce
Ġent ering
Set up
A pril
Block s
tra its
Ġcrow d
St ation
WA RE
cul ate
ĠC it
Ġcon form
C art
ĠCo oper
l ined
r uct
B ACK
F ixture
ĠBro thers
g p
et al
Ġillustr ated
pop up
rb an
ĠSt and
en z
File Path
is o
C he
ĠB ed
Ġland scape
Pr ice
Ġ à¤
zer bai
) *
st roke
ĠP UBLIC
Ġ" ;
Back end
Ġresident ial
T l
? </
Ġm acro
Ġl umin
TH ER
HasBeen Set
Ġv ec
ĠP rom
as is
pr ising
pro c
ust ed
ĠD ance
mult ip
iv ia
ĠN ic
! \
ĠCh ampion
Ġg one
Ġc ited
Ġbo ys
ĠBern ard
ĠG un
p ipeline
ĠAppend ix
I r
ha us
ane an
Ġrespons es
ĠMunic ipality
at able
F oot
ab a
nos cript
af ka
Ù Ī
Ġdefault s
is ons
Ġbu cket
ĠChrist opher
Met ric
script style
Ġathlet es
H om
ĠP ad
ME M
, .
Ġt ank
ĠRef orm
ĠC leveland
ourn als
Ġhand led
Sub scription
mir al
r ig
Ġa w
aw t
Ġmy th
11 4
ĠRog er
Ġre vers
ĠL ane
Ġt imer
Rober t
Ġnot ably
Constr aints
ific ial
c sv
och astic
t le
ĠK IND
ĠA gric
K ernel
se ed
Ġh a
um ed
Ġsm art
ĠM atch
Ġs a
Ġtop ics
ĠSystem s
fr ag
Ã¨ re
Ġt ile
IN IT
ĠPit tsburgh
arian ce
... )
Ġpotential ly
Ġun iverse
Ġm eters
Ġmanufact uring
' },
Ġembedd ed
we ak
S chool
look up
ĠAng el
ĠJ u
ĠEnt ity
P ixel
Ġil legal
Ġsh adow
ĠBalt imore
Ġcent ers
t one
ĠWhe ther
c aret
un ately
ĠS S
ĠD NA
unn y
Ġlic ensed
ĠG irls
ĠMet ro
Ġactiv ist
Ġoccup ation
È Ļ
ĠTh or
Ġpost ed
h base
ers h
Ġro uter
dr ag
ĠH eb
multi row
Serial ization
Ġimpr ison
ĠLic ensed
ĠLank a
ĠRoman ia
Ġliqu id
ĠM organ
Oper ations
pe g
Ġadd s
ĠN elson
ĠSen ator
os er
at ile
ac l
ibern ate
H D
ĠG it
ĠM achine
Buck et
q q
âĢĿ ,
c ourse
om atic
Array s
Ġinter pol
Ġsign s
Ġcompos ers
ĠHamp shire
ĠTR UE
D one
bo y
ĠWeb site
,\ \
ograph er
Ġexpl ore
DE D
Ġnot ion
ĠMc G
us k
over lay
Ġ$ ,
EN CE
Ġteach ers
ĠR io
ubern etes
="# "
Check ed
Ġstrateg ies
Ġrank ing
B i
Ġtr im
row Color
Ġgener a
Class Name
A fr
Ġclos ing
cook ie
ĠStew art
ĠOther wise
per cent
u ary
om ics
ĠP un
ĠRob inson
it err
Ġorgan isation
fin ite
........ ........
ob a
ar us
ĠC ook
ĠP ho
ĠG las
li x
rop ic
Ġvari ations
Ġhe ar
æ Ĺ
w ig
ĠT s
ab stract
ĠD ie
Ġl ibraries
Ġdel ivery
E LEMENT
Ġenh ance
in ist
Ġpres erved
] ['
et c
n ail
ĠB AS
cond itions
ud son
sample s
Ġ" );
P ending
Ġre start
' +
ĠYear s
qu estion
Ġjud ges
ĠB OTTOM
ĠG ulf
Stat istics
ĠMem bers
ĠKar l
ist ogram
ĠW ord
Ġc orn
S UB
` )
ĠIm Gui
O ctober
5 000
Ġcon qu
c op
on ian
å ľ
at in
Ġprint ed
ĠInitial ize
Ġs urre
In s
() [
Ġform ing
dis k
Ġdis p
ĠMar ie
Label s
Ġdef ensive
Ġtop ological
RO OT
Ġp overty
Ġprison ers
Ġf oo
B ur
Ġresc ue
Ġv acc
Ġst ood
ĠGr ad
Ġnorth west
lection s
pan ies
Ġden ied
Ex it
ph al
J anuary
Ġgr avit
Ġb low
Ġlocal ity
M ix
Ġsu it
FA IL
Ġwhe el
Sh adow
Ġd uties
br as
}} .
2 20
Ġj ourney
Ġ\ (\
id ency
ab i
Are Equal
Ġrece ives
ĠI SO
g ems
Ġcomple ment
enc er
ĠMov ement
ĠF ive
Ġsens itive
Comple tion
Ġcomp ens
Ġisol ated
iz z
E r
Ġmar ine
Ġcancel led
a ac
ley ball
fact or
and al
ch t
respons ive
attr s
ro se
an ian
Ġc raft
ĠB eck
Ġend if
c amel
it i
mar ine
usal em
ĠM aine
j amin
me asure
ĠT ak
pro f
X Y
ir ates
ĠÐ º
t ies
Ġbr ig
Ġconvent ional
Ġre loc
188 7
J uly
Ġt ight
ult an
b ach
irm ingham
Ġcur v
Ref resh
ĠR ub
b ird
M esh
Ï Ĥ
sub string
ĠW right
st eps
faster xml
long rightarrow
S G
Lin q
b t
Ġst ead
Ġrail road
first row
Ġaggreg ate
ĠE sp
Tool s
Ġn ations
Ġpr on
Ġm oth
Ġmem orial
z oom
date picker
Ġsepar ation
Ã¶ r
}} }\
ĠSar ah
Ġt ied
Ð ±
ĠGra ham
Ġs napshot
ĠÐ ´
sh arp
ch rome
th a
i ota
Ġpopular ity
Ġsub mitted
l r
Ġes c
op ens
] $,
end a
ĠBe at
ĠC atal
Ġrepe at
; ,
18 50
ĠR y
ĠL evel
c odec
Ġsim ilarly
ellect ual
Ġa ug
Ġth in
o j
ĠCamp bell
Ġt f
ĠSt age
Ġalign ment
Ġdef orm
Ġ// -->
app y
Ġcritic ism
Pay load
op acity
press ions
N I
Ġsuccess or
par allel
Ġ" _
Separ ator
ĠC os
Ġmov ements
^^ ^^
Ġut ility
10 6
ĠDak ota
cl ock
ĠFrank lin
ĠPro duct
S PE
ĠCon sole
f iction
Ġmain tenance
decl are
Ġme ets
ĠString Builder
ĠU pon
! =
At trib
Ġround s
m g
\ /
N eed
ĠSe ason
Ġacc ord
ĠL I
Ġsat ellite
ĠS cal
Back up
x sd
Ġrestrict ions
____ ____
Ġrender ed
ĠV ik
Ġkn ock
empty set
* ,
Ġappe al
Ġapprox imate
back s
ĠPh ot
ĠM obile
ĠFr iday
Ġunder stood
R outer
Trans lation
end region
S rc
Lower Case
Ġrecover ed
to Equal
ĠColon el
ĠCar ter
ok er
re pre
plic a
ĠÐ ¸
Ġnav al
ĠR ural
Set s
Ġsort ed
Ġg ar
ĠCent ury
r x
let ter
=- =-
Cons ider
Ġde ployment
atur ally
Ġc od
ĠAt tribute
ast s
V C
ĠDe ep
ĠYou Tube
Ġsignific ance
Ġquant ities
Ġth ank
}) }
Up per
Sc an
Ġas set
int s
Ġsc an
le ans
Read y
Ġpaint ers
Ġcritic ized
Path s
ãĥ ¼
ĠD I
Vis itor
Ġsound track
Ġbelong ing
ĠSt udio
Ġher itage
C amp
} "/>
Ġprov incial
Ġprec isely
on ed
as hes
ro ck
ĠPr imary
A K
ab et
Ġs lice
ĠTh ough
ĠCon nection
dir name
Ġdepend ency
Valid ate
18 65
ĠMor ris
ĠD allas
Ġs now
Top ic
188 6
$ _{
Ġattr s
Ġth anks
Ġun success
Ġshe l
cp u
Ġweek ly
P adding
Ġman ifold
or ange
ĠT EST
Ġwith draw
Ġem it
ĠS ession
ĠNew ton
10 8
Ġrestaur ant
or o
w right
ok a
sh aped
Ġdiam eter
p aces
ĠB ird
stream ing
Sur face
seg ment
p ending
ĠM C
L R
Al gorithm
Ġpublish er
Ġrecip ient
S ent
Ġeven ing
Ġg ang
O G
ĠL eft
Ġann ounce
Ġmark er
Ġo vers
Ġspe aking
h w
è ¡
th ere
FFFF FF
STR UCT
v ect
Ġv oting
Don ald
Ġpan els
Ġp ip
vel ope
ter y
Ġcal endar
claim ed
ĠR ot
periment al
Ġp ython
ĠS eg
F ire
* >(
Ġven ues
Ġreport ing
Ġp m
com ments
ul u
ov iÄĩ
initial ize
â Ķ
Ġl ose
ĠC lear
Ġb on
Ġoff ensive
Ġro se
e enth
Re place
Ġe g
om m
b ishop
t uple
Ġnewsp apers
Ġrestr iction
. ")
Ï ħ
Ġparticip ation
erial ize
i ot
ex clude
Ġpublic ly
ag ement
ou ver
Ġf est
m ov
Ġhead ed
C lean
Ġaut hentication
ĠM aj
ĠS ac
. [
Ġmov ies
U AL
p us
Ä Ł
Ġenc ode
Ġm m
ina e
ab ul
mod ifier
process ing
Ġdec ide
CL I
Ġt ip
est ure
g ray
Ge orge
H ave
Ġrad ial
b rev
ĠZ one
block s
m usic
s qu
ĠC F
ĠB ull
ant i
ĠT arget
Ġjournal ists
ĠD CHECK
) >
over flow
c ord
ĠP ackage
duc ational
ĠM atrix
Ġstruct ural
s ocial
ĠN am
ĠParam eters
For ward
V P
rol led
Ġpoint ed
d al
ĠN ord
en vironment
} >
Ġs essions
C LA
ĠGr id
Ġto String
ĠW oman
ĠSchool s
Mod al
U UID
ĠC er
im ir
L and
Ġse es
ĠLeb an
Ġm outh
+ "
Ġcoll ision
S ound
Ġhe lic
Ġst roke
ĠĠĠĠĠĠĠĠĠĠĠĠĠĠĠĠĠĠĠĠĠĠĠĠĠĠĠĠĠĠĠĠ ĠĠĠĠĠĠĠĠĠĠĠĠĠĠĠĠĠĠĠ
Ġd ele
Z oom
ĠF ilter
Ġw ed
Ġamount s
apt ist
iv o
Ġpost s
ĠMon te
ĠO pt
i ere
In line
T or
RO W
MA GE
Ġab use
Bl ue
parent Node
NG TH
ĠBangl adesh
Ġdeb uted
="# ">
Java Script
Ġexception s
FORM AT
Se ptember
Ġep och
ast ery
Ð¾ ÑĢ
sche mas
==== =
Ġgr ass
ĠO ptions
am ar
1 18
Ġh ill
Ġconsider able
A MP
M ass
' =>
ĠH end
Ġpain ted
L ite
ĠJud ge
ĠOn line
Trans fer
umb ent
D ao
ate ver
ab e
P icker
Ġsub group
SER VER
ĠConserv ative
e or
? (
tikz picture
Up dated
Ġrele ases
iterr anean
ĠEx pl
c ost
Ġsust ain
ĠT an
shall er
ymmet ry
ol id
ĠA rena
ĠD im
Ġsp end
ĠDef ence
ol t
ĠCar ib
ik o
Ġm ath
Ġ\ ,\
M iddle
form ing
ĠNaz i
M IT
Ġat omic
; ]
C SS
h us
Ġan om
Ġcount s
v art
Ġvary ing
Ġsh aring
Ġlook up
et on
Ġcom ed
b oth
ur ers
fig ures
ĠL iverpool
if le
Ġconserv ative
RE NT
append Child
Sec onds
cred ited
Ġsk y
Ġthe ater
L ow
] ),
ess aging
Ġprinc iples
cript ors
Ġd ating
ĠPort land
C MD
E lect
is i
ut ation
SH A
ent ries
ĠD oc
T own
b ors
Ġf urn
Ġw ounded
stat ement
Ġspirit ual
met ric
Load ed
ĠK ur
int o
ĠH um
ĠS SL
ith metic
Ġman ual
Ġdecl aration
Lem ma
Im ages
De cember
ustr y
Scal ar
188 4
B usiness
Ġmolec ular
-------------------------------- ----------------
struct ed
Ġg arden
et ry
ĠL abel
ĠMark et
Stack Trace
ipp ing
Ġgreat ly
sc ene
ic ates
Ġexp ensive
B etween
op les
H ello
inst ein
ĠH ell
Ġr ivers
Ġnon linear
'] ))
Ġident ification
at ivity
Ġv eget
ig ible
ĠC arn
Ġcre ative
100 00
Ġstar red
In jection
ĠS ax
W arnings
Ġc yl
om ing
ĠAfghan istan
Can vas
Ġin clusion
) }_
Ġreg iment
ĠR ud
Ġdisc ipl
Ġhundred s
Ġon going
Ġcru cial
ĠMo z
Ġalloc ated
S lice
h um
Rec ords
ĠC E
ĠW ang
Ġchild hood
Y our
[ <
com es
ri el
Ġemploy ment
ĠMur ray
Ġassum ing
Comp are
Ġsouth west
AB ILITY
ĠIm port
ol ia
ĠT ournament
ĠBr anch
im o
non atomic
Ġpres ents
Ġbeaut iful
)) \
ĠCre ated
Ġph ases
Ġm oments
pro duction
18 61
Ġpres erve
}\ ,\
avel ength
f uture
et ric
writ ers
CO UNT
ir k
em pl
ĠAss istant
ok ing
lot te
scri ber
ro v
Ġpo em
Ġcon sequ
l ater
Europe an
ol ute
ĠO d
cl osure
24 0
p al
ĠStan ley
Icon Error
F ill
Ġan cest
LA B
Ġcred ited
P ress
s ender
Ġd iverse
it ime
Ġbe ar
Ġstr uck
bit coin
Ġm atters
}} ^{\
ĠT oken
J o
J ew
br anch
Ġc rown
ex pl
188 1
Ġrecon struction
Ġconfigure d
ĠM ak
Ġappoint ment
Ġen vironments
hash Code
ĠC ov
Ġcontin uing
ĠOr leans
ag h
}} _{\
ump y
f w
Ġex pr
Ġdec line
Ġreli ef
Ġsub scription
Ġcol le
S al
Ġsusp ended
s creens
ĠEv ans
Conf irm
ĠU E
... ,
Ġd s
Ġthem es
Ġmax imal
ĠS r
ĠEd ition
ĠMult i
ĠH ost
G allery
pos er
ĠR ain
Ġoper ational
Ġgeneral ized
T imes
ĠO ct
min ute
ar on
\ ":
ĠN ation
iv an
em ale
Fore ign
ĠNorm an
Ġbas eline
ĉĉĉĉĉĉ Ċ
n m
ĠR u
Ġsee ing
ath on
Dec oder
C over
Ġautom atic
sc an
T ensor
r and
Ġv ast
hatt an
Ġal co
J ack
P ref
es cape
inn ed
G M
ex tract
Ġlist ening
Ġ ../
ĠMin or
: %
Ġn ested
w ave
IconError Encoded
Ġelim inated
Ġob server
Ġ"- //
ĠS W
Ġd ens
ĠLim ited
S ig
Ġs ail
ir ms
inc ipal
ke ley
Ġrep ly
Ġaut hent
ĠJer usalem
ĠNiger ia
S ever
tr ait
Character Offset
itar ian
Ġland ing
Dem ographics
ut o
ĠCons ider
Ġc ous
ĠAr n
Ġconcern ing
Nov ember
ann on
ĠY e
G l
ĠPref ecture
ĠW ing
OB JECT
le tt
Rad ius
M art
Ġst im
enc il
Ġim possible
um ption
ĠBrook lyn
ĠU SS
Ġsuff ix
ĠM ack
ĠO blast
Ġthink ing
Ġcompet itive
En tries
Ø ª
18 64
AT URE
t own
Ġins urance
Ġcircum stances
Ġdat etime
w alk
ĠE dd
> ()</
in verse
Ġaff airs
Ġref resh
Ġattrib uted
] {\
Pe er
ra ig
Ġmarket ing
ç »
ĠCon n
Ġsp ending
ĠA qu
Ġtransport ation
Ġentertain ment
L com
Ġover se
Ġind ent
ĠAthlet ic
b n
ĠCat hedral
st ad
es c
um ar
ĠSt op
Ġqual ifying
ter ior
W ORK
ĠC ache
allow ed
Ġdef ining
Ġdistingu ished
ke leton
un iform
am o
Ġ} {
Ġdrug s
Ġcred entials
Ġcompet ing
Ġconsum ption
Ġre aches
ĠR ico
v y
ĠY ugoslav
Ref lection
ĠLe ad
With out
c z
Ġwhen ever
Ġgovern ments
WR ITE
ot ts
Ġwor st
Ġbusiness man
mark er
e i
Ġre ducing
IN DEX
av i
p ine
Ġmed ieval
Ex tract
] =
ut ter
Ġsp arse
Ġkw args
m acro
3 000
Ġen umer
Debug ger
F B
aval ry
Ġpresent ation
ic ious
ur ring
p k
Ġcould n
Ã ½
Ġart istic
u pt
kee per
post s
Own Property
Ġb ases
ĉ ĠĠĠĠ
Con tain
ĠBroad way
un ion
text color
ĠPro perties
writ ing
ĠT ob
Ġseek ing
Ġneut r
AS H
] <
ge bras
Ġfinal s
ĠJim my
ĠC atalog
Ġhe aring
Le ague
ĠB ible
He ap
H ook
Ġhabit at
ĠN ad
size of
Ĩ Ĵ
con duct
Ass ignment
ph an
U V
ĠCh allenge
Ġvisit ors
off icial
Ġguitar ist
u art
ĠM eg
grad uate
Ġs ink
ber ry
it ches
big r
188 2
Ġpart ners
ĠMad rid
hold ers
Ġelement ary
ge on
Ġf ault
att les
Ġdefe ating
Ġf ib
ĠR ic
ĠF low
Ã Ł
Rep ly
Ġcelebr ated
ĠL ud
ur se
ĠR and
B road
Ġpass phrase
Al ign
ĠB ud
^{ *
ĠGu y
SD K
Rep resent
in herited
Ġg rown
ĠSum mary
sub scribe
re z
T ur
ext ype
Ġsur faces
pi res
Ġadv ice
ĠUs ed
ĠĠĠĠĠĠĠĠĠĠĠĠĠĠĠĠĠĠĠĠĠĠĠĠĠĠĠĠĠĠĠĠ ĠĠĠĠĠĠĠĠ
Ġhy brid
ĠB asketball
le af
ĠĠĠĠĠĠĠĠĠĠĠĠĠĠĠĠĠĠĠĠĠĠĠĠĠĠĠĠĠĠĠĠ ĠĠĠĠĠĠĠĠĠ
T LS
Mich ael
ĠWh ere
set Attribute
column width
ĠFinn ish
t m
Ġcorre ction
ĠC ass
ak u
ĠH ero
Ġprot otype
ĠB aker
Ġelect oral
Ġcos m
12 4
Ġstrict ly
M ail
ij ing
MA KE
big l
T K
p ent
Ġat om
Ġdom ains
ra ham
sl f
Ġperform s
oth y
C ookie
S il
Ġrom antic
' ):
ĠRet riev
OR S
Ġre duces
Ġst uff
ĠA uth
text area
Al umni
ĠM ars
ĠSerb ia
RA M
ch arge
ER S
ĠR PC
18 63
Ar r
Me asure
Al bums
Ġtown ship
r v
// ----------------------------------------------------------------
at ype
Ġdevelop ers
A lex
Ġadvert ising
Pr imitive
Rev iew
Us ed
ĠS ide
Ġgen re
ĠP ictures
le e
ĠF ont
amil ies
In ject
Ġfit ted
Ġ! !
Ġpro files
Ġshe et
ish ment
p riority
ĠJ e
Ġbeh alf
d m
el ines
ĠB ey
ĠCarl os
onom ous
) &
Ġ/ ></
Ġexerc ise
Ġhe x
gener ic
m und
ĠSim ilarly
ĠFe ature
Ġs phere
Ä Ļ
ed a
Ġ} ),
S panish
to LowerCase
, </
ĠAthlet ics
re ck
Capt ure
18 62
Ġreason able
dem o
qu et
Ġrepresent atives
Ġdeploy ed
P G
ä¸ Ń
Ġdo ct
ĠJava Script
sp ir
ĠJ ason
ĠPr adesh
V R
Ġcommunic ations
B D
Ġmay be
Ġperson ality
Ġmach ines
Ġen semble
Ġ urg
Ġfiction al
Ġ" +
ĠN ar
Ġmin i
Ġextract ed
Ġindependent ly
Ġener gies
Ġ/* !
Ġterr itories
Ġb lo
Ġass ass
S n
em or
ĠF ound
Ġsurg ery
ĠW ind
Get String
Ġlong est
T X
ĠNev ada
Per cent
ME SSAGE
anc ouver
ĠArt icle
work er
Ġ' ')
Sub ject
Ġtop ology
Ġs ensor
Requ ire
Ġcount ies
ĠR aw
B LOCK
Ġsp oke
Ġking dom
p lier
ĠA zerbai
Ġqu asi
Ġcon front
CD ATA
c ov
d iction
Al so
Ġsud den
reg ex
Ġclin ical
ro tt
Ġrele g
Vis ibility
An chor
remove Class
Ġr hs
Ġtrack ing
N ested
app oint
oped ia
D imension
Ġt ang
roll ing
Ġturn ing
Ġx si
ĠB irmingham
Ang le
. ');
Ġphot os
188 3
Ġord inary
pre view
d eveloper
Ġfru it
duc ible
ĠBelg ian
prec ision
le te
Ġst ayed
Oper and
p read
` :
Com plex
Ġfriend ly
List s
p f
ĠEx change
F RAME
Ġre venue
Ġdimension al
Conn ector
m ates
Ġref uge
our t
Ġtrad ing
Ġre putation
c art
Ġsu icide
n l
ĠL ithuan
Ġconcept s
Ġremov ing
Ġcoast al
ĠThe ater
Pub lish
un i
Ġmag azines
Over lay
C ritical
C ould
Ġh osp
oid s
Ġmechan ical
Ġscen arios
ĠMem ory
Function s
ĠTro phy
å Ľ
al ymp
ĠJohn ny
Ġm s
lo be
B T
Ġsche mes
Ġinflu ential
ĠWrest ling
m ust
c x
t b
Ġm esh
Ġst ub
ĠFI FA
ce il
ĠP M
ĠN AS
end ers
pos itions
urrican e
ĠB illy
' "
ĠF oot
}$ }
short cut
Ġas c
Open Tl
ĠPol itical
Ġqu ot
13 5
Ġw ides
Ġo x
Th ree
Ġmeet ings
ĠB enn
ĠM ong
Ġout line
ĠY ang
Ġexist ed
Ġp ian
Ġt unnel
Ġatt orney
F N
Pro c
Ġdep icted
sl ot
r ides
Ġexhib it
\ |\
Ġ' $
input s
Ġda ughters
ĠC ultural
ĠDel hi
Ġg allery
18 78
Ġout come
Ġb ars
ĠUn less
ĠYork shire
Ġtechn ologies
Ġt all
Mult iple
Ġtext s
ĠP or
Ġpr ices
;\ ;\
n ed
Ġd ated
Ġkey board
it udes
Ġm igration
M ov
ĠForm at
Ġ// !
Ġrep o
ĠWar ren
sp ark
ue z
For ce
Ġbr ick
ens ing
Ġp sy
ocr acy
Person nel
Ġtransform ed
att en
Ġvis iting
ĠB ron
Ġcr imes
Ġmark s
Ġvess els
ant ed
ak ia
ĠL L
AUT H
l if
c amera
ir s
ĠJ azz
ich i
ĠN BA
ĠCh rome
ĠCon struct
Ġarch ive
CH AN
ĠD M
ĠS ize
Ġinteg ers
V I
Ġcor porate
User name
T om
__ ["
jav ase
Ġso il
pt o
ĠK os
ham mad
bal ena
ob s
vis it
ĠP rior
ĠH old
() ]
n pm
, {\
ĠPol y
Un iform
ĠB row
ib ling
t ility
build ing
ĠOb ama
! ]
ap ps
> )</
Ġne uro
Ġelect ro
back slash
C op
m aking
Ġperm it
Status Code
t frac
MS G
Ġcirc ular
ĠL GBT
Ġinterpre ted
or b
ĠR ule
ĠGlas gow
ĠSoc cer
Ġst ochastic
Ġnom ination
pack et
FT WARE
ĠSt ars
" }
Se ason
inv oke
Ġcouple d
Ġh ip
BY TE
EN TRY
Ġtr unc
script size
ĠD A
\ ;
ĠG P
Ġcol leges
em p
Ġprec ise
[] )
ĠP A
Ġst y
S afe
Ġmodel ing
aj a
ĠTrans itional
Ġre b
ĠAl aska
S mall
Ġadv ers
ĠLin ux
U int
Ġsit uations
EE E
ĠSal v
ĠW atch
ĠR andom
Ġvul ner
Ġc url
ebr aska
Table s
Rel ated
Ġsynchron ized
neut ral
ĠPar ish
ĠSpe ed
Ġasympt otic
Ġf acing
Ġ/ ><
il ty
ott nt
ĠS cript
}{ *
ĠMatthe w
G ateway
Ġreg ression
Ġphot on
33 3
ĠResult s
Ġflo ating
ĠSer ge
Ġlook ed
v n
ĠG ary
ne ed
config ure
place holder
: @
Ġmag net
Ġperm itted
Ù ĩ
ĠPro test
ĠIran ian
ĠCon st
ĠInd ians
Ġdecl ined
ĠW ait
Ass ign
comm unic
bour g
}} }}
x l
ĠI van
Def ined
> ("
Ġ( {\
ĠE ston
erm ont
{ |
reg istry
{ },
U ntil
h is
Ġinitial ized
ĠRes ources
Ġch rom
Ġperiod ic
d ating
? ?
x e
ĠA ld
Ġc ash
ĠT ower
App ly
if ference
ĠN eed
ĠO wn
ens ors
ÑĢ Ðµ
ĠPier re
Ġfocus es
ĠT u
Ġf aces
ym an
AR CH
default s
Ġmiss ions
ĠEgypt ian
Ġlog ical
ĠCarib bean
Ġto ler
ĠM B
; -
tr aining
ĠF ine
d ump
ĠM D
ĠI ce
ĠE ug
Cred entials
ĠDer by
back end
t age
Ġreve als
Ġwe ar
}_{ -
l ings
ind ices
Ġthread s
187 6
U Int
ĠC HE
T M
ĠCl inton
ref lect
ĠMit chell
ĠF alls
ĠÂ ©
Ġel der
X i
og ue
constr aint
sub scription
ĠB reak
Ġf o
ĠComm ons
per mission
erv es
Ġfil med
if rame
ow s
Ġfl ash
Ġ(! (
uk a
ener ate
Ġequival ence
an ne
im its
. $$
Al ignment
Ġsl ave
Ġinvolv ement
Ġdistingu ish
Ġback up
Ġloc ale
nc ient
"> &#
ffff ff
G raphics
Ġr m
ĠNov a
ĠConf eder
ir us
Ġmunicipal ities
Ġremov al
sp i
ĠF err
Ġvir us
M a
os ph
ĠB achelor
c as
:: $
ang les
cor rect
H ence
// !
}) =
Ġmer ger
DITION S
LE NGTH
Ġmon ument
Ġd ol
Ġp refer
ĠA WS
11 3
} |\
oot strap
ect ive
ĠN icol
p referred
en ia
Ġc up
Ġsu ite
ĠD evice
Ġfrequ encies
Ġcouple s
Ġregard less
A ff
ĠT i
Ġj unction
poly mer
sign al
LE S
P aint
\ }$,
ii i
Ġs ight
Dis abled
G old
C V
ec ess
Ġqu ark
G ood
ĠDis play
}) ^
PA SS
ĠC S
Ġlist eners
Ġas semb
ag greg
Ä ħ
Ġex posure
Ġsurround ed
------------ -
DO CK
ĠCr icket
ĠHawai i
ĠBl ues
Ġbl ank
ĠCom puter
Ap is
h p
Ġhor ror
pt s
Ġal location
over ride
ĠU g
Ġpro x
ĠFl ore
Ġvac uum
ancell ationToken
å ¯
St d
ĠStruct ure
ĠSy ria
ĠWay ne
C AC
ĠCommunic ations
} ~
Ġsym pt
ĠSt orm
Ð¸ ÑĤ
hol m
Ġoccasion ally
w ind
Equal To
Ġlif etime
187 9
Ġgu id
ĠAl low
ĠK ath
as ma
Ġ( `
ĠClass ic
Ġpeak ed
Ġw ine
act ical
PL ICATION
t bl
ĠS elf
ul ative
Ġcurv ature
or ous
St yles
or ia
sol id
Ġimprov ements
3 20
ĠH orn
Ġcomp ile
ĠElement ary
Ġorder ing
ĠRes pond
Ġpre gn
Ġlist en
Ġcheck ing
Ġdifficult y
W alk
i est
Ñ Ī
Ġnot ify
sh iv
ort ed
\ }\
Ġpick ed
ur u
ma jor
Qu estion
if ts
ĠV I
ĠQ String
ĠR AF
g c
r ub
ĠAd vis
ĠDec l
M oths
Ġscript s
u ke
andid ate
ĠPer formance
L uc
Ġinvestig ated
Ġdest ruction
t ol
18 75
Un able
u eto
F ebruary
Ġ ^{
sub sec
go al
Ġdist ances
DE P
ĠMan hattan
s ame
ĠRequ ired
Ġp ole
ĠF reedom
sc ar
Ġdis contin
mod ified
ĠAn alysis
Ġre try
ĠF actory
Ġc ss
g ather
" </
Ġp index
ĠBAS IS
Y S
ĠF itz
ĠB egin
Ġd ress
Ġdef ence
ĠChar lie
<? >
Ġover view
Ġforest s
Ġtri als
am pton
Ġadult s
Ġcontrovers y
Rece ive
ta ke
Ġr uling
ipp et
help ers
Ġp in
Un ivers
ĠJ osh
Ġsepar ately
Y es
Ð ³
/ #
ĠJon athan
ĠS outheast
Ġvot ers
Ġparliament ary
Ġ[ {
Vari ant
Ġmount ains
ites pace
Ġmiss ed
al is
Ġd ashed
Ġst em
S UP
yth ing
ĠMil an
ody nam
Ġhash Code
Ġfrequ ent
Ġb orders
m any
x ref
Ġn aturally
ĠAtt orney
T ITLE
Ġbreak s
ok u
second s
ĠB urg
Ġreal ized
18 00
hib ition
ĠS ET
ĠCom par
Ap pearance
elf are
---- ---
C ost
Ġsp oken
Ġflow ers
i ator
ĠFle et
ac re
oc o
re view
Reg ular
Ġstrong er
Ġrep orter
ĠDemocr ats
trans fer
Ġgrad ually
spec ies
ĠM aterial
Ġsm allest
il ine
Ġcomm une
dec oration
}\ |
00 5
Ġch amber
ĠTig ers
table s
z ing
Ġun iqu
aut ore
conf irm
Ġco in
og s
rit ic
18 67
Meta Data
Ġhe ter
ĠGu inea
Ġs el
H en
H idden
us age
Î ¼
window s
Ġg ray
ĠT ool
ĠColl ins
ac a
Ġthous and
Ġd y
Ġinj uries
c ategories
ĠL uther
Ġfall ing
Ġaltern ate
d ensity
Ġfind ings
ens ively
Ġr c
CC CC
ĠBar ry
Ġd owntown
Mer ge
Ġproced ures
ĠCh ron
ĠPer u
Az ure
ret val
c py
ĠJ enn
ĠElect ric
ĠK an
Ġdev iation
gr pc
Ġge ometric
Ġst abil
ĠS yntax
ĠC lose
clus ively
act s
Ġconj ug
Ġhistor ians
Dest ination
C ross
=" ./
ass et
2 11
it ely
Ġpre dec
187 1
pl aced
Ġinn ov
Ġg rows
N ER
Ġapparent ly
HO ST
ĠC NN
>: ]<
ĠMic hel
18 68
Any Ref
> /
om on
EX PORT
ĠCON DITIONS
Request s
ĠCl ar
Ġstream s
og onal
ĠAlber ta
i ar
uc ed
Ġexpect ation
g em
Th omas
Ġrank s
Ġexcell ent
/ '
Ġin ternet
Ġaim ed
ĠC C
ueto oth
t an
Ġactiv ists
loc als
Ex cel
Ġstrugg le
Ġsil ent
A ud
ĠS ave
on na
w inning
LIN K
A U
ne e
Ġa z
Ġpro tests
12 1
fort unately
Ġwrap ped
Ġcond itional
mult iple
Ġ( <
ĠI an
und les
ĠM ess
ra f
ĠArt illery
Author ization
Ġmax im
//////////////////////////////// ////////////////////////////////
ordin ates
ĠP il
with out
Br anch
Ġwides pread
Ġ Ã©
bold math
Ġstreng then
ĠG reater
ĠW olf
( @"
H ide
df s
xy gen
Ġg rey
av atar
Ad v
ĠDef inition
=" //
Ġill ness
Ġpo ets
ĠPhil osoph
Add itional
av ery
R IGHT
ĠA y
ard ed
om p
ĠB ag
Ġdet ector
Key word
Ġthreat ened
Ġconv icted
Ġat oms
ĠAlex and
S in
per ature
bad ge
Ġproport ional
Ġlog o
L ou
Ġchampionship s
ĠAnd y
elect ed
ĠP si
ĠG C
N orm
Ġre lying
ĠBen jamin
ĠSh ang
Gener ate
Ġdeb t
Ġ Ø§
ch arg
im m
(" -
I ES
ĠB rowser
z es
å ¼
Ġunus ual
ĠColomb ia
ta x
yth m
Ġdoub les
ĠBar bara
Ġf ishing
Ġclose st
Ġpo ems
Ġgener ates
ĠM ans
Ġmechan isms
Recip ients
Academ ic
or f
Ġ{ $\
ĠProf essional
g ui
ĠB utton
Ġ' ../
agr ang
ĠMov ie
Ġen forcement
Ġsol ving
ĠOper ations
i at
R atio
Ġdisplay s
Ġincre ment
op al
vari ables
Ġt ie
Ġis omorphism
18 77
Ġsup ers
NAME SPACE
ĠF light
F ROM
å º
) '
Ġcom plicated
qu arter
is ch
Ġcons c
ĠSh a
u its
Ġreg ulations
command s
__ .
Ġemerg ed
E lem
Ġarray s
or ough
st ers
wh at
Tax a
Ġk it
ĠBr and
ĠTra il
Rev ision
f olk
ĠN an
ĠSw itch
k u
ĠSp irit
Ġcap abilities
OPT ION
el m
Ġup grade
Ġlaw yers
ĠZ e
ac ion
bor ne
ach i
> ';
Ġart illery
Ġmarg inal
z ym
m ill
part icle
ĠMat hemat
Âł Âł
ot ton
Ġmag ic
Ġs alt
en kins
ĠL ad
ĠV a
Ġac oustic
List eners
Ġatt ach
ĠT it
AC CE
ac iÃ³n
Be havior
render er
Ġ/ .
Ġsuper ior
Ġdiscuss ions
Ġf oss
ĠP ow
C tx
ra ke
ĠRich mond
Ġguarant ee
for ced
\! \
ĠR acing
> ');
q t
ĠF ather
00 2
">( </
Ġspec ification
O s
] *
Ġt icket
ĠEn able
Ġmod ification
prov ed
M argin
Medal ists
ĠAl tern
ul se
TO DO
ĠT itle
ĠW a
Part ial
LE V
it ure
pay ment
ĠInst all
Ġll vm
u ates
add EventListener
Ġwood en
Ã Ĺ
Ġfam ili
em ed
ĠS id
ĠVer ify
ag netic
Ġeigen values
pre vent
ĠS ongs
ĠS audi
Ġf ul
Ġencour aged
H ex
Ġmed als
ay ers
ĠAl bum
dest ination
ĠPark er
Ġb attery
ĠSte el
Ġtempor al
Ġexponent ial
C a
] -->
ĠCommission er
u ator
ĠI mp
Ã¼ n
Ġmin isters
Ġg ay
Ġ ì
ĠVictor ian
ĠGener ate
ĠCHE CK
Ġweek end
Ġex clusive
ĠJ ama
lock ed
ring tone
ĠAct or
âĢ ¢
en berg
Ġvari ants
ĠS even
F ar
More over
Ġ um
ant ics
Ġ# #
ĠHind u
Flor a
stit u
pub lished
Vari ables
: -
che str
Ġgen etic
Ġspec im
il iation
ick ing
Des pite
ĠMed iterranean
Ġsupp lies
ĠU TC
ĠR ace
ĠT un
tr ansp
ier ra
Ġphot ography
bel ow
i u
Ġmon arch
Example s
ab ling
ĠL iving
Ġinter rupt
Ġsent enced
B ot
187 2
ĠG ot
=" <?
LO B
\% $
Ġf oc
ĠOr ange
Ġportr ayed
Ġweap on
em a
Ġann ually
×Ļ ×
ser if
ĠN othing
ari ant
Ġhapp y
lik ely
IE W
ĠNichol as
Ġobtain ing
F iction
Ġsl ide
Ĥ ¬
od b
Ġcontrovers ial
ĠHun ter
Ġd ub
Ġconv olution
String s
L M
Ret ry
W IT
Ġexped ition
Ġmer chant
c am
Ġpriv acy
PROP ERT
187 4
Ġacqu isition
custom er
Ġe arn
b ank
ĠH D
h yper
Ġmount ed
Ġrender ing
Ġen ables
Ġfund ed
Ġout break
ĠGi ants
ĠBor ough
he ta
re ements
ey er
p ixel
Ġcor on
Ġcompre hensive
Ġad apter
Ã§ Ã£o
Ġvess el
ĠTurn er
Ġfunction ality
g iven
te enth
Ġdis order
ion ic
ot er
Ġenc ryption
ĠS ymbol
Ġsuff ering
ĠFr ances
Ġaug ment
Ġs ax
Ġne ur
s mooth
Ġcon gress
Act or
Ġsurre nder
L ab
ĠH ope
F IL
() `
Ġcomp ression
ex tr
Ġe ighth
ĠParam eter
Ġon click
comp iled
LO AT
Ġsold ier
'' '
S heet
or um
Ġin coming
thread s
Ġw et
ĠS ymfony
W H
r h
ater al
Ġpass age
ff ee
ĠV ancouver
Ġdynam ical
ul ates
ĠMond ay
. \\
ĠL iga
12 2
Ġgrad uating
Ñ İ
K ing
Ġattract ed
Ġp s
ĠB omb
Ġann ounc
Ġgravit ational
ĠTest s
ĠDis c
Ġagric ulture
FUN CTION
ĠU rban
Ġg iant
ĠCollection s
ĠB und
Ġpseud o
lic t
ĠSerb ian
ĠAnd re
ĠC PU
) }.
Ġweight ed
Ġd jango
Ġsurv iving
Allow ed
Sup pose
ĠBe ijing
ynchron ous
ĠHig gs
al am
det erm
ov en
col ors
Ġelev ation
18 40
Ġsub stitute
$ {\
s With
Å Ļ
Ġa ims
Ġto w
Ġvis ibility
Ġ" ./
Ã¡ s
re verse
Ġun like
ĠTr inity
ĠPro tection
ĠN ature
Ġprepar ation
Ġtri angle
ĠB ody
sc opic
in ite
ĠUnivers al
sp aces
Event Args
Ġf at
Ġ( );
Ġc urrency
Ġd iversity
S i
ph antom
ĠRoman ian
Ġinstrument al
GRO UP
b etween
ig s
ĠÐ ¾
ĠU SE
Un ion
Ġhon our
ĠL ayout
ĠF ly
ster dam
Ġswim ming
ĠP erm
or ship
Ġre semb
Ġcomb ine
vis ibility
Ġdes ire
Ġactiv ation
: /
re ply
ĠĠĠĠĠĠĠĠ čĊ
Ġcertain ly
ĠCub a
Ġrep air
font s
Th an
ĠM ix
ĠTh row
Comple ted
au er
C ert
Ġiter ations
Input s
ĠChar lotte
ĠR ing
ĠChrist ians
In clude
æ ī
ol ate
inter pret
Ġassess ment
Ġarrang ement
. &
ro d
Ġatmos phere
Ġh at
get s
Ġexpl ains
th ick
f un
l ag
Ġchalleng ing
inc inn
ĠArab ic
Ġpr imitive
ĠGr an
Govern ment
187 3
ĠĠĠĠĠĠĠĠĠĠĠĠĠĠĠĠĠĠĠĠĠĠĠĠĠĠĠĠĠĠĠĠ ĠĠĠĠĠĠĠĠĠĠ
By Name
z ant
rg b
Ġc um
Ġelse where
ĠR ank
Ġstrateg ic
part ition
ĠCirc uit
ĠPr im
Ġdise ases
Ġdeal ing
Des cribe
ĠS chema
ĠO K
ĠL is
Ġcab inet
ch annels
ĠFac ulty
Ġpro c
Ġint ellectual
Ġs ounds
book s
std err
ĠE C
grad ed
ĠF ast
DE LETE
Ġb lob
ĠG ET
Ġfit ting
ugg estion
ĠB ased
ject ure
St ates
s leep
Cre ation
C at
hel m
sp ot
Ġalgebra ic
ec ycle
Ġtrans itions
Reg istration
^* \
Ġrequ iring
ast rop
B er
ĠV egas
4 50
Ġ' </
Ġind igenous
Ġt ur
Ġph rase
ĠN ebraska
B N
ĠTe ch
Ġcl ar
Ġcollect ive
ĠV as
Hon ours
TEXT URE
S cheduler
Ġbe ach
ĠAl gorithm
ou p
ĠSO FTWARE
Ġmanag ing
tab End
Ġop ens
ĠV lad
cri ptions
âĶ Ģ
Ġv ic
qu is
Ġam ateur
ĠI L
ĉĉĉĉĉĉĉĉ ĉĉĉĉ
equ ations
C li
Ġcred its
Ġmet all
Disc ography
Ġco oper
l iteral
Ġmathemat ical
à ¹
Th reshold
Ġelect rical
scri ptions
ĠM other
ĠP in
Ġbir d
ĠAnd r
Ġform ats
D ot
ĠTreat y
to kens
miss ing
Ġform ulation
Ġwh ilst
Ġp ipe
ĠBer keley
Head ing
ĠHarr ison
ĠMu hammad
Ġport s
ĠF ourier
ĠSh adow
Ġthe at
Ġm apped
ĠW arner
Ġinv oked
Ġderiv atives
ĠC red
ave led
read cr
Ġanaly ze
D ataset
G UI
ex isting
is ot
123 45
---- -
Tog gle
ĠSet tings
ÑĢ Ð°Ð
re ach
( ",
TO OL
ĠStud y
C AP
ag ar
Ġac company
incinn ati
Ġfact s
ĠEx p
sl ant
ĠM aced
18 66
ath ers
R M
Ġins pect
Ġput s
Ġpre dom
p od
Ġdeterm ines
cent ral
Ġarchitect ural
Ġcomp aring
17 5
over e
ij i
ĠR angers
Ġrow span
ĠSh im
CL U
opt im
Ġdel ayed
inem at
get Text
Ġ\ &
16 8
ĠMag ic
V A
Ġlab eled
ĠPho enix
Ġ' {
Ġcon fer
ĠY u
ĠObserv able
ĠTerr itory
H ot
Ġp ictures
Ġcorre ctions
b ie
Ġconsider ation
ĠInter face
Ġh orses
y aml
Ġcous in
I ll
ĠSt orage
Enc oder
ĠT ax
r atio
B ecause
( []
Ġsupport ers
Ġg olf
Ġz oom
oph one
ĠDr ag
Ġrad ical
Ġestablish ing
F oo
Ġcomm emor
Ġf ixture
17 0
Ġm ixture
ist ani
Ġfavor ite
aint ies
N EL
row se
it is
ĠSt re
med skip
] >
ĠH ad
16 9
an alytics
Ġpe ers
Ġo cean
ĠJ a
Ġread ers
R ay
ĠP ic
N U
exception s
ĠS aints
hl js
control s
Ġor chestra
ĠM all
ĠLear ning
p iece
ĠS eb
Ġthir ty
in istic
Ġco operation
Ġ ur
P K
ĠM anu
ĠEnc ycl
Ġsens itivity
Ġele ven
ifi able
Ch arts
å į
um per
Co ord
Rout ing
CON ST
Ġinterval s
orient ation
otts ym
R B
mem Item
O rient
al ter
Ġrest oration
Ġafter wards
Ġliber al
Pr iv
P D
E MP
Ġw ider
ĠInd ustry
Ġn an
Ġl in
: =\
à ¬
NO SCRIPT
Ġhand les
Ġb io
an imate
ĠL ag
, (
Ġmonitor ing
Ġpart ly
cor ollary
ĠRober ts
Ġlast ed
uff icient
ĠPh D
Ġinc idents
C ss
Ġre ly
ĠB arr
g h
R oyal
os hi
ĠT am
Ġnom inations
sche me
Ġg lyph
Ã ī
Ġrandom ly
Ġenjoy ed
Ġquadr atic
Ġchar ter
Ġact ed
Ġfew er
ol ly
ĠR ick
ĠMun ich
el ian
M LE
Ġ" ")
ĠC BS
Leg acy
comp act
PRO TO
ĠD h
agrang ian
g om
ĠM ind
ĠB ot
Ġm anga
ĠUn like
ĠP sych
Att empt
ĠCON FIG
Ġuniform ly
Ġr is
Ġcompar able
Co ins
Ġwor ship
ĠM ut
Ġ$\ {\
ĠInt elligence
f ar
Check er
ĠBr istol
te chn
E con
ĠD ays
Fr ont
Ġcom fort
Ġven ue
Ġlocomot ives
st ock
P TED
å °
uck land
S IGN
) ^\
hem atic
Sign al
Ġr ising
Ġc fg
ac ef
Ġdepart ure
. ),
Ġst retch
or ne
Ġcut s
get Key
Ġjud g
Ġsquad ron
Ġun expected
Ġback end
as ide
Ġab road
Ġl ambda
Ġt ort
Ġsystem atic
conf irmed
tri angle
Ġmathemat ics
ĠIP v
ĠS TR
im plementation
Ġreg istry
amp a
enn ial
q a
std lib
Collect or
uch y
Ġl t
min a
S ong
ĠL yn
Ġw arn
cel and
m al
ĠT ed
Ġd rew
Ġinitial ization
valid ator
å Į
ĠK un
Error Code
C odes
inet ic
Ġlik elihood
Ð¾Ð ´
Ġan alys
field set
itor ial
Ġg ard
Ġex clusively
DI RECT
Ġslow ly
Ġalco hol
ĠB ound
ĠG round
b re
Ġl ap
en os
ĠP ra
Ġal ive
ĠBeng al
Ġ. /
Ġh arm
ĠD ocker
Ġres idual
el n
Play ers
Ã± a
ar ound
ard ing
elect ric
Char les
l st
Ġ ib
I FT
aly zer
/** */
at che
27 0
W ar
Ġcomp ound
Ġdanger ous
18 69
D ue
($ _
Ġsol ved
ĠS z
ĠG T
Afr ican
Jew ish
PREF IX
ĠP DF
Ġf iber
Ġw avelength
B ooks
Ġbeg un
Ġcap s
Ġs lope
Ġout standing
Ġamong st
ĠB our
F ilters
qu er
Ġfor th
Ġaddress ed
ĠD raft
TE GER
Sh are
as ant
ĠN BC
ĠArt ist
Ġyoung est
et ta
Ġsup pose
ĠL ess
d atab
B ob
b ower
gu ard
ĠCont ainer
}} =
ĠAnt ar
ĠT ake
ĠOl iver
Ġgr am
m un
iv ic
; =
Ġs ends
ĠBuff alo
$\ ,
ĠFri end
ass y
cel ona
ĠLiter ature
get Default
pher ic
Ġf er
Ġ(! $
13 6
ĠC ob
cl ide
Ġar row
ĠAp pe
erg i
m icrosoft
s an
ela ide
Ġcas ual
UT C
ĠC hel
^{ [
ĠF ab
rele ased
ĠP od
Ġelectric ity
es a
ĠVin cent
ush ing
ert ainties
MA IN
Ġscient ist
et ype
ĠTh ose
Ġinit iative
ro oms
Ġ utils
ĠM ason
tem plates
ĠMuslim s
Ġas ks
Ġin ference
Ġspec ifies
M AN
ĠP red
\| _
r ating
hen g
erv ing
Ġunder ground
ĠArch ive
ĠA udio
ĠPh ys
B oth
ĠDr ive
h op
im iter
Ġinn ings
Ġescap ed
Ġsimilar ity
ĠS equ
Ġattempt ing
m atic
sub str
Ġl oyal
Ġclaim ing
iv odes
Part s
S ocial
*} [
T ARGET
Prof essional
leg end
i ology
Ġinit iated
ĠY am
ai ro
ĠSt yle
ta wa
urs day
Ġexper ts
ĠGh ana
sw er
MS earch
ĠUn iverse
M anaged
Ġm k
var iance
ĠFin ancial
Ph oto
Ġdiff usion
Ġreported ly
serial ize
Ġposter ior
Ġarr ive
uss ia
ĠForm ula
Ġf ighter
ol s
al ia
Ġtr aveled
(" <
Ġcub ic
qu o
ĠV ic
Ġconv inc
Ġfeel ing
ĠB ir
ia o
act ed
Ch oice
ĠG rey
d evelop
Ġpar agraph
G uid
Ġs ig
U i
Ġdev oted
Def unct
ph abet
add le
ĠAdd ed
Arch ive
L ONG
Ġb ott
Ġsh orter
ent e
Rece iver
A thlet
U TE
Ġim perial
ear ing
Ġh ierarchy
ĠCh air
uc lear
ancell or
ĠPh ysics
Ġb ath
ĠCar lo
AP PLICATION
Ġdon ated
Rec ogn
car ousel
Ġimm igrants
ĠFin ance
Ġc c
ol en
over y
pe er
Ġ} .
NotFound Exception
File System
ĠJ oy
und a
ĠUE FA
18 59
en ario
Fil ename
Ġh older
Add ed
Red irect
ĠR oom
ĠF ro
Ġj ournals
Ġend emic
H ung
Ġref lected
Ġar ithmetic
Ġcent ered
Ġpriv ile
h ibernate
ĠL loyd
ounc ill
ĠS ultan
foot notes
ĠM enu
we ather
ivodes hip
be at
ash a
ep he
pro blem
B ag
sm art
Ġtal ent
ĠF lo
su it
ĠA UT
Ġr anging
por al
Ġaver aged
PAR AM
Ġare n
15 00
ĠCh and
M usical
M ir
Ġc line
ed e
ĠD ATA
30 4
Ġmar ry
ĠC row
ĠId ent
Ġvict im
__ _
Inst ances
ĠT yp
Tag Name
is b
Event Handler
> $
ĠSt ein
ug s
R ank
Ġsh arp
Ġext ending
ĠO THER
A CTION
Ġpop ulated
Ġproport ion
ĠM yst
ĠO UT
P eter
ĠExample s
Ġleg s
Ġdisestab lished
F ri
ĠC ad
Ġdevelop er
Ġsh ore
ĉ ĠĠĠĠĠĠĠĠĠĠĠ
Ġserial ized
ĠTr igger
E very
Ġlie utenant
INST ANCE
ĠH amb
last ic
Ġs oul
"> Â
H orizontal
Ġc able
M ale
Ġtri be
ä¸ Ģ
ĠB aptist
ĠDet erm
car bon
Ġ( ).
Ġsequ el
Ġemploy ee
c amp
Com pute
t cp
Ġag gress
text normal
gr avity
K EN
oth ic
P ages
Ġtalk ing
v p
ĠArg s
oxy gen
LEV EL
Ġstraight forward
ĠCon structor
Ġh oles
ĠK i
m r
Ġdem olished
Ġid s
13 2
ENT ER
ĠSh aw
Ġcomment ed
Ġp ushed
ĠL ions
Ġspe aker
N L
Ġent repre
ĠA I
18 48
le in
Ġcook ie
sh ots
rot ate
Ġcomple ting
Ġst ops
é ĩ
F oundation
y t
.. ."
m ysql
Ġl ift
Ġse ar
ĠMor oc
Ð° Ð»
Write Line
Serial izable
Ġencounter ed
Ġn ut
Ġrel ating
An notations
ĠT otal
Ġlo ader
d eb
ĠK ap
M ot
ĠS now
Ġperturb ation
Å Ľ
ĠDef ine
om eter
30 1
capt ure
C lock
ĠVenezuel a
igh bor
ĠF loat
Ġper cussion
illis econds
ov ich
at um
ĠM asters
act ivate
S uch
Ġbi ological
get Property
æĸ ĩ
s napshot
* .
Ġsettlement s
Ġap artment
^{ (\
Ġleg islative
ĠCan al
C lip
Ġc inema
res olved
v ik
[ _
Ġt ill
ev ille
Ġorgan isations
ĠM icro
ĠHer z
ĠSym phony
St mt
Ġ" --
k k
ĠV el
Is Null
Ġknow s
Ñ Ħ
Draw able
7 50
ĠV AR
Ġprov iders
Un its
ourn aments
Ġdecre ases
ĠH unt
in variant
ocom plete
M ean
Ġprocess or
Ġoccas ions
Ġm or
^* (
Ġtransform ations
ĠSocial ist
n io
ov al
Ġearth qu
ov an
ĠAt omic
Ġb acter
Ġjuris diction
: **
V oid
y arn
ĠR ou
Ġf led
Ġb rows
Ġs av
Ġ( {
ĠS A
ĠWith out
ĠIN T
× ª
ĠLe ader
ĠArmen ian
Ġd w
su ite
ĠC lay
Prot os
ĠCr ime
Ġstat ue
res olution
Ġo ct
ĠGe V
F ake
S ender
orient ed
Man ifest
Ġphenomen on
ĠRepresent ative
Ġre cre
Ġdoll ars
Ġnarr ative
Ġm usc
compar ison
ind ependent
ĠQ t
comp atible
ĠCl are
] ];
it ro
ch arts
Ġsynt hetic
oc on
Ġsh a
br ane
Ġwrest ling
Ġcoal ition
G G
ĠB uch
Ph ase
] []{
Ġpro be
99 9
ĠĠĠĠĠĠĠĠĠĠĠĠĠĠĠĠĠĠĠĠĠĠĠĠĠĠĠĠĠĠĠĠ ĠĠĠĠĠĠĠĠĠĠĠĠĠĠĠĠĠĠĠĠĠĠĠ
DOCK ED
Ġphotograph s
Ġinv olve
ĠShe l
arri ors
Ġelect rons
Ġask ing
Ġkind s
ub a
or row
Ġw av
ĠD J
iss a
is an
ĠS creen
go og
Ġred shift
ur as
XXXX XXXX
ĠP ast
Sche duled
ĠCh apter
Ch inese
ç ½
um i
ival ent
Ġrespond ed
ad os
ver bose
lic an
ĠDocument ation
Ch at
qu ick
ĠEn try
Dispatch er
st ation
enc ia
Default s
U r
ĠTrans action
M ont
ĠThe ory
. (
ĠC old
job s
mo ke
Initial ized
Ġaff ord
Ġsurv ive
Ġminor ity
ĠAz ure
l iga
Vert ical
ab solute
Ġthere by
Ġbeliev es
Ġhon ors
ĠMean while
Ġput ting
L aw
18 57
ĠB lood
/ %
R eq
s ap
Ġrect angle
T our
Ð¾Ð ¼
ĠCOL SPAN
ID S
Ġc arrier
Ã© d
Ġphys ician
A mer
> ";
chi at
Sw ed
ot ions
h ou
ĠMer c
ĠVo ivodeship
Ġcontrib uting
ow ed
ix on
Ġorb ital
us p
Ġserv ers
w so
clide an
ann i
CLI ENT
Ġo c
Ġl ingu
Im mutable
ĠJ ess
re ts
sec ure
Ġart ificial
ĠL en
Ġover lap
Ġfamili ar
R pc
ĠT ib
ĠMont ana
ĠAm sterdam
ert on
nes day
Ġten ure
ĠProt ocol
it ations
Ġgu ilty
M AC
z ier
ĠSup pose
Ġdecor ated
qu ality
Ġp arsing
Ġg od
ĠB og
F our
Al tern
Ġ( ((
ĠE s
ĠJ erry
nav Bar
à¤ ¾
ĠLu is
ĠSt evens
T ick
cc c
Ġover l
H ard
ĠVis ual
Thread ing
$. }
Ġbr idges
ĠKir k
ĠInd ustrial
numer ic
Ġg raphics
Rich ard
Ġval uable
organ ization
PO INT
Ġpurs ue
ched uling
text sf
Ġz ip
} `
12 9
HAND LE
f ee
uff le
Ġ- &
Ġposs ession
m anaged
Ġt ar
Ġb es
K S
ĠV ert
ĠStud ent
Ġincor por
ĠPr ice
re ports
Ġsem antic
ĠSu ccess
t ot
Ġenc oder
ĠMar vel
,\ ,\
B as
M X
V T
ac les
Ġcol ony
An n
Ġf usion
ĠH udson
ĠValid ate
Ġtrib es
LI B
Ġatt ending
ĠW as
s ock
FO RE
ĠTechn ical
or ig
View s
Ġbr ings
Ġsympt oms
pers istence
ĠL ate
R G
Custom er
inner HTML
ĠH orse
ĠSh ip
Ġcall er
ct l
Pred icate
section s
ĠM ET
Cap acity
ĠZ end
pos als
S ir
ĠT ol
Ġtrans f
ul atory
B razil
Ġop ponents
Ġseem ed
ari ans
Ġsub stit
Ġre ven
bedd ed
equ e
f on
Tra its
ACCE PTED
ĠB rew
Ġfluct uations
ĠC raig
Ġprov en
ĠCar r
S aint
Ġdes ert
Ġbroadcast ing
s outh
std out
Ġcom ics
She ll
Ġ[ #
ĠP le
ĠE le
ol utions
ĠCon struction
%%%%%%%% %%%%%%%%
h fill
Ġunc le
he art
m ime
0 100
ĠS ad
ĠM E
g gle
ab b
C alled
Ġor ange
Block Index
Ġg all
R GB
ĠHer bert
Ġexpl oration
Ġb anned
( %
Prot otype
ĠCost a
Ġad res
iff s
comp ass
Ġden om
Ġfest ivals
F D
ut a
H int
Scott ish
Ġg ro
sp l
mat htt
dist ribution
Ġs ock
ĠPro duction
Ġmuseum s
Ġproject ed
ĠB ath
Ġcl ause
Ġco aching
des cr
is se
ĠRob in
ĠPen insula
Ġreve al
Operation Exception
ent o
play back
ĠDr agon
ĠAr c
ĠOver all
S printf
ĠChristian ity
A IN
ĠCh ap
Ġconven ient
Ġrare ly
Ġt body
F ast
I LED
ĠA uckland
Perm issions
ĠKen ya
External Project
Ġlab our
Ġf antasy
ur bs
ĠP O
Ġund ert
ĠIn stance
c g
Ġr ub
Ġang les
s aved
Ġres id
18 30
Ġrel ay
ĠN ames
ĠSt even
host s
Linear Layout
ĠT ang
Ġref lection
is y
Ġmart ial
Ġcivil ian
Ġver ification
if th
Elements By
sp er
al tern
footnotes ize
ĠK l
Ġshif ted
Log ging
ĠSing les
ĠR ect
Suppress Warnings
il ia
W D
ĠWith in
Fr ank
S at
Ġwill ing
ĠAl ger
wall paper
ĠS ah
Mod ules
Art icle
sw ap
Reg ex
Browser Detector
the mes
Mat ches
P ACK
× Ķ
ĠGerm ans
i q
ud o
S en
ĠT erry
us a
Read Only
| $
ĠCroat ia
ĠFil ip
Ġnot ing
d v
Ġf abric
Ġph on
Ġdisap pe
pol l
ĠNO TE
om i
un its
char set
Ġsurv iv
ĠĠĠĠĠĠĠĠĠĠĠĠĠĠĠĠĠĠĠĠĠĠĠĠĠĠĠĠĠĠĠĠ ĠĠĠĠĠĠĠĠĠĠĠĠ
ĠPl atform
Alloc ator
get Data
ar an
Ġmanufact urer
Ġt um
ĠAzerbai jan
ĠF erm
Ġpro spect
Ġcirc les
it ol
ĠS pect
Ġl os
ĠW ik
ond a
ING S
Ġr id
ĉĉĉĉĉ Ċ
ĠGener ic
Ġtraject ory
Ġinsert ed
Ġrecogn ize
ĠSpr ings
Ġcompos ite
p arsed
eg en
de ploy
Particip ant
Ind icator
Ġis ot
ĠL ost
W F
ĠU V
v g
ĠVal ues
ins ky
he alth
ĠL ion
av an
Rep ublic
Ġs oph
ĠF ixed
ĠAt hens
l c
Link s
sup erv
Sub mit
in formation
z ig
Ġconvers ation
Ġbo ats
ĠPhilipp ine
cho ice
Ġâ ĨĴ
ĠC WE
ĠI da
ĠH ann
os c
Ġsub str
Ġorig ins
Ġpet ition
ĠHis panic
j ab
Ġwh atever
const ants
S ys
}{ {\
ĠP AR
ĠR O
Ġinform ed
Ġunc ertainties
Ġview ers
Ġfe as
Ġrout ine
f requency
Command s
D a
Ġext ensively
Ġlumin osity
Ġconsequ ences
Film ography
ĠC ell
Ġcommit ment
Ġqual ify
Ġwe aring
ance led
Ġwalk ing
navBar Cell
) ',
d w
om o
ar th
vart heta
Ġadmin ister
Ġviol ent
ri er
Ġf asc
ĠA pi
el o
PI O
ingu ished
P ython
h istor
12 6
ĠValue Error
S ink
Ġp tr
osp el
Ġportr ait
ĠCamp aign
ash board
ab ove
ri en
. ";
ĠW H
Ġle x
ri x
ĠG arc
cal c
at ra
ĠP erry
Ġvis its
E mitter
Ġarg v
Ġgener ators
ĠE N
ĠERR OR
o ard
aw k
do es
ĠGon z
ast ore
ĠS ak
re ject
Ġm oral
Ġconsist ency
Ġimport ed
ĠMunic ipal
w ang
* >
Ġim posed
ĠEnvironment al
æ ł
Ġpat rol
string ify
ON LY
)} (\
ic us
Ġm ys
ĠHol land
ad ers
ass oci
Ġf atal
De ep
cover ed
ĠPers ian
Ġpat ent
Ġ\ [
ĠD elta
Ġel igible
Ġdec ides
DO WN
Ġw aste
e ing
â ĪĴ
urs ing
Ġb are
ph oto
ĠD epend
ĠC atherine
ĠEd ge
NE W
UP DATE
Ġw ings
Te chn
Ġinter faces
Com b
Ġe cc
ĠH ob
-> {
ĠAd elaide
Art ifact
Ġdifficult ies
L arge
ĠC ategory
ĠI C
en ium
c aster
Ġpe oples
Ġb aby
Ġr ide
om es
ĠNever theless
14 7
Ġimprov ing
ent i
ĠN ormal
mid rule
vis ual
ick en
Ġp arks
N il
vel oc
init ely
Ġfarm ers
Ġhom ogeneous
ĠE SP
ĠÂ »
****** /
ĠV iol
Ġhand lers
b an
ĠI T
Ġst ake
ĠĠĠĠĠĠĠĠĠĠĠĠĠĠ Ċ
Ġd f
w ire
Ġman ually
La unch
Ġspecial ized
ĠMah ar
S y
2 10
u cc
---- --
get Time
Ġbeaut y
ess ment
Ġpl ugins
Typ ed
ĠCont emporary
AME TER
ele ss
ig ion
ent ine
il o
h all
Ġobserv able
L T
Ġreli able
av ia
ĠH E
Ġdec ode
Ġan ime
Ġto ggle
ĠWh y
prot oc
Ġparticip ating
ĠCl uster
I BU
ĠHe avy
ĠJeff erson
Ġl aser
ĠM ach
ĠEd wards
i ating
ÐµÐ½ Ð¸
Ġdismiss ed
ĠCom plex
Sup plier
J ose
Ġcont ested
Ġob lig
NO TE
Ġdef ending
ues day
Ġcho osing
port folio
Ġtrigger ed
ol ph
< >(
] ",
Ġexpand ing
Ġpay ments
Ġtw in
UN K
Ġcross ed
Ġfoc using
ĠB ass
Ġag es
log ic
log ical
ag ation
ĠV K
lay ers
vers ions
Ġstream ing
ĠFI LE
ĠT on
ĠAv iation
ĠO cc
Ġinflu ences
18 58
Ġcampaign s
Ġ{ })
Ġr s
sl ug
ĠRog ers
ĠH ugh
oc c
Ġsec ured
Ġop ponent
un credited
& =\
XML Schema
pl o
m issions
Cl ause
Ġel li
ĠBar celona
16 5
ĠĠĠĠ ĉ
On line
Ġdem ands
ĠGr ace
Ġport ions
atern al
Ġent ang
Ġa qu
Ġgu ess
ĠTem plate
S pring
b idden
cons istent
m icro
(" [
Ġs ep
Ġex cluded
Ġer ected
ĠR out
ĠS ay
Ġorgan ised
Ġestim ator
Ġcomm ut
ot he
Ġspons ored
class path
te ch
Ġ$ ("#
High light
++ ++
Ġaffili ated
A W
Initial ize
as se
has OwnProperty
ob e
end um
ä ¿
Ġm ines
ra h
. -
Ġm os
em bed
Ġfin ance
le ading
for ge
Ġplay offs
F i
Ġt on
Ã ĳ
Json Property
ad ic
B and
V ote
Ġdis pute
V S
Cl one
Ġprem iere
Ġgrand father
Ġk ids
Ind ices
Ġpolar ization
Ġkey boards
Pres ident
) (\
est yle
c atalog
$ ^
T urn
Ġarg ue
Ġin tern
D AT
Ġre vision
ĠNep al
ĠL arry
Trans l
ĠP P
(( (
Ġconflic ts
Football ers
t ec
RE L
Ġgr an
Ġed itions
Ġenh anced
ĠEth iop
C ached
( -\
Un mar
Res earch
ĠP ick
ind a
ache l
ĠHeb rew
ĠAnt i
O h
ĠL ex
Con v
Or g
ark ed
P rior
H F
ĠEcon omics
Ġabsor ption
Ġp our
Ġviol ation
ield s
play ing
Ġfor wards
Ġbox es
ĠE val
f eld
15 5
scal ar
Ġt ies
Ġc ul
d yn
ad apt
ra ise
D istrict
æ İ
Ġpass ion
A ust
ĠExt ension
Ġc amps
ett i
Ġaccess ed
Cent ral
th lete
Ġfor g
ĠTog ether
Ġhead ing
ĠFri ends
Ġinf antry
Ġsim plicity
ĠX ml
S pr
Ġul tr
dim en
Ġfor cing
Ġdig it
Ġp t
ĠBroad casting
Ġcorrespond ence
Ġt elling
Ġinter ference
Ġsim ulated
et e
ĠT oy
ide a
Ġreloc ated
ĠW u
Ġdocument ed
> -
J ac
ĠCo al
ĠDi ocese
ĠG O
ĠKe ith
bound ed
ĠDel aware
al yst
ĠN HL
Ph ysical
Ġfail ing
ĠBudd hist
b ash
add on
Ġbi ography
ĠStan ford
Type Name
K ar
Ġpre lim
Ġcontract s
Tw ig
n r
H it
Î ¯
ĠL ux
Ġdu o
[ [
ĠB right
ĠV ermont
[ ];
it ual
G T
Ġfilter ed
ĠO ri
Ġwed ding
w b
æ Ŀ
ĠC urt
asc ade
ĠT as
list ing
Ġmaintain ing
cat Desc
Ġlength s
Ġev ac
Ġintro ducing
Ġprint ing
Ġmod ifications
Ġ ,\
ĠY ale
mult line
Ġp uls
iv ities
out line
ator ial
leg iate
f m
pret ty
ĠRuntime Exception
l is
ip art
Ġfair ly
Kn own
Ġdep recated
Ġev olved
ĠArab ia
Ġform ul
4 80
ĠNot es
linked ExternalProject
EX TERN
iem ann
Ge o
$ \\
Ġis set
screens aver
ĠLeg end
d h
am ous
á ¹
ĠBy zant
ĠJ oint
$& $
Ġbench mark
Ġaware ness
Â ½
MA G
alax y
ĠAdv anced
18 54
Ġc rypt
M el
UM ENT
ort ex
ID ENT
=\ {
Ġref erring
m achine
Ġvar ies
Ġtalk s
Ġemp irical
ĠPr iv
c ou
Ġchar ity
ĠAs ync
à ¦
HP P
Ġem igrants
is Array
copy right
18 55
Ġtrib ut
ĠT ru
c odes
Ġ ÑĤ
Ġconstitution al
inter faces
ah l
Represent ation
rom agnetic
ĠPar alymp
Ġequ ally
ĠBut ler
Ġemotion al
ar ations
Ġ/** <
OD Y
Ġap ps
ĠSD K
. ;
al one
linkedExternalProject Path
Ġsculpt ure
ĠL ar
la unch
read only
Ġlock ed
) ];
mon itor
Ġdialog ue
LE N
ens en
' _{
Ġj ury
Ġcond em
Ġmir ror
ĠFish er
g b
3 75
Ġfra ud
art z
ĠA ST
Ġscholar ship
Ġtarget ed
ĠS Y
ĠS ql
pl ings
W ARNING
I ssue
ĠP el
ĠI ss
M or
ĠP ont
ull ivan
ĠG ay
Ġch apel
l ists
Ġengine ers
Image View
O RE
Ġdis cre
13 4
ĠArgent ine
2 30
tele phony
F ee
om eters
ent ities
co ins
13 1
( <
ĠH em
j k
ig gers
S ym
g uid
e ur
Ġtrans it
p el
Ġstead y
i am
ĠFor um
n om
Ġbutton s
qu iry
ĠP S
ĠCh o
ew ay
Ġd ip
Ġsub space
RET URN
Ġg ross
n x
access or
ĠSt ill
Ġop am
Christ ian
ĠC incinnati
Dependency Injection
Ġf ro
ĠBulg aria
un ed
Ġtempor arily
Ġd Ã©
ena issance
ĠLoc ation
Ġmut ual
he ld
ar ial
Ġmake up
Ġcomb ining
Ġ" (
å® ļ
ĠI celand
Ġind irect
Ġprov inces
ik es
arr ison
Res olve
Ġcarri es
Is rael
s izing
Ã¶ n
W ater
Î º
Ġcommand ed
Ġinit With
Ġsus pect
Ġim press
Ġent ers
Inv oke
M ad
ĠCru z
Ġgovern ed
Ð Ł
ĠP L
Ġ} ));
Ġform ations
block quote
Ġnegot iations
print StackTrace
ID s
Ġtrad itions
Ä Ľ
Ġs am
C atalog
um inate
Gr and
UM N
R ivers
Ġcomp atibility
Ġind ustries
d ummy
Ġinterview s
prevent Default
T i
Opt s
Ġ ~\
ĠG as
ĠCol lect
Ġunsuccess ful
v k
Ġcl othing
IBU TE
** *
ĠH av
ĠR oot
request s
Ġpropag ation
ĠGr ade
l m
Ġal igned
Ġj e
GEN ER
Ġav ailability
Ġw ww
Ar n
Ġpredom inant
Ġm a
Ġconcert s
ra id
AR K
ad just
Un lock
abric ator
ĠĠĠĠĠĠĠ Ċ
ĠThe od
Ġp ump
ĠM ann
ref ox
En code
Abs olute
ĠS Ã£o
) ";
ro at
ĠStud ents
w m
w heel
ynam ics
Ġ" :
| ^{
h it
Ġ[ -
ex act
re strict
DE VICE
ĠTre as
ter ms
Cl osed
and box
Ġpat ron
D X
M ex
T reat
ĠA bu
Ġn inth
Ġprov isions
Ġaux iliary
Ġdiagram s
Î ³
ĠS ample
ling ton
Http Request
Ġg fx
az i
ĠC apt
18 52
Ġde emed
Ġdist inction
Z end
Ġto mb
ĠNor folk
Death s
ĠAng lo
Ġinaug ural
ĠPos ition
Ġen zym
/ $
Ġsh apes
ãĤ Ĵ
o ft
down arrow
Ġvol can
Ġpl ots
ex ist
BE GIN
et ics
Ext ended
ĠD yn
Ġ= ================================================================
ĠCont roller
int egr
gom ery
s ing
get Current
ser ts
Ġhydro gen
ĠPeters burg
AT T
Ġportr ay
ĠH at
former ly
F IN
h ad
Ġre built
equ ate
Ġther apy
F LOAT
Ġsubsid iary
u o
int ent
ĠDiv is
Ġse q
ĠDE BUG
d istrict
View ById
ack ed
Ġharmon y
ĠBe aut
Ġsit ting
fail ure
ĠK ay
Ġdo ors
ĠRetriev ed
Ġpul led
Ġv e
l uc
ĠEqu ation
Ġh ub
n od
Ġ rib
n h
open ed
13 3
M icro
Ġt orn
ĠS U
ĠO il
Ġbl ind
en burg
C ref
g ap
ĠMur phy
18 56
P references
em ies
get Logger
æ į
ploy ee
ĠArch itecture
th an
Ġt ape
ĠM I
ov sky
Ġt ournaments
st own
left arrow
ĠHigh er
' </
="../ ..
li ers
Ġprote ins
Ġph arm
ĠEl li
ĠSm art
2 25
d z
Ù Ĭ
ĠB av
it r
in ates
ĠN AT
Att achment
h int
ari ate
ertific ates
url ing
ĠG len
cu ador
Ġal liance
ĠAl ong
Ġch ron
ok ia
erm ark
Ġeconom ics
Ġex ha
Ġd type
lin ing
du al
idel ines
Ġlog s
Pol y
nap shots
n ol
V IEW
ep h
14 5
ĠA ber
Ġf inger
Ġauthor ized
ecess ary
D J
not ag
aa a
th y
ĠCom put
ãĥ ³
v t
bu ck
dec or
up arrow
log ue
har mon
Ġviol in
m ine
ĠĠ ĉ
ol ition
Ġsac r
W ire
Ġw arnings
Ġmurder ed
ĠJ ar
Ġenc rypted
Ġsk i
ov y
Ġra ising
ĠM ul
d type
Ġprom oting
Ġcrick eter
ext ends
Ġd il
Res ize
ĠResource Manager
Ġin fr
Ġdisp ersion
* \
ĠA B
akes pe
Orient ation
T ele
Ø ³
ĠSus an
ĠAdd itional
-- ;
Ġpar ad
Dec ode
Ã µ
ĠM ig
Ġpal ace
Ġtrad ed
ĠB ond
S B
Link ed
Ġc ogn
ur ities
}} </
DE V
Ġdeterm ining
NUM BER
"> "
Ġinsp iration
sup ports
ĠCh a
is che
Ġb igger
ĠArch ives
cur r
Ġg ymn
ĠK ol
ĠG ust
CA SE
Ġthr one
Ġc argo
av ier
Ã© g
Ġlabor atory
um ing
(' ../
S N
ĠPro ductions
m other
Ġconnect s
ĠQu arter
Ġc p
Ġh orizon
ĠMad ison
r int
F X
Ġcov ariance
> #
ĠA round
Ġassoci ations
Ġnob le
ĠP ain
Ġcons iders
ĠKe ep
Ðº Ð°
ĠLat ino
Ġe arning
ĠScient ific
ĠTh er
A WS
ah o
ĠDen ver
ĠWat son
set Value
ĠCh i
P ad
Ġin fl
OP EN
Ġpower ed
L ondon
Ġdepart ments
ĠInd ependence
Ġorth ogonal
Ġtool tip
' ',
ĠCirc le
Ġw onder
get ElementsBy
ll a
Pre view
Ġbirth day
Ġmer ely
Ġw orse
ine e
ers ions
18 47
][ <
Ġsur f
Ġess ay
ĠS K
ah an
unit Pattern
Ġcop ied
design ated
Ġsp ell
Ġtem plates
In c
Ġexpl ored
Ġrestaur ants
Ġrender er
ĠâĢ ¦
Ġrefer enced
Perm alink
pro j
] ^
se ek
ĠUS B
L ittle
lo ose
ĠB orn
Ġqu oted
æ ³
Ġunit ary
Byte Array
ĠS alt
ĠAb bey
Ġapprox im
= </
ĠC L
ĠM ove
cell color
T oday
ĠÃ ģ
ie u
ĠGil bert
ĠL ot
New s
it ud
') ).
uch i
Ġmolec ules
ĠI M
Ġce ased
Ġleg it
Ġdens ities
Ġdevelop ments
Ġcyc les
ĠHar old
K HR
Ġb le
Bu ilt
Ġassist ed
rec v
ĠDemocr at
g ro
t ls
ĠRE G
ĠRes et
ĠEag les
Ġparse Int
PRO C
ĠLu ke
"> {
ĠCal led
ĠWork ers
ĠR elease
deg ree
ĠÐ ¼
ĠNAS A
resource GroupName
ric ulum
ĠHen ri
ĠT alk
x r
Ġi i
re nd
er gy
ĠCom ment
b ian
ĠOt tawa
Ġrun ners
Ġed iting
ph ysical
pe ction
Ġel abor
2 64
I MAGE
Throw able
Ġm arch
f ollow
oc ent
ĠGuard ian
Con version
Ġdirect ive
Code Attribute
Ġt ub
ĠÐ ·
ens on
Ġorigin ated
(" ")]
ĠS ans
Ġanalyt ic
A mb
14 3
tern oon
ST RE
akespe are
eb ox
CON NECT
an che
Ġcor ruption
g mail
p ic
Ġaccess key
Ġens ures
sche dule
Ġpl asma
Ġchem istry
St udio
Ġguarant eed
, ...,
Ġex clude
l ua
Ġcon greg
ĠSaf ari
enc oder
Ġr um
te es
B tn
Ġev ident
ĠArch bishop
1 19
Ġdoub t
Ġident ifying
s il
widget s
C N
ĠS or
ĠFlore nce
> ",
ut ely
ĠAnn ual
R h
ĠN g
Max imum
R en
S om
h m
as List
el ia
Ġin duction
Ġcl an
15 2
Ġch a
L ear
p ip
Ġr ated
ĠU lt
ĠÐ ±
Ġimp ly
AC CESS
ĠHel en
> ',
n ut
ĠFl ag
Ġdefend ers
ĠHe in
Ġpers u
is cal
18 51
sw ift
Ġo pp
Spec ies
ĠV M
ĠCor ollary
Not ify
Ġexc av
C riteria
Ġver ified
ff ield
Ġencour age
ĠCart esian
Ġem peror
ev t
fin ish
U INT
Ġhosp itals
se en
ĠS ox
f und
ĠField s
D utch
Ġneighbor ing
ĠAl lied
ĠN ear
Ġtreat y
int egration
ĠS ang
~ (\
amp ed
Ġmanufact urers
20 4
ĠN at
Ġsong writer
ĠD ennis
Ġcons olid
dash board
av irus
Ġvis itor
Ġreg ulation
ĠBO OL
Ġacqu ire
å ĩ
Click Listener
] ));
() "
Off ice
Ġsk ill
ĠI MP
Fr ance
Ġflo od
16 6
script scriptstyle
ou ches
ĠS oph
m ak
Ġstart up
Ġsuggest ing
Im plementation
) ?
First Name
m ade
ĠL ett
LE FT
get Context
Ġrepeated ly
ĠM is
op ing
et ter
Ġshop ping
Loc ator
Ġlo ops
per form
div ider
Ġo l
ĠCom merce
ĠD od
val ued
ĠProtest ant
ĠS N
Ġspe akers
Ġoverse as
ĠLabor atory
ĠK in
track s
ĠSud an
Direct ive
User Agent
ĠN y
}. }
ĠR ivers
Callback s
Ġtax es
Ġun ity
Ġcap ability
C am
Ġour s
Ġcons ensus
Ġw inds
B F
ĠL an
ĠD id
Ġar ise
BU F
u on
Ġplay wright
Instance Of
Ð½ Ð¸
Ġbelong ed
Ġemphas is
Ġcallback s
Ġdis aster
Com posite
k le
Ġf its
Ġmonth ly
Ġs ick
20 2
Ġtrib ute
; ;
Ġdial ect
h ind
new line
Ġgr pc
L ER
Ġpeak s
Ġant icip
Ġcon current
Ġn est
ĠEr nest
Ġtr uly
Ġdrum mer
ĠS F
Ġp b
Ġfl ush
F at
}) (
el ist
ch rom
Ġfl ights
g ulp
ĠS ep
Ġch ains
Dec or
Ġcon e
Ġpl acement
k ill
Ġs le
big cup
Ġ\ |\
d ro
=" {
n orth
t ick
Ġb ay
Ġre actions
Ġcomb inations
iv ot
CON F
ced ure
V IS
ĠDirect ory
Ġbut ter
Ġdis ag
W ords
Ġ* _
ec raft
ĠSt uart
Ġmeas uring
ĠL agrangian
Ġro uting
Ġwithd rew
ĠD ialog
col ogy
Ġturb ul
ic z
ge om
ĠÂ ·
Ġdis band
Ġto x
Ġdecre asing
sp ort
Byte String
r ans
pro port
h ole
ĠM ort
Ġaccord ance
Ġob st
eng u
ĠA str
un s
$ '
d an
ĠC lean
Ġqu iet
13 7
Ir ish
Ġtrans mit
C ities
Ġm p
sk a
Austral ia
Ġf iring
back up
ĠN athan
F all
Ġcitiz en
Ġexhib ited
Ġexc ited
Ġgr ave
Ġtrans verse
ĠW allet
SY S
Ġrev ised
ĠCong o
Ġsplit ting
P rec
AS K
os exual
r ain
Ġbon us
h agen
Ġh alo
20 8
Prov ince
ci pl
Ġs sl
æľ ī
ĠB order
âĢ¦ âĢ¦
sw ick
m ot
Com panies
ĠForm er
ĠU INT
sh ake
s ound
ĠEv ents
ĠS uz
Ġt ons
ĠP attern
ĠS oul
th reshold
Fr ag
au kee
Ġev il
L if
ĠNe il
ĠR alph
read able
t lement
Ġconduct or
ĠLeban on
n ick
Ġ& $
Ġb eta
ant ly
ĠCurrent ly
ĠL ov
AR B
ĠP aper
PROPERT Y
d id
18 49
Ġt oured
Ġm as
ĠShang hai
ad itional
y ellow
Con struct
Ġirre ducible
ĠK rist
ĠĠĠĠĠĠĠĠĠĠĠĠĠĠĠĠĠĠĠĠĠĠĠĠĠĠĠĠĠĠĠĠ ĠĠĠĠĠĠĠĠĠĠĠĠĠ
\ [\
Tool bar
d ater
ĠEngine ers
Ġreal istic
Ġd ump
fl ash
Ã¤ r
ĠA V
pro pto
Ġcluster ing
Ġmoder ate
! ");
Ġp ad
i ya
Sing les
ĠS ER
ĠSt atic
Ġresource Culture
Rep o
h uman
host name
ĠC ant
Ġle agues
Comp any
Ġn ice
ĠTh ai
prop ri
pos able
Ar row
E ven
Ġs id
Ġneigh bors
h dr
Ġc s
ĠB ak
Ġbrows ers
Ġgu ests
ĠAng lican
Ġpred icate
Ġc riterion
n ear
ib lings
ĠR ah
ight arrow
ĠFr anÃ§
Ġinter cept
ĠS ent
ĠL ooks
Ġmin istry
Ġimm igration
D ele
j sp
ĠF u
ĠFI X
Ġw arr
ĠR ole
B ODY
ĠM agn
Ġbe et
% );
R oom
Ġre fin
ĠY es
atab ases
mes h
Ð½ Ñĭ
aver se
S eed
Ġ/*! <
n P
Serial ize
it ars
Key board
ĠG em
Ġan ten
St e
æĺ ¯
ĠW alt
Ġ! (
list en
Pro position
B in
document ation
R ock
r ag
' }),
H EL
Ġb arrier
ĠLe o
ĠArn old
Ġan not
Ġ@ @
spec ified
ĠS ask
Ġ\ {\
Ġv endor
Ġsh allow
ris es
Ġpl acing
Th ird
SC A
Ġadv is
Ġinternational ly
Start ed
Ġst ere
Ġ" </
cred entials
W ild
Ġw ard
ĠTh ir
Ġfrag ments
ĠD rop
ĠN ak
l ift
Ġ* */
Ġdep ression
Record ed
[ ],
v r
USE D
Ġth orough
Ġrad ar
ĠÅ ł
ĠS ierra
Ġvol leyball
ĠA w
Ġpro ductions
20 3
ĠCh ang
B ill
enc oded
ĠSet ting
Ġbor ough
eg u
ne z
assert False
fe at
ĠArt ists
Ġpos it
Ġgraph ic
ro ut
Pro ducer
Sw ift
tog ether
ĠWars aw
um ped
------------ --
p ow
ĠB ug
Ġsw ap
F K
Ã ¯
ĠR oll
ĠS ic
ĠBr isb
ä¸ ª
Ġadvent ure
Ġdraft ed
ri eve
lo ver
Ġmat hematic
p ick
ress es
ĠCom pute
g res
Ġm eth
stitu ency
Ġstation ary
H A
ç ±
Ġpul se
in ery
ĠA f
ĠPhil lips
Ġinf ection
ond o
ST EM
min ster
ĠBrisb ane
ĠW i
at em
Int o
Ġjav adoc
Dis covery
Ġsurv ival
Ġcorrel ations
oper ating
ĠAr med
ĠCh apel
Dis able
Ġel dest
="../../../../../../ ../../
og ical
ij a
jb oss
m igration
ĠR us
Ġc emetery
ĠBob by
{ (\
on line
m art
oss ible
Ġsynt hes
à¥ į
TH READ
b age
ic it
Ġattr actions
ish a
p ared
Ġcoun sel
L F
ĠI v
ĠB ear
lic al
Ġdescend ants
ĠSy rian
ĠConserv ation
O ps
40 1
ism atch
bin om
ĠVen ice
ĠRead ing
Ġdefault Value
ĠWell ington
ĠL E
Ġd ocker
ĠW es
Ġb one
ĠC ox
D evelopment
Process ing
ĠBro ther
f ive
ĠEncycl opedia
g ender
Ġprof it
Ġneut ron
Ġwealth y
K G
am ation
ĠS ig
io let
Ġdec imal
)) {
t om
ic as
Ġ$ ('.
Q UE
SCRIPT ION
names e
ä» ¶
\ -
Ġl iv
Ġsc oped
az ar
Ph ys
NO WN
Ġf d
ĠPalest ine
Ġspher ical
ĠD NS
mark et
it us
Fiction al
Start ing
ĠHe ader
Ġgather ed
lim ited
ĠLi u
HEAD ER
Hel pers
Fin ished
f ilm
re b
SD L
Ġrecip ients
Ġfast est
Ġmorph ism
Ġcolle agues
ĠM ode
l ane
c ock
unt u
ÑĢ Ð¸
ĠL A
ç Ľ
Ġs aving
Ġgener ations
ĠCl iff
n ested
Ġo xygen
ORM AL
Ġsub urb
up les
Ġpre st
at z
Rec ent
Ġassum es
Ġb ishops
exp anded
Ġstand ings
Ġbe ating
P s
Ġm i
Ġarrang ements
v b
Cre ator
product s
Ġs isters
Ġren ov
ĠR idge
ĠSe an
Ġcompet itors
utor ial
sp h
R o
14 9
c out
ĠGreg ory
ĠPalest inian
\, ,
ST M
Ġc ad
ag i
ĠNot able
Ġreserv oir
ĠB ald
Last Name
Ġcompos itions
Ġse eds
P in
CK ET
ac cur
ack er
Ġhonor ary
Ġ< ![
ĠWall ace
}$ \
Git Hub
Ġlog arith
Inv ocation
Circ le
Ar c
Ġro ster
ish i
Ġsl aves
Ġcert ified
Ġsw itched
Ġassert ion
Ġindic ator
ĠStat istics
Ġsole ly
Ġaccept s
M id
un used
V K
ĠC oun
ĠSo on
Ġsett lers
ĠHel p
Ġpredec essor
um bs
Ġspect ro
w aukee
14 6
ĠCatalog ue
Ġfl u
ĠC u
Ġde als
map per
H I
Ġdem o
Ġreview ed
m ong
26 0
rec ords
Ġyour self
Ġste ep
Ġ è
oper ations
ĠC OP
Non Null
S port
ar ms
ess a
18 53
Ġact ively
Ġconj unction
Stud ent
ĠW ells
EX CEPT
Ġpolynomial s
B G
ĠS oci
ĠZh ang
M ur
Ãĳ Ãĳ
Map s
Ġc ategor
Ġrec urs
Text Field
Ġt anks
p romise
ãģ Ļ
Ġrecogn ised
ĠSch w
s om
Ġthr iller
o ons
Ġeffect iveness
Ġs ang
Ġd eter
Ġbor row
Ġmanufact ured
PAR AMETER
Ġwatch ing
go als
Ġretriev ed
ĠHug hes
ĠPo isson
Ġconven ience
Ġdem ocracy
if s
> @
' ><
h ub
s am
ĠP arent
Ġpl astic
ĠIn stit
Ġorgan ic
> =
Ġtrad itionally
che l
Ġdef erred
Ġoper and
Ġun f
Ġrock s
) ](
13 8
on c
min or
Aut hent
olog ically
Ġhun ting
Ġappre ci
Ġrat ios
Ġr ay
aut hentication
Ġprob abilities
song writer
ĠR oche
Ke ep
Ġinvest ors
14 8
if olds
ĠP av
Ġkey word
Ġadm its
Ġtro uble
contrib s
ĠAd miral
query Selector
Sl ide
Ġ" ");
Sever al
ort ion
P OL
Ġbr ands
Organ ization
-------- ---
Ġeng agement
So ftware
is Valid
uzz le
Ġw el
ra ils
rest ore
Ġdis appoint
pos itive
Ġm ess
OP ER
cknowled g
st orm
Ġout comes
Ġsup press
6 39
ac ional
Pr incipal
com press
Ġclass ifier
R ST
Writ ers
Log ical
P reference
ib us
ĠF ighter
Ġfight ers
\ }_{
NA P
{ })
TR A
Ġan onymous
ĠMal ay
Ġgr ants
g allery
Ġdiscrim ination
Ġguid ance
Ġthere after
Ġartifact s
ok o
uck er
Rot ation
Ġcross es
Ġscr atch
Ġvol tage
Ġent hus
User Id
Get ter
Ġexec utor
Ġdiplom atic
load s
Ġappro ached
I o
Further more
o auth
ĠK ind
Ġsup plement
c rypto
ĠHit ler
un ix
Ġdram atic
L ead
FA ILED
Ġag reements
ĠLe eds
ĠG ang
Il legal
Ġass ists
ĠJ in
Ġship ping
ad j
Ġvent ure
O IN
ĠP resent
Ġcoll apsed
Ġ ].
Ġdebug ging
ter min
SE SSION
Ġfl av
Ġconsc ious
ec on
C XX
Ġun lock
Ġcontin uum
Button s
Ġsc rap
^* _
å Ĩ
qu est
D eb
ĠAb raham
l ishes
ADD R
On Search
Ġp reference
ĠAg ent
seud o
ç± »
Ġneighbour hood
p ag
Par cel
ir ts
B bb
Ġme at
ĠK el
Im plemented
ĠNap ole
W rong
Ġsub marine
Ġneutr ino
Ġu uid
000 1
Ġreg ex
Ġ\ }
ĠP rest
(' \
Ġsur prise
Ġlat ent
ĠMon th
g row
ĠTh under
TH ON
Ġgeneral ization
Ġpro ton
; (
x c
id ity
. ).
Ġing red
C pp
ĠQu ant
Ex change
veloc ity
ver ts
ĠFil ms
lish ments
Ġset Up
IS O
}[ !
vet ica
ĠC ycl
Ġland ed
g ent
Ġcre ator
ĠAir lines
u h
Ġt ends
Ġinc umbent
ĠRE AD
Per formance
ob i
uss els
Ġtour ing
Ġcool ing
Ġmechan ics
f oundation
ĠF un
ĠY ES
M ah
Ġsearch ing
}/ \
Ġexhib its
ĠA ges
ĠG ate
Ġreson ance
tr action
il io
Ġ) {
ĠPed ro
F inder
g ol
ack ets
P DF
ĠM ail
math comp
ĠL IMIT
ĠâĢ ¢
ĠSt ack
13 9
Ġneg lig
ĠTh ursday
Ġup coming
ĠE D
15 1
S oviet
IT ER
Ġsegment ation
pred ict
ia z
sole te
ĠPre vious
Ġt one
P atch
Ġblock ed
ĠMe chan
C LO
ĠRh odes
ĠM uch
Ġor n
ov ina
Ġinter vention
SE CON
r us
ĠK il
Ġc amer
ĠLink ed
ĠP ent
Ġsur prising
abul ary
tr on
ĠV oice
je ctions
Ġc d
ĠP and
Project s
ĠM ills
ĠEn sure
ĠSh akespeare
Ġdec oder
ĠRev ival
ĠCO M
Ġcheck sum
Ġastr onom
Ġh orn
f amilies
Or Empty
f urt
cho ose
min imum
Bal ance
Ġeg gs
normal ize
DE SC
Ġ _{\
tr ained
Ġre called
agg able
\ },
Ġâ Ĥ¬
ĠFried rich
ä ¹
bar s
ĠHil bert
Ġm ic
ĠC elt
Ġmand atory
bo at
J ul
ĠAgric ulture
SH IFT
W M
ĠB eth
Ġp it
I reland
Ġmain stream
ĠIter ator
b org
Ġvar ied
call s
Ġdoc s
cover age
Ġa pt
E B
E ducational
s ex
S uffix
Ġcomput ers
Ġnow rap
Ġpure ly
). </
L ess
ĠNew castle
ĠBaron et
De ployment
Ġfun eral
Ġany where
ĠI BM
ĠMar x
ĠG olf
pr us
ĠAg reement
Ġnumer ic
bal ance
Ġp ale
WIT H
hes es
ĠDes cribe
Ġclean up
f lix
Tok ens
Ġinf lation
im i
Ġs ugar
ĠB A
Ġp ose
"> ,</
Ġprogress ive
Ġnovel ist
")) );
Ġver b
Ġd ummy
Ġcons ent
pr ises
as ia
h orn
Def ine
user Id
ĠAdd s
add er
Ġcard inal
Ġannounce ment
H a
act ics
" +
ĠW ag
Ġex pense
ĠB ach
V k
Ġb oss
ber ger
** :
ĠR enaissance
ĠK ash
Ġconsum ers
H ouse
18 5
STAT IC
Ġam big
Rect angle
Ġsum mit
Ðº Ð¸
Ä ĵ
TIME OUT
U psilon
Ġam pl
Ġsample d
ĠS ony
open api
}^ +
war f
Ġsc iences
Ġfem in
ĠMont gomery
Opt im
url s
ĠConfeder ate
P a
spe aker
ĠLeon ard
h or
Ġen rolled
H y
Ġs ans
Ġplay off
:// $
An swer
ĠManu el
F ACE
\ }.
Ġin hib
) _{\
Ġt il
"> '
RO P
m akers
é Ļ
ĠDr ama
OFF SET
Ġtr ick
IN PUT
ĠMar shal
ĠB aby
Ġdec k
ĠHar bor
Ġr iding
Ġ{ {\
ĠRel ations
Sm ith
Pol it
ĠSeb ast
ĠG uild
ĠO scar
Col lege
Ġqu ote
A ge
Ġper ceived
Requ irement
Ġprelim inary
F lo
ĠM eta
Ġrat ings
ĠNash ville
ĠW onder
Ġvar s
ĠBos nia
Ġconsist ently
Ent ities
ĠBulg arian
im an
Big g
ĠR ever
Ġt ube
Z ip
ĠBrun swick
Ġthe sis
ä¸ į
Ġmulti plication
Ġhol iday
c nt
feed back
Ġabs ent
Con nected
At l
ĠC ork
ĠA ncient
ap k
Ġt ours
P en
ĠSt ories
ĠRay mond
ĠBel arus
ĠHar vey
F un
Ġfun ctor
ĠDi amond
P ac
w ent
R F
ĠN ott
M ary
r ated
ĠM orning
un ning
ĠV ent
ĠWed nesday
Ġcer emon
Ġcancell ationToken
ĠH ub
f ade
Null Exception
Ġphotograph er
em e
Hand lers
Ġexam ine
ĠL IC
mod ern
ing e
fin ity
inter action
dr iven
ĠSecond ary
Ġre nd
or p
Ġc rystal
Im g
Ġcomp rises
Ġactiv ated
Ġbur st
Ġatt achment
Ġscal ed
;& #
Ġr itual
ĠTransport ation
Ġm ilk
Ph aser
Ġdi agnostic
0 10
Or d
S a
Ġo mitted
ry s
V ars
ĠB ert
im edia
Ġinj ection
Ġnormal ization
Ġr ings
18 46
co ordinate
s yntax
y u
Ġb attalion
tr ightarrow
Ġreal m
M acro
b ib
en i
Ġg ift
Ġref ere
Ġeng age
Ġnick name
end ent
ĠCam eron
? .
Ġgen es
Numer ic
Ġexhib itions
if inals
Ġextr action
Ġc ust
eff icient
hand lers
cur ve
b readcr
ĠN A
Ġtravel led
Ġpitch er
ur ated
r ac
Ġplan ets
then Return
Work space
è ¦
Number Of
Ġs overe
Ġarr iving
Aut om
x ff
{ .
ĠS yn
ib ase
Neg ative
iz a
Ġab brev
Ġcompan ion
Ġbre ast
Ġres ort
H uman
æ Ķ
Ġmet ropolitan
th al
form ula
4 000
D ark
Ġdef ended
und ers
Ġs ectors
ĠR av
Ġac res
' -
OL DER
Ġdistrib ute
Ġbelief s
Ġw ake
ĠEd it
ĠJo an
spir acy
ativ istic
H ouses
Ġaff ects
ĠTun is
ĠP icture
ĠT ong
f v
Ġattend ance
ĠD ame
Ġ[ (
ĠEx per
ĠPhilosoph y
M EN
m igr
= }
Observ able
Ph abricator
$- $
"> #
ĠĠĠĠĠĠĠĠĠĠĠĠĠĠĠĠĠĠĠĠĠĠĠĠĠĠĠĠĠĠĠĠ ĠĠĠĠĠĠĠĠĠĠĠĠĠĠ
Ġfeel ings
ĠSt ef
Ġpo ison
ierarch ical
Ġburn ed
Ġn inet
ĠR osen
ed ges
Ġdisestab lishments
ak ov
ĠE ld
em b
ĠSch olar
Ġem issions
Ġrefuge es
h yp
ĠK id
Ġemerg ing
uls ion
Ġdeep ly
iv ar
Play ing
Ġhighlight ed
B log
å ½
18 44
Ġab ilities
h ang
Ġfif teen
ĠGro ve
p ane
get C
ĠPl ugin
Ġal gebras
al bum
ĠKn ights
Ġprot agon
? )
R ugby
Ġj u
define Property
Ġspec ifying
Ġcaref ul
Ġ ))
ĠScot ia
var rho
ĠG az
Ġcou plings
28 0
ĠPo inter
type param
Ġanaly zed
ex c
CO PY
Ġserious ly
L ove
Ġ ));
Sort ed
Ġcur r
Ġhous ed
Ġmiss ile
Comm unes
Ġre public
Ġper ception
Over flow
Ġso ap
file Name
Ġtour ism
Ġp id
Ġun e
in ology
ĠY ellow
ĠPaul o
ĠSh ared
=" '
out ube
loc ations
flu ence
Ġnec k
ĠOut standing
ADD RESS
Ġf ur
West ern
22 4
il ateral
ĠM ik
}{ }
ĠEdd ie
) }$.
Ġb attles
Ġg ear
Res p
Ġnumer us
_{ -\
Ġad mit
Ġre act
ĠS ou
Ġset Timeout
Trans actions
ĠBenn ett
Ġal lies
ĠMer it
ĠDev on
Ġpro posals
Ġen compass
s ized
View Model
' })
15 4
ersh ire
C Y
t ap
Ġdel iber
Ġtravel ing
k ubernetes
eg al
Ġcomp ounds
t u
c ia
Ġsp okes
ĠYugoslav ia
ĠRepublic ans
ĠDec ision
Ġver bose
def n
Ġvari eties
Transport ation
ĠAct ress
D K
Ġinter change
Ġcut ting
ab we
und o
am y
Transform er
ĠR T
ĠEag le
ag ers
MLE lement
S un
Ġal phabet
ot ypes
Ġdiss ip
in as
ol ine
im ity
ost ream
end l
Ġl oved
Ġsub section
Ge org
ĠH aving
ĠT F
start ed
IF Y
Ġt ier
7 68
18 45
om ar
ew ise
amb ers
Pers istent
Hen ry
Ġin set
ac co
ĠC ec
ig ue
Ġf irms
Ġsynd rome
er i
Ġare na
P TR
P LAY
() }
anc o
Ġg ates
Ġoccur ring
Ġdoct ors
Dem o
11 11
Ġresign ation
andid ates
Ġcontinuous ly
ĠC T
ĠC M
att achment
Public ations
Pl us
Ġ' )
ĠRey n
ro les
ing en
ĠC raw
urch ase
Ġris ks
R ew
Ġdesign ation
Ġphys ically
con tract
ĠJul ian
A ws
ĠSim ilar
Ġ$ ^{
atche wan
} ',
Ġan notations
ob ar
ob server
Ad ministr
æ ŀ
"/ ></
Ġ\ '
W T
ij k
Ġconver ges
Right arrow
Ġl ying
P icture
en es
Ġn aming
Id le
CP U
Ð ¶
ĠC rit
Con current
ĠDo es
stack rel
Ġsh utdown
Ġcent res
Ġsent ences
ĠC over
ĠC ris
maz ing
vel t
ident ial
Ġleg islature
Na N
r ab
Ġpark ing
Ġsynt hesis
osl ov
ĠL if
LOC AL
mk dir
_{ +
ĠCab inet
ro e
anc ers
Ġthreat s
W ay
b id
Ġcou p
auth ors
ĠSpec ifically
Ġresource GroupName
Ġa thlete
ÅĤ aw
Th rows
Ġav iation
Ġim aging
Tax onomy
Ġtot ally
Doc s
Ġcult ures
Ġen emies
Ġu id
åı ĸ
Ġmanag es
ĠK ill
Ġv el
00 3
W C
ĠSaf ety
i pt
ĠH H
Ðµ Ð»
Ġr uler
hand ed
Ġpay ing
ĠAmb assador
ĠKer ala
Ġwrit ings
ĠV ict
ĠÃ Ĺ
Ġfe els
Ġcontain ers
ĠArch itect
ĠEss ex
Ġc attle
View port
M il
ĠCroat ian
Ġt ick
rot ation
ĠEV ENT
ist ically
o ct
15 7
ord inary
Ġqu it
Ġt iny
qu ire
Ġfilm ing
Ġaccompany ing
TR ACT
ĠSw ift
Ġpreced ing
ĠC ut
Spr ite
all ing
Cl osure
Ġbank rupt
ĠHamb urg
Ġre normal
Ġsub t
om ed
T ON
b ecause
ular ity
R eb
ĠE cuador
Comp atible
m eter
ĠRevolution ary
TO KEN
Ġ] );
r age
writ eln
Ġphys ic
ãĤ ¹
ĠV ER
ĠTrans form
Ġm ature
ĠA ires
Ġdebut s
Ġanth rop
Ġor chestr
Ġcop per
Ġanalog ous
Ġun set
Ġsp ots
Col ors
Print f
ous ing
Ġhealth care
ĠR uth
ĠL amb
ĠG R
Im p
ĠC inema
ĠLa ura
ans wer
at ta
ĠH ir
Ġover come
Ġdeterm ination
ĠLiber ty
Ġfl avor
j q
ential ly
ordin ator
ĠPal mer
w l
Ġart work
Ġexec ut
CLU DE
l ar
sim ilar
Ġcle ared
re try
ĠF lying
rece ived
Ġl ens
oid al
k ern
Ġprofession als
eg ral
ĠWrit ing
T ake
ĠCom plete
ĠCo ach
aur us
ĠAss ume
Ġ" {
ĠSet up
ĠRe ed
Ġconstr ained
/ ******/
w al
w yn
ĠMethod ist
Ġm amm
Ġun ions
Ġintegr ity
Ġz ones
ĠH amm
inst ances
Ġintr insic
ĠW ARNING
18 20
F ault
Res olution
Ġsoci eties
sub title
ĠIndones ian
inherit Doc
is co
Ġvol atile
ĠV illa
um ann
Ġsh ops
à ®
Writ able
Block ly
Ġke eps
Ġcomp ress
play ers
superv ised
Ġun stable
the ory
Ġloc als
ĠS uss
B AD
æ Ń
ord ination
Ġimplement ing
DEF IN
ve ill
le ave
os opher
iz en
ĠBit coin
ĠThe me
| _
ĠD in
int endo
Ġsusp ension
b ur
Ġr ab
Ġansw ers
im eter
ĠO m
ri o
al in
ĠJ ak
ĠF L
G erm
imb abwe
ĠD S
ĠInt ent
ĠAl t
Ġmon ot
Ġmon astery
ra is
in ia
SE C
Ġabund ance
Ġb ag
15 8
ĠM otion
L iber
ĠSh in
Ġmill ions
Ġaff ine
Ġb er
oy age
Ġtr aces
Ġtransl ations
und ef
ĠCl in
ÏĦ Î¿
Ġv it
Ġbrig ade
Ġf ert
umber land
Ġimplement ations
on ing
ĠCon sequently
Ġfoot er
Ġint ense
J an
Ġed itors
ĠTr ain
ĠSp encer
ĠMark ov
ĠWil helm
Ġal i
ĠRh ode
ĠU nd
ĠFour th
ap a
ill on
raz y
n ov
c id
ĠVlad imir
Ġse aled
Ġplan es
Ġentrepre neur
Ġgard ens
ĠC es
ĠCard inals
Jose ph
sub equations
Ġmys elf
get Parent
Ġsub sets
ĠN u
ĠV II
ĠEn um
ĠLIC ENSE
ul ers
ĠM az
Ġdiv ide
current Time
ĠCom b
OL D
sp ons
}) ^{
res pect
be hav
ist ency
le f
Ġcancell ation
\\\\\\\\\\\\\\\\ \\\\\\\\\\\\\\\\
Content Type
ĠAl pha
FE ATURE
I FI
ĠD aw
Ġel astic
Ġr ice
ff ic
Ġarr ives
aut hent
Ø ¨
bo ys
w oman
Ġown s
no ise
her o
m q
Ġl ights
Ġearthqu ake
ĠAh med
Util ities
B ank
ĠColumb us
Ã °
\' {
ĠAm endment
ĠLuc as
Ġacceler ation
Ġvolunte ers
Ġeigen value
nc y
Ġout door
d eps
Ġre forms
15 3
Ġw elfare
effect ive
Swed ish
is cher
ĠB U
J im
l floor
be havior
and ro
B IN
>{ @
azel cast
border ed
ae us
Spec ific
Ġmain tains
col s
Ġhistor ically
ĠClar ke
ĠA aron
Ġbomb ing
Ġab oard
y ml
"> )</
Qu ick
ĠR unn
Ġp ill
Ġinter sect
Ġtim ing
d ue
atern ion
oc ene
Ġconcentr ated
mid t
unc an
G F
Ġcontin uity
Ġamplit udes
Ġaccommod ate
Ġshel ter
oot ing
ĠPr ague
Ġexplos ion
å ·
ĠB il
ĠWeek ly
ĠTas man
Ġm illiseconds
Ġveter an
} ~\
Ġterm inus
m is
Ġcount ing
Match ers
st ed
30 6
" <
Ġinter active
al ways
Ġann ex
Ġanalyt ical
g al
ig i
Ch rome
ĠOt to
tt ify
CONT ENT
Ġge omet
Ġan ce
Ġfoot age
F atal
Ġres umed
CP P
Ġback ward
Ġfarm ing
sup p
Ġg al
Ġfe es
Exp and
ess ors
Thread s
% ">
c orner
Ġh o
add itional
Ġoptim ize
ĠT uesday
Lou is
Con struction
ĠIs aac
publish er
Ġsp y
Ġvalid ity
ENABLE D
ĠS TD
ib a
-------- -
ĠBlo om
ĠS IL
Install ation
Ġaf ternoon
14 1
ĠG or
ĉĉĉ ĠĠĠ
Ġs ailed
h im
Ġarg ues
Ġfle w
Col on
cor respond
N s
M W
ĠPlay ers
ĠStock holm
Ġt ension
us ive
Ġlaw suit
veill ance
b eck
ĠM usical
Com bo
ĠMET H
Ġillustr ate
Lin ux
ĠIraq i
m ixed
Get Type
ĠChar acter
ĠIda ho
ĠM oney
ĠW orth
In stant
ĠSh op
M gr
ĠNorth west
Ġb is
ĠD R
Ġth umb
}} ,\
B LE
Ġo ps
ose velt
N ORMAL
15 9
Ġnull able
vers ation
Ġadministr ator
Ind ividual
ert y
Ġch iral
Ġformat ted
ĠChe ster
ĠI o
ĠD y
Ġbound ing
Ge V
he ll
le z
k al
ĠMar io
Ġconstitu encies
ĠP ush
ĠW inn
ĠInd ies
Ġhealth y
tw ig
ipher al
Ġcontrad iction
âĢ ĺ
ON Y
ĠAn imation
mention ed
& &\
Mod ern
Ġb achelor
ĠPol itics
ĠF iles
Pos itive
Ġ[ `
ĠSw an
Ġbl ues
Ġgold en
ĠS L
Ġnormal ize
åľ ¨
S ens
in crement
Ġco ffee
keyword s
real m
F ort
ĠTib et
Pack ages
Ġun likely
Ġl as
"> @
List View
ĠDur ham
power ed
ĠJ ung
So ft
Ġsust ained
ou x
CT RL
UL AR
Depend encies
n ell
ĠV k
ĠSom erset
Ġtraject ories
yl um
Ġf ol
Ġqu as
j in
ĠS old
ath i
ark er
ĠE mb
ph ot
ĠPh ysical
2 130
it les
art et
é ¡
ĠN ancy
DE C
MPL ATE
r n
US A
Ġport folio
Ġ Âł
inherit doc
") ).
Vis it
b ay
ĠB ened
Ġpoint ing
ĠSk ip
Ġf ires
Ġaff air
ĠEm pty
d g
Ġa u
ĠRe ich
2 32
Ġis omorphic
Ex ist
ĠR at
REQ UI
ĠJac ques
N EXT
_{ [
ond e
Ġn ephe
ĠR af
Ġpian ist
St amp
Ġinduct ed
J ud
Y P
Ġtr ump
Ġk inetic
ab ar
str ategy
Ġlearn s
bro ok
ĠM ine
Ġfor get
Ġreflect s
ad ier
Ġr pc
ĠRon ald
x f
18 37
land o
Config ure
ĠTom my
S izes
ĠUs age
Ġcollect or
ĠTri ple
work ing
âĶĢ âĶĢ
re load
Ġv ault
Ġfilter ing
ĠD anny
getElementsBy TagName
j as
;\ ;
Ġstr ain
ĠB ent
Ġdistinct ive
Z Z
Ġ[] *
rupted Exception
ĠOriginal ly
Ġsi ege
ĠUg anda
ing o
ĠPer iod
Tool tip
Ġprotocol s
not in
ĠSh ir
s sh
to o
ĠLeg ion
Ġalt itude
s ix
Ġconf usion
Ch ina
Ġcon vey
&= &\
Ġlimit ing
ĠLeg al
Ġv ow
for um
ĠSc ar
c yc
art a
Ġ( .
ĠH im
Ġun incorporated
Un incorporated
ĠF oster
ĠE instein
eb ook
Ġinn ovation
Attr s
ĠPer th
Ġg host
ĠR iemann
ĠK or
eg ovina
Ag da
Component Model
ĠG ene
ams ung
. ')
Ġdis joint
ĠH ave
( |
ĠE ight
18 38
child node
Ġjoint ly
Ġe at
ir q
ĠGab riel
Ġcollabor ated
OUT PUT
il ian
Ġco at
Mix in
IN LINE
Ġexpect ations
ĠDivis iÃ³n
ĠS ed
18 39
Ġinh ab
j ud
Con nections
ĠByzant ine
Ġc ave
ĠY uk
Ġmer ch
Ġexam ination
Ġem er
IL L
n able
TR ACE
================ ========
Ġround ed
c url
ĠR aid
Ġab sol
AA AA
) <
Ġtim ber
i ast
In spector
12 34
uc le
ĠÂ §
Ġful fill
ag le
Ġimm igr
ĠMig uel
TO P
Ġprevent ed
ĠSpe aker
Ġl n
Ġbe an
Ġin cl
sub stack
ĠT ypes
LE AN
Bo ard
ĠDist inguished
ĠS part
Att ach
Ġdescri ptions
ĠQu estion
ĠRem ote
ĠGrand e
ĠU ri
ff bb
Action Bar
t odo
direct ive
Ġamb assador
Ġpione er
g ency
ap ing
Fl ush
ĠW R
Ġl azy
22 2
Ġc ow
ov anni
ĠZ ero
gen re
ec a
LOC ATION
ç½ ®
s uffix
Ġadvoc ate
e u
assert That
er ie
14 2
Ġa ws
18 41
B ay
Ð½ Ð¾
Ġmidfield er
Ġag rees
aaaa aaaa
Ġpil ots
"> {{
Ġun w
Ġins ight
ĠSp ark
open hagen
fold ing
Ġa ster
ĠB inary
Sm art
c ern
ĠS urre
ĠIn fo
g ary
Ġg ent
SER VICE
ious ly
sh i
t pl
Col umb
ĠFrame work
C AL
Ġm ild
Ad apters
Ġep id
Ġswitch ing
Ġdog s
Ġc odec
by ter
ĠBu enos
Ġinit i
ĠArmen ia
n f
red is
Ġstop ping
n ets
] "
Ġcomple tes
* (
ec ca
Min imum
ath a
ok i
max imum
ĠDom ain
ĠKaz akh
P ull
| =
aw ait
}{* }{
ĠAct ivity
zh ou
ĠBro s
ATTR IBUTE
Ġfacilit ate
U tility
ĠJust in
Ġmem oir
ext ended
on er
Ġmem or
ĠF lem
Ġre lies
Ġv in
sql ite
c ue
ĠCh an
$ ^{
H H
Ġelev ated
ĠD as
r ice
el ing
Ġpsych ology
/ ,
Comp ilation
l bl
Ġf Ã¼r
Ġhelp ful
L ie
m v
ĠM end
ĠK as
Ġdepart ed
Ġrh ythm
P AGE
g ateway
Ġprom ising
r ust
ur bed
lic h
Ġbas in
Ð¾Ð ³
}} ;
Ġco herent
Ġfile Name
ĠIn s
Ġathlet ics
Ġrem ix
SH OT
S pl
ĠS ul
Sl ider
Î ®
Ġ nd
m ith
rece ive
eg an
param ref
Des erial
Wh y
Ġconf used
Ġdro ve
repe ated
ĠGener ation
Ġover w
Ġplot ted
ĠI de
l ov
ht m
× ľ
um m
ink s
ah a
J ean
single ton
st ead
20 5
re vision
Ä Ĺ
Ġal ien
ĠCh ern
ĠHash Set
ĠJama ica
Ġst olen
Ġby pass
Ġch apters
ĠE g
15 6
Ġremark able
) }$,
Ġcor rupt
ĠS yl
he ap
ĠCo hen
ĠL it
da o
B uffers
Ġ<!-- [
Ġemp ire
atin um
Ġres ize
State Exception
sk in
ĠKr ish
Ġtrav ers
ĠT odd
Ġgr ain
=' #
l iter
Qu ota
mid i
Ġw ars
Ġh int
ĠIn stitution
umb ai
Ra ises
Ġelim inate
pre ter
ME TA
ĠType Error
L es
Ġlog ged
T s
ĠW rap
type Name
Ġlist ings
ach ers
col span
U kr
ist le
"> .</
Ex pl
ER Y
Call able
D ays
Y ES
S us
ĠO wen
Ġminim ize
m ne
Ġdiff ers
ĠPy Object
Ass oci
^ (
am ine
ash ire
Ġsqu ares
ĠS ter
Ġscreen play
orph ism
d eleted
ĠHel per
Ġc iting
Ġqual ification
che m
parent s
Ġcart oon
ĠR an
gr and
Ġcosm ological
es se
to k
} ")
li qu
Ġch at
Ġb atter
ut sche
ĠH AL
"> :
illa ume
alt ies
ĠDet ails
Ġtour ist
ĠR uby
j p
he nd
ï¼ ļ
h art
Ġover head
Ġp atri
ĠK ate
Ġinterpol ation
c ritical
ph ib
ĠV il
depend s
Ġdecre ased
Ġas h
ĠCl a
Ġo prot
Ġw er
Ġcollect ing
ĠPrinc eton
ĠF ul
Ġpers istent
ĠCy prus
ĠT all
Ġl akes
ĠR ams
ĠFr anz
ch r
ac ements
Ġup dating
Ġper pet
EMP TY
ere k
est a
18 42
Ġt issue
ĠL isa
ĠObject s
Ð¾Ð º
n at
Ġattack ing
Ġstri king
CONT RO
Ġconduct ing
Ġon Click
ro uting
Ġgu itars
ari us
Ġs weet
Ġdeg rad
Ġharmon ic
St and
18 12
ĠKn own
Ġover lay
l ived
Ï ī
Ġprov es
class v
Ġ" ...
ĠEx ternal
R oad
un til
bound ary
nt z
N AL
g rey
Ġ' [
. (\
G reek
G esture
M igration
ĠPan ama
Sin ergi
Ġd uplic
Ġacc ret
n v
Ñ ī
}) =\
Ġancest or
est rian
ĠAng els
B attle
ĠS eq
Ġpsych ological
æį ®
Ġ ):
ĠH ale
m ons
Ġun used
Ġto ll
Ad just
El se
Ġconsider ably
Get Value
ĠPr ison
K B
p ure
j vm
ex e
Ġcapt ion
Ġf reed
ĠL or
Ġab olished
Ġprogram mes
ĠIn sert
ĠĠĠĠĠĠĠĠĠĠĠĠĠĠĠĠĠĠĠĠĠĠĠĠĠĠĠĠĠĠĠĠ ĠĠĠĠĠĠĠĠĠĠĠĠĠĠĠĠ
> *
ĠPar ser
has Next
ĠVis it
ĠPrinc ipal
For Key
Ġre bell
ĠL LC
google ads
Cal c
Ġident ifies
ĠI Enumerable
ĠCon trib
ĠC ord
av g
cap acity
found er
PHP Excel
W P
N ever
å ¾
Ġim per
Ġprepar ing
Ġalleg ations
Ġpredominant ly
AR GS
ĠEx cell
Ġsk etch
B on
ĠF iction
Ġperman ently
Ġcompens ation
we ights
Ġperson ally
ĠDes ert
- %
ator ies
2 17
ĠPl anning
ĠCom edy
ĠBr as
Ġexam ined
Ġsh ots
match er
Ġadvert is
S NAP
| _{\
Ð° ÑĢ
ĠStr ong
CL UD
Ġreserv es
ot hes
the y
ĠE sc
ĠSh ape
v dots
Sh utdown
ĠF BI
Ġunder graduate
Ap J
ĠPear l
Ġb ary
} <
38 4
Ass ume
Ġex terior
Ġcontext s
Ġhost ing
LOB AL
ph ant
Ġpri ests
ĠRo osevelt
Ġjud icial
Ġp c
ĠB ears
Ġi OS
ĠS olar
ha o
it he
Ġl y
CLUD ING
Q T
ĠR ac
Ġauthor ization
Ġdiss olved
activ ated
man u
em bourg
az ard
Ġsimpl ified
f ixture
Ġun em
her its
p ix
ĠT ensor
ĠDir ac
L iter
r idden
ĠMathemat ics
AB C
Ġconvinc ed
ĠK re
work space
[ @
Ġhand ed
ĠJohann es
L IMIT
Ġg ateway
Ġ' --
q s
Th umb
Pro blem
Al location
di ag
Ġsaf ely
bol ic
Ġalter ed
Ġir regular
á ¸
tem perature
ĠFa ith
ĠEu clidean
ĠUtil s
hab ilit
I ts
Ġnumber ed
am med
set Name
sl ides
Pol ish
s ess
× ¨
ĠModel s
ĠPun jab
Ġd uplicate
r te
Ġres iding
Ġdrink ing
dis c
Ġbo ards
ĠSuss ex
found ed
Ġcelebr ate
Ġcivil ians
ĠCOP Y
Com ments
gener ation
S el
od ic
ĠDis covery
Ġdig its
ac i
ĠA ur
cess ion
Polit icians
EN S
ah oo
f ork
Ġreleg ated
" ):
Type Def
ĠCon v
Ġhe ating
e er
Heading Color
ĠF ed
ĠN om
pl ating
ro us
Ġh ooks
æĹ ¶
y our
Ġex tern
UL K
D N
tensor flow
IT S
unt ary
COMM AND
Ġvulner able
Ġf ade
d ifferent
st y
ĠL oss
Ġgrad es
anim ous
ern ess
ĠR ice
ĠM TV
my Item
rec ip
) ");
ig g
Art icles
ll er
ĠG ren
ĠComp etition
Ĺ ãģ
Ġcan al
Ġphil anth
Ġ= =====
ĠC ONT
ĠUr ugu
Ġten ant
Ġre fr
Ã© m
Ġb uses
Rec all
Pub Key
Ġtele phone
ull ah
ĠHar per
' ></
in el
ĠL ak
ĠK ra
ĠS of
ÑĨ Ð¸
enti eth
s elling
man ual
Ġarchae ological
Ġcor related
thumb nail
im on
log s
NE SS
Ġchalleng ed
Ġp ow
Ġpre view
ĠNott ingham
r p
Ġs ung
Ġh ills
Ġefficient ly
ĠShe ffield
Ġeditor ial
ĠÎ ±
uis ine
small skip
Ġcloud s
get User
Ġcelebr ation
Ã¨ s
Ġre plic
up iter
18 32
Ġ[ &
if ted
Ġg em
ĠViet namese
'] [
Ġl ig
ĠP att
ĠPr act
Can ada
mock ito
Ġmot ivated
Ġg rap
40 3
ĠG host
Ġm oll
ĠV eter
RE C
Ġinfin ity
bor o
i ago
Ġc rop
per formance
aw ks
es ch
man uel
Ġshif ts
ĠVari able
Ġphenomen a
add y
ĠHerz egovina
im mer
ĠP ART
Ġbuild s
K O
Call ing
1 200
ah u
T IM
Ġen abling
Ġtrav els
Ġo d
ĠC ounter
iv ariate
ST AR
con sum
? ,
ĠCheck s
ĠF at
Ġfail ures
. {
Ġpro position
stan bul
Ġmidfield ers
Ġjo ins
y ang
ĠCard inal
ĠMaur ice
ap on
Ġpro l
Ġdist urb
Ġch ronic
Ġ` --
Cred ential
ĠE asy
TE X
Ġproject ive
( ',
id y
e ctions
ĠM idd
Ġun safe
ĠST AT
Ġr ifle
Ġreal ize
M i
ĠS plit
G i
CAC HE
Ġver se
W ell
S ensor
18 43
Ġj ail
Ġwar fare
Comp ile
Ġphot ons
con sumer
ĠSalv ador
\| ^
all a
Bal ancer
Ġvo ices
Cover age
A RE
j dbc
ex per
18 36
con tr
Ind ia
acef ul
Ġdis placement
Ġinvestig ations
Tim eline
Non User
Ġsuperv ised
a qu
ĠR ES
Ġsuff er
Ġachiev ement
Ġe u
ore ms
M otion
Ġche ss
op r
ĠH ass
m or
Ġrecommend ations
ĠG ol
ĠTrans it
ter bury
N an
Ġs cre
Ġcitizens hip
Aggreg ate
Ġhouse holder
scal atest
2 12
m otion
Ġintro duces
ĠTH IS
k el
Ġdem ocratic
ĠEll is
ack ing
ang ered
Ġtor ped
ĠM s
ĠL iv
ath y
Ġin complete
Ġh ang
ĠK umar
Ġflex ible
Ġlight ing
Ġtrans mitted
ĠWest minster
ĠO ber
B IND
Ġw orn
O VER
Ġl p
ĠG amb
= _
ĠP om
ĠO z
Icon Success
Ex pressions
p es
leq slant
ĠMan it
Ġnovel ists
O O
am ination
ĠWild life
cl osing
it on
Ap ache
Ġev t
Ġband width
ĠEq s
Ġalleged ly
Ġacknowled ged
Con serv
im ited
Ġ* **
Ġfollow ers
ĠM ouse
Bound ary
F W
ch ars
ĠMarc us
ĠL ac
Spec ify
ĠGu id
16 7
Ġlob by
0 200
est im
Ġaccept ance
Ġcon jecture
be am
Ã ®
Å ¿
Ġprom ised
Ġconstant ly
Ġsus pected
ret ty
add All
Ġquot ient
ĠH alf
P et
ĠH ur
ev o
ĠBu ilt
Debugger NonUser
16 3
Serial ized
Ġcomm enced
EX P
Ġimprison ed
Code Dom
Ġh i
GL enum
S dk
Ġfor ty
end ors
Prot ected
x a
Ġcamer as
l os
ĠMal ta
an imated
im ag
cal cul
Ġoptim ized
G al
Ġquarter back
Ġnew er
Ġparam et
Ġsub mission
B a
Ġtr ap
ĠSask atchewan
F old
18 35
Å ¼
rec ogn
ĠPlan et
Ġs creens
ĠEx ped
Ġadminister ed
Ġcaref ully
Ġfore cast
W IDTH
cha ft
S to
ĠTr avel
r in
ĠInitial ly
ĠValid ation
isc opal
CO RE
det ect
ĠIn spector
)} _{\
b usiness
Ġch ip
mem item
Ġdemonstr ates
ĠMoroc co
A cknowledg
oc hem
Ġfr act
Ġthick ness
wiki Name
ĠProv incial
Ġ Ñĥ
Compar ator
~~~~~~~~ ~~~~~~~~
M u
ĠCap itol
ĠFerm i
w y
Ġob sc
Ġfif ty
ĠWood s
MA IL
A mazon
ĠD IS
Ġ} }</
Ġbel t
Ġge odes
Ġgu idelines
render ing
u pe
Ġt enth
Ġa uction
ĠC ou
ĠP OST
Sample s
L ee
ĠMil waukee
C itations
H AL
ĠGL int
Ġacadem y
ist o
Ġsup pressed
8 75
node Type
ĠS ullivan
eh icle
Ġfoss il
ä ¼
Ġglob ally
Ġh istogram
IC K
ĠNav igation
ĠAbd ul
20 6
Ġdeterm inistic
cr im
be ing
au f
contain ers
ĠI ssue
ĠE M
RO WS
ĠÃ ĸ
ast ics
spe aking
Ġun clear
ĠY et
ĠCont act
ĠT C
ĠG Ã¶
at an
Ġair line
ern er
Ġax es
perm issions
') [
Am ong
Ġalloc ate
> {{
ph on
Ġh opes
ĠM Ã©
ist on
ĠG ir
ĠE state
ast ed
ĠCh oice
ee per
PO SE
Ġcasual ties
Ġaut onomous
FIL TER
C ENTER
ical s
IC AL
al an
È Ľ
aw i
}) _{
Ġanom al
Ġh aven
We ak
Ġwebs ites
p ause
)) :
ĠS uff
Ġ\ #
Ġrepro duce
D to
ĠP anel
17 6
Ġstud ios
Ġcho ir
Ġtang ent
am as
ic ia
ĠS weet
iz ar
Ġgram mar
be k
con j
AT IVE
em in
m eth
Broad cast
ch ief
Ġsh aped
ĠVol unte
ç ī
vari ants
be it
At Index
iline ar
Ġinst ability
ĠBr ussels
Ġc f
Ġcon clusions
:: _
Ġobject ives
ĠM old
ol ics
Table Name
50 1
ĠFranc o
ene ath
D ead
pro ducer
Char acters
sh ops
MO VE
ro utes
ĠS EC
ĠU UID
und ant
ĠCorn wall
L ANG
ĠA SC
Pl ane
s ensitive
ĠP ul
Ġdist ant
Ġinstit ute
l v
pr ised
Text Box
Ġtrend s
Ġor bits
ĠNAT O
Ġgrand son
R oles
Ġpr ince
mu x
"> =</
arri or
ke es
Ġlimit ation
ĠLeg islature
es lint
ĠS tra
ĠG lass
ĠCa uc
Ġterm inated
aff e
F ellow
ĠN L
Ġgu ards
ĠGard ens
ell ers
ĠB S
St roke
ĠHer ald
Ġ$\ |
Ġdef ender
m pi
Ġreg isters
ou ched
Job s
ĠC openhagen
Ġnom inal
G reat
node Name
CK S
Ġselect ing
Ġadapt ive
aj i
Ġext inct
ĠC yr
av o
Ġaut ore
\ .
cite alt
IconSuccess Encoded
ĠLine ar
ble ms
ĠChar ter
Ġachiev ements
] ],
b az
Ġaccount ing
d up
Ġb ell
ĠCub an
Tr ust
Ġpl ural
EQ UAL
({ },
Ġsearch Box
Ġaccept able
ĠPak istani
ĠN umer
in ja
R D
Ġb rew
ĠPar ad
20 9
ĠAR M
Ġc v
omb re
Assert ion
parse Int
Ġip ut
Ġp kg
Ġm eg
Ġshe ar
Ġc am
ethe less
in ions
ĠF ake
Ġimpress ive
M ixed
ĠAl loc
d ashed
ĠN R
Ġlocal ization
n is
im od
Ġarchitect s
sat isf
ĠMan ila
Ġh ull
Ġachiev ing
t el
Ġch rome
ĠShort ly
Ġas ide
Ġattract ive
bat im
) |\
ĠCamp us
ĠFellow ship
work flow
Ġcontr ary
c ats
ul ous
Ġsustain able
ed ed
ĠCom ple
& $
P rem
ĠT D
ĠA post
it ic
ĠWork ing
ĠBudd h
F ish
Ġl ots
ĠO g
ref s
Ġret reat
R ol
rib utions
comp atibility
adem ark
char At
Ġuniqu ely
N ay
' }\
Ġdiv orce
ĠMon o
m ile
h h
s chool
id ays
nol imits
Ġaccret ion
Ġm oon
mall oc
Ġfound ers
DE CL
ĠGe off
ĠSp ider
mont on
Ġst reak
Ġback ed
ĠG NU
Grad ient
x t
ber y
Ġhe ap
N atural
F ollow
Dem ocratic
Ï Į
18 2
al con
author ized
ĠH og
ĠF ut
sp lice
if ice
Ġconst expr
With in
Cal cul
ĠAndrew s
W W
are ncy
P N
Ġcomment ary
Ð ¡
ĠB od
}} )$
Ġboot strap
Ġch ore
ĠMETH OD
% ),
Ġbar rel
Ġphil osopher
I ce
ĠEvent ually
ĠRe ader
Ġre un
Ġsens ors
] ):
Non null
z el
ĠP ir
ours es
ĠNot ice
ol in
V ersions
int endent
64 0
Ġs q
et ched
ĠL arge
ĠL akes
ib lical
ĠJul ia
te k
ĠPet e
Ġan alyst
As ian
ĠHop kins
text up
ĠTh ings
Ġimag inary
s it
ik ing
do ct
' $.
Ġn umpy
+ '
+ -
Ġorient ed
Ġvocal ist
s olution
ĠW ald
lev ard
Ġcontin uation
++ ]
luc ene
Ġcompr ising
Ġbehavi ors
ĠCommunic ation
Ġrevolution ary
Ġgrad uation
ĠU ntil
Ġan isot
- "
ĠHol mes
ĠOak land
ar v
Ġdes erial
Brazil ian
ats u
> ")
ir able
ĠEx hibition
Arch itecture
x FF
ĠUn ity
D eg
16 1
ĠDav ies
ĠR ut
SC HE
Dan iel
\ +
Tr im
ĠC I
Ġdr ain
ĠR ib
Ã ²
ĠArray s
cos ystem
ĠUn known
ĠB UT
Ġtack le
Ġy ard
36 5
ĠAl ert
ä¸ º
ĠE lection
Ġsc andal
Ġ'/ '
pro duced
ĠLe ic
j ournal
Ġc ouncill
filter ed
iff e
Ġweak ly
] /
ten ess
sen al
ĠLanc ashire
Ġrecon c
Ġsport ing
Ġtribut ary
d og
ellig ent
Ġtr ailing
ĠPo etry
n or
Ġsever ely
ãĤ ĭ
ĠRE ST
Ġcont rolling
ĠBl ake
Ð¾ Ð½
ĠDomin ican
ĠB elf
Ġint ens
F ixtures
FUN C
sh ore
Ġpract ition
Ġanalys es
ĠEx pr
ĠReyn olds
r ss
as ures
av ian
im ony
ape st
Ph ot
ĠInter est
on aut
n st
ĠU TF
Eval uation
re comm
ĠH us
Pop ulation
E scape
Ġb ull
col one
P ak
Ġref id
if a
Data Set
Sim ilarly
Ġg ains
Ġmyst ery
ãĥ Ī
qual ified
Ġim plications
W ashington
ĠN as
ĠDi agnostic
hom epage
un wrap
Ġd atabases
Ġun changed
reg istration
PR INT
Ġsudden ly
ĠR overs
roll ment
Ġcor ps
STRE AM
eval uate
Ġc ant
Ġport al
ĠGu ards
aver age
ut ility
Ġbi ology
D eleted
L ex
Ġfriend ship
Ġcol ours
ard i
Ġpl ates
^+ $
Ġindex ed
Ġv ital
oid es
AL LOW
manu fact
opt imal
K ER
Ġo m
ever y
---------------------------------------------------------------- ----------
Ġad option
Ġmode led
Ġwid ow
Ġfeas ible
& -
Doc uments
Ġ{ :
Ġdisband ed
le arn
ĠF olk
nd ez
ĠGen eva
et erm
min i
mark down
et ches
Ġwork space
ps y
ĉ ĠĊ
ĠNiger ian
Ġpack ets
are l
INTER NAL
W all
assert Raises
67 8
ĠPow ell
l azy
Ġre write
govern ment
Ġs iblings
ĠRail ways
autore f
anc a
eck o
YY YY
ĠA ub
Ġle ase
S IG
Ġrev ival
ĠG y
Ġy es
ĠNob el
S on
pred icate
Ġdraw s
ĠForm ation
Ġcos mic
ass o
Ġph osph
ĠJ unction
}} =\
FO UND
lic es
Ġd ock
ĠM BA
ĠQ CD
m ud
Ġstruct ured
arri ers
Ġbox ing
Ġcro ps
Ġexecut ives
Ġp ng
ĠPark s
t ier
in ance
ĠN ine
Ġsql ite
Ġrec ursive
Ġinnov ative
Ġevent ual
6 55
C ut
ĠA pol
exec utor
J ournal
ĠExec ute
P B
R X
ME DI
80 80
Ġkid n
ĠW inds
Ġaggreg ation
F red
ĠA chiev
Ġth rew
Ġdem anded
Fl ash
at is
at trib
Ġliter ally
get Path
Ġconc aten
Ġque en
Ġsurvey s
SNAP SHOT
ĠT ir
pro logue
COL UMN
P ipe
sort ed
ĳ ¼
en h
ĠSl av
DIS ABLE
H o
Ġknow ing
ĠCour se
Di agnostic
collection s
Ġc hest
Ġaccur ately
ren ew
ĠSV G
ĠG alaxy
}^{ +
Ġcap ita
ĠCr us
Ġsurviv ors
f u
- }
iz ens
eff ects
Ġcoll isions
ĠGram my
Ġdrop down
so ftware
set Property
ĠRichard son
initial ized
Ġbreed ing
3 30
d ns
ĠC rist
Ġrefer endum
dig est
D am
ĠW idget
Ġins cription
/ :
In ventory
prot ect
ĠArch ae
Ġwat ched
ar is
ĠC V
c fc
c riteria
F LOW
L int
ĠG and
Dir ty
Ġel ite
prov iders
Ġbe er
n Ã©e
ĠAl bums
B attery
s al
ĠDr iver
Ġresearch er
17 2
17 8
Ġflow er
Ġb read
ĠA my
Ġ* =
Ar thur
ten ant
ĠX X
Ġvirt ually
Ġm im
break ing
insert ion
P aired
Ġatt itude
/ ************************************************************************
ab olic
Ú ©
ĠPh oto
ĠHind i
ĠExec ution
In crement
l ighter
dr ive
look ing
c ro
ple d
Ġb onds
Instance State
Ġless ons
perm alink
Ġfl our
Ġ{ !
ĠTw enty
Ð¸ Ñģ
Ġs z
Ġfru str
Ġp ap
Ġindex es
M ULT
ĠCon cert
Ġhon est
Ù ģ
Ġaud iences
sh utdown
ĠEm ma
sw orth
Ġrecru ited
P ier
Ġs printf
Inter faces
ĠGit Hub
r floor
ĠR ush
Ġun a
inem atic
com puter
fore ign
transp arent
ĠS it
Ġguarant ees
Ġp itched
Ġl ac
Ġsup ern
Ġvo iced
Ġblock ing
prov ided
ĠM ull
ĠG PU
Ġfall en
Ġattr action
:: ~
Ġtherm odynam
ĠAgain st
Ġvolunte er
ĠEd mund
Un expected
Ġun n
Ġl un
ifest yle
Ġded uce
ĠCall back
Ġpun ishment
ĠP on
arn ess
ĠG ael
; :
Web View
ĠD ob
Ch ief
oy a
Ġconform al
in ar
Ġst ick
ĠGl ou
T CP
ĠIs le
A MS
ĠG othic
Ġcolon ies
Ġp unk
r ically
ĠC MD
Ġcontact s
ĠM umbai
ĠD uncan
Pol itics
ĠThrow able
Ġnephe w
é Ĺ
Ġutil ized
aut om
ĠId entity
ĠP orter
j er
Ġf ed
Ġmain land
Hash Code
is EqualTo
ĠK arn
Ġcheck point
ĠBa iley
Ġpsy chiat
Ġed u
cell s
F s
ĉĉĉ Ġ
B g
size i
ĠEnter prise
ĠB iography
Ġ"\ "
Ġstr ange
S yn
Ġcommun icate
Ġvic inity
Ġscatter ed
U IT
ter rit
b road
Ġexceed s
R ele
ol ith
sub division
Render ing
h in
requ ires
5 50
Ġnon zero
sh im
\, {\
ĠA GN
ĠD ynamic
") ),
art en
ur istic
Ġnot iced
ĠAut om
Ġtra its
r ases
n ai
å Ģ
Ġb uffers
ĠGL enum
sur ance
ĠSpec ifies
ĠBrook s
Ġsculpt or
æ ģ
Ġc avalry
Ġterr ain
ĠH AVE
b is
ĠT iger
Athlet es
Ġ" __
M AT
ĠC LI
Port ug
Â »
Sim ilar
Ã± o
ĠAdvis ory
Ġderiv ation
la us
ĠHe ights
t oday
Ġpresent er
Q R
ow l
ver gence
RE SOURCE
Out er
ĠKenn eth
Ġment ions
ĠS qu
le ad
ĠB io
ĠPh one
ĠTest ament
ĠStr ateg
FAIL URE
Ġcontrad ict
din and
ak ef
Ġpol ling
ĠM ales
Ġbus y
val s
Ġend points
Ġrenew ed
23 4
ĠMet al
Ignore Case
Request ed
Ġsuper conduct
Ġcyl inder
Ġabsol utely
ab lo
um bo
Ġremember ed
Not ice
\ ",
s ynt
Mod ify
kin son
h skip
Ġsubstant ially
Com puted
x rightarrow
Ġscreen ing
Ġathlet ic
ĠBrad ley
Exception s
I CT
M unic
ĠC IA
ĠA DD
Ġas p
Base ball
Initial izer
e o
Inter op
Ġbank ing
ET A
I EEE
ĠUs ers
ĠLithuan ia
em o
Ġfe ud
rece iver
Ġw elcome
ĠAc cept
ch air
Histor ic
Ġwarr ant
Ġ ic
An alyzer
30 2
R oll
Ġl ux
ĠF erg
ĠV ern
ĠCond ition
Ġcirc ulation
icy cle
Ġaffili ate
Ġend l
le igh
ĠG lobe
ĠSim pson
\| _{\
p index
Ġg amma
man age
Mart in
AL IGN
28 8
Cho ose
Ġbot an
Ġwork flow
Ġpoor ly
Ġcommun ist
harmon ic
Ġaver aging
ĠT E
od ia
18 34
Ġsuccess ion
Ġ" *
US B
Pro jection
ap plications
ace ut
Ġelse if
Loc ations
="@ {
Ġadjust ed
Cur ve
è ¨
b anner
å ¹
Ġg aining
Str ict
Ġreason ing
M arg
er ance
Ġdr ives
Republic an
ĠL t
r w
in cre
Ġdiv or
ĠG ent
ĠPlay Station
m ans
Ġst eal
Ġr v
Ġpre val
Ġkil ometers
li o
mathbb m
Target s
En ergy
ĠEngine er
Ġpart itions
Ġ ../../
bootstrap cdn
Ġproof s
ĠFinal s
Ġrock et
Second ary
Ġaccompl ished
link col
TH E
ĠCal endar
Char Field
ĠAuth ors
v ation
Ġjust ify
Ġcontrib utor
Ġte eth
Ġproceed ings
ĠA F
ĠĠĠĠĠĠĠĠĠĠĠĠĠĠĠĠ ĠĠĠĠĠĠĠĠĊ
Ġspecial ist
+ $
Ġ[ ])
alloc ate
! ,
Ġx hr
Ġfl ank
r ise
output s
Ġf ame
reg ation
udd y
Ġr ally
ild a
Up dates
Ġrecru it
ĠA bs
Ġmer c
Hash Set
ĠS PI
Ġabsor bed
Or Builder
re start
ord ion
Ġdot ted
Ġcomed ian
ĠD eveloper
Ġind oor
Ġcounter part
Ġj ew
ĠF unc
Al ready
Ġperturb ations
Value Type
ULK AN
ĠH IV
ien ne
G ed
de ployment
Ġpat ches
. }\
Ġor al
itud inal
Ġtheat rical
B all
Ġar ises
Fin ish
asm ine
Ġc oc
ĠA ch
Ġv i
ji ang
E mit
g ie
ac ular
ĠT ennis
Ġwe aken
ad vert
ĠM ask
ĠC B
est one
air y
Ġrele asing
C urrency
Ġun ve
16 00
Ġdesign ers
Tur k
xx x
Des criptors
J av
Ġconfer ences
st retch
6 50
Ġmark ing
y i
el en
16 4
he ther
Ġcon ce
Ġvan ishes
U tf
g ot
Ġin duces
Ġph p
Ġrecon structed
in tr
stud ent
Ġdiver gence
ĠPol l
ĠK om
A st
s yn
get Int
E s
Con stituency
Min or
Ġsuccess ive
P ain
Com puter
Ġhighlight s
PE G
Ġtro ub
ĠZ imbabwe
Ġocc urrence
l ore
it ian
Ġd ancer
Qual ifier
ap ur
Enc ryption
Ġdepict s
A verage
S ar
br ains
ĠH aven
Ġc oding
PRE SS
Ġren owned
v skip
Ġh over
p it
Ġ$ <
Ġget Name
C os
Ġqu ota
ĠGr iff
Ġcount ed
Mut ex
Ġc ryst
mat ched
Ġterror ist
ĠObserv atory
W ho
ab ol
illi an
ĠSign al
Ġgl ac
ì Ŀ
ri ble
à¤ °
p v
\ }}
uk u
45 6
un al
Ġsl avery
ĠLes lie
m essaging
Sh op
@ {}
un stable
or ian
=" .
Ġparticip ant
Ġinvent ory
Ġwav ef
ĠPl ate
ros so
ER O
Ġident ities
VAR I
ĠE S
if ace
Ġview port
ĠN amed
ĠIndian apolis
Ġsuperv ision
Ġserial ize
R ing
AC C
prom pt
ĠK urt
p q
OB J
ug a
LI ED
å ¸
ĠU tt
ject ive
M Q
ĠðŁ ĳ¼
ĠðŁĳ¼ </
Ġ$ $\
ĠB esides
Ġcomp ressed
Ġmin er
Buffer ed
Ġbroadcast s
ak o
Ġsign atures
CCCC FF
Ġburn ing
ĠHe at
Ġc avity
Ġdig est
ĠPro to
Ġrem arks
amp ing
ĠSc out
x si
doc utils
Ġsp ark
hen e
Ġvict ories
oca ust
Ġab c
ass ignment
y on
Ġstr len
col m
av ern
Ġregular ization
====== =
Ġprison er
ro bot
Ġrelax ation
cknow ledge
60 1
26 3
Ġv eloc
Out Of
O l
âĢ ł
Ġdis pers
Ð¾ ÑĤ
any on
Ġbos on
Ġlocomot ive
Ġpotential s
E th
F it
Ġde eper
stad t
ĠL odge
Ġup graded
ĠThrough out
$ "
u ition
Ġa est
st a
as n
Fl at
16 2
ĠApp ly
Ġdeform ation
00 4
user Agent
ĠSol omon
Ġens uring
n othing
00 000
Ġsem antics
D TO
Con trib
Ġexp ired
ĠAll an
ĠG UI
Ġdiplom at
key board
ass igned
it Ã©
Ġpick s
Music ians
ĠF eder
Ġwould n
Bound ing
ĠAr r
LE T
control led
ed uc
Ġsyn onym
EN SION
Ġspac etime
ĠRe id
rid or
ĠCol in
p ark
Ġen force
Ġembedd ings
ĠCr iminal
ĠM ER
**************** ********
Ġpress ed
ĠAssoci ate
s ens
SR C
ĠGer ald
Ġsp ir
Ġintegr als
ĠSant iago
Ġwire less
Ġshould n
M ime
ĠW arriors
18 15
K h
um ble
datab ind
2130 77
d ac
Ġsim pler
miss ible
Ġtouchdown s
ac ies
Ġperform ers
sp ired
ell ation
' )$
Ġsh ield
Ġlink ing
Ġleg isl
ĠGib son
ĠPublic ations
Ġimprison ment
Gener ation
Ġarg c
Build ing
Ġsculpt ures
} ">
Ġfor k
ĠH ook
ĠLett ers
]] ></
Ġl hs
amb a
ĠS election
å Ŀ
to Array
Ġjudg ment
Ġfraction al
Ġhit ting
he imer
class Frame
ĠP ink
Ġte a
equal ities
U X
ĠV iv
Ġun con
æĸ °
ne o
nt on
In herited
IT EM
Ġdev ast
Http Servlet
Ġprox imity
IN TEGER
ĠPre Arg
= (\
[ ^
SET T
At om
el ong
ĠG row
: ",
> ?
ĠOpen SSL
ĠL ayer
omet own
level s
r k
Ġline arly
s ites
Ġt abs
ĠLou ise
ĠStaff ord
ur an
Ġclip board
ĠAh mad
le ston
W ood
ĠI X
Ġconstruct ing
Te X
DI F
V ictor
Ġt ear
Ġt ale
ĠV ec
Pro b
ĠInt el
ĠB ootstrap
Ġbro ader
Ġcr ashed
Res pons
ĠFl ash
Ġisol ation
Ġf ung
Big l
Ġprec ip
Fat alf
M ON
b ibli
Ð¾Ð ±
Ġtemple s
Ġw ore
asc ii
ĠPh ase
Ġthe ad
ep per
ĠNew port
PO M
G lob
ĠM ang
Ġformul as
Ġund ers
ri ans
ĠÐ °
ic ers
Ġtransl ator
åĲ į
er ious
Ġrem n
Ð» Ð¸
o que
Ġpres ervation
6666 66
Ġgroup ed
As String
ĠOr d
Ġread ily
ĠEm ily
c rc
Ġre dis
ĠMax well
Ġbeat en
utt le
> ".
b ill
Ġview ing
res olver
Ġcul min
Î ¬
ĠGu ang
N B
an mar
E t
Nov els
v oc
Ġmur ders
Ġb ats
ĠF eb
Z END
Prop agation
colone qq
Rest ore
up grade
ograph ers
ĠLore n
>: <
Ġhon ours
es ar
Sh ard
Ex act
H W
H op
Ġvacc ine
æ Ģ
ĠL ub
Ġl ung
ĠD ow
G ram
ĠWy oming
M ic
ĠHe aven
23 5
Ġexha ust
h ooks
v oice
ĠCzech oslov
up pet
map reduce
d evelopment
re pos
Ġinvent ed
act ing
ĠAn a
ĠCan terbury
ck er
h ra
Ġrel atives
CharacterOffset End
CharacterOffset Begin
ĠFrank furt
Ġdiscontin ued
Ġb arr
Ġbe ars
Ġd os
byter ian
en za
Ġb alls
ey n
Ġacc red
Ġoverw hel
ĠS ources
x hr
ob il
ED IT
Ġap ple
Ġsymbol ic
List en
Mar shaller
activ ation
ar u
Ġf ate
ĠT S
Bel g
ĠParalymp ics
Ġassert False
ĠWik ipedia
ĠKing ston
enz ie
Ġ ------------------------------------------------
al ong
L azy
ĠExped ition
valid ators
C OR
Ġneighbour ing
P ot
f h
> ");
G s
ĠD WORD
pl oma
Ġb ubble
ĠMar in
Ġsec ular
... ]
Xml Element
Ġconsum ed
LA ST
Ġfre ight
Y ea
g id
Rem oved
lev ant
ĠProp Types
Ġincor porate
Ġde ce
Q Name
Ġ' *
18 33
Ġtoler ance
ĠN ortheast
Ġ' ;
Ġmem brane
= -\
IN X
Ġadvant ages
ĠF ail
Ġan ch
ym ore
che ss
Ġab elian
Ġunder go
Nor thern
Ġco ached
Und efined
Ð° Ðº
Pos itions
Ġnumer ically
hom ology
ĠC lement
ACT IVE
ĠF oo
Con sum
ĠB irth
art icles
with in
IS H
Ġball ot
iffer ential
put es
Ġfall back
em ption
war z
ĠConst ants
ĠN intendo
ĠBey ond
Ġneur ons
Camp aign
Ġd ancing
v iv
am on
Repe at
D ocker
Ġdifferent ly
/ ?
H ierarchy
ĠM IN
Ġpron ounced
Ġrebell ion
ĠManit oba
G D
Ġsub scri
ess el
ĠMont en
ĠR even
ĠD um
Ġconn ector
l Ã©
Ġsett le
is ible
sp y
Ġgr ab
ĠInd igenous
ap pe
ĠL omb
A x
ore l
yd ra
To Array
Ġiter ate
er ia
\, .
ĠR ules
Ġs cheduler
Ġex iting
at ics
if les
ĠK oh
sh ader
Work flow
ĠMor r
ĠĠĠĠĠĠĠĠĠĠĠĠĠĠĠĠĠĠĠĠĠĠĠĠĠĠĠĠĠĠĠĠ ĠĠĠĠĠĠĠĠĠĠĠĠĠĠĠĠĠ
bl ur
C as
is le
enc rypted
Ġc anceled
pro per
ograph ies
ĠEston ia
f re
ĠE ve
form al
L os
Ġs word
Ġdirect ories
rott le
proport ion
ĠR ele
ĠCh ase
clean up
ĠRol ling
ĠF ifth
Ġtr act
ĠT ampa
æ Į
ĠDefault s
} &\
St an
ĠAr ctic
Spe aker
ĠGu illaume
land ers
17 7
yl an
h on
Ġt ent
Ġcor por
ĠRem ark
Ġmyth ology
Recorded Vote
ĠĠĠĠĠĠĠĠ ĠĊ
ĉĉĉĉĉĉĉĉ ĉĉĉĉĉ
unit test
ĠPop ular
Ġcyl ind
ĠCelt ic
cal culate
Ġd ans
Ġk ills
ĠH ait
ĠT LS
Ġtack les
Ġb out
Ġnational ly
ul ators
Ġdisc overs
Ġimpact s
Ġentang lement
17 1
Ġcur riculum
ĠClass ical
BO X
port let
ĠChe ss
S IL
sc apes
New ton
i w
S leep
Ġcon spiracy
ash tra
ãĢ ģ
Ġdec ays
ĠBurn s
Out come
Mar shal
åĬ ł
Ġaccompl ish
Ġs ad
Ind ent
SY STEM
ot yp
In strument
+ =
19 1
Ġcol ored
/* .
Ð°Ð½ Ð¸
Do es
ad vant
Ġperm utation
Pub lished
ov i
Cred it
Ġpro ud
H over
get All
ĠUn supported
Ref s
ĠFern ando
port ed
Co ordinate
oub les
en ic
ycl er
PRO G
T a
up p
ann ers
ĠR FC
Ġcorn ers
ex change
ĠReg Exp
U G
Foreign Key
H am
ĠP H
Ġbul let
vent ions
> ]
v card
conn ector
Ġit al
ĠHe ath
Ġret iring
ĠBry an
Ġv ibr
K L
k ok
ĠG ill
ys ide
LO T
Ġmed ic
Ġsuff ices
>< ![
ĠPro blem
fl are
Ġ$ [\
Acc eler
Ġtransform s
UNK NOWN
ĠE RA
ĠAd ult
ĠUn fortunately
~~ ~
Ġlo ans
er ase
class List
her ence
G reater
ĠZ ag
ip ment
ĠNE AT
ĠE mail
ĠAnd ers
Ġadv isor
k v
è §
is p
Ġmut able
Ġrevers ed
in flux
Ġfre ely
' ",
="# !"
ĠS aw
Ġdisappe ared
Cor rect
ĠCl imate
Comp et
comm unity
WIN DO
ĠP rec
dev ices
Ġsummar ized
-- ">
Ġfre estyle
C zech
ĠLe op
ĠLiber ation
it ize
Ġf illing
ĠDo ctrine
PH ONY
ĠB in
Ġres ume
Pl ain
le ys
wik ipedia
ly mouth
18 1
rele ases
Ġh oped
SE D
Ġfin itely
z on
inst on
ele t
Dim ensions
ĠRev ision
Ã¡ l
Ad s
se ver
Ġt ough
17 3
ĠVAL UE
30 3
ĠW ool
Dis pose
jet brains
Work ing
Ġpregn ant
st re
ĠM T
Ch ars
Ġprest igious
ĠP ool
Ġ? ?
activ em
che v
Ġinter fer
list eners
Ġc uisine
Ġf iscal
or ious
ĠMin i
ĠHend erson
ĠA ri
Ġs ou
ĠH od
ĠW riter
aid en
ĠI con
ust ain
ad h
Ġhe ir
Ġp ink
ĠW or
af a
territ ory
b ours
Key Value
Ġhead quarter
behav iors
re ne
Ġenter prise
8 000
Ġin vert
at u
Ġen larg
Ã© es
Class ification
system s
en umer
ĠS hen
ĠWe ather
Ġevery where
Ġeduc ator
re ction
cl ub
f req
Dec ision
model Version
start sWith
J oe
stat istics
ĠRe ce
ĠNad u
ĠBel le
Ġre build
Foot er
ĠB SD
ob y
ĠTr in
Ġmut ation
ĠDev il
Ġswe ep
Ġ' ../../
pent aho
represent ation
op p
Ġdis orders
draw er
it ary
math ds
ĠLet ter
ex clusion
ĠGeorg ian
L u
am bo
Ġunder went
ĠT anz
AR M
Ġbal anced
æķ° æį®
Ġcoron avirus
18 31
search Box
. },
ip zig
ĠCal gary
Ġproceed s
DebuggerNonUser CodeAttribute
eb e
pr im
') \
ĠCh anges
Ġreg ulatory
ĠM OD
ĠTh r
ik er
) `
Ex press
Ġk ings
N F
mun ition
Ġautom ated
print s
IM ARY
Ġgu y
SP H
ĠRes erved
Ġsurn ames
ĠBat man
T W
s cheduler
on ist
Ġliter acy
Op acity
{ [
odd ess
J on
Ġk nee
ry ing
UB LE
ĠCO MM
Ġpurs ued
ĠS ame
ĠInd ividual
Ġhon ored
ĠCont est
ug o
ĠArm strong
Hung arian
, ~
display math
Ġ' :
Ġp d
ne apolis
Ġwrest ler
Ġval ued
ĠLud wig
set State
Ad apt
N ick
con cept
sh aw
ĠLo op
built in
Ï Ĩ
ĠCre ative
æĪ Ĳ
Ġd ivers
18 28
Ġpra ise
Ġgener als
im plicit
Ġp as
Ġre organ
Nor wegian
ĠD ynam
ĠMic he
ĠLux embourg
ĠK ot
Ġgather ing
Ġt une
Ġv a
18 25
Ġt i
> }
ĠTy ler
ĠN acional
Ġdef ect
com pressed
Ġar ising
V an
ĠEm my
register ed
Ġobvious ly
è¦ ģ
Ġ( &
um en
Ġpod cast
Ġim ports
Ġdim in
Ġtr ait
C AT
Ġwh it
ĠHead quarters
ĠB log
ĠM uk
LE ASE
h ls
Pol ygon
b il
c ence
T abs
st en
ĠJenn ifer
Leg end
ĠContin ental
Ġt m
get Node
ĠSh i
Dev ices
< '
Ġstri kes
åħ ¥
ĠYan kees
Ġg enu
Ġsub stance
cred it
ital ic
ĠMax im
s andbox
ĠC ann
Ġrecommend ation
ĠMay be
R P
Ġo g
Ġse ized
DI O
Ġnation wide
C ath
ĠD uck
ĠW A
Ġreb els
Ġsax ophone
ĠA ircraft
ĠCath olics
Ġconsult ant
Ġcal ibration
Ġcat hedral
ĠC ancer
h urst
ĠK ab
b urst
Ġ' __
de ad
ĠB ind
Ð» Ñı
. ]
E G
s low
Ġrap per
table View
Tool Strip
el rte
ĠP sy
Ġgener ality
ĠCon tract
Ġdown stream
Ġdeg ener
Ġp references
ass er
P ur
ĠA G
Ġhom osexual
Ġiniti atives
O Auth
U pon
ĠR anch
Product s
root Scope
3333 3333
Ġveloc ities
Ġd ying
(' -
= */
d oxygen
18 4
Ġem itted
Ġdraw ings
24 5
00 7
Ġspeed s
ĠIn ner
Des ktop
ĠOr lando
idel ity
Ġuser Id
>> >
ĠGi ovanni
Ġtow ers
err no
pro posal
Ġstd out
Bur ials
ĠBou levard
ĠM emph
Ġours elves
ĠP UR
Ġb b
ĠM ade
dec oder
ĠS ons
ĠMar sh
Ġbur ial
ĠMax imum
Inf os
Ġmem o
Ġbr acket
Ġseek s
w at
bul k
Ġprevent ing
. ">
Ġ ĉĉ
)) $.
ĠDis able
omorph isms
ĠESP N
ĠD eg
ĠF LA
Mult ip
Ġm us
Ġpresent ing
b lo
k b
Ġwalk s
' $,
Ġt et
ĠMet adata
Ġjournal ism
ON ENT
Ġcor poration
B inder
ct uary
mer ged
ĠR achel
ĠH ern
Ġdies el
å ±
Ġhuman ity
ĠLog in
ĠT ouch
ĠSo ft
ĠMult iple
Ġsub tract
ĠIm ages
pop over
N ear
}} }$
~ (
el if
E F
erm al
Ġqu ad
As pect
Ġmatch er
Ġachiev es
ĠInitial izes
20 7
m ology
17 4
amm ad
G LOBAL
son s
G AN
Ġdest ruct
ĠAPI s
æ³ ķ
ar ag
Ġcontrib utors
track er
Ġhar ass
ĠAdvent ures
v iol
ĠR i
rest rial
Ġpop up
Ġ" ../
Ġcl othes
\\ \
ĠS ort
Ġobserv ing
subNav List
il ion
Ġ{} ",
Ġintegr ate
=-=- =-=-
Ġco res
w ald
Ġcl ay
AUT O
ĠConstant in
N Y
Ġa xi
$ _{\
r hs
ra ises
Le ave
atern ity
z ens
Ġ iv
Ġmem ories
source forge
Ġbright ness
set length
elect ron
ĠH i
ĠW IN
Ġr iders
ĠC K
am oto
(" {
U ng
ĠS I
Ġoffset s
P ART
DO C
ĠStart ing
} ):
ors ion
Ġtrav elling
Ġlect ures
d atas
ĠG B
You ng
2 15
H ASH
ig m
P referred
Ġa er
ĠH RESULT
ĠX I
ĠN GC
Ġitem Members
Ð Ĵ
Ġpr ayer
Ġformal ism
Ġsim ulate
urs es
ĠFIX ME
ĠR C
Ġâ ĪĴ
f el
Ġcoordin ator
Ġinteract ing
Econ omy
ç ¤
oc cup
Ġle ak
ĠBra h
ĠS ex
He art
) !
, &
ind ed
Call s
ĠWrit ers
id le
iers hip
ad al
TE MPLATE
Ġexport ed
ĠG W
17 9
Ġh unt
V L
(" ");
ĠEv angel
ĠWag ner
Ġspecim ens
Ġh ind
que z
[...]
