{
  "version": "1.0",
  "truncation": null,
  "padding": null,
  "added_tokens": [
    {
      "id": 0,
      "content": "[UNK]",
      "single_word": false,
      "lstrip": false,
      "rstrip": false,
      "normalized": false,
      "special": true
    }
  ],
  "normalizer": null,
  "pre_tokenizer": {
    "type": "Sequence",
    "pretokenizers": [
      {
        "type": "Digits",
        "individual_digits": false
      },
      {
        "type": "ByteLevel",
        "add_prefix_space": false,
        "trim_offsets": true,
        "use_regex": true
      }
    ]
  },
  "post_processor": null,
  "decoder": null,
  "model": {
    "type": "BPE",
    "dropout": null,
    "unk_token": "[UNK]",
    "continuing_subword_prefix": null,
    "end_of_word_suffix": null,
    "fuse_unk": false,
    "byte_fallback": false,
    "vocab": {
      "[UNK]": 0,
      "!": 1,
      "\"": 2,
      "#": 3,
      "$": 4,
      "%": 5,
      "&": 6,
      "'": 7,
      "(": 8,
      ")": 9,
      "*": 10,
      "+": 11,
      ",": 12,
      "-": 13,
      ".": 14,
      "/": 15,
      "0": 16,
      "1": 17,
      "2": 18,
      "3": 19,
      "4": 20,
      "5": 21,
      "6": 22,
      "7": 23,
      "8": 24,
      "9": 25,
      ":": 26,
      ";": 27,
      "<": 28,
      "=": 29,
      ">": 30,
      "?": 31,
      "@": 32,
      "A": 33,
      "B": 34,
      "C": 35,
      "D": 36,
      "E": 37,
      "F": 38,
      "G": 39,
      "H": 40,
      "I": 41,
      "J": 42,
      "K": 43,
      "L": 44,
      "M": 45,
      "N": 46,
      "O": 47,
      "P": 48,
      "Q": 49,
      "R": 50,
      "S": 51,
      "T": 52,
      "U": 53,
      "V": 54,
      "W": 55,
      "X": 56,
      "Y": 57,
      "Z": 58,
      "[": 59,
      "\\": 60,
      "]": 61,
      "^": 62,
      "_": 63,
      "`": 64,
      "a": 65,
      "b": 66,
      "c": 67,
      "d": 68,
      "e": 69,
      "f": 70,
      "g": 71,
      "h": 72,
      "i": 73,
      "j": 74,
      "k": 75,
      "l": 76,
      "m": 77,
      "n": 78,
      "o": 79,
      "p": 80,
      "q": 81,
      "r": 82,
      "s": 83,
      "t": 84,
      "u": 85,
      "v": 86,
      "w": 87,
      "x": 88,
      "y": 89,
      "z": 90,
      "{": 91,
      "|": 92,
      "}": 93,
      "~": 94,
      "¡": 95,
      "¢": 96,
      "£": 97,
      "¤": 98,
      "¥": 99,
      "¦": 100,
      "§": 101,
      "¨": 102,
      "©": 103,
      "ª": 104,
      "«": 105,
      "¬": 106,
      "®": 107,
      "¯": 108,
      "°": 109,
      "±": 110,
      "²": 111,
      "³": 112,
      "´": 113,
      "µ": 114,
      "¶": 115,
      "·": 116,
      "¸": 117,
      "¹": 118,
      "º": 119,
      "»": 120,
      "¼": 121,
      "½": 122,
      "¾": 123,
      "¿": 124,
      "Â": 125,
      "Ã": 126,
      "Ä": 127,
      "Å": 128,
      "Æ": 129,
      "Ç": 130,
      "È": 131,
      "É": 132,
      "Ê": 133,
      "Ë": 134,
      "Ì": 135,
      "Í": 136,
      "Î": 137,
      "Ï": 138,
      "Ð": 139,
      "Ñ": 140,
      "Ò": 141,
      "Ó": 142,
      "Ô": 143,
      "Õ": 144,
      "Ö": 145,
      "×": 146,
      "Ø": 147,
      "Ù": 148,
      "Ú": 149,
      "Û": 150,
      "Ü": 151,
      "Ý": 152,
      "Þ": 153,
      "ß": 154,
      "à": 155,
      "á": 156,
      "â": 157,
      "ã": 158,
      "ä": 159,
      "å": 160,
      "æ": 161,
      "ç": 162,
      "è": 163,
      "é": 164,
      "ê": 165,
      "ë": 166,
      "ì": 167,
      "í": 168,
      "î": 169,
      "ï": 170,
      "ð": 171,
      "ñ": 172,
      "ò": 173,
      "ó": 174,
      "ô": 175,
      "Ā": 176,
      "ā": 177,
      "Ă": 178,
      "ă": 179,
      "Ą": 180,
      "ą": 181,
      "Ć": 182,
      "ć": 183,
      "Ĉ": 184,
      "ĉ": 185,
      "Ċ": 186,
      "ċ": 187,
      "Č": 188,
      "č": 189,
      "ď": 190,
      "Đ": 191,
      "đ": 192,
      "Ē": 193,
      "ē": 194,
      "Ĕ": 195,
      "Ė": 196,
      "ė": 197,
      "Ę": 198,
      "ę": 199,
      "Ě": 200,
      "ě": 201,
      "Ĝ": 202,
      "ĝ": 203,
      "Ğ": 204,
      "ğ": 205,
      "Ġ": 206,
      "ġ": 207,
      "Ģ": 208,
      "ģ": 209,
      "Ĥ": 210,
      "ĥ": 211,
      "Ħ": 212,
      "ħ": 213,
      "Ĩ": 214,
      "ĩ": 215,
      "Ī": 216,
      "ī": 217,
      "Ĭ": 218,
      "ĭ": 219,
      "Į": 220,
      "į": 221,
      "İ": 222,
      "ı": 223,
      "Ĳ": 224,
      "ĳ": 225,
      "Ĵ": 226,
      "ĵ": 227,
      "Ķ": 228,
      "ķ": 229,
      "ĸ": 230,
      "Ĺ": 231,
      "ĺ": 232,
      "Ļ": 233,
      "ļ": 234,
      "Ľ": 235,
      "ľ": 236,
      "Ŀ": 237,
      "ŀ": 238,
      "Ł": 239,
      "ł": 240,
      "Ń": 241,
      "ĠĠ": 242,
      "ĠĠĠĠ": 243,
      "in": 244,
      "Ġt": 245,
      "er": 246,
      "on": 247,
      "Ġa": 248,
      "he": 249,
      "re": 250,
      "at": 251,
      "en": 252,
      "or": 253,
      "st": 254,
      "Ġthe": 255,
      "an": 256,
      "al": 257,
      "ĠĠĠ": 258,
      "ar": 259,
      "it": 260,
      "ĠĠĠĠĠĠĠĠ": 261,
      "Ġc": 262,
      "le": 263,
      "ion": 264,
      "ed": 265,
      "Ġo": 266,
      "Ġs": 267,
      "es": 268,
      "is": 269,
      "Ġf": 270,
      "Ġw": 271,
      "ic": 272,
      "Ġp": 273,
      "ro": 274,
      "ing": 275,
      "Ġin": 276,
      "as": 277,
      "nd": 278,
      "Ġb": 279,
      "Ġof": 280,
      "et": 281,
      "ct": 282,
      "Ġd": 283,
      "ent": 284,
      "am": 285,
      "ou": 286,
      "Ġm": 287,
      "el": 288,
      "Ġand": 289,
      "ĠĠĠĠĠĠĠ": 290,
      "Ġto": 291,
      "il": 292,
      "Ġre": 293,
      "om": 294,
      "Ġn": 295,
      "Ġh": 296,
      "id": 297,
      "ĠS": 298,
      "Ġ(": 299,
      "ol": 300,
      "ation": 301,
      "ac": 302,
      "ig": 303,
      "Ġ=": 304,
      "ur": 305,
      "im": 306,
      "ĠC": 307,
      "ĠT": 308,
      "Ġth": 309,
      "ĉĉ": 310,
      "</": 311,
      "ut": 312,
      "ad": 313,
      "ĠA": 314,
      "ot": 315,
      "iv": 316,
      "Ġl": 317,
      "ex": 318,
      "se": 319,
      "=\"": 320,
      "ce": 321,
      "od": 322,
      "ag": 323,
      ");": 324,
      "ul": 325,
      "th": 326,
      "em": 327,
      "Ġ$": 328,
      "if": 329,
      "Ġ\\": 330,
      "Ġ{": 331,
      "Ġ<": 332,
      "un": 333,
      "ĠM": 334,
      "--": 335,
      "ch": 336,
      "Ġis": 337,
      "ers": 338,
      "um": 339,
      "ay": 340,
      "Ġv": 341,
      "pe": 342,
      "us": 343,
      "Ġfor": 344,
      "ab": 345,
      "ow": 346,
      "ist": 347,
      "Ġg": 348,
      "ĠĠĠĠĠĠĠĠĠĠĠ": 349,
      "Ġst": 350,
      "ate": 351,
      "ĠI": 352,
      "ĠP": 353,
      "čĊ": 354,
      "tr": 355,
      "ap": 356,
      "ĠB": 357,
      "oc": 358,
      "qu": 359,
      "ir": 360,
      "ass": 361,
      "//": 362,
      "ly": 363,
      "ter": 364,
      "Ġ*": 365,
      "Ġon": 366,
      "ith": 367,
      "20": 368,
      "est": 369,
      "Ġcon": 370,
      "ef": 371,
      "ame": 372,
      "Ġ\"": 373,
      "ction": 374,
      "ĠR": 375,
      "pt": 376,
      "19": 377,
      "ĠH": 378,
      "ht": 379,
      "Ġas": 380,
      "and": 381,
      "ĠD": 382,
      "av": 383,
      "ub": 384,
      "Ġ}": 385,
      "ĠL": 386,
      "ĠF": 387,
      "ver": 388,
      "end": 389,
      "\">": 390,
      "Ġbe": 391,
      "res": 392,
      "ew": 393,
      "ue": 394,
      "lass": 395,
      "ĠN": 396,
      "ri": 397,
      "Ġe": 398,
      "Ġwas": 399,
      "up": 400,
      "op": 401,
      "ess": 402,
      "age": 403,
      "Ġwith": 404,
      "ĠG": 405,
      "ort": 406,
      "Ġal": 407,
      "ain": 408,
      "ĠĠĠĠĠĠĠĠĠĠĠĠĠĠĠĠ": 409,
      "os": 410,
      "ĠThe": 411,
      "rom": 412,
      "our": 413,
      "ĠW": 414,
      "ĠE": 415,
      "Ġthat": 416,
      "ĠĠĠĠĠ": 417,
      "li": 418,
      "Ġby": 419,
      "()": 420,
      "ath": 421,
      "Ġan": 422,
      "âĢ": 423,
      "Ġwh": 424,
      "Ġpro": 425,
      "ect": 426,
      "ine": 427,
      "ext": 428,
      "ity": 429,
      "urn": 430,
      "art": 431,
      "nt": 432,
      "**": 433,
      "sp": 434,
      "ment": 435,
      "Ġcom": 436,
      "ec": 437,
      "Ġr": 438,
      "ore": 439,
      "Ġat": 440,
      "all": 441,
      "og": 442,
      "ere": 443,
      "_{": 444,
      "iz": 445,
      "eg": 446,
      "ĠO": 447,
      "ĠĊ": 448,
      "Ġclass": 449,
      "ack": 450,
      "ĠJ": 451,
      "turn": 452,
      "pl": 453,
      "ult": 454,
      "..": 455,
      "Ġor": 456,
      "Ġit": 457,
      "ight": 458,
      "ype": 459,
      "==": 460,
      "Ġfrom": 461,
      "able": 462,
      "ies": 463,
      "ke": 464,
      "ans": 465,
      "port": 466,
      "----": 467,
      "ial": 468,
      "ile": 469,
      "ure": 470,
      "ber": 471,
      "ang": 472,
      "ud": 473,
      "Ġ'": 474,
      "Ġ&": 475,
      "Ġex": 476,
      "ode": 477,
      "per": 478,
      "str": 479,
      "ref": 480,
      "get": 481,
      "con": 482,
      "Ġthis": 483,
      "ive": 484,
      "00": 485,
      "Ġif": 486,
      "ant": 487,
      "'s": 488,
      "ĠU": 489,
      "Ġtr": 490,
      "ep": 491,
      "int": 492,
      "ary": 493,
      "orm": 494,
      "In": 495,
      "Ġhe": 496,
      "ĠĠĠĠĠĠĠĠĠĠĠĠĠĠĠ": 497,
      "ill": 498,
      "ast": 499,
      "Ġare": 500,
      "ip": 501,
      "ld": 502,
      "ated": 503,
      "lic": 504,
      "ov": 505,
      "ard": 506,
      "act": 507,
      "ord": 508,
      "{\\": 509,
      "ption": 510,
      "und": 511,
      "Ġ-": 512,
      "ata": 513,
      "Ġch": 514,
      "),": 515,
      "ĠK": 516,
      "ign": 517,
      "are": 518,
      "ev": 519,
      "ase": 520,
      "ire": 521,
      "ia": 522,
      "ind": 523,
      "ug": 524,
      "ib": 525,
      "Ġreturn": 526,
      "ace": 527,
      "Ġ//": 528,
      "ich": 529,
      "201": 530,
      "ition": 531,
      "ite": 532,
      "Ġle": 533,
      "com": 534,
      "Ġ</": 535,
      "ong": 536,
      "ĉĉĉĉ": 537,
      "pro": 538,
      "The": 539,
      "Ġ$\\": 540,
      "::": 541,
      "alue": 542,
      "../": 543,
      "ak": 544,
      "ser": 545,
      "cl": 546,
      "ject": 547,
      "to": 548,
      "->": 549,
      "ff": 550,
      "Ġpl": 551,
      "Ġy": 552,
      "ost": 553,
      "âĢĵ": 554,
      "ĠIn": 555,
      "ph": 556,
      "ge": 557,
      "ime": 558,
      "Ġ|": 559,
      "ell": 560,
      "ource": 561,
      ").": 562,
      "ĠV": 563,
      "ian": 564,
      "ublic": 565,
      "Ġse": 566,
      "out": 567,
      "Ġsh": 568,
      "Ġnot": 569,
      "text": 570,
      "ild": 571,
      "math": 572,
      "ple": 573,
      "Ġwe": 574,
      "ice": 575,
      "Con": 576,
      "ide": 577,
      "ical": 578,
      "unction": 579,
      "ork": 580,
      "\",": 581,
      "enc": 582,
      "Ġ[": 583,
      "ĠSt": 584,
      "ust": 585,
      "ft": 586,
      "loc": 587,
      "ma": 588,
      "cc": 589,
      "ens": 590,
      "lo": 591,
      "cri": 592,
      "Ġ@": 593,
      "ory": 594,
      "aram": 595,
      "St": 596,
      "so": 597,
      "ave": 598,
      "Ġnew": 599,
      "set": 600,
      "200": 601,
      "ra": 602,
      "ml": 603,
      "Ġar": 604,
      "form": 605,
      "dd": 606,
      "Ġ+": 607,
      "div": 608,
      "(\"": 609,
      "ance": 610,
      "essage": 611,
      "Ġus": 612,
      "Ex": 613,
      "ok": 614,
      "ish": 615,
      "sh": 616,
      "();": 617,
      "elf": 618,
      "Ġhis": 619,
      "put": 620,
      "row": 621,
      "du": 622,
      "Ġj": 623,
      "ence": 624,
      "Ġres": 625,
      "Ġwhich": 626,
      "Ġun": 627,
      "ear": 628,
      "ss": 629,
      "Ġ/": 630,
      "ĠCh": 631,
      "}}": 632,
      "ull": 633,
      "18": 634,
      "ther": 635,
      "ations": 636,
      "ress": 637,
      "></": 638,
      "ize": 639,
      "span": 640,
      "ach": 641,
      "',": 642,
      "ount": 643,
      "ĠTh": 644,
      "low": 645,
      "ener": 646,
      "tring": 647,
      "Ġk": 648,
      "tern": 649,
      "^{": 650,
      "Ġap": 651,
      "><": 652,
      "iel": 653,
      "one": 654,
      "own": 655,
      "mer": 656,
      "irst": 657,
      "fig": 658,
      "--------": 659,
      "use": 660,
      "ink": 661,
      "Ġstr": 662,
      "che": 663,
      "Ġim": 664,
      "../../": 665,
      "err": 666,
      "ele": 667,
      "equ": 668,
      "fr": 669,
      "Ġcont": 670,
      "Ġ||": 671,
      "Ġ.": 672,
      "ents": 673,
      "Ġhas": 674,
      "ail": 675,
      "}\\": 676,
      "te": 677,
      "inal": 678,
      "cal": 679,
      "ield": 680,
      "ous": 681,
      "Ġcan": 682,
      "}$": 683,
      "Ġpublic": 684,
      "erv": 685,
      "ob": 686,
      "Ġname": 687,
      "ree": 688,
      "****": 689,
      "clud": 690,
      "ound": 691,
      "eb": 692,
      "ould": 693,
      "Ġ*/": 694,
      "over": 695,
      "Ġdef": 696,
      "erm": 697,
      "hen": 698,
      "Ġalso": 699,
      "ond": 700,
      "ll": 701,
      "Ġfunction": 702,
      "les": 703,
      "Ġwere": 704,
      "====": 705,
      "iew": 706,
      "ict": 707,
      "Ġ:": 708,
      "ĉĉĉ": 709,
      "rit": 710,
      "10": 711,
      "Ġcomp": 712,
      "ĠĠĠĠĠĠĠĠĠĠĠĠĠĠĠĠĠĠĠ": 713,
      "eth": 714,
      "old": 715,
      "ator": 716,
      "Ġpr": 717,
      "ool": 718,
      "Ġint": 719,
      "html": 720,
      "ĠĠĠĠĠĠĠĠĠ": 721,
      "Ġhave": 722,
      "('": 723,
      "ta": 724,
      "name": 725,
      "ry": 726,
      "ual": 727,
      "source": 728,
      "Ġset": 729,
      "ates": 730,
      "ne": 731,
      "Ġhref": 732,
      "message": 733,
      "oid": 734,
      "abel": 735,
      "Pro": 736,
      "lation": 737,
      "pr": 738,
      "Ġab": 739,
      "ps": 740,
      "ark": 741,
      "))": 742,
      "roup": 743,
      "ray": 744,
      "ĠUn": 745,
      "(\\": 746,
      "ck": 747,
      "fer": 748,
      "led": 749,
      "this": 750,
      "egin": 751,
      "trans": 752,
      "Ġro": 753,
      "Ġvar": 754,
      "rap": 755,
      "odel": 756,
      "ix": 757,
      "Name": 758,
      "io": 759,
      "Ġpart": 760,
      "yst": 761,
      "oint": 762,
      "ert": 763,
      "oth": 764,
      "begin": 765,
      "col": 766,
      "ER": 767,
      "eng": 768,
      "hed": 769,
      "wo": 770,
      "ng": 771,
      "Ġdis": 772,
      "},": 773,
      "pec": 774,
      "ome": 775,
      "ions": 776,
      "ty": 777,
      "key": 778,
      "ĠHe": 779,
      "right": 780,
      "Type": 781,
      "Ġfirst": 782,
      "Ġsu": 783,
      "ĠY": 784,
      "bject": 785,
      "import": 786,
      "Ġone": 787,
      "ery": 788,
      "td": 789,
      "ics": 790,
      "Ġ#": 791,
      "199": 792,
      "fter": 793,
      "Ġtype": 794,
      "Ġ=>": 795,
      "vent": 796,
      "ings": 797,
      "Id": 798,
      "Ġplay": 799,
      "ON": 800,
      "ater": 801,
      "bo": 802,
      "Ġ_": 803,
      "Ġall": 804,
      "ystem": 805,
      "arg": 806,
      "ĠIt": 807,
      "Ġout": 808,
      "param": 809,
      "String": 810,
      "atic": 811,
      "alse": 812,
      "ames": 813,
      "Ġbut": 814,
      "aw": 815,
      "IN": 816,
      "pect": 817,
      "Ġde": 818,
      "/>": 819,
      "Ġcol": 820,
      "lect": 821,
      "Ġget": 822,
      "ational": 823,
      "ax": 824,
      "ors": 825,
      "sum": 826,
      "umber": 827,
      "line": 828,
      "iss": 829,
      "ont": 830,
      "cript": 831,
      "cre": 832,
      "code": 833,
      "return": 834,
      "uild": 835,
      "Ġits": 836,
      "_{\\": 837,
      "ĠAr": 838,
      "12": 839,
      "Ġup": 840,
      "Ġvalue": 841,
      ")$": 842,
      "Ref": 843,
      "Ġline": 844,
      "Ġhad": 845,
      "uct": 846,
      "we": 847,
      "igh": 848,
      "ences": 849,
      "ose": 850,
      "Ġqu": 851,
      "ethod": 852,
      "Ġdes": 853,
      "lock": 854,
      "atch": 855,
      "fo": 856,
      "\"/>": 857,
      "ember": 858,
      "ĠâĢĵ": 859,
      "Ġtheir": 860,
      "ick": 861,
      "ely": 862,
      "ton": 863,
      "translation": 864,
      "any": 865,
      "##": 866,
      "}{": 867,
      "Ġpre": 868,
      "Ġper": 869,
      "Com": 870,
      "ann": 871,
      "amp": 872,
      "16": 873,
      "the": 874,
      "Ġsp": 875,
      "def": 876,
      "ms": 877,
      "Ġcl": 878,
      "app": 879,
      "Res": 880,
      "Ġdo": 881,
      "ock": 882,
      "Ġself": 883,
      "Ġover": 884,
      "List": 885,
      "cent": 886,
      "class": 887,
      "ie": 888,
      "Ġtwo": 889,
      "urre": 890,
      "label": 891,
      "Ġ!": 892,
      "add": 893,
      "ied": 894,
      "Ġconst": 895,
      "ute": 896,
      "arch": 897,
      "land": 898,
      "Ġag": 899,
      "Ġdata": 900,
      "pos": 901,
      "pon": 902,
      "eta": 903,
      "ym": 904,
      "ault": 905,
      "raph": 906,
      "RE": 907,
      "ited": 908,
      "type": 909,
      "nc": 910,
      "round": 911,
      "Ġwho": 912,
      "Ġid": 913,
      "Ġwork": 914,
      "ception": 915,
      "ange": 916,
      "Ġcomm": 917,
      "val": 918,
      "eq": 919,
      "Ch": 920,
      "itle": 921,
      "ican": 922,
      "Ġend": 923,
      "Ġtime": 924,
      "Ġel": 925,
      "ove": 926,
      "ake": 927,
      "ey": 928,
      "ific": 929,
      "Ġother": 930,
      "anc": 931,
      "Ġadd": 932,
      "ased": 933,
      "orn": 934,
      "ative": 935,
      "left": 936,
      "Ġwill": 937,
      "lement": 938,
      "als": 939,
      "Ġ==": 940,
      "Ġinter": 941,
      "frac": 942,
      "Ġresult": 943,
      "son": 944,
      "Ġi": 945,
      "Ġund": 946,
      "ache": 947,
      "ople": 948,
      "ST": 949,
      "var": 950,
      "Ġinclud": 951,
      "ternal": 952,
      "tain": 953,
      "of": 954,
      "Ġfil": 955,
      "idth": 956,
      "15": 957,
      "://": 958,
      "Ġsub": 959,
      "ade": 960,
      "Ġbeen": 961,
      "Th": 962,
      "Ġme": 963,
      "ular": 964,
      "ersion": 965,
      "Refer": 966,
      "ern": 967,
      "Ġad": 968,
      "198": 969,
      "Ġnull": 970,
      "ished": 971,
      "tt": 972,
      "Ġwhen": 973,
      "ĠCom": 974,
      "co": 975,
      "gr": 976,
      "17": 977,
      "âĢĻ": 978,
      "Ġsup": 979,
      "Ġher": 980,
      "Ar": 981,
      "Ġvoid": 982,
      "AT": 983,
      "Ġyear": 984,
      "irect": 985,
      "ward": 986,
      "Ġloc": 987,
      "ution": 988,
      "ollow": 989,
      "trib": 990,
      "ask": 991,
      "Ġbo": 992,
      "ash": 993,
      "__": 994,
      "Ġreg": 995,
      "ues": 996,
      "Ġrequ": 997,
      "\"><": 998,
      "ons": 999,
      "ader": 1000,
      "ument": 1001,
      "ĠThis": 1002,
      "ivers": 1003,
      "Ġte": 1004,
      "Ġ`": 1005,
      "ee": 1006,
      "ivate": 1007,
      "yle": 1008,
      "mathb": 1009,
      "eople": 1010,
      "ys": 1011,
      "Ġform": 1012,
      "htt": 1013,
      "red": 1014,
      "urrent": 1015,
      "ĠĠĠĠĠĠĠĠĠĠĠĠĠ": 1016,
      "resent": 1017,
      "Ġmore": 1018,
      "Ġonly": 1019,
      "Ġen": 1020,
      "Ġact": 1021,
      "min": 1022,
      "):": 1023,
      "Ġinto": 1024,
      "));": 1025,
      "References": 1026,
      "cess": 1027,
      "sub": 1028,
      "uring": 1029,
      "ample": 1030,
      "ĠĠĠĠĠĠĠĠĠĠĠĠĠĠĠĠĠĠĠĠĠĠĠ": 1031,
      "cite": 1032,
      "Ġoff": 1033,
      "ĠNew": 1034,
      "Ġfalse": 1035,
      "$.": 1036,
      "ts": 1037,
      "ugh": 1038,
      "Ġco": 1039,
      "bar": 1040,
      "ating": 1041,
      "der": 1042,
      "Ġthey": 1043,
      "org": 1044,
      "Ġafter": 1045,
      "Tr": 1046,
      "efore": 1047,
      "$,": 1048,
      "ccess": 1049,
      "Ġne": 1050,
      "Ġrec": 1051,
      "back": 1052,
      "\");": 1053,
      "Ġorg": 1054,
      "string": 1055,
      "read": 1056,
      "ise": 1057,
      "Ġyou": 1058,
      "amb": 1059,
      "Ġ>": 1060,
      "11": 1061,
      "Ġso": 1062,
      "rm": 1063,
      "ru": 1064,
      "OR": 1065,
      "Ġpos": 1066,
      "Ġspec": 1067,
      "Ġ)": 1068,
      "Ġwhere": 1069,
      "merican": 1070,
      "oot": 1071,
      "anag": 1072,
      "ĠAl": 1073,
      "Ġind": 1074,
      "ined": 1075,
      "Ġinst": 1076,
      "Ġbet": 1077,
      "ĠPro": 1078,
      "Ġtrans": 1079,
      "ID": 1080,
      "ists": 1081,
      "ince": 1082,
      "lection": 1083,
      "uth": 1084,
      "ision": 1085,
      "Ġfollow": 1086,
      "oug": 1087,
      "serv": 1088,
      "ank": 1089,
      "Ġerr": 1090,
      "AR": 1091,
      "ava": 1092,
      "LE": 1093,
      "197": 1094,
      "Ġserv": 1095,
      "self": 1096,
      "}.": 1097,
      "Ġsc": 1098,
      "Ġtrue": 1099,
      "work": 1100,
      "ious": 1101,
      "ength": 1102,
      ",\\": 1103,
      "sert": 1104,
      "----------------": 1105,
      "********": 1106,
      "})": 1107,
      "Ġunder": 1108,
      "ptions": 1109,
      "Ġused": 1110,
      "tem": 1111,
      "13": 1112,
      "14": 1113,
      "imes": 1114,
      "Ġob": 1115,
      "ature": 1116,
      "its": 1117,
      "ier": 1118,
      "rr": 1119,
      "way": 1120,
      "item": 1121,
      "ider": 1122,
      "Col": 1123,
      "ities": 1124,
      "olog": 1125,
      "Ġsec": 1126,
      "file": 1127,
      "Ġfinal": 1128,
      "duc": 1129,
      "Ġval": 1130,
      "mathcal": 1131,
      "data": 1132,
      "wn": 1133,
      "ole": 1134,
      "pen": 1135,
      "nb": 1136,
      "Ġcre": 1137,
      "Ġuse": 1138,
      "Data": 1139,
      "ball": 1140,
      "ren": 1141,
      "Ġthen": 1142,
      "25": 1143,
      "Ġpol": 1144,
      "Ġdist": 1145,
      "ages": 1146,
      "Ġprov": 1147,
      "ik": 1148,
      "Value": 1149,
      "ĠâĢ": 1150,
      "ble": 1151,
      "perty": 1152,
      "Ġdec": 1153,
      "oy": 1154,
      "equation": 1155,
      "Ġem": 1156,
      "ween": 1157,
      "plic": 1158,
      "ement": 1159,
      "orld": 1160,
      "Ġx": 1161,
      "Ġ--": 1162,
      "ures": 1163,
      "value": 1164,
      "\")": 1165,
      "////": 1166,
      "Ġgener": 1167,
      "ĠCon": 1168,
      "chool": 1169,
      "Ġelse": 1170,
      "location": 1171,
      "Ġrem": 1172,
      "To": 1173,
      "ĠSh": 1174,
      "Ġnumber": 1175,
      "ĠĠĠĠĠĠ": 1176,
      "Ġany": 1177,
      "ily": 1178,
      "ood": 1179,
      "Ġstring": 1180,
      "log": 1181,
      "action": 1182,
      "EN": 1183,
      "ĠĠĠĠĠĠĠĠĠĠĠĠĠĠĠĠĠĠĠĠĠĠĠĠĠĠĠĠĠĠĠĠ": 1184,
      "SS": 1185,
      "Ġtest": 1186,
      "ible": 1187,
      "nbsp": 1188,
      "lient": 1189,
      "Ġsuch": 1190,
      "arget": 1191,
      "arn": 1192,
      "Ġno": 1193,
      "ins": 1194,
      "da": 1195,
      "Ġthere": 1196,
      "ule": 1197,
      "ĠAs": 1198,
      "Ġev": 1199,
      "Ġchar": 1200,
      "Set": 1201,
      "pha": 1202,
      "az": 1203,
      "21": 1204,
      "air": 1205,
      "eff": 1206,
      "Ġdif": 1207,
      "AL": 1208,
      "pre": 1209,
      "Ġcase": 1210,
      "Ġ/**": 1211,
      "umn": 1212,
      "px": 1213,
      "ĠQ": 1214,
      "Ġent": 1215,
      "ility": 1216,
      "ized": 1217,
      "Ġkn": 1218,
      "ody": 1219,
      "epend": 1220,
      "Ġrel": 1221,
      "196": 1222,
      "========": 1223,
      "Ġcons": 1224,
      "eter": 1225,
      "Ġbec": 1226,
      "}(": 1227,
      "evel": 1228,
      "Ġshe": 1229,
      "br": 1230,
      "Ġbetween": 1231,
      "}_": 1232,
      "ices": 1233,
      "ines": 1234,
      "Ġwould": 1235,
      "ason": 1236,
      "oci": 1237,
      "Ġpeople": 1238,
      "view": 1239,
      "uff": 1240,
      "}^": 1241,
      "ars": 1242,
      "date": 1243,
      "ĠZ": 1244,
      "];": 1245,
      "Exception": 1246,
      "not": 1247,
      "Ġmodel": 1248,
      "roid": 1249,
      "Ġstatic": 1250,
      "32": 1251,
      "test": 1252,
      "~\\": 1253,
      "sc": 1254,
      "Ġser": 1255,
      "ired": 1256,
      "play": 1257,
      "($": 1258,
      "Ġest": 1259,
      "ĠAn": 1260,
      "oh": 1261,
      "Ġ&&": 1262,
      "Ġfile": 1263,
      "Ġthan": 1264,
      "cont": 1265,
      "Ġback": 1266,
      "')": 1267,
      "ah": 1268,
      "ted": 1269,
      "atus": 1270,
      "iversity": 1271,
      "ream": 1272,
      "new": 1273,
      "Err": 1274,
      "30": 1275,
      "ments": 1276,
      "rough": 1277,
      "for": 1278,
      "Ġabout": 1279,
      "Ġfe": 1280,
      "Ġsome": 1281,
      "Ġlink": 1282,
      "\\\\": 1283,
      "Ġph": 1284,
      "Ġ///": 1285,
      "pp": 1286,
      "Ã©": 1287,
      "oun": 1288,
      "Ġoper": 1289,
      "ower": 1290,
      "Ġgr": 1291,
      "ury": 1292,
      "alpha": 1293,
      "22": 1294,
      "Ġac": 1295,
      "ĠSe": 1296,
      "Ġlist": 1297,
      "Ġshow": 1298,
      "ient": 1299,
      "ĠCol": 1300,
      "Re": 1301,
      "press": 1302,
      "ouse": 1303,
      "yn": 1304,
      "Ġed": 1305,
      "Ġprivate": 1306,
      "Object": 1307,
      "ĠTr": 1308,
      "att": 1309,
      "Ġmay": 1310,
      "ve": 1311,
      "iver": 1312,
      "ĠString": 1313,
      "outh": 1314,
      "by": 1315,
      "Un": 1316,
      "ale": 1317,
      "script": 1318,
      "me": 1319,
      "lish": 1320,
      "arent": 1321,
      "Ġ%": 1322,
      "inn": 1323,
      "yp": 1324,
      "Ġstud": 1325,
      "man": 1326,
      "til": 1327,
      "struct": 1328,
      "Ġfound": 1329,
      "ler": 1330,
      "Test": 1331,
      "DE": 1332,
      "mary": 1333,
      "lang": 1334,
      "000": 1335,
      "size": 1336,
      "apt": 1337,
      "ship": 1338,
      "pi": 1339,
      "Ġ!=": 1340,
      "Ġsim": 1341,
      "aj": 1342,
      "rc": 1343,
      "wh": 1344,
      "elta": 1345,
      "ally": 1346,
      "Ġcent": 1347,
      "vel": 1348,
      "CT": 1349,
      "ott": 1350,
      "rol": 1351,
      "().": 1352,
      "be": 1353,
      "']": 1354,
      "face": 1355,
      "Ġcal": 1356,
      "link": 1357,
      "ĠAmerican": 1358,
      "ger": 1359,
      "orth": 1360,
      "Cont": 1361,
      "ook": 1362,
      "Ġmethod": 1363,
      "Ġinv": 1364,
      ".</": 1365,
      "ĠInd": 1366,
      "let": 1367,
      "50": 1368,
      "Ġmost": 1369,
      "ever": 1370,
      "Ġgroup": 1371,
      "());": 1372,
      "Ġass": 1373,
      "Ġam": 1374,
      "Ġstate": 1375,
      "Get": 1376,
      "Ġext": 1377,
      "He": 1378,
      "Ġhigh": 1379,
      "uss": 1380,
      "nav": 1381,
      "ĠEx": 1382,
      "order": 1383,
      "Ġsystem": 1384,
      "Ġmod": 1385,
      "align": 1386,
      "Ġstart": 1387,
      "ĠĠĠĠĊ": 1388,
      "Ġfield": 1389,
      "ough": 1390,
      "iven": 1391,
      "ĠFor": 1392,
      "mall": 1393,
      "194": 1394,
      "SE": 1395,
      "As": 1396,
      "._": 1397,
      "heck": 1398,
      "public": 1399,
      "roll": 1400,
      "uc": 1401,
      "Ġapp": 1402,
      "ets": 1403,
      "ister": 1404,
      "Ġeach": 1405,
      "ambda": 1406,
      "ident": 1407,
      "ife": 1408,
      "Ġsign": 1409,
      "Error": 1410,
      "requ": 1411,
      "ization": 1412,
      "mod": 1413,
      "ric": 1414,
      "ify": 1415,
      "Ġobject": 1416,
      "Key": 1417,
      "ote": 1418,
      "On": 1419,
      "js": 1420,
      "lay": 1421,
      "overn": 1422,
      "Ġthrough": 1423,
      "View": 1424,
      "Ġagain": 1425,
      "Ind": 1426,
      "Ġmin": 1427,
      "ĠLe": 1428,
      "IT": 1429,
      "\";": 1430,
      "ause": 1431,
      "Ġdiffer": 1432,
      "Ġtitle": 1433,
      "Ġpoint": 1434,
      "At": 1435,
      "\"></": 1436,
      "Ġacc": 1437,
      "ĉĉĉĉĉ": 1438,
      "section": 1439,
      "ww": 1440,
      "Âł": 1441,
      "width": 1442,
      "Ġrep": 1443,
      "Class": 1444,
      "ME": 1445,
      "evelop": 1446,
      "index": 1447,
      "Im": 1448,
      "Ġcor": 1449,
      "reg": 1450,
      "Ġkey": 1451,
      "ified": 1452,
      "File": 1453,
      "Ġsing": 1454,
      "En": 1455,
      "Ġsecond": 1456,
      "['": 1457,
      "Ġdirect": 1458,
      "cription": 1459,
      "indow": 1460,
      "ĠUnited": 1461,
      "other": 1462,
      "try": 1463,
      "util": 1464,
      "ting": 1465,
      "dis": 1466,
      "Ġparam": 1467,
      "ron": 1468,
      "Ġequ": 1469,
      "includ": 1470,
      "Ġhim": 1471,
      "list": 1472,
      "url": 1473,
      "24": 1474,
      "amma": 1475,
      "Ġdet": 1476,
      "raw": 1477,
      ")\\": 1478,
      "Ġyears": 1479,
      "color": 1480,
      "bers": 1481,
      "inter": 1482,
      "Ġduring": 1483,
      "ĠUniversity": 1484,
      "par": 1485,
      "ared": 1486,
      "ocument": 1487,
      "erson": 1488,
      ".\"": 1489,
      "ground": 1490,
      "Ġrun": 1491,
      "field": 1492,
      "function": 1493,
      "ten": 1494,
      "ĠFr": 1495,
      "ĠX": 1496,
      "ots": 1497,
      "By": 1498,
      "Ġwhile": 1499,
      "time": 1500,
      "top": 1501,
      "pace": 1502,
      "Sh": 1503,
      "Ġcomple": 1504,
      "CO": 1505,
      "ived": 1506,
      "mu": 1507,
      "=\\": 1508,
      "Ġrele": 1509,
      "Ġthree": 1510,
      "ism": 1511,
      "!--": 1512,
      "cept": 1513,
      "AN": 1514,
      "mp": 1515,
      "=\"+": 1516,
      "ces": 1517,
      "100": 1518,
      "ession": 1519,
      "Ġsame": 1520,
      "');": 1521,
      "External": 1522,
      "ĠWe": 1523,
      "Ġusing": 1524,
      "_\\": 1525,
      "Requ": 1526,
      "Ġlinks": 1527,
      "Ġdr": 1528,
      "ector": 1529,
      "Ġlong": 1530,
      "=\"../../": 1531,
      "istory": 1532,
      "ĠDe": 1533,
      "Ġthese": 1534,
      "Ġteam": 1535,
      "fl": 1536,
      "ants": 1537,
      "$\\": 1538,
      "load": 1539,
      "oad": 1540,
      "rite": 1541,
      "Ġwell": 1542,
      "lished": 1543,
      "go": 1544,
      "ootball": 1545,
      "Ġ\\\\": 1546,
      "ency": 1547,
      "Ġfl": 1548,
      "(),": 1549,
      "quot": 1550,
      "itial": 1551,
      "http": 1552,
      "Ġwrit": 1553,
      "duct": 1554,
      "summary": 1555,
      "iving": 1556,
      "table": 1557,
      "mathbb": 1558,
      "med": 1559,
      "af": 1560,
      "Ġgo": 1561,
      "ather": 1562,
      "Ġart": 1563,
      "}_{": 1564,
      "Ġcurrent": 1565,
      "box": 1566,
      "],": 1567,
      "Ġarg": 1568,
      "Ġbuild": 1569,
      "rib": 1570,
      "Ġfam": 1571,
      "reak": 1572,
      "igma": 1573,
      "\".": 1574,
      "rop": 1575,
      "ervice": 1576,
      "ike": 1577,
      "For": 1578,
      "Ġthem": 1579,
      "Ġfollowing": 1580,
      "group": 1581,
      "Ġeff": 1582,
      "mon": 1583,
      "my": 1584,
      "ina": 1585,
      "ives": 1586,
      "anager": 1587,
      "Al": 1588,
      "ackage": 1589,
      "UL": 1590,
      "array": 1591,
      "que": 1592,
      "path": 1593,
      "lob": 1594,
      "An": 1595,
      "void": 1596,
      "usic": 1597,
      "Ġbefore": 1598,
      "rem": 1599,
      "part": 1600,
      "ected": 1601,
      "Ġboth": 1602,
      "195": 1603,
      "ui": 1604,
      "23": 1605,
      "irc": 1606,
      "her": 1607,
      "arly": 1608,
      "Ġ/>": 1609,
      "reat": 1610,
      "64": 1611,
      "Ġatt": 1612,
      "ograph": 1613,
      "hat": 1614,
      "Ġmed": 1615,
      "ober": 1616,
      "uration": 1617,
      "ports": 1618,
      "Ġsol": 1619,
      "ense": 1620,
      "bf": 1621,
      "utton": 1622,
      "ega": 1623,
      "Ġbeing": 1624,
      "const": 1625,
      "Ġcall": 1626,
      "ĠEng": 1627,
      "ĠSc": 1628,
      "gram": 1629,
      "Time": 1630,
      "Ġmem": 1631,
      "ĠIs": 1632,
      "ush": 1633,
      "user": 1634,
      "ays": 1635,
      "aid": 1636,
      "ponse": 1637,
      "Ġbr": 1638,
      "Ġmade": 1639,
      "}^{": 1640,
      "Ġperform": 1641,
      "uffer": 1642,
      "Ġpop": 1643,
      "ohn": 1644,
      "ural": 1645,
      "Ġnon": 1646,
      "Ġfr": 1647,
      "Ġshould": 1648,
      "ho": 1649,
      "Text": 1650,
      "istr": 1651,
      "\":": 1652,
      "Ġrecord": 1653,
      "owever": 1654,
      "Ġmain": 1655,
      "ically": 1656,
      "gy": 1657,
      "ane": 1658,
      "ĠOn": 1659,
      "itor": 1660,
      "Ġplayers": 1661,
      "itions": 1662,
      "Ġresp": 1663,
      "Ġevent": 1664,
      "md": 1665,
      "eters": 1666,
      "Ġorder": 1667,
      "Ġz": 1668,
      "ains": 1669,
      "-\\": 1670,
      "Ġ);": 1671,
      "mit": 1672,
      "Ġsur": 1673,
      "mand": 1674,
      "etwork": 1675,
      "Ġour": 1676,
      "ĠMar": 1677,
      "iginal": 1678,
      "ĠStates": 1679,
      "bum": 1680,
      "Ġgiven": 1681,
      "RO": 1682,
      "atri": 1683,
      "ission": 1684,
      "Info": 1685,
      "ox": 1686,
      "Ġsize": 1687,
      "Ġappro": 1688,
      "enn": 1689,
      "anu": 1690,
      "ats": 1691,
      "Node": 1692,
      "ful": 1693,
      "cd": 1694,
      "Ġpass": 1695,
      "Ġhand": 1696,
      "Event": 1697,
      "phi": 1698,
      "33": 1699,
      "ral": 1700,
      "Element": 1701,
      "Ġbeg": 1702,
      "tribute": 1703,
      "Request": 1704,
      "opy": 1705,
      "ross": 1706,
      "ension": 1707,
      "Field": 1708,
      "/*": 1709,
      "ION": 1710,
      "Ġ?": 1711,
      "bed": 1712,
      "AC": 1713,
      "].": 1714,
      "Ġlater": 1715,
      "Def": 1716,
      "formation": 1717,
      "Int": 1718,
      "ogle": 1719,
      "Ġpartic": 1720,
      "ulation": 1721,
      "âĢĿ": 1722,
      "ustr": 1723,
      "ica": 1724,
      "``": 1725,
      "Ġdifferent": 1726,
      "Add": 1727,
      "^{\\": 1728,
      "config": 1729,
      "};": 1730,
      "Ġelement": 1731,
      "ĠRe": 1732,
      "Ġknown": 1733,
      "PE": 1734,
      "ĠShe": 1735,
      "Path": 1736,
      "lambda": 1737,
      "Ġlocal": 1738,
      "Ġpar": 1739,
      "Ġmany": 1740,
      "off": 1741,
      "Ġimport": 1742,
      "unc": 1743,
      "length": 1744,
      "Ġ{\\": 1745,
      "uthor": 1746,
      "olean": 1747,
      "Ġfilm": 1748,
      "Ġstruct": 1749,
      "Ġterm": 1750,
      "Ġassert": 1751,
      "())": 1752,
      "aining": 1753,
      "Item": 1754,
      "':": 1755,
      "ĠPr": 1756,
      "une": 1757,
      "Ġthrow": 1758,
      "uch": 1759,
      "Ġright": 1760,
      "word": 1761,
      "Ġneed": 1762,
      "Ġsupport": 1763,
      "des": 1764,
      "aces": 1765,
      "omen": 1766,
      "ley": 1767,
      "dt": 1768,
      "search": 1769,
      "Qu": 1770,
      "Ġmon": 1771,
      "Ġown": 1772,
      "Not": 1773,
      "Ġu": 1774,
      "ases": 1775,
      "ounty": 1776,
      "Ġ-->": 1777,
      "Ġerror": 1778,
      "Config": 1779,
      "/**": 1780,
      "Ġdevelop": 1781,
      "ague": 1782,
      "Ġmov": 1783,
      "bol": 1784,
      "Param": 1785,
      "...": 1786,
      "igned": 1787,
      "Ġexpect": 1788,
      "iter": 1789,
      "ology": 1790,
      "els": 1791,
      "idd": 1792,
      "fin": 1793,
      "ĠĠĠĠĠĠĠĠĠĠĠĠĠĠĠĠĠĠĠĠĠĠĠĠĠĠĠ": 1794,
      "Index": 1795,
      "State": 1796,
      "pert": 1797,
      "ĠCl": 1798,
      "ride": 1799,
      "LA": 1800,
      "ner": 1801,
      "Ġappe": 1802,
      "ai": 1803,
      "mathbf": 1804,
      "TE": 1805,
      "sk": 1806,
      "map": 1807,
      "TR": 1808,
      "stance": 1809,
      "Map": 1810,
      "Ġbir": 1811,
      "Ġrequest": 1812,
      "ĠĠĊ": 1813,
      "27": 1814,
      "Ġincluding": 1815,
      "ths": 1816,
      "ĠIf": 1817,
      "Equ": 1818,
      "Ġcontin": 1819,
      "Ġfour": 1820,
      "ounc": 1821,
      "Ġbro": 1822,
      "40": 1823,
      "ek": 1824,
      "Over": 1825,
      "Context": 1826,
      "ape": 1827,
      "Des": 1828,
      "api": 1829,
      "ĠOr": 1830,
      "ior": 1831,
      "Ġseason": 1832,
      "Form": 1833,
      "ĠPh": 1834,
      "Ġprocess": 1835,
      "Ġaut": 1836,
      "Ġread": 1837,
      "Ġbel": 1838,
      "ĠRes": 1839,
      "ctions": 1840,
      "arge": 1841,
      "PI": 1842,
      "28": 1843,
      "pty": 1844,
      "';": 1845,
      "Or": 1846,
      "amespace": 1847,
      "26": 1848,
      "sec": 1849,
      "\"\"": 1850,
      "Ġfootball": 1851,
      "ually": 1852,
      "ĠBr": 1853,
      "amed": 1854,
      "Ġopen": 1855,
      "icon": 1856,
      "####": 1857,
      "mb": 1858,
      "umer": 1859,
      "Ġ(!": 1860,
      "With": 1861,
      "model": 1862,
      "arri": 1863,
      "ium": 1864,
      "https": 1865,
      "Ġrece": 1866,
      "ponent": 1867,
      "Ġfin": 1868,
      "block": 1869,
      "ilon": 1870,
      "ality": 1871,
      "Ġchild": 1872,
      "eps": 1873,
      "node": 1874,
      "Ġschool": 1875,
      "Ġtext": 1876,
      "apache": 1877,
      "oss": 1878,
      "Ġlead": 1879,
      "ĠMay": 1880,
      "We": 1881,
      "Ġtem": 1882,
      "Ġ});": 1883,
      "'t": 1884,
      "Ġ,": 1885,
      "uro": 1886,
      "por": 1887,
      "ĠWorld": 1888,
      "Ġseries": 1889,
      "Ġalbum": 1890,
      "Ġever": 1891,
      "Ġstyle": 1892,
      "Ġmet": 1893,
      "ĠJohn": 1894,
      "[]": 1895,
      "duced": 1896,
      "Ġdisc": 1897,
      "Service": 1898,
      "true": 1899,
      "ĠGr": 1900,
      "Ġagainst": 1901,
      "title": 1902,
      "Ġestab": 1903,
      "input": 1904,
      "Array": 1905,
      "Ġsince": 1906,
      "lp": 1907,
      "lack": 1908,
      "center": 1909,
      "Ġarray": 1910,
      "beta": 1911,
      "Ġcalled": 1912,
      "iev": 1913,
      "odes": 1914,
      "Ġlast": 1915,
      "ymbol": 1916,
      "ĠAt": 1917,
      "ĠNational": 1918,
      "Ġtop": 1919,
      "lected": 1920,
      "Ġnow": 1921,
      "ternational": 1922,
      "result": 1923,
      "Ġdefault": 1924,
      "from": 1925,
      "Ġ/*": 1926,
      "Ġleft": 1927,
      "ret": 1928,
      "29": 1929,
      "Ġdescri": 1930,
      "Size": 1931,
      "Ġtarget": 1932,
      "urch": 1933,
      "Result": 1934,
      "Ġop": 1935,
      "Ġgu": 1936,
      "Build": 1937,
      "sigma": 1938,
      "ari": 1939,
      "Ġgovern": 1940,
      "IC": 1941,
      "Ġconsider": 1942,
      "Ġref": 1943,
      "Ġcoun": 1944,
      "Ġrefer": 1945,
      "Ġbecame": 1946,
      "ends": 1947,
      "object": 1948,
      "pan": 1949,
      "Ġ},": 1950,
      "****************": 1951,
      "plication": 1952,
      "ided": 1953,
      "utes": 1954,
      "ification": 1955,
      "acter": 1956,
      "Ġfact": 1957,
      "Ġvari": 1958,
      "uage": 1959,
      "inc": 1960,
      "mathrm": 1961,
      "Ġrepresent": 1962,
      "Ġcontent": 1963,
      "ively": 1964,
      "Ġlog": 1965,
      "next": 1966,
      "Ġversion": 1967,
      "aster": 1968,
      "Ġsmall": 1969,
      "urs": 1970,
      "ĠCan": 1971,
      "ĠâĢľ": 1972,
      "ync": 1973,
      "Ġallow": 1974,
      "////////": 1975,
      "ilde": 1976,
      "iled": 1977,
      "ait": 1978,
      "ateg": 1979,
      "ential": 1980,
      "ene": 1981,
      "Fr": 1982,
      "eturn": 1983,
      "vert": 1984,
      "ĠCar": 1985,
      "ital": 1986,
      "=\"../../../../": 1987,
      "Ġbased": 1988,
      "ilt": 1989,
      "ttp": 1990,
      "side": 1991,
      "}{\\": 1992,
      "chn": 1993,
      "vious": 1994,
      "lt": 1995,
      "version": 1996,
      "head": 1997,
      "UR": 1998,
      "Message": 1999,
      "valid": 2000,
      "abled": 2001,
      "enu": 2002,
      "less": 2003,
      "2016": 2004,
      "Code": 2005,
      "error": 2006,
      "au": 2007,
      "FF": 2008,
      "plate": 2009,
      "Hand": 2010,
      "no": 2011,
      "Ġcould": 2012,
      "body": 2013,
      "Ġ(\\": 2014,
      "This": 2015,
      "ustom": 2016,
      "lear": 2017,
      "^{-": 2018,
      "assert": 2019,
      "ained": 2020,
      "perties": 2021,
      "gt": 2022,
      "sw": 2023,
      "vir": 2024,
      "Ġuntil": 2025,
      "ĠYork": 2026,
      "nder": 2027,
      "net": 2028,
      "duction": 2029,
      "ĠBrit": 2030,
      "iction": 2031,
      "liam": 2032,
      "bs": 2033,
      "ides": 2034,
      "Ġmake": 2035,
      "Ġjava": 2036,
      "met": 2037,
      "Ġuser": 2038,
      "create": 2039,
      "ĠCounty": 2040,
      ";&": 2041,
      "ĠWar": 2042,
      "ches": 2043,
      "='": 2044,
      "ĠAd": 2045,
      "ended": 2046,
      "loat": 2047,
      "Ġprot": 2048,
      ".,": 2049,
      "Ġbecause": 2050,
      "Ġdoes": 2051,
      "imit": 2052,
      "tract": 2053,
      "Ġsever": 2054,
      "figure": 2055,
      "ĠJul": 2056,
      ">&": 2057,
      "ling": 2058,
      "tings": 2059,
      "ources": 2060,
      "Ġfamily": 2061,
      "ags": 2062,
      "Ġpres": 2063,
      "arrow": 2064,
      "Ph": 2065,
      "ĠSystem": 2066,
      "Ġvis": 2067,
      "2015": 2068,
      "*}": 2069,
      "default": 2070,
      "evice": 2071,
      "lobal": 2072,
      "Ġsrc": 2073,
      "++": 2074,
      "Ġmult": 2075,
      "ĠPar": 2076,
      "2010": 2077,
      "AD": 2078,
      "ilter": 2079,
      "aking": 2080,
      "info": 2081,
      "Ġbu": 2082,
      "ĠSchool": 2083,
      "cale": 2084,
      "ival": 2085,
      "Ġdep": 2086,
      "tab": 2087,
      "Ġpresent": 2088,
      "ians": 2089,
      "Ġlike": 2090,
      "olds": 2091,
      "ĠNov": 2092,
      "ouble": 2093,
      "max": 2094,
      "gamma": 2095,
      "ience": 2096,
      "ĠGerm": 2097,
      "Ġcare": 2098,
      "2017": 2099,
      "Val": 2100,
      "big": 2101,
      "Ġjust": 2102,
      "LO": 2103,
      "atrix": 2104,
      "ird": 2105,
      "cope": 2106,
      "point": 2107,
      "2014": 2108,
      "Ġpath": 2109,
      "state": 2110,
      "Ġfind": 2111,
      "Ġexp": 2112,
      "^\\": 2113,
      "Ġexample": 2114,
      "Ġsong": 2115,
      "Ġpolit": 2116,
      "Ġdeath": 2117,
      "UT": 2118,
      "ustral": 2119,
      "tn": 2120,
      "60": 2121,
      "ugust": 2122,
      "Ġresults": 2123,
      "quad": 2124,
      "ĠSouth": 2125,
      "193": 2126,
      "space": 2127,
      "ajor": 2128,
      "ised": 2129,
      "itional": 2130,
      "ability": 2131,
      "ormal": 2132,
      "|-": 2133,
      "reate": 2134,
      "Of": 2135,
      "+\\": 2136,
      "Ġoriginal": 2137,
      "Ġvalues": 2138,
      "Ġblock": 2139,
      "Ġbase": 2140,
      "2018": 2141,
      "ampion": 2142,
      "Ġsingle": 2143,
      "Ġ$(": 2144,
      "anuary": 2145,
      "ored": 2146,
      "Is": 2147,
      "comp": 2148,
      "nection": 2149,
      "la": 2150,
      "wards": 2151,
      "Loc": 2152,
      "include": 2153,
      "Ġcommun": 2154,
      "Ġprogram": 2155,
      "css": 2156,
      "Ġhead": 2157,
      "ourn": 2158,
      "ĠReg": 2159,
      "atter": 2160,
      "ĠWest": 2161,
      "start": 2162,
      "Ġ()": 2163,
      "Ġnode": 2164,
      "ML": 2165,
      "delta": 2166,
      "Ġeffect": 2167,
      "2020": 2168,
      "java": 2169,
      "lin": 2170,
      "ĠCent": 2171,
      "ptember": 2172,
      "content": 2173,
      "2011": 2174,
      "ison": 2175,
      "Ġ:=": 2176,
      "MA": 2177,
      "pm": 2178,
      "ĠGe": 2179,
      "Ġinput": 2180,
      "alth": 2181,
      "theta": 2182,
      "ift": 2183,
      "Ġ===": 2184,
      "Model": 2185,
      "ety": 2186,
      "80": 2187,
      "rist": 2188,
      ")}": 2189,
      "ination": 2190,
      "Ser": 2191,
      "Ġpub": 2192,
      "Ġocc": 2193,
      "tal": 2194,
      "2012": 2195,
      "ae": 2196,
      "android": 2197,
      "rho": 2198,
      "ony": 2199,
      "IG": 2200,
      "2013": 2201,
      "Ġarea": 2202,
      "ctober": 2203,
      "Ġcode": 2204,
      "ĠPl": 2205,
      "Manager": 2206,
      "mber": 2207,
      "Ġann": 2208,
      "using": 2209,
      "Log": 2210,
      "Ġcheck": 2211,
      "olv": 2212,
      "sup": 2213,
      "rec": 2214,
      "itch": 2215,
      "Ġcond": 2216,
      "Ġmust": 2217,
      "down": 2218,
      "base": 2219,
      "tau": 2220,
      "ails": 2221,
      "ĠAnd": 2222,
      "position": 2223,
      "Ġbreak": 2224,
      "ĉĉĉĉĉĉ": 2225,
      "ottom": 2226,
      "aint": 2227,
      "istor": 2228,
      "ypes": 2229,
      "Ġmax": 2230,
      "Ġcreate": 2231,
      "Ġnext": 2232,
      "leq": 2233,
      "Ġmusic": 2234,
      "vision": 2235,
      "Ġlevel": 2236,
      "User": 2237,
      "ĠMarch": 2238,
      "ĠWh": 2239,
      "Ġgame": 2240,
      "Ġ__": 2241,
      "2019": 2242,
      "ender": 2243,
      "bu": 2244,
      "ĠPol": 2245,
      "Ġorgan": 2246,
      "icial": 2247,
      "Ġsuccess": 2248,
      "package": 2249,
      "--------------------------------": 2250,
      "From": 2251,
      "]{": 2252,
      "option": 2253,
      "ĠAugust": 2254,
      "ĠWil": 2255,
      "Ġcr": 2256,
      "=\"../": 2257,
      "Color": 2258,
      "Ġevery": 2259,
      "Ġconfig": 2260,
      "see": 2261,
      "ING": 2262,
      "come": 2263,
      "elete": 2264,
      "Pl": 2265,
      "oin": 2266,
      "ĠJanuary": 2267,
      "tainer": 2268,
      "Ġyour": 2269,
      "google": 2270,
      "Ġplace": 2271,
      "tes": 2272,
      "Out": 2273,
      "roller": 2274,
      "with": 2275,
      "Ġdid": 2276,
      "arm": 2277,
      "Table": 2278,
      "iod": 2279,
      "Ġmark": 2280,
      "style": 2281,
      "ĠCal": 2282,
      "elect": 2283,
      "aut": 2284,
      "Ġlife": 2285,
      "ĠSeptember": 2286,
      "define": 2287,
      "Ġincre": 2288,
      "pril": 2289,
      "Ġproject": 2290,
      "sq": 2291,
      "TD": 2292,
      "ances": 2293,
      "Ġ};": 2294,
      ";</": 2295,
      "oman": 2296,
      "uk": 2297,
      "Ġseveral": 2298,
      "Ġposs": 2299,
      "ness": 2300,
      "Group": 2301,
      "$-": 2302,
      "Ġinitial": 2303,
      "Ġinstance": 2304,
      "ĠGet": 2305,
      "Ġlarge": 2306,
      "Ġcap": 2307,
      "resp": 2308,
      "ken": 2309,
      "light": 2310,
      "Ġsaid": 2311,
      "ĠList": 2312,
      "lege": 2313,
      "=\"#": 2314,
      "cast": 2315,
      "ideo": 2316,
      "Ġview": 2317,
      "ULL": 2318,
      "ED": 2319,
      "Ġmap": 2320,
      "Ġdi": 2321,
      "context": 2322,
      "ansp": 2323,
      "Ġold": 2324,
      "ched": 2325,
      "Inter": 2326,
      "born": 2327,
      "Ġav": 2328,
      "eqref": 2329,
      "Ġbook": 2330,
      "Ġinformation": 2331,
      "ĠOctober": 2332,
      "ĠGu": 2333,
      "dom": 2334,
      "Up": 2335,
      "Ġcontext": 2336,
      "lem": 2337,
      "Ġindex": 2338,
      "Arg": 2339,
      "ĠÐ": 2340,
      "ung": 2341,
      "SC": 2342,
      "stru": 2343,
      "iness": 2344,
      "ixed": 2345,
      "cember": 2346,
      "event": 2347,
      "Ġwithin": 2348,
      "ĠState": 2349,
      "sl": 2350,
      "Ġposition": 2351,
      "ero": 2352,
      "ĠJune": 2353,
      "Rec": 2354,
      "olution": 2355,
      "pression": 2356,
      "ording": 2357,
      "Ġident": 2358,
      "Ġman": 2359,
      "Ġlaw": 2360,
      "Ġprom": 2361,
      "akes": 2362,
      "print": 2363,
      "times": 2364,
      "ebug": 2365,
      "Ġdistrib": 2366,
      "Ġwhat": 2367,
      "Ġsee": 2368,
      "Ġreleased": 2369,
      "Trans": 2370,
      "ĠâĢĶ": 2371,
      "urther": 2372,
      "Ġpost": 2373,
      "See": 2374,
      "2009": 2375,
      "ĠJuly": 2376,
      "ators": 2377,
      "prot": 2378,
      "ĠAll": 2379,
      "de": 2380,
      "ware": 2381,
      "count": 2382,
      "check": 2383,
      "New": 2384,
      "ivity": 2385,
      "Ġitem": 2386,
      "web": 2387,
      "Ġlet": 2388,
      "Ġdown": 2389,
      "ET": 2390,
      "Ġinclude": 2391,
      "aced": 2392,
      "Ġformer": 2393,
      "Reg": 2394,
      "Ġnear": 2395,
      "Pr": 2396,
      "Ġalong": 2397,
      "alk": 2398,
      "Ġstand": 2399,
      "ithub": 2400,
      "2008": 2401,
      "99": 2402,
      "ately": 2403,
      "ĠAustral": 2404,
      "ords": 2405,
      "Ã¡": 2406,
      "ploy": 2407,
      "doc": 2408,
      "Property": 2409,
      "omet": 2410,
      "Ġworld": 2411,
      "angle": 2412,
      ")</": 2413,
      "All": 2414,
      "Ġservice": 2415,
      "ued": 2416,
      "================": 2417,
      "}(\\": 2418,
      "Ġdue": 2419,
      "urope": 2420,
      "Dis": 2421,
      "Ġwon": 2422,
      "45": 2423,
      "AB": 2424,
      "Ġplayed": 2425,
      "aving": 2426,
      "ĠApril": 2427,
      "static": 2428,
      "Ġexper": 2429,
      "Ð°": 2430,
      "core": 2431,
      "Ġbound": 2432,
      "ocus": 2433,
      "ĠĠĠĠĠĠĠĠĠĠ": 2434,
      "annel": 2435,
      "ifier": 2436,
      "day": 2437,
      "false": 2438,
      "ailable": 2439,
      "icy": 2440,
      "MP": 2441,
      "<!--": 2442,
      "Ġbool": 2443,
      "Ġvery": 2444,
      "Ġnil": 2445,
      "System": 2446,
      "itt": 2447,
      "ius": 2448,
      "Override": 2449,
      "ales": 2450,
      "ĠNorth": 2451,
      "ze": 2452,
      "Query": 2453,
      "CH": 2454,
      "Ġmatch": 2455,
      "Ġandroid": 2456,
      "ilit": 2457,
      "urg": 2458,
      "Ad": 2459,
      "Client": 2460,
      "atures": 2461,
      "ibr": 2462,
      "ĠNovember": 2463,
      "Ġthose": 2464,
      "Ġpo": 2465,
      "www": 2466,
      "190": 2467,
      "DO": 2468,
      "partial": 2469,
      "db": 2470,
      "Ġstd": 2471,
      "urity": 2472,
      "Response": 2473,
      "ĠCity": 2474,
      "hes": 2475,
      "ĠII": 2476,
      "ĠĠĠĠĠĠĠĠĠĠĠĠ": 2477,
      "aff": 2478,
      "Ġeven": 2479,
      "nu": 2480,
      "ĠEd": 2481,
      "ĠCo": 2482,
      "Ġrad": 2483,
      "ĠDecember": 2484,
      "Ġtri": 2485,
      "Ġcity": 2486,
      "Ġchang": 2487,
      "Call": 2488,
      "Ġgeneral": 2489,
      "github": 2490,
      "Method": 2491,
      "button": 2492,
      "aly": 2493,
      "method": 2494,
      "acy": 2495,
      "ĠSp": 2496,
      "refer": 2497,
      "Ġobtain": 2498,
      "90": 2499,
      "ĠBritish": 2500,
      "eger": 2501,
      "Builder": 2502,
      "ĠThey": 2503,
      "2007": 2504,
      "plement": 2505,
      "raft": 2506,
      "uted": 2507,
      ">(": 2508,
      "arr": 2509,
      "ux": 2510,
      "IS": 2511,
      "argin": 2512,
      "Ġcolor": 2513,
      "Ġmy": 2514,
      "thern": 2515,
      "ĠBe": 2516,
      "Ġtry": 2517,
      "Ġperson": 2518,
      "Ġsource": 2519,
      "Ġearly": 2520,
      "Ġlang": 2521,
      "earch": 2522,
      "stit": 2523,
      "75": 2524,
      "oper": 2525,
      "Count": 2526,
      "ography": 2527,
      "ules": 2528,
      "where": 2529,
      "ĠHowever": 2530,
      "Ġenc": 2531,
      "rt": 2532,
      "uck": 2533,
      "ada": 2534,
      "uments": 2535,
      "Ġoptions": 2536,
      "Cl": 2537,
      "UN": 2538,
      "](": 2539,
      "Ġmembers": 2540,
      "Ġconf": 2541,
      "Ġaround": 2542,
      "Ġbirths": 2543,
      "ĠĠĠĠĠĠĠĠĠĠĠĠĠĠĠĠĠĠĠĠĠĠĠĠĠĠĠĠĠĠĠ": 2544,
      "ume": 2545,
      "ebru": 2546,
      "bl": 2547,
      "2006": 2548,
      "call": 2549,
      "lex": 2550,
      "build": 2551,
      "Ġcomput": 2552,
      "ead": 2553,
      "Mod": 2554,
      "onse": 2555,
      "Ġmember": 2556,
      "2000": 2557,
      "Ġpower": 2558,
      "35": 2559,
      "Ġeng": 2560,
      "apan": 2561,
      "CE": 2562,
      "Ġcommand": 2563,
      "|\\": 2564,
      "oken": 2565,
      "ique": 2566,
      "aterial": 2567,
      "ped": 2568,
      "itive": 2569,
      "ebruary": 2570,
      "ĠRep": 2571,
      "usiness": 2572,
      "century": 2573,
      "ampionship": 2574,
      "Ġproble": 2575,
      "Ġbackground": 2576,
      "semb": 2577,
      "Ġsum": 2578,
      "Ġla": 2579,
      "TH": 2580,
      "tual": 2581,
      "nect": 2582,
      "Ġret": 2583,
      "Ġdiv": 2584,
      "options": 2585,
      "Ġdocument": 2586,
      "66": 2587,
      "ĠLeague": 2588,
      "Ġreport": 2589,
      "ĠMin": 2590,
      "Ġborder": 2591,
      "Ġresponse": 2592,
      "ĠSet": 2593,
      "ĠYou": 2594,
      "ENT": 2595,
      "Ġprevious": 2596,
      "actory": 2597,
      "Bar": 2598,
      "fty": 2599,
      "Ġwidth": 2600,
      "Ð¾": 2601,
      "dir": 2602,
      "}$,": 2603,
      "Ġnetwork": 2604,
      "Ġtable": 2605,
      "respond": 2606,
      "current": 2607,
      "Ġexpl": 2608,
      "ning": 2609,
      "Ġshort": 2610,
      "ependent": 2611,
      "}$.": 2612,
      "ĠEn": 2613,
      "inition": 2614,
      "Ġgovernment": 2615,
      "ĠAss": 2616,
      "ĠKing": 2617,
      "infty": 2618,
      "Ġproperty": 2619,
      "ection": 2620,
      "namespace": 2621,
      "ham": 2622,
      "Ġleg": 2623,
      "rel": 2624,
      "lick": 2625,
      "ĠEurope": 2626,
      "ĠTe": 2627,
      "finished": 2628,
      "Ġband": 2629,
      "Ġcontrol": 2630,
      "Ġalign": 2631,
      "Ġreal": 2632,
      "tilde": 2633,
      "asure": 2634,
      "Ġregion": 2635,
      "ilar": 2636,
      "Ġway": 2637,
      "utions": 2638,
      "atab": 2639,
      "ĠIm": 2640,
      "Ġhelp": 2641,
      "Ġexist": 2642,
      "Ġmag": 2643,
      "null": 2644,
      "ama": 2645,
      "Ġsw": 2646,
      "Ġtotal": 2647,
      "Date": 2648,
      "ocial": 2649,
      "ĠUS": 2650,
      "Ġspace": 2651,
      "lib": 2652,
      "Gener": 2653,
      "aim": 2654,
      "Delta": 2655,
      "Ġcharacter": 2656,
      "Ġopt": 2657,
      "Ġadv": 2658,
      "IL": 2659,
      "Ġprof": 2660,
      "Ġobserv": 2661,
      "query": 2662,
      "arning": 2663,
      "Ġmessage": 2664,
      "Ġsk": 2665,
      "gress": 2666,
      "ĠĠĠĠĠĠĠĠĠĠĠĠĠĠĠĠĠ": 2667,
      "Ġcour": 2668,
      "Ġhow": 2669,
      "leg": 2670,
      "omega": 2671,
      "Ġassoci": 2672,
      "ĠSec": 2673,
      "bit": 2674,
      "yl": 2675,
      "ĠPart": 2676,
      "Ġnamed": 2677,
      "ards": 2678,
      "Ġland": 2679,
      "icle": 2680,
      "Ġdesign": 2681,
      "Ġdel": 2682,
      "Stream": 2683,
      "Ġtele": 2684,
      "Ġaddress": 2685,
      "ĠčĊ": 2686,
      "aper": 2687,
      "Ġwomen": 2688,
      "Ġfilms": 2689,
      "hand": 2690,
      "xi": 2691,
      "Ġdem": 2692,
      "Sub": 2693,
      "Ġwithout": 2694,
      "posed": 2695,
      "ana": 2696,
      "lose": 2697,
      "((": 2698,
      "Ġstill": 2699,
      "Ġfa": 2700,
      "Ġpat": 2701,
      "struction": 2702,
      "anch": 2703,
      "ĉĊ": 2704,
      "Ġiss": 2705,
      "viron": 2706,
      "illion": 2707,
      "client": 2708,
      "sim": 2709,
      "IP": 2710,
      "riter": 2711,
      "NA": 2712,
      "])": 2713,
      "ĠFebruary": 2714,
      "Ġlarg": 2715,
      "rench": 2716,
      "dl": 2717,
      "ĠSup": 2718,
      "Ġcareer": 2719,
      "Ġcompet": 2720,
      "jav": 2721,
      "ij": 2722,
      "Off": 2723,
      "Ġmajor": 2724,
      "cond": 2725,
      "ĠNo": 2726,
      "End": 2727,
      "Ġrespect": 2728,
      "unfinished": 2729,
      "Ġtown": 2730,
      "reen": 2731,
      "55": 2732,
      "Input": 2733,
      "erg": 2734,
      "Ġrequire": 2735,
      "Ġ<<": 2736,
      "Par": 2737,
      "ories": 2738,
      "Util": 2739,
      "ven": 2740,
      "imal": 2741,
      "iment": 2742,
      "Ġexec": 2743,
      "ops": 2744,
      "opt": 2745,
      "ĠSw": 2746,
      "args": 2747,
      "capt": 2748,
      "34": 2749,
      "ĠGener": 2750,
      "php": 2751,
      "ster": 2752,
      "Ġhome": 2753,
      "image": 2754,
      "ached": 2755,
      "ced": 2756,
      "Pos": 2757,
      "orem": 2758,
      "height": 2759,
      "ugg": 2760,
      "70": 2761,
      "ino": 2762,
      "request": 2763,
      "Ġaction": 2764,
      "ĠAfter": 2765,
      "older": 2766,
      "idge": 2767,
      "Ġanother": 2768,
      "Ġelect": 2769,
      "American": 2770,
      "Sc": 2771,
      "Status": 2772,
      "AS": 2773,
      "run": 2774,
      "OT": 2775,
      "31": 2776,
      "ĠRec": 2777,
      "osed": 2778,
      "cit": 2779,
      "Block": 2780,
      "2021": 2781,
      "And": 2782,
      "adem": 2783,
      "Ðµ": 2784,
      "ĠBo": 2785,
      "lor": 2786,
      "uster": 2787,
      "ending": 2788,
      "Ġstat": 2789,
      "place": 2790,
      "US": 2791,
      "cdot": 2792,
      "ĠChrist": 2793,
      "Ġbeh": 2794,
      "Ed": 2795,
      "func": 2796,
      "Ġimp": 2797,
      "0000": 2798,
      "Ġboolean": 2799,
      "ĠBy": 2800,
      "ONT": 2801,
      "chema": 2802,
      "ayout": 2803,
      "umb": 2804,
      "Ġdom": 2805,
      "ES": 2806,
      "gor": 2807,
      "Ġ($": 2808,
      "Ġreceived": 2809,
      "DI": 2810,
      "Ġoutput": 2811,
      "Nav": 2812,
      "Ġrange": 2813,
      "Ġrole": 2814,
      "prov": 2815,
      "ese": 2816,
      "kn": 2817,
      "hip": 2818,
      "iff": 2819,
      "tra": 2820,
      "Ġbegan": 2821,
      "Image": 2822,
      "Ġbas": 2823,
      "cho": 2824,
      "ĠSer": 2825,
      "adding": 2826,
      "2005": 2827,
      "ĠMed": 2828,
      "ĠĠĠĠĠĠĠĠĊ": 2829,
      "39": 2830,
      "Ġperiod": 2831,
      "rad": 2832,
      "imum": 2833,
      "Ġparent": 2834,
      "Ġheld": 2835,
      "Ġcar": 2836,
      "Ġday": 2837,
      "Ġside": 2838,
      "server": 2839,
      "Ġvol": 2840,
      "ither": 2841,
      "Ġes": 2842,
      "Ġbest": 2843,
      "raphics": 2844,
      "iple": 2845,
      "}[": 2846,
      "alf": 2847,
      "Ġdefined": 2848,
      "ls": 2849,
      "Ġaccess": 2850,
      "Ġimage": 2851,
      "sequ": 2852,
      "Ġhistory": 2853,
      "ĠTo": 2854,
      "Be": 2855,
      "ĠEnglish": 2856,
      "rew": 2857,
      "ump": 2858,
      "oud": 2859,
      "Ġca": 2860,
      "Ġabove": 2861,
      "Ġcompany": 2862,
      "alt": 2863,
      "imate": 2864,
      "Ġlabel": 2865,
      "Str": 2866,
      "eqn": 2867,
      "ĠHis": 2868,
      "Ġestablished": 2869,
      "used": 2870,
      "Ġ->": 2871,
      "\\,": 2872,
      "andom": 2873,
      "page": 2874,
      "ney": 2875,
      "ways": 2876,
      "Ġpopulation": 2877,
      "ĠAb": 2878,
      "yles": 2879,
      "era": 2880,
      "ĠMc": 2881,
      "rest": 2882,
      "FA": 2883,
      "Instance": 2884,
      "Ġmass": 2885,
      "tx": 2886,
      "init": 2887,
      "({": 2888,
      "Ġlocated": 2889,
      "Ġsuper": 2890,
      "Ġdescribed": 2891,
      "ĠJapan": 2892,
      "Resource": 2893,
      "YPE": 2894,
      "creen": 2895,
      "Ġmuch": 2896,
      "ĠNULL": 2897,
      "header": 2898,
      "eder": 2899,
      "ready": 2900,
      "active": 2901,
      "Ġfull": 2902,
      "uman": 2903,
      "Ġtake": 2904,
      "Act": 2905,
      "Ġhouse": 2906,
      "ĠComm": 2907,
      "Ġfore": 2908,
      "undle": 2909,
      "mark": 2910,
      "ename": 2911,
      "Ġ\"\"\"": 2912,
      "btn": 2913,
      "Ġchildren": 2914,
      "atabase": 2915,
      "Ġtechn": 2916,
      "inary": 2917,
      "Base": 2918,
      "Ã³": 2919,
      "na": 2920,
      "istrict": 2921,
      "App": 2922,
      "ategory": 2923,
      "mo": 2924,
      "Ġmat": 2925,
      "Ġclub": 2926,
      "Ġbuilt": 2927,
      "Ġcount": 2928,
      "Ġpoints": 2929,
      "2004": 2930,
      "Ġep": 2931,
      "Ġauthor": 2932,
      "append": 2933,
      "ered": 2934,
      "Ġlength": 2935,
      "NS": 2936,
      "Ġspe": 2937,
      "Ġhere": 2938,
      "Ġchange": 2939,
      "Ġhost": 2940,
      "It": 2941,
      "Ġet": 2942,
      "$$": 2943,
      "ille": 2944,
      "rows": 2945,
      "Ġcompon": 2946,
      "){": 2947,
      "caption": 2948,
      "ondon": 2949,
      "ram": 2950,
      "ones": 2951,
      "gorith": 2952,
      "Ġcell": 2953,
      "ĠCor": 2954,
      "navbar": 2955,
      "Ġtook": 2956,
      "Token": 2957,
      "Ġrequired": 2958,
      "Ġport": 2959,
      "36": 2960,
      "REF": 2961,
      "adata": 2962,
      "Line": 2963,
      "has": 2964,
      "alys": 2965,
      "Handler": 2966,
      "ĠAfr": 2967,
      "Ġarch": 2968,
      "Ġtrack": 2969,
      "Source": 2970,
      "Ġintro": 2971,
      "Ġvill": 2972,
      "idget": 2973,
      "target": 2974,
      "Ġnational": 2975,
      "ĠHigh": 2976,
      "Ġparticular": 2977,
      "ĠBar": 2978,
      "vironment": 2979,
      "Attribute": 2980,
      "48": 2981,
      "No": 2982,
      "though": 2983,
      "Ġcreated": 2984,
      "Ġaff": 2985,
      "Action": 2986,
      "energy": 2987,
      "dec": 2988,
      "38": 2989,
      "ington": 2990,
      "Ġcorrespond": 2991,
      "df": 2992,
      "ables": 2993,
      "Ap": 2994,
      "pecial": 2995,
      "Ġpe": 2996,
      "Ġfeature": 2997,
      "Ġassum": 2998,
      "Ġdepend": 2999,
      "ĠRuss": 3000,
      "Ġpublished": 3001,
      "ĠMan": 3002,
      "Ġavailable": 3003,
      "xy": 3004,
      "rior": 3005,
      "cor": 3006,
      "Ġsimilar": 3007,
      "Equal": 3008,
      "imation": 3009,
      "ugin": 3010,
      "iet": 3011,
      "Null": 3012,
      "ĠAct": 3013,
      "Ġsection": 3014,
      "frame": 3015,
      "EE": 3016,
      "Ġdisplay": 3017,
      "ynam": 3018,
      "cm": 3019,
      "imary": 3020,
      "ĠQu": 3021,
      "TO": 3022,
      "Ġincluded": 3023,
      "Ġ+=": 3024,
      "Ġvalid": 3025,
      "Ġage": 3026,
      "ĠTest": 3027,
      "Component": 3028,
      "Ġstation": 3029,
      "parent": 3030,
      "''": 3031,
      "ns": 3032,
      "ialog": 3033,
      "hem": 3034,
      "Ð¸": 3035,
      "Select": 3036,
      "ention": 3037,
      "child": 3038,
      "non": 3039,
      "icense": 3040,
      "ocol": 3041,
      "ĠAdd": 3042,
      "Ġdeb": 3043,
      "Content": 3044,
      "Dec": 3045,
      "01": 3046,
      "aul": 3047,
      "unic": 3048,
      "xml": 3049,
      "ĠĠĠĠĠĠĠĠĠĠĠĠĠĠ": 3050,
      "ĠChar": 3051,
      "textbf": 3052,
      "Ġplayer": 3053,
      "Pol": 3054,
      "property": 3055,
      "json": 3056,
      "sembly": 3057,
      "Comp": 3058,
      "Ġcur": 3059,
      "igation": 3060,
      "reet": 3061,
      "post": 3062,
      "Default": 3063,
      "Ġknow": 3064,
      "lied": 3065,
      "ĠThere": 3066,
      "Ġrest": 3067,
      "strong": 3068,
      "oph": 3069,
      "SP": 3070,
      "ilitary": 3071,
      "epar": 3072,
      "Ġder": 3073,
      "Oper": 3074,
      "Ġden": 3075,
      "ĠCollege": 3076,
      "[\"": 3077,
      "dr": 3078,
      "EL": 3079,
      "ĠAir": 3080,
      "Command": 3081,
      "ĠDr": 3082,
      "Ġbl": 3083,
      "ours": 3084,
      "Options": 3085,
      "Ġdest": 3086,
      "Ġgames": 3087,
      "Point": 3088,
      "EX": 3089,
      "artment": 3090,
      "orage": 3091,
      "ĠEast": 3092,
      "37": 3093,
      "Ġpage": 3094,
      "eed": 3095,
      "Ġappear": 3096,
      "Link": 3097,
      "Buffer": 3098,
      "ĠDes": 3099,
      "}}\\": 3100,
      ")$.": 3101,
      "ibility": 3102,
      "istic": 3103,
      "Ġwant": 3104,
      "Om": 3105,
      "duce": 3106,
      "ansport": 3107,
      "yc": 3108,
      "uture": 3109,
      "Ġsit": 3110,
      "Ġeduc": 3111,
      ")(": 3112,
      "Ġserved": 3113,
      "idual": 3114,
      "iber": 3115,
      "pol": 3116,
      "epsilon": 3117,
      "psi": 3118,
      "bottom": 3119,
      "Ġsix": 3120,
      "44": 3121,
      "acing": 3122,
      "resh": 3123,
      "lim": 3124,
      "ief": 3125,
      "ering": 3126,
      "Ġinterest": 3127,
      "ĠLondon": 3128,
      "Ġcomb": 3129,
      "ÃŃ": 3130,
      "Ġthird": 3131,
      "Ġcentury": 3132,
      "ford": 3133,
      "2001": 3134,
      "Ġevents": 3135,
      "now": 3136,
      "ado": 3137,
      "select": 3138,
      "ĠPhil": 3139,
      "Ġnum": 3140,
      "Ġtimes": 3141,
      "ĠWilliam": 3142,
      "thers": 3143,
      "tributes": 3144,
      "element": 3145,
      "rl": 3146,
      "omic": 3147,
      "uation": 3148,
      "ĠFrench": 3149,
      "Ġcommon": 3150,
      "Run": 3151,
      "ĠMe": 3152,
      "ament": 3153,
      "Ġturn": 3154,
      "Ġfive": 3155,
      "Factory": 3156,
      "rect": 3157,
      "rs": 3158,
      "ude": 3159,
      "ouncil": 3160,
      "rict": 3161,
      "}_{\\": 3162,
      "foot": 3163,
      "^*": 3164,
      "Ġexpected": 3165,
      "Ġborn": 3166,
      "ald": 3167,
      "arried": 3168,
      "cul": 3169,
      "ently": 3170,
      "Ġsat": 3171,
      "Ġlow": 3172,
      "Sec": 3173,
      "ĠAmer": 3174,
      "ĠBl": 3175,
      "alysis": 3176,
      "2003": 3177,
      "ĠĠĠĠĠĠĠĠĠĠĠĠĊ": 3178,
      "Ġmanag": 3179,
      "Ġelection": 3180,
      "CC": 3181,
      "Ġarr": 3182,
      "known": 3183,
      "189": 3184,
      "ĠPres": 3185,
      "Ġsl": 3186,
      "meta": 3187,
      "Ġparameters": 3188,
      "Ġcrit": 3189,
      "izer": 3190,
      "si": 3191,
      "Ġspecial": 3192,
      "char": 3193,
      "Ġgrad": 3194,
      "Ġhttp": 3195,
      "vers": 3196,
      "ights": 3197,
      "Ġtask": 3198,
      "ĠFig": 3199,
      "flow": 3200,
      "ges": 3201,
      "ptr": 3202,
      "UE": 3203,
      "Ġreturned": 3204,
      "draw": 3205,
      "png": 3206,
      "lies": 3207,
      "ĠChampionship": 3208,
      "first": 3209,
      "LASS": 3210,
      "ured": 3211,
      "ĠGerman": 3212,
      "Start": 3213,
      "mar": 3214,
      "atform": 3215,
      "188": 3216,
      "module": 3217,
      "Ġdeterm": 3218,
      "display": 3219,
      "oto": 3220,
      "ĠClass": 3221,
      "65": 3222,
      "bm": 3223,
      "status": 3224,
      "Gamma": 3225,
      "Ġke": 3226,
      "find": 3227,
      "AP": 3228,
      "Ġcover": 3229,
      "aves": 3230,
      "OL": 3231,
      "open": 3232,
      "Omega": 3233,
      "${": 3234,
      "private": 3235,
      "ĠArt": 3236,
      "yd": 3237,
      "âĢĶ": 3238,
      "ĉĉĉĉĉĉĉĉ": 3239,
      "layout": 3240,
      "ught": 3241,
      "gener": 3242,
      "host": 3243,
      "ĠPark": 3244,
      "Ġresource": 3245,
      "ĠDistrict": 3246,
      "2002": 3247,
      "ertain": 3248,
      "Window": 3249,
      "rown": 3250,
      "src": 3251,
      "imension": 3252,
      "CK": 3253,
      "oke": 3254,
      "inst": 3255,
      "Ġ\\,": 3256,
      "ĠNone": 3257,
      "Ã¼": 3258,
      "Ġprint": 3259,
      "Ġbuilding": 3260,
      "Ġtelevision": 3261,
      "img": 3262,
      "write": 3263,
      "oice": 3264,
      "AG": 3265,
      "If": 3266,
      "mult": 3267,
      "entry": 3268,
      "iddle": 3269,
      "Version": 3270,
      "ĠHouse": 3271,
      "case": 3272,
      "Ġcamp": 3273,
      "Ġbusiness": 3274,
      "Function": 3275,
      "Ġspecies": 3276,
      "Ġmodels": 3277,
      "Ġlook": 3278,
      "ought": 3279,
      "ĠDef": 3280,
      "igr": 3281,
      "Ġparameter": 3282,
      "hel": 3283,
      "ĠComp": 3284,
      "FI": 3285,
      "ĠVal": 3286,
      "Ġdeg": 3287,
      "~~": 3288,
      "ÑĤ": 3289,
      "rowser": 3290,
      "});": 3291,
      "subsection": 3292,
      "ĠDav": 3293,
      "Task": 3294,
      "Ġwritten": 3295,
      "Ġweek": 3296,
      "True": 3297,
      "Ġresearch": 3298,
      "Ġprotected": 3299,
      "Number": 3300,
      "Frame": 3301,
      "ĠInt": 3302,
      "Ġheight": 3303,
      "Ġgood": 3304,
      "Ġdistrict": 3305,
      "Ġofficial": 3306,
      "ii": 3307,
      "unk": 3308,
      "OP": 3309,
      "ĠObject": 3310,
      "Ġcolumn": 3311,
      "pc": 3312,
      "Ġfew": 3313,
      "font": 3314,
      "ĠHar": 3315,
      "Ġbody": 3316,
      "ATE": 3317,
      "Ġenergy": 3318,
      "Us": 3319,
      "ha": 3320,
      "Ġ{@": 3321,
      "ĠLa": 3322,
      "icro": 3323,
      "Ġmeasure": 3324,
      "ogn": 3325,
      "HT": 3326,
      "Ġsent": 3327,
      "Ġoften": 3328,
      "Ġpossible": 3329,
      "std": 3330,
      "*/": 3331,
      "lymp": 3332,
      "psilon": 3333,
      "ĠBro": 3334,
      "Ġair": 3335,
      "sg": 3336,
      "ociation": 3337,
      "Ġmen": 3338,
      "description": 3339,
      "uid": 3340,
      "ascript": 3341,
      "do": 3342,
      "otype": 3343,
      "attle": 3344,
      "ĠOff": 3345,
      "ĠAm": 3346,
      "Ġproduct": 3347,
      "stand": 3348,
      "pose": 3349,
      "cap": 3350,
      "reed": 3351,
      "Ġvir": 3352,
      "Ġq": 3353,
      "Hel": 3354,
      "Ġsite": 3355,
      "ĠWhen": 3356,
      "len": 3357,
      "istry": 3358,
      "Ġstudy": 3359,
      "push": 3360,
      "roy": 3361,
      "Ð½": 3362,
      "Ġinvest": 3363,
      "History": 3364,
      "ĠMon": 3365,
      "itory": 3366,
      "inning": 3367,
      "Ġlate": 3368,
      "Ġaver": 3369,
      "local": 3370,
      "Ġthrows": 3371,
      "ĠReturn": 3372,
      "ĠHer": 3373,
      "su": 3374,
      "Ġfree": 3375,
      "egr": 3376,
      "sqrt": 3377,
      "ensure": 3378,
      "obj": 3379,
      "Ġattack": 3380,
      "ifact": 3381,
      "last": 3382,
      "\"]": 3383,
      "ibrary": 3384,
      "py": 3385,
      "ulture": 3386,
      "heet": 3387,
      "Ġamong": 3388,
      "signed": 3389,
      "buf": 3390,
      "Ġclient": 3391,
      "Check": 3392,
      "ayer": 3393,
      "aken": 3394,
      "FONT": 3395,
      "Ġperm": 3396,
      "sole": 3397,
      "ĠNor": 3398,
      "Fl": 3399,
      "Return": 3400,
      "Ġimportant": 3401,
      "board": 3402,
      "ĠCont": 3403,
      "Ġindic": 3404,
      "Prov": 3405,
      "Label": 3406,
      "eline": 3407,
      "cell": 3408,
      "vis": 3409,
      "MS": 3410,
      "ĠDep": 3411,
      ")$,": 3412,
      "stream": 3413,
      "Ġload": 3414,
      "Create": 3415,
      "Part": 3416,
      "project": 3417,
      "clus": 3418,
      "Ġshows": 3419,
      "ĠCup": 3420,
      "close": 3421,
      "Ġextends": 3422,
      "Button": 3423,
      "Ġra": 3424,
      "Page": 3425,
      "ological": 3426,
      "Ġwhe": 3427,
      "///": 3428,
      "iler": 3429,
      "irection": 3430,
      "Ġstatus": 3431,
      "ĠInternational": 3432,
      "ĠSch": 3433,
      "gle": 3434,
      "Ġcountry": 3435,
      "eqnarray": 3436,
      "allet": 3437,
      "abor": 3438,
      "Ġdied": 3439,
      "OS": 3440,
      "Ġcontain": 3441,
      "Ġeither": 3442,
      "Ġshown": 3443,
      "Mem": 3444,
      "Ġconstruct": 3445,
      "Ġwar": 3446,
      "Ġprob": 3447,
      "Ġconc": 3448,
      "olved": 3449,
      "ĠThese": 3450,
      "ico": 3451,
      "mt": 3452,
      "Ġsample": 3453,
      "Ġstructure": 3454,
      "\"),": 3455,
      "small": 3456,
      "aps": 3457,
      "Ġvarious": 3458,
      "ising": 3459,
      "otion": 3460,
      "Ġproblem": 3461,
      "format": 3462,
      "Ġsequ": 3463,
      "Sup": 3464,
      "iforn": 3465,
      "Ġfurther": 3466,
      "inner": 3467,
      "Ġrelation": 3468,
      "67": 3469,
      "ensity": 3470,
      "Ġalready": 3471,
      "^{(": 3472,
      "Ġround": 3473,
      "Ġwindow": 3474,
      "ĠPer": 3475,
      "Ġwater": 3476,
      "chi": 3477,
      "Ġfac": 3478,
      "Ġlo": 3479,
      "urb": 3480,
      "atas": 3481,
      "Ġstrong": 3482,
      "Ġworks": 3483,
      "Ext": 3484,
      "Cell": 3485,
      "ĠIN": 3486,
      "change": 3487,
      "Ġred": 3488,
      "VER": 3489,
      "main": 3490,
      "Ġimplement": 3491,
      "level": 3492,
      "Back": 3493,
      "Ġ<!--": 3494,
      "attr": 3495,
      "Ġmean": 3496,
      "comm": 3497,
      "sol": 3498,
      "Controller": 3499,
      "ĠOne": 3500,
      "Ġnorth": 3501,
      "Ġterms": 3502,
      "Ġsepar": 3503,
      "NO": 3504,
      "Ġperformance": 3505,
      "Ġmethods": 3506,
      "container": 3507,
      "Ġstates": 3508,
      "book": 3509,
      "Ġmargin": 3510,
      "even": 3511,
      "49": 3512,
      "oyal": 3513,
      "ifornia": 3514,
      "ĠAc": 3515,
      "det": 3516,
      "apter": 3517,
      "2022": 3518,
      "mm": 3519,
      "Char": 3520,
      "05": 3521,
      "idden": 3522,
      "service": 3523,
      "Ġcirc": 3524,
      "erefore": 3525,
      "Met": 3526,
      "Ġ]": 3527,
      "oding": 3528,
      "avy": 3529,
      "endif": 3530,
      "Ġlanguage": 3531,
      "Ġnov": 3532,
      "vare": 3533,
      "ournal": 3534,
      "Ġaccount": 3535,
      "lip": 3536,
      "javascript": 3537,
      "Ġprovided": 3538,
      "bor": 3539,
      "(&": 3540,
      "vec": 3541,
      "Ġdon": 3542,
      "gorithm": 3543,
      "Em": 3544,
      "Ġtrad": 3545,
      "Ġtw": 3546,
      "First": 3547,
      "Ġdouble": 3548,
      "irm": 3549,
      "\").": 3550,
      ":</": 3551,
      "plit": 3552,
      "itect": 3553,
      "After": 3554,
      "ociety": 3555,
      "Ġless": 3556,
      "Row": 3557,
      "ĠIndian": 3558,
      "Acc": 3559,
      "atal": 3560,
      "mem": 3561,
      "Ġgen": 3562,
      "iol": 3563,
      "ql": 3564,
      "Ġlimit": 3565,
      "1999": 3566,
      "Ġmiss": 3567,
      "Ġson": 3568,
      "ĠDiv": 3569,
      "Ġclose": 3570,
      "ĠIr": 3571,
      "ĠAp": 3572,
      "Box": 3573,
      "igger": 3574,
      "Ġpot": 3575,
      "Living": 3576,
      "orge": 3577,
      "Ġver": 3578,
      "Ġdevelopment": 3579,
      "ynt": 3580,
      "ministr": 3581,
      "Ġphys": 3582,
      "po": 3583,
      "Ġbecome": 3584,
      "igin": 3585,
      "Format": 3586,
      "Ġelements": 3587,
      "Ġrepl": 3588,
      "Ġconsidered": 3589,
      "ounced": 3590,
      "long": 3591,
      "Listener": 3592,
      "People": 3593,
      "ÑĢ": 3594,
      "member": 3595,
      "actions": 3596,
      "Ġurl": 3597,
      "Equals": 3598,
      "Web": 3599,
      "47": 3600,
      "UI": 3601,
      "useum": 3602,
      "ĠMich": 3603,
      "Ġcoll": 3604,
      "Ġ${\\": 3605,
      "Ġindiv": 3606,
      "ĠDis": 3607,
      "params": 3608,
      "Ġins": 3609,
      "Ġclaim": 3610,
      "estion": 3611,
      "ference": 3612,
      "}^{\\": 3613,
      "Ġoption": 3614,
      "exp": 3615,
      "ocket": 3616,
      "Ġframe": 3617,
      "ably": 3618,
      ",\"": 3619,
      "ĠSan": 3620,
      "ceed": 3621,
      "SON": 3622,
      "1990": 3623,
      "response": 3624,
      "menu": 3625,
      "ĠEngland": 3626,
      "gen": 3627,
      "ring": 3628,
      "Ġfollows": 3629,
      "Ġinternal": 3630,
      "INT": 3631,
      "includeg": 3632,
      "includegraphics": 3633,
      "Ġsignific": 3634,
      "ĠRiver": 3635,
      "Ġsuff": 3636,
      "filter": 3637,
      "Ġhaving": 3638,
      "udio": 3639,
      "Ġengine": 3640,
      "Ġvideo": 3641,
      "Ġvillage": 3642,
      "wise": 3643,
      "dev": 3644,
      "varepsilon": 3645,
      "ara": 3646,
      "////////////////": 3647,
      "Column": 3648,
      "Ġfunctions": 3649,
      "ABLE": 3650,
      "Mode": 3651,
      "pected": 3652,
      "Ġhistor": 3653,
      "emph": 3654,
      "Ġquant": 3655,
      "rangle": 3656,
      "Ġled": 3657,
      "Ġstarted": 3658,
      "ivil": 3659,
      "Ġ((": 3660,
      "ĠCalifornia": 3661,
      "BC": 3662,
      "Rep": 3663,
      "Ġfont": 3664,
      "ensor": 3665,
      "tag": 3666,
      "Ġmillion": 3667,
      "burg": 3668,
      "fe": 3669,
      "ula": 3670,
      "final": 3671,
      "Ġdate": 3672,
      "ias": 3673,
      "annot": 3674,
      "oo": 3675,
      "Ġgroups": 3676,
      "dict": 3677,
      "pack": 3678,
      "ĠStr": 3679,
      "update": 3680,
      "Ġformat": 3681,
      "ittle": 3682,
      "ks": 3683,
      "lean": 3684,
      "PRO": 3685,
      "Ġcommunity": 3686,
      "Ġleast": 3687,
      "ements": 3688,
      "Gr": 3689,
      "styles": 3690,
      "apping": 3691,
      "OD": 3692,
      "Ġ``": 3693,
      "ka": 3694,
      "RA": 3695,
      "oll": 3696,
      "lands": 3697,
      "num": 3698,
      "aries": 3699,
      "Ġcontrib": 3700,
      "year": 3701,
      "Ġda": 3702,
      "ĠSim": 3703,
      "<?": 3704,
      "Ġide": 3705,
      "77": 3706,
      "Ġfeatures": 3707,
      "Ġauto": 3708,
      "ocr": 3709,
      "Ġmoved": 3710,
      "Ġsouth": 3711,
      "offset": 3712,
      "rightarrow": 3713,
      "ftware": 3714,
      "Ġtraining": 3715,
      "Ġvert": 3716,
      "Ġlight": 3717,
      "Pre": 3718,
      "pass": 3719,
      "ĠParty": 3720,
      "Layout": 3721,
      "ordin": 3722,
      "orph": 3723,
      "ves": 3724,
      "Ġvia": 3725,
      "Ġmove": 3726,
      "ĠAg": 3727,
      "ĠRed": 3728,
      "Valid": 3729,
      "refix": 3730,
      "ĠHREF": 3731,
      "}=": 3732,
      "remove": 3733,
      "iqu": 3734,
      "can": 3735,
      "Ġput": 3736,
      "Read": 3737,
      "Style": 3738,
      "tool": 3739,
      "Det": 3740,
      "ĠCLASS": 3741,
      ")=": 3742,
      "ĠĠĠĠĠĠĠĠĠĠĠĠĠĠĠĠĠĠĠĠĠĠĠĠĠĠĠĠĠĠĠĠĠĠĠ": 3743,
      "Ġcollection": 3744,
      "cel": 3745,
      "Ġpract": 3746,
      "Tem": 3747,
      "Ġupdate": 3748,
      "ĠRepublic": 3749,
      "tempt": 3750,
      "ERT": 3751,
      "anged": 3752,
      "Ġship": 3753,
      "Ġcatch": 3754,
      "instance": 3755,
      "Ġindividual": 3756,
      "Big": 3757,
      "Last": 3758,
      "medi": 3759,
      "idence": 3760,
      "ota": 3761,
      "ĠAustralia": 3762,
      "Ġproduced": 3763,
      "Ġinternational": 3764,
      "Ġcross": 3765,
      "ĠEl": 3766,
      "bolds": 3767,
      "ĠWith": 3768,
      "Bundle": 3769,
      "ĠSo": 3770,
      "lying": 3771,
      "iers": 3772,
      "Ġhowever": 3773,
      "Ġproperties": 3774,
      "Ob": 3775,
      "ellow": 3776,
      "boldsymbol": 3777,
      "stract": 3778,
      "Spec": 3779,
      "ĠÃ": 3780,
      "%%": 3781,
      "Ġcontains": 3782,
      "```": 3783,
      "essional": 3784,
      "amily": 3785,
      "68": 3786,
      "aker": 3787,
      "Ent": 3788,
      "Ġapprox": 3789,
      "Child": 3790,
      "Ġdev": 3791,
      "iation": 3792,
      "Ġsem": 3793,
      "Ġbg": 3794,
      "show": 3795,
      "Ġassociated": 3796,
      "Ġproduction": 3797,
      "isf": 3798,
      "Ġestablish": 3799,
      "Ġflow": 3800,
      "unit": 3801,
      "Ġservices": 3802,
      "GL": 3803,
      "column": 3804,
      "Ġwrite": 3805,
      "Ġyoung": 3806,
      "ĠGo": 3807,
      "Filter": 3808,
      "ĠEm": 3809,
      "Ġfri": 3810,
      "UM": 3811,
      "Ġdiscuss": 3812,
      "omb": 3813,
      "Ġant": 3814,
      "number": 3815,
      "Collection": 3816,
      "adian": 3817,
      "Ġnormal": 3818,
      "II": 3819,
      "Ġsche": 3820,
      "Offset": 3821,
      "icient": 3822,
      "process": 3823,
      "asing": 3824,
      "Ġsearch": 3825,
      "Length": 3826,
      "osp": 3827,
      "Ġcomplex": 3828,
      "ĠAcc": 3829,
      "wrap": 3830,
      "ãģ": 3831,
      "Ġnav": 3832,
      "BU": 3833,
      "Ġdistribution": 3834,
      "URL": 3835,
      "acity": 3836,
      "Ġcopy": 3837,
      "Ġaddition": 3838,
      "ries": 3839,
      "aged": 3840,
      "ris": 3841,
      "Ġserver": 3842,
      "flu": 3843,
      "ires": 3844,
      "lit": 3845,
      "most": 3846,
      "hib": 3847,
      "sf": 3848,
      "Ġspecified": 3849,
      "scope": 3850,
      "Output": 3851,
      "HE": 3852,
      "').": 3853,
      "oted": 3854,
      "Ġfather": 3855,
      "IZ": 3856,
      "Ġcou": 3857,
      "encies": 3858,
      "geq": 3859,
      "Ġsold": 3860,
      "ĠAward": 3861,
      "Ġprovide": 3862,
      "Ġtoget": 3863,
      "ĠPort": 3864,
      "TP": 3865,
      "[\\": 3866,
      "eleg": 3867,
      "Ġtogether": 3868,
      "Ge": 3869,
      "reference": 3870,
      "Ġinterface": 3871,
      "Ġwest": 3872,
      "Ġdiff": 3873,
      "_.": 3874,
      "Server": 3875,
      "Ã¶": 3876,
      "Cache": 3877,
      "Ġaverage": 3878,
      "proof": 3879,
      "else": 3880,
      "wide": 3881,
      "Ġinstead": 3882,
      "ĠArmy": 3883,
      "ba": 3884,
      "sm": 3885,
      "DB": 3886,
      "atural": 3887,
      "Ġdeaths": 3888,
      "Ġge": 3889,
      "Ġcame": 3890,
      "Ġsocial": 3891,
      "anel": 3892,
      "Address": 3893,
      "proto": 3894,
      "Ġadded": 3895,
      "Ġmale": 3896,
      "IM": 3897,
      "ills": 3898,
      "Ġattempt": 3899,
      "ĠNot": 3900,
      "ging": 3901,
      "Ġlower": 3902,
      "AA": 3903,
      "ensions": 3904,
      "Ġpay": 3905,
      "Ġfem": 3906,
      "ael": 3907,
      "Aut": 3908,
      "oriz": 3909,
      "ĠCour": 3910,
      "ouch": 3911,
      "ilities": 3912,
      "COL": 3913,
      "ĠIndia": 3914,
      ".}": 3915,
      "1998": 3916,
      "ĠGeneral": 3917,
      "ĠPresident": 3918,
      "08": 3919,
      "ades": 3920,
      "Ġblack": 3921,
      "Rem": 3922,
      "Ġgraph": 3923,
      "gl": 3924,
      "aml": 3925,
      "output": 3926,
      "Ġbelow": 3927,
      "Ġunit": 3928,
      "varphi": 3929,
      ">>": 3930,
      "ĠOlymp": 3931,
      "alle": 3932,
      "Ġtyp": 3933,
      "Ġnone": 3934,
      "Ġactiv": 3935,
      "ĠRev": 3936,
      "Ġmodule": 3937,
      "=\"../../../../../": 3938,
      "TYPE": 3939,
      "Ġannounced": 3940,
      "Per": 3941,
      "ply": 3942,
      "CON": 3943,
      "Ġfund": 3944,
      "Ġpolitical": 3945,
      "agn": 3946,
      "Ġglobal": 3947,
      "ĠAmerica": 3948,
      "ĠDo": 3949,
      "Ġcost": 3950,
      "Ð¾Ð": 3951,
      "ilm": 3952,
      "ĠInter": 3953,
      "Ġcenter": 3954,
      "Ġfields": 3955,
      "background": 3956,
      "Ġproduc": 3957,
      "ĠChurch": 3958,
      "Ġspecific": 3959,
      "ERR": 3960,
      "iding": 3961,
      "ites": 3962,
      "Ġrow": 3963,
      "based": 3964,
      "42": 3965,
      "Ġstandard": 3966,
      "circ": 3967,
      "Ass": 3968,
      "Ġconsist": 3969,
      "Ġhalf": 3970,
      "Ġsym": 3971,
      "ĠHT": 3972,
      "rypt": 3973,
      "exec": 3974,
      "ĠMal": 3975,
      "ĠUp": 3976,
      "Ġcustom": 3977,
      "kit": 3978,
      "Ġwent": 3979,
      "Ġcases": 3980,
      "Ġeast": 3981,
      "example": 3982,
      "airs": 3983,
      "Ġoperation": 3984,
      "++)": 3985,
      "Ñģ": 3986,
      "ĠAPI": 3987,
      "Ġfail": 3988,
      "Ġinf": 3989,
      "Ġmatrix": 3990,
      "ĠSum": 3991,
      "Ġneg": 3992,
      "ĠFirst": 3993,
      "Ġsignificant": 3994,
      "ĠVir": 3995,
      "Let": 3996,
      "58": 3997,
      "}).": 3998,
      "Ġbgcolor": 3999,
      "chiev": 4000,
      "1980": 4001,
      "Ġactive": 4002,
      ".~\\": 4003,
      "NAME": 4004,
      "Ġdays": 4005,
      "Ġnever": 4006,
      "Ġear": 4007,
      "De": 4008,
      "efined": 4009,
      "Ġreference": 4010,
      "Ġstory": 4011,
      "Url": 4012,
      "Wh": 4013,
      "Ġjo": 4014,
      "Ġreview": 4015,
      "spec": 4016,
      "Ġrecent": 4017,
      "Ġsuccessful": 4018,
      "46": 4019,
      "utils": 4020,
      "ĠFrance": 4021,
      "ĠBel": 4022,
      "istics": 4023,
      "depend": 4024,
      "hline": 4025,
      "ĠBut": 4026,
      "Ġselect": 4027,
      "Ġliter": 4028,
      "Ġmeans": 4029,
      "Ġrelease": 4030,
      "Width": 4031,
      "Ġ[]": 4032,
      "ĠPal": 4033,
      "Ġspect": 4034,
      "########": 4035,
      "ĠCouncil": 4036,
      "Ġaward": 4037,
      "artifact": 4038,
      "ĠCanada": 4039,
      "ĠQue": 4040,
      "Ġtypes": 4041,
      "Ġdone": 4042,
      "eh": 4043,
      "Ġwhether": 4044,
      "vari": 4045,
      "Ġepis": 4046,
      "ago": 4047,
      "Ġfocus": 4048,
      "Provider": 4049,
      "Ġinit": 4050,
      "PC": 4051,
      "uel": 4052,
      "Ġlocation": 4053,
      "dep": 4054,
      "Update": 4055,
      "ipal": 4056,
      "Ġonce": 4057,
      "Ġremov": 4058,
      "Ġmultiple": 4059,
      "ients": 4060,
      "Ġcallback": 4061,
      "Ġacross": 4062,
      "Ġnumer": 4063,
      "ĠID": 4064,
      "ĠEuropean": 4065,
      "ĠHol": 4066,
      "ĠGovern": 4067,
      "vey": 4068,
      "window": 4069,
      "Ġobj": 4070,
      "command": 4071,
      "avel": 4072,
      "ids": 4073,
      "support": 4074,
      "ria": 4075,
      "ingle": 4076,
      "yr": 4077,
      "sd": 4078,
      "skip": 4079,
      "ĠRoman": 4080,
      "izing": 4081,
      "Eng": 4082,
      "********************************": 4083,
      "only": 4084,
      "Ġquery": 4085,
      "verse": 4086,
      "fa": 4087,
      "rote": 4088,
      "Ġplan": 4089,
      "ĠArray": 4090,
      "iles": 4091,
      "lier": 4092,
      "Ab": 4093,
      "78": 4094,
      "andid": 4095,
      "09": 4096,
      "=\"-": 4097,
      "Ġloss": 4098,
      "Ġworking": 4099,
      "Ġsystems": 4100,
      "itar": 4101,
      "illed": 4102,
      "Ġsay": 4103,
      "Ã¤": 4104,
      "Ġpotential": 4105,
      "ĠThom": 4106,
      "Types": 4107,
      "ya": 4108,
      "cer": 4109,
      "Ġmedia": 4110,
      "ĠAnt": 4111,
      "CL": 4112,
      "1996": 4113,
      "Ġpolitic": 4114,
      "common": 4115,
      "ailway": 4116,
      "uggest": 4117,
      "prop": 4118,
      "Ġstudents": 4119,
      "Ġ!==": 4120,
      "frak": 4121,
      "02": 4122,
      "ĠTrans": 4123,
      "Ġregular": 4124,
      "59": 4125,
      "Tree": 4126,
      "Ġselected": 4127,
      "stitute": 4128,
      ")]": 4129,
      "04": 4130,
      "chan": 4131,
      "Ġparticip": 4132,
      "fact": 4133,
      "},\\": 4134,
      "han": 4135,
      "Ġecon": 4136,
      "ĠJames": 4137,
      "ĉĉĉĉĉĉĉ": 4138,
      "ication": 4139,
      "Ġ(\"": 4140,
      "ĠType": 4141,
      "ãĥ": 4142,
      "ĠRober": 4143,
      "Ag": 4144,
      "1997": 4145,
      "&\\": 4146,
      "Ġmilitary": 4147,
      "plicit": 4148,
      "....": 4149,
      "Ġaccept": 4150,
      "task": 4151,
      "Ġhuman": 4152,
      ".\\": 4153,
      "Ġnec": 4154,
      "ĠSk": 4155,
      "Ġstream": 4156,
      "scale": 4157,
      "Ġmode": 4158,
      "Ġappoint": 4159,
      "eal": 4160,
      "Ġlim": 4161,
      "Ġfiles": 4162,
      "ĠGroup": 4163,
      "strap": 4164,
      "Min": 4165,
      "Ġgl": 4166,
      "Ġclear": 4167,
      "Ġemploy": 4168,
      "empty": 4169,
      "Ġtheory": 4170,
      "ĠPaul": 4171,
      "Ġbecom": 4172,
      "ĠStreet": 4173,
      "Ġrank": 4174,
      "Ġgreat": 4175,
      "Ġseen": 4176,
      "layer": 4177,
      "Ġrate": 4178,
      "ĠDem": 4179,
      "ĠDi": 4180,
      "west": 4181,
      "Description": 4182,
      "ĠLicense": 4183,
      "Ġmaterial": 4184,
      "oon": 4185,
      "Ġalways": 4186,
      "Ġcompos": 4187,
      "Target": 4188,
      "Ġworked": 4189,
      "overline": 4190,
      "ĠEX": 4191,
      "Ġpopular": 4192,
      ")^": 4193,
      "Ġinstall": 4194,
      "88": 4195,
      "prototype": 4196,
      "Ġphot": 4197,
      "Vis": 4198,
      "Ġfloat": 4199,
      "ĠRoyal": 4200,
      "ĠThen": 4201,
      "sv": 4202,
      "Ġsubject": 4203,
      "ĉĠĠĠ": 4204,
      "Ġbox": 4205,
      "Open": 4206,
      "ĠSen": 4207,
      "aign": 4208,
      "Max": 4209,
      "atives": 4210,
      "aa": 4211,
      "||": 4212,
      "Ġable": 4213,
      "Ġmaking": 4214,
      "(_": 4215,
      "Ġpain": 4216,
      "Ġground": 4217,
      "van": 4218,
      "ĠMy": 4219,
      "ida": 4220,
      "boot": 4221,
      "57": 4222,
      "Access": 4223,
      "1995": 4224,
      "Ġexpress": 4225,
      "ĠSm": 4226,
      "imated": 4227,
      "Ġvector": 4228,
      "icles": 4229,
      "ĠGeorge": 4230,
      "zer": 4231,
      "Ġtaken": 4232,
      "ĠRich": 4233,
      "Ġchanges": 4234,
      "parse": 4235,
      "Med": 4236,
      "Ġwin": 4237,
      "CODE": 4238,
      "Ġdecl": 4239,
      "bin": 4240,
      "langle": 4241,
      "tries": 4242,
      "classes": 4243,
      "Ġpaper": 4244,
      "ises": 4245,
      "ios": 4246,
      "IO": 4247,
      "Ġbroad": 4248,
      "Work": 4249,
      "oment": 4250,
      "Ġconditions": 4251,
      "oney": 4252,
      "Ġtre": 4253,
      "Ġcomponent": 4254,
      "Entry": 4255,
      "outhern": 4256,
      "uge": 4257,
      "Ġargs": 4258,
      "appa": 4259,
      "Ġadditional": 4260,
      "Ġstep": 4261,
      "Ġconstant": 4262,
      "Ġfilter": 4263,
      "ional": 4264,
      "Lambda": 4265,
      "XX": 4266,
      "Ġpresident": 4267,
      "Ġhigher": 4268,
      "aching": 4269,
      "izes": 4270,
      "500": 4271,
      "aven": 4272,
      "bool": 4273,
      "Ġsatisf": 4274,
      "Ġreported": 4275,
      "cache": 4276,
      "reek": 4277,
      "ulated": 4278,
      "Ġcapt": 4279,
      "tree": 4280,
      "06": 4281,
      "rd": 4282,
      "Ġscal": 4283,
      "artifactId": 4284,
      "Ġlines": 4285,
      "hood": 4286,
      "Ġgrow": 4287,
      "Ġwebs": 4288,
      "document": 4289,
      "Control": 4290,
      "]);": 4291,
      "mat": 4292,
      "07": 4293,
      "otal": 4294,
      "Ġfar": 4295,
      "criptor": 4296,
      "Ġfrequ": 4297,
      "ND": 4298,
      "Ġmarried": 4299,
      "ĠAssociation": 4300,
      "1970": 4301,
      "'),": 4302,
      "./": 4303,
      "Sp": 4304,
      "Co": 4305,
      "}),": 4306,
      "Entity": 4307,
      "grad": 4308,
      "ĠRem": 4309,
      "bind": 4310,
      "][": 4311,
      "Top": 4312,
      "Case": 4313,
      "template": 4314,
      "Ġreturns": 4315,
      "ĠDivision": 4316,
      "PO": 4317,
      "Ġhealth": 4318,
      "{{": 4319,
      "Unit": 4320,
      "Ġindependent": 4321,
      "Ġ**": 4322,
      "essages": 4323,
      "ĠDavid": 4324,
      "ership": 4325,
      "amil": 4326,
      "}}$": 4327,
      "()->": 4328,
      "Ġhom": 4329,
      "olve": 4330,
      "ĠUnion": 4331,
      "tee": 4332,
      "Ġapplication": 4333,
      "Ġjoined": 4334,
      "Ġconv": 4335,
      "Ġjob": 4336,
      "like": 4337,
      "ĠMark": 4338,
      "}/": 4339,
      "Utils": 4340,
      "Ġentry": 4341,
      "acters": 4342,
      "One": 4343,
      "Ġnames": 4344,
      "match": 4345,
      "Ġachiev": 4346,
      "Load": 4347,
      "yth": 4348,
      "UP": 4349,
      "Ġcondition": 4350,
      "03": 4351,
      "Ġmeet": 4352,
      "bb": 4353,
      "1994": 4354,
      "ett": 4355,
      "Ġwrote": 4356,
      "Ġeas": 4357,
      "require": 4358,
      "Ġscale": 4359,
      "mbox": 4360,
      "citep": 4361,
      "aur": 4362,
      "Ġdefe": 4363,
      "Ġmer": 4364,
      "([": 4365,
      "Tag": 4366,
      "ĠWeb": 4367,
      ":\"": 4368,
      "Ġrandom": 4369,
      "Bo": 4370,
      "cr": 4371,
      "Ġothers": 4372,
      "ashington": 4373,
      "Header": 4374,
      "Ġrelated": 4375,
      "1992": 4376,
      "olic": 4377,
      "ĠRef": 4378,
      "quare": 4379,
      "atory": 4380,
      "Ġamount": 4381,
      "Ġ...": 4382,
      "Ġobtained": 4383,
      "Ġcommit": 4384,
      "should": 4385,
      "attern": 4386,
      "float": 4387,
      "Phi": 4388,
      "Ġlen": 4389,
      "Ġinflu": 4390,
      "raz": 4391,
      "eft": 4392,
      "ĠGermany": 4393,
      "ounds": 4394,
      "ĠDon": 4395,
      "tml": 4396,
      "Parameter": 4397,
      "dist": 4398,
      "Ġoffset": 4399,
      "Ġtoo": 4400,
      "groupId": 4401,
      "Container": 4402,
      "etch": 4403,
      "control": 4404,
      "Ġhard": 4405,
      "ĠBlack": 4406,
      "ULT": 4407,
      "wait": 4408,
      "author": 4409,
      "Ġstop": 4410,
      "root": 4411,
      "oded": 4412,
      "Position": 4413,
      "ldots": 4414,
      "band": 4415,
      "berg": 4416,
      "Interface": 4417,
      "Ġsolution": 4418,
      "break": 4419,
      "ville": 4420,
      "conf": 4421,
      "ĠChina": 4422,
      "Height": 4423,
      "stant": 4424,
      "mathfrak": 4425,
      "aring": 4426,
      "ATION": 4427,
      "ĠFl": 4428,
      "SH": 4429,
      "Ġanalysis": 4430,
      "Ġtransform": 4431,
      "Configuration": 4432,
      "aches": 4433,
      "56": 4434,
      "Ġlost": 4435,
      "Ġuint": 4436,
      "essor": 4437,
      "Ġcompleted": 4438,
      "Ġfuture": 4439,
      "ĠPo": 4440,
      "Ġdeveloped": 4441,
      "obile": 4442,
      "ĠFile": 4443,
      "Ġrecogn": 4444,
      "Location": 4445,
      "Ġoffer": 4446,
      "ĠFrom": 4447,
      "ged": 4448,
      ".âĢĿ": 4449,
      "Ġbetter": 4450,
      "Ġpur": 4451,
      "Ġoperator": 4452,
      "ming": 4453,
      "bert": 4454,
      ".$": 4455,
      "Ġpress": 4456,
      "afe": 4457,
      "ĠLaw": 4458,
      "ds": 4459,
      "ĠLog": 4460,
      "ario": 4461,
      "Ġill": 4462,
      "textit": 4463,
      "Ġroot": 4464,
      "inated": 4465,
      "ĠLou": 4466,
      "uint": 4467,
      "Ġsimple": 4468,
      "rian": 4469,
      "ĠMount": 4470,
      "Ġmid": 4471,
      "Callback": 4472,
      "ãĤ": 4473,
      "late": 4474,
      "utive": 4475,
      "Ġareas": 4476,
      "achine": 4477,
      "ĠArg": 4478,
      "Ġincludes": 4479,
      "Ġparty": 4480,
      "Ġsom": 4481,
      "Ġdirector": 4482,
      "Ġenvironment": 4483,
      "Ġ::": 4484,
      "Ġcalcul": 4485,
      "Ġsigned": 4486,
      "=\"../../../../../../": 4487,
      "Process": 4488,
      "Next": 4489,
      "buffer": 4490,
      "Ġconver": 4491,
      "ĠSub": 4492,
      "ston": 4493,
      "values": 4494,
      "Ġprior": 4495,
      "Ġopened": 4496,
      "ĠCenter": 4497,
      "Ġarchitect": 4498,
      "ĠOF": 4499,
      "unch": 4500,
      "AM": 4501,
      "unt": 4502,
      "Ġbehav": 4503,
      "Dr": 4504,
      "ipp": 4505,
      "oder": 4506,
      "ani": 4507,
      "Ġsuggest": 4508,
      "returns": 4509,
      "imer": 4510,
      "Ġrespectively": 4511,
      "Search": 4512,
      "Ġdensity": 4513,
      "43": 4514,
      "resource": 4515,
      "Ġconnection": 4516,
      "token": 4517,
      "ĠÂ": 4518,
      "och": 4519,
      "à¤": 4520,
      "Ġcorresponding": 4521,
      "Ġfig": 4522,
      "Ġlik": 4523,
      "unn": 4524,
      "ĠAustralian": 4525,
      "Ġthus": 4526,
      "IGN": 4527,
      "ĠBer": 4528,
      "umni": 4529,
      "ĠNe": 4530,
      "Ġapproach": 4531,
      "Ġeducation": 4532,
      "ctor": 4533,
      "Exec": 4534,
      "Ġcompan": 4535,
      "Ġroad": 4536,
      "asons": 4537,
      "IZE": 4538,
      "alls": 4539,
      "stylesheet": 4540,
      "Empty": 4541,
      "1993": 4542,
      "ĠĠĠĠĠĠĠĠĠĠĠĠĠĠĠĠĠĠĠĠĠ": 4543,
      "ua": 4544,
      "Ġcannot": 4545,
      "Ġlive": 4546,
      "Ġremove": 4547,
      "\\%": 4548,
      "split": 4549,
      "KE": 4550,
      "Po": 4551,
      "erry": 4552,
      "95": 4553,
      "Write": 4554,
      "nected": 4555,
      "Ġcurrently": 4556,
      "ĠMet": 4557,
      "sign": 4558,
      "lease": 4559,
      "gin": 4560,
      "lice": 4561,
      "ena": 4562,
      "ca": 4563,
      "Ġvirtual": 4564,
      "FO": 4565,
      "ĠNS": 4566,
      "ĠData": 4567,
      "AV": 4568,
      "wood": 4569,
      "41": 4570,
      "():": 4571,
      "Ġ{}": 4572,
      "Ġperformed": 4573,
      "language": 4574,
      "Ġrights": 4575,
      "ĠAssert": 4576,
      "ems": 4577,
      "API": 4578,
      "rief": 4579,
      "Ġoffic": 4580,
      "ĠDuring": 4581,
      "Ġthough": 4582,
      "Http": 4583,
      "Ġrespons": 4584,
      "abs": 4585,
      "mut": 4586,
      "Ġprop": 4587,
      "ĠArch": 4588,
      "RL": 4589,
      "Ġbuffer": 4590,
      "Ġprofessional": 4591,
      "Ġmight": 4592,
      "ĠCourt": 4593,
      "ĠProv": 4594,
      "Ġbeliev": 4595,
      "Ġdraw": 4596,
      "mail": 4597,
      "1991": 4598,
      "imately": 4599,
      "ĠPe": 4600,
      "Ġbi": 4601,
      "Ġxml": 4602,
      "ĠHall": 4603,
      "nab": 4604,
      "subset": 4605,
      "asket": 4606,
      "\\|": 4607,
      "Ġwhose": 4608,
      "Ġchurch": 4609,
      "ĠReturns": 4610,
      "Thread": 4611,
      "Le": 4612,
      "hent": 4613,
      "files": 4614,
      "Ġeval": 4615,
      "Ġexists": 4616,
      "Ġcontract": 4617,
      "Ġfailed": 4618,
      "adow": 4619,
      "Level": 4620,
      "ĠMart": 4621,
      "shire": 4622,
      "hi": 4623,
      "Ġdefine": 4624,
      "ensive": 4625,
      "Sim": 4626,
      "weight": 4627,
      "ensus": 4628,
      "models": 4629,
      "bra": 4630,
      "Enc": 4631,
      "ultural": 4632,
      "Ġten": 4633,
      "kappa": 4634,
      "Ġsongs": 4635,
      "Ġ*)": 4636,
      "Hash": 4637,
      "Ġdebut": 4638,
      "Ġcomplete": 4639,
      "Ġben": 4640,
      "arter": 4641,
      "Ġsett": 4642,
      "Ġteams": 4643,
      "modal": 4644,
      "ini": 4645,
      "ponents": 4646,
      "ĠApp": 4647,
      "Ġstage": 4648,
      "ĠGL": 4649,
      "Ġvoc": 4650,
      "omy": 4651,
      "ĠDepartment": 4652,
      "sy": 4653,
      "Ġcontinue": 4654,
      "greg": 4655,
      "COLOR": 4656,
      "Ġforce": 4657,
      "Ġentire": 4658,
      "before": 4659,
      "Lo": 4660,
      "51": 4661,
      "track": 4662,
      "iform": 4663,
      "ĠStud": 4664,
      "Ġsupported": 4665,
      "Ġconstruction": 4666,
      "Module": 4667,
      "ĉĉĊ": 4668,
      "Range": 4669,
      "ontal": 4670,
      "Ġviol": 4671,
      "Current": 4672,
      "typ": 4673,
      "ams": 4674,
      "Ġobjects": 4675,
      "ughter": 4676,
      "Ġwebsite": 4677,
      "Json": 4678,
      "anced": 4679,
      "ĠSince": 4680,
      "Ġpositive": 4681,
      "uz": 4682,
      "Fe": 4683,
      "Ġqual": 4684,
      "soft": 4685,
      "=#": 4686,
      "nap": 4687,
      "Ġiter": 4688,
      "ili": 4689,
      "ctx": 4690,
      "Ġaway": 4691,
      "patch": 4692,
      "device": 4693,
      "Ġdegree": 4694,
      "Ġaccording": 4695,
      "ĠCr": 4696,
      "Sigma": 4697,
      "VAL": 4698,
      "Ġhapp": 4699,
      ">,": 4700,
      ":(": 4701,
      "Port": 4702,
      "ros": 4703,
      "Settings": 4704,
      "Ġcontinued": 4705,
      "tains": 4706,
      "ĠAcadem": 4707,
      "Ġcast": 4708,
      "ĠCompany": 4709,
      "otes": 4710,
      "Br": 4711,
      "CD": 4712,
      "SO": 4713,
      "Vert": 4714,
      "%;": 4715,
      "dat": 4716,
      "Ġproposed": 4717,
      "aints": 4718,
      "debug": 4719,
      "images": 4720,
      "ĠVol": 4721,
      "Ġnovel": 4722,
      "Ġrender": 4723,
      "Ġintegr": 4724,
      "elling": 4725,
      "otimes": 4726,
      "liament": 4727,
      "iting": 4728,
      "ĠAng": 4729,
      "Ġsets": 4730,
      "Change": 4731,
      "drop": 4732,
      "which": 4733,
      "aging": 4734,
      "INE": 4735,
      "ĠWashington": 4736,
      "QL": 4737,
      "BA": 4738,
      "cial": 4739,
      "None": 4740,
      "Track": 4741,
      "DIR": 4742,
      "Direct": 4743,
      "enced": 4744,
      "Ġallowed": 4745,
      "Prot": 4746,
      "stack": 4747,
      "ĠService": 4748,
      "ederal": 4749,
      "utor": 4750,
      "ĠMex": 4751,
      "Schema": 4752,
      "Ġdynam": 4753,
      "Ġleading": 4754,
      "ECT": 4755,
      "ĠMag": 4756,
      "Ġhon": 4757,
      "Ġpadding": 4758,
      "Ġhold": 4759,
      "Ġwhite": 4760,
      "69": 4761,
      "ĠCO": 4762,
      "inese": 4763,
      "docs": 4764,
      "Ġ~": 4765,
      "Ġgive": 4766,
      "\"))": 4767,
      "Params": 4768,
      "ĠMod": 4769,
      "Can": 4770,
      "ĠMary": 4771,
      "astic": 4772,
      "Local": 4773,
      "Ġclosed": 4774,
      "?:": 4775,
      "Ġ;": 4776,
      "ĠRobert": 4777,
      "Ġtag": 4778,
      "men": 4779,
      "uous": 4780,
      "Op": 4781,
      "ĠMusic": 4782,
      "sin": 4783,
      "Ġconduct": 4784,
      "STR": 4785,
      "187": 4786,
      "ĠOpen": 4787,
      "Ġtemper": 4788,
      "ĠDan": 4789,
      "expected": 4790,
      "Rel": 4791,
      "Ġdescription": 4792,
      "border": 4793,
      "Ġrecorded": 4794,
      "Ġrunning": 4795,
      "ĠRoad": 4796,
      "ci": 4797,
      "Ġfilename": 4798,
      "Ġautom": 4799,
      "ĠCreate": 4800,
      "Ġcertain": 4801,
      "ĠHen": 4802,
      "Script": 4803,
      "Ġdoc": 4804,
      "uses": 4805,
      "LI": 4806,
      "Connection": 4807,
      "Ġnecess": 4808,
      "ao": 4809,
      "Ġpolicy": 4810,
      "ĠLet": 4811,
      "There": 4812,
      "igen": 4813,
      "})$": 4814,
      "arks": 4815,
      "make": 4816,
      "ĠMor": 4817,
      "dot": 4818,
      "ĠFranc": 4819,
      "Ġ\"\\": 4820,
      "fs": 4821,
      "ln": 4822,
      "Ġuses": 4823,
      "hest": 4824,
      "ĠSee": 4825,
      "under": 4826,
      "oe": 4827,
      "Ġrock": 4828,
      "Ġsequence": 4829,
      "ugins": 4830,
      "Ġlinear": 4831,
      "entity": 4832,
      "Ġconstr": 4833,
      "Ġtool": 4834,
      "Ġexception": 4835,
      "Ġtree": 4836,
      "msg": 4837,
      "1960": 4838,
      "Ġclos": 4839,
      "\"));": 4840,
      "Project": 4841,
      "Ġfire": 4842,
      "Ġdirected": 4843,
      "ĠOut": 4844,
      "Ġpast": 4845,
      "Record": 4846,
      "ĠTown": 4847,
      "ĠSociety": 4848,
      "ĠInstitute": 4849,
      "oute": 4850,
      "Ġattribute": 4851,
      "ĠItal": 4852,
      "Ġchannel": 4853,
      "Ġexcept": 4854,
      "dated": 4855,
      "bour": 4856,
      "Ġadministr": 4857,
      "SD": 4858,
      "uated": 4859,
      "Option": 4860,
      "FT": 4861,
      "={": 4862,
      "auth": 4863,
      "ala": 4864,
      "Sw": 4865,
      "Ġintroduced": 4866,
      "itude": 4867,
      "Ġfront": 4868,
      "ĠCanadian": 4869,
      "Ġmarket": 4870,
      "ube": 4871,
      "Impl": 4872,
      "ĠPress": 4873,
      "Ġselection": 4874,
      "Ġoperations": 4875,
      "Ġcho": 4876,
      "Ġcharacters": 4877,
      "CP": 4878,
      "Ġgoal": 4879,
      "Ġrather": 4880,
      "MM": 4881,
      "hr": 4882,
      "uri": 4883,
      "orizontal": 4884,
      "1989": 4885,
      ".)": 4886,
      "Ġbar": 4887,
      ";->": 4888,
      "Ġoffice": 4889,
      "irit": 4890,
      "pite": 4891,
      "agon": 4892,
      "ĠAfrican": 4893,
      "cs": 4894,
      "IV": 4895,
      "tog": 4896,
      "Ġreason": 4897,
      "Stat": 4898,
      "ĠMiss": 4899,
      "ttps": 4900,
      "Ġkeep": 4901,
      "ĠKingdom": 4902,
      "Ġinc": 4903,
      "ĠLem": 4904,
      "ataset": 4905,
      "Mon": 4906,
      "uate": 4907,
      "ĠSam": 4908,
      "Ġequal": 4909,
      "98": 4910,
      "Dir": 4911,
      "Ġdistance": 4912,
      "Ġwife": 4913,
      "ano": 4914,
      "icker": 4915,
      "Ġvict": 4916,
      "ĠTur": 4917,
      "plete": 4918,
      "Ġsolid": 4919,
      "ounter": 4920,
      "Ġthink": 4921,
      "Properties": 4922,
      "Ġrev": 4923,
      "Ġneigh": 4924,
      "ands": 4925,
      "hash": 4926,
      "Ġconfiguration": 4927,
      "Ġzero": 4928,
      "ĠIsland": 4929,
      "Font": 4930,
      "aine": 4931,
      "di": 4932,
      "Ġhandle": 4933,
      "Ġempty": 4934,
      "ĠMac": 4935,
      "Ġparts": 4936,
      "unity": 4937,
      "estival": 4938,
      "54": 4939,
      "ĠDE": 4940,
      "delete": 4941,
      "ws": 4942,
      "interface": 4943,
      "agment": 4944,
      "Ġ>=": 4945,
      "Ġradio": 4946,
      "TI": 4947,
      "ĠBuild": 4948,
      "Ġbit": 4949,
      "Ġir": 4950,
      "Ġcandid": 4951,
      "ein": 4952,
      "Parser": 4953,
      "fg": 4954,
      "sey": 4955,
      "Ġmot": 4956,
      "Ġpassed": 4957,
      "Ġassist": 4958,
      "Ġphase": 4959,
      "imest": 4960,
      "bootstrap": 4961,
      "arily": 4962,
      "MO": 4963,
      "rupt": 4964,
      "Ġgenerated": 4965,
      "Copy": 4966,
      "Ġtreat": 4967,
      "NavBar": 4968,
      "ursor": 4969,
      "Serial": 4970,
      "alled": 4971,
      "Ġalbums": 4972,
      "ĠGames": 4973,
      "Ġscope": 4974,
      "ĠJack": 4975,
      "centering": 4976,
      "52": 4977,
      "ĠBay": 4978,
      "ened": 4979,
      "Document": 4980,
      "nabla": 4981,
      "ictionary": 4982,
      "Ġcontr": 4983,
      "ĠBG": 4984,
      "oms": 4985,
      "Ġstar": 4986,
      "ĠCap": 4987,
      "Menu": 4988,
      "ĠRussian": 4989,
      "Ġflo": 4990,
      "Ġformed": 4991,
      "Ġchanged": 4992,
      "Ġparams": 4993,
      "gu": 4994,
      "arian": 4995,
      "ĠDirect": 4996,
      "Ġpattern": 4997,
      "za": 4998,
      "Ġhttps": 4999,
      "ĠException": 5000,
      "ĠTV": 5001,
      "Ġmodern": 5002,
      "Async": 5003,
      "antic": 5004,
      "Ġwriter": 5005,
      "Ġalthough": 5006,
      "note": 5007,
      "internal": 5008,
      "ĠCong": 5009,
      "Ġimprov": 5010,
      "kind": 5011,
      "second": 5012,
      "join": 5013,
      "ĠMore": 5014,
      "icture": 5015,
      "&#": 5016,
      "normal": 5017,
      "rea": 5018,
      "fill": 5019,
      "Ġtemplate": 5020,
      "jo": 5021,
      "Ġelected": 5022,
      "Ġoverride": 5023,
      "Ġque": 5024,
      "parameter": 5025,
      "Ġtransfer": 5026,
      "Ġrace": 5027,
      "Ġitself": 5028,
      "anges": 5029,
      "ĠJapanese": 5030,
      "gn": 5031,
      "$(": 5032,
      "Ġcentral": 5033,
      "wid": 5034,
      "Ġpers": 5035,
      "dest": 5036,
      "ĠCath": 5037,
      "Ġkm": 5038,
      "ĠBest": 5039,
      "Ġwriting": 5040,
      "Ġcorrect": 5041,
      "ategy": 5042,
      "Ġfounded": 5043,
      "ĠHistor": 5044,
      "Ġsurface": 5045,
      "atio": 5046,
      "Ġstri": 5047,
      "Ġacqu": 5048,
      "Ġlarger": 5049,
      "1988": 5050,
      "Ġcompanies": 5051,
      "ĠBase": 5052,
      "rey": 5053,
      "Ġapplic": 5054,
      "asketball": 5055,
      "sort": 5056,
      "cos": 5057,
      "Ġrelative": 5058,
      "Ġappeared": 5059,
      "Ġcut": 5060,
      "Integer": 5061,
      "Ġdevice": 5062,
      "Ptr": 5063,
      "Ġappointed": 5064,
      "Ġgoing": 5065,
      "{}": 5066,
      "ĠClub": 5067,
      "ĠAlex": 5068,
      "Ġsetting": 5069,
      "Ġalgorithm": 5070,
      "Ġvers": 5071,
      "ĠSome": 5072,
      "panish": 5073,
      "widget": 5074,
      "ycle": 5075,
      "ometry": 5076,
      "render": 5077,
      "PECT": 5078,
      "Ġregister": 5079,
      "ĠTex": 5080,
      "Operation": 5081,
      "vector": 5082,
      "Ġdetails": 5083,
      "Ġmonths": 5084,
      "ĠThomas": 5085,
      "clear": 5086,
      "Ġprinc": 5087,
      "ĠMuseum": 5088,
      "ĠTime": 5089,
      "Sk": 5090,
      "\\[": 5091,
      "mission": 5092,
      "Ġhash": 5093,
      "then": 5094,
      "den": 5095,
      "Ġseg": 5096,
      "ensuremath": 5097,
      "\\!": 5098,
      "Ġproof": 5099,
      "Ġtour": 5100,
      "Ġfixed": 5101,
      "send": 5102,
      "Ġfollowed": 5103,
      "nonumber": 5104,
      "asc": 5105,
      "ander": 5106,
      "HO": 5107,
      "ura": 5108,
      "Pass": 5109,
      "Session": 5110,
      "{-": 5111,
      "rael": 5112,
      "success": 5113,
      "Ġmulti": 5114,
      "63": 5115,
      "road": 5116,
      "ĠUs": 5117,
      "ĠRecords": 5118,
      "ĠForm": 5119,
      "Ġnatural": 5120,
      "ournament": 5121,
      "ledge": 5122,
      "53": 5123,
      "address": 5124,
      "Ġweight": 5125,
      "Ġhimself": 5126,
      "ictor": 5127,
      "Ġregard": 5128,
      "ĠGreen": 5129,
      "Ġcred": 5130,
      "ĠCentral": 5131,
      "illa": 5132,
      "card": 5133,
      "Ġnor": 5134,
      "ĠLeg": 5135,
      "ĠJew": 5136,
      "ĠUK": 5137,
      "ART": 5138,
      "Expression": 5139,
      "Ġnom": 5140,
      "ĠAfrica": 5141,
      "strict": 5142,
      "Ġunits": 5143,
      "Ġlargest": 5144,
      "ĠOper": 5145,
      "equal": 5146,
      "pop": 5147,
      "Ġcampaign": 5148,
      "ona": 5149,
      "Order": 5150,
      "Ġmemory": 5151,
      "Ġequation": 5152,
      "Ġprimary": 5153,
      "erman": 5154,
      "Left": 5155,
      "Ġprovides": 5156,
      "ynch": 5157,
      "Core": 5158,
      "ĠMo": 5159,
      "Ġtro": 5160,
      "ĠPublic": 5161,
      "isk": 5162,
      "more": 5163,
      "CA": 5164,
      "================================": 5165,
      "Ġdirection": 5166,
      "Helper": 5167,
      "Su": 5168,
      "oring": 5169,
      "Ġsession": 5170,
      "Device": 5171,
      "ĠJer": 5172,
      "Ġmother": 5173,
      "97": 5174,
      "Ġrule": 5175,
      "stry": 5176,
      "Ġbirth": 5177,
      "Match": 5178,
      "ĠMad": 5179,
      "eck": 5180,
      "oundation": 5181,
      "ALL": 5182,
      "Ġarguments": 5183,
      "Ġschools": 5184,
      ";\"": 5185,
      "arp": 5186,
      "Ġword": 5187,
      "anger": 5188,
      "ĠWork": 5189,
      "Ġrelationship": 5190,
      "Ġmissing": 5191,
      "env": 5192,
      "Inst": 5193,
      "ä¸": 5194,
      "ĠGrand": 5195,
      "Ġupon": 5196,
      "global": 5197,
      "oul": 5198,
      "blockList": 5199,
      "ĠSection": 5200,
      "ixt": 5201,
      "Ġliving": 5202,
      "Ġstore": 5203,
      "ĠAcademy": 5204,
      "ulations": 5205,
      "Draw": 5206,
      "footer": 5207,
      "cat": 5208,
      "transform": 5209,
      "Ġscreen": 5210,
      "anner": 5211,
      "ully": 5212,
      "Render": 5213,
      "icket": 5214,
      "nce": 5215,
      "UB": 5216,
      "icol": 5217,
      "ĠAssembly": 5218,
      "Ġfootballers": 5219,
      "Ġalmost": 5220,
      "ĠAccording": 5221,
      "=\"/": 5222,
      "elegate": 5223,
      "Ġpack": 5224,
      "Ġdesigned": 5225,
      "bon": 5226,
      "Ġmar": 5227,
      "Ġreplaced": 5228,
      "copy": 5229,
      "Ġdirectly": 5230,
      "Ġ['": 5231,
      "edy": 5232,
      "dots": 5233,
      "62": 5234,
      "Ġfit": 5235,
      "ĠBook": 5236,
      "Store": 5237,
      "ĠItalian": 5238,
      "structor": 5239,
      "Ġdiscover": 5240,
      "Pop": 5241,
      "'],": 5242,
      "ping": 5243,
      "Ġhous": 5244,
      "Ġvariable": 5245,
      "Ġunique": 5246,
      "ĠBGCOLOR": 5247,
      "anagement": 5248,
      "Ġmaximum": 5249,
      "ĠChristian": 5250,
      "ĠMat": 5251,
      "win": 5252,
      "anks": 5253,
      "Ġalumni": 5254,
      "Ġinj": 5255,
      "Results": 5256,
      "plugin": 5257,
      "ĠZeal": 5258,
      "1000": 5259,
      "1987": 5260,
      "Ġfinished": 5261,
      "Ġlearning": 5262,
      "Ġleague": 5263,
      "system": 5264,
      "ĠMont": 5265,
      "Ġalt": 5266,
      "ĠPre": 5267,
      "widet": 5268,
      "Title": 5269,
      "ircraft": 5270,
      "toString": 5271,
      "issions": 5272,
      "vm": 5273,
      "ĠYear": 5274,
      "DD": 5275,
      "Rect": 5276,
      "Ġplaying": 5277,
      "Ġissue": 5278,
      "cur": 5279,
      "tabular": 5280,
      "Down": 5281,
      "ĠWestern": 5282,
      "mid": 5283,
      "ĠKore": 5284,
      "ĠRad": 5285,
      "Ġdeal": 5286,
      "uan": 5287,
      "Ġargument": 5288,
      "equals": 5289,
      "pdf": 5290,
      "Ġeight": 5291,
      "ĠZealand": 5292,
      "BO": 5293,
      "mes": 5294,
      "Ġsubsequ": 5295,
      "ospital": 5296,
      "Template": 5297,
      "ĠMinister": 5298,
      "webkit": 5299,
      "(-": 5300,
      "Ġkind": 5301,
      "operator": 5302,
      "ĠCharles": 5303,
      "mode": 5304,
      "hover": 5305,
      "(:": 5306,
      "ĠScott": 5307,
      "Ġask": 5308,
      "tion": 5309,
      "Ġenough": 5310,
      "ĠDemocr": 5311,
      "after": 5312,
      "porary": 5313,
      "ĠPat": 5314,
      "}-": 5315,
      "Ġfav": 5316,
      "Ġsoftware": 5317,
      "Classes": 5318,
      "direct": 5319,
      "Ġweb": 5320,
      "las": 5321,
      "arts": 5322,
      "Net": 5323,
      "Ġneeded": 5324,
      "1986": 5325,
      "oma": 5326,
      "ĠMichael": 5327,
      "Ġfight": 5328,
      "Ġinfo": 5329,
      "\\\\\\\\": 5330,
      "Exp": 5331,
      "ean": 5332,
      "When": 5333,
      "Mar": 5334,
      "Ġexpression": 5335,
      "Ġusually": 5336,
      "ĠSummer": 5337,
      "Sign": 5338,
      "itter": 5339,
      "ĠLouis": 5340,
      "Ġscript": 5341,
      "thlet": 5342,
      "Ġswitch": 5343,
      "Ġconstit": 5344,
      "ĠSal": 5345,
      "reland": 5346,
      "azine": 5347,
      "icult": 5348,
      "Mult": 5349,
      "96": 5350,
      "ĠEar": 5351,
      "ĠMer": 5352,
      "Ġprec": 5353,
      "PR": 5354,
      "uit": 5355,
      "Ġinvolved": 5356,
      "Ġoutside": 5357,
      "izations": 5358,
      "Icon": 5359,
      "ĠWhite": 5360,
      "ĠCarol": 5361,
      "rics": 5362,
      "Ġjav": 5363,
      "Ġtoken": 5364,
      "Vari": 5365,
      "Names": 5366,
      "TER": 5367,
      "ycl": 5368,
      "click": 5369,
      "types": 5370,
      "Ġrot": 5371,
      "ĠWhile": 5372,
      "argument": 5373,
      "EQ": 5374,
      "Ġfall": 5375,
      "widetilde": 5376,
      "anded": 5377,
      "Ġcome": 5378,
      "ĠVirgin": 5379,
      "ĠSl": 5380,
      "Ġmount": 5381,
      "Ġsymbol": 5382,
      "Ġcountries": 5383,
      "SA": 5384,
      "site": 5385,
      "Ġfriend": 5386,
      "&&": 5387,
      "Ġequival": 5388,
      "access": 5389,
      "export": 5390,
      "Ġpair": 5391,
      "Ġ})": 5392,
      "range": 5393,
      "Ġguitar": 5394,
      "1984": 5395,
      "foo": 5396,
      "ething": 5397,
      "Ġeditor": 5398,
      "ĠOlympics": 5399,
      "arned": 5400,
      "ĠLat": 5401,
      "PL": 5402,
      "Host": 5403,
      "Ġtransport": 5404,
      "Ev": 5405,
      "settings": 5406,
      "Ġforces": 5407,
      "Ġsil": 5408,
      "Ġdefinition": 5409,
      "etime": 5410,
      "Ġorigin": 5411,
      "400": 5412,
      "Ġexperiment": 5413,
      "pling": 5414,
      "Ġjud": 5415,
      "Metadata": 5416,
      "rule": 5417,
      "ĠOR": 5418,
      "ACK": 5419,
      "ĠTor": 5420,
      "###": 5421,
      "het": 5422,
      "ĠEnd": 5423,
      "ĠĠĠĠĠĠĠĠĠĠĠĠĠĠĠĠĠĠĠĠĠĠĠĠĠĠĠĠĠĠĠĠĠĠĠĠĠĠĠ": 5424,
      "km": 5425,
      "scal": 5426,
      "ĠName": 5427,
      "-->": 5428,
      "ĠĠĠĠĠĠĠĠĠĠĠĠĠĠĠĠĠĠĠĠ": 5429,
      "apse": 5430,
      "Ġtaking": 5431,
      "Ġsend": 5432,
      "ĠGold": 5433,
      "dependency": 5434,
      "Ġreserv": 5435,
      "reater": 5436,
      "cover": 5437,
      "bound": 5438,
      "ĠMap": 5439,
      "endar": 5440,
      "Que": 5441,
      "ĠTexas": 5442,
      "Parameters": 5443,
      "Long": 5444,
      "Fig": 5445,
      "rial": 5446,
      "Ð»": 5447,
      "ĠField": 5448,
      "white": 5449,
      "vas": 5450,
      "panel": 5451,
      "ĠChinese": 5452,
      "=\"../../../": 5453,
      "Ġthroughout": 5454,
      "Use": 5455,
      "ernel": 5456,
      "just": 5457,
      "cp": 5458,
      "/\\": 5459,
      "usical": 5460,
      "clude": 5461,
      "idents": 5462,
      "Head": 5463,
      "session": 5464,
      "ĠOb": 5465,
      "ĉĠ": 5466,
      "Tool": 5467,
      "Ġmanager": 5468,
      "ĠTO": 5469,
      "ERROR": 5470,
      "Ġrelig": 5471,
      "ducation": 5472,
      "Ġinline": 5473,
      "oom": 5474,
      "ĠJust": 5475,
      "asic": 5476,
      "Ġcompar": 5477,
      "writ": 5478,
      "Ġconnect": 5479,
      "Ġlittle": 5480,
      "FC": 5481,
      "False": 5482,
      "Ġexact": 5483,
      "1985": 5484,
      "Non": 5485,
      "Ġdig": 5486,
      "Ġgave": 5487,
      "Ġdaughter": 5488,
      "Ġsports": 5489,
      "---": 5490,
      "ĠTom": 5491,
      "icons": 5492,
      "component": 5493,
      "=\"_": 5494,
      "Ġcoordin": 5495,
      "Ġecho": 5496,
      "Ġcluster": 5497,
      "ĠErr": 5498,
      "ĠFrancis": 5499,
      "disabled": 5500,
      "pecially": 5501,
      "Handle": 5502,
      "Ġbooks": 5503,
      "Ġnodes": 5504,
      "HP": 5505,
      "pring": 5506,
      "ĠThat": 5507,
      "ĠGreat": 5508,
      "Reference": 5509,
      "FL": 5510,
      "Te": 5511,
      "Ġmoment": 5512,
      "ita": 5513,
      "Ġpreviously": 5514,
      "Ġclasses": 5515,
      "step": 5516,
      "ĠMem": 5517,
      "fn": 5518,
      "}}{": 5519,
      "}]": 5520,
      "ĠDec": 5521,
      "Ġmechan": 5522,
      "req": 5523,
      "61": 5524,
      "ĠFootball": 5525,
      "Post": 5526,
      "Ã³n": 5527,
      "Ġundefined": 5528,
      "ORT": 5529,
      "Debug": 5530,
      "Ġplaces": 5531,
      "handle": 5532,
      "pename": 5533,
      "Sl": 5534,
      "amera": 5535,
      "Ġboard": 5536,
      "ĠSing": 5537,
      "AND": 5538,
      "Dep": 5539,
      "300": 5540,
      "Ġedge": 5541,
      "Fil": 5542,
      "Ġcourse": 5543,
      "ifying": 5544,
      "Ġinstit": 5545,
      "Ġjournal": 5546,
      "ĠDay": 5547,
      "atively": 5548,
      "Ġtakes": 5549,
      "ĠEXPECT": 5550,
      "isl": 5551,
      "ĠTrue": 5552,
      "pg": 5553,
      "yntax": 5554,
      "heast": 5555,
      "custom": 5556,
      "Ġmakes": 5557,
      ";\\": 5558,
      "Ġimages": 5559,
      "elt": 5560,
      "Serv": 5561,
      "Ġfactor": 5562,
      "Ġpredict": 5563,
      "xis": 5564,
      "gan": 5565,
      "Rev": 5566,
      "Ã§": 5567,
      "ope": 5568,
      "ĠOther": 5569,
      "Ġnumbers": 5570,
      "Ġdam": 5571,
      "Ġcourt": 5572,
      "Ġissues": 5573,
      "Ġexisting": 5574,
      "Right": 5575,
      "Ġpresented": 5576,
      "atre": 5577,
      "ĠCheck": 5578,
      "Definition": 5579,
      "Ġbuildings": 5580,
      "imestamp": 5581,
      ">();": 5582,
      "Ġquestion": 5583,
      "Ġepisode": 5584,
      "Ġcache": 5585,
      "focus": 5586,
      "kr": 5587,
      "Ġcivil": 5588,
      "people": 5589,
      "inding": 5590,
      "Ġcoach": 5591,
      "Vector": 5592,
      "vention": 5593,
      "ancial": 5594,
      "Ġparse": 5595,
      "ki": 5596,
      "Num": 5597,
      "iences": 5598,
      "ĠPri": 5599,
      "real": 5600,
      "Ġsymmet": 5601,
      "Ġkilled": 5602,
      "'.": 5603,
      "SL": 5604,
      "Ġnamespace": 5605,
      ",-": 5606,
      "Values": 5607,
      "_;": 5608,
      "Ġstudies": 5609,
      "Ġbig": 5610,
      "mercial": 5611,
      "Ġ&=": 5612,
      "ffff": 5613,
      "Ġupper": 5614,
      "force": 5615,
      "inct": 5616,
      "Ġmunic": 5617,
      "Kind": 5618,
      "ĠOrder": 5619,
      "Ġconcern": 5620,
      "Invalid": 5621,
      "IR": 5622,
      "isation": 5623,
      "ĠLoc": 5624,
      "padding": 5625,
      "scri": 5626,
      "\\]": 5627,
      "ĠCommit": 5628,
      "SET": 5629,
      "annotation": 5630,
      "Application": 5631,
      "Go": 5632,
      "coll": 5633,
      "Ġyet": 5634,
      "ĠNote": 5635,
      "media": 5636,
      "âĢľ": 5637,
      "thing": 5638,
      "Ġdestroy": 5639,
      "ĠSuper": 5640,
      "ĠHistory": 5641,
      "Api": 5642,
      "Ġeffort": 5643,
      "Ġrepresentation": 5644,
      "yper": 5645,
      "Ġhit": 5646,
      "1950": 5647,
      "high": 5648,
      "Ġmatches": 5649,
      "ĠFore": 5650,
      "ĠRegister": 5651,
      "Ġjoin": 5652,
      "ĠRun": 5653,
      "ORD": 5654,
      "Ġpercent": 5655,
      "equiv": 5656,
      "\\{": 5657,
      "87": 5658,
      "Ġmonth": 5659,
      "framework": 5660,
      "Has": 5661,
      "ĠForce": 5662,
      "ether": 5663,
      ",âĢĿ": 5664,
      "Dom": 5665,
      "idae": 5666,
      "Ġcontainer": 5667,
      "Ġallows": 5668,
      "Assert": 5669,
      "ĠHel": 5670,
      "Ġtit": 5671,
      "ĠChe": 5672,
      "ĠParis": 5673,
      "ĠJose": 5674,
      "ingu": 5675,
      "Ġdomain": 5676,
      "}\"": 5677,
      "Iter": 5678,
      "mas": 5679,
      "Ġimmedi": 5680,
      "ĠST": 5681,
      "1983": 5682,
      "ailed": 5683,
      "Ġsound": 5684,
      "Ġdifficult": 5685,
      "Ġincrease": 5686,
      "Ver": 5687,
      "86": 5688,
      "gebra": 5689,
      "Ġfemale": 5690,
      "Ġstations": 5691,
      "Ġgot": 5692,
      "standing": 5693,
      "azz": 5694,
      "EM": 5695,
      "Ġdelete": 5696,
      "well": 5697,
      "Argument": 5698,
      "Ġtax": 5699,
      "illing": 5700,
      "Ġartists": 5701,
      "Ġactual": 5702,
      "Parent": 5703,
      "ĠDel": 5704,
      "edge": 5705,
      "89": 5706,
      "Stack": 5707,
      "ATH": 5708,
      "ĠSecond": 5709,
      "Ġitems": 5710,
      "exception": 5711,
      "Ġseven": 5712,
      "Am": 5713,
      "Äģ": 5714,
      "fony": 5715,
      "Ġexhib": 5716,
      "PT": 5717,
      "Ġproblems": 5718,
      "Ġunsigned": 5719,
      "Person": 5720,
      "del": 5721,
      "ĠCatholic": 5722,
      "oviet": 5723,
      "IF": 5724,
      "connect": 5725,
      "coq": 5726,
      "ĠCre": 5727,
      "toggle": 5728,
      "Ġstre": 5729,
      "Ġavoid": 5730,
      "ĠSmith": 5731,
      "Ġren": 5732,
      "osen": 5733,
      "ipe": 5734,
      "ĠBen": 5735,
      "Ac": 5736,
      "Do": 5737,
      "Ġplatform": 5738,
      "ĠDet": 5739,
      "sql": 5740,
      "Ã¨": 5741,
      "Ġchall": 5742,
      "Reader": 5743,
      "Xml": 5744,
      "rees": 5745,
      "ountry": 5746,
      "Ġmedal": 5747,
      "lam": 5748,
      "ĠVer": 5749,
      "ĠDate": 5750,
      "ye": 5751,
      "Ġpolice": 5752,
      "Ġign": 5753,
      "Ġspeed": 5754,
      "MD": 5755,
      "Ġraise": 5756,
      "Ġoriginally": 5757,
      "Ġlisted": 5758,
      "Ġwords": 5759,
      "ymfony": 5760,
      "Ġreading": 5761,
      "Ġcomment": 5762,
      "ĠFrank": 5763,
      "Ġsen": 5764,
      "Ġprogress": 5765,
      "ĠRichard": 5766,
      "(*": 5767,
      "Mock": 5768,
      "Ġsort": 5769,
      "Ġeffects": 5770,
      "85": 5771,
      "255": 5772,
      "Ġattr": 5773,
      "istan": 5774,
      "ighest": 5775,
      "sem": 5776,
      "Ġtherefore": 5777,
      "protobuf": 5778,
      "Ġord": 5779,
      "allow": 5780,
      "----------------------------------------------------------------": 5781,
      "El": 5782,
      "icrosoft": 5783,
      "GET": 5784,
      "ĠIsrael": 5785,
      "Decl": 5786,
      "ĠPeter": 5787,
      "1982": 5788,
      "Ġstated": 5789,
      "graph": 5790,
      "Ġos": 5791,
      "Ġcomponents": 5792,
      "Ġterr": 5793,
      "lev": 5794,
      "'>": 5795,
      "ĠScience": 5796,
      "utch": 5797,
      "Ġfinite": 5798,
      "ATA": 5799,
      "Ġtransaction": 5800,
      "Ġbasis": 5801,
      "Ġapplied": 5802,
      "Ġrepresented": 5803,
      "Ġlonger": 5804,
      "ĠJSON": 5805,
      "plugins": 5806,
      ";<": 5807,
      "lemma": 5808,
      "Ġdimension": 5809,
      "zeta": 5810,
      "That": 5811,
      "Ġaltern": 5812,
      "Ġdatabase": 5813,
      "ĠCommand": 5814,
      "clusion": 5815,
      "allery": 5816,
      "isions": 5817,
      "holder": 5818,
      "Ðº": 5819,
      "ĠAust": 5820,
      "ĠAut": 5821,
      "Ġtransition": 5822,
      "help": 5823,
      "Args": 5824,
      "DF": 5825,
      "ĠEq": 5826,
      "\\\"": 5827,
      "Ġroute": 5828,
      "SION": 5829,
      "fields": 5830,
      "ining": 5831,
      "ĠFlor": 5832,
      "pub": 5833,
      "star": 5834,
      "Ġextension": 5835,
      "Psi": 5836,
      "Ġlibrary": 5837,
      "ĠCON": 5838,
      "itable": 5839,
      "ĠEv": 5840,
      "Ġeventually": 5841,
      "Ġ\"/": 5842,
      "jection": 5843,
      "ĠRob": 5844,
      "anning": 5845,
      "Ġsurv": 5846,
      "ĠLong": 5847,
      "Ġobserved": 5848,
      "indent": 5849,
      "Ġ('": 5850,
      "Ġreached": 5851,
      "onstr": 5852,
      "Se": 5853,
      "tip": 5854,
      "aved": 5855,
      "Ġsus": 5856,
      "Ġreve": 5857,
      "ometimes": 5858,
      ">.": 5859,
      "ĠGod": 5860,
      "Ġheader": 5861,
      "Ġholds": 5862,
      "Ġabs": 5863,
      "Ġgives": 5864,
      "nel": 5865,
      "sets": 5866,
      "recated": 5867,
      "icago": 5868,
      "ĠTheorem": 5869,
      "ella": 5870,
      "Ġaccur": 5871,
      "shot": 5872,
      "Bytes": 5873,
      "ĠVictor": 5874,
      "Ġhar": 5875,
      "ja": 5876,
      "ĠMath": 5877,
      "ertific": 5878,
      "ky": 5879,
      "overs": 5880,
      "}+": 5881,
      "rum": 5882,
      "ested": 5883,
      "ĠĠĠĠĠĠĊ": 5884,
      "ishop": 5885,
      "Ġscore": 5886,
      "Ġruns": 5887,
      "ockey": 5888,
      "reme": 5889,
      "Ġvisit": 5890,
      "inline": 5891,
      "1979": 5892,
      "razil": 5893,
      "Ġsplit": 5894,
      "orse": 5895,
      "rome": 5896,
      "Ġotherwise": 5897,
      "ĠFilm": 5898,
      "admin": 5899,
      "anufact": 5900,
      "category": 5901,
      "ollowing": 5902,
      "Ġsettings": 5903,
      "cup": 5904,
      "anned": 5905,
      "ĠSpanish": 5906,
      "ĠLos": 5907,
      "Ġpackage": 5908,
      "textwidth": 5909,
      "WE": 5910,
      "present": 5911,
      "Ġsm": 5912,
      "Ġjson": 5913,
      "ĠBill": 5914,
      "acement": 5915,
      "Ġnote": 5916,
      "Ġprote": 5917,
      "ette": 5918,
      "Ġoptim": 5919,
      "ishing": 5920,
      "ĠDu": 5921,
      "You": 5922,
      "ĠIreland": 5923,
      "ĠHTML": 5924,
      "Body": 5925,
      "ĠCommission": 5926,
      "Ġapply": 5927,
      "Ġbyte": 5928,
      "END": 5929,
      "Ġbytes": 5930,
      "Ġnet": 5931,
      "Ġcop": 5932,
      "pers": 5933,
      "Ġvariables": 5934,
      "byte": 5935,
      "ĠMel": 5936,
      "Dialog": 5937,
      "Fields": 5938,
      "Ġbrother": 5939,
      "ĠLake": 5940,
      "Ġcompared": 5941,
      "Ġthread": 5942,
      "\")]": 5943,
      "Enabled": 5944,
      "Ġdecision": 5945,
      "aws": 5946,
      "Ġtrain": 5947,
      "ih": 5948,
      "sumer": 5949,
      "itz": 5950,
      "ĠMass": 5951,
      "Ġste": 5952,
      "aver": 5953,
      "ĠHenry": 5954,
      "Ġpolitician": 5955,
      "Ġcontaining": 5956,
      ")=\\": 5957,
      "ĠOver": 5958,
      "ĠResearch": 5959,
      "anta": 5960,
      "Ġstarting": 5961,
      "virtual": 5962,
      "}_\\": 5963,
      "ĠRE": 5964,
      "prime": 5965,
      "ongs": 5966,
      "ĠGeorg": 5967,
      "Ġespecially": 5968,
      "Ġinside": 5969,
      "Writer": 5970,
      "widehat": 5971,
      "Ġsources": 5972,
      "ells": 5973,
      "Ġneeds": 5974,
      "nam": 5975,
      "ĠSur": 5976,
      "erve": 5977,
      "Ġerrors": 5978,
      "Ġer": 5979,
      "aled": 5980,
      "iller": 5981,
      "Ġ${": 5982,
      "Notes": 5983,
      "Ġlayer": 5984,
      "Ġcapital": 5985,
      "auto": 5986,
      "1981": 5987,
      "inet": 5988,
      "igan": 5989,
      "Root": 5990,
      "ĠIO": 5991,
      "mock": 5992,
      "attribute": 5993,
      "replace": 5994,
      "Main": 5995,
      "free": 5996,
      "ares": 5997,
      "irl": 5998,
      ")}\\": 5999,
      "ĠPenn": 6000,
      "Policy": 6001,
      "Ġremained": 6002,
      "ims": 6003,
      "Ġstaff": 6004,
      "Ġsecurity": 6005,
      "callback": 6006,
      "ved": 6007,
      "Ġmanagement": 6008,
      "Since": 6009,
      "Ġaircraft": 6010,
      "CS": 6011,
      "uple": 6012,
      "Ġrules": 6013,
      "Ġbehind": 6014,
      "Ġbroadcast": 6015,
      "olf": 6016,
      "boolean": 6017,
      "retary": 6018,
      "Delete": 6019,
      "enum": 6020,
      "full": 6021,
      "Ġimm": 6022,
      "ĠProf": 6023,
      "Ġstructures": 6024,
      "icate": 6025,
      "ien": 6026,
      "Year": 6027,
      "Wrap": 6028,
      "mitted": 6029,
      "aud": 6030,
      "Ġauth": 6031,
      "Ġbeginning": 6032,
      "Ġartist": 6033,
      "ĠTechn": 6034,
      "Members": 6035,
      "Ġthought": 6036,
      "yes": 6037,
      "'))": 6038,
      "ato": 6039,
      "Ġnight": 6040,
      "Cal": 6041,
      "Tests": 6042,
      "application": 6043,
      "Ġplant": 6044,
      "double": 6045,
      "`.": 6046,
      "Ġremoved": 6047,
      "Ġfamil": 6048,
      "Ġdirectory": 6049,
      "insert": 6050,
      "Click": 6051,
      "NN": 6052,
      "uty": 6053,
      "term": 6054,
      "ĠWomen": 6055,
      "LS": 6056,
      "Package": 6057,
      "ansion": 6058,
      "Ġdistributed": 6059,
      "register": 6060,
      "forms": 6061,
      "agram": 6062,
      "Ġsaw": 6063,
      "Ġplaced": 6064,
      "Doc": 6065,
      "exports": 6066,
      "that": 6067,
      "Ġanaly": 6068,
      "ĠHow": 6069,
      "FAULT": 6070,
      "rot": 6071,
      "ĠKey": 6072,
      "ads": 6073,
      "Tab": 6074,
      "Ġbutton": 6075,
      "Care": 6076,
      "ĠSwed": 6077,
      "legal": 6078,
      "fil": 6079,
      "ĠRock": 6080,
      "RI": 6081,
      "Ġinvoke": 6082,
      "cloud": 6083,
      "Ġtowards": 6084,
      "material": 6085,
      "comment": 6086,
      "ores": 6087,
      "Ġpersonal": 6088,
      "iders": 6089,
      "1976": 6090,
      "ORM": 6091,
      "Ġsex": 6092,
      "Di": 6093,
      "Ġindu": 6094,
      "omorph": 6095,
      "Ġsignal": 6096,
      "netic": 6097,
      "Byte": 6098,
      "bot": 6099,
      "Ġfourth": 6100,
      "Ġmention": 6101,
      "uting": 6102,
      "Changed": 6103,
      "Ġsmaller": 6104,
      "ĠCommittee": 6105,
      "72": 6106,
      "ĠFinal": 6107,
      "Ġ++": 6108,
      "election": 6109,
      "evelopment": 6110,
      "Ġdu": 6111,
      "Ġoccup": 6112,
      "OK": 6113,
      "Ġyield": 6114,
      "ker": 6115,
      "anguage": 6116,
      "Ġindustry": 6117,
      "Early": 6118,
      "Mark": 6119,
      "1972": 6120,
      "ĠTable": 6121,
      "}=\\": 6122,
      "atalog": 6123,
      "Ġ\\{": 6124,
      "Red": 6125,
      "ulate": 6126,
      "abit": 6127,
      "ynchron": 6128,
      "ĠVirginia": 6129,
      "coin": 6130,
      "$)": 6131,
      "Boolean": 6132,
      "Ġconcept": 6133,
      "Ġcouple": 6134,
      "tw": 6135,
      "Ġawarded": 6136,
      "ifest": 6137,
      "Ġpor": 6138,
      "Ġfeatured": 6139,
      "hold": 6140,
      "short": 6141,
      "xx": 6142,
      "ipeline": 6143,
      "82": 6144,
      "reement": 6145,
      "}^\\": 6146,
      "Ġbehavior": 6147,
      ";/": 6148,
      "oration": 6149,
      "ĠPost": 6150,
      "1978": 6151,
      "PS": 6152,
      "PA": 6153,
      "Ġ'/": 6154,
      "URE": 6155,
      "cpp": 6156,
      "Ġpartial": 6157,
      "keyword": 6158,
      "Ġprobability": 6159,
      "Ġstudied": 6160,
      "ĠKn": 6161,
      "TV": 6162,
      "Ġgold": 6163,
      "Ġdemonstr": 6164,
      "thm": 6165,
      "ora": 6166,
      "eek": 6167,
      "region": 6168,
      "Ġfamilies": 6169,
      "alax": 6170,
      "Bl": 6171,
      "Ġwhole": 6172,
      "Ġscen": 6173,
      "Ġcollege": 6174,
      "ĠPan": 6175,
      "ĠCamp": 6176,
      "Ġsure": 6177,
      "store": 6178,
      "usion": 6179,
      "items": 6180,
      "ĠHill": 6181,
      "Other": 6182,
      "Ġphysical": 6183,
      "Note": 6184,
      "à¸": 6185,
      "ĠIll": 6186,
      "Ġshape": 6187,
      "Ġtemperature": 6188,
      "Ġface": 6189,
      "hs": 6190,
      ")^{": 6191,
      "Ġcritic": 6192,
      "Ġteach": 6193,
      "Ġnative": 6194,
      "Ġfinally": 6195,
      "She": 6196,
      "Äĩ": 6197,
      "Ġlimited": 6198,
      "GB": 6199,
      "lers": 6200,
      "79": 6201,
      "Cre": 6202,
      ")/": 6203,
      "Descriptor": 6204,
      "Ġess": 6205,
      "ĠMethod": 6206,
      "Ġcounter": 6207,
      "ĠLO": 6208,
      "password": 6209,
      "Ġscient": 6210,
      "Ġeffective": 6211,
      "Ġsch": 6212,
      "cmd": 6213,
      "ĠĠĠĠĠĠĠĠĠĠĠĠĠĠĠĠĠĠ": 6214,
      "Ġnecessary": 6215,
      "Ġdescribe": 6216,
      "ĠCongress": 6217,
      "Ġforward": 6218,
      "Ġmsg": 6219,
      "bedd": 6220,
      "olk": 6221,
      "adoop": 6222,
      "ying": 6223,
      "Ġsinger": 6224,
      "1974": 6225,
      "family": 6226,
      "1975": 6227,
      "Ġcollect": 6228,
      "ĠMil": 6229,
      "Ġimpact": 6230,
      "Storage": 6231,
      "Ġestablishments": 6232,
      "Ġmovement": 6233,
      "Show": 6234,
      "ĠEvent": 6235,
      "olar": 6236,
      "Ġgenerally": 6237,
      "Custom": 6238,
      "ĠRequ": 6239,
      "ĠâĢĺ": 6240,
      "ĠAL": 6241,
      "udd": 6242,
      "Ġgrant": 6243,
      "1977": 6244,
      "Ġcause": 6245,
      "icated": 6246,
      "prox": 6247,
      "eloc": 6248,
      "Ġli": 6249,
      "Ġincreasing": 6250,
      "ĠFin": 6251,
      "lie": 6252,
      "ĠCast": 6253,
      "Ġorganization": 6254,
      "ko": 6255,
      "Ġlikely": 6256,
      "Ġ),": 6257,
      "ĉĉĉĊ": 6258,
      "Ġwait": 6259,
      "Ġstars": 6260,
      "84": 6261,
      "Ġleader": 6262,
      "Ġdoesn": 6263,
      "Ġboundary": 6264,
      "stat": 6265,
      "onds": 6266,
      "ici": 6267,
      "Ġcompetition": 6268,
      "initial": 6269,
      "ĠIS": 6270,
      "Ġbecomes": 6271,
      "Ñĥ": 6272,
      "install": 6273,
      "eries": 6274,
      "Ġvolume": 6275,
      "Ġassume": 6276,
      "Rule": 6277,
      "names": 6278,
      "JECT": 6279,
      "Ġflag": 6280,
      "ĠArts": 6281,
      "fly": 6282,
      "ignment": 6283,
      "Ġtournament": 6284,
      "ees": 6285,
      "Ġunknown": 6286,
      "Ġ<=": 6287,
      "Ġculture": 6288,
      "Ġincor": 6289,
      "Sum": 6290,
      "Ġpractice": 6291,
      "ening": 6292,
      "gs": 6293,
      "1968": 6294,
      "urt": 6295,
      "DL": 6296,
      "Ġremains": 6297,
      "allel": 6298,
      "email": 6299,
      "{(": 6300,
      "ĠMexico": 6301,
      "geles": 6302,
      "Art": 6303,
      "ĠMus": 6304,
      "ĠBig": 6305,
      "Ġsomething": 6306,
      "Ġmiddle": 6307,
      "margin": 6308,
      "pool": 6309,
      "My": 6310,
      "Job": 6311,
      "Ġhighest": 6312,
      "Ġmoney": 6313,
      "Ġwallet": 6314,
      "esh": 6315,
      "iece": 6316,
      "__(": 6317,
      "Ġang": 6318,
      "Meta": 6319,
      "liance": 6320,
      "GE": 6321,
      "Ġgas": 6322,
      "Ġaud": 6323,
      "Ġearlier": 6324,
      "ĠGovernment": 6325,
      "mathsf": 6326,
      "plements": 6327,
      "unsigned": 6328,
      "Ġmut": 6329,
      "pret": 6330,
      "Ġtests": 6331,
      "Each": 6332,
      "Ġball": 6333,
      "Ġveh": 6334,
      "Ġfood": 6335,
      "Ġdecided": 6336,
      "Ġresources": 6337,
      "ĠTem": 6338,
      "ĠFigure": 6339,
      "ĠĠĠĠĠĠĠĠĠĠĠĠĠĠĠĠĠĠĠĠĠĠĠĠĠ": 6340,
      "Ġrepe": 6341,
      "Ġprem": 6342,
      "Obj": 6343,
      "Ġsens": 6344,
      "ĠAv": 6345,
      ":#": 6346,
      "Ġdro": 6347,
      "contrib": 6348,
      "SSERT": 6349,
      "ĠChicago": 6350,
      "Ġextra": 6351,
      "olume": 6352,
      "Ġusers": 6353,
      "Ġprofile": 6354,
      "pute": 6355,
      "Ġconnected": 6356,
      "ĠItaly": 6357,
      "Transaction": 6358,
      "AGE": 6359,
      "ĠSaint": 6360,
      "ami": 6361,
      "=\"@": 6362,
      "Ġforms": 6363,
      "numer": 6364,
      "Ġactor": 6365,
      "ĠUser": 6366,
      "ĠValue": 6367,
      "}|": 6368,
      "ĠIts": 6369,
      "76": 6370,
      "tained": 6371,
      "sche": 6372,
      "acc": 6373,
      "spe": 6374,
      "Ġdeep": 6375,
      "ĠAngeles": 6376,
      "Ġded": 6377,
      "elves": 6378,
      "Ġinvolv": 6379,
      "ady": 6380,
      "grid": 6381,
      "ĠModel": 6382,
      "ĠThus": 6383,
      "Extension": 6384,
      "product": 6385,
      "1973": 6386,
      "ga": 6387,
      "ĠDen": 6388,
      "ipality": 6389,
      "Ġvan": 6390,
      "ĠRussia": 6391,
      "Ġinvestig": 6392,
      "ussian": 6393,
      "romise": 6394,
      "ĠNavy": 6395,
      "ĠLine": 6396,
      "agnost": 6397,
      "uf": 6398,
      "ĠCD": 6399,
      "Ġremaining": 6400,
      "Ġquantum": 6401,
      "Man": 6402,
      "oub": 6403,
      "mooth": 6404,
      "keys": 6405,
      "scr": 6406,
      "ĠChampionships": 6407,
      "HTML": 6408,
      "Ġpri": 6409,
      "ugby": 6410,
      "Ġimplementation": 6411,
      "Ġscored": 6412,
      "Ġspent": 6413,
      "Ġbank": 6414,
      "iger": 6415,
      "ĠProject": 6416,
      "Ġserial": 6417,
      "radius": 6418,
      "ĠPub": 6419,
      "Ġactually": 6420,
      "ĠTwo": 6421,
      "ĠKe": 6422,
      "Ġunc": 6423,
      "agger": 6424,
      "ĠLand": 6425,
      "sur": 6426,
      "Ġlock": 6427,
      "cdots": 6428,
      "Ġprevent": 6429,
      "sect": 6430,
      "ji": 6431,
      "ĠScot": 6432,
      "linear": 6433,
      "Ġjavax": 6434,
      "connection": 6435,
      "related": 6436,
      "ression": 6437,
      "\">&": 6438,
      "`,": 6439,
      "Ġarticle": 6440,
      "thread": 6441,
      "addr": 6442,
      "Ġpick": 6443,
      "onic": 6444,
      "herit": 6445,
      "ali": 6446,
      "ĠEmp": 6447,
      "ously": 6448,
      "ĠSeries": 6449,
      "yan": 6450,
      "iments": 6451,
      "Ġextended": 6452,
      "Account": 6453,
      "Initial": 6454,
      "ĠKh": 6455,
      "Ġremain": 6456,
      "scroll": 6457,
      "ima": 6458,
      "ĠInc": 6459,
      "inger": 6460,
      "CR": 6461,
      "ĠEr": 6462,
      "Ġhtml": 6463,
      "Ġty": 6464,
      "Ġpurch": 6465,
      "1940": 6466,
      "ACE": 6467,
      "ĠassertEquals": 6468,
      "Dist": 6469,
      ")-": 6470,
      "ĠFlorida": 6471,
      "Ġsoon": 6472,
      "ental": 6473,
      "edit": 6474,
      "ĠÎ": 6475,
      "Ġbrought": 6476,
      "Ġbasketball": 6477,
      "solute": 6478,
      "Ret": 6479,
      "ĠFe": 6480,
      "record": 6481,
      "TEST": 6482,
      "spring": 6483,
      "crete": 6484,
      "ĠURL": 6485,
      "Ġadopt": 6486,
      "KEY": 6487,
      "Ġthings": 6488,
      "Ġtoday": 6489,
      "94": 6490,
      "uby": 6491,
      "BS": 6492,
      "ancy": 6493,
      "ĠRel": 6494,
      "1971": 6495,
      "Ġaccom": 6496,
      "lood": 6497,
      "car": 6498,
      "dimension": 6499,
      "dule": 6500,
      "Ġbottom": 6501,
      "})\\": 6502,
      "olver": 6503,
      "relation": 6504,
      "resents": 6505,
      "Ġconsole": 6506,
      "Ġbur": 6507,
      "*)": 6508,
      "}:": 6509,
      "Ġexplicit": 6510,
      "organ": 6511,
      "Ġapproximately": 6512,
      "ola": 6513,
      "Final": 6514,
      "160": 6515,
      "ĠMax": 6516,
      "Ġgrand": 6517,
      "eve": 6518,
      "atically": 6519,
      "Ġcontact": 6520,
      "CTION": 6521,
      "pped": 6522,
      "AME": 6523,
      "Ġscience": 6524,
      "qquad": 6525,
      "ils": 6526,
      "Active": 6527,
      "1945": 6528,
      "inder": 6529,
      "Queue": 6530,
      "Ġquick": 6531,
      "Ġstrict": 6532,
      "BR": 6533,
      "uter": 6534,
      "hadoop": 6535,
      "Ġevidence": 6536,
      "Ġexperience": 6537,
      "ĠTw": 6538,
      "ĠError": 6539,
      "ĠFoundation": 6540,
      "ĠParliament": 6541,
      "Ġminor": 6542,
      "Ġlove": 6543,
      "Ġgenerate": 6544,
      ".~": 6545,
      "Ġnuc": 6546,
      "Ġrecords": 6547,
      "ĠSoviet": 6548,
      "English": 6549,
      "osing": 6550,
      "Ġlack": 6551,
      "ĠBoard": 6552,
      "======": 6553,
      "Ġpeak": 6554,
      "Ġbtn": 6555,
      "ĠCarolina": 6556,
      "1969": 6557,
      "Ident": 6558,
      "Ġlevels": 6559,
      "ova": 6560,
      "Åį": 6561,
      "Ġonline": 6562,
      "Ġreally": 6563,
      "Float": 6564,
      "Ġwriters": 6565,
      "Ġnews": 6566,
      "jquery": 6567,
      "Send": 6568,
      "ĠFestival": 6569,
      "Ġcommercial": 6570,
      "ĠLife": 6571,
      "odec": 6572,
      "Ġinteger": 6573,
      "bi": 6574,
      "Ġappears": 6575,
      "none": 6576,
      "Ġactress": 6577,
      "Ġgun": 6578,
      "Ġtravel": 6579,
      "Ġfif": 6580,
      "unched": 6581,
      "93": 6582,
      "Var": 6583,
      "war": 6584,
      "Only": 6585,
      "Network": 6586,
      "Ġetc": 6587,
      "ylvan": 6588,
      "Ġcit": 6589,
      "Display": 6590,
      "Timeout": 6591,
      "isters": 6592,
      "house": 6593,
      "ĠEngine": 6594,
      "Ġcategory": 6595,
      "Ġinstr": 6596,
      "Ġdifference": 6597,
      "ĠĠĠĊ": 6598,
      "Ġresulting": 6599,
      "ĠVAL": 6600,
      "Activity": 6601,
      "Ø§": 6602,
      "ny": 6603,
      "Ġmur": 6604,
      "Ġlatter": 6605,
      "oral": 6606,
      "Å¡": 6607,
      "JSON": 6608,
      "ython": 6609,
      "Ġdivision": 6610,
      "Ġga": 6611,
      "Play": 6612,
      "elebr": 6613,
      "=\"\">": 6614,
      "lyph": 6615,
      "Ġlegal": 6616,
      "iana": 6617,
      "urrenc": 6618,
      "master": 6619,
      "Ġincreased": 6620,
      "va": 6621,
      "Ġdb": 6622,
      "%%%%": 6623,
      "dropdown": 6624,
      "ech": 6625,
      "ĠStep": 6626,
      "utf": 6627,
      "~~~~": 6628,
      "elli": 6629,
      "Ġbranch": 6630,
      "oped": 6631,
      "ĠUse": 6632,
      "ayed": 6633,
      "256": 6634,
      "Ġtrade": 6635,
      "ango": 6636,
      "92": 6637,
      "Ġ$(\\": 6638,
      "ĠPlay": 6639,
      "har": 6640,
      "Ġproducer": 6641,
      "ectors": 6642,
      "irmed": 6643,
      "Ġplays": 6644,
      "Ġapi": 6645,
      "Ġstudent": 6646,
      "Ġcaused": 6647,
      "ĠAnn": 6648,
      "ĠStar": 6649,
      "FILE": 6650,
      "Ġpen": 6651,
      "Ġshare": 6652,
      "Ġpublish": 6653,
      "'re": 6654,
      "Ġoverall": 6655,
      "1930": 6656,
      "Ġbenef": 6657,
      "Ġmanufact": 6658,
      "ouri": 6659,
      "Ġbegin": 6660,
      "stats": 6661,
      "@\"": 6662,
      "Const": 6663,
      "iano": 6664,
      "Bit": 6665,
      "ĠOld": 6666,
      "variant": 6667,
      "Ġ$.": 6668,
      "ifies": 6669,
      "Ġunion": 6670,
      "faces": 6671,
      "bal": 6672,
      "ocker": 6673,
      "lines": 6674,
      "Background": 6675,
      "ĠHealth": 6676,
      "Ġmeaning": 6677,
      "Ġconsists": 6678,
      "cut": 6679,
      "pare": 6680,
      "}}(": 6681,
      "Ġspin": 6682,
      "Widget": 6683,
      "Ġcharg": 6684,
      "iring": 6685,
      "Ġstack": 6686,
      "Ġwide": 6687,
      "ĠGl": 6688,
      "osh": 6689,
      "inem": 6690,
      "Ġsimply": 6691,
      ")\"": 6692,
      "napshot": 6693,
      "Ġhot": 6694,
      "Ġtraditional": 6695,
      "iro": 6696,
      "ixel": 6697,
      "ĠGoogle": 6698,
      "ĠUnder": 6699,
      "ĠNews": 6700,
      "ati": 6701,
      "wa": 6702,
      "uler": 6703,
      "ĠHand": 6704,
      "rip": 6705,
      "shape": 6706,
      "xspace": 6707,
      "74": 6708,
      "[:": 6709,
      "Ġwrap": 6710,
      "uages": 6711,
      "stop": 6712,
      "PRE": 6713,
      "Ġregions": 6714,
      "assets": 6715,
      "1967": 6716,
      "ĠKar": 6717,
      "properties": 6718,
      "Member": 6719,
      "Ġcritical": 6720,
      "enter": 6721,
      "bul": 6722,
      "Ġproper": 6723,
      "Ġrecover": 6724,
      "jar": 6725,
      "tsd": 6726,
      "Ġbad": 6727,
      "Ġnoted": 6728,
      "inate": 6729,
      "Ġidea": 6730,
      "WS": 6731,
      "91": 6732,
      "Ġhours": 6733,
      "Ġ%}": 6734,
      "Ġ{};": 6735,
      "1964": 6736,
      "ĠFI": 6737,
      "miss": 6738,
      "Ġpark": 6739,
      "ById": 6740,
      "amilton": 6741,
      "Ġcharge": 6742,
      "modules": 6743,
      "adium": 6744,
      "fit": 6745,
      "Pool": 6746,
      "ĠText": 6747,
      "reshold": 6748,
      "ĠSil": 6749,
      "81": 6750,
      "Ġacadem": 6751,
      "}^{(": 6752,
      "ylvania": 6753,
      "GS": 6754,
      "ĠAlthough": 6755,
      "Ġshared": 6756,
      "apped": 6757,
      "umerate": 6758,
      "ĠBrazil": 6759,
      "ancel": 6760,
      "ips": 6761,
      "Ġelectron": 6762,
      "orter": 6763,
      "ĠDefault": 6764,
      "Flags": 6765,
      "spect": 6766,
      "ĠWales": 6767,
      "Ġanti": 6768,
      "(!": 6769,
      "Me": 6770,
      "Ġ(*": 6771,
      "ĠAwards": 6772,
      "ĠOh": 6773,
      "LP": 6774,
      "sample": 6775,
      "results": 6776,
      "ĠShow": 6777,
      "Ġvocals": 6778,
      "Ġsometimes": 6779,
      "Ġmock": 6780,
      "Now": 6781,
      "enge": 6782,
      "atur": 6783,
      "ĠProvince": 6784,
      "Ġroom": 6785,
      "CI": 6786,
      "ĠTimes": 6787,
      "Ġtalk": 6788,
      "Channel": 6789,
      "TS": 6790,
      "83": 6791,
      "ITY": 6792,
      "plex": 6793,
      "pri": 6794,
      "Media": 6795,
      "ĠMost": 6796,
      "Ġicon": 6797,
      "Ġentered": 6798,
      "ĠAtl": 6799,
      "Sche": 6800,
      "Adapter": 6801,
      "Ġmatter": 6802,
      "Ġsays": 6803,
      "stitution": 6804,
      "Ġproducts": 6805,
      "Ġtransl": 6806,
      "hentication": 6807,
      "writer": 6808,
      "rb": 6809,
      "{{\\": 6810,
      "Ġrap": 6811,
      "Ġactivity": 6812,
      "=\"\"": 6813,
      "Ġfinancial": 6814,
      "contin": 6815,
      "During": 6816,
      "^+": 6817,
      "Ġinstanceof": 6818,
      "ĠMur": 6819,
      "git": 6820,
      "Ġmaster": 6821,
      "TC": 6822,
      "atriate": 6823,
      ".*": 6824,
      "iki": 6825,
      "Ġprison": 6826,
      "Ð°Ð": 6827,
      "inv": 6828,
      "ixture": 6829,
      "Ġwhom": 6830,
      "ĠLu": 6831,
      "ĠPet": 6832,
      "move": 6833,
      "ror": 6834,
      "ira": 6835,
      "ĠIrish": 6836,
      "TED": 6837,
      "Ġseparate": 6838,
      "(){": 6839,
      "Ġrestrict": 6840,
      "Ġfeed": 6841,
      "Ġprograms": 6842,
      "Lock": 6843,
      "Career": 6844,
      "ifications": 6845,
      "Ġwoman": 6846,
      "Ä±": 6847,
      "Ġâ": 6848,
      "ĠNOT": 6849,
      "Ġshot": 6850,
      "Ġillustr": 6851,
      "annels": 6852,
      "itan": 6853,
      "Att": 6854,
      "ilation": 6855,
      "Ġensure": 6856,
      "ĠFalse": 6857,
      "ĠHistoric": 6858,
      "John": 6859,
      "SU": 6860,
      "VERSION": 6861,
      "aria": 6862,
      ")))": 6863,
      "dim": 6864,
      "yg": 6865,
      "andra": 6866,
      "73": 6867,
      "Ġended": 6868,
      "Ġ&\\": 6869,
      "Ġrequires": 6870,
      "maz": 6871,
      "Items": 6872,
      "Ġalloc": 6873,
      "while": 6874,
      "kg": 6875,
      "ĠPac": 6876,
      "Protocol": 6877,
      "1965": 6878,
      "ĠLiber": 6879,
      "ĠMa": 6880,
      "Ne": 6881,
      "ĠSun": 6882,
      "rev": 6883,
      "ĠRead": 6884,
      "Ġcore": 6885,
      "impl": 6886,
      "ĠColor": 6887,
      "ĠAlso": 6888,
      "Ġwid": 6889,
      "acket": 6890,
      "Ġhandler": 6891,
      "ĠEmpire": 6892,
      "kin": 6893,
      "Ġchain": 6894,
      "dx": 6895,
      "ĠBur": 6896,
      "Ġstatement": 6897,
      "Ġequivalent": 6898,
      "bes": 6899,
      "}\\\\": 6900,
      "ĠArab": 6901,
      "printf": 6902,
      "Ġactivities": 6903,
      "Ġfigure": 6904,
      "Ġparticularly": 6905,
      "1966": 6906,
      "1920": 6907,
      "UID": 6908,
      "urred": 6909,
      "Pattern": 6910,
      "bitr": 6911,
      "Ġcensus": 6912,
      "Ġseasons": 6913,
      "EC": 6914,
      "uda": 6915,
      "Logger": 6916,
      "]$": 6917,
      "Ġedition": 6918,
      "Ġnegative": 6919,
      "PATH": 6920,
      "security": 6921,
      "ĠĠĠĠĠĠĠĠĠĠĠĠĠĠĠĠĠĠĠĠĠĠĠĠ": 6922,
      "Ġchart": 6923,
      "ĠBrown": 6924,
      "ĠBank": 6925,
      "Ġattributes": 6926,
      "Ġfully": 6927,
      "Ġminutes": 6928,
      "TABLE": 6929,
      "Any": 6930,
      "Ġchoice": 6931,
      "Ġclean": 6932,
      "Ġking": 6933,
      "ansas": 6934,
      "Struct": 6935,
      "Ġattended": 6936,
      "Ġbattle": 6937,
      "pay": 6938,
      "alloc": 6939,
      "Ġkeys": 6940,
      "save": 6941,
      "ĠTour": 6942,
      "ĠLemma": 6943,
      "notation": 6944,
      "amm": 6945,
      "ecause": 6946,
      "Ġagent": 6947,
      "ĠGen": 6948,
      "aration": 6949,
      "Ġreceive": 6950,
      "}\\,": 6951,
      "external": 6952,
      "ums": 6953,
      "selected": 6954,
      "points": 6955,
      "throws": 6956,
      "txt": 6957,
      "ĠMartin": 6958,
      "Ġpoet": 6959,
      "components": 6960,
      "Ġcard": 6961,
      "flags": 6962,
      "Ġrelations": 6963,
      "VID": 6964,
      "ĠSocial": 6965,
      "Ġeconomic": 6966,
      "Events": 6967,
      ".__": 6968,
      "Ġchampionship": 6969,
      "Ġopening": 6970,
      "()));": 6971,
      "wan": 6972,
      "Ġtechnology": 6973,
      "Msg": 6974,
      "iga": 6975,
      "OM": 6976,
      "ĠMos": 6977,
      "Gu": 6978,
      "aily": 6979,
      "lg": 6980,
      "Ġgoals": 6981,
      "Desc": 6982,
      "actor": 6983,
      "Ġequip": 6984,
      "Ġwinning": 6985,
      "primary": 6986,
      "Films": 6987,
      "ĠJoseph": 6988,
      "nections": 6989,
      "igration": 6990,
      "Ġclassical": 6991,
      "Ġnewsp": 6992,
      "EXT": 6993,
      "ĠDom": 6994,
      "Ġsense": 6995,
      "oz": 6996,
      "eler": 6997,
      "ĠLi": 6998,
      "Edit": 6999,
      "Ġemerg": 7000,
      "emic": 7001,
      "Ġwalk": 7002,
      "ĠCall": 7003,
      "Ġactions": 7004,
      "Ġdir": 7005,
      "iny": 7006,
      "Ġmusical": 7007,
      "Directory": 7008,
      "Ġstudio": 7009,
      "&=": 7010,
      "ĠSir": 7011,
      "riz": 7012,
      "Ġentity": 7013,
      "ĠNorthern": 7014,
      "71": 7015,
      "Ġbasic": 7016,
      "Ġpanel": 7017,
      "ĠFort": 7018,
      "Ġmedical": 7019,
      "Ġrailway": 7020,
      "Ġmeas": 7021,
      "shall": 7022,
      "ito": 7023,
      "enses": 7024,
      ")),": 7025,
      "()).": 7026,
      "onym": 7027,
      "Before": 7028,
      "sylvania": 7029,
      "Ġquality": 7030,
      ")).": 7031,
      "Ġnature": 7032,
      "desc": 7033,
      "bad": 7034,
      "Ġappearance": 7035,
      "erc": 7036,
      "Memory": 7037,
      "ĠLin": 7038,
      "ĠGi": 7039,
      "ĠOl": 7040,
      "ski": 7041,
      "ADD": 7042,
      "Grid": 7043,
      "Ġinterview": 7044,
      "Ġdetermined": 7045,
      "handler": 7046,
      "ĠLibrary": 7047,
      "Perm": 7048,
      "Ġplot": 7049,
      "]:": 7050,
      "SIZE": 7051,
      "Conf": 7052,
      "Ġowner": 7053,
      "Panel": 7054,
      "queue": 7055,
      "ĠEducation": 7056,
      "Ġriver": 7057,
      "_->": 7058,
      "Ġphil": 7059,
      "ĠYoung": 7060,
      "Ġpred": 7061,
      "Ġsurround": 7062,
      "omial": 7063,
      "Support": 7064,
      "Ġloop": 7065,
      "ĠTop": 7066,
      "Ġcomes": 7067,
      "ooks": 7068,
      "Ġcoast": 7069,
      "Ġdim": 7070,
      "Ġelem": 7071,
      "horizontal": 7072,
      "LOG": 7073,
      "AF": 7074,
      "Ġprim": 7075,
      "Ġmajority": 7076,
      "ĠEli": 7077,
      "tex": 7078,
      "Ġche": 7079,
      "Ġnorthern": 7080,
      "ĠChief": 7081,
      "Ġsave": 7082,
      ")));": 7083,
      "Ljava": 7084,
      "Scope": 7085,
      "La": 7086,
      "mselves": 7087,
      "aret": 7088,
      "Ġblue": 7089,
      "hol": 7090,
      "Ġrecomm": 7091,
      "Internal": 7092,
      "So": 7093,
      "MAX": 7094,
      "Ġlay": 7095,
      "Ġshall": 7096,
      "elocity": 7097,
      "ĠVersion": 7098,
      "Ġdataset": 7099,
      "Symfony": 7100,
      "ĠView": 7101,
      "}</": 7102,
      "Ġbal": 7103,
      "ĠHot": 7104,
      "ARY": 7105,
      "Ġisland": 7106,
      "Init": 7107,
      "Ġ[];": 7108,
      "ador": 7109,
      "ĠColumb": 7110,
      "ĠNetwork": 7111,
      "Constr": 7112,
      "orner": 7113,
      "fc": 7114,
      "ĠIran": 7115,
      "ĠWood": 7116,
      "leep": 7117,
      "Ġsouthern": 7118,
      "XT": 7119,
      "Ġhel": 7120,
      "////////////////////////////////": 7121,
      "aval": 7122,
      "Ġbring": 7123,
      "Ġtransp": 7124,
      "NE": 7125,
      "Transform": 7126,
      "typeof": 7127,
      "Ġproduce": 7128,
      "andard": 7129,
      "Ġdecre": 7130,
      "Ġ\"\"": 7131,
      "Ġproced": 7132,
      "ĠDev": 7133,
      "structure": 7134,
      "Ġweak": 7135,
      "ĠGa": 7136,
      "Ġlot": 7137,
      "Ġutil": 7138,
      "Ġknowledge": 7139,
      "profile": 7140,
      "Ġcalls": 7141,
      "found": 7142,
      "SCR": 7143,
      "Public": 7144,
      "ynamic": 7145,
      "hav": 7146,
      "ela": 7147,
      "vant": 7148,
      "Ġthreat": 7149,
      "important": 7150,
      "Ġequations": 7151,
      "ĠTeam": 7152,
      "Ġlaunched": 7153,
      "anda": 7154,
      "icks": 7155,
      "rine": 7156,
      "wild": 7157,
      "Ġthemselves": 7158,
      "Ġminimum": 7159,
      "asion": 7160,
      "Ġprove": 7161,
      "Ġmission": 7162,
      "Ġolder": 7163,
      "schema": 7164,
      "Ġstreng": 7165,
      "çļ": 7166,
      "PAR": 7167,
      "scription": 7168,
      "Ġframework": 7169,
      "Ġcollabor": 7170,
      "Ġdefeated": 7171,
      "phere": 7172,
      "ĠIl": 7173,
      "venue": 7174,
      "Ġdetermine": 7175,
      "network": 7176,
      "Ġng": 7177,
      "ĠDirector": 7178,
      "Rest": 7179,
      "ĠHaw": 7180,
      "ĠId": 7181,
      "Ġidentity": 7182,
      ".'": 7183,
      "Ġexternal": 7184,
      "unct": 7185,
      "apers": 7186,
      "Ġcontinuous": 7187,
      "Ã£": 7188,
      "domain": 7189,
      "screen": 7190,
      "ĠLove": 7191,
      "ĠGreek": 7192,
      "Security": 7193,
      "ĠBattle": 7194,
      "Ġowned": 7195,
      "Ġneighbor": 7196,
      "ĠCopy": 7197,
      "account": 7198,
      "pa": 7199,
      "Ġattention": 7200,
      "area": 7201,
      "ĠRh": 7202,
      "controller": 7203,
      "Database": 7204,
      "uer": 7205,
      "NULL": 7206,
      "ĠCross": 7207,
      "ertificate": 7208,
      "Ġfeel": 7209,
      "rich": 7210,
      "Ġforeign": 7211,
      "Section": 7212,
      "çļĦ": 7213,
      "_,": 7214,
      "({\\": 7215,
      "Ġrepresents": 7216,
      "Ġfast": 7217,
      "ĠIII": 7218,
      "ĠInst": 7219,
      "reset": 7220,
      "Ġmixed": 7221,
      "Ġchief": 7222,
      "Auth": 7223,
      "ellig": 7224,
      "ĠIP": 7225,
      "Ġnorm": 7226,
      "black": 7227,
      "}'": 7228,
      "','": 7229,
      "Step": 7230,
      "Editor": 7231,
      "Ġpresence": 7232,
      "ROM": 7233,
      "Ġslow": 7234,
      "manager": 7235,
      "assertEqual": 7236,
      "neq": 7237,
      "ï¼": 7238,
      "ĠĠĠĠĠĠĠĠĠĠĠĠĠĠĠĠĠĠĠĠĠĠ": 7239,
      "MENT": 7240,
      "shift": 7241,
      "abilities": 7242,
      "Ġimmediately": 7243,
      "Ġdark": 7244,
      "Ġvariety": 7245,
      "\"`": 7246,
      "Ġcoeff": 7247,
      "Attributes": 7248,
      "NavBarCell": 7249,
      "Selected": 7250,
      "ository": 7251,
      "Ġgreater": 7252,
      "citet": 7253,
      "Ġdenote": 7254,
      "++;": 7255,
      "Ġchem": 7256,
      "Ġfoot": 7257,
      "ects": 7258,
      "ĠExec": 7259,
      "]\\": 7260,
      "super": 7261,
      "Ġcentre": 7262,
      "Rad": 7263,
      "Ġsummer": 7264,
      "Ġdesc": 7265,
      "iverse": 7266,
      "wer": 7267,
      "ĠSpain": 7268,
      "SR": 7269,
      "alog": 7270,
      "ager": 7271,
      "ĠGal": 7272,
      "Own": 7273,
      "Files": 7274,
      "NotNull": 7275,
      "Ġestim": 7276,
      "Loader": 7277,
      "unior": 7278,
      "enant": 7279,
      "Ġestimated": 7280,
      "Car": 7281,
      "Ġbuilder": 7282,
      "seud": 7283,
      "ĠTim": 7284,
      "osoph": 7285,
      "je": 7286,
      "âĢ¦": 7287,
      "usband": 7288,
      "Ġwood": 7289,
      "approx": 7290,
      "Ġleave": 7291,
      "ydro": 7292,
      "ĠPennsylvania": 7293,
      "Ġreduced": 7294,
      "hspace": 7295,
      "ĠMr": 7296,
      "Ġsolutions": 7297,
      "Ġinn": 7298,
      "asy": 7299,
      "trigger": 7300,
      "Ġcandidate": 7301,
      "ĠFri": 7302,
      "Proxy": 7303,
      "}}}": 7304,
      "otic": 7305,
      "ĠProgram": 7306,
      "echo": 7307,
      "ĠAR": 7308,
      "airman": 7309,
      "=-": 7310,
      "stra": 7311,
      "Av": 7312,
      "INFO": 7313,
      "each": 7314,
      "ĠPoint": 7315,
      "Ġdise": 7316,
      "Ġcommission": 7317,
      "ibli": 7318,
      "Ġinitially": 7319,
      "Inv": 7320,
      "LIC": 7321,
      "ternet": 7322,
      "Ġinsp": 7323,
      "Prop": 7324,
      "Ġstorage": 7325,
      "ĠBul": 7326,
      "arriage": 7327,
      "ĠNO": 7328,
      "1962": 7329,
      "ĠNow": 7330,
      "defined": 7331,
      "################": 7332,
      "cb": 7333,
      "Ġvisible": 7334,
      "Ġfra": 7335,
      "Further": 7336,
      "Ġmix": 7337,
      "1963": 7338,
      "Ġinterval": 7339,
      "mutable": 7340,
      "Ġtim": 7341,
      "Ġofficer": 7342,
      "orial": 7343,
      "ĠVis": 7344,
      "Ġderived": 7345,
      "Found": 7346,
      "channel": 7347,
      "Browser": 7348,
      "Ġcelebr": 7349,
      "ĠLee": 7350,
      "Java": 7351,
      "Ġgalax": 7352,
      "inners": 7353,
      "bytes": 7354,
      "Ġmachine": 7355,
      "$/": 7356,
      "World": 7357,
      "rong": 7358,
      "Ġmagazine": 7359,
      "tmp": 7360,
      "Ġscheme": 7361,
      "Ġrecon": 7362,
      "ategories": 7363,
      "Ġmeeting": 7364,
      "Del": 7365,
      "Ġhidden": 7366,
      "cape": 7367,
      "angular": 7368,
      "assertEquals": 7369,
      "fore": 7370,
      "Ġcomputer": 7371,
      "Ġratio": 7372,
      "ĠTherefore": 7373,
      "Ġlearn": 7374,
      "hidden": 7375,
      "Ġ=========": 7376,
      "job": 7377,
      "aka": 7378,
      "Ġconserv": 7379,
      "=(": 7380,
      "ĠWal": 7381,
      "ĠPy": 7382,
      "Close": 7383,
      "Ġmostly": 7384,
      "=\"${": 7385,
      "browser": 7386,
      "Ġhum": 7387,
      "Elements": 7388,
      "Windows": 7389,
      "Ġblocks": 7390,
      "->_": 7391,
      "Ġsingles": 7392,
      "dimensional": 7393,
      "ishes": 7394,
      "ĠPeople": 7395,
      "ĠOption": 7396,
      "sych": 7397,
      "Ġliterature": 7398,
      "Ġinfluence": 7399,
      "Ġlived": 7400,
      "ĠHamilton": 7401,
      "Ġsquare": 7402,
      "Ġ\"<": 7403,
      "events": 7404,
      "Print": 7405,
      "Ġprojects": 7406,
      "WA": 7407,
      "1944": 7408,
      "Ġfederal": 7409,
      "Selector": 7410,
      "ĠCivil": 7411,
      "engine": 7412,
      "Ġreach": 7413,
      "NG": 7414,
      "ĠGame": 7415,
      "eds": 7416,
      "Rece": 7417,
      "Ġgrowth": 7418,
      "Ġchosen": 7419,
      "iography": 7420,
      "ĠAtt": 7421,
      "Ġextract": 7422,
      "Common": 7423,
      "Ġparents": 7424,
      "ployment": 7425,
      "itemize": 7426,
      "prove": 7427,
      "Ġcounty": 7428,
      "tests": 7429,
      "ĠCode": 7430,
      "Ġuseful": 7431,
      "isc": 7432,
      "Ġsamples": 7433,
      "uing": 7434,
      "Ġscene": 7435,
      "oting": 7436,
      "Dem": 7437,
      "arc": 7438,
      "Ġconstructed": 7439,
      "ĠMain": 7440,
      "ĠOp": 7441,
      "duled": 7442,
      "dp": 7443,
      "room": 7444,
      "limit": 7445,
      "Ġbrief": 7446,
      "Ġimplements": 7447,
      "Ġfailure": 7448,
      "ibly": 7449,
      "total": 7450,
      "pository": 7451,
      "Ġencoding": 7452,
      "Ġsegment": 7453,
      "tabs": 7454,
      "elevision": 7455,
      "aser": 7456,
      "atible": 7457,
      "grade": 7458,
      "oston": 7459,
      "configuration": 7460,
      "ĠJim": 7461,
      "ĠCam": 7462,
      "logger": 7463,
      "ĠHon": 7464,
      "ĠCamb": 7465,
      "Ġinvalid": 7466,
      "mann": 7467,
      "Ġinstalled": 7468,
      "Ġtold": 7469,
      "ĠInitial": 7470,
      "called": 7471,
      "Ġimplies": 7472,
      "SCRIP": 7473,
      "'])": 7474,
      "Symbol": 7475,
      "Ġwaves": 7476,
      "home": 7477,
      "_(": 7478,
      "kins": 7479,
      "ĠÅ": 7480,
      "rase": 7481,
      "ceeded": 7482,
      "ĠParam": 7483,
      "Ġrecently": 7484,
      "mathscr": 7485,
      "ĠĠĠĠĠĠĠĠĠĠĠĠĠĠĠĠĠĠĠĠĠĠĠĠĠĠĠĠĠĠĠĠĠĠĠĠĠĠĠĠĠĠĠ": 7486,
      "poration": 7487,
      "Ġexamples": 7488,
      "enth": 7489,
      "ĠValley": 7490,
      "roke": 7491,
      "ĠSol": 7492,
      "Ġsenior": 7493,
      "metadata": 7494,
      "kw": 7495,
      "]]": 7496,
      "Ġmovie": 7497,
      "kl": 7498,
      "Ġarmy": 7499,
      "ĠOffice": 7500,
      "Ġheavy": 7501,
      "Video": 7502,
      "Ġtouch": 7503,
      "posite": 7504,
      "reedom": 7505,
      "Ġsaf": 7506,
      "ĠMP": 7507,
      "ĠRepresent": 7508,
      "ĠCollection": 7509,
      "ĠJo": 7510,
      "Ġraised": 7511,
      "Ġawait": 7512,
      "Ġfrequency": 7513,
      "bing": 7514,
      "Ġinsert": 7515,
      "{$": 7516,
      "Ġuniform": 7517,
      "Ġran": 7518,
      "iques": 7519,
      "Ġevolution": 7520,
      "nes": 7521,
      "Pointer": 7522,
      "\\'": 7523,
      "hide": 7524,
      "UTF": 7525,
      "1961": 7526,
      "Ġconflic": 7527,
      "Ġfunc": 7528,
      "illis": 7529,
      "MB": 7530,
      "Ġrisk": 7531,
      "Ġdrama": 7532,
      "ĠBritain": 7533,
      "ustrial": 7534,
      "Ġsupp": 7535,
      "ĠBob": 7536,
      "Ġarchitecture": 7537,
      "norm": 7538,
      "Ġprobably": 7539,
      "Ġcapacity": 7540,
      "Ġreferred": 7541,
      "Ġsn": 7542,
      "rift": 7543,
      "Ġquarter": 7544,
      "Ġforced": 7545,
      "mi": 7546,
      "ĠSy": 7547,
      "Cluster": 7548,
      "Ġtesting": 7549,
      "enumerate": 7550,
      "ĠAN": 7551,
      "tools": 7552,
      "Ġtab": 7553,
      "Ġjoint": 7554,
      "Full": 7555,
      "Ġcref": 7556,
      "ĠTODO": 7557,
      "DS": 7558,
      "Ġapplications": 7559,
      "theorem": 7560,
      "Ġcle": 7561,
      "Cond": 7562,
      "ennis": 7563,
      "Duration": 7564,
      "erial": 7565,
      "ĠJournal": 7566,
      "Ġelectric": 7567,
      "Ġagreement": 7568,
      "wrapper": 7569,
      "ToString": 7570,
      "Ġsuc": 7571,
      "editor": 7572,
      "Ġappropri": 7573,
      "urrency": 7574,
      "Ġip": 7575,
      "Ġbecoming": 7576,
      "multicol": 7577,
      "ĠTri": 7578,
      "ulty": 7579,
      "\",\"": 7580,
      "STAT": 7581,
      "collection": 7582,
      "inf": 7583,
      "Ġansw": 7584,
      "ĠConfig": 7585,
      "adr": 7586,
      "Ġoptional": 7587,
      "Ġadapt": 7588,
      "Ġletter": 7589,
      "Ġio": 7590,
      "ĠCommon": 7591,
      "ĠMah": 7592,
      "123": 7593,
      "Ġnumerous": 7594,
      "cons": 7595,
      "DA": 7596,
      "Ġcommunities": 7597,
      ">:": 7598,
      "contains": 7599,
      "Ġresponsible": 7600,
      "Ġfn": 7601,
      "XML": 7602,
      "Matrix": 7603,
      "Ġindividuals": 7604,
      "cred": 7605,
      "dialog": 7606,
      "Ġabsolute": 7607,
      "150": 7608,
      "Pi": 7609,
      "ensed": 7610,
      "ĠDemocratic": 7611,
      "MC": 7612,
      "Profile": 7613,
      "Then": 7614,
      "Feature": 7615,
      "Cap": 7616,
      "ĠSouthern": 7617,
      "Pay": 7618,
      "hing": 7619,
      "Ġopport": 7620,
      "multicolumn": 7621,
      "bury": 7622,
      "Ġinteg": 7623,
      "Ġ{'": 7624,
      "Ġhusband": 7625,
      "ĠHa": 7626,
      "Ġfle": 7627,
      "}}{\\": 7628,
      "|^": 7629,
      "navList": 7630,
      "Ġprotocol": 7631,
      "Ġcreation": 7632,
      "Ġcarried": 7633,
      "Ġalgebra": 7634,
      "HR": 7635,
      "Ġmask": 7636,
      "switch": 7637,
      "Ġannual": 7638,
      "Graph": 7639,
      "Ġenabled": 7640,
      "acle": 7641,
      "Ġcolon": 7642,
      "Ġasync": 7643,
      "Don": 7644,
      "rick": 7645,
      "operatorname": 7646,
      "Ġassigned": 7647,
      "ĠWindow": 7648,
      "Ġoccur": 7649,
      "ĠPak": 7650,
      "Ġ-\\": 7651,
      "parameters": 7652,
      "Ġuniversity": 7653,
      "ĠOf": 7654,
      "Ñı": 7655,
      "Route": 7656,
      "Ġarm": 7657,
      "Ġtrib": 7658,
      "etts": 7659,
      "ĠFunction": 7660,
      "Space": 7661,
      "Ġeth": 7662,
      "stone": 7663,
      "Enum": 7664,
      "120": 7665,
      "Ġcreating": 7666,
      "Cast": 7667,
      "ĠOhio": 7668,
      "inations": 7669,
      "achus": 7670,
      ")+": 7671,
      "}+\\": 7672,
      "iÄĩ": 7673,
      "Ã£o": 7674,
      "Ġgenus": 7675,
      "ĠJac": 7676,
      "ĠEdward": 7677,
      "Ġpositions": 7678,
      "Ġsea": 7679,
      "Ġdepartment": 7680,
      "Ġreligious": 7681,
      "PP": 7682,
      "ĠSar": 7683,
      "Double": 7684,
      "ĠLord": 7685,
      "iate": 7686,
      "chen": 7687,
      "ĠMichigan": 7688,
      "ĠAsia": 7689,
      "ridge": 7690,
      "ĠUkr": 7691,
      "Ġgreen": 7692,
      "etween": 7693,
      "pons": 7694,
      "Ġ[[": 7695,
      "Ġdead": 7696,
      "gypt": 7697,
      "ĠTask": 7698,
      "Ġlib": 7699,
      "isms": 7700,
      "tely": 7701,
      "picker": 7702,
      "Ġhighly": 7703,
      "ila": 7704,
      "triev": 7705,
      "noindent": 7706,
      "ĠĠĠĠĠĠĠĠĠĠĠĠĠĠĠĠĠĠĠĠĠĠĠĠĠĠĠĠĠ": 7707,
      "entials": 7708,
      "Äį": 7709,
      "Success": 7710,
      "Ã±": 7711,
      "aya": 7712,
      "uls": 7713,
      "Ġdebug": 7714,
      "Ġinner": 7715,
      "avity": 7716,
      "ONE": 7717,
      "1942": 7718,
      "Ġdraft": 7719,
      "apos": 7720,
      "Iterator": 7721,
      "Term": 7722,
      "Ġability": 7723,
      "Ġestimate": 7724,
      "Ġweeks": 7725,
      "ĠPop": 7726,
      "ĠServ": 7727,
      "Ġcells": 7728,
      "Ġbinary": 7729,
      "ĠUN": 7730,
      "ĠJewish": 7731,
      "Scroll": 7732,
      "apply": 7733,
      "vspace": 7734,
      "1948": 7735,
      "Ġversions": 7736,
      "front": 7737,
      "BUG": 7738,
      "Ġarrest": 7739,
      "Ġserve": 7740,
      "Generic": 7741,
      "Layer": 7742,
      "Dest": 7743,
      "Ġmurder": 7744,
      "inois": 7745,
      "Ġincome": 7746,
      "Ġmetric": 7747,
      "protocol": 7748,
      "[$": 7749,
      "Ġelections": 7750,
      "Ġfarm": 7751,
      "Character": 7752,
      "swarm": 7753,
      "aters": 7754,
      "SER": 7755,
      "fort": 7756,
      "ĠHere": 7757,
      "Ġfootballer": 7758,
      "}-\\": 7759,
      "Keys": 7760,
      "Runtime": 7761,
      "wildfly": 7762,
      "awa": 7763,
      "endor": 7764,
      "coming": 7765,
      "rid": 7766,
      "Ġreject": 7767,
      "Ġarbitr": 7768,
      "acro": 7769,
      "Ġneut": 7770,
      "exists": 7771,
      "SI": 7772,
      "Ġcitiz": 7773,
      "Ġnearly": 7774,
      "headers": 7775,
      "inds": 7776,
      "Ġhistorical": 7777,
      "Ġrail": 7778,
      "ĠAsian": 7779,
      "ĠNode": 7780,
      "ĠOx": 7781,
      "hemat": 7782,
      "ĠFred": 7783,
      "fail": 7784,
      "cean": 7785,
      "chor": 7786,
      "ĠPacific": 7787,
      "Ġasked": 7788,
      "Ġagreed": 7789,
      "Ġenter": 7790,
      "SY": 7791,
      "atial": 7792,
      "Ġcarry": 7793,
      "1956": 7794,
      "1958": 7795,
      "idx": 7796,
      "ĠLandroid": 7797,
      "tim": 7798,
      "ĠJersey": 7799,
      "ĠMajor": 7800,
      "Ġpressure": 7801,
      "referred": 7802,
      "ĠChild": 7803,
      "sequence": 7804,
      "istent": 7805,
      "Plugin": 7806,
      "ĠRadio": 7807,
      "Ġvs": 7808,
      "Ġpurpose": 7809,
      "Ġpassword": 7810,
      "protected": 7811,
      "Single": 7812,
      "Remove": 7813,
      "Ġwanted": 7814,
      "ĠDutch": 7815,
      "getName": 7816,
      "eval": 7817,
      "nil": 7818,
      "ĠCro": 7819,
      "arden": 7820,
      "arant": 7821,
      "Ġexpansion": 7822,
      "yer": 7823,
      "ĠPoland": 7824,
      "ĠEarth": 7825,
      "ĠSpe": 7826,
      "Ġmoving": 7827,
      "<!": 7828,
      ")}{": 7829,
      "pher": 7830,
      "1959": 7831,
      "Ġtreatment": 7832,
      "centr": 7833,
      "ighter": 7834,
      "Auto": 7835,
      "Ġexport": 7836,
      "Ġdistinct": 7837,
      "ĠJan": 7838,
      "Ġfix": 7839,
      "ĠQueen": 7840,
      "itation": 7841,
      "Ġconsum": 7842,
      "CHE": 7843,
      "ÅĤ": 7844,
      "ĠEach": 7845,
      ")\">": 7846,
      "Ġidentified": 7847,
      "High": 7848,
      "ĠUpdate": 7849,
      "Ġunivers": 7850,
      "Socket": 7851,
      "mir": 7852,
      "Ġhyp": 7853,
      "irls": 7854,
      "izable": 7855,
      "Ġupdated": 7856,
      "ĠTro": 7857,
      "Ġvote": 7858,
      "ĠCarl": 7859,
      "burgh": 7860,
      "Ġpoor": 7861,
      "green": 7862,
      "Ġbul": 7863,
      "Ġsociety": 7864,
      "ĠConference": 7865,
      "SCRIPT": 7866,
      "1939": 7867,
      "Ġvertical": 7868,
      "enty": 7869,
      "props": 7870,
      "ĠIOException": 7871,
      "Example": 7872,
      "ĠCentre": 7873,
      "Mapping": 7874,
      "very": 7875,
      "poses": 7876,
      "platform": 7877,
      "filename": 7878,
      "elease": 7879,
      "Ġspread": 7880,
      "ĠMedia": 7881,
      "Register": 7882,
      "ĠJava": 7883,
      "Ġgeneration": 7884,
      "1957": 7885,
      "Ġsetup": 7886,
      "ĠKent": 7887,
      "owers": 7888,
      "Ġvictory": 7889,
      "Details": 7890,
      "deg": 7891,
      "ĠMov": 7892,
      "Ġserving": 7893,
      "Ġtheme": 7894,
      "Ġbelong": 7895,
      "urer": 7896,
      "Ġslight": 7897,
      "Ġcombined": 7898,
      "Ġwhy": 7899,
      "Ġxmlns": 7900,
      "Ġmentioned": 7901,
      "}}_": 7902,
      "More": 7903,
      "achusetts": 7904,
      "ione": 7905,
      "ĠSu": 7906,
      ":\\": 7907,
      "Ġactors": 7908,
      "itors": 7909,
      "phone": 7910,
      "Parse": 7911,
      "BE": 7912,
      "Ġ(_": 7913,
      "Ġmainly": 7914,
      "Ġsufficient": 7915,
      "blue": 7916,
      "Ġvisual": 7917,
      "Ġmanaged": 7918,
      "Ġoperators": 7919,
      ")}$": 7920,
      "attributes": 7921,
      "ocaml": 7922,
      "definition": 7923,
      "Ġreli": 7924,
      "osa": 7925,
      "cribe": 7926,
      "Sequ": 7927,
      "provider": 7928,
      "åı": 7929,
      "Ġtypically": 7930,
      "Ġfiction": 7931,
      "Cor": 7932,
      "SQL": 7933,
      "Failed": 7934,
      "Ġprofessor": 7935,
      "Ġidx": 7936,
      "Gen": 7937,
      "Ġ\",": 7938,
      "Ġpool": 7939,
      "adel": 7940,
      "Ġdriver": 7941,
      "Ġmotion": 7942,
      "Ġpil": 7943,
      "parser": 7944,
      "Ġones": 7945,
      "pton": 7946,
      "ĠSecretary": 7947,
      "Ġmagnetic": 7948,
      "sky": 7949,
      "Ġmessages": 7950,
      "Ġseek": 7951,
      "herited": 7952,
      "dates": 7953,
      "Ġmicro": 7954,
      "colLast": 7955,
      "Ġsurvey": 7956,
      "ĠĠĠĠĠĠĠĠĠĠĠĠĠĠĠĠĠĠĠĠĠĠĠĠĠĠĠĠĠĠĠĠĠĠĠĠĠĠĠĠĠĠĠĠĠĠĠĠĠĠĠĠĠĠĠĠĠĠĠĠĠĠĠĠ": 7957,
      "National": 7958,
      "ographic": 7959,
      "Ġordered": 7960,
      "Ġclaimed": 7961,
      "zero": 7962,
      "ello": 7963,
      "ĠResource": 7964,
      "Ġ=======": 7965,
      "ĠScotland": 7966,
      "Ġlif": 7967,
      "Mat": 7968,
      "Ġpoliticians": 7969,
      "children": 7970,
      "compiler": 7971,
      "1943": 7972,
      "ĠMiddle": 7973,
      "Ġcovered": 7974,
      "Ġwave": 7975,
      "Ġstrategy": 7976,
      "1941": 7977,
      "Brit": 7978,
      "Ġrecording": 7979,
      "riteria": 7980,
      "TA": 7981,
      "Arch": 7982,
      "alo": 7983,
      "olec": 7984,
      "Ġdetail": 7985,
      "Ġtypename": 7986,
      "ĠJones": 7987,
      "eller": 7988,
      "enger": 7989,
      "DC": 7990,
      "allclasses": 7991,
      "Ġui": 7992,
      "ĠEnter": 7993,
      "Ġlives": 7994,
      "original": 7995,
      "services": 7996,
      "oret": 7997,
      "Repository": 7998,
      "ĠSpecial": 7999,
      "Ġbass": 8000,
      "Sports": 8001,
      "Ġ(-": 8002,
      "Opt": 8003,
      "Ġturned": 8004,
      "Ġsettlement": 8005,
      "vc": 8006,
      "ymmet": 8007,
      "symbol": 8008,
      "operation": 8009,
      "maven": 8010,
      "Ġreq": 8011,
      "Ġorganizations": 8012,
      "ĠCons": 8013,
      "estions": 8014,
      "Ġsquad": 8015,
      "Ġfactory": 8016,
      "ĠFC": 8017,
      "aming": 8018,
      "iterator": 8019,
      "Ġcities": 8020,
      "collapse": 8021,
      "Ġshoot": 8022,
      "Ġdrop": 8023,
      "Ġlisting": 8024,
      "Fail": 8025,
      "Ġnine": 8026,
      "According": 8027,
      "conn": 8028,
      "ĠPrince": 8029,
      "Ġtracks": 8030,
      "ĠOur": 8031,
      "Product": 8032,
      "ĠRo": 8033,
      "PORT": 8034,
      "ĠPrem": 8035,
      "ĠHead": 8036,
      "Ġrect": 8037,
      "istration": 8038,
      "Ġseat": 8039,
      "Generator": 8040,
      "single": 8041,
      "Engine": 8042,
      "ĠMi": 8043,
      "Ġru": 8044,
      "ifically": 8045,
      "ĠBow": 8046,
      "stein": 8047,
      "colFirst": 8048,
      "claim": 8049,
      "Ġcomposed": 8050,
      "Ġships": 8051,
      "ĠGood": 8052,
      "ĠPass": 8053,
      "ĠPortug": 8054,
      "mask": 8055,
      "Ġul": 8056,
      "akers": 8057,
      "fect": 8058,
      "Ġnavigation": 8059,
      "hens": 8060,
      "Ġmis": 8061,
      "Ġsituation": 8062,
      "128": 8063,
      "Ġconstructor": 8064,
      "IX": 8065,
      "Ġdoing": 8066,
      "ĠRam": 8067,
      "ĠDevelopment": 8068,
      "Ġtypeof": 8069,
      "ĠBre": 8070,
      "Ġseconds": 8071,
      "ĠMen": 8072,
      "urban": 8073,
      "Ġcompute": 8074,
      "prefix": 8075,
      "Ġgrid": 8076,
      "IB": 8077,
      "Ġvelocity": 8078,
      "Ġtasks": 8079,
      "Ġreplace": 8080,
      "bel": 8081,
      "login": 8082,
      "ampions": 8083,
      "Ġctx": 8084,
      "Ġreduce": 8085,
      "Password": 8086,
      "Ġanim": 8087,
      "1946": 8088,
      "Bound": 8089,
      "Ġderiv": 8090,
      "Ã¸": 8091,
      "Ġhelped": 8092,
      "cluded": 8093,
      "role": 8094,
      "1952": 8095,
      "theme": 8096,
      "ĠFrancisco": 8097,
      "mond": 8098,
      "Ġpp": 8099,
      "Ġexam": 8100,
      "Ġpointer": 8101,
      "General": 8102,
      "Ġdrug": 8103,
      "\"><!--": 8104,
      "Ġunless": 8105,
      "Ġnoise": 8106,
      "Ġleaving": 8107,
      "ĠGovernor": 8108,
      "Ġoperated": 8109,
      "FFFF": 8110,
      "Ġpriv": 8111,
      "Statement": 8112,
      "ĠIslam": 8113,
      "Ġcoq": 8114,
      "Func": 8115,
      "United": 8116,
      "ĠBern": 8117,
      "ashed": 8118,
      "RAN": 8119,
      "ĠKong": 8120,
      "ĠElect": 8121,
      "()</": 8122,
      "Global": 8123,
      "Ġofficers": 8124,
      "look": 8125,
      "Ġforest": 8126,
      "Ġsemi": 8127,
      "texttt": 8128,
      "ĠWilliams": 8129,
      "enabled": 8130,
      "Ġaspect": 8131,
      "Stop": 8132,
      "ĠBas": 8133,
      "lan": 8134,
      "ĠNumber": 8135,
      "Agent": 8136,
      "Ġsaying": 8137,
      "abeth": 8138,
      "jpg": 8139,
      "prev": 8140,
      "ĠCard": 8141,
      "ĉĉĉĉĉĉĉĉĉ": 8142,
      "iated": 8143,
      "'$": 8144,
      "Ġhyper": 8145,
      "Ġworkers": 8146,
      "Ġcomedy": 8147,
      "Ġheart": 8148,
      "Ġretired": 8149,
      "Ġice": 8150,
      "typed": 8151,
      "Ġplans": 8152,
      "1955": 8153,
      "Ġnetworks": 8154,
      "ĠIllinois": 8155,
      "ĠGeorgia": 8156,
      "ĠEqu": 8157,
      "Ġsizeof": 8158,
      "Sync": 8159,
      "Ġwestern": 8160,
      "ĠKr": 8161,
      "Ġchoose": 8162,
      "ĠLuc": 8163,
      "Ġdepends": 8164,
      "Ġdespite": 8165,
      "Ġembedd": 8166,
      "ajax": 8167,
      "Ġcontrast": 8168,
      "etailed": 8169,
      "IE": 8170,
      "Ġ\\|": 8171,
      "1947": 8172,
      "Ġeigen": 8173,
      "CHECK": 8174,
      "ĠBoston": 8175,
      "ĠHam": 8176,
      "\\}$": 8177,
      "matrix": 8178,
      "Ġoccurred": 8179,
      "AX": 8180,
      "Ġplane": 8181,
      "phy": 8182,
      "Ġpromin": 8183,
      "Identifier": 8184,
      "Ġappend": 8185,
      "porated": 8186,
      "Ġtraff": 8187,
      "Ġaxis": 8188,
      "fri": 8189,
      "Ġstories": 8190,
      "illy": 8191,
      "Nodes": 8192,
      "Ġsal": 8193,
      "Ġformation": 8194,
      "builder": 8195,
      "onto": 8196,
      "undred": 8197,
      "ĠJohnson": 8198,
      "cy": 8199,
      "gence": 8200,
      "Ġtx": 8201,
      "Ġlanguages": 8202,
      "Ġlayout": 8203,
      "axis": 8204,
      "ĠTheir": 8205,
      "Constants": 8206,
      "Ġvertex": 8207,
      "Ġdat": 8208,
      "tbody": 8209,
      "_{{\\": 8210,
      "Ġcompletely": 8211,
      "Ġfriends": 8212,
      "ĠTre": 8213,
      "ĠRet": 8214,
      "Ġdepth": 8215,
      "FS": 8216,
      "Expr": 8217,
      "moz": 8218,
      "ĠIndex": 8219,
      "ĠWhat": 8220,
      "Ġbridge": 8221,
      "ĠIE": 8222,
      "una": 8223,
      "Ġcouncil": 8224,
      "ez": 8225,
      "ĠMassachusetts": 8226,
      "Ġeasily": 8227,
      "ĠĠĠĠĠĠĠĠĠĠĠĠĠĠĠĠĠĠĠĠĠĠĠĠĠĠ": 8228,
      "flo": 8229,
      "Ġinteraction": 8230,
      "Ġalleg": 8231,
      "Abstract": 8232,
      "1954": 8233,
      "ests": 8234,
      "Ġdescent": 8235,
      "ĠSpec": 8236,
      "Ġadj": 8237,
      "........": 8238,
      "OUT": 8239,
      "ĠSenate": 8240,
      "arters": 8241,
      "Ġparties": 8242,
      "Ġcomparison": 8243,
      "sys": 8244,
      "Ġ\"-": 8245,
      "$}": 8246,
      "Ġcoming": 8247,
      "tags": 8248,
      "Ġeq": 8249,
      "ĠJud": 8250,
      "nic": 8251,
      "ĠjQuery": 8252,
      "Ġmaps": 8253,
      "Ġsites": 8254,
      "Ġinfin": 8255,
      "Ġfamous": 8256,
      "ĠPhilipp": 8257,
      "othing": 8258,
      "Ġsubsequently": 8259,
      "Ġtheorem": 8260,
      "Region": 8261,
      "shadow": 8262,
      "ĠOnly": 8263,
      "Ġ?>": 8264,
      "Ġrequests": 8265,
      "inant": 8266,
      "ais": 8267,
      ";}": 8268,
      "ĠTheatre": 8269,
      "Seg": 8270,
      "\\,\\": 8271,
      "Ġchalleng": 8272,
      "game": 8273,
      "Ġspectrum": 8274,
      "ĠLatin": 8275,
      "Ġleads": 8276,
      "cher": 8277,
      "Ġnothing": 8278,
      "svg": 8279,
      "Ġstra": 8280,
      "ĠTHE": 8281,
      "ĠEastern": 8282,
      "Ġspaces": 8283,
      "junit": 8284,
      "ĠFurther": 8285,
      "Ġsister": 8286,
      "------------": 8287,
      "rical": 8288,
      "effect": 8289,
      "Ġcat": 8290,
      "outer": 8291,
      "Ġrepresenting": 8292,
      "Ġpages": 8293,
      "Ġmuseum": 8294,
      "Ġbus": 8295,
      "1949": 8296,
      "ĠHash": 8297,
      "LECT": 8298,
      "ĠSoc": 8299,
      "Ġfavor": 8300,
      "icine": 8301,
      "=\"$": 8302,
      "minus": 8303,
      "EO": 8304,
      "Ġsteps": 8305,
      "?>": 8306,
      "READ": 8307,
      "ĠRailway": 8308,
      "Ð´": 8309,
      "}},": 8310,
      "thon": 8311,
      "Ġreflect": 8312,
      "Ġbelieved": 8313,
      "ĠBlue": 8314,
      "ĠBoth": 8315,
      "Ġprocesses": 8316,
      "ĠMany": 8317,
      "wall": 8318,
      "Ġgoes": 8319,
      "xs": 8320,
      "ierarch": 8321,
      "Ġqueue": 8322,
      "Ġprefix": 8323,
      "Ġmodified": 8324,
      "ulpt": 8325,
      "diff": 8326,
      "Ġsuccessfully": 8327,
      "bg": 8328,
      "sen": 8329,
      "riority": 8330,
      "Ġ{{": 8331,
      "since": 8332,
      "Ġsummary": 8333,
      "ĠLo": 8334,
      "Ġ],": 8335,
      "ulf": 8336,
      "ĠSO": 8337,
      "Ġradius": 8338,
      "she": 8339,
      "ĠElement": 8340,
      "Ġaccepted": 8341,
      "3333": 8342,
      "extern": 8343,
      "agraph": 8344,
      "FIG": 8345,
      "Ġdisk": 8346,
      "cha": 8347,
      "![": 8348,
      "Ġcompare": 8349,
      "Ġgauge": 8350,
      "Ġfun": 8351,
      "loop": 8352,
      "Ġacquired": 8353,
      "aylor": 8354,
      "ÑĮ": 8355,
      "iffer": 8356,
      "600": 8357,
      "arsed": 8358,
      "ĠLie": 8359,
      "achment": 8360,
      "ĠEgypt": 8361,
      "1953": 8362,
      "Î¿": 8363,
      "ĠCa": 8364,
      "Ġquickly": 8365,
      "Ġregional": 8366,
      "Ġproviding": 8367,
      "ĠAction": 8368,
      "Ġmetadata": 8369,
      "username": 8370,
      "Ġfeat": 8371,
      "Ġraw": 8372,
      "ĠCoast": 8373,
      "ĠLab": 8374,
      "ĠTra": 8375,
      "ĠBu": 8376,
      "Compar": 8377,
      "Ġsmooth": 8378,
      "vest": 8379,
      "áĥ": 8380,
      "ners": 8381,
      "Ġoffered": 8382,
      "bro": 8383,
      "ingham": 8384,
      "CESS": 8385,
      "Ġtrigger": 8386,
      "ĠAND": 8387,
      "ĠOfficial": 8388,
      "Ġmerg": 8389,
      "ribution": 8390,
      "itage": 8391,
      "Ġenable": 8392,
      "ĠGets": 8393,
      "numerus": 8394,
      "Ġimprove": 8395,
      "Ġvon": 8396,
      "ĠHung": 8397,
      "numerusform": 8398,
      "FLA": 8399,
      "ĠBor": 8400,
      "VM": 8401,
      "ifiers": 8402,
      "oday": 8403,
      "ntario": 8404,
      "Mut": 8405,
      "ynomial": 8406,
      "Ġpersonnel": 8407,
      "Ġcontained": 8408,
      "Ġ).": 8409,
      "emporary": 8410,
      "Ġoccurs": 8411,
      "British": 8412,
      "bas": 8413,
      "Collections": 8414,
      "shared": 8415,
      "ederation": 8416,
      "Registry": 8417,
      "Ġstatistics": 8418,
      "...</": 8419,
      "Ġrg": 8420,
      "oir": 8421,
      "ĠInteger": 8422,
      "udget": 8423,
      "Ġabstract": 8424,
      "dependent": 8425,
      "ĠĠĠĠĠĠĠĠĠĠĠĠĠĠĠĠĊ": 8426,
      "andon": 8427,
      "ĠPlaces": 8428,
      "Wrapper": 8429,
      "Prefix": 8430,
      "ĠExt": 8431,
      "iday": 8432,
      "Ġ'<": 8433,
      "Ġexchange": 8434,
      "yo": 8435,
      "ĠBol": 8436,
      "emon": 8437,
      "icies": 8438,
      "progress": 8439,
      "antry": 8440,
      "power": 8441,
      "Ġconcentr": 8442,
      "ĠStan": 8443,
      "Help": 8444,
      "Ġdiscovered": 8445,
      "Variable": 8446,
      "Stats": 8447,
      "Ġclassification": 8448,
      "Ġgiving": 8449,
      "sel": 8450,
      "Ġclubs": 8451,
      "execute": 8452,
      "('.": 8453,
      "oved": 8454,
      "done": 8455,
      ".<": 8456,
      "icans": 8457,
      "ctrine": 8458,
      "ĠOxford": 8459,
      "Ġlic": 8460,
      ".\");": 8461,
      "Ġconvert": 8462,
      "ĠCorps": 8463,
      "Ġfirm": 8464,
      "Ġintended": 8465,
      "Attr": 8466,
      "Ġwatch": 8467,
      "Game": 8468,
      "emy": 8469,
      "Ġlaunch": 8470,
      "temp": 8471,
      "icip": 8472,
      "BAR": 8473,
      "NOT": 8474,
      "Sample": 8475,
      "eld": 8476,
      "Ġcru": 8477,
      "zone": 8478,
      "INS": 8479,
      "inity": 8480,
      "Ġtor": 8481,
      "ĠHome": 8482,
      "Ġcolumns": 8483,
      "mos": 8484,
      "generated": 8485,
      "(__": 8486,
      "prod": 8487,
      "itionally": 8488,
      "ilarly": 8489,
      "Category": 8490,
      "Ġexistence": 8491,
      "Ġoil": 8492,
      "ĠSea": 8493,
      "Ġflags": 8494,
      "ĠScottish": 8495,
      "Ġ{\"": 8496,
      "ĠPath": 8497,
      "-$": 8498,
      "ĠRegion": 8499,
      "Ġthr": 8500,
      "gg": 8501,
      "bits": 8502,
      "fixed": 8503,
      "Ġeasy": 8504,
      "Ġearned": 8505,
      "Ġcli": 8506,
      "TEXT": 8507,
      "Ġvoice": 8508,
      "Ġretriev": 8509,
      "atar": 8510,
      "1951": 8511,
      "Ġlab": 8512,
      "Ġbrowser": 8513,
      "erved": 8514,
      "outheast": 8515,
      "Ġpy": 8516,
      "RR": 8517,
      "HER": 8518,
      "Ġcompact": 8519,
      "ĠMid": 8520,
      "Ġverify": 8521,
      "iminal": 8522,
      "rawn": 8523,
      "ĠColumbia": 8524,
      "cdn": 8525,
      "ivial": 8526,
      "jd": 8527,
      "{%": 8528,
      "ĠRay": 8529,
      "ãĢ": 8530,
      "Props": 8531,
      "multi": 8532,
      "Ġcos": 8533,
      "identifier": 8534,
      "uries": 8535,
      "Scale": 8536,
      "Generated": 8537,
      "fd": 8538,
      "Ġsecret": 8539,
      "ologies": 8540,
      "Ġseem": 8541,
      "player": 8542,
      "pat": 8543,
      "=>": 8544,
      "ĠKorea": 8545,
      "teen": 8546,
      "Ġways": 8547,
      "Resources": 8548,
      "ancing": 8549,
      "Player": 8550,
      "Î±": 8551,
      "ĠBack": 8552,
      "ben": 8553,
      "hu": 8554,
      "onia": 8555,
      "Ġinform": 8556,
      "scape": 8557,
      "mediate": 8558,
      "oles": 8559,
      "DP": 8560,
      "Ġissued": 8561,
      "ĠJr": 8562,
      "ĠNAME": 8563,
      "ITE": 8564,
      "Transport": 8565,
      "Ġhockey": 8566,
      "ĠVan": 8567,
      "serial": 8568,
      "ĠHTTP": 8569,
      "ĠWay": 8570,
      "libr": 8571,
      "While": 8572,
      "Ġconstraints": 8573,
      "IND": 8574,
      "Ġexit": 8575,
      ")->": 8576,
      "ĠPolish": 8577,
      "$_": 8578,
      "Simple": 8579,
      "Ġmunicipality": 8580,
      "Ġexecution": 8581,
      "Ġbey": 8582,
      "Ġfactors": 8583,
      "Ġwor": 8584,
      "Ġ[\"": 8585,
      "hesis": 8586,
      "Interval": 8587,
      "Ġsignature": 8588,
      "ĠInf": 8589,
      "Ġlogger": 8590,
      "thur": 8591,
      ">::": 8592,
      "subseteq": 8593,
      "Ġhence": 8594,
      "Ġstrings": 8595,
      "Progress": 8596,
      "ĠMu": 8597,
      "Ġformal": 8598,
      "scss": 8599,
      "ĠBroad": 8600,
      "Ñĭ": 8601,
      "Ġhospital": 8602,
      "Trace": 8603,
      "Ġmarked": 8604,
      "Ġmenu": 8605,
      "elligence": 8606,
      "ĠAff": 8607,
      "ĠRoute": 8608,
      "pressed": 8609,
      "detail": 8610,
      "Ġessential": 8611,
      "iteral": 8612,
      "ĠWall": 8613,
      "Ġcalling": 8614,
      "HTTP": 8615,
      "ĠBang": 8616,
      "Ġresolution": 8617,
      "ewidth": 8618,
      "ropol": 8619,
      "WR": 8620,
      "sid": 8621,
      "Ġil": 8622,
      "ĠMessage": 8623,
      "springframework": 8624,
      "random": 8625,
      "Ġportr": 8626,
      "Association": 8627,
      "expr": 8628,
      "Ġdeliver": 8629,
      "ĠSund": 8630,
      "aligned": 8631,
      "Ġleaders": 8632,
      "Ġexpanded": 8633,
      "ni": 8634,
      "Ġdiscussed": 8635,
      "LINE": 8636,
      "Ġstraight": 8637,
      "zz": 8638,
      "ĠAlexander": 8639,
      "ĠJean": 8640,
      "Ġmarriage": 8641,
      "eleted": 8642,
      "Music": 8643,
      "1918": 8644,
      "CTYPE": 8645,
      "ĠBerlin": 8646,
      "Second": 8647,
      "Ġgets": 8648,
      "Ð¼": 8649,
      "Ġnation": 8650,
      "Ġcultural": 8651,
      "Ġquite": 8652,
      "ĠAlb": 8653,
      "attal": 8654,
      "brief": 8655,
      "ĠJes": 8656,
      "URI": 8657,
      "ĠBO": 8658,
      "vs": 8659,
      "icted": 8660,
      "Ġconducted": 8661,
      "holds": 8662,
      "ULE": 8663,
      "Ġbeyond": 8664,
      "Author": 8665,
      "vo": 8666,
      "Tx": 8667,
      "Ġut": 8668,
      "Ã¡n": 8669,
      "Ġmagn": 8670,
      "jango": 8671,
      "imitive": 8672,
      "ĠEcon": 8673,
      "fx": 8674,
      "Ġexecutive": 8675,
      "Ġdepart": 8676,
      "'\\": 8677,
      "ran": 8678,
      "article": 8679,
      "amaz": 8680,
      "ropy": 8681,
      "1936": 8682,
      "utenant": 8683,
      "Ġmatching": 8684,
      "ĠOriginal": 8685,
      "upload": 8686,
      "Ġsusp": 8687,
      "Conn": 8688,
      "____": 8689,
      "USE": 8690,
      "ĠWis": 8691,
      "hom": 8692,
      "Ġprotect": 8693,
      "details": 8694,
      "checkbox": 8695,
      "Short": 8696,
      "Ġcontroller": 8697,
      "May": 8698,
      "Ġheaders": 8699,
      "Ġdoub": 8700,
      "Ġlicense": 8701,
      "odd": 8702,
      "Begin": 8703,
      "fix": 8704,
      "orning": 8705,
      "Ġelim": 8706,
      "ALSE": 8707,
      "Ġ[],": 8708,
      "ĠJackson": 8709,
      "('#": 8710,
      "Ġshowed": 8711,
      "Ġawards": 8712,
      "enable": 8713,
      "Ġcontribution": 8714,
      "Ġappropriate": 8715,
      "Ã©e": 8716,
      "Ġexc": 8717,
      "ĠExample": 8718,
      "ĠLater": 8719,
      "fire": 8720,
      "ĠAndrew": 8721,
      "ĠCreek": 8722,
      "ĠUI": 8723,
      "Theta": 8724,
      "ĠStat": 8725,
      "ARN": 8726,
      "dem": 8727,
      "\"|": 8728,
      "Ġprovince": 8729,
      "'));": 8730,
      "iÃ³n": 8731,
      "ucky": 8732,
      "ĠHong": 8733,
      "when": 8734,
      "iance": 8735,
      "Ġefforts": 8736,
      "Ġrelevant": 8737,
      "Ġpan": 8738,
      "iling": 8739,
      "Ġhighlight": 8740,
      "anging": 8741,
      "Ġprocessing": 8742,
      "Ġfort": 8743,
      "Ġfinish": 8744,
      "Pub": 8745,
      "ependence": 8746,
      "iced": 8747,
      "rovers": 8748,
      "Ġpairs": 8749,
      "Ġaim": 8750,
      "ĠLocal": 8751,
      "Ġprev": 8752,
      "lat": 8753,
      "Ġcompeted": 8754,
      "ĠStation": 8755,
      "alg": 8756,
      "circle": 8757,
      "users": 8758,
      "xhtml": 8759,
      "Summary": 8760,
      "ĠReact": 8761,
      "ĠSte": 8762,
      "Ġtra": 8763,
      "ĠNight": 8764,
      "ruby": 8765,
      "loader": 8766,
      "Ġhouses": 8767,
      "ĠLittle": 8768,
      "POST": 8769,
      "required": 8770,
      "Ġconcert": 8771,
      "Ġparticle": 8772,
      "Ġoperating": 8773,
      "cket": 8774,
      "ĠImage": 8775,
      "Ġrac": 8776,
      "opes": 8777,
      "TIME": 8778,
      "ĠSecurity": 8779,
      "Role": 8780,
      "IST": 8781,
      "Ġrelatively": 8782,
      "NT": 8783,
      "Ġanc": 8784,
      "zech": 8785,
      "Language": 8786,
      "1938": 8787,
      "invalid": 8788,
      "Ġadministration": 8789,
      "Ġentries": 8790,
      "Namespace": 8791,
      "gorithms": 8792,
      "ydney": 8793,
      "Install": 8794,
      "storage": 8795,
      "ĠSupport": 8796,
      "PER": 8797,
      "ĠSand": 8798,
      "mazon": 8799,
      "Flow": 8800,
      "Ġrob": 8801,
      "throw": 8802,
      "Ġtroops": 8803,
      "PH": 8804,
      "('/": 8805,
      "Ġforeach": 8806,
      "href": 8807,
      "Ġpush": 8808,
      "ĠBi": 8809,
      "chester": 8810,
      "println": 8811,
      "ĠStart": 8812,
      "ĠHttp": 8813,
      "Ġcer": 8814,
      "large": 8815,
      "attice": 8816,
      "ĠHarr": 8817,
      "Ġ×": 8818,
      "'}": 8819,
      "ICE": 8820,
      "Services": 8821,
      "joy": 8822,
      "innes": 8823,
      "Ġdivided": 8824,
      "ateway": 8825,
      "Selection": 8826,
      "Ġtensor": 8827,
      "ĠVictoria": 8828,
      "~$": 8829,
      "awn": 8830,
      "ĠConserv": 8831,
      "Framework": 8832,
      "Ð²": 8833,
      "ĠASSERT": 8834,
      "Ġring": 8835,
      "Visible": 8836,
      "Ġonto": 8837,
      "/_": 8838,
      "zen": 8839,
      "ĠHuman": 8840,
      "tar": 8841,
      "errors": 8842,
      "Ġdidn": 8843,
      "Ġcurve": 8844,
      "unique": 8845,
      "Some": 8846,
      "cf": 8847,
      "Ġnullptr": 8848,
      "clean": 8849,
      "feature": 8850,
      "DT": 8851,
      "Ġweap": 8852,
      "ĠWild": 8853,
      "Ġemail": 8854,
      "Ġexpand": 8855,
      "Ġremote": 8856,
      "duces": 8857,
      "Ġprimarily": 8858,
      "Ġangle": 8859,
      "pet": 8860,
      "ĠKen": 8861,
      "ysical": 8862,
      "subfigure": 8863,
      "Ġindicates": 8864,
      "Ġexperiments": 8865,
      "ĠOntario": 8866,
      "Ġpurs": 8867,
      "Ġfair": 8868,
      "ods": 8869,
      "DEFAULT": 8870,
      "hl": 8871,
      "Ġnearby": 8872,
      "cluster": 8873,
      "ĠFour": 8874,
      "hard": 8875,
      "ndef": 8876,
      "Ġens": 8877,
      "ĠConf": 8878,
      "umes": 8879,
      "uv": 8880,
      "ĠPolice": 8881,
      "ĠBelg": 8882,
      "Ġfill": 8883,
      "picture": 8884,
      "Ġexactly": 8885,
      "async": 8886,
      "<\\": 8887,
      "EEEE": 8888,
      "(@": 8889,
      "ĠPower": 8890,
      "Total": 8891,
      "Ġcombination": 8892,
      "itical": 8893,
      "250": 8894,
      "amber": 8895,
      "Area": 8896,
      "Ġformula": 8897,
      "Ġbaseball": 8898,
      "nn": 8899,
      "ĠRepublican": 8900,
      "Ġreports": 8901,
      "Ġcharset": 8902,
      "ĠMult": 8903,
      "Ġroles": 8904,
      "ancer": 8905,
      "webpack": 8906,
      "ĠMot": 8907,
      "onom": 8908,
      "tor": 8909,
      "etic": 8910,
      "Ġassociation": 8911,
      "ĠFar": 8912,
      "Ġdetection": 8913,
      "IMP": 8914,
      "ĠProfessor": 8915,
      "Cred": 8916,
      ";\">": 8917,
      "underline": 8918,
      "complete": 8919,
      "Ġmaintain": 8920,
      "Ġtimeout": 8921,
      "Ġmaterials": 8922,
      "zabeth": 8923,
      "weet": 8924,
      "Ġsynt": 8925,
      "ĠFree": 8926,
      "Comment": 8927,
      ",'": 8928,
      "aste": 8929,
      "Ġtrial": 8930,
      "Ġdict": 8931,
      "Ġtherm": 8932,
      "Spe": 8933,
      "CRE": 8934,
      "Ġdeclared": 8935,
      "ĠSom": 8936,
      "Ġmetal": 8937,
      "Ġresidents": 8938,
      "ĠTechnology": 8939,
      "RPC": 8940,
      "MI": 8941,
      "Headers": 8942,
      "Math": 8943,
      "vin": 8944,
      "linewidth": 8945,
      "Leg": 8946,
      "anth": 8947,
      "Ġalternative": 8948,
      "helper": 8949,
      "Ġeastern": 8950,
      "Ġattract": 8951,
      "%)": 8952,
      "Ġlies": 8953,
      "Skip": 8954,
      "Ġunderstand": 8955,
      "ologist": 8956,
      "resources": 8957,
      "Ġtransferred": 8958,
      "Ġepisodes": 8959,
      "formance": 8960,
      "innesota": 8961,
      "Ġfre": 8962,
      "Ġfellow": 8963,
      "Depend": 8964,
      "ĠAz": 8965,
      "opl": 8966,
      "ĠOrgan": 8967,
      "Ġdecom": 8968,
      "Ang": 8969,
      "\\\\\\\\\\\\\\\\": 8970,
      "ĠLOG": 8971,
      "1937": 8972,
      "PROJECT": 8973,
      "Ġyouth": 8974,
      "Ġlabels": 8975,
      "Ġlat": 8976,
      "indexOf": 8977,
      ")|": 8978,
      "Comm": 8979,
      "Ġreader": 8980,
      "TRUE": 8981,
      "Ġaccuracy": 8982,
      "Ġproxy": 8983,
      "ĠSi": 8984,
      "Ġcalc": 8985,
      "Ġdigital": 8986,
      "ĠDub": 8987,
      "Ġpromoted": 8988,
      "Ġrevealed": 8989,
      "Ġexperimental": 8990,
      "Ġorient": 8991,
      "^^": 8992,
      "Ġadopted": 8993,
      "ĠEst": 8994,
      "ifdef": 8995,
      "DOCTYPE": 8996,
      "Ġauthors": 8997,
      "person": 8998,
      "Make": 8999,
      "Personal": 9000,
      "Ġfifth": 9001,
      "plot": 9002,
      "Ġachieved": 9003,
      "IDTH": 9004,
      "Google": 9005,
      "ĠOlympic": 9006,
      "ĠArrayList": 9007,
      "Ġta": 9008,
      "Ġprice": 9009,
      "umin": 9010,
      "West": 9011,
      "ĠRegiment": 9012,
      "ĠĠĠĠĠĠĠĠĠĠĠĠĠĠĠĠĠĠĠĠĠĠĠĠĠĠĠĠ": 9013,
      "ĠJustice": 9014,
      "notes": 9015,
      "ĠLight": 9016,
      "anz": 9017,
      "eces": 9018,
      "ading": 9019,
      "ĠCopyright": 9020,
      "ĠArgent": 9021,
      "ĠHospital": 9022,
      "ĠResult": 9023,
      "ĠFederal": 9024,
      "Uri": 9025,
      "Ġappearances": 9026,
      "Ġpert": 9027,
      "ĠMember": 9028,
      "ĠSupreme": 9029,
      "Ġflat": 9030,
      "safe": 9031,
      "Ġwinner": 9032,
      "Ġseems": 9033,
      "Ġsecondary": 9034,
      "MOD": 9035,
      "Ġconfirmed": 9036,
      "typedef": 9037,
      "Import": 9038,
      "Ġthing": 9039,
      "ĠViet": 9040,
      "posal": 9041,
      "Miss": 9042,
      "pull": 9043,
      "Ġadvant": 9044,
      "Ġsymmetry": 9045,
      "Ġassumed": 9046,
      "OB": 9047,
      "Ġtrying": 9048,
      "bat": 9049,
      "plus": 9050,
      "Ġenv": 9051,
      "neg": 9052,
      "Ġacademic": 9053,
      "ĠÂ£": 9054,
      "Ġdual": 9055,
      "Ġrare": 9056,
      "Ġarticles": 9057,
      "Ġedges": 9058,
      "Ġcancel": 9059,
      "forward": 9060,
      "Ġcontributions": 9061,
      "ACT": 9062,
      "ĠWater": 9063,
      "ĠCEL": 9064,
      "Ġnewspaper": 9065,
      "Texture": 9066,
      "asi": 9067,
      "Ġpi": 9068,
      "Ġpal": 9069,
      "ĠWill": 9070,
      "eners": 9071,
      "itness": 9072,
      "irement": 9073,
      "Ġattacks": 9074,
      "EV": 9075,
      "peror": 9076,
      "plications": 9077,
      "ĠKenn": 9078,
      "ĠBa": 9079,
      "MT": 9080,
      "ĠBusiness": 9081,
      "bold": 9082,
      "flex": 9083,
      "pattern": 9084,
      "Ġshift": 9085,
      "OST": 9086,
      "Ġviews": 9087,
      "ĠFre": 9088,
      "ĠCorporation": 9089,
      "Ġpropag": 9090,
      "Ġdedicated": 9091,
      "Report": 9092,
      "ĠRail": 9093,
      "istance": 9094,
      "gers": 9095,
      "tk": 9096,
      "Ġtrust": 9097,
      "Ġleaves": 9098,
      "Sequence": 9099,
      "footnote": 9100,
      "perial": 9101,
      "ĠMinistry": 9102,
      "expect": 9103,
      "uplic": 9104,
      "Ġnp": 9105,
      "ducing": 9106,
      "ĠBC": 9107,
      "ĠPen": 9108,
      "ĠIslands": 9109,
      "ori": 9110,
      "\\_": 9111,
      "ĠPage": 9112,
      "Ġdiss": 9113,
      "Ġcmd": 9114,
      "Ġaggreg": 9115,
      "DateTime": 9116,
      "rate": 9117,
      "Ġtrained": 9118,
      "Ġparticles": 9119,
      "Wil": 9120,
      "Ġsoldiers": 9121,
      "Ġdisabled": 9122,
      "Ãº": 9123,
      "ĠAS": 9124,
      "Ġtemp": 9125,
      "Ġobservations": 9126,
      "Ġprogramming": 9127,
      "phia": 9128,
      "database": 9129,
      "ĠOs": 9130,
      "odies": 9131,
      "Ġscatter": 9132,
      "ĠBad": 9133,
      "Ġarrived": 9134,
      "condition": 9135,
      "nodes": 9136,
      "raq": 9137,
      "}^{-": 9138,
      "Austral": 9139,
      "Ġbounded": 9140,
      "bigg": 9141,
      "Ġdisease": 9142,
      "timeout": 9143,
      "Ġencour": 9144,
      "ĠKorean": 9145,
      "amps": 9146,
      "np": 9147,
      "Ġ$\\{": 9148,
      "Ġexpressed": 9149,
      "International": 9150,
      "pler": 9151,
      "clusive": 9152,
      "assembly": 9153,
      "groups": 9154,
      "Ġsignificantly": 9155,
      "pred": 9156,
      "Ġparser": 9157,
      "Ġtranslation": 9158,
      "agent": 9159,
      "bec": 9160,
      "ĠEp": 9161,
      "ĠCount": 9162,
      "ĠReview": 9163,
      "aby": 9164,
      "Ġminim": 9165,
      "signature": 9166,
      "University": 9167,
      "EEEEFF": 9168,
      "limits": 9169,
      "Ġspan": 9170,
      "pear": 9171,
      "decl": 9172,
      "ĠBal": 9173,
      "uations": 9174,
      "Ġpra": 9175,
      "Ġvac": 9176,
      "Ġcaptured": 9177,
      "RES": 9178,
      "ĠAli": 9179,
      "cert": 9180,
      "Ġsector": 9181,
      "Ġconnections": 9182,
      "Ġallowing": 9183,
      "cknow": 9184,
      "LL": 9185,
      "1919": 9186,
      "ti": 9187,
      "Ġgetting": 9188,
      "Writ": 9189,
      "Ġslightly": 9190,
      "Ġspirit": 9191,
      "Ġtraffic": 9192,
      "Ġtechniques": 9193,
      "spirit": 9194,
      "110": 9195,
      "Ġplugin": 9196,
      "Domain": 9197,
      "Ġadding": 9198,
      "bell": 9199,
      "ĠBand": 9200,
      "ĠAk": 9201,
      "stable": 9202,
      "console": 9203,
      "essions": 9204,
      "ĠMaster": 9205,
      "Ġcook": 9206,
      "also": 9207,
      "Ġmd": 9208,
      "FR": 9209,
      "%,": 9210,
      "Landroid": 9211,
      "Multi": 9212,
      "Ġhonor": 9213,
      "itzer": 9214,
      "aga": 9215,
      "kee": 9216,
      "bean": 9217,
      "ĠDaniel": 9218,
      "mouse": 9219,
      "However": 9220,
      "Ġdownload": 9221,
      "VALUE": 9222,
      "Ġlocations": 9223,
      "Ġshowing": 9224,
      "Ġconsistent": 9225,
      "Ġcommonly": 9226,
      "etherlands": 9227,
      "Ġacting": 9228,
      "repe": 9229,
      "Ġnotice": 9230,
      "arrier": 9231,
      "adelphia": 9232,
      "kens": 9233,
      "Ġassistant": 9234,
      "Ġven": 9235,
      "ĠPrize": 9236,
      "report": 9237,
      "Ġpartition": 9238,
      "BB": 9239,
      "ĠAuthor": 9240,
      "Ġdiagram": 9241,
      "usters": 9242,
      "ometric": 9243,
      "ĠSa": 9244,
      "Ġautomatically": 9245,
      "Ġoffers": 9246,
      "åĪ": 9247,
      "illi": 9248,
      "usr": 9249,
      "Ġarbitrary": 9250,
      "Delegate": 9251,
      "GO": 9252,
      "Ġdestroyed": 9253,
      "Sql": 9254,
      "video": 9255,
      "arnings": 9256,
      "Ġsport": 9257,
      "ELD": 9258,
      "ĠDown": 9259,
      "pu": 9260,
      "Ġ\\;": 9261,
      "dy": 9262,
      "iciency": 9263,
      "ĠGlobal": 9264,
      "Ġrapid": 9265,
      "Ġinstrument": 9266,
      "glyph": 9267,
      "Best": 9268,
      "two": 9269,
      "ĠYour": 9270,
      "optional": 9271,
      "issues": 9272,
      "ĠBrook": 9273,
      "ennes": 9274,
      "Ġrates": 9275,
      "Ġ];": 9276,
      "Returns": 9277,
      "Ġmedian": 9278,
      "Ġprincipal": 9279,
      "Ġwidely": 9280,
      "checked": 9281,
      "alyt": 9282,
      "getElement": 9283,
      "going": 9284,
      "METH": 9285,
      "Ġmeasures": 9286,
      "WN": 9287,
      "Bean": 9288,
      "\"\"\"": 9289,
      "IVE": 9290,
      "ĠMuslim": 9291,
      "flag": 9292,
      "Ġimplemented": 9293,
      "Ġregistered": 9294,
      "activ": 9295,
      "Ġpiece": 9296,
      "ĠAirport": 9297,
      "Ġassign": 9298,
      "ĠUSA": 9299,
      "Ġlabor": 9300,
      "Ġanimation": 9301,
      "ĠBlock": 9302,
      "Ġfish": 9303,
      "']['": 9304,
      "SK": 9305,
      "Ġduration": 9306,
      "Ġcitizens": 9307,
      "Ġdevices": 9308,
      "Ġancient": 9309,
      "here": 9310,
      "ĠJoe": 9311,
      "ĠallClasses": 9312,
      "amazon": 9313,
      "roduction": 9314,
      "Ġprocedure": 9315,
      "Here": 9316,
      "onical": 9317,
      "Ġalongside": 9318,
      "ĠallClassesLink": 9319,
      "cuss": 9320,
      "weg": 9321,
      "Ġmeasured": 9322,
      "Ġrespond": 9323,
      "Ġadult": 9324,
      "1914": 9325,
      "ĠRog": 9326,
      "ĠJeff": 9327,
      "LOCK": 9328,
      "orders": 9329,
      "trm": 9330,
      "Sort": 9331,
      "cu": 9332,
      "ĠDocument": 9333,
      "Dictionary": 9334,
      "Ġclick": 9335,
      "Two": 9336,
      "ĠSydney": 9337,
      "initions": 9338,
      "Ġexpatriate": 9339,
      "ĠRequest": 9340,
      "Ġdynamics": 9341,
      "Ġnewly": 9342,
      "Ġoptimal": 9343,
      "Ġ..": 9344,
      "amer": 9345,
      "1935": 9346,
      "/\"": 9347,
      "Tra": 9348,
      "ĠJon": 9349,
      "Ġenum": 9350,
      "Ġcolspan": 9351,
      "STATE": 9352,
      "ĠBBC": 9353,
      "Ġsections": 9354,
      "ĠPrime": 9355,
      "Ġgraduated": 9356,
      "()))": 9357,
      "oured": 9358,
      "Ġreset": 9359,
      "dagger": 9360,
      "Ġprep": 9361,
      "socket": 9362,
      "abric": 9363,
      "1933": 9364,
      "Wallet": 9365,
      "ĠGuard": 9366,
      "world": 9367,
      "aki": 9368,
      "plan": 9369,
      "Ġhundred": 9370,
      "800": 9371,
      "ulator": 9372,
      "Ġstored": 9373,
      "water": 9374,
      "ancell": 9375,
      "Ġpolynomial": 9376,
      "athan": 9377,
      "Ġlett": 9378,
      "python": 9379,
      "oton": 9380,
      "blank": 9381,
      "Ġlooking": 9382,
      "Ġbelieve": 9383,
      "istence": 9384,
      "Ġcircle": 9385,
      "BP": 9386,
      "ĠRome": 9387,
      "Ġserious": 9388,
      "NavBarFont": 9389,
      "ĠCat": 9390,
      "Ġorganized": 9391,
      "fi": 9392,
      "apes": 9393,
      "ĠNations": 9394,
      "ĠSem": 9395,
      "ĠTR": 9396,
      "simple": 9397,
      "Mask": 9398,
      "about": 9399,
      "JS": 9400,
      "wedge": 9401,
      "'m": 9402,
      "Fin": 9403,
      "ĠWilson": 9404,
      "Ġstarts": 9405,
      "æľ": 9406,
      "plates": 9407,
      "Ġvertices": 9408,
      "Ġindicate": 9409,
      "Ġaudio": 9410,
      "testing": 9411,
      "sidebar": 9412,
      "Dev": 9413,
      "itled": 9414,
      "Ġera": 9415,
      "textrm": 9416,
      "Ġparallel": 9417,
      "Ġdistingu": 9418,
      "Ġpartner": 9419,
      "ters": 9420,
      "ĠVill": 9421,
      "ĠCommunity": 9422,
      "ĠNAV": 9423,
      "zh": 9424,
      "Ġtmp": 9425,
      "rim": 9426,
      "yard": 9427,
      "ronze": 9428,
      "Ġsqu": 9429,
      "Ġcapture": 9430,
      "Ġsuggested": 9431,
      "Ġstay": 9432,
      "ĠBon": 9433,
      "ĠPlan": 9434,
      "^{-\\": 9435,
      "CG": 9436,
      "Len": 9437,
      "ĠSpring": 9438,
      "thrift": 9439,
      "Ġwild": 9440,
      "Ġhol": 9441,
      "Ġfeaturing": 9442,
      "ĠSciences": 9443,
      "ĠMir": 9444,
      "Ġrecip": 9445,
      "ortheast": 9446,
      "Ġsculpt": 9447,
      "Ġsb": 9448,
      "Ġconstitu": 9449,
      "Ġpet": 9450,
      "kes": 9451,
      "Ġ\"$": 9452,
      "ĠEND": 9453,
      "These": 9454,
      "efe": 9455,
      "USER": 9456,
      "ounce": 9457,
      "ĠRevolution": 9458,
      "ĠTok": 9459,
      "Ġinh": 9460,
      "Day": 9461,
      "Ġwall": 9462,
      "agg": 9463,
      "ummy": 9464,
      "prise": 9465,
      "pson": 9466,
      "Ġfloor": 9467,
      "ĠThree": 9468,
      "owner": 9469,
      "REQ": 9470,
      "Methods": 9471,
      "Lin": 9472,
      "ĠGar": 9473,
      "Ġproved": 9474,
      "kt": 9475,
      "Ġmapping": 9476,
      "ĠManagement": 9477,
      "Ġzone": 9478,
      "ĠDar": 9479,
      "Ġthous": 9480,
      "estic": 9481,
      "Ġcycle": 9482,
      "ĠFollowing": 9483,
      "Ġnotes": 9484,
      "quarters": 9485,
      "ðŁ": 9486,
      "Ġadministrative": 9487,
      "ĠToronto": 9488,
      "1917": 9489,
      "ĠLew": 9490,
      "ĠSource": 9491,
      "ĠSIZE": 9492,
      "Sources": 9493,
      "STRING": 9494,
      "Ġcloud": 9495,
      "Ġattend": 9496,
      "Ġconference": 9497,
      "ĠCirc": 9498,
      "ĠInformation": 9499,
      ";)": 9500,
      "Ġanything": 9501,
      "Ġcopies": 9502,
      "Ġusage": 9503,
      "Ġreasons": 9504,
      "Ġplanned": 9505,
      "ĠRos": 9506,
      "Div": 9507,
      "Fragment": 9508,
      "Ġ^": 9509,
      "ibliography": 9510,
      "bourne": 9511,
      "Ġcoordinates": 9512,
      "poss": 9513,
      "ĠSQL": 9514,
      "1934": 9515,
      "ĠSant": 9516,
      "Ġtwice": 9517,
      "cases": 9518,
      "ĠFire": 9519,
      "}}_{": 9520,
      "Ġalone": 9521,
      "Ġnuclear": 9522,
      "){\\": 9523,
      "ropical": 9524,
      "ixels": 9525,
      "Ġflight": 9526,
      "ĠSports": 9527,
      "ĠAsh": 9528,
      "South": 9529,
      "Sem": 9530,
      "consin": 9531,
      "Ġkept": 9532,
      "Ġflux": 9533,
[...]
