#version: 0.2
Ġ t
Ġ Ġ
i n
h e
Ġ a
o n
r e
a t
e r
Ġt he
e n
Ġ s
o r
a l
i t
Ġ o
i s
ĠĠ ĠĠ
Ġ c
e s
i on
a n
a r
Ġ \
Ġ w
Ġ f
e d
Ġ p
l e
Ġo f
Ġa n
Ġ $
Ġ b
Ġ in
in g
i c
r o
Ġ d
Ġ m
a s
Ġan d
c t
e t
e l
Ġt o
i g
en t
o u
Ġt h
r a
{ \
at ion
o m
s t
i m
i l
Ġ re
Ġ e
Ġ h
Ġ n
o t
a m
o l
Ġ is
Ġ (
Ġ l
i d
c e
Ġ T
v e
ĠĠ Ġ
u t
_ {
s e
ĠĠĠĠ ĠĠĠĠ
Ġf or
Ġ S
Ġ g
q u
u n
o w
u l
c h
u r
a b
v er
l y
Ġ$ \
at h
e g
Ġ A
Ġ on
Ġ C
u m
it h
Ġth at
o d
m ath
u s
Ġs t
Ġb e
Ġc on
â Ģ
en d
i f
č Ċ
e m
Ġ I
a d
ct ion
Ġw ith
Ġ &
t a
Ġa s
g e
} \
h t
Ġ M
Ġw e
i r
p h
r i
} $
^ {
2 0
Ġp ro
a y
u re
Ġ Ċ
e x
t er
Ġa l
Ġ =
Ġ v
t h
Ġ P
p e
m a
ig ht
Ġ B
is t
at e
ĠT he
o s
Ġ F
re f
Ġe x
p p
it y
p t
Ġb y
i v
he r
an d
Ġa re
c al
} }
it e
a c
re s
Ġ H
( \
in e
o re
Ġc om
Ġ R
Ġw h
es t
Ġ L
u b
er s
Ġd e
Ġ D
eg in
Ġ it
Ġ W
ar t
ro m
p l
b egin
i al
es s
Ġa t
p er
ra c
ex t
i es
ĠĠĠĠ ĠĠĠ
_ {\
) $
d e
Ġ N
f t
Ġ E
an t
p s
Ġs e
il l
i ve
o c
Ġ or
Ġ G
e w
} {
Ġf rom
i z
n t
m ent
Ġ r
Ġth is
Ġ y
a g
T he
as s
e q
f rac
ul t
or t
in t
ĉ ĉ
} ,
e ct
} )
Ġs h
al l
or m
l d
ou r
Ġ -
t ext
ic al
e qu
a ve
a k
p le
o g
c ite
e re
r an
âĢ Ļ
el l
c l
n d
it ion
ic h
Ġs u
Ġ he
r ight
r m
Ġ un
u p
u e
Ġw as
Ġ <
Ġn ot
Ġc an
ab el
ig n
u d
at ed
Ġc l
math b
en s
f f
Ġc h
Ġ le
, \
Ġre s
1 9
p a
Ġ O
t o
0 0
ation s
l abel
Ġ {
am e
$ ,
ab le
b er
Ġ us
d u
$ .
Ġh ave
et a
t he
c on
math cal
d er
Ġ k
d s
equ ation
= "
Ġ J
ar y
- -
) ;
} .
u st
Ġwh ich
as e
le ft
Ġw he
f ig
l ow
o p
20 1
} (
as t
a ge
ĠI n
c c
im e
Ġ im
} ^
ĠĠĠĠĠĠĠĠ ĠĠĠĠĠĠĠĠ
re d
ac k
o st
en er
} _
< /
i b
Ġ U
a p
id e
~ \
f orm
c om
a v
Ġm od
. .
p ro
on g
or k
Ġ âĢ
t her
ion s
d a
ph a
ar d
en ce
r u
Ġ +
Ġa b
an g
al pha
a ch
Ġp l
Ġ K
Ġh as
) .
) ,
a ct
a re
/ /
a in
l ine
am b
) \
an ce
ou s
Ġal l
s um
ou t
s o
1 0
Ġcom p
ou ld
Ġo b
Ġ "
ro w
Ġ if
in d
r ic
amb da
u se
I n
el ta
o ver
Ġa d
el y
$ \
ĠT h
i p
' s
Ġm e
pe ct
Ġ }
i a
ran s
Ġ V
f ere
Ġa pp
Ġon e
Ġn e
ent s
ri b
Ġ qu
u g
am ma
un ction
r y
Ġcon t
i an
ou nd
er m
_ \
Ġ j
im es
ta in
ĠĠĠĠĠĠĠĠ ĠĠĠ
Ġp art
Ġw ill
p ort
Ġd is
Ġ *
i re
k e
ic e
i le
w o
at a
mathb b
or s
} ^{
} _{
Ġ\ \
m u
d ot
= \
o se
Ġin t
er v
ar i
un d
s ub
m b
ow n
re e
w e
ig ma
at es
Ġp er
om e
Ġs y
- \
o k
Ġal so
pt ion
h o
l i
Ġy ou
ur n
ra y
o f
ul ar
res s
h at
or y
j ect
Ġe v
ic s
ĠS t
eg a
ar k
pa ce
f in
ĠĠĠĠ Ġ
ph i
al ly
^ {\
ut ion
Ġo ut
Ġcl ass
o int
Ġs et
or d
o v
c es
Ġa r
Ġmod el
od e
l ambda
Ġ {\
b f
ir st
p i
e ar
Ġv al
Ġb ut
Ġf unction
Ġt wo
s c
o b
i el
ol low
s et
Ġd if
" >
Ġ en
c ent
l ic
Ġd o
on e
Ġo ur
ra ph
Ġm ore
ĠW e
p on
Ġthe ir
iz e
i e
Ġ [
20 0
w id
mathb f
c a
il on
ps ilon
v el
Ġin ter
e p
um ber
g et
ver s
Ġfor m
âĢ Ŀ
l l
Ġres ult
a pp
Ġo ther
c k
se ction
o ve
Ġf ollow
Ġt ime
Ġ ro
c re
Ġs p
Ġit s
Ġo ver
st em
ra m
1 2
Ġs o
y pe
y s
d ition
s igma
ou nt
n e
Ġcon s
al ign
Ġb et
Ġs im
r ing
cl ud
Ġsu ch
ar am
p os
p art
ver y
Ġn ew
at ure
Ġ( \
Ġs ub
et h
le ct
^{ -
il de
Ġwhe re
c he
Ġ |
} {\
Ġh is
a ce
b eta
le m
Ġe qu
Ġwe re
at ive
i x
Ġ up
Ġc or
Ġd es
Ġcon st
v i
Ġthe re
o x
Ġg ener
b ar
Ġon ly
Ġt rans
t e
math rm
Ġm an
+ \
g amma
Ġthe y
Ġf irst
Ġan y
Ġth an
Ġ Y
Ġd ist
if ic
a x
res ent
* }
Ġa cc
Ġw ork
W e
Ġdif fere
u al
Ġl o
Ġp re
ĠTh is
c ed
oc k
il ity
Ġsh ow
Ġa g
pe c
Ġre g
Ġm at
Ġre l
ak e
Ġp os
\ \
at or
ĠC h
Ġt ra
l es
Ġbe en
s s
Ġd ata
Ġthe n
ot h
Ġc ol
the ta
] {
p ut
* *
Ġc o
^ \
is h
ig h
S t
r it
Ġwhe n
le q
r ho
) }
Ġp h
d elta
fig ure
t urn
ar ray
we en
Ġs ome
i ent
is e
Ġe ach
at ing
c ess
c dot
l o
ru ct
$ -
wid th
Ġs ol
ta u
ic t
as ed
ĠI t
he re
Ġin to
Ġg iv
it em
Ġ x
Ġ '
iel d
1 8
}$ ,
in k
Ġsy stem
}$ .
Ġg o
is s
Ġbet ween
Ġthe se
Ġ i
Ġpro b
} (\
ay s
Ġe ff
in ce
ĠâĢ ľ
s p
d ing
b ig
1 1
eq ref
ib le
t imes
u es
ol og
Ġf in
Ġl i
it ies
an s
f ter
Ġ use
Ġn o
ul l
ment s
Ġp oint
it s
n ot
Ġt e
n ing
n g
ra d
v al
Ġs c
p end
Ġc ase
n u
Ġab out
part ial
el f
ation al
ĠS e
i ed
Ġcom m
eth od
Ġun der
a il
Ġwh o
n ce
Ġl ine
on s
ft y
Ġpro v
1 5
in fty
T h
ro und
p r
-- --
ter n
ar row
Ġs m
( )
om ega
aram et
Ġdiffere nt
t ilde
| \
t ing
20 2
r t
ug h
Ġapp ro
c y
Ġf e
ou g
Ġus ed
ic k
Ġv ari
y n
= =
on t
id ent
a w
our ce
ar g
ĠR e
ol d
p m
1 6
Ġst ud
m in
v ar
eq n
ub lic
Ġex t
iz ation
Ġn umber
Ġw ould
f or
D elta
Ġus ing
Ġk n
m m
Ġin v
t t
c ol
ar s
Ġg et
ĠF or
m er
iz ed
Ġp ol
an ge
am ple
Ġof f
Ġn on
Ġm ay
ĠĠĠĠĠĠĠĠ ĠĠĠĠĠĠĠ
s pace
R e
ver t
Ġin d
id er
qu ad
er t
Ġc ur
per t
he d
Ġh ad
ow er
Ġy ear
ro up
us s
1 3
Ġ her
r al
i o
ction s
ol ds
Ġas s
Ġde fin
ab l
Ġre turn
ore m
Ġ est
Ġ .
at er
Ġpart ic
en g
Ġp e
Ġpro du
Ġa ct
ro ugh
x i
Ġgiv en
se c
Ġd et
Ġb l
Ġs ign
} }\
Ġs ame
s im
} [
1 4
ical ly
\ ,
is m
Ġ$ (
g y
)$ .
e ver
Ġt erm
ĠH e
Ġ X
s h
ot e
Ġ u
Ġcom ple
Ġthe m
ot s
ĠU n
s erv
Ġm ost
Ġw ell
- >
Ġp a
Ġsu pp
ri v
ar ge
g le
as es
Ġf act
e psilon
Ġre p
Ġin st
p ar
al s
$ $
ĠP ro
ra ct
ar ch
2 5
an n
Ġh ow
Ġval ue
Ġm ethod
iv ely
Ġs a
ir c
Ġ /
Ġf l
} _{\
in s
Ġ z
il d
Ġ Q
Ġa m
Ġde f
. ,
Ġp aramet
er r
Ġse e
Ġ :
Ġresult s
w here
Ġre qu
cent er
) )
Ġo per
ist s
Ġob tain
Ġfollow ing
form ation
s q
ing s
ĉĉ ĉĉ
ĠâĢ ĵ
ri x
Ġs pec
ct or
il y
O m
ic es
h i
o ol
con d
ut e
Ġb oth
ent ial
ab ility
as ure
Ġs ur
u ch
n er
1 7
Ġe m
Ġor der
Ġst ate
ps i
eqn array
Ġeff ect
Ġ ent
Ġan al
re nt
ĠD e
Ġb ound
Ġth rough
Ġh igh
o y
u de
Om ega
oug h
Ġdis c
Ġm in
Ġa fter
y p
text bf
Ġ //
E x
^ *
)$ ,
Ġne ed
in es
Ġs he
Ġex p
de f
19 9
Ġt r
Ġ< /
Ġb ack
ur ing
Ġw or
res pon
Ġd ire
ang le
ĠF ig
ens ion
Ġy our
Ġper form
at ic
w ork
r on
re l
t on
sq rt
G amma
al ity
mb ol
o ple
Ġli ke
3 0
o ot
he n
o ok
k s
Ġpl ay
Ġre c
b m
ener gy
C on
it ed
ĠC om
Ġsm all
Ġ end
Ġ Z
sub section
ca use
v are
.. /
^{ (
ere d
in ed
ult i
vare psilon
in clud
c m
Ġe very
Ġ$ {\
ĠA l
ĠA s
f ul
as h
ra w
l og
Ġm ass
F or
P ro
right arrow
raph ics
Ġde c
oc i
re at
: :
Ġ `
f ra
Ġst r
Ġdes c
Ġdist rib
ruct ure
Ġ ed
}^ {\
in ing
Ġf ield
ad e
ri pt
Ġme asure
n ame
Ġin clud
ĠĠ Ċ
' ,
ith m
ag es
} =
Ġcon dition
Ġo pt
Ġpro cess
Ġob serv
Ġ\ ,
Ġe le
Ġ čĊ
ul ation
Ġres pect
ro ss
ran gle
Ġex pl
Ġprob lem
ca ption
Ġn ow
o id
ar ly
) =
en cy
t ab
Ġs pace
E R
" ,
et ric
e f
Ġd i
Ġc all
Ġex per
Ġ @
eg raphics
includ egraphics
e y
m od
t ed
Ġa c
Ġwh ile
Th is
Ġp r
5 0
Ġb u
Ġth ree
ut h
Ġas sum
Ġwh at
Ġj ust
Ġsa id
Ġc ould
Ġp ublic
m l
t r
ess age
Ġs ing
et work
um n
Ġt ype
ou n
v ent
.. .
vi ew
Ġ energy
Ġcor respon
Ġle ad
t en
l ed
var phi
Ġb el
y mbol
ĠN ew
em ent
Ġsh ould
Ġf il
et s
2 4
m e
n on
ge q
g or
Ġdo es
Ġp resent
Ġrep resent
ff ic
er n
Ġcons ider
w ard
em ph
y le
Ġpe ople
Ġt est
o le
Ġs cal
ens ure
i vers
Ġc ent
re ad
Ġest im
olog y
he s
re n
Ġev en
Ġin cre
ut ions
. ~\
& \
over line
Ġr ight
vel op
Ġn ame
Ġd en
Ġf ound
is ion
Ġl ong
gor ithm
: //
Ġat t
Ġlo cal
Ġf ind
Ġ very
um er
. }
Ġl im
00 0
i qu
if ied
Ġman y
S T
I t
b l
it ive
i k
n ess
ch n
pro of
c o
d iv
p en
Ġ ve
Ġbe cause
Ġpos s
at eg
Ġc a
ur al
as on
Ġse cond
Ġch ar
pos ition
i er
) ^
b olds
ant s
l and
}, \
ak ing
Ġag ain
eng th
Ġl arge
an y
Ġc re
B ig
Ġs ince
Ġm y
bolds ymbol
ce pt
ch i
le t
am es
at t
Ġgener al
Ġc al
A s
e e
ol ution
Ġcont in
Ġst art
fra k
el s
if y
' '
Ġre al
2 2
Ġm on
Ġs er
Ġval ues
a u
h line
[ \
Ġint eg
m an
in al
orm al
ve c
am pl
n et
ow ever
g er
ĠĠĠĠĠĠĠĠ Ġ
c or
Ġad d
}) .
ĠI f
f er
v ed
b e
ĉĉ ĉ
f l
Ġab ove
Ġbe ing
Ġfe ature
on d
Ġ ident
Ġkn ow
Ġin formation
Ġw ay
Ġsupp ort
I N
i ew
( "
vi ous
Ġs at
ro du
f ore
t rans
Ġ ,
( );
ens ity
im ension
O N
Ġh and
Ġg roup
2 3
ĠA n
ur ther
} }$
Ġst ructure
Ġ ra
at ch
l angle
Ġ err
Ġ >
l ess
Ġle t
> </
math frak
m ed
Ġs pect
r id
il ar
Ġqu ant
Ġto p
ĠC on
b y
l im
Ġm em
p re
Ġ rad
L ambda
Ġmodel s
at her
de pend
d d
Ġpro pert
Ġ el
an k
ref ore
ar ds
Ġyear s
Ġcon tain
Ġm ake
Ġth ose
ld ots
Ġde pend
pl it
ot her
an e
L et
Ġfollow s
v en
c ur
Ġm ain
Ġt em
sp an
s er
Ġcomp ut
ro p
n abl
Ġsh own
c i
A T
âĢ ĵ
w h
Ġs erv
im al
v es
s u
> <
Ġm ag
C om
w n
if e
o od
s k
f ace
i or
1 00
P hi
s f
is hed
Ġm ulti
4 0
Ġim port
Ġn etwork
Ġob ject
Ġex pect
Ġcom pa
mb ox
os s
Ġal low
mer ic
Ġdesc rib
a h
er o
iss ion
if t
Ġdefin ed
i red
Ġe lect
Ġde velop
Ġle ar
um ent
it ial
Ġle vel
i j
r ation
c le
A R
Ġhe re
Ġb ased
c ul
---- ----
Ġs elf
Ġ| |
Ġprov id
as k
se e
or ph
Ġg l
g ram
n o
Ġre ad
nabl a
âĢ ľ
n ew
Ġc ount
ers on
Ġar t
Ġh im
b ack
y m
ro l
Ġst and
T o
app a
ect ed
act er
am p
Ġa v
C h
Ġbe fore
. âĢĿ
x im
Ġa p
text it
\ |
} ;
re qu
is f
yn am
Ġst at
ys is
Ġ _
b ra
Ġl ast
d ay
ĠĠĠĠĠĠĠĠĠĠĠĠĠĠĠĠ ĠĠĠĠĠĠĠĠĠĠĠĠĠĠĠĠ
2 1
ĠE x
../ ../
ĠS h
Ġex ample
t able
Ġcur rent
cite p
c er
Ġf am
eta il
cl ude
w ay
Ġc he
e ction
Ġm ed
e c
u le
u ally
ensure math
s on
Ġhe l
Ġg u
Ġ #
Ġd uring
ot imes
w w
Ġre m
com m
ch ool
} )$
b ox
c irc
sub set
Ġpartic ular
k appa
th is
) :
at ors
Ġs um
. \
ere st
Ġp res
\ %
Ġm uch
o per
Ġdistrib ution
al th
a z
Ġad dition
Ġre du
Ġse ction
Ġr un
ific ation
ot ential
b ers
d is
Ġterm s
g g
s ource
w ith
st r
Ġp ower
Ġdet erm
pl ic
Ġre st
ric t
20 20
Ġdisc uss
p d
red ict
Ġ )
19 8
a j
iv al
ar get
a ction
6 0
it al
Ġs ize
pl ay
Ġm ade
R E
e ad
ht ml
Ġdire ct
Ġstud y
iv es
A S
3 2
Ġl ow
o h
S igma
non umber
od y
Ġin s
ĠC l
re m
s m
Ġal gorithm
Ġd ue
Ġte chn
Ġsim ilar
l ation
** **
en se
et ry
I D
ot t
Ġb as
Ġch o
iel ds
}) ,
Ġlo ok
e ps
Ġ et
ht t
Ġ* /
Ġbe h
2 7
Ġd om
Ġm ust
g es
Ġv is
al e
Ġ- -
dot s
}} {
\ !
Ġd own
Ġsat isf
Ġshow s
Ġm ax
ĠThe n
201 8
2 8
m essage
le ction
Ġbe com
Ġp at
Ġap pe
a ir
Ġre le
or g
r um
h ip
Ġt ake
Ġor g
at ely
Ġsing le
Ġparamet ers
202 2
oc ation
ak es
Ġd er
ac es
ĠĠĠĠ ĠĠ
ist ic
ĠT o
Ġh ref
ĠH owever
or n
wid et
Ġpoint s
er y
Ġc ar
\ [
20 19
Ġle ft
Ġor ig
Ġre port
Ġh ig
Ġst ill
al se
iv ity
and om
== ==
Ġo pen
Ġexper im
ĠA nd
ĠĠĠĠĠĠĠĠĠĠĠĠĠĠĠĠ ĠĠĠ
ure s
ĠA meric
' t
Ġd id
Ġgo od
b le
3 3
Ġwith in
) (
Ġa round
Ġmat rix
ix ed
vers ion
widet ilde
Ġc le
Ġdes ign
depend ent
in ation
{ -
ress ion
Ġcomp on
Ġcomm un
Ġf our
201 7
B y
Ġint erest
Ġl ist
Ġto t
ĠR es
Ġsol ution
Ġin du
Ġobtain ed
center ing
ter s
Ġp otential
Ġ q
Ġme an
ord ing
d raw
pos ed
en e
Ġg raph
s l
c ode
ou se
Ġm ark
Ġposs ible
cc ess
i ents
Ġ` `
Ġg ra
n ces
2 6
t d
ol l
F ig
Ġd ensity
ivers ity
Ġb est
iv ed
con t
fere nce
4 5
Ġin itial
( '
R es
Ġhel p
cl ass
re g
Ġp redict
Ġfunction s
/ \
i od
at rix
ar m
ĠL et
ma x
Ġt ri
202 1
Ġwor ld
a ult
Ġinclud ing
Ġtr ue
Ġpa per
c it
Ġequ ation
im um
Ġres pon
to p
Ġwith out
sc ript
w ide
at ter
re am
a ps
Ġsu per
in ess
Ġp op
Ġex ist
Ġchar acter
c ap
con st
} -
is ed
tab ular
i ence
Ġint rodu
rac k
ver se
b it
e k
Ġw rit
Ġl arg
Ġass oci
over n
Ġstr ong
ĠL e
Ġre ma
O R
P s
201 6
Ġlim it
ab les
Ġse qu
Ġappro xim
or ies
Ġst ates
Ġ vert
Ġcontin u
Ġanal ysis
Ġprodu ct
Ġcl os
i i
ĠA d
7 5
Ġcont rib
A N
col or
Ġt yp
Ġconst ant
Ġd eg
Ġd em
im port
Ġpro f
Ġappro ach
Ġcorrespon ding
Ġinv est
ur b
Ġ= >
2 9
s elf
Ġc ou
_ _
Ġte am
N ame
Ġl it
iqu e
Ġkn own
Ġcom b
Ġo cc
Ġcomple x
Ġp ass
\ {
I d
is on
Ġpre vious
u x
L E
od es
iv id
ampl es
Ġp ar
pr ime
t ype
Ġb ro
3 5
st yle
et y
Ġfin al
0 5
ĠI nd
Ġd at
cl us
ĠThe orem
ent ion
Ġal ong
Ġthe ory
ĠO n
I f
Ġn ext
m it
Ġr ate
) =\
Ġ( $
Ġd etail
T ype
A l
y stem
Ġrespect ively
p or
Ġparamet er
} +
Ġm om
ob al
Ġre f
Ġperform ance
or th
Ġimport ant
Ġo wn
Ġreg ion
t ime
Ġcal cul
Ġtot al
al k
z eta
ial ly
v ir
ce ption
ent al
Ġsign ific
Ġar g
\ ]
201 5
Ġp ost
em ma
} ]
it le
ĠP l
, âĢĿ
ro ll
ĠP h
Ġs l
per ature
Ġm ap
pl oy
Ġa ver
ou th
; \
Ġe as
g round
Ġapp lic
b s
) }\
Ġim pro
St ring
Ã ©
th m
Ġpro gram
) ^{
9 0
Ġcon f
Ġpro of
Ġpro ject
m ult
or der
r r
o pt
ĠE q
s cal
ex p
Ġa ut
ail able
A L
m ber
} =\
che d
{ (
C l
it her
i ous
in ter
om en
an ces
Ġpos ition
Ġw ant
pp er
oc us
ĠA r
Ġbu il
st and
Ġpa ir
du ct
D e
Ġcall ed
~ ~
S S
Ġ& =
8 0
us iness
# #
Ġph ot
om orph
an c
Ġph ase
ĠC ol
Ġr ange
E N
Ġp ath
Ġr andom
Ġc rit
Ġind ic
ad d
our ces
Ġline ar
Ġch ange
ic le
201 4
ver al
re turn
se qu
Ġb re
ri es
in a
Ġv iew
u ps
m s
av ing
Ġk e
Ġs pe
Ġf ram
. ~
A n
7 0
l er
/ >
Ġagain st
Ġerr or
w ays
trans lation
em ber
en ces
6 4
Ġh y
Ġsystem s
Ġf ull
er ing
}^ \
Ġch ang
r ite
i um
Ġ ide
Ġve ctor
Ġim age
Ġl ight
ĠY ou
Ġf urther
t il
A C
Ġfin ite
p aram
Ġre se
Ġs ay
n ode
cdot s
Ġa ff
$ )
Ġa ction
Ġl ink
9 9
ĠSe ction
}_ \
Ġph ys
Ġsy mm
Ġcont rol
Ġin put
Ġd el
} |
uth or
Ġsignific ant
Ġhig her
Ġmethod s
Ġd ynam
Ġad v
Ġl ess
}\ ,
b r
Ġg ame
ĠUn iversity
ĠB ut
Ġev ent
ĠB e
, -
Ġl ower
Ġf ew
Ġf ree
un der
t le
{ {\
ĠB y
Ġcondition s
ĠW h
a im
Ġt imes
' )
Ġt arget
ru ction
0 1
. "
c os
wide hat
Ġre ce
Ġt urn
Ġpro t
olog ical
Ġg row
V al
lem ma
Ġm et
u ation
de fin
Ġh ist
ffic ient
text width
Ġdif f
Ġle ast
Ġc ap
ĠâĢ Ķ
" />
Ġwe ight
Ġl ay
Ġan other
Ġdi ag
ĠT e
q quad
as ing
}} (
Ġper iod
Ġbet ter
Ġtra ining
Ġc ases
Ġn ode
ri ption
Ġtem perature
) ]
t s
}) \
math sf
S E
Ġs om
ion al
Ġb o
Ġl aw
Ġ\ {
che s
Ġse veral
201 3
ir d
Ġd on
^ +
re en
Ġm ot
ĠI s
val ue
Ġfam ily
es c
Ġpl an
riv ate
f o
Ġm ov
Ġw id
f oot
Ġk ey
le y
Ġstand ard
b all
ĠThe y
imension al
I C
Ġp erson
Ġpl ace
Ġp ur
Ġth ink
em pt
Ġpos itive
Ġs it
Ġre cent
Ġav ailable
Ġs k
vir on
Ġn ull
ĠS he
u c
he ad
s ize
ĠB l
Ġ !
Ġprov ide
h space
id d
ge bra
al ax
Ġser ies
end s
o ff
a f
end ed
Ġhe ad
ur y
3 4
}^{ (
Ġl og
Ġfeature s
âĢ ¦
Ġdef ine
o pe
pd f
D E
& =
Ġc our
u ro
tern al
Ġn ormal
wh ich
Ġcor re
Ġqu est
ĠA t
lect ed
b ased
og raph
ĠâĢ ĺ
O n
Ġst ring
Ġs ource
Ps i
Ġl ength
ĠFig ure
sm all
ur ation
in ary
Ġv ol
Ġpropert ies
Ġch ild
ang u
ĠS u
I T
Ġl ife
Ġconst ra
r and
or ld
s ing
Ġab s
ut ure
201 2
Ġev al
ub l
L ist
w are
oper ator
Ġcons id
Ġcon n
net ic
Ġz ero
A M
w it
Ġc irc
Ġobserv ed
I I
Ġf requ
us ic
us h
ĠA ll
a pe
Ġmom ent
Ġbel ow
g o
ch ie
ĠĠĠĠĠĠĠĠ ĠĠĠĠĠ
3 6
ple ment
ĠThe se
Ġn eg
Ġv ar
oh n
ly ing
Ġc ost
Ġg e
Ġcons ist
Ġbeh av
aj or
i us
Ġassoci ated
a red
is ing
ĠF e
un e
in c
Ġh al
Ġbl ock
c up
4 8
Ġprob ability
n al
Ġc y
Ġth us
Ġc ross
Ġex ists
l ing
A r
Ġl oss
Ġfact or
um an
ore d
w ards
Ġpro posed
Ġ$ (\
] ,
Ġd ay
ke y
ĠThe re
}\ \
Ġorg an
3 1
Ġcl ust
ab ly
U n
Ġcol l
Ġme ans
Ġlear ning
ĠA pp
p oint
ĠJ an
en c
Ġf alse
ĠL emma
Ġaver age
fere nces
Ġ& \
app ro
x space
w ise
ill ion
Ġs ide
f unction
Ġcomp ar
sk ip
Ġc ell
d ata
Ġl a
ĠC ar
Ġan n
ro ups
] $
Ġcou pl
on al
op y
ra p
as ter
I nt
Ġo pp
r ary
ord in
read y
ĠE ng
Ġf low
ol umn
ul es
Ġsh ort
Ġacc ount
C O
Ġg ive
Ġsim ple
Ġdefin ition
Ġrequ ire
Ġel se
er tain
Ġdescrib ed
Ġequ ival
ut es
e v
9 5
201 1
o ber
oc ial
Ġanal y
ic y
ac he
3 8
ĠM ore
| ^
pro p
Ġquant um
Ġh om
Ġse en
Ġare a
Ġb and
n ow
ch an
Ġdat as
Ġf it
Ġs em
s in
Ġin dependent
Ġsu ccess
ul a
Ġassum e
Ġele ment
Ġen c
Ġg reat
ib ility
201 0
equ iv
Ġal ways
6 5
Ġse par
Ġe ither
Ġl ines
b u
er ial
Ġim pl
Ġb i
Ġf ixed
ind ent
Ġconsid ered
ĉ Ċ
Ġrel ations
g l
st ring
os p
( {\
Ġf ocus
Ġexpect ed
a ut
Ġche ck
Ġinv ol
Ġs che
r ist
ul ations
Ġa chie
in ally
O b
t y
Ġm ight
Ġb ook
ĠAmeric an
âĢ Ķ
19 7
sc r
pa ct
en n
id ence
ivid ual
g ed
Ġin clude
Ġ= =
3 7
Ġs chool
} :
} +\
Ġto o
ta ck
Ġl ater
operator name
Ġn at
scal e
id es
Ġis s
A P
Ġoper ator
Ġsur face
Ġne ar
are nt
ur s
ari ant
ĠS ince
Ġ& &
it or
ĠC ent
m ost
le ment
m at
) -
Ġg overn
Ġst re
ĠM ay
S h
ma p
em s
ĠU S
a i
ĠS o
at s
Ġli k
}} {\
Ġex act
et er
ig en
Ġst ar
b b
Ġv ia
viron ment
s ide
Ġdist ance
th ough
Ġc are
Ġsequ ence
v ing
Ġscal e
cit et
m id
th s
Ġsp in
Ġacc ess
f ield
Ġg alax
ra ction
Ġt ext
n eq
' $
Ġst ep
5 5
0 4
ĠM ar
ent ly
Ġde v
ĠC an
f ill
Ġs ample
r is
Ġele ments
Ġden ote
ust om
foot not
Ġn umer
E D
if f
Ġv oid
htt ps
Ġsu gg
Ġsugg est
Ġ id
Ġal ready
Ġac ross
} -\
ĠG e
S e
ĠM an
Ġc over
Ġtrans ition
Ġset ting
Ġh ome
oc ument
Ġcor rel
ro id
S et
ind ow
iv ing
t ic
ri or
ĠC O
Ġl abel
Ġb usiness
in o
cal l
s w
Ġe mb
Ġequ ations
p ose
Ġ version
ĠO r
Ġ- \
ĠS p
pl ace
6 6
3 9
Ġe ar
I S
) }{
Ġr at
is ter
ĠW ith
H e
Ġed ge
Ġt re
Ġconst ruct
ver g
0 8
en umer
Ġbl ack
ug ht
g s
Ġspec ial
ak en
Ġrese arch
ĠC o
4 4
Ġ %
Ġp ract
ann el
ress ed
m p
Ġo ld
the orem
Ġdom ain
b o
Ġbound ary
m ary
n b
st it
el oc
Ġind ividual
0 2
ĠN o
Ġcomm on
] \
il es
v space
Ġh app
] .
Ġs ens
Ġpropert y
iv en
Ġrel ated
D ata
Ġinvest ig
"> <
Ġh ard
il ities
st ar
ed ge
}} _
our s
Ġhe alth
ult s
ut ed
Ġim plement
Ġsol utions
Ġf ields
Ġlarg er
enumer ate
um e
ĠTh us
av a
Ġgiv es
math scr
E S
angu age
iz ing
ĠĠĠĠ Ċ
pp ed
Ġcon text
0 7
con om
Ġest abl
ĠUn ited
d ag
Ġem ploy
li ed
item ize
Ġam ong
ide o
get her
Ġto gether
Ġl oc
Ġgo ing
uss ian
Ġen g
u ary
no indent
ra g
mult ic
Ġf uture
$ }
Ġm ajor
Ġ es
ot es
ĠS c
m on
Ġorig inal
res h
ott om
Ġm etric
ĠĠĠĠĠĠĠĠĠĠĠĠĠĠĠĠ ĠĠĠĠĠĠĠ
y l
Ġab le
200 9
Ġvari ous
Ġreg ular
g en
~ $
0 3
( -
Ġin fl
Ġc ode
Ġman ag
Ġim ages
c ell
Ġconstra int
) }$
Ġen ough
Ġind ex
Ġm ove
Ġv eloc
Ġopt im
igh b
o oth
ic ro
Ġcl ose
r im
multic olumn
Ġup d
om ial
Ġcon fig
Ġgl obal
Ġf ac
Ġp ut
p ly
C T
Ġus er
Ġp rivate
s plit
Ġse ason
Ġeff ic
Ġimpl ies
ac y
d t
ut il
Ġeffect s
Ġf ar
i am
Ġre ason
W ith
oug ht
d own
d imensional
Ġmulti ple
Ġ ill
Ġrequ ired
Ġcont ent
ast ic
\ ,\
l ight
Ġout put
Ġun til
Ġw in
m ore
Ġin f
Ġunder stand
o ch
// //
M od
Ġle g
pl us
Ġco e
4 9
Ġb en
Ġhow ever
Ġh tt
ĠJ ohn
lo ad
Ġof ten
m ark
0 6
( $
Ġc ertain
Ġb ig
Ġne cess
ian s
ĠC ount
ĠP ol
z e
Ġeffect ive
rac y
Ġnot e
med i
omorph ism
Ġstr ateg
ĠN ational
Ġun it
p ol
Ġpro m
Ġ\ |
Ġacc ording
g roup
Ġcompa red
ul y
on ic
Ġd ou
Ġs ays
Ġcomp any
i ver
ĠO ne
N N
Ġthe refore
if orm
\ }$
Ġe arly
pa ge
ab or
Ġpro ve
Ġappe ar
ww w
f rom
Ġwhe ther
Ġp an
Ġw on
Ġme chan
0 9
Ġbecom e
}} }
Ġev ents
ear ch
Ġaddition al
Ġre view
-------- --------
C ol
ew ork
ho od
L L
Ġcan not
Ġh olds
Ġf un
ct ors
Ġset s
200 8
4 7
Ġspec ific
ĠM e
Ġt ry
ta ct
Ġdiffere nce
6 8
Ġgener ated
r ont
R O
p x
^ -
t ra
Ġ: =
ict ure
ĠM ed
th at
Ġal gebra
Ġcl aim
P i
ĠW hen
Ġro le
Ġlear n
um p
V ert
Ġtrans form
ru le
Ġf ore
Ġt aken
Ġst atic
end ing
a ctions
Ġcompon ent
) {
Ġe p
Ġde p
Ġwe ek
ĠC or
c ing
Ġimpro ve
Ġfil m
ne y
Ġp o
] [
ĠF ran
Ġinst ance
Ġwe ak
6 7
Ġg roups
Ġpr im
appro x
Ġre d
am il
Ġw ave
ac hes
Ġoff ic
) );
Ġb egin
Ġf und
ot ed
Ġf ail
Ġcontain s
le x
Ġf ig
Ġan t
Ġbel ie
Ġcom e
Val ue
u ck
ĠM in
Ġ _{
) +
ĠW orld
li ke
**** ****
Ġback ground
d om
C ont
u k
Ġprovid ed
Ġval id
Ġre ally
& &
Ġne ver
y mm
Ġst ars
o ad
Ġh aving
A nd
Ġpre c
Ġc ateg
Ġestim ate
Ġmag netic
Ġmat erial
Ġw ater
ĠThe refore
line ar
i res
t est
202 3
S ince
Ġcompon ents
Ġrepresent ation
ĠCom m
Ġrel ation
Ġp ress
Ġn um
nb sp
Ġco ordin
Ġdeg ree
I M
comm and
Ġcle ar
st ate
at ively
Ġke ep
Ġmat ch
Ġne ut
Ġrec ord
is k
Re ferences
Ġh uman
pp ing
r c
Ġequ al
{ }
re st
Ġs qu
under line
Ġnat ural
og n
Ġl and
Ġexpl ain
Ġre t
Ġg r
ĠA ug
Ġc ut
ens or
com e
ĠE n
k en
ind ex
Ġth ird
Ġd one
Ġpresent ed
port s
C C
A B
p ath
us ed
ĠG u
Ġw ar
b ut
I nd
ĠJan uary
Ġserv ice
ac c
Ġbas is
Ġmark et
m y
Ġeval u
e ff
Ġthe orem
f ile
Ġd imension
dis play
E T
The n
P l
Ġt reat
Ġspect rum
c ast
Ġmat ter
n a
l ocation
Ġc am
Ġwid th
Ġb ase
og le
Ġfl u
r ated
iz es
k n
P h
Ġcomple te
f e
l in
Ġm aking
ĠT able
com p
in st
* {
Ġvari ables
ou d
Ġp ort
Ġa uthor
ĠA ss
Ġmem bers
Ġg as
ĠE uro
Ġp ay
S u
led ge
Ġm usic
P S
on es
mod el
ĠTh at
}^{ -
ĠS ch
Ġwh ose
ĠO ct
y ing
Ġev olution
al es
Ġ\ ;
L e
200 7
] ;
h ib
r ast
Ġro t
th ing
a it
n orm
ac ed
A pp
Ġcon c
av es
Ġat tack
Ġwork s
Ġun ique
" );
F rom
Ġincre ase
ri ed
W h
Ġn am
ne ction
ar c
}} _{
l or
ort un
clus ion
Ġt itle
text tt
l ist
ĠC al
n ormal
Ġg round
ĠSt ates
Ġf oot
ener al
Ġcol or
Ġ$\ {
The re
Ġm akes
Ġd ays
A D
ĠY ork
u cle
The ta
Ġso ft
l ink
b ound
Ġchang es
Ġen vironment
Ġveloc ity
htt p
Ġch all
b ook
u ff
8 5
ar ies
Ġ/ **
it ude
Ġcommun ity
Ġr ather
C D
Ġe igen
Ġmax imum
Ġv ir
A d
ad a
Ġw rite
Ġ ir
) ,\
I R
Ġne ighb
Ġcomp os
de ed
st er
Ġcre ate
< \
Ġp erm
Ġdire ction
pro d
Ġsign al
Ġbre ak
Ġplay ers
Ġlit tle
d i
Ġs ocial
Ġpol it
Ġf ive
min us
Ġse arch
un g
ist ics
O S
text rm
Ġprovid es
Ġal most
rr or
yn omial
au ge
big g
subset eq
p ers
Ġhal f
Ġdevelop ment
Ġcontinu ous
Ġbuil ding
Ġdem on
ĠSt ate
Ġar ch
Ġim pact
k et
Ġg re
ic ult
oun ter
Ġrespon se
f act
) |
Ġ$ |
Ġ Ð
i ol
ĠN ote
ĠA ust
Ġdetail s
Ġa way
ĠA rt
200 6
al le
Ġre fer
al y
ta ge
verg ence
A t
ĠA pr
b re
Ġf ile
eth ing
Ġadd ress
} '
ric es
Ġrat io
Ġcol umn
} /
Ġquest ion
Ġp rior
om an
il i
Ġapp lied
ul ated
Ġde cre
o cal
Ġrequ est
Ġgovern ment
cre t
footnot e
ĠS chool
Ġdet ect
ce ed
g ing
9 8
Ġwrit ten
A ll
pt ions
ra in
Ġag re
9 7
I ON
l ong
4 6
Ġ Â
Ġp ast
Ġcho ice
ĠR eg
Ġclos ed
Ġge om
al t
^{ -\
ic it
Ġsc en
Ġinst ead
ul ly
Ġphys ical
Ġth ough
p ng
Ġprodu ction
Ġ ver
Ġpop ulation
Ġg en
N ew
Ġam ount
, "
cur ity
d o
il it
ĠM arch
i ps
Ġu pper
Ġas k
c ript
H E
ĠN e
}} ,
Ġh or
Ġp ubl
Ġdirect ly
Ġt aking
c an
Ġproblem s
a ff
ĠO b
b ody
4 2
Ġbehav ior
Ġcomp et
Ġst ory
ĠP art
Ob ject
Ġh ol
ess ion
l n
l a
set minus
ĠĠĠ Ċ
Ġc ity
Ġfrequ ency
ur l
ĠQ u
O T
er al
{ $
Ġt w
o plus
n ers
Ex ception
Q u
Ġallow s
se mb
Ġhist ory
d ist
line width
el ine
Ġp ack
Ġreport ed
Ġcent ral
\ '
Ġsmall er
G et
ell ing
an ced
ict ion
l ength
ta int
ĠEuro pe
ĠS outh
Ġ( $\
ite ct
on y
Ġdatas et
_ +
Ġs ite
ish ing
dag ger
ĠS im
erv ice
nd er
Ġs ent
Ġno ise
an a
Ġa ge
ra ft
M S
s up
f lo
Ġm illion
ĠI nt
ight s
ĠG a
==== ====
Ġit er
u racy
ĠC ity
ĠA g
U S
Ġin equ
ĠM od
er a
Ġ( -
Ġincre asing
P E
ĠO ur
il le
\ }
ĠCh rist
Ġcour se
Ġbecom es
Ġcorre ct
Ġwor ds
Ġt ask
Ġfl ux
Ġequival ent
N ote
Ġcrit ical
pert y
Ġrel ative
ĠCount y
Ġindu st
ĠC he
Ġelect ron
L O
Ġsm ooth
Ġchild ren
Ġon ce
5 7
Ġcount ry
Ġstud ies
Ġdiff icult
Cl ass
pt ember
ot ic
20 00
Ġ// /
Ġemb ed
at form
Ġpro p
Ġwork ing
Ġg ot
s pec
T est
Ġpro ced
Ġ$ [
ĠA fter
Ġnew s
St ate
Ġc ustom
ens ions
Ġcomple t
sub figure
t ical
amil ton
ire ct
ce mber
Ġt able
le ge
us ion
Ġro b
ot a
w edge
um ents
du c
Ġact iv
Ġexper ience
Ġw omen
Ġder iv
ĠM ark
Ġa ir
im ate
Ġinteg ral
ĠF rom
Ġg rad
kn own
" )
om s
re t
Ġobject s
F T
ĉĉĉĉ ĉ
Ġent ire
Ġpol ynomial
_ *
ĠSt ring
Ġme et
9 6
ĠW ar
4 3
Ġform er
_{ (
Ġun cer
Ġad j
Ġde ath
Ġb ody
A A
att ice
8 8
Ġlead ing
ĠP r
Ġdemon str
Ġoper ators
Ġdeterm ined
en ing
un c
h am
row s
Ġn ucle
Ġobserv ations
g ress
P T
j ection
pon ent
and id
m ar
ur g
Ġinter action
Ġth ings
ograph y
ĠM c
Ġlink s
ove mber
Ġt akes
E E
W hat
$ _
row n
e le
us ing
Ġnum bers
ĠS ci
Ġtyp es
s el
Ġs ix
Ġsom ething
I G
Ġex ec
V iew
Ġf ri
Ġd raw
j s
ĠW ill
one y
Ġsu fficient
" ;
x y
E n
ĠFe b
Ġdiag ram
d et
le vel
Ġto ol
ĠR ep
ab s
t urb
m ing
i ke
as hed
Ġwh y
Ġinclud ed
h a
Ġs ources
Ġt rack
Ġsymm etry
Ġapp ly
Ġconst ruction
Ġyou ng
Ġcompa ct
Ġ$ -
Ġother s
B e
U T
a int
ĠH ere
Ġan g
v ant
ans ion
che ck
ma g
ĠJ une
O r
ĠIn tern
ĠL a
Ġl ot
Ġocc ur
Ð ¾
ĠApr il
200 5
I s
ag er
Ġpat tern
Ġhe nce
align ed
v is
Ġh ost
Ġcur ve
Ġfe el
le ase
Ġexp ression
Ġd iv
Ġconn ected
os en
B ut
Ġin fin
Ġs amples
5 8
Ġform ula
A G
Ġbound ed
}) ;
Ġs ense
at ory
Ġj o
Ġ\ (
Ġlik ely
Ġsub ject
ĠĠĠĠĠĠĠĠ ĠĠ
Ġstud ents
Ġun iform
at ives
Ġl at
Ġreg ions
ign ed
Ġst yle
Ġv ideo
Ġon line
ĠA f
Ġg auge
ĠN orth
p an
Ġ! =
W hen
U R
Ġperform ed
)\ ,
and s
B l
Ġg ames
Ġserv ices
ic ation
M L
ĠB o
Ġr ank
Ġvert ex
ar ily
g ra
ĠP ar
ag ue
r ate
ar ing
ch ange
is es
O ne
p ublic
id ed
Ġa x
Ġgra v
Ġhy per
5 6
enc ies
F F
ĠF irst
4 1
Ġlay er
Ġvari able
Ġdiscuss ed
it es
Ġ ess
col on
id s
her s
alle l
( ).
b um
Ġapproxim ation
_{ -
oll ary
ĠĠĠĠĠĠĠĠ ĠĠĠĠ
Ġcent er
ĠM on
` `
Ġexperim ents
= {
. _
Ġm iss
n av
Ġl anguage
ure d
Ġpartic les
idd le
Ġb ar
Ð °
Ġpartic le
N ot
ell ar
Ġintrodu ced
200 4
ĠPro position
ill s
ĠAug ust
Ġem ission
ĠE d
"> </
bl ack
e in
Ġdynam ics
_{ {\
ĠA b
Ġper turb
Ġexpl icit
7 7
ĠJ uly
ĠOct ober
a e
Ġm ult
Ġch annel
}} (\
in os
p ack
ag ing
Ġapplic ation
ĠSe ptember
Ġfram ework
Ġc ult
ove red
ĠT ra
ari o
Ġm ention
defin ition
Ġdom in
" .
Ġsub set
Ġ| \
ma il
E rror
ĠC ont
ma in
ĠD ep
\! \!
b ul
= (
end er
Ġopt imal
Ġgalax ies
our nal
em ic
Ġneed ed
r un
ve y
ĠDe cember
. )
Ġde ep
Ð µ
Ġpe ak
ic les
) }(
ĠH ar
er ies
Ġill ust
Ġpol icy
lim its
o ps
.. ..
. </
ĠD is
Ġto ok
5 00
Ġneed s
N ow
Ġy et
Ġv an
Ġreg ard
Ġneg ative
Ġthe rm
Ġmed ia
riv ial
ri er
err or
o res
Ġb ring
h and
Ġb ir
Ġsh all
av y
ĠN ovember
dition al
Ġbro ad
T ime
N et
' _
da pt
Ġcoupl ing
Ġb ran
Ġmod e
Ġe conom
() );
Ġar ray
) /
Ġcom es
Ġm er
ĠE l
ĠB ar
Ġpl ot
ĠP er
p c
Ġus ers
ĠS ystem
k ing
cre te
O ur
Ġsim ply
Ġadd ed
Ġinfl u
Ġinter val
Ġed uc
Ġm en
Ġpartic ip
od ing
Ġcon duct
ĠP a
H ere
ĠN ot
Ġn odes
Ġp ref
Ġin c
in put
Ġuncer taint
Ġwho le
Ġacc uracy
Ġp arent
p aramet
ric e
at us
Ġsp at
Ġch ain
I m
rop y
ĠD o
Ġs ong
empt y
Ġqu ality
) {\
or ds
' \
T r
) _{
n ov
S P
Ġj ob
Ġm aps
b t
Ġresult ing
S C
end ix
d eg
ym pt
Ġar bit
i ation
ĠG o
M an
ens ive
in v
f ect
Ġd ri
ĠW hat
m ulti
Ġsatisf ies
Ġb it
Ġth ought
ru ary
Ġsche me
Ġnumer ical
et ic
Ġh ouse
Ġmechan ism
text sc
Ġlit er
Ġstre ng
) ^{\
Ġcompar ison
ffic ients
Ġmoment um
Ġmeasure d
ir l
Ġmag n
ĠP res
Ġspe ed
ser ve
Ġben ef
pec ially
,\ ,
Ġ }\
ĠI I
Ġinterest ing
Ġnecess ary
T R
qu ot
Ġm ix
ran ge
l ish
Ġm ar
Ġclass ical
av or
Ġf ace
R equ
Ġd ig
B C
ur ch
li er
K ey
Ġeas y
M A
Ġt ree
Ġca pt
f low
us er
ĠT rans
Ġcomp an
Ġknow ledge
Ġus es
ber g
E qu
Ġspect ral
ac ity
Ġrespon s
Ġ ensure
Ġo p
Ġam plit
lo cal
rib ute
Ġlead s
as ks
{ $\
Ġtrans fer
Ġl ove
Ġrad ius
Ġdec ay
Ġs eg
Ġcho ose
sub subsection
Ġh yp
Ġdevelop ed
Ġsim ulations
Ġinter pre
Ġc andid
6 9
ic on
Ġgo al
ĠB rit
Ġd ocument
Ġh old
st ack
c ame
Ġass ert
ber t
Ġmot ion
O ver
Ġcontrib ution
w ord
! --
Ġde al
Ġch arge
S im
Ġpol ar
Ġ+ \
ĠH ence
Ġmin imum
Ġinclud es
qu e
Ġlevel s
ĠG l
er c
app ing
M C
Ġman if
am ent
Ġact ually
y ear
Ġp ers
Ġmin im
for all
Ġits elf
ĠT r
Ġrec ogn
Ġc os
: \
or ing
M ore
il arly
Ġgrow th
Ġclass es
Ġclust er
ĠNew s
Ġaut om
ĠG erm
he l
z z
P C
Ġnetwork s
ĠV al
r s
Â ł
sum mary
$ (
5 9
ĠM y
v ision
}$ -
~ $\
ĠH amilton
Ġf all
Ġv iol
= -
Ġcre ated
Ġrem ov
IN G
Y ou
in y
Ġd ark
Ġbe came
Ġre ference
S O
) ^{-
k y
oc ol
Ġb ox
ĠAust ral
Fig ure
v olution
Ġk in
Ġs ound
Ġvert ices
Ġpart s
le g
Ġal tern
Ġrece ived
5 2
ĠD i
Ġsim pl
200 3
ol ic
st o
ch o
Ġconsist ent
ĠRe f
t ual
E q
Ġ ?
ag s
it er
Ġf lo
Ġpan el
ĠP e
Ġcomp ute
Ġder ived
Ġc ame
^{ +
Ġpres ence
ag ed
Ġac cept
Ġre pl
ĠW est
ay er
Ġredu ced
Ġr isk
Ġto day
Ġcorrespon d
Ġs ure
Ġch arg
7 8
d esc
Ġn orm
v an
d im
}^ *
Ġide a
n s
cc ording
Ġre ach
he ight
d ro
T ext
Ġd im
b and
ĠSt ud
F orm
Ġper cent
ou l
Ġprocess es
5 4
' :
ill ed
Ġa rm
Ġexp ress
u ed
ĠA ct
Ġp age
urther more
Ġcorrespon ds
Ġd est
Ġim p
T able
w ar
um b
Ġfact ors
Ġeas ily
bs ite
V ID
5 1
Ġinequ ality
Ġfor ce
Ġa ud
ĠMore over
Ġdet ection
ran g
Ġapplic ations
' );
col umn
Ġk ind
Ġstud ied
Ġexp ansion
ir m
c ases
Ġcon tact
ĠP ark
tr ue
Ġl attice
is ation
Ġassum ption
Ġn ov
H owever
und le
Ġarch itect
N o
ous ly
ĠN ow
C H
Ġdescrib e
Ġres id
../../ ../../
Ġes pecially
Ġcoe fficients
f il
em ents
new command
Ġf raction
ify ing
Ġconstraint s
ed u
Ġmeasure ments
Ġre ve
Ġcalcul ated
per p
Ġfor ward
S o
os ed
S U
ĠFeb ruary
en ed
ĠS an
s ol
ern el
Ġexperim ent
] (
Ġrema ins
u il
} %
Ġrest rict
Ġch osen
b in
bl ock
res ents
Ġrequ ires
Ġvol ume
G e
ĠD av
am a
Ġcon sequ
Ġstart ed
P R
F e
.~ (\
h ol
D F
Ð ¸
ĠS m
pm atrix
in ci
6 3
Ġproduct s
rem ark
Ġdou ble
Ġdeterm ine
Ġa dapt
Ġexperim ental
sim eq
h om
Ġb eg
\ "
o e
Ġed ges
iqu es
Ġsupport ed
if ier
pp ose
ĠA m
=" +
z ero
Ġan sw
Ġse lected
Ġse lect
Ġfig ure
\| _{
Ġs cre
uth ors
Ġsim ulation
Ġcorrel ation
5 3
el i
i ency
Ġf ront
D is
Ġ vers
Ġst ation
it ing
Ġloc ated
Ġiss ue
de red
Ġex amples
Ġpl ane
Ġins ide
$ ).
Ġim medi
T E
el er
Ġuse ful
re ed
Ġm ach
Ġproced ure
Ġqu ite
Ġav oid
Ġdis play
Ġscal ar
Ġf ully
ĠAf ric
' ]
Ġ ~
Ġprodu ced
Ġg ain
ons ider
Ġst age
Ġl ive
$ $\
Ġa im
at al
}} ^
Ġal bum
Ġstrateg y
s y
ĠWh ile
Ġr ates
[ '
( ),
)\ \
Ġw ord
Ġcon cept
M P
n eg
Ġiss ues
) }{\
Ġde com
ap an
u ra
Ġdistrib utions
Ġbuil t
Ġbu ild
Ġmem ber
Ġrele vant
Ġexact ly
min ist
Ġdef ault
Ġpro per
D ef
iz ations
ch ing
Ġsignificant ly
ĠH is
Ġs low
Ġarg ument
rodu ction
oun c
h y
in ct
Ġess ential
Ġs plit
Ġrele ased
Ġl ocation
F ile
200 2
Ġsh ape
| _{
Ġst eps
ob ject
Ġst ra
ub e
Ġon es
Ġe ver
Ġpat ients
Ġsu ff
ole an
Ġsh ift
Ġdepend s
Ġt ensor
con s
T rans
bul let
Ġsc atter
Ġhtt ps
Ġs w
Ġart icle
Ġd ual
Ġstructure s
Ġsuccess ful
f ree
6 2
O f
Ġcon sum
Ġopt ions
Ġs ampl
C E
og ene
p ri
n es
Ġlong er
ib rary
Ġto wards
Ġden otes
Ġhe ight
Ġpl atform
Ġatt empt
ma ge
Ġorig in
ell ow
ĠD ist
Ġrecent ly
t ik
ve x
m ission
Ġare as
}} ^{
defin ed
Ġn ight
8 7
Ġchall eng
Ġ&= &
Ġact ive
Ġsol id
Ġeff ort
il ib
i os
Ġtreat ment
Ġtechn ology
Ġ/ >
" :
Ġsp aces
E vent
Ġrep resents
val ues
Ġalgorithm s
Ġout side
Ġc ore
pp ort
con fig
} )$.
Ġatt ention
Ġcur ves
Ġeng ine
ram e
N S
Ġfram e
oun ced
Ġres olution
t em
Ġe mer
+ +
F irst
Ġp ie
Ġdesc ription
Ġst ream
c ase
Ġwh ite
$ ^{-
ond on
( (
Ġincre ases
I L
Ġinv ariant
P ath
is ions
rid ge
pl ate
Ġd riv
Ġb all
200 1
ĠH igh
Ġ= \
ot o
Ġext ract
Ġpubl ished
Ġconn ect
H ow
l t
Ġad opt
Ġor d
ĠB ro
ac ing
Ġpress ure
Ġintrodu ce
Ġmon ths
k er
Ġappro aches
Ġplay ed
p icture
anc ial
m es
Ġqu as
Ġc r
ĠK ing
S ub
Ġsh are
r ant
Ġhe ld
Ġbl ue
p ite
Ġcont roll
Ġm icro
ĠRes earch
Ġext ended
ĠH ow
i ber
Ġcol lection
Ġcont rast
ab ilities
The orem
Ġdid n
Ġstat ement
Ġf ood
ĠH ouse
T D
Ġsl ight
. $
Ġcontin ue
ĠHe alth
tik z
Ġcomput ed
Ġfoot ball
Ġn ature
Ġlim ited
d x
t ri
Ġl atter
it z
8 9
Ġident ity
Ġr ule
Ġst e
t es
Ġup on
val id
Ġdec ision
Ġrele ase
Ġm arg
us es
iz er
à ¤
)$ -
al g
Ġm essage
S ee
ac hed
Ġover all
Ġus ually
Ġd r
Ġoper ation
oci ety
sel ves
6 1
Ġev idence
a res
Ġinter n
Ġopp ortun
{ {
ĠCent er
ĠCh ar
& $
Ġn ational
ĠD es
Ġsy mbol
Ġan gle
u el
Ġ row
Ġestim ated
Ġcont ract
Ġdepend ence
Ġindust ry
map sto
ĠS et
Ġconfig uration
Ġw indow
Ġpop ular
Ġt ell
Th us
Requ est
Ġspat ial
m atrix
L S
Ġform ation
pro t
) _
00 00
u ations
it able
A dd
S p
Ġcomm it
ounc il
Ġfe ed
an ks
Ġmem ory
r atic
ri ef
Ġse lection
Ġrun ning
Ġse em
n ext
Ġsing ular
ist ory
Ġsymm etric
Ġspect ra
hes is
g raph
Ex ternal
ĠĠĠĠĠĠĠĠĠĠĠĠĠĠĠĠ ĠĠĠĠĠĠĠĠĠĠĠ
ex ample
pr int
Ġestim ates
resh old
m c
Ġ- ->
Ġm is
in f
Ġcon nection
O D
Ġspec ies
N ode
Ġlo ad
Ġstart ing
Ġmod es
pro b
\ _
ĠGa ussian
Ġdoes n
M M
Ġpro te
Ġs us
Ġestabl ished
ilib ri
Ġse ems
v ol
9 3
Ġf ast
f ord
o on
Ġ );
art ment
ar p
Ġqu ick
N D
Ġconc ern
Ġt alk
Ġappro pri
he st
s pect
re es
Ġmat rices
display style
Ġc ry
b on
b a
Ġlook ing
I P
ĠH er
Ġas ympt
r ide
od ot
Ġl ate
Ġ ...
ĠEng lish
ie f
b ase
ĠI m
stit ute
re w
Ġbeh ind
ar a
h ift
Ġp ick
[ ]
ĠIntern ational
Ġ },
M e
Ġplay er
Ġth ing
Ġcateg ory
N R
9 4
et urn
Ġt ax
ition s
Ġex hib
Ñ Ĥ
omorph ic
Ġhor iz
ul s
res ult
Ġachie ve
Ġw ent
Ġinter actions
Ind ex
' (
ĠAmeric a
Ġerr ors
A fter
Ġy ields
Ġd ate
c r
ap ter
Ġex am
_ -
Ġst ri
Ġallow ed
Ġtrans port
idd en
Ġse curity
I F
ing u
Ġarbit rary
Ġprop ag
ĠCom p
b old
O ut
i et
Ġbel ong
Ġinter nal
$ ;
Ġthe ore
ĠInd ia
Ġ$ $
cl es
f it
Ġe y
Ġex cept
Ġen h
Ġal ign
es e
Ġperson al
Ġcompan ies
pro position
ef ore
Ġto wn
R eg
Ġoffic ial
Ġprof ile
over y
m d
ag raph
m ethod
Ġdis k
Ġim m
C o
Ġeffic ient
Ġcompa re
Ġcon vergence
\ {\
com ple
) },
Ġexist ing
ĠM ich
t itle
e es
C S
Ġmon th
Ġst able
Ġla un
Ġexist ence
' }
Ġm ole
g u
cur rent
ames pace
Ġf ix
Ġext ension
od er
Ġcirc le
Ġst ellar
ist ry
Ġpair s
ĠPres ident
Ġclass ification
Ġsit uation
Ġembed ding
Ġrema in
ĠG et
Ġh ot
hi ps
Ġal though
E nd
ĠP o
c ular
In st
pt y
Ġredu ce
Ġh ours
ĠH ol
amp ions
Ġoper ations
## ##
Ġ ]
o ke
ut ive
A b
Ġm oney
Ġdesign ed
Ġbe am
Ġtra vel
Ġw alk
Ġbas ic
r d
ĠW ork
Ġaff ect
ĠA ng
g ener
Ġqu ad
r at
Ġob serve
Ġform s
Ð ½
m ma
7 2
Ġvis ual
Ġwe bsite
in i
c ref
Ġcons ists
B ar
Ġprim ary
Ġtrans formation
ar ant
Ġro und
/ **
Ġlarg est
/ *
Ġagre ement
ĠL ondon
9 2
re c
In fo
$ ~
os ing
pon ential
() )
Ġappe ars
ĠJ apan
Ġb ul
P I
' re
Ġident ified
Ġprodu ce
N ext
Ġdiscuss ion
Ġvis it
Ġa uthors
Ġr ules
C L
Ġde cl
act ive
The se
Ġcol lect
ĠS w
ob ile
3 00
v oid
Con text
the n
pa ign
Ġcos m
Ġor b
Ġexp and
g t
Ġgener ate
ap i
or age
d ate
O M
st art
Ġstra ight
S M
Ġm orph
Ġb al
} &
min i
c d
ĠSci ence
re et
pro du
) +\
Ġext ra
S I
Ġanal og
el t
ĠA c
Ġper fect
ari ance
Ġto ld
now led
b ottom
Ġpr inci
Re f
Ġnam ed
o ph
Ġcomput ation
ark s
ter m
ilibri um
8 6
if ically
ch ar
om b
d en
Ġabs ol
ĠCol lege
Ġbeg an
EN T
Ġve h
}{ |
Ġbe y
Ġve ctors
Ġcontrib utions
Ġl ed
ut ing
ad es
Ġincre ased
Ġupd ate
Ġtechn iques
Ġmeasure ment
ĠHamilton ian
C P
ing ton
c ore
Ġcare er
et imes
Mod el
8 4
Ġpract ice
Ġbey ond
T e
ic ity
Ġsoft ware
ren ch
ĠP at
Ġdo ing
Ġrad io
p id
Ġsqu are
ĠBl ack
Ġhigh ly
ĠS ub
b i
ĠIn st
ĠCO VID
Ġ ;
Ġw ays
as ons
Ġcon cent
} }$.
//// ////
} }$,
Ġcom ing
} )$,
ĠD em
Ġshow ed
Ġfl at
Ġinvol ved
N e
I V
pl es
' ;
le te
k a
cont ent
Col or
Ġmeasure s
Ġin ner
Ġcell s
Ġpredict ion
ĠO f
ul ate
Ġmod ule
M ap
Ġqu al
E lement
am ental
a ught
Ġcurrent ly
) -\
se ud
ĠL aw
et ime
7 6
c ulation
ĠR em
AT E
Ġopt ical
A tt
Ġ Ã
Ġc ounter
In ter
}( {\
h bar
Ġcons erv
Ġthrough out
ĠG roup
Ġprof ess
d ed
Ġm id
es tern
om in
p g
Ġquest ions
Con fig
if orn
Ġsatisf y
Ġvari ety
Ġro ad
Ġliter ature
) }_{
Ġident ify
am ily
Ġche m
Ġnov el
Ġear lier
Ġcomplet ely
Ġinteg er
ĠA ir
att le
ri e
Ġcomb ination
yp es
h as
h an
Ġgener ally
Ġelect ric
mod ule
Ġmean ing
Ġmanag ement
Ġsc ore
ĠS pec
ĠAss oci
ant ic
h al
con n
Ġacc ur
Ġcoordin ates
Ġprevious ly
Ġgener ation
Ġb inary
Ġp ure
Ġag o
c ar
) --
sc ill
Ġdis e
Ġmain tain
Ġdifferent ial
w ell
H z
Ġbelie ve
}{ (
Ġrelations hip
Ġun its
ro t
p ir
Ġother wise
Ġmention ed
con g
Ar ray
Ġv s
c s
Ġre const
r ons
L P
ma z
ĠCl ass
Ġre comm
pro cess
for ce
Ñ Ģ
) )$
h ing
Ġtra in
Ġassum ed
Ã ¡
h box
Ġ ult
Ġsa f
Ġres on
ĠO ff
Ġabs or
~~ ~~
wit ter
m iss
m ass
Ġb ottom
S D
Ġgre ater
ir al
Ġh it
8 2
im age
bl ue
Ġoff er
iforn ia
o ption
is hes
ĠR ed
ĠE qu
" "
r ong
Ġt im
Ġmass es
Ġac qu
ĠIn ter
9 1
Ġoptim ization
Ġgalax y
v ille
Ġw ide
u it
Ġd ro
Ġex cit
ib ly
Ġscatter ing
Ġcle arly
a el
| -
Ġt asks
ak er
n y
Ġl ack
$ ),
re p
ĠL ist
Ġre pe
c her
ĠCh ina
ru g
Ġpolit ical
Ġform al
Ġpol y
def ault
ds hift
f irst
Ġ });
Ġre li
Ġ( !
ĠWill iam
mini page
Ġfil ter
Ġindu ced
er g
Ġ$ |\
H T
Ġass ess
fere nt
ĠDep artment
per im
}$ )
ist ical
f ont
c ount
ip al
E M
ĠBrit ish
ĠC our
ill ing
Ġo ption
P r
p at
ĠD ata
Ġadv an
in fo
st ract
[ (
Ġstreng th
: }
Ġinst all
Ġcon clude
ĠT V
Ġ util
ĠA rm
&= &
S ervice
Ġo scill
Ġnot ation
Ġgrad ient
Ġant i
ab ase
ar th
Ġj oint
it ely
ud es
ĠTe chn
Ġdist inct
C ode
ir ing
| |
Ġt rac
Ġhe art
Ġg rid
ilit ary
i en
Ġfollow ed
The refore
; &
ymm etric
ĠD r
Ġro ot
) }}
vent ion
op ic
ind ing
Ġde vi
Ġann ounced
k es
Ġact ivity
7 4
Re ad
8 3
Ġacc om
Ġget ting
7 3
y a
Ġet c
Int roduction
Ġ$ {
P re
f aces
Ġc red
Ġm es
Ġb ad
b urg
r ig
Ġreg ime
Ġw all
se ct
s ystem
ar se
ĠRep ublic
m ann
om ic
Ġw atch
Ġdev ice
n um
G L
Ġappropri ate
Ġobserv ation
ed eral
Ġhyp ot
Ġor ient
Ġide al
Ġp rice
ag ement
Ġth ick
ogene ous
Ġrepresent ed
Ġamplit ude
Ġmagn itude
ĠS ome
Ġdep th
199 9
Ġreve al
ĠG reen
u i
Ġhist or
Ġf ight
Ġ\ !
o o
ay out
Ġgraph s
E d
Ġcon ver
Ġrel atively
ab il
Ġmin imal
m en
It em
Ġdetail ed
Ġcontain ing
Ġth reshold
Ġrema ining
ta g
Ġte le
Ġdiffere nces
Ġseg ment
U N
it i
S ize
Ġs rc
ri z
Ġc ru
ĠS at
Ġl ost
Ġr ing
Ġl um
Ġbehav i
Ġhig hest
wit ch
Ġv ary
ĠĠĠĠĠĠĠĠ ĠĠĠĠĠĠ
ĠU K
7 9
G B
er ve
Ġredu ction
st ream
k in
ĠF in
Ġv ac
less sim
act ers
cre ate
if ferent
Ġsub sequ
Ġslight ly
ĠB ay
F ield
C he
L og
ĠF inally
D A
Ġ ener
ĠO ther
wo od
s ur
an i
Ġab ility
Ġhtt p
Ġ â
not her
Ġlay ers
u ge
rum p
m as
st ant
l ang
Ġro om
Ġsy n
j oy
Ġcalcul ations
di ag
- $
hen omen
pa rent
Ġneighb or
en ge
Ġk ernel
ĠM ag
st atic
199 8
al ysis
ĠComm un
=" ../../../../
reed om
Ġdatas ets
Ġst rict
cc cc
Ġtherm al
Ġright s
Ġlead ers
Ġ ri
ĠF ound
Ġs il
et al
Ġres ources
Ġc ov
ĠAl so
su per
ric k
ĠI N
ĠM a
land s
Ġt or
] }
F inally
ĠEurope an
,\ \
Ġg reen
Ġwrit ing
Ġs ex
Ġf em
Ġ[ \
Ġ{ $
fin ition
8 1
Ġparticular ly
$ };
it ivity
ic o
Ġca use
Ġc opy
Ġbound s
Ġintern ational
ect or
Ġcal culation
ĠSt reet
ĠP re
ic a
Ġlo op
Ġtheore tical
M R
ĠS en
c f
Ġd am
def ine
pa re
Ġprov ed
pt o
ollow ing
ra b
Ġax is
Ġconsider ing
Ñ ģ
ĠF l
flo or
Ġ/ *
Ġpart ition
ĠO ut
t frac
Ġtra ject
ĠCal ifornia
Ġex ternal
\ )
F il
}\ ,\
P P
abl ed
Ġin cor
Ġeffic iency
Ġunderstand ing
Ġcy cle
Ġeduc ation
Ġstrong ly
^* $
ass ert
T H
Ġpar allel
Ġm ind
Ġpart y
G C
k i
or ge
Ġtest ing
ro s
Ġf air
yn c
her n
re ct
ann els
Ġun ivers
at ically
******** ********
con text
on ical
ith ub
ĠV ir
b el
Ġres ol
Ġhe avy
Ġfunction al
ot al
ĠM or
Ġg ap
ĠJ ust
w rit
> &
Ġas pect
7 1
ĠT est
ri an
Ġp ix
ĠG overn
Ġf ire
N A
Ġb right
Ġuncertaint y
Ġflu ct
P ol
ĠA nt
d y
ĠD ay
M ethod
Ġex ponential
in ner
id a
P er
Ġeval uation
Ġh arm
Ġc ard
Ġwor th
Ġcomplex ity
ĠDe f
ap ache
E C
en ame
S c
ĠDav id
g n
Ġh ole
Ġdecom position
Ġor th
ĠU sing
Ġfin ancial
rib ution
Ġex pert
Ġclust ers
( {
Wh ile
Ġin j
Ġb order
Ġit em
F L
b ed
Ġy ield
bo ard
Ġmach ine
T hat
Ġgo es
Ġindic ates
ĠIn stitute
res ults
ell i
v ised
ĠH ig
p ost
ĠG od
Ġep is
iv il
Ġass ist
U sing
Ġpart ial
Ġthem selves
M D
Ġh ope
ĠSe e
n ed
ĠLe ague
ad o
ĠPa ul
ĠS ur
Ġpr int
] $.
Ġinterpre t
Ġdim ensions
ĠSt e
ĠInd ian
E nt
Ġprob ably
Ġtem por
de v
Ġexp ressed
Ġt un
d frac
\ }$.
pect ed
$ :
Ġtra ined
Ġag ent
com ing
4 00
Ġl if
Ġtrans l
Ġpro port
Ġgu arant
re al
H and
Ġmass ive
olog ies
Ġfin ally
Ġh on
g ies
Ġob vious
Ġcount ries
1 000
Ġcl ub
Ġle mma
: =
}} _{\
we ight
Ġimplement ation
te e
ig ation
Ġestabl ish
ĠF urthermore
t x
c ss
ar ter
Ġden oted
L T
Ġcrit er
Ġcam paign
S pec
Ġhy dro
AS S
, {\
Ġtyp ical
Ġscen ario
Ġdistrib uted
Ġco ol
Ġsatisf ying
Ġ rac
Ġfri end
Ġl iving
ve ctor
Ġst ay
Ġb rand
Ġscal ing
str ong
Ġimmedi ately
Ġst aff
Ġrob ust
h ost
Ġfund amental
math op
Ġweight s
= '
Ġestim ation
Ġa ctions
d b
con tain
osp ital
P art
riv acy
id ing
ĠS T
Ġinfin ite
B ox
Ġcom ment
Ġso on
Ġdig ital
d l
wh ile
Ġask ed
om etric
mit ted
Ġon to
am s
M essage
ĠM at
Ġre place
al gorithm
Ġang ular
. ;
d at
Ġm ut
Ġst op
O P
C A
ĠG eneral
in u
pon se
Ġconstruct ed
Ġcon vex
Ġnot hing
Ġm or
Ġact ual
Ġapproxim ately
Ġneut r
ĠE ast
Ġre dshift
Ġscal es
Ġex c
.. .,
Ġdis crete
Ġpur pose
Ġcoe fficient
] $,
F A
Ġpro gress
rel ated
,\ ,\
Ġinflu ence
Ġim ag
if ies
ĠE ach
Ġstat us
U ser
s qu
an o
Ġsol ve
, $
use um
ĠCan ada
Ġmod ern
for ward
S L
Ġcomb ined
Ġne arly
b ug
ĠB ook
bra ce
L ine
Ġp en
Ġsur v
ĠĠĠĠĠĠĠĠĠĠĠĠĠĠĠĠ Ġ
) )\
Ġrot ation
ail y
C R
s at
ĠP ort
ve e
g ithub
Ġv ict
Ġs on
Ġf ine
Ġs n
Ġ\ (\
s he
Ġp henomen
j o
ers ion
Ġinter face
el es
C or
Ġ= ==
lo od
j ava
Ġmov ing
Ġt en
Ġget s
ĠC ouncil
Ġres ource
he mat
d es
Ġchar acters
Ġext rem
Ġfil ms
g a
Ð¾ Ð
as er
Ġwork ed
Ġindic ate
Ġmin utes
ro y
}[ \
ĠP al
ĉĉ Ċ
}_{ -
g r
i ant
}} )
Ġrun s
f s
u fact
w in
ĠB en
ĠC E
b as
Ġevalu ate
on ly
Ġv ill
ar r
D B
ur rent
ĠS ol
empty set
ok en
Ġb ur
and er
ot ing
Ġref lect
Ġle ave
199 6
Ġent ropy
Ġj ava
pack age
\ ;
C all
Ġpres ident
Ġe ight
ic ense
D esc
re me
Ġ ign
ch ang
on a
Ġse ctions
-- -
i verse
Ġsp read
Ġs aw
Ġcalcul ate
big l
Ġpro jection
Ġfam il
ra z
Ġne ural
Ġse ctor
clus ions
Ġoff ice
Ġ( )
Ġacc eler
Ġmulti plic
pa ir
ĠL ie
un t
Ġhe at
P e
199 7
st ruct
ĠF rench
s uch
Ġgeom etry
v art
Ġachie ved
pos es
B S
Ġcap acity
Ġtyp ically
p ass
ash ington
Ġf avor
b orn
Ġ\ ]
Ġ ^{
ser ver
Ġ} ;
Ġgrav it
Ġv o
an cy
Ġlim its
Ġdem and
Ġan im
A meric
| }{
C ount
S ection
Ġsc ient
Ġad minist
he ta
Ġw ait
t wo
Ġrepresent ations
ĠM al
j oint
Ġass ign
Ġshow ing
ĠAs sum
Ġra pid
Ġbegin ning
n el
Ġ ion
tikz picture
ĠC re
ĠS M
Ġsc ience
un s
Ġf ather
bre ak
st ra
so ft
il s
ĠB el
Ġpol ice
Ġplay ing
Ġprovid ing
Ġvir tual
ck nowled
ĠTh om
Ġn il
Ġopp os
de c
ĠK e
ir it
m i
O L
Ġb rief
big r
Ġcommun ication
Ġen joy
ĠL ag
Ġsy nt
Ġth row
st ep
un ds
ĠPro gram
v a
li ent
Ġgra du
Ġarchitect ure
Pro perty
e ks
Ġro ck
Ġqu e
y r
Ġphys ics
B uil
ĠSu per
Ġsampl ing
Ġcoll abor
Ġtre nd
x x
Ġ$ .
S R
$ _{
Ġcent ury
Ġevery thing
ont al
Ġre call
ĠS eries
Ġsem i
un k
ĠH all
r l
et her
}} .
v ature
f alse
Ġfamil ies
Ġis omorphism
Ġspec ified
Ġsur pr
int eg
) })
n ull
Ġdepend ing
we b
Ġc ele
E L
Ġcontain ed
i ota
ial og
op en
D M
sh ip
e ch
Ġtra ditional
Ġg irl
p o
le ar
Ġany thing
long rightarrow
Ġp ull
Ġm iddle
se arch
av el
P U
Ġst ruct
ĠT rump
v est
ĠJ ames
par agraph
Ġb in
ĠAustral ia
Ġcl oud
Ġm other
bm atrix
Ġo dd
ot ion
Ġs ort
Ġa ward
go ogle
e vent
Ġus ual
Ġcoordin ate
ĠS y
Ġir re
ĠF il
Ġansw er
Ġim plic
Ġgiv ing
a a
g est
Ġconst it
Com m
Ġequ ilibrium
l ig
Ġoff ers
i h
Ġsum mar
Ġaltern ative
ro te
ĠC ap
oun tain
Ġhigh light
Ġr ise
] {\
Ġsufficient ly
Ġd ust
P A
ru pt
ĠDist rict
here nt
ff er
a ur
Ġf erm
un it
t iny
$ {\
Ġv acc
ĠAl though
ĠSe c
Ġmax im
Ġhim self
ĠMod el
Ġsit es
I mage
Ġapp lying
ri al
Ġtechn ique
Ġst ress
ĠEng land
Ġnot ed
v ari
}} }\
F R
in clude
ĠApp endix
con dition
Ġtry ing
ĠC a
Ġst ability
Ġconf ir
O C
= .
g rad
em y
Ġsh ared
ynam ic
S ch
form al
Ã ³
n umber
ĠP ost
C re
Ġk m
Ġde part
c uss
B A
Ġm apping
}) }
d oc
Ġ ut
ĉĉĉĉ ĉĉ
d ir
ĠA re
ĠRe view
S ystem
Ġvari ation
\ |\
Ġtra de
Ġin verse
Ġcle an
=" ../
n am
Ġt ro
Ġprot ocol
Ġocc urs
Ġ ^
ĠG al
sc he
F C
R ight
ĠE m
Ġfor ces
al gebra
is ely
Ġ_ _
h aps
Ġb orn
Ġstat istical
sl ant
)-- (
a fter
Ġg ave
ĠW il
Ġform ed
Ġmed ical
och astic
Ġpre vent
Ġb os
column width
Ġteam s
Ġc m
A ss
ock s
Ġlat est
ĠPl an
Ġread ing
k l
ach ing
Ġinteg ration
Ġin deed
Ġa mb
Ex t
uss ia
Ġbo ard
ĠL i
Ġqu ery
] )
ĠS ing
pro duct
b ran
ĠY ear
D o
ĠC L
Ġpredict ed
ĠD an
A V
Ġch annels
Ġd u
form s
Ġpres erv
Ġwhere as
ĠIn c
Ġd ivid
=" #
Ġp seud
Ġex change
Res ult
ĠO ver
Ġposition s
Ġj ud
vart heta
;\ ;\
ĠB er
Ġinterest ed
ĠL eg
pl an
---------------- ----------------
I A
Ġlum inos
i ers
ĠM art
199 5
F l
Ġ\ &
ĠI R
Ġca used
z a
R el
Ġcon j
][ ]{
Ġassum ptions
U LL
as c
Ġarg uments
ĠO F
Ġdist rict
E X
rib utes
r or
Ġdev ices
Ġbe aut
g reg
Ġdise ase
Ġcharacter istic
Ġunder lying
Ġent ry
Ġdet ected
Ġocc up
}) =
Ġtool s
ag o
multi row
Man ager
Ġchang ed
ĠO pen
lic ation
Ġdeg rees
ober t
ER T
Ġde ad
s ign
Ġh um
and roid
roll er
Ġprogram s
l ies
it t
[ -
Ġor bit
pert ies
Ġdynam ic
Ġw oman
D P
Ġvert ical
Ġwant ed
Ġtest s
Ġmax imal
ĠC up
L emma
}$ }
Ġcandid ate
Ġmot iv
n amespace
pos s
od ed
Ġe mail
Ġcomput er
F act
Ġra ce
script size
con f
) }_
t arget
Ġmanif old
he tic
Ġcon ven
set s
R em
ĠS um
ran k
ph ant
Ġquick ly
Ġp icture
Ġsur vey
Ġrad iation
Ġdes ired
it a
Ġpredict ions
Ġnam ely
Ġfind ing
}} ^{\
sk i
Ġun known
tt y
Ġpro ceed
Ġelect ro
ymm etry
cal led
ĠB est
ens ities
semb ly
Ġc ast
g an
Ġth reat
ĠWh ite
Ġf a
Ġprinci ple
ĠV ol
Ġto ur
ines e
15 0
\ }$,
Ġobject ive
figure s
ch ild
Ġdiag onal
b rid
Ġst ated
Ġcar ry
in ated
se y
br as
u a
^{ *
Ġsome one
ĠU nder
k m
ib r
Ġmov ed
script style
b al
Ġsepar ate
pa red
ĠRe ad
it ative
ĠT ime
Ġgr ant
Ġbi as
c ial
Ġcom pl
ĠGo ogle
Ġe q
ateg ory
Pro of
Ġpro pose
Ġener gies
| }
il er
Ġsaf ety
ific ations
Ġn orth
Ġmod ul
Ġconsequ ence
Ġcomm and
Ġform at
ex as
Ġmaterial s
Ġindividual s
ĠY our
Ġnucle ar
ann ed
In put
Ġit ems
Ġcl in
Ġdire ctor
Ġsol ar
av en
Ġconst ants
Ġext ends
Ġf reedom
Ġwe b
199 0
' m
ĠIn deed
Ġexplain ed
H S
mod els
Ġthan k
X i
< !--
ĠG ra
ĠD ire
Ġactiv ities
w rite
ma ke
Ġaccur ate
Ġreturn ed
Ġnot ice
Ġcl ient
Ġt er
Ġnon linear
Ġrece ive
Ġadvan tage
le ctions
ĠP ublic
ph ys
A ct
Ġprot ect
Ġn ames
Ġqu ark
Ġcomput ational
y les
Ġad ding
Ġ }{
st ructure
Ġleg al
Ġatt ract
st on
d iff
Ġplan et
C M
l s
ĠA ccording
Ġrem ark
Ġasympt otic
Ġproject s
Ġm ess
Ġrem ove
ĠJ ack
ĠCour t
ature s
Ġpart ners
form ed
ner gy
A ut
f unc
Ġabsol ute
pl ot
ĠM o
Ġmod ified
Ġl ives
ĠW ashington
r ical
Ġext end
Ġserv ed
Ex p
Ġis n
i ra
st able
Ã Ń
ge bras
Ġmiss ing
ĠR ich
; </
Ġwe eks
ang er
Ġstud ent
}) ^
st ein
Ġfri ends
duc ation
Ġt rivial
cal e
it ch
ĠD on
U E
ting s
G roup
ust er
T ra
Ġlocal ly
ĠAssoci ation
/ (
Ġcost s
ĠR ad
Ġimport ance
Ġprocess ing
Ġbook s
Ġsy m
Ġpur ch
ĠF orm
T S
Ġco inc
H ence
ul ed
Ġd ied
\ }\
ĠM r
ed s
& =\
Ġmorph ism
ĠS un
1 20
Ġinvestig ate
ĠP ress
ou rier
Ġevery one
Ġst ore
( [
Ġderiv ative
ĠAn n
math it
} |\
c at
C an
erv ices
ĠFound ation
ĠĠĠĠĠĠĠĠĠĠĠĠĠĠĠĠ ĠĠĠĠĠĠĠĠĠĠĠĠĠĠĠ
D S
Ġpl ant
A p
Ġsetting s
par ison
S he
Ġre ached
Ġphot on
ill er
ĠAr ch
ater ial
Ġdist ingu
D C
l ap
ful ly
z er
g in
velop ment
Ġab und
math tt
ven ue
Ġro ugh
Ġpie ce
P L
M y
b ib
Ġand roid
om etry
ell ed
} ~
Ġimpro ved
ON T
Ġp ow
Ġh ar
og en
Ġev ol
Ġinst it
Ġcomput ing
ib ration
not ag
inc ipal
a o
ĠCh ampions
Ġchem ical
) </
pt on
e ctions
ĠGerm an
Ġder ive
paramet er
Ġr ang
Ġ( {\
Ġexplicit ly
ĠM ac
? âĢĿ
ad ow
ed ia
^{ (\
P ost
ĠR iver
m et
Ġlist ed
Ġc op
ĠN etwork
el ines
i as
ĠAfric a
Ġrepl aced
Ġw rote
ĠPh il
a ver
Ġn et
ĠDem oc
ou ther
m osp
med skip
ur ations
Ġcur vature
aw a
i ences
go ing
ĠT HE
m em
Ġ$ ,
Ġcult ure
ĠR ob
: =\
ĠS ervice
ad ding
Ġcar ried
Ġreturn s
ult ane
lo op
Ġm ilitary
Ġrequire ments
Ġse c
ou ra
Ġele ction
sl ash
pd ate
Ġneighbor hood
}\ |
Ġadj ust
Ġt al
eli hood
C onsider
Ġser ver
Ġex ception
> (
Ġcont rad
ri ve
text color
Ġse ven
Ġd rop
Ġgeneral ized
Ġvari ance
Ġw aves
S ource
Ġcour t
con ds
199 4
Ġrel ax
}} =
Ġcou ple
se lect
avel ength
Ġsu itable
Ġtr uth
Ġcap ital
+ (
ĠR el
Ġstat istics
Ġw ind
ĠD el
Ġcontinu ed
medi ate
ĠG old
Ġsuggest s
ĠM ax
Ġst d
Ġsatisf ied
n n
ic ated
' ve
Ġman ufact
ĠĠĠĠĠĠĠĠ Ċ
sh ow
u um
P oint
Ġpo or
Ġincor por
it ation
and emic
outher n
Ġprec isely
ou ble
pt ic
aut o
Res ponse
T T
om y
or ation
d r
Ġpattern s
ars er
Ġexpl ore
d f
Ġsom etimes
wh ite
ĠB usiness
atal og
ĠA lex
G iven
re y
desc ription
Ġeconom ic
Ġmeet ing
Ġcan onical
Ġb ank
Ġprofess ional
Ġis ol
Ġreport s
Ġbu y
qu ery
Ġm us
Americ an
Ġblock s
Ġbul k
mag netic
ig ger
Ġtop ological
l ines
Ġdis pers
et ries
Ġs outh
Ġem pty
Ġb ool
Ġsc ene
ell ig
Ġdynam ical
Ġinter view
anc ing
Ġmatch ing
in ations
ĠF ace
Ġprot ected
f ol
Ġn one
N E
i em
Qu ery
flo at
sub sec
om a
im g
Ġd imensional
act ic
B ack
Ġthe ories
ĠR oy
R A
d el
or ter
ĠM ost
ur t
\% $
Ġdel ay
ĠDe c
st ain
Ġquas i
ĠD iv
Ġcomple ted
if act
ĠT ype
in it
ject ive
ĠA ut
ax is
i able
ed y
Ġpl aces
Ġ- >
Ġinter section
ĠN ov
Ġdri ve
Ġremov ed
D ate
Ġrad ial
Ġsequ ences
ĠZ e
Ġn av
. /
j av
Ġfil es
C lient
Ġlabel s
rop ic
Ġ\ ,\
Ġopportun ity
ĠA ward
ot ype
ĠC ons
est s
L ast
O ff
ist or
ch mark
Ġgrav ity
Ġco ok
R ep
ul er
ĠS am
p y
Ġal one
l ib
rang ian
Ġsur round
ens us
ĠPro f
L a
Ġcom plic
Ch ar
v in
Ġmarg in
ver b
cl ose
ort hern
}{ *
Ġst ochastic
Ġf ol
Ġbro ught
Ġd ashed
Ġcompos ition
Over ride
ĠC ong
ere nce
row ser
Ġsim plic
b or
ĠComp any
r ich
Ġent er
Ġst ories
ri a
ing er
R I
est ival
h igh
More over
ĠM usic
Ġs al
e lement
ĠR oad
Su ppose
ĠMich ael
Ġint ensity
v s
ĠT wo
fin ished
ur ally
c el
Res ults
k o
en a
ol f
Ġturn ed
) ^\
Ġapproxim ate
ĠG r
pi red
im ages
Ġbehavi our
Ġlearn ed
Ġm ixed
ud get
pect ive
os is
Ġd oc
ĠR ussian
Ġtr ust
ĠFran ce
======== ========
Ġh ous
ĠI D
ro om
rid ay
ĠT exas
M in
che n
! \
ĠHig gs
Ġpl ans
il bert
Ġdi am
Ġpass ed
Ġaut o
St ream
ĠS uch
Ġmajor ity
ist ent
Ġ$\ {\
bold math
ĠP M
ob s
^* \
( -\
h old
ph as
ĠSe cond
The y
as y
T op
A ction
h ouse
Ġc atch
> \
il ed
lic k
ph p
F I
ash ion
t an
Ġimplement ed
Ġquant ities
ĠS al
Ġpl aced
l arge
Ġmov ie
l ock
A g
Ġw rong
Ġgrow ing
pre c
Ġhand le
ch ain
Ġo w
ĠD en
P os
ound s
199 3
\! \
Ġcl imate
b et
m n
Ġpl ays
Ã ¼
Ġj et
Ġ ,\
Ġser ious
ĠGe V
ult ure
ro sc
@ {
Ġcom ments
S A
Ġmain ly
Ġspe ak
ve ct
c ut
ĠE arth
Ġschool s
Ġf rag
Ġscre en
Ġj ournal
ch ron
eff ect
l aw
H ead
Ġa st
ĠCh urch
Ġchall enge
Ġre asons
it ar
l as
ĠJ ournal
re nce
N av
ic ate
. \\
equ ations
Ġluminos ity
is her
' ll
G o
t ree
Ġh idden
Ġevalu ated
ock et
os h
Ġhypot hesis
Ġdirect ed
Ġl ies
clus ive
og onal
ĠQ ue
ar ma
ill a
Ġin nov
P aramet
M ax
Ġst ack
ĠF ore
ĠS ociety
Ġun ion
Ġtechn ical
Ġmove ment
Ġequival ence
ĠCh inese
un ct
ap ers
ĠG iven
Ġsign als
N O
Ġag ents
Ġte ac
ĠM et
G ener
g eneral
Ġt end
Ġsay ing
ĠS U
ric ted
h l
Ġcateg ories
U til
Ġrecord ed
Ġpath s
Ġb undle
pro perty
199 2
un ch
! ]
Ġsu stain
Ġdeterm in
> >
fl u
Ġorgan ization
H el
ĠL ou
Ġres ist
St art
ĠM em
Ġs izes
iven ess
rib e
M B
de p
Ġro ll
b p
Ġcomp at
Ġmed ium
h fill
Ġmost ly
f i
Ġcustom ers
Ġt ail
Ġord ers
et te
Ġwork ers
h ang
Ġmin or
ĠĠĠĠĠĠĠĠĠĠĠĠĠĠĠĠĠĠĠĠĠĠĠĠĠĠĠĠĠĠĠĠ ĠĠĠĠĠĠĠĠĠĠĠĠĠĠĠĠĠĠĠĠĠĠĠĠĠĠĠĠĠĠĠĠ
ĠSt ar
Ġsh ock
ĠAc ad
R L
er ior
Ġchalleng es
Ġcommun ities
in du
Ġcorre ctions
Ġposs ibility
ĠT om
Ġc amp
we et
Ġlook s
c is
dition ally
Ġdetect or
le ad
ĠL y
ĠM us
ĠGe orge
circ le
fin al
Ġturn s
o om
Ġc at
Ġperturb ation
ree k
Ġp ain
cent ury
ur day
Ġanaly z
ro ad
P O
Re c
ĠE v
ĠPh ys
ou pl
Ġevent ually
Ġdec ided
ari os
Ġs end
duc ible
ĠB re
Ġmet al
Ġtemperature s
Buil der
ĠE ven
| ^{
t w
Ġeigen values
b ot
S F
ron ic
cl ine
ĠB i
Ġdemonstr ate
ve re
ad ian
Ġg old
opt ions
co pe
com es
il ing
Ġgener ic
Ġrespons ible
Ġfeed back
Ġr ational
Ġcam era
d em
ĠM er
H C
ĠU k
Ġbran ch
Ġ{ };
aram s
D ep
Ġcapt ure
Ġsh ot
ĠBe cause
Ġres erv
r as
Ġflu id
se cond
Ġfluct uations
ĠT witter
ĠB rown
Ġl ov
point s
Ġdescrib es
ĠL ife
ĠB oth
Ġassum ing
n ol
ĠA dd
Ġdes pite
ĠA G
ĠC am
Ġsim ultane
L i
id en
Ġcharg ed
Ġd aught
ic ies
Ġbir th
Ġact s
ĠP et
Ġinter act
Ġcon vert
Ġeffort s
Ġat mosp
Ġre produ
$\ \
iss on
Ġa w
cl ient
ii i
cl aim
Ġapp arent
f ort
Ġgravit ational
Ġan om
cor ollary
ier arch
ĠH el
Ġag ree
phant om
Ġpl us
Ġpower ful
Che ck
ĠE ducation
ĠL u
Ġre ct
ist an
Ġman ner
im ent
the re
Com ponent
a us
Ġsp ot
Ġtrans mission
Ġs en
Ġtra ce
but ton
1 10
ĠPro ject
A ccording
Ġstrateg ies
Ġdiag n
m om
P D
op es
pro v
c over
Ġloc ations
Ġexpl o
all ow
$. }
Ġd ot
C K
etail s
ĠS und
Ġb illion
pl ane
Ġfour th
ĠM ary
ĠM iss
Ġp ark
Ġd x
Ġregard ing
Ġappe ared
B uff
un finished
Ġto ward
Ġreg ist
O per
neg ative
ĠD uring
bu ild
$ {
M s
Ġtre es
ĠL and
is ot
Ġcele br
Ġread y
Ġqu arter
r ins
Ġide as
ĠA cc
ou nce
Ġrecomm end
12 8
B ase
ĠB ig
Ġp ush
ĠCar ol
A E
F unction
ĠM ad
ĠR obert
ĠSu ppose
Ġparent s
Ġconf idence
ĠS l
Ġsupp ose
ĠPart y
ĠH y
B O
Ġmix ing
ent y
Ġcoupl ed
ic ine
rel ation
Ġquant ity
im its
app end
Ġcandid ates
ĠThe ir
) (\
ad ata
ru ck
Ġband s
C al
D D
ĠJ ew
Ġequ ality
ĠT op
Ġf arm
l ast
Ġsp ac
ur ity
Ġw ife
Ġp andemic
Ġel im
ĠR E
f ull
Ġch ance
ĠT or
Ġallow ing
Ġprof iles
Ġset up
D es
ĠS er
Ġchang ing
Ġra re
Ġpro pos
Ġpref er
un ic
Ġcorre ction
ĠUn ion
pro ject
Ġm ale
ĠâĢ ¦
footnot es
L abel
P a
requ est
ĠIs ra
Bl ock
Ġd edu
Ġmag net
ĠL in
clud ed
arg s
lect ric
n at
semb le
ograph ic
Ġal t
ĠSm ith
ĠGerm any
Ġin iti
air s
)} (\
s d
ĠOff ice
Ġsum mer
Ġdriv ing
a ud
Ġcre ating
ĠIt s
text up
it ors
Ġden se
Ġb lood
Ġbro ther
Ġstart s
Ġout er
Ġpl as
head er
cle ar
ne ctions
footnotes ize
Ġst orage
~ (\
S che
Ġvac uum
As sum
Ġpolar ization
Ġsuggest ed
s rc
Ġmetric s
o z
j i
en ess
ĠJ er
Ġsom ew
Ġperiod ic
Ġtra ffic
G R
Ġbo olean
es ian
fin ite
L ink
Ġsa fe
Ġhand s
ĠL at
li e
Ġto uch
Ġaff ected
Ġtele vision
Ġf ans
Ġdat abase
qu ant
Ġ" ""
ĠE conom
Ġsub stant
*} [
ĠF lor
e an
Ġpa int
T C
Ġse cret
ol ar
198 0
Ġpr ime
Ġcy cl
ay lor
Ġinteg rated
stand ing
ĠS ta
Ġsub group
ly mp
" ]
Ġ< <
pon ents
^* (
if ul
sc ope
Ġm obile
' _{
Ġcomm erc
ĠB et
Ġem pir
in ate
Ġdep ict
Ġan c
Ġident ical
Ġem phas
ĠCent ral
Ġdecre ase
C ase
form ance
ĠFace book
Ġexpress ions
Ġser ve
Ġuniform ly
Ġsign ed
ĠR ussia
Ġent ries
Ġveh icle
Ġnecess arily
Ġneutr ino
Ġf lex
ul se
Ġlead er
Ġapp oint
Ġn ation
Ġst o
ĠN one
Ġc it
Ġcol lected
b en
âĢĿ .
ple t
or ial
Ġnormal ized
Ġrec ords
i pped
es ter
Ġredu ces
Ġopen ed
{ (\
S m
a uthor
M E
hen s
D R
Ġupd ated
ĠA R
ut ation
ĠPl ay
ĠJ ul
| $
ne ver
not ation
at iv
Ġenh ance
ĠWe b
Ġpre tty
ĠV er
el se
Ġbir ths
ĠC onsider
h u
I ST
Ġdepend ent
Ġmon itor
ĠM ex
Ġepis ode
Ġl ens
Ġbas eline
m ode
ĠDire ctor
ĠIn formation
ject ure
st s
P o
Ġp m
Ġconfig urations
y an
back slash
ol a
Ġr ig
Ġdis s
Ġread er
Ġnot ion
depend ence
c are
Ġl ock
St atus
\| _
com put
Ġf irm
Ġinst ant
ĠIs land
ĠOb ject
ĠF riday
Ġf elt
Ġunivers al
Ġinteg r
ot on
Ġpack age
cont inu
L A
Ġfail ed
Ġsol d
Ġhapp en
Ġadopt ed
H O
E l
ĠCom mit
Ġ er
- (
ĠR eturn
Ġrel ig
Ġg rand
ĠJ ac
I O
}$ \
Ġth ous
ĠTechn ology
Ġiter ation
V is
Ġwon der
W id
ĠEng ine
Ġany one
Ġbenef its
ex pected
w ave
u cl
Ġme as
Ġw avelength
ã ģ
Ġbenef it
Ġindic ated
C ar
Ġrefer red
m eta
Ġb us
ĠL og
od ay
ĠH istory
h or
ĠG reat
Ġph ases
al let
ĠM il
Ġt ight
Ġdisc rim
! !
h ot
var rho
f rame
Ġuncertaint ies
pon s
Ġsp ent
Ġmom ents
ĠH ill
Ġimprove ment
ĠD u
Ġis ot
$ ^
t i
c rit
Ġvo ice
) }.
Ġcon vent
Ġgener ating
Ġmat hemat
Ġh und
Ġdire ctions
ĠUS A
Ġind ices
Ġl ab
ĠT ur
p ower
Ġm ission
Ġgo als
ig er
ing ly
ĠS ervices
Ġcharacter istics
Ġm aster
Ġopen ing
G l
st at
sy ch
ĠComm ission
Ġlow est
Ġp lease
Ġoppos ite
ig ration
ar ithm
Ġdeg ener
R R
ug in
Ġsu pers
og ram
form at
ĠThom as
ĠSc ott
Ġgeom etric
reg ular
Ġs le
res p
E ng
199 1
ĠAl gorithm
N umber
Ġprec ision
and a
ĠB u
Ġdevi ation
ar ity
Ġn arrow
E m
Ġshe ll
Ġscen arios
Ġexpl an
ĠA tt
su pport
Ġconfir med
Ġinvestig ation
j pg
Ð »
f ind
}{ {\
Ġey es
em por
B M
Ġp red
R un
Ġinvol ving
l oc
g ather
Ġfocus ed
& &\
P M
Ġc overed
Ġcon volution
Ġd ensities
Ġcry st
Ġessential ly
âĢ ĺ
Ġ\ |\
az ine
ĠF ourier
down arrow
ap pe
ĠBo ard
Ġhal o
Ġex cell
Ġcall s
stack rel
os es
R eturn
am m
Ġsens itive
he nt
Tr ue
ĠN or
ta il
25 0
S um
Ġconduct ed
us al
AT ION
ĠM icro
ĠB ank
ĠD E
ĠE nd
Ã ¶
ond ay
Ġcover age
Ġvis ible
Ġsub t
Ġjo ined
ch or
Ġat ta
s i
ĠN ULL
Ġquad ratic
f a
w est
Ġtri ang
Ġ _{\
Ġvill age
ra ine
ĠS D
ĠSt ep
il ation
Ġt urb
G a
] ^
ĠChrist ian
Ġa ware
Ġag greg
sequ ently
ed er
ĠSat urday
L ocal
G u
u on
cl ip
Ġh uge
Ġinter mediate
L C
Ġbal ance
du le
Ġd ed
indow s
&= &\
Ġsk y
Ġextrem ely
Ġplan ning
Ġs un
sh ift
Ġfrequ encies
bin om
$ &$
$\ ,
ist ed
Ġattack s
Ġsens itivity
ĠV is
Ġb r
ĠT our
or ig
Ġsp an
m t
Ġk illed
x ml
Ġor dered
text normal
ĠP an
Ġjo in
Ġfem ale
Ġmole cular
ig ital
ĠGovern ment
Ġs ched
ER S
Ġde b
T oken
Ġwas n
s ch
inv ariant
S ome
Ġre action
Ġp ages
i pp
ĠK ore
O ther
Ġm ill
Ġcan cer
m f
ĠDe velopment
Ġsol ving
Le ft
Ġconj ug
S er
maz on
Ġform ulation
Ġle aves
j ust
ĠSh ow
Inst ance
Ġabsor ption
ren cy
d ens
Ġat oms
at o
paramet ers
back ground
Ġrec over
ĠCl ub
ĉĉĉĉ ĉĉĉĉ
Ġhapp ens
Ġinterpret ation
Ġstraight forward
Ġli qu
Ġcontinu um
Ġf aster
M on
Ġo il
al ing
dom ain
t or
Ġl ibrary
Ġpol icies
Ġtre ated
Ġp ool
Ġs ports
Ġin fer
ĠW ed
j son
it ness
Ġ Î
ĠM ass
* /
inst ein
} /\
Ġfit ting
squ are
ĠMin ister
Ġpat ient
li k
ĠG ood
$ '
[ "
Ġn or
left arrow
Ġtempor al
Ġcon vers
Ġoff set
B R
g reen
ĠAfric an
d irect
ĠE very
00 1
ĠLag rangian
al ian
Ġt ag
Ġcon clusion
ap es
st ood
Ġs ides
Ġad vers
Ġtri al
ĠL ear
b an
ob serv
ĠM ethod
low er
}) ^{
Ġhom ogeneous
M at
Ġmark ed
}. }
Ġc ivil
ĠFran cis
Ġs ales
ĠMark et
ff ect
. $$
ĠC R
$ ^{
ob j
t ure
up arrow
Ġcru cial
ub ble
Ġl ie
T O
Ġdiff usion
Ġsm art
Ġ+ =
Ġalgebra ic
Ge V
B o
ce il
Pro v
Ġa part
Ġar riv
Ġd aily
ĠR oman
A m
Ġcommerc ial
Ġtrans lation
Ġdemonstr ated
Ġde ploy
st d
app ed
ic ular
Ġeffect ively
Ġpract ical
small skip
Ġoper ating
Ġs ession
ram ework
Ġanaly tic
Ġsh oot
cuss ion
ĠI II
Cont ent
Ġwid ely
ĉ Ġ
al d
Ġs ave
lo ok
Ġver ify
Ġvers us
Ġm ur
Ġke pt
Ġcontin ues
u an
ent ry
Ġb ra
ĠT imes
her ical
ĠRe c
T wo
Ġaspect s
eg er
ĠS ocial
$- $
ct ic
Ġposs ibly
Ġar c
Ġmodel ing
w orld
Ġdecre ases
ru ctions
ĠG rand
pro pto
poss ible
Ġ }}
ĠSt and
AM E
Ġproport ional
Ġtop ology
Ġelect rons
se p
Ġrese arc
ĠM useum
rast ructure
ĠB ill
Ġsepar ation
Ġemploy ees
Ġf ont
Ġgu id
ĠCor ollary
Ġ( (
=\ {
st atus
Ġop in
Hand ler
Ġm ask
H ome
ĠE nergy
Ġreveal ed
Ġvari ations
_{ +
) [
ag ram
ĠO per
Ġresid ual
pa per
Ġf ederal
Ġ{ $\
Ġad m
Ġj our
D O
Ġlet ter
al a
Ġcompet ition
Ġexpect ation
ic ago
up date
ĠSund ay
mult line
Ġpolynomial s
Ġcontrol s
Ġw ild
p op
par allel
Ġsupp ly
RE F
nav bar
Ġcomple ment
S H
Ġneut ral
O ptions
Ġemer g
Ġfail ure
Ġold er
Ġsong s
Al though
B B
ĠVir gin
Ġc ert
ac ent
Ġcho ices
ĠW estern
Ġun less
Ġtransition s
Ġlaw s
// /
ues day
pl oad
ĠPro v
Ġsur faces
Ġprec ise
lo pe
Ġp le
Ġex pos
Ġinst ances
Ġemploy ed
Ġcent re
mid rule
Ġcontrib ute
Ġweight ed
erm i
Ġ\ {\
, ...,
Ġreg ression
P age
Ġorth ogonal
ĠD M
i ance
el ess
Ġ\ [
rap y
Ġirre ducible
Ġinitial ly
Ġparticip ants
Ġ eth
ĠS pace
18 0
z en
Ġbo ost
H om
su pp
ide os
ĠJ ose
ell er
os c
Ġf ib
Ġexc ited
ĠFlor ida
Ġderiv atives
Ġf ill
ĉ ĠĠĠ
Ġsum mary
Ġh ierarch
}^ +
k ern
ip ment
Ġappear ance
ortun ately
ynam ics
ĠS il
Ġclaim s
j a
Ġtest ed
ĠPe ople
Ġper haps
it ory
U s
Ġb ill
the less
Ġinvestig ated
Ġrepe ated
cy cl
Ġph one
ĠL ong
Ġsystem atic
Ġspec ifically
ph ase
p ush
ĠCommit tee
Ġcar bon
\ },
{ |
org an
Ġinc ident
Ġrepresent ing
ĠC D
p rivate
Ġp uls
ce an
am ing
Ġdaught er
text sf
Ġbre aking
Ġview s
ĠM ont
ip art
Ġthan ks
ask et
rins ic
Ġreason able
C ref
S ec
Ġart ist
N on
P RO
f old
ug ment
D i
Ġw arm
Equ al
Ġperform ing
W ork
r ish
| _
A U
Ġj ump
Ġelectron ic
leq slant
Ġsub space
stit ution
ĠH en
ĠH ome
N ull
ĠM el
Ġac ad
od ies
d ifferent
Ġt ick
ĠU s
Ġin clusion
d ocument
Ġmor ning
ĠO ffic
ĠJ o
as cript
C I
Ġcolumn s
out put
ĠB as
C F
Ġsp irit
d ash
Ġabs ence
ip eline
Ġb udget
Ġhoriz ontal
Y PE
ĠAustral ian
ĠC y
Ġs ociety
Ġhe ard
s pe
6 00
Ġdiagram s
Res ource
) ).
gl obal
198 9
Ġ- --
Ġpr incipal
Ġrandom ly
Ġd og
ĠW omen
Def ault
rep resent
V ar
as ion
t z
Ġdomin ant
serv ice
Ġt it
Ġr ich
d ensity
Ġm ac
Buff er
Ġanal ys
Ġreconst ruction
Ġdispers ion
Ġdefin es
inst ance
) _{\
ĠMed ia
ĠG ener
if ted
respon se
Ġlook ed
Pro position
sk y
Fact ory
Ġca ref
h ave
Ġrestrict ion
Ġw at
cknowled g
\ }.
Ġdeath s
Ġch art
ĠP eter
cont rol
urs day
Ġmat ches
Ġdel iver
Ġmet all
Ġben chmark
Ġcol d
ĠB ob
E ach
s ince
form ing
M T
Ġcorrel ations
L oad
tain ed
Ġass igned
Ġra il
Ġt ang
Ġre ality
Ġpur poses
Ġin come
so le
ativ istic
nol imits
oth ing
Ġcol lege
Ġun iverse
Ġs ch
fil ter
g ers
ĠMan agement
B bb
ig an
ars h
Ġsche mes
F ONT
bt n
Ġv ote
bu il
th ick
Ġsc ores
Ġann ual
Ġtraject ory
Ġsim ulated
Ġ elli
Ġconf lic
ri end
ĠA v
Ġrad i
ĠS k
Ġpa id
ĠD et
Ġgener ator
K E
Ġp rivacy
et ch
Ġhy brid
ĠB ur
Ġw ants
al ty
onal d
angu ages
Ġh ospital
}} ,\
16 0
Ġse a
Ġcharg es
sh ort
Ġanaly ze
ab ove
az z
25 6
ĠYou ng
Ġey e
w t
Ġwrit er
sc ape
ĠV ict
rom e
Ġpers pective
;\ ;
Ġhoriz on
Ġ{ }
Ġorb ital
}[ !
ra ise
Ġex ceed
V ersion
Ġact ing
ĠN S
ĠN ext
ĠGl obal
) }$.
ell a
ĠArm y
ro unds
\ }_{
iem ann
Ġch urch
h ab
function s
M em
ĠI S
if old
Ġsecond ary
Ġdefinition s
Ġinput s
Ġstrict ly
A rt
fere d
ĠG R
Ġinvest ment
Ġinst r
Ġen able
ĠL os
12 5
ĠSim ilarly
Ġsc ope
Ġclos er
ĠO h
Pe ople
Ġ ice
ĠT own
Ġclin ical
ĠS pe
ĠĠĠĠĠĠĠĠĠĠĠĠĠĠĠĠ ĠĠĠĠ
Ġsim ilarly
me asure
Ġun iqu
Ġth in
O pen
Ġspe ech
h ar
Ġcomm ut
im ation
ex ists
h ard
p ic
Ġw est
Ġgl ob
du ction
Ġ$ ^{
}^{ +
ĠC H
ap se
Ġw ish
Ġvary ing
L R
Ġex cess
m al
erm an
Ġpres ents
Ġal le
ĠEqu ation
ic ations
Ġdist ances
ru it
Ġth rows
l at
ĠL ake
ĠM onday
Ġep och
Ġ ..
ta ke
al and
Ġm eta
Ġdomain s
Ġd rug
Ġl abor
Ġcirc um
Ġkn ew
ĠO lymp
Ġf av
Ġphot o
{ .
Ġc odes
n i
Ġ ~\
or a
big cup
at on
is l
_{ [
Ġacc ret
Ġad vert
Ġfin ds
ĠCom put
h s
Ġart ists
Ġrest ricted
A nother
Ġenc oura
P H
' .
p ot
}{* }{
Ġle aving
ĠCh ild
K e
Ĥ ¬
Ġre ferences
Ġz one
M ar
av ed
^+ $
ĠL ine
ĠEx p
ĠĠĠĠĠĠĠĠĠĠĠĠĠĠĠĠ ĠĠĠĠĠ
Ġcontroll ed
Big g
Ġins ert
T V
Ġorig inally
he m
IN E
ĠProf ess
S ON
Cre ate
l ayout
ĠR ock
Ġatt ribute
Ġenvironment al
_{ -\
Ġinstr ument
ĠB a
Ġnat urally
th on
ph one
ĠPol icy
ĠRoy al
Ġhe ar
param s
Ġclos ely
ver age
$ &
Ġmar ried
ĠL ee
ĠU p
Ġlik elihood
M ark
sub equations
ĠFran k
} >
w hen
Ġunder stood
Ġstrong er
Ġs witch
Ġcriter ia
Ġfund ing
ĠS N
Ġw el
com ponent
Ġextract ed
AB LE
m ember
w a
ĠĠ čĊ
W E
M O
ĠK n
ĠG ames
Ar g
ĠR un
Ġh our
ol es
nes day
Ġbro ken
Ġa head
ĠHe ad
ri p
C N
prob lem
19 70
Ġneut ron
u zz
Comm and
Ġorgan izations
Ġfl ag
Ġtrans verse
Ġed itor
A cc
Ġopportun ities
\ [\
ĠC all
Ġsubsequ ent
L ong
II I
g ar
ĠM any
8 00
Ġdi vers
Ġfin ished
Ġconcent ration
Ġto ken
}{ }
es ides
el ian
ĠG en
] =
it tle
Ġautom atically
Ġth read
Ġfig ures
Ġp apers
Ġdivid ed
) >
ĠSt at
Ġpro position
Ġsk ills
Ġra ised
ĠDiv ision
Ġrecogn ition
ab y
}) =\
opy right
ĠH am
IN T
ul ating
bel ow
Ġmed ian
ST ATE
Ġinter ior
iss ions
com b
def n
Ġst ead
Ġcon nections
Ġtem plate
f ields
Ġchalleng ing
ĠEx t
C a
g al
Ġbusiness es
Ġst ock
Ġcoll ision
Ġdisc overed
Ġrat ios
Ð º
Ġend s
Ġhelp ed
at re
const ra
ĠE X
Ġconsist ing
W S
ĠT re
rel and
Ġin ference
ĠCong ress
" ).
ĠLou is
ĠJapan ese
Ġf ashion
Ġreson ance
r g
Ġrough ly
10 1
Ġal gebras
k ins
rib uted
Ġcre ation
Ġmod ules
Ġtop ic
Ġcor por
Ġsuccessful ly
B E
l ife
int s
Ġinvol ve
ĠC ase
12 3
A F
n m
D I
Ġhel ps
Ġro ute
ĠI ll
Ġinfl ation
R ow
ĠS E
B H
Ġpan els
) }$,
AR T
Ap J
Ch ild
ass um
Ġ\ }
me an
not e
ris is
//////// ////////
Ġcl ick
D ist
Ġorient ation
t rivial
Ġmanag er
Ġillust rated
Ġqu ot
al ities
ĠC are
co in
est ed
Ġvers ions
Com p
u ple
pt r
Ġdevelop ing
st e
b c
Ġfore ign
Ġof fered
Ġcertain ly
Ġdown load
ĠT im
Ġinvol ves
ĠG ame
p res
ire ction
Ġferm ion
M ed
ĠAcad emy
Ġtri ed
H istory
c ard
ĠH ilbert
198 8
if er
sp in
Ġrem ember
ucl ide
Ġgu ide
se m
ellig ence
l en
B L
âĢĿ ,
ning s
$ }}
\| ^
Ġsimplic ity
Ġim ply
Ġpix el
Ġsp here
Ġsat ell
ĠL ead
Ġdef e
h ow
ĠCan adian
Ġcover ing
Ġdomin ated
Ġv ision
ĠWe ek
ĠDe finition
Ġf its
ĠP ower
ĠC le
to ol
ĠJ un
ĠAn y
Ġempir ical
Att ribute
ard en
part icle
ist ence
ĠRe port
Ġsimilar ity
mom ent
Ġcon v
Ġk ids
ĠCommun ity
Ġse conds
cor respon
Ġfind ings
Ġd ie
ic ian
Ġrespect ive
Ġaccret ion
ĠH or
ĠĠĠĠĠĠĠĠ ĠĠĠĠĊ
ref erence
Ġext ent
st ates
b its
jav ascript
ĠT uesday
ĠR am
Ġphot ons
ĠĠĠĠĠĠĠĠĠĠĠĠĠĠĠĠĠĠĠĠĠĠĠĠĠĠĠĠĠĠĠĠ ĠĠĠ
Ġde but
re ci
ic ians
J ohn
ĠA M
th let
ĠB ack
Ġch iral
og ether
Ġrepresent ative
Ġpre par
Ġintrodu ction
Ġdou b
ĠPar is
Ġplas ma
ject ed
198 7
Ã ¤
Ġw ood
Ġcompat ible
Ġd ream
Ġen semble
Ġra ise
Ġb rain
Ġsol ved
Ġtransform ations
ĠB r
ĠW ay
Ġsum m
Ġc row
con duct
gra v
spec ial
Ġis su
Ġpotential ly
ĠH uman
uclide an
Ġst abil
D ec
Ġcharacter ized
conn ected
U I
Ġpart ies
Ġeconom y
comple te
af e
t yp
Ġmechanism s
Ġestim ator
r ust
Ġcor ner
ĠU V
per iod
Ġdiv is
w s
Ġsimultane ously
Ġindu ction
| _{\
Ġown ers
B I
Ġillust r
an ish
st rap
ĠU se
Ġident ification
Ġmess ages
in ction
Ġf ra
ĠT aylor
ĠL ibrary
Ġpass ing
Ġexcell ent
Ġlaun ched
ĠCh icago
ĠâĢ ¢
Ġc ir
Out put
men u
Ġpart ner
% )
Ġflow s
We b
ĠA L
C ell
Ġprodu ces
cur s
Ġdraw n
Ġca uses
Ġbecom ing
Ġcoupl ings
e ven
Ġre ward
Ġcommon ly
Ġc atalog
int ro
ĠA T
ĠA PI
Ġsc ript
Ġre fin
ubl ished
ad y
Ġco ach
X X
t rack
ro ot
Ġcosm ological
ĠApp le
Se lect
Ġd ip
G A
Ġmov es
m atch
Ġe ast
ĠA p
c ategory
Ġamplit udes
Ġcompar able
' d
b ur
}}\ ,
D T
Ġnumer ous
Ġdo or
Ġ{ @
h av
G M
C ON
ĠOn ly
ĠL ore
ĠTe am
ig u
are st
Ġbl og
Ġupd ates
Ġlaun ch
cor ds
am in
Ġat omic
in n
Ġc ub
ĠA I
get s
Ġdif fer
ĠCE O
y e
Ġ url
Ġb on
F urthermore
oot strap
Ġv ort
rit er
ĠAng eles
Ġf re
Ġb low
Ġcred it
Ġadv anced
Ġcrit ic
Ġsymbol s
Ġbeaut iful
s n
Ġpost erior
Ġd ra
od d
Ġconver ges
al so
Ġfor ced
ĠF ree
Ġcompar ing
Ġconven ient
\, {\
Ġl aser
it udes
Ġkin etic
lear ning
p erson
Ġhapp ened
c p
Ġdiscuss ions
as tern
Ġeigen value
Ġg ate
Val id
ĠC NN
Ġveh icles
Ġrest aur
ĠA nother
Ġcompos ed
S cript
Ġsign ature
ĠEq s
Ġcit iz
com ment
ĠF oot
ĠS i
c ross
Ġd t
Ġinterval s
But ton
Ġp ri
ĠH ot
ĠF und
Ġconcern s
ĠK ar
Ġ ur
v o
ĠC ath
Ġcon formal
Ġstation ary
ura ble
p mb
p he
Ġexec ution
Ġliqu id
ĠDes ign
Ġrequire ment
Ġcomplic ated
Ġgeneral ization
l ayer
Ã ¨
Ġorgan ized
ĠU N
F S
Ġd uration
Ġdoc uments
Ġkeep ing
Ġdriv en
rack et
un ing
Ġdam age
Ġis omorphic
Ġ< !--
im er
Ġpre m
T ag
Ġded icated
De finition
Ġwin ning
ca pe
ĠD C
Ġart icles
Ġp rices
ĠM ur
ĠMart in
Ġcirc uit
Ġfe as
res pect
St yle
Ġret rie
k it
now ledge
ĠZe aland
Ġsub section
ple x
ta ges
e lect
ĠA ND
Ġext reme
ĠĠĠĠĠĠĠĠĠĠĠĠĠĠĠĠ ĠĠ
Ġrob ot
Ġeas ier
Ġem it
' $.
OR T
ĠP y
Ġsh ip
appro xim
Ġf ear
Ġconvent ional
contain er
ĠN on
Ġinter pol
ĠC oll
ã ĥ
* \
}} )$
Cont roller
Ġprote ction
Ġdefin ing
Ġf an
ad s
rad ius
ĠI P
Ġar rest
Ġb ary
ĠTh ursday
ĠCh ief
Ġlog arithm
U p
Ġapp lies
ĠSci ences
C olumn
ĠN Y
Ġpow ers
Ġfe et
v dots
Ġembed ded
B undle
Ġstat ements
at tr
g roups
Ġdisc over
Ġvict im
ĠKing dom
w an
St ep
b d
.... ....
us band
ar ial
ĠInst ead
Ġreconst ruct
l an
Ġcondition al
Ġtw ice
Ġsupport s
Ġhistor ical
} ~\
Form at
cite alt
im pl
Al so
ol ars
G E
Ġout come
Ġs wit
l m
A re
ta x
Ġcomp re
198 6
w er
Ġfun ctor
d ashed
B U
ic ed
ro g
Ġbound aries
Ġaud io
Ġstand s
Ġdest roy
Ġthink ing
Con tain
Ġofficial s
F O
Ġaud ience
Ġdec ays
D L
Ġf iber
in ity
li ography
ĠN et
= -\
Ġdri ver
Ġro ots
Ġprob abilities
val ued
ent ed
Ġdec ades
S V
Ġlabel ed
Wh y
ĠChe ck
ut y
ĠSp ring
Ġresearc hers
Ġre normal
B u
Ġclust ering
ĠArt s
ĠVirgin ia
ĠL ove
ĠO ld
ĠW ell
not in
ac le
Ġvalid ation
Ġs ell
B P
ĠQ CD
Ġrelations hips
Ġentire ly
tri ang
s ample
ĠIsra el
U psilon
Ġjob s
ĠM C
ĠW ood
Ġfram es
) ),
ĠJ ud
ĠA mazon
Ġs lope
ĠCent re
Ġsomew hat
ĠSe cret
Ġf resh
Ġresid ents
w ill
M F
Ġv ideos
ĠCL ASS
Ġfa ith
angle ment
Ġtrac ks
ĠJ oe
z y
ir ror
ĠC amp
Ġcon ference
T em
Ġse vere
\ /
ac ific
Ġdef ect
b olic
requ ency
Ġgener ators
g ray
rem ove
viron ments
ul as
Ġbelong s
ĠT O
ĠB ra
script scriptstyle
Ġb atter
Ġdec isions
ĠChar les
spec ific
ian a
Ġpseud o
Ġequ ipment
} &\
mod ules
) &
B efore
let s
Ġsepar ated
Ġb attle
id ers
u v
ĠC ast
Ġbuilding s
Ġc ities
) |\
S earch
ĠAg ain
und ers
Ġa ugment
ens es
ĠC ho
in em
her ic
Ġiter ations
Ġsh aring
ul ator
ĠPo isson
Ġgl ass
ĠIn vest
U nder
ĠI reland
Ġread s
urb an
mod al
im ately
Ġex erc
al i
n etwork
h r
p in
Ġfl ight
Ġtrans action
S te
Ġdecre asing
ĠP oint
Ġcol our
ĠL ast
List ener
ĠSe curity
li ament
Ġfam ous
ĠWed nesday
U pdate
Ġd anger
in dependent
Ġab stract
ĠN at
Add ress
Ġflo or
B ook
Ġcontrad iction
raz il
Ġbu ffer
all ery
ĠV iew
Ġme ant
ĠGe org
Ġsen ior
Ġr an
ul ner
Ġch ief
cl os
ĠJohn son
m o
ĠA rab
ĠRes ults
P ack
Ġapplic able
D at
ĠP enn
et ies
Ġan isot
ĠP C
rib ed
ĠL o
ĠJ ones
ĠF ermi
cl osed
M ain
in ator
ib ilities
v as
AC K
ĠJ im
j k
st one
Ġcons ult
Ġn ine
ri age
^* _
Ġl anguages
ur ance
ĠM L
ail ed
C urrent
Le vel
198 4
f ortunately
Ã ¢
Ġn ative
M ay
ion e
ĠK ey
Ġ rows
Ġscient ific
f ound
b lem
Ġge odes
Ġcult ural
ĠUk raine
Ġow ner
ult ural
' ).
sh ould
s g
Ġcustom er
ort ion
Ġcol ors
Ġhol es
' }\
Ġconf irm
. }\
ĠCarol ina
}} =\
Ġadj acent
Ġwh om
Ġpropag ation
U M
}) _{
ph y
Ġtarget s
Ġc av
irc raft
Ġatt ributes
Ġgu ess
)} _{\
ĠO R
Ġun d
w ords
} <
s ym
cy cle
Ġprote in
T ask
pol y
ĠSpec ial
ĠN E
iz able
det erm
S ym
ĠA st
Ġsent ence
Ġconserv ation
H D
Ġbig gest
ĠIt alian
P N
Ġn ice
Ġn om
t ically
we ak
as et
Ġro ut
CO L
Ġunit ary
asket ball
\, ,
Ġb urn
Ġ ray
Ġcl ients
cul es
Ġplot ted
' )$
Ġwhe never
im a
Ġperturb ations
Ġinteg ers
ĠRich ard
Ġb g
Ġend ed
Big l
ĠP ak
ĠT em
ry pt
e per
Ġinf rastructure
Ø §
25 5
| =
es h
198 5
l oss
ĠF estival
ĠVict or
a ug
Ġadv ance
f r
Ġcoll isions
Ġaccount s
I E
ĠM A
CO DE
ar n
Ġdesc ript
Ġanim als
Ph ys
ĠB uil
Ġindependent ly
ĉĉĉ Ċ
Ġhe av
Ġsplit ting
Right arrow
ĠVal ley
" ),
ĠH REF
Ġtraject ories
Ġexper iences
ĠEn ter
b our
force ment
ĠC A
Ġlarg ely
ĠL icense
Ġstruct ural
Ġhe ter
ink ing
form er
ho le
s en
comm on
ĠMark ov
sing le
mathbb m
ĠMex ico
Ġm iles
Ġf illed
Ġl es
ĠAb out
ĠDi rac
ĠB ol
Ġ} {\
ĠCol or
UR L
Ġb ed
requ ire
`` `
ĠW al
iction ary
Ġsur ve
Ġc ars
Ġpix els
Ġrec overy
gra de
Re call
Ġear th
Ġnear by
Ġhapp y
Ġw itness
ĠF amily
ĠF urther
Ġorb its
Equ als
S ing
am l
ir us
Ġd oll
}\ ;
est ic
i y
comple x
Ġang les
Ġsp herical
ĠM en
Ġdef ense
ĠN ever
ick s
L ength
f ast
w ater
ult y
ã Ĥ
Ġhas h
b ro
St at
ĠMon te
ak a
Ġpl ate
ĠT er
in itial
' ),
Ġsee ing
here nce
ĠR iemann
lim it
al f
r andom
Ġpl ots
Ġaff ine
st yles
Con n
ER R
Ñ ĥ
bet ween
sub stack
ĠJac ob
Ġenc oding
Ġdis cret
off set
Ġtell s
ĠE U
ĠS om
um ps
au x
du al
ĠL ocal
D own
ĠFil m
Ġ$\ |
Ġf ul
Ġexhib it
ĠIt aly
q l
ĠO nce
: </
Ġf uel
est ion
m arg
Ġin sp
fl at
)= (
Ġpart ially
ane ous
ord ers
ger y
y er
Ġsupport ing
Ġsmall est
ĠWil son
Ġat om
Ġnormal ization
Ġclaim ed
ĠDe v
G S
new line
Ġb oy
Q L
is ters
ĠWh y
M en
k ers
Ġcon e
Ġcov ariance
' =
Ġatt end
R S
Ġph il
Ġins pired
ian o
Ġdistingu ish
Ġsec ure
ĠB ern
ord an
Ġimmedi ate
Ġtechn ologies
Ġleaders hip
' $,
< ?
p ool
ĠW ater
lig ible
Ġspac etime
Ġg un
ch annel
or row
ov a
co ordin
stand ard
Ġturb ul
T arget
. },
Ġprogram ming
oid al
Ġsurround ing
ĠI d
Ġle ague
is y
F rame
ĠSp anish
ĠAs ia
Ġp sych
Ġpie ces
Ġun s
ĠR a
ĠH a
( &
pa in
An y
tt p
el a
ĠÂ £
pert urb
ĠPol ice
Ġs we
) |^
Ġcompre hens
ĠM S
Ġse ed
Ġcon dens
Ġfac ilities
id al
M ode
Ġm m
ĠC r
ict ures
Big r
u er
Ġem ot
end if
Ġanalyz ed
Ġadminist ration
Ġvan ishes
Ġproper ly
B F
Ġcom fort
en ced
l floor
r floor
AN D
Ġdescrib ing
Ġw ire
empor ary
Ġperiod s
ĠBl ue
ĠS O
Ġbegin s
e val
Ġexpos ure
Ġproject ive
Ġsex ual
Ġsubset s
De v
Ġsp ring
th an
Ġint ended
Fil ter
R C
A cknowledg
l anguage
rim inal
ĠG re
Ġbrief ly
Ġco oper
L ayout
r ateg
d rop
Ġ raw
Ġexplan ation
at ivity
all s
t n
cer ning
G r
Ġdel i
Ġp et
bound ed
ĠIntern et
#### ####
ĠH istor
Ġdis joint
ĠS and
Ġreal ized
Ġpr ison
Ġisol ated
}) )
ĠR ail
Ġsign s
Ġreview s
Ġn an
Pro p
Ġwor st
Ġindic ating
g rid
Ġpe ace
Ġfac ilit
I B
M et
S ign
Ġrapid ly
ur ies
E Q
P ort
ĠN O
ĠR o
)} =
at en
Ġabund ance
am ed
Ġpoint ed
Ġnot es
Ġ& $
v skip
Ġne ur
Ġco ast
Ġmanag ed
t ask
ĠEx ec
u ing
Ġmay be
Ġint rinsic
tri angle
Ġstead y
ĠP DF
ĠD igital
ow ski
@ {}
Ġlat ent
Ġf aces
ĠI mage
ul ing
G P
Ġ$ [\
w p
âĢ ¢
plic it
nt z
R ed
ĠS C
Ġh usband
p ref
Ġkin em
V er
Ġ* *
E v
ĠAG N
Ġent ity
Ġcho osing
Ġpres c
Ġext ensive
ien ced
n umer
par se
Ġfavor ite
Ġdiv ision
Ġpract ices
Ġanaly tical
] ^{
Ġdeli very
ĠA wards
19 60
ĠMed ical
Ġen vironments
ou ds
art ifact
Ġcover s
the ory
Ġsegment ation
Ġassoci ation
P at
Ġbroad cast
Ġprim arily
Ġsp arse
S l
ĠM ajor
i ro
Ñ ı
ĠOr gan
Ġpop ulations
ĠS aint
Ġrema ined
os oph
Desc ription
sl am
Ġp ulse
ut r
ĠF re
ov ing
pr im
ĠAr ray
Ġf if
Ġout comes
Ġst ages
Ġcriter ion
class es
includ ing
Ġwor se
if iers
ĠD own
ĠA ud
Ġ[ ]
ĠChrist mas
ub b
Ġwe ap
rosc opic
T ree
un te
Ġengine ering
Ġwe ather
Ġconsist ency
bu f
st ud
l b
hom ology
Ġis land
Ġl ic
ĠL ink
t b
Ġredu cing
}\ !
um ul
ser ies
Ġg one
Ġ( "
Ġsh arp
Se cond
cc c
. (\
ĠC ard
N C
W ill
ĠCon ference
Ġs ale
ut ch
ĠL ight
ĠH on
Ġoutput s
Assum e
ĠAssum e
Ġent ertain
k g
ch itz
Ġcirc ular
Ġhom ot
sim ple
Ġcontroll er
ili ary
Ġsh ut
re q
Ġst ations
ent ity
& -
ant ly
k ip
il ine
Ġstand ards
ĠChampions hip
Ġfore st
ð Ł
ann er
L iving
Ġ{ {\
Ġtri p
ud d
G eneral
e ach
Off set
is er
! âĢĿ
ast e
D uring
Ġsh o
ĠW he
Ġim aging
s v
Ġout per
Ġdi verse
Ġaccept ed
ut or
op ed
Ġar ise
t otal
Ġweak ly
Ġord inary
~ (
Ġharm onic
198 3
D on
oc y
Ġm it
um es
super vised
Ġp il
Ġconsider ation
Ġfound ed
Ġpeak s
Ġreal istic
ab et
Ġdepart ment
Ġstre et
Ġjour ney
En c
Ð ¼
Ġtalk ing
ĠAn alysis
sh arp
Ġcounter part
Ġtr unc
ĠA uthor
f amily
ĠS ar
el d
b efore
Ġtrack ing
: (
ag n
Ġco herent
Ġ$ $\
Ġmark ets
Ġthous ands
ĠP ass
T P
Ġguarant ee
phys ical
Ġfin ish
ĠL O
con v
}. \
Ġport ion
T A
ĠAd v
ĠM iddle
ĠE uclidean
ĠCon n
Ġmarket ing
y d
Ġcool ing
ĠJose ph
Ġpro min
Ġcapt ured
p otential
Ġen ables
im b
O pt
Ġch a
Ġex ponent
Ġsem antic
Ġoff ering
id el
ate ver
Ġfun ds
Ġd il
Ġne ither
ar ian
Ġdedu ce
ĠSt art
ĠW in
Ġapp reci
Ġclass ic
ik i
ran ch
res ol
is en
Ġmod er
Ġprov en
Ġenh anced
\ -
Ġorder ing
Ġcould n
Ġimplic it
red it
ĠFor ce
et t
Ġan tic
Ġdivers ity
ĠInd ust
ut ely
Ġcollabor ation
Ġbg color
ĠB al
Ġd war
ĠC ur
ĠA P
Ġknow s
Ġv ocal
Ġin fo
ific ial
ir t
ap ed
ĠM ath
Ġanalog ous
pro to
th rough
Ġrem ote
ĠF ield
Ġp p
ran ce
Ġcall back
E P
ĠB ase
Ġfore cast
Ġst ored
Ġopin ion
ĠN OT
ĠC ross
="../../../../ ../
bran e
Ġstud io
Ġcomp ens
M I
ent ric
{ [
s ite
Ġcorrespond ence
ĠS che
Ġre plic
Ġreli able
Ġto urn
Ġsit uations
ex ec
ĠL ike
ĠM ot
ĠE nt
Ġview ed
ra pper
ost on
Ġadm its
d riv
in er
Ġman ip
198 2
Ġinter ference
Ġposs ess
C V
Ġveloc ities
ĠT ri
ĠAr g
od cast
Ð ²
u able
Ġhard ware
= (\
Ġsepar ately
to ken
ent er
ĠF ile
ĠV an
Ġcy cles
Ġexam ine
' ',
ĠStud ies
Ġline arly
end ar
uck y
sub float
Ġprob e
ĠD ue
Ġillust rate
Ġre ly
ĠP op
f iles
Ġb its
Ġlink ed
l ay
ĠS ign
IG N
Ġsynt hetic
Ġtri angle
Sim ilarly
Ġnon zero
h skip
Ġ }$
Ġdisplay ed
Ġc risis
Ġclos ure
ĠB ir
P ar
U rl
Ġ! ==
Z E
O p
place ment
ĠC ode
chang ed
Ġh ab
it an
pl ain
Ġtr uly
Ġsuff ices
ac cess
Ġcorrel ated
ad ium
over set
Ġbring s
Be cause
Ġref ers
_ .
op ing
Ġcount s
oid s
ĠI ran
Ġpre pared
ĠC P
G G
ĠW ho
}_ +
m ic
Ġst uff
Ġd ram
Ġim possible
in ating
ĠB ow
conn ect
ĠR ay
C ache
ex perim
ce ived
const ruct
Ġ$ <
Ġcoll apse
ĠRe al
con nection
ĠC ov
}) -
ren ew
V ol
^- $
Ġb atch
> ,
Ġv ulner
G en
Ġrec urs
ĠD ate
$ (\
B as
Ġin vert
R ad
Ġaver aged
er os
ĠS ports
Ġmathemat ical
on ym
Ġm ountain
Ġhol ding
Ġspe aking
us hed
Ġtr igger
ĠR equ
ct x
Ã §
ress ive
Ġa ux
ĠF ort
ip ation
ĠMe an
ĠN a
=" ../../
Prov ider
Ġact or
l arg
Ġ ×
Ġm el
on to
in et
' }$
y ou
Ġfac ility
Ġrespon d
ĠTh rough
Ġgen us
Ġpresent ation
Ġconcern ed
ĠG L
Ġcap able
\| _{\
Ġpercent age
Ġr ating
Ġfact s
J an
Ġoffic er
Ġpl ants
m etric
ist ically
ĠF ederal
eng er
no ise
equ al
Ġmarg inal
Ġ })
HT ML
ou ch
] ]
r ations
auto ref
Wid th
ĠK im
ĠB H
Ġindu ces
Ġsens or
ĠP age
Ġgu itar
A c
w as
ins on
c ounter
Ġm al
}= (
reg ion
Ġm ental
Ġinfin ity
Ġprov es
T ypes
$ _{\
res ize
an alysis
return s
Ġissu ed
Ġm ys
Re v
U V
ĠRe cords
ru gg
Ġs pl
ic an
Ġconsum ption
R T
on av
Ġcir cles
ĠEngine ering
ĠWilliam s
Ġformal ism
ĠAd am
re ds
ou st
f riend
Ġcall ing
indu ced
J ust
Ġintegral s
ĠÂ »
Ġref lection
Ġsk in
sh ape
W H
Ġsyn chron
Ġloss es
ĉĉĉĉ ĉĉĉ
Ġasympt ot
fra red
prot otype
o ir
Ġl ived
Ġyour self
Ġanom al
Ġmot or
Ġ\, ,
Ġplatform s
d z
Ġg ender
Ġhom omorphism
Ġch ampions
ans as
Ġelect ed
) !
ĠA ff
Ġover lap
ĠB an
^ +\
r ase
center line
Ġfam ili
Pro ject
k ind
Ġfeel ing
Ġfrequ ently
Ġre vers
ĠE st
m atic
Ġth r
Ġc e
Ab out
Ġan not
th ree
Ex perim
ĠJ eff
l r
Ġh air
ĠE vent
ok es
vert ex
Ġd raft
Ex ample
she ll
he red
ĠN ame
pro file
$ --
Ser ver
Ġconstra ined
Ġcop ies
it age
ĠAd minist
}( -
) )$.
F ix
B est
ĠK en
de ep
Ġed ition
Paramet er
Ġfeature d
Ġ ^{\
ri val
K S
Ġrepl acing
ĠC as
}_{ {\
Pro cess
deg ree
ĠEn vironment
Ġquot ient
hol der
Ġperform s
Ġg iant
ips chitz
Ġcan cell
am i
Ġtri ple
ĠB iden
Ġteac her
Ġtrans mit
hy per
ĠF ood
M ost
=" -
Ġclass ifier
). }
Ġall oc
Ġsurpr ising
Ġl ift
ĠCh ris
Ġinj ury
ĠSu pport
Ġexpert s
ĠF ar
Ġstudy ing
Ġconcept s
D r
}} }$
Ġtherm od
om er
fact or
Ġcon jecture
display math
im od
Ġoccur red
umn i
w all
b ell
, ~
Ġsh ares
ĠFoot ball
ist ing
Ġacad emic
Ġbos on
he et
ĠM ike
ĠF ollowing
ad ed
Pre vious
D en
Ġwait ing
ĠSum mer
Ġsle ep
V ari
cent ly
AL L
Ġmon ot
Ġrang es
t ics
ĠF act
Ġviol ence
A ccess
Ġagre ed
EE E
Ġgener ality
11 1
ath an
ĠW all
un iform
g ment
Ġprom pt
Ġhyper bolic
ĠRem ark
ĠD O
Ġv ot
h ou
ĠL ord
ĠC ON
or ney
F in
Ġdiam eter
ĠCor por
Ġch air
ĠJ on
M ulti
, .
ĠCath olic
13 0
Ġexpand ed
B ased
Ġd y
Ġstring s
ĠH aw
ĠS V
ĠM ic
Ġent anglement
ĠL im
Ġstre t
p redict
or ough
and ra
ple ctic
om et
Ġset tle
Ġc as
ĠAd ditionally
Ġf ant
Ġcon sec
am ber
Ġexper ienced
N one
ĠA D
Ġdeterm ines
Ġde formation
++ )
artifact Id
}, {\
Ġin form
Ġnew ly
ĠMich igan
Ġut ility
Ġ{ {
t im
t ypes
Ġproced ures
ĠB razil
E V
t ered
198 1
ps et
ĠSo ft
197 9
ĠTr ue
out s
ĠG rant
Ġbut ton
Ġexp ensive
Ġamount s
ĠMe V
f ixed
ak ed
Q ue
os a
n one
ĠN GC
Ġinterpre ted
Ġsampl ed
: "
}} }{
F ollowing
R ange
f g
Com parison
Ġa maz
ĠAmeric ans
ĠR ight
Ġb id
Ġgener ates
t ensor
Ġ\ #
U se
Ġse p
alax y
Ġlog ic
Ġmus ical
Ġassess ment
Ġpropos al
ĠMed icine
Ġus age
Ġcon fin
Ġaim s
\, .
S N
d ouble
g i
h olds
t ex
ĠP R
% ;
ĠĠĠĠ ĠĠĊ
ĠS P
Ġob j
ĠCont rol
ro b
Ġserv es
ĠSpec ifically
g iven
ĠLear ning
ST M
Ġcomb ining
en um
ĠN av
ĠHen ry
Ġob st
Ġmes h
ĠM ain
Ġbelie ved
Ġsub sc
ĠL ab
Ġform ulas
f n
ak i
Ġcomb inations
= {\
Ġfin itely
Ġare n
Ġl icense
ĠB ell
c ov
Ġb ars
}_{ (
sat isf
Ã³ n
Ġro les
ĠAnd rew
Ġdisc overy
d est
c oupl
D et
Ġcorrect ly
Ġs ight
)\ ,\
math ds
ost er
Ġfit ted
Ġoffic ers
Ġembedding s
on ed
Ġcross ing
Ġan imal
out e
Ġactiv ation
L ocation
Ġresist ance
Ġfil ename
Ġequ als
}\ }$
à ¥
D av
v able
Ġarm s
Ġsc ored
Ġexcit ation
Ġpotential s
or ient
se q
14 0
Ex ec
G D
Ġcomplet ion
st ances
med ia
Ġnumer ically
( |
Ġtop ics
_{ {
ĠMc C
c ceed
Ġes cape
Ġclass ified
ĠM ulti
unders et
et ary
id ents
Ġmole cules
ost ic
b ool
ab ric
D ir
Ġre n
Ġp it
Ġinter sect
Ġrestrict ions
tem plate
ĠEx ample
Ġs port
Ġt ack
ĠE mp
Ġp atch
H igh
Ġvari ant
ĠT H
ug ins
ĠC art
ho ok
renew command
v c
ĠSen ate
Ġk ick
ĠS to
ari ate
onav irus
Ġcosm ic
Ġco al
se par
eles cope
Ġflo at
ĠM u
ĠMicro soft
Ġelement ary
Ġf ellow
ĠFrancis co
ĠP A
Ġh a
su ccess
T rack
__ __
ĠE lect
dist ribution
clud ing
Ġrespons es
Ġk ing
ident ial
\!\! \!\!
ĠDan iel
Ġun iversity
Ġann ounce
N G
on line
Ġman age
Ġequ ipped
Ġhelp ful
Ġm ob
Ġp y
Ġarg ue
Ġmys elf
ten ess
an aly
Ġchain s
ĠCar lo
trans form
Ġsee k
osp it
ĠOr der
Ġc ere
Ġenc oder
h ash
ĠSw ed
Ġrece iving
Ġent ered
**************** ****************
N T
w indow
tra ining
ch arge
E very
ĠS up
Ġsche dule
Ġatmosp here
Ġhydro gen
G raph
or i
ĠE instein
ĠP acific
Ġb ridge
Ġrelax ation
Ġun stable
ĠI V
g ood
Ġe cho
Ġa ircraft
^{ [
D irect
Ġmonitor ing
Ġinst ability
Ġregion al
r f
Ġk ill
Ġpurch ase
u pper
ĠH T
Ch ang
Ġp ed
Ġsupp osed
Ġcr ime
Ġcitiz ens
cons istent
tr im
Ġst im
p atch
Ġread ers
' )\
Ġcent ered
Ġhelp ing
C G
clud es
W rite
Ġc art
sec urity
Ġlist en
group Id
l u
ĠOb serv
ĠI T
respect ively
lement ary
ru gs
dd en
ĠE p
Sche ma
Ġreg ister
Ġadv oc
is ition
ĠN AS
Ġcount y
s a
Ġc od
ĠN ight
ĠPro cess
Ġsym pt
Ġt ens
Ġseem ed
writ ten
et ing
et he
Ġdis pl
S w
ab eth
Ġdis appe
Ġneighb our
Ġphenomen on
Ġmult ip
Ġhous ing
Ġm ere
ĠTh ree
i pe
F P
com pact
Ġb ond
Ġad vent
Ġso le
ĠL abor
or ous
res ource
Cont rol
C s
ail ability
Ġproject ed
Ġanalys es
Ġvir t
it o
Ġb odies
pro perties
Ġhum ans
ĠOr ig
Ġthem e
Ġhe ro
Ġ: :
d if
equ ival
Ġsp end
Ġcut s
Â ©
Ġmanufact ure
Ġaccess ible
p resent
Ġcon clusions
ob e
Ġintrodu cing
ell o
cre asing
Ġinv ariance
ampl ing
Ġpre ced
Ġcal ibration
ĠJ es
Ġfrag ment
Ġ> =
ĉ čĊ
( _
Ġmulti pl
i ate
Ġfe at
Ġdis order
aw s
ĠH ospital
yl van
il a
Ġf le
ĠJust ice
ĠAs ian
Ġk id
ĠCol umb
ĠLore ntz
big skip
Ġsu cceed
Ġobserv ables
id ay
ri ers
Ġ era
K L
Ġcomm ission
const ant
ĠRepublic an
ĠA ccess
s ome
Ġvan ishing
Ġweek end
* {-
pr ise
Util s
ĠM ah
Ġ ens
Ġvict ory
Ġvacc ine
Ġre venue
Ġcol le
Ġpol l
Ġexec utive
tem perature
ĠReturn s
ĠM ach
ĠP erson
Ġneg ligible
ĠH and
or al
Post ed
iss ue
util s
Ġp ump
oc key
Ġyou th
gy pt
ĠSc ot
tra ined
Ġher self
Ġ$- $
Ġf usion
Ġse at
Ch ange
Ġrequest s
Ent ity
Ġacceler ation
s es
og rap
Ġsignific ance
g red
P ass
Ġful fill
ĠS a
ĠStand ard
sim ilar
10 5
ĠR ights
Ġprof ession
Ġag ency
Ġattempt s
S ol
Ġsubject s
Ġperm it
ĠP rem
P op
ĠRad io
ut able
A v
Ġslow ly
Ġmechan ical
Ġappear ing
Ġult ra
Ġre aches
Ġprodu cing
C lick
Ġre v
iline ar
gl s
ĠF our
Ġp adding
H R
Ġri ver
Ġindust rial
ĠS outhern
Ġconflic t
ĠB ased
}$ ).
s b
Ġt ab
Ġregular ization
iam ond
Ġfamili ar
l ab
ĠI slam
opt imal
j et
ab olic
Ġelli ptic
B en
S pe
Th read
ĠD ar
M any
M c
ur i
b ad
Ġin it
ĠM id
ĠF ire
v y
ĠM D
, (
ĠM ov
ĠG ar
O O
ic ial
Ġseg ments
] _{
3 60
Ġderiv ation
Ġfeas ible
Ġexplain s
ra ble
Ġacqu ired
Ġeffect iveness
() ->
s un
Ġtot ally
ĠProfess or
197 8
Ġd ialog
Ġrelig ious
B s
Ġas sets
}| ^
as p
b es
Â °
Ġmix ture
Ġf ish
Ġpost ed
Ġa u
ol der
is ons
ul f
Ġperm utation
Ġp al
top rule
col l
Ġn a
}} ^{(
ĠCre ate
B D
B i
Ġsu dden
) }^
Ġ )$
dev ice
sol id
ĠGu ide
1 12
AP I
Ġele v
ang ular
}) (
Ġappoint ed
N L
Ġpure ly
}} +
as i
ĠW alk
ĠJew ish
Ġadv ice
ĠA ction
ĠSu pp
Ġinstit utions
ĠĠĠĠĠĠĠĠĠĠĠĠĠĠĠĠ ĠĠĠĠĠĠĠĠ
Ġlo ops
ma ges
qu ality
Ġacc um
Ġarg s
Ġimprove ments
enc ing
ad i
Ġefficient ly
S i
Ġincreasing ly
do i
ĠN umber
Ġl en
Ġon going
em ail
Ġp ipeline
Ġdec ide
Ġl ose
Ġpolit ics
ĠRe call
Ġshe ar
AG E
ess el
Ġb inding
\' {
ĠAs sembly
ive red
ific ate
Ġcomprehens ive
ph oton
Un it
â Ĥ¬
Ġbe at
Ġpl anned
Ġs an
ĠT oday
ĠP lease
ĠB G
ĠS pain
Ġp ot
iv ation
J o
rict ion
Ġaff ord
ps on
ĠS qu
Ġb are
Config uration
Ġ\ }$
D el
con c
F urther
Or der
V ER
F ull
Ġm ort
res olution
Ġre new
Ġrecogn ized
dis c
e z
ĠM ap
Ġsatell ite
] );
U L
fol io
Ġmultiplic ation
Ġsc an
d p
in ternal
em an
Ġc ache
ĠPol it
ĠW indows
ĠH ard
Ġ\ :
Ġt ends
F ont
Ġgirl s
pol ar
ĠPak istan
7 00
Ġc ash
Ġaward ed
ĠNew ton
Ġr id
x rightarrow
b oth
Ġdec ade
197 6
ĠR ic
k h
Ġaccom pl
Ġphot os
cent ral
197 7
+ |
Ġcheck ed
Ġne arest
% ,
Ġsymm etries
Ġlimit ations
k ens
Ġalign ment
Ġpro ton
Ġb ath
Pos ition
Ġrec ording
N Y
at i
ad el
t ot
ĠCar l
P an
ĠT erm
it ter
Ġconsequ ences
Ġw ww
Ġn arr
D ocument
t ml
s ys
sp aces
F M
f ocus
ĠP S
Ġvol tage
en ance
Ġensure s
ĠN orthern
Ġreve als
Ġext ensions
u ated
lead ing
Ġu int
ĠM aster
ch a
H L
be cause
h ome
ĠL ive
prot ect
ili pp
Ġre act
ĠT ext
ĠĠĠĠĠĠĠĠĠĠĠĠĠĠĠĠ ĠĠĠĠĠĠ
Ġke ys
ĠNot ice
Ġsub s
P arams
Ġfail s
Ġconsum er
Ġmodul i
Ent ry
): =\
ĠGeorg ia
Ġm ock
Ġdes cent
v m
ay a
Ġadvers arial
Ġre tain
ĠT R
Ġexpl os
Ġaut hent
ateg ories
St ud
Ġw inter
ĠB ang
\ }}
jo in
Ġs and
Ġregist ered
Ġ urban
Ġsubstant ial
n ight
ual ity
hor iz
Ġte aching
ro ke
Ġtra dition
W here
ĠAnd roid
Ġcre ative
Ġinc red
D om
Ġpos it
Ġd s
ear s
cl oud
T ube
ĠT ro
ylvan ia
ĠI rish
Ġ ram
driv en
Ġch apter
Ġvir us
Ġg ather
Ġter rit
Ġtrend s
g ov
r n
Ġcl ouds
or b
ĠB oston
pt ure
Ġdepict ed
âĢ ī
Ġcent ers
F OR
el ly
Ġserv ing
Ġset t
if ting
' (\
j ections
set length
ĠF unction
Ġse ar
Ġb ow
. '
Ġshift s
is ks
Ġdetermin istic
Ġs outhern
ĠF air
Head er
G s
marg in
Ġext raction
Ġneighb ors
ĠM O
it ud
l ined
$ =
f requency
eq q
? :
H ash
Ġvari ability
Ġadminist r
ĠĠĠĠĠĠĠĠĠĠĠĠĠĠĠĠ ĠĠĠĠĠĠĠĠĠ
n ic
ĠIn f
COL OR
ĠJack son
Ġpublic ation
ru ption
ĠSt an
Ġac id
b order
~~~~ ~~~~
B T
Ġ\\ [
Ġun ity
N P
He ight
Ġar ises
bib liography
Ġ( +
p ay
ĠMin istry
Ġachie ves
Ġx ml
e fficient
Ġacc ident
styles heet
Ġinequ alities
Ġcl ock
= #
Ġins ight
B el
Ġconnect ing
> $
Ġadapt ed
amp ion
on om
y es
Ġwall s
ĠR et
Ġtr ig
ä ¸
}^{ (\
m aterial
Ġperform ances
ĠD at
Ġwould n
Con st
Ġar rang
Ġpay ment
Ġreport ing
Ġexpl ored
A uthor
Ġcomb ine
Inter face
eg o
ish op
n c
er ry
Ġcommit ted
ad or
ĠKore a
Ġcon cerning
left rightarrow
19 75
Ġimag inary
Ġdi vergence
Ġobserv able
ĠF lo
Ġqu eries
Ġfraction al
Ġfew er
v v
}] \
Ġgu y
ic ons
is c
E ven
Ġabsol utely
ĠW here
/ .
l ers
Ġl ists
Ġ ĉ
ĠG irl
Ġhealth y
Fig ures
ĠB efore
Ġad ds
che ster
miss ible
' ,\
}} -
ak s
Ġcan cel
e h
Ġ à¤
Ġequ ally
ĠOn line
ĠL ittle
Contain er
ĠC T
Ġfl avor
ĠF ac
ak ers
}] $
ri ver
Ġsingular ity
s ig
Ġs ister
il ly
ĠR en
Ġdro pped
D em
Ġlet ters
) ~\
M a
Ġdifficult y
ĠTr ust
Ġwe alth
ĠO l
AC T
Ġm and
Ġco homology
Ġbatter y
Ġassign ment
Ġsuper conduct
art icle
Ġdot ted
Ġc ro
d ynamic
Ġp in
}$ ;
ĠI mm
ant i
ism s
fig s
Ġa id
}}\ \
Ð ´
ĠE uler
Ġel astic
Ġarriv ed
rom ise
Ġinterest s
? "
Ġab elian
Ġult imately
h d
Ġaux iliary
Pl an
ĠC at
Ġwatch ing
Ġprov ider
iz abeth
Ġpur su
rat io
Ġcon crete
Ġfil ters
deg ener
p et
Ġlocal ization
Ġre in
Ġcompet itive
ig ate
p f
ĠM ountain
ĠH D
c am
Ġdeterm ination
Ġlimit ing
AN T
Ġcontain er
f ramework
ro vers
ĠF ull
19 50
Ġre fere
ly wood
Ñ ĭ
ĠH o
Ġar rive
E st
Ġconsec utive
ĠS af
Ġinstall ed
re du
Ġinf ection
p ur
Ġp ose
Ġanc ient
ess ions
Go ogle
Em pty
ĠOh io
Ġown ed
Ġcre ates
c ache
Ġtor us
Pro perties
ab out
ĠH om
ĠN C
Ġkin ds
on ia
Ġj ets
Ġtang ent
ors ion
O nce
m ond
ST R
Ġre verse
ht bp
ĠDes pite
ĠC amb
A Y
Ġplan ets
}) }\
ĠD un
ĠF uture
P Y
Ġad mit
Ġval uable
add ress
197 4
sc ious
ĠT w
Ġin gred
Ġimpro ving
Ġb an
Ġm ent
}} +\
de bug
Ġa cknowled
st age
dist ance
nes ota
In deed
dep th
Ġgreat est
Ġwin ner
doc s
qu ark
G O
m ove
Ġferm ions
k ov
ĠS L
C ap
% %
Ġoscill ations
Ġst rugg
ĠB ul
Ġperm an
ĠDemoc ratic
p ed
pan el
g ame
Ġstand ing
Ġaut omorphism
ĠW at
ĠP ri
Ġcollect ive
li x
Ġun able
Ġli ber
bu ffer
s end
Ġatta ched
ag en
Ġp ole
[ {\
u u
Ġf ault
Ġn orthern
uch y
Ġse es
Ġv en
ĠUn ivers
Ġcap abilities
Ġk not
' -
man ifold
H ar
W orld
Ġhom es
Ġm il
Ġdefin itely
On ly
o is
Ġ ),
ĠS ky
Ġs in
rop ical
Ġ rom
ĠP ut
big oplus
O K
Ġt um
Ġph on
Ġoper ate
ĠPh ot
ĠL ook
G AN
P RE
c ost
T ags
) /\
Ġexerc ise
Ġv ice
Set tings
L in
Ġtourn ament
Ġir on
s is
Ġput ting
Ġpre v
Com b
ĠB on
aw are
ĠW ild
Ġshe l
r ine
Ġd ance
ĠSe a
ĠVal ue
char acter
od ge
az e
inter face
ĠO pt
Ġ" \
re v
Ġcontinu ity
Ġin her
Ġrel ativistic
Ġterm in
Ġinter net
ĠP en
T YPE
bottom rule
Ġhund reds
ĠCon f
W indow
Ġmanif olds
Oper ation
Ġt ables
Ġf ell
ĠM as
Ġcav ity
Ġcryst al
s ylvania
Ġpromin ent
r ants
Ġcon version
Ġmov ies
ann a
Ġde lete
vel ope
ĠBe ach
Ġwrit ers
burg h
Ġre ar
rec ord
Ġfor t
ari ants
Ġsing er
W ar
st ellar
Ġhomot opy
Ġbring ing
Ġsto pped
Ġdel ivered
Ġsu it
st ore
ĠJ r
App lication
Ġappro ved
ev in
% .
Ġfif th
. âĢĻ
Ġcomp r
w orth
T M
ĠSe ason
m r
Ġs oc
ph ia
Ġsound s
) <
Ġemerg ency
Con clusion
ino is
ment ion
Ġtro ub
on i
is a
do or
Ġprom ote
Ġv ast
ors hip
Ġdeterm ining
}} _\
Ġch ose
at ar
ĠN iger
un ity
sequ ence
Ġv ent
ĠG i
Ġhol omorphic
ĠJ ordan
ĠT al
ĠIn s
Ġspec ify
Ġgu ard
ĠQue en
l ass
Ġmur der
Ġbox es
crit ical
_{ (\
Ġmetall icity
Ġsh adow
ĠC irc
Ġin hib
Ġamaz ing
Ġg ene
Ġprefer red
aps hot
ĠÂ ·
ĠT y
Ġm irror
Ġcook ies
ĠS ong
Ġev ident
re ement
Ġint elligence
~ {\
sh ire
ĠCon sequently
ĠU ser
Ġsummar ized
enn is
C ho
id ity
U RE
Con nection
Sum mary
Ġbig ger
correspon ding
c raft
C le
ĠC ost
w ing
Ġscen es
ĠJer sey
te en
Rec ord
f ly
Ġconver ge
Ġcount ing
U LT
197 2
ĠL iber
raise box
Ġab use
Call back
Ġreach ing
H H
ĠDe ep
Ġcompos ite
Ġmod ification
Ġsh apes
Val ues
Ġproport ion
ĠL em
ass oci
miss ions
Ġproof s
197 3
ĠS us
Re ference
Ġver ified
Ġsqu ares
Ġt ruck
ov ed
Ġrad ii
Ġauthor ities
Ġthe rapy
@{ }}
ĠG reek
Ġser ial
ĠOb ama
Ġcomput ations
ĠE V
process ing
Ġresol ved
id i
Ġdis cre
Ġpass es
aint enance
Ġexpand ing
rib utions
ĠM P
Ġgeodes ic
Ġs ac
ĠG ro
^{ {\
N etwork
ĠCo ast
Ġfor get
Ġwh atever
ĠH op
Ġvan ish
}, \\
ĠBro ok
colon eqq
Ġadd ressed
moment um
Ġb ott
}$ $
at ics
Ġremov ing
F ound
pi e
cal cul
á ĥ
Ġann ih
Ġconsum ers
v ance
Ġrequ iring
ĠS earch
Ġover view
Ġparamet riz
ĠV ideo
Ġresult ed
ĠG W
Ġminim ize
ĠAre a
Ġra in
C B
Ġp riv
Ġsequ ential
int on
Ġobvious ly
Ä ģ
11 5
Ġalong side
Ġthick ness
S n
Ġvol unte
Ġar rival
ĠS em
ĠP ay
In itial
pi x
ĠChe m
re r
Ġt error
Ġland scape
Ġy ellow
Ġdetect ors
cho ose
Ġsubsequ ently
resize box
] ^{\
Ġgrow s
Ġcub ic
Ġemploy ee
Ġcommit tee
cl uster
w ang
m ay
Ġlength s
s ort
Ġm ic
Ġst ores
AT H
Ġmeas uring
Ġtransform ed
Ġj av
om atic
IT Y
ĠC ivil
make box
st op
L o
ĠE gypt
Ġdef end
Ġd ry
s ymmetric
Ġdou bt
ĠH un
ĠD NA
Ġpro spect
Ġlif etime
ist ant
& +
Ġam pl
ma king
Ġrece iver
Ġqu arks
Ġpar ad
Ġre tail
ens ed
Ġprodu cer
Ġlov ed
rel im
ĠNever theless
Ġde vel
lik ely
ma c
Ġ$ -\
u pp
um a
Mod ule
Ġb asketball
Ġse asons
ip her
Ġexpl oration
Ġst orm
roll ed
Ġst ick
g tr
), (
Ġele ctions
Ġm unic
Ġobserv ational
vious ly
Sh ow
r ats
ke ys
AC E
ĠB rand
new s
Ġcre w
Ġregard less
var pi
od s
10 2
ore l
Ġturn ing
bibliography style
ĠO x
de com
fra ction
H ttp
m aster
ĠBl ock
ĠK ong
Ġprinci ples
Ġtun nel
import ant
u int
ert s
ht b
b est
Ġconserv ative
ĠCh air
Ġb rowser
ĠSystem s
f ire
ĠS ep
Ġeven ing
Ġmod ular
" ))
ĠSur vey
Ġint u
Ġalbum s
m ix
ĠM ake
ĠC S
Ġobtain ing
sm ooth
T ER
Ġfair ly
F E
oust ic
ĠP ack
Ġrecomm ended
Ī Ĵ
i ated
Ġpen alty
c ustom
Ġf at
V ector
cl ick
ve ctors
+ $
ĠPr ime
B ound
Ġp un
f ront
rel ax
Ġident ifying
e ed
r b
ĠInst agram
Ġfl av
Ġhot el
Ġregard ed
New s
Ph one
Ġmod ify
continu ous
Ġcon vention
xy gen
U P
off s
Ġelectro magnetic
Ġform ally
T itle
5 12
itud inal
Ġle af
re ll
Ġbran ches
Ġdual ity
$ }\
ĠH erm
Ġconvers ation
Ġuniqu ely
ĠL ow
p q
Ġs ending
ĠĠĠĠ ĠĊ
Ġfor th
Ġact ors
est im
leg ate
p ow
ĠW is
ĠBro ad
ol i
f ix
con j
I ter
ĠT ake
h n
quant um
N um
com ponents
d ict
Ġhe ating
du ctor
ere nces
Ġs now
F IG
pos itive
Î ±
T ab
Ġteac hers
ĠSt ory
ir ty
Ġvar ies
Back ground
ĠB rad
Ġd rag
Ġprom ising
Ġinteract ing
ĠW atch
Ġadapt ive
Ġbar rier
ĠAm ong
Ġoper ated
ĠCom mon
ĠW rit
let ter
Ġaccur ately
ms g
Ġrepe at
Not ice
] _
Ġ\, .
) ~
ĠV ari
Ġfe els
ĠGal actic
="../../../../ ../../
Ġauthor ity
& #
Ġjust ice
Ġc ouncil
Nav Bar
Ġan ten
O ption
Ġv on
ĠB oy
Ġcommut ative
ĠE rror
Ġca ught
S ur
Ġaccom mod
ĠH as
ol is
Ġend ing
Ġh un
ap ore
i ar
ĠSecret ary
sp ring
osoph y
i pping
c b
Ġ erg
N AME
iv ariate
St ore
en v
Ġnot ing
sh op
y o
us cript
Ġimpro ves
Ġstream ing
Ġdesign s
de lete
Ġcol on
ĠS ir
is o
Pro t
par a
nam ed
or ters
ĠP ath
A nt
h yp
Int eger
B oth
C ons
Ġpartners hip
ra it
b ind
hed ral
cell color
r ating
ag a
ĠS her
Ġresol ve
Ġdri vers
Ġadapt ation
ĠMus lim
cor rect
s yn
p b
ex act
or dered
re pre
). $$
Ġquant itative
vers ely
app lication
}. $
k k
Ġvari ants
Ġm ount
ĠPenn sylvania
Ġdr ift
ĠPro of
Ġh o
w atch
ĠY es
Ġaddress es
\\ \
d irection
x ym
S erial
equ als
ĠM ount
Ġmin ute
ain s
Ġm ig
Ġpres erve
mention ed
Ġmar riage
ĠK ent
ink s
Ġg ift
Ġqu bit
ĠC PU
ĠBay esian
Ġre form
Ġp arams
Ġshoot ing
Ġgre w
big gl
Ġour selves
p ress
it atively
Ġca usal
al o
Ġsym plectic
| }{\
Ġpass ion
ĠB C
ploy ment
Ġex it
Ġband width
Ġconvert ed
- {\
b ow
Ġinstit ution
a uth
}} )\
ĠBook s
Ġinvest ors
H y
con vex
ĠC ro
Ġins ights
Ġd rugs
10 4
Ġprogram me
ĠCl in
G ra
exp and
S pace
Ġfall s
Ġag ric
he res
L M
Ġen abled
-- >
ĠS n
ĠB lo
Ġs pons
clos ure
du ate
}^{ *
}{ !
olog ist
Gl obal
ĠTe le
Ġde pos
Ġperfect ly
iz ers
l am
Ġopp osed
Ġr isks
ĠB it
V D
ĠR od
Ġpar ity
ĠD R
ĠS I
col head
}{ $\
ple te
) },\
As ync
Ġins urance
Ġtri als
ou red
ĠChild ren
v ia
Ġ\| _{
coordin ate
Ġacc ord
$ /
ĠThe atre
Ġhe aring
Ġb ins
ĠU pdate
z o
à ¸
ĠG PU
Ġdest ination
Ġlocal ized
ot he
CT ION
Ġinnov ation
W ell
Or ig
' ))
Ġcomp ression
ĠA U
Ġreal ize
13 5
ĠSte ve
und les
Ġcontrad ict
Ġb ag
Ġapp s
F ree
Ġnucle i
Ġask ing
ĠA S
IM E
l brace
ĠT urn
Ġe c
Ġrel ies
Ġepis odes
og gle
Ġansw ers
Ġre nt
text style
Ġc riminal
DB LP
ic ious
ĠRep resent
Ġphenomen a
b ury
Ġdip ole
Ġgrad ed
ĠD ark
Ġsp ending
Ġarg ued
Ġd amp
AT A
Ġreg ul
n p
P ref
Ġexpect ations
oul omb
hand le
P erson
Ġre actions
foot er
ri ate
le vant
ĠF OR
]{ ./
w rap
Ġn ont
war z
] }\
Ġworld wide
}} }{\
Ġrec overed
Th rough
c pp
ry st
M ag
Ġhead er
Ġfight ing
ding s
ric ket
stit uting
Ġhon est
ĠIn itial
Ġdra ma
Ġte ch
com pare
Ġk ee
ĠMin nesota
ĠR om
Ġoptim ized
Ġc oun
ĠM att
Ġexponential ly
ĠV ill
th in
art s
ĠS F
Ġsimpl ified
Ġpack et
sc reen
Ġin dependence
Ġmat ters
ĠF ox
Ġent ities
' }(
ad ic
Ġsh ifted
ĠĠĠĠĠĠĠ Ċ
est amp
Ġsh orter
Ġtrans actions
ure au
R ob
Ġcoinc ides
}) ^{\
ur d
ĠYou Tube
Ġthere by
H ost
}$ ),
ord on
ĠP rim
ĠBrit ain
Ġpost s
k w
ĠPr ince
s ession
arsh all
Ġexcit ing
Ġign ore
N ational
il t
F alse
depend ency
NR AS
Ġfeat uring
Ġmechan ics
ĠStud y
Ġgu ys
hal f
ep ing
un a
bigg r
Ġto ler
olog ically
J son
e a
ĠU RL
ck er
Ġscient ists
Ġviol ation
Rel ated
Ġ ille
Ġapproxim ations
Con f
repre ne
ent h
Ġl osing
Ġcl ip
Ġdeal ing
Ġsingular ities
Ġevery where
ĠR og
Exp ression
): =
ĠS NR
Ġal ter
xym atrix
Ġappe al
gress ive
Ġhund red
ĠC urrent
ĠExec utive
Ġassist ance
hes es
V AL
Com put
Ġrespons ibility
Ġguarant ees
ĠB S
Ġrect angle
Ġimplic ations
Ġmag azine
IC E
Su pp
Ġover ride
qu ote
Ġa de
De cl
verg ent
M ac
H er
Ġun defined
um in
Ġst rain
" ));
Ġatt ended
ar ters
et o
AS E
int o
ĠV o
}. $$
sin h
Im pl
Ġm o
ail s
Ġem issions
ok ing
Ġform ing
^ *}
Th m
i at
gener ated
el le
vir tual
Ġim posed
an chor
O h
al og
s ens
im m
Ġw estern
Ġdo ctor
ow nt
diag ram
ĠWith out
V E
A ust
Ġm useum
ok ed
S ession
att ered
19 68
Ġun f
Hel per
Ġwill ing
Ġgreat ly
ĠSt rateg
Ġsee king
enn es
Ġy es
Ġarm y
Ġsched uled
Ġalle ged
Ġbright ness
ĠLat in
Ġcharacter ization
Ġflux es
n l
Ġall ocation
Ġdist urb
PE CT
k t
Ġf ly
Ġcomplet es
Ġneutr inos
Ġin cl
it ro
ĠH ong
Ġno isy
] \\
}\ )
Bl ack
197 1
algorithm ic
Ġquad r
Ġconstit u
ĠP ers
Ġsympt oms
Ġdeb ate
Ġca using
Ġpre lim
Ġh aven
Ġke V
; ->
P ublic
In tern
Ġc umul
Ġad ult
abil istic
+ }
}$ :
Ġreplace ment
ant um
q ed
er as
ĠÐ ¿
OR D
Ġg ar
Ġdevelop ers
Ġcamp us
le ments
ĠE astern
Ġsch olars
Ñ Į
u z
Ġcycl ic
c ule
)} =\
Ġwas te
Paramet ers
H P
ĠA sh
Ġcaref ully
ĠAl ice
Ġrobust ness
Ġover come
Ġaffect s
ĠC ustom
Ġsupp ressed
ibr aries
nat ural
Ġinv oke
ĠF R
ĠInd ex
Ġtransfer red
Ġag es
Ġyoung er
are n
H as
our se
Pl ay
Ġmanif est
Ġremain der
Ġreserv ed
)$ $
ĠA z
ĠL ew
Ġrang ing
3 50
A I
Ġart ificial
Ġdom estic
Ph oto
ge red
erv ed
ar ation
under brace
Ġest ate
Ġdem oc
Ġun like
n als
Ġacqu isition
ĠC ru
pos ing
ĠIll inois
Ġrese mb
ĠR h
Ġfocus es
eng ers
Ġh ospit
}) ^{-
scale box
ĠK ir
ĠBG COLOR
Ġcorpor ate
Ġconven ience
hold ers
Ġt ension
ĠN ic
Ġheav ily
Ġmotiv ated
Ġrestaur ant
Ġv eter
vel oc
Ġconsist ently
}; \
Ġex posed
cos h
, }
am ination
v ard
Su pport
ĠB all
Ġw ins
Ġleg end
Ġsurv ival
}} ^\
ĠHT ML
Ġf er
Ġexhib its
Ġd rum
Ġas ymmetry
h h
ĠY ang
Ġcl a
itect ure
Ġneg ot
ĠSim ilar
Ġar ising
Y es
se x
ĠB ad
Ġad ults
ï ¼
10 8
Ġsuper ior
Ġpar se
d ark
ars ity
Ġgood s
ou the
b ootstrap
Ġg al
Ġwe ar
ig m
## #
ask a
{ %
19 69
Ġhous es
ĠSup reme
- $\
+ {\
el astic
ĠD esc
ĠL td
Ġprov ing
T im
ĠCov id
ĠRe v
val uation
Z Z
P lease
ref n
row th
Ġtra ding
ĠCom b
Ġa thlet
Ġsol it
Ġscal ed
= }
F s
Ġsub graph
d ers
Ġmat ched
Ġt on
1 18
b one
}) }{
Ġdemonstr ates
trans ition
=" /
P G
m ut
r brace
Ġgrad ients
Ġfav our
Ġindu ct
Ġsurve ys
In v
cos ity
r in
ĠB and
vi ation
ĠĠĠĠĠĠĠĠĠĠĠĠĠĠĠĠ ĠĠĠĠĠĠĠĠĠĠ
Ġvari ational
Ġhealth care
ĠTh ose
Ġreprodu ce
Ġorient ed
}{ $
ĠSt ation
g on
ĠL ipschitz
ĠEl izabeth
ĠN N
ab i
Ġmach ines
ĠUn iverse
Me an
Ġ$\ |\
Ġdirect ory
'' .
A ng
in formation
im it
Ġconjug ate
I refn
Ġmodel ed
sh ot
Ġocc asion
Ġhierarch y
ast ro
Ġhon or
grav ity
Ġlogarithm ic
Ġg ro
Ġpro ud
ĠA ge
Ġcont rovers
the y
F lo
u j
^{ *}
Ġcommun ications
Ġmoment a
' >
ĠCons erv
Ġdanger ous
D oc
b g
ag ues
{- }
C ore
Ġtal ent
}} }}
Ġy ards
Ġw allet
ĠK enn
Ġregular ity
ĠOlymp ics
Id ent
St ar
ile y
Ġepoch s
T otal
| {\
ĠPro blem
l vert
Ġfe e
Ġprofess or
ac her
^* (\
Ġk it
h ist
Ġim per
Ġact ress
ĠEd ward
es is
S W
opt im
Ġident ities
c ue
T ool
10 3
Ġd elta
ĠAdminist ration
ey ond
Men u
Ġa wards
ter ms
ĠD am
it is
ĠL HC
ĠCl oud
Ġex port
G reen
r ically
us et
ĠH art
ĠPro duct
ĠEconom ic
ĠDef ine
Ġdegener ate
Re al
Ġcircum stances
rap ol
Ġc raft
Ġguid ance
Ġprior ity
geq slant
K K
ĠGu ard
um ann
pl ugins
ha ust
gtr sim
ens ively
ĠS ym
h ig
tra ce
er red
w he
Ġhistor ic
to String
Ġreturn ing
ul us
Ġisot ropic
Ġsp ins
ĠAn th
Ġsens ors
s olution
ir ms
Ġterm inal
c opy
g ot
Ġcrow d
er on
Ġal umni
Ġde eper
Ġ* )
aw ay
ĠDav is
t re
ĠM arg
ĠScot land
Ġref lected
ir ation
Ġbreak s
Ġmanufact uring
ĠD om
ĠSoft ware
ter ior
ĠR os
Ġintrodu ces
Ġarbit r
d c
Ġpre pare
in line
Ġco ff
M ock
ĠÂ ©
B r
' ],
F i
Ġsuggest ing
Ġsur gery
c hers
ĠPh ilipp
Ġhist ogram
Ġobtain s
C am
at hered
ĠW ales
Y ear
ĠĠĠĠĠĠĠĠĠĠĠĠĠĠĠĠĠĠĠĠĠĠĠĠĠĠĠĠĠĠĠĠ ĠĠĠĠĠĠĠ
Ġsustain able
B N
ub er
Ġwalk ing
)$ }
l st
ĠPar liament
Ġcommit ment
Ġup coming
[ ->
ĠEx ception
Ġfocus ing
Ġs oul
] :
Ġfil ed
Ch rist
t p
qu es
ĠPh oto
Ġdevi ations
f ony
J E
Ġbre ath
Ġjud ge
ĠE C
ĠF ind
Ġasymptot ically
pl ac
the se
ĠPro te
a ire
Ġear ned
le ton
Ġadj oint
ĠS H
ab atic
p adding
ĠI ss
ĠTra ining
us ual
Ġ )\
fl ux
lin der
Ġbran ching
Ġadvert ising
ĠAg ency
h ire
10 6
Ġwindow s
ard ing
ĠGovern or
Ġque ue
Ġanom aly
M o
)) )
Ġvalid ity
se en
Ġgr ate
ĠWe yl
EN D
Ġd a
ick er
ev ents
ĠReg ister
Ġradi ative
z ing
24 0
() :
diag onal
as hi
Ġc ards
ang o
Ġapproxim ated
Ġf o
Ġr ings
Ġcontinuous ly
g rounds
2 20
der iv
Ġmicro sc
ĠTor onto
ĠAlex ander
Ġnav igation
ĠJ ava
Ġhead s
add le
Ġv oting
Ġ( '
Ġb ug
Ġfac ing
Ġmut ual
ĠD irect
tain ment
ĠD aily
Ġso il
effect ive
ad er
}) :
ĠN FL
Ġr ural
S yn
S tack
19 67
Ġmeaning ful
Ġop acity
Ġstri p
le e
( $\
Ġo x
Ġcont emporary
Ġcateg or
Ġvis ited
riz ona
Ġover l
S em
ĠDis ney
P ORT
ĠAir port
ĠE mer
Ġremark able
Su per
Ġo s
f all
Ġhab it
9 00
pe ople
is lation
Ġg ray
Ġmill ions
Ġdisc i
L ook
est yle
c n
Ġobserv ing
adel phia
f m
Ġcl ar
f our
M NRAS
D raw
Eng lish
ĠS ource
Ġeduc ational
ĠP rivacy
sum er
ĠN avy
Ġrank ing
Ġinterpol ation
sl ashed
ĠReg ion
ple ments
Ġrot ating
ĠAss ert
Ġde bt
lim ate
ĠS W
; "
Ġequival ently
Ã ±
Ġparticip ate
Ġgain ed
27 0
Ðµ Ð½
Ġb aby
ĠM ill
ex port
Ġstre ets
R ule
ĠG ib
ĠSc ient
Ġdraw ing
ĠE ffect
Ġsimpl er
ĠCh apter
Ġch rom
Col lection
Ġdec oder
Ġprepar ation
ĠTe ch
[ $
re nder
mult ip
S uch
ut s
Ġconsid ers
Ġqu bits
ed ing
Ġsus cept
Ġsl ot
ĠCorpor ation
pl ugin
op her
e V
ĠS on
Ġcon sole
Ġh its
Ġprim itive
C NN
Ġto kens
ĠFore st
Pol icy
over s
Ġ( @
ĠF L
{ |\
}\, ,
Ġex clusive
P arent
Ġexam ined
Ġas sembly
I EEE
ĠC C
Ġne uro
Ġmen u
ex pect
Ġs pi
Ġe ase
C are
M SE
Ġw a
se lected
B re
j u
Dav id
Ġqu iet
p us
Ġmiss ed
Ġade qu
e eq
Ġenc oded
Ġglob ally
ch arg
pon t
! "
ov iet
G ET
ĠP O
Ġex cluded
ĠInt erest
Ġr ide
ĠK al
Ġemer ging
_{ |
ĠE ll
Ġr ising
Ġsimpl est
h arm
Ġc ab
\" {
or bit
B V
Ġag encies
Un ited
ĠCh ange
i ors
is ations
Ġleg isl
l ate
l antic
Ġo xygen
Ġnont rivial
Ġp ictures
Ġf ract
Ġcurrent s
Ġrec ip
IV E
ĠV en
Ġ ions
d v
hom ogeneous
T erm
)) =
d ynamics
Ġconvolution al
=" _
ĠE th
ĠJ SON
plement ation
Ġpre gn
ph ot
}} ;
com parison
Ġillustr ates
C ross
Ġv otes
O ct
ĠE P
Ġsh op
Ġflex ible
fra g
M eta
Ġmembers hip
Ġd ict
Ġautom atic
Ġhyp ers
Ã £
l ind
Ġemot ional
ĠF ord
set tings
Ġpers ons
r vert
with out
\, $
Ġgrow n
D IR
Ġpair ing
}$ };
writ er
E ffect
Ġreconstruct ed
be ing
Ġkee ps
Ġdis ks
Ġse ctors
ĠE ric
Ġext ending
ant ics
ins ert
Ġm outh
Ġvort ex
end or
ĠB ru
u pload
Ġattract ive
Ġassum es
al ks
ĠCh ang
r v
Ġo cean
Ġwel come
âĢĻ ,
M ENT
ĠF inal
ad ing
co hol
reg on
ĠN ick
Ġcon g
Ġmark s
Ġpar agraph
Ġqual itative
2 13
Ġtit les
ra q
ĠM ari
ta ch
ĠE dition
s ale
ract ed
Ġman uscript
L at
Ġst range
ĠCap ital
? ?
ĠCon dition
ater al
ar on
rg b
ar ia
F ind
r ceil
Ġcarry ing
Ġcut off
Ġexec uted
ĠB ox
Ġcharacter ize
ra ce
cur ve
e ah
W N
hav ior
re place
ex pl
pl ates
con sin
Ġf ruit
Ġdispl ays
Ġtrans it
and y
}= -
Ġadd itive
ĠAnd erson
Ġin jection
Ġ icon
Ġh ang
bl ing
Ġp ron
period ic
ĠC ook
Ġsummar ize
ĠI C
ĠOffic er
L ear
Ġsurpr ise
l ceil
D ue
Ġscre ening
Ġb old
Ġdec or
ĠTe V
ĠColor ado
Ġaff ili
Ġadvan tages
o or
Ġvisit ors
ĠEmp ire
Ġp ars
Ñģ ÑĤ
h m
Ġpro jections
ĠSta ff
Ġa ds
ĠP ubl
Ġprovid ers
f un
vol ume
Ġd ress
config uration
Ġenhance ment
ĠB or
Ġst ake
Ġaver aging
Test s
ĠM iller
cor r
N OT
Ġpl enty
Ġsus pect
} '$
ĠPort ug
ĠN am
inst all
K ind
Ar ch
ic ing
ĠB E
Ġinv ent
enn a
b x
}^ -
l ot
ĠEx pl
ĠSan ta
ow a
Ġcoinc ide
ast s
Ġw ider
in als
ript or
Ġh all
Ġbelong ing
Dev ice
ail ing
ĠSh ort
G T
Ġal igned
( (\
Ġhand ling
ĠCount ry
Ġreason ing
Ab stract
n ames
)$ )
= [
uset ts
Ġext inction
Ġposs ibilities
Ġout flow
Ġn od
c us
ach usetts
00 5
E arly
ĠApp ro
bo olean
Ġthought s
ĠCo oper
an th
Ġdise ases
ack nowled
Ġp ray
y y
tx t
Ġan onym
Ġbrand s
ĠCol lection
ĠC M
$ ^{\
ĠO nt
et ition
ul i
ĠP RO
ne ighb
Ġfor cing
Ġb at
Ġrecogn ize
Ġassoci ate
( *
Class es
Ġread ily
ers hip
ĠF ix
Ġphys ically
ad min
ÑĢ Ð°
) )$,
Ġlay out
). $
L U
d m
ĠColumb ia
Ġint ention
R est
fo o
ĠR yan
es ome
Ġsub mit
ĠEx perim
cos ystem
}\ |_{
pro j
A ug
Ġjo ining
ath y
Ġa ck
âĢĻ .
Ġweak er
l attice
ĠA venue
ĠY et
Ġshe et
ric s
assum ption
Ġsh r
u psilon
un ique
Ġn m
Ġmin i
n ear
Ġel ig
ĠL uc
Ġcom edy
Ġclos est
els on
Ġencoura ge
hel p
' +
Ġign ored
Ġbeaut y
Ġpublic ly
ut ors
Ġvot ers
are t
P res
ĠF ellow
Ġmultiplic ity
d on
Ġconsider able
Ġf abric
Ġcont our
sur face
mer ce
Ġoper ational
Ġintegr ating
cont in
ma ps
Ġpl astic
Ġopp on
pos itory
Ġmin ing
Ġf ake
st ation
ĠV iet
}\ |\
ĠMag azine
Ġb anks
Ġm aintenance
),\ \
ĠK at
Ġdivis or
d or
Ġrece ives
Ġav ailability
id ae
ĠE ar
Ġarchitect ures
N ames
Ġsum s
Ġexception al
Ġso ph
ex cept
Ġvari eties
le in
d k
ĠFig s
web kit
ĠD ir
ĠK h
Ġcaref ul
Ġperturb ative
Ġi i
ij k
Ġmeas urable
ma kers
arg ument
M edia
ĠSing apore
i ac
Con clusions
Ġtw ist
Ġantic ip
ĠH al
ard ed
R a
Ġsc r
Ġste el
Ġmin ister
ĠA li
Ġc ensus
od ic
ĠH ou
Ġtun ing
Ġs elling
Ġreflect s
cor relation
12 7
D u
ĠS R
ĠE T
q q
ĠPro perty
V ideo
Ġd ots
onom ous
ĠT E
l g
form ula
ĠF alse
Ġe V
co q
Ġarrest ed
M r
con vert
ĠC opyright
Ġweap ons
Un iversity
ĠS pect
L D
ã Ģ
19 64
Ġver ification
e en
Ġmag ic
H is
E rr
Ġf iction
Ġstrateg ic
Ġmer ger
cons ist
Ġpro xy
Ġs av
fe ature
19 65
H ol
re view
AR Y
Ġnot iced
class ical
Ġtransl ate
ic ip
Ġmoder ate
rel ations
ern els
ĠPro t
re port
Ġre write
ĠGold en
n oc
N umer
comp at
ĠK a
Ġpil ot
pend icular
j e
ic ide
Ġd ates
ĠT ok
Ġ\\ \
ER E
Ġinv ariants
Ġremov al
the o
Ġmethod ology
Ġ ell
Que ue
rupt ed
A ud
A K
Ġevalu ating
S top
Ġexperiment ally
Ġun likely
ran ged
] }$
Ġen velope
Ġre cept
F low
Char acter
Ġsimpl ify
Ġo k
Ġg host
10 7
Ġre nder
Des pite
comm ut
Ġsp oke
b eq
================ ================
Ġtarget ed
li ers
Ġby tes
ex ports
Sim ple
ĠC oulomb
cre en
Ġphot ometric
Ġbu ck
-- \
Ġquant ization
Ġtim ing
ell s
L u
Ġdecl ared
Ġreal ization
Ġmass less
s ame
es p
ul um
ĠR ome
Ġs weet
ĠH ay
ust ain
it led
) _\
part y
Ġdefin ite
c ers
Ã© s
\\ [
ra ge
M N
Ġprotocol s
~~ ~
Ġ[ '
ĠR O
Ġbelie f
)} }\
ang led
}$ &
ĠG raph
ĠG alaxy
ĠR aj
I con
se ason
^* ,
ĠConn ect
. -
ne cess
in der
Ġregist ration
ĠNat ural
f c
orig inal
Ġpref ix
Ġl ots
cc entric
Ġgra de
Ġrenormal ization
Ġwrit es
ĠPa per
Ġdis placement
Ġab and
bound ary
pot ent
u its
Ġto m
Ġe at
Ġop ens
ĠF C
Ġent ering
Ġre min
tr ation
T ok
ĠJ ean
Ġob server
)\ |_{
Ġinst rum
Ġperm ission
al ed
Ġart s
{ }\
ĠCh all
ab c
Ġinstrum ents
ĠOther wise
Ġbal anced
ĠU r
ĠStep hen
b n
Ġoccup ied
Ġdestroy ed
ĠTrans port
Ġapparent ly
bas ic
Ġprom ise
cm d
Ġcontrib uted
A W
ĠT ax
ĠB R
Ġcor onavirus
Ġfact ory
ĠF ro
il st
ich let
19 40
Ġte en
Ġinst ructions
M ich
Ġcomb inator
Ġc reat
e very
ĠD onald
ĠV ersion
S an
Ġcorrect ed
ce q
ĠA C
S outh
Ġprocess ed
Ġst one
Ġutil ize
Ġin line
ag ent
ĠSt ock
Ġgrant ed
t witter
Ġstri ke
veloc ity
th ur
00 2
ag on
ĠH an
Ġguarant eed
17 0
Fe ature
Ġin formed
Ġnorm ally
Ġgain s
Ġfound ation
Ġre nd
Ġlong itudinal
Ġsl ice
Â ®
Ġsc oring
Ġdeg rad
ĠMan ager
g ate
Ġpick ed
ear ing
it ian
end a
pass word
y al
\% ,
Ġcy ber
Ġmaintain ed
Y our
ĠDe ad
y ard
ĠB rian
= $
Ġhe lic
Re view
y ers
I X
[ ]{
ĠI O
Ġcon cluded
Ġneg lect
Ġarbitr arily
Ġ ðŁ
pro ve
Ġfound er
su pset
}$ ~
}}{ (
Ġvis cosity
su fficient
ĠT ai
Ġpreserv es
* {\
no on
Ġagre es
ERR OR
Ġcompl iance
th read
ou ri
Ġ[ -
Ġperson nel
Ġm igration
Ġmod elling
ĠR ose
_ ;
Ġcont rary
Ġmed al
M er
19 30
ĠL anguage
ĠSm all
sat z
T X
Ġbos ons
Ñ ĩ
In valid
Ġinnov ative
Ġfactor ization
Ġvari ed
Ġrot ational
( :
Ġsqu ared
Ġb ases
Ġn omin
Ġconsider ations
sup ers
by te
Ġgen etic
ĠS ho
ĠD oug
ivers ary
Ġack nowledge
ĠL es
Ġco arse
R ect
Ġsil ver
Ġg ates
Ġcry pt
Ġindic ator
ic i
Ġamb igu
m icro
Ġint ent
degener ate
ak h
k ar
}, $
equ ilibrium
block List
Com ment
ĠO p
C y
ub s
idel ity
d ue
Ġgl uon
des ign
ĠN ether
ĠM E
Ġdwar f
W ho
ĠB uff
app oint
Ġg amma
} "
ĠCon st
19 20
RO M
iv ated
const ruction
on omy
Ġvalid ate
Ġb rown
ur ated
Ġentertain ment
back s
Me V
Ġtal ks
ï ¿
Ġb ought
Ġn ob
Ġs ends
Ġt ip
integ ral
w ick
* }\
Ġadv is
ĠĠĠĠĠĠĠĠĠĠĠĠĠĠĠĠ ĠĠĠĠĠĠĠĠĠĠĠĠĠ
Ġn amespace
ĠB attle
ĠL ater
L oc
ĠF A
om eter
Ġco herence
em pl
ĠIs lands
pg f
lic ations
ant e
L ag
anc el
t m
Ġinteg rate
g ap
S eg
att ices
Ġmere ly
ĠM aterial
ĠPhys ics
L eg
Ġtw enty
L ie
Ġin jective
Ġsynt hesis
Ġde als
De lete
Ġpair wise
par ing
C ustom
Ġneur ons
ogn itive
t ry
R F
L em
ram es
f lix
Ġaccom pan
Ġhom ology
Ġanomal ous
10 9
Ġind irect
P aram
u in
B G
Ġf ro
ex ception
Ġf estival
bs ites
Ġdoll ars
ire ment
ĠD ifferent
ĠFin ancial
A pi
r k
Ġsent ences
ĠI l
Ġcont ents
en ant
ro le
Ġimag ine
Ġw ing
> .
Ġatt ributed
Ġtra il
Ġp ric
Ġreg ulations
Ġin ert
ĠDemoc rats
Ġtrans parent
Ġm as
cons ider
Ġpreserv ed
Ġform ulated
Ġelect rical
$ ^\
Ġ+ +
h ref
ĠCa uchy
c as
ĠĠĠĠĠĠĠĠĠĠĠĠĠĠĠĠ ĠĠĠĠĠĠĠĠĠĠĠĠ
Ġapp endix
Ġsubstant ially
33 33
In s
Ġnot able
^* _{
Î ¿
}) ,\
ĠS ab
Ġrank ed
P arser
Ġs quad
Ġprof it
Ġsub mitted
Ġim pose
Ġad missible
Ġplan ar
Ġs ake
ĠS oc
i ot
Ġestim ating
ĠBuil ding
n as
Ġdepend encies
Ġcalcul ating
iam i
Ġguid elines
D ay
Ġs oci
c v
N otes
Ġ ).
Ġrequest ed
dec ay
spe ed
W riter
Ð ·
acc ount
Ã£ o
acknowled g
Ġcons ensus
d etail
Q U
\ `
Ġbi ological
ĠO s
Met adata
ĠC F
c u
ĠIn nov
iss ues
ĠD utch
ĠVictor ia
)$ ;
}\, .
Ġsh ips
M or
Ġbehavi ors
ĠH ad
M W
eg as
ĠW ars
Ġregular ly
ĠDe ath
Ġstr at
Ġvictim s
Ġinvert ible
Ġemploy ment
Ġm ine
item s
Ġcere mon
ĠTh anks
11 4
ĠT ask
Ġre pair
Ġ< =
S at
| }\
al gebras
Ġ& -
> ();
ĠC ab
Ġas set
Ġhouse hold
Ġprelim inary
ĠAssum ption
Ġimpact s
Ġmagn itudes
Ġsit ting
Ga ussian
prim ary
Ġfac ulty
ada pt
Ġt rib
pat tern
Ġb ass
ĠC ulture
Ġm apped
19 66
re a
im eter
mon th
Ġsk ew
Ġappro val
Ġby te
j ar
h ad
ĠA rizona
F ields
` .
P tr
Ġthere in
Ġex haust
ĠC hen
e igen
are a
pd ated
as m
RE E
Ġleg islation
ĠR est
Ġmod ulation
ĠV in
weight ed
app endix
Ġant ib
G ood
Ġ[ [
P AR
Ġrig id
Ġ âĢĻ
h over
.\ ]
ew ise
ĠEd itor
ĠCle arly
Ġhost ed
Ġtransport ation
Tem plate
S cale
d am
Ġinfer red
ze ch
V I
n ik
Ġcov ariant
Ġs ke
Ġk ernels
st ats
ĠThe ory
Ġar row
h us
Ġimp ressive
ĠOx ford
A x
C ur
Ġw ine
ss on
ĠMod ern
Ġperman ent
igen ous
st ery
Ġtw isted
Ġaware ness
B ody
ĠD a
Ġd ose
Ġspe aker
Ġre volution
ĠW el
Ġt elling
ik ip
Ġcut ting
Ġk illing
ĠMethod s
Ġthermod ynamic
Ġexcit ations
ly n
Bo olean
Ġpo inter
m iddle
d dot
Ġoptim ize
ĠBer lin
4 50
plac ian
Mem bers
z one
Ġport folio
Ġe gg
Ġdiagn osis
T or
ĠR oss
Ġpull ed
ĠMass achusetts
dis abled
Ġc oding
)- (
Ġw ra
ro magnetic
tem p
ira ble
b ing
Ġatmosp heric
own ed
Ġhe ur
bound s
ĠPl ace
Ġsw im
ĠM oh
g uns
ĠD er
Ġs aved
ed it
Ġin coming
Ġs ought
Ġdev oted
ĠPhil adelphia
Ġp aram
ĠInt eg
w ait
el lect
Ġoutper forms
ag ger
Ġb acter
over rightarrow
Ġme ets
S end
Ġm g
Ġconnect ivity
f p
Ġpol es
Ġn ic
Cor ollary
ĠM ember
ĠB ridge
Ġpolit icians
at ial
S to
ĠSt ill
ĠH u
e b
Ġmes on
o T
c ert
ort ed
vari able
em bed
abl ing
ĠO regon
Ġmotiv ation
Ġcap ability
Ä ±
Ġcomple teness
ĠA k
ĠDo es
, $$
Ġdem ands
is p
play er
ĠM I
12 4
Ġfall ing
ĠJes us
Ġdecl ine
Ġfac ed
14 4
Ġf asc
ĠS ri
Ġabund ances
Ġnucle us
ess ages
Ar gs
Def ine
» ¿
Ġto x
Ġrac es
)} ]
SE T
le ted
Ġwar ning
Ġhor se
Ġcontinu ing
ĠWis consin
Ġexplo it
Ġdes ire
Ġlog ical
ĠS ect
ab ul
ĠW i
pl er
att ribute
Ġb io
ĠK evin
Ġt aught
Ġfrequ ent
od a
iz z
tra in
Ġin herent
Ġmod ifications
$ ~\
ast y
)) ^
b racket
Ġ }(
Ġin valid
Ġknow ing
Ġpoint ing
ĠI raq
ug by
Ġcont est
Ġcour ses
B a
horiz ontal
ĠC V
Ass oci
W rit
Ġth orough
ad joint
ĠW ang
Ġcomb at
d etails
ï »¿
Ġgeom et
us ive
Ġdecre ased
ĠF O
ĠT a
check mark
se a
Ġco res
s ymbol
Ġcoff ee
ĠC u
Ġart ifact
ikip edia
ĠRes ources
Ġext rapol
M atch
Ġcr ash
Ġlo an
Act ive
. ]
ĠO cean
St orage
erv ing
` ,
'' $
Ġsub str
Ġpolit ician
ï¿ ½
ĠM it
ĠC ore
Ġaccord ance
ĠK now
ĠR F
ĠP os
ĠM ars
ĠD rag
S pan
Ġaim ed
k ernel
ĠNether lands
ĠHar ry
D ialog
Ã Ĥ
C ent
Ġswit ching
ĠS S
ĠHistor ic
Ġphot ograph
pan cy
P y
Ġwork er
Ġwire less
Ġsy nd
ĠP ract
Ġwhe el
Ġfootball ers
M art
os ph
su it
ĠA mb
ĠB at
}) +
Ġf illing
Ġcheck ing
ĠCamb ridge
__ (
Ġ" /
ĠF all
11 3
ĠTh ough
an es
Ġgu est
D etails
Ġhighlight s
dot ted
at im
Ġdiv ide
Ġhapp ening
cont roller
Ġincor rect
){ $
g overn
Ġt orsion
ed ef
Ġast ro
Ġcheck s
Ġturbul ence
Ġl ying
Ġinst ruct
Ġmac ro
Ġvol umes
M AP
Ġlabor atory
b log
ĠAcc ount
id x
Ġcompan ion
Ġpro hib
ĠC reek
2 10
ĠDis c
Ġac oustic
Ġri val
ĠH ung
Ġc up
ol s
Ġsp iral
pro fit
]{ $
Th ree
Ġt et
f ollowing
Ġelse where
Ġ Ï
Ġdiff e
mathb in
ĠT reat
f b
ub y
Ġt issue
Ġsol di
G Hz
Ġin frared
ĠT am
Ġmorphism s
ĠL A
Ġbary on
ĠSt adium
R oot
Ġre put
inter val
st ers
ĠO N
Ġwonder ful
hook rightarrow
ĠI mages
TE ST
ĠKore an
Ġdetermin ant
ĠT an
ĠB BC
Ġb ipart
ĠD ream
Ġassist ant
eder ation
cal ing
lim ited
grad ient
ial s
Ġinter vention
Ġp itch
Ġminim izing
Ġ( *
om as
ac on
Ġsoldi ers
T L
be an
Ġhol iday
M atrix
ĠW inter
Ġsuper vised
Ġ> >
Ob j
ĠEX PECT
ĠP it
Ġs ad
or ne
ĠComm and
M ath
b os
et ics
}} -\
sche me
S Y
ĠNAS A
] _{\
ĠS oviet
ent ropy
St r
ĠUn it
ĠB orel
ĠLe vel
Ġdro ps
12 6
Ġrel ate
eng ine
Ġuns igned
Ġmed icine
Ġdocument ation
atter ing
ĠSqu are
ĠF arm
Ġb omb
L ight
ĠN ations
W ang
ĠM oon
Ġoption al
ĠTh ird
\ @
p ing
ĠSen ior
Ġbe ar
aw n
ar o
M ass
est imate
11 7
A pr
12 2
ma j
Ġeng agement
ĠS ite
Ġhouse holds
ĠLew is
Ġpurch ased
ock er
Ġt iny
Ġpart itions
Ġa z
Ġutil ized
Ġoppos ition
By tes
IG HT
li ance
Ġse ats
Ġph arma
Ġhost s
W A
Ġexec ute
Ġcoll aps
Ġ\ )
contain s
Ġpro to
P ool
Ġdevelop ments
im ated
Ġfacilit ate
Ġve get
f d
}{ .
Ġstructure d
condition s
Ġtri es
Read er
Ġsole ly
Ġro unds
Ġcompar isons
Ġm ild
ĠW I
ĠW ord
Ġoffic ially
Ġk pc
ound ed
method s
ĠAnt on
ĠL E
Ġen umer
scal ar
ĠP aramet
represent ation
ry ption
ĠA bb
over view
Ġanc est
N orth
ĠG h
Ġmaintain ing
olog ists
L ike
T F
Ġe cosystem
rug gle
Ġiter ative
Ġo vers
Ass ert
Ġnarr ative
Ġh ook
Ġelectric ity
st ance
ce ive
m ask
ĠAl tern
ou ter
ĠH R
V M
-------------------------------- --------------------------------
ĠG allery
chang es
ĠHol lywood
ĠCan cer
Ġ' /
Ġover head
G F
Ġtra v
M ember
Ġa xi
d ig
Ġrecommend ations
c op
app y
E uro
Ġprofession als
or ry
Ġdifferent iable
Ġm a
is ode
ou b
um ar
B it
ĠLe ft
Ġbas ically
Ġsim ulate
l ag
Ġs essions
Ġsear ches
Ġfe es
ĠP L
ĠL P
Ġm art
Ġre ject
ater n
17 5
no align
â Ħ
amilton ian
ĠF a
elect ron
Ġar rows
Ġfra ud
^+ (
\ >
f ollow
Ġuniqu eness
t u
ne ut
S ep
Ġto ugh
ta ken
Ġsol o
Ġevolution ary
G al
Bu ild
Ġle ct
Ġr um
oc a
ĠOnt ario
ĠA B
ĠB log
Ġst ood
Pack age
ĠP ur
triang leq
ank a
Ġdiff ers
Ġper pendicular
Ġtr im
Ġhierarch ical
Ġdis ag
Ġbo ys
ed ding
.\ ,\
P erm
ĠR L
ĠJ ane
ĠLa ure
_{\ {
ho ps
Ġl ob
ĠCh annel
system s
Ed itor
, +
N ormal
lap se
Ġt idal
Ġim plements
19 63
Ã© e
pl ots
ennes see
the w
M icro
Ġb undles
| $.
., ][]{
b urn
ĠHe art
Ġenjoy ed
Ġrail way
C opy
Ġreg imes
sc ore
Ġeng aged
ik a
Ġincorpor ate
; <
r ates
Ext ension
Ġh at
w hat
Ġle pton
Ġenc ounter
ĠB esides
Ġsk ill
St and
Ġgre y
rot ate
Ġf inger
ĠH ur
ĠPer formance
Ġincorpor ated
Ġp odcast
Ġnot ations
Ġf old
Ġdisci pl
fill draw
ĠE s
Se curity
U D
Ġille gal
H A
Ġp our
ĠRiemann ian
the ore
im p
Equ ation
Ġgeneral ize
P ER
Ġun expected
Ġlist ing
Ġindu ce
arc el
ĠE M
nabl ed
Ġsure ly
Ġpreserv ing
ig e
ig a
Ġbelie ves
Ġsuff er
ter y
Ġman ual
G W
). \
rac ks
ĠS A
Ġanisot ropy
Ġsto pping
Ġg aps
Ġredshift s
} --\
Al gorithm
Ġreview ed
Ġcompl aint
H I
Sing le
ownt own
Ġconc ert
\ ),
ĠH ave
Ġb tn
Ġins pe
Ġle ver
ential s
Arg ument
KE Y
Ġimpl ied
Ġassert ion
ĠTur key
V ir
Ġif f
JE CT
en able
ĠN ash
Ġsuff ered
Ġconsider ably
Ġoscill ation
g it
f und
Ġblock chain
ort he
ĠPlan ck
Dis cussion
Ġinflu enced
Ġmob ility
U K
Ġne ck
om ot
Ġemphas ize
|\ ,
v dash
Ġfund ed
R ich
f x
Ġair port
Ġpredict s
Ġeas tern
cess ion
Ġsupp ress
ĠTur k
ac cept
ĠBel g
De bug
}: \
fit ting
X Y
Ġ Ø
ogene ity
Ev ents
bour ne
ĠL ady
spect rum
g ue
Ġc rack
N a
Ġp ion
Ġgradu ally
ke V
I ES
Ġsub groups
ĠH E
ĠK ansas
Ġdimension less
i ology
Ġin version
ester day
Ġwith draw
W est
App endix
Ġh ate
Ġsupp lement
Ġmon omial
Ġdiss ipation
Ġnews paper
w en
Ġback ward
Ġd uty
Ġ\ %
B ro
ut ter
19 62
Acc ount
H a
11 6
app ly
Ġrec ur
Ġrem arks
}) }{\
ON E
ĠChampions hips
Ġbound ing
}: =\
12 1
C oll
ĠDi ego
Ġpat ches
Ġch ampion
au er
Ġconc aten
Ġpl ain
Ġl y
= &
ĠV AL
Ġtransform s
Ġn ur
Ã¡ n
ok er
Ġrun time
d imension
ĠS ix
Con tact
flu id
Ġprob abilistic
ĠE arly
ig roup
ĠF r
19 45
ex ternal
Ġb ubble
ĠS av
ĠS yn
iv ities
ĠTra vel
Ġwe aring
Ġc asc
Ġbo at
ens ing
b undle
b us
ĠF red
][ '
Ġvocal s
Ġsurv ive
Ġrelig ion
Ġprot est
âĢ ĭ
Ġpredict ive
ĠPart ners
Ġdiscrim in
Ä ĩ
Ġro oms
H ig
1 19
Ġs pont
Ġre jected
Ġe ccentric
Ġparticip ation
Ġelim inate
Ġclos ing
ĠRef s
FA ULT
Ġselect ing
Ġrel ating
nu cle
Ġpay ments
Ġg ram
ur is
ĠAn aly
Ġf rust
Ġpark ing
t ip
Ġ( [
t oggle
Ġattempt ed
ĠSy d
al p
Ġo ct
Ġconstruct ing
Ġast ron
st an
ph an
ĠN P
ĠCon tact
u f
em b
ag an
Ġsearch ing
Ġf irms
ĠP ed
Ġexpert ise
N orm
Ġdialog ue
ĠT en
Ġst yles
Ġinteg rable
ĠJ am
Ġcor ners
Ġj un
Ġafter noon
h idden
Ġe lem
Ġj son
^+ _
W R
v ideo
Ġdec oding
Ġclub s
ele ments
ia o
ĠP rom
ĠO ption
ĠUn fortunately
Ġcontract s
ign ment
}$ \\
ĠEnter tainment
Ġdistingu ished
Ġdis put
Ġobject ives
Ġlist ening
Aut o
OD O
Ġfilter ing
it ting
2 30
m ot
V A
Ġk il
Ġneg lected
re ction
Ġdifficult ies
Ġtrans c
=" "
ithm etic
Ġfra ctions
ĠR ow
ĠD ise
Ù Ħ
am ents
and o
Ġint ra
ah ler
ip ality
az a
Ġt all
=\ !
Ġdisc ount
m ock
Ġtro ops
Ġdog s
, ...
) "
Ġexpl oring
Ġload ing
g h
Ġdefe ated
Ġhar der
in ality
hy thm
ĠSD SS
all oc
ta h
Ġmot ions
ĠHot el
ĠD ra
ch ant
Ġhighlight ed
ĠL iter
ĠBo olean
Ġwe bsites
By te
Ġb att
}= -\
Ġbro ke
ĠT ree
z hang
al go
B rit
ĠN i
bre aking
z i
s ymmetry
ĠV i
ish ment
clus ively
g as
ĠSe veral
un ning
Ġsynt hes
Ġgener ations
re tt
fore mentioned
que ue
ĠArg ent
Ġan chor
Ġst em
n an
an notation
ĠProv ince
^* $.
L arge
ail ure
sq l
Ġwor ry
Ġcam eras
ĠV ice
Ġincre ment
ia h
Ġoccur rence
t c
Ġto wer
IT E
Ġchampions hip
Ġany where
L ayer
Ġor ange
Ġste ep
Ġen forcement
at om
Ġc f
osp here
Ġinj ured
S k
N at
; /
approxim ation
car las
ow ed
carlas guns
bas is
Ġbase ball
^ -\
Pro duct
S G
n orth
) )}
Ġ' '
cal ar
ĠHou ston
Ð ¿
cle an
Ġconserv ed
Ġl ib
Rem ark
Ġret ired
Ġh ur
ĠM R
Con dition
ĠMo ore
Ġs ed
Ġprov ince
Ġorgan ic
arc sec
Ġcomplex es
bur st
Ġwin ds
Ġexhib ition
P ay
all as
\ ).
s ave
Ġro of
ĠF ront
Ġwin ners
pp ers
J ac
ĠAd S
ard o
Ġde form
ĠY uk
By Id
Ġtriang les
G ame
Ġmer ge
}{ -
te chn
Ġad i
ol as
ynam ical
Sym fony
Ġput s
in ch
pol icy
Ġmeet ings
@ {\
ĠCl aim
Ġstreng ths
X T
over ning
}}{ {\
ĠW as
ĠHar ris
con vergence
Ġb is
ex amples
ĠO t
qu al
! }
ta kes
00 3
rosc opy
Ch annel
ĠS ound
set up
l ad
Ġinst ruction
b atch
D s
) }^{
Ġpolar ized
Ġth resh
Ġmole cule
pro gram
equ ence
C at
g auge
E nabled
al ph
Ġoccur ring
ĠF un
Ġg aming
ĠAff airs
Ġbur st
}} |
}} }(
Ġevol ve
ĠReg ional
Hand le
ray s
s witch
ET H
res et
Ġacc used
Ġb ol
sc roll
$ ]
Ġlet ting
Â ±
Ġcar ries
impl ies
ma xim
the ir
}} %
ev olution
. __
Ġeng age
Ġaccept ance
Ġag ed
Ġjav ax
â ĸ
ou rag
Ġfit ness
F N
U ST
ex istence
ĠG ree
ĠÐ ²
ĠC MB
Ġ{ '
phys ics
Ġsuper nov
Ġens uring
He alth
Ġatta ch
AR E
ation ally
Ġal ive
qu et
utr ition
ĠDef ault
ret ch
mem ory
est abl
)}\ \
Ġv ic
ĠPri ze
Ġgrate ful
Ġpass age
p n
ut er
Ġdeep ly
Ġadjust ed
multip ut
Ġev il
Ġa forementioned
che m
Ġv ital
Ġsimplic ial
ext ension
f ac
on ds
P DF
Ġg arden
Ġion ization
Ġachie ving
oc he
FI LE
ĠU l
Ġpar a
Ġthous and
) ]{
Ġtra p
arg o
ĠFig ures
. *
av ailable
D an
ĠTra de
ĠO S
ĠT ab
ĠL as
Ġplan es
. ][]{
Ġterrit ory
w ho
T I
col lapse
Ġcontrib utes
con e
im ir
Ġdepend ency
Ġprov ision
Ġt ank
ĠPol and
Ġp ushed
other wise
oun ces
aver age
_+ $
D iv
ut her
inter pre
Ġflex ibility
Ġprior i
Q CD
IN D
ĠC orn
Ġrac ing
rit ical
Ġrem ind
L ife
Ġfin ance
D er
Ġpropag ator
Ġt ube
Ġfl ags
Ġun e
ĠT i
{ #
qu arters
Ġla id
Ġs ick
] +
Ġo d
ĠAut o
Ġle pt
J SON
g ly
Sh ort
ĠS elf
Ġabs ent
U LE
ĠJ osh
anc ell
at omic
ĠFore ign
ĠIndust ry
ĠR ick
ĠRec ord
uss ell
Ġbl ind
inem a
ĠG Hz
19 2
Ġevol ved
{- .
ĠStud ent
ve ction
Ġmaxim ize
Pr int
Ġcele b
w ild
Ġmove ments
i est
if iable
raz y
Ġfermion ic
ann on
Ġpay ing
ĠÃ ł
Ġsupp ression
call back
on der
Ġrad ical
Ġl ad
Î ½
]{ @{}
Ġext ensively
Ġcy linder
ro se
Ġj unction
man if
ĠArt icle
Ġpass word
ĠAt lantic
. [
B er
Ġgra in
Ġcy lind
Ġmet adata
f erm
Ġal cohol
am ps
P rim
im ath
B al
| ,
Ġweek ly
Eng ine
ĠD ocument
lan ta
14 5
ĠSaf ety
o ys
rel ative
D iff
p rior
am az
Ġsh ots
Com mon
F ore
Ð¾Ð ²
ĠSyd ney
Intern ational
ĠD og
um my
Ġ( .
Ġestim ators
ĠG ab
MA X
act ing
in cess
Ġcontrib uting
2 25
ere r
Å ¡
Ġneighb oring
ĠM iami
ĠSh ould
L ock
t f
tz mann
ĠT ony
ĠWh it
Ġst ruggle
Ġte ach
r h
ĠSim on
Ġgradu ate
Ġf urn
Ed it
ra pe
Ġiniti ative
wit zer
Ġf ranch
Ġconsequ ently
ĠAll en
Ġu ps
Ġt ub
Ġinj uries
Ġh az
. \,
rib le
Ġfem ales
Ġent reprene
Ġass ault
int erest
ĠB ry
ĠJ ay
Ġaw ait
sche ma
Ġ$( {\
enn y
Ġun usual
associ ated
j query
H F
u y
Ġgra phe
Ġcapt ures
Ġser vers
ĠN ode
19 61
}^{ -\
ĠG P
Ġinvestig ations
T w
Ġdiscre pancy
Ġt ied
Ġspat ially
Ġstat istically
s it
Ġen emy
ĠK y
b v
Ġaccompan ied
ĠT aking
ograp her
S y
te ch
fore ach
Ġgr ass
Ġcar rier
Ġwavelength s
âĦ ¢
w hel
Ġexp ans
Ġkn ock
prop ag
ĠLe on
Ġprote ins
on na
Ġadvent ure
it ure
=\ ,
m g
Ġqu en
Ġ Ñģ
Ġgu ests
Ġsus pend
book s
ĠD id
vers al
ĠM ove
Ġreli ef
we ek
se lection
Ġreson ances
Ġsettle ment
Ġtempor ary
over ty
' ^
C ast
19 0
ad j
ris es
ine q
ĠS ant
Ġl ux
h our
ĠBro ther
Ġingred ients
w d
Ġn g
ur ious
tes y
Ġinv ited
^* $,
Ġ ...,
Ġb ij
Ġrele ases
Ġvis iting
Ġg ran
Ġas ks
un ov
Ġ= &
in cre
â ĪĴ
per formance
Ġres et
ĠPat rick
Ġcont ours
Ġsc ul
Ġball s
Jan uary
g han
el and
AR S
Ġdis miss
Ġannih ilation
B et
ĠP ier
F inal
ĠPl us
_{ *
us ers
[ [
ter min
Ġpublic ations
Ġbir ds
}}( {\
U SE
Ġtra ins
Ġear n
elf are
Ġcomm ands
reg ister
i u
Ġdifferent ly
Ġtroub le
. (
Ġ ic
ĠE mb
lem an
Ġcomplement ary
D G
Ġinter fer
Ġreli ability
Ġw et
S B
W I
ang a
Ġjoint ly
ĠI L
Fe b
net t
Ġspect roscopic
ĠP ow
Sim ilar
. :
H o
hand ed
T ake
ĠSt ore
g ression
Ġi Phone
Ġinfin itely
Ġaccount ing
Ġrout ine
ob tained
ĠSt one
Ġcor ollary
Ġpresc ription
Ġconduct ivity
Ġpaint ing
witzer land
ffic iency
g re
Ġrepresent atives
Ġout lined
Ġstream s
n odes
ç ļ
Ġdamp ing
Ġche ap
Ġillust ration
ĠB ureau
K n
O B
Ġadministr ative
S ymbol
Ġshort ly
Ġ& =\
sh aped
as ympt
Ġtransl ated
ERS ION
if i
ĠSil ver
o ft
-\ !
Ġep id
3 20
5 000
C opyright
Ġtrans mitted
Ġcumul ative
sq cup
ĠM un
ur c
Ġval ued
Ġdefect s
cl ust
Ġtrac es
Ġbeh alf
rain ian
Ġpro sec
Ġaccept able
Ġestablish ments
Ġfriend ly
Ġp or
Ġint ense
Ġconstra in
n il
qu ir
label ed
wid get
Ġspec ification
d ays
ĠT ennessee
;\;\ ;\;\
pert ure
or ption
ĠCl ark
Ġanalyz ing
Ġrele vance
: #
br and
Ġmonth ly
Ġro utes
Ġhypers ur
ĠScott ish
ĠT ool
che stra
Ġcancell ation
ĠN ature
ĠT ag
ĠN ative
ĠYear s
c ir
ĠSar ah
ĠB urn
ta king
ol itan
st ration
rel ativistic
Ġmodul o
ĠPal est
ĠApp lication
um s
Ġphot ometry
and al
Act ivity
yn man
prob ability
Ġcont raction
Ġr uled
r Vert
//////////////// ////////////////
Ġoff ices
ethe less
ĠG un
G rid
dis k
Ġp ione
0000 00
in aries
Ġill um
Ġcomfort able
ĠPrem ier
inc ar
Ġz eros
Ġdr ink
Ġcons ent
Ġpre val
ĠR on
Will iam
\% .
Ġreson ant
Pro b
f ar
Å į
Ġ$ ^
Ġbroad er
child ren
ĠS hi
os itory
3 000
Ġcol lections
ĠAnn ual
ĠC os
ĠR GB
F ace
Ġmanag ers
' _{\
Ġdis appoint
Ġd ies
w ich
van ishing
ĠW H
Aust ral
10 24
ĠK han
Ġload ed
}} [
d n
Ġid x
ĠC ow
ĠDef ense
ĠMem orial
Ġpe er
ĠBan ach
Ġle verage
ah n
Ġperson ality
ĠEnvironment al
el ve
ĠP rice
Ġtext ure
N F
Ġneighbour hood
Ġvulner able
Ġm asks
Ġfl ash
ĠRepublic ans
ol o
vent h
W indows
L AS
Ġpar abolic
Ġf lying
Ġon set
S cope
="../../ ../
Ġquant ify
Con stra
ĠInd ones
çļ Ħ
E s
ĠS FR
art z
Ġmon op
LO G
ne e
aud i
US Y
Ġle gs
Ġbos onic
Ġanim ation
Ġconcent rations
Ġparamet ric
err ors
Ġturbul ent
@ "
Ġch at
Ġill ness
ĠJ e
Ġgovern ments
ĠG reg
ĠAl f
Ob serv
Method s
T aking
le ep
M etric
at io
Ĩ Ĵ
ck s
R et
ĠI owa
Ġwat ers
ĠWork ing
produ ction
ĠDir ichlet
Ġb eta
Ġem otion
Int eg
Ġc ot
Ġsoph istic
ĠL am
W he
z an
ĠC redit
Ġdes k
ĠO k
iv a
en h
Ġun changed
HE CK
ĠP as
13 2
ellect ual
ub a
Ġserious ly
ma ker
Con struct
ĠB ab
Ġsumm ation
Ġkinem atic
Dis play
Ġres ort
Pan el
Ġla ugh
ĠD B
Ġgen es
ĠJew s
end o
m ill
orig in
M OD
Ġad mitted
Ġt ropical
sp ot
==== ==
leg al
Ġgovern or
ator ial
S ever
Hel p
j an
Ġout line
ĠDu ke
c od
M arch
coupl ing
A lex
ol k
ol y
ĠC ert
Ġsing les
Ġimplement ing
, '
() ));
}=\ {
Ġc ow
mid t
ĠC hern
ĠN az
Ġsat uration
Wh ite
grad ed
Ġret ro
Ġhad ronic
Ġmanag ing
ĠN orm
sub ject
. }}
Chang ed
resol ved
j our
NN s
ĠIndian a
ab ama
Ġback grounds
Ġinstance of
Ġtack le
Ġo mit
Ġpref erence
ĠEconom ics
outhe ast
Ġpropos als
ĠM obile
Ġbon ds
st ock
t ons
Ġm sg
Ġes cap
Ġroad s
ĠStud ents
bal ance
Ġsudden ly
ĠC I
Ġnon negative
key word
at z
ĠD or
Ġhe ll
Ġsp ots
v ity
cont rib
Ġnorm s
M ult
Ġmem brane
! [
E mail
Ġh tml
Ġbe ach
do es
}\ {
t ures
Ġlab elled
b ir
e cho
ah oma
19 58
ĠOrig inal
ĠMary land
at in
Ġfunction ality
Ġmagnet ization
Ġbus y
Ġout standing
ĠNiger ia
ann y
× Ļ
ĠSol ar
ll ll
ĠL ib
Ġt elescope
Ġconf usion
ĠR oll
ri ends
Ġpre mi
Ġoper ates
Ġreg ulation
Ġdescript ions
big cap
19 52
Ġpl ug
Ġdist ortion
Ġt aste
Ġcon cludes
Su ccess
ĠSt ream
In f
; }
ĠF isher
ĠSe lect
Ġsp acing
Ġoff ensive
pos able
Ġanaly tically
n od
) }}{
Ġw alks
Ġray s
tool s
le v
Ġminim ization
Ġhe x
Ġs i
Ġcompet e
Ġm ail
ĠSch olar
ĠM rs
Ġc us
Ġmetall ic
ri k
as hes
ĠPy thon
p red
p arser
Ġd b
ut ations
ĠC limate
oc o
ĠRel ations
Ġas ymmetric
J S
Ġdeploy ment
omorphism s
Ġle ak
em et
Ġvis its
riv ially
ab stract
ĠMan chester
' }{
S om
T oday
Ġanalog ue
D ouble
dat aset
work s
ĠOlymp ic
ud a
p u
)\ ;
Ġelig ible
Ġgraphe ne
ĠK it
un es
Ġautom ated
proto buf
Ġrecommend ation
Ġdeploy ed
ar ry
Ġdist ant
Ġemit ted
Ġm eth
l c
In ternal
M usic
che ll
tikz cd
Ġun de
GB T
Ġt ur
. }.
ĠAg ric
ĠW y
19 57
Ġcon scious
ĠT rack
uns igned
V ec
ĠAnth ony
Ġj oy
B ERT
ct rine
Ġout break
Ġpreced ing
m ade
ĠE ss
ole v
ĠB io
pie ce
ĠM ult
Ġhor ror
Ġconstant ly
Ġsem antics
Ġcombinator ial
Ġm ales
^* )
Ġw ake
ld s
Ġro se
ĠAf ghan
Re port
C ategory
Ag ain
e ast
Ġtheorem s
Ġvol at
() {
Ġcomp ound
ro d
Ġrestaur ants
Ġcol ored
ĠMay be
Ġcomp ress
j j
ĠK o
Ġtens ors
ro it
ord inary
Ġaggreg ate
ac les
Ġocc as
ĠSm art
Flo at
hy dro
Ġarrang ement
r ison
section s
ĠNet flix
U B
li u
w ind
Ġan satz
ors es
19 59
Ġide als
15 5
Ġax es
if urc
Ġax ial
Ġhas n
ular ity
ĠRe volution
Ġequ ity
x s
{ -\
Ġan xi
Dep end
S un
Ġincred ible
Comb ining
Ġcompet ing
l Vert
Ġqual ified
ĠRe act
ĠR andom
ĠE ag
)^{ -\
Ġen code
Ġel abor
Time out
Ġhe li
Ġ} _{
ĠAust in
ĠH ubble
P ress
r if
prot ected
AR D
ĠRes Net
Ġchild hood
ob i
w estern
Ġleg it
Ġuncer tain
Ġpresident ial
13 6
exp ression
E nergy
Ġd ictionary
bi ased
nt il
ens en
col sep
ov es
Ġp ic
ole cular
ĠRes ource
T HE
FF FF
Ġwat ched
ut o
Ġh opes
o il
P ower
M iss
au ra
} ''
Ġdocument ary
Ġsens ing
omin ator
Ġtick et
7 50
Ġde bug
f lex
Ġcoupl es
Ġch amber
b ol
u is
Ġin clusive
Ġcooper ation
Ġut ter
t l
ĠK elly
Ġfarm ers
&& &&
uls ion
ĠN ich
| ^{\
orient ed
P al
L INE
integ er
ĠT ogether
IF AR
Ġh ockey
Cl ose
Ġbin aries
bran es
ĠWhe ther
ĠPh ase
Ġlaw yer
ĠP ublished
Ġreserv oir
ĠSwed en
m art
ĠS ED
Ġred und
constra int
Ġmicrosc opic
ĠT otal
ĠProte ction
col n
I ll
ograph ical
ĠMat hemat
ĠMiss ouri
ather ine
Ġsub script
Ġoccup ation
Ġh ide
Ġr anks
}^{ [
Ġaddition ally
Ġmodul us
ĠF ight
e or
Ġm im
ĠTh ings
Ø ±
Ġt rick
Trans action
O UT
Ġcopy right
Ġfluct uation
12 9
Ġsur jective
inter action
P ut
S en
Ġdefe at
ĠO ak
Ġt ags
ĠB uck
Î µ
Ġreg ret
Ġ% }
ĠL LC
Ġch ronic
Ġbran e
Ġinspe ction
av g
ĠCh ap
Ġcounterpart s
ĠMean while
Ġar ithmetic
Ġu pload
] ,\
harm onic
Ġv oted
im uth
L java
verb atim
Ġb racket
ĠWith in
ther mal
ĠG ram
ĠOffic ial
W atch
ha o
Ġconcent rated
Fl ags
$ _\
Ġl ag
Ġl ibraries
ĠCom ments
Ġatt orney
ado op
)$ :
Ġleg acy
Ġhypot heses
Im port
tab s
\% )
Ġoscill ator
l it
end ment
c z
)\, ,
Ġc ref
13 4
Ġregul atory
ass ets
Acknowledg ements
S ample
Ġb il
An n
id ation
ĠFin ance
F rag
Bas ic
ge on
( !
Ġshe af
ĠNe ed
Ġtick ets
anc ies
Ġphil osophy
g age
ĠR ound
ĠN eg
Ġse eds
Ġsu pre
ĠRail way
Ġp ace
ĠF ive
Ġex clusively
Ġbi ke
)} +
ĠG C
Ġdesign ated
ĠMem bers
ĠF M
necess ary
t uple
F G
al most
Ġsc attered
ĠUn like
ar ound
ĠLim ited
Ġsho pping
ĠM i
Ġprot otype
pix el
{ }{
Ġbas elines
ick ing
ant ed
Ġowners hip
M al
ĠMax well
}) \\
ĠPh D
Ġgra ins
c M
Ġmusic ians
per ience
pl atform
Ġf aint
ĠW olf
add r
t ar
$\ %
Ġdi pl
' },
Ġst ops
plic ation
Ġat tain
R edu
es la
ious ly
Ġs lic
ĠPol ish
Ġprom oted
Ġt uple
m k
ĠY outh
ĠW rite
Ġgen re
ĠPol y
pm od
drop down
ĠExp ress
ĠF ried
}} /
trans fer
ĠB Y
Over view
K M
con tact
ivers al
) *
Ġanisot ropic
Ġequ iv
Phys Rev
we ets
Ġdelay ed
Ġbu ying
li est
Ġretrie val
s r
Ġsol ver
rack ets
D est
ib l
Ġlearn s
Ġb le
ache lor
)= -
ĠE N
Ġh ack
Ġelli pt
Ġtrans ient
Ġen abling
cer taint
Ġeng ines
Ġunder go
f ish
e u
serv ices
ĠCont ent
De ep
Ġsuperconduct ing
Ġlimit ation
az y
Pro f
observ ed
h ill
lim sup
w alk
ic ates
Ġsk ip
T ABLE
ĠH um
with in
h ots
as ym
C hen
Ġfib ers
Î ¹
Ġpopular ity
d g
Ġt weet
ĠJ ason
l ov
T i
Ġinstall ation
ĠAd vis
ian ces
C r
ard ens
re ach
Ġal ert
), $
)\ )
R P
Ġcomputation ally
Ġgr ants
ĠMar ia
Ġsuff ering
Ġ rib
Ġindust ries
u ine
ĠCap tain
######## ########
" `
ĠĠĠĠĠĠĠĠĠĠĠĠĠĠĠĠ ĠĠĠĠĠĠĠĠĠĠĠĠĠĠ
Ġent rance
ĠEv ents
Set ting
et ers
16 5
c C
Ġjournal ist
x t
Ġsign atures
Ġfix ing
ĠG all
on ormal
ros so
Ġl ip
ĠD al
a pt
Ġp arser
G N
ĠSch r
ĠCl inton
ĠP ot
Ġref uge
w eg
Ġwalk ed
is ta
An alysis
G old
k ed
U ID
Ġcap ac
xim ity
Ġrare ly
ol ph
F un
,\,\ ,\,\
' })
app er
ĠĠĠĠĠĠĠĠĠĠĠĠĠĠĠĠĠĠĠĠĠĠĠĠĠĠĠĠĠĠĠĠ ĠĠĠĠĠĠĠĠĠĠĠ
H u
ign er
ra ctions
19 56
tr igger
emet ery
math ring
Ġbl ank
Log ger
V ERSION
perturb ative
ĠS eg
cal ling
own er
kl ahoma
Ġg overning
ĠP H
var sigma
V s
Ġ+ (
ĠG ets
ĠFe ature
)\ |
L and
Ġex ponents
)+ (
m ont
With out
isen berg
ill iant
Ġen for
Ġrepeated ly
F iles
L ow
ĠP ear
Ġa ster
ĠCor ps
× ķ
ut f
Ġrefin ement
En ter
ĠRes ponse
Th anks
end ers
Ġanalog y
Ġemer ged
Ġcelebr ate
ir r
Ġsequ el
fe ed
ĠD etails
Ġhead ing
ĠLeg end
19 48
ams ung
" )]
_* $
oc hem
Ġdown stream
ĠMal ays
, âĢĻ
ul ates
Ġhad ron
pos al
Ġent hus
Ġpack ages
sc ription
ĠAuthor ity
Ġsett led
ĠD ub
D uration
Ġvacc ines
ph abet
t uning
Ġp c
ĠI E
t abl
ĠCon fig
Ġamb ient
Ġinter active
Ġf ed
00 4
ill ance
ĠB ush
ĠDo ctor
Ġc ited
Ġspan ning
equival ent
scal ing
ĠSe attle
ro oms
ĠL yn
T om
Ġdram atic
am er
Ġfil tration
Ġman ually
S ports
Ad S
Ġf ired
il ty
ush ing
( |\
ta gs
Ġlik es
Ġpass engers
ĠLa placian
F B
Ġcolle agues
Ġassert Equals
S al
Ġlat ency
Ġannounce ment
ir i
Ġp uzz
ug gest
buil t
Ġrob ots
Ġsix th
ĠM N
Ġestabl ishing
Al g
ĠUS D
Ġfre ely
Ġas ide
l ive
Ġamong st
Ġcompens ation
Ġtra pped
ĠPh arma
object s
constra ined
ĠPro p
ĠAd vent
ĠD ick
tabular newline
Ġacqu ire
N ever
Ġsing let
ract ing
Ġtax es
ĠP T
ĠN ik
Ġadi abatic
Ġex terior
Ġdis abled
pa rency
Ġslow er
Ġin hab
){ $\
v p
Ġ{ (
ĠMic hel
J une
math rel
l um
Ġtriang ular
Line ar
Ġtimes cale
ĠPhilipp ines
ĠG arden
rid ges
Ġanten na
b ian
Ġcirc uits
osc ow
Ġend point
Ġsk etch
Ġat tr
Ġent itled
Ġcomp ounds
Ġcharg ing
Ġ[ ],
gg ed
Ġimportant ly
em ed
Pl ot
ĠB run
min imum
L I
Ġdegener acy
ak ov
st eps
Ed ge
ĠS ex
Ġnucle on
ibr ations
Cle arly
ic ut
ĠV ector
Ġdef ensive
Ġrandom ized
Ġengine er
ol ute
Ġinf ected
| +
or se
Ġl attices
ink owski
)}{ (
vent ions
RE AD
ur ches
E t
ap ing
ĠPerson al
Ġas semb
Ġenc ourag
Ġsub spaces
on ce
Gener ic
Ġcross ed
og a
å ı
ist ration
Ġcon figure
2 24
Ġover whel
ĠS port
Ġhand led
Euro pe
ĠWork s
s outh
Ġconf ident
Mem ory
=" ">
buil ding
I J
Ġhe m
Ġdistrict s
Ã º
ĠDen ote
exp ansion
ĠM atch
ĠAn ne
W W
Ġwh ilst
iter ator
Ġper ception
ict ed
Ġfl ights
Ġtravel ing
Ġg rounds
M ake
ĠG er
ĠV egas
A O
Ġappear ances
V C
13 3
re nd
st ars
ĠL arge
ĠBow l
Ġdiff use
am an
ĠN ob
)} +\
u ate
Ġreput ation
........ ........
pe at
Ġexplos ion
s child
Ġ\ ,\,
Ġm ouse
Ġst er
)\, .
she et
commut ative
13 7
Desc riptor
=" @
Ġsurpr ised
A f
Ġin ject
ag u
U ND
^{- (
S ta
cur ities
Wid get
re ason
ĠSt ein
ĠAt lanta
ĠL ind
Apr il
_ (
ill ation
Ġhand ler
ĠAr k
Ġra ising
Ġp ra
sc ribe
ĠCast le
F D
Ġult imate
Ġfil tered
Ġdel ight
h uman
Ġconstit ution
Ġadequ ate
Ġany way
Ġinterview s
ĠD ur
ogen ic
ĠAr thur
| <
erv es
Ġan th
s om
à ¦
Ġgal actic
mag n
Ġsurround ed
ĠR ot
u id
Ġport rait
itar ian
Ġh urt
Ms g
Ġinc idence
Ġstreng then
Ġsp okes
ĠCont in
ellig ent
ĠM ess
Ġent ers
bl ank
Ġcoun sel
Ġfor b
ord ination
ab e
Ġfant asy
ant ry
Ġlens ing
Ġmonot onic
}^* $
clip se
R andom
ĠW IT
Ġpart ly
$ ^{+
rm k
Ġstat istic
Ġparticip ated
ĠMov ie
ĠQue ens
ĠP sych
ĠNe umann
b k
d iam
Ġm i
] =\
}) +\
}$. }
plet ion
ĠC ele
Ġspeed s
Mich ael
ĠC ra
ĠPro du
Ġdesc end
Jo in
Ġcla use
st retch
ĠF ed
Ġwid ths
em ia
Ġtext s
sh adow
valid ation
Ð ¹
i op
19 55
writ ing
pect ives
ĠCon stitution
in th
Ġp ip
ĠRe lease
Ġpur s
t bl
Ġnot ions
L ower
H ub
ĠM om
AT ED
ĠSt ructure
en berg
ĠC it
Ġdesign er
Ġbre ast
Ġsupers ymmetric
log ger
Ġc ognitive
J ob
ĠOrgan ization
Ġn ations
X ml
Ġr u
fl ags
act ivity
ĠViet nam
o i
b is
Ġt ill
ĠB h
Ġstri king
b rowser
Ġar ranged
Select or
X ML
EX T
Dis c
Ġm ath
ĠH IV
V P
l f
Ġpref erences
ĠD ave
m ad
Pa ul
sh own
ĠM ilitary
Ġt ips
N i
Ġpo etry
un ed
ĠMarket ing
App ro
ad just
Ġs addle
Ġin cent
Ġsp arsity
ĠMc K
b inary
Ġdomin ates
C ard
ĠH ans
ĠD rive
Ġcontext s
Ġsmooth ing
H M
19 44
Ġcommun icate
en ario
Ġre written
ĠR ank
Pro xy
rape ut
gra duate
Se lected
O PT
Ġcomput ers
E p
ap or
Ġthreat s
box times
med ium
0 10
ĠPh ill
L y
ific ant
Ġspirit ual
u ons
Ġme at
mer cial
v ary
Ġv ib
A uth
Ġacknowled ges
ad v
In it
ĠAl liance
Ġch ap
act or
Ġimm ig
Ġdiscret ization
ig ious
Ġ Ã©
pro c
ĠN ev
ĠD omin
Ġt el
ĠG O
ĠY O
is hers
ount ered
ĠW ard
Ġinsp iration
) &=
k pc
Ġlight s
Ġpredict ing
T ri
win ning
Ġ[ ];
pro ved
Ġprocess or
mark et
Ġtrunc ated
Ġdes irable
Ġmem ories
Ġrefin ed
Ġsophistic ated
ĠJ oh
}{ (\
Ġcomb ines
)= -\
Ġg ang
Ġpart on
ĠO pp
ess ment
ĠEx change
ĠTai wan
v ac
Ġun clear
re ng
w al
ĠP ho
Ġcom ic
Ġbeam s
}^{ {\
ĠR ab
Ġbuil der
ĠTem ple
con clusion
ĠS ud
Ġvic inity
Ġad option
Ġdriv es
out ube
Dom ain
Ġm s
- }
res on
requ ired
Ġbenef icial
ĠM organ
ous es
Ġbrother s
Z hang
en ix
assert Equals
ĠP rior
Com pat
Ġvirt ually
d B
Ġmin ds
Ġb ird
Ġtra ct
Ġb one
Ġany more
ĠIn put
t k
Ġcontroll ing
Ġo mitted
uck er
13 8
Ġcl im
19 00
Ġinter faces
i q
ĠVir tual
âĢ¦ ]
ĠS in
Ġsc roll
Re cently
Ġmultiplic ative
Ġpriv ile
abet es
Ġt u
ĠWalk er
yn olds
Ġtit led
m any
Down load
Ġsupers ymmetry
man ager
Ġexam ination
Ġencoura ged
Ġdo ors
UT F
14 7
J ames
Ġdomin ate
ĠTok yo
ĠB udd
, [
ĠHol y
ber ry
ĠMod els
Ġsol ves
Ġhal os
}: =
ĠL anka
Ġvis ibility
Ġref used
Ġh am
Ġbij ection
0 25
p seud
Ġdi ver
ĠAg reement
Ġmin us
Ġbu ff
multi ple
pi res
U C
or ange
Ġdist inction
ĠAl abama
qu bit
Ġaggreg ation
Ġceremon y
Ġinvestig ating
up d
ĠMe asure
dis crete
Ġob ey
ĠH ug
Ġyield ing
Ġpred omin
Ġsche ma
ma ch
Ġm uon
ucle ar
AM P
ĠK am
Ġ( {
ĠIsra eli
Ġp iano
tem por
Ġl ocus
ow ards
ap olis
ĠReview s
19 39
ĠIn v
ass er
[ :
ĠM eg
Ġfeel ings
part ition
per m
c A
in her
SI ZE
Ġspeak ers
Ġdevel oper
i ang
el o
Ġe ating
comb ination
Ġdetect ing
qu estion
or o
small matrix
It ems
Ġaugment ation
ey er
Ġold est
Ġsupp lied
ĠB O
* )
V V
New ton
run ner
Ġl ake
chang ing
ĠS witzerland
Ġp sy
Ġcal ib
ar ance
ĠDel hi
Pro file
att ention
ĠMach ine
om ed
ION S
t v
000 1
ĠComput er
s lds
id ge
}} ^{-
gener ation
ĠP E
ĠO DI
ke ep
ĠW ol
Ġspect roscopy
ill o
K im
Ġaut onomous
Ġas c
iss a
ail and
)} -
ĠIm port
Ġchart s
Ġt une
2 60
ĠS ob
} <\
ĠSing h
ĠM essage
Ġsepar able
Ġex clude
Ġhospit als
Ġprint ed
Ke ys
Ġb ot
s pl
ph on
Ġmet ers
se mi
de cor
M ot
Ġst iff
Ġpoly mer
Ġcard inality
Ġt act
F our
G H
ce ut
Ġinitial ization
Ġdec oupl
ĠPl aces
b ach
F amily
he nce
ben ius
T s
m kern
AR N
Cl uster
S am
Vert ex
as cular
Ġreason ably
ĠA thlet
ĠG A
ul p
Ġto w
Ġchem istry
id o
Ġy esterday
Ġtreat ments
Ġsomew here
Ġsome how
Ġgl ad
Ġele g
Ġgovern ed
Ġunivers ities
u ct
Ġt one
Ġmunic ipal
Care er
Ġb ilinear
n ice
Ġc able
ĠHow ard
F oot
n or
col lection
ro ck
Ġperm utations
Ġclass ify
s ized
online cite
p ull
ed ges
Ġj ack
Ġtun ed
sc ience
N ov
_ ,
min ute
pro ps
ent a
Ġharm on
Ġd ans
Ġv oc
ĠG ene
_* \
ĠSt ew
ĠLabor atory
min imal
In formation
rop olitan
ĠH ash
Ġpack ets
ĠD allas
ĠM ol
ĠE lectric
he im
ĠF er
Ġf li
amaz on
Ġn ut
CD M
Ġinstrument al
E lements
Ġsu ite
Ġdig it
ĠM and
Load er
O ld
Ġaffect ing
at ers
Ġfun ny
ge ometric
ic he
ĠH ope
Ġenc ountered
n r
Ġpuls es
ĠM ission
Ġres idential
J ava
ĠVill age
Ġ" <
B rowser
En vironment
Ġdest ruction
To String
ĠWh ich
Ġemploy ing
Ġdiss ip
ĠT arget
vert ical
ĠO d
Sever al
ĠHer itage
P ublished
Ġ( âĢľ
B ra
R oute
Se lection
Ġanonym ous
ure r
Ġph rase
ab ol
}\ ;\
support ed
oc ur
est ions
Ġconfin ed
S pect
p rom
Ġtyp ename
in ian
Ġpl aus
chan ical
,\ ;
Are a
ĠSchool s
ĠS B
ĠBu ild
prov ider
Direct ory
ced ure
Ġrac ial
em p
Ġ$( -
Ġmy ster
type of
gu ide
Ġview ing
d one
cm id
b rief
ĠAdv anced
ac o
ĠB eng
d iamond
Ġrec ru
fl ag
j ango
Ġfranch ise
Ġspl its
ĠMon th
\ :
S QL
Ġ Å
Ġc ube
be c
rob ust
", "
Experim ental
t mp
h ide
tr uth
Ġnov els
Ġle x
Ġb orrow
15 00
Aug ust
cre ation
Ġca ps
ĠIn dependent
Ġpres um
Ġtri plet
16 8
ĠR oute
Ġsimultane ous
Ġob lig
ĠF ast
l ades
19 54
O F
Ġthem es
P ATH
- |
Ġg athered
ut ies
imod al
Ġmonot one
Ġfun c
Ġpush ing
Ġsign ing
Ġst ere
ĠP ic
DE s
assert Equal
Ġsub tle
Ġpass ive
b oy
in verse
im ore
D id
ap unov
Ġsupp lies
Ġg uns
}= {\
Ġbipart ite
d ra
Ġdiscrim ination
3 30
ist ance
cho ice
Ġcert ificate
19 53
ĠIslam ic
R M
ed itor
j b
Pro gram
b inding
ryst al
Ġan notation
ĠL ane
non ym
ĠKent ucky
Ġher itage
ĠM ust
Ġevol ving
cmid rule
ĠT ar
( .
ĠD L
Ġport ray
NavBar Cell
w ere
ass o
Te V
spect ral
ick en
Ġexceed s
, -\
Ġs alt
Ġpoor ly
direct ed
Ġmes ons
math ord
Ġimm un
Ġdiscuss ing
all ing
me as
Ġsus p
Ġun ified
ĠB ron
Ġburn ing
Reg ion
US A
ĠA N
: [
cc a
yp ical
uit ively
Ġdiagn ostic
d ialog
ene z
he alth
P rior
Ġperturb ed
Ġinflu ences
su cc
Ġcell ular
ĠN ation
u ating
ĠC ell
ĠMay or
Ġorth onormal
Ġ$ +
f ers
pre v
0 15
Ġnom inal
}} ]
ĠF I
Ġphon on
ĠF low
Ġcha otic
Ġsub stitution
ĠUk rainian
l on
Ad apter
Ġappreci ate
om ing
Ã ¸
14 3
m orph
Ġland mark
r us
ĠB L
}) -\
Ġcomput es
AS P
Ġdo i
l ene
ceut ical
De fin
ĠRe cently
Ġaccording ly
. ).
bre ve
ri el
19 5
Oct ober
F uture
Ġd ating
th rows
ĠG as
at able
Ġob sc
Ġmem or
Ġar cs
ĠAd ams
}{* }{\
Ġcap tain
Ġcelebr ated
em e
Ġaugment ed
Ù Ĩ
Ġd ir
cl ock
Ġact ively
AN CE
Ġprodu cers
mb f
n othing
$\ {
âĢ¦ .
_* (
ber ger
M apping
Ġst ruck
ĠRic ci
Ġconj unction
Ġproceed s
. ),
Ġprom otion
Ġinvest ments
Ch apter
ĠM ort
Stat ement
ph ones
Ä į
)) );
Ġt y
ĠR oom
Ġintegr ity
Ġshort est
/ {\
Ġd z
Ġattack ed
Ġeigen states
Ġse cre
O H
Ġmus cle
ĠRequ est
R N
i ating
Ġform ulate
ĠSch warz
B ay
ĠD ak
ĠC zech
view s
Ġat ten
Ġres ident
Ġlong est
Ġsynd rome
b ridge
Numer ical
Ġsub stitute
oc aml
Ġres erve
Ġopin ions
00 7
ĠLeg al
X iv
Ġam id
Ġmorph ology
Ġhar vest
Ġplace ment
á »
Ġout door
Ġa perture
Ġplanet ary
s ided
B ur
ĠB ible
ĠGree ce
J uly
ĠZ hang
Ġrep ly
Label s
Ġcondens ate
Ġpri ze
um bers
ĠR ober
]$ &$
p ub
Ġsuggest ions
H ard
ĠAv ailable
as ant
Ġparticip ating
ĠR S
Ġin ev
Ġstret ch
ĠPl ayer
Q A
Ġmor al
'' )
'' (
ĠMar ine
Ġsqu ee
ĠL STM
Ġaltern atives
Ġ\ ;\;
al ong
ĠPhil ip
mag net
Ġann iversary
L ee
Ġconf ront
cycl ic
2 15
del ay
list ing
| $,
com position
c in
de cl
} &=&
Ġconvers ations
P V
Res ol
ĠHigh way
H aving
n ie
Ġg a
Ġisol ation
Ġ= ========
ĠAtt orney
ĠG ordon
SS M
is i
Ġ" "
"> &
ron es
enn ifer
n ob
ab a
Ġsustain ability
ĠIm pact
Ġvisual ization
pref ix
}{ @{}
w rapper
Ġbi ased
web pack
Ġ\ '
bar a
Ġd inner
ne ed
Ġt ie
ĠR y
em ies
Ġch ip
Pol it
ĠThom pson
c F
() ).
Ġqu art
13 9
row e
ĠR ace
Ġviol ent
Ġcampaign s
\ ;\
Sc roll
ÑĢ Ðµ
Ġcont amination
Ġaddress ing
{ +
19 47
Ġed it
maj or
W il
Ġinvolve ment
)}\ ,
Ġant is
ox y
Pro blem
ĠS ustain
ĠS ales
d w
comp ass
ĠLin coln
r times
Ġapart ment
}) ]
ĠEx amples
sh ared
ext ra
Ġ ],
A H
ID E
Ġcosm ology
Vari able
ĠI r
th us
ĠInnov ation
Ġmer ged
Const ants
ex pr
ire ctor
ĠM W
Ġincl ination
R o
ĠH TT
Ġp overty
Ġrelax ed
ĠU tah
Ġthink s
Ġtunnel ing
m ates
ĠP ra
ĠM oscow
Ġrespon ded
ĠB os
ĠE W
ole t
sp here
S a
Ġth ro
um m
B AR
o pp
ĠBet ween
be am
nt hetic
ch t
Ex amples
h op
] &
Ġpass enger
per or
AD D
ĠF ederation
Ġpurs ue
Ġthe atre
Ġâ Ĥ¬
p al
Ġimplement ations
er k
Ù ħ
ĠP rivate
ĠL ang
ĠN BA
Ġcl ot
Ġlik ed
Ġfl are
fl ush
Ġg ly
Ġtown s
Ġqual itatively
Ġpro gen
Ġcry pto
ĠSing le
ĠBrown ian
k j
Ġpro ximity
Ġbur ied
Ġv in
]{ $\
S ci
ĠN L
__ _
ĠTra il
Ġestablish ment
D onald
part icular
Ġener get
ik h
ĉ ĠĠ
Or gan
ĠB us
ĠB rig
ident ity
w ould
Ġsaf ely
ere n
ĠJ en
Ġdel ays
ache l
ĠC e
Ġmore over
ĠCommun ications
uch i
print f
WH M
ĠQu antum
Ġrecurs ive
19 46
cor por
nav List
claim ed
Ġg est
Ġcon form
19 51
Ġpubl ishing
K T
D ifferent
ĠK u
ĠSwed ish
ubl in
ĠH ell
el ing
Ġweap on
B us
Ġp unct
Ġrel ates
19 42
comp ress
Tra ce
Att ributes
ĠR ussell
ĠL ess
> :
Ġaz imuth
iss ipp
rosso ver
ĠMat thew
P b
c ot
Ġsched uling
is an
Ġst roke
c H
oun ters
less ly
pol ynomial
T x
Ġis lands
int rodu
ab ases
B egin
un ion
20 8
Ġapp end
ar ab
pre ceq
A bs
ĠB ah
Sp in
ĠMar vel
N I
ĠA BC
rypt ed
prot ocol
Ġmort ality
Ġsubstr ate
get Name
ĠS el
hig her
LE D
P air
sl ice
W omen
Ġthresh olds
R G
A X
ĠS Y
- .
Ġcl imb
ou ver
ĠL S
Ag ent
Ġd ial
Ġb unch
rac le
ĠG M
sub script
Ġkit chen
Â ·
Ġsuper position
Ġfaith ful
Y Y
) ^*
Ġ um
Ġrefer ring
ĠOver all
Ġcl arity
ĠWe bsite
ĠMel bourne
ĠSp irit
ĠLa place
De cember
Ġlist ener
ry pto
Inst ead
Ġabsor bed
od ium
Ġir regular
ĠF P
Ġcollect ing
Ġenter prise
Ġst uck
Ob serve
ĠO klahoma
Ġcent uries
Per formance
Res earch
Brit ish
++ ;
Ġimm une
Ġpl ates
}) (\
aj ax
Ġj e
AS H
Ġmil k
J ack
determ ined
S ched
face book
ĠT ODO
19 41
Con sequently
Ġup grade
R obert
ĠSt ories
B usiness
Ġadv ances
Ġr uling
S il
19 49
ook ie
Ġsing ing
Ġcal endar
norm als
en abled
j ack
ĠN ear
ĠB ishop
or ce
ĠAl bert
Ġgen uine
ĠE r
ris k
App lying
bal anced
neighb or
v r
L Y
Ġconnect s
Ġb oss
ĠM os
Ġn ons
ric ulum
Ġad min
ge o
Var id
Ġident ifies
Ġattack er
}{! }{
Ġpen et
) ">
Ġxml ns
Ġirre levant
Ġshall ow
ĠSt ars
pa pers
Ġz ones
x sd
Ġdiam ond
Ġ( -\
Prot ocol
i ations
Ġt il
Ġsub algebra
W in
ĠM B
ĠP redict
ca ps
Ġ á
Ġres il
look ing
L aw
ĠPlan ning
can onical
Ð° Ð½
ĠV I
Ġperson ally
ĠH aving
p z
Ġscal ars
Ġ ~~
Ġassess ed
ffic ial
ivid ually
ĠSto kes
ĠBit coin
âĸ Ī
Ġarray s
con serv
Ġf riction
ress ions
mod es
^{ '
ĠL iver
test s
ad van
ĠB ull
F ollow
Ġbl ess
IN S
Ġsem ic
Ġg aug
res ources
larg er
iv an
Ġpo et
ĠS tage
ĠC ape
Ġgradu ated
per cent
Ġsh ar
vi ol
ĠPo incar
ĠH ills
Ġhead ed
Ġcompat ibility
Ġfore ver
ĠI ce
Ġal leg
ĠĠĠĠĠĠĠĠĠĠĠĠĠĠĠĠ Ċ
Ġst ating
Through out
R ussia
Ġg ent
ĠD ouble
ĠChall enge
ĠL ic
M ill
om es
}\ ]
Ġconstit ute
Ġf n
Ġattract ed
Ġb ifurc
ĠC FT
Ġsp ark
) <\
Ġdesign ing
itz er
N ET
e conom
as is
Ġf est
Ġsp anned
Bl ue
ĠF ant
Ġfl ip
100 00
ateg or
Child ren
L anguage
def i
Ġparad igm
Ġliter ally
ur u
ĠL oc
Ġto u
âĢ ¯
ĠU I
tag on
Ġrot ate
}) _
Ġthrough put
Ġ\ }$.
it ten
Rem ove
ĠMex ican
20 5
Ġqu ote
Ġland s
ĠP D
ĠD J
Ġgener ative
ĠSp ot
Ġval ley
Ġupd ating
l p
ĠH it
Ġiniti atives
esp read
j ob
ch art
ab ad
graph s
ĠM eta
Ġre ven
Ġcontinu ation
Ġemer ge
prec ision
ĠL ower
he t
ce iver
Ġacceler ated
co herent
Ġple asure
on z
Ġint rig
Ġmy th
Ġbar riers
(\ {
C RE
ĠP ast
issipp i
d dots
I mm
ĠRe ference
E u
light s
Ġwar rant
Ġimp lying
ĠHop f
Ġm ilit
Ġrem n
ĠL iving
ĠHerm itian
dor ff
ĠC ass
\| _\
st orage
the me
Ġcur s
ĠH O
R ay
Ġcritic ism
Û Į
riv ing
'] )
Ġdep ression
Ġcor pus
Ġpron ounced
Ġdo ctors
Ġpric ing
Ġle mm
ĠM other
Ġun bounded
re ma
Ġin set
c P
im ization
ĠNetwork s
ĠA u
Ġte a
ĠN LO
Ï Ħ
w i
ĠS Ne
Ġsm oot
cor related
ĠTurk ish
Ġpresent ing
Ġw rest
Ġm ile
arm s
on ing
ĠL ik
li ver
Ġfib re
ĠMc G
C ity
Ġb ull
Ġbr illiant
Ġin ches
ĠC ox
Ġpar liament
continu ity
æ ľ
ov ich
Ġeigen vectors
comm it
R ank
Ġcur rency
Ġspin or
}\ !\
ig s
Ġre wards
is cal
Ġoff line
Form er
Ġflo ating
ĠD ays
are r
ĠHel p
V S
ĠM s
ĠRes erve
24 5
Ġutil izing
ĠAst ron
row ing
Spec ial
Iter ator
Ġcol ours
ĠPe ace
Ġa pi
Ġd ash
Fil ms
Ï ģ
Ġrest ore
C u
ĠPl atform
ou p
Te chn
ĠR C
Ġfol ks
Ġqu oted
cept ions
Ġhard ly
Ġas ync
ĠR u
ĠPr int
H am
$ [
Ġinfin ites
Ġhead ers
Ġin complete
h adoop
ĠÐ ¸
Ġtum or
Rep ository
Ġal pha
ang ers
ĠSch olars
Ġsatell ites
ĠChair man
}{ |\
Ġn ested
Ġrel ay
ĠDe an
28 0
Ġc s
wh ose
Ġcompa res
z ed
Ġâ ĨĴ
Dat abase
rad io
ĠInt el
ric ks
ĠStud io
uls ive
ĠId ent
K w
as ets
dis cussion
Ġprogress ive
m ate
AN G
Ġsubsequ ence
Ġcomm ute
Ġprem ium
Ġpermit ted
ĉĉĉĉ ĉĉĉĉĉ
eqn o
Ġret irement
Ġsupp orters
Ġtrunc ation
ĠLaw rence
Ġemphas is
Q C
friend ly
Ġwere n
M AT
S elf
Ġsub div
Ġun w
rr rr
L en
int roduction
Ġelim inated
13 1
dis cuss
ts burgh
iv o
Ġm ism
Ġcur ved
Ġwid espread
ym ph
Ġcross es
S ER
ĠF ather
< <
level and
sign al
ĠVol ume
Li u
met adata
}- {\
ĠScient ific
ĠCol on
consist ency
ĠE D
Ġstrong est
\ &
pro gress
Ġvacc ination
Ġrig orous
Ġcr imes
Ġth rown
Ġtor que
est one
ĠA h
test ing
Ġafford able
Ġmar ine
[] {\
os hi
Ġdynam ically
Conn ect
J apan
}\ }_{
Ġlabel ing
ĠD est
cd n
s sec
Ġout going
Ġg raphics
Ġres cue
}= (\
Ġappoint ment
e lem
oc om
F unc
18 5
ri ent
Ġc ricket
{( -
a per
19 43
Ġheur istic
C ov
ant on
cccc cccc
ĠM ir
ra v
Ġr ub
k u
Ġend points
hand ler
different ial
Ġrating s
s amples
Se ptember
oper ation
s z
Ġre q
ĠI de
c ous
14 8
Ġoverl apping
Ġsee ks
S ervices
r one
tan h
Ġtrig gered
Ġh oping
ĠSw iss
em ark
Ġexpans ions
ĠDet roit
ĠS QL
ĠChrist opher
M ask
00 6
uk i
h size
ma ven
r ational
$ },
Ġdirect ors
E W
LE CT
ĠS audi
Ġminim a
Ġs ons
ĠInt elligence
So ft
ain ing
Ġj u
set counter
Ġpers istent
ĠR an
Ġnot ably
Acknowledg ments
}| $
Ġemot ions
ĠBl u
99 9
ps y
ĠL GBT
ĠJon athan
alt imore
alth ough
Â »
O k
Ġc ock
ps frag
att ributes
ĠC G
pan ies
ĠSol utions
un defined
ĠT D
ĠP el
Ġprom oting
ĠÐ ½
redu ced
Stand ard
D etail
Ġn ick
Ġcontact s
Ġprepar ing
Ġres idence
ĠT alk
p any
\ #
Ġannot ations
em on
h b
">< !--
wild fly
Ġbuil ds
supers cript
Ġn p
S ave
ĠO P
Ġless ons
Ġminor ity
el ike
ĠJ ess
Ġchair man
Ġb ind
14 2
ĠJud ge
Ġb read
M ove
ĠSte el
\, $\
ic ul
Ġob s
Ġsem igroup
pe ak
Ġoff ense
awa ii
me ans
ĠK az
Ġac ute
* ,
ĠR ub
Al tern
sing ular
$ }.
Ġent angled
col Last
lades h
ĠDesc ription
v b
Ġs hed
C ost
ort ex
f h
c ence
new page
Ġspread ing
Ġfant astic
| (
ĠA le
J y
normals ize
1 2022
Ġagric ultural
Am ong
part icles
orthe ast
Ġland ing
he ll
ĠW right
Aud io
W ord
ci pl
c O
ag ain
\ }^
ore r
M aster
ĠBe ing
Ġsubsc ription
j p
3 75
em a
Ġimplicit ly
ĠP ick
Pol y
Ġfrag ments
chi at
Ġinf ections
Ġm oon
b end
ĠR G
Ġj uris
Ġgeom etries
ĠN ag
Ġfro zen
Ġeng aging
gener ic
Ġ$ %
Ġco q
Ġmod al
Ġarm ed
N odes
n it
)$ \
compat ible
n ab
Ġdwar fs
d h
qu er
Ġint ellectual
Ġmount ed
aps hots
Ġorgan isation
We ight
Ġt ies
Ġrep orter
Ġdegrad ation
Ġd owntown
\, (
h ort
Te ch
ser vers
Ġparameter ized
ĠSim ple
Pref ix
Ġb rackets
ĠPaul i
Ġclass ifiers
Ġed iting
ĠBol tzmann
ĠV iol
equiv ariant
as ive
ĠT esla
ĠJ u
Ġatt itude
E G
anc ouver
Ġadvert is
\ },\
Ġaltern ating
Ġ( _
14 9
Ġg ay
Ph ase
30 1
d ale
Ġmain stream
Trans form
ĠAssum ing
ĠV ery
Ġconfir ms
Ġdis aster
Ġ" ,
ate ur
Ġ[ (
Ġre lying
_ ->
c ology
Ġt rivially
23 5
Ġen orm
Ġv essel
Ġathlet es
14 6
Not Null
Ġshould n
Ġcha os
ond o
Ġindic ation
Ã ł
66 66
experim ents
leg end
ĠYuk awa
row ave
Sh are
lik elihood
Ġw edding
le igh
head ers
ĠCom ment
ĠNor way
ĠPrim ary
Ġcatalog ue
by tes
Ġun con
R ot
col First
,- .
ĠNe uro
D a
N ovember
Ġdream s
}_{ +
che t
Ġco aches
ĠS ay
Ġper ceived
all classes
g un
vis ual
ide al
Ġtoler ance
che l
Ġprom ot
Ġco in
st ory
omet ers
ĠY an
be it
Ġbeh ave
y ang
ph ony
Ġsuscept ibility
ix el
Ġartifact s
Ġf ishing
Ġj umps
gra ined
w u
Ð ±
16 9
Ġs ink
ĠOr th
L F
Ġdis orders
ĠS K
Ġremov es
N ULL
F ac
ĠDise ase
Ġsystem atically
Ġsp ir
Ad ditionally
- )
Ġfor got
Ġaband oned
buil der
19 18
C art
R ate
Ġinitial ized
$. \
Ġconst ructions
ĠT rib
ij ing
! )
bes gue
Den ote
ic z
h p
Ġpresc ribed
Ġthe sis
Ġp ill
15 2
ĠPl ant
ĠA F
olog raph
Ġlux ury
ing ers
ĠR ain
Ġsuccess ive
Ġc rop
5 50
ud son
en z
}) _{\
Ġval ence
Int erest
}\ }
Ġal phabet
f ine
ĠT el
ens on
19 36
Ġcour ts
analy tic
Ġ= ======
Ġel der
Ġpay load
ĠG ray
Ġliter ary
P ad
Ġtime out
ĠTheorem s
15 6
) &=\
dot sc
Sm all
Ġ} ^{
S eries
{ }^
ren a
Ġhit ting
Ġen force
ĠObserv atory
der ived
Ġre vis
ser ting
Trans port
cal ed
ĠSu ccess
ĠAnton io
ĠJ ob
Ġvolunte ers
$. \\
Ġbirth day
ĠH ero
Ġsp heres
ip se
Ġinv asion
Ġiniti ated
Ġb lo
u ous
ĠVis ual
aus dorff
ĠP i
)) =\
Ġindex ed
st ability
pa ren
Ġ\| _
Ġevalu ations
Ġexplain ing
ract ive
sur ance
ed a
Ġsit uated
ĠG B
Pro ps
ĠLear n
Ġcl othing
\/ }
Ġtouch down
ĠN A
Ġpro l
ĠD P
am ous
j amin
Ġind ividually
ĠĠĠĠĠĠĠĠĠĠĠĠĠĠĠĠĠĠĠĠĠĠĠĠĠĠĠĠĠĠĠĠ Ġ
m v
ĠI F
de velop
Ġroll ing
Ġhost ing
add ed
Ġear liest
Ġf oss
Ġaltern ate
ĠO K
Ġcalcul us
A verage
st rict
Ġmy stery
an cer
cal es
Ġdepart ure
Ġden ied
S ocket
it ol
ir ates
Ġemploy er
pl ant
L imit
ST AT
h ai
ymm etries
Ġpe cul
Spec ifically
Ġtheore tically
{ }_
tab colsep
ff ff
n z
Ġlock ed
an im
ick ets
Ġrec ruit
Ġthread s
bo ost
Ġg ear
OR Y
ĠClin ical
Cl oud
Ġp iv
ĠL ac
16 7
ĠAss istant
Ġd ens
ĠF ern
ĠAl an
ĠFor um
Ġpuls ar
19 38
Ġsub stit
Ġod ds
s il
Ph ot
ay an
Ġf ought
Ġto y
)} )$
Te X
ic ator
)\ }$
hol m
o a
prov ide
ous ing
G overn
ĠPolit ical
}) /
nt hesis
Ġ< \
vis ible
m ust
Ġexplan ations
$ |
Ġdram atically
hed ron
ĠP ad
par ity
ĠCo hen
UR I
ĠC ut
ĠChar lie
rowe ak
fil ename
Ġmanufacture rs
Ġaccompl ished
ĠS ac
F ran
ĠAfghan istan
sc ar
inc ial
~ ,
A ir
F ailed
00 8
pres erving
s ampling
ĠHar vard
ie val
Ġemerg ence
K P
Ġm ice
Ġrec urrent
ĠLand au
ĠConst ruction
Ġs aving
ol en
Ġj Query
ion ic
Ġmer ging
Ġco ins
ĠI oT
ost ics
E lect
S ync
ĠD VD
The me
ĠCon stant
text superscript
P et
ĠC IFAR
ĠTh ank
V R
ĠPer haps
app ings
Pl ugin
d yn
Ġresid ue
ĠH ess
=" ${
Ġb oot
Ñ ħ
Ġun supervised
P arse
g p
ĠMot or
ĠM uch
ETH OD
he v
16 2
I AL
th ird
ag ers
ord ial
/ $
Ġf idelity
}( (
OR M
structure s
ĠI ron
Ġatt raction
Ġr hythm
vari ables
Ġintu ition
Ġresidual s
g iving
ĠB ERT
Ġb ron
am ine
ĠF al
S ong
en vironment
comp iler
ĠLi u
Ġcryst all
log in
ĠV ar
ĠIs ing
Ġapproach ing
ĠLeg isl
ĠJun ior
Ġde leted
@ \
Ġv it
ĠN ormal
Ġpat ent
H or
ĠRob inson
}[ (
Ġsimilar ities
Ġadvers ary
Ġparticip ant
Ġbi ases
get Element
Ġh ill
Ġg olf
ĠN elson
R ic
fe atures
+\ !
Ġdiscuss es
Ġf id
ĠM is
Ġlight ing
ĠE ST
Person al
Ġsh ocks
Ġcomp iled
Ġ$< $
Ġfem in
}' \
rog ate
ĠRe ynolds
Ġdi et
ik es
Ġfore sts
B ir
ĠAn na
ĠO C
ĠHig her
Ġtem plates
Ġsuper vision
ĠG ran
}( [
Pl ayer
d ense
N M
P relim
Ġintu itive
m el
Ġanticip ated
Ġback bone
ĠD elta
Ġconduct ing
) }}{\
Ġsp oken
ÃŃ a
) &=&
ul u
Ġspecial ized
ric ane
ĠGa uss
down load
Ġmac roscopic
Associ ation
ĠW oman
Ġgu ilty
Ġdel iber
app rop
Ġdr inking
arcel ona
py thon
Ġlov es
M g
eral d
Ġfair ness
Ġsuspend ed
Ġre pository
ĠO w
ĠProfess ional
ĠG T
ĠPro b
Ġflow ers
ess els
e ref
} </
abul ary
ĠD A
ext end
a is
Ġval uation
d in
ĠB orn
Ġpl acing
Ġmult ivariate
f box
', '
_+ (
Ġident ically
ĠF ROM
ĠG AN
ĠLab our
Ġbare ly
Ġreported ly
O s
à¤ ¾
Z ero
ĠM oney
ĠU lt
36 5
RE D
ĠEd ge
A z
Ġor al
Ġ[ âĢ¦]
pr ising
%% %%
ĠEm ploy
Ġtermin ology
y u
Ġseem ingly
flu ence
dif ference
Pat tern
tempor al
in creasing
re lease
ĠGr ass
weg ian
f its
âĢ ħ
ĠB art
Inter val
Ġres p
un i
Ġ& $\
Ġalloc ated
Ġlif ting
Ġly rics
Ġl oud
Ġrest ored
at tack
Ġs id
ĠStrateg y
c ies
ĠH ost
Ġcrit ics
)/ (
ĠIO Exception
ĠFac ulty
Ġaver ages
ĠShe l
Ġspont aneous
})- (\
Ġdemoc racy
Ã ª
H K
ĠM ix
Ġv iable
ĠB lood
desc ribed
Ġj azz
Ġtalk ed
' }}
ser ial
ID TH
ĠRead ing
c D
Ġcomp rises
Ġimm ers
he art
Ġcompos er
Ġt ent
Ġl os
ĠCl iff
Ġins pect
Ġindic ators
ph oto
ĠR R
Ġca ption
Ġincorpor ating
Ġexpect s
b ank
Ġaccommod ate
ĠM inkowski
ogen ous
ĠCr ime
r ules
Ġdecom posed
ah l
ĠBas ic
ĠWrit ing
pp ler
S NR
sm ash
Con v
H ave
ick et
ir ts
ĠG ary
Ġfore ground
Ġsub stance
Ġsm ile
ĠG ov
} ')
Ġjust ified
hent ication
Ġappropri ately
Ex pr
Ġpubl isher
Ġsymbol ic
Q Q
ĠR ule
jour nals
or us
ex ponential
cl ed
Å Ĥ
Ġpubl ish
St ructure
Ġad verse
sl ot
Ġaccom pany
ĠG il
ĠFe ynman
Ġformula e
W rapper
An aly
ĠPe ak
Ġre tained
Ġinf ect
ĠStud ios
Ġ& +
ĠY u
Ġgu ided
a ac
Ġed ited
MOD ULE
Ġmanip ulation
ĠLouis iana
Ġro uting
Ġhead quarters
Ġc er
Ġcomm utes
Ġfle et
ag onal
Ġwork flow
)] \
amil ies
Ġbe er
th row
^* $-
h aw
in fl
ric ting
Ġ& &\
Ġblock ing
Ġ? >
ĠMem ory
i ov
Ġ\ ;\
ll a
Ġactiv ated
acknowledg ments
Ġconstruct or
c ategories
ĠE le
ĠSch w
ĠTerm s
ĠV ik
R ole
Ġequiv ariant
ĠC hat
15 8
col lect
AC H
Ġtarget ing
Ġtre ating
Ġbur den
ĠMari e
Ġdes per
co e
Ġp ub
S equence
v d
_ +\
19 37
}^{ *}
ĠW u
fra id
Res ources
ĠL R
vis or
Ġextrem al
bas eline
ĠK an
ĠD oc
ĠPolit ics
IM O
ĠUr ban
it ious
ack s
ĠTh ailand
ĠQ ual
Ġmathemat ics
Ġwarm ing
fill ed
Ġmis take
im s
ĠSt atus
}) \,
Ġlet s
ĠSer ver
Ġb ootstrap
Ch ina
d uration
ĠÐ ¾
Ġevery day
Ġag enda
m atter
al ias
ĠAdd ress
Ġsav ings
Ġfast est
CO MP
K ing
ĠA qu
19 17
Run time
Ġd ys
r ink
Ġg od
Ġche st
paramet ric
determ in
f ather
ĠAp pe
Q UE
____ ____
ph rase
S chool
Ġtw elve
ĉĉĉĉ Ċ
Ġfac ial
Ġc tx
] )$
Ġrend ering
to pe
ĠSe ctions
F W
Ġ }.
Ġh ired
Ġident ifier
S kip
Ġf ibration
ä »
ĠFe atures
Ġdim in
Ġlic ensed
ĠT M
ac ular
x html
Ġt ort
Ġlog ger
ĠS EC
ĠP oll
ĠU pper
ĠR and
Ġbeg un
ĠL oss
Ġcor ruption
W ait
15 7
comput e
p k
th reshold
Ġliber al
se g
Ġun ve
stud y
B Y
t ogether
Ðµ ÑĤ
Ġkinem atics
ĠH I
Ph il
Gener ator
ĠD I
Des ign
Ġcollabor ative
Ġpl ugin
ĠK illing
ĠMiss issippi
Ġmut ation
Ġheter ogeneous
R en
Ġrot ations
cre ated
Ġst ays
Ġshow er
R NA
ĠSy ria
F rench
ut enant
ĠC over
Ġl ang
cc i
ĠT X
ĠÂ ±
ĠT ig
ĠB ou
-------- ----
ĠB ody
ĠAud io
ĠR isk
' |
ĠAb stract
Ġpow ered
M il
im ag
ĠAb d
rad iation
Ġinduct ive
Ġh int
ĠSh a
ĠK err
ĠArch ives
ift y
p icker
Sm ith
o S
Ġd Ã©
Ġcount able
Ġw elfare
ul in
}, \,
ĠAnt i
Ġexp ense
inv est
ĠIn iti
33 3
b ay
Ġpos es
ĠM T
Ġavoid ed
ĠB ed
Ġt ile
14 1
pre ced
numer ical
ĠI M
Ġsoc cer
Ġpiece wise
Col lections
Ġcred its
Ġaccess ed
Ġavoid ing
ĠOper ations
Â Ń
ĠT un
decom position
' ]['
m ixed
ĠH z
ĠT elescope
osp heric
ĠOb serve
Ġho pping
K B
od o
upload s
T y
M Hz
ĉ ĠĠĠĠĠ
Ġo c
Ġna ive
H on
ĠIndones ia
ĠF BI
Ġstat s
Ġopt imum
V O
ĠV a
Vis ual
lic t
16 6
Ġtem ple
prec ated
Ġachie vable
ĠHun ter
Ġinsert ed
ĠEn c
Reg ister
rot ron
d ynamical
Ġlog o
ann ah
Ġview ers
ĠEmer g
as sembly
ĠA x
g b
Ġre cycl
S ocial
Ġshould er
Ġfootball er
ĠLin ux
C enter
ro v
ĠArch itecture
he at
Ġdimension ality
( --
Ġorbit als
B esides
L ive
ĠBru ce
Ġlif ted
rom atic
le ans
ust ration
ĠM arshall
Ident ifier
Ġbelie fs
P ub
Ġansw ered
Ġmet als
Ġrecord ings
A rm
ĠN AT
f usion
we alth
t ens
Ġb ene
ĠCons ult
k al
ern al
sh ips
z h
our t
sc apes
Ġhuman ity
ĠS now
Ġim posing
ĠKenn edy
Ġgeomet rical
Ġh ull
Ġf uck
P rivate
qu asi
Ġl un
Ġtw in
Ġcon vol
W el
as a
ract or
Ġi o
Ġtype of
Ġped est
Ġincred ibly
thin space
i ref
ĠM ind
f ive
ĠR T
ĠColl abor
ĠDoug las
function al
Ġphotograph s
Ġjournal ists
Ġmer gers
ĠBe aut
Ġsub mission
Ġau ction
Ġcong ru
ĠB ond
Ġvo ices
Ġcod imension
Ġsh ifting
ĠNam ely
F ar
ch rotron
Ġch ances
[ $\
Ñ Ĩ
? )
+ (\
ĠE R
Ġc razy
p ure
Ġsurv iv
ens pace
Ġ[ "
Ġlaw yers
Ġcomple ting
}}$ -
ĠAct ive
not ations
Ġsusp ension
** *
17 6
ĠGirl s
ĠAng el
Ġarrang ements
hat tan
ĠT itle
Ġc of
ĠF em
ĠAd ditional
Ġpract ically
Ġh ip
ĠC av
Ġbon us
set ting
ĠInt eger
19 10
Ġvir al
Left rightarrow
Ġh ub
Ġcons ol
osp in
Ġab ilities
it ance
ĠCent ury
ĠL oad
og on
Ġoccasion ally
) &\
G rad
M ajor
Ġst ocks
ound ing
b at
Ġclot hes
Feb ruary
}$ \,
] }(
Ġg all
sc attering
q w
}] ,
Inst all
ot ypes
ĠO cc
16 4
ĠBre ak
ĠP apers
ogn ition
R oy
ĠHe isenberg
Ġsurve illance
out ing
ĠP ref
AL SE
s al
19 35
' =\
Ġsu icide
Ġin jected
Ġpre vention
as ync
L ab
M us
2 12
ro ute
bi as
ĠBang ladesh
^- (
Ġcas ual
s ong
ĠM unic
ĠP f
ĠR s
str ument
Ġdivid ing
Po inter
check ed
Ġconcept ual
Ġsn apshot
Ġl unch
Ġplaus ible
ed ition
Th ank
40 4
Ġdemand ing
trans port
ĠL android
ts d
ĠC lick
Ġcontext ual
lot te
ĠMaterial s
s ocial
LO CK
." );
Ġfollow ers
() </
< !
h is
em ission
ĠG round
Over all
Ġsh aded
Ġmay or
Ġ" -
Re cent
} &=
B ottom
Ġlocal ity
Ġdu plic
o j
Pl ace
ĠS ize
Ġspeak s
ĠB og
ĠArgent ina
ĠMalays ia
pa ired
N AS
ĠS ets
Ġor acle
ĠK E
Wh ich
ĠGra ham
Ex pl
Ġengine ers
ĠPan el
Ġimp urity
ĠKe pler
ĠI SM
Ġthe ater
Ġretrie ve
ĠB aker
Ġph osph
f ail
Ġinitial ize
Ġic onic
Ġsymm et
Ġprot ons
ĠB ud
c ub
Ġdet ections
ĠHTT P
ĠE li
load ing
Mean while
L STM
Ġeth nic
J ul
Ã ĥ
D IS
4 80
Ġver b
ry ing
ues e
ubb ard
ĠN AME
array stretch
G erman
}) )$
Ġsu ited
Ġpract ition
K er
Ġstay ed
Ġb orders
Ġsat urated
c x
Ġmod est
Ġcontrovers ial
Ġbenchmark s
ĠStew art
Ġex ports
Ġcomp ressed
cont rolled
( __
Ġsu gar
Ġpick s
add plot
bo ards
{ ,
ĠB ag
Ġde emed
ĠK ra
Ġmanufacture r
he ro
eth yl
Ġconsist ed
ĠBel ow
R end
Sh ould
Ġb esides
im ents
Ġm ad
Ġre vised
Ġresol utions
N s
ĠCh a
') );
ĠD ance
ĠPat ri
Ġmut ually
ĠM IT
& +\
B on
}, {
aver aged
Ġdeliver ing
s elling
ĠV ent
L ib
15 4
ĠPubl ishing
ĠK ings
ĠC her
ex it
Ġframework s
Re lease
M id
Ġt ape
Ġattempt ing
A li
Ġhypersur face
ĠK ol
sp acing
ĠAl bum
/ {
S ame
Ġg ri
ĠP resent
Ġle an
Con stant
Ġtem p
Ġvill ages
e lectric
Ġsl opes
Ġdoll ar
ĠN ar
M ix
ĠM g
20 6
Ġassoci ations
ĠB P
Ġanim ated
Ġunde rest
in finite
om on
ĠCom plex
Ġfun ctors
ing ale
curs or
)] $
25 3
}| ^{
Ġimm igration
Ġparametriz ation
Ġsent iment
Ġlaw suit
pow ered
ĠAl ber
TE XT
L B
ĠA NY
ĠG ulf
23 4
Ġsil ent
Ġdis h
ĠMag ic
T ax
Ġf ert
ĠJ S
ĠAust ria
âĢĿ )
ĠOr leans
Q R
IF A
u h
Ġple ased
> [
B ern
is ible
Ġste am
ĠPortug al
ash ing
Ġde put
Pass word
Ġh op
G erm
Ġdat abases
Ġcasc ade
yn chron
ÑĢ Ð¸
Ġt rem
Ġb ills
ĠF E
M IN
ĠCh ile
P resent
Ġre vol
Ġex otic
ER N
Ġreal izations
Ġag gressive
Ġhydro dynamic
Ġagric ulture
Ad v
Ġfavour ite
ĠPr incess
}{ {
ĠCom pared
ph ic
ie ve
Ġtransl ations
ĠJ os
ocol ate
Ġrom antic
P ic
d V
ig ator
Ġscre ens
ĠA the
Ġpers pectives
Ġfin ishing
Ġcontradict s
Ġcon ject
cur ves
ĠR ate
Ġmountain s
q a
ion ization
Ġpa ired
Ġer u
Ġreflect ing
S K
ĠPet ers
ĠCar ter
en o
ĠM pc
P ers
ĠP un
sim ulation
Ġl iv
ang les
M ad
ĠW a
g m
ĠV R
Ġreprodu ced
" ].
ĠJ oy
convert ed
ac i
uc ial
ĠU pon
Ġbut ter
iss ance
not es
Me asure
Ġc rown
Ġz oom
p es
ĠA y
ĠP rad
Ġf uzz
co h
n ament
or ia
ta ur
ĠLead ership
ĠDak ota
Ġ\! \
æ ĸ
22 2
Ġveter an
ol er
ĠP il
}_ *
ĠS ide
Ġcre am
Ġfol k
Ġaff airs
Ġse ver
ĠO il
\, ,\
Ġposit ively
f eld
ĠW orth
Ġcult ures
l ibrary
[-> ]
), $$
station ary
Ġan nu
Ġ($ (
Ġmark ers
ĠPit tsburgh
Ġa est
Ġart istic
Ġf ocal
Ġde leg
E val
ĠD ublin
ĠDown load
20 3
ĉĉ ĠĠĠ
r p
ĠL anc
ĠPho enix
0 12
ĠB att
Ġjust ify
tain ing
ĠĠĠĠĠĠĠĠĠĠĠĠĠĠĠĠĠĠĠĠĠĠĠĠĠĠĠĠĠĠĠĠĠĠĠĠĠĠĠĠĠĠĠĠĠĠĠĠĠĠĠĠĠĠĠĠĠĠĠĠĠĠĠĠ ĠĠĠĠĠĠĠĠĠĠĠĠĠĠĠĠĠĠĠĠĠĠĠĠĠĠĠĠĠĠĠĠĠĠĠĠĠĠĠĠĠĠĠĠĠĠĠĠĠĠĠĠĠĠĠĠĠĠĠĠĠĠĠĠ
C ert
< -
j ud
ĠX ML
spect ra
ĠBe ck
pro jection
neut ral
ĠW ikipedia
N U
Ad ditional
Ġro oted
hal o
En um
}$ }\
part s
str ateg
Ġt ale
AV E
St ats
Ġphot ography
ĠC leveland
Qu ant
Ġex empl
ĠSh are
0 11
Ġanaly tics
Ġauthent ication
m ov
ĠS oul
ow s
y i
ox ide
L ead
pro port
St rateg
H amiltonian
at op
Ġexcept ions
19 34
15 3
od ers
ID S
ac ency
pi racy
amp ed
ĠS USY
Ġour s
ĠAnd y
Cont in
Ù Ī
Ġhigh way
20 4
Ġcryst als
Ġprot ests
ens itive
Ġsolit on
+ }$
Pro gress
ĠPort land
ĠP U
Ġsucceed ed
Ġd eta
Ġl ingu
ex ist
Ġph ones
ĠNe ural
Ġf atal
spring framework
ĠR ap
Ġsuper gravity
LE S
sh a
ĠBlo om
Ġfound ing
ĠS ale
th a
Ġen compass
Ġlo ose
iz on
ĠCal cul
Ġ ^{-
We ek
Ġdam aged
ĠM es
ĠR V
Mod els
$&$ [
ĠF ollow
ĠCon vention
Ġjun ior
k an
enc il
Ġtrans parency
ĠSI ZE
ĠE mm
ĠFor ces
Ġmark er
ĠSl ov
Ġg ross
Ġorgan isations
EE EE
Ġsecret ary
Ġdeform ations
m otion
ex plicit
ĠP ap
ĠWal ter
. ",
t body
Ġd uties
pe red
ess ential
ĠJacob ian
Ġren dered
... </
ĠC B
Ġaud iences
ĠPro duction
Do es
Ġra ises
Us ers
ĠSob olev
g ie
min im
Ġmon oton
alax ies
] ^-
EN SE
dom inated
s afe
general ized
Ġluminos ities
v n
}} )$.
r Ã©
z ens
Ġf ate
bib item
Ġrad ar
Ġvent ure
Ġdraw s
? }
ĠF reedom
19 33
Ġdepict s
utr ino
F ocus
ĠConnect icut
ĠDrag on
Ġlock down
ĠRe cent
Ġt x
55 5
Ġinstant aneous
Ġw ings
Ġsurprising ly
Ġblock ed
Ġc rossover
ĠApp lying
r int
Ġro yal
15 1
B ad
Ġli ver
ĠE ve
Ġsh ield
om i
Oper ator
Ġpaint ings
c ro
Ġchar m
ass ador
op ens
ĠV eter
ef ault
ma pping
Ġphenomen ological
Ġfail ures
Ġaccompl ish
j unit
t oc
Ġab ortion
ĠDat abase
ac cur
sp irit
Ġpoint wise
ĠCamp bell
T ele
Ġweak ness
Ġnomin ated
he imer
ĠFro benius
Ġl uck
ĠBrook lyn
Ġmunic ipality
op ter
it ational
od rom
normal ized
ĠR ange
ï¼ Į
Ġpecul iar
Ġeffic acy
ĠN an
D Y
Ġben ch
ĠA SS
us ually
c ool
Plan ck
Ġencourag ing
Ġtrust ed
Ġc ave
Ġb es
sw arm
p rice
ĠIn stit
ah a
verg ing
ĠLy apunov
J P
deriv ative
*}[ !
Ġinfinites imal
th r
ĠInterest ingly
re dshift
Ġpo ison
Ġsus pic
ĠP arent
Ġc ul
ĠF le
ib bean
Ġdecl are
Ġflo od
ĠLe besgue
Ġne b
itro gen
Ġceleb ration
ĠN ur
Ġdemonstr ating
19 14
ĠW ind
arc ia
pl oys
othe rapy
D b
å Ī
Ġdemon stration
Ġn ights
check box
act ory
| |\
Ġgather ing
Ġposs ession
}) }$
ĠGu id
ĠL ot
ĠDen mark
Ġmusic ian
ins ky
ĠSe pt
Ġtom orrow
M el
PO ST
id ad
ch apter
? >
AN S
N ative
Ġanomal ies
Vol ume
inu ous
Ġexhib ited
quir y
Ġj ew
Ġpoll ution
\ (
s ay
Ġbacter ia
Ġven ue
Ġcapt uring
mod ified
Ġpregn ancy
ĠT ak
ĠC el
Ġh orses
ĠCre ative
×Ļ ×
{$ {\
Ġell ips
ĠP ope
Ġsort ed
Ġwe ird
ĠB altimore
ch at
en ia
ĠE SP
T B
ĠChe l
ĠU E
Ġab road
Y ang
ĠGener ation
plan es
iv als
string s
prov ided
Ġstrugg ling
)} -\
l av
. <
ĠIn surance
Ġambigu ity
ĠBelg ium
OC K
Ġmultipl ied
hi er
) ^{(
ir med
bu ck
Ġv essels
path s
andid ate
Ġs pa
}} },
uer to
ĠN ep
18 8
Ġexp enses
ĠL ock
ĠO range
2 11
Ġmaintain s
Ġdie lectric
Ġpre t
D U
Ġ urg
ĠS quad
ĠÃ ¢
Ġch urches
Ġneighborhood s
Ġm ood
Ġmiss ions
ĠF ine
ĠMad rid
' )$.
Dat aset
ĠI an
ĠQ uality
semb les
eg ree
Ġpri ors
=" $
Ġjud ges
lim inf
Ġsh or
to o
Ġbl ur
pos ite
pr ises
Ġarriv es
W alk
ĠE ND
Ġd yn
det ect
ĠB eyond
ĠCom parison
ĠJust in
ĠSh ah
enc oder
ĠSt orm
gener ate
Ġinher ited
ĠJ oint
ĠCy ber
A ST
ĠK ate
n x
un iversal
Ġprom ised
ĠLead er
. ''
ĠCol umn
Ġlink ing
ĠTechn ical
Ġassert That
ĠÐ º
ĠLiver pool
Ġscul pt
ol ly
ill ery
ampl itude
Ġin noc
Ġpro s
ĠKen ya
sim pl
maxim um
ill ary
link s
Ġprev ents
sol utions
S plit
Dist ribution
M arg
Ġp ul
Ã ´
Ġla pt
}\| _
ĠKn ight
m os
al ia
ĠSte ven
Ġoppon ent
Ġi OS
I Z
Ġg allery
ĠG ill
Ġvers a
id ays
ĠHistor ical
Ġden ominator
G re
he x
ĠV ancouver
Ġlemm as
ĠIss ue
Ġin sect
16 3
Ġexplo ited
ĠMa ine
ib liography
19 19
It s
reg ation
r ative
de rer
ĠD rug
19 29
ke e
U pdated
Ġsubt raction
r x
run ning
Ġal arm
high light
ĠStat istics
ll l
0 30
pre vious
27 5
rac ing
99 99
Ġappro ached
ĠMet ro
eps fig
RE S
Ġenc ryption
ĠAgain st
Ġenorm ous
Ġst up
ĠAp ache
ge ometry
Ġdecl ined
z hou
ĠAl ong
Y P
dom in
ĠColl ins
ĠG ate
Ġanxi ety
ĠH P
Ġper ipher
Ġunder ground
Ġclaim ing
ong o
Ġarch ive
ĠTechn ologies
Ġd ub
Ġmit igate
Ġorig ins
Sc ott
Ġrest oration
Ġgraph ic
Ġbank ing
k r
Ġprov isions
Ġd B
Ġd ressed
ĠF an
Ġint elligent
Ġpe ers
hel per
Ġhand les
}\ }$.
Q ual
IM PORT
Ġswim ming
ĠG rad
re duction
Ġinter ventions
Ġsub stituting
ut t
he ng
ĠSpe ed
manif olds
de cess
Ġen v
pos it
Ġin aug
Requ ired
Ġre ception
Ġn est
| ^{-
T ilde
ĠĠĠĠĠĠĠĠĠĠĠĠĠĠĠĠĠĠĠĠĠĠĠĠĠĠĠĠĠĠĠĠ ĠĠ
Assum ing
bf series
ext ended
ĠAst ro
W D
Ġmultipl ier
normal font
Ġwork shop
Ġpo em
d iss
mat rices
Ð¾Ð »
Ġpick ing
8 50
Ġco ordination
Ġsepar ating
Ġconfin ement
ĠAn imal
)( -
re le
Ġjo ins
pro xy
St ation
Ġab bre
ke ley
Ġquas ars
DO CT
Ġsmooth ly
TR UE
ĠS ent
exec ute
rac es
Ġob l
Ġpropag ating
h istory
Gener ated
or ov
ard i
ĠA V
Ġdevel ops
govern or
w iki
W F
ited efault
mc itedefault
c ity
ĠKe ep
/ -
ubb les
getElement ById
var nothing
f uture
ic iency
alt ies
ĠF ab
b h
c ient
t own
appro ach
Ġformer ly
Ġdiffe omorphism
Ġgre edy
p ars
E valuation
19 4
ĠClass ic
B ind
s burg
ĠS r
ĠBe at
Ġstar ring
al tern
bor ne
Ġ )^
oc on
The ir
be en
OR K
n os
}_{ [
ĠPark er
CO VID
ĠEv ans
Ġfragment ation
Ġwe igh
uff le
o ples
20 7
) ->
ha us
Ġdecom pose
constra ints
ang el
Ġst a
ex isting
ast ing
class ification
ĠT ob
Ġ" $
poss ibly
Ġh olograph
ĠC ensus
Th ough
Ġcompos itions
id ered
Ġde ck
typ edef
ĠB egin
Ġport s
ĠIR S
K ar
Ġshel ter
Ġ ip
D im
text subscript
202 4
Ġscr atch
Ġevol ves
U ri
rot ation
4 000
ĠAl aska
On line
ĠTrans former
Ġextra ordinary
- {
ĠD IS
Ġnon local
Ġnews letter
ĠRet rie
ĠEp isode
C ategories
15 9
ĠAt tack
Ġweight ing
ain ed
Ġexpl ores
+ |\
ap os
vect ive
ĠM Hz
ass ign
Ġin sufficient
Ġrel ativity
17 9
ĠB arcelona
Ġsh ipping
-> ]
17 8
b ands
Ġst adium
in ous
Ġd ump
ĠW E
Ġtechn ological
Ġtend ency
tabl en
iff s
v x
Ġa fraid
U pper
Ġconf used
Ġ\ {(
m outh
Ġl ung
ĠP odcast
ran e
effect s
Ġt weets
pl as
ĉ ĠĠĠĠĠĠĠ
Ġover flow
us form
ĠMit chell
/ "
Ġdead line
ĠBe ijing
m obile
S ite
Ġdes ert
Ġ\ [\
numer usform
Un fortunately
}) ^\
ĠSam uel
Ġen emies
20 9
19 24
ĠInt roduction
respon d
Th omas
user name
ĠJul ia
Ġdifferent iation
ĠK os
[ -\
ĠC ould
17 7
Ġelect roweak
Ġg ym
Ġsynchron ization
log o
ĠGib bs
Ġco pper
ĠD raw
Ġgold en
b oot
Ġ ];
ĠComp etition
ĠR edu
ĠFin land
Ġgr asp
Ġrenew able
ig ating
Ġf ool
Ġaccount ed
se gment
establ ished
Ġe ject
Ġst unning
vert ices
Ġbar rel
}} }_
AR R
ĠR ather
Ġopt ically
ĠTele vision
m ers
Ġfix es
gener ator
ĠPro perties
ĠF alls
Ġhand ed
Ġpsych ological
i ological
ok a
ut ers
vel oper
ĠOper ation
ĠH odge
ĠL L
Ġconcent rate
ĠMor ris
Ġt ap
ĠH awaii
Ġagre ements
ĠP SF
W C
ĠHy per
17 4
Ġbel t
! (
ran ean
Ġy r
Ġemploy ers
bra ket
oper ators
Text ure
Ġsh aped
Tra ining
ogen esis
ĠH end
Ġ- (
ars on
in burgh
ĠD FT
s ent
ĠU AV
ol ding
pp y
sp arse
Ġanalys ed
ĠT oy
Ġform ats
ĠK il
ĠPal ace
ĠCom pton
Ġobst acle
; )
}' _
Ġegg s
ĠN umer
ĠM ack
ĠSum mary
b right
Ġbreak down
M pc
re ak
le tt
ĠTown ship
in z
interpre t
Ġref resh
ĠM illion
B orn
p ad
Ġt ennis
Ġrec i
cor ner
Ġsem icon
6 50
Ġisomorphism s
+ {
ĠMus k
(' /
ĠP ant
roid s
Ġfore ach
Ġ$ >
A u
ĠBase ball
19 32
ĠN AV
ĠJ a
Ġtransl ates
- (\
ĠH S
e ither
ĠTurn er
pan ic
ĠF ly
Germ any
f mf
ĠA bs
ĠSen ator
ov al
ie v
arch ive
Ġcert ified
m or
im ple
E mb
H en
Ð° ÑĤ
ex tern
Ġmod elled
ĠSw ift
list ed
OM E
: `
ld er
ĠN J
Ġsatisf action
Ġep ic
ĠEx perience
}+ (
Ġprotect ing
3 25
18 7
ĠCam paign
Ġannot ated
Ġp ending
Ġcount ed
ĠJ uan
ĠCh ron
Ġfail ing
ĠT u
ĠMe eting
Ġlif estyle
18 4
}\, {\
rotate box
ĠW D
Ġdef ence
plan et
Ġwra pped
19 28
Ġen rich
, +\
ĠCh amber
Ġbur sts
Ġemail s
Ġcompet ed
18 00
Ġgeodes ics
Ġheli um
h ape
Ġre named
Ġchar set
block s
f are
ĠK L
Ġanaly se
Ġlater al
ĠHon or
is ol
Ġdo zen
S ources
{ "
Ġmed i
17 1
ĠCol lect
Ġerg odic
Ġdec ides
Ġspecific ations
ĠFre der
et on
Ġcoast al
Pres ident
Ġind oor
ev ol
h ind
ĠL if
mat ory
ut orial
Ġsal ary
ĠT ables
ĠS amsung
big wedge
Ġu i
Sh ape
Ġexp at
Ġwork load
1 200
Ġc ad
Com plete
omot ive
index Of
g f
et ed
ator ies
Ġconduct ance
Ġretrie ved
ĠMajor ana
fact ory
ĠCon struct
ĠLe ave
pir atory
oun cing
Ġtour ism
Ï ĥ
Ġstay ing
j l
Ġneur on
BU G
Ġacceler ate
Ġcylind rical
Ġbehav es
ĠImage Net
Ġsupernov a
v ark
Ġb ump
Ġfoot print
mer ge
p ag
Ġtet ra
i encing
ĠSt ev
ON G
}+ {\
Ġentreprene ur
Ġglob e
r ific
Ġ} }\
St ruct
Ġestabl ishes
Ġp ounds
-> _
Ġwild life
Ġrect angular
Ġcount ies
Ġton ight
link ed
Ġinhab it
âĸĪ âĸĪ
Ġwe aken
press ure
P F
}' (
Fl ag
it ual
30 4
ĠSt ra
pl ess
EL D
ell ers
Ġpack ed
Ġviol ated
Lear ning
, ~\
observ ation
M ach
pt s
ĠC SS
ĠOut put
Ġrecur rence
A gg
ĠP I
19 6
18 9
Ã ¥
Ġover se
Ġlog ging
Ġpro ps
ĠMar c
ĠCE LL
I gn
ac co
Ġpool ing
ingu ish
Col lect
ĠĠĠĠĠĠĠĠ ĠĠĊ
UT H
ĠMur ray
ĠDemoc rat
par box
m ir
Ġde let
ĠStat ement
or ious
sc an
Ġatt ending
ĠCont ract
Ġclean ing
ĠSh op
Ġthreat ened
Al low
e ur
Ġcon vergent
ĠE lection
Ġdel ivers
ĠIm per
ĠConsider ing
ĠC emetery
Ġcon current
ĠRes ult
×ķ ×
ere nt
ĠDe fin
B order
p unct
Ġstake holders
Ġinform ative
preced ented
ĠE state
Ġviol ations
Ġd ad
comple t
3 40
R D
ï ¬
Event Listener
ins ki
D rop
m oz
e as
ĠEx cell
ĠDist ribution
Ġpro gression
aud io
Ġhelic ity
Ġr ic
> ::
B ob
ĠD ie
Ġcomp ilation
non linear
as ta
Ġwork place
Frag ment
v t
Ġsurv ived
em en
vent ional
r ise
Ġf iring
in j
ĠTh or
ĠM aj
sv g
Ġadopt ing
F n
ĠCle an
Ġdro pping
ĠRich ards
ĠH im
Ġis ometry
Ġcho oses
/ (\
17 2
ĠT ower
Ġg y
ĠBrazil ian
Ġcon vin
Ġoptim izing
s us
^- _
)= {\
M u
E instein
j ournal
s gn
DOCT YPE
Ġlegit imate
) })\
Ġexplo iting
n k
ĠComm ons
h um
h fil
' _\
Ġ esc
be ck
Ġinflu ential
Ġcook ie
/ _
Ġpur ple
ue z
allow ed
ĠF u
ĠB rew
ĠG ot
cont ents
ĠCon text
16 1
~ .
st rip
ĠRog er
ĠParamet ers
Ġalt ered
Ġun biased
Ġ ul
l iving
Ġpro poses
sens itive
as pect
}^* \
Reg istry
H i
om at
ĠL abel
respon s
11 11
M aterial
Ġdecay ing
K it
Ġprior it
Ġsc ar
Ġimp ression
N eg
og s
us hes
ĠK ids
Ġfasc inating
Ġlinear ized
m ouse
Ġellipt ical
Ġcar riers
od ox
i ability
ĠO wn
Ġoptim ality
ĠUnivers al
ĠC row
j ee
Ġ&= &\
Ġobst acles
Ġhyper parameters
k el
ĠN ord
Ġter rible
ri ors
Ġnon empty
UN T
ĠE volution
inter acting
ig o
An imation
Ġbr ut
re call
Ġstart up
AC S
Ġpl a
om al
ĠZ one
Ġprevent ing
Ġcrypt ocur
ĠArab ia
Syn tax
ĠK lein
in ar
r ases
p ages
Ġde cent
Ġpath way
ore n
ĠN otes
oth y
ĠP erm
S creen
W allet
Ġp arks
ĠRe le
ĠDep uty
r ator
Ġsize of
Ġeduc ated
Ġpol ym
ĠJim my
)} ;
Ġr iding
_{ |\
ĠR ing
Ġpar ish
rapeut ic
Ġoppon ents
: $
ĠAL IGN
Experim ents
Ġp up
diff usion
ĠCho ose
ĠM ade
ic ating
Ġaccum ulation
Ġp t
g z
Ġcomp elling
Ġme al
Ġbi om
Ġassign ments
Ġg onna
ĠF iction
}, $$
ar Xiv
up ole
Ġingred ient
ĠM etal
ĠGu y
ĠA aron
ĠR av
17 3
19 23
Ġfeed ing
Ġconjug ation
Ġdisc s
Prof ess
Ġres ign
comm un
Ġgraph ical
Ġenthus i
Ġm ature
ĠR A
> "
R ender
Ġfil ament
Ġhabit at
H uman
ĠK el
Ġwar ned
Ġtor ic
vi olet
Ġtrans fers
valid ate
ist ered
ĠL ith
ĠG rowth
ĠThrough out
Ġtri ps
G reat
r q
> =
run time
Ġsp ite
P B
_+ ^
ĠN FT
Ġsl ots
Ġtra iler
ĠDen ver
Ġinteg rand
ĠNC AA
Th ird
ĠC N
Ġper pet
ĠS ad
ĠFrank lin
}} }_{
com par
Ġad mission
f ake
Construct or
Ġl ane
ak u
con ver
Ġback ing
Ġintersection s
iat ric
ident ifier
ĠMan hattan
Ġelev ated
ĠJ up
Ġnever theless
N GC
å ®
Ġtox ic
i Äĩ
Ġpred icate
ath on
18 3
ĠVis it
ĠJ ennifer
ĠCo al
ĠMy r
ĠBet ter
i w
Ġ\! \!
Ġc ust
Ġall Classes
ĠR ules
ĠSub section
ĠT rain
19 3
tr l
ĠForm ula
Ġcat aly
Ġfulfill ed
ĠN H
Date Time
usal em
Ø ¯
Ġl ap
"" "
Head ers
as g
ĠD S
ĠD ig
ug g
Ġslic es
Ġempir ically
ar ct
ove re
ick ed
Ġun c
al one
19 12
Ġsus pected
E SS
Ġvis cous
P UT
Ġsw ing
arab ic
ĠallClasses Link
Ġpack ing
certaint y
Ġm appings
experim ent
Ġcom ics
ident ified
19 27
Ġtal ented
ĠC lient
å ħ
c ke
Ġde formed
ou x
) }_\
ĠSt rong
oding er
Ġsmart phone
Ġw age
28 8
st ead
Ġdi abetes
Ġs its
Ġint ensities
ĠS itter
Ġr he
amb ers
ĠT ik
Ġastro physical
ĠE valuation
F ramework
Ġbl ame
Ġacknowled ged
Ġin consistent
ĠS top
p ole
PRO JECT
Ġdev ast
D ark
m ind
ĉĉ čĊ
Ġth irty
Ġevery body
og ue
Ð ³
rit ic
log y
ĠLink ed
Ġrom ance
g ender
ho o
Ġmon ol
oul li
Ġcon es
cur y
u art
ĠLine ar
ict ional
ĠA verage
Vis ible
ferm ion
C Y
ç Ķ
ĠK rist
Ġj ail
br is
ĠJacob i
n old
Ġcondition ed
Ġun seen
Ġgot ten
ĠG OP
Ġpen al
ĠL D
ĠCra ig
n ut
Ġselect s
ĠStan ley
ĠProt ocol
T ur
Ġg i
ĠFin n
ĠMed al
ĠB erg
in x
W ave
st ro
Be an
ĠT s
ect ure
ĠB ear
og y
ar us
Ġcon vey
Ġel ite
Ġsimple x
Ġn ose
Ġspi ke
Ġax ion
' }(\
Ġconvent ions
Ġopt s
Pa per
Ġinter cept
Ġdocument ed
Ġa qu
d iction
Ġadjust ment
Ġas pir
ĠL F
Ġdiscrim inator
Ġknot s
K a
ĠM all
10 16
Ġchar ity
ĠQu estion
O cc
Ġforb idden
time out
0 75
Ad min
gl ob
g am
Ġbene ath
Ġshe aves
ĠL aura
ĠV ision
F rank
sh ore
label s
Pro to
Ġmet ast
ĠCar ibbean
il ateral
Ġbo ards
Ġprint ing
= &\
ĠI SO
Ġch unk
Ġp ink
AB C
Ġhad n
;\;\ ;
Ġcon ce
Ġear nings
Ġa uth
con formal
mon ot
Ġnull ptr
Ġgovern ance
acc uracy
Ġcompr ising
Ġr ice
aps ed
= ~
19 26
Ġfoot age
am ic
Ġcompr ised
Ġpreval ence
D ash
x p
pend ing
Ġden oting
yp ically
ĠZ ero
Ġl ucky
Ġinvent ory
Ġexist ed
List en
c atch
Ġun lock
Ġt ons
Ġse venth
19 22
cur l
R ules
ex plain
Ã© t
Ġannu ally
ac er
Ġcour tesy
Ġbe ating
m other
lat ex
im als
Ġcomplic ations
19 25
Ġcan vas
ĠMil ky
Ġconflic ts
te am
K R
Ġ il
ĠN othing
E ducation
mit t
Ġimplic ation
Ġsc iences
Ġintersect s
Ġperm its
- ,
st raction
Ġsustain ed
make cell
Ġfunction als
ĠGR B
b usiness
Ġhyper plane
Ġre ign
experim ental
F lor
ĠThe ater
Ġprec ip
En umer
iv ic
match ing
vark appa
re z
ine a
Pl atform
w avelength
Ġfeas ibility
Ġs li
Ind ia
ĠWar ren
V an
n ia
inos ity
select or
ĠCart esian
ys on
Ġacc re
With in
() ))
art icles
Micro soft
Id entity
Ġess ay
Th ose
Ġco hort
Ġvirt ue
Ġoverwhel ming
ĠF ramework
equ ality
ph al
| >
Ġpropag ate
ren ces
Ġselect or
Ġ$\ ,
Ġinv olution
\! -\!
e asy
arc s
C ounter
] -
ĠT ed
Ġeccentric ity
De legate
Ġmin istry
T urn
^* _{\
Ġdis advan
Ġprim ordial
Ġsyn tax
follow s
0 13
Ġsh ops
c g
â Ĩ
ĠPhys ical
an ov
arch y
3 45
ocy cle
18 2
s ources
Pl us
ĠSom etimes
accur ate
B rown
iz ard
ĠGra ce
Ġcoal ition
Ġmyster ious
em it
L ou
Ġcent res
empor al
Ġpro c
for th
ash a
De ath
ĠI MF
approp riate
com fort
Ġmic rowave
ĠArk ansas
L it
f air
Ġcancell ed
Ġdif fraction
ĠSh adow
d S
in ery
Ġdedu ced
Ġmon oidal
ci ous
ĠC ome
em ployment
' /
Ġactiv ists
Valid ation
coupl ed
Ġlit eral
Ġdescript or
ĠInvest ment
c ould
Ġnil potent
it ime
23 1
ir s
Ġexper iencing
Ġco aching
; ">
Never theless
Ġscient ist
ch ap
}$ }}
ĠUs ed
t in
Ġprom ises
Ġmis takes
ĠN SF
B inary
ĠE ver
c art
Ġex clusion
Bbb k
ĠC ultural
19 15
Ġswit ched
car bon
ĠE dd
Ġinc idents
t ran
mon ary
Ġk a
P eter
Î »
Ġk iss
Ġcompet itors
am matory
ĠCon versely
Ġpaint ed
Ġload s
ĠJ ere
Ge orge
g ro
he ld
\!\! \!
ĠArch ive
ĠA part
ĠA rena
ĠW IDTH
Ġh ung
SC RI
Ġenc ounters
Ġparametriz ed
st ochastic
ĠTreat ment
ĠâĢ Ŀ
charg ed
PE C
ression al
ĠÐ ´
nice frac
z ier
Ġvort ices
ĠSt yle
ĠIndust rial
vary ing
C irc
end ors
de creasing
ĠR ud
Ġtra dem
ĠBo ys
M ills
vi ate
s ync
Ġt iles
det ection
bar rel
Ġmult is
ĠChar acter
EEEE FF
d al
Ġk nee
Ġcomp iler
war ning
Ġarchitect ural
y z
Ġem ploys
measure d
ĠM F
cl s
ĠEx pert
ĠCommun ication
show s
un ting
Ġint ensive
Ġhaz ard
Ġg ig
Ġcitiz en
ĠRepresent atives
Ġ{ "
Ġperm issions
Ġr ally
ĠH ausdorff
Ġpost er
bran ch
ĠĠĠĠĠĠĠĠĠĠĠĠĠĠĠĠĠĠĠĠĠĠĠĠĠĠĠĠĠĠĠĠ ĠĠĠĠ
eli very
ut ton
AR CH
le af
ĠM ak
)= (\
Ġcirc ulation
BP ACK
iv ate
00 9
adapt ive
ĠKe ith
ĠFellow ship
Ġthe rap
^+ ,
ul k
Ġworld s
Ġout liers
ĠP rec
19 16
19 08
22 1
mem bers
hab ilit
H erm
ĠInter view
Ġhun ting
}| _{
19 21
Ġsmooth ness
ĠReg iment
ran ger
Ġcalib rated
Ġcol span
ex cit
Ġcl ump
ĠCol omb
Ġsec ured
ĠDis cussion
\ }}\
Ind ian
trans action
\ ;\;
Ġr ugby
RE G
ĠB our
v ation
Ġem power
Ġflav our
Ġl on
ĠF ish
Ġqu i
ĠN y
ĠLe v
column s
Can adian
Ġcurs or
Ġn utrition
amb igu
by e
Ġfund ament
ĠStart ing
n ative
ĠCl ar
ĠCommission er
central ized
Ġfid ucial
Ġrepl ied
K W
ĠH il
im ony
Ġst yl
)=\ {
ps hire
Ġ Ä
Ġre nov
Ġtransform er
Ġrefere n
\ })
Ġsm oke
Ġch ron
ĠE mail
ĠSus an
Ġcon dem
Ġsil icon
un ks
lass ical
s ix
inci ple
& -\
ĠL I
lic ense
SS L
it on
Ġsubs idi
Ġspec im
ĠCom ics
or on
Ġd ex
ex c
du ality
Ġcook ing
Ġd rew
ĠComput ing
Ġcon duction
Ġ' <
he avy
Ġre dd
}. \\
ĠN R
Ġlight er
text sl
Return s
m eter
Ġsp ans
k le
Ã «
og raphics
Ġsl ide
Qu antum
, {
al ion
Dep artment
Ġin homogeneous
Ġdistinct ive
fol ding
ĠF ame
C as
Ġs ail
Ġp ipe
Ġkey board
ĠAnd re
Ġinsert ion
Ġpredict or
Ġow ing
ĠL M
Hig gs
ich i
Ġ\ |^
m ount
ins ula
ĠAgric ulture
d ie
Ġsur ge
Ġaccept ing
om ers
}\ {\
_{\ !
ĠC rown
erv ation
ĠGal ois
m is
Ġm d
ĠL en
id ual
ho ff
Ġund ers
sw ap
sen al
Ġvulner ability
Ġ$ {{\
P OS
Ġcomp rom
Ġproduct ivity
ĠCro at
Ġpr uning
bor ough
Ġspecial ist
Ġfood s
ĠMov ies
Ġh ype
Ġrecurs ion
Ġs orry
ĠC MS
ĠSe an
Ġcon verse
th ose
St atic
ĠPre vious
ĠC BS
Europe an
$ +$
ull ivan
Ġdepart ments
B ol
t ouch
Ġreg ards
ĠBen jamin
IS A
ĠL ov
Ġdis rupt
x u
om o
AM ES
Ac cept
Ġend owed
I mages
iz za
FL AG
enez uel
ĠK ay
}}\ ,\
if def
Ġsk et
abel ian
ĠK ind
Ġdesign ers
Ġc ous
print ln
option al
eg el
Fig s
Ġaw esome
ĠRob in
ra h
ĠBar bara
ĠN ad
Lear n
ĠWay ne
2 16
Ġl ymph
19 31
row se
equival ence
Ġs urn
Ġproblem atic
})$ -
Ġmal icious
ĠF riends
Ġconstit utes
Ġpro x
att y
Ġfavor able
am ount
pro cal
ĠCh an
18 6
p aces
ĠEvery thing
ĠNor wegian
Ġpossess es
S eq
Ġ\ }$,
âĢ ³
ĠK ath
Fil m
Ġlept ons
ĠOr chestra
m illion
con tr
Ġtrem end
Ġmult ic
Ġforecast ing
up ta
War ning
Ġpregn ant
Ġun necessary
ĠLe ban
ĠM atrix
verg ences
ĠBa pt
ĠI da
Ġcur riculum
Ġbuck et
in ters
Te am
Ġeconom ics
ĠRem ove
Ġrecip ient
Ġprop ri
38 4
Ġearth qu
Ġw ishes
ic ode
p ublished
ĠDo ppler
22 9
ĠR NA
id y
23 8
ming ham
ĠChrist ians
Ġfall en
av oid
Ġl as
ĠN BC
ĠSe ven
Ġiter atively
integ ration
| .
ol ine
22 7
ĠDe velop
Ġwork force
IM P
Ġport al
ĠSt ri
sh are
ur ate
ĠE L
Ġscan ning
Ġam ple
bl ob
C hat
Ġlo ans
Ġun precedented
}[ {\
ĠS ony
ĠC ant
sign ature
ĠPortug uese
b ie
ĠV A
EN S
ĠB right
sp atial
gl ass
ĠPut in
Ġelabor ate
Ġactiv ist
n f
P ubl
un known
iter ranean
p relim
ĠMin or
R oman
Ġstack ed
id ate
0 50
ĠK od
Ġelim ination
cell s
Ġrein forcement
ĠH ttp
% "
defin ite
Ġcal m
ĠEmerg ency
et ta
Ġpress ures
}& =\
ĠMarg aret
). \]
Ġfoss il
product s
Orig inal
Ġrecept or
ir k
air y
Ġmultip lying
Ġ ub
NavBar Font
c ass
Ġt ar
olog ic
resol ve
er gy
Ġl ith
ee a
T aylor
Ġpr imes
ĠPer iod
ĠCap itol
Ġsyn chrotron
Ġsc ra
Ġazimuth al
Ġexam ining
Ġin n
Ġdrum s
: {\
h art
Ġan ne
Ġterm ination
% ),
ĠM SE
pair s
Ġpet ition
Ġcon vection
Ġdep ths
å Ĳ
ĠBroad way
DE FAULT
Con sumer
ĠCon c
Ġvolunte er
}. \]
Mart in
d st
Ġf ingers
Ġl in
ä º
ĠArray List
b ia
d river
Ġr g
Ã Ĺ
Ġin ad
Ġen sembles
ĠPrad esh
Ġess ence
ĠCit iz
ple ted
Ġex cluding
spec ially
40 1
cy cles
ĠA my
PR L
Ġdr one
ĠQueens land
Ġplate au
Ġpre decess
az ines
h orn
Ï Ĥ
mm s
'' \
Ġat tained
oll ar
ĠT S
Ġdis ability
Ġcolle ges
ĠK on
count ry
E F
ĠF el
R GB
cl one
Ġp ocket
You ng
OL D
Af ric
Ġbifurc ation
3 80
ed i
con sum
Ġtail s
Ġanten nas
ĠO H
ĠPract ice
Ġfin ishes
^* )$
Ġtimes cales
ĠChar lotte
Ġaccum ulated
conj ug
F und
Ġ _\
is dom
Ġrock s
em ics
Ġshe ets
}} &
Ġj ury
Ġreveal ing
Ġking dom
Ã© n
Ġcan nab
Ġjud gment
* (
Ġf u
L ip
ĠNev ada
L ondon
Ġw orm
S core
ĠF ocus
Ġn erv
ĠSpring s
Ġclar ify
ÐµÐ½ Ð¸
Ġcur ious
N B
ĠRober ts
Enc oded
W O
ĠC old
Ġ Ø§
ĠW id
b ast
re li
ĠD NN
ĠEd inburgh
Ġte eth
ĠR H
Ġbott le
asympt otic
Ġspec ifies
B atch
Ġal ien
Ġen larg
ock ets
sw er
reng th
Ġtre asure
T an
am med
ĠC urt
Ġimp ed
int endo
WE BPACK
re act
Ġball ot
y ellow
ĠA LL
ĠTransport ation
ĠR AM
rac ies
Ġca ution
}] $.
NE W
S ig
if ference
ĠAssoci ate
Ġinter stellar
Ġalleged ly
ĠH at
Ġachieve ment
ul ators
opt s
Exec ution
im edia
ĠL ost
L ibrary
N amespace
mb le
rest ricted
Ġpredomin antly
-- (
Un like
oe lectric
et erm
ĠJ azz
Ġvol can
Ġprof ound
ant om
Ġorb ifold
ph il
ĠMulti ple
ĠCarl os
Ġnecess ity
et ti
Ġrun ner
Ġelectron ics
Ġarriv ing
= {(
ĠS z
DE F
ĠGre ater
Form s
ĠVo ice
Ġan ime
Att r
ut ives
S ect
ĠCurrent ly
Ġenerget ic
P ark
Ġs ocket
IMPORT ED
Ġs igma
Ġmand atory
cast ing
ĠH ockey
opt ical
}\ }$,
ĠV eh
ar as
Ġquadr ature
Dan iel
cent ric
ĠN ak
22 3
M V
Ġfriend ship
ĠS end
ĠW ire
Ġfree ze
be at
erc ise
ĠLiter ature
Ġg ases
Ġal umin
ĠCor p
Ġflat ten
R V
T a
g cd
Ġw rap
Ġwor ried
urs es
dat abase
Seg ment
ival ent
ie u
ĠF DA
oper ative
align at
ĠA ve
go al
ĠH udson
ap is
ric hed
an che
O wn
dist ributed
PC A
ĠChem ical
bra ham
Ġhe aling
T IME
b ons
ĠS witch
ĠProduct s
Ġsystem ic
g ive
ampl ed
Ġhand ful
ast ed
Ġl ig
tr unc
ult ra
ĠJ our
ĠM ig
ad ditional
Ġro ster
ught er
ĠCon jecture
Ġbi ology
observ ations
Ġlegisl ative
im on
Ġquas ar
ĠLu ke
ex change
C red
bre w
ĠGh ana
C AL
p ark
Ġn s
Sch warz
}\ |^
ix on
ĠĠĠĠĠĠĠĠĠĠĠĠĠĠĠĠĠĠĠĠĠĠĠĠĠĠĠĠĠĠĠĠ ĠĠĠĠĠĠ
Valid ator
g oto
}) )\
K G
ĠN V
)) _{
ĠC atalog
ĠMove ment
Ġtransform ing
ac re
ĠBl ues
load er
Ch ain
Ġste pped
ĠTrans ition
Bel ow
20 30
Ġgra ce
Ġbehavior al
Ġnav igate
qu oted
s uggest
Ġs our
( @
Ġr if
Ġg erm
irl ines
ĠB urg
Ġsp ell
ced es
ĠProgram me
ĠG yr
19 11
con sole
sur vey
" ],
Ġd ying
ĠNAV BAR
T rump
ĠA ra
ub ert
Ġcomment ed
w c
} ',
ĠS ample
E ast
vir t
ĠEth iop
arg uments
M obile
ĠP uerto
Y au
{\ ,
Ġwood en
Ġswit ches
22 6
os er
t ang
w ig
ot ics
IC ENSE
ĠIniti ative
it us
Ġd ated
ĠM aking
Ġsil ence
å ¤
se ed
Ġshell s
b ys
comm ons
Ġper f
ĠP ere
pro ving
C AR
J im
Ġc md
ĠSol id
Ġinvest ing
m oving
Ġv ox
ĠOper a
ĠSchwarz schild
@ {-
ĠJer usalem
Ġre jection
end ent
onic a
l q
ob a
Ġsl ip
Ġ( ``
ĠRe ports
id is
C lear
Ġd oping
ĠP V
al ert
ĠL isa
an ol
Ġtim est
H istor
enc oding
Ġsear ched
ĠEl li
Ġsever ity
Ġb anned
Ġsur g
Ġl ady
asym p
23 2
ĠTr uth
Ġmonoton ically
ĠF ashion
B ounds
ĠB B
ĠE rn
o ct
in valid
ĠL ux
cipl inary
eler ation
ve rest
A ff
3 10
is ch
c ategor
Ġf ut
\% }
reg ions
Ġquas ipart
ĠKir k
b age
I ds
f av
rest riction
Ġsl iding
Ġcro ps
ĠBrother s
sol ved
be a
z ip
22 8
g d
Ġid em
Ġsupp lementary
F re
ĠS ave
ĠĠĠĠĠĠĠĠĠĠĠĠĠĠĠĠĠĠĠĠĠĠĠĠĠĠĠĠĠĠĠĠ ĠĠĠĠĠĠĠĠĠĠĠĠĠĠĠ
irection al
F ast
Ġcast le
f an
... ]
Ġscholars hip
ĠL an
ĠR ole
ĠR acing
m ol
spec ified
m um
ili ation
Ġdomin ance
Ġpers u
lst listing
E ar
ling ton
Ġdaught ers
m essages
Ġsuccess or
Ġmer ch
R aw
pop ulation
ĠBen ef
ĠMur phy
ĠG it
Ġre combination
ant is
ĠBer ry
mac ro
26 4
ĠDet erm
ass ment
Ġven ues
23 3
Ġoptim izer
theore tic
} ]{
Ex pect
A mazon
] },
ĠAll ah
we i
Ġsur f
ĠArt ist
NS String
ia z
Ġafter wards
Ġheav ier
Ġc ob
24 7
cccc c
es pecially
ĠCost a
Î ¼
Ġport ions
Ġtradition s
ĠP rix
}. )
Ġd ining
19 1
Ġoper a
Ġrevers ed
G roups
ĠI ter
ĠOb viously
m x
ĠMathemat ics
o es
Ġinstitution al
' )}
Ġelev ation
K A
à ®
ĠK umar
sub fig
Ġcompet itions
Ġf iscal
ĠR io
ĠT C
) }^{\
nd s
23 7
! }\
d ip
Ġca us
Ġproceed ings
ĠH ind
Ġim g
P en
ann es
Ġbul ge
ri en
mes h
Ġpreserv ation
Ġse am
ĠA bu
ort s
ĠR oche
in frared
Ġmaxim izing
dest roy
){ };
ĠPlan et
w right
ine e
ĠSh ar
19 13
In vest
Ġsy mp
ĠClass es
ĠC ricket
Ġconvin ced
| &
Ġall ies
ĠD yn
Ġhe ights
Ġro d
Ġcompact ness
Ġch ir
Ġr ated
Rep resent
id ency
g art
Ġk iller
Ġvalid ated
ĠLem mas
M ah
Î ·
' ];
B an
}) |
= |
ĠB ose
Ġcomp ly
head ing
Pre v
Ġw ars
Ġauthor ized
kw args
T witter
ĠP ictures
hib ition
Ñ İ
om ical
Ġcontrovers y
V IE
Ġsimpl ifies
Rad io
econom ic
le ave
Ġprison ers
" },
top ic
b X
Ġinst abilities
ĠInd igenous
Lo op
Ġang ry
g rowth
em ption
ĠSet ting
M n
ĠJohn ny
ĠM atter
side bar
ĠH orn
us k
ca ptions
ĠF itz
and ez
W L
Ø ª
ĠC ole
the refore
Ġvoc abulary
ort on
Ġ$ *
iz a
du st
agn ostic
we ar
Ġclass room
l ia
ĠAg ent
ĠY am
Ġback ed
Ġcom ed
Ġvot er
}/ {
Ġsh ore
Ġder iving
Not ification
L ove
Ġr ises
ĠChel sea
y alty
Ġen um
Ġpath ways
Ġdisput e
ĠComb ining
ĠStan ford
IN FO
Ġrefere e
J D
oc cup
Ġprof its
ig ue
ĠMor ning
ĠK ur
Ã¨ re
\{ (
ens is
Ġbron ze
! \!
And roid
E U
as ury
ĠT at
Ġeigen vector
Ġsh it
ud ge
Ġdistrib ute
7 20
Ġmultip ly
Ġd oses
ĠP CA
}} )$,
}) ).
Ġhospit ality
ef e
Ġextract ing
K O
x z
ot hesis
structure d
ore tical
D irector
Ġh ire
v et
Ġmet res
Ġe uro
Ġ/ \
Dep th
ĠL C
Ġqu iver
Ġbright er
Ġalleg ations
^{( -
^+ $,
ĠPlay ers
ĠY e
ĠCare er
r uby
an ne
ĠC atherine
second ary
Ġwant ing
hem atic
ĠE OS
VAL UE
âĢ¦ âĢĿ
Ġemer ges
Ġt err
ĠD raft
ile vel
ĠDan ish
ĠWeek ly
ĠH i
ĠSh ang
ĠMuslim s
ĠAltern atively
Ġst olen
ment al
en es
Ġm amm
Ġlaun ching
B ill
R am
se min
ĠEm ily
ĠĠĠĠ ĉ
Ġu pl
)] .
ĠB in
red ited
orne ys
[ ][
App le
ĠM M
Ġsignal ing
Ġan ger
24 3
ĠBar ry
Ġ& :=
Ġab normal
ĠFant asy
ĠR M
ĠL ad
ab we
log ical
AT CH
Ġadvoc ate
cir cled
ĠLe vi
Ġtransmit ter
Ġ ]$&$
Ġc inema
Ġpos itivity
ier ra
pd ates
Ġto urs
Ġtim estamp
Ġsevere ly
os ity
de comp
Ġdivis ors
W ater
erm ost
ĠBay es
Ġun ions
Ġatten uation
Ġin cur
29 0
Ġcooper ative
e enth
as ters
ĠSt ef
eg u
ind ices
Ã¼ r
Ġnot ification
Ġrandom ness
Ġex changes
Â ½
et itive
ĠPro file
acc ording
Fe ed
Ġown s
Ġannih il
W P
et able
Ġtag ged
Ġasymptot ics
D river
f u
Ch ris
Ġvis ually
qu is
Ġ< -
ĠIn ternal
ĠCh i
ĠG y
Un known
Ġeigen functions
pr ison
ĠUS B
24 8
gl uon
Com paring
cur rence
Ġpoly tope
l iter
oc or
Ġpoly gon
ĠR idge
ĠEnter prise
ot er
au i
Ġmut ations
d q
num bers
Ġdro ve
Ġcolon ial
ĠG host
Ġac res
cross ing
Ġre conc
ru de
ĠC er
Ġres um
19 05
pro ton
bm od
Ġbl end
p her
c G
Ġgrid s
Ġt mp
Ġpull back
et c
Ġsc ans
Ax is
Ġt anks
be havior
ĠCondition s
d it
ref lect
Ð¾Ð ´
Ġoutper form
Ad am
im ates
w oman
M ont
fl align
ĠMont real
Ġdoub let
ĠCommon wealth
ĠE duc
ĠV acc
y outube
polar ized
Ġh oney
it ively
mach ine
eval uation
Ġman ages
Ġlack ing
Ġquarter back
sub mit
Ġorgan ised
j ax
per fect
Ġtra its
Ġback up
SE C
ys hift
st en
ĠB ound
U k
e i
Ġde alt
ch air
ĠI BM
Ġan ch
y t
Ġre med
Ġn u
Ġcommission ed
B K
run k
T OM
Ġadj acency
Ġsw ap
Ġion ized
H op
an ic
Ġn itrogen
ĠCO L
Ġse cular
Ġimpact ed
26 5
Ġdis connected
6 25
S us
og g
imb abwe
Is ra
ull er
(" /
ĠB aby
ĠD G
Consider ing
Cross Ref
Ġorient ations
dis pers
Ġlog istic
n om
Ġarch ae
L ater
); \
all ed
30 5
Ġpull ing
M ur
Ġappe aling
Ġtempor arily
ĠHealth care
19 07
Ġconfirm ation
c L
Ġb ab
Ġres c
ov o
Ġnob ody
AM S
J on
es ters
Ġquant ized
Ġcos ine
Per iod
Ġign oring
C ut
H tml
ĠX box
ĠB ranch
Ġbary ons
mathb old
Vir tual
Ġs ca
load ed
Ġep it
Ðµ ÑĢ
ĠAssoci ated
3 70
ear ly
Al t
ĠM ail
Ġcol linear
Ġredund ant
Ġmet abol
ĠHess ian
) '
ort ions
D ynamic
ĠL com
Sub ject
Ġmism atch
ĠW ave
Ġintrig uing
{\ '
ĠU pdated
ĠC lear
sk a
Ġu pset
Ġrec ipe
ĠLet ter
Po isson
em or
ho e
Ġcondition ing
ĠO scar
Ġ// !
T imer
ĠInd ividual
ĠĠĠĠ čĊ
Ġc argo
vert ed
Ġdi vergent
N or
o ons
RE SS
ĠRes taur
J ournal
Ġt orn
coordin ates
Ġsy s
re ck
_{ [\
ĠEar l
h ma
Ġ )}
li qu
cons idered
L IN
Ġmon oid
comp ile
ĠA dapt
Ġcomp romise
ĠTer rit
ar an
Ġv ibr
Ġflu ores
18 1
I l
Ġli ability
Ġh orn
pz c
Ġdiagn osed
Ġw orship
ĠP le
Ġemb od
ĠLag range
ir re
T l
r put
Ð½ Ñĭ
product ive
Ġminim izes
nod ata
ĠL uther
Ġal beit
ĠB eth
N H
ĠAut om
ĠD ol
Ġexpress ing
} &=&\
ĠBuff alo
Ġoccas ions
W at
Ġthorough ly
rab ility
ĠW onder
Ġview point
97 8
Eu Script
ĠO liver
ĠD y
Ġs ne
Sp ring
)\ |^
Ġgra ding
Ġfl ares
n h
at ile
cover ing
osp el
P rice
other mal
Ġqual ify
ĠBar on
lb rack
Ġhist ories
M AN
R PC
cast le
}{! }{\
ĠRes erved
Ġline up
ĠInd ians
[ (\
ĠCru z
Ġgi ants
Redu ce
,\ ,\,
ĠTh read
bul k
Ġrac ism
ĠCh rome
ĠK re
Cent ral
SCRI PT
cre ase
assum ing
con cept
Ġviol ating
Ġb ags
Ġs el
ĠH az
& $\
ass y
att s
Ġg amb
we ights
fra gment
den oted
D ATA
Ġcolor ing
f rames
itor ing
c ancel
br aska
ĠCl ose
Ġf ru
Ġtra uma
Ġste ering
ign ore
Ġeth ical
Ġf ur
id ated
ĠD ES
_- $
D OM
24 6
ĠG E
pen cer
Ġhum or
roll ing
df n
umb ai
Ġnav bar
R ock
ĠComput e
Ġvir ial
ĠOption al
G EN
Ù Ĭ
ĠDe cl
k im
Ġsuff ers
Ġsummar izes
ĠT ry
AR K
arp oon
s chool
ĠS OC
Ġ| ^
sh ock
ĠBi ology
iz ability
Ġy ard
ĠE S
fin ity
Ġdeput y
am y
ĠY a
ĠPh one
re ctions
c S
Ġbreak fast
ĠSum mit
P rom
ĠU P
ĠM AP
ĠMa ur
y x
Ġcus p
b ird
ĠP G
P Q
em ploy
ĠF err
Ġcross ings
nav igation
=\ {\
produ ced
ag i
ish a
iling ual
Ġlab our
F r
M ouse
ik ing
IS H
Ġtriang ulation
Ġless on
}] $,
re peat
Ġbatter ies
: -
Ġpro long
ĠQu arter
IS O
Ġresearc her
ĠB illy
Ġlegend ary
^{+ }
IO Exception
ĠK er
ĠHar rison
n ell
cer tain
og an
HT TP
Ġpost ing
Ġstup id
Ġp he
Ġbroad ly
l ived
Ġcomm ander
IC S
ag g
ĠBer keley
Ġconfigure d
18 90
Ġeject a
w at
ĠW ould
Ġpre st
Com pare
m og
ĠH indu
ĠLiber al
ORD ER
Ġnod al
ĠV ert
view port
Ġspec ifying
^+ _{
2 14
Ġautom ation
Start ing
S tage
is Empty
Ġs ender
Sim ulation
ne ural
por ter
ĠCom panies
the m
â Ķ
Ġfl our
******************************** ********************************
eg e
ĠB ird
ĠQ atar
Ġincorpor ates
emb ered
ent i
i encies
Ġcorrect ness
Ġri vers
Ġcoinc idence
o U
ĠD iamond
ou ville
ĠL arry
ĠBir th
g om
19 09
Ġprob es
Ġsort s
Ġtrans cript
Hy per
Ġjour nals
ĠMad ison
ĠCamp us
ne um
ĠTrans form
Ġpri est
ĠP in
Ġsur rogate
aut om
Ġbott lene
Metric s
Ġcomp ass
Ġloc ate
Ġcl one
bro ken
w m
Ġpop ulated
s low
am ation
ĠR achel
Ins ert
D rag
H ot
z el
Ġb om
ri ber
Ġs b
Ġhom eless
Ġredu ctions
ĠZ ar
Ġrenormal ized
math pzc
Ġde bris
ĠCour se
A J
t ies
ian i
v id
ĠG ay
in ces
Ġass ists
com bin
Ġinert ial
ĠI ma
}] .
magn itude
Ġsho es
ĠK id
Ġcreat ivity
F ixed
ĠConfig uration
H V
ĠW R
ĠW es
d an
n ick
st ick
G od
Â Ģ
23 9
Ġcre ator
Austral ian
Ġ ^\
cal endar
ps line
ent e
ĠApp lications
nam ely
æ Ĺ
vers arial
Ġdig its
Ġign or
h in
L ittle
r ar
ster dam
ĠWat son
ific ates
ĠEd wards
pa int
ĠCo ach
ĠWork ers
Ġspons ored
ĠEag les
de velopment
Ġinter change
ĠS ession
Ġdo zens
ĠB OO
)\ |_
Ġmem orial
Ġflu ids
m us
on de
it eness
ĠUn less
C over
Ġprospect s
ĠC atal
ĠM ans
ac hers
con volution
Ġspect acular
Ġimmig rants
st rom
ĠC arm
cent ered
Ġsol vable
ane ously
Strateg y
ĠG rey
ĠCirc uit
ĠU til
are l
ĠB ert
Ġposition ed
Ġsyn c
TER N
0 14
clust ers
an imation
Ġmed ic
direct ory
ĠRog ers
Ġrg ba
b R
st ri
Ġh iring
ĠW W
get Value
ĠIl legal
con clusions
) &=&\
ĠM ED
Ġsk i
Ġlaun ches
Ġexcess ive
ĠL ion
Ġholograph ic
ĠC ot
Ex port
su ally
Ġmask ed
ĠNav al
g c
50 9
Ġphys ician
CO M
Ġmot if
Ð¾Ð ¼
ain ter
Ġcontroll ers
Ġsold ier
Ġhe ated
Ġbl ues
Ġmin eral
B ER
Ġfin ancing
Ġind igenous
ag ar
p ion
ci um
ĠAccording ly
Ġc ree
Ġ\ "
ĠMin i
ĠUs ers
)) ^{
R ussian
ĠH ousing
ĠBul gar
Ġcategor ical
Ġo verest
ĠHam pshire
lo yd
Ġok ay
ĠS G
Ġlad der
Ġdon or
L G
L android
ĠM ut
ac l
Ġcomplaint s
Ġch ips
ordin ate
plan ar
C AP
Ġb rick
ing ham
}}$ }
Ġflav ors
Ġfurther more
Ġround ed
Ġwitness es
I ss
rt l
is set
ĠE lementary
ĠJer ry
. &
bos on
uk a
Ġresemb les
K D
b w
P redict
ĠS ure
ĠNewton ian
Ġ' .
ĠF WHM
R B
ĠH yp
Ġsub system
Ġhad rons
ler ight
oc co
ĠConserv ation
chem ical
rest rial
ĠCl a
ĠPer ry
nat i
L ipschitz
{ ,}
iv ia
}}$ )
Ġ$[ -
Ġ( #
Depend ency
à¤ °
Ġ' ',
comm unity
Ġair line
ĠVin cent
eg al
cite alp
Ġon t
ä ½
ĠT on
ĠWe ight
Ġnation wide
j ac
Ġforgot ten
ogon ality
Ġth rew
ĠF light
ĉĉ Ġ
Ġenjoy ing
K I
Ġnetwork ing
ĠHor se
Ġfol der
ĠA CC
Ġob servers
Ġprior ities
ĠTro phy
ĠN uclear
}/ {\
Ġfarm ing
Cho ose
ub le
ĠArab ic
p ract
f ib
cam era
Ġval ign
Ġcert ification
/ ">
Ñ ĸ
Ġd rain
ĠK nowledge
align ment
ĠNAT O
ĠG D
v f
um i
Ġr itual
Ġreplic a
odrom y
Ġdiv isions
Ġbul let
iz ational
Ġless er
Ġselect ive
ĠG onz
Ġcomm od
ĠCho ice
ĠM n
c ube
c B
ĠHamilton ians
decom posable
s ocket
Eq s
Sched uled
k b
Ġsub manifold
Ġaxi oms
Ġharmon ics
2 17
construct or
ĠG olf
iel der
3 15
Ġinvest or
Ġextrapol ation
Ġadv ised
en za
ĠG rid
'' _
ĠTrans fer
ĠEm peror
ĠDe al
=\ "
Ġconscious ness
(' .
ĠEl se
ĠCart an
ver ter
ĠMed ic
}} }(\
ĠL it
ĠK l
ran ging
M i
Ġ' \
ĠAcad emic
Ġtel esc
Ġw inding
ĠS pi
ĠCh and
Ġharm ony
Ġmonotonic ity
Ġen jo
Ġbel oved
ju ana
ĠRem arks
inv ol
[-> ,
s ure
Å «
ĠCom merce
ĠM ock
ĠL ex
ph or
Ġwhe els
29 5
ĠCh ain
], [
VAL ID
Ġal ike
ĠC ay
Ġregular ized
Us age
Ġsurg ical
M G
ĠA irlines
ĠĠĠĠĠĠĠĠĠĠĠĠĠĠĠĠĠĠĠĠĠĠĠĠĠĠĠĠĠĠĠĠ ĠĠĠĠĠ
="../../../../../../ ../
N ER
Ġdis closure
Ġ@ "
Co in
Ġdomin ating
ĠBlo ch
Ġact ed
ĠCom plete
Ð» Ð¸
Ġdisappe ar
amazon aws
ent ine
Ġreal m
Ġc ats
ĠEconom y
pro per
ĠIn side
ĠCustom er
Ġm arch
for ced
Ġstrugg les
Ġbroad ening
col ation
V ill
atter y
inc in
Ġorigin ating
Ġmonop ole
ĠM ason
Ġtra ditionally
ar u
Ġde legate
add y
Ġdecl aration
g ives
app le
] ))
k p
IC K
Ġt ong
small er
Ġthermod ynamics
ĠS id
Z one
Ġcan on
B W
Ġdes erve
Ġnum b
ĠTh an
Ġnegot iations
Ex pected
bo ys
ĠAl b
ST AR
R u
t one
}$ (
ĠB A
ari ous
' }^
w y
ĠC CD
ug s
ss l
Ġun labeled
arth y
Ġs isters
Ġev ac
Face book
im i
Ġtrac ed
Americ a
ð Ŀ
Ġb icy
ĠP oss
}( {
Ġf s
ĠH em
}| }
Ġpain ter
bour g
ĠTh ink
unt ary
s an
ĠEqu ations
}} [\
ĠK in
Ġgain ing
}( -\
Ġspace craft
Ġpow der
Look ing
Ġal ias
ĠCon v
ĠCl ay
4 75
ĠY ellow
Ġ' ';
Ġrest art
C W
c ourse
p kg
widet ext
Ġstri kes
Ġsecre ts
\ (\
Ġmake up
Sub stituting
}} :
reed y
Ġvacc inated
Ġf ires
Ġv ig
ist le
Ġsurv iving
Del ay
H ouse
ĠAss essment
ĠMo z
28 5
mic ron
ĠR ES
ĠVal ues
ring e
Ġst ems
item ent
ub ern
Ġlob by
Ġpr ide
comput ed
z oom
)| $
Ac ad
/ }
Ġc rim
Ġpers istence
b low
Ġhang ing
Ġmaxim ally
pon d
ĠMed iterranean
Ġutil izes
ĠF IFA
erm ont
Ġâ ĪĴ
ĠG ard
Ġtra vers
ĠAct ually
orient ation
i int
L AB
Ġw isdom
Ġautomorphism s
: @"
B and
reat ment
dis able
found er
B in
S qu
Ġ$\ #
Ġst om
b road
y en
Ġhot els
Ġemphas ized
ĠQu ant
ĠH alf
Ġutil ization
ĠGl ass
Ġb ubbles
ell ite
ĠProgram s
ĠA round
Ġwhere in
Ġch icken
B uck
os i
ĠÐ ¼
ĠNY C
ay ers
D ictionary
ac a
ĠL ate
Ġpos ed
& \\
rac ed
C ONT
Ġcon ductor
ĠW ait
j ets
IT S
Ġpo ems
allow break
)$ ).
ĠAlex and
D igital
Ġprob able
re ne
Ġag ing
Ġsum ming
Y M
us c
.~ (
)\ }_{
ham mad
desc ribe
Ġspect ro
'] );
Ġtravel s
ĠBir mingham
3 13
p ubl
pro f
Ġorigin ated
min o
Ġe ager
Ġm os
Ġel if
rif ice
Ġram p
40 5
cel and
Ġbe aring
Ġresil ience
ĠNe ighb
h all
Ġm irr
ĠG PS
de precated
abl ation
Ġdet erior
2 18
pl aced
ik o
Ġsum mit
ĠMan ufact
ĠSc ore
approxim ate
Rich ard
incin nati
ĠU T
ari ates
Ġadminist ered
Ġassist ed
ĠIt em
Input Stream
] }{
r ather
Sto kes
pseud o
e ve
ist inguish
Com plex
ĠBern ard
h c
ĠVAL IGN
Ġell ipse
Ġbatt les
Ġg am
ĠI gn
position s
stat ement
Ġassoci ative
Ġr iders
ĠF riend
ogram s
/ [
Ġcl ique
Ġenc odes
ĠMountain s
expand after
Ġopt ics
Ġel ong
Point s
Ġ" ";
o pa
S ql
ĠA A
ĠPre vention
ĠB ot
ĠL amb
ĠCh art
Ġw x
ĠC ob
Ġrecurs ively
Ġp ile
d jango
sc ss
Ñ Ħ
/* !
Ġneighb ours
ĠMil an
Ġpresum ably
p se
Ġa mm
Ġneut rons
w ire
ĠA w
arg min
'' }
ĠCirc le
enc ia
Object s
ĠH ubbard
Ġmark ing
$ |\
Ġprocess ors
Ġnow here
Spe ed
ĠImper ial
T ensor
Ġto ll
23 6
C amp
Ġbe ars
ib ling
Ġindex es
Ġex pend
ĠH ab
Ġres piratory
ĠCh arg
et ooth
i per
p ire
Ġrele asing
Ġb ridges
Ġm akers
ding er
ĠExperim ental
ĠDisc overy
v on
ak is
Ġsur pass
Ġcomment ary
b il
ul atory
Ġqu atern
ĠS ame
' )$,
rec ated
mat ched
complex ity
isp here
iz ar
: &
IT ION
ĠDub ai
ĠH ob
ĠL ED
Ġwitness ed
Ġflow ing
Ġt ribute
spec ies
h ler
Ġfil ing
Ġbe ings
ott i
IN ST
rupt cy
St ill
ĠPier re
> {\
)| ^{
Ġcon gest
ft en
Ġinvest ed
Ġdivid es
A h
ress ing
ov ic
; {\
0 45
m skip
Ġcost ly
ĠMont ana
Ġpay off
ĠDec ision
metric s
ĠB ass
Ġrest ricting
str ut
LO W
Ġdef ending
ĠC ategory
50 1
SE LECT
Ġampl ification
Ġsynthes ized
Ġhistor ian
\,\ ,
Ġdu o
ĠCo q
Ġaccompany ing
Prelim inaries
Ġcons piracy
Ġlisten ers
Table Row
Å Ł
LE MENT
Ġwave function
f iction
ĠA ld
et e
ĠWar ner
ho v
ĠSt orage
rast ically
Ġthrow ing
im plementation
e lection
Ġdetect able
Ġ }^{\
Ġhero es
Ġexpat riate
Ġre he
US ER
Ġexec utives
flu ct
Ġfor um
algebra ic
ãĢ Ĥ
W u
] ).
ob tain
av ier
Ġart work
ĠCam eron
ust ed
trans formation
^* =
g old
L im
ĠCon sumer
Sci ence
ess ed
Ġtrav elling
^+ }
Ġun fortunately
et es
includ es
ra ising
Ġaccept s
curs ion
rib ing
Ġnerv ous
H ello
v ariance
V o
emph is
ĠW ing
ĠCliff ord
ĠFirst ly
Ġattack ing
object ive
Ġcon vective
sh i
Fact or
t owards
ĠD T
Ġform ulations
os ion
mix ing
Ġ$ >$
ar atus
ĠMas ters
B road
re pository
correct ed
24 4
Ġvolat ility
ĠH ST
ud ed
Ġavoid s
F rance
v k
ĠĠ ĉ
Ġchalleng ed
ĠR osen
is imple
ra de
ĠE ight
b ial
Ġd ancing
Dist ance
Ġgu ides
B rand
ĠK ash
Ġeleg ant
ar in
Ġalgorithm ic
mm ode
con cent
Ġmag ical
ĠMC MC
ĠAug sburg
ĠM AC
Ġabund ant
Ġb uses
And rew
Ġmention ing
F older
ĠW or
Ġbuy ers
h az
ut z
sl ide
Work s
^{\ ,
Ġconvex ity
Err ors
Ġinv isible
__ ["
Ġhistogram s
ĠV enezuel
EN CE
ĠC oun
ĠC DC
Ġgener ically
Ġdepos it
Ġpractition ers
Ġcred entials
Ġnom ination
Ġb ounce
st ad
ul ent
IL D
ĠS alt
com merce
OR S
Ġlift s
Ġpray er
Ġinv oked
Ð½ Ð¾
ĠLO G
ĠForm er
Ġper cept
Ġgeneral ised
os y
ĠDe lete
RE T
Ġveter ans
be ans
ĠS ER
ĠP ent
Q s
Ġdead ly
Ġaggreg ated
Av ailable
* [
Ġlov ely
Ġgroup ed
ĠM ario
ĠAl t
Ġinert ia
Ġjournal ism
p w
ĠGi ants
ĠCl uster
Al pha
Ġref lections
Ġgram mar
Ġc ig
19 04
\! =\!
Ġnur sing
Ġconc ave
~~~~~~~~ ~~~~~~~~
Ġelder ly
Ġgeneral izes
ĠT ib
Ġtravel ed
lear n
Ä ĥ
ĠS creen
Ġpartition ing
& (
dist ributions
coe fficients
Ġnews papers
ĠHung ary
6 40
c ible
MO DE
ĠChem istry
q p
v endor
ĠâĢ ł
ĠBu y
Ġh orm
ĠU C
ĠVi enna
m cite
Ġg ad
Ġshr ink
Ġstreng the
E A
Ġbut tons
ĠWe ather
Ġpeak ed
ĠEgypt ian
Ġtem pt
can vas
Part icip
Ġjuris diction
ĠP DE
it ored
ax ial
O lymp
nonym ous
ĠIran ian
ĠW igner
op ath
ke eper
ĠPark s
B ell
!! !
land o
ĠT amil
ur st
habilit ation
S ort
Ġsm oking
Ġlens es
at tach
Ġche ese
Ġdest ro
}^{ +\
ĠQue bec
rit is
ĠAl pha
Ġsl ave
Mark ov
è ¯
Ġdiscipl ine
U ntil
c N
Ġinter play
IC T
ĠRam an
ĠPop ulation
Ġdis able
Ġcru ise
strong ly
ĠFl ore
Ġcou rage
d rag
Ġ }_
Ġdisc arded
For ce
Ġtra ded
con cat
Ġdon ated
Constra int
ĠMichel le
ĠM RI
Ġautom aton
squ ares
Ġswe ep
à¥ į
Ġstiff ness
Ġup stream
Ġenjo ys
if mmode
Ġthe rapeutic
cont ribution
year s
ok u
'' '
ai ro
0 35
ĠG em
fig ref
a ft
Ġdef icit
CL A
ĠPhill ips
Ġaim ing
ben chmark
Wel come
Ġre called
Argument Exception
rop ies
Ġprogram mes
] ^{-
Ġeditor ial
ĠJ ar
0 20
g if
Ġd irty
ĠOther s
á º
ess a
CO MM
Ġtrig gers
4 95
Ù ĩ
ĠB T
)\ }
Ġele ven
Ġdoub ly
satisf ies
Ġh oped
ĠCele br
z t
fact ors
sol r
24 9
Data Type
Ġfinger print
ĠE lement
m its
ĠT ol
ĠCh ampion
cm p
ach i
Ġpsych ology
Ġoffer ings
Ġrevers al
os calar
) ?
inci ples
ancell ation
| )
Ġantis ymmetric
Ġdis ruption
M ike
S witch
Ġfil aments
ĠNe il
Ġch ord
H ey
Ġconjug acy
F ire
Ġass ass
P W
30 8
Ġp ig
ĠO tt
ĠC W
Can ada
Im plementation
ann ers
< $
Ġmim ic
Ġ& \\
ĠJ obs
Ġqual ifying
Ġp s
rist ol
Ġshock ed
st ab
DE X
UR N
32 8
Ġun ital
Ġsim ulator
les h
pre hens
Ġdem ol
Art icle
ĠH unt
Ġepid emic
lum inosity
it ic
ĠRod rig
Ġwh is
30 3
Ġin elastic
AT TR
Nav igation
Ġscript s
Ġ ÑĤ
Ġtrac ing
ĠU g
Ġdec iding
0 16
Ġann ounces
b ag
Ġsatisf actory
ĠB un
18 80
Ġsubject ed
}^+ $
un its
Ġres caled
Ġ> >>
tw isted
ĠSo on
Ġlum inous
asg ow
scal ed
rib ers
ren cies
is cher
ĠF at
Ge ometry
C HECK
h dots
K h
s ight
}, ~\
work ing
Ġbug s
Ġtub es
Ġre calling
19 06
Ġabsor bing
Ġcollaps ed
in berg
oth s
Ġmed ieval
Ġdon ation
Sep ar
ud s
Ġab lation
aff ected
FOR M
is se
ĠD ictionary
ÂĢ Â
J ose
ĠMe chan
Ġpack aging
ĠT F
30 7
] ^\
ĠG ive
S FR
ro ots
Ġres caling
q r
it ives
Ġed itors
ĠSh aw
ig ion
ĠS outheast
ĠM ob
Ġl oses
ell ation
Ġrem embered
typ ename
Ġinhabit ants
O w
L HC
t elling
× Ķ
Ġw are
33 5
represent ed
ram id
ĠZ imbabwe
Am ount
ee per
Ġdon ations
correspon d
p ipeline
if th
Ġpassion ate
ee k
Ġpars ing
inter cal
ĠK K
Ġqu otes
Ġcare ers
G ar
v w
ĠInd ies
Rel ative
Ġpuzz le
Ġoverse as
ĠW riter
ĠQu estions
Ġroll ed
Å ¾
+ ,
an ta
Rem ote
Ġexp ands
Ġminim izer
Ġland ed
Ġjud g
Ġgift s
for Each
Ġcrit ically
ĠI EEE
Ġheart s
Ġchemical s
Ġrail road
Ġmod ifying
45 6
}$ =
AP P
J ones
ĠAT LAS
N am
ĠL ions
bb ed
Prim ary
ĠNorm an
ĠB rain
ag ner
op acity
AA AA
Ġtremend ous
M ary
b ary
ĠB PS
IC ATION
c red
est on
Ġmaxim a
Ġconstitu ent
$ }{
Bi ography
Eq n
eg an
ĠK i
j ump
ĠR um
ĠTy ler
ta wa
tab les
z ant
Ġt ired
roll ment
spect or
Ġ" >
m ine
Ġa ired
qu as
Un iform
ĠIn fo
bas elines
H aw
Ġwave form
F rames
Ġk g
Ġsuggest ion
Run ning
upd ated
Ġcannab is
ard less
perturb ed
ĠM otion
\% $.
anc ers
ĠJava Script
ĠM ine
Ġneg atively
Ġseason al
zy me
po inter
G rant
Ġ$ )
Ġtim ely
Cal cul
ĠMA X
est y
Ġreserv es
ol in
b ic
ĠTh under
H B
7 68
S ar
am inated
25 4
ynchron ous
Ġle ather
Ġanaly st
ere x
ron ics
Ġf ading
St rong
Ġend e
Ð¾ ÑĢ
ĠC ME
ĠDE FAULT
Ġis ospin
Ġprogen itor
c T
av in
Ġ| {\
Ġtour ist
ĠMod ule
Ġw ounded
: \,
33 6
16 00
Com par
Ġd rastically
Ġgra b
eder ated
ik ov
ĠPart ner
Ġ ig
Ġconsum ed
Ġr ms
^{* }$
ĠN HL
Ġsan ctions
Ver ify
Ġup ward
ĠCom mercial
Ġap olog
T imes
." ""
com pl
ĠTo o
all ax
ged y
Ġdecor ated
Ï Ģ
ĠR NN
mass ive
Ġcondens ation
im an
ment ation
oul os
nob reak
ĠIs aac
il ia
ĠScholars hip
nucle on
Ex tra
ĠRes pons
Qu estion
w br
ĠI van
ĠHy dro
ĠB ottom
B st
Ġout ward
Ġis ometric
whe el
ĠTik Tok
= %
Ġw ors
MM ARY
ĠT OP
Ġstabil izer
ĠPat ients
ĠAdvis ory
W itten
Ġsubt racted
at ta
ĠGl asgow
ĠS TE
SE D
Ġ{ %
un da
' }$.
Ġarg ues
ilibri a
ET A
se cret
Multi ple
che z
Ġtransport ed
P unct
ĠP sy
e ing
res a
Ġmultiple t
Ġrepe ating
Ġencoura ges
ĠSe lection
orth ogonal
Ġfun eral
l os
Ġcr ust
Reg ular
v phantom
Ġm ant
Ġ' ./
C os
ĠB asketball
read er
calcul ated
ĠÎ ¼
Se cret
Ġ iv
Ġb ending
Ġcor rupt
Ġchap ters
Ġby pass
ĠÃ Ĺ
Ġbroad band
ĠD rop
ĠDat aset
Vis it
qu art
âĢ ²
Ġlog in
Ġrank ings
h it
Ġv endors
H il
am ard
her ically
Ġtruck s
G ordon
Ġdis charge
ĠCas imir
Ġworks hops
ĠTer ry
m and
al ways
ĠR ural
Set up
Ġpremi ere
hu ang
crit er
H ook
Ġgl uons
ĠFil ter
4 40
ĠF D
ap oration
Ġperiod icity
ĠWild life
Ġsh ame
ĠG ross
ob ic
3 12
ac ies
Ġachieve ments
vari ety
w b
eng es
be cca
im o
inst ead
b id
ĠK S
const ants
L oss
ĠN athan
Ġtele phone
ĠN ancy
sh ine
}^* (
S ound
ib n
24 1
akes pe
rep o
W ould
Q P
ĠGuard ian
any on
ĠMet ropolitan
c amp
scal es
ss s
Ġ$( '
ĠNash ville
tablen ot
Ġc inem
Ġout s
ou ple
ff f
ort ium
ĠBut ler
Serial izer
ĠASS ERT
Ġcl umps
Ġi ii
Resol ver
Ġo ught
plement ed
Ġimag ination
triang leright
F ive
] ),
y on
Ġre vision
ĠQu ery
ĠF ra
Part ition
9 11
Ġw ise
com pared
Ġcru de
Ġassign s
Ġpre view
Ġansw ering
ENT S
ĠMor se
Miss ing
^ ^
ĠGra duate
ĠWel sh
Ġal i
vi er
3 90
Ġment ions
App end
c E
ĠD im
ren ormal
ad ays
ip olar
Ġdil aton
ĠR i
ĠL G
Ġcam ps
Ġrecogn ised
Const ruction
STR ING
Ġalgebra ically
,\ ]
Buil ding
Ġauthent ic
el ic
Ġfurn iture
ill es
Ġconv icted
Ġapproxim ating
)] ,
Ġenc rypted
ul o
ĠMe et
Ġshow case
Âł Âł
Ġleak age
Ġinterpret ations
U AL
ĠV lad
ba um
Y et
UT C
ĠU TC
ip ot
Ġbal ancing
ĠMN IST
F ailure
Â «
vers ions
Ġ\; ,
strateg y
me chan
trans l
Ġmorph ological
Ġm aker
Ġtra pping
po i
Ġpuls ars
ĠDe ut
Ġw ore
ĠX X
ĠC ad
Ġstabil ization
M iddle
Ġst ressed
Not Found
contain ing
ĠStand ards
ĠN intendo
)} }$
Ex ists
ĠGra de
f w
Ġn erve
g alaxies
30 2
Ġalt itude
Ġforth coming
M om
g ic
ĠFran ces
ĠA CT
Ġmod alities
Ġtrans itive
pat cher
Ġinstant on
M ic
remark s
ĠEv idence
Ðº Ð°
Ġrid ge
ram s
ĠQ ED
ol or
ĠE ug
Ġfract al
p v
Ġcov ariates
S ir
g mail
ordin ator
Ġlat itude
rem ote
log ic
ĠJ ama
Ġcreat ors
Ä «
Ġref lex
b A
ĠPart icip
Ġhol idays
ĠCom ponent
Ġbad ly
Ġpartners hips
Ġhol der
A wards
ĠS tack
ĠRem ember
Ġforecast s
fl ip
n def
yl on
Ġlapt op
Ġ\ }.
ance ment
ĠFa ith
ĠE ye
Ġsing ers
Ġprotect ive
Ġh iding
op al
Ġsub category
May be
al ink
Ġsynchron ized
Ġgen ome
ĠAm endment
ĠD iff
ĠG S
ar bit
Ġf m
Q M
Ġc her
Ġ" ",
Ġcompens ate
es ar
ĠK yle
â Ī
termin al
Ġreg ener
po or
, &
Ġinfect ious
Ġquant itatively
I r
J un
ari um
ĠAlf red
Ġred irect
J eff
u ce
Sn apshot
ĠF IR
er als
)$ ]
pa id
4 20
Ġt ears
ĠF F
)} |
, *
b rown
gly ph
ach t
ĠNe braska
tagon ist
ĠIss ues
\!\! \
b z
ĠV L
Ġnonlinear ity
Ġcentral ized
Ġanth rop
ĠTig ers
Ġimp ressed
C FT
I a
res pective
ĠAr c
Ġflow er
ĠArt icles
Fe atures
S ide
Ġassess ing
ĠIda ho
ro e
CV PR
ĠW A
32 9
Ġapplic ability
m usic
Ġreg ulated
Ġbl ast
Ġcre atures
ĠNep al
ĠIn n
}}, {\
Ġhistor ically
J oe
Ġinvert ed
Ġw ages
ish i
En v
Ġa apt
Ġtri ples
H older
Ġ$ _
con ditional
ĠJ in
ĠExcell ence
Ġimag ery
na ire
Ġprevent ed
ĠC off
Ġ' ''
ĠM HD
sc hed
ĠTour nament
ĠF T
pl ays
ĠE DT
Ġrestrict ive
Ġvis itor
ĠPr inc
Ġhighlight ing
}$ '
Log in
Ġnew est
ĠKar l
l k
Ġbu f
Ġattach ment
N ic
ĠB essel
Ġ\ `
Ġsp urious
col ored
D N
met all
H N
y ll
d R
w au
Ġsh irt
CE PT
ver ify
ote chn
Ġred ist
Ð¾Ð ³
Ġrel ational
Ġpars ed
ĠHe avy
F a
Ġe ig
# {
f mt
19 03
ac ci
ĠU ntil
ĠNich olas
d os
ĠBapt ist
Ġj am
rl ap
19 01
ĠAnaly tics
gom ery
0 17
ub in
Ġoccup ancy
Ġattend ance
T ouch
Ġintern ationally
akespe are
th lete
Ġim prison
Ġnan op
quad ratic
ĠHar vey
pack et
ad os
Ġout look
Ġremark ably
an ch
mu ch
à¥ ĩ
Ġmanufact ured
$ )}
S AT
l ists
Ġrespons ibilities
bro ok
Ġremin is
ĠCon tain
Ġrot ated
Trans ition
Ġsoci eties
U A
ruct ive
Ġf ier
Ġab straction
Ġcor ona
ĠF S
Ġde ce
Ġcor on
Ġdam ages
ops is
ĠFil ms
ĠConserv ative
aur us
Ġsuscept ible
* }{
e fficiency
ĠK ill
B ank
Ġde position
Ġtour ists
re search
Ġcomm utation
is omorphism
qu ist
ĠH F
ĠD W
Ġ\, {\
gg ing
Ġgrad es
ĠSche dule
Ġdesk top
Ġe ars
oc ese
{ },
Ġvac ation
select font
Ġen velop
Ġrefuge es
ange vin
ĠC ub
Ġoff sets
ĠBuil der
ĠT odd
ĠK as
te es
Ġpursu it
.} ~\
st ill
Ġ. \
Ġrapid ity
Ġg ardens
}) .}
K ernel
z ig
Ġt ribe
v or
Ġres ume
az ar
_ );
ĠEvery one
Di rac
v ct
ĠV as
rid es
ose x
Ġthere of
ĠD NS
ag netic
U ES
Ġeight h
Ġdr inks
en code
ĠIm prove
allow s
un ted
sim ulations
Ġminim ized
Ġqual ities
}\| _{\
ĠAdvent ure
Ġdissip ative
Ġcompan ions
ĠArch itect
ochem ical
en ian
ct ree
ĠB ian
ĠR ivers
rit ies
ĠLik ewise
Ġb ay
25 2
Ġdec o
ĠSur v
Ġhome omorphism
ed e
ĠR oth
Ġtop ologically
ĠQu ick
icul ous
Ġfear s
ĠR ico
co res
ĠCon nection
Ġrece ivers
Ġlog s
W ashington
Ġoblig ations
0 27
ĠO ptions
lib s
r z
ĠL ocation
Ġab rupt
success ful
Ġdecoupl ing
ĠI g
ĠP aint
L ang
Ġ$ }
Ġemb race
R ail
Ġsu cc
Ġdismiss ed
Ġke en
La TeX
Ġcrow ds
c ott
ĠSpe aker
Ġthro at
Ġdecomposition s
Ġperipher al
cap acity
pat ient
satisf ying
ĠSp in
ga ussian
e ight
Ġthe at
* -
Ġin nings
LE X
Ġfer romagnetic
ĠJup iter
f ew
âĢ¦ âĢ¦
W ed
... )
Ġdiv orce
ĠExt ension
Ġsub urb
Ġre vel
ĠAl low
problem s
}} |\
Ġnormal ize
Ġcompact ification
Ge ography
C ould
amb ig
Ġcritic ized
ARR ANT
Ð½ Ð¸
4 60
Ġnotice able
ĠAlber ta
Ġconstruct s
A dapt
\ ^
S und
ĠLook ing
Ġphot ographer
Ġgr at
Ġfuzz y
G i
Experim ent
act ual
Ġsuff ix
asser stein
ĠPro gress
ĠCal abi
Ġf et
ĠA braham
ĠHung arian
L V
Ñ Ī
Ġlik ewise
Ġsmoot hed
Ġse curities
Ġsp o
C hi
ast ics
E ll
] \,
ring ton
ope z
stream ing
Ġrock et
ans wer
Ġinv ite
Ġpe oples
order ing
Ġcorrel ator
ĠS SL
con jecture
Ġover look
Ġme als
in ject
Ġ\ >
ĠApp lied
ĠDef ence
t ro
ĠS hen
ple ts
W al
m ys
D H
Ġr ush
Ġ }^
lic enses
Ġant ifer
curs ive
ĠNon etheless
Enc oding
Ġm u
Ġcommut ator
Whe ther
he nd
to k
Ġsl it
amm ation
ĉĉĉĉ ĉĉĉĉĉĉ
ĠĠĠ čĊ
Ġint end
Ġ`` `
35 5
Ġfarm s
Ġadjust ing
ĠRay leigh
Ġsome body
AR I
inter section
aught er
Ġwor n
25 7
Ġcal or
Ġmo ist
Ġs ulf
Ġrep orters
Ġmonomial s
Ġ\ }_{
Sh ared
u pe
Ġdim er
ĠGu inea
Ġlect ure
ibl ings
C ulture
j d
ĠF ields
Ġint ens
Ġread only
æ ķ
ĠI a
Ġtang ential
Ġd ile
Th row
Ġquadr upole
IEEE eqnarray
ĠD OM
B all
ri ans
ĠRe ed
Ġharm ful
Ġinsp ire
Ġdef ender
ĠFl ash
Ġterror ist
pl aces
ymm et
Ġcle ared
Ġjo ke
m q
ine z
ĠR aw
25 8
M essages
ow itz
ĠO ri
polar ization
f arcs
andid ates
Ġsc andal
}- (
Ġburn ed
Ġexpect ing
Ġbo ats
ĠN ap
ĠK itt
Ġalt ogether
j ab
ĠHol land
Ġiter ate
$ ^+$
av i
.. ...
Ġdou bling
Ġwonder ing
Ġsumm and
inter actions
Exp and
Process or
J ew
Ca pture
ĠLem mon
Ġw aven
ĠLuc as
ĠW ARRANT
depend ing
urs or
ĠRich mond
Ar row
Ġr ats
ĠV el
Ġaccess ibility
m ons
Ġdis patch
; |&
Ġqu ies
aj a
Mon th
Ġprol ifer
Ġ\ },
Ġren owned
å Ń
it ations
In ner
T AG
com ed
tim eline
ress es
ax ter
Ġquant ified
Ġlack s
PRO P
osc opic
Ġamb itious
d ar
Ġb iod
Ġcor n
ĠM umbai
Ġdes erves
_- (
Writ ten
Det ector
Ġp as
ĠS ays
ĠC riminal
Draw ing
ĠAm sterdam
Ġcorpor ations
Ġrespect s
x iv
x shift
ating s
ĠTest ing
Ġen closed
Ġrel oc
Ġtight ly
comb ined
Ġstrugg led
{ .}
We ak
horiz on
Ġdemoc ratic
N V
m ega
Ġs word
Ġtim eline
h im
ĠP or
ĠPalest inian
k T
Ġsn apshots
iel sen
Ġlast ing
ĠLiber ty
Ġdis ordered
d og
Ġplay offs
ge x
ne ider
() ),
n of
Trans fer
ĠST ART
ĠA gg
Ġbran es
Ġa er
re action
ĠRel ated
ĠSet up
supset eq
ĠG amb
": "
v at
ĠB D
Ġplay off
Ġcomm uting
Ġassemb led
Ġs overe
ĠS or
ĠE mma
Ġim balance
Ġt ric
Count ry
Ġspec ially
Ġscal able
ĠS ens
ĠE asy
class Name
ĠPhil osophy
C redit
det ected
è ¿
)\ !
Ġac ids
ign e
Ġgroup oid
Ġsimpl ification
d E
ge om
Ġpra ised
Ġp ad
ĠP and
Ġsuper potential
Ġrep ulsive
f re
ĠPack age
quoted bl
Ġf mt
}\, (
tor us
ding ton
Ġprov incial
Ġdis hes
Com mit
ĠFact ory
ĠParamet er
Ġc iting
ĠL ed
ĠGa ia
ĠSecond ly
Ġp ale
text quotedbl
orth y
Ġdisappe ared
> )
ur as
ĠSu ite
Ġconsult ation
Ġend orse
ĠPr incipal
Rep ly
Ġreprodu ction
ĠSV M
MP L
26 7
ĠWell s
Ġillum ination
E ss
ĠT ell
Ġch lor
Man agement
f ef
it les
Ġch ocolate
ĠJ ake
End point
Ġhope fully
track ing
ĠO DE
ĠB achelor
Ġgo ogle
UR CE
ĠR B
ig ated
Ġtail ored
e ys
Ġw it
hy brid
wau kee
L uc
ĠS ug
P t
dim ensions
ĠClass ification
ï¬ ģ
Ġsche matic
VIE W
0 60
g ain
ĠV ic
ĠCon cept
integ rated
fil ters
Ġmon ster
ĠBern oulli
& {\
F it
Ġyoung est
ĠExperim ent
Ð½ Ð°
W ood
Ob viously
Ġemit ting
Ġ ,\\
Ġsepar ates
ĠRun time
Ġ ĉĉ
: \\
G rand
Ġdis ent
Ġtra ils
ĠSp ider
similar ity
Contin ue
× ¨
Ġinter ven
Ġmon ument
ograp hers
Ġnon profit
ĠQ SO
Ġ_ ,
O DE
Ġbre ach
q i
ĠSch midt
BL IC
Ġlever aging
D ig
h on
_{ _{
ĠA W
ĠN I
Ġall iance
ber n
Ġen rolled
Ġcard iac
Ġe go
E conom
Ġann oy
ine quality
ur ities
ism ic
19 02
Ġstack s
Ġplace holder
j in
Ġorigin ate
ĠBet he
Ġcontract ed
ĠJo in
Ġunivers ality
corpor ated
ĠO B
Ġhapp iness
ĠDet ection
Ġcla uses
Test ing
Ġcod ew
ĠM az
ĠSh im
ĠS ak
}= [
max imal
ĠWood s
Ġce iling
ĠB uch
A ge
{\ #
Ġtechn ically
Ġread out
Pol ice
Ġpen alties
ok i
Ġelim inating
ĠM V
[...]
