{"[UNK]":0,"!":1,"\"":2,"#":3,"$":4,"%":5,"&":6,"'":7,"(":8,")":9,"*":10,"+":11,",":12,"-":13,".":14,"/":15,"0":16,"1":17,"2":18,"3":19,"4":20,"5":21,"6":22,"7":23,"8":24,"9":25,":":26,";":27,"<":28,"=":29,">":30,"?":31,"@":32,"A":33,"B":34,"C":35,"D":36,"E":37,"F":38,"G":39,"H":40,"I":41,"J":42,"K":43,"L":44,"M":45,"N":46,"O":47,"P":48,"Q":49,"R":50,"S":51,"T":52,"U":53,"V":54,"W":55,"X":56,"Y":57,"Z":58,"[":59,"\\":60,"]":61,"^":62,"_":63,"`":64,"a":65,"b":66,"c":67,"d":68,"e":69,"f":70,"g":71,"h":72,"i":73,"j":74,"k":75,"l":76,"m":77,"n":78,"o":79,"p":80,"q":81,"r":82,"s":83,"t":84,"u":85,"v":86,"w":87,"x":88,"y":89,"z":90,"{":91,"|":92,"}":93,"~":94,"¡":95,"¢":96,"£":97,"¤":98,"¥":99,"¦":100,"§":101,"¨":102,"©":103,"ª":104,"«":105,"¬":106,"®":107,"¯":108,"°":109,"±":110,"²":111,"³":112,"´":113,"µ":114,"¶":115,"·":116,"¸":117,"¹":118,"º":119,"»":120,"¼":121,"½":122,"¾":123,"¿":124,"Â":125,"Ã":126,"Ä":127,"Å":128,"Æ":129,"Ç":130,"È":131,"É":132,"Ê":133,"Ë":134,"Ì":135,"Í":136,"Î":137,"Ï":138,"Ð":139,"Ñ":140,"Ò":141,"Ó":142,"Ô":143,"Õ":144,"Ö":145,"×":146,"Ø":147,"Ù":148,"Ú":149,"Û":150,"Ü":151,"Ý":152,"Þ":153,"ß":154,"à":155,"á":156,"â":157,"ã":158,"ä":159,"å":160,"æ":161,"ç":162,"è":163,"é":164,"ê":165,"ë":166,"ì":167,"í":168,"î":169,"ï":170,"ð":171,"ñ":172,"ó":173,"ô":174,"Ā":175,"ā":176,"Ă":177,"ă":178,"Ą":179,"ą":180,"Ć":181,"ć":182,"Ĉ":183,"ĉ":184,"Ċ":185,"ċ":186,"Č":187,"č":188,"Ď":189,"Đ":190,"Ē":191,"ē":192,"Ĕ":193,"Ė":194,"Ę":195,"ę":196,"Ě":197,"ě":198,"Ĝ":199,"ĝ":200,"Ğ":201,"ğ":202,"Ġ":203,"ġ":204,"Ģ":205,"ģ":206,"Ĥ":207,"ĥ":208,"Ħ":209,"ħ":210,"Ĩ":211,"ĩ":212,"Ī":213,"ī":214,"Ĭ":215,"ĭ":216,"Į":217,"į":218,"İ":219,"ı":220,"Ĳ":221,"ĳ":222,"Ĵ":223,"ĵ":224,"Ķ":225,"ķ":226,"ĸ":227,"Ĺ":228,"ĺ":229,"Ļ":230,"ļ":231,"Ľ":232,"ľ":233,"Ŀ":234,"ŀ":235,"Ł":236,"ł":237,"Ń":238,"Ġt":239,"ĠĠ":240,"in":241,"he":242,"Ġa":243,"on":244,"re":245,"at":246,"er":247,"Ġthe":248,"en":249,"Ġs":250,"or":251,"al":252,"it":253,"Ġo":254,"is":255,"ĠĠĠĠ":256,"Ġc":257,"es":258,"ion":259,"an":260,"ar":261,"Ġ\\":262,"Ġw":263,"Ġf":264,"ed":265,"Ġp":266,"le":267,"Ġof":268,"Ġan":269,"Ġ$":270,"Ġb":271,"Ġin":272,"ing":273,"ic":274,"ro":275,"Ġd":276,"Ġm":277,"as":278,"Ġand":279,"ct":280,"et":281,"el":282,"Ġto":283,"ig":284,"ent":285,"ou":286,"Ġth":287,"ra":288,"{\\":289,"ation":290,"om":291,"st":292,"im":293,"il":294,"Ġre":295,"Ġe":296,"Ġh":297,"Ġn":298,"ot":299,"am":300,"ol":301,"Ġis":302,"Ġ(":303,"Ġl":304,"id":305,"ce":306,"ĠT":307,"ve":308,"ĠĠĠ":309,"ut":310,"_{":311,"se":312,"ĠĠĠĠĠĠĠĠ":313,"Ġfor":314,"ĠS":315,"Ġg":316,"qu":317,"un":318,"ow":319,"ul":320,"ch":321,"ur":322,"ab":323,"ver":324,"ly":325,"Ġ$\\":326,"ath":327,"eg":328,"ĠA":329,"Ġon":330,"ĠC":331,"um":332,"ith":333,"Ġthat":334,"od":335,"math":336,"us":337,"Ġst":338,"Ġbe":339,"Ġcon":340,"âĢ":341,"end":342,"if":343,"čĊ":344,"em":345,"ĠI":346,"ad":347,"ction":348,"Ġwith":349,"Ġ&":350,"ta":351,"Ġas":352,"ge":353,"}\\":354,"ht":355,"ĠM":356,"Ġwe":357,"ir":358,"ph":359,"ri":360,"}$":361,"^{":362,"20":363,"Ġpro":364,"ay":365,"ure":366,"ĠĊ":367,"ex":368,"ter":369,"Ġal":370,"Ġ=":371,"Ġv":372,"th":373,"ĠP":374,"pe":375,"ma":376,"ight":377,"ĠB":378,"ist":379,"ate":380,"ĠThe":381,"os":382,"ĠF":383,"ref":384,"Ġex":385,"pp":386,"ity":387,"pt":388,"Ġby":389,"iv":390,"her":391,"and":392,"Ġare":393,"cal":394,"}}":395,"ite":396,"ac":397,"res":398,"ĠH":399,"(\\":400,"ine":401,"ore":402,"Ġcom":403,"ĠR":404,"Ġwh":405,"est":406,"ĠL":407,"ub":408,"ers":409,"Ġde":410,"ĠD":411,"egin":412,"Ġit":413,"ĠW":414,"art":415,"rom":416,"pl":417,"begin":418,"ial":419,"ess":420,"Ġat":421,"per":422,"rac":423,"ext":424,"ies":425,"ĠĠĠĠĠĠĠ":426,"_{\\":427,")$":428,"de":429,"ĠN":430,"ft":431,"ĠE":432,"ant":433,"ps":434,"Ġse":435,"ill":436,"ive":437,"oc":438,"Ġor":439,"ĠG":440,"ew":441,"}{":442,"Ġfrom":443,"iz":444,"nt":445,"ment":446,"Ġr":447,"Ġthis":448,"Ġy":449,"ag":450,"The":451,"ass":452,"eq":453,"frac":454,"ult":455,"ort":456,"int":457,"ĉĉ":458,"},":459,"ect":460,"})":461,"Ġsh":462,"all":463,"orm":464,"ld":465,"our":466,"Ġ-":467,"text":468,"ical":469,"equ":470,"ave":471,"ak":472,"ple":473,"og":474,"cite":475,"ere":476,"ran":477,"âĢĻ":478,"ell":479,"cl":480,"nd":481,"ition":482,"ich":483,"Ġsu":484,"Ġhe":485,"right":486,"rm":487,"Ġun":488,"up":489,"ue":490,"Ġwas":491,"Ġ<":492,"Ġnot":493,"Ġcan":494,"abel":495,"ign":496,"ud":497,"ated":498,"Ġcl":499,"mathb":500,"ens":501,"ff":502,"Ġch":503,"Ġle":504,",\\":505,"Ġres":506,"19":507,"pa":508,"ĠO":509,"to":510,"00":511,"ations":512,"label":513,"Ġ{":514,"ame":515,"$,":516,"able":517,"ber":518,"Ġus":519,"du":520,"$.":521,"Ġhave":522,"eta":523,"the":524,"con":525,"mathcal":526,"der":527,"Ġk":528,"ds":529,"equation":530,"=\"":531,"ĠJ":532,"ary":533,"--":534,");":535,"}.":536,"ust":537,"Ġwhich":538,"ase":539,"left":540,"Ġwhe":541,"fig":542,"low":543,"op":544,"201":545,"}(":546,"ast":547,"age":548,"ĠIn":549,"cc":550,"ime":551,"Ġim":552,"}^":553,"ĠĠĠĠĠĠĠĠĠĠĠĠĠĠĠĠ":554,"red":555,"ack":556,"ost":557,"ener":558,"}_":559,"</":560,"ib":561,"ĠU":562,"ap":563,"ide":564,"~\\":565,"form":566,"com":567,"av":568,"Ġmod":569,"..":570,"pro":571,"ong":572,"ork":573,"ĠâĢ":574,"ther":575,"ions":576,"da":577,"pha":578,"ard":579,"ence":580,"ru":581,"Ġ+":582,"Ġab":583,"ang":584,"alpha":585,"ach":586,"Ġpl":587,"ĠK":588,"Ġhas":589,").":590,"),":591,"act":592,"are":593,"//":594,"ain":595,"line":596,"amb":597,")\\":598,"ance":599,"ous":600,"Ġall":601,"sum":602,"out":603,"so":604,"10":605,"Ġcomp":606,"ould":607,"Ġob":608,"Ġ\"":609,"row":610,"Ġif":611,"ind":612,"ric":613,"ambda":614,"use":615,"In":616,"elta":617,"over":618,"Ġad":619,"ely":620,"$\\":621,"ĠTh":622,"ip":623,"'s":624,"Ġme":625,"pect":626,"Ġ}":627,"ia":628,"rans":629,"ĠV":630,"fere":631,"Ġapp":632,"Ġone":633,"Ġne":634,"ents":635,"rib":636,"Ġqu":637,"ug":638,"amma":639,"unction":640,"ry":641,"Ġcont":642,"ian":643,"ound":644,"erm":645,"_\\":646,"Ġj":647,"imes":648,"tain":649,"ĠĠĠĠĠĠĠĠĠĠĠ":650,"Ġpart":651,"Ġwill":652,"port":653,"Ġdis":654,"Ġ*":655,"ire":656,"ke":657,"ice":658,"ile":659,"wo":660,"ata":661,"mathbb":662,"ors":663,"}^{":664,"}_{":665,"Ġ\\\\":666,"mu":667,"dot":668,"=\\":669,"ose":670,"Ġint":671,"erv":672,"ari":673,"und":674,"sub":675,"mb":676,"own":677,"ree":678,"we":679,"igma":680,"ates":681,"Ġper":682,"ome":683,"Ġsy":684,"-\\":685,"ok":686,"Ġalso":687,"ption":688,"ho":689,"li":690,"Ġyou":691,"urn":692,"ray":693,"of":694,"ular":695,"ress":696,"hat":697,"ory":698,"ject":699,"Ġev":700,"ics":701,"ĠSt":702,"ega":703,"ark":704,"pace":705,"fin":706,"ĠĠĠĠĠ":707,"phi":708,"ally":709,"^{\\":710,"ution":711,"Ġout":712,"Ġclass":713,"oint":714,"Ġset":715,"ord":716,"ov":717,"ces":718,"Ġar":719,"Ġmodel":720,"ode":721,"lambda":722,"Ġ{\\":723,"bf":724,"irst":725,"pi":726,"ear":727,"Ġval":728,"Ġbut":729,"Ġfunction":730,"Ġtwo":731,"sc":732,"ob":733,"iel":734,"ollow":735,"set":736,"Ġdif":737,"\">":738,"Ġen":739,"cent":740,"lic":741,"Ġdo":742,"one":743,"Ġour":744,"raph":745,"Ġmore":746,"ĠWe":747,"pon":748,"Ġtheir":749,"ize":750,"ie":751,"Ġ[":752,"200":753,"wid":754,"mathbf":755,"ca":756,"ilon":757,"psilon":758,"vel":759,"Ġinter":760,"ep":761,"umber":762,"get":763,"vers":764,"Ġform":765,"âĢĿ":766,"ll":767,"Ġresult":768,"app":769,"Ġother":770,"ck":771,"section":772,"ove":773,"Ġfollow":774,"Ġtime":775,"Ġro":776,"cre":777,"Ġsp":778,"Ġits":779,"Ġover":780,"stem":781,"ram":782,"12":783,"Ġso":784,"ype":785,"ys":786,"dition":787,"sigma":788,"ount":789,"ne":790,"Ġcons":791,"align":792,"Ġbet":793,"Ġsim":794,"ring":795,"clud":796,"Ġsuch":797,"aram":798,"pos":799,"part":800,"very":801,"Ġnew":802,"ature":803,"Ġ(\\":804,"Ġsub":805,"eth":806,"lect":807,"^{-":808,"ilde":809,"Ġwhere":810,"che":811,"Ġ|":812,"}{\\":813,"Ġhis":814,"ace":815,"beta":816,"lem":817,"Ġequ":818,"Ġwere":819,"ative":820,"ix":821,"Ġup":822,"Ġcor":823,"Ġdes":824,"Ġconst":825,"vi":826,"Ġthere":827,"ox":828,"Ġgener":829,"bar":830,"Ġonly":831,"Ġtrans":832,"te":833,"mathrm":834,"Ġman":835,"+\\":836,"gamma":837,"Ġthey":838,"Ġfirst":839,"Ġany":840,"Ġthan":841,"ĠY":842,"Ġdist":843,"ific":844,"ax":845,"resent":846,"*}":847,"Ġacc":848,"Ġwork":849,"We":850,"Ġdiffere":851,"ual":852,"Ġlo":853,"Ġpre":854,"ĠThis":855,"ced":856,"ock":857,"ility":858,"Ġshow":859,"Ġag":860,"pec":861,"Ġreg":862,"Ġmat":863,"Ġrel":864,"ake":865,"Ġpos":866,"\\\\":867,"ator":868,"ĠCh":869,"Ġtra":870,"les":871,"Ġbeen":872,"ss":873,"Ġdata":874,"Ġthen":875,"oth":876,"Ġcol":877,"theta":878,"]{":879,"put":880,"**":881,"Ġco":882,"^\\":883,"ish":884,"igh":885,"St":886,"rit":887,"Ġwhen":888,"leq":889,"rho":890,")}":891,"Ġph":892,"delta":893,"figure":894,"turn":895,"array":896,"ween":897,"Ġsome":898,"ient":899,"ise":900,"Ġeach":901,"ating":902,"cess":903,"cdot":904,"lo":905,"ruct":906,"$-":907,"width":908,"Ġsol":909,"tau":910,"ict":911,"ased":912,"ĠIt":913,"here":914,"Ġinto":915,"Ġgiv":916,"item":917,"Ġx":918,"Ġ'":919,"ield":920,"18":921,"}$,":922,"ink":923,"Ġsystem":924,"}$.":925,"Ġgo":926,"iss":927,"Ġbetween":928,"Ġthese":929,"Ġi":930,"Ġprob":931,"}(\\":932,"ays":933,"Ġeff":934,"ince":935,"ĠâĢľ":936,"sp":937,"ding":938,"big":939,"11":940,"eqref":941,"ible":942,"times":943,"ues":944,"olog":945,"Ġfin":946,"Ġli":947,"ities":948,"ans":949,"fter":950,"Ġuse":951,"Ġno":952,"ull":953,"ments":954,"Ġpoint":955,"its":956,"not":957,"Ġte":958,"ning":959,"ng":960,"rad":961,"val":962,"Ġsc":963,"pend":964,"Ġcase":965,"nu":966,"Ġabout":967,"partial":968,"elf":969,"ational":970,"ĠSe":971,"ied":972,"Ġcomm":973,"ethod":974,"Ġunder":975,"ail":976,"Ġwho":977,"nce":978,"Ġline":979,"ons":980,"fty":981,"Ġprov":982,"15":983,"infty":984,"Th":985,"round":986,"pr":987,"----":988,"tern":989,"arrow":990,"Ġsm":991,"()":992,"omega":993,"aramet":994,"Ġdifferent":995,"tilde":996,"|\\":997,"ting":998,"202":999,"rt":1000,"ugh":1001,"Ġappro":1002,"cy":1003,"Ġfe":1004,"oug":1005,"Ġused":1006,"ick":1007,"Ġvari":1008,"yn":1009,"==":1010,"ont":1011,"ident":1012,"aw":1013,"ource":1014,"arg":1015,"ĠRe":1016,"old":1017,"pm":1018,"16":1019,"Ġstud":1020,"min":1021,"var":1022,"eqn":1023,"ublic":1024,"Ġext":1025,"ization":1026,"Ġnumber":1027,"Ġwould":1028,"for":1029,"Delta":1030,"Ġusing":1031,"Ġkn":1032,"mm":1033,"Ġinv":1034,"tt":1035,"col":1036,"ars":1037,"Ġget":1038,"ĠFor":1039,"mer":1040,"ized":1041,"Ġpol":1042,"ange":1043,"ample":1044,"Ġoff":1045,"Ġnon":1046,"Ġmay":1047,"ĠĠĠĠĠĠĠĠĠĠĠĠĠĠĠ":1048,"space":1049,"Re":1050,"vert":1051,"Ġind":1052,"ider":1053,"quad":1054,"ert":1055,"Ġcur":1056,"pert":1057,"hed":1058,"Ġhad":1059,"ower":1060,"Ġyear":1061,"roup":1062,"uss":1063,"13":1064,"Ġher":1065,"ral":1066,"io":1067,"ctions":1068,"olds":1069,"Ġass":1070,"Ġdefin":1071,"abl":1072,"Ġreturn":1073,"orem":1074,"Ġest":1075,"Ġ.":1076,"ater":1077,"Ġpartic":1078,"eng":1079,"Ġpe":1080,"Ġprodu":1081,"Ġact":1082,"rough":1083,"xi":1084,"Ġgiven":1085,"sec":1086,"Ġdet":1087,"Ġbl":1088,"Ġsign":1089,"}}\\":1090,"Ġsame":1091,"sim":1092,"}[":1093,"14":1094,"ically":1095,"\\,":1096,"ism":1097,"Ġ$(":1098,"gy":1099,")$.":1100,"ever":1101,"Ġterm":1102,"ĠHe":1103,"ĠX":1104,"sh":1105,"ote":1106,"Ġu":1107,"Ġcomple":1108,"Ġthem":1109,"ots":1110,"ĠUn":1111,"serv":1112,"Ġmost":1113,"Ġwell":1114,"->":1115,"Ġpa":1116,"Ġsupp":1117,"riv":1118,"arge":1119,"gle":1120,"ases":1121,"Ġfact":1122,"epsilon":1123,"Ġrep":1124,"Ġinst":1125,"par":1126,"als":1127,"$$":1128,"ĠPro":1129,"ract":1130,"arch":1131,"25":1132,"ann":1133,"Ġhow":1134,"Ġvalue":1135,"Ġmethod":1136,"ively":1137,"Ġsa":1138,"irc":1139,"Ġ/":1140,"Ġfl":1141,"}_{\\":1142,"ins":1143,"Ġz":1144,"ild":1145,"ĠQ":1146,"Ġam":1147,"Ġdef":1148,".,":1149,"Ġparamet":1150,"err":1151,"Ġsee":1152,"Ġ:":1153,"Ġresults":1154,"where":1155,"Ġrequ":1156,"center":1157,"))":1158,"Ġoper":1159,"ists":1160,"Ġobtain":1161,"Ġfollowing":1162,"formation":1163,"sq":1164,"ings":1165,"ĉĉĉĉ":1166,"ĠâĢĵ":1167,"rix":1168,"Ġspec":1169,"ctor":1170,"ily":1171,"Om":1172,"ices":1173,"hi":1174,"ool":1175,"cond":1176,"ute":1177,"Ġboth":1178,"ential":1179,"ability":1180,"asure":1181,"Ġsur":1182,"uch":1183,"ner":1184,"17":1185,"Ġem":1186,"Ġorder":1187,"Ġstate":1188,"psi":1189,"eqnarray":1190,"Ġeffect":1191,"Ġent":1192,"Ġanal":1193,"rent":1194,"ĠDe":1195,"Ġbound":1196,"Ġthrough":1197,"Ġhigh":1198,"oy":1199,"ude":1200,"Omega":1201,"ough":1202,"Ġdisc":1203,"Ġmin":1204,"Ġafter":1205,"yp":1206,"textbf":1207,"Ġ//":1208,"Ex":1209,"^*":1210,")$,":1211,"Ġneed":1212,"ines":1213,"Ġshe":1214,"Ġexp":1215,"def":1216,"199":1217,"Ġtr":1218,"Ġ</":1219,"Ġback":1220,"uring":1221,"Ġwor":1222,"respon":1223,"Ġdire":1224,"angle":1225,"ĠFig":1226,"ension":1227,"Ġyour":1228,"Ġperform":1229,"atic":1230,"work":1231,"ron":1232,"rel":1233,"ton":1234,"sqrt":1235,"Gamma":1236,"ality":1237,"mbol":1238,"ople":1239,"Ġlike":1240,"30":1241,"oot":1242,"hen":1243,"ook":1244,"ks":1245,"Ġplay":1246,"Ġrec":1247,"bm":1248,"energy":1249,"Con":1250,"ited":1251,"ĠCom":1252,"Ġsmall":1253,"Ġend":1254,"ĠZ":1255,"subsection":1256,"cause":1257,"vare":1258,"../":1259,"^{(":1260,"ered":1261,"ined":1262,"ulti":1263,"varepsilon":1264,"includ":1265,"cm":1266,"Ġevery":1267,"Ġ${\\":1268,"ĠAl":1269,"ĠAs":1270,"ful":1271,"ash":1272,"raw":1273,"log":1274,"Ġmass":1275,"For":1276,"Pro":1277,"rightarrow":1278,"raphics":1279,"Ġdec":1280,"oci":1281,"reat":1282,"::":1283,"Ġ`":1284,"fra":1285,"Ġstr":1286,"Ġdesc":1287,"Ġdistrib":1288,"ructure":1289,"Ġed":1290,"}^{\\":1291,"ining":1292,"Ġfield":1293,"ade":1294,"ript":1295,"Ġmeasure":1296,"name":1297,"Ġinclud":1298,"ĠĠĊ":1299,"',":1300,"ithm":1301,"ages":1302,"}=":1303,"Ġcondition":1304,"Ġopt":1305,"Ġprocess":1306,"Ġobserv":1307,"Ġ\\,":1308,"Ġele":1309,"ĠčĊ":1310,"ulation":1311,"Ġrespect":1312,"ross":1313,"rangle":1314,"Ġexpl":1315,"Ġproblem":1316,"caption":1317,"Ġnow":1318,"oid":1319,"arly":1320,")=":1321,"ency":1322,"tab":1323,"Ġspace":1324,"ER":1325,"\",":1326,"etric":1327,"ef":1328,"Ġdi":1329,"Ġcall":1330,"Ġexper":1331,"Ġ@":1332,"egraphics":1333,"includegraphics":1334,"ey":1335,"mod":1336,"ted":1337,"Ġac":1338,"Ġwhile":1339,"This":1340,"Ġpr":1341,"50":1342,"Ġbu":1343,"Ġthree":1344,"uth":1345,"Ġassum":1346,"Ġwhat":1347,"Ġjust":1348,"Ġsaid":1349,"Ġcould":1350,"Ġpublic":1351,"ml":1352,"tr":1353,"essage":1354,"Ġsing":1355,"etwork":1356,"umn":1357,"Ġtype":1358,"oun":1359,"vent":1360,"...":1361,"view":1362,"Ġenergy":1363,"Ġcorrespon":1364,"Ġlead":1365,"ten":1366,"led":1367,"varphi":1368,"Ġbel":1369,"ymbol":1370,"ĠNew":1371,"ement":1372,"Ġshould":1373,"Ġfil":1374,"ets":1375,"24":1376,"me":1377,"non":1378,"geq":1379,"gor":1380,"Ġdoes":1381,"Ġpresent":1382,"Ġrepresent":1383,"ffic":1384,"ern":1385,"Ġconsider":1386,"ward":1387,"emph":1388,"yle":1389,"Ġpeople":1390,"Ġtest":1391,"ole":1392,"Ġscal":1393,"ensure":1394,"ivers":1395,"Ġcent":1396,"read":1397,"Ġestim":1398,"ology":1399,"hes":1400,"ren":1401,"Ġeven":1402,"Ġincre":1403,"utions":1404,".~\\":1405,"&\\":1406,"overline":1407,"Ġright":1408,"velop":1409,"Ġname":1410,"Ġden":1411,"Ġfound":1412,"ision":1413,"Ġlong":1414,"gorithm":1415,"://":1416,"Ġatt":1417,"Ġlocal":1418,"Ġfind":1419,"Ġvery":1420,"umer":1421,".}":1422,"Ġlim":1423,"000":1424,"iqu":1425,"ified":1426,"Ġmany":1427,"ST":1428,"It":1429,"bl":1430,"itive":1431,"ik":1432,"ness":1433,"chn":1434,"proof":1435,"co":1436,"div":1437,"pen":1438,"Ġve":1439,"Ġbecause":1440,"Ġposs":1441,"ateg":1442,"Ġca":1443,"ural":1444,"ason":1445,"Ġsecond":1446,"Ġchar":1447,"position":1448,"ier":1449,")^":1450,"bolds":1451,"ants":1452,"land":1453,"},\\":1454,"aking":1455,"Ġagain":1456,"ength":1457,"Ġlarge":1458,"any":1459,"Ġcre":1460,"Big":1461,"Ġsince":1462,"Ġmy":1463,"boldsymbol":1464,"cept":1465,"chi":1466,"let":1467,"ames":1468,"att":1469,"Ġgeneral":1470,"Ġcal":1471,"As":1472,"ee":1473,"olution":1474,"Ġcontin":1475,"Ġstart":1476,"frak":1477,"els":1478,"ify":1479,"''":1480,"Ġreal":1481,"22":1482,"Ġmon":1483,"Ġser":1484,"Ġvalues":1485,"au":1486,"hline":1487,"[\\":1488,"Ġinteg":1489,"man":1490,"inal":1491,"ormal":1492,"vec":1493,"ampl":1494,"net":1495,"owever":1496,"ger":1497,"ĠĠĠĠĠĠĠĠĠ":1498,"cor":1499,"Ġadd":1500,"}).":1501,"ĠIf":1502,"fer":1503,"ved":1504,"be":1505,"ĉĉĉ":1506,"fl":1507,"Ġabove":1508,"Ġbeing":1509,"Ġfeature":1510,"ond":1511,"Ġident":1512,"Ġknow":1513,"Ġinformation":1514,"Ġway":1515,"Ġsupport":1516,"IN":1517,"iew":1518,"(\"":1519,"vious":1520,"Ġsat":1521,"rodu":1522,"fore":1523,"trans":1524,"Ġ,":1525,"();":1526,"ensity":1527,"imension":1528,"ON":1529,"Ġhand":1530,"Ġgroup":1531,"23":1532,"ĠAn":1533,"urther":1534,"}}$":1535,"Ġstructure":1536,"Ġra":1537,"atch":1538,"langle":1539,"Ġerr":1540,"Ġ>":1541,"less":1542,"Ġlet":1543,"></":1544,"mathfrak":1545,"med":1546,"Ġspect":1547,"rid":1548,"ilar":1549,"Ġquant":1550,"Ġtop":1551,"ĠCon":1552,"by":1553,"lim":1554,"Ġmem":1555,"pre":1556,"Ġrad":1557,"Lambda":1558,"Ġmodels":1559,"ather":1560,"depend":1561,"dd":1562,"Ġpropert":1563,"Ġel":1564,"ank":1565,"refore":1566,"ards":1567,"Ġyears":1568,"Ġcontain":1569,"Ġmake":1570,"Ġthose":1571,"ldots":1572,"Ġdepend":1573,"plit":1574,"other":1575,"ane":1576,"Let":1577,"Ġfollows":1578,"ven":1579,"cur":1580,"Ġmain":1581,"Ġtem":1582,"span":1583,"ser":1584,"Ġcomput":1585,"rop":1586,"nabl":1587,"Ġshown":1588,"ci":1589,"AT":1590,"âĢĵ":1591,"wh":1592,"Ġserv":1593,"imal":1594,"ves":1595,"su":1596,"><":1597,"Ġmag":1598,"Com":1599,"wn":1600,"ife":1601,"ood":1602,"sk":1603,"face":1604,"ior":1605,"100":1606,"Phi":1607,"sf":1608,"ished":1609,"Ġmulti":1610,"40":1611,"Ġimport":1612,"Ġnetwork":1613,"Ġobject":1614,"Ġexpect":1615,"Ġcompa":1616,"mbox":1617,"oss":1618,"Ġallow":1619,"meric":1620,"Ġdescrib":1621,"ah":1622,"ero":1623,"ission":1624,"ift":1625,"Ġdefined":1626,"ired":1627,"Ġelect":1628,"Ġdevelop":1629,"Ġlear":1630,"ument":1631,"itial":1632,"Ġlevel":1633,"ij":1634,"ration":1635,"cle":1636,"AR":1637,"Ġhere":1638,"Ġbased":1639,"cul":1640,"--------":1641,"Ġself":1642,"Ġ||":1643,"Ġprovid":1644,"ask":1645,"see":1646,"orph":1647,"Ġgl":1648,"gram":1649,"no":1650,"Ġread":1651,"nabla":1652,"âĢľ":1653,"new":1654,"Ġcount":1655,"erson":1656,"Ġart":1657,"Ġhim":1658,"back":1659,"ym":1660,"rol":1661,"Ġstand":1662,"To":1663,"appa":1664,"ected":1665,"acter":1666,"amp":1667,"Ġav":1668,"Ch":1669,"Ġbefore":1670,".âĢĿ":1671,"xim":1672,"Ġap":1673,"textit":1674,"\\|":1675,"};":1676,"requ":1677,"isf":1678,"ynam":1679,"Ġstat":1680,"ysis":1681,"Ġ_":1682,"bra":1683,"Ġlast":1684,"day":1685,"ĠĠĠĠĠĠĠĠĠĠĠĠĠĠĠĠĠĠĠĠĠĠĠĠĠĠĠĠĠĠĠĠ":1686,"21":1687,"ĠEx":1688,"../../":1689,"ĠSh":1690,"Ġexample":1691,"table":1692,"Ġcurrent":1693,"citep":1694,"cer":1695,"Ġfam":1696,"etail":1697,"clude":1698,"way":1699,"Ġche":1700,"ection":1701,"Ġmed":1702,"ec":1703,"ule":1704,"ually":1705,"ensuremath":1706,"son":1707,"Ġhel":1708,"Ġgu":1709,"Ġ#":1710,"Ġduring":1711,"otimes":1712,"ww":1713,"Ġrem":1714,"comm":1715,"chool":1716,"})$":1717,"box":1718,"circ":1719,"subset":1720,"Ġparticular":1721,"kappa":1722,"this":1723,"):":1724,"ators":1725,"Ġsum":1726,".\\":1727,"erest":1728,"Ġpres":1729,"\\%":1730,"Ġmuch":1731,"oper":1732,"Ġdistribution":1733,"alth":1734,"az":1735,"Ġaddition":1736,"Ġredu":1737,"Ġsection":1738,"Ġrun":1739,"ification":1740,"otential":1741,"bers":1742,"dis":1743,"Ġterms":1744,"gg":1745,"source":1746,"with":1747,"str":1748,"Ġpower":1749,"Ġdeterm":1750,"plic":1751,"Ġrest":1752,"rict":1753,"2020":1754,"Ġdiscuss":1755,"pd":1756,"redict":1757,"Ġ)":1758,"198":1759,"aj":1760,"ival":1761,"arget":1762,"action":1763,"60":1764,"ital":1765,"Ġsize":1766,"play":1767,"Ġmade":1768,"RE":1769,"ead":1770,"html":1771,"Ġdirect":1772,"Ġstudy":1773,"ives":1774,"AS":1775,"32":1776,"Ġlow":1777,"oh":1778,"Sigma":1779,"nonumber":1780,"ody":1781,"Ġins":1782,"ĠCl":1783,"rem":1784,"sm":1785,"Ġalgorithm":1786,"Ġdue":1787,"Ġtechn":1788,"Ġsimilar":1789,"lation":1790,"****":1791,"ense":1792,"etry":1793,"ID":1794,"ott":1795,"Ġbas":1796,"Ġcho":1797,"ields":1798,"}),":1799,"Ġlook":1800,"eps":1801,"Ġet":1802,"htt":1803,"Ġ*/":1804,"Ġbeh":1805,"27":1806,"Ġdom":1807,"Ġmust":1808,"ges":1809,"Ġvis":1810,"ale":1811,"Ġ--":1812,"dots":1813,"}}{":1814,"\\!":1815,"Ġdown":1816,"Ġsatisf":1817,"Ġshows":1818,"Ġmax":1819,"ĠThen":1820,"2018":1821,"28":1822,"message":1823,"lection":1824,"Ġbecom":1825,"Ġpat":1826,"Ġappe":1827,"air":1828,"Ġrele":1829,"org":1830,"rum":1831,"hip":1832,"Ġtake":1833,"Ġorg":1834,"ately":1835,"Ġsingle":1836,"Ġparameters":1837,"2022":1838,"ocation":1839,"akes":1840,"Ġder":1841,"aces":1842,"ĠĠĠĠĠĠ":1843,"istic":1844,"ĠTo":1845,"Ġhref":1846,"ĠHowever":1847,"orn":1848,"widet":1849,"Ġpoints":1850,"ery":1851,"Ġcar":1852,"\\[":1853,"2019":1854,"Ġleft":1855,"Ġorig":1856,"Ġreport":1857,"Ġhig":1858,"Ġstill":1859,"alse":1860,"ivity":1861,"andom":1862,"====":1863,"Ġopen":1864,"Ġexperim":1865,"ĠAnd":1866,"ĠĠĠĠĠĠĠĠĠĠĠĠĠĠĠĠĠĠĠ":1867,"ures":1868,"ĠAmeric":1869,"'t":1870,"Ġdid":1871,"Ġgood":1872,"ble":1873,"33":1874,"Ġwithin":1875,")(":1876,"Ġaround":1877,"Ġmatrix":1878,"ixed":1879,"version":1880,"widetilde":1881,"Ġcle":1882,"Ġdesign":1883,"dependent":1884,"ination":1885,"{-":1886,"ression":1887,"Ġcompon":1888,"Ġcommun":1889,"Ġfour":1890,"2017":1891,"By":1892,"Ġinterest":1893,"Ġlist":1894,"Ġtot":1895,"ĠRes":1896,"Ġsolution":1897,"Ġindu":1898,"Ġobtained":1899,"centering":1900,"ters":1901,"Ġpotential":1902,"Ġq":1903,"Ġmean":1904,"ording":1905,"draw":1906,"posed":1907,"ene":1908,"Ġgraph":1909,"sl":1910,"code":1911,"ouse":1912,"Ġmark":1913,"Ġpossible":1914,"ccess":1915,"ients":1916,"Ġ``":1917,"Ġgra":1918,"nces":1919,"26":1920,"td":1921,"oll":1922,"Fig":1923,"Ġdensity":1924,"iversity":1925,"Ġbest":1926,"ived":1927,"cont":1928,"ference":1929,"45":1930,"Ġinitial":1931,"('":1932,"Res":1933,"Ġhelp":1934,"class":1935,"reg":1936,"Ġpredict":1937,"Ġfunctions":1938,"/\\":1939,"iod":1940,"atrix":1941,"arm":1942,"ĠLet":1943,"max":1944,"Ġtri":1945,"2021":1946,"Ġworld":1947,"ault":1948,"Ġincluding":1949,"Ġtrue":1950,"Ġpaper":1951,"cit":1952,"Ġequation":1953,"imum":1954,"Ġrespon":1955,"top":1956,"Ġwithout":1957,"script":1958,"wide":1959,"atter":1960,"ream":1961,"aps":1962,"Ġsuper":1963,"iness":1964,"Ġpop":1965,"Ġexist":1966,"Ġcharacter":1967,"cap":1968,"const":1969,"}-":1970,"ised":1971,"tabular":1972,"ience":1973,"Ġintrodu":1974,"rack":1975,"verse":1976,"bit":1977,"ek":1978,"Ġwrit":1979,"Ġlarg":1980,"Ġassoci":1981,"overn":1982,"Ġstrong":1983,"ĠLe":1984,"Ġrema":1985,"OR":1986,"Ps":1987,"2016":1988,"Ġlimit":1989,"ables":1990,"Ġsequ":1991,"Ġapproxim":1992,"ories":1993,"Ġstates":1994,"Ġvert":1995,"Ġcontinu":1996,"Ġanalysis":1997,"Ġproduct":1998,"Ġclos":1999,"ii":2000,"ĠAd":2001,"75":2002,"Ġcontrib":2003,"AN":2004,"color":2005,"Ġtyp":2006,"Ġconstant":2007,"Ġdeg":2008,"Ġdem":2009,"import":2010,"Ġprof":2011,"Ġapproach":2012,"Ġcorresponding":2013,"Ġinvest":2014,"urb":2015,"Ġ=>":2016,"29":2017,"self":2018,"Ġcou":2019,"__":2020,"Ġteam":2021,"Name":2022,"Ġlit":2023,"ique":2024,"Ġknown":2025,"Ġcomb":2026,"Ġocc":2027,"Ġcomplex":2028,"Ġpass":2029,"\\{":2030,"Id":2031,"ison":2032,"Ġprevious":2033,"ux":2034,"LE":2035,"odes":2036,"ivid":2037,"amples":2038,"Ġpar":2039,"prime":2040,"type":2041,"Ġbro":2042,"35":2043,"style":2044,"ety":2045,"Ġfinal":2046,"05":2047,"ĠInd":2048,"Ġdat":2049,"clus":2050,"ĠTheorem":2051,"ention":2052,"Ġalong":2053,"Ġtheory":2054,"ĠOn":2055,"If":2056,"Ġnext":2057,"mit":2058,"Ġrate":2059,")=\\":2060,"Ġ($":2061,"Ġdetail":2062,"Type":2063,"Al":2064,"ystem":2065,"Ġrespectively":2066,"por":2067,"Ġparameter":2068,"}+":2069,"Ġmom":2070,"obal":2071,"Ġref":2072,"Ġperformance":2073,"orth":2074,"Ġimportant":2075,"Ġown":2076,"Ġregion":2077,"time":2078,"Ġcalcul":2079,"Ġtotal":2080,"alk":2081,"zeta":2082,"ially":2083,"vir":2084,"ception":2085,"ental":2086,"Ġsignific":2087,"Ġarg":2088,"\\]":2089,"2015":2090,"Ġpost":2091,"emma":2092,"}]":2093,"itle":2094,"ĠPl":2095,",âĢĿ":2096,"roll":2097,"ĠPh":2098,"Ġsl":2099,"perature":2100,"Ġmap":2101,"ploy":2102,"Ġaver":2103,"outh":2104,";\\":2105,"Ġeas":2106,"ground":2107,"Ġapplic":2108,"bs":2109,")}\\":2110,"Ġimpro":2111,"String":2112,"Ã©":2113,"thm":2114,"Ġprogram":2115,")^{":2116,"90":2117,"Ġconf":2118,"Ġproof":2119,"Ġproject":2120,"mult":2121,"order":2122,"rr":2123,"opt":2124,"ĠEq":2125,"scal":2126,"exp":2127,"Ġaut":2128,"ailable":2129,"AL":2130,"mber":2131,"}=\\":2132,"ched":2133,"{(":2134,"Cl":2135,"ither":2136,"ious":2137,"inter":2138,"omen":2139,"ances":2140,"Ġposition":2141,"Ġwant":2142,"pper":2143,"ocus":2144,"ĠAr":2145,"Ġbuil":2146,"stand":2147,"Ġpair":2148,"duct":2149,"De":2150,"Ġcalled":2151,"~~":2152,"SS":2153,"Ġ&=":2154,"80":2155,"usiness":2156,"##":2157,"Ġphot":2158,"omorph":2159,"anc":2160,"Ġphase":2161,"ĠCol":2162,"Ġrange":2163,"EN":2164,"Ġpath":2165,"Ġrandom":2166,"Ġcrit":2167,"Ġindic":2168,"add":2169,"ources":2170,"Ġlinear":2171,"Ġchange":2172,"icle":2173,"2014":2174,"veral":2175,"return":2176,"sequ":2177,"Ġbre":2178,"ries":2179,"ina":2180,"Ġview":2181,"ups":2182,"ms":2183,"aving":2184,"Ġke":2185,"Ġspe":2186,"Ġfram":2187,".~":2188,"An":2189,"70":2190,"ler":2191,"/>":2192,"Ġagainst":2193,"Ġerror":2194,"ways":2195,"translation":2196,"ember":2197,"ences":2198,"64":2199,"Ġhy":2200,"Ġsystems":2201,"Ġfull":2202,"ering":2203,"}^\\":2204,"Ġchang":2205,"rite":2206,"ium":2207,"Ġide":2208,"Ġvector":2209,"Ġimage":2210,"Ġlight":2211,"ĠYou":2212,"Ġfurther":2213,"til":2214,"AC":2215,"Ġfinite":2216,"param":2217,"Ġrese":2218,"Ġsay":2219,"node":2220,"cdots":2221,"Ġaff":2222,"$)":2223,"Ġaction":2224,"Ġlink":2225,"99":2226,"ĠSection":2227,"}_\\":2228,"Ġphys":2229,"Ġsymm":2230,"Ġcontrol":2231,"Ġinput":2232,"Ġdel":2233,"}|":2234,"uthor":2235,"Ġsignificant":2236,"Ġhigher":2237,"Ġmethods":2238,"Ġdynam":2239,"Ġadv":2240,"Ġless":2241,"}\\,":2242,"br":2243,"Ġgame":2244,"ĠUniversity":2245,"ĠBut":2246,"Ġevent":2247,"ĠBe":2248,",-":2249,"Ġlower":2250,"Ġfew":2251,"Ġfree":2252,"under":2253,"tle":2254,"{{\\":2255,"ĠBy":2256,"Ġconditions":2257,"ĠWh":2258,"aim":2259,"Ġtimes":2260,"')":2261,"Ġtarget":2262,"ruction":2263,"01":2264,".\"":2265,"cos":2266,"widehat":2267,"Ġrece":2268,"Ġturn":2269,"Ġprot":2270,"ological":2271,"Ġgrow":2272,"Val":2273,"lemma":2274,"Ġmet":2275,"uation":2276,"defin":2277,"Ġhist":2278,"fficient":2279,"textwidth":2280,"Ġdiff":2281,"Ġleast":2282,"Ġcap":2283,"ĠâĢĶ":2284,"\"/>":2285,"Ġweight":2286,"Ġlay":2287,"Ġanother":2288,"Ġdiag":2289,"ĠTe":2290,"qquad":2291,"asing":2292,"}}(":2293,"Ġperiod":2294,"Ġbetter":2295,"Ġtraining":2296,"Ġcases":2297,"Ġnode":2298,"ription":2299,"Ġtemperature":2300,")]":2301,"ts":2302,"})\\":2303,"mathsf":2304,"SE":2305,"Ġsom":2306,"ional":2307,"Ġbo":2308,"Ġlaw":2309,"Ġ\\{":2310,"ches":2311,"Ġseveral":2312,"2013":2313,"ird":2314,"Ġdon":2315,"^+":2316,"reen":2317,"Ġmot":2318,"ĠIs":2319,"value":2320,"Ġfamily":2321,"esc":2322,"Ġplan":2323,"rivate":2324,"fo":2325,"Ġmov":2326,"Ġwid":2327,"foot":2328,"Ġkey":2329,"ley":2330,"Ġstandard":2331,"ball":2332,"ĠThey":2333,"imensional":2334,"IC":2335,"Ġperson":2336,"Ġplace":2337,"Ġpur":2338,"Ġthink":2339,"empt":2340,"Ġpositive":2341,"Ġsit":2342,"Ġrecent":2343,"Ġavailable":2344,"Ġsk":2345,"viron":2346,"Ġnull":2347,"ĠShe":2348,"uc":2349,"head":2350,"size":2351,"ĠBl":2352,"Ġ!":2353,"Ġprovide":2354,"hspace":2355,"idd":2356,"gebra":2357,"alax":2358,"Ġseries":2359,"ends":2360,"off":2361,"af":2362,"ended":2363,"Ġhead":2364,"ury":2365,"34":2366,"}^{(":2367,"Ġlog":2368,"Ġfeatures":2369,"âĢ¦":2370,"Ġdefine":2371,"ope":2372,"pdf":2373,"DE":2374,"&=":2375,"Ġcour":2376,"uro":2377,"ternal":2378,"Ġnormal":2379,"which":2380,"Ġcorre":2381,"Ġquest":2382,"ĠAt":2383,"lected":2384,"based":2385,"ograph":2386,"ĠâĢĺ":2387,"On":2388,"Ġstring":2389,"Ġsource":2390,"Psi":2391,"Ġlength":2392,"ĠFigure":2393,"small":2394,"uration":2395,"inary":2396,"Ġvol":2397,"Ġproperties":2398,"Ġchild":2399,"angu":2400,"ĠSu":2401,"IT":2402,"Ġlife":2403,"Ġconstra":2404,"rand":2405,"orld":2406,"sing":2407,"Ġabs":2408,"uture":2409,"2012":2410,"Ġeval":2411,"ubl":2412,"List":2413,"ware":2414,"operator":2415,"Ġconsid":2416,"Ġconn":2417,"netic":2418,"Ġzero":2419,"AM":2420,"wit":2421,"Ġcirc":2422,"Ġobserved":2423,"II":2424,"Ġfrequ":2425,"usic":2426,"ush":2427,"ĠAll":2428,"ape":2429,"Ġmoment":2430,"Ġbelow":2431,"go":2432,"chie":2433,"ĠĠĠĠĠĠĠĠĠĠĠĠĠ":2434,"36":2435,"plement":2436,"ĠThese":2437,"Ġneg":2438,"Ġvar":2439,"ohn":2440,"lying":2441,"Ġcost":2442,"Ġge":2443,"Ġconsist":2444,"Ġbehav":2445,"ajor":2446,"ius":2447,"Ġassociated":2448,"ared":2449,"ising":2450,"ĠFe":2451,"une":2452,"inc":2453,"Ġhal":2454,"Ġblock":2455,"cup":2456,"48":2457,"Ġprobability":2458,"nal":2459,"Ġcy":2460,"Ġthus":2461,"Ġcross":2462,"Ġexists":2463,"ling":2464,"Ar":2465,"Ġloss":2466,"Ġfactor":2467,"uman":2468,"ored":2469,"wards":2470,"Ġproposed":2471,"Ġ$(\\":2472,"],":2473,"Ġday":2474,"key":2475,"ĠThere":2476,"}\\\\":2477,"Ġorgan":2478,"31":2479,"Ġclust":2480,"ably":2481,"Un":2482,"Ġcoll":2483,"Ġmeans":2484,"Ġlearning":2485,"ĠApp":2486,"point":2487,"ĠJan":2488,"enc":2489,"Ġfalse":2490,"ĠLemma":2491,"Ġaverage":2492,"ferences":2493,"Ġ&\\":2494,"appro":2495,"xspace":2496,"wise":2497,"illion":2498,"Ġside":2499,"function":2500,"Ġcompar":2501,"skip":2502,"Ġcell":2503,"data":2504,"Ġla":2505,"ĠCar":2506,"Ġann":2507,"roups":2508,"]$":2509,"Ġcoupl":2510,"onal":2511,"opy":2512,"rap":2513,"aster":2514,"Int":2515,"Ġopp":2516,"rary":2517,"ordin":2518,"ready":2519,"ĠEng":2520,"Ġflow":2521,"olumn":2522,"ules":2523,"Ġshort":2524,"Ġaccount":2525,"CO":2526,"Ġgive":2527,"Ġsimple":2528,"Ġdefinition":2529,"Ġrequire":2530,"Ġelse":2531,"ertain":2532,"Ġdescribed":2533,"Ġequival":2534,"utes":2535,"ev":2536,"95":2537,"2011":2538,"ober":2539,"ocial":2540,"Ġanaly":2541,"icy":2542,"ache":2543,"38":2544,"ĠMore":2545,"|^":2546,"prop":2547,"Ġquantum":2548,"Ġhom":2549,"Ġseen":2550,"Ġarea":2551,"Ġband":2552,"now":2553,"chan":2554,"Ġdatas":2555,"Ġfit":2556,"Ġsem":2557,"sin":2558,"Ġindependent":2559,"Ġsuccess":2560,"ula":2561,"Ġassume":2562,"Ġelement":2563,"Ġenc":2564,"Ġgreat":2565,"ibility":2566,"2010":2567,"equiv":2568,"Ġalways":2569,"65":2570,"Ġsepar":2571,"Ġeither":2572,"Ġlines":2573,"bu":2574,"erial":2575,"Ġimpl":2576,"Ġbi":2577,"Ġfixed":2578,"indent":2579,"Ġconsidered":2580,"ĉĊ":2581,"Ġrelations":2582,"gl":2583,"string":2584,"osp":2585,"({\\":2586,"Ġfocus":2587,"Ġexpected":2588,"aut":2589,"Ġcheck":2590,"Ġinvol":2591,"Ġsche":2592,"rist":2593,"ulations":2594,"Ġachie":2595,"inally":2596,"Ob":2597,"ty":2598,"Ġmight":2599,"Ġbook":2600,"ĠAmerican":2601,"âĢĶ":2602,"197":2603,"scr":2604,"pact":2605,"enn":2606,"idence":2607,"ividual":2608,"ged":2609,"Ġinclude":2610,"Ġ==":2611,"37":2612,"Ġschool":2613,"}:":2614,"}+\\":2615,"Ġtoo":2616,"tack":2617,"Ġlater":2618,"operatorname":2619,"Ġnat":2620,"scale":2621,"ides":2622,"Ġiss":2623,"AP":2624,"Ġoperator":2625,"Ġsurface":2626,"Ġnear":2627,"arent":2628,"urs":2629,"ariant":2630,"ĠSince":2631,"Ġ&&":2632,"itor":2633,"ĠCent":2634,"most":2635,"lement":2636,"mat":2637,")-":2638,"Ġgovern":2639,"Ġstre":2640,"ĠMay":2641,"Sh":2642,"map":2643,"ems":2644,"ĠUS":2645,"ai":2646,"ĠSo":2647,"ats":2648,"Ġlik":2649,"}}{\\":2650,"Ġexact":2651,"eter":2652,"igen":2653,"Ġstar":2654,"bb":2655,"Ġvia":2656,"vironment":2657,"side":2658,"Ġdistance":2659,"though":2660,"Ġcare":2661,"Ġsequence":2662,"ving":2663,"Ġscale":2664,"citet":2665,"mid":2666,"ths":2667,"Ġspin":2668,"Ġaccess":2669,"field":2670,"Ġgalax":2671,"raction":2672,"Ġtext":2673,"neq":2674,"'$":2675,"Ġstep":2676,"55":2677,"04":2678,"ĠMar":2679,"ently":2680,"Ġdev":2681,"ĠCan":2682,"fill":2683,"Ġsample":2684,"ris":2685,"Ġelements":2686,"Ġdenote":2687,"ustom":2688,"footnot":2689,"Ġnumer":2690,"ED":2691,"iff":2692,"Ġvoid":2693,"https":2694,"Ġsugg":2695,"Ġsuggest":2696,"Ġid":2697,"Ġalready":2698,"Ġacross":2699,"}-\\":2700,"ĠGe":2701,"Se":2702,"ĠMan":2703,"Ġcover":2704,"Ġtransition":2705,"Ġsetting":2706,"Ġhome":2707,"ocument":2708,"Ġcorrel":2709,"roid":2710,"Set":2711,"indow":2712,"iving":2713,"tic":2714,"rior":2715,"ĠCO":2716,"Ġlabel":2717,"Ġbusiness":2718,"ino":2719,"call":2720,"sw":2721,"Ġemb":2722,"Ġequations":2723,"pose":2724,"Ġversion":2725,"ĠOr":2726,"Ġ-\\":2727,"ĠSp":2728,"place":2729,"66":2730,"39":2731,"Ġear":2732,"IS":2733,")}{":2734,"Ġrat":2735,"ister":2736,"ĠWith":2737,"He":2738,"Ġedge":2739,"Ġtre":2740,"Ġconstruct":2741,"verg":2742,"08":2743,"enumer":2744,"Ġblack":2745,"ught":2746,"gs":2747,"Ġspecial":2748,"aken":2749,"Ġresearch":2750,"ĠCo":2751,"44":2752,"Ġ%":2753,"Ġpract":2754,"annel":2755,"ressed":2756,"mp":2757,"Ġold":2758,"theorem":2759,"Ġdomain":2760,"bo":2761,"Ġboundary":2762,"mary":2763,"nb":2764,"stit":2765,"eloc":2766,"Ġindividual":2767,"02":2768,"ĠNo":2769,"Ġcommon":2770,"]\\":2771,"iles":2772,"vspace":2773,"Ġhapp":2774,"].":2775,"Ġsens":2776,"Ġproperty":2777,"iven":2778,"Ġrelated":2779,"Data":2780,"Ġinvestig":2781,"\"><":2782,"Ġhard":2783,"ilities":2784,"star":2785,"edge":2786,"}}_":2787,"ours":2788,"Ġhealth":2789,"ults":2790,"uted":2791,"Ġimplement":2792,"Ġsolutions":2793,"Ġfields":2794,"Ġlarger":2795,"enumerate":2796,"ume":2797,"ĠThus":2798,"ava":2799,"Ġgives":2800,"mathscr":2801,"ES":2802,"anguage":2803,"izing":2804,"ĠĠĠĠĊ":2805,"pped":2806,"Ġcontext":2807,"07":2808,"conom":2809,"Ġestabl":2810,"ĠUnited":2811,"dag":2812,"Ġemploy":2813,"lied":2814,"itemize":2815,"Ġamong":2816,"ideo":2817,"gether":2818,"Ġtogether":2819,"Ġloc":2820,"Ġgoing":2821,"ussian":2822,"Ġeng":2823,"uary":2824,"noindent":2825,"rag":2826,"multic":2827,"Ġfuture":2828,"$}":2829,"Ġmajor":2830,"Ġes":2831,"otes":2832,"ĠSc":2833,"mon":2834,"Ġoriginal":2835,"resh":2836,"ottom":2837,"Ġmetric":2838,"ĠĠĠĠĠĠĠĠĠĠĠĠĠĠĠĠĠĠĠĠĠĠĠ":2839,"yl":2840,"Ġable":2841,"2009":2842,"Ġvarious":2843,"Ġregular":2844,"gen":2845,"~$":2846,"03":2847,"(-":2848,"Ġinfl":2849,"Ġcode":2850,"Ġmanag":2851,"Ġimages":2852,"cell":2853,"Ġconstraint":2854,")}$":2855,"Ġenough":2856,"Ġindex":2857,"Ġmove":2858,"Ġveloc":2859,"Ġoptim":2860,"ighb":2861,"ooth":2862,"icro":2863,"Ġclose":2864,"rim":2865,"multicolumn":2866,"Ġupd":2867,"omial":2868,"Ġconfig":2869,"Ġglobal":2870,"Ġfac":2871,"Ġput":2872,"ply":2873,"CT":2874,"Ġuser":2875,"Ġprivate":2876,"split":2877,"Ġseason":2878,"Ġeffic":2879,"Ġimplies":2880,"acy":2881,"dt":2882,"util":2883,"Ġeffects":2884,"Ġfar":2885,"iam":2886,"Ġreason":2887,"With":2888,"ought":2889,"down":2890,"dimensional":2891,"Ġmultiple":2892,"Ġill":2893,"Ġrequired":2894,"Ġcontent":2895,"astic":2896,"\\,\\":2897,"light":2898,"Ġoutput":2899,"Ġuntil":2900,"Ġwin":2901,"more":2902,"Ġinf":2903,"Ġunderstand":2904,"och":2905,"////":2906,"Mod":2907,"Ġleg":2908,"plus":2909,"Ġcoe":2910,"49":2911,"Ġben":2912,"Ġhowever":2913,"Ġhtt":2914,"ĠJohn":2915,"load":2916,"Ġoften":2917,"mark":2918,"06":2919,"($":2920,"Ġcertain":2921,"Ġbig":2922,"Ġnecess":2923,"ians":2924,"ĠCount":2925,"ĠPol":2926,"ze":2927,"Ġeffective":2928,"racy":2929,"Ġnote":2930,"medi":2931,"omorphism":2932,"Ġstrateg":2933,"ĠNational":2934,"Ġunit":2935,"pol":2936,"Ġprom":2937,"Ġ\\|":2938,"Ġaccording":2939,"group":2940,"Ġcompared":2941,"uly":2942,"onic":2943,"Ġdou":2944,"Ġsays":2945,"Ġcompany":2946,"iver":2947,"ĠOne":2948,"NN":2949,"Ġtherefore":2950,"iform":2951,"\\}$":2952,"Ġearly":2953,"page":2954,"abor":2955,"Ġprove":2956,"Ġappear":2957,"www":2958,"from":2959,"Ġwhether":2960,"Ġpan":2961,"Ġwon":2962,"Ġmechan":2963,"09":2964,"Ġbecome":2965,"}}}":2966,"Ġevents":2967,"earch":2968,"Ġadditional":2969,"Ġreview":2970,"----------------":2971,"Col":2972,"ework":2973,"hood":2974,"LL":2975,"Ġcannot":2976,"Ġholds":2977,"Ġfun":2978,"ctors":2979,"Ġsets":2980,"2008":2981,"47":2982,"Ġspecific":2983,"ĠMe":2984,"Ġtry":2985,"tact":2986,"Ġdifference":2987,"68":2988,"Ġgenerated":2989,"ront":2990,"RO":2991,"px":2992,"^-":2993,"tra":2994,"Ġ:=":2995,"icture":2996,"ĠMed":2997,"that":2998,"Ġalgebra":2999,"Ġclaim":3000,"Pi":3001,"ĠWhen":3002,"Ġrole":3003,"Ġlearn":3004,"ump":3005,"Vert":3006,"Ġtransform":3007,"rule":3008,"Ġfore":3009,"Ġtaken":3010,"Ġstatic":3011,"ending":3012,"actions":3013,"Ġcomponent":3014,"){":3015,"Ġep":3016,"Ġdep":3017,"Ġweek":3018,"ĠCor":3019,"cing":3020,"Ġimprove":3021,"Ġfilm":3022,"ney":3023,"Ġpo":3024,"][":3025,"ĠFran":3026,"Ġinstance":3027,"Ġweak":3028,"67":3029,"Ġgroups":3030,"Ġprim":3031,"approx":3032,"Ġred":3033,"amil":3034,"Ġwave":3035,"aches":3036,"Ġoffic":3037,"));":3038,"Ġbegin":3039,"Ġfund":3040,"oted":3041,"Ġfail":3042,"Ġcontains":3043,"lex":3044,"Ġfig":3045,"Ġant":3046,"Ġbelie":3047,"Ġcome":3048,"Value":3049,"uck":3050,"ĠMin":3051,"Ġ_{":3052,")+":3053,"ĠWorld":3054,"like":3055,"********":3056,"Ġbackground":3057,"dom":3058,"Cont":3059,"uk":3060,"Ġprovided":3061,"Ġvalid":3062,"Ġreally":3063,"&&":3064,"Ġnever":3065,"ymm":3066,"Ġstars":3067,"oad":3068,"Ġhaving":3069,"And":3070,"Ġprec":3071,"Ġcateg":3072,"Ġestimate":3073,"Ġmagnetic":3074,"Ġmaterial":3075,"Ġwater":3076,"ĠTherefore":3077,"linear":3078,"ires":3079,"test":3080,"2023":3081,"Since":3082,"Ġcomponents":3083,"Ġrepresentation":3084,"ĠComm":3085,"Ġrelation":3086,"Ġpress":3087,"Ġnum":3088,"nbsp":3089,"Ġcoordin":3090,"Ġdegree":3091,"IM":3092,"command":3093,"Ġclear":3094,"state":3095,"atively":3096,"Ġkeep":3097,"Ġmatch":3098,"Ġneut":3099,"Ġrecord":3100,"isk":3101,"References":3102,"Ġhuman":3103,"pping":3104,"rc":3105,"Ġequal":3106,"{}":3107,"rest":3108,"Ġsqu":3109,"underline":3110,"Ġnatural":3111,"ogn":3112,"Ġland":3113,"Ġexplain":3114,"Ġret":3115,"Ġgr":3116,"ĠAug":3117,"Ġcut":3118,"ensor":3119,"come":3120,"ĠEn":3121,"ken":3122,"index":3123,"Ġthird":3124,"Ġdone":3125,"Ġpresented":3126,"ports":3127,"CC":3128,"AB":3129,"path":3130,"used":3131,"ĠGu":3132,"Ġwar":3133,"but":3134,"Ind":3135,"ĠJanuary":3136,"Ġservice":3137,"acc":3138,"Ġbasis":3139,"Ġmarket":3140,"my":3141,"Ġevalu":3142,"eff":3143,"Ġtheorem":3144,"file":3145,"Ġdimension":3146,"display":3147,"ET":3148,"Then":3149,"Pl":3150,"Ġtreat":3151,"Ġspectrum":3152,"cast":3153,"Ġmatter":3154,"na":3155,"location":3156,"Ġcam":3157,"Ġwidth":3158,"Ġbase":3159,"ogle":3160,"Ġflu":3161,"rated":3162,"izes":3163,"kn":3164,"Ph":3165,"Ġcomplete":3166,"fe":3167,"lin":3168,"Ġmaking":3169,"ĠTable":3170,"comp":3171,"inst":3172,"*{":3173,"Ġvariables":3174,"oud":3175,"Ġport":3176,"Ġauthor":3177,"ĠAss":3178,"Ġmembers":3179,"Ġgas":3180,"ĠEuro":3181,"Ġpay":3182,"Su":3183,"ledge":3184,"Ġmusic":3185,"PS":3186,"ones":3187,"model":3188,"ĠThat":3189,"}^{-":3190,"ĠSch":3191,"Ġwhose":3192,"ĠOct":3193,"ying":3194,"Ġevolution":3195,"ales":3196,"Ġ\\;":3197,"Le":3198,"2007":3199,"];":3200,"hib":3201,"rast":3202,"Ġrot":3203,"thing":3204,"ait":3205,"norm":3206,"aced":3207,"App":3208,"Ġconc":3209,"aves":3210,"Ġattack":3211,"Ġworks":3212,"Ġunique":3213,"\");":3214,"From":3215,"Ġincrease":3216,"ried":3217,"Wh":3218,"Ġnam":3219,"nection":3220,"arc":3221,"}}_{":3222,"lor":3223,"ortun":3224,"clusion":3225,"Ġtitle":3226,"texttt":3227,"list":3228,"ĠCal":3229,"normal":3230,"Ġground":3231,"ĠStates":3232,"Ġfoot":3233,"eneral":3234,"Ġcolor":3235,"Ġ$\\{":3236,"There":3237,"Ġmakes":3238,"Ġdays":3239,"AD":3240,"ĠYork":3241,"ucle":3242,"Theta":3243,"Ġsoft":3244,"link":3245,"bound":3246,"Ġchanges":3247,"Ġenvironment":3248,"Ġvelocity":3249,"http":3250,"Ġchall":3251,"book":3252,"uff":3253,"85":3254,"aries":3255,"Ġ/**":3256,"itude":3257,"Ġcommunity":3258,"Ġrather":3259,"CD":3260,"Ġeigen":3261,"Ġmaximum":3262,"Ġvir":3263,"Ad":3264,"ada":3265,"Ġwrite":3266,"Ġir":3267,"),\\":3268,"IR":3269,"Ġneighb":3270,"Ġcompos":3271,"deed":3272,"ster":3273,"Ġcreate":3274,"<\\":3275,"Ġperm":3276,"Ġdirection":3277,"prod":3278,"Ġsignal":3279,"Ġbreak":3280,"Ġplayers":3281,"Ġlittle":3282,"di":3283,"Ġsocial":3284,"Ġpolit":3285,"Ġfive":3286,"minus":3287,"Ġsearch":3288,"ung":3289,"istics":3290,"OS":3291,"textrm":3292,"Ġprovides":3293,"Ġalmost":3294,"rror":3295,"ynomial":3296,"auge":3297,"bigg":3298,"subseteq":3299,"pers":3300,"Ġhalf":3301,"Ġdevelopment":3302,"Ġcontinuous":3303,"Ġbuilding":3304,"Ġdemon":3305,"ĠState":3306,"Ġarch":3307,"Ġimpact":3308,"ket":3309,"Ġgre":3310,"icult":3311,"ounter":3312,"Ġresponse":3313,"fact":3314,")|":3315,"Ġ$|":3316,"ĠÐ":3317,"iol":3318,"ĠNote":3319,"ĠAust":3320,"Ġdetails":3321,"Ġaway":3322,"ĠArt":3323,"2006":3324,"alle":3325,"Ġrefer":3326,"aly":3327,"tage":3328,"vergence":3329,"At":3330,"ĠApr":3331,"bre":3332,"Ġfile":3333,"ething":3334,"Ġaddress":3335,"}'":3336,"rices":3337,"Ġratio":3338,"Ġcolumn":3339,"}/":3340,"Ġquestion":3341,"Ġprior":3342,"oman":3343,"ili":3344,"Ġapplied":3345,"ulated":3346,"Ġdecre":3347,"ocal":3348,"Ġrequest":3349,"Ġgovernment":3350,"cret":3351,"footnote":3352,"ĠSchool":3353,"Ġdetect":3354,"ceed":3355,"ging":3356,"98":3357,"Ġwritten":3358,"All":3359,"ptions":3360,"rain":3361,"Ġagre":3362,"97":3363,"ION":3364,"long":3365,"46":3366,"ĠÂ":3367,"Ġpast":3368,"Ġchoice":3369,"ĠReg":3370,"Ġclosed":3371,"Ġgeom":3372,"alt":3373,"^{-\\":3374,"icit":3375,"Ġscen":3376,"Ġinstead":3377,"ully":3378,"Ġphysical":3379,"Ġthough":3380,"png":3381,"Ġproduction":3382,"Ġver":3383,"Ġpopulation":3384,"Ġgen":3385,"New":3386,"Ġamount":3387,",\"":3388,"curity":3389,"do":3390,"ilit":3391,"ĠMarch":3392,"ips":3393,"Ġupper":3394,"Ġask":3395,"cript":3396,"HE":3397,"ĠNe":3398,"}},":3399,"Ġhor":3400,"Ġpubl":3401,"Ġdirectly":3402,"Ġtaking":3403,"can":3404,"Ġproblems":3405,"aff":3406,"ĠOb":3407,"body":3408,"42":3409,"Ġbehavior":3410,"Ġcompet":3411,"Ġstory":3412,"ĠPart":3413,"Object":3414,"Ġhol":3415,"ession":3416,"ln":3417,"la":3418,"setminus":3419,"ĠĠĠĊ":3420,"Ġcity":3421,"Ġfrequency":3422,"url":3423,"ĠQu":3424,"OT":3425,"eral":3426,"{$":3427,"Ġtw":3428,"oplus":3429,"ners":3430,"Exception":3431,"Qu":3432,"Ġallows":3433,"semb":3434,"Ġhistory":3435,"dist":3436,"linewidth":3437,"eline":3438,"Ġpack":3439,"Ġreported":3440,"Ġcentral":3441,"\\'":3442,"Ġsmaller":3443,"Get":3444,"elling":3445,"anced":3446,"iction":3447,"length":3448,"taint":3449,"ĠEurope":3450,"ĠSouth":3451,"Ġ($\\":3452,"itect":3453,"ony":3454,"Ġdataset":3455,"_+":3456,"Ġsite":3457,"ishing":3458,"dagger":3459,"ĠSim":3460,"ervice":3461,"nder":3462,"Ġsent":3463,"Ġnoise":3464,"ana":3465,"Ġage":3466,"raft":3467,"MS":3468,"sup":3469,"flo":3470,"Ġmillion":3471,"ĠInt":3472,"ights":3473,"ĠGa":3474,"========":3475,"Ġiter":3476,"uracy":3477,"ĠCity":3478,"ĠAg":3479,"US":3480,"Ġinequ":3481,"ĠMod":3482,"era":3483,"Ġ(-":3484,"Ġincreasing":3485,"PE":3486,"ĠOur":3487,"ille":3488,"\\}":3489,"ĠChrist":3490,"Ġcourse":3491,"Ġbecomes":3492,"Ġcorrect":3493,"Ġwords":3494,"Ġtask":3495,"Ġflux":3496,"Ġequivalent":3497,"Note":3498,"Ġcritical":3499,"perty":3500,"Ġrelative":3501,"ĠCounty":3502,"Ġindust":3503,"ĠChe":3504,"Ġelectron":3505,"LO":3506,"Ġsmooth":3507,"Ġchildren":3508,"Ġonce":3509,"57":3510,"Ġcountry":3511,"Ġstudies":3512,"Ġdifficult":3513,"Class":3514,"ptember":3515,"otic":3516,"2000":3517,"Ġ///":3518,"Ġembed":3519,"atform":3520,"Ġprop":3521,"Ġworking":3522,"Ġgot":3523,"spec":3524,"Test":3525,"Ġproced":3526,"Ġ$[":3527,"ĠAfter":3528,"Ġnews":3529,"State":3530,"Ġcustom":3531,"ensions":3532,"Ġcomplet":3533,"subfigure":3534,"tical":3535,"amilton":3536,"irect":3537,"cember":3538,"Ġtable":3539,"lege":3540,"usion":3541,"Ġrob":3542,"ota":3543,"wedge":3544,"uments":3545,"duc":3546,"Ġactiv":3547,"Ġexperience":3548,"Ġwomen":3549,"Ġderiv":3550,"ĠMark":3551,"Ġair":3552,"imate":3553,"Ġintegral":3554,"ĠFrom":3555,"Ġgrad":3556,"known":3557,"\")":3558,"oms":3559,"ret":3560,"Ġobjects":3561,"FT":3562,"ĉĉĉĉĉ":3563,"Ġentire":3564,"Ġpolynomial":3565,"_*":3566,"ĠString":3567,"Ġmeet":3568,"96":3569,"ĠWar":3570,"43":3571,"Ġformer":3572,"_{(":3573,"Ġuncer":3574,"Ġadj":3575,"Ġdeath":3576,"Ġbody":3577,"AA":3578,"attice":3579,"88":3580,"Ġleading":3581,"ĠPr":3582,"Ġdemonstr":3583,"Ġoperators":3584,"Ġdetermined":3585,"ening":3586,"unc":3587,"ham":3588,"rows":3589,"Ġnucle":3590,"Ġobservations":3591,"gress":3592,"PT":3593,"jection":3594,"ponent":3595,"andid":3596,"mar":3597,"urg":3598,"Ġinteraction":3599,"Ġthings":3600,"ography":3601,"ĠMc":3602,"Ġlinks":3603,"ovember":3604,"Ġtakes":3605,"EE":3606,"What":3607,"$_":3608,"rown":3609,"ele":3610,"using":3611,"Ġnumbers":3612,"ĠSci":3613,"Ġtypes":3614,"sel":3615,"Ġsix":3616,"Ġsomething":3617,"IG":3618,"Ġexec":3619,"View":3620,"Ġfri":3621,"Ġdraw":3622,"js":3623,"ĠWill":3624,"oney":3625,"Ġsufficient":3626,"\";":3627,"xy":3628,"En":3629,"ĠFeb":3630,"Ġdiagram":3631,"det":3632,"level":3633,"Ġtool":3634,"ĠRep":3635,"abs":3636,"turb":3637,"ming":3638,"ike":3639,"ashed":3640,"Ġwhy":3641,"Ġincluded":3642,"ha":3643,"Ġsources":3644,"Ġtrack":3645,"Ġsymmetry":3646,"Ġapply":3647,"Ġconstruction":3648,"Ġyoung":3649,"Ġcompact":3650,"Ġ$-":3651,"Ġothers":3652,"Be":3653,"UT":3654,"aint":3655,"ĠHere":3656,"Ġang":3657,"vant":3658,"ansion":3659,"check":3660,"mag":3661,"ĠJune":3662,"Or":3663,"ĠIntern":3664,"ĠLa":3665,"Ġlot":3666,"Ġoccur":3667,"Ð¾":3668,"ĠApril":3669,"2005":3670,"Is":3671,"ager":3672,"Ġpattern":3673,"Ġhence":3674,"aligned":3675,"vis":3676,"Ġhost":3677,"Ġcurve":3678,"Ġfeel":3679,"lease":3680,"Ġexpression":3681,"Ġdiv":3682,"Ġconnected":3683,"osen":3684,"But":3685,"Ġinfin":3686,"Ġsamples":3687,"58":3688,"Ġformula":3689,"AG":3690,"Ġbounded":3691,"});":3692,"Ġsense":3693,"atory":3694,"Ġjo":3695,"Ġ\\(":3696,"Ġlikely":3697,"Ġsubject":3698,"ĠĠĠĠĠĠĠĠĠĠ":3699,"Ġstudents":3700,"Ġuniform":3701,"atives":3702,"Ġlat":3703,"Ġregions":3704,"igned":3705,"Ġstyle":3706,"Ġvideo":3707,"Ġonline":3708,"ĠAf":3709,"Ġgauge":3710,"ĠNorth":3711,"pan":3712,"Ġ!=":3713,"When":3714,"UR":3715,"Ġperformed":3716,")\\,":3717,"ands":3718,"Bl":3719,"Ġgames":3720,"Ġservices":3721,"ication":3722,"ML":3723,"ĠBo":3724,"Ġrank":3725,"Ġvertex":3726,"arily":3727,"gra":3728,"ĠPar":3729,"ague":3730,"rate":3731,"aring":3732,"change":3733,"ises":3734,"One":3735,"public":3736,"ided":3737,"Ġax":3738,"Ġgrav":3739,"Ġhyper":3740,"56":3741,"encies":3742,"FF":3743,"ĠFirst":3744,"41":3745,"Ġlayer":3746,"Ġvariable":3747,"Ġdiscussed":3748,"ites":3749,"Ġess":3750,"colon":3751,"ids":3752,"hers":3753,"allel":3754,"().":3755,"bum":3756,"Ġapproximation":3757,"_{-":3758,"ollary":3759,"ĠĠĠĠĠĠĠĠĠĠĠĠ":3760,"Ġcenter":3761,"ĠMon":3762,"``":3763,"Ġexperiments":3764,"={":3765,"._":3766,"Ġmiss":3767,"nav":3768,"Ġlanguage":3769,"ured":3770,"Ġparticles":3771,"iddle":3772,"Ġbar":3773,"Ð°":3774,"Ġparticle":3775,"Not":3776,"ellar":3777,"Ġintroduced":3778,"2004":3779,"ĠProposition":3780,"ills":3781,"ĠAugust":3782,"Ġemission":3783,"ĠEd":3784,"\"></":3785,"black":3786,"ein":3787,"Ġdynamics":3788,"_{{\\":3789,"ĠAb":3790,"Ġperturb":3791,"Ġexplicit":3792,"77":3793,"ĠJuly":3794,"ĠOctober":3795,"ae":3796,"Ġmult":3797,"Ġchannel":3798,"}}(\\":3799,"inos":3800,"pack":3801,"aging":3802,"Ġapplication":3803,"ĠSeptember":3804,"Ġframework":3805,"Ġcult":3806,"overed":3807,"ĠTra":3808,"ario":3809,"Ġmention":3810,"definition":3811,"Ġdomin":3812,"\".":3813,"Ġsubset":3814,"Ġ|\\":3815,"mail":3816,"Error":3817,"ĠCont":3818,"main":3819,"ĠDep":3820,"\\!\\!":3821,"bul":3822,"=(":3823,"ender":3824,"Ġoptimal":3825,"Ġgalaxies":3826,"ournal":3827,"emic":3828,"Ġneeded":3829,"run":3830,"vey":3831,"ĠDecember":3832,".)":3833,"Ġdeep":3834,"Ðµ":3835,"Ġpeak":3836,"icles":3837,")}(":3838,"ĠHar":3839,"eries":3840,"Ġillust":3841,"Ġpolicy":3842,"limits":3843,"ops":3844,"....":3845,".</":3846,"ĠDis":3847,"Ġtook":3848,"500":3849,"Ġneeds":3850,"Now":3851,"Ġyet":3852,"Ġvan":3853,"Ġregard":3854,"Ġnegative":3855,"Ġtherm":3856,"Ġmedia":3857,"rivial":3858,"rier":3859,"error":3860,"ores":3861,"Ġbring":3862,"hand":3863,"Ġbir":3864,"Ġshall":3865,"avy":3866,"ĠNovember":3867,"ditional":3868,"Ġbroad":3869,"Time":3870,"Net":3871,"'_":3872,"dapt":3873,"Ġcoupling":3874,"Ġbran":3875,"Ġmode":3876,"Ġeconom":3877,"());":3878,"Ġarray":3879,")/":3880,"Ġcomes":3881,"Ġmer":3882,"ĠEl":3883,"ĠBar":3884,"Ġplot":3885,"ĠPer":3886,"pc":3887,"Ġusers":3888,"ĠSystem":3889,"king":3890,"crete":3891,"Our":3892,"Ġsimply":3893,"Ġadded":3894,"Ġinflu":3895,"Ġinterval":3896,"Ġeduc":3897,"Ġmen":3898,"Ġparticip":3899,"oding":3900,"Ġconduct":3901,"ĠPa":3902,"Here":3903,"ĠNot":3904,"Ġnodes":3905,"Ġpref":3906,"Ġinc":3907,"input":3908,"Ġuncertaint":3909,"Ġwhole":3910,"Ġaccuracy":3911,"Ġparent":3912,"paramet":3913,"rice":3914,"atus":3915,"Ġspat":3916,"Ġchain":3917,"Im":3918,"ropy":3919,"ĠDo":3920,"Ġsong":3921,"empty":3922,"Ġquality":3923,"){\\":3924,"ords":3925,"'\\":3926,"Tr":3927,")_{":3928,"nov":3929,"SP":3930,"Ġjob":3931,"Ġmaps":3932,"bt":3933,"Ġresulting":3934,"SC":3935,"endix":3936,"deg":3937,"ympt":3938,"Ġarbit":3939,"iation":3940,"ĠGo":3941,"Man":3942,"ensive":3943,"inv":3944,"fect":3945,"Ġdri":3946,"ĠWhat":3947,"multi":3948,"Ġsatisfies":3949,"Ġbit":3950,"Ġthought":3951,"ruary":3952,"Ġscheme":3953,"Ġnumerical":3954,"etic":3955,"Ġhouse":3956,"Ġmechanism":3957,"textsc":3958,"Ġliter":3959,"Ġstreng":3960,")^{\\":3961,"Ġcomparison":3962,"fficients":3963,"Ġmomentum":3964,"Ġmeasured":3965,"irl":3966,"Ġmagn":3967,"ĠPres":3968,"Ġspeed":3969,"serve":3970,"Ġbenef":3971,"pecially":3972,",\\,":3973,"Ġ}\\":3974,"ĠII":3975,"Ġinteresting":3976,"Ġnecessary":3977,"TR":3978,"quot":3979,"Ġmix":3980,"range":3981,"lish":3982,"Ġmar":3983,"Ġclassical":3984,"avor":3985,"Ġface":3986,"Requ":3987,"Ġdig":3988,"BC":3989,"urch":3990,"lier":3991,"Key":3992,"Ġeasy":3993,"MA":3994,"Ġtree":3995,"Ġcapt":3996,"flow":3997,"user":3998,"ĠTrans":3999,"Ġcompan":4000,"Ġknowledge":4001,"Ġuses":4002,"berg":4003,"Equ":4004,"Ġspectral":4005,"acity":4006,"Ġrespons":4007,"Ġensure":4008,"Ġop":4009,"Ġamplit":4010,"local":4011,"ribute":4012,"Ġleads":4013,"asks":4014,"{$\\":4015,"Ġtransfer":4016,"Ġlove":4017,"Ġradius":4018,"Ġdecay":4019,"Ġseg":4020,"Ġchoose":4021,"subsubsection":4022,"Ġhyp":4023,"Ġdeveloped":4024,"Ġsimulations":4025,"Ġinterpre":4026,"Ġcandid":4027,"69":4028,"icon":4029,"Ġgoal":4030,"ĠBrit":4031,"Ġdocument":4032,"Ġhold":4033,"stack":4034,"came":4035,"Ġassert":4036,"bert":4037,"Ġmotion":4038,"Over":4039,"Ġcontribution":4040,"word":4041,"!--":4042,"Ġdeal":4043,"Ġcharge":4044,"Sim":4045,"Ġpolar":4046,"Ġ+\\":4047,"ĠHence":4048,"Ġminimum":4049,"Ġincludes":4050,"que":4051,"Ġlevels":4052,"ĠGl":4053,"erc":4054,"apping":4055,"MC":4056,"Ġmanif":4057,"ament":4058,"Ġactually":4059,"year":4060,"Ġpers":4061,"Ġminim":4062,"forall":4063,"Ġitself":4064,"ĠTr":4065,"Ġrecogn":4066,"Ġcos":4067,":\\":4068,"oring":4069,"More":4070,"ilarly":4071,"Ġgrowth":4072,"Ġclasses":4073,"Ġcluster":4074,"ĠNews":4075,"Ġautom":4076,"ĠGerm":4077,"hel":4078,"zz":4079,"PC":4080,"Ġnetworks":4081,"ĠVal":4082,"rs":4083,"Âł":4084,"summary":4085,"$(":4086,"59":4087,"ĠMy":4088,"vision":4089,"}$-":4090,"~$\\":4091,"ĠHamilton":4092,"Ġfall":4093,"Ġviol":4094,"=-":4095,"Ġcreated":4096,"Ġremov":4097,"ING":4098,"You":4099,"iny":4100,"Ġdark":4101,"Ġbecame":4102,"Ġreference":4103,"SO":4104,")^{-":4105,"ky":4106,"ocol":4107,"Ġbox":4108,"ĠAustral":4109,"Figure":4110,"volution":4111,"Ġkin":4112,"Ġsound":4113,"Ġvertices":4114,"Ġparts":4115,"leg":4116,"Ġaltern":4117,"Ġreceived":4118,"52":4119,"ĠDi":4120,"Ġsimpl":4121,"2003":4122,"olic":4123,"sto":4124,"cho":4125,"Ġconsistent":4126,"ĠRef":4127,"tual":4128,"Eq":4129,"Ġ?":4130,"ags":4131,"iter":4132,"Ġflo":4133,"Ġpanel":4134,"ĠPe":4135,"Ġcompute":4136,"Ġderived":4137,"Ġcame":4138,"^{+":4139,"Ġpresence":4140,"aged":4141,"Ġaccept":4142,"Ġrepl":4143,"ĠWest":4144,"ayer":4145,"Ġreduced":4146,"Ġrisk":4147,"Ġtoday":4148,"Ġcorrespond":4149,"Ġsure":4150,"Ġcharg":4151,"78":4152,"desc":4153,"Ġnorm":4154,"van":4155,"dim":4156,"}^*":4157,"Ġidea":4158,"ns":4159,"ccording":4160,"Ġreach":4161,"height":4162,"dro":4163,"Text":4164,"Ġdim":4165,"band":4166,"ĠStud":4167,"Form":4168,"Ġpercent":4169,"oul":4170,"Ġprocesses":4171,"54":4172,"':":4173,"illed":4174,"Ġarm":4175,"Ġexpress":4176,"ued":4177,"ĠAct":4178,"Ġpage":4179,"urthermore":4180,"Ġcorresponds":4181,"Ġdest":4182,"Ġimp":4183,"Table":4184,"war":4185,"umb":4186,"Ġfactors":4187,"Ġeasily":4188,"bsite":4189,"VID":4190,"51":4191,"Ġinequality":4192,"Ġforce":4193,"Ġaud":4194,"ĠMoreover":4195,"Ġdetection":4196,"rang":4197,"Ġapplications":4198,"');":4199,"column":4200,"Ġkind":4201,"Ġstudied":4202,"Ġexpansion":4203,"irm":4204,"cases":4205,"Ġcontact":4206,"ĠPark":4207,"true":4208,"Ġlattice":4209,"isation":4210,"Ġassumption":4211,"Ġnov":4212,"However":4213,"undle":4214,"Ġarchitect":4215,"No":4216,"ously":4217,"ĠNow":4218,"CH":4219,"Ġdescribe":4220,"Ġresid":4221,"../../../../":4222,"Ġespecially":4223,"Ġcoefficients":4224,"fil":4225,"ements":4226,"newcommand":4227,"Ġfraction":4228,"ifying":4229,"Ġconstraints":4230,"edu":4231,"Ġmeasurements":4232,"Ġreve":4233,"Ġcalculated":4234,"perp":4235,"Ġforward":4236,"So":4237,"osed":4238,"SU":4239,"ĠFebruary":4240,"ened":4241,"ĠSan":4242,"sol":4243,"ernel":4244,"Ġexperiment":4245,"](":4246,"Ġremains":4247,"uil":4248,"}%":4249,"Ġrestrict":4250,"Ġchosen":4251,"bin":4252,"block":4253,"resents":4254,"Ġrequires":4255,"Ġvolume":4256,"Ge":4257,"ĠDav":4258,"ama":4259,"Ġconsequ":4260,"Ġstarted":4261,"PR":4262,"Fe":4263,".~(\\":4264,"hol":4265,"DF":4266,"Ð¸":4267,"ĠSm":4268,"pmatrix":4269,"inci":4270,"63":4271,"Ġproducts":4272,"remark":4273,"Ġdouble":4274,"Ġdetermine":4275,"Ġadapt":4276,"Ġexperimental":4277,"simeq":4278,"hom":4279,"Ġbeg":4280,"\\\"":4281,"oe":4282,"Ġedges":4283,"iques":4284,"Ġsupported":4285,"ifier":4286,"ppose":4287,"ĠAm":4288,"=\"+":4289,"zero":4290,"Ġansw":4291,"Ġselected":4292,"Ġselect":4293,"Ġfigure":4294,"\\|_{":4295,"Ġscre":4296,"uthors":4297,"Ġsimulation":4298,"Ġcorrelation":4299,"53":4300,"eli":4301,"iency":4302,"Ġfront":4303,"Dis":4304,"Ġvers":4305,"Ġstation":4306,"iting":4307,"Ġlocated":4308,"Ġissue":4309,"dered":4310,"Ġexamples":4311,"Ġplane":4312,"Ġinside":4313,"$).":4314,"Ġimmedi":4315,"TE":4316,"eler":4317,"Ġuseful":4318,"reed":4319,"Ġmach":4320,"Ġprocedure":4321,"Ġquite":4322,"Ġavoid":4323,"Ġdisplay":4324,"Ġscalar":4325,"Ġfully":4326,"ĠAfric":4327,"']":4328,"Ġ~":4329,"Ġproduced":4330,"Ġgain":4331,"onsider":4332,"Ġstage":4333,"Ġlive":4334,"$$\\":4335,"Ġaim":4336,"atal":4337,"}}^":4338,"Ġalbum":4339,"Ġstrategy":4340,"sy":4341,"ĠWhile":4342,"Ġrates":4343,"['":4344,"(),":4345,")\\\\":4346,"Ġword":4347,"Ġconcept":4348,"MP":4349,"neg":4350,"Ġissues":4351,")}{\\":4352,"Ġdecom":4353,"apan":4354,"ura":4355,"Ġdistributions":4356,"Ġbuilt":4357,"Ġbuild":4358,"Ġmember":4359,"Ġrelevant":4360,"Ġexactly":4361,"minist":4362,"Ġdefault":4363,"Ġproper":4364,"Def":4365,"izations":4366,"ching":4367,"Ġsignificantly":4368,"ĠHis":4369,"Ġslow":4370,"Ġargument":4371,"roduction":4372,"ounc":4373,"hy":4374,"inct":4375,"Ġessential":4376,"Ġsplit":4377,"Ġreleased":4378,"Ġlocation":4379,"File":4380,"2002":4381,"Ġshape":4382,"|_{":4383,"Ġsteps":4384,"object":4385,"Ġstra":4386,"ube":4387,"Ġones":4388,"Ġever":4389,"Ġpatients":4390,"Ġsuff":4391,"olean":4392,"Ġshift":4393,"Ġdepends":4394,"Ġtensor":4395,"cons":4396,"Trans":4397,"bullet":4398,"Ġscatter":4399,"Ġhttps":4400,"Ġsw":4401,"Ġarticle":4402,"Ġdual":4403,"Ġstructures":4404,"Ġsuccessful":4405,"free":4406,"62":4407,"Of":4408,"Ġconsum":4409,"Ġoptions":4410,"Ġsampl":4411,"CE":4412,"ogene":4413,"pri":4414,"nes":4415,"Ġlonger":4416,"ibrary":4417,"Ġtowards":4418,"Ġdenotes":4419,"Ġheight":4420,"Ġplatform":4421,"Ġattempt":4422,"mage":4423,"Ġorigin":4424,"ellow":4425,"ĠDist":4426,"Ġrecently":4427,"tik":4428,"vex":4429,"mission":4430,"Ġareas":4431,"}}^{":4432,"defined":4433,"Ġnight":4434,"87":4435,"Ġchalleng":4436,"Ġ&=&":4437,"Ġactive":4438,"Ġsolid":4439,"Ġeffort":4440,"ilib":4441,"ios":4442,"Ġtreatment":4443,"Ġtechnology":4444,"Ġ/>":4445,"\":":4446,"Ġspaces":4447,"Event":4448,"Ġrepresents":4449,"values":4450,"Ġalgorithms":4451,"Ġoutside":4452,"Ġcore":4453,"pport":4454,"config":4455,"})$.":4456,"Ġattention":4457,"Ġcurves":4458,"Ġengine":4459,"rame":4460,"NS":4461,"Ġframe":4462,"ounced":4463,"Ġresolution":4464,"tem":4465,"Ġemer":4466,"++":4467,"First":4468,"Ġpie":4469,"Ġdescription":4470,"Ġstream":4471,"case":4472,"Ġwhite":4473,"$^{-":4474,"ondon":4475,"((":4476,"Ġincreases":4477,"IL":4478,"Ġinvariant":4479,"Path":4480,"isions":4481,"ridge":4482,"plate":4483,"Ġdriv":4484,"Ġball":4485,"2001":4486,"ĠHigh":4487,"Ġ=\\":4488,"oto":4489,"Ġextract":4490,"Ġpublished":4491,"Ġconnect":4492,"How":4493,"lt":4494,"Ġadopt":4495,"Ġord":4496,"ĠBro":4497,"acing":4498,"Ġpressure":4499,"Ġintroduce":4500,"Ġmonths":4501,"ker":4502,"Ġapproaches":4503,"Ġplayed":4504,"picture":4505,"ancial":4506,"mes":4507,"Ġquas":4508,"Ġcr":4509,"ĠKing":4510,"Sub":4511,"Ġshare":4512,"rant":4513,"Ġheld":4514,"Ġblue":4515,"pite":4516,"Ġcontroll":4517,"Ġmicro":4518,"ĠResearch":4519,"Ġextended":4520,"ĠHow":4521,"iber":4522,"Ġcollection":4523,"Ġcontrast":4524,"abilities":4525,"Theorem":4526,"Ġdidn":4527,"Ġstatement":4528,"Ġfood":4529,"ĠHouse":4530,"TD":4531,"Ġslight":4532,".$":4533,"Ġcontinue":4534,"ĠHealth":4535,"tikz":4536,"Ġcomputed":4537,"Ġfootball":4538,"Ġnature":4539,"Ġlimited":4540,"dx":4541,"tri":4542,"Ġlatter":4543,"itz":4544,"89":4545,"Ġidentity":4546,"Ġrule":4547,"Ġste":4548,"tes":4549,"Ġupon":4550,"valid":4551,"Ġdecision":4552,"Ġrelease":4553,"Ġmarg":4554,"uses":4555,"izer":4556,"à¤":4557,")$-":4558,"alg":4559,"Ġmessage":4560,"See":4561,"ached":4562,"Ġoverall":4563,"Ġusually":4564,"Ġdr":4565,"Ġoperation":4566,"ociety":4567,"selves":4568,"61":4569,"Ġevidence":4570,"ares":4571,"Ġintern":4572,"Ġopportun":4573,"{{":4574,"ĠCenter":4575,"ĠChar":4576,"&$":4577,"Ġnational":4578,"ĠDes":4579,"Ġsymbol":4580,"Ġangle":4581,"uel":4582,"Ġrow":4583,"Ġestimated":4584,"Ġcontract":4585,"Ġdependence":4586,"Ġindustry":4587,"mapsto":4588,"ĠSet":4589,"Ġconfiguration":4590,"Ġwindow":4591,"Ġpopular":4592,"Ġtell":4593,"Thus":4594,"Request":4595,"Ġspatial":4596,"matrix":4597,"LS":4598,"Ġformation":4599,"prot":4600,")_":4601,"0000":4602,"uations":4603,"itable":4604,"Add":4605,"Sp":4606,"Ġcommit":4607,"ouncil":4608,"Ġfeed":4609,"anks":4610,"Ġmemory":4611,"ratic":4612,"rief":4613,"Ġselection":4614,"Ġrunning":4615,"Ġseem":4616,"next":4617,"Ġsingular":4618,"istory":4619,"Ġsymmetric":4620,"Ġspectra":4621,"hesis":4622,"graph":4623,"External":4624,"ĠĠĠĠĠĠĠĠĠĠĠĠĠĠĠĠĠĠĠĠĠĠĠĠĠĠĠ":4625,"example":4626,"print":4627,"Ġestimates":4628,"reshold":4629,"mc":4630,"Ġ-->":4631,"Ġmis":4632,"inf":4633,"Ġconnection":4634,"OD":4635,"Ġspecies":4636,"Node":4637,"Ġload":4638,"Ġstarting":4639,"Ġmodes":4640,"prob":4641,"\\_":4642,"ĠGaussian":4643,"Ġdoesn":4644,"MM":4645,"Ġprote":4646,"Ġsus":4647,"Ġestablished":4648,"ilibri":4649,"Ġseems":4650,"vol":4651,"93":4652,"Ġfast":4653,"ford":4654,"oon":4655,"Ġ);":4656,"artment":4657,"arp":4658,"Ġquick":4659,"ND":4660,"Ġconcern":4661,"Ġtalk":4662,"Ġappropri":4663,"hest":4664,"spect":4665,"rees":4666,"Ġmatrices":4667,"displaystyle":4668,"Ġcry":4669,"bon":4670,"ba":4671,"Ġlooking":4672,"IP":4673,"ĠHer":4674,"Ġasympt":4675,"ride":4676,"odot":4677,"Ġlate":4678,"Ġ...":4679,"ĠEnglish":4680,"ief":4681,"base":4682,"ĠIm":4683,"stitute":4684,"rew":4685,"Ġbehind":4686,"ara":4687,"hift":4688,"Ġpick":4689,"[]":4690,"ĠInternational":4691,"Ġ},":4692,"Me":4693,"Ġplayer":4694,"Ġthing":4695,"Ġcategory":4696,"NR":4697,"94":4698,"eturn":4699,"Ġtax":4700,"itions":4701,"Ġexhib":4702,"ÑĤ":4703,"omorphic":4704,"Ġhoriz":4705,"uls":4706,"result":4707,"Ġachieve":4708,"Ġwent":4709,"Ġinteractions":4710,"Index":4711,"'(":4712,"ĠAmerica":4713,"Ġerrors":4714,"After":4715,"Ġyields":4716,"Ġdate":4717,"cr":4718,"apter":4719,"Ġexam":4720,"_-":4721,"Ġstri":4722,"Ġallowed":4723,"Ġtransport":4724,"idden":4725,"Ġsecurity":4726,"IF":4727,"ingu":4728,"Ġarbitrary":4729,"Ġpropag":4730,"ĠComp":4731,"bold":4732,"Out":4733,"iet":4734,"Ġbelong":4735,"Ġinternal":4736,"$;":4737,"Ġtheore":4738,"ĠIndia":4739,"Ġ$$":4740,"cles":4741,"fit":4742,"Ġey":4743,"Ġexcept":4744,"Ġenh":4745,"Ġalign":4746,"ese":4747,"Ġpersonal":4748,"Ġcompanies":4749,"proposition":4750,"efore":4751,"Ġtown":4752,"Reg":4753,"Ġofficial":4754,"Ġprofile":4755,"overy":4756,"md":4757,"agraph":4758,"method":4759,"Ġdisk":4760,"Ġimm":4761,"Co":4762,"Ġefficient":4763,"Ġcompare":4764,"Ġconvergence":4765,"\\{\\":4766,"comple":4767,")},":4768,"Ġexisting":4769,"ĠMich":4770,"title":4771,"ees":4772,"CS":4773,"Ġmonth":4774,"Ġstable":4775,"Ġlaun":4776,"Ġexistence":4777,"'}":4778,"Ġmole":4779,"gu":4780,"current":4781,"amespace":4782,"Ġfix":4783,"Ġextension":4784,"oder":4785,"Ġcircle":4786,"Ġstellar":4787,"istry":4788,"Ġpairs":4789,"ĠPresident":4790,"Ġclassification":4791,"Ġsituation":4792,"Ġembedding":4793,"Ġremain":4794,"ĠGet":4795,"Ġhot":4796,"hips":4797,"Ġalthough":4798,"End":4799,"ĠPo":4800,"cular":4801,"Inst":4802,"pty":4803,"Ġreduce":4804,"Ġhours":4805,"ĠHol":4806,"ampions":4807,"Ġoperations":4808,"####":4809,"Ġ]":4810,"oke":4811,"utive":4812,"Ab":4813,"Ġmoney":4814,"Ġdesigned":4815,"Ġbeam":4816,"Ġtravel":4817,"Ġwalk":4818,"Ġbasic":4819,"rd":4820,"ĠWork":4821,"Ġaffect":4822,"ĠAng":4823,"gener":4824,"Ġquad":4825,"rat":4826,"Ġobserve":4827,"Ġforms":4828,"Ð½":4829,"mma":4830,"72":4831,"Ġvisual":4832,"Ġwebsite":4833,"ini":4834,"cref":4835,"Ġconsists":4836,"Bar":4837,"Ġprimary":4838,"Ġtransformation":4839,"arant":4840,"Ġround":4841,"/**":4842,"Ġlargest":4843,"/*":4844,"Ġagreement":4845,"ĠLondon":4846,"92":4847,"rec":4848,"Info":4849,"$~":4850,"osing":4851,"ponential":4852,"())":4853,"Ġappears":4854,"ĠJapan":4855,"Ġbul":4856,"PI":4857,"'re":4858,"Ġidentified":4859,"Ġproduce":4860,"Next":4861,"Ġdiscussion":4862,"Ġvisit":4863,"Ġauthors":4864,"Ġrules":4865,"CL":4866,"Ġdecl":4867,"active":4868,"These":4869,"Ġcollect":4870,"ĠSw":4871,"obile":4872,"300":4873,"void":4874,"Context":4875,"then":4876,"paign":4877,"Ġcosm":4878,"Ġorb":4879,"Ġexpand":4880,"gt":4881,"Ġgenerate":4882,"api":4883,"orage":4884,"date":4885,"OM":4886,"start":4887,"Ġstraight":4888,"SM":4889,"Ġmorph":4890,"Ġbal":4891,"}&":4892,"mini":4893,"cd":4894,"ĠScience":4895,"reet":4896,"produ":4897,")+\\":4898,"Ġextra":4899,"SI":4900,"Ġanalog":4901,"elt":4902,"ĠAc":4903,"Ġperfect":4904,"ariance":4905,"Ġtold":4906,"nowled":4907,"bottom":4908,"Ġprinci":4909,"Ref":4910,"Ġnamed":4911,"oph":4912,"Ġcomputation":4913,"arks":4914,"term":4915,"ilibrium":4916,"86":4917,"ifically":4918,"char":4919,"omb":4920,"den":4921,"Ġabsol":4922,"ĠCollege":4923,"Ġbegan":4924,"ENT":4925,"Ġveh":4926,"}{|":4927,"Ġbey":4928,"Ġvectors":4929,"Ġcontributions":4930,"Ġled":4931,"uting":4932,"ades":4933,"Ġincreased":4934,"Ġupdate":4935,"Ġtechniques":4936,"Ġmeasurement":4937,"ĠHamiltonian":4938,"CP":4939,"ington":4940,"core":4941,"Ġcareer":4942,"etimes":4943,"Model":4944,"84":4945,"Ġpractice":4946,"Ġbeyond":4947,"Te":4948,"icity":4949,"Ġsoftware":4950,"rench":4951,"ĠPat":4952,"Ġdoing":4953,"Ġradio":4954,"pid":4955,"Ġsquare":4956,"ĠBlack":4957,"Ġhighly":4958,"ĠSub":4959,"bi":4960,"ĠInst":4961,"ĠCOVID":4962,"Ġ;":4963,"Ġways":4964,"asons":4965,"Ġconcent":4966,"}}$.":4967,"////////":4968,"}}$,":4969,"Ġcoming":4970,"})$,":4971,"ĠDem":4972,"Ġshowed":4973,"Ġflat":4974,"Ġinvolved":4975,"Ne":4976,"IV":4977,"ples":4978,"';":4979,"lete":4980,"ka":4981,"content":4982,"Color":4983,"Ġmeasures":4984,"Ġinner":4985,"Ġcells":4986,"Ġprediction":4987,"ĠOf":4988,"ulate":4989,"Ġmodule":4990,"Map":4991,"Ġqual":4992,"Element":4993,"amental":4994,"aught":4995,"Ġcurrently":4996,")-\\":4997,"seud":4998,"ĠLaw":4999,"etime":5000,"76":5001,"culation":5002,"ĠRem":5003,"ATE":5004,"Ġoptical":5005,"Att":5006,"ĠÃ":5007,"Ġcounter":5008,"Inter":5009,"}({\\":5010,"hbar":5011,"Ġconserv":5012,"Ġthroughout":5013,"ĠGroup":5014,"Ġprofess":5015,"ded":5016,"Ġmid":5017,"estern":5018,"omin":5019,"pg":5020,"Ġquestions":5021,"Config":5022,"iforn":5023,"Ġsatisfy":5024,"Ġvariety":5025,"Ġroad":5026,"Ġliterature":5027,")}_{":5028,"Ġidentify":5029,"amily":5030,"Ġchem":5031,"Ġnovel":5032,"Ġearlier":5033,"Ġcompletely":5034,"Ġinteger":5035,"ĠAir":5036,"attle":5037,"rie":5038,"Ġcombination":5039,"ypes":5040,"has":5041,"han":5042,"Ġgenerally":5043,"Ġelectric":5044,"module":5045,"Ġmeaning":5046,"Ġmanagement":5047,"Ġscore":5048,"ĠSpec":5049,"ĠAssoci":5050,"antic":5051,"hal":5052,"conn":5053,"Ġaccur":5054,"Ġcoordinates":5055,"Ġpreviously":5056,"Ġgeneration":5057,"Ġbinary":5058,"Ġpure":5059,"Ġago":5060,"car":5061,")--":5062,"scill":5063,"Ġdise":5064,"Ġmaintain":5065,"Ġdifferential":5066,"well":5067,"Hz":5068,"Ġbelieve":5069,"}{(":5070,"Ġrelationship":5071,"Ġunits":5072,"rot":5073,"pir":5074,"Ġotherwise":5075,"Ġmentioned":5076,"cong":5077,"Array":5078,"Ġvs":5079,"cs":5080,"Ġreconst":5081,"rons":5082,"LP":5083,"maz":5084,"ĠClass":5085,"Ġrecomm":5086,"process":5087,"force":5088,"ÑĢ":5089,"))$":5090,"hing":5091,"Ġtrain":5092,"Ġassumed":5093,"Ã¡":5094,"hbox":5095,"Ġult":5096,"Ġsaf":5097,"Ġreson":5098,"ĠOff":5099,"Ġabsor":5100,"~~~~":5101,"witter":5102,"miss":5103,"mass":5104,"Ġbottom":5105,"SD":5106,"Ġgreater":5107,"iral":5108,"Ġhit":5109,"82":5110,"image":5111,"blue":5112,"Ġoffer":5113,"ifornia":5114,"option":5115,"ishes":5116,"ĠRed":5117,"ĠEqu":5118,"\"\"":5119,"rong":5120,"Ġtim":5121,"Ġmasses":5122,"Ġacqu":5123,"ĠInter":5124,"91":5125,"Ġoptimization":5126,"Ġgalaxy":5127,"ville":5128,"Ġwide":5129,"uit":5130,"Ġdro":5131,"Ġexcit":5132,"ibly":5133,"Ġscattering":5134,"Ġclearly":5135,"ael":5136,"|-":5137,"Ġtasks":5138,"aker":5139,"ny":5140,"Ġlack":5141,"$),":5142,"rep":5143,"ĠList":5144,"Ġrepe":5145,"cher":5146,"ĠChina":5147,"rug":5148,"Ġpolitical":5149,"Ġformal":5150,"Ġpoly":5151,"default":5152,"dshift":5153,"first":5154,"Ġ});":5155,"Ġreli":5156,"Ġ(!":5157,"ĠWilliam":5158,"minipage":5159,"Ġfilter":5160,"Ġinduced":5161,"erg":5162,"Ġ$|\\":5163,"HT":5164,"Ġassess":5165,"ferent":5166,"ĠDepartment":5167,"perim":5168,"}$)":5169,"istical":5170,"font":5171,"count":5172,"ipal":5173,"EM":5174,"ĠBritish":5175,"ĠCour":5176,"illing":5177,"Ġoption":5178,"Pr":5179,"pat":5180,"ĠData":5181,"Ġadvan":5182,"info":5183,"stract":5184,"[(":5185,"Ġstrength":5186,":}":5187,"Ġinstall":5188,"Ġconclude":5189,"ĠTV":5190,"Ġutil":5191,"ĠArm":5192,"&=&":5193,"Service":5194,"Ġoscill":5195,"Ġnotation":5196,"Ġgradient":5197,"Ġanti":5198,"abase":5199,"arth":5200,"Ġjoint":5201,"itely":5202,"udes":5203,"ĠTechn":5204,"Ġdistinct":5205,"Code":5206,"iring":5207,"||":5208,"Ġtrac":5209,"Ġheart":5210,"Ġgrid":5211,"ilitary":5212,"ien":5213,"Ġfollowed":5214,"Therefore":5215,";&":5216,"ymmetric":5217,"ĠDr":5218,"Ġroot":5219,")}}":5220,"vention":5221,"opic":5222,"inding":5223,"Ġdevi":5224,"Ġannounced":5225,"kes":5226,"Ġactivity":5227,"74":5228,"Read":5229,"83":5230,"Ġaccom":5231,"Ġgetting":5232,"73":5233,"ya":5234,"Ġetc":5235,"Introduction":5236,"Ġ${":5237,"Pre":5238,"faces":5239,"Ġcred":5240,"Ġmes":5241,"Ġbad":5242,"burg":5243,"rig":5244,"Ġregime":5245,"Ġwall":5246,"sect":5247,"system":5248,"arse":5249,"ĠRepublic":5250,"mann":5251,"omic":5252,"Ġwatch":5253,"Ġdevice":5254,"num":5255,"GL":5256,"Ġappropriate":5257,"Ġobservation":5258,"ederal":5259,"Ġhypot":5260,"Ġorient":5261,"Ġideal":5262,"Ġprice":5263,"agement":5264,"Ġthick":5265,"ogeneous":5266,"Ġrepresented":5267,"Ġamplitude":5268,"Ġmagnitude":5269,"ĠSome":5270,"Ġdepth":5271,"1999":5272,"Ġreveal":5273,"ĠGreen":5274,"ui":5275,"Ġhistor":5276,"Ġfight":5277,"Ġ\\!":5278,"oo":5279,"ayout":5280,"Ġgraphs":5281,"Ed":5282,"Ġconver":5283,"Ġrelatively":5284,"abil":5285,"Ġminimal":5286,"men":5287,"Item":5288,"Ġdetailed":5289,"Ġcontaining":5290,"Ġthreshold":5291,"Ġremaining":5292,"tag":5293,"Ġtele":5294,"Ġdifferences":5295,"Ġsegment":5296,"UN":5297,"iti":5298,"Size":5299,"Ġsrc":5300,"riz":5301,"Ġcru":5302,"ĠSat":5303,"Ġlost":5304,"Ġring":5305,"Ġlum":5306,"Ġbehavi":5307,"Ġhighest":5308,"witch":5309,"Ġvary":5310,"ĠĠĠĠĠĠĠĠĠĠĠĠĠĠ":5311,"ĠUK":5312,"79":5313,"GB":5314,"erve":5315,"Ġreduction":5316,"stream":5317,"kin":5318,"ĠFin":5319,"Ġvac":5320,"lesssim":5321,"acters":5322,"create":5323,"ifferent":5324,"Ġsubsequ":5325,"Ġslightly":5326,"ĠBay":5327,"Field":5328,"Che":5329,"Log":5330,"ĠFinally":5331,"DA":5332,"Ġener":5333,"ĠOther":5334,"wood":5335,"sur":5336,"ani":5337,"Ġability":5338,"Ġhttp":5339,"Ġâ":5340,"nother":5341,"Ġlayers":5342,"uge":5343,"rump":5344,"mas":5345,"stant":5346,"lang":5347,"Ġroom":5348,"Ġsyn":5349,"joy":5350,"Ġcalculations":5351,"diag":5352,"-$":5353,"henomen":5354,"parent":5355,"Ġneighbor":5356,"enge":5357,"Ġkernel":5358,"ĠMag":5359,"static":5360,"1998":5361,"alysis":5362,"ĠCommun":5363,"=\"../../../../":5364,"reedom":5365,"Ġdatasets":5366,"Ġstrict":5367,"cccc":5368,"Ġthermal":5369,"Ġrights":5370,"Ġleaders":5371,"Ġri":5372,"ĠFound":5373,"Ġsil":5374,"etal":5375,"Ġresources":5376,"Ġcov":5377,"ĠAlso":5378,"super":5379,"rick":5380,"ĠIN":5381,"ĠMa":5382,"lands":5383,"Ġtor":5384,"]}":5385,"Finally":5386,"ĠEuropean":5387,",\\\\":5388,"Ġgreen":5389,"Ġwriting":5390,"Ġsex":5391,"Ġfem":5392,"Ġ[\\":5393,"Ġ{$":5394,"finition":5395,"81":5396,"Ġparticularly":5397,"$};":5398,"itivity":5399,"ico":5400,"Ġcause":5401,"Ġcopy":5402,"Ġbounds":5403,"Ġinternational":5404,"ector":5405,"Ġcalculation":5406,"ĠStreet":5407,"ĠPre":5408,"ica":5409,"Ġloop":5410,"Ġtheoretical":5411,"MR":5412,"ĠSen":5413,"cf":5414,"Ġdam":5415,"define":5416,"pare":5417,"Ġproved":5418,"pto":5419,"ollowing":5420,"rab":5421,"Ġaxis":5422,"Ġconsidering":5423,"Ñģ":5424,"ĠFl":5425,"floor":5426,"Ġ/*":5427,"Ġpartition":5428,"ĠOut":5429,"tfrac":5430,"Ġtraject":5431,"ĠCalifornia":5432,"Ġexternal":5433,"\\)":5434,"Fil":5435,"}\\,\\":5436,"PP":5437,"abled":5438,"Ġincor":5439,"Ġefficiency":5440,"Ġunderstanding":5441,"Ġcycle":5442,"Ġeducation":5443,"Ġstrongly":5444,"^*$":5445,"assert":5446,"TH":5447,"Ġparallel":5448,"Ġmind":5449,"Ġparty":5450,"GC":5451,"ki":5452,"orge":5453,"Ġtesting":5454,"ros":5455,"Ġfair":5456,"ync":5457,"hern":5458,"rect":5459,"annels":5460,"Ġunivers":5461,"atically":5462,"****************":5463,"context":5464,"onical":5465,"ithub":5466,"ĠVir":5467,"bel":5468,"Ġresol":5469,"Ġheavy":5470,"Ġfunctional":5471,"otal":5472,"ĠMor":5473,"Ġgap":5474,"ĠJust":5475,"writ":5476,">&":5477,"Ġaspect":5478,"71":5479,"ĠTest":5480,"rian":5481,"Ġpix":5482,"ĠGovern":5483,"Ġfire":5484,"NA":5485,"Ġbright":5486,"Ġuncertainty":5487,"Ġfluct":5488,"Pol":5489,"ĠAnt":5490,"dy":5491,"ĠDay":5492,"Method":5493,"Ġexponential":5494,"inner":5495,"ida":5496,"Per":5497,"Ġevaluation":5498,"Ġharm":5499,"Ġcard":5500,"Ġworth":5501,"Ġcomplexity":5502,"ĠDef":5503,"apache":5504,"EC":5505,"ename":5506,"Sc":5507,"ĠDavid":5508,"gn":5509,"Ġhole":5510,"Ġdecomposition":5511,"Ġorth":5512,"ĠUsing":5513,"Ġfinancial":5514,"ribution":5515,"Ġexpert":5516,"Ġclusters":5517,"({":5518,"While":5519,"Ġinj":5520,"Ġborder":5521,"Ġitem":5522,"FL":5523,"bed":5524,"Ġyield":5525,"board":5526,"Ġmachine":5527,"That":5528,"Ġgoes":5529,"Ġindicates":5530,"ĠInstitute":5531,"results":5532,"elli":5533,"vised":5534,"ĠHig":5535,"post":5536,"ĠGod":5537,"Ġepis":5538,"ivil":5539,"Ġassist":5540,"Using":5541,"Ġpartial":5542,"Ġthemselves":5543,"MD":5544,"Ġhope":5545,"ĠSee":5546,"ned":5547,"ĠLeague":5548,"ado":5549,"ĠPaul":5550,"ĠSur":5551,"Ġprint":5552,"]$.":5553,"Ġinterpret":5554,"Ġdimensions":5555,"ĠSte":5556,"ĠIndian":5557,"Ent":5558,"Ġprobably":5559,"Ġtempor":5560,"dev":5561,"Ġexpressed":5562,"Ġtun":5563,"dfrac":5564,"\\}$.":5565,"pected":5566,"$:":5567,"Ġtrained":5568,"Ġagent":5569,"coming":5570,"400":5571,"Ġlif":5572,"Ġtransl":5573,"Ġproport":5574,"Ġguarant":5575,"real":5576,"Hand":5577,"Ġmassive":5578,"ologies":5579,"Ġfinally":5580,"Ġhon":5581,"gies":5582,"Ġobvious":5583,"Ġcountries":5584,"1000":5585,"Ġclub":5586,"Ġlemma":5587,":=":5588,"}}_{\\":5589,"weight":5590,"Ġimplementation":5591,"tee":5592,"igation":5593,"Ġestablish":5594,"ĠFurthermore":5595,"tx":5596,"css":5597,"arter":5598,"Ġdenoted":5599,"LT":5600,"Ġcriter":5601,"Ġcampaign":5602,"Spec":5603,"Ġhydro":5604,"ASS":5605,",{\\":5606,"Ġtypical":5607,"Ġscenario":5608,"Ġdistributed":5609,"Ġcool":5610,"Ġsatisfying":5611,"Ġrac":5612,"Ġfriend":5613,"Ġliving":5614,"vector":5615,"Ġstay":5616,"Ġbrand":5617,"Ġscaling":5618,"strong":5619,"Ġimmediately":5620,"Ġstaff":5621,"Ġrobust":5622,"host":5623,"Ġfundamental":5624,"mathop":5625,"Ġweights":5626,"='":5627,"Ġestimation":5628,"Ġactions":5629,"db":5630,"contain":5631,"ospital":5632,"Part":5633,"rivacy":5634,"iding":5635,"ĠST":5636,"Ġinfinite":5637,"Box":5638,"Ġcomment":5639,"Ġsoon":5640,"Ġdigital":5641,"dl":5642,"while":5643,"Ġasked":5644,"ometric":5645,"mitted":5646,"Ġonto":5647,"ams":5648,"Message":5649,"ĠMat":5650,"Ġreplace":5651,"algorithm":5652,"Ġangular":5653,".;":5654,"dat":5655,"Ġmut":5656,"Ġstop":5657,"OP":5658,"CA":5659,"ĠGeneral":5660,"inu":5661,"ponse":5662,"Ġconstructed":5663,"Ġconvex":5664,"Ġnothing":5665,"Ġmor":5666,"Ġactual":5667,"Ġapproximately":5668,"Ġneutr":5669,"ĠEast":5670,"Ġredshift":5671,"Ġscales":5672,"Ġexc":5673,"...,":5674,"Ġdiscrete":5675,"Ġpurpose":5676,"Ġcoefficient":5677,"]$,":5678,"FA":5679,"Ġprogress":5680,"related":5681,",\\,\\":5682,"Ġinfluence":5683,"Ġimag":5684,"ifies":5685,"ĠEach":5686,"Ġstatus":5687,"User":5688,"squ":5689,"ano":5690,"Ġsolve":5691,",$":5692,"useum":5693,"ĠCanada":5694,"Ġmodern":5695,"forward":5696,"SL":5697,"Ġcombined":5698,"Ġnearly":5699,"bug":5700,"ĠBook":5701,"brace":5702,"Line":5703,"Ġpen":5704,"Ġsurv":5705,"ĠĠĠĠĠĠĠĠĠĠĠĠĠĠĠĠĠ":5706,"))\\":5707,"Ġrotation":5708,"aily":5709,"CR":5710,"sat":5711,"ĠPort":5712,"vee":5713,"github":5714,"Ġvict":5715,"Ġson":5716,"Ġfine":5717,"Ġsn":5718,"Ġ\\(\\":5719,"she":5720,"Ġphenomen":5721,"jo":5722,"ersion":5723,"Ġinterface":5724,"eles":5725,"Cor":5726,"Ġ===":5727,"lood":5728,"java":5729,"Ġmoving":5730,"Ġten":5731,"Ġgets":5732,"ĠCouncil":5733,"Ġresource":5734,"hemat":5735,"des":5736,"Ġcharacters":5737,"Ġextrem":5738,"Ġfilms":5739,"ga":5740,"Ð¾Ð":5741,"aser":5742,"Ġworked":5743,"Ġindicate":5744,"Ġminutes":5745,"roy":5746,"}[\\":5747,"ĠPal":5748,"ĉĉĊ":5749,"}_{-":5750,"gr":5751,"iant":5752,"}})":5753,"Ġruns":5754,"fs":5755,"ufact":5756,"win":5757,"ĠBen":5758,"ĠCE":5759,"bas":5760,"Ġevaluate":5761,"only":5762,"Ġvill":5763,"arr":5764,"DB":5765,"urrent":5766,"ĠSol":5767,"emptyset":5768,"oken":5769,"Ġbur":5770,"ander":5771,"oting":5772,"Ġreflect":5773,"Ġleave":5774,"1996":5775,"Ġentropy":5776,"Ġjava":5777,"package":5778,"\\;":5779,"Call":5780,"Ġpresident":5781,"Ġeight":5782,"icense":5783,"Desc":5784,"reme":5785,"Ġign":5786,"chang":5787,"ona":5788,"Ġsections":5789,"---":5790,"iverse":5791,"Ġspread":5792,"Ġsaw":5793,"Ġcalculate":5794,"bigl":5795,"Ġprojection":5796,"Ġfamil":5797,"raz":5798,"Ġneural":5799,"Ġsector":5800,"clusions":5801,"Ġoffice":5802,"Ġ()":5803,"Ġacceler":5804,"Ġmultiplic":5805,"pair":5806,"ĠLie":5807,"unt":5808,"Ġheat":5809,"Pe":5810,"1997":5811,"struct":5812,"ĠFrench":5813,"such":5814,"Ġgeometry":5815,"vart":5816,"Ġachieved":5817,"poses":5818,"BS":5819,"Ġcapacity":5820,"Ġtypically":5821,"pass":5822,"ashington":5823,"Ġfavor":5824,"born":5825,"Ġ\\]":5826,"Ġ^{":5827,"server":5828,"Ġ};":5829,"Ġgravit":5830,"Ġvo":5831,"ancy":5832,"Ġlimits":5833,"Ġdemand":5834,"Ġanim":5835,"Americ":5836,"|}{":5837,"Count":5838,"Section":5839,"Ġscient":5840,"Ġadminist":5841,"heta":5842,"Ġwait":5843,"two":5844,"Ġrepresentations":5845,"ĠMal":5846,"joint":5847,"Ġassign":5848,"Ġshowing":5849,"ĠAssum":5850,"Ġrapid":5851,"Ġbeginning":5852,"nel":5853,"Ġion":5854,"tikzpicture":5855,"ĠCre":5856,"ĠSM":5857,"Ġscience":5858,"uns":5859,"Ġfather":5860,"break":5861,"stra":5862,"soft":5863,"ils":5864,"ĠBel":5865,"Ġpolice":5866,"Ġplaying":5867,"Ġproviding":5868,"Ġvirtual":5869,"cknowled":5870,"ĠThom":5871,"Ġnil":5872,"Ġoppos":5873,"dec":5874,"ĠKe":5875,"irit":5876,"mi":5877,"OL":5878,"Ġbrief":5879,"bigr":5880,"Ġcommunication":5881,"Ġenjoy":5882,"ĠLag":5883,"Ġsynt":5884,"Ġthrow":5885,"step":5886,"unds":5887,"ĠProgram":5888,"va":5889,"lient":5890,"Ġgradu":5891,"Ġarchitecture":5892,"Property":5893,"eks":5894,"Ġrock":5895,"Ġque":5896,"yr":5897,"Ġphysics":5898,"Buil":5899,"ĠSuper":5900,"Ġsampling":5901,"Ġcollabor":5902,"Ġtrend":5903,"xx":5904,"Ġ$.":5905,"SR":5906,"$_{":5907,"Ġcentury":5908,"Ġeverything":5909,"ontal":5910,"Ġrecall":5911,"ĠSeries":5912,"Ġsemi":5913,"unk":5914,"ĠHall":5915,"rl":5916,"ether":5917,"}}.":5918,"vature":5919,"false":5920,"Ġfamilies":5921,"Ġisomorphism":5922,"Ġspecified":5923,"Ġsurpr":5924,"integ":5925,")})":5926,"null":5927,"Ġdepending":5928,"web":5929,"Ġcele":5930,"EL":5931,"Ġcontained":5932,"iota":5933,"ialog":5934,"open":5935,"DM":5936,"ship":5937,"ech":5938,"Ġtraditional":5939,"Ġgirl":5940,"po":5941,"lear":5942,"Ġanything":5943,"longrightarrow":5944,"Ġpull":5945,"Ġmiddle":5946,"search":5947,"avel":5948,"PU":5949,"Ġstruct":5950,"ĠTrump":5951,"vest":5952,"ĠJames":5953,"paragraph":5954,"Ġbin":5955,"ĠAustralia":5956,"Ġcloud":5957,"Ġmother":5958,"bmatrix":5959,"Ġodd":5960,"otion":5961,"Ġsort":5962,"Ġaward":5963,"google":5964,"event":5965,"Ġusual":5966,"Ġcoordinate":5967,"ĠSy":5968,"Ġirre":5969,"ĠFil":5970,"Ġanswer":5971,"Ġimplic":5972,"Ġgiving":5973,"aa":5974,"gest":5975,"Ġconstit":5976,"Comm":5977,"Ġequilibrium":5978,"lig":5979,"Ġoffers":5980,"ih":5981,"Ġsummar":5982,"Ġalternative":5983,"rote":5984,"ĠCap":5985,"ountain":5986,"Ġhighlight":5987,"Ġrise":5988,"]{\\":5989,"Ġsufficiently":5990,"Ġdust":5991,"PA":5992,"rupt":5993,"ĠDistrict":5994,"herent":5995,"ffer":5996,"aur":5997,"Ġferm":5998,"unit":5999,"tiny":6000,"${\\":6001,"Ġvacc":6002,"ĠAlthough":6003,"ĠSec":6004,"Ġmaxim":6005,"Ġhimself":6006,"ĠModel":6007,"Ġsites":6008,"Image":6009,"Ġapplying":6010,"rial":6011,"Ġtechnique":6012,"Ġstress":6013,"ĠEngland":6014,"Ġnoted":6015,"vari":6016,"}}}\\":6017,"FR":6018,"include":6019,"ĠAppendix":6020,"condition":6021,"Ġtrying":6022,"ĠCa":6023,"Ġstability":6024,"Ġconfir":6025,"OC":6026,"=.":6027,"grad":6028,"emy":6029,"Ġshared":6030,"ynamic":6031,"Sch":6032,"formal":6033,"Ã³":6034,"number":6035,"ĠPost":6036,"Cre":6037,"Ġkm":6038,"Ġdepart":6039,"cuss":6040,"BA":6041,"Ġmapping":6042,"})}":6043,"doc":6044,"Ġut":6045,"ĉĉĉĉĉĉ":6046,"dir":6047,"ĠAre":6048,"ĠReview":6049,"System":6050,"Ġvariation":6051,"\\|\\":6052,"Ġtrade":6053,"Ġinverse":6054,"Ġclean":6055,"=\"../":6056,"nam":6057,"Ġtro":6058,"Ġprotocol":6059,"Ġoccurs":6060,"Ġ^":6061,"ĠGal":6062,"sche":6063,"FC":6064,"Right":6065,"ĠEm":6066,"Ġforces":6067,"algebra":6068,"isely":6069,"Ġ__":6070,"haps":6071,"Ġborn":6072,"Ġstatistical":6073,"slant":6074,")--(":6075,"after":6076,"Ġgave":6077,"ĠWil":6078,"Ġformed":6079,"Ġmedical":6080,"ochastic":6081,"Ġprevent":6082,"Ġbos":6083,"columnwidth":6084,"Ġteams":6085,"Ġcm":6086,"Ass":6087,"ocks":6088,"Ġlatest":6089,"ĠPlan":6090,"Ġreading":6091,"kl":6092,"aching":6093,"Ġintegration":6094,"Ġindeed":6095,"Ġamb":6096,"Ext":6097,"ussia":6098,"Ġboard":6099,"ĠLi":6100,"Ġquery":6101,"])":6102,"ĠSing":6103,"product":6104,"bran":6105,"ĠYear":6106,"Do":6107,"ĠCL":6108,"Ġpredicted":6109,"ĠDan":6110,"AV":6111,"Ġchannels":6112,"Ġdu":6113,"forms":6114,"Ġpreserv":6115,"Ġwhereas":6116,"ĠInc":6117,"Ġdivid":6118,"=\"#":6119,"Ġpseud":6120,"Ġexchange":6121,"Result":6122,"ĠOver":6123,"Ġpositions":6124,"Ġjud":6125,"vartheta":6126,";\\;\\":6127,"ĠBer":6128,"Ġinterested":6129,"ĠLeg":6130,"plan":6131,"--------------------------------":6132,"IA":6133,"Ġluminos":6134,"iers":6135,"ĠMart":6136,"1995":6137,"Fl":6138,"Ġ\\&":6139,"ĠIR":6140,"Ġcaused":6141,"za":6142,"Rel":6143,"Ġconj":6144,"][]{":6145,"Ġassumptions":6146,"ULL":6147,"asc":6148,"Ġarguments":6149,"ĠOF":6150,"Ġdistrict":6151,"EX":6152,"ributes":6153,"ror":6154,"Ġdevices":6155,"Ġbeaut":6156,"greg":6157,"Ġdisease":6158,"Ġcharacteristic":6159,"Ġunderlying":6160,"Ġentry":6161,"Ġdetected":6162,"Ġoccup":6163,"})=":6164,"Ġtools":6165,"ago":6166,"multirow":6167,"Manager":6168,"Ġchanged":6169,"ĠOpen":6170,"lication":6171,"Ġdegrees":6172,"obert":6173,"ERT":6174,"Ġdead":6175,"sign":6176,"Ġhum":6177,"android":6178,"roller":6179,"Ġprograms":6180,"lies":6181,"itt":6182,"[-":6183,"Ġorbit":6184,"perties":6185,"Ġdynamic":6186,"Ġwoman":6187,"DP":6188,"Ġvertical":6189,"Ġwanted":6190,"Ġtests":6191,"Ġmaximal":6192,"ĠCup":6193,"Lemma":6194,"}$}":6195,"Ġcandidate":6196,"Ġmotiv":6197,"namespace":6198,"poss":6199,"oded":6200,"Ġemail":6201,"Ġcomputer":6202,"Fact":6203,"Ġrace":6204,"scriptsize":6205,"conf":6206,")}_":6207,"target":6208,"Ġmanifold":6209,"hetic":6210,"Ġconven":6211,"sets":6212,"Rem":6213,"ĠSum":6214,"rank":6215,"phant":6216,"Ġquickly":6217,"Ġpicture":6218,"Ġsurvey":6219,"Ġradiation":6220,"Ġdesired":6221,"ita":6222,"Ġpredictions":6223,"Ġnamely":6224,"Ġfinding":6225,"}}^{\\":6226,"ski":6227,"Ġunknown":6228,"tty":6229,"Ġproceed":6230,"Ġelectro":6231,"ymmetry":6232,"called":6233,"ĠBest":6234,"ensities":6235,"sembly":6236,"Ġcast":6237,"gan":6238,"Ġthreat":6239,"ĠWhite":6240,"Ġfa":6241,"Ġprinciple":6242,"ĠVol":6243,"Ġtour":6244,"inese":6245,"150":6246,"\\}$,":6247,"Ġobjective":6248,"figures":6249,"child":6250,"Ġdiagonal":6251,"brid":6252,"Ġstated":6253,"Ġcarry":6254,"inated":6255,"sey":6256,"bras":6257,"ua":6258,"^{*":6259,"Ġsomeone":6260,"ĠUnder":6261,"km":6262,"ibr":6263,"Ġmoved":6264,"scriptstyle":6265,"bal":6266,"Ġseparate":6267,"pared":6268,"ĠRead":6269,"itative":6270,"ĠTime":6271,"Ġgrant":6272,"Ġbias":6273,"cial":6274,"Ġcompl":6275,"ĠGoogle":6276,"Ġeq":6277,"ategory":6278,"Proof":6279,"Ġpropose":6280,"Ġenergies":6281,"|}":6282,"iler":6283,"Ġsafety":6284,"ifications":6285,"Ġnorth":6286,"Ġmodul":6287,"Ġconsequence":6288,"Ġcommand":6289,"Ġformat":6290,"exas":6291,"Ġmaterials":6292,"Ġindividuals":6293,"ĠYour":6294,"Ġnuclear":6295,"anned":6296,"Input":6297,"Ġitems":6298,"Ġclin":6299,"Ġdirector":6300,"Ġsolar":6301,"aven":6302,"Ġconstants":6303,"Ġextends":6304,"Ġfreedom":6305,"Ġweb":6306,"1990":6307,"'m":6308,"ĠIndeed":6309,"Ġexplained":6310,"HS":6311,"models":6312,"Ġthank":6313,"Xi":6314,"<!--":6315,"ĠGra":6316,"ĠDire":6317,"Ġactivities":6318,"write":6319,"make":6320,"Ġaccurate":6321,"Ġreturned":6322,"Ġnotice":6323,"Ġclient":6324,"Ġter":6325,"Ġnonlinear":6326,"Ġreceive":6327,"Ġadvantage":6328,"lections":6329,"ĠPublic":6330,"phys":6331,"Act":6332,"Ġprotect":6333,"Ġnames":6334,"Ġquark":6335,"Ġcomputational":6336,"yles":6337,"Ġadding":6338,"Ġ}{":6339,"structure":6340,"Ġlegal":6341,"Ġattract":6342,"ston":6343,"diff":6344,"Ġplanet":6345,"CM":6346,"ls":6347,"ĠAccording":6348,"Ġremark":6349,"Ġasymptotic":6350,"Ġprojects":6351,"Ġmess":6352,"Ġremove":6353,"ĠJack":6354,"ĠCourt":6355,"atures":6356,"Ġpartners":6357,"formed":6358,"nergy":6359,"Aut":6360,"func":6361,"Ġabsolute":6362,"plot":6363,"ĠMo":6364,"Ġmodified":6365,"Ġlives":6366,"ĠWashington":6367,"rical":6368,"Ġextend":6369,"Ġserved":6370,"Exp":6371,"Ġisn":6372,"ira":6373,"stable":6374,"ÃŃ":6375,"gebras":6376,"Ġmissing":6377,"ĠRich":6378,";</":6379,"Ġweeks":6380,"anger":6381,"Ġstudent":6382,"})^":6383,"stein":6384,"Ġfriends":6385,"ducation":6386,"Ġtrivial":6387,"cale":6388,"itch":6389,"ĠDon":6390,"UE":6391,"tings":6392,"Group":6393,"uster":6394,"Tra":6395,"Ġlocally":6396,"ĠAssociation":6397,"/(":6398,"Ġcosts":6399,"ĠRad":6400,"Ġimportance":6401,"Ġprocessing":6402,"Ġbooks":6403,"Ġsym":6404,"Ġpurch":6405,"ĠForm":6406,"TS":6407,"Ġcoinc":6408,"Hence":6409,"uled":6410,"Ġdied":6411,"\\}\\":6412,"ĠMr":6413,"eds":6414,"&=\\":6415,"Ġmorphism":6416,"ĠSun":6417,"120":6418,"Ġinvestigate":6419,"ĠPress":6420,"ourier":6421,"Ġeveryone":6422,"Ġstore":6423,"([":6424,"Ġderivative":6425,"ĠAnn":6426,"mathit":6427,"}|\\":6428,"cat":6429,"Can":6430,"ervices":6431,"ĠFoundation":6432,"ĠĠĠĠĠĠĠĠĠĠĠĠĠĠĠĠĠĠĠĠĠĠĠĠĠĠĠĠĠĠĠ":6433,"DS":6434,"Ġplant":6435,"Ap":6436,"Ġsettings":6437,"parison":6438,"She":6439,"Ġreached":6440,"Ġphoton":6441,"iller":6442,"ĠArch":6443,"aterial":6444,"Ġdistingu":6445,"DC":6446,"lap":6447,"fully":6448,"zer":6449,"gin":6450,"velopment":6451,"Ġabund":6452,"mathtt":6453,"venue":6454,"Ġrough":6455,"Ġpiece":6456,"PL":6457,"My":6458,"bib":6459,"Ġandroid":6460,"ometry":6461,"elled":6462,"}~":6463,"Ġimproved":6464,"ONT":6465,"Ġpow":6466,"Ġhar":6467,"ogen":6468,"Ġevol":6469,"Ġinstit":6470,"Ġcomputing":6471,"ibration":6472,"notag":6473,"incipal":6474,"ao":6475,"ĠChampions":6476,"Ġchemical":6477,")</":6478,"pton":6479,"ections":6480,"ĠGerman":6481,"Ġderive":6482,"parameter":6483,"Ġrang":6484,"Ġ({\\":6485,"Ġexplicitly":6486,"ĠMac":6487,"?âĢĿ":6488,"adow":6489,"edia":6490,"^{(\\":6491,"Post":6492,"ĠRiver":6493,"met":6494,"Ġlisted":6495,"Ġcop":6496,"ĠNetwork":6497,"elines":6498,"ias":6499,"ĠAfrica":6500,"Ġreplaced":6501,"Ġwrote":6502,"ĠPhil":6503,"aver":6504,"Ġnet":6505,"ĠDemoc":6506,"outher":6507,"mosp":6508,"medskip":6509,"urations":6510,"Ġcurvature":6511,"awa":6512,"iences":6513,"going":6514,"ĠTHE":6515,"mem":6516,"Ġ$,":6517,"Ġculture":6518,"ĠRob":6519,":=\\":6520,"ĠService":6521,"adding":6522,"Ġcarried":6523,"Ġreturns":6524,"ultane":6525,"loop":6526,"Ġmilitary":6527,"Ġrequirements":6528,"Ġsec":6529,"oura":6530,"Ġelection":6531,"slash":6532,"pdate":6533,"Ġneighborhood":6534,"}\\|":6535,"Ġadjust":6536,"Ġtal":6537,"elihood":6538,"Consider":6539,"Ġserver":6540,"Ġexception":6541,">(":6542,"Ġcontrad":6543,"rive":6544,"textcolor":6545,"Ġseven":6546,"Ġdrop":6547,"Ġgeneralized":6548,"Ġvariance":6549,"Ġwaves":6550,"Source":6551,"Ġcourt":6552,"conds":6553,"1994":6554,"Ġrelax":6555,"}}=":6556,"Ġcouple":6557,"select":6558,"avelength":6559,"Ġsuitable":6560,"Ġtruth":6561,"Ġcapital":6562,"+(":6563,"ĠRel":6564,"Ġstatistics":6565,"Ġwind":6566,"ĠDel":6567,"Ġcontinued":6568,"mediate":6569,"ĠGold":6570,"Ġsuggests":6571,"ĠMax":6572,"Ġstd":6573,"Ġsatisfied":6574,"nn":6575,"icated":6576,"'ve":6577,"Ġmanufact":6578,"ĠĠĠĠĠĠĠĠĊ":6579,"show":6580,"uum":6581,"Point":6582,"Ġpoor":6583,"Ġincorpor":6584,"itation":6585,"andemic":6586,"outhern":6587,"Ġprecisely":6588,"ouble":6589,"ptic":6590,"auto":6591,"Response":6592,"TT":6593,"omy":6594,"oration":6595,"dr":6596,"Ġpatterns":6597,"arser":6598,"Ġexplore":6599,"df":6600,"Ġsometimes":6601,"white":6602,"ĠBusiness":6603,"atalog":6604,"ĠAlex":6605,"Given":6606,"rey":6607,"description":6608,"Ġeconomic":6609,"Ġmeeting":6610,"Ġcanonical":6611,"Ġbank":6612,"Ġprofessional":6613,"Ġisol":6614,"Ġreports":6615,"Ġbuy":6616,"query":6617,"Ġmus":6618,"American":6619,"Ġblocks":6620,"Ġbulk":6621,"magnetic":6622,"igger":6623,"Ġtopological":6624,"lines":6625,"Ġdispers":6626,"etries":6627,"Ġsouth":6628,"Ġempty":6629,"Ġbool":6630,"Ġscene":6631,"ellig":6632,"Ġdynamical":6633,"Ġinterview":6634,"ancing":6635,"Ġmatching":6636,"inations":6637,"ĠFace":6638,"Ġprotected":6639,"fol":6640,"Ġnone":6641,"NE":6642,"iem":6643,"Query":6644,"float":6645,"subsec":6646,"oma":6647,"img":6648,"Ġdimensional":6649,"actic":6650,"Back":6651,"Ġtheories":6652,"ĠRoy":6653,"RA":6654,"del":6655,"orter":6656,"ĠMost":6657,"urt":6658,"\\%$":6659,"Ġdelay":6660,"ĠDec":6661,"stain":6662,"Ġquasi":6663,"ĠDiv":6664,"Ġcompleted":6665,"ifact":6666,"ĠType":6667,"init":6668,"jective":6669,"ĠAut":6670,"axis":6671,"iable":6672,"edy":6673,"Ġplaces":6674,"Ġ->":6675,"Ġintersection":6676,"ĠNov":6677,"Ġdrive":6678,"Ġremoved":6679,"Date":6680,"Ġradial":6681,"Ġsequences":6682,"ĠZe":6683,"Ġnav":6684,"./":6685,"jav":6686,"Ġfiles":6687,"Client":6688,"Ġlabels":6689,"ropic":6690,"Ġ\\,\\":6691,"Ġopportunity":6692,"ĠAward":6693,"otype":6694,"ĠCons":6695,"ests":6696,"Last":6697,"Off":6698,"istor":6699,"chmark":6700,"Ġgravity":6701,"Ġcook":6702,"Rep":6703,"uler":6704,"ĠSam":6705,"py":6706,"Ġalone":6707,"lib":6708,"rangian":6709,"Ġsurround":6710,"ensus":6711,"ĠProf":6712,"La":6713,"Ġcomplic":6714,"Char":6715,"vin":6716,"Ġmargin":6717,"verb":6718,"close":6719,"orthern":6720,"}{*":6721,"Ġstochastic":6722,"Ġfol":6723,"Ġbrought":6724,"Ġdashed":6725,"Ġcomposition":6726,"Override":6727,"ĠCong":6728,"erence":6729,"rowser":6730,"Ġsimplic":6731,"bor":6732,"ĠCompany":6733,"rich":6734,"Ġenter":6735,"Ġstories":6736,"ria":6737,"inger":6738,"RI":6739,"estival":6740,"high":6741,"Moreover":6742,"ĠMusic":6743,"Ġsal":6744,"element":6745,"ĠRoad":6746,"Suppose":6747,"ĠMichael":6748,"Ġintensity":6749,"vs":6750,"ĠTwo":6751,"finished":6752,"urally":6753,"cel":6754,"Results":6755,"ko":6756,"ena":6757,"olf":6758,"Ġturned":6759,")^\\":6760,"Ġapproximate":6761,"ĠGr":6762,"pired":6763,"images":6764,"Ġbehaviour":6765,"Ġlearned":6766,"Ġmixed":6767,"udget":6768,"pective":6769,"osis":6770,"Ġdoc":6771,"ĠRussian":6772,"Ġtrust":6773,"ĠFrance":6774,"================":6775,"Ġhous":6776,"ĠID":6777,"room":6778,"riday":6779,"ĠTexas":6780,"Min":6781,"chen":6782,"!\\":6783,"ĠHiggs":6784,"Ġplans":6785,"ilbert":6786,"Ġdiam":6787,"Ġpassed":6788,"Ġauto":6789,"Stream":6790,"ĠSuch":6791,"Ġmajority":6792,"istent":6793,"Ġ$\\{\\":6794,"boldmath":6795,"ĠPM":6796,"obs":6797,"^*\\":6798,"(-\\":6799,"hold":6800,"phas":6801,"ĠSecond":6802,"They":6803,"asy":6804,"Top":6805,"Action":6806,"house":6807,"Ġcatch":6808,">\\":6809,"iled":6810,"lick":6811,"php":6812,"FI":6813,"ashion":6814,"tan":6815,"Ġimplemented":6816,"Ġquantities":6817,"ĠSal":6818,"Ġplaced":6819,"large":6820,"Ġmovie":6821,"lock":6822,"Ag":6823,"Ġwrong":6824,"Ġgrowing":6825,"prec":6826,"Ġhandle":6827,"chain":6828,"Ġow":6829,"ĠDen":6830,"Pos":6831,"ounds":6832,"1993":6833,"\\!\\":6834,"Ġclimate":6835,"bet":6836,"mn":6837,"Ġplays":6838,"Ã¼":6839,"Ġjet":6840,"Ġ,\\":6841,"Ġserious":6842,"ĠGeV":6843,"ulture":6844,"rosc":6845,"@{":6846,"Ġcomments":6847,"SA":6848,"Ġmainly":6849,"Ġspeak":6850,"vect":6851,"cut":6852,"ĠEarth":6853,"Ġschools":6854,"Ġfrag":6855,"Ġscreen":6856,"Ġjournal":6857,"chron":6858,"effect":6859,"law":6860,"Head":6861,"Ġast":6862,"ĠChurch":6863,"Ġchallenge":6864,"Ġreasons":6865,"itar":6866,"las":6867,"ĠJournal":6868,"rence":6869,"Nav":6870,"icate":6871,".\\\\":6872,"equations":6873,"Ġluminosity":6874,"isher":6875,"'ll":6876,"Go":6877,"tree":6878,"Ġhidden":6879,"Ġevaluated":6880,"ocket":6881,"osh":6882,"Ġhypothesis":6883,"Ġdirected":6884,"Ġlies":6885,"clusive":6886,"ogonal":6887,"ĠQue":6888,"arma":6889,"illa":6890,"Ġinnov":6891,"Paramet":6892,"Max":6893,"Ġstack":6894,"ĠFore":6895,"ĠSociety":6896,"Ġunion":6897,"Ġtechnical":6898,"Ġmovement":6899,"Ġequivalence":6900,"ĠChinese":6901,"unct":6902,"apers":6903,"ĠGiven":6904,"Ġsignals":6905,"NO":6906,"Ġagents":6907,"Ġteac":6908,"ĠMet":6909,"Gener":6910,"general":6911,"Ġtend":6912,"Ġsaying":6913,"ĠSU":6914,"ricted":6915,"hl":6916,"Ġcategories":6917,"Util":6918,"Ġrecorded":6919,"Ġpaths":6920,"Ġbundle":6921,"property":6922,"1992":6923,"unch":6924,"!]":6925,"Ġsustain":6926,"Ġdetermin":6927,">>":6928,"flu":6929,"Ġorganization":6930,"Hel":6931,"ĠLou":6932,"Ġresist":6933,"Start":6934,"ĠMem":6935,"Ġsizes":6936,"iveness":6937,"ribe":6938,"MB":6939,"dep":6940,"Ġroll":6941,"bp":6942,"Ġcompat":6943,"Ġmedium":6944,"hfill":6945,"Ġmostly":6946,"fi":6947,"Ġcustomers":6948,"Ġtail":6949,"Ġorders":6950,"ette":6951,"Ġworkers":6952,"hang":6953,"Ġminor":6954,"ĠĠĠĠĠĠĠĠĠĠĠĠĠĠĠĠĠĠĠĠĠĠĠĠĠĠĠĠĠĠĠĠĠĠĠĠĠĠĠĠĠĠĠĠĠĠĠĠĠĠĠĠĠĠĠĠĠĠĠĠĠĠĠĠ":6955,"ĠStar":6956,"Ġshock":6957,"ĠAcad":6958,"RL":6959,"erior":6960,"Ġchallenges":6961,"Ġcommunities":6962,"indu":6963,"Ġcorrections":6964,"Ġpossibility":6965,"ĠTom":6966,"Ġcamp":6967,"weet":6968,"Ġlooks":6969,"cis":6970,"ditionally":6971,"Ġdetector":6972,"lead":6973,"ĠLy":6974,"ĠMus":6975,"ĠGeorge":6976,"circle":6977,"final":6978,"Ġturns":6979,"oom":6980,"Ġcat":6981,"Ġperturbation":6982,"reek":6983,"Ġpain":6984,"century":6985,"urday":6986,"Ġanalyz":6987,"road":6988,"PO":6989,"Rec":6990,"ĠEv":6991,"ĠPhys":6992,"oupl":6993,"Ġeventually":6994,"Ġdecided":6995,"arios":6996,"Ġsend":6997,"ducible":6998,"ĠBre":6999,"Ġmetal":7000,"Ġtemperatures":7001,"Builder":7002,"ĠEven":7003,"|^{":7004,"tw":7005,"Ġeigenvalues":7006,"bot":7007,"SF":7008,"ronic":7009,"cline":7010,"ĠBi":7011,"Ġdemonstrate":7012,"vere":7013,"adian":7014,"Ġgold":7015,"options":7016,"cope":7017,"comes":7018,"iling":7019,"Ġgeneric":7020,"Ġresponsible":7021,"Ġfeedback":7022,"Ġrational":7023,"Ġcamera":7024,"dem":7025,"ĠMer":7026,"HC":7027,"ĠUk":7028,"Ġbranch":7029,"Ġ{};":7030,"arams":7031,"Dep":7032,"Ġcapture":7033,"Ġshot":7034,"ĠBecause":7035,"Ġreserv":7036,"ras":7037,"Ġfluid":7038,"second":7039,"Ġfluctuations":7040,"ĠTwitter":7041,"ĠBrown":7042,"Ġlov":7043,"points":7044,"Ġdescribes":7045,"ĠLife":7046,"ĠBoth":7047,"Ġassuming":7048,"nol":7049,"ĠAdd":7050,"Ġdespite":7051,"ĠAG":7052,"ĠCam":7053,"Ġsimultane":7054,"Li":7055,"iden":7056,"Ġcharged":7057,"Ġdaught":7058,"icies":7059,"Ġbirth":7060,"Ġacts":7061,"ĠPet":7062,"Ġinteract":7063,"Ġconvert":7064,"Ġefforts":7065,"Ġatmosp":7066,"Ġreprodu":7067,"$\\\\":7068,"isson":7069,"Ġaw":7070,"client":7071,"iii":7072,"claim":7073,"Ġapparent":7074,"fort":7075,"Ġgravitational":7076,"Ġanom":7077,"corollary":7078,"ierarch":7079,"ĠHel":7080,"Ġagree":7081,"phantom":7082,"Ġplus":7083,"Ġpowerful":7084,"Check":7085,"ĠEducation":7086,"ĠLu":7087,"Ġrect":7088,"istan":7089,"Ġmanner":7090,"iment":7091,"there":7092,"Component":7093,"aus":7094,"Ġspot":7095,"Ġtransmission":7096,"Ġsen":7097,"Ġtrace":7098,"button":7099,"110":7100,"ĠProject":7101,"According":7102,"Ġstrategies":7103,"Ġdiagn":7104,"mom":7105,"PD":7106,"opes":7107,"prov":7108,"cover":7109,"Ġlocations":7110,"Ġexplo":7111,"allow":7112,"$.}":7113,"Ġdot":7114,"CK":7115,"etails":7116,"ĠSund":7117,"Ġbillion":7118,"plane":7119,"Ġfourth":7120,"ĠMary":7121,"ĠMiss":7122,"Ġpark":7123,"Ġdx":7124,"Ġregarding":7125,"Ġappeared":7126,"Buff":7127,"unfinished":7128,"Ġtoward":7129,"Ġregist":7130,"Oper":7131,"negative":7132,"ĠDuring":7133,"build":7134,"${":7135,"Ms":7136,"Ġtrees":7137,"ĠLand":7138,"isot":7139,"Ġcelebr":7140,"Ġready":7141,"Ġquarter":7142,"rins":7143,"Ġideas":7144,"ĠAcc":7145,"ounce":7146,"Ġrecommend":7147,"128":7148,"Base":7149,"ĠBig":7150,"Ġpush":7151,"ĠCarol":7152,"AE":7153,"Function":7154,"ĠMad":7155,"ĠRobert":7156,"ĠSuppose":7157,"Ġparents":7158,"Ġconfidence":7159,"ĠSl":7160,"Ġsuppose":7161,"ĠParty":7162,"ĠHy":7163,"BO":7164,"Ġmixing":7165,"enty":7166,"Ġcoupled":7167,"icine":7168,"relation":7169,"Ġquantity":7170,"imits":7171,"append":7172,"Ġcandidates":7173,"ĠTheir":7174,")(\\":7175,"adata":7176,"ruck":7177,"Ġbands":7178,"Cal":7179,"DD":7180,"ĠJew":7181,"Ġequality":7182,"ĠTop":7183,"Ġfarm":7184,"last":7185,"Ġspac":7186,"urity":7187,"Ġwife":7188,"Ġpandemic":7189,"Ġelim":7190,"ĠRE":7191,"full":7192,"Ġchance":7193,"ĠTor":7194,"Ġallowing":7195,"Ġprofiles":7196,"Ġsetup":7197,"Des":7198,"ĠSer":7199,"Ġchanging":7200,"Ġrare":7201,"Ġpropos":7202,"Ġprefer":7203,"unic":7204,"Ġcorrection":7205,"ĠUnion":7206,"project":7207,"Ġmale":7208,"ĠâĢ¦":7209,"footnotes":7210,"Label":7211,"Pa":7212,"request":7213,"ĠIsra":7214,"Block":7215,"Ġdedu":7216,"Ġmagnet":7217,"ĠLin":7218,"cluded":7219,"args":7220,"lectric":7221,"nat":7222,"semble":7223,"ographic":7224,"Ġalt":7225,"ĠSmith":7226,"ĠGermany":7227,"Ġiniti":7228,"airs":7229,")}(\\":7230,"sd":7231,"ĠOffice":7232,"Ġsummer":7233,"Ġdriving":7234,"aud":7235,"Ġcreating":7236,"ĠIts":7237,"textup":7238,"itors":7239,"Ġdense":7240,"Ġblood":7241,"Ġbrother":7242,"Ġstarts":7243,"Ġouter":7244,"Ġplas":7245,"header":7246,"clear":7247,"nections":7248,"footnotesize":7249,"Ġstorage":7250,"~(\\":7251,"Sche":7252,"Ġvacuum":7253,"Assum":7254,"Ġpolarization":7255,"Ġsuggested":7256,"src":7257,"Ġmetrics":7258,"oz":7259,"ji":7260,"eness":7261,"ĠJer":7262,"Ġsomew":7263,"Ġperiodic":7264,"Ġtraffic":7265,"GR":7266,"Ġboolean":7267,"esian":7268,"finite":7269,"Link":7270,"Ġsafe":7271,"Ġhands":7272,"ĠLat":7273,"lie":7274,"Ġtouch":7275,"Ġaffected":7276,"Ġtelevision":7277,"Ġfans":7278,"Ġdatabase":7279,"quant":7280,"Ġ\"\"\"":7281,"ĠEconom":7282,"Ġsubstant":7283,"*}[":7284,"ĠFlor":7285,"ean":7286,"Ġpaint":7287,"TC":7288,"Ġsecret":7289,"olar":7290,"1980":7291,"Ġprime":7292,"Ġcycl":7293,"aylor":7294,"Ġintegrated":7295,"standing":7296,"ĠSta":7297,"Ġsubgroup":7298,"lymp":7299,"\"]":7300,"Ġ<<":7301,"ponents":7302,"^*(":7303,"iful":7304,"scope":7305,"Ġmobile":7306,"'_{":7307,"Ġcommerc":7308,"ĠBet":7309,"Ġempir":7310,"inate":7311,"Ġdepict":7312,"Ġanc":7313,"Ġidentical":7314,"Ġemphas":7315,"ĠCentral":7316,"Ġdecrease":7317,"Case":7318,"formance":7319,"ĠFacebook":7320,"Ġexpressions":7321,"Ġserve":7322,"Ġuniformly":7323,"Ġsigned":7324,"ĠRussia":7325,"Ġentries":7326,"Ġvehicle":7327,"Ġnecessarily":7328,"Ġneutrino":7329,"Ġflex":7330,"ulse":7331,"Ġleader":7332,"Ġappoint":7333,"Ġnation":7334,"Ġsto":7335,"ĠNone":7336,"Ġcit":7337,"Ġcollected":7338,"ben":7339,"âĢĿ.":7340,"plet":7341,"orial":7342,"Ġnormalized":7343,"Ġrecords":7344,"ipped":7345,"ester":7346,"Ġreduces":7347,"Ġopened":7348,"{(\\":7349,"Sm":7350,"author":7351,"ME":7352,"hens":7353,"DR":7354,"Ġupdated":7355,"ĠAR":7356,"utation":7357,"ĠPlay":7358,"ĠJul":7359,"|$":7360,"never":7361,"notation":7362,"ativ":7363,"Ġenhance":7364,"ĠWeb":7365,"Ġpretty":7366,"ĠVer":7367,"else":7368,"Ġbirths":7369,"ĠConsider":7370,"hu":7371,"IST":7372,"Ġdependent":7373,"Ġmonitor":7374,"ĠMex":7375,"Ġepisode":7376,"Ġlens":7377,"Ġbaseline":7378,"mode":7379,"ĠDirector":7380,"ĠInformation":7381,"jecture":7382,"sts":7383,"Po":7384,"Ġpm":7385,"Ġconfigurations":7386,"yan":7387,"backslash":7388,"ola":7389,"Ġrig":7390,"Ġdiss":7391,"Ġreader":7392,"Ġnotion":7393,"dependence":7394,"care":7395,"Ġlock":7396,"Status":7397,"\\|_":7398,"comput":7399,"Ġfirm":7400,"Ġinstant":7401,"ĠIsland":7402,"ĠObject":7403,"ĠFriday":7404,"Ġfelt":7405,"Ġuniversal":7406,"Ġintegr":7407,"oton":7408,"Ġpackage":7409,"continu":7410,"LA":7411,"Ġfailed":7412,"Ġsold":7413,"Ġhappen":7414,"Ġadopted":7415,"HO":7416,"El":7417,"ĠCommit":7418,"Ġer":7419,"-(":7420,"ĠReturn":7421,"Ġrelig":7422,"Ġgrand":7423,"ĠJac":7424,"IO":7425,"}$\\":7426,"Ġthous":7427,"ĠTechnology":7428,"Ġiteration":7429,"Vis":7430,"Ġwonder":7431,"Wid":7432,"ĠEngine":7433,"Ġanyone":7434,"Ġbenefits":7435,"expected":7436,"wave":7437,"ucl":7438,"Ġmeas":7439,"Ġwavelength":7440,"ãģ":7441,"Ġbenefit":7442,"Ġindicated":7443,"Car":7444,"Ġreferred":7445,"meta":7446,"Ġbus":7447,"ĠLog":7448,"oday":7449,"ĠHistory":7450,"hor":7451,"ĠGreat":7452,"Ġphases":7453,"allet":7454,"ĠMil":7455,"Ġtight":7456,"Ġdiscrim":7457,"!!":7458,"hot":7459,"varrho":7460,"frame":7461,"Ġuncertainties":7462,"pons":7463,"Ġspent":7464,"Ġmoments":7465,"ĠHill":7466,"Ġimprovement":7467,"ĠDu":7468,"Ġisot":7469,"$^":7470,"ti":7471,"crit":7472,"Ġvoice":7473,")}.":7474,"Ġconvent":7475,"Ġgenerating":7476,"Ġmathemat":7477,"Ġhund":7478,"Ġdirections":7479,"ĠUSA":7480,"Ġindices":7481,"Ġlab":7482,"ĠTur":7483,"power":7484,"Ġmission":7485,"Ġgoals":7486,"iger":7487,"ingly":7488,"ĠServices":7489,"Ġcharacteristics":7490,"Ġmaster":7491,"Ġopening":7492,"Gl":7493,"stat":7494,"sych":7495,"ĠCommission":7496,"Ġlowest":7497,"Ġplease":7498,"Ġopposite":7499,"igration":7500,"arithm":7501,"Ġdegener":7502,"RR":7503,"ugin":7504,"Ġsupers":7505,"ogram":7506,"format":7507,"ĠThomas":7508,"ĠScott":7509,"Ġgeometric":7510,"regular":7511,"Ġsle":7512,"resp":7513,"Eng":7514,"1991":7515,"ĠAlgorithm":7516,"Number":7517,"Ġprecision":7518,"anda":7519,"ĠBu":7520,"Ġdeviation":7521,"arity":7522,"Ġnarrow":7523,"Em":7524,"Ġshell":7525,"Ġscenarios":7526,"Ġexplan":7527,"ĠAtt":7528,"support":7529,"Ġconfirmed":7530,"Ġinvestigation":7531,"jpg":7532,"Ð»":7533,"find":7534,"}{{\\":7535,"Ġeyes":7536,"empor":7537,"BM":7538,"Ġpred":7539,"Run":7540,"Ġinvolving":7541,"loc":7542,"gather":7543,"Ġfocused":7544,"&&\\":7545,"PM":7546,"Ġcovered":7547,"Ġconvolution":7548,"Ġdensities":7549,"Ġcryst":7550,"Ġessentially":7551,"âĢĺ":7552,"Ġ\\|\\":7553,"azine":7554,"ĠFourier":7555,"downarrow":7556,"appe":7557,"ĠBoard":7558,"Ġhalo":7559,"Ġexcell":7560,"Ġcalls":7561,"stackrel":7562,"oses":7563,"Return":7564,"amm":7565,"Ġsensitive":7566,"hent":7567,"True":7568,"ĠNor":7569,"tail":7570,"250":7571,"Sum":7572,"Ġconducted":7573,"usal":7574,"ATION":7575,"ĠMicro":7576,"ĠBank":7577,"ĠDE":7578,"ĠEnd":7579,"Ã¶":7580,"onday":7581,"Ġcoverage":7582,"Ġvisible":7583,"Ġsubt":7584,"Ġjoined":7585,"chor":7586,"Ġatta":7587,"si":7588,"ĠNULL":7589,"Ġquadratic":7590,"fa":7591,"west":7592,"Ġtriang":7593,"Ġ_{\\":7594,"Ġvillage":7595,"raine":7596,"ĠSD":7597,"ĠStep":7598,"ilation":7599,"Ġturb":7600,"Ga":7601,"]^":7602,"ĠChristian":7603,"Ġaware":7604,"Ġaggreg":7605,"sequently":7606,"eder":7607,"ĠSaturday":7608,"Local":7609,"Gu":7610,"uon":7611,"clip":7612,"Ġhuge":7613,"Ġintermediate":7614,"LC":7615,"Ġbalance":7616,"dule":7617,"Ġded":7618,"indows":7619,"&=&\\":7620,"Ġsky":7621,"Ġextremely":7622,"Ġplanning":7623,"Ġsun":7624,"shift":7625,"Ġfrequencies":7626,"binom":7627,"$&$":7628,"$\\,":7629,"isted":7630,"Ġattacks":7631,"Ġsensitivity":7632,"ĠVis":7633,"Ġbr":7634,"ĠTour":7635,"orig":7636,"Ġspan":7637,"mt":7638,"Ġkilled":7639,"xml":7640,"Ġordered":7641,"textnormal":7642,"ĠPan":7643,"Ġjoin":7644,"Ġfemale":7645,"Ġmolecular":7646,"igital":7647,"ĠGovernment":7648,"Ġsched":7649,"ERS":7650,"Ġdeb":7651,"Token":7652,"Ġwasn":7653,"sch":7654,"invariant":7655,"Some":7656,"Ġreaction":7657,"Ġpages":7658,"ipp":7659,"ĠKore":7660,"Other":7661,"Ġmill":7662,"Ġcancer":7663,"mf":7664,"ĠDevelopment":7665,"Ġsolving":7666,"Left":7667,"Ġconjug":7668,"Ser":7669,"mazon":7670,"Ġformulation":7671,"Ġleaves":7672,"just":7673,"ĠShow":7674,"Instance":7675,"Ġabsorption":7676,"rency":7677,"dens":7678,"Ġatoms":7679,"ato":7680,"parameters":7681,"background":7682,"Ġrecover":7683,"ĠClub":7684,"ĉĉĉĉĉĉĉĉ":7685,"Ġhappens":7686,"Ġinterpretation":7687,"Ġstraightforward":7688,"Ġliqu":7689,"Ġcontinuum":7690,"Ġfaster":7691,"Mon":7692,"Ġoil":7693,"aling":7694,"domain":7695,"tor":7696,"Ġlibrary":7697,"Ġpolicies":7698,"Ġtreated":7699,"Ġpool":7700,"Ġsports":7701,"Ġinfer":7702,"ĠWed":7703,"json":7704,"itness":7705,"ĠÎ":7706,"ĠMass":7707,"*/":7708,"instein":7709,"}/\\":7710,"Ġfitting":7711,"square":7712,"ĠMinister":7713,"Ġpatient":7714,"lik":7715,"ĠGood":7716,"$'":7717,"[\"":7718,"Ġnor":7719,"leftarrow":7720,"Ġtemporal":7721,"Ġconvers":7722,"Ġoffset":7723,"BR":7724,"green":7725,"ĠAfrican":7726,"direct":7727,"ĠEvery":7728,"001":7729,"ĠLagrangian":7730,"alian":7731,"Ġtag":7732,"Ġconclusion":7733,"apes":7734,"stood":7735,"Ġsides":7736,"Ġadvers":7737,"Ġtrial":7738,"ĠLear":7739,"ban":7740,"observ":7741,"ĠMethod":7742,"lower":7743,"})^{":7744,"Ġhomogeneous":7745,"Mat":7746,"Ġmarked":7747,"}.}":7748,"Ġcivil":7749,"ĠFrancis":7750,"Ġsales":7751,"ĠMarket":7752,"ffect":7753,".$$":7754,"ĠCR":7755,"$^{":7756,"obj":7757,"ture":7758,"uparrow":7759,"Ġcrucial":7760,"ubble":7761,"Ġlie":7762,"TO":7763,"Ġdiffusion":7764,"Ġsmart":7765,"Ġ+=":7766,"Ġalgebraic":7767,"GeV":7768,"Bo":7769,"ceil":7770,"Prov":7771,"Ġapart":7772,"Ġarriv":7773,"Ġdaily":7774,"ĠRoman":7775,"Am":7776,"Ġcommercial":7777,"Ġtranslation":7778,"Ġdemonstrated":7779,"Ġdeploy":7780,"std":7781,"apped":7782,"icular":7783,"Ġeffectively":7784,"Ġpractical":7785,"smallskip":7786,"Ġoperating":7787,"Ġsession":7788,"ramework":7789,"Ġanalytic":7790,"Ġshoot":7791,"cussion":7792,"ĠIII":7793,"Content":7794,"Ġwidely":7795,"ĉĠ":7796,"ald":7797,"Ġsave":7798,"look":7799,"Ġverify":7800,"Ġversus":7801,"Ġmur":7802,"Ġkept":7803,"Ġcontinues":7804,"uan":7805,"entry":7806,"Ġbra":7807,"ĠTimes":7808,"herical":7809,"ĠRec":7810,"Two":7811,"Ġaspects":7812,"eger":7813,"ĠSocial":7814,"$-$":7815,"ctic":7816,"Ġpossibly":7817,"Ġarc":7818,"Ġmodeling":7819,"world":7820,"Ġdecreases":7821,"ructions":7822,"ĠGrand":7823,"propto":7824,"possible":7825,"Ġ}}":7826,"ĠStand":7827,"AME":7828,"Ġproportional":7829,"Ġtopology":7830,"Ġelectrons":7831,"sep":7832,"Ġresearc":7833,"ĠMuseum":7834,"rastructure":7835,"ĠBill":7836,"Ġseparation":7837,"Ġemployees":7838,"Ġfont":7839,"Ġguid":7840,"ĠCorollary":7841,"Ġ((":7842,"=\\{":7843,"status":7844,"Ġopin":7845,"Handler":7846,"Ġmask":7847,"Home":7848,"ĠEnergy":7849,"Ġrevealed":7850,"Ġvariations":7851,"_{+":7852,")[":7853,"agram":7854,"ĠOper":7855,"Ġresidual":7856,"paper":7857,"Ġfederal":7858,"Ġ{$\\":7859,"Ġadm":7860,"Ġjour":7861,"DO":7862,"Ġletter":7863,"ala":7864,"Ġcompetition":7865,"Ġexpectation":7866,"icago":7867,"update":7868,"ĠSunday":7869,"multline":7870,"Ġpolynomials":7871,"Ġcontrols":7872,"Ġwild":7873,"pop":7874,"parallel":7875,"Ġsupply":7876,"REF":7877,"navbar":7878,"Ġcomplement":7879,"SH":7880,"Ġneutral":7881,"Options":7882,"Ġemerg":7883,"Ġfailure":7884,"Ġolder":7885,"Ġsongs":7886,"Although":7887,"BB":7888,"ĠVirgin":7889,"Ġcert":7890,"acent":7891,"Ġchoices":7892,"ĠWestern":7893,"Ġunless":7894,"Ġtransitions":7895,"Ġlaws":7896,"///":7897,"uesday":7898,"pload":7899,"ĠProv":7900,"Ġsurfaces":7901,"Ġprecise":7902,"lope":7903,"Ġple":7904,"Ġexpos":7905,"Ġinstances":7906,"Ġemployed":7907,"Ġcentre":7908,"midrule":7909,"Ġcontribute":7910,"Ġweighted":7911,"ermi":7912,"Ġ\\{\\":7913,",...,":7914,"Ġregression":7915,"Page":7916,"Ġorthogonal":7917,"ĠDM":7918,"iance":7919,"eless":7920,"Ġ\\[":7921,"rapy":7922,"Ġirreducible":7923,"Ġinitially":7924,"Ġparticipants":7925,"Ġeth":7926,"ĠSpace":7927,"180":7928,"zen":7929,"Ġboost":7930,"Hom":7931,"supp":7932,"ideos":7933,"ĠJose":7934,"eller":7935,"osc":7936,"Ġfib":7937,"Ġexcited":7938,"ĠFlorida":7939,"Ġderivatives":7940,"Ġfill":7941,"ĉĠĠĠ":7942,"Ġsummary":7943,"Ġhierarch":7944,"}^+":7945,"kern":7946,"ipment":7947,"Ġappearance":7948,"ortunately":7949,"ynamics":7950,"ĠSil":7951,"Ġclaims":7952,"ja":7953,"Ġtested":7954,"ĠPeople":7955,"Ġperhaps":7956,"itory":7957,"Us":7958,"Ġbill":7959,"theless":7960,"Ġinvestigated":7961,"Ġrepeated":7962,"cycl":7963,"Ġphone":7964,"ĠLong":7965,"Ġsystematic":7966,"Ġspecifically":7967,"phase":7968,"push":7969,"ĠCommittee":7970,"Ġcarbon":7971,"\\},":7972,"{|":7973,"organ":7974,"Ġincident":7975,"Ġrepresenting":7976,"ĠCD":7977,"private":7978,"Ġpuls":7979,"cean":7980,"aming":7981,"Ġdaughter":7982,"textsf":7983,"Ġbreaking":7984,"Ġviews":7985,"ĠMont":7986,"ipart":7987,"Ġthanks":7988,"asket":7989,"rinsic":7990,"Ġreasonable":7991,"Cref":7992,"Sec":7993,"Ġartist":7994,"Non":7995,"PRO":7996,"fold":7997,"ugment":7998,"Di":7999,"Ġwarm":8000,"Equal":8001,"Ġperforming":8002,"Work":8003,"rish":8004,"|_":8005,"AU":8006,"Ġjump":8007,"Ġelectronic":8008,"leqslant":8009,"Ġsubspace":8010,"stitution":8011,"ĠHen":8012,"ĠHome":8013,"Null":8014,"ĠMel":8015,"Ġacad":8016,"odies":8017,"different":8018,"Ġtick":8019,"ĠUs":8020,"Ġinclusion":8021,"document":8022,"Ġmorning":8023,"ĠOffic":8024,"ĠJo":8025,"ascript":8026,"CI":8027,"Ġcolumns":8028,"output":8029,"ĠBas":8030,"CF":8031,"Ġspirit":8032,"dash":8033,"Ġabsence":8034,"ipeline":8035,"Ġbudget":8036,"Ġhorizontal":8037,"YPE":8038,"ĠAustralian":8039,"ĠCy":8040,"Ġsociety":8041,"Ġheard":8042,"spe":8043,"600":8044,"Ġdiagrams":8045,"Resource":8046,")).":8047,"global":8048,"1989":8049,"Ġ---":8050,"Ġprincipal":8051,"Ġrandomly":8052,"Ġdog":8053,"ĠWomen":8054,"Default":8055,"represent":8056,"Var":8057,"asion":8058,"tz":8059,"Ġdominant":8060,"service":8061,"Ġtit":8062,"Ġrich":8063,"density":8064,"Ġmac":8065,"Buffer":8066,"Ġanalys":8067,"Ġreconstruction":8068,"Ġdispersion":8069,"Ġdefines":8070,"instance":8071,")_{\\":8072,"ĠMedia":8073,"ĠGener":8074,"ifted":8075,"response":8076,"Ġlooked":8077,"Proposition":8078,"sky":8079,"Factory":8080,"Ġcaref":8081,"have":8082,"Ġrestriction":8083,"Ġwat":8084,"cknowledg":8085,"\\}.":8086,"Ġdeaths":8087,"Ġchart":8088,"ĠPeter":8089,"control":8090,"ursday":8091,"Ġmatches":8092,"Ġdeliver":8093,"Ġmetall":8094,"Ġbenchmark":8095,"Ġcold":8096,"ĠBob":8097,"Each":8098,"since":8099,"forming":8100,"MT":8101,"Ġcorrelations":8102,"Load":8103,"tained":8104,"Ġassigned":8105,"Ġrail":8106,"Ġtang":8107,"Ġreality":8108,"Ġpurposes":8109,"Ġincome":8110,"sole":8111,"ativistic":8112,"nolimits":8113,"othing":8114,"Ġcollege":8115,"Ġuniverse":8116,"Ġsch":8117,"filter":8118,"gers":8119,"ĠManagement":8120,"Bbb":8121,"igan":8122,"arsh":8123,"Ġschemes":8124,"FONT":8125,"btn":8126,"Ġvote":8127,"buil":8128,"thick":8129,"Ġscores":8130,"Ġannual":8131,"Ġtrajectory":8132,"Ġsimulated":8133,"Ġelli":8134,"Ġconflic":8135,"riend":8136,"ĠAv":8137,"Ġradi":8138,"ĠSk":8139,"Ġpaid":8140,"ĠDet":8141,"Ġgenerator":8142,"KE":8143,"Ġprivacy":8144,"etch":8145,"Ġhybrid":8146,"ĠBur":8147,"Ġwants":8148,"alty":8149,"onald":8150,"anguages":8151,"Ġhospital":8152,"}},\\":8153,"160":8154,"Ġsea":8155,"Ġcharges":8156,"short":8157,"Ġanalyze":8158,"above":8159,"azz":8160,"256":8161,"ĠYoung":8162,"Ġeye":8163,"wt":8164,"Ġwriter":8165,"scape":8166,"ĠVict":8167,"rome":8168,"Ġperspective":8169,";\\;":8170,"Ġhorizon":8171,"Ġ{}":8172,"Ġorbital":8173,"}[!":8174,"raise":8175,"Ġexceed":8176,"Version":8177,"Ġacting":8178,"ĠNS":8179,"ĠNext":8180,"ĠGlobal":8181,")}$.":8182,"ella":8183,"ĠArmy":8184,"rounds":8185,"\\}_{":8186,"iemann":8187,"Ġchurch":8188,"hab":8189,"functions":8190,"Mem":8191,"ĠIS":8192,"ifold":8193,"Ġsecondary":8194,"Ġdefinitions":8195,"Ġinputs":8196,"Ġstrictly":8197,"Art":8198,"fered":8199,"ĠGR":8200,"Ġinvestment":8201,"Ġinstr":8202,"Ġenable":8203,"ĠLos":8204,"125":8205,"ĠSimilarly":8206,"Ġscope":8207,"Ġcloser":8208,"ĠOh":8209,"People":8210,"Ġice":8211,"ĠTown":8212,"Ġclinical":8213,"ĠSpe":8214,"ĠĠĠĠĠĠĠĠĠĠĠĠĠĠĠĠĠĠĠĠ":8215,"Ġsimilarly":8216,"measure":8217,"Ġuniqu":8218,"Ġthin":8219,"Open":8220,"Ġspeech":8221,"har":8222,"Ġcommut":8223,"imation":8224,"exists":8225,"hard":8226,"pic":8227,"Ġwest":8228,"Ġglob":8229,"duction":8230,"Ġ$^{":8231,"}^{+":8232,"ĠCH":8233,"apse":8234,"Ġwish":8235,"Ġvarying":8236,"LR":8237,"Ġexcess":8238,"mal":8239,"erman":8240,"Ġpresents":8241,"Ġalle":8242,"ĠEquation":8243,"ications":8244,"Ġdistances":8245,"ruit":8246,"Ġthrows":8247,"lat":8248,"ĠLake":8249,"ĠMonday":8250,"Ġepoch":8251,"Ġ..":8252,"take":8253,"aland":8254,"Ġmeta":8255,"Ġdomains":8256,"Ġdrug":8257,"Ġlabor":8258,"Ġcircum":8259,"Ġknew":8260,"ĠOlymp":8261,"Ġfav":8262,"Ġphoto":8263,"{.":8264,"Ġcodes":8265,"ni":8266,"Ġ~\\":8267,"ora":8268,"bigcup":8269,"aton":8270,"isl":8271,"_{[":8272,"Ġaccret":8273,"Ġadvert":8274,"Ġfinds":8275,"ĠComput":8276,"hs":8277,"Ġartists":8278,"Ġrestricted":8279,"Another":8280,"Ġencoura":8281,"PH":8282,"'.":8283,"pot":8284,"}{*}{":8285,"Ġleaving":8286,"ĠChild":8287,"Ke":8288,"Ĥ¬":8289,"Ġreferences":8290,"Ġzone":8291,"Mar":8292,"aved":8293,"^+$":8294,"ĠLine":8295,"ĠExp":8296,"ĠĠĠĠĠĠĠĠĠĠĠĠĠĠĠĠĠĠĠĠĠ":8297,"Ġcontrolled":8298,"Bigg":8299,"Ġinsert":8300,"TV":8301,"Ġoriginally":8302,"hem":8303,"INE":8304,"ĠProfess":8305,"SON":8306,"Create":8307,"layout":8308,"ĠRock":8309,"Ġattribute":8310,"Ġenvironmental":8311,"_{-\\":8312,"Ġinstrument":8313,"ĠBa":8314,"Ġnaturally":8315,"thon":8316,"phone":8317,"ĠPolicy":8318,"ĠRoyal":8319,"Ġhear":8320,"params":8321,"Ġclosely":8322,"verage":8323,"$&":8324,"Ġmarried":8325,"ĠLee":8326,"ĠUp":8327,"Ġlikelihood":8328,"Mark":8329,"subequations":8330,"ĠFrank":8331,"}>":8332,"when":8333,"Ġunderstood":8334,"Ġstronger":8335,"Ġswitch":8336,"Ġcriteria":8337,"Ġfunding":8338,"ĠSN":8339,"Ġwel":8340,"component":8341,"Ġextracted":8342,"ABLE":8343,"member":8344,"wa":8345,"ĠĠčĊ":8346,"WE":8347,"MO":8348,"ĠKn":8349,"ĠGames":8350,"Arg":8351,"ĠRun":8352,"Ġhour":8353,"oles":8354,"nesday":8355,"Ġbroken":8356,"Ġahead":8357,"ĠHead":8358,"rip":8359,"CN":8360,"problem":8361,"1970":8362,"Ġneutron":8363,"uzz":8364,"Command":8365,"Ġorganizations":8366,"Ġflag":8367,"Ġtransverse":8368,"Ġeditor":8369,"Acc":8370,"Ġopportunities":8371,"\\[\\":8372,"ĠCall":8373,"Ġsubsequent":8374,"Long":8375,"III":8376,"gar":8377,"ĠMany":8378,"800":8379,"Ġdivers":8380,"Ġfinished":8381,"Ġconcentration":8382,"Ġtoken":8383,"}{}":8384,"esides":8385,"elian":8386,"ĠGen":8387,"]=":8388,"ittle":8389,"Ġautomatically":8390,"Ġthread":8391,"Ġfigures":8392,"Ġpapers":8393,"Ġdivided":8394,")>":8395,"ĠStat":8396,"Ġproposition":8397,"Ġskills":8398,"Ġraised":8399,"ĠDivision":8400,"Ġrecognition":8401,"aby":8402,"})=\\":8403,"opyright":8404,"ĠHam":8405,"INT":8406,"ulating":8407,"below":8408,"Ġmedian":8409,"STATE":8410,"Ġinterior":8411,"issions":8412,"comb":8413,"defn":8414,"Ġstead":8415,"Ġconnections":8416,"Ġtemplate":8417,"fields":8418,"Ġchallenging":8419,"ĠExt":8420,"Ca":8421,"gal":8422,"Ġbusinesses":8423,"Ġstock":8424,"Ġcollision":8425,"Ġdiscovered":8426,"Ġratios":8427,"Ðº":8428,"Ġends":8429,"Ġhelped":8430,"atre":8431,"constra":8432,"ĠEX":8433,"Ġconsisting":8434,"WS":8435,"ĠTre":8436,"reland":8437,"Ġinference":8438,"ĠCongress":8439,"\").":8440,"ĠLouis":8441,"ĠJapanese":8442,"Ġfashion":8443,"Ġresonance":8444,"rg":8445,"Ġroughly":8446,"101":8447,"Ġalgebras":8448,"kins":8449,"ributed":8450,"Ġcreation":8451,"Ġmodules":8452,"Ġtopic":8453,"Ġcorpor":8454,"Ġsuccessfully":8455,"BE":8456,"life":8457,"ints":8458,"Ġinvolve":8459,"ĠCase":8460,"123":8461,"AF":8462,"nm":8463,"DI":8464,"Ġhelps":8465,"Ġroute":8466,"ĠIll":8467,"Ġinflation":8468,"Row":8469,"ĠSE":8470,"BH":8471,"Ġpanels":8472,")}$,":8473,"ART":8474,"ApJ":8475,"Child":8476,"assum":8477,"Ġ\\}":8478,"mean":8479,"note":8480,"risis":8481,"////////////////":8482,"Ġclick":8483,"Dist":8484,"Ġorientation":8485,"trivial":8486,"Ġmanager":8487,"Ġillustrated":8488,"Ġquot":8489,"alities":8490,"ĠCare":8491,"coin":8492,"ested":8493,"Ġversions":8494,"Comp":8495,"uple":8496,"ptr":8497,"Ġdeveloping":8498,"ste":8499,"bc":8500,"Ġforeign":8501,"Ġoffered":8502,"Ġcertainly":8503,"Ġdownload":8504,"ĠTim":8505,"Ġinvolves":8506,"ĠGame":8507,"pres":8508,"irection":8509,"Ġfermion":8510,"Med":8511,"ĠAcademy":8512,"Ġtried":8513,"History":8514,"card":8515,"ĠHilbert":8516,"1988":8517,"ifer":8518,"spin":8519,"Ġremember":8520,"uclide":8521,"Ġguide":8522,"sem":8523,"elligence":8524,"len":8525,"BL":8526,"âĢĿ,":8527,"nings":8528,"$}}":8529,"\\|^":8530,"Ġsimplicity":8531,"Ġimply":8532,"Ġpixel":8533,"Ġsphere":8534,"Ġsatell":8535,"ĠLead":8536,"Ġdefe":8537,"how":8538,"ĠCanadian":8539,"Ġcovering":8540,"Ġdominated":8541,"Ġvision":8542,"ĠWeek":8543,"ĠDefinition":8544,"Ġfits":8545,"ĠPower":8546,"ĠCle":8547,"tool":8548,"ĠJun":8549,"ĠAny":8550,"Ġempirical":8551,"Attribute":8552,"arden":8553,"particle":8554,"istence":8555,"ĠReport":8556,"Ġsimilarity":8557,"moment":8558,"Ġconv":8559,"Ġkids":8560,"ĠCommunity":8561,"Ġseconds":8562,"correspon":8563,"Ġfindings":8564,"Ġdie":8565,"ician":8566,"Ġrespective":8567,"Ġaccretion":8568,"ĠHor":8569,"ĠĠĠĠĠĠĠĠĠĠĠĠĊ":8570,"reference":8571,"Ġextent":8572,"states":8573,"bits":8574,"javascript":8575,"ĠTuesday":8576,"ĠRam":8577,"Ġphotons":8578,"ĠĠĠĠĠĠĠĠĠĠĠĠĠĠĠĠĠĠĠĠĠĠĠĠĠĠĠĠĠĠĠĠĠĠĠ":8579,"Ġdebut":8580,"reci":8581,"icians":8582,"John":8583,"ĠAM":8584,"thlet":8585,"ĠBack":8586,"Ġchiral":8587,"ogether":8588,"Ġrepresentative":8589,"Ġprepar":8590,"Ġintroduction":8591,"Ġdoub":8592,"ĠParis":8593,"Ġplasma":8594,"jected":8595,"1987":8596,"Ã¤":8597,"Ġwood":8598,"Ġcompatible":8599,"Ġdream":8600,"Ġensemble":8601,"Ġraise":8602,"Ġbrain":8603,"Ġsolved":8604,"Ġtransformations":8605,"ĠBr":8606,"ĠWay":8607,"Ġsumm":8608,"Ġcrow":8609,"conduct":8610,"grav":8611,"special":8612,"Ġissu":8613,"Ġpotentially":8614,"ĠHuman":8615,"uclidean":8616,"Ġstabil":8617,"Dec":8618,"Ġcharacterized":8619,"connected":8620,"UI":8621,"Ġparties":8622,"Ġeconomy":8623,"complete":8624,"afe":8625,"typ":8626,"Ġmechanisms":8627,"Ġestimator":8628,"rust":8629,"Ġcorner":8630,"ĠUV":8631,"period":8632,"Ġdivis":8633,"ws":8634,"Ġsimultaneously":8635,"Ġinduction":8636,"|_{\\":8637,"Ġowners":8638,"BI":8639,"Ġillustr":8640,"anish":8641,"strap":8642,"ĠUse":8643,"Ġidentification":8644,"Ġmessages":8645,"inction":8646,"Ġfra":8647,"ĠTaylor":8648,"ĠLibrary":8649,"Ġpassing":8650,"Ġexcellent":8651,"Ġlaunched":8652,"ĠChicago":8653,"ĠâĢ¢":8654,"Ġcir":8655,"Output":8656,"menu":8657,"Ġpartner":8658,"%)":8659,"Ġflows":8660,"Web":8661,"ĠAL":8662,"Cell":8663,"Ġproduces":8664,"curs":8665,"Ġdrawn":8666,"Ġcauses":8667,"Ġbecoming":8668,"Ġcouplings":8669,"even":8670,"Ġreward":8671,"Ġcommonly":8672,"Ġcatalog":8673,"intro":8674,"ĠAT":8675,"ĠAPI":8676,"Ġscript":8677,"Ġrefin":8678,"ublished":8679,"ady":8680,"Ġcoach":8681,"XX":8682,"track":8683,"root":8684,"Ġcosmological":8685,"ĠApple":8686,"Select":8687,"Ġdip":8688,"GA":8689,"Ġmoves":8690,"match":8691,"Ġeast":8692,"ĠAp":8693,"category":8694,"Ġamplitudes":8695,"Ġcomparable":8696,"'d":8697,"bur":8698,"}}\\,":8699,"DT":8700,"Ġnumerous":8701,"Ġdoor":8702,"Ġ{@":8703,"hav":8704,"GM":8705,"CON":8706,"ĠOnly":8707,"ĠLore":8708,"ĠTeam":8709,"igu":8710,"arest":8711,"Ġblog":8712,"Ġupdates":8713,"Ġlaunch":8714,"cords":8715,"amin":8716,"Ġatomic":8717,"inn":8718,"Ġcub":8719,"ĠAI":8720,"gets":8721,"Ġdiffer":8722,"ĠCEO":8723,"ye":8724,"Ġurl":8725,"Ġbon":8726,"Furthermore":8727,"ootstrap":8728,"Ġvort":8729,"riter":8730,"ĠAngeles":8731,"Ġfre":8732,"Ġblow":8733,"Ġcredit":8734,"Ġadvanced":8735,"Ġcritic":8736,"Ġsymbols":8737,"Ġbeautiful":8738,"sn":8739,"Ġposterior":8740,"Ġdra":8741,"odd":8742,"Ġconverges":8743,"also":8744,"Ġforced":8745,"ĠFree":8746,"Ġcomparing":8747,"Ġconvenient":8748,"\\,{\\":8749,"Ġlaser":8750,"itudes":8751,"Ġkinetic":8752,"learning":8753,"person":8754,"Ġhappened":8755,"cp":8756,"Ġdiscussions":8757,"astern":8758,"Ġeigenvalue":8759,"Ġgate":8760,"Valid":8761,"ĠCNN":8762,"Ġvehicles":8763,"Ġrestaur":8764,"ĠAnother":8765,"Ġcomposed":8766,"Script":8767,"Ġsignature":8768,"ĠEqs":8769,"Ġcitiz":8770,"comment":8771,"ĠFoot":8772,"ĠSi":8773,"cross":8774,"Ġdt":8775,"Ġintervals":8776,"Button":8777,"Ġpri":8778,"ĠHot":8779,"ĠFund":8780,"Ġconcerns":8781,"ĠKar":8782,"Ġur":8783,"vo":8784,"ĠCath":8785,"Ġconformal":8786,"Ġstationary":8787,"urable":8788,"pmb":8789,"phe":8790,"Ġexecution":8791,"Ġliquid":8792,"ĠDesign":8793,"Ġrequirement":8794,"Ġcomplicated":8795,"Ġgeneralization":8796,"layer":8797,"Ã¨":8798,"Ġorganized":8799,"ĠUN":8800,"FS":8801,"Ġduration":8802,"Ġdocuments":8803,"Ġkeeping":8804,"Ġdriven":8805,"racket":8806,"uning":8807,"Ġdamage":8808,"Ġisomorphic":8809,"Ġ<!--":8810,"imer":8811,"Ġprem":8812,"Tag":8813,"Ġdedicated":8814,"Definition":8815,"Ġwinning":8816,"cape":8817,"ĠDC":8818,"Ġarticles":8819,"Ġprices":8820,"ĠMur":8821,"ĠMartin":8822,"Ġcircuit":8823,"Ġfeas":8824,"respect":8825,"Style":8826,"Ġretrie":8827,"kit":8828,"nowledge":8829,"ĠZealand":8830,"Ġsubsection":8831,"plex":8832,"tages":8833,"elect":8834,"ĠAND":8835,"Ġextreme":8836,"ĠĠĠĠĠĠĠĠĠĠĠĠĠĠĠĠĠĠ":8837,"Ġrobot":8838,"Ġeasier":8839,"Ġemit":8840,"'$.":8841,"ORT":8842,"ĠPy":8843,"Ġship":8844,"approxim":8845,"Ġfear":8846,"Ġconventional":8847,"container":8848,"ĠNon":8849,"Ġinterpol":8850,"ĠColl":8851,"ãĥ":8852,"*\\":8853,"}})$":8854,"Controller":8855,"Ġprotection":8856,"Ġdefining":8857,"Ġfan":8858,"ads":8859,"radius":8860,"ĠIP":8861,"Ġarrest":8862,"Ġbary":8863,"ĠThursday":8864,"ĠChief":8865,"Ġlogarithm":8866,"Up":8867,"Ġapplies":8868,"ĠSciences":8869,"Column":8870,"ĠNY":8871,"Ġpowers":8872,"Ġfeet":8873,"vdots":8874,"Ġembedded":8875,"Bundle":8876,"Ġstatements":8877,"attr":8878,"groups":8879,"Ġdiscover":8880,"Ġvictim":8881,"ĠKingdom":8882,"wan":8883,"Step":8884,"bd":8885,"........":8886,"usband":8887,"arial":8888,"ĠInstead":8889,"Ġreconstruct":8890,"lan":8891,"Ġconditional":8892,"Ġtwice":8893,"Ġsupports":8894,"Ġhistorical":8895,"}~\\":8896,"Format":8897,"citealt":8898,"impl":8899,"Also":8900,"olars":8901,"GE":8902,"Ġoutcome":8903,"Ġswit":8904,"lm":8905,"Are":8906,"tax":8907,"Ġcompre":8908,"1986":8909,"wer":8910,"Ġfunctor":8911,"dashed":8912,"BU":8913,"iced":8914,"rog":8915,"Ġboundaries":8916,"Ġaudio":8917,"Ġstands":8918,"Ġdestroy":8919,"Ġthinking":8920,"Contain":8921,"Ġofficials":8922,"FO":8923,"Ġaudience":8924,"Ġdecays":8925,"DL":8926,"Ġfiber":8927,"inity":8928,"liography":8929,"ĠNet":8930,"=-\\":8931,"Ġdriver":8932,"Ġroots":8933,"Ġprobabilities":8934,"valued":8935,"ented":8936,"Ġdecades":8937,"SV":8938,"Ġlabeled":8939,"Why":8940,"ĠCheck":8941,"uty":8942,"ĠSpring":8943,"Ġresearchers":8944,"Ġrenormal":8945,"Bu":8946,"Ġclustering":8947,"ĠArts":8948,"ĠVirginia":8949,"ĠLove":8950,"ĠOld":8951,"ĠWell":8952,"notin":8953,"acle":8954,"Ġvalidation":8955,"Ġsell":8956,"BP":8957,"ĠQCD":8958,"Ġrelationships":8959,"Ġentirely":8960,"triang":8961,"sample":8962,"ĠIsrael":8963,"Upsilon":8964,"Ġjobs":8965,"ĠMC":8966,"ĠWood":8967,"Ġframes":8968,")),":8969,"ĠJud":8970,"ĠAmazon":8971,"Ġslope":8972,"ĠCentre":8973,"Ġsomewhat":8974,"ĠSecret":8975,"Ġfresh":8976,"Ġresidents":8977,"will":8978,"MF":8979,"Ġvideos":8980,"ĠCLASS":8981,"Ġfaith":8982,"anglement":8983,"Ġtracks":8984,"ĠJoe":8985,"zy":8986,"irror":8987,"ĠCamp":8988,"Ġconference":8989,"Tem":8990,"Ġsevere":8991,"\\/":8992,"acific":8993,"Ġdefect":8994,"bolic":8995,"requency":8996,"Ġgenerators":8997,"gray":8998,"remove":8999,"vironments":9000,"ulas":9001,"Ġbelongs":9002,"ĠTO":9003,"ĠBra":9004,"scriptscriptstyle":9005,"Ġbatter":9006,"Ġdecisions":9007,"ĠCharles":9008,"specific":9009,"iana":9010,"Ġpseudo":9011,"Ġequipment":9012,"}&\\":9013,"modules":9014,")&":9015,"Before":9016,"lets":9017,"Ġseparated":9018,"Ġbattle":9019,"iders":9020,"uv":9021,"ĠCast":9022,"Ġbuildings":9023,"Ġcities":9024,")|\\":9025,"Search":9026,"ĠAgain":9027,"unders":9028,"Ġaugment":9029,"enses":9030,"ĠCho":9031,"inem":9032,"heric":9033,"Ġiterations":9034,"Ġsharing":9035,"ulator":9036,"ĠPoisson":9037,"Ġglass":9038,"ĠInvest":9039,"Under":9040,"ĠIreland":9041,"Ġreads":9042,"urban":9043,"modal":9044,"imately":9045,"Ġexerc":9046,"ali":9047,"network":9048,"hr":9049,"pin":9050,"Ġflight":9051,"Ġtransaction":9052,"Ste":9053,"Ġdecreasing":9054,"ĠPoint":9055,"Ġcolour":9056,"ĠLast":9057,"Listener":9058,"ĠSecurity":9059,"liament":9060,"Ġfamous":9061,"ĠWednesday":9062,"Update":9063,"Ġdanger":9064,"independent":9065,"Ġabstract":9066,"ĠNat":9067,"Address":9068,"Ġfloor":9069,"Book":9070,"Ġcontradiction":9071,"razil":9072,"Ġbuffer":9073,"allery":9074,"ĠView":9075,"Ġmeant":9076,"ĠGeorg":9077,"Ġsenior":9078,"Ġran":9079,"ulner":9080,"Ġchief":9081,"clos":9082,"ĠJohnson":9083,"mo":9084,"ĠArab":9085,"ĠResults":9086,"Pack":9087,"Ġapplicable":9088,"Dat":9089,"ĠPenn":9090,"eties":9091,"Ġanisot":9092,"ĠPC":9093,"ribed":9094,"ĠLo":9095,"ĠJones":9096,"ĠFermi":9097,"closed":9098,"Main":9099,"inator":9100,"ibilities":9101,"vas":9102,"ACK":9103,"ĠJim":9104,"jk":9105,"stone":9106,"Ġconsult":9107,"Ġnine":9108,"riage":9109,"^*_":9110,"Ġlanguages":9111,"urance":9112,"ĠML":9113,"ailed":9114,"Current":9115,"Level":9116,"1984":9117,"fortunately":9118,"Ã¢":9119,"Ġnative":9120,"May":9121,"ione":9122,"ĠKey":9123,"Ġrows":9124,"Ġscientific":9125,"found":9126,"blem":9127,"Ġgeodes":9128,"Ġcultural":9129,"ĠUkraine":9130,"Ġowner":9131,"ultural":9132,"').":9133,"should":9134,"sg":9135,"Ġcustomer":9136,"ortion":9137,"Ġcolors":9138,"Ġholes":9139,"'}\\":9140,"Ġconfirm":9141,".}\\":9142,"ĠCarolina":9143,"}}=\\":9144,"Ġadjacent":9145,"Ġwhom":9146,"Ġpropagation":9147,"UM":9148,"})_{":9149,"phy":9150,"Ġtargets":9151,"Ġcav":9152,"ircraft":9153,"Ġattributes":9154,"Ġguess":9155,")}_{\\":9156,"ĠOR":9157,"Ġund":9158,"words":9159,"}<":9160,"sym":9161,"cycle":9162,"Ġprotein":9163,"Task":9164,"poly":9165,"ĠSpecial":9166,"ĠNE":9167,"izable":9168,"determ":9169,"Sym":9170,"ĠAst":9171,"Ġsentence":9172,"Ġconservation":9173,"HD":9174,"Ġbiggest":9175,"ĠItalian":9176,"PN":9177,"Ġnice":9178,"Ġnom":9179,"tically":9180,"weak":9181,"aset":9182,"Ġrout":9183,"COL":9184,"Ġunitary":9185,"asketball":9186,"\\,,":9187,"Ġburn":9188,"Ġray":9189,"Ġclients":9190,"cules":9191,"Ġplotted":9192,"')$":9193,"Ġwhenever":9194,"ima":9195,"Ġperturbations":9196,"Ġintegers":9197,"ĠRichard":9198,"Ġbg":9199,"Ġended":9200,"Bigl":9201,"ĠPak":9202,"ĠTem":9203,"rypt":9204,"eper":9205,"Ġinfrastructure":9206,"Ø§":9207,"255":9208,"|=":9209,"esh":9210,"1985":9211,"loss":9212,"ĠFestival":9213,"ĠVictor":9214,"aug":9215,"Ġadvance":9216,"fr":9217,"Ġcollisions":9218,"Ġaccounts":9219,"IE":9220,"ĠMA":9221,"CODE":9222,"arn":9223,"Ġdescript":9224,"Ġanimals":9225,"Phys":9226,"ĠBuil":9227,"Ġindependently":9228,"ĉĉĉĊ":9229,"Ġheav":9230,"Ġsplitting":9231,"Rightarrow":9232,"ĠValley":9233,"\"),":9234,"ĠHREF":9235,"Ġtrajectories":9236,"Ġexperiences":9237,"ĠEnter":9238,"bour":9239,"forcement":9240,"ĠCA":9241,"Ġlargely":9242,"ĠLicense":9243,"Ġstructural":9244,"Ġheter":9245,"inking":9246,"former":9247,"hole":9248,"sen":9249,"common":9250,"ĠMarkov":9251,"single":9252,"mathbbm":9253,"ĠMexico":9254,"Ġmiles":9255,"Ġfilled":9256,"Ġles":9257,"ĠAbout":9258,"ĠDirac":9259,"ĠBol":9260,"Ġ}{\\":9261,"ĠColor":9262,"URL":9263,"Ġbed":9264,"require":9265,"```":9266,"ĠWal":9267,"ictionary":9268,"Ġsurve":9269,"Ġcars":9270,"Ġpixels":9271,"Ġrecovery":9272,"grade":9273,"Recall":9274,"Ġearth":9275,"Ġnearby":9276,"Ġhappy":9277,"Ġwitness":9278,"ĠFamily":9279,"ĠFurther":9280,"Ġorbits":9281,"Equals":9282,"Sing":9283,"aml":9284,"irus":9285,"Ġdoll":9286,"}\\;":9287,"estic":9288,"iy":9289,"complex":9290,"Ġangles":9291,"Ġspherical":9292,"ĠMen":9293,"Ġdefense":9294,"ĠNever":9295,"icks":9296,"Length":9297,"fast":9298,"water":9299,"ulty":9300,"ãĤ":9301,"Ġhash":9302,"bro":9303,"Stat":9304,"ĠMonte":9305,"aka":9306,"Ġplate":9307,"ĠTer":9308,"initial":9309,"'),":9310,"Ġseeing":9311,"herence":9312,"ĠRiemann":9313,"limit":9314,"alf":9315,"random":9316,"Ġplots":9317,"Ġaffine":9318,"styles":9319,"Conn":9320,"ERR":9321,"Ñĥ":9322,"between":9323,"substack":9324,"ĠJacob":9325,"Ġencoding":9326,"Ġdiscret":9327,"offset":9328,"Ġtells":9329,"ĠEU":9330,"ĠSom":9331,"umps":9332,"aux":9333,"dual":9334,"ĠLocal":9335,"Down":9336,"ĠFilm":9337,"Ġ$\\|":9338,"Ġful":9339,"Ġexhibit":9340,"ĠItaly":9341,"ql":9342,"ĠOnce":9343,":</":9344,"Ġfuel":9345,"estion":9346,"marg":9347,"Ġinsp":9348,"flat":9349,")=(":9350,"Ġpartially":9351,"aneous":9352,"orders":9353,"gery":9354,"yer":9355,"Ġsupporting":9356,"Ġsmallest":9357,"ĠWilson":9358,"Ġatom":9359,"Ġnormalization":9360,"Ġclaimed":9361,"ĠDev":9362,"GS":9363,"newline":9364,"Ġboy":9365,"QL":9366,"isters":9367,"ĠWhy":9368,"Men":9369,"kers":9370,"Ġcone":9371,"Ġcovariance":9372,"'=":9373,"Ġattend":9374,"RS":9375,"Ġphil":9376,"Ġinspired":9377,"iano":9378,"Ġdistinguish":9379,"Ġsecure":9380,"ĠBern":9381,"ordan":9382,"Ġimmediate":9383,"Ġtechnologies":9384,"Ġleadership":9385,"'$,":9386,"<?":9387,"pool":9388,"ĠWater":9389,"ligible":9390,"Ġspacetime":9391,"Ġgun":9392,"channel":9393,"orrow":9394,"ova":9395,"coordin":9396,"standard":9397,"Ġturbul":9398,"Target":9399,".},":9400,"Ġprogramming":9401,"oidal":9402,"Ġsurrounding":9403,"ĠId":9404,"Ġleague":9405,"isy":9406,"Frame":9407,"ĠSpanish":9408,"ĠAsia":9409,"Ġpsych":9410,"Ġpieces":9411,"Ġuns":9412,"ĠRa":9413,"ĠHa":9414,"(&":9415,"pain":9416,"Any":9417,"ttp":9418,"ela":9419,"ĠÂ£":9420,"perturb":9421,"ĠPolice":9422,"Ġswe":9423,")|^":9424,"Ġcomprehens":9425,"ĠMS":9426,"Ġseed":9427,"Ġcondens":9428,"Ġfacilities":9429,"idal":9430,"Mode":9431,"Ġmm":9432,"ĠCr":9433,"ictures":9434,"Bigr":9435,"uer":9436,"Ġemot":9437,"endif":9438,"Ġanalyzed":9439,"Ġadministration":9440,"Ġvanishes":9441,"Ġproperly":9442,"BF":9443,"Ġcomfort":9444,"enced":9445,"lfloor":9446,"rfloor":9447,"AND":9448,"Ġdescribing":9449,"Ġwire":9450,"emporary":9451,"Ġperiods":9452,"ĠBlue":9453,"ĠSO":9454,"Ġbegins":9455,"eval":9456,"Ġexposure":9457,"Ġprojective":9458,"Ġsexual":9459,"Ġsubsets":9460,"Dev":9461,"Ġspring":9462,"than":9463,"Ġintended":9464,"Filter":9465,"RC":9466,"Acknowledg":9467,"language":9468,"riminal":9469,"ĠGre":9470,"Ġbriefly":9471,"Ġcooper":9472,"Layout":9473,"rateg":9474,"drop":9475,"Ġraw":9476,"Ġexplanation":9477,"ativity":9478,"alls":9479,"tn":9480,"cerning":9481,"Gr":9482,"Ġdeli":9483,"Ġpet":9484,"bounded":9485,"ĠInternet":9486,"########":9487,"ĠHistor":9488,"Ġdisjoint":9489,"ĠSand":9490,"Ġrealized":9491,"Ġprison":9492,"Ġisolated":9493,"}))":9494,"ĠRail":9495,"Ġsigns":9496,"Ġreviews":9497,"Ġnan":9498,"Prop":9499,"Ġworst":9500,"Ġindicating":9501,"grid":9502,"Ġpeace":9503,"Ġfacilit":9504,"IB":9505,"Met":9506,"Sign":9507,"Ġrapidly":9508,"uries":9509,"EQ":9510,"Port":9511,"ĠNO":9512,"ĠRo":9513,")}=":9514,"aten":9515,"Ġabundance":9516,"amed":9517,"Ġpointed":9518,"Ġnotes":9519,"Ġ&$":9520,"vskip":9521,"Ġneur":9522,"Ġcoast":9523,"Ġmanaged":9524,"task":9525,"ĠExec":9526,"uing":9527,"Ġmaybe":9528,"Ġintrinsic":9529,"triangle":9530,"Ġsteady":9531,"ĠPDF":9532,"ĠDigital":9533,"owski":9534,"@{}":9535,"Ġlatent":9536,"Ġfaces":9537,"ĠImage":9538,"uling":9539,"GP":9540,"Ġ$[\\":9541,"wp":9542,"âĢ¢":9543,"plicit":9544,"ntz":9545,"Red":9546,"ĠSC":9547,"Ġhusband":9548,"pref":9549,"Ġkinem":9550,"Ver":9551,"Ġ**":9552,"Ev":9553,"ĠAGN":9554,"Ġentity":9555,"Ġchoosing":9556,"Ġpresc":9557,"Ġextensive":9558,"ienced":9559,"numer":9560,"parse":9561,"Ġfavorite":9562,"Ġdivision":9563,"Ġpractices":9564,"Ġanalytical":9565,"]^{":9566,"Ġdelivery":9567,"ĠAwards":9568,"1960":9569,"ĠMedical":9570,"Ġenvironments":9571,"ouds":9572,"artifact":9573,"Ġcovers":9574,"theory":9575,"Ġsegmentation":9576,"Ġassociation":9577,"Pat":9578,"Ġbroadcast":9579,"Ġprimarily":9580,"Ġsparse":9581,"Sl":9582,"ĠMajor":9583,"iro":9584,"Ñı":9585,"ĠOrgan":9586,"Ġpopulations":9587,"ĠSaint":9588,"Ġremained":9589,"osoph":9590,"Description":9591,"slam":9592,"Ġpulse":9593,"utr":9594,"ĠFre":9595,"oving":9596,"prim":9597,"ĠArray":9598,"Ġfif":9599,"Ġoutcomes":9600,"Ġstages":9601,"Ġcriterion":9602,"classes":9603,"including":9604,"Ġworse":9605,"ifiers":9606,"ĠDown":9607,"ĠAud":9608,"Ġ[]":9609,"ĠChristmas":9610,"ubb":9611,"Ġweap":9612,"roscopic":9613,"Tree":9614,"unte":9615,"Ġengineering":9616,"Ġweather":9617,"Ġconsistency":9618,"buf":9619,"stud":9620,"lb":9621,"homology":9622,"Ġisland":9623,"Ġlic":9624,"ĠLink":9625,"tb":9626,"Ġreducing":9627,"}\\!":9628,"umul":9629,"series":9630,"Ġgone":9631,"Ġ(\"":9632,"Ġsharp":9633,"Second":9634,"ccc":9635,".(\\":9636,"ĠCard":9637,"NC":9638,"Will":9639,"ĠConference":9640,"Ġsale":9641,"utch":9642,"ĠLight":9643,"ĠHon":9644,"Ġoutputs":9645,"Assume":9646,"ĠAssume":9647,"Ġentertain":9648,"kg":9649,"chitz":9650,"Ġcircular":9651,"Ġhomot":9652,"simple":9653,"Ġcontroller":9654,"iliary":9655,"Ġshut":9656,"req":9657,"Ġstations":9658,"entity":9659,"&-":9660,"antly":9661,"kip":9662,"iline":9663,"Ġstandards":9664,"ĠChampionship":9665,"Ġforest":9666,"ðŁ":9667,"anner":9668,"Living":9669,"Ġ{{\\":9670,"Ġtrip":9671,"udd":9672,"General":9673,"each":9674,"Offset":9675,"iser":9676,"!âĢĿ":9677,"aste":9678,"During":9679,"Ġsho":9680,"ĠWhe":9681,"Ġimaging":9682,"sv":9683,"Ġoutper":9684,"Ġdiverse":9685,"Ġaccepted":9686,"utor":9687,"oped":9688,"Ġarise":9689,"total":9690,"Ġweakly":9691,"Ġordinary":9692,"~(":9693,"Ġharmonic":9694,"1983":9695,"Don":9696,"ocy":9697,"Ġmit":9698,"umes":9699,"supervised":9700,"Ġpil":9701,"Ġconsideration":9702,"Ġfounded":9703,"Ġpeaks":9704,"Ġrealistic":9705,"abet":9706,"Ġdepartment":9707,"Ġstreet":9708,"Ġjourney":9709,"Enc":9710,"Ð¼":9711,"Ġtalking":9712,"ĠAnalysis":9713,"sharp":9714,"Ġcounterpart":9715,"Ġtrunc":9716,"ĠAuthor":9717,"family":9718,"ĠSar":9719,"eld":9720,"before":9721,"Ġtracking":9722,":(":9723,"agn":9724,"Ġcoherent":9725,"Ġ$$\\":9726,"Ġmarkets":9727,"Ġthousands":9728,"ĠPass":9729,"TP":9730,"Ġguarantee":9731,"physical":9732,"Ġfinish":9733,"ĠLO":9734,"conv":9735,"}.\\":9736,"Ġportion":9737,"TA":9738,"ĠAdv":9739,"ĠMiddle":9740,"ĠEuclidean":9741,"ĠConn":9742,"Ġmarketing":9743,"yd":9744,"Ġcooling":9745,"ĠJoseph":9746,"Ġpromin":9747,"Ġcaptured":9748,"potential":9749,"Ġenables":9750,"imb":9751,"Opt":9752,"Ġcha":9753,"Ġexponent":9754,"Ġsemantic":9755,"Ġoffering":9756,"idel":9757,"atever":9758,"Ġfunds":9759,"Ġdil":9760,"Ġneither":9761,"arian":9762,"Ġdeduce":9763,"ĠStart":9764,"ĠWin":9765,"Ġappreci":9766,"Ġclassic":9767,"iki":9768,"ranch":9769,"resol":9770,"isen":9771,"Ġmoder":9772,"Ġproven":9773,"Ġenhanced":9774,"\\-":9775,"Ġordering":9776,"Ġcouldn":9777,"Ġimplicit":9778,"redit":9779,"ĠForce":9780,"ett":9781,"Ġantic":9782,"Ġdiversity":9783,"ĠIndust":9784,"utely":9785,"Ġcollaboration":9786,"Ġbgcolor":9787,"ĠBal":9788,"Ġdwar":9789,"ĠCur":9790,"ĠAP":9791,"Ġknows":9792,"Ġvocal":9793,"Ġinfo":9794,"ificial":9795,"irt":9796,"aped":9797,"ĠMath":9798,"Ġanalogous":9799,"proto":9800,"through":9801,"Ġremote":9802,"ĠField":9803,"Ġpp":9804,"rance":9805,"Ġcallback":9806,"EP":9807,"ĠBase":9808,"Ġforecast":9809,"Ġstored":9810,"Ġopinion":9811,"ĠNOT":9812,"ĠCross":9813,"=\"../../../../../":9814,"brane":9815,"Ġstudio":9816,"Ġcompens":9817,"MI":9818,"entric":9819,"{[":9820,"site":9821,"Ġcorrespondence":9822,"ĠSche":9823,"Ġreplic":9824,"Ġreliable":9825,"Ġtourn":9826,"Ġsituations":9827,"exec":9828,"ĠLike":9829,"ĠMot":9830,"ĠEnt":9831,"Ġviewed":9832,"rapper":9833,"oston":9834,"Ġadmits":9835,"driv":9836,"iner":9837,"Ġmanip":9838,"1982":9839,"Ġinterference":9840,"Ġpossess":9841,"CV":9842,"Ġvelocities":9843,"ĠTri":9844,"ĠArg":9845,"odcast":9846,"Ð²":9847,"uable":9848,"Ġhardware":9849,"=(\\":9850,"Ġseparately":9851,"token":9852,"enter":9853,"ĠFile":9854,"ĠVan":9855,"Ġcycles":9856,"Ġexamine":9857,"'',":9858,"ĠStudies":9859,"Ġlinearly":9860,"endar":9861,"ucky":9862,"subfloat":9863,"Ġprobe":9864,"ĠDue":9865,"Ġillustrate":9866,"Ġrely":9867,"ĠPop":9868,"files":9869,"Ġbits":9870,"Ġlinked":9871,"lay":9872,"ĠSign":9873,"IGN":9874,"Ġsynthetic":9875,"Ġtriangle":9876,"Similarly":9877,"Ġnonzero":9878,"hskip":9879,"Ġ}$":9880,"Ġdisplayed":9881,"Ġcrisis":9882,"Ġclosure":9883,"ĠBir":9884,"Par":9885,"Url":9886,"Ġ!==":9887,"ZE":9888,"Op":9889,"placement":9890,"ĠCode":9891,"changed":9892,"Ġhab":9893,"itan":9894,"plain":9895,"Ġtruly":9896,"Ġsuffices":9897,"access":9898,"Ġcorrelated":9899,"adium":9900,"overset":9901,"Ġbrings":9902,"Because":9903,"Ġrefers":9904,"_.":9905,"oping":9906,"Ġcounts":9907,"oids":9908,"ĠIran":9909,"Ġprepared":9910,"ĠCP":9911,"GG":9912,"ĠWho":9913,"}_+":9914,"mic":9915,"Ġstuff":9916,"Ġdram":9917,"Ġimpossible":9918,"inating":9919,"ĠBow":9920,"connect":9921,"ĠRay":9922,"Cache":9923,"experim":9924,"ceived":9925,"construct":9926,"Ġ$<":9927,"Ġcollapse":9928,"ĠReal":9929,"connection":9930,"ĠCov":9931,"})-":9932,"renew":9933,"Vol":9934,"^-$":9935,"Ġbatch":9936,">,":9937,"Ġvulner":9938,"Gen":9939,"Ġrecurs":9940,"ĠDate":9941,"$(\\":9942,"Bas":9943,"Ġinvert":9944,"Rad":9945,"Ġaveraged":9946,"eros":9947,"ĠSports":9948,"Ġmathematical":9949,"onym":9950,"Ġmountain":9951,"Ġholding":9952,"Ġspeaking":9953,"ushed":9954,"Ġtrigger":9955,"ĠRequ":9956,"ctx":9957,"Ã§":9958,"ressive":9959,"Ġaux":9960,"ĠFort":9961,"ipation":9962,"ĠMean":9963,"ĠNa":9964,"=\"../../":9965,"Provider":9966,"Ġactor":9967,"larg":9968,"Ġ×":9969,"Ġmel":9970,"onto":9971,"inet":9972,"'}$":9973,"you":9974,"Ġfacility":9975,"Ġrespond":9976,"ĠThrough":9977,"Ġgenus":9978,"Ġpresentation":9979,"Ġconcerned":9980,"ĠGL":9981,"Ġcapable":9982,"\\|_{\\":9983,"Ġpercentage":9984,"Ġrating":9985,"Ġfacts":9986,"Jan":9987,"Ġofficer":9988,"Ġplants":9989,"metric":9990,"istically":9991,"ĠFederal":9992,"enger":9993,"noise":9994,"equal":9995,"Ġmarginal":9996,"Ġ})":9997,"HTML":9998,"ouch":9999,"]]":10000,"rations":10001,"autoref":10002,"Width":10003,"ĠKim":10004,"ĠBH":10005,"Ġinduces":10006,"Ġsensor":10007,"ĠPage":10008,"Ġguitar":10009,"Ac":10010,"was":10011,"inson":10012,"counter":10013,"Ġmal":10014,"}=(":10015,"region":10016,"Ġmental":10017,"Ġinfinity":10018,"Ġproves":10019,"Types":10020,"$_{\\":10021,"resize":10022,"analysis":10023,"returns":10024,"Ġissued":10025,"Ġmys":10026,"Rev":10027,"UV":10028,"ĠRecords":10029,"rugg":10030,"Ġspl":10031,"ican":10032,"Ġconsumption":10033,"RT":10034,"onav":10035,"Ġcircles":10036,"ĠEngineering":10037,"ĠWilliams":10038,"Ġformalism":10039,"ĠAdam":10040,"reds":10041,"oust":10042,"friend":10043,"Ġcalling":10044,"induced":10045,"Just":10046,"Ġintegrals":10047,"ĠÂ»":10048,"Ġreflection":10049,"Ġskin":10050,"shape":10051,"WH":10052,"Ġsynchron":10053,"Ġlosses":10054,"ĉĉĉĉĉĉĉ":10055,"Ġasymptot":10056,"frared":10057,"prototype":10058,"oir":10059,"Ġlived":10060,"Ġyourself":10061,"Ġanomal":10062,"Ġmotor":10063,"Ġ\\,,":10064,"Ġplatforms":10065,"dz":10066,"Ġgender":10067,"Ġhomomorphism":10068,"Ġchampions":10069,"ansas":10070,"Ġelected":10071,")!":10072,"ĠAff":10073,"Ġoverlap":10074,"ĠBan":10075,"^+\\":10076,"rase":10077,"centerline":10078,"Ġfamili":10079,"Project":10080,"kind":10081,"Ġfeeling":10082,"Ġfrequently":10083,"Ġrevers":10084,"ĠEst":10085,"matic":10086,"Ġthr":10087,"Ġce":10088,"About":10089,"Ġannot":10090,"three":10091,"Experim":10092,"ĠJeff":10093,"lr":10094,"Ġhair":10095,"ĠEvent":10096,"okes":10097,"vertex":10098,"Ġdraft":10099,"Example":10100,"shell":10101,"hered":10102,"ĠName":10103,"profile":10104,"$--":10105,"Server":10106,"Ġconstrained":10107,"Ġcopies":10108,"itage":10109,"ĠAdminist":10110,"}(-":10111,"))$.":10112,"Fix":10113,"Best":10114,"ĠKen":10115,"deep":10116,"Ġedition":10117,"Parameter":10118,"Ġfeatured":10119,"Ġ^{\\":10120,"rival":10121,"KS":10122,"Ġreplacing":10123,"ĠCas":10124,"}_{{\\":10125,"Process":10126,"degree":10127,"ĠEnvironment":10128,"Ġquotient":10129,"holder":10130,"Ġperforms":10131,"Ġgiant":10132,"ipschitz":10133,"Ġcancell":10134,"ami":10135,"Ġtriple":10136,"ĠBiden":10137,"Ġteacher":10138,"Ġtransmit":10139,"hyper":10140,"ĠFood":10141,"Most":10142,"=\"-":10143,"Ġclassifier":10144,").}":10145,"Ġalloc":10146,"Ġsurprising":10147,"Ġlift":10148,"ĠChris":10149,"Ġinjury":10150,"ĠSupport":10151,"Ġexperts":10152,"ĠFar":10153,"Ġstudying":10154,"Ġconcepts":10155,"Dr":10156,"}}}$":10157,"Ġthermod":10158,"omer":10159,"factor":10160,"Ġconjecture":10161,"displaymath":10162,"imod":10163,"Ġoccurred":10164,"umni":10165,"wall":10166,"bell":10167,",~":10168,"Ġshares":10169,"ĠFootball":10170,"isting":10171,"Ġacademic":10172,"Ġboson":10173,"heet":10174,"ĠMike":10175,"ĠFollowing":10176,"aded":10177,"Previous":10178,"Den":10179,"Ġwaiting":10180,"ĠSummer":10181,"Ġsleep":10182,"Vari":10183,"cently":10184,"ALL":10185,"Ġmonot":10186,"Ġranges":10187,"tics":10188,"ĠFact":10189,"Ġviolence":10190,"Access":10191,"Ġagreed":10192,"EEE":10193,"Ġgenerality":10194,"111":10195,"athan":10196,"ĠWall":10197,"uniform":10198,"gment":10199,"Ġprompt":10200,"Ġhyperbolic":10201,"ĠRemark":10202,"ĠDO":10203,"Ġvot":10204,"hou":10205,"ĠLord":10206,"ĠCON":10207,"orney":10208,"Fin":10209,"Ġdiameter":10210,"ĠCorpor":10211,"Ġchair":10212,"ĠJon":10213,"Multi":10214,",.":10215,"ĠCatholic":10216,"130":10217,"Ġexpanded":10218,"Based":10219,"Ġdy":10220,"Ġstrings":10221,"ĠHaw":10222,"ĠSV":10223,"ĠMic":10224,"Ġentanglement":10225,"ĠLim":10226,"Ġstret":10227,"predict":10228,"orough":10229,"andra":10230,"plectic":10231,"omet":10232,"Ġsettle":10233,"Ġcas":10234,"ĠAdditionally":10235,"Ġfant":10236,"Ġconsec":10237,"amber":10238,"Ġexperienced":10239,"None":10240,"ĠAD":10241,"Ġdetermines":10242,"Ġdeformation":10243,"++)":10244,"artifactId":10245,"},{\\":10246,"Ġinform":10247,"Ġnewly":10248,"ĠMichigan":10249,"Ġutility":10250,"Ġ{{":10251,"tim":10252,"types":10253,"Ġprocedures":10254,"ĠBrazil":10255,"EV":10256,"tered":10257,"1981":10258,"pset":10259,"ĠSoft":10260,"1979":10261,"ĠTrue":10262,"outs":10263,"ĠGrant":10264,"Ġbutton":10265,"Ġexpensive":10266,"Ġamounts":10267,"ĠMeV":10268,"fixed":10269,"aked":10270,"Que":10271,"osa":10272,"none":10273,"ĠNGC":10274,"Ġinterpreted":10275,"Ġsampled":10276,":\"":10277,"}}}{":10278,"Following":10279,"Range":10280,"fg":10281,"Comparison":10282,"Ġamaz":10283,"ĠAmericans":10284,"ĠRight":10285,"Ġbid":10286,"Ġgenerates":10287,"tensor":10288,"Ġ\\#":10289,"Use":10290,"Ġsep":10291,"alaxy":10292,"Ġlogic":10293,"Ġmusical":10294,"Ġassessment":10295,"Ġproposal":10296,"ĠMedicine":10297,"Ġusage":10298,"Ġconfin":10299,"Ġaims":10300,"\\,.":10301,"SN":10302,"double":10303,"gi":10304,"holds":10305,"tex":10306,"ĠPR":10307,"%;":10308,"ĠĠĠĠĠĠĊ":10309,"ĠSP":10310,"Ġobj":10311,"ĠControl":10312,"rob":10313,"Ġserves":10314,"ĠSpecifically":10315,"given":10316,"ĠLearning":10317,"STM":10318,"Ġcombining":10319,"enum":10320,"ĠNav":10321,"ĠHenry":10322,"Ġobst":10323,"Ġmesh":10324,"ĠMain":10325,"Ġbelieved":10326,"Ġsubsc":10327,"ĠLab":10328,"Ġformulas":10329,"fn":10330,"aki":10331,"Ġcombinations":10332,"={\\":10333,"Ġfinitely":10334,"Ġaren":10335,"Ġlicense":10336,"ĠBell":10337,"cov":10338,"Ġbars":10339,"}_{(":10340,"satisf":10341,"Ã³n":10342,"Ġroles":10343,"ĠAndrew":10344,"Ġdiscovery":10345,"dest":10346,"coupl":10347,"Det":10348,"Ġcorrectly":10349,"Ġsight":10350,")\\,\\":10351,"mathds":10352,"oster":10353,"Ġfitted":10354,"Ġofficers":10355,"Ġembeddings":10356,"oned":10357,"Ġcrossing":10358,"Ġanimal":10359,"oute":10360,"Ġactivation":10361,"Location":10362,"Ġresistance":10363,"Ġfilename":10364,"Ġequals":10365,"}\\}$":10366,"à¥":10367,"Dav":10368,"vable":10369,"Ġarms":10370,"Ġscored":10371,"Ġexcitation":10372,"Ġpotentials":10373,"orient":10374,"seq":10375,"140":10376,"Exec":10377,"GD":10378,"Ġcompletion":10379,"stances":10380,"media":10381,"Ġnumerically":10382,"(|":10383,"Ġtopics":10384,"_{{":10385,"ĠMcC":10386,"cceed":10387,"Ġescape":10388,"Ġclassified":10389,"ĠMulti":10390,"underset":10391,"etary":10392,"idents":10393,"Ġmolecules":10394,"ostic":10395,"bool":10396,"abric":10397,"Dir":10398,"Ġren":10399,"Ġpit":10400,"Ġintersect":10401,"Ġrestrictions":10402,"template":10403,"ĠExample":10404,"Ġsport":10405,"Ġtack":10406,"ĠEmp":10407,"Ġpatch":10408,"High":10409,"Ġvariant":10410,"ĠTH":10411,"ugins":10412,"ĠCart":10413,"hook":10414,"renewcommand":10415,"vc":10416,"ĠSenate":10417,"Ġkick":10418,"ĠSto":10419,"ariate":10420,"onavirus":10421,"Ġcosmic":10422,"Ġcoal":10423,"separ":10424,"elescope":10425,"Ġfloat":10426,"ĠMu":10427,"ĠMicrosoft":10428,"Ġelementary":10429,"Ġfellow":10430,"ĠFrancisco":10431,"ĠPA":10432,"Ġha":10433,"success":10434,"Track":10435,"____":10436,"ĠElect":10437,"distribution":10438,"cluding":10439,"Ġresponses":10440,"Ġking":10441,"idential":10442,"\\!\\!\\!\\!":10443,"ĠDaniel":10444,"Ġuniversity":10445,"Ġannounce":10446,"NG":10447,"online":10448,"Ġmanage":10449,"Ġequipped":10450,"Ġhelpful":10451,"Ġmob":10452,"Ġpy":10453,"Ġargue":10454,"Ġmyself":10455,"teness":10456,"analy":10457,"Ġchains":10458,"ĠCarlo":10459,"transform":10460,"Ġseek":10461,"ospit":10462,"ĠOrder":10463,"Ġcere":10464,"Ġencoder":10465,"hash":10466,"ĠSwed":10467,"Ġreceiving":10468,"Ġentered":10469,"********************************":10470,"NT":10471,"window":10472,"training":10473,"charge":10474,"Every":10475,"ĠSup":10476,"Ġschedule":10477,"Ġatmosphere":10478,"Ġhydrogen":10479,"Graph":10480,"ori":10481,"ĠEinstein":10482,"ĠPacific":10483,"Ġbridge":10484,"Ġrelaxation":10485,"Ġunstable":10486,"ĠIV":10487,"good":10488,"Ġecho":10489,"Ġaircraft":10490,"^{[":10491,"Direct":10492,"Ġmonitoring":10493,"Ġinstability":10494,"Ġregional":10495,"rf":10496,"Ġkill":10497,"Ġpurchase":10498,"upper":10499,"ĠHT":10500,"Chang":10501,"Ġped":10502,"Ġsupposed":10503,"Ġcrime":10504,"Ġcitizens":10505,"consistent":10506,"trim":10507,"Ġstim":10508,"patch":10509,"Ġreaders":10510,"')\\":10511,"Ġcentered":10512,"Ġhelping":10513,"CG":10514,"cludes":10515,"Write":10516,"Ġcart":10517,"security":10518,"Ġlisten":10519,"groupId":10520,"lu":10521,"ĠObserv":10522,"ĠIT":10523,"respectively":10524,"lementary":10525,"rugs":10526,"dden":10527,"ĠEp":10528,"Schema":10529,"Ġregister":10530,"Ġadvoc":10531,"isition":10532,"ĠNAS":10533,"Ġcounty":10534,"sa":10535,"Ġcod":10536,"ĠNight":10537,"ĠProcess":10538,"Ġsympt":10539,"Ġtens":10540,"Ġseemed":10541,"written":10542,"eting":10543,"ethe":10544,"Ġdispl":10545,"Sw":10546,"abeth":10547,"Ġdisappe":10548,"Ġneighbour":10549,"Ġphenomenon":10550,"Ġmultip":10551,"Ġhousing":10552,"Ġmere":10553,"ĠThree":10554,"ipe":10555,"FP":10556,"compact":10557,"Ġbond":10558,"Ġadvent":10559,"Ġsole":10560,"ĠLabor":10561,"orous":10562,"resource":10563,"Control":10564,"Cs":10565,"ailability":10566,"Ġprojected":10567,"Ġanalyses":10568,"Ġvirt":10569,"ito":10570,"Ġbodies":10571,"properties":10572,"Ġhumans":10573,"ĠOrig":10574,"Ġtheme":10575,"Ġhero":10576,"Ġ::":10577,"dif":10578,"equival":10579,"Ġspend":10580,"Ġcuts":10581,"Â©":10582,"Ġmanufacture":10583,"Ġaccessible":10584,"present":10585,"Ġconclusions":10586,"obe":10587,"Ġintroducing":10588,"ello":10589,"creasing":10590,"Ġinvariance":10591,"ampling":10592,"Ġpreced":10593,"Ġcalibration":10594,"ĠJes":10595,"Ġfragment":10596,"Ġ>=":10597,"ĉčĊ":10598,"(_":10599,"Ġmultipl":10600,"iate":10601,"Ġfeat":10602,"Ġdisorder":10603,"aws":10604,"ĠHospital":10605,"ylvan":10606,"ila":10607,"Ġfle":10608,"ĠJustice":10609,"ĠAsian":10610,"Ġkid":10611,"ĠColumb":10612,"ĠLorentz":10613,"bigskip":10614,"Ġsucceed":10615,"Ġobservables":10616,"iday":10617,"riers":10618,"Ġera":10619,"KL":10620,"Ġcommission":10621,"constant":10622,"ĠRepublican":10623,"ĠAccess":10624,"some":10625,"Ġvanishing":10626,"Ġweekend":10627,"*{-":10628,"prise":10629,"Utils":10630,"ĠMah":10631,"Ġens":10632,"Ġvictory":10633,"Ġvaccine":10634,"Ġrevenue":10635,"Ġcolle":10636,"Ġpoll":10637,"Ġexecutive":10638,"temperature":10639,"ĠReturns":10640,"ĠMach":10641,"ĠPerson":10642,"Ġnegligible":10643,"ĠHand":10644,"oral":10645,"Posted":10646,"issue":10647,"utils":10648,"Ġpump":10649,"ockey":10650,"Ġyouth":10651,"gypt":10652,"ĠScot":10653,"trained":10654,"Ġherself":10655,"Ġ$-$":10656,"Ġfusion":10657,"Ġseat":10658,"Change":10659,"Ġrequests":10660,"Entity":10661,"Ġacceleration":10662,"ses":10663,"ograp":10664,"Ġsignificance":10665,"gred":10666,"Pass":10667,"Ġfulfill":10668,"ĠSa":10669,"ĠStandard":10670,"similar":10671,"105":10672,"ĠRights":10673,"Ġprofession":10674,"Ġagency":10675,"Ġattempts":10676,"Sol":10677,"Ġsubjects":10678,"Ġpermit":10679,"ĠPrem":10680,"Pop":10681,"ĠRadio":10682,"utable":10683,"Av":10684,"Ġslowly":10685,"Ġmechanical":10686,"Ġappearing":10687,"Ġultra":10688,"Ġreaches":10689,"Ġproducing":10690,"Click":10691,"Ġrev":10692,"ilinear":10693,"gls":10694,"ĠFour":10695,"Ġpadding":10696,"HR":10697,"Ġriver":10698,"Ġindustrial":10699,"ĠSouthern":10700,"Ġconflict":10701,"ĠBased":10702,"}$).":10703,"sb":10704,"Ġtab":10705,"Ġregularization":10706,"iamond":10707,"Ġfamiliar":10708,"lab":10709,"ĠIslam":10710,"optimal":10711,"jet":10712,"abolic":10713,"Ġelliptic":10714,"Ben":10715,"Spe":10716,"Thread":10717,"ĠDar":10718,"Many":10719,"Mc":10720,"uri":10721,"bad":10722,"Ġinit":10723,"ĠMid":10724,"ĠFire":10725,"vy":10726,"ĠMD":10727,",(":10728,"ĠMov":10729,"ĠGar":10730,"OO":10731,"icial":10732,"Ġsegments":10733,"]_{":10734,"360":10735,"Ġderivation":10736,"Ġfeasible":10737,"Ġexplains":10738,"rable":10739,"Ġacquired":10740,"Ġeffectiveness":10741,"()->":10742,"sun":10743,"Ġtotally":10744,"ĠProfessor":10745,"1978":10746,"Ġdialog":10747,"Ġreligious":10748,"Bs":10749,"Ġassets":10750,"}|^":10751,"asp":10752,"bes":10753,"Â°":10754,"Ġmixture":10755,"Ġfish":10756,"Ġposted":10757,"Ġau":10758,"older":10759,"isons":10760,"ulf":10761,"Ġpermutation":10762,"Ġpal":10763,"toprule":10764,"coll":10765,"Ġna":10766,"}}^{(":10767,"ĠCreate":10768,"BD":10769,"Bi":10770,"Ġsudden":10771,")}^":10772,"Ġ)$":10773,"device":10774,"solid":10775,"ĠGuide":10776,"112":10777,"API":10778,"Ġelev":10779,"angular":10780,"})(":10781,"Ġappointed":10782,"NL":10783,"Ġpurely":10784,"}}+":10785,"asi":10786,"ĠWalk":10787,"ĠJewish":10788,"Ġadvice":10789,"ĠAction":10790,"ĠSupp":10791,"Ġinstitutions":10792,"ĠĠĠĠĠĠĠĠĠĠĠĠĠĠĠĠĠĠĠĠĠĠĠĠ":10793,"Ġloops":10794,"mages":10795,"quality":10796,"Ġaccum":10797,"Ġargs":10798,"Ġimprovements":10799,"encing":10800,"adi":10801,"Ġefficiently":10802,"Si":10803,"Ġincreasingly":10804,"doi":10805,"ĠNumber":10806,"Ġlen":10807,"Ġongoing":10808,"email":10809,"Ġpipeline":10810,"Ġdecide":10811,"Ġlose":10812,"Ġpolitics":10813,"ĠRecall":10814,"Ġshear":10815,"AGE":10816,"essel":10817,"Ġbinding":10818,"\\'{":10819,"ĠAssembly":10820,"ivered":10821,"ificate":10822,"Ġcomprehensive":10823,"photon":10824,"Unit":10825,"âĤ¬":10826,"Ġbeat":10827,"Ġplanned":10828,"Ġsan":10829,"ĠToday":10830,"ĠPlease":10831,"ĠBG":10832,"ĠSpain":10833,"Ġpot":10834,"ivation":10835,"Jo":10836,"riction":10837,"Ġafford":10838,"pson":10839,"ĠSqu":10840,"Ġbare":10841,"Configuration":10842,"Ġ\\}$":10843,"Del":10844,"conc":10845,"Further":10846,"Order":10847,"VER":10848,"Full":10849,"Ġmort":10850,"resolution":10851,"Ġrenew":10852,"Ġrecognized":10853,"disc":10854,"ez":10855,"ĠMap":10856,"Ġsatellite":10857,"]);":10858,"UL":10859,"folio":10860,"Ġmultiplication":10861,"Ġscan":10862,"dp":10863,"internal":10864,"eman":10865,"Ġcache":10866,"ĠPolit":10867,"ĠWindows":10868,"ĠHard":10869,"Ġ\\:":10870,"Ġtends":10871,"Font":10872,"Ġgirls":10873,"polar":10874,"ĠPakistan":10875,"700":10876,"Ġcash":10877,"Ġawarded":10878,"ĠNewton":10879,"Ġrid":10880,"xrightarrow":10881,"both":10882,"Ġdecade":10883,"1976":10884,"ĠRic":10885,"kh":10886,"Ġaccompl":10887,"Ġphotos":10888,"central":10889,"1977":10890,"+|":10891,"Ġchecked":10892,"Ġnearest":10893,"%,":10894,"Ġsymmetries":10895,"Ġlimitations":10896,"kens":10897,"Ġalignment":10898,"Ġproton":10899,"Ġbath":10900,"Position":10901,"Ġrecording":10902,"NY":10903,"ati":10904,"adel":10905,"tot":10906,"ĠCarl":10907,"Pan":10908,"ĠTerm":10909,"itter":10910,"Ġconsequences":10911,"Ġwww":10912,"Ġnarr":10913,"Document":10914,"tml":10915,"sys":10916,"spaces":10917,"FM":10918,"focus":10919,"ĠPS":10920,"Ġvoltage":10921,"enance":10922,"Ġensures":10923,"ĠNorthern":10924,"Ġreveals":10925,"Ġextensions":10926,"uated":10927,"leading":10928,"Ġuint":10929,"ĠMaster":10930,"cha":10931,"HL":10932,"because":10933,"home":10934,"ĠLive":10935,"protect":10936,"ilipp":10937,"Ġreact":10938,"ĠText":10939,"ĠĠĠĠĠĠĠĠĠĠĠĠĠĠĠĠĠĠĠĠĠĠ":10940,"Ġkeys":10941,"ĠNotice":10942,"Ġsubs":10943,"Params":10944,"Ġfails":10945,"Ġconsumer":10946,"Ġmoduli":10947,"Entry":10948,"):=\\":10949,"ĠGeorgia":10950,"Ġmock":10951,"Ġdescent":10952,"vm":10953,"aya":10954,"Ġadversarial":10955,"Ġretain":10956,"ĠTR":10957,"Ġexplos":10958,"Ġauthent":10959,"ategories":10960,"Stud":10961,"Ġwinter":10962,"ĠBang":10963,"\\}}":10964,"join":10965,"Ġsand":10966,"Ġregistered":10967,"Ġurban":10968,"Ġsubstantial":10969,"night":10970,"uality":10971,"horiz":10972,"Ġteaching":10973,"roke":10974,"Ġtradition":10975,"Where":10976,"ĠAndroid":10977,"Ġcreative":10978,"Ġincred":10979,"Dom":10980,"Ġposit":10981,"Ġds":10982,"ears":10983,"cloud":10984,"Tube":10985,"ĠTro":10986,"ylvania":10987,"ĠIrish":10988,"Ġram":10989,"driven":10990,"Ġchapter":10991,"Ġvirus":10992,"Ġgather":10993,"Ġterrit":10994,"Ġtrends":10995,"gov":10996,"rn":10997,"Ġclouds":10998,"orb":10999,"ĠBoston":11000,"pture":11001,"Ġdepicted":11002,"âĢī":11003,"Ġcenters":11004,"FOR":11005,"elly":11006,"Ġserving":11007,"Ġsett":11008,"ifting":11009,"'(\\":11010,"jections":11011,"setlength":11012,"ĠFunction":11013,"Ġsear":11014,"Ġbow":11015,".'":11016,"Ġshifts":11017,"isks":11018,"Ġdeterministic":11019,"Ġsouthern":11020,"ĠFair":11021,"Header":11022,"Gs":11023,"margin":11024,"Ġextraction":11025,"Ġneighbors":11026,"ĠMO":11027,"itud":11028,"lined":11029,"$=":11030,"frequency":11031,"eqq":11032,"?:":11033,"Hash":11034,"Ġvariability":11035,"Ġadministr":11036,"ĠĠĠĠĠĠĠĠĠĠĠĠĠĠĠĠĠĠĠĠĠĠĠĠĠ":11037,"nic":11038,"ĠInf":11039,"COLOR":11040,"ĠJackson":11041,"Ġpublication":11042,"ruption":11043,"ĠStan":11044,"Ġacid":11045,"border":11046,"~~~~~~~~":11047,"BT":11048,"Ġ\\\\[":11049,"Ġunity":11050,"NP":11051,"Height":11052,"Ġarises":11053,"bibliography":11054,"Ġ(+":11055,"pay":11056,"ĠMinistry":11057,"Ġachieves":11058,"Ġxml":11059,"efficient":11060,"Ġaccident":11061,"stylesheet":11062,"Ġinequalities":11063,"Ġclock":11064,"=#":11065,"Ġinsight":11066,"Bel":11067,"Ġconnecting":11068,">$":11069,"Ġadapted":11070,"ampion":11071,"onom":11072,"yes":11073,"Ġwalls":11074,"ĠRet":11075,"Ġtrig":11076,"ä¸":11077,"}^{(\\":11078,"material":11079,"Ġperformances":11080,"ĠDat":11081,"Ġwouldn":11082,"Const":11083,"Ġarrang":11084,"Ġpayment":11085,"Ġreporting":11086,"Ġexplored":11087,"Author":11088,"Ġcombine":11089,"Interface":11090,"ego":11091,"ishop":11092,"nc":11093,"erry":11094,"Ġcommitted":11095,"ador":11096,"ĠKorea":11097,"Ġconcerning":11098,"leftrightarrow":11099,"1975":11100,"Ġimaginary":11101,"Ġdivergence":11102,"Ġobservable":11103,"ĠFlo":11104,"Ġqueries":11105,"Ġfractional":11106,"Ġfewer":11107,"vv":11108,"}]\\":11109,"Ġguy":11110,"icons":11111,"isc":11112,"Even":11113,"Ġabsolutely":11114,"ĠWhere":11115,"/.":11116,"lers":11117,"Ġlists":11118,"Ġĉ":11119,"ĠGirl":11120,"Ġhealthy":11121,"Figures":11122,"ĠBefore":11123,"Ġadds":11124,"chester":11125,"missible":11126,"',\\":11127,"}}-":11128,"aks":11129,"Ġcancel":11130,"eh":11131,"Ġà¤":11132,"Ġequally":11133,"ĠOnline":11134,"ĠLittle":11135,"Container":11136,"ĠCT":11137,"Ġflavor":11138,"ĠFac":11139,"akers":11140,"}]$":11141,"river":11142,"Ġsingularity":11143,"sig":11144,"Ġsister":11145,"illy":11146,"ĠRen":11147,"Ġdropped":11148,"Dem":11149,"Ġletters":11150,")~\\":11151,"Ma":11152,"Ġdifficulty":11153,"ĠTrust":11154,"Ġwealth":11155,"ĠOl":11156,"ACT":11157,"Ġmand":11158,"Ġcohomology":11159,"Ġbattery":11160,"Ġassignment":11161,"Ġsuperconduct":11162,"article":11163,"Ġdotted":11164,"Ġcro":11165,"dynamic":11166,"Ġpin":11167,"}$;":11168,"ĠImm":11169,"anti":11170,"isms":11171,"figs":11172,"Ġaid":11173,"}}\\\\":11174,"Ð´":11175,"ĠEuler":11176,"Ġelastic":11177,"Ġarrived":11178,"romise":11179,"Ġinterests":11180,"?\"":11181,"Ġabelian":11182,"Ġultimately":11183,"hd":11184,"Ġauxiliary":11185,"Plan":11186,"ĠCat":11187,"Ġwatching":11188,"Ġprovider":11189,"izabeth":11190,"Ġpursu":11191,"ratio":11192,"Ġconcrete":11193,"Ġfilters":11194,"degener":11195,"pet":11196,"Ġlocalization":11197,"Ġrein":11198,"Ġcompetitive":11199,"igate":11200,"pf":11201,"ĠMountain":11202,"ĠHD":11203,"cam":11204,"Ġdetermination":11205,"Ġlimiting":11206,"ANT":11207,"Ġcontainer":11208,"framework":11209,"rovers":11210,"ĠFull":11211,"1950":11212,"Ġrefere":11213,"lywood":11214,"Ñĭ":11215,"ĠHo":11216,"Ġarrive":11217,"Est":11218,"Ġconsecutive":11219,"ĠSaf":11220,"Ġinstalled":11221,"redu":11222,"Ġinfection":11223,"pur":11224,"Ġpose":11225,"Ġancient":11226,"essions":11227,"Google":11228,"Empty":11229,"ĠOhio":11230,"Ġowned":11231,"Ġcreates":11232,"cache":11233,"Ġtorus":11234,"Properties":11235,"about":11236,"ĠHom":11237,"ĠNC":11238,"Ġkinds":11239,"onia":11240,"Ġjets":11241,"Ġtangent":11242,"orsion":11243,"Once":11244,"mond":11245,"STR":11246,"Ġreverse":11247,"htbp":11248,"ĠDespite":11249,"ĠCamb":11250,"AY":11251,"Ġplanets":11252,"})}\\":11253,"ĠDun":11254,"ĠFuture":11255,"PY":11256,"Ġadmit":11257,"Ġvaluable":11258,"address":11259,"1974":11260,"scious":11261,"ĠTw":11262,"Ġingred":11263,"Ġimproving":11264,"Ġban":11265,"Ġment":11266,"}}+\\":11267,"debug":11268,"Ġacknowled":11269,"stage":11270,"distance":11271,"nesota":11272,"Indeed":11273,"depth":11274,"Ġgreatest":11275,"Ġwinner":11276,"docs":11277,"quark":11278,"GO":11279,"move":11280,"Ġfermions":11281,"kov":11282,"ĠSL":11283,"Cap":11284,"%%":11285,"Ġoscillations":11286,"Ġstrugg":11287,"ĠBul":11288,"Ġperman":11289,"ĠDemocratic":11290,"ped":11291,"panel":11292,"game":11293,"Ġstanding":11294,"Ġautomorphism":11295,"ĠWat":11296,"ĠPri":11297,"Ġcollective":11298,"lix":11299,"Ġunable":11300,"Ġliber":11301,"buffer":11302,"send":11303,"Ġattached":11304,"agen":11305,"Ġpole":11306,"[{\\":11307,"uu":11308,"Ġfault":11309,"Ġnorthern":11310,"uchy":11311,"Ġsees":11312,"Ġven":11313,"ĠUnivers":11314,"Ġcapabilities":11315,"Ġknot":11316,"'-":11317,"manifold":11318,"Har":11319,"World":11320,"Ġhomes":11321,"Ġmil":11322,"Ġdefinitely":11323,"Only":11324,"ois":11325,"Ġ),":11326,"ĠSky":11327,"Ġsin":11328,"ropical":11329,"Ġrom":11330,"ĠPut":11331,"bigoplus":11332,"OK":11333,"Ġtum":11334,"Ġphon":11335,"Ġoperate":11336,"ĠPhot":11337,"ĠLook":11338,"GAN":11339,"PRE":11340,"cost":11341,"Tags":11342,")/\\":11343,"Ġexercise":11344,"Ġvice":11345,"Settings":11346,"Lin":11347,"Ġtournament":11348,"Ġiron":11349,"sis":11350,"Ġputting":11351,"Ġprev":11352,"Comb":11353,"ĠBon":11354,"aware":11355,"ĠWild":11356,"Ġshel":11357,"rine":11358,"Ġdance":11359,"ĠSea":11360,"ĠValue":11361,"character":11362,"odge":11363,"aze":11364,"interface":11365,"ĠOpt":11366,"Ġ\"\\":11367,"rev":11368,"Ġcontinuity":11369,"Ġinher":11370,"Ġrelativistic":11371,"Ġtermin":11372,"Ġinternet":11373,"ĠPen":11374,"TYPE":11375,"bottomrule":11376,"Ġhundreds":11377,"ĠConf":11378,"Window":11379,"Ġmanifolds":11380,"Operation":11381,"Ġtables":11382,"Ġfell":11383,"ĠMas":11384,"Ġcavity":11385,"Ġcrystal":11386,"sylvania":11387,"Ġprominent":11388,"rants":11389,"Ġconversion":11390,"Ġmovies":11391,"anna":11392,"Ġdelete":11393,"velope":11394,"ĠBeach":11395,"Ġwriters":11396,"burgh":11397,"Ġrear":11398,"record":11399,"Ġfort":11400,"ariants":11401,"Ġsinger":11402,"War":11403,"stellar":11404,"Ġhomotopy":11405,"Ġbringing":11406,"Ġstopped":11407,"Ġdelivered":11408,"Ġsuit":11409,"store":11410,"ĠJr":11411,"Application":11412,"Ġapproved":11413,"evin":11414,"%.":11415,"Ġfifth":11416,".âĢĻ":11417,"Ġcompr":11418,"worth":11419,"TM":11420,"ĠSeason":11421,"mr":11422,"Ġsoc":11423,"phia":11424,"Ġsounds":11425,")<":11426,"Ġemergency":11427,"Conclusion":11428,"inois":11429,"mention":11430,"Ġtroub":11431,"oni":11432,"isa":11433,"door":11434,"Ġpromote":11435,"Ġvast":11436,"orship":11437,"Ġdetermining":11438,"}}_\\":11439,"Ġchose":11440,"atar":11441,"ĠNiger":11442,"unity":11443,"sequence":11444,"Ġvent":11445,"ĠGi":11446,"Ġholomorphic":11447,"ĠJordan":11448,"ĠTal":11449,"ĠIns":11450,"Ġspecify":11451,"Ġguard":11452,"ĠQueen":11453,"lass":11454,"Ġmurder":11455,"Ġboxes":11456,"critical":11457,"_{(\\":11458,"Ġmetallicity":11459,"Ġshadow":11460,"ĠCirc":11461,"Ġinhib":11462,"Ġamazing":11463,"Ġgene":11464,"Ġpreferred":11465,"apshot":11466,"ĠÂ·":11467,"ĠTy":11468,"Ġmirror":11469,"Ġcookies":11470,"ĠSong":11471,"Ġevident":11472,"reement":11473,"Ġintelligence":11474,"~{\\":11475,"shire":11476,"ĠConsequently":11477,"ĠUser":11478,"Ġsummarized":11479,"ennis":11480,"Cho":11481,"idity":11482,"URE":11483,"Connection":11484,"Summary":11485,"Ġbigger":11486,"corresponding":11487,"craft":11488,"Cle":11489,"ĠCost":11490,"wing":11491,"Ġscenes":11492,"ĠJersey":11493,"teen":11494,"Record":11495,"fly":11496,"Ġconverge":11497,"Ġcounting":11498,"ULT":11499,"1972":11500,"ĠLiber":11501,"raisebox":11502,"Ġabuse":11503,"Callback":11504,"Ġreaching":11505,"HH":11506,"ĠDeep":11507,"Ġcomposite":11508,"Ġmodification":11509,"Ġshapes":11510,"Values":11511,"Ġproportion":11512,"ĠLem":11513,"associ":11514,"missions":11515,"Ġproofs":11516,"1973":11517,"ĠSus":11518,"Reference":11519,"Ġverified":11520,"Ġsquares":11521,"Ġtruck":11522,"oved":11523,"Ġradii":11524,"Ġauthorities":11525,"Ġtherapy":11526,"@{}}":11527,"ĠGreek":11528,"Ġserial":11529,"ĠObama":11530,"Ġcomputations":11531,"ĠEV":11532,"processing":11533,"Ġresolved":11534,"idi":11535,"Ġdiscre":11536,"Ġpasses":11537,"aintenance":11538,"Ġexpanding":11539,"ributions":11540,"ĠMP":11541,"Ġgeodesic":11542,"Ġsac":11543,"ĠGro":11544,"^{{\\":11545,"Network":11546,"ĠCoast":11547,"Ġforget":11548,"Ġwhatever":11549,"ĠHop":11550,"Ġvanish":11551,"},\\\\":11552,"ĠBrook":11553,"coloneqq":11554,"Ġaddressed":11555,"momentum":11556,"Ġbott":11557,"}$$":11558,"atics":11559,"Ġremoving":11560,"Found":11561,"pie":11562,"calcul":11563,"áĥ":11564,"Ġannih":11565,"Ġconsumers":11566,"vance":11567,"Ġrequiring":11568,"ĠSearch":11569,"Ġoverview":11570,"Ġparametriz":11571,"ĠVideo":11572,"Ġresulted":11573,"ĠGW":11574,"Ġminimize":11575,"ĠArea":11576,"Ġrain":11577,"CB":11578,"Ġpriv":11579,"Ġsequential":11580,"inton":11581,"Ġobviously":11582,"Äģ":11583,"115":11584,"Ġalongside":11585,"Ġthickness":11586,"Sn":11587,"Ġvolunte":11588,"Ġarrival":11589,"ĠSem":11590,"ĠPay":11591,"Initial":11592,"pix":11593,"ĠChem":11594,"rer":11595,"Ġterror":11596,"Ġlandscape":11597,"Ġyellow":11598,"Ġdetectors":11599,"choose":11600,"Ġsubsequently":11601,"resizebox":11602,"]^{\\":11603,"Ġgrows":11604,"Ġcubic":11605,"Ġemployee":11606,"Ġcommittee":11607,"cluster":11608,"wang":11609,"may":11610,"Ġlengths":11611,"sort":11612,"Ġmic":11613,"Ġstores":11614,"ATH":11615,"Ġmeasuring":11616,"Ġtransformed":11617,"Ġjav":11618,"omatic":11619,"ITY":11620,"ĠCivil":11621,"makebox":11622,"stop":11623,"Lo":11624,"ĠEgypt":11625,"Ġdefend":11626,"Ġdry":11627,"symmetric":11628,"Ġdoubt":11629,"ĠHun":11630,"ĠDNA":11631,"Ġprospect":11632,"Ġlifetime":11633,"istant":11634,"&+":11635,"Ġampl":11636,"making":11637,"Ġreceiver":11638,"Ġquarks":11639,"Ġparad":11640,"Ġretail":11641,"ensed":11642,"Ġproducer":11643,"Ġloved":11644,"relim":11645,"ĠNevertheless":11646,"Ġdevel":11647,"likely":11648,"mac":11649,"Ġ$-\\":11650,"upp":11651,"uma":11652,"Module":11653,"Ġbasketball":11654,"Ġseasons":11655,"ipher":11656,"Ġexploration":11657,"Ġstorm":11658,"rolled":11659,"Ġstick":11660,"gtr":11661,"),(":11662,"Ġelections":11663,"Ġmunic":11664,"Ġobservational":11665,"viously":11666,"Show":11667,"rats":11668,"keys":11669,"ACE":11670,"ĠBrand":11671,"news":11672,"Ġcrew":11673,"Ġregardless":11674,"varpi":11675,"ods":11676,"102":11677,"orel":11678,"Ġturning":11679,"bibliographystyle":11680,"ĠOx":11681,"decom":11682,"fraction":11683,"Http":11684,"master":11685,"ĠBlock":11686,"ĠKong":11687,"Ġprinciples":11688,"Ġtunnel":11689,"important":11690,"uint":11691,"erts":11692,"htb":11693,"best":11694,"Ġconservative":11695,"ĠChair":11696,"Ġbrowser":11697,"ĠSystems":11698,"fire":11699,"ĠSep":11700,"Ġevening":11701,"Ġmodular":11702,"\"))":11703,"ĠSurvey":11704,"Ġintu":11705,"Ġalbums":11706,"mix":11707,"ĠMake":11708,"ĠCS":11709,"Ġobtaining":11710,"smooth":11711,"TER":11712,"Ġfairly":11713,"FE":11714,"oustic":11715,"ĠPack":11716,"Ġrecommended":11717,"ĪĴ":11718,"iated":11719,"Ġpenalty":11720,"custom":11721,"Ġfat":11722,"Vector":11723,"click":11724,"vectors":11725,"+$":11726,"ĠPrime":11727,"Bound":11728,"Ġpun":11729,"front":11730,"relax":11731,"Ġidentifying":11732,"eed":11733,"rb":11734,"ĠInstagram":11735,"Ġflav":11736,"Ġhotel":11737,"Ġregarded":11738,"News":11739,"Phone":11740,"Ġmodify":11741,"continuous":11742,"Ġconvention":11743,"xygen":11744,"UP":11745,"offs":11746,"Ġelectromagnetic":11747,"Ġformally":11748,"Title":11749,"512":11750,"itudinal":11751,"Ġleaf":11752,"rell":11753,"Ġbranches":11754,"Ġduality":11755,"$}\\":11756,"ĠHerm":11757,"Ġconversation":11758,"Ġuniquely":11759,"ĠLow":11760,"pq":11761,"Ġsending":11762,"ĠĠĠĠĠĊ":11763,"Ġforth":11764,"Ġactors":11765,"estim":11766,"legate":11767,"pow":11768,"ĠWis":11769,"ĠBroad":11770,"oli":11771,"fix":11772,"conj":11773,"Iter":11774,"ĠTake":11775,"hn":11776,"quantum":11777,"Num":11778,"components":11779,"dict":11780,"Ġheating":11781,"ductor":11782,"erences":11783,"Ġsnow":11784,"FIG":11785,"positive":11786,"Î±":11787,"Tab":11788,"Ġteachers":11789,"ĠStory":11790,"irty":11791,"Ġvaries":11792,"Background":11793,"ĠBrad":11794,"Ġdrag":11795,"Ġpromising":11796,"Ġinteracting":11797,"ĠWatch":11798,"Ġadaptive":11799,"Ġbarrier":11800,"ĠAmong":11801,"Ġoperated":11802,"ĠCommon":11803,"ĠWrit":11804,"letter":11805,"Ġaccurately":11806,"msg":11807,"Ġrepeat":11808,"Notice":11809,"]_":11810,"Ġ\\,.":11811,")~":11812,"ĠVari":11813,"Ġfeels":11814,"ĠGalactic":11815,"=\"../../../../../../":11816,"Ġauthority":11817,"&#":11818,"Ġjustice":11819,"Ġcouncil":11820,"NavBar":11821,"Ġanten":11822,"Option":11823,"Ġvon":11824,"ĠBoy":11825,"Ġcommutative":11826,"ĠError":11827,"Ġcaught":11828,"Sur":11829,"Ġaccommod":11830,"ĠHas":11831,"olis":11832,"Ġending":11833,"Ġhun":11834,"apore":11835,"iar":11836,"ĠSecretary":11837,"spring":11838,"osophy":11839,"ipping":11840,"cb":11841,"Ġerg":11842,"NAME":11843,"ivariate":11844,"Store":11845,"env":11846,"Ġnoting":11847,"shop":11848,"yo":11849,"uscript":11850,"Ġimproves":11851,"Ġstreaming":11852,"Ġdesigns":11853,"delete":11854,"Ġcolon":11855,"ĠSir":11856,"iso":11857,"Prot":11858,"para":11859,"named":11860,"orters":11861,"ĠPath":11862,"Ant":11863,"hyp":11864,"Integer":11865,"Both":11866,"Cons":11867,"Ġpartnership":11868,"rait":11869,"bind":11870,"hedral":11871,"cellcolor":11872,"rating":11873,"aga":11874,"ĠSher":11875,"Ġresolve":11876,"Ġdrivers":11877,"Ġadaptation":11878,"ĠMuslim":11879,"correct":11880,"syn":11881,"pb":11882,"exact":11883,"ordered":11884,"repre":11885,").$$":11886,"Ġquantitative":11887,"versely":11888,"application":11889,"}.$":11890,"kk":11891,"Ġvariants":11892,"Ġmount":11893,"ĠPennsylvania":11894,"Ġdrift":11895,"ĠProof":11896,"Ġho":11897,"watch":11898,"ĠYes":11899,"Ġaddresses":11900,"\\\\\\":11901,"direction":11902,"xym":11903,"Serial":11904,"equals":11905,"ĠMount":11906,"Ġminute":11907,"ains":11908,"Ġmig":11909,"Ġpreserve":11910,"mentioned":11911,"Ġmarriage":11912,"ĠKent":11913,"inks":11914,"Ġgift":11915,"Ġqubit":11916,"ĠCPU":11917,"ĠBayesian":11918,"Ġreform":11919,"Ġparams":11920,"Ġshooting":11921,"Ġgrew":11922,"biggl":11923,"Ġourselves":11924,"press":11925,"itatively":11926,"Ġcausal":11927,"alo":11928,"Ġsymplectic":11929,"|}{\\":11930,"Ġpassion":11931,"ĠBC":11932,"ployment":11933,"Ġexit":11934,"Ġbandwidth":11935,"Ġconverted":11936,"-{\\":11937,"bow":11938,"Ġinstitution":11939,"auth":11940,"}})\\":11941,"ĠBooks":11942,"Ġinvestors":11943,"Hy":11944,"convex":11945,"ĠCro":11946,"Ġinsights":11947,"Ġdrugs":11948,"104":11949,"Ġprogramme":11950,"ĠClin":11951,"Gra":11952,"expand":11953,"Space":11954,"Ġfalls":11955,"Ġagric":11956,"heres":11957,"LM":11958,"Ġenabled":11959,"-->":11960,"ĠSn":11961,"ĠBlo":11962,"Ġspons":11963,"closure":11964,"duate":11965,"}^{*":11966,"}{!":11967,"ologist":11968,"Global":11969,"ĠTele":11970,"Ġdepos":11971,"Ġperfectly":11972,"izers":11973,"lam":11974,"Ġopposed":11975,"Ġrisks":11976,"ĠBit":11977,"VD":11978,"ĠRod":11979,"Ġparity":11980,"ĠDR":11981,"ĠSI":11982,"colhead":11983,"}{$\\":11984,"plete":11985,")},\\":11986,"Async":11987,"Ġinsurance":11988,"Ġtrials":11989,"oured":11990,"ĠChildren":11991,"via":11992,"Ġ\\|_{":11993,"coordinate":11994,"Ġaccord":11995,"$/":11996,"ĠTheatre":11997,"Ġhearing":11998,"Ġbins":11999,"ĠUpdate":12000,"zo":12001,"à¸":12002,"ĠGPU":12003,"Ġdestination":12004,"Ġlocalized":12005,"othe":12006,"CTION":12007,"Ġinnovation":12008,"Well":12009,"Orig":12010,"'))":12011,"Ġcompression":12012,"ĠAU":12013,"Ġrealize":12014,"135":12015,"ĠSteve":12016,"undles":12017,"Ġcontradict":12018,"Ġbag":12019,"Ġapps":12020,"Free":12021,"Ġnuclei":12022,"Ġasking":12023,"ĠAS":12024,"IME":12025,"lbrace":12026,"ĠTurn":12027,"Ġec":12028,"Ġrelies":12029,"Ġepisodes":12030,"oggle":12031,"Ġanswers":12032,"Ġrent":12033,"textstyle":12034,"Ġcriminal":12035,"DBLP":12036,"icious":12037,"ĠRepresent":12038,"Ġphenomena":12039,"bury":12040,"Ġdipole":12041,"Ġgraded":12042,"ĠDark":12043,"Ġspending":12044,"Ġargued":12045,"Ġdamp":12046,"ATA":12047,"Ġregul":12048,"np":12049,"Pref":12050,"Ġexpectations":12051,"oulomb":12052,"handle":12053,"Person":12054,"Ġreactions":12055,"footer":12056,"riate":12057,"levant":12058,"ĠFOR":12059,"]{./":12060,"wrap":12061,"Ġnont":12062,"warz":12063,"]}\\":12064,"Ġworldwide":12065,"}}}{\\":12066,"Ġrecovered":12067,"Through":12068,"cpp":12069,"ryst":12070,"Mag":12071,"Ġheader":12072,"Ġfighting":12073,"dings":12074,"ricket":12075,"stituting":12076,"Ġhonest":12077,"ĠInitial":12078,"Ġdrama":12079,"Ġtech":12080,"compare":12081,"Ġkee":12082,"ĠMinnesota":12083,"ĠRom":12084,"Ġoptimized":12085,"Ġcoun":12086,"ĠMatt":12087,"Ġexponentially":12088,"ĠVill":12089,"thin":12090,"arts":12091,"ĠSF":12092,"Ġsimplified":12093,"Ġpacket":12094,"screen":12095,"Ġindependence":12096,"Ġmatters":12097,"ĠFox":12098,"Ġentities":12099,"'}(":12100,"adic":12101,"Ġshifted":12102,"ĠĠĠĠĠĠĠĊ":12103,"estamp":12104,"Ġshorter":12105,"Ġtransactions":12106,"ureau":12107,"Rob":12108,"Ġcoincides":12109,"})^{\\":12110,"urd":12111,"ĠYouTube":12112,"Ġthereby":12113,"Host":12114,"}$),":12115,"ordon":12116,"ĠPrim":12117,"ĠBritain":12118,"Ġposts":12119,"kw":12120,"ĠPrince":12121,"session":12122,"arshall":12123,"Ġexciting":12124,"Ġignore":12125,"National":12126,"ilt":12127,"False":12128,"dependency":12129,"NRAS":12130,"Ġfeaturing":12131,"Ġmechanics":12132,"ĠStudy":12133,"Ġguys":12134,"half":12135,"eping":12136,"una":12137,"biggr":12138,"Ġtoler":12139,"ologically":12140,"Json":12141,"ea":12142,"ĠURL":12143,"cker":12144,"Ġscientists":12145,"Ġviolation":12146,"Related":12147,"Ġille":12148,"Ġapproximations":12149,"Conf":12150,"reprene":12151,"enth":12152,"Ġlosing":12153,"Ġclip":12154,"Ġdealing":12155,"Ġsingularities":12156,"Ġeverywhere":12157,"ĠRog":12158,"Expression":12159,"):=":12160,"ĠSNR":12161,"Ġalter":12162,"xymatrix":12163,"Ġappeal":12164,"gressive":12165,"Ġhundred":12166,"ĠCurrent":12167,"ĠExecutive":12168,"Ġassistance":12169,"heses":12170,"VAL":12171,"Comput":12172,"Ġresponsibility":12173,"Ġguarantees":12174,"ĠBS":12175,"Ġrectangle":12176,"Ġimplications":12177,"Ġmagazine":12178,"ICE":12179,"Supp":12180,"Ġoverride":12181,"quote":12182,"Ġade":12183,"Decl":12184,"vergent":12185,"Mac":12186,"Her":12187,"Ġundefined":12188,"umin":12189,"Ġstrain":12190,"\"));":12191,"Ġattended":12192,"arters":12193,"eto":12194,"ASE":12195,"into":12196,"ĠVo":12197,"}.$$":12198,"sinh":12199,"Impl":12200,"Ġmo":12201,"ails":12202,"Ġemissions":12203,"oking":12204,"Ġforming":12205,"^*}":12206,"Thm":12207,"iat":12208,"generated":12209,"elle":12210,"virtual":12211,"Ġimposed":12212,"anchor":12213,"Oh":12214,"alog":12215,"sens":12216,"imm":12217,"Ġwestern":12218,"Ġdoctor":12219,"ownt":12220,"diagram":12221,"ĠWithout":12222,"VE":12223,"Aust":12224,"Ġmuseum":12225,"oked":12226,"Session":12227,"attered":12228,"1968":12229,"Ġunf":12230,"Helper":12231,"Ġwilling":12232,"Ġgreatly":12233,"ĠStrateg":12234,"Ġseeking":12235,"ennes":12236,"Ġyes":12237,"Ġarmy":12238,"Ġscheduled":12239,"Ġalleged":12240,"Ġbrightness":12241,"ĠLatin":12242,"Ġcharacterization":12243,"Ġfluxes":12244,"nl":12245,"Ġallocation":12246,"Ġdisturb":12247,"PECT":12248,"kt":12249,"Ġfly":12250,"Ġcompletes":12251,"Ġneutrinos":12252,"Ġincl":12253,"itro":12254,"ĠHong":12255,"Ġnoisy":12256,"]\\\\":12257,"}\\)":12258,"Black":12259,"1971":12260,"algorithmic":12261,"Ġquadr":12262,"Ġconstitu":12263,"ĠPers":12264,"Ġsymptoms":12265,"Ġdebate":12266,"Ġcausing":12267,"Ġprelim":12268,"Ġhaven":12269,"ĠkeV":12270,";->":12271,"Public":12272,"Intern":12273,"Ġcumul":12274,"Ġadult":12275,"abilistic":12276,"+}":12277,"}$:":12278,"Ġreplacement":12279,"antum":12280,"qed":12281,"eras":12282,"ĠÐ¿":12283,"ORD":12284,"Ġgar":12285,"Ġdevelopers":12286,"Ġcampus":12287,"lements":12288,"ĠEastern":12289,"Ġscholars":12290,"ÑĮ":12291,"uz":12292,"Ġcyclic":12293,"cule":12294,")}=\\":12295,"Ġwaste":12296,"Parameters":12297,"HP":12298,"ĠAsh":12299,"Ġcarefully":12300,"ĠAlice":12301,"Ġrobustness":12302,"Ġovercome":12303,"Ġaffects":12304,"ĠCustom":12305,"Ġsuppressed":12306,"ibraries":12307,"natural":12308,"Ġinvoke":12309,"ĠFR":12310,"ĠIndex":12311,"Ġtransferred":12312,"Ġages":12313,"Ġyounger":12314,"aren":12315,"Has":12316,"ourse":12317,"Play":12318,"Ġmanifest":12319,"Ġremainder":12320,"Ġreserved":12321,")$$":12322,"ĠAz":12323,"ĠLew":12324,"Ġranging":12325,"350":12326,"AI":12327,"Ġartificial":12328,"Ġdomestic":12329,"Photo":12330,"gered":12331,"erved":12332,"aration":12333,"underbrace":12334,"Ġestate":12335,"Ġdemoc":12336,"Ġunlike":12337,"nals":12338,"Ġacquisition":12339,"ĠCru":12340,"posing":12341,"ĠIllinois":12342,"Ġresemb":12343,"ĠRh":12344,"Ġfocuses":12345,"engers":12346,"Ġhospit":12347,"})^{-":12348,"scalebox":12349,"ĠKir":12350,"ĠBGCOLOR":12351,"Ġcorporate":12352,"Ġconvenience":12353,"holders":12354,"Ġtension":12355,"ĠNic":12356,"Ġheavily":12357,"Ġmotivated":12358,"Ġrestaurant":12359,"Ġveter":12360,"veloc":12361,"Ġconsistently":12362,"};\\":12363,"Ġexposed":12364,"cosh":12365,",}":12366,"amination":12367,"vard":12368,"Support":12369,"ĠBall":12370,"Ġwins":12371,"Ġlegend":12372,"Ġsurvival":12373,"}}^\\":12374,"ĠHTML":12375,"Ġfer":12376,"Ġexhibits":12377,"Ġdrum":12378,"Ġasymmetry":12379,"hh":12380,"ĠYang":12381,"Ġcla":12382,"itecture":12383,"Ġnegot":12384,"ĠSimilar":12385,"Ġarising":12386,"Yes":12387,"sex":12388,"ĠBad":12389,"Ġadults":12390,"ï¼":12391,"108":12392,"Ġsuperior":12393,"Ġparse":12394,"dark":12395,"arsity":12396,"Ġgoods":12397,"outhe":12398,"bootstrap":12399,"Ġgal":12400,"Ġwear":12401,"igm":12402,"###":12403,"aska":12404,"{%":12405,"1969":12406,"Ġhouses":12407,"ĠSupreme":12408,"-$\\":12409,"+{\\":12410,"elastic":12411,"ĠDesc":12412,"ĠLtd":12413,"Ġproving":12414,"Tim":12415,"ĠCovid":12416,"ĠRev":12417,"valuation":12418,"ZZ":12419,"Please":12420,"refn":12421,"rowth":12422,"Ġtrading":12423,"ĠComb":12424,"Ġathlet":12425,"Ġsolit":12426,"Ġscaled":12427,"=}":12428,"Fs":12429,"Ġsubgraph":12430,"ders":12431,"Ġmatched":12432,"Ġton":12433,"118":12434,"bone":12435,"})}{":12436,"Ġdemonstrates":12437,"transition":12438,"=\"/":12439,"PG":12440,"mut":12441,"rbrace":12442,"Ġgradients":12443,"Ġfavour":12444,"Ġinduct":12445,"Ġsurveys":12446,"Inv":12447,"cosity":12448,"rin":12449,"ĠBand":12450,"viation":12451,"ĠĠĠĠĠĠĠĠĠĠĠĠĠĠĠĠĠĠĠĠĠĠĠĠĠĠ":12452,"Ġvariational":12453,"Ġhealthcare":12454,"ĠThose":12455,"Ġreproduce":12456,"Ġoriented":12457,"}{$":12458,"ĠStation":12459,"gon":12460,"ĠLipschitz":12461,"ĠElizabeth":12462,"ĠNN":12463,"abi":12464,"Ġmachines":12465,"ĠUniverse":12466,"Mean":12467,"Ġ$\\|\\":12468,"Ġdirectory":12469,"''.":12470,"Ang":12471,"information":12472,"imit":12473,"Ġconjugate":12474,"Irefn":12475,"Ġmodeled":12476,"shot":12477,"Ġoccasion":12478,"Ġhierarchy":12479,"astro":12480,"Ġhonor":12481,"gravity":12482,"Ġlogarithmic":12483,"Ġgro":12484,"Ġproud":12485,"ĠAge":12486,"Ġcontrovers":12487,"they":12488,"Flo":12489,"uj":12490,"^{*}":12491,"Ġcommunications":12492,"Ġmomenta":12493,"'>":12494,"ĠConserv":12495,"Ġdangerous":12496,"Doc":12497,"bg":12498,"agues":12499,"{-}":12500,"Core":12501,"Ġtalent":12502,"}}}}":12503,"Ġyards":12504,"Ġwallet":12505,"ĠKenn":12506,"Ġregularity":12507,"ĠOlympics":12508,"Ident":12509,"Star":12510,"iley":12511,"Ġepochs":12512,"Total":12513,"|{\\":12514,"ĠProblem":12515,"lvert":12516,"Ġfee":12517,"Ġprofessor":12518,"acher":12519,"^*(\\":12520,"Ġkit":12521,"hist":12522,"Ġimper":12523,"Ġactress":12524,"ĠEdward":12525,"esis":12526,"SW":12527,"optim":12528,"Ġidentities":12529,"cue":12530,"Tool":12531,"103":12532,"Ġdelta":12533,"ĠAdministration":12534,"eyond":12535,"Menu":12536,"Ġawards":12537,"terms":12538,"ĠDam":12539,"itis":12540,"ĠLHC":12541,"ĠCloud":12542,"Ġexport":12543,"Green":12544,"rically":12545,"uset":12546,"ĠHart":12547,"ĠProduct":12548,"ĠEconomic":12549,"ĠDefine":12550,"Ġdegenerate":12551,"Real":12552,"Ġcircumstances":12553,"rapol":12554,"Ġcraft":12555,"Ġguidance":12556,"Ġpriority":12557,"geqslant":12558,"KK":12559,"ĠGuard":12560,"umann":12561,"plugins":12562,"haust":12563,"gtrsim":12564,"ensively":12565,"ĠSym":12566,"hig":12567,"trace":12568,"erred":12569,"whe":12570,"Ġhistoric":12571,"toString":12572,"Ġreturning":12573,"ulus":12574,"Ġisotropic":12575,"Ġspins":12576,"ĠAnth":12577,"Ġsensors":12578,"solution":12579,"irms":12580,"Ġterminal":12581,"copy":12582,"got":12583,"Ġcrowd":12584,"eron":12585,"Ġalumni":12586,"Ġdeeper":12587,"Ġ*)":12588,"away":12589,"ĠDavis":12590,"tre":12591,"ĠMarg":12592,"ĠScotland":12593,"Ġreflected":12594,"iration":12595,"Ġbreaks":12596,"Ġmanufacturing":12597,"ĠDom":12598,"ĠSoftware":12599,"terior":12600,"ĠRos":12601,"Ġintroduces":12602,"Ġarbitr":12603,"dc":12604,"Ġprepare":12605,"inline":12606,"Ġcoff":12607,"Mock":12608,"ĠÂ©":12609,"Br":12610,"'],":12611,"Fi":12612,"Ġsuggesting":12613,"Ġsurgery":12614,"chers":12615,"ĠPhilipp":12616,"Ġhistogram":12617,"Ġobtains":12618,"Cam":12619,"athered":12620,"ĠWales":12621,"Year":12622,"ĠĠĠĠĠĠĠĠĠĠĠĠĠĠĠĠĠĠĠĠĠĠĠĠĠĠĠĠĠĠĠĠĠĠĠĠĠĠĠ":12623,"Ġsustainable":12624,"BN":12625,"uber":12626,"Ġwalking":12627,")$}":12628,"lst":12629,"ĠParliament":12630,"Ġcommitment":12631,"Ġupcoming":12632,"[->":12633,"ĠException":12634,"Ġfocusing":12635,"Ġsoul":12636,"]:":12637,"Ġfiled":12638,"Christ":12639,"tp":12640,"ques":12641,"ĠPhoto":12642,"Ġdeviations":12643,"fony":12644,"JE":12645,"Ġbreath":12646,"Ġjudge":12647,"ĠEC":12648,"ĠFind":12649,"Ġasymptotically":12650,"plac":12651,"these":12652,"ĠProte":12653,"aire":12654,"Ġearned":12655,"leton":12656,"Ġadjoint":12657,"ĠSH":12658,"abatic":12659,"padding":12660,"ĠIss":12661,"ĠTraining":12662,"usual":12663,"Ġ)\\":12664,"flux":12665,"linder":12666,"Ġbranching":12667,"Ġadvertising":12668,"ĠAgency":12669,"hire":12670,"106":12671,"Ġwindows":12672,"arding":12673,"ĠGovernor":12674,"Ġqueue":12675,"Ġanomaly":12676,"Mo":12677,")))":12678,"Ġvalidity":12679,"seen":12680,"Ġgrate":12681,"ĠWeyl":12682,"END":12683,"Ġda":12684,"icker":12685,"events":12686,"ĠRegister":12687,"Ġradiative":12688,"zing":12689,"240":12690,"():":12691,"diagonal":12692,"ashi":12693,"Ġcards":12694,"ango":12695,"Ġapproximated":12696,"Ġfo":12697,"Ġrings":12698,"Ġcontinuously":12699,"grounds":12700,"220":12701,"deriv":12702,"Ġmicrosc":12703,"ĠToronto":12704,"ĠAlexander":12705,"Ġnavigation":12706,"ĠJava":12707,"Ġheads":12708,"addle":12709,"Ġvoting":12710,"Ġ('":12711,"Ġbug":12712,"Ġfacing":12713,"Ġmutual":12714,"ĠDirect":12715,"tainment":12716,"ĠDaily":12717,"Ġsoil":12718,"effective":12719,"ader":12720,"}):":12721,"ĠNFL":12722,"Ġrural":12723,"Syn":12724,"Stack":12725,"1967":12726,"Ġmeaningful":12727,"Ġopacity":12728,"Ġstrip":12729,"lee":12730,"($\\":12731,"Ġox":12732,"Ġcontemporary":12733,"Ġcategor":12734,"Ġvisited":12735,"rizona":12736,"Ġoverl":12737,"Sem":12738,"ĠDisney":12739,"PORT":12740,"ĠAirport":12741,"ĠEmer":12742,"Ġremarkable":12743,"Super":12744,"Ġos":12745,"fall":12746,"Ġhabit":12747,"900":12748,"people":12749,"islation":12750,"Ġgray":12751,"Ġmillions":12752,"Ġdisci":12753,"Look":12754,"estyle":12755,"cn":12756,"Ġobserving":12757,"adelphia":12758,"fm":12759,"Ġclar":12760,"four":12761,"MNRAS":12762,"Draw":12763,"English":12764,"ĠSource":12765,"Ġeducational":12766,"ĠPrivacy":12767,"sumer":12768,"ĠNavy":12769,"Ġranking":12770,"Ġinterpolation":12771,"slashed":12772,"ĠRegion":12773,"plements":12774,"Ġrotating":12775,"ĠAssert":12776,"Ġdebt":12777,"limate":12778,"ĠSW":12779,";\"":12780,"Ġequivalently":12781,"Ã±":12782,"Ġparticipate":12783,"Ġgained":12784,"270":12785,"ÐµÐ½":12786,"Ġbaby":12787,"ĠMill":12788,"export":12789,"Ġstreets":12790,"Rule":12791,"ĠGib":12792,"ĠScient":12793,"Ġdrawing":12794,"ĠEffect":12795,"Ġsimpler":12796,"ĠChapter":12797,"Ġchrom":12798,"Collection":12799,"Ġdecoder":12800,"Ġpreparation":12801,"ĠTech":12802,"[$":12803,"render":12804,"multip":12805,"Such":12806,"uts":12807,"Ġconsiders":12808,"Ġqubits":12809,"eding":12810,"Ġsuscept":12811,"Ġslot":12812,"ĠCorporation":12813,"plugin":12814,"opher":12815,"eV":12816,"ĠSon":12817,"Ġconsole":12818,"Ġhits":12819,"Ġprimitive":12820,"CNN":12821,"Ġtokens":12822,"ĠForest":12823,"Policy":12824,"overs":12825,"Ġ(@":12826,"ĠFL":12827,"{|\\":12828,"}\\,,":12829,"Ġexclusive":12830,"Parent":12831,"Ġexamined":12832,"Ġassembly":12833,"IEEE":12834,"ĠCC":12835,"Ġneuro":12836,"Ġmenu":12837,"expect":12838,"Ġspi":12839,"Ġease":12840,"Care":12841,"MSE":12842,"Ġwa":12843,"selected":12844,"Bre":12845,"ju":12846,"David":12847,"Ġquiet":12848,"pus":12849,"Ġmissed":12850,"Ġadequ":12851,"eeq":12852,"Ġencoded":12853,"Ġglobally":12854,"charg":12855,"pont":12856,"!\"":12857,"oviet":12858,"GET":12859,"ĠPO":12860,"Ġexcluded":12861,"ĠInterest":12862,"Ġride":12863,"ĠKal":12864,"Ġemerging":12865,"_{|":12866,"ĠEll":12867,"Ġrising":12868,"Ġsimplest":12869,"harm":12870,"Ġcab":12871,"\\\"{":12872,"orbit":12873,"BV":12874,"Ġagencies":12875,"United":12876,"ĠChange":12877,"iors":12878,"isations":12879,"Ġlegisl":12880,"late":12881,"lantic":12882,"Ġoxygen":12883,"Ġnontrivial":12884,"Ġpictures":12885,"Ġfract":12886,"Ġcurrents":12887,"Ġrecip":12888,"IVE":12889,"ĠVen":12890,"Ġions":12891,"dv":12892,"homogeneous":12893,"Term":12894,"))=":12895,"dynamics":12896,"Ġconvolutional":12897,"=\"_":12898,"ĠEth":12899,"ĠJSON":12900,"plementation":12901,"Ġpregn":12902,"phot":12903,"}};":12904,"comparison":12905,"Ġillustrates":12906,"Cross":12907,"Ġvotes":12908,"Oct":12909,"ĠEP":12910,"Ġshop":12911,"Ġflexible":12912,"frag":12913,"Meta":12914,"Ġmembership":12915,"Ġdict":12916,"Ġautomatic":12917,"Ġhypers":12918,"Ã£":12919,"lind":12920,"Ġemotional":12921,"ĠFord":12922,"settings":12923,"Ġpersons":12924,"rvert":12925,"without":12926,"\\,$":12927,"Ġgrown":12928,"DIR":12929,"Ġpairing":12930,"}$};":12931,"writer":12932,"Effect":12933,"Ġreconstructed":12934,"being":12935,"Ġkeeps":12936,"Ġdisks":12937,"Ġsectors":12938,"ĠEric":12939,"Ġextending":12940,"antics":12941,"insert":12942,"Ġmouth":12943,"Ġvortex":12944,"endor":12945,"ĠBru":12946,"upload":12947,"Ġattractive":12948,"Ġassumes":12949,"alks":12950,"ĠChang":12951,"rv":12952,"Ġocean":12953,"Ġwelcome":12954,"âĢĻ,":12955,"MENT":12956,"ĠFinal":12957,"ading":12958,"cohol":12959,"regon":12960,"ĠNick":12961,"Ġcong":12962,"Ġmarks":12963,"Ġparagraph":12964,"Ġqualitative":12965,"213":12966,"Ġtitles":12967,"raq":12968,"ĠMari":12969,"tach":12970,"ĠEdition":12971,"sale":12972,"racted":12973,"Ġmanuscript":12974,"Lat":12975,"Ġstrange":12976,"ĠCapital":12977,"??":12978,"ĠCondition":12979,"ateral":12980,"aron":12981,"rgb":12982,"aria":12983,"Find":12984,"rceil":12985,"Ġcarrying":12986,"Ġcutoff":12987,"Ġexecuted":12988,"ĠBox":12989,"Ġcharacterize":12990,"race":12991,"curve":12992,"eah":12993,"WN":12994,"havior":12995,"replace":12996,"expl":12997,"plates":12998,"consin":12999,"Ġfruit":13000,"Ġdisplays":13001,"Ġtransit":13002,"andy":13003,"}=-":13004,"Ġadditive":13005,"ĠAnderson":13006,"Ġinjection":13007,"Ġicon":13008,"Ġhang":13009,"bling":13010,"Ġpron":13011,"periodic":13012,"ĠCook":13013,"Ġsummarize":13014,"ĠIC":13015,"ĠOfficer":13016,"Lear":13017,"Ġsurprise":13018,"lceil":13019,"Due":13020,"Ġscreening":13021,"Ġbold":13022,"Ġdecor":13023,"ĠTeV":13024,"ĠColorado":13025,"Ġaffili":13026,"Ġadvantages":13027,"oor":13028,"Ġvisitors":13029,"ĠEmpire":13030,"Ġpars":13031,"ÑģÑĤ":13032,"hm":13033,"Ġprojections":13034,"ĠStaff":13035,"Ġads":13036,"ĠPubl":13037,"Ġproviders":13038,"fun":13039,"volume":13040,"Ġdress":13041,"configuration":13042,"Ġenhancement":13043,"ĠBor":13044,"Ġstake":13045,"Ġaveraging":13046,"Tests":13047,"ĠMiller":13048,"corr":13049,"NOT":13050,"Ġplenty":13051,"Ġsuspect":13052,"}'$":13053,"ĠPortug":13054,"ĠNam":13055,"install":13056,"Kind":13057,"Arch":13058,"icing":13059,"ĠBE":13060,"Ġinvent":13061,"enna":13062,"bx":13063,"}^-":13064,"lot":13065,"ĠExpl":13066,"ĠSanta":13067,"owa":13068,"Ġcoincide":13069,"asts":13070,"Ġwider":13071,"inals":13072,"riptor":13073,"Ġhall":13074,"Ġbelonging":13075,"Device":13076,"ailing":13077,"ĠShort":13078,"GT":13079,"Ġaligned":13080,"((\\":13081,"Ġhandling":13082,"ĠCountry":13083,"Ġreasoning":13084,"Abstract":13085,"names":13086,")$)":13087,"=[":13088,"usetts":13089,"Ġextinction":13090,"Ġpossibilities":13091,"Ġoutflow":13092,"Ġnod":13093,"cus":13094,"achusetts":13095,"005":13096,"Early":13097,"ĠAppro":13098,"boolean":13099,"Ġthoughts":13100,"ĠCooper":13101,"anth":13102,"Ġdiseases":13103,"acknowled":13104,"Ġpray":13105,"yy":13106,"txt":13107,"Ġanonym":13108,"Ġbrands":13109,"ĠCollection":13110,"ĠCM":13111,"$^{\\":13112,"ĠOnt":13113,"etition":13114,"uli":13115,"ĠPRO":13116,"neighb":13117,"Ġforcing":13118,"Ġbat":13119,"Ġrecognize":13120,"Ġassociate":13121,"(*":13122,"Classes":13123,"Ġreadily":13124,"ership":13125,"ĠFix":13126,"Ġphysically":13127,"admin":13128,"ÑĢÐ°":13129,"))$,":13130,"Ġlayout":13131,").$":13132,"LU":13133,"dm":13134,"ĠColumbia":13135,"Ġintention":13136,"Rest":13137,"foo":13138,"ĠRyan":13139,"esome":13140,"Ġsubmit":13141,"ĠExperim":13142,"cosystem":13143,"}\\|_{":13144,"proj":13145,"Aug":13146,"Ġjoining":13147,"athy":13148,"Ġack":13149,"âĢĻ.":13150,"Ġweaker":13151,"lattice":13152,"ĠAvenue":13153,"ĠYet":13154,"Ġsheet":13155,"rics":13156,"assumption":13157,"Ġshr":13158,"upsilon":13159,"unique":13160,"Ġnm":13161,"Ġmini":13162,"near":13163,"Ġelig":13164,"ĠLuc":13165,"Ġcomedy":13166,"Ġclosest":13167,"elson":13168,"Ġencourage":13169,"help":13170,"'+":13171,"Ġignored":13172,"Ġbeauty":13173,"Ġpublicly":13174,"utors":13175,"Ġvoters":13176,"aret":13177,"Pres":13178,"ĠFellow":13179,"Ġmultiplicity":13180,"don":13181,"Ġconsiderable":13182,"Ġfabric":13183,"Ġcontour":13184,"surface":13185,"merce":13186,"Ġoperational":13187,"Ġintegrating":13188,"contin":13189,"maps":13190,"Ġplastic":13191,"Ġoppon":13192,"pository":13193,"Ġmining":13194,"Ġfake":13195,"station":13196,"ĠViet":13197,"}\\|\\":13198,"ĠMagazine":13199,"Ġbanks":13200,"Ġmaintenance":13201,"),\\\\":13202,"ĠKat":13203,"Ġdivisor":13204,"dor":13205,"Ġreceives":13206,"Ġavailability":13207,"idae":13208,"ĠEar":13209,"Ġarchitectures":13210,"Names":13211,"Ġsums":13212,"Ġexceptional":13213,"Ġsoph":13214,"except":13215,"Ġvarieties":13216,"lein":13217,"dk":13218,"ĠFigs":13219,"webkit":13220,"ĠDir":13221,"ĠKh":13222,"Ġcareful":13223,"Ġperturbative":13224,"Ġii":13225,"ijk":13226,"Ġmeasurable":13227,"makers":13228,"argument":13229,"Media":13230,"ĠSingapore":13231,"iac":13232,"Conclusions":13233,"Ġtwist":13234,"Ġanticip":13235,"ĠHal":13236,"arded":13237,"Ra":13238,"Ġscr":13239,"Ġsteel":13240,"Ġminister":13241,"ĠAli":13242,"Ġcensus":13243,"odic":13244,"ĠHou":13245,"Ġtuning":13246,"Ġselling":13247,"Ġreflects":13248,"correlation":13249,"127":13250,"Du":13251,"ĠSR":13252,"ĠET":13253,"qq":13254,"ĠProperty":13255,"Video":13256,"Ġdots":13257,"onomous":13258,"ĠTE":13259,"lg":13260,"formula":13261,"ĠFalse":13262,"ĠeV":13263,"coq":13264,"Ġarrested":13265,"Mr":13266,"convert":13267,"ĠCopyright":13268,"Ġweapons":13269,"University":13270,"ĠSpect":13271,"LD":13272,"ãĢ":13273,"1964":13274,"Ġverification":13275,"een":13276,"Ġmagic":13277,"His":13278,"Err":13279,"Ġfiction":13280,"Ġstrategic":13281,"Ġmerger":13282,"consist":13283,"Ġproxy":13284,"Ġsav":13285,"feature":13286,"1965":13287,"Hol":13288,"review":13289,"ARY":13290,"Ġnoticed":13291,"classical":13292,"Ġtranslate":13293,"icip":13294,"Ġmoderate":13295,"relations":13296,"ernels":13297,"ĠProt":13298,"report":13299,"Ġrewrite":13300,"ĠGolden":13301,"noc":13302,"Numer":13303,"compat":13304,"ĠKa":13305,"Ġpilot":13306,"pendicular":13307,"je":13308,"icide":13309,"Ġdates":13310,"ĠTok":13311,"Ġ\\\\\\":13312,"ERE":13313,"Ġinvariants":13314,"Ġremoval":13315,"theo":13316,"Ġmethodology":13317,"Ġell":13318,"Queue":13319,"rupted":13320,"Aud":13321,"AK":13322,"Ġevaluating":13323,"Stop":13324,"Ġexperimentally":13325,"Ġunlikely":13326,"ranged":13327,"]}$":13328,"Ġenvelope":13329,"Ġrecept":13330,"Flow":13331,"Character":13332,"Ġsimplify":13333,"Ġok":13334,"Ġghost":13335,"107":13336,"Ġrender":13337,"Despite":13338,"commut":13339,"Ġspoke":13340,"beq":13341,"================================":13342,"Ġtargeted":13343,"liers":13344,"Ġbytes":13345,"exports":13346,"Simple":13347,"ĠCoulomb":13348,"creen":13349,"Ġphotometric":13350,"Ġbuck":13351,"--\\":13352,"Ġquantization":13353,"Ġtiming":13354,"ells":13355,"Lu":13356,"Ġdeclared":13357,"Ġrealization":13358,"Ġmassless":13359,"same":13360,"esp":13361,"ulum":13362,"ĠRome":13363,"Ġsweet":13364,"ĠHay":13365,"ustain":13366,"itled":13367,")_\\":13368,"party":13369,"Ġdefinite":13370,"cers":13371,"Ã©s":13372,"\\\\[":13373,"rage":13374,"MN":13375,"Ġprotocols":13376,"~~~":13377,"Ġ['":13378,"ĠRO":13379,"Ġbelief":13380,")}}\\":13381,"angled":13382,"}$&":13383,"ĠGraph":13384,"ĠGalaxy":13385,"ĠRaj":13386,"Icon":13387,"season":13388,"^*,":13389,"ĠConnect":13390,".-":13391,"necess":13392,"inder":13393,"Ġregistration":13394,"ĠNatural":13395,"fc":13396,"original":13397,"Ġprefix":13398,"Ġlots":13399,"ccentric":13400,"Ġgrade":13401,"Ġrenormalization":13402,"Ġwrites":13403,"ĠPaper":13404,"Ġdisplacement":13405,"Ġaband":13406,"boundary":13407,"potent":13408,"uits":13409,"Ġtom":13410,"Ġeat":13411,"Ġopens":13412,"ĠFC":13413,"Ġentering":13414,"Ġremin":13415,"tration":13416,"Tok":13417,"ĠJean":13418,"Ġobserver":13419,")\\|_{":13420,"Ġinstrum":13421,"Ġpermission":13422,"aled":13423,"Ġarts":13424,"{}\\":13425,"ĠChall":13426,"abc":13427,"Ġinstruments":13428,"ĠOtherwise":13429,"Ġbalanced":13430,"ĠUr":13431,"ĠStephen":13432,"bn":13433,"Ġoccupied":13434,"Ġdestroyed":13435,"ĠTransport":13436,"Ġapparently":13437,"basic":13438,"Ġpromise":13439,"cmd":13440,"Ġcontributed":13441,"AW":13442,"ĠTax":13443,"ĠBR":13444,"Ġcoronavirus":13445,"Ġfactory":13446,"ĠFro":13447,"ilst":13448,"ichlet":13449,"1940":13450,"Ġteen":13451,"Ġinstructions":13452,"Mich":13453,"Ġcombinator":13454,"Ġcreat":13455,"every":13456,"ĠDonald":13457,"ĠVersion":13458,"San":13459,"Ġcorrected":13460,"ceq":13461,"ĠAC":13462,"South":13463,"Ġprocessed":13464,"Ġstone":13465,"Ġutilize":13466,"Ġinline":13467,"agent":13468,"ĠStock":13469,"Ġgranted":13470,"twitter":13471,"Ġstrike":13472,"velocity":13473,"thur":13474,"002":13475,"agon":13476,"ĠHan":13477,"Ġguaranteed":13478,"170":13479,"Feature":13480,"Ġinformed":13481,"Ġnormally":13482,"Ġgains":13483,"Ġfoundation":13484,"Ġrend":13485,"Ġlongitudinal":13486,"Ġslice":13487,"Â®":13488,"Ġscoring":13489,"Ġdegrad":13490,"ĠManager":13491,"gate":13492,"Ġpicked":13493,"earing":13494,"itian":13495,"enda":13496,"password":13497,"yal":13498,"\\%,":13499,"Ġcyber":13500,"Ġmaintained":13501,"Your":13502,"ĠDead":13503,"yard":13504,"ĠBrian":13505,"=$":13506,"Ġhelic":13507,"Review":13508,"yers":13509,"IX":13510,"[]{":13511,"ĠIO":13512,"Ġconcluded":13513,"Ġneglect":13514,"Ġarbitrarily":13515,"ĠðŁ":13516,"prove":13517,"Ġfounder":13518,"supset":13519,"}$~":13520,"}}{(":13521,"Ġviscosity":13522,"sufficient":13523,"ĠTai":13524,"Ġpreserves":13525,"*{\\":13526,"noon":13527,"Ġagrees":13528,"ERROR":13529,"Ġcompliance":13530,"thread":13531,"ouri":13532,"Ġ[-":13533,"Ġpersonnel":13534,"Ġmigration":13535,"Ġmodelling":13536,"ĠRose":13537,"_;":13538,"Ġcontrary":13539,"Ġmedal":13540,"Mer":13541,"1930":13542,"ĠLanguage":13543,"ĠSmall":13544,"satz":13545,"TX":13546,"Ġbosons":13547,"Ñĩ":13548,"Invalid":13549,"Ġinnovative":13550,"Ġfactorization":13551,"Ġvaried":13552,"Ġrotational":13553,"(:":13554,"Ġsquared":13555,"Ġbases":13556,"Ġnomin":13557,"Ġconsiderations":13558,"supers":13559,"byte":13560,"Ġgenetic":13561,"ĠSho":13562,"ĠDoug":13563,"iversary":13564,"Ġacknowledge":13565,"ĠLes":13566,"Ġcoarse":13567,"Rect":13568,"Ġsilver":13569,"Ġgates":13570,"Ġcrypt":13571,"Ġindicator":13572,"ici":13573,"Ġambigu":13574,"micro":13575,"Ġintent":13576,"degenerate":13577,"akh":13578,"kar":13579,"},$":13580,"equilibrium":13581,"blockList":13582,"Comment":13583,"ĠOp":13584,"Cy":13585,"ubs":13586,"idelity":13587,"due":13588,"Ġgluon":13589,"design":13590,"ĠNether":13591,"ĠME":13592,"Ġdwarf":13593,"Who":13594,"ĠBuff":13595,"appoint":13596,"Ġgamma":13597,"}\"":13598,"ĠConst":13599,"1920":13600,"ROM":13601,"ivated":13602,"construction":13603,"onomy":13604,"Ġvalidate":13605,"Ġbrown":13606,"urated":13607,"Ġentertainment":13608,"backs":13609,"MeV":13610,"Ġtalks":13611,"ï¿":13612,"Ġbought":13613,"Ġnob":13614,"Ġsends":13615,"Ġtip":13616,"integral":13617,"wick":13618,"*}\\":13619,"Ġadvis":13620,"ĠĠĠĠĠĠĠĠĠĠĠĠĠĠĠĠĠĠĠĠĠĠĠĠĠĠĠĠĠ":13621,"Ġnamespace":13622,"ĠBattle":13623,"ĠLater":13624,"Loc":13625,"ĠFA":13626,"ometer":13627,"Ġcoherence":13628,"empl":13629,"ĠIslands":13630,"pgf":13631,"lications":13632,"ante":13633,"Lag":13634,"ancel":13635,"tm":13636,"Ġintegrate":13637,"gap":13638,"Seg":13639,"attices":13640,"Ġmerely":13641,"ĠMaterial":13642,"ĠPhysics":13643,"Leg":13644,"Ġtwenty":13645,"Lie":13646,"Ġinjective":13647,"Ġsynthesis":13648,"Ġdeals":13649,"Delete":13650,"Ġpairwise":13651,"paring":13652,"Custom":13653,"Ġneurons":13654,"ognitive":13655,"try":13656,"RF":13657,"Lem":13658,"rames":13659,"flix":13660,"Ġaccompan":13661,"Ġhomology":13662,"Ġanomalous":13663,"109":13664,"Ġindirect":13665,"Param":13666,"uin":13667,"BG":13668,"Ġfro":13669,"exception":13670,"Ġfestival":13671,"bsites":13672,"Ġdollars":13673,"irement":13674,"ĠDifferent":13675,"ĠFinancial":13676,"Api":13677,"rk":13678,"Ġsentences":13679,"ĠIl":13680,"Ġcontents":13681,"enant":13682,"role":13683,"Ġimagine":13684,"Ġwing":13685,">.":13686,"Ġattributed":13687,"Ġtrail":13688,"Ġpric":13689,"Ġregulations":13690,"Ġinert":13691,"ĠDemocrats":13692,"Ġtransparent":13693,"Ġmas":13694,"consider":13695,"Ġpreserved":13696,"Ġformulated":13697,"Ġelectrical":13698,"$^\\":13699,"Ġ++":13700,"href":13701,"ĠCauchy":13702,"cas":13703,"ĠĠĠĠĠĠĠĠĠĠĠĠĠĠĠĠĠĠĠĠĠĠĠĠĠĠĠĠ":13704,"Ġappendix":13705,"Ġsubstantially":13706,"3333":13707,"Ins":13708,"Ġnotable":13709,"^*_{":13710,"Î¿":13711,"}),\\":13712,"ĠSab":13713,"Ġranked":13714,"Parser":13715,"Ġsquad":13716,"Ġprofit":13717,"Ġsubmitted":13718,"Ġimpose":13719,"Ġadmissible":13720,"Ġplanar":13721,"Ġsake":13722,"ĠSoc":13723,"iot":13724,"Ġestimating":13725,"ĠBuilding":13726,"nas":13727,"Ġdependencies":13728,"Ġcalculating":13729,"iami":13730,"Ġguidelines":13731,"Day":13732,"Ġsoci":13733,"cv":13734,"Notes":13735,"Ġ).":13736,"Ġrequested":13737,"decay":13738,"speed":13739,"Writer":13740,"Ð·":13741,"account":13742,"Ã£o":13743,"acknowledg":13744,"Ġconsensus":13745,"detail":13746,"QU":13747,"\\`":13748,"Ġbiological":13749,"ĠOs":13750,"Metadata":13751,"ĠCF":13752,"cu":13753,"ĠInnov":13754,"issues":13755,"ĠDutch":13756,"ĠVictoria":13757,")$;":13758,"}\\,.":13759,"Ġships":13760,"Mor":13761,"Ġbehaviors":13762,"ĠHad":13763,"MW":13764,"egas":13765,"ĠWars":13766,"Ġregularly":13767,"ĠDeath":13768,"Ġstrat":13769,"Ġvictims":13770,"Ġinvertible":13771,"Ġemployment":13772,"Ġmine":13773,"items":13774,"Ġceremon":13775,"ĠThanks":13776,"114":13777,"ĠTask":13778,"Ġrepair":13779,"Ġ<=":13780,"Sat":13781,"|}\\":13782,"algebras":13783,"Ġ&-":13784,">();":13785,"ĠCab":13786,"Ġasset":13787,"Ġhousehold":13788,"Ġpreliminary":13789,"ĠAssumption":13790,"Ġimpacts":13791,"Ġmagnitudes":13792,"Ġsitting":13793,"Gaussian":13794,"primary":13795,"Ġfaculty":13796,"adapt":13797,"Ġtrib":13798,"pattern":13799,"Ġbass":13800,"ĠCulture":13801,"Ġmapped":13802,"1966":13803,"rea":13804,"imeter":13805,"month":13806,"Ġskew":13807,"Ġapproval":13808,"Ġbyte":13809,"jar":13810,"had":13811,"ĠArizona":13812,"Fields":13813,"`.":13814,"Ptr":13815,"Ġtherein":13816,"Ġexhaust":13817,"ĠChen":13818,"eigen":13819,"area":13820,"pdated":13821,"asm":13822,"REE":13823,"Ġlegislation":13824,"ĠRest":13825,"Ġmodulation":13826,"ĠVin":13827,"weighted":13828,"appendix":13829,"Ġantib":13830,"Good":13831,"Ġ[[":13832,"PAR":13833,"Ġrigid":13834,"ĠâĢĻ":13835,"hover":13836,".\\]":13837,"ewise":13838,"ĠEditor":13839,"ĠClearly":13840,"Ġhosted":13841,"Ġtransportation":13842,"Template":13843,"Scale":13844,"dam":13845,"Ġinferred":13846,"zech":13847,"VI":13848,"nik":13849,"Ġcovariant":13850,"Ġske":13851,"Ġkernels":13852,"stats":13853,"ĠTheory":13854,"Ġarrow":13855,"hus":13856,"Ġimpressive":13857,"ĠOxford":13858,"Ax":13859,"Cur":13860,"Ġwine":13861,"sson":13862,"ĠModern":13863,"Ġpermanent":13864,"igenous":13865,"stery":13866,"Ġtwisted":13867,"Ġawareness":13868,"Body":13869,"ĠDa":13870,"Ġdose":13871,"Ġspeaker":13872,"Ġrevolution":13873,"ĠWel":13874,"Ġtelling":13875,"ikip":13876,"Ġcutting":13877,"Ġkilling":13878,"ĠMethods":13879,"Ġthermodynamic":13880,"Ġexcitations":13881,"lyn":13882,"Boolean":13883,"Ġpointer":13884,"middle":13885,"ddot":13886,"Ġoptimize":13887,"ĠBerlin":13888,"450":13889,"placian":13890,"Members":13891,"zone":13892,"Ġportfolio":13893,"Ġegg":13894,"Ġdiagnosis":13895,"Tor":13896,"ĠRoss":13897,"Ġpulled":13898,"ĠMassachusetts":13899,"disabled":13900,"Ġcoding":13901,")-(":13902,"Ġwra":13903,"romagnetic":13904,"temp":13905,"irable":13906,"bing":13907,"Ġatmospheric":13908,"owned":13909,"Ġheur":13910,"bounds":13911,"ĠPlace":13912,"Ġswim":13913,"ĠMoh":13914,"guns":13915,"ĠDer":13916,"Ġsaved":13917,"edit":13918,"Ġincoming":13919,"Ġsought":13920,"Ġdevoted":13921,"ĠPhiladelphia":13922,"Ġparam":13923,"ĠInteg":13924,"wait":13925,"ellect":13926,"Ġoutperforms":13927,"agger":13928,"Ġbacter":13929,"overrightarrow":13930,"Ġmeets":13931,"Send":13932,"Ġmg":13933,"Ġconnectivity":13934,"fp":13935,"Ġpoles":13936,"Ġnic":13937,"Corollary":13938,"ĠMember":13939,"ĠBridge":13940,"Ġpoliticians":13941,"atial":13942,"Sto":13943,"ĠStill":13944,"ĠHu":13945,"eb":13946,"Ġmeson":13947,"oT":13948,"cert":13949,"orted":13950,"variable":13951,"embed":13952,"abling":13953,"ĠOregon":13954,"Ġmotivation":13955,"Ġcapability":13956,"Ä±":13957,"Ġcompleteness":13958,"ĠAk":13959,"ĠDoes":13960,",$$":13961,"Ġdemands":13962,"isp":13963,"player":13964,"ĠMI":13965,"124":13966,"Ġfalling":13967,"ĠJesus":13968,"Ġdecline":13969,"Ġfaced":13970,"144":13971,"Ġfasc":13972,"ĠSri":13973,"Ġabundances":13974,"Ġnucleus":13975,"essages":13976,"Args":13977,"Define":13978,"»¿":13979,"Ġtox":13980,"Ġraces":13981,")}]":13982,"SET":13983,"leted":13984,"Ġwarning":13985,"Ġhorse":13986,"Ġcontinuing":13987,"ĠWisconsin":13988,"Ġexploit":13989,"Ġdesire":13990,"Ġlogical":13991,"ĠSect":13992,"abul":13993,"ĠWi":13994,"pler":13995,"attribute":13996,"Ġbio":13997,"ĠKevin":13998,"Ġtaught":13999,"Ġfrequent":14000,"oda":14001,"izz":14002,"train":14003,"Ġinherent":14004,"Ġmodifications":14005,"$~\\":14006,"asty":14007,"))^":14008,"bracket":14009,"Ġ}(":14010,"Ġinvalid":14011,"Ġknowing":14012,"Ġpointing":14013,"ĠIraq":14014,"ugby":14015,"Ġcontest":14016,"Ġcourses":14017,"Ba":14018,"horizontal":14019,"ĠCV":14020,"Associ":14021,"Writ":14022,"Ġthorough":14023,"adjoint":14024,"ĠWang":14025,"Ġcombat":14026,"details":14027,"ï»¿":14028,"Ġgeomet":14029,"usive":14030,"Ġdecreased":14031,"ĠFO":14032,"ĠTa":14033,"checkmark":14034,"sea":14035,"Ġcores":14036,"symbol":14037,"Ġcoffee":14038,"ĠCu":14039,"Ġartifact":14040,"ikipedia":14041,"ĠResources":14042,"Ġextrapol":14043,"Match":14044,"Ġcrash":14045,"Ġloan":14046,"Active":14047,".]":14048,"ĠOcean":14049,"Storage":14050,"erving":14051,"`,":14052,"''$":14053,"Ġsubstr":14054,"Ġpolitician":14055,"ï¿½":14056,"ĠMit":14057,"ĠCore":14058,"Ġaccordance":14059,"ĠKnow":14060,"ĠRF":14061,"ĠPos":14062,"ĠMars":14063,"ĠDrag":14064,"Span":14065,"Ġaimed":14066,"kernel":14067,"ĠNetherlands":14068,"ĠHarry":14069,"Dialog":14070,"ÃĤ":14071,"Cent":14072,"Ġswitching":14073,"ĠSS":14074,"ĠHistoric":14075,"Ġphotograph":14076,"pancy":14077,"Py":14078,"Ġworker":14079,"Ġwireless":14080,"Ġsynd":14081,"ĠPract":14082,"Ġwheel":14083,"Ġfootballers":14084,"Mart":14085,"osph":14086,"suit":14087,"ĠAmb":14088,"ĠBat":14089,"})+":14090,"Ġfilling":14091,"Ġchecking":14092,"ĠCambridge":14093,"__(":14094,"Ġ\"/":14095,"ĠFall":14096,"113":14097,"ĠThough":14098,"anes":14099,"Ġguest":14100,"Details":14101,"Ġhighlights":14102,"dotted":14103,"atim":14104,"Ġdivide":14105,"Ġhappening":14106,"controller":14107,"Ġincorrect":14108,"){$":14109,"govern":14110,"Ġtorsion":14111,"edef":14112,"Ġastro":14113,"Ġchecks":14114,"Ġturbulence":14115,"Ġlying":14116,"Ġinstruct":14117,"Ġmacro":14118,"Ġvolumes":14119,"MAP":14120,"Ġlaboratory":14121,"blog":14122,"ĠAccount":14123,"idx":14124,"Ġcompanion":14125,"Ġprohib":14126,"ĠCreek":14127,"210":14128,"ĠDisc":14129,"Ġacoustic":14130,"Ġrival":14131,"ĠHung":14132,"Ġcup":14133,"ols":14134,"Ġspiral":14135,"profit":14136,"]{$":14137,"Three":14138,"Ġtet":14139,"following":14140,"Ġelsewhere":14141,"ĠÏ":14142,"Ġdiffe":14143,"mathbin":14144,"ĠTreat":14145,"fb":14146,"uby":14147,"Ġtissue":14148,"Ġsoldi":14149,"GHz":14150,"Ġinfrared":14151,"ĠTam":14152,"Ġmorphisms":14153,"ĠLA":14154,"Ġbaryon":14155,"ĠStadium":14156,"Root":14157,"Ġreput":14158,"interval":14159,"sters":14160,"ĠON":14161,"Ġwonderful":14162,"hookrightarrow":14163,"ĠImages":14164,"TEST":14165,"ĠKorean":14166,"Ġdeterminant":14167,"ĠTan":14168,"ĠBBC":14169,"Ġbipart":14170,"ĠDream":14171,"Ġassistant":14172,"ederation":14173,"caling":14174,"limited":14175,"gradient":14176,"ials":14177,"Ġintervention":14178,"Ġpitch":14179,"Ġminimizing":14180,"Ġ(*":14181,"omas":14182,"acon":14183,"Ġsoldiers":14184,"TL":14185,"bean":14186,"Ġholiday":14187,"Matrix":14188,"ĠWinter":14189,"Ġsupervised":14190,"Ġ>>":14191,"Obj":14192,"ĠEXPECT":14193,"ĠPit":14194,"Ġsad":14195,"orne":14196,"ĠCommand":14197,"Math":14198,"bos":14199,"etics":14200,"}}-\\":14201,"scheme":14202,"SY":14203,"ĠNASA":14204,"]_{\\":14205,"ĠSoviet":14206,"entropy":14207,"Str":14208,"ĠUnit":14209,"ĠBorel":14210,"ĠLevel":14211,"Ġdrops":14212,"126":14213,"Ġrelate":14214,"engine":14215,"Ġunsigned":14216,"Ġmedicine":14217,"Ġdocumentation":14218,"attering":14219,"ĠSquare":14220,"ĠFarm":14221,"Ġbomb":14222,"Light":14223,"ĠNations":14224,"Wang":14225,"ĠMoon":14226,"Ġoptional":14227,"ĠThird":14228,"\\@":14229,"ping":14230,"ĠSenior":14231,"Ġbear":14232,"awn":14233,"aro":14234,"Mass":14235,"estimate":14236,"117":14237,"Apr":14238,"122":14239,"maj":14240,"Ġengagement":14241,"ĠSite":14242,"Ġhouseholds":14243,"ĠLewis":14244,"Ġpurchased":14245,"ocker":14246,"Ġtiny":14247,"Ġpartitions":14248,"Ġaz":14249,"Ġutilized":14250,"Ġopposition":14251,"Bytes":14252,"IGHT":14253,"liance":14254,"Ġseats":14255,"Ġpharma":14256,"Ġhosts":14257,"WA":14258,"Ġexecute":14259,"Ġcollaps":14260,"Ġ\\)":14261,"contains":14262,"Ġproto":14263,"Pool":14264,"Ġdevelopments":14265,"imated":14266,"Ġfacilitate":14267,"Ġveget":14268,"fd":14269,"}{.":14270,"Ġstructured":14271,"conditions":14272,"Ġtries":14273,"Reader":14274,"Ġsolely":14275,"Ġrounds":14276,"Ġcomparisons":14277,"Ġmild":14278,"ĠWI":14279,"ĠWord":14280,"Ġofficially":14281,"Ġkpc":14282,"ounded":14283,"methods":14284,"ĠAnton":14285,"ĠLE":14286,"Ġenumer":14287,"scalar":14288,"ĠParamet":14289,"representation":14290,"ryption":14291,"ĠAbb":14292,"overview":14293,"Ġancest":14294,"North":14295,"ĠGh":14296,"Ġmaintaining":14297,"ologists":14298,"Like":14299,"TF":14300,"Ġecosystem":14301,"ruggle":14302,"Ġiterative":14303,"Ġovers":14304,"Assert":14305,"Ġnarrative":14306,"Ġhook":14307,"Ġelectricity":14308,"stance":14309,"ceive":14310,"mask":14311,"ĠAltern":14312,"outer":14313,"ĠHR":14314,"VM":14315,"----------------------------------------------------------------":14316,"ĠGallery":14317,"changes":14318,"ĠHollywood":14319,"ĠCancer":14320,"Ġ'/":14321,"Ġoverhead":14322,"GF":14323,"Ġtrav":14324,"Member":14325,"Ġaxi":14326,"dig":14327,"Ġrecommendations":14328,"cop":14329,"appy":14330,"Euro":14331,"Ġprofessionals":14332,"orry":14333,"Ġdifferentiable":14334,"Ġma":14335,"isode":14336,"oub":14337,"umar":14338,"Bit":14339,"ĠLeft":14340,"Ġbasically":14341,"Ġsimulate":14342,"lag":14343,"Ġsessions":14344,"Ġsearches":14345,"Ġfees":14346,"ĠPL":14347,"ĠLP":14348,"Ġmart":14349,"Ġreject":14350,"atern":14351,"175":14352,"noalign":14353,"âĦ":14354,"amiltonian":14355,"ĠFa":14356,"electron":14357,"Ġarrows":14358,"Ġfraud":14359,"^+(":14360,"\\>":14361,"follow":14362,"Ġuniqueness":14363,"tu":14364,"neut":14365,"Sep":14366,"Ġtough":14367,"taken":14368,"Ġsolo":14369,"Ġevolutionary":14370,"Gal":14371,"Build":14372,"Ġlect":14373,"Ġrum":14374,"oca":14375,"ĠOntario":14376,"ĠAB":14377,"ĠBlog":14378,"Ġstood":14379,"Package":14380,"ĠPur":14381,"triangleq":14382,"anka":14383,"Ġdiffers":14384,"Ġperpendicular":14385,"Ġtrim":14386,"Ġhierarchical":14387,"Ġdisag":14388,"Ġboys":14389,"edding":14390,".\\,\\":14391,"Perm":14392,"ĠRL":14393,"ĠJane":14394,"ĠLaure":14395,"_{\\{":14396,"hops":14397,"Ġlob":14398,"ĠChannel":14399,"systems":14400,"Editor":14401,",+":14402,"Normal":14403,"lapse":14404,"Ġtidal":14405,"Ġimplements":14406,"1963":14407,"Ã©e":14408,"plots":14409,"ennessee":14410,"thew":14411,"Micro":14412,"Ġbundles":14413,"|$.":14414,".,][]{":14415,"burn":14416,"ĠHeart":14417,"Ġenjoyed":14418,"Ġrailway":14419,"Copy":14420,"Ġregimes":14421,"score":14422,"Ġengaged":14423,"ika":14424,"Ġincorporate":14425,";<":14426,"rates":14427,"Extension":14428,"Ġhat":14429,"what":14430,"Ġlepton":14431,"Ġencounter":14432,"ĠBesides":14433,"Ġskill":14434,"Stand":14435,"Ġgrey":14436,"rotate":14437,"Ġfinger":14438,"ĠHur":14439,"ĠPerformance":14440,"Ġincorporated":14441,"Ġpodcast":14442,"Ġnotations":14443,"Ġfold":14444,"Ġdiscipl":14445,"filldraw":14446,"ĠEs":14447,"Security":14448,"UD":14449,"Ġillegal":14450,"HA":14451,"Ġpour":14452,"ĠRiemannian":14453,"theore":14454,"imp":14455,"Equation":14456,"Ġgeneralize":14457,"PER":14458,"Ġunexpected":14459,"Ġlisting":14460,"Ġinduce":14461,"arcel":14462,"ĠEM":14463,"nabled":14464,"Ġsurely":14465,"Ġpreserving":14466,"ige":14467,"iga":14468,"Ġbelieves":14469,"Ġsuffer":14470,"tery":14471,"Ġmanual":14472,"GW":14473,").\\":14474,"racks":14475,"ĠSA":14476,"Ġanisotropy":14477,"Ġstopping":14478,"Ġgaps":14479,"Ġredshifts":14480,"}--\\":14481,"Algorithm":14482,"Ġreviewed":14483,"Ġcomplaint":14484,"HI":14485,"Single":14486,"owntown":14487,"Ġconcert":14488,"\\),":14489,"ĠHave":14490,"Ġbtn":14491,"Ġinspe":14492,"Ġlever":14493,"entials":14494,"Argument":14495,"KEY":14496,"Ġimplied":14497,"Ġassertion":14498,"ĠTurkey":14499,"Vir":14500,
[...]
