#version: 0.2
Ġ Ġ
ĠĠ ĠĠ
t h
i n
o n
e r
Ġ a
Ġ th
r e
t i
e n
Ġth e
o r
a l
Ġ s
t e
Ġ c
l e
Ġ \
i s
ti on
a r
a n
Ġ o
ĠĠ Ġ
e s
Ġ $
Ġ f
ĠĠĠĠ ĠĠĠĠ
Ġ t
Ġ p
Ġ w
r o
m a
d e
in g
Ġ in
Ġ b
t a
Ġo f
l a
s e
Ġa n
r a
i c
m e
i g
{ \
a t
i t
s t
Ġan d
Ġt o
e l
Ġ d
en t
o u
Ġ re
Ġ n
Ġ e
c e
Ġ (
Ġ h
e c
g e
o l
s i
m p
Ġ =
Ġ is
ĠĠĠĠ ĠĠĠ
e d
_ {
č Ċ
q u
c h
Ġ m
l o
t r
s s
u n
a tion
T h
Ġ$ \
u r
ĉ ĉ
i d
i l
Ġf or
< /
v e
t er
u l
v er
ma th
l y
o t
en d
i f
u m
a s
= "
e t
Ġc on
) ;
Ġ &
i th
- -
Ġ S
h t
Ġ g
Ġ v
Ġ <
c tion
Ġth at
} \
i te
Ġ {
o m
b e
Ġ on
} $
te d
^ {
a d
p h
a m
c t
c al
Ġ Ċ
u s
re f
Ġ C
Ġb e
Th e
u t
x t
Ġ l
Ġ A
o w
Ġ de
u re
b le
ĠĠĠĠĠĠĠĠ ĠĠĠ
r i
p p
a me
s p
Ġ I
Ġw ith
Ġp ro
g in
Ġw h
/ /
ig ht
u b
d i
} }
in e
o de
Ġ *
Ġw e
t s
a te
o d
( \
Ġa l
c k
i r
Ġ }
Ġ ma
2 0
er e
l i
be gin
o p
an d
f ra
u e
Ġa s
o re
Ġb y
" >
it y
Ġ M
Ġa re
Ġe x
_ {\
Ġ F
) $
f t
ĠĠĠĠĠĠĠĠ ĠĠĠĠĠĠĠĠ
o mp
la ss
p er
m ent
ti c
d er
Ġ P
e w
e qu
Ġth is
es s
p e
} {
ĠĠĠĠ Ġ
ro m
i m
te xt
ec t
a se
fra c
m b
Ġ B
u p
} ,
d a
Ġ L
i z
Ġ The
r ight
c ite
ou r
Ġ or
Ġ R
Ġ i
Ġ T
b el
t o
Ġ "
Ġ -
e q
} )
Ġ it
( )
si on
Ġ D
. .
p a
is t
f or
ge t
Ġ H
Ġa t
re s
in t
I n
* *
â Ģ
y s
r an
c on
la bel
ou n
tion s
Ġ W
Ġ N
Ġ me
Ġs h
l u
ur n
Ġ E
a ge
p ar
Ġ if
Ġf rom
0 0
Ġc lass
math b
, \
f ig
l ic
t y
ig n
lo w
k e
le ft
f f
Ġ +
o me
or t
Ġc h
$ ,
r m
$ .
Ġ G
-- --
= =
Ġc an
o s
equ ation
Ġs t
Ġc omp
i v
th e
i le
math cal
u se
a ve
d s
t urn
al l
a p
Ġ un
Ġs u
en ce
Ġp ar
ic h
er s
un ction
es t
} .
a v
ti ve
tr i
p ro
ti al
c c
en er
Ġ '
th er
} (
l d
g a
ar y
an t
d u
a ble
Ġ y
l ine
a ta
} ^
Ġ Th
Ġ le
ĠĠĠĠĠĠĠĠ ĠĠĠĠĠĠĠ
Ġs e
Ġs ta
} _
a re
m u
~ \
a ch
se t
) .
al ue
Ġ O
ph a
ti l
o c
ro w
ode l
y pe
ul t
ti m
st r
Ġn ot
b u
20 1
el l
al pha
Ġ [
o g
) ,
Ġh ave
il l
ĠI n
s er
Ġo b
Ġwh ich
m s
) \
f er
Ġre s
Ġd is
an ce
p si
Ġ lo
c ri
an g
b er
ra y
Ġ //
f in
la tion
Ġf unction
ĉĉ ĉĉ
f a
Ġ </
.. /
mp le
a b
i de
1 0
- >
ta in
Ġ r
$ \
our ce
a g
: :
ar i
Ġs p
Ġre turn
Ġ us
p t
Ġa pp
a y
Ġp o
ic al
c lu
ou t
C on
in d
or k
tr ing
p o
am ma
o ver
en s
on g
i re
v el
_ \
Ġ k
s ub
= \
e x
a ck
Ġex p
Ġn e
i el
h o
Ġ\ \
s o
Ġs et
j ect
d ot
} _{
Ġ use
o f
} ^{
mathb b
i al
ti me
Ġ U
Ġ te
i es
ig ma
tim es
a c
b o
Ġal l
Ġ qu
- \
Ġd ata
an s
s um
Ġ j
Ġ @
m l
p ut
Ġh as
d ing
^ {\
re e
p i
Ġ la
ph i
Ġa d
or y
a k
g ra
Ġ {\
e m
w e
di v
ub lic
a ct
ou ld
um ber
Ġ /
te s
a ted
s h
Ġn ew
i on
mb da
ou s
la mbda
id th
Ġm odel
Ġ ra
re n
ess age
b f
a pp
en c
Ġin ter
( "
m in
p s
ow n
Ġa r
ta tion
l on
Ġw as
ar d
" ,
Ġp er
Ġ V
Ġn o
at or
> </
ys te
( );
ul l
c om
Ġon e
ation s
âĢ Ļ
Ġ J
b ar
ent s
ul ar
ic e
l l
1 9
Ġc om
Ġw ill
tri bu
se ction
Ġd o
mathb f
p tion
v i
w o
' ,
Ġp a
t ing
n e
Ġp re
h at
c ol
iz e
mp ort
sp an
psi lon
> <
ite m
Ġe v
r or
Ġa ss
on e
un d
---- ----
ol low
s igma
../ ../
Ġ :
c re
ol u
e ta
o st
) )
de d
n ame
Ġ .
Ġ( \
n o
al ign
1 2
ti t
Ġ K
la y
ig h
Ġd if
^{ -
} {\
ti es
Ġs a
R e
u al
ĠW e
ir st
i p
be ta
Ġcon t
u st
Ġl ine
Ġb o
th od
o k
til de
y n
Ġ x
iel d
Ġ |
ar k
i x
ar ray
oun d
for m
Ġf ollow
ĉĉ ĉ
w h
ro up
Ġn ame
Ġcon st
Ġe qu
+ \
a st
or re
ec tion
v ar
se d
Ġt wo
Ġ ver
\ \
Ġt ran
math rm
de l
Ġv alue
** **
ĠĠĠĠĠĠĠĠ Ġ
Ġo ut
g amma
x i
w idth
at ure
P ro
ic s
Ġ* /
* }
c ent
== ==
ht ml
Ġal so
u le
or m
the ta
W e
s c
Ġg ener
e ar
Ġs ub
s ta
g h
al u
si tion
E x
ment s
ame ter
Ġ time
in k
r ho
Ġ en
Ġo ur
Ġh ref
yste m
del ta
Ġth ere
o id
c es
^ \
fig ure
u ct
ĠĠĠĠĠĠĠĠ ĠĠĠĠĠĠĠĠĠĠĠ
Ġt r
s ource
] {
Ġsu ch
ma tion
Ġt ype
Ġin t
) }
Ġre p
20 0
Ġwh ere
a ce
le q
Ġs tr
clu de
Ġh e
Ġp ublic
ta u
E R
( '
m essage
o b
g er
sp on
le d
' s
Ġc ase
in al
Ġc ol
ĠTh is
Ġdif fer
th is
tr ans
is h
c dot
$ -
Ġo ver
Ġa b
Ġon ly
ti cal
de x
Ġ _
Ġ ro
}$ ,
Ġs o
Ġb et
p end
N ame
}$ .
b ig
Ġd es
Ġc o
Ġ get
Ġb ut
Ġan y
Ġc orre
Ġp h
or s
or d
Ġg iv
f o
} (\
Ġm ore
Ġo p
Ġth en
Ġt ra
ar t
ta ble
par tial
Ġsh ow
eq ref
O N
Ġ u
m o
ser v
n u
Ġe ach
c ode
Ġ= >
Ġ #
Ġre g
1 1
Ġa cc
cri pt
il ity
Ġ `
o se
pa ce
Ġo ther
Ġ id
Ġs ome
h e
c ap
ul ts
i mport
Ġe le
d ic
Ġsp ec
al se
t d
/ >
Ġ up
en g
I N
T ype
ft y
in fty
ar row
S tring
lo ck
te x
is e
a mple
ome ga
ri v
Ġwh en
f ore
eq n
Ġth an
di tion
we en
w ork
er t
I d
u d
ta b
Ġ âĢ
Ġf irst
it s
g le
D e
en sion
el f
sp ace
" />
D el
e mp
Ġn umber
| \
1 6
in ce
g es
z e
Ġi mp
Ġy ou
re turn
Ġre qu
S T
# #
Ġe xt
ren t
c omp
F or
Ġc ur
Ġ er
de f
u la
Del ta
t on
Ġl i
Ġv ari
oun t
Ġus ing
Ġbet ween
d d
ter n
m all
ty pe
tr ic
par am
il d
u ra
Ġthe se
si der
ke y
Ġn on
qu ad
R E
Ġme thod
re ss
ti f
E n
v es
Ġs elf
Ġthe ir
Ġuse d
Ġtran s
Ġit s
an n
ec k
da ta
1 5
lo g
R es
ce d
trans lation
t t
Ġde fin
ul ti
c ted
g y
c ess
Ġ --
\ ,
an ge
se l
olu tion
Ġw ork
i e
C h
s f
Ġg ra
Ġ$ (
se c
i a
Ġ >
iz ation
s u
r t
in clude
Ġh igh
Ġgiv en
en tial
le s
e xt
ar ge
ro und
c lass
Ġapp ro
eng th
alu es
p m
Ġsta te
} [
l ang
Ġ es
Ġe ff
s q
Ġ z
: //
Ġres ult
Ġ X
} }\
h i
)$ .
Ġor der
a u
ase d
ĠR e
ma in
Ġpar ameter
lo c
ĠF or
o te
v al
ore m
er v
Ġt er
Ġin to
1 3
T o
A T
iz ed
a x
tr y
cent er
Ġ !
Ġm an
$ $
Ġ el
Ġbe en
Ġs c
gra ph
eqn array
p re
e psilon
ol ds
Ġs im
ĠĠĠĠĠĠĠĠĠĠĠĠĠĠĠĠ ĠĠĠĠĠĠĠĠĠĠĠĠĠĠĠĠ
ĠĠ Ċ
2 5
ma ge
on t
Ġc al
Ġun der
wh ere
L ist
ch e
y m
Ġ Y
ar ch
Ġpro v
um n
ma t
on d
Ġ )
1 4
Ġp res
r y
sp ec
a ction
i ew
Ġob tain
S ta
} _{\
Ġre la
tri x
m on
ir c
Ġde f
Ġ= =
ex p
Ġm o
n ing
Ġ end
Ġfor m
_ _
Ġcon sider
e ver
Ġthe y
ec ted
ce ption
Ġm od
Ġs ame
Ġres ults
o x
Ġma y
Ġdiffer ent
st ra
g s
al s
Ġpar tic
i ed
me ga
d is
if ic
Ġn ull
re ad
l an
y mb
ol d
^ *
Ġo per
O mega
ht t
w ide
ymb ol
fa ult
S t
al ly
"> <
sq rt
)$ ,
a ss
Ġb ec
Ġ Q
si ze
Ġf act
Ġfollow ing
f ile
) :
n ew
b ra
O R
ĠĠĠĠĠĠĠĠ ĠĠĠĠĠ
Ġs ign
as es
sel f
g or
ĠF ig
b ack
ol og
as ure
Ġcomp le
A R
G amma
Ġw ere
ro u
ĠĠĠĠ ĠĠ
f ter
ate s
1 8
L E
Ġs ec
v ent
Ġse e
vel y
Ġtr ue
S S
I D
m ary
Ġf ield
si m
Ġv oid
Ġg o
s k
Ġ čĊ
Ġf e
Ġ$ {\
text bf
a th
ic i
sub section
Ġf alse
at ch
ect or
c m
Ġv ar
D ata
s on
in ts
v are
Ġte st
for mation
Ġs ystem
ti v
^{ (
Ġan al
ra w
vare psilon
fa ce
cal e
Ġa c
' )
str ing
A n
on s
ĠC h
o le
} =
re d
ad er
cap tion
tit le
i an
Ġpro per
ot s
ener gy
Ġdis tribu
er y
i me
ĠI t
A r
}^ {\
a use
Ġs pace
graph ics
ic k
Ġrep res
m od
e le
b r
p r
Ġ\ ,
Ġp ol
av a
per i
am es
um er
um ent
-------- --------
ran gle
riv ate
Ġch ar
Ġd ire
m and
3 2
) =
ti vely
c o
include graphics
Ġsu pp
ĠP ro
b m
at ing
re qu
Ġ low
. ,
P ar
O b
1 00
ad d
enc y
right arrow
uct ure
e p
" );
te st
Ġm in
**** ****
m an
st ance
vi ew
Ġob serv
i ve
et work
Ġpo int
n on
Ġbo th
ec ts
en tation
Ġpro du
Ġme asure
l it
l ing
âĢ Ŀ
) );
Ġd en
Ġcorre spon
Ġs tring
v alue
ĠA n
Ġb ack
A L
loc ation
E N
p lay
g o
Ġv alues
Ġab out
d ate
t ro
Ġw ould
Ġer ror
ar get
i tion
Ġk n
ver y
n er
i tial
Ġg roup
le m
as h
1 7
ow ever
C ol
3 0
} ;
Ġw ell
r it
n b
orm al
var phi
p ri
m is
is ts
ge q
Ġf inal
ĠĠĠĠĠĠĠĠĠĠĠĠĠĠĠĠ ĠĠĠĠĠĠĠ
si ble
or g
& \
st y
. ~\
Ġb u
V alue
. }
// //
Ġel se
gor ith
D E
Ġpro ble
emp h
Ġdes cri
t op
S et
rou gh
Ġma ss
over line
Ġde c
or der
le t
v ec
fra k
Ġdis c
Ġf ra
Th is
y p
Ġs i
m it
Ġin v
t en
Ġs mall
d es
Ġin te
s cript
al ity
ch i
p x
ens ure
5 0
Ġst ar
bo x
Ġs ur
Ġ energy
Ġpro cess
sty le
Ġ& &
t ra
pro of
C omp
st er
i ver
S E
ĠI f
li ent
il ar
Ġs te
le ction
Ġsh ould
on ent
B y
2 2
nb sp
as k
] ,
Ġes ti
( $
am b
B ig
}, \
me d
od y
le ar
) ^
Ġm ost
in s
v ed
==== ====
ĠC on
re am
Ġs ize
Ġsta tic
r ite
Ġex ample
' '
}) .
Ġl im
ro id
Ġ/ **
Ġcon tain
ct or
a tive
ĠĠĠĠ Ċ
r c
l er
i o
ĠD e
[ \
e y
] ;
Ġp os
Ġf in
2 1
Ġass u
math frak
mb er
Ġm ulti
in es
Ġ ran
ma x
u th
Ġor g
" )
er o
h line
r ror
.. .
la s
Ġcomp u
Ġ ,
Ġlo cal
Ġf ile
w w
C T
U n
Ex ception
f unction
Ġ %
se e
ens ity
b olds
Ġc re
ou gh
res sion
c i
b it
in ter
A s
Ġ// /
il ter
la te
erv ice
Ġd ist
Ġ Z
bolds ymbol
ire d
lang le
de pend
2 4
Ġs ing
Ġdo es
iel ds
} }$
b y
ow er
Ġle t
Ġh is
a ke
bo ve
Ġde pend
la ce
w ith
Ġte mp
is ion
ut o
Ġgener al
Ġc lo
c ur
B u
Ġwh ile
Ġdefin ed
v en
A N
la t
amb da
qu e
Ġb ound
s ing
ym me
i b
Ġth rough
L ambda
ld ots
Ġa bove
l ink
Ġf ind
b in
oc i
a ys
am il
ac ter
p ublic
f ul
Ġe very
le ss
lo b
ro ss
er n
I T
is m
L et
P hi
C O
Ġmodel s
Ġad d
n ot
c y
Ġl arge
Ġma t
Ġne ed
ma te
M E
g r
Ġstr ucture
Ġma x
app a
Ġfollow s
Ġthe m
ĠS tring
ab ility
Ġsh own
ro p
g roup
A t
ti ty
yn am
Ġof f
ĠU n
in u
Ġn ow
a pa
Ġs ol
m ark
n ab
m er
t ent
Ġh and
po sition
Ġid en
Ġex peri
i er
cite p
in dex
cc ess
Ġl ong
ĉĉĉĉ ĉ
t us
() .
Ġ! =
Ġin cre
t al
k appa
or ph
Ġin clu
col or
mb ox
gorith m
o times
nab la
. \
Ġp e
Ġ right
ing s
Ġa fter
Ġcur rent
19 9
u lation
vi ous
M e
a mp
ical ly
Ġf a
c irc
ic t
Ġp rivate
en ted
Ġs er
Ob ject
6 4
u ch
op er
Ġparameter s
Ġb el
e e
a i
ĠâĢ ľ
Ġi mport
E rror
Ġcon n
Ġn etwork
n av
d t
o v
tex tit
() );
m m
3 3
g round
Ġre al
j s
m odel
} )$
en e
Ġs ince
Ġcal c
b ase
"> </
str u
ix ed
Ġproble m
Ġto p
n ode
re ak
non umber
Ġth ree
re g
ensure math
e ff
str uct
Ġd i
Ġ` `
G et
Ġy our
ura tion
Ġw or
ish ed
and om
en se
\ %
Ġper form
Ġe d
ind ow
Ġcon s
Ġsec ond
V iew
w ar
Ġp r
Ġreg ion
4 0
L o
Ġdistribu tion
Ġin formation
}) ,
i j
" ;
Ġra di
Ġpar t
\ |
s te
. </
P o
}} {
Ġc ent
] .
Ġoper ator
) (
Ġli ke
sum mary
[ '
Ġma g
Ġ ent
si ve
Ġs ection
od es
l ist
mis sion
ur ther
Ġ key
F ile
Ġfe ature
ys is
Ġ q
2 3
fer ence
d f
Ġst ud
Ġbec ause
c or
n ess
Ġma trix
! --
Ġa g
Ġpro b
are d
ic es
Ġver y
ff er
ĠA s
ma p
C lass
Ġf ound
ur ing
ti sf
a in
Ġin itial
Ġde ter
n t
. _
S igma
../../ ../../
Ġn ode
Ġ( $
Ġal low
le ment
Ġin put
enc es
Ġsa mple
op e
Ġappro ach
de fin
lo ad
Ġter ms
Ġc ould
=" +
Ġgra ph
pa th
er ature
\ [
if ied
htt p
v oid
A C
op y
du ced
qu ot
al id
ec tive
ver t
00 0
T est
u di
le ct
re at
Ġsim ilar
Ġr un
per ty
Ġ/ >
Ġsu per
di m
Ġd er
Ġl ist
Ġev en
tic s
S h
dot s
ot t
il s
i ties
Ġs um
si tive
K ey
Ġma in
la ck
R O
ur l
if t
ĠTh en
Ġle vel
/ \
R equ
Ġc all
pp er
n g
lic ation
ra ph
Ġprov ide
con st
Ġpa th
Ġt ak
Ġh ow
' );
Ġob ject
Ġp ri
Ġh ad
b ility
ĠA l
Ġa m
ĠE x
ta tions
d raw
' ]
Ġb ased
wide tilde
ga in
im um
ur al
\ !
Ġm ust
ti ce
Sta te
ou p
Ġma p
L L
Ġpartic ular
Ġsa tisf
T ime
Ġa ction
tiv ity
ic ation
A l
F F
I C
Ġfunction s
Ġd im
a w
ar g
us er
6 0
ici ent
() ,
Ġd ensity
Ġequ ation
Ġy ear
ot ential
Ġar g
Ġh ere
in ing
able s
la ble
~ ~
{ -
Ġobtain ed
Ġs olution
center ing
Ġre ad
w ard
P E
et s
Ġchar acter
Ġ| |
pa ck
Ġre spec
Ġcont ro
Ġle ad
ĠS t
or ted
ann el
un c
Ġh y
tribu te
H e
} -
es e
Ġpa per
C om
Ġwh o
Ġpre dic
Ġs cal
F ig
if y
pri me
tern al
ty le
u c
O p
8 0
Ġcorrespon ding
p ec
ĠT o
olog y
Ġ left
Ġma ke
I ON
ag er
Ġw ay
Ġ title
l ength
ce pt
L A
O n
f rom
Ġman y
Ġshow s
Ġline ar
Ġde te
2 7
vel op
Ġch o
li m
Ġs equ
T E
ma trix
Ġle ar
tab ular
us h
Ġsing le
T ext
Ġst and
p os
Ġt yp
Ġop tim
} +
Ġin dic
lob al
du ction
Ġad dition
spon se
z eta
ĠTh ere
Ġh el
ge bra
an ts
id es
4 5
Ġconst ant
Ġwh at
" :
\ {
ĠL et
se arch
depend ent
` `
Ġpo ints
a pe
si de
Ġlo g
Ġcon dition
Ġ ge
M an
er m
\ ]
Ġ& =
Ġm on
Ġ: =
ite d
ĠE q
Ġ );
Ġd ue
Ġob j
Ġe t
Ġfin ite
i or
u til
c er
o ck
Ġf lu
Ġi mage
ut ton
em ma
20 20
Ġ-- >
) =\
ou ble
Ġpos sible
Ġj ust
in c
Ġdim ension
Q u
te mp
Ġla st
Ġe mp
v ir
Ġt arget
Ġex ist
lo t
Ġus er
u g
Ġdire ct
/ *
7 5
el y
Ġh er
un der
o th
Ġs ource
iv al
li es
Ġth ose
9 9
Ġph ase
Ġde ta
Ġappro xi
Ġcon fig
Ġbe ing
cri ption
Ġ ?
W ith
E vent
ti s
ual ly
o ther
ole an
htt ps
) }\
u te
/ **
row s
in ed
og le
' :
Ġa ct
Ġc ode
di tions
P ath
s mall
A P
Ġv ector
ĠW h
I t
} =\
con fig
d oc
our ces
Ġkn ow
Ġthe ory
Ġch eck
in put
Ġm y
ma ges
; \
I f
ĠThe orem
ule s
Ġsta tes
Ġcalc ula
E qu
Ġin dex
' t
b ed
Ġch ange
0 1
Ġor ig
Ġb lock
l ight
{ (
Ġran ge
A pp
ĠR es
Ġele ment
Ġp otential
Ġs yste
l s
In fo
() )
Ġbe h
0 5
Ġv is
ĠH owever
N ode
Ġp ower
il der
In dex
Ġlim it
tr ue
ĉ Ċ
is tic
Ġrespec tively
Ġspec tr
ver age
ames pace
Ġstud y
Ġmulti p
Ġ text
ott om
ation al
## ##
le te
Ġpro of
ri de
T R
L e
om orph
j o
3 5
Ġpa ir
Ġme an
Ġanal ysis
Ġev ent
Requ est
an el
) ^{
as on
Ġr andom
Ġint ro
Ġcont inu
b ody
Ġcon text
2 8
I te
g ener
pro p
Ġa gain
Ġre f
Ġbe fore
201 8
i i
ver sion
$ )
) {
ne xt
} ]
f ield
Ġl ength
Ġs ymme
ag es
sp ect
f e
Ġver sion
k s
Ġpres ent
cdot s
ic on
ĠĠĠĠĠĠĠĠĠĠĠĠĠĠĠĠ ĠĠĠĠĠĠĠĠĠĠĠ
Ġc oun
Ġcomple x
" "
Ġass oci
ch o
Ġb ase
v ari
A S
es sion
sta te
th m
9 0
ant um
n i
r on
Ġwith in
or ts
m un
Ġto tal
Ġin stance
du ce
Ġp lan
Ġ enc
ĠA r
b lock
er ror
Ġal gorithm
k ing
201 7
A B
} |
) ]
2 6
L O
Con text
Ġra te
v ice
stru ction
pa ge
Ġar ray
O ver
Ġpro po
d o
Ġmethod s
u pp
Ġpre vious
p ort
}_ \
Ġder iv
S ervice
a si
Ġcont ent
Ġne xt
wide hat
Ġc lu
Ġt ri
}^ \
til l
Con fig
a us
oper ator
ĠH e
Ġstr ong
, -
ure s
ch ed
Ġc oup
I S
lem ma
Ġv iew
end s
se qu
Ġter m
Ġdef ine
Ġwith out
Ġm om
al ax
u i
q quad
A D
m d
= '
on ents
u de
po int
+ +
201 9
. ~
Ġconst ra
Ġre c
me di
Ġ( !
[ ]
l us
Ġd ynam
u mp
ĠS ection
' ;
}\ ,
w it
lo at
Ġproper ties
ord in
se ts
e ps
c tr
Ġz ero
Ġdeter min
Ġla y
Ġw idth
val id
ith er
M ap
P si
Ar ray
r id
Ġass ert
A dd
ap i
it or
U R
no te
M L
M odel
o ff
on al
N o
ĠĠĠĠĠĠĠĠ ĠĠ
text width
}} (
c ing
Ġb as
I G
m id
am s
=" ../../../../
tical ly
Ġn ormal
v ing
Ġs pa
en u
Ġ} ,
C ode
^ +
Ġp lay
201 6
}) \
Ġde velop
g ing
Ġst ra
Ġ\ {
Ġte ch
ĠS h
d own
Ġc ar
he ad
Ġout put
th ing
Ġ} );
& =
Ġm uch
Ġrequ ire
ver se
Ġa v
ran s
ile d
ach e
Ġop en
d en
ign ed
an ces
id er
Ġlo c
Ġ/ *
E D
Ġo cc
mo ve
{ {\
ĠĠĠĠĠĠĠĠ ĠĠĠĠ
D es
Ġsa id
Ġb oun
are nt
is ter
O r
ch eck
st ar
Ġdi ag
p on
S ize
gra m
l t
M P
ust om
E lement
apa che
Ġst art
ting s
//// ////
ar is
a ti
c os
app ro
w ord
******** ********
2 9
Ġlow er
tt p
Ġcon ditions
Ġde fault
Ġiden tif
Ġt ask
ĠO n
Ġsi mp
}^{ (
Ġex ists
wh ich
iver s
Ġexp ected
ĠN ew
Ġla t
de fault
Ġ times
Ġfor mu
U T
Ġfra me
Ġb reak
Ġtemp erature
Ġs rc
ra c
Ġt ake
res ult
}\ \
ne tic
g t
op le
math sf
um b
Ġperform ance
3 4
w ise
dis play
V er
ar gin
w n
Ġproper ty
fa ct
6 6
ĠFig ure
Ġback ground
s cale
ĠL emma
Ġi mple
Ite m
Ġsh e
ens or
da y
201 5
Ġd own
pp ing
ĠN o
> &
ur b
p df
yn c
Ġg u
Ġ ke
w are
B e
Ġcon ver
equ iv
F rom
Ġprob ability
able d
si f
Ġsi mple
Ġpo sition
k en
O f
Ġ$ (\
dim ension
I R
W h
l in
r ing
ly ing
la ted
Ġsyste ms
Ġph ot
M essage
Ġprodu ct
n et
ĠE n
Ġf ixed
ind ent
Ġre main
Ġfact or
l ue
sub set
T able
Ġpo sitive
H and
ass ert
ĠâĢ ĵ
im al
Ġab s
Ġs till
ref er
et urn
cre ate
j ava
Ġin st
i k
C H
or ding
li p
Ġsign ific
fo ot
Ġdisc us
} :
D is
Ġs cale
ll er
Ġmat ch
Ġcon f
e v
us ing
0 4
Ġqu antum
ĠB y
Ġobserv ed
ra tion
F ield
Ġcal led
op tion
ai lable
5 5
Ġext ra
Ġhigh er
h er
Ġg alax
y ing
v is
Ġd uring
Ġcol or
x y
Ġa uth
Ġ_ _
al le
Ġj ava
c up
Ġd oc
IN G
ol umn
0 3
amil y
Ġstand ard
y c
lic it
c ss
E T
m i
( {\
cal l
Ġc ases
b or
in fo
& &
Ġc irc
Ġassoci ated
Ġsequ ence
m ul
x space
Ġequ ival
li ed
ob ject
0 8
; &
Col or
Ġc lear
Ġ& \
Ġal ong
Ġv alid
Ġele ments
olu tions
ĉĉĉĉ ĉĉ
Ġqu an
T r
T D
Ġassu me
Ġimport ant
w ay
Ġinter action
t n
201 4
Ġf ields
I s
Ġa verage
Ġsupp ort
Ġcontro l
( -
i od
le cted
R ec
at tern
Ġf ree
Ġph ys
Ġbeh av
con tent
Ġf our
ĠS ta
}} {\
Ġlo ok
} +\
Ġ label
Ġre le
las sif
ww w
tain er
cite t
Ġer r
4 8
Ġcont ra
Ġimp ro
vir on
l and
Ġf ull
Ġf requ
Ġgo od
Ġf urther
] $
Ġa round
Ġev alu
Ġbel ow
Ġth us
| ^
I I
Ġl ines
Con tro
read y
con n
g en
Ġa uto
as ing
w ays
ĠA pp
Ġal gebra
operator name
c ore
Ġcon tribu
U p
E S
rit er
con text
Ġ- \
ĠC omp
---------------- ----------------
at er
Ġcre ate
com mand
lu gin
sp lit
Ġb est
0 7
) -
ĠO b
p ng
si te
M A
Ġrequ est
3 6
h space
Ġequ ations
' $
s in
U ser
Ġkn own
ti g
ĠM e
Ġc ell
ol l
Ġle ast
Ġp op
Ġi de
Ex p
Ġm ark
Ġanal y
ter s
Ġin f
l ou
foot note
umer ate
and roid
O T
i que
Ġsp in
f alse
n eq
mul tic
re ate
Ġst udi
Ġtra ining
Ġc ross
Ġdif f
} -\
da g
Ġcomple te
pon se
Ġpropo sed
ed ge
ic y
S er
bu g
u age
res h
Ġsignific ant
pack age
( (
Ġcom bin
Ġse par
Ġf it
si an
p c
ĠS ystem
t ot
Ġ= ==
me thod
ta g
if e
Ġde g
ent ly
lo y
Ġpe ople
Ġapp ear
0 2
li b
ate g
re p
ou se
Man ager
00 00
Ġ} ;
und le
multic olumn
ver s
3 9
] (
In ter
Ġeff ect
d b
=" ../
F ra
Ġe ither
S P
Ġden ote
ateg ory
Ġwe ight
S ystem
st and
ction s
sk ip
Ġdist ance
c an
Ġl ight
Ġcons ist
no indent
Ġn umer
E E
Ġav ailable
def ine
u tr
the orem
D O
ĠS ince
Ġfeature s
a il
he ight
O ut
L og
) }{
en umerate
t ual
Ġbound ary
0 6
; </
Ġv el
Ġf il
Ġre spect
en ded
a it
Ġl ink
Ġrequ ired
en ame
ĠA ss
Ġin dependent
Ġex act
du ct
om in
ch ar
m y
ti o
Ġma de
3 8
olog ical
3 7
oc us
sc r
Ġse ver
an y
Ġre sponse
Ġe ar
che ma
Ġcomp onent
b b
sta tic
l n
Ġsim ula
C C
$ }
Ġmom ent
A ll
st art
c tive
Ġsur face
re t
um ents
Ġexperi ment
lo cal
] \
Ġexp ression
cur rent
Ġdo main
< !--
Ġste p
Ġle ss
Ġcol umn
Ġl it
Ġde p
Ġesti ma
a cc
n amespace
c lo
n al
ig en
Ġpa ss
Ġper iod
Ġf low
oc ity
ear ch
Ġne ar
Ġlo ss
0 9
Ġacc ura
] [
h as
Ġpro te
ar ger
I P
ith ub
item ize
k n
ur ity
201 3
b ased
at ter
dimension al
tic es
Ġch annel
Ġme ans
an e
) }$
v space
Ġclo se
Th ere
Ġhel p
M od
) </
ĠTh us
ĠL e
Ġs ide
\ ,\
=" #
s w
Ġw rite
al th
L a
U LL
l ish
======== ========
om ial
Ġt able
me mber
ĠA d
Ġv ia
Ġlear ning
Ġed ge
i ble
Ġinter est
U N
g g
ĠG et
} /
Ġgener ated
ut ure
Res ult
Me thod
Ð °
> (
Ġop tions
9 5
Ġdefin ition
ga tive
go ogle
Ġpro j
n s
4 4
Ġand roid
Ġn il
Ġre ce
defin ed
Ġele ctr
n ormal
m ic
Ġdescri bed
m ulti
tic le
ĠTh ese
Ġun it
Ġadd ress
ma il
me ta
3 1
ch ange
we b
B ar
{ }
Ġse arch
Ġco eff
e ther
th at
Ġimp lies
Ġf la
Ġconsider ed
ch an
Ġs pe
}} _
Ġden o
ĠC om
Ġyear s
Ġb i
Ġw rit
Ġm is
r al
Bu ilder
ang es
il li
t or
ter ial
Ġ _{
Ġsu ff
g ithub
ch ie
}} }
for med
ge d
h and
Ġcom mun
Pro perty
d l
Ġspec ific
ar s
Ġbo ol
ste ad
di r
EN T
M S
p or
Ð ¾
N ew
le x
a h
Ġh al
Ġorig inal
Res ponse
c el
par t
or iz
line ar
end er
Ġs k
Ġinclu ding
pp ed
ĠĠĠĠĠĠĠĠĠĠĠĠĠĠĠĠ ĠĠĠĠĠĠĠĠĠĠĠĠĠĠĠ
re en
Ġbet ter
Ġst d
O S
T H
G roup
ang le
C lient
mb ed
Ġco ordin
au th
f ill
lic k
Ġme di
appro x
aris on
Ġ im
t le
Ġal ready
f low
l ong
i mage
di re
k es
Ġc ri
S ub
fin ished
Ġs tyle
r ule
olu me
Ġl arger
mo oth
gin e
\ }$
s l
P i
math scr
viron ment
U S
Qu ery
Over ride
ĠS et
ĠA t
under line
ĠS o
av ing
Ġno te
Ġcontain s
Ġt urn
ĠĠĠĠĠĠĠĠĠĠĠĠĠĠĠĠ Ġ
Ġan other
Ġ\ |
Ġd id
Ġc over
tion al
6 5
n ow
ol der
r is
Ġc er
ec ess
ĠM ore
n ull
Ġgiv es
Ġs olutions
if orm
Ġre lation
o h
) +
m entation
Ġm essage
Ġre cent
Re g
b s
Ġset s
ti tion
Ġa ff
Ġocc ur
N S
A ME
ra m
fra me
Ġinte gra
Ġm ode
wit ch
S ec
Ġf ew
An d
^ -
Ġg ive
Ġequ al
201 2
Ġa chie
Ġin clude
Ã ©
8 5
Ġtran sition
par ameter
Ġexp ect
T ra
b utton
qu ery
ex ample
m ost
Ġpro ve
Ġit er
Ġvari ables
r un
T rans
un finished
A d
En d
Ġrepres entation
Ġsever al
C D
Ġclu ster
6 7
I L
G ener
mod ule
Re f
Ġse en
tr m
g ment
Ġg lobal
o ok
S ele
Ġcomp onents
b ottom
Ġn at
Ġb and
Ġassu mp
er r
Ġc or
Ġwe ak
o od
F act
Ġb in
Ġcoup ling
tex trm
~ $
la tions
Ġh om
Ġrela ted
( {
Ġs ay
Ġal ways
D ate
ol s
Ġf ilter
Ġp ack
res sed
a f
Ġmag netic
Ġc lassif
Ġthere fore
ĠT able
ict ure
c ase
Ġqu es
St ream
te q
o sition
C all
pr int
Ġrela tions
ok en
In t
fin ite
N N
Ġre fer
Ġg reat
col umn
m ore
ce p
L ine
Ġ Ð
ec u
Ġp ers
O P
Ġspectr um
âĢ ľ
C ount
ĠAn d
Ġh olds
e k
Ġcan not
mp l
Ġ ti
es ts
ĠN ote
] )
ĠĠĠĠĠĠĠĠ ĠĠĠĠĠĠ
Ġd ouble
Ġi mages
ph p
}^{ -
Ġd iv
ut ing
Ġesti mate
ĠT r
The ta
20 21
Ġc ap
e vent
A ss
il y
e V
clu sion
ON T
c ast
4 9
su pp
od ing
Ġl ang
Th en
op tions
ser ver
div id
Ġ\ ;
Ġch ild
7 0
{ $
ir d
Ġ< <
201 1
Ġ- >
ĠThere fore
ob j
Ġtr y
o ve
con tro
Ġw ave
Ġeff ective
ide o
S ince
li ke
Ġd on
Ġp lace
Ġvel ocity
ome try
A G
la p
} '
E xt
w rite
C E
or ies
S c
et y
Ġmax imum
lou d
Ġs yn
A ction
f unc
P re
Ġth row
tation al
app end
Ġb lack
P I
emp ty
y mp
Ð µ
ge ther
}} _{
Ġc ost
Ġwh ether
r ic
m es
se teq
g ence
ac tive
che me
la im
P h
N ot
big g
Ġw ant
ore d
8 8
j or
en tion
Ġinte gr
om es
Ġsh ort
< \
le vel
Ġ$\ {
al e
ro ll
In put
4 7
v alues
Ġo wn
Ġp la
bo ok
ec h
Ġaddition al
b a
P er
Ġdiffer ence
ck et
A M
c lient
Ġev olution
ĠĠĠĠĠĠĠĠ Ċ
AT E
j av
U til
Ġb order
) ,\
ern el
pro d
ma tic
Ġ$ |
i res
f irst
201 0
yn omial
p ol
m ar
Par ameter
Ġn ecess
ate ly
to col
ĠP ar
Ġhe ight
= {
kn own
inal ly
G L
Ġreg ular
Ġsu ccess
ĠP h
sh e
Ġsign al
. âĢĿ
ĠC O
Ġpre c
Ġinv ari
Ġprovide d
Ġre ason
dag ger
Ġdes ign
Ġm argin
per ties
le g
Ġmo ve
if f
ic ro
s tit
Ġe igen
Ġm ight
Ġrela tive
Ġobj ects
. $
Ġstar s
Ġeff ects
Sta tus
ĠĠĠĠĠĠĠĠ ĠĠĠĠĊ
Ġmultip le
ĠS ec
text tt
led ge
Ġla w
iz er
Y PE
Ġh im
min us
N ote
L ay
I mage
Ġvari able
ad ding
Ġpo st
n orm
}} ,
it er
th ough
Ġb ro
sub seteq
Ġme chan
Ġme tric
Ġcom mon
Ġne utr
Ġat ta
Ġ ]
Ġin ves
Ġev ents
^{ -\
B lock
Ġcomp ared
8 7
ph er
_ +
Ġre mo
) |
Ġbo olean
si tions
our s
in o
th es
divid ual
Ġp anel
t urb
Ġwor ld
ta ge
Ġra tio
in ess
S C
ĠĠĠ Ċ
N av
* {
he ader
Comp onent
id ence
Ġinv ol
f ont
Ġ( $\
Ġdire ction
Ġn odes
end ing
RE F
F irst
S U
umb ers
Ġspec ial
A A
Ġthe orem
Ġp ur
Ġflu x
Ġhy per
e f
it al
Ġcent er
Ġf ar
\ '
sta ck
S p
Ġsp ect
on ic
S upp
nav bar
H T
U E
$ _
Ġbas is
Ġpro file
Ġd one
Ġg au
Ġ( )
Ġ" ""
or age
F e
w edge
con d
a de
B ase
Ġre str
\ }
Ġcontinu ous
Ġdeta ils
qu are
Ġe mission
ta ct
Ġg as
C ell
T oken
v an
h ip
\ "
c ell
ab s
B ox
Op tions
le ase
In stance
requ est
o ot
ic ense
Ġser ies
D oc
Ġu pper
ĠA ll
x ml
om ic
iv en
da p
si d
g ht
ch ild
pro perty
op lus
al og
Ġacc ount
inc ip
ck s
$ (
ĠN ULL
line width
Ġa x
S I
D ec
Ġtyp es
c orre
s g
ĠY ou
Ġ$ -
op en
Ġset ting
ĠC ol
le c
Ġj o
ic tion
lim its
ra di
Ġv ir
il ities
M M
7 7
t arget
for ms
omorph ism
Ġun ique
ist ory
Ġfrequ ency
Ġapp lic
Ġen ough
de ed
ma g
Ġro le
Ġs ite
Ġre l
E d
Ġre ference
iz es
Ġ ~
d le
l ished
Ġno ise
Ġvari ous
Ġpres ented
a ir
Ġli k
Ġdata set
Ġh owever
Ġdeg ree
200 9
Ġp age
ti z
a z
re es
Ġapp lied
Ġequival ent
ran ge
Ġch arge
8 9
str ong
Con n
Ġacc ess
j son
Ġsta tis
Ġcon struct
Ġs mooth
st ream
Ġ item
Res ource
Ġoperator s
Ġdis play
Ġto o
Ġ( -
ect ors
f ilter
Ġf amily
Hand ler
4 6
iz ing
) /
l en
S pec
Ġgalax ies
Ġmat ter
al y
Ġlay er
p y
Ġg row
Ġ+ =
en ari
l or
set minus
S ource
Ġf ig
av es
k et
O D
Ġacc ording
Ġbu il
cre en
ivers ity
c ount
iv ed
_{ (
Ġpol ynomial
om en
Ð ¸
war ds
c s
At tribute
ĠB ut
tribu tes
_{ {\
Ġpro ject
R un
al k
H E
Ġf un
Ġsymme try
Ġre ach
Ġh ttp
Ġin stead
Ġver tex
ĠL ist
8 6
u k
Ġre search
Ġs ervice
Ġexp an
= -
ĠI s
) {\
ty p
L T
b tn
Ġbehav ior
Ġso ft
. "
ran ch
Ġ$ [
Ġan gle
Ġexp licit
Ġmod ule
des cription
Ġcer tain
Ġin equ
s rc
og raph
Ġme m
Ġup date
Ġobserv ations
u ss
ator s
Ġde cre
Ġwh ose
Com mand
LA SS
_ *
Ġe mbed
Bu ffer
= (
L ink
Con tent
mb ers
F unction
Ġc yc
alle l
ta tive
Ġclo sed
in it
E X
200 8
enc ies
en ti
ĠWh en
f s
defin ition
Ġagain st
m t
Ġin dividual
fo o
ig ger
Ġboun ded
F T
C o
im g
ĠD ata
Ġcur ve
amil ton
9 6
Ġ }\
ĠD is
p rivate
[ "
Ġh ard
$ {
Ġhe ad
D B
Ġapp ly
Ġare a
Ġstra te
Ver sion
H el
Ġapp lication
Ġgau ge
Ġext ension
Ġrepres ent
* /
Ġtech ni
Ġsmall er
n umber
over n
Ġtak en
} %
C K
te ger
id den
ele ment
oll ary
4 2
Ġexp lo
c ity
Ġch anges
sub figure
Ġs to
Ġgroup s
O ne
Ġformu la
d x
)\ ,
es ted
Ġ il
v ider
I M
bit r
st o
Ġun cer
s cri
Ġg ame
t ure
ĠW ith
pro cess
Equ al
ho od
Ġcho ice
ari es
Ġto gether
Ġpartic le
Ġf uture
Ġapproxi mation
c r
en tif
or th
N et
c l
Ġh ence
pa rent
9 7
sc ope
Ġa ble
il er
P C
Ġth ink
_{ -
T ask
Ġnat ural
ser ve
r r
align ed
e ded
Ġdirect ly
ĉĉĉĉ ĉĉĉĉ
: \
S O
Ġinter nal
s a
ĠF e
po st
T O
C ur
Ġconfig uration
' \
ĠB e
Ġimpro ve
f it
ĠThe y
Ġw indow
Ġp attern
ho st
um an
Fact ory
Ġres ource
ĠP o
ĠC ar
Ġt ree
Ch ange
Ġpartic les
Ġexp la
N umber
Ġs it
par se
sta tus
Ġprov ides
Ġallow s
Ġsuff icient
,\ ,
Ġphys ical
P S
b lack
qu es
o o
ll ar
Ġ ir
re l
b ul
s up
Ġinter val
{ {
F ilter
Fra me
Ġdetermin ed
ĠN one
Ġext ends
g l
k ip
Ġre d
For mat
Ġac ross
ĠP re
Ġne igh
Ñ Ĥ
us iness
c at
Ġp rac
al t
cre te
) }(
Ġ| \
mat ch
p ush
row ser
Ġbec omes
ific ation
h el
un it
aus sian
} );
Ġbe gin
n um
for mat
f la
ial ly
clo se
La bel
Ġe asi
mon stra
an k
od er
c d
Ġf ore
Ġoptim al
Ġtran sp
Ġunder stand
bu ild
Ġa mp
s ign
Ġcorre ct
N ow
" ]
V ert
m ine
Ġconn ected
Ġun iform
Ġ\ (
Ġm er
n it
on y
con t
Ġcom mand
stra ct
Ġsample s
W indow
Ġnumer ical
Ġradi us
5 7
F ONT
F I
ĠPro position
V ER
Ġmoment um
Ġdynam ics
p tr
ĠL i
Ġ row
pa g
Ġc lient
Ġ+ \
Ġarg ument
Ġo pp
S tyle
z ero
rop y
Ġdescri ption
st d
el se
is ed
Ġregion s
la st
ab ly
ti fact
Ġsc atter
s ol
' _
F A
}} (\
Ġcompu te
De fault
Ġv al
Ġpri or
Ġqu ery
Ġsatisf ies
as cript
Ġh app
E q
ar ing
Ġar bitr
// /
Ġpro ced
r u
Ġs ources
lay out
di ent
re ed
Ġra ther
use d
Tr ue
col on
ici ents
N ext
Ġsol id
erv ices
ra g
Ġen ti
Ġp ut
Ġsimula tions
Ġp lot
B o
re mark
Ġde monstra
lu stra
os en
p lugin
Ġre st
Ġn uc
O per
P age
ĠC o
d ist
se mb
Ġcri tical
on ly
Ġdoc ument
Ġframe work
olu te
ĠO ne
Ġproble ms
ite ms
Ġdiscus sed
D F
mer ic
sh ow
Ġma ps
Ġ&= &
su per
Ġwrit ten
O ff
no tation
Ġ( (
Ġc our
op s
for all
R ow
Ġn umbers
200 7
br ary
P R
le an
Ġver tices
Ġamp lit
âĢ ¦
or ld
Ġla ter
Ġspectr al
8 4
r l
) _{
Ġconstra ints
ĠOb ject
Ġspec ified
as y
n a
fin d
Ġstr uct
ĠI N
R eturn
Ġexperi ments
P r
T ag
per p
up date
g ies
Ch eck
Ġscal ar
ome tric
Ġen vironment
g ress
me q
um in
Ġne gative
ER T
Ar g
de v
\! \!
}$ -
Ð ½
P RO
Ġ< !--
Ġdec ay
Ġg round
Ġinter face
L ast
sub subsection
ra p
Ġincre ase
Ġcon struction
Ġper turb
Ġl ife
Ġs cheme
q l
Ġf ocus
refer ence
v ant
Contro ller
Ġma terial
Ġpe ak
ta te
con tainer
Ġw ar
in stance
ot o
Ġam ong
N O
Ġro ot
so le
u sion
Ġcomp act
il i
Ġconn ection
ri er
s ur
bu f
L oc
Ġaccura cy
Ġd omin
si meq
Ġsc enari
A cc
Ġerror s
Ġman if
Ġdescri be
ĠO r
ar gs
end if
Ġcorrespon ds
Ġp l
id get
Ġcomp arison
ĠH ence
re sponse
oc ial
age ment
Ġlat tice
B undle
Ġwor ds
Ġcon ven
lay er
Ġmeasure d
) ^{\
g u
List ener
Ġprote cted
s es
L S
ul ly
ymp to
f ree
al let
Ġs en
tri es
Ġpro gram
Ġc apa
B utton
) ^{-
she et
ĠR o
5 6
C reate
ĠR ec
f loat
ĠQ u
S e
Ġwe b
9 8
Re ad
Ġn one
sequ ence
S ON
v ector
v o
, âĢĿ
la sh
Ġse lection
Ġt ensor
AB LE
C P
H ere
u ter
ĠH ere
Ġ{ @
N ull
m enu
Ġincre asing
Ġth rows
Ġmin imum
r up
com mon
tot ype
jav ascript
al i
s igned
Ġb ody
text sc
Ġof ten
serv ice
Ġderiv ed
. /
Ġd ay
( &
Po int
b reak
Ġclass ical
an i
Ġclass es
Ġag ree
Ġo ption
param s
Ġse lected
Ġresult ing
Ġo ld
Ġke ep
Ġst ream
S D
Ġv an
Ġcontribu tion
se lect
ĠB u
model s
u ary
li er
}^ *
Ġcorre lation
th en
Ġcent ral
lat form
4 3
ĠR eturn
ĠO ur
new command
B U
Equ als
gorith ms
oriz ont
Ġspa tial
l ines
fin ition
du c
t x
g ges
ĠT est
Ġques tion
ent al
Ġt ag
du ces
M eta
tric es
amilton ian
Ġpr incip
^{ +
Ġpre ss
A uth
Ġc ore
Ġ url
Ġcalcula ted
Ġal most
//////// ////////
pre c
A c
( [
M C
Ġplan e
Ġpar tial
Ġloc ation
Ġfra ction
re m
.~ (\
ous ly
con f
Ġmeasure ments
Ġoper ation
mp ty
Ġar ch
Ġre view
Ġtech n
ĠH REF
Ġmo tion
200 6
yp es
Ġexpan sion
Ġv olume
en tations
Ġcoeff icients
c ases
Ġser ver
ra te
Ġorg an
Ġbu ild
V E
Ġed ges
Ġma kes
ĉĉ Ċ
Ġlo ad
P O
St art
u ation
and id
Ġdiscus sion
ref ix
$ ).
L i
Ġapproxi mate
t ree
am er
Ġassump tion
in ue
or n
ance d
7 6
op t
Ġc ustom
Ġ$ {
: </
Ġde comp
ĠC lass
Ġc opy
$ ^{-
a ded
pa ss
Ġd raw
Ġlang uage
Ġh aving
Ġinves tig
O ur
ma tions
Ġbec ome
Ġfor mat
ri es
v ity
Ġd ate
Ġc os
ce ed
ide d
We b
ate gor
{ $\
Ġp ay
Ġtrans form
U I
) }{\
Ġsupp orted
Ġtak es
resh old
Ġr ule
> >
tr an
ĠâĢ ĺ
Ġper formed
Ġlear n
ĠL o
" ).
Ġinte ger
IN T
a uto
Ñ Ģ
ent ry
}} ^
ti k
Ġnetwork s
Ġsim ulation
Ġes tab
b ound
Ġwork s
Ġinequ ality
in ner
so ft
c ome
orizont al
Ġp arent
z z
P ol
ĠO p
$ $\
Ġre spon
ve x
Ġcorrespon d
ĉ ĠĠĠ
dire ct
Ġintegr al
ix el
Ġdepend s
is ing
< ?
ĠM an
Out put
h om
id ing
Ġ ;
s cal
_ .
Ġsp lit
4 1
Ġconsist ent
out put
i mp
ind ing
en ch
f il
Ġf ac
ĠC LASS
in a
om s
is ms
Ġt w
Col umn
at tr
Ġintro duced
cho ol
m ma
b its
Ġbo x
Ġc atch
m c
Ġ= \
Ġc ount
N D
Ġdistribu tions
Ġcho ose
M ode
C ase
de g
lo or
Ġun til
de c
Ġil lustra
Ġtra ck
} )$.
pro ject
S A
V alid
ph ere
Ġsh ape
Ġnecess ary
Ġinter pre
Ġthe ore
im ilar
Ch ar
Ġne eded
T emp
u ro
Ġdis k
urther more
)\ \
r ont
~~ ~~
p matrix
5 00
Ġin finite
Ġtak ing
Ġb it
Lay out
Ġma jor
re move
a ma
R ight
L ength
Ġpol ar
Ġam ount
Ġdete ction
ĠM on
Ġlead s
Ġc ome
20 00
tif ication
Ġinvari ant
Ġs ense
ren g
b i
Ġdeno tes
bul let
Ġh ome
p g
-- -
Ġsymme tric
ite ct
M ax
ĠI D
u me
ĠMore over
og ene
Ġfa il
Ġhal f
\ _
o sed
Ġsu gges
Ġdiff ic
' }
.. ..
M ore
p le
Ġk ernel
s ystem
Ġc ut
p icture
Ġf ast
Ġus es
ĠF rom
ou th
ĠS p
st ers
Ġsimp ly
Ġac tive
ol ve
Ġh ar
Fig ure
Ġ ensure
=" ../../
8 2
Ġgo ing
ĠA meric
Ġ$ $
Ġcol lection
Ġspect ra
#### ####
ma ke
Ġcur ves
) _
p res
Ġrequ ires
Ġuse ful
c f
`` `
ash ed
M B
I O
Ġme ta
Ġstudi es
ĠC an
min i
end ix
CO DE
th on
Ġdisc uss
Ġarbitr ary
S tr
un e
m ented
N AME
Ġbo ok
Ġch osen
Ġexperiment al
Ġdeter mine
, "
Ġad ded
in te
b l
Ġh ost
Ġon ce
Ġor bit
semb ly
k er
Ġmem ory
ĠG ener
C ON
Wh en
a a
Ð¾ Ð
Ġproced ure
Ġcompu ted
ĠC or
re c
)$ -
ber t
ion s
ĠT ype
="../../../../ ../
Ġdepend ence
' ).
Ġgener ate
~ $\
in f
ri ver
h y
| _{
CO L
ĠT ra
p ts
P T
am l
Ġd ual
Ġauth or
Col lection
a o
in y
Ġad j
Ġlead ing
Ġexample s
p lace
ĠRe f
C S
\| _{
ĠL icense
Ġre duced
}} ^{
id s
Ġth ird
ess ages
or ds
Ġal gorithms
d ro
po se
is ted
200 5
Ġinterest ing
lic e
ir it
Ġsta tus
i mages
ĠG aussian
fin al
se m
Ġma trices
I F
N e
ĠH T
s d
Ġrepres ents
B ack
T ree
display style
el er
Ġf ont
UR L
T YPE
ĠS te
i mple
Ġm ention
ĠB o
Ġmod es
" ),
C L
Ġus ers
ĠS ch
Ġc ause
ĠĠĠĠĠĠĠĠĠĠĠĠĠĠĠĠ ĠĠĠĠĠĠĠĠĠĠĠĠĠĠĠĠĠĠĠ
lic ity
Th us
5 9
ig ation
Ġf ace
Ġprocess es
ĠD es
H owever
pro to
Ġ ...
class es
Ġex cept
R em
Ġch all
mit ted
ar p
k it
Ġemp loy
Ġspe ed
5 1
Ġre n
ER R
str ucture
Ġspa ces
Ġmin im
Ġne ver
dition al
w indow
in st
ib ri
_ -
Ġt reat
Ġenti re
od ot
pro position
tif ic
Ġmag nit
stra p
m ode
Ġpos si
ĠN e
Ġs ymbol
Ġc laim
D ire
8 3
tri b
oun ter
Ġquan ti
Ġvir tual
ta sk
Ġ ess
Ch ild
ser t
Ġres olution
Ġpair s
S u
Add ress
b lue
Ġintro duce
g ular
Ġstudi ed
ec tions
Ser ver
Ġste llar
Ġpr int
map sto
ent er
res ults
ĠUn iversity
7 9
stru cted
Ġat ten
tr ics
omorph ic
++ )
off set
Up date
r and
en tity
$ ;
Ġpol icy
Ġcomp are
Ġfig ure
S o
ĠE X
T P
i ti
ĠS e
Ġneed s
il ibri
H O
Ġbin ary
F orm
Ġm id
Ġexact ly
Ġeasi ly
V is
=" -
ĠD o
The orem
ĠO F
l ar
ac y
Ġb ar
og n
Ġprodu ction
\ {\
Ġsc ore
D D
A b
Ġs ent
Ġf i
Ġch ain
it ory
Ġp ul
In tro
ĠJ an
Ġimp act
Ġy ields
} &
Ġas ympto
bo ot
d y
ar ds
s ue
Ġsub set
Ġpres ence
ds h
Ġcall back
ĠS upp
Ġcre ated
Ġfor ce
Ġse lect
Ġ[ ]
200 4
Ġarg uments
5 4
bo ol
Ġrele vant
u be
ve y
ĠF irst
f i
action s
Ġorig in
h bar
v a
**************** ****************
ĉ Ġ
ro ot
Ġrep ort
n os
me m
p lan
P ack
En tity
Ġin ner
Ġdiag ram
Ġelectr on
Ġtrans fer
U rl
Ġfile s
ar tifact
vari ant
ĠG o
return s
L P
7 2
ĠP er
ĠH amiltonian
reng th
' (
5 2
s m
Ġrep orted
ran t
Ġpop ulation
Ġma king
Ġste ps
Ġqu ad
tif y
b and
K E
tik z
W idth
auth or
5 8
6 8
l ision
Ġre move
Ġth ough
es ti
tt ps
de p
le y
T op
contro l
Ñ ģ
ĠM ay
( _
Ġe asy
requ ire
Ġinclu ded
) },
ra pper
Ġpar ts
da ted
ign ment
Ġstr ict
ed ia
Ġ! ==
ag raph
Ġincre ases
D o
bo ard
Ġn av
M D
C ache
ĠV er
a j
Ġcoordin ates
et ch
h igh
P P
Ġv ectors
Ġex ecu
Ġh uman
Ġal tern
6 9
Pro vider
Ġapplic ations
fa ces
ou ght
$ ~
Ġfor mation
Ġde ep
s or
ec ause
Ġear ly
ial og
tain s
Ġre ally
Ġax is
Ġlik ely
Ġ ve
Ġd ark
temp late
v olution
an te
ri ef
Ġsa ys
) +\
ĠTh at
Ġbel ie
oh n
id ent
Ġit self
Ġran k
Ġre con
Ġreturn s
medi ate
ã ģ
thes is
100 0
if fer
ste p
L D
Ġstructure s
ann er
Ġy et
[ (
}( {\
Ġcompu tation
ĠM ar
Ġh ttps
illi on
Ġconver gence
th ers
ĠA cc
ĠC ont
Ġmeasure ment
ĠR em
Ġiden tity
ĉĉĉĉ ĉĉĉ
Ġc ategory
C A
N R
erm al
mini page
Ġf loat
Ġmon th
ĠS ee
h box
7 8
AT ION
C R
a ther
Ġp ort
ĠĠĠĠĠĠĠĠĠĠĠĠĠĠĠĠ ĠĠĠĠĠ
is es
Ġt or
Ġapproach es
Ġqu ark
Ġp as
Ġemp ty
Ġ$ .
Ġp ub
Ġother wise
ĠU p
Ġh old
r s
pro totype
T ypes
Ġwh ole
j ects
Ġde vice
Ġd r
Ġestima tes
Ġfact ors
bu st
ĠC al
Ġin side
S te
Ġgalax y
ĠRe g
Ġg ap
Ġembed ding
ĠN S
ĠâĢ Ķ
Ġv o
Ġoff set
ti li
Ġ{ }
Ġj ob
Ġknow ledge
Ġc andid
Le vel
se ud
} )$,
di ag
en ing
jo int
Ġext ended
de ta
Ġinteraction s
Ġb lue
Z E
} }$,
Ġob serve
Ġconstra int
ilibri um
on es
ob ile
Ġqu e
c ial
ĠP ol
Ġtrans formation
} }$.
ma ss
Ġlat ter
Ġsh all
al ysis
x x
igh ted
sh ould
Ġan ti
: (
Ġw ord
ĠC oun
Ġdistribu ted
) -\
Ġpro pag
ĠG u
Ġb ranch
on ds
Ġbu ffer
Ġd est
}{ |
ĠM odel
is try
Ġma ch
cript or
b old
Ġdiffer ential
Ġw ide
V AL
Ġabs olute
Ġs ure
Ġon es
M O
ynam ic
&= &
Ġ* *
Ġexist ing
M in
ĠĠĠĠĠĠĠĠĠĠĠĠĠĠĠĠ ĠĠĠĠ
ĠAr ray
ec ute
en sive
) }_{
ici ency
Ġvan ish
5 3
c lear
ĠS T
Ġstrate gy
und am
c p
si ties
) )$
un k
Ġf ully
b es
Ġs witch
Ġf ix
z ed
. )
Ġlo op
N E
int y
Ġanal og
Ġg overn
Ġcour se
i ous
Ġa way
s ample
Ġsignificant ly
Ġscatter ing
Ġ Â
IG N
ĠS ci
t ml
g ments
Ġle mma
ĠF ile
al g
u es
Ġb ottom
Ġestima ted
Ġb ig
' ),
ĠM ark
u ations
F O
Ġa ut
al gebra
Ġl en
Ġsatisf y
o site
las tic
c ref
er ing
Ġpar tition
is k
b ly
Ġop tical
Ġremain s
X X
ta inty
s ymme
Ġappro pri
âĢ ĵ
De f
Ġra tes
Ġcontain ing
ĠA PI
Ġsta ble
Ġa void
li de
6 3
}$ )
S earch
exp ected
mod al
Ġexist ence
su es
Ġn orm
on ential
udi o
re al
ĠA dd
Ġar gs
n ap
n d
ĠD E
um ing
bu ffer
Ġhe alth
ad ow
Ġmass es
Ġboun ds
R o
Ġlit tle
$ ),
Un it
doc ument
Ġin c
Lo cal
oun ds
Ġcont inue
Ġact ually
sc il
Ġrun ning
Ġm orph
ad ing
p atch
style sheet
, $
8 1
ĠN ow
Ġlevel s
ar ily
Off set
Ġte am
) --
] );
Op en
Ġstate ment
Ġent ry
on ical
() ->
U s
}{ (
Ġno tation
Ġess ential
W rite
Ġhand le
A V
" .
S L
ma tically
R L
Util s
Ġv ideo
u gh
Ġpredic tion
Con tainer
Ġbas ic
Par ams
us ic
Ġclassif ication
en tic
y l
Ġhas h
Ġtask s
M at
a fter
C an
7 3
ĠS ub
Ġd iver
d r
Ġmo lec
Ġ$ |\
Ġl arg
Ġb usiness
H z
He ader
Ġpress ure
200 3
7 4
amer a
O O
Ġdep th
v ision
: }
Inter face
Ġb ra
Ġh o
Ġdec ision
R ange
Ġg rid
Ġassu med
com m
i um
artifact Id
> ,
Ġst rength
cc cc
Ġamplit ude
ri ed
con s
Ġs m
Ġf ive
ĠS er
Ġqu ality
un ch
Ġoptim ization
Ġeff icient
T arget
f ect
Q L
ĠIn ter
oun g
Ġren der
v m
Ġc are
we ight
iv es
g ers
,\ \
Ġallow ed
typ es
L I
ber g
Ġp ixel
en ess
T I
He ight
ch ron
9 4
un g
ogene ous
}\ ,\
Intro duction
Ġinclu des
de vice
3 00
F la
Ġgra dient
Ġf lat
Ġk ind
ir m
Ġan gular
Ġres on
Ġcirc le
Ġdevelop ment
Ġrep la
g ent
f loor
Ġrec over
al es
Ġw ater
Ġin duced
) }}
Ġo scil
Ġs low
ĠS pec
Ġb al
v alu
Ġcons ists
it ing
con g
Ġu int
Ġcoun ter
R A
COL OR
re la
Ġs light
Ġide a
Ġsuccess ful
Ġ ^
in ct
ma s
to ken
Ġde vi
S ection
Ġgraph s
Ġact ual
Ġimple mentation
9 2
Ġan sw
Ġtemp late
G C
Ġan n
- $
re me
in ation
Pro cess
w ait
tribu tion
Ġcon c
H ash
Ġm es
Ġex ternal
Ġwh y
En try
Ġ ::
Ġor i
There fore
iv ing
="../../../../ ../../
b ot
P os
" ))
9 3
d rop
Ġhe av
Ġcalc ulation
Ġme mbers
c ar
Ġcon clude
er al
Po sition
Ġcontra st
Ġth reshold
Ġre pe
Ġon line
lo ts
Ġd ays
de bug
U sing
E Q
Config uration
comp onent
Ġinf lu
Ġarch itect
an a
Ġb ul
Ġexperi ence
u int
wh ite
Ġfe ed
ad o
group Id
Ġcontribu tions
is ation
M atch
Ġrestr ic
ro un
Ġst ore
Ġde v
util s
Ġat tribute
Ġre dsh
al low
6 2
Ġin s
ck now
o ke
Ġstar ting
ti ves
Ġdevelop ed
Ġmedi a
G B
Ġs quare
Ġsoft ware
Ġset tings
supp ort
; ->
Ġs us
b order
S H
Ġpers on
Ġgo al
S cript
Ġcalcula tions
Ġin j
res ource
E M
u x
p op
less sim
i bra
el i
Ġr ules
Ġh istory
Ġp ure
] }
h ash
Ġmagnit ude
Ġc li
sta ble
S M
Ġscal ing
g lobal
te in
z on
ri ve
Ġflu ct
Ġwh ite
Ġabs or
ĠP e
C al
Ġbel ong
Ġa dap
Ġ[ \
et ing
c ache
p id
Ġ ^{
B C
in ternal
W ork
F R
Ġm icro
Ġa ge
âĢ Ķ
trans form
circ le
Ġlong er
H ttp
P A
Ġqu ite
ter m
ol ved
c over
N one
Call back
Ġobserv ation
Ġ ign
os ity
ĠM a
Ġ{ $
Ġre duction
Th ese
undam ental
Ġx ml
ĠReturn s
Ġwe ek
as ic
du al
big l
Ġi ma
ol ic
M on
Ġe q
Mod ule
ma ted
ct x
I m
se ct
Ġbe am
oun ts
Ġ* )
ing u
Ġcon tact
A ccess
Ġmechan ism
ĠC reate
u tes
% ;
Ġoper ations
à ¤
Le ft
u ck
Ġmin imal
$ _{
Set tings
Ġauth ors
im es
po ints
f ull
re a
ategor ies
Ġv ol
st ore
Pro perties
Ġdimension s
C opy
Ġis sue
$ :
Ġdete ct
Ġclu sters
Ġbro ad
S R
Ġ ener
Ġro tation
Res ults
h a
Ġform al
Ġreg ime
Contro l
ch as
ur y
M R
J son
z ing
d ouble
t wo
Ġsome thing
ĠS c
se cond
Ġ> =
ra tic
Ġcalcula te
D i
Ġle g
big r
io ta
back ground
.. .,
le ctor
E mpty
^* $
ga ted
200 1
ro y
P L
AP I
@ {
F inally
inter face
Ġre duce
Ġsing ular
Ġt riv
Ġcom es
p la
Ġre cor
for ward
ĠE qu
de t
Ġis o
Ġ }}
Ġsc ope
Ġfil ename
be fore
ne y
Ġfor ms
Ġlay ers
Ġto ken
Th read
ta x
AC K
S chema
Ġ\ !
ĠM in
a res
: =
Ġtechni ques
Ġde al
Ġchild ren
7 1
Des cription
Ġwork ing
M enu
V ari
Ġge ometry
or i
AR T
Ġpa st
ĠSta te
Ġhy po
ĠL og
ar ante
Loc ation
or ig
Ġcoeff icient
b al
ch or
Hel per
il la
, {\
pec ially
c le
Ġent ropy
Ġth ick
Ġcon vex
lap se
Ġin du
Or der
Conn ection
ul i
t frac
Ġth ermal
Ġappear s
Ġex ception
F ont
Ġindic ates
re q
Ġdata sets
Ġatten tion
d frac
ĠS he
p l
ter min
Ġaccura te
Ġcoordin ate
] $.
Ġs w
k a
ud es
Ġdeno ted
Ġgrow th
tri e
Ġtheore tical
Ġs ocial
\ }$.
D IR
iz ations
Ġw on
9 1
M app
or al
D eta
Ġexp onential
Ġdoes n
: "
Ġtra ject
Ġcombin ation
Ġsub ject
Ġdis crete
200 2
k ind
Ġneigh bor
ul y
ĠS u
Ġp adding
N on
Ġ{ };
Ġm ix
ature s
s lash
c a
w s
Ġc ry
Ġen h
ĠI I
ĠB G
Ġme tal
A fter
Ġg ot
Ġd ig
25 5
Ġs ession
ak ing
Cur rent
Ġsta ge
\ ;
Ġuncer tainty
Ġappropri ate
ir al
ag ing
s v
ati ves
Ġma s
Ġk ine
op ic
Ġlim ited
g an
f n
c ategory
Ġcol lision
) )\
an ti
ĠF inally
Ġvis ual
Ġsh ift
Ġdeta iled
math op
Ġfor ward
lo op
f for
Ġof fer
Ġr ing
}} _{\
$ };
ĠĠĠĠĠĠĠĠĠĠĠĠĠĠĠĠĠĠĠĠĠĠĠĠĠĠĠĠĠĠĠĠ ĠĠĠĠĠĠĠĠĠĠĠĠĠĠĠĠĠĠĠĠĠĠĠĠĠĠĠĠĠĠĠĠ
Ġre t
Ġpar ams
Ġnuc le
s ure
f lu
Ġover all
Ġpro tocol
I ter
ĠM y
Ġag ent
Ġprodu ce
\ )
row n
sequ ently
Ġma pping
}[ \
Ġn ature
Ġo thers
Ġscal es
h ic
Ġus ually
In teger
Ġv ary
co q
G R
Ġstra ight
Ġb ene
Ġ" \
Ġf all
ã ĥ
ri x
c tric
do main
Ġscenari o
ap s
" ));
tr iv
b all
Ġsa mp
ran k
Ġver tical
Ġth ings
Ġprodu ced
p anel
Ġweight s
li mit
Ġatta ck
Th at
Ġcomplex ity
ĠT O
6 1
empty set
Ġpa ti
Ġre si
ĠA fter
Ġagree ment
ĠĠĠĠĠĠĠĠĠĠĠĠĠĠĠĠ ĠĠ
Ser ial
Ġsub group
Ġidentif ied
| |
Ġstrong ly
Con st
Ġl and
Ġdeta il
ĠT rans
Ġpack age
-- >
De finition
Ġesti mation
ĠU sing
ig gs
O ption
ren der
Ġir re
if ier
ĠN ame
sem ble
e ach
Ġinst all
Ġpri mary
=" _
Ġfunction al
it le
l arge
FF FF
Ġidentif y
Ġcommun ity
chas tic
c opy
ax is
G e
ul er
d iff
Ġ\ ]
Ġsatisf ying
Ġreg ister
Ġrecent ly
boot strap
V ector
Ġsc i
Ġat temp
ĠM o
D ir
if ically
Ġout side
Ġg en
b ut
it z
}) }
ST R
Ġdiffic ult
ĠP a
Ġset up
Ġc aus
Ġw aves
al gorithm
Ġover ride
Ġto wards
OR T
stit u
Ġbehav i
ĠWh ile
ĠN ational
ĠG L
] $,
doc s
de lete
}} )
Ġin verse
Ġproj ection
Ġachie ve
Ġdata base
Ġ items
ĠD i
y ear
g n
bra ce
ve e
ĠO R
[ -
Ġcom mu
$ {\
ch em
Ġh ole
S ym
i table
Ġh ol
Ġtest s
Ġlit erature
jo in
c us
C lo
en ta
Ġrep lace
ati ble
ĠWe b
wh ile
D A
ms g
ĠU S
Ġgener ation
L ong
s end
ĠR E
Nav Bar
Ġconst ants
pro te
long rightarrow
Exp ression
( :
Ġbuil ding
D I
Ġf erm
Ġsit uation
ĠS U
n n
foo ter
Ġ\ &
S ession
Ġprov ed
Ġfe el
Y ou
Ġs ix
Ġide al
m ann
Par ser
Ġs end
Ġclear ly
ta mp
v ature
De vice
ula ted
m n
Ġto ol
gener ate
en v
k y
ĠEx p
M ulti
Ġc riter
Ġlink s
file s
Ġrec ogn
Ġpar allel
equ al
for ce
b p
ra ft
re ated
Ġv ac
Ġre ve
Ġcap ture
t un
ut or
Ġet c
y ond
Ġdecomp osition
Ġremain ing
ĠE d
V ID
ched ule
ap ter
en omen
Ġqu asi
t w
As ync
ĠG e
b ind
Ġcon serv
G E
ch annel
com ment
Ġmatch ing
si tivity
Ġgu arante
}) =
par agraph
Re ference
imilar ly
Ġ\ (\
Ġd riv
Ġes pecially
pos itory
B R
Ġmention ed
b matrix
ur i
i tions
ĠAl so
Parameter s
Pro ject
Ġs tri
================ ================
Ġmeasure s
to ol
Ġdisc over
=" /
Ġf ill
ĠF urthermore
}} .
P U
> \
Ġcomplete ly
Ġad v
d om
Ġpro por
su ch
br id
vis ed
P H
up le
Ġw in
$ &
ula tions
Ġsee ms
add ress
Ġconsider ing
Ġevalu ation
Ġro bust
4 00
one y
S um
s y
PE CT
du cing
Ġc r
ble m
f ony
el ine
Ġeff iciency
tiz ation
Ġex hi
Ġgener ally
umin osity
Ġh ear
ograph y
Ġev idence
Ġele ct
| }{
Ġcyc le
SE T
}) ^
Ġas k
Ġin fo
frame work
Ġgreat er
p lot
Ġj av
Ġrepres entations
Ext ension
Ġun its
ĠI R
S ign
in itial
sh ort
Ġn et
sh ot
in ary
os ing
Ġequ ilibrium
ann ing
Ġproduct s
Ġmach ine
c ro
Ġsol ve
G raph
' >
m argin
W E
pa ir
v s
Ġtyp ical
ã Ĥ
p is
Ġrepres ented
Ġrec ord
Ġcomp any
f l
m os
t iny
sid ent
Ġrece ived
ma terial
Ġun defined
c ard
Ġs ervices
I mpl
Ġindic ate
U se
& #
b ib
) }_
ĠApp endix
int ro
Ġc at
ff ic
parameter s
ĠO ct
Ġlo t
R ed
mag netic
() :
P ri
D own
IN E
Ġcon cent
ä ¸
mod ules
f ields
du ci
ĠJ ohn
Ġf undamental
Ġb os
ex ists
,\ ,\
Ġrela tively
ĠS ome
k i
Ġsimp l
' ],
Ġdiag onal
^{ *
Ġtra ce
scri pts
iction ary
Ġradi o
dic tion
Ġslight ly
Ġne ural
D L
ĠL a
P a
sh ape
Doc ument
ph ys
St ore
) ).
25 6
Ð° Ð
}} ^{\
ou ch
Ġphys ics
Ġm u
Ġdiffer ences
R R
Ġi on
Ġad van
s chema
Ġsta ck
}_{ -
ĠA b
ivers al
equ als
Ġevalu ate
la tes
ran g
to String
struct or
v ents
ĠEx ception
Ġcon clusion
ula te
st s
Ġp seud
Temp late
g gle
Ġal though
ri end
co in
gr id
Ġre mark
ĠBG COLOR
App lication
Ġ} {
Ġsamp ling
P tr
sp ac
en um
c lick
Ġa ir
AL L
ERR OR
ura tions
Ġdist inct
Ġ} )
s ession
n umer
script size
Ġar ticle
ĠA ug
n ers
Ġup on
Pro of
triv ial
Ġa im
E ach
ou rier
ang ing
m ing
] {\
Ġent er
Ġunder lying
/ (
L emma
Ġpol y
Hand le
vir tual
av el
m al
Ġper fect
CT ION
gg est
form al
Ġcurrent ly
are n
Ġo dd
Ġcon structed
OR D
ĠD ec
U M
Ġtest ing
Ġmanif old
ic ons
G o
Ġinv oke
Ġe cho
;\ ;\
M y
is s
Ġter min
web kit
Ġsufficient ly
Ġsec tions
Ġ+ +
ĠĠĠĠ ĠĠĊ
me ds
block List
Ġtrans action
Ġn ames
Ġpro gra
Ġexplicit ly
ound ation
medi a
radi us
Ġqu o
## #
ĠCh eck
Ġw ait
ar c
an cy
Ġener gies
ĠC ON
T ER
Ġprevious ly
Ġmod ified
h older
Ġcell s
Ġh idden
Ġaction s
meds kip
in i
Ġlim its
Ġbe yond
Ġdete cted
In st
Ġr isk
ad s
? :
h over
Ġintegra tion
Ġtra ined
Ġte ll
tain ed
Ġth read
Ġdes ired
ĠL ie
U LT
Ġmax imal
ĠL O
B A
Ġst ory
Ġde li
pro perties
figure s
Ġstatis tical
][ ]{
Ġch em
Ġ( {\
Ġhigh ly
Ġn um
B E
Ġexp ressed
M T
tikz picture
reg ion
}} }\
u id
Ġvari ation
column width
sk i
Ġmas sive
Ġ[ '
Ġblock s
u ff
for mations
i ra
Ġd rop
at t
Ġse mi
Ġcontain ed
Ġf av
Ġun known
Ġis sues
pro duct
ist ration
Ġph enomen
ist ent
ad a
entif ier
} ~
la bor
set tings
ant om
Ġtra in
Ġn or
ĠE ach
st ri
h al
D M
M o
ĠAss ert
Ġpartic ip
hand le
Ġth ought
Ġoccur s
Ġassump tions
Ġc ache
Ġpar se
Ġver ify
ra ms
ult ure
C ore
exp orts
G ET
16 0
Ġphot on
Ġacc eler
Ġcon j
sp irit
\ }$,
Ġma sk
Ġapp lying
N ames
Ġe mer
i mation
ĠL ag
Ġext reme
depend ency
ĠT ime
uro pe
Ġtriv ial
Oper ation
ĠP y
) ),
Ã ¡
b ilities
Ġshow ed
R ender
a ut
ĠM od
' re
Ġasympto tic
W hat
sh ip
T itle
ĠJan uary
\ }\
C F
Ġdepend ing
Ġderiv ative
c ustom
ĠA pr
c ut
lan k
Ġex am
is ely
Ġde lete
T ests
vi tational
Ġlarg est
Ġb r
Ġmean ing
S ch
if ts
h s
} |\
De bug
ĠE rror
p adding
part ment
Ġsta tion
ĠE ng
per s
Ġpredic ted
Class es
var theta
Ġreturn ed
H ence
ĠN ot
medi ately
R I
oun ded
iver se
V alues
v as
}$ }
b ur
h am
H ost
Ġcon sequence
multi row
Ġob vious
Par am
ench mark
en n
Ġon to
Ġcharacter istic
Ġoff ic
Ġac tivity
Ġconn ect
Ġpath s
tic les
Ġsta bility
P ass
D raw
b et
Ġradi al
; <
Ġres ources
Ġcan onical
su ccess
Ġder ive
ĠD ate
Ġg l
ĠĠĠĠĠĠĠĠĠĠĠĠĠĠĠĠĠĠĠĠĠĠĠĠĠĠĠĠĠĠĠĠ ĠĠĠĠĠĠĠ
tiv ation
& =\
Ġexp ec
Ġvari ety
Ġname ly
In valid
ĠP r
}} =
rep lace
Ġ$ ,
cal led
HT ML
A pi
b on
ollow ing
ĠW hat
wit ter
P ort
Ġlabel s
Ġbi as
1 20
j pg
ill s
F alse
| }
Ġcan cel
Ġtop ological
Ġchall eng
: =\
Ġpredic tions
Ġdynam ic
Ġt un
dis abled
Ġb undle
p ub
ight s
at ory
i qu
V ar
lon e
Ġp ick
con dition
d est
j ection
y es
Ġchannel s
Ġestab lish
xt ure
er ies
OR M
Ġd x
mat or
Ġd ust
Ġgeneral ized
b c
tra ct
J E
Ġcur vature
Ġuncer tain
app lication
Ġg ain
-------------------------------- --------------------------------
Ġc m
ĠR un
Ġtreat ment
exp ort
Ġy ield
Ġinflu ence
Ġ math
duci ble
B S
Ġus ual
gener al
T S
ĠEX PECT
Ġen gine
by te
conn ection
lat or
\% $
Ġ ..
Ġfa iled
> ();
om y
Ġo s
Ġjo int
Ġext end
Ġcos m
um entation
= .
ĠĠĠĠĠĠĠĠĠĠĠĠĠĠĠĠ ĠĠĠĠĠĠĠĠ
Ġis omorphism
S ION
Ġfinal ly
Sta ck
G S
AT H
Sele ct
X i
Ġv s
Ġansw er
a ff
h r
Ġs creen
leg ate
Ġnon linear
Ġsu ggest
w rap
ĠW ork
Ġhy dro
g reg
Ġu tili
( *
u um
Ġcontain er
Ġsh are
ro me
ĠRes earch
Ġbuil t
ĠJ SON
Ġradi ation
ub ble
an o
Ġtechni que
Ġre call
Ġcoun try
Ġde l
Ġin it
Ġredsh ift
Ġprincip le
g reen
Ġvari ance
Ġ ,\
Ġform er
sel ves
our nal
w in
199 9
U P
mission s
ier arch
O M
z y
no ther
ĠA c
sl ant
12 8
Ġst op
) })
ĠB ar
T ab
M ark
ĠC E
Ġloc ated
sub sec
ot on
Ġlocal ly
ĠTr ue
an notation
w ell
Ġdynam ical
Ġcombin ed
Ġsum mar
m ult
Ġf ront
B L
ort un
ang ular
Ġear lier
Ġc lean
Re ader
sp in
Ġwhere as
Ġhe ader
Ġcompu tational
Ġachie ved
ist or
AN D
ĠS ep
Ġre pro
reed om
ĠIn deed
no tag
reg ister
avel ength
Ġs pher
) [
Ġcon cept
AT A
Ġor th
Ġsatisf ied
C lick
Ġn amespace
po ch
i ent
m om
Ġrele ase
peri ment
d p
K ind
Con sider
u ge
n one
en ed
it ch
ra ys
Ġco inc
s ince
pro b
$ /
in ted
ĠG eV
ac tic
B ody
si vely
Ġab und
Ġin deed
ar ding
ĉĉĉ Ċ
conn ect
ver ti
Ġdimension al
S ee
vari ance
th ere
Ġprac tice
Ġmark et
` .
Ġpropo se
Ġgener ic
bo olean
Ġdeg rees
Ġsec urity
Ġ Ã
Ġeigen values
Ex ternal
Rec ord
ĠO ut
Ġtyp ically
Ġf amil
Ġm ar
Ġsh ock
Ġc op
^{ (\
! \
Ġrelations hip
Ġtransp ort
Ġl uminosity
Ġs qu
' ))
ĠAmeric an
M em
G iven
En abled
sq l
Ġby te
ĠM ath
op tim
M ain
plugin s
tot al
T C
Ġele ctric
com ing
En c
Ġun signed
C ar
Ġmax im
Ġel lip
> .
Ġgra vity
et al
n etwork
ĠIn di
Ex ample
Ġconc ern
Ġc loud
b ing
Ġd ashed
K e
20 22
Ġme mber
SS ERT
prec ated
Ġgovern ment
Ġp or
b t
arg ument
ĠR ed
ĠHT ML
I E
Ġex change
\ |\
sing le
ing le
M ock
ist ance
Ġv i
h ar
in line
Meta data
el low
Ġshow ing
eli hood
Supp ose
Ġp refer
Arg ument
. \\
ick er
Ġex clu
ĠUn ited
ast er
Bo olean
Ġstar ted
wh en
Ġm illion
ĠIn tern
D S
om an
ĠM ap
ĠGo ogle
Ġbut ton
as c
12 3
u it
Ġremo ved
ĠS O
Ġal ign
Ġc ity
r andom
re w
( -\
Ġde lay
Ġim mediately
Ġp ush
Ġent ries
par allel
ĠH iggs
Ġbul k
Ġc la
cont inu
ĠMe thod
Ġsto chastic
R ule
Ġextra ct
ĠĠĠĠĠĠĠĠĠĠĠĠĠĠĠĠ ĠĠĠĠĠĠĠĠĠ
_ ;
at tribute
rang ian
Ġwrit ing
Ġcomp uting
}\ |
Ġvis ible
Ġeff ec
r d
sum er
d ates
re sp
^* \
B B
ĠU ser
Ġindic es
Ġobj ective
ĠĠ čĊ
Ġsh ared
G N
i mpl
Ġexpla in
Ġre comm
Ġques tions
T e
Ġden se
An y
Dire ct
riv acy
s us
age d
Ġquanti ties
Ar gs
Ġc amp
=" ">
p ite
Ġprocess ing
C I
erv ed
ext ra
k in
By te
Wh ile
ke ys
Ġsequ ences
si mple
D P
Ġcomp an
Ġprob ab
end ar
og onal
15 0
Ġb ad
Ob j
D ialog
Ġs izes
Ġprec isely
ĠM c
ph antom
text color
Ġexp ress
per sion
ĠH ar
KE Y
dic t
oriz on
Ġ$\ {\
Ġequival ence
her ent
Ġnew s
ĠG al
ne gative
Ġu til
Ġre ader
Ġexp and
Ġimple mented
ti le
Ġheav y
ĠO ther
Ġenc oding
for d
ĠR equ
ga ther
Ġcommun ication
ad min
is tics
if ies
r ong
ĠĠĠĠĠĠĠĠĠĠĠĠĠĠĠĠ ĠĠĠĠĠĠ
h ol
Ġhigh est
") ]
Ġconf ir
Ġfluct uations
Ġw ays
Pol icy
Ġpur pose
B P
icro soft
Ġqu ick
Ġw all
Ġo uter
ĠOp en
="../../ ../
cor ollary
ot rop
Ġacc re
s yn
JE CT
By tes
N um
ph ase
ĠE urope
Ġstud ents
De lete
+ (
Ġdete ctor
Ġby tes
ob s
Ġre li
Ġapproximate ly
W riter
tr ins
to ggle
C M
)-- (
ST ATE
Ġs chool
D R
Ġdes igned
ĠSci ence
I con
Ġexpression s
} "
Ġare as
ch ain
Ġj et
P ost
il le
- (
c line
Ġf ine
ĠA u
T ran
f ol
Ġno vel
Q ue
Ġcorre ctions
ĠM arch
Lo ad
Ġrela x
Ġunderstand ing
Ġra ise
Ġneigh b
e mail
ĠV alue
Ġaltern ative
) ^\
ar ith
! ]
en ge
199 8
Ġcharacter s
Ġhe at
Ġe con
Ġchange d
z er
P e
Ġv io
C or
Ġcolumn s
Ġe ffor
Ġsu itable
Ġin line
Ġd ot
mo ck
Ġp y
Ġ' /
Ġra pid
Ġli brary
ly ph
a ccess
Ġth er
ry p
Ġelect ro
Ġme trics
ot al
Ġg reen
Ġ< =
c pp
Ġincre ased
Ġarchitect ure
er man
ĠG roup
Ġen tity
Ġperturb ation
In itial
EN D
f amily
Ġm i
ran e
Ġno tice
Ġint ensity
Ġinvestig ate
or ity
Ġth ing
$- $
k o
Change d
I V
R ou
H as
ĠA L
le ted
Ġlo ck
Ġpo sitions
~ (\
ject ure
Ġdist ingu
Ġw allet
ol ing
ĠI S
F ields
function s
AC E
call back
z h
Ġhar mon
More over
z a
Ġ\ ,\
Ġb all
k m
f ocus
str y
Dis play
c loud
B ut
Ġplay er
plan e
o ber
Ġperiod ic
ĠW orld
Ġjav ax
AG E
in v
Ġ ),
Ġp i
U RE
A uto
Ġto day
math it
H S
}{ *
Ġad ding
s ti
lang uage
Ġj son
d ash
il bert
d iffer
Pack age
Ġnormal ized
Ġinvol ved
par ticle
Ġdis cre
D C
ĠEx ample
$. }
b il
be led
Ġge ts
Ġpas sed
Ġat tributes
] ]
ult ane
Ġlook ing
Sh ow
as sets
Ġass uming
Ġgra vitational
Ġ{ {
Ġte le
Ġinter section
ĠU se
W S
Tra ck
back slash
; /
Ġaff ect
Ġdirect ory
Ġrun s
ĠH igh
ĠG iven
& -
la ting
w idget
spec ial
clu ster
s quare
TE D
W ar
P arent
sp ring
ĠS un
h av
low er
comp onents
N A
ĠNew s
Ġfollow ed
m its
ĠI m
Ġ( '
Ġs ector
Ġhal o
^* (
ge ts
Ġre cur
ĠG ra
Ġm ixed
Ch annel
Ġstatis tics
ce mber
ol ar
al led
E C
Ġmis sing
Ġve hic
Ġcorre ction
Ġli ve
Ġm sg
ing er
Ġgo es
ĠS M
Ġex ci
Ġquan tity
Ġlo ve
ul us
A ctive
Ġpro f
con stra
lu ster
Ġvis it
ib ility
\! \
pass word
ĠN O
Ġthe ories
St orage
is son
n es
Ġg ames
Ġthan k
Ġw atch
w t
Ġflu id
ĠI O
ĠN OT
Ġbehavi our
Ġcomp e
ĠCh ar
ub y
Ste p
Ġe ver
Ġse man
Sym fony
J o
ob serv
rom ise
Ġfa ir
ext ension
proto buf
st ro
C ustom
L java
"" "
no tations
or ter
Ġexp lan
re et
X ml
P RE
Ġup dated
Ġdo ing
' _{
bel ian
a e
FA ULT
Ġse ason
H C
Ġb right
Ac tivity
Ġin fer
sp ort
ĠE xt
Ġy oung
Ġin sp
comp lete
Ġf reedom
Ġm usic
Ġconfig urations
Ġb tn
Ġpolar ization
Ġs s
Ġfind ing
' .
olog ies
__ (
cm d
Ġsum mary
ve mber
Ġfil m
Ġpr ice
Ġvac uum
pro file
t an
inst all
Ġb rief
ur ch
To ol
Ġevalu ated
h ome
down arrow
h fill
RO M
r ich
sta ts
Ġinst ances
Ġtr igger
Ġcom ment
Ġpar ame
in clu
` ,
Ġspec ies
f ly
ang er
n el
Ġcomp ar
w ner
tif ied
R oot
Ġpattern s
stack rel
IT Y
spec tive
V al
en a
TE ST
F a
te mber
hel p
stit ute
Ġh ouse
sc opic
ad ers
) }.
duc ation
Ð »
De pend
ĠY ork
Ġh tml
Ġhypo thesis
Ġdev ices
pa y
Ġiter ation
Ġcandid ate
Ġan om
uc ial
ex ception
Ġparticular ly
ir ing
Ġsign ature
$ ^{
Ġcapa city
th ick
Ġpop ular
ite s
Ġro ugh
Ġequ ality
A p
Ġmo ving
Â ł
)} (\
R ect
i ers
| ^{
F S
Ġenc ode
bold math
\| _
ĠSupp ose
N G
i em
Trans action
Ġst ress
ro l
cri min
h ave
Ġthrough out
| $
cor por
u a
at s
Ġad op
text up
Ġmo ck
Ġprec ision
as ons
Ġr ise
Ġun less
lic ations
ĠS ervice
Ġuniform ly
h an
==== ==
Ġsepar ate
entic ation
Ġpol i
in variant
ĠM ed
ĠC ity
sh ift
) (\
& &\
Des criptor
P AR
er ve
g mentation
ĠH ow
h orizontal
N etwork
m f
Be fore
Ġbeh ind
k g
w ords
Ġno thing
ĠS uch
Ġprofile s
Ġspec ify
On ly
I X
j query
O K
ta t
b d
_{ +
man if
Ñ ĥ
Ġab ility
. *
li min
l li
Ġal t
}$ \
ĠIn itial
t xt
Ġst orage
me an
g i
ut f
Ġcal ibra
Ġrepla ced
Ġmid dle
Ġre ct
E le
Ġuncertain ties
Ġsupp ose
Ġref lect
Ġexpla ined
s ome
se p
s ave
Ġ$ ^{
w hat
ii i
)) )
ĠB ay
Ġass ign
ĠI P
V M
J SON
Ġp icture
00 1
r ist
se lected
$ ^
Ġa rm
Ġquad ratic
a ign
Ġdid n
M sg
Ġcomp osition
Ġsign als
ip eline
Ġ _{\
Ġcom ing
Ġpro ceed
", "
st an
=" "
Ġd a
ĠU RL
Ġprob ably
an cial
ĠJ une
and ard
Ġke ys
Ġmix ing
ĠT HE
c lip
Ġal loc
Ġh ours
re lated
Ġt ren
[ :
Ġd b
Ġneutr ino
$\ ,
G eV
ĠF unction
reg ular
Ġsur vey
vi e
her it
A dap
f ixed
Ġlet ter
s en
Ġac qu
&= &\
Ġestab lished
Ġbelie ve
FI LE
Ġla te
VER SION
Ġ\ [
Ġassert Equals
ach ed
U ID
otrop ic
Ġgener ator
ti p
ç ļ
Ġreve al
D T
*} [
c il
Ġimple ment
Ġge ometric
and ra
Con t
Ġcon sole
po sed
Ġinter ested
up arrow
ĠJ o
L R
leg al
{ (\
Ġinput s
ĠAcc ording
çļ Ħ
Pro p
Ġnuc lear
im its
Ġcoup led
the less
Ġiden tical
Ġto ok
ĠE vent
Ġph ases
w ave
me asure
ĠF ourier
o om
Ġac cept
Ġc l
footnote size
a ins
ĠT ech
nap shot
s ymbol
tra ck
. $$
I B
Ġ-- -
bin om
Re v
ra t
Ġden sities
Ġs ort
ĠApr il
$\ \
. &
ak er
ĠG reen
}. }
des c
ĠPh ys
war m
Ġg lu
ĠSta tes
the tic
cal c
1 10
Ġ" /
sp e
config uration
erm i
Ġdevi ation
I ST
S end
ed it
Ġtran sitions
Ġsp read
By Id
Ġtrans lation
Gener ic
c b
H ow
ist ence
Ġw alk
Mat rix
rid ge
s witch
Ġm essages
Ã ³
ĠJ uly
Ġc ame
} /\
Ġgener ating
trins ic
or ing
pri mary
ol ver
ot ing
un ct
Ġdepend ent
ĠAl though
ers on
Ġh ot
Ġ( *
th read
Ġadvan tage
fa ctor
y e
iz able
arge ts
Ġcon volution
Ġs lo
Ġ rows
Ġro om
to ols
Ġpri me
Fe ature
un signed
Ġp en
Ġ( "
Ġw avelength
prop to
199 6
Re p
Ġrece ive
Ġse m
Ġchem ical
text sf
ock et
ur s
Ġdis persion
Ġa pi
Ġfeed back
gener ated
[ $
left arrow
ĠA R
Ġtop ology
rep res
Ġla ck
ĠT e
ren ce
la b
M F
Ġorder s
Ġsugges ts
ins tein
Ġcom b
Ġag ents
aw s
% %
ĠC opy
um es
l g
ĠDe cember
Ġcontinu um
Ġelectr ons
) ">
Ġto ols
di alog
Ġp las
Ġra tional
] ^
S im
mult line
ĠO f
Ġtrans verse
Ġc ard
ĠOct ober
s ch
f lat
ang uage
ĠD ire
M ENT
Ġac cep
Ġsol ar
ĠCon sider
ĠM ax
Ġfla g
Ġalgebra ic
ri a
S yn
S F
vi ties
Ġte s
Sec urity
Ġwor th
Ġanaly tic
p ower
Que ue
H R
Ġde mand
ĠW ar
in sert
Ġimpro ved
P anel
ĠK ey
contro ller
Ġe mail
B it
Ġmedi um
Ġformu lation
}^{ +
Ġsite s
v c
Ġdiff usion
} >
form ance
ari ties
Ġtrans mission
ie ce
Ġman agement
mom ent
ish ing
T T
Ġpro gress
( !
Ġprov iding
que ue
Ġsim ultane
Ġlim i
Ġdemonstra te
ir ror
po le
Ġhom ogeneous
pa re
Ġdire ctions
var rho
Ġs ound
ĠRem ark
}) ^{
Ġc y
lo ss
ens es
Ġtemperature s
re y
Lo ck
d ensity
Ġabsor ption
Ġinter mediate
Ġmod ules
ĠCor ollary
ĠS outh
Ġre trie
tiv istic
Iter ator
=\ {
el s
Ġopp ortun
Log ger
type of
ĠC ent
Lo ader
LO G
Ġdescri bes
ce il
j i
Ġd t
Ġc ategories
Ġre duces
ur ally
G u
p lus
ĠM A
E l
U L
$ '
sec urity
Ġf oc
Ġcry st
Ġre serv
v or
i us
Ġ% }
Ġc a
18 0
ill ing
ra d
no v
ev ents
Fla gs
ĠT ext
ĠNo vember
si bility
ic o
() {
ti os
con ver
Ġsa f
av ed
ĠN etwork
Ġpossi bility
F loat
] :
Data base
Ġcomp atible
Ed it
ĠO ver
Time out
Ġfrequ encies
Ġirre ducible
cus sion
AR Y
\ /
Ġper mu
ge x
v ol
__ __
Ġb atch
, ...,
str al
Ġpub lished
Ġp latform
BU G
er c
Ġpredic t
Ġpati ents
sta bility
Con f
Ġw omen
Ġat oms
######## ########
Ġpropor tional
a tively
Ġno tion
small skip
Ġse gment
Ġ ~\
n ol
Ġright s
Ġinter act
Ġen able
Ġexpec tation
Ġh it
ï ¼
n ed
ts d
Ġscenari os
sc roll
ex ternal
k l
Ġtechn ology
ĠV iew
M ar
ĠF alse
ĠĠĠĠĠĠĠĠĠĠĠĠĠĠĠĠ ĠĠĠĠĠĠĠĠĠĠ
r f
P attern
view s
Ġdefin itions
Ġt en
ecu tion
g b
Ġdefin es
Ġstraight forward
Ġh orizontal
ta ch
re st
Ġse em
Ġin str
) >
ĠLag rangian
ĠB ase
ĠSep tember
la re
Ġun iversal
ir ical
Ġfit ting
P lan
ti ck
ar m
199 7
ump tion
Ġorth ogonal
key word
ĠE ar
scripts cript
Ġno ted
Ġa go
drop down
an ks
su be
Ġderiv atives
ma ster
n y
ad y
go ing
Ġnear ly
Ġcompu ter
Ġd ra
scriptscript style
tric t
W A
Ġrecon struction
ĠS D
lic ated
ti ent
Ġimport ance
F C
M a
F IG
Ġcontra ct
"> &
F i
th rows
Ġb l
}{ {\
Ã Ń
Ġsol ving
e ma
iem ann
Ġnecess arily
se par
ĠM at
\ },
' =
b re
ens ors
e g
ĠC ur
Ġtra vel
Ø §
Ġ icon
Con clusion
s ys
ĠA uth
pa city
J ob
ĠAl gorithm
and s
) _{\
Ġinstance of
Ġfor med
le xi
fla gs
Ġs ave
ang o
T ABLE
Ġde ath
ec ho
I MP
st op
Big g
h idden
Ġas ymme
Ġab stract
b ad
Ġbegin ning
lu g
ro ad
Ġb ring
ĠAug ust
M u
Ġs chema
Ġh ierarch
Ġc red
ph one
i ke
ĠH el
ta ted
ĠA N
Ġauto matically
//////////////// ////////////////
chem es
Ġro und
Ġa mb
Ġpolynomial s
symme tric
Ġent ang
P lugin
{ %
Ġbase line
P ATH
A m
w rit
sc ore
Ġann oun
Ġvalid ation
t ty
n p
b as
un t
ĠN orth
Ġcoupling s
Ex pr
Ġcorre lations
pro v
Ġget ting
Ġm en
ĠHe alth
F in
SI ZE
Ġdecre ases
y r
H ER
Ġpers onal
er ial
ĠC l
ĠCO VID
Ġass ess
Ġcontro ller
ado op
Ite ms
g it
Ass ert
ra se
ĠD M
Ġc ref
Sc ope
Ġdiag rams
Ġn ight
an aly
con trib
Ġad min
ĠD r
if ted
Ġar c
import ant
{ .
s at
Ġk m
de te
Ġgiv ing
S ome
ĠUp date
MA X
Ġcause d
_ ,
ĠA f
fa ults
Ġc ra
Window s
} &\
! !
ou ra
ĠDe f
is o
le tion
Ġlow est
ure d
Ġmolec ular
add r
F ull
Po ol
\ }.
Ġme as
Ġexecu tion
{ |
od ic
=" @
Ġrestr iction
] =
Ġsen sitivity
c tic
Di ag
() ));
p u
Ġm ind
P art
Ġplan et
erv ing
w orld
G rid
n ames
Ġstring s
ĠA ND
Ġs cript
Ġj ump
ĠO ption
* )
Ġ est
Ġte ach
Ġsh ell
pos es
Ġf unc
tiv ated
Ġsepar ation
mi tive
tran sition
Ġsub space
Ġen semble
Ġin corpor
Ġd uration
ta ting
) }$.
w ild
_ ->
Ġcon v
Ġaccre tion
ĠĠĠĠĠĠĠĠĠĠĠĠĠĠĠĠ ĠĠĠĠĠĠĠĠĠĠĠĠĠ
Ġcom ments
@ "
dep th
Me mber
ĠS tr
yste ms
Ġc amera
Ġturn s
Ġocc up
Ġfail ure
tribu ted
W idget
h l
ĠC enter
d ical
Ġbu ilder
Ġcall s
Ġdecre ase
lo od
Ġband s
ti vities
Ġd ro
Ġconn ections
Ġex per
Ġ{ $\
ynam ics
S pace
Ġhand ler
Ph ys
con v
Ġwe ighted
ĠCh ris
R ad
ĠD av
s creen
Ġe poch
ap es
qu ark
H om
Ġs il
Ġp ull
conn ected
c ounter
Ġsimula ted
Ġorbit al
t mp
fin ed
ma sk
Ed itor
A v
Ġser ial
ĠO ff
Ġmonth s
Ġv alu
Ġrequire ments
B O
fin ity
l der
Ġ= ========
Ġh orizon
Ġt ang
Ġinclu sion
ĠG R
Pro xy
const ant
tr ight
Ġneighbor hood
ig ible
ĠĠĠĠĠĠĠĠĠĠĠĠĠĠĠĠ ĠĠĠĠĠĠĠĠĠĠĠĠ
id x
Ġpo inter
TE X
I mp
Ġle ave
Ġ[ ];
tain ing
r b
Ġtra de
v ect
la w
par a
Ġvari ations
ĠF ran
Ġh ope
Ġr ig
Ð º
c ross
In it
N T
Ġstrict ly
assert Equals
par ser
J ava
Ġl ies
sign ature
ig ration
ĠU V
P ay
Ġact s
Ġb enchmark
Ġcar ried
Ġw ind
_{ -\
In ternal
re size
Ġcosm ological
qu ations
D ouble
Ġ\ {\
}^ +
ĠTr ump
Sum mary
ĉ čĊ
Adap ter
in er
)) );
li k
Ġtrans late
sur face
ĠM ich
le f
ens ing
Ġapp e
Ã ¤
Ġcons tit
S cale
Ġcom mit
Ġinv est
an de
ĠVer sion
ĠS I
Ġreg ression
}[ !
al ities
de termin
Ġintegra ted
Ġun ion
Ġtemp oral
M OD
Ġsen sitive
S Y
25 0
un ique
CH E
Ġconf idence
mid rule
S ample
tright arrow
Ġweb site
ed s
Ġmodel ing
ĠP ri
Ġname d
Ġat tra
Ġp atch
ĠEq s
con tains
EX T
Ġra w
Direct ory
Ġn g
Ġcol le
U LE
k ern
ann ed
P op
math tt
Sele ctor
Ġsp an
Not Null
Ġferm ion
Ġopp osite
ĠEn d
y a
ĠF oundation
res sive
ĠS an
t ensor
n m
nav List
corre spon
sube quations
Ġrefer ences
Ġrepresent ing
uc lide
ura ble
Ġmod ify
def n
ar se
ĠI mage
NavBar Cell
Ġmorph ism
Ġs at
comp lex
log ger
Ġl isted
is on
Ġat omic
oc aml
assert Equal
f r
ĠP ost
Ġimple ments
man ager
Ġ\ }
ĠS chool
n il
Ġ\ |\
e ven
12 5
br uary
Ġplay ers
u el
$ }}
C G
Ġpseud o
Bu ild
tr igger
Ġin valid
At tributes
Ġmain ly
Clo se
Ġb ur
Run time
Char acter
\, {\
app ly
uclide an
the me
ĠEqu ation
Ġra tios
Ġrandom ly
Ġori entation
requ ency
() ).
ult ra
ful ly
j ar
s ort
i as
col lection
Ġprec ise
Ġd ir
M edia
P y
for mu
X ML
Ġessential ly
x s
Pro position
Ġsur faces
Ġ( _
ĠD oc
Re ce
Ġa wait
tab s
Ġcharge d
ther n
cite alt
ad es
ho ok
Ġc odes
Trans form
es ter
Ġthem selves
Ġf ood
inu x
Ġm anner
si a
w p
ĠV ir
++ ;
Mapp ing
ĠC ode
ser ies
ĠS ur
fa il
ĠB ra
ST AT
ĠCon fig
at al
ar ticle
Ġeigen value
Ġadj ac
Ġsyste matic
ĠP lan
Con stra
ĠDe finition
qu id
ck ets
d c
Ap J
en abled
Ġme t
ta il
A ut
hy per
ĠB ri
ĠS E
spec ts
Ġdist ances
ti gated
po lation
ĠH ilbert
big cup
^+ $
c ape
Ġstar ts
qu o
Pro file
let ter
Ġj us
B rowser
Ġtraject ory
Ġphot ons
Ġany thing
ater ial
text normal
) }$,
O ther
\ }_{
b rowser
Ġindic ated
}) =\
sh ell
Ġor d
Ġad vers
ĠTO DO
s cription
h ref
Ġat mos
To String
Sec ond
Ġdiffer enti
Ġtrans formations
ro s
Ġv or
Ġextra cted
ĠP ark
ĠB ecause
Ġt urb
De p
Ġinterpre tation
Ġsur pr
Ġas ync
b um
E vents
ĠM essage
col lapse
Ġp lus
T wo
en gine
UT F
Ġcon duct
Ġto uch
Ġin ference
cknow ledge
comp iler
Ġi o
F P
mm ing
Ġindu stry
C ap
ĠN ode
by tes
Ġf ire
et te
ĠS N
Ġun iqu
h adoop
Ġme et
pro ps
j k
Des c
Ġsc ene
Ġtr uth
Ġesti mator
Ġanaly ze
Lay er
Ġdomain s
ĠIn t
Ġexplo re
Ġch iral
LE CT
=" $
le ep
Ġ" <
Ġvary ing
tit ude
Ġt al
se q
Ġele m
Ġcar ry
Ġs y
co ordin
ĠDe fault
i ma
Ġapplic able
t z
Ġ[ [
ĠO per
print f
Ġch anging
IP T
ver b
hand ler
En gine
la m
Ġar riv
Ġs phere
Ġpo ster
Acc ount
ac ob
Ġpixel s
spec tr
199 5
G en
ĠS w
lo ok
ĠT ask
Ġalgebra s
Ġde bug
tific ate
R AN
ĠCoun ty
loy ment
Ġsec onds
ĠIn c
Ġm ut
Ġcontro ls
}{ }
C ref
En um
tr im
Ġxml ns
Ġlik elihood
Ġbal ance
ra ise
gra de
h aps
B bb
) &
N OT
Ġspect ro
ON E
ĠV AL
Ġsta ted
S ER
Ġinter n
me tric
Ġf oot
F E
\ [\
Ġrele ased
'] )
lear ning
Ġen abled
}} ,\
;\ ;
depend ence
en able
Ġque ue
Re pository
yc le
re spon
cknow led
deta il
Ġlearn ed
S QL
St ar
< !
k ens
sh adow
Ġs chemes
Ġloc ations
ed itor
new line
sh arp
Ġlog arith
33 33
oc ation
Ġdis crimin
ĠU K
Ġapp arent
Ġnav igation
ĠC P
Ġmatch es
Ġcondition al
ĠN umber
Ġimprove ment
M I
Ġel im
Ġsyn chron
Ġmaterial s
F L
S ingle
Deta ils
tab ility
ð Ł
Ġan is
meta data
leq slant
omorph isms
Ġle d
Ġf its
Ġm oney
">< !--
Mem ory
Ġreson ance
ul ty
O L
sequ ent
Ġa p
tra ce
ĠS imilarly
sc ss
Ġc ub
stan tial
Ġread ing
sk y
im er
pro j
Ġsimp licity
Ġsimilar ly
war gs
Ġp iece
Ġfor ces
Ġrequ ests
F ound
Ñ ı
Ġfast er
ne g
f its
rec ord
im it
dis tribution
Ġfun ctor
T A
Ġex cite
ta gs
ĠAn y
Ġat tr
IC E
Ġreg ard
. __
tig ht
f g
ĠGener al
id ers
Ġmark ed
il t
Ġre asons
ry pt
char acter
s n
Ġimp ly
ul lable
des cri
Ġ{ '
ma zon
Ġcho ices
her ited
re set
ic ies
Ġla test
ir th
Ġpro ton
', '
ential s
b olic
G lobal
S imple
D uration
Ġw rong
Ġconver ges
S N
Ġfra mes
ĠC all
Ġtop ic
S ymbol
Ġcon vert
Ġmin utes
wild fly
f d
an alysis
Ġag greg
s ym
Ġinte gers
s warm
ĠH and
s ig
Ġbreak ing
Ġst ored
all classes
Ġtra ditional
ĠAu stral
g al
| _{\
Ġrestric ted
d ashed
ĠM ulti
bel ow
IN D
Ġ= ======
Ġcat alog
Ġp refix
Rec all
col Last
u fact
Ġmom ents
Ġhigh light
Ġco q
di ents
Ġtr ying
valu ed
us es
Ġexplan ation
VAL UE
get Name
ĠC H
Ġcandid ates
Ġp lugin
Ġt end
Ġth in
Ġfamil ies
ow ers
h ed
Ġinves tigated
ar ded
} ~\
Ġenh ance
& $
i ta
ĠB lack
Ġgeneral ization
P ORT
Ele ments
f x
Ab stract
^* _
Ġs ong
Ġco ok
Ġass igned
Ġpar am
tic ip
w ill
ĠC R
Ġis omorphic
ft ware
> :
Ġmon itor
Ġinvol ving
nol imits
Ġ â
H igh
an c
Ġign ore
Ġge odes
Ġb its
ĠT V
test s
Ġre normal
}{* }{
es h
n odes
w rapper
l r
Ġconj ug
Ġstrate gies
j a
c li
ĠT ran
War ning
ã Ģ
Ġdomin ant
h ere
oci ation
Ext ra
10 1
> "
ĠA ct
v olume
ĠF ermi
Ġlo st
we ak
Ġaff ected
Ġis n
ĠF in
Ġcon formal
Ġf n
= -\
-> _
Pro tocol
Ġto ld
dition ally
ig inal
id a
Ġf ol
_{ [
Ġevery thing
Ġamplit udes
Ġcharacter istics
h ide
Ġ" "
c oun
C ho
ĠP ublic
da tab
Ġiter ations
col First
ĠQ CD
Ġpre vent
At tr
ĠUn der
ph oton
w all
Ġsol ved
ab ove
6 00
ri ends
M s
in os
Ġgener ators
Ġsa fe
in dependent
appro xi
prote cted
st ood
Ġallow ing
ĠRe ad
h ard
not in
Ġinterval s
spec ific
W rapper
N C
Ġdis e
deta ils
Ġper cent
Ġdemonstra ted
alle st
ver tex
te l
Ġin ser
. (\
Ġsugges ted
b g
tri angle
Ġtri p
Com mon
Ġdiv is
, .
Ġma ster
Pro duct
F urthermore
set up
Ġadop ted
File s
oci ety
al loc
Ġn arrow
Ġdec ays
å ı
IN FO
ĠB oth
C lear
Ġso on
corre ct
Ġo pacity
l m
ĠB el
Ġgu ide
ĠW est
ĠĠĠĠĠĠĠĠĠĠĠĠĠĠĠĠĠĠĠĠĠĠĠĠĠĠĠĠĠĠĠĠ ĠĠĠĠĠĠĠĠĠĠĠ
us ted
equ ence
Ġreach ed
ĉĉĉĉ ĉĉĉĉĉ
M is
Ġpo or
pa per
Ġcol lect
Ġstation ary
qu ote
0000 00
p attern
Ġver sus
at tributes
| _
ist ing
; }
RE AD
pol y
Pr int
Ġneutr al
aj ax
ĠH ouse
Ġre q
h u
Ġorder ed
pro tocol
ĠFe bruary
Ġdefin ing
Ġin duction
ell ing
Ġkine tic
Ġar t
Par se
phys ical
Ke ys
Ġ tim
are st
ĠR iemann
W R
Ġsuccessful ly
Right arrow
Ġsimilar ity
Ġcon d
c en
mathbb m
} <
ine ar
Ġreason able
ill is
der s
Ġqu ar
Ġsk y
Ġd ie
ĠS m
jo y
Ġremo te
Ġre sid
Ġhapp ens
Ġunit ary
N ULL
c n
Ġb re
pro vider
ĠPro ject
error s
I A
Ġg ran
Ġcre ating
g ame
fe ature
j et
po ol
bet ween
Ġhapp en
li ance
Ġb ary
p refix
J S
Ġin fra
ĠJ ava
Ġtra ffic
Com ment
Ġsub section
end or
ĠB er
bu ilder
Ġprac tical
Ġquick ly
Ġf riend
Ġb rowser
Ġpass word
C s
ĠL aw
u lo
Ġprobab ilities
Ġimp licit
ĠA m
Ġw ent
ula tor
C B
> $
Ġin struction
an ted
W N
Ġc i
' $.
Ġpanel s
Ġcomple ment
ĠSec ond
C re
Ġcr ucial
Ġcluster ing
ĠH ol
Vari able
v dots
ra me
-------- ----
sh all
Ġoption al
ĠA GN
ĠPo isson
G G
ĠC re
Ġplot ted
Ġe pis
ic ted
Po inter
Ġsymbol s
ĠĠĠĠ ĠĊ
on ym
U psilon
dire ction
F unc
U V
Ġd u
State ment
Ġmes h
Ġphot o
IT E
Ġoutput s
p b
ate ll
e a
Ġt ab
Ġt rees
ĠTech n
f ix
Ġtr unc
ĠSt ar
ĠL android
Ġexp lor
Ġtechn ical
Ġneutr on
p latform
E ff
code d
cc c
hi ps
Ġcover age
sub stack
ab a
Ġsub stantial
Ġabs ence
ail y
ap an
Sc roll
di es
s amp
cep tions
a el
Ġ ĉ
ro om
" `
B AR
Ġpossi bly
Ġattemp t
A E
ĠĠĠĠĠĠĠĠĠĠĠĠĠĠĠĠ Ċ
G O
at tle
Ġs parse
fil ename
Ġmeta data
Reg ister
change d
Ġcol labor
iter ator
Ġ} {\
Ġplas ma
S w
Ġpropag ation
Un der
A gent
t body
t b
B ook
Ġco variance
web pack
Ġt ax
Ġpro xy
d k
' m
Ġcriter ia
Ġtes ted
av en
pa che
Big l
ĠAf ric
mu table
Ġre action
ar a
at omic
Ġun iverse
Ġnat urally
d one
Ġnormal ization
' ll
Ġperturb ations
en tative
Ġinst ant
ĠEng lish
Ġa ug
st orage
P air
AD D
Ġt reated
ĠA ir
\, ,
Ġemp irical
Ġdes c
F low
II I
Ġp ages
Ġw ish
O UT
() </
}} )$
de ep
lo gin
ti tions
d ynamic
ĠD em
T otal
}} =\
R S
ĠN AME
l ers
m ix
Ġembed ded
Ġeffec tively
Ġfav or
Ġli e
Big r
Rem ove
ond on
Ġqu eries
. },
Do main
head ers
sh ared
Ġspace time
acc ount
al so
}) )
Ġcon tribute
H D
p otential
inte gra
Ġrepe ated
s b
T ri
Ġdecre asing
/ .
t c
Ġdomin ated
Ġspher ical
fact ory
Ġsepar ated
Ġread y
w ik
_ (
)} _{\
av ity
de comp
Ġg ate
ĠH ash
oci ties
p icker
Ġ" ,
T imes
c oup
O B
the ory
Fa iled
Ġcomp aring
tiz ed
Ġoffic ial
over set
Ġjo in
Ġ ],
g lyph
ari al
S ql
Ġslo pe
Su ccess
symme try
S ync
' )$
il ing
ret ch
Ġbro ken
P D
i pped
Reg ion
spac es
AL SE
Ġcol lected
Ġfi ber
r ink
ĠIn dex
ces sed
| =
i ence
Ġup dates
ĠOn ly
G ra
Ġread s
ĠW indow
j ango
ĠDi rac
stand ard
Ġturb ul
Ġed itor
/ _
Ġmath ema
ĠCopy right
\| ^
ĠS im
Ġref lection
Ġhel d
Ġexp onent
ĠN ext
ĠB ook
Ġrefer red
k ov
Ġat om
te ch
DE BUG
Ġcon su
pro blem
Ġflow s
Ġima gin
Ġfin ancial
comp are
ec utor
Ġacc es
Ġsize of
Ġz one
te e
Ġla beled
ge o
Ġprincip al
Ġpro p
Ġconsist ing
D est
L C
est ing
(' .
child ren
ti te
Ġdistingu ish
ĠIO Exception
$ _{\
)= (
ma ven
Ġtype of
velop ment
rup t
Ġcon jecture
8 00
form ing
i ps
i et
Tra ce
serv ices
Ġa udio
Gener ator
! [
Ġscore s
Ġexhi bit
Ġle pt
Ġcompan ies
A rea
vari able
Ġemploy ed
}\ ;
ĠH er
Ġres olve
Ġpla ced
Ġp lease
Ġass er
Go ogle
Ġcompar able
C V
tri ang
199 4
orig in
~~~~ ~~~~
Al though
t k
Ġangle s
U SE
ĠL ore
Ġcontra diction
) |\
Ġversion s
Ġapp lies
S V
cep ts
Ġaff ine
c are
R T
spring framework
ĠH is
Ġchall enge
sol id
j ected
ag ent
ĠR us
ren cy
ĠDe partment
Ġmost ly
Back ground
us form
d z
Ġreg arding
numer usform
requ ired
ĠD O
ĠT wo
eff ect
B M
ĠG ets
P M
Ġpro pos
mo te
T x
ĠC ase
Ġacc omp
ĠG erman
= $
Ġsta bil
ĠF ield
j ust
Ġex it
Ġindic ating
De te
Ġcre ation
Ġp aren
S ocket
Ġcharacter ized
og en
v able
ĠIntern ational
f c
Ġillustra ted
p tions
' ve
z one
in ction
}_{ {\
Ġidentif ication
ĉ ĠĠĠĠĠ
it on
pre v
ace book
sa fe
ap os
Ġ$\ |
r uby
Ġbo ost
g ray
ĠI E
Ġdepend encies
' $,
Ġvanish es
Ġbelong s
Ġman ager
Ġequ als
fa st
ĠC ap
S G
Ġal one
Comp arison
Ġperform ing
Ġ" -
Ġcon du
u ages
ĠL ong
Ġs chedule
Ġcollision s
Frame work
, ~
z en
}. \
b ounded
ĠPre sident
Ġsuper con
Ġsupp orts
Ġposter ior
' }\
p mb
Ġro ute
=" ${
os es
= &
ex ecute
Ġtri ang
for ma
u v
Ġma cro
S he
th ree
ĠC our
Ġtraject ories
oid al
ĠCom mun
Ġcost s
le v
Ġs ides
. ");
in cre
= [
py thon
h skip
Ġsur roun
p ic
B H
ĠCh ina
ack son
C RE
Ġsome times
Ġpro position
g iven
; )
ud y
Ġne gle
mp t
PRO JECT
Ġmod ern
CHE CK
Ġrequire ment
b atch
C luster
mo z
Ġparame tr
ser ial
nt z
Ġ }$
ro le
ta s
ĠW il
Ġprodu ces
wo od
sv g
Ġlay out
ĠS um
Ġ ).
an chor
Ġm obile
user name
. '
E V
ĠW AR
Collection s
Ġex ceed
Ġconstruct or
ĠP ack
Ġcomple ted
Ġelectr onic
Ġ Î
M ath
ĠV is
A CT
hom ology
ĠP ub
Ġsplit ting
Ġhear t
g ate
Ġadj ust
Id entifier
Ġlog ger
Ġin trinsic
Ġsimultane ously
us ers
op ed
') );
Ġfla gs
go od
Ġdire cted
ĠCon n
d ig
gl igible
Ġextreme ly
over view
j unit
D im
am ond
y y
Ġrespon sible
l floor
F ail
Ġask ed
test ing
ĠAmeric a
Ġor bits
Ġsm allest
ĠY our
ĠBo olean
ĠK ing
. }\
Sele ction
Ġn p
un iform
A x
F ind
g re
Ġunder stood
Ġdeli ver
Ġm enu
Ġatta cks
Ġpar ty
ile s
viron ments
H ome
Method s
Rou te
c lean
as sembly
Ġmedi an
Ġ[ "
group s
Ġla ser
d at
ĠI l
gra d
R est
Pro to
C N
Ġus age
~ (
Hel p
Ġc tx
r floor
Sele cted
Ġr ich
Ġoff ers
ime d
S W
ĠE ven
S cal
her ence
Ass ume
) "
ag ue
Ġsub sets
method s
Pass word
op es
Ġde ad
a sible
Ġpul se
i ans
ĠAss ume
Ġ' <
x html
ĠT H
Ġdis joint
Ġcamp aign
P refix
Ġto t
ot or
od d
u pper
ĠIn teger
N ormal
Vis ible
ĠI mp
Ġsaf ety
} </
Ġcriter ion
U D
Ġ[ ],
ĠF ROM
Ġf ed
N odes
Ġa ux
Auth or
Ġweak ly
n at
k t
f old
Ġp lots
}) -
A nother
Ġrough ly
Ġlog ic
Ġmajor ity
M er
ĠT R
nos tic
Ġcoup le
Ġ& $
Ġprogra ms
Ġ$ $\
g on
Reg istry
Ġsci ence
Ġrespec tive
v ideo
Ġ{ "
Ġ ^{\
Ġinst alled
Ġexcite d
ti sh
cy c
Ġharmon ic
Const ants
Ġpur poses
Ġsub sequent
and er
if def
P ub
Ġd rive
Ġide as
TI ME
ay lor
Us ers
T F
Ġa spects
Ġstrong er
Ġcheck ed
ĠPro gram
P ER
? >
e lastic
Ġex c
E rr
b rief
ĠD on
UR I
Ġabund ance
L INE
Ġproj ective
g ba
ĠL com
Ġpres ents
Ġindividual s
Ġproj ects
Ġho les
com bin
Ġ$ <
Ġ{ {\
Ġn ative
The y
Ġca ref
ĠPro cess
ti an
Ġinvol ves
Ġcon e
O F
Ġt ail
w d
Ġextension s
ĠLo cal
or ary
Ð ¼
place ment
= (\
fla g
Ġrecomm end
CT YPE
Pro ps
Ġwhen ever
ock er
> ::
ĠPar ameter
Ġsh arp
ĠSu per
it ary
Ġpro to
ĠS yn
ĠA SSERT
Ġsp irit
ĠC A
Ġnon zero
Ġcomp licated
ot opy
Ġcorrect ly
( __
Ġresi dual
S a
Ġlinear ly
re h
ĠH y
Ġhead ers
TEX T
Ġe mit
ane ous
Ġad opt
Ġd s
d al
[ ]{
H ub
v in
Ġf ib
ĠT op
s un
Ġinter ior
Ñ Į
th an
\| _{\
ĠM or
ec es
uto ff
C ategory
ĠE uclidean
temp erature
}) _{
ĠRe act
ĠP RO
aw a
ĠC NN
ĠS en
d omin
Ġg rant
ga cy
Ġde duce
Ã §
ĠS k
war ning
dist ance
ph y
Ġchar set
Depend ency
] ^{
Ġse ed
r pc
Ġ tight
Ġsecond ary
ra tio
ch er
Gener ated
Ġse ven
Ġvel ocities
super vised
mple ctic
ele ctr
ĠMon te
Ġdig ital
Ġdiscussion s
Ġb inding
u zz
Ġ" $
ĠE ast
Ġc ast
v skip
land s
oper ation
Ġanaly tical
199 3
m en
Ġt argets
Ġtri angle
re pe
ĠH o
tr ine
PO ST
B ound
Ġla tent
Ġsome one
Ġex ecute
mic ro
ne utr
pi x
Ġellip tic
ĠS ele
in valid
Ġmechan isms
ps ch
( --
ĠM C
Ġwide ly
ĠE instein
Res ources
lo aded
p d
res ources
v ille
ĠU I
\ -
Ġanalog ous
Ġelim in
ab out
Ġdriv ing
)} =
enc ode
}_{ (
Ġo k
ine ment
Ġcol ors
Ġt alk
Ġsus p
Ġconcent ration
R ole
n l
ĠE l
el t
ĠOb serv
ĠIn put
Ġper spective
ic ations
ff ff
th row
am ing
}, {\
Ġdefin ite
... </
t f
lic ate
Ġnull ptr
Sta ts
Ġrecor ds
Ġqu ali
in ity
Ġl iving
ĠBay es
ĠIn stitute
EE EE
DO CTYPE
ĠAL IGN
it o
Ġstud ent
Ġview s
F ix
Ġge ome
Ġp rivacy
es ome
Ġn ational
ry ption
ĠD en
Ġover lap
ĠS ource
Ġsuff ices
R C
j ob
d ark
gra dient
Ġconfir med
Ġsta y
Ġj Query
ĠA g
Ġs l
ĠCol lection
u ed
index Of
psch itz
ec tivity
Ġapp end
math ds
ĠM ost
ĠEurope an
CO MP
Ġt x
F LA
Ġrep orts
Ġpar ser
Re al
ĠĠĠĠĠĠĠĠĠĠĠĠĠĠĠĠ ĠĠĠĠĠĠĠĠĠĠĠĠĠĠ
ĠRes ource
ili ary
t ur
IG HT
ch arge
ĠA ction
Ġ ri
Ġto ward
}= (
Ġ ultra
re v
ta ck
Ġther mod
}\ !
print ln
Ġcontrol led
Ġ$ [\
Ġinitial ly
lo ader
tab ly
Ġpla ys
Ġlimi tations
Ġu i
ho le
I VE
ĠSh ow
r ift
Ġbec ame
periment al
S ur
Inter val
Ġspec ifically
@ {}
Ġproper ly
Ġd y
ven tion
ĠS at
es ides
si p
Ġquo tient
Ġall Classes
H P
Ġconstra ined
Ġinf lation
Ġd river
tri p
exp ression
ĠallClasses Link
TR UE
ĠR ad
h ow
b asic
Ġ? >
' }$
Ġco herent
P res
os sible
si mu
ĠT ri
Ġc lick
Ġbound aries
ĠP ath
Ġhad ron
ĉ ĠĠ
il led
ear ning
] _{
Ġconven tional
me t
Ġevent ually
Ġext ent
un defined
Ġs ensor
Ġse x
Ġc lock
Ġlook s
Supp ort
Ġpo ol
obj ects
Ġact ing
RE Q
Ġseman tic
Ġin finity
Ġpul s
Ġorder ing
) ->
tr on
sc ape
ĠP art
Ad min
P layer
Ġf an
Date Time
ID TH
up load
S kip
Ġli quid
(' /
) |^
Ġindependent ly
Ġdescri bing
). }
sion s
) )$.
Text ure
Ġp ipeline
ĠV ari
ĠD ay
o ta
: [
app ear
ĠB ack
ĠM ag
}} }{
ie f
Ġvalid ate
ĠB i
11 1
Ġfilter s
ĠB ig
}} }$
Ġcover ing
G A
}_ +
. <
Ġcirc ular
ĠMe V
con sole
Ġh istor
Ġdraw n
Ġse gmentation
P lay
st one
Ġadjac ent
lar ation
= {\
ava i
Ġhyper bolic
\, .
{ [
Ġpeak s
M ove
Ġnumer ically
Ġ$- $
e ks
display math
ĠC lear
cen tage
Ġgener ates
j ective
res olve
Ġplay ed
Ġintegr als
Ġfa ils
Ġinc ident
D en
}| ^
Ġdis order
ĠV ector
M ask
f b
Ð ²
vel oper
I LE
Ġ ðŁ
Ġintro duction
example s
Ġal pha
ens us
Ġread only
ĠS a
e per
Ġcon clu
re ct
Ġpack et
ud get
ren ew
IT ION
th rough
Ġtransp arent
ash ion
f p
su ff
ĠP age
r ig
Ġcirc uit
W allet
Ġchalleng es
Ġro ad
Be an
ani mation
m or
Ġar ise
w a
Ġto wn
di o
so cket
EE E
Re port
ĠRequ est
' ',
ĠMark ov
w as
.... ....
ĠL ondon
ab c
Ġf em
Ġ( [
Ġdiv ided
Ġde formation
Ġa ver
Ġm d
org an
Ġd war
199 2
Ġhy brid
(' #
Ġsa w
Ã ¼
Ġfoc used
ĠS i
Ð ´
o cc
Ġconven ient
h d
in ds
Ġexci tation
Ġho sp
S pe
Ġpotential ly
l b
Ġ> >
ĠA S
Ġclose ly
ĠSI ZE
as ync
Ġro ots
la bility
Ġgener ality
Ġin duces
no ise
ĠCol or
Acc ording
au x
Ġpower ful
pro xy
y er
ĠS to
Ġentang lement
ĠCar lo
Ġformal ism
ific ations
ĠEar th
G P
Ġ ill
ĠÐ ¿
Ġsta ff
å Ī
y al
Ġthan ks
^- $
side bar
Ġdisplay ed
Ġcalibra tion
199 0
Con ver
ĠF urther
um my
S imilarly
ĠL y
Ġdetermin es
ĠM r
LO CK
Ġv ic
12 7
B ased
spec tively
re ci
ĠH ttp
I mport
Ġ_ .
Ġchalleng ing
ĠIn formation
ar n
a verage
Ġfore ach
ta tes
Ġre set
( |
c v
Ġfin ish
ĠArray List
ĠP l
Ġinvestig ation
ĠD B
SE LECT
C red
Ġvehic le
Ġli b
L M
* \
Ġcoun tries
ĠM er
Ġpaper s
ĠDav id
A re
ic a
Ġh um
Ġbos on
ĠRes ults
ĠG overn
ĠA P
ach ine
Fra gment
Ġprof ession
Ġpo ss
Ġconsist ency
G M
d n
exp and
Ver tex
d if
com es
Ġ\, ,
Ġpoli tical
De legate
S ervices
ĠB H
Ġme dical
ĠT er
Ġpla ces
check ed
( @
b x
Ġfinite ly
Ġpartial ly
Ġg lob
ty les
Ġran ges
A li
center line
A F
Ġmo ves
get Element
res olution
lou ds
ann ot
Ġpro be
' )\
ct ors
ir l
Ġbene fit
Ġra re
ut ter
Ġcol our
ĠP DF
Ġclo ser
Ġclassif ier
pher ic
() ))
tra ining
pro gress
Ġen um
Ġpre tty
Ġout per
sub float
ĠN AV
G ame
Ġle aves
sta tes
{ "
ĠIndi a
ll ig
Ġg ave
ing ton
ĠU s
Ġpass ing
am i
Ġstate ments
or tion
Ġcover ed
Ġrep os
Ġad mits
hel per
Ġgrow ing
li ography
Ġfin ds
ĠLore ntz
) !
en ers
2 13
Ġpotential s
ti ties
Ġw anted
re port
if orn
ĠL ap
pol icy
^{ [
' +
; ">
MOD ULE
Ġreal istic
Ġo wner
}) (
Ġend s
Ġm ul
vers al
ĠHT TP
U ri
Ġrun time
entif ic
Ġcorre lated
option al
Ġplay ing
tis tics
Ġm us
In v
p an
os er
Ġcryst al
» ¿
s mooth
Ġsent ence
ĠA mazon
for tun
under set
sim ilar
ap is
N amespace
Ġste ady
V ideo
(" /
Return s
Ġsepar ately
ĠJ apan
deg ree
are a
F ree
ig u
on om
C l
Ġw riter
M AP
auto ref
ï »¿
Ġm m
He aders
p in
D b
an cing
mo tion
Ġco oling
c laim
OO L
Ġin iti
I ds
S equence
Pro gress
P Y
s lice
stra te
writ ten
par ts
process ing
Ġpro mis
Ġout come
ĠAr ch
ren ts
OP T
ĠM ake
EN SE
EEEE FF
Ġ ];
ĠAs sembly
ĠB rown
Ġhe ter
check box
Ġt mp
cd n
tiv eness
ĠS QL
ĠN GC
in teger
ide os
L IC
Ġcon version
der iv
Ġenc oder
iforn ia
Ġlist ener
ĠD ele
}{ $
Ġres olved
ĠRec all
Ġcol d
id entifier
Ġcirc um
li brary
Ġcyc les
Ġf lexi
w er
re spectively
Comp iler
play er
ever theless
Ġillustra te
ass andra
ot ent
ti st
Ġrelax ation
ou lo
Ġclo sure
cy cle
ren ch
ĠE ND
Ġne ur
fra g
Al so
Ġw ire
}} +
ama zon
L ower
hav ior
}\ }$
b lank
Ġass ignment
Ġobserv ables
Ġinter ference
Ġwar ning
Ġchar ges
Ġcho osing
mem ory
Ġs atell
Ġdes pite
Ġd ou
}^{ (\
ĠCoun cil
L in
Ġrepres entative
Ġm il
big skip
Ġlong it
sta t
Ġpol icies
$ --
Ġre sp
Ġbo ard
Ġvanish ing
rou ght
Ġguarante e
radi o
type def
Ġdriv en
ĠM edia
Ġro bot
Ġtren d
vo ke
hal f
rou te
stand ing
5 12
Ġg ene
f un
Ġcont ents
s r
prote ct
Ġeffor t
ele ments
Ġop ts
ol ving
Ġinvari ance
Ġaddress es
Event Listener
ĠIn stead
lef trightarrow
H M
se lection
ati bility
p ull
to gram
L anguage
Ġcol lapse
tribu tions
f requency
Ġe mb
cons istent
b en
Ġinterpre ted
Ġla unch
ĠSo ftware
$ (\
L en
ĠF orm
renew command
US ER
Ġe ight
il ding
Ġcos mic
Ġre ci
b us
Gener al
n c
ree k
Ġmag ne
INT ER
Ġre ward
Ġsome what
Ġsample d
mis sible
Ġen joy
" ],
Ġbu f
M ac
Ġderiv ation
ĠK e
K S
Ġcorrespond ence
ĠAN Y
Ġp owers
An imation
ĠW rite
p f
con tact
ĠCE LL
Ġex cess
ä »
ac tivity
id dle
ĠWh ite
Ġun stable
Ġn a
m ise
ex tern
\ }}
ma tics
) <
}$ ).
valid ation
Ġanaly zed
ver tical
Ġcoun ts
per son
ill er
z es
E P
ĠAnd roid
Ġa u
Ġfour th
Ġturn ed
Ġsec ret
ĠM ac
' ];
^ +\
supp orted
Ġdel ta
~ {\
Ġd ialog
au gh
Ed ge
Q U
g oto
Ġf o
Ġtyp ename
Sh ape
in x
flu id
' d
ĠV alid
En ter
ĠNAV BAR
mp tion
)\ ,\
Ġcomple tion
f ire
sp a
Ġm irror
Ġdoc umentation
Ġencode d
Ġdise ase
ĠM il
C at
Ñ ĭ
Ġprov ider
Ġanom al
Ġl ives
Ġenc oura
NavBar Font
}}\ ,
Ġevery one
ge ms
ĠI II
Ġac tivities
.& .&
Ġacc um
rela tive
Ġcombin ations
No tification
AN T
Con dition
k ernel
Ġlo aded
Ġa belian
D ictionary
Ġformu las
ĠM L
Ġ ing
Ġsyn thetic
Ġtrack ing
ched uler
ĠI ts
] +
Ġmultip lication
Ġconserv ation
Ġcirc les
ow ski
Ġmon ot
Ġpub lish
Tag s
Ġmetal licity
Ġtime out
pre dic
Ġobserv able
) }^
t ar
Ġser ve
Dec l
s olution
}( -
la d
N P
ĠF ree
Ġper forms
ĠM icrosoft
Ġtang ent
ORD ER
time out
Ġh on
ar ity
ĠG raph
S i
C ard
_{ {
ĠG od
Ġmathema tical
Ġbrief ly
tr l
Ġcomp osed
Ġin stability
Y Y
ma ps
Ġmer ge
MO DE
ĠAr g
ĠA uto
Ġne gligible
com mit
Ġaverage d
optim al
scri be
Ġen vironments
B asic
Ġman ip
du ration
vis ible
Ġsymme tries
fig s
ĠL and
H y
Ġch ance
T V
Ġse p
cre d
ĠThe ir
SC R
inter val
Ġwork ed
] _
ĠS earch
'] ['
/ {
g z
F ORM
load ing
ll ing
Ġexp ort
stitu tion
equ ival
Ġf riends
Ġmod uli
ĠP O
ĠO N
comp act
Ġexp os
VAL ID
E SS
ĠN or
roun ds
B ra
ac le
HER E
ari o
l ined
E mail
Ġf l
Ġsp ot
Ġinter sect
ar r
Ġeasi er
Ġacceler ation
ta min
Ġrecogn ition
HT TP
ot ropy
sec u
od ay
exp an
Ðµ Ð½
rela x
14 0
. ;
ta ges
Ð° Ð½
" ].
Ġdest ination
D iv
igh ter
st on
Ġd rag
exp ect
M ake
ĠF acebook
ĠG lobal
Ġ' '
Ġpen al
Ġo pt
s is
Ġregular ization
re str
mate ly
ĠW illi
Ġse gments
Ġsur v
On ce
DE FAULT
ra ted
i lo
ĠCh rist
orig inal
t p
Ġcaus es
Ġcor ner
m ouse
Ġdis abled
Ġin d
ch y
******************************** ********************************
ar ma
mid dle
Ġdetermin istic
ĠE ner
L android
End point
$& $
D iff
Ġpermu tation
Ġsh ear
C loud
Fla g
ĠT emp
ul arities
Ġend point
T er
on ce
ers hip
Ġ\ #
Ġ@ "
c lassif
Ġrela tivistic
Ġwork ers
) /\
Ġconf irm
w atch
al ing
se lector
mer ge
Ġcond ens
en sed
Ġc avity
d m
Ġpro ves
Ġke pt
is y
B T
ta ke
Pro v
/ "
Ġsign ed
D om
le ge
}}\ \
Ġembedding s
ĠB usiness
ĠJ ust
ss ue
bo ost
Ġcommon ly
Ġ\\ [
L Y
ĠA pache
sequ ences
ĠSpec ifically
Ġan imation
}} -
ĠRe view
="../../../../../../ ../
Sp an
Ġparticip ants
ym er
Ġc lin
Ġinvol ve
Ġcon figure
ĠS C
): =\
Ġen v
P ublic
Ġph one
Ġd st
% ,
common s
ph rase
Lo ok
Ġ )$
), (
ĠP al
Ġen ables
ĠPro perty
comp ile
re ce
p es
Ġspe ech
Ġdi ameter
ma y
+ |
Ġopportun ity
s ync
ĠOption al
Ġ ×
pa red
S ave
Ġstruct ural
b ro
Ġdire ctor
ĠL ab
run time
S creen
down load
Ġco homology
Ġfig ures
Ġmin or
Ġs par
ĠB lock
vel ope
art in
ou ter
datab ase
Ġcent re
di tive
z ure
or bit
Ġiso lated
M icrosoft
æ ľ
Ġth reat
X Y
Ġal ignment
E LD
}$ ;
ext end
Ġdot ted
Ġke V
Ġcall ing
Ġsm art
Ġcondu cted
B F
ĠE uler
Ġperiod s
on omy
For ms
c u
ff ers
ĠU N
Ġtrans mit
ĠN av
ĉ ĠĠĠĠĠĠĠ
peri ments
}$ $
Ġgeodes ic
Ġr gba
Ġord inary
S m
up s
' (\
Ġs we
ven ue
ograph ic
ĠL ink
OR TED
Ġcop ies
Ġf oo
Ġb us
ed u
Ġanal ys
n def
Me mbers
Ġsingular ity
# {
Requ ired
ST M
Ġ' \
op ts
k wargs
Ġc ele
e mbed
ï¼ Į
Ġc lip
Ġlocal ized
per turb
valid ate
se y
) ~\
Ġ' ./
D ATA
spac ing
Ġconsider ation
Ã ¶
ir us
Ġmo vie
Ġre member
13 0
Ġwon der
}} +\
ĠH all
P UT
Al low
ĠPo int
avai lable
iti an
N umer
gra dle
or ge
ag o
th in
1 12
m essages
b ecause
M ouse
Ġsc roll
Ġs ti
ator ial
Ġh und
Fig ures
ell er
de lay
Ġtag s
ĠP M
NS String
make box
f lex
Ġoff ice
Ġar ises
me tic
Ġlaw s
bib liography
Z h
con struct
und les
R a
Ġex cell
Ġim mediate
Ġleg al
gra vity
p q
es tern
L ight
er ves
Ġorgan ized
Ġre verse
bo th
ht bp
ra tions
Ġc md
FI ELD
correspon ding
In d
Ġenh anced
H tml
la tive
Ġ\ :
B ind
clo sed
Ġfact ory
dis c
}{ $\
d river
glyph icon
C LASS
Ġmove ment
m r
Ġas sembly
Ġappear ance
Ġper haps
ĠDef ine
she ets
de cor
Be gin
Ġrecor ded
all ery
u tation
A ST
id en
Man y
duc tivity
ab i
re act
fortun ately
DE F
fe ed
Ġac tivation
Ġj ud
c atch
can cel
L imit
ME TH
Ġimagin ary
Ġf ul
An aly
Set ting
ex it
ĠSte p
la in
em an
Ġb rand
Ġspe ak
ĠM ain
199 1
ĠMan agement
bigg l
Ġal bum
Ġimp lied
ou l
Ġima ging
ter ms
Ġnav bar
Ġmo ved
SS L
cre ens
Ġcor on
, (
p ress
ĠRe public
min al
ĠD el
Line ar
E G
get Value
Ġne arest
ĠC ho
Ġreal ized
R PC
tra ined
æ ĸ
Ġmargin al
d riv
Ġsp ent
eff icient
sub ject
M IN
G r
ãĢ Ĥ
ĠA T
ĠJ acob
Ġlo ops
S to
R andom
ĠS ign
Ġaux iliary
con structor
ĠSt reet
7 00
Ġinstr ument
A X
ma tes
}] $
Ġelement ary
App end
Ġcommand s
Ġconclusion s
ĠC ustom
pla ys
Ġtw ice
Ġdiver gence
N ative
ĠE very
el come
m k
ĠL ife
ĠCan ada
ĠB it
moment um
Ġfit ted
B I
ĠB ro
ĠA nother
Ġtor us
Ġutil ity
Ġdest roy
Ġexam ine
j d
Ġm or
Ġquark s
Ġe lastic
Ġinequ alities
Ġhard ware
) *
ĠEner gy
Ġvari ant
li e
Ġtri ple
ĠA lex
Ġpar a
oun ted
' ,\
Ġc e
sa tisf
Ġf ight
cho ose
Ġl icense
Ġferm ions
H istory
Ġwe eks
Ġp late
IO Exception
o mas
Deta il
Ġpol ice
B D
x rightarrow
I gn
ste llar
Ġb ins
h n
ĠS P
Ġconf lic
}] \
Ġrepla cing
Ġe ducation
B inding
Ġfind ings
B al
B order
ĠT witter
lap sed
Ab out
if ndef
ĠF ed
br aries
ass ign
f av
Ġmolec ules
Ar ch
ĠS ervices
set length
ĠĠĠĠĠĠĠĠĠĠĠĠĠĠĠĠĠĠĠĠĠĠĠĠĠĠĠĠĠĠĠĠ Ġ
Ġpro g
D IS
ĠIn st
h ouse
ant ly
Ġorgan ization
coordin ate
la ter
ub er
Ġbe gan
B ecause
Ġcombin ing
Ġ\ "
Str uct
Ġcub ic
Ġs b
U C
sta ge
Ġf light
re lease
M ed
Po jo
Ġsk ip
S k
Ġintern ational
ĠP R
Ġt sd
Ġb low
o int
et o
ex act
St rate
Ġto kens
Ġtrans actions
ma k
Sh ort
cri tical
arg uments
Ġpop ulations
fer red
ĠX ML
Ġmag net
t ouch
Ġh or
Ġprote ct
Ġpure ly
oun ding
B r
U ST
Ġc lar
Ġthe me
Ġview ed
ĠP A
Ġhom omorphism
top rule
getElement ById
z ation
id entif
ch en
Ġradi i
Ġadvers arial
Ġensure s
Ġv acc
Ġen g
go v
ĠC a
Ġt ables
te gra
ĠRes ponse
Ġannoun ced
bin ary
R ate
Ġre ly
Ġpo inted
( .
big gr
RE G
Ġa spect
Ġoper ating
Ġj ets
ĠCal ifornia
Ġkeep ing
Can cel
g ls
trans action
po sitive
Ġs ys
Id entity
erm itian
Ġsay ing
Ġfe asible
Ġreserv ed
Ġopen ing
Ġro un
Ġt ends
in herit
log o
ines e
con sider
Ġid x
Ġin sert
Const ant
G s
O C
mer cial
comp ute
Ġfraction al
differ ent
ul ing
Ġ> >>
Oper ator
mon th
Ġro tate
al lation
ĠDes cription
c ost
10 24
os h
\' {
con ditions
Jo in
ande mic
= }
Ġcyc lic
Ġop in
ĠAn alysis
\!\! \!\!
ok ed
ex ec
Ġproj ected
er g
text style
a ver
fore ach
ĠR ich
Ġp ion
G ui
U B
con j
Ġcenter ed
Ġref ers
Ġsy mplectic
Ġman ufact
Ġhol omorphic
Over view
Ġsurroun ding
tra in
e es
in to
Ġcur sor
. ",
fol io
Ġmain tain
ĠCont rol
Ġb ubble
Ġassert That
Ġvol tage
Ġeffor ts
ult ural
v p
Ġqu as
typ ename
com mu
M ay
Ġatta ch
Ġh our
Ġecon omic
Ġidentif ier
ryp ted
Ġgra du
METH OD
D river
multi p
fra ction
Ġpl anning
cer ning
cur ve
ni hi
tiv ate
cho ols
Ġmod ification
10 2
b log
ta tor
% )
te sian
Ġc utoff
qu antum
ç Ķ
Ġn an
ma pping
' -
Ġ$ -\
En umer
ĠWindow s
H A
) ~
Ġstand s
ov a
f ound
W ORD
Ġs ending
ĠH ome
Ġ\ }$
Ġcon trib
cre ated
Ġentire ly
i ant
N a
oci ated
Ġoscil lations
Argument Exception
y an
E ST
Valid ation
Ġp in
S pa
ĠPro of
* {-
W ait
Input Stream
á ĥ
Ġmanif olds
STR ING
Ġsu ffer
Ġqu bit
Ġde gener
cri pts
Î ¿
ĠSt art
Ph one
}} ^{(
F n
Ġdi pole
Ġbene fits
Ġb ars
ĠD ue
Ġdoc uments
ht b
s est
Ġrece iver
Con tact
Child ren
Ġv align
Ġintro ducing
Ob serv
Ġa ware
Ġfil led
Ġf lo
Ġpre par
Ġal le
ĠNo tice
Ġlength s
in duced
z ip
En vironment
> '
ic ensed
Ġi i
g tr
ĠBu ild
V ec
v ectors
om b
ĠC D
col head
Ġhim self
}, \\
Ġhel ps
Ġed it
am ent
W ord
Ch ain
ro te
Ġpur ch
i ar
ĠS NR
Ġ ul
par tition
con vex
}^{ *
ĠS ets
ak es
tr u
is Empty
V ir
ĠĠĠĠĠĠĠĠ ĠĠĊ
Ġrapid ly
ER S
Ġpart ners
Valid ator
OR Y
Ġw al
re lation
w i
Ġh uge
Con sumer
DB LP
eq q
^ ^
Ġexpan ded
M aterial
ĠT aylor
'] );
Ġcomp ression
me ter
Ġme eting
inclu ding
CH AR
10 5
ĠG ame
Ġsta ges
c lone
lic ense
nos tics
A bs
iter al
f ront
h aus
Ġan chor
nav igation
ĠS pace
å Ĳ
gra ms
13 5
Ġdiscover ed
o ted
Ġsur ve
$ =
Ġne ither
ĠLO G
k k
Ġlocal ization
ach ing
3 60
Î ±
ĠApp lication
av irus
Ġan nihi
bra tion
au tif
F older
=\ "
No tice
sub mit
Ġproof s
Ġefficient ly
& +
Ġrestr ict
dest roy
Con structor
Ġf er
ĠP ort
Ġdown load
ĠP lease
Inst all
el d
Ġ til
n or
our n
}) }\
alax y
ĠN on
if ting
In dic
Ġra ce
Ġrepos itory
Ġs lice
Ġ" ";
as te
ou ts
big oplus
ach es
inter pre
fer ences
Ġ" ",
ĠSt andard
ĠW IT
Ġbo ot
B s
ĠOn ce
ad ap
Ġre ver
ĠF ind
h h
ula ting
ĠB r
s ame
| {\
Ġmod al
Ġprov en
f m
Ġer g
ĠS V
ĠC lient
rid ay
ĠGal actic
it ness
ol f
f etch
Process or
Ġmat ched
da pt
AR N
_{ (\
data set
Ġsimpl ify
Ġm al
- $\
Ġfac es
ic ity
Ġdual ity
). $$
: `
Ġ' ';
Ġper missions
Ġlimit ing
m ention
own er
ali as
In deed
Ġload ing
ĠPol icy
table s
em it
ma ch
Ġcompu tations
dis k
; |
Ġtr ust
Ob jects
Th m
t ors
}} }{\
face book
G T
ĠP ower
Ġfra gment
Ġsit uations
vi a
cont ents
Ġprogra mming
ĠF OR
Ġachie ves
Su per
Ġout flow
Ġreli able
er ed
A SSERT
ĠO C
i lation
Ġver ified
ĠJ ames
Ġinteract ing
Ġcli ents
M ag
ĠM S
Nav igation
ĠC S
en berg
ĠB ob
H H
Ġun ity
Ġcross ing
e val
Ġrecover y
ĠPy thon
Ġb rought
ymme tric
00 2
Ġobserv ational
_ );
re pository
verti ble
li ers
Ġre ducing
< <
Ñ ĩ
pi p
STAT US
dis able
ip ment
ĠW he
ĠNew ton
Ġcap ital
() ),
Ġob server
ash ington
Ġj ournal
resize box
t l
ĠF ix
di a
al ert
ĠS y
ĠC lo
ĠN E
å ®
ĠP ress
ev alu
riter ia
er os
Ġes cape
Ġsqu ares
sin h
u ma
Ġc louds
P F
le ts
Ġcar bon
act or
p to
ran es
Ġneighb ors
Serial izer
G a
Ġclaim s
% "
ĠD eta
ĠCon sequently
v ance
de precated
ĠM al
bo se
Ġflux es
Ġ ">
Cal c
Ġpati ent
ĠN a
RE D
R aw
u ted
Ġ< -
scale box
Ñģ ÑĤ
Ġign ored
Ġt a
z o
au ght
continu ous
Ġc ulture
Ġoccur red
ĠM em
Ġi p
P ers
refer red
ĠA gain
Ġw oman
Ġcommun ities
Ġch art
AC H
label s
ĠEn gine
Ġcomb ine
Un known
ra pped
[ {\
Ġcontinu ity
with out
B atch
od al
S uch
The me
ĠCo q
> ;
}$ ),
, '
manif old
ta ur
Ġlang uages
pol ar
Ġqu al
Ġ Ø
i os
Ġbu y
AN G
ud inal
\\ \
stri p
ula tive
Copy right
bibliography style
Res olver
Not Found
ĠA D
ĠAustral ia
$ }\
Ġhelp ful
ss l
ul ner
Ġband width
stit uting
ĠA v
Ġappear ing
Ġconver ge
ĠS tra
Ġch ains
Ġinitial ize
at ar
Ġde dic
External Task
m obile
al f
F D
Ġd amp
Ġscal ed
Ġany one
Ġto ur
Ġcertain ly
St andard
P s
Ġbook s
j Query
ĉĉĉĉ ĉĉĉĉĉĉ
g ap
Ġj s
De v
Ġreach es
Ġpres entation
ĠC ons
b ounds
qu ality
K L
Ġcomp osite
Ġp ump
}} _\
ExternalTask Pojo
gin ation
Ġwor st
ĠT ele
en es
Ġaccep ted
Ġvari ability
si tes
re po
] ^{\
ryp to
Ġel if
Ġag reed
Ġe p
s ass
Ġth ous
- {\
is set
An notation
ĠD an
Ġse lector
esti mate
Ġmom enta
ĠW IDTH
Ġphenomen on
Ġ ig
Ġf mt
ore s
Ġ rm
Sta tic
I mple
as p
t witter
b lob
D ay
fa ke
view port
Ġpay load
Test Case
ĠS ol
rup ted
ĠOther wise
diag onal
ĠCom mand
A gg
bottom rule
ĠCol lege
scal a
Ġ_ ,
pre vious
Ġb ind
ĠY ear
medi um
Ġs on
ig ens
ĠOff ice
s ho
cat en
Ġin nov
Ġfla vor
Pre v
66 66
ele m
F OR
gu ide
Ġcommu tative
Ġsummar ized
Ġcon cepts
Ġg over
Ġal location
par tite
Ġrespon ses
V olume
ti ble
^* (\
s qu
AT CH
Ġhom otopy
Ġreveal ed
}. $
Ġrequ ested
Lo gin
{ +
Ġexcell ent
for Each
St op
ĠĠĠĠĠĠĠ Ċ
Ġdec ided
Ġcre ates
}$ :
LO C
' },
our se
Ġ" %
ut down
iv il
Ġ )\
script style
ĠWAR RAN
Ġstudy ing
N ET
Ġan no
Ex ecution
gtr sim
iz ers
Us age
vel ocity
? âĢĿ
es sel
Ġoptim ized
g est
column s
B inary
In formation
Ġlink ed
Ġgra dients
w br
te m
G AN
Ġtri al
stri al
ic ode
Ġan notation
Ġam ounts
Ġo lder
Ġf ake
ĠĠĠĠĠĠĠĠĠĠĠĠĠĠĠĠĠĠĠĠĠĠĠĠĠĠĠĠĠĠĠĠ ĠĠĠĠĠĠĠĠĠĠĠĠĠĠĠ
Ġis otropic
Ġf ashion
Ġsh ifts
ne igh
Ġjob s
gr al
Ġneighb our
Ġrelations hips
Ġpl ans
q ed
ari a
Ġv ision
cos h
Ġmod ular
b undle
Ġdec oder
S ame
T ile
Ġtimes tamp
link ed
Ġhierarch y
aba tic
Ġsequ ential
ĠIl legal
ide l
Ġlogarith mic
u er
Ġcustom ers
Ġn ice
ĠMich ael
Ġpro ps
T M
Ġhydro gen
is sion
Ġs un
Ġimp ossible
Ġb id
F M
^{ {\
ro tate
Ġrepro duce
Ġco ol
Ġb udget
Ġpo se
E valu
;| &
Ġconjug ate
Fra mes
Ġde m
Ġsc an
ĠJ ul
oulo mb
Re lease
om ing
Ġcomp reh
ar di
ste in
Ġl ists
ĠL java
G aussian
Wh ere
high light
ĠBayes ian
Ġenc ounter
l ife
Ġda mage
Ġwas n
$ ^\
Strate gy
Ġgu ess
ĠSer ies
l st
read er
ĠP at
ĠG old
d v
onym ous
ĠCour t
D rop
Mapp er
Ġsub graph
Ġanalys es
la c
Ġ\, .
\\ [
] }\
C enter
ĠU SA
pa ges
" },
Ġtrans formed
b inding
}) :
O wn
ĠB est
ta tively
C ONT
Name d
Ġmay be
ĠOut put
}. $$
ent y
Ġnucle i
}} )\
lib s
M essages
Ġf usion
Ġg old
corre lation
ĠB an
au chy
Ġcoinc ides
Ġt uple
pro c
Ġrect angle
Ġparen ts
Ġp le
ra b
in der
IN S
P rivate
lip se
Ġacc ounts
00 5
ĠD R
Ġdetect ors
Ġtra cks
Ġpar ity
Ġtext ure
(" #
Ġfact s
2 20
or ation
? ?
r ules
ĠB S
]{ ./
no va
A udio
ĠA rt
e eq
Sp lit
ĠTechn ology
Ġregister ed
Ġobtain ing
ist ant
F uture
Ġvo ice
ĠAb stract
Ġdiscover y
Ġconnect ing
Comp lete
Ġw ants
ick s
Ġs al
in formation
Ġover la
Ġmod er
] ))
\ `
Ġpre v
Ġdis ks
spe ed
B ottom
+ $
e b
UN D
P ower
SCR IPT
Ġe ase
h ot
Ġp od
r ust
des ign
NO DE
ĉ ĠĠĠĠ
xy matrix
Am ount
AN CE
Ġuniqu ely
ĠDe velopment
An alysis
cal endar
ĠB al
par ame
Ġre ality
cor r
ĠR ob
peri odic
Ġ" .
Ġprior ity
Ġc um
Ġla bor
en o
Ġ\ )
Ġst ories
Ġelectro magnetic
En v
Ġremo ving
at o
G D
Ġf irm
Ġenti ties
T Y
~~ ~
Ġatta ched
ĠQ ue
cur sor
ĠR a
Al gorithm
ack now
Ġdetermin ing
Rem ote
Con sole
ch a
C orre
): =
Ġcap t
link s
Draw ing
direct ory
m ms
Ġv ideos
ĠL ay
We ight
W orld
hom ogeneous
) },\
)} =\
Ġcomple tes
Ġplan ets
force ment
ĠD uring
L U
Ġsh aring
ari ant
DO M
Ã £
Ġbright ness
Ġrobust ness
p n
Ġa di
colon eqq
ĠDE FAULT
Ġextra ction
ĠRem ove
Ġsu cc
ĠP lay
lement ary
Ġadap tive
Ġcard inal
ĠG a
bin ing
es tion
Ġ\ *
Ġarg ue
A I
Ġminim ize
Ġ ulti
th rift
C er
exp r
Ġsupp ressed
cos ity
mp s
ore l
)$ }
f mt
Ġt d
S ol
F ore
Or ig
l brace
å ħ
'' .
Ġsh adow
Ġcover s
Ġte ams
> )
Ġdep icted
co ok
Ġobtain s
Sh ould
oc o
ĠA M
sample s
Ġb ij
alle y
con clusion
onal d
/ ">
ĠS pe
ten ess
j e
ent ric
}= -
r v
Ġin comp
w ater
Ġpor tion
Ġsurpr ising
Ġfin ished
il istic
ĠN N
ĠF ore
li ms
}) ^{-
$ ^{\
I EEE
w ho
N ullable
ĠPro f
ur er
var pi
can vas
Ġma pped
ĠA I
Ġn orth
lat tice
is sues
ĠSta tus
over rightarrow
Ġrig id
erc ise
Ġasymme try
Ġs in
ĠAn n
ĠDem oc
ĠGu ide
oun ting
Ġexecu ted
F W
Ġcomp iler
w est
Ġs ql
alt Color
Ġnear by
Ġcapture d
Def ine
Ġ' ',
Ġd aily
ĠB ased
ĠOr iginal
19 2
* ,
fl ush
ä ½
the o
Ġqu bits
ĠG W
Dep th
bound ary
Z Z
I AL
th ese
Ġal ter
ĠM O
Ġ& #
ith metic
comp arison
ĠC he
Ġcut s
Ġasympto tically
] \\
p ref
ma ts
or a
à ¥
ote l
Ġfac ili
Ġloss es
Ġsignific ance
ĠT imes
Ġconver s
lat forms
NR AS
ĠA rm
Ġsta ts
ber n
Ġro ut
Ġs aved
, }
d ynamics
Ġwait ing
Ġ' .
' }(
}{ !
s z
d on
apa city
ong o
Ġle af
Ġle aving
be q
Ġw rote
Ġg al
ĠBri tish
v v
. """
V AR
Ġapproxi mations
Ġch e
Ġde generate
Ġappe ared
ĠS F
PH P
Ġsimpl ified
Ġcontinu ed
ĠLi pschitz
ĠL ast
Ġp andemic
Ġb la
Ġrestric tions
gener ator
Ġprefer red
H older
27 0
use um
P od
}} }}
si ent
Ġthick ness
ti er
19 89
Ġcomp ens
c la
B ounds
R et
inter action
âĢĿ .
Ġguarante es
Error s
i able
Ġsing ularities
Ġ[ -
ĠWe yl
AC CE
)$ $
assert True
Ġanom aly
Ġp ref
do or
}) ^{\
Ġneutr inos
ĠMethod s
war z
Ġover view
Ġe ye
n r
11 5
K K
ar ra
Ġdepend ency
^{ *}
ro t
algorithm ic
Ġper centage
Ġexponential ly
style sheets
Ġ$ _
ĠL u
ĠB en
Ġn om
ĠConfig uration
In f
scal ar
Ġsh apes
c assandra
P lease
us r
ĠG r
Ġbra in
Ax is
Ġexplo red
D em
sc atter
la g
r gb
Ġconver ted
tific ations
> [
f older
Se par
driv en
ĠCh ange
la red
Ġlog ging
ch art
Ġp p
Ġrepe at
^ *}
Ġradi ative
ĠC ore
ĠS imple
Ġdetermin ation
ĉĉ ĠĠĠ
Pre vious
ĠDes ign
Ġconsu mption
ĠS W
Ġclassif ied
Ġph on
ĠQu ery
Ġout comes
H I
l int
Ġnon trivial
xt ures
Ġcl ub
m cite
( $\
Ġdevi ations
Ġ' %
ĠR ight
Render er
Ġdep loy
Ñ ĸ
f ar
com mun
Ġtun nel
: @"
tific ial
ap ed
ten tion
Ġcoun ting
ura cy
ĠPa ul
ĠJ ournal
)) =
A UT
Ġp m
T erm
s cheme
Ġvari ational
Ġexpos ure
LE TE
Ġb irth
ind ic
ĠE mp
Ġinter polation
Ġtot ally
Ġfore cast
it t
ĠĠĠĠĠĠĠĠĠĠĠĠĠĠĠĠĠĠĠĠĠĠĠĠĠĠĠĠĠĠĠĠ ĠĠ
Sh ared
Ġre write
Ġmi xture
head ing
ĠSupp ort
f our
{- }
le vant
Ġsh ot
Ġlarg ely
Ġplace holder
Ġcheck s
Ġfa ith
ĠW ed
ĠR O
ĠW al
b ranch
ce q
Ð¾Ð ²
erv let
Lo op
Ġsp ins
ĠReg ister
b one
Cur sor
ĠE V
ĠP ass
ĠâĢ ¢
Ġg amma
esti val
ĠB ern
Ġdiffic ulty
Ġpo le
F ocus
T imer
g el
Ġcontinu es
ĠL ook
k top
Ġphot os
raise box
le e
Ġcustom er
Ġoriginal ly
fe atures
| }{\
&& &&
Ï Ħ
ĠÐ ²
}) }{
con tra
ĠMa jor
Syn tax
E L
ĠC SS
Ġphot ometric
Ġw ild
ĠA ccess
ĠW ay
)} }\
Ġ\| _{
Ġpro mise
Ġequ ipped
ĠO S
Ġpack ages
ON G
ai lability
ĠN ov
electr on
) )$,
Ġs lot
Ġori ented
F ollowing
Po ints
br and
Pro gram
P ut
Ġa udi
formu la
Ġhe ating
Constra int
lat ors
ct ree
M N
ĉĉĉĉ Ċ
Ġwor se
Ġ ----------------------------------------------------------------
ĠSec urity
[ ->
q q
Ġpri mitive
l vert
id entity
ger y
r k
Ġposs ess
AT ED
Ġ{ %
Ġequival ently
Ġpro cessed
Ġcare er
ĠWil son
Ġassoci ation
HO ME
}; \
W atch
Ġconcern s
be an
BP ACK
lec tric
B Y
L iteral
Ġh ook
il inear
ra in
Ġext ensive
ĠI ter
top ic
lin der
ud ent
ĠY oung
C a
ĠD own
in verse
Th row
k h
A SE
mat ors
ĠE ducation
Ġapproxi mated
ch ro
Ġf older
Ġle ader
Y ear
ĠAd ditionally
Ġ{ },
remark s
ĠFig s
ĠL HC
Ġcancel lation
Se gment
S pr
Ġar ticles
Ġgra ded
cell color
Ġd ict
19 80
thes es
F il
lli j
rag ma
lic es
A ct
ĠT or
Ġin coming
ĠRe port
ĠSer ver
Ġcent ury
Ġbranch ing
T ok
{ |\
N U
w ang
Ġcomp ris
Str ucture
l c
Ã£ o
b ec
Ġc row
ĠVAL IGN
XX XX
De precated
ĠĠĠĠĠĠĠĠĠĠĠĠĠĠĠĠĠĠĠĠĠĠĠĠĠĠĠĠĠĠĠĠ ĠĠĠĠ
res olved
T w
l p
sol r
Group s
od o
SP AN
Ġb lood
Ġcour t
Ġpar ton
Ob server
Ġvari es
HE AD
Ġsec ure
Ġvi ol
B el
lic enses
r brace
ĠN et
Ġro tational
( ()
Ġconstit u
Ġde b
ĠV e
Ġe V
inte llij
Ġad ds
Ġregular ity
g p
Ġdiscre p
æ ķ
Ġa ria
Ġconven ience
mar ily
Ġre lies
Ġm s
ĠB ol
19 87
add le
Ġepoch s
Ġcharacter ization
Ġdecision s
Ġpre sident
Ġquanti tative
IC ATION
string s
under brace
^* ,
ab stract
v endor
Ġdevelop ing
BU IL
W IN
refer ences
oid s
Ġvor tex
Z ero
Ġresearch ers
ĠM eta
coup ling
Ġele ction
iel ding
Ġgo als
Ġd ictionary
ĠRe al
re mote
MM ARY
Ġg ather
Dim ension
ĠCon text
re ason
m entations
! (
Ġd up
F s
Conn ect
ĠRes ult
ĠCom mon
Ġe ast
ĠZ e
trans late
_{ |
Enc oding
Row s
Ver ify
ig roup
ĠR ic
Ġn ation
f ollow
Ġar row
b ling
Re lated
secu tive
2 10
Per mission
Ġso cket
get Id
Ġrecon structed
Ġphenomen a
Ġat t
ll ers
Ġmis sion
Ġsub tra
P G
Ġtri ed
Ġcom m
o ss
Ġmo ther
.* ;
S witch
ĠAd min
Ġcan cer
d dot
ati o
Ġch unk
ĠW ashington
ĠT eV
ĠI den
b os
Ġmeas uring
ĠL ine
ĠF R
ĠCur rent
Ġperturb ative
sh are
new s
ĠP res
I Z
Ġass umes
te en
Times tamp
N V
rt l
A SS
Name Link
Bo ol
M c
en te
Ġdiv ision
T ouch
Ġgover ning
Cont ents
> %
Q ual
u ce
Ġsupp ly
multi put
al go
Me V
ĠF riday
l ider
ĠS pr
h old
+ {\
ĠF rench
ĠC loud
Ġsimple st
Ġar range
ĠCh inese
p ur
Ġimpro ves
po inter
@{ }}
k w
Ġ= &
ic ular
ad ic
Extension s
Ä ±
ch anges
CON FIG
AS K
log ging
Ġcapa ble
ĠM ock
Ġmode led
Th rough
s ources
ĠD ir
class ical
F ixed
Ġclass Name
Ġvio lation
ĠRe p
Ġquan tization
ĠT ex
\" {
24 0
M NRAS
ou thern
times tamp
ĠCont ent
autif ul
Ġfe e
am ous
b est
ĠS pa
Ġmechan ical
C ounter
AR D
Ġver ification
}\ )
Ġ\\ \
Ġconvolution al
(" %
ĠB ur
Model s
g as
Ġb ank
ĠBu ilder
Ge ometry
Ġsign s
co v
ĠS al
ĠM any
t uple
or ange
Ġglu on
Ġe igens
S core
Ġ ray
ĠP U
Ġconven tion
D rag
Exp ected
000 1
ĠAss ociation
){ $
R UN
ĠN evertheless
brid ge
Ġadv anced
u u
sign al
ĠS imilar
Column s
Comp at
Ġar ising
repe at
ĠL at
set ting
Ã³ n
Ġhand ling
Ġatmos phere
Ġg lass
peri od
ord an
}} ^\
ile vel
Ġinvari ants
Ġint ended
g ue
pend ing
ĠCon st
eff ective
} '$
aris ons
ru it
me mbers
B est
Ġcomp liance
Ġpres erve
p kg
**** **
Ġad joint
d rag
14 4
( ['
19 88
to Be
war n
ph ot
In ner
ex cept
Ġbroad cast
at tach
tran sport
op f
ĠG ood
ĠSt ream
ĠL earning
Ø ±
Ġexplor ation
ĠC C
}\, ,
ĠC olumn
ab olic
ol o
Ġpi eces
Ġdedic ated
Ġm ouse
ĠâĢ ¦
ĠÂ ©
ĠM P
> ()
au dio
M SE
ĠE ff
ij k
Ġim g
Ġdivis or
Ġd iversity
cf g
Ġt ension
z i
Ġs n
Ġar rive
ĠI V
g ency
mention ed
h p
Ġper mission
ĠVir tual
Ġaccurate ly
Ġext inction
Ġepis ode
f all
um ann
Co in
ĠCh ild
Ġex ec
b v
sat z
ĠGovern ment
V ICE
n ative
And roid
Ġeffec tiveness
Ġcon tamin
Ġcheck ing
Ġro ll
}$ &
e igen
ĠB a
le ton
H ar
fra mes
^* _{
Ġvalid ity
N L
Ġ ice
Ġf elt
Ġlife time
S ite
Ġa cknowled
ff f
Ġb ath
Ġacces sible
Û Į
cent ral
sc opy
Ġpart ner
Ġp at
ĠST ART
ĠRe ference
Ġpropos al
EN V
Ġinfer red
vent ory
limin ary
flu x
B er
55 5
sip ation
a sion
w riter
tr ary
Dire ction
ad j
). $
Ġcaus al
Ġra ised
Doc trine
u an
Ġle s
Ġg rand
pres ent
ĠEng land
}}{ (
sy ch
u uid
Ġlog ical
Ġrece iving
lic a
Ġ-- ></
ver ify
ever al
Ġ} (
Ð ¿
aw esome
v anced
j ackson
ĠF ollowing
ti tive
Ġin correct
Ġsk ew
L icense
ques tion
Ġbox es
Ġinsp ired
Î µ
ä º
con vert
Ġexhi bits
Ġspe aking
sh al
ĠC PU
par ty
}, $
Conclusion s
p k
ma c
F UN
g ar
B G
F inal
d h
ĠOr der
WE BPACK
" /
Ġenvironment al
è ¯
de generate
Table Row
Ġ$\ |\
Ġlit eral
enc oding
}} -\
d ue
Ġrenormal ization
Ġsto ck
Ġs outh
Ġsh ifted
ga z
te le
10 4
\, $
Ġmonitor ing
Ġexclu ded
k ins
Sh ader
prec ision
Ġadap ted
"> (
Array List
D er
Run ner
we ighted
g if
Ġno isy
ĠM u
Ġf s
En coded
Sign ature
Ġman aged
Ġe yes
Ġg rows
ĠComp any
Ġn m
Ġover flow
Fail ure
UE ST
h olds
re view
C la
Ġidentif ying
t v
d ating
Ð ·
AR G
Ġpar titions
ĠH istory
Ġro tating
Ġmechan ics
Ġg iant
form er
pend icular
LI ST
lin ec
Ġa mpl
Ġsummar ize
ro magnetic
Ġdis patch
Li brary
Ġcont our
Ġb are
Al pha
o la
; "
âĢ ĺ
Ġcon crete
m v
order ed
-- \
Ġsimp ler
B i
ri al
Ġad ditive
Ġf etch
Al loc
CO MM
ĠSm ith
RE E
j ax
lik ely
ĠP op
Ġse a
Ġad mit
IMP ORTED
ĠC G
ĠM usic
d jango
ĠA re
Ġdetermin ant
ov ing
spectr um
: #
M ost
ĠH D
ba tim
Ġproced ures
Ġconcern ed
Ġcoinc ide
Ġ ur
Ġbar rier
%% %%
Ġc ached
ac cept
Ġst uff
c table
Ġen umer
r ceil
Ġb old
ĉĉ čĊ
UN T
Ġmass less
tic ular
ĠP en
it ter
Pro b
Ġal igned
llig ence
Ġdr ift
= %
r x
ch es
LE MENT
Ġ' @
tun ing
M aster
Ġv ulner
Ġequ ally
ĠDele te
os c
ĠK E
Ġpair ing
ab y
Ġb log
Add r
Ġexperiment ally
Arg uments
gener ic
Ġf ans
ame l
Ġpro x
3 50
à ¸
I l
ass umption
ĠSU MMARY
ke ep
Ġimprove ments
ish er
ĠCom mit
h istory
TI ES
Ġv on
Ġpri marily
ĠAfric a
Ġco arse
Ġfa ther
ĠJ un
ĠE RR
' })
Ġadv ance
Ġsupport ing
Ġb illion
li ve
Ġlept on
Ġabund ances
P latform
Ġdis able
ĠS ocial
T AG
ess or
Ġan ten
the ore
ĠD A
ĠI d
Me trics
ĠClass es
Ġlongit udinal
Ġmeas urable
Ġvehic les
C md
Ġi ons
amp ion
Ġiden tities
ĠMe an
ĠF il
tain ment
Ġmultip lic
s ystems
T L
Ġvis cosity
se en
Ġnew ly
Ġtell s
String Builder
on ts
Ġs ight
ic ial
ĠReg ion
P N
p al
an notations
}$ \\
ga uge
LIC ENSE
Ġkernel s
Ġsatell ite
tur bed
am ber
V ol
verse ly
G EN
D ig
constra int
100 00
S elf
google apis
check mark
Ġobserv ing
Res et
Ġcharacter ize
Ġfactor ization
fil led
do es
ĠG rant
w al
ĠC oulomb
equ ilibrium
L arge
, +
}$ ~
Ġco variant
Ġmes on
ĠR L
Ġt re
int en
bra cket
Ġtermin al
ĠD ig
Ġform ally
P l
Ġanis otropy
enc ing
Ġhand s
get Instance
Ġcalcula ting
)$ )
geq slant
T i
Ġa dapt
C oun
Mis sing
Ġlook ed
f w
Ġar ithmetic
un lock
Ġregard less
Ġexp ensive
),\ \
cri be
99 99
Ġslow ly
ĠC at
Ġl ift
da ys
De lay
lic ial
ĠĠĠĠĠĠĠĠĠĠĠĠĠĠĠĠĠĠĠĠĠĠĠĠĠĠĠĠĠĠĠĠ ĠĠĠĠĠ
S ort
B oth
ĠD ouble
Ġrequ iring
section s
ich let
Style ID
e ties
Ġc as
11 4
on a
Ġ" ${
Ġarbitr arily
Ġsqu ared
R el
c is
ĠV ol
Ġmagnit udes
Ġins ight
ĠG reat
Ġsee k
Ġthermod ynamic
Ġal ert
w allet
ĠP S
Ġsh orter
Ġdimension less
Ġopen ed
f ollowing
Ġprov ing
Ġ Ñģ
Ġfor ced
Ġis su
ĠC L
Ġvir t
R GB
ĠWARRAN TIES
Ġdwar f
Ġsupercon duct
: '
L at
ĠIntern et
P ixel
ĠHand le
Pol y
Ġv ote
12 4
Ġdes criptor
E sti
B IT
Ġh ous
Ġplan ar
Ġpropor tion
}: \
ate ver
C NN
)$ ;
OO ST
Ġsu c
cons ist
10 7
è ¿
Ġcompe tition
Ġfra g
ĠUn iverse
ĠW HERE
Ġig et
Op tim
c ls
ous tic
}) +
.\ ]
Ġprior i
D ATE
Ġo il
repres entation
Ġaim s
Ġmultip licity
Ġap ilevel
ding s
p ad
Ġhapp ened
Ġinitial ization
Ġremain der
Ġo be
ĠS R
Ġreal ization
Option al
Ġs ync
Ġcon cerning
Ġgeome tr
Dis cussion
5 000
en vironment
ĠW ill
Ġbos ons
$ ~\
Ġexci tations
B l
stats models
Ġc f
Ġd og
vari ate
Con tains
Ġimp osed
we et
ĠUn ion
str ict
Ġpar ad
sw ing
e th
Mon th
ig er
Ġb urn
algebra s
D on
ĠD iv
ours es
Ġremo ves
] }$
ĠT om
bas is
S en
w x
Ġobvious ly
D U
ck er
C irc
ĠDe ep
l ceil
Ġad missible
asc ade
ever y
ur day
Ġshe et
A cknowledge
Ġcom mercial
iffer ent
ari an
Ġb ag
Ġboun ding
Ġnumer ous
Ġgen us
Ġcorre cted
Ġcould n
ma jor
ys ql
ĠJ son
IN ST
Ġsu peri
Be en
Ġreason ing
Ġser ious
Ġattemp ts
W W
) _\
to c
Ġcred it
ti sts
ĠRiemann ian
Ġn u
b n
multi ple
With out
Ġf loor
Ġdemonstra tes
Ġfew er
am an
_ )
ĠÂ £
Ġresi du
Ġreplace ment
ĠOC aml
D id
Ġdiver se
( (\
itect ure
Ġpe er
Ġexp orts
ĠSpec ial
Id x
ĠUn it
G ER
Ġpay ment
c ategories
par ticles
D TD
ĠP C
Ġpre pared
samp ling
Ġinitial ized
H o
Ġ\ %
Ġhe ur
pack ages
c op
Ġcur rents
ĠT ag
til ity
Ġaver aging
b our
Z one
at om
n x
Ġasser tion
Ġapp endix
Ġdr ug
Ex port
rat ch
E very
til s
Ġk inds
Ġprote in
10 3
Ġa xi
d or
Ġp c
Ġstra in
Ġintegra ting
Ġwar m
du cer
FF ER
per t
ĠLe g
Ġh ex
. (
\% ,
atter y
B ro
ut s
Ġin version
Ġpar ties
op ing
Ġcon secutive
Ġif f
date time
no tes
ĠCre ates
suff icient
Ġprodu cing
d st
ma cro
Ġcon caten
RA Y
to ctree
}\, .
au i
AS H
dec ay
Ġvari ants
class Name
Ã ¨
Ġfla v
ke V
Ġbegin s
Conver ter
! "
Ġsus cep
mon ic
Me asure
Ġa part
am ount
Ġb orn
es is
Ġmo tivated
pro gram
g rounds
cover y
Ġin vertible
ĠT ree
illis ec
)) ^
C amera
ol ves
B its
Ġarchitect ures
19 86
(' <
ĠTe am
Ġf re
Ġout line
Ġsurve ys
Ġsum s
Ġfilter ing
. ][]{
ĠG P
DE X
O pt
Ġs ell
pres entation
get String
Ġdis placement
ĠC la
Ġcon sequences
ĠC amp
dis patch
BL IC
ĠC F
Vis ual
Ġcomple teness
å Ĭ
L ie
ĠR andom
dot ted
) ",
E ven
Ġa head
un known
Ġenhance ment
od ge
g lob
Ġcon sumer
xy gen
Ġturbul ence
Ġs ales
ac ity
P lace
lu x
Task s
Ġreg arded
U ses
17 0
G F
Ġa w
Ġproj ections
C ALL
}\ |_{
os ted
Ġso le
Ġreview s
D ynamic
Ġ uri
Ġaff ects
ul ted
ce eded
it tle
G al
Ġtriang les
reed y
æ ĺ
Ġinj ective
ul se
Ġs chools
ĠE con
cho ice
LA Y
Ġ`` `
c as
ĠTh read
Ġdeli very
12 1
Ġcore s
Rem ark
Ġpair wise
ra ct
Ġnot ing
path s
b an
B a
spectr al
| }\
ĠF ilter
Ġdec ide
ĠRo ad
Ġf resh
min imum
Ġv m
Me an
fra gment
Ġpres erves
10 6
ĠE le
ge ometry
., ][]{
() ">
ah ler
ĠDire ctor
r vert
Ex ecutor
ĠS ociety
Ġc ris
10 8
Ġtop ics
Ġr ings
Ġillustra tes
T yp
Con s
Ġsci entific
Ġle ak
e el
ĠF uture
ĠH aw
Ġreve als
pla in
Ġ( %
Ġdec ades
Ġcol span
Ġclin ical
Ġprote ction
Ġexpand ing
Ġmon o
\ @
ĠB et
Ġco herence
Ġweak er
Ġs ensors
au ss
G reen
Ġmer ger
ra ting
TO M
ig m
Ġintro duces
Ġz eros
olog ically
Ġd ots
}= -\
Î ½
Ġpa id
Ġe th
================================ ================================
ol i
Ġemp lo
Equ ation
Vir tual
ynam ical
o tic
Ġfrequ ently
ign er
ÑĢ Ðµ
create Element
Ð° ÑĤ
ud it
Ġl ens
ĠComp onent
Ex ists
Ġform ing
r ick
Î ¹
Ġin come
ti e
Ġs ched
ent ropy
ĠM ass
po i
Ġar tifact
ĠS ect
Ġhe ard
_{\ {
ĠAss umption
F urther
)- (
de code
Ġtor sion
ke leton
Ġincre ment
ap y
Lo cale
EN ABLE
Ġdec oup
ĠAdd ress
c mp
ura te
qu an
D ue
vari ables
Ġn s
ate st
Ġfil ms
Dete ctor
f riend
Ġwork er
- }
Ġro ck
g ot
LO W
Ġn ested
ues day
)} ]
F oo
ĠC V
Ġc ategor
Ġ| =
Ġpl ant
Ġcommun ic
la x
Ġde leted
get Type
T X
and a
rou ter
Ġquar ter
ĠLo ad
le ading
Wh ite
En able
Ġguarante ed
Ġw x
ĠF lor
mis s
r ons
ign ore
ĠC ong
the y
ĠStr ucture
ĠC auchy
J ohn
Cor ollary
Ġb ond
ap t
ro ke
pa ren
'' $
Ġen velope
ĠC orre
Ġfun ding
Ġar rays
A u
z im
In tent
Ġquali tative
Ġthere in
In sert
F ALSE
l inux
sing ular
US Y
AT OR
Li ke
Auth entication
ĠPe ter
ĠC ri
P romise
Ġredsh ifts
p en
ĠClear ly
t bl
Man agement
UR N
Ġtun ing
ĠPro v
Ġing re
no align
AT TR
n ecess
diag ram
PRO P
bur g
RE CT
Ġprofession al
en sively
ĠÐ ½
| ,
Ġmin i
I SE
UR CE
____ ____
Ġar rows
Ġtw ist
Ġin herit
ĠD C
Ġ( .
Ġtim ing
urs day
Ġpr ices
|\ ,
Ġthere by
Ġintegra ble
Ġrecover ed
Ġf if
Ġdif fe
ĠM us
.\ ,\
be ans
Ġcli mate
Ġcon sum
er gy
pro duction
pr ice
tran sp
). \
Ġc b
Ġdo or
Output Stream
| -
ĠU RI
var s
ma sh
act ual
incip al
ĠR iver
Ġro les
Ġman age
R F
ID E
ce an
S eq
ĠJ S
te am
ĠBy te
is er
ĠF rame
Dis patch
Ġrel ig
Ġn ine
h ad
ad oc
Ġg oto
ec lipse
HO UT
å ¤
un ched
Ġk pc
Ġadd ressed
Re ason
ro ve
/* !
r int
Ġ& -
}) ,\
File Name
time line
OR K
Ġs ender
Ġres cal
ĠLi brary
Ġcolle ctive
Ġpromis ing
que e
Ġch apter
L ib
Ġb undles
v r
ĠJ ose
Ġr id
ĠH ill
c x
Ġspecific ation
Ġ( {
Ġto ler
Ġion ization
Ġanomal ous
SP ACE
p riv
L IN
ĠB orel
Ġapp reci
l its
Ġal ias
' ^
TableRow Color
ĠM i
Ġpar agraph
Ġm ob
nu cle
Ġdes cent
}} ;
Tran sport
amazon aws
Ġinfra red
CRE ATE
Ġcapa bilities
th umb
! }
Ġuser name
| $.
p ragma
bur st
Ġindic ator
Ġsum mer
ĠBo ard
ne ar
Ġfore ign
>< !--
Ġknow s
imp lies
ĠD OM
IL ITY
Ġminim izing
arc sec
ab ilities
Ġk new
ĠCh urch
Ġno tes
ĠSun day
Ġmil itary
op am
idel ity
Ġ' _
/ $
Ġmodel ling
ĠWhe ther
no tify
RE T
ev olution
ook ie
enari o
Ġ à¤
New ton
ĠL ou
Ġinj ection
ura ted
Ġbranch es
^+ _
T y
Ġv illa
si mp
bal ance
ĠTh omas
de cre
hook rightarrow
ĠApp le
ĠF act
ĠParameter s
* {\
= >
00 3
-------- --
Ġre v
ĠI C
Ġno tations
append ix
Lo ading
trans fer
Ġsimula te
ĠĠĠĠĠĠĠĠĠĠĠĠĠĠĠĠĠĠĠĠĠĠĠĠĠĠĠĠĠĠĠĠ ĠĠĠĠĠĠ
)\ |_{
udi es
Ġimp ose
Ġper pendicular
Ġs up
ĠS am
Ġrecomm ended
Ġnegle ct
* }\
Ġopin ion
AP P
man y
Par ticip
ĠCal c
sh op
M esh
d g
] _{\
ĠThe ore
ol or
col sep
ĠĠĠĠ čĊ
ĠC MB
F un
Ġcele bra
ĠT OP
B OOL
Ġset t
Ġcor por
K it
ĠSD SS
ĠH a
Error f
match es
S B
sh a
(" \
cur rency
ĠIndi an
ĠS end
oun tain
ire ct
ĠH amilton
G Hz
S rc
Ġfilter ed
im als
Ġabsolute ly
ĠS H
ĠB Y
ĠO ffic
Ġconsider s
Ġpar sed
ĠPub lished
Ġbreak s
fa ster
arch ive
SS ION
Ġpro min
Ġhom ology
display Name
Ġinter view
ak a
sd k
Ġstri p
Y our
Ġan i
Ġmod ulation
Ġgeneral ize
ĠN at
ĠH E
Ġcontinuous ly
et c
bib item
ph en
ist ra
ict ures
wik i
Ġev ident
Ġa cknowledge
descri be
> ../
Ġcent ers
ĠR ock
ĠEn vironment
Ġsubgroup s
I ME
ri ers
ome ter
E mit
m orph
pe ak
Ġmod ulo
H ook
te ction
Ġmor ning
, $$
ctr l
Ġclo sest
Ġs ends
Ġopportun ities
ĠRun time
RE SU
Ġinstruction s
ĠC T
Ġformu lated
19 85
ĠS ing
Ġoptim ize
c lock
z ier
10 9
Ġsee ing
K ernel
Ġp latforms
Ġcla imed
dire cted
Ġlet ters
In struction
Ġsupp osed
Fe ed
Ġb ases
çĶ ¨
Supp orted
phys ics
Ġext ending
Ġevalu ating
Ġhistor ical
ma ting
d anger
Ġbary on
ĠS FR
lim ited
omin ator
Av ailable
Ġoscil lation
p us
nes day
Ġpre ce
Ġhosp ital
der r
Ġclass ic
ĠF ull
ĠZ h
or ough
et ary
j u
Set up
Par tition
ĠAb out
ĠFran ce
Ġcollabor ation
C ast
h pp
ĠBu ffer
Ġpre pare
ĠTh rough
ĠMon day
ra s
get Class
en ger
}: =\
v y
Ġ' "
Ġoutper forms
ĠEn ter
max cdn
ĠGe orge
! </
B ad
ced ure
Ġpropag ator
P OS
op acity
% "><
second ary
Ġ- =
11 7
9 00
Ġimp lications
Ġm ig
Ġesti mators
P erson
pix el
ob tained
Ġfi la
ĠC e
H u
se mi
Ġpla in
Ġpa int
Ġthink ing
fit ting
math rel
ĠP romise
Dec laration
n ight
Ġback ward
ĠB ank
Ġ' #
âĢĿ ,
cript ors
Ġre actions
Q CD
tool tip
inclu des
ĠRe fs
G W
Ġmon omial
Ġfem ale
Agg reg
nat ural
b if
Ġsk ills
t one
} ",
ĠLog ger
ir s
Ġiter ative
Ġestima ting
Down load
m ut
Ġre in
la ton
Ġtrans forms
Ġti le
ere f
Ġconsider ations
no frame
Ġs ociety
}$ };
b id
con current
ĉĉ Ġ
Ġprobab ilistic
IN VALID
ag ree
. ]
com b
Ġread ily
Ġwe ather
Ġmut ual
D r
Group Name
Ġinvest ment
la ve
Ġb ed
Ġh ide
Wh y
Pri mary
Ġenter ed
40 4
ĠPro blem
Ġfair ly
ĠS L
ify ing
T or
Ġphot ometry
: &
Ġperfect ly
Ġinter po
Ġtechn ologies
Ġoffer ed
Ġc oding
} --\
ta rea
list ener
Ġmorph isms
ĠR ay
Ġamb igu
Ġb is
1 19
Ser ies
end point
Ġb ridge
si l
S K
ĠPar se
Par ty
ver batim
MB ER
Ġsub jects
tig ation
ĠE v
Ġun able
Ġext rem
" ];
lac ian
W ill
Ġs ch
ĠL in
="../ _
small matrix
mu x
tool bar
Ġdiff ers
on ed
Contro ls
ic ing
other wise
Ġmod ifications
Ġrespon d
get Message
( /
ĠM atch
ok es
c ert
ĠRe v
Ġthrow n
ĠG en
AS A
ri an
}) }{\
Ġprotocol s
le ctive
Ġ} .
lin ation
App endix
reate st
re gex
is ition
Fact or
Ġconserv ed
^* $.
dis crete
ĠI tem
Constra ints
di e
sub Nav
rup tion
ĠD im
Me tric
@ {\
Ġcompreh ensive
it ors
approxi mation
bern ate
ĠPe ople
bo ss
ration al
Ġe mo
Ġuniqu eness
< >();
Ġc lone
tim er
IM IT
A U
structure s
Ign ore
o sitions
Ġred und
Ġfra ctions
Ġexpla ins
ps frag
Ġref lected
ss on
prob ability
ĠPlan ck
Ġs orted
r n
jav ax
ĠG PU
P ress
j j
Per iod
}{ .
Ġad verti
Ġpolar ized
Ġd ied
Ġmagne tization
m x
U pper
co eff
In tern
Pack et
ĠF ALSE
ĠT ur
ĠRemark s
Re act
D a
=\ ,
scal ing
se cre
19 84
ĠE M
": "
Ġspatial ly
Ġauto matic
Com mit
up dated
H is
' ].
12 2
rela tivistic
ĠPro duct
stitu tions
AB C
Ġg ray
C trl
Ġseman tics
ĠS il
Ġpass es
ĠT ABLE
O k
Ġcell padding
^+ (
Ġdeal ing
Y es
Ġt ensors
Ġ{ (
CC ESS
av g
ĠCO L
et ro
Ġdifferenti able
ĠL anguage
Ġevery where
Ġbin aries
Ġb igger
Ġd anger
Ġk ids
le in
vious ly
A ctions
ĠF a
Ġnucle us
ĠCom mission
P ush
Ġim m
road cast
{ }{
St ub
) ]{
ul p
ĠH uman
Ġs napshot
Ġaut omorphism
Ġ======= =
Ġmo tions
A MP
ra tes
Ġcell spacing
ĠC irc
ĠA ctive
mod ified
Ġbusiness es
B N
sp i
Ġassess ment
Ġdis plays
19 70
Ġpoint ing
Ġhierarch ical
re cur
ad ded
ip edia
Ġax es
ri e
ĠY ang
de mo
Ġtw isted
inte gral
ict or
pp ings
ĠSh ould
m q
Ġfamil iar
sc an
Ġdis sipation
Ġ tit
un ing
{\ '
Ġ$ ^
it Hub
Ġgra te
Ġengine ering
to s
ĠM D
pi pe
des criptor
RESU LT
ĠR GB
Ġ# {
3 20
Ġun d
ser vers
al a
lo v
ĠR ou
Ġimpro ving
Ġbu g
]{ $
Ġp an
as is
Ġbe autiful
ĠArg ument
Ġcaref ul
t m
yn chron
View Controller
at ern
lish er
D ash
ĠH O
> ${
triang leq
Ù Ĩ
col lect
Ġser ves
Ġlat ency
K M
ĠL ee
TR AN
Tran sition
ĠH as
ĠP ut
Ġg irl
Ġphys ically
Ġreg imes
Ġconstra in
gra ded
Ġwall s
Ġs leep
ĠC er
') ->
ĠWith out
OT TOM
ind ices
Ġ$( {\
inc ar
Ġw est
ĠJ er
Requ ire
ĠCent ral
Ġaccomp an
ĠGener ated
h is
Ġear th
Work er
Ġansw ers
Ġsub mit
Phys Rev
ĠV o
Ġstr ug
T uple
ĠKE Y
Menu Item
Ġattra ctive
Ġsh or
con ds
Ġth resh
S napshot
the ad
Ġlo gin
Ġtren ds
. ',
local host
ine q
ĠIs ra
Ġemploy ees
Ġsent ences
Eff ect
Ġglob ally
Ġd augh
Ch anges
sur ance
Ġgo ogle
ĠD IS
Supp ress
Pre dic
Ġare n
Ġpo si
ĠMA X
pro pag
AA AA
S ervlet
Ġlist ing
Ġg un
ad joint
Ġover come
11 6
om mod
A ff
pre d
ĠT ab
el le
r p
Ġbr ings
Ġf lex
ĠI o
Ġac tiv
Mod ified
aa aa
\ ).
C reated
Ġdec oding
mb f
B ridge
Ġhapp y
Ġ\ '
al ed
ĠCent re
Ġ[ (
v dash
cs v
}{ -
ĠRo bert
A W
Up load
i pe
Ġs erved
g c
j ec
p seud
ĠSer ial
ĠM ad
Ġg ates
BU FFER
ĠPro p
ĠA lice
ĠIn v
Ġp our
ut ors
C MD
ni pp
ĠTran sition
Ġbo dies
Trans lation
ĠAd S
w ing
RE S
Ġsupp lied
Ġbec oming
d td
Ġvalu able
bel l
O wner
ĠWh y
0000 0000
Ġneur ons
Ġun like
Ġre ject
i ors
{ -\
LO AD
P DF
ri table
A cknowled
ti a
Ġtype def
Ġdiv ide
Ġyour self
in herited
ĠDire ct
Ġsuggest ing
R ules
D ITION
Match er
Ġinter fer
Ġsupp ress
################ ################
}} %
Ġtri m
Data set
L ag
tra tion
ĠDis trict
ĠV ideo
ĠWh ere
Ġiter ator
g ic
R ob
Ġ ens
ex istence
ade mic
Ġcon ference
De ep
Ġtr uly
ĠA C
s ent
? }
Ġme ant
ĠS ym
Ġs ymp
ĠF ar
ĠE lement
with in
Ġsk etch
Orig in
con c
up si
bu ilt
I J
v ies
inten ance
^* $,
Ġmanif est
ĠD u
sc ene
P ane
Ġcry pto
ĠC am
__ )
hic le
L ow
N orm
ry st
me trics
Ġm ic
ĠWIT HOUT
w orth
Ġfac ilities
Ġfermion ic
RE SS
Ġturbul ent
ref resh
F G
Ġin set
Ġm igration
Ġover head
h es
ĠTex as
' _{\
oc ia
ther mal
Re pe
D uring
ĠFe b
ic ago
filter s
ĠIs land
Ġecon omy
D istance
ogene ity
fer m
J ust
Ġretrie ve
Ġex clude
11 3
ch unk
BA SE
su cc
mer ce
Label s
ĠR G
Ġa de
ĠI T
Ġan satz
Ġspa cing
V O
Exp ect
Example s
Ġemp ha
TR Y
Ġspectro scopic
Ġin dependence
Ġrece ives
ĠDate Time
ĠB ell
i ro
Ġt ack
Ġp itch
Ġw ife
Ġpo les
ed ges
ĠP ay
Ù Ħ
ĠC are
app le
observ ed
ourn als
ĠC os
; ,
v ac
M ix
Ġo mit
Ġe mitted
Ġswitch ing
æ Ī
per formance
Te am
ti d
=" {{
Ġreson ances
upsi lon
, ...
p lots
man agement
Ġfunction ality
Ġnon negative
Ġprint f
task s
2 30
LA S
b ow
Ġcon trary
B reak
ĠF ro
separ ator
ĠFlor ida
A g
ĠI F
ĠA ut
ĠMod al
pre pare
Ġauth entication
ĠCommun ity
mu st
set Text
Ġch ose
ĠS ED
-\ !
D ist
Ġin er
) }^{
Ġw itness
d w
an no
V C
ĠG C
Ġconstruct ing
ĠS ky
ĠF un
f v
re si
ĠM ary
Ġin direct
Ġmethod ology
ĠK o
Fe atures
ĠGerman y
Ġconserv ative
Ġintegra te
Ġin duce
Ġhelp ed
Ġthread s
pay load
_+ $
cont inue
Ġcontra dic
arge ted
Ġ å
Ġadap tation
Ġ" '
ĠM artin
Ġfed eral
F ace
Ġdegener acy
L F
Ġinter faces
Ġtra ces
An i
$ ]
F atal
ĠPhys ics
Ġvic tim
re lations
ĠLe ague
h ex
M achine
Ġstore s
ir med
extension s
Ġsa ke
tz mann
Ġo c
Ġsp ont
Ġlit er
ĠC ross
' }{
Ï ĥ
Ġres istance
conver gence
T ick
id gets
Ġman ually
Ġcor ollary
Ġbu cket
Co ordin
il inx
[ <
O m
par k
Ġfluct uation
sh own
ref lect
Ġcoron avirus
Ġconsist ently
Ġsol ver
12 6
) }}{
Dec imal
ira ble
}} /
Ġsta t
ĠP an
A K
ĠApp ro
Ġe cc
mod ifier
Ġpenal ty
Ġsearch es
da ble
tif ier
Ġre lying
ĠM el
o is
Ex ecute
] ->
me l
W ang
Ġbal anced
Ġdamp ing
ak i
ĠS af
exp licit
{ }\
ĠW ell
Ġutili ze
C annot
dis cussion
pg f
l ighted
{ #
Ġnegle cted
Ġo mitted
b rane
or ous
Pri ority
=- =-
' ')
0 10
Ġran ging
Ġreson ant
y ou
Ġas set
Ġse es
Ġvo la
17 5
con e
Ac cept
Ġ\ ,\,
ĠT ake
. }.
Ġm ur
}^ -
s lide
Ġg ender
Mon itor
Ġb rane
Ġpossi bilities
db c
Ġannihi lation
Ġjo ined
Â ©
Ġconn ectivity
è ®
ĠC M
Ġis ot
Ġsh o
Ġwindow s
P REF
)} +
Ġg host
S imilar
T l
Ġselect ing
Ġpost s
FLA G
Ã ¢
Ġbos onic
di al
V e
Hash Map
ĠK IND
oth ing
Ġremo val
ĠSele ct
00 4
Ġsuper vised
Ġanaly tically
to gether
ĠSat urday
ĠA tt
]{ @{}
Ġinfinite ly
Ġs and
ĠH ard
] ).
ĠBe fore
van ishing
ĠIn valid
Pr ice
Ġsur jective
Mod ifier
× ķ
Comp ar
}^{ -\
ter ior
ĠCh annel
ĠCl ub
std lib
N I
Ġag rees
ĠUn less
/ )
\% .
Ġgreat ly
D av
s tation
ĠB E
ĠR ights
Ġequ ipment
sq cup
ear t
re ds
pr ise
leg end
Ġ' -
[ [
gaz ine
. \,
Ġs tyles
ĠL I
Ph ase
Ġres taur
Ġar tificial
Ġf ear
L ite
Ġsum mation
ass ociated
Ġtheore ms
I p
Ġmod ulus
50 9
Ġpredic ts
Ġour selves
Ġsyn tax
Ġcomp arisons
. }}
ĠO P
i en
19 83
p ed
si bly
Ġle x
ox y
if iers
Ġthous ands
ir ls
Ġcon ductivity
Ġsem igroup
la ys
ĠG Hz
ur t
S trip
Ġsk in
ĠChris tian
Ġmeaning ful
Ġpar abolic
Mu table
Diag nostics
Ġnucle on
Ġadi abatic
i q
zh ang
Ġp ending
our ney
Ġadvan tages
n as
RE NT
ok ing
per ture
ĠA ws
air s
Ġm otor
ĠDe v
can onical
allow ed
draw able
ĠB re
ĠJ ew
Ġob sta
Ġcont ours
O FF
}\ |\
Ġan c
Ġpro mpt
ĉĉĉĉĉĉĉĉ ĉĉĉ
^ -\
process or
ĠA ward
block s
Ġreg istration
li ps
Ġpres erving
st retch
respon d
Ġempha size
Ġbelong ing
] ,\
}=\ {
E ar
Ġa ctor
Ġme mb
Ġs ink
Ġint en
+ "
ĠS ize
U A
>( <
Ġbig gest
At tach
? "
Ġrecur sive
ĠFig ures
la test
App ro
Ġro b
g m
ĠĠĠĠĠĠĠĠĠĠĠĠĠĠĠĠ ĠĠĠĠĊ
in finite
ĠMat rix
Ġint ra
Ġsucc es
star ts
T ensor
ĠLi ke
Ġarg ued
Ġsepar able
C UR
15 5
ta c
C SS
Format ter
ĠT uesday
pm od
mat ter
Ġstructure d
lay ers
tabular newline
Ġanis otropic
}} |
Ġb an
Fi xture
ĠPar ty
the ir
Ġassoci ate
Ġflexi ble
Ġconflic t
ri vers
) '
gan ization
\ ),
Ġarm s
Ġf amous
Ġtran sient
um s
Ġcer tificate
Ġcy linder
er a
Data Type
Ġexplo it
$\ %
ĠCor por
oun der
ĠK ore
Ġs ter
D u
ran ts
Ġcaref ully
Ġvis ibility
Ĥ ¬
Ġreal ize
11 8
Text View
Ġde vo
F amily
Y M
Ġy es
Ġde legate
Ġassert True
)) }
Ġti dal
Ġhadron ic
pi e
Ġasymme tric
de fer
Ġsh ares
)^{ -\
Ġexper t
pro jects
pop up
act ing
S mall
mod es
depend encies
b ench
con struction
Dis k
Ġdevelop ers
sh ots
D ry
Run ning
}}( {\
f uture
Ġsyn thesis
ĠI mple
Ġ ...,
ST ART
Con tract
ste ps
i y
Ġfall s
J an
ADD ING
Ġb ott
ĠMod ule
be a
Ġreach ing
u ous
ĠA B
Ġexpec tations
(" .
ĠDir ichlet
Ġv ice
Ġremark able
æķ °
Ġfor get
and o
ĠN P
run ning
Ġpa in
r ish
__ ["
Ġlo se
Ġhel per
in n
Te X
qu et
2 25
F ill
^* )
ist an
tain ers
Sc ene
Ġlead ers
Ġtrunc ated
ĠC y
b w
Ġra d
Sec ret
Ġtal king
Ġ' ,
ĠM aterial
ik i
Ġis instance
Rad ius
T ech
Ġfore st
ĠL icensed
}} [
Scal ar
Ġsp end
S ig
__ ,
Ġbehavi ors
Ġte tra
k ar
Ġre ar
Ġwavelength s
(' ./
; %
ĠLe ft
Ġre written
Ġa stro
out ing
== =
name d
Ġpres erved
Ġann ual
Ġinfra structure
Ġdiscrep ancy
Ġdro pped
Ġw rapper
} ],
l is
Ġread ers
la beled
s ity
Ġe duc
Ġend if
coun try
ĠTh ursday
Ġexp onents
shall er
Ad S
Ġsto pping
| <
determin ed
Ġoscil lator
n an
Spec ial
dec lare
Ġ} ).
REQ UEST
urb an
Ġfill ing
Function s
i pa
Ġoper ate
Re lative
Ġvari eties
Ġhol ding
M ust
Re ferences
no br
W rap
id ay
ĠInitial ize
Ġkine matic
dd en
)}\ \
Ġteach er
row Color
g lu
d yn
){ $\
ĠÂ »
Ġgal actic
ĠPro perties
ti ced
Cap ture
Ġsp orts
ex ecution
Ġend ing
Ġsupp ression
im od
ĠExp ression
Ġcombin atorial
C u
Ġpredic tive
Spe ed
( `
Ġg one
Ġtimes cale
{- .
Ġcompan ion
code c
ĠJohn son
E v
ab ling
Ġpredic ate
pa gination
)$ :
t ol
Ġdis appear
w ire
Ġsubstantial ly
U ES
Ġb on
Separ ator
D G
neutr al
Ġcomp atibility
uk awa
Ġcan vas
Ġlist en
ĠF rank
Ġw idget
Ġexperi ences
stream ing
Ġmu on
lo cale
ĠOn line
SP AC
state ment
14 5
E LEMENT
Ġhand led
Ġplan es
Ġ mp
Ġ( +
G RO
Ġmag n
B lack
H ol
="@ +
=\ !
sign ific
" ?>
es cape
me chan
Ġstand ards
l ig
Ġsat uration
s phere
Ġ+ (
graph s
}\ {
ĠB R
ĠTR UE
Ġwh om
con cat
To ols
m g
Ġun changed
Comp onents
WR ITE
ĠM ex
ĠM IT
constra ined
go al
ext ype
ĠB asic
add Class
em on
Ġminim ization
Ġst retch
ici ous
L ines
up les
ay es
Ġ' ''
om ite
H ave
Ġd ip
ĠDoc ument
)+ (
l Vert
o S
ĠA V
B us
l f
row th
Ġs ectors
Ġtemp lates
Ġreflect s
w b
po sitions
Ġp riv
rou ble
Ġsimp licial
ĠB lue
)} +\
ĠB OOST
ec tives
tikz cd
> {
ĠCon sole
Ġsuper symmetry
ĠAfric an
Ġar r
yn man
ĠS us
Ġ Ã©
Ġm illi
ele ctric
r h
min imal
ll ll
ĠEn tity
Ġno tification
ĠIllegal ArgumentException
Ġatmos pheric
x FFFF
ĠL E
Ġpy thon
New s
ou sel
equation s
Ġexam ined
esting ly
P ADDING
Test ing
zim uth
ys h
pip eline
ma zing
CD M
Bu f
Ġran king
ĠĠĠĠĠĠĠĠĠĠĠĠĠĠĠĠĠĠĠĠĠĠĠĠĠĠĠĠĠĠĠĠ ĠĠĠĠĠĠĠĠ
Ġpack ets
ĠB lo
app ing
Ġcook ies
aw are
C ity
t ow
list ing
ĠHash Map
FA IL
Ġincreasing ly
ĠRes p
expan sion
app ed
] </
ĠS ite
v ation
th ird
Ġc ities
du mp
Ġex posed
Ġhis togram
3 000
Ġsh ip
ĠMin ister
Serial ization
4 50
C ulture
M W
over lay
Ġinterpre t
Ġsp iral
dif ference
99 9
ĠWed nesday
Ġe m
A meric
Ġme dic
,\ ;
Ġcapa bility
Ġrela te
Ġfe et
l ds
Ġman ual
fa iled
Ġanalog ue
ard en
Re view
Ġsuper nova
Ġshe af
TER N
Ġins ights
es sed
Ġp ed
const ants
Bit map
Pay ment
}} }(
Ġnorm ally
ĠWilli am
th reshold
fa c
com ments
Mer ge
Ġk illed
SO URCE
An gle
or tation
ur c
* (
In jection
on i
re direct
Ġl l
Ġgu id
CR IPT
ĠĠĠĠĠĠĠĠĠĠĠĠĠĠĠĠĠĠĠĠĠĠĠĠĠĠĠĠĠĠĠĠ ĠĠĠĠĠĠĠĠĠĠĠĠĠĠĠĠĠĠĠ
Ġarriv al
Ġr is
Ġ$ %
Ġ< ?
Ġhum ans
lims up
re main
ĠL ight
ĠS ample
vis it
ĠP HP
: %
cp u
Ch art
ĠM is
Has Been
k u
Ġprepar ation
H L
Ġpre liminary
Ġser vers
ĠH u
Ġfac ility
z oom
Ġcar s
sim al
Ġwidth s
Java Script
ĠĠĠĠĠĠĠĠĠĠĠĠĠĠĠĠĠĠĠĠĠĠĠĠĠĠĠĠĠĠĠĠ ĠĠĠĠĠĠĠĠĠ
N ONE
Ġgra in
ĠSci ences
Ġ& =\
Ġw rap
ro ller
ĠH en
Ġdr ink
Ġf uel
d ocker
11 11
Ġa ges
Ġh a
perturb ative
ĠH ubble
Ġup load
er tion
Code c
\% )
ĠF ra
ĠP L
bra ck
Ġboot strap
Ġmark er
Ġcopy right
Ġf inger
}{ (\
Ï ģ
Ġ" );
Ġadd r
ink owski
ĠLa bel
Ġcontra ction
ĠS ystems
Ġoccur rence
Access or
contro ls
Ġimple mentations
nos cript
h ab
+ }
get Attribute
ĠS ymbol
), $
Ġp al
D ao
Ġdraw ing
tis tical
Ġm iles
thon ormal
Ġcounter part
Ġevolution ary
A O
Ġlat tices
}}{ {\
rit ing
ĠT YPE
f an
Acknowledge ments
ĠB ORDER
char ts
w ind
ĠNS String
An notations
é Ģ
âĢ ¢
ĠR ow
Ġdec or
S can
ĠBan ach
respon sive
faster xml
Ġcardinal ity
go ti
Ġf ab
sp arse
IT LE
Ġexper ts
Ġcum ulative
ĠSum mary
g ressive
o ma
Ġpro totype
He alth
be am
Ġdep loyment
Ġreturn ing
Ġdesign s
Ġrecon struct
Ġmaxim ize
)}{ (
V V
p ot
no tification
Ġla unched
enc oder
N ON
| ^{\
ĠData base
Ġparame tric
R M
Ġacc ommod
Ġmo tivation
ĠSec ret
Y S
Ġtra p
Ġa fore
d B
if er
j boss
Ġmolec ule
U UID
om er
Ġstrength s
16 5
Ġcon sequently
c it
k pc
Sa fe
Ð¾Ð »
> .</
T ex
Ġlimi tation
Ġv ast
og gle
Ġra ys
Cal endar
Ġnav ig
Ġtele scope
ual ity
Ph oto
ĠC laim
pack et
L com
ord ance
ĠWe ek
DE D
Ù ħ
ade my
mark s
al most
ĠOp tions
ĠF ire
value Of
Ġaudi ence
ĠBrown ian
19 82
un stable
schema s
ĠDi ag
U CT
Ġvari ed
Ġle verage
ĠCommit tee
ĠJ ones
Ġcom for
ĠV al
Ġsuper symmetric
H i
tern atively
Ġun e
Ġint ent
omite mpty
Ġar tist
Ġquan tify
m ixed
sw ap
i tation
Ġapp s
r ical
ĠLe vel
st ub
ing ly
Ġre direct
Ġade qu
M r
ĠR oman
Ġir on
at re
Ali as
ĠW i
Ġwh atever
Sur face
ĠG rid
Ġend points
Al t
Rece ived
tr al
Ġexception al
Ġac oustic
ĠCar ol
bu cket
Ġinv oked
$ _\
Ġprov ision
Ġbe ta
fav icon
st ances
Ġpul ses
` )
Ġdist ortion
Ġprincip les
Ġde faults
av y
S chedule
b ases
Ġan notations
Ġc ls
^{- (
se gment
ĠB AS
Ġwin ning
is a
B ACK
p od
big cap
L ang
ĠI ll
member NameLink
Ġb if
D s
Ġmach ines
Âł Âł
or acle
Ġfun ds
ar ound
He ad
Ø ¯
an ish
Ġ. =
radi ent
ole t
ĠJ e
d up
se ed
ĠO k
Ġspec ifies
L em
Ġun likely
] ),
imple mentation
Track er
Ġ} _{
Ġre jected
Ġcri tic
V o
erial ize
: -
ĠSur vey
sl ider
Ġcra sh
HasBeen Set
Ġre min
Tr igger
h or
r g
Ġgraph ene
Ġfoot ball
Ġev olve
n ail
ĠB on
Ġfra ct
r Vert
F l
Ġconsider able
] =\
Ġor thonormal
ci ent
Ġref resh
Ġdiff use
hi bit
)\, ,
Ġexperience d
ĉĉĉĉĉĉ Ċ
ĠChrist mas
Ġti p
c amera
H a
Ġd ream
Ġcomp ac
33 3
è ¡
ĠL P
Con vert
Ġacqu ired
ĠY es
13 6
Ã «
C ross
u its
ĠS ET
Ġmoder ate
Ġenc ryption
Ġprac tices
la h
ĠR F
Ġint ui
Ġmin ute
Q R
} ')
13 4
amp lit
Ġad vice
ĠEd itor
D ict
Ġa st
ĠÃ ł
m ers
max imum
Ġcompe titive
ĠB ill
ĠÐ º
w alk
ĠP ers
ĠÐ ´
bi as
AR GET
Ġoffer ing
)\ )
ĠI mport
if i
ess aging
Ġsh rink
Ġmo tiv
U AL
Ġsu dden
O ri
_* $
G ate
ential ly
Ġbra cket
Ġg rey
M ail
ĠT im
\ :
y o
Com bining
Ġconsider ably
Ġcondens ate
Ġtri angular
secre t
F ac
AR RAY
Ġde eper
Ġbi partite
it ar
Ġopp osed
Ġwire less
Ġw ood
ĠT aking
Ġs tick
qu asi
ĠC as
Ġo xygen
ĠB OTTOM
Ġc us
de cl
ph oto
ĠFor ce
Ġsus tain
c odes
Ġsto pped
Look up
ĠPU BLIC
In tegra
u ition
g un
Ġj unction
constra ints
Ġre lay
ĠD NA
Ġgap s
O cc
Ġaggreg ate
Ġch urch
SPAC ING
Ġav ailability
Ġmicro scopic
Ġ" ;
S em
Ġincorpor ate
}= {\
ori entation
est or
Ġmonot onic
Ġ" )
bo lev
b is
Ġconfigure d
arg v
Ġpublic ation
ĠS chema
Ġperform ances
Ġt f
ĠC luster
ro tation
ĠSch r
Ġdef ense
Ġsuperconduct ing
S ep
as m
nap shots
ad ian
ex ist
14 7
AR CH
Ñ Ĩ
Ġb io
Ġdef ect
ĠB ox
Ġsub spaces
ĠCon vert
v g
ĠW in
}) \\
utor ial
Ġexceed s
ĠT own
ĠF ac
A gain
F etch
ĠAuth or
ĠS ession
s creens
ĠExample s
Z oom
s ocial
Ġflo ating
ĠJ ack
enc il
an ded
\, $\
Ġco ins
cept or
ĠLab or
U int
Ġc ube
Ġ$ +
oc ab
R G
Ġv ibra
MA GE
Particip ant
i pher
le af
×ķ ×
ME SS
Ġ ly
F oundation
; -
S ide
p ing
Ġput ting
ĠTh ree
Ġmy self
art an
tis m
Ġprece ding
T a
ĠS cal
Ġper mit
Ġsub sequently
ĠFran cis
at z
} ''
ro bust
( |\
Ġim mun
}) +\
di um
ran ce
Up dated
W H
tili ties
K n
Ġofficial s
Ġulti mately
Ġa zimuth
IE W
c A
ig an
um ino
om ics
ĠF amily
est ure
or ption
Pro blem
K o
âĢ ī
ĠT a
] <
ĠModel s
ĠL ow
c ra
first row
Ġ" _
ĠPack age
t ory
19 0
cri bed
I mages
con figure
vis ual
Ġauto ma
æ Ĺ
Ġas sets
Ġcomplement ary
Ġturn ing
ex clu
Ðµ ÑĤ
ma king
S un
Ġmetal lic
Ġdro ps
Ġd f
Ġl if
do i
ĠW ord
ĠR ender
ĠS ingle
me tal
Sta ge
Ġf ish
Ġrep ly
Ġ// -->
En ergy
)= -
pi ent
L u
ĠS SL
Path s
T ake
Ġreport ing
V I
{ },
ĠA ff
Ġmon op
i math
Ġ/ ><
WA RE
T ING
RO OT
Ġex ercise
;\;\ ;\;\
Ġsmooth ing
Ġat tributed
sub string
ĠV an
Ġfore ground
VE L
Ġk ill
T aking
Ġaggreg ation
R atio
d ense
hi b
n k
ĠSt ore
Ġcent r
-------------------------------- ----------------
Ġleg end
ĠAd am
Ġfor th
Ġfocus es
cap ture
N at
}$. }
Ġsever e
CO UNT
]( #
Ex it
ti bility
Ġsign atures
}} ^{-
Ġafore mentioned
Ġsyn thes
ĠF O
du ctive
D one
ĠN Y
oc omp
Ġcomputation ally
W ARN
ĠG alaxy
T eV
ou red
Ġpro mo
Ġpr on
Ġpatch es
Ġy ellow
Ġlabel led
Ġmark ets
Ġdec lare
as ympto
ĠCon f
u si
Ġdomin ates
C r
ent ries
az ure
Ġfoc using
ĠString Builder
Ġbase lines
Ġloc us
is enberg
Ġs addle
Ġup dating
v ary
F B
- |
ad apter
abs olute
\ },\
s child
ĠM E
initial ize
' }}
e u
Ch unk
Ġhal os
book s
Per formance
w art
16 9
ĠIm mutable
Ġfix ing
ĠE U
ord on
neigh bor
Ġtr ick
Pay load
Ġon going
Ġl ensing
Ġutili zed
elastic search
ĠB esides
ĠR est
Ġsh oot
ĠRus sian
equival ent
Numer ical
- ">
Ġcontribu tes
\ ;\
at tention
vi ation
ee a
="# "
Ð ¹
qu bit
rit ory
W in
X iv
Ġpromin ent
Ġremark s
ew ise
linec ite
Enc oder
Ġphon on
In sp
)= -\
ĠM obile
Ġ" #
ĠDen ote
ĠCELL PADDING
B lue
Ġadj usted
manif est
ĠNe umann
Ġsu ite
ĠCELL SPACING
v b
G ood
Ġst reet
)} -
Ġbelie ved
ad i
ag ger
Ġd ans
Ġdaugh ter
Ġw ww
_* \
ĠJo e
Ġsa tis
ĠAustral ian
vis ibility
ĠÐ ¸
Ġvir us
Ġbe ams
acknow led
illisec onds
res on
Ġrecogn ized
ĠDe bug
Ġgra v
Clear ly
p ure
ĠW ho
serv let
ĠJava Script
set counter
ĠK ar
oun ce
Ġfavor ite
) ^*
Ġindex ed
19 79
Ġbij ection
E mp
FORM AT
x p
t u
] ['
Ġb ilinear
16 8
Ġcomplex es
it ons
ph e
Ġ ~~
i ously
Re lation
Ġw ider
ĠCh ern
As sembly
ric tion
Ġlist ening
Ġdynam ically
de legate
Ġb attle
re ach
S lot
Ġa id
Ġli braries
Ġorgan izations
Ġcompu tes
Ġdevo ted
un ov
12 9
onom ous
ĠM ur
F it
P ending
Ġr hs
Ġg r
gr pc
Ġneighbor ing
G H
ĠF A
i pping
19 81
Ġgra ins
Ġde part
T ables
Ġkn ot
break ing
Ġg ar
Ġcapt ures
Ġs old
pol ynomial
Q t
Ġor ange
der son
vo ice
Ġexclu sive
ĠL ove
P al
ul k
as hi
Sh adow
P ref
M argin
Ġci tiz
p referred
im ity
ĠM B
Par tial
Ġstream s
Ġ* ,
math ring
C over
d id
}^{ {\
)\, .
andid ate
ĠD ep
F N
Ġz oom
b ol
mm ar
ĠRe trie
Ġin herited
g A
Ġauth entic
ĠJ ordan
par box
atern ion
us age
al tern
Ġm ale
ĠPo incar
O ld
P adding
Ġsynchron ized
ĠCong ress
C AL
Pe er
Ġstream ing
13 2
Ġke eps
limin aries
- .
sp ot
ĠAn ge
Ob serve
Ġwas te
ops is
Ġpuls ar
SU CCESS
De fin
Ġresid ents
Ġf und
ĠD NN
ĠL ake
S cheme
igh test
**************************************************************** ********
Ġp s
Ġd z
Ġax ial
ask et
ĠIn tro
_{ *
Ġrele vance
Ġla mbda
Ġprocess or
mach ine
ĠW ood
Ġcomp ile
thin space
Ġar cs
Ġf ro
ep ler
Ġland scape
Ġ( `
Ġbe at
ÑĢ Ð¸
ĠM useum
}^{ [
13 7
Ġ$( -
P b
R eq
B in
Ġan tic
ri age
ĠLap lacian
ĠA rea
E s
Ġsc enes
Ġsure ly
Ġocc asion
ĠRes Net
se conds
Ġcol ored
un te
ĠR PC
ĠT oken
}^* $
ĠThe ory
Ï Ģ
Ġillustra tion
Ġun expected
==== =
ĠE valu
Ġsong s
il de
P icker
IP S
Ġenc lo
micro soft
Ġ$ ('#
Ġeigens tates
c C
k j
combin ation
() [
Ġfa ult
Ġanalog y
gr u
star s
n od
} <\
du ctor
C ould
button s
Sp in
ĠW ater
Ġerg odic
exp lo
ĠCon dition
Ġrender ing
ĠB C
har monic
ul ties
Ġtr ig
Ġtrans mitted
123 45
! =
Ġen rich
) &=
el m
Comp are
Ġp reference
continu ity
ĠDeta ils
Ġco al
Ġcosm ology
Ġa ward
Ġelimin ate
un ks
Cer tificate
Set s
SS M
ath an
Pop up
ris on
no thing
ĠS mall
tr uth
us tice
Ġr c
war ded
30 4
Ġill umin
Hel lo
ben ius
x e
IN IT
Th ree
Ġthrough put
Ġlook up
Ġscreen ing
ç »
cm id
For ce
Ġrout ine
te t
DE s
Ġsing let
SH A
M ass
on linecite
Å ¡
ĠM I
Ar rays
Ġc ivil
G IN
ao tic
ch rome
text ure
ĠCON DITION
en h
mu tex
cook ie
App ly
Ġdistingu ished
uff le
commu tative
PAR AM
ĠDig ital
14 3
Ġpermu tations
necess ary
dir name
w an
ĠComp ute
Ġd raft
C lassif
| +
Top ic
Ġalloc ated
d ra
Ġde le
Ġmark s
Ġdown stream
ori ented
M or
de velop
_ [
Ġa ffor
Ġen ded
Ġheav ily
Ġhypo theses
Class Name
Mark er
}) ]
}: =
Enumer able
Block s
ĠSc ot
ĠRic ci
s sec
Ġsearch ing
decor ation
j an
C lean
irc raft
Ġd oll
Ġsol ves
ĠTra ining
Ġn k
ĠH or
ĠPr int
col lision
tri bs
ĠIm Gui
ĠI L
ĠS Ne
} &=&
Ġdefinite ly
sen sitive
Al ignment
Ġrest ore
W ORK
ĠL L
integra tion
Ġg reatest
Ch en
xFFFF FFFF
Ġanaly zing
tic a
)\ ;
Ġhand les
ĠAt tribute
gr ic
ĠT ry
Ġhund red
h c
p as
| $,
Ġar tists
spa tial
0 20
ĠAn aly
Comp lex
Ġmultiplic ative
ĠBAS IS
M i
Ġv ec
Ġy ielding
Ex perimental
ĠM iddle
)}\ ,
Ġpos ted
Ġquad rup
rm k
Un iform
I o
q a
$ ^{+
Ġman us
Ġ lying
As set
ĠD ar
File Path
enti ties
V ote
r times
ĠDes pite
ĠC u
Ġb lob
Ġex ceptions
ĠMan ager
ĠAm ong
Ġtrigger ed
Ġres ulted
ĠCE O
me as
ĠH ermitian
Un ique
Al ert
cmid rule
Ġg it
ex isting
St mt
Ġsole ly
g ro
us band
ele ct
ĠOp tim
C li
K T
FFFF FF
2 60
q r
over flow
> `
Ġtrans it
high er
å Ń
di amond
Ġpoly top
ĠP H
Ġinser ted
Con v
Ġtri als
14 9
MP L
Ġext ensively
Trans fer
al p
Valid ate
Multi ple
ĠT i
us ual
K B
Ġmer ely
Ġful fill
ĠTo ol
Ġbur st
n orth
Ġfla sh
ĠMe mber
Ġh its
Ġw a
input s
Ġp ip
ĠP rivate
" }
bi ased
Ġa ds
Re place
later al
non atomic
Ġg lyph
Ġfor cing
ri p
Ġsh allow
' /
oper ative
place holder
Or iginal
pair s
ĠRad io
Ġin ver
B V
o ved
mis sing
ĠD I
ld raw
Ġstatis tic
Ġcor ners
temp orary
Ġro utes
Ġquali tatively
Ġsp anning
Ġshor test
å ľ
) <\
ĠERR OR
ĠS A
ME M
Ġtim er
ch at
we ets
ĠN LO
bre ve
B ag
ge ometric
ĠCONDITION S
ron ic
T ube
Lower Case
li u
d V
Ġer a
P ipeline
Ġ& &\
ĠG ar
ĠW omen
LE S
work s
a ult
h ence
math ord
is ations
Ġput s
id ity
3 75
ĠRich ard
Ġref inement
Ġo x
normal ized
Ġwould n
ĠU sed
M AN
oun ced
Ġsci enti
ph an
R ank
pe g
channel s
Ä ģ
per cent
ck ing
vis or
ĠPa uli
in ject
DE C
fil ldraw
Ġ} ^{
comp iled
ut y
ĠT yp
Check ed
Ġplace ment
od a
'] ))
ĠCh icago
Ġspar sity
Ġschedule d
F LO
Ġrecor ding
Ġsp ring
fol ding
Ġstatis tically
I ES
Ġc s
Ġh ero
++ ++
be havior
V T
... )
bal ena
Ġmonot one
Ġcris is
@ \
Ġvol umes
Ġg ains
be ing
Lo aded
Ġout lined
ĠCar tesian
Ġ\ ;\;
Ġleg is
ĠD ark
Ġcaus ing
OPT ION
\ &
D ot
sty les
C ost
ĠL os
g ui
et t
in voke
ĠE N
IF AR
ĠFe ature
prov ided
y z
Ġimplicit ly
Ġc ro
ir y
n pm
me ans
Ġro uting
la ps
ĠC ov
qu ar
ĠI M
pro f
c ue
Ġre tain
we ek
spec ified
ĠF L
Ġsp lits
ge om
> ()</
ĠT w
Ġspectro scopy
15 2
ĠO ld
Ġscal ars
Ġb ill
Ġeigen vectors
differ ential
c rit
ĠC reated
Ġvacc ine
re duce
ĠJose ph
}) -\
Ġhund reds
Ġout going
ĠMed ical
W he
ĠR T
00 6
pri ority
look up
Ġsub scription
S lice
Zh ang
simu lation
ula tes
classif ication
. ")
Ġ"- //
14 6
? </
ĠT re
, -\
t own
Ġd ash
k r
Pro f
Ġspin or
Read y
V A
ĠM R
M illis
Ġp sych
Ġste ep
Ġdiscre tization
Ref lection
Ġneighbour hood
clo sure
Ġoccup ied
Ġto String
lik elihood
Ġse mic
Vis ibility
y d
Ñ Ī
au g
Ġper man
ĠN ormal
ble ms
amp ling
or ded
$\ {
ĠC ard
Ġamb ient
Ġ æ
mes h
ĠH am
Ġscatter ed
h w
14 2
Ġsub stitution
; ]
Ġdist urb
C ent
h base
Ġcla use
x z
sta gram
Ġdescri ptions
Ġk ick
V S
Ġw rapped
ĠIn du
Ġc le
operator s
N OS
V R
Ġpr ison
ĠSh ort
t re
Ġdate time
Ġdef ects
ĠMed ic
Stack Trace
Ġ} ),
}) /
EV ENT
mat ched
or row
analy tics
mt x
y u
Ġw elcome
mm ode
n am
x sd
} ',
di ble
ext ended
\, (
T ry
r w
h our
Bu cket
Ġinter net
NG TH
Q A
Ġdec ade
i ation
Ġrep ul
. -
b idden
c ers
Ġcontext s
p otent
? (
"> &#
Vari ant
Ġ\ ;\
ĠF ood
Ġoccur ring
match ing
hed ral
s ender
H OR
Ġst ub
Ġth orough
Ġaccep table
Ref resh
ĠM ove
n ic
Ġtrunc ation
ĠEngine ering
ed er
P lot
Ġpar sing
Ġtemp orary
ĠMa the
Ġab use
Ġspe aker
pos sible
Ġbene f
INS ERT
Custom er
EN CE
SER VER
if mmode
Ġcolle ge
care t
N s
\ ":
Ġa apt
C hat
ĠC ell
B g
Sh are
Ġaug mentation
Ġsurv ival
row e
Ġx si
First Name
Ġissu ed
Ġt s
cccc cccc
sub scribe
ĠQ String
n f
, </
hash Code
Ġannoun ce
hel lo
A tt
[-> ]
Ġh air
V D
ne tes
b h
end region
Ġwrite s
erv ation
OB JECT
Ġvic inity
Lin q
pa ces
ĠW estern
}) _
Mod al
pp ers
ĠL ive
[] {\
Ġexp r
Ġsub tle
os a
Ġsuc ceed
="# ">
Ġt um
ost er
h size
}{* }{\
uber netes
ĠW atch
ĠG ib
Vis itor
intro duction
Ġis land
Ġjoint ly
> =
Ġsub sequence
M obile
: /
b ers
Open Tl
aw ay
s mash
si o
Ġma il
sp ark
Ġd ump
Ġacknowled ges
Ġcon fined
s ight
ĠW H
Ġstr ange
Ġ[ {
Ġlo cale
c ub
ĠF i
Ġconvers ation
Des ign
Acknowled gments
Ġformu late
un ion
Ġtrip let
20 8
ĠUn fortunately
A verage
Ġcur l
var sigma
Ġs me
Ġadmin istration
Ex ec
Ġa mazing
S ent
Ġgu y
Ġk id
L and
eck er
Ġparameter ized
ĠR S
Can vas
Ġprov iders
attr s
0 25
Ġfl ush
ta kes
An chor
amer as
Ġcommun ications
dis tributed
re verse
ĠRus sia
par ticular
Ġaccept ance
Ġmin us
Pos ted
13 3
cur l
_+ (
Ġmo vies
Ġun bounded
EX PORT
c M
Ġhost s
Ġfil tration
2 64
gener ation
Ġwork flow
short cut
z il
ĠEn c
ĠIsra el
ĠRec ord
× Ļ
H ard
ur ities
ĠK now
K er
Ġper turbed
nos is
Ġpublic ly
spec ies
Ġa perture
ĠJ im
ĠPa per
ĠJ ob
fra red
aw t
ĠN ull
}= (\
si pa
Ġimp er
22 4
00 7
Ġ/ ></
J y
c g
un its
B en
ams ung
2 80
i per
Ġback grounds
os able
Last Name
ĠS witch
Ġsp anned
** *
}\ }
Ġconclu des
Ġsee med
ex clude
base line
f onts
ĠSch warz
P B
bra ket
Ġclo sing
Ġfeel ing
En tries
ĠĠĠĠ ĉ
n ice
` :
W ell
Ġb attery
lu eto
Ġ( #
ĠP si
STR UCT
lueto oth
Ġdeliver ed
! âĢĿ
] >
Ġp t
'' (
Dest roy
M al
Ġt ube
ĠLand au
er en
Ġpass phrase
ĠInitial ized
Ġcred entials
) &=&
Ġre venue
Rec ently
PA SS
N F
0 15
o ph
ĠConn ection
. [
an cer
Ġh ist
c H
P ic
ĠJ on
ĠHe ad
Ġd at
di an
I so
Ġno tify
valid ator
" ])
pre ceq
Ġquad ra
Ġacqu isition
dest ination
Con sequently
Ġs ensing
ĠC r
S PE
ĠF und
Ġent ering
st udy
c F
ĠA li
back end
Ġh aven
Ġtransfer red
__ .
ad ditional
ĠC ath
mark er
(\ {
ĠE sti
)\ |
Ġphot ograph
Ġguid ance
AP PL
ach el
Ã ¥
ag ers
al ian
Ġcons ensus
ĠLap lace
Ġd om
ĠN ative
ĠCh apter
A zure
T W
ĠF lo
N i
b k
Ġsub algebra
scatter ing
pt on
Ġinf ection
Ġgrate ful
MESS AGE
Ġin ject
Ġfib ers
Ġno ticed
Ġpurch ase
Ġun ivers
Ġdec lared
Ġclassif y
Ġnor ms
Ġnom inal
Ġl ic
ĠY ukawa
ok er
19 77
Ġsub scri
Ġno tions
cat alog
Ġs ed
ĠAss uming
ĠFor mat
DO CK
ch apter
> -
Ġiter ate
Ġm ental
Ġs ounds
umino sities
ĠE C
sh iv
Ġimplement ing
d dots
ĠB ad
M LE
or ters
ĠSp orts
ir ds
Ġd ic
2 11
Ġecc entric
20 4
Ġpol ymer
ĠOb ama
Ġroun ds
Ġstand ing
re mo
analy tic
Data Source
Ġ" +
tan h
ĠD L
ĠH opf
ĠH I
Ġequ iv
ĠT arget
Ġmob ility
c ourse
over ride
o ir
Ġcook ie
Gener ate
Ġlet ting
n able
ĠC ra
ame d
B lob
acknowled gments
Ġdifferent ly
Ġf id
ĠÂ ·
c lou
Ġsta tions
CD ATA
all enge
le ave
ĠO K
Comp letion
tract ing
Ass ign
Ġro uter
new page
ĠR el
e ast
Ġencoura ge
ou d
ga ble
13 9
s ound
Rou ter
MS G
_* (
ipa ted
c ous
ĠSet ting
Ġwe ap
conver ted
Abs olute
\ #
Ġmin ima
l v
u ated
qu al
ĠD raw
Ġgovern ed
pre ad
Ġre new
Ġwe alth
con serv
$ [
Ġb lo
}} ]
Ġco in
graph ic
N ested
ĠS and
Ġ ì
ĠM ET
ut ch
Ġso ph
Par cel
Ġpe ace
Ġmark eting
os cal
External Project
Evalu ation
ĠE W
si e
Ġemer ging
CL I
ĠL R
pe er
Ġattr s
Ġpro mote
ĠF our
Warning s
}\ ]
AB ILITY
Ġslow er
Ġm and
h ill
sta b
has er
IN DEX
ĠT otal
}| $
Ġinst anti
}{ |\
Own Property
Ġtunnel ing
Ġresidu als
B et
ĠIn ternal
Ġmes ons
ĠF P
Ġfun ctors
eps fig
tat ors
un i
eq no
er ts
Ġpro gen
Q C
Oper ations
ĠSet tings
By Name
defin ite
ĠDo es
HO ST
w ould
vi an
Ġmask s
ĠCON FIG
ĠCh rome
ul um
ex periments
ĠĠĠĠĠĠĠĠĠĠĠĠĠĠĠĠĠĠĠĠĠĠĠĠĠĠĠĠĠĠĠĠ ĠĠĠĠĠĠĠĠĠĠ
Ġheur istic
ĠV i
ĠF W
Ġfacili tate
at ers
ĠAl low
it ro
ow ed
ĠStra te
ĠP rivacy
Ġbas ically
} "/>
Ġt ro
% .
C amp
Ġde code
Ð¾Ð ´
Q Q
ĠM inkowski
Ġdou bt
in son
c O
Ñ ħ
ĠD CHECK
Ġvisual ization
em ission
f li
}) _{\
min im
Ġflexi bility
dot sc
SD K
ãģ ®
App lying
eff ects
Ù Ī
app s
Ġc ultural
Ġretrie val
mcite default
ĠF all
spect ra
ĠTh ose
Ġcre ative
Dec oder
j ump
the ast
al o
log ic
Ġre po
J s
Ġhelp ing
ĠCon struct
ĠJapan ese
ec ycle
col og
Ġelse where
Sh arp
FT WARE
> )</
Ġpar k
Ġ( -\
hy dro
M g
olog raph
ar ab
}_{ +
Ġan imals
ĠR ange
* .
ĠSt udies
Ġon set
ĠAr ts
ĠF la
13 8
def i
ring tone
ĠL STM
stru ctive
Ġ ^{-
out ube
$ }.
ĠD er
riter ion
Ø ª
Ġ\ }$.
Ġbra ckets
ti ous
ĠVir gin
She et
b ranes
cr umb
Ġf ly
ĠMe asure
t cp
ĠT EST
Ġvis ited
di am
custom er
ear n
Ġmis s
ĠRo yal
" </
& \\
M IT
0 100
be hav
o pp
H er
j l
ion e
Pro c
s chedule
ran ged
parent Node
set Attribute
lation Token
od ers
ĠMem ory
si x
FR AME
Any Ref
å Ľ
Ġfa int
Ġcollection s
re duced
C AP
H F
Ġt argeted
Ġmore over
Ġsub strate
\ >
c amel
alax ies
append Child
ĠP aris
pro jection
Ġdes irable
Ġt rouble
Ġviol ence
Ġhealth y
over y
ce ived
Ġcoun table
on to
ĠL S
Ġsimultane ous
Ġf lip
Ġf le
pay ment
v t
2 32
ĠC I
mem Item
../../ ../
el lip
ferm ion
Ġmemb rane
Ġdiffic ulties
Ġcar ries
Ġm im
f ine
ĠResp ond
ĠE D
si ded
Ġcontinu ation
rowe ak
Ġreg ret
LO B
re land
Ġlogarith m
Ġg a
Ġ' ')
vi o
dim en
V s
ĠN L
Ġne ga
Ġcomp ressed
)) =\
Ġrender ed
render er
Ġas king
per mission
Ġimp lying
normal size
)/ (
PT ION
Ġtriv ially
Ġis t
Ðµ ÑĢ
() ]
Ġad vent
w ere
Ġshock s
Prov ince
ĠA la
ular ity
/** */
corre lated
s lo
Ġtri es
to LowerCase
rom o
{( -
Ġcomp la
Ġmur der
Ġj ourney
ĠK im
ĠR R
Graph ics
Ġjud ge
ĠF ast
Ġim mer
ĠCon ference
Ġformula e
ĠVer ify
un a
Ġmer ged
Ġhosp it
he alth
Ġrecogn ize
Ġwatch ing
Ġcounter parts
Ġdis trict
ĠCon tact
4 000
ynchron ous
ĠM iss
N ING
19 5
Ġbelie f
}$ }\
ĠM en
ĠG ET
ĠN C
:: $
* >(
ĠG ames
Ġhigh lighted
})- (\
Ġ& $\
00 000
' ):
- )
Ġli ber
ĠGe org
ĠBol tzmann
Ġclassif iers
Ġpla u
Ġcontamin ation
P in
Re gex
Ġthresh olds
C ookie
Ġb g
Ġr s
Ġaddition ally
Ġgran ted
PRO C
Ġk wargs
S ci
å ¯
ĠD ictionary
SET TING
C odes
Conn ector
Ñ İ
ĠV AR
Reg istration
O h
ang el
ĠE li
writ ing
Ġb ol
ocia tive
Ġtra pped
Ġop ens
Ġsched uling
enti ment
F ROM
24 5
Ġh usband
Ġc c
Ġmacro scopic
ta ken
ex perimental
Ġoper ated
ĠC up
product s
Rep ly
ĠĠĠĠĠĠĠĠ čĊ
th us
Ġinc lination
ĠL inear
numer ical
bad ge
id o
Ġmembers hip
be zier
........ ........
ong s
d ynamical
c les
sub scription
Ġev olved
n umbers
ĠG ro
row se
T s
f lo
S al
hal o
v n
Ad ditional
Î ·
Ġwal ks
Sta t
$ |
RO W
On line
han ded
end ant
App ear
ak ed
Im g
ĠIn te
Ġdomin ate
consist ency
ĠU l
B ranch
dor ff
mid t
' |
asp ect
Ġmanus cript
work er
>: ]<
ĠTheore ms
Ġt iny
ï ¿
22 2
}\ !\
00 8
to Equal
Ġenc rypted
B on
ĠG rand
EN C
Den ote
{ }^
Ġm ild
CH AN
ff ee
Ġattack er
bal anced
enta tives
Res earch
Ch apter
Ġph ilo
par ity
um ented
int on
Ġpl anned
Ġdiag nostic
f box
ĠAc ademy
temp lates
Ġmer ging
ion ization
\| _\
ress ing
U K
Ġsub mitted
j us
deriv ative
N il
ĠR ule
}} },
aut y
is sue
Sec onds
//////////////////////////////// ////////////////////////////////
reg istry
who se
tex tarea
parame tric
am big
ĠP ac
sk a
weight s
Ġentang led
Ġball s
H amiltonian
j b
Ġiden tically
Ġcri me
Ġexhi b
Qu estion
ĠM pc
il st
Ġcom mitted
run ner
ExternalProject Path
Back up
Ġup grade
temp t
O s
Ġgeome tries
linked ExternalProjectPath
ĠPh ase
esti mated
) &=\
L ab
Dis tribution
}- {\
t ang
ĠHo sp
depend s
Ġbi ological
ĠA U
Ġlead ership
ag greg
13 1
tab End
Ġbo y
Ġ' $
V el
rr rr
con ditional
ĠJ eff
ĠPh ot
Ġindu strial
N M
ĠL ock
au er
Com mun
ĠCat alog
ĠI sing
ro b
ro d
ĠD ie
Ġre fined
Ġfre ely
Ġconf usion
** :
Ġbif urc
ad just
Al ign
20 3
Ġnormal ize
ĠM aster
Ġphilo so
}[ (
NE W
ren e
Allow ed
16 6
en table
size of
el ly
forma tive
Â °
Ġoff line
Ġretrie ved
ver tices
Event Args
Ġinst allation
Ġp lug
nipp et
}{ @{}
Ġcar rier
0000 000
chro tron
Ġn ic
=" //
ĠH ub
co herent
ĠC ache
s outh
ĠFed eral
roun ded
rep ly
Are Equal
tt en
bor n
ting ale
q s
20 5
20 2
omes tic
it an
oot strap
15 7
ĠE vents
De fined
Over lay
ĠIN TO
$. \
Ġaccording ly
g overn
ĠC red
o y
( []
)\ }$
ans wer
Ġen for
Ġgradu ally
R ay
tis tic
Pa int
SU B
' )}
ĠS S
post s
oxy gen
R IGHT
Ġbi ased
ĠV alley
Dest ination
al d
Ġin complete
iz ard
pre view
V IEW
[ -\
ĠL im
Ġdist ant
Ġh ab
descri bed
i u
c ached
BUIL D
Ġreal izations
de faults
Ġexpansion s
] -->
col ors
ĠK en
end o
_ +\
Ġcommu te
ĠSto kes
Ġ/ \
Ġb lank
ĠSc ott
p unct
Ġdecomp osed
19 78
Ġs erving
Ġinter ests
NotFound Exception
ex periment
ĠTransition al
ici ans
Ġoverla pping
Ġpredic ting
cell s
Ġacc ordance
Ġirre levant
Ġ ut
Ġf at
Ġc ascade
User name
APPL ICATION
Ġte x
,\,\ ,\,\
res sible
Ġsh ut
ur ies
$ },
ĠĠĠĠĠĠĠĠĠĠĠĠĠĠĠĠĠĠĠĠĠĠĠĠĠĠĠĠĠĠĠĠ ĠĠĠĠĠĠĠĠĠĠĠĠ
Ġmain tained
AT URE
ne ed
Su ite
Des pite
j obs
Ġan onymous
ir k
ĉĉĉĉĉ Ċ
MA KE
/ #
ĠN um
s ap
Ġcirc uits
Ġgener ative
ĠSt orage
ĠB la
ru gs
x c
Ġ/ .
Ġpas sive
cur ves
Ġcross over
Ġt y
Ġencounter ed
$. \\
ĠM ike
+ (\
ĠH z
ĠG O
String s
ĠS USY
Ġvalu ed
Ġgeometr ical
m ier
ĠĠĠĠĠĠĠĠĠĠĠĠĠĠĠĠĠĠĠĠĠĠĠĠĠĠĠĠĠĠĠĠ ĠĠĠĠĠĠĠĠĠĠĠĠĠĠĠĠĠĠĠĠĠĠĠ
ÑĢ Ð°Ð
Ġinclu sive
Sign al
ĠT F
command s
re duction
j it
Ġ< \
H W
ĠG T
le ad
^* $-
load s
S ys
Ġra m
Ġconcent rated
Ġaug mented
Ġsuperi or
/ {\
k ine
Ġsum mand
C laim
Ġachie ving
ol is
Ġ{ })
Ġinvestig ations
ĠT our
ĠG auss
mon itor
alk er
Ġbuilding s
o tes
\, ,\
")) );
c id
co herence
Ġcol l
l ists
Rec orded
ces sion
Ġidentif ies
Ġs cripts
fa ir
Ġmultip lier
ĠH H
u f
de veloper
ĠP AR
Ġfav our
Ġre semble
hi er
ĠA UT
Ġqu ote
co h
Ġlabor atory
ĠS elf
Ġma ppings
tr um
Ġun supervised
Max imum
Status Code
In cre
su it
Ġinstr uments
ĠV alues
Ã§ Ã£o
Ġsen ior
average d
bes gue
Ġinj ected
op enc
ĠE P
Ġp lastic
h yp
ĠEx ecu
x f
ĠIn d
s olutions
ĠTh anks
LE NGTH
oh en
M Hz
ĠH on
ap unov
MA IN
ĠL inux
vi ve
e o
in et
B ERT
)$ \
Ġunder go
Ġide als
3 30
ĠD a
re dsh
23 5
ï¿ ½
tic ity
Ġapparent ly
tr unc
Ġspecify ing
Ġdecre ased
. ');
Ġ ../
sl f
ĠO TH
de li
ĠC HE
Ġ" ./
Th reshold
Ġhous ing
R D
E O
ĠD NS
19 76
ction al
Ġch aotic
ĠS ave
Ġre gex
ann a
Ġelectr ical
ĠS top
---- ---
+\ !
Ar row
off s
ide al
c raft
ou lder
=" <?
ĠL arge
23 4
)] \
ĠAnge les
ĠH ad
List eners
ili pp
Ġor acle
FUN CTION
Ġl t
s leep
y ellow
Ġcomp iled
Sta tistics
Ġdetect ing
// ----------------------------------------------------------------
bf series
]{ $\
imp ro
Ġhydro dynamic
Dependency Injection
ĠD ATA
Red uce
Ġcircum stances
M ASK
cur r
P TED
prov ide
Ġanten na
Ġs ale
ĠLou is
c amp
r ides
v id
Ġhar der
w r
Ġ- (
Ġexc iting
Ġg enu
K EN
ĠDe vice
om o
(" -
Ġoper ational
& $\
strate gy
Ġbre ath
ind rical
align ment
Ġproton s
pres erving
ĠO UT
ĠN ASA
Ġpres cription
equiv ariant
Author ization
ex ecu
a os
se x
H orizontal
vi tation
ter mine
th le
B LOCK
Ġf idelity
Ġremain ed
to grams
reat er
Be havior
ĠQu antum
Back end
4 80
conf irmed
ĠOb serve
}' \
M ich
Pri mitive
g f
Ġabs ent
if rame
Ġsugges tions
ĠP anel
Ġcarry ing
^{ '
Ġrob ots
mi um
Cred entials
pre tty
ĠTr igger
FLA GS
Pres ent
Ġch ief
ici an
Ġ(! (
ĠOper ation
Ġsh aded
Ġsubtra ction
rint f
Ġ utter
In line
qu anti
aus dorff
0 12
Ġde partment
Ġmin ing
)} )$
bul k
Ù ĩ
) &\
umin ate
mp ed
ĠM id
Ġs now
end a
Al g
function al
Ġc aught
F ast
\ (
b z
ma trices
) }}{\
Ġsuscep tibility
al one
æĺ ¯
kn ow
Ġextrem al
}\ }_{
Ġag ency
ĠS ar
k ers
Ġemer gency
18 5
Ġla b
Ġro tations
ERT Y
Ġmat ters
ĠA F
Ã© s
ch et
ac r
Ġregion al
Ġresid ue
ĠInter face
Debug ger
Cho ice
to kens
Ġfif th
Ġacceler ated
ĠA WS
Ġla s
s pher
Ġcap tion
w ick
sc opes
ä¸ Ń
ĠA sia
Ġrandom ized
hel pers
LE VEL
yc lic
sup set
c oc
Co ins
\ }^
ĠClo se
read crumb
Ġra il
ec ell
Ġsol iton
ĠRec ently
tif ies
2 15
] -
C he
be en
ĠK illing
Ġpe ers
ĠSpr ing
Ġab stra
CON F
Ġ- &
Imple mentation
c ies
Ġcor pus
al ong
it ten
ĠSym fony
ang les
ti re
iv ot
Li u
P W
op ens
> ');
stro ke
N UM
inu ous
Ġ urban
az z
Ġrecur sion
Rece ive
Ġener ge
r df
ĠT E
decomp osition
M X
ĠJ es
comp atible
Ġfla re
fail ure
g res
c rypto
Ġes cap
pro t
)} -\
exp onential
0 30
}) )$
ian o
App Compat
* >
ĠM W
ĠRe lease
aw n
Ġauthor ity
x b
Ġfe at
} &=
ble s
bu ffers
Ġkine matics
Tw ig
Å ¾
ĠMark et
ĠMajor ana
loc ations
ĠPer formance
Initial ize
Rece iver
E t
ĠSt udy
Ġhon est
ĠSet up
se ll
ĠA ust
A CTION
dete ct
19 74
ur ious
Ġ& +
C ov
Ġm ort
Sub scription
Indic ator
ĠM ari
Ġdimension ality
ow l
Ġutil s
Ġl uminosities
re cor
Un til
K w
til lation
pp ler
ĠA rab
Ġfra gments
L uc
P K
Ġd ates
ĠIt aly
' =\
T im
Ġmain taining
T ilde
p at
Ġd jango
ber ts
Ġima gine
E u
Ġ. /
ĠPol ice
ud ge
se g
ĠY et
Ġtele vision
cal ls
Ġweek end
m ount
DOCK ED
ik es
local s
Ġspher es
Ġemplo ying
s napshot
38 4
ĠMax well
ch anging
og ni
We ek
] &
------------ -
Ġval ence
Ġqu iet
Ġ" [
Ġre current
il ly
P an
version s
y si
MS earch
ĠGener ate
Ġst roke
as er
N ay
temp oral
ĠU SE
incre asing
Ġmag ic
ov ld
Ġ&= &\
Ġ' ../
dete ction
0 11
Ġen em
row ave
ĠV ictor
ĠRes ources
S n
Ġsw ap
mak ecell
Ġun ified
F IN
x ilinx
Ġwin ds
) ?
ĠCan adian
~ ,
on line
Ġex terior
tif ying
Ġconsum ers
al ways
ĠM ont
ĠF low
o ft
Ex cel
j p
Ġhom es
| (
be th
a gain
un iversal
ĠSec tions
Cat alog
Ġepis odes
ocab ul
Ġback end
PREF IX
Ġt ar
ma de
Ġmorph ology
B LE
si zed
Ġan imal
Ġbeh ave
S an
Ġt ub
}, \,
Ġor bif
mu la
bit coin
general ized
nit ude
Ġm k
}\| _
Ġcommu tes
Ġdeploy ed
ma tical
Ġe labor
ãĥ ¼
ĠExt ension
Ġsuff ix
ex change
c P
ĠF estival
}) (\
mathb in
H ide
R P
ĠT D
($ _
ĠSO FTWARE
S at
j ournals
Ġcomp ares
ost on
Qu an
ĠCorpor ation
Ġhash Code
he at
ĠT urn
m kern
sub script
19 6
16 7
ĠF inal
DE LETE
CON NE
Ġde als
Ġrela ting
| .
LI B
Ġbring ing
ĠWilli ams
T oggle
DI RECT
Ġdec laration
Ð¸ ÑĤ
H int
In ject
Vari ables
Ġll vm
ĠM T
Key word
Ġle gacy
Î »
Ġf riction
LIN K
st derr
He ap
Ġconstruction s
ess ment
}( (
TE S
cover age
ad v
tab len
for ge
ĠName ly
ac ion
Ġincorpor ated
; =
S td
interpre t
date picker
ĠAcc ount
Ġ( <
A ug
uzz y
Ġadv oc
40 1
We ak
S NR
ĠL ittle
17 6
SE C
F ar
Ġ" ")
Par ts
Ġemission s
Un able
Ġlear ns
ĠSp anish
ĠRequ ired
^^ ^^
AR K
o di
TR A
sh aped
thread s
Ġsoph istic
Ġtrans lated
ĠCh em
<? >
Ġdestroy ed
Ġra in
Ġent ers
as set
}^{ *}
Ġpers istent
Meta Data
b ard
Ġco ast
ex c
R ich
En g
Le f
Ġprogram me
Ġexplan ations
Ġind ent
V P
ĠB iden
Ġorbit als
Ġrelax ed
ĠM N
M id
c am
Ġn ur
Ġden ominator
Ġtra ding
ĠC li
rac le
up iter
ĠAmeric ans
Ġf ellow
ĠTrans action
bar s
M iddle
ad or
Ġde formations
ĠUn like
U sed
c z
Ġreason ably
Ġtun ed
Sta tes
el li
ĠRe pres
Ġ$< $
ĠSen ate
Ġver sa
G uid
Ġmon oton
Ass ignment
G UI
ĠG AN
Con stitu
k le
ĠCon tainer
arab ic
Ġc oc
Ġsucces sive
Ġop tically
in ser
der ived
TH E
Ġo d
ä¸ Ģ
Id entif
Requ ests
Ġown ed
ĠM achine
p ick
AT T
Ġsuper gravity
Ġabsor bed
O H
ent ang
on o
ĠM et
extra ct
si zing
Ġla g
su c
Ġmer gers
ĠC ast
Pa ired
14 8
ou g
om m
ĠD ocker
: $
Ġs quee
back s
Ġreli ability
anc ies
ffff ff
h op
LE D
ĠF C
> ';
Ġf rust
~~~~~~~~ ~~~~~~~~
Ġs igma
ĠV M
lo s
Ġdete ctions
Ġjo ining
Ġc yl
ACCE PTED
Ġs lide
Ġd il
Man if
get Key
ĠI SM
ĠN i
I ss
Ġimp urity
ch ester
Ġint uition
ĠNat ural
Ġconj unction
Ġobj ectives
ĠAt lan
window s
u tion
+ |\
n oc
ST EM
ĠBit coin
ur is
Ġcomp ilation
wall paper
Ġwill ing
Ġcalc ulus
ĠB rowser
P ACK
Sh ift
Ġse mis
ĠConst ant
o ol
, {
K P
c ot
/ '
af ka
Draw able
ĠS TR
Ġra ting
ac l
Ġp index
ĠHe isenberg
F ollow
ĠF ixed
Ġkey word
Ġpers ons
hed ron
amplit ude
* [
rom an
In stead
Re vision
sta tistics
ime ter
ni k
****** /
Ġlo ved
CO M
ph inx
lit eral
u tational
ra ce
19 75
/ (\
32 1
Ġd ry
oc used
bu la
ĠF loat
å ¼
ĠH A
Ġhead s
Ġrecommend ation
es sibility
ĠU P
ĠFe ynman
Ġatt end
Ġh ack
ermal ink
Ġconduct ance
Ġdwar fs
h m
-> {
Ġplanet ary
Ġfall ing
ĠDan iel
" +
sw er
)} ;
rep orts
DE P
.&.& .&.&
ĠVis ual
V IS
ĠMay be
Cho ose
rotate box
Ġrela tes
TE GER
Ġgu ys
Ġpass age
Ġst ops
p orts
Ġex emp
lock ed
te p
T ARGET
ah n
Ġinsp ection
ĠR C
] )$
ĠIn tegra
reng then
Ġknow ing
ĠTh row
pro ton
Ġ' </
Ġport folio
Ġtheore tically
con ven
Ġc ameras
Ġre mn
b la
s lot
m ond
ĠT oday
S us
remove Class
[ $\
Ġadvers ary
Ġp tr
Ġfair ness
f req
R ic
ĠT ests
,- .
Hy per
igh th
ĠMex ico
f lip
M AC
ĠA udio
AME TER
Ġna ive
ĠT X
RET URN
as ymp
er ver
Ġauto mated
ir t
unc er
de m
ĠP hi
å º
Ġin surance
15 8
Sw ift
Ġexplo sion
ST RE
Mod ules
f h
lu c
Error Code
ĠPh oto
us sian
}/ {
s ay
ĠF isher
ĠS tyle
Ġcontrib uting
Ġparametr ization
Ġc lic
imp licit
Ġconclu ded
14 1
ev in
ĠPol i
ĠI reland
Ġ( @
ph ony
umin ous
limin f
/ [
ĠCon structor
Ġfix es
Ġmultip lied
Ġ ĉĉ
Ġimpact s
, [
ĠP lace
Ġo u
pre vent
Ġa ster
Ġ\| _
Ġlemma s
Ġprox imity
}) \,
E W
Ġp ec
ĠC FT
Ġpiece wise
Ġinfinite simal
sh rink
A pis
L ive
Ġfrequ ent
nav Bar
Ġarg v
Ġconf inement
n om
ps line
ĠP la
Ġen abling
M pc
F ake
] }(
Ġh i
Ġdevelop ments
o led
Ġe dition
Ġac ademic
â Ķ
Ġtoler ance
ul f
Ġp ictures
Ġid s
Ġspont aneous
MA G
pseud o
get Text
ud ents
ĠDe fin
ĠSyn tax
)] $
Ġon click
ysh ift
h uman
Ġ($ (
Ġmis sed
Ġ) :
la tex
Ġens uring
Ð¾Ð ¼
S tyles
ĠM icro
;\;\ ;
log ical
Ġsuper position
] ^-
CON ST
Ġinstant aneous
ann on
Sub ject
pos al
Con struct
Input s
en ium
ap or
the mes
Ġbuil ds
c ision
ĠC over
Ġher self
Spec ifically
ump tions
sur vey
H ex
Ġs ister
ĠIN T
Through out
F ire
---- -
15 1
Ġsc ratch
ĠJacob ian
ĠA LL
Ġplan ts
dist ingu
en sitive
Ġc u
Ġsyste matically
Ã ±
alth ough
play back
Ġ\ `
car ousel
Lef trightarrow
val s
Link ed
Ġw ra
Ġany where
- {
ĠIt alian
ĠĠĠĠĠĠĠĠĠĠĠĠ ĠĠĊ
add EventListener
Ã ł
cal es
Rec ent
Ġoffic er
ĠP T
p v
ĠAd ded
ens en
Ġwal king
& +\
Ġemp has
fla sh
ĠD ifferent
Ġn arra
ĠN A
ĠMin istry
ierarch y
T ip
Ġc ros
divid ually
ict ory
File System
Ġprefer ences
Ġarrange ment
Ġachie vable
Ġin tr
CC CC
TO DO
Ġhar m
æ ī
\/ }
Ġd ia
Re try
ç ½
tab colsep
ĠH om
19 73
15 00
m ysql
ly mp
sec ure
ĠB L
ĠWith in
ĠChar acter
d S
Ä į
Ġrespon sibility
c ould
å Į
Ġdeb ate
}}$ -
R N
ot ype
clu sters
}| ^{
Ġrela tivity
Ġcell ular
in struction
chem ical
is te
acc uracy
Ġindu ctive
Ġacc ounting
cor ner
Ġbi ases
ĠFro benius
Tra ining
Ġinnov ation
e ither
itz er
Ġcar ds
Ġho pping
numer ic
Sh ell
iner gi
p et
Ġan tis
ĠSu ccess
h asi
Browser Detector
Ġextra po
ll l
Ġd rivers
Equal To
or b
Ġtemp or
ĠW ang
F H
Y ea
ĠBu ilding
U Int
u sive
Ġcall er
ĠIn tel
Ġsex ual
ĠT al
19 60
ĠS everal
Ġown ers
Ð¾ ÑĤ
Ġguide lines
d os
Ġ" --
se ver
c py
scal ed
ĠKe ep
tech n
Ġback up
y aml
0 22
Cal led
PR L
Ġreview ed
Ġre try
cal ibra
ĉĉĉĉĉĉĉĉ ĉĉĉĉ
press ure
y ang
Ġrig orous
Ġspeed s
Ġelect roweak
ĠTele scope
Ġsub stituting
Ġparad igm
yn olds
Ġc ru
lu sion
Ġhighlight s
l arger
rom os
oun ger
Ġinte lligence
< -
x ref
Log ging
observ ation
Ġmar ried
Ġlock ed
dimension s
h it
R outing
i ration
Ġaltern ating
b io
Ġc ss
s al
in sp
ĠC ulture
P haser
reg ions
x l
big wedge
se man
ĠT y
u j
er ry
Ġ} }\
ĠIP v
NOS CRIPT
Ġse g
Ġco ach
Ġarriv ed
ĠProf essor
H ASH
L im
ĠL ocation
ĠU AV
Ġs lices
C lip
Ġvilla ge
f lank
ĠOTH ER
ĠH R
= ~
Ġlo gs
var nothing
Ġcoun ty
Ġti ssue
UP DATE
Ġheter ogeneous
Ġpropag ating
2 12
E mbed
Ġsymme tr
ĠKing dom
Ġcontradic ts
min or
Ġ\ [\
Ġ$ >
}$ \,
Ġcont in
uck y
un ic
ĠH odge
vec tive
Ġlabel ing
i tage
Ġlo ts
L B
Gate way
Ġaver ages
[ _
es sible
ryst al
19 3
Ġappropri ately
Ġis ometry
q t
}) }$
Ġmulti variate
ĠPh il
Coun try
Ġc ash
ĠApp lying
NAME SPACE
n P
ĠB ERT
Constitu ency
Ġh older
) ^{(
ĠC WE
Ġac id
Co ord
feed back
div ision
C ri
Ġs el
align at
Ġk ing
Ġdelay ed
} `
Ġa ircraft
ro gate
Ġlo ader
ĠDis play
coordin ates
}( [
">( </
15 6
Ġexplor ing
}{! }{
Ġphenomen ological
Ro tation
G I
Ġf ruit
An n
d an
grad ation
| |\
ro se
ĠL ang
Ġquo ted
B ur
Ġarch ive
ĠChar les
Ġappro ved
Py thon
port folio
W ave
Recorded Vote
ĠD P
ex ceptions
Ġinter active
Ġjump s
Ġ ))
ĠD al
Dis abled
Ġcons ult
Ġmu tation
Ġris ks
at op
Ġup coming
Ġh olograph
or ov
ment al
$ "
g mail
Ġcri minal
ech an
Ġsee king
15 4
ĠPro tocol
^- (
Ġfun ded
Ġnone mpty
ĠI gn
Analy tics
navBar Cell
Ġcross es
Ġcon form
ĠB log
ĠS em
Ġvis cous
ĠTemp late
ĠW ait
A Y
ĠG B
ĠSt an
Ver tical
ĠJ ustice
o e
Ġanno tated
ĠFil m
Ġre vision
hi bernate
Ġpoint wise
f ee
ma pper
30 1
Ġis omorphisms
ula tory
H idden
19 8
Ġacqu ire
cc i
ENT ER
Ġsp ort
k b
ext ends
Americ an
asi bility
k ra
Ġch amber
Ġ) ^
Exp and
re vision
Ad ded
+ -
2 16
Ġsymp t
Ġoptim ality
Ġbl ur
O W
y i
ĠB utton
Ġbro ader
X S
IS O
ĠEle ctr
Ġp ad
ĠM enu
18 7
Ġindex es
Ġdiv iding
Dispatch er
ĠVAL UES
ĠS cript
vi olet
ar o
pol ymer
c ube
ĠA zure
gre gated
is tically
Ġh em
Ġl ived
ĠI MP
Ġcol ours
Cla use
di ver
Ġpay ments
P ermalink
Ġmut ually
Ġre tail
Ġpoli tics
ani mate
ĠGener ic
ĠP latform
Ġmon oidal
sh ips
ĠHel p
ĠChild ren
Th an
Ġmi tig
Ġin her
Ġgrow n
A ctor
serial ize
C y
ĠComp ton
e ah
' )$.
}\ }$.
Ġcitiz ens
ĠH ost
In clude
(" ,
{ ,
17 2
{$ {\
ĠD ra
12 34
ĠLe besgue
Ġ )}
Ġcontribu ted
ber ger
He ading
li a
RO P
peri ence
Cur ve
ly wood
Ġsession s
ta sy
C U
p z
Ġdis sipa
Ġe at
Plan ck
Ġdis app
sta bilities
G LE
w avelength
Ġsaf ely
Th anks
Ġmilli ons
Ġartifact s
end ers
Ġex haus
Ġev olving
Ġz ip
Ġre m
ĠM ust
al and
Ch ris
Ġcur ved
ĠPol y
Ġcon gru
sub str
ĠRou te
ĠW ik
), $$
"/ ></
)= {\
super script
F ront
ĠIn cre
lear n
mor dial
ĠGR B
ogni tive
Ġcut ting
ĠN ight
W T
S ources
lo ose
eman tic
En code
Ġti ck
type param
Le g
Per missions
hl js
ĠM ach
| >
)] (
ĠS ER
ĠTh ird
Ġrepro duced
ĠH art
Ġfaith ful
FLO AT
ĠS olar
17 7
( @"
âĢĻ ,
× ª
ĠSo bolev
Ġlept ons
Ġv essel
ct l
ĠK n
Ġb one
oding er
Ġth r
Ġp unct
Ġpick ed
u z
Ġco vari
}+ (
car bon
Tag Name
ĠJ ackson
ĠS up
\! -\!
K D
std out
\ })
Ġb unch
ir ically
ĠLeg end
L ee
Ġingre dients
Ġb ot
ĠSe ason
screens aver
Ġsec re
Ġclar ity
Ġg irls
}+ {\
W IT
str onomy
sh ire
vary ing
H aving
show s
"> Â
pie ce
' }),
Ġ$ ("#
iv ari
ĠS Y
C apa
Ġcal endar
Ġazimuth al
7 50
ĠA ri
ÐµÐ½ Ð¸
In te
â Ĥ¬
ĠP SF
15 9
Ass uming
m ob
lic t
Ġtrans lations
Ġax ion
class v
Ġdecomp ose
b urn
Ġdep ic
Ġ ÑĤ
Ġs av
ĠD onald
S IGN
Comp leted
Ġpropag ate
Ġnil potent
P ages
---- --
ĠĠĠĠĠĠĠĠĠĠĠĠĠĠĠĠĠĠĠĠĠĠĠĠĠĠĠĠĠĠĠĠĠĠĠĠĠĠĠĠĠĠĠĠĠĠĠĠĠĠĠĠĠĠĠĠĠĠĠĠĠĠĠĠ ĠĠĠĠĠĠĠĠĠĠĠĠĠĠĠĠĠĠĠĠĠĠĠĠĠĠĠĠĠĠĠĠĠĠĠĠĠĠĠĠĠĠĠĠĠĠĠĠĠĠĠĠĠĠĠĠĠĠĠĠĠĠĠĠ
ĠTh ough
D ump
å °
Ġs ty
ĠE m
Ġlist eners
sg n
Ġle ver
h ub
ĠP osition
0 50
Col lector
I MAGE
den sed
Filter s
Ġfib re
2 33
w u
Ġ _\
Ġh otel
ren ces
Thread ing
g am
ĠSt ory
Ġpoly gon
Ġmus ical
ĠC IFAR
Ġconjug ation
Ġin stitutions
Ġemp hasi
P reference
Ġlinear ized
T ITLE
Write Line
Ġvor tices
ĠCov id
L earning
Ġpi pe
y le
ĠM Hz
Ġbehav es
Ġs erv
ĠValue Error
gra mming
Ġstart up
acc eler
Ge o
tili zation
Ġdanger ous
Ġla ugh
> /
Predic ate
Ġass ist
Ġass istance
exp ec
ĠW all
s aved
Block Index
manif olds
ĠC oll
Ġal i
ĠN umer
LE N
Ġcrow d
Ġcontro lling
ocabul ary
es sian
Ġshe aves
Sim ulation
| ^{-
Ġb onds
15 3
ĠA wards
diff usion
Ġsophistic ated
Ġch ip
36 5
ĠSch olar
ĠL td
. âĢĻ
st mt
Ġ um
ou lli
od b
ĠF oot
Ñ Ħ
ĠB ody
T B
E instein
[ ],
c L
w ich
Ġc up
ĠT S
inter acting
Ġfeel s
D ER
od rom
ĠR en
Ġto ggle
Ġreg istry
box times
Ġfit ness
ĠA rc
ĠP layer
Supp lier
Ġsynchron ization
Ġ\ >
ĠMy r
ĠCon ver
Ġstrug gle
Appear ance
c apa
Ġsur gery
Ġcomb ines
Ġe g
ĠObserv atory
Command s
Ġdis p
Res p
Loc ator
ĠL uc
pro files
=" ./
Sub mit
Ġcryst als
ch est
ĠS ho
Ġch at
Ġcomp ound
}^* \
follow s
}}\ ,\
az el
W il
M icro
( <
Comp ute
Ġcontact s
O IN
ĠB io
Ġtra il
ĠP erson
Ġproceed s
Ġconstit ute
S printf
ĠMedic ine
le ases
P unct
ĠB ul
so ck
Read Only
S FR
t odo
DO WN
ta king
appro ach
D K
Ġinser tion
Ġyou th
Ġan cient
Ġgeodes ics
ti se
ival ent
ĠF air
hi o
oper ations
Ġfra gmentation
P ad
Ġ# #
Ġexecu tive
observ ations
Ġsub stitute
ma ker
Ġ(! $
Ġdist inction
qu ick
16 4
ir ms
c apacity
ra ts
ĠÐ ·
Ġin homogeneous
b at
ph on
ĠAdmin istration
Ġshow er
Ġoccup ation
dec oder
Clo sed
ĠG re
' _\
Ġto ugh
Ġconj u
Ġwe ar
ĠL ord
b ank
ĠNetwork s
D up
star ting
ac ted
Ġd Ã©
}} )$.
ĠCHE CK
^- _
Ġpec uli
Ar r
Ġrecommend ations
fli x
Serial izable
Ġparametr ized
Ġm ess
str ut
I BU
par sed
Ġcoup les
T urn
}_{ [
s and
For ward
Ġconcent rations
[ ];
n io
ĠP E
20 9
Ġprodu cer
ret val
0 13
Ġint ense
CL U
x u
ĠT ensor
gra ined
å Ģ
or ry
small er
get Default
sur faces
IF Y
Fil ename
å® ļ
17 1
r ise
get Property
Ġr u
cep ted
Ġbro ther
28 8
IL TER
quo ted
Ġs eq
Ġc fg
ĠArm y
Ġobe y
Rad io
C tx
ĠU TC
order s
Ġco dimension
ĠV ar
ĠF re
19 7
ĠCh ief
Ð¾ ÑĢ
Ð¾Ð ±
19 4
domin ated
Ma jor
Ġgra de
Ġdiffe omorphism
/ %
reat ment
Ġin dividually
parame tr
Ġimportant ly
ĠS till
ĠS K
mu lation
Ġs ap
co ins
th al
De faults
'' \
T OP
Ġs outhern
h f
ĠF E
cal ling
xi ma
Ġg ro
Ġtermin ology
(" <
Ġinfluence d
Ġde ferred
Ġvol unte
17 8
aren cy
Ġbenchmark s
Ġpo oling
Ġcatalog ue
all ing
Ne gative
pub lished
c S
field set
ic an
m ime
Ġpropos als
Ġs f
Ġlo ose
ck ed
Ġqu iver
oper ating
du ality
comp uted
IC K
om ent
ĠD rag
ĠDiv ision
Ġexp ects
Ġevalu ations
syn tax
H V
E lem
Suppress Warnings
ĠO ri
Exp licit
tru ction
s lug
ic z
Con figure
ĠEn able
esti mates
Ġop am
r in
Ex act
supp orts
ĠIo T
Ġdeath s
pers istence
TEXT URE
v x
le igh
ec on
Ex periments
C os
n h
il arities
Ġdata bases
Ġadequ ate
Ġhyper surface
ta p
ĠK err
Ġcalibra ted
s low
Multi p
Ext ended
redsh ift
R B
N GC
Ġinj ury
ĠCan cel
Ġteach ing
Un mar
Ġme ets
Ġfunction als
Ġsyn chrotron
ĠA ST
p w
, ~\
16 2
Ġblock ing
Ġd B
Ġcon current
18 8
mon ot
n ested
ĠN othing
C apacity
mo lec
copy right
3 80
decre asing
Ġtor que
g d
L G
Ġjus tice
th ew
Ġt on
Ġcon duction
ĠI mages
Ġoff sets
Intern ational
}\, {\
Ġth erm
}' (
L ife
| )
L ap
r q
, +\
ĠA pi
In ser
ey ond
Ġrepeated ly
M ills
="../../../../ ../../../../
Ġfi bration
r vm
um ar
Ġneur on
Ro om
ĠI ran
Ġdecay ing
IC S
Ġframework s
Ġgene tic
Q UE
Ġde formed
3 25
76 8
Ġsp ons
Ġ Ø§
Ġre act
Ġev olves
Ġimp osing
ĠB reak
ĠĠĠĠĠĠĠĠĠĠĠĠĠĠĠĠĠĠĠĠĠĠĠĠĠĠĠĠĠĠĠĠ ĠĠĠĠĠĠĠĠĠĠĠĠĠ
ILE D
Ġf ron
Ġdef e
Ġdemand s
ĠE S
sid ential
Ġpi lot
B usiness
Ġinter ven
ĠNO TE
Ġfid ucial
Ġmodel led
Ġgu ard
ĠK epler
OD Y
, &
Un its
ĠN ash
structure d
="../ ..
ĠSe a
Ġjus tified
Ġsurpr ise
Ġgain ed
T ele
L y
Ġadap ter
IM O
la unch
ĠQ t
Î ¼
Ġcent roid
ĠM g
ĠRes erved
ĠDoc umentation
Ġra dical
ĠG yr
Ġfac ing
Ġnor thern
Elements By
Ġany way
Ġs an
Ġaut onomous
ĠYou Tube
âĢĻ .
F ee
q w
ĠA sh
auth ors
WARN ING
ĠI ma
ĠD ub
19 72
k al
ĠM OD
Ġqu ench
ĠB rand
Ke ep
Ġsat urated
Ġs oc
i h
re cent
Ġhel icity
Ġmanip ulation
Ġpush ed
ile y
] },
ĠC lin
ĠP ur
Ġ[ $
ning s
Ġde lays
ĠDe pend
ĠTrans form
n z
bu ilding
La unch
Ġcontract s
ĠR NN
og on
Ġharmon y
hier arch
un ter
_{ |\
Ġparticip ate
Ġadjac ency
Ġastro physical
Ġin formed
Ġplau sible
Ġne goti
(" [
AS C
- (\
ĠB O
Type Name
EX P
Ġfila ment
Ġintui tive
ĠHe ader
di ms
Ġfor mats
ĠL F
Ġmul tic
Fl ush
Ï ħ
}} }_
}} :
ĠH AL
)( -
Qu antum
Ġdie lectric
ant ine
Ġma intenance
type Name
inter faces
*}[ !
os ph
station ary
Ar n
Ġs lots
rit ten
pos sibly
radi ation
da c
ĠC MD
Ġj e
ĠW ild
d ummy
Ġb ench
Ġwh eel
Ġback bone
Ġdem oc
Ġdec imal
Ġpas sion
}} '
Over flow
ogn ition
Ġin herent
FO RE
Ġl n
Ġsti ff
Dem o
Ġs ig
ar on
20 7
sub scri
string ify
array stretch
GRO UP
ac tivate
CO PY
esti mation
g ger
S il
H am
ĠC ount
Ġr ising
ĠB ru
char set
Ġacc ident
unt u
Ġpri ors
XML Schema
ĠM as
lor er
ĠĠĠĠĠĠĠĠ ĠĊ
Ġse at
sim ir
ĠSub section
Ġre formu
Ġw inter
re store
be at
âĢ ĭ
O ct
Ġst rengthen
Ġy r
Ġeigen functions
r te
per m
sub title
ens tein
ul s
mag ne
Circ le
v f
inner HTML
Ġany more
Ġeven ing
S ound
S everal
list en
fin ish
Ġredund ant
M n
H s
Th rows
ĠF ellow
S cheduler
Indic es
}) )\
C LE
Ġe c
Ġbul ge
dep loy
17 4
Ġter ror
^* =
> ";
e h
ĠW D
Ġscienti sts
pub lish
L STM
g ences
Ġweight ing
S ink
Ġ} ));
jec ta
Ġg reedy
ity Engine
Ġfound ation
A lex
h ist
cover ed
T oday
Ġsw im
}' _
Ġc au
Ġv oting
Ġsmooth ness
ĠLink ed
Ġh ull
add plot
ĉ ĠĠĠĠĠĠĠĠĠĠĠ
= &\
}{! }{\
Ġgener ations
ond o
be it
ĠHosp ital
Ġquadra ture
P lus
app y
ti ze
UN K
Ġpri mes
Ġpron ounced
ir re
Ġ( ``
as ta
slash ed
Ġutili zing
) }_\
b ach
v ark
th y
por ter
Ġoptim izer
text subscript
Ġsh op
ĠMil ky
Ġb le
Ġcol on
Pro jects
ĠAn derson
ĠCont roller
=" {
So ft
ole c
Ġcyl indrical
(' ../
Ġ* _
ĠCoun try
Ġrecur sively
Ġoptim um
Rec ur
te or
Ġy ounger
Ġper mitted
ĠComp arison
Ġw ake
() `
Ġtack le
requ ires
text superscript
Ġch air
ivari ate
ĠT M
}| _{
id al
b ag
ĠTrans former
Ġinf ected
m ol
C ut
ç ±
Ġc ere
text g
Ġne uro
Ã© e
Ġpart ly
}$ &$
18 4
Po isson
b end
B tn
tag on
c tives
J K
Json Property
Ġiso lation
}} }_{
dis tributions
is Array
ĠD FT
ĠAt omic
8 75
ĠY O
Dav id
Ġinten sities
' ><
ĉĉĉ ĠĠĠ
ĠGal ois
Ġpoor ly
d type
OP EN
R ew
ex clusion
Ġellip tical
ĠP ra
Ġanomal ies
Ġd ummy
Ġun iversity
ĠEd ge
æ į
}) ^\
j q
45 6
ĠS G
Emit ter
Ġun clear
ĠO x
Com ments
T ON
C W
Ġw inner
H K
Ġd type
holder s
0 75
in str
m ig
Ð Ł
) }^{\
P V
lic ates
ĠVirgin ia
d q
ĠD S
ill ary
Ġderiv ing
Ġjus tify
ĠF ILE
ĠAr gs
Ġconfir ms
ĠP i
ON LY
f k
ORM AL
U i
p romise
Ġth umb
ĠAnd rew
ĠB inary
Ġob sc
k el
> }
ĠCOL SPAN
> #
M U
D st
S ug
ĠH i
n v
P icture
ĠB and
][ <
mal ink
18 9
Ġmonoton ically
Ġnon local
auth entication
Ġsepar ating
Ġlo sing
ian ts
Ġther apy
ĠD ES
restr iction
int ent
Ġsur vive
Ġinv olution
Ġsatell ites
Ġ$ {{\
agree ment
SU PP
B K
Ï Ĥ
Sub scri
Ġcommunic ate
ges tion
Fig s
Ġ river
Ġindic ation
Ġno table
Ġpar alle
Ġview ing
Ġ\! \
Ġaltern ate
adap tive
lo be
Ġiso late
Ġc p
' }(\
t rees
av atar
Ġ' {
ĠGeorg ia
Ġprote ins
User Agent
requ ests
Po sitive
occ ur
equ ality
ĠR am
Ġwor ry
lst listing
x a
gu ard
ĠLay er
ĠP ak
C ss
P atch
ak ov
df n
). \]
Ġoffic ers
ĠH an
. ''
é ĩ
Ġdec l
x r
ec ke
ol ding
encode d
A ge
o on
du ate
Ġden oting
] ];
in berg
Ġ= ================================================================
Oper and
Ġtimes cales
ĠLay out
)= (\
Ġsp ending
Ad ditionally
1 200
Ġsub script
MP TY
Ġir regular
as List
NO TE
Tool bar
Star ting
ĠComp lex
ĠP lugin
0 24
Ġpl enty
ar Xiv
00 9
Ori entation
ĠH ER
rt c
NU MBER
? )
ĠL ater
re call
qu is
Fore ign
du tils
ĠNe ural
Ġteach ers
Tok ens
measure d
ER Y
Ġsequ el
Ġd ance
o inted
limit er
Ġc lon
ĠRepublic an
ĠC artan
Ġconver gent
Ġsum m
Ġd rugs
has OwnProperty
Res olution
Ġmultip ly
Ġinc idence
ĠB oston
ĠTr ust
PO INT
con cept
ä¸ ª
ĠDe ad
æ ł
Ġtor ic
^+ }
ĠAd ditional
ĠCollection s
ĠS on
ĠC OP
tele phony
Ġrelig ious
Ġ$ *
ĠCh en
ĠPro file
F IR
Ġpro c
clu ding
dis p
') ).
mark et
r ics
Ġt rop
20 6
Ġquan tized
UM ENT
) ],
Ġplugin s
pa int
Ġt une
ĠIn it
)=\ {
ĠLag range
) })\
/ :
Ġhapp ening
Ġfail ures
Im mutable
ĠKore a
min ute
gin es
17 3
trans formation
Qu ad
e z
ver bose
Arch ive
con tainers
CP U
ĠAuth ors
Named Cell
Ġcom mission
d R
Ġout liers
^* _{\
W ho
jav ase
ĠF S
Ġcomp eting
Ġdisc lo
PAR AMETER
ro g
Ġsub system
Ġgood s
ĠM AC
Ġsp ots
ch ap
}. \\
Ġh int
View ById
Ġpr uning
co ord
Ġalong side
ser if
] /
complex ity
C lone
termin al
c nt
() }
li ament
w en
it eness
Do es
m ne
5 50
Ġs la
Ġt ur
Ġp df
Ġfi xture
ĠRE AD
æ İ
ro tt
Ġl in
ĠT ables
Red irect
Q Name
"> ,</
Event Handler
Ġvalu ation
bl ur
ç± »
k ed
or ial
F our
eng ers
A ws
Ġb rown
ĠBe ach
ĠJacob i
\\ -
B ern
Ġa imed
Ġex tern
ba z
Ġattemp ted
ar ts
Ġun usual
Ġblock chain
EN TRY
ĠComp uter
Ġeigen vector
AC HE
ves tig
ma d
] *
Ġhear ing
en umer
Ġde t
Ġgraph ical
ĠCho ose
ili ation
Ġde veloper
Ġdialog ue
}] $.
acc urate
Ġâ Ĩ
str onom
Sample s
rec v
------------ --
out line
Ġas c
}. )
! \!
Check er
Ġthought s
Initial ized
ti que
S ect
Linear Layout
Ġshould n
Ġitem Members
ĠFin ancial
vark appa
get Logger
h fil
ĠF an
P ID
lass ical
Ġpos es
cred entials
B AD
sto chastic
Ġb ic
Ġdig its
{- }\
ä» ¶
Ġt body
ĠGra ss
ĠR V
Ġ( );
Res olve
Ġlong est
tific ates
ĠZe aland
Ġhyper plane
con taining
ĠAn ton
ra mid
(" ")]
mon s
Ġstrong est
ex e
\ }}\
Ġ\ {(
clu sive
H B
Ġch ampion
av oid
ĠCO M
{\ ,
Ġrecur rence
ĠM IN
B and
q p
Ġf ell
th ink
Ġadverti sing
Ġs ad
assert False
sm art
fact ors
25 2
Q P
ĠP attern
ĠMET H
k T
+ {
e poch
Ġpre vents
Conf irm
Ġaffect ing
si mpl
Is Null
ĠSchwarz schild
Ġconn ects
e asy
Ġen force
in ations
lic h
ĠFrancis co
Ġide mp
Ġde x
h on
pro cal
Ġpro ud
_+ ^
L ONG
print StackTrace
Ġbutton s
set Value
we ather
de b
Ġin form
Ġde gradation
Ġcy ber
em er
r us
st ery
ad van
Ġint ention
f ish
Ġb acter
}{ {
ĠZ end
ocomp lete
19 1
Filter Database
Ġaccompan ied
ar ticles
Dec ode
ĠW allet
ĠCol umb
Dete ction
Ã º
g ulp
17 9
Ġestablish ing
Des cribe
ĠInter estingly
Ex periment
A MS
Ġw ins
Ġdec line
Ġambigu ity
there fore
ĠK al
C riteria
ch ant
c annot
Ġdistribu te
ĠBook s
Ġrestaur ant
Ġpol l
ĠSte ve
%%%% %%%%
Ġdo se
W ire
s it
in frared
b enchmark
Code Dom
ĠF IX
Ġdisc ip
A IN
ĠPro b
Ġsymbol ic
Qu ick
{ })
Ġle ct
e i
t ens
ĠS ql
Ġep ide
Ġpro fit
ĠLy apunov
"> "
col s
ĠCarol ina
Ġhand lers
~ .
an es
ĠD id
om al
he v
j am
Ġm ile
/ ******/
et ched
get Time
Ġmultip lying
ĠIn stance
Ex change
Ġkn ots
B st
is ta
M il
ĠB U
Ġp uzz
ans as
ĠÐ ±
ĠFunction s
order ing
Ġsit ting
× Ķ
Ġ$\ ,
S ing
Ġde duced
url s
ĠS outhern
G old
Ġin stabilities
P references
Ġsc oring
ĠCon stra
in j
Key board
Ġfro zen
ĠC B
__ _
Ġfeature d
Y P
Ġdis connected
Ġtranslate Y
Ġbur sts
ENABLE D
AND LE
30 6
Ġb aby
ĠCh ampion
æľ ī
ĠĠĠ čĊ
: ]
oci ate
Ġde precated
Ġge o
May be
ĠF M
H iggs
Un lock
Ġexclu sively
. ";
wide text
W ords
Ġre tro
Ar tifact
Ġgran ts
u med
Ġacces sed
elf are
Ġdif fraction
RE C
B esides
po les
Con d
Ġimp ressive
Click Listener
ĠP ic
back up
Y ang
Ġ ].
Ġeccentric ity
Ġhyper parameters
Ġin spect
"> #
or table
mag nitude
combin ed
ĠY ES
undam ent
ĠAg ency
re action
Ġc pu
Ġt uples
get Current
ST O
Ð°Ð »
r er
ĠR H
ĠIter ator
con tribs
23 7
ĠS eq
Ġbenef icial
I FI
LE FT
Ar ticle
Ġcur r
Ġan ne
PRO TO
Ġvi rial
Ġpres cribed
ump y
ĠValid ate
Instance Of
-------- ---
CLI ENT
27 5
Ġ ride
Ã µ
å ĩ
itor ies
Ġintersect s
Ġres olutions
Ġintegr ity
ĠA stro
ĠP D
ian a
Transform er
& -\
h int
per form
Ġbu mp
}, $$
syn chron
Ġcre w
ol er
band s
ob server
ĠPri me
o vian
ĠD est
Ġvi able
Pe ople
ĠRuntime Exception
star ted
P en
ĠR ES
64 0
p tive
po si
Ġhealth care
ro oms
Ġb anks
ĠM ode
= _
( %
b ash
ĠOffic ial
Ġcontext ual
Ġinvest ors
Ġinstrument al
single ton
Ġequiv ariant
g cd
ĠO lymp
ĠT ypes
Ð ³
ay a
re search
Ġto wer
un ting
Get String
[] )
c riteria
lines kip
and y
18 2
ar x
l bl
ĠD rop
PI O
ĠIn f
O ps
In voke
With in
equival ence
op tical
es tab
Ġdebug ging
Ġperman ent
ĠP od
ĠPh one
c D
Ġemer ge
Icon Error
Ġun lock
pri or
Rec ords
e vi
a belian
u y
Ġhel ium
Ġworld wide
Ġstri king
Ġre wards
c aus
Ġ$ ('.
Ġse eds
æĸ ĩ
Ġgraph ics
. :
B ot
su ite
ĠA dap
Ġoptim izing
Ġhas n
Re lations
K im
Ġg y
Ġac tivated
= </
ig e
Ġz ones
or ms
ĠA ge
}} }(\
Ġexplo iting
ĠDo main
Link s
Ġs alt
ĠC lean
Re presentation
Ġtranslate X
Ġquas ars
st ock
ĠAc tivity
Ġ| ^
Ġcontinu ing
Ġ till
if ford
Ġal ive
Ġgen es
16 3
ĠBel ow
ĠC MS
ĠApp ly
à¤ ¾
Ġ" ");
Ġcondition ed
Ġsk ill
}& =\
ĠM F
Ġhad rons
asympto tic
Pro totype
Operation Exception
cyc lic
ĠDemoc ratic
c B
ĠCo ast
Ġst re
ĠTh er
Ġbe ar
6 55
ç Ľ
ĠÐ ¼
ob tain
ro ut
ĠM ah
ĠH ausdorff
te ad
Ġf d
al lax
own ed
Ġqual ified
Ġsingle ton
T LS
GEN ER
ĠBe gin
Su ff
ap ing
Com bo
ĠLat in
theore tic
ĠS itter
23 8
S ender
Ġtransp ortation
Spr ite
filter ed
Ġdiscuss ing
ĠĠĠĠĠĠĠĠĠĠĠĠĠĠĠĠĠĠĠĠĠĠĠĠĠĠĠĠĠĠĠĠ ĠĠĠĠĠĠĠĠĠĠĠĠĠĠ
Ġinvestig ating
Ġdiscrimin ator
Ġbus y
Ġre dis
Ġch ir
A WS
l ift
y ml
ĠAn ti
Ð ±
å į
ĠAd vanced
ĠE ric
ĠR og
View s
. ).
ĠR ole
ra cy
Ġaccep ts
Ġsol vable
Ġhead ing
ĠFrame work
Ġs ali
Ġrele ases
æ ³
measure ment
INST ANCE
Ġmic rowave
Ġ" :
Y au
D AT
is ible
loy ee
Spr ing
ĠB ound
Ġion ized
H PP
o auth
Ġd omestic
Ġnumer ic
des cr
Auth entic
As String
ĠCom ment
Ġvo ters
0 80
Ġcommit ment
Ġcon verse
Ġ* */
TR ACE
Ġrender er
Ġun biased
Ġchar ging
Ġcop ied
}}$ )
ĠPac ific
ĠL IMIT
Ġpul led
Ġmis match
Ġincorpor ating
ty pec
Ġdesign ing
}) |
23 1
b age
66 67
evalu ation
19 71
b right
' }^
{\ "
um bo
coup led
iz z
Ġsu it
= |
ĠL IC
Ġmark ers
Ġan g
ĠSta ck
El se
Ġra c
Ġpri mordial
b ubble
Ġcommit tee
=' #
expan ded
A J
Ġimp lication
file Name
expand after
UM N
Ġf asc
text sl
Ġp b
Ġs aving
ĠD ynamic
for th
ĠIn dic
ula tors
IC AL
glu on
Ġ\ }$,
Ġref ere
Ġf urn
rows ers
work ing
Ġph rase
_- $
plan es
sc ience
an im
Ġin cur
nucle on
)) (
Ġran ks
Q M
Ġ< ![
}) ).
Ġcorrect ness
\!\! \!
read able
}\ {\
Sm art
' "
Ġj u
ĠAs ync
Ġtransform er
con tribution
IN PUT
ĠC ome
Ġdiag nosis
IconError Encoded
j dbc
ĠAn g
gra v
g alaxies
}. \]
cent ric
ID s
clou df
ĠL ik
c art
Ġinter vention
Ġappe al
+ }$
Ġgu est
ĠE T
Ġla zy
ordin ary
Ġquas ar
C AT
pro cessed
o z
ĠP as
ĠH ave
TO KEN
Ġspread ing
Ġtra cing
Ġoper ates
! ");
tr uct
Ġintersection s
S s
Ġf m
Ġhouse hold
Ġ Å
ag ues
rom ium
Ġpre domin
æ ŀ
sc ious
Ġauthor ities
Ġpolytop e
level s
R X
or able
g md
}} &
sc i
Ar c
}/ {\
Ġend l
ĠB l
Ġexplo ited
Cre ation
Ġemo tional
f u
ĠR od
ĠG ene
add on
itch en
Ġpuls ars
ĠK ong
> @
Ġsympt oms
Ġemp irically
pp y
Ġintegr and
Ġm outh
ac i
Ġown ership
el la
40 5
get Data
Ġanaly se
ris k
Ø ³
ĠBra zil
get Context
J acob
comp ar
Ġful filled
Ġsta ys
Ġ// !
ĠExt ra
Ġassign ments
al ph
be h
H it
Ġvo tes
Ġexec uting
Ġthe sis
Ġiter atively
Ġs tim
Ġbre ast
' </
Ġemer gence
ĠConsider ing
riv al
18 6
math comp
ĠB or
ĠLi ber
E A
R en
67 8
D N
On Search
Un iversity
Ġv ictory
co hol
ĠP rac
Ġo cean
ho o
Cre ator
Ġact ors
)) :
is i
Ġe jecta
âĶ Ģ
() "
Ġrepres entatives
Ġcorpor ate
d og
to o
Ġclu mp
Ġhouse holds
ĠEn sure
lo on
lic as
Ġdra s
nice frac
] ));
incip le
c N
u ing
! }\
Ġat tract
Ġp ic
}[ {\
Ġvirt ually
track ing
b R
o ided
ĠE mail
> ("
E B
res olver
Ġtrans lates
aff ected
ĠB B
ĠCO MP
Ġtell ing
Ġpar king
ĠRes et
ĠNor thern
@ {-
[] [
y outube
,\ ,\,
y our
gal actic
ma to
the m
key words
^* )$
organ ization
Ġrescal ing
Ġd ies
Ġsome where
Ġchem istry
Ġs mo
ĠImage Net
Ġaltern atives
p ow
mon y
Ġgu itar
signific ant
tat tr
S olution
Throw able
cccc c
x ff
Fra g
d in
Ġlink ing
Reg ular
Ġslo pes
ĠC ox
restr icted
per f
Ġc d
end ants
pla ced
doc umentation
ĠSw ift
ĠSm art
er ation
Ġve ter
log ue
mo ving
); \
xx x
h b
ĠCon versely
Ġro oms
Ġend owed
th ose
Ġres is
rep rene
Ġdouble t
Ġ" </
Ġselect s
Ġanaly sed
ĠL LC
16 1
ia o
ĠC lick
Ġ++ (
y arn
Ġs cre
ĠO H
Ġ& \\
query Selector
ĠEqu ations
cyc les
iz ability
Ġorbif old
Re po
g rey
po on
ĠRe ynolds
26 5
No tify
ID ENT
INTER N
ich i
go als
M ul
Ġestablish es
Ġh ate
ĠW igner
Ġbl ind
ĠData set
ĠGib bs
gu id
BE GIN
Ġmanufact uring
ĠHen ry
Ġin consistent
Ġk no
Ġjav adoc
ud o
:// $
Ġas ynchronous
Ġcos ine
center ed
][ "
Ġattach ment
Phys ical
Ġrenormal ized
S lider
tim ing
Ġour s
Ġ! (
ab br
Ġcallback s
l k
Process ing
) &=&\
ĠT itle
Il legal
pos it
polar ized
ĠN u
ĠG i
ĠIn nov
E F
Ġfile d
Ġn ano
Ġsim ilarities
Ġv en
ap ore
if ference
Doc uments
Ġaut oc
O G
Ġchar m
22 1
ĠAv ailable
×Ļ ×
len eck
Ġrule d
g lib
ĠG M
ĠE dition
Ġmar riage
so lete
ass uming
ĠOb jects
Ġf ired
Ġab bre
Ġcros sed
ĠC ost
Inst ances
} ]{
re dis
< >(
j sp
we i
ci ties
Conn ected
Ġrect angular
0 14
q i
ĠM PI
Par ticle
lustra tion
Ġwh ilst
ĠMe mbers
pop ulation
K G
all ine
he ap
7 20
ĠT ok
Ġavoid ing
) ";
* -
ĠB P
Ġsign ing
acknow ledge
Man aged
ĠD y
D ark
calc ulate
Ġhex ag
ici encies
NE L
Ġti cket
ĠS B
8 50
Ġhe ap
div ider
Ġiner tial
{ }_
ber ry
coeff icients
Ġis set
Ġdo ctor
Ġsmooth ly
ĠP DE
ra it
^{\ ,
ĠV olume
Manif est
Ġreference d
Ġserial ized
% );
ĠF ox
CT OR
ĠIn fo
Ġemploy ee
id ents
Ġrapid ity
W P
Ġdeep ly
ME DI
} &=&\
block quote
Ġe motion
Ġpos it
Ġ\| _{\
Ġpossess es
sho ck
=\ {\
s an
ĠI SO
In to
Ġre start
to k
Ġ" (
Ġparticip ant
E r
ä ¿
Ġinter stellar
0 33
22 6
})$ -
Bal ance
: .
C lock
is Valid
) ].
L if
Ġ& :=
C as
Comp aring
-- ;
ss ues
Ġex clusion
Ġme l
Ġvulner able
NO WN
Ġdra matically
prevent Default
ol y
Fatal f
Ġregular ly
N evertheless
HEAD ER
Ġde but
iel ded
bos on
ew is
C op
^ (
ref ox
Ġtit les
ym an
ĠST AT
}^{ +\
Ġper ception
Ġper c
}\ }$,
G itHub
Ġb lu
Ġparse Int
ĠC ru
conf irm
d j
ĠAlex ander
ĠIn stagram
iter ation
ĠState ment
STRE AM
ĠG A
Ġmaxim ally
ma ils
Ġad vis
Ġdifferenti ation
Ġpack ing
Ġwonder ful
GR ect
}$ =
Ġpriv ile
ĠSpa in
omp son
ĠN uc
Ġextra polation
ĠDo ppler
W rong
Ġev al
Ð½ Ð¾
Ġs entiment
Ġvisit ors
C am
Ġag encies
N B
f ive
Ġele v
^+ _{
yl van
ĠH otel
Ġup stream
Ġsub mission
AS P
3 45
P t
ĠM iller
Ġdi amond
oint ment
access or
di table
calc ulated
Ġex otic
Res ize
Ġmonop ole
} ")
K R
Fin der
Min imum
c R
ĠM HD
ĠX ml
ure au
ĠLemma s
ĠB as
Ġ' )
Ġvalid ated
[ (\
Ġ\ |^
mem item
! )
ĠA x
} ].
Ġro oted
Ġcollect ing
Pro pag
C LO
l q
fa ction
3 40
us ually
Ġsimpl ifies
Ġobsta cle
CO RE
.~ (
ST AR
Ġwor lds
on avirus
ne e
Ġsome how
Ġori entations
commun ity
Ġcur rency
flu ct
lat ory
R ing
ber ta
, %
~ &
ĠMich igan
Ġglyph icon
or tions
S hi
ev t
ĠHy per
ĠB OOL
-> ]
conclusion s
ac o
ĠHel per
Ġtext s
inter section
Cred it
llig ent
ĠFW HM
c out
f ers
\{ (
] }{
C ategories
ui tively
22 9
ĠComp ared
Ġload s
Ġrank ed
C Y
c ourses
ast ro
ur m
b mod
tr ust
Ġsta ke
distingu ish
e ms
auth entic
Ġb ow
ĠE R
Comp osite
ester day
Ġs keleton
ĠM M
Ġre combination
a side
Ġvio lated
ĠSt udent
Z end
Ġto y
un ix
ĠP I
non linear
appro pri
ĠSw ed
mu tation
get ElementsBy
group ed
ĠA sian
: @
Ġpen et
ĠBri tain
b ury
d ater
en z
ĠJ u
ĠAir port
Ġreserv oir
Ġfriend ly
util ity
19 69
sw ift
SD L
Th ird
at ta
Ġfac ial
ĠType Error
urch ase
tensor flow
ĠD G
B ODY
mix ins
Ġpre val
Ġalle ged
ĠZh ang
Ġcheck sum
ĠC lassif
ear ly
Ġextract ing
? .
Ġh all
inst ances
Ġbifurc ation
g allery
< $
Â ®
Ġh ub
Ġm ine
>> >
: **
Ġsc oped
ĠMark eting
Ġdes ire
h dr
Byte String
High light
w f
Ġvis its
ME T
Ġadv ances
Ġinit With
Ġbary ons
war ding
dash board
ĠObserv able
Ġfight ing
it ol
Ġpartners hip
cn fn
iv o
ĠJ r
Ġpredic tor
Ġv a
df s
ĠAl ternatively
Component Model
Ġre pair
con volution
Ġp un
Ġsh utdown
Ġprac tically
ĠDE BUG
co lation
Ġpol aris
cross ing
85 9
Ġenjoy ed
ĠE L
ĠO B
Non null
Ġver bose
Â ·
n ets
ro bot
ĠN ick
, #
Ph ot
Ġ ic
ly n
ĠH istor
ĠV K
Ġminim izes
ĠCal led
j ets
ĠL ower
Ġrare ly
a ac
I ma
ish op
ĠSD K
oscal ar
it ude
Ġav oided
ire ctional
Ġcompu ters
pher es
data sets
Ġbroad ening
Ġc ab
Byte Array
f oundation
IT S
Ġwarning s
el ve
'' }
ĠExecu tive
m og
Ġfa de
ogen ous
pa que
Ġdup licate
Dire ctor
ĠBro ok
Ġre dd
ĠAr ticle
ĠMETH OD
I ssue
^+ $,
g ives
ĠC ONT
Ġgenu ine
Ġ$\ #
g ree
unic ip
Ġs cheduler
ou ville
Ġn eck
26 3
Ġrescal ed
ĠR om
re ject
ĠLabor atory
L HC
ĠCont ract
50 1
N ORMAL
ĠS ide
ĠTH IS
ĠG ran
Con version
sp ro
den oted
Ġfeat uring
Ġregister s
C ached
Inv ocation
Ġholograph ic
Ġm g
ĠNo tes
n ick
Ġed iting
vers ation
Ġconven tions
ĠPr ice
Ġtal ks
c rc
ĠC W
CK ET
t in
ĠHamilton ians
ĠH ong
ĠSh ared
network s
Ġsimple x
r put
Ex ist
mix ing
Ġre volution
tit udes
^{+ }
ĠNS F
Ġshort ly
Ġpr icing
^+ ,
Ġm ount
decomp osable
c ategor
IS H
amil ies
ĠN iger
Bbb k
DE VICE
Ġindic ators
acc ording
ãĤ Ĵ
ĠT P
ĠThe atre
Pro jection
name ly
Ġp orts
}$ (
Ä ĥ
Ñ ī
ĠSt and
Ġche ap
b readcrumb
class path
Ġcompris es
acc i
Ġil legal
es tri
Ġ} _
ĠC ohen
ĠK L
S el
h k
G radient
Ġlo s
i int
Q T
sh ake
IT ER
Ġfla tt
Ġmaxim izing
separ ated
ĠL D
Ġpop ulated
y ers
ĠR ect
au di
$ |\
Ġpo sitivity
work space
ri m
Ġconv ection
Ġd w
bitr ary
Sub stituting
Ġad res
ĠR M
pro g
Or ganization
2 90
Ġ( ((
Ġconcept ual
USE D
ĠEn try
ĠC ategory
strong ly
c X
t om
ĠF ried
ĠSto ck
ĠS hi
Ġsu ited
Ġaccess key
ĠNe ed
si vity
Ġen jo
40 3
ore n
w idgets
Ġvis itor
\,\ ,
h ls
ĠCh air
Ġpa ired
Ġpartition ing
Ġinflu ences
Ġun seen
ci tation
Ġstudi o
M Y
th a
g ol
Ġs elling
}_ *
define Property
Ġf estival
Ġalpha bet
Ġtran sitive
ed ding
get User
: \\
w y
ti ff
wit ched
Dis able
Ġrefer ring
ĠR A
ĠE OS
re ve
ĠH ST
19 68
Ġdra matic
rece ive
Lo ss
e mb
de velopment
su gges
pis ode
Mac ro
Ġcho oses
ĠPh ilipp
B IND
ĠRe lations
comp at
Comp atible
Ġtal ent
Ġat tor
Ġun labeled
Ġdiscrimin ation
ig o
Non Null
ĠPr ince
Defin itions
ĠP CA
At omic
Ġweb sites
åľ ¨
per malink
18 1
Ġsubtra cted
ĠAd ds
normal ize
open api
os cil
vers arial
Ã ª
ren d
S ensor
simu lations
ĠB ang
Ġes tate
3 10
Ġdi laton
}} &\
30 7
Ġalloc ate
ĠS quare
Ġab and
k im
ed i
lo re
Ġflav our
d N
odrom y
approxi mate
ĠPre dic
)) {
En tities
Bu ilding
Ġ! !
li est
Ġla titude
> ",
V ars
Ġcapt uring
Ġcomp ounds
co ck
Map s
Ġgra sp
Ġs ought
Ġcompact ness
Ġsub category
Ġmove ments
Ġcancel led
optim ization
v k
}, ~\
Ġvo cal
, *
ĠW at
f re
Ġinte l
Ġensemble s
g k
Ġenter tainment
de leted
Ð¾Ð º
ĠB ose
G ed
Ġ} ^{\
18 3
W F
In str
Hand lers
> ',
0 27
ĠWh ich
ĠL ess
Ġdis per
ĠFact ory
Ġv ital
Ġ* (
mi tives
EX CE
Ġob s
0 16
V L
ĠE rr
Ġcol laps
Over all
mid i
F lat
ĠI MF
ĠTra vel
Attach ment
Ġrever sed
normal font
ĠMC MC
asket ball
}] $,
Eq s
Ġb a
Ġpr inted
LO T
enn y
ĠH al
Ġelimin ated
I ts
Ġch aos
AR B
ch r
ĠJew ish
Ġla d
Ġf old
Ġexpla ining
Ġtermin ation
Ġad ults
ip es
ms kip
A pr
ĠA bs
Serial ize
J et
Ġconcent rate
au ge
25 4
Di rac
ĠH ot
iver sities
Ġto urn
ĠMean while
ĠF er
A rm
ig ator
\ (\
ĠMod ern
en ko
)) ^{
C ube
Ġiso spin
ĠIn sp
Ġrandom ness
Sch warz
ĠDis cussion
g w
col our
ĠN ames
}( {
Ġwave function
ĠPl ant
Ġcorre lator
Diag ram
ĠM SE
my Item
Ġb esides
end l
Ġtra v
u ters
nu mp
cer tain
Imp licit
Ġcancellation Token
Ġshoot ing
A rt
o si
Ġfe es
ĠT CP
Ġ] );
v d
REQ UI
Ġfer romagnetic
sk in
D ifferent
R W
Ġ ub
ann i
22 7
ĠI de
SP H
0 35
ĠM att
ĠF ort
f ted
Ġt ac
Ġfo cal
qu ire
ĠCom ments
Ġin hibit
Ġhard ly
Ġcon vective
m irror
Ġtravel ing
Ġaware ness
D iffer
G re
Ġ/** <
Pers istent
SER VICE
C OR
write ln
) ',
Ġbe auty
Ġdise ases
s orted
Ġfab ric
R i
ĠĠĠĠĠĠĠĠĠĠĠĠĠĠĠĠĠĠĠĠĠĠĠĠĠĠĠĠĠĠĠĠ ĠĠĠĠĠĠĠĠĠĠĠĠĠĠĠĠĠĠ
V K
ĠI rish
Ġdriv es
tw ig
Ġpresent ing
el son
ĠN V
Ġrm s
nod ata
Ġde bt
D X
ä¸ į
A RE
c ounts
Ġin evi
)) _{
}\ |^
)} |
T en
Ġm illiseconds
I ll
Ġconvex ity
Ġnumer us
Ġthermod ynamics
dete cted
g rowth
Ð ¶
Ġaxi oms
est ors
no on
hand lers
Ġpro mp
'' '
Util ity
Ġaccum ulation
Ġset Up
Ġkey words
ĠM DP
La TeX
Bel ow
Ġsp ike
A mazon
S outh
ĠTra de
Ġminim izer
Ġparticip ation
Ġ\; ,
Typ ed
be tes
Ġk a
Ġiniti ated
read only
Number Of
View er
Tran sp
b usiness
Table Name
ra ses
XXXX XXXX
C e
ĠA verage
nt ario
ĠSh ape
. %
B log
ant on
ĠDis tribution
border ed
Ġswe ep
ĠL A
ĠR u
ll is
ĠCom bining
6 50
cre ation
30 3
ĠMax imum
con tract
Ġplate au
Ġacc ounted
Na N
Comp any
textg reek
ĠD T
ĠEx change
Ġreflect ing
Cred ential
ĠD aily
Ġ) );
Ġpeculi ar
Un ion
lu a
AR M
fa de
Ġtrig gers
Ġspecific ations
ĠCath olic
" <
* }{
S Q
Am ong
l brack
ĠG reek
enn is
B an
Ġharmon ics
ĠFe atures
th s
Ġcon temporary
ĠP ear
Ġgeneral izes
process es
Ġdiver gent
4 75
sh ader
ĉĉĉ Ġ
V oid
Ġrein forcement
vi ate
D an
comp letion
Ġnu tri
ds on
ĠP ART
du st
ex am
he ating
AR S
OP ER
M AT
D ual
fig ref
spec tives
soft ware
_{ ,
Ġpay ing
Ġg rpc
Ġsuper fluid
ĠLIC ENSE
pan ic
L ess
Ġhol iday
æ Ķ
Ġpopular ity
Ġcolor ing
clip se
Ġasympto tics
bur gh
ĠB PS
ĠK ol
Ter min
Ġle ague
Ġar ranged
col l
Op ts
Observ able
N u
Ġc ot
Ġhis tograms
Ġa side
ref lection
Ch an
Ġstrate gic
Ġadjust ment
Numer ic
consider ed
}} )$,
ĠRec ords
Ġg fx
ĠH essian
IS A
ĠO hio
ĠV illa
B ol
ss s
max imal
Ġcommu tation
ĠSta ge
ĠE s
Ġn ullable
pro blems
Ġminim ized
Ġch romos
30 2
) ];
DE V
Ġfoo ter
ĠF oo
ĠEV ENT
tablen ote
W est
ylvan ia
ĠP ush
; {\
an ne
32 7
ma tr
match er
Ġmonotonic ity
ç½ ®
at tack
19 50
c E
Per cent
Le ave
ĠWAR NING
or di
ĠNewton ian
Ġpublic ations
ĠLa ure
' ></
M inu
th ur
ĠAr rays
ĠRed is
Ġb orrow
Ġ ^\
Ġ. \
ren ormal
Ġsum ming
ĠW R
Un fortunately
Ġconc ave
Ġfor bidden
Ġmon oid
Ġh az
k p
Consider ing
Ġc v
Ġin sufficient
Ġsuper vision
c ence
å Ĩ
PROP ERTY
Ġreal m
No tes
w m
ĠSta tic
Com bin
F r
Ġoper and
Ð½ Ð¸
s af
UL AR
æĹ ¶
ĠF r
Ġad ult
mak ers
U TE
Ġl icensed
Ġwork space
il ds
lish ing
Sto kes
ch ing
Ġorgan ic
Ġsil ver
in side
P at
ĠC hi
con jecture
Ġgroup ed
Ġfurther more
Pre view
Ã ¸
Ġti ed
NE SS
"> '
ĠSh im
R pc
è ¦
Ġco ffee
Ġg rew
determin istic
ac tivation
Ġh ur
Ġcontain ers
ĠChris to
S AT
ri ble
ome d
ĠG itHub
Ġingre dient
å ½
Ġb es
satisf ies
on der
ĠCan cer
Ġk ink
Ġro bo
60 1
ati ent
Ġto x
un def
za beth
ĠIntro duction
squ ares
Ġout standing
'' _
ĠV I
}, {
}^* (
ĠSele ction
Ġanten nas
B W
)$ ).
tas tic
F requency
I ce
Ġpro test
ding er
Ġcol linear
ĠS n
ĠH ur
ellip tic
M V
28 5
acc um
N orth
Ġe u
6 25
u ction
tit led
ĠA G
Fin ished
Ġti les
j ac
Ġsp ans
3 15
2 14
)\ }_{
ne ural
(( (
ĠSecret ary
Ġass ociative
ss h
g lass
Ġcon es
24 7
@{ }}{
Ġref ine
ĠB ridge
30 5
Pre liminaries
Ġoutper form
Ġulti mate
Ġapproach ing
Ġover lay
bro ken
TH READ
Ġl ifting
] ^{-
pro mpt
top ology
h orizon
View Model
F ermi
me try
Ġco operation
Ġdoll ars
j ena
ic it
Ġb ranes
=" '
Eq n
AC S
ĠUs ers
Pa per
Ġex ecutor
Ġfree ze
Ġdes truction
Ð½ Ñĭ
Ġb t
ch el
Ġme mo
for t
\% $.
ãģ Ļ
Ġglu ons
ĠA SC
Ġle gs
Ġreg ulations
W I
Ġfluct u
re li
el led
Ġh at
M G
] |
Ġd S
}\ ;\
Ġtw enty
ĠVari able
ap k
ĠCon jecture
D IF
R H
lit z
inter sect
b q
Imple mented
Ġin elastic
ĠC ook
ĠWh it
ti de
FA ILED
Ġman aging
control led
Ġsp o
tal k
ET A
Ġas ks
Ġcentr ality
ta ils
un ning
ĠB orn
d am
Mo tion
ĠValid ation
Ġ" {
ĠEvalu ation
Ġin formative
ĠR ate
orre lation
ĠK a
current Time
Http Request
ĠS tation
mon o
q c
Ġle ts
ag u
Ġreg ulation
Ġatten uation
go og
SN AP
LOC AL
Helper s
> *
os hi
Ġcontro llers
pp le
po thesis
cut s
SE D
in z
v ct
Ġmin ister
ĠP P
{ .}
lat in
ymme try
ĠMo vie
k an
st ory
ish es
s ense
ti um
\% }
or se
Spec ific
d ens
s yste
ĠMulti ple
C are
Ġw ing
}$ '
Ġtra iling
Ġpull back
MA SS
P ur
Pub lished
Ġexclu ding
$ }{
Ġ* **
br is
Ġ ,\\
S inergi
é ¡
ĠOver all
Ġfra ud
Ġair port
F lu
The ore
radi al
scal es
Ġon Click
Ġau ction
w c
R AD
2 17
-------- -
Ġtriang ulation
g ene
Ġd uty
Ġdiv ides
Star ted
B IN
d E
ession al
ĠR aman
WIN DO
I a
Ġ| {\
he avy
\ .
Ġf ounded
Ġc ourses
Ġwar n
Vis it
Ġthous and
D H
Ged mo
N ational
p rac
dro me
ĠC CD
e try
GL enum
Ġdesign er
Ġaut omorphisms
Ġinnov ative
C AN
N H
de ps
ĠDemoc rats
] +\
ĠE th
ab b
An swer
ĠĠĠĠĠĠĠĠĠĠĠĠĠĠĠĠĠĠĠĠĠĠĠĠĠĠĠĠĠĠĠĠ ĠĠĠĠĠĠĠĠĠĠĠĠĠĠĠĠ
Ġfe asibility
Ġnew spa
ĠS ound
ĠL es
Ġres cue
Ch rome
Ġtrack er
Ġavoid s
ĠC OR
Id le
ĠR ail
ĠU T
ĠS TD
S Z
l uminosity
id i
Ġinstant on
g host
~$ {\
Ġb ought
evalu ate
STAT IC
Ġd p
L ex
ra ther
)\ }
vir t
Ġob servers
Ġnonlinear ity
Ġmath e
M Q
23 9
Ġpur su
Attr s
Ð°Ð º
Fin ite
g alaxy
Ġser iously
initial ized
Ġsummar izes
ĠO h
Ġra ises
$ +$
= {(
Ġign oring
Ġbubble s
Ġcondens ation
ĠCa simir
net t
ĠEcon omic
Ġprob es
~ }
ĠF T
pro per
Ġimp l
ufact urer
Ġoutflow s
al ter
Ġdiscuss es
. #
66 6
ĠT each
22 3
ĠDe te
Se g
ĠPO ST
M igration
ĠG er
SE SSION
D ays
Ġaddress ing
åı ĸ
Ġdissipa tive
Ġre serve
ane ously
Ġstri de
labor ation
4 20
orth ogonal
Ġs napshots
Ġw ine
Ġ[ `
>< ![
Un expected
de ad
_- (
dev ices
Ġre lic
Ġcli que
Ġrep lica
end i
Kn own
arg min
t ts
Ġn omin
Ġcal or
inherit doc
"> :
wik ipedia
ath y
r ss
Ġd oping
W D
vis ited
reg ression
Ġfar m
L inux
ĠE ss
Ġdivis ors
}_{\ {
Ġ& (
ho ma
Ġcategor ical
Ġposi tively
3 12
Ġconstant ly
rece iver
z illa
ĠSp ect
ĠF red
ĠT C
ho ff
ve tica
Ġadmin istra
Ġt ens
Match es
Rec on
Vel ocity
h dots
Ġsusp ension
Î ³
Ġv ox
ĠOr gan
re ll
Text Field
Ġ<!-- [
pal ette
Ġs q
Ġre use
Ġ/* !
4 95
et ti
19 67
Ġsol di
corre cted
Ġstack ed
G ar
Ġres ort
Ġrun ner
Work space
SY S
Ġmet als
Ġelectric ity
Ġun set
ĠK lein
mas sive
: {\
boot stra
ĠĠ ĉ
Ġm it
aw ait
A H
identif ied
ĠTo gether
Ġa gric
Ġunit al
- ,
Ġsp oke
Ġp ray
ins tead
conn ections
ĠDown load
@{- }[
AT IVE
)| $
ĠâĨ Ĵ
z u
ĠA PP
Dec or
Ġsh ifting
j as
Ġenc odes
Ġcontra s
" =
ti ents
Ġregular ized
ãĢĤ </
Ġcompens ation
Ġburn ing
to on
proto c
ĠDav is
ĠB ud
ress or
bra ins
So ftware
ï¼ ļ
M ount
ĠP ick
ĠCon serv
Col ors
Ġm ent
ĠD ialog
Ġqu i
Ġsusp ect
^{* }$
Ġ$ }
Res tric
Ġis ometric
Ġdisc s
Ġdepic ts
Ġview point
ad os
ĠO li
Ġamong st
gather ed
e ter
vari ety
ĠSol id
OFF SET
b rown
Ġtre ating
Pack ages
Ġdoc s
Ġconfir mation
tilization Model
inter actions
Ġgrid s
Ġlater al
Ġsp urious
Ġgener ically
24 8
ĠIn tent
.} ~\
}} </
si ans
mark ed
] ",
Ġsc anning
t pl
Ġp ot
âĢ¦ .
sp read
\! =\!
Ð°Ð ´
P riv
{ ,}
Ġappro val
Ġellip so
ph ones
Ġantis ymmetric
? ,
LE X
SH OT
Ġsil icon
; -->
] ^\
Ġbu ffers
(' \
Ġsurprising ly
ĠM AP
spe aker
Q F
an sion
Ġh osted
Ġ) {
}| }
Ġdig it
Ġta ils
ĠI ssue
^{( -
Ġ\ }_{
ACCE SS
ĠF ord
Ġcons ent
ak s
U INT
wh el
uma bly
charge d
quad ratic
Ġpropag ators
ĠR os
Bound ary
Ġb b
pre diction
Ġwave form
mod ular
Ġtw in
Ġcoinc idence
Ġspecial ized
ADD RESS
con cent
Ġen umerate
ur ance
ĠB essel
xi om
ĠC DF
Ġsub manifold
Ġs ens
an other
pi on
man ual
Ġattra ction
re spect
20 48
R u
Ġsl iding
scal atest
N EXT
Ġsh oulder
Ġun w
. {
22 8
ĠCap ital
z n
ti les
Ġset Timeout
Comp ile
ĠB atch
ĠT ax
ns ylvania
ĠM n
Ġ' [
phi a
Ġlog ged
Ġwrit ers
Ġhous es
Ġeduc ational
Ġcoun ted
id ential
ĠN R
ĠMo ore
// !
w so
F ILTER
ĠL yn
ĠThe me
Pr incipal
am ar
Null Exception
ĠJer sey
A ir
spe ech
ipher al
ĠWIT H
propag ation
J D
Ġpro poses
Ġvola tile
z ar
ĠQ R
Ġquadrup ole
Ġi OS
Ġ@ @
Ġvis iting
mk dir
Ġdire ctive
ì Ŀ
IT EM
cat Desc
Ġadop ting
comp uter
Log ical
inherit Doc
N LS
re comm
Ġauthor ization
obj ective
TIME OUT
}$ }}
tun ed
O uter
comp ressed
è¡ Į
Ġ" \"
Get Value
Track ing
0 17
ĠSaf ari
sample d
correspon d
ĠLo ss
ys on
Ġr ub
Ġkey board
ar at
fi xture
Ġopin ions
Ġdo cker
Image View
& (
Par allel
Ġdiver ges
fin ing
ĠOb viously
Ġecon om
N Y
Ġellip se
Ġarg c
Ġconcaten ation
Ġstri ke
Ðº Ð°
Ġf li
Or d
b ou
Ġdis continuity
L ip
Y ES
Ġt weets
as test
^{ **
ino is
Sta mp
ome tries
ĠFore st
25 7
ag y
has Next
sc enario
Ġc ult
ĠB UT
Ġhistor ic
ĠS core
suff ix
ĠAP Is
_ -\
m us
LE T
Ġ$[ -
M ON
B ri
OUT PUT
Ġcus p
in tern
Ġg lad
Ġdemonstra ting
ĠMo on
Ġsupp lementary
Dis covery
di jit
ĠN orm
worth y
)$. }
Code Attribute
tow ards
). </
ĠDis ney
R V
y ield
}}{ {
Ġ\ }.
NN s
á »
LOB AL
r hs
sh im
ĠSt udio
K a
Ġsearch ed
ĠCOP Y
Ġdes criptors
P ick
ch n
)\ |^
s ures
ow a
Ġpion e
b ic
Ġins ensitive
ĠCO MM
er tions
m rm
Ġph arma
Ġaccum ulated
Ġr ural
stru c
Fi xtures
33 7
integra ted
}) .}
ap tic
ense m
Ġag gregated
oc y
ul ous
ov ich
9 60
G i
ag g
pro fit
INTERN AL
Ġformat ted
ĠF ont
Proto s
C LA
Ġa pt
ĠRec ent
Ġmodify ing
Ġaccommod ate
b ary
v phantom
Ġspeak ers
ĠB at
L aw
st udi
Print f
dig est
] (\
ATTR IBU
domain s
' )$,
c od
ĠA BC
Ġpers istence
Ġpoli tic
ro ach
My r
Ġprogen itor
col One
Analy zer
Ġmal icious
ĠF ock
squ ared
ĠCON TR
0 45
C ert
m art
25 3
in dividual
ĠAt tributes
host name
CONT ENT
m illi
ĠK ra
)} }$
Ġeng age
pa use
Ġsem icon
E val
Ġd v
ir mation
Ġsmooth ed
LE ASE
Ġread out
Ġconstit utes
ĠC i
Ġenerge tic
ag an
Ġthe ta
] \,
ĠD F
Ġinver ted
ĠT LS
}^+ $
Ġcon ce
k ill
Ġcan ce
ĠQue en
ĠD D
23 6
Ġw estern
ata ble
comp ared
ĠRe ce
ĠS VM
vari ants
Inst allation
ĠDim ension
Ġs lit
st ries
TH ON
govern or
allow s
rupted Exception
ĠE mpty
Ġme tab
Ġmitig ate
pro cedure
Ġg od
ck e
Ġanti fer
Ġv alley
Ġi ii
ĠFe ed
d ote
Ġlo go
output s
ĠInst all
p late
Ġb rowsers
ĠA DD
ĠK er
ĠW is
uck er
Ġbeh alf
ĠV ery
Pro j
man aged
ogon ality
Ġsh a
Ġdete ctable
Ġdemonstra tion
ĠG ab
ener gies
o les
ĠR ose
ĠT es
art z
Col lect
ĠID s
P ull
): \
en kins
Th umb
Ġmod est
Ġrest ored
Ġemer ged
ĠCh andra
Ġassign s
Ġinser ting
ree ment
Ġo ps
Ġun necessary
ilibri a
tw isted
home page
Ġsch olar
Ġco ales
Ġbreak down
AUT H
& {\
d ns
Ġc ob
ĠPro duction
Ġcamp us
D J
Compar ator
L ists
Ġm ountain
for um
æį ®
en on
Ġrep lication
Ġcheck point
Ġaccomp lished
ĠBlo ch
W L
DE S
m h
Ġtrip les
/ -
log arith
ass ignment
Ġabstra ction
}( -\
Ġdiver gences
correspon ds
ĠC ivil
Ġat tained
ĠQ ED
Ġvio lating
Ġp et
ĠS ame
ĠE r
Ġtr usted
ĠCatalog ue
ĠF LA
recor ds
ap oration
Ġrepul sive
_{ _
ĠE mer
Ġte en
ĠCurrent ly
Alloc ator
ĠJes us
Ġclean ing
Ġs z
other mal
ĠEar ly
ĠSup reme
base lineskip
ĠPre vious
Ġexper tise
Ġdisc arded
Î ¯
Ġalgorithm ic
Ġde letion
Ref s
ĠLe vi
bb on
At trib
Ġsc ans
CL UD
Ġpor tions
Ġw et
Des erial
Ġpla tes
Ġen forcement
G ap
Ġconvers ations
ĠAl loc
EN S
Ġsimula tor
/ }
then Return
Ġhalo es
ĠN ature
D Y
$. )
Ġpre gn
\!\! \
S trict
ĠĠĠĠĠĠĠĠĠĠĠĠĠĠĠĠĠĠĠĠĠĠĠĠĠĠĠĠĠĠĠĠ ĠĠĠĠĠĠĠĠĠĠĠĠĠĠĠĠĠ
Ġmonomial s
j ournal
Ġc rop
ro les
ys cale
,\ ]
Ġde fer
Ġma xima
Ġimp ression
Un ityEngine
ĠC ro
Ġres ol
Ġface d
Callback s
ĠEn um
ĠTran sp
Ġquar tic
res ted
CLUD ING
pre t
Ġpol ym
") ).
CK S
Ġreci pient
19 65
;& #
Ġnarra tive
K ar
19 64
Ġs oul
Ġiner tia
ga ussian
Ġfile Name
j peg
Ġpush ing
ĠRe views
ine quality
Get ter
Ġsepar ator
Ġf irms
Qu ote
U tilities
ĠRo om
Ġ\! \!
incre ment
IN LINE
Ġfall back
- %
ĠCon ditions
Wh ich
Ġne g
ĠE uro
i our
\% $,
k ubernetes
Ind ent
x FF
Ġp ow
Ġbr ighter
Ġdecoup ling
Ġdefault Value
transp arent
ĠOr ganization
azel cast
{\ ,\
l ighter
ro uting
algebra ic
Ġaut ore
ĠN FL
Ġro tated
State Exception
4 30
M usic
Ġd c
exp ects
Ġc av
S l
de cess
Ġma gazine
Ġun safe
ĠGa ia
Â »
lan e
AD DR
Ġd yn
}} ),
Data Set
Ġnever theless
ĠSan ta
mag net
... "
Al tern
le ased
T witter
Ġde coded
def s
predic ate
ĠS GD
ĠCal abi
ĠT en
] ):
29 5
Ġn od
sequ ential
ĠQu estion
an alog
um ble
Ġclar ify
ĉ ĠĊ
satisf ying
ig a
Ġtop ologically
if iable
Tool tip
_{ _{
Ġtra ins
rece ived
Ġre tained
ĠM ER
Sc anner
ĠI ce
frac tive
vo y
Ġstabil izer
Ġemphas is
s cheduler
Ġ[ &
enc ia
Ġ' --
DE SC
ring e
cccc cc
ĠL as
"> {
Ġsur rogate
Ġblock ed
. ),
ĠA gent
ĠColor ado
Z ip
Ġev il
Ġsearch Box
Ġpla cing
re load
Ġformu lations
sol ar
ER N
CA SE
+ .
Ġfla res
reg on
Dep loyment
CONT RO
T argets
ĠL ar
ĠD rive
Ġfinish es
ab lation
andid ates
Li pschitz
Ġclean up
Ġleak age
os phere
ĠRem ote
æ Ŀ
friend ly
Ġtend ency
Ġsurroun ded
G rant
Ġre calling
pur ple
Trans actions
PC A
ĠMN IST
ĠL oc
ĠCh ap
Ġ= =====
ĠDe ath
Ġcommu tator
CV PR
v u
Ġg rounds
/ ",
Ġ} (\
LA ST
Ġapproxi mating
Î º
source forge
Ġattemp ting
Ġac tively
tite m
it ored
Eng lish
ĠAn th
Ġattra cted
s ched
Ġn odal
pe ople
oun ters
lec tively
Ġk illing
Ġbar riers
ĠBri an
p rivacy
Ġ= -
Ġso il
c w
ĠB ottom
b anner
S lide
Av g
ĠM s
Ġcap s
0 60
in fer
ĠH ou
F ACE
is c
Ġ{ !
rou tes
Ġste m
Ġste el
Ġvola tility
id ge
') [
ĠFirst ly
ĠTer ms
ĠSV G
$ ''
P aren
m ia
Ġfila ments
W IDTH
Ġs creens
_{ _{\
Ġu uid
ĠL C
ĠSt one
Ġleg iti
fl align
ĠSE LECT
ĠB T
Ġobsta cles
Ġc ognitive
Ġaccomp lish
Ġswe et
= ,
Ġalgebra ically
log y
Corre ct
Ġemploy ment
mo v
Ġ` $
Ġas semble
FO UND
ct ype
"> .</
str and
Ġl uminous
Ġen th
jet brains
che v
Ġvirt ue
Ġm ounted
tex pr
Content Type
qu i
ĠU tils
Ġtang ential
gate way
thumb nail
Ġ$ >$
ĠCheck s
}} [\
H uman
0 40
le ast
Ġdi am
({ },
æ Į
Ġf lying
A f
cite alp
Bet ween
3 90
om aly
ĠV k
U r
ange vin
Ġampl ification
in ery
Ġn umpy
ĠO DE
param ref
ric ulum
ĠGu id
... \
Ġdra ma
Ġtreat ments
ĠF IR
Ġst one
Ġmain tains
M arch
col ored
ĠK evin
PR B
en space
measure ments
Ġlegis lation
Ġtum or
Classif ication
HO W
Ġemit ting
W ater
32 4
Ġtrop ical
Big gl
P AGE
Ġp id
tro py
Ġclu mps
Or Empty
p oll
get Parent
re try
Ġsp ell
ID S
user Id
fe asible
A ds
f usion
Ġw aven
se ctor
=-=- =-=-
V an
R ound
Ġde mo
ograph ical
G ran
Ġin ventory
Ġl ifted
S ocial
I de
ĠQ ual
WIT H
ĠP lus
Ġso ck
xy z
Cal lable
ci i
inter cal
24 6
Ġd ating
ch ip
Ġe mu
Ġg lue
Ġ_ ("
Suff ix
}, ...,
ĠðŁ ĳ
â Ĩ
Ġele cted
Ġsuper potential
Ra ises
Ġreli ef
PO SE
Ġdivis ible
ĠDirect ory
remain ing
b A
g old
i ang
tag ged
ĠIden tity
ĠVis it
Ġeng agement
J P
' }$.
EQ UAL
Ġemplo ys
33 6
Ġbe an
33 5
Ġc ited
Ġ@ {
corre ction
Ġmask ed
Ġquanti tatively
ĠTran sport
Jo int
P as
Ġo wing
ĠE gy
ĠR yan
t g
ĠF lu
80 80
ĠHA VE
Ġl hs
Ġ* =
ke eper
ov y
Conn ections
ost ream
Ġmar tingale
triang ler
b ower
ãĥ ³
Phys ics
SE rror
ĠSing apore
è §
2 18
Ġra ising
T aylor
j math
ĠG Cs
Ġde coherence
ĠF ields
ĠH S
ĠI mm
ĠS equence
Doc s
Ġsc in
Ġtag ged
ĠU pper
Ġbelie ves
MLE lement
Ġst oring
m essaging
ĠĠĠĠĠĠĠĠĠĠĠĠĠĠĠĠ ĠĠĠĠĠĠĠĠĊ
D et
ĠS ales
comp utation
ĠS ie
ee ded
ĠV ER
Ġti ckets
P LAY
ull er
Ġbott leneck
b j
Ġv ent
ĠA belian
ri k
To Array
ĠHash Set
Ġa thle
cus sed
Ġnavig ate
g ive
ar poon
: ",
ĠS in
ach ie
ĠSh are
Ġproble matic
:: _
Ġapplic ability
Ġrepro duces
Ġs ou
ĠU UID
Ġinflation ary
H ANDLE
openc v
ine ma
ĠStar ting
ura tor
[] []{
ĠComp uting
\ )-
ĠD iff
Un ited
Trans late
v iz
con duct
ĠU TF
ass o
p ulse
List View
" ):
ĠR h
C MS
Ġ{ :
ĠH aving
ac ute
attach ment
prop ortion
ĠUS B
O VER
ĠCon v
oriz ons
> ")
Ġr pc
Ġtransform ing
B rown
J obs
Ġele ctions
â Ħ
Ġback wards
_* (\
is omorphism
Ġsti mu
getElementsBy TagName
comp osition
Big gr
ec raft
Ex ecu
pro x
ĠCred it
Ġan ticip
L V
Ġra tings
ig s
Ġop tics
arch ar
Ġdou bly
Ġsu i
.. ...
. ')
F K
aspect ratio
Sm ith
Ġtermin ate
Ignore Case
ĠA gg
Ã ĥ
Ġassoci ations
â Ī
De leted
la zy
ĠB all
Ġsub class
"> )</
similar ity
tic ing
Mix in
Ġwe aring
ĠV en
}}$ }
ĠK K
Long rightarrow
Ġshell s
Ġp d
ge m
T ax
tri ple
d ar
Con str
c rop
Str ong
In c
Ġele g
Eu Script
h owever
ĠK ent
}= [
real m
W M
Ġsudden ly
Ġ )$.
ĠAccording ly
ass ume
ĠDe termin
Ġs ans
un used
f ts
Ġmedic ine
Ġdes erial
{+ }
appropri ate
Ð» Ð¸
ĠCh anges
Ġi v
Ġsustain able
Ġlight s
Ġcomm uting
U IT
Ġcompac tification
Ġinter rupt
Ġlock down
Ġcharacter izing
Sub scribe
Des criptors
Ġre versal
ĠPers onal
Con struction
At Index
ĠUs age
me th
ter y
Ġtool tip
ti r
box es
Ġbounded ness
Ð» Ñı
Ġprofession als
de gr
ĠBern oulli
ĠC N
sta tistical
Ġc ow
0 18
B la
W u
MO VE
ĠT ro
ĠC AN
Ġsort ing
ss f
Ġcross ings
Ġmathema tics
Ġinter play
Ġmonth ly
Render ing
aff ine
fra ct
Ġelse if
}- (
Ġpre condition
host s
Ġschema tic
) ");
vi k
24 9
Ġappreci ate
fla vor
Ġelim ination
ĠThrough out
W itten
ĠI con
Ġexp ense
ä¸ º
un til
ĠĠĠĠĠĠĠĠĠĠĠ Ċ
triangler ight
Extra ctor
eg as
X R
Ġf ading
Inter action
Ġcoordin ation
Action Bar
Mar shaller
c ord
S IG
s ink
Ġa warded
Ġord inal
suc ceq
rect angle
Ú ©
Ġenc omp
in ating
G lob
Ġemer ges
ĠSaf ety
Ġli kes
ĠU INT
Ġpro tot
66 7
Ġlo an
EN SION
ĠCustom er
I FT
ĠA mb
Bu ffers
Sim ons
N or
S tation
] }{\
PE G
ĠE ver
For Key
play ers
Ġhit ting
ĠI r
wh eel
inter est
ĠF ail
================ ========
In herited
ard o
olog ist
ĠM ask
ĠS lo
ĠD un
ad get
Ġdim in
Ġorigin ating
COMM AND
Ġhist ories
en ched
Ġgeneral ised
pattern s
zh ou
d it
Ġar ts
occ up
Ġs acr
es tions
hol omorphic
ĠB road
30 8
Ġre jection
Thread s
in ely
Ð¾Ð ³
Ġpack ed
om on
Tech n
k v
mux er
De partment
ĠSte phen
Poly gon
SNAP SHOT
pos able
ĠLet t
Ġcont rac
ER O
defin itions
Ġ= (
24 4
w g
Ġheav ier
2 99
get C
Ġweek ly
Ġma tro
Ġbin omial
Dire ctive
ĠBe the
W illi
Ġa mple
Ġper colation
ĠWeb site
cred it
Ġgeometr ically
in ch
arch itecture
Repe at
f am
ĠI ra
Ġ}} </
loy d
ĠCalc ulate
Ġantic ipated
s x
enn es
Ġprog ression
ĠScot land
> ]
_{ [\
Ġ\; .
ĠIs lands
Spec ify
ĠOx ford
Ġparameter ization
Ġsing er
t argets
The ir
Ġk ilo
Ġloc ate
Ġh over
ĠMa gazine
lexi ble
B ank
color box
d P
Ġd ial
Ġw elfare
ck y
M ULT
Ġlog istic
ĠSh er
ĠConn ect
Ġstre ets
Ġto m
observ able
$ ^+$
Bo ost
Ġabsor bing
ĠCap itol
ĠI a
ĠW riting
id ently
ĠProp Types
Up dates
ĠN an
Ġc ensus
Ġimp orted
sub fig
Ġcompris ing
Ġautoma ton
Ġrestric ting
Ġc ata
}/ (
ĠV A
24 3
pr incipal
Ġsol itons
38 6
9 80
eff iciency
Ġcovari ates
Ġg allery
H ierarchy
Ġf iring
ĠM SSM
Ġen large
Ġwork load
ĠLorentz ian
pub lisher
sc apes
List en
co il
ĠD ise
ĠDe faults
Depend encies
z ag
ĠS creen
gra des
8 000
S y
ĠR HS
ĠGrass mann
q g
Ġchar ts
let eness
rol led
"> @
fra structure
pl anner
ĠPart ners
Ġani mated
J J
datab ind
pr ising
Ro les
lin eno
_+ ,
ÑĨ Ð¸
"> =</
ĠP G
depend ing
Ġhome omorphism
m ong
}} |\
op ro
av or
ĠSp lit
S orted
ĠM LP
'] [
f ib
ĠM echan
Ġqu aternion
25 9
ĠLe aders
FAIL URE
}}_{ {\
Å Ĥ
conn ector
_{ *}
pro be
Ġquan tified
g age
Ġw inding
igu ing
Ġconf ident
C ra
l id
o ves
vers es
ĠSim on
Ġunivers ality
B OO
AC C
Pub Key
ĠHub bard
Ġv ocabulary
Bo ard
Buffer ed
Ġparticip ating
ĠE lection
Ġdecomp ositions
repe ated
ĠOpen SSL
+ ,
P ART
Ġg aming
IE LD
ĠM ul
Ġflu ids
ĠRo ss
Ġf uzzy
render ing
Ġi Phone
Ġun a
C ycle
Ġover rid
Ġsugges tion
T K
Ġcon test
Ġafter noon
recur sive
Ġ\ },
Ġh op
Ġ} ^
Ġswitch es
4 40
f ew
Di amond
ĠB ranch
RE L
/ ?
ĠPar ser
se ason
Ġgra ding
M en
ur u
typ ed
29 6
Ġlongit ude
DIS ABLE
E MPTY
R iemann
ĠPak istan
I LL
Ġtransmit ter
H ilbert
er ated
sup seteq
ayes ian
Ġsp ite
Ġ`` \
iso late
G ordon
ĠD iffer
Ġdo ors
Ġneighb ours
AX B
P lain
Ġintern ally
Ġgather ed
M gr
Ġasser tions
Ġsynthes ized
Ġheight s
ĠWork ing
Ġwatch ed
W O
erm ite
am ard
n th
Ġgroup oid
Ġcub es
ĠS ources
Ġvio lations
Ġout break
Ġs ick
work flow
') ^
rem um
Ġme ters
Ġcomp ositions
B re
Ġc aching
Ġvo ter
Ġsh el
by e
Ġs le
Ġti ps
ĠTrans fer
ĠThrow able
ĠPen nsylvania
log s
Tra its
unit ary
arc min
V i
Ġtra pping
ĠHar ris
] "
n ullable
Col lision
Ġrelig ion
ĠR AM
gh an
Ġdepth s
theore tical
ĠÐ½ Ð°
b mp
ĠM ail
ĠSa int
ch iral
hy brid
/ ************************************************************************
en ix
Ġb ending
Ġsta cks
ĠTh ings
A ware
ti mate
mark down
l if
Ġex iting
Char Field
r ub
s ensor
}$ ~\
char s
3 64
Ġun directed
s ers
ĠN IR
¼ </
N ear
is otropic
ĠSci entific
Q E
ĠC ME
ĠL ind
ĠU SD
ĠCon struction
Ġconju gacy
E OF
quoted bl
j unction
Mu tex
quan tity
Ġremn ant
al ready
Ġpay off
Ġra mp
rec ogn
Let t
ĠCo ordin
Ġbrand s
ĠðŁĳ ¼</
Ġra ces
bootstra pc
\ ^
enc er
Dis pose
Instance State
C ENTER
v w
32 9
Ġfol iation
ä ¼
clu des
At om
hib ition
Rect angle
bootstrapc dn
el rte
Ġtransp ose
Ġpre d
Ġreci procal
thes ize
ĠW as
0 23
Ġ$ +$
IF ICATION
Pro ducer
chro matic
Ġb rid
DO C
="# !"
Ġun correlated
cri ptions
V a
35 5
ĠCo oper
ĠPl anning
Ġcomfor table
)$ ]
Ġt one
ĠG reg
ĠCorre spon
ĠCam bridge
less ly
Ġrad ar
[ {
h ou
ĠAR M
ĠWik ipedia
ĠPro tection
ic ed
)) ]
Ġcar di
ĠG allery
mes on
> ?
}\, (
x d
per turbed
Un like
ä ¹
Ġf iction
ç ī
sp y
tit ution
Ġcor onal
acknowledge ments
P ark
text quotedbl
qu er
=" .
Ġspher ically
on na
ta ctic
)$ \\
indic ator
Con versely
Ġperiodic ity
Ġtele scopes
Der iv
Call ing
ject ory
Ġma c
Ġass essed
' />
ic ide
char At
spher ical
:: ~
ur ers
Get Type
ĠPo inter
, ,
B ounding
Ġla id
dis cussed
)| ^{
uk i
Ġassign ing
quark s
Ġgate way
ĠExp ected
G esture
ig ate
und o
Ġes c
Bu ilt
ACT IVE
zer os
ĠHol lywood
ĠMeta data
_{ <
Ġfore ver
Ġmu ons
å ¾
ian chi
>{ @
Ġpre view
Ġev t
ME TA
ĠSo ft
B lo
T CP
Ã ½
19 66
Ġtrans fers
Enc ryption
ĠG D
Ġcorre lators
Ġgra b
J av
ĠCall back
YY YY
c um
ai lo
Ġsimpl ification
x shift
ol id
ĠS av
ven ted
Ġst orm
cur vature
ver si
$ )}
rm s
Ġvictim s
C FT
Ġdevelop s
Ð¸ Ñģ
Ġdomin ating
" \
m il
ĠSta ff
SI M
symbol s
>: <
ĠD og
Integra tion
l hs
ag en
PO M
Ġweap ons
ĠStrate gy
Ġsp ir
Ġthem es
Ġenumer ation
ĠOffic er
J e
(\ |
ĠG un
comp any
Ġmand atory
repres ent
Ð°Ð½ Ð¸
c G
c T
l um
26 7
: _
Ġpublish er
inser tion
' }{\
st en
Ġenc ounters
Ġst uck
/* .
Com m
Ġmon odromy
ĠW ard
}_ -
app lications
La zy
ĠOr ig
Ġe cos
hol m
Ġch unks
ni kov
Ġroun ded
y x
Ġob li
pi ration
Ĺ ãģ
Ġno tably
Ġtarget ing
Ġmem ories
ĠJ OIN
Pro cedure
Ġ\ @
Ġreduction s
b ys
ĠW E
Ġanaly tics
ĠS MB
M ATCH
f ocused
ĠF ake
Ġconstruct s
sp er
ĠFore ign
cc er
root Scope
ick en
T om
F ourier
Ġarriv es
Ġb ib
Ġt aste
ĠDE LETE
Tri m
ĠL M
ordi on
å ī
op lan
: \,
D ensity
st rength
rag ged
j vm
si zes
Ġconduct ing
Ġmeet ings
d ney
for k
assert Raises
ref s
D ie
Ġqu ies
studi ed
F X
f olds
') =
Ġfin ance
per fect
Tr ust
C WE
ĠSpec ifies
ick et
ing ers
ãĤ ¹
}} }^
and as
table View
Ġmultip let
nes ota
Ġwith draw
upload s
Ġh urt
ĠV egas
ĠP BH
ĠD omin
ĠN H
Ġvis ually
pres erve
Ġun resolved
PF N
ĠU int
Mod ify
Ġaxi om
cos m
W elcome
user Agent
Ġpur ple
ĠColumb ia
"> {{
Ġoscil lators
!! !!
, (\
oun tains
ĠN K
Ġrep orter
ether lands
Ġid le
34 7
Ġdis tillation
F acebook
st ress
Ġsupp lement
g iving
Ġpress ures
D onald
MA IL
TO O
Ġdemand ing
f at
S parse
ĠR ank
ĠR ather
28 6
R v
28 7
Ġgu ests
ĠGR Bs
B roadcast
Q N
Ġab lation
Ġexam ining
ors es
j m
**************** ********
sc ence
rr bracket
ĠC amera
IG O
ĠIR S
w l
dire ctive
ert z
FI X
Ġpurch ased
M irror
Ġal cohol
Ġsemic lassical
pro logue
Ġtra dition
starts With
ed a
M artin
w char
Ġsp rintf
g row
Ġre size
ĠH eart
Ġne bula
Button s
J ul
Ġcoun cil
Ġdepart ure
Ġgu ided
ĠPar ticip
Ex isting
bit map
Ġintegra bility
xx xx
ĠHigh er
Ġann ulus
B all
ĠI EEE
Ġp x
child node
In ventory
ans en
Quan tity
ĠK S
top ological
PT S
ĠLim ited
35 7
Ġpoly g
LI ED
( ',
im mer
Ġ*/ ;
in ode
Ġflight s
4 60
K AN
Ġover whel
G U
Ġcon densed
Ġpre ci
Ġdec lar
Ġy esterday
Ġgra mmar
us ta
iqu eness
D at
c ms
h ear
Ġw orm
DE SCRIPT
Ġdep letion
B ob
me mc
app lied
resource GroupName
Ġrefere e
b lo
b box
Ø ¨
\ }^{
list eners
F all
ĉĉĉ čĊ
up ta
ĠD oug
Ġopp osition
ĠMc C
co ords
ĠB BC
$- $\
F ed
Ġt ank
v l
ĠS el
W ISE
@{ .}
track er
æ Ģ
ĠF ollow
ĠT an
con sumer
D rive
bu d
Bro ker
ran ges
format ter
po ster
Ġforecast ing
Ġsc ored
ĠFile s
Ġreci pe
H over
v ard
text backslash
Ġno va
________ ________
B eta
K A
po or
Ġfun ny
% ">
Ġdesign ated
ll bracket
where as
Ġdro pping
at on
ĠLi u
CON D
ĠS cale
ill en
Ġbu ying
O pacity
Ġl ifts
key frames
ug al
Equ ations
Coordin ate
Ã ¦
Ġconv ince
S equ
Mon o
Ġreg ulatory
ĠB urn
37 0
zon a
ĠS EC
$& $\
tes y
Ġcur v
ĠAct ually
Ġse aled
}\ }\
ĠCal endar
yc les
Ġrestric ts
luc ene
}} }$.
ĠG ate
Ġer up
Text Box
Ġcondition ing
Ġboun ce
ĠM ix
F lo
Hash Code
)\ |_
E uler
ĠF ace
ĠP et
Ġcomple ting
Ġconsu med
Ġmetallic ities
Ġconstitu ent
ĠCirc uit
l arg
pi ents
Ġ% (
light s
U uid
c andidate
25 00
vari ation
Version s
ĠDes cribe
Ġvor ticity
æ ģ
ĠH tml
Ġmin ority
Ġcomb at
], [
Ġsho pping
27 7
Ġpower ed
ĠS PE
ĠS DL
sp ira
ĠD ream
ĠSta tistics
è¦ ģ
34 6
cast le
enc rypted
Ġattra ctor
4 48
") ),
)] ^
L int
Ġpo set
ĠJ oh
hard ware
M el
P Q
Ġw it
Ġmaxim ization
]{ .
Ġco h
å Ŀ
ul in
Ġexam ination
G erman
P ing
s om
ĠS ong
Ġ{ -
and al
itro gen
Cont inu
Ġstrug g
Ġspace times
d as
l isted
subNav List
s ymp
ĠRe LU
Ġf p
ul li
gra ding
ctor al
f red
Ġ Ñĥ
Sh utdown
Ter ms
N an
P ause
sh utdown
25 8
mu ch
)) -
clear page
ĠV iet
ill ance
aa a
ĠGL enum
Gu ide
Ġob struction
morph ism
ĠTest ing
ĠS IL
neutr ino
K h
Ġcompact ly
ĠPer iod
F OS
p ane
ĠC ab
27 1
den ote
Ġneutr ons
ĠIndu stry
Ġ ----------------
S ib
li braries
x si
Ġen gines
B ell
Ġen orm
ĠArch itecture
mog orov
Ġs witched
d oxygen
b ab
AL LOW
UT C
ĠStr ong
hook s
a con
t te
Ġre interpret
dep loyment
Ġb s
ĠA venue
ts ch
set Name
ok u
Mar shal
Ġgen re
Ġclip board
k d
Ġ$ &$
26 9
ĠZ ero
Ġrestaur ants
s nap
re ver
ch ains
ĠS ix
ĠK B
semb ler
class Frame
ĠM ountain
Ġtyp ing
Ġat tain
ag le
ĠJ upiter
Clo sure
=" @{
User Id
ĠPer haps
D roid
Ġun used
AUT O
Ġt aught
Ġres um
Heading Color
ann y
Ġprob able
ph ore
eps fx
epsfx size
ter ritory
Ġpa use
contrib uting
ĠSum mer
it ure
to f
}_{ (\
ĠUp dated
ĠComp lete
ĠDiag nostic
Ġp ions
32 8
F u
Ġ` --
c ause
ir ty
ĠAl ert
R x
}}, {\
photon ui
h pl
Ġat titude
Ġget Name
orange hill
ĠFoot ball
orangehill dev
is abs
ĠC ele
Ġsoft max
Ġenem y
f undamental
exp ress
conj ug
q n
the ories
Ġad mitted
Ġnormal ised
Ġ- {\
Ġpre ced
os is
Ġver ifies
EN UM
Ġvis bl
Al ready
es pecially
Ġt abs
con tributions
ps fig
embed ding
Re trie
Ġab ort
&+ &
Ġbe er
Ġr ush
repres ented
à¥ į
I r
Ġl ighter
Ġout burst
iv ely
)\ ]
me eting
im ize
domin ant
ĠEli zabeth
Ġbo at
_{+ }
IN X
pri mitive
24 2
to Array
fin der
Ġequ ilibria
Con cept
(" _
Lay ers
b ine
r lap
ĠW ars
B lank
ĠK h
ij kl
ram es
Ġc able
rule d
é Ĺ
er b
ĠO pp
W ritable
ĠCl inton
E volution
ĠRE ST
Ġutili zes
Fin ish
ĠCommun ications
Ġelabor ate
sta ging
success ful
; ;
g ender
Ġaccompan ying
H alf
K F
p rom
ĠL MC
}) ),
ab und
Ġbur den
W all
ĠI B
âĦ ¢
B as
ENT S
_{\ ,
Comp act
Ġbit map
J MS
z k
Ass ertion
ĠAtt or
H AL
Y LE
Ġ: \
Ġlik ed
tr ically
ak en
reg istration
ket ch
Ġ. $$
d W
(" {
Temp lates
G ro
27 9
ĠC U
parse Int
aaaa aaaa
é Ļ
Ġspin ors
Insp ector
^{* }_{
K u
Ġa wards
stitu tional
32 3
local ly
Ġin decomposable
Ġsi bling
Work ing
ĠHar ry
Inf os
in variance
Ġdir ty
seman tic
g rant
Ġconflic ts
Å Ł
Ġ" ../
Ġcolle agues
Ġresemble s
Ġk in
8 64
ĠF D
ĠEast ern
md ash
ĠPhys ical
ensem ble
er on
get Int
{ ``
US A
Serial ized
ĠEd it
a q
AC L
stronom ical
S emantic
te o
Ġco operative
Ġrever sible
G PU
N ER
orbit al
Ġp kg
ro ck
ĠB attle
H at
ide a
no tice
Type Def
ĠB lu
f eld
Ġcla uses
Ġserial ize
Ġro lling
Aggreg ate
l j
Res pon
Sec ure
Con ditions
Ġunit arity
ĠB F
os ta
Ġcar riers
Ġon t
ĠB run
Ġsequential ly
}[ ]
add All
ivers ary
Ġab c
spec ially
ĠCl ifford
Ġf astest
t ls
Ġenc rypt
ĠGe o
Ġmim ic
Propag ation
oura ge
connect ing
Plan e
Ġphiloso phy
j om
Display Name
Ġredund ancy
ra ge
Ġdis s
d ou
wart z
mean ing
$-- $
' <
( [\
Ġbe ach
ĠV GG
Ex ceptions
ĠPro gress
Ġoscil latory
Ġob lig
Ch ars
Ġbu gs
ev y
err no
ĠReg Exp
ĠOper ations
ĠArch ive
ĠW IN
Ġes lint
25 1
Ġsatis factory
Ġhook s
Ġw s
sp lice
ĠP UR
IEEE eqnarray
n w
on z
Ġ" *
Ġent rop
i w
Ġref id
26 2
Ġ ------------------------------------------------
collection s
× ľ
ron ecker
ĠR an
Ġch ap
default Value
II mage
Ġnecess ity
ogen ic
W ould
D W
ĠL ewis
33 9
mag ic
{ ~
W ay
graph y
CH O
es a
Ġper mits
h ler
SP I
ING S
> {{
N LO
back ward
ĠC ould
ĠM atter
ĠF I
ment o
ĠN am
Et Al
æ Ń
re ma
re levant
ĠP N
RA W
ĠSy dney
IG H
oc entric
Ġad option
contro llers
)\ !
Ġflav ors
K V
L atest
ign e
OT A
ranch ise
Ġm ales
if false
ct an
so v
ĠG PS
Ġinv ocation
Ġencomp ass
Ġg ift
ĠB ow
Ġcan on
g ly
ers tein
ĠDef ense
Ġh opes
Ġprepar ing
ĠP ot
Ġsemis imple
Ġm useum
Ġal beit
Ġdisorder ed
ĉĉ ĠĠ
ĠB ou
Ġreflection s
W i
Ġwhere in
dete ctor
dote q
F ro
Ġdo i
*} %
0 90
ĠE ither
mock ito
p index
Ġr um
fore ign
ĠPack ages
Ġhem is
t um
ra ils
sh ifted
Un grouped
proj ective
Ġcra ck
ĠRay leigh
Ġhor se
Ġ) ^{
ĠIll inois
tr uc
Ġaff ili
colog y
Ġint rac
dis persion
Ġcharacter izes
Ġshe ets
H aw
Ġpre defined
Ġbo ys
f ro
Tr ump
Ġtransp arency
40 9
author ized
Ġcom oving
Ġgra ss
ĉĉĉĉĉĉĉĉ ĉĉĉĉĉ
$\ ;
ĠEx ecution
f id
ĠA k
ĠE E
18 00
Ġpers ist
Ġch ord
Ġch rome
Second ary
] }}
ĠComp are
long mapsto
Ġorigin ate
Ġc tor
Tool Strip
ĠSecond ly
ĠIn sert
Ġtra ced
Ġincrement al
P TR
Ġc of
Ġconver ging
eq z
c tivity
ph ic
Tra de
ding ton
Rem oved
PHP Excel
str on
BU F
æĪ Ĳ
phon on
}} )}
& )
Ġd g
ul pt
=\ ;
Gener ation
Match ing
ĠR aw
impro ved
Ġen velop
pop over
score s
FE ATURE
Work flow
ĠSa fe
o val
}} }$,
ĠG NU
Ġcol lapsed
Ġdomin ance
ĠG as
tis ation
ik a
Ġseem ingly
j un
Ġlocal ity
search Box
Ġd am
qu a
IN TEGER
26 6
rup al
ta tivity
ale ph
^{* }(
neutr on
ĠV R
^{+ }\
draw er
ãĤ ĭ
ec tively
Ġk itchen
ĠF it
è ¨
Ġgroup ing
44 4
Ġiter ated
ĠMon th
ĠAT LAS
ĠS olution
Ġ" __
P referred
ĠS imp
29 7
US H
Ġhost ing
s ong
H AS
Ġ[ _
ub a
ion ic
bar a
Ġpre sidential
32 6
Ġincre dible
Ġview port
ĠB og
Ġillumin ation
ĠC hat
Col s
cor o
ro ots
Block ly
Ġc ave
Ġ? ?
ĠAll en
Ġrepla ces
ta m
pre ced
Ġmorph ological
t bp
pro posed
Des ktop
A belian
ĠT ar
DEF IN
0 64
Ġse ats
z el
pp i
pix els
Enumer ator
ĠV L
Ġsamp ler
Ġarm y
pi o
Ġequ i
Ġsol vers
T an
ĠB SD
æģ ¯
Ġpo ison
ens on
L ater
Ġobe ys
F ran
Ġper ceived
G K
N d
il lo
Ġper spectives
Ġsh ots
Ġhyper parameter
Ġs sl
zz le
Mich ael
da o
Match ers
Ġpod cast
si le
æĸ °
Ġ'/ '
Jan uary
Ġbon us
| \\
Ġrep utation
node Type
Ġsuffer ed
Ġthink s
ĠB in
Ġsuff ers
Ġsto od
B ul
ma ble
v on
Ġnumer ator
Syn chron
Ġped estri
ge b
ĠPres ent
mar shall
è ½
te es
Ġdim er
Off ice
Ġeng aged
ĠF ormal
ĠU L
amb ers
)| _{
Ġci pher
em o
skip Nav
ock ey
Ġhospit ality
d rive
k ia
Ġface t
ĠPDF s
SO s
Pr inter
Ġhor ror
E scape
Ġj am
Cur rency
ĠWork s
ST ER
Ð¾ Ð½
ĠGener ation
ĠGL int
mat ure
Ġsee ks
Ġrepe ating
Ġver b
b oun
Ġ ç
The ory
ĠBack ground
[...]
