{
  "version": "1.0",
  "truncation": null,
  "padding": null,
  "added_tokens": [
    {
      "id": 0,
      "content": "[UNK]",
      "single_word": false,
      "lstrip": false,
      "rstrip": false,
      "normalized": false,
      "special": true
    }
  ],
  "normalizer": null,
  "pre_tokenizer": {
    "type": "Sequence",
    "pretokenizers": [
      {
        "type": "Digits",
        "individual_digits": false
      },
      {
        "type": "ByteLevel",
        "add_prefix_space": false,
        "trim_offsets": true,
        "use_regex": true
      }
    ]
  },
  "post_processor": null,
  "decoder": null,
  "model": {
    "type": "BPE",
    "dropout": null,
    "unk_token": "[UNK]",
    "continuing_subword_prefix": null,
    "end_of_word_suffix": null,
    "fuse_unk": false,
    "byte_fallback": false,
    "vocab": {
      "[UNK]": 0,
      "!": 1,
      "\"": 2,
      "#": 3,
      "$": 4,
      "%": 5,
      "&": 6,
      "'": 7,
      "(": 8,
      ")": 9,
      "*": 10,
      "+": 11,
      ",": 12,
      "-": 13,
      ".": 14,
      "/": 15,
      "0": 16,
      "1": 17,
      "2": 18,
      "3": 19,
      "4": 20,
      "5": 21,
      "6": 22,
      "7": 23,
      "8": 24,
      "9": 25,
      ":": 26,
      ";": 27,
      "<": 28,
      "=": 29,
      ">": 30,
      "?": 31,
      "@": 32,
      "A": 33,
      "B": 34,
      "C": 35,
      "D": 36,
      "E": 37,
      "F": 38,
      "G": 39,
      "H": 40,
      "I": 41,
      "J": 42,
      "K": 43,
      "L": 44,
      "M": 45,
      "N": 46,
      "O": 47,
      "P": 48,
      "Q": 49,
      "R": 50,
      "S": 51,
      "T": 52,
      "U": 53,
      "V": 54,
      "W": 55,
      "X": 56,
      "Y": 57,
      "Z": 58,
      "[": 59,
      "\\": 60,
      "]": 61,
      "^": 62,
      "_": 63,
      "`": 64,
      "a": 65,
      "b": 66,
      "c": 67,
      "d": 68,
      "e": 69,
      "f": 70,
      "g": 71,
      "h": 72,
      "i": 73,
      "j": 74,
      "k": 75,
      "l": 76,
      "m": 77,
      "n": 78,
      "o": 79,
      "p": 80,
      "q": 81,
      "r": 82,
      "s": 83,
      "t": 84,
      "u": 85,
      "v": 86,
      "w": 87,
      "x": 88,
      "y": 89,
      "z": 90,
      "{": 91,
      "|": 92,
      "}": 93,
      "~": 94,
      "¡": 95,
      "¢": 96,
      "£": 97,
      "¤": 98,
      "¥": 99,
      "¦": 100,
      "§": 101,
      "¨": 102,
      "©": 103,
      "ª": 104,
      "«": 105,
      "¬": 106,
      "®": 107,
      "¯": 108,
      "°": 109,
      "±": 110,
      "²": 111,
      "³": 112,
      "´": 113,
      "µ": 114,
      "¶": 115,
      "·": 116,
      "¸": 117,
      "¹": 118,
      "º": 119,
      "»": 120,
      "¼": 121,
      "½": 122,
      "¾": 123,
      "¿": 124,
      "Â": 125,
      "Ã": 126,
      "Ä": 127,
      "Å": 128,
      "Æ": 129,
      "Ç": 130,
      "È": 131,
      "É": 132,
      "Ê": 133,
      "Ë": 134,
      "Ì": 135,
      "Í": 136,
      "Î": 137,
      "Ï": 138,
      "Ð": 139,
      "Ñ": 140,
      "Ò": 141,
      "Ó": 142,
      "Ô": 143,
      "Õ": 144,
      "Ö": 145,
      "×": 146,
      "Ø": 147,
      "Ù": 148,
      "Ú": 149,
      "Û": 150,
      "Ü": 151,
      "Ý": 152,
      "Þ": 153,
      "ß": 154,
      "à": 155,
      "á": 156,
      "â": 157,
      "ã": 158,
      "ä": 159,
      "å": 160,
      "æ": 161,
      "ç": 162,
      "è": 163,
      "é": 164,
      "ê": 165,
      "ë": 166,
      "ì": 167,
      "í": 168,
      "î": 169,
      "ï": 170,
      "ð": 171,
      "ò": 172,
      "ó": 173,
      "ô": 174,
      "Ā": 175,
      "ā": 176,
      "Ă": 177,
      "ă": 178,
      "Ą": 179,
      "ą": 180,
      "Ć": 181,
      "ć": 182,
      "Ĉ": 183,
      "ĉ": 184,
      "Ċ": 185,
      "ċ": 186,
      "Č": 187,
      "č": 188,
      "Ď": 189,
      "ď": 190,
      "Đ": 191,
      "đ": 192,
      "Ē": 193,
      "ē": 194,
      "Ĕ": 195,
      "ĕ": 196,
      "Ė": 197,
      "ė": 198,
      "Ę": 199,
      "ę": 200,
      "Ě": 201,
      "ě": 202,
      "Ĝ": 203,
      "ĝ": 204,
      "Ğ": 205,
      "ğ": 206,
      "Ġ": 207,
      "ġ": 208,
      "Ģ": 209,
      "ģ": 210,
      "Ĥ": 211,
      "ĥ": 212,
      "Ħ": 213,
      "ħ": 214,
      "Ĩ": 215,
      "ĩ": 216,
      "Ī": 217,
      "ī": 218,
      "Ĭ": 219,
      "ĭ": 220,
      "Į": 221,
      "į": 222,
      "İ": 223,
      "ı": 224,
      "Ĳ": 225,
      "ĳ": 226,
      "Ĵ": 227,
      "ĵ": 228,
      "Ķ": 229,
      "ķ": 230,
      "ĸ": 231,
      "Ĺ": 232,
      "ĺ": 233,
      "Ļ": 234,
      "ļ": 235,
      "Ľ": 236,
      "ľ": 237,
      "Ŀ": 238,
      "ŀ": 239,
      "Ł": 240,
      "ł": 241,
      "Ń": 242,
      "ĠĠ": 243,
      "ĠĠĠĠ": 244,
      "th": 245,
      "in": 246,
      "on": 247,
      "er": 248,
      "Ġa": 249,
      "Ġth": 250,
      "re": 251,
      "ti": 252,
      "en": 253,
      "Ġthe": 254,
      "or": 255,
      "al": 256,
      "Ġs": 257,
      "te": 258,
      "Ġc": 259,
      "le": 260,
      "Ġ\\": 261,
      "is": 262,
      "tion": 263,
      "ar": 264,
      "an": 265,
      "Ġo": 266,
      "ĠĠĠ": 267,
      "es": 268,
      "Ġ$": 269,
      "Ġf": 270,
      "ĠĠĠĠĠĠĠĠ": 271,
      "Ġt": 272,
      "Ġp": 273,
      "Ġw": 274,
      "ro": 275,
      "ma": 276,
      "de": 277,
      "ing": 278,
      "Ġin": 279,
      "Ġb": 280,
      "ta": 281,
      "Ġof": 282,
      "la": 283,
      "se": 284,
      "Ġan": 285,
      "ra": 286,
      "ic": 287,
      "me": 288,
      "ig": 289,
      "{\\": 290,
      "at": 291,
      "it": 292,
      "st": 293,
      "Ġand": 294,
      "Ġto": 295,
      "el": 296,
      "Ġd": 297,
      "ent": 298,
      "ou": 299,
      "Ġre": 300,
      "Ġn": 301,
      "Ġe": 302,
      "ce": 303,
      "Ġ(": 304,
      "Ġh": 305,
      "ec": 306,
      "ge": 307,
      "ol": 308,
      "si": 309,
      "mp": 310,
      "Ġ=": 311,
      "Ġis": 312,
      "ĠĠĠĠĠĠĠ": 313,
      "ed": 314,
      "_{": 315,
      "čĊ": 316,
      "qu": 317,
      "ch": 318,
      "Ġm": 319,
      "lo": 320,
      "tr": 321,
      "ss": 322,
      "un": 323,
      "ation": 324,
      "Th": 325,
      "Ġ$\\": 326,
      "ur": 327,
      "ĉĉ": 328,
      "id": 329,
      "il": 330,
      "Ġfor": 331,
      "</": 332,
      "ve": 333,
      "ter": 334,
      "ul": 335,
      "ver": 336,
      "math": 337,
      "ly": 338,
      "ot": 339,
      "end": 340,
      "if": 341,
      "um": 342,
      "as": 343,
      "=\"": 344,
      "et": 345,
      "Ġcon": 346,
      ");": 347,
      "Ġ&": 348,
      "ith": 349,
      "--": 350,
      "ĠS": 351,
      "ht": 352,
      "Ġg": 353,
      "Ġv": 354,
      "Ġ<": 355,
      "ction": 356,
      "Ġthat": 357,
      "}\\": 358,
      "ite": 359,
      "Ġ{": 360,
      "om": 361,
      "be": 362,
      "Ġon": 363,
      "}$": 364,
      "ted": 365,
      "^{": 366,
      "ad": 367,
      "ph": 368,
      "am": 369,
      "ct": 370,
      "cal": 371,
      "ĠĊ": 372,
      "us": 373,
      "ref": 374,
      "ĠC": 375,
      "Ġbe": 376,
      "The": 377,
      "ut": 378,
      "xt": 379,
      "Ġl": 380,
      "ĠA": 381,
      "ow": 382,
      "Ġde": 383,
      "ure": 384,
      "ble": 385,
      "ĠĠĠĠĠĠĠĠĠĠĠ": 386,
      "ri": 387,
      "pp": 388,
      "ame": 389,
      "sp": 390,
      "ĠI": 391,
      "Ġwith": 392,
      "Ġpro": 393,
      "gin": 394,
      "Ġwh": 395,
      "//": 396,
      "ight": 397,
      "ub": 398,
      "di": 399,
      "}}": 400,
      "ine": 401,
      "ode": 402,
      "Ġ*": 403,
      "Ġwe": 404,
      "ts": 405,
      "ate": 406,
      "od": 407,
      "(\\": 408,
      "Ġal": 409,
      "ck": 410,
      "ir": 411,
      "Ġ}": 412,
      "Ġma": 413,
      "20": 414,
      "ere": 415,
      "li": 416,
      "begin": 417,
      "op": 418,
      "and": 419,
      "fra": 420,
      "ue": 421,
      "Ġas": 422,
      "ore": 423,
      "Ġby": 424,
      "\">": 425,
      "ity": 426,
      "ĠM": 427,
      "Ġare": 428,
      "Ġex": 429,
      "_{\\": 430,
      "ĠF": 431,
      ")$": 432,
      "ft": 433,
      "ĠĠĠĠĠĠĠĠĠĠĠĠĠĠĠĠ": 434,
      "omp": 435,
      "lass": 436,
      "per": 437,
      "ment": 438,
      "tic": 439,
      "der": 440,
      "ĠP": 441,
      "ew": 442,
      "equ": 443,
      "Ġthis": 444,
      "ess": 445,
      "pe": 446,
      "}{": 447,
      "ĠĠĠĠĠ": 448,
      "rom": 449,
      "im": 450,
      "text": 451,
      "ect": 452,
      "ase": 453,
      "frac": 454,
      "mb": 455,
      "ĠB": 456,
      "up": 457,
      "},": 458,
      "da": 459,
      "ĠL": 460,
      "iz": 461,
      "ĠThe": 462,
      "right": 463,
      "cite": 464,
      "our": 465,
      "Ġor": 466,
      "ĠR": 467,
      "Ġi": 468,
      "ĠT": 469,
      "bel": 470,
      "to": 471,
      "Ġ\"": 472,
      "Ġ-": 473,
      "eq": 474,
      "})": 475,
      "Ġit": 476,
      "()": 477,
      "sion": 478,
      "ĠD": 479,
      "..": 480,
      "pa": 481,
      "ist": 482,
      "for": 483,
      "get": 484,
      "ĠH": 485,
      "Ġat": 486,
      "res": 487,
      "int": 488,
      "In": 489,
      "**": 490,
      "âĢ": 491,
      "ys": 492,
      "ran": 493,
      "con": 494,
      "label": 495,
      "oun": 496,
      "tions": 497,
      "ĠW": 498,
      "ĠN": 499,
      "Ġme": 500,
      "Ġsh": 501,
      "lu": 502,
      "urn": 503,
      "ĠE": 504,
      "age": 505,
      "par": 506,
      "Ġif": 507,
      "Ġfrom": 508,
      "00": 509,
      "Ġclass": 510,
      "mathb": 511,
      ",\\": 512,
      "fig": 513,
      "lic": 514,
      "ty": 515,
      "ign": 516,
      "low": 517,
      "ke": 518,
      "left": 519,
      "ff": 520,
      "Ġ+": 521,
      "ome": 522,
      "ort": 523,
      "Ġch": 524,
      "$,": 525,
      "rm": 526,
      "$.": 527,
      "ĠG": 528,
      "----": 529,
      "==": 530,
      "Ġcan": 531,
      "os": 532,
      "equation": 533,
      "Ġst": 534,
      "Ġcomp": 535,
      "iv": 536,
      "the": 537,
      "ile": 538,
      "mathcal": 539,
      "use": 540,
      "ave": 541,
      "ds": 542,
      "turn": 543,
      "all": 544,
      "ap": 545,
      "Ġun": 546,
      "Ġsu": 547,
      "ence": 548,
      "Ġpar": 549,
      "ich": 550,
      "ers": 551,
      "unction": 552,
      "est": 553,
      "}.": 554,
      "av": 555,
      "tive": 556,
      "tri": 557,
      "pro": 558,
      "tial": 559,
      "cc": 560,
      "ener": 561,
      "Ġ'": 562,
      "ther": 563,
      "}(": 564,
      "ld": 565,
      "ga": 566,
      "ary": 567,
      "ant": 568,
      "du": 569,
      "able": 570,
      "Ġy": 571,
      "line": 572,
      "ata": 573,
      "}^": 574,
      "ĠTh": 575,
      "Ġle": 576,
      "ĠĠĠĠĠĠĠĠĠĠĠĠĠĠĠ": 577,
      "Ġse": 578,
      "Ġsta": 579,
      "}_": 580,
      "are": 581,
      "mu": 582,
      "~\\": 583,
      "ach": 584,
      "set": 585,
      ").": 586,
      "alue": 587,
      "ĠO": 588,
      "pha": 589,
      "til": 590,
      "oc": 591,
      "row": 592,
      "odel": 593,
      "ype": 594,
      "ult": 595,
      "tim": 596,
      "str": 597,
      "Ġnot": 598,
      "bu": 599,
      "201": 600,
      "ell": 601,
      "alpha": 602,
      "Ġ[": 603,
      "og": 604,
      "),": 605,
      "Ġhave": 606,
      "ill": 607,
      "ĠIn": 608,
      "ser": 609,
      "Ġob": 610,
      "Ġwhich": 611,
      "ms": 612,
      ")\\": 613,
      "fer": 614,
      "Ġres": 615,
      "Ġdis": 616,
      "ance": 617,
      "psi": 618,
      "Ġlo": 619,
      "cri": 620,
      "ang": 621,
      "ber": 622,
      "ray": 623,
      "Ġ//": 624,
      "fin": 625,
      "lation": 626,
      "Ġfunction": 627,
      "ĉĉĉĉ": 628,
      "fa": 629,
      "Ġ</": 630,
      "../": 631,
      "mple": 632,
      "ab": 633,
      "ide": 634,
      "10": 635,
      "->": 636,
      "tain": 637,
      "Ġr": 638,
      "$\\": 639,
      "ource": 640,
      "ag": 641,
      "::": 642,
      "ari": 643,
      "Ġsp": 644,
      "Ġreturn": 645,
      "Ġus": 646,
      "pt": 647,
      "Ġapp": 648,
      "ay": 649,
      "Ġpo": 650,
      "ical": 651,
      "clu": 652,
      "out": 653,
      "Con": 654,
      "ind": 655,
      "ork": 656,
      "tring": 657,
      "po": 658,
      "amma": 659,
      "over": 660,
      "ens": 661,
      "ong": 662,
      "ire": 663,
      "vel": 664,
      "_\\": 665,
      "Ġk": 666,
      "sub": 667,
      "=\\": 668,
      "ex": 669,
      "ack": 670,
      "Ġexp": 671,
      "Ġne": 672,
      "iel": 673,
      "ho": 674,
      "Ġ\\\\": 675,
      "so": 676,
      "Ġset": 677,
      "ject": 678,
      "dot": 679,
      "}_{": 680,
      "Ġuse": 681,
      "of": 682,
      "}^{": 683,
      "mathbb": 684,
      "ial": 685,
      "time": 686,
      "ĠU": 687,
      "Ġte": 688,
      "ies": 689,
      "igma": 690,
      "times": 691,
      "ac": 692,
      "bo": 693,
      "Ġall": 694,
      "Ġqu": 695,
      "-\\": 696,
      "Ġdata": 697,
      "ans": 698,
      "sum": 699,
      "Ġj": 700,
      "Ġ@": 701,
      "ml": 702,
      "put": 703,
      "Ġhas": 704,
      "ding": 705,
      "^{\\": 706,
      "ree": 707,
      "pi": 708,
      "Ġla": 709,
      "phi": 710,
      "Ġad": 711,
      "ory": 712,
      "ak": 713,
      "gra": 714,
      "Ġ{\\": 715,
      "em": 716,
      "we": 717,
      "div": 718,
      "ublic": 719,
      "act": 720,
      "ould": 721,
      "umber": 722,
      "Ġ/": 723,
      "tes": 724,
      "ated": 725,
      "sh": 726,
      "Ġnew": 727,
      "ion": 728,
      "mbda": 729,
      "ous": 730,
      "lambda": 731,
      "idth": 732,
      "Ġmodel": 733,
      "Ġra": 734,
      "ren": 735,
      "essage": 736,
      "bf": 737,
      "app": 738,
      "enc": 739,
      "Ġinter": 740,
      "(\"": 741,
      "min": 742,
      "ps": 743,
      "own": 744,
      "Ġar": 745,
      "tation": 746,
      "lon": 747,
      "Ġwas": 748,
      "ard": 749,
      "\",": 750,
      "Ġper": 751,
      "ĠV": 752,
      "Ġno": 753,
      "ator": 754,
      "></": 755,
      "yste": 756,
      "();": 757,
      "ull": 758,
      "com": 759,
      "Ġone": 760,
      "ations": 761,
      "âĢĻ": 762,
      "ĠJ": 763,
      "bar": 764,
      "ents": 765,
      "ular": 766,
      "ice": 767,
      "ll": 768,
      "19": 769,
      "Ġcom": 770,
      "Ġwill": 771,
      "tribu": 772,
      "section": 773,
      "Ġdo": 774,
      "mathbf": 775,
      "ption": 776,
      "vi": 777,
      "wo": 778,
      "',": 779,
      "Ġpa": 780,
      "ting": 781,
      "ne": 782,
      "Ġpre": 783,
      "hat": 784,
      "col": 785,
      "ize": 786,
      "mport": 787,
      "span": 788,
      "psilon": 789,
      "><": 790,
      "item": 791,
      "Ġev": 792,
      "ror": 793,
      "Ġass": 794,
      "one": 795,
      "und": 796,
      "--------": 797,
      "ollow": 798,
      "sigma": 799,
      "../../": 800,
      "Ġ:": 801,
      "cre": 802,
      "olu": 803,
      "eta": 804,
      "ost": 805,
      "))": 806,
      "ded": 807,
      "name": 808,
      "Ġ.": 809,
      "Ġ(\\": 810,
      "no": 811,
      "align": 812,
      "12": 813,
      "tit": 814,
      "ĠK": 815,
      "lay": 816,
      "igh": 817,
      "Ġdif": 818,
      "^{-": 819,
      "}{\\": 820,
      "ties": 821,
      "Ġsa": 822,
      "Re": 823,
      "ual": 824,
      "ĠWe": 825,
      "irst": 826,
      "ip": 827,
      "beta": 828,
      "Ġcont": 829,
      "ust": 830,
      "Ġline": 831,
      "Ġbo": 832,
      "thod": 833,
      "ok": 834,
      "tilde": 835,
      "yn": 836,
      "Ġx": 837,
      "ield": 838,
      "Ġ|": 839,
      "ark": 840,
      "ix": 841,
      "array": 842,
      "ound": 843,
      "form": 844,
      "Ġfollow": 845,
      "ĉĉĉ": 846,
      "wh": 847,
      "roup": 848,
      "Ġname": 849,
      "Ġconst": 850,
      "Ġequ": 851,
      "+\\": 852,
      "ast": 853,
      "orre": 854,
      "ection": 855,
      "var": 856,
      "sed": 857,
      "Ġtwo": 858,
      "Ġver": 859,
      "\\\\": 860,
      "Ġtran": 861,
      "mathrm": 862,
      "del": 863,
      "Ġvalue": 864,
      "****": 865,
      "ĠĠĠĠĠĠĠĠĠ": 866,
      "Ġout": 867,
      "gamma": 868,
      "xi": 869,
      "width": 870,
      "ature": 871,
      "Pro": 872,
      "ics": 873,
      "Ġ*/": 874,
      "*}": 875,
      "cent": 876,
      "====": 877,
      "html": 878,
      "Ġalso": 879,
      "ule": 880,
      "orm": 881,
      "theta": 882,
      "We": 883,
      "sc": 884,
      "Ġgener": 885,
      "ear": 886,
      "Ġsub": 887,
      "sta": 888,
      "gh": 889,
      "alu": 890,
      "sition": 891,
      "Ex": 892,
      "ments": 893,
      "ameter": 894,
      "Ġtime": 895,
      "ink": 896,
      "rho": 897,
      "Ġen": 898,
      "Ġour": 899,
      "Ġhref": 900,
      "ystem": 901,
      "delta": 902,
      "Ġthere": 903,
      "oid": 904,
      "ces": 905,
      "^\\": 906,
      "figure": 907,
      "uct": 908,
      "ĠĠĠĠĠĠĠĠĠĠĠĠĠĠĠĠĠĠĠ": 909,
      "Ġtr": 910,
      "source": 911,
      "]{": 912,
      "Ġsuch": 913,
      "mation": 914,
      "Ġtype": 915,
      "Ġint": 916,
      ")}": 917,
      "Ġrep": 918,
      "200": 919,
      "Ġwhere": 920,
      "ace": 921,
      "leq": 922,
      "Ġstr": 923,
      "clude": 924,
      "Ġhe": 925,
      "Ġpublic": 926,
      "tau": 927,
      "ER": 928,
      "('": 929,
      "message": 930,
      "ob": 931,
      "ger": 932,
      "spon": 933,
      "led": 934,
      "'s": 935,
      "Ġcase": 936,
      "inal": 937,
      "Ġcol": 938,
      "ĠThis": 939,
      "Ġdiffer": 940,
      "this": 941,
      "trans": 942,
      "ish": 943,
      "cdot": 944,
      "$-": 945,
      "Ġover": 946,
      "Ġab": 947,
      "Ġonly": 948,
      "tical": 949,
      "dex": 950,
      "Ġ_": 951,
      "Ġro": 952,
      "}$,": 953,
      "Ġso": 954,
      "Ġbet": 955,
      "pend": 956,
      "Name": 957,
      "}$.": 958,
      "big": 959,
      "Ġdes": 960,
      "Ġco": 961,
      "Ġget": 962,
      "Ġbut": 963,
      "Ġany": 964,
      "Ġcorre": 965,
      "Ġph": 966,
      "ors": 967,
      "ord": 968,
      "Ġgiv": 969,
      "fo": 970,
      "}(\\": 971,
      "Ġmore": 972,
      "Ġop": 973,
      "Ġthen": 974,
      "Ġtra": 975,
      "art": 976,
      "table": 977,
      "partial": 978,
      "Ġshow": 979,
      "eqref": 980,
      "ON": 981,
      "Ġu": 982,
      "mo": 983,
      "serv": 984,
      "nu": 985,
      "Ġeach": 986,
      "code": 987,
      "Ġ=>": 988,
      "Ġ#": 989,
      "Ġreg": 990,
      "11": 991,
      "Ġacc": 992,
      "cript": 993,
      "ility": 994,
      "Ġ`": 995,
      "ose": 996,
      "pace": 997,
      "Ġother": 998,
      "Ġid": 999,
      "Ġsome": 1000,
      "he": 1001,
      "cap": 1002,
      "ults": 1003,
      "import": 1004,
      "Ġele": 1005,
      "dic": 1006,
      "Ġspec": 1007,
      "alse": 1008,
      "td": 1009,
      "/>": 1010,
      "Ġup": 1011,
      "eng": 1012,
      "IN": 1013,
      "Type": 1014,
      "fty": 1015,
      "infty": 1016,
      "arrow": 1017,
      "String": 1018,
      "lock": 1019,
      "tex": 1020,
      "ise": 1021,
      "ample": 1022,
      "omega": 1023,
      "riv": 1024,
      "Ġwhen": 1025,
      "fore": 1026,
      "eqn": 1027,
      "Ġthan": 1028,
      "dition": 1029,
      "ween": 1030,
      "work": 1031,
      "ert": 1032,
      "Id": 1033,
      "ud": 1034,
      "tab": 1035,
      "ĠâĢ": 1036,
      "Ġfirst": 1037,
      "its": 1038,
      "gle": 1039,
      "De": 1040,
      "ension": 1041,
      "elf": 1042,
      "space": 1043,
      "\"/>": 1044,
      "Del": 1045,
      "emp": 1046,
      "Ġnumber": 1047,
      "|\\": 1048,
      "16": 1049,
      "ince": 1050,
      "ges": 1051,
      "ze": 1052,
      "Ġimp": 1053,
      "Ġyou": 1054,
      "return": 1055,
      "Ġrequ": 1056,
      "ST": 1057,
      "##": 1058,
      "Ġext": 1059,
      "rent": 1060,
      "comp": 1061,
      "For": 1062,
      "Ġcur": 1063,
      "Ġer": 1064,
      "def": 1065,
      "ula": 1066,
      "Delta": 1067,
      "ton": 1068,
      "Ġli": 1069,
      "Ġvari": 1070,
      "ount": 1071,
      "Ġusing": 1072,
      "Ġbetween": 1073,
      "dd": 1074,
      "tern": 1075,
      "mall": 1076,
      "type": 1077,
      "tric": 1078,
      "param": 1079,
      "ild": 1080,
      "ura": 1081,
      "Ġthese": 1082,
      "sider": 1083,
      "key": 1084,
      "Ġnon": 1085,
      "quad": 1086,
      "RE": 1087,
      "Ġmethod": 1088,
      "ress": 1089,
      "tif": 1090,
      "En": 1091,
      "ves": 1092,
      "Ġself": 1093,
      "Ġtheir": 1094,
      "Ġused": 1095,
      "Ġtrans": 1096,
      "Ġits": 1097,
      "ann": 1098,
      "eck": 1099,
      "data": 1100,
      "15": 1101,
      "log": 1102,
      "Res": 1103,
      "ced": 1104,
      "translation": 1105,
      "tt": 1106,
      "Ġdefin": 1107,
      "ulti": 1108,
      "cted": 1109,
      "gy": 1110,
      "cess": 1111,
      "Ġ--": 1112,
      "\\,": 1113,
      "ange": 1114,
      "sel": 1115,
      "olution": 1116,
      "Ġwork": 1117,
      "ie": 1118,
      "Ch": 1119,
      "sf": 1120,
      "Ġgra": 1121,
      "Ġ$(": 1122,
      "sec": 1123,
      "ia": 1124,
      "Ġ>": 1125,
      "ization": 1126,
      "su": 1127,
      "rt": 1128,
      "include": 1129,
      "Ġhigh": 1130,
      "Ġgiven": 1131,
      "ential": 1132,
      "les": 1133,
      "ext": 1134,
      "arge": 1135,
      "round": 1136,
      "class": 1137,
      "Ġappro": 1138,
      "ength": 1139,
      "alues": 1140,
      "pm": 1141,
      "Ġstate": 1142,
      "}[": 1143,
      "lang": 1144,
      "Ġes": 1145,
      "Ġeff": 1146,
      "sq": 1147,
      "Ġz": 1148,
      "://": 1149,
      "Ġresult": 1150,
      "ĠX": 1151,
      "}}\\": 1152,
      "hi": 1153,
      ")$.": 1154,
      "Ġorder": 1155,
      "au": 1156,
      "ased": 1157,
      "ĠRe": 1158,
      "main": 1159,
      "Ġparameter": 1160,
      "loc": 1161,
      "ĠFor": 1162,
      "ote": 1163,
      "val": 1164,
      "orem": 1165,
      "erv": 1166,
      "Ġter": 1167,
      "Ġinto": 1168,
      "13": 1169,
      "To": 1170,
      "AT": 1171,
      "ized": 1172,
      "ax": 1173,
      "try": 1174,
      "center": 1175,
      "Ġ!": 1176,
      "Ġman": 1177,
      "$$": 1178,
      "Ġel": 1179,
      "Ġbeen": 1180,
      "Ġsc": 1181,
      "graph": 1182,
      "eqnarray": 1183,
      "pre": 1184,
      "epsilon": 1185,
      "olds": 1186,
      "Ġsim": 1187,
      "ĠĠĠĠĠĠĠĠĠĠĠĠĠĠĠĠĠĠĠĠĠĠĠĠĠĠĠĠĠĠĠĠ": 1188,
      "ĠĠĊ": 1189,
      "25": 1190,
      "mage": 1191,
      "ont": 1192,
      "Ġcal": 1193,
      "Ġunder": 1194,
      "where": 1195,
      "List": 1196,
      "che": 1197,
      "ym": 1198,
      "ĠY": 1199,
      "arch": 1200,
      "Ġprov": 1201,
      "umn": 1202,
      "mat": 1203,
      "ond": 1204,
      "Ġ)": 1205,
      "14": 1206,
      "Ġpres": 1207,
      "ry": 1208,
      "spec": 1209,
      "action": 1210,
      "iew": 1211,
      "Ġobtain": 1212,
      "Sta": 1213,
      "}_{\\": 1214,
      "Ġrela": 1215,
      "trix": 1216,
      "mon": 1217,
      "irc": 1218,
      "Ġdef": 1219,
      "Ġ==": 1220,
      "exp": 1221,
      "Ġmo": 1222,
      "ning": 1223,
      "Ġend": 1224,
      "Ġform": 1225,
      "__": 1226,
      "Ġconsider": 1227,
      "ever": 1228,
      "Ġthey": 1229,
      "ected": 1230,
      "ception": 1231,
      "Ġmod": 1232,
      "Ġsame": 1233,
      "Ġresults": 1234,
      "ox": 1235,
      "Ġmay": 1236,
      "Ġdifferent": 1237,
      "stra": 1238,
      "gs": 1239,
      "als": 1240,
      "Ġpartic": 1241,
      "ied": 1242,
      "mega": 1243,
      "dis": 1244,
      "ific": 1245,
      "Ġnull": 1246,
      "read": 1247,
      "lan": 1248,
      "ymb": 1249,
      "old": 1250,
      "^*": 1251,
      "Ġoper": 1252,
      "Omega": 1253,
      "htt": 1254,
      "wide": 1255,
      "ymbol": 1256,
      "fault": 1257,
      "St": 1258,
      "ally": 1259,
      "\"><": 1260,
      "sqrt": 1261,
      ")$,": 1262,
      "ass": 1263,
      "Ġbec": 1264,
      "ĠQ": 1265,
      "size": 1266,
      "Ġfact": 1267,
      "Ġfollowing": 1268,
      "file": 1269,
      "):": 1270,
      "new": 1271,
      "bra": 1272,
      "OR": 1273,
      "ĠĠĠĠĠĠĠĠĠĠĠĠĠ": 1274,
      "Ġsign": 1275,
      "ases": 1276,
      "self": 1277,
      "gor": 1278,
      "ĠFig": 1279,
      "back": 1280,
      "olog": 1281,
      "asure": 1282,
      "Ġcomple": 1283,
      "AR": 1284,
      "Gamma": 1285,
      "Ġwere": 1286,
      "rou": 1287,
      "ĠĠĠĠĠĠ": 1288,
      "fter": 1289,
      "ates": 1290,
      "18": 1291,
      "LE": 1292,
      "Ġsec": 1293,
      "vent": 1294,
      "Ġsee": 1295,
      "vely": 1296,
      "Ġtrue": 1297,
      "SS": 1298,
      "ID": 1299,
      "mary": 1300,
      "Ġfield": 1301,
      "sim": 1302,
      "Ġvoid": 1303,
      "Ġgo": 1304,
      "sk": 1305,
      "ĠčĊ": 1306,
      "Ġfe": 1307,
      "Ġ${\\": 1308,
      "textbf": 1309,
      "ath": 1310,
      "ici": 1311,
      "subsection": 1312,
      "Ġfalse": 1313,
      "atch": 1314,
      "ector": 1315,
      "cm": 1316,
      "Ġvar": 1317,
      "Data": 1318,
      "son": 1319,
      "ints": 1320,
      "vare": 1321,
      "Ġtest": 1322,
      "formation": 1323,
      "Ġsystem": 1324,
      "tiv": 1325,
      "^{(": 1326,
      "Ġanal": 1327,
      "raw": 1328,
      "varepsilon": 1329,
      "face": 1330,
      "cale": 1331,
      "Ġac": 1332,
      "')": 1333,
      "string": 1334,
      "An": 1335,
      "ons": 1336,
      "ĠCh": 1337,
      "ole": 1338,
      "}=": 1339,
      "red": 1340,
      "ader": 1341,
      "caption": 1342,
      "title": 1343,
      "ian": 1344,
      "Ġproper": 1345,
      "ots": 1346,
      "energy": 1347,
      "Ġdistribu": 1348,
      "ery": 1349,
      "ime": 1350,
      "ĠIt": 1351,
      "Ar": 1352,
      "}^{\\": 1353,
      "ause": 1354,
      "Ġspace": 1355,
      "graphics": 1356,
      "ick": 1357,
      "Ġrepres": 1358,
      "mod": 1359,
      "ele": 1360,
      "br": 1361,
      "pr": 1362,
      "Ġ\\,": 1363,
      "Ġpol": 1364,
      "ava": 1365,
      "peri": 1366,
      "ames": 1367,
      "umer": 1368,
      "ument": 1369,
      "----------------": 1370,
      "rangle": 1371,
      "rivate": 1372,
      "Ġchar": 1373,
      "Ġdire": 1374,
      "mand": 1375,
      "32": 1376,
      ")=": 1377,
      "tively": 1378,
      "co": 1379,
      "includegraphics": 1380,
      "Ġsupp": 1381,
      "ĠPro": 1382,
      "bm": 1383,
      "ating": 1384,
      "requ": 1385,
      "Ġlow": 1386,
      ".,": 1387,
      "Par": 1388,
      "Ob": 1389,
      "100": 1390,
      "add": 1391,
      "ency": 1392,
      "rightarrow": 1393,
      "ucture": 1394,
      "ep": 1395,
      "\");": 1396,
      "test": 1397,
      "Ġmin": 1398,
      "********": 1399,
      "man": 1400,
      "stance": 1401,
      "view": 1402,
      "Ġobserv": 1403,
      "ive": 1404,
      "etwork": 1405,
      "Ġpoint": 1406,
      "non": 1407,
      "Ġboth": 1408,
      "ects": 1409,
      "entation": 1410,
      "Ġprodu": 1411,
      "Ġmeasure": 1412,
      "lit": 1413,
      "ling": 1414,
      "âĢĿ": 1415,
      "));": 1416,
      "Ġden": 1417,
      "Ġcorrespon": 1418,
      "Ġstring": 1419,
      "value": 1420,
      "ĠAn": 1421,
      "Ġback": 1422,
      "AL": 1423,
      "location": 1424,
      "EN": 1425,
      "play": 1426,
      "go": 1427,
      "Ġvalues": 1428,
      "Ġabout": 1429,
      "date": 1430,
      "tro": 1431,
      "Ġwould": 1432,
      "Ġerror": 1433,
      "arget": 1434,
      "ition": 1435,
      "Ġkn": 1436,
      "very": 1437,
      "ner": 1438,
      "itial": 1439,
      "Ġgroup": 1440,
      "lem": 1441,
      "ash": 1442,
      "17": 1443,
      "owever": 1444,
      "Col": 1445,
      "30": 1446,
      "};": 1447,
      "Ġwell": 1448,
      "rit": 1449,
      "nb": 1450,
      "ormal": 1451,
      "varphi": 1452,
      "pri": 1453,
      "mis": 1454,
      "ists": 1455,
      "geq": 1456,
      "Ġfinal": 1457,
      "ĠĠĠĠĠĠĠĠĠĠĠĠĠĠĠĠĠĠĠĠĠĠĠ": 1458,
      "sible": 1459,
      "org": 1460,
      "&\\": 1461,
      "sty": 1462,
      ".~\\": 1463,
      "Ġbu": 1464,
      "Value": 1465,
      ".}": 1466,
      "////": 1467,
      "Ġelse": 1468,
      "gorith": 1469,
      "DE": 1470,
      "Ġproble": 1471,
      "emph": 1472,
      "Ġdescri": 1473,
      "top": 1474,
      "Set": 1475,
      "rough": 1476,
      "Ġmass": 1477,
      "overline": 1478,
      "Ġdec": 1479,
      "order": 1480,
      "let": 1481,
      "vec": 1482,
      "frak": 1483,
      "Ġdisc": 1484,
      "Ġfra": 1485,
      "This": 1486,
      "yp": 1487,
      "Ġsi": 1488,
      "mit": 1489,
      "Ġinv": 1490,
      "ten": 1491,
      "Ġsmall": 1492,
      "des": 1493,
      "Ġinte": 1494,
      "script": 1495,
      "ality": 1496,
      "chi": 1497,
      "px": 1498,
      "ensure": 1499,
      "50": 1500,
      "Ġstar": 1501,
      "box": 1502,
      "Ġsur": 1503,
      "Ġenergy": 1504,
      "Ġprocess": 1505,
      "style": 1506,
      "Ġ&&": 1507,
      "tra": 1508,
      "proof": 1509,
      "Comp": 1510,
      "ster": 1511,
      "iver": 1512,
      "SE": 1513,
      "ĠIf": 1514,
      "lient": 1515,
      "ilar": 1516,
      "Ġste": 1517,
      "lection": 1518,
      "Ġshould": 1519,
      "onent": 1520,
      "By": 1521,
      "22": 1522,
      "nbsp": 1523,
      "ask": 1524,
      "],": 1525,
      "Ġesti": 1526,
      "($": 1527,
      "amb": 1528,
      "Big": 1529,
      "},\\": 1530,
      "med": 1531,
      "ody": 1532,
      "lear": 1533,
      ")^": 1534,
      "Ġmost": 1535,
      "ins": 1536,
      "ved": 1537,
      "========": 1538,
      "ĠCon": 1539,
      "ream": 1540,
      "Ġsize": 1541,
      "Ġstatic": 1542,
      "rite": 1543,
      "Ġexample": 1544,
      "''": 1545,
      "}).": 1546,
      "Ġlim": 1547,
      "roid": 1548,
      "Ġ/**": 1549,
      "Ġcontain": 1550,
      "ctor": 1551,
      "ative": 1552,
      "ĠĠĠĠĊ": 1553,
      "rc": 1554,
      "ler": 1555,
      "io": 1556,
      "ĠDe": 1557,
      "[\\": 1558,
      "ey": 1559,
      "];": 1560,
      "Ġpos": 1561,
      "Ġfin": 1562,
      "21": 1563,
      "Ġassu": 1564,
      "mathfrak": 1565,
      "mber": 1566,
      "Ġmulti": 1567,
      "ines": 1568,
      "Ġran": 1569,
      "max": 1570,
      "uth": 1571,
      "Ġorg": 1572,
      "\")": 1573,
      "ero": 1574,
      "hline": 1575,
      "rror": 1576,
      "...": 1577,
      "las": 1578,
      "Ġcompu": 1579,
      "Ġ,": 1580,
      "Ġlocal": 1581,
      "Ġfile": 1582,
      "ww": 1583,
      "CT": 1584,
      "Un": 1585,
      "Exception": 1586,
      "function": 1587,
      "Ġ%": 1588,
      "see": 1589,
      "ensity": 1590,
      "bolds": 1591,
      "Ġcre": 1592,
      "ough": 1593,
      "ression": 1594,
      "ci": 1595,
      "bit": 1596,
      "inter": 1597,
      "As": 1598,
      "Ġ///": 1599,
      "ilter": 1600,
      "late": 1601,
      "ervice": 1602,
      "Ġdist": 1603,
      "ĠZ": 1604,
      "boldsymbol": 1605,
      "ired": 1606,
      "langle": 1607,
      "depend": 1608,
      "24": 1609,
      "Ġsing": 1610,
      "Ġdoes": 1611,
      "ields": 1612,
      "}}$": 1613,
      "by": 1614,
      "ower": 1615,
      "Ġlet": 1616,
      "Ġhis": 1617,
      "ake": 1618,
      "bove": 1619,
      "Ġdepend": 1620,
      "lace": 1621,
      "with": 1622,
      "Ġtemp": 1623,
      "ision": 1624,
      "uto": 1625,
      "Ġgeneral": 1626,
      "Ġclo": 1627,
      "cur": 1628,
      "Bu": 1629,
      "Ġwhile": 1630,
      "Ġdefined": 1631,
      "ven": 1632,
      "AN": 1633,
      "lat": 1634,
      "ambda": 1635,
      "que": 1636,
      "Ġbound": 1637,
      "sing": 1638,
      "ymme": 1639,
      "ib": 1640,
      "Ġthrough": 1641,
      "Lambda": 1642,
      "ldots": 1643,
      "Ġabove": 1644,
      "link": 1645,
      "Ġfind": 1646,
      "bin": 1647,
      "oci": 1648,
      "ays": 1649,
      "amil": 1650,
      "acter": 1651,
      "public": 1652,
      "ful": 1653,
      "Ġevery": 1654,
      "less": 1655,
      "lob": 1656,
      "ross": 1657,
      "ern": 1658,
      "IT": 1659,
      "ism": 1660,
      "Let": 1661,
      "Phi": 1662,
      "CO": 1663,
      "Ġmodels": 1664,
      "Ġadd": 1665,
      "not": 1666,
      "cy": 1667,
      "Ġlarge": 1668,
      "Ġmat": 1669,
      "Ġneed": 1670,
      "mate": 1671,
      "ME": 1672,
      "gr": 1673,
      "Ġstructure": 1674,
      "Ġmax": 1675,
      "appa": 1676,
      "Ġfollows": 1677,
      "Ġthem": 1678,
      "ĠString": 1679,
      "ability": 1680,
      "Ġshown": 1681,
      "rop": 1682,
      "group": 1683,
      "At": 1684,
      "tity": 1685,
      "ynam": 1686,
      "Ġoff": 1687,
      "ĠUn": 1688,
      "inu": 1689,
      "Ġnow": 1690,
      "apa": 1691,
      "Ġsol": 1692,
      "mark": 1693,
      "nab": 1694,
      "mer": 1695,
      "tent": 1696,
      "Ġhand": 1697,
      "position": 1698,
      "Ġiden": 1699,
      "Ġexperi": 1700,
      "ier": 1701,
      "citep": 1702,
      "index": 1703,
      "ccess": 1704,
      "Ġlong": 1705,
      "ĉĉĉĉĉ": 1706,
      "tus": 1707,
      "().": 1708,
      "Ġ!=": 1709,
      "Ġincre": 1710,
      "tal": 1711,
      "kappa": 1712,
      "orph": 1713,
      "Ġinclu": 1714,
      "color": 1715,
      "mbox": 1716,
      "gorithm": 1717,
      "otimes": 1718,
      "nabla": 1719,
      ".\\": 1720,
      "Ġpe": 1721,
      "Ġright": 1722,
      "ings": 1723,
      "Ġafter": 1724,
      "Ġcurrent": 1725,
      "199": 1726,
      "ulation": 1727,
      "vious": 1728,
      "Me": 1729,
      "amp": 1730,
      "ically": 1731,
      "Ġfa": 1732,
      "circ": 1733,
      "ict": 1734,
      "Ġprivate": 1735,
      "ented": 1736,
      "Ġser": 1737,
      "Object": 1738,
      "64": 1739,
      "uch": 1740,
      "oper": 1741,
      "Ġparameters": 1742,
      "Ġbel": 1743,
      "ee": 1744,
      "ai": 1745,
      "ĠâĢľ": 1746,
      "Ġimport": 1747,
      "Error": 1748,
      "Ġconn": 1749,
      "Ġnetwork": 1750,
      "nav": 1751,
      "dt": 1752,
      "ov": 1753,
      "textit": 1754,
      "());": 1755,
      "mm": 1756,
      "33": 1757,
      "ground": 1758,
      "Ġreal": 1759,
      "js": 1760,
      "model": 1761,
      "})$": 1762,
      "ene": 1763,
      "Ġsince": 1764,
      "Ġcalc": 1765,
      "base": 1766,
      "\"></": 1767,
      "stru": 1768,
      "ixed": 1769,
      "Ġproblem": 1770,
      "Ġtop": 1771,
      "node": 1772,
      "reak": 1773,
      "nonumber": 1774,
      "Ġthree": 1775,
      "reg": 1776,
      "ensuremath": 1777,
      "eff": 1778,
      "struct": 1779,
      "Ġdi": 1780,
      "Ġ``": 1781,
      "Get": 1782,
      "Ġyour": 1783,
      "uration": 1784,
      "Ġwor": 1785,
      "ished": 1786,
      "andom": 1787,
      "ense": 1788,
      "\\%": 1789,
      "Ġperform": 1790,
      "Ġed": 1791,
      "indow": 1792,
      "Ġcons": 1793,
      "Ġsecond": 1794,
      "View": 1795,
      "war": 1796,
      "Ġpr": 1797,
      "Ġregion": 1798,
      "40": 1799,
      "Lo": 1800,
      "Ġdistribution": 1801,
      "Ġinformation": 1802,
      "}),": 1803,
      "ij": 1804,
      "\";": 1805,
      "Ġradi": 1806,
      "Ġpart": 1807,
      "\\|": 1808,
      "ste": 1809,
      ".</": 1810,
      "Po": 1811,
      "}}{": 1812,
      "Ġcent": 1813,
      "].": 1814,
      "Ġoperator": 1815,
      ")(": 1816,
      "Ġlike": 1817,
      "summary": 1818,
      "['": 1819,
      "Ġmag": 1820,
      "Ġent": 1821,
      "sive": 1822,
      "Ġsection": 1823,
      "odes": 1824,
      "list": 1825,
      "mission": 1826,
      "urther": 1827,
      "Ġkey": 1828,
      "File": 1829,
      "Ġfeature": 1830,
      "ysis": 1831,
      "Ġq": 1832,
      "23": 1833,
      "ference": 1834,
      "df": 1835,
      "Ġstud": 1836,
      "Ġbecause": 1837,
      "cor": 1838,
      "ness": 1839,
      "Ġmatrix": 1840,
      "!--": 1841,
      "Ġag": 1842,
      "Ġprob": 1843,
      "ared": 1844,
      "ices": 1845,
      "Ġvery": 1846,
      "ffer": 1847,
      "ĠAs": 1848,
      "map": 1849,
      "Class": 1850,
      "Ġfound": 1851,
      "uring": 1852,
      "tisf": 1853,
      "ain": 1854,
      "Ġinitial": 1855,
      "Ġdeter": 1856,
      "nt": 1857,
      "._": 1858,
      "Sigma": 1859,
      "../../../../": 1860,
      "Ġnode": 1861,
      "Ġ($": 1862,
      "Ġallow": 1863,
      "lement": 1864,
      "Ġinput": 1865,
      "ences": 1866,
      "Ġsample": 1867,
      "ope": 1868,
      "Ġapproach": 1869,
      "defin": 1870,
      "load": 1871,
      "Ġterms": 1872,
      "Ġcould": 1873,
      "=\"+": 1874,
      "Ġgraph": 1875,
      "path": 1876,
      "erature": 1877,
      "\\[": 1878,
      "ified": 1879,
      "http": 1880,
      "void": 1881,
      "AC": 1882,
      "opy": 1883,
      "duced": 1884,
      "quot": 1885,
      "alid": 1886,
      "ective": 1887,
      "vert": 1888,
      "000": 1889,
      "Test": 1890,
      "udi": 1891,
      "lect": 1892,
      "reat": 1893,
      "Ġsimilar": 1894,
      "Ġrun": 1895,
      "perty": 1896,
      "Ġ/>": 1897,
      "Ġsuper": 1898,
      "dim": 1899,
      "Ġder": 1900,
      "Ġlist": 1901,
      "Ġeven": 1902,
      "tics": 1903,
      "Sh": 1904,
      "dots": 1905,
      "ott": 1906,
      "ils": 1907,
      "ities": 1908,
      "Ġsum": 1909,
      "sitive": 1910,
      "Key": 1911,
      "Ġmain": 1912,
      "lack": 1913,
      "RO": 1914,
      "url": 1915,
      "ift": 1916,
      "ĠThen": 1917,
      "Ġlevel": 1918,
      "/\\": 1919,
      "Requ": 1920,
      "Ġcall": 1921,
      "pper": 1922,
      "ng": 1923,
      "lication": 1924,
      "raph": 1925,
      "Ġprovide": 1926,
      "const": 1927,
      "Ġpath": 1928,
      "Ġtak": 1929,
      "Ġhow": 1930,
      "');": 1931,
      "Ġobject": 1932,
      "Ġpri": 1933,
      "Ġhad": 1934,
      "bility": 1935,
      "ĠAl": 1936,
      "Ġam": 1937,
      "ĠEx": 1938,
      "tations": 1939,
      "draw": 1940,
      "']": 1941,
      "Ġbased": 1942,
      "widetilde": 1943,
      "gain": 1944,
      "imum": 1945,
      "ural": 1946,
      "\\!": 1947,
      "Ġmust": 1948,
      "tice": 1949,
      "State": 1950,
      "oup": 1951,
      "Ġmap": 1952,
      "LL": 1953,
      "Ġparticular": 1954,
      "Ġsatisf": 1955,
      "Time": 1956,
      "Ġaction": 1957,
      "tivity": 1958,
      "ication": 1959,
      "Al": 1960,
      "FF": 1961,
      "IC": 1962,
      "Ġfunctions": 1963,
      "Ġdim": 1964,
      "aw": 1965,
      "arg": 1966,
      "user": 1967,
      "60": 1968,
      "icient": 1969,
      "(),": 1970,
      "Ġdensity": 1971,
      "Ġequation": 1972,
      "Ġyear": 1973,
      "otential": 1974,
      "Ġarg": 1975,
      "Ġhere": 1976,
      "ining": 1977,
      "ables": 1978,
      "lable": 1979,
      "~~": 1980,
      "{-": 1981,
      "Ġobtained": 1982,
      "Ġsolution": 1983,
      "centering": 1984,
      "Ġread": 1985,
      "ward": 1986,
      "PE": 1987,
      "ets": 1988,
      "Ġcharacter": 1989,
      "Ġ||": 1990,
      "pack": 1991,
      "Ġrespec": 1992,
      "Ġcontro": 1993,
      "Ġlead": 1994,
      "ĠSt": 1995,
      "orted": 1996,
      "annel": 1997,
      "unc": 1998,
      "Ġhy": 1999,
      "tribute": 2000,
      "He": 2001,
      "}-": 2002,
      "ese": 2003,
      "Ġpaper": 2004,
      "Com": 2005,
      "Ġwho": 2006,
      "Ġpredic": 2007,
      "Ġscal": 2008,
      "Fig": 2009,
      "ify": 2010,
      "prime": 2011,
      "ternal": 2012,
      "tyle": 2013,
      "uc": 2014,
      "Op": 2015,
      "80": 2016,
      "Ġcorresponding": 2017,
      "pec": 2018,
      "ĠTo": 2019,
      "ology": 2020,
      "Ġleft": 2021,
      "Ġmake": 2022,
      "ION": 2023,
      "ager": 2024,
      "Ġway": 2025,
      "Ġtitle": 2026,
      "length": 2027,
      "cept": 2028,
      "LA": 2029,
      "On": 2030,
      "from": 2031,
      "Ġmany": 2032,
      "Ġshows": 2033,
      "Ġlinear": 2034,
      "Ġdete": 2035,
      "27": 2036,
      "velop": 2037,
      "Ġcho": 2038,
      "lim": 2039,
      "Ġsequ": 2040,
      "TE": 2041,
      "matrix": 2042,
      "Ġlear": 2043,
      "tabular": 2044,
      "ush": 2045,
      "Ġsingle": 2046,
      "Text": 2047,
      "Ġstand": 2048,
      "pos": 2049,
      "Ġtyp": 2050,
      "Ġoptim": 2051,
      "}+": 2052,
      "Ġindic": 2053,
      "lobal": 2054,
      "duction": 2055,
      "Ġaddition": 2056,
      "sponse": 2057,
      "zeta": 2058,
      "ĠThere": 2059,
      "Ġhel": 2060,
      "gebra": 2061,
      "ants": 2062,
      "ides": 2063,
      "45": 2064,
      "Ġconstant": 2065,
      "Ġwhat": 2066,
      "\":": 2067,
      "\\{": 2068,
      "ĠLet": 2069,
      "search": 2070,
      "dependent": 2071,
      "``": 2072,
      "Ġpoints": 2073,
      "ape": 2074,
      "side": 2075,
      "Ġlog": 2076,
      "Ġcondition": 2077,
      "Ġge": 2078,
      "Man": 2079,
      "erm": 2080,
      "\\]": 2081,
      "Ġ&=": 2082,
      "Ġmon": 2083,
      "Ġ:=": 2084,
      "ited": 2085,
      "ĠEq": 2086,
      "Ġ);": 2087,
      "Ġdue": 2088,
      "Ġobj": 2089,
      "Ġet": 2090,
      "Ġfinite": 2091,
      "ior": 2092,
      "util": 2093,
      "cer": 2094,
      "ock": 2095,
      "Ġflu": 2096,
      "Ġimage": 2097,
      "utton": 2098,
      "emma": 2099,
      "2020": 2100,
      "Ġ-->": 2101,
      ")=\\": 2102,
      "ouble": 2103,
      "Ġpossible": 2104,
      "Ġjust": 2105,
      "inc": 2106,
      "Ġdimension": 2107,
      "Qu": 2108,
      "temp": 2109,
      "Ġlast": 2110,
      "Ġemp": 2111,
      "vir": 2112,
      "Ġtarget": 2113,
      "Ġexist": 2114,
      "lot": 2115,
      "Ġuser": 2116,
      "ug": 2117,
      "Ġdirect": 2118,
      "/*": 2119,
      "75": 2120,
      "ely": 2121,
      "Ġher": 2122,
      "under": 2123,
      "oth": 2124,
      "Ġsource": 2125,
      "ival": 2126,
      "lies": 2127,
      "Ġthose": 2128,
      "99": 2129,
      "Ġphase": 2130,
      "Ġdeta": 2131,
      "Ġapproxi": 2132,
      "Ġconfig": 2133,
      "Ġbeing": 2134,
      "cription": 2135,
      "Ġ?": 2136,
      "With": 2137,
      "Event": 2138,
      "tis": 2139,
      "ually": 2140,
      "other": 2141,
      "olean": 2142,
      "https": 2143,
      ")}\\": 2144,
      "ute": 2145,
      "/**": 2146,
      "rows": 2147,
      "ined": 2148,
      "ogle": 2149,
      "':": 2150,
      "Ġact": 2151,
      "Ġcode": 2152,
      "ditions": 2153,
      "Path": 2154,
      "small": 2155,
      "AP": 2156,
      "Ġvector": 2157,
      "ĠWh": 2158,
      "It": 2159,
      "}=\\": 2160,
      "config": 2161,
      "doc": 2162,
      "ources": 2163,
      "Ġknow": 2164,
      "Ġtheory": 2165,
      "Ġcheck": 2166,
      "input": 2167,
      "Ġmy": 2168,
      "mages": 2169,
      ";\\": 2170,
      "If": 2171,
      "ĠTheorem": 2172,
      "ules": 2173,
      "Ġstates": 2174,
      "Ġcalcula": 2175,
      "Equ": 2176,
      "Ġindex": 2177,
      "'t": 2178,
      "bed": 2179,
      "Ġchange": 2180,
      "01": 2181,
      "Ġorig": 2182,
      "Ġblock": 2183,
      "light": 2184,
      "{(": 2185,
      "Ġrange": 2186,
      "App": 2187,
      "ĠRes": 2188,
      "Ġelement": 2189,
      "Ġpotential": 2190,
      "Ġsyste": 2191,
      "ls": 2192,
      "Info": 2193,
      "())": 2194,
      "Ġbeh": 2195,
      "05": 2196,
      "Ġvis": 2197,
      "ĠHowever": 2198,
      "Node": 2199,
      "Ġpower": 2200,
      "ilder": 2201,
      "Index": 2202,
      "Ġlimit": 2203,
      "true": 2204,
      "ĉĊ": 2205,
      "istic": 2206,
      "Ġrespectively": 2207,
      "Ġspectr": 2208,
      "verage": 2209,
      "amespace": 2210,
      "Ġstudy": 2211,
      "Ġmultip": 2212,
      "Ġtext": 2213,
      "ottom": 2214,
      "ational": 2215,
      "####": 2216,
      "lete": 2217,
      "Ġproof": 2218,
      "ride": 2219,
      "TR": 2220,
      "Le": 2221,
      "omorph": 2222,
      "jo": 2223,
      "35": 2224,
      "Ġpair": 2225,
      "Ġmean": 2226,
      "Ġanalysis": 2227,
      "Ġevent": 2228,
      "Request": 2229,
      "anel": 2230,
      ")^{": 2231,
      "ason": 2232,
      "Ġrandom": 2233,
      "Ġintro": 2234,
      "Ġcontinu": 2235,
      "body": 2236,
      "Ġcontext": 2237,
      "28": 2238,
      "Ite": 2239,
      "gener": 2240,
      "prop": 2241,
      "Ġagain": 2242,
      "Ġref": 2243,
      "Ġbefore": 2244,
      "2018": 2245,
      "ii": 2246,
      "version": 2247,
      "$)": 2248,
      "){": 2249,
      "next": 2250,
      "}]": 2251,
      "field": 2252,
      "Ġlength": 2253,
      "Ġsymme": 2254,
      "ages": 2255,
      "spect": 2256,
      "fe": 2257,
      "Ġversion": 2258,
      "ks": 2259,
      "Ġpresent": 2260,
      "cdots": 2261,
      "icon": 2262,
      "ĠĠĠĠĠĠĠĠĠĠĠĠĠĠĠĠĠĠĠĠĠĠĠĠĠĠĠ": 2263,
      "Ġcoun": 2264,
      "Ġcomplex": 2265,
      "\"\"": 2266,
      "Ġassoci": 2267,
      "cho": 2268,
      "Ġbase": 2269,
      "vari": 2270,
      "AS": 2271,
      "ession": 2272,
      "state": 2273,
      "thm": 2274,
      "90": 2275,
      "antum": 2276,
      "ni": 2277,
      "ron": 2278,
      "Ġwithin": 2279,
      "orts": 2280,
      "mun": 2281,
      "Ġtotal": 2282,
      "Ġinstance": 2283,
      "duce": 2284,
      "Ġplan": 2285,
      "Ġenc": 2286,
      "ĠAr": 2287,
      "block": 2288,
      "error": 2289,
      "Ġalgorithm": 2290,
      "king": 2291,
      "2017": 2292,
      "AB": 2293,
      "}|": 2294,
      ")]": 2295,
      "26": 2296,
      "LO": 2297,
      "Context": 2298,
      "Ġrate": 2299,
      "vice": 2300,
      "struction": 2301,
      "page": 2302,
      "Ġarray": 2303,
      "Over": 2304,
      "Ġpropo": 2305,
      "do": 2306,
      "Ġmethods": 2307,
      "upp": 2308,
      "Ġprevious": 2309,
      "port": 2310,
      "}_\\": 2311,
      "Ġderiv": 2312,
      "Service": 2313,
      "asi": 2314,
      "Ġcontent": 2315,
      "Ġnext": 2316,
      "widehat": 2317,
      "Ġclu": 2318,
      "Ġtri": 2319,
      "}^\\": 2320,
      "till": 2321,
      "Config": 2322,
      "aus": 2323,
      "operator": 2324,
      "ĠHe": 2325,
      "Ġstrong": 2326,
      ",-": 2327,
      "ures": 2328,
      "ched": 2329,
      "Ġcoup": 2330,
      "IS": 2331,
      "lemma": 2332,
      "Ġview": 2333,
      "ends": 2334,
      "sequ": 2335,
      "Ġterm": 2336,
      "Ġdefine": 2337,
      "Ġwithout": 2338,
      "Ġmom": 2339,
      "alax": 2340,
      "ui": 2341,
      "qquad": 2342,
      "AD": 2343,
      "md": 2344,
      "='": 2345,
      "onents": 2346,
      "ude": 2347,
      "point": 2348,
      "++": 2349,
      "2019": 2350,
      ".~": 2351,
      "Ġconstra": 2352,
      "Ġrec": 2353,
      "medi": 2354,
      "Ġ(!": 2355,
      "[]": 2356,
      "lus": 2357,
      "Ġdynam": 2358,
      "ump": 2359,
      "ĠSection": 2360,
      "';": 2361,
      "}\\,": 2362,
      "wit": 2363,
      "loat": 2364,
      "Ġproperties": 2365,
      "ordin": 2366,
      "sets": 2367,
      "eps": 2368,
      "ctr": 2369,
      "Ġzero": 2370,
      "Ġdetermin": 2371,
      "Ġlay": 2372,
      "Ġwidth": 2373,
      "valid": 2374,
      "ither": 2375,
      "Map": 2376,
      "Psi": 2377,
      "Array": 2378,
      "rid": 2379,
      "Ġassert": 2380,
      "Add": 2381,
      "api": 2382,
      "itor": 2383,
      "UR": 2384,
      "note": 2385,
      "ML": 2386,
      "Model": 2387,
      "off": 2388,
      "onal": 2389,
      "No": 2390,
      "ĠĠĠĠĠĠĠĠĠĠ": 2391,
      "textwidth": 2392,
      "}}(": 2393,
      "cing": 2394,
      "Ġbas": 2395,
      "IG": 2396,
      "mid": 2397,
      "ams": 2398,
      "=\"../../../../": 2399,
      "tically": 2400,
      "Ġnormal": 2401,
      "ving": 2402,
      "Ġspa": 2403,
      "enu": 2404,
      "Ġ},": 2405,
      "Code": 2406,
      "^+": 2407,
      "Ġplay": 2408,
      "2016": 2409,
      "})\\": 2410,
      "Ġdevelop": 2411,
      "ging": 2412,
      "Ġstra": 2413,
      "Ġ\\{": 2414,
      "Ġtech": 2415,
      "ĠSh": 2416,
      "down": 2417,
      "Ġcar": 2418,
      "head": 2419,
      "Ġoutput": 2420,
      "thing": 2421,
      "Ġ});": 2422,
      "&=": 2423,
      "Ġmuch": 2424,
      "Ġrequire": 2425,
      "verse": 2426,
      "Ġav": 2427,
      "rans": 2428,
      "iled": 2429,
      "ache": 2430,
      "Ġopen": 2431,
      "den": 2432,
      "igned": 2433,
      "ances": 2434,
      "ider": 2435,
      "Ġloc": 2436,
      "Ġ/*": 2437,
      "ED": 2438,
      "Ġocc": 2439,
      "move": 2440,
      "{{\\": 2441,
      "ĠĠĠĠĠĠĠĠĠĠĠĠ": 2442,
      "Des": 2443,
      "Ġsaid": 2444,
      "Ġboun": 2445,
      "arent": 2446,
      "ister": 2447,
      "Or": 2448,
      "check": 2449,
      "star": 2450,
      "Ġdiag": 2451,
      "pon": 2452,
      "Size": 2453,
      "gram": 2454,
      "lt": 2455,
      "MP": 2456,
      "ustom": 2457,
      "Element": 2458,
      "apache": 2459,
      "Ġstart": 2460,
      "tings": 2461,
      "////////": 2462,
      "aris": 2463,
      "ati": 2464,
      "cos": 2465,
      "appro": 2466,
      "word": 2467,
      "****************": 2468,
      "29": 2469,
      "Ġlower": 2470,
      "ttp": 2471,
      "Ġconditions": 2472,
      "Ġdefault": 2473,
      "Ġidentif": 2474,
      "Ġtask": 2475,
      "ĠOn": 2476,
      "Ġsimp": 2477,
      "}^{(": 2478,
      "Ġexists": 2479,
      "which": 2480,
      "ivers": 2481,
      "Ġexpected": 2482,
      "ĠNew": 2483,
      "Ġlat": 2484,
      "default": 2485,
      "Ġtimes": 2486,
      "Ġformu": 2487,
      "UT": 2488,
      "Ġframe": 2489,
      "Ġbreak": 2490,
      "Ġtemperature": 2491,
      "Ġsrc": 2492,
      "rac": 2493,
      "Ġtake": 2494,
      "result": 2495,
      "}\\\\": 2496,
      "netic": 2497,
      "gt": 2498,
      "ople": 2499,
      "mathsf": 2500,
      "umb": 2501,
      "Ġperformance": 2502,
      "34": 2503,
      "wise": 2504,
      "display": 2505,
      "Ver": 2506,
      "argin": 2507,
      "wn": 2508,
      "Ġproperty": 2509,
      "fact": 2510,
      "66": 2511,
      "ĠFigure": 2512,
      "Ġbackground": 2513,
      "scale": 2514,
      "ĠLemma": 2515,
      "Ġimple": 2516,
      "Item": 2517,
      "Ġshe": 2518,
      "ensor": 2519,
      "day": 2520,
      "2015": 2521,
      "Ġdown": 2522,
      "pping": 2523,
      "ĠNo": 2524,
      ">&": 2525,
      "urb": 2526,
      "pdf": 2527,
      "ync": 2528,
      "Ġgu": 2529,
      "Ġke": 2530,
      "ware": 2531,
      "Be": 2532,
      "Ġconver": 2533,
      "equiv": 2534,
      "From": 2535,
      "Ġprobability": 2536,
      "abled": 2537,
      "sif": 2538,
      "Ġsimple": 2539,
      "Ġposition": 2540,
      "ken": 2541,
      "Of": 2542,
      "Ġ$(\\": 2543,
      "dimension": 2544,
      "IR": 2545,
      "Wh": 2546,
      "lin": 2547,
      "ring": 2548,
      "lying": 2549,
      "lated": 2550,
      "Ġsystems": 2551,
      "Ġphot": 2552,
      "Message": 2553,
      "Ġproduct": 2554,
      "net": 2555,
      "ĠEn": 2556,
      "Ġfixed": 2557,
      "indent": 2558,
      "Ġremain": 2559,
      "Ġfactor": 2560,
      "lue": 2561,
      "subset": 2562,
      "Table": 2563,
      "Ġpositive": 2564,
      "Hand": 2565,
      "assert": 2566,
      "ĠâĢĵ": 2567,
      "imal": 2568,
      "Ġabs": 2569,
      "Ġstill": 2570,
      "refer": 2571,
      "eturn": 2572,
      "create": 2573,
      "java": 2574,
      "Ġinst": 2575,
      "ik": 2576,
      "CH": 2577,
      "ording": 2578,
      "lip": 2579,
      "Ġsignific": 2580,
      "foot": 2581,
      "Ġdiscus": 2582,
      "}:": 2583,
      "Dis": 2584,
      "Ġscale": 2585,
      "ller": 2586,
      "Ġmatch": 2587,
      "Ġconf": 2588,
      "ev": 2589,
      "using": 2590,
      "04": 2591,
      "Ġquantum": 2592,
      "ĠBy": 2593,
      "Ġobserved": 2594,
      "ration": 2595,
      "Field": 2596,
      "Ġcalled": 2597,
      "option": 2598,
      "ailable": 2599,
      "55": 2600,
      "Ġextra": 2601,
      "Ġhigher": 2602,
      "her": 2603,
      "Ġgalax": 2604,
      "ying": 2605,
      "vis": 2606,
      "Ġduring": 2607,
      "Ġcolor": 2608,
      "xy": 2609,
      "Ġauth": 2610,
      "Ġ__": 2611,
      "alle": 2612,
      "Ġjava": 2613,
      "cup": 2614,
      "Ġdoc": 2615,
      "ING": 2616,
      "olumn": 2617,
      "03": 2618,
      "amily": 2619,
      "Ġstandard": 2620,
      "yc": 2621,
      "licit": 2622,
      "css": 2623,
      "ET": 2624,
      "mi": 2625,
      "({\\": 2626,
      "call": 2627,
      "Ġcases": 2628,
      "bor": 2629,
      "info": 2630,
      "&&": 2631,
      "Ġcirc": 2632,
      "Ġassociated": 2633,
      "Ġsequence": 2634,
      "mul": 2635,
      "xspace": 2636,
      "Ġequival": 2637,
      "lied": 2638,
      "object": 2639,
      "08": 2640,
      ";&": 2641,
      "Color": 2642,
      "Ġclear": 2643,
      "Ġ&\\": 2644,
      "Ġalong": 2645,
      "Ġvalid": 2646,
      "Ġelements": 2647,
      "olutions": 2648,
      "ĉĉĉĉĉĉ": 2649,
      "Ġquan": 2650,
      "Tr": 2651,
      "TD": 2652,
      "Ġassume": 2653,
      "Ġimportant": 2654,
      "way": 2655,
      "Ġinteraction": 2656,
      "tn": 2657,
      "2014": 2658,
      "Ġfields": 2659,
      "Is": 2660,
      "Ġaverage": 2661,
      "Ġsupport": 2662,
      "Ġcontrol": 2663,
      "(-": 2664,
      "iod": 2665,
      "lected": 2666,
      "Rec": 2667,
      "attern": 2668,
      "Ġfree": 2669,
      "Ġphys": 2670,
      "Ġbehav": 2671,
      "content": 2672,
      "Ġfour": 2673,
      "ĠSta": 2674,
      "}}{\\": 2675,
      "Ġlook": 2676,
      "}+\\": 2677,
      "Ġlabel": 2678,
      "Ġrele": 2679,
      "lassif": 2680,
      "www": 2681,
      "tainer": 2682,
      "citet": 2683,
      "Ġerr": 2684,
      "48": 2685,
      "Ġcontra": 2686,
      "Ġimpro": 2687,
      "viron": 2688,
      "land": 2689,
      "Ġfull": 2690,
      "Ġfrequ": 2691,
      "Ġgood": 2692,
      "Ġfurther": 2693,
      "]$": 2694,
      "Ġaround": 2695,
      "Ġevalu": 2696,
      "Ġbelow": 2697,
      "Ġthus": 2698,
      "|^": 2699,
      "II": 2700,
      "Ġlines": 2701,
      "Contro": 2702,
      "ready": 2703,
      "conn": 2704,
      "gen": 2705,
      "Ġauto": 2706,
      "asing": 2707,
      "ways": 2708,
      "ĠApp": 2709,
      "Ġalgebra": 2710,
      "operatorname": 2711,
      "core": 2712,
      "Ġcontribu": 2713,
      "Up": 2714,
      "ES": 2715,
      "riter": 2716,
      "context": 2717,
      "Ġ-\\": 2718,
      "ĠComp": 2719,
      "--------------------------------": 2720,
      "ater": 2721,
      "Ġcreate": 2722,
      "command": 2723,
      "lugin": 2724,
      "split": 2725,
      "Ġbest": 2726,
      "07": 2727,
      ")-": 2728,
      "ĠOb": 2729,
      "png": 2730,
      "site": 2731,
      "MA": 2732,
      "Ġrequest": 2733,
      "36": 2734,
      "hspace": 2735,
      "Ġequations": 2736,
      "'$": 2737,
      "sin": 2738,
      "User": 2739,
      "Ġknown": 2740,
      "tig": 2741,
      "ĠMe": 2742,
      "Ġcell": 2743,
      "oll": 2744,
      "Ġleast": 2745,
      "Ġpop": 2746,
      "Ġide": 2747,
      "Exp": 2748,
      "Ġmark": 2749,
      "Ġanaly": 2750,
      "ters": 2751,
      "Ġinf": 2752,
      "lou": 2753,
      "footnote": 2754,
      "umerate": 2755,
      "android": 2756,
      "OT": 2757,
      "ique": 2758,
      "Ġspin": 2759,
      "false": 2760,
      "neq": 2761,
      "multic": 2762,
      "reate": 2763,
      "Ġstudi": 2764,
      "Ġtraining": 2765,
      "Ġcross": 2766,
      "Ġdiff": 2767,
      "}-\\": 2768,
      "dag": 2769,
      "Ġcomplete": 2770,
      "ponse": 2771,
      "Ġproposed": 2772,
      "edge": 2773,
      "icy": 2774,
      "Ser": 2775,
      "bug": 2776,
      "uage": 2777,
      "resh": 2778,
      "Ġsignificant": 2779,
      "package": 2780,
      "((": 2781,
      "Ġcombin": 2782,
      "Ġsepar": 2783,
      "Ġfit": 2784,
      "sian": 2785,
      "pc": 2786,
      "ĠSystem": 2787,
      "tot": 2788,
      "Ġ===": 2789,
      "method": 2790,
      "tag": 2791,
      "ife": 2792,
      "Ġdeg": 2793,
      "ently": 2794,
      "loy": 2795,
      "Ġpeople": 2796,
      "Ġappear": 2797,
      "02": 2798,
      "lib": 2799,
      "ateg": 2800,
      "rep": 2801,
      "ouse": 2802,
      "Manager": 2803,
      "0000": 2804,
      "Ġ};": 2805,
      "undle": 2806,
      "multicolumn": 2807,
      "vers": 2808,
      "39": 2809,
      "](": 2810,
      "Inter": 2811,
      "Ġeffect": 2812,
      "db": 2813,
      "=\"../": 2814,
      "Fra": 2815,
      "Ġeither": 2816,
      "SP": 2817,
      "Ġdenote": 2818,
      "ategory": 2819,
      "Ġweight": 2820,
      "System": 2821,
      "stand": 2822,
      "ctions": 2823,
      "skip": 2824,
      "Ġdistance": 2825,
      "can": 2826,
      "Ġlight": 2827,
      "Ġconsist": 2828,
      "noindent": 2829,
      "Ġnumer": 2830,
      "EE": 2831,
      "Ġavailable": 2832,
      "define": 2833,
      "utr": 2834,
      "theorem": 2835,
      "DO": 2836,
      "ĠSince": 2837,
      "Ġfeatures": 2838,
      "ail": 2839,
      "height": 2840,
      "Out": 2841,
      "Log": 2842,
      ")}{": 2843,
      "enumerate": 2844,
      "tual": 2845,
      "Ġboundary": 2846,
      "06": 2847,
      ";</": 2848,
      "Ġvel": 2849,
      "Ġfil": 2850,
      "Ġrespect": 2851,
      "ended": 2852,
      "ait": 2853,
      "Ġlink": 2854,
      "Ġrequired": 2855,
      "ename": 2856,
      "ĠAss": 2857,
      "Ġindependent": 2858,
      "Ġexact": 2859,
      "duct": 2860,
      "omin": 2861,
      "char": 2862,
      "my": 2863,
      "tio": 2864,
      "Ġmade": 2865,
      "38": 2866,
      "ological": 2867,
      "37": 2868,
      "ocus": 2869,
      "scr": 2870,
      "Ġsever": 2871,
      "any": 2872,
      "Ġresponse": 2873,
      "Ġear": 2874,
      "chema": 2875,
      "Ġcomponent": 2876,
      "bb": 2877,
      "static": 2878,
      "ln": 2879,
      "Ġsimula": 2880,
      "CC": 2881,
      "$}": 2882,
      "Ġmoment": 2883,
      "All": 2884,
      "start": 2885,
      "ctive": 2886,
      "Ġsurface": 2887,
      "ret": 2888,
      "uments": 2889,
      "Ġexperiment": 2890,
      "local": 2891,
      "]\\": 2892,
      "Ġexpression": 2893,
      "current": 2894,
      "Ġdomain": 2895,
      "<!--": 2896,
      "Ġstep": 2897,
      "Ġless": 2898,
      "Ġcolumn": 2899,
      "Ġlit": 2900,
      "Ġdep": 2901,
      "Ġestima": 2902,
      "acc": 2903,
      "namespace": 2904,
      "clo": 2905,
      "nal": 2906,
      "igen": 2907,
      "Ġpass": 2908,
      "Ġperiod": 2909,
      "Ġflow": 2910,
      "ocity": 2911,
      "earch": 2912,
      "Ġnear": 2913,
      "Ġloss": 2914,
      "09": 2915,
      "Ġaccura": 2916,
      "][": 2917,
      "has": 2918,
      "Ġprote": 2919,
      "arger": 2920,
      "IP": 2921,
      "ithub": 2922,
      "itemize": 2923,
      "kn": 2924,
      "urity": 2925,
      "2013": 2926,
      "based": 2927,
      "atter": 2928,
      "dimensional": 2929,
      "tices": 2930,
      "Ġchannel": 2931,
      "Ġmeans": 2932,
      "ane": 2933,
      ")}$": 2934,
      "vspace": 2935,
      "Ġclose": 2936,
      "There": 2937,
      "Ġhelp": 2938,
      "Mod": 2939,
      ")</": 2940,
      "ĠThus": 2941,
      "ĠLe": 2942,
      "Ġside": 2943,
      "\\,\\": 2944,
      "=\"#": 2945,
      "sw": 2946,
      "Ġwrite": 2947,
      "alth": 2948,
      "La": 2949,
      "ULL": 2950,
      "lish": 2951,
      "================": 2952,
      "omial": 2953,
      "Ġtable": 2954,
      "member": 2955,
      "ĠAd": 2956,
      "Ġvia": 2957,
      "Ġlearning": 2958,
      "Ġedge": 2959,
      "ible": 2960,
      "Ġinterest": 2961,
      "UN": 2962,
      "gg": 2963,
      "ĠGet": 2964,
      "}/": 2965,
      "Ġgenerated": 2966,
      "uture": 2967,
      "Result": 2968,
      "Method": 2969,
      "Ð°": 2970,
      ">(": 2971,
      "Ġoptions": 2972,
      "95": 2973,
      "Ġdefinition": 2974,
      "gative": 2975,
      "google": 2976,
      "Ġproj": 2977,
      "ns": 2978,
      "44": 2979,
      "Ġandroid": 2980,
      "Ġnil": 2981,
      "Ġrece": 2982,
      "defined": 2983,
      "Ġelectr": 2984,
      "normal": 2985,
      "mic": 2986,
      "Ġdescribed": 2987,
      "multi": 2988,
      "ticle": 2989,
      "ĠThese": 2990,
      "Ġunit": 2991,
      "Ġaddress": 2992,
      "mail": 2993,
      "meta": 2994,
      "31": 2995,
      "change": 2996,
      "web": 2997,
      "Bar": 2998,
      "{}": 2999,
      "Ġsearch": 3000,
      "Ġcoeff": 3001,
      "ether": 3002,
      "that": 3003,
      "Ġimplies": 3004,
      "Ġfla": 3005,
      "Ġconsidered": 3006,
      "chan": 3007,
      "Ġspe": 3008,
      "}}_": 3009,
      "Ġdeno": 3010,
      "ĠCom": 3011,
      "Ġyears": 3012,
      "Ġbi": 3013,
      "Ġwrit": 3014,
      "Ġmis": 3015,
      "ral": 3016,
      "Builder": 3017,
      "anges": 3018,
      "illi": 3019,
      "tor": 3020,
      "terial": 3021,
      "Ġ_{": 3022,
      "Ġsuff": 3023,
      "github": 3024,
      "chie": 3025,
      "}}}": 3026,
      "formed": 3027,
      "ged": 3028,
      "hand": 3029,
      "Ġcommun": 3030,
      "Property": 3031,
      "dl": 3032,
      "Ġspecific": 3033,
      "ars": 3034,
      "Ġbool": 3035,
      "stead": 3036,
      "dir": 3037,
      "ENT": 3038,
      "MS": 3039,
      "por": 3040,
      "Ð¾": 3041,
      "New": 3042,
      "lex": 3043,
      "ah": 3044,
      "Ġhal": 3045,
      "Ġoriginal": 3046,
      "Response": 3047,
      "cel": 3048,
      "part": 3049,
      "oriz": 3050,
      "linear": 3051,
      "ender": 3052,
      "Ġsk": 3053,
      "Ġincluding": 3054,
      "pped": 3055,
      "ĠĠĠĠĠĠĠĠĠĠĠĠĠĠĠĠĠĠĠĠĠĠĠĠĠĠĠĠĠĠĠ": 3056,
      "reen": 3057,
      "Ġbetter": 3058,
      "Ġstd": 3059,
      "OS": 3060,
      "TH": 3061,
      "Group": 3062,
      "angle": 3063,
      "Client": 3064,
      "mbed": 3065,
      "Ġcoordin": 3066,
      "auth": 3067,
      "fill": 3068,
      "lick": 3069,
      "Ġmedi": 3070,
      "approx": 3071,
      "arison": 3072,
      "Ġim": 3073,
      "tle": 3074,
      "Ġalready": 3075,
      "flow": 3076,
      "long": 3077,
      "image": 3078,
      "dire": 3079,
      "kes": 3080,
      "Ġcri": 3081,
      "Sub": 3082,
      "finished": 3083,
      "Ġstyle": 3084,
      "rule": 3085,
      "olume": 3086,
      "Ġlarger": 3087,
      "mooth": 3088,
      "gine": 3089,
      "\\}$": 3090,
      "sl": 3091,
      "Pi": 3092,
      "mathscr": 3093,
      "vironment": 3094,
      "US": 3095,
      "Query": 3096,
      "Override": 3097,
      "ĠSet": 3098,
      "ĠAt": 3099,
      "underline": 3100,
      "ĠSo": 3101,
      "aving": 3102,
      "Ġnote": 3103,
      "Ġcontains": 3104,
      "Ġturn": 3105,
      "ĠĠĠĠĠĠĠĠĠĠĠĠĠĠĠĠĠ": 3106,
      "Ġanother": 3107,
      "Ġ\\|": 3108,
      "Ġdid": 3109,
      "Ġcover": 3110,
      "tional": 3111,
      "65": 3112,
      "now": 3113,
      "older": 3114,
      "ris": 3115,
      "Ġcer": 3116,
      "ecess": 3117,
      "ĠMore": 3118,
      "null": 3119,
      "Ġgives": 3120,
      "Ġsolutions": 3121,
      "iform": 3122,
      "Ġrelation": 3123,
      "oh": 3124,
      ")+": 3125,
      "mentation": 3126,
      "Ġmessage": 3127,
      "Ġrecent": 3128,
      "Reg": 3129,
      "bs": 3130,
      "Ġsets": 3131,
      "tition": 3132,
      "Ġaff": 3133,
      "Ġoccur": 3134,
      "NS": 3135,
      "AME": 3136,
      "ram": 3137,
      "frame": 3138,
      "Ġintegra": 3139,
      "Ġmode": 3140,
      "witch": 3141,
      "Sec": 3142,
      "Ġfew": 3143,
      "And": 3144,
      "^-": 3145,
      "Ġgive": 3146,
      "Ġequal": 3147,
      "2012": 3148,
      "Ġachie": 3149,
      "Ġinclude": 3150,
      "Ã©": 3151,
      "85": 3152,
      "Ġtransition": 3153,
      "parameter": 3154,
      "Ġexpect": 3155,
      "Tra": 3156,
      "button": 3157,
      "query": 3158,
      "example": 3159,
      "most": 3160,
      "Ġprove": 3161,
      "Ġiter": 3162,
      "Ġvariables": 3163,
      "run": 3164,
      "Trans": 3165,
      "unfinished": 3166,
      "Ad": 3167,
      "End": 3168,
      "Ġrepresentation": 3169,
      "Ġseveral": 3170,
      "CD": 3171,
      "Ġcluster": 3172,
      "67": 3173,
      "IL": 3174,
      "Gener": 3175,
      "module": 3176,
      "Ref": 3177,
      "Ġseen": 3178,
      "trm": 3179,
      "gment": 3180,
      "Ġglobal": 3181,
      "ook": 3182,
      "Sele": 3183,
      "Ġcomponents": 3184,
      "bottom": 3185,
      "Ġnat": 3186,
      "Ġband": 3187,
      "Ġassump": 3188,
      "err": 3189,
      "Ġcor": 3190,
      "Ġweak": 3191,
      "ood": 3192,
      "Fact": 3193,
      "Ġbin": 3194,
      "Ġcoupling": 3195,
      "textrm": 3196,
      "~$": 3197,
      "lations": 3198,
      "Ġhom": 3199,
      "Ġrelated": 3200,
      "({": 3201,
      "Ġsay": 3202,
      "Ġalways": 3203,
      "Date": 3204,
      "ols": 3205,
      "Ġfilter": 3206,
      "Ġpack": 3207,
      "ressed": 3208,
      "af": 3209,
      "Ġmagnetic": 3210,
      "Ġclassif": 3211,
      "Ġtherefore": 3212,
      "ĠTable": 3213,
      "icture": 3214,
      "case": 3215,
      "Ġques": 3216,
      "Stream": 3217,
      "teq": 3218,
      "osition": 3219,
      "Call": 3220,
      "print": 3221,
      "Ġrelations": 3222,
      "oken": 3223,
      "Int": 3224,
      "finite": 3225,
      "NN": 3226,
      "Ġrefer": 3227,
      "Ġgreat": 3228,
      "column": 3229,
      "more": 3230,
      "cep": 3231,
      "Line": 3232,
      "ĠÐ": 3233,
      "ecu": 3234,
      "Ġpers": 3235,
      "OP": 3236,
      "Ġspectrum": 3237,
      "âĢľ": 3238,
      "Count": 3239,
      "ĠAnd": 3240,
      "Ġholds": 3241,
      "ek": 3242,
      "Ġcannot": 3243,
      "mpl": 3244,
      "Ġti": 3245,
      "ests": 3246,
      "ĠNote": 3247,
      "])": 3248,
      "ĠĠĠĠĠĠĠĠĠĠĠĠĠĠ": 3249,
      "Ġdouble": 3250,
      "Ġimages": 3251,
      "php": 3252,
      "}^{-": 3253,
      "Ġdiv": 3254,
      "uting": 3255,
      "Ġestimate": 3256,
      "ĠTr": 3257,
      "Theta": 3258,
      "2021": 3259,
      "Ġcap": 3260,
      "event": 3261,
      "Ass": 3262,
      "ily": 3263,
      "eV": 3264,
      "clusion": 3265,
      "ONT": 3266,
      "cast": 3267,
      "49": 3268,
      "supp": 3269,
      "oding": 3270,
      "Ġlang": 3271,
      "Then": 3272,
      "options": 3273,
      "server": 3274,
      "divid": 3275,
      "Ġ\\;": 3276,
      "Ġchild": 3277,
      "70": 3278,
      "{$": 3279,
      "ird": 3280,
      "Ġ<<": 3281,
      "2011": 3282,
      "Ġ->": 3283,
      "ĠTherefore": 3284,
      "obj": 3285,
      "Ġtry": 3286,
      "ove": 3287,
      "contro": 3288,
      "Ġwave": 3289,
      "Ġeffective": 3290,
      "ideo": 3291,
      "Since": 3292,
      "like": 3293,
      "Ġdon": 3294,
      "Ġplace": 3295,
      "Ġvelocity": 3296,
      "ometry": 3297,
      "AG": 3298,
      "lap": 3299,
      "}'": 3300,
      "Ext": 3301,
      "write": 3302,
      "CE": 3303,
      "ories": 3304,
      "Sc": 3305,
      "ety": 3306,
      "Ġmaximum": 3307,
      "loud": 3308,
      "Ġsyn": 3309,
      "Action": 3310,
      "func": 3311,
      "Pre": 3312,
      "Ġthrow": 3313,
      "tational": 3314,
      "append": 3315,
      "Ġblack": 3316,
      "PI": 3317,
      "empty": 3318,
      "ymp": 3319,
      "Ðµ": 3320,
      "gether": 3321,
      "}}_{": 3322,
      "Ġcost": 3323,
      "Ġwhether": 3324,
      "ric": 3325,
      "mes": 3326,
      "seteq": 3327,
      "gence": 3328,
      "active": 3329,
      "cheme": 3330,
      "laim": 3331,
      "Ph": 3332,
      "Not": 3333,
      "bigg": 3334,
      "Ġwant": 3335,
      "ored": 3336,
      "88": 3337,
      "jor": 3338,
      "ention": 3339,
      "Ġintegr": 3340,
      "omes": 3341,
      "Ġshort": 3342,
      "<\\": 3343,
      "level": 3344,
      "Ġ$\\{": 3345,
      "ale": 3346,
      "roll": 3347,
      "Input": 3348,
      "47": 3349,
      "values": 3350,
      "Ġown": 3351,
      "Ġpla": 3352,
      "book": 3353,
      "ech": 3354,
      "Ġadditional": 3355,
      "ba": 3356,
      "Per": 3357,
      "Ġdifference": 3358,
      "cket": 3359,
      "AM": 3360,
      "client": 3361,
      "Ġevolution": 3362,
      "ĠĠĠĠĠĠĠĠĊ": 3363,
      "ATE": 3364,
      "jav": 3365,
      "Util": 3366,
      "Ġborder": 3367,
      "),\\": 3368,
      "ernel": 3369,
      "prod": 3370,
      "matic": 3371,
      "Ġ$|": 3372,
      "ires": 3373,
      "first": 3374,
      "2010": 3375,
      "ynomial": 3376,
      "pol": 3377,
      "mar": 3378,
      "Parameter": 3379,
      "Ġnecess": 3380,
      "ately": 3381,
      "tocol": 3382,
      "ĠPar": 3383,
      "Ġheight": 3384,
      "={": 3385,
      "known": 3386,
      "inally": 3387,
      "GL": 3388,
      "Ġregular": 3389,
      "Ġsuccess": 3390,
      "ĠPh": 3391,
      "she": 3392,
      "Ġsignal": 3393,
      ".âĢĿ": 3394,
      "ĠCO": 3395,
      "Ġprec": 3396,
      "Ġinvari": 3397,
      "Ġprovided": 3398,
      "Ġreason": 3399,
      "dagger": 3400,
      "Ġdesign": 3401,
      "Ġmargin": 3402,
      "perties": 3403,
      "leg": 3404,
      "Ġmove": 3405,
      "iff": 3406,
      "icro": 3407,
      "stit": 3408,
      "Ġeigen": 3409,
      "Ġmight": 3410,
      "Ġrelative": 3411,
      "Ġobjects": 3412,
      ".$": 3413,
      "Ġstars": 3414,
      "Ġeffects": 3415,
      "Status": 3416,
      "ĠĠĠĠĠĠĠĠĠĠĠĠĊ": 3417,
      "Ġmultiple": 3418,
      "ĠSec": 3419,
      "texttt": 3420,
      "ledge": 3421,
      "Ġlaw": 3422,
      "izer": 3423,
      "YPE": 3424,
      "Ġhim": 3425,
      "minus": 3426,
      "Note": 3427,
      "Lay": 3428,
      "Image": 3429,
      "Ġvariable": 3430,
      "adding": 3431,
      "Ġpost": 3432,
      "norm": 3433,
      "}},": 3434,
      "iter": 3435,
      "though": 3436,
      "Ġbro": 3437,
      "subseteq": 3438,
      "Ġmechan": 3439,
      "Ġmetric": 3440,
      "Ġcommon": 3441,
      "Ġneutr": 3442,
      "Ġatta": 3443,
      "Ġ]": 3444,
      "Ġinves": 3445,
      "Ġevents": 3446,
      "^{-\\": 3447,
      "Block": 3448,
      "Ġcompared": 3449,
      "87": 3450,
      "pher": 3451,
      "_+": 3452,
      "Ġremo": 3453,
      ")|": 3454,
      "Ġboolean": 3455,
      "sitions": 3456,
      "ours": 3457,
      "ino": 3458,
      "thes": 3459,
      "dividual": 3460,
      "Ġpanel": 3461,
      "turb": 3462,
      "Ġworld": 3463,
      "tage": 3464,
      "Ġratio": 3465,
      "iness": 3466,
      "SC": 3467,
      "ĠĠĠĊ": 3468,
      "Nav": 3469,
      "*{": 3470,
      "header": 3471,
      "Component": 3472,
      "idence": 3473,
      "Ġinvol": 3474,
      "font": 3475,
      "Ġ($\\": 3476,
      "Ġdirection": 3477,
      "Ġnodes": 3478,
      "ending": 3479,
      "REF": 3480,
      "First": 3481,
      "SU": 3482,
      "umbers": 3483,
      "Ġspecial": 3484,
      "AA": 3485,
      "Ġtheorem": 3486,
      "Ġpur": 3487,
      "Ġflux": 3488,
      "Ġhyper": 3489,
      "ef": 3490,
      "ital": 3491,
      "Ġcenter": 3492,
      "Ġfar": 3493,
      "\\'": 3494,
      "stack": 3495,
      "Sp": 3496,
      "Ġspect": 3497,
      "onic": 3498,
      "Supp": 3499,
      "navbar": 3500,
      "HT": 3501,
      "UE": 3502,
      "$_": 3503,
      "Ġbasis": 3504,
      "Ġprofile": 3505,
      "Ġdone": 3506,
      "Ġgau": 3507,
      "Ġ()": 3508,
      "Ġ\"\"\"": 3509,
      "orage": 3510,
      "Fe": 3511,
      "wedge": 3512,
      "cond": 3513,
      "ade": 3514,
      "Base": 3515,
      "Ġrestr": 3516,
      "\\}": 3517,
      "Ġcontinuous": 3518,
      "Ġdetails": 3519,
      "quare": 3520,
      "Ġemission": 3521,
      "tact": 3522,
      "Ġgas": 3523,
      "Cell": 3524,
      "Token": 3525,
      "van": 3526,
      "hip": 3527,
      "\\\"": 3528,
      "cell": 3529,
      "abs": 3530,
      "Box": 3531,
      "Options": 3532,
      "lease": 3533,
      "Instance": 3534,
      "request": 3535,
      "oot": 3536,
      "icense": 3537,
      "Ġseries": 3538,
      "Doc": 3539,
      "Ġupper": 3540,
      "ĠAll": 3541,
      "xml": 3542,
      "omic": 3543,
      "iven": 3544,
      "dap": 3545,
      "sid": 3546,
      "ght": 3547,
      "child": 3548,
      "property": 3549,
      "oplus": 3550,
      "alog": 3551,
      "Ġaccount": 3552,
      "incip": 3553,
      "cks": 3554,
      "$(": 3555,
      "ĠNULL": 3556,
      "linewidth": 3557,
      "Ġax": 3558,
      "SI": 3559,
      "Dec": 3560,
      "Ġtypes": 3561,
      "corre": 3562,
      "sg": 3563,
      "ĠYou": 3564,
      "Ġ$-": 3565,
      "open": 3566,
      "Ġsetting": 3567,
      "ĠCol": 3568,
      "lec": 3569,
      "Ġjo": 3570,
      "iction": 3571,
      "limits": 3572,
      "radi": 3573,
      "Ġvir": 3574,
      "ilities": 3575,
      "MM": 3576,
      "77": 3577,
      "target": 3578,
      "forms": 3579,
      "omorphism": 3580,
      "Ġunique": 3581,
      "istory": 3582,
      "Ġfrequency": 3583,
      "Ġapplic": 3584,
      "Ġenough": 3585,
      "deed": 3586,
      "mag": 3587,
      "Ġrole": 3588,
      "Ġsite": 3589,
      "Ġrel": 3590,
      "Ed": 3591,
      "Ġreference": 3592,
      "izes": 3593,
      "Ġ~": 3594,
      "dle": 3595,
      "lished": 3596,
      "Ġnoise": 3597,
      "Ġvarious": 3598,
      "Ġpresented": 3599,
      "air": 3600,
      "Ġlik": 3601,
      "Ġdataset": 3602,
      "Ġhowever": 3603,
      "Ġdegree": 3604,
      "2009": 3605,
      "Ġpage": 3606,
      "tiz": 3607,
      "az": 3608,
      "rees": 3609,
      "Ġapplied": 3610,
      "Ġequivalent": 3611,
      "range": 3612,
      "Ġcharge": 3613,
      "89": 3614,
      "strong": 3615,
      "Conn": 3616,
      "Ġaccess": 3617,
      "json": 3618,
      "Ġstatis": 3619,
      "Ġconstruct": 3620,
      "Ġsmooth": 3621,
      "stream": 3622,
      "Ġitem": 3623,
      "Resource": 3624,
      "Ġoperators": 3625,
      "Ġdisplay": 3626,
      "Ġtoo": 3627,
      "Ġ(-": 3628,
      "ectors": 3629,
      "filter": 3630,
      "Ġfamily": 3631,
      "Handler": 3632,
      "46": 3633,
      "izing": 3634,
      ")/": 3635,
      "len": 3636,
      "Spec": 3637,
      "Ġgalaxies": 3638,
      "Ġmatter": 3639,
      "aly": 3640,
      "Ġlayer": 3641,
      "py": 3642,
      "Ġgrow": 3643,
      "Ġ+=": 3644,
      "enari": 3645,
      "lor": 3646,
      "setminus": 3647,
      "Source": 3648,
      "Ġfig": 3649,
      "aves": 3650,
      "ket": 3651,
      "OD": 3652,
      "Ġaccording": 3653,
      "Ġbuil": 3654,
      "creen": 3655,
      "iversity": 3656,
      "count": 3657,
      "ived": 3658,
      "_{(": 3659,
      "Ġpolynomial": 3660,
      "omen": 3661,
      "Ð¸": 3662,
      "wards": 3663,
      "cs": 3664,
      "Attribute": 3665,
      "ĠBut": 3666,
      "tributes": 3667,
      "_{{\\": 3668,
      "Ġproject": 3669,
      "Run": 3670,
      "alk": 3671,
      "HE": 3672,
      "Ġfun": 3673,
      "Ġsymmetry": 3674,
      "Ġreach": 3675,
      "Ġhttp": 3676,
      "Ġinstead": 3677,
      "Ġvertex": 3678,
      "ĠList": 3679,
      "86": 3680,
      "uk": 3681,
      "Ġresearch": 3682,
      "Ġservice": 3683,
      "Ġexpan": 3684,
      "=-": 3685,
      "ĠIs": 3686,
      "){\\": 3687,
      "typ": 3688,
      "LT": 3689,
      "btn": 3690,
      "Ġbehavior": 3691,
      "Ġsoft": 3692,
      ".\"": 3693,
      "ranch": 3694,
      "Ġ$[": 3695,
      "Ġangle": 3696,
      "Ġexplicit": 3697,
      "Ġmodule": 3698,
      "description": 3699,
      "Ġcertain": 3700,
      "Ġinequ": 3701,
      "src": 3702,
      "ograph": 3703,
      "Ġmem": 3704,
      "Ġupdate": 3705,
      "Ġobservations": 3706,
      "uss": 3707,
      "ators": 3708,
      "Ġdecre": 3709,
      "Ġwhose": 3710,
      "Command": 3711,
      "LASS": 3712,
      "_*": 3713,
      "Ġembed": 3714,
      "Buffer": 3715,
      "=(": 3716,
      "Link": 3717,
      "Content": 3718,
      "mbers": 3719,
      "Function": 3720,
      "Ġcyc": 3721,
      "allel": 3722,
      "tative": 3723,
      "Ġclosed": 3724,
      "init": 3725,
      "EX": 3726,
      "2008": 3727,
      "encies": 3728,
      "enti": 3729,
      "ĠWhen": 3730,
      "fs": 3731,
      "definition": 3732,
      "Ġagainst": 3733,
      "mt": 3734,
      "Ġindividual": 3735,
      "foo": 3736,
      "igger": 3737,
      "Ġbounded": 3738,
      "FT": 3739,
      "Co": 3740,
      "img": 3741,
      "ĠData": 3742,
      "Ġcurve": 3743,
      "amilton": 3744,
      "96": 3745,
      "Ġ}\\": 3746,
      "ĠDis": 3747,
      "private": 3748,
      "[\"": 3749,
      "Ġhard": 3750,
      "${": 3751,
      "Ġhead": 3752,
      "DB": 3753,
      "Ġapply": 3754,
      "Ġarea": 3755,
      "Ġstrate": 3756,
      "Version": 3757,
      "Hel": 3758,
      "Ġapplication": 3759,
      "Ġgauge": 3760,
      "Ġextension": 3761,
      "Ġrepresent": 3762,
      "*/": 3763,
      "Ġtechni": 3764,
      "Ġsmaller": 3765,
      "number": 3766,
      "overn": 3767,
      "Ġtaken": 3768,
      "}%": 3769,
      "CK": 3770,
      "teger": 3771,
      "idden": 3772,
      "element": 3773,
      "ollary": 3774,
      "42": 3775,
      "Ġexplo": 3776,
      "city": 3777,
      "Ġchanges": 3778,
      "subfigure": 3779,
      "Ġsto": 3780,
      "Ġgroups": 3781,
      "One": 3782,
      "Ġformula": 3783,
      "dx": 3784,
      ")\\,": 3785,
      "ested": 3786,
      "Ġil": 3787,
      "vider": 3788,
      "IM": 3789,
      "bitr": 3790,
      "sto": 3791,
      "Ġuncer": 3792,
      "scri": 3793,
      "Ġgame": 3794,
      "ture": 3795,
      "ĠWith": 3796,
      "process": 3797,
      "Equal": 3798,
      "hood": 3799,
      "Ġchoice": 3800,
      "aries": 3801,
      "Ġtogether": 3802,
      "Ġparticle": 3803,
      "Ġfuture": 3804,
      "Ġapproximation": 3805,
      "cr": 3806,
      "entif": 3807,
      "orth": 3808,
      "Net": 3809,
      "cl": 3810,
      "Ġhence": 3811,
      "parent": 3812,
      "97": 3813,
      "scope": 3814,
      "Ġable": 3815,
      "iler": 3816,
      "PC": 3817,
      "Ġthink": 3818,
      "_{-": 3819,
      "Task": 3820,
      "Ġnatural": 3821,
      "serve": 3822,
      "rr": 3823,
      "aligned": 3824,
      "eded": 3825,
      "Ġdirectly": 3826,
      "ĉĉĉĉĉĉĉĉ": 3827,
      ":\\": 3828,
      "SO": 3829,
      "Ġinternal": 3830,
      "sa": 3831,
      "ĠFe": 3832,
      "post": 3833,
      "TO": 3834,
      "Cur": 3835,
      "Ġconfiguration": 3836,
      "'\\": 3837,
      "ĠBe": 3838,
      "Ġimprove": 3839,
      "fit": 3840,
      "ĠThey": 3841,
      "Ġwindow": 3842,
      "Ġpattern": 3843,
      "host": 3844,
      "uman": 3845,
      "Factory": 3846,
      "Ġresource": 3847,
      "ĠPo": 3848,
      "ĠCar": 3849,
      "Ġtree": 3850,
      "Change": 3851,
      "Ġparticles": 3852,
      "Ġexpla": 3853,
      "Number": 3854,
      "Ġsit": 3855,
      "parse": 3856,
      "status": 3857,
      "Ġprovides": 3858,
      "Ġallows": 3859,
      "Ġsufficient": 3860,
      ",\\,": 3861,
      "Ġphysical": 3862,
      "PS": 3863,
      "black": 3864,
      "ques": 3865,
      "oo": 3866,
      "llar": 3867,
      "Ġir": 3868,
      "rel": 3869,
      "bul": 3870,
      "sup": 3871,
      "Ġinterval": 3872,
      "{{": 3873,
      "Filter": 3874,
      "Frame": 3875,
      "Ġdetermined": 3876,
      "ĠNone": 3877,
      "Ġextends": 3878,
      "gl": 3879,
      "kip": 3880,
      "Ġred": 3881,
      "Format": 3882,
      "Ġacross": 3883,
      "ĠPre": 3884,
      "Ġneigh": 3885,
      "ÑĤ": 3886,
      "usiness": 3887,
      "cat": 3888,
      "Ġprac": 3889,
      "alt": 3890,
      "crete": 3891,
      ")}(": 3892,
      "Ġ|\\": 3893,
      "match": 3894,
      "push": 3895,
      "rowser": 3896,
      "Ġbecomes": 3897,
      "ification": 3898,
      "hel": 3899,
      "unit": 3900,
      "aussian": 3901,
      "});": 3902,
      "Ġbegin": 3903,
      "num": 3904,
      "format": 3905,
      "fla": 3906,
      "ially": 3907,
      "close": 3908,
      "Label": 3909,
      "Ġeasi": 3910,
      "monstra": 3911,
      "ank": 3912,
      "oder": 3913,
      "cd": 3914,
      "Ġfore": 3915,
      "Ġoptimal": 3916,
      "Ġtransp": 3917,
      "Ġunderstand": 3918,
      "build": 3919,
      "Ġamp": 3920,
      "sign": 3921,
      "Ġcorrect": 3922,
      "Now": 3923,
      "\"]": 3924,
      "Vert": 3925,
      "mine": 3926,
      "Ġconnected": 3927,
      "Ġuniform": 3928,
      "Ġ\\(": 3929,
      "Ġmer": 3930,
      "nit": 3931,
      "ony": 3932,
      "cont": 3933,
      "Ġcommand": 3934,
      "stract": 3935,
      "Ġsamples": 3936,
      "Window": 3937,
      "Ġnumerical": 3938,
      "Ġradius": 3939,
      "57": 3940,
      "FONT": 3941,
      "FI": 3942,
      "ĠProposition": 3943,
      "VER": 3944,
      "Ġmomentum": 3945,
      "Ġdynamics": 3946,
      "ptr": 3947,
      "ĠLi": 3948,
      "Ġrow": 3949,
      "pag": 3950,
      "Ġclient": 3951,
      "Ġ+\\": 3952,
      "Ġargument": 3953,
      "Ġopp": 3954,
      "Style": 3955,
      "zero": 3956,
      "ropy": 3957,
      "Ġdescription": 3958,
      "std": 3959,
      "else": 3960,
      "ised": 3961,
      "Ġregions": 3962,
      "last": 3963,
      "ably": 3964,
      "tifact": 3965,
      "Ġscatter": 3966,
      "sol": 3967,
      "'_": 3968,
      "FA": 3969,
      "}}(\\": 3970,
      "Ġcompute": 3971,
      "Default": 3972,
      "Ġval": 3973,
      "Ġprior": 3974,
      "Ġquery": 3975,
      "Ġsatisfies": 3976,
      "ascript": 3977,
      "Ġhapp": 3978,
      "Eq": 3979,
      "aring": 3980,
      "Ġarbitr": 3981,
      "///": 3982,
      "Ġproced": 3983,
      "ru": 3984,
      "Ġsources": 3985,
      "layout": 3986,
      "dient": 3987,
      "reed": 3988,
      "Ġrather": 3989,
      "used": 3990,
      "True": 3991,
      "colon": 3992,
      "icients": 3993,
      "Next": 3994,
      "Ġsolid": 3995,
      "ervices": 3996,
      "rag": 3997,
      "Ġenti": 3998,
      "Ġput": 3999,
      "Ġsimulations": 4000,
      "Ġplot": 4001,
      "Bo": 4002,
      "remark": 4003,
      "Ġdemonstra": 4004,
      "lustra": 4005,
      "osen": 4006,
      "plugin": 4007,
      "Ġrest": 4008,
      "Ġnuc": 4009,
      "Oper": 4010,
      "Page": 4011,
      "ĠCo": 4012,
      "dist": 4013,
      "semb": 4014,
      "Ġcritical": 4015,
      "only": 4016,
      "Ġdocument": 4017,
      "Ġframework": 4018,
      "olute": 4019,
      "ĠOne": 4020,
      "Ġproblems": 4021,
      "items": 4022,
      "Ġdiscussed": 4023,
      "DF": 4024,
      "meric": 4025,
      "show": 4026,
      "Ġmaps": 4027,
      "Ġ&=&": 4028,
      "super": 4029,
      "Ġwritten": 4030,
      "Off": 4031,
      "notation": 4032,
      "Ġ((": 4033,
      "Ġcour": 4034,
      "ops": 4035,
      "forall": 4036,
      "Row": 4037,
      "Ġnumbers": 4038,
      "2007": 4039,
      "brary": 4040,
      "PR": 4041,
      "lean": 4042,
      "Ġvertices": 4043,
      "Ġamplit": 4044,
      "âĢ¦": 4045,
      "orld": 4046,
      "Ġlater": 4047,
      "Ġspectral": 4048,
      "84": 4049,
      "rl": 4050,
      ")_{": 4051,
      "Ġconstraints": 4052,
      "ĠObject": 4053,
      "Ġspecified": 4054,
      "asy": 4055,
      "na": 4056,
      "find": 4057,
      "Ġstruct": 4058,
      "ĠIN": 4059,
      "Return": 4060,
      "Ġexperiments": 4061,
      "Pr": 4062,
      "Tag": 4063,
      "perp": 4064,
      "update": 4065,
      "gies": 4066,
      "Check": 4067,
      "Ġscalar": 4068,
      "ometric": 4069,
      "Ġenvironment": 4070,
      "gress": 4071,
      "meq": 4072,
      "umin": 4073,
      "Ġnegative": 4074,
      "ERT": 4075,
      "Arg": 4076,
      "dev": 4077,
      "\\!\\!": 4078,
      "}$-": 4079,
      "Ð½": 4080,
      "PRO": 4081,
      "Ġ<!--": 4082,
      "Ġdecay": 4083,
      "Ġground": 4084,
      "Ġinterface": 4085,
      "Last": 4086,
      "subsubsection": 4087,
      "rap": 4088,
      "Ġincrease": 4089,
      "Ġconstruction": 4090,
      "Ġperturb": 4091,
      "Ġlife": 4092,
      "Ġscheme": 4093,
      "ql": 4094,
      "Ġfocus": 4095,
      "reference": 4096,
      "vant": 4097,
      "Controller": 4098,
      "Ġmaterial": 4099,
      "Ġpeak": 4100,
      "tate": 4101,
      "container": 4102,
      "Ġwar": 4103,
      "instance": 4104,
      "oto": 4105,
      "Ġamong": 4106,
      "NO": 4107,
      "Ġroot": 4108,
      "sole": 4109,
      "usion": 4110,
      "Ġcompact": 4111,
      "ili": 4112,
      "Ġconnection": 4113,
      "rier": 4114,
      "sur": 4115,
      "buf": 4116,
      "Loc": 4117,
      "Ġaccuracy": 4118,
      "Ġdomin": 4119,
      "simeq": 4120,
      "Ġscenari": 4121,
      "Acc": 4122,
      "Ġerrors": 4123,
      "Ġmanif": 4124,
      "Ġdescribe": 4125,
      "ĠOr": 4126,
      "args": 4127,
      "endif": 4128,
      "Ġcorresponds": 4129,
      "Ġpl": 4130,
      "idget": 4131,
      "Ġcomparison": 4132,
      "ĠHence": 4133,
      "response": 4134,
      "ocial": 4135,
      "agement": 4136,
      "Ġlattice": 4137,
      "Bundle": 4138,
      "Ġwords": 4139,
      "Ġconven": 4140,
      "layer": 4141,
      "Ġmeasured": 4142,
      ")^{\\": 4143,
      "gu": 4144,
      "Listener": 4145,
      "Ġprotected": 4146,
      "ses": 4147,
      "LS": 4148,
      "ully": 4149,
      "ympto": 4150,
      "free": 4151,
      "allet": 4152,
      "Ġsen": 4153,
      "tries": 4154,
      "Ġprogram": 4155,
      "Ġcapa": 4156,
      "Button": 4157,
      ")^{-": 4158,
      "sheet": 4159,
      "ĠRo": 4160,
      "56": 4161,
      "Create": 4162,
      "ĠRec": 4163,
      "float": 4164,
      "ĠQu": 4165,
      "Se": 4166,
      "Ġweb": 4167,
      "98": 4168,
      "Read": 4169,
      "Ġnone": 4170,
      "sequence": 4171,
      "SON": 4172,
      "vector": 4173,
      "vo": 4174,
      ",âĢĿ": 4175,
      "lash": 4176,
      "Ġselection": 4177,
      "Ġtensor": 4178,
      "ABLE": 4179,
      "CP": 4180,
      "Here": 4181,
      "uter": 4182,
      "ĠHere": 4183,
      "Ġ{@": 4184,
      "Null": 4185,
      "menu": 4186,
      "Ġincreasing": 4187,
      "Ġthrows": 4188,
      "Ġminimum": 4189,
      "rup": 4190,
      "common": 4191,
      "totype": 4192,
      "javascript": 4193,
      "ali": 4194,
      "signed": 4195,
      "Ġbody": 4196,
      "textsc": 4197,
      "Ġoften": 4198,
      "service": 4199,
      "Ġderived": 4200,
      "./": 4201,
      "Ġday": 4202,
      "(&": 4203,
      "Point": 4204,
      "break": 4205,
      "Ġclassical": 4206,
      "ani": 4207,
      "Ġclasses": 4208,
      "Ġagree": 4209,
      "Ġoption": 4210,
      "params": 4211,
      "Ġselected": 4212,
      "Ġresulting": 4213,
      "Ġold": 4214,
      "Ġkeep": 4215,
      "Ġstream": 4216,
      "SD": 4217,
      "Ġvan": 4218,
      "Ġcontribution": 4219,
      "select": 4220,
      "ĠBu": 4221,
      "models": 4222,
      "uary": 4223,
      "lier": 4224,
      "}^*": 4225,
      "Ġcorrelation": 4226,
      "then": 4227,
      "Ġcentral": 4228,
      "latform": 4229,
      "43": 4230,
      "ĠReturn": 4231,
      "ĠOur": 4232,
      "newcommand": 4233,
      "BU": 4234,
      "Equals": 4235,
      "gorithms": 4236,
      "orizont": 4237,
      "Ġspatial": 4238,
      "lines": 4239,
      "finition": 4240,
      "duc": 4241,
      "tx": 4242,
      "gges": 4243,
      "ĠTest": 4244,
      "Ġquestion": 4245,
      "ental": 4246,
      "Ġtag": 4247,
      "duces": 4248,
      "Meta": 4249,
      "trices": 4250,
      "amiltonian": 4251,
      "Ġprincip": 4252,
      "^{+": 4253,
      "Ġpress": 4254,
      "Auth": 4255,
      "Ġcore": 4256,
      "Ġurl": 4257,
      "Ġcalculated": 4258,
      "Ġalmost": 4259,
      "////////////////": 4260,
      "prec": 4261,
      "Ac": 4262,
      "([": 4263,
      "MC": 4264,
      "Ġplane": 4265,
      "Ġpartial": 4266,
      "Ġlocation": 4267,
      "Ġfraction": 4268,
      "rem": 4269,
      ".~(\\": 4270,
      "ously": 4271,
      "conf": 4272,
      "Ġmeasurements": 4273,
      "Ġoperation": 4274,
      "mpty": 4275,
      "Ġarch": 4276,
      "Ġreview": 4277,
      "Ġtechn": 4278,
      "ĠHREF": 4279,
      "Ġmotion": 4280,
      "2006": 4281,
      "ypes": 4282,
      "Ġexpansion": 4283,
      "Ġvolume": 4284,
      "entations": 4285,
      "Ġcoefficients": 4286,
      "cases": 4287,
      "Ġserver": 4288,
      "rate": 4289,
      "Ġorgan": 4290,
      "Ġbuild": 4291,
      "VE": 4292,
      "Ġedges": 4293,
      "Ġmakes": 4294,
      "ĉĉĊ": 4295,
      "Ġload": 4296,
      "PO": 4297,
      "Start": 4298,
      "uation": 4299,
      "andid": 4300,
      "Ġdiscussion": 4301,
      "refix": 4302,
      "$).": 4303,
      "Li": 4304,
      "Ġapproximate": 4305,
      "tree": 4306,
      "amer": 4307,
      "Ġassumption": 4308,
      "inue": 4309,
      "orn": 4310,
      "anced": 4311,
      "76": 4312,
      "opt": 4313,
      "Ġcustom": 4314,
      "Ġ${": 4315,
      ":</": 4316,
      "Ġdecomp": 4317,
      "ĠClass": 4318,
      "Ġcopy": 4319,
      "$^{-": 4320,
      "aded": 4321,
      "pass": 4322,
      "Ġdraw": 4323,
      "Ġlanguage": 4324,
      "Ġhaving": 4325,
      "Ġinvestig": 4326,
      "Our": 4327,
      "mations": 4328,
      "Ġbecome": 4329,
      "Ġformat": 4330,
      "ries": 4331,
      "vity": 4332,
      "Ġdate": 4333,
      "Ġcos": 4334,
      "ceed": 4335,
      "ided": 4336,
      "Web": 4337,
      "ategor": 4338,
      "{$\\": 4339,
      "Ġpay": 4340,
      "Ġtransform": 4341,
      "UI": 4342,
      ")}{\\": 4343,
      "Ġsupported": 4344,
      "Ġtakes": 4345,
      "reshold": 4346,
      "Ġrule": 4347,
      ">>": 4348,
      "tran": 4349,
      "ĠâĢĺ": 4350,
      "Ġperformed": 4351,
      "Ġlearn": 4352,
      "ĠLo": 4353,
      "\").": 4354,
      "Ġinteger": 4355,
      "INT": 4356,
      "auto": 4357,
      "ÑĢ": 4358,
      "entry": 4359,
      "}}^": 4360,
      "tik": 4361,
      "Ġnetworks": 4362,
      "Ġsimulation": 4363,
      "Ġestab": 4364,
      "bound": 4365,
      "Ġworks": 4366,
      "Ġinequality": 4367,
      "inner": 4368,
      "soft": 4369,
      "come": 4370,
      "orizontal": 4371,
      "Ġparent": 4372,
      "zz": 4373,
      "Pol": 4374,
      "ĠOp": 4375,
      "$$\\": 4376,
      "Ġrespon": 4377,
      "vex": 4378,
      "Ġcorrespond": 4379,
      "ĉĠĠĠ": 4380,
      "direct": 4381,
      "Ġintegral": 4382,
      "ixel": 4383,
      "Ġdepends": 4384,
      "ising": 4385,
      "<?": 4386,
      "ĠMan": 4387,
      "Output": 4388,
      "hom": 4389,
      "iding": 4390,
      "Ġ;": 4391,
      "scal": 4392,
      "_.": 4393,
      "Ġsplit": 4394,
      "41": 4395,
      "Ġconsistent": 4396,
      "output": 4397,
      "imp": 4398,
      "inding": 4399,
      "ench": 4400,
      "fil": 4401,
      "Ġfac": 4402,
      "ĠCLASS": 4403,
      "ina": 4404,
      "oms": 4405,
      "isms": 4406,
      "Ġtw": 4407,
      "Column": 4408,
      "attr": 4409,
      "Ġintroduced": 4410,
      "chool": 4411,
      "mma": 4412,
      "bits": 4413,
      "Ġbox": 4414,
      "Ġcatch": 4415,
      "mc": 4416,
      "Ġ=\\": 4417,
      "Ġcount": 4418,
      "ND": 4419,
      "Ġdistributions": 4420,
      "Ġchoose": 4421,
      "Mode": 4422,
      "Case": 4423,
      "deg": 4424,
      "loor": 4425,
      "Ġuntil": 4426,
      "dec": 4427,
      "Ġillustra": 4428,
      "Ġtrack": 4429,
      "})$.": 4430,
      "project": 4431,
      "SA": 4432,
      "Valid": 4433,
      "phere": 4434,
      "Ġshape": 4435,
      "Ġnecessary": 4436,
      "Ġinterpre": 4437,
      "Ġtheore": 4438,
      "imilar": 4439,
      "Char": 4440,
      "Ġneeded": 4441,
      "Temp": 4442,
      "uro": 4443,
      "Ġdisk": 4444,
      "urthermore": 4445,
      ")\\\\": 4446,
      "ront": 4447,
      "~~~~": 4448,
      "pmatrix": 4449,
      "500": 4450,
      "Ġinfinite": 4451,
      "Ġtaking": 4452,
      "Ġbit": 4453,
      "Layout": 4454,
      "Ġmajor": 4455,
      "remove": 4456,
      "ama": 4457,
      "Right": 4458,
      "Length": 4459,
      "Ġpolar": 4460,
      "Ġamount": 4461,
      "Ġdetection": 4462,
      "ĠMon": 4463,
      "Ġleads": 4464,
      "Ġcome": 4465,
      "2000": 4466,
      "tification": 4467,
      "Ġinvariant": 4468,
      "Ġsense": 4469,
      "reng": 4470,
      "bi": 4471,
      "Ġdenotes": 4472,
      "bullet": 4473,
      "Ġhome": 4474,
      "pg": 4475,
      "---": 4476,
      "Ġsymmetric": 4477,
      "itect": 4478,
      "Max": 4479,
      "ĠID": 4480,
      "ume": 4481,
      "ĠMoreover": 4482,
      "ogene": 4483,
      "Ġfail": 4484,
      "Ġhalf": 4485,
      "\\_": 4486,
      "osed": 4487,
      "Ġsugges": 4488,
      "Ġdiffic": 4489,
      "'}": 4490,
      "....": 4491,
      "More": 4492,
      "ple": 4493,
      "Ġkernel": 4494,
      "system": 4495,
      "Ġcut": 4496,
      "picture": 4497,
      "Ġfast": 4498,
      "Ġuses": 4499,
      "ĠFrom": 4500,
      "outh": 4501,
      "ĠSp": 4502,
      "sters": 4503,
      "Ġsimply": 4504,
      "Ġactive": 4505,
      "olve": 4506,
      "Ġhar": 4507,
      "Figure": 4508,
      "Ġensure": 4509,
      "=\"../../": 4510,
      "82": 4511,
      "Ġgoing": 4512,
      "ĠAmeric": 4513,
      "Ġ$$": 4514,
      "Ġcollection": 4515,
      "Ġspectra": 4516,
      "########": 4517,
      "make": 4518,
      "Ġcurves": 4519,
      ")_": 4520,
      "pres": 4521,
      "Ġrequires": 4522,
      "Ġuseful": 4523,
      "cf": 4524,
      "```": 4525,
      "ashed": 4526,
      "MB": 4527,
      "IO": 4528,
      "Ġmeta": 4529,
      "Ġstudies": 4530,
      "ĠCan": 4531,
      "mini": 4532,
      "endix": 4533,
      "CODE": 4534,
      "thon": 4535,
      "Ġdiscuss": 4536,
      "Ġarbitrary": 4537,
      "Str": 4538,
      "une": 4539,
      "mented": 4540,
      "NAME": 4541,
      "Ġbook": 4542,
      "Ġchosen": 4543,
      "Ġexperimental": 4544,
      "Ġdetermine": 4545,
      ",\"": 4546,
      "Ġadded": 4547,
      "inte": 4548,
      "bl": 4549,
      "Ġhost": 4550,
      "Ġonce": 4551,
      "Ġorbit": 4552,
      "sembly": 4553,
      "ker": 4554,
      "Ġmemory": 4555,
      "ĠGener": 4556,
      "CON": 4557,
      "When": 4558,
      "aa": 4559,
      "Ð¾Ð": 4560,
      "Ġprocedure": 4561,
      "Ġcomputed": 4562,
      "ĠCor": 4563,
      "rec": 4564,
      ")$-": 4565,
      "bert": 4566,
      "ions": 4567,
      "ĠType": 4568,
      "=\"../../../../../": 4569,
      "Ġdependence": 4570,
      "').": 4571,
      "Ġgenerate": 4572,
      "~$\\": 4573,
      "inf": 4574,
      "river": 4575,
      "hy": 4576,
      "|_{": 4577,
      "COL": 4578,
      "ĠTra": 4579,
      "pts": 4580,
      "PT": 4581,
      "aml": 4582,
      "Ġdual": 4583,
      "Ġauthor": 4584,
      "Collection": 4585,
      "ao": 4586,
      "iny": 4587,
      "Ġadj": 4588,
      "Ġleading": 4589,
      "Ġexamples": 4590,
      "place": 4591,
      "ĠRef": 4592,
      "CS": 4593,
      "\\|_{": 4594,
      "ĠLicense": 4595,
      "Ġreduced": 4596,
      "}}^{": 4597,
      "ids": 4598,
      "Ġthird": 4599,
      "essages": 4600,
      "ords": 4601,
      "Ġalgorithms": 4602,
      "dro": 4603,
      "pose": 4604,
      "isted": 4605,
      "2005": 4606,
      "Ġinteresting": 4607,
      "lice": 4608,
      "irit": 4609,
      "Ġstatus": 4610,
      "images": 4611,
      "ĠGaussian": 4612,
      "final": 4613,
      "sem": 4614,
      "Ġmatrices": 4615,
      "IF": 4616,
      "Ne": 4617,
      "ĠHT": 4618,
      "sd": 4619,
      "Ġrepresents": 4620,
      "Back": 4621,
      "Tree": 4622,
      "displaystyle": 4623,
      "eler": 4624,
      "Ġfont": 4625,
      "URL": 4626,
      "TYPE": 4627,
      "ĠSte": 4628,
      "imple": 4629,
      "Ġmention": 4630,
      "ĠBo": 4631,
      "Ġmodes": 4632,
      "\"),": 4633,
      "CL": 4634,
      "Ġusers": 4635,
      "ĠSch": 4636,
      "Ġcause": 4637,
      "ĠĠĠĠĠĠĠĠĠĠĠĠĠĠĠĠĠĠĠĠĠĠĠĠĠĠĠĠĠĠĠĠĠĠĠ": 4638,
      "licity": 4639,
      "Thus": 4640,
      "59": 4641,
      "igation": 4642,
      "Ġface": 4643,
      "Ġprocesses": 4644,
      "ĠDes": 4645,
      "However": 4646,
      "proto": 4647,
      "Ġ...": 4648,
      "classes": 4649,
      "Ġexcept": 4650,
      "Rem": 4651,
      "Ġchall": 4652,
      "mitted": 4653,
      "arp": 4654,
      "kit": 4655,
      "Ġemploy": 4656,
      "Ġspeed": 4657,
      "51": 4658,
      "Ġren": 4659,
      "ERR": 4660,
      "structure": 4661,
      "Ġspaces": 4662,
      "Ġminim": 4663,
      "Ġnever": 4664,
      "ditional": 4665,
      "window": 4666,
      "inst": 4667,
      "ibri": 4668,
      "_-": 4669,
      "Ġtreat": 4670,
      "Ġentire": 4671,
      "odot": 4672,
      "proposition": 4673,
      "tific": 4674,
      "Ġmagnit": 4675,
      "strap": 4676,
      "mode": 4677,
      "Ġpossi": 4678,
      "ĠNe": 4679,
      "Ġsymbol": 4680,
      "Ġclaim": 4681,
      "Dire": 4682,
      "83": 4683,
      "trib": 4684,
      "ounter": 4685,
      "Ġquanti": 4686,
      "Ġvirtual": 4687,
      "task": 4688,
      "Ġess": 4689,
      "Child": 4690,
      "sert": 4691,
      "Ġresolution": 4692,
      "Ġpairs": 4693,
      "Su": 4694,
      "Address": 4695,
      "blue": 4696,
      "Ġintroduce": 4697,
      "gular": 4698,
      "Ġstudied": 4699,
      "ections": 4700,
      "Server": 4701,
      "Ġstellar": 4702,
      "Ġprint": 4703,
      "mapsto": 4704,
      "enter": 4705,
      "results": 4706,
      "ĠUniversity": 4707,
      "79": 4708,
      "structed": 4709,
      "Ġatten": 4710,
      "trics": 4711,
      "omorphic": 4712,
      "++)": 4713,
      "offset": 4714,
      "Update": 4715,
      "rand": 4716,
      "entity": 4717,
      "$;": 4718,
      "Ġpolicy": 4719,
      "Ġcompare": 4720,
      "Ġfigure": 4721,
      "So": 4722,
      "ĠEX": 4723,
      "TP": 4724,
      "iti": 4725,
      "ĠSe": 4726,
      "Ġneeds": 4727,
      "ilibri": 4728,
      "HO": 4729,
      "Ġbinary": 4730,
      "Form": 4731,
      "Ġmid": 4732,
      "Ġexactly": 4733,
      "Ġeasily": 4734,
      "Vis": 4735,
      "=\"-": 4736,
      "ĠDo": 4737,
      "Theorem": 4738,
      "ĠOF": 4739,
      "lar": 4740,
      "acy": 4741,
      "Ġbar": 4742,
      "ogn": 4743,
      "Ġproduction": 4744,
      "\\{\\": 4745,
      "Ġscore": 4746,
      "DD": 4747,
      "Ab": 4748,
      "Ġsent": 4749,
      "Ġfi": 4750,
      "Ġchain": 4751,
      "itory": 4752,
      "Ġpul": 4753,
      "Intro": 4754,
      "ĠJan": 4755,
      "Ġimpact": 4756,
      "Ġyields": 4757,
      "}&": 4758,
      "Ġasympto": 4759,
      "boot": 4760,
      "dy": 4761,
      "ards": 4762,
      "sue": 4763,
      "Ġsubset": 4764,
      "Ġpresence": 4765,
      "dsh": 4766,
      "Ġcallback": 4767,
      "ĠSupp": 4768,
      "Ġcreated": 4769,
      "Ġforce": 4770,
      "Ġselect": 4771,
      "Ġ[]": 4772,
      "2004": 4773,
      "Ġarguments": 4774,
      "54": 4775,
      "bool": 4776,
      "Ġrelevant": 4777,
      "ube": 4778,
      "vey": 4779,
      "ĠFirst": 4780,
      "fi": 4781,
      "actions": 4782,
      "Ġorigin": 4783,
      "hbar": 4784,
      "va": 4785,
      "********************************": 4786,
      "ĉĠ": 4787,
      "root": 4788,
      "Ġreport": 4789,
      "nos": 4790,
      "mem": 4791,
      "plan": 4792,
      "Pack": 4793,
      "Entity": 4794,
      "Ġinner": 4795,
      "Ġdiagram": 4796,
      "Ġelectron": 4797,
      "Ġtransfer": 4798,
      "Url": 4799,
      "Ġfiles": 4800,
      "artifact": 4801,
      "variant": 4802,
      "ĠGo": 4803,
      "returns": 4804,
      "LP": 4805,
      "72": 4806,
      "ĠPer": 4807,
      "ĠHamiltonian": 4808,
      "rength": 4809,
      "'(": 4810,
      "52": 4811,
      "sm": 4812,
      "Ġreported": 4813,
      "rant": 4814,
      "Ġpopulation": 4815,
      "Ġmaking": 4816,
      "Ġsteps": 4817,
      "Ġquad": 4818,
      "tify": 4819,
      "band": 4820,
      "KE": 4821,
      "tikz": 4822,
      "Width": 4823,
      "author": 4824,
      "58": 4825,
      "68": 4826,
      "lision": 4827,
      "Ġremove": 4828,
      "Ġthough": 4829,
      "esti": 4830,
      "ttps": 4831,
      "dep": 4832,
      "ley": 4833,
      "Top": 4834,
      "control": 4835,
      "Ñģ": 4836,
      "ĠMay": 4837,
      "(_": 4838,
      "Ġeasy": 4839,
      "require": 4840,
      "Ġincluded": 4841,
      ")},": 4842,
      "rapper": 4843,
      "Ġparts": 4844,
      "dated": 4845,
      "ignment": 4846,
      "Ġstrict": 4847,
      "edia": 4848,
      "Ġ!==": 4849,
      "agraph": 4850,
      "Ġincreases": 4851,
      "Do": 4852,
      "board": 4853,
      "Ġnav": 4854,
      "MD": 4855,
      "Cache": 4856,
      "ĠVer": 4857,
      "aj": 4858,
      "Ġcoordinates": 4859,
      "etch": 4860,
      "high": 4861,
      "PP": 4862,
      "Ġvectors": 4863,
      "Ġexecu": 4864,
      "Ġhuman": 4865,
      "Ġaltern": 4866,
      "69": 4867,
      "Provider": 4868,
      "Ġapplications": 4869,
      "faces": 4870,
      "ought": 4871,
      "$~": 4872,
      "Ġformation": 4873,
      "Ġdeep": 4874,
      "sor": 4875,
      "ecause": 4876,
      "Ġearly": 4877,
      "ialog": 4878,
      "tains": 4879,
      "Ġreally": 4880,
      "Ġaxis": 4881,
      "Ġlikely": 4882,
      "Ġve": 4883,
      "Ġdark": 4884,
      "template": 4885,
      "volution": 4886,
      "ante": 4887,
      "rief": 4888,
      "Ġsays": 4889,
      ")+\\": 4890,
      "ĠThat": 4891,
      "Ġbelie": 4892,
      "ohn": 4893,
      "ident": 4894,
      "Ġitself": 4895,
      "Ġrank": 4896,
      "Ġrecon": 4897,
      "Ġreturns": 4898,
      "mediate": 4899,
      "ãģ": 4900,
      "thesis": 4901,
      "1000": 4902,
      "iffer": 4903,
      "step": 4904,
      "LD": 4905,
      "Ġstructures": 4906,
      "anner": 4907,
      "Ġyet": 4908,
      "[(": 4909,
      "}({\\": 4910,
      "Ġcomputation": 4911,
      "ĠMar": 4912,
      "Ġhttps": 4913,
      "illion": 4914,
      "Ġconvergence": 4915,
      "thers": 4916,
      "ĠAcc": 4917,
      "ĠCont": 4918,
      "Ġmeasurement": 4919,
      "ĠRem": 4920,
      "Ġidentity": 4921,
      "ĉĉĉĉĉĉĉ": 4922,
      "Ġcategory": 4923,
      "CA": 4924,
      "NR": 4925,
      "ermal": 4926,
      "minipage": 4927,
      "Ġfloat": 4928,
      "Ġmonth": 4929,
      "ĠSee": 4930,
      "hbox": 4931,
      "78": 4932,
      "ATION": 4933,
      "CR": 4934,
      "ather": 4935,
      "Ġport": 4936,
      "ĠĠĠĠĠĠĠĠĠĠĠĠĠĠĠĠĠĠĠĠĠ": 4937,
      "ises": 4938,
      "Ġtor": 4939,
      "Ġapproaches": 4940,
      "Ġquark": 4941,
      "Ġpas": 4942,
      "Ġempty": 4943,
      "Ġ$.": 4944,
      "Ġpub": 4945,
      "Ġotherwise": 4946,
      "ĠUp": 4947,
      "Ġhold": 4948,
      "rs": 4949,
      "prototype": 4950,
      "Types": 4951,
      "Ġwhole": 4952,
      "jects": 4953,
      "Ġdevice": 4954,
      "Ġdr": 4955,
      "Ġestimates": 4956,
      "Ġfactors": 4957,
      "bust": 4958,
      "ĠCal": 4959,
      "Ġinside": 4960,
      "Ste": 4961,
      "Ġgalaxy": 4962,
      "ĠReg": 4963,
      "Ġgap": 4964,
      "Ġembedding": 4965,
      "ĠNS": 4966,
      "ĠâĢĶ": 4967,
      "Ġvo": 4968,
      "Ġoffset": 4969,
      "tili": 4970,
      "Ġ{}": 4971,
      "Ġjob": 4972,
      "Ġknowledge": 4973,
      "Ġcandid": 4974,
      "Level": 4975,
      "seud": 4976,
      "})$,": 4977,
      "diag": 4978,
      "ening": 4979,
      "joint": 4980,
      "Ġextended": 4981,
      "deta": 4982,
      "Ġinteractions": 4983,
      "Ġblue": 4984,
      "ZE": 4985,
      "}}$,": 4986,
      "Ġobserve": 4987,
      "Ġconstraint": 4988,
      "ilibrium": 4989,
      "ones": 4990,
      "obile": 4991,
      "Ġque": 4992,
      "cial": 4993,
      "ĠPol": 4994,
      "Ġtransformation": 4995,
      "}}$.": 4996,
      "mass": 4997,
      "Ġlatter": 4998,
      "Ġshall": 4999,
      "alysis": 5000,
      "xx": 5001,
      "ighted": 5002,
      "should": 5003,
      "Ġanti": 5004,
      ":(": 5005,
      "Ġword": 5006,
      "ĠCoun": 5007,
      "Ġdistributed": 5008,
      ")-\\": 5009,
      "Ġpropag": 5010,
      "ĠGu": 5011,
      "Ġbranch": 5012,
      "onds": 5013,
      "Ġbuffer": 5014,
      "Ġdest": 5015,
      "}{|": 5016,
      "ĠModel": 5017,
      "istry": 5018,
      "Ġmach": 5019,
      "criptor": 5020,
      "bold": 5021,
      "Ġdifferential": 5022,
      "Ġwide": 5023,
      "VAL": 5024,
      "Ġabsolute": 5025,
      "Ġsure": 5026,
      "Ġones": 5027,
      "MO": 5028,
      "ynamic": 5029,
      "&=&": 5030,
      "Ġ**": 5031,
      "Ġexisting": 5032,
      "Min": 5033,
      "ĠĠĠĠĠĠĠĠĠĠĠĠĠĠĠĠĠĠĠĠ": 5034,
      "ĠArray": 5035,
      "ecute": 5036,
      "ensive": 5037,
      ")}_{": 5038,
      "iciency": 5039,
      "Ġvanish": 5040,
      "53": 5041,
      "clear": 5042,
      "ĠST": 5043,
      "Ġstrategy": 5044,
      "undam": 5045,
      "cp": 5046,
      "sities": 5047,
      "))$": 5048,
      "unk": 5049,
      "Ġfully": 5050,
      "bes": 5051,
      "Ġswitch": 5052,
      "Ġfix": 5053,
      "zed": 5054,
      ".)": 5055,
      "Ġloop": 5056,
      "NE": 5057,
      "inty": 5058,
      "Ġanalog": 5059,
      "Ġgovern": 5060,
      "Ġcourse": 5061,
      "ious": 5062,
      "Ġaway": 5063,
      "sample": 5064,
      "Ġsignificantly": 5065,
      "Ġscattering": 5066,
      "ĠÂ": 5067,
      "IGN": 5068,
      "ĠSci": 5069,
      "tml": 5070,
      "gments": 5071,
      "Ġlemma": 5072,
      "ĠFile": 5073,
      "alg": 5074,
      "ues": 5075,
      "Ġbottom": 5076,
      "Ġestimated": 5077,
      "Ġbig": 5078,
      "'),": 5079,
      "ĠMark": 5080,
      "uations": 5081,
      "FO": 5082,
      "Ġaut": 5083,
      "algebra": 5084,
      "Ġlen": 5085,
      "Ġsatisfy": 5086,
      "osite": 5087,
      "lastic": 5088,
      "cref": 5089,
      "ering": 5090,
      "Ġpartition": 5091,
      "isk": 5092,
      "bly": 5093,
      "Ġoptical": 5094,
      "Ġremains": 5095,
      "XX": 5096,
      "tainty": 5097,
      "symme": 5098,
      "Ġappropri": 5099,
      "âĢĵ": 5100,
      "Def": 5101,
      "Ġrates": 5102,
      "Ġcontaining": 5103,
      "ĠAPI": 5104,
      "Ġstable": 5105,
      "Ġavoid": 5106,
      "lide": 5107,
      "63": 5108,
      "}$)": 5109,
      "Search": 5110,
      "expected": 5111,
      "modal": 5112,
      "Ġexistence": 5113,
      "sues": 5114,
      "Ġnorm": 5115,
      "onential": 5116,
      "udio": 5117,
      "real": 5118,
      "ĠAdd": 5119,
      "Ġargs": 5120,
      "nap": 5121,
      "nd": 5122,
      "ĠDE": 5123,
      "uming": 5124,
      "buffer": 5125,
      "Ġhealth": 5126,
      "adow": 5127,
      "Ġmasses": 5128,
      "Ġbounds": 5129,
      "Ro": 5130,
      "Ġlittle": 5131,
      "$),": 5132,
      "Unit": 5133,
      "document": 5134,
      "Ġinc": 5135,
      "Local": 5136,
      "ounds": 5137,
      "Ġcontinue": 5138,
      "Ġactually": 5139,
      "scil": 5140,
      "Ġrunning": 5141,
      "Ġmorph": 5142,
      "ading": 5143,
      "patch": 5144,
      "stylesheet": 5145,
      ",$": 5146,
      "81": 5147,
      "ĠNow": 5148,
      "Ġlevels": 5149,
      "arily": 5150,
      "Offset": 5151,
      "Ġteam": 5152,
      ")--": 5153,
      "]);": 5154,
      "Open": 5155,
      "Ġstatement": 5156,
      "Ġentry": 5157,
      "onical": 5158,
      "()->": 5159,
      "Us": 5160,
      "}{(": 5161,
      "Ġnotation": 5162,
      "Ġessential": 5163,
      "Write": 5164,
      "Ġhandle": 5165,
      "AV": 5166,
      "\".": 5167,
      "SL": 5168,
      "matically": 5169,
      "RL": 5170,
      "Utils": 5171,
      "Ġvideo": 5172,
      "ugh": 5173,
      "Ġprediction": 5174,
      "Container": 5175,
      "Ġbasic": 5176,
      "Params": 5177,
      "usic": 5178,
      "Ġclassification": 5179,
      "entic": 5180,
      "yl": 5181,
      "Ġhash": 5182,
      "Ġtasks": 5183,
      "Mat": 5184,
      "after": 5185,
      "Can": 5186,
      "73": 5187,
      "ĠSub": 5188,
      "Ġdiver": 5189,
      "dr": 5190,
      "Ġmolec": 5191,
      "Ġ$|\\": 5192,
      "Ġlarg": 5193,
      "Ġbusiness": 5194,
      "Hz": 5195,
      "Header": 5196,
      "Ġpressure": 5197,
      "2003": 5198,
      "74": 5199,
      "amera": 5200,
      "OO": 5201,
      "Ġdepth": 5202,
      "vision": 5203,
      ":}": 5204,
      "Interface": 5205,
      "Ġbra": 5206,
      "Ġho": 5207,
      "Ġdecision": 5208,
      "Range": 5209,
      "Ġgrid": 5210,
      "Ġassumed": 5211,
      "comm": 5212,
      "ium": 5213,
      "artifactId": 5214,
      ">,": 5215,
      "Ġstrength": 5216,
      "cccc": 5217,
      "Ġamplitude": 5218,
      "ried": 5219,
      "cons": 5220,
      "Ġsm": 5221,
      "Ġfive": 5222,
      "ĠSer": 5223,
      "Ġquality": 5224,
      "unch": 5225,
      "Ġoptimization": 5226,
      "Ġefficient": 5227,
      "Target": 5228,
      "fect": 5229,
      "QL": 5230,
      "ĠInter": 5231,
      "oung": 5232,
      "Ġrender": 5233,
      "vm": 5234,
      "Ġcare": 5235,
      "weight": 5236,
      "ives": 5237,
      "gers": 5238,
      ",\\\\": 5239,
      "Ġallowed": 5240,
      "types": 5241,
      "LI": 5242,
      "berg": 5243,
      "Ġpixel": 5244,
      "eness": 5245,
      "TI": 5246,
      "Height": 5247,
      "chron": 5248,
      "94": 5249,
      "ung": 5250,
      "ogeneous": 5251,
      "}\\,\\": 5252,
      "Introduction": 5253,
      "Ġincludes": 5254,
      "device": 5255,
      "300": 5256,
      "Fla": 5257,
      "Ġgradient": 5258,
      "Ġflat": 5259,
      "Ġkind": 5260,
      "irm": 5261,
      "Ġangular": 5262,
      "Ġreson": 5263,
      "Ġcircle": 5264,
      "Ġdevelopment": 5265,
      "Ġrepla": 5266,
      "gent": 5267,
      "floor": 5268,
      "Ġrecover": 5269,
      "ales": 5270,
      "Ġwater": 5271,
      "Ġinduced": 5272,
      ")}}": 5273,
      "Ġoscil": 5274,
      "Ġslow": 5275,
      "ĠSpec": 5276,
      "Ġbal": 5277,
      "valu": 5278,
      "Ġconsists": 5279,
      "iting": 5280,
      "cong": 5281,
      "Ġuint": 5282,
      "Ġcounter": 5283,
      "RA": 5284,
      "COLOR": 5285,
      "rela": 5286,
      "Ġslight": 5287,
      "Ġidea": 5288,
      "Ġsuccessful": 5289,
      "Ġ^": 5290,
      "inct": 5291,
      "mas": 5292,
      "token": 5293,
      "Ġdevi": 5294,
      "Section": 5295,
      "Ġgraphs": 5296,
      "Ġactual": 5297,
      "Ġimplementation": 5298,
      "92": 5299,
      "Ġansw": 5300,
      "Ġtemplate": 5301,
      "GC": 5302,
      "Ġann": 5303,
      "-$": 5304,
      "reme": 5305,
      "ination": 5306,
      "Process": 5307,
      "wait": 5308,
      "tribution": 5309,
      "Ġconc": 5310,
      "Hash": 5311,
      "Ġmes": 5312,
      "Ġexternal": 5313,
      "Ġwhy": 5314,
      "Entry": 5315,
      "Ġ::": 5316,
      "Ġori": 5317,
      "Therefore": 5318,
      "iving": 5319,
      "=\"../../../../../../": 5320,
      "bot": 5321,
      "Pos": 5322,
      "\"))": 5323,
      "93": 5324,
      "drop": 5325,
      "Ġheav": 5326,
      "Ġcalculation": 5327,
      "Ġmembers": 5328,
      "car": 5329,
      "Ġconclude": 5330,
      "eral": 5331,
      "Position": 5332,
      "Ġcontrast": 5333,
      "Ġthreshold": 5334,
      "Ġrepe": 5335,
      "Ġonline": 5336,
      "lots": 5337,
      "Ġdays": 5338,
      "debug": 5339,
      "Using": 5340,
      "EQ": 5341,
      "Configuration": 5342,
      "component": 5343,
      "Ġinflu": 5344,
      "Ġarchitect": 5345,
      "ana": 5346,
      "Ġbul": 5347,
      "Ġexperience": 5348,
      "uint": 5349,
      "white": 5350,
      "Ġfeed": 5351,
      "ado": 5352,
      "groupId": 5353,
      "Ġcontributions": 5354,
      "isation": 5355,
      "Match": 5356,
      "Ġrestric": 5357,
      "roun": 5358,
      "Ġstore": 5359,
      "Ġdev": 5360,
      "utils": 5361,
      "Ġattribute": 5362,
      "Ġredsh": 5363,
      "allow": 5364,
      "62": 5365,
      "Ġins": 5366,
      "cknow": 5367,
      "oke": 5368,
      "Ġstarting": 5369,
      "tives": 5370,
      "Ġdeveloped": 5371,
      "Ġmedia": 5372,
      "GB": 5373,
      "Ġsquare": 5374,
      "Ġsoftware": 5375,
      "Ġsettings": 5376,
      "support": 5377,
      ";->": 5378,
      "Ġsus": 5379,
      "border": 5380,
      "SH": 5381,
      "Ġperson": 5382,
      "Ġgoal": 5383,
      "Script": 5384,
      "Ġcalculations": 5385,
      "Ġinj": 5386,
      "resource": 5387,
      "EM": 5388,
      "ux": 5389,
      "pop": 5390,
      "lesssim": 5391,
      "ibra": 5392,
      "eli": 5393,
      "Ġrules": 5394,
      "Ġhistory": 5395,
      "Ġpure": 5396,
      "]}": 5397,
      "hash": 5398,
      "Ġmagnitude": 5399,
      "Ġcli": 5400,
      "stable": 5401,
      "SM": 5402,
      "Ġscaling": 5403,
      "global": 5404,
      "tein": 5405,
      "zon": 5406,
      "rive": 5407,
      "Ġfluct": 5408,
      "Ġwhite": 5409,
      "Ġabsor": 5410,
      "ĠPe": 5411,
      "Cal": 5412,
      "Ġbelong": 5413,
      "Ġadap": 5414,
      "Ġ[\\": 5415,
      "eting": 5416,
      "cache": 5417,
      "pid": 5418,
      "Ġ^{": 5419,
      "BC": 5420,
      "internal": 5421,
      "Work": 5422,
      "FR": 5423,
      "Ġmicro": 5424,
      "Ġage": 5425,
      "âĢĶ": 5426,
      "transform": 5427,
      "circle": 5428,
      "Ġlonger": 5429,
      "Http": 5430,
      "PA": 5431,
      "Ġquite": 5432,
      "term": 5433,
      "olved": 5434,
      "cover": 5435,
      "None": 5436,
      "Callback": 5437,
      "Ġobservation": 5438,
      "Ġign": 5439,
      "osity": 5440,
      "ĠMa": 5441,
      "Ġ{$": 5442,
      "Ġreduction": 5443,
      "These": 5444,
      "undamental": 5445,
      "Ġxml": 5446,
      "ĠReturns": 5447,
      "Ġweek": 5448,
      "asic": 5449,
      "dual": 5450,
      "bigl": 5451,
      "Ġima": 5452,
      "olic": 5453,
      "Mon": 5454,
      "Ġeq": 5455,
      "Module": 5456,
      "mated": 5457,
      "ctx": 5458,
      "Im": 5459,
      "sect": 5460,
      "Ġbeam": 5461,
      "ounts": 5462,
      "Ġ*)": 5463,
      "ingu": 5464,
      "Ġcontact": 5465,
      "Access": 5466,
      "Ġmechanism": 5467,
      "ĠCreate": 5468,
      "utes": 5469,
      "%;": 5470,
      "Ġoperations": 5471,
      "à¤": 5472,
      "Left": 5473,
      "uck": 5474,
      "Ġminimal": 5475,
      "$_{": 5476,
      "Settings": 5477,
      "Ġauthors": 5478,
      "imes": 5479,
      "points": 5480,
      "full": 5481,
      "rea": 5482,
      "ategories": 5483,
      "Ġvol": 5484,
      "store": 5485,
      "Properties": 5486,
      "Ġdimensions": 5487,
      "Copy": 5488,
      "Ġissue": 5489,
      "$:": 5490,
      "Ġdetect": 5491,
      "Ġclusters": 5492,
      "Ġbroad": 5493,
      "SR": 5494,
      "Ġener": 5495,
      "Ġrotation": 5496,
      "Results": 5497,
      "ha": 5498,
      "Ġformal": 5499,
      "Ġregime": 5500,
      "Control": 5501,
      "chas": 5502,
      "ury": 5503,
      "MR": 5504,
      "Json": 5505,
      "zing": 5506,
      "double": 5507,
      "two": 5508,
      "Ġsomething": 5509,
      "ĠSc": 5510,
      "second": 5511,
      "Ġ>=": 5512,
      "ratic": 5513,
      "Ġcalculate": 5514,
      "Di": 5515,
      "Ġleg": 5516,
      "bigr": 5517,
      "iota": 5518,
      "background": 5519,
      "...,": 5520,
      "lector": 5521,
      "Empty": 5522,
      "^*$": 5523,
      "gated": 5524,
      "2001": 5525,
      "roy": 5526,
      "PL": 5527,
      "API": 5528,
      "@{": 5529,
      "Finally": 5530,
      "interface": 5531,
      "Ġreduce": 5532,
      "Ġsingular": 5533,
      "Ġtriv": 5534,
      "Ġcomes": 5535,
      "pla": 5536,
      "Ġrecor": 5537,
      "forward": 5538,
      "ĠEqu": 5539,
      "det": 5540,
      "Ġiso": 5541,
      "Ġ}}": 5542,
      "Ġscope": 5543,
      "Ġfilename": 5544,
      "before": 5545,
      "ney": 5546,
      "Ġforms": 5547,
      "Ġlayers": 5548,
      "Ġtoken": 5549,
      "Thread": 5550,
      "tax": 5551,
      "ACK": 5552,
      "Schema": 5553,
      "Ġ\\!": 5554,
      "ĠMin": 5555,
      "ares": 5556,
      ":=": 5557,
      "Ġtechniques": 5558,
      "Ġdeal": 5559,
      "Ġchildren": 5560,
      "71": 5561,
      "Description": 5562,
      "Ġworking": 5563,
      "Menu": 5564,
      "Vari": 5565,
      "Ġgeometry": 5566,
      "ori": 5567,
      "ART": 5568,
      "Ġpast": 5569,
      "ĠState": 5570,
      "Ġhypo": 5571,
      "ĠLog": 5572,
      "arante": 5573,
      "Location": 5574,
      "orig": 5575,
      "Ġcoefficient": 5576,
      "bal": 5577,
      "chor": 5578,
      "Helper": 5579,
      "illa": 5580,
      ",{\\": 5581,
      "pecially": 5582,
      "cle": 5583,
      "Ġentropy": 5584,
      "Ġthick": 5585,
      "Ġconvex": 5586,
      "lapse": 5587,
      "Ġindu": 5588,
      "Order": 5589,
      "Connection": 5590,
      "uli": 5591,
      "tfrac": 5592,
      "Ġthermal": 5593,
      "Ġappears": 5594,
      "Ġexception": 5595,
      "Font": 5596,
      "Ġindicates": 5597,
      "req": 5598,
      "Ġdatasets": 5599,
      "Ġattention": 5600,
      "dfrac": 5601,
      "ĠShe": 5602,
      "pl": 5603,
      "termin": 5604,
      "Ġaccurate": 5605,
      "Ġcoordinate": 5606,
      "]$.": 5607,
      "Ġsw": 5608,
      "ka": 5609,
      "udes": 5610,
      "Ġdenoted": 5611,
      "Ġgrowth": 5612,
      "trie": 5613,
      "Ġtheoretical": 5614,
      "Ġsocial": 5615,
      "\\}$.": 5616,
      "DIR": 5617,
      "izations": 5618,
      "Ġwon": 5619,
      "91": 5620,
      "Mapp": 5621,
      "oral": 5622,
      "Deta": 5623,
      "Ġexponential": 5624,
      "Ġdoesn": 5625,
      ":\"": 5626,
      "Ġtraject": 5627,
      "Ġcombination": 5628,
      "Ġsubject": 5629,
      "Ġdiscrete": 5630,
      "2002": 5631,
      "kind": 5632,
      "Ġneighbor": 5633,
      "uly": 5634,
      "ĠSu": 5635,
      "Ġpadding": 5636,
      "Non": 5637,
      "Ġ{};": 5638,
      "Ġmix": 5639,
      "atures": 5640,
      "slash": 5641,
      "ca": 5642,
      "ws": 5643,
      "Ġcry": 5644,
      "Ġenh": 5645,
      "ĠII": 5646,
      "ĠBG": 5647,
      "Ġmetal": 5648,
      "After": 5649,
      "Ġgot": 5650,
      "Ġdig": 5651,
      "255": 5652,
      "Ġsession": 5653,
      "aking": 5654,
      "Current": 5655,
      "Ġstage": 5656,
      "\\;": 5657,
      "Ġuncertainty": 5658,
      "Ġappropriate": 5659,
      "iral": 5660,
      "aging": 5661,
      "sv": 5662,
      "atives": 5663,
      "Ġmas": 5664,
      "Ġkine": 5665,
      "opic": 5666,
      "Ġlimited": 5667,
      "gan": 5668,
      "fn": 5669,
      "category": 5670,
      "Ġcollision": 5671,
      "))\\": 5672,
      "anti": 5673,
      "ĠFinally": 5674,
      "Ġvisual": 5675,
      "Ġshift": 5676,
      "Ġdetailed": 5677,
      "mathop": 5678,
      "Ġforward": 5679,
      "loop": 5680,
      "ffor": 5681,
      "Ġoffer": 5682,
      "Ġring": 5683,
      "}}_{\\": 5684,
      "$};": 5685,
      "ĠĠĠĠĠĠĠĠĠĠĠĠĠĠĠĠĠĠĠĠĠĠĠĠĠĠĠĠĠĠĠĠĠĠĠĠĠĠĠĠĠĠĠĠĠĠĠĠĠĠĠĠĠĠĠĠĠĠĠĠĠĠĠĠ": 5686,
      "Ġret": 5687,
      "Ġparams": 5688,
      "Ġnucle": 5689,
      "sure": 5690,
      "flu": 5691,
      "Ġoverall": 5692,
      "Ġprotocol": 5693,
      "Iter": 5694,
      "ĠMy": 5695,
      "Ġagent": 5696,
      "Ġproduce": 5697,
      "\\)": 5698,
      "rown": 5699,
      "sequently": 5700,
      "Ġmapping": 5701,
      "}[\\": 5702,
      "Ġnature": 5703,
      "Ġothers": 5704,
      "Ġscales": 5705,
      "hic": 5706,
      "Ġusually": 5707,
      "Integer": 5708,
      "Ġvary": 5709,
      "coq": 5710,
      "GR": 5711,
      "Ġstraight": 5712,
      "Ġbene": 5713,
      "Ġ\"\\": 5714,
      "Ġfall": 5715,
      "ãĥ": 5716,
      "rix": 5717,
      "ctric": 5718,
      "domain": 5719,
      "Ġscenario": 5720,
      "aps": 5721,
      "\"));": 5722,
      "triv": 5723,
      "ball": 5724,
      "Ġsamp": 5725,
      "rank": 5726,
      "Ġvertical": 5727,
      "Ġthings": 5728,
      "Ġproduced": 5729,
      "panel": 5730,
      "Ġweights": 5731,
      "limit": 5732,
      "Ġattack": 5733,
      "That": 5734,
      "Ġcomplexity": 5735,
      "ĠTO": 5736,
      "61": 5737,
      "emptyset": 5738,
      "Ġpati": 5739,
      "Ġresi": 5740,
      "ĠAfter": 5741,
      "Ġagreement": 5742,
      "ĠĠĠĠĠĠĠĠĠĠĠĠĠĠĠĠĠĠ": 5743,
      "Serial": 5744,
      "Ġsubgroup": 5745,
      "Ġidentified": 5746,
      "||": 5747,
      "Ġstrongly": 5748,
      "Const": 5749,
      "Ġland": 5750,
      "Ġdetail": 5751,
      "ĠTrans": 5752,
      "Ġpackage": 5753,
      "-->": 5754,
      "Definition": 5755,
      "Ġestimation": 5756,
      "ĠUsing": 5757,
      "iggs": 5758,
      "Option": 5759,
      "render": 5760,
      "Ġirre": 5761,
      "ifier": 5762,
      "ĠName": 5763,
      "semble": 5764,
      "each": 5765,
      "Ġinstall": 5766,
      "Ġprimary": 5767,
      "=\"_": 5768,
      "Ġfunctional": 5769,
      "itle": 5770,
      "large": 5771,
      "FFFF": 5772,
      "Ġidentify": 5773,
      "Ġcommunity": 5774,
      "chastic": 5775,
      "copy": 5776,
      "axis": 5777,
      "Ge": 5778,
      "uler": 5779,
      "diff": 5780,
      "Ġ\\]": 5781,
      "Ġsatisfying": 5782,
      "Ġregister": 5783,
      "Ġrecently": 5784,
      "bootstrap": 5785,
      "Vector": 5786,
      "Ġsci": 5787,
      "Ġattemp": 5788,
      "ĠMo": 5789,
      "Dir": 5790,
      "ifically": 5791,
      "Ġoutside": 5792,
      "Ġgen": 5793,
      "but": 5794,
      "itz": 5795,
      "})}": 5796,
      "STR": 5797,
      "Ġdifficult": 5798,
      "ĠPa": 5799,
      "Ġsetup": 5800,
      "Ġcaus": 5801,
      "Ġwaves": 5802,
      "algorithm": 5803,
      "Ġoverride": 5804,
      "Ġtowards": 5805,
      "ORT": 5806,
      "stitu": 5807,
      "Ġbehavi": 5808,
      "ĠWhile": 5809,
      "ĠNational": 5810,
      "ĠGL": 5811,
      "]$,": 5812,
      "docs": 5813,
      "delete": 5814,
      "}})": 5815,
      "Ġinverse": 5816,
      "Ġprojection": 5817,
      "Ġachieve": 5818,
      "Ġdatabase": 5819,
      "Ġitems": 5820,
      "ĠDi": 5821,
      "year": 5822,
      "gn": 5823,
      "brace": 5824,
      "vee": 5825,
      "ĠOR": 5826,
      "[-": 5827,
      "Ġcommu": 5828,
      "${\\": 5829,
      "chem": 5830,
      "Ġhole": 5831,
      "Sym": 5832,
      "itable": 5833,
      "Ġhol": 5834,
      "Ġtests": 5835,
      "Ġliterature": 5836,
      "join": 5837,
      "cus": 5838,
      "Clo": 5839,
      "enta": 5840,
      "Ġreplace": 5841,
      "atible": 5842,
      "ĠWeb": 5843,
      "while": 5844,
      "DA": 5845,
      "msg": 5846,
      "ĠUS": 5847,
      "Ġgeneration": 5848,
      "Long": 5849,
      "send": 5850,
      "ĠRE": 5851,
      "NavBar": 5852,
      "Ġconstants": 5853,
      "prote": 5854,
      "longrightarrow": 5855,
      "Expression": 5856,
      "(:": 5857,
      "Ġbuilding": 5858,
      "DI": 5859,
      "Ġferm": 5860,
      "Ġsituation": 5861,
      "ĠSU": 5862,
      "nn": 5863,
      "footer": 5864,
      "Ġ\\&": 5865,
      "Session": 5866,
      "Ġproved": 5867,
      "Ġfeel": 5868,
      "You": 5869,
      "Ġsix": 5870,
      "Ġideal": 5871,
      "mann": 5872,
      "Parser": 5873,
      "Ġsend": 5874,
      "Ġclearly": 5875,
      "tamp": 5876,
      "vature": 5877,
      "Device": 5878,
      "ulated": 5879,
      "mn": 5880,
      "Ġtool": 5881,
      "generate": 5882,
      "env": 5883,
      "ky": 5884,
      "ĠExp": 5885,
      "Multi": 5886,
      "Ġcriter": 5887,
      "Ġlinks": 5888,
      "files": 5889,
      "Ġrecogn": 5890,
      "Ġparallel": 5891,
      "equal": 5892,
      "force": 5893,
      "bp": 5894,
      "raft": 5895,
      "reated": 5896,
      "Ġvac": 5897,
      "Ġreve": 5898,
      "Ġcapture": 5899,
      "tun": 5900,
      "utor": 5901,
      "Ġetc": 5902,
      "yond": 5903,
      "Ġdecomposition": 5904,
      "Ġremaining": 5905,
      "ĠEd": 5906,
      "VID": 5907,
      "chedule": 5908,
      "apter": 5909,
      "enomen": 5910,
      "Ġquasi": 5911,
      "tw": 5912,
      "Async": 5913,
      "ĠGe": 5914,
      "bind": 5915,
      "Ġconserv": 5916,
      "GE": 5917,
      "channel": 5918,
      "comment": 5919,
      "Ġmatching": 5920,
      "sitivity": 5921,
      "Ġguarante": 5922,
      "})=": 5923,
      "paragraph": 5924,
      "Reference": 5925,
      "imilarly": 5926,
      "Ġ\\(\\": 5927,
      "Ġdriv": 5928,
      "Ġespecially": 5929,
      "pository": 5930,
      "BR": 5931,
      "Ġmentioned": 5932,
      "bmatrix": 5933,
      "uri": 5934,
      "itions": 5935,
      "ĠAlso": 5936,
      "Parameters": 5937,
      "Project": 5938,
      "Ġstri": 5939,
      "================================": 5940,
      "Ġmeasures": 5941,
      "tool": 5942,
      "Ġdiscover": 5943,
      "=\"/": 5944,
      "Ġfill": 5945,
      "ĠFurthermore": 5946,
      "}}.": 5947,
      "PU": 5948,
      ">\\": 5949,
      "Ġcompletely": 5950,
      "Ġadv": 5951,
      "dom": 5952,
      "Ġpropor": 5953,
      "such": 5954,
      "brid": 5955,
      "vised": 5956,
      "PH": 5957,
      "uple": 5958,
      "Ġwin": 5959,
      "$&": 5960,
      "ulations": 5961,
      "Ġseems": 5962,
      "address": 5963,
      "Ġconsidering": 5964,
      "Ġevaluation": 5965,
      "Ġrobust": 5966,
      "400": 5967,
      "oney": 5968,
      "Sum": 5969,
      "sy": 5970,
      "PECT": 5971,
      "ducing": 5972,
      "Ġcr": 5973,
      "blem": 5974,
      "fony": 5975,
      "eline": 5976,
      "Ġefficiency": 5977,
      "tization": 5978,
      "Ġexhi": 5979,
      "Ġgenerally": 5980,
      "uminosity": 5981,
      "Ġhear": 5982,
      "ography": 5983,
      "Ġevidence": 5984,
      "Ġelect": 5985,
      "|}{": 5986,
      "Ġcycle": 5987,
      "SET": 5988,
      "})^": 5989,
      "Ġask": 5990,
      "Ġinfo": 5991,
      "framework": 5992,
      "Ġgreater": 5993,
      "plot": 5994,
      "Ġjav": 5995,
      "Ġrepresentations": 5996,
      "Extension": 5997,
      "Ġunits": 5998,
      "ĠIR": 5999,
      "Sign": 6000,
      "initial": 6001,
      "short": 6002,
      "Ġnet": 6003,
      "shot": 6004,
      "inary": 6005,
      "osing": 6006,
      "Ġequilibrium": 6007,
      "anning": 6008,
      "Ġproducts": 6009,
      "Ġmachine": 6010,
      "cro": 6011,
      "Ġsolve": 6012,
      "Graph": 6013,
      "'>": 6014,
      "margin": 6015,
      "WE": 6016,
      "pair": 6017,
      "vs": 6018,
      "Ġtypical": 6019,
      "ãĤ": 6020,
      "pis": 6021,
      "Ġrepresented": 6022,
      "Ġrecord": 6023,
      "Ġcompany": 6024,
      "fl": 6025,
      "mos": 6026,
      "tiny": 6027,
      "sident": 6028,
      "Ġreceived": 6029,
      "material": 6030,
      "Ġundefined": 6031,
      "card": 6032,
      "Ġservices": 6033,
      "Impl": 6034,
      "Ġindicate": 6035,
      "Use": 6036,
      "&#": 6037,
      "bib": 6038,
      ")}_": 6039,
      "ĠAppendix": 6040,
      "intro": 6041,
      "Ġcat": 6042,
      "ffic": 6043,
      "parameters": 6044,
      "ĠOct": 6045,
      "Ġlot": 6046,
      "Red": 6047,
      "magnetic": 6048,
      "():": 6049,
      "Pri": 6050,
      "Down": 6051,
      "INE": 6052,
      "Ġconcent": 6053,
      "ä¸": 6054,
      "modules": 6055,
      "fields": 6056,
      "duci": 6057,
      "ĠJohn": 6058,
      "Ġfundamental": 6059,
      "Ġbos": 6060,
      "exists": 6061,
      ",\\,\\": 6062,
      "Ġrelatively": 6063,
      "ĠSome": 6064,
      "ki": 6065,
      "Ġsimpl": 6066,
      "'],": 6067,
      "Ġdiagonal": 6068,
      "^{*": 6069,
      "Ġtrace": 6070,
      "scripts": 6071,
      "ictionary": 6072,
      "Ġradio": 6073,
      "diction": 6074,
      "Ġslightly": 6075,
      "Ġneural": 6076,
      "DL": 6077,
      "ĠLa": 6078,
      "Pa": 6079,
      "shape": 6080,
      "Document": 6081,
      "phys": 6082,
      "Store": 6083,
      ")).": 6084,
      "256": 6085,
      "Ð°Ð": 6086,
      "}}^{\\": 6087,
      "ouch": 6088,
      "Ġphysics": 6089,
      "Ġmu": 6090,
      "Ġdifferences": 6091,
      "RR": 6092,
      "Ġion": 6093,
      "Ġadvan": 6094,
      "schema": 6095,
      "Ġstack": 6096,
      "}_{-": 6097,
      "ĠAb": 6098,
      "iversal": 6099,
      "equals": 6100,
      "Ġevaluate": 6101,
      "lates": 6102,
      "rang": 6103,
      "toString": 6104,
      "structor": 6105,
      "vents": 6106,
      "ĠException": 6107,
      "Ġconclusion": 6108,
      "ulate": 6109,
      "sts": 6110,
      "Ġpseud": 6111,
      "Template": 6112,
      "ggle": 6113,
      "Ġalthough": 6114,
      "riend": 6115,
      "coin": 6116,
      "grid": 6117,
      "Ġremark": 6118,
      "ĠBGCOLOR": 6119,
      "Application": 6120,
      "Ġ}{": 6121,
      "Ġsampling": 6122,
      "Ptr": 6123,
      "spac": 6124,
      "enum": 6125,
      "click": 6126,
      "Ġair": 6127,
      "ALL": 6128,
      "ERROR": 6129,
      "urations": 6130,
      "Ġdistinct": 6131,
      "Ġ})": 6132,
      "session": 6133,
      "numer": 6134,
      "scriptsize": 6135,
      "Ġarticle": 6136,
      "ĠAug": 6137,
      "ners": 6138,
      "Ġupon": 6139,
      "Proof": 6140,
      "trivial": 6141,
      "Ġaim": 6142,
      "Each": 6143,
      "ourier": 6144,
      "anging": 6145,
      "ming": 6146,
      "]{\\": 6147,
      "Ġenter": 6148,
      "Ġunderlying": 6149,
      "/(": 6150,
      "Lemma": 6151,
      "Ġpoly": 6152,
      "Handle": 6153,
      "virtual": 6154,
      "avel": 6155,
      "mal": 6156,
      "Ġperfect": 6157,
      "CTION": 6158,
      "ggest": 6159,
      "formal": 6160,
      "Ġcurrently": 6161,
      "aren": 6162,
      "Ġodd": 6163,
      "Ġconstructed": 6164,
      "ORD": 6165,
      "ĠDec": 6166,
      "UM": 6167,
      "Ġtesting": 6168,
      "Ġmanifold": 6169,
      "icons": 6170,
      "Go": 6171,
      "Ġinvoke": 6172,
      "Ġecho": 6173,
      ";\\;\\": 6174,
      "My": 6175,
      "iss": 6176,
      "Ġtermin": 6177,
      "webkit": 6178,
      "Ġsufficiently": 6179,
      "Ġsections": 6180,
      "Ġ++": 6181,
      "ĠĠĠĠĠĠĊ": 6182,
      "meds": 6183,
      "blockList": 6184,
      "Ġtransaction": 6185,
      "Ġnames": 6186,
      "Ġprogra": 6187,
      "Ġexplicitly": 6188,
      "oundation": 6189,
      "media": 6190,
      "radius": 6191,
      "Ġquo": 6192,
      "###": 6193,
      "ĠCheck": 6194,
      "Ġwait": 6195,
      "arc": 6196,
      "ancy": 6197,
      "Ġenergies": 6198,
      "ĠCON": 6199,
      "TER": 6200,
      "Ġpreviously": 6201,
      "Ġmodified": 6202,
      "holder": 6203,
      "Ġcells": 6204,
      "Ġhidden": 6205,
      "Ġactions": 6206,
      "medskip": 6207,
      "ini": 6208,
      "Ġlimits": 6209,
      "Ġbeyond": 6210,
      "Ġdetected": 6211,
      "Inst": 6212,
      "Ġrisk": 6213,
      "ads": 6214,
      "?:": 6215,
      "hover": 6216,
      "Ġintegration": 6217,
      "Ġtrained": 6218,
      "Ġtell": 6219,
      "tained": 6220,
      "Ġthread": 6221,
      "Ġdesired": 6222,
      "ĠLie": 6223,
      "ULT": 6224,
      "Ġmaximal": 6225,
      "ĠLO": 6226,
      "BA": 6227,
      "Ġstory": 6228,
      "Ġdeli": 6229,
      "properties": 6230,
      "figures": 6231,
      "Ġstatistical": 6232,
      "][]{": 6233,
      "Ġchem": 6234,
      "Ġ({\\": 6235,
      "Ġhighly": 6236,
      "Ġnum": 6237,
      "BE": 6238,
      "Ġexpressed": 6239,
      "MT": 6240,
      "tikzpicture": 6241,
      "region": 6242,
      "}}}\\": 6243,
      "uid": 6244,
      "Ġvariation": 6245,
      "columnwidth": 6246,
      "ski": 6247,
      "Ġmassive": 6248,
      "Ġ['": 6249,
      "Ġblocks": 6250,
      "uff": 6251,
      "formations": 6252,
      "ira": 6253,
      "Ġdrop": 6254,
      "att": 6255,
      "Ġsemi": 6256,
      "Ġcontained": 6257,
      "Ġfav": 6258,
      "Ġunknown": 6259,
      "Ġissues": 6260,
      "product": 6261,
      "istration": 6262,
      "Ġphenomen": 6263,
      "istent": 6264,
      "ada": 6265,
      "entifier": 6266,
      "}~": 6267,
      "labor": 6268,
      "settings": 6269,
      "antom": 6270,
      "Ġtrain": 6271,
      "Ġnor": 6272,
      "ĠEach": 6273,
      "stri": 6274,
      "hal": 6275,
      "DM": 6276,
      "Mo": 6277,
      "ĠAssert": 6278,
      "Ġparticip": 6279,
      "handle": 6280,
      "Ġthought": 6281,
      "Ġoccurs": 6282,
      "Ġassumptions": 6283,
      "Ġcache": 6284,
      "Ġparse": 6285,
      "Ġverify": 6286,
      "rams": 6287,
      "ulture": 6288,
      "Core": 6289,
      "exports": 6290,
      "GET": 6291,
      "160": 6292,
      "Ġphoton": 6293,
      "Ġacceler": 6294,
      "Ġconj": 6295,
      "spirit": 6296,
      "\\}$,": 6297,
      "Ġmask": 6298,
      "Ġapplying": 6299,
      "Names": 6300,
      "Ġemer": 6301,
      "imation": 6302,
      "ĠLag": 6303,
      "Ġextreme": 6304,
      "dependency": 6305,
      "ĠTime": 6306,
      "urope": 6307,
      "Ġtrivial": 6308,
      "Operation": 6309,
      "ĠPy": 6310,
      ")),": 6311,
      "Ã¡": 6312,
      "bilities": 6313,
      "Ġshowed": 6314,
      "Render": 6315,
      "aut": 6316,
      "ĠMod": 6317,
      "'re": 6318,
      "Ġasymptotic": 6319,
      "What": 6320,
      "ship": 6321,
      "Title": 6322,
      "ĠJanuary": 6323,
      "\\}\\": 6324,
      "CF": 6325,
      "Ġdepending": 6326,
      "Ġderivative": 6327,
      "custom": 6328,
      "ĠApr": 6329,
      "cut": 6330,
      "lank": 6331,
      "Ġexam": 6332,
      "isely": 6333,
      "Ġdelete": 6334,
      "Tests": 6335,
      "vitational": 6336,
      "Ġlargest": 6337,
      "Ġbr": 6338,
      "Ġmeaning": 6339,
      "Sch": 6340,
      "ifts": 6341,
      "hs": 6342,
      "}|\\": 6343,
      "Debug": 6344,
      "ĠError": 6345,
      "padding": 6346,
      "partment": 6347,
      "Ġstation": 6348,
      "ĠEng": 6349,
      "pers": 6350,
      "Ġpredicted": 6351,
      "Classes": 6352,
      "vartheta": 6353,
      "Ġreturned": 6354,
      "Hence": 6355,
      "ĠNot": 6356,
      "mediately": 6357,
      "RI": 6358,
      "ounded": 6359,
      "iverse": 6360,
      "Values": 6361,
      "vas": 6362,
      "}$}": 6363,
      "bur": 6364,
      "ham": 6365,
      "Host": 6366,
      "Ġconsequence": 6367,
      "multirow": 6368,
      "Ġobvious": 6369,
      "Param": 6370,
      "enchmark": 6371,
      "enn": 6372,
      "Ġonto": 6373,
      "Ġcharacteristic": 6374,
      "Ġoffic": 6375,
      "Ġactivity": 6376,
      "Ġconnect": 6377,
      "Ġpaths": 6378,
      "ticles": 6379,
      "Ġstability": 6380,
      "Pass": 6381,
      "Draw": 6382,
      "bet": 6383,
      "Ġradial": 6384,
      ";<": 6385,
      "Ġresources": 6386,
      "Ġcanonical": 6387,
      "success": 6388,
      "Ġderive": 6389,
      "ĠDate": 6390,
      "Ġgl": 6391,
      "ĠĠĠĠĠĠĠĠĠĠĠĠĠĠĠĠĠĠĠĠĠĠĠĠĠĠĠĠĠĠĠĠĠĠĠĠĠĠĠ": 6392,
      "tivation": 6393,
      "&=\\": 6394,
      "Ġexpec": 6395,
      "Ġvariety": 6396,
      "Ġnamely": 6397,
      "Invalid": 6398,
      "ĠPr": 6399,
      "}}=": 6400,
      "replace": 6401,
      "Ġ$,": 6402,
      "called": 6403,
      "HTML": 6404,
      "Api": 6405,
      "bon": 6406,
      "ollowing": 6407,
      "ĠWhat": 6408,
      "witter": 6409,
      "Port": 6410,
      "Ġlabels": 6411,
      "Ġbias": 6412,
      "120": 6413,
      "jpg": 6414,
      "ills": 6415,
      "False": 6416,
      "|}": 6417,
      "Ġcancel": 6418,
      "Ġtopological": 6419,
      "Ġchalleng": 6420,
      ":=\\": 6421,
      "Ġpredictions": 6422,
      "Ġdynamic": 6423,
      "Ġtun": 6424,
      "disabled": 6425,
      "Ġbundle": 6426,
      "pub": 6427,
      "ights": 6428,
      "atory": 6429,
      "iqu": 6430,
      "Var": 6431,
      "lone": 6432,
      "Ġpick": 6433,
      "condition": 6434,
      "dest": 6435,
      "jection": 6436,
      "yes": 6437,
      "Ġchannels": 6438,
      "Ġestablish": 6439,
      "xture": 6440,
      "eries": 6441,
      "ORM": 6442,
      "Ġdx": 6443,
      "mator": 6444,
      "Ġdust": 6445,
      "Ġgeneralized": 6446,
      "bc": 6447,
      "tract": 6448,
      "JE": 6449,
      "Ġcurvature": 6450,
      "Ġuncertain": 6451,
      "application": 6452,
      "Ġgain": 6453,
      "----------------------------------------------------------------": 6454,
      "Ġcm": 6455,
      "ĠRun": 6456,
      "Ġtreatment": 6457,
      "export": 6458,
      "Ġyield": 6459,
      "Ġinfluence": 6460,
      "Ġmath": 6461,
      "ducible": 6462,
      "BS": 6463,
      "Ġusual": 6464,
      "general": 6465,
      "TS": 6466,
      "ĠEXPECT": 6467,
      "Ġengine": 6468,
      "byte": 6469,
      "connection": 6470,
      "lator": 6471,
      "\\%$": 6472,
      "Ġ..": 6473,
      "Ġfailed": 6474,
      ">();": 6475,
      "omy": 6476,
      "Ġos": 6477,
      "Ġjoint": 6478,
      "Ġextend": 6479,
      "Ġcosm": 6480,
      "umentation": 6481,
      "=.": 6482,
      "ĠĠĠĠĠĠĠĠĠĠĠĠĠĠĠĠĠĠĠĠĠĠĠĠ": 6483,
      "Ġisomorphism": 6484,
      "SION": 6485,
      "Ġfinally": 6486,
      "Stack": 6487,
      "GS": 6488,
      "ATH": 6489,
      "Select": 6490,
      "Xi": 6491,
      "Ġvs": 6492,
      "Ġanswer": 6493,
      "aff": 6494,
      "hr": 6495,
      "Ġscreen": 6496,
      "legate": 6497,
      "Ġnonlinear": 6498,
      "Ġsuggest": 6499,
      "wrap": 6500,
      "ĠWork": 6501,
      "Ġhydro": 6502,
      "greg": 6503,
      "Ġutili": 6504,
      "(*": 6505,
      "uum": 6506,
      "Ġcontainer": 6507,
      "Ġshare": 6508,
      "rome": 6509,
      "ĠResearch": 6510,
      "Ġbuilt": 6511,
      "ĠJSON": 6512,
      "Ġradiation": 6513,
      "ubble": 6514,
      "ano": 6515,
      "Ġtechnique": 6516,
      "Ġrecall": 6517,
      "Ġcountry": 6518,
      "Ġdel": 6519,
      "Ġinit": 6520,
      "Ġredshift": 6521,
      "Ġprinciple": 6522,
      "green": 6523,
      "Ġvariance": 6524,
      "Ġ,\\": 6525,
      "Ġformer": 6526,
      "selves": 6527,
      "ournal": 6528,
      "win": 6529,
      "1999": 6530,
      "UP": 6531,
      "missions": 6532,
      "ierarch": 6533,
      "OM": 6534,
      "zy": 6535,
      "nother": 6536,
      "ĠAc": 6537,
      "slant": 6538,
      "128": 6539,
      "Ġstop": 6540,
      ")})": 6541,
      "ĠBar": 6542,
      "Tab": 6543,
      "Mark": 6544,
      "ĠCE": 6545,
      "Ġlocated": 6546,
      "subsec": 6547,
      "oton": 6548,
      "Ġlocally": 6549,
      "ĠTrue": 6550,
      "annotation": 6551,
      "well": 6552,
      "Ġdynamical": 6553,
      "Ġcombined": 6554,
      "Ġsummar": 6555,
      "mult": 6556,
      "Ġfront": 6557,
      "BL": 6558,
      "ortun": 6559,
      "angular": 6560,
      "Ġearlier": 6561,
      "Ġclean": 6562,
      "Reader": 6563,
      "spin": 6564,
      "Ġwhereas": 6565,
      "Ġheader": 6566,
      "Ġcomputational": 6567,
      "Ġachieved": 6568,
      "istor": 6569,
      "AND": 6570,
      "ĠSep": 6571,
      "Ġrepro": 6572,
      "reedom": 6573,
      "ĠIndeed": 6574,
      "notag": 6575,
      "register": 6576,
      "avelength": 6577,
      "Ġspher": 6578,
      ")[": 6579,
      "Ġconcept": 6580,
      "ATA": 6581,
      "Ġorth": 6582,
      "Ġsatisfied": 6583,
      "Click": 6584,
      "Ġnamespace": 6585,
      "poch": 6586,
      "ient": 6587,
      "mom": 6588,
      "Ġrelease": 6589,
      "periment": 6590,
      "dp": 6591,
      "Kind": 6592,
      "Consider": 6593,
      "uge": 6594,
      "none": 6595,
      "ened": 6596,
      "itch": 6597,
      "rays": 6598,
      "Ġcoinc": 6599,
      "since": 6600,
      "prob": 6601,
      "$/": 6602,
      "inted": 6603,
      "ĠGeV": 6604,
      "actic": 6605,
      "Body": 6606,
      "sively": 6607,
      "Ġabund": 6608,
      "Ġindeed": 6609,
      "arding": 6610,
      "ĉĉĉĊ": 6611,
      "connect": 6612,
      "verti": 6613,
      "Ġdimensional": 6614,
      "See": 6615,
      "variance": 6616,
      "there": 6617,
      "Ġpractice": 6618,
      "Ġmarket": 6619,
      "`.": 6620,
      "Ġpropose": 6621,
      "Ġgeneric": 6622,
      "boolean": 6623,
      "Ġdegrees": 6624,
      "Ġsecurity": 6625,
      "ĠÃ": 6626,
      "Ġeigenvalues": 6627,
      "External": 6628,
      "Record": 6629,
      "ĠOut": 6630,
      "Ġtypically": 6631,
      "Ġfamil": 6632,
      "Ġmar": 6633,
      "Ġshock": 6634,
      "Ġcop": 6635,
      "^{(\\": 6636,
      "!\\": 6637,
      "Ġrelationship": 6638,
      "Ġtransport": 6639,
      "Ġluminosity": 6640,
      "Ġsqu": 6641,
      "'))": 6642,
      "ĠAmerican": 6643,
      "Mem": 6644,
      "Given": 6645,
      "Enabled": 6646,
      "sql": 6647,
      "Ġbyte": 6648,
      "ĠMath": 6649,
      "optim": 6650,
      "Main": 6651,
      "plugins": 6652,
      "total": 6653,
      "TC": 6654,
      "Ġelectric": 6655,
      "coming": 6656,
      "Enc": 6657,
      "Ġunsigned": 6658,
      "Car": 6659,
      "Ġmaxim": 6660,
      "Ġellip": 6661,
      ">.": 6662,
      "Ġgravity": 6663,
      "etal": 6664,
      "network": 6665,
      "ĠIndi": 6666,
      "Example": 6667,
      "Ġconcern": 6668,
      "Ġcloud": 6669,
      "bing": 6670,
      "Ġdashed": 6671,
      "Ke": 6672,
      "2022": 6673,
      "Ġmember": 6674,
      "SSERT": 6675,
      "precated": 6676,
      "Ġgovernment": 6677,
      "Ġpor": 6678,
      "bt": 6679,
      "argument": 6680,
      "ĠRed": 6681,
      "ĠHTML": 6682,
      "IE": 6683,
      "Ġexchange": 6684,
      "\\|\\": 6685,
      "single": 6686,
      "ingle": 6687,
      "Mock": 6688,
      "istance": 6689,
      "Ġvi": 6690,
      "har": 6691,
      "inline": 6692,
      "Metadata": 6693,
      "ellow": 6694,
      "Ġshowing": 6695,
      "elihood": 6696,
      "Suppose": 6697,
      "Ġprefer": 6698,
      "Argument": 6699,
      ".\\\\": 6700,
      "icker": 6701,
      "Ġexclu": 6702,
      "ĠUnited": 6703,
      "aster": 6704,
      "Boolean": 6705,
      "Ġstarted": 6706,
      "when": 6707,
      "Ġmillion": 6708,
      "ĠIntern": 6709,
      "DS": 6710,
      "oman": 6711,
      "ĠMap": 6712,
      "ĠGoogle": 6713,
      "Ġbutton": 6714,
      "asc": 6715,
      "123": 6716,
      "uit": 6717,
      "Ġremoved": 6718,
      "ĠSO": 6719,
      "Ġalign": 6720,
      "Ġcity": 6721,
      "random": 6722,
      "rew": 6723,
      "(-\\": 6724,
      "Ġdelay": 6725,
      "Ġimmediately": 6726,
      "Ġpush": 6727,
      "Ġentries": 6728,
      "parallel": 6729,
      "ĠHiggs": 6730,
      "Ġbulk": 6731,
      "Ġcla": 6732,
      "continu": 6733,
      "ĠMethod": 6734,
      "Ġstochastic": 6735,
      "Rule": 6736,
      "Ġextract": 6737,
      "ĠĠĠĠĠĠĠĠĠĠĠĠĠĠĠĠĠĠĠĠĠĠĠĠĠ": 6738,
      "_;": 6739,
      "attribute": 6740,
      "rangian": 6741,
      "Ġwriting": 6742,
      "Ġcomputing": 6743,
      "}\\|": 6744,
      "Ġvisible": 6745,
      "Ġeffec": 6746,
      "rd": 6747,
      "sumer": 6748,
      "dates": 6749,
      "resp": 6750,
      "^*\\": 6751,
      "BB": 6752,
      "ĠUser": 6753,
      "Ġindices": 6754,
      "Ġobjective": 6755,
      "ĠĠčĊ": 6756,
      "Ġshared": 6757,
      "GN": 6758,
      "impl": 6759,
      "Ġexplain": 6760,
      "Ġrecomm": 6761,
      "Ġquestions": 6762,
      "Te": 6763,
      "Ġdense": 6764,
      "Any": 6765,
      "Direct": 6766,
      "rivacy": 6767,
      "sus": 6768,
      "aged": 6769,
      "Ġquantities": 6770,
      "Args": 6771,
      "Ġcamp": 6772,
      "=\"\">": 6773,
      "pite": 6774,
      "Ġprocessing": 6775,
      "CI": 6776,
      "erved": 6777,
      "extra": 6778,
      "kin": 6779,
      "Byte": 6780,
      "While": 6781,
      "keys": 6782,
      "Ġsequences": 6783,
      "simple": 6784,
      "DP": 6785,
      "Ġcompan": 6786,
      "Ġprobab": 6787,
      "endar": 6788,
      "ogonal": 6789,
      "150": 6790,
      "Ġbad": 6791,
      "Obj": 6792,
      "Dialog": 6793,
      "Ġsizes": 6794,
      "Ġprecisely": 6795,
      "ĠMc": 6796,
      "phantom": 6797,
      "textcolor": 6798,
      "Ġexpress": 6799,
      "persion": 6800,
      "ĠHar": 6801,
      "KEY": 6802,
      "dict": 6803,
      "orizon": 6804,
      "Ġ$\\{\\": 6805,
      "Ġequivalence": 6806,
      "herent": 6807,
      "Ġnews": 6808,
      "ĠGal": 6809,
      "negative": 6810,
      "Ġutil": 6811,
      "Ġreader": 6812,
      "Ġexpand": 6813,
      "Ġimplemented": 6814,
      "tile": 6815,
      "Ġheavy": 6816,
      "ĠOther": 6817,
      "Ġencoding": 6818,
      "ford": 6819,
      "ĠRequ": 6820,
      "gather": 6821,
      "Ġcommunication": 6822,
      "admin": 6823,
      "istics": 6824,
      "ifies": 6825,
      "rong": 6826,
      "ĠĠĠĠĠĠĠĠĠĠĠĠĠĠĠĠĠĠĠĠĠĠ": 6827,
      "hol": 6828,
      "Ġhighest": 6829,
      "\")]": 6830,
      "Ġconfir": 6831,
      "Ġfluctuations": 6832,
      "Ġways": 6833,
      "Policy": 6834,
      "Ġpurpose": 6835,
      "BP": 6836,
      "icrosoft": 6837,
      "Ġquick": 6838,
      "Ġwall": 6839,
      "Ġouter": 6840,
      "ĠOpen": 6841,
      "=\"../../../": 6842,
      "corollary": 6843,
      "otrop": 6844,
      "Ġaccre": 6845,
      "syn": 6846,
      "JECT": 6847,
      "Bytes": 6848,
      "Num": 6849,
      "phase": 6850,
      "ĠEurope": 6851,
      "Ġstudents": 6852,
      "Delete": 6853,
      "+(": 6854,
      "Ġdetector": 6855,
      "Ġbytes": 6856,
      "obs": 6857,
      "Ġreli": 6858,
      "Ġapproximately": 6859,
      "Writer": 6860,
      "trins": 6861,
      "toggle": 6862,
      "CM": 6863,
      ")--(": 6864,
      "STATE": 6865,
      "Ġschool": 6866,
      "DR": 6867,
      "Ġdesigned": 6868,
      "ĠScience": 6869,
      "Icon": 6870,
      "Ġexpressions": 6871,
      "}\"": 6872,
      "Ġareas": 6873,
      "chain": 6874,
      "Ġjet": 6875,
      "Post": 6876,
      "ille": 6877,
      "-(": 6878,
      "cline": 6879,
      "Ġfine": 6880,
      "ĠAu": 6881,
      "Tran": 6882,
      "fol": 6883,
      "Ġnovel": 6884,
      "Que": 6885,
      "Ġcorrections": 6886,
      "ĠMarch": 6887,
      "Load": 6888,
      "Ġrelax": 6889,
      "Ġunderstanding": 6890,
      "Ġraise": 6891,
      "Ġneighb": 6892,
      "email": 6893,
      "ĠValue": 6894,
      "Ġalternative": 6895,
      ")^\\": 6896,
      "arith": 6897,
      "!]": 6898,
      "enge": 6899,
      "1998": 6900,
      "Ġcharacters": 6901,
      "Ġheat": 6902,
      "Ġecon": 6903,
      "Ġchanged": 6904,
      "zer": 6905,
      "Pe": 6906,
      "Ġvio": 6907,
      "Cor": 6908,
      "Ġcolumns": 6909,
      "Ġeffor": 6910,
      "Ġsuitable": 6911,
      "Ġinline": 6912,
      "Ġdot": 6913,
      "mock": 6914,
      "Ġpy": 6915,
      "Ġ'/": 6916,
      "Ġrapid": 6917,
      "Ġlibrary": 6918,
      "lyph": 6919,
      "access": 6920,
      "Ġther": 6921,
      "ryp": 6922,
      "Ġelectro": 6923,
      "Ġmetrics": 6924,
      "otal": 6925,
      "Ġgreen": 6926,
      "Ġ<=": 6927,
      "cpp": 6928,
      "Ġincreased": 6929,
      "Ġarchitecture": 6930,
      "erman": 6931,
      "ĠGroup": 6932,
      "Ġentity": 6933,
      "Ġperturbation": 6934,
      "Initial": 6935,
      "END": 6936,
      "family": 6937,
      "Ġmi": 6938,
      "rane": 6939,
      "Ġnotice": 6940,
      "Ġintensity": 6941,
      "Ġinvestigate": 6942,
      "ority": 6943,
      "Ġthing": 6944,
      "$-$": 6945,
      "ko": 6946,
      "Changed": 6947,
      "IV": 6948,
      "Rou": 6949,
      "Has": 6950,
      "ĠAL": 6951,
      "leted": 6952,
      "Ġlock": 6953,
      "Ġpositions": 6954,
      "~(\\": 6955,
      "jecture": 6956,
      "Ġdistingu": 6957,
      "Ġwallet": 6958,
      "oling": 6959,
      "ĠIS": 6960,
      "Fields": 6961,
      "functions": 6962,
      "ACE": 6963,
      "callback": 6964,
      "zh": 6965,
      "Ġharmon": 6966,
      "Moreover": 6967,
      "za": 6968,
      "Ġ\\,\\": 6969,
      "Ġball": 6970,
      "km": 6971,
      "focus": 6972,
      "stry": 6973,
      "Display": 6974,
      "cloud": 6975,
      "But": 6976,
      "Ġplayer": 6977,
      "plane": 6978,
      "ober": 6979,
      "Ġperiodic": 6980,
      "ĠWorld": 6981,
      "Ġjavax": 6982,
      "AGE": 6983,
      "inv": 6984,
      "Ġ),": 6985,
      "Ġpi": 6986,
      "URE": 6987,
      "Auto": 6988,
      "Ġtoday": 6989,
      "mathit": 6990,
      "HS": 6991,
      "}{*": 6992,
      "Ġadding": 6993,
      "sti": 6994,
      "language": 6995,
      "Ġjson": 6996,
      "dash": 6997,
      "ilbert": 6998,
      "differ": 6999,
      "Package": 7000,
      "Ġnormalized": 7001,
      "Ġinvolved": 7002,
      "particle": 7003,
      "Ġdiscre": 7004,
      "DC": 7005,
      "ĠExample": 7006,
      "$.}": 7007,
      "bil": 7008,
      "beled": 7009,
      "Ġgets": 7010,
      "Ġpassed": 7011,
      "Ġattributes": 7012,
      "]]": 7013,
      "ultane": 7014,
      "Ġlooking": 7015,
      "Show": 7016,
      "assets": 7017,
      "Ġassuming": 7018,
      "Ġgravitational": 7019,
      "Ġ{{": 7020,
      "Ġtele": 7021,
      "Ġintersection": 7022,
      "ĠUse": 7023,
      "WS": 7024,
      "Track": 7025,
      "backslash": 7026,
      ";/": 7027,
      "Ġaffect": 7028,
      "Ġdirectory": 7029,
      "Ġruns": 7030,
      "ĠHigh": 7031,
      "ĠGiven": 7032,
      "&-": 7033,
      "lating": 7034,
      "widget": 7035,
      "special": 7036,
      "cluster": 7037,
      "square": 7038,
      "TED": 7039,
      "War": 7040,
      "Parent": 7041,
      "spring": 7042,
      "ĠSun": 7043,
      "hav": 7044,
      "lower": 7045,
      "components": 7046,
      "NA": 7047,
      "ĠNews": 7048,
      "Ġfollowed": 7049,
      "mits": 7050,
      "ĠIm": 7051,
      "Ġ('": 7052,
      "Ġsector": 7053,
      "Ġhalo": 7054,
      "^*(": 7055,
      "gets": 7056,
      "Ġrecur": 7057,
      "ĠGra": 7058,
      "Ġmixed": 7059,
      "Channel": 7060,
      "Ġstatistics": 7061,
      "cember": 7062,
      "olar": 7063,
      "alled": 7064,
      "EC": 7065,
      "Ġmissing": 7066,
      "Ġvehic": 7067,
      "Ġcorrection": 7068,
      "Ġlive": 7069,
      "Ġmsg": 7070,
      "inger": 7071,
      "Ġgoes": 7072,
      "ĠSM": 7073,
      "Ġexci": 7074,
      "Ġquantity": 7075,
      "Ġlove": 7076,
      "ulus": 7077,
      "Active": 7078,
      "Ġprof": 7079,
      "constra": 7080,
      "luster": 7081,
      "Ġvisit": 7082,
      "ibility": 7083,
      "\\!\\": 7084,
      "password": 7085,
      "ĠNO": 7086,
      "Ġtheories": 7087,
      "Storage": 7088,
      "isson": 7089,
      "nes": 7090,
      "Ġgames": 7091,
      "Ġthank": 7092,
      "Ġwatch": 7093,
      "wt": 7094,
      "Ġfluid": 7095,
      "ĠIO": 7096,
      "ĠNOT": 7097,
      "Ġbehaviour": 7098,
      "Ġcompe": 7099,
      "ĠChar": 7100,
      "uby": 7101,
      "Step": 7102,
      "Ġever": 7103,
      "Ġseman": 7104,
      "Symfony": 7105,
      "Jo": 7106,
      "observ": 7107,
      "romise": 7108,
      "Ġfair": 7109,
      "extension": 7110,
      "protobuf": 7111,
      "stro": 7112,
      "Custom": 7113,
      "Ljava": 7114,
      "\"\"\"": 7115,
      "notations": 7116,
      "orter": 7117,
      "Ġexplan": 7118,
      "reet": 7119,
      "Xml": 7120,
      "PRE": 7121,
      "Ġupdated": 7122,
      "Ġdoing": 7123,
      "'_{": 7124,
      "belian": 7125,
      "ae": 7126,
      "FAULT": 7127,
      "Ġseason": 7128,
      "HC": 7129,
      "Ġbright": 7130,
      "Activity": 7131,
      "Ġinfer": 7132,
      "sport": 7133,
      "ĠExt": 7134,
      "Ġyoung": 7135,
      "Ġinsp": 7136,
      "complete": 7137,
      "Ġfreedom": 7138,
      "Ġmusic": 7139,
      "Ġconfigurations": 7140,
      "Ġbtn": 7141,
      "Ġpolarization": 7142,
      "Ġss": 7143,
      "Ġfinding": 7144,
      "'.": 7145,
      "ologies": 7146,
      "__(": 7147,
      "cmd": 7148,
      "Ġsummary": 7149,
      "vember": 7150,
      "Ġfilm": 7151,
      "Ġprice": 7152,
      "Ġvacuum": 7153,
      "profile": 7154,
      "tan": 7155,
      "install": 7156,
      "Ġbrief": 7157,
      "urch": 7158,
      "Tool": 7159,
      "Ġevaluated": 7160,
      "home": 7161,
      "downarrow": 7162,
      "hfill": 7163,
      "ROM": 7164,
      "rich": 7165,
      "stats": 7166,
      "Ġinstances": 7167,
      "Ġtrigger": 7168,
      "Ġcomment": 7169,
      "Ġparame": 7170,
      "inclu": 7171,
      "`,": 7172,
      "Ġspecies": 7173,
      "fly": 7174,
      "anger": 7175,
      "nel": 7176,
      "Ġcompar": 7177,
      "wner": 7178,
      "tified": 7179,
      "Root": 7180,
      "Ġpatterns": 7181,
      "stackrel": 7182,
      "ITY": 7183,
      "spective": 7184,
      "Val": 7185,
      "ena": 7186,
      "TEST": 7187,
      "Fa": 7188,
      "tember": 7189,
      "help": 7190,
      "stitute": 7191,
      "Ġhouse": 7192,
      "scopic": 7193,
      "aders": 7194,
      ")}.": 7195,
      "ducation": 7196,
      "Ð»": 7197,
      "Depend": 7198,
      "ĠYork": 7199,
      "Ġhtml": 7200,
      "Ġhypothesis": 7201,
      "Ġdevices": 7202,
      "pay": 7203,
      "Ġiteration": 7204,
      "Ġcandidate": 7205,
      "Ġanom": 7206,
      "ucial": 7207,
      "exception": 7208,
      "Ġparticularly": 7209,
      "iring": 7210,
      "Ġsignature": 7211,
      "$^{": 7212,
      "Ġcapacity": 7213,
      "thick": 7214,
      "Ġpopular": 7215,
      "ites": 7216,
      "Ġrough": 7217,
      "Ġequality": 7218,
      "Ap": 7219,
      "Ġmoving": 7220,
      "Âł": 7221,
      ")}(\\": 7222,
      "Rect": 7223,
      "iers": 7224,
      "|^{": 7225,
      "FS": 7226,
      "Ġencode": 7227,
      "boldmath": 7228,
      "\\|_": 7229,
      "ĠSuppose": 7230,
      "NG": 7231,
      "iem": 7232,
      "Transaction": 7233,
      "Ġstress": 7234,
      "rol": 7235,
      "crimin": 7236,
      "have": 7237,
      "Ġthroughout": 7238,
      "|$": 7239,
      "corpor": 7240,
      "ua": 7241,
      "ats": 7242,
      "Ġadop": 7243,
      "textup": 7244,
      "Ġmock": 7245,
      "Ġprecision": 7246,
      "asons": 7247,
      "Ġrise": 7248,
      "Ġunless": 7249,
      "lications": 7250,
      "ĠService": 7251,
      "Ġuniformly": 7252,
      "han": 7253,
      "======": 7254,
      "Ġseparate": 7255,
      "entication": 7256,
      "Ġpoli": 7257,
      "invariant": 7258,
      "ĠMed": 7259,
      "ĠCity": 7260,
      "shift": 7261,
      ")(\\": 7262,
      "&&\\": 7263,
      "Descriptor": 7264,
      "PAR": 7265,
      "erve": 7266,
      "gmentation": 7267,
      "ĠHow": 7268,
      "horizontal": 7269,
      "Network": 7270,
      "mf": 7271,
      "Before": 7272,
      "Ġbehind": 7273,
      "kg": 7274,
      "words": 7275,
      "Ġnothing": 7276,
      "ĠSuch": 7277,
      "Ġprofiles": 7278,
      "Ġspecify": 7279,
      "Only": 7280,
      "IX": 7281,
      "jquery": 7282,
      "OK": 7283,
      "tat": 7284,
      "bd": 7285,
      "_{+": 7286,
      "manif": 7287,
      "Ñĥ": 7288,
      "Ġability": 7289,
      ".*": 7290,
      "limin": 7291,
      "lli": 7292,
      "Ġalt": 7293,
      "}$\\": 7294,
      "ĠInitial": 7295,
      "txt": 7296,
      "Ġstorage": 7297,
      "mean": 7298,
      "gi": 7299,
      "utf": 7300,
      "Ġcalibra": 7301,
      "Ġreplaced": 7302,
      "Ġmiddle": 7303,
      "Ġrect": 7304,
      "Ele": 7305,
      "Ġuncertainties": 7306,
      "Ġsuppose": 7307,
      "Ġreflect": 7308,
      "Ġexplained": 7309,
      "some": 7310,
      "sep": 7311,
      "save": 7312,
      "Ġ$^{": 7313,
      "what": 7314,
      "iii": 7315,
      ")))": 7316,
      "ĠBay": 7317,
      "Ġassign": 7318,
      "ĠIP": 7319,
      "VM": 7320,
      "JSON": 7321,
      "Ġpicture": 7322,
      "001": 7323,
      "rist": 7324,
      "selected": 7325,
      "$^": 7326,
      "Ġarm": 7327,
      "Ġquadratic": 7328,
      "aign": 7329,
      "Ġdidn": 7330,
      "Msg": 7331,
      "Ġcomposition": 7332,
      "Ġsignals": 7333,
      "ipeline": 7334,
      "Ġ_{\\": 7335,
      "Ġcoming": 7336,
      "Ġproceed": 7337,
      "\",\"": 7338,
      "stan": 7339,
      "=\"\"": 7340,
      "Ġda": 7341,
      "ĠURL": 7342,
      "Ġprobably": 7343,
      "ancial": 7344,
      "ĠJune": 7345,
      "andard": 7346,
      "Ġkeys": 7347,
      "Ġmixing": 7348,
      "ĠTHE": 7349,
      "clip": 7350,
      "Ġalloc": 7351,
      "Ġhours": 7352,
      "related": 7353,
      "Ġtren": 7354,
      "[:": 7355,
      "Ġdb": 7356,
      "Ġneutrino": 7357,
      "$\\,": 7358,
      "GeV": 7359,
      "ĠFunction": 7360,
      "regular": 7361,
      "Ġsurvey": 7362,
      "vie": 7363,
      "herit": 7364,
      "Adap": 7365,
      "fixed": 7366,
      "Ġletter": 7367,
      "sen": 7368,
      "Ġacqu": 7369,
      "&=&\\": 7370,
      "Ġestablished": 7371,
      "Ġbelieve": 7372,
      "FILE": 7373,
      "Ġlate": 7374,
      "VERSION": 7375,
      "Ġ\\[": 7376,
      "ĠassertEquals": 7377,
      "ached": 7378,
      "UID": 7379,
      "otropic": 7380,
      "Ġgenerator": 7381,
      "tip": 7382,
      "çļ": 7383,
      "Ġreveal": 7384,
      "DT": 7385,
      "*}[": 7386,
      "cil": 7387,
      "Ġimplement": 7388,
      "Ġgeometric": 7389,
      "andra": 7390,
      "Cont": 7391,
      "Ġconsole": 7392,
      "posed": 7393,
      "Ġinterested": 7394,
      "uparrow": 7395,
      "ĠJo": 7396,
      "LR": 7397,
      "legal": 7398,
      "{(\\": 7399,
      "Ġinputs": 7400,
      "ĠAccording": 7401,
      "çļĦ": 7402,
      "Prop": 7403,
      "Ġnuclear": 7404,
      "imits": 7405,
      "Ġcoupled": 7406,
      "theless": 7407,
      "Ġidentical": 7408,
      "Ġtook": 7409,
      "ĠEvent": 7410,
      "Ġphases": 7411,
      "wave": 7412,
      "measure": 7413,
      "ĠFourier": 7414,
      "oom": 7415,
      "Ġaccept": 7416,
      "Ġcl": 7417,
      "footnotesize": 7418,
      "ains": 7419,
      "ĠTech": 7420,
      "napshot": 7421,
      "symbol": 7422,
      "track": 7423,
      ".$$": 7424,
      "IB": 7425,
      "Ġ---": 7426,
      "binom": 7427,
      "Rev": 7428,
      "rat": 7429,
      "Ġdensities": 7430,
      "Ġsort": 7431,
      "ĠApril": 7432,
      "$\\\\": 7433,
      ".&": 7434,
      "aker": 7435,
      "ĠGreen": 7436,
      "}.}": 7437,
      "desc": 7438,
      "ĠPhys": 7439,
      "warm": 7440,
      "Ġglu": 7441,
      "ĠStates": 7442,
      "thetic": 7443,
      "calc": 7444,
      "110": 7445,
      "Ġ\"/": 7446,
      "spe": 7447,
      "configuration": 7448,
      "ermi": 7449,
      "Ġdeviation": 7450,
      "IST": 7451,
      "Send": 7452,
      "edit": 7453,
      "Ġtransitions": 7454,
      "Ġspread": 7455,
      "ById": 7456,
      "Ġtranslation": 7457,
      "Generic": 7458,
      "cb": 7459,
      "How": 7460,
      "istence": 7461,
      "Ġwalk": 7462,
      "Matrix": 7463,
      "ridge": 7464,
      "switch": 7465,
      "Ġmessages": 7466,
      "Ã³": 7467,
      "ĠJuly": 7468,
      "Ġcame": 7469,
      "}/\\": 7470,
      "Ġgenerating": 7471,
      "trinsic": 7472,
      "oring": 7473,
      "primary": 7474,
      "olver": 7475,
      "oting": 7476,
      "unct": 7477,
      "Ġdependent": 7478,
      "ĠAlthough": 7479,
      "erson": 7480,
      "Ġhot": 7481,
      "Ġ(*": 7482,
      "thread": 7483,
      "Ġadvantage": 7484,
      "factor": 7485,
      "ye": 7486,
      "izable": 7487,
      "argets": 7488,
      "Ġconvolution": 7489,
      "Ġslo": 7490,
      "Ġrows": 7491,
      "Ġroom": 7492,
      "tools": 7493,
      "Ġprime": 7494,
      "Feature": 7495,
      "unsigned": 7496,
      "Ġpen": 7497,
      "Ġ(\"": 7498,
      "Ġwavelength": 7499,
      "propto": 7500,
      "1996": 7501,
      "Rep": 7502,
      "Ġreceive": 7503,
      "Ġsem": 7504,
      "Ġchemical": 7505,
      "textsf": 7506,
      "ocket": 7507,
      "urs": 7508,
      "Ġdispersion": 7509,
      "Ġapi": 7510,
      "Ġfeedback": 7511,
      "generated": 7512,
      "[$": 7513,
      "leftarrow": 7514,
      "ĠAR": 7515,
      "Ġtopology": 7516,
      "repres": 7517,
      "Ġlack": 7518,
      "ĠTe": 7519,
      "rence": 7520,
      "lab": 7521,
      "MF": 7522,
      "Ġorders": 7523,
      "Ġsuggests": 7524,
      "instein": 7525,
      "Ġcomb": 7526,
      "Ġagents": 7527,
      "aws": 7528,
      "%%": 7529,
      "ĠCopy": 7530,
      "umes": 7531,
      "lg": 7532,
      "ĠDecember": 7533,
      "Ġcontinuum": 7534,
      "Ġelectrons": 7535,
      ")\">": 7536,
      "Ġtools": 7537,
      "dialog": 7538,
      "Ġplas": 7539,
      "Ġrational": 7540,
      "]^": 7541,
      "Sim": 7542,
      "multline": 7543,
      "ĠOf": 7544,
      "Ġtransverse": 7545,
      "Ġcard": 7546,
      "ĠOctober": 7547,
      "sch": 7548,
      "flat": 7549,
      "anguage": 7550,
      "ĠDire": 7551,
      "MENT": 7552,
      "Ġaccep": 7553,
      "Ġsolar": 7554,
      "ĠConsider": 7555,
      "ĠMax": 7556,
      "Ġflag": 7557,
      "Ġalgebraic": 7558,
      "ria": 7559,
      "Syn": 7560,
      "SF": 7561,
      "vities": 7562,
      "Ġtes": 7563,
      "Security": 7564,
      "Ġworth": 7565,
      "Ġanalytic": 7566,
      "power": 7567,
      "Queue": 7568,
      "HR": 7569,
      "Ġdemand": 7570,
      "ĠWar": 7571,
      "insert": 7572,
      "Ġimproved": 7573,
      "Panel": 7574,
      "ĠKey": 7575,
      "controller": 7576,
      "Ġemail": 7577,
      "Bit": 7578,
      "Ġmedium": 7579,
      "Ġformulation": 7580,
      "}^{+": 7581,
      "Ġsites": 7582,
      "vc": 7583,
      "Ġdiffusion": 7584,
      "}>": 7585,
      "formance": 7586,
      "arities": 7587,
      "Ġtransmission": 7588,
      "iece": 7589,
      "Ġmanagement": 7590,
      "moment": 7591,
      "ishing": 7592,
      "TT": 7593,
      "Ġprogress": 7594,
      "(!": 7595,
      "Ġproviding": 7596,
      "queue": 7597,
      "Ġsimultane": 7598,
      "Ġlimi": 7599,
      "Ġdemonstrate": 7600,
      "irror": 7601,
      "pole": 7602,
      "Ġhomogeneous": 7603,
      "pare": 7604,
      "Ġdirections": 7605,
      "varrho": 7606,
      "Ġsound": 7607,
      "ĠRemark": 7608,
      "})^{": 7609,
      "Ġcy": 7610,
      "loss": 7611,
      "enses": 7612,
      "Ġtemperatures": 7613,
      "rey": 7614,
      "Lock": 7615,
      "density": 7616,
      "Ġabsorption": 7617,
      "Ġintermediate": 7618,
      "Ġmodules": 7619,
      "ĠCorollary": 7620,
      "ĠSouth": 7621,
      "Ġretrie": 7622,
      "tivistic": 7623,
      "Iterator": 7624,
      "=\\{": 7625,
      "els": 7626,
      "Ġopportun": 7627,
      "Logger": 7628,
      "typeof": 7629,
      "ĠCent": 7630,
      "Loader": 7631,
      "LOG": 7632,
      "Ġdescribes": 7633,
      "ceil": 7634,
      "ji": 7635,
      "Ġdt": 7636,
      "Ġcategories": 7637,
      "Ġreduces": 7638,
      "urally": 7639,
      "Gu": 7640,
      "plus": 7641,
      "ĠMA": 7642,
      "El": 7643,
      "UL": 7644,
      "$'": 7645,
      "security": 7646,
      "Ġfoc": 7647,
      "Ġcryst": 7648,
      "Ġreserv": 7649,
      "vor": 7650,
      "ius": 7651,
      "Ġ%}": 7652,
      "Ġca": 7653,
      "180": 7654,
      "illing": 7655,
      "rad": 7656,
      "nov": 7657,
      "events": 7658,
      "Flags": 7659,
      "ĠText": 7660,
      "ĠNovember": 7661,
      "sibility": 7662,
      "ico": 7663,
      "(){": 7664,
      "tios": 7665,
      "conver": 7666,
      "Ġsaf": 7667,
      "aved": 7668,
      "ĠNetwork": 7669,
      "Ġpossibility": 7670,
      "Float": 7671,
      "]:": 7672,
      "Database": 7673,
      "Ġcompatible": 7674,
      "Edit": 7675,
      "ĠOver": 7676,
      "Timeout": 7677,
      "Ġfrequencies": 7678,
      "Ġirreducible": 7679,
      "cussion": 7680,
      "ARY": 7681,
      "\\/": 7682,
      "Ġpermu": 7683,
      "gex": 7684,
      "vol": 7685,
      "____": 7686,
      "Ġbatch": 7687,
      ",...,": 7688,
      "stral": 7689,
      "Ġpublished": 7690,
      "Ġplatform": 7691,
      "BUG": 7692,
      "erc": 7693,
      "Ġpredict": 7694,
      "Ġpatients": 7695,
      "stability": 7696,
      "Conf": 7697,
      "Ġwomen": 7698,
      "Ġatoms": 7699,
      "################": 7700,
      "Ġproportional": 7701,
      "atively": 7702,
      "Ġnotion": 7703,
      "smallskip": 7704,
      "Ġsegment": 7705,
      "Ġ~\\": 7706,
      "nol": 7707,
      "Ġrights": 7708,
      "Ġinteract": 7709,
      "Ġenable": 7710,
      "Ġexpectation": 7711,
      "Ġhit": 7712,
      "ï¼": 7713,
      "ned": 7714,
      "tsd": 7715,
      "Ġscenarios": 7716,
      "scroll": 7717,
      "external": 7718,
      "kl": 7719,
      "Ġtechnology": 7720,
      "ĠView": 7721,
      "Mar": 7722,
      "ĠFalse": 7723,
      "ĠĠĠĠĠĠĠĠĠĠĠĠĠĠĠĠĠĠĠĠĠĠĠĠĠĠ": 7724,
      "rf": 7725,
      "Pattern": 7726,
      "views": 7727,
      "Ġdefinitions": 7728,
      "Ġten": 7729,
      "ecution": 7730,
      "gb": 7731,
      "Ġdefines": 7732,
      "Ġstraightforward": 7733,
      "Ġhorizontal": 7734,
      "tach": 7735,
      "rest": 7736,
      "Ġseem": 7737,
      "Ġinstr": 7738,
      ")>": 7739,
      "ĠLagrangian": 7740,
      "ĠBase": 7741,
      "ĠSeptember": 7742,
      "lare": 7743,
      "Ġuniversal": 7744,
      "irical": 7745,
      "Ġfitting": 7746,
      "Plan": 7747,
      "tick": 7748,
      "arm": 7749,
      "1997": 7750,
      "umption": 7751,
      "Ġorthogonal": 7752,
      "keyword": 7753,
      "ĠEar": 7754,
      "scriptscript": 7755,
      "Ġnoted": 7756,
      "Ġago": 7757,
      "dropdown": 7758,
      "anks": 7759,
      "sube": 7760,
      "Ġderivatives": 7761,
      "master": 7762,
      "ny": 7763,
      "ady": 7764,
      "going": 7765,
      "Ġnearly": 7766,
      "Ġcomputer": 7767,
      "Ġdra": 7768,
      "scriptscriptstyle": 7769,
      "trict": 7770,
      "WA": 7771,
      "Ġreconstruction": 7772,
      "ĠSD": 7773,
      "licated": 7774,
      "tient": 7775,
      "Ġimportance": 7776,
      "FC": 7777,
      "Ma": 7778,
      "FIG": 7779,
      "Ġcontract": 7780,
      "\">&": 7781,
      "Fi": 7782,
      "throws": 7783,
      "Ġbl": 7784,
      "}{{\\": 7785,
      "ÃŃ": 7786,
      "Ġsolving": 7787,
      "ema": 7788,
      "iemann": 7789,
      "Ġnecessarily": 7790,
      "separ": 7791,
      "ĠMat": 7792,
      "\\},": 7793,
      "'=": 7794,
      "bre": 7795,
      "ensors": 7796,
      "eg": 7797,
      "ĠCur": 7798,
      "Ġtravel": 7799,
      "Ø§": 7800,
      "Ġicon": 7801,
      "Conclusion": 7802,
      "sys": 7803,
      "ĠAuth": 7804,
      "pacity": 7805,
      "Job": 7806,
      "ĠAlgorithm": 7807,
      "ands": 7808,
      ")_{\\": 7809,
      "Ġinstanceof": 7810,
      "Ġformed": 7811,
      "lexi": 7812,
      "flags": 7813,
      "Ġsave": 7814,
      "ango": 7815,
      "TABLE": 7816,
      "Ġdeath": 7817,
      "echo": 7818,
      "IMP": 7819,
      "stop": 7820,
      "Bigg": 7821,
      "hidden": 7822,
      "Ġasymme": 7823,
      "Ġabstract": 7824,
      "bad": 7825,
      "Ġbeginning": 7826,
      "lug": 7827,
      "road": 7828,
      "Ġbring": 7829,
      "ĠAugust": 7830,
      "Mu": 7831,
      "Ġschema": 7832,
      "Ġhierarch": 7833,
      "Ġcred": 7834,
      "phone": 7835,
      "ike": 7836,
      "ĠHel": 7837,
      "tated": 7838,
      "ĠAN": 7839,
      "Ġautomatically": 7840,
      "////////////////////////////////": 7841,
      "chemes": 7842,
      "Ġround": 7843,
      "Ġamb": 7844,
      "Ġpolynomials": 7845,
      "symmetric": 7846,
      "Ġentang": 7847,
      "Plugin": 7848,
      "{%": 7849,
      "Ġbaseline": 7850,
      "PATH": 7851,
      "Am": 7852,
      "writ": 7853,
      "score": 7854,
      "Ġannoun": 7855,
      "Ġvalidation": 7856,
      "tty": 7857,
      "np": 7858,
      "bas": 7859,
      "unt": 7860,
      "ĠNorth": 7861,
      "Ġcouplings": 7862,
      "Expr": 7863,
      "Ġcorrelations": 7864,
      "prov": 7865,
      "Ġgetting": 7866,
      "Ġmen": 7867,
      "ĠHealth": 7868,
      "Fin": 7869,
      "SIZE": 7870,
      "Ġdecreases": 7871,
      "yr": 7872,
      "HER": 7873,
      "Ġpersonal": 7874,
      "erial": 7875,
      "ĠCl": 7876,
      "ĠCOVID": 7877,
      "Ġassess": 7878,
      "Ġcontroller": 7879,
      "adoop": 7880,
      "Items": 7881,
      "git": 7882,
      "Assert": 7883,
      "rase": 7884,
      "ĠDM": 7885,
      "Ġcref": 7886,
      "Scope": 7887,
      "Ġdiagrams": 7888,
      "Ġnight": 7889,
      "analy": 7890,
      "contrib": 7891,
      "Ġadmin": 7892,
      "ĠDr": 7893,
      "ifted": 7894,
      "Ġarc": 7895,
      "important": 7896,
      "{.": 7897,
      "sat": 7898,
      "Ġkm": 7899,
      "dete": 7900,
      "Ġgiving": 7901,
      "Some": 7902,
      "ĠUpdate": 7903,
      "MAX": 7904,
      "Ġcaused": 7905,
      "_,": 7906,
      "ĠAf": 7907,
      "faults": 7908,
      "Ġcra": 7909,
      "Windows": 7910,
      "}&\\": 7911,
      "!!": 7912,
      "oura": 7913,
      "ĠDef": 7914,
      "iso": 7915,
      "letion": 7916,
      "Ġlowest": 7917,
      "ured": 7918,
      "Ġmolecular": 7919,
      "addr": 7920,
      "Full": 7921,
      "Pool": 7922,
      "\\}.": 7923,
      "Ġmeas": 7924,
      "Ġexecution": 7925,
      "{|": 7926,
      "odic": 7927,
      "=\"@": 7928,
      "Ġrestriction": 7929,
      "]=": 7930,
      "Ġsensitivity": 7931,
      "ctic": 7932,
      "Diag": 7933,
      "()));": 7934,
      "pu": 7935,
      "Ġmind": 7936,
      "Part": 7937,
      "Ġplanet": 7938,
      "erving": 7939,
      "world": 7940,
      "Grid": 7941,
      "names": 7942,
      "Ġstrings": 7943,
      "ĠAND": 7944,
      "Ġscript": 7945,
      "Ġjump": 7946,
      "ĠOption": 7947,
      "*)": 7948,
      "Ġest": 7949,
      "Ġteach": 7950,
      "Ġshell": 7951,
      "poses": 7952,
      "Ġfunc": 7953,
      "tivated": 7954,
      "Ġseparation": 7955,
      "mitive": 7956,
      "transition": 7957,
      "Ġsubspace": 7958,
      "Ġensemble": 7959,
      "Ġincorpor": 7960,
      "Ġduration": 7961,
      "tating": 7962,
      ")}$.": 7963,
      "wild": 7964,
      "_->": 7965,
      "Ġconv": 7966,
      "Ġaccretion": 7967,
      "ĠĠĠĠĠĠĠĠĠĠĠĠĠĠĠĠĠĠĠĠĠĠĠĠĠĠĠĠĠ": 7968,
      "Ġcomments": 7969,
      "@\"": 7970,
      "depth": 7971,
      "Member": 7972,
      "ĠStr": 7973,
      "ystems": 7974,
      "Ġcamera": 7975,
      "Ġturns": 7976,
      "Ġoccup": 7977,
      "Ġfailure": 7978,
      "tributed": 7979,
      "Widget": 7980,
      "hl": 7981,
      "ĠCenter": 7982,
      "dical": 7983,
      "Ġbuilder": 7984,
      "Ġcalls": 7985,
      "Ġdecrease": 7986,
      "lood": 7987,
      "Ġbands": 7988,
      "tivities": 7989,
      "Ġdro": 7990,
      "Ġconnections": 7991,
      "Ġexper": 7992,
      "Ġ{$\\": 7993,
      "ynamics": 7994,
      "Space": 7995,
      "Ġhandler": 7996,
      "Phys": 7997,
      "conv": 7998,
      "Ġweighted": 7999,
      "ĠChris": 8000,
      "Rad": 8001,
      "ĠDav": 8002,
      "screen": 8003,
      "Ġepoch": 8004,
      "apes": 8005,
      "quark": 8006,
      "Hom": 8007,
      "Ġsil": 8008,
      "Ġpull": 8009,
      "connected": 8010,
      "counter": 8011,
      "Ġsimulated": 8012,
      "Ġorbital": 8013,
      "tmp": 8014,
      "fined": 8015,
      "mask": 8016,
      "Editor": 8017,
      "Av": 8018,
      "Ġserial": 8019,
      "ĠOff": 8020,
      "Ġmonths": 8021,
      "Ġvalu": 8022,
      "Ġrequirements": 8023,
      "BO": 8024,
      "finity": 8025,
      "lder": 8026,
      "Ġ=========": 8027,
      "Ġhorizon": 8028,
      "Ġtang": 8029,
      "Ġinclusion": 8030,
      "ĠGR": 8031,
      "Proxy": 8032,
      "constant": 8033,
      "tright": 8034,
      "Ġneighborhood": 8035,
      "igible": 8036,
      "ĠĠĠĠĠĠĠĠĠĠĠĠĠĠĠĠĠĠĠĠĠĠĠĠĠĠĠĠ": 8037,
      "idx": 8038,
      "Ġpointer": 8039,
      "TEX": 8040,
      "Imp": 8041,
      "Ġleave": 8042,
      "Ġ[];": 8043,
      "taining": 8044,
      "rb": 8045,
      "Ġtrade": 8046,
      "vect": 8047,
      "law": 8048,
      "para": 8049,
      "Ġvariations": 8050,
      "ĠFran": 8051,
      "Ġhope": 8052,
      "Ġrig": 8053,
      "Ðº": 8054,
      "cross": 8055,
      "Init": 8056,
      "NT": 8057,
      "Ġstrictly": 8058,
      "assertEquals": 8059,
      "parser": 8060,
      "Java": 8061,
      "Ġlies": 8062,
      "signature": 8063,
      "igration": 8064,
      "ĠUV": 8065,
      "Pay": 8066,
      "Ġacts": 8067,
      "Ġbenchmark": 8068,
      "Ġcarried": 8069,
      "Ġwind": 8070,
      "_{-\\": 8071,
      "Internal": 8072,
      "resize": 8073,
      "Ġcosmological": 8074,
      "quations": 8075,
      "Double": 8076,
      "Ġ\\{\\": 8077,
      "}^+": 8078,
      "ĠTrump": 8079,
      "Summary": 8080,
      "ĉčĊ": 8081,
      "Adapter": 8082,
      "iner": 8083,
      ")));": 8084,
      "lik": 8085,
      "Ġtranslate": 8086,
      "surface": 8087,
      "ĠMich": 8088,
      "lef": 8089,
      "ensing": 8090,
      "Ġappe": 8091,
      "Ã¤": 8092,
      "Ġconstit": 8093,
      "Scale": 8094,
      "Ġcommit": 8095,
      "Ġinvest": 8096,
      "ande": 8097,
      "ĠVersion": 8098,
      "ĠSI": 8099,
      "Ġregression": 8100,
      "}[!": 8101,
      "alities": 8102,
      "determin": 8103,
      "Ġintegrated": 8104,
      "Ġunion": 8105,
      "Ġtemporal": 8106,
      "MOD": 8107,
      "Ġsensitive": 8108,
      "SY": 8109,
      "250": 8110,
      "unique": 8111,
      "CHE": 8112,
      "Ġconfidence": 8113,
      "midrule": 8114,
      "Sample": 8115,
      "trightarrow": 8116,
      "Ġwebsite": 8117,
      "eds": 8118,
      "Ġmodeling": 8119,
      "ĠPri": 8120,
      "Ġnamed": 8121,
      "Ġattra": 8122,
      "Ġpatch": 8123,
      "ĠEqs": 8124,
      "contains": 8125,
      "EXT": 8126,
      "Ġraw": 8127,
      "Directory": 8128,
      "Ġng": 8129,
      "Ġcolle": 8130,
      "ULE": 8131,
      "kern": 8132,
      "anned": 8133,
      "Pop": 8134,
      "mathtt": 8135,
      "Selector": 8136,
      "Ġspan": 8137,
      "NotNull": 8138,
      "Ġfermion": 8139,
      "Ġopposite": 8140,
      "ĠEnd": 8141,
      "ya": 8142,
      "ĠFoundation": 8143,
      "ressive": 8144,
      "ĠSan": 8145,
      "tensor": 8146,
      "nm": 8147,
      "navList": 8148,
      "correspon": 8149,
      "subequations": 8150,
      "Ġreferences": 8151,
      "Ġrepresenting": 8152,
      "uclide": 8153,
      "urable": 8154,
      "Ġmodify": 8155,
      "defn": 8156,
      "arse": 8157,
      "ĠImage": 8158,
      "NavBarCell": 8159,
      "Ġmorphism": 8160,
      "Ġsat": 8161,
      "complex": 8162,
      "logger": 8163,
      "Ġlisted": 8164,
      "ison": 8165,
      "Ġatomic": 8166,
      "ocaml": 8167,
      "assertEqual": 8168,
      "fr": 8169,
      "ĠPost": 8170,
      "Ġimplements": 8171,
      "manager": 8172,
      "Ġ\\}": 8173,
      "ĠSchool": 8174,
      "nil": 8175,
      "Ġ\\|\\": 8176,
      "even": 8177,
      "125": 8178,
      "bruary": 8179,
      "Ġplayers": 8180,
      "uel": 8181,
      "$}}": 8182,
      "CG": 8183,
      "Ġpseudo": 8184,
      "Build": 8185,
      "trigger": 8186,
      "Ġinvalid": 8187,
      "Attributes": 8188,
      "Ġmainly": 8189,
      "Close": 8190,
      "Ġbur": 8191,
      "Runtime": 8192,
      "Character": 8193,
      "\\,{\\": 8194,
      "apply": 8195,
      "uclidean": 8196,
      "theme": 8197,
      "ĠEquation": 8198,
      "Ġratios": 8199,
      "Ġrandomly": 8200,
      "Ġorientation": 8201,
      "requency": 8202,
      "()).": 8203,
      "ultra": 8204,
      "fully": 8205,
      "jar": 8206,
      "sort": 8207,
      "ias": 8208,
      "collection": 8209,
      "Ġprecise": 8210,
      "Ġdir": 8211,
      "Media": 8212,
      "Py": 8213,
      "formu": 8214,
      "XML": 8215,
      "Ġessentially": 8216,
      "xs": 8217,
      "Proposition": 8218,
      "Ġsurfaces": 8219,
      "Ġ(_": 8220,
      "ĠDoc": 8221,
      "Rece": 8222,
      "Ġawait": 8223,
      "tabs": 8224,
      "Ġcharged": 8225,
      "thern": 8226,
      "citealt": 8227,
      "ades": 8228,
      "hook": 8229,
      "Ġcodes": 8230,
      "Transform": 8231,
      "ester": 8232,
      "Ġthemselves": 8233,
      "Ġfood": 8234,
      "inux": 8235,
      "Ġmanner": 8236,
      "sia": 8237,
      "wp": 8238,
      "ĠVir": 8239,
      "++;": 8240,
      "Mapping": 8241,
      "ĠCode": 8242,
      "series": 8243,
      "ĠSur": 8244,
      "fail": 8245,
      "ĠBra": 8246,
      "STAT": 8247,
      "ĠConfig": 8248,
      "atal": 8249,
      "article": 8250,
      "Ġeigenvalue": 8251,
      "Ġadjac": 8252,
      "Ġsystematic": 8253,
      "ĠPlan": 8254,
      "Constra": 8255,
      "ĠDefinition": 8256,
      "quid": 8257,
      "ckets": 8258,
      "dc": 8259,
      "ApJ": 8260,
      "enabled": 8261,
      "Ġmet": 8262,
      "tail": 8263,
      "Aut": 8264,
      "hyper": 8265,
      "ĠBri": 8266,
      "ĠSE": 8267,
      "spects": 8268,
      "Ġdistances": 8269,
      "tigated": 8270,
      "polation": 8271,
      "ĠHilbert": 8272,
      "bigcup": 8273,
      "^+$": 8274,
      "cape": 8275,
      "Ġstarts": 8276,
      "quo": 8277,
      "Profile": 8278,
      "letter": 8279,
      "Ġjus": 8280,
      "Browser": 8281,
      "Ġtrajectory": 8282,
      "Ġphotons": 8283,
      "Ġanything": 8284,
      "aterial": 8285,
      "textnormal": 8286,
      ")}$,": 8287,
      "Other": 8288,
      "\\}_{": 8289,
      "browser": 8290,
      "Ġindicated": 8291,
      "})=\\": 8292,
      "shell": 8293,
      "Ġord": 8294,
      "Ġadvers": 8295,
      "ĠTODO": 8296,
      "scription": 8297,
      "href": 8298,
      "Ġatmos": 8299,
      "ToString": 8300,
      "Second": 8301,
      "Ġdifferenti": 8302,
      "Ġtransformations": 8303,
      "ros": 8304,
      "Ġvor": 8305,
      "Ġextracted": 8306,
      "ĠPark": 8307,
      "ĠBecause": 8308,
      "Ġturb": 8309,
      "Dep": 8310,
      "Ġinterpretation": 8311,
      "Ġsurpr": 8312,
      "Ġasync": 8313,
      "bum": 8314,
      "Events": 8315,
      "ĠMessage": 8316,
      "collapse": 8317,
      "Ġplus": 8318,
      "Two": 8319,
      "engine": 8320,
      "UTF": 8321,
      "Ġconduct": 8322,
      "Ġtouch": 8323,
      "Ġinference": 8324,
      "cknowledge": 8325,
      "compiler": 8326,
      "Ġio": 8327,
      "FP": 8328,
      "mming": 8329,
      "Ġindustry": 8330,
      "Cap": 8331,
      "ĠNode": 8332,
      "bytes": 8333,
      "Ġfire": 8334,
      "ette": 8335,
      "ĠSN": 8336,
      "Ġuniqu": 8337,
      "hadoop": 8338,
      "Ġmeet": 8339,
      "props": 8340,
      "jk": 8341,
      "Desc": 8342,
      "Ġscene": 8343,
      "Ġtruth": 8344,
      "Ġestimator": 8345,
      "Ġanalyze": 8346,
      "Layer": 8347,
      "Ġdomains": 8348,
      "ĠInt": 8349,
      "Ġexplore": 8350,
      "Ġchiral": 8351,
      "LECT": 8352,
      "=\"$": 8353,
      "leep": 8354,
      "Ġ\"<": 8355,
      "Ġvarying": 8356,
      "titude": 8357,
      "Ġtal": 8358,
      "seq": 8359,
      "Ġelem": 8360,
      "Ġcarry": 8361,
      "Ġsy": 8362,
      "coordin": 8363,
      "ĠDefault": 8364,
      "ima": 8365,
      "Ġapplicable": 8366,
      "tz": 8367,
      "Ġ[[": 8368,
      "ĠOper": 8369,
      "printf": 8370,
      "Ġchanging": 8371,
      "IPT": 8372,
      "verb": 8373,
      "handler": 8374,
      "Engine": 8375,
      "lam": 8376,
      "Ġarriv": 8377,
      "Ġsphere": 8378,
      "Ġposter": 8379,
      "Account": 8380,
      "acob": 8381,
      "Ġpixels": 8382,
      "spectr": 8383,
      "1995": 8384,
      "Gen": 8385,
      "ĠSw": 8386,
      "look": 8387,
      "ĠTask": 8388,
      "Ġalgebras": 8389,
      "Ġdebug": 8390,
      "tificate": 8391,
      "RAN": 8392,
      "ĠCounty": 8393,
      "loyment": 8394,
      "Ġseconds": 8395,
      "ĠInc": 8396,
      "Ġmut": 8397,
      "Ġcontrols": 8398,
      "}{}": 8399,
      "Cref": 8400,
      "Enum": 8401,
      "trim": 8402,
      "Ġxmlns": 8403,
      "Ġlikelihood": 8404,
      "Ġbalance": 8405,
      "raise": 8406,
      "grade": 8407,
      "haps": 8408,
      "Bbb": 8409,
      ")&": 8410,
      "NOT": 8411,
      "Ġspectro": 8412,
      "ONE": 8413,
      "ĠVAL": 8414,
      "Ġstated": 8415,
      "SER": 8416,
      "Ġintern": 8417,
      "metric": 8418,
      "Ġfoot": 8419,
      "FE": 8420,
      "\\[\\": 8421,
      "Ġreleased": 8422,
      "'])": 8423,
      "learning": 8424,
      "Ġenabled": 8425,
      "}},\\": 8426,
      ";\\;": 8427,
      "dependence": 8428,
      "enable": 8429,
      "Ġqueue": 8430,
      "Repository": 8431,
      "ycle": 8432,
      "respon": 8433,
      "cknowled": 8434,
      "detail": 8435,
      "Ġlearned": 8436,
      "SQL": 8437,
      "Star": 8438,
      "<!": 8439,
      "kens": 8440,
      "shadow": 8441,
      "Ġschemes": 8442,
      "Ġlocations": 8443,
      "editor": 8444,
      "newline": 8445,
      "sharp": 8446,
      "Ġlogarith": 8447,
      "3333": 8448,
      "ocation": 8449,
      "Ġdiscrimin": 8450,
      "ĠUK": 8451,
      "Ġapparent": 8452,
      "Ġnavigation": 8453,
      "ĠCP": 8454,
      "Ġmatches": 8455,
      "Ġconditional": 8456,
      "ĠNumber": 8457,
      "Ġimprovement": 8458,
      "MI": 8459,
      "Ġelim": 8460,
      "Ġsynchron": 8461,
      "Ġmaterials": 8462,
      "FL": 8463,
      "Single": 8464,
      "Details": 8465,
      "tability": 8466,
      "ðŁ": 8467,
      "Ġanis": 8468,
      "metadata": 8469,
      "leqslant": 8470,
      "omorphisms": 8471,
      "Ġled": 8472,
      "Ġfits": 8473,
      "Ġmoney": 8474,
      "\"><!--": 8475,
      "Memory": 8476,
      "Ġresonance": 8477,
      "ulty": 8478,
      "OL": 8479,
      "sequent": 8480,
      "Ġap": 8481,
      "trace": 8482,
      "ĠSimilarly": 8483,
      "scss": 8484,
      "Ġcub": 8485,
      "stantial": 8486,
      "Ġreading": 8487,
      "sky": 8488,
      "imer": 8489,
      "proj": 8490,
      "Ġsimplicity": 8491,
      "Ġsimilarly": 8492,
      "wargs": 8493,
      "Ġpiece": 8494,
      "Ġforces": 8495,
      "Ġrequests": 8496,
      "Found": 8497,
      "Ñı": 8498,
      "Ġfaster": 8499,
      "neg": 8500,
      "fits": 8501,
      "record": 8502,
      "imit": 8503,
      "distribution": 8504,
      "Ġfunctor": 8505,
      "TA": 8506,
      "Ġexcite": 8507,
      "tags": 8508,
      "ĠAny": 8509,
      "Ġattr": 8510,
      "ICE": 8511,
      "Ġregard": 8512,
      ".__": 8513,
      "tight": 8514,
      "fg": 8515,
      "ĠGeneral": 8516,
      "iders": 8517,
      "Ġmarked": 8518,
      "ilt": 8519,
      "Ġreasons": 8520,
      "rypt": 8521,
      "character": 8522,
      "sn": 8523,
      "Ġimply": 8524,
      "ullable": 8525,
      "descri": 8526,
      "Ġ{'": 8527,
      "mazon": 8528,
      "Ġchoices": 8529,
      "herited": 8530,
      "reset": 8531,
      "icies": 8532,
      "Ġlatest": 8533,
      "irth": 8534,
      "Ġproton": 8535,
      "','": 8536,
      "entials": 8537,
      "bolic": 8538,
      "Global": 8539,
      "Simple": 8540,
      "Duration": 8541,
      "Ġwrong": 8542,
      "Ġconverges": 8543,
      "SN": 8544,
      "Ġframes": 8545,
      "ĠCall": 8546,
      "Ġtopic": 8547,
      "Symbol": 8548,
      "Ġconvert": 8549,
      "Ġminutes": 8550,
      "wildfly": 8551,
      "fd": 8552,
      "analysis": 8553,
      "Ġaggreg": 8554,
      "sym": 8555,
      "Ġintegers": 8556,
      "swarm": 8557,
      "ĠHand": 8558,
      "sig": 8559,
      "Ġbreaking": 8560,
      "Ġstored": 8561,
      "allclasses": 8562,
      "Ġtraditional": 8563,
      "ĠAustral": 8564,
      "gal": 8565,
      "|_{\\": 8566,
      "Ġrestricted": 8567,
      "dashed": 8568,
      "ĠMulti": 8569,
      "below": 8570,
      "IND": 8571,
      "Ġ=======": 8572,
      "Ġcatalog": 8573,
      "Ġprefix": 8574,
      "Recall": 8575,
      "colLast": 8576,
      "ufact": 8577,
      "Ġmoments": 8578,
      "Ġhighlight": 8579,
      "Ġcoq": 8580,
      "dients": 8581,
      "Ġtrying": 8582,
      "valued": 8583,
      "uses": 8584,
      "Ġexplanation": 8585,
      "VALUE": 8586,
      "getName": 8587,
      "ĠCH": 8588,
      "Ġcandidates": 8589,
      "Ġplugin": 8590,
      "Ġtend": 8591,
      "Ġthin": 8592,
      "Ġfamilies": 8593,
      "owers": 8594,
      "hed": 8595,
      "Ġinvestigated": 8596,
      "arded": 8597,
      "}~\\": 8598,
      "Ġenhance": 8599,
      "&$": 8600,
      "ita": 8601,
      "ĠBlack": 8602,
      "Ġgeneralization": 8603,
      "PORT": 8604,
      "Elements": 8605,
      "fx": 8606,
      "Abstract": 8607,
      "^*_": 8608,
      "Ġsong": 8609,
      "Ġcook": 8610,
      "Ġassigned": 8611,
      "Ġparam": 8612,
      "ticip": 8613,
      "will": 8614,
      "ĠCR": 8615,
      "Ġisomorphic": 8616,
      "ftware": 8617,
      ">:": 8618,
      "Ġmonitor": 8619,
      "Ġinvolving": 8620,
      "nolimits": 8621,
      "Ġâ": 8622,
      "High": 8623,
      "anc": 8624,
      "Ġignore": 8625,
      "Ġgeodes": 8626,
      "Ġbits": 8627,
      "ĠTV": 8628,
      "tests": 8629,
      "Ġrenormal": 8630,
      "}{*}{": 8631,
      "esh": 8632,
      "nodes": 8633,
      "wrapper": 8634,
      "lr": 8635,
      "Ġconjug": 8636,
      "Ġstrategies": 8637,
      "ja": 8638,
      "cli": 8639,
      "ĠTran": 8640,
      "Warning": 8641,
      "ãĢ": 8642,
      "Ġdominant": 8643,
      "here": 8644,
      "ociation": 8645,
      "Extra": 8646,
      "101": 8647,
      ">\"": 8648,
      "ĠAct": 8649,
      "volume": 8650,
      "ĠFermi": 8651,
      "Ġlost": 8652,
      "weak": 8653,
      "Ġaffected": 8654,
      "Ġisn": 8655,
      "ĠFin": 8656,
      "Ġconformal": 8657,
      "Ġfn": 8658,
      "=-\\": 8659,
      "->_": 8660,
      "Protocol": 8661,
      "Ġtold": 8662,
      "ditionally": 8663,
      "iginal": 8664,
      "ida": 8665,
      "Ġfol": 8666,
      "_{[": 8667,
      "Ġeverything": 8668,
      "Ġamplitudes": 8669,
      "Ġcharacteristics": 8670,
      "hide": 8671,
      "Ġ\"\"": 8672,
      "coun": 8673,
      "Cho": 8674,
      "ĠPublic": 8675,
      "datab": 8676,
      "Ġiterations": 8677,
      "colFirst": 8678,
      "ĠQCD": 8679,
      "Ġprevent": 8680,
      "Attr": 8681,
      "ĠUnder": 8682,
      "photon": 8683,
      "wall": 8684,
      "Ġsolved": 8685,
      "above": 8686,
      "600": 8687,
      "riends": 8688,
      "Ms": 8689,
      "inos": 8690,
      "Ġgenerators": 8691,
      "Ġsafe": 8692,
      "independent": 8693,
      "approxi": 8694,
      "protected": 8695,
      "stood": 8696,
      "Ġallowing": 8697,
      "ĠRead": 8698,
      "hard": 8699,
      "notin": 8700,
      "Ġintervals": 8701,
      "specific": 8702,
      "Wrapper": 8703,
      "NC": 8704,
      "Ġdise": 8705,
      "details": 8706,
      "Ġpercent": 8707,
      "Ġdemonstrated": 8708,
      "allest": 8709,
      "vertex": 8710,
      "tel": 8711,
      "Ġinser": 8712,
      ".(\\": 8713,
      "Ġsuggested": 8714,
      "bg": 8715,
      "triangle": 8716,
      "Ġtrip": 8717,
      "Common": 8718,
      "Ġdivis": 8719,
      ",.": 8720,
      "Ġmaster": 8721,
      "Product": 8722,
      "Furthermore": 8723,
      "setup": 8724,
      "Ġadopted": 8725,
      "Files": 8726,
      "ociety": 8727,
      "alloc": 8728,
      "Ġnarrow": 8729,
      "Ġdecays": 8730,
      "åı": 8731,
      "INFO": 8732,
      "ĠBoth": 8733,
      "Clear": 8734,
      "Ġsoon": 8735,
      "correct": 8736,
      "Ġopacity": 8737,
      "lm": 8738,
      "ĠBel": 8739,
      "Ġguide": 8740,
      "ĠWest": 8741,
      "ĠĠĠĠĠĠĠĠĠĠĠĠĠĠĠĠĠĠĠĠĠĠĠĠĠĠĠĠĠĠĠĠĠĠĠĠĠĠĠĠĠĠĠ": 8742,
      "usted": 8743,
      "equence": 8744,
      "Ġreached": 8745,
      "ĉĉĉĉĉĉĉĉĉ": 8746,
      "Mis": 8747,
      "Ġpoor": 8748,
      "paper": 8749,
      "Ġcollect": 8750,
      "Ġstationary": 8751,
      "quote": 8752,
      "000000": 8753,
      "pattern": 8754,
      "Ġversus": 8755,
      "attributes": 8756,
      "|_": 8757,
      "isting": 8758,
      ";}": 8759,
      "READ": 8760,
      "poly": 8761,
      "Print": 8762,
      "Ġneutral": 8763,
      "ajax": 8764,
      "ĠHouse": 8765,
      "Ġreq": 8766,
      "hu": 8767,
      "Ġordered": 8768,
      "protocol": 8769,
      "ĠFebruary": 8770,
      "Ġdefining": 8771,
      "Ġinduction": 8772,
      "elling": 8773,
      "Ġkinetic": 8774,
      "Ġart": 8775,
      "Parse": 8776,
      "physical": 8777,
      "Keys": 8778,
      "Ġtim": 8779,
      "arest": 8780,
      "ĠRiemann": 8781,
      "WR": 8782,
      "Ġsuccessfully": 8783,
      "Rightarrow": 8784,
      "Ġsimilarity": 8785,
      "Ġcond": 8786,
      "cen": 8787,
      "mathbbm": 8788,
      "}<": 8789,
      "inear": 8790,
      "Ġreasonable": 8791,
      "illis": 8792,
      "ders": 8793,
      "Ġquar": 8794,
      "Ġsky": 8795,
      "Ġdie": 8796,
      "ĠSm": 8797,
      "joy": 8798,
      "Ġremote": 8799,
      "Ġresid": 8800,
      "Ġhappens": 8801,
      "Ġunitary": 8802,
      "NULL": 8803,
      "cn": 8804,
      "Ġbre": 8805,
      "provider": 8806,
      "ĠProject": 8807,
      "errors": 8808,
      "IA": 8809,
      "Ġgran": 8810,
      "Ġcreating": 8811,
      "game": 8812,
      "feature": 8813,
      "jet": 8814,
      "pool": 8815,
      "between": 8816,
      "Ġhappen": 8817,
      "liance": 8818,
      "Ġbary": 8819,
      "prefix": 8820,
      "JS": 8821,
      "Ġinfra": 8822,
      "ĠJava": 8823,
      "Ġtraffic": 8824,
      "Comment": 8825,
      "Ġsubsection": 8826,
      "endor": 8827,
      "ĠBer": 8828,
      "builder": 8829,
      "Ġpractical": 8830,
      "Ġquickly": 8831,
      "Ġfriend": 8832,
      "Ġbrowser": 8833,
      "Ġpassword": 8834,
      "Cs": 8835,
      "ĠLaw": 8836,
      "ulo": 8837,
      "Ġprobabilities": 8838,
      "Ġimplicit": 8839,
      "ĠAm": 8840,
      "Ġwent": 8841,
      "ulator": 8842,
      "CB": 8843,
      ">$": 8844,
      "Ġinstruction": 8845,
      "anted": 8846,
      "WN": 8847,
      "Ġci": 8848,
      "'$.": 8849,
      "Ġpanels": 8850,
      "Ġcomplement": 8851,
      "ĠSecond": 8852,
      "Cre": 8853,
      "Ġcrucial": 8854,
      "Ġclustering": 8855,
      "ĠHol": 8856,
      "Variable": 8857,
      "vdots": 8858,
      "rame": 8859,
      "------------": 8860,
      "shall": 8861,
      "Ġoptional": 8862,
      "ĠAGN": 8863,
      "ĠPoisson": 8864,
      "GG": 8865,
      "ĠCre": 8866,
      "Ġplotted": 8867,
      "Ġepis": 8868,
      "icted": 8869,
      "Pointer": 8870,
      "Ġsymbols": 8871,
      "ĠĠĠĠĠĊ": 8872,
      "onym": 8873,
      "Upsilon": 8874,
      "direction": 8875,
      "Func": 8876,
      "UV": 8877,
      "Ġdu": 8878,
      "Statement": 8879,
      "Ġmesh": 8880,
      "Ġphoto": 8881,
      "ITE": 8882,
      "Ġoutputs": 8883,
      "pb": 8884,
      "atell": 8885,
      "ea": 8886,
      "Ġtab": 8887,
      "Ġtrees": 8888,
      "ĠTechn": 8889,
      "fix": 8890,
      "Ġtrunc": 8891,
      "ĠStar": 8892,
      "ĠLandroid": 8893,
      "Ġexplor": 8894,
      "Ġtechnical": 8895,
      "Ġneutron": 8896,
      "platform": 8897,
      "Eff": 8898,
      "coded": 8899,
      "ccc": 8900,
      "hips": 8901,
      "Ġcoverage": 8902,
      "substack": 8903,
      "aba": 8904,
      "Ġsubstantial": 8905,
      "Ġabsence": 8906,
      "aily": 8907,
      "apan": 8908,
      "Scroll": 8909,
      "dies": 8910,
      "samp": 8911,
      "ceptions": 8912,
      "ael": 8913,
      "Ġĉ": 8914,
      "room": 8915,
      "\"`": 8916,
      "BAR": 8917,
      "Ġpossibly": 8918,
      "Ġattempt": 8919,
      "AE": 8920,
      "ĠĠĠĠĠĠĠĠĠĠĠĠĠĠĠĠĊ": 8921,
      "GO": 8922,
      "attle": 8923,
      "Ġsparse": 8924,
      "filename": 8925,
      "Ġmetadata": 8926,
      "Register": 8927,
      "changed": 8928,
      "Ġcollabor": 8929,
      "iterator": 8930,
      "Ġ}{\\": 8931,
      "Ġplasma": 8932,
      "Sw": 8933,
      "Ġpropagation": 8934,
      "Under": 8935,
      "Agent": 8936,
      "tbody": 8937,
      "tb": 8938,
      "Book": 8939,
      "Ġcovariance": 8940,
      "webpack": 8941,
      "Ġtax": 8942,
      "Ġproxy": 8943,
      "dk": 8944,
      "'m": 8945,
      "Ġcriteria": 8946,
      "Ġtested": 8947,
      "aven": 8948,
      "pache": 8949,
      "Bigl": 8950,
      "ĠAfric": 8951,
      "mutable": 8952,
      "Ġreaction": 8953,
      "ara": 8954,
      "atomic": 8955,
      "Ġuniverse": 8956,
      "Ġnaturally": 8957,
      "done": 8958,
      "Ġnormalization": 8959,
      "'ll": 8960,
      "Ġperturbations": 8961,
      "entative": 8962,
      "Ġinstant": 8963,
      "ĠEnglish": 8964,
      "Ġaug": 8965,
      "storage": 8966,
      "Pair": 8967,
      "ADD": 8968,
      "Ġtreated": 8969,
      "ĠAir": 8970,
      "\\,,": 8971,
      "Ġempirical": 8972,
      "Ġdesc": 8973,
      "Flow": 8974,
      "III": 8975,
      "Ġpages": 8976,
      "Ġwish": 8977,
      "OUT": 8978,
      "()</": 8979,
      "}})$": 8980,
      "deep": 8981,
      "login": 8982,
      "titions": 8983,
      "dynamic": 8984,
      "ĠDem": 8985,
      "Total": 8986,
      "}}=\\": 8987,
      "RS": 8988,
      "ĠNAME": 8989,
      "lers": 8990,
      "mix": 8991,
      "Ġembedded": 8992,
      "Ġeffectively": 8993,
      "Ġfavor": 8994,
      "Ġlie": 8995,
      "Bigr": 8996,
      "Remove": 8997,
      "ondon": 8998,
      "Ġqueries": 8999,
      ".},": 9000,
      "Domain": 9001,
      "headers": 9002,
      "shared": 9003,
      "Ġspacetime": 9004,
      "account": 9005,
      "also": 9006,
      "}))": 9007,
      "Ġcontribute": 9008,
      "HD": 9009,
      "potential": 9010,
      "integra": 9011,
      "Ġrepeated": 9012,
      "sb": 9013,
      "Tri": 9014,
      "Ġdecreasing": 9015,
      "/.": 9016,
      "tc": 9017,
      "Ġdominated": 9018,
      "Ġspherical": 9019,
      "factory": 9020,
      "Ġseparated": 9021,
      "Ġready": 9022,
      "wik": 9023,
      "_(": 9024,
      ")}_{\\": 9025,
      "avity": 9026,
      "decomp": 9027,
      "Ġgate": 9028,
      "ĠHash": 9029,
      "ocities": 9030,
      "picker": 9031,
      "Ġ\",": 9032,
      "Times": 9033,
      "coup": 9034,
      "OB": 9035,
      "theory": 9036,
      "Failed": 9037,
      "Ġcomparing": 9038,
      "tized": 9039,
      "Ġofficial": 9040,
      "overset": 9041,
      "Ġjoin": 9042,
      "Ġ],": 9043,
      "glyph": 9044,
      "arial": 9045,
      "Sql": 9046,
      "Ġslope": 9047,
      "Success": 9048,
      "symmetry": 9049,
      "Sync": 9050,
      "')$": 9051,
      "iling": 9052,
      "retch": 9053,
      "Ġbroken": 9054,
      "PD": 9055,
      "ipped": 9056,
      "Region": 9057,
      "spaces": 9058,
      "ALSE": 9059,
      "Ġcollected": 9060,
      "Ġfiber": 9061,
      "rink": 9062,
      "ĠIndex": 9063,
      "cessed": 9064,
      "|=": 9065,
      "ience": 9066,
      "Ġupdates": 9067,
      "ĠOnly": 9068,
      "Gra": 9069,
      "Ġreads": 9070,
      "ĠWindow": 9071,
      "jango": 9072,
      "ĠDirac": 9073,
      "standard": 9074,
      "Ġturbul": 9075,
      "Ġeditor": 9076,
      "/_": 9077,
      "Ġmathema": 9078,
      "ĠCopyright": 9079,
      "\\|^": 9080,
      "ĠSim": 9081,
      "Ġreflection": 9082,
      "Ġheld": 9083,
      "Ġexponent": 9084,
      "ĠNext": 9085,
      "ĠBook": 9086,
      "Ġreferred": 9087,
      "kov": 9088,
      "Ġatom": 9089,
      "tech": 9090,
      "DEBUG": 9091,
      "Ġconsu": 9092,
      "problem": 9093,
      "Ġflows": 9094,
      "Ġimagin": 9095,
      "Ġfinancial": 9096,
      "compare": 9097,
      "ecutor": 9098,
      "Ġacces": 9099,
      "Ġsizeof": 9100,
      "Ġzone": 9101,
      "tee": 9102,
      "Ġlabeled": 9103,
      "geo": 9104,
      "Ġprincipal": 9105,
      "Ġprop": 9106,
      "Ġconsisting": 9107,
      "Dest": 9108,
      "LC": 9109,
      "esting": 9110,
      "('.": 9111,
      "children": 9112,
      "tite": 9113,
      "Ġdistinguish": 9114,
      "ĠIOException": 9115,
      "$_{\\": 9116,
      ")=(": 9117,
      "maven": 9118,
      "Ġtypeof": 9119,
      "velopment": 9120,
      "rupt": 9121,
      "Ġconjecture": 9122,
      "800": 9123,
      "forming": 9124,
      "ips": 9125,
      "iet": 9126,
      "Trace": 9127,
      "services": 9128,
      "Ġaudio": 9129,
      "Generator": 9130,
      "![": 9131,
      "Ġscores": 9132,
      "Ġexhibit": 9133,
      "Ġlept": 9134,
      "Ġcompanies": 9135,
      "Area": 9136,
      "variable": 9137,
      "Ġemployed": 9138,
      "}\\;": 9139,
      "ĠHer": 9140,
      "Ġresolve": 9141,
      "Ġplaced": 9142,
      "Ġplease": 9143,
      "Ġasser": 9144,
      "Google": 9145,
      "Ġcomparable": 9146,
      "CV": 9147,
      "triang": 9148,
      "1994": 9149,
      "origin": 9150,
      "~~~~~~~~": 9151,
      "Although": 9152,
      "tk": 9153,
      "Ġangles": 9154,
      "USE": 9155,
      "ĠLore": 9156,
      "Ġcontradiction": 9157,
      ")|\\": 9158,
      "Ġversions": 9159,
      "Ġapplies": 9160,
      "SV": 9161,
      "cepts": 9162,
      "Ġaffine": 9163,
      "care": 9164,
      "RT": 9165,
      "springframework": 9166,
      "ĠHis": 9167,
      "Ġchallenge": 9168,
      "solid": 9169,
      "jected": 9170,
      "agent": 9171,
      "ĠRus": 9172,
      "rency": 9173,
      "ĠDepartment": 9174,
      "Ġmostly": 9175,
      "Background": 9176,
      "usform": 9177,
      "dz": 9178,
      "Ġregarding": 9179,
      "numerusform": 9180,
      "required": 9181,
      "ĠDO": 9182,
      "ĠTwo": 9183,
      "effect": 9184,
      "BM": 9185,
      "ĠGets": 9186,
      "PM": 9187,
      "Ġpropos": 9188,
      "mote": 9189,
      "Tx": 9190,
      "ĠCase": 9191,
      "Ġaccomp": 9192,
      "ĠGerman": 9193,
      "=$": 9194,
      "Ġstabil": 9195,
      "ĠField": 9196,
      "just": 9197,
      "Ġexit": 9198,
      "Ġindicating": 9199,
      "Dete": 9200,
      "Ġcreation": 9201,
      "Ġparen": 9202,
      "Socket": 9203,
      "Ġcharacterized": 9204,
      "ogen": 9205,
      "vable": 9206,
      "ĠInternational": 9207,
      "fc": 9208,
      "Ġillustrated": 9209,
      "ptions": 9210,
      "'ve": 9211,
      "zone": 9212,
      "inction": 9213,
      "}_{{\\": 9214,
      "Ġidentification": 9215,
      "ĉĠĠĠĠĠ": 9216,
      "iton": 9217,
      "prev": 9218,
      "acebook": 9219,
      "safe": 9220,
      "apos": 9221,
      "Ġ$\\|": 9222,
      "ruby": 9223,
      "Ġboost": 9224,
      "gray": 9225,
      "ĠIE": 9226,
      "Ġdependencies": 9227,
      "'$,": 9228,
      "Ġvanishes": 9229,
      "Ġbelongs": 9230,
      "Ġmanager": 9231,
      "Ġequals": 9232,
      "fast": 9233,
      "ĠCap": 9234,
      "SG": 9235,
      "Ġalone": 9236,
      "Comparison": 9237,
      "Ġperforming": 9238,
      "Ġ\"-": 9239,
      "Ġcondu": 9240,
      "uages": 9241,
      "ĠLong": 9242,
      "Ġschedule": 9243,
      "Ġcollisions": 9244,
      "Framework": 9245,
      ",~": 9246,
      "zen": 9247,
      "}.\\": 9248,
      "bounded": 9249,
      "ĠPresident": 9250,
      "Ġsupercon": 9251,
      "Ġsupports": 9252,
      "Ġposterior": 9253,
      "'}\\": 9254,
      "pmb": 9255,
      "Ġroute": 9256,
      "=\"${": 9257,
      "oses": 9258,
      "=&": 9259,
      "execute": 9260,
      "Ġtriang": 9261,
      "forma": 9262,
      "uv": 9263,
      "Ġmacro": 9264,
      "She": 9265,
      "three": 9266,
      "ĠCour": 9267,
      "Ġtrajectories": 9268,
      "oidal": 9269,
      "ĠCommun": 9270,
      "Ġcosts": 9271,
      "lev": 9272,
      "Ġsides": 9273,
      ".\");": 9274,
      "incre": 9275,
      "=[": 9276,
      "python": 9277,
      "hskip": 9278,
      "Ġsurroun": 9279,
      "pic": 9280,
      "BH": 9281,
      "ĠChina": 9282,
      "ackson": 9283,
      "CRE": 9284,
      "Ġsometimes": 9285,
      "Ġproposition": 9286,
      "given": 9287,
      ";)": 9288,
      "udy": 9289,
      "Ġnegle": 9290,
      "mpt": 9291,
      "PROJECT": 9292,
      "Ġmodern": 9293,
      "CHECK": 9294,
      "Ġrequirement": 9295,
      "batch": 9296,
      "Cluster": 9297,
      "moz": 9298,
      "Ġparametr": 9299,
      "serial": 9300,
      "ntz": 9301,
      "Ġ}$": 9302,
      "role": 9303,
      "tas": 9304,
      "ĠWil": 9305,
      "Ġproduces": 9306,
      "wood": 9307,
      "svg": 9308,
      "Ġlayout": 9309,
      "ĠSum": 9310,
      "Ġ).": 9311,
      "anchor": 9312,
      "Ġmobile": 9313,
      "username": 9314,
      ".'": 9315,
      "EV": 9316,
      "ĠWAR": 9317,
      "Collections": 9318,
      "Ġexceed": 9319,
      "Ġconstructor": 9320,
      "ĠPack": 9321,
      "Ġcompleted": 9322,
      "Ġelectronic": 9323,
      "ĠÎ": 9324,
      "Math": 9325,
      "ĠVis": 9326,
      "ACT": 9327,
      "homology": 9328,
      "ĠPub": 9329,
      "Ġsplitting": 9330,
      "Ġheart": 9331,
      "gate": 9332,
      "Ġadjust": 9333,
      "Identifier": 9334,
      "Ġlogger": 9335,
      "Ġintrinsic": 9336,
      "Ġsimultaneously": 9337,
      "users": 9338,
      "oped": 9339,
      "'));": 9340,
      "Ġflags": 9341,
      "good": 9342,
      "Ġdirected": 9343,
      "ĠConn": 9344,
      "dig": 9345,
      "gligible": 9346,
      "Ġextremely": 9347,
      "overview": 9348,
      "junit": 9349,
      "Dim": 9350,
      "amond": 9351,
      "yy": 9352,
      "Ġresponsible": 9353,
      "lfloor": 9354,
      "Fail": 9355,
      "Ġasked": 9356,
      "testing": 9357,
      "ĠAmerica": 9358,
      "Ġorbits": 9359,
      "Ġsmallest": 9360,
      "ĠYour": 9361,
      "ĠBoolean": 9362,
      "ĠKing": 9363,
      ".}\\": 9364,
      "Selection": 9365,
      "Ġnp": 9366,
      "uniform": 9367,
      "Ax": 9368,
      "Find": 9369,
      "gre": 9370,
      "Ġunderstood": 9371,
      "Ġdeliver": 9372,
      "Ġmenu": 9373,
      "Ġattacks": 9374,
      "Ġparty": 9375,
      "iles": 9376,
      "vironments": 9377,
      "Home": 9378,
      "Methods": 9379,
      "Route": 9380,
      "clean": 9381,
      "assembly": 9382,
      "Ġmedian": 9383,
      "Ġ[\"": 9384,
      "groups": 9385,
      "Ġlaser": 9386,
      "dat": 9387,
      "ĠIl": 9388,
      "grad": 9389,
      "Rest": 9390,
      "Proto": 9391,
      "CN": 9392,
      "Ġusage": 9393,
      "~(": 9394,
      "Help": 9395,
      "Ġctx": 9396,
      "rfloor": 9397,
      "Selected": 9398,
      "Ġrich": 9399,
      "Ġoffers": 9400,
      "imed": 9401,
      "SW": 9402,
      "ĠEven": 9403,
      "Scal": 9404,
      "herence": 9405,
      "Assume": 9406,
      ")\"": 9407,
      "ague": 9408,
      "Ġsubsets": 9409,
      "methods": 9410,
      "Password": 9411,
      "opes": 9412,
      "Ġdead": 9413,
      "asible": 9414,
      "Ġpulse": 9415,
      "ians": 9416,
      "ĠAssume": 9417,
      "Ġ'<": 9418,
      "xhtml": 9419,
      "ĠTH": 9420,
      "Ġdisjoint": 9421,
      "Ġcampaign": 9422,
      "Prefix": 9423,
      "Ġtot": 9424,
      "otor": 9425,
      "odd": 9426,
      "upper": 9427,
      "ĠInteger": 9428,
      "Normal": 9429,
      "Visible": 9430,
      "ĠImp": 9431,
      "Ġsafety": 9432,
      "}</": 9433,
      "Ġcriterion": 9434,
      "UD": 9435,
      "Ġ[],": 9436,
      "ĠFROM": 9437,
      "Ġfed": 9438,
      "Nodes": 9439,
      "Ġaux": 9440,
      "Author": 9441,
      "Ġweakly": 9442,
      "nat": 9443,
      "kt": 9444,
      "fold": 9445,
      "Ġplots": 9446,
      "})-": 9447,
      "Another": 9448,
      "Ġroughly": 9449,
      "Ġlogic": 9450,
      "Ġmajority": 9451,
      "Mer": 9452,
      "ĠTR": 9453,
      "nostic": 9454,
      "Ġcouple": 9455,
      "Ġ&$": 9456,
      "Ġprograms": 9457,
      "Ġ$$\\": 9458,
      "gon": 9459,
      "Registry": 9460,
      "Ġscience": 9461,
      "Ġrespective": 9462,
      "video": 9463,
      "Ġ{\"": 9464,
      "Ġ^{\\": 9465,
      "Ġinstalled": 9466,
      "Ġexcited": 9467,
      "tish": 9468,
      "cyc": 9469,
      "Ġharmonic": 9470,
      "Constants": 9471,
      "Ġpurposes": 9472,
[...]
