#version: 0.2
Ġ Ġ
Ġ t
i n
ĠĠ ĠĠ
e r
Ġ a
h e
o n
r e
a t
Ġt he
o r
e n
s t
a n
a l
e d
i t
a r
Ġ o
Ġ c
e s
Ġ w
Ġ s
i s
Ġ f
i on
n d
in g
Ġ p
Ġ in
i c
Ġ b
Ġo f
l e
ĠĠ Ġ
r o
a s
ĠĠĠĠ ĠĠĠĠ
o u
Ġa nd
Ġ m
Ġ d
Ġt o
en t
e t
c t
Ġ h
i l
a m
Ġ S
e l
Ġ C
o m
Ġ re
Ġ A
Ġ T
o l
Ġ n
i d
Ġ (
u r
Ġt h
Ġ l
a d
t h
c e
Ġ M
at ion
i v
c h
Ġ e
i g
i m
u t
ĠĠĠĠ ĠĠĠ
er s
u s
Ġ I
Ġ P
Ġ B
a y
o t
u l
a g
Ġ g
u n
Ġf or
e m
â Ģ
i r
o w
o d
Ġ is
Ġ =
Ġ on
i st
Ġ st
2 0
l y
i f
Ġ H
Ġ R
1 9
a c
Ġ D
ĉ ĉ
< /
s e
Ġ v
it h
Ġb e
u m
t er
p e
= "
Ġ L
) ;
at e
Ġ F
Ġw as
o c
Ġa s
r a
an d
Ġ N
Ġ G
a b
Ġ W
o p
u e
r i
- -
Ġ {
Ġw ith
Ġc on
v er
Ġ <
Ġ "
Ġ E
e w
Ġa l
a v
ĠT he
as s
ĠĠĠĠĠĠĠĠ ĠĠĠ
Ġw h
ro m
u p
re s
es s
am e
/ /
or t
h t
u b
Ġa n
p t
Ġd e
Ġth at
Ġb y
Ġ J
Ġ *
ou r
o s
Ġa t
e st
ct ion
Ġ O
n t
e x
al l
a p
er e
a in
Ġp ro
it y
ar t
Ġ it
il l
Ġc om
en d
ag e
m ent
Ġf rom
Ġ he
o re
č Ċ
' s
i es
Ġc l
k e
Ġ }
r an
q u
Ġ or
b er
in e
o g
Ġs e
Ġ U
u d
Ġe x
ac k
" >
Ġ y
l d
p l
e ct
e f
Ġ K
ar d
i a
ur n
p ort
i an
iv e
c l
a st
ĠS t
ĠĠĠĠĠĠĠĠ ĠĠĠĠĠĠĠĠ
i p
i al
o v
ar y
âĢ ĵ
( )
ĠĠĠĠ Ġ
Ġa re
g e
Ġ r
i z
* *
an t
ig ht
Ġp l
c on
0 0
at ed
u st
Ġc h
u re
ul t
u nd
u g
20 1
Ġth is
p er
or d
el l
i re
ic h
. .
on g
t urn
T he
o st
Ġ V
ĠI n
a k
Ġ Ċ
a re
f f
r ing
s p
Ġh is
th er
y pe
or m
ab le
I n
e ar
Ġs h
Ġ '
S t
Ġ le
in t
Ġcl ass
at h
r y
ĠC h
-- --
ig n
o k
g et
= =
ub l
i le
ou t
ic e
is h
ion s
od e
or k
l i
in d
) ,
Ġ us
Ġ if
âĢ Ļ
Ġ |
Ġn ot
ex t
id e
en c
u c
av e
20 0
ic al
as e
Ġ -
c om
s o
er v
m er
im e
1 8
ou nt
Ġin t
e p
r it
a ce
Ġcon t
ĠĠĠĠĠĠĠĠ ĠĠĠĠĠĠĠ
Ġ j
Ġcom p
or y
Ġa r
e c
an g
at a
e v
Ġre turn
on t
a ct
p h
Ġ un
Ġh as
Ġw ere
il d
ubl ic
Ġ $
Ġwh ich
o b
ĠT h
Ġn ew
Ġ k
ran s
j ect
) .
Ġa d
it ion
ou s
i b
ou ld
en s
Ġ //
r ic
en ce
ation s
a il
on e
a ch
ir st
res s
ow n
Ġal so
he d
e g
r u
he n
ter n
oc k
Ġ| |
l l
f orm
Ġh ave
" ,
: :
an ce
Ġa b
ĠU n
er t
al ue
p ro
Ġw e
Ġa p
Ġre s
ĠH e
- >
Ġ ro
Ġal l
o ol
in k
Ġ </
ent s
Ġ Y
E x
s s
am p
re e
Ġpl ay
ĉĉ ĉĉ
t e
Ġ &
c c
our ce
om e
el f
c ri
ar k
Ġ im
Ġb ut
Ġ âĢĵ
Ġ @
in al
f er
ul l
ou nd
it e
or s
.. /
n e
Ġthe ir
n g
Ġh ad
u al
Ġc an
Ġwh o
Ġ [
ĠI t
f ter
o ver
Ġy ou
ro w
un ction
cl ud
er m
Ġ âĢ
at es
Ġb o
at er
Ġ /
q ue
Ġf irst
Ġo ut
s h
ation al
Ġt e
19 9
pt ion
Ġp art
Ġon e
Ġ up
a w
i el
Ġt r
1 0
ol l
Ġs c
ar am
is s
w o
ol d
Ġit s
an y
( "
Ġh er
f t
( );
i ew
i e
en er
d iv
i o
em ber
le ct
enc es
l and
a ke
Ġn ame
m l
Ġa g
re f
pe c
o se
et h
ing s
op le
Ġp ublic
ĠA r
Ġd is
Ġy ear
ess age
l es
iel d
w e
ic k
iz e
Ġe v
Ġ .
Ġp r
ig h
' ,
er y
l o
R ef
Ġw ork
mer ic
or n
en g
p ut
s et
Ġd o
ro up
am es
b ut
y st
it ed
---- ----
sp an
Ġp er
Ġthe y
Ġde f
v el
Ġd es
on s
Ġw ill
e ople
ad e
Ġp re
i x
Ġbe en
i ed
** **
iv ers
> </
Ġre c
t t
Ġ +
Ġo ver
Ġcom m
el y
Ġs p
a x
o ot
Ġ* /
le ment
o int
Ġf il
Ġin clud
er n
p r
c ess
Ġs et
ĠC om
ĠN ew
> <
ic s
Ġof f
an s
Ġm ore
Ġo ther
u ch
e b
on d
19 8
r am
Ġ :
ic t
as ed
Ref er
Ġt wo
w ard
t r
Ġm e
c he
an n
us e
Ġg et
ar ch
o y
m s
yst em
1 2
u ild
ĠĠĠĠĠĠĠĠ ĠĠĠĠĠĠĠĠĠĠĠ
ro und
er r
Ġt ime
d u
t y
ke y
ug h
Ġv ar
== ==
al s
../ ../
Ġ und
re d
1 6
Ġas s
P ro
ur ing
ar g
ou g
o id
n c
Ġa fter
t s
at ch
t on
Refer ences
o ok
Ġc ol
Ġw hen
ay s
( '
Ġint o
ĠĠĠĠĠĠĠĠ Ġ
o od
âĢ Ŀ
e y
E R
Ġs o
Ġf unction
Ġcon st
1 7
meric an
an c
ĠS e
s on
is hed
Ġa ct
que st
th is
2 1
ch ool
ĉĉ ĉ
Ġ end
or ld
Ġs he
Ġ #
Ġat t
Ġab out
if ic
ol og
1 5
Ġs up
ĠA l
N ame
c k
c re
O N
w n
b all
Ġs erv
Ġp eople
at ive
al e
at or
ht ml
19 7
ĠS h
at ic
pe ct
re n
i ous
b ject
le t
T ype
p s
a h
n ame
Ġn e
ĠP ro
as h
r ay
ov e
Ġl oc
Ġad d
a z
I N
tern al
s ource
Ġre g
Ġ en
Ġh ref
id ent
Ġk n
Ġw ould
ire ct
R e
m essage
at ing
um ber
is ion
con d
in s
o h
Ġo p
ar s
im port
Ġt ype
) )
at t
T h
rans l
ist s
e e
ri but
C h
p aram
Ġ _
Ġund er
p os
as on
Ġin ter
c ol
t d
al se
i k
ur re
g an
r al
it ies
Ġb et
c ent
I d
Ġon ly
con t
Ġs ub
ru ct
St ring
i ent
il y
Ġin d
le ction
Ġs pec
C om
is e
Ġ qu
Ġin st
h ip
ivers ity
er ed
ĠTh is
t o
C ont
ra ph
Ġth ere
re turn
C on
f ig
Ġbe c
Ġn o
Ġc re
cri pt
v ent
19 6
Ġc all
Ġ el
ap p
ur y
l ock
em b
Ġ= >
ro ugh
u es
m an
Ġth an
Ġp ol
Ġ ra
1 4
Ġa c
Ġm an
ou th
od el
Ġv alue
Ġa cc
ul ar
c ode
if e
d d
i er
Ġre m
in ce
Ġl ine
a id
y s
oll ow
Ġs elf
Ġre l
em ent
a ir
Ġh im
ab l
Ġf e
R E
Ġc o
R es
: //
Ġs ome
Ġcon s
ĠC l
Ġ Z
Ġwh ere
1 3
or th
ĠâĢ ľ
i ke
a ult
d uc
res ent
oc i
v e
in n
it s
eth od
ac he
2 2
in es
Ġan y
ce ption
ad d
as k
ĠI nd
ou se
/ >
Ġb ack
it le
Ġ !
Ġthe m
Ġus ed
re ad
Ġag ain
Ġpro v
ĠD e
ĠA merican
w ay
ĠL e
ar n
ers ion
Ġp os
A r
u res
al ly
L ist
Ġfor m
Ġyear s
ĠA n
urre nt
Ġ ent
in ed
C l
S T
a j
we en
Ġa m
1 1
Ġst ud
Ġm ost
# #
Ġg o
cl ass
y le
Ġs er
oug h
Ġl ink
ĠC ol
ransl ation
Ġd ata
Ġin v
Ã ©
at ure
t ype
Ġth rough
it t
Ġe m
ag es
. "
f ore
ra ct
um ent
p on
Ġte am
A T
3 0
f l
Ġthe n
Ġres ult
u th
u ff
over n
f o
2 5
ers on
" />
Ġ= =
re at
Ġf ound
ow er
Ġf l
I D
Ġ Q
19 4
iv ate
Ġt ra
ĠUn iversity
d er
Ġw rit
Ġc ent
Ġm ay
ad er
Ġf inal
c o
Ġ ed
19 5
b o
ĠUn ited
t ranslation
Ġbet ween
Ġch ar
y m
ĠC on
l ine
r id
Ġf ollow
d ef
in a
ĠS c
Ġd uring
b ack
Ġp h
ire d
r ad
) :
Ġd ist
ic es
Ġt rans
Ġn ull
00 0
or g
b s
oot ball
Ġar t
iv ing
ut e
b y
ib le
an k
Ġus e
Ġ i
Ġst art
Ġh igh
ht t
ot t
ĠR e
Â ł
il ity
o ther
Ġe st
o le
Ġf am
v iew
Ġs uch
s elf
a use
us ic
m in
Ġex t
A R
Ġc ount
O R
Ġre le
ĠS p
Ġv oid
r on
an ge
iz ed
_ _
t il
iv er
Ġm ade
st ring
o ber
ĠM ar
ric t
u le
Ġl ist
od y
b le
ĠE x
e k
en n
p p
oh n
Ġth ree
ĠE ng
et s
ist ory
Ġbe ing
Ġm ed
ĠI s
Ġn umber
p ress
Ġt est
Ġsh ow
ment s
Ġlink s
Ġse cond
Ġw ell
l oc
Ġg roup
) );
ion al
Ġplay ers
us s
ĠS he
Ex ternal
re am
v al
Ġf alse
Ġbe fore
Ġs aid
Ġm in
iv ed
og raph
e ver
ath er
th s
L E
**** ****
"> <
Ġy our
um m
Ġo per
Ġtr ue
Ġd if
o f
Ġwh ile
m p
Ġs ign
le y
is m
ĠĠĠĠĠĠĠĠĠĠĠĠĠĠĠĠ ĠĠĠĠĠĠĠ
a f
I t
pl ic
Ġd irect
ĠA s
Ġrec ord
Ġl ong
Ġs ing
ĠW h
Ġ err
Ġr un
Ġfil m
ĠP h
Ġg ener
t en
y p
ĠCom m
et er
Ġo wn
iv es
s er
ce pt
Ġl ike
p re
Ġ `
un e
port s
-------- --------
Ġb uild
Ġel se
b um
H e
ĠĠĠĠĠĠĠĠ ĠĠĠĠĠ
Ġse ason
ĠC ount
w w
s c
c es
D ata
Ġp op
2 4
Ġ >
ĠP l
g ram
ist er
Ġm any
ar ly
ĠSt ates
Ġd r
are d
" .
f ul
p le
om en
E N
Ġh ow
per ty
t he
O n
r ight
ou nc
Ġm on
eng th
A L
ĠF or
olog y
ĠO n
av a
ag ue
Ġm ov
ro l
ĠJ an
vel op
Ġst ring
r r
.. .
C ol
op t
// //
y n
ur al
Ġde velop
S S
Ġs chool
Ġj ust
U n
Ġb l
b e
Ġv al
Ġ )
um n
el s
" );
Ġs ur
Ġe ver
are nt
ĠM ay
d ata
u ro
Ġl ater
T o
" )
at us
a i
Ġb ro
ar m
V alue
ut ion
l er
e le
Ġst ate
3 2
Ġst r
Ġ id
erv ice
Ġinclud ing
Ġagain st
ar get
Ġthe se
Ġb ir
Ġs ystem
Ġs m
ĠF ran
' t
a pt
t ext
ĠJ ohn
ro ss
Ġde c
Ġo ur
v ar
v alue
r and
im es
Ġ/ **
it al
du ct
w ork
Ġbo th
Ġf ootball
n b
ĠW orld
ro ll
at s
re m
2 3
ak ing
st r
ĠA ss
d ay
5 0
tern ational
ĠB l
Ġf our
if ied
Ġre p
Ġwh at
ar ri
t est
ĠA ust
Ġc ould
Ġpr ivate
iss ion
ction s
l ed
Ġkn own
m y
ĠN ational
al th
Ġap pe
Ġm ain
h er
Ġr ight
i ence
Ġp ass
Ġne ed
pl ay
ur ch
Ġsup port
g er
ĠO r
en se
ot e
Ġs ame
Ġm y
i um
ain s
t ing
f ile
Ġal bum
d ate
ĠP r
Ġsh ould
Ġm od
Ġser ies
r ist
ĠĠĠĠĠĠĠĠĠĠĠĠĠĠĠĠ ĠĠĠĠĠĠĠĠĠĠĠĠĠĠĠĠ
Ġn ow
Ġp oint
uc cess
nb sp
re g
S et
ant s
Ġ ran
ĠĠĠĠ ĠĠ
Ġch ild
Ġe ff
overn ment
Ex ception
p ar
Ġc are
ĠC an
ig inal
ĠA d
==== ====
ch n
Ġc ase
Ġop en
Ġ --
ual ly
ĠA nd
Ġle ad
Ġl ast
f ield
ĠJ ul
p x
Ġd id
] ;
Ġre sp
ĠN ov
Ġper form
uc k
Ġhe l
Ġre ce
emb ers
if y
Ġg ame
I T
ab el
Ġb el
id th
Ġre qu
Ġc urrent
Ġan n
us h
u ary
am ed
o ad
in ess
ĠCount y
ĠY ork
C T
A N
enc y
id er
ĠâĢ Ķ
E rr
ĠS chool
Ġdif fer
Ġg u
Ġest abl
( $
Ġap p
1 00
Ġh and
ĠC ar
Ġ& &
m ed
Ġbec ame
Ġcont in
Ġd et
Ġst atic
uth or
i am
Ġ key
n ew
he ck
a u
g round
un c
S e
form ation
Ġev ent
ow s
Ġ// /
Ġm ake
ĠB rit
ang u
ag er
ian s
19 3
et y
r is
v en
i or
Ġe ach
O bject
Ġl ife
I nd
ĠM an
lect ed
ĠR es
ro p
ĠSt ring
Ġdes ign
Ġfam ily
ĠC ent
Ġt itle
T est
umm ary
p or
ical ly
al k
o x
Ġre ad
Ġs im
Ġcomm un
iz ation
Ġ! =
ĠS outh
t ime
ĠW est
ro id
n er
ĠA t
Ġde ath
ĠA ll
ĠW ar
2 6
A n
f ace
ac es
S E
our n
ĠO ct
Ġun til
f or
ĠA ug
amp le
Ġs ong
B y
Ġ %
Ġs l
Ġm et
ain ed
Ġw orld
oc ument
f ess
S h
Ġpol it
Ġre t
2 8
b ar
ir d
Ġ X
D E
ul ation
pt ember
2 7
m a
con st
() .
s ide
20 21
G et
it ions
os s
in ter
loc ation
aj or
Ġcall ed
com m
m ber
Ġbec ause
Ġm usic
erm an
l ob
Ġa v
' )
Ġbo ok
Ġo bject
cri ption
Ġhe ad
re ak
Ġoff ic
us iness
Ġfollow ing
() );
ward s
Ġf ield
amp ions
iv en
K ey
Ġd own
. _
re en
Ġse ver
ord er
Ġor gan
Ġpl ace
b r
ĠT r
it er
ial ly
Ġloc al
Ġpro gram
Ġf in
ĠM arch
id ed
ĠJan uary
il t
Ġor g
om an
M E
' ]
r c
ĠW e
an e
pr il
i ev
res ident
Ġs ince
g y
id d
Ġde p
Err or
it or
m e
ĠH ow
201 0
um b
Ġim port
Ġm ark
ĠP ol
col or
se arch
4 0
Ġever y
g o
ĠP ar
ra w
ĠG e
ĠAug ust
lo ad
Ġre f
ĠSe ptember
le x
com e
a e
l ist
ic ip
end s
s ize
ur l
Ġdis c
201 6
o ff
2 9
le ge
C O
ce mber
l ink
Ġ x
ĠY ou
l ish
a pe
Ġare a
b ed
ĠOct ober
ist or
Ġb u
is ed
A s
che s
end ed
A l
20 20
ur s
l og
ĠJ une
ĠE uro
ĠAust ral
| -
Ġv is
ĠR eg
ut il
Ġp erson
Cl ass
pt ions
al es
Ġus ing
Ġto p
ect ed
ĠB e
in c
. ,
Ġ \
p ublic
Ġw on
Ġle ft
Ġar g
Ġchar act
" ;
w h
al ity
ĠThe y
201 4
ĠSt ate
Ġ/ >
ĠJul y
fer ence
en e
ast er
Ġex p
un g
Ġc or
Ġev en
Ġt ri
ĠG u
as es
Ġdo es
201 5
ĠC ity
ak es
Ġhel p
ĠA pril
ir c
htt p
V iew
v ision
on y
201 1
s cript
duc ed
ur g
Ġp ar
o th
Ġa round
ĠA m
Ġex per
P l
ĠC al
ĠNov ember
ĠN orth
ore d
n ot
Ġf ile
Ġo ld
Ġp rom
[ '
Ġm ethod
Ġplay ed
I m
Ġv ery
"> </
ind ex
ol v
Ġl aw
ĠE d
Ġp ost
av ing
201 3
201 2
ĠT e
ĠDe cember
ĠĠĠĠ Ċ
Ġfor mer
' );
6 4
Ġre st
ill ion
Ġap pro
Ġrele ased
Ġb ased
op y
. </
am ent
du ction
ĠU S
201 8
Ġim p
201 7
Ġth ose
ord s
n av
b orn
angu age
Ġp ubl
Ġor iginal
l ing
f unction
a ction
Ġ eng
Ġst yle
id es
ep end
j s
A C
Ġin it
v ers
iv al
le g
Ġpro cess
N ot
u k
" :
r ation
v ious
Ġc our
et work
s ummary
Ġh ome
Ġd ay
Ġo b
20 19
ĠI f
Ġd el
ther n
Ġc ity
Ġw ay
ĠW ill
ĠA f
Ġf r
Ġn ear
ide o
em pl
ra p
p ace
Ġsever al
Ġa ut
d is
in ing
it em
ĠC o
Ġe arly
uff er
() ,
il it
ĠF eb
n ess
u ed
Ġs uccess
Ġsm all
Ġdiffer ent
y l
Ġle g
Ġo cc
ru ary
S c
ĉĉĉĉ ĉ
m od
Ġre port
ard s
am b
ar ge
ĠBrit ish
ribut e
R O
ampions hip
] ,
Ġst ill
Ġg overnment
ac ed
og le
S ee
Ġth row
t op
Ġf ind
Ġw omen
oc ial
Ġm embers
Ġex pect
ĠLe ague
200 8
F ile
p ath
ĠEuro pe
Ġn ext
U L
in ation
I ON
ap an
200 9
ograph y
Ġcomp any
ĠF l
Ġt erm
h am
ra ft
ĠR ep
Ġl and
Ġc ar
st er
Ġpro ject
Ġl a
Ġp at
v ir
Ġwe ek
ĠCan ad
Ã ¡
19 0
Ġdes cri
Ġal ong
Ġl ook
ĠM ed
ne y
Ġpro t
ust om
T r
ĠM in
F or
at ely
u f
Ġn on
M an
T ime
a im
ur ation
Ġcomp et
ĠI I
Ġbir ths
ĠCh rist
Ġv ersion
ain t
ack age
ĠK ing
ord ing
Ġse e
Ġm uch
z e
Ġle vel
cent ury
Ġc ap
Ġserv ice
! --
W ith
D ef
ĠP art
Ġp resent
Ġp o
w it
Ġis s
an a
Ġwith in
pon se
} ,
W h
Ġre quest
c ast
Ġst and
d e
Th is
ĠFeb ruary
I C
Ġst ruct
N ode
us ed
Ġs ol
O r
L A
ver t
Ġbe st
ĠA b
u i
Ġm odel
Ġad v
Ġsing le
200 7
ĠH ar
Ġass ert
6 0
st it
um er
Ġs ize
ĠB ar
Ġ );
Ġm ember
Ġs k
le ar
ren ch
our ces
ition al
âĢ ľ
E lement
Ġm at
3 3
Ġin formation
Ġe qu
Ġcare er
] .
Re quest
Ġinclud e
F il
I nt
/ *
re w
es e
Ġ ,
=" ../../
g roup
pl oy
ain er
ĠM c
200 6
i od
Ġfil ms
d es
T E
ĠN o
ou n
Ġm ajor
Ġto wn
l ess
he s
k s
Ġ ?
Ġin cre
In fo
re t
D es
P E
ate g
Ġt ake
ĠE l
Ġt ext
ip p
em pt
Con fig
Ġm ust
Ġkn ow
he ad
Ġd em
. âĢĿ
Ġc r
r ide
Ġf act
i et
F ield
Ġb usiness
con om
A dd
w are
T ext
Ġan other
a ut
um an
Ġn amed
Ġg ood
=" +
Ġg iven
Ġ z
Ġj o
Ġe lement
m et
ri es
Ġsh ort
Ġw ant
18 9
ad em
ug g
ĠA fter
m d
A ll
st ance
a it
Ġor der
ac y
Ġt yp
Ġhe ld
Ġto ok
ent ly
ail able
ific ation
E vent
P ath
lob al
ar i
d om
Ġg ames
iv ely
8 0
Ġch ang
' :
ole an
O ver
F orm
Ġrep resent
ĠS up
ond on
/ **
qu ot
ĠH is
s k
Ġpos s
od es
f il
in o
Ġbe gan
Ġcl ub
um p
P I
is on
A merican
ĠD ist
or ies
on es
Ġall ow
Ġp ort
Ġd ue
Ġte le
Ġv iew
() )
ic le
ĠTh ere
ap i
anc es
Ġb ase
20 00
Ġcont ent
Ġm en
Ġp ower
Q u
ĠEng lish
T R
âĢ Ķ
Ġh tt
Ġh ouse
il le
a ff
A tt
Ġchild ren
ess ion
ed er
htt ps
Ġs om
ĠE n
l ength
f ord
ĠAf ric
U R
Ind ex
ind ow
oci ation
E qu
E n
Ġeff ect
Ġte chn
Cont ext
oug ht
Ġh istory
St ate
ĠJ apan
em s
re st
` `
if t
Ġ Ð
con fig
op h
ĠS er
Ġex pl
Ġn ational
w rit
ok en
M ap
art ment
Ġv ill
S ystem
us er
a ul
ĠH igh
s ub
S ervice
et ers
al f
ign ed
ect or
Ġpro fess
Ġrece ived
al t
ic y
Ġb and
end ing
N ew
ĠH er
ĠĠĠĠĠĠĠĠĠĠĠĠĠĠĠĠ ĠĠĠĠĠĠĠĠĠĠĠ
Ġerr or
ur ther
le ft
re et
Ġc amp
Ġwith out
ric k
P aram
nd er
ag ed
plic ation
Ġs pe
ay out
ot s
Ġp aram
Ġf ail
Ġl og
Ġd on
n ing
Ġt arget
ev el
th ers
Ġd iv
ĠD r
Ġ( )
v oid
B uild
20 22
ure d
in clud
ur ity
w ays
t able
Ġcomp let
um e
Ġ( !
ou ble
ĠR uss
ĠL ondon
ames pace
e ad
Ġt ry
Ġcre ate
Ġestabl ished
200 5
ĠP ark
Ġe p
Ġ es
i ef
" "
ing ton
op s
ĠCol lege
end er
ĠL ist
our s
Ġed uc
Ġh ere
Ġloc ated
Ġm ult
******** ********
ĠE ast
ain ing
ĠA ir
he m
Ġar ray
ĠS ystem
A S
al d
ww w
Ġbu ilt
Ġ} ,
ug ht
Ġpos ition
Ġact iv
y d
Ġl ate
st ruct
ĠCh ar
A D
ĠHow ever
o pe
Ġf ore
ĠCom p
Ġpubl ished
ĠC or
at ors
ĠAr t
Ġdef ault
Ġs ix
Ġl arge
Ġbe g
Ġf ive
press ion
Ġw ater
ag s
c ed
Res ult
Ġ ke
ĠC ont
ear ch
ĠA meric
pl ace
I s
com p
ĠR ec
Ġ/ *
ul es
al y
Ġ} );
n a
Ġa uthor
Ġa ge
err or
Ġm atch
Ġt urn
Ġre al
Ġin s
Ġ-- >
ight s
ounc il
ĠD av
row n
Ġal ign
Ġa ir
ap ache
p en
C ode
tr ue
ic on
Ġto t
' ;
Ġs ide
per t
ĠB ut
pro t
ĠA g
re ate
ĠWill iam
Ġpop ulation
ens ion
it ive
vir on
Ġc a
Ġb lock
at ures
ent ial
w ord
ĠA ct
et urn
ec ut
h old
d own
Com m
y nc
ru ction
um mer
//// ////
abl ed
ict ion
ĠB o
Ġcount ry
Ġa ff
th ing
inn ing
ĠH ouse
Ġth ird
Ð °
i us
ilit ary
ĠL a
Ġb reak
f rom
Ar ray
ĠG ener
## ##
Ġplay er
Ġf ull
Ġbe h
he l
ĠF rench
Ġf ew
is c
Ġe lection
g ress
Ġre fer
Ġro le
ass ert
ĠB ro
Ġst ation
m en
itt le
Ġtr ack
S ize
Ã ³
t itle
Ġ ident
Ġcon f
Ġin c
st ate
Ġcharact er
ag ement
I S
Ġacc ess
H and
ĠO ff
Ġc rit
v ersion
o on
ĠM e
3 1
sh ip
Ġpre vious
re qu
pon ent
er a
U T
200 4
i que
ĠCh ampionship
Ġ enc
Ġv ol
ĠA ng
Ġb orn
Ġl arg
ater ial
s w
ib r
F F
Ġinv est
3 5
Ġbuild ing
us ing
Ġre search
Ġcent ury
Ġper iod
Ġf ac
l t
ĠS w
Ġserv ed
Ġc heck
ly mp
th ough
it es
rid ge
[ ]
Ġh ost
g ed
Ġav ailable
Ġp ath
4 5
ac hed
Ġl im
b ody
f in
Ġe lect
b lock
Ġinclud ed
er ing
ĠI m
et t
d t
att le
A cc
empl ate
H E
arri ed
Ġde v
in put
i ber
ĠPh il
ab ility
m ap
7 0
Ð ¾
ĠP er
def ault
Ġc ode
ir t
ĠE m
IN G
Ġf lo
ra in
ĠT o
M essage
Ġcomm and
Ġspec ies
ĠIn ternational
S er
Ġar ch
res ult
ĠDist rict
b l
Ġk ill
Ġw ar
L oc
ne ction
ĠG et
F rom
ĠS ch
ab or
ourn al
ann el
A ss
ob ject
r un
ĠB y
ag n
Ġcre ated
M A
Ġcont rol
ĠG erman
Ġm illion
ĠD es
Ġc ult
min ist
ĠN or
Ġtele vision
Ġus er
ail s
cre ate
Ġappe ar
, "
Ã Ń
Ġs ite
ĠD ep
Ġinter est
um ents
ĠC up
Ġd i
O f
Ġst at
L O
Ġ: =
Ġ et
It em
Ġcommun ity
Ġf ri
Ġcl os
p oint
Ġr ad
I G
Ġc over
Ġp e
le te
s l
bo x
18 8
ol ution
D e
oci ety
} ;
ĠS an
m odel
Ġtot al
Ġd ocument
ĠM ich
n ect
if orn
Ġof ten
viron ment
Ġcon c
Ġam ong
A nd
Ġth ink
ounc ed
ĠâĢ ĺ
Ġspec ial
u x
Ġc ell
ic a
W e
+ +
ĠA c
ay er
Ġj ava
Ġtr ad
ĠR ev
ut ure
Ġch ange
Ġst ory
= '
pos ed
ĠQ u
200 3
C E
Ġyou ng
V al
ar a
iforn ia
Ġd ied
b t
on se
os p
Ġle t
am a
Ġg reat
ĠInd ian
Ġdescri bed
pert ies
ith er
9 0
ĠC O
ĠV al
Ġ= ==
Ġp arent
at ri
In ter
i ol
li ent
A d
M L
at ter
R eg
ic o
n ow
ĠS m
Ã ¼
Ġs ay
read y
or ge
Ġdevelop ment
Ġg en
Ġp ut
st and
, âĢĿ
Ġt em
Ġstart ed
og n
Ġv ideo
oc r
Ġcon fig
in fo
Ġhe alth
Ġt imes
200 1
Ġp res
Ġs on
n ode
ent ion
O ut
Ġcon d
Ġp ri
g t
E T
id ual
7 5
ap s
Ġc ame
A t
op er
Ġev ents
M odel
in it
Ġan t
Ġresp onse
c all
b ase
Ġfe ature
N A
ĠO ne
Ġatt ack
Ġex ample
="../../ ../../
Ġd ays
Ð µ
l s
l in
w idth
is ing
Ġn orth
u el
ĠĠ Ċ
Ġbe come
ĠEng land
im ent
Ar g
Ġ} ;
t es
T rans
Ġcomm on
200 2
use um
C ount
Ġne ver
Ġcl aim
oy al
U p
U S
land s
Ġl ess
Ġh aving
includ e
un k
Ġro und
e h
l ang
ĠInd ia
ĠAustral ia
ĠA p
M P
c ount
ott om
Ġn il
ĠD iv
> &
b urg
E D
Ġ_ _
ĠR iver
ap er
re ed
t a
ĠCal ifornia
Ġs rc
a el
if f
Ġg l
ĠW hen
G roup
Ġs ent
al ign
ĠW ith
cont ent
Ġb ody
Ġs ocial
Ġpro duct
ab ly
im ate
P r
re c
Ġb as
pl es
Ġset t
Ġvill age
def ine
Ġs ource
L og
Ġcol or
Ġex ist
Ġeng ine
Ġo ptions
Ġvar i
---------------- ----------------
s m
C all
Ġadd ress
Ġin ternational
il ar
A p
L iving
Ġf ree
o ice
ic ro
E nt
U N
; &
Ġl ed
B C
om in
ak en
Ġm iss
i j
ert ain
ĠRep ublic
Ġind ust
Ġg row
ĠP ort
3 4
ix ed
Ġgener al
ct or
Ġinst ance
av y
R ec
Ġpr im
Ġserv ices
v es
3 6
Ġw ent
Com p
P eople
idd le
Ġcont ext
Ġ u
Ġde st
iv il
Man ager
ĠQ ue
Ġh istor
olv ed
P h
H istory
h a
F l
Ġp ract
i ents
ĠA cc
ĠM on
Ġwrit ten
b ol
roll er
se e
at form
y ear
re l
Ġt able
Ġrequ ire
o o
val id
Ġimport ant
Ġstud ents
Ġran ge
n own
Ġann ounced
5 5
Ġoffic ial
Ġs outh
9 9
Ġn ov
c ss
ran t
Ġof fer
go ogle
ou d
n o
oc us
Ġpro perty
6 6
E S
Ġreturn ed
olog ical
r ame
ĠC our
Ġmov ed
ĠAmeric a
ĠR ed
Ġse c
Ġa ction
ic ular
=" #
Ġb order
O T
ĠG o
Ġto o
Ġh old
ut es
ĠPart y
pro v
ic ense
Ġcomp os
Ġwork ing
ĠP resident
Ġwork s
Ġt w
one y
I L
p ackage
F A
Ġin f
Ġw he
ot o
id ence
S p
Ġd a
al a
Ġac ross
Ġf ather
Ġcom b
Ġb ool
ĠO lymp
Col or
st art
ip s
199 9
Ġw in
Ġresult s
Ġback ground
pr int
ill s
e qu
se qu
Ġind ex
3 9
Ġs old
Ġin fl
itt ed
Ġin put
ĠSt ud
Ġ Â
Ġe ar
o ke
emb ly
Ð ¸
UL L
199 0
ĉĉĉĉ ĉĉ
Ġwe bs
T able
ers hip
Ġm ax
3 8
Ġin div
Ġf em
u ation
Ġe conom
le ase
ab les
Ġdist rict
h ib
Ġstud y
cont ext
m ark
om b
Ġre view
Ġvar ious
Ġdeath s
Ġg rad
Ġm em
ad o
Ġpoint s
ir m
f alse
Ġto get
C lient
h an
pt y
ĠF il
Ġm aking
Ġp ay
Ġpro duction
EN T
Ġtoget her
I P
c le
ist ry
Ġme et
A B
b uild
ĠA ward
4 4
g es
ĠI nt
u it
Ġm essage
Ġgo ing
Ġm ale
3 7
D O
ĠĠĠĠĠĠĠĠ ĠĠĠĠ
b ook
Ġw est
A fter
ĠA nt
j ava
d oc
ib ility
ac ing
Ġpolit ical
b or
======== ========
Ġint ro
an ies
ĠB er
ĠThe se
ĠCh urch
at ab
ig ation
Ġpro ble
U ser
Ġa ward
Ġrequ ired
; </
Ġf und
if ier
and roid
Res ponse
w ith
Over ride
Ġh uman
it te
Ġst d
orm al
ĠG l
en ame
âĢ ¦
ĠS ec
in ary
Qu ery
T D
G ener
Ġ ide
ibr ary
Ġep is
W rit
ro y
ĠC ouncil
d b
Ġal ready
arn ing
Ġan im
B ut
Ġp age
Ġn etwork
Build er
ĠM y
Ġh app
Ġem ploy
Pro perty
Ġs w
ip le
Ġh alf
ĠD em
ish ing
ag o
c er
E m
Ġl ow
E d
Ġindiv idual
ĠB el
O ff
Ġc ost
ĠCanad a
a ur
ĠJ ames
ĠB r
ĠFran ce
ĠSt reet
Ġm er
M ethod
it ect
m ethod
Ġc oll
> (
ic les
act ory
Ġmed ia
cent er
c hed
Ġb ig
h and
Ġpro duced
Ġreg ion
Ġ Ã
M et
Ġmark et
M od
ĠAr my
P ol
Ġf urther
c ell
d ev
c ore
B ar
opt ion
Ġn ode
ĠS en
ĠGener al
ĠG erm
ĠCl ass
ro te
ĠM or
ĠEurope an
o e
ith ub
che ck
pos ition
e an
6 5
a ign
ev ent
ĠT est
Ġa way
ĠTh om
m ost
ĠR ober
Ġe ast
4 8
v ille
Ġsup er
ĠĠĠĠĠĠĠĠ ĠĠ
N o
inn er
ĠN e
ell ow
eg er
Ġrele ase
Ġbel iev
Ġpart icular
ĠDav id
st yle
Ġl ive
an ish
ĠIn stit
ĠG roup
Ġde cl
d o
Ġwork ed
18 7
t rans
Ġpart icip
y a
ĠP aul
Ġval ues
Ġde but
ud e
st on
St ream
Ġatt empt
Ġrel ations
id s
S ub
Ġc ustom
Ġl anguage
we b
f unc
C H
Ġcl ose
ĠM al
Ġon ce
Ġ quest
) </
ĠS o
A P
arg in
at al
em ents
r up
Ġimp lement
Ã ¶
l abel
ak er
ĠBl ack
g ing
opt ions
ĠD o
ĠA dd
it ing
ĠT ra
Ġass oci
ĠR ich
Ġo thers
Ġar r
ĠP al
Ġh ard
it ar
Ġpop ular
Ġke ep
n ext
Ġf ar
C ell
Ġl ight
E nd
Ġc apt
ĠR oman
Ġp ast
i ers
ĠĠĠĠĠĠĠĠĠĠĠĠĠĠĠĠ ĠĠĠĠĠĠĠĠĠĠĠĠĠĠĠ
st atic
Ġp resident
198 0
199 8
Ġro ad
ver age
Ġhow ever
g ithub
ĠM ark
ist ic
g en
T H
Ġle ast
Ġsim ilar
is k
Ġwebs ite
Ġgroup s
Ġsign ific
ef ore
Ġacc ount
Ġapp oint
Ġab le
id ing
ra z
ĠL aw
Ġpolit ic
Ġsur v
ĠGe orge
ym bol
ce ed
p ly
Ġpro duc
Ġstr ong
e ction
ree k
Ð ½
il es
bo ard
ra b
act ive
Ñ Ĥ
m on
Ġadd ed
Ġe ither
l ight
du ce
ĠAss ociation
se c
p ed
Ġcons id
ĠH ol
w est
Ġ< <
i res
=" ../
v is
ĠS k
ar ies
ĠT rans
m ax
er o
ou thern
en ed
Ġm ilitary
Ġs ays
at ory
Ġme an
ĠIn ter
g color
ĠS et
< !--
ash ington
n s
ĠCent er
c urrent
id a
S C
bs erv
or age
e al
ĠCh ina
q l
Ġcom e
il ities
ĠN ot
c a
av es
Ġpr int
St atus
Ġreport ed
ĠF irst
s up
] )
U til
Ġth ough
D ate
Ġinst all
Ġprov ide
Ġare as
Ġpart y
wo od
ol ic
A A
il i
an ia
Ġl ost
ar ter
Ġbet ter
ur b
Ġph ys
Ġprov ided
n et
Ġand roid
s y
ĠS im
ĠD on
ell ing
l im
Ġcol lection
ugg est
k ed
and er
In put
Ġal ways
an el
r s
I f
un icip
al ian
Ġpl an
n amespace
Ġhtt p
ĠR oyal
k a
Ġsp ace
Ġd ate
Ġm ag
Ġm ot
Ġt re
cl ient
al ys
199 6
ĠM ount
Ġbl ack
S P
ft ware
Ġw rote
at ural
k en
e lement
Ġteam s
Ġj ob
O per
oun ter
n ull
b it
Ġestabl ish
but ton
Ġdis play
Ġm id
] (
Ġs it
S ource
ĠT V
un n
ĠL ou
ĠDiv ision
ac c
0 1
Ġst atus
Ġl o
P re
un ch
Ġposs ible
itte e
Res ource
qu ery
Ġdirect or
ĠD ef
epend ent
Ġmon ths
B lock
Ġm arried
atab ase
Ġb i
ĠS am
ĠM et
Ġjo ined
j o
d ir
eth ing
Im age
ugh ter
ĠM art
iv ity
un t
C C
Ġl ittle
ic ation
ou ch
Ġde g
Ġra il
Ġm ight
ĠH all
un ity
ĠAustral ian
Ġad minist
Ġb gcolor
ri an
Ġdef e
li b
Ġf ire
Ġperform ance
ĠU K
Ġexpect ed
im age
ĠU p
Ġs qu
y les
199 7
ateg ory
Ġeduc ation
re quest
Ġab ove
ach ing
Ġm aterial
g in
Ġf all
co pe
Ġse en
cl us
Ġadd ition
Ġp ot
ĠAr ch
D I
ĠCour t
In stance
Ġprofess ional
Ġp ress
ph p
is l
ef f
r ag
Ġcomp anies
ĠDep artment
ĠUn ion
Ġre pl
o z
ens ive
Ġconsid ered
h as
Ġre ally
ĠM ont
as ing
Ġa ud
Ġsuccess ful
ag ing
arg s
ĠGerm any
ĠR oad
im um
wit ch
Ġbro ad
Ġfe atures
ch ange
Ġre d
Ġst op
Ġg ot
Ġl ik
4 7
Ġm ove
c is
osp ital
ON T
Ġro ck
197 0
Ġv ict
Ġout put
as ons
Ñ Ģ
Ġh on
ĠĠĠĠĠĠĠĠĠĠĠĠĠĠĠĠ Ġ
Ġs ound
r d
fin ished
B ase
4 9
Ġopen ed
ĠD i
ĠP e
sh ire
Ġfr ont
ot a
oc ol
eder al
lect or
med i
am ily
art s
Ġbo olean
h ost
Ġm ap
ch o
x y
Ġse par
ran ch
Ġf uture
P os
Ġv ia
m ember
ask et
an i
ĠComp any
j av
p age
Ġrec ogn
ĠM usic
Ġc al
Ġinit ial
Ġme as
Ġv ot
R un
Ġs af
Ġg round
N S
at ives
ĠW ashington
es h
A pp
ĠM ary
Ġoff ice
Ġdist ribut
Ġl ength
T oken
Ġt en
Ġresp ons
erv ices
m ar
ail ed
à ¤
ul ated
and id
Ġw idth
Ġch urch
ĠS ing
Ġcont ract
i qu
Ġra ce
com ing
add ing
l or
Ġsong s
199 5
Ġac cept
d l
ines e
s pec
om et
Ġright s
( (
and s
pect ed
umn i
as c
m ing
ĠF rom
ĠM ex
Ġshow s
Ġt aken
ĠS ociety
Ġt reat
Ex t
Ġd one
y cl
ĠP at
Ġro w
Ġcomplet ed
ri a
Ġinfl u
ĠS l
Ġ" ""
ĠJ ack
Y PE
Ġsignific ant
est ival
E L
ot ype
eb ug
Ġim age
A ct
ber g
Ġl ove
T O
ĠTh at
Ġcontin ued
Ġme ans
ĠAc adem
O ptions
199 2
00 00
ĠCl ub
ar ray
ian t
res p
ind ows
g r
irt ual
ul a
pl it
Ġs uggest
ĠIs land
18 5
Ġprom ot
Ġsub ject
ĠInstit ute
ĠN ULL
k nown
Ġl iter
Ġc ross
Ġb en
199 4
Ġv iol
Ġt our
Ġex ecut
Ġb ar
Ġind ic
Ġw ife
ĠV ir
Ġn ight
ov ed
ch ild
Ġinclud es
en a
Ġsign ed
ud d
6 7
Th ere
Ġc ast
Ġst ep
R A
Ġc irc
ĠP ress
F I
ust er
u z
iz er
Ġdevelop ed
Ã ¤
air s
Ġin j
E ng
Ġd ouble
ĠG ames
he ader
alys is
ĠM iss
ĠPro v
N ull
P oint
ĠD uring
ĠB est
ĠP ri
ĠV ol
Ġst ar
M S
f e
ĠD el
Ġv oc
Ġhim self
Ġc le
t ain
D is
Ġd er
Ġinst ead
ĠG r
p ite
c el
ial og
5 00
N av
Ġp ur
ĠG reen
E X
Ġf ight
Com ponent
Ġor d
ic ial
L ine
ribut es
ew ork
un finished
o res
O S
Ġass ist
Ġa verage
t ings
ĠB ook
ad a
re ct
ist ics
ĠT ex
Att ribute
Equ al
Ġplay ing
ad ata
ug in
st ream
ec ess
Hand ler
Ġval id
Ġcamp aign
Ġcurrent ly
Ġo ption
ĠNew s
i os
ĠAng el
Ġprot ected
Ġc ur
Ġ- >
ĠY ear
li ament
ch iev
Ġl oad
Cont ent
Ġent ire
it ch
ĠI N
Ġ+ =
ĠD irect
Ġph ot
Ġe as
ĠA lex
in i
b and
Ġwhe ther
I I
ĠT own
on a
un s
Ġf av
ĠD ay
Def ault
Ġcol umn
Ġe le
t x
S pec
he ight
G e
ĠAfric a
Ġb ank
Ġwh ite
z er
V ID
Ġst age
is es
ĠH en
enc ed
p arent
U E
Ġab s
ig in
Ġdet erm
ra ce
b ased
Ġrecord ed
l a
St yle
Ġen vironment
ĠAfric an
lo at
Ġ ens
ec k
Ġm other
Ġm ar
ars er
Ġdif f
Ġth ought
ĠT ur
Ġchang es
bt n
199 3
h ood
id get
Ġg r
Ġact ive
im ately
t arget
Ġsom ething
Ġro om
Ġc ases
app end
B ack
4 2
ĠS al
( {
Ġmod ern
op en
ĠC ong
Ġl iving
ĠC ons
T ask
A ction
ĠCanad ian
Ġt ro
Ġo pt
us es
Ġth ings
ĠM ag
ro s
E E
h i
i ences
Ġschool s
ram ework
ĠG old
ĠR eturn
am s
he st
Ġexper ience
Ġnov el
Ġcent er
Ġres pect
evel op
. )
Ġqu al
Ġg overn
Ġre v
N umber
ĠL eg
O L
Ġfe el
le vel
U s
ĠJ ust
rup t
ĠM ac
[ "
j son
ĠO ut
pro perty
ig ital
ĠM useum
4 6
ĠĠĠĠĠĠĠĠ Ċ
ĠKing dom
Ġb ring
Ġfri end
Ġnew s
asket ball
el ine
erv e
ĠDem ocr
x ml
ĠB ay
Ñ ģ
ĠRober t
Ġcontin ue
H T
Ġthrow s
ĠC ath
V ersion
Ġc lear
Ġl abel
Ġcont ribut
ĠMich ael
Ġpol ice
ĠD is
Ġ ill
st ra
C K
am ples
Ġspec ific
Ġde al
Ġg ive
ap ter
Tr ue
L ink
el t
199 1
ĠM ad
Ġbel ow
Ġindust ry
Ġh ous
Ġmon th
ar ing
B e
ĠĠĠĠĠĠĠĠ ĠĠĠĠĠĠ
Ġit em
row ser
196 0
Ġc opy
i ation
Ġcour se
ĠN one
b a
Ch ar
pl ied
an o
ĠA pp
ĠG rand
ĠThom as
ict or
Ġse ction
St art
ens us
ĠSc ott
ĠO bject
Ġc atch
ĠCent ral
Ġgo al
ĠW eb
ĠT om
O P
Ġn ames
Ġac qu
ĠH istor
H el
Ð¾ Ð
pt r
Y ou
Ġf ig
ed y
p ost
ĠJapan ese
F actory
ĠW ork
ch an
A G
ache s
Ġbo x
M ed
r l
k i
am ic
Ġt ax
ac ity
ĠM er
ber t
str ong
ĠWh ite
B uffer
Ġcl ient
ob ile
in st
Ġcon duct
Ġto day
Ġk ind
Ġ( "
P art
Ġst ream
ĠS ub
Ġp ers
Ġse arch
il er
Ġappe ared
Ġdirect ed
0 5
Ġle ague
Ġs il
Ġbir th
Ġtra ining
Ġc ertain
ĠP ublic
Ġlead ing
Ġg lobal
p ass
Ġreg ular
Ġhe ight
anc ed
ent ry
ra el
Ġd am
Ġcomp ut
Ġloc ation
or ing
ĠS ervice
Ġst aff
nav bar
id ents
Ġf ood
Ġalbum s
in ition
ĠTex as
Ġp erm
AT E
Ġd raw
d a
Ġfound ed
// /
Ġcharact ers
ourn ament
Ġacc ording
Ġn eg
ĠJ ew
ĉ Ċ
Ġres ource
Ġtra vel
Ġbook s
f inal
Ġs ports
Ġarch itect
Ġe lected
Ġc ou
Ġ ...
re y
Ġe ight
ĠR ad
th let
Ġc red
f irst
8 8
ock et
ĠWest ern
s rc
r ish
ran ge
Ġl oss
p ose
* /
l ast
Ġt alk
Re ad
iz ing
ĠMin ister
or a
Ġ{ @
ire ction
= #
I M
| |
ĠE ar
az ine
ir l
Ġg ave
ĠW il
F unction
Ġst ri
ly ing
Ġwrit ing
ĠHe alth
st atus
Ġpro b
enc ies
re land
V ER
r ont
ub e
ĠRuss ian
Ġt er
Ġdesign ed
fl ow
S up
em ic
ĠAcadem y
Ġs ex
ĠRec ords
uf act
ut ions
Ġform at
Ġup on
s g
ĠG od
Ġcount ries
ĠVir gin
al ed
Ġm oney
Ġj ud
ĠChrist ian
Ġda ughter
" ).
Ġl ot
ĠLou is
C heck
Ġrun ning
row s
ĠZ eal
Ġappoint ed
A b
Ġd om
anc ial
Ġcomp on
RE F
Ġeff ort
ĠD an
er ry
ĠCh inese
Ġbeh ind
ĠS ome
Ġconst ruct
ĠCar ol
Ġr ather
duc ation
mer c
r ated
198 8
Ġd ram
ĠT ri
y th
Ġm us
c ase
0 8
Ġp ain
av en
Equ als
F irst
des cription
res h
all s
Ġoper ation
und le
pp ed
Ġperson al
ĠZeal and
om a
Ġpro te
ĉĉĉĉ ĉĉĉĉ
6 8
Ġh om
ĠB en
p art
ĠIt alian
ur a
ĠH am
Ġcons ider
" ),
f ind
writ e
N O
mod ule
y e
Ġt ask
pr ivate
Ġdisc over
Ġim m
u a
ĠS ummer
Ġbo ard
198 9
ri ef
ou l
ĠG reat
ĠK ore
Ġvis it
Ġfootball ers
Ġcons ist
Ġform ed
Ġc ut
} );
W eb
ele te
Ġperform ed
0 9
Ġfollow ed
R ep
Ġpri or
ab s
ĠP re
Ġn or
Ġepis ode
li ke
Comm and
Ġiss ues
ound s
Ġmult iple
ĠĠĠĠĠĠĠĠ ĠĠĠĠĊ
yp es
p ush
a ud
LA SS
ã ģ
o ch
Ġthrough out
Ġrelations hip
Ġcour t
Ġco ach
Ġm ass
Ġm akes
L e
at re
Ġal though
Ġear li
idd en
Ġb it
con s
il ies
Ġassoci ated
st d
cre t
ĠSup er
Ġst ates
Ġen ough
Ġp ark
ĠChar les
ĠM us
Ġm ount
Ġrad io
ĠC he
( &
C reate
Ġam ount
Ġal most
fer red
Ġn av
g ener
od ing
ĠAr g
ian ce
b our
ĠT or
Ġocc ur
Ġinv olved
f ont
cont ainer
Ġsc reen
7 7
Ġhtt ps
Ġfin ished
Ġy et
Ġadd itional
Ġfor ce
Ġpl aces
A m
Ġv ers
ol f
ro ad
ell s
por ary
Ġf a
i as
Ġsystem s
Ġwrit er
Ġout side
Ġin ternal
ĠE v
Ġrel ig
Pro v
C o
ic ult
ue st
ĠR ail
b ottom
Ġdisc uss
Ġs aw
Ġa chiev
C an
" ]
Ġpl atform
Ġconc ern
Ġal umni
arn ed
Ġj ournal
ĠF ore
Ġ( $
b on
ĠF ootball
ry pt
4 3
B A
Ġallow ed
y nt
Ġgu itar
Ġch all
R eturn
M ar
back ground
ob j
Ġcont ains
Ġext ends
u ated
4 1
Ġk m
ĠB ill
Ġo bserv
Ġcon v
r ate
ĠSm ith
ĠOlymp ics
Ġpl ant
g le
Ġpol icy
pec ially
U I
al let
ed s
Ġc andid
Ġon line
Ġs us
ĠF ound
m t
ĠFran cis
Ġconst ruction
Ġinst it
S he
Ġkill ed
Ġs en
Ġun s
F C
irc raft
Ġt aking
z a
Ġse lected
l ong
ĠTe chn
ist an
Ġ ener
Ġlarg est
T P
ĠO pen
so le
Ġv er
Ġse ven
Ch ild
Ġh it
as cript
che ma
ĠS pec
end if
ic ago
Ġits elf
g rad
Ġper cent
Ġs at
ch ar
Ġbuild ings
st ant
Ġelement s
Ġpart s
Ġreg ard
Ġre ve
Ġg e
if act
Ġl ower
ĠS at
ic an
n ov
im g
O ne
ĠL at
cl ose
i i
Ġiss ue
Ġart ists
H ow
ĠWh ile
ĠM od
Ġtyp es
9 5
e es
Ġs em
Ġchang ed
Ġf ace
ĠRes earch
pro ject
ĠJ ose
ult ure
Ġt it
l ayout
Ġup date
met a
he ast
ant a
vent ion
Ġfem ale
im al
l en
Ġh or
' re
ĠR ob
it a
Ġ url
ver y
Ġman agement
ri al
Fil ter
Ġm argin
Ġre ason
ele br
ĠH istory
P age
Ġhigh er
W hen
Ġ( (
Ġstruct ure
Ġex press
Ġstand ard
198 7
Ġc ivil
l anguage
ĠP eter
//////// ////////
Ġw indow
ĠPar is
Ġprim ary
) {
O D
ee k
B l
Ġcomp lete
p o
Ġpre d
m i
ad es
m it
p c
ĠC amp
Ġpass ed
Ġrel ated
Ġread ing
Ġst e
ev e
P er
ĠM el
er ia
Ġto ol
F ONT
ĠL ake
ĠFran k
Ġwrit e
0 7
Ġb r
Ġunder stand
S ON
Ġfail ed
0 4
Ġwho se
e in
198 4
st ract
198 6
$ {
merc ial
Ġh ours
ĠSc ience
form at
Ġp ick
ref ix
ĠAn n
ell a
ĠH ill
ĠO per
ĠS ur
at tr
ir it
al le
Ġpl ann
Ġg old
0 2
ĠL os
Ġoper ations
ĠCath olic
ĠRich ard
Form at
Ġto ld
ĠComm ission
ĠT ime
Ġsh ip
Ġtechn ology
tr ack
Ġconst it
w ise
I V
_ .
Ġcomp lex
p ack
Ġs uff
ĠM ore
Ġte ach
el ves
b b
so ft
UR L
Ġex cept
Ġ ir
u id
g n
Ġst ations
Ġreturn s
ĠI reland
or ial
lo od
ĠFl or
ar ily
ig an
ant ic
ur d
Ġes pecially
vers e
ur t
ach ine
Wh at
ar ian
y r
Ġbro ther
5 8
ar r
0 6
ĠV ictor
L ast
ĠCO VID
ric s
F L
param s
g l
c an
ĠW omen
ill a
Ġaut o
198 5
app ing
Ġus es
ĠR em
ar io
Ġfor ces
Ġent ry
Ġdef ined
ĠGe org
T ER
ĠFil m
Ġterm s
Ġmed al
P RO
Ġso on
tt p
ĠP an
ĠR ock
Ġob j
B ox
P ar
men u
Ġqu ick
ail y
Ġcent ral
u an
Ġus ually
Ġdoes n
se lect
Ġart ist
Ġde b
pe ople
W ork
A M
fil ter
ĠIs rael
6 9
Ġf ocus
N D
yl v
d r
Cont roller
Ġmiss ing
w ell
il s
eth er
Ġst ore
ĠSp anish
B U
Ġt im
Ġap plication
umb ers
0 3
Col lection
Ġes c
ĠM ass
Ġd en
ĠP enn
az z
ol a
s ervice
C ON
195 0
Ġcult ure
Ġcap ital
Ġcom ment
ĠF in
Ġspec ified
ag on
Ġw oman
5 7
u ate
ĠIn c
ut ch
ra v
Ġsc ient
Ġun it
raz il
ĠI D
k y
Ġm unicip
Ġt akes
Ġ< !--
Ġp urch
Ġener gy
Ġv eh
oc key
ĠO F
T op
ĠR ef
ĠC ast
ĠF orm
Ġs ure
Ġs n
ser ver
Ġr ate
p ri
iz es
ĠG overnment
re a
ro om
Ġim prov
hed ul
P C
ĠP ost
led ge
Ġwh y
ĠL u
F e
Out put
ĠL icense
AB LE
Col umn
jav ascript
D et
Ġn one
ĠK h
ĠB ank
Ġsec urity
Ġso ftware
ent al
ĠC r
ol ar
U M
in stance
Ġm om
} )
he t
Ġman ager
Ġun its
iz ations
Ġp aint
p ng
a o
Ġst re
Ġben ef
198 3
id ae
Ġrepl aced
ĠFor ce
5 9
Ġb all
ov iet
A ut
List ener
Ġser ver
ĠĠĠĠĠĠĠĠĠĠĠĠĠĠĠĠ ĠĠĠĠĠĠĠĠĠĠĠĠĠĠĠĠĠĠĠ
rem ove
ã ĥ
Ġn atural
up date
Ġintro duced
Ġart icle
n umber
L ength
en ing
Ã³ n
u ge
ĠI ll
ĠAt l
ĠCh icago
Ġimp act
Val id
ĠVirgin ia
R em
Ġneed ed
Ġcompet ition
Ġoriginal ly
Ġdeg ree
ĠL og
Ġf requ
ĠSt ar
Ġw ord
sy ch
Ġe mer
Ġt ransl
M ode
ĠE nd
ĠM o
ish op
ĠOr der
evelop ment
< ?
Ġc he
ĠAcc ording
ĠAr ts
resp ond
Ġdec ided
Ġse qu
Ġprevious ly
Ġsupport ed
Ġfil es
Ġlist ed
Ġdec ision
Ġinter face
Ġ[ ]
Ġclos ed
Ġmin utes
Ġh ot
ĠO ver
prot otype
res ponse
Ġcol lege
ĠA tt
i en
ol k
loc al
d ep
Ġne igh
ĠH el
ix t
ĠWh at
n el
a ctions
ens ions
Ġdest roy
But ton
Ġn ecess
t ag
ĠComm ittee
198 2
Ġman ufact
Ġle ader
se ction
ĠSe cond
Ġaut om
Ġmod ule
Ġop port
ang er
Ġint eg
: </
ĠC D
rem e
Ġn umer
Ġw alk
Ġquest ion
Ġtrans port
ĠV er
a res
ĠCong ress
et te
Ġst ated
d ated
t ool
Ġre ached
ĠA PI
ord in
ĠA v
w in
Ġbro ught
Ġcom es
ow ers
Ġevent ually
ĠB ig
c y
Ġfeature d
ĠHen ry
Ġprov ides
Ġl ines
Ġdiff icult
Ġcan not
ĠO ther
g reg
Ġlik ely
Ġ ]
Ġsub sequ
; "
S I
Ġsh are
Ġproble m
Ġstud ies
Ġb ad
T V
at o
ĠMex ico
ol ve
Ã ¨
Ġrem ained
**************** ****************
Ġf ont
ĠB ase
Ġaward ed
M en
re ater
p ol
st yles
Ġlong er
Ġrec ent
m as
ĠT ype
L abel
am l
Ġact ually
ĠU s
ĠB uild
ĠPl ay
ĠSc ot
Ġwho le
or por
Ġcond itions
T YPE
ĠAngel es
he et
ĠSw ed
.. ..
Ġfour th
Ġex hib
Ġto wards
out put
ĠFlor ida
Ser ver
wh ere
ig hest
ĠE X
Ġ â
Ġim medi
ot al
Ġsc ored
197 9
Ġa ircraft
Ġneed s
Ġexp and
Ġpolitic ian
Add ress
ef ined
ar p
P ort
ĠD ev
dis play
Ġs ch
Ġfam ilies
ĠAss embly
Ġmov ement
d et
Ġd oc
Ġed itor
ul ate
Ġap plic
ĠD ata
> >
et ic
itt ing
S l
ĠSer ies
7 8
Ġorgan ization
Ġbeg inning
Ġsc ience
Ġpl aced
ĠF estival
Ġdid n
I O
6 3
Ġincre ase
Ġcrit ic
In it
R ow
AT ION
L ayout
unc hed
Tr ack
Ġcon nection
all ery
ab it
Ġpr inc
Ġg rand
ĠM r
ind ing
ĠL ife
Ġfor ward
Ġproduct s
ĠH REF
Ġinter view
Ġv irtual
Off set
C ache
++ )
ĠO f
Ġcall back
' ).
Ġb rand
Ä ģ
Ġ ;
ĠC LASS
Ġcont act
ĠM il
Ġmethod s
ĠL ong
Ġpro gress
U P
Ġst ay
o om
im s
i pe
and a
ĠC ap
az on
Ġbroad cast
r ong
h ouse
M in
Ġrun s
ĠH T
Ġt ournament
ill er
pro cess
Ġdis e
Ġleg al
ann ot
ĠK n
ov ers
ĠI S
6 2
C L
Des cription
ĠIt aly
Ġsh ot
y es
on ly
ĠSec ret
Ġre b
ast ic
ĠD ec
`` `
ian o
ess ages
198 1
NA ME
ill ed
C A
Ġre ference
ĠS qu
cre en
6 1
is ions
ĠRuss ia
ic ated
E arly
ER T
Ġhouse hold
y an
Ġd ro
are er
Ġp ack
Ġsing er
197 2
Cont ainer
Ġf ul
it iz
os h
D ev
Ġc elebr
un it
P op
ĠT imes
ian a
m m
Ġappro x
it ation
ĠK e
ĠS il
ĠF e
Ġmed ical
Ġmat ches
ĠT our
ĉ ĠĠĠ
d f
sh ow
V is
i Ä
Ġsom et
197 6
Ġpract ice
i h
Ġw atch
d s
j oy
ĠL and
um s
erv ed
Ġsp ent
Ġd u
we ight
ug by
and om
ĠD et
Ġweek s
ĠChampionship s
Ġch o
Ġearli er
ĠM em
Ġflo at
ad y
ĠM a
Ġestablish ments
ĠIt s
U rl
Ġl ack
Ġdev ice
ify ing
k m
ĠT wo
ĠD u
b es
Ġro ute
ER R
od ed
ĠSe e
Ġev idence
Up date
k ing
Ġsh own
A g
\ "
197 8
Ġb asketball
ie ce
ĠB rown
ens or
Ġth reat
n es
Ġwe b
for ce
P erson
Not es
ĠT im
Ġc ause
ĠL oc
Ġse cret
p ing
it ude
ig ger
Ġincre ased
Ġstud ent
ms elves
Ġsc ore
com es
H O
Ġ! ==
ĠF ield
ĠJ o
off set
ĠA wards
out e
Ġpro perties
B o
Ġw ords
ĠD en
ĠO h
f oot
ĠM ain
T ypes
ĠBo ard
N ext
ĠP et
CO L
M ax
is ation
ĠO ld
Ġb ound
ĠReg ister
B S
m ore
it ory
Ġs ummer
return s
Ġhe art
ic ens
( _
Ġreg ist
Ġbeh av
old er
Ã §
Ġthe mselves
197 4
w ait
Acc ess
197 5
util s
ex pected
ur i
iss ions
Ġgo als
G L
f ort
ĠEng ine
W idth
ã Ĥ
m ission
en ge
Ġb re
b reak
Ġr isk
i ro
p m
' .
Ġwrit ers
Ġas ked
196 8
#### ####
in ct
sup port
Ġn ormal
n y
ĠCarol ina
ĠE mp
P ost
c i
S ec
k it
Ġf if
ĠC am
Ġf arm
it z
ic ate
Ġpot ential
ĠO l
Ġl en
e ch
P O
Ġfin ancial
ĠPro fess
Ġstart ing
ĠM ur
he nt
D B
ĠK ar
el se
Ġactiv ities
c s
Ġ ess
et ch
ĠS aint
197 7
Ġt ag
Ġplay s
icro soft
Ġin side
a a
: "
ĠSt ep
E nc
ul ations
Ġs ession
n um
v est
Ġsub s
Ġch annel
ĠJ ournal
5 1
Ġw inning
E l
j a
ĠTe am
Ġth ing
Ġw ait
Ġtrad itional
ĠM ost
Ġcon nect
Ent ry
Ġfield s
ic ient
Ġac adem
Ġocc up
S A
ing u
rap per
ĠE ducation
Ġact or
Ġrem ove
ir ing
197 3
ĠS und
ec ution
ous ly
Ġlim ited
ĠDirect or
Ġc op
Ġfinal ly
ĠE r
ĠN avy
Ġact ress
ad ium
a uthor
ĠH aw
3 00
Ġpat ients
9 8
4 00
Ġarg s
Ġind ependent
Ġed ition
Ġro ot
Prov ider
col umn
Ġopen ing
ĠPar liament
ĠMart in
T C
ef t
B undle
T ag
w ide
Ġpre vent
ĠS un
Ġr ule
Cont rol
Q L
t emplate
d at
ang ed
Ġeconom ic
Ġm iddle
ist ance
Eng lish
al i
Ġtr ade
ers ey
Ġun ique
p es
Ġdet ails
d en
tern et
ol id
Config uration
T arget
ĠA ut
J ohn
p y
ĠF ile
Ġqu ery
O p
Ġde ad
Ġend ed
ĠW ood
at i
fl ict
ylv ania
ĠU nder
Ġw ood
ĠT re
Ġu int
Ġmeet ing
Ġmin or
Ġs cript
Ġlevel s
ĠW ales
Ġh um
ven ue
Ġh ighest
g ate
Ġwant ed
ĠR os
w s
Ġex c
ĠL ove
} }
Ġdirect ly
Ġal tern
Ġrecord s
ann er
Ġcom mercial
Ġal t
R I
Ġoff set
197 1
m ain
ollow ing
Ġcom ing
ĠT op
ĠB oy
sh ould
b ool
Ġpro p
] );
In st
Ġcoll abor
ĠR el
ĠL iber
em porary
Ġpart n
ĠB ur
ĠS ocial
Ġde ep
Ġr ules
Ġcon cept
ĠG en
Ġw ide
ĠB razil
R el
Ġext ra
Ġdo ing
T S
F rame
Ġt ree
cript or
im ary
as ion
Ġmov ie
ĠP ac
comm on
Ġm ode
ec ute
9 7
196 9
194 0
C urrent
ong s
ph a
Ġsomet imes
ĠF ort
st rap
Ġla unched
ĠF ri
Ġide a
Ġcon n
ĠT er
Th at
M on
m em
Ġav oid
Loc ation
Ġco ast
Ġprogram s
ĠH ot
h r
Ġd yn
ĠB re
Ġdiv ision
Pro cess
Ġm ention
f it
Ġparent s
ĠFound ation
ĠCh ief
Ġfri ends
ĠB as
m atch
ans as
Y ear
K E
ĠPro ject
5 4
Ġin sp
Ġlook ing
Ġtra in
Ġmodel s
T I
194 5
O pen
Ġag re
Ġn umbers
Ġor igin
' '
ĠProv ince
Ġsol id
ĠSh ow
5 2
amp ion
Util s
Ġ* *
Ġan alysis
ro ot
b oot
Ġse asons
ĠVal ley
Ġqu arter
() ->
Ġwh om
ĠI rish
Ġfil ter
m itted
F O
ĠJ un
Ġqu ality
Ġprob ably
5 6
D irect
Ġproble ms
Ġant i
ĠPro gram
Ġb ur
f a
Ġrem ain
ĠG ar
Inter face
anc y
Ġp en
ĠL ine
ult ural
ĠS oviet
Ġvoc als
ĉĉĉĉ ĉĉĉ
Ð »
IN E
ĠM os
Ġle ave
y ing
Ġsh oot
Ġstud io
ak ers
="../../../../ ../
ĠOff ice
ĠP eople
ĠJ im
Ġr iver
19 30
Ġch ampionship
Ġget ting
j ust
C D
ĠL in
r as
Ġsim ple
Ġs ort
Ġch ief
am m
ĠCol umb
Ġpr ison
w an
s cope
Ġre comm
Ġus ers
Ġl ives
g u
atri ate
ĠR h
art ifact
Ġ{ }
c ache
inn ers
ind s
Ġpos itive
overn or
196 7
T ree
Ġrepresent ed
C ase
ĠComm un
Ġc ard
t ained
Ġse lect
v ed
ir ls
Ġca used
% %
ple te
Ġse em
ĠC re
Ġmus ical
Ġdem on
ĠA rab
Ġmem ory
Ġp aper
ar ia
Ġn ative
erv ation
Ġpat tern
ĠS ir
Å į
Ġspe ed
us band
Ent ity
s ylvania
iction ary
ĠÂ £
Ġch arg
Oper ation
5 3
Loc al
ad ow
A V
u int
Th read
Ġproduc er
ĠP o
Ġb attle
Ġtreat ment
ing er
ĠAr ray
p ers
ĠJose ph
ĠNor thern
He ight
C areer
ĠSp ace
ĠM en
ĠL ee
~ ~
Writ e
Ð º
ĠYou ng
R L
p at
ĠGo ogle
Ġatt ended
Ġm ission
Ġth us
O ther
Ġph il
P o
in ated
Ġres ources
p id
ark s
D uring
Ġd ed
Ġad apt
Ġdes cription
ent y
s ite
ĠHistor ic
ĠReturn s
Ġsur round
ĠJ ud
He ader
Ġre place
Ġsc ope
Ar t
' ),
Ġcom pl
ish er
Ġcon vert
v a
s i
f loat
Ġst ories
or ter
ĠF inal
D ec
il ed
ar row
Ġsur face
Ġs end
Ġ* )
A c
Ġpo et
M y
n am
ĠIn st
Ġse lection
Ġf oot
ing le
Ġit ems
Ġmean ing
Ġsen ior
ind er
Ġme chan
orn ing
Ġk ing
it ors
P S
196 4
Ġinv olv
par se
os oph
Ġis land
Ġen joy
d ocument
Ex pression
ell ig
os ing
P A
Ġparam eter
Rec ord
k o
Ġgrow th
Ġrem ains
ĠM ax
Ġoffic er
Ġag o
Ġhand le
ĠB attle
pon ents
g or
ĠR E
Ġg raph
Pro t
ĠL ibrary
ak a
P at
ĠM att
Ġc am
Ġpl ans
Un it
L oad
Ġpre p
Ġcol lect
im ated
Ġg rant
Ġnot ed
ir a
Ġh ospital
al ing
Ġproject s
Ġdr ug
D o
Ġsay ing
ĠC ross
ĠM at
ĠN S
fil es
Ġexist ing
Ġgener ally
D r
Ġl ock
ad s
Ġex ception
Ġeffect s
wit ter
ard en
ran ts
ĠS ar
Ġrece ive
Ġet c
ĠG ood
CO DE
ĠI ran
requ ire
k in
ĠC reate
Ġparticular ly
ĠEmp ire
Ġover all
Ġactiv ity
Pos ition
S earch
Ġrail way
ĠO p
ĠRev iew
Call back
Ġcommun ities
L I
Ġann ual
ĠSp ain
aw a
Ġlim it
im a
Ġdram a
Ġprot ect
om y
Em pty
or al
Ġ que
ĠO R
in em
m ond
N one
Ġleg isl
or ation
arri age
Ġt ouch
t ml
Ġnew sp
Ġinst r
m ut
R ange
19 20
r or
W indow
L o
Ġold er
UL T
res ource
er em
Ġb uffer
ĠS ince
Ex p
Ġtem per
ict ure
Ġent ered
Ġf ederal
ĠH on
s d
ev en
Ġem pty
Ġs outhern
ost on
f ect
t ask
at ers
Set tings
H ash
Ġcell s
196 5
Ġmajor ity
Ġnor thern
Ġsc ale
af e
ĠB et
epend ency
Ġown ed
air man
ĠG reek
Ġturn ed
=" -
ĠG ame
ĠB ul
Ġapprox imately
t hen
Ġcomm ission
Pro ject
' m
ir med
G o
Ġtrans form
S o
act er
b in
ĠPenn sylvania
Mod ule
atri x
ĠW al
Ġrem oved
ĠW rit
Ġw id
Ġ ign
n amed
u ing
Ġcor rect
Ġfore ign
v ey
St at
Ġr ul
ĠT O
ĠD E
196 6
Ġl ived
s ort
Fil ms
M O
Ġappear ance
8 7
Ġs ym
Ġs s
p op
Ġs ymbol
t ra
M embers
Ġact ual
ĠI d
D on
Ġf ast
ĠP ak
ĠCh ild
Ġ eth
ĠB i
d ec
d est
ial ize
Ġcent re
Ġappro ach
( [
. /
C opy
Ġlarg er
Ġd igital
at ively
Ġdefe ated
] [
ig a
ct x
A PI
eg in
enn is
Z E
f ound
ĠĠĠĠĠĠĠĠĠĠĠĠĠĠĠĠ ĠĠĠĠĠ
Ġar rest
im b
plic it
ĠL ord
Ġter rit
Ġcal c
Ġ Î
Ġn ature
Ġmag azine
t ree
ĠU k
Ġc ensus
rom e
d rop
it an
Ġfor ms
Ġfav or
M M
in et
ĠAl though
b ury
ron ic
t oken
Ġpresent ed
N E
im ation
8 9
ert ific
Ġra ised
Ġbe coming
ĠP rem
k er
Ġobject s
ell ed
ap ers
p atch
ĠM ap
Ġwork ers
c al
Ġall ows
Ġv ote
est ed
Ġrec ently
\ \
Param eter
ir us
Ġh usband
av al
yn ch
ĠAss ert
ĠJ ones
ut y
Ġadminist r
ic ine
av ed
Ġc rick
IG N
sm all
ĠAs ia
Ġc y
ĠF red
ino is
Ġappe ars
ĠC all
ad or
ran g
Ġmult i
artifact Id
ĠN etwork
H ttp
ĠM ah
Ġre li
ĠCent re
Ġv ert
ĠS y
N e
Ġl ibrary
ĠL uc
ick er
Ġdep artment
b uffer
ĠBrit ain
ĠM ot
Ġl ab
er c
> ,
T im
l ers
ms g
Ġun ion
T e
Ġcount y
ay a
Ġse ek
Ġre pe
ĠB ob
ĠY our
b efore
re al
ĠT ele
E v
id ers
L evel
s ign
f s
Param s
Ġ ::
ĠSp ring
Ġset s
Ġno thing
B O
Ġv acc
) (
Ġset ting
J son
ĠM P
Ġn um
as y
ol es
ĠG al
Ġs uc
Ġra ise
ĠC ivil
le ep
Ġvict ory
ĠMich igan
class es
ĠCon ference
" ));
ĠN ow
E O
ĠC amb
ĠII I
Ġindividual s
Ġs u
V AL
Ġjo in
ĠC heck
Ġd irection
A ust
ĠR un
ult y
ĠMed ia
Ġse a
ĠB usiness
Con nection
Ġcompon ent
Ġthe ory
Ġfor ced
Ġnear ly
ent ity
a fter
Ġv oice
Ġar m
ent h
ĠK ey
S cript
ic i
Ġd ark
Ġf oc
a uth
Ġs witch
Ġal leg
ĠD evelopment
ĠS outhern
8 6
y er
h or
hed ule
t im
Ġrec over
Ġwe ight
Ġparam s
Ġv s
w indow
il a
Ġinvest ig
c ard
ĠJohn son
Ġm aster
Ġstruct ures
li e
Ġb us
Ġincre asing
R ev
cont rol
Ġab ility
Ġcor respond
Ġw or
d raw
Ġsc ene
ĠEn ter
Ġover ride
Ġtry ing
ĠRe ad
ter m
ĠM ov
Ġcle an
S im
m at
Ġp adding
Ġs ociety
ĠH ome
Ġb att
ĠF C
Ġse at
ĠE conom
Ġbe aut
ĠCar l
Ġbeliev e
iÄ ĩ
Ġth r
os ph
ĠDemocr atic
ĠRad io
dev ice
ib ly
und red
Ġent er
Ġg reen
Ġparam eters
Ġc hem
et ts
Ġdep end
8 5
Ġhelp ed
" ))
ran sp
hen s
: #
Ġlet ter
1 000
P ass
Ch ange
ĠCol or
G B
d ebug
od ay
Ġan sw
9 6
if est
Q ue
ĠO x
Ġar my
: (
P tr
ĠT HE
D ocument
Ġsh ared
Ġfunction s
Result s
S H
l ines
Ġsing les
im ages
sp ace
{ {
on ic
Ġmost ly
Ġun ivers
196 3
Ġfl ag
Ġsepar ate
ut s
Ġdemon str
p ool
ĠScot land
Ġpo or
AR T
ĠB ow
ĠPac ific
group Id
As ync
burg h
Ġsp read
ĠWilliam s
Ġc orn
Ġin fo
C ar
ĠP ubl
I F
ĠAs ian
Ġm is
c lear
IN T
el a
st one
ĠEar th
O ption
om ic
ist ers
ĠC ro
Ġs ens
ĠEx ception
Ġap i
ĠS and
D ep
Ġrelig ious
Ġm ut
AN D
196 2
Ġd raft
Ġs al
Ġc ounter
angu ages
Ġ ult
S w
P L
ĠH a
Ġm ind
Ġelection s
Ġquick ly
ĠBl ue
g ment
Ġf un
Ġs ources
empt y
Ġown er
Ġc itiz
iz ont
194 4
ĠT ro
Ġle arn
Ġ> =
yth on
con f
="../../../../ ../../
ig en
ĠOh io
ful ly
Ġ ~
C R
Ġrem aining
doc s
Å ¡
ach us
Ġex pression
Ġchall eng
D ir
Ġoff ers
AL L
Ġin come
ig er
ĠC ard
ĠK ent
ond er
Ġphys ical
Ġdise ase
Ġsome one
Ġens ure
D own
ĠJ ersey
if orm
Ġcomput er
' ve
ĠS ol
ĠSpec ial
ĠQue en
Ġnecess ary
ĠIn it
roll ed
Ġn ine
Ġrespons ible
ad el
Hand le
Ġs ense
Ġch art
Ġnumer ous
k ins
Ġcar ry
Ġcomp ared
Ġvari ety
im inal
Ġcont ain
gy pt
tt y
Ġatt ribute
ĠS T
Ġany thing
ĠUS A
Ġ ice
c ar
w ar
b al
ff ic
Ġdes pite
Ġcond ition
S D
ĠS pe
end ar
Ġpro posed
Ġun iversity
Ġstat ement
Ġle aving
r ich
N ational
Ġst ra
op ed
Ġdel iv
Ġf irm
Ġoffic ers
b i
Ġs ave
ri p
h ash
ing ham
g raph
Ä ±
Ġorgan izations
Ġfore st
ĠP op
ĠIll inois
S ession
Ġla unch
Ġpro test
ĠIs l
Ġarg uments
Ġoffer ed
% ;
Ġother wise
Ġt emplate
ĠGeorg ia
m es
c at
Ġd im
H ost
Ġfr ame
em p
g s
ĠTr ue
ab eth
it age
styles heet
ĠM iddle
Ġdem and
Ã ±
Ġserv e
Ġmat ter
ce an
ĠW ild
Ġsim ply
c opy
urb an
() :
Ġg as
c d
ri z
He ad
Ġre ach
Ġmom ent
Ġelect ric
Ġinit i
Ġimmedi ately
Ġx ml
l ad
ens ity
Ġlaw s
ip al
l as
Ġb ass
and emic
ĠFrancis co
se cond
ixt ure
i y
ur ies
Ñ ĥ
ay ers
ĠR am
aw s
atal og
Ġs ister
ip ment
Ġ er
ĠR o
ĠN ame
Ġh ar
cri be
Ġm ur
Ġn ation
P P
ĠD ate
F ont
f ri
Ġlead ers
Ġf le
ex p
K ind
PE CT
Pro perties
ĠJew ish
ic ations
ĠPhil ipp
achus etts
U B
ĠThe ir
Ġsus p
ĠAl b
AC K
Ġcol on
ug ins
M atch
ĠF I
Ġp il
COL OR
Ġsaf ety
Ġre ports
196 1
Ġcall s
ĠCor por
ast e
OR D
pre t
Ġhistor ical
Ġr at
boot strap
Ġman aged
reed om
ĠTr ump
ov a
urs or
ĠHe ad
ĠThe atre
S ign
Ġser ious
P R
Ġhe avy
et ime
Ġinit ially
ph y
nc y
Ġc ities
ĠB oston
Ġbeg in
Ġtest s
ĠEd ward
Ġn et
ig ration
Ġp sych
ĠD utch
Ġc ook
it ness
anc ing
s pect
ĠCo ast
Ġact ors
Ġfam ous
Ġmov ing
7 2
ĠL ab
Ġequ al
Int eger
ran ce
en ant
Ġo il
Ġfootball er
ĠH or
yd ro
b order
ipp ed
Ġclaim ed
writ er
Ġstud ied
fo o
Ġrecord ing
Ġrest rict
Ġgo es
leg al
Ġcou ple
Ġknow ledge
C ons
Ġun known
Ġw ays
og gle
Ġclass es
k ind
ST R
ri b
omin ated
Ġ" \
ob uf
t ab
? :
d el
Ġp oll
ĠSen ate
W ill
ĠH and
ĠPort ug
194 2
ict ed
Ġa uth
Im pl
are t
Ġsh all
Ġb rief
Ġim pro
ĠO k
Ġw ild
Ġstre ng
Ġpart ies
ĠRep resent
Ġevery thing
ĠPol ice
ec ause
w er
st ep
Ġserv ing
C ore
B rit
Ġhigh ly
N ames
Hel per
Ġev al
ä ¸
Ġful ly
Ġatt ention
w atch
wh ite
9 1
Ġm ill
Ġ$ (
ĠE p
ĠV an
Ġro ll
am in
D i
DI R
195 6
Ġsqu ad
if ul
Ġg iving
ĠJ ac
re ference
S L
ĠH ospital
Ġwest ern
Ġpolitic ians
Ġad ult
CT ION
Ġcre ating
S ports
Ġc ouncil
ĠUn ivers
195 8
mod al
Ġad opt
Ġin form
Ġfe at
C al
ĠSecret ary
w a
Ġcom edy
Ġresp ond
Ġg irl
in ternal
Ġse ems
Ġg uest
Ġqu ite
St ore
Ġf elt
on ia
ĠO tt
ol ume
s end
ult i
izont al
d irect
Ġbas is
Ġg reater
7 6
b ass
val ues
ĠB h
Ġmeas ure
il ly
Ġp ull
Ġpr ice
Ġcap acity
Ġcon flict
ĠL im
v m
ĠAl so
Refer ence
Ġs ites
Ġc at
le m
ed d
Ġhas h
195 9
Ġto ken
Ġinflu ence
Ġdist ance
uck y
ĠF ire
d elete
Ġm icro
um ed
ac cess
Ġpro duce
L ong
Ġsh ips
ĠPol and
Ġcont aining
ĠB or
194 8
ans ion
Ser ial
we et
B i
c p
j i
Ġd ou
A F
ĠPr ince
model s
Ġsc he
ab y
Ġb al
ell er
ont o
ĠN ight
ĉ Ġ
Ġconfig uration
en es
ĠW ay
ap se
W orld
ĠJ r
e z
=" _
r b
ĠK ong
Ġarg ument
Acc ording
Ġtrans fer
' ll
Ġre nder
) "
art ers
Ġcandid ate
Ġg un
igh ter
193 9
M em
ern ame
in ent
Ġsl ow
stand ing
8 2
Ġc arried
ĠG ra
ĠTechn ology
un a
g lobal
ĠG overnor
ĠW ater
ĠMass achusetts
Ġsett lement
ĠJ es
il ing
Ġcover ed
ĠSt an
est amp
ap ed
che ster
Ġget s
E M
ick s
ch er
Ġmax imum
Ġreg ional
on ym
================ ================
Ġ q
ĠC reek
ul y
Ġeffort s
Ġfe ed
ic ons
Ġclub s
ĠM ath
ty pes
Ġconc ert
Ġd iss
sc ale
ĠM id
Ġv an
m ake
it o
Ġiss ued
_ ;
Å Ĥ
Ġs ales
ĠS ports
Ġth read
OR T
ĠP oint
Ġcl imate
os ed
ĠSe a
Ġtrack s
Ġcult ural
ĠEast ern
ĠU N
od er
Ġgen us
D F
Ġext ended
rel ated
Ġag reed
195 7
os is
m ir
Ġd atabase
ĠC ON
Ġenc our
ĠM ethod
9 2
Ġ[ '
in y
194 3
ĠJ oe
Ġn amespace
eng er
Ġcan cer
Nav Bar
b ind
jo in
D A
Dev ice
Ġprofess or
ĠW all
ol ute
f rame
ion e
Ġex act
Ġres idents
Ġb lood
T emplate
( :
ĠAnd rew
oc cer
ĠM any
ĠLat in
194 1
Ġret ired
en v
ou ri
E C
m ann
Ġsuc ceed
Ġbl ue
Ġvol ume
Ġdistribut ion
om s
us ion
ĠH uman
Ġbe comes
ĠB G
S O
Ġchar ge
s v
est er
L eft
L a
d i
ĠF ace
194 6
v as
Ġoper ated
Ġm ixed
inter face
Ġ Å
Ġlate st
Ġle arning
ĠScott ish
ĠSund ay
8 4
Ġg ives
cl ick
Ġfl ow
m ath
D em
Ġreve aled
h igh
9 4
to String
ĠF ar
ĠSt and
ĠO ur
Ġfig ure
ĠIn f
ĠL ittle
ERR OR
ĠB ang
hedul ed
p resent
ĠComm unity
y g
ĠBro ad
ĠM u
Ġrefer red
w idget
O K
ors hip
Or der
Ġyou th
c r
. $
let ed
Ġphot ograph
Ġm useum
U se
ĠOx ford
Men u
Ġwe ap
il ation
Ġsh ape
Ġj av
M ark
Ġp ackage
N on
Ġprov iding
ul pt
Ġfor t
is er
D el
ĠM ajor
Ġadminist ration
Ġsett ings
I ter
Ġpre c
Ġp andemic
Ġhand s
195 5
Ġext ension
m ail
Ġdistribut ed
ag ers
ĠColumb ia
ĠJack son
oc ation
Ġan g
Ġexecut ive
ĠV is
am ing
by te
Ġbeliev ed
b ot
R ed
rid ay
Ġw ear
Ġcont ainer
ĠB ern
Ġf ans
ĠEX PECT
b ro
hand le
um es
ĠA ff
Param eters
Ġdr iver
f n
9 3
p an
ant ry
Ġp p
ill ing
ĠK en
S chema
ĠS ervices
i ec
" |
te en
Ġro t
ĠW is
Un ited
ĠE lect
ĠE gypt
Ġfollow s
Ġsit uation
ang es
wh ich
add ress
Ġl i
pr ise
gor ith
ĠP ower
Ġperson nel
In valid
Ġup per
olog ist
ik i
H as
el er
ĠJ ean
u ous
Ġa ctions
med ia
Ġtri al
ay lor
M ay
T itle
Ġsmall er
Arg ument
wh ile
195 2
Ã £
D D
ĠDan iel
Ġpur pose
194 7
sh all
equ al
ang le
Ass ert
const ruct
X X
Ġst ock
ak s
ĠComm on
Ġth ous
Ġacqu ired
Ġe cho
O b
ĠP ass
Ġe arned
Ġcrit ical
iz abeth
S k
equ als
u ilt
ĠJ on
n ap
ĠA L
ĠJust ice
ĠE rr
s ession
ĠG L
ic ed
ank s
Ġc ore
h s
ĠBro ok
Ġf re
Ġm arriage
omet ry
struct ure
comm and
x is
Ġpr iv
ĠĠĠĠĠĠĠĠĠĠĠĠĠĠĠĠ ĠĠĠĠĠĠĠĠĠĠĠĠĠĠĠĠĠĠĠĠĠĠĠ
olog ies
ĠE nt
n on
Ġa wards
Ġpar se
is hes
ĠMan agement
Ġt ell
Ġdep art
V ector
( *
ĠRepublic an
y o
Ġl atter
Ġh ope
Ġb ranch
ib li
Ġw inner
s pe
'] ,
Ġb illion
ĠKore a
ĠAlex ander
ĠF ree
h over
ur day
st ore
ĠRail way
Ġb ottom
ĠPl aces
Ġem ail
ĠL o
F alse
ĠW eek
ĠB ack
re nder
ĉĉ Ċ
ash ion
Back ground
Ġrel ative
Ġcomp ar
ex ample
Ġstr ugg
X ml
ĠJ eff
Ġtr ust
clus ion
Ġp le
und er
yd ney
Ġfil ename
c ient
Ġconst ant
Ġneigh bor
Ġquest ions
Ġf air
Ġsh op
Ġfail ure
Brit ish
pl ugin
W E
v ant
195 4
Ġdr ive
By tes
Pol icy
cl aim
Ġhous es
ĠSt ation
orpor ated
G ET
Ġh undred
Ġh ockey
out heast
ak ed
ĠD own
Ġmur der
ynt ax
Ø §
ĠH ong
V er
Ġdiscover ed
sec ut
T ra
8 3
ĠVictor ia
Ġflo or
ur ance
g est
inn es
Ġapp ly
n ic
od ies
Ġpro file
D raw
ĠBel g
Ġc ache
R ender
a ught
Ġde lete
Def inition
> ();
Ġequ ipment
P arent
Ġp et
Ġpress ure
P ublic
r im
Met adata
ri x
C ast
ĠIs lands
th ur
Ġby te
ĠH ung
Ġp air
AT A
ob s
ĠOr gan
ĠSt e
Ġs port
195 3
Ġevery one
ĠW in
Ġis n
Ġgrow ing
ĠD ar
ĠA k
field s
7 4
Ġofficial s
Ġepis odes
ĠT w
Ġatt end
ĠR ay
ĠBer lin
Re ader
D oc
ellig ence
Ġim ages
R ect
Ġf ish
Ġund efined
Ġap plied
ĠO b
Ġb ridge
Ġoper ating
eder ation
Ġint ended
ĠCol lection
Ġst ars
Ġ( '
Ġp ages
Ġthem e
Ġsup ply
Ġp urs
p anel
P RE
set tings
Arg s
ph ia
C re
8 1
Ġtest ing
ĠU se
ann ing
ĠP res
u y
p a
194 9
Ġp aid
Ġpres ence
Ġr ac
Ġst orage
Ġex am
Ġhe ader
ud get
at ically
Ġf ellow
ĠThe n
D isc
on ed
con nect
Ġmaterial s
Ġfl ight
ud io
Ġcons ists
web kit
ĠL ight
Ġpro per
innes ota
Con st
ĠF ederal
T ool
or ph
ĠF our
ific ations
ro vers
Ġs plit
it ical
P arser
T A
M D
ch or
oun ce
25 5
Ġv en
Ġ} )
ur er
Ġbe y
re place
Ġclaim s
E Q
v ard
Ġm achine
F ound
anc er
Ġcomplet ely
k g
Ġbas ic
Ġo s
ath an
ĠSc iences
Ġcre ation
os a
enn es
c oll
ĠCh ris
ĠR og
Ġopport unity
c f
ĠBG COLOR
est ic
Ġra re
ĠA sh
ul f
Ġarr ived
ent er
dis abled
ĠT am
et a
m aster
Ġcon ference
Ġc ars
R C
f ree
re q
Ġeas y
7 9
ĠC apt
Se lect
Ġconduct ed
p g
ĠPr ime
ex port
foot er
St ack
int s
ĠL i
adel phia
Ġsp irit
7 1
ĠE vent
Ġuns igned
ĠMus lim
t n
Ġcl in
Ġcre w
Ġfin ish
trans form
ĠB oth
Ġtrans action
ĠI O
Ã¡ n
Ġded icated
Ġit er
ra st
Ġst reet
ĠOff icial
ĠH ere
m ode
o ir
sh ot
W est
ĠMed ical
Ġbey ond
Ġeffect ive
d ict
x x
Ġmain ly
is f
st ein
Ġagre ement
ĠM ir
ĠB BC
Ġcompet ed
## #
and ra
put e
ĠS om
g ers
Ġsubsequ ently
re es
D om
Wh ile
Ġm ix
Ġdes c
Ġm iles
Ġshow ed
15 0
d ouble
7 3
d ist
> .
ĠW alk
ĠB ra
ĠC at
Ġw orth
ĠCor ps
AT H
Ġthere fore
o es
Ġconf irmed
195 1
h aps
uc lear
ĠM ike
Ġart icles
% )
Ġbe at
Ap i
agn ost
ĠM odel
Ġcompos ed
el d
ru th
Ġfr ag
Ġc ycl
s en
Ġaccept ed
Ġill ust
Ap plication
Ġalong side
ĠB ad
Ġm orning
Ġpe ace
I con
as ure
Ġacadem ic
ĠInd ust
er g
ĠHar ris
ĠIn formation
Ġbehav ior
Ġan cient
Ġal one
ĠG lobal
ĠPol ish
Aust ral
gr ade
nt ario
ribut ion
ĠE st
Ġby tes
Ġrest aur
Ġe c
vir t
Ġbase ball
Ġoccur red
ol ver
ĠR od
ĠComm and
Ð° Ð
Ġw rong
Ġexper iment
Ġw all
Ġm agn
ĠSup reme
Ġoper ator
ĠV iew
W S
Un iversity
Ġpl ants
F urther
Val ues
ĠV ill
oth ing
ric ts
un te
un ct
set s
ograph ic
Ġbo y
' >
ĠB ell
B ody
ĠC oll
Ġappear ances
Ġfac ilities
ĠĠĠĠĠĠĠĠĠĠĠĠĠĠĠĠ ĠĠĠĠ
ĠT em
Ġp ra
ĠProfess or
pos es
Ġtri ed
Ġident ified
193 6
pl ies
j e
pt on
ĠK enn
ĠChrist mas
G E
Ġv on
ze ch
D ist
Ġvers ions
ph one
Ġcontin ues
Bo olean
rop ol
ĠI l
Ġass ess
ĠOlymp ic
ĠP ers
M usic
Ġs ust
ĠArg ent
ly n
ov es
Ġ icon
Ġin her
ĠReg ion
prot obuf
Ã ¢
ĠV iet
Ġarchitect ure
Ġc ategory
Ġfeat uring
ĠS a
Ġa thlet
ĠW ed
Ġmet al
Ġvari able
ce st
Ġdam age
ĠD C
Ġeast ern
Ġj oint
ĠDes ign
ĠGu ard
ex ports
-- >
ĠAir port
ook s
-- -
; ->
n ames
Ġass igned
act or
am ber
S m
p adding
Ġfif th
V ar
ĠC a
ect s
Ġd og
ĠS u
Ġconn ected
co in
Ġpos itions
Ġser ial
ĠB ol
ĠA N
ack s
ĠB rad
Ġlead ership
Ġde ploy
Ġsex ual
ĠL ew
ĠH y
Ġsp ring
ĠSec urity
` .
v ector
Ġnot e
D ebug
Ġlist ing
r ical
call back
Ġl anguages
ĠWil son
Ġdirect ory
r t
Ġmunicip ality
Ġtro ops
if ies
Ġcon cent
ĠC orn
ie ut
Ġhon or
ĠO s
d ependency
ĠL ater
Ġke pt
Ġp od
ĠS ydney
in ity
clud ed
w ater
i at
Ġ ),
Ġcomb ined
ut t
Ã£ o
bour ne
De cl
Ġdes cent
M ain
Ġp iece
TE ST
ĠCorpor ation
Met a
os en
ĠC ode
Writ er
ĠS ant
-------------------------------- --------------------------------
com ponent
& #
ĠF amily
19 18
ĠR aj
ost er
r ub
Ġin line
ĠB a
Ġassert Equals
ĠP en
Ġcitiz ens
block List
ĠJ SON
Ġsil ver
Ġbut ton
an th
Ġsaf e
S ome
. '
Ġrespect ively
Cl ick
g a
sk y
Ġle aves
Ġnear by
Ġimpro ve
rom ise
ru it
Ġre form
p et
Ġatt ract
c ustom
Ġpol ic
ĠPri ze
Ã ¸
Ġp al
Ġd ance
ĠR om
U RE
Ġd aily
Ġn om
con n
ether lands
193 8
Ġprov ince
R oot
ris is
Se cond
) ]
Ġnewsp aper
ĠR et
ate gy
! !
ĠKore an
Ġl abor
H P
Ġassist ant
ĠD isc
OR M
Ġd at
Ġs umm
M e
Ġplann ed
ĠS us
Ġas pect
ĠEl izabeth
Run time
R ule
Ġhe ard
Ġcall ing
ow a
ĠStud ies
r ine
inst all
f ramework
SE T
Ġpart ner
Ġnot es
il ton
Ġsl ight
ĠSt at
urre ncy
ra wn
ĠA uthor
Ġbu y
l ife
v in
ĠTor onto
Ġreview s
F inal
epend ence
Ġmot or
ell o
Ġr andom
Ġ util
in ate
Ġsurv ey
ann els
Ġapplic ations
ĠTh ree
; <
ĠEx t
Class es
am i
ĠM aster
r at
ap h
R et
or i
z en
D C
hem at
Ġmention ed
aw n
lo ok
ertific ate
R ad
Ġb ill
Ġimplement ation
ren ce
C ustom
ĠB on
Ġord ered
che stra
Ġre ject
Ġpromot ed
Ġad vert
Ass ociation
Ġp ool
bo olean
Ġh y
ra ine
f ocus
cons in
ĠM ond
ign ment
ĠPak istan
En abled
ear s
hold er
ĠC opy
ĠA li
ak h
ĠMin istry
ĠAr m
Ġch ain
C I
id i
s ql
clus ive
ĠB al
ĠT y
ĠA venue
Ġprim arily
Ġa im
Ġbel ong
By te
ron ze
D S
Ġmin ister
arg ument
er ies
E CT
Med ia
sc ape
ĠI P
Ġtrad ition
ul s
S ION
Ġ' /
Ġcor por
n ote
Ġinstall ed
Person al
Ġgener ated
ĠL y
E ach
Ġcont est
Ġsqu are
Ġper fect
Ġstra ight
m iss
ynch ron
C S
Ġ ut
D elete
St ep
Ġt al
ou red
ĠT ok
ĠL O
Ġro les
Ġon es
erv ative
Ġr ural
f amily
Ġtrans ferred
193 7
ĠB and
ĠN OT
=" /
D L
On ly
IT Y
S outh
c ert
rec ord
ke e
Ġg rew
Ġw inners
Ġsecond s
iec es
ĠE ach
ĠP age
ĠAd minist
ĠO ntario
st ack
I R
ĠK im
in son
Ġliter ature
Ġag ent
FA ULT
ĠM ic
ĠM ember
ĠĠĠĠĠĠ Ċ
Ġass ociation
Field s
ĠV alue
ang o
b ound
Ġcr ime
ĠM innesota
Ġcomm it
In ternational
R ight
w eg
ic er
Ġeconom y
ce ived
C P
param eter
ĠN O
ict ures
Ġ era
ĠT ext
Ġgener ation
t oggle
ĠHT ML
ed it
ĠQue ens
st op
Ġfe et
Ġed ge
Ġconstruct ed
i able
Ġ čĊ
Ġemploy ees
B efore
Ġmount ain
ra q
pro duct
Ġsold iers
i ate
app ed
} "
ĠF riday
iqu es
ĠS ym
j ar
c m
Ġpre mi
Ġex change
Ġb ul
ag a
Ġtyp ically
ĠOn ly
H igh
ick et
Ġl iber
Ġveh icle
Ġen em
Ġin h
ĠR en
Ġh op
ann a
Ġpolit ics
r ig
Ġs pect
Ġre duced
a ver
Ġexp atriate
key s
ĠS ong
ant e
ĠM arg
Ġs uit
Des criptor
Ġident ity
or gan
per or
ple x
ieut enant
ins ert
Ġch oice
ĠR ome
he w
Ġt ells
he im
Ġm sg
Ġinstit utions
Ġaud ience
ĠU ser
Ġview s
ar ation
ort heast
H is
Ġprote ction
ateg ories
ab ilities
Ġresult ing
St orage
Ġf ell
Ġl if
ly ph
ĠC ub
Ġme ant
ad min
eg o
k es
ĠS anta
AC E
Ġel im
ĠW indows
se x
b as
D ialog
ĠF air
Ġ rom
ĠH ind
b uf
ip eline
Ġdecl ared
ĠN ic
ap plication
Ġb omb
Ġreg ister
ĠRev olution
ĠAnt on
Ñ ı
Ġh arm
Ġappro pri
Ġ il
à ¸
Ġd ig
Ġtra ffic
Ġgrad uated
L S
Ġsol ution
f r
are n
ĠD O
Ġhous ing
port ed
Ġre duce
Ġpre m
ĠU RL
Ġest imated
ĠC irc
o or
ĠV en
Ġsol o
ĠT aylor
ag ram
Gener al
Ġsc ulpt
ĠL ive
l an
ĠN ations
ĠAn th
N ov
Ġear th
ĠSat urday
ĠD er
c over
s im
Ġdiffer ence
p lement
ĠA z
Ġinj ury
rop ical
ef ul
Ġ+ +
s uccess
ĠPl an
res ents
f ly
Ġfact ory
ĠCamb ridge
Ġread y
B est
V ideo
Ġanim als
al id
y ard
o oth
Ġd rop
our ney
enn a
ĠBe ach
Ġch ampion
ĠPrem ier
g rid
Ġsequ ence
Ġp ush
W A
ro t
ĠG h
Ġhistor ic
ĠN Y
s el
Ġro ut
aut o
1 20
ĠF re
Ġj son
Ġoffic ially
go ing
V ari
193 5
Ġa st
Ġch ance
oc ated
ĠE s
Ã© e
ĠF ox
ĠFace book
Ġ< =
or ney
Ġran k
ĠFore st
Ġref lect
Ġin nov
it led
reg on
M ock
Ġqu ant
Ġteach er
ĠPhil adelphia
ado op
ĠE ll
Ġrem ember
Ġst rict
Ġre asons
em an
ot ed
Ġtit les
ĠĠĠĠĠĠĠĠĠĠĠĠĠĠĠĠ ĠĠ
sp ring
N et
pos ite
19 19
g ency
Ġp erman
Ġco ordin
ĠU t
Ġag ric
Ġadministr ative
ĠA re
w orth
ĠN C
el ly
Ġp itch
Ġem b
Ġcons ult
Ġtrans ition
qu arters
Ġallow ing
ĠA M
ad ian
Ġdown load
riz ona
virt ual
f ull
__ (
ĠE th
G raph
se ason
Ġs y
ĠB C
ĠMc C
Ġp an
Ġl ies
Ġbeg ins
ĠW ars
all ow
ĠL em
Ġneg ative
ch a
b ing
ĠW ell
Ġac comp
Ġup dated
Ã º
Ġr aces
A ME
Ġdestroy ed
An y
op her
Ġcon sole
u v
item s
p erson
per ial
ĠA rea
Ġrequ ires
B R
Ġle tt
Ġa head
er ver
AG E
pl ugins
{ }
ĠA thlet
ĠL es
ap ore
ĠS ab
ĠSt adium
Ġpower ful
uns igned
Ġc ref
19 14
ord ers
âĢĿ .
ĠA R
se y
ak i
Ġvis ual
ĠM icrosoft
Ġse ctor
ik a
Ġon to
Ġerr ors
ĠN etherlands
em ail
ne ctions
d ates
Ġph one
Ġdel ay
ĠSt eve
Ġvot es
ĠV ersion
ex ception
Sh ow
Ġmusic ians
c ur
Ġstart s
osoph y
ĠBr ig
HE CK
ĠWis consin
Ġest ate
ĠRe al
Ġl y
Ġnew ly
Re qu
c hen
att ribute
ĠW at
od d
ĠL ady
J o
Ġele v
Ġengine ering
l ay
ask a
ĠTr ust
Ġtyp ename
ut ional
Ġany one
ĠH ay
Ġexpand ed
Ġtw ice
SS ERT
Ġres ident
' ))
H ome
M ember
m ock
Ar ch
P T
St ruct
Ġc arri
Ġstr ateg
Ġcost s
up le
Ġtool s
ev in
oper ation
ĠR oute
b ad
ĠReg iment
ĠS on
Pl ay
Ġ" /
ĠW inter
Ġco al
ĠG ro
Ġob tained
b ra
Ġ" "
Ġw ing
Ġindust rial
Ġhost ed
Ġbusiness es
W indows
al o
Ġ( *
Ġcont rovers
Ġt ransp
Pat tern
Ġreg ions
Ġregist ered
a ug
ĠErr or
Ġattack s
ĠE lement
M ore
Ġdr ink
Ġ` `
G u
Ġdescri be
Ġplann ing
Test s
ĠM A
âĢ ĺ
a is
clud e
Ġex ists
b ec
N um
S end
Ġdo or
Ġinstr ument
ac le
al ion
N etwork
ĠB att
ĠEngine ering
Time out
reate st
y al
Ġveh icles
Ġdiv ided
Ġdeterm ine
Â °
em et
r um
Ġh our
ĠC y
T ab
ĠD am
Ġcr iminal
i Ã³n
if er
int on
Ġprogram ming
Ġdist inct
Ġra pid
ĠH un
` ,
193 3
="../../ ../
ĠTur k
ly wood
if ically
ang a
ĠA h
Ġsp ot
Ġsuccessful ly
Ext ension
j ection
ole c
6 00
19 00
Ġsecond ary
ĠCount ry
Ġl icense
193 4
cre te
ast ers
Ev ents
S ince
Ġop in
ph as
19 17
Ġm ask
' d
om er
I A
s ystem
add r
16 0
Ch annel
Ġparticip ated
eg a
Ġcompon ents
er al
19 29
Ġconstit u
uck et
ri ev
Ġcustom ers
ĠDu ke
ĠLoc al
Ġfoc used
ri e
ĠGold en
Ġc erem
Id ent
Ġdefe at
Con n
Ġ urban
Ġadv anced
ĠBook s
ĠRe port
Ġe yes
ĠA ND
Ġde leg
Ġkey s
Ġgrant ed
cl oud
Ġdef end
ĠAm azon
Ġcomm ittee
Ġy ards
Ġpro pos
Ġm ock
ĠSwed ish
Ġdev ices
ent ially
Ġmark ed
Ġsh ift
Ġauthor ities
ĠAmeric ans
ot ion
ĠAb out
Ch anged
Ġact ing
ro ke
Ġadv ant
weg ian
th read
19 28
rag ment
Ġadv ance
") ]
Ġpro ceed
sk ip
Ġs yn
ĠB ridge
Ġaff ili
ĠMount ain
Ġloc ations
Ġf resh
ot es
Ġp iano
Ġhold s
} /
ĠD oug
Ġa ware
ĠMed al
Ġfig ures
Ġstr ategy
Ġprom inent
ĠK ir
ner gy
Ġlarg ely
A v
Ġm obile
Ġcapt ured
V D
ennes see
19 10
ap y
c or
Ġim ag
ĠEx ecut
Ġse ats
Ġf ine
Ġen abled
ur ches
Ġsp ons
ĠCh annel
f ony
Ġregard ing
el ess
Ġs ample
c ut
Ġw ind
Ġrecogn ized
ĠT ai
ra ction
Ġsem i
c ategory
sh ort
ipp ing
L P
Ġcommon ly
pass word
ibli ography
el le
L ock
Ġh abit
Ġreturn ing
Ġfound er
ĠStep hen
Ġacc ident
pro p
Ġmunicip al
un es
a us
emet ery
P ool
ĠE ven
ĠM ill
-> _
and y
Ġext rem
Ġcont emporary
EN D
ast y
ĠL ast
ĠR on
ĠDav is
Ġscient ific
N G
ĠS em
l n
ap es
ĠH an
Ġsuggest ed
s plit
Que ue
cont in
Ġwid ely
r ase
19 32
ot ic
reg ion
annot ation
Ġre named
ĠB udd
ĠW he
T ele
[ :
S cope
KE Y
Ġc art
Ġdeterm ined
ra structure
J SON
Ġh ers
Ġfund ing
Ġd b
ĠL abor
Ġeas ily
S ervices
w rap
Ġde cre
Ġg ra
ĠB all
est abl
Ġz ero
ĠC EO
des c
ĠG ree
Ġserv es
ic ian
25 0
Ġex ternal
Ġf ixed
FI LE
Ġfac ility
ip er
Ġst one
h adoop
is a
ĠL ike
ĠW el
z o
os l
Ġenvironment al
Ġpro ced
ribut ed
Act ive
G erman
Ġan aly
Ġcons um
ĠDef ault
ĠCon f
Ġr ugby
F rench
Ġpurch ased
m ad
ĠH ard
Ġrece iving
Ð ´
ĠN ote
od s
un ities
Ġin n
Ġph ase
ĠSwed en
reg ister
Ġb urn
ĠSh ort
anc el
ĠP y
ĠF alse
Ġinter pret
tain ment
stit ution
Ġcan cell
ĠColor ado
20 23
Ġl osing
R est
ele gate
ĠF und
HT ML
Ġh yp
Ġorgan ized
le an
ric es
Ġh tml
ĠPol icy
H L
ĠI raq
O lymp
alle l
Ġrec ip
Ġcorn er
8 00
Ġc ab
ĠIn ternet
ist ent
sc roll
ĠPh ys
Ġnot able
W omen
M I
ire ment
ĠPe ak
c ow
F T
co q
. __
ĠK ansas
Ġaltern ative
19 22
Ġb ow
Ġre ality
Ġsw im
ĠâĢ ¢
Ġide as
ĠG reg
Ġun less
ĠC ur
ĠT al
ĠCast le
Ġc e
ĠA ction
ĠSt ock
Ġa f
Ġdef ense
Ġvis ible
Ġdom ain
Ob j
Acc ount
ĠF ollowing
Ġadopt ed
ĠĠĠĠĠĠĠĠĠĠĠĠĠĠĠĠ ĠĠĠĠĠĠĠĠĠ
ĠO regon
Ġrepresent ing
v an
b egin
ef e
u ct
N ow
Ġc row
ĠDes pite
P ackage
Ġv e
ĠM oh
Ġdoc uments
in line
Fe ature
Ġviol ence
Ġhousehold s
k h
Ġsk ills
Ġar ts
fri end
ist ant
drop down
193 1
pl om
Ġtechn ical
ĠG allery
p son
J an
Se lected
Ġpre tty
m aterial
Ġtemper ature
Ġinv oke
Ġend s
19 24
Ġdocument ary
", "
19 27
Ġst ack
J ob
d im
s creen
Ġinsp ired
f aces
Ġab and
Ġsign al
St r
ĠL et
ian ts
ĠCon nect
Ġexper i
Ġrequire ments
Ä į
f ire
n ormal
ain ts
U C
Ed itor
n ight
ide os
ĠInd ones
Ġent ity
ĠE very
pro file
Ġth er
ival ent
ap pe
Ġinstance of
ack et
ater n
ĠC as
Ġv ess
press ed
ĠMiss ouri
B it
@ "
ĠMark et
b re
Ġhand ler
Ġfac ulty
Ġf iction
F ran
Ġpar ish
25 6
ed ia
id el
Ġdef inition
Ġbeaut iful
Ġauthor ity
ach ment
Ġlook s
c md
Ġterrit ory
Ġtown s
Ġsuff ered
J ECT
out s
ĠA st
Bi ography
in er
gorith m
Ġs urn
ĠLeg isl
ain e
. *
Ġm and
Ġte aching
_ (
ĠAn other
Ġstat istics
ï ¼
g ar
A uth
Ġto ward
Ġins ert
Ġ% }
Ġinvest igation
Ġd ream
Ġperform ances
Ġpre par
ĠN umber
st at
Ġcompos er
Ġv ent
Ġacc ur
Ġbuild er
ock er
ĠT urn
ĠB at
Ġd ie
Ġr ise
ĠMar ia
Ġm essages
ar ry
Trans form
im ents
Ġchall enge
ĠL td
% ,
Ġra in
ĠTown ship
W idget
fer ences
as er
ĠSer b
ĠH o
Ġcamp us
j an
us hed
Ġinvest ment
Ġjav ax
ĠR ights
ĠWh o
Ġs an
ĠN az
h at
ĠT ask
ĠEn vironment
ĠAd v
G S
com ment
Ġtit led
que ue
Ġfund s
Ġstand ards
ĠLew is
im pl
ĠAtl antic
f all
w all
ĠB ishop
Ġappro ved
Ġsurround ing
Ġp lease
Ġf uel
ass ets
Dis play
Ġw allet
Ð ²
ã Ģ
Ġresult ed
ĠM ilitary
19 12
Ġh uge
m argin
Ġyoung er
ok es
Ġg ained
um a
Ġpartn ership
Ġwas n
Ġdo ctor
Sec urity
Ġfight ing
Ġcred it
oc ate
Ġnov els
ĠIn s
uz z
Ġdevelop ing
Ġshow ing
ĠD om
ĠA rizona
ĠJ oh
ern el
ĠP aram
19 21
M ENT
] ]
icens ed
id en
T ax
Ġrem ote
Ġl ayer
Ġw ants
pro to
ĠM un
Ġatt ributes
ĠSt art
The y
Fil es
Ed it
ĠZ h
19 25
it ter
ĠG i
ĠC zech
ĠApp le
en um
rest ling
Ġp anel
ĠG er
ĠI L
Ġn orm
ĠMar c
ropol itan
ĠIndian a
Ġarrest ed
Ġrep resents
Ġw ins
Ġpri est
Ġs ides
igh th
; /
19 26
hent ication
Ġsupport ing
b ul
Ġg irls
Ġr ates
eng ers
D av
ĠB ru
Ġtre es
f ill
h o
Ġengine er
ig rants
U ID
H S
Ġpar liament
D atabase
ess ions
se ct
Ġhers elf
ĠG il
12 3
Ġin vent
ĠR est
ĠS ign
Ġoption al
ĠPhilipp ines
s ave
Ġus eful
Ġd anger
m o
=" @
ĠTur key
= {
19 23
Ġkn ew
or iginal
Ġsc oring
p ur
le ts
Ġhapp ened
Ġf ashion
Ġunderstand ing
Ġd ir
Ġch osen
ĠT ennessee
Ġmeas ures
Ġspe ech
Trans port
S ym
Trans action
ĠH al
assert Equals
Ġnot ice
ĠGu ide
Ġfact ors
l ow
Ġlo an
Ġport ion
ĠCon fig
Ġz one
ĠJ ava
ix el
ĠCapt ain
ĠAr thur
D T
Ġy ield
om ot
ĠSing apore
ĠF unction
ian g
form ance
ord an
l ah
n ce
Ġh idden
Ġjud ge
Ġdec or
S ources
C ond
ect ive
" `
n one
Ġblock s
Ġcom ments
Ġs ell
ĠP u
A wards
P erm
Ġprot ocol
Ġapp arent
Ġobserv ed
ĠH ou
hel p
ĠR oss
Log ger
Ġsc heduled
S QL
con nection
Ġen able
M B
AR Y
ĠV i
ĉĉĉ Ċ
Fl ags
ĠP ath
ĠN et
Ġhold ing
Ġw inter
Ġsch olar
Ġst orm
ĠMem orial
Direct ory
//////////////// ////////////////
ĠS av
b oy
Ġfact or
rad ius
Ġt aught
Ġmin imum
ann ed
_ ,
w ing
Ġdet ail
h ome
Ġhe ar
Ġcam era
RO M
ĠSqu ad
O wn
Ġpl ot
ol is
Ġmat rix
Ġgener ate
Ġaud io
C rit
ĠR a
Olymp ic
ĠMond ay
l iving
Ġs ale
sh ape
v o
assert Equal
L eg
Ġansw er
Ġmedal ists
west ern
Ġb udget
Ġjournal ist
Ġh air
Ġform ation
t ip
pos itory
Ġhe av
ĠSup port
ĠSt ory
ĠRec ord
Ġpublic ation
be an
Ġgl ass
iv als
p ay
Ġfem ales
Ġl ib
Ġwe ather
ĠL ink
Ġun able
Ġj ump
Ġrepresent ation
ĠChild ren
ĠOr iginal
ĠT H
Ġcop ies
Ġdel iver
I E
Ġap pre
Ġadd ing
ĠCol on
Ġat tr
b ell
og y
at ar
G rid
rec ated
e en
ĠSt aff
Ġdro pped
Ġse vent
V ert
ĠC ov
Ġele m
st ats
i pl
TE D
ĠTrans port
VER SION
Ġt ab
MA X
ĠIn vest
c pp
ĠHigh way
ĠP it
=" "
Ġres c
Ġar ms
Ġbl og
ĠN a
ry st
is ms
Se lector
Ġdist ricts
ĠLe on
ĠL ev
h ard
Ã¼ r
Ġgovern or
By Id
ĠEnter tainment
Ġvis ited
Ġgu ard
type of
Pro file
ĠB ecause
Ġtw enty
Ġpain ting
c ap
ĠA S
ĠAd am
Ġrel atively
F ull
du ctions
ĠInd ex
ens is
col n
g it
Ġ[ ];
Ġf estival
Ġaff ected
T wo
the me
point s
Ġpass ing
It ems
Ġ[ [
Ġesc ape
pect ive
ĠAn y
Ġhot el
Ġcandid ates
ill ery
Ġinc ident
ĠS O
atter y
)) );
Ã© s
th at
ĠT witter
EX T
Ġm yst
up s
Ġd oll
Ġdef ine
urs day
_ ->
19 16
() ));
F loat
er d
Ġb rain
ĠK han
Ġb rowser
Ġ ri
M sg
ĠP M
uss ian
Ġslight ly
se lected
==== ==
ov ing
we alth
ĠM iller
Ġen h
Ġn odes
( !
ĠK al
ĠF ord
st ar
Ġp ieces
ĠJew s
A nt
B I
Ġf an
LO G
Ġbig gest
h ere
)) )
Comm on
Ġr ich
In ternal
Ñ Į
ĠMex ican
Ġexper t
"> &
Ġprocess ing
19 15
ot i
ĠE P
g ame
Ġpolic ies
ĠL ow
Ġdec ades
Ġclass ical
al so
ÃŃ a
h ol
j query
ĠFore ign
Ġag ency
Ġc as
ĠP ier
ĠN ick
J apan
Mem ory
Ġcl ick
c are
ĠC ost
ĠE nc
ĠF ederation
Ġb ought
ĠMel bourne
Ġend ing
Ġcol lected
Ġalleg ed
F S
nes day
ĠCont rol
ag h
wit zer
Ġexp ansion
? "
ĠMary land
Ġmon itor
Ġf unc
l aw
ĠL iter
pro perties
n umer
Ġass embly
Ġh all
Ġsh ut
Ġmed ian
het ic
or row
ĠUp date
Ġocc urs
Ġr acing
ang ular
Ġconvert ed
Ġcho ose
eng ine
In s
X T
bs erver
au x
ĠN orm
Ġs and
ĠMal ays
Ġm ist
Ġsup ports
Ġa wait
ag an
B E
ĠSur vey
Act ivity
Ġattempt s
ĠHar ry
Ġhapp en
Ġinterest ed
Des c
ĠI V
Î ±
ul ator
Ch rist
end or
Not Null
T ube
Ġch airman
ues day
import ant
anc ell
ch annel
ĠB O
ĠD aily
Ġob tain
s es
Ġtri p
Ġb ed
Ġc risis
L ife
Ġad vent
G en
Iter ator
Ġanim al
ĠJun ior
S ymbol
ent ed
ĠC hen
Ġad j
Ġcont rast
Prot ocol
L IC
Can adian
ĠAff airs
witzer land
ĠUk raine
ĠB rand
Ġv ector
Ġran ked
Ġn ob
r ations
ant asy
Ġop position
Ġinv alid
ĠMod ern
ĠNor way
Ġb tn
enc ing
ĠBar on
() {
Ġd ensity
Ġw el
ĠH art
Ġocc asion
as et
Ġs un
A uthor
R AN
igen ous
pr imary
ĠM unicip
19 13
Element s
ĠMos cow
ĠI owa
Ġsat isf
im it
Ġint ers
* )
ĠF ront
Ġn arrow
key word
ĠB u
AD D
ĠSl ov
Ġex amples
ues e
Cl ose
cl es
ad ing
} .
ĠM ake
ĠO ption
Att ributes
ĠH as
Ġhor se
man ager
s chema
ook ie
enn y
ON E
Ġachiev ed
ĠT oday
c am
by tes
Ġappropri ate
Ġis ol
% .
Ġn g
ro le
at in
ç ļ
and o
ĠMag azine
F unc
Ġe ye
ĠS af
Ġc ool
an es
h ar
ĠC ab
am pl
ĠRepresent atives
ord on
th rows
Ġas k
ab ama
ĠE qu
al ar
Ġfind s
ĠD or
Fil m
n i
in her
Ġcomb ination
ag ues
à ¥
Ġse gment
L C
S pace
Ġsubsequ ent
) ">
over y
Ġca uses
ivers ary
Ġr ing
h idden
ĠN FL
mod ules
ĠAnd erson
A ng
Ġjob s
w ick
Ġl ayout
Ġdom estic
inal s
Sports people
Ġthe atre
SI ZE
Ġinterest ing
Ġan al
ĠS ound
P AR
z one
ag u
b les
T ABLE
Ġk ick
ist a
E uro
ĠĠĠĠĠĠĠĠĠĠĠĠĠĠĠĠ ĠĠĠĠĠĠĠĠ
plic ations
Ġse ed
} </
ab els
Ġy ellow
Ġret ail
Ġm o
Pop ulated
ĠPhil ip
Ġneighbor hood
sec urity
fl ags
ential s
Pro xy
ĠR ose
Ġcomm itted
Ñ ĭ
Ġcon vers
Ġd ivers
se ud
Ġt end
lection s
Ġ ×
put er
ĠMed icine
ĠN on
ĠMan chester
off s
tx t
inc ial
ev ents
Will iam
ic ians
Ġm ac
ĠC are
mer ce
Ġcont ained
v i
Ġd ress
B as
ĠR ow
âĢĿ ,
Ġprinc ipal
arn ings
Ġb ronze
Ġw arm
pp ing
çļ Ħ
Ġhom es
ag en
Ġr h
Ġp icture
Ġex cell
pos s
Ġrecomm end
Ġvill ages
Ġper haps
Ġh ydro
inem a
S ingle
Ġrequest s
Ġvoc al
ĠT ony
ĠViet nam
Ġf ill
ro it
19 11
() ).
F amily
=" ">
N orth
Ġexpress ed
child ren
m ic
Ġv ac
Ġpur poses
Ġcon sequ
Po inter
Ġre ar
ĠAr k
ĠCon st
Ġst ress
B ibliography
Ġn ominated
ĠE nergy
ow ered
Ġlook ed
ile y
Ġpl us
Aut o
$ (
sk i
St op
Ġfrequ ently
ĠFred er
V olume
Ġbur ied
Ġprofess ion
ĠN ative
lah oma
D P
ĠExecut ive
ĠA ge
Ġlett ers
Pr int
amb ig
ĠI mp
ĠBuild ing
Ġmod ified
in us
ĠD ream
Ġprote in
f red
ĠE ric
z h
qu es
Ġp m
ĠJan e
ig g
G O
Ġc overs
ĠB lock
ĠD a
os itory
Ġcl uster
Ġperform ing
Ġl ap
duc ing
] :
P ATH
ĠC A
Ġstreng th
Ġcommun ication
ST AT
M o
Ġn uclear
ĠJ er
Ġg ar
Ġsom ew
ĠN ode
g han
m ove
w ords
T erm
ĠSt one
ĠD yn
Pro duct
De ath
ĠBase ball
Ġord ers
Ġco aches
in cess
Ġlead s
o en
Ġd omin
! "
ĠB alt
1 10
ĠV AL
ĠGree ce
Ġdr iving
Ġro ugh
ra it
Ġder ived
m ont
he ll
Sh ort
t mp
ĠO cean
ĠB rian
ol as
Ad apter
ĠKent ucky
Ġg ain
Ġabs olute
ous es
Ġ{ };
ĠR oy
Ġman agers
iam i
tool s
Se qu
ch ant
ĠĠĠĠĠĠĠĠĠĠĠĠĠĠĠĠĠĠĠĠĠĠĠĠĠĠĠĠĠĠĠĠ ĠĠĠĠĠĠĠĠĠĠĠ
Cl uster
ici ency
Ġhe at
ĠM as
Ġm el
ĠB urn
Ð ¼
C ap
Ġcl oud
l g
ip h
ir ation
olog ists
ut f
os es
Ġm ent
Ġimport ance
re ll
ĠPr inc
Ġqual ified
Ġact s
Ġbenef its
Ġ( ;
BU G
Ġlist en
Ġpre v
Ġhigh light
To String
ĠâĢ ¦
Ġe g
ĠB eng
ym n
B en
S uccess
sup er
++ ;
ert o
print f
Ġw itness
Ġad just
w ich
Ġpat ient
Ġro yal
Ġin ner
ow nt
Ġcomb at
ure au
Ġstep s
Ġprom ote
Ġaff ect
Ġb an
struct or
Ġf reedom
Ġprogram me
cont roller
ð Ł
ro g
An not
Ġposs ibly
I B
Ġpurch ase
Ġbro ke
Ġra w
Ġprocess es
t ry
ĠĠĠĠĠĠĠĠĠĠĠĠĠĠĠĠ ĠĠĠĠĠĠ
ĠV o
G lobal
hand ler
play er
Ġwe alth
ĠF ac
are a
Ġdep th
Ġstar ring
Ġopport unities
ĠC ape
Ġadvant age
Ġem phas
M at
######## ########
Ġf lex
hed ral
Ġc ru
ol i
or ity
ĠSim on
Ġimplement s
Ġc ert
$ /
ĠP ot
H er
Ġv ice
P anel
ĠS ri
ĠOff icer
c raft
Ġweap ons
t ons
Ġbenef it
Ġmain tain
Ä ĥ
ct ors
ott en
iter ator
ĠB ab
C or
ĠMor ris
ĠA D
Ġexact ly
Austral ian
ĠL ind
Ġcapt ain
Ġvol unte
Ġfl at
M C
Ġsche me
Ġult imately
ĠTok yo
D est
ic ut
ĠSh er
Ġeduc ated
c u
iv ation
Ġcapt ure
Ġex it
M ost
Ge ography
res et
Ġdesign ated
ĠHol y
ĠG ab
Ġopt im
li br
Ġkill ing
ĠA ud
ĠF le
Pro p
mon th
ĠP C
ĠS i
z y
ship s
ĠD igital
c oh
Pl ugin
O ct
ubl in
ist ed
ĠJ os
ty ped
Gener ic
Ġ io
ĠS E
Ġold est
ĠB ah
ĠIO Exception
or ough
ĠDi ego
Ġf ix
ĠV ideo
Ġg one
Ġspec ifically
ĠTO DO
Ġmen u
ar ant
X ML
ress ion
IP T
IC E
Ġgu ide
st an
Ġrepe ated
Ġrecogn ition
Ġs ac
ache lor
k t
ĠHaw ai
Ġle ct
Ġs ummary
ĠQueens land
Ġpil ot
Ġj ourney
F ail
M any
H R
N T
Ġtype of
UT F
Ġconcern s
ipp i
ĠSen ior
ĠHe art
ed itor
190 8
m b
p i
J ava
ĠB os
ĠD ark
ĠDo ctor
RE AD
Ġst ores
ĠR oll
d am
re tt
app ly
Ġoffer ing
Ã ¥
ĠK y
Ġfa ith
n ers
ĠLin coln
M iss
av or
ĠCl ark
Ġt ranslation
ĠS witzerland
Ġre q
In v
Ġcrit ics
ĠN E
'] )
Ġworld wide
ick ets
ĠT able
Ġentire ly
iv a
p icker
Stat ement
Ġs leep
SC R
Ġsignificant ly
Ġpract ices
ĠAl bert
u j
Ġn arr
ac count
Ġt error
Ġsucceed ed
ĠP erson
N or
R oute
E p
ĠR eb
e ach
Ġsix th
e ast
ĠB efore
ĠN av
Ġg rid
ten ance
Ġs ail
I ST
ol y
Ġlo op
Ġpromot ion
Ġport ray
Ġd ict
Par se
The se
Lo ader
ĠT en
Ġd ates
Ġir on
rain ian
ĠN ig
Init ial
Ġm ales
az a
ĠSo ftware
ĠK at
e ed
att ributes
cl ip
uck s
ict ional
mut able
12 8
B rowser
ĠK a
10 1
Eng ine
ĠK itt
Ġro of
Bl ack
g reen
o is
ap el
ĠS ix
Ġbro thers
in v
Ġshe ll
Ġex port
NavBar Cell
', '
ĠD un
ĠF ood
M atrix
f ail
az ing
p ower
ĠF A
Ġexhib ition
G ame
Ġdr ivers
com pl
Ġchem ical
Ġf it
." );
Ġext ensive
un ior
Ġcover age
ĠT a
P ri
res hold
Ġenc oding
ĠI r
Pl ot
Ġimprov ed
Ġk id
Ġnav igation
Ġmin ute
ed ge
Ġeduc ational
S R
ĠAl abama
b at
Ġph oto
Ġt or
S Y
met adata
e cho
ĠReg ional
n etwork
F ailed
Ġm ach
ĠCh all
Ġthous ands
Ġwe ak
ĠAust ria
b rowser
ound ed
Ġag ed
Ġb odies
> ::
Ġattempt ed
Ġrelig ion
P ay
id ge
ĠN ev
Ðµ Ð½
f ol
D ouble
[ $
Ġformer ly
Ī Ĵ
ĠPl ace
dom ain
Ġsust ain
ĠSt r
Ġdr ums
Ġsub stant
ch i
iam ond
iz able
IV E
Ġcar bon
Ġtra ins
L in
Ã© t
og en
ĠB arn
Ex pr
Ġag ree
Ġar rang
ate ur
Ġb ond
Ġso ft
S ER
Ġs ynt
oc ese
Ġl ay
Ġcy cle
ĠJ ay
N ote
ĠC art
Ġfind ing
ol o
ĠCopy right
Ġw aves
En um
Ġle arned
ĠF a
Ġp ed
iss ue
A ug
ĠSqu are
ĠM it
ĠHou ston
Ġref used
Ġap art
arch y
d ed
c b
Ġprep ared
C red
at ible
n il
Ġcomp ris
Ġown ers
Ġmay or
Ġs uffer
emb le
Ġstop ped
Ġab stract
ĠTh rough
Ġperman ent
Ġa id
Se ction
et es
D ay
Ġ{ '
ar o
C am
ĠB ir
ĠM rs
Ġd ry
ambig uation
Ġbro ken
get Name
__ __
ic ide
D uration
in th
B ig
P ORT
Ġfav our
ĠG ets
Ġas ync
Ġf ear
k w
b en
ell i
l ig
%% %%
ĠN ik
Ġdist ingu
it als
op ter
IN FO
in ch
n ie
ĠN ap
ĠSk y
ĠSil ver
Ġpresident ial
ĠV ice
ĠT an
Key s
iss ues
St ar
M ut
Ġtem ple
Ġ( ,
Ġp y
h ide
Ġequ ivalent
N C
att ers
Reg ion
ĠJes us
ĠRes ource
Ġ" ,
M T
ĠD omin
ĠC ustom
ĠHot el
ĠPat rick
ĠAdminist ration
ĠNor wegian
Ġdeliv ered
Ġ" <
fil ename
ĠDon ald
ĠDis ney
Ġbal ance
ĠC op
Ph il
Ġrepresent ative
config uration
Ġv ideos
Å «
H on
Ġm ort
Re lease
H ar
secut ive
ĠG all
O ST
Ġs ons
um in
t abs
U K
A f
Ġair port
Ġanim ation
ang el
Ġca ught
ĠB it
ĠH ash
Ġf aced
f ront
cont ains
ĠR yan
Ġf n
as m
Ġcollabor ation
iss ippi
ol t
Ġd ialog
ud a
Ġcommand er
ĠLab our
ĠHow ard
F ollowing
w ig
Ġauth ors
el ve
Ġp owers
Ġtre nd
Ġp un
Ġlink ed
ĠHam ilton
Ġst ored
f ef
ar on
Ġjust ice
includ ing
j pg
ĠRes ult
Ġex ecution
ren a
W R
IT E
b urn
t otal
ĠC ulture
Ġsc enes
Ġhead quarters
ad ed
Ġmot ion
Ġl ists
hor izontal
Ġident ify
Ġto wer
Ġex plicit
Ġth ir
id x
w orld
N odes
Ġxml ns
Ġv o
Ġpo inter
ad i
og ether
ĠAnth ony
sc ss
Ġlaw yer
av i
ĠD ocument
ri ed
m osph
ug ar
Ġsur g
ex ternal
Ġturn s
ac ent
Ġprov ider
> :
Ġstri ke
ĠG ard
Ġvert ical
Ġus age
Ġdi plom
ĠB ox
Ġthink ing
ĠAll en
? âĢĿ
Ġste el
Ġres istance
ĠS in
Ġcirc um
Go ogle
Ġsec ure
Ġhapp y
C ategory
ĠEx press
ut ies
Ġop posed
S pe
Ġexperi enced
) ),
p ubl
ĠR ub
Î ¿
Ġsch ol
prot ected
Ġpass word
ĠEar l
ĠP a
Dav id
ial s
Ġform al
Ġvari ables
ĠC ru
ĠSe ason
Ġbel ief
J ust
Ġshoot ing
O pt
IN D
ĠM oon
Ġre ct
Ġ ).
Ġb ra
call ed
Sc roll
ĠAcc ess
Ġcontribut ed
Rem ove
Ġopin ion
ĠMar ine
Ġo vers
Collection s
189 0
s ur
Ġt ruth
ate st
ĠB run
p refix
Ġatt ached
ach er
b ig
Ġcharg es
Ġhum ans
h ab
Ġca using
Ġpain ter
ant ly
ac on
Ġpass es
ĠWal ter
Ġo k
ĠDe ath
erv let
ĠC rit
Ġk il
Ġexist ence
O ur
Ġly rics
ct rine
ĠAss oci
Ġp refix
pl atform
ĠâĢ ł
ok ed
Ġchang ing
Ġautom atically
i ac
form s
Ġdem ocr
Ġrequest ed
Ġextrem ely
Ġher o
Con stra
d on
s um
Ġstring s
S ocket
Ġmusic ian
Ġcont rolled
ene z
ug u
Ġac id
ĠCh ile
let ion
rid ges
che ll
Ġinterest s
ĠWed nesday
ĠTem ple
Ġsett led
Ġhelp ing
r ift
N ULL
Ġfl ags
Ġsign ature
ĠOk lahoma
Ġre new
st ances
us al
Ġtra v
ĠC ond
ot hes
Ġmed ium
pro ps
up l
M ich
o a
all as
ĠSe ver
Ġm ental
ĠY outh
Ġt ail
ĠK am
~~ ~~
Ġ= ========
Ġf ranch
Ġexper iences
Ġf olk
å ı
Ġint eger
Ġent itled
Tele vision
Ġoff ices
B ook
d em
Style ID
ition ally
Ġinf rastructure
Ġmarket ing
ru ctions
ĠF all
Ġg reatest
build er
Ġrefer ences
Ġw alls
ĠM and
Ġdescri bes
Ġrele vant
R ail
ag g
ĠH ans
M er
CE SS
ĠPro t
is ode
b rief
ĠN ich
ĠF ellow
Ġag greg
ĠF urther
I mp
ĠTh ursday
erv es
ĠL ank
R S
Ġl ake
dis ambiguation
S eg
ĠFor ces
ĠInf antry
Ġenem y
Ġg uns
Ġre nt
ĠTele vision
Ab stract
i ples
A re
fef efe
unn y
Ġinvolv ing
our se
head ers
s a
Ġext ract
Ġw at
Ġal ter
ĠS C
unn el
Ġg ender
udd en
Ġcolumn s
Ġclass ic
Ġapp end
W N
Ġann ounce
Ġ Ä
7 00
Ġsol utions
ĠF ame
ard o
w ild
M apping
Ġsc hedule
s ervices
Ġcompet itions
ĠT uesday
Ġspe ak
Ġc tx
ĠJ ordan
ff ff
ĠWh it
P e
ĠK evin
Ġtechn iques
Ġw a
Ġchalleng es
ri k
Ind ian
Ġf ly
Ġmark ets
Ġc old
Ġs ought
ĠPro cess
St and
G A
Ġstand ing
t i
Con f
Ġcon nections
Reg istry
Ġem ot
arn er
Ġsup erv
uss ion
Ġexecut ed
Ġ( _
190 9
Ġsm art
Ġre ader
Ġro b
Det ails
Ġj ur
ĠÐ ¿
w rapper
ĠD eb
ro c
Ġref ers
Ġinj ured
rupt ion
ĠHer itage
ĠHol lywood
ĠS ource
Ġ( ),
all oc
Ġpost ed
Ġf illed
Ġent ertain
ĠG re
ĠF ull
ĠP RO
F ore
Ġm ile
cept ions
bum s
Ġpers ons
190 5
Pl ace
ĠOn ce
Ġn ortheast
ĠEm peror
ĠE ag
Pro gress
S ync
Ġachiev e
ĠH amp
th row
ĠAn ne
Ġattack ed
ĠUn it
Ġch annels
Ġrespons ibility
Ġmer ged
Vari able
ĠIm age
ĠAnd roid
Ġf ought
ĠH u
Ġemploy ed
Ġdis abled
al ty
190 6
ĠIsl amic
Ġret irement
Ġw onder
190 7
Ġar ran
-------- ----
Ġch arts
Ġsing ers
Ġg ene
Ġdirect ors
l ot
Ġsize of
Ġcorrespond ing
ĠTurk ish
ĠMo ore
Ġinv ited
s witch
ĠU r
el son
ident ifier
ĠD ur
Ġeven ing
P refix
ĠB ry
ex tern
ĠLem mon
Ġbo at
Ġpol y
iev al
com ponents
ĠT el
ran e
Ġk ids
ĠO ak
Ġacc used
ĠG ib
ĠL eb
Ġperm ission
ĠSquad ron
Al though
ĠAg ain
Ġsit uated
) ).
arg o
ĠDe ad
ĠYou Tube
ĠG ram
ĠS port
Ġdec ade
ĠConnect icut
b rid
ĠB uff
ĠD ick
Ġcon secutive
Ġgood s
as hed
Ġs oci
lo yd
comm od
Ġf ramework
al ia
ab ad
Ġint elligence
Ġcont roller
ĠF inn
ĠRe quest
init ial
ĠSpace watch
Ġclin ical
Ġdiffer ences
Ġclos ely
all ed
ur ric
Ġoper ate
ĠAf ghan
ĠG rant
ĠBul g
up load
m ask
LE CT
ĠSing h
z i
Ġemer gency
ĠR ey
Ġv eter
ĠTh ird
j unit
ĠCommon wealth
ra pped
Ident ifier
N amespace
M ac
prot ocol
Const ants
f ast
av irus
Ġen v
Ġj azz
es c
Ġsup posed
ĠC urrent
ĠJ am
def ined
Ġcustom er
if iers
ĠInt eger
od a
ĠPl ayer
Ġse ctions
m ult
Ġeng aged
O UT
ph ony
ro ut
Ab out
ual ity
Ġsk in
B el
Ġhel ps
ĠW y
Ġh olid
Ġleg end
ĠS ep
ĠMc G
Ġm olec
T ags
Ġcol span
ock s
Ġscient ists
Ġs aved
Ġ à¤
Gener ator
ĠC H
pro gress
ĠM essage
t ags
Ġelect ronic
Sim ple
ĠB ureau
Ġliter ary
Ġsurn ame
< !
Ġpoet ry
Ġconstruct or
ĠD al
Ġweek end
Ġa ired
C ent
Ġshort ly
ol ly
ĠM S
lad esh
ĠW AR
L java
pl us
ck now
T otal
Ġtre ated
ĠH om
ĠS I
ĠM iami
Ġv irus
log ger
Ġoper a
Ġ{ "
a ired
ĠCh ampions
Ġbo ost
ĠP ay
E ducation
ram a
Ġvot ed
F ootball
Ġp hen
ĠL am
ĠPri x
ĠPh ill
M ult
ĠT s
lim it
on i
Ġcerem ony
ik h
190 4
arm a
Sc ale
ON G
ĠArch itect
F in
L ayer
Ġp it
ĠSt ew
ann y
ĠL anguage
par a
iv ated
Ġset up
Ġt x
ut ral
ĠL ear
Ġindic ate
Ñģ ÑĤ
Ġmet res
Ġimplement ed
n old
Ġintro duction
it ics
Im port
force ment
Ġfound ing
Ġbring ing
Ġsp aces
Ġr g
t ransl
Rep ository
ĠD ave
Å Ł
ĠI T
Ex ecut
ĠT erm
12 5
Ġsee ing
des ign
ĠĠĠĠĠĠĠĠĠĠĠĠĠĠĠĠ ĠĠĠĠĠĠĠĠĠĠĠĠĠ
HT TP
Ġconst ra
ab ric
ts d
Ġwait ing
Ġaccount s
Ġv ision
ĠPh ot
Ġb rown
Ġd rawn
Ġj Query
Ġcor on
Ġadv ice
ownt own
Ġs now
Ġ$ {
Ġhistor ian
ĠOn line
ĠAg ency
l on
Ġcharg ed
Ġpr ime
ĠT reat
ĠL android
ĠPortug uese
ĠR ound
H ER
Ġres olution
sub s
Ġcl ients
Ġsur pr
Ġdeliv ery
or er
en abled
Ġrestaur ant
ĠNC AA
U nder
ĠN ext
u h
Ġstand s
Ġs occer
ĠSw iss
sh ared
Ġcent uries
tr igger
m ac
N OT
ĠS oc
ens es
Ġa w
Ġeth nic
Ġsports people
sh op
spec ial
GB T
Ġlog ger
ĠP A
R ole
ĠAm ong
ĠStand ard
=" ${
ol ished
Ġpart ial
Ġh its
in ces
ĠN AS
Ġrev olution
Ġt ack
Ġs um
do or
Ġf ee
Ġdis establ
ĠC ase
pre v
ĠHon or
Ġcom fort
x i
ĠBill board
a ire
Ġr ival
Ġtouch down
Pass word
Ġ ip
Ġch urches
Ġdeg rees
Ġr ating
Ġw arning
ĠDet roit
os ure
Ġcommission ed
ref ect
ĠC ow
ĠMiss issippi
Ġrecomm ended
f d
ĠD ak
ĠG ordon
Ġdis miss
ou st
Ġexpl ained
Ġfavor ite
ĠR ab
Ġcrick et
od ox
rate gy
Ġjo ining
ĠArgent ina
in burgh
put ation
ĠPal est
ĠIsrael i
ĠE U
ell ite
ĠG irl
hemat ics
ul ating
Ġmet adata
Not able
Ġre action
edd ing
Ġfound ation
ĠAnton io
ĉĉĉĉ ĉĉĉĉĉ
Ġcre ative
Ġex erc
int end
s ince
el and
ug s
ap olis
ig ious
D at
Ġque ue
Ġm ir
Ġpl ane
ĠS earch
ĠWalk er
h ow
y ers
ar c
Ġsp an
us ers
Ġt ennis
Ġl aid
result s
Ġsh ares
Ġline ar
ĠA T
ĠL as
ov al
Ġteach ers
ing ly
Ġte en
Ġstre ets
det ail
ĠAtl anta
ĠStud ios
U SE
ĠF arm
FF FF
ex ecute
Cl ub
ĠP ed
Ġro utes
Ġmain tained
ĠMay or
Ġg lob
t ar
nap shot
Ġheav ily
it able
Ġsever e
ĠB an
ĠOper ation
Ġun c
ĠBow l
Ġconf irm
libr ary
im ore
ĠV in
Ġw ish
ĠD VD
Ġtra ined
Ġproduc ing
Ġex pos
Ġcour ses
Ġlegisl ation
SCR IPT
Ġhead ers
Ġso le
ograph ical
r Ã©
Ġparticip ate
190 1
Ġ[ ],
Ġpred ict
P ers
Child ren
Ġres erved
level and
Ġaspect s
Ġ" -
ĠĠĠĠĠĠĠĠĠĠĠĠĠĠĠĠ ĠĠĠĠĠĠĠĠĠĠ
Re port
Ġ' <
ĠIsl am
er ial
ĠVill age
M ilitary
ars ed
Ġsuggest s
ĠW olf
() </
ĠAd vent
L anguage
Ġvict ims
b us
Ġbank s
Ġcon version
Ag ent
ĠC hem
ang ers
ĠSe ction
ĠA C
V ill
ĠHT TP
Ġenc ounter
R T
ver ter
us ername
ĠTai wan
Ġfle et
typed ef
Ġst uff
st orage
Ġind ependence
Ġdet ailed
ĠU I
Ġband s
ang ing
re le
ts burgh
Ġtop ic
Ġan cest
( __
Ġ{ {
Ġman age
Ġreject ed
Ġst ret
ĠN ag
Ġprom pt
nav List
Ġent rance
n ia
Ġm ine
Ġplatform s
com plete
ĠG arden
w en
II I
ĠBatt alion
Ã ´
Ġl it
us cript
Ġbir ds
Reg ister
Com ment
ĠP ur
Ġcle arly
Ġgr ade
es ome
190 3
ĠPortug al
ĠAl an
Ġbehav i
ol s
Ġint ent
d one
Euro pe
j ob
eg as
ĠN AME
ĠD ublin
d ialog
Ġs outheast
Ġ ],
Res ources
Ð° Ð½
m outh
ĠV ar
IG HT
er on
Ġaband oned
Ġpartn ers
Ġtyp ical
ĠBelg ium
ĠS ite
Ġh un
vious ly
ĠS QL
ĠN aval
E ast
ĠRober ts
Ġin aug
ĠK az
Ġcould n
Sym fony
Ġres erve
Ġm anner
Ġf ired
Ġinh abit
ab out
Ġs elling
Ġpe ak
ĠL ib
M ake
if fer
ĠN ob
Ð¾Ð ²
ĠPro perty
U D
op es
de cl
. <
medi ate
ĠDoug las
18 0
' ));
ss on
Ġanim ated
Ġtem porary
M ulti
Ĥ ¬
il k
Ġm outh
ĠK er
ĠCro at
Ġvacc ine
Ġm ys
âĢ ¢
ĠP ope
Sup port
Ġc ards
ĠEconom ic
ĠI ss
ĠQue bec
aps ed
i op
nd ef
Ġm al
ĠI E
Ġcomplet ion
sh al
W rapper
Ġmov ies
Pl ayer
ĠCh ange
Ġnetwork s
act s
Ġop posite
Ġp up
S em
Ġfil ed
ĠB us
icens es
ĠEx per
Ġcompet e
rit e
ĠU l
Ġent ries
ĠLouis iana
Ġcon vent
Ġoccup ied
Head ers
Ã ł
Ġload ed
ĠE arly
=" $
Hel p
in valid
190 2
Ġprov ed
Ġestablish ment
Ġsubject s
Ġre aching
u ction
Ġmid field
S an
p ub
av ia
ist ing
B orn
ch ain
form er
F ind
ĠK now
ĠH ills
Ġdest ination
ĠA le
Sequ ence
" /
ĠF ern
ĠC emetery
ĠE ver
Ġindic ates
or ia
C F
s ymbol
RE S
Ġassist ance
M ajor
Ñ ĩ
ct ic
ĠH ockey
ĠS el
x s
C oll
UR I
ĠAl ber
h y
Ġdocument ation
18 80
R ober
ĠC ook
& &
Ġf lying
Ġconsist ed
Ġdi agn
ĠCap ital
Ġst yles
AL SE
A CT
Ġbo ys
pre ne
Pro ps
ĠDen mark
Ġcons umer
Ġw ave
Ġch air
are st
Ġcont ents
Ġl iqu
Ġ Ø
Ġ= ======
Ġ? >
ac o
Ġass ault
cl osed
iss ance
ers e
Ġv ary
ĠMc K
TR UE
sh adow
J S
s ingle
Ġst adium
ĠD og
ib l
c ing
Ġcontribut ions
Ġreplace ment
Ġcompos ition
ird s
Ġc ash
Ġcom ic
Ġfeel ing
TI ME
ĠAb b
ĠTer rit
M ount
ĠOr chestra
ou ter
B B
ĠRef er
at ur
Ġtri es
ĠHar vard
j ango
f old
v ideo
Ġs ed
Ġwhe el
ĠE mer
cle an
ol ph
Ġac commod
How ever
) ->
az e
Ġas sets
b ridge
ather ine
F IG
Ġcol our
end ment
Ġch ose
ĠTh us
aj ax
Ġrelationship s
Ġdiscuss ion
Ġ urg
Form er
B ound
az y
Ġpubl ish
R ich
D iv
re prene
ate ver
coll apse
Ġag encies
ĠWh y
P ubl
aw ay
Dom ain
ĠR oc
Ġfin ishing
Ġcon cluded
Ġtalk ing
Ġg ather
ĠDe an
ĠBrig ade
F ramework
ĠAr men
ĠT ar
Ġsp end
Ġpass enger
( -
che me
iver pool
Ġvar iant
ĠIndones ia
Ġch ampions
Ġpaint ings
comp iler
Ġw indows
poss ible
Ġc raft
Ã «
Ġdr ag
D elegate
ĠJ uan
det ails
ant on
ĠT ag
m aven
Ġsym pt
Pr ivate
Ġs we
t body
Ġpre ced
ĠK elly
Ġmass ive
ĠO S
Ġpublic ations
M arch
ut ed
Ġpar allel
ig e
ĠSystem s
S ur
Ġal ert
Ġparticip ants
ail and
Ġregular ly
li x
D ictionary
M us
J ames
leg es
ĠRes erve
Char acter
Ġdeb ate
Ġhe aring
ili ar
ĠS n
ass embly
á »
ĠLiber al
ĠB ull
P od
pro fit
ub le
fol io
y ll
Ġplan et
hib ition
ex ists
? >
Ġroom s
Ġrel ation
ĠW atch
Ġeng ines
Ġdep ict
ĠC ra
u ating
ĠS ud
Ġmin ing
P H
Ġj unior
bar a
Ġ ui
L et
">< !--
Ġroad s
ax is
U LE
iven ess
Ġm ig
bo ost
(' .
Ġfore ach
F ixture
own er
l ass
Ġass ign
Ġocc as
Ġv ul
E ST
amb da
ĠMor gan
Ġst ood
ĠJac ob
Ġinter ior
ĠSe attle
Ġsc roll
all classes
Ġev olution
ĠAb d
T race
ĠInd ependent
Ġhigh way
ĠM aur
Ġinflu enced
Ġd uration
B P
el lect
ĠR ace
ĠI ron
ĠUt ah
ĠLa ure
Ġcomp ilation
M ill
F ree
ĠBrazil ian
Ġmed icine
Ġt on
is ition
final s
ĠT R
Ġp rices
Ġor ient
M al
ĠRe act
Ġpass engers
am o
Ġv ir
Ġan th
;" |
p arser
prov ider
Ġh ired
Ġa cknow
Ġtransp arent
{ %
ĠMalays ia
Ġde put
ĠDef ense
te ction
O B
log in
Ġl ose
Ġpro xy
ĠH ug
S yntax
ish ment
En ter
EN SE
33 33
mark s
lo om
Or gan
Ġess ential
Ġc ro
Ac adem
Ġat mosph
Ġback ing
ĠEd inburgh
ĠF uture
; }
E V
sv g
Ġfrequ ency
d p
if def
P aul
r ays
Å ¾
r in
! [
Ġp arser
onym ous
Ġmay be
Ġar med
ul us
/ _
Ġw aters
, '
ĠLaw rence
in ations
ĠSam uel
Ġarg ued
ĠH ttp
Ġund ert
Ġresearch ers
Ġn ick
Ġd ies
ĠCont in
duc er
Aug ust
Ġown ership
L en
ĠF M
Ġrun ner
Ġre ign
Ġloc omot
yn amic
ĠT ig
an im
Ġkn ock
Ġac compl
col Last
Ġp ione
aly t
ĠPu erto
ĠD NA
umm y
St ats
Ġrat io
le ton
ĠHistor ical
ĠH op
Ġt mp
TE XT
ĠG a
w p
m ers
dep th
am azon
ur ers
Ġphot os
Ġsecret ary
Ġun iform
u ations
Ġst ages
Ġgrad uate
cri bed
Ġcap able
Ġvisit ors
Ġdec isions
Ġd uty
nd ered
ĠEx pl
Ġtem p
Ġadv is
Ġpri ze
od ge
err ors
S ing
ah o
ĠP un
ra k
ĠCol omb
R oman
Ġpay ment
ĠYear s
p u
Ġneg oti
ay an
d ied
Ġcr ash
Ġed ited
ĠR ick
un ique
ĠAust in
ĠH oll
red ited
ĠSc ient
param eters
ĠVol ume
ĠRuss ell
Ġs amples
Ġmain t
ĠC P
ibr aries
Ġsepar ated
as p
Se lection
gener ated
Ġl es
Ġsy nd
Ġtime out
or us
cept or
Cl oud
aw are
rupt ed
Re ception
ĠO d
ĠOr th
stit ute
M ath
ass andra
agnost ic
ĠP eters
( @
Ġdesign er
Ġtransl ated
Ġwrit es
Off icial
Ġactress es
Ġdep ending
Wh y
T x
ow ed
ĠY an
ĠD anish
Ġkeep ing
over ty
Ġid x
f ather
ym p
Ġ$ .
w hen
index Of
Ġste am
oc aml
ĠAn na
art icle
L L
g lyph
Ġref uge
Exp atriate
ĠLe ad
col First
Ġmanufact uring
Ġex ceed
Ġdis appe
P air
Ġa xis
ĠAg ric
bor ough
Ġcollection s
ĠPe ace
Ġtest ed
is ations
Ġcl ock
Ġcl er
ĠPal ace
ex ec
Ġdesign s
h u
em on
ĠB art
ĠG on
ĠB ush
Ġch apter
ĠSar ah
DE FAULT
om as
Ġb in
Ġhost s
Inst all
f b
Ġcan cel
Ġ å
enez uel
time out
Ġappe al
Ġdyn amic
ĠTra ining
Ġs pl
ĠP ack
Ġdef ensive
IT ION
ĠM ission
il st
Ġthan ks
coh ol
h us
F M
PO ST
l ayer
(' /
Ġentertain ment
ke ep
189 8
ĠAN Y
ĠLO G
Ġmembers hip
or ient
b el
az ines
ĠL ang
ploy ment
Ġv irt
Ġphil osophy
ĠP as
Work s
Ä «
Ġ( +
Ġs ending
sh a
Ġprom ise
Ġex ecute
opt ional
e q
Ġaccomp an
N ative
Ġs udden
Ġr u
ĠR ight
on omy
ĠP ap
Ġis lands
St ud
S ch
ev al
L ook
ĠCh airman
Ġn p
em en
F LA
iz z
Ð ¿
res ources
ĠN ep
B AR
B L
ru le
rub y
fe ature
S ummary
ĠD ue
Ġr ub
13 0
ĠK ings
in f
W eek
as ync
Ġst ating
requ ired
spring framework
Ġad mitted
ĠBang ladesh
ĠAp ache
ĠOper a
Ġ ing
Ï Ħ
Ġnull ptr
se a
bo ards
re lease
wh o
ĠĠĠĠĠĠĠĠĠĠĠĠĠĠĠĠĠĠĠĠĠĠĠĠĠĠĠĠĠĠĠĠ ĠĠĠĠĠĠĠĠĠĠĠĠĠĠĠĠĠĠĠĠĠĠĠĠĠĠĠĠĠĠĠĠ
ĠIm perial
ist ence
ĠO bserv
es ian
ament al
V M
Ġin ternet
ĠFin land
p ull
z z
qu ir
ĠAuthor ity
Comp iler
Ġb reed
Ġm art
et ing
Ġinv asion
uk i
ĠA SSERT
Ġreport ing
Ġfranch ise
Ġext end
ĠEd ition
ĠPubl ishing
U ri
N amed
ER S
ĠOb ama
F E
Ġm urd
apt ers
ĠO m
ran ches
Ġh am
Ġpre gn
Ġsing ing
Ġgr ass
ra ud
ĠWork s
fl u
Ù Ħ
Ġk it
ĠF ight
en able
Ġdeb ug
oun sel
En vironment
ro ck
ĠP ut
Ġann iversary
Ġ\ "
B et
ĠP lease
el i
ĠK it
N N
Ġ[ "
Con nect
A pril
Ġsp ending
Ġexpl an
ĠTr ade
g ov
ess ed
ĠG ran
ĠE ff
ĠNig eria
; ">
Ġins urance
ĠM O
ors es
Ġproduc ers
ĠS ac
an ian
J une
Ġpl ugin
ĠBudd h
nt il
Ġrul ed
Ġg arden
ĠL anc
ĠArk ansas
test ing
CT YPE
H ere
Ġinc orporated
Ġindic ated
Ġpl ate
Ġprior ity
m illion
ĠBru ce
Ġland s
Ġm ail
ex pr
ia st
(' #
ty pen
Ġconsist ing
er os
ĠĠĠĠĠĠĠĠĠĠĠĠĠĠĠĠ Ċ
Sub s
ĠAll iance
ĠC ore
Ġde pos
arri er
r ating
Ġon going
ort ed
bl ank
ĠG irls
ĠN atural
Ġunivers ities
ĠLim ited
Inter val
w arning
Ġathlet es
Ġtask s
m oz
C RE
re pe
ĠTam il
ĠSh ah
t emp
189 9
Date Time
Ġaddress es
lo ader
O ld
ca ption
ri eve
æ ľ
H istor
Ġground s
n est
ĠMic hel
ĠStew art
Ġass umed
ĠD allas
ĠF ig
ĠFreder ick
bass ador
Ġexpl os
ĠL ieutenant
Ġw ine
RE Q
ĠSchool s
test s
******************************** ********************************
Ġim press
18 70
Ġkn ows
ĠDel hi
Ġt ank
Ġseem ed
f c
hel per
ĠF ive
Ġadapt ed
Ġsc en
ia h
Ġp ure
Japan ese
ĠD ance
ĠÃ ī
ĠP ear
Ġ' '
ic he
ash i
Ġco q
Ġare n
ul p
Ġrg ba
Ġext ent
Ġcertain ly
Ġh a
Ġsign ing
ers h
ĠD ub
ĠW ard
ce ive
view s
Ġpercent age
Return s
col lection
ĠP rad
ou ver
Ġmar ine
ir ates
Ġsign s
Ġconcern ed
Ġup dates
c os
g ments
ĠMan ager
Ġso il
ĠC ole
Wh ere
Ġcover ing
ĠF ind
W ORD
oc a
P y
ĠWeb site
ops is
Ġcorpor ate
Ġcrow d
) /
Ġve get
Ġd ial
LO CK
Build ings
Ġg ang
typen ame
Ġel ig
Ġsub t
. ",
Ġpubl ishing
ĠMe an
ĠĠĠĠĠĠĠĠĠĠĠĠĠĠĠĠ ĠĠĠĠĠĠĠĠĠĠĠĠ
ĠH ell
ĠV ector
ĠLegisl ative
IN TER
rb an
ĠCon stitution
j u
pro xy
Ġdisplay ed
Ġm ob
Ġweek ly
l u
p red
Ġth ick
S ongs
J uly
aud i
ĠP atri
ov iÄĩ
Ġsol ar
ĠUk rainian
empl ates
Ġadult s
ĠB ed
ĠB ou
Ġfall s
RE G
cd n
t wo
fl ag
Ġcast le
Ġcarry ing
Ġab use
Ġdrug s
ĠY e
Ġstat ements
Ġreli ef
V E
ig ate
Ġincreasing ly
Ġcompar ison
ĠM ult
End point
ĠCon stant
amp s
Ġeff icient
Over view
ĠL ook
Em ail
Ġoff ensive
o i
ĠDep uty
Ġmiss ed
Gener ated
Ġapplic able
vis ible
Ġtr igger
t k
end a
ĠB eck
Ġres igned
Ġcre ates
L INE
g ow
Re al
Ġtw elve
ĠAd ams
An other
ĠP sych
Ġc atalog
Ġsound s
Ġun us
u er
check ed
ĠInst ead
ĠN ever
ĠP R
1 15
ĠTh ailand
ĠCl oud
ĠO N
side bar
Ġres idence
print ln
VAL UE
ĠL ane
G r
pl ays
ĠMar shall
or ne
j d
'] ['
Ġtra il
ï »
Ġagric ultural
es a
ĠTe ch
Ġclass ification
Ġexcell ent
ĠThom pson
u ite
Ġm ilit
It alian
An imation
Ġtechn ologies
t or
op ts
E very
d y
Ġlab els
Ġsp r
n ob
ĠRog er
Ġpattern s
ĠBoy s
AN CE
Ġro se
m aker
W ait
Ġmatch ing
app oint
hens ive
En umer
ĠJ ason
Ġre in
Ġrecord ings
Ġchar set
in ian
Ġt all
Ġl ang
Ph one
Ġc rypt
189 5
Ġm oth
ilt ers
ĠMont real
ĠArray List
ĠW right
Ġhead s
Î ¹
M c
Ġtechn ique
Ġil legal
on ce
Ġrow s
ĠVal id
Ġf est
Ġhundred s
Ġappro val
Ġregard ed
ĠKn ight
ĠP rom
Ġpost s
Ġpropos al
F ragment
Ġb on
ĠA BC
Vis ible
i est
B ind
() ))
Ġres olve
Ġw ire
Ġver ify
ĠV ik
Ġwork er
Ġpro of
C apt
Ġsh aring
C ity
ĠSm all
ĠMP s
re port
Ġvot ing
Ġland scape
F ORM
rand om
ĠM ars
le ans
ĠR ugby
r ons
ĠCo oper
support ed
Ġshe l
Ġinc orpor
ĠCamp bell
as a
Ġadvert ising
P Y
189 6
ĠF el
ME TH
ĠRes ponse
Ġseek ing
Ġmain tenance
pat tern
u able
ĠK on
li k
st e
P ER
Ġp apers
Ġhead ed
ĠL iverpool
Ġc ategories
d c
ĠB uck
ĠC leveland
ĠC ensus
ĠDemocr ats
EE EE
ch anged
Ġinhabit ants
und efined
i ot
ĠTra il
re nt
Id s
Oct ober
Ġb es
Ġeffect ively
Ġt ropical
Ġign ore
st ory
Ġ> >
Ġr is
Ġcomp re
Ġcol le
A li
ro ph
sw arm
F eb
D IS
e lection
Enc oded
we ek
ĠChrist opher
S M
Ġe at
ĠN ash
Ġben ch
ĠComm ander
ĠEd itor
ĠKenn edy
Ġb right
ĠCh ampion
ĠW oman
Sc ott
ĠM D
ĠCh amber
wild fly
Ġre venue
irm ingham
r ary
h ill
or ro
ĠF OR
Ġmov es
if ndef
\ /
Ġsuff icient
ish ops
cast le
Ġsp oke
Ġorgan isation
Ġ ðŁ
ob by
Ġag ents
oen ix
numer us
ter y
Ġtarget s
Ġadj acent
numerus form
Ġarch ae
(" /
ĠH old
Ġschol ars
ĠTr ack
inc orporated
Ġexp ed
ĠMarg aret
Ġsh ock
Jan uary
ĠF ROM
Ġpro ps
Ġpra ised
evel oper
IN S
ag ent
f ish
f lex
= >
ĠR an
Ġfac ing
C ard
ov o
ĠF al
L iter
init ely
ÃŃ n
omin ations
s ong
s ys
Fl ow
I gn
Ġdiscover y
Ġmod er
er ic
Pro gram
Ġrem ark
Ġrecover y
count ry
c irc
ĠOrgan ization
ĠT ree
st ers
Ġarr ival
189 7
Ġbrief ly
ĠStud io
se lector
per m
b ers
ĠBet ween
ĠC rown
Ġa x
ĠH end
ĠWel sh
Ġfem in
Ġimmedi ate
ir ms
Ġsevent h
ä »
Ġher itage
O M
ï» ¿
ĠMot or
ĠIn put
h l
ĠPro p
it is
Ġco ff
og ue
Ġre ception
Com par
l ights
E ff
P al
ate way
web pack
app y
Ġinj uries
Ġwatch ing
Ġdyn asty
ab il
ĠN elson
h att
ud es
Ġc rown
{ "
Ġhand ling
Ġf at
ĠMet ro
US ER
EL D
Ġhapp ens
ist ical
Ġh ill
Jo in
ch t
ĠPit tsburgh
Med al
Ġresident ial
Ġ ..
Ġcontrol s
on om
I MP
ĠH it
h our
sign ature
K e
Ġeas ier
Ġres ign
Or iginal
Ġinst ances
ĠPr ivate
ĠJ enn
Ġem p
Ġad m
Ġcour ts
Ġinstit ution
M aster
Method s
oc ity
ĠBalt imore
ĠR io
ex pect
n odes
or ce
ail ability
... </
"" "
ĠJud ge
Ġw ww
Ġtal ent
Ġex posed
F r
Ġo bs
Ġm atters
new s
ĠD ouble
Se ptember
ĠMar ie
ĠU lt
ĠMain e
fort un
Ġf old
construct or
li ed
ĠT rad
Ġg rown
Ġinstr uments
ed ed
ĠE ss
Ġdraw ing
l ia
th a
le tt
Ġprep are
ig ins
Ġd ating
ĠMount ains
ip her
ĠC EL
Ġthe ore
Ġfl u
ur st
S chool
ĠL INE
x html
Ġb inary
ĠK an
pre c
bl ast
DE BUG
ext ension
Ġcon crete
u is
ĠM ort
DO CTYPE
Ġprov ision
Ġearli est
Ġclos er
Mich ael
B al
Ġbe ar
Ġout er
Ġbound ary
d ale
ĠHamp shire
Ġlist ener
ot ation
Ġinst ruction
n ik
Ġtrad ing
Ġres et
ĠAust rian
Ġtop ics
f x
P M
ine a
Ġmy th
check box
ĠG rad
Ġstrong ly
Ġ" $
Ã³ w
ig o
ran ean
.... ....
De cember
Ġmet ers
L ike
Ġb ind
Ġf ake
ir i
Ġassert That
run time
R ussian
k top
hedul er
Ġv el
Ġhor ror
ĠCommun ist
ĠRob inson
ĠR ap
as i
S ave
ĠW IT
Ġtransl ate
D R
E P
ist ration
Ð ·
Ġst able
Ġpass ion
s ch
ĠD ie
Ġt ub
ic ious
sl ice
Ã ª
p ython
b log
e a
Ġdam aged
Ġjud ges
Ġre duction
ĠBrook lyn
Not ification
Ġchild hood
ĠM eg
Pl atform
Ġent ering
Ġl ift
olv ing
ĠP ad
am ents
anc ouver
ul um
eb r
Ġm ouse
B Y
Ġf ruit
B r
ĠSen ator
get Element
Ġthe ater
osp itals
iv idual
ah n
Un known
ĠF r
Ġcharacter istics
work s
ĠM agn
Ġt ied
Ġsurg ery
ĠBe at
enc er
ĠK o
ĠJoh ann
Ġen um
Pro fess
P UT
12 7
f are
Sk ip
ĠRe qu
t c
ĠAcc ount
Ġsurv ived
ĠDak ota
y cle
ĠHung ary
Ġturn ing
Ġtyp ed
agnost ics
A rea
Ġoper ates
con sole
ĠCent ury
p air
z ip
Ġc md
189 3
ĠFri ed
w ill
ĠCar ter
ĠJ osh
pl ier
EEEE FF
Don ald
Ġval ign
ĠMet ropolitan
list ed
min ute
ĠMur ray
Ġdet ect
ID TH
ok ing
ellect ual
Ġrele ases
ĠPr incess
kee per
Ġn ations
Text ure
188 9
S at
Ġlim its
ĠN BA
Ñ ĸ
T F
Ġcol ors
pre p
Ġ@ "
Ġcontin uing
Vill ages
rick et
ĉ ĠĠĠĠĠ
Ġo dd
Pro duction
Sh arp
ĠA rena
riev ed
ĠJ u
189 2
Ġemploy ment
Ġconstitu ency
Fl ag
Ġyour self
Ġse es
Ġmeet ings
ĠN ar
ĠG ill
D ATA
Rail way
Ġcon ven
ĠCar ib
ĠM ust
% "
Rober t
ĠRail road
ĠO ri
ge on
Ġp ub
Ġtrans mission
j amin
Ġcopy right
il arly
Ġwith draw
Ġam b
St ation
Input Stream
e ctions
Ġsympt oms
object s
ĠGl as
Ġsomew hat
ĠS H
ĠRef orm
h al
ott ed
ĠPl ant
ĠR u
Ġal gorithm
Ġacc eler
sp ir
Ġ ];
M r
Ġm d
not es
V P
Requ ired
ĠBro thers
ph ere
en z
Ġgu id
Ġcolon ial
Ġbu f
cast ing
ul u
18 60
Ġdou bt
ĠVi enna
pr ison
Ġopt s
dr iver
Nov ember
n p
Ġspec ify
ĠR y
ĠM ong
in itions
Ġspe aking
id ency
ĠOr d
Î ½
Bas ic
Ġstr uck
ord ered
ill o
Ġmet a
Ġse lector
Ġcl ar
Ġman uscript
c ia
Ġup load
r ator
claim ed
ob a
ĠL ith
Ġsche ma
Ġg ift
b ach
Ġfriend ly
og a
Ġn ice
s ync
ĠR ural
Ġb ishop
ĠOr leans
METH OD
Ġfrag ment
ĠJim my
Ġrestrict ions
refect ure
ĠIn v
Ġ ere
STR ING
g i
Ġb aby
Ġdiv isions
Ġpremi ered
Ġra p
On ce
ĠSt ore
f ix
ĠS D
Ġloss es
f ixed
ins ula
Ġrac ial
Ġt y
Ġrest ored
L ight
ĠCl ar
ĠKar l
Ġpers pective
iv ia
ĠCom ics
D an
Ġfac ilit
Ġmechan ism
ĠM embers
m ate
ĠAl fred
Ġ_ ,
ĠWh ere
M icrosoft
put ed
Ġtem por
R PC
ĠC atal
er as
Ġl at
am an
Sh ape
æ ĸ
gress ive
VAL ID
Ġm it
In formation
Ġenjoy ed
Ġr ide
Ġinst ruct
h ref
clud es
Ġwith d
Ġsound track
ĠK um
up t
ĠÂ »
ograph ics
ĠD im
IO Exception
Ġbring s
Ġmag ic
Ġcompl iance
Af ric
OR Y
Ġme ets
Ġjur is
Ġrec ru
ĠBo olean
Ġabs or
clip se
Ġv ast
ĠG ulf
ĠSt ream
Ġill ness
Ġven ues
Ġgu y
Ġjournal ists
Ġl oved
ah a
PRO JECT
Ġactiv ist
189 1
F ig
Ġdep ends
Ġc ited
ĠE R
Ġs ql
ĠD est
hold ers
Ġcritic ism
Ġexpl ain
Ġmys elf
ĠSt atus
S ite
ĠGra ham
ĠS P
Com plete
Ġden ied
c ussion
ĠN am
ĠN ation
Ġclos ing
Ġdec ide
Ġaccompan ied
Ġs urre
ĠV irtual
Con vert
Ġdisc ipl
ĠChall enge
id o
Ġexerc ise
Pre vious
Ġsup plied
Ġh ide
P resent
ev a
and al
SE LECT
get Value
Ġmer ge
Ġpro port
Ġ' \
ĠRoman ia
Ġrail road
Ġb id
v olume
ĠP os
ap os
ry ption
ĠMatt hew
th rough
ĠJos Ã©
App end
ows ki
ĠCh art
_ );
ĠDes cription
rad io
Ġe arn
Ġs ynchron
dest roy
ĠE ND
Ġre nov
ĠPort land
pan ic
ograph er
ryst al
comm un
f actory
ĠT ax
NavBar Font
ĠG ary
Ø ±
ra ctions
at omic
ĠHung arian
C B
ĠA qu
inher it
189 4
3 60
Ġpe er
ĠFrank lin
Ġbe ach
M ask
m un
M OD
Ġvis iting
if ts
Q U
' ];
ĠPro duct
Ġb inding
Ġsent ence
Ġdanger ous
Ġf aster
Ġcircum stances
Ġfl owers
ĠL GBT
v ia
ast s
Ġmov ements
Ġexperiment al
Ġvot ers
Ġiniti ative
cl uster
Ġdivers e
Ġpaint ed
Sup er
ĠT ob
ç Ķ
Ġt act
c atch
Ġbeaut y
N ET
h ai
s ome
av ior
ĠV enezuel
Ġast ron
int ell
Ġs ync
d x
Ġas king
ĠAss istant
ĠTh ough
SS L
ĠC lient
part y
Ġw rest
Ġdiscuss ed
Ġarran ged
te am
E st
Pol itical
Ġtr uly
ĠLeb an
AN T
Ġcrick eters
Å Ħ
Ġpro ve
Ã© n
L ibrary
188 5
Ġaff ord
ĠA P
m ount
ĠR ain
Pro to
ap is
ĠB aker
por ter
Ġneigh bour
ĠC SS
Ġthrow n
ĠV egas
Ġexper ts
Ġpick ed
ĠAfghan istan
A ir
R aw
ĠT ak
M IN
y ou
apt ist
ley ball
U ST
Des ign
Ġt um
ag ger
1 14
Us ers
Ġconsist ent
Ġb its
olv es
R ob
L ower
Ġdeput y
Ġd uties
group s
Ġw aste
ĠPr int
å ®
ri el
Ġp overty
Ġb attery
Ġaccess ible
itar ian
ĠMad rid
s em
10 5
Ġval ley
ug osl
Ġcontribut ion
Ġcomp are
AR D
ĉ ĠĠĠĠĠĠĠ
at on
B ro
S creen
d ig
Ġcom ed
Ġproper ly
ĠSt ars
ic ode
Ġdesc end
comm ons
Att r
tern oon
Ġan chor
ud son
ĠD J
B ean
b ai
Ġvul ner
m id
v et
Ġvol umes
Ġm aps
188 8
j ab
Ġp ictures
ĠR ud
Ge orge
d eg
Ġpro fit
ĠMov ement
ok a
Ġposs ibility
lo op
Ġtalk s
C G
Ġt ie
Ġr id
Valid ation
ar us
ick ing
act ivity
ĠPr im
w right
Ġf ishing
Ġcompet itive
ĠR oom
grad uate
Ġ ul
Ġther apy
S ql
Ser ies
ĠC arn
D rag
iter ranean
ĠThe ater
Ġle af
Ġland ing
ĠH um
d atabase
ĠN eg
il ty
ĠS ett
Ġwor st
ĠT ool
I X
ro ute
ĠBl ues
Ġf urn
Ġde bt
Ġgener a
Ġrom antic
n an
Ġtrans actions
Ġparticip ation
ĠSt age
Î µ
al pha
B ad
ĠS A
Ġwalk ing
Argument Exception
cond ition
m ouse
ĠSever al
1 17
ev ens
Ad min
M ove
Ġappoint ment
Ġincre ases
S V
in os
T Y
Ġwear ing
t own
A lex
ab a
res olve
en berg
Ġsub mitted
ig s
ĠPr imary
if le
NS String
ĠZ one
Ġreg ulations
ĠRes ources
Ġresc ue
Ġinteg rated
oth y
id ad
ĠOption al
ĠA y
Ġne ither
F uture
Ġst im
Ġgen re
Ġt ight
Ġpen alty
ĠB illy
Ġdecl ine
w as
uc ed
down load
Ġfam iliar
og ram
P ack
Ġpo em
Ġf mt
: `
ĠN AV
ĠJ azz
ĠL iving
ĠLank a
ed u
t ok
ĠSp irit
ĠAp plication
ic ator
W atch
ĠBern ard
Ġs oul
Dr iver
ĠS ets
Serial izer
Ġrough ly
Ġr ivers
; )
ĠK ath
ul i
ĠPr iv
Ġread ers
our t
ĠGu y
ob i
Ġcent ers
intell ij
L android
L ive
ĠCon vention
ĠCov id
ĠX ML
ĠR ange
Ġpro spect
ĠC R
aval ry
s is
Con stant
ĠOrth odox
Ġre verse
let ter
W arning
ĠN ad
ĠV erm
Ġex cess
ĠN i
p kg
ĠL ock
ie ge
ĠM aj
." ""
ĠCon n
t ers
He alth
Ġt ur
Ġgovern ments
Ġs b
ĠF er
et ition
Ġn ut
Rad io
Ġtransport ation
Ġret ained
lot te
w ik
ac cept
ĠN ord
Ġm or
A z
u art
Ġthem es
Ġbeh alf
Ġcomp ens
Ġbrand s
Ġan gle
ĠLINE AR
Oper ator
Ġgovern ing
b its
v s
ĠB iden
it i
Ġstay ed
Ĩ Ĵ
Ġsk ip
iss et
ol ia
ĠB ey
ĠB irmingham
ult ane
ĠSoc orro
ĠV ari
ĠQue st
Ġnorm ally
Ġexp ensive
comp ile
H ub
r m
back s
L imit
= \"
v c
Ġs ys
l at
Ġexpos ure
Ġprop ag
ĠEv ans
as hes
Ġprint ed
Ġsusp ended
b ishop
Ġdis k
ĠUp per
Ġc os
Ġst ats
Ġann ounc
t witter
Ġpaint ers
cre ated
MO DE
ub ern
ĠG un
m und
Ġconf ront
18 65
ĠWrit e
ĠIndust ry
Ġ' ';
Ġnorth west
Ġb ot
> )
ext end
ĠM i
^ ^
9 00
ĠM ess
Ġre putation
mer ge
Ġatt orney
Ġb ranches
m aking
10 2
/ .
Ġput ting
fe ed
ĠN ature
" ],
ĠW ind
ast ery
ot ing
Ġ' ',
ĠFin ancial
Ġall oc
Ġindic ating
in ating
Ġreg ul
valid ate
am ics
Ġb old
al is
Ġart istic
he el
Ġs essions
Ġphen omen
Ġfor g
Ġlog ging
ĠAthlet ic
M ouse
bl ue
ĠB asketball
Ã ¦
Ġfl ows
? ?
empl oy
ĠT ol
ĠR acing
ĠL ower
ĠCh ron
Ġc up
pl an
Ġco ins
Ġhabit at
ĠT ower
red it
ĠT ournament
Ġus ual
ry ing
ĠAp pe
Ġfinal s
ĠH orn
ĠSt orm
Ġint ention
ĠCommun ications
Ġo x
Ġr ising
Ġc ous
ĠOtt oman
Id entity
e enth
duc ational
ĠPol itical
ĠStan ley
Ġcompos ers
ib ilities
p in
Ġall Classes
v y
uc le
w inning
Ġwhere as
È Ļ
kw args
re ck
in ction
ĠH ub
D im
Sp an
Ġapparent ly
Ġpre ferred
em ale
ĠCl inton
Ġleg acy
ina e
Ġg ay
Ġpopular ity
ele m
um ps
ĠD h
Ġacc ord
Ġn a
ish ments
b ow
ĠallClasses Link
Ġvers us
og s
ĠUs ing
Ġ ur
ĠP ictures
Ġsp in
r g
ĠRes p
W in
ĠAnd y
( /
ge o
l arge
ĠE le
ĠP od
ĠH ope
Ġthous and
Ġvalid ate
ĠMov ie
O h
Ġal cohol
Ġt ags
ĠAdd itionally
ran k
Ġim prison
L ater
Ġcoast al
Ã¨ re
ij ing
Ġg iant
Ġdes ire
th rift
188 7
Ġassoci ate
Ġn urs
W allet
ĠD ictionary
Ġ} }
Ġcommun ications
ĠEx change
cont rib
Ġunder lying
ĠSt ruct
ĠB ud
rist ol
G P
s ocket
ust ed
Ġclass ified
s uch
ĠJon athan
S W
Ġqual ifying
ĠB ible
Rem ote
ĠĠĠĠĠĠĠĠĠĠĠĠĠĠĠĠ ĠĠĠĠĠĠĠĠĠĠĠĠĠĠ
av ailable
W ord
Ġs ight
b ose
Ġexpl ore
Ġweap on
ation Token
ĠEconom ics
Ġto m
Ġstrugg le
Ġperm issions
mir al
ĠHun ter
Ġadapt ation
Ġabs ence
re ement
Ġrapid ly
G R
Comp at
trans ition
Ġcon ver
Ġpop ulations
n ative
ĠMit chell
plic ated
ĠSI ZE
Ġread only
ĠC le
m ates
Ġg ran
ĠF reedom
¿ ½
Ġsu icide
Ġinvolv ement
ĠElement ary
â ĪĴ
op les
Ġas ks
g oto
Sh ould
AT ED
G ER
Ġwill ing
ĠB omb
Ġdebut ed
Ġreg iment
writ ten
re act
Ġass um
ĠJ e
ĠSer ver
P ress
D b
ĠB eg
ĠA ld
Ġl icensed
Ġdr iven
iv an
ĠCons ervative
Ġel der
ific ial
Ġcommand s
Ġfe els
ann on
ĠT ake
ĠM ut
C lear
Ġb ott
O F
J ack
Ġbre aking
ught ers
ĠSpe ed
zer bai
ix els
f g
B ur
ex it
is Empty
ĠCarib bean
Ġo cean
b uilt
Ġtr uck
ag ination
ĠStud y
ĠChar lie
ĠElect ric
Th row
ble m
ĠProfess ional
Ġcons ervation
ĠWay ne
Ġvict im
iz ard
Form s
ĠAtt orney
Ġmount ains
ac er
ĠBe h
et on
1 13
P red
Ġcirc uit
Ġc ursor
Ġide al
idel ines
Wh ite
Ġperson ality
Ġfl ower
it ime
ĠC ultural
spec ific
ĠColon el
ĠAd vis
Europe an
P lease
Ġcritic ized
Ġinstall ation
Ġwh atever
Ġadv oc
ĠGlas gow
Ġinvest ors
t ies
dis able
Ġprinc iples
ĠV ancouver
Ġvess els
Ġdef ence
ĠC ass
em or
å Ī
re v
B M
Ġbir d
ï¼ Į
Ġh at
Ġcross ing
Ġmem orial
Ġw ounded
ĠSte el
Ġcelebr ated
Ð ¹
The me
ov en
CH AR
Ġnot ably
assert True
Ġpath s
Ġcount ies
Ġsn ap
Ġp or
set up
ĠM ock
ĠDe ep
Ġsubstant ial
ĠC er
high light
Ġbeliev es
ĠB E
arch ive
Ġappear ing
C r
ĠW ing
ĠB Y
Event Listener
ur u
eff ect
Ġinf ection
Ġsuffer ing
Ġadd s
ĠI an
Ġd owntown
b one
ĠYork shire
u ke
Ġt ables
spe ed
Ġt elling
IL D
ĠK l
Null able
Ġfall ing
Ġ" ",
hatt an
M ag
urric ane
Ġround s
ĠClass ic
Ġd ated
au ge
ĠI ce
18 64
ĠBroad way
Ġtri als
s ass
ĠL oad
ĠĠĠ Ċ
Ġpre fer
O C
ag raph
Ġperiod s
Ġassess ment
B inary
writ ers
Ġw et
f iction
ãĢ Ĥ
Ġ Ñģ
it ure
ĠWar ren
T om
Ġcons c
ra ham
Ġemploy ee
s n
end ers
Ġregist ration
od o
ĠW as
Ġex clusive
Ġcancell ed
ĠHawai i
ĠCarl os
1 12
DE F
ĠE V
D en
et ary
ĠM L
p read
oust ic
ĠBar ry
st able
ĠP il
av el
bl ack
ot ton
ĠR ico
Ġoper ational
ĠPrad esh
Ġmark s
Ġlocal ity
Ġaff airs
face book
ult an
Ġen forcement
Ġdise ases
pos ing
Ġb atch
ĠThere fore
Ġf oss
ik o
aud io
Ġext reme
Ġpubl isher
Ġprov incial
ĠAb stract
Us age
188 6
ĠDef ence
Rec ip
iz ers
R out
Ġb rick
A udio
Ġf asc
Q ual
Test Case
Ġm ess
ain ers
Ðµ ÑĢ
Ġex ports
ĠAut o
/ "
pro duction
Ġdoll ars
greg ation
f i
: @"
18 61
Ġout break
ue z
Ġ( [
ï ¿½
Ġterm inal
ush ing
Ġpl ain
im ates
Ġent reprene
ĠC hel
Ġexpl ains
Ġfarm ers
Ġholid ay
Ġwould n
ber ry
ink ing
Ġload ing
N ormal
ad r
ĠU g
AR N
Ġign ored
m ill
epend encies
Ġt icket
it ations
Ġnav al
p df
Ġcr imes
ĠD B
ĠB enn
ĠAthlet ics
al ert
S am
Ġp ian
Ġph arm
AS K
å Ĳ
Ġstudy ing
f etch
ĠPro file
P an
ĠWAR RAN
LO C
Ġnewsp apers
S ep
ĠF ather
H z
18 50
C enter
Ġel if
ĠI F
ä º
ĠU pon
o j
AT CH
L abels
ĠO wn
Pl an
oper ator
H tml
Ġrec re
ĠPro tection
å ħ
ĠÐ ¸
G ood
Ġspirit ual
Ġliqu id
Sec ret
u its
Ex ecution
nav igation
Ġro ots
Ġsc ores
ok er
Ġrul ing
Con structor
ĠS ax
ĠMil an
Copy right
ĠS occer
Ġ" %
ĠSh ould
Ġs itting
ĠC os
# {
Ġman aging
ĠC F
ĠPr ice
ĠR and
Ġcred ited
Ġexplan ation
b c
or o
Ġd iam
T own
ip edia
Ġh ip
Ġconf idence
ĠCont ent
188 4
Ġsm ooth
Ġinc red
z ym
Ġth erm
ĠC arm
Ġto w
Ġelect ron
ĠK r
ides pread
b eta
ĠCat hedral
Ġsynt hes
le e
cel ona
Ġpay load
Ġlog ic
Ġda ughters
ab ul
Ġpr on
sub mit
s ample
av an
ĠNaz i
ath on
Feb ruary
ĠSim ple
Ġere ct
Ġstrateg ic
Ġconcent ration
ĠDer by
CO MP
ĠP ract
Ġrepl acing
Ù ħ
ĠJohn ny
Ġtra ce
Ġexpl o
10 4
" ].
Ġre con
umb ent
ĠÐ ²
Ġprison ers
ĠC G
us c
Ġind igenous
ĠF alls
room s
cl one
ĠO blast
b atch
rav ity
S ample
ort ion
usal em
ĠSal v
ĠF ine
Cont ents
ĠE dd
'] );
Ġthreat ened
verse as
C ONT
ĠNAV BAR
ĠK u
Ġp airs
ĠM other
an ne
ĠL A
ĠCon cert
Ġform ally
Ġbusiness man
Ï ģ
ach t
Ġm apping
() ),
ĠL P
ĠNev ada
= [
Ġcrit eria
lo or
Ġs a
Ġsouth west
Ex ample
ĠPer formance
' }
Ġmed ieval
Ġlaw yers
Ġ" ";
Y our
for Each
Ġsupport ers
et ry
ĠInd ians
nc ient
Cond ition
Ġdecl ined
or igin
g un
Point s
re pository
hip s
ĠĠĠĠĠĠĠĠĠĠĠĠĠĠĠĠĠĠĠĠĠĠĠĠĠĠĠĠĠĠĠĠ Ġ
al ph
Ġam azing
Ġencour aged
. âĢĻ
En v
ĠPark er
Ġfail s
Ġed it
aa aa
Ġsuit able
B ottom
ĠM all
ĠR angers
Sp anish
M obile
duc es
G reen
n ed
ĠRich mond
DO M
Le ague
line ar
Ġal ive
Ġemot ional
B usiness
ĠHind u
Ġg olf
Ġuns uccess
M art
Ġacknow led
e lect
b ie
read er
LE D
pr iv
L Y
Ġe ase
mem ory
AN G
Ġreve als
ĠU rban
J ew
t race
Ġcoron avirus
ham mad
al ymp
uk a
LO W
ic ht
v ing
Data Type
ĠG ray
Ġpract ical
x ic
ourn als
F older
ol en
Ġconvers ation
: [
Ġequ ipped
Ġdeleg ate
pl oad
ĠS uch
op al
UN D
ol ut
Ġprotest s
Ġem bed
Ġsuccess or
Ġpull ed
Ġactiv ists
ĠV el
Te am
Ġsp oken
ĠRem ove
on ian
ĠW ang
Ġelect oral
ĠRefer ence
ir k
Ġcol leges
C ALL
Ġmag azines
ĠDr ive
al g
Ġphot ography
ĠArt icle
ĠCl in
ot on
Ġdisc rim
B egin
j et
pol icy
Ġguest s
b g
Ġw edding
Ġcommit ment
grad le
ĠNorm an
Ġstar red
Ġcl imb
ĠM oz
D ATE
ĠO range
Ġcompet ing
ser ial
Ġlimit ations
ĠP ra
Ġs alt
ĠTh ose
188 2
ORD ER
i ology
Spec ial
188 1
Ġhealth y
ĠIl legal
elf are
ne e
b rand
element s
ĠTig ers
18 63
p arts
ear ing
Ġsat ellite
Ġident ifier
d uration
ap pro
eth yl
Ġrep air
Ġf antasy
ier ra
oc al
Ġpublic ly
ĠP ow
D rop
ĠD ays
ys ical
Ġwh ilst
Ġdefe ating
Ġrh yth
ĠG T
Ġsurround ed
Ġa ver
Ġhard ware
ĠFI FA
F act
ro v
ĠBuild er
ĠS ide
Ġsup plement
Vert ex
ĠL ud
ĠS even
Ġim possible
Ġman ifest
Nav igation
Render er
Ġqu iet
Se ason
Ġaim ed
Ġunc ertain
ĠMunicip ality
Ġsus pect
getElement ById
| }
Ġs in
ĠM ind
Ġ* ,
Ï ĥ
direct ory
ĠBelg ian
Ġs ocket
ĠCommission er
dep recated
B IT
ĠC ricket
iv o
am ma
Ġpot entially
T ur
Set ting
Ġg all
Ã Ł
Object s
Ġacc um
ST ATE
Ġsubs idi
ĠColl ins
m essages
ex pression
ĠH unt
ĠJ ess
B atch
ĠPh oto
ĠÐ ½
Ġswim ming
ĠSe lect
own ed
ĠF itz
sh ift
f olk
ĠFin ance
14 0
s he
tr l
ĠIn n
aj a
Ġhy per
Ù Ĩ
ebr aska
Ġstreng then
Ġass ass
10 3
ĠG P
Ġ' .
ier archy
Ġguitar ist
nob r
Ġar bit
Ġcon j
omet imes
ĠBar bara
j ack
t re
F n
ut ter
L SP
Rev iew
Ġal ias
St rategy
ĠS now
spect or
qu al
Res olver
Ġfl ash
ĠAl ice
F UN
Ġmeas ured
C he
b ian
Ġ" .
Ġgen etic
Ġsup plies
Ġcon vention
w d
ent le
ĠT oy
Ġoccup ation
1 16
Ġf aces
cont ents
ar an
Ġw orship
Ġg ap
Ġ' ./
18 62
Ġproced ure
Al umni
qu er
ĠM ack
j ax
ĠBen jamin
Ġrespons es
H or
Ġc ertificate
Cons umer
C LASS
Ġout standing
B inding
ĠSer ge
Ġ> >>
Ġreported ly
Ġf ictional
ĠAl bum
ĠG reater
Ġcomp iled
ĠAl aska
Ġinform ed
or ous
ĠFac ulty
Ġmod ify
ĠPh oenix
Ġunus ual
We ight
ĠSt ill
Ġcr uc
Ġpro f
ab e
Ġar c
Ġadvent ure
amp a
Ġfind ings
Ġtown ship
Ġnom ination
Ġnarr ative
T T
Ġven ue
Ġaf ternoon
M ont
re z
Map per
Ġrestaur ants
B eh
ic ing
ĠB achelor
. :
C ur
ĠN at
Ġaccur ate
Ġwood en
l icense
ĠM obile
st age
pl ant
" },
cel and
or f
Ġb io
Ġst ake
Ġm m
New s
Ġrep orter
Ġorgan isations
ĠN iger
Det ail
Ġdo ors
ache l
ĠP ast
Ġmach ines
if ting
l ive
Ġrest ore
FI ELD
T oday
Ġh ook
ĠM icro
Ġrepresent atives
Ã¶ r
Ġsub mar
Stand ard
Ġrespect ive
Ġelectric ity
Add r
ĠCr ime
Ġrece iver
Ġpo ems
ĠFl ore
ar ance
å ¤
Ġp seud
Ġt ort
ĠW restling
Ġvess el
Ġsim ultane
ĠTro phy
Ġ" [
Ġfilm ed
Ġg od
l iter
Ġpoint ed
Ġbr ig
m ay
ĠB ranch
ixt ures
Ġcook ies
Man agement
Ġdevelop ers
int eger
Ġagric ulture
k ov
sim ple
Un ivers
B ased
ĠP refecture
Ġinst ructions
Ġsur prise
ĠInit ial
UR CE
sub ject
S al
ĠG raph
ĠPh D
dom in
Ġforest s
Ġpl astic
ĠCom puter
h um
Ġrele g
Ġpresent ation
L ou
ig ator
for ward
Ġsil ent
ant i
ĠI gn
ĠAL IGN
inc inn
s qu
ĠNov a
Ġcal endar
ĠE sp
ounc ill
Ġshop ping
Ġop ens
Ins ert
Ġfor th
Ġcoll apse
ĠSerb ia
st ood
ĠDr agon
f mt
ust ers
ĠPer u
Ġelig ible
fortun ately
ĠS ex
Ġform ing
ass ign
ter ior
Ġviol in
ak ia
V ol
F ac
ĠU P
ent e
r ative
ĠM ak
form ed
ir th
Ġp ending
Ġe q
Ġw idespread
em a
Ġlow est
y t
over view
CO M
r ac
ĠL ag
Ġdepend encies
Ġg ram
b est
ĠGh ana
ĠBor ough
vert ical
="../../../../../../ ../
Ph oto
Ġproduc es
et o
Ġg ard
il ia
Fail ure
Ġcontin u
_ )
Ġleg s
ett a
ĠL yn
ĠT ab
Ġr ig
Ġacqu isition
UM M
Ġelim inated
Error f
Ġl iv
ĠB lood
Ġne uro
ĠS ongs
im ize
ĠConf eder
Z one
ĠDE FAULT
HE AD
e or
Ġup coming
Ġmon ument
sl ide
ĠS outheast
ĠB ron
Seg ment
ĠStud ents
ĠN BC
ĠSh a
ĠS R
ach i
Group s
em ed
Ġinher ited
R ound
ĠS aints
ĠT un
D id
! âĢĿ
C ounter
Ġking dom
Pre v
an imation
oc c
l int
Ġcoff ee
d rag
Ġf raud
( .
H C
ĠV a
T ri
Ġeff iciency
ath ered
ĠPier re
Ġor chestra
om on
s ig
li er
ĠMan hattan
ĠIn ternal
ster dam
Ġcompre hensive
11 1
s un
m akers
Th omas
ĠAn alysis
un ning
Ġcirc le
ĠS audi
n n
ĠK ap
Ġs weet
Ġexist ed
ĠC BS
ĠR ing
Task s
ĠVictor ian
ĠFinn ish
ha us
Ġdis appoint
ĠT it
sh aped
incinn ati
p ine
Ġc able
ĠJ oy
Ġab road
ĠJer usalem
Ġlist ening
as ant
ath ers
ĠEgypt ian
ĠShe l
Ġchar ity
f lix
Valid ator
Mo ths
ĠL ore
Ġbehavi our
Ġex clus
Ġup grad
A E
ĠM atch
Ġfunction al
Ġann ually
T ok
press ions
Ġg ro
ĠE ston
ĠT alk
at ial
ĠEnvironment al
ĠBeng al
ac re
Ġsl ot
Ġsim pl
A xis
Ġto k
ĠB rew
G old
b rew
ax y
Ġconv inc
it ro
Ġreg ime
ĠM achine
Ġinter action
ĠMed iterranean
sc ar
Sh ared
Ġl oyal
Ġfin ance
Ġcontin uous
t p
ace ae
c assandra
be h
v ol
ĠM yst
ĠL L
Ġaware ness
ent i
r atch
Ġs izes
ĠAnd re
ens ional
t ouch
pro gram
iff s
) ",
Ġemer ged
> "
Ġconnect ing
Ġcons ervative
Ġno ise
t w
ĠSt re
j Query
t f
Ġinters ection
Constra int
Des pite
C amp
187 6
I Z
ĠMag ic
en o
Ġgreat ly
ĠB ristol
B us
r ather
ĠA I
con vert
ĠG iants
d ays
ĠSt ra
iss a
ĠTurn er
ro duction
I AL
ĠIran ian
Annot ation
Ġinteg ration
F ocus
S ort
ĠG ot
Ġbatt les
build ing
sp acing
HER E
Ġmin i
ĠD raft
Ġconsider able
C M
3 50
N UM
ff f
Ġcred its
ĠAlber ta
187 8
× ķ
ĠH erm
Dem ographics
ĠTh or
r us
var iable
xy gen
ĠJ ob
Ġview ers
place ment
h ot
ĠÂ ©
Tim er
k an
Ġg allery
ĠJ ama
Ġpro hib
roll ing
188 3
ĠB urg
Not Found
ĠSy ria
d ependent
ĠSaf ety
TR Y
Ġend emic
Ġmiss ions
Ġap artment
Al so
Ġcontrovers y
Ġev il
be at
str ument
Ġinflu ential
Ġguid ance
ĠO t
/ {
ĠK os
ĠPar ish
V A
ĠEth iop
ĠCra ig
ur able
ĠHarris on
ak u
Ġpo ets
V irtual
z es
ĠMuslim s
Ġrespond ed
Process or
Ġint ellectual
Ġmom ents
Ġthir ty
k ar
Ġn eck
ic ul
Ġcontrovers ial
ĠM ans
Ġatmosph ere
Ġoccasion ally
Ġsurv ive
enn ial
ĠE li
top ic
Al bums
Ġp ipeline
Group Name
arg uments
ĠGu inea
ĠBe ijing
A SE
y y
ĠTra vel
Ã¡ s
ast rop
Ġinher it
Ġamong st
Ġs av
oped ia
Ġview ed
cl osure
et he
Ġ" '
Ġass emb
Ġoper ators
a ac
Ġcon clusion
R ate
= (
Ġran king
Ġrecip ient
Ġp atch
r ules
S il
Ġp ushed
RE D
Ð° ÑĤ
Ġgu ess
st ad
Ġdes ert
Ġassert True
i ya
Ġr um
T ransl
ä ½
Ġh aven
Ġind eed
Ġclaim ing
Ġlong est
ĠColomb ia
ĠD atabase
ĠTh er
Ġh orses
ĠS S
ĠC E
) }
ĠS id
Ġgu ilty
Ġa ria
Ġdest ruction
ĠP ont
Ġcas ual
00 1
ĠY ugosl
Ġloc ally
In f
Ġmed als
Ġf ault
Ġt urb
gener ate
B order
Ġd ub
exp and
ĠP oll
Ġrecover ed
bor ne
ĠPro test
enc ode
Ġaut hent
ext ra
Ġconv icted
ent ine
log o
w alk
St atic
Down load
Ġc inema
Ġconsum ers
Ġhy brid
Ġconsider ing
ĠComm ons
Ġvalid ation
Ġs ick
l icenses
im ir
Ġgu ys
ris on
ĠC S
Û Į
Ġstri p
ĠPri or
ĠY es
Ġcon gress
Ġdis able
V ICE
t l
i ors
ad ies
ĠW arner
Ġunder ground
Control s
se q
ĠAdd ress
the less
ĠBar celona
ĠF oot
Ġinterview s
Ġcomm une
Sc hedule
se par
ĠJ a
Ġd rew
Ġspec im
Ġman ip
Ġinvolv es
ĠRel ations
L and
O k
ĠW a
Ġsk y
Ġprov iders
p rom
Ġ' %
ĠChar lotte
Ġap ps
Ġdef initely
ĠR ot
erv oir
Ġdemonstr ated
f am
ĠU E
Ġbeg un
Ġd iversity
Ġdes ired
MOD ULE
ĠI van
G l
C ulture
Ġass ume
Ġtext s
ĠMar vel
Ġsignific ance
ĠPubl ished
Ġthe at
Ġmin isters
ĠB reak
âĢĻ ,
b et
ĠE ug
Person nel
Ġproced ures
ĠQu ery
Ġslow ly
ĠĠĠĠĠĠĠĠĠĠĠĠĠĠĠĠĠĠĠĠĠĠĠĠĠĠĠĠĠĠĠĠ ĠĠĠĠĠĠĠĠĠĠĠĠĠĠĠ
Ġfocus es
ious ly
c z
Ġm arg
H en
Ġstret ch
Ġperm itted
Ġchampionship s
ĠTh read
Ġst y
Ġfl ights
ong o
em it
Ġdim ension
] ))
ĠS eb
IN ST
Ġ{ },
ĠOper ations
ĠB ert
Ġnav bar
glyph icon
Ġb uff
Ġpart ition
ocr atic
Th rough
Rich ard
ĠStud ent
Ġconcern ing
ĠN an
LI ST
Ġb oss
ĠF err
th y
Ġ$ _
ex ecut
ĠLu ther
Ġeng agement
ĠH ost
ĠArt ist
S en
Th ree
Medal ists
Ġde ck
Ġdepart ure
ĠOl iver
m usic
ke ley
Ġre ven
ser ies
Ġtyped ef
Con sole
ĠFran ces
Ġappro aches
Ġfrequ ent
F P
ĠLiter ature
rem arks
T ex
Ä Ł
Ġp a
Ġim plied
method s
Ġconsum ption
Ġre un
viron ments
18 75
Ġp ref
Ġpro ud
Ġterrit ories
Ġmanufact urer
ĠOut put
arri ors
Ġinn ings
Ġappre ci
Log in
g g
âĢĻ .
ĠUnivers al
/ ">
ĠPol y
Ġ_ .
Ġin ject
f ake
ch anges
ĠL ess
ĠL eft
ĠS eg
Ġrece ives
Ġsold ier
on na
Ġ æ
Ġb om
Ġliber al
Ġs ax
ag ar
l ined
ĠChrist ians
comp are
Ġgener ic
ĠFle et
comm it
ĠM ig
10 7
l ater
it ol
get Id
st own
Ġd ual
Ġdon ated
am pton
raz y
ela ide
bas ic
Ġal pha
Y es
Cont act
ĠH ad
Ġad min
Dist ribution
ĠF isher
z ero
ĠMu hammad
l arg
ur se
Ġpres erved
ĠCh ap
ur ring
ĠA zerbai
. ),
A U
ĠAlex and
; |
18 00
ĠH ann
187 1
ĠFl ight
: '
"> (
Ġatt ributed
OR TED
Post ed
sp irit
Ġco aching
Char les
Ġas set
ĠL is
Ġdeploy ed
M essages
187 9
Ġe ighth
us k
Ġdescri bing
u et
r age
Ġch amber
ond a
rem ote
Ġmonitor ing
Ġop ponents
Ch art
Ġcheck s
Ġsp okes
fl at
om ent
ĠM aced
alyt ics
or rect
ort s
b d
resp ons
R ows
Ġearth qu
ĠF ab
Ġstrateg ies
H older
tim estamp
C LA
Ġpart ially
ĠÃ ł
Ġ ----------------------------------------------------------------
ox y
ĠTechn ical
ĠT ib
qu is
iment al
Tim estamp
ĠB ass
const ruction
18 67
Ġrun time
ĠBe aut
const ant
ĠSch olar
ĠN HL
Ġt ough
Ġelect rical
ine e
10 6
eg ration
> ;
. ;
Ġent hus
Ġindust ries
t ical
Ġmunicipal ities
rid es
Ġtr im
d iction
qu arter
ĠC row
is an
Ġpark ing
ce iver
Ġsh ore
Ġre ducing
ĠCost a
trans action
ar as
R ules
RE E
Ġb orders
writ ing
W ell
ĠVin cent
ĠS end
Ġin hib
Ch ain
ob e
Ġs wit
p res
ĠS ay
P G
Ġcont ribute
Ġcheck ed
ĠCo al
ĠSt even
IC ATION
ĠC ell
in ar
Ġran ks
r pc
UT H
ĠL ost
ĠA pr
F ire
Ġparliament ary
Ġt ill
ĠS elf
Ġam ateur
= %
O bserver
ateg or
Ġto ler
clud ing
Ġprinc iple
Ed ge
Ġman ual
ĠBuff alo
qu ote
ĠO il
ĠY am
Ġenh ance
ip es
ĠJ erry
hemat ical
Ġcap abilities
Ġd ire
Ġinc idents
Ġscient ist
re po
ĠDe lete
ĠB ond
ag ma
Ġsent enced
oph one
Ġfund ed
Ġcous in
STAT US
Cont in
s ol
Ġhealth care
Ġphotograph s
Ġin duct
Ġl ie
ĠP el
ĠW IDTH
Ġcap s
Ġphys ics
Hon ours
N I
ĠG round
r f
Ġhistor ians
ĠCon c
ĠN ebraska
c ity
Ġunivers e
s b
ĠV as
en ers
Ġpriv acy
ed a
ap ing
ad oc
Ġwor se
z ant
Ġprofession als
B ounds
el astic
Ġtrans formation
ash a
Ġfund amental
ĠRepublic ans
hel m
hol m
Imp lement
Ġshe et
ĠInst agram
ĠH ave
P resident
Am ount
is o
ĠB aptist
ĠRoman ian
Ġh ospitals
Ġposs ession
ew ay
Ġwel come
a que
ĠCon vert
ĠW ord
cy cle
Ġpremi ere
ĠB und
ĠV lad
Ġpark s
B uff
ĠS ad
Ġcorrect ly
ĠLe ader
ph rase
Run ner
ĠAnn ual
Ġf ighter
Ġde leted
Ġre act
Ġt ip
Cont ains
ĠD id
Ġb are
× Ļ
ĠB ot
Ġtemper atures
Ġc odes
rypt ed
Tax a
ĉĉĉĉ ĉĉĉĉĉĉ
om o
ist ani
s che
The n
ĠU SS
link ed
Ġportray ed
ĠF am
Ġamount s
P res
18 68
Enc oding
ĠM ol
Ġimprov ement
id al
Ġatt ending
ĠEx p
ĠEx pression
$ .
Ã ½
187 3
ic ates
ar l
Ġst em
te enth
ĠCub a
ĠB right
ĠP i
ĠDel ta
display Name
Sign ature
F R
Ġbound aries
Ġbelong ing
uck land
Ġin sect
Ġexped ition
ĠGon z
P eter
n eg
d ot
n os
K ing
ĠSym phony
R oyal
h is
Err ors
ĠR aw
Ġcl othing
Ġ' ''
cal endar
cf g
ĠL loyd
en ia
ĠCh air
met ric
187 7
Ð¾Ð »
g om
alle st
m obile
Ġch unk
G overnment
Ġb ath
Ġviol ent
ĠP ython
C HECK
Ġtri be
Ġremain der
ĠSh ang
Ġval uable
ĠNich olas
A bs
Ġmanufact urers
ĠIndust rial
B ul
ĠL iga
Ġpred ecess
ul se
Ġvis its
im m
Ġinnov ation
po inter
Ġan ime
ĠCamp aign
Ġst ick
Ġinter val
A SSERT
Y Y
Ġact ed
AT OR
P ower
uss ia
ĠKir k
ĠV I
Ġâ ĨĴ
ĠLin ux
ack ed
) [
s afe
ĠS ig
Ġfew er
p ages
Ġcomp iler
Ġgu arant
St age
head ing
uck er
al am
ĠSerb ian
v als
Bl ue
Ġclos ure
Ġdiam eter
Crit ical
ĠS umm
ĠAl t
Ġcab inet
m atrix
= -
ĠMin or
ĠSpring s
v endor
Ġautom atic
ĠL ate
Ġn ominations
AT TR
Ġgrad uating
Ġb at
Ġthought s
Academ ic
M ass
d k
CON FIG
ĠKen ya
187 2
u uid
Pr im
ĠAnt ar
Ġmill ions
d iff
Ac cept
akes pe
tr im
ĠTerrit ory
Ġth in
Ġdelay ed
ĠR AF
al ink
R a
Ġprote ins
ar se
p aper
ĠP le
Ġencour age
Ġkey board
ĠWhe ther
ix on
Ġt d
Ġg al
Ġpass age
(" #
ĠH IV
á º
um i
olut ely
M s
Ñ ħ
Ġelse where
( \
Ġdet ected
Ġbirth day
ĠDen ver
Ġannounce ment
Ġm oral
Ġsub mit
Ex port
Ġarrang ement
Ġant icip
Ġa ims
G allery
Ġposs ess
Ġform ula
Ġcomm emor
ĠF ish
d istance
ĠH udson
Ġart illery
Ġsuper ior
ĠR ank
r ity
ir s
Ġbo ats
Ñ Ĩ
ĠB ath
ĠSt op
Ġstream ing
om ing
Ġliter al
Ġme at
Ġsh ots
ĠFri ends
Ġsustain able
Ġplay offs
Ġd iet
ĠY u
Ġt orn
ĠM asters
ĠAm sterdam
os c
Ġident ical
R andom
Ġlog o
187 4
Ġpe aked
Ġs ke
Ġbel ongs
grad ient
Ġcan vas
TER N
def er
Ġattract ed
ĠD oc
Ġb le
ĠS alt
Ġlab our
Ġf etch
à ¦
CO MM
Ġhon our
NO DE
Ġcl ip
ĠS W
ĠS or
om es
ĠFor um
att ed
Ġsit uations
ĠC ob
Ġfe es
ĠS r
Ġsurv iv
Ġdet ection
ĠCh and
ĠBO OST
ĠS ah
ĠLu is
Ġprepar ation
e per
us r
ĠMur phy
ore st
Ġimpress ive
ĠR ic
upl icate
ĠV iol
Ġ( #
Ġ ig
Ġmonth ly
.* ;
ĠCh apter
Ġinitial ize
Ġeng age
Ġqual ify
Ġover l
ĠT ogether
18 66
Met rics
ut o
Array List
ĠCan al
Ġse gments
ĉĉ ĠĠĠ
Ġoccas ions
b ane
ri en
Ġdistingu ished
ĠZ e
ĠConfig uration
Ġpres ents
ag i
S plit
Ġdu o
ĠB our
onom ous
P rom
Ġm anga
it ual
ĠMont ana
erv ing
S ide
Ġsurv iving
Ġcampaign s
ĠP S
Ġ| =
P HP
Ġphil osoph
Ġput s
ĠM alt
In ner
ĠInt elligence
Ġchar ter
ĠÃ Ĺ
ĠCirc uit
> '
Ġran ges
ĠSt evens
Ġob vious
ĠMun ich
ĠR O
Ġrem oval
ĠI celand
Fe atures
Ġl ayers
Fl ora
S napshot
Ġcomp atible
ok u
ĠF u
column s
t ail
Pr imary
Ġdem ands
et ies
ĠPun jab
Ġf ib
S ocial
TI ES
ĠTr inity
Ġmod al
Ġisol ated
Ġrep ly
ars ing
Ġâ Ĥ¬
ĠD iamond
ĠM ey
10 9
Ġg ear
Ġserious ly
ĠSt ein
Ġrad ical
M el
âĢ ī
l am
ile vel
ĠT u
Lo op
Ġ" >
ĠEd wards
ĠB ris
ĠC old
( ()
Ġtim estamp
: \
ĠL ions
url ing
Ġess ay
ĠB ird
Ġgen es
LIC ENSE
ĠG rey
Disc ography
F OR
ĠMad ison
F ace
h istory
Ġmount ed
an ion
Ġhon est
Ġsk i
i u
W ar
D irection
Lin q
ĠK il
g ence
ĠD raw
rel ation
Ġbig ger
< <
Ġregard less
ĠKe ith
Ġdog s
pol y
Ġmechan ical
b lob
B ool
Ġcl im
ĠS yn
ĠE c
akespe are
ĠF if
ĠB ody
Ġun expected
T y
ĠPer ry
ĠBer g
Ġbre ast
Ġpod cast
IL ITY
Ġfeed back
en ess
ĠC ancer
en os
Ġm igration
rypt o
18 69
Ġsquad ron
Rep ublic
Ġpet ition
ĠT on
Ġg rey
atern al
ĠSt ories
ĠCl ay
class Name
C md
Ġris ks
Ġexper iments
Ġw ider
Ġyoung est
Perm ission
Ġdeploy ment
Ġaggreg ate
Ġre pository
ĠPro duction
And roid
Ġgrad ually
Ġover flow
Ġinnov ative
Ġtro uble
18 40
ĠCont emporary
K it
UE ST
ĠSh aw
ĠEag les
ĠM ason
Con verter
Ġfeel ings
ric ks
Ġcomment ed
z ed
ĠSing le
**** **
ĠR at
ĠRob in
Or d
B ooks
ĠD A
HO ME
ĠCont ext
Ġl ots
Ġv m
Ġengine ers
) -
Ġele ven
Ġphys ician
Ġmart ial
ab et
Ġ< -
ra h
Ġlast ed
Ġimprov ements
over e
G rad
;| &
oid s
Afric an
ĠY ang
Ġbi ological
ro se
ĠAng l
Ġinsp iration
Ġdel ta
Bet ween
ĠTri b
Draw ing
ĠG race
Ġs ad
script ions
Ġarchitect ural
on ies
Ġco operation
> ()
Ġstat ue
Ġra ising
in x
G ui
ĠDr ag
ĠL ot
Ġre vers
Ġclass Name
Ġminor ity
Ġcolle agues
Arg uments
Ġcollect ive
Ġexclus ively
Ġobject ive
Ġop acity
im plement
ĠCre ates
Ġconvent ional
Wh o
Ġmer chant
ĠEn s
ich i
Ġdou bles
Ġdecl are
Ġhel ic
ĠBy te
ĠO C
o ard
Ġinterpret ation
Ġorgan ic
pl ot
Ġdef ending
Ġelev ation
Ġag es
ĠM ann
log ging
ss l
Ġdis aster
Ġrest oration
ĠMor oc
ph an
/* !
Ex ists
Ġhand led
Ġob lig
ĠĠĠĠĠĠĠĠ ĠĠĊ
g if
ĠL arry
Fr ames
Ass embly
ĠSh op
Ġrequire ment
Ġrot ation
Ġs ugar
ĠIS O
à ®
Ġcom ics
Ðµ ÑĤ
Po jo
Ġw restling
ĠM es
Ġdeal ing
Ġn est
ch arg
E val
ĠK ay
Ġpurs ue
10 8
Ġpack ages
Ġb one
M aterial
Ġj ournals
ĠL evel
Dep th
Ġpromot ing
ĠGl en
Ġinstrument al
ac a
Ġb anned
Ġfest ivals
Ġ ^
to Be
ĠC lear
Ġw ings
Ġre ward
Ġper cussion
W IN
Ġp s
ĠArab ic
ĠFe ature
Ġsp ir
Ġst ead
create Element
Ġpay ing
Ext ensions
Ġspe aker
c aster
c rit
ĠP ic
UN T
Ġtax es
Ġcou ples
ĠAd elaide
ens itive
Ġconstit ution
Recip ients
ĠWARRAN TIES
Ġbreak s
ĠT erry
Ġdevelop er
Ġb ug
ĠT arget
au er
Ġc ul
g ood
Res p
Ġrare ly
ent o
ĠGr ade
as ia
in ery
he ets
Ġsurv ival
iv ic
Ġreg ulation
Ġc urrency
L ondon
Ġlegisl ative
M ust
Ġst roke
Ġpriv ile
ĠG ay
Ġ` ``
UMM ARY
Ġl ibraries
DE X
ĠConst ruction
Ġbo ot
Ġph rase
Res earch
Ch inese
Ġmod ules
ro st
LA Y
ĠSus an
ĠAct ive
ij i
( ['
equ iv
om atic
A K
Ġres emb
anth rop
L icense
T ile
ĠL an
ĠB uch
b n
ĠSh ip
Ġrestrict ed
0000 00
au kee
Ex pected
(" %
Ġst ops
pl ane
Ġsk ill
Def unct
S ame
step s
im p
ub a
iat ric
ĠS M
ĠS ony
Ġl ux
Profess ional
Ġsec ured
Ġcut ting
Ġsac r
ĠC ad
ĠP romise
ub ble
g re
An n
ĠM ach
Ġpat ent
Ġf s
ĠQu arter
Ġop ponent
ĠSm art
Ġpay ments
Output Stream
ĠRog ers
ĠCru z
pl ed
le v
Ġ{ %
os hi
ĠW es
Ġsubs cription
Ġcons ent
ĠBas ic
d al
S U
ou p
ĠI ter
Ġfact s
ĠK un
en h
hem atic
ĠDe cl
ĠPhilipp ine
ĠIn nov
ĠRepresent ative
cent ral
ĠJ son
can vas
Ver ify
Ġf older
ĠG as
LE TE
ĠLu ke
Ġafter wards
Ġeval uation
ĠArch ive
ĠS ox
ĠK rist
li bs
m apping
Ġtravel ed
Ġas c
ĠClass es
Ġgraph ics
Ġen umer
ell ion
Fe ed
ĠL ion
A thlet
ĠMean while
ĠB es
ĠR ule
ĠL ex
Miss ing
S elf
Ġlocomot ives
OR K
Ġne utral
V C
r ise
ĠC B
Ġret ain
Ġsign als
Ġb ars
ĠO cc
ĠG lob
ĠT otal
ar in
Ġcharacter ized
M ad
U pload
Ġfl ed
ĠR ivers
ID E
ai ro
Ġaccomp any
ĠP erm
abl ing
Ġcoal ition
ri ble
S ever
p iece
66 66
A I
Ġass ignment
circ le
book s
ĠMer c
ĠB og
ĠC atherine
L aw
Ġfor get
Ġdim ensions
Ġun cle
N a
ĠT ry
ancell or
Ġcelebr ate
{ \
Us ing
is i
Ġg ross
view port
Ġbre ath
ĠSe an
Decl aration
Ġt sd
ĠL ux
ĠW alt
u ates
Ġinput s
is ch
Ġro ster
pl aced
ĠJeff erson
Ġhon ors
Ġl ights
b ank
ch art
Ġvent ure
ĠVo iv
Ġattempt ing
patch er
Ġdou b
b inding
s f
ĠUE FA
ĠV ic
Ġen zym
ick en
Ġsp ell
th lete
Ġdisestabl ished
G IN
Ġc ounsel
valid ation
ring ton
Ġap ilevel
__ )
ĠLear ning
ract or
Ġre plic
Ġdo ctors
V AR
Ġflo od
is ons
ash board
Ġhead ing
ĠNep al
cript ions
ar th
Ġbl ind
w iki
Ġorgan ised
Mon th
E conom
Ġge ometry
Ġdis pute
T our
ens ively
Ġde als
T AG
Ch arts
Ġcontract s
ourn aments
Ġread s
ĠCol umn
Ġbl ank
Ð ±
Ġh al
Ġres olved
G C
ov an
Ġg ate
run ning
Ġne arest
Jew ish
us p
ĠM IT
col lect
fin ite
ĠTre as
Ġt ies
d ark
Ġsynd rome
h pp
ĠT i
Res et
ĠDemocr at
ĠAv iation
C ursor
ann i
u in
e ing
Ġarch ive
er k
m embers
ĠAl tern
Ġparticip ating
ĠM ix
Ġreve al
ĠV ent
Ġsl ave
Ġcl one
ĠForm ula
A ST
Ġrel ating
ĠFinal ly
get Instance
S y
ĠN othing
.. ."
L IN
Ġp in
ane ous
A meric
Ġj unction
m other
å Ń
Ġs oph
ist ered
ifest yle
Ã ī
et e
H ave
Ġim g
ĠTreat y
ĠC incinnati
Ġwebs ites
ĠRead ing
Ġunder stood
Ġten ure
Ġwat ched
ĠK le
ge bra
OP T
Mus ical
ik es
iz a
w arn
Ġcomplet ing
at ile
osp el
ĠHe avy
w aukee
Ġun like
Us es
on ing
ĠMunicip al
Ġl ieutenant
Ã± a
ĠAt hens
g ems
1 18
ig ion
ĠG oth
ĠH D
ubern etes
ĠAnt i
Ġw inds
L D
SO URCE
ĠArch ives
Ġm os
" }
Ġcond em
S ir
W el
Ġd ictionary
f our
Ġd ominated
ĠA uckland
ĠP in
Ġpat rol
ĠVenezuel a
W I
g z
ĠP O
Ġout come
E lect
ch arge
ĠArab ia
int ers
Ġconcept s
odes hip
ort on
iz on
ĠQ ual
Column s
Ġspons ored
D ependency
Ġdem olished
ĠM aterial
Ġf irms
Ġf inger
Fran k
ĠCons erv
Ġrecogn ize
Execut or
Ġt ons
ĠGuard ian
ind a
e lected
Ġh ole
ĠL com
ĠM end
ro at
ĠS ultan
ĠArchitect ure
ater al
ĠÐ º
ĠNe ed
ĠMon th
Ġsub stitute
ĠC urt
L ib
Ġ' "
stand ard
sc ala
p ent
ĠB M
ĠE SP
Ġte ch
act ual
Ġinter act
ĠHer z
ĠDO M
Ġb ull
Ġj ury
(' <
Ġf abric
ĠS old
Ġp owered
C ancel
Ġch rom
L uc
Ġpart ly
ab c
it ivity
ĠS oph
N P
ĠChristian ity
ĠB eth
Ġdecl aration
ĠEnc ycl
F ri
M ale
Ġess entially
B razil
Count ry
ĠBroad casting
ĠIt em
Ġsp ark
Ġl os
at che
ĠH amb
act eria
sh are
Ġthan k
ĠW onder
Ġde pression
cal c
ĠWork ing
. \
Ġt unnel
ic us
im o
185 9
ĠF ast
ĠS UMMARY
Ġhe ll
Scott ish
Ġdrink ing
ĠP aper
Ġc ogn
ĠBer keley
au i
L at
Ġtri bes
Ġt rick
ĠR ams
Ġmuseum s
Ġcont ested
Ġrock s
Ġrow span
ull ivan
N V
Ġt one
st mt
Ø ¯
ac les
ĠRe lease
ah u
Ù Ī
Dep recated
ĠS z
Ġestabl ishing
Ġaltern ate
Ġrepe at
ester day
Ġend point
conn ected
Ġ ib
Ġdepend ent
r ates
res ize
Ġr ated
og an
EN V
ĠM ade
T ouch
ĠU til
Ġeg gs
Ġarr ive
Ġre aches
Ġcor ruption
om i
Ġc argo
Ġdomin ant
Ġbl ow
rel ative
18 48
I l
ĠSt uart
Ġperm it
ĠVoiv odeship
Ġt issue
Ġn am
ĠHoll and
Ġant ib
ĠHor se
ĠWat son
Ġaffili ated
ĠCal c
Ġconcert s
Ġtrad itions
o ons
P romise
lik ely
Ġinf antry
ĠJ en
enc oding
ill iant
Ġre ndered
ĠEx ample
R UN
ĠAct or
c ancel
p b
Ġhun ting
b ug
An alysis
Ï Ģ
M achine
Option al
ĠK E
ĠK ate
Sw ed
ĠW u
Ġ- =
form ing
atter ed
Ġs ampl
repe at
Ġex tr
Ġj u
ĠJust in
Ġd st
50 9
iffer ent
ex cept
Ġfr ust
Ġent ities
umb ai
Ġmat hematics
quir y
st ock
ĠO pt
intend o
load ing
UB LIC
ĠNash ville
Z ero
ĠHer bert
> %
Ġv ital
et ics
ID S
Ġed itions
è ¯
ĠD ra
sequ ence
Ġnob le
rele ased
Ġb ases
yg on
Christ ian
Ġb ridges
ĠF actory
ling ton
Av ailable
Ġdismiss ed
Ġtarget ed
Ġreal ized
iv ities
J ose
ar ity
Ġhop es
ĠS ession
il o
Ġpack et
T or
Ġleg it
Ġran ging
ish a
ĠH ob
Ġplay off
pre ter
ip per
Ġport rait
op ens
Ġbon us
Ġdec ides
H A
ĠV e
Ġm ines
RE CT
ĠAb u
Ġf er
Ġsudden ly
Ġexc ited
Ġsequ el
op ol
ac co
Ch anges
ir ts
ĠA ber
Ġout door
ĠB uc
En able
ĠAbb ey
Ġa qu
ĠCh i
ĠPol itics
ĠHel en
Ġart ifact
run ner
Ġup grade
HO UT
ĠSh akespeare
ĠFri end
Ġbe ating
ĠE C
Ġstruct ural
Ġconf ident
Ġcol ony
F our
ĉ čĊ
Ġut ility
ĠBut ler
Ġmix ing
ĠH az
Or igin
S ervlet
c ott
Ġdis plays
Ġus ername
ĠG host
bass y
Ġfair ly
ĠSocial ist
Ġn s
he art
Ġb ay
LE MENT
? )
External Task
ĠSh ar
ĠÐ ´
F oot
Ġr iding
ah l
ĠF ont
l it
t imes
Ġtok ens
ĠB aby
ĠDel aware
Co in
ĠCo q
Ġbus y
ĠS uz
Ġp ace
Ġr ational
ĠN ear
ert on
Ġth reshold
ĠL en
ep age
Ġm ilk
m ade
ĠWith out
Ġtext ure
ĠPar alymp
Ġjuris diction
on ical
Ġplace holder
Ġb ag
ĠThe ory
se lection
Ġpre domin
s per
Ġdis order
ĠA round
ĠFil ip
ĠB loom
Is rael
d st
Ġh unt
Ġc ow
Ġev ac
à¤ ¾
inn ed
H ung
Ġinaug ural
Ġveter an
ĠOtt awa
ĠD ou
ĠR aid
ĠM ail
Di agnostics
Part ition
ĠForm er
ĠSing les
for ced
185 7
gener al
Ġt ribute
C ross
Ġvolunte ers
ĠB ald
. ',
ExternalTask Pojo
Ġc b
Ġw idget
Ġsh ipping
el ia
Ġsh ops
Ġconstit utional
i ated
Ġo verseas
c red
r h
Ġbut ter
Ġco in
hen g
Ġl ic
link s
2 20
ĠVerm ont
Ġsl a
ĠM orning
Ġpe oples
gom ery
IM IT
Ġm ath
Ġany where
Ġn ep
SP ACE
ĠThe od
Ã© r
ĠEl li
ch at
cre ment
ĠLa ura
ĠFurther more
ĠS oul
Ġem issions
ĠL ar
Ġspe akers
Ġsettlement s
Ġprot otype
ĠNor folk
Ġ( ).
TH ER
I ss
G EN
Ġcarri er
Ġdialog ue
ur ities
ro e
ĠBulg aria
ĠW ait
Ġvis ibility
Ġinter vention
Ġcivil ian
] +
Ġcomp ound
Ġgrow s
Ġimprov ing
Ġmain stream
Ġcompet itors
Ġro bot
al ias
... )
ĠNe il
t ensor
G rand
Ġtrad ed
l ab
Ġexc iting
com pute
T uple
Ġconsequ ences
ĠD rama
ĠS ak
Ġm arch
Ġob st
Up dated
Ġmurd ered
ĠPen insula
Ġl ingu
Ġcross ed
ĠKe ep
az i
ĠHis panic
ĠĠĠĠĠĠĠĠĠĠĠĠĠĠĠĠĠĠĠĠĠĠĠĠĠĠĠĠĠĠĠĠ ĠĠĠĠĠ
ĠG olf
ĠK ill
ĠF un
ĠB ear
at ibility
Ġgrand father
i eg
Te chn
Run ning
Ġh ub
am y
ÑĢ Ðµ
b ird
com plex
Ġcontribut ing
ous ing
Aut hentication
Ġiter ator
SS ION
d anger
g em
spir acy
Ġsymbol s
ĠAl ong
Ġdis contin
Ġlif etime
Ġsubsidi ary
Ġgu idelines
Ġfail ing
Ġscholar ship
Ġpar a
Ġfoc using
iber n
ĠCons ervation
ĠNAS A
Ġeconom ics
ĠT ang
get Class
art a
Film ography
. [
av ier
UR N
æ ķ
oc om
Ġcut s
Ġstream s
ff ield
ĠPers ian
ers et
Ġtrack ing
Ġtw in
h alf
Ġimm igrants
ĠST ART
Ġmark er
Ġinvestig ate
ĠClar ke
Ġdevelop ments
Ġ uri
Ġs le
OL D
ĠLog ger
f ers
it ative
reg ular
Ġinc orrect
ĠBy zant
ĠAp pro
Ġac oustic
ĠOver all
Cre ated
roll ers
FF ER
ĠNew ton
Ġphotograph er
ĠT as
EN CE
og g
w ind
cl i
ĠI v
ĠD od
ran o
th al
< >();
Ġmat ched
ĠCon stit
ul ates
ĠH ugh
th ree
all ing
ĠI C
ĠWith in
ĠP red
ĠO K
A ctions
Ġt el
Sc ore
Ġbe er
Ġred irect
ĠPl atform
0000 000
%%%% %%%%
Ġed ges
Ap pe
Ġm amm
Ġn inth
Ġco oper
Ġe arning
Ġdemocr acy
ĠDo es
ĠPhill ips
ĠPeters burg
Be en
ĠD ol
../../ ../
re ens
Ġg athered
S aint
Ä ĩ
Ġbroadcast ing
am er
ĠAl ger
Ġs isters
S ound
Pl ayers
ell ows
Ġt ickets
con cat
ol ition
18 30
isc al
cont act
Ġiniti ated
ĠS V
ĠPl us
ĠGerm ans
Ġnecess arily
ĠA w
ĠR av
Ġex ha
Ġmake up
ĠTransport ation
Ġexplicit ly
rout er
ĠV ict
ĠVAL IGN
Ġcho ices
t ri
ĠW ik
Ġpres erve
on ial
ĠS oon
ĠS ierra
Ġvari ation
Ġw ard
185 4
Austral ia
ĠUs ed
ĠCroat ia
Ġmin imal
Ġt ape
Ġchalleng ing
Ġp ump
unk nown
ĠAr c
Ġfl uid
load ed
ĠM ulti
un lock
ĠD ise
Ġdram atic
d ing
if i
Ġall iance
Ġhe nce
ĠJ erem
P ut
Ġesc aped
MP L
Ġdeep ly
ĠT ed
FI X
m ag
24 0
l ies
Ġsimultane ously
or p
Id x
ĠIm port
ĠP ick
Ġor igins
ĠWork ers
RA Y
ĠTh under
ĠO P
Ġemer ging
ĠStan ford
Ġprint ing
Own er
ic it
================================ ================================
Ġenem ies
P acket
ett ers
": "
lin ux
B road
leg iate
ĠIm mutable
get Type
Ġport s
ĠBob by
Ġall ocated
Ġf ur
} ",
Re ason
annot ations
L ove
c ounter
string s
Ġperson ally
Ġdepart ments
Ï Ĥ
G M
Ġo m
el o
h all
ycl ing
und a
R ock
Ge ometry
Del ay
p ad
A ff
UC CESS
ov ich
S witch
Ġcalc ulated
ĠTh ings
st rip
ĠCh a
Ġour s
E r
ĠD ennis
ĠAg reement
Ġaddress ed
Ġn ucle
Ġpal ace
Ġass ists
Ġlap ack
Ġnegoti ations
ut ton
ĠJ ar
s q
E ven
ev ille
cu ador
ĠL LC
ĠBro ther
or um
get String
Ġt ensor
Ġw arn
Ġcarri es
at io
ĠAgric ulture
Ġext ensions
th ird
ĠD ig
Ġd ose
Ġkind s
get Message
ise cond
ri ke
AV E
ĠArgent ine
ign ore
ĠInd ependence
ĠAir lines
ĠEnt ry
j b
P aint
ĠCom merce
Ġland ed
Football ers
Ġpre st
Ġch ron
Ġarrang ements
igg ered
Ġap plies
Ġdis ag
Ġdifficult y
185 8
c ourse
Ð¾ ÑĢ
> \
ĠEv ents
min ster
Stat istics
F ixed
Dec imal
am ount
oy s
n of
ĠNet flix
Ġg ymn
ĠUn like
c ursor
m k
ĠP av
ĠR alph
Ġj s
Ġsp ots
Ġfavour ite
Ġen vironments
ĠS uccess
ĠAdv anced
sc ore
ĠK id
ĠU RI
or ious
ĠArt illery
Ġconsc ious
s elling
at ra
ant astic
Table Row
Ġpl enty
ĠPro ductions
Struct ure
Ġfoot age
Ġenc oded
ĠS Ã£o
Ġover w
Ġfast est
Ġo xygen
Ġin tern
Ġform ations
V I
Ġt ournaments
ĠC itiz
ĠCl imate
Ġp ale
Ġkey boards
Ġp arsed
C art
Ġch apel
ĠN ak
Ġprocess ed
U nd
ĠHug hes
4 50
> ${
F ALSE
Ġreview ed
ĠH av
former ly
rit ion
ĠM ul
ĠL ie
Ġpat ron
con current
Î »
ĠG or
Ġhel per
Ġbe et
ĠLe eds
ĠW ells
L ite
ĠScient ific
U CT
Ġkeep s
Ġ( @
ĠM uch
s r
Ġrun ners
re ason
m iddle
Ġsusp ension
Ġt anks
ĠL I
b ek
ro d
CE PT
B ecause
ĠG row
el in
Ġcan n
Ġfor wards
ĠDi ocese
ĠIm m
B ill
AC H
Ġh yd
Ġatt ractions
b inary
w oman
ĠNew castle
ust ain
Sh are
ĠPar se
ĠG ang
Ġfun eral
ec ca
de ep
ordin ate
ingu ished
th umb
t v
S qu
alt Color
ĠA uth
ĠJ oint
ĠM oney
B ER
c in
d jango
Ġcomp lement
ĠHe brew
st roke
ah an
Ġsl ide
og ical
cre ens
t z
do i
Ġord inary
Ġa apt
ĠH em
J ud
ans k
Ġmin istry
Ign ore
Ġref resh
agon ist
Ġthe ories
s pl
Ġr itual
Ġmaint aining
Ġac res
ĠK i
ĠArt ists
Ġh ang
T L
ĠCo ach
act ers
ĠC C
ect ors
Ġest imate
te chn
Ġj ew
ĉ ĠĠ
Ġnot ification
d irection
Ġg host
Ġ-- ></
ĠMod ule
ĠA udio
Ġpers u
Ġinflu ences
ĠAr nold
D ig
Ġliter ally
ĠLabor atory
gener ator
å Ĭ
Ġrev ised
Ġcomp ute
" ];
Fore ign
ĠS cript
L ittle
m ix
ĠV oice
Ġchem istry
Ġcount s
Ġd ump
Ġlaws uit
Ġillust rated
U ES
Ġdefend ers
Ġh orn
boy s
oc o
Ġsumm it
Ġl ung
Ġmem or
Sp ring
ry s
c apt
ĠN g
"/ ></
est yle
Ġf ert
18 55
Ġcelebr ation
ĠĠĠĠĠĠĠĠĠĠĠĠĠĠĠĠĠĠĠĠĠĠĠĠĠĠĠĠĠĠĠĠ ĠĠ
Ġc ock
Ġch ronic
M ex
Ġdecor ated
ast ed
ĠN athan
Ġrat ings
ins ky
Ġde emed
St ub
Ġs oc
Ġy es
Vis ual
p od
n ut
ĠEp isode
Ġpro secut
ĠMethod s
Ġsculpt ure
M ary
ĠPhys ics
ĠP resent
Ġtempor arily
ĠÃ ģ
om ed
spec ies
ĠArg ument
Ġart ificial
BU ILD
ĠEdd ie
m ms
s heet
Ġthreat s
ĠĠĠĠĠĠĠĠĠĠĠĠĠĠĠĠ ĠĠĠĠĊ
Ġentreprene ur
com b
ĠPhil osophy
W ater
ĠSud an
Ġf atal
Ġm orph
ĠWeek ly
pe g
G N
Ġexc av
Re act
Ġ' -
ĠFil ms
Sep ar
Form atter
ail ing
Ġinternational ly
ĠI R
ent in
omet ric
ĠLe o
p us
ĠBuddh ist
Sup ported
Ġt ours
7 50
ĠĠĠĠĠĠĠĠĠĠĠĠĠĠĠĠĠĠĠĠĠĠĠĠĠĠĠĠĠĠĠĠ ĠĠĠĠ
Ġw ake
app le
ĠAzerbai jan
S ong
Ġc yl
end um
Ġhyp othes
amazon aws
er en
ĠCam eron
Ġle agues
Ġam id
Ġtot ally
J im
ĠS ang
Ġbi ography
Ġrecogn ised
ĠÂ ·
ĠLeg al
m u
TR AN
Ġpan els
Line ar
Ġlabor atory
Ġsh arp
ĠA aron
un ches
pl ain
l iga
ĠLeban on
Ġt ut
Ð ³
ĠH at
ĠHar vey
Ġassist ed
A X
Ġ( %
c ross
Ġem igrants
ĠB ased
MA P
Ġconstant ly
el ing
Ġcert ified
ĠG az
AS H
b an
h ave
Ġrel ocated
185 6
Mut able
Ġpro to
ĠT rain
BO OL
Ġg rab
R ivers
ord inary
ãģ ®
Ġerect ed
ĠAng lo
ĠBris bane
Ġform ats
Ġstrong er
Ġprogress ive
Ġdecre ase
Ġlog in
ro tt
ym ph
ĠVen ice
ĠF ly
Ġback up
ĠGil bert
Ġfr ames
tool bar
Ġstand ings
Q uest
ill es
item pty
Ġv ib
eng ths
del ay
e u
ĠTh ai
ess ment
Ġcons olid
ĠPlay ers
Ġhor izontal
Ġla ugh
gorith ms
ack ing
Ġdef ines
Ġmyst ery
om itempty
K O
er i
Trans ition
ĠB ach
Ġp ole
ĠJ in
Ġdocument ed
sw ing
Ġc attle
Ġvo ices
Ġcon fess
H y
ĠPl anning
Ġrad ius
Ġt ribut
enc ia
pr agma
includ es
dat etime
Ġcou p
Ġmer ely
ĠT itle
Ġcomp ress
J ul
man agement
Ġprov inces
\ ":
ath y
. -
m g
P ad
e i
5 000
Ġwonder ful
aur us
S un
ĠL icensed
Enumer able
Ġsol ve
Ġ' _
Cent ral
Ġob t
Ġgener ator
ĠChe ster
Ġemphas is
F RA
es is
ĠY ale
Del ta
Ġed iting
ĠS ou
Ġcop per
l oss
add Class
." )
ĠResult s
Ġreb uilt
met ic
Ġend ors
Ġthr iller
ĠC elt
cl s
O cc
ĠCom ponent
Ġf itted
ĠCom ment
ĠK el
ĠG ust
ĠR ou
he ld
Ġprov isions
Ġvulner able
Pri ority
ic ia
ĠS creen
Ġd eter
ĠK ash
Ġmer ger
ĠS ave
ĠA B
cp u
Ġt aste
Ġinter actions
ot he
ĠRun time
ĠHigh er
(" \
Ġmolec ular
ĠY ellow
10 24
Ġgener ations
f ailed
ĠM atrix
row se
Ġcrick eter
ĠM B
Cal c
Ġj ail
Ġplay wright
ĠS pect
Ġse eds
ĠArch bishop
Ġshel ter
Ġexcept ions
ĠCh apel
atur ally
ĠR idge
ab we
en burg
Ġcommand ed
File Name
ugg ing
ĠCirc le
á ¹
Ġrequ iring
Ġdev oted
ĠJ S
Ġimm igration
Ġind epend
æ ĺ
ens on
ĠHar old
ĠCl ose
ĠHand le
Ġsh adow
off icial
ĠW ag
l ord
ĠR ena
Ġexam ination
Ġint ense
Ġrefer ring
ĠU TC
ous el
Ġflo ating
ov sky
= $
stats models
Ġout comes
Ġlik es
ĠM az
Ġret rieve
Ġdraft ed
ĠA my
B reak
om eters
Ġwealth y
ĠP rest
F i
ĠB oot
Å Ľ
Ġd inner
Ġs or
Ġelect ro
ĠS witch
Ġtour ism
ĠIn valid
id y
% "><
ĠM Ã¼
Â ½
art et
sequ ently
V O
h istor
D ITION
it udes
ĠM s
Ġgraph ic
ĠEd ge
Ex ecute
Bit map
ic ism
Ġcitiz en
Ġact ively
oc hem
ĠFlore nce
Ġab und
at able
Ġpost er
Ġhapp ening
publ ished
Ext ra
c ano
ĠC redit
Ġobserv ation
ĠWIT HOUT
D ict
Ġim perial
tool tip
V R
Ġco inc
Ġpro c
Ġcruc ial
c amp
ĠCard inals
13 5
h ook
ia o
ĠM E
ĠCom plex
Ġ# {
D er
as is
D ynamic
Ġcomput ers
Â ©
ll a
Ġst range
B oth
ĠK ra
Ġ& #
ĠB AS
ĠMem ory
Ġmar ry
ac iÃ³n
ĠN y
S port
Ġappro ached
15 00
Per iod
ol ine
ĠR us
ĠWall ace
ĠLeon ard
dec ode
Ġst ability
C AR
'' '
W alk
RES ULT
Part icip
Ġspecial ized
ĠS ask
ĠO scar
ĠR ah
IN VALID
Ġident ification
B its
ĠMA X
f av
al ter
ĠDiv is
Ġpo ison
Ġtr ump
land o
Ġthr one
Ġt ou
ĠD aw
Ġav ailability
ĠAb raham
Ġmanufact ured
r ink
Ġcomp act
ĠT OP
ĠW ol
BA SE
Ġsens itive
ĠP att
ĠCh ang
ĠE state
Ġcoordin ates
sen al
Ġb read
Reg ular
M att
f p
Ġp ill
er ie
Ġattend ance
ex amples
Ġr ice
-------- --
greg ate
Ġdel iber
up dated
Pe er
pr ises
Ġ! !
Ġis instance
Ġpro x
An im
Ġas p
ĠHer o
Ġc hest
Ġest imates
Ġabs olutely
ft en
Ġrad iation
Ġb orrow
Ġreason able
ĠM ills
imb abwe
ĠW orth
Col lege
**************************************************************** ********
f eld
Ġab ilities
Ġins pect
ĠP ent
M a
ĠSt ef
Ġfunction ality
m ys
m al
U ntil
Ġe ating
Ġte a
Ġorient ation
ĠHen ri
ens en
ĠL ov
ĠF ix
R ay
ĠIss ue
G reat
ĠO w
Ġcompens ation
am ation
Rel ated
Ġm emb
Death s
Ġrecommend ations
At l
Ġcamp s
ĠWell ington
int o
T yp
è ¿
Ġal ien
Ġunivers al
ĠVis ual
3 000
Ġknow ing
æ Ī
Ġc ached
M R
N eg
m ina
ene ath
Ġinst ant
Ã Ĺ
ĠC atalog
ĠMan uel
F rance
ĠP arent
ĠB av
Ġclose st
ĠLat ino
Ind ia
found er
ok o
ard ed
Ad v
ĠA ncient
ĠE ld
17 0
Ġv ic
=" {{
h n
f older
Ġto xic
ĠTom my
Ġdr ummer
Ġexpl oration
Ġkit chen
Ġvar iants
d ocker
l atest
Al pha
Ġtreat y
ĠSp encer
ĠD anny
Ass et
local host
Ġcult ures
ĠWars aw
Î ·
Ġcl s
Ġev olved
am ine
ve ill
Ġburn ed
I rish
ut ical
const ra
Ġav iation
Work er
ĠA F
sw ick
Ġlisten ers
Ġfarm ing
Ġc ub
pr us
Ġc oh
Ġtour ing
Inst ruction
Ġaccord ance
Ġrel ay
not ify
ĠLiber ty
ĠSer ial
add y
it ars
Ġth orough
sd k
ĠL ac
Ġrepeated ly
Serial ization
ĠGro ve
ĠGreg ory
prep are
S uite
ĠS um
styles heets
qu et
ell ers
Ġrel ax
Ġc ust
z ig
ĠKer ala
ĠM ine
Top ic
ĠMont gomery
ĠM Ã©
Ġprov en
D iff
l ane
m ulti
Ġsub div
ĠAgain st
ĠY et
ĠBl og
Ġdes criptor
D utch
Ġst ere
os ystem
sh ore
21 3
Ġreli able
19 2
ĠSy rian
I ME
185 1
uss els
uff ix
12 2
Comp anies
Ġw rapped
est ure
Ġbelong ed
Ġconstra ints
oc ent
me an
S n
ĠTh ir
Ġf o
14 4
ĠE sc
ric ulum
aw esome
anc ers
ĠId aho
loc ale
Al ert
Ġquarter back
Ġanal yst
ĠShang hai
f ight
ĠK in
LO AD
ĠTib et
p ipe
Ġprogram mes
Ġpart icles
m os
set ting
be ing
185 2
N Y
iv ery
K n
ĠUnivers e
ĠEr nest
Ġadvert is
ut a
Ġobserv ations
ĠArmen ian
ĠMe chan
Ġtim ber
Ġtransform ed
Ġdifficult ies
EN ABLE
ĠN ull
Ġs ender
ator ial
Ġalleged ly
s ym
tim er
Ġaud iences
ĠColumb us
Ġm asc
M iddle
Ġh ate
ĠP eng
Ġrec ruit
Ġce ased
ĠKum ar
p al
Ġfight ers
ĠCong o
Ġexhib it
ĠMar io
ver ify
ĠHel p
map s
ess a
PRO P
ĠB ak
re ach
C annot
c mp
Pr inc
Ġless ons
l ower
ĠKE Y
f urt
Ġcent res
Ġgard ens
Ġ" )
pre vious
F ar
ern ess
ĠPed ro
ref resh
andid ate
RE T
Ġfilm ing
Ġor ange
Ġor th
T reat
Ġmet ric
Code c
Ġs ang
wh at
H D
H ot
ĠBulg arian
ĠTh ank
ĠM umbai
ĠB ound
EV ENT
Ġdro ve
ri ent
Ġk w
bo th
40 4
bo at
re b
Ġres ort
f ive
Ġte eth
Leg acy
transl ate
ĠB orn
c id
Name Link
an chor
us a
I p
ĠPro perties
Ġgold en
ĠZh ang
ĠG overn
Ġd ra
Ġmus cle
Oper ations
Ġ' @
Ġaccur acy
pay load
h aw
Ġequ ally
out ube
ĠRoc he
L im
ĠPerson al
] ->
Ġmet ab
Ġr ally
ibl ings
Ġvol leyball
Ġart work
All oc
Ġalleg ations
Ġwithd rew
12 1
Ġrom ance
M or
ĠHe in
Ġmer ch
Ð¾Ð ´
Ġsurpr ising
w t
Ġor n
google apis
Ġwalk ed
N R
Ġw rapper
TO M
Ġun ve
h agen
Ġsequ ences
w allet
ĠA ws
em in
ĠV eter
Model s
FLA G
Ch ina
Ġansw ers
at ivity
12 4
Ġsur f
CRE ATE
Ġt iny
Re ceived
m ov
ĠG rid
Ġtravel ing
w heel
Ġencounter ed
Ġpro ductions
Ġind ices
Ġsu ite
Ġph osph
e clipse
ach ers
s ocial
Ġport folio
Ġoff ense
Ġsong writer
Ġs yntax
ĠG ene
Ġa uction
ĠH aving
M ah
D TD
ĠJ ur
project s
Ġin clusion
Ġcell padding
Ġcharacter istic
B ACK
ĠT ong
veill ance
ĠPaul o
ad ows
ĠCon sole
Ġelev ated
ĠK IND
Ġt f
Ġpop ulated
Ġsh a
ĠH AL
ere k
ĠEm ma
Ġg rants
ĠL isa
Ġres erves
Ġw ond
eg an
prov ed
Ġt ale
Ġrem oving
Ġprec ision
ĠR uth
um ph
Ġexpect ations
×ķ ×
ĠW W
Ġg oto
is or
Spe ed
B uf
Ġpl acing
Liter al
Ġarr iving
ĠComp etition
Ġprom ised
Ġcur ve
O bserv
our g
ĠDev on
Ġed itors
Ġb orough
ut down
Ġhand ed
Ġfil ters
ĠGab riel
arri or
ĠKn ights
in ject
Ġ Ø§
im edia
jav ax
Ġmem ories
Ġassoci ations
ĠCon nection
ĠE lection
x sd
Ġcomfort able
Ġspecial ist
ĠLeg end
ĠRod rig
trans port
Ġlock ed
Ġexhib ited
Ġearthqu ake
g ie
Ġc emetery
ĠW ant
Ġbank ing
elastic search
Ġref lected
sh ops
ĠPriv acy
Ġconflict s
Ġg auge
ĠÅ ł
Ġco at
L ow
Ġst eal
Ġbu ying
Ġagre ements
ose x
ĠMil waukee
Ġauthor ized
B LE
Ġs aving
ĠPh arm
ov ina
C ost
AT O
R h
names e
fo x
var iant
== =
ĠT odd
en eg
Ġdig it
ĠS ter
_ {
ĠGl ass
ur as
Ġfor cing
Ġdis band
Cont ract
ock ets
ĠF ighter
Ġair line
Ã¶ n
ĠMar x
ĠNot es
ĠLuc as
Ġsub urb
P OS
an alysis
Ġp ic
ĠM C
Ġ} ).
F N
ĠC ome
Ġas ide
ĠHer ald
Read y
ĠR af
Ġig et
ĠBos nia
att ing
L ines
ud o
MA GE
v ars
Ġorigin ated
an ch
Ġaff air
ĠWrit ing
ili ary
Mon itor
Ġsh orter
urs ive
Å Ļ
i ative
d ie
Ġtim er
list ener
it us
mat ches
Ġel dest
Ġm g
vert ed
ĠHar bor
Add itional
C ertificate
per cent
Ġth rew
Ġfif teen
w yn
ĠE g
Ġent ers
ed e
art z
P ane
ĠS oci
D isk
vent ory
un ks
Ex it
18 49
ĠStat istics
ott ingham
Ġen ables
ack er
od ia
att a
C op
ĠER R
Ġprint f
T ry
Ġrout ine
be ans
Ġconsider ation
M ean
Ġcl an
F etch
ĠH im
Mod ified
Ñģ Ðº
pos er
ĠSeb ast
ĠD at
ĠF ul
ĠDe uts
ben ch
ĠC inema
play ing
U A
w ent
Ġm ad
A ud
Ġb ucket
Ġunsuccess ful
ĠP HP
ace utical
Ġall ies
Ġexpand ing
ĠMus ical
RE SS
ad ers
S K
Hash Map
Ġto ll
Ġa thlete
Ġpro l
Ġmechan isms
ĠC ork
M ov
am med
55 5
M ur
ĠS weet
Ġbo ards
ĠDate Time
ĠL java
US A
C irc
Ġnot iced
ĠG ate
not ification
(' ./
ĠS urre
h im
ĠSt yle
~~~~ ~~~~
ĠA ra
Ġprepar ing
Ġarr ives
ĠM ik
Ø ª
18 43
Ġinc umbent
Ġep id
Ġbul k
Ġ' #
ĠHind i
Ġanth rop
Ġmoder ate
S ol
Ġem peror
____ ____
ae us
ph abet
Ġfall en
18 42
ĠPal mer
ĠC ox
ĠC raw
Ġder iv
Ġing red
Ġf iring
ĠC u
Ġhar vest
ĠAl lied
et c
ĠV illa
Com ponents
Ġm oon
ĠG uild
RO UP
ch unk
Ġadd r
se cret
is che
Ġsuggest ing
ĠUg anda
Ġenter prise
rt l
ĠJenn ifer
Ġsh ield
Ġbatt alion
h m
r ust
fe atures
g ra
pe ction
bro ok
Ġexhib itions
Ġfoss il
if inals
Cam era
ĠBro s
Ġexpert ise
ĠConfeder ate
Ġun f
ress es
Ġdiscrim ination
ic z
ĠB ag
ĠK ids
Ġsl aves
op ic
Ġper pet
ĠAm endment
ĠP ep
ĠMc L
Ġg aming
ĠHar per
d n
Ġst reak
ĠEs sex
f ragment
Ġpre t
Ġt oured
Ex pressions
çĶ ¨
Ġb rew
Sing les
ac ional
RE L
Ġw rap
ing en
pop up
ĠJ ung
Ġt ar
ĠFran Ã§
Ġmat hematic
Ġfollow ers
185 3
ĠNot able
el m
contin ue
ĠAngl ican
ĠF iction
Ġor al
Ġt s
Ġb ishops
Ġeval uate
ĠRon ald
ĠD I
ys ics
d elegate
Sc ene
H ard
ĠRe ed
Ġrest art
te ch
SH A
ĠF oster
ro us
Sm ith
v ec
ersh ire
ĠW ald
Ġim pl
Ġhigh lights
Ġ' ,
Ġsc iences
ind ed
ĠPlay Station
H ello
Sc an
ick ed
Ch unk
Ġsc an
ij a
h op
ĠN ancy
Ġsc hem
gu ide
inter val
ph er
L ists
ĠSc ar
im mer
INS ERT
Ġblock ed
ĠL E
hab ilit
I reland
Ġtrav elled
ĠImp lement
Ġintro duce
ĠSecond ary
ĠPlan et
er ious
- (
ĠK rish
ĠD ame
Az ure
ett i
Ġport ions
Ġsust ained
pt s
ĠC over
ĠIm ages
ĠP icture
w i
M F
ĠCom edy
ĠRay mond
Ġresign ation
Ġen rolled
lector al
ĠWild life
he alth
Ġtri ple
Ġdel ight
ĠE ight
in as
Ð¸ ÑĤ
Ġacqu ire
Ġadminist ered
ĠGard ens
b org
ĠS ic
Ġbel t
West ern
a uc
'] .
Ġlight ing
Ġc inem
2 10
ĠWil helm
Ġcre ator
ĠC HECK
With out
Ġhas n
Ġbelief s
Ġdat aset
Ġun lock
Ġhonor ary
T ensor
Check ed
Ġtele phone
Ġa est
ar ms
Ġy ard
h arm
s ervlet
_ [
cont ainers
Ġm ice
ĠS ummary
Ġas h
U k
Ġsett lers
Ġtradition ally
Ġd ust
Ġh ills
ĠOak land
red irect
Ġdesign ation
amb ers
ĠNorth west
ĠSh adow
ĠMot ors
ĠG and
b ors
Ġsurpr ised
ĠScot ia
H ouse
Ġre pro
18 47
Ġpsych ological
ĠCamp us
ĠRh ode
ip el
ĠT ABLE
ac ular
F ort
ĠS ul
Ġc m
end point
air y
Ġdiscuss ions
] </
WA RE
Ġf ro
Ġcell spacing
! </
ĠBl ake
Ġrecip ients
Ġb undle
S UCCESS
ĠL oss
Ġch a
AR GET
Ġattack ing
cri ber
Ġmidfield er
Ġdr um
Ġadv ocate
og o
na issance
Ġconvinc ed
Ġqu eries
D one
Ġ ì
Ġequ ation
ur ations
ĠK ind
requ ency
Ġcl othes
Publ ished
ĠUn less
A SS
C UR
ph is
ĠL abel
() ">
fore ach
ĠF BI
Ġg it
Ġw ars
R ugby
AP P
Ġste ep
Ġcomment ary
Ġre actions
Ġconduct or
Ġw orn
second ary
ĠJ ak
ĠO ptions
ĠTh an
Ġman ages
Ġhold er
Ġpsych ology
Hen ry
Ġspect rum
Lou is
> `
å ľ
oc ene
op ened
ĠCom put
ĠOut standing
fil m
Ġsus pected
ĠEag le
ĠRev ival
Ġpitch er
S F
l b
ar u
* ,
Ġc ir
Ġhost ing
Ġel ite
ĠSw an
>< !--
Ġdist inction
ĠCont act
ĠK ur
ĠC ant
C over
Al t
Ġ" #
ĠJul ian
ĠF ALSE
Ġdemonstr ate
Load ing
oc on
Un ion
Ġh urt
ist le
T imes
P ac
] ['
Ġimm un
ĠCre ative
P D
Ġgo ogle
Ġcheck ing
ĠR achel
Ġvari ations
ĠHash Map
Ġec osystem
Thread ing
Ġproport ion
Ġthere by
B ucket
h base
ĠE cuador
st ud
Ġc ave
18 44
ape st
cl ock
Ġb uses
ĠO g
ĠS ize
I ll
Ġthink s
BU FFER
ĠVer ify
TableRow Color
DE D
H uman
mar shall
Ġspr int
ĠI de
ĠN intendo
ĠGener ated
Ġregul atory
IT LE
ĠAm bassador
Writ ers
ĠPro gress
AR G
Se q
Ġhous ed
ĠFa ith
ĠCollection s
ĠB ears
ĠPark s
g ender
function s
Ġp ipe
ĉĉĉĉĉĉĉĉ ĉĉĉ
ext ensions
Ġdiplom atic
on al
cam el
isc opal
Ġbank rupt
j ud
Ġun ions
design ated
F ront
Ġshould er
at om
Ġsort ed
est one
ĠSh ir
ĠBrun swick
ĠTun is
Sc alar
m issions
Ġrad ar
itte es
H am
ond e
Ġdef ended
Match er
Ġpregn ant
al in
Ġequ ity
Ġconv ey
Ġpredecess or
att ach
ĠMay be
ĠBel arus
CH AN
ĠP ain
Sm all
ĠBenn ett
REQ UEST
Ġtrans it
Ġreal ize
M AN
Ġj e
View Controller
che m
Ġover view
Ġvolunte er
Ù Ĭ
ra id
ĠJo an
ĠCap itol
C SS
E th
c urrency
l ag
ig ue
S yn
ĠF lying
ĠFran co
Ġk ernel
ĠNap ole
Ġtrend s
ĠF at
Ġor che
Ġcam eras
Access or
Ġjo ins
look ing
ĠS K
Ġown s
ĠLi u
Loc ale
Ġaccess ed
Ġfle w
>( <
ĠESP N
unc redited
rict ion
Can ada
T X
ad v
Pri or
ĠCom par
Comm unes
Ġdefault s
Ġconnect s
Ġint ensity
ĠProtest ant
/ )
st ed
nd ez
Ġscen ario
B N
ĠĠĠĠĠĠĠĠĠĠĠĠĠĠĠĠĠĠĠĠĠĠĠĠĠĠĠĠĠĠĠĠ ĠĠĠĠĠĠ
ĠT EST
Ġconf used
Ġd ancing
ĠM is
ĠBe ing
Un ique
ath i
Ġtour ist
Ġoverw hel
Ġbr illiant
Ġmeasure ment
ĠAr med
Tr igger
ĠFl ag
ĠCons ult
ĠL ak
ĠF ed
n ell
if ice
Y S
Âł Âł
ĠBat man
M ir
Ġm ature
re duce
Ġb rows
Cal endar
Ġh az
ĠAh med
ĉĉĉĉ Ċ
Ġcom plicated
ath a
alt ies
Ġlegisl ature
Ġrhyth m
ĠCar r
ĠMet al
ĠDes ert
fl ush
Ġfl av
ĠPar ad
Ġhistor ically
Ġt ube
Ġre nown
S oviet
Ġp ow
ĠR ole
eli hood
C N
Ġo ct
Ġb atter
Ġrefuge es
Ġw elfare
ĠZ end
ĠAd ult
Spec ies
ĠIllegal ArgumentException
ĠN R
om pass
man uel
unc an
post s
ĠHit ler
V ir
pos al
Ġfriend ship
ĠP and
Det ector
ĠA ub
ast ics
C lean
c ock
nof rame
Ġrec alled
ĠOC aml
as se
ĠK ol
Ġcomp ounds
Eff ect
ill on
Ġvel ocity
3 20
Ġn inet
ĠG it
Ġ. =
D X
ĠP om
ĠIs aac
Ġm i
t oc
ĠK or
ĠShe ffield
Ġab oard
ink s
ĠCom plete
P ush
def inition
ĠC ec
f ilters
ĠSt orage
R oll
Ġaut hentication
z ing
Ġmagn etic
ĠNiger ian
Ã© g
Ġelement ary
Ġrot ate
U AL
Ġre organ
E ducational
ĠCh o
ĠPer th
Ġlik ed
graph ics
il ian
ĠW inn
ie u
Pol it
ĠOther wise
Ġdep icted
ĠT all
ott a
oot ing
ĠHol mes
Ġeditor ial
unt ary
Ġdev ast
Ġst olen
ĠEnt ity
AA AA
k u
Ġdebut s
Î ¼
Ġh o
ĠSh in
Ġhop ing
atche wan
Ġnam ely
b u
In c
Sl ot
a ude
ĠW i
Ġatt itude
Ġper ceived
ĠH E
v ik
ĠStock holm
Ġj oy
Ġs ensor
Vis it
H ouses
ĠC ut
ĠK re
Â »
un i
Ġchalleng ed
ĠD oll
UT C
ĠChel sea
Ġdiagn osis
Dan iel
Ġcred entials
Â ®
asc ular
Pop up
add ed
Ġrep ublic
Ġimport ed
ĠEnter prise
Ġswit ched
Ġpre val
Ġso ap
ĠId ent
Ġf oo
Ġp ixels
p ref
code c
AC ING
bor o
app ings
Ġmon astery
man ifest
Ã ¯
Ġvis itor
__ ,
Ġun w
Ġre ly
ĠTas man
ĠD as
ĠEx cell
Look up
song writer
h ou
ĠAdd itional
k n
Re place
h orn
` )
V ec
sy nt
ab stract
squ are
ĠCh an
M ix
ĠCab inet
ex per
Ġiniti atives
ĠSom erset
Ġmet rics
ĠCh er
Ġthere after
c op
Ch o
G it
Ġn an
un ion
b f
ĠM ull
ĠFried rich
ĠF O
ĠCom b
ĠEm ily
IL L
T w
Ġdesign ers
File Path
ĠS uff
ĠC ategory
Ġatt ach
Ġcook ie
Ġf ol
Ġindepend ently
T HE
s ized
Ġt ap
Ġtro ubl
ad apter
Ġst ub
Ġext ending
x e
at em
ar ound
Ġb ounds
Ġserv ers
F ictional
ur bs
Ġsoci eties
Ġnovel ist
t em
empl es
ĠBit coin
ĠS olar
Z oom
Ġext ensively
t one
uch i
oy age
Jose ph
âĢ ĭ
attr s
al one
ĠHamb urg
O FF
vel t
ĠRena issance
ber y
Ġl akes
ĠFour th
Comp are
Ġun employ
W ARN
Ġsuff ix
Ï ħ
Ġdistinct ive
ĠD in
ĠRevolution ary
ing ers
ĠMig uel
Ġf ixture
ex ecution
st ates
Ġsl ice
oll o
ĠU nd
Ġf ires
ĠPr ague
ĠA ires
Ġarg ue
re ction
ut er
Ġc iting
om ething
Ġenh anced
ĠPalest ine
ĠP ul
Ġad equ
l abels
Ġj et
Ġcompos itions
Ġp ist
AB ILITY
Ġscript s
Ġs ends
ĠIN TO
Ġdisestabl ishments
ĠCon struct
Ġ======= =
Ġn ose
Ñ Ī
Ġse ar
Ġpian ist
Ġcalc ulate
Part y
Ġt err
Ġinteg rity
Ġlog ical
×Ļ ×
ab i
tim eline
Ġf unny
set Text
Sup press
################ ################
Ġim plicit
ĠB io
. ).
Ġb ike
inter pret
M ot
iff e
ing o
Ġl oves
Ġwrit ings
OT TOM
IE W
ĠF antasy
ec ycle
mark et
W ashington
oc y
Ġexecut ives
Ġque en
ĠAng els
' "
Ġs ailed
ĠL iv
Valid ate
ĠBir th
] ).
Ġback ed
è ¡
ari us
append Child
process or
B ob
EN TRY
ĠMer it
any on
Ġvacc ines
Ġsub stance
Sub ject
M IT
ĠB rid
ADD ING
ĠAd miral
ĠN as
act ic
om eter
Ġimm une
2 30
Ġm es
umber land
Ġinter mediate
T ip
Comm it
ool s
S ig
Ġcle ared
ĠEncycl opedia
Ġinv olve
ĠMal ay
Ġdis patch
uet ooth
Ġl ip
ĠL akes
ĠCy prus
Ġel abor
Ġmand atory
ke es
Ġprob ability
ge ometry
Ġrem oves
Ġh itting
ĠR andom
L ead
ar is
ĠCl are
ĠGrand e
add er
atin um
fr ames
Ġpe ers
i ago
open hagen
dim ensional
ĠF an
W ild
Ġt ier
Ġconfig ured
Ġp ounds
Ġcart oon
Ġan alys
Ġbl ues
ĠR ol
O l
en i
ĠTest s
Ġequ ality
h uman
Ġind oor
} \
Ġarbit rary
az ure
ĠW or
Data Source
ĠCour se
Ġmod es
v or
U r
b old
ĠAn a
isecond s
ĠR out
ĠProt ocol
ĠR ules
te le
') ->
ik ing
ish i
ats u
N ON
S ets
ps y
Re pe
C ould
g art
Icon Error
Ġgrad es
Ġachiev ement
im er
ĠA G
Ġsearch ing
lim ited
ĠMarc us
Ġtravel s
Fig ure
Ġ" ${
Ġf ung
ĠP DF
ĠB ent
Ġun likely
Ġlist ings
ĠC elebr
ĠD y
iet ies
L ab
Ġret reat
18 46
ĠBaron et
ĠTy ler
s igned
db c
ÅĤ aw
w al
st ub
k ernel
ĠCurrent ly
yl an
af ka
Ġreform s
Nor thern
ĠBrook s
ĠIndones ian
Ġs overe
IN IT
ĠImp act
Ġguarant ee
" ?>
ĠL ok
S cheme
]( #
Ġpick s
ĠB ened
path s
ST ART
stan bul
med ium
ĠK om
Ġcan al
Ġdef ender
ĠAct ress
ĠPet e
p icture
Ġa ux
ĠV ert
OR S
Public ations
i ov
d an
, -
H AND
Ge org
P ixel
ab is
ĠInd igenous
n ai
Ġenthus iast
Ġdecre ased
Ġpre lim
lo pe
ph ib
ĠC ort
ĠPear l
sche mas
IconError Encoded
Ġembed ded
For ward
Ġsport ing
ĠByzant ine
12 9
se ed
Class Name
Ġthe sis
om orph
ĠWood s
ĠKaz akh
ĠB elf
D M
18 41
Ġtack le
Ġs id
EX PORT
t ax
r ass
ĠR ice
I ES
Ġpat ri
Ġpione er
le vard
Transport ation
Ġqu oted
ĠInter view
ĠLeg ion
C ities
Comp leted
Â ·
Ġreg istry
id ay
um per
B ridge
Ġd ying
ĠA ur
Ġinter active
Ġmet ropolitan
ĠCr iminal
orient ed
ĠRh odes
Ġcons ensus
Ġhe x
Ġext inct
ident ity
get Attribute
ĠB order
ed o
ĠH ir
ĠVlad imir
os opher
Ġcap ability
c orn
ĠT ir
Ġw arned
18 37
ĠPro f
N EL
ĠFil ter
Ġo l
L iber
è ®
BP ACK
ĠK arn
Ġse ctors
ert y
S afe
ĠR oot
T ake
ĠK as
ĠRe le
ĠJama ica
C AC
u ania
" ])
ff bb
ãĥ ¼
is le
ond o
Ġare na
Ġpl ates
Ġsc andal
Ġstri king
Ġwild life
Ġs ung
Ġ( -
ĠDC HECK
ĠT oken
Ġkid n
ĠSus sex
G erm
g ary
Ġt ips
ĠEngine ers
Ð° Ð»
ul ative
m el
ĠWest minster
Pr ice
p aces
ĠDown load
Ġ ion
Col umb
m aml
Ġdr ives
ĠD ebug
Ġm ild
ub er
' ):
all a
tes y
A MP
aw t
ose velt
L ear
des criptor
mut ex
P ending
W rap
ĠÐ ¾
Ali as
Link ed
Ġburn ing
Ġlux ury
ĠV ers
Ġfl our
ump y
che z
l ain
by ter
ĠIns urance
Ġenc ompass
ĠG O
Ġcro ps
Ġroll ing
Rep resent
P icker
Ù ĩ
Ġl obby
uc he
ia z
Ġstud ios
ot yp
Ġhydro gen
b id
Ġball ot
) \
Ġvert ex
Ġinduct ed
he x
Ġcomplex ity
D evelopment
aj i
ĠEll is
at um
ard ing
App Compat
Ġcirc ular
Ġspec ification
ĠDev ice
Ġ âĢĻ
ĠMan it
p agination
Ġtest im
ĠG em
c art
d ynamic
ĠN ine
le af
erm ark
Ġent ert
H ol
Ġre vision
i ens
back end
ĠL or
Ġc ele
Ġf ate
Ġins ight
Ġstat istical
Block s
ĠT iger
Do ctrine
d ependencies
im an
Ġabs ent
ĠJava Script
t ake
Ġs ig
Ġsubmar ine
ĠMarket ing
+ "
ĠV il
value Of
$ $
Tax onomy
Ġpred icted
ord ination
Ð¸ Ñı
ellig ent
Ġcollabor ated
qu o
ĠCroat ian
Ġl ifestyle
ĠZ imbabwe
ĠChar ter
M ASK
Ġs hed
Ġmem oir
Ġours elves
ĠG iven
ĠMethod ist
ic ity
Comp letion
Ġprocess or
ĠT ampa
Ñ Ħ
Ġnick name
Ġpil ots
Ref lection
ch rome
Ġfor ty
ĠBey ond
n l
Ġhuman ity
Ġcompris es
Ġaccommod ate
ĠCh oice
Ġ< ?
D istance
> {
M esh
g lob
ĠC lean
Ġpriest s
ĠEx hibition
% ),
p ot
Ġad option
nold s
car bon
jack son
Ġconstitu encies
in fl
sol r
ari os
Ġpropos als
Ġr hs
Ġref ere
g al
ĠOriginal ly
Ġsepar ation
uis ine
ĠCont est
Ġspe aks
Ġ Ã©
ĠS ullivan
ĠS ey
ĠW HERE
oy a
mont on
Ġexpress ions
ĠA chiev
ne apolis
ĠB ORDER
18 35
V EL
ĠP ackage
ĠAdvis ory
Ġb eneath
(" .
ĠM idd
Sl ice
Ġline up
osl ov
ar re
ĠB uffer
Ġsc reens
Mod ifier
Ass ign
ĠG ren
ri er
Ġbe am
Ġfound ers
Ġmin eral
Ġt un
ict ions
Ġd rain
Up per
Ġqual ification
ĠS ymbol
Int ent
Ġcoordin ate
B er
ĠP si
P ipeline
Ġjournal ism
ĠPalest inian
Ġhand les
ĠS ales
ĠH alf
but tons
ME M
ĠTri ple
C a
T er
5 12
Ġathlet ics
ĠI g
ĠSh ield
ad ier
Ġdo zen
Track er
Ġle ase
Ġthread s
ĠO wen
pro c
d id
ĠM ang
Ġt uple
Tool s
eg ovina
O s
ĠHe aven
uzz le
Ġgra ve
Arch itect
Ġvirt ually
ĠP ink
ĠDur ham
Ġtr adem
Block ly
um ble
Met ric
T emp
ator ies
ĠD ir
Ġ" _
ĠE ve
ĠG ir
N U
() [
Ġgather ing
Ġend if
ĠHop kins
ĠM iles
Ġd iamond
po i
ash ing
Ġrock et
Ġqu ad
Ġconj unction
ĠMoroc co
c ookie
ĠD j
ĠPrinc eton
18 39
IN DEX
Ġprem ier
ĠPow ell
ĠR ender
Ġdis orders
Ġp ric
Ġl l
FA IL
Ġqu ote
ĠT YPE
Ġnation wide
Ġdef initions
in ator
Ġr iders
arg v
Ġang ular
ot ypes
c ached
Ġl ying
Ġcon spiracy
N ONE
sub Nav
Rec ords
xi ety
az ar
sl ider
ĠJohann es
Ġch apters
Ġmagn itude
h ad
ar ante
Ex pect
Ġdes per
Ġdiv orce
Ġb achelor
Un incorporated
ibern ate
Ġacadem y
Ġactiv ated
Ġarg ues
Ġbut tons
ĠOr lando
p owered
ĠPr ison
Ġbox es
ĠJac ques
ab etes
ĠG ov
Ġimm ig
Ġind ent
D ry
n ail
Ġmiss ile
Ġconstra int
ĠFran z
Ġkill er
ĠLe ic
Second s
Ġdire ctions
on so
ĠVol unte
and ro
Ġch ore
For ce
H ook
Ġep ic
p ending
ĠN ames
ell ar
Ġres umed
Ġsub str
Ġv it
Set up
l ift
J ean
ĠCor on
z oom
Ġwhen ever
Ġl in
Ġdream s
re p
ĠBu enos
} {
l ate
ant om
Ġk nee
sw er
m x
arri ers
Ġbr ut
i ator
allow ed
Requ ire
Ġres id
Ġbi ology
ĠSalv ador
on ne
Ġc ouncill
ĠW A
ap a
T M
Ġrem ix
Ġpar ad
ul in
s chool
ash ire
æ Ĺ
Ġt enth
Ġr ifle
Ġpract ition
Ġaffili ate
ĠOtt o
b age
ĠC ache
ep h
ĠDisc overy
Ġm ixture
Ġen act
ĠRe ich
er ialize
Ġprevent ed
ĠRet rieved
RA M
ancell ationToken
R oad
Ġ$ ('#
Inter op
Ġe uro
Lower Case
Ġ" );
Ġmon arch
ĠCo hen
t rain
ĠAl f
Ġrenown ed
Dest roy
W il
Ġch at
qu in
max cdn
ĠL if
ang ered
ĠAdvent ure
Ġrul er
ĠO ber
J on
oy le
Ġquant um
Ġbas in
pack ages
uan ian
s ung
Constra ints
the ad
Ġhar ass
Ã °
Ġp ixel
ĠTh row
C trl
ĠC ord
ĠF olk
As ian
Ġc rop
Ġl oud
-------------------------------- ----------------
s il
task s
ĠB ug
D ue
v iv
Ġrob ust
18 45
Ġrele asing
ĠSch w
ĠJ unction
set Attribute
ĠHe ights
ick y
Swed ish
Ġdepart ed
Ġp ink
ĠPhys ical
Ġsole ly
Ġw x
Ġd ish
Ġunder graduate
Ġany way
CO UNT
Ġfif ty
> .</
Ġinh ab
Ph ot
ĠH ass
ol in
ĠFl ash
Ġsurviv ors
Ġdescend ants
s in
Ġquant ity
C at
= &
ĠCol in
Ġbreed ing
Ġk iss
ĠPan ama
ul o
ish ers
met rics
Ġb ills
ĠCh ase
st orm
Text View
ĠD eg
av ian
dis patch
ĠW ool
ĠJul ia
Ġpart icle
pr ice
Ġnot ing
re view
U UID
Prim itive
Ġvacc ination
Ġs iege
Ġtra iler
c ost
Ġcare fully
Ġf i
J ac
f uture
Ġz oom
K ernel
Ġm ic
c n
Ġdemocr atic
Ġv in
is cher
Ġann ex
h om
In ject
ĠW inds
Ġl ar
s outh
ber ger
Ġattr s
ĠZ ero
m itt
ĠP apers
18 38
Ġalign ment
Ġcho ir
N umer
ĠĠĠĠ čĊ
Ġsw iper
it ic
ull ah
Ġf ame
k ers
Ġi OS
Ġb ell
1 19
st ri
Ġz ones
Ġgu itars
char acter
Ġche ss
ĠC yr
Ġremember ed
at ype
Ġre ceptor
ph oton
Dem ocratic
op am
th ere
ru ce
Ġphenomen on
Ġ" ;
Ġt ile
ip art
arante ed
> [
12 6
Ġcollect ing
ĠDist inguished
c as
ĠPo etry
All ow
look up
Ġh ist
ĠSh im
ĠN ottingham
Ġgrad uation
intend ent
Ġann otation
Ġbi as
Annot ations
ph al
qu ality
Own Property
DITION S
ibl ical
Ġachiev ements
D eb
Ġm a
des cribe
b uff
ĠBr ussels
ĠP UBLIC
Ġg aining
Ġbas ically
ĠStr ateg
ĠU ntil
os er
="../ _
d td
Ġphys ic
se gment
Sh ader
Ġdial ect
Ã¤ r
ĠInd ies
Test ing
ĠMaur ice
ĠW arriors
ĠTR UE
Ġvers e
ĠC anyon
ĠGe off
fin ity
hell o
ĠPak istani
Ġimpact s
Ġin ches
ra ble
ĠString Builder
ark er
ĠC ann
Ġn aturally
ip ur
Ġsomew here
ĠDec ision
Ġimag ine
ur red
aw i
AR K
sp ot
Ġeg g
erv ers
S UP
less ly
Ġgu ards
m any
Ġperman ently
pack et
ĠHe at
S UB
U t
Ġscreen ing
Ġsim ilarly
Ġw ore
Ġp unk
ĠMore over
Ben ch
Ġam bassador
Ġind irect
her o
Ġinf ections
Mult iple
16 5
ĠEthiop ia
Sever al
r ice
ĠS of
Ġshift ed
ĠIraq i
Ġb acteria
Ġloc als
Ġbomb ing
Ġvar ied
ĠAn imal
ĠS SL
Has Been
Y P
ov ic
ÑĢ Ð°Ð
Mark er
ĠC openhagen
Def ined
Ġlo ans
ĠAg es
ĠInnov ation
ĠV ern
Mod ern
Ġmir ror
Ġswe ep
ĠAg ent
Ex pl
vis it
Ġcomb ine
ĠC ou
ĠD S
ap ps
Ġmidfield ers
Ġim posed
Ġstrugg ling
Ġag gressive
Ġshould n
ĠBry an
as ma
ĠF ras
sub string
B D
ĠAbd ul
F red
ch ief
é Ģ
ĠUr ugu
Ġh oped
O G
P ref
ĠWe ather
ct uary
Ġterm inus
ra its
ĠT yp
Ä ħ
Ġpr ayer
ĠĠĠĠĠĠĠĠĠĠĠĠĠĠĠĠĠĠĠĠĠĠĠĠĠĠĠĠĠĠĠĠ ĠĠĠĠĠĠĠĠĠĠĠĠĠĠĠĠĠĠĠ
Key word
Ġp ig
ĠĠĠĠĠĠĠĠĠĠĠĠĠĠĠĠĠĠĠĠĠĠĠĠĠĠĠĠĠĠĠĠ ĠĠĠĠĠĠĠĠĠ
, âĢĻ
ocol ate
=- =-
ĠAl pha
le z
ĠEmer gency
ĠP orter
ĠH us
Ġev ident
Ġc ad
Subs cription
ĠSt rong
Ġarchitect s
Ġphil anthrop
ĠM old
Ġm ast
M ail
P ak
Ġsal ary
Ġd w
17 5
RO OT
Ġincred ible
Ġo w
D a
Ġb out
ĠCol lect
Ġp our
u ce
Ġf raction
( []
( `
Ġinstit ute
Ġbeat en
Ġmut ual
ab br
Ġâ ĪĴ
Ġactiv ation
ĠS ylv
ard i
Ġper f
ĠH ait
Ġreal m
er als
ce ased
work er
ĠMan ila
en ium
LE S
ĠJerem y
m ime
Ġadv ised
var i
Ġc avalry
sh i
ĠS EC
nt on
Ġprom in
Ġun incorporated
emb ourg
n st
am as
un ting
ide a
ĠH ur
Ġeng aging
decl are
ĠDr ug
Ñ İ
P rem
h w
ĠE ye
Ġsaf ely
Ġcomput ing
Ġpregn ancy
Ġ/ ><
ecess ary
ib a
Ġarchae ological
em ption
ro b
ĠCre ated
ĠDav ies
Ġconsist ently
re present
Us ed
Ġtouchdown s
="@ +
? </
In line
ĠP ir
ch air
L R
Status Code
ĠDet erm
erg us
M id
ib ling
found ed
Ġperfect ly
ced es
Ġlegend ary
F actor
13 1
ĠDivis iÃ³n
ĠK w
ĠHerz egovina
LP ADDING
Ġfacilit ate
if iable
Ġemp ire
ph ones
ĠRo osevelt
b ucket
â Ķ
Ġdraw s
Ġremark able
Ġad s
Ch ief
app a
ĠGl ou
Ġstep ped
Ġperform s
con v
Ġstart up
Ġhighlight ed
Ġun anim
ĠNS String
ll er
Ġinterpret ed
Ġg ray
Ä Ļ
Ġinvest ments
ĠÃ ĸ
Ġn aming
Path s
ĠInt eg
ĠBr as
d ating
ĠSask atchewan
Ġor bit
init ialize
ĠH arm
Conn ector
urre nc
Ġconduct ing
ĠS aw
ĠO z
18 36
Mill is
AR CH
Ġrenew ed
Ġfar ms
Ġche ap
ĠW indow
Ar rays
erd in
W D
ĠU FC
Ġlook up
ĠCEL LPADDING
ĠStruct ure
ag le
Ġsw ing
S rc
Ġdemand ed
E LEMENT
p k
le en
ĠCEL LSP
ĠGener ation
ĠCELLSP ACING
Ent ries
ĠViet namese
Ġathlet ic
ĠM I
Ch ris
ĠR ut
b idden
Ġl ady
Ġg rain
ĠEx ped
Ġsur faces
ĠProv incial
Ġsnap shot
Att empt
ĠK yle
Ġbet a
Ġg rav
ex isting
let te
Ġkill s
ex pl
ig i
Ġde prec
ĠP L
R NA
W C
gu ard
ad os
ĠIndian apolis
ĠB il
Republic an
f illed
Ġhe m
Ġbox ing
end ors
con sc
f loor
ar at
ĠC rist
ĠCl ick
WE BPACK
ĠG y
Ġresearch er
Ġcompris ing
ĠA ri
and ed
ĠN um
c ue
Back end
Ġres ervoir
ĠSp ider
ĠK aren
Ġl iver
Ġexplos ion
Ġexam ined
Ġnot ify
Ġsh aped
ĠG Ã¶
ĠJam ie
s z
hash Code
Th ird
Ġalter ed
Ġh alt
ĠInter est
esc ape
on ica
com ments
up id
ĠV ision
zh ou
Art icle
V ictor
k al
Ġcommun icate
dir name
ĠGi ov
ĠFinal s
Ġcomm enced
Ġco eff
Ġprotect ing
Ġf ru
Ġtrav elling
ĠArch ae
ĠCorn wall
Ġo bserver
Ġpr ince
draw able
le ading
Ġadministr ator
cover ed
ĠD ale
ĠAndrew s
parent Node
sur face
f w
Ġal umin
ĠPublic ations
ĠBrad ley
ĠLet ter
ĠCub an
ĠC av
Ġseek s
Pol ish
Ġbot an
an che
ĠPop ular
Ġbe ars
Ġperform ers
ĠLou ise
ĠV II
w br
Ġsp y
Ġlock down
he ws
over flow
ĠYugosl avia
Ġsm oke
Ġv ow
Qu ant
ĠField s
C ookie
Ġs its
Ġult imate
subs cribe
oc used
ĠU tt
ĠLink ed
ĠExt ension
uls ion
Ġpit ched
f ac
Ġy esterday
ĠP or
ĠM ead
Ġobs c
100 00
ĠCON DITIONS
Write Line
Ġapp lying
Ġsynchron ized
Rep ly
ĠIs le
Ġanal og
... ]
ĠCommun ication
Ġacknowled ged
Found ation
Ġs word
Ġkil ometers
F ollow
n ick
ith metic
ĠSe pt
respons ive
script s
S and
Polit icians
u o
sc al
FT WARE
p oll
Trans fer
Ġdiss olved
ĠH ousing
AT URE
Ġin comp
ĠBa iley
ou x
dist rict
Ġshall ow
Ġtr iggered
Ġopt ical
RE NT
m ile
ĠDomin ican
Ġad mission
Ġde eper
add le
Ġgirl friend
Ġwe igh
Ar thur
ec a
Ġvict ories
Ġob viously
n ational
Ġcompl aint
enti eth
="# "
G T
Ġcomp ile
13 6
Ġg entle
Ġtri o
18 20
H F
ap ur
Ġtri ps
Ġsett le
track s
Ġrender ing
Ġcross es
ĠLegisl ature
s yn
ĠDev il
ĠA WS
HasBeen Set
ĠEd mund
Ġconf usion
H a
: %
il io
Ġst uck
udd y
ĠEngine er
Ġinvestig ated
ĠChem ical
Ġm ood
Ġb er
Ġconfig ure
b ur
ĠMod al
ĠCard inal
ĠNob el
Ġrefer endum
B lob
o que
ato es
Ġopin ions
ĠAtt ribute
ran ger
ĠAssoci ate
l is
ĠC T
Ġh oles
Ġcon ferences
if ference
T rad
ĠD uncan
oca ust
15 5
ĠBAS IS
Ġens uring
Ġwhe els
ĠSher iff
ĠL amb
omet own
0000 0000
met ry
Ġdies el
Ġs ou
ĠForm ation
Ġflex ible
ĠIn spector
yl um
ĠSp ot
ĠH ale
Menu Item
Ġrecru ited
ertific ates
Ġpra ise
ĠDirect ory
ĠTw enty
Ġk in
ĠKenn eth
im i
to Equal
ol ics
Ġconsult ant
ĠEx amples
ĠInit ialize
Ġl unch
Ġvary ing
Ġcor ps
i em
AR RAY
ĠYan kees
Ġreleg ated
Ġterror ist
T IM
Ġim pression
ĠPl ate
ĠPer iod
Ġd ot
IMP ORTED
14 5
---- ---
ugg ed
ĠBi ography
Ġd il
Reg istration
dis k
F at
ĠP ere
ĠSol omon
Ġp ond
b ey
="# ">
B re
ĠArm strong
ĠN ortheast
Ġs el
Ġcivil ians
ä¸ Ń
Ġw are
B rien
F ix
op ing
Ġp ap
en vironment
Ġvocal ist
ĠR T
Art icles
Ġpro sec
ĠF L
ĠGr iff
Ġfore cast
ĠAp ost
atab ases
ĠMalt a
ĠR ush
Ġcoll apsed
am bo
col m
Ġmist ake
ic ers
J ournal
Ġd ancer
ĠB ee
FUN CTION
Ġdepend ency
ĠA ch
G ateway
L ONG
Ġthrow ing
Ġep it
Ġmac ro
oc he
utt le
Ġobt aining
ĠU SE
Ġdisappe ared
ĠSc out
Ġfore ver
an z
ht ra
Ġcl ause
ĠM om
Ġc od
Ġover come
T urn
Mat ches
ĠW ake
Ġqu it
ĠS che
'] ))
io x
ĠT E
Ġc ov
ĠK urt
Ġem otion
Ġfl ank
m icrosoft
XX XX
C ert
ĠL etters
ĠG ET
uff icient
inv oke
ne z
eg u
ĠTrans it
Ġann ot
ĠBet ter
ĠE RA
Ġap olog
og ene
sp i
ĠCh rome
Ġview ing
Ġ/* !
Ap is
Ġmer c
Ġphys ically
amp ed
Ġemb ark
k l
ĠN urs
ĠT ennis
Ġcre am
ĠSant iago
ĠVAL UES
Ġtheat rical
ĠRequ ired
ĠB od
Ġp ython
er ion
Ġf et
Ġrel atives
s ources
v ation
Ep isode
Ġprelim inary
SER VER
andid ates
Ġmyst erious
ur ated
e ur
u ity
Ġver b
18 12
ĠCa uc
Ġstrugg led
ĠFig ure
ast ing
Ġwork shop
Ġsepar ately
Ġim pressed
18 32
Ġinter change
Ġen abling
date picker
ĠAb original
Ġ ÑĤ
if fin
ĠH aven
u um
Ġtrans mit
ĉĉĉĉĉĉ Ċ
c ats
mod ern
ĠWy oming
X Y
> ../
ĠBank s
ĠNS W
Ġaccompany ing
ĠMar in
ĠLanc ashire
igh bor
re ne
ind ices
Dest ination
U V
m ust
Ġi Phone
Disc overy
reg istry
Ġd ense
ĠAt omic
Ġprest igious
T ranslation
vent ions
ĠN A
Ġmin im
Ġpredomin antly
Ġt ract
t m
Ġmaint ains
] ),
S ar
aint ed
act iv
ĠM ob
sm ith
Ġens emble
Back up
ĠO UT
ĠY O
separ ator
ĠCh ad
g overnor
Ġun clear
Ġpre vention
Ġwid ow
Ġcomed ian
over ride
ĠParam eters
Rel ative
: &
N ested
Ġst ones
Ġdem o
Ġpup ils
ed ing
Ġout line
ĠPrinc ipal
Pay load
ĠE is
Ġex pr
ĠFellow ship
Ġwar fare
Ġn ested
/ #
Ġl ens
Ġdo i
Ġinter cept
P K
SS AGE
bre aking
W ORK
ĠBou levard
h p
Ġag enda
d eb
M ike
Ġcur riculum
ĠM TV
ĠF ut
ĠHend erson
ĠPal m
render er
ĠS ed
Ã§ Ã£o
ĠGram my
ĠAdvent ures
e ah
ĠAh mad
Ġb ats
; %
J oe
Ġpol ar
olog ically
ĠSh ore
Ġgl ac
Ä Ľ
ag ic
Ġgener ating
ĠIn side
ĠCont ainer
Ġtor ped
Ġnovel ists
Ġinteg ral
U TE
le ston
tt o
z ens
ĠSim pson
Ġd ock
Ġalt itude
Event Args
ï¿½ ï¿½
ĠManit oba
ĠAr ctic
Ġdist urb
ĠT ow
Ġaccompl ished
ĠAcadem ic
Ġevery day
à¥ į
Ġequ als
ri um
ĠGu ards
Ġprec ip
:: $
ĠUS B
NE W
Pr iv
enc il
Ġen roll
Pers istent
ĠLith uania
F K
Ġrevolution ary
Ġt ent
ad h
Ġpoll ution
ĠE t
ĠCarol ine
ĠFern ando
ĠSpe aker
Brazil ian
rid or
Ġcul min
ĠTechn ologies
NG TH
W arnings
ĠGu itar
non atomic
el ong
Ġtack les
ĠGal axy
to LowerCase
Ġdepos its
Ġserial ized
ĠRey nolds
cond itions
en za
ĠS ET
om al
in ia
end region
Ð¾Ð ¼
Ġattract ive
ĠE val
E lem
Ġrev ival
Ġab olished
Comm un
Ġn ights
ag ne
Pay ment
Ġhot els
Ġt weet
Ġcab in
ĠAll an
Pol itics
20 2
Ġstri kes
Ġsurre nder
in formation
stream ing
amm ad
WR ITE
ĠLead ership
flu ence
P et
ĠN J
Ġjud icial
G reek
Ġne ur
Ġ ../
il ion
Ġfre ight
g overnment
he nd
le ys
Ġpun ishment
Ġtherm al
Ġarr ays
Ġto String
ĠE T
Ġra pe
ĠRichard son
F ast
Ġen orm
Can vas
ĠLuc y
Ġcasual ties
att en
ĠSl av
friend ly
ĠR ib
ĠG uest
sl ot
M ic
Ġm eg
N ER
Ġharm ony
13 2
Ġtum or
pl ing
16 9
ĠInt el
ol er
. ');
Ġfe ud
Ġinvestig ations
ov y
ĠPre p
let es
ĠGen eva
ĠGib son
Ġup set
Ġcolon ies
Separ ator
Ġcook ing
ab lo
C orn
p n
* >(
Ġinf ected
Ġimprison ed
ĠG M
16 8
Sc heduled
Ġgovern ed
Ġmeasure ments
ĠV ery
á ¸
Ġ ĉ
is ers
Ġrain fall
! =
ra f
ĠPart ners
R en
PL ICATION
P adding
Ġsail ing
Ġfurn iture
sp ired
? (
Ġch ip
ĠMin neapolis
ĠF emale
Ġf Ã¼r
pt ic
aid en
Ġwalk s
spe aking
ĠF eder
F D
st ead
h art
Ġc c
ĠRail ways
Ġb icy
Ġst er
ĠExper ience
clus ions
ĠTr in
> ()</
Oper and
ion es
ac l
del ta
STR UCT
k le
ĠS yntax
ĠCom mercial
Ġer upt
ĠX box
ĠR overs
ne um
default s
ĠC ycl
ĠR iv
Ġhe ter
ĠÂ «
Ġmask s
{ },
Ġprem ium
Ġco ached
C Sharp
Ġgame play
99 99
ĠEvent ually
F ake
Ġg lyph
Ġsc ar
are l
Ġhum or
cript ors
r v
Ġr c
ites pace
gr pc
H idden
Ġneighbor ing
Ġse cre
ĠReview s
Ġmo ist
Al ignment
Ġpar as
Ġlo ose
ph ase
ĠT ales
col span
m c
ING S
Stud ent
Ġhelic opter
Ġr ivals
Ġ' ')
App ly
g row
Des cribe
Ġcirc ulation
Ġviol ation
ĠChar acter
Ġsur ge
j in
ĠAl bums
b undle
d eveloper
ĠK urd
æķ °
Ġc otton
ĠMed ic
Ġs iblings
ĠB rowser
B and
IT H
Graph ics
å ¼
ol ate
ĠN ATO
Ġnational ly
Ġdis p
ĠPl aza
let in
ape ut
in ology
Ġex terior
Ġaccount ing
I ts
ĠChe ss
Ġcler gy
R IGHT
i ary
ĠShort ly
ĠGoth ic
You ng
ĠP iano
are ncy
Ġbond s
Ġloc ale
go og
ĠMorris on
ĠMont e
fav icon
Ġplace ment
ĠRoberts on
ol ith
m ajor
Ġab ortion
stat ement
m and
Ġra id
Rad ius
J s
( --
k ill
ĠP irates
kin son
ĠLind a
per mission
Ġnep hew
ĠRe id
ĠEll en
B T
Ġt emples
Ġhon ored
sc ene
Ġliter acy
Ġ( âĢľ
Ġon click
op acity
Ġt rem
Request s
Ġem it
ĠMc Donald
it zer
C ath
å Ľ
Ġadvis or
S G
Ġch lor
Ġexp enses
ogn ition
ret val
Capt ure
fil er
Ġsever ely
Am ong
Ġdoll ar
l p
ĠIn g
ĠSurre y
ĠK ang
vel ope
ĠPract ice
Ġreven ge
ĠW E
Ġreflect s
ĠH ab
ĠFrank furt
FFFF FF
Ġstay ing
ĠCoal ition
Ġbe aring
ĠL it
ĠL odge
Ġdisc overs
Ġgrand son
L es
U int
ĠFif th
Ġphil osopher
ĠGlob e
second s
ĠJ ake
ĠCh in
Ġvir al
ĠSumm it
ĠW H
ĠS hen
Ġpro pri
ly mouth
Ġwas h
Ġse aled
the mes
Ġbrig ade
urd en
ric ia
mark er
Ġim per
Vis itor
m ons
ĠSac ram
g io
Ġpush ing
ĠSh are
Load ed
Ġfor um
File System
Part ial
Ġport al
CON ST
Ġisol ation
Ref resh
Ġreb ounds
ent ries
Ġl on
ĠB ever
Ġcr ashed
lo ating
G od
Ġflo oding
enz ie
ĠTh r
d ump
21 1
ĠD ob
ĠTan z
Ġs ew
Ġex ec
On line
Q t
orm an
Ġe leg
Ġfrag ments
Ġun n
he y
ĠHe ath
ĠFight ing
f rag
Mer ge
ter bury
ĠGu ang
ĠMe eting
em ia
l ar
at ics
MS G
hand ed
ric a
ĠMont eneg
ili ation
Ġkil omet
__ .
mod ifier
ĠV eh
ir ical
ord e
Ġl ig
i q
ĠB lo
ĠD ow
Ġw arnings
ĠMot ion
ffff ff
u ator
Ġmain land
Ġre n
Ġv ig
String Builder
CD ATA
Car l
T ech
ĠC off
Play ing
ĠFilip ino
Ġident ifying
Ġcitizens hip
Ġch ains
ĠV M
Re ceive
Ġoccur ring
g h
Ġal arm
F ill
Ġpro sper
ĠH O
erdin and
B ank
M icro
t ic
i pt
Ġf iscal
å °
Ġnot ion
Ġm s
Ġcall er
f und
Cred entials
Mar shall
c aret
ĠN in
Ġro ok
De ep
mic ron
ĠLyn n
Ġsuccess ion
Sur face
Ġf itness
Ġicon ic
Ġment ions
ĠW end
byter ian
Ġwork shops
Ġt ension
ett es
ĠRoll ing
Ġdisband ed
ĠBelf ast
R eb
` :
Ġc ens
ĠK oh
She et
Ã© m
t ransp
u pe
ĠE D
Ġshe ep
ian e
------------ -
ĠNad u
ĠI sh
ĠCelt ic
heim er
Ġdisc ount
im ity
Ġcru ise
s an
Ġter rain
cam era
f ar
ĠCom ments
Ġst abil
ĠRem arks
30 1
Ġupgrad ed
il ateral
ĠC es
ĠLes lie
ĠH i
im ming
18 34
ĠĠĠĠĠĠĠĠĠĠĠĠĠĠĠĠĠĠĠĠĠĠĠĠĠĠĠĠĠĠĠĠ ĠĠĠĠĠĠĠĠ
Ġinvent ed
os ity
Rel ations
m atic
ar ians
Ġjud gment
Ind ividual
Ã§ a
b ranch
ĠI BM
Ġnom inee
ol an
Ġvol t
Ġh ung
n u
LE VEL
ĠMan ufact
W ood
ĠWrit ers
And rew
A h
ĠVis it
Ad minist
Ġa ug
ĠM ale
ĠO thers
c atalog
m ology
Ġextra ordinary
St d
---- -
H AL
ĠSt akes
00 2
ev es
ĠAd rian
ct rl
ĠS ustain
ik er
ĠT ruth
Ġnumber ed
Are Equal
ĠForm at
agon al
nos cript
ch in
fam ilies
Athlet es
Ġc er
Ġemploy er
z el
Ġconc urrent
Ar r
Ġh ur
Ġdraw ings
ĠB OTTOM
ĠDis play
Ġfre estyle
ĠS ons
ew ise
g rand
Ġch orus
Ġexpl oring
Ġexha ust
Ġcontact s
ĠT ell
Ġres iding
or ate
ild a
Ġfar mer
: -
ĠC M
Tur k
Ġw ound
ĠAr senal
ak o
==== =
Ġmurd ers
Ġa er
unt ed
C y
Type Def
rol ogy
k ubernetes
m art
ed uc
it les
us hes
ĠInd ividual
aged y
ex clude
ĠBi ology
ĠAz ure
G uid
ĠProgram me
Over lay
up per
Ġan ch
am ination
ĠC L
} "/>
Ã± o
Ġvo iced
Ġh int
Ġcomput ed
ĠP AR
R M
Ġcol ours
Pl us
ĠF ay
Ex per
> )</
Ġg ains
ĠF ramework
FORM AT
I ce
Ġbad ly
Ġprevent ing
33 3
s ender
ĠAn imation
Ð½ Ð¸
Ġproceed ings
Ġgovern ance
S hip
ĠGl enn
ĠGrad uate
Ġtheore tical
ĠL ect
ĠV A
Ġdiv or
ĠAmeric as
ĠReg ulations
Base ball
Ġspecim ens
ram ed
Ġmod ification
ĠTo o
ĠDub ai
ĠSte am
Ġrap per
c py
n orm
ĠB in
Ġpresent er
Ġsculpt ures
UT O
Ġang ry
Ġdiagn osed
re ts
am ous
b ounds
ĠM illion
Î º
13 3
Ġa ster
Ġex cluded
Ġatt raction
erv ous
ĠML B
ĠRaid ers
NAME SPACE
ĠMat hematics
Mart in
Ġinter im
ĠP ars
Ġac ute
ern er
g mail
at aka
Ġby pass
Ġcl ay
od b
ĠJes se
ĠResp ond
Ġround ed
Ġeval uated
ĠD w
Ġaccept s
R ank
o in
Ġdistingu ish
Custom er
Ġw reck
Al ign
ĠGer ald
S on
13 7
Ġaut obi
ĠSw ift
Ġc uisine
anc a
Ġaut umn
St yles
Ġar row
ĠK ab
S ent
Ġle an
Al tern
sc an
Ġcare ful
Ġm oll
AD C
Ġcompl aints
PRO TO
LIN K
Ġh ind
ĠK iss
Ġdeliver ing
Ġv i
ĠLoc ation
t ile
ĠA FC
Ġinfl ation
Ġdon ations
ĠInst all
Ġple asure
ĠTre k
Ġmeas uring
aras htra
Ġflo ors
Ġcoll ision
ĠParalymp ics
L os
ĠEug ene
Ġdiscontin ued
ĠCor p
Ġobject ives
Ġunder went
ced ure
] <
atern ity
Bel g
Ġh ol
." ;
ĠF ergus
å ¯
Sh adow
ĠArmen ia
Ġschem es
sh ine
ĠInvest ment
È Ľ
amp ire
Ġdist ant
S in
Ġhe ir
ĠL av
Ġhelp ful
Ġsatisf ied
ipp et
Ġtribut ary
ro ve
ĠMin i
ĠAgric ultural
ĠCard iff
ĠSO FTWARE
ind ent
uff le
Ġtim ing
ri bs
ĠW ire
f aster
em por
Ġab bre
Ġdiscipl ine
C itations
al er
place holder
Ġsc ales
Ã ®
Ġsur veillance
ch ing
CL I
St udio
ĠHigh land
Ġrefer enced
Ġaccept ance
b rit
Ã¨ s
Conf irm
Ġconsequ ence
ĠAdd ed
ĠFras er
ĠA way
ist o
Off ice
ĠK ot
ĠBo eing
Ġ" (
Ġ" +
ty p
c od
subs cription
ĠCurt is
ĠA x
ĠBas in
ĠH od
D yn
the y
h d
r ut
Ġsyn onym
Ġp ad
sp ark
ĠNever theless
ĠH urricane
Ġa u
Ġse ized
Ġt une
ERT Y
Ġst rain
ĠAn im
Ġr amp
row Color
em i
ĠEston ia
Ġtalk ed
ĠBurn s
// ----------------------------------------------------------------
ĠInter ior
ĠH off
Pre p
á ĥ
ĠBer k
ien ne
ĠC NN
ĠA bs
ĠAnd ers
! (
Beh avior
Ġinsert ed
Ch icago
Ġkw args
Ġcont rolling
Ġre lying
Ġcust ody
14 3
Ke ep
Ġh i
ri o
Ġprompt ed
block s
Ġg ig
Con version
per iod
ph ant
Ġbroadcast s
ĠSym fony
ut ers
H aw
ĠL il
() `
od ium
Meta Data
T ITLE
Ġpost pon
Cre ation
Ġsculpt or
ĠS ale
reg ex
Ġwor ry
Ġc ss
first row
C atalog
â Ħ
Ġseem ingly
habilit ation
Ġrecon c
ĠMar sh
int ro
H I
ĠC rystal
Z end
w ear
Ġpre ference
Ġpos it
Function s
Ġf ut
V IEW
Ġ// -->
Ġrep o
at z
Ġib n
mun ition
<? >
Im ages
Ġfeed ing
s creens
Ex amples
ĠT F
T LS
Ġpl ural
Ġinterview ed
ĠC lement
List eners
ĠN atal
Ġcol lector
T ON
ĠV iv
Ġlocomot ive
ĠNO TE
Ġelim inate
ĠC ool
g ang
P ier
s leep
as ures
ĠMar shal
Ġrepl ied
icens ing
Compar ison
ĠCub s
pr im
ĠClass ical
ĠInter face
Ġret iring
Ġserv ant
ĠInit ially
Ġan onymous
p f
//////////////////////////////// ////////////////////////////////
ĠO THER
Un its
St ates
over lay
Ġx si
N atural
Ġall ocation
Ġprison er
ĠI stanbul
ĠF est
ĠH ood
op a
N ick
Ġal gorithms
** *
s ix
Ġspec ifies
ĠIll ust
if a
ref lect
Ġmarg inal
ĠB row
Ġto mb
P ub
s it
ar ag
Do es
ĠCh arg
ĠEv angel
l ic
cs v
Equal To
Ġb ones
oy e
ĠInit iative
ĠG amb
d m
ĠM uk
Pop ulation
ĠLore n
Ġra bb
ac ies
sign al
Ġconsid ers
ĠBor is
l ived
ros se
ĠG ael
Ġrout er
ĠDise ase
Ġle ts
al an
Ġnew er
pe z
. (
L y
ĠD IS
Ġl ob
TR A
Ġhon ours
ĠSt rat
Ġvar ieties
Ġl aser
Ġtal ented
Named Cell
Ġprom ises
Ġb arrier
String s
d evelop
ĠK aw
ant o
cl ub
ĠSp art
Ġmemb rane
Ġw ishes
Ġincre ment
Ġinv oked
add EventListener
Ġeduc ator
P oll
ĠTest ament
Us ername
e conom
Ġrespons ibilities
member NameLink
ĠWag ner
Ġmat hematical
Vis ibility
Ġveter ans
r x
ĠChron icle
C ID
ĠM ove
l ore
ion ed
ĠN ormal
Ġcommun ist
ĠEm ploy
ĠH ull
ĠZ ag
ĠKing ston
Ġneg ot
Ġevent ual
ĠN ut
Ġcon ce
18 15
aff e
remove Class
Ġc ere
Ġcent ered
n Ã©e
ĠTrans itional
Ġtow ers
ĠSe qu
Ġ' $
Com b
ĠR A
Ġp ul
Ġph ones
s amples
Ġtra ff
Sc heduler
Ġ( `
OB JECT
if ax
IC K
Ġbuild s
ynchron ous
[ <
inst ein
Ġf ract
ĠEd monton
Ġdyn amics
it Ã©
ION S
us age
Ġprom ising
ĠQu ant
ĠO st
Ġ// !
Ġenc ryption
Tra its
g ae
Ġenzym e
ĠPop ulation
ĠH ern
pect ives
co res
Ġr s
ĠCh uck
Ġhom eless
en ic
U Int
ograph ers
Const ruction
Ġspe eds
- ">
Ġw eren
ĠM ode
Ġcop ied
opter a
h urst
Ġsc ratch
Ġdist ribute
ĠWrit er
ĠBar r
123 45
ĠT X
W M
Ġl un
n io
c ro
ĠD um
hel pers
13 4
ĠJess ica
H ex
ĠCal gary
Ġhar sh
å į
Ġp sy
Ġpro jection
Ġoccas ional
Ġrec all
Ġap pl
26 0
Ġtreat ments
pre view
ol utions
Ġtra ils
ĠH appy
ĠAr d
Ġsac red
13 8
Ġgoal keeper
pri ority
18 33
Stack Trace
Ġg amb
Ġprot agonist
ĠK ad
Ġcogn itive
he e
F ederal
Ġsp o
Ġemploy ers
Ġfinal e
ĠWh ich
ĠExped ition
Ġenc ode
t le
config ure
ĠTh anks
Ġres on
ĠAut om
e er
Mod al
ĠNot re
ĠDemocr acy
c ourt
Ġdat etime
ĠP oss
Ġleg ally
R outer
ur an
p it
Ġgu aranteed
um en
Ð° ÑĢ
Ġ} ),
ĠRe ader
size of
Americ a
Ġsim ulation
ĠStep han
std err
ass et
ĠNew port
ĉ ĠĠĠĠĠĠĠĠĠĠĠ
il is
Ġ[ #
Ġh anging
ĠMichel le
ĠOs lo
put es
Ġvar ies
ĠChem istry
Ġtour ists
Music ians
Ġim aging
m oment
Ġurg ed
d type
ĠM ET
ĠL ives
BY TE
Ġch ances
gener ation
ext ype
yr ac
Ġher oes
Ġc ategor
ap id
ĠBur ton
Ġst aged
Cl imate
Filter Database
ĠLog an
Ġpack ed
w ave
Ġf ed
ĠK end
ĠSe oul
C AP
P DF
Th an
22 5
Ġs ulf
Ġto b
Ġpres ervation
ĠSlov enia
Ġwithdraw al
ĠContin ental
ĠR ica
Ġdig est
und ers
it ary
Ġh ometown
St eve
k ok
ĠJo el
Ġt ear
Ġland sc
with out
ĠR as
Ġany more
Ġgl ad
ethe less
r il
Ġ"- //
Ġelder ly
r ina
L ang
om ar
ĠT D
Un iform
ĠStaff ord
work ing
h ra
t ables
Ġl uck
Java Script
orne ys
ĠR ac
ĠBed ford
e o
g p
om ial
Ġhousehold er
r ins
Ġcat hedral
ĠMem phis
ogen ic
st rict
27 0
b ay
iev e
ol or
W ed
ĠUn fortunately
Ġal phabet
Call ed
ĠT ul
Ġd Ã©
ĠH ook
ĠL ad
Ġhypothes is
Ġcongress ional
Ġm all
Ġref lection
ir ie
Ġan xiety
Nor wegian
ĠH es
Ġ[ {
Ġoutput s
st ones
ĠD ylan
ĠPot ter
ĠB end
ordin ator
ĠSett ings
Ġpoor ly
Ġbeet le
Ġa erial
M unicip
ron ics
ĠD ialog
Ġtorn ado
G ROUP
N AS
Ġimplement ing
ĠV id
Ġfund ra
Ġrel uct
Comp ilation
99 9
Ġfood s
ĠBarn es
Ø ³
pl oma
Ġin coming
Ġre ass
à¤ °
Ġint ens
Ġagre es
Ġsurn ames
Ġbur ial
Ġp ert
Error Code
Ġox id
pre vent
Ġbatter ies
Ġtr ucks
dem o
Ġsla very
oxy gen
Ġp ension
ĠCP U
ĠIndust ries
ĠExcell ence
r ar
\ '
Ġdef in
ĠT roy
Ġ( <
ĠEm my
Per cent
is se
Ġf antastic
op us
V S
Cal ifornia
io let
ĠPresident ial
ĠC avalry
Ġcare ers
ĠSant os
ip zig
Ġcancel ed
Ġb ail
ĠClin ical
U G
Gener ate
An chor
ĠThe me
oun s
Ġtact ics
Ġre construction
ĠEn able
ipe g
ĠR az
ĠF ixed
ĠWar wick
Ġl engths
Ġeffect iveness
ert s
Ġwe aken
ĠLe op
ĠS F
ordin ates
ed ar
ĠB LA
que z
ĠB ran
rit ory
15 2
Ġneighbour hood
Ġ Âł
ĠBel grade
ract ed
ĠX I
faster xml
Ġd ining
ĠW on
Ġmotor cycle
ug a
Ġin fer
el n
ff cc
LE NGTH
quarter ed
uch y
ĠCl if
sm art
if s
ribut ions
ĠFran c
ĉĉĉĉĉĉĉĉ ĉĉĉĉ
n ership
Dec oder
Ġcontain ers
ĠJ i
d yn
Ġad apter
ĠÎ ±
ĠTrib une
ĠSil va
er oon
Ġbro ader
hes is
ĠPos ition
Ġins cription
Appe arance
z on
N ING
n pm
Ġprem ises
ĠWik ipedia
enn ium
) *
ew ard
ĠBur ke
Ġmyth ology
> /
ĠS leep
role um
Ġmand ate
Ġdr unk
comm ission
Ġpress ed
Ġlog s
ĠC risis
Ġcycl ing
Ġf ights
ĠR PC
Ġbe ings
les h
Ġgu ided
H ide
ĠH els
Ġmark ing
Ġt a
ĠCh al
q a
Ġcorpor ation
ĠBut ton
int age
Ġpres idency
ĠG ul
se ek
ĠLiter ary
Ret ry
Ġbur st
Ġple ased
Ġinsect s
ĠCall ed
ĠP ool
× Ķ
ĠÐ ¼
ĠCart esian
R atio
S a
path y
ĠD rew
ne utral
C zech
Ġcontribut or
Ġreb ellion
ĠRos en
Ġcount ed
Ġd ys
ĠJul ie
Ġ(! (
ç »
am ar
Ġdead line
l ists
P a
Ġt ong
ĠP ine
B LOCK
ĠD iana
ĠAntar ctic
ad ors
ĠCom bat
Ġtra its
sl f
Ġpre view
ĠBund es
ĠN acional
Ġlect ures
iz za
aly zer
Con struct
Ġc url
Ġcompar able
Ġprotocol s
ring e
Ġsub mission
Ġprec ise
J eff
P si
Ġperform er
c ence
Ġnurs ing
ĠLux embourg
al bum
Que en
pro duced
Ð ¶
hedul ing
Cl aim
ĠZ en
Ġevery where
ĠAchiev ement
Ġr m
uk u
qu ire
Pol y
er cis
Ġb ab
Ġm eter
V T
Ġg race
an mar
ĠG C
ĠBrad ford
ĠBright on
Ġpurs uit
w indows
Ġcustom s
Ġop posing
iÄ į
Ã¼ n
Ġbow l
re ply
Ġacc idents
dat aset
fig ure
Ġlearn s
B asketball
ĠGeorg ian
ĠMax im
ĠEx tra
sec ure
Ġdress ed
Ġse al
head ed
Ġexp ense
Ġpen et
ĠD ew
Ġunve iled
Ġacc us
if les
Ġthir teen
Hor izontal
or ange
ĠDirect ors
In jection
Ġn urse
ĠCr us
ĠAssoci ated
A st
ter min
ĠRe ports
F all
ĠN uclear
Ġimprison ment
ĠH il
ĠD rop
Ġg ods
Ġglob e
Pac ific
in is
RO W
ĠPrest on
Ġsh apes
ĠCath olics
abul ary
Ġinter rupt
Ġdiplom at
R oom
s hell
D igital
Ġcomp anion
rit z
Ġatt achment
Ġinitial ized
Î ³
Ġund ers
Ġcast ing
Ġret ro
Ġpar agraph
Un able
AR S
ĠCar roll
Ġachiev ing
PA SS
! ,
ĠY a
quest ion
An th
j ournal
Ġmolec ules
Ġ utils
ann ah
ĠH app
Ġmod ifications
B ag
Ġd iver
Ġw is
Ġb alls
B ra
Å ¼
Ġdi agnostic
EE E
ĠS event
sh ots
ib us
ib an
Ġconcent rated
Ġinter faces
L ess
Ġpresent ing
She ll
Ġat omic
ĠBel le
ĠGu atem
Ġinstit utional
L ee
20 3
Ġprim itive
ĠMaced onia
Ġc um
D ao
mid t
Ġinj ection
ĠC ounter
ĠM ales
ĠW aters
Ġn ec
Ġst om
" </
is ure
Ġvacc inated
K A
W ay
Ġc ant
Ġcap ita
ĠA j
MA IN
urch ase
miss ing
Ġemot ions
MA KE
ver ts
ĠE k
Ġsax ophone
T oggle
ĠV it
Dis abled
ĠCzech oslov
Ġf erry
ĠP ush
Histor ic
ĠGiov anni
c ycl
Ġpres um
PRE FIX
Ġz ip
ass is
Ġc fg
St mt
HO ST
d og
Ġdef ining
ĠAn at
ĠQ ing
ĠHar bour
Ġped est
Ġvin yl
PRO C
liter al
Ġp orn
ĠC ould
Ġaver aged
ĠDr iver
Port ug
ĠEd it
ĠMc N
36 5
Prot os
ĠEvery thing
ĠP Ã©
Ġv ec
Ġdim in
ĠBened ict
B ranch
Ġper ception
14 9
as ide
Ð¾Ð ³
Ġsc alar
Ġwire less
th an
Ġcoordin ator
TO P
m us
13 9
ch annels
Ġtransport ed
Ġ' </
Ġres ume
am on
Ġtarget ing
Ġn ar
ĠMy anmar
un al
ĠS ometimes
000 1
we bs
ĠLiber ation
ĠAlb anian
ĠC i
ĠL omb
ĠA CT
ĠJohn s
LO B
ĠL arge
Ġstrugg les
L ev
Ġcour age
tok ens
Com plex
ht m
enes is
res olved
ĠX X
Operation Exception
op rano
conf irm
ograph ies
fl uid
ĠElli ott
gener ic
Ġcomp ression
Ġme al
' },
K EN
18 31
Author ization
ĠW R
Ġgen res
1 200
M ixed
Ġfemin ist
ĠA A
ĠB rain
man aged
Ġmanufact ure
Th reshold
ĠC and
B ay
ĠM ile
Ġsup press
ĠP rec
ĠRub y
ĠF erdinand
ĠCl aire
Ġs i
Ġal gebra
Ġaccept able
Start ing
ĠA ve
Ġam pl
Ġmort ality
I ran
P arts
u ine
ĠD awn
Ġstop ping
ĠT es
asc ar
ĠInstit ution
Ã µ
F oo
ĠI MP
com ed
Ġglob ally
um bo
pr ising
Ġv ault
Ġim plications
Ġr ings
ĠTreas ury
con duct
Ġtim eline
Ġfa una
Ġgener als
ĠInter state
ĉĉ čĊ
Ġmon ster
ĠL enn
ĠF E
DI RECT
Ġl ac
14 7
Ġend ings
ĠComp anies
M il
[ ];
Ġbare ly
Ġk ings
Ġpropag anda
Ġon wards
ĠPsych ology
v id
sm outh
Ġex ile
ĠHead quarters
Ġe y
w so
found land
v card
! )
Ġdis ability
16 6
Ġaffect ing
consc ious
Ġaut onomous
Ã ²
: /
ĠFl ow
ĠObserv able
INST ANCE
Ġwe ird
pp ers
Compiler Services
Ġam endment
Ġcert ification
Ġdam ages
p ipeline
Ġce iling
â Ĥ¬
Nov els
Ġdo ctrine
La unch
ĠT ransl
Ġth umb
ĠC ertificate
ĠE N
ĠE du
G F
ĠL ed
He ap
Ġdub bed
Ġexpl ored
HE D
F ROM
ĠBrand on
Ġrac ism
ĠHun ting
ĠB uilt
Ġl over
ĠSt rategy
ENT ER
Ġ( );
Ġsub stit
Ġh iding
Am azon
L M
ĠD erek
ĠB R
Ġc ig
St an
All owed
sk a
ĠKash mir
s ent
get Text
Ġartifact s
Ġinf ect
() ]
Ã¡ l
ĠT ouch
Ġ/ ></
Ġm eth
ĠF loyd
B eg
Component Model
c x
ercis es
ig gers
ĠP lymouth
d h
ĠA sp
St e
D ead
ard e
um bs
ĠPh ase
Comp et
can ic
ft s
yl on
H it
ĠD ong
re ls
Ġess ays
Ġmechan ics
l r
Ġf t
ĠLud wig
Ext ended
Ġb acter
ĠL ayout
Ġtra p
ĠChief s
ĠW inner
Ġhard er
Ġc p
Ġin vention
input s
conf irmed
Hung arian
ĠR s
ĠD ATA
ĠMil ton
ĠÐ ·
is odes
yrac use
fe at
C MD
ar ations
W ire
il ogy
S ender
sh an
à ¹
Ġl ov
W F
Ġwant ing
Ġl as
Ġproject ed
Ġdro pping
dest ination
ĠU C
Ġaff ects
ĠRich ards
g ent
Ġpriv ately
ct ree
ME SSAGE
en ary
ant is
pay ment
ĠR id
ĠAnd rea
re verse
' =>
Ġassemb led
V an
we ather
Ġc ryst
Ġl d
ĠConstant in
ĠV ij
p ark
ĠL t
Ġb ore
Ġfour teen
Ang le
ĠUtt ar
Ġo d
âĢ ł
ĠL ap
Ġtestim ony
Ġc razy
ok ia
Ġorder ing
6 50
Ġappre nt
ĠColon ial
Ġpre y
Int o
So ftware
ĠMal colm
ĠHug o
G UI
â Ĩ
custom er
ĠU z
ĠHol ocaust
] *
ĠElect ronic
Ġholid ays
Ġinfl amm
if rame
Ġsix teen
Ġgrand mother
Ġexception al
av in
ĠPrem i
Ġthe or
Ġaf raid
ĠG mina
ar ium
Ġpoint ing
Ph ase
Ġlift ed
ĠAp plied
Ġinvent ory
N EXT
numer ic
ĠÎ ¼
Ġir regular
ĠP am
get Key
20 4
Ġ# #
TO OL
add on
ĠLaw s
ĠMay a
ĠUS D
ĠC I
ĠL az
op p
Ġa z
ĠM ask
ĠMar co
ĠKn ox
Ġenorm ous
ĠMar ion
Ġspons or
ĠValid ate
Ġw ra
ĠPro ducer
be it
Ġafford able
UP DATE
Ġmoment um
Ġpublish ers
FLA GS
ĠAlb any
Ġdemand ing
T ARGET
ĠG ur
Ġpost ing
Ġtransl ator
C odes
ĠL ynch
ain es
Ġconven ient
å Į
ĠJ et
ĠH ack
Ġafter math
au f
run t
} '
Ð Ł
ĠCan terbury
Ġh ack
Sc ience
Ġbott le
S u
cri bers
mod ified
h ouses
ĠS ER
Ġpurs ued
ĠWes ley
ĠA V
14 6
C lock
N ic
Ġin cent
bad ge
B oot
ĠA DC
ĠW WE
ak ov
Ġinvest ed
ĠCont roller
Pred icate
Ġsec ular
Ġprohib ited
F ilters
ĠMerc ury
Ġl ambda
ĠIn fo
up iter
Ġwar rant
l ap
Ġp index
Ġm aj
^^ ^^
Ð½ Ñĭ
Ġreb els
G reg
y u
14 1
Ġblock ing
>: ]<
FRA ME
k el
ĠAm b
Ġcr ack
ĠBul ld
oci ated
Ġwitness es
ĠUn known
ĠK ann
v ae
an imate
ĉ ĠĠĠĠ
stad t
Ġt u
AP PLICATION
> ("
K en
ist ically
Ġcontinu ously
Ġconscious ness
ĠU m
ĠTrans action
ĠE asy
CL U
ĠG es
Ġins ights
le igh
ĠSer ie
ev o
ĠK nown
Ġsc oped
U i
ĠA ircraft
Ġclass room
ĠS urg
ĠAnd rÃ©
Ġcho osing
Ġingred ients
Ġcre atures
Dat aset
Ġfl ush
In her
Ġmod est
ĠSub s
Ġ(! $
Ġdeg rad
ĠIP v
ĠAlb ania
ul ent
ä¸ Ģ
erv ille
ph oto
ĠX ml
go al
histor ic
Ġd jango
H PP
ĠS it
W H
b usiness
Ġt ens
head s
ĠBre nd
y arn
Comp any
ĠMc Car
ount ers
ĠQu ick
Ð½ Ð°
Ġsome how
Ġneighbour ing
S IGN
Ġencour aging
Ġtob acco
Ġs v
ĠJeff rey
ĠEconom y
Ġto pped
olog ic
ĠRoche ster
ĠC areer
ĠLy on
sh aw
Ġqu arters
Sign al
ir atory
Ġinvestig ating
Ġcont rad
iz ards
Ġsh oes
Ġcy ber
âĦ ¢
ĠRel igion
ĠC ash
ĠGar cia
by e
ĠMar ri
dr iven
Ġtri bal
S und
loc als
rest rial
ĠPres byterian
ĠQ uality
3 30
cept ors
Com pute
Ġprof its
b read
F ellows
Ġd ancers
DE LETE
ĠW inners
Ġten ant
ĠKazakh stan
ch urch
Ġout lets
(" -
ott i
Ġstation ed
un its
Ġ" --
Var iant
L if
or ers
ĠV III
Ġru ins
ĠT emplate
ĠM aking
cont rolled
Ġwrest ler
Dist rict
re cht
ĠB CE
ĠR oth
---- --
ĠCont ract
Ġle ather
charg ed
Ġf are
ĠVal ues
Ġcl usters
ron es
Ġref uses
ĠPubl ishers
Ġan ger
ĠShe ll
af a
ĠHay es
A UTH
ad al
unit Pattern
own ers
Fil ename
Rec ent
> ');
b eck
Add ed
Ġtheore m
t ec
ĠCon structor
Mean while
ant le
C ultural
text area
Ġs ink
/** */
Ġsustain ability
ĠV oc
ĠC IA
W T
æ Ŀ
Ġcancell ation
ĠParam eter
ĠG ol
ri ans
F IN
O rient
ĠQ t
Al gorithm
P ages
Ġaccommod ation
UN K
ĠBar b
Ġwithd rawn
w ire
iz ational
ĠAst ron
ae a
Ġter rible
B rand
Ġbl ame
ĠG an
Ġexpl aining
ĠDocument ation
Ġexam ine
ĠD und
Bur ials
id an
Vert ical
Ġf uck
Ġf iber
Ġb eds
ĠAr ms
Ġcompris ed
Ġm esh
A sh
Ġpreced ing
parent s
ĠMen u
ĠPan thers
Ġmon uments
Ġdom ains
S B
Ġpl ugins
uc ci
Le ave
Ġ' {
ĠBre nt
amb a
ĠD iet
ĠG am
Ġintro ducing
ap or
> ';
T ick
ĠD evelop
commun ications
B attle
P N
t uple
t cp
ph erd
ser ialize
ĠÐ ±
ĠCons umer
Ġpass phrase
NotFound Exception
Ġlaunch ing
ĠV ale
ver bose
Ġboard ing
Ġ" ")
Ð» Ð¸
ris k
Ġsk ull
Ġcal m
) '
ĠRem ix
ĠSlov akia
ĠTour ism
Ġdis pers
RE AM
Ġland mark
ĠTH IS
Ġw age
ici ary
Ġpersonal ities
Ġsur pass
M arg
h ydro
Ex ec
Ġquestion ed
qu ant
ov i
ĠHer oes
ĠRos a
ĠMov ies
Ġwrest lers
T ables
li o
ĠSand ers
ins k
ĠGram mar
D ark
ĠLe af
se at
ĠMar tha
Ġret ire
ĠR isk
26 4
get Property
Head ing
or ic
Ġconst ants
Cap acity
Econom y
Ġd type
ĠEm irates
any a
Î ¯
MA G
m ud
s burg
ĠT ank
18 25
Ġreport ers
Ġaccident ally
Im mutable
Ġlegit imate
ĠEp iscopal
ad ia
ast ore
ĠNe uro
Ġundert aken
Ġqu otes
B ot
ĠLuther an
cest ershire
Ġveget ation
Ġp iv
ĠC ly
Ġbankrupt cy
18 14
S printf
pe st
Ġplan es
Ġlast ing
Ġsm allest
ĠS ag
Ġspread ing
ighth ouse
get Default
n is
ĠT error
Ġt ick
18 28
Ġl aps
ĠSing er
ĠM ast
Ã© d
A ctor
cf c
g ui
ĠP anel
Ass ignment
Ġclean ing
w ald
Con stit
ĠMyst ery
ĠE aster
View s
ĠLeg acy
h ole
Ġterm inated
Ġarch ives
Vari ables
ĠF ork
ĠG ates
ĠMar l
ĠMar ian
thread s
ĠS isters
B on
md c
Read Only
inher ited
AS C
ĠSebast ian
N ever
R TC
Ġless er
ĠAnn iversary
ĠMah arashtra
Ġtransl ations
ter ritory
Ġadv ances
ĠL ey
Ġem ig
ĠFor bes
ĠBas il
ch y
ink i
Ġcar ved
Ġflag ship
ment ed
Ġshut down
Ġaccess key
ĠSim ilarly
20 5
ĠUlt imate
Ġgram mar
ĠAl leg
Ġdemonstr ation
Ġsil ence
Ġm ud
qu ick
ĠCh ancellor
Ġam munition
Ġphys icians
mys ql
om p
Ġdes criptions
W he
ĠSh i
Ġo c
Ġsup porter
Ġobserv e
em e
poly mer
ĠR NA
De ployment
uk h
y aml
Ġdivor ced
% ).
Ġc ord
ĠM ing
Ã© l
ĠT ropical
ig raph
ĠAnn ie
b uck
28 0
Interop Services
Municip al
Ġbatt ing
ĠJ ourney
ĠDet ails
Dep artment
SD K
ĠDra ke
ĠGu id
ĠDay ton
, </
Ġsp atial
en ario
O ps
Ġdeterm ining
ĠI z
Initial ized
Ġsynthes is
r int
ĠCar lo
ĠWinds or
est s
Ġdeterm ination
Sw iss
Th ough
Ġtr am
Ġopen ly
c v
ct l
ount ain
ĠQ String
x l
er ick
ĠBl air
15 1
Ġlocal ities
Ġstory line
ĠJohn ston
M useum
F ood
w m
Ġd os
ĠB oss
V ers
an an
Ġ rib
Ġn ervous
ĠB ronze
ĠStand ards
17 75
Ġc ater
ĠG ospel
ipher al
Ġmanuscript s
Perm issions
2 12
ĠH iro
ad vant
Ar ts
ĠL on
text ure
ĠEl se
Ġke en
ĠInt roduction
( @"
/ '
ĠS v
ĠM oss
Ġst amp
ĠEm ail
is Array
h it
ĠMan or
PI O
Ġmetab ol
prec ision
Ġcon gregation
ĠNew man
Ġhum id
Ġb lo
Ġback end
or acle
ĠC raft
os i
Ġhom osex
Ġfail ures
Ġbrows ers
ĠPh one
ap on
Ġman ually
Tex as
J P
ĠMar cel
Ġplant ed
ĠS ara
ĠDom ain
al ore
Ġg a
Ġaddress ing
Ġf ran
ĠRem ote
Ã¡ r
20 8
Ġdeleg ates
ile e
et z
Ġac claimed
ĠLanc aster
ĠProduct s
ak k
Ġcon quest
ĠUn ity
Ġdr agon
ĠAll ah
Ġ um
ĠDod gers
Ġf ears
and i
Ġinstruct or
">( </
ĠHol iday
ĠT at
im id
40 1
ĠSo ft
Ġwarm ing
st ation
Ġwh it
ĠB A
ĠB ast
ĠE rik
ĠN u
ĠRec ording
Ġcelebr ity
ne ys
ĠB B
F B
ĠTh ink
ĠEd gar
Ġprotest ers
ĠSacram ento
Ġcon qu
Ġshow c
Ġsoph istic
Ã¡ ndez
ĠAber de
Ġadvoc acy
ĠH M
Ex cel
Ġrank ings
ĠAp art
ãģ Ļ
ol ation
ĠB alk
ia e
s al
âĶ Ģ
+ '
U pon
ĠCal endar
Ġhash Code
ĠVict ory
Ġoverwhel ming
: @
Ġmag ical
Ġaccept ing
ĠTool s
il ers
30 4
ĠJosh ua
th ouse
Ġeth ics
K nown
ĠL ip
as an
ĠRe in
ĠMon roe
ĠD ud
ĠE y
Ġcor rupt
ĠLouis ville
ĠBud apest
ĠRes erved
uc a
By Name
ĠSerge ant
Ġpract iced
ĠSett lement
Ġpr ay
olec ular
ĠTh ing
ĠUSS R
df s
ole y
ĠPatri ots
j as
ort ium
ĠTrans form
Ġwork place
ĠThrough out
Att achment
re nd
Ġ. /
ĠPr ide
ãĤ Ĵ
Ġlect urer
ott age
Wel come
Ġappreci ate
Ġde alt
W all
ĠPro gressive
à ½
b p
ĠRem ember
æ ī
ĠG ut
ĠBeaut y
ĠAlexand ria
ĠY emen
ĠRock y
al og
arri e
WARN ING
ĠS ent
Ġcomp atibility
C ivil
{ })
ĠLe ipzig
sw orth
S outhern
int ent
Ġdi ocese
Ġhand lers
Ġpromot ional
Ðº Ð°
Ġodd s
ĠCl ara
ĠPl at
Ġm apped
ĠAtl as
DO CK
ĠR up
Enc oder
Ġstrict ly
ĠI M
Ġg ifts
ĠCa es
ĠP E
Ġansw ered
C ategories
ĠTe h
Ġcharg ing
Ġaband on
ĠSam sung
ath am
"> &#
Ġch ap
Type Name
ĠB P
Ġsc ream
Ġcir cles
Project s
é ĩ
ĠMon itor
ĠFranÃ§ ois
Ġc ort
has OwnProperty
oid es
Ġs unk
Ġun e
Ġem br
ĠMey er
Ġdiscuss ing
Ġsens itivity
F ive
Col lector
A ge
He art
Ġsocial ist
LI B
Ġscreen writer
Ġknock ed
brit ies
Î ²
Ġviol ations
ĠParliament ary
dec oration
ĠH ours
ĠCraw ford
LE N
get s
ĠP P
Ġtradem ark
A rab
Ġin cl
Ġn ic
ĠK och
fl ies
ok i
Ġdeleg ation
G al
m are
st en
ĠCorn ell
Ġpers istent
Ġdo zens
Med ical
Par cel
ĠL IC
Ġconsider ably
Ġb apt
æĸ ĩ
as ive
ĠMax well
ur ai
Ġh ire
Ġanticip ated
MPL ATE
ub b
âĢ¦ .
Ã¸ r
Ä ĵ
ĠH our
Ġf u
for ge
Ġo re
pro b
Ġd oses
Ġd iving
Ġr ises
Ġsuperv ision
ĠAv ailable
Ġstead y
is ive
Ġin quiry
× ª
ĠGener ate
Ġcom plications
col ors
f ootball
j iang
Ġpeace ful
Ġcondem ned
K ar
Ġg ravity
S N
f u
ĠIn stance
Ġarg uing
Ġob l
18 13
ĠH P
int eg
Ġun ited
Ġillust rations
Ġinhab ited
] ];
ĉĉ Ġ
Ġdirect ive
so lete
ĠSouth west
S um
ĠChurch ill
Serial izable
Ġwitness ed
define Property
ĠSu ite
al tern
ag ascar
ĠĠĠĠĠĠĠĠĠĠĠĠĠĠĠĠĠĠĠĠĠĠĠĠĠĠĠĠĠĠĠĠ ĠĠĠĠĠĠĠĠĠĠ
ĠSuper ior
elect ric
Ġserv ants
ĠMer cedes
Ġg em
Ġthe ology
ĠBut ter
Ġprox imity
Ġmed ic
Ġp ocket
um ing
CON NE
Inst ances
Ġen larg
Hel pers
J O
Ġdis hes
S ix
Ġd ent
Ġd ad
Ġret ry
ĠPat tern
ram er
Ġfin anc
ĠGreen e
ex ceptions
unt u
Ġcomp ly
Ġuncertain ty
mult iple
Prot ected
copy right
port ion
y en
Ġdec imal
trans fer
iling ual
ĠNapole on
ĠPoint s
Ġil leg
Any Ref
Ġsen ators
ĠS ik
Ġtechn ological
Ġg arn
ant ics
ah oo
param ref
Ġd ign
arn ess
5 50
rew s
ĠGr iffin
ĠE ducational
Ġex tern
ĠSab ha
Ġab ort
ĠAppe als
-> {
Ġinv itation
pre ferred
Ġacadem ics
Inv oke
Mod ules
EX TERN
ĠN iel
igg ins
G iven
lock ed
or ian
ĠB j
std out
Ġevery body
ĠWal sh
B rown
el ist
ĠCl aud
Ġh ierarchy
Ġ' ../
STAT IC
Ġto g
n om
Ġl ord
asc ade
Ġfin ancing
Ġcorpor ations
B uilt
ĠR i
Ġm arri
ĠQ atar
Ġen listed
oh an
ĠV all
Ġpolit ically
ĠA ST
Ar m
act ivate
equ ality
r ators
ĠL ah
ĠSol utions
16 00
comm ands
ĠId entity
S hips
St rip
Ġkick ed
Ġh urricane
Ġal igned
Ġdi agram
ĠG ian
Ġpro files
Ġfol ks
ĠT itan
Ġadequ ate
Ġe arnings
odd ess
ĠAdv ance
ĠNap les
ĠCow boys
m ot
Ġrecre ational
****** /
âĢ ²
Iss ue
ĠK C
ut ing
ĠS L
ĠF ashion
Ġcarri ers
mac ro
sub str
Red irect
Ġfin ite
ope z
Ġsuggest ion
Ġam end
Ġsp otted
Ġv oyage
t el
Ġm k
am ically
ĠKenn y
ĠMidd les
to ctree
18 29
Ġin ev
vari ables
I BU
I LED
"> {
ĠDyn asty
Ġassass ination
im ag
Ġsav ings
Ġinter ven
Ġrival ry
Pro c
Ġliv est
se en
Con flict
ĠBer ry
R ST
Ġm ansion
ĠF loat
ĠE yes
f actor
ĠR ect
ch arts
ĠSt ack
18 24
cl amation
Ġs ab
com press
ĠS afe
f m
ĠF ur
h ibernate
ĠR unn
ĠCitiz ens
=" <?
ind ers
å º
ĠG ross
Ġwel comed
ĠP itt
Ġpost hum
Ġb unch
Ġfilm maker
Ġequ ations
Ġbas ement
Germ any
Ġtom orrow
s ap
are z
Me asure
Ġin finite
(" <
Ġhead quartered
Ġvolt age
ĠJen kins
Ġsystem atic
Ġsumm ar
ĠStef an
Ġb ush
Ġrun way
control s
18 26
FO RE
Ġrub ber
Ġbusiness people
s ound
m inton
n orth
ĠAct ivity
ag ogue
Ġre duces
ĠSc i
Ġp tr
Ġterrit orial
=" //
j obs
l v
ĠĠĠĠĠĠĠĠ čĊ
Ġ iv
ĠP f
Over flow
Ġcomp ass
ĠI X
RET URN
al ions
15 3
ct ica
bal ena
* .
ott ing
Start ed
Ġc ement
ch ard
Ġdec ree
os ion
Quest ion
Ġvar s
Ġind ie
[] )
Ġtrust ed
ĠN HS
Ġche ese
ĠB allet
Re ceiver
im eter
ograph s
Ġh ab
Th anks
y outube
ĠC ities
vert ex
Ġcontest ants
V oid
S PE
art e
ĠH MS
Ġvol cano
Ġst arter
ĠM ats
ĠW ings
Ġfact ories
Ġproceed s
implement ation
ĠH R
Th rows
Ġsk etch
Ġclean up
Ġint elligent
font s
Direct or
Ph aser
y on
pre ced
Ġlic ence
Ġs phere
Ġdon ation
MP TY
ĠBe a
eros pace
[ [
ant es
End emic
o ine
ĠRh ine
Spec ific
ĠToy ota
ĠCl uster
ĠMon ument
ĠFe atures
Ġconvers ations
? ,
p enter
Ġsh irt
TO DO
æ ł
ĠG B
Ġam bit
; ]
m ong
ĠH ert
Ġadjust ed
Ġrook ie
atri ates
Ġm aternal
Ġproceed ed
bass adors
ĠDe leg
14 8
21 5
d ro
Ġr ushing
Arch ive
4 80
s napshot
ĠT ah
ĠĠĠĠĠĠĠĠĠĠĠĠĠĠĠĠĠĠĠĠĠĠĠĠĠĠĠĠĠĠĠĠ ĠĠĠĠĠĠĠĠĠĠĠĠ
Ġunemploy ment
da ughter
Ġor b
Link s
C PP
V en
ĠL ines
az el
Ġclimb ing
ĠAlger ia
ĠL al
Ġdevelop s
ĠG A
Ġm ere
ĠD WORD
ĠĠĠĠĠ Ċ
Ġmult ip
Ġcomp aring
RE C
ĠV AR
ĠMar ÃŃa
Ġcycl es
pos itions
ĠUs ers
qual ified
ĠJane iro
East ern
Ø ¨
ĠTh ames
ĠS ugar
Ġut ter
ace ous
iod iversity
Ġdepict ing
K im
Ġout s
M u
18 21
Ġfavor able
cha ft
Ġf usion
ĠP ione
ĠN ass
und o
Ġl icenses
Ġres pected
Ġli ability
G er
pe i
Ġwor ried
Ġassess ed
ĠBald win
std lib
Char acters
ĠSpring field
or get
at ro
ĠJ ets
S ink
ĠMin isters
ĠTanz ania
ĠRE AD
sh iv
P ACK
ad ic
ĠNAS CAR
ĠArg s
Ġt et
Ġexhib its
Turk ish
A k
Ġsoutheast ern
Ġt we
ĠGener ic
Ġpath way
ĠKarn ataka
Ġun used
Ġwe ights
ĠJul ius
Log ging
Ġcons erv
Ġl ymph
os o
Ġo ak
K h
ĠL uck
log ue
R ub
co le
Ġswim mers
15 6
aaaa aaaa
ĠC ounsel
Sh op
50 1
Ġcollabor ative
ĠM am
Service Model
Ġh ull
ĠL adies
og rap
Ġv ine
Ġfound ations
ĠCh anges
Ġdifferent ly
ian ces
ĠR ican
ĠBol ivia
ĠFI LE
Town s
G uest
Rev ision
part ition
Cl osed
ĠMos es
comp iled
ĠN orton
ĠJ O
Ind ices
CO VID
f bb
Art ifact
ĠGar c
ĠGriff ith
r ors
Ġunder go
w y
Ġelectron ics
Ġfre ely
Ġdeter ior
Ġrec urring
d ad
ens ed
ob ar
Ġdes ktop
emb ed
Ġkilomet res
ĠA FL
Ġesc ort
IBU TE
LO AT
DO WN
Ġsup ern
11 11
ĠDep ression
Co ins
con c
constra int
15 8
H aving
ä ¹
Ġconcent rations
s izing
ĠMalays ian
S el
Ġad verse
s ame
erm o
Th ank
F IL
ĠR ifle
Ġsc attered
Ġre nd
ĠWeb b
ouri er
ĠH ydro
Sh ift
b ars
Ed ward
t emplates
Ġad mir
act ivated
Ġhe aling
Ġexperi encing
Ġtrain er
field set
Ġver ification
Ġabsor bed
s u
ĠP ok
ĠH erman
ĠAp ollo
Ġ" {
eg ie
Ġin complete
Ch oice
ĠKnow ledge
Ġlink ing
Ġcritic ised
Ġf illing
Ġg ates
ĠD ry
ĠRe ver
/// <
Ġstock s
itt est
Res olve
ĠNew foundland
Ġport raits
Columb ia
Ġtog gle
ĠTerm inal
Ġiter ation
Ġgener ates
r ÃŃ
Ġj ack
r w
cl air
let cher
Default s
Ġbre ach
id ian
Ġdestroy ing
Ġcost ume
Rout ing
Dis patcher
ĠK ick
ĠValue Error
Ġim plies
ĠZ ion
ĠCar bon
Re q
Ġlo ader
ĠP K
Ġcomb ining
ĠJud a
Ġd orm
Ġvol untary
14 2
Ġr ider
ĠIN T
bra him
Ġw ickets
Ġf reed
cat Desc
Ġp ine
ĠRed s
hard t
D AT
Israel i
ĠWinn ipeg
Man ifest
sp ons
ĠPar agu
appro pri
ĠDe al
ook ies
Ġph on
........ ........
Ġp ip
Ġrem n
Ġbul let
Ġmission ary
Ġcompos ite
Sub mit
ĠL ep
Ġt ang
ĠAsh ley
Ġbreak fast
NO TE
it as
il ib
Ġb allet
itor ies
ĠBrown s
ĠB le
Ġcons umed
Ġmodel ing
u ent
Ġkn ife
Te ams
M LE
ES CO
Ġmob il
Ġbl ess
Ġsk illed
ĠS Y
ĠGu jar
ĠSuff olk
ĠW ords
Cath olic
pl er
es p
Ġrestrict ion
ĠL ords
Ġnews letter
sl ides
Com puter
__ ["
NO SCRIPT
ST EM
Ġpur ple
et les
20 6
ĠK erry
15 7
ĠTele graph
R o
ĠS ue
or ig
abs olute
I MAGE
and in
Ġpron ounced
u ency
ĠE ST
Ġid s
) ?
Ġcre ature
ĠR he
Ind icator
Ġun ity
Ġsing ular
ĠBra h
ĠD R
R pc
Ġr idge
Ġadvis ory
17 90
ĠAm ateur
ĠPort smouth
ia k
get Data
ass ic
Ġrep airs
Ġf ingers
[ ],
Ġor phan
CP U
] -->
ĠP iet
18 01
ext ends
Ġcorrespond s
ĠCase y
Check er
Debug ger
Ġbom bs
, .
Ġc s
ent on
Ġl ith
ĠF ail
D oug
T en
Ar c
w on
Ġful fill
Event Handler
Ġcommission er
Ġannounc es
ĠPre vention
Pre view
Ġf action
ant ed
Sc ot
ĠGust av
cles iast
ĠF rame
ĠFergus on
ĠEst abl
r ases
Ġrenov ation
Tag Name
Ġrecommend ation
ĠMaterial s
ĠQu int
ier i
aur ant
Ġhard ly
C tx
Cl osure
Ġpre ferences
Ġmeaning ful
Ġconsult ing
g ement
Ġg am
Ġ} ));
ĠB rom
H OT
est e
Ġdis putes
Ġord ained
* >
ĠBav aria
Ġc af
let ing
18 18
Ġexp ired
Ġa pt
ĠC airo
Ġpro be
ĠChile an
Ġdec ay
Ġrul ers
ĠSof ia
ĠDar win
Ġt ender
ĠSpeed way
ed ges
Ġor ig
ĠGr ass
ĠN om
Ġpl asma
ENT S
p resident
oc es
Ġins pection
Ġir r
Ġfort une
ĠStat ement
Ġcontin ent
ĠSch ol
ĠA ce
Ġsen ator
ĠS Ã©
ĠC od
Ġa ws
valid ator
ew ater
V el
et ric
Ġend angered
ĠFil es
Ġcomm od
Ġcomm ittees
il on
ud ge
Ġwork force
ĠDor othy
Ġexp atriates
inner HTML
Vir gin
Ġp arsing
TE GER
Ġsh ar
Ð¾ ÑĤ
ĠMet a
S ys
[ _
Ġsur geon
Ġton ight
ĠMult iple
ĠBeaut iful
Ġadv ancing
y our
C ong
c ategories
art icles
__ _
Build ing
ĠCl aude
at u
ĠF ollow
Ġre vel
ĠM aps
CE P
, $
Ġhabit ats
HAND LE
Ġd ors
Ġtable t
ĠStart ing
å® ļ
; -
Ġ ../../../
ring tone
ĠRec re
ĠL ay
g age
vis ions
Ġc oc
el ic
est y
Ġpr ide
Input s
Ġ[ ...]
ĠUp dated
Ġtoler ance
Ġb is
ĠĠĠĠĠĠĠĠĠĠĠĠĠĠĠĠĠĠĠĠĠĠĠĠĠĠĠĠĠĠĠĠ ĠĠĠĠĠĠĠĠĠĠĠĠĠĠĠĠĠĠĠĠĠĠĠ
ĠW olver
Ġint act
ĠBuddh ism
ĠERR OR
s at
Ġf d
ĠPart nership
Ġbeliev ing
ĠG reatest
Map s
ul ous
Ġreg ener
ĠRes et
ĠM ouse
xx xx
Ġmathematic ian
Â ²
ĠHard y
ãĢĤ </
Sl ide
Ġpen alties
S uch
Ġsp are
Ġfe ver
ĠLith uanian
Ġincred ibly
ab b
Ġat om
ĠAll ow
Ġmass acre
Ġterror ism
ours es
ĠChar leston
ĠMur der
old s
pt iles
EN S
ĠTasman ia
Ġregist ers
orient ation
as aki
ĠC ONT
ĠR ig
Ġdepict s
Princ ipal
SE C
lo o
Ġteam mate
avor ite
Ġnav igate
sc ience
Ð¸ Ðµ
p ixel
o qu
Ġre build
Ġeduc ators
Ġl od
Ġde ceased
Ġdoctor ate
Suppress Warnings
es que
Ġdram at
Ġm inds
Cre ator
Ġmiss iles
m ig
Ġ( ((
ate ful
Ġdest inations
Ġl azy
ĠCON FIG
Ġaest hetic
ap o
Ġautom ated
ĠEston ian
ĠTe ams
Ġcontin ental
Ġorche str
ĠC ave
Ġpoll s
A CTION
ray ed
Ġbroad caster
ĠEv il
Ġc ry
ĠZ amb
ine es
Arg entine
Ġdi abetes
P atch
Ġde code
ĠRab bi
Ġpast or
Ġreve aling
eg al
other apy
ĠAs ync
c ov
ĠS TR
ud s
Ġem power
P OL
ote chn
Ġmilit ia
h in
Ġorgan ize
Ġsw ap
open api
F un
Ġpar ishes
itt ers
Ġt urt
Ġboy friend
Ġb arriers
ĠL af
PAR AM
ĠUrugu ay
im ar
l ambda
Ġhigh ways
Sm art
Ġs our
Ġident ifies
ĠNik ol
d w
Ġpack aging
Ġem ails
do es
Tim eline
P icture
Ġpil gr
ĠChar l
uc c
Ġavoid ed
With in
Ġpostpon ed
ĠS olid
ĠBang kok
Ġs lope
ĠR C
Ġneighborhood s
ext ract
CC FF
ĠR ip
Ġinter ference
ĠD olph
Ġhe ct
Ġdet ective
Ġhand ful
Ġcancell ationToken
18 10
Ġtri angle
Dim ension
ĠHann ah
ĠC ul
ĠAl ways
Ġexpl ores
Ġdiv ide
ĠSem inary
ĠSD K
Ġbl end
ĠMon ica
Ġconv iction
Ġambit ious
Ġfl own
ĠBrun o
ĠIs abel
Ġis set
Ġbass ist
ĠLe ave
16 7
hor se
Ġdeprec ated
F X
Ġtr aces
Ġsm oking
am oto
ĠC anton
Byte Array
ĠGaz ette
Ġparticip ant
arch ar
ĠTr igger
Ġsent ences
z an
B rian
á Ģ
Ġo v
Ġnortheast ern
} `
ĠCy ber
( ",
15 4
/ %
cess ion
ĠCO L
Ġanaly zed
ab ar
D ER
Ġsacr ifice
Ġlater al
Ġex ercises
Ġarm ies
widget s
Ġvert ices
ĠParad ise
ĠC ay
Ġconv ince
Abs olute
Ð ¡
ep pe
ĠC ert
ĠBrad y
Ġlong time
Ġweak ness
D am
Ġancest ors
orce ster
Ġprint s
ĠSpec ies
Ġelim ination
r er
Ġexcess ive
Ġlect ure
c us
Ġad mit
spec ified
print s
pe er
ĠInd o
Ġtra uma
ĠKle in
ĠS chema
ĠCom ic
Sc ient
Ġscreen play
Ġag gress
ĠEuro vision
Is Null
Ġdro ps
um inate
Ġsynt hetic
inn ings
; ,
A WS
22 2
Ġneigh bors
ĠWIT H
D MA
Ġhe ating
sw ap
ĠK ane
as ium
($ _
Ġgar age
Ġinter rupted
Ġdirect ing
ha o
ĠB erm
idd ing
Ġjoint ly
Ant i
âĢĿ )
Bench marks
ĠBra ves
ĠR ES
ĠN amed
H int
ĠR FC
au ce
ĠLeic ester
or is
ĠKrish na
ĠI o
Ġc ass
ĠSc ore
iol a
ĠS plit
Ġuns afe
Crit eria
ĠS ister
ĠM ick
ĠPl ain
Ġst upid
ĠBM W
Ġl ane
Ġroll ed
ĠCatalog ue
ros so
Ġc rystal
ĠR ise
Ġcontribut ors
car ousel
ĠF ro
ĠA SC
ĠBel t
Ġd ella
ĠR ising
ell ation
Ġs aves
us ive
com fort
ĠØ§ ÙĦ
h int
Ġd t
un til
E lection
Ġret rieved
ĠSand y
ĠHeavy weight
ĠT ru
T em
Â «
Ġcrit ically
ĠMar itime
Ġsn ake
ed ged
ĠHonor ary
In clude
Ġsh r
Ġsc al
Ġins isted
y ellow
tt i
R ot
Ġm aker
ĠFor ward
Doc s
ĠTheod ore
ĠF ake
ĠBo at
ĠAd vert
C ycl
av atar
Ġsw ift
Ch at
Loc ator
ĠTri al
Ġh ooks
plic a
Ġanalys es
E s
v ine
Ġh oly
Ġninet eenth
Ġpre cis
Ġsail ors
16 1
< >(
ĠSp ark
che l
Ġ-- -
m achine
an ions
Ġr ush
Ph ysical
ĠM Äģ
Ġbo om
W inners
Ġm akers
Ġsub urbs
Alex ander
de ploy
ĠDream s
Ġtorped o
Ġph ases
ĠHal ifax
Ġun set
++ ++
Ġd atabases
Ġb arg
ĠW ins
Ġcorrespond ence
war f
Ġprosec ution
w ings
Ġcolon el
ĠH its
Ġcler k
Ġposition ed
cl iffe
Ġg reet
ac ious
ĠW ong
p ow
Ġtra pped
Ġsl opes
Ġlog ged
Ġancest or
Ġdrink s
const it
Ð¾ Ð½
ĠIn ner
fail ure
ĠCop a
T am
Ġ ç
per ature
In spector
ID s
Ġflower ing
product ive
Ġjump ing
u en
x ref
port folio
ian i
ĠSh an
ĠR TC
Ġdel ays
ĠBet ty
f ee
Ġindic ator
ĠObserv atory
ì Ŀ
Ad apters
O x
V IS
ĠR ally
AME TER
Ġcontact ed
N il
ĠR andy
Ġro d
ven ile
Ġb anner
May be
ĠAppe al
ĠM ell
IC AL
Architect ure
i oc
0 100
External Project
Ġdeterm ines
Ġge ographical
ĠB agh
Ġsp ite
mon itor
Comm unity
ãĥ ³
Ġsampl ing
synt ax
Ġspecim en
Ġtong ue
N BC
Q UE
c odes
ĠP all
ĠB un
ĠWe i
ĠPer haps
ĠFre eman
m f
t ier
Ġgrad uates
ĠResp ons
ĠS ens
Ġfru its
Ġim ports
ĠK Ã¶
Ġsub set
Ġg oddess
ĠH err
Ġcont rary
C ached
end e
ram id
ĠCrit ics
Ġgr pc
r ath
Ġint rig
ĠX V
ograp hed
Ġb uck
rest rict
char set
ĠTe en
o op
Init ialize
Ġnon profit
Reg ex
ĠLIC ENSE
Ġmet eor
Ġpar ade
ÑĢ Ð¸
=" ./
] >
ic ion
ĠQu artet
Ġlar vae
ĠJ ag
Ġtrans mitted
Ġprotect ive
sp in
get Elements
USE D
neg ative
Uk rainian
ĠAdd s
ĠEv olution
ĠF ear
ĠIter ator
G h
l ov
ĠMar ines
Ġw it
Ġe ager
Ġqual ities
r ud
ĠConstit utional
tab End
Ġdir ty
L ost
cer pt
Ġadvoc ates
Ġjo ke
ĠT ucker
Ġmach inery
Ġin clusive
vis ibility
Draw able
Ġsubstant ially
on line
ON LY
Ġanth ology
ĠS tern
occ up
ĠD ocker
Ġswitch ing
ĠWin ston
IC S
Ġp av
haus en
r ade
Ðµ Ð»
Ġre construct
Ġbar rel
up pet
Ġch icken
S PI
merc ially
x it
Ġne ut
ob ic
Writ ten
Ġbro ker
it ated
ul ine
ob y
Ġreg ards
year s
Ñ ī
Ġadvant ages
ĠTra ffic
L com
comp any
× ¨
Ġl ucky
ĠSh ared
ĠTrin idad
N L
ĠEd win
ĠFl at
atic an
Ġlack ing
" +
L ord
ee per
Ġest ates
Ġseason al
Ġdel ivers
Ġ{ })
Ġview er
Ġadvent ures
Ġconven ience
ĠCon vers
Ġtrans fers
pers istence
Ġmamm als
ou rable
ĠZ ach
: **
v t
ĠCO M
N ear
Ġw ages
ĠT ypes
sql ite
F a
Ġthe olog
urre ction
olk ata
Ġtri umph
Ġmar ble
ĠAL L
Ġgrad ient
inds ay
Ġspons orship
F ish
eb ook
ari at
IF T
Ġmob ility
the m
ĠMan ual
Log ical
lyn n
ĠF DA
ĠS erv
ĠW ave
Ġla unches
> ',
ul er
ĠLis bon
Cred it
as por
ĠL und
Ġr ay
ĠQuest ion
Ġrem arks
Ġorgan isms
ĠB uy
15 9
ĠT ue
ĠMon ster
Ġelect r
ĠCamb odia
ĠBes ides
ĠBulld ogs
Ġ è
Ġc arn
Ġfin ishes
capt ure
Ex change
Ġmark ers
ĠNav igation
Ġappro aching
ĉĉĉĉĉ Ċ
Instance Of
18 23
ec hes
ĠW ander
ĠF resh
Ġcub ic
Man aged
ĠReb ecca
an ium
ĠP D
rec ords
ĠThom son
Ġrevers ed
Ġex clude
Ar row
Ġmission aries
E c
ĠB ren
em y
Un lock
ĠD ro
ĠB ash
m ith
Ġcorn ers
Ġad oles
Ġen force
A IN
ĠH ear
SL ONG
Ġdifferent ial
22 4
Get Type
ĠStrateg ic
ĠQu inn
ĠMad agascar
Ġreal istic
Enc ode
p arsed
Ġflex ibility
ĠM T
Ar n
Ġload s
9 78
Ġsub urban
ĠOr t
Ġll vm
V ote
Represent ation
ĠSc ots
Ġbar r
ĠAr ist
Ġvic inity
im iter
Ġprob able
ber ra
ĠBl u
string ify
Ġst unning
Ġorgan izing
Ġt ends
ĠLe one
Ġtro phy
Ġmed all
ĠAg u
oc ide
So ft
ĠF uj
Ġde cent
Be etles
T i
Ġp neum
21 30
Di Container
Ġd y
ah i
assert False
ĠKos ovo
ĠY uan
aw k
') ).
Ġdro ught
Ġair ing
Ne ill
wik ipedia
ĠRoman ized
in verse
Ġn avy
Ġcre ws
oph on
Fixture B
Cl ip
Ġcomb ines
ĠSc hedule
Ġmos que
Ġb ol
Ġenc ounters
Ġcool ing
Ġ" :
Ġap par
Ġb urden
ib ia
ER Y
M AC
Ġnob ody
W ords
ĠCh ip
sw iper
à¥ ĩ
Ġ/ .
(" [
ĠEff ect
ĠZ oo
P in
ch oice
Json Property
Ġs ne
ĠE ra
ĠEr nst
ph ot
Ġrent al
Ġde ferred
set Value
Ġsouth western
pro of
jo ined
ĠF alk
Ġpoll ing
DiContainer Benchmarks
ele g
oper ative
M argin
ĠT IM
apeut ic
Ġf ier
Ġval ued
m our
Ġdist ances
om ore
ĠV acc
ĠHol ly
Ġcelebr ating
Ġt emplates
Ġl t
ĠSen ators
T wig
ĠC ult
ĠTra vis
ĠEx ternal
Ġsk ating
Ġauthor ization
ĠBo hem
Ġtra iling
rop y
ĠL opez
PE G
Organ ization
Ġelabor ate
Ġhe aven
17 7
ST AR
get Logger
Ad am
B ang
re ports
c ards
R on
ĠY ard
unn els
Cl one
ĠDes cribe
ĠLeban ese
j ee
æ ³
Ġmot ivated
Ġin cons
4 000
Ġprogress ion
ĠGre ens
ĠMar qu
Ġjust ify
uv ian
b ard
\ +
F inder
Ġkey word
ĠLat via
Per formance
ĠW C
art on
ĠHe y
ĠP aint
Ġshe ets
L arge
Ġpol o
}} </
ĠD eveloper
f un
Ġcon sec
ĠLear n
ĠR B
H i
Ġresc ued
Ġ} .
Ġcour tesy
ĠA TP
(' ../
ĠStre ets
DE VICE
Ġp el
Ġthreat ening
C ss
Ġd upl
Ġsh rub
Ġfort ress
ĠTerm s
n or
ä ¿
ĠR iley
Ġfin est
des igned
Art ists
ĠS iege
ac ia
Ġde er
ĠB attery
pos able
Record ed
Ġto ile
Ġ$ ("#
Ġ' )
com be
Ġcor relation
ĠBro ck
Ġpartn ered
Ï ī
att i
ĠTreat ment
ansk rit
Ġre open
ra ise
ĠRom ance
16 2
Ġo ps
Ġl oses
Ġle ak
ĠProv idence
GEN ER
dis ci
ĠMe et
Ġpl ug
keep ers
ass o
Ġpoly mer
et ed
Ġcommand ing
Qu ick
Ġenc rypted
Ġsleep ing
ĠP ray
ill i
Ġsurvey s
Ġph y
plic ity
b ours
ang an
rel ations
ĠY osh
Treat ies
17 6
Histor ical
Ġgen ome
B oston
ac i
Ġfl avor
ĠReg ular
Ġsub group
Ġtw entieth
Ġche f
R os
Ġt ales
ĠGael ic
ĠW itch
ĠTrans fer
Ġnav ig
ĠW id
ĠI TV
16 4
Ġten or
Util ities
product s
Ġcar b
Conn or
ĠGeorg es
ĠÄ Į
Ġconfirm ation
ĠF erry
Ġ" ./
ĠP ART
C amb
read able
Ġgen uine
ih ar
ver b
Ġac claim
Writ ing
Ġbes ide
g allery
on er
ĠG unn
request s
Ġparse Int
E lections
ĠTh ought
ur ally
bar rass
omb ie
Ġcou pled
Mex ican
ĠCam eroon
Ġ" ...
Prot otype
Ġly ric
Ġv endor
Ġpractition ers
ĠChen g
n ar
Null Exception
Ġclin ic
Ġrev ived
access or
Ġcriminal s
Ġoblig ations
Ġle x
ey er
Ġnetwork ing
get Time
> ";
Ġ" ");
18 27
ĠMoh ammed
Ġp ier
ĠR S
ĠPhil harm
short cut
ĠBas el
and ez
Ġun t
iss on
Ġp unct
? .
z ier
strument al
R oy
ic ating
Ġend e
ĠGuatem ala
Ġse ating
R ace
Ġs q
Ġcon ceived
Ġinaug urated
ist on
Inv ocation
Ġforg otten
Ġdiv ine
ism iss
18 22
ĠSh am
ĠMcCar thy
Ġcr ater
ĠF lo
disci pl
la us
Ġfac ade
Ġexp elled
XML Schema
ĠL IMIT
Ġham let
ĠHaw ks
School s
Ġd in
ĠGarc ÃŃa
Ġh orm
ut z
Mar ie
Key board
ĠSc ene
Ġover t
ble ms
et al
ĠM ilit
Ġreg ulated
c end
The ir
ys c
Ġther ap
ĠSaf ari
Ġc ats
Ð¸ Ð¹
Ġpartnership s
Ġsurg ical
W P
ever y
anth a
ĠE lectoral
Ġtraff icking
rit ic
ĠÂ ±
A BC
LE ASE
ocom plete
Pl aces
Ġprinc ip
Ġdead ly
ĠProgram s
ĠMoh ammad
Ġspokes man
ow l
ĠLo op
Contin ue
ĠS ard
ĠCar son
16 3
Ġpro found
y ards
ir ling
Ġtrans cription
ĠAss essment
l ining
ĠE L
ĠM ets
Ġreb el
t ick
Ġsecre ts
w at
Ġsm ile
alth ough
ĠG ive
Eng land
ĠDrag ons
ĠPar ade
Ġsem ifinals
Pro ducer
Ġcell ular
------------ --
] ",
"> "
ĠAR M
ĠW ine
Ġstrong est
ic ies
ĠAngel a
ev t
orget own
18 17
ĠChe v
ĠSac red
Ġinitial ization
ĠTri p
Rel ation
al and
ĠL un
ĠCO LSP
ĠCOLSP AN
ĠUnder ground
F riday
et ches
Fl or
ab ella
Ġinn ocent
ĠSh erman
Ġfl ora
f ork
vent h
Ġcann abis
Ġp i
D ar
Ġac ids
Ġphilosoph ical
Ġjew el
M X
N an
ĠN ixon
ĠJoh an
ĠPhot ography
J ones
Ġst air
Ġn as
ĠG ymn
Ġqual ifier
OP EN
ExternalProject Path
b red
DE P
HEAD ER
ĠSup erman
ĠMar athon
Ġbl ob
Ã¼ ck
ĠMir ror
Ġcapt uring
prevent Default
ĠM add
ĠR ao
pre tty
ĠDE BUG
Ġrenov ated
Ġrefere e
Work ing
Ð½ Ð¾
ĠSup erv
establ ished
N F
\ .
Ġred ist
s aved
Ġcallback s
ĠLib ya
keep ing
Ġb arn
od i
ne o
ĠMon ter
ast ro
ĠRes ort
L ex
Ġm im
pro ducer
Ġbe an
ann ers
eff ective
Ġtr agedy
fin ish
linked ExternalProjectPath
E ll
pl iers
ĠBoy d
ĠChen nai
ĠC inem
o auth
In ternet
Col lect
ĠMonteneg ro
Or g
Max imum
18 09
ĠAc cept
b irds
n ear
-- ;
ĠS ql
Ġdoc s
App le
ĠChap man
Ġ< ![
ĠVeter ans
t alk
w ang
In vest
v oice
ĠCast ro
preced ented
og h
orm s
Ġrecre ation
ĠGand hi
Ġapart ments
Ġteen age
ĠTim othy
ĠSign al
ĠÄ Ĳ
OP ER
K ore
t ics
out line
Ġsp elling
min or
Wh ich
NUM BER
Ġendors ed
Ġcontract ed
Ge o
Ġpick ing
P ark
Block Index
Ġvac ant
Ġ nd
ific ant
Sat urday
3 75
ĠJ as
Ġprecis ely
Ġdig its
Ġwood s
t ex
Ġind uced
Typ ed
b ill
ĠL iz
on o
Ġfl ies
Ġrenew able
Ġsh out
30 3
m eter
ĠMid lands
ĠGab ri
inter faces
Ġnob ility
ĠBeg inning
ĠH undred
Count y
Ġaw esome
ĠH utch
led on
Ġrev olt
ĠAltern ative
Pier re
Ġp enn
Ġnick named
c ord
ĠM esa
isc ount
Dis able
Ġm ate
ĠS yracuse
ĠD ock
Ġguitar ists
upload s
m itting
sl ug
ĠN em
ĠHam mer
Prop ag
AA F
Ġbreak down
Original ly
================================================================ ========
aut s
ĠS ind
p romise
pe x
ĠSt a
ĠWill ie
ĠCD P
process ing
Ch apter
Comm ands
fri ed
Ġrender er
ĠTor res
Â Ģ
ĠF ocus
ĠF iji
Ġbox er
re ject
ĠU ri
ĠM are
IS O
ĠTra ce
et erm
Ġar ithmetic
erc ul
empl ar
Foot notes
ins ki
ĠB org
ist ogram
Ġfro zen
ĠAm anda
Ġsuccess ive
3 40
anc o
PROP ERTY
Com position
list en
Ġposs ibilities
ĠPat ricia
ĠCrit ical
ĠIm prov
Ġp ent
17 8
Ġinvest or
Alloc ator
ĠD ust
ĠR oma
Ġspir its
ĠH ond
ht on
Ġg otten
dr ive
Ġpr incess
ĠS ame
gr ass
pl aces
Icon Success
Ġoffer ings
Ġeth ical
Ġmet all
Ġthe aters
ure n
Ġproduct ivity
S ex
ĠSal em
ĠSh ak
() "
TE MPLATE
× ľ
Ġb ust
inter est
Face book
ĠP ond
30 6
/ ?
L atin
uche ss
Tool bar
al ong
ĠInd eed
Ġextract ed
S pl
ĠD art
BU F
inherit Doc
Ġh aul
Ġl anes
h aul
ell es
ĠP ale
B all
ĠR ather
St ory
Step hen
H ong
Ġrout ing
ĠCam era
ĠCh ain
eb e
pos itive
bour g
Ġcycl ists
ĠK ai
i ade
v ian
play back
ĠMad h
Tr ust
Ġimag ery
n h
ug o
Ġcerem onies
L i
Ġp ep
Ġhad n
Dec ode
W at
Pr ince
F it
ĠP ub
ĠL ik
ĠPro ceed
Ġbit ter
Ġins ult
Ġsubt le
Ġk g
Ġcom merce
ĠP ag
Ġreleg ation
P ot
Ġal ike
olog ne
Ġhuman itarian
get Current
Ġexp end
la unch
B log
Throw able
ĠH ast
m ine
Ġpurs uing
ĠM VP
; =
B a
Ġair ports
Ġretail ers
Ġchemical s
sc hedule
l uc
resource GroupName
Ġs sl
ĠT ut
ĠM ist
ĠY uk
Ġtr unc
Week ly
Object Meta
Ġcrypt o
Leg al
Col ors
Em itter
ĠSt rike
Ġloyal ty
ĠO le
ĠPet erson
he ed
ar ine
Bo ard
20 9
mer ged
Ġcrown ed
ĠA IDS
Ġsub species
Ġcap ac
ĠGard ner
ĠG R
bit coin
Il legal
ĠD NS
an as
23 5
Ġintro duces
18 03
Ġrail ways
Ġenroll ment
ard ment
ĠAuth ors
17 9
ĠRel igious
cl er
Ġarg v
dat as
Ġdiscuss es
id ually
Co ord
ĠPod cast
Ġres ist
log ic
vers ions
H ey
ĠCON TR
ĠCol ony
Ġmar itime
asm ine
o ct
ĠNetwork s
18 2
18 06
ĠHe ader
ĠLa ur
Ġconstit ute
Ġcount ing
ĠHam pton
Ġoptim ization
Ġtort ure
D ot
ĠC BC
Ġse q
Ġment or
Fat alf
Ġtrump et
ĠI con
Ġvot er
ĠBalt ic
ĠOcc up
Ġsophistic ated
fore st
Ġf el
Ġbad ge
W ITH
ĠT win
18 08
ĠLank an
ĠTit ans
ĠDi agnostic
Ġl ighter
k ie
Ġher b
20 7
enc oded
ĠRes cue
Ġsor ry
ry n
ĠRuntime Exception
re ceived
17 58
ĠĠĠĠĠĠĠĠĠĠĠĠĠĠĠĠĠĠĠĠĠĠĠĠĠĠĠĠĠĠĠĠ ĠĠĠĠĠĠĠĠĠĠĠĠĠ
Ġpassion ate
ĠS uk
Ġup ris
Ġret riev
Ġg fx
Ġra ises
ĠEm bassy
Ġdis charge
Ġmist akes
arant ine
Sund ay
ĠSim ilar
Ġchrom os
st a
host name
ĠTre nt
Ġs aint
H op
Ġworld s
IconSuccess Encoded
K S
> ",
Ġg ly
ĠJ orge
Ġpurch asing
Ġcraft s
ĠR ust
ĠChrist ine
Ġre per
Pr ime
ĠGet ty
ĠOl iv
ĠH uss
ĠF en
Rep o
r ack
Ġloc ate
ĠAp i
ĠHels inki
N othing
Ġpan ic
L ake
ser if
ĠBre tt
mem Item
ikh ail
ĠFel ix
ĠGl ad
Ġcatalog ue
Ġconsult ation
ĠW I
Ġ/*! <
Ġover night
Ã¨ res
ĠCO MM
ad vert
ill ian
itro gen
an alytics
ĠCal vin
olith ic
Ġt body
ĠT ours
Ġv ectors
Opt s
Ĺ ãģ
Mount ains
AT IVE
B inder
Ġacc ent
at as
18 16
In side
ER E
Aut hent
ĠJac obs
g on
Ġvol atile
Ġbas eline
ĠN il
vi ated
ort e
back up
Ġexcell ence
Tok ens
Ġcontin uation
S us
ĠL ing
ĠHein rich
18 19
ul atory
ĠU INT
ow ing
Ġrec ount
ĠW ade
Ġc and
Ġv iv
Ġmon ks
Ġ$ \
Ġarm or
d ue
ĠAr n
Ġnational ist
Ġhand ball
Ġexecut or
Ġrein force
Ġens ures
ĠV ander
p ick
Ġnorth western
Ġund erm
M ond
m icro
ĠCD C
Å ĳ
bet ween
ne ed
Ġinform al
ĠDyn amic
' +
ĠJack ie
ĠAtt ack
author ized
P ast
Ġsens ors
Ġtre as
atern ion
C V
Ġd s
ĠB irds
Ġam big
Ġsuggest ions
Con current
CLI ENT
Ġset Up
Ġmet als
o os
[...]
