{"[UNK]":0,"!":1,"\"":2,"#":3,"$":4,"%":5,"&":6,"'":7,"(":8,")":9,"*":10,"+":11,",":12,"-":13,".":14,"/":15,"0":16,"1":17,"2":18,"3":19,"4":20,"5":21,"6":22,"7":23,"8":24,"9":25,":":26,";":27,"<":28,"=":29,">":30,"?":31,"@":32,"A":33,"B":34,"C":35,"D":36,"E":37,"F":38,"G":39,"H":40,"I":41,"J":42,"K":43,"L":44,"M":45,"N":46,"O":47,"P":48,"Q":49,"R":50,"S":51,"T":52,"U":53,"V":54,"W":55,"X":56,"Y":57,"Z":58,"[":59,"\\":60,"]":61,"^":62,"_":63,"`":64,"a":65,"b":66,"c":67,"d":68,"e":69,"f":70,"g":71,"h":72,"i":73,"j":74,"k":75,"l":76,"m":77,"n":78,"o":79,"p":80,"q":81,"r":82,"s":83,"t":84,"u":85,"v":86,"w":87,"x":88,"y":89,"z":90,"{":91,"|":92,"}":93,"~":94,"¡":95,"¢":96,"£":97,"¤":98,"¥":99,"¦":100,"§":101,"¨":102,"©":103,"ª":104,"«":105,"¬":106,"®":107,"¯":108,"°":109,"±":110,"²":111,"³":112,"´":113,"µ":114,"¶":115,"·":116,"¸":117,"¹":118,"º":119,"»":120,"¼":121,"½":122,"¾":123,"¿":124,"Â":125,"Ã":126,"Ä":127,"Å":128,"Æ":129,"Ç":130,"È":131,"É":132,"Ê":133,"Ë":134,"Ì":135,"Í":136,"Î":137,"Ï":138,"Ð":139,"Ñ":140,"Ò":141,"Ó":142,"Ô":143,"Õ":144,"Ö":145,"×":146,"Ø":147,"Ù":148,"Ú":149,"Û":150,"Ü":151,"Ý":152,"Þ":153,"ß":154,"à":155,"á":156,"â":157,"ã":158,"ä":159,"å":160,"æ":161,"ç":162,"è":163,"é":164,"ê":165,"ë":166,"ì":167,"í":168,"î":169,"ï":170,"ð":171,"ñ":172,"ó":173,"ô":174,"Ā":175,"ā":176,"Ă":177,"ă":178,"Ą":179,"ą":180,"Ć":181,"ć":182,"Ĉ":183,"ĉ":184,"Ċ":185,"ċ":186,"Č":187,"č":188,"Ď":189,"ď":190,"Đ":191,"đ":192,"Ē":193,"ē":194,"Ĕ":195,"ĕ":196,"Ė":197,"ė":198,"Ę":199,"ę":200,"Ě":201,"ě":202,"Ĝ":203,"ĝ":204,"Ğ":205,"ğ":206,"Ġ":207,"ġ":208,"Ģ":209,"ģ":210,"Ĥ":211,"ĥ":212,"Ħ":213,"ħ":214,"Ĩ":215,"ĩ":216,"Ī":217,"ī":218,"Ĭ":219,"ĭ":220,"Į":221,"į":222,"İ":223,"ı":224,"Ĳ":225,"ĳ":226,"Ĵ":227,"ĵ":228,"Ķ":229,"ķ":230,"ĸ":231,"Ĺ":232,"ĺ":233,"Ļ":234,"ļ":235,"Ľ":236,"ľ":237,"Ŀ":238,"ŀ":239,"Ł":240,"ł":241,"Ń":242,"ĠĠ":243,"Ġt":244,"in":245,"ĠĠĠĠ":246,"er":247,"Ġa":248,"he":249,"on":250,"re":251,"at":252,"Ġthe":253,"or":254,"en":255,"st":256,"an":257,"al":258,"ed":259,"it":260,"ar":261,"Ġo":262,"Ġc":263,"es":264,"Ġw":265,"Ġs":266,"is":267,"Ġf":268,"ion":269,"nd":270,"ing":271,"Ġp":272,"Ġin":273,"ic":274,"Ġb":275,"Ġof":276,"le":277,"ĠĠĠ":278,"ro":279,"as":280,"ĠĠĠĠĠĠĠĠ":281,"ou":282,"Ġand":283,"Ġm":284,"Ġd":285,"Ġto":286,"ent":287,"et":288,"ct":289,"Ġh":290,"il":291,"am":292,"ĠS":293,"el":294,"ĠC":295,"om":296,"Ġre":297,"ĠA":298,"ĠT":299,"ol":300,"Ġn":301,"id":302,"Ġ(":303,"ur":304,"Ġth":305,"Ġl":306,"ad":307,"th":308,"ce":309,"ĠM":310,"ation":311,"iv":312,"ch":313,"Ġe":314,"ig":315,"im":316,"ut":317,"ĠĠĠĠĠĠĠ":318,"ers":319,"us":320,"ĠI":321,"ĠP":322,"ĠB":323,"ay":324,"ot":325,"ul":326,"ag":327,"Ġg":328,"un":329,"Ġfor":330,"em":331,"âĢ":332,"ir":333,"ow":334,"od":335,"Ġis":336,"Ġ=":337,"Ġon":338,"ist":339,"Ġst":340,"20":341,"ly":342,"if":343,"ĠH":344,"ĠR":345,"19":346,"ac":347,"ĠD":348,"ĉĉ":349,"</":350,"se":351,"Ġv":352,"ith":353,"Ġbe":354,"um":355,"ter":356,"pe":357,"=\"":358,"ĠL":359,");":360,"ate":361,"ĠF":362,"Ġwas":363,"oc":364,"Ġas":365,"ra":366,"and":367,"ĠN":368,"ĠG":369,"ab":370,"ĠW":371,"op":372,"ue":373,"ri":374,"--":375,"Ġ{":376,"Ġwith":377,"Ġcon":378,"ver":379,"Ġ<":380,"Ġ\"":381,"ĠE":382,"ew":383,"Ġal":384,"av":385,"ĠThe":386,"ass":387,"ĠĠĠĠĠĠĠĠĠĠĠ":388,"Ġwh":389,"rom":390,"up":391,"res":392,"ess":393,"ame":394,"//":395,"ort":396,"ht":397,"ub":398,"Ġan":399,"pt":400,"Ġde":401,"Ġthat":402,"Ġby":403,"ĠJ":404,"Ġ*":405,"our":406,"os":407,"Ġat":408,"est":409,"ction":410,"ĠO":411,"nt":412,"ex":413,"all":414,"ap":415,"ere":416,"ain":417,"Ġpro":418,"ity":419,"art":420,"Ġit":421,"ill":422,"Ġcom":423,"end":424,"age":425,"ment":426,"Ġfrom":427,"Ġhe":428,"ore":429,"čĊ":430,"'s":431,"ies":432,"Ġcl":433,"ke":434,"Ġ}":435,"ran":436,"qu":437,"Ġor":438,"ber":439,"ine":440,"og":441,"Ġse":442,"ĠU":443,"ud":444,"Ġex":445,"ack":446,"\">":447,"Ġy":448,"ld":449,"pl":450,"ect":451,"ef":452,"ĠK":453,"ard":454,"ia":455,"urn":456,"port":457,"ian":458,"ive":459,"cl":460,"ast":461,"ĠSt":462,"ĠĠĠĠĠĠĠĠĠĠĠĠĠĠĠĠ":463,"ip":464,"ial":465,"ov":466,"ary":467,"âĢĵ":468,"()":469,"ĠĠĠĠĠ":470,"Ġare":471,"ge":472,"Ġr":473,"iz":474,"**":475,"ant":476,"ight":477,"Ġpl":478,"con":479,"00":480,"ated":481,"ust":482,"Ġch":483,"ure":484,"ult":485,"und":486,"ug":487,"201":488,"Ġthis":489,"per":490,"ord":491,"ell":492,"ire":493,"ich":494,"..":495,"ong":496,"turn":497,"The":498,"ost":499,"ĠV":500,"ĠIn":501,"ak":502,"ĠĊ":503,"are":504,"ff":505,"ring":506,"sp":507,"Ġhis":508,"ther":509,"ype":510,"orm":511,"able":512,"In":513,"ear":514,"Ġsh":515,"Ġ'":516,"St":517,"Ġle":518,"int":519,"Ġclass":520,"ath":521,"ry":522,"ĠCh":523,"----":524,"ign":525,"ok":526,"get":527,"==":528,"ubl":529,"ile":530,"out":531,"ice":532,"ish":533,"ions":534,"ode":535,"ork":536,"li":537,"ind":538,"),":539,"Ġus":540,"Ġif":541,"âĢĻ":542,"Ġ|":543,"Ġnot":544,"ext":545,"ide":546,"enc":547,"uc":548,"ave":549,"200":550,"ical":551,"ase":552,"Ġ-":553,"com":554,"so":555,"erv":556,"mer":557,"ime":558,"18":559,"ount":560,"Ġint":561,"ep":562,"rit":563,"ace":564,"Ġcont":565,"ĠĠĠĠĠĠĠĠĠĠĠĠĠĠĠ":566,"Ġj":567,"Ġcomp":568,"ory":569,"Ġar":570,"ec":571,"ang":572,"ata":573,"ev":574,"Ġreturn":575,"ont":576,"act":577,"ph":578,"Ġun":579,"Ġhas":580,"Ġwere":581,"ild":582,"ublic":583,"Ġ$":584,"Ġwhich":585,"ob":586,"ĠTh":587,"Ġnew":588,"Ġk":589,"rans":590,"ject":591,").":592,"Ġad":593,"ition":594,"ous":595,"ib":596,"ould":597,"ens":598,"Ġ//":599,"ric":600,"ence":601,"ations":602,"ail":603,"one":604,"ach":605,"irst":606,"ress":607,"own":608,"Ġalso":609,"hed":610,"eg":611,"ru":612,"hen":613,"tern":614,"ock":615,"Ġ||":616,"ll":617,"form":618,"Ġhave":619,"\",":620,"::":621,"ance":622,"Ġab":623,"ĠUn":624,"ert":625,"alue":626,"pro":627,"Ġwe":628,"Ġap":629,"Ġres":630,"ĠHe":631,"->":632,"Ġro":633,"Ġall":634,"ool":635,"ink":636,"Ġ</":637,"ents":638,"ĠY":639,"Ex":640,"ss":641,"amp":642,"ree":643,"Ġplay":644,"ĉĉĉĉ":645,"te":646,"Ġ&":647,"cc":648,"ource":649,"ome":650,"elf":651,"cri":652,"ark":653,"Ġim":654,"Ġbut":655,"ĠâĢĵ":656,"Ġ@":657,"inal":658,"fer":659,"ull":660,"ound":661,"ite":662,"ors":663,"../":664,"ne":665,"Ġtheir":666,"ng":667,"Ġhad":668,"ual":669,"Ġcan":670,"Ġwho":671,"Ġ[":672,"ĠIt":673,"fter":674,"over":675,"Ġyou":676,"row":677,"unction":678,"clud":679,"erm":680,"ĠâĢ":681,"ates":682,"Ġbo":683,"ater":684,"Ġ/":685,"que":686,"Ġfirst":687,"Ġout":688,"sh":689,"ational":690,"Ġte":691,"199":692,"ption":693,"Ġpart":694,"Ġone":695,"Ġup":696,"aw":697,"iel":698,"Ġtr":699,"10":700,"oll":701,"Ġsc":702,"aram":703,"iss":704,"wo":705,"old":706,"Ġits":707,"any":708,"(\"":709,"Ġher":710,"ft":711,"();":712,"iew":713,"ie":714,"ener":715,"div":716,"io":717,"ember":718,"lect":719,"ences":720,"land":721,"ake":722,"Ġname":723,"ml":724,"Ġag":725,"ref":726,"pec":727,"ose":728,"eth":729,"ings":730,"ople":731,"Ġpublic":732,"ĠAr":733,"Ġdis":734,"Ġyear":735,"essage":736,"les":737,"ield":738,"we":739,"ick":740,"ize":741,"Ġev":742,"Ġ.":743,"Ġpr":744,"igh":745,"',":746,"ery":747,"lo":748,"Ref":749,"Ġwork":750,"meric":751,"orn":752,"eng":753,"put":754,"set":755,"Ġdo":756,"roup":757,"ames":758,"but":759,"yst":760,"ited":761,"--------":762,"span":763,"Ġper":764,"Ġthey":765,"Ġdef":766,"vel":767,"Ġdes":768,"ons":769,"Ġwill":770,"eople":771,"ade":772,"Ġpre":773,"ix":774,"Ġbeen":775,"ied":776,"****":777,"ivers":778,"></":779,"Ġrec":780,"tt":781,"Ġ+":782,"Ġover":783,"Ġcomm":784,"ely":785,"Ġsp":786,"ax":787,"oot":788,"Ġ*/":789,"lement":790,"oint":791,"Ġfil":792,"Ġinclud":793,"ern":794,"pr":795,"cess":796,"Ġset":797,"ĠCom":798,"ĠNew":799,"><":800,"ics":801,"Ġoff":802,"ans":803,"Ġmore":804,"Ġother":805,"uch":806,"eb":807,"ond":808,"198":809,"ram":810,"Ġ:":811,"ict":812,"ased":813,"Refer":814,"Ġtwo":815,"ward":816,"tr":817,"Ġme":818,"che":819,"ann":820,"use":821,"Ġget":822,"arch":823,"oy":824,"ms":825,"ystem":826,"12":827,"uild":828,"ĠĠĠĠĠĠĠĠĠĠĠĠĠĠĠĠĠĠĠ":829,"round":830,"err":831,"Ġtime":832,"du":833,"ty":834,"key":835,"ugh":836,"Ġvar":837,"====":838,"als":839,"../../":840,"Ġund":841,"red":842,"16":843,"Ġass":844,"Pro":845,"uring":846,"arg":847,"oug":848,"oid":849,"nc":850,"Ġafter":851,"ts":852,"atch":853,"ton":854,"References":855,"ook":856,"Ġcol":857,"Ġwhen":858,"ays":859,"('":860,"Ġinto":861,"ĠĠĠĠĠĠĠĠĠ":862,"ood":863,"âĢĿ":864,"ey":865,"ER":866,"Ġso":867,"Ġfunction":868,"Ġconst":869,"17":870,"merican":871,"anc":872,"ĠSe":873,"son":874,"ished":875,"Ġact":876,"quest":877,"this":878,"21":879,"chool":880,"ĉĉĉ":881,"Ġend":882,"orld":883,"Ġshe":884,"Ġ#":885,"Ġatt":886,"Ġabout":887,"ific":888,"olog":889,"15":890,"Ġsup":891,"ĠAl":892,"Name":893,"ck":894,"cre":895,"ON":896,"wn":897,"ball":898,"Ġserv":899,"Ġpeople":900,"ative":901,"ale":902,"ator":903,"html":904,"197":905,"ĠSh":906,"atic":907,"pect":908,"ren":909,"ious":910,"bject":911,"let":912,"Type":913,"ps":914,"ah":915,"name":916,"Ġne":917,"ĠPro":918,"ash":919,"ray":920,"ove":921,"Ġloc":922,"Ġadd":923,"az":924,"IN":925,"ternal":926,"source":927,"Ġreg":928,"Ġen":929,"Ġhref":930,"ident":931,"Ġkn":932,"Ġwould":933,"irect":934,"Re":935,"message":936,"ating":937,"umber":938,"ision":939,"cond":940,"ins":941,"oh":942,"Ġop":943,"ars":944,"import":945,"Ġtype":946,"))":947,"att":948,"Th":949,"ransl":950,"ists":951,"ee":952,"ribut":953,"Ch":954,"param":955,"Ġ_":956,"Ġunder":957,"pos":958,"ason":959,"Ġinter":960,"col":961,"td":962,"alse":963,"ik":964,"urre":965,"gan":966,"ral":967,"ities":968,"Ġbet":969,"cent":970,"Id":971,"Ġonly":972,"cont":973,"Ġsub":974,"ruct":975,"String":976,"ient":977,"ily":978,"Ġind":979,"lection":980,"Ġspec":981,"Com":982,"ise":983,"Ġqu":984,"Ġinst":985,"hip":986,"iversity":987,"ered":988,"ĠThis":989,"to":990,"Cont":991,"raph":992,"Ġthere":993,"return":994,"Con":995,"fig":996,"Ġbec":997,"Ġno":998,"Ġcre":999,"cript":1000,"vent":1001,"196":1002,"Ġcall":1003,"Ġel":1004,"app":1005,"ury":1006,"lock":1007,"emb":1008,"Ġ=>":1009,"rough":1010,"ues":1011,"man":1012,"Ġthan":1013,"Ġpol":1014,"Ġra":1015,"14":1016,"Ġac":1017,"Ġman":1018,"outh":1019,"odel":1020,"Ġvalue":1021,"Ġacc":1022,"ular":1023,"code":1024,"ife":1025,"dd":1026,"ier":1027,"Ġrem":1028,"ince":1029,"Ġline":1030,"aid":1031,"ys":1032,"ollow":1033,"Ġself":1034,"Ġrel":1035,"ement":1036,"air":1037,"Ġhim":1038,"abl":1039,"Ġfe":1040,"RE":1041,"Ġco":1042,"Res":1043,"://":1044,"Ġsome":1045,"Ġcons":1046,"ĠCl":1047,"ĠZ":1048,"Ġwhere":1049,"13":1050,"orth":1051,"ĠâĢľ":1052,"ike":1053,"ault":1054,"duc":1055,"resent":1056,"oci":1057,"ve":1058,"inn":1059,"its":1060,"ethod":1061,"ache":1062,"22":1063,"ines":1064,"Ġany":1065,"ception":1066,"add":1067,"ask":1068,"ĠInd":1069,"ouse":1070,"/>":1071,"Ġback":1072,"itle":1073,"Ġ!":1074,"Ġthem":1075,"Ġused":1076,"read":1077,"Ġagain":1078,"Ġprov":1079,"ĠDe":1080,"ĠAmerican":1081,"way":1082,"ĠLe":1083,"arn":1084,"ersion":1085,"Ġpos":1086,"Ar":1087,"ures":1088,"ally":1089,"List":1090,"Ġform":1091,"Ġyears":1092,"ĠAn":1093,"urrent":1094,"Ġent":1095,"ined":1096,"Cl":1097,"ST":1098,"aj":1099,"ween":1100,"Ġam":1101,"11":1102,"Ġstud":1103,"Ġmost":1104,"##":1105,"Ġgo":1106,"class":1107,"yle":1108,"Ġser":1109,"ough":1110,"Ġlink":1111,"ĠCol":1112,"ranslation":1113,"Ġdata":1114,"Ġinv":1115,"Ã©":1116,"ature":1117,"type":1118,"Ġthrough":1119,"itt":1120,"Ġem":1121,"ages":1122,".\"":1123,"fore":1124,"ract":1125,"ument":1126,"pon":1127,"Ġteam":1128,"AT":1129,"30":1130,"fl":1131,"Ġthen":1132,"Ġresult":1133,"uth":1134,"uff":1135,"overn":1136,"fo":1137,"25":1138,"erson":1139,"\"/>":1140,"Ġ==":1141,"reat":1142,"Ġfound":1143,"ower":1144,"Ġfl":1145,"ID":1146,"ĠQ":1147,"194":1148,"ivate":1149,"Ġtra":1150,"ĠUniversity":1151,"der":1152,"Ġwrit":1153,"Ġcent":1154,"Ġmay":1155,"ader":1156,"Ġfinal":1157,"co":1158,"Ġed":1159,"195":1160,"bo":1161,"ĠUnited":1162,"translation":1163,"Ġbetween":1164,"Ġchar":1165,"ym":1166,"ĠCon":1167,"line":1168,"rid":1169,"Ġfollow":1170,"def":1171,"ina":1172,"ĠSc":1173,"Ġduring":1174,"back":1175,"Ġph":1176,"ired":1177,"rad":1178,"):":1179,"Ġdist":1180,"ices":1181,"Ġtrans":1182,"Ġnull":1183,"000":1184,"org":1185,"bs":1186,"ootball":1187,"Ġart":1188,"iving":1189,"ute":1190,"by":1191,"ible":1192,"ank":1193,"Ġuse":1194,"Ġi":1195,"Ġstart":1196,"Ġhigh":1197,"htt":1198,"ott":1199,"ĠRe":1200,"Âł":1201,"ility":1202,"other":1203,"Ġest":1204,"ole":1205,"Ġfam":1206,"view":1207,"Ġsuch":1208,"self":1209,"ause":1210,"usic":1211,"min":1212,"Ġext":1213,"AR":1214,"Ġcount":1215,"OR":1216,"Ġrele":1217,"ĠSp":1218,"Ġvoid":1219,"ron":1220,"ange":1221,"ized":1222,"__":1223,"til":1224,"iver":1225,"Ġmade":1226,"string":1227,"ober":1228,"ĠMar":1229,"rict":1230,"ule":1231,"Ġlist":1232,"ody":1233,"ble":1234,"ĠEx":1235,"ek":1236,"enn":1237,"pp":1238,"ohn":1239,"Ġthree":1240,"ĠEng":1241,"ets":1242,"istory":1243,"Ġbeing":1244,"Ġmed":1245,"ĠIs":1246,"Ġnumber":1247,"press":1248,"Ġtest":1249,"Ġshow":1250,"ments":1251,"Ġlinks":1252,"Ġsecond":1253,"Ġwell":1254,"loc":1255,"Ġgroup":1256,"));":1257,"ional":1258,"Ġplayers":1259,"uss":1260,"ĠShe":1261,"External":1262,"ream":1263,"val":1264,"Ġfalse":1265,"Ġbefore":1266,"Ġsaid":1267,"Ġmin":1268,"ived":1269,"ograph":1270,"ever":1271,"ather":1272,"ths":1273,"LE":1274,"********":1275,"\"><":1276,"Ġyour":1277,"umm":1278,"Ġoper":1279,"Ġtrue":1280,"Ġdif":1281,"of":1282,"Ġwhile":1283,"mp":1284,"Ġsign":1285,"ley":1286,"ism":1287,"ĠĠĠĠĠĠĠĠĠĠĠĠĠĠĠĠĠĠĠĠĠĠĠ":1288,"af":1289,"It":1290,"plic":1291,"Ġdirect":1292,"ĠAs":1293,"Ġrecord":1294,"Ġlong":1295,"Ġsing":1296,"ĠWh":1297,"Ġerr":1298,"Ġrun":1299,"Ġfilm":1300,"ĠPh":1301,"Ġgener":1302,"ten":1303,"yp":1304,"ĠComm":1305,"eter":1306,"Ġown":1307,"ives":1308,"ser":1309,"cept":1310,"Ġlike":1311,"pre":1312,"Ġ`":1313,"une":1314,"ports":1315,"----------------":1316,"Ġbuild":1317,"Ġelse":1318,"bum":1319,"He":1320,"ĠĠĠĠĠĠĠĠĠĠĠĠĠ":1321,"Ġseason":1322,"ĠCount":1323,"ww":1324,"sc":1325,"ces":1326,"Data":1327,"Ġpop":1328,"24":1329,"Ġ>":1330,"ĠPl":1331,"gram":1332,"ister":1333,"Ġmany":1334,"arly":1335,"ĠStates":1336,"Ġdr":1337,"ared":1338,"\".":1339,"ful":1340,"ple":1341,"omen":1342,"EN":1343,"Ġhow":1344,"perty":1345,"the":1346,"On":1347,"right":1348,"ounc":1349,"Ġmon":1350,"ength":1351,"AL":1352,"ĠFor":1353,"ology":1354,"ĠOn":1355,"ava":1356,"ague":1357,"Ġmov":1358,"rol":1359,"ĠJan":1360,"velop":1361,"Ġstring":1362,"rr":1363,"...":1364,"Col":1365,"opt":1366,"////":1367,"yn":1368,"ural":1369,"Ġdevelop":1370,"SS":1371,"Ġschool":1372,"Ġjust":1373,"Un":1374,"Ġbl":1375,"be":1376,"Ġval":1377,"Ġ)":1378,"umn":1379,"els":1380,"\");":1381,"Ġsur":1382,"Ġever":1383,"arent":1384,"ĠMay":1385,"data":1386,"uro":1387,"Ġlater":1388,"To":1389,"\")":1390,"atus":1391,"ai":1392,"Ġbro":1393,"arm":1394,"Value":1395,"ution":1396,"ler":1397,"ele":1398,"Ġstate":1399,"32":1400,"Ġstr":1401,"Ġid":1402,"ervice":1403,"Ġincluding":1404,"Ġagainst":1405,"arget":1406,"Ġthese":1407,"Ġbir":1408,"Ġsystem":1409,"Ġsm":1410,"ĠFran":1411,"'t":1412,"apt":1413,"text":1414,"ĠJohn":1415,"ross":1416,"Ġdec":1417,"Ġour":1418,"var":1419,"value":1420,"rand":1421,"imes":1422,"Ġ/**":1423,"ital":1424,"duct":1425,"work":1426,"Ġboth":1427,"Ġfootball":1428,"nb":1429,"ĠWorld":1430,"roll":1431,"ats":1432,"rem":1433,"23":1434,"aking":1435,"str":1436,"ĠAss":1437,"day":1438,"50":1439,"ternational":1440,"ĠBl":1441,"Ġfour":1442,"ified":1443,"Ġrep":1444,"Ġwhat":1445,"arri":1446,"test":1447,"ĠAust":1448,"Ġcould":1449,"Ġprivate":1450,"ission":1451,"ctions":1452,"led":1453,"Ġknown":1454,"my":1455,"ĠNational":1456,"alth":1457,"Ġappe":1458,"Ġmain":1459,"her":1460,"Ġright":1461,"ience":1462,"Ġpass":1463,"Ġneed":1464,"play":1465,"urch":1466,"Ġsupport":1467,"ger":1468,"ĠOr":1469,"ense":1470,"ote":1471,"Ġsame":1472,"Ġmy":1473,"ium":1474,"ains":1475,"ting":1476,"file":1477,"Ġalbum":1478,"date":1479,"ĠPr":1480,"Ġshould":1481,"Ġmod":1482,"Ġseries":1483,"rist":1484,"ĠĠĠĠĠĠĠĠĠĠĠĠĠĠĠĠĠĠĠĠĠĠĠĠĠĠĠĠĠĠĠĠ":1485,"Ġnow":1486,"Ġpoint":1487,"uccess":1488,"nbsp":1489,"reg":1490,"Set":1491,"ants":1492,"Ġran":1493,"ĠĠĠĠĠĠ":1494,"Ġchild":1495,"Ġeff":1496,"overnment":1497,"Exception":1498,"par":1499,"Ġcare":1500,"ĠCan":1501,"iginal":1502,"ĠAd":1503,"========":1504,"chn":1505,"Ġcase":1506,"Ġopen":1507,"Ġ--":1508,"ually":1509,"ĠAnd":1510,"Ġlead":1511,"Ġlast":1512,"field":1513,"ĠJul":1514,"px":1515,"Ġdid":1516,"];":1517,"Ġresp":1518,"ĠNov":1519,"Ġperform":1520,"uck":1521,"Ġhel":1522,"Ġrece":1523,"embers":1524,"ify":1525,"Ġgame":1526,"IT":1527,"abel":1528,"Ġbel":1529,"idth":1530,"Ġrequ":1531,"Ġcurrent":1532,"Ġann":1533,"ush":1534,"uary":1535,"amed":1536,"oad":1537,"iness":1538,"ĠCounty":1539,"ĠYork":1540,"CT":1541,"AN":1542,"ency":1543,"ider":1544,"ĠâĢĶ":1545,"Err":1546,"ĠSchool":1547,"Ġdiffer":1548,"Ġgu":1549,"Ġestabl":1550,"($":1551,"Ġapp":1552,"100":1553,"Ġhand":1554,"ĠCar":1555,"Ġ&&":1556,"med":1557,"Ġbecame":1558,"Ġcontin":1559,"Ġdet":1560,"Ġstatic":1561,"uthor":1562,"iam":1563,"Ġkey":1564,"new":1565,"heck":1566,"au":1567,"ground":1568,"unc":1569,"Se":1570,"formation":1571,"Ġevent":1572,"ows":1573,"Ġ///":1574,"Ġmake":1575,"ĠBrit":1576,"angu":1577,"ager":1578,"ians":1579,"193":1580,"ety":1581,"ris":1582,"ven":1583,"ior":1584,"Ġeach":1585,"Object":1586,"Ġlife":1587,"Ind":1588,"ĠMan":1589,"lected":1590,"ĠRes":1591,"rop":1592,"ĠString":1593,"Ġdesign":1594,"Ġfamily":1595,"ĠCent":1596,"Ġtitle":1597,"Test":1598,"ummary":1599,"por":1600,"ically":1601,"alk":1602,"ox":1603,"Ġread":1604,"Ġsim":1605,"Ġcommun":1606,"ization":1607,"Ġ!=":1608,"ĠSouth":1609,"time":1610,"ĠWest":1611,"roid":1612,"ner":1613,"ĠAt":1614,"Ġdeath":1615,"ĠAll":1616,"ĠWar":1617,"26":1618,"An":1619,"face":1620,"aces":1621,"SE":1622,"ourn":1623,"ĠOct":1624,"Ġuntil":1625,"for":1626,"ĠAug":1627,"ample":1628,"Ġsong":1629,"By":1630,"Ġ%":1631,"Ġsl":1632,"Ġmet":1633,"ained":1634,"Ġworld":1635,"ocument":1636,"fess":1637,"Sh":1638,"Ġpolit":1639,"Ġret":1640,"28":1641,"bar":1642,"ird":1643,"ĠX":1644,"DE":1645,"ulation":1646,"ptember":1647,"27":1648,"ma":1649,"const":1650,"().":1651,"side":1652,"2021":1653,"Get":1654,"itions":1655,"oss":1656,"inter":1657,"location":1658,"ajor":1659,"Ġcalled":1660,"comm":1661,"mber":1662,"Ġbecause":1663,"Ġmusic":1664,"erman":1665,"lob":1666,"Ġav":1667,"')":1668,"Ġbook":1669,"Ġobject":1670,"cription":1671,"Ġhead":1672,"reak":1673,"Ġoffic":1674,"usiness":1675,"Ġfollowing":1676,"());":1677,"wards":1678,"Ġfield":1679,"ampions":1680,"iven":1681,"Key":1682,"Ġdown":1683,"._":1684,"reen":1685,"Ġsever":1686,"order":1687,"Ġorgan":1688,"Ġplace":1689,"br":1690,"ĠTr":1691,"iter":1692,"ially":1693,"Ġlocal":1694,"Ġprogram":1695,"Ġfin":1696,"ĠMarch":1697,"ided":1698,"ĠJanuary":1699,"ilt":1700,"Ġorg":1701,"oman":1702,"ME":1703,"']":1704,"rc":1705,"ĠWe":1706,"ane":1707,"pril":1708,"iev":1709,"resident":1710,"Ġsince":1711,"gy":1712,"idd":1713,"Ġdep":1714,"Error":1715,"itor":1716,"me":1717,"ĠHow":1718,"2010":1719,"umb":1720,"Ġimport":1721,"Ġmark":1722,"ĠPol":1723,"color":1724,"search":1725,"40":1726,"Ġevery":1727,"go":1728,"ĠPar":1729,"raw":1730,"ĠGe":1731,"ĠAugust":1732,"load":1733,"Ġref":1734,"ĠSeptember":1735,"lex":1736,"come":1737,"ae":1738,"list":1739,"icip":1740,"ends":1741,"size":1742,"url":1743,"Ġdisc":1744,"2016":1745,"off":1746,"29":1747,"lege":1748,"CO":1749,"cember":1750,"link":1751,"Ġx":1752,"ĠYou":1753,"lish":1754,"ape":1755,"Ġarea":1756,"bed":1757,"ĠOctober":1758,"istor":1759,"Ġbu":1760,"ised":1761,"As":1762,"ches":1763,"ended":1764,"Al":1765,"2020":1766,"urs":1767,"log":1768,"ĠJune":1769,"ĠEuro":1770,"ĠAustral":1771,"|-":1772,"Ġvis":1773,"ĠReg":1774,"util":1775,"Ġperson":1776,"Class":1777,"ptions":1778,"ales":1779,"Ġusing":1780,"Ġtop":1781,"ected":1782,"ĠBe":1783,"inc":1784,".,":1785,"Ġ\\":1786,"public":1787,"Ġwon":1788,"Ġleft":1789,"Ġarg":1790,"Ġcharact":1791,"\";":1792,"wh":1793,"ality":1794,"ĠThey":1795,"2014":1796,"ĠState":1797,"Ġ/>":1798,"ĠJuly":1799,"ference":1800,"ene":1801,"aster":1802,"Ġexp":1803,"ung":1804,"Ġcor":1805,"Ġeven":1806,"Ġtri":1807,"ĠGu":1808,"ases":1809,"Ġdoes":1810,"2015":1811,"ĠCity":1812,"akes":1813,"Ġhelp":1814,"ĠApril":1815,"irc":1816,"http":1817,"View":1818,"vision":1819,"ony":1820,"2011":1821,"script":1822,"duced":1823,"urg":1824,"Ġpar":1825,"oth":1826,"Ġaround":1827,"ĠAm":1828,"Ġexper":1829,"Pl":1830,"ĠCal":1831,"ĠNovember":1832,"ĠNorth":1833,"ored":1834,"not":1835,"Ġfile":1836,"Ġold":1837,"Ġprom":1838,"['":1839,"Ġmethod":1840,"Ġplayed":1841,"Im":1842,"Ġvery":1843,"\"></":1844,"index":1845,"olv":1846,"Ġlaw":1847,"ĠEd":1848,"Ġpost":1849,"aving":1850,"2013":1851,"2012":1852,"ĠTe":1853,"ĠDecember":1854,"ĠĠĠĠĊ":1855,"Ġformer":1856,"');":1857,"64":1858,"Ġrest":1859,"illion":1860,"Ġappro":1861,"Ġreleased":1862,"Ġbased":1863,"opy":1864,".</":1865,"ament":1866,"duction":1867,"ĠUS":1868,"2018":1869,"Ġimp":1870,"2017":1871,"Ġthose":1872,"ords":1873,"nav":1874,"born":1875,"anguage":1876,"Ġpubl":1877,"Ġoriginal":1878,"ling":1879,"function":1880,"action":1881,"Ġeng":1882,"Ġstyle":1883,"ides":1884,"epend":1885,"js":1886,"AC":1887,"Ġinit":1888,"vers":1889,"ival":1890,"leg":1891,"Ġprocess":1892,"Not":1893,"uk":1894,"\":":1895,"ration":1896,"vious":1897,"Ġcour":1898,"etwork":1899,"summary":1900,"Ġhome":1901,"Ġday":1902,"Ġob":1903,"2019":1904,"ĠIf":1905,"Ġdel":1906,"thern":1907,"Ġcity":1908,"Ġway":1909,"ĠWill":1910,"ĠAf":1911,"Ġfr":1912,"Ġnear":1913,"ideo":1914,"empl":1915,"rap":1916,"pace":1917,"Ġseveral":1918,"Ġaut":1919,"dis":1920,"ining":1921,"item":1922,"ĠCo":1923,"Ġearly":1924,"uffer":1925,"(),":1926,"ilit":1927,"ĠFeb":1928,"ness":1929,"ued":1930,"Ġsuccess":1931,"Ġsmall":1932,"Ġdifferent":1933,"yl":1934,"Ġleg":1935,"Ġocc":1936,"ruary":1937,"Sc":1938,"ĉĉĉĉĉ":1939,"mod":1940,"Ġreport":1941,"ards":1942,"amb":1943,"arge":1944,"ĠBritish":1945,"ribute":1946,"RO":1947,"ampionship":1948,"],":1949,"Ġstill":1950,"Ġgovernment":1951,"aced":1952,"ogle":1953,"See":1954,"Ġthrow":1955,"top":1956,"Ġfind":1957,"Ġwomen":1958,"ocial":1959,"Ġmembers":1960,"Ġexpect":1961,"ĠLeague":1962,"2008":1963,"File":1964,"path":1965,"ĠEurope":1966,"Ġnext":1967,"UL":1968,"ination":1969,"ION":1970,"apan":1971,"2009":1972,"ography":1973,"Ġcompany":1974,"ĠFl":1975,"Ġterm":1976,"ham":1977,"raft":1978,"ĠRep":1979,"Ġland":1980,"Ġcar":1981,"ster":1982,"Ġproject":1983,"Ġla":1984,"Ġpat":1985,"vir":1986,"Ġweek":1987,"ĠCanad":1988,"Ã¡":1989,"190":1990,"Ġdescri":1991,"Ġalong":1992,"Ġlook":1993,"ĠMed":1994,"ney":1995,"Ġprot":1996,"ustom":1997,"Tr":1998,"ĠMin":1999,"For":2000,"ately":2001,"uf":2002,"Ġnon":2003,"Man":2004,"Time":2005,"aim":2006,"uration":2007,"Ġcompet":2008,"ĠII":2009,"Ġbirths":2010,"ĠChrist":2011,"Ġversion":2012,"aint":2013,"ackage":2014,"ĠKing":2015,"ording":2016,"Ġsee":2017,"Ġmuch":2018,"ze":2019,"Ġlevel":2020,"century":2021,"Ġcap":2022,"Ġservice":2023,"!--":2024,"With":2025,"Def":2026,"ĠPart":2027,"Ġpresent":2028,"Ġpo":2029,"wit":2030,"Ġiss":2031,"ana":2032,"Ġwithin":2033,"ponse":2034,"},":2035,"Wh":2036,"Ġrequest":2037,"cast":2038,"Ġstand":2039,"de":2040,"This":2041,"ĠFebruary":2042,"IC":2043,"Ġstruct":2044,"Node":2045,"used":2046,"Ġsol":2047,"Or":2048,"LA":2049,"vert":2050,"Ġbest":2051,"ĠAb":2052,"ui":2053,"Ġmodel":2054,"Ġadv":2055,"Ġsingle":2056,"2007":2057,"ĠHar":2058,"Ġassert":2059,"60":2060,"stit":2061,"umer":2062,"Ġsize":2063,"ĠBar":2064,"Ġ);":2065,"Ġmember":2066,"Ġsk":2067,"lear":2068,"rench":2069,"ources":2070,"itional":2071,"âĢľ":2072,"Element":2073,"Ġmat":2074,"33":2075,"Ġinformation":2076,"Ġequ":2077,"Ġcareer":2078,"].":2079,"Request":2080,"Ġinclude":2081,"Fil":2082,"Int":2083,"/*":2084,"rew":2085,"ese":2086,"Ġ,":2087,"=\"../../":2088,"group":2089,"ploy":2090,"ainer":2091,"ĠMc":2092,"2006":2093,"iod":2094,"Ġfilms":2095,"des":2096,"TE":2097,"ĠNo":2098,"oun":2099,"Ġmajor":2100,"Ġtown":2101,"less":2102,"hes":2103,"ks":2104,"Ġ?":2105,"Ġincre":2106,"Info":2107,"ret":2108,"Des":2109,"PE":2110,"ateg":2111,"Ġtake":2112,"ĠEl":2113,"Ġtext":2114,"ipp":2115,"empt":2116,"Config":2117,"Ġmust":2118,"Ġknow":2119,"head":2120,"Ġdem":2121,".âĢĿ":2122,"Ġcr":2123,"ride":2124,"Ġfact":2125,"iet":2126,"Field":2127,"Ġbusiness":2128,"conom":2129,"Add":2130,"ware":2131,"Text":2132,"Ġanother":2133,"aut":2134,"uman":2135,"Ġnamed":2136,"Ġgood":2137,"=\"+":2138,"Ġgiven":2139,"Ġz":2140,"Ġjo":2141,"Ġelement":2142,"met":2143,"ries":2144,"Ġshort":2145,"Ġwant":2146,"189":2147,"adem":2148,"ugg":2149,"ĠAfter":2150,"md":2151,"All":2152,"stance":2153,"ait":2154,"Ġorder":2155,"acy":2156,"Ġtyp":2157,"Ġheld":2158,"Ġtook":2159,"ently":2160,"ailable":2161,"ification":2162,"Event":2163,"Path":2164,"lobal":2165,"ari":2166,"dom":2167,"Ġgames":2168,"ively":2169,"80":2170,"Ġchang":2171,"':":2172,"olean":2173,"Over":2174,"Form":2175,"Ġrepresent":2176,"ĠSup":2177,"ondon":2178,"/**":2179,"quot":2180,"ĠHis":2181,"sk":2182,"Ġposs":2183,"odes":2184,"fil":2185,"ino":2186,"Ġbegan":2187,"Ġclub":2188,"ump":2189,"PI":2190,"ison":2191,"American":2192,"ĠDist":2193,"ories":2194,"ones":2195,"Ġallow":2196,"Ġport":2197,"Ġdue":2198,"Ġtele":2199,"Ġview":2200,"())":2201,"icle":2202,"ĠThere":2203,"api":2204,"ances":2205,"Ġbase":2206,"2000":2207,"Ġcontent":2208,"Ġmen":2209,"Ġpower":2210,"Qu":2211,"ĠEnglish":2212,"TR":2213,"âĢĶ":2214,"Ġhtt":2215,"Ġhouse":2216,"ille":2217,"aff":2218,"Att":2219,"Ġchildren":2220,"ession":2221,"eder":2222,"https":2223,"Ġsom":2224,"ĠEn":2225,"length":2226,"ford":2227,"ĠAfric":2228,"UR":2229,"Index":2230,"indow":2231,"ociation":2232,"Equ":2233,"En":2234,"Ġeffect":2235,"Ġtechn":2236,"Context":2237,"ought":2238,"Ġhistory":2239,"State":2240,"ĠJapan":2241,"ems":2242,"rest":2243,"``":2244,"ift":2245,"ĠÐ":2246,"config":2247,"oph":2248,"ĠSer":2249,"Ġexpl":2250,"Ġnational":2251,"writ":2252,"oken":2253,"Map":2254,"artment":2255,"Ġvill":2256,"System":2257,"user":2258,"aul":2259,"ĠHigh":2260,"sub":2261,"Service":2262,"eters":2263,"alf":2264,"igned":2265,"ector":2266,"Ġprofess":2267,"Ġreceived":2268,"alt":2269,"icy":2270,"Ġband":2271,"ending":2272,"New":2273,"ĠHer":2274,"ĠĠĠĠĠĠĠĠĠĠĠĠĠĠĠĠĠĠĠĠĠĠĠĠĠĠĠ":2275,"Ġerror":2276,"urther":2277,"left":2278,"reet":2279,"Ġcamp":2280,"Ġwithout":2281,"rick":2282,"Param":2283,"nder":2284,"aged":2285,"plication":2286,"Ġspe":2287,"ayout":2288,"ots":2289,"Ġparam":2290,"Ġfail":2291,"Ġlog":2292,"Ġdon":2293,"ning":2294,"Ġtarget":2295,"evel":2296,"thers":2297,"Ġdiv":2298,"ĠDr":2299,"Ġ()":2300,"void":2301,"Build":2302,"2022":2303,"ured":2304,"includ":2305,"urity":2306,"ways":2307,"table":2308,"Ġcomplet":2309,"ume":2310,"Ġ(!":2311,"ouble":2312,"ĠRuss":2313,"ĠLondon":2314,"amespace":2315,"ead":2316,"Ġtry":2317,"Ġcreate":2318,"Ġestablished":2319,"2005":2320,"ĠPark":2321,"Ġep":2322,"Ġes":2323,"ief":2324,"\"\"":2325,"ington":2326,"ops":2327,"ĠCollege":2328,"ender":2329,"ĠList":2330,"ours":2331,"Ġeduc":2332,"Ġhere":2333,"Ġlocated":2334,"Ġmult":2335,"****************":2336,"ĠEast":2337,"aining":2338,"ĠAir":2339,"hem":2340,"Ġarray":2341,"ĠSystem":2342,"AS":2343,"ald":2344,"www":2345,"Ġbuilt":2346,"Ġ},":2347,"ught":2348,"Ġposition":2349,"Ġactiv":2350,"yd":2351,"Ġlate":2352,"struct":2353,"ĠChar":2354,"AD":2355,"ĠHowever":2356,"ope":2357,"Ġfore":2358,"ĠComp":2359,"Ġpublished":2360,"ĠCor":2361,"ators":2362,"ĠArt":2363,"Ġdefault":2364,"Ġsix":2365,"Ġlarge":2366,"Ġbeg":2367,"Ġfive":2368,"pression":2369,"Ġwater":2370,"ags":2371,"ced":2372,"Result":2373,"Ġke":2374,"ĠCont":2375,"earch":2376,"ĠAmeric":2377,"place":2378,"Is":2379,"comp":2380,"ĠRec":2381,"Ġ/*":2382,"ules":2383,"aly":2384,"Ġ});":2385,"na":2386,"Ġauthor":2387,"Ġage":2388,"error":2389,"Ġmatch":2390,"Ġturn":2391,"Ġreal":2392,"Ġins":2393,"Ġ-->":2394,"ights":2395,"ouncil":2396,"ĠDav":2397,"rown":2398,"Ġalign":2399,"Ġair":2400,"apache":2401,"pen":2402,"Code":2403,"true":2404,"icon":2405,"Ġtot":2406,"';":2407,"Ġside":2408,"pert":2409,"ĠBut":2410,"prot":2411,"ĠAg":2412,"reate":2413,"ĠWilliam":2414,"Ġpopulation":2415,"ension":2416,"itive":2417,"viron":2418,"Ġca":2419,"Ġblock":2420,"atures":2421,"ential":2422,"word":2423,"ĠAct":2424,"eturn":2425,"ecut":2426,"hold":2427,"down":2428,"Comm":2429,"ync":2430,"ruction":2431,"ummer":2432,"////////":2433,"abled":2434,"iction":2435,"ĠBo":2436,"Ġcountry":2437,"Ġaff":2438,"thing":2439,"inning":2440,"ĠHouse":2441,"Ġthird":2442,"Ð°":2443,"ius":2444,"ilitary":2445,"ĠLa":2446,"Ġbreak":2447,"from":2448,"Array":2449,"ĠGener":2450,"####":2451,"Ġplayer":2452,"Ġfull":2453,"Ġbeh":2454,"hel":2455,"ĠFrench":2456,"Ġfew":2457,"isc":2458,"Ġelection":2459,"gress":2460,"Ġrefer":2461,"Ġrole":2462,"assert":2463,"ĠBro":2464,"Ġstation":2465,"men":2466,"ittle":2467,"Ġtrack":2468,"Size":2469,"Ã³":2470,"title":2471,"Ġident":2472,"Ġconf":2473,"Ġinc":2474,"state":2475,"Ġcharacter":2476,"agement":2477,"IS":2478,"Ġaccess":2479,"Hand":2480,"ĠOff":2481,"Ġcrit":2482,"version":2483,"oon":2484,"ĠMe":2485,"31":2486,"ship":2487,"Ġprevious":2488,"requ":2489,"ponent":2490,"era":2491,"UT":2492,"2004":2493,"ique":2494,"ĠChampionship":2495,"Ġenc":2496,"Ġvol":2497,"ĠAng":2498,"Ġborn":2499,"Ġlarg":2500,"aterial":2501,"sw":2502,"ibr":2503,"FF":2504,"Ġinvest":2505,"35":2506,"Ġbuilding":2507,"using":2508,"Ġresearch":2509,"Ġcentury":2510,"Ġperiod":2511,"Ġfac":2512,"lt":2513,"ĠSw":2514,"Ġserved":2515,"Ġcheck":2516,"lymp":2517,"though":2518,"ites":2519,"ridge":2520,"[]":2521,"Ġhost":2522,"ged":2523,"Ġavailable":2524,"Ġpath":2525,"45":2526,"ached":2527,"Ġlim":2528,"body":2529,"fin":2530,"Ġelect":2531,"block":2532,"Ġincluded":2533,"ering":2534,"ĠIm":2535,"ett":2536,"dt":2537,"attle":2538,"Acc":2539,"emplate":2540,"HE":2541,"arried":2542,"Ġdev":2543,"input":2544,"iber":2545,"ĠPhil":2546,"ability":2547,"map":2548,"70":2549,"Ð¾":2550,"ĠPer":2551,"default":2552,"Ġcode":2553,"irt":2554,"ĠEm":2555,"ING":2556,"Ġflo":2557,"rain":2558,"ĠTo":2559,"Message":2560,"Ġcommand":2561,"Ġspecies":2562,"ĠInternational":2563,"Ser":2564,"Ġarch":2565,"result":2566,"ĠDistrict":2567,"bl":2568,"Ġkill":2569,"Ġwar":2570,"Loc":2571,"nection":2572,"ĠGet":2573,"From":2574,"ĠSch":2575,"abor":2576,"ournal":2577,"annel":2578,"Ass":2579,"object":2580,"run":2581,"ĠBy":2582,"agn":2583,"Ġcreated":2584,"MA":2585,"Ġcontrol":2586,"ĠGerman":2587,"Ġmillion":2588,"ĠDes":2589,"Ġcult":2590,"minist":2591,"ĠNor":2592,"Ġtelevision":2593,"Ġuser":2594,"ails":2595,"create":2596,"Ġappear":2597,",\"":2598,"ÃŃ":2599,"Ġsite":2600,"ĠDep":2601,"Ġinterest":2602,"uments":2603,"ĠCup":2604,"Ġdi":2605,"Of":2606,"Ġstat":2607,"LO":2608,"Ġ:=":2609,"Ġet":2610,"Item":2611,"Ġcommunity":2612,"Ġfri":2613,"Ġclos":2614,"point":2615,"Ġrad":2616,"IG":2617,"Ġcover":2618,"Ġpe":2619,"lete":2620,"sl":2621,"box":2622,"188":2623,"olution":2624,"De":2625,"ociety":2626,"};":2627,"ĠSan":2628,"model":2629,"Ġtotal":2630,"Ġdocument":2631,"ĠMich":2632,"nect":2633,"iforn":2634,"Ġoften":2635,"vironment":2636,"Ġconc":2637,"Ġamong":2638,"And":2639,"Ġthink":2640,"ounced":2641,"ĠâĢĺ":2642,"Ġspecial":2643,"ux":2644,"Ġcell":2645,"ica":2646,"We":2647,"++":2648,"ĠAc":2649,"ayer":2650,"Ġjava":2651,"Ġtrad":2652,"ĠRev":2653,"uture":2654,"Ġchange":2655,"Ġstory":2656,"='":2657,"posed":2658,"ĠQu":2659,"2003":2660,"CE":2661,"Ġyoung":2662,"Val":2663,"ara":2664,"ifornia":2665,"Ġdied":2666,"bt":2667,"onse":2668,"osp":2669,"Ġlet":2670,"ama":2671,"Ġgreat":2672,"ĠIndian":2673,"Ġdescribed":2674,"perties":2675,"ither":2676,"90":2677,"ĠCO":2678,"ĠVal":2679,"Ġ===":2680,"Ġparent":2681,"atri":2682,"Inter":2683,"iol":2684,"lient":2685,"Ad":2686,"ML":2687,"atter":2688,"Reg":2689,"ico":2690,"now":2691,"ĠSm":2692,"Ã¼":2693,"Ġsay":2694,"ready":2695,"orge":2696,"Ġdevelopment":2697,"Ġgen":2698,"Ġput":2699,"stand":2700,",âĢĿ":2701,"Ġtem":2702,"Ġstarted":2703,"ogn":2704,"Ġvideo":2705,"ocr":2706,"Ġconfig":2707,"info":2708,"Ġhealth":2709,"Ġtimes":2710,"2001":2711,"Ġpres":2712,"Ġson":2713,"node":2714,"ention":2715,"Out":2716,"Ġcond":2717,"Ġpri":2718,"gt":2719,"ET":2720,"idual":2721,"75":2722,"aps":2723,"Ġcame":2724,"At":2725,"oper":2726,"Ġevents":2727,"Model":2728,"init":2729,"Ġant":2730,"Ġresponse":2731,"call":2732,"base":2733,"Ġfeature":2734,"NA":2735,"ĠOne":2736,"Ġattack":2737,"Ġexample":2738,"=\"../../../../":2739,"Ġdays":2740,"Ðµ":2741,"ls":2742,"lin":2743,"width":2744,"ising":2745,"Ġnorth":2746,"uel":2747,"ĠĠĊ":2748,"Ġbecome":2749,"ĠEngland":2750,"iment":2751,"Arg":2752,"Ġ};":2753,"tes":2754,"Trans":2755,"Ġcommon":2756,"2002":2757,"useum":2758,"Count":2759,"Ġnever":2760,"Ġclaim":2761,"oyal":2762,"Up":2763,"US":2764,"lands":2765,"Ġless":2766,"Ġhaving":2767,"include":2768,"unk":2769,"Ġround":2770,"eh":2771,"lang":2772,"ĠIndia":2773,"ĠAustralia":2774,"ĠAp":2775,"MP":2776,"count":2777,"ottom":2778,"Ġnil":2779,"ĠDiv":2780,">&":2781,"burg":2782,"ED":2783,"Ġ__":2784,"ĠRiver":2785,"aper":2786,"reed":2787,"ta":2788,"ĠCalifornia":2789,"Ġsrc":2790,"ael":2791,"iff":2792,"Ġgl":2793,"ĠWhen":2794,"Group":2795,"Ġsent":2796,"align":2797,"ĠWith":2798,"content":2799,"Ġbody":2800,"Ġsocial":2801,"Ġproduct":2802,"ably":2803,"imate":2804,"Pr":2805,"rec":2806,"Ġbas":2807,"ples":2808,"Ġsett":2809,"Ġvillage":2810,"define":2811,"Ġsource":2812,"Log":2813,"Ġcolor":2814,"Ġexist":2815,"Ġengine":2816,"Ġoptions":2817,"Ġvari":2818,"--------------------------------":2819,"sm":2820,"Call":2821,"Ġaddress":2822,"Ġinternational":2823,"ilar":2824,"Ap":2825,"Living":2826,"Ġfree":2827,"oice":2828,"icro":2829,"Ent":2830,"UN":2831,";&":2832,"Ġled":2833,"BC":2834,"omin":2835,"aken":2836,"Ġmiss":2837,"ij":2838,"ertain":2839,"ĠRepublic":2840,"Ġindust":2841,"Ġgrow":2842,"ĠPort":2843,"34":2844,"ixed":2845,"Ġgeneral":2846,"ctor":2847,"Ġinstance":2848,"avy":2849,"Rec":2850,"Ġprim":2851,"Ġservices":2852,"ves":2853,"36":2854,"Ġwent":2855,"Comp":2856,"People":2857,"iddle":2858,"Ġcontext":2859,"Ġu":2860,"Ġdest":2861,"ivil":2862,"Manager":2863,"ĠQue":2864,"Ġhistor":2865,"olved":2866,"Ph":2867,"History":2868,"ha":2869,"Fl":2870,"Ġpract":2871,"ients":2872,"ĠAcc":2873,"ĠMon":2874,"Ġwritten":2875,"bol":2876,"roller":2877,"see":2878,"atform":2879,"year":2880,"rel":2881,"Ġtable":2882,"Ġrequire":2883,"oo":2884,"valid":2885,"Ġimportant":2886,"Ġstudents":2887,"Ġrange":2888,"nown":2889,"Ġannounced":2890,"55":2891,"Ġofficial":2892,"Ġsouth":2893,"99":2894,"Ġnov":2895,"css":2896,"rant":2897,"Ġoffer":2898,"google":2899,"oud":2900,"no":2901,"ocus":2902,"Ġproperty":2903,"66":2904,"ES":2905,"Ġreturned":2906,"ological":2907,"rame":2908,"ĠCour":2909,"Ġmoved":2910,"ĠAmerica":2911,"ĠRed":2912,"Ġsec":2913,"Ġaction":2914,"icular":2915,"=\"#":2916,"Ġborder":2917,"OT":2918,"ĠGo":2919,"Ġtoo":2920,"Ġhold":2921,"utes":2922,"ĠParty":2923,"prov":2924,"icense":2925,"Ġcompos":2926,"Ġworking":2927,"ĠPresident":2928,"Ġworks":2929,"Ġtw":2930,"oney":2931,"IL":2932,"package":2933,"FA":2934,"Ġinf":2935,"Ġwhe":2936,"oto":2937,"idence":2938,"Sp":2939,"Ġda":2940,"ala":2941,"Ġacross":2942,"Ġfather":2943,"Ġcomb":2944,"Ġbool":2945,"ĠOlymp":2946,"Color":2947,"start":2948,"ips":2949,"1999":2950,"Ġwin":2951,"Ġresults":2952,"Ġbackground":2953,"print":2954,"ills":2955,"equ":2956,"sequ":2957,"Ġindex":2958,"39":2959,"Ġsold":2960,"Ġinfl":2961,"itted":2962,"Ġinput":2963,"ĠStud":2964,"ĠÂ":2965,"Ġear":2966,"oke":2967,"embly":2968,"Ð¸":2969,"ULL":2970,"1990":2971,"ĉĉĉĉĉĉ":2972,"Ġwebs":2973,"Table":2974,"ership":2975,"Ġmax":2976,"38":2977,"Ġindiv":2978,"Ġfem":2979,"uation":2980,"Ġeconom":2981,"lease":2982,"ables":2983,"Ġdistrict":2984,"hib":2985,"Ġstudy":2986,"context":2987,"mark":2988,"omb":2989,"Ġreview":2990,"Ġvarious":2991,"Ġdeaths":2992,"Ġgrad":2993,"Ġmem":2994,"ado":2995,"Ġpoints":2996,"irm":2997,"false":2998,"Ġtoget":2999,"Client":3000,"han":3001,"pty":3002,"ĠFil":3003,"Ġmaking":3004,"Ġpay":3005,"Ġproduction":3006,"ENT":3007,"Ġtogether":3008,"IP":3009,"cle":3010,"istry":3011,"Ġmeet":3012,"AB":3013,"build":3014,"ĠAward":3015,"44":3016,"ges":3017,"ĠInt":3018,"uit":3019,"Ġmessage":3020,"Ġgoing":3021,"Ġmale":3022,"37":3023,"DO":3024,"ĠĠĠĠĠĠĠĠĠĠĠĠ":3025,"book":3026,"Ġwest":3027,"After":3028,"ĠAnt":3029,"java":3030,"doc":3031,"ibility":3032,"acing":3033,"Ġpolitical":3034,"bor":3035,"================":3036,"Ġintro":3037,"anies":3038,"ĠBer":3039,"ĠThese":3040,"ĠChurch":3041,"atab":3042,"igation":3043,"Ġproble":3044,"User":3045,"Ġaward":3046,"Ġrequired":3047,";</":3048,"Ġfund":3049,"ifier":3050,"android":3051,"Response":3052,"with":3053,"Override":3054,"Ġhuman":3055,"itte":3056,"Ġstd":3057,"ormal":3058,"ĠGl":3059,"ename":3060,"âĢ¦":3061,"ĠSec":3062,"inary":3063,"Query":3064,"TD":3065,"Gener":3066,"Ġide":3067,"ibrary":3068,"Ġepis":3069,"Writ":3070,"roy":3071,"ĠCouncil":3072,"db":3073,"Ġalready":3074,"arning":3075,"Ġanim":3076,"But":3077,"Ġpage":3078,"Ġnetwork":3079,"Builder":3080,"ĠMy":3081,"Ġhapp":3082,"Ġemploy":3083,"Property":3084,"Ġsw":3085,"iple":3086,"Ġhalf":3087,"ĠDem":3088,"ishing":3089,"ago":3090,"cer":3091,"Em":3092,"Ġlow":3093,"Ed":3094,"Ġindividual":3095,"ĠBel":3096,"Off":3097,"Ġcost":3098,"ĠCanada":3099,"aur":3100,"ĠJames":3101,"ĠBr":3102,"ĠFrance":3103,"ĠStreet":3104,"Ġmer":3105,"Method":3106,"itect":3107,"method":3108,"Ġcoll":3109,">(":3110,"icles":3111,"actory":3112,"Ġmedia":3113,"center":3114,"ched":3115,"Ġbig":3116,"hand":3117,"Ġproduced":3118,"Ġregion":3119,"ĠÃ":3120,"Met":3121,"Ġmarket":3122,"Mod":3123,"ĠArmy":3124,"Pol":3125,"Ġfurther":3126,"cell":3127,"dev":3128,"core":3129,"Bar":3130,"option":3131,"Ġnode":3132,"ĠSen":3133,"ĠGeneral":3134,"ĠGerm":3135,"ĠClass":3136,"rote":3137,"ĠMor":3138,"ĠEuropean":3139,"oe":3140,"ithub":3141,"check":3142,"position":3143,"ean":3144,"65":3145,"aign":3146,"event":3147,"ĠTest":3148,"Ġaway":3149,"ĠThom":3150,"most":3151,"ĠRober":3152,"Ġeast":3153,"48":3154,"ville":3155,"Ġsuper":3156,"ĠĠĠĠĠĠĠĠĠĠ":3157,"No":3158,"inner":3159,"ĠNe":3160,"ellow":3161,"eger":3162,"Ġrelease":3163,"Ġbeliev":3164,"Ġparticular":3165,"ĠDavid":3166,"style":3167,"Ġlive":3168,"anish":3169,"ĠInstit":3170,"ĠGroup":3171,"Ġdecl":3172,"do":3173,"Ġworked":3174,"187":3175,"trans":3176,"Ġparticip":3177,"ya":3178,"ĠPaul":3179,"Ġvalues":3180,"Ġdebut":3181,"ude":3182,"ston":3183,"Stream":3184,"Ġattempt":3185,"Ġrelations":3186,"ids":3187,"Sub":3188,"Ġcustom":3189,"Ġlanguage":3190,"web":3191,"func":3192,"CH":3193,"Ġclose":3194,"ĠMal":3195,"Ġonce":3196,"Ġquest":3197,")</":3198,"ĠSo":3199,"AP":3200,"argin":3201,"atal":3202,"ements":3203,"rup":3204,"Ġimplement":3205,"Ã¶":3206,"label":3207,"aker":3208,"ĠBlack":3209,"ging":3210,"options":3211,"ĠDo":3212,"ĠAdd":3213,"iting":3214,"ĠTra":3215,"Ġassoci":3216,"ĠRich":3217,"Ġothers":3218,"Ġarr":3219,"ĠPal":3220,"Ġhard":3221,"itar":3222,"Ġpopular":3223,"Ġkeep":3224,"next":3225,"Ġfar":3226,"Cell":3227,"Ġlight":3228,"End":3229,"Ġcapt":3230,"ĠRoman":3231,"Ġpast":3232,"iers":3233,"ĠĠĠĠĠĠĠĠĠĠĠĠĠĠĠĠĠĠĠĠĠĠĠĠĠĠĠĠĠĠĠ":3234,"static":3235,"Ġpresident":3236,"1980":3237,"1998":3238,"Ġroad":3239,"verage":3240,"Ġhowever":3241,"github":3242,"ĠMark":3243,"istic":3244,"gen":3245,"TH":3246,"Ġleast":3247,"Ġsimilar":3248,"isk":3249,"Ġwebsite":3250,"Ġgroups":3251,"Ġsignific":3252,"efore":3253,"Ġaccount":3254,"Ġappoint":3255,"Ġable":3256,"iding":3257,"raz":3258,"ĠLaw":3259,"Ġpolitic":3260,"Ġsurv":3261,"ĠGeorge":3262,"ymbol":3263,"ceed":3264,"ply":3265,"Ġproduc":3266,"Ġstrong":3267,"ection":3268,"reek":3269,"Ð½":3270,"iles":3271,"board":3272,"rab":3273,"active":3274,"ÑĤ":3275,"mon":3276,"Ġadded":3277,"Ġeither":3278,"light":3279,"duce":3280,"ĠAssociation":3281,"sec":3282,"ped":3283,"Ġconsid":3284,"ĠHol":3285,"west":3286,"Ġ<<":3287,"ires":3288,"=\"../":3289,"vis":3290,"ĠSk":3291,"aries":3292,"ĠTrans":3293,"max":3294,"ero":3295,"outhern":3296,"ened":3297,"Ġmilitary":3298,"Ġsays":3299,"atory":3300,"Ġmean":3301,"ĠInter":3302,"gcolor":3303,"ĠSet":3304,"<!--":3305,"ashington":3306,"ns":3307,"ĠCenter":3308,"current":3309,"ida":3310,"SC":3311,"bserv":3312,"orage":3313,"eal":3314,"ĠChina":3315,"ql":3316,"Ġcome":3317,"ilities":3318,"ĠNot":3319,"ca":3320,"aves":3321,"Ġprint":3322,"Status":3323,"Ġreported":3324,"ĠFirst":3325,"sup":3326,"])":3327,"Util":3328,"Ġthough":3329,"Date":3330,"Ġinstall":3331,"Ġprovide":3332,"Ġareas":3333,"Ġparty":3334,"wood":3335,"olic":3336,"AA":3337,"ili":3338,"ania":3339,"Ġlost":3340,"arter":3341,"Ġbetter":3342,"urb":3343,"Ġphys":3344,"Ġprovided":3345,"net":3346,"Ġandroid":3347,"sy":3348,"ĠSim":3349,"ĠDon":3350,"elling":3351,"lim":3352,"Ġcollection":3353,"uggest":3354,"ked":3355,"ander":3356,"Input":3357,"Ġalways":3358,"anel":3359,"rs":3360,"If":3361,"unicip":3362,"alian":3363,"Ġplan":3364,"namespace":3365,"Ġhttp":3366,"ĠRoyal":3367,"ka":3368,"Ġspace":3369,"Ġdate":3370,"Ġmag":3371,"Ġmot":3372,"Ġtre":3373,"client":3374,"alys":3375,"1996":3376,"ĠMount":3377,"Ġblack":3378,"SP":3379,"ftware":3380,"Ġwrote":3381,"atural":3382,"ken":3383,"element":3384,"Ġteams":3385,"Ġjob":3386,"Oper":3387,"ounter":3388,"null":3389,"bit":3390,"Ġestablish":3391,"button":3392,"Ġdisplay":3393,"Ġmid":3394,"](":3395,"Ġsit":3396,"Source":3397,"ĠTV":3398,"unn":3399,"ĠLou":3400,"ĠDivision":3401,"acc":3402,"01":3403,"Ġstatus":3404,"Ġlo":3405,"Pre":3406,"unch":3407,"Ġpossible":3408,"ittee":3409,"Resource":3410,"query":3411,"Ġdirector":3412,"ĠDef":3413,"ependent":3414,"Ġmonths":3415,"Block":3416,"Ġmarried":3417,"atabase":3418,"Ġbi":3419,"ĠSam":3420,"ĠMet":3421,"Ġjoined":3422,"jo":3423,"dir":3424,"ething":3425,"Image":3426,"ughter":3427,"ĠMart":3428,"ivity":3429,"unt":3430,"CC":3431,"Ġlittle":3432,"ication":3433,"ouch":3434,"Ġdeg":3435,"Ġrail":3436,"Ġmight":3437,"ĠHall":3438,"unity":3439,"ĠAustralian":3440,"Ġadminist":3441,"Ġbgcolor":3442,"rian":3443,"Ġdefe":3444,"lib":3445,"Ġfire":3446,"Ġperformance":3447,"ĠUK":3448,"Ġexpected":3449,"image":3450,"ĠUp":3451,"Ġsqu":3452,"yles":3453,"1997":3454,"ategory":3455,"Ġeducation":3456,"request":3457,"Ġabove":3458,"aching":3459,"Ġmaterial":3460,"gin":3461,"Ġfall":3462,"cope":3463,"Ġseen":3464,"clus":3465,"Ġaddition":3466,"Ġpot":3467,"ĠArch":3468,"DI":3469,"ĠCourt":3470,"Instance":3471,"Ġprofessional":3472,"Ġpress":3473,"php":3474,"isl":3475,"eff":3476,"rag":3477,"Ġcompanies":3478,"ĠDepartment":3479,"ĠUnion":3480,"Ġrepl":3481,"oz":3482,"ensive":3483,"Ġconsidered":3484,"has":3485,"Ġreally":3486,"ĠMont":3487,"asing":3488,"Ġaud":3489,"Ġsuccessful":3490,"aging":3491,"args":3492,"ĠGermany":3493,"ĠRoad":3494,"imum":3495,"witch":3496,"Ġbroad":3497,"Ġfeatures":3498,"change":3499,"Ġred":3500,"Ġstop":3501,"Ġgot":3502,"Ġlik":3503,"47":3504,"Ġmove":3505,"cis":3506,"ospital":3507,"ONT":3508,"Ġrock":3509,"1970":3510,"Ġvict":3511,"Ġoutput":3512,"asons":3513,"ÑĢ":3514,"Ġhon":3515,"ĠĠĠĠĠĠĠĠĠĠĠĠĠĠĠĠĠ":3516,"Ġsound":3517,"rd":3518,"finished":3519,"Base":3520,"49":3521,"Ġopened":3522,"ĠDi":3523,"ĠPe":3524,"shire":3525,"Ġfront":3526,"ota":3527,"ocol":3528,"ederal":3529,"lector":3530,"medi":3531,"amily":3532,"arts":3533,"Ġboolean":3534,"host":3535,"Ġmap":3536,"cho":3537,"xy":3538,"Ġsepar":3539,"ranch":3540,"Ġfuture":3541,"Pos":3542,"Ġvia":3543,"member":3544,"asket":3545,"ani":3546,"ĠCompany":3547,"jav":3548,"page":3549,"Ġrecogn":3550,"ĠMusic":3551,"Ġcal":3552,"Ġinitial":3553,"Ġmeas":3554,"Ġvot":3555,"Run":3556,"Ġsaf":3557,"Ġground":3558,"NS":3559,"atives":3560,"ĠWashington":3561,"esh":3562,"App":3563,"ĠMary":3564,"Ġoffice":3565,"Ġdistribut":3566,"Ġlength":3567,"Token":3568,"Ġten":3569,"Ġrespons":3570,"ervices":3571,"mar":3572,"ailed":3573,"à¤":3574,"ulated":3575,"andid":3576,"Ġwidth":3577,"Ġchurch":3578,"ĠSing":3579,"Ġcontract":3580,"iqu":3581,"Ġrace":3582,"coming":3583,"adding":3584,"lor":3585,"Ġsongs":3586,"1995":3587,"Ġaccept":3588,"dl":3589,"inese":3590,"spec":3591,"omet":3592,"Ġrights":3593,"((":3594,"ands":3595,"pected":3596,"umni":3597,"asc":3598,"ming":3599,"ĠFrom":3600,"ĠMex":3601,"Ġshows":3602,"Ġtaken":3603,"ĠSociety":3604,"Ġtreat":3605,"Ext":3606,"Ġdone":3607,"ycl":3608,"ĠPat":3609,"Ġrow":3610,"Ġcompleted":3611,"ria":3612,"Ġinflu":3613,"ĠSl":3614,"Ġ\"\"\"":3615,"ĠJack":3616,"YPE":3617,"Ġsignificant":3618,"estival":3619,"EL":3620,"otype":3621,"ebug":3622,"Ġimage":3623,"Act":3624,"berg":3625,"Ġlove":3626,"TO":3627,"ĠThat":3628,"Ġcontinued":3629,"Ġmeans":3630,"ĠAcadem":3631,"Options":3632,"1992":3633,"0000":3634,"ĠClub":3635,"array":3636,"iant":3637,"resp":3638,"indows":3639,"gr":3640,"irtual":3641,"ula":3642,"plit":3643,"Ġsuggest":3644,"ĠIsland":3645,"185":3646,"Ġpromot":3647,"Ġsubject":3648,"ĠInstitute":3649,"ĠNULL":3650,"known":3651,"Ġliter":3652,"Ġcross":3653,"Ġben":3654,"1994":3655,"Ġviol":3656,"Ġtour":3657,"Ġexecut":3658,"Ġbar":3659,"Ġindic":3660,"Ġwife":3661,"ĠVir":3662,"Ġnight":3663,"oved":3664,"child":3665,"Ġincludes":3666,"ena":3667,"Ġsigned":3668,"udd":3669,"67":3670,"There":3671,"Ġcast":3672,"Ġstep":3673,"RA":3674,"Ġcirc":3675,"ĠPress":3676,"FI":3677,"uster":3678,"uz":3679,"izer":3680,"Ġdeveloped":3681,"Ã¤":3682,"airs":3683,"Ġinj":3684,"Eng":3685,"Ġdouble":3686,"ĠGames":3687,"header":3688,"alysis":3689,"ĠMiss":3690,"ĠProv":3691,"Null":3692,"Point":3693,"ĠDuring":3694,"ĠBest":3695,"ĠPri":3696,"ĠVol":3697,"Ġstar":3698,"MS":3699,"fe":3700,"ĠDel":3701,"Ġvoc":3702,"Ġhimself":3703,"Ġcle":3704,"tain":3705,"Dis":3706,"Ġder":3707,"Ġinstead":3708,"ĠGr":3709,"pite":3710,"cel":3711,"ialog":3712,"500":3713,"Nav":3714,"Ġpur":3715,"ĠGreen":3716,"EX":3717,"Ġfight":3718,"Component":3719,"Ġord":3720,"icial":3721,"Line":3722,"ributes":3723,"ework":3724,"unfinished":3725,"ores":3726,"OS":3727,"Ġassist":3728,"Ġaverage":3729,"tings":3730,"ĠBook":3731,"ada":3732,"rect":3733,"istics":3734,"ĠTex":3735,"Attribute":3736,"Equal":3737,"Ġplaying":3738,"adata":3739,"ugin":3740,"stream":3741,"ecess":3742,"Handler":3743,"Ġvalid":3744,"Ġcampaign":3745,"Ġcurrently":3746,"Ġoption":3747,"ĠNews":3748,"ios":3749,"ĠAngel":3750,"Ġprotected":3751,"Ġcur":3752,"Ġ->":3753,"ĠYear":3754,"liament":3755,"chiev":3756,"Ġload":3757,"Content":3758,"Ġentire":3759,"itch":3760,"ĠIN":3761,"Ġ+=":3762,"ĠDirect":3763,"Ġphot":3764,"Ġeas":3765,"ĠAlex":3766,"ini":3767,"band":3768,"Ġwhether":3769,"II":3770,"ĠTown":3771,"ona":3772,"uns":3773,"Ġfav":3774,"ĠDay":3775,"Default":3776,"Ġcolumn":3777,"Ġele":3778,"tx":3779,"Spec":3780,"height":3781,"Ge":3782,"ĠAfrica":3783,"Ġbank":3784,"Ġwhite":3785,"zer":3786,"VID":3787,"Ġstage":3788,"ises":3789,"ĠHen":3790,"enced":3791,"parent":3792,"UE":3793,"Ġabs":3794,"igin":3795,"Ġdeterm":3796,"race":3797,"based":3798,"Ġrecorded":3799,"la":3800,"Style":3801,"Ġenvironment":3802,"ĠAfrican":3803,"loat":3804,"Ġens":3805,"eck":3806,"Ġmother":3807,"Ġmar":3808,"arser":3809,"Ġdiff":3810,"Ġthought":3811,"ĠTur":3812,"Ġchanges":3813,"btn":3814,"1993":3815,"hood":3816,"idget":3817,"Ġgr":3818,"Ġactive":3819,"imately":3820,"target":3821,"Ġsomething":3822,"Ġroom":3823,"Ġcases":3824,"append":3825,"Back":3826,"42":3827,"ĠSal":3828,"({":3829,"Ġmodern":3830,"open":3831,"ĠCong":3832,"Ġliving":3833,"ĠCons":3834,"Task":3835,"Action":3836,"ĠCanadian":3837,"Ġtro":3838,"Ġopt":3839,"uses":3840,"Ġthings":3841,"ĠMag":3842,"ros":3843,"EE":3844,"hi":3845,"iences":3846,"Ġschools":3847,"ramework":3848,"ĠGold":3849,"ĠReturn":3850,"ams":3851,"hest":3852,"Ġexperience":3853,"Ġnovel":3854,"Ġcenter":3855,"Ġrespect":3856,"evelop":3857,".)":3858,"Ġqual":3859,"Ġgovern":3860,"Ġrev":3861,"Number":3862,"ĠLeg":3863,"OL":3864,"Ġfeel":3865,"level":3866,"Us":3867,"ĠJust":3868,"rupt":3869,"ĠMac":3870,"[\"":3871,"json":3872,"ĠOut":3873,"property":3874,"igital":3875,"ĠMuseum":3876,"46":3877,"ĠĠĠĠĠĠĠĠĊ":3878,"ĠKingdom":3879,"Ġbring":3880,"Ġfriend":3881,"Ġnews":3882,"asketball":3883,"eline":3884,"erve":3885,"ĠDemocr":3886,"xml":3887,"ĠBay":3888,"Ñģ":3889,"ĠRobert":3890,"Ġcontinue":3891,"HT":3892,"Ġthrows":3893,"ĠCath":3894,"Version":3895,"Ġclear":3896,"Ġlabel":3897,"Ġcontribut":3898,"ĠMichael":3899,"Ġpolice":3900,"ĠDis":3901,"Ġill":3902,"stra":3903,"CK":3904,"amples":3905,"Ġspecific":3906,"Ġdeal":3907,"Ġgive":3908,"apter":3909,"True":3910,"Link":3911,"elt":3912,"1991":3913,"ĠMad":3914,"Ġbelow":3915,"Ġindustry":3916,"Ġhous":3917,"Ġmonth":3918,"aring":3919,"Be":3920,"ĠĠĠĠĠĠĠĠĠĠĠĠĠĠ":3921,"Ġitem":3922,"rowser":3923,"1960":3924,"Ġcopy":3925,"iation":3926,"Ġcourse":3927,"ĠNone":3928,"ba":3929,"Char":3930,"plied":3931,"ano":3932,"ĠApp":3933,"ĠGrand":3934,"ĠThomas":3935,"ictor":3936,"Ġsection":3937,"Start":3938,"ensus":3939,"ĠScott":3940,"ĠObject":3941,"Ġcatch":3942,"ĠCentral":3943,"Ġgoal":3944,"ĠWeb":3945,"ĠTom":3946,"OP":3947,"Ġnames":3948,"Ġacqu":3949,"ĠHistor":3950,"Hel":3951,"Ð¾Ð":3952,"ptr":3953,"You":3954,"Ġfig":3955,"edy":3956,"post":3957,"ĠJapanese":3958,"Factory":3959,"ĠWork":3960,"chan":3961,"AG":3962,"aches":3963,"Ġbox":3964,"Med":3965,"rl":3966,"ki":3967,"amic":3968,"Ġtax":3969,"acity":3970,"ĠMer":3971,"bert":3972,"strong":3973,"ĠWhite":3974,"Buffer":3975,"Ġclient":3976,"obile":3977,"inst":3978,"Ġconduct":3979,"Ġtoday":3980,"Ġkind":3981,"Ġ(\"":3982,"Part":3983,"Ġstream":3984,"ĠSub":3985,"Ġpers":3986,"Ġsearch":3987,"iler":3988,"Ġappeared":3989,"Ġdirected":3990,"05":3991,"Ġleague":3992,"Ġsil":3993,"Ġbirth":3994,"Ġtraining":3995,"Ġcertain":3996,"ĠPublic":3997,"Ġleading":3998,"Ġglobal":3999,"pass":4000,"Ġregular":4001,"Ġheight":4002,"anced":4003,"entry":4004,"rael":4005,"Ġdam":4006,"Ġcomput":4007,"Ġlocation":4008,"oring":4009,"ĠService":4010,"Ġstaff":4011,"navbar":4012,"idents":4013,"Ġfood":4014,"Ġalbums":4015,"inition":4016,"ĠTexas":4017,"Ġperm":4018,"ATE":4019,"Ġdraw":4020,"da":4021,"Ġfounded":4022,"///":4023,"Ġcharacters":4024,"ournament":4025,"Ġaccording":4026,"Ġneg":4027,"ĠJew":4028,"ĉĊ":4029,"Ġresource":4030,"Ġtravel":4031,"Ġbooks":4032,"final":4033,"Ġsports":4034,"Ġarchitect":4035,"Ġelected":4036,"Ġcou":4037,"Ġ...":4038,"rey":4039,"Ġeight":4040,"ĠRad":4041,"thlet":4042,"Ġcred":4043,"first":4044,"88":4045,"ocket":4046,"ĠWestern":4047,"src":4048,"rish":4049,"range":4050,"Ġloss":4051,"pose":4052,"*/":4053,"last":4054,"Ġtalk":4055,"Read":4056,"izing":4057,"ĠMinister":4058,"ora":4059,"Ġ{@":4060,"irection":4061,"=#":4062,"IM":4063,"||":4064,"ĠEar":4065,"azine":4066,"irl":4067,"Ġgave":4068,"ĠWil":4069,"Function":4070,"Ġstri":4071,"lying":4072,"Ġwriting":4073,"ĠHealth":4074,"status":4075,"Ġprob":4076,"encies":4077,"reland":4078,"VER":4079,"ront":4080,"ube":4081,"ĠRussian":4082,"Ġter":4083,"Ġdesigned":4084,"flow":4085,"Sup":4086,"emic":4087,"ĠAcademy":4088,"Ġsex":4089,"ĠRecords":4090,"ufact":4091,"utions":4092,"Ġformat":4093,"Ġupon":4094,"sg":4095,"ĠGod":4096,"Ġcountries":4097,"ĠVirgin":4098,"aled":4099,"Ġmoney":4100,"Ġjud":4101,"ĠChristian":4102,"Ġdaughter":4103,"\").":4104,"Ġlot":4105,"ĠLouis":4106,"Check":4107,"Ġrunning":4108,"rows":4109,"ĠZeal":4110,"Ġappointed":4111,"Ab":4112,"Ġdom":4113,"ancial":4114,"Ġcompon":4115,"REF":4116,"Ġeffort":4117,"ĠDan":4118,"erry":4119,"ĠChinese":4120,"Ġbehind":4121,"ĠSome":4122,"Ġconstruct":4123,"ĠCarol":4124,"Ġrather":4125,"ducation":4126,"merc":4127,"rated":4128,"1988":4129,"Ġdram":4130,"ĠTri":4131,"yth":4132,"Ġmus":4133,"case":4134,"08":4135,"Ġpain":4136,"aven":4137,"Equals":4138,"First":4139,"description":4140,"resh":4141,"alls":4142,"Ġoperation":4143,"undle":4144,"pped":4145,"Ġpersonal":4146,"ĠZealand":4147,"oma":4148,"Ġprote":4149,"ĉĉĉĉĉĉĉĉ":4150,"68":4151,"Ġhom":4152,"ĠBen":4153,"part":4154,"ĠItalian":4155,"ura":4156,"ĠHam":4157,"Ġconsider":4158,"\"),":4159,"find":4160,"write":4161,"NO":4162,"module":4163,"ye":4164,"Ġtask":4165,"private":4166,"Ġdiscover":4167,"Ġimm":4168,"ua":4169,"ĠSummer":4170,"Ġboard":4171,"1989":4172,"rief":4173,"oul":4174,"ĠGreat":4175,"ĠKore":4176,"Ġvisit":4177,"Ġfootballers":4178,"Ġconsist":4179,"Ġformed":4180,"Ġcut":4181,"});":4182,"Web":4183,"elete":4184,"Ġperformed":4185,"09":4186,"Ġfollowed":4187,"Rep":4188,"Ġprior":4189,"abs":4190,"ĠPre":4191,"Ġnor":4192,"Ġepisode":4193,"like":4194,"Command":4195,"Ġissues":4196,"ounds":4197,"Ġmultiple":4198,"ĠĠĠĠĠĠĠĠĠĠĠĠĊ":4199,"ypes":4200,"push":4201,"aud":4202,"LASS":4203,"ãģ":4204,"och":4205,"Ġthroughout":4206,"Ġrelationship":4207,"Ġcourt":4208,"Ġcoach":4209,"Ġmass":4210,"Ġmakes":4211,"Le":4212,"atre":4213,"Ġalthough":4214,"Ġearli":4215,"idden":4216,"Ġbit":4217,"cons":4218,"ilies":4219,"Ġassociated":4220,"std":4221,"cret":4222,"ĠSuper":4223,"Ġstates":4224,"Ġenough":4225,"Ġpark":4226,"ĠCharles":4227,"ĠMus":4228,"Ġmount":4229,"Ġradio":4230,"ĠChe":4231,"(&":4232,"Create":4233,"Ġamount":4234,"Ġalmost":4235,"ferred":4236,"Ġnav":4237,"gener":4238,"oding":4239,"ĠArg":4240,"iance":4241,"bour":4242,"ĠTor":4243,"Ġoccur":4244,"Ġinvolved":4245,"font":4246,"container":4247,"Ġscreen":4248,"77":4249,"Ġhttps":4250,"Ġfinished":4251,"Ġyet":4252,"Ġadditional":4253,"Ġforce":4254,"Ġplaces":4255,"Am":4256,"Ġvers":4257,"olf":4258,"road":4259,"ells":4260,"porary":4261,"Ġfa":4262,"ias":4263,"Ġsystems":4264,"Ġwriter":4265,"Ġoutside":4266,"Ġinternal":4267,"ĠEv":4268,"Ġrelig":4269,"Prov":4270,"Co":4271,"icult":4272,"uest":4273,"ĠRail":4274,"bottom":4275,"Ġdiscuss":4276,"Ġsaw":4277,"Ġachiev":4278,"Can":4279,"\"]":4280,"Ġplatform":4281,"Ġconcern":4282,"Ġalumni":4283,"arned":4284,"Ġjournal":4285,"ĠFore":4286,"Ġ($":4287,"bon":4288,"ĠFootball":4289,"rypt":4290,"43":4291,"BA":4292,"Ġallowed":4293,"ynt":4294,"Ġguitar":4295,"Ġchall":4296,"Return":4297,"Mar":4298,"background":4299,"obj":4300,"Ġcontains":4301,"Ġextends":4302,"uated":4303,"41":4304,"Ġkm":4305,"ĠBill":4306,"Ġobserv":4307,"Ġconv":4308,"rate":4309,"ĠSmith":4310,"ĠOlympics":4311,"Ġplant":4312,"gle":4313,"Ġpolicy":4314,"pecially":4315,"UI":4316,"allet":4317,"eds":4318,"Ġcandid":4319,"Ġonline":4320,"Ġsus":4321,"ĠFound":4322,"mt":4323,"ĠFrancis":4324,"Ġconstruction":4325,"Ġinstit":4326,"She":4327,"Ġkilled":4328,"Ġsen":4329,"Ġuns":4330,"FC":4331,"ircraft":4332,"Ġtaking":4333,"za":4334,"Ġselected":4335,"long":4336,"ĠTechn":4337,"istan":4338,"Ġener":4339,"Ġlargest":4340,"TP":4341,"ĠOpen":4342,"sole":4343,"Ġver":4344,"Ġseven":4345,"Child":4346,"Ġhit":4347,"ascript":4348,"chema":4349,"ĠSpec":4350,"endif":4351,"icago":4352,"Ġitself":4353,"grad":4354,"Ġpercent":4355,"Ġsat":4356,"char":4357,"Ġbuildings":4358,"stant":4359,"Ġelements":4360,"Ġparts":4361,"Ġregard":4362,"Ġreve":4363,"Ġge":4364,"ifact":4365,"Ġlower":4366,"ĠSat":4367,"ican":4368,"nov":4369,"img":4370,"One":4371,"ĠLat":4372,"close":4373,"ii":4374,"Ġissue":4375,"Ġartists":4376,"How":4377,"ĠWhile":4378,"ĠMod":4379,"Ġtypes":4380,"95":4381,"ees":4382,"Ġsem":4383,"Ġchanged":4384,"Ġface":4385,"ĠResearch":4386,"project":4387,"ĠJose":4388,"ulture":4389,"Ġtit":4390,"layout":4391,"Ġupdate":4392,"meta":4393,"heast":4394,"anta":4395,"vention":4396,"Ġfemale":4397,"imal":4398,"len":4399,"Ġhor":4400,"'re":4401,"ĠRob":4402,"ita":4403,"Ġurl":4404,"very":4405,"Ġmanagement":4406,"rial":4407,"Filter":4408,"Ġmargin":4409,"Ġreason":4410,"elebr":4411,"ĠHistory":4412,"Page":4413,"Ġhigher":4414,"When":4415,"Ġ((":4416,"Ġstructure":4417,"Ġexpress":4418,"Ġstandard":4419,"1987":4420,"Ġcivil":4421,"language":4422,"ĠPeter":4423,"////////////////":4424,"Ġwindow":4425,"ĠParis":4426,"Ġprimary":4427,"){":4428,"OD":4429,"eek":4430,"Bl":4431,"Ġcomplete":4432,"po":4433,"Ġpred":4434,"mi":4435,"ades":4436,"mit":4437,"pc":4438,"ĠCamp":4439,"Ġpassed":4440,"Ġrelated":4441,"Ġreading":4442,"Ġste":4443,"eve":4444,"Per":4445,"ĠMel":4446,"eria":4447,"Ġtool":4448,"FONT":4449,"ĠLake":4450,"ĠFrank":4451,"Ġwrite":4452,"07":4453,"Ġbr":4454,"Ġunderstand":4455,"SON":4456,"Ġfailed":4457,"04":4458,"Ġwhose":4459,"ein":4460,"1984":4461,"stract":4462,"1986":4463,"${":4464,"mercial":4465,"Ġhours":4466,"ĠScience":4467,"format":4468,"Ġpick":4469,"refix":4470,"ĠAnn":4471,"ella":4472,"ĠHill":4473,"ĠOper":4474,"ĠSur":4475,"attr":4476,"irit":4477,"alle":4478,"Ġplann":4479,"Ġgold":4480,"02":4481,"ĠLos":4482,"Ġoperations":4483,"ĠCatholic":4484,"ĠRichard":4485,"Format":4486,"Ġtold":4487,"ĠCommission":4488,"ĠTime":4489,"Ġship":4490,"Ġtechnology":4491,"track":4492,"Ġconstit":4493,"wise":4494,"IV":4495,"_.":4496,"Ġcomplex":4497,"pack":4498,"Ġsuff":4499,"ĠMore":4500,"Ġteach":4501,"elves":4502,"bb":4503,"soft":4504,"URL":4505,"Ġexcept":4506,"Ġir":4507,"uid":4508,"gn":4509,"Ġstations":4510,"Ġreturns":4511,"ĠIreland":4512,"orial":4513,"lood":4514,"ĠFlor":4515,"arily":4516,"igan":4517,"antic":4518,"urd":4519,"Ġespecially":4520,"verse":4521,"urt":4522,"achine":4523,"What":4524,"arian":4525,"yr":4526,"Ġbrother":4527,"58":4528,"arr":4529,"06":4530,"ĠVictor":4531,"Last":4532,"ĠCOVID":4533,"rics":4534,"FL":4535,"params":4536,"gl":4537,"can":4538,"ĠWomen":4539,"illa":4540,"Ġauto":4541,"1985":4542,"apping":4543,"Ġuses":4544,"ĠRem":4545,"ario":4546,"Ġforces":4547,"Ġentry":4548,"Ġdefined":4549,"ĠGeorg":4550,"TER":4551,"ĠFilm":4552,"Ġterms":4553,"Ġmedal":4554,"PRO":4555,"Ġsoon":4556,"ttp":4557,"ĠPan":4558,"ĠRock":4559,"Ġobj":4560,"Box":4561,"Par":4562,"menu":4563,"Ġquick":4564,"aily":4565,"Ġcentral":4566,"uan":4567,"Ġusually":4568,"Ġdoesn":4569,"select":4570,"Ġartist":4571,"Ġdeb":4572,"people":4573,"Work":4574,"AM":4575,"filter":4576,"ĠIsrael":4577,"69":4578,"Ġfocus":4579,"ND":4580,"ylv":4581,"dr":4582,"Controller":4583,"Ġmissing":4584,"well":4585,"ils":4586,"ether":4587,"Ġstore":4588,"ĠSpanish":4589,"BU":4590,"Ġtim":4591,"Ġapplication":4592,"umbers":4593,"03":4594,"Collection":4595,"Ġesc":4596,"ĠMass":4597,"Ġden":4598,"ĠPenn":4599,"azz":4600,"ola":4601,"service":4602,"CON":4603,"1950":4604,"Ġculture":4605,"Ġcapital":4606,"Ġcomment":4607,"ĠFin":4608,"Ġspecified":4609,"agon":4610,"Ġwoman":4611,"57":4612,"uate":4613,"ĠInc":4614,"utch":4615,"rav":4616,"Ġscient":4617,"Ġunit":4618,"razil":4619,"ĠID":4620,"ky":4621,"Ġmunicip":4622,"Ġtakes":4623,"Ġ<!--":4624,"Ġpurch":4625,"Ġenergy":4626,"Ġveh":4627,"ockey":4628,"ĠOF":4629,"Top":4630,"ĠRef":4631,"ĠCast":4632,"ĠForm":4633,"Ġsure":4634,"Ġsn":4635,"server":4636,"Ġrate":4637,"pri":4638,"izes":4639,"ĠGovernment":4640,"rea":4641,"room":4642,"Ġimprov":4643,"hedul":4644,"PC":4645,"ĠPost":4646,"ledge":4647,"Ġwhy":4648,"ĠLu":4649,"Fe":4650,"Output":4651,"ĠLicense":4652,"ABLE":4653,"Column":4654,"javascript":4655,"Det":4656,"Ġnone":4657,"ĠKh":4658,"ĠBank":4659,"Ġsecurity":4660,"Ġsoftware":4661,"ental":4662,"ĠCr":4663,"olar":4664,"UM":4665,"instance":4666,"Ġmom":4667,"})":4668,"het":4669,"Ġmanager":4670,"Ġunits":4671,"izations":4672,"Ġpaint":4673,"png":4674,"ao":4675,"Ġstre":4676,"Ġbenef":4677,"1983":4678,"idae":4679,"Ġreplaced":4680,"ĠForce":4681,"59":4682,"Ġball":4683,"oviet":4684,"Aut":4685,"Listener":4686,"Ġserver":4687,"ĠĠĠĠĠĠĠĠĠĠĠĠĠĠĠĠĠĠĠĠĠĠĠĠĠĠĠĠĠĠĠĠĠĠĠ":4688,"remove":4689,"ãĥ":4690,"Ġnatural":4691,"update":4692,"Ġintroduced":4693,"Ġarticle":4694,"number":4695,"Length":4696,"ening":4697,"Ã³n":4698,"uge":4699,"ĠIll":4700,"ĠAtl":4701,"ĠChicago":4702,"Ġimpact":4703,"Valid":4704,"ĠVirginia":4705,"Rem":4706,"Ġneeded":4707,"Ġcompetition":4708,"Ġoriginally":4709,"Ġdegree":4710,"ĠLog":4711,"Ġfrequ":4712,"ĠStar":4713,"Ġword":4714,"sych":4715,"Ġemer":4716,"Ġtransl":4717,"Mode":4718,"ĠEnd":4719,"ĠMo":4720,"ishop":4721,"ĠOrder":4722,"evelopment":4723,"<?":4724,"Ġche":4725,"ĠAccording":4726,"ĠArts":4727,"respond":4728,"Ġdecided":4729,"Ġsequ":4730,"Ġpreviously":4731,"Ġsupported":4732,"Ġfiles":4733,"Ġlisted":4734,"Ġdecision":4735,"Ġinterface":4736,"Ġ[]":4737,"Ġclosed":4738,"Ġminutes":4739,"Ġhot":4740,"ĠOver":4741,"prototype":4742,"response":4743,"Ġcollege":4744,"ĠAtt":4745,"ien":4746,"olk":4747,"local":4748,"dep":4749,"Ġneigh":4750,"ĠHel":4751,"ixt":4752,"ĠWhat":4753,"nel":4754,"actions":4755,"ensions":4756,"Ġdestroy":4757,"Button":4758,"Ġnecess":4759,"tag":4760,"ĠCommittee":4761,"1982":4762,"Ġmanufact":4763,"Ġleader":4764,"section":4765,"ĠSecond":4766,"Ġautom":4767,"Ġmodule":4768,"Ġopport":4769,"anger":4770,"Ġinteg":4771,":</":4772,"ĠCD":4773,"reme":4774,"Ġnumer":4775,"Ġwalk":4776,"Ġquestion":4777,"Ġtransport":4778,"ĠVer":4779,"ares":4780,"ĠCongress":4781,"ette":4782,"Ġstated":4783,"dated":4784,"tool":4785,"Ġreached":4786,"ĠAPI":4787,"ordin":4788,"ĠAv":4789,"win":4790,"Ġbrought":4791,"Ġcomes":4792,"owers":4793,"Ġeventually":4794,"ĠBig":4795,"cy":4796,"Ġfeatured":4797,"ĠHenry":4798,"Ġprovides":4799,"Ġlines":4800,"Ġdifficult":4801,"Ġcannot":4802,"ĠOther":4803,"greg":4804,"Ġlikely":4805,"Ġ]":4806,"Ġsubsequ":4807,";\"":4808,"SI":4809,"Ġshare":4810,"Ġproblem":4811,"Ġstudies":4812,"Ġbad":4813,"TV":4814,"ato":4815,"ĠMexico":4816,"olve":4817,"Ã¨":4818,"Ġremained":4819,"********************************":4820,"Ġfont":4821,"ĠBase":4822,"Ġawarded":4823,"Men":4824,"reater":4825,"pol":4826,"styles":4827,"Ġlonger":4828,"Ġrecent":4829,"mas":4830,"ĠType":4831,"Label":4832,"aml":4833,"Ġactually":4834,"ĠUs":4835,"ĠBuild":4836,"ĠPlay":4837,"ĠScot":4838,"Ġwhole":4839,"orpor":4840,"Ġconditions":4841,"TYPE":4842,"ĠAngeles":4843,"heet":4844,"ĠSwed":4845,"....":4846,"Ġfourth":4847,"Ġexhib":4848,"Ġtowards":4849,"output":4850,"ĠFlorida":4851,"Server":4852,"where":4853,"ighest":4854,"ĠEX":4855,"Ġâ":4856,"Ġimmedi":4857,"otal":4858,"Ġscored":4859,"1979":4860,"Ġaircraft":4861,"Ġneeds":4862,"Ġexpand":4863,"Ġpolitician":4864,"Address":4865,"efined":4866,"arp":4867,"Port":4868,"ĠDev":4869,"display":4870,"Ġsch":4871,"Ġfamilies":4872,"ĠAssembly":4873,"Ġmovement":4874,"det":4875,"Ġdoc":4876,"Ġeditor":4877,"ulate":4878,"Ġapplic":4879,"ĠData":4880,">>":4881,"etic":4882,"itting":4883,"Sl":4884,"ĠSeries":4885,"78":4886,"Ġorganization":4887,"Ġbeginning":4888,"Ġscience":4889,"Ġplaced":4890,"ĠFestival":4891,"Ġdidn":4892,"IO":4893,"63":4894,"Ġincrease":4895,"Ġcritic":4896,"Init":4897,"Row":4898,"ATION":4899,"Layout":4900,"unched":4901,"Track":4902,"Ġconnection":4903,"allery":4904,"abit":4905,"Ġprinc":4906,"Ġgrand":4907,"ĠMr":4908,"inding":4909,"ĠLife":4910,"Ġforward":4911,"Ġproducts":4912,"ĠHREF":4913,"Ġinterview":4914,"Ġvirtual":4915,"Offset":4916,"Cache":4917,"++)":4918,"ĠOf":4919,"Ġcallback":4920,"').":4921,"Ġbrand":4922,"Äģ":4923,"Ġ;":4924,"ĠCLASS":4925,"Ġcontact":4926,"ĠMil":4927,"Ġmethods":4928,"ĠLong":4929,"Ġprogress":4930,"UP":4931,"Ġstay":4932,"oom":4933,"ims":4934,"ipe":4935,"anda":4936,"ĠCap":4937,"azon":4938,"Ġbroadcast":4939,"rong":4940,"house":4941,"Min":4942,"Ġruns":4943,"ĠHT":4944,"Ġtournament":4945,"iller":4946,"process":4947,"Ġdise":4948,"Ġlegal":4949,"annot":4950,"ĠKn":4951,"overs":4952,"ĠIS":4953,"62":4954,"CL":4955,"Description":4956,"ĠItaly":4957,"Ġshot":4958,"yes":4959,"only":4960,"ĠSecret":4961,"Ġreb":4962,"astic":4963,"ĠDec":4964,"```":4965,"iano":4966,"essages":4967,"1981":4968,"NAME":4969,"illed":4970,"CA":4971,"Ġreference":4972,"ĠSqu":4973,"creen":4974,"61":4975,"isions":4976,"ĠRussia":4977,"icated":4978,"Early":4979,"ERT":4980,"Ġhousehold":4981,"yan":4982,"Ġdro":4983,"areer":4984,"Ġpack":4985,"Ġsinger":4986,"1972":4987,"Container":4988,"Ġful":4989,"itiz":4990,"osh":4991,"Dev":4992,"Ġcelebr":4993,"unit":4994,"Pop":4995,"ĠTimes":4996,"iana":4997,"mm":4998,"Ġapprox":4999,"itation":5000,"ĠKe":5001,"ĠSil":5002,"ĠFe":5003,"Ġmedical":5004,"Ġmatches":5005,"ĠTour":5006,"ĉĠĠĠ":5007,"df":5008,"show":5009,"Vis":5010,"iÄ":5011,"Ġsomet":5012,"1976":5013,"Ġpractice":5014,"ih":5015,"Ġwatch":5016,"ds":5017,"joy":5018,"ĠLand":5019,"ums":5020,"erved":5021,"Ġspent":5022,"Ġdu":5023,"weight":5024,"ugby":5025,"andom":5026,"ĠDet":5027,"Ġweeks":5028,"ĠChampionships":5029,"Ġcho":5030,"Ġearlier":5031,"ĠMem":5032,"Ġfloat":5033,"ady":5034,"ĠMa":5035,"Ġestablishments":5036,"ĠIts":5037,"Url":5038,"Ġlack":5039,"Ġdevice":5040,"ifying":5041,"km":5042,"ĠTwo":5043,"ĠDu":5044,"bes":5045,"Ġroute":5046,"ERR":5047,"oded":5048,"ĠSee":5049,"Ġevidence":5050,"Update":5051,"king":5052,"Ġshown":5053,"Ag":5054,"\\\"":5055,"1978":5056,"Ġbasketball":5057,"iece":5058,"ĠBrown":5059,"ensor":5060,"Ġthreat":5061,"nes":5062,"Ġweb":5063,"force":5064,"Person":5065,"Notes":5066,"ĠTim":5067,"Ġcause":5068,"ĠLoc":5069,"Ġsecret":5070,"ping":5071,"itude":5072,"igger":5073,"Ġincreased":5074,"Ġstudent":5075,"mselves":5076,"Ġscore":5077,"comes":5078,"HO":5079,"Ġ!==":5080,"ĠField":5081,"ĠJo":5082,"offset":5083,"ĠAwards":5084,"oute":5085,"Ġproperties":5086,"Bo":5087,"Ġwords":5088,"ĠDen":5089,"ĠOh":5090,"foot":5091,"ĠMain":5092,"Types":5093,"ĠBoard":5094,"Next":5095,"ĠPet":5096,"COL":5097,"Max":5098,"isation":5099,"ĠOld":5100,"Ġbound":5101,"ĠRegister":5102,"BS":5103,"more":5104,"itory":5105,"Ġsummer":5106,"returns":5107,"Ġheart":5108,"icens":5109,"(_":5110,"Ġregist":5111,"Ġbehav":5112,"older":5113,"Ã§":5114,"Ġthemselves":5115,"1974":5116,"wait":5117,"Access":5118,"1975":5119,"utils":5120,"expected":5121,"uri":5122,"issions":5123,"Ġgoals":5124,"GL":5125,"fort":5126,"ĠEngine":5127,"Width":5128,"ãĤ":5129,"mission":5130,"enge":5131,"Ġbre":5132,"break":5133,"Ġrisk":5134,"iro":5135,"pm":5136,"'.":5137,"Ġwriters":5138,"Ġasked":5139,"1968":5140,"########":5141,"inct":5142,"support":5143,"Ġnormal":5144,"ny":5145,"ĠCarolina":5146,"ĠEmp":5147,"Post":5148,"ci":5149,"Sec":5150,"kit":5151,"Ġfif":5152,"ĠCam":5153,"Ġfarm":5154,"itz":5155,"icate":5156,"Ġpotential":5157,"ĠOl":5158,"Ġlen":5159,"ech":5160,"PO":5161,"Ġfinancial":5162,"ĠProfess":5163,"Ġstarting":5164,"ĠMur":5165,"hent":5166,"DB":5167,"ĠKar":5168,"else":5169,"Ġactivities":5170,"cs":5171,"Ġess":5172,"etch":5173,"ĠSaint":5174,"1977":5175,"Ġtag":5176,"Ġplays":5177,"icrosoft":5178,"Ġinside":5179,"aa":5180,":\"":5181,"ĠStep":5182,"Enc":5183,"ulations":5184,"Ġsession":5185,"num":5186,"vest":5187,"Ġsubs":5188,"Ġchannel":5189,"ĠJournal":5190,"51":5191,"Ġwinning":5192,"El":5193,"ja":5194,"ĠTeam":5195,"Ġthing":5196,"Ġwait":5197,"Ġtraditional":5198,"ĠMost":5199,"Ġconnect":5200,"Entry":5201,"Ġfields":5202,"icient":5203,"Ġacadem":5204,"Ġoccup":5205,"SA":5206,"ingu":5207,"rapper":5208,"ĠEducation":5209,"Ġactor":5210,"Ġremove":5211,"iring":5212,"1973":5213,"ĠSund":5214,"ecution":5215,"ously":5216,"Ġlimited":5217,"ĠDirector":5218,"Ġcop":5219,"Ġfinally":5220,"ĠEr":5221,"ĠNavy":5222,"Ġactress":5223,"adium":5224,"author":5225,"ĠHaw":5226,"300":5227,"Ġpatients":5228,"98":5229,"400":5230,"Ġargs":5231,"Ġindependent":5232,"Ġedition":5233,"Ġroot":5234,"Provider":5235,"column":5236,"Ġopening":5237,"ĠParliament":5238,"ĠMartin":5239,"TC":5240,"eft":5241,"Bundle":5242,"Tag":5243,"wide":5244,"Ġprevent":5245,"ĠSun":5246,"Ġrule":5247,"Control":5248,"QL":5249,"template":5250,"dat":5251,"anged":5252,"Ġeconomic":5253,"Ġmiddle":5254,"istance":5255,"English":5256,"ali":5257,"Ġtrade":5258,"ersey":5259,"Ġunique":5260,"pes":5261,"Ġdetails":5262,"den":5263,"ternet":5264,"olid":5265,"Configuration":5266,"Target":5267,"ĠAut":5268,"John":5269,"py":5270,"ĠFile":5271,"Ġquery":5272,"Op":5273,"Ġdead":5274,"Ġended":5275,"ĠWood":5276,"ati":5277,"flict":5278,"ylvania":5279,"ĠUnder":5280,"Ġwood":5281,"ĠTre":5282,"Ġuint":5283,"Ġmeeting":5284,"Ġminor":5285,"Ġscript":5286,"Ġlevels":5287,"ĠWales":5288,"Ġhum":5289,"venue":5290,"Ġhighest":5291,"gate":5292,"Ġwanted":5293,"ĠRos":5294,"ws":5295,"Ġexc":5296,"ĠLove":5297,"}}":5298,"Ġdirectly":5299,"Ġaltern":5300,"Ġrecords":5301,"anner":5302,"Ġcommercial":5303,"Ġalt":5304,"RI":5305,"Ġoffset":5306,"1971":5307,"main":5308,"ollowing":5309,"Ġcoming":5310,"ĠTop":5311,"ĠBoy":5312,"should":5313,"bool":5314,"Ġprop":5315,"]);":5316,"Inst":5317,"Ġcollabor":5318,"ĠRel":5319,"ĠLiber":5320,"emporary":5321,"Ġpartn":5322,"ĠBur":5323,"ĠSocial":5324,"Ġdeep":5325,"Ġrules":5326,"Ġconcept":5327,"ĠGen":5328,"Ġwide":5329,"ĠBrazil":5330,"Rel":5331,"Ġextra":5332,"Ġdoing":5333,"TS":5334,"Frame":5335,"Ġtree":5336,"criptor":5337,"imary":5338,"asion":5339,"Ġmovie":5340,"ĠPac":5341,"common":5342,"Ġmode":5343,"ecute":5344,"97":5345,"1969":5346,"1940":5347,"Current":5348,"ongs":5349,"pha":5350,"Ġsometimes":5351,"ĠFort":5352,"strap":5353,"Ġlaunched":5354,"ĠFri":5355,"Ġidea":5356,"Ġconn":5357,"ĠTer":5358,"That":5359,"Mon":5360,"mem":5361,"Ġavoid":5362,"Location":5363,"Ġcoast":5364,"Ġprograms":5365,"ĠHot":5366,"hr":5367,"Ġdyn":5368,"ĠBre":5369,"Ġdivision":5370,"Process":5371,"Ġmention":5372,"fit":5373,"Ġparents":5374,"ĠFoundation":5375,"ĠChief":5376,"Ġfriends":5377,"ĠBas":5378,"match":5379,"ansas":5380,"Year":5381,"KE":5382,"ĠProject":5383,"54":5384,"Ġinsp":5385,"Ġlooking":5386,"Ġtrain":5387,"Ġmodels":5388,"TI":5389,"1945":5390,"Open":5391,"Ġagre":5392,"Ġnumbers":5393,"Ġorigin":5394,"''":5395,"ĠProvince":5396,"Ġsolid":5397,"ĠShow":5398,"52":5399,"ampion":5400,"Utils":5401,"Ġ**":5402,"Ġanalysis":5403,"root":5404,"boot":5405,"Ġseasons":5406,"ĠValley":5407,"Ġquarter":5408,"()->":5409,"Ġwhom":5410,"ĠIrish":5411,"Ġfilter":5412,"mitted":5413,"FO":5414,"ĠJun":5415,"Ġquality":5416,"Ġprobably":5417,"56":5418,"Direct":5419,"Ġproblems":5420,"Ġanti":5421,"ĠProgram":5422,"Ġbur":5423,"fa":5424,"Ġremain":5425,"ĠGar":5426,"Interface":5427,"ancy":5428,"Ġpen":5429,"ĠLine":5430,"ultural":5431,"ĠSoviet":5432,"Ġvocals":5433,"ĉĉĉĉĉĉĉ":5434,"Ð»":5435,"INE":5436,"ĠMos":5437,"Ġleave":5438,"ying":5439,"Ġshoot":5440,"Ġstudio":5441,"akers":5442,"=\"../../../../../":5443,"ĠOffice":5444,"ĠPeople":5445,"ĠJim":5446,"Ġriver":5447,"1930":5448,"Ġchampionship":5449,"Ġgetting":5450,"just":5451,"CD":5452,"ĠLin":5453,"ras":5454,"Ġsimple":5455,"Ġsort":5456,"Ġchief":5457,"amm":5458,"ĠColumb":5459,"Ġprison":5460,"wan":5461,"scope":5462,"Ġrecomm":5463,"Ġusers":5464,"Ġlives":5465,"gu":5466,"atriate":5467,"ĠRh":5468,"artifact":5469,"Ġ{}":5470,"cache":5471,"inners":5472,"inds":5473,"Ġpositive":5474,"overnor":5475,"1967":5476,"Tree":5477,"Ġrepresented":5478,"Case":5479,"ĠCommun":5480,"Ġcard":5481,"tained":5482,"Ġselect":5483,"ved":5484,"irls":5485,"Ġcaused":5486,"%%":5487,"plete":5488,"Ġseem":5489,"ĠCre":5490,"Ġmusical":5491,"Ġdemon":5492,"ĠArab":5493,"Ġmemory":5494,"Ġpaper":5495,"aria":5496,"Ġnative":5497,"ervation":5498,"Ġpattern":5499,"ĠSir":5500,"Åį":5501,"Ġspeed":5502,"usband":5503,"Entity":5504,"sylvania":5505,"ictionary":5506,"ĠÂ£":5507,"Ġcharg":5508,"Operation":5509,"53":5510,"Local":5511,"adow":5512,"AV":5513,"uint":5514,"Thread":5515,"Ġproducer":5516,"ĠPo":5517,"Ġbattle":5518,"Ġtreatment":5519,"inger":5520,"ĠArray":5521,"pers":5522,"ĠJoseph":5523,"ĠNorthern":5524,"Height":5525,"Career":5526,"ĠSpace":5527,"ĠMen":5528,"ĠLee":5529,"~~":5530,"Write":5531,"Ðº":5532,"ĠYoung":5533,"RL":5534,"pat":5535,"ĠGoogle":5536,"Ġattended":5537,"Ġmission":5538,"Ġthus":5539,"Other":5540,"Ġphil":5541,"Po":5542,"inated":5543,"Ġresources":5544,"pid":5545,"arks":5546,"During":5547,"Ġded":5548,"Ġadapt":5549,"Ġdescription":5550,"enty":5551,"site":5552,"ĠHistoric":5553,"ĠReturns":5554,"Ġsurround":5555,"ĠJud":5556,"Header":5557,"Ġreplace":5558,"Ġscope":5559,"Art":5560,"'),":5561,"Ġcompl":5562,"isher":5563,"Ġconvert":5564,"va":5565,"si":5566,"float":5567,"Ġstories":5568,"orter":5569,"ĠFinal":5570,"Dec":5571,"iled":5572,"arrow":5573,"Ġsurface":5574,"Ġsend":5575,"Ġ*)":5576,"Ac":5577,"Ġpoet":5578,"My":5579,"nam":5580,"ĠInst":5581,"Ġselection":5582,"Ġfoot":5583,"ingle":5584,"Ġitems":5585,"Ġmeaning":5586,"Ġsenior":5587,"inder":5588,"Ġmechan":5589,"orning":5590,"Ġking":5591,"itors":5592,"PS":5593,"1964":5594,"Ġinvolv":5595,"parse":5596,"osoph":5597,"Ġisland":5598,"Ġenjoy":5599,"document":5600,"Expression":5601,"ellig":5602,"osing":5603,"PA":5604,"Ġparameter":5605,"Record":5606,"ko":5607,"Ġgrowth":5608,"Ġremains":5609,"ĠMax":5610,"Ġofficer":5611,"Ġago":5612,"Ġhandle":5613,"ĠBattle":5614,"ponents":5615,"gor":5616,"ĠRE":5617,"Ġgraph":5618,"Prot":5619,"ĠLibrary":5620,"aka":5621,"Pat":5622,"ĠMatt":5623,"Ġcam":5624,"Ġplans":5625,"Unit":5626,"Load":5627,"Ġprep":5628,"Ġcollect":5629,"imated":5630,"Ġgrant":5631,"Ġnoted":5632,"ira":5633,"Ġhospital":5634,"aling":5635,"Ġprojects":5636,"Ġdrug":5637,"Do":5638,"Ġsaying":5639,"ĠCross":5640,"ĠMat":5641,"ĠNS":5642,"files":5643,"Ġexisting":5644,"Ġgenerally":5645,"Dr":5646,"Ġlock":5647,"ads":5648,"Ġexception":5649,"Ġeffects":5650,"witter":5651,"arden":5652,"rants":5653,"ĠSar":5654,"Ġreceive":5655,"Ġetc":5656,"ĠGood":5657,"CODE":5658,"ĠIran":5659,"require":5660,"kin":5661,"ĠCreate":5662,"Ġparticularly":5663,"ĠEmpire":5664,"Ġoverall":5665,"Ġactivity":5666,"Position":5667,"Search":5668,"Ġrailway":5669,"ĠOp":5670,"ĠReview":5671,"Callback":5672,"Ġcommunities":5673,"LI":5674,"Ġannual":5675,"ĠSpain":5676,"awa":5677,"Ġlimit":5678,"ima":5679,"Ġdrama":5680,"Ġprotect":5681,"omy":5682,"Empty":5683,"oral":5684,"Ġque":5685,"ĠOR":5686,"inem":5687,"mond":5688,"None":5689,"Ġlegisl":5690,"oration":5691,"arriage":5692,"Ġtouch":5693,"tml":5694,"Ġnewsp":5695,"Ġinstr":5696,"mut":5697,"Range":5698,"1920":5699,"ror":5700,"Window":5701,"Lo":5702,"Ġolder":5703,"ULT":5704,"resource":5705,"erem":5706,"Ġbuffer":5707,"ĠSince":5708,"Exp":5709,"Ġtemper":5710,"icture":5711,"Ġentered":5712,"Ġfederal":5713,"ĠHon":5714,"sd":5715,"even":5716,"Ġempty":5717,"Ġsouthern":5718,"oston":5719,"fect":5720,"task":5721,"aters":5722,"Settings":5723,"Hash":5724,"Ġcells":5725,"1965":5726,"Ġmajority":5727,"Ġnorthern":5728,"Ġscale":5729,"afe":5730,"ĠBet":5731,"ependency":5732,"Ġowned":5733,"airman":5734,"ĠGreek":5735,"Ġturned":5736,"=\"-":5737,"ĠGame":5738,"ĠBul":5739,"Ġapproximately":5740,"then":5741,"Ġcommission":5742,"Project":5743,"'m":5744,"irmed":5745,"Go":5746,"Ġtransform":5747,"So":5748,"acter":5749,"bin":5750,"ĠPennsylvania":5751,"Module":5752,"atrix":5753,"ĠWal":5754,"Ġremoved":5755,"ĠWrit":5756,"Ġwid":5757,"Ġign":5758,"named":5759,"uing":5760,"Ġcorrect":5761,"Ġforeign":5762,"vey":5763,"Stat":5764,"Ġrul":5765,"ĠTO":5766,"ĠDE":5767,"1966":5768,"Ġlived":5769,"sort":5770,"Films":5771,"MO":5772,"Ġappearance":5773,"87":5774,"Ġsym":5775,"Ġss":5776,"pop":5777,"Ġsymbol":5778,"tra":5779,"Members":5780,"Ġactual":5781,"ĠId":5782,"Don":5783,"Ġfast":5784,"ĠPak":5785,"ĠChild":5786,"Ġeth":5787,"ĠBi":5788,"dec":5789,"dest":5790,"ialize":5791,"Ġcentre":5792,"Ġapproach":5793,"([":5794,"./":5795,"Copy":5796,"Ġlarger":5797,"Ġdigital":5798,"atively":5799,"Ġdefeated":5800,"][":5801,"iga":5802,"ctx":5803,"API":5804,"egin":5805,"ennis":5806,"ZE":5807,"found":5808,"ĠĠĠĠĠĠĠĠĠĠĠĠĠĠĠĠĠĠĠĠĠ":5809,"Ġarrest":5810,"imb":5811,"plicit":5812,"ĠLord":5813,"Ġterrit":5814,"Ġcalc":5815,"ĠÎ":5816,"Ġnature":5817,"Ġmagazine":5818,"tree":5819,"ĠUk":5820,"Ġcensus":5821,"rome":5822,"drop":5823,"itan":5824,"Ġforms":5825,"Ġfavor":5826,"MM":5827,"inet":5828,"ĠAlthough":5829,"bury":5830,"ronic":5831,"token":5832,"Ġpresented":5833,"NE":5834,"imation":5835,"89":5836,"ertific":5837,"Ġraised":5838,"Ġbecoming":5839,"ĠPrem":5840,"ker":5841,"Ġobjects":5842,"elled":5843,"apers":5844,"patch":5845,"ĠMap":5846,"Ġworkers":5847,"cal":5848,"Ġallows":5849,"Ġvote":5850,"ested":5851,"Ġrecently":5852,"\\\\":5853,"Parameter":5854,"irus":5855,"Ġhusband":5856,"aval":5857,"ynch":5858,"ĠAssert":5859,"ĠJones":5860,"uty":5861,"Ġadministr":5862,"icine":5863,"aved":5864,"Ġcrick":5865,"IGN":5866,"small":5867,"ĠAsia":5868,"Ġcy":5869,"ĠFred":5870,"inois":5871,"Ġappears":5872,"ĠCall":5873,"ador":5874,"rang":5875,"Ġmulti":5876,"artifactId":5877,"ĠNetwork":5878,"Http":5879,"ĠMah":5880,"Ġreli":5881,"ĠCentre":5882,"Ġvert":5883,"ĠSy":5884,"Ne":5885,"Ġlibrary":5886,"ĠLuc":5887,"icker":5888,"Ġdepartment":5889,"buffer":5890,"ĠBritain":5891,"ĠMot":5892,"Ġlab":5893,"erc":5894,">,":5895,"Tim":5896,"lers":5897,"msg":5898,"Ġunion":5899,"Te":5900,"Ġcounty":5901,"aya":5902,"Ġseek":5903,"Ġrepe":5904,"ĠBob":5905,"ĠYour":5906,"before":5907,"real":5908,"ĠTele":5909,"Ev":5910,"iders":5911,"Level":5912,"sign":5913,"fs":5914,"Params":5915,"Ġ::":5916,"ĠSpring":5917,"Ġsets":5918,"Ġnothing":5919,"BO":5920,"Ġvacc":5921,")(":5922,"Ġsetting":5923,"Json":5924,"ĠMP":5925,"Ġnum":5926,"asy":5927,"oles":5928,"ĠGal":5929,"Ġsuc":5930,"Ġraise":5931,"ĠCivil":5932,"leep":5933,"Ġvictory":5934,"ĠMichigan":5935,"classes":5936,"ĠConference":5937,"\"));":5938,"ĠNow":5939,"EO":5940,"ĠCamb":5941,"ĠIII":5942,"Ġindividuals":5943,"Ġsu":5944,"VAL":5945,"Ġjoin":5946,"ĠCheck":5947,"Ġdirection":5948,"Aust":5949,"ĠRun":5950,"ulty":5951,"ĠMedia":5952,"Ġsea":5953,"ĠBusiness":5954,"Connection":5955,"Ġcomponent":5956,"Ġtheory":5957,"Ġforced":5958,"Ġnearly":5959,"entity":5960,"after":5961,"Ġvoice":5962,"Ġarm":5963,"enth":5964,"ĠKey":5965,"Script":5966,"ici":5967,"Ġdark":5968,"Ġfoc":5969,"auth":5970,"Ġswitch":5971,"Ġalleg":5972,"ĠDevelopment":5973,"ĠSouthern":5974,"86":5975,"yer":5976,"hor":5977,"hedule":5978,"tim":5979,"Ġrecover":5980,"Ġweight":5981,"Ġparams":5982,"Ġvs":5983,"window":5984,"ila":5985,"Ġinvestig":5986,"card":5987,"ĠJohnson":5988,"Ġmaster":5989,"Ġstructures":5990,"lie":5991,"Ġbus":5992,"Ġincreasing":5993,"Rev":5994,"control":5995,"Ġability":5996,"Ġcorrespond":5997,"Ġwor":5998,"draw":5999,"Ġscene":6000,"ĠEnter":6001,"Ġoverride":6002,"Ġtrying":6003,"ĠRead":6004,"term":6005,"ĠMov":6006,"Ġclean":6007,"Sim":6008,"mat":6009,"Ġpadding":6010,"Ġsociety":6011,"ĠHome":6012,"Ġbatt":6013,"ĠFC":6014,"Ġseat":6015,"ĠEconom":6016,"Ġbeaut":6017,"ĠCarl":6018,"Ġbelieve":6019,"iÄĩ":6020,"Ġthr":6021,"osph":6022,"ĠDemocratic":6023,"ĠRadio":6024,"device":6025,"ibly":6026,"undred":6027,"Ġenter":6028,"Ġgreen":6029,"Ġparameters":6030,"Ġchem":6031,"etts":6032,"Ġdepend":6033,"85":6034,"Ġhelped":6035,"\"))":6036,"ransp":6037,"hens":6038,":#":6039,"Ġletter":6040,"1000":6041,"Pass":6042,"Change":6043,"ĠColor":6044,"GB":6045,"debug":6046,"oday":6047,"Ġansw":6048,"96":6049,"ifest":6050,"Que":6051,"ĠOx":6052,"Ġarmy":6053,":(":6054,"Ptr":6055,"ĠTHE":6056,"Document":6057,"Ġshared":6058,"Ġfunctions":6059,"Results":6060,"SH":6061,"lines":6062,"Ġsingles":6063,"images":6064,"space":6065,"{{":6066,"onic":6067,"Ġmostly":6068,"Ġunivers":6069,"1963":6070,"Ġflag":6071,"Ġseparate":6072,"uts":6073,"Ġdemonstr":6074,"pool":6075,"ĠScotland":6076,"Ġpoor":6077,"ART":6078,"ĠBow":6079,"ĠPacific":6080,"groupId":6081,"Async":6082,"burgh":6083,"Ġspread":6084,"ĠWilliams":6085,"Ġcorn":6086,"Ġinfo":6087,"Car":6088,"ĠPubl":6089,"IF":6090,"ĠAsian":6091,"Ġmis":6092,"clear":6093,"INT":6094,"ela":6095,"stone":6096,"ĠEarth":6097,"Option":6098,"omic":6099,"isters":6100,"ĠCro":6101,"Ġsens":6102,"ĠException":6103,"Ġapi":6104,"ĠSand":6105,"Dep":6106,"Ġreligious":6107,"Ġmut":6108,"AND":6109,"1962":6110,"Ġdraft":6111,"Ġsal":6112,"Ġcounter":6113,"anguages":6114,"Ġult":6115,"Sw":6116,"PL":6117,"ĠHa":6118,"Ġmind":6119,"Ġelections":6120,"Ġquickly":6121,"ĠBlue":6122,"gment":6123,"Ġfun":6124,"Ġsources":6125,"empty":6126,"Ġowner":6127,"Ġcitiz":6128,"izont":6129,"1944":6130,"ĠTro":6131,"Ġlearn":6132,"Ġ>=":6133,"ython":6134,"conf":6135,"=\"../../../../../../":6136,"igen":6137,"ĠOhio":6138,"fully":6139,"Ġ~":6140,"CR":6141,"Ġremaining":6142,"docs":6143,"Å¡":6144,"achus":6145,"Ġexpression":6146,"Ġchalleng":6147,"Dir":6148,"Ġoffers":6149,"ALL":6150,"Ġincome":6151,"iger":6152,"ĠCard":6153,"ĠKent":6154,"onder":6155,"Ġphysical":6156,"Ġdisease":6157,"Ġsomeone":6158,"Ġensure":6159,"Down":6160,"ĠJersey":6161,"iform":6162,"Ġcomputer":6163,"'ve":6164,"ĠSol":6165,"ĠSpecial":6166,"ĠQueen":6167,"Ġnecessary":6168,"ĠInit":6169,"rolled":6170,"Ġnine":6171,"Ġresponsible":6172,"adel":6173,"Handle":6174,"Ġsense":6175,"Ġchart":6176,"Ġnumerous":6177,"kins":6178,"Ġcarry":6179,"Ġcompared":6180,"Ġvariety":6181,"iminal":6182,"Ġcontain":6183,"gypt":6184,"tty":6185,"Ġattribute":6186,"ĠST":6187,"Ġanything":6188,"ĠUSA":6189,"Ġice":6190,"car":6191,"war":6192,"bal":6193,"ffic":6194,"Ġdespite":6195,"Ġcondition":6196,"SD":6197,"ĠSpe":6198,"endar":6199,"Ġproposed":6200,"Ġuniversity":6201,"Ġstatement":6202,"Ġleaving":6203,"rich":6204,"National":6205,"Ġstra":6206,"oped":6207,"Ġdeliv":6208,"Ġfirm":6209,"Ġofficers":6210,"bi":6211,"Ġsave":6212,"rip":6213,"hash":6214,"ingham":6215,"graph":6216,"Ä±":6217,"Ġorganizations":6218,"Ġforest":6219,"ĠPop":6220,"ĠIllinois":6221,"Session":6222,"Ġlaunch":6223,"Ġprotest":6224,"ĠIsl":6225,"Ġarguments":6226,"Ġoffered":6227,"%;":6228,"Ġotherwise":6229,"Ġtemplate":6230,"ĠGeorgia":6231,"mes":6232,"cat":6233,"Ġdim":6234,"Host":6235,"Ġframe":6236,"emp":6237,"gs":6238,"ĠTrue":6239,"abeth":6240,"itage":6241,"stylesheet":6242,"ĠMiddle":6243,"Ġdemand":6244,"Ã±":6245,"Ġserve":6246,"Ġmatter":6247,"cean":6248,"ĠWild":6249,"Ġsimply":6250,"copy":6251,"urban":6252,"():":6253,"Ġgas":6254,"cd":6255,"riz":6256,"Head":6257,"Ġreach":6258,"Ġmoment":6259,"Ġelectric":6260,"Ġiniti":6261,"Ġimmediately":6262,"Ġxml":6263,"lad":6264,"ensity":6265,"Ġlaws":6266,"ipal":6267,"las":6268,"Ġbass":6269,"andemic":6270,"ĠFrancisco":6271,"second":6272,"ixture":6273,"iy":6274,"uries":6275,"Ñĥ":6276,"ayers":6277,"ĠRam":6278,"aws":6279,"atalog":6280,"Ġsister":6281,"ipment":6282,"Ġer":6283,"ĠRo":6284,"ĠName":6285,"Ġhar":6286,"cribe":6287,"Ġmur":6288,"Ġnation":6289,"PP":6290,"ĠDate":6291,"Font":6292,"fri":6293,"Ġleaders":6294,"Ġfle":6295,"exp":6296,"Kind":6297,"PECT":6298,"Properties":6299,"ĠJewish":6300,"ications":6301,"ĠPhilipp":6302,"achusetts":6303,"UB":6304,"ĠTheir":6305,"Ġsusp":6306,"ĠAlb":6307,"ACK":6308,"Ġcolon":6309,"ugins":6310,"Match":6311,"ĠFI":6312,"Ġpil":6313,"COLOR":6314,"Ġsafety":6315,"Ġreports":6316,"1961":6317,"Ġcalls":6318,"ĠCorpor":6319,"aste":6320,"ORD":6321,"pret":6322,"Ġhistorical":6323,"Ġrat":6324,"bootstrap":6325,"Ġmanaged":6326,"reedom":6327,"ĠTrump":6328,"ova":6329,"ursor":6330,"ĠHead":6331,"ĠTheatre":6332,"Sign":6333,"Ġserious":6334,"PR":6335,"Ġheavy":6336,"etime":6337,"Ġinitially":6338,"phy":6339,"ncy":6340,"Ġcities":6341,"ĠBoston":6342,"Ġbegin":6343,"Ġtests":6344,"ĠEdward":6345,"Ġnet":6346,"igration":6347,"Ġpsych":6348,"ĠDutch":6349,"Ġcook":6350,"itness":6351,"ancing":6352,"spect":6353,"ĠCoast":6354,"Ġactors":6355,"Ġfamous":6356,"Ġmoving":6357,"72":6358,"ĠLab":6359,"Ġequal":6360,"Integer":6361,"rance":6362,"enant":6363,"Ġoil":6364,"Ġfootballer":6365,"ĠHor":6366,"ydro":6367,"border":6368,"ipped":6369,"Ġclaimed":6370,"writer":6371,"Ġstudied":6372,"foo":6373,"Ġrecording":6374,"Ġrestrict":6375,"Ġgoes":6376,"legal":6377,"Ġcouple":6378,"Ġknowledge":6379,"Cons":6380,"Ġunknown":6381,"Ġways":6382,"oggle":6383,"Ġclasses":6384,"kind":6385,"STR":6386,"rib":6387,"ominated":6388,"Ġ\"\\":6389,"obuf":6390,"tab":6391,"?:":6392,"del":6393,"Ġpoll":6394,"ĠSenate":6395,"Will":6396,"ĠHand":6397,"ĠPortug":6398,"1942":6399,"icted":6400,"Ġauth":6401,"Impl":6402,"aret":6403,"Ġshall":6404,"Ġbrief":6405,"Ġimpro":6406,"ĠOk":6407,"Ġwild":6408,"Ġstreng":6409,"Ġparties":6410,"ĠRepresent":6411,"Ġeverything":6412,"ĠPolice":6413,"ecause":6414,"wer":6415,"step":6416,"Ġserving":6417,"Core":6418,"Brit":6419,"Ġhighly":6420,"Names":6421,"Helper":6422,"Ġeval":6423,"ä¸":6424,"Ġfully":6425,"Ġattention":6426,"watch":6427,"white":6428,"91":6429,"Ġmill":6430,"Ġ$(":6431,"ĠEp":6432,"ĠVan":6433,"Ġroll":6434,"amin":6435,"Di":6436,"DIR":6437,"1956":6438,"Ġsquad":6439,"iful":6440,"Ġgiving":6441,"ĠJac":6442,"reference":6443,"SL":6444,"ĠHospital":6445,"Ġwestern":6446,"Ġpoliticians":6447,"Ġadult":6448,"CTION":6449,"Ġcreating":6450,"Sports":6451,"Ġcouncil":6452,"ĠUnivers":6453,"1958":6454,"modal":6455,"Ġadopt":6456,"Ġinform":6457,"Ġfeat":6458,"Cal":6459,"ĠSecretary":6460,"wa":6461,"Ġcomedy":6462,"Ġrespond":6463,"Ġgirl":6464,"internal":6465,"Ġseems":6466,"Ġguest":6467,"Ġquite":6468,"Store":6469,"Ġfelt":6470,"onia":6471,"ĠOtt":6472,"olume":6473,"send":6474,"ulti":6475,"izontal":6476,"direct":6477,"Ġbasis":6478,"Ġgreater":6479,"76":6480,"bass":6481,"values":6482,"ĠBh":6483,"Ġmeasure":6484,"illy":6485,"Ġpull":6486,"Ġprice":6487,"Ġcapacity":6488,"Ġconflict":6489,"ĠLim":6490,"vm":6491,"ĠAlso":6492,"Reference":6493,"Ġsites":6494,"Ġcat":6495,"lem":6496,"edd":6497,"Ġhash":6498,"1959":6499,"Ġtoken":6500,"Ġinfluence":6501,"Ġdistance":6502,"ucky":6503,"ĠFire":6504,"delete":6505,"Ġmicro":6506,"umed":6507,"access":6508,"Ġproduce":6509,"Long":6510,"Ġships":6511,"ĠPoland":6512,"Ġcontaining":6513,"ĠBor":6514,"1948":6515,"ansion":6516,"Serial":6517,"weet":6518,"Bi":6519,"cp":6520,"ji":6521,"Ġdou":6522,"AF":6523,"ĠPrince":6524,"models":6525,"Ġsche":6526,"aby":6527,"Ġbal":6528,"eller":6529,"onto":6530,"ĠNight":6531,"ĉĠ":6532,"Ġconfiguration":6533,"enes":6534,"ĠWay":6535,"apse":6536,"World":6537,"ĠJr":6538,"ez":6539,"=\"_":6540,"rb":6541,"ĠKong":6542,"Ġargument":6543,"According":6544,"Ġtransfer":6545,"'ll":6546,"Ġrender":6547,")\"":6548,"arters":6549,"Ġcandidate":6550,"Ġgun":6551,"ighter":6552,"1939":6553,"Mem":6554,"ername":6555,"inent":6556,"Ġslow":6557,"standing":6558,"82":6559,"Ġcarried":6560,"ĠGra":6561,"ĠTechnology":6562,"una":6563,"global":6564,"ĠGovernor":6565,"ĠWater":6566,"ĠMassachusetts":6567,"Ġsettlement":6568,"ĠJes":6569,"iling":6570,"Ġcovered":6571,"ĠStan":6572,"estamp":6573,"aped":6574,"chester":6575,"Ġgets":6576,"EM":6577,"icks":6578,"cher":6579,"Ġmaximum":6580,"Ġregional":6581,"onym":6582,"================================":6583,"Ġq":6584,"ĠCreek":6585,"uly":6586,"Ġefforts":6587,"Ġfeed":6588,"icons":6589,"Ġclubs":6590,"ĠMath":6591,"types":6592,"Ġconcert":6593,"Ġdiss":6594,"scale":6595,"ĠMid":6596,"Ġvan":6597,"make":6598,"ito":6599,"Ġissued":6600,"_;":6601,"ÅĤ":6602,"Ġsales":6603,"ĠSports":6604,"Ġthread":6605,"ORT":6606,"ĠPoint":6607,"Ġclimate":6608,"osed":6609,"ĠSea":6610,"Ġtracks":6611,"Ġcultural":6612,"ĠEastern":6613,"ĠUN":6614,"oder":6615,"Ġgenus":6616,"DF":6617,"Ġextended":6618,"related":6619,"Ġagreed":6620,"1957":6621,"osis":6622,"mir":6623,"Ġdatabase":6624,"ĠCON":6625,"Ġencour":6626,"ĠMethod":6627,"92":6628,"Ġ['":6629,"iny":6630,"1943":6631,"ĠJoe":6632,"Ġnamespace":6633,"enger":6634,"Ġcancer":6635,"NavBar":6636,"bind":6637,"join":6638,"DA":6639,"Device":6640,"Ġprofessor":6641,"ĠWall":6642,"olute":6643,"frame":6644,"ione":6645,"Ġexact":6646,"Ġresidents":6647,"Ġblood":6648,"Template":6649,"(:":6650,"ĠAndrew":6651,"occer":6652,"ĠMany":6653,"ĠLatin":6654,"1941":6655,"Ġretired":6656,"env":6657,"ouri":6658,"EC":6659,"mann":6660,"Ġsucceed":6661,"Ġblue":6662,"Ġvolume":6663,"Ġdistribution":6664,"oms":6665,"usion":6666,"ĠHuman":6667,"Ġbecomes":6668,"ĠBG":6669,"SO":6670,"Ġcharge":6671,"sv":6672,"ester":6673,"Left":6674,"La":6675,"di":6676,"ĠFace":6677,"1946":6678,"vas":6679,"Ġoperated":6680,"Ġmixed":6681,"interface":6682,"ĠÅ":6683,"Ġlatest":6684,"Ġlearning":6685,"ĠScottish":6686,"ĠSunday":6687,"84":6688,"Ġgives":6689,"click":6690,"Ġflow":6691,"math":6692,"Dem":6693,"Ġrevealed":6694,"high":6695,"94":6696,"toString":6697,"ĠFar":6698,"ĠStand":6699,"ĠOur":6700,"Ġfigure":6701,"ĠInf":6702,"ĠLittle":6703,"ERROR":6704,"ĠBang":6705,"heduled":6706,"present":6707,"ĠCommunity":6708,"yg":6709,"ĠBroad":6710,"ĠMu":6711,"Ġreferred":6712,"widget":6713,"OK":6714,"orship":6715,"Order":6716,"Ġyouth":6717,"cr":6718,".$":6719,"leted":6720,"Ġphotograph":6721,"Ġmuseum":6722,"Use":6723,"ĠOxford":6724,"Menu":6725,"Ġweap":6726,"ilation":6727,"Ġshape":6728,"Ġjav":6729,"Mark":6730,"Ġpackage":6731,"Non":6732,"Ġproviding":6733,"ulpt":6734,"Ġfort":6735,"iser":6736,"Del":6737,"ĠMajor":6738,"Ġadministration":6739,"Ġsettings":6740,"Iter":6741,"Ġprec":6742,"Ġpandemic":6743,"Ġhands":6744,"1955":6745,"Ġextension":6746,"mail":6747,"Ġdistributed":6748,"agers":6749,"ĠColumbia":6750,"ĠJackson":6751,"ocation":6752,"Ġang":6753,"Ġexecutive":6754,"ĠVis":6755,"aming":6756,"byte":6757,"Ġbelieved":6758,"bot":6759,"Red":6760,"riday":6761,"Ġwear":6762,"Ġcontainer":6763,"ĠBern":6764,"Ġfans":6765,"ĠEXPECT":6766,"bro":6767,"handle":6768,"umes":6769,"ĠAff":6770,"Parameters":6771,"Ġdriver":6772,"fn":6773,"93":6774,"pan":6775,"antry":6776,"Ġpp":6777,"illing":6778,"ĠKen":6779,"Schema":6780,"ĠServices":6781,"iec":6782,"\"|":6783,"teen":6784,"Ġrot":6785,"ĠWis":6786,"United":6787,"ĠElect":6788,"ĠEgypt":6789,"Ġfollows":6790,"Ġsituation":6791,"anges":6792,"which":6793,"address":6794,"Ġli":6795,"prise":6796,"gorith":6797,"ĠPower":6798,"Ġpersonnel":6799,"Invalid":6800,"Ġupper":6801,"ologist":6802,"iki":6803,"Has":6804,"eler":6805,"ĠJean":6806,"uous":6807,"Ġactions":6808,"media":6809,"Ġtrial":6810,"aylor":6811,"May":6812,"Title":6813,"Ġsmaller":6814,"Argument":6815,"while":6816,"1952":6817,"Ã£":6818,"DD":6819,"ĠDaniel":6820,"Ġpurpose":6821,"1947":6822,"shall":6823,"equal":6824,"angle":6825,"Assert":6826,"construct":6827,"XX":6828,"Ġstock":6829,"aks":6830,"ĠCommon":6831,"Ġthous":6832,"Ġacquired":6833,"Ġecho":6834,"Ob":6835,"ĠPass":6836,"Ġearned":6837,"Ġcritical":6838,"izabeth":6839,"Sk":6840,"equals":6841,"uilt":6842,"ĠJon":6843,"nap":6844,"ĠAL":6845,"ĠJustice":6846,"ĠErr":6847,"session":6848,"ĠGL":6849,"iced":6850,"anks":6851,"Ġcore":6852,"hs":6853,"ĠBrook":6854,"Ġfre":6855,"Ġmarriage":6856,"ometry":6857,"structure":6858,"command":6859,"xis":6860,"Ġpriv":6861,"ĠĠĠĠĠĠĠĠĠĠĠĠĠĠĠĠĠĠĠĠĠĠĠĠĠĠĠĠĠĠĠĠĠĠĠĠĠĠĠ":6862,"ologies":6863,"ĠEnt":6864,"non":6865,"Ġawards":6866,"Ġparse":6867,"ishes":6868,"ĠManagement":6869,"Ġtell":6870,"Ġdepart":6871,"Vector":6872,"(*":6873,"ĠRepublican":6874,"yo":6875,"Ġlatter":6876,"Ġhope":6877,"Ġbranch":6878,"ibli":6879,"Ġwinner":6880,"spe":6881,"'],":6882,"Ġbillion":6883,"ĠKorea":6884,"ĠAlexander":6885,"ĠFree":6886,"hover":6887,"urday":6888,"store":6889,"ĠRailway":6890,"Ġbottom":6891,"ĠPlaces":6892,"Ġemail":6893,"ĠLo":6894,"False":6895,"ĠWeek":6896,"ĠBack":6897,"render":6898,"ĉĉĊ":6899,"ashion":6900,"Background":6901,"Ġrelative":6902,"Ġcompar":6903,"example":6904,"Ġstrugg":6905,"Xml":6906,"ĠJeff":6907,"Ġtrust":6908,"clusion":6909,"Ġple":6910,"under":6911,"ydney":6912,"Ġfilename":6913,"cient":6914,"Ġconstant":6915,"Ġneighbor":6916,"Ġquestions":6917,"Ġfair":6918,"Ġshop":6919,"Ġfailure":6920,"British":6921,"plugin":6922,"WE":6923,"vant":6924,"1954":6925,"Ġdrive":6926,"Bytes":6927,"Policy":6928,"claim":6929,"Ġhouses":6930,"ĠStation":6931,"orporated":6932,"GET":6933,"Ġhundred":6934,"Ġhockey":6935,"outheast":6936,"aked":6937,"ĠDown":6938,"Ġmurder":6939,"yntax":6940,"Ø§":6941,"ĠHong":6942,"Ver":6943,"Ġdiscovered":6944,"secut":6945,"Tra":6946,"83":6947,"ĠVictoria":6948,"Ġfloor":6949,"urance":6950,"gest":6951,"innes":6952,"Ġapply":6953,"nic":6954,"odies":6955,"Ġprofile":6956,"Draw":6957,"ĠBelg":6958,"Ġcache":6959,"Render":6960,"aught":6961,"Ġdelete":6962,"Definition":6963,">();":6964,"Ġequipment":6965,"Parent":6966,"Ġpet":6967,"Ġpressure":6968,"Public":6969,"rim":6970,"Metadata":6971,"rix":6972,"Cast":6973,"ĠIslands":6974,"thur":6975,"Ġbyte":6976,"ĠHung":6977,"Ġpair":6978,"ATA":6979,"obs":6980,"ĠOrgan":6981,"ĠSte":6982,"Ġsport":6983,"1953":6984,"Ġeveryone":6985,"ĠWin":6986,"Ġisn":6987,"Ġgrowing":6988,"ĠDar":6989,"ĠAk":6990,"fields":6991,"74":6992,"Ġofficials":6993,"Ġepisodes":6994,"ĠTw":6995,"Ġattend":6996,"ĠRay":6997,"ĠBerlin":6998,"Reader":6999,"Doc":7000,"elligence":7001,"Ġimages":7002,"Rect":7003,"Ġfish":7004,"Ġundefined":7005,"Ġapplied":7006,"ĠOb":7007,"Ġbridge":7008,"Ġoperating":7009,"ederation":7010,"Ġintended":7011,"ĠCollection":7012,"Ġstars":7013,"Ġ('":7014,"Ġpages":7015,"Ġtheme":7016,"Ġsupply":7017,"Ġpurs":7018,"panel":7019,"PRE":7020,"settings":7021,"Args":7022,"phia":7023,"Cre":7024,"81":7025,"Ġtesting":7026,"ĠUse":7027,"anning":7028,"ĠPres":7029,"uy":7030,"pa":7031,"1949":7032,"Ġpaid":7033,"Ġpresence":7034,"Ġrac":7035,"Ġstorage":7036,"Ġexam":7037,"Ġheader":7038,"udget":7039,"atically":7040,"Ġfellow":7041,"ĠThen":7042,"Disc":7043,"oned":7044,"connect":7045,"Ġmaterials":7046,"Ġflight":7047,"udio":7048,"Ġconsists":7049,"webkit":7050,"ĠLight":7051,"Ġproper":7052,"innesota":7053,"Const":7054,"ĠFederal":7055,"Tool":7056,"orph":7057,"ĠFour":7058,"ifications":7059,"rovers":7060,"Ġsplit":7061,"itical":7062,"Parser":7063,"TA":7064,"MD":7065,"chor":7066,"ounce":7067,"255":7068,"Ġven":7069,"Ġ})":7070,"urer":7071,"Ġbey":7072,"replace":7073,"Ġclaims":7074,"EQ":7075,"vard":7076,"Ġmachine":7077,"Found":7078,"ancer":7079,"Ġcompletely":7080,"kg":7081,"Ġbasic":7082,"Ġos":7083,"athan":7084,"ĠSciences":7085,"Ġcreation":7086,"osa":7087,"ennes":7088,"coll":7089,"ĠChris":7090,"ĠRog":7091,"Ġopportunity":7092,"cf":7093,"ĠBGCOLOR":7094,"estic":7095,"Ġrare":7096,"ĠAsh":7097,"ulf":7098,"Ġarrived":7099,"enter":7100,"disabled":7101,"ĠTam":7102,"eta":7103,"master":7104,"Ġconference":7105,"Ġcars":7106,"RC":7107,"free":7108,"req":7109,"Ġeasy":7110,"79":7111,"ĠCapt":7112,"Select":7113,"Ġconducted":7114,"pg":7115,"ĠPrime":7116,"export":7117,"footer":7118,"Stack":7119,"ints":7120,"ĠLi":7121,"adelphia":7122,"Ġspirit":7123,"71":7124,"ĠEvent":7125,"Ġunsigned":7126,"ĠMuslim":7127,"tn":7128,"Ġclin":7129,"Ġcrew":7130,"Ġfinish":7131,"transform":7132,"ĠBoth":7133,"Ġtransaction":7134,"ĠIO":7135,"Ã¡n":7136,"Ġdedicated":7137,"Ġiter":7138,"rast":7139,"Ġstreet":7140,"ĠOfficial":7141,"ĠHere":7142,"mode":7143,"oir":7144,"shot":7145,"West":7146,"ĠMedical":7147,"Ġbeyond":7148,"Ġeffective":7149,"dict":7150,"xx":7151,"Ġmainly":7152,"isf":7153,"stein":7154,"Ġagreement":7155,"ĠMir":7156,"ĠBBC":7157,"Ġcompeted":7158,"###":7159,"andra":7160,"pute":7161,"ĠSom":7162,"gers":7163,"Ġsubsequently":7164,"rees":7165,"Dom":7166,"While":7167,"Ġmix":7168,"Ġdesc":7169,"Ġmiles":7170,"Ġshowed":7171,"150":7172,"double":7173,"73":7174,"dist":7175,">.":7176,"ĠWalk":7177,"ĠBra":7178,"ĠCat":7179,"Ġworth":7180,"ĠCorps":7181,"ATH":7182,"Ġtherefore":7183,"oes":7184,"Ġconfirmed":7185,"1951":7186,"haps":7187,"uclear":7188,"ĠMike":7189,"Ġarticles":7190,"%)":7191,"Ġbeat":7192,"Api":7193,"agnost":7194,"ĠModel":7195,"Ġcomposed":7196,"eld":7197,"ruth":7198,"Ġfrag":7199,"Ġcycl":7200,"sen":7201,"Ġaccepted":7202,"Ġillust":7203,"Application":7204,"Ġalongside":7205,"ĠBad":7206,"Ġmorning":7207,"Ġpeace":7208,"Icon":7209,"asure":7210,"Ġacademic":7211,"ĠIndust":7212,"erg":7213,"ĠHarris":7214,"ĠInformation":7215,"Ġbehavior":7216,"Ġancient":7217,"Ġalone":7218,"ĠGlobal":7219,"ĠPolish":7220,"Austral":7221,"grade":7222,"ntario":7223,"ribution":7224,"ĠEst":7225,"Ġbytes":7226,"Ġrestaur":7227,"Ġec":7228,"virt":7229,"Ġbaseball":7230,"Ġoccurred":7231,"olver":7232,"ĠRod":7233,"ĠCommand":7234,"Ð°Ð":7235,"Ġwrong":7236,"Ġexperiment":7237,"Ġwall":7238,"Ġmagn":7239,"ĠSupreme":7240,"Ġoperator":7241,"ĠView":7242,"WS":7243,"University":7244,"Ġplants":7245,"Further":7246,"Values":7247,"ĠVill":7248,"othing":7249,"ricts":7250,"unte":7251,"unct":7252,"sets":7253,"ographic":7254,"Ġboy":7255,"'>":7256,"ĠBell":7257,"Body":7258,"ĠColl":7259,"Ġappearances":7260,"Ġfacilities":7261,"ĠĠĠĠĠĠĠĠĠĠĠĠĠĠĠĠĠĠĠĠ":7262,"ĠTem":7263,"Ġpra":7264,"ĠProfessor":7265,"poses":7266,"Ġtried":7267,"Ġidentified":7268,"1936":7269,"plies":7270,"je":7271,"pton":7272,"ĠKenn":7273,"ĠChristmas":7274,"GE":7275,"Ġvon":7276,"zech":7277,"Dist":7278,"Ġversions":7279,"phone":7280,"Ġcontinues":7281,"Boolean":7282,"ropol":7283,"ĠIl":7284,"Ġassess":7285,"ĠOlympic":7286,"ĠPers":7287,"Music":7288,"Ġsust":7289,"ĠArgent":7290,"lyn":7291,"oves":7292,"Ġicon":7293,"Ġinher":7294,"ĠRegion":7295,"protobuf":7296,"Ã¢":7297,"ĠViet":7298,"Ġarchitecture":7299,"Ġcategory":7300,"Ġfeaturing":7301,"ĠSa":7302,"Ġathlet":7303,"ĠWed":7304,"Ġmetal":7305,"Ġvariable":7306,"cest":7307,"Ġdamage":7308,"ĠDC":7309,"Ġeastern":7310,"Ġjoint":7311,"ĠDesign":7312,"ĠGuard":7313,"exports":7314,"-->":7315,"ĠAirport":7316,"ooks":7317,"---":7318,";->":7319,"names":7320,"Ġassigned":7321,"actor":7322,"amber":7323,"Sm":7324,"padding":7325,"Ġfifth":7326,"Var":7327,"ĠCa":7328,"ects":7329,"Ġdog":7330,"ĠSu":7331,"Ġconnected":7332,"coin":7333,"Ġpositions":7334,"Ġserial":7335,"ĠBol":7336,"ĠAN":7337,"acks":7338,"ĠBrad":7339,"Ġleadership":7340,"Ġdeploy":7341,"Ġsexual":7342,"ĠLew":7343,"ĠHy":7344,"Ġspring":7345,"ĠSecurity":7346,"`.":7347,"vector":7348,"Ġnote":7349,"Debug":7350,"Ġlisting":7351,"rical":7352,"callback":7353,"Ġlanguages":7354,"ĠWilson":7355,"Ġdirectory":7356,"rt":7357,"Ġmunicipality":7358,"Ġtroops":7359,"ifies":7360,"Ġconcent":7361,"ĠCorn":7362,"ieut":7363,"Ġhonor":7364,"ĠOs":7365,"dependency":7366,"ĠLater":7367,"Ġkept":7368,"Ġpod":7369,"ĠSydney":7370,"inity":7371,"cluded":7372,"water":7373,"iat":7374,"Ġ),":7375,"Ġcombined":7376,"utt":7377,"Ã£o":7378,"bourne":7379,"Decl":7380,"Ġdescent":7381,"Main":7382,"Ġpiece":7383,"TEST":7384,"ĠCorporation":7385,"Meta":7386,"osen":7387,"ĠCode":7388,"Writer":7389,"ĠSant":7390,"----------------------------------------------------------------":7391,"component":7392,"&#":7393,"ĠFamily":7394,"1918":7395,"ĠRaj":7396,"oster":7397,"rub":7398,"Ġinline":7399,"ĠBa":7400,"ĠassertEquals":7401,"ĠPen":7402,"Ġcitizens":7403,"blockList":7404,"ĠJSON":7405,"Ġsilver":7406,"Ġbutton":7407,"anth":7408,"Ġsafe":7409,"Some":7410,".'":7411,"Ġrespectively":7412,"Click":7413,"ga":7414,"sky":7415,"Ġleaves":7416,"Ġnearby":7417,"Ġimprove":7418,"romise":7419,"ruit":7420,"Ġreform":7421,"pet":7422,"Ġattract":7423,"custom":7424,"Ġpolic":7425,"ĠPrize":7426,"Ã¸":7427,"Ġpal":7428,"Ġdance":7429,"ĠRom":7430,"URE":7431,"Ġdaily":7432,"Ġnom":7433,"conn":7434,"etherlands":7435,"1938":7436,"Ġprovince":7437,"Root":7438,"risis":7439,"Second":7440,")]":7441,"Ġnewspaper":7442,"ĠRet":7443,"ategy":7444,"!!":7445,"ĠKorean":7446,"Ġlabor":7447,"HP":7448,"Ġassistant":7449,"ĠDisc":7450,"ORM":7451,"Ġdat":7452,"Ġsumm":7453,"Me":7454,"Ġplanned":7455,"ĠSus":7456,"Ġaspect":7457,"ĠElizabeth":7458,"Runtime":7459,"Rule":7460,"Ġheard":7461,"Ġcalling":7462,"owa":7463,"ĠStudies":7464,"rine":7465,"install":7466,"framework":7467,"SET":7468,"Ġpartner":7469,"Ġnotes":7470,"ilton":7471,"Ġslight":7472,"ĠStat":7473,"urrency":7474,"rawn":7475,"ĠAuthor":7476,"Ġbuy":7477,"life":7478,"vin":7479,"ĠToronto":7480,"Ġreviews":7481,"Final":7482,"ependence":7483,"Ġmotor":7484,"ello":7485,"Ġrandom":7486,"Ġutil":7487,"inate":7488,"Ġsurvey":7489,"annels":7490,"Ġapplications":7491,"ĠThree":7492,";<":7493,"ĠExt":7494,"Classes":7495,"ami":7496,"ĠMaster":7497,"rat":7498,"aph":7499,"Ret":7500,"ori":7501,"zen":7502,"DC":7503,"hemat":7504,"Ġmentioned":7505,"awn":7506,"look":7507,"ertificate":7508,"Rad":7509,"Ġbill":7510,"Ġimplementation":7511,"rence":7512,"Custom":7513,"ĠBon":7514,"Ġordered":7515,"chestra":7516,"Ġreject":7517,"Ġpromoted":7518,"Ġadvert":7519,"Association":7520,"Ġpool":7521,"boolean":7522,"Ġhy":7523,"raine":7524,"focus":7525,"consin":7526,"ĠMond":7527,"ignment":7528,"ĠPakistan":7529,"Enabled":7530,"ears":7531,"holder":7532,"ĠCopy":7533,"ĠAli":7534,"akh":7535,"ĠMinistry":7536,"ĠArm":7537,"Ġchain":7538,"CI":7539,"idi":7540,"sql":7541,"clusive":7542,"ĠBal":7543,"ĠTy":7544,"ĠAvenue":7545,"Ġprimarily":7546,"Ġaim":7547,"Ġbelong":7548,"Byte":7549,"ronze":7550,"DS":7551,"Ġminister":7552,"argument":7553,"eries":7554,"ECT":7555,"Media":7556,"scape":7557,"ĠIP":7558,"Ġtradition":7559,"uls":7560,"SION":7561,"Ġ'/":7562,"Ġcorpor":7563,"note":7564,"Ġinstalled":7565,"Personal":7566,"Ġgenerated":7567,"ĠLy":7568,"Each":7569,"Ġcontest":7570,"Ġsquare":7571,"Ġperfect":7572,"Ġstraight":7573,"miss":7574,"ynchron":7575,"CS":7576,"Ġut":7577,"Delete":7578,"Step":7579,"Ġtal":7580,"oured":7581,"ĠTok":7582,"ĠLO":7583,"Ġroles":7584,"Ġones":7585,"ervative":7586,"Ġrural":7587,"family":7588,"Ġtransferred":7589,"1937":7590,"ĠBand":7591,"ĠNOT":7592,"=\"/":7593,"DL":7594,"Only":7595,"ITY":7596,"South":7597,"cert":7598,"record":7599,"kee":7600,"Ġgrew":7601,"Ġwinners":7602,"Ġseconds":7603,"ieces":7604,"ĠEach":7605,"ĠPage":7606,"ĠAdminist":7607,"ĠOntario":7608,"stack":7609,"IR":7610,"ĠKim":7611,"inson":7612,"Ġliterature":7613,"Ġagent":7614,"FAULT":7615,"ĠMic":7616,"ĠMember":7617,"ĠĠĠĠĠĠĊ":7618,"Ġassociation":7619,"Fields":7620,"ĠValue":7621,"ango":7622,"bound":7623,"Ġcrime":7624,"ĠMinnesota":7625,"Ġcommit":7626,"International":7627,"Right":7628,"weg":7629,"icer":7630,"Ġeconomy":7631,"ceived":7632,"CP":7633,"parameter":7634,"ĠNO":7635,"ictures":7636,"Ġera":7637,"ĠText":7638,"Ġgeneration":7639,"toggle":7640,"ĠHTML":7641,"edit":7642,"ĠQueens":7643,"stop":7644,"Ġfeet":7645,"Ġedge":7646,"Ġconstructed":7647,"iable":7648,"ĠčĊ":7649,"Ġemployees":7650,"Before":7651,"Ġmountain":7652,"raq":7653,"product":7654,"Ġsoldiers":7655,"iate":7656,"apped":7657,"}\"":7658,"ĠFriday":7659,"iques":7660,"ĠSym":7661,"jar":7662,"cm":7663,"Ġpremi":7664,"Ġexchange":7665,"Ġbul":7666,"aga":7667,"Ġtypically":7668,"ĠOnly":7669,"High":7670,"icket":7671,"Ġliber":7672,"Ġvehicle":7673,"Ġenem":7674,"Ġinh":7675,"ĠRen":7676,"Ġhop":7677,"anna":7678,"Ġpolitics":7679,"rig":7680,"Ġspect":7681,"Ġreduced":7682,"aver":7683,"Ġexpatriate":7684,"keys":7685,"ĠSong":7686,"ante":7687,"ĠMarg":7688,"Ġsuit":7689,"Descriptor":7690,"Ġidentity":7691,"organ":7692,"peror":7693,"plex":7694,"ieutenant":7695,"insert":7696,"Ġchoice":7697,"ĠRome":7698,"hew":7699,"Ġtells":7700,"heim":7701,"Ġmsg":7702,"Ġinstitutions":7703,"Ġaudience":7704,"ĠUser":7705,"Ġviews":7706,"aration":7707,"ortheast":7708,"His":7709,"Ġprotection":7710,"ategories":7711,"abilities":7712,"Ġresulting":7713,"Storage":7714,"Ġfell":7715,"Ġlif":7716,"lyph":7717,"ĠCub":7718,"Ġmeant":7719,"admin":7720,"ego":7721,"kes":7722,"ĠSanta":7723,"ACE":7724,"Ġelim":7725,"ĠWindows":7726,"sex":7727,"bas":7728,"Dialog":7729,"ĠFair":7730,"Ġrom":7731,"ĠHind":7732,"buf":7733,"ipeline":7734,"Ġdeclared":7735,"ĠNic":7736,"application":7737,"Ġbomb":7738,"Ġregister":7739,"ĠRevolution":7740,"ĠAnton":7741,"Ñı":7742,"Ġharm":7743,"Ġappropri":7744,"Ġil":7745,"à¸":7746,"Ġdig":7747,"Ġtraffic":7748,"Ġgraduated":7749,"LS":7750,"Ġsolution":7751,"fr":7752,"aren":7753,"ĠDO":7754,"Ġhousing":7755,"ported":7756,"Ġreduce":7757,"Ġprem":7758,"ĠURL":7759,"Ġestimated":7760,"ĠCirc":7761,"oor":7762,"ĠVen":7763,"Ġsolo":7764,"ĠTaylor":7765,"agram":7766,"General":7767,"Ġsculpt":7768,"ĠLive":7769,"lan":7770,"ĠNations":7771,"ĠAnth":7772,"Nov":7773,"Ġearth":7774,"ĠSaturday":7775,"ĠDer":7776,"cover":7777,"sim":7778,"Ġdifference":7779,"plement":7780,"ĠAz":7781,"Ġinjury":7782,"ropical":7783,"eful":7784,"Ġ++":7785,"success":7786,"ĠPlan":7787,"resents":7788,"fly":7789,"Ġfactory":7790,"ĠCambridge":7791,"Ġready":7792,"Best":7793,"Video":7794,"Ġanimals":7795,"alid":7796,"yard":7797,"ooth":7798,"Ġdrop":7799,"ourney":7800,"enna":7801,"ĠBeach":7802,"Ġchampion":7803,"ĠPremier":7804,"grid":7805,"Ġsequence":7806,"Ġpush":7807,"WA":7808,"rot":7809,"ĠGh":7810,"Ġhistoric":7811,"ĠNY":7812,"sel":7813,"Ġrout":7814,"auto":7815,"120":7816,"ĠFre":7817,"Ġjson":7818,"Ġofficially":7819,"going":7820,"Vari":7821,"1935":7822,"Ġast":7823,"Ġchance":7824,"ocated":7825,"ĠEs":7826,"Ã©e":7827,"ĠFox":7828,"ĠFacebook":7829,"Ġ<=":7830,"orney":7831,"Ġrank":7832,"ĠForest":7833,"Ġreflect":7834,"Ġinnov":7835,"itled":7836,"regon":7837,"Mock":7838,"Ġquant":7839,"Ġteacher":7840,"ĠPhiladelphia":7841,"adoop":7842,"ĠEll":7843,"Ġremember":7844,"Ġstrict":7845,"Ġreasons":7846,"eman":7847,"oted":7848,"Ġtitles":7849,"ĠĠĠĠĠĠĠĠĠĠĠĠĠĠĠĠĠĠ":7850,"spring":7851,"Net":7852,"posite":7853,"1919":7854,"gency":7855,"Ġperman":7856,"Ġcoordin":7857,"ĠUt":7858,"Ġagric":7859,"Ġadministrative":7860,"ĠAre":7861,"worth":7862,"ĠNC":7863,"elly":7864,"Ġpitch":7865,"Ġemb":7866,"Ġconsult":7867,"Ġtransition":7868,"quarters":7869,"Ġallowing":7870,"ĠAM":7871,"adian":7872,"Ġdownload":7873,"rizona":7874,"virtual":7875,"full":7876,"__(":7877,"ĠEth":7878,"Graph":7879,"season":7880,"Ġsy":7881,"ĠBC":7882,"ĠMcC":7883,"Ġpan":7884,"Ġlies":7885,"Ġbegins":7886,"ĠWars":7887,"allow":7888,"ĠLem":7889,"Ġnegative":7890,"cha":7891,"bing":7892,"ĠWell":7893,"Ġaccomp":7894,"Ġupdated":7895,"Ãº":7896,"Ġraces":7897,"AME":7898,"Ġdestroyed":7899,"Any":7900,"opher":7901,"Ġconsole":7902,"uv":7903,"items":7904,"person":7905,"perial":7906,"ĠArea":7907,"Ġrequires":7908,"BR":7909,"Ġlett":7910,"Ġahead":7911,"erver":7912,"AGE":7913,"plugins":7914,"{}":7915,"ĠAthlet":7916,"ĠLes":7917,"apore":7918,"ĠSab":7919,"ĠStadium":7920,"Ġpowerful":7921,"unsigned":7922,"Ġcref":7923,"1914":7924,"orders":7925,"âĢĿ.":7926,"ĠAR":7927,"sey":7928,"aki":7929,"Ġvisual":7930,"ĠMicrosoft":7931,"Ġsector":7932,"ika":7933,"Ġonto":7934,"Ġerrors":7935,"ĠNetherlands":7936,"email":7937,"nections":7938,"dates":7939,"Ġphone":7940,"Ġdelay":7941,"ĠSteve":7942,"Ġvotes":7943,"ĠVersion":7944,"exception":7945,"Show":7946,"Ġmusicians":7947,"cur":7948,"Ġstarts":7949,"osophy":7950,"ĠBrig":7951,"HECK":7952,"ĠWisconsin":7953,"Ġestate":7954,"ĠReal":7955,"Ġly":7956,"Ġnewly":7957,"Requ":7958,"chen":7959,"attribute":7960,"ĠWat":7961,"odd":7962,"ĠLady":7963,"Jo":7964,"Ġelev":7965,"Ġengineering":7966,"lay":7967,"aska":7968,"ĠTrust":7969,"Ġtypename":7970,"utional":7971,"Ġanyone":7972,"ĠHay":7973,"Ġexpanded":7974,"Ġtwice":7975,"SSERT":7976,"Ġresident":7977,"'))":7978,"Home":7979,"Member":7980,"mock":7981,"Arch":7982,"PT":7983,"Struct":7984,"Ġcarri":7985,"Ġstrateg":7986,"Ġcosts":7987,"uple":7988,"Ġtools":7989,"evin":7990,"operation":7991,"ĠRoute":7992,"bad":7993,"ĠRegiment":7994,"ĠSon":7995,"Play":7996,"Ġ\"/":7997,"ĠWinter":7998,"Ġcoal":7999,"ĠGro":8000,"Ġobtained":8001,"bra":8002,"Ġ\"\"":8003,"Ġwing":8004,"Ġindustrial":8005,"Ġhosted":8006,"Ġbusinesses":8007,"Windows":8008,"alo":8009,"Ġ(*":8010,"Ġcontrovers":8011,"Ġtransp":8012,"Pattern":8013,"Ġregions":8014,"Ġregistered":8015,"aug":8016,"ĠError":8017,"Ġattacks":8018,"ĠElement":8019,"More":8020,"Ġdrink":8021,"Ġ``":8022,"Gu":8023,"Ġdescribe":8024,"Ġplanning":8025,"Tests":8026,"ĠMA":8027,"âĢĺ":8028,"ais":8029,"clude":8030,"Ġexists":8031,"bec":8032,"Num":8033,"Send":8034,"Ġdoor":8035,"Ġinstrument":8036,"acle":8037,"alion":8038,"Network":8039,"ĠBatt":8040,"ĠEngineering":8041,"Timeout":8042,"reatest":8043,"yal":8044,"Ġvehicles":8045,"Ġdivided":8046,"Ġdetermine":8047,"Â°":8048,"emet":8049,"rum":8050,"Ġhour":8051,"ĠCy":8052,"Tab":8053,"ĠDam":8054,"Ġcriminal":8055,"iÃ³n":8056,"ifer":8057,"inton":8058,"Ġprogramming":8059,"Ġdistinct":8060,"Ġrapid":8061,"ĠHun":8062,"`,":8063,"1933":8064,"=\"../../../":8065,"ĠTurk":8066,"lywood":8067,"ifically":8068,"anga":8069,"ĠAh":8070,"Ġspot":8071,"Ġsuccessfully":8072,"Extension":8073,"jection":8074,"olec":8075,"600":8076,"1900":8077,"Ġsecondary":8078,"ĠCountry":8079,"Ġlicense":8080,"1934":8081,"crete":8082,"asters":8083,"Events":8084,"Since":8085,"Ġopin":8086,"phas":8087,"1917":8088,"Ġmask":8089,"'d":8090,"omer":8091,"IA":8092,"system":8093,"addr":8094,"160":8095,"Channel":8096,"Ġparticipated":8097,"ega":8098,"Ġcomponents":8099,"eral":8100,"1929":8101,"Ġconstitu":8102,"ucket":8103,"riev":8104,"Ġcustomers":8105,"ĠDuke":8106,"ĠLocal":8107,"Ġfocused":8108,"rie":8109,"ĠGolden":8110,"Ġcerem":8111,"Ident":8112,"Ġdefeat":8113,"Conn":8114,"Ġurban":8115,"Ġadvanced":8116,"ĠBooks":8117,"ĠReport":8118,"Ġeyes":8119,"ĠAND":8120,"Ġdeleg":8121,"Ġkeys":8122,"Ġgranted":8123,"cloud":8124,"Ġdefend":8125,"ĠAmazon":8126,"Ġcommittee":8127,"Ġyards":8128,"Ġpropos":8129,"Ġmock":8130,"ĠSwedish":8131,"Ġdevices":8132,"entially":8133,"Ġmarked":8134,"Ġshift":8135,"Ġauthorities":8136,"ĠAmericans":8137,"otion":8138,"ĠAbout":8139,"Changed":8140,"Ġacting":8141,"roke":8142,"Ġadvant":8143,"wegian":8144,"thread":8145,"1928":8146,"ragment":8147,"Ġadvance":8148,"\")]":8149,"Ġproceed":8150,"skip":8151,"Ġsyn":8152,"ĠBridge":8153,"Ġaffili":8154,"ĠMountain":8155,"Ġlocations":8156,"Ġfresh":8157,"otes":8158,"Ġpiano":8159,"Ġholds":8160,"}/":8161,"ĠDoug":8162,"Ġaware":8163,"ĠMedal":8164,"Ġfigures":8165,"Ġstrategy":8166,"Ġprominent":8167,"ĠKir":8168,"nergy":8169,"Ġlargely":8170,"Av":8171,"Ġmobile":8172,"Ġcaptured":8173,"VD":8174,"ennessee":8175,"1910":8176,"apy":8177,"cor":8178,"Ġimag":8179,"ĠExecut":8180,"Ġseats":8181,"Ġfine":8182,"Ġenabled":8183,"urches":8184,"Ġspons":8185,"ĠChannel":8186,"fony":8187,"Ġregarding":8188,"eless":8189,"Ġsample":8190,"cut":8191,"Ġwind":8192,"Ġrecognized":8193,"ĠTai":8194,"raction":8195,"Ġsemi":8196,"category":8197,"short":8198,"ipping":8199,"LP":8200,"Ġcommonly":8201,"password":8202,"ibliography":8203,"elle":8204,"Lock":8205,"Ġhabit":8206,"Ġreturning":8207,"Ġfounder":8208,"ĠStephen":8209,"Ġaccident":8210,"prop":8211,"Ġmunicipal":8212,"unes":8213,"aus":8214,"emetery":8215,"Pool":8216,"ĠEven":8217,"ĠMill":8218,"->_":8219,"andy":8220,"Ġextrem":8221,"Ġcontemporary":8222,"END":8223,"asty":8224,"ĠLast":8225,"ĠRon":8226,"ĠDavis":8227,"Ġscientific":8228,"NG":8229,"ĠSem":8230,"ln":8231,"apes":8232,"ĠHan":8233,"Ġsuggested":8234,"split":8235,"Queue":8236,"contin":8237,"Ġwidely":8238,"rase":8239,"1932":8240,"otic":8241,"region":8242,"annotation":8243,"Ġrenamed":8244,"ĠBudd":8245,"ĠWhe":8246,"Tele":8247,"[:":8248,"Scope":8249,"KEY":8250,"Ġcart":8251,"Ġdetermined":8252,"rastructure":8253,"JSON":8254,"Ġhers":8255,"Ġfunding":8256,"Ġdb":8257,"ĠLabor":8258,"Ġeasily":8259,"Services":8260,"wrap":8261,"Ġdecre":8262,"Ġgra":8263,"ĠBall":8264,"establ":8265,"Ġzero":8266,"ĠCEO":8267,"desc":8268,"ĠGree":8269,"Ġserves":8270,"ician":8271,"250":8272,"Ġexternal":8273,"Ġfixed":8274,"FILE":8275,"Ġfacility":8276,"iper":8277,"Ġstone":8278,"hadoop":8279,"isa":8280,"ĠLike":8281,"ĠWel":8282,"zo":8283,"osl":8284,"Ġenvironmental":8285,"Ġproced":8286,"ributed":8287,"Active":8288,"German":8289,"Ġanaly":8290,"Ġconsum":8291,"ĠDefault":8292,"ĠConf":8293,"Ġrugby":8294,"French":8295,"Ġpurchased":8296,"mad":8297,"ĠHard":8298,"Ġreceiving":8299,"Ð´":8300,"ĠNote":8301,"ods":8302,"unities":8303,"Ġinn":8304,"Ġphase":8305,"ĠSweden":8306,"register":8307,"Ġburn":8308,"ĠShort":8309,"ancel":8310,"ĠPy":8311,"ĠFalse":8312,"Ġinterpret":8313,"tainment":8314,"stitution":8315,"Ġcancell":8316,"ĠColorado":8317,"2023":8318,"Ġlosing":8319,"Rest":8320,"elegate":8321,"ĠFund":8322,"HTML":8323,"Ġhyp":8324,"Ġorganized":8325,"lean":8326,"rices":8327,"Ġhtml":8328,"ĠPolicy":8329,"HL":8330,"ĠIraq":8331,"Olymp":8332,"allel":8333,"Ġrecip":8334,"Ġcorner":8335,"800":8336,"Ġcab":8337,"ĠInternet":8338,"istent":8339,"scroll":8340,"ĠPhys":8341,"Ġnotable":8342,"Women":8343,"MI":8344,"irement":8345,"ĠPeak":8346,"cow":8347,"FT":8348,"coq":8349,".__":8350,"ĠKansas":8351,"Ġalternative":8352,"1922":8353,"Ġbow":8354,"Ġreality":8355,"Ġswim":8356,"ĠâĢ¢":8357,"Ġideas":8358,"ĠGreg":8359,"Ġunless":8360,"ĠCur":8361,"ĠTal":8362,"ĠCastle":8363,"Ġce":8364,"ĠAction":8365,"ĠStock":8366,"Ġaf":8367,"Ġdefense":8368,"Ġvisible":8369,"Ġdomain":8370,"Obj":8371,"Account":8372,"ĠFollowing":8373,"Ġadopted":8374,"ĠĠĠĠĠĠĠĠĠĠĠĠĠĠĠĠĠĠĠĠĠĠĠĠĠ":8375,"ĠOregon":8376,"Ġrepresenting":8377,"van":8378,"begin":8379,"efe":8380,"uct":8381,"Now":8382,"Ġcrow":8383,"ĠDespite":8384,"Package":8385,"Ġve":8386,"ĠMoh":8387,"Ġdocuments":8388,"inline":8389,"Feature":8390,"Ġviolence":8391,"Ġhouseholds":8392,"kh":8393,"Ġskills":8394,"Ġarts":8395,"friend":8396,"istant":8397,"dropdown":8398,"1931":8399,"plom":8400,"Ġtechnical":8401,"ĠGallery":8402,"pson":8403,"Jan":8404,"Selected":8405,"Ġpretty":8406,"material":8407,"Ġtemperature":8408,"Ġinvoke":8409,"Ġends":8410,"1924":8411,"Ġdocumentary":8412,"\",\"":8413,"1927":8414,"Ġstack":8415,"Job":8416,"dim":8417,"screen":8418,"Ġinspired":8419,"faces":8420,"Ġaband":8421,"Ġsignal":8422,"Str":8423,"ĠLet":8424,"iants":8425,"ĠConnect":8426,"Ġexperi":8427,"Ġrequirements":8428,"Äį":8429,"fire":8430,"normal":8431,"aints":8432,"UC":8433,"Editor":8434,"night":8435,"ideos":8436,"ĠIndones":8437,"Ġentity":8438,"ĠEvery":8439,"profile":8440,"Ġther":8441,"ivalent":8442,"appe":8443,"Ġinstanceof":8444,"acket":8445,"atern":8446,"ĠCas":8447,"Ġvess":8448,"pressed":8449,"ĠMissouri":8450,"Bit":8451,"@\"":8452,"ĠMarket":8453,"bre":8454,"Ġhandler":8455,"Ġfaculty":8456,"Ġfiction":8457,"Fran":8458,"Ġparish":8459,"256":8460,"edia":8461,"idel":8462,"Ġdefinition":8463,"Ġbeautiful":8464,"Ġauthority":8465,"achment":8466,"Ġlooks":8467,"cmd":8468,"Ġterritory":8469,"Ġtowns":8470,"Ġsuffered":8471,"JECT":8472,"outs":8473,"ĠAst":8474,"Biography":8475,"iner":8476,"gorithm":8477,"Ġsurn":8478,"ĠLegisl":8479,"aine":8480,".*":8481,"Ġmand":8482,"Ġteaching":8483,"_(":8484,"ĠAnother":8485,"Ġstatistics":8486,"ï¼":8487,"gar":8488,"Auth":8489,"Ġtoward":8490,"Ġinsert":8491,"Ġ%}":8492,"Ġinvestigation":8493,"Ġdream":8494,"Ġperformances":8495,"Ġprepar":8496,"ĠNumber":8497,"stat":8498,"Ġcomposer":8499,"Ġvent":8500,"Ġaccur":8501,"Ġbuilder":8502,"ocker":8503,"ĠTurn":8504,"ĠBat":8505,"Ġdie":8506,"Ġrise":8507,"ĠMaria":8508,"Ġmessages":8509,"arry":8510,"Transform":8511,"iments":8512,"Ġchallenge":8513,"ĠLtd":8514,"%,":8515,"Ġrain":8516,"ĠTownship":8517,"Widget":8518,"ferences":8519,"aser":8520,"ĠSerb":8521,"ĠHo":8522,"Ġcampus":8523,"jan":8524,"ushed":8525,"Ġinvestment":8526,"Ġjavax":8527,"ĠRights":8528,"ĠWho":8529,"Ġsan":8530,"ĠNaz":8531,"hat":8532,"ĠTask":8533,"ĠEnvironment":8534,"ĠAdv":8535,"GS":8536,"comment":8537,"Ġtitled":8538,"queue":8539,"Ġfunds":8540,"Ġstandards":8541,"ĠLewis":8542,"impl":8543,"ĠAtlantic":8544,"fall":8545,"wall":8546,"ĠBishop":8547,"Ġapproved":8548,"Ġsurrounding":8549,"Ġplease":8550,"Ġfuel":8551,"assets":8552,"Display":8553,"Ġwallet":8554,"Ð²":8555,"ãĢ":8556,"Ġresulted":8557,"ĠMilitary":8558,"1912":8559,"Ġhuge":8560,"margin":8561,"Ġyounger":8562,"okes":8563,"Ġgained":8564,"uma":8565,"Ġpartnership":8566,"Ġwasn":8567,"Ġdoctor":8568,"Security":8569,"Ġfighting":8570,"Ġcredit":8571,"ocate":8572,"Ġnovels":8573,"ĠIns":8574,"uzz":8575,"Ġdeveloping":8576,"Ġshowing":8577,"ĠDom":8578,"ĠArizona":8579,"ĠJoh":8580,"ernel":8581,"ĠParam":8582,"1921":8583,"MENT":8584,"]]":8585,"icensed":8586,"iden":8587,"Tax":8588,"Ġremote":8589,"Ġlayer":8590,"Ġwants":8591,"proto":8592,"ĠMun":8593,"Ġattributes":8594,"ĠStart":8595,"They":8596,"Files":8597,"Edit":8598,"ĠZh":8599,"1925":8600,"itter":8601,"ĠGi":8602,"ĠCzech":8603,"ĠApple":8604,"enum":8605,"restling":8606,"Ġpanel":8607,"ĠGer":8608,"ĠIL":8609,"Ġnorm":8610,"ĠMarc":8611,"ropolitan":8612,"ĠIndiana":8613,"Ġarrested":8614,"Ġrepresents":8615,"Ġwins":8616,"Ġpriest":8617,"Ġsides":8618,"ighth":8619,";/":8620,"1926":8621,"hentication":8622,"Ġsupporting":8623,"bul":8624,"Ġgirls":8625,"Ġrates":8626,"engers":8627,"Dav":8628,"ĠBru":8629,"Ġtrees":8630,"fill":8631,"ho":8632,"Ġengineer":8633,"igrants":8634,"UID":8635,"HS":8636,"Ġparliament":8637,"Database":8638,"essions":8639,"sect":8640,"Ġherself":8641,"ĠGil":8642,"123":8643,"Ġinvent":8644,"ĠRest":8645,"ĠSign":8646,"Ġoptional":8647,"ĠPhilippines":8648,"save":8649,"Ġuseful":8650,"Ġdanger":8651,"mo":8652,"=\"@":8653,"ĠTurkey":8654,"={":8655,"1923":8656,"Ġknew":8657,"original":8658,"Ġscoring":8659,"pur":8660,"lets":8661,"Ġhappened":8662,"Ġfashion":8663,"Ġunderstanding":8664,"Ġdir":8665,"Ġchosen":8666,"ĠTennessee":8667,"Ġmeasures":8668,"Ġspeech":8669,"Transport":8670,"Sym":8671,"Transaction":8672,"ĠHal":8673,"assertEquals":8674,"Ġnotice":8675,"ĠGuide":8676,"Ġfactors":8677,"low":8678,"Ġloan":8679,"Ġportion":8680,"ĠConfig":8681,"Ġzone":8682,"ĠJava":8683,"ixel":8684,"ĠCaptain":8685,"ĠArthur":8686,"DT":8687,"Ġyield":8688,"omot":8689,"ĠSingapore":8690,"ĠFunction":8691,"iang":8692,"formance":8693,"ordan":8694,"lah":8695,"nce":8696,"Ġhidden":8697,"Ġjudge":8698,"Ġdecor":8699,"Sources":8700,"Cond":8701,"ective":8702,"\"`":8703,"none":8704,"Ġblocks":8705,"Ġcomments":8706,"Ġsell":8707,"ĠPu":8708,"Awards":8709,"Perm":8710,"Ġprotocol":8711,"Ġapparent":8712,"Ġobserved":8713,"ĠHou":8714,"help":8715,"ĠRoss":8716,"Logger":8717,"Ġscheduled":8718,"SQL":8719,"connection":8720,"Ġenable":8721,"MB":8722,"ARY":8723,"ĠVi":8724,"ĉĉĉĊ":8725,"Flags":8726,"ĠPath":8727,"ĠNet":8728,"Ġholding":8729,"Ġwinter":8730,"Ġscholar":8731,"Ġstorm":8732,"ĠMemorial":8733,"Directory":8734,"////////////////////////////////":8735,"ĠSav":8736,"boy":8737,"Ġfactor":8738,"radius":8739,"Ġtaught":8740,"Ġminimum":8741,"anned":8742,"_,":8743,"wing":8744,"Ġdetail":8745,"home":8746,"Ġhear":8747,"Ġcamera":8748,"ROM":8749,"ĠSquad":8750,"Own":8751,"Ġplot":8752,"olis":8753,"Ġmatrix":8754,"Ġgenerate":8755,"Ġaudio":8756,"Crit":8757,"ĠRa":8758,"Olympic":8759,"ĠMonday":8760,"living":8761,"Ġsale":8762,"shape":8763,"vo":8764,"assertEqual":8765,"Leg":8766,"Ġanswer":8767,"Ġmedalists":8768,"western":8769,"Ġbudget":8770,"Ġjournalist":8771,"Ġhair":8772,"Ġformation":8773,"tip":8774,"pository":8775,"Ġheav":8776,"ĠSupport":8777,"ĠStory":8778,"ĠRecord":8779,"Ġpublication":8780,"bean":8781,"Ġglass":8782,"ivals":8783,"pay":8784,"Ġfemales":8785,"Ġlib":8786,"Ġweather":8787,"ĠLink":8788,"Ġunable":8789,"Ġjump":8790,"Ġrepresentation":8791,"ĠChildren":8792,"ĠOriginal":8793,"ĠTH":8794,"Ġcopies":8795,"Ġdeliver":8796,"IE":8797,"Ġappre":8798,"Ġadding":8799,"ĠColon":8800,"Ġattr":8801,"bell":8802,"ogy":8803,"atar":8804,"Grid":8805,"recated":8806,"een":8807,"ĠStaff":8808,"Ġdropped":8809,"Ġsevent":8810,"Vert":8811,"ĠCov":8812,"Ġelem":8813,"stats":8814,"ipl":8815,"TED":8816,"ĠTransport":8817,"VERSION":8818,"Ġtab":8819,"MAX":8820,"ĠInvest":8821,"cpp":8822,"ĠHighway":8823,"ĠPit":8824,"=\"\"":8825,"Ġresc":8826,"Ġarms":8827,"Ġblog":8828,"ĠNa":8829,"ryst":8830,"isms":8831,"Selector":8832,"Ġdistricts":8833,"ĠLeon":8834,"ĠLev":8835,"hard":8836,"Ã¼r":8837,"Ġgovernor":8838,"ById":8839,"ĠEntertainment":8840,"Ġvisited":8841,"Ġguard":8842,"typeof":8843,"Profile":8844,"ĠBecause":8845,"Ġtwenty":8846,"Ġpainting":8847,"cap":8848,"ĠAS":8849,"ĠAdam":8850,"Ġrelatively":8851,"Full":8852,"ductions":8853,"ĠIndex":8854,"ensis":8855,"coln":8856,"git":8857,"Ġ[];":8858,"Ġfestival":8859,"Ġaffected":8860,"Two":8861,"theme":8862,"points":8863,"Ġpassing":8864,"Items":8865,"Ġ[[":8866,"Ġescape":8867,"pective":8868,"ĠAny":8869,"Ġhotel":8870,"Ġcandidates":8871,"illery":8872,"Ġincident":8873,"ĠSO":8874,"attery":8875,")));":8876,"Ã©s":8877,"that":8878,"ĠTwitter":8879,"EXT":8880,"Ġmyst":8881,"ups":8882,"Ġdoll":8883,"Ġdefine":8884,"ursday":8885,"_->":8886,"1916":8887,"()));":8888,"Float":8889,"erd":8890,"Ġbrain":8891,"ĠKhan":8892,"Ġbrowser":8893,"Ġri":8894,"Msg":8895,"ĠPM":8896,"ussian":8897,"Ġslightly":8898,"selected":8899,"======":8900,"oving":8901,"wealth":8902,"ĠMiller":8903,"Ġenh":8904,"Ġnodes":8905,"(!":8906,"ĠKal":8907,"ĠFord":8908,"star":8909,"Ġpieces":8910,"ĠJews":8911,"Ant":8912,"BI":8913,"Ġfan":8914,"LOG":8915,"Ġbiggest":8916,"here":8917,")))":8918,"Common":8919,"Ġrich":8920,"Internal":8921,"ÑĮ":8922,"ĠMexican":8923,"Ġexpert":8924,"\">&":8925,"Ġprocessing":8926,"1915":8927,"oti":8928,"ĠEP":8929,"game":8930,"Ġpolicies":8931,"ĠLow":8932,"Ġdecades":8933,"Ġclassical":8934,"also":8935,"ÃŃa":8936,"hol":8937,"jquery":8938,"ĠForeign":8939,"Ġagency":8940,"Ġcas":8941,"ĠPier":8942,"ĠNick":8943,"Japan":8944,"Memory":8945,"Ġclick":8946,"care":8947,"ĠCost":8948,"ĠEnc":8949,"ĠFederation":8950,"Ġbought":8951,"ĠMelbourne":8952,"Ġending":8953,"Ġcollected":8954,"Ġalleged":8955,"FS":8956,"nesday":8957,"ĠControl":8958,"agh":8959,"witzer":8960,"Ġexpansion":8961,"?\"":8962,"ĠMaryland":8963,"Ġmonitor":8964,"Ġfunc":8965,"law":8966,"ĠLiter":8967,"properties":8968,"numer":8969,"Ġassembly":8970,"Ġhall":8971,"Ġshut":8972,"Ġmedian":8973,"hetic":8974,"orrow":8975,"ĠUpdate":8976,"Ġoccurs":8977,"Ġracing":8978,"angular":8979,"Ġconverted":8980,"Ġchoose":8981,"engine":8982,"Ins":8983,"XT":8984,"bserver":8985,"aux":8986,"ĠNorm":8987,"Ġsand":8988,"ĠMalays":8989,"Ġmist":8990,"Ġsupports":8991,"Ġawait":8992,"agan":8993,"BE":8994,"ĠSurvey":8995,"Activity":8996,"Ġattempts":8997,"ĠHarry":8998,"Ġhappen":8999,"Ġinterested":9000,"Desc":9001,"ĠIV":9002,"Î±":9003,"ulator":9004,"Christ":9005,"endor":9006,"NotNull":9007,"Tube":9008,"Ġchairman":9009,"uesday":9010,"important":9011,"ancell":9012,"channel":9013,"ĠBO":9014,"ĠDaily":9015,"Ġobtain":9016,"ses":9017,"Ġtrip":9018,"Ġbed":9019,"Ġcrisis":9020,"Life":9021,"Ġadvent":9022,"Gen":9023,"Iterator":9024,"Ġanimal":9025,"ĠJunior":9026,"Symbol":9027,"ented":9028,"ĠChen":9029,"Ġadj":9030,"Ġcontrast":9031,"Protocol":9032,"LIC":9033,"Canadian":9034,"ĠAffairs":9035,"witzerland":9036,"ĠUkraine":9037,"ĠBrand":9038,"Ġvector":9039,"Ġranked":9040,"Ġnob":9041,"rations":9042,"antasy":9043,"Ġopposition":9044,"Ġinvalid":9045,"ĠModern":9046,"ĠNorway":9047,"Ġbtn":9048,"encing":9049,"ĠBaron":9050,"(){":9051,"Ġdensity":9052,"Ġwel":9053,"ĠHart":9054,"Ġoccasion":9055,"aset":9056,"Ġsun":9057,"Author":9058,"RAN":9059,"igenous":9060,"primary":9061,"ĠMunicip":9062,"1913":9063,"Elements":9064,"ĠMoscow":9065,"ĠIowa":9066,"Ġsatisf":9067,"imit":9068,"Ġinters":9069,"*)":9070,"ĠFront":9071,"Ġnarrow":9072,"keyword":9073,"ĠBu":9074,"ADD":9075,"ĠSlov":9076,"Ġexamples":9077,"uese":9078,"Close":9079,"cles":9080,"ading":9081,"}.":9082,"ĠMake":9083,"ĠOption":9084,"Attributes":9085,"ĠHas":9086,"Ġhorse":9087,"manager":9088,"schema":9089,"ookie":9090,"enny":9091,"ONE":9092,"Ġachieved":9093,"ĠToday":9094,"cam":9095,"bytes":9096,"Ġappropriate":9097,"Ġisol":9098,"%.":9099,"Ġng":9100,"role":9101,"atin":9102,"çļ":9103,"ando":9104,"ĠMagazine":9105,"Func":9106,"Ġeye":9107,"ĠSaf":9108,"Ġcool":9109,"anes":9110,"har":9111,"ĠCab":9112,"ampl":9113,"ĠRepresentatives":9114,"ordon":9115,"throws":9116,"Ġask":9117,"abama":9118,"ĠEqu":9119,"alar":9120,"Ġfinds":9121,"ĠDor":9122,"Film":9123,"ni":9124,"inher":9125,"Ġcombination":9126,"agues":9127,"à¥":9128,"Ġsegment":9129,"LC":9130,"Space":9131,"Ġsubsequent":9132,")\">":9133,"overy":9134,"Ġcauses":9135,"iversary":9136,"Ġring":9137,"hidden":9138,"ĠNFL":9139,"modules":9140,"ĠAnderson":9141,"Ang":9142,"Ġjobs":9143,"wick":9144,"Ġlayout":9145,"Ġdomestic":9146,"inals":9147,"Sportspeople":9148,"Ġtheatre":9149,"SIZE":9150,"Ġinteresting":9151,"Ġanal":9152,"ĠSound":9153,"PAR":9154,"zone":9155,"agu":9156,"bles":9157,"TABLE":9158,"Ġkick":9159,"ista":9160,"Euro":9161,"ĠĠĠĠĠĠĠĠĠĠĠĠĠĠĠĠĠĠĠĠĠĠĠĠ":9162,"plications":9163,"Ġseed":9164,"}</":9165,"abels":9166,"Ġyellow":9167,"Ġretail":9168,"Ġmo":9169,"Populated":9170,"ĠPhilip":9171,"Ġneighborhood":9172,"security":9173,"flags":9174,"entials":9175,"Proxy":9176,"ĠRose":9177,"Ġcommitted":9178,"Ñĭ":9179,"Ġconvers":9180,"Ġdivers":9181,"seud":9182,"Ġtend":9183,"lections":9184,"Ġ×":9185,"puter":9186,"ĠMedicine":9187,"ĠNon":9188,"ĠManchester":9189,"offs":9190,"txt":9191,"incial":9192,"events":9193,"William":9194,"icians":9195,"Ġmac":9196,"ĠCare":9197,"merce":9198,"Ġcontained":9199,"vi":9200,"Ġdress":9201,"Bas":9202,"ĠRow":9203,"âĢĿ,":9204,"Ġprincipal":9205,"arnings":9206,"Ġbronze":9207,"Ġwarm":9208,"pping":9209,"çļĦ":9210,"Ġhomes":9211,"agen":9212,"Ġrh":9213,"Ġpicture":9214,"Ġexcell":9215,"poss":9216,"Ġrecommend":9217,"Ġvillages":9218,"Ġperhaps":9219,"Ġhydro":9220,"inema":9221,"Single":9222,"Ġrequests":9223,"Ġvocal":9224,"ĠTony":9225,"ĠVietnam":9226,"Ġfill":9227,"roit":9228,"1911":9229,"()).":9230,"Family":9231,"=\"\">":9232,"North":9233,"Ġexpressed":9234,"children":9235,"mic":9236,"Ġvac":9237,"Ġpurposes":9238,"Ġconsequ":9239,"Pointer":9240,"Ġrear":9241,"ĠArk":9242,"ĠConst":9243,"Ġstress":9244,"Bibliography":9245,"Ġnominated":9246,"ĠEnergy":9247,"owered":9248,"Ġlooked":9249,"iley":9250,"Ġplus":9251,"Auto":9252,"$(":9253,"ski":9254,"Stop":9255,"Ġfrequently":9256,"ĠFreder":9257,"Volume":9258,"Ġburied":9259,"Ġprofession":9260,"ĠNative":9261,"lahoma":9262,"DP":9263,"ĠExecutive":9264,"ĠAge":9265,"Ġletters":9266,"Print":9267,"ambig":9268,"ĠImp":9269,"ĠBuilding":9270,"Ġmodified":9271,"inus":9272,"ĠDream":9273,"Ġprotein":9274,"fred":9275,"ĠEric":9276,"zh":9277,"ques":9278,"Ġpm":9279,"ĠJane":9280,"igg":9281,"GO":9282,"Ġcovers":9283,"ĠBlock":9284,"ĠDa":9285,"ository":9286,"Ġcluster":9287,"Ġperforming":9288,"Ġlap":9289,"ducing":9290,"]:":9291,"PATH":9292,"ĠCA":9293,"Ġstrength":9294,"Ġcommunication":9295,"STAT":9296,"Mo":9297,"Ġnuclear":9298,"ĠJer":9299,"Ġgar":9300,"Ġsomew":9301,"ĠNode":9302,"ghan":9303,"move":9304,"words":9305,"Term":9306,"ĠStone":9307,"ĠDyn":9308,"Product":9309,"Death":9310,"ĠBaseball":9311,"Ġorders":9312,"Ġcoaches":9313,"incess":9314,"Ġleads":9315,"oen":9316,"Ġdomin":9317,"!\"":9318,"ĠBalt":9319,"110":9320,"ĠVAL":9321,"ĠGreece":9322,"Ġdriving":9323,"Ġrough":9324,"rait":9325,"Ġderived":9326,"mont":9327,"hell":9328,"Short":9329,"tmp":9330,"ĠOcean":9331,"ĠBrian":9332,"olas":9333,"Adapter":9334,"ĠKentucky":9335,"Ġgain":9336,"Ġabsolute":9337,"ouses":9338,"Ġ{};":9339,"ĠRoy":9340,"Ġmanagers":9341,"iami":9342,"tools":9343,"Sequ":9344,"chant":9345,"ĠĠĠĠĠĠĠĠĠĠĠĠĠĠĠĠĠĠĠĠĠĠĠĠĠĠĠĠĠĠĠĠĠĠĠĠĠĠĠĠĠĠĠ":9346,"Cluster":9347,"iciency":9348,"Ġheat":9349,"ĠMas":9350,"Ġmel":9351,"ĠBurn":9352,"Ð¼":9353,"Cap":9354,"Ġcloud":9355,"lg":9356,"iph":9357,"iration":9358,"ologists":9359,"utf":9360,"oses":9361,"Ġment":9362,"Ġimportance":9363,"rell":9364,"ĠPrinc":9365,"Ġqualified":9366,"Ġacts":9367,"Ġbenefits":9368,"Ġ(;":9369,"BUG":9370,"Ġlisten":9371,"Ġprev":9372,"Ġhighlight":9373,"ToString":9374,"ĠâĢ¦":9375,"Ġeg":9376,"ĠBeng":9377,"ymn":9378,"Ben":9379,"Success":9380,"super":9381,"++;":9382,"erto":9383,"printf":9384,"Ġwitness":9385,"Ġadjust":9386,"wich":9387,"Ġpatient":9388,"Ġroyal":9389,"Ġinner":9390,"ownt":9391,"Ġcombat":9392,"ureau":9393,"Ġsteps":9394,"Ġpromote":9395,"Ġaffect":9396,"Ġban":9397,"structor":9398,"Ġfreedom":9399,"Ġprogramme":9400,"controller":9401,"ðŁ":9402,"rog":9403,"Annot":9404,"Ġpossibly":9405,"IB":9406,"Ġpurchase":9407,"Ġbroke":9408,"Ġraw":9409,"Ġprocesses":9410,"try":9411,"ĠĠĠĠĠĠĠĠĠĠĠĠĠĠĠĠĠĠĠĠĠĠ":9412,"ĠVo":9413,"Global":9414,"handler":9415,"player":9416,"Ġwealth":9417,"ĠFac":9418,"area":9419,"Ġdepth":9420,"Ġstarring":9421,"Ġopportunities":9422,"ĠCape":9423,"Ġadvantage":9424,"Ġemphas":9425,"Mat":9426,"################":9427,"Ġflex":9428,"hedral":9429,"Ġcru":9430,"oli":9431,"ority":9432,"ĠSimon":9433,"Ġimplements":9434,"Ġcert":9435,"$/":9436,"ĠPot":9437,"Her":9438,"Ġvice":9439,"Panel":9440,"ĠSri":9441,"ĠOfficer":9442,"craft":9443,"Ġweapons":9444,"tons":9445,"Ġbenefit":9446,"Ġmaintain":9447,"Äĥ":9448,"ctors":9449,"otten":9450,"iterator":9451,"ĠBab":9452,"Cor":9453,"ĠMorris":9454,"ĠAD":9455,"Ġexactly":9456,"Australian":9457,"ĠLind":9458,"Ġcaptain":9459,"Ġvolunte":9460,"Ġflat":9461,"MC":9462,"Ġscheme":9463,"Ġultimately":9464,"ĠTokyo":9465,"Dest":9466,"icut":9467,"ĠSher":9468,"Ġeducated":9469,"cu":9470,"ivation":9471,"Ġcapture":9472,"Ġexit":9473,"Most":9474,"Geography":9475,"reset":9476,"Ġdesignated":9477,"ĠHoly":9478,"ĠGab":9479,"Ġoptim":9480,"libr":9481,"Ġkilling":9482,"ĠAud":9483,"ĠFle":9484,"Prop":9485,"month":9486,"ĠPC":9487,"ĠSi":9488,"zy":9489,"ships":9490,"ĠDigital":9491,"coh":9492,"Plugin":9493,"Oct":9494,"ublin":9495,"isted":9496,"ĠJos":9497,"typed":9498,"Generic":9499,"Ġio":9500,"ĠSE":9501,"Ġoldest":9502,"ĠBah":9503,"ĠIOException":9504,"orough":9505,"ĠDiego":9506,"Ġfix":9507,"ĠVideo":9508,"Ġgone":9509,"Ġspecifically":9510,"ĠTODO":9511,"Ġmenu":9512,"arant":9513,"XML":9514,"ression":9515,"IPT":9516,"ICE":9517,"Ġguide":9518,"stan":9519,"Ġrepeated":9520,"Ġrecognition":9521,"Ġsac":9522,"achelor":9523,"kt":9524,"ĠHawai":9525,"Ġlect":9526,"Ġsummary":9527,"ĠQueensland":9528,"Ġpilot":9529,"Ġjourney":9530,"Fail":9531,"Many":9532,"HR":9533,"NT":9534,"Ġtypeof":9535,"UTF":9536,"Ġconcerns":9537,"ippi":9538,"ĠSenior":9539,"ĠHeart":9540,"editor":9541,"1908":9542,"mb":9543,"pi":9544,"Java":9545,"ĠBos":9546,"ĠDark":9547,"ĠDoctor":9548,"READ":9549,"Ġstores":9550,"ĠRoll":9551,"dam":9552,"rett":9553,"apply":9554,"Ġoffering":9555,"Ã¥":9556,"ĠKy":9557,"Ġfaith":9558,"ners":9559,"ĠLincoln":9560,"Miss":9561,"avor":9562,"ĠClark":9563,"Ġtranslation":9564,"ĠSwitzerland":9565,"Ġreq":9566,"Inv":9567,"Ġcritics":9568,"ĠNE":9569,"'])":9570,"Ġworldwide":9571,"ickets":9572,"ĠTable":9573,"Ġentirely":9574,"iva":9575,"picker":9576,"Statement":9577,"Ġsleep":9578,"SCR":9579,"Ġsignificantly":9580,"Ġpractices":9581,"ĠAlbert":9582,"uj":9583,"Ġnarr":9584,"account":9585,"Ġterror":9586,"Ġsucceeded":9587,"ĠPerson":9588,"Nor":9589,"Route":9590,"Ep":9591,"ĠReb":9592,"each":9593,"Ġsixth":9594,"east":9595,"ĠBefore":9596,"ĠNav":9597,"Ġgrid":9598,"tenance":9599,"Ġsail":9600,"IST":9601,"oly":9602,"Ġloop":9603,"Ġpromotion":9604,"Ġportray":9605,"Ġdict":9606,"Parse":9607,"These":9608,"Loader":9609,"ĠTen":9610,"Ġdates":9611,"Ġiron":9612,"rainian":9613,"ĠNig":9614,"Initial":9615,"Ġmales":9616,"aza":9617,"ĠSoftware":9618,"ĠKat":9619,"eed":9620,"attributes":9621,"clip":9622,"ucks":9623,"ictional":9624,"mutable":9625,"128":9626,"Browser":9627,"ĠKa":9628,"101":9629,"Engine":9630,"ĠKitt":9631,"Ġroof":9632,"Black":9633,"green":9634,"ois":9635,"apel":9636,"ĠSix":9637,"Ġbrothers":9638,"inv":9639,"Ġshell":9640,"Ġexport":9641,"NavBarCell":9642,"','":9643,"ĠDun":9644,"ĠFood":9645,"Matrix":9646,"fail":9647,"azing":9648,"power":9649,"ĠFA":9650,"Ġexhibition":9651,"Game":9652,"Ġdrivers":9653,"compl":9654,"Ġchemical":9655,"Ġfit":9656,".\");":9657,"Ġextensive":9658,"unior":9659,"Ġcoverage":9660,"ĠTa":9661,"Pri":9662,"reshold":9663,"Ġencoding":9664,"ĠIr":9665,"Plot":9666,"Ġimproved":9667,"Ġkid":9668,"Ġnavigation":9669,"Ġminute":9670,"edge":9671,"Ġeducational":9672,"SR":9673,"ĠAlabama":9674,"bat":9675,"Ġphoto":9676,"Ġtor":9677,"SY":9678,"metadata":9679,"echo":9680,"ĠRegional":9681,"network":9682,"Failed":9683,"Ġmach":9684,"ĠChall":9685,"Ġthousands":9686,"Ġweak":9687,"ĠAustria":9688,"browser":9689,"ounded":9690,"Ġaged":9691,"Ġbodies":9692,">::":9693,"Ġattempted":9694,"Ġreligion":9695,"Pay":9696,"idge":9697,"ĠNev":9698,"ÐµÐ½":9699,"fol":9700,"Double":9701,"[$":9702,"Ġformerly":9703,"ĪĴ":9704,"ĠPlace":9705,"domain":9706,"Ġsustain":9707,"ĠStr":9708,"Ġdrums":9709,"Ġsubstant":9710,"chi":9711,"iamond":9712,"izable":9713,"IVE":9714,"Ġcarbon":9715,"Ġtrains":9716,"Lin":9717,"Ã©t":9718,"ogen":9719,"ĠBarn":9720,"Expr":9721,"Ġagree":9722,"Ġarrang":9723,"ateur":9724,"Ġbond":9725,"Ġsoft":9726,"SER":9727,"Ġsynt":9728,"ocese":9729,"Ġlay":9730,"Ġcycle":9731,"ĠJay":9732,"Note":9733,"ĠCart":9734,"Ġfinding":9735,"olo":9736,"ĠCopyright":9737,"Ġwaves":9738,"Enum":9739,"Ġlearned":9740,"ĠFa":9741,"Ġped":9742,"issue":9743,"Aug":9744,"ĠSquare":9745,"ĠMit":9746,"ĠHouston":9747,"Ġrefused":9748,"Ġapart":9749,"archy":9750,"ded":9751,"cb":9752,"Ġprepared":9753,"Cred":9754,"atible":9755,"nil":9756,"Ġcompris":9757,"Ġowners":9758,"Ġmayor":9759,"Ġsuffer":9760,"emble":9761,"Ġstopped":9762,"Ġabstract":9763,"ĠThrough":9764,"Ġpermanent":9765,"Ġaid":9766,"Section":9767,"etes":9768,"Day":9769,"Ġ{'":9770,"aro":9771,"Cam":9772,"ĠBir":9773,"ĠMrs":9774,"Ġdry":9775,"ambiguation":9776,"Ġbroken":9777,"getName":9778,"____":9779,"icide":9780,"Duration":9781,"inth":9782,"Big":9783,"PORT":9784,"Ġfavour":9785,"ĠGets":9786,"Ġasync":9787,"Ġfear":9788,"kw":9789,"ben":9790,"elli":9791,"lig":9792,"%%%%":9793,"ĠNik":9794,"Ġdistingu":9795,"itals":9796,"opter":9797,"INFO":9798,"inch":9799,"nie":9800,"ĠNap":9801,"ĠSky":9802,"ĠSilver":9803,"Ġpresidential":9804,"ĠVice":9805,"ĠTan":9806,"Keys":9807,"issues":9808,"Star":9809,"Mut":9810,"Ġtemple":9811,"Ġ(,":9812,"Ġpy":9813,"hide":9814,"Ġequivalent":9815,"NC":9816,"atters":9817,"Region":9818,"ĠJesus":9819,"ĠResource":9820,"Ġ\",":9821,"MT":9822,"ĠDomin":9823,"ĠCustom":9824,"ĠHotel":9825,"ĠPatrick":9826,"ĠAdministration":9827,"ĠNorwegian":9828,"Ġdelivered":9829,"Ġ\"<":9830,"filename":9831,"ĠDonald":9832,"ĠDisney":9833,"Ġbalance":9834,"ĠCop":9835,"Phil":9836,"Ġrepresentative":9837,"configuration":9838,"Ġvideos":9839,"Å«":9840,"Hon":9841,"Ġmort":9842,"Release":9843,"Har":9844,"secutive":9845,"ĠGall":9846,"OST":9847,"Ġsons":9848,"umin":9849,"tabs":9850,"UK":9851,"Af":9852,"Ġairport":9853,"Ġanimation":9854,"angel":9855,"Ġcaught":9856,"ĠBit":9857,"ĠHash":9858,"Ġfaced":9859,"front":9860,"contains":9861,"ĠRyan":9862,"Ġfn":9863,"asm":9864,"Ġcollaboration":9865,"issippi":9866,"olt":9867,"Ġdialog":9868,"uda":9869,"Ġcommander":9870,"ĠLabour":9871,"ĠHoward":9872,"Following":9873,"wig":9874,"Ġauthors":9875,"elve":9876,"Ġpowers":9877,"Ġtrend":9878,"Ġpun":9879,"Ġlinked":9880,"ĠHamilton":9881,"Ġstored":9882,"fef":9883,"aron":9884,"Ġjustice":9885,"including":9886,"jpg":9887,"ĠResult":9888,"Ġexecution":9889,"rena":9890,"WR":9891,"ITE":9892,"burn":9893,"total":9894,"ĠCulture":9895,"Ġscenes":9896,"Ġheadquarters":9897,"aded":9898,"Ġmotion":9899,"Ġlists":9900,"horizontal":9901,"Ġidentify":9902,"Ġtower":9903,"Ġexplicit":9904,"Ġthir":9905,"idx":9906,"world":9907,"Nodes":9908,"Ġxmlns":9909,"Ġvo":9910,"Ġpointer":9911,"adi":9912,"ogether":9913,"ĠAnthony":9914,"scss":9915,"Ġlawyer":9916,"avi":9917,"ĠDocument":9918,"ried":9919,"mosph":9920,"ugar":9921,"Ġsurg":9922,"external":9923,"Ġturns":9924,"acent":9925,"Ġprovider":9926,">:":9927,"Ġstrike":9928,"ĠGard":9929,"Ġvertical":9930,"Ġusage":9931,"Ġdiplom":9932,"ĠBox":9933,"Ġthinking":9934,"ĠAllen":9935,"?âĢĿ":9936,"Ġsteel":9937,"Ġresistance":9938,"ĠSin":9939,"Ġcircum":9940,"Google":9941,"Ġsecure":9942,"Ġhappy":9943,"Category":9944,"ĠExpress":9945,"uties":9946,"Ġopposed":9947,"Spe":9948,"Ġexperienced":9949,")),":9950,"publ":9951,"ĠRub":9952,"Î¿":9953,"Ġschol":9954,"protected":9955,"Ġpassword":9956,"ĠEarl":9957,"ĠPa":9958,"David":9959,"ials":9960,"Ġformal":9961,"Ġvariables":9962,"ĠCru":9963,"ĠSeason":9964,"Ġbelief":9965,"Just":9966,"Ġshooting":9967,"Opt":9968,"IND":9969,"ĠMoon":9970,"Ġrect":9971,"Ġ).":9972,"Ġbra":9973,"called":9974,"Scroll":9975,"ĠAccess":9976,"Ġcontributed":9977,"Remove":9978,"Ġopinion":9979,"ĠMarine":9980,"Ġovers":9981,"Collections":9982,"1890":9983,"sur":9984,"Ġtruth":9985,"atest":9986,"ĠBrun":9987,"prefix":9988,"Ġattached":9989,"acher":9990,"big":9991,"Ġcharges":9992,"Ġhumans":9993,"hab":9994,"Ġcausing":9995,"Ġpainter":9996,"antly":9997,"acon":9998,"Ġpasses":9999,"ĠWalter":10000,"Ġok":10001,"ĠDeath":10002,"ervlet":10003,"ĠCrit":10004,"Ġkil":10005,"Ġexistence":10006,"Our":10007,"Ġlyrics":10008,"ctrine":10009,"ĠAssoci":10010,"Ġprefix":10011,"platform":10012,"ĠâĢł":10013,"oked":10014,"Ġchanging":10015,"Ġautomatically":10016,"iac":10017,"forms":10018,"Ġdemocr":10019,"Ġrequested":10020,"Ġextremely":10021,"Ġhero":10022,"Constra":10023,"don":10024,"sum":10025,"Ġstrings":10026,"Socket":10027,"Ġmusician":10028,"Ġcontrolled":10029,"enez":10030,"ugu":10031,"Ġacid":10032,"ĠChile":10033,"letion":10034,"ridges":10035,"chell":10036,"Ġinterests":10037,"ĠWednesday":10038,"ĠTemple":10039,"Ġsettled":10040,"Ġhelping":10041,"rift":10042,"NULL":10043,"Ġflags":10044,"Ġsignature":10045,"ĠOklahoma":10046,"Ġrenew":10047,"stances":10048,"usal":10049,"Ġtrav":10050,"ĠCond":10051,"othes":10052,"Ġmedium":10053,"props":10054,"upl":10055,"Mich":10056,"oa":10057,"allas":10058,"ĠSever":10059,"Ġmental":10060,"ĠYouth":10061,"Ġtail":10062,"ĠKam":10063,"~~~~":10064,"Ġ=========":10065,"Ġfranch":10066,"Ġexperiences":10067,"Ġfolk":10068,"åı":10069,"Ġinteger":10070,"Ġentitled":10071,"Television":10072,"Ġoffices":10073,"Book":10074,"dem":10075,"StyleID":10076,"itionally":10077,"Ġinfrastructure":10078,"Ġmarketing":10079,"ructions":10080,"ĠFall":10081,"Ġgreatest":10082,"builder":10083,"Ġreferences":10084,"Ġwalls":10085,"ĠMand":10086,"Ġdescribes":10087,"Ġrelevant":10088,"Rail":10089,"agg":10090,"ĠHans":10091,"Mer":10092,"CESS":10093,"ĠProt":10094,"isode":10095,"brief":10096,"ĠNich":10097,"ĠFellow":10098,"Ġaggreg":10099,"ĠFurther":10100,"Imp":10101,"ĠThursday":10102,"erves":10103,"ĠLank":10104,"RS":10105,"Ġlake":10106,"disambiguation":10107,"Seg":10108,"ĠForces":10109,"ĠInfantry":10110,"Ġenemy":10111,"Ġguns":10112,"Ġrent":10113,"ĠTelevision":10114,"Abstract":10115,"iples":10116,"Are":10117,"fefefe":10118,"unny":10119,"Ġinvolving":10120,"ourse":10121,"headers":10122,"sa":10123,"Ġextract":10124,"Ġwat":10125,"Ġalter":10126,"ĠSC":10127,"unnel":10128,"Ġgender":10129,"udden":10130,"Ġcolumns":10131,"Ġclassic":10132,"Ġappend":10133,"WN":10134,"Ġannounce":10135,"ĠÄ":10136,"700":10137,"Ġsolutions":10138,"ĠFame":10139,"ardo":10140,"wild":10141,"Mapping":10142,"Ġschedule":10143,"services":10144,"Ġcompetitions":10145,"ĠTuesday":10146,"Ġspeak":10147,"Ġctx":10148,"ĠJordan":10149,"ffff":10150,"ĠWhit":10151,"Pe":10152,"ĠKevin":10153,"Ġtechniques":10154,"Ġwa":10155,"Ġchallenges":10156,"rik":10157,"Indian":10158,"Ġfly":10159,"Ġmarkets":10160,"Ġcold":10161,"Ġsought":10162,"ĠProcess":10163,"Stand":10164,"GA":10165,"Ġstanding":10166,"ti":10167,"Conf":10168,"Ġconnections":10169,"Registry":10170,"Ġemot":10171,"arner":10172,"Ġsuperv":10173,"ussion":10174,"Ġexecuted":10175,"Ġ(_":10176,"1909":10177,"Ġsmart":10178,"Ġreader":10179,"Ġrob":10180,"Details":10181,"Ġjur":10182,"ĠÐ¿":10183,"wrapper":10184,"ĠDeb":10185,"roc":10186,"Ġrefers":10187,"Ġinjured":10188,"ruption":10189,"ĠHeritage":10190,"ĠHollywood":10191,"ĠSource":10192,"Ġ(),":10193,"alloc":10194,"Ġposted":10195,"Ġfilled":10196,"Ġentertain":10197,"ĠGre":10198,"ĠFull":10199,"ĠPRO":10200,"Fore":10201,"Ġmile":10202,"ceptions":10203,"bums":10204,"Ġpersons":10205,"1905":10206,"Place":10207,"ĠOnce":10208,"Ġnortheast":10209,"ĠEmperor":10210,"ĠEag":10211,"Progress":10212,"Sync":10213,"Ġachieve":10214,"ĠHamp":10215,"throw":10216,"ĠAnne":10217,"Ġattacked":10218,"ĠUnit":10219,"Ġchannels":10220,"Ġresponsibility":10221,"Ġmerged":10222,"Variable":10223,"ĠImage":10224,"ĠAndroid":10225,"Ġfought":10226,"ĠHu":10227,"Ġemployed":10228,"Ġdisabled":10229,"alty":10230,"1906":10231,"ĠIslamic":10232,"Ġretirement":10233,"Ġwonder":10234,"1907":10235,"Ġarran":10236,"------------":10237,"Ġcharts":10238,"Ġsingers":10239,"Ġgene":10240,"Ġdirectors":10241,"lot":10242,"Ġsizeof":10243,"Ġcorresponding":10244,"ĠTurkish":10245,"ĠMoore":10246,"Ġinvited":10247,"switch":10248,"ĠUr":10249,"elson":10250,"identifier":10251,"ĠDur":10252,"Ġevening":10253,"Prefix":10254,"ĠBry":10255,"extern":10256,"ĠLemmon":10257,"Ġboat":10258,"Ġpoly":10259,"ieval":10260,"components":10261,"ĠTel":10262,"rane":10263,"Ġkids":10264,"ĠOak":10265,"Ġaccused":10266,"ĠGib":10267,"ĠLeb":10268,"Ġpermission":10269,"ĠSquadron":10270,"Although":10271,"ĠAgain":10272,"Ġsituated":10273,")).":10274,"argo":10275,"ĠDead":10276,"ĠYouTube":10277,"ĠGram":10278,"ĠSport":10279,"Ġdecade":10280,"ĠConnecticut":10281,"brid":10282,"ĠBuff":10283,"ĠDick":10284,"Ġconsecutive":10285,"Ġgoods":10286,"ashed":10287,"Ġsoci":10288,"loyd":10289,"commod":10290,"Ġframework":10291,"alia":10292,"abad":10293,"Ġintelligence":10294,"Ġcontroller":10295,"ĠFinn":10296,"ĠRequest":10297,"initial":10298,"ĠSpacewatch":10299,"Ġclinical":10300,"Ġdifferences":10301,"Ġclosely":10302,"alled":10303,"urric":10304,"Ġoperate":10305,"ĠAfghan":10306,"ĠGrant":10307,"ĠBulg":10308,"upload":10309,"mask":10310,"LECT":10311,"ĠSingh":10312,"zi":10313,"Ġemergency":10314,"ĠRey":10315,"Ġveter":10316,"ĠThird":10317,"junit":10318,"ĠCommonwealth":10319,"rapped":10320,"Identifier":10321,"Namespace":10322,"Mac":10323,"protocol":10324,"Constants":10325,"fast":10326,"avirus":10327,"Ġenv":10328,"Ġjazz":10329,"esc":10330,"Ġsupposed":10331,"ĠCurrent":10332,"ĠJam":10333,"defined":10334,"Ġcustomer":10335,"ifiers":10336,"ĠInteger":10337,"oda":10338,"ĠPlayer":10339,"Ġsections":10340,"mult":10341,"Ġengaged":10342,"OUT":10343,"phony":10344,"rout":10345,"About":10346,"uality":10347,"Ġskin":10348,"Bel":10349,"Ġhelps":10350,"ĠWy":10351,"Ġholid":10352,"Ġlegend":10353,"ĠSep":10354,"ĠMcG":10355,"Ġmolec":10356,"Tags":10357,"Ġcolspan":10358,"ocks":10359,"Ġscientists":10360,"Ġsaved":10361,"Ġà¤":10362,"Generator":10363,"ĠCH":10364,"progress":10365,"ĠMessage":10366,"tags":10367,"Ġelectronic":10368,"Simple":10369,"ĠBureau":10370,"Ġliterary":10371,"Ġsurname":10372,"<!":10373,"Ġpoetry":10374,"Ġconstructor":10375,"ĠDal":10376,"Ġweekend":10377,"Ġaired":10378,"Cent":10379,"Ġshortly":10380,"olly":10381,"ĠMS":10382,"ladesh":10383,"ĠWAR":10384,"Ljava":10385,"plus":10386,"cknow":10387,"Total":10388,"Ġtreated":10389,"ĠHom":10390,"ĠSI":10391,"ĠMiami":10392,"Ġvirus":10393,"logger":10394,"Ġopera":10395,"Ġ{\"":10396,"aired":10397,"ĠChampions":10398,"Ġboost":10399,"ĠPay":10400,"Education":10401,"rama":10402,"Ġvoted":10403,"Football":10404,"Ġphen":10405,"ĠLam":10406,"ĠPrix":10407,"ĠPhill":10408,"Mult":10409,"ĠTs":10410,"limit":10411,"oni":10412,"Ġceremony":10413,"ikh":10414,"1904":10415,"arma":10416,"Scale":10417,"ONG":10418,"ĠArchitect":10419,"Fin":10420,"Layer":10421,"Ġpit":10422,"ĠStew":10423,"anny":10424,"ĠLanguage":10425,"para":10426,"ivated":10427,"Ġsetup":10428,"Ġtx":10429,"utral":10430,"ĠLear":10431,"Ġindicate":10432,"ÑģÑĤ":10433,"Ġmetres":10434,"Ġimplemented":10435,"nold":10436,"Ġintroduction":10437,"itics":10438,"Import":10439,"forcement":10440,"Ġfounding":10441,"Ġbringing":10442,"Ġspaces":10443,"Ġrg":10444,"transl":10445,"Repository":10446,"ĠDave":10447,"ÅŁ":10448,"ĠIT":10449,"Execut":10450,"ĠTerm":10451,"125":10452,"Ġseeing":10453,"design":10454,"ĠĠĠĠĠĠĠĠĠĠĠĠĠĠĠĠĠĠĠĠĠĠĠĠĠĠĠĠĠ":10455,"HTTP":10456,"Ġconstra":10457,"abric":10458,"tsd":10459,"Ġwaiting":10460,"Ġaccounts":10461,"Ġvision":10462,"ĠPhot":10463,"Ġbrown":10464,"Ġdrawn":10465,"ĠjQuery":10466,"Ġcoron":10467,"Ġadvice":10468,"owntown":10469,"Ġsnow":10470,"Ġ${":10471,"Ġhistorian":10472,"ĠOnline":10473,"ĠAgency":10474,"lon":10475,"Ġcharged":10476,"Ġprime":10477,"ĠTreat":10478,"ĠLandroid":10479,"ĠPortuguese":10480,"ĠRound":10481,"HER":10482,"Ġresolution":10483,"subs":10484,"Ġclients":10485,"Ġsurpr":10486,"Ġdelivery":10487,"orer":10488,"enabled":10489,"Ġrestaurant":10490,"ĠNCAA":10491,"Under":10492,"ĠNext":10493,"uh":10494,"Ġstands":10495,"Ġsoccer":10496,"ĠSwiss":10497,"shared":10498,"Ġcenturies":10499,"trigger":10500,"mac":10501,"NOT":10502,"ĠSoc":10503,"enses":10504,"Ġaw":10505,"Ġethnic":10506,"Ġsportspeople":10507,"shop":10508,"special":10509,"GBT":10510,"Ġlogger":10511,"ĠPA":10512,"Role":10513,"ĠAmong":10514,"ĠStandard":10515,"=\"${":10516,"olished":10517,"Ġpartial":10518,"Ġhits":10519,"inces":10520,"ĠNAS":10521,"Ġrevolution":10522,"Ġtack":10523,"Ġsum":10524,"door":10525,"Ġfee":10526,"Ġdisestabl":10527,"ĠCase":10528,"prev":10529,"ĠHonor":10530,"Ġcomfort":10531,"xi":10532,"ĠBillboard":10533,"aire":10534,"Ġrival":10535,"Ġtouchdown":10536,"Password":10537,"Ġip":10538,"Ġchurches":10539,"Ġdegrees":10540,"Ġrating":10541,"Ġwarning":10542,"ĠDetroit":10543,"osure":10544,"Ġcommissioned":10545,"refect":10546,"ĠCow":10547,"ĠMississippi":10548,"Ġrecommended":10549,"fd":10550,"ĠDak":10551,"ĠGordon":10552,"Ġdismiss":10553,"oust":10554,"Ġexplained":10555,"Ġfavorite":10556,"ĠRab":10557,"Ġcricket":10558,"odox":10559,"rategy":10560,"Ġjoining":10561,"ĠArgentina":10562,"inburgh":10563,"putation":10564,"ĠPalest":10565,"ĠIsraeli":10566,"ĠEU":10567,"ellite":10568,"ĠGirl":10569,"hematics":10570,"ulating":10571,"Ġmetadata":10572,"Notable":10573,"Ġreaction":10574,"edding":10575,"Ġfoundation":10576,"ĠAntonio":10577,"ĉĉĉĉĉĉĉĉĉ":10578,"Ġcreative":10579,"Ġexerc":10580,"intend":10581,"since":10582,"eland":10583,"ugs":10584,"apolis":10585,"igious":10586,"Dat":10587,"Ġqueue":10588,"Ġmir":10589,"Ġplane":10590,"ĠSearch":10591,"ĠWalker":10592,"how":10593,"yers":10594,"arc":10595,"Ġspan":10596,"users":10597,"Ġtennis":10598,"Ġlaid":10599,"results":10600,"Ġshares":10601,"Ġlinear":10602,"ĠAT":10603,"ĠLas":10604,"oval":10605,"Ġteachers":10606,"ingly":10607,"Ġteen":10608,"Ġstreets":10609,"detail":10610,"ĠAtlanta":10611,"ĠStudios":10612,"USE":10613,"ĠFarm":10614,"FFFF":10615,"execute":10616,"Club":10617,"ĠPed":10618,"Ġroutes":10619,"Ġmaintained":10620,"ĠMayor":10621,"Ġglob":10622,"tar":10623,"napshot":10624,"Ġheavily":10625,"itable":10626,"Ġsevere":10627,"ĠBan":10628,"ĠOperation":10629,"Ġunc":10630,"ĠBowl":10631,"Ġconfirm":10632,"library":10633,"imore":10634,"ĠVin":10635,"Ġwish":10636,"ĠDVD":10637,"Ġtrained":10638,"Ġproducing":10639,"Ġexpos":10640,"Ġcourses":10641,"Ġlegislation":10642,"SCRIPT":10643,"Ġheaders":10644,"Ġsole":10645,"ographical":10646,"rÃ©":10647,"Ġparticipate":10648,"1901":10649,"Ġ[],":10650,"Ġpredict":10651,"Pers":10652,"Children":10653,"Ġreserved":10654,"leveland":10655,"Ġaspects":10656,"Ġ\"-":10657,"ĠĠĠĠĠĠĠĠĠĠĠĠĠĠĠĠĠĠĠĠĠĠĠĠĠĠ":10658,"Report":10659,"Ġ'<":10660,"ĠIslam":10661,"erial":10662,"ĠVillage":10663,"Military":10664,"arsed":10665,"Ġsuggests":10666,"ĠWolf":10667,"()</":10668,"ĠAdvent":10669,"Language":10670,"Ġvictims":10671,"bus":10672,"Ġbanks":10673,"Ġconversion":10674,"Agent":10675,"ĠChem":10676,"angers":10677,"ĠSection":10678,"ĠAC":10679,"Vill":10680,"ĠHTTP":10681,"Ġencounter":10682,"RT":10683,"verter":10684,"username":10685,"ĠTaiwan":10686,"Ġfleet":10687,"typedef":10688,"Ġstuff":10689,"storage":10690,"Ġindependence":10691,"Ġdetailed":10692,"ĠUI":10693,"Ġbands":10694,"anging":10695,"rele":10696,"tsburgh":10697,"Ġtopic":10698,"Ġancest":10699,"(__":10700,"Ġ{{":10701,"Ġmanage":10702,"Ġrejected":10703,"Ġstret":10704,"ĠNag":10705,"Ġprompt":10706,"navList":10707,"Ġentrance":10708,"nia":10709,"Ġmine":10710,"Ġplatforms":10711,"complete":10712,"ĠGarden":10713,"wen":10714,"III":10715,"ĠBattalion":10716,"Ã´":10717,"Ġlit":10718,"uscript":10719,"Ġbirds":10720,"Register":10721,"Comment":10722,"ĠPur":10723,"Ġclearly":10724,"Ġgrade":10725,"esome":10726,"1903":10727,"ĠPortugal":10728,"ĠAlan":10729,"Ġbehavi":10730,"ols":10731,"Ġintent":10732,"done":10733,"Europe":10734,"job":10735,"egas":10736,"ĠNAME":10737,"ĠDublin":10738,"dialog":10739,"Ġsoutheast":10740,"Ġ],":10741,"Resources":10742,"Ð°Ð½":10743,"mouth":10744,"ĠVar":10745,"IGHT":10746,"eron":10747,"Ġabandoned":10748,"Ġpartners":10749,"Ġtypical":10750,"ĠBelgium":10751,"ĠSite":10752,"Ġhun":10753,"viously":10754,"ĠSQL":10755,"ĠNaval":10756,"East":10757,"ĠRoberts":10758,"Ġinaug":10759,"ĠKaz":10760,"Ġcouldn":10761,"Symfony":10762,"Ġreserve":10763,"Ġmanner":10764,"Ġfired":10765,"Ġinhabit":10766,"about":10767,"Ġselling":10768,"Ġpeak":10769,"ĠLib":10770,"Make":10771,"iffer":10772,"ĠNob":10773,"Ð¾Ð²":10774,"ĠProperty":10775,"UD":10776,"opes":10777,"decl":10778,".<":10779,"mediate":10780,"ĠDouglas":10781,"180":10782,"'));":10783,"sson":10784,"Ġanimated":10785,"Ġtemporary":10786,"Multi":10787,"Ĥ¬":10788,"ilk":10789,"Ġmouth":10790,"ĠKer":10791,"ĠCroat":10792,"Ġvaccine":10793,"Ġmys":10794,"âĢ¢":10795,"ĠPope":10796,"Support":10797,"Ġcards":10798,"ĠEconomic":10799,"ĠIss":10800,"ĠQuebec":10801,"apsed":10802,"iop":10803,"ndef":10804,"Ġmal":10805,"ĠIE":10806,"Ġcompletion":10807,"shal":10808,"Wrapper":10809,"Ġmovies":10810,"Player":10811,"ĠChange":10812,"Ġnetworks":10813,"acts":10814,"Ġopposite":10815,"Ġpup":10816,"Sem":10817,"Ġfiled":10818,"ĠBus":10819,"icenses":10820,"ĠExper":10821,"Ġcompete":10822,"rite":10823,"ĠUl":10824,"Ġentries":10825,"ĠLouisiana":10826,"Ġconvent":10827,"Ġoccupied":10828,"Headers":10829,"Ãł":10830,"Ġloaded":10831,"ĠEarly":10832,"=\"$":10833,"Help":10834,"invalid":10835,"1902":10836,"Ġproved":10837,"Ġestablishment":10838,"Ġsubjects":10839,"Ġreaching":10840,"uction":10841,"Ġmidfield":10842,"San":10843,"pub":10844,"avia":10845,"isting":10846,"Born":10847,"chain":10848,"former":10849,"Find":10850,"ĠKnow":10851,"ĠHills":10852,"Ġdestination":10853,"ĠAle":10854,"Sequence":10855,"\"/":10856,"ĠFern":10857,"ĠCemetery":10858,"ĠEver":10859,"Ġindicates":10860,"oria":10861,"CF":10862,"symbol":10863,"RES":10864,"Ġassistance":10865,"Major":10866,"Ñĩ":10867,"ctic":10868,"ĠHockey":10869,"ĠSel":10870,"xs":10871,"Coll":10872,"URI":10873,"ĠAlber":10874,"hy":10875,"Ġdocumentation":10876,"1880":10877,"Rober":10878,"ĠCook":10879,"&&":10880,"Ġflying":10881,"Ġconsisted":10882,"Ġdiagn":10883,"ĠCapital":10884,"Ġstyles":10885,"ALSE":10886,"ACT":10887,"Ġboys":10888,"prene":10889,"Props":10890,"ĠDenmark":10891,"Ġconsumer":10892,"Ġwave":10893,"Ġchair":10894,"arest":10895,"Ġcontents":10896,"Ġliqu":10897,"ĠØ":10898,"Ġ=======":10899,"Ġ?>":10900,"aco":10901,"Ġassault":10902,"closed":10903,"issance":10904,"erse":10905,"Ġvary":10906,"ĠMcK":10907,"TRUE":10908,"shadow":10909,"JS":10910,"single":10911,"Ġstadium":10912,"ĠDog":10913,"ibl":10914,"cing":10915,"Ġcontributions":10916,"Ġreplacement":10917,"Ġcomposition":10918,"irds":10919,"Ġcash":10920,"Ġcomic":10921,"Ġfeeling":10922,"TIME":10923,"ĠAbb":10924,"ĠTerrit":10925,"Mount":10926,"ĠOrchestra":10927,"outer":10928,"BB":10929,"ĠRefer":10930,"atur":10931,"Ġtries":10932,"ĠHarvard":10933,"jango":10934,"fold":10935,"video":10936,"Ġsed":10937,"Ġwheel":10938,"ĠEmer":10939,"clean":10940,"olph":10941,"Ġaccommod":10942,"However":10943,")->":10944,"aze":10945,"Ġassets":10946,"bridge":10947,"atherine":10948,"FIG":10949,"Ġcolour":10950,"endment":10951,"Ġchose":10952,"ĠThus":10953,"ajax":10954,"Ġrelationships":10955,"Ġdiscussion":10956,"Ġurg":10957,"Former":10958,"Bound":10959,"azy":10960,"Ġpublish":10961,"Rich":10962,"Div":10963,"reprene":10964,"atever":10965,"collapse":10966,"Ġagencies":10967,"ĠWhy":10968,"Publ":10969,"away":10970,"Domain":10971,"ĠRoc":10972,"Ġfinishing":10973,"Ġconcluded":10974,"Ġtalking":10975,"Ġgather":10976,"ĠDean":10977,"ĠBrigade":10978,"Framework":10979,"ĠArmen":10980,"ĠTar":10981,"Ġspend":10982,"Ġpassenger":10983,"(-":10984,"cheme":10985,"iverpool":10986,"Ġvariant":10987,"ĠIndonesia":10988,"Ġchampions":10989,"Ġpaintings":10990,"compiler":10991,"Ġwindows":10992,"possible":10993,"Ġcraft":10994,"Ã«":10995,"Ġdrag":10996,"Delegate":10997,"ĠJuan":10998,"details":10999,"anton":11000,"ĠTag":11001,"maven":11002,"Ġsympt":11003,"Private":11004,"Ġswe":11005,"tbody":11006,"Ġpreced":11007,"ĠKelly":11008,"Ġmassive":11009,"ĠOS":11010,"Ġpublications":11011,"March":11012,"uted":11013,"Ġparallel":11014,"ige":11015,"ĠSystems":11016,"Sur":11017,"Ġalert":11018,"Ġparticipants":11019,"ailand":11020,"Ġregularly":11021,"lix":11022,"Dictionary":11023,"Mus":11024,"James":11025,"leges":11026,"ĠReserve":11027,"Character":11028,"Ġdebate":11029,"Ġhearing":11030,"iliar":11031,"ĠSn":11032,"assembly":11033,"á»":11034,"ĠLiberal":11035,"ĠBull":11036,"Pod":11037,"profit":11038,"uble":11039,"folio":11040,"yll":11041,"Ġplanet":11042,"hibition":11043,"exists":11044,"?>":11045,"Ġrooms":11046,"Ġrelation":11047,"ĠWatch":11048,"Ġengines":11049,"Ġdepict":11050,"ĠCra":11051,"uating":11052,"ĠSud":11053,"Ġmining":11054,"PH":11055,"Ġjunior":11056,"bara":11057,"Ġui":11058,"Let":11059,"\"><!--":11060,"Ġroads":11061,"axis":11062,"ULE":11063,"iveness":11064,"Ġmig":11065,"boost":11066,"('.":11067,"Ġforeach":11068,"Fixture":11069,"owner":11070,"lass":11071,"Ġassign":11072,"Ġoccas":11073,"Ġvul":11074,"EST":11075,"ambda":11076,"ĠMorgan":11077,"Ġstood":11078,"ĠJacob":11079,"Ġinterior":11080,"ĠSeattle":11081,"Ġscroll":11082,"allclasses":11083,"Ġevolution":11084,"ĠAbd":11085,"Trace":11086,"ĠIndependent":11087,"Ġhighway":11088,"ĠMaur":11089,"Ġinfluenced":11090,"Ġduration":11091,"BP":11092,"ellect":11093,"ĠRace":11094,"ĠIron":11095,"ĠUtah":11096,"ĠLaure":11097,"Ġcompilation":11098,"Mill":11099,"Free":11100,"ĠBrazilian":11101,"Ġmedicine":11102,"Ġton":11103,"isition":11104,"finals":11105,"ĠTR":11106,"Ġprices":11107,"Ġorient":11108,"Mal":11109,"ĠReact":11110,"Ġpassengers":11111,"amo":11112,"Ġvir":11113,"Ġanth":11114,";\"|":11115,"parser":11116,"provider":11117,"Ġhired":11118,"Ġacknow":11119,"Ġtransparent":11120,"{%":11121,"ĠMalaysia":11122,"Ġdeput":11123,"ĠDefense":11124,"tection":11125,"OB":11126,"login":11127,"Ġlose":11128,"Ġproxy":11129,"ĠHug":11130,"Syntax":11131,"ishment":11132,"Enter":11133,"ENSE":11134,"3333":11135,"marks":11136,"loom":11137,"Organ":11138,"Ġessential":11139,"Ġcro":11140,"Academ":11141,"Ġatmosph":11142,"Ġbacking":11143,"ĠEdinburgh":11144,"ĠFuture":11145,";}":11146,"EV":11147,"svg":11148,"Ġfrequency":11149,"dp":11150,"ifdef":11151,"Paul":11152,"rays":11153,"Å¾":11154,"rin":11155,"![":11156,"Ġparser":11157,"onymous":11158,"Ġmaybe":11159,"Ġarmed":11160,"ulus":11161,"/_":11162,"Ġwaters":11163,",'":11164,"ĠLawrence":11165,"inations":11166,"ĠSamuel":11167,"Ġargued":11168,"ĠHttp":11169,"Ġundert":11170,"Ġresearchers":11171,"Ġnick":11172,"Ġdies":11173,"ĠContin":11174,"ducer":11175,"August":11176,"Ġownership":11177,"Len":11178,"ĠFM":11179,"Ġrunner":11180,"Ġreign":11181,"Ġlocomot":11182,"ynamic":11183,"ĠTig":11184,"anim":11185,"Ġknock":11186,"Ġaccompl":11187,"colLast":11188,"Ġpione":11189,"alyt":11190,"ĠPuerto":11191,"ĠDNA":11192,"ummy":11193,"Stats":11194,"Ġratio":11195,"leton":11196,"ĠHistorical":11197,"ĠHop":11198,"Ġtmp":11199,"TEXT":11200,"ĠGa":11201,"wp":11202,"mers":11203,"depth":11204,"amazon":11205,"urers":11206,"Ġphotos":11207,"Ġsecretary":11208,"Ġuniform":11209,"uations":11210,"Ġstages":11211,"Ġgraduate":11212,"cribed":11213,"Ġcapable":11214,"Ġvisitors":11215,"Ġdecisions":11216,"Ġduty":11217,"ndered":11218,"ĠExpl":11219,"Ġtemp":11220,"Ġadvis":11221,"Ġprize":11222,"odge":11223,"errors":11224,"Sing":11225,"aho":11226,"ĠPun":11227,"rak":11228,"ĠColomb":11229,"Roman":11230,"Ġpayment":11231,"ĠYears":11232,"pu":11233,"Ġnegoti":11234,"ayan":11235,"died":11236,"Ġcrash":11237,"Ġedited":11238,"ĠRick":11239,"unique":11240,"ĠAustin":11241,"ĠHoll":11242,"redited":11243,"ĠScient":11244,"parameters":11245,"ĠVolume":11246,"ĠRussell":11247,"Ġsamples":11248,"Ġmaint":11249,"ĠCP":11250,"ibraries":11251,"Ġseparated":11252,"asp":11253,"Selection":11254,"generated":11255,"Ġles":11256,"Ġsynd":11257,"Ġtimeout":11258,"orus":11259,"ceptor":11260,"Cloud":11261,"aware":11262,"rupted":11263,"Reception":11264,"ĠOd":11265,"ĠOrth":11266,"stitute":11267,"Math":11268,"assandra":11269,"agnostic":11270,"ĠPeters":11271,"(@":11272,"Ġdesigner":11273,"Ġtranslated":11274,"Ġwrites":11275,"Official":11276,"Ġactresses":11277,"Ġdepending":11278,"Why":11279,"Tx":11280,"owed":11281,"ĠYan":11282,"ĠDanish":11283,"Ġkeeping":11284,"overty":11285,"Ġidx":11286,"father":11287,"ymp":11288,"Ġ$.":11289,"when":11290,"indexOf":11291,"Ġsteam":11292,"ocaml":11293,"ĠAnna":11294,"article":11295,"LL":11296,"glyph":11297,"Ġrefuge":11298,"Expatriate":11299,"ĠLead":11300,"colFirst":11301,"Ġmanufacturing":11302,"Ġexceed":11303,"Ġdisappe":11304,"Pair":11305,"Ġaxis":11306,"ĠAgric":11307,"borough":11308,"Ġcollections":11309,"ĠPeace":11310,"Ġtested":11311,"isations":11312,"Ġclock":11313,"Ġcler":11314,"ĠPalace":11315,"exec":11316,"Ġdesigns":11317,"hu":11318,"emon":11319,"ĠBart":11320,"ĠGon":11321,"ĠBush":11322,"Ġchapter":11323,"ĠSarah":11324,"DEFAULT":11325,"omas":11326,"Ġbin":11327,"Ġhosts":11328,"Install":11329,"fb":11330,"Ġcancel":11331,"Ġå":11332,"enezuel":11333,"timeout":11334,"Ġappeal":11335,"Ġdynamic":11336,"ĠTraining":11337,"Ġspl":11338,"ĠPack":11339,"Ġdefensive":11340,"ITION":11341,"ĠMission":11342,"ilst":11343,"Ġthanks":11344,"cohol":11345,"hus":11346,"FM":11347,"POST":11348,"layer":11349,"('/":11350,"Ġentertainment":11351,"keep":11352,"1898":11353,"ĠANY":11354,"ĠLOG":11355,"Ġmembership":11356,"orient":11357,"bel":11358,"azines":11359,"ĠLang":11360,"ployment":11361,"Ġvirt":11362,"Ġphilosophy":11363,"ĠPas":11364,"Works":11365,"Ä«":11366,"Ġ(+":11367,"Ġsending":11368,"sha":11369,"Ġpromise":11370,"Ġexecute":11371,"optional":11372,"eq":11373,"Ġaccompan":11374,"Native":11375,"Ġsudden":11376,"Ġru":11377,"ĠRight":11378,"onomy":11379,"ĠPap":11380,"Ġislands":11381,"Stud":11382,"Sch":11383,"eval":11384,"Look":11385,"ĠChairman":11386,"Ġnp":11387,"emen":11388,"FLA":11389,"izz":11390,"Ð¿":11391,"resources":11392,"ĠNep":11393,"BAR":11394,"BL":11395,"rule":11396,"ruby":11397,"feature":11398,"Summary":11399,"ĠDue":11400,"Ġrub":11401,"130":11402,"ĠKings":11403,"inf":11404,"Week":11405,"async":11406,"Ġstating":11407,"required":11408,"springframework":11409,"Ġadmitted":11410,"ĠBangladesh":11411,"ĠApache":11412,"ĠOpera":11413,"Ġing":11414,"ÏĦ":11415,"Ġnullptr":11416,"sea":11417,"boards":11418,"release":11419,"who":11420,"ĠĠĠĠĠĠĠĠĠĠĠĠĠĠĠĠĠĠĠĠĠĠĠĠĠĠĠĠĠĠĠĠĠĠĠĠĠĠĠĠĠĠĠĠĠĠĠĠĠĠĠĠĠĠĠĠĠĠĠĠĠĠĠĠ":11421,"ĠImperial":11422,"istence":11423,"ĠObserv":11424,"esian":11425,"amental":11426,"VM":11427,"Ġinternet":11428,"ĠFinland":11429,"pull":11430,"zz":11431,"quir":11432,"ĠAuthority":11433,"Compiler":11434,"Ġbreed":11435,"Ġmart":11436,"eting":11437,"Ġinvasion":11438,"uki":11439,"ĠASSERT":11440,"Ġreporting":11441,"Ġfranchise":11442,"Ġextend":11443,"ĠEdition":11444,"ĠPublishing":11445,"Uri":11446,"Named":11447,"ERS":11448,"ĠObama":11449,"FE":11450,"Ġmurd":11451,"apters":11452,"ĠOm":11453,"ranches":11454,"Ġham":11455,"Ġpregn":11456,"Ġsinging":11457,"Ġgrass":11458,"raud":11459,"ĠWorks":11460,"flu":11461,"ÙĦ":11462,"Ġkit":11463,"ĠFight":11464,"enable":11465,"Ġdebug":11466,"ounsel":11467,"Environment":11468,"rock":11469,"ĠPut":11470,"Ġanniversary":11471,"Ġ\\\"":11472,"Bet":11473,"ĠPlease":11474,"eli":11475,"ĠKit":11476,"NN":11477,"Ġ[\"":11478,"Connect":11479,"April":11480,"Ġspending":11481,"Ġexplan":11482,"ĠTrade":11483,"gov":11484,"essed":11485,"ĠGran":11486,"ĠEff":11487,"ĠNigeria":11488,";\">":11489,"Ġinsurance":11490,"ĠMO":11491,"orses":11492,"Ġproducers":11493,"ĠSac":11494,"anian":11495,"June":11496,"Ġplugin":11497,"ĠBuddh":11498,"ntil":11499,"Ġruled":11500,"Ġgarden":11501,"ĠLanc":11502,"ĠArkansas":11503,"testing":11504,"CTYPE":11505,"Here":11506,"Ġincorporated":11507,"Ġindicated":11508,"Ġplate":11509,"Ġpriority":11510,"million":11511,"ĠBruce":11512,"Ġlands":11513,"Ġmail":11514,"expr":11515,"iast":11516,"('#":11517,"typen":11518,"Ġconsisting":11519,"eros":11520,"ĠĠĠĠĠĠĠĠĠĠĠĠĠĠĠĠĊ":11521,"Subs":11522,"ĠAlliance":11523,"ĠCore":11524,"Ġdepos":11525,"arrier":11526,"rating":11527,"Ġongoing":11528,"orted":11529,"blank":11530,"ĠGirls":11531,"ĠNatural":11532,"Ġuniversities":11533,"ĠLimited":11534,"Interval":11535,"warning":11536,"Ġathletes":11537,"Ġtasks":11538,"moz":11539,"CRE":11540,"repe":11541,"ĠTamil":11542,"ĠShah":11543,"temp":11544,"1899":11545,"DateTime":11546,"Ġaddresses":11547,"loader":11548,"Old":11549,"caption":11550,"rieve":11551,"æľ":11552,"Histor":11553,"Ġgrounds":11554,"nest":11555,"ĠMichel":11556,"ĠStewart":11557,"Ġassumed":11558,"ĠDallas":11559,"ĠFig":11560,"ĠFrederick":11561,"bassador":11562,"Ġexplos":11563,"ĠLieutenant":11564,"Ġwine":11565,"REQ":11566,"ĠSchools":11567,"tests":11568,"****************************************************************":11569,"Ġimpress":11570,"1870":11571,"Ġknows":11572,"ĠDelhi":11573,"Ġtank":11574,"Ġseemed":11575,"fc":11576,"helper":11577,"ĠFive":11578,"Ġadapted":11579,"Ġscen":11580,"iah":11581,"Ġpure":11582,"Japanese":11583,"ĠDance":11584,"ĠÃī":11585,"ĠPear":11586,"Ġ''":11587,"iche":11588,"ashi":11589,"Ġcoq":11590,"Ġaren":11591,"ulp":11592,"Ġrgba":11593,"Ġextent":11594,"Ġcertainly":11595,"Ġha":11596,"Ġsigning":11597,"ersh":11598,"ĠDub":11599,"ĠWard":11600,"ceive":11601,"views":11602,"Ġpercentage":11603,"Returns":11604,"collection":11605,"ĠPrad":11606,"ouver":11607,"Ġmarine":11608,"irates":11609,"Ġsigns":11610,"Ġconcerned":11611,"Ġupdates":11612,"cos":11613,"gments":11614,"ĠManager":11615,"Ġsoil":11616,"ĠCole":11617,"Where":11618,"Ġcovering":11619,"ĠFind":11620,"WORD":11621,"oca":11622,"Py":11623,"ĠWebsite":11624,"opsis":11625,"Ġcorporate":11626,"Ġcrowd":11627,")/":11628,"Ġveget":11629,"Ġdial":11630,"LOCK":11631,"Buildings":11632,"Ġgang":11633,"typename":11634,"Ġelig":11635,"Ġsubt":11636,".\",":11637,"Ġpublishing":11638,"ĠMean":11639,"ĠĠĠĠĠĠĠĠĠĠĠĠĠĠĠĠĠĠĠĠĠĠĠĠĠĠĠĠ":11640,"ĠHell":11641,"ĠVector":11642,"ĠLegislative":11643,"INTER":11644,"rban":11645,"ĠConstitution":11646,"ju":11647,"proxy":11648,"Ġdisplayed":11649,"Ġmob":11650,"Ġweekly":11651,"lu":11652,"pred":11653,"Ġthick":11654,"Songs":11655,"July":11656,"audi":11657,"ĠPatri":11658,"oviÄĩ":11659,"Ġsolar":11660,"ĠUkrainian":11661,"emplates":11662,"Ġadults":11663,"ĠBed":11664,"ĠBou":11665,"Ġfalls":11666,"REG":11667,"cdn":11668,"two":11669,"flag":11670,"Ġcastle":11671,"Ġcarrying":11672,"Ġabuse":11673,"Ġdrugs":11674,"ĠYe":11675,"Ġstatements":11676,"Ġrelief":11677,"VE":11678,"igate":11679,"Ġincreasingly":11680,"Ġcomparison":11681,"ĠMult":11682,"Endpoint":11683,"ĠConstant":11684,"amps":11685,"Ġefficient":11686,"Overview":11687,"ĠLook":11688,"Email":11689,"Ġoffensive":11690,"oi":11691,"ĠDeputy":11692,"Ġmissed":11693,"Generated":11694,"Ġapplicable":11695,"visible":11696,"Ġtrigger":11697,"tk":11698,"enda":11699,"ĠBeck":11700,"Ġresigned":11701,"Ġcreates":11702,"LINE":11703,"gow":11704,"Real":11705,"Ġtwelve":11706,"ĠAdams":11707,"Another":11708,"ĠPsych":11709,"Ġcatalog":11710,"Ġsounds":11711,"Ġunus":11712,"uer":11713,"checked":11714,"ĠInstead":11715,"ĠNever":11716,"ĠPR":11717,"115":11718,"ĠThailand":11719,"ĠCloud":11720,"ĠON":11721,"sidebar":11722,"Ġresidence":11723,"println":11724,"VALUE":11725,"ĠLane":11726,"Gr":11727,"plays":11728,"ĠMarshall":11729,"orne":11730,"jd":11731,"']['":11732,"Ġtrail":11733,"ï»":11734,"Ġagricultural":11735,"esa":11736,"ĠTech":11737,"Ġclassification":11738,"Ġexcellent":11739,"ĠThompson":11740,"uite":11741,"Ġmilit":11742,"Italian":11743,"Animation":11744,"Ġtechnologies":11745,"tor":11746,"opts":11747,"Every":11748,"dy":11749,"Ġlabels":11750,"Ġspr":11751,"nob":11752,"ĠRoger":11753,"Ġpatterns":11754,"ĠBoys":11755,"ANCE":11756,"Ġrose":11757,"maker":11758,"Wait":11759,"Ġmatching":11760,"appoint":11761,"hensive":11762,"Enumer":11763,"ĠJason":11764,"Ġrein":11765,"Ġrecordings":11766,"Ġcharset":11767,"inian":11768,"Ġtall":11769,"Ġlang":11770,"Phone":11771,"Ġcrypt":11772,"1895":11773,"Ġmoth":11774,"ilters":11775,"ĠMontreal":11776,"ĠArrayList":11777,"ĠWright":11778,"Ġheads":11779,"Î¹":11780,"Mc":11781,"Ġtechnique":11782,"Ġillegal":11783,"once":11784,"Ġrows":11785,"ĠValid":11786,"Ġfest":11787,"Ġhundreds":11788,"Ġapproval":11789,"Ġregarded":11790,"ĠKnight":11791,"ĠProm":11792,"Ġposts":11793,"Ġproposal":11794,"Fragment":11795,"Ġbon":11796,"ĠABC":11797,"Visible":11798,"iest":11799,"Bind":11800,"()))":11801,"Ġresolve":11802,"Ġwire":11803,"Ġverify":11804,"ĠVik":11805,"Ġworker":11806,"Ġproof":11807,"Capt":11808,"Ġsharing":11809,"City":11810,"ĠSmall":11811,"ĠMPs":11812,"report":11813,"Ġvoting":11814,"Ġlandscape":11815,"FORM":11816,"random":11817,"ĠMars":11818,"leans":11819,"ĠRugby":11820,"rons":11821,"ĠCooper":11822,"supported":11823,"Ġshel":11824,"Ġincorpor":11825,"ĠCampbell":11826,"asa":11827,"Ġadvertising":11828,"PY":11829,"1896":11830,"ĠFel":11831,"METH":11832,"ĠResponse":11833,"Ġseeking":11834,"Ġmaintenance":11835,"pattern":11836,"uable":11837,"ĠKon":11838,"lik":11839,"ste":11840,"PER":11841,"Ġpapers":11842,"Ġheaded":11843,"ĠLiverpool":11844,"Ġcategories":11845,"dc":11846,"ĠBuck":11847,"ĠCleveland":11848,"ĠCensus":11849,"ĠDemocrats":11850,"EEEE":11851,"changed":11852,"Ġinhabitants":11853,"undefined":11854,"iot":11855,"ĠTrail":11856,"rent":11857,"Ids":11858,"October":11859,"Ġbes":11860,"Ġeffectively":11861,"Ġtropical":11862,"Ġignore":11863,"story":11864,"Ġ>>":11865,"Ġris":11866,"Ġcompre":11867,"Ġcolle":11868,"Ali":11869,"roph":11870,"swarm":11871,"Feb":11872,"DIS":11873,"election":11874,"Encoded":11875,"week":11876,"ĠChristopher":11877,"SM":11878,"Ġeat":11879,"ĠNash":11880,"Ġbench":11881,"ĠCommander":11882,"ĠEditor":11883,"ĠKennedy":11884,"Ġbright":11885,"ĠChampion":11886,"ĠWoman":11887,"Scott":11888,"ĠMD":11889,"ĠChamber":11890,"wildfly":11891,"Ġrevenue":11892,"irmingham":11893,"rary":11894,"hill":11895,"orro":11896,"ĠFOR":11897,"Ġmoves":11898,"ifndef":11899,"\\/":11900,"Ġsufficient":11901,"ishops":11902,"castle":11903,"Ġspoke":11904,"Ġorganisation":11905,"ĠðŁ":11906,"obby":11907,"Ġagents":11908,"oenix":11909,"numerus":11910,"tery":11911,"Ġtargets":11912,"Ġadjacent":11913,"numerusform":11914,"Ġarchae":11915,"(\"/":11916,"ĠHold":11917,"Ġscholars":11918,"ĠTrack":11919,"incorporated":11920,"Ġexped":11921,"ĠMargaret":11922,"Ġshock":11923,"January":11924,"ĠFROM":11925,"Ġprops":11926,"Ġpraised":11927,"eveloper":11928,"INS":11929,"agent":11930,"fish":11931,"flex":11932,"=>":11933,"ĠRan":11934,"Ġfacing":11935,"Card":11936,"ovo":11937,"ĠFal":11938,"Liter":11939,"initely":11940,"ÃŃn":11941,"ominations":11942,"song":11943,"sys":11944,"Flow":11945,"Ign":11946,"Ġdiscovery":11947,"Ġmoder":11948,"eric":11949,"Program":11950,"Ġremark":11951,"Ġrecovery":11952,"country":11953,"circ":11954,"ĠOrganization":11955,"ĠTree":11956,"sters":11957,"Ġarrival":11958,"1897":11959,"Ġbriefly":11960,"ĠStudio":11961,"selector":11962,"perm":11963,"bers":11964,"ĠBetween":11965,"ĠCrown":11966,"Ġax":11967,"ĠHend":11968,"ĠWelsh":11969,"Ġfemin":11970,"Ġimmediate":11971,"irms":11972,"Ġseventh":11973,"ä»":11974,"Ġheritage":11975,"OM":11976,"ï»¿":11977,"ĠMotor":11978,"ĠInput":11979,"hl":11980,"ĠProp":11981,"itis":11982,"Ġcoff":11983,"ogue":11984,"Ġreception":11985,"Compar":11986,"lights":11987,"Eff":11988,"Pal":11989,"ateway":11990,"webpack":11991,"appy":11992,"Ġinjuries":11993,"Ġwatching":11994,"Ġdynasty":11995,"abil":11996,"ĠNelson":11997,"hatt":11998,"udes":11999,"Ġcrown":12000,"{\"":12001,"Ġhandling":12002,"Ġfat":12003,"ĠMetro":12004,"USER":12005,"ELD":12006,"Ġhappens":12007,"istical":12008,"Ġhill":12009,"Join":12010,"cht":12011,"ĠPittsburgh":12012,"Medal":12013,"Ġresidential":12014,"Ġ..":12015,"Ġcontrols":12016,"onom":12017,"IMP":12018,"ĠHit":12019,"hour":12020,"signature":12021,"Ke":12022,"Ġeasier":12023,"Ġresign":12024,"Original":12025,"Ġinstances":12026,"ĠPrivate":12027,"ĠJenn":12028,"Ġemp":12029,"Ġadm":12030,"Ġcourts":12031,"Ġinstitution":12032,"Master":12033,"Methods":12034,"ocity":12035,"ĠBaltimore":12036,"ĠRio":12037,"expect":12038,"nodes":12039,"orce":12040,"ailability":12041,"...</":12042,"\"\"\"":12043,"ĠJudge":12044,"Ġwww":12045,"Ġtalent":12046,"Ġexposed":12047,"Fr":12048,"Ġobs":12049,"Ġmatters":12050,"news":12051,"ĠDouble":12052,"September":12053,"ĠMarie":12054,"ĠUlt":12055,"ĠMaine":12056,"fortun":12057,"Ġfold":12058,"constructor":12059,"lied":12060,"ĠTrad":12061,"Ġgrown":12062,"Ġinstruments":12063,"eded":12064,"ĠEss":12065,"Ġdrawing":12066,"lia":12067,"tha":12068,"lett":12069,"Ġprepare":12070,"igins":12071,"Ġdating":12072,"ĠMountains":12073,"ipher":12074,"ĠCEL":12075,"Ġtheore":12076,"Ġflu":12077,"urst":12078,"School":12079,"ĠLINE":12080,"xhtml":12081,"Ġbinary":12082,"ĠKan":12083,"prec":12084,"blast":12085,"DEBUG":12086,"extension":12087,"Ġconcrete":12088,"uis":12089,"ĠMort":12090,"DOCTYPE":12091,"Ġprovision":12092,"Ġearliest":12093,"Ġcloser":12094,"Michael":12095,"Bal":12096,"Ġbear":12097,"Ġouter":12098,"Ġboundary":12099,"dale":12100,"ĠHampshire":12101,"Ġlistener":12102,"otation":12103,"Ġinstruction":12104,"nik":12105,"Ġtrading":12106,"Ġreset":12107,"ĠAustrian":12108,"Ġtopics":12109,"fx":12110,"PM":12111,"inea":12112,"Ġmyth":12113,"checkbox":12114,"ĠGrad":12115,"Ġstrongly":12116,"Ġ\"$":12117,"Ã³w":12118,"igo":12119,"ranean":12120,"........":12121,"December":12122,"Ġmeters":12123,"Like":12124,"Ġbind":12125,"Ġfake":12126,"iri":12127,"ĠassertThat":12128,"runtime":12129,"Russian":12130,"ktop":12131,"heduler":12132,"Ġvel":12133,"Ġhorror":12134,"ĠCommunist":12135,"ĠRobinson":12136,"ĠRap":12137,"asi":12138,"Save":12139,"ĠWIT":12140,"Ġtranslate":12141,"DR":12142,"EP":12143,"istration":12144,"Ð·":12145,"Ġstable":12146,"Ġpassion":12147,"sch":12148,"ĠDie":12149,"Ġtub":12150,"icious":12151,"slice":12152,"Ãª":12153,"python":12154,"blog":12155,"ea":12156,"Ġdamaged":12157,"Ġjudges":12158,"Ġreduction":12159,"ĠBrooklyn":12160,"Notification":12161,"Ġchildhood":12162,"ĠMeg":12163,"Platform":12164,"Ġentering":12165,"Ġlift":12166,"olving":12167,"ĠPad":12168,"aments":12169,"ancouver":12170,"ulum":12171,"ebr":12172,"Ġmouse":12173,"BY":12174,"Ġfruit":12175,"Br":12176,"ĠSenator":12177,"getElement":12178,"Ġtheater":12179,"ospitals":12180,"ividual":12181,"ahn":12182,"Unknown":12183,"ĠFr":12184,"Ġcharacteristics":12185,"works":12186,"ĠMagn":12187,"Ġtied":12188,"Ġsurgery":12189,"ĠBeat":12190,"encer":12191,"ĠKo":12192,"ĠJohann":12193,"Ġenum":12194,"Profess":12195,"PUT":12196,"127":12197,"fare":12198,"Skip":12199,"ĠRequ":12200,"tc":12201,"ĠAccount":12202,"Ġsurvived":12203,"ĠDakota":12204,"ycle":12205,"ĠHungary":12206,"Ġturning":12207,"Ġtyped":12208,"agnostics":12209,"Area":12210,"Ġoperates":12211,"console":12212,"ĠCentury":12213,"pair":12214,"zip":12215,"Ġcmd":12216,"1893":12217,"ĠFried":12218,"will":12219,"ĠCarter":12220,"ĠJosh":12221,"plier":12222,"EEEEFF":12223,"Donald":12224,"Ġvalign":12225,"ĠMetropolitan":12226,"listed":12227,"minute":12228,"ĠMurray":12229,"Ġdetect":12230,"IDTH":12231,"oking":12232,"ellectual":12233,"Ġreleases":12234,"ĠPrincess":12235,"keeper":12236,"Ġnations":12237,"Texture":12238,"1889":12239,"Sat":12240,"Ġlimits":12241,"ĠNBA":12242,"Ñĸ":12243,"TF":12244,"Ġcolors":12245,"prep":12246,"Ġ@\"":12247,"Ġcontinuing":12248,"Villages":12249,"ricket":12250,"ĉĠĠĠĠĠ":12251,"Ġodd":12252,"Production":12253,"Sharp":12254,"ĠArena":12255,"rieved":12256,"ĠJu":12257,"1892":12258,"Ġemployment":12259,"Ġconstituency":12260,"Flag":12261,"Ġyourself":12262,"Ġsees":12263,"Ġmeetings":12264,"ĠNar":12265,"ĠGill":12266,"DATA":12267,"Railway":12268,"Ġconven":12269,"ĠCarib":12270,"ĠMust":12271,"%\"":12272,"Robert":12273,"ĠRailroad":12274,"ĠOri":12275,"geon":12276,"Ġpub":12277,"Ġtransmission":12278,"jamin":12279,"Ġcopyright":12280,"ilarly":12281,"Ġwithdraw":12282,"Ġamb":12283,"Station":12284,"InputStream":12285,"ections":12286,"Ġsymptoms":12287,"objects":12288,"ĠGlas":12289,"Ġsomewhat":12290,"ĠSH":12291,"ĠReform":12292,"hal":12293,"otted":12294,"ĠPlant":12295,"ĠRu":12296,"Ġalgorithm":12297,"Ġacceler":12298,"spir":12299,"Ġ];":12300,"Mr":12301,"Ġmd":12302,"notes":12303,"VP":12304,"Required":12305,"ĠBrothers":12306,"phere":12307,"enz":12308,"Ġguid":12309,"Ġcolonial":12310,"Ġbuf":12311,"casting":12312,"ulu":12313,"1860":12314,"Ġdoubt":12315,"ĠVienna":12316,"prison":12317,"Ġopts":12318,"driver":12319,"November":12320,"np":12321,"Ġspecify":12322,"ĠRy":12323,"ĠMong":12324,"initions":12325,"Ġspeaking":12326,"idency":12327,"ĠOrd":12328,"Î½":12329,"Basic":12330,"Ġstruck":12331,"ordered":12332,"illo":12333,"Ġmeta":12334,"Ġselector":12335,"Ġclar":12336,"Ġmanuscript":12337,"cia":12338,"Ġupload":12339,"rator":12340,"claimed":12341,"oba":12342,"ĠLith":12343,"Ġschema":12344,"Ġgift":12345,"bach":12346,"Ġfriendly":12347,"oga":12348,"Ġnice":12349,"sync":12350,"ĠRural":12351,"Ġbishop":12352,"ĠOrleans":12353,"METHOD":12354,"Ġfragment":12355,"ĠJimmy":12356,"Ġrestrictions":12357,"refecture":12358,"ĠInv":12359,"Ġere":12360,"STRING":12361,"gi":12362,"Ġbaby":12363,"Ġdivisions":12364,"Ġpremiered":12365,"Ġrap":12366,"Once":12367,"ĠStore":12368,"fix":12369,"ĠSD":12370,"Ġlosses":12371,"fixed":12372,"insula":12373,"Ġracial":12374,"Ġty":12375,"Ġrestored":12376,"Light":12377,"ĠClar":12378,"ĠKarl":12379,"Ġperspective":12380,"ivia":12381,"ĠComics":12382,"Dan":12383,"Ġfacilit":12384,"Ġmechanism":12385,"ĠMembers":12386,"mate":12387,"ĠAlfred":12388,"Ġ_,":12389,"ĠWhere":12390,"Microsoft":12391,"puted":12392,"Ġtempor":12393,"RPC":12394,"ĠCatal":12395,"eras":12396,"Ġlat":12397,"aman":12398,"Shape":12399,"æĸ":12400,"gressive":12401,"VALID":12402,"Ġmit":12403,"Information":12404,"Ġenjoyed":12405,"Ġride":12406,"Ġinstruct":12407,"href":12408,"cludes":12409,"Ġwithd":12410,"Ġsoundtrack":12411,"ĠKum":12412,"upt":12413,"ĠÂ»":12414,"ographics":12415,"ĠDim":12416,"IOException":12417,"Ġbrings":12418,"Ġmagic":12419,"Ġcompliance":12420,"Afric":12421,"ORY":12422,"Ġmeets":12423,"Ġjuris":12424,"Ġrecru":12425,"ĠBoolean":12426,"Ġabsor":12427,"clipse":12428,"Ġvast":12429,"ĠGulf":12430,"ĠStream":12431,"Ġillness":12432,"Ġvenues":12433,"Ġguy":12434,"Ġjournalists":12435,"Ġloved":12436,"aha":12437,"PROJECT":12438,"Ġactivist":12439,"1891":12440,"Fig":12441,"Ġdepends":12442,"Ġcited":12443,"ĠER":12444,"Ġsql":12445,"ĠDest":12446,"holders":12447,"Ġcriticism":12448,"Ġexplain":12449,"Ġmyself":12450,"ĠStatus":12451,"Site":12452,"ĠGraham":12453,"ĠSP":12454,"Complete":12455,"Ġdenied":12456,"cussion":12457,"ĠNam":12458,"ĠNation":12459,"Ġclosing":12460,"Ġdecide":12461,"Ġaccompanied":12462,"Ġsurre":12463,"ĠVirtual":12464,"Convert":12465,"Ġdiscipl":12466,"ĠChallenge":12467,"ido":12468,"Ġexercise":12469,"Previous":12470,"Ġsupplied":12471,"Ġhide":12472,"Present":12473,"eva":12474,"andal":12475,"SELECT":12476,"getValue":12477,"Ġmerge":12478,"Ġproport":12479,"Ġ'\\":12480,"ĠRomania":12481,"Ġrailroad":12482,"Ġbid":12483,"volume":12484,"ĠPos":12485,"apos":12486,"ryption":12487,"ĠMatthew":12488,"through":12489,"ĠJosÃ©":12490,"Append":12491,"owski":12492,"ĠChart":12493,"_);":12494,"ĠDescription":12495,"radio":12496,"Ġearn":12497,"Ġsynchron":12498,"destroy":12499,"ĠEND":12500,"Ġrenov":12501,"ĠPortland":12502,"panic":12503,"ographer":12504,"rystal":12505,"commun":12506,"factory":12507,"ĠTax":12508,"NavBarFont":12509,"ĠGary":12510,"Ø±":12511,"ractions":12512,"atomic":12513,"ĠHungarian":12514,"CB":12515,"ĠAqu":12516,"inherit":12517,"1894":12518,"360":12519,"Ġpeer":12520,"ĠFranklin":12521,"Ġbeach":12522,"Mask":12523,"mun":12524,"MOD":12525,"Ġvisiting":12526,"ifts":12527,"QU":12528,"'];":12529,"ĠProduct":12530,"Ġbinding":12531,"Ġsentence":12532,"Ġdangerous":12533,"Ġfaster":12534,"Ġcircumstances":12535,"Ġflowers":12536,"ĠLGBT":12537,"via":12538,"asts":12539,"Ġmovements":12540,"Ġexperimental":12541,"Ġvoters":12542,"Ġinitiative":12543,"cluster":12544,"Ġdiverse":12545,"Ġpainted":12546,"Super":12547,"ĠTob":12548,"çĶ":12549,"Ġtact":12550,"catch":12551,"Ġbeauty":12552,"NET":12553,"hai":12554,"some":12555,"avior":12556,"ĠVenezuel":12557,"Ġastron":12558,"intell":12559,"Ġsync":12560,"dx":12561,"Ġasking":12562,"ĠAssistant":12563,"ĠThough":12564,"SSL":12565,"ĠClient":12566,"party":12567,"Ġwrest":12568,"Ġdiscussed":12569,"Ġarranged":12570,"team":12571,"Est":12572,"Political":12573,"Ġtruly":12574,"ĠLeban":12575,"ANT":12576,"Ġcricketers":12577,"ÅĦ":12578,"Ġprove":12579,"Ã©n":12580,"Library":12581,"1885":12582,"Ġafford":12583,"ĠAP":12584,"mount":12585,"ĠRain":12586,"Proto":12587,"apis":12588,"ĠBaker":12589,"porter":12590,"Ġneighbour":12591,"ĠCSS":12592,"Ġthrown":12593,"ĠVegas":12594,"Ġexperts":12595,"Ġpicked":12596,"ĠAfghanistan":12597,"Air":12598,"Raw":12599,"ĠTak":12600,"MIN":12601,"you":12602,"aptist":12603,"leyball":12604,"UST":12605,"Design":12606,"Ġtum":12607,"agger":12608,"114":12609,"Users":12610,"Ġconsistent":12611,"Ġbits":12612,"olves":12613,"Rob":12614,"Lower":12615,"Ġdeputy":12616,"Ġduties":12617,"groups":12618,"Ġwaste":12619,"ĠPrint":12620,"å®":12621,"riel":12622,"Ġpoverty":12623,"Ġbattery":12624,"Ġaccessible":12625,"itarian":12626,"ĠMadrid":12627,"sem":12628,"105":12629,"Ġvalley":12630,"ugosl":12631,"Ġcontribution":12632,"Ġcompare":12633,"ARD":12634,"ĉĠĠĠĠĠĠĠ":12635,"aton":12636,"Bro":12637,"Screen":12638,"dig":12639,"Ġcomed":12640,"Ġproperly":12641,"ĠStars":12642,"icode":12643,"Ġdescend":12644,"commons":12645,"Attr":12646,"ternoon":12647,"Ġanchor":12648,"udson":12649,"ĠDJ":12650,"Bean":12651,"bai":12652,"Ġvulner":12653,"mid":12654,"vet":12655,"Ġvolumes":12656,"Ġmaps":12657,"1888":12658,"jab":12659,"Ġpictures":12660,"ĠRud":12661,"George":12662,"deg":12663,"Ġprofit":12664,"ĠMovement":12665,"oka":12666,"Ġpossibility":12667,"loop":12668,"Ġtalks":12669,"CG":12670,"Ġtie":12671,"Ġrid":12672,"Validation":12673,"arus":12674,"icking":12675,"activity":12676,"ĠPrim":12677,"wright":12678,"Ġfishing":12679,"Ġcompetitive":12680,"ĠRoom":12681,"graduate":12682,"Ġul":12683,"Ġtherapy":12684,"Sql":12685,"Series":12686,"ĠCarn":12687,"Drag":12688,"iterranean":12689,"ĠTheater":12690,"Ġleaf":12691,"Ġlanding":12692,"ĠHum":12693,"database":12694,"ĠNeg":12695,"ilty":12696,"ĠSett":12697,"Ġworst":12698,"ĠTool":12699,"IX":12700,"route":12701,"ĠBlues":12702,"Ġfurn":12703,"Ġdebt":12704,"Ġgenera":12705,"Ġromantic":12706,"nan":12707,"Ġtransactions":12708,"Ġparticipation":12709,"ĠStage":12710,"Îµ":12711,"alpha":12712,"Bad":12713,"ĠSA":12714,"Ġwalking":12715,"ArgumentException":12716,"condition":12717,"mouse":12718,"ĠSeveral":12719,"117":12720,"evens":12721,"Admin":12722,"Move":12723,"Ġappointment":12724,"Ġincreases":12725,"SV":12726,"inos":12727,"TY":12728,"Ġwearing":12729,"town":12730,"Alex":12731,"aba":12732,"resolve":12733,"enberg":12734,"Ġsubmitted":12735,"igs":12736,"ĠPrimary":12737,"ifle":12738,"NSString":12739,"ĠZone":12740,"Ġregulations":12741,"ĠResources":12742,"Ġrescue":12743,"Ġintegrated":12744,"othy":12745,"idad":12746,"ĠOptional":12747,"ĠAy":12748,"Ġneither":12749,"Future":12750,"Ġstim":12751,"Ġgenre":12752,"Ġtight":12753,"Ġpenalty":12754,"ĠBilly":12755,"Ġdecline":12756,"was":12757,"uced":12758,"download":12759,"Ġfamiliar":12760,"ogram":12761,"Pack":12762,"Ġpoem":12763,"Ġfmt":12764,":`":12765,"ĠNAV":12766,"ĠJazz":12767,"ĠLiving":12768,"ĠLanka":12769,"edu":12770,"tok":12771,"ĠSpirit":12772,"ĠApplication":12773,"icator":12774,"Watch":12775,"ĠBernard":12776,"Ġsoul":12777,"Driver":12778,"ĠSets":12779,"Serializer":12780,"Ġroughly":12781,"Ġrivers":12782,";)":12783,"ĠKath":12784,"uli":12785,"ĠPriv":12786,"Ġreaders":12787,"ourt":12788,"ĠGuy":12789,"obi":12790,"Ġcenters":12791,"intellij":12792,"Landroid":12793,"Live":12794,"ĠConvention":12795,"ĠCovid":12796,"ĠXML":12797,"ĠRange":12798,"Ġprospect":12799,"ĠCR":12800,"avalry":12801,"sis":12802,"Constant":12803,"ĠOrthodox":12804,"Ġreverse":12805,"letter":12806,"Warning":12807,"ĠNad":12808,"ĠVerm":12809,"Ġexcess":12810,"ĠNi":12811,"pkg":12812,"ĠLock":12813,"iege":12814,"ĠMaj":12815,".\"\"\"":12816,"ĠConn":12817,"ters":12818,"Health":12819,"Ġtur":12820,"Ġgovernments":12821,"Ġsb":12822,"ĠFer":12823,"etition":12824,"Ġnut":12825,"Radio":12826,"Ġtransportation":12827,"Ġretained":12828,"lotte":12829,"wik":12830,"accept":12831,"ĠNord":12832,"Ġmor":12833,"Az":12834,"uart":12835,"Ġthemes":12836,"Ġbehalf":12837,"Ġcompens":12838,"Ġbrands":12839,"Ġangle":12840,"ĠLINEAR":12841,"Operator":12842,"Ġgoverning":12843,"bits":12844,"vs":12845,"ĠBiden":12846,"iti":12847,"Ġstayed":12848,"ĨĴ":12849,"Ġskip":12850,"isset":12851,"olia":12852,"ĠBey":12853,"ĠBirmingham":12854,"ultane":12855,"ĠSocorro":12856,"ĠVari":12857,"ĠQuest":12858,"Ġnormally":12859,"Ġexpensive":12860,"compile":12861,"Hub":12862,"rm":12863,"backs":12864,"Limit":12865,"=\\\"":12866,"vc":12867,"Ġsys":12868,"lat":12869,"Ġexposure":12870,"Ġpropag":12871,"ĠEvans":12872,"ashes":12873,"Ġprinted":12874,"Ġsuspended":12875,"bishop":12876,"Ġdisk":12877,"ĠUpper":12878,"Ġcos":12879,"Ġstats":12880,"Ġannounc":12881,"twitter":12882,"Ġpainters":12883,"created":12884,"MODE":12885,"ubern":12886,"ĠGun":12887,"mund":12888,"Ġconfront":12889,"1865":12890,"ĠWrite":12891,"ĠIndustry":12892,"Ġ'';":12893,"Ġnorthwest":12894,"Ġbot":12895,">)":12896,"extend":12897,"ĠMi":12898,"^^":12899,"900":12900,"ĠMess":12901,"Ġreputation":12902,"merge":12903,"Ġattorney":12904,"Ġbranches":12905,"making":12906,"102":12907,"/.":12908,"Ġputting":12909,"feed":12910,"ĠNature":12911,"\"],":12912,"ĠWind":12913,"astery":12914,"oting":12915,"Ġ'',":12916,"ĠFinancial":12917,"Ġalloc":12918,"Ġindicating":12919,"inating":12920,"Ġregul":12921,"validate":12922,"amics":12923,"Ġbold":12924,"alis":12925,"Ġartistic":12926,"heel":12927,"Ġsessions":12928,"Ġphenomen":12929,"Ġforg":12930,"Ġlogging":12931,"ĠAthletic":12932,"Mouse":12933,"blue":12934,"ĠBasketball":12935,"Ã¦":12936,"Ġflows":12937,"??":12938,"employ":12939,"ĠTol":12940,"ĠRacing":12941,"ĠLower":12942,"ĠChron":12943,"Ġcup":12944,"plan":12945,"Ġcoins":12946,"Ġhabitat":12947,"ĠTower":12948,"redit":12949,"ĠTournament":12950,"Ġusual":12951,"rying":12952,"ĠAppe":12953,"Ġfinals":12954,"ĠHorn":12955,"ĠStorm":12956,"Ġintention":12957,"ĠCommunications":12958,"Ġox":12959,"Ġrising":12960,"Ġcous":12961,"ĠOttoman":12962,"Identity":12963,"eenth":12964,"ducational":12965,"ĠPolitical":12966,"ĠStanley":12967,"Ġcomposers":12968,"ibilities":12969,"pin":12970,"ĠallClasses":12971,"vy":12972,"ucle":12973,"winning":12974,"Ġwhereas":12975,"ÈĻ":12976,"kwargs":12977,"reck":12978,"inction":12979,"ĠHub":12980,"Dim":12981,"Span":12982,"Ġapparently":12983,"Ġpreferred":12984,"emale":12985,"ĠClinton":12986,"Ġlegacy":12987,"inae":12988,"Ġgay":12989,"Ġpopularity":12990,"elem":12991,"umps":12992,"ĠDh":12993,"Ġaccord":12994,"Ġna":12995,"ishments":12996,"bow":12997,"ĠallClassesLink":12998,"Ġversus":12999,"ogs":13000,"ĠUsing":13001,"Ġur":13002,"ĠPictures":13003,"Ġspin":13004,"rg":13005,"ĠResp":13006,"Win":13007,"ĠAndy":13008,"(/":13009,"geo":13010,"large":13011,"ĠEle":13012,"ĠPod":13013,"ĠHope":13014,"Ġthousand":13015,"Ġvalidate":13016,"ĠMovie":13017,"Oh":13018,"Ġalcohol":13019,"Ġtags":13020,"ĠAdditionally":13021,"rank":13022,"Ġimprison":13023,"Later":13024,"Ġcoastal":13025,"Ã¨re":13026,"ijing":13027,"Ġgiant":13028,"Ġdesire":13029,"thrift":13030,"1887":13031,"Ġassociate":13032,"Ġnurs":13033,"Wallet":13034,"ĠDictionary":13035,"Ġ}}":13036,"Ġcommunications":13037,"ĠExchange":13038,"contrib":13039,"Ġunderlying":13040,"ĠStruct":13041,"ĠBud":13042,"ristol":13043,"GP":13044,"socket":13045,"usted":13046,"Ġclassified":13047,"such":13048,"ĠJonathan":13049,"SW":13050,"Ġqualifying":13051,"ĠBible":13052,"Remote":13053,"ĠĠĠĠĠĠĠĠĠĠĠĠĠĠĠĠĠĠĠĠĠĠĠĠĠĠĠĠĠĠ":13054,"available":13055,"Word":13056,"Ġsight":13057,"bose":13058,"Ġexplore":13059,"Ġweapon":13060,"ationToken":13061,"ĠEconomics":13062,"Ġtom":13063,"Ġstruggle":13064,"Ġpermissions":13065,"miral":13066,"ĠHunter":13067,"Ġadaptation":13068,"Ġabsence":13069,"reement":13070,"Ġrapidly":13071,"GR":13072,"Compat":13073,"transition":13074,"Ġconver":13075,"Ġpopulations":13076,"native":13077,"ĠMitchell":13078,"plicated":13079,"ĠSIZE":13080,"Ġreadonly":13081,"ĠCle":13082,"mates":13083,"Ġgran":13084,"ĠFreedom":13085,"¿½":13086,"Ġsuicide":13087,"Ġinvolvement":13088,"ĠElementary":13089,"âĪĴ":13090,"oples":13091,"Ġasks":13092,"goto":13093,"Should":13094,"ATED":13095,"GER":13096,"Ġwilling":13097,"ĠBomb":13098,"Ġdebuted":13099,"Ġregiment":13100,"written":13101,"react":13102,"Ġassum":13103,"ĠJe":13104,"ĠServer":13105,"Press":13106,"Db":13107,"ĠBeg":13108,"ĠAld":13109,"Ġlicensed":13110,"Ġdriven":13111,"ivan":13112,"ĠConservative":13113,"Ġelder":13114,"ificial":13115,"Ġcommands":13116,"Ġfeels":13117,"annon":13118,"ĠTake":13119,"ĠMut":13120,"Clear":13121,"Ġbott":13122,"OF":13123,"Jack":13124,"Ġbreaking":13125,"ughters":13126,"ĠSpeed":13127,"zerbai":13128,"ixels":13129,"fg":13130,"Bur":13131,"exit":13132,"isEmpty":13133,"ĠCaribbean":13134,"Ġocean":13135,"built":13136,"Ġtruck":13137,"agination":13138,"ĠStudy":13139,"ĠCharlie":13140,"ĠElectric":13141,"Throw":13142,"blem":13143,"ĠProfessional":13144,"Ġconservation":13145,"ĠWayne":13146,"Ġvictim":13147,"izard":13148,"Forms":13149,"ĠAttorney":13150,"Ġmountains":13151,"acer":13152,"ĠBeh":13153,"eton":13154,"113":13155,"Pred":13156,"Ġcircuit":13157,"Ġcursor":13158,"Ġideal":13159,"idelines":13160,"White":13161,"Ġpersonality":13162,"Ġflower":13163,"itime":13164,"ĠCultural":13165,"specific":13166,"ĠColonel":13167,"ĠAdvis":13168,"European":13169,"Please":13170,"Ġcriticized":13171,"Ġinstallation":13172,"Ġwhatever":13173,"Ġadvoc":13174,"ĠGlasgow":13175,"Ġinvestors":13176,"ties":13177,"disable":13178,"Ġprinciples":13179,"ĠVancouver":13180,"Ġvessels":13181,"Ġdefence":13182,"ĠCass":13183,"emor":13184,"åĪ":13185,"rev":13186,"BM":13187,"Ġbird":13188,"ï¼Į":13189,"Ġhat":13190,"Ġcrossing":13191,"Ġmemorial":13192,"Ġwounded":13193,"ĠSteel":13194,"Ġcelebrated":13195,"Ð¹":13196,"Theme":13197,"oven":13198,"CHAR":13199,"Ġnotably":13200,"assertTrue":13201,"Ġpaths":13202,"Ġcounties":13203,"Ġsnap":13204,"Ġpor":13205,"setup":13206,"ĠMock":13207,"ĠDeep":13208,"Ġsubstantial":13209,"ĠCer":13210,"highlight":13211,"Ġbelieves":13212,"ĠBE":13213,"archive":13214,"Ġappearing":13215,"Cr":13216,"ĠWing":13217,"ĠBY":13218,"EventListener":13219,"uru":13220,"effect":13221,"Ġinfection":13222,"Ġsuffering":13223,"Ġadds":13224,"ĠIan":13225,"Ġdowntown":13226,"bone":13227,"ĠYorkshire":13228,"uke":13229,"Ġtables":13230,"speed":13231,"Ġtelling":13232,"ILD":13233,"ĠKl":13234,"Nullable":13235,"Ġfalling":13236,"Ġ\"\",":13237,"hattan":13238,"Mag":13239,"urricane":13240,"Ġrounds":13241,"ĠClassic":13242,"Ġdated":13243,"auge":13244,"ĠIce":13245,"1864":13246,"ĠBroadway":13247,"Ġtrials":13248,"sass":13249,"ĠLoad":13250,"ĠĠĠĊ":13251,"Ġprefer":13252,"OC":13253,"agraph":13254,"Ġperiods":13255,"Ġassessment":13256,"Binary":13257,"writers":13258,"Ġwet":13259,"fiction":13260,"ãĢĤ":13261,"ĠÑģ":13262,"iture":13263,"ĠWarren":13264,"Tom":13265,"Ġconsc":13266,"raham":13267,"Ġemployee":13268,"sn":13269,"enders":13270,"Ġregistration":13271,"odo":13272,"ĠWas":13273,"Ġexclusive":13274,"Ġcancelled":13275,"ĠHawaii":13276,"ĠCarlos":13277,"112":13278,"DEF":13279,"ĠEV":13280,"Den":13281,"etary":13282,"ĠML":13283,"pread":13284,"oustic":13285,"ĠBarry":13286,"stable":13287,"ĠPil":13288,"avel":13289,"black":13290,"otton":13291,"ĠRico":13292,"Ġoperational":13293,"ĠPradesh":13294,"Ġmarks":13295,"Ġlocality":13296,"Ġaffairs":13297,"facebook":13298,"ultan":13299,"Ġenforcement":13300,"Ġdiseases":13301,"posing":13302,"Ġbatch":13303,"ĠTherefore":13304,"Ġfoss":13305,"iko":13306,"audio":13307,"Ġextreme":13308,"Ġpublisher":13309,"Ġprovincial":13310,"ĠAbstract":13311,"Usage":13312,"1886":13313,"ĠDefence":13314,"Recip":13315,"izers":13316,"Rout":13317,"Ġbrick":13318,"Audio":13319,"Ġfasc":13320,"Qual":13321,"TestCase":13322,"Ġmess":13323,"ainers":13324,"ÐµÑĢ":13325,"Ġexports":13326,"ĠAuto":13327,"/\"":13328,"production":13329,"Ġdollars":13330,"gregation":13331,"fi":13332,":@\"":13333,"1861":13334,"Ġoutbreak":13335,"uez":13336,"Ġ([":13337,"ï¿½":13338,"Ġterminal":13339,"ushing":13340,"Ġplain":13341,"imates":13342,"Ġentreprene":13343,"ĠChel":13344,"Ġexplains":13345,"Ġfarmers":13346,"Ġholiday":13347,"Ġwouldn":13348,"berry":13349,"inking":13350,"Ġloading":13351,"Normal":13352,"adr":13353,"ĠUg":13354,"ARN":13355,"Ġignored":13356,"mill":13357,"ependencies":13358,"Ġticket":13359,"itations":13360,"Ġnaval":13361,"pdf":13362,"Ġcrimes":13363,"ĠDB":13364,"ĠBenn":13365,"ĠAthletics":13366,"alert":13367,"Sam":13368,"Ġpian":13369,"Ġpharm":13370,"ASK":13371,"åĲ":13372,"Ġstudying":13373,"fetch":13374,"ĠProfile":13375,"Pan":13376,"ĠWARRAN":13377,"LOC":13378,"Ġnewspapers":13379,"Sep":13380,"ĠFather":13381,"Hz":13382,"1850":13383,"Center":13384,"Ġelif":13385,"ĠIF":13386,"äº":13387,"ĠUpon":13388,"oj":13389,"ATCH":13390,"Labels":13391,"ĠOwn":13392,"Plan":13393,"operator":13394,"Html":13395,"Ġrecre":13396,"ĠProtection":13397,"åħ":13398,"ĠÐ¸":13399,"Good":13400,"Ġspiritual":13401,"Ġliquid":13402,"Secret":13403,"uits":13404,"Execution":13405,"navigation":13406,"Ġroots":13407,"Ġscores":13408,"oker":13409,"Ġruling":13410,"Constructor":13411,"ĠSax":13412,"ĠMilan":13413,"Copyright":13414,"ĠSoccer":13415,"Ġ\"%":13416,"ĠShould":13417,"Ġsitting":13418,"ĠCos":13419,"#{":13420,"Ġmanaging":13421,"ĠCF":13422,"ĠPrice":13423,"ĠRand":13424,"Ġcredited":13425,"Ġexplanation":13426,"bc":13427,"oro":13428,"Ġdiam":13429,"Town":13430,"ipedia":13431,"Ġhip":13432,"Ġconfidence":13433,"ĠContent":13434,"1884":13435,"Ġsmooth":13436,"Ġincred":13437,"zym":13438,"Ġtherm":13439,"ĠCarm":13440,"Ġtow":13441,"Ġelectron":13442,"ĠKr":13443,"idespread":13444,"beta":13445,"ĠCathedral":13446,"Ġsynthes":13447,"lee":13448,"celona":13449,"Ġpayload":13450,"Ġlogic":13451,"Ġdaughters":13452,"abul":13453,"Ġpron":13454,"submit":13455,"sample":13456,"avan":13457,"ĠNazi":13458,"athon":13459,"February":13460,"ĠSimple":13461,"Ġerect":13462,"Ġstrategic":13463,"Ġconcentration":13464,"ĠDerby":13465,"COMP":13466,"ĠPract":13467,"Ġreplacing":13468,"Ùħ":13469,"ĠJohnny":13470,"Ġtrace":13471,"Ġexplo":13472,"104":13473,"\"].":13474,"Ġrecon":13475,"umbent":13476,"ĠÐ²":13477,"Ġprisoners":13478,"ĠCG":13479,"usc":13480,"Ġindigenous":13481,"ĠFalls":13482,"rooms":13483,"clone":13484,"ĠOblast":13485,"batch":13486,"ravity":13487,"Sample":13488,"ortion":13489,"usalem":13490,"ĠSalv":13491,"ĠFine":13492,"Contents":13493,"ĠEdd":13494,"']);":13495,"Ġthreatened":13496,"verseas":13497,"CONT":13498,"ĠNAVBAR":13499,"ĠKu":13500,"Ġpairs":13501,"ĠMother":13502,"anne":13503,"ĠLA":13504,"ĠConcert":13505,"Ġformally":13506,"Ġbusinessman":13507,"Ïģ":13508,"acht":13509,"Ġmapping":13510,"()),":13511,"ĠLP":13512,"ĠNevada":13513,"=[":13514,"Ġcriteria":13515,"loor":13516,"Ġsa":13517,"Ġsouthwest":13518,"Example":13519,"ĠPerformance":13520,"'}":13521,"Ġmedieval":13522,"Ġlawyers":13523,"Ġ\"\";":13524,"Your":13525,"forEach":13526,"Ġsupporters":13527,"etry":13528,"ĠIndians":13529,"ncient":13530,"Condition":13531,"Ġdeclined":13532,"origin":13533,"gun":13534,"Points":13535,"repository":13536,"hips":13537,"ĠĠĠĠĠĠĠĠĠĠĠĠĠĠĠĠĠĠĠĠĠĠĠĠĠĠĠĠĠĠĠĠĠ":13538,"alph":13539,"Ġamazing":13540,"Ġencouraged":13541,".âĢĻ":13542,"Env":13543,"ĠParker":13544,"Ġfails":13545,"Ġedit":13546,"aaaa":13547,"Ġsuitable":13548,"Bottom":13549,"ĠMall":13550,"ĠRangers":13551,"Spanish":13552,"Mobile":13553,"duces":13554,"Green":13555,"ned":13556,"ĠRichmond":13557,"DOM":13558,"League":13559,"linear":13560,"Ġalive":13561,"Ġemotional":13562,"Business":13563,"ĠHindu":13564,"Ġgolf":13565,"Ġunsuccess":13566,"Mart":13567,"Ġacknowled":13568,"elect":13569,"bie":13570,"reader":13571,"LED":13572,"priv":13573,"LY":13574,"Ġease":13575,"memory":13576,"ANG":13577,"Ġreveals":13578,"ĠUrban":13579,"Jew":13580,"trace":13581,"Ġcoronavirus":13582,"hammad":13583,"alymp":13584,"uka":13585,"LOW":13586,"icht":13587,"ving":13588,"DataType":13589,"ĠGray":13590,"Ġpractical":13591,"xic":13592,"ournals":13593,"Folder":13594,"olen":13595,"Ġconversation":13596,":[":13597,"Ġequipped":13598,"Ġdelegate":13599,"pload":13600,"ĠSuch":13601,"opal":13602,"UND":13603,"olut":13604,"Ġprotests":13605,"Ġembed":13606,"Ġsuccessor":13607,"Ġpulled":13608,"Ġactivists":13609,"ĠVel":13610,"Team":13611,"Ġspoken":13612,"ĠRemove":13613,"onian":13614,"ĠWang":13615,"Ġelectoral":13616,"ĠReference":13617,"irk":13618,"Ġcolleges":13619,"CALL":13620,"Ġmagazines":13621,"ĠDrive":13622,"alg":13623,"Ġphotography":13624,"ĠArticle":13625,"ĠClin":13626,"oton":13627,"Ġdiscrim":13628,"Begin":13629,"jet":13630,"policy":13631,"Ġguests":13632,"bg":13633,"Ġwedding":13634,"Ġcommitment":13635,"gradle":13636,"ĠNorman":13637,"Ġstarred":13638,"Ġclimb":13639,"ĠMoz":13640,"DATE":13641,"ĠOrange":13642,"Ġcompeting":13643,"serial":13644,"Ġlimitations":13645,"ĠPra":13646,"Ġsalt":13647,"ĠThose":13648,"1882":13649,"ORDER":13650,"iology":13651,"Special":13652,"1881":13653,"Ġhealthy":13654,"ĠIllegal":13655,"elfare":13656,"nee":13657,"brand":13658,"elements":13659,"ĠTigers":13660,"1863":13661,"parts":13662,"earing":13663,"Ġsatellite":13664,"Ġidentifier":13665,"duration":13666,"appro":13667,"ethyl":13668,"Ġrepair":13669,"Ġfantasy":13670,"ierra":13671,"ocal":13672,"Ġpublicly":13673,"ĠPow":13674,"Drop":13675,"ĠDays":13676,"ysical":13677,"Ġwhilst":13678,"Ġdefeating":13679,"Ġrhyth":13680,"ĠGT":13681,"Ġsurrounded":13682,"Ġaver":13683,"Ġhardware":13684,"ĠFIFA":13685,"Fact":13686,"rov":13687,"ĠBuilder":13688,"ĠSide":13689,"Ġsupplement":13690,"Vertex":13691,"ĠLud":13692,"ĠSeven":13693,"Ġimpossible":13694,"Ġmanifest":13695,"Navigation":13696,"Renderer":13697,"Ġquiet":13698,"Season":13699,"Ġaimed":13700,"Ġuncertain":13701,"ĠMunicipality":13702,"Ġsuspect":13703,"getElementById":13704,"|}":13705,"Ġsin":13706,"ĠMind":13707,"Ġ*,":13708,"Ïĥ":13709,"directory":13710,"ĠBelgian":13711,"Ġsocket":13712,"ĠCommissioner":13713,"deprecated":13714,"BIT":13715,"ĠCricket":13716,"ivo":13717,"amma":13718,"Ġpotentially":13719,"Tur":13720,"Setting":13721,"Ġgall":13722,"ÃŁ":13723,"Objects":13724,"Ġaccum":13725,"STATE":13726,"Ġsubsidi":13727,"ĠCollins":13728,"messages":13729,"expression":13730,"ĠHunt":13731,"ĠJess":13732,"Batch":13733,"ĠPhoto":13734,"ĠÐ½":13735,"Ġswimming":13736,"ĠSelect":13737,"owned":13738,"ĠFitz":13739,"shift":13740,"folk":13741,"ĠFinance":13742,"140":13743,"she":13744,"trl":13745,"ĠInn":13746,"aja":13747,"Ġhyper":13748,"ÙĨ":13749,"ebraska":13750,"Ġstrengthen":13751,"Ġassass":13752,"103":13753,"ĠGP":13754,"Ġ'.":13755,"ierarchy":13756,"Ġguitarist":13757,"nobr":13758,"Ġarbit":13759,"Ġconj":13760,"ometimes":13761,"ĠBarbara":13762,"jack":13763,"tre":13764,"Fn":13765,"utter":13766,"LSP":13767,"Review":13768,"Ġalias":13769,"Strategy":13770,"ĠSnow":13771,"spector":13772,"qual":13773,"Resolver":13774,"Ġflash":13775,"ĠAlice":13776,"FUN":13777,"Ġmeasured":13778,"Che":13779,"bian":13780,"Ġ\".":13781,"Ġgenetic":13782,"Ġsupplies":13783,"Ġconvention":13784,"wd":13785,"entle":13786,"ĠToy":13787,"Ġoccupation":13788,"116":13789,"Ġfaces":13790,"contents":13791,"aran":13792,"Ġworship":13793,"Ġgap":13794,"Ġ'./":13795,"1862":13796,"Ġprocedure":13797,"Alumni":13798,"quer":13799,"ĠMack":13800,"jax":13801,"ĠBenjamin":13802,"Ġresponses":13803,"Hor":13804,"Ġcertificate":13805,"Consumer":13806,"CLASS":13807,"Ġoutstanding":13808,"Binding":13809,"ĠSerge":13810,"Ġ>>>":13811,"Ġreportedly":13812,"Ġfictional":13813,"ĠAlbum":13814,"ĠGreater":13815,"Ġcompiled":13816,"ĠAlaska":13817,"Ġinformed":13818,"orous":13819,"ĠFaculty":13820,"Ġmodify":13821,"ĠPhoenix":13822,"Ġunusual":13823,"Weight":13824,"ĠStill":13825,"Ġcruc":13826,"Ġprof":13827,"abe":13828,"Ġarc":13829,"Ġadventure":13830,"ampa":13831,"Ġfindings":13832,"Ġtownship":13833,"Ġnomination":13834,"Ġnarrative":13835,"TT":13836,"Ġvenue":13837,"Ġafternoon":13838,"Mont":13839,"rez":13840,"Mapper":13841,"Ġrestaurants":13842,"Beh":13843,"icing":13844,"ĠBachelor":13845,".:":13846,"Cur":13847,"ĠNat":13848,"Ġaccurate":13849,"Ġwooden":13850,"license":13851,"ĠMobile":13852,"stage":13853,"plant":13854,"\"},":13855,"celand":13856,"orf":13857,"Ġbio":13858,"Ġstake":13859,"Ġmm":13860,"News":13861,"Ġreporter":13862,"Ġorganisations":13863,"ĠNiger":13864,"Detail":13865,"Ġdoors":13866,"achel":13867,"ĠPast":13868,"Ġmachines":13869,"ifting":13870,"live":13871,"Ġrestore":13872,"FIELD":13873,"Today":13874,"Ġhook":13875,"ĠMicro":13876,"Ġrepresentatives":13877,"Ã¶r":13878,"Ġsubmar":13879,"Standard":13880,"Ġrespective":13881,"Ġelectricity":13882,"Addr":13883,"ĠCrime":13884,"Ġreceiver":13885,"Ġpoems":13886,"ĠFlore":13887,"arance":13888,"å¤":13889,"Ġpseud":13890,"Ġtort":13891,"ĠWrestling":13892,"Ġvessel":13893,"Ġsimultane":13894,"ĠTrophy":13895,"Ġ\"[":13896,"Ġfilmed":13897,"Ġgod":13898,"liter":13899,"Ġpointed":13900,"Ġbrig":13901,"may":13902,"ĠBranch":13903,"ixtures":13904,"Ġcookies":13905,"Management":13906,"Ġdevelopers":13907,"integer":13908,"Ġagriculture":13909,"kov":13910,"simple":13911,"Univers":13912,"Based":13913,"ĠPrefecture":13914,"Ġinstructions":13915,"Ġsurprise":13916,"ĠInitial":13917,"URCE":13918,"subject":13919,"Sal":13920,"ĠGraph":13921,"ĠPhD":13922,"domin":13923,"Ġforests":13924,"Ġplastic":13925,"ĠComputer":13926,"hum":13927,"Ġreleg":13928,"Ġpresentation":13929,"Lou":13930,"igator":13931,"forward":13932,"Ġsilent":13933,"anti":13934,"ĠIgn":13935,"ĠALIGN":13936,"incinn":13937,"squ":13938,"ĠNova":13939,"Ġcalendar":13940,"ĠEsp":13941,"ouncill":13942,"Ġshopping":13943,"Ġopens":13944,"Insert":13945,"Ġforth":13946,"Ġcollapse":13947,"ĠSerbia":13948,"stood":13949,"ĠDragon":13950,"fmt":13951,"usters":13952,"ĠPeru":13953,"Ġeligible":13954,"fortunately":13955,"ĠSex":13956,"Ġforming":13957,"assign":13958,"terior":13959,"Ġviolin":13960,"akia":13961,"Vol":13962,"Fac":13963,"ĠUP":13964,"ente":13965,"rative":13966,"ĠMak":13967,"formed":13968,"irth":13969,"Ġpending":13970,"Ġeq":13971,"Ġwidespread":13972,"ema":13973,"Ġlowest":13974,"yt":13975,"overview":13976,"COM":13977,"rac":13978,"ĠLag":13979,"Ġdependencies":13980,"Ġgram":13981,"best":13982,"ĠGhana":13983,"ĠBorough":13984,"vertical":13985,"=\"../../../../../../../":13986,"Photo":13987,"Ġproduces":13988,"eto":13989,"Ġgard":13990,"ilia":13991,"Failure":13992,"Ġcontinu":13993,"_)":13994,"Ġlegs":13995,"etta":13996,"ĠLyn":13997,"ĠTab":13998,"Ġrig":13999,"Ġacquisition":14000,"UMM":14001,"Ġeliminated":14002,"Errorf":14003,"Ġliv":14004,"ĠBlood":14005,"Ġneuro":14006,"ĠSongs":14007,"imize":14008,"ĠConfeder":14009,"Zone":14010,"ĠDEFAULT":14011,"HEAD":14012,"eor":14013,"Ġupcoming":14014,"Ġmonument":14015,"slide":14016,"ĠSoutheast":14017,"ĠBron":14018,"Segment":14019,"ĠStudents":14020,"ĠNBC":14021,"ĠSha":14022,"ĠSR":14023,"achi":14024,"Groups":14025,"emed":14026,"Ġinherited":14027,"Round":14028,"ĠSaints":14029,"ĠTun":14030,"Did":14031,"!âĢĿ":14032,"Counter":14033,"Ġkingdom":14034,"Prev":14035,"animation":14036,"occ":14037,"lint":14038,"Ġcoffee":14039,"drag":14040,"Ġfraud":14041,"(.":14042,"HC":14043,"ĠVa":14044,"Tri":14045,"Ġefficiency":14046,"athered":14047,"ĠPierre":14048,"Ġorchestra":14049,"omon":14050,"sig":14051,"lier":14052,"ĠManhattan":14053,"ĠInternal":14054,"sterdam":14055,"Ġcomprehensive":14056,"111":14057,"sun":14058,"makers":14059,"Thomas":14060,"ĠAnalysis":14061,"unning":14062,"Ġcircle":14063,"ĠSaudi":14064,"nn":14065,"ĠKap":14066,"Ġsweet":14067,"Ġexisted":14068,"ĠCBS":14069,"ĠRing":14070,"Tasks":14071,"ĠVictorian":14072,"ĠFinnish":14073,"haus":14074,"Ġdisappoint":14075,"ĠTit":14076,"shaped":14077,"incinnati":14078,"pine":14079,"Ġcable":14080,"ĠJoy":14081,"Ġabroad":14082,"ĠJerusalem":14083,"Ġlistening":14084,"asant":14085,"athers":14086,"ĠEgyptian":14087,"ĠShel":14088,"Ġcharity":14089,"flix":14090,"Validator":14091,"Moths":14092,"ĠLore":14093,"Ġbehaviour":14094,"Ġexclus":14095,"Ġupgrad":14096,"AE":14097,"ĠMatch":14098,"Ġfunctional":14099,"Ġannually":14100,"Tok":14101,"pressions":14102,"Ġgro":14103,"ĠEston":14104,"ĠTalk":14105,"atial":14106,"ĠEnvironmental":14107,"ĠBengal":14108,"acre":14109,"Ġslot":14110,"Ġsimpl":14111,"Axis":14112,"Ġtok":14113,"ĠBrew":14114,"Gold":14115,"brew":14116,"axy":14117,"Ġconvinc":14118,"itro":14119,"Ġregime":14120,"ĠMachine":14121,"Ġinteraction":14122,"ĠMediterranean":14123,"scar":14124,"Shared":14125,"Ġloyal":14126,"Ġfinance":14127,"Ġcontinuous":14128,"tp":14129,"aceae":14130,"cassandra":14131,"beh":14132,"vol":14133,"ĠMyst":14134,"ĠLL":14135,"Ġawareness":14136,"enti":14137,"ratch":14138,"Ġsizes":14139,"ĠAndre":14140,"ensional":14141,"touch":14142,"program":14143,"iffs":14144,")\",":14145,"Ġemerged":14146,">\"":14147,"Ġconnecting":14148,"Ġconservative":14149,"Ġnoise":14150,"tw":14151,"ĠStre":14152,"jQuery":14153,"tf":14154,"Ġintersection":14155,"Constraint":14156,"Despite":14157,"Camp":14158,"1876":14159,"IZ":14160,"ĠMagic":14161,"eno":14162,"Ġgreatly":14163,"ĠBristol":14164,"Bus":14165,"rather":14166,"ĠAI":14167,"convert":14168,"ĠGiants":14169,"days":14170,"ĠStra":14171,"issa":14172,"ĠTurner":14173,"roduction":14174,"IAL":14175,"ĠIranian":14176,"Annotation":14177,"Ġintegration":14178,"Focus":14179,"Sort":14180,"ĠGot":14181,"Ġbattles":14182,"building":14183,"spacing":14184,"HERE":14185,"Ġmini":14186,"ĠDraft":14187,"Ġconsiderable":14188,"CM":14189,"350":14190,"NUM":14191,"fff":14192,"Ġcredits":14193,"ĠAlberta":14194,"1878":14195,"×ķ":14196,"ĠHerm":14197,"Demographics":14198,"ĠThor":14199,"rus":14200,"variable":14201,"xygen":14202,"ĠJob":14203,"Ġviewers":14204,"placement":14205,"hot":14206,"ĠÂ©":14207,"Timer":14208,"kan":14209,"Ġgallery":14210,"ĠJama":14211,"Ġprohib":14212,"rolling":14213,"1883":14214,"ĠBurg":14215,"NotFound":14216,"ĠSyria":14217,"dependent":14218,"ĠSafety":14219,"TRY":14220,"Ġendemic":14221,"Ġmissions":14222,"Ġapartment":14223,"Also":14224,"Ġcontroversy":14225,"Ġevil":14226,"beat":14227,"strument":14228,"Ġinfluential":14229,"Ġguidance":14230,"ĠOt":14231,"/{":14232,"ĠKos":14233,"ĠParish":14234,"VA":14235,"ĠEthiop":14236,"ĠCraig":14237,"urable":14238,"ĠHarrison":14239,"aku":14240,"Ġpoets":14241,"Virtual":14242,"zes":14243,"ĠMuslims":14244,"Ġresponded":14245,"Processor":14246,"Ġintellectual":14247,"Ġmoments":14248,"Ġthirty":14249,"kar":14250,"Ġneck":14251,"icul":14252,"Ġcontroversial":14253,"ĠMans":14254,"Ġatmosphere":14255,"Ġoccasionally":14256,"Ġsurvive":14257,"ennial":14258,"ĠEli":14259,"topic":14260,"Albums":14261,"Ġpipeline":14262,"GroupName":14263,"arguments":14264,"ĠGuinea":14265,"ĠBeijing":14266,"ASE":14267,"yy":14268,"ĠTravel":14269,"Ã¡s":14270,"astrop":14271,"Ġinherit":14272,"Ġamongst":14273,"Ġsav":14274,"opedia":14275,"Ġviewed":14276,"closure":14277,"ethe":14278,"Ġ\"'":14279,"Ġassemb":14280,"Ġoperators":14281,"aac":14282,"Ġconclusion":14283,"Rate":14284,"=(":14285,"Ġranking":14286,"Ġrecipient":14287,"Ġpatch":14288,"rules":14289,"Sil":14290,"Ġpushed":14291,"RED":14292,"Ð°ÑĤ":14293,"Ġguess":14294,"stad":14295,"Ġdesert":14296,"ĠassertTrue":14297,"iya":14298,"Ġrum":14299,"Transl":14300,"ä½":14301,"Ġhaven":14302,"Ġindeed":14303,"Ġclaiming":14304,"Ġlongest":14305,"ĠColombia":14306,"ĠDatabase":14307,"ĠTher":14308,"Ġhorses":14309,"ĠSS":14310,"ĠCE":14311,")}":14312,"ĠSid":14313,"Ġguilty":14314,"Ġaria":14315,"Ġdestruction":14316,"ĠPont":14317,"Ġcasual":14318,"001":14319,"ĠYugosl":14320,"Ġlocally":14321,"Inf":14322,"Ġmedals":14323,"Ġfault":14324,"Ġturb":14325,"generate":14326,"Border":14327,"Ġdub":14328,"expand":14329,"ĠPoll":14330,"Ġrecovered":14331,"borne":14332,"ĠProtest":14333,"encode":14334,"Ġauthent":14335,"extra":14336,"Ġconvicted":14337,"entine":14338,"logo":14339,"walk":14340,"Static":14341,"Download":14342,"Ġcinema":14343,"Ġconsumers":14344,"Ġhybrid":14345,"Ġconsidering":14346,"ĠCommons":14347,"Ġvalidation":14348,"Ġsick":14349,"licenses":14350,"imir":14351,"Ġguys":14352,"rison":14353,"ĠCS":14354,"ÛĮ":14355,"Ġstrip":14356,"ĠPrior":14357,"ĠYes":14358,"Ġcongress":14359,"Ġdisable":14360,"VICE":14361,"tl":14362,"iors":14363,"adies":14364,"ĠWarner":14365,"Ġunderground":14366,"Controls":14367,"seq":14368,"ĠAddress":14369,"theless":14370,"ĠBarcelona":14371,"ĠFoot":14372,"Ġinterviews":14373,"Ġcommune":14374,"Schedule":14375,"separ":14376,"ĠJa":14377,"Ġdrew":14378,"Ġspecim":14379,"Ġmanip":14380,"Ġinvolves":14381,"ĠRelations":14382,"Land":14383,"Ok":14384,"ĠWa":14385,"Ġsky":14386,"Ġproviders":14387,"prom":14388,"Ġ'%":14389,"ĠCharlotte":14390,"Ġapps":14391,"Ġdefinitely":14392,"ĠRot":14393,"ervoir":14394,"Ġdemonstrated":14395,"fam":14396,"ĠUE":14397,"Ġbegun":14398,"Ġdiversity":14399,"Ġdesired":14400,"MODULE":14401,"ĠIvan":14402,"Gl":14403,"Culture":14404,"Ġassume":14405,"Ġtexts":14406,"ĠMarvel":14407,"Ġsignificance":14408,"ĠPublished":14409,"Ġtheat":14410,"Ġministers":14411,"ĠBreak":14412,"âĢĻ,":14413,"bet":14414,"ĠEug":14415,"Personnel":14416,"Ġprocedures":14417,"ĠQuery":14418,"Ġslowly":14419,"ĠĠĠĠĠĠĠĠĠĠĠĠĠĠĠĠĠĠĠĠĠĠĠĠĠĠĠĠĠĠĠĠĠĠĠĠĠĠĠĠĠĠĠĠĠĠĠ":14420,"Ġfocuses":14421,"iously":14422,"cz":14423,"Ġmarg":14424,"Hen":14425,"Ġstretch":14426,"Ġpermitted":14427,"Ġchampionships":14428,"ĠThread":14429,"Ġsty":14430,"Ġflights":14431,"ongo":14432,"emit":14433,"Ġdimension":14434,"]))":14435,"ĠSeb":14436,"INST":14437,"Ġ{},":14438,"ĠOperations":14439,"ĠBert":14440,"Ġnavbar":14441,"glyphicon":14442,"Ġbuff":14443,"Ġpartition":14444,"ocratic":14445,"Through":14446,"Richard":14447,"ĠStudent":14448,"Ġconcerning":14449,"ĠNan":14450,"LIST":14451,"Ġboss":14452,"ĠFerr":14453,"thy":14454,"Ġ$_":14455,"execut":14456,"ĠLuther":14457,"Ġengagement":14458,"ĠHost":14459,"ĠArtist":14460,"Sen":14461,"Three":14462,"Medalists":14463,"Ġdeck":14464,"Ġdeparture":14465,"ĠOliver":14466,"music":14467,"keley":14468,"Ġreven":14469,"series":14470,"Ġtypedef":14471,"Console":14472,"ĠFrances":14473,"Ġapproaches":14474,"Ġfrequent":14475,"FP":14476,"ĠLiterature":14477,"remarks":14478,"Tex":14479,"ÄŁ":14480,"Ġpa":14481,"Ġimplied":14482,"methods":14483,"Ġconsumption":14484,"Ġreun":14485,"vironments":14486,"1875":14487,"Ġpref":14488,"Ġproud":14489,"Ġterritories":14490,"Ġmanufacturer":14491,"ĠOutput":14492,"arriors":14493,"Ġinnings":14494,"Ġappreci":14495,"Login":14496,"gg":14497,"âĢĻ.":14498,"ĠUniversal":14499,"/\">":14500,"ĠPoly":14501,"Ġ_.":14502,"Ġinject":14503,"fake":14504,"changes":14505,"ĠLess":14506,"ĠLeft":14507,"ĠSeg":14508,"Ġreceives":14509,"Ġsoldier":14510,"onna":14511,"Ġæ":14512,"Ġbom":14513,"Ġliberal":14514,"Ġsax":14515,"agar":14516,"lined":14517,"ĠChristians":14518,"compare":14519,"Ġgeneric":14520,"ĠFleet":14521,"commit":14522,"ĠMig":14523,"107":14524,"later":14525,"itol":14526,"getId":14527,"stown":14528,"Ġdual":14529,"Ġdonated":14530,"ampton":14531,"razy":14532,"elaide":14533,"basic":14534,"Ġalpha":14535,"Yes":14536,"Contact":14537,"ĠHad":14538,"Ġadmin":14539,"Distribution":14540,"ĠFisher":14541,"zero":14542,"ĠMuhammad":14543,"larg":14544,"urse":14545,"Ġpreserved":14546,"ĠChap":14547,"urring":14548,"ĠAzerbai":14549,".),":14550,"AU":14551,"ĠAlexand":14552,";|":14553,"1800":14554,"ĠHann":14555,"1871":14556,"ĠFlight":14557,":'":14558,"\">(":14559,"Ġattributed":14560,"ORTED":14561,"Posted":14562,"spirit":14563,"Ġcoaching":14564,"Charles":14565,"Ġasset":14566,"ĠLis":14567,"Ġdeployed":14568,"Messages":14569,"1879":14570,"Ġeighth":14571,"usk":14572,"Ġdescribing":14573,"uet":14574,"rage":14575,"Ġchamber":14576,"onda":14577,"remote":14578,"Ġmonitoring":14579,"Ġopponents":14580,"Chart":14581,"Ġchecks":14582,"Ġspokes":14583,"flat":14584,"oment":14585,"ĠMaced":14586,"alytics":14587,"orrect":14588,"orts":14589,"bd":14590,"respons":14591,"Rows":14592,"Ġearthqu":14593,"ĠFab":14594,"Ġstrategies":14595,"Holder":14596,"timestamp":14597,"CLA":14598,"Ġpartially":14599,"ĠÃł":14600,"Ġ----------------------------------------------------------------":14601,"oxy":14602,"ĠTechnical":14603,"ĠTib":14604,"quis":14605,"imental":14606,"Timestamp":14607,"ĠBass":14608,"construction":14609,"1867":14610,"Ġruntime":14611,
[...]
