#version: 0.2
Ġ Ġ
ĠĠ ĠĠ
i n
e r
Ġ t
o n
r e
a t
ĠĠ Ġ
Ġ a
h e
ĠĠĠĠ ĠĠĠĠ
e n
s t
o r
a l
l e
i on
Ġ c
a n
a r
i t
Ġt he
s e
i s
Ġ f
d e
c t
r o
in g
m e
Ġ o
Ġ p
i c
Ġ s
ĠĠĠĠ ĠĠĠ
Ġ w
Ġ b
e s
e d
Ġ in
en t
Ġ =
u r
a s
n d
ĉ ĉ
e t
Ġ n
Ġo f
u t
Ġ re
) ;
Ġ {
Ġt o
i l
Ġ (
c e
Ġ <
Ġ m
l o
Ġt h
- -
Ġa nd
u n
= "
r i
at ion
r a
u l
Ġ h
m p
Ġ e
Ġ d
Ġ *
i f
i d
o l
ĠĠĠĠĠĠĠĠ ĠĠĠ
/ /
t h
< /
Ġ S
e l
i g
a g
p e
č Ċ
Ġ $
Ġ T
Ġ v
o t
a me
at e
c h
a d
u e
Ġ }
Ġ C
i v
a b
Ġ A
c k
ct ion
t er
Ġ \
Ġ is
Ġ st
c o
l i
Ġ g
t e
s s
as s
u m
p t
u s
Ġf or
Ġ "
ĠĠĠĠ Ġ
Ġ I
* *
a m
t r
( )
" >
ĠĠĠĠĠĠĠĠ ĠĠĠĠĠĠĠĠ
v er
u b
Ġc on
h t
ur n
Ġ de
l y
Ġc o
x t
e w
l ass
Ġ se
a p
it h
Ġ l
a y
en d
q u
Ġb e
Ġ M
ag e
s p
u p
Ġ on
or t
t urn
o w
Ġ P
i r
a v
â Ģ
i st
y pe
m ent
er s
o d
-- --
= =
an d
e ct
Ġ '
Ġ B
Ġ if
R e
Ġ D
i m
I n
in e
g et
c on
ab le
Ġth is
o de
Ġth at
0 0
t o
o ur
ĠĠĠĠĠĠĠĠ ĠĠĠĠĠĠĠ
i z
Ġp ro
at h
t a
Ġ F
a se
ul t
l ic
Ġw ith
e m
Ġ N
Ġc lass
Ġ L
Ġa n
. .
k e
i le
Ġ //
o u
u re
pt ion
Ġa l
Ġ E
ar t
p er
in t
Ġ H
o m
it y
Ġre turn
at a
- >
Ġ &
ro m
Ġ it
al ue
Ġ G
re f
Ġa s
Ġ or
e st
_ {
a ck
Ġw h
ĠT he
un ction
Ġe x
an g
Ġ W
: :
al l
a c
Ġ @
Ġ R
i mp
ĉĉ ĉĉ
j ect
o re
i me
an s
es s
i al
er e
or m
f f
Ġb y
C on
2 0
Ġ y
Ġ me
o p
iv e
st r
Ġ O
o c
Ġ< /
v e
Ġ -
se t
o s
" ,
o ut
Ġ at
m a
p ro
il l
re s
i es
o o
u se
Ġ /
( "
b er
s c
p h
Ġa re
( );
Ġ +
Ġ [
ub lic
our ce
an t
it e
a re
ar y
in d
a ce
Ġf rom
.. /
te xt
t y
p ar
i re
n t
) ,
{ \
Ġn ew
or d
Ġ* /
Ġc h
Ġw e
Ġ Ċ
' ,
ul l
Ġ lo
l u
ig n
) .
Ġt r
tr ing
Ġ r
it ion
l f
---- ----
a st
Ġn ot
** **
m l
at ed
i p
Ġ U
iz e
s er
Ġw as
Ġn ame
Ġf unction
a ct
g in
n ame
b ject
Ġs h
ic e
i de
N ame
u nd
e xt
an ce
Ġ$ \
Ġ he
Ġ J
ro w
Ġ :
e x
1 9
er r
d d
q ue
d iv
S t
âĢ Ļ
th is
Ġ le
p ut
il d
ĠĠĠĠĠĠĠĠ ĠĠĠĠĠĠĠĠĠĠĠ
v ent
ig ht
av e
( '
f t
> </
ĉĉ ĉ
imp ort
ar d
E x
ĠĠĠĠĠĠĠĠ Ġ
f orm
Ġ _
p ort
== ==
Ġ j
sp an
un t
o st
ra y
b e
l l
le ment
f ig
m ath
de f
er t
c al
Ġre s
lo w
Ġp ublic
g e
Ġst r
P ro
or y
Ġv ar
Ġ .
u st
T he
) )
i o
Ġa r
o id
on g
on e
or k
i el
co m
p p
ĠI n
en s
Ġco mp
ri g
> <
a k
l ay
E R
o me
iel d
T ype
p s
Ġ |
Ġ V
s h
en ce
re turn
th er
Ġ li
c ess
en er
Ġde f
ic h
Ġc an
re ss
../ ../
ic al
u g
ul d
ss age
de x
S tring
b ut
at or
a in
i a
i ew
par am
u ct
O N
I N
el l
} }
co de
ke y
Ġg et
a mp
ta in
al se
ht ml
in k
Ġ un
Ġ !
i b
que st
t t
D e
s o
Ġ #
1 0
' s
I d
Ġt ype
Ġd o
Ġv alue
f er
rig ht
ĠT h
y st
ation s
^ {
Ġ use
Ġco m
c ol
Ġ âĢ
Ġ K
Ġ k
Ġh ref
t ype
c he
Ġh ave
Ġ Re
le ct
Ġh as
ro up
u d
en g
C o
m o
} \
u le
T o
sc ri
he n
Ġin t
at ch
a ch
yst em
ow n
b o
ab el
} $
re e
v al
t d
s ource
R E
ode l
c lu
v ice
de d
me ssage
at ic
Ġ us
pe ct
c re
ter n
} ,
in al
er y
Ġ= >
lo ck
f ra
a ult
Ġse t
u al
o uld
_ _
tr ans
Ġcon st
Ġ= =
um ent
Ġw ill
v ar
l ine
pe c
ap p
R es
Ġse lf
ce ption
Ġ i
c es
Ġn ull
S T
ri but
Ġwh ich
Ġcon t
e ar
l ation
ri v
ac he
f o
Ġo ut
Ġy ou
o int
i x
o g
# #
20 1
Ġe l
L ist
Ġd ata
ou nd
w e
n e
lo g
ad d
Ġal l
Ġv oid
a il
um ber
ir st
Ġ err
( \
/ >
se d
ang e
Ġ `
y n
ol d
A T
u c
u ild
: //
ar k
ption s
Ġ up
) );
C h
ur re
r y
str ing
A r
s um
qu al
Ġ en
Ġa c
ion s
be gin
Ġa ss
Ġa b
m s
c lass
" />
m b
e c
Ġm a
le s
se s
**** ****
r r
at es
I D
O R
ing s
L E
eng th
Ġf alse
// //
i e
Ġn e
m it
Ġt ime
Ġd is
lo c
ad er
Ġ id
le d
m in
Ġ >
Ġtr ue
" );
b ack
o f
-------- --------
Ġc ol
p l
Ġp ar
2 00
d ata
V alue
ĠĠĠĠĠĠĠĠĠĠĠĠĠĠĠĠ ĠĠĠĠĠĠĠ
l d
Ġ ro
T h
ĠS t
Ġb ut
se lf
id th
Ġon e
ht t
D ata
Ġel se
o b
g er
Ġl ine
) :
Ġres ult
or s
th od
"> <
1 2
r it
Ġb o
i an
A L
re ad
A R
on t
_{ \
riv ate
v alue
m ary
t he
e y
it le
Ġ )
Ġstr ing
Ġp er
Ġ& &
urre nt
Ġ end
trans lation
Ġs er
Ġ/ **
li ent
if i
Ġ| |
Ġt e
ic s
t on
u ff
E N
ĠC h
. _
Ġs o
av a
) $
l abel
S er
Ġp art
Ġv al
clu de
as k
ĠĠĠĠĠĠĠĠ ĠĠĠĠĠ
e p
Ġp re
] ;
per ty
S et
g ra
u ch
ame ter
Ġs p
f ile
an n
le ft
qu ire
E rr
u es
le t
c l
is h
ic k
ĠĠĠĠ ĠĠ
o ver
d i
" )
} {
Ġt est
Ġa dd
c ri
on se
Ex ception
Ġo ver
E n
Ġc ase
if ic
O bject
st ance
ar get
ro und
at ure
1 6
Ġh is
o k
C ol
Ġ! =
s on
co mp
ĠĠĠĠĠĠĠĠĠĠĠĠĠĠĠĠ ĠĠĠĠĠĠĠĠĠĠĠĠĠĠĠĠ
( $
ar ch
==== ====
Ġ// /
Ġ x
Ġal so
S e
Ġor g
te st
Ġw hen
p re
d ate
o v
Ġ Y
le ction
Ġp l
Ġin ter
S S
at ive
âĢ Ŀ
ĠTh is
i se
ar g
T est
Ġs up
ig h
w o
is s
m er
p r
P ar
Ġm ore
b ar
c a
as h
fra c
in ed
f or
od ule
1 8
f ter
un c
d er
p x
Ġan y
' )
s ub
Ġc re
Ġthe ir
sp ace
Ġa d
] ,
Co mp
Ġst atic
3 2
os ition
n ew
ent s
Ġo ther
f unction
Ġa pp
Ġf ile
or g
con t
C T
G et
Err or
ire ct
re am
it em
w ork
ĠS tring
() .
at er
Ġs ub
Ġn o
at us
Ġw ere
Ġa p
e q
() );
I T
f ore
Ġf irst
oo k
Ġt ra
v el
K ey
are nt
c ite
' );
e qu
he ck
m ber
en c
g le
a w
t ime
Ġm an
S E
r m
Ġw ork
con d
s ize
et a
} )
le an
D E
Ġ %
1 1
ut h
b r
Ġ --
Ġf inal
Ġs ome
n b
Ġo b
Con t
Ġ qu
Ġa g
Ġ imp
m on
c ent
od y
el y
ag es
mp l
F ile
Ġs pec
Ġo bject
y s
U n
o ck
Ġthe y
c ord
l er
Ġp rivate
ĠC o
$ .
id er
he d
Ġre g
ul ar
Ġtr ans
Ġ key
Ġon ly
tern al
E vent
p en
il ter
n ot
o se
math b
sum mary
r c
v iew
Ġe xt
ĠC on
N ode
Ġit s
str uct
Ġ ra
p lay
nb sp
f ace
T ime
ro ll
$ ,
m and
ib le
a x
li st
at ing
ĉĉĉĉ ĉ
w w
M E
ĠW e
Ġex p
uff er
ut il
ĠD e
Ġth ere
und er
scri pt
A N
l ink
oc ument
B y
loc ation
ver s
d u
Ġbe en
E lement
n o
. </
ind ow
ut e
T r
ĠU n
ĠI t
p ublic
Ġli st
Q u
a ction
1 5
p end
um n
ur l
} .
y le
in dex
Ġb ack
() ,
ers ion
m an
n er
Ġuse d
" ;
amp le
k en
n g
v ed
ro id
u i
ol low
Ġfor m
[ '
ĠP ro
Ġch ar
Ġin to
ment s
lo ad
Ġt wo
/ **
Ġme thod
d ing
tr y
il ity
2 5
a ke
, \
ic es
r ite
n ing
Ġn umber
Ġg o
Ġc all
in ter
Ġof f
it s
le te
U L
to p
d a
/ *
V iew
if y
con st
W e
ĠĠĠĠ Ċ
Ġa ct
equ ation
Ġwh o
ra ct
o ol
res ent
Ġ ?
Ġth an
Ġ );
t il
l ength
Ġ/ *
j s
am b
Ġar g
C lass
d is
math cal
ay s
cri pt
Ġo ur
H e
' ]
" :
ĠâĢ ľ
y p
ug h
C O
S h
co unt
ord er
1 00
Ġab out
t able
htt p
ase d
io us
Ġ/ >
St ate
ri de
Ġd if
ag er
} ;
on ent
p i
P E
Ġe vent
ph a
In dex
Ġb et
Ġsh ould
Ġst ate
R O
Ġf ield
iz ed
Ġerr or
p ath
v oid
Ġthe n
l ang
p y
T E
me d
Ġ ent
Re quest
P ath
p ack
Ġwh ere
Ġy our
Ġ under
Ġass ert
oo lean
2 2
ur ation
In fo
s ign
Ġm ay
Ġar ray
Ġg ener
Ġf ollow
re d
Ġh er
ribut e
"> </
1 4
] .
} (
Ġth row
t s
it ies
l a
T ext
Ġ} ,
Ġpro v
et h
Ar ray
ĠH e
mo ve
ro l
w h
ation al
on s
' :
lo b
P I
F or
Ġh ad
M an
Ġst art
Ġ im
at t
g roup
1 3
re ak
in clude
n av
c ur
Ġy ear
ĠA r
n ode
I ON
E qual
re g
v en
m d
ĠE x
6 4
Ġm odel
Ġ( !
Con fig
w idth
Ġ: =
Ġ= ==
} ^
ĠI f
er n
tain er
ifi ed
ot e
Con text
A C
b y
Ġ} );
F ield
f ield
() )
ut ion
Ġd ist
M ap
Ġp lay
g round
is hed
De f
A n
C ode
ar ray
al pha
Ġf e
} _
A dd
Ġre l
en se
Ġo per
Ġp e
.. .
I te
A s
//// ////
o us
Ġc or
~ \
ra me
Ġa fter
Ġc urrent
ĠâĢ ĵ
in ce
us er
T R
ap i
W ith
Ġus ing
ĠS e
" "
ri d
it ial
def ine
mp ty
` `
ra p
us h
Ġre quest
Ġex pect
Ġ X
iz ation
ou g
oo gle
Ġsh ow
Ġg iv
******** ********
ra w
amb da
Ġre p
m ap
Ġm o
' ;
ce pt
ĠĠĠĠĠĠĠĠĠĠĠĠĠĠĠĠ ĠĠĠĠĠĠĠĠĠĠĠ
Ġs uch
C om
Ġw ould
Ġn ode
! --
Ġe lement
bo x
1 7
we en
le m
Ġ_ _
an k
Ġp h
Ser vice
uild er
Ġs ize
Ġcon s
re sp
Ġre quire
=" ../../
L A
Ġdef ault
ass ert
Ġs a
ver y
3 0
' t
ect or
O ver
a ir
w ard
Ġh and
ess age
ap ache
con fig
p art
h o
S ystem
te ct
fer ence
S ize
[ ]
U R
O n
F orm
g a
res ult
Ġre sp
Ġ u
in s
ro ugh
se ction
val id
+ +
Ġj ava
form ation
yn c
al ly
Ġc al
H and
Ġt itle
Ġp oint
ĠG et
Ġs c
ff ect
ra ph
Ġe ach
Ġn il
Ġin v
Ġk n
o bject
tr ue
re n
) \
ist er
op le
Ġp ol
col or
cre ate
t ot
ĠN ew
Ġin st
l ag
Ġ} ;
ate g
lo se
Ġl ong
w ord
Ġthe m
per t
ist s
tt p
se arch
Ġ z
O f
I C
h at
ens ion
Ġg roup
is ion
mpl ate
in put
et urn
Ġre ad
Ġp o
Ġs ystem
ĠA n
am s
n et
def ault
il y
port s
st er
Ġm in
ut o
V al
ne ction
ĠF or
f e
Ġthe se
in es
5 0
ress ion
m all
en ces
it or
2 1
al e
u me
Ġbet ween
am ma
= \
Ġh igh
Ġm y
b lock
are d
Ġs ign
Res ult
d uct
or ld
m iss
N ot
Ite m
= '
D es
Ġs he
al s
h er
ur ing
$ \
le ar
htt ps
## ##
qu ot
enc y
Qu ery
ver t
m u
ust om
i ent
A l
Ġli ke
Ġr un
able d
Ġ Q
U p
M essage
U T
err or
Ġ Z
lic ation
it er
on d
L e
lo at
st ate
L O
st art
ameter s
f ul
ĠA l
it ed
l and
Ġ import
ic on
d ition
re ate
2 4
al ign
2 3
=" +
eth od
ou se
\ \
Ġwh ile
m odel
M A
Ġcon fig
_ \
Ġt arget
ĠS h
d ot
ĠA s
Ġo ptions
t itle
ig ma
f rom
Ġp r
i k
Ġne ed
u f
00 0
ve lo
Ġt ext
e k
scri ption
In t
to m
p onse
A D
en u
Ġ right
y mb
me mber
Ġstr uct
Ġth rough
19 9
Ġs ame
ff set
p o
Ġh ow
co re
w n
Ġ ed
Ġc heck
f unc
Ġdif fer
pert ies
c all
Ġgiv en
vers ion
Ġst ud
c c
o ot
Ġus er
as ses
Ġat t
th ing
an c
Ġm ost
ymb ol
Ġdo es
oc i
I m
Ġp ath
mathb b
M odel
e vent
---------------- ----------------
UL L
ant s
p oint
A tt
Ġco de
ent ial
B e
a z
ow er
uc cess
ĠĠĠĠĠĠĠĠ ĠĠĠĠ
che d
Ġj ust
C H
Ġn on
Pro perty
F F
G roup
Ġ-- >
r on
l p
L oc
Ġs ol
le x
b ody
ub le
Ġma ke
Ġin dex
Man ager
I s
IN G
M L
co pe
Ġcont ent
as on
ĉĉĉĉ ĉĉ
O r
E D
âĢ ĵ
O ut
we b
Ġin stance
A pp
in fo
ir t
lob al
b ug
lu gin
Ġin put
b ase
f in
ro p
In ter
ar s
end s
Ġlo cal
Ġval ues
Ġprov ide
Ġ\ \
Ġcre ate
C lient
uth or
um er
- \
at s
} _{
ĠS ystem
Ġd irect
} ^{
o ptions
ical ly
d uc
r ic
Ġl ast
Ġm at
Ġcon text
Ġlo g
ing le
Ġb ase
d t
act ory
M P
I G
ra g
w it
E T
ma x
Ġbe fore
nd er
Ġf ound
A c
ĠT r
Ar g
Ġbo ol
ĠS et
I S
iv ers
Ġpe ople
ĠĠ Ċ
i able
de l
^ {\
Res ponse
me thod
ure s
l ambda
Ġn ow
C all
con text
a pe
Ġsup port
ĠL e
3 3
Ġf il
an e
Re g
m odule
Ġor der
cont ent
yp es
roll er
ph i
oug h
le g
Th is
ser v
Ġb reak
t es
ann el
j ava
Ġwh at
T able
b f
t ing
Ġm ust
p os
se lect
Ġse e
le ase
======== ========
Ġw ell
m un
Ġpro b
a it
4 0
Co unt
Ġs rc
ction s
A t
n ect
m ark
en e
p ri
l t
f alse
d o
L o
l ing
an y
D is
Ġsa id
le ss
Ġ{ \
n ext
ifi er
Ġc l
h as
U N
ri x
Ġit em
ers on
ile d
C ell
tot ype
e ver
L og
Ġc a
Over ride
Ġcon tain
pack age
U ser
Ġf ind
s k
A B
he ad
F rom
ar n
Ġre f
D O
M ethod
Ġma x
mer ic
g t
g oogle
d b
tect ed
c or
Ġfollow ing
che ck
Ġt er
Ġag ain
id ent
i er
ta il
d oc
et work
Ġs ource
Ġst d
N ew
EN T
d own
ca use
] )
pl ace
Ġse cond
> (
Ġb lock
In put
="../../ ../../
b eta
Col or
end er
Ġdiffer ent
Ġco uld
E S
ww w
ĠĠĠĠĠĠĠĠ ĠĠ
irt ual
St ream
st atic
; &
Ġtr y
Ġv ersion
orm al
c ss
Tr ans
b s
Ġbo th
re at
Ġ( )
our ces
m y
velo p
w ay
l ight
s up
> &
se e
ir c
ific ation
o ption
O ptions
ĠC om
y m
t n
o x
us ing
me s
ot tom
Ġap pro
Ġal low
st yle
Ġn ext
def ined
Ġpro cess
Ġe very
g r
per i
B uilder
il on
8 0
u mp
Ġs ur
s ide
Ġc ent
c urrent
im age
St atus
Ġin formation
T H
e lement
ar gin
Ġ< <
To ken
U til
o ther
e ps
id d
Ġd i
mathb f
Ġin clu
gra m
Ġbe ing
Ġm ap
Ġd ocument
ĠC ol
lic k
c lient
but ton
r u
( (
ri ct
an sp
te ger
t en
Ġbe cause
Ġch ild
ith ub
s igma
if e
Ġst yle
Ġme ssage
d ay
is m
rit er
E nd
ic y
00 00
and roid
A S
Ġe st
A ll
name space
t ab
C E
T D
Ġm on
S ty
ĠS er
m od
n ull
Ġpart ic
a h
ro ss
de pend
ĠA ss
qu ery
Ex p
T ra
ĠN ULL
u age
] (
ail able
re quest
ĠĠĠĠĠĠĠĠĠĠĠĠĠĠĠĠ ĠĠĠĠĠĠĠĠĠĠĠĠĠĠĠ
Ġm od
Ġto p
Ġcont in
ab ility
log y
v ious
Ġb oolean
gra ph
Ġ( \
N ull
Ġle ft
j o
I L
w are
w ith
pro totype
ĠR es
6 0
Ġv is
Ġle t
A ME
g ithub
In stance
I P
Ġt able
O T
Ġp ri
ĠCo mp
at ab
^{ -
Ġl ink
ĉ ĠĠĠ
in ing
D ate
Re f
* /
Ġresult s
ch ool
b l
Ġback ground
Ġresp onse
Ġm ult
A nd
ĠI s
Ġe qu
Im age
act er
Ġin d
v es
S ource
Ġman y
=" #
d ir
Ġ$ (
Ġb uild
li b
q l
Ġse lect
Ġp osition
Ġyear s
ss ion
Ġh ere
Ġh im
arg s
. ,
ĠO n
Ġin clude
* }
; </
Ġv iew
Ġ+ =
sign ed
id get
or n
ref er
out h
B ase
Y PE
Ġg ame
l ish
che s
D el
ic ense
ath er
=" ../
in it
) }
ĠĠĠĠĠĠĠĠĠĠĠĠĠĠĠĠ Ġ
S ub
t ra
B uffer
U S
pr int
Ġa v
u ck
time s
Ġm ark
atab ase
( {
in f
h and
ce iv
P h
Hand ler
del ta
Ġor ig
Ġle vel
if t
Ġo pen
in ition
am ily
ix ed
B lock
Ġw idth
2 7
et s
o od
E X
um b
sh ip
ad ata
g y
al th
ar ge
ument s
Ġout put
n s
m at
c ase
Ġlo w
t arget
T e
Ġlo ok
iv ity
p age
g amma
cent er
Ġcol or
Ġp ass
Sty le
ĠL ist
O per
Ġth ree
Ġm ain
Ġlo c
v ices
Ġco unt
ĠJ o
ser ver
Ġe ven
A d
math rm
t ings
Att ribute
app end
s w
âĢ ľ
Ġe ffect
Ġ ,
F unction
Ã ©
Ð °
ĠT est
an el
ĠA meric
c i
U E
+ \
or age
L ay
Ġs im
Def ault
Ġd own
er o
Ġkn ow
ir on
miss ion
til de
9 9
lo cal
ac es
Cont ent
G ener
D I
re quire
Ġpro perty
at tern
F ilter
Ġw ay
x y
lo y
e qual
B ar
Ġin itial
t al
imp le
c ast
pt r
ON T
Ġf act
ual ly
Ġd uring
ul ation
he ight
Ġar t
T O
p arent
add ing
L ine
j son
E d
Ġ( $
Comp onent
ri es
ur al
iv ely
Ġand roid
Ġ" ""
Se lect
Ġm atch
N S
ar row
Res ource
ĠA nd
ex p
Ð ¾
E xt
2 8
Ġpro ject
Ġh ttp
Ġval id
F rame
ĠR eturn
Ġid ent
Ġw ant
ri e
p osition
Ġcons ider
r t
old er
ph p
A ction
v ol
St art
it al
ivers ity
ĠO bject
. âĢĿ
Ġre t
Ġme d
) </
he ader
Ġc lient
B ut
^ \
Ġo p
or th
[ "
< !--
row s
ic ro
ch ild
S p
Form at
M em
Ġs ince
en ame
om ain
fra me
Ġimp lement
2 6
Ġ url
over n
Ġcal led
Ġ ->
) {
C K
i or
v ider
read y
Ġb r
} {\
al k
Ġm odule
pro perty
Ġb order
t ag
Ġo pt
a u
b ig
g n
Ġd id
Ġma de
r ho
ist ory
Ġrep resent
N o
un g
t ed
Ġ! ==
Ġo wn
Ġre al
act ive
P er
Ġp arent
Ġli mit
se c
Ġr ange
p ush
Ġ{ @
Ġv ery
it u
r l
Ġin cre
Ġsup er
lag s
te mp
p m
pro to
Ġp ost
ang le
ribut es
F actory
ĠĠĠĠĠĠĠĠ ĠĠĠĠĠĠ
Ġan al
Ġ( (
Ġs cal
se mb
Ġs mall
Ġ čĊ
E L
Ġp op
N umber
Ġb l
O L
. "
V ersion
Ġc ur
Ġhe lp
Ġthrow s
0 1
F I
in ation
~ ~
Ġw rit
wit ch
Ġfe ature
g ress
end if
Equal s
ch o
ide o
w rite
ĉ Ċ
W indow
Ġde velop
Ġf in
ff ic
} );
H T
ang ed
Ġexpect ed
i que
ex pect
iv es
ess ion
4 5
v iron
P oint
Ġg u
Ġle ad
s rc
Ġ Ð
Ġser vice
Ġde c
Ġcall back
2 9
c y
f low
T ag
A ct
Ġse tt
ter s
Ġt ak
iz er
Ġcon dition
T ask
re en
Ġa m
Ġth ose
$ -
Ġa ut
x ml
Ġp resent
r un
ch ar
ĠT o
yn am
l en
ator s
ĠE n
wh ere
ĠT e
C reate
Ġper form
Ġl ength
//////// ////////
AT E
op y
Ġdist ribut
n ess
ĠY ou
u ary
Ġd on
and om
on y
Ð µ
a f
H el
ĠI N
f ilter
I f
Re ad
fig ure
Tr ue
Ġex ample
G L
fer ences
Ġf a
and ard
Ġex peri
S tr
A G
c dot
Ġdef ined
P re
Ġac cess
_ .
l ast
le q
str u
i ct
the ta
A ss
ta u
ta ck
op en
f ind
s pec
b uild
6 6
st atus
ob j
Ġre st
( &
v is
ot s
b ed
O P
Ch ild
Ġim age
ang es
Ġde scri
A P
] {
s g
return s
ater ial
7 5
S C
Ġwith out
19 8
s i
Ġo ld
Ġpo ss
Ġpro tected
it ive
lo ud
Ġp age
L ink
Ġg ra
Ġch ange
ĠI nd
Ġa ction
m t
ĠP ar
part ial
oc us
g ener
ĠG L
C heck
ial og
R ow
ser t
a i
du ction
N av
Ġc ar
ĠĠĠĠĠĠĠĠ Ċ
r ation
V ER
im um
} (\
b it
L ength
b uf
as ure
co me
ĠP h
b tn
l at
o pt
row ser
p rivate
te x
p c
w ays
ĠH ow
n u
P age
im al
Con st
qu ence
Ġob tain
Ġrequire d
" ]
" .
dis play
Ġ q
Ġw orld
r al
M et
ma il
Ġex ec
Col lection
Ġsp ace
Ġb ased
Ġex ist
p ost
Ġ[ ]
Ġs ingle
Ġde pend
old s
f irst
im ation
ic le
g o
ĠB e
S pec
S P
Ġcon f
un k
I M
Ġhe ad
Com mand
h ost
// /
und le
ome ga
d f
use d
ĠA dd
form at
unt ime
Ġres ource
lo t
an ces
fin ished
re move
O D
ar m
ĠR o
Ġs k
at tr
struct or
Ġav ailable
de scription
st d
Ġdis play
iv er
ĠN one
P art
so ft
ar ning
Ġpar ameter
Ġp os
20 22
ib ility
Ġs uccess
List ener
S ON
Del ta
re ct
Ġte mp
Ġre cord
d l
ref ix
C ache
re l
ith er
o per
ĠE X
ang uage
AB LE
F A
me ta
or ies
Ġadd ition
Ġpl ace
Ġinclu ding
Ġst ill
b all
N O
$ $
b ottom
Ġcom mun
RE F
P ol
LA SS
3 5
e e
++ )
Ġm uch
P RO
O b
Ġspec ified
Out put
p ng
ĠĠĠĠĠĠĠĠ ĠĠĠĠĊ
eq ref
l ished
res h
E E
M ode
qu ad
Ġj o
IN T
3 4
UR L
Ġwith in
ĉ Ġ
Ġt ri
L abel
Ġc ell
3 9
str ong
Ġm ak
Ġgo od
Ġt ake
Ġb ound
in a
Ġcont rol
Ġp res
in ary
$ {
( _
Ġp ort
ateg ory
ĠA d
Ġl abel
end ing
he et
viron ment
inf ty
}$ .
Ġ et
up date
il ar
Ġe ar
I t
in c
}$ ,
con tainer
ut ure
Ġcom mand
Val id
] );
Ġv er
Ġm ode
Ġo ption
ag n
Ġext ends
s ol
ir d
ĠRe g
Ġco un
Ġb ro
ma in
H E
st ream
un finished
b ook
S c
" ).
port ed
ĠM ar
Ġap pe
We b
ĠA ll
Ġcol umn
ip le
Ġadd ress
m m
| \
Ġhe ight
in ess
ĉĉĉĉ ĉĉĉĉ
T YPE
Cont roller
ĠA pp
ER R
Ġs s
Ġu int
" ),
7 0
5 5
he ther
ot o
Ġw indow
) (
ys is
j av
Ġpar ameters
ER T
to ol
bo ve
Ġagain st
ast er
en ded
n umber
E nt
O ffset
ur y
eq n
h n
p ol
But ton
amp les
Ġup date
Ġmo ve
: "
pro ject
Ġp ack
s ing
> >
p lugin
Ġa round
V ar
Ġn etwork
A M
Ð ¸
out put
resp onse
com mon
R eturn
che ma
ear ch
ire d
ĠL icense
g ing
duc ed
ĠN o
Ġl en
Ġbe h
ol ume
param s
l in
S up
l s
ĠUn iversity
Ġco py
o ffset
e ad
nav bar
so le
C C
a de
us ic
n on
on ents
ĠâĢ Ķ
Ġc atch
C ON
st ract
U rl
Ġal ready
ra int
Ġass oci
Ġa bove
i um
T P
O S
Ġt ask
Ġbe st
im g
Ġf rame
Ġf ull
9 0
r ing
at ely
il er
Ġm argin
F ONT
Col umn
Ġob j
ĠB y
u int
ener gy
W idth
ĠS p
c lose
ĠA PI
Ġ ke
c ache
**************** ****************
par se
, âĢĿ
in stance
rig ger
ĠTh ere
Ġorig inal
Ġl a
. $
ent ry
ĠW h
Ġf our
U I
\ ,
Ġa uto
g or
Ġs um
ens or
R un
' '
et y
M odule
Ġpre vious
m enu
lu ster
Ġin ternal
Ġl arge
Ġp ower
Ġst atus
s or
ĠS o
re t
n own
B U
w ide
Ġte ch
t x
in st
Ġdis c
Q L
Ġs ide
Ġqu ery
f ont
Ġf ilter
ri ver
l ate
C ase
Pro vider
Ġh ome
x i
y les
Ġvar iable
Ġf ail
stru ction
F e
T ypes
Up date
du ce
cri ption
ch ange
Ġm ov
le y
Ġis s
ser vice
ĠAr ray
app ing
b ind
U M
Con tainer
Ġte am
c ul
Ġarg s
Ġ es
Ġst ore
ore m
3 6
Ñ Ĥ
ac y
ud io
semb ly
Ġto tal
age ment
i od
Ch ar
T arget
Ġc ustom
Ġp erson
< ?
de v
Ġg r
ĠS he
Ġ ]
li p
as cript
om en
Ġser ver
Ġan other
Ser ver
Lay out
4 4
ens ure
te gr
k it
a j
ap er
cord ing
ta ct
el se
ĠM an
av ing
u ss
20 20
ver age
Ġreturn s
Re ferences
ĠAmeric an
u ro
Ġe lect
ĠĠĠĠĠĠĠĠĠĠĠĠĠĠĠĠ ĠĠĠĠĠĠĠĠĠĠĠĠĠĠĠĠĠĠĠ
col umn
Ġcor resp
N AME
i ed
tr ic
iv al
ĠAss ert
sh ow
D o
gor ith
Inter face
Ġre ceiv
o ke
ĠE ng
lay out
a ut
val u
u k
Ġres pect
te mplate
Ġl ay
ĠA t
ĠB ut
is on
ur ther
a pt
Ġb us
Ġchar acter
rap per
B ox
s q
ry pt
ex ec
' ).
li ed
un it
Ġform at
3 1
n ow
he s
w ise
Ġh ost
ig ation
Ġpr int
ĠReturn s
I Z
ĠC an
Ġde ter
Ġd ay
il t
I O
C L
c ed
g ed
D B
co ding
n um
e mp
as ic
it t
Ġc lear
ĠU S
mo unt
ĠD o
expect ed
Ac cess
pro cess
ver se
at al
le v
3 8
A PI
Ġc ap
Ġpro duct
Ġkn own
sh ould
if act
g est
ad o
ĠO r
m ult
ule s
c ap
Ġb ody
unt il
Ġinter face
ĠM o
Ġw ord
20 21
g ment
Ġt ag
ĠF e
Ġgener al
R ange
tail s
Add ress
4 8
Ġser ies
He ader
p ed
w indow
Ġv irtual
ta x
ps i
ann ot
S to
Ġb ook
Ġc lo
z e
er m
ĠT ype
Ġ< !--
im ension
ĠH T
o ff
Ġoff set
Call back
on ly
Ġcon nection
V AL
s l
Ġposs ible
il li
`` `
B ack
Ġsh ort
201 6
Ġl ife
Par ameter
201 5
c m
ĠJ an
v ing
ĠI D
0 5
Ġb uffer
Ġdo uble
Ġw rite
ca ption
3 7
Config uration
( [
b ra
p th
m atch
Ġf ree
Ġin f
Ġl aw
u str
ĠF ile
ĠT ra
F irst
PE CT
ĠM ay
me ga
ĠC ar
L ast
Ġpro perties
Ġse ver
ĠA c
util s
bo ol
Ġc lose
b uffer
idd en
me di
Ġb el
Ġp ur
c an
ap ter
ist ry
Ð ½
ansp ort
st ore
Ġe qual
Ġlo ad
Ġcomp ut
f s
Ġf ore
p es
Â ł
Ġme m
Ġ energy
jav ascript
bo ard
eps ilon
a ded
He ight
ag ed
N ext
ra m
ri st
Ġpro gram
ct x
Ġelement s
Ġe ither
ens ions
ĠF r
C l
ĠH REF
I mp
En try
W rite
Ġd ue
c s
Ġst ream
fo ot
Ġwe ek
un e
Ġl ater
ro ot
an ch
m ote
201 4
g en
d raw
UL T
di ct
D et
Ġth ink
Ġpoint s
' ),
201 7
() ->
ĠC LASS
#### ####
Ġ until
lic it
Ġde st
Ġse arch
eqn array
Ġun defined
refer ence
s im
Ġc ache
Ġco ur
Ġme t
Util s
Ġe mp
que ue
V is
O ST
com mand
CO L
M ax
p ose
cl us
me t
ic ation
ac ity
l ap
ure d
Ġcomp let
ĠG ener
M S
t ask
Ġ{ }
i sed
s m
P osition
ĠU p
oc ial
mb ers
ft ware
T ree
19 7
cre t
lic e
it ory
201 8
Ġse ction
Ġ` `
E mpty
Ġevent s
Ġw hether
Ġf ont
i ant
el s
} [
s mall
O mega
l it
Ġc are
op s
Ġg lobal
ĠUn ited
Par ams
ire ction
Ġd iv
tt ps
al t
J son
}} \
)$ .
Un it
Ġs pe
Ġorg an
Ġfile s
Ġal ways
ĠThe y
f loat
âĢ ¦
Ġtra ck
Ġ* *
ol ve
Ġmethod s
Ġf amily
o le
ĠC reate
d ocument
Con nection
it es
ĠâĢ ĺ
Ġd ate
o ice
Ġme asure
m ar
le vel
j e
to col
Ġs chool
Ġb u
D i
. /
Ġinter est
Ġac count
Ġf loat
Ġn one
set s
Ġreg ion
Ġp ut
Ġf re
Ġarg uments
^ *
ĠD is
Ġh ttps
f oo
20 19
] [
ĠF ig
ex ports
overn ment
} _{\
: (
th s
T op
P r
res ource
D ocument
ĠDe f
K E
m ut
P ack
P l
Ñ Ģ
graph ics
Ġfunction s
Ġprovide d
V er
ass word
c er
Ġm ass
Ġ> =
M in
A b
Ġit er
tain s
Le vel
ĠSt ate
a int
Ġcre ated
ĠP ol
Th read
Ġto o
Ġpartic ular
ed ia
Ġle g
ĠC al
U P
Ġind ic
Ġal ong
ill ion
icro soft
ro y
X X
tern ational
AR T
Ġt urn
ĠEX PECT
ward s
ps ilon
Ġx ml
ĠN ot
Ġsim ilar
Ġro le
g l
u id
: </
O ption
sq rt
ĠC ent
in ner
K ind
Ġs at
depend ent
Ġ row
p atch
ent ion
" ))
ĠHow ever
M od
al let
Ġcol lection
ĠO F
Ġoper ation
f inal
l ong
W h
s cope
t ree
Ġs ay
r s
yn tax
Ġro ot
Ġin it
ĉĉĉĉ ĉĉĉ
im ages
Ġinv est
Ġp ub
Ġap i
Ġde l
N D
H ash
Ex ec
Ex ternal
âĢ Ķ
Oper ation
ĠC lass
Ġd one
Ġle ss
ar r
c le
at form
Ġh app
? :
t ml
201 3
st yles
Ġb it
e mpty
eng ine
if f
B undle
ĠD es
Ġre move
um an
em ber
Ġp ay
e ded
P C
ĠT ime
ĠC O
Ġfield s
Ġp at
Ġstud y
Cont rol
, "
Ġlink s
de st
Ġme an
V E
pen ame
up le
ST R
to ken
M atch
ĠG e
Ġn ear
d om
al f
Ġover ride
cur ity
Ġf ew
ce ll
Loc ation
ĠD ata
ra ft
Ġbe gin
ve c
6 7
6 5
Ġd en
er a
li mit
Ġpar ams
de s
Ġare a
G amma
og raph
sc he
Ġal ign
Re cord
Ent ity
Set tings
Ġ* )
Ġn ormal
Ġp ot
R L
b b
S H
Ġcomp onent
n a
a uthor
Ġ ...
w ait
Id ent
ĠL o
se cond
ial ly
u x
P tr
Ġspec ific
ĠC l
ex ample
re nder
Ġmodel s
Pro cess
sc ale
i res
im ate
ord in
ĠS up
ist ic
Ġt ypes
Ð¾ Ð
val ues
ĠCo un
ta ch
L I
Ġc r
ĠEx ception
ĠC ont
Ġw on
E Q
back ground
Ġprob lem
AT ION
am l
at ter
d ist
Ġe mpty
f a
d rop
Ch ange
ĠM e
AC K
p or
T I
Ġchild ren
Ġse ason
oo st
Ġcom b
Ġd er
d at
pre c
r ont
Ġe as
H ttp
Ġreturn ed
() :
ĠB o
b reak
de bug
) ]
ĠW hen
Ġhand le
g an
CO DE
n ap
D irect
% %
P o
Ġcon nect
ens ity
gorith m
Q ue
Ġre nder
S earch
201 2
id ual
h ip
N one
un ded
Ġm ight
li es
ĠC heck
A A
d ated
0 2
om ic
im er
> ,
Exp ression
g es
Pro perties
v are
ĠN ame
Hand le
h ash
ur ity
al es
Ġde sign
Ġg raph
IN E
al y
201 1
)$ ,
j or
action s
0 8
by te
Ġ$ {\
ĠW orld
ĠĠĠĠĠĠĠĠĠĠĠĠĠĠĠĠ ĠĠĠĠĠ
Ġent ry
Ġcontain s
0 4
" ));
st and
or iz
v as
th on
A g
pro p
Ġimport ant
ĠJo hn
Ġapp lication
Ġle ast
Ġte mplate
IZ E
O pen
ĠE rr
he nt
et ch
i j
à ¤
ut es
me m
ĠSe e
ms g
sub section
lay er
Ġre lation
W ork
ĠIn st
Ġre ference
B ig
cre en
Ġtime s
s ystem
OR T
As ync
Ġsever al
Ñ ģ
s v
ase s
sk ip
ight s
Ġre ma
} /
Ġstruct ure
} =
R ender
vare psilon
Ġf oot
20 10
Lo ad
Ġv e
P ort
ser ved
leg ate
ĠM in
S ession
Ġassoci ated
Ġch annel
D ir
Re ference
Ġ quest
ar ing
Ġe v
cont rol
co py
8 8
H ost
Ġsh own
k s
Sto re
Loc al
b a
ĠN ov
g gle
Ġj ob
re st
s d
ã ģ
in ternal
m ode
S cript
Ġspec ial
IG N
ĉ ĠĠĠĠĠĠĠ
d irect
=" _
Ġfil m
Ġad ded
Pro ject
ĠV al
ly ing
U B
am il
ir m
ck et
k nown
Ġv ia
ch i
ĠS c
ynam ic
Ġstr ong
ul y
ĠN ational
co ver
C opy
0 7
cl asses
AL L
4 7
ĠA b
Ġst andard
ĠP l
O p
Ġname space
Ġper iod
ac ed
Ġatt ribute
Ġ ::
i i
br ary
4 9
ib r
Ġbet ter
_ ;
I ter
x x
Ġter ms
s a
f l
Ġa uthor
}^ {\
idd le
Ġf l
u ed
ĠS outh
and s
Des cription
itt le
ab ly
ĠA ct
( *
ĠG u
M at
Ġn av
Ġex ception
ĠW ith
con nect
ction ary
Ġcontin ue
i ans
di us
re q
Ġc la
Ġqu ant
Ġter m
Ġme ans
de vice
^{ (
Ġinst ead
Ser ial
res sed
de lete
) =
c ame
he l
Ġmat rix
ug gest
on es
Ġ\ ,
as sed
ĠS ub
Ġne ver
Ġbe low
get her
art ifact
st amp
Ġp adding
C urrent
Ġdef ine
ĠSt ates
S cal
Ġg row
F ont
M O
ĠS te
b m
Ġvar i
In valid
ĠN e
I mpl
id s
Ġ ~
pp ed
="../../../../ ../
con f
c d
Par ameters
Ġad v
ag ing
Ġgo ing
Ġg l
li m
Ġcomp any
Ġs pect
I I
Ġme mbers
c irc
Ġoff ic
b order
ec urity
Ġscal e
0 6
Ġloc ation
ERR OR
S ign
re p
var phi
Ġcom mon
jo in
C P
ĠP er
r ange
ty pes
Ġobject s
Ġhas h
T ER
Ġl anguage
Ġ[ '
ist ent
or ph
I F
enc ies
is f
ĠN S
Ġoper ator
O ne
to String
M o
ĠB l
Ġn um
r angle
ign ore
Ġto ken
Ġ â
In teger
{ {
Ġhe alth
oug ht
on ding
Ġimp ro
Ġb ig
Ġshow s
% ;
a e
right arrow
iv ing
In st
Ġcon tainer
} ).
Ġ ide
Ġplay ers
sp lit
C ore
Ġm er
th ers
P os
Hel per
4 2
Ġex pl
W idget
Ġre search
Ġin s
ad ow
S O
ance l
Ġ ;
================ ================
se l
Ġpro m
Ġke ep
am ent
Ġ qual
ri p
bo ot
ĠT O
0 9
__ (
Ġ" \
ut ions
st ack
web kit
Ġpar se
Ġmed ia
st rap
Ġpot ential
Ã ¡
for med
Ġconfig uration
Ġre cent
Arg ument
B ind
Ġch anges
Ġcent er
ĠTr ans
=" -
ĠO R
inter face
ĠThe se
b um
hand le
c at
log ical
ĠJan uary
Ġto ol
in o
a uto
R out
p op
i ents
Ġsign ific
Ġm usic
AN D
0 3
6 8
er man
x is
Le ft
as ing
Ġde vice
Ġm ag
med ia
y l
R ect
` .
Ġh o
Name s
ar i
ĠY ork
re place
b in
Ġint ro
Ass ert
ature s
Ġs ite
call back
include graphics
Ġon ce
M eta
( :
iz ing
Ġg e
T S
Ġse par
Ġmult iple
ĠL og
iz es
Ġinst all
Ġcan not
Ġre mo
Ġg reat
CT ION
is ing
ĠO ct
ub e
L et
Ġest ab
Or der
ĠP art
Ġst op
Ġarg ument
COL OR
o ber
B O
Ġset s
be fore
ateg y
Ġl ight
ound s
C D
Ġsup p
Pol icy
en v
Ġm iss
c p
Ġpro f
Ġp air
trans form
c lear
Ġlow er
F O
Ġg ot
Met adata
Ġs ure
text bf
Te mplate
Ġl ate
D own
To ol
en n
Ġs m
S chema
M M
ame s
er tain
[ \
25 5
ic ons
ct or
M ult
Ġw in
ĠI nt
Ġfollow s
Ġs ent
rie f
w s
B ody
ĠE d
Ġre ally
rom ise
Des cript
Re ader
ĠIn ter
ĠW est
ĠThe n
artifact Id
By tes
{ }
se ssion
P arent
` ,
Ġin fo
Ġt re
Ġma jor
ĠD E
Ġdistribut ion
. \
S D
model s
Ġre port
Ġme mber
G ET
R I
ĠC or
Ġh ard
De vice
Ġr andom
M enu
ĠA ug
. ~\
Ġconst ant
imp l
' ],
mit ted
file s
Ġcase s
ot ion
emp h
a uth
Ġear ly
ick er
Ġde lete
un ch
Ġpol it
b oolean
Ġdif f
uro pe
ĠĠĠĠĠĠĠĠĠĠĠĠĠĠĠĠ ĠĠĠĠ
ail s
i ke
v ector
Ġin tegr
Ġselect ed
Ġf uture
f n
} ),
Ġfeature s
ra d
Ġs cope
iv ed
Arg s
pro of
ĠM ap
Ġv ector
un ter
L ambda
Ġo cc
Par ser
av es
m ost
V ector
Ġperform ance
Ġby te
Ġd at
Ġh istory
He ad
J o
Ġk ind
5 7
Ġco st
g reg
F alse
Ġr ate
Ġreg ister
Ġact ive
il ities
Ġdoes n
5 9
Ġf urther
ad a
itu de
ex ception
ard s
Ġst ep
S L
Val ues
ĠS chool
Ġ( '
ru pt
ac ing
C R
Ġf ri
U s
OR D
Ġse ssion
iter al
v m
over line
i ence
group Id
re et
AT A
pl it
ge q
Ġun signed
Ġac ross
equal s
agn ost
Ġs imple
Ġst ates
Th at
c lick
Ġcondition s
le ased
ult ure
m ic
ition s
ag ue
av ior
s end
Ġanal ysis
P RE
a a
Ġun it
Ġby tes
f ill
Ġac cept
Ġph ys
Ġfil ename
}, \
St orage
co der
w idget
type of
ĉĉ Ċ
an a
="../../../../ ../../
4 6
or ig
Ġ{ };
doc s
ĉ ĠĠĠĠĠ
f il
ĠP r
R el
-- -
Ġdef inition
Ġc irc
Ġde scription
Ġin div
N E
Ġcal cul
our s
Ġre lease
Ġs witch
di ent
Ġbo x
DI R
ĠCoun ty
X ml
Ġab le
Ġcomp lex
Ġtrans form
ĠE nd
s f
200 9
Ġex ists
b ased
ce ive
ma ke
Ġs w
TE ST
Tra ck
A fter
C al
TE D
web pack
Ġaddition al
Ġhe ader
I nd
fra k
' >
B oolean
Ġcor rect
id ence
Ġs ays
g lobal
Ġname s
O K
ĠS ep
av en
om an
ar ies
SE T
R oot
ã ĥ
De lete
ur i
ĠI m
Ġbus iness
h over
Ġexp ression
po sed
t hen
S ymbol
ĠE vent
ri b
ĠA pr
Ġz ero
5 8
add ress
Nav Bar
urre n
Ġsignific ant
miss ions
ĠR E
Ġco me
ĠTr ue
Ġs u
te mber
ab or
" `
Ġde cl
li ke
Ġc ity
ĠC ON
co gn
Ġen vironment
styles heet
ab s
e v
Ġg ive
Ġm ar
Ġg overnment
ch an
M on
Ġ+ +
Ġsome thing
ist ration
ri m
Time out
oriz ont
l n
ĠM ath
Ġpl an
Ġde tails
ĠM arch
yn ch
. }
Ġl ines
Ġs end
& \
D F
Ġ} )
o ung
Def inition
; ->
Par am
vol ution
-------------------------------- --------------------------------
Ġt ree
Ġto gether
ac cess
R ight
Ġf ar
Ġp assed
Ġli k
Ġex cept
P L
ĠC ity
ĠD ate
ĠM y
Ġline ar
) ^
d s
Ġreceiv ed
a ff
Ġpro p
Ġv ideo
Ġw ater
Ġ( "
ĠW ar
ime s
s y
ur ch
Ġ< =
ĠP re
Ġd raw
ustr al
De bug
ut able
Ġan t
G e
200 8
ome try
ĠErr or
rid ge
er ing
S tack
ist or
Ġth read
dis abled
h am
r um
Th ere
ĠWe b
Ġd ays
By te
m i
ol l
a use
f g
Ġfa iled
and id
Ġassert Equals
Ġt y
ĠO ne
Ġapp lic
Ġc ref
Y ou
7 7
Ġdeter min
Ġsat isf
Ġcorresp onding
ĠS T
ce mber
ĠD ep
Ob j
j ust
ar p
par ameter
Ġsol ution
h a
Ġre ason
ĠJ SON
De cl
C an
Ġs ort
200 0
h r
Ġaut om
ol ved
> ();
set tings
k ind
A pi
U RE
n ormal
Ġa mount
Descript or
B uild
En abled
Field s
App lication
c ard
Ġd atabase
Ġindiv idual
al le
ro s
je ction
Ġ Â
& #
Ġcont ribut
p loy
OR M
v i
T itle
ĠĠĠĠĠĠĠĠĠĠĠĠĠĠĠĠ ĠĠĠĠĠĠĠĠĠĠĠĠĠĠĠĠĠĠĠĠĠĠĠ
ss ages
ot t
S k
y ear
Ġsol id
Ġg en
Ġde ath
comp onent
R A
s ort
ex port
cur s
Ġc y
nap sh
H ow
c ustom
math frak
20 23
L ong
P ri
\ "
er al
Ġh y
in sert
Ġs ong
orizont al
g s
S A
ide d
b olds
ĠS k
ĠA g
Ġse en
W riter
ur b
ĠM on
Ġcomp lete
Ġob serv
Ġp ract
Ġf low
U se
ĠB G
Ġ ri
Ġitem s
Ġinclu ded
R ule
en um
Ch annel
Ġhigh er
D atabase
Ġ" /
Ġ( *
bolds ymbol
is k
( -
Ġsystem s
O M
Ġmem ory
P ost
Ġne g
Ġ[ ];
W E
a fter
Ġmark et
Ġact iv
Ġb ar
urn al
or ity
ist ics
ĠV alue
5 00
Re p
S QL
ado op
o logy
' re
field s
pos itory
Ġof ten
Ġo s
il it
th ough
n ers
Ġf lu
Ġse quence
Ġgener ated
ra in
Ġof fer
Ġ' /
Ġsett ings
Ġw ait
l or
re w
Ġwork ing
N on
> .
A re
ie ve
mod al
Ġwrit ten
Ġbe come
Ġw omen
Ġinstance of
Ġc he
Ġam ong
6 9
ol ution
Ġne eded
ro me
Ġass ign
Ġth ird
ri ed
Ġwe b
H as
ĠE urope
frame work
de sc
ĠCh rist
Que ue
ĠL et
G E
M ock
ĠI O
one y
Ġcommun ity
O UT
it ing
quire d
Ġcoun try
Ġrun ning
ansp arent
g u
qu ent
umb ers
Ġgroup s
im s
Ġne cess
Dis play
ock et
Ġin line
le ge
reg ister
s ql
Ġen ough
Ġ Qu
let ed
oo se
D D
Ġsupport ed
Ġp attern
Ġmak ing
Ġth ings
Ġdevelop ment
Ġdirect ory
Ġy et
## #
C A
ern el
Ġc rit
ĠG r
at io
ĠB rit
Ġrel ative
Ġser vices
p adding
i xt
p anel
ed s
Ġh aving
Ġun ique
li er
s uccess
Ã ³
ĠTh at
ĠM ark
ã Ĥ
Ġl and
Ġre d
Ġact ual
ym me
z z
Ġm aterial
C ustom
' ))
4 3
ĠJ une
do uble
g rid
ĠM c
Ġp aper
Ġst ory
SS ERT
~~ ~~
if orm
HT ML
o om
item s
l ines
i as
Ġp ast
ĠĠĠĠĠĠĠĠĠĠĠĠĠĠĠĠ ĠĠ
Ġar ch
AT H
Ġra d
Ch anged
Ġerr ors
S end
act or
ip el
act ers
J ob
100 0
A ut
ad min
em s
Ġm sg
$ (
Ġsuccess ful
} "
P e
in line
ug ht
ber t
ld ots
Ġo c
Ġf ac
S ION
N e
_ ,
Ġc amp
att ribute
Ġd oc
p ing
ĠO ut
ĠAug ust
ul a
Ġdescri bed
KE Y
ĠN ote
Ġwork s
I R
_ ->
lang le
ĠN orth
d r
Ġsub ject
Ġl ittle
ĠOct ober
Ġs ocial
Ġre view
Ġappro ach
ĠU RL
al low
Ġrel ated
sup port
ĠSep tember
D ialog
k a
c md
ĠJ uly
Ġs uggest
Ġhand ler
Ġbut ton
f ree
no logy
m argin
S te
om in
key s
N um
h line
S cope
use s
ĠCh ar
ĠApr il
f ocus
app a
sh ape
Ġe lem
Ġj son
5 6
G raph
}} $
Ġs y
ut or
anc ed
FA ULT
ĠI S
ĠI mp
end ar
Cl asses
Ġnode s
v ision
Ġf und
h y
rag ment
E M
Ġneed s
ĠA fter
ynch ron
Ġse lection
w in
at ural
I con
Ġa ge
ide s
W hen
Ġext ra
Ġal bum
ĠB ar
ĠBG COLOR
qu ires
Ġst at
Ġbe came
Ġf unc
ä ¸
Ġas k
mat rix
Ġe valu
Ġde g
he lp
ne y
E ach
Ġr ule
Ġvar ious
ound ation
Ġbl ack
Ph i
"" "
un signed
Ã Ń
app ly
al ity
A V
D oc
ĠDe cember
Ġh uman
code d
200 7
Ġv ert
n ab
H P
lo s
i ol
Ġra ise
Ġso ftware
C lick
Act ive
Ġmak es
ĠRe ad
com m
Ġe mb
4 1
h adoop
Ġcomp et
in itial
ur g
to ggle
con nection
Ġsett ing
In it
Ġe cho
. __
ĠNov ember
J SON
ĠD i
ĠU se
On ly
b or
ĠDef ault
Ġemp loy
-> _
Ġfor mer
ĠM ore
Ġc ross
Ġstart ed
ed it
Ġf ive
* )
Ġappro x
Ġco ver
oper ator
Ġe p
uck et
Ġt yp
not e
w ner
Test s
200 6
F T
Ġobtain ed
Ġa ir
c loud
ach ine
Ġn umer
EN D
M e
C re
Ġs ample
Ġd omain
D raw
Ġother wise
mo ck
Ġconsider ed
Ġch ain
Ġbu ilt
Ð° Ð
et er
Ġan no
prec ated
Ġre fer
Ġa verage
ill s
ĠHT ML
h igh
//////////////// ////////////////
IT Y
Ġa way
boot strap
Ġpol icy
Ġapp ly
Select or
h s
AC E
M sg
Ġcurrent ly
h ib
Ġc luster
ĠN OT
wh ich
Ġanal y
sc al
Ġmo ment
ĠS an
ĠC re
Ġname d
Ġc ertain
aw s
Ġac cording
f ric
9 5
re cord
Ġtype of
sup er
] ]
B A
N et
Ext ension
co s
CH E
k appa
Ġs cript
te ction
L ock
EX T
Ġpos itive
t ip
ĠA ustral
ot a
br uary
ma z
Ġv olume
Ġre leased
Ġkey s
AG E
Ġst rict
E l
Ġh alf
Ġro t
ĠL O
ut er
ĠH igh
Ġs imp
Ġb ind
Ġm illion
sc roll
P lugin
ase t
ĠG erman
Ġph ot
ri gin
p k
ter m
.. ..
app lication
En g
w ik
ched ule
Pro p
Ġf ixed
lang uage
ic ate
Ġd ensity
Ġplay er
Ġat temp
FI LE
Ġcon vert
P attern
F unc
Ġgame s
Ġd ig
& &
Se e
\ |
S ecurity
ĠP e
n i
add r
assert Equals
Not Null
id ing
TE X
foot er
Ġst ack
Ġh ouse
[ :
ĠF unction
Ġph ase
Ġs ing
Ġto ok
M ark
we ight
cite p
ert ific
F ig
et ime
Ġb ir
Ġh old
Ġinv oke
napsh ot
Ġ ),
Ġf all
ĠP y
ser ial
on al
able s
led ge
ibr ary
ĠSer vice
ĠO pen
= {
Ġthe ory
Ġex act
ĠN ode
8 7
Ġs ymbol
ance ll
al loc
Ġth ough
ast ic
mark s
Ġmax imum
c r
Ġh tml
R et
/ \
S o
Ġcontin u
ix el
av or
Ġunder stand
", "
ann er
D L
f it
F lags
Ġf it
Ġexist ing
Ġuse s
S igma
ĠR ed
F loat
sum er
W hat
ol ver
ĠC opy
Ġc ame
m ore
-- >
N etwork
Ġtra ining
8 9
w rap
ĠP res
Ġb and
p g
le ms
ĠAr t
Ġfoot ball
T C
Ġpl atform
ĠS ch
In itial
V ID
Ġme et
ch annel
bs ite
R ed
Mem ber
Ġpo inter
ot imes
} )$
Ġal t
her it
ĠD ist
c ar
T ab
Ġdist ance
i et
iv en
ri ve
)) )
am era
Ġca pt
( !
row n
li de
assert Equal
Ġprovide s
Ġd b
Ġty pename
Ġallow ed
Ite ms
Ġword s
ĠG roup
m box
f ull
ipel ine
P R
ĠĠĠĠĠĠĠĠĠĠĠĠĠĠĠĠ ĠĠĠĠĠĠĠĠĠ
Ġhow ever
reg ion
Ġlo t
proto buf
Ed it
select ed
ĠM ed
com ing
ĠT HE
Ġst ar
e ach
Ġappe ar
v irtual
im ated
co in
Result s
Ġtak en
Ġat tack
y es
Ġtest s
C S
Ġstud ents
h older
er ed
Ġwrit ing
ĠB ase
Ġb as
Ġlo ck
W S
b ers
B l
Ġ( _
nab la
ĠF orm
ĠS pec
ic les
Ġbuild ing
M D
plugin s
Ġ Ã
ĠO b
Ġ engine
Ġv ol
Ġd r
Ġs ix
Ġus ers
V olume
ar ison
5 4
Ġat tr
Ġfe el
depend ency
ĠP o
Style ID
200 5
Ġn et
Iter ator
com ment
th at
Ġcon struct
ĠĠĠĠĠĠ Ċ
Ġpack age
Ġtrans ition
Window s
st op
ĠB O
Ġcol lect
co very
Ġtemp er
k er
_ (
In ternal
Ġexperi ence
P ool
ĠA L
E CT
ĠS ome
Ġ ignore
Ġp ress
f ony
Ġext ension
ĠU ser
Pack age
@ "
="../../ ../
Str uct
ff ff
che me
tra ck
Ġed uc
5 2
ym fony
qu are
ĉ ĠĠĠĠĠĠĠĠĠĠĠ
Ġt w
iter ator
st ep
)) );
event s
5 1
m ine
Ġright s
ĠV AL
Ġallow s
ĠW ork
il le
a iled
=" /
p ress
Ġo thers
at ory
Ġdirect ly
Ġt reat
R untime
wit ter
ĠL a
Ġtrans action
leg al
Ġdistribut ed
ĠK ey
Ġp ers
++ ;
ĠP ublic
; <
. )
sche ma
8 6
Ġreg ular
Ġpop ulation
") ]
Ġs co
Ġl ive
P ORT
ensure math
Ġimplement ation
C ur
Ġfor ce
) ">
Ġent ire
non umber
em ail
ĠV er
F ail
Ġoper ations
drop down
S IZE
p assword
Direct ory
c it
ic a
ca de
Ac count
pro ps
ĠG oogle
ĠA fric
ra dius
h i
ĠFe bruary
Po inter
if ies
ĠF alse
Ġcom ment
Ġcon c
import ant
Ġcol l
p ub
Ġt ell
5 3
9 7
ub y
i os
an ded
Ġnot e
s ite
Ġrespect ively
Ġ" "
th rows
am a
P od
ve y
f lags
al ysis
Ġwh y
Ġac c
C lose
U ID
Ġf ig
' .
Event s
Ġf lag
P si
Ġser ial
hent ication
ĠL oc
Ed itor
Ġm ock
Var iable
sol ute
Trans form
Ġact ually
ent ity
ic o
() ).
Sh ow
raint s
for ce
Ġrepresent ation
en ch
c ategory
Ġ io
ĠNew s
Ġchar acters
Ġinclude s
point s
ac c
Lo ader
L INE
if est
ul ly
ur s
P AR
amp ion
Ġe con
Ġvis it
Ġa ch
Ġr ather
M y
Ġm en
Ġlo ve
dot s
ut ed
Ġwe ight
line ar
t xt
Ġpro duction
Ġal gorithm
il ation
Ġcour se
Ġmon th
A uto
Att ributes
Ġc e
Ġit self
Ġplay ed
P S
Ġ ensure
ut f
text it
qu ency
MA X
Ġch anged
Ġhapp en
b on
ĠE xt
pri me
ĠP ark
s ave
ĠF irst
Ġquest ion
P A
ĠS ci
Ġcl asses
by tes
Ġequ ation
hand ler
ĠD av
ump t
ul er
ho od
Ġad min
M edia
B C
() {
L S
B it
Ġsur face
ĠK ing
co mes
Ġiss ue
N G
n one
Ġed ge
Reg ister
ĠS w
Ġtak es
con s
not ation
Ġjava x
Ġcontain ing
re ed
par a
Par se
ĠA p
Ġsh ape
\ %
\ [
c rypt
att le
z er
est ed
ad s
se ss
A uth
Ġ$ {
Ġvariable s
m as
Key s
Log ger
vent ion
Ġpro of
Ġre ported
9 6
Ġf lo
ul ated
ly ph
ĠF rom
() ));
sh ort
res ses
p df
Ġass ume
Ġfact or
Ġhe ld
print f
Ġ util
Ġcon sole
Pro xy
200 1
LO G
Ġs creen
Ġ& =
wh ite
Ġle arn
Mem ory
D ist
P O
Ġexp ress
t mp
col lection
Ġro und
. *
Ġin side
ce l
d omain
} -
li as
Pro tocol
n es
ĠN O
el li
4 00
Ġpub lished
M ar
ar ger
lap se
ĠA N
ook s
P T
Ġwh ose
Ġde s
ĠH is
annot ation
ile s
J ECT
ĠTO DO
Ġatt ributes
Ġre q
var iant
W rapper
Ġco ordin
Ġj Query
equ iv
Ġc ut
Ġf ace
; /
Ġth us
oo th
Sc roll
ĠGet s
Ġcomp onents
P anel
ĠH ar
Ġo pp
25 6
Ġa ff
th read
ot es
Element s
b ound
ĠS tr
AR Y
inst all
ĠT ext
ing ton
ĠV ersion
Ġin dependent
ip s
B R
re ater
ĠD r
C RE
Ġn ational
An y
200 4
get Name
ĠR uss
t rigger
ic ip
ir it
pro duct
pri mary
Ġim ages
p are
al led
ang er
Ġcre d
Pr int
ĠG o
Ġper cent
b rief
Ġin teger
ĠĠĠĠĠĠĠĠĠĠĠĠĠĠĠĠ ĠĠĠĠĠĠ
ar io
ie f
Ġin valid
atal og
met adata
ul ations
Ġpri mary
To String
Ġd irection
Ġequ ival
) ),
Ġdescri be
ĠW hat
ĠH ouse
Ġgener ate
) /
Ġa void
Ġf n
ĠĠĠĠĠĠĠĠĠĠĠĠĠĠĠĠ ĠĠĠĠĠĠĠĠ
ul ate
Ġwh ite
ap s
VER SION
cont roller
Ġto day
Ġag ree
Ġb uilder
ed ge
Fe ature
[ $
Ġ$ .
VAL UE
Ġt alk
r an
m id
CHE CK
in v
un n
ĠS ince
key word
ĠC all
ĠM ethod
st ats
c lo
U LE
( __
ST AT
ancell ation
av ed
Ġf ocus
J S
Ġpart s
Pro ps
Ġch all
it ect
r ule
block List
te e
module s
type def
ĠSe ction
Gener ic
Ġcom mit
Pro to
Ġto wn
{ -
Ø §
Ġal loc
Ġs uff
\ !
Ġlay er
pro perties
M ENT
Ġpartic ip
L IC
ĠC ode
ri a
Ġre place
ig en
Ex pr
Ġlo ss
Ġp anel
G rid
}} {
I E
a ul
Node s
a o
Ġde al
Ġe mail
Trans action
"> &
c b
Ġ[ ],
r is
In v
Mat rix
Ġv ers
Ġp lugin
Ġres ources
ant ic
d x
AD D
it ute
Ġimpro ve
ĠT able
Ġse curity
9 8
d ates
Ġbeh avior
w ar
Scal e
wide tilde
a ign
R AN
I MP
Ġclo sed
o sed
ĠM at
Ġs l
pe at
ĠI P
ĠB ro
Se cond
RO M
man ager
result s
Ġth ought
h ome
S Y
=" "
6 3
Ġc lean
ri ft
f ail
Ġd ir
Ã ¤
Ġg round
S um
Ġnew s
unc il
el low
, -
F ind
IT E
inc ip
Ġeffect s
Name space
Ġw ide
LA G
ond on
Ġ% }
Ġw atch
ĠIO Exception
ĠH er
ĠO ption
at ives
an ies
ren ch
c ut
ob ile
Lay er
Ġc tx
ank s
Be fore
A p
T ABLE
Ġe ver
ĠEng lish
F ound
om y
ex pr
Ġen abled
Pro duct
Name d
enc ed
3 00
Ġnecess ary
ore d
N ULL
Ġw ar
urren cy
child ren
b le
c pp
G B
ach ing
ĠA ir
Ġf ront
net work
Ġs ave
re al
Con f
i us
ĠT ask
Ġn g
Ġon line
Ġd imension
c ing
ra ction
ma ster
Ġb ad
Ð »
ĠD irect
r ong
t ic
Ġa ffect
ĠQ ue
sp ring
Head ers
re set
ĠE l
scri be
Ġli brary
Ġexp licit
Ġas ync
Ġpre c
Ġal most
Ġro om
Ġimp act
the me
tool s
Ġn umbers
Ġ ill
N ow
oci ation
comp onents
', '
de cl
clus ion
ang o
ot ed
X ML
6 2
Ġb ene
st ar
ĠI I
Ġ[ [
Ġwho le
are a
str y
File s
Ġl arger
Ġloc ated
UT F
] :
ition al
Ex pect
; \
p ers
al ax
ĠO per
u el
Ġcon structor
re m
ĠP ri
Ġob served
Ġfor ward
resh old
m aterial
Ġd a
p ay
Ġincre ase
Ġw ent
ang ing
Ġdid n
D C
sv g
Ġa uth
co ur
\ ]
ĠF ield
w rit
Ã ¼
sa fe
ĠM et
ĠBrit ish
con tains
Ġt ab
z one
Ident ifier
ĠĠĠĠĠĠĠĠĠĠĠĠĠĠĠĠĠĠĠĠĠĠĠĠĠĠĠĠĠĠĠĠ ĠĠĠĠĠĠĠĠĠĠĠ
) ).
Re move
ak er
ens ive
m ing
S yntax
loc ity
b oost
sc reen
Imp ort
M OD
Ġ icon
Ġimplement s
ap pro
S ocket
Ġl ang
ar ation
z eta
ent er
Ġy oung
l ers
By Id
Ġiss ues
L im
Ġlong er
Ġde sc
D est
Ġsize of
Ġin du
ĠE ast
arg ument
> ::
Ġmon ths
m ask
Act ivity
Ġcall s
Ġe ff
En um
Ġth ing
'] )
Ġcon tact
Ġy ield
G lobal
Ġexpl ain
ON E
Ġcare er
un defined
P op
ĠE q
ertific ate
ment al
S ER
r ate
ĠCon fig
Ġpro ces
Ġlist en
Ġim medi
Ġle arning
ential s
Ġlead ing
se curity
re lation
8 5
N ote
j query
Ġsh ared
Ġb al
AL SE
ident ifier
Ad apter
ĠUp date
L java
ick et
S ync
C luster
Ġapp end
State ment
Ġlik ely
I B
ot al
Collection s
Ġwe bsite
Ġ{ '
Ġco mes
tot al
Ġen coding
F ull
P refix
ic ult
Ġcorresp ond
unc ed
Ġh ar
######## ########
res ents
Ġst orage
if def
p refix
index Of
Ġco re
Ġre cogn
Ġbe gan
k ens
j ob
Ġrelation ship
le ep
pro file
de pth
Ġb ottom
} ]
Ġre pl
Ġsign al
P ATH
ĠIn ternational
g it
Ġpro gress
Ġapp lied
Ġde bug
par ameters
Ġn ov
f ord
ph er
ĠH el
d im
Ġout side
Ġtak ing
Ġh it
s witch
M apping
=" @
Ġhe l
==== ==
n il
) "
Ġf ire
IT H
n umer
ĠO ver
port un
Ġp od
W ord
Ġs itu
__ __
\ {
ag ram
Ġoption al
D uration
Ñ ĥ
op h
Ġde ep
ĠM ich
RE AD
Ġb rowser
Ġremo ved
Ġl arg
F ailed
M ain
Con dition
Pro file
Ġopt im
Des c
ĠAmeric a
} +
Ġp ick
Ġme chan
B P
TR UE
D A
F R
oci ety
ĠIn teger
att ributes
Ġpro file
Ġgiv es
art ment
ify ing
el f
or ing
is ode
ĠReg ister
ind ent
ĠTe ch
ock er
Do uble
Ġoffic ial
ĠS to
ĠS y
a el
A v
sh ift
} </
Tra ce
Ġan g
} =\
f d
u it
ĠInd ia
Ġent ity
M icrosoft
Ġrequest s
em ma
Ġup dated
6 1
a ur
ĠJ ap
12 3
a res
id ers
Ġlo op
f aces
At tr
ge bra
Const ants
s ymbol
200 3
e ffic
Ġ queue
ĠH and
th m
Ġfinal ly
Se lection
r d
Ġn ative
Ġqu ick
Ab stract
Ġr ules
pre t
u a
ĠThe orem
p icker
> :
Ġf ood
ĠD ec
co q
Ġe ffic
h an
ĠCent er
" /
' ));
ed itor
Ġstate ment
Ġmat ter
D omain
ĠW illi
ĠSt ud
C I
ĠC our
Ġca use
V ert
Ġn atural
b rowser
TEX T
L en
Ġet c
ac count
Rout e
Ġre c
ixt ure
Ġa wait
Ġw alk
Ġc andid
Ġsh are
alle l
script or
os ite
S R
Ġcomp ared
fil ename
7 8
par ser
Ġp y
Ġst age
) =\
Ġed itor
Ġn ight
ache s
oo g
Ġr g
h idden
ch art
center ing
log ger
H istory
Reg ion
Ġpre vent
Ġfin ite
ĠL ondon
E O
s pect
Com mon
p id
h ide
Ġf lags
Ġdif ference
Ġw allet
W A
ĠHe alth
B rowser
b al
ĠP ost
Ġp refix
S U
ĠB r
Ġv iol
Ġco up
Ġpri or
if orn
IN D
net ic
ĠCopy right
name s
proto col
n ov
Ġs ources
maz on
Ġst re
y e
ĉĉĉ Ċ
BU G
S ingle
ç ļ
ĠPh il
Ġup per
Ġno thing
(' .
ĠI d
ĠO ther
b uilder
y ing
ache d
Ġac cur
or ary
Ġestab lished
Ġinf lu
iz ations
Ġ" <
lem ma
çļ Ħ
Ġtr ansport
ĠW indow
Ġm ot
ĠP ort
spec ial
ĠAr g
e cho
Ġt rigger
Ġstart ing
ime d
Ġre quires
ĠLe ague
av y
C or
Ġf ix
y al
pro gress
Ġper formed
ĠPro ject
re me
Ġo k
ak ing
| -
test ing
A meric
HT TP
ĠM odel
Ġpro per
Ġup on
ĠEx p
Ġexp lo
LO CK
O pt
ĠM od
Ġs plit
Ġ" ,
De legate
) }\
Ġmet adata
ĠGener al
ĠB uild
A CT
Ġsh ift
ill a
ĠIn itial
id x
ĠS m
let ion
UR I
Ġtrans fer
sh adow
re es
Ġtr ansparent
Ġman agement
Ġresp ons
ĠD em
ĠV iew
Ġp ie
form s
d imension
NavBar Cell
S uccess
Ġpat ients
H O
I X
J ava
-------- ----
rel ated
Ġorig in
at ically
wh ile
comp lete
Ġne igh
Ġme ssages
Ġb tn
Ser vices
$ )
U ri
R ad
ann ing
Ġw riter
Ġm is
ĠBl ack
Ġ ui
! [
test s
D S
Ġan sw
Ġdo ing
ang ular
Ġproduct s
iforn ia
ĠG ra
ĠĠĠĠĠĠĠĠĠĠĠĠĠĠĠĠĠĠĠĠĠĠĠĠĠĠĠĠĠĠĠĠ ĠĠĠĠĠĠĠĠĠĠĠĠĠĠĠĠĠĠĠĠĠĠĠĠĠĠĠĠĠĠĠĠ
Eng ine
in valid
ac ro
S imple
Ġre ceive
Ġ' <
lo ok
ro om
A uthor
ĠĠĠĠĠĠĠĠĠĠĠĠĠĠĠĠ ĠĠĠĠĠĠĠĠĠĠĠĠĠ
Ġbro ad
Ġen um
LE CT
li ct
ilit ary
Ġxml ns
k w
Ġmat ches
= (
ĉ ĠĠĠĠ
i ber
se ct
Ġtemper ature
ĠCon st
n def
) ^{
ĠCol lege
d one
Ġs outh
Ġfri end
Ġprob lems
ĠN ow
pec ially
Ġval ign
Reg istry
it ution
Ġex ternal
) ->
er ies
Ġart icle
Ð º
ex ists
De pend
Ġab solute
g ers
ĠRe act
Ġlevel s
sh al
I ST
f amily
Ġmult i
Ġd rop
j unit
ĠĠĠĠĠĠĠĠĠĠĠĠĠĠĠĠ ĠĠĠĠĠĠĠĠĠĠ
ĠT H
Ġle d
Ġst e
Ġsimp ly
Ġpro posed
16 0
o ss
Ġlist ener
umer able
pro tected
Ġdeg ree
anc ial
12 8
ax is
ĠS QL
Ġe lection
Ġman ager
Ġs ense
Ġare as
en sed
at ur
F L
Ġc lick
b orn
Ġpro ps
Sp ace
p ass
=" ${
sel ves
7 2
ĠA ND
r ics
RE S
Ġs ens
ĠJ ust
at ively
ser ve
F C
tab ular
Ġcomp anies
ak es
F LAG
CE SS
config uration
P ER
s ur
ers hip
Ġm ask
Ġlook ing
st orage
ĠA m
%% %%
ï ¼
A X
con n
Select ed
Pro gress
SC R
cont in
li ance
Ġindu stry
Ġpass word
=" ">
ce ed
Ġf un
Ġst ation
) -
Ġ[ "
Ġt mp
Ġm id
ĠH ash
N OT
IP T
il ing
ĠPres ident
pre v
Ġ er
ab ilities
Ġcon ver
en abled
Gener ator
av i
Ġqual ity
200 2
IN S
Ġtra dition
s in
L in
Ġeffect ive
TI ME
ĠRe quest
var iable
Ġin ternational
ous ly
lo ader
tr ics
Ġcoun ter
Ġh idden
wide hat
Se quence
Ġde mon
Ġr isk
if ndef
ar a
Ġperson al
Ġc ast
P i
struct ure
Ġa xis
v a
. ");
ist ing
Ag ent
Ġthere fore
ĠM icrosoft
d ialog
U SE
ri al
it ch
head ers
Ġdeter mine
us iness
ĠHT TP
ĠH o
Ġsp in
ĠCol lection
ore st
Ġal tern
Ġprof ession
ill ing
ĠRes ource
Ste p
Ġop portun
err ors
il i
Ġget ting
Ġpro tocol
ĠL ong
f x
Ġcl ub
st e
Ġstr ings
in ct
F IG
Re pository
De c
en a
Ġset up
Ġcont ract
C ap
Ġuse ful
mo z
EN SE
ateg ories
ĠC he
. '
Sh ape
ograph y
b u
ca pe
ag ger
Ġco ok
8 2
M B
ex ternal
ĠR un
tag s
Ġdiff icult
8 4
Ġspec ies
Text ure
Event Listener
f ect
il led
ch ain
exec ute
Ġbr ing
M ore
Ġ" -
Ġm oney
Ġen able
Ġr ank
} |
an de
oc r
Ġreg ard
as ons
as sets
Ġphys ical
l g
us ion
Ġpop ular
j ango
F act
ampion ship
Ġcon duct
cre te
p ool
de tail
ribut ion
Ġmiss ing
7 9
O wn
Det ails
Date Time
z y
gra dient
Ġid x
Ġpar am
pl atform
ĠM em
ĠN umber
iz able
Di ctionary
Ġgo al
Ġex ports
ĠA R
b ad
Ġ ],
Ġde tect
Se ction
Ġs us
S ince
Ġis n
S w
O B
Ġact ivity
Ġf ast
ĠD et
Ġwe ak
Ġeff ort
P ay
ĠH ere
Ġg as
} :
Ġh ours
r b
ĠA rm
ĠW AR
ext end
Ġbeh ind
Ġf mt
Ġprob ability
Ġex port
ip p
Ġhead ers
ĠRe f
view s
Ġfail ure
Ġlo st
ĠS im
ĠS um
Ġf amil
ĠIn c
ĠI E
ĉĉĉĉ ĉĉĉĉĉ
b and
ĠO ur
Ġch art
Ġt ax
ber g
w rapper
Ġl iter
Ġpar ser
riter ia
H R
ĠM essage
u ge
re c
ou ch
Ġtest ing
en able
Ġin ner
Ġequival ent
or ge
Ar t
de tails
t c
Ġ_ .
ĠA tt
p attern
St ats
Ġcont roller
Ġstud ies
Ġw or
Ġ> >>
cdot s
}_ \
ĠFig ure
y a
Ġg rid
ĠT V
IC E
ĠJ ava
MOD ULE
Ġ ess
ail y
r andom
b ul
ific ations
Res ources
Ġread ing
Ġspe ed
Ġpolit ical
Ġfore ach
c up
li brary
ut ing
ĠRe search
em on
R ole
Ġun less
}) \
f ix
Ġpro duced
Ġst and
so cket
Ġcomplet ed
Ġ ip
F S
v c
Ġeas y
gra de
Ġtime out
Char acter
p u
Ġd ynam
P assword
st at
z a
iv il
Ġes pecially
ex tern
l legal
ĠO ff
co unter
ass ign
Ġe m
con struct
Ġtech nology
id a
Ġb uf
Ġh olds
ĠP at
Ġbound ary
an ish
en ses
or ter
Ġm ut
N T
Ġdevelop ed
ag o
ty pename
ph one
RE G
Ġquant um
ro ke
Ġm enu
Ġcent ral
Ġsol utions
ext ension
ĠCal ifornia
H ER
duc er
s lice
( @
Ġin c
s ome
Ġ\ {
land s
ĠP ath
in n
Ġfil ms
Ġneg ative
d ro
Ġ ^
g g
Ġsc en
S he
Ġcell s
Ġro ute
ĠVal id
i ra
act iv
z ure
Ġto ld
Ġbas is
W R
app ed
z ero
. ~
Ġme ta
umpt ion
tab s
Ġmin imum
ar ter
Ġinter val
select or
ist r
ĠLO G
ĠRe public
ĠN or
}^ \
ĠIn dex
ĠSt art
Ġopt s
anc y
at ible
um in
Ġb asic
Ġs ymme
F ORM
Ġsh all
Ġcont ra
def inition
N A
ĠA SSERT
Ġh ot
E C
lev ision
L L
ĠĠĠ Ċ
Ġh istor
ig ration
Ġre comm
Ġfe ed
IT ION
Ġsub st
time out
s ys
Ġor d
ĠD on
Ġse m
Ġ_ ,
s ingle
Ġsk ip
ĠCom mun
as y
h ere
199 9
ĠU K
P y
ĠEx ec
ate way
Ġb inary
Ġpre dict
M C
ĠD el
Ġanno unced
Ġmult ip
Ġp ush
ĠInd ian
Ġselect or
Ġread only
Ġs low
Re st
umer ate
Ġany thing
and ra
vol ume
s pe
d p
ch or
Ġext ract
q quad
Ġch oice
ME TH
Ġtech n
Ġs on
Ġpart y
Ġf em
Com ment
Ġf actory
Di agnost
side bar
ic ient
Ġab stract
Ġra w
f c
th row
Ġappro pri
ĠF rench
con structor
P air
ĠRe cord
velo per
Ġv ill
Ġpart ial
j ar
ĠU I
res olve
OR TED
Ġcon struction
im ately
as ync
ick s
os en
s ince
7 6
M ath
Ġc md
in i
ve al
Ġs il
ro t
wo od
Inter val
ut ive
r or
Ġ> >
Ġde lay
ĠM ake
sub set
pi ct
sp ital
Ġd ise
Ġvis ible
d y
Ġpresent ed
} '
he st
Ġm iddle
Vis ible
pro vider
er ve
ĠS O
w p
Ã ¶
serv ices
L P
b ot
^ +
ĠDep artment
t body
O ff
is ation
ĠWh ile
D T
e ffect
an o
Child ren
pk g
Ġt en
Ġsc roll
B ound
overn or
End point
Ġc ategory
. ",
se quent
Ġrep resents
Ġcent ury
Ġsmall er
Ġmov ed
Ver tex
ĠE ar
Ġconnect ed
Ġ ];
Ġ' \
G R
ĠD ay
Ġlog ger
Ġget s
ĠĠĠĠĠĠĠĠĠĠĠĠĠĠĠĠ ĠĠĠĠĠĠĠĠĠĠĠĠ
P ub
ce ler
Ġs ound
h orizontal
un try
m ouse
Ġgrow th
Ġag o
Ġc ard
u med
Re quired
$ /
Ġde v
Ġd im
b es
Ġhe art
ĠCh ina
ĠH ttp
() </
Ġide a
ans ion
m al
RE Q
sh ared
Frame work
lo od
Ġdemon str
Ġrad io
ĠL aw
C red
ĠDav id
ĠM ag
g ments
pro xy
Ġinvest ig
se quence
e ff
V ENT
B E
ĠAN Y
9 1
Ġref lect
& =
ĠL android
ĠSer ies
N ative
clu ster
S ymfony
{ "
O rigin
p resent
| |
ol ic
C ategory
Ġ ir
{ (
The n
Con nect
Ġan n
IN FO
fe ature
Ġg alax
Ġsa f
Ġjo in
Ġl icense
v s
Ġre set
ĠA nt
lat form
Error f
Ġ= ========
ĠH ol
Ġprob ably
I VE
}} (
err y
ĠTh us
V M
Ġre ader
Ġincre asing
Ġcre ating
Ġf ully
res ources
un ique
lo aded
N N
Ġm ention
elli j
s heet
gener ated
M ask
Ġo wner
Ġevery thing
. <
Ġun its
Ġassert That
f lag
u ssion
ifi ers
P P
Ġa ctions
int ellij
S ort
re lease
ĠB er
> "
Tag s
k ing
ĠAustral ia
arn ings
Ġret rie
M I
DE FAULT
Ad min
ĠEng land
Ġst ars
f ort
ra se
8 3
ĠCan ada
j a
W ORD
Ġbe comes
node s
Ġs chema
Ġli b
opt s
f ly
Ġcomp are
Back ground
Ġcrit ical
' ll
lo gin
ar an
Ġm ind
ST ATE
st ers
i ses
{ %
: \
METH OD
e lem
ĠS en
l am
Ġde cre
e f
Ġus ually
Ġcomp ute
ribut ed
******************************** ********************************
Ġto uch
om orph
Ġde tail
v ille
SCR IPT
Ġv s
ue st
a id
Ġh on
require d
k t
ĠM ax
FF FF
Ġf oc
Ġde pth
in y
_ );
ĠM er
7 4
lev ant
ĠR el
Ġse gment
D b
or al
An imation
h old
Ġg reater
ĠSt reet
option al
Ġs ql
F inal
it o
Ġd river
9 2
Ġg ain
G en
H ome
s ample
F E
ĠCo uncil
v ideo
w hen
= -
ceiv ed
Ġe mer
Test Case
Ġp ool
is ions
Ġa ud
h ref
H igh
py thon
ed eral
Ġ{ {
Ġprevious ly
s b
d en
ĠDist rict
check ed
om ial
W N
M ouse
Ġtra vel
ĠB lock
text width
I gn
lo op
S ome
c ial
Ġ ×
Lim it
Ġrg ba
b its
ĠAr ch
Ġ Î
Ġblock s
r untime
ancellation Token
comp iler
ĠIm age
cor ded
ĠEurope an
Ġ ).
) +
user name
Ġlate st
å ı
Ġdis k
Mem bers
re y
Ġ eng
qu es
as sembly
Sup port
ĠM al
ĠBO OST
Ġpro xy
Ñ ı
Ġr atio
ing er
# {
use um
Ġdec ision
Ġf ill
Americ an
Ġmin utes
INT ER
}^{ (
}\ ,
Ġframe work
I LE
Ġsa fe
ploy ment
F low
ol ar
Ġver ify
9 3
Ġlay out
cit et
sh all
Be gin
P ublic
B r
() ))
Ġident ity
Ġ{ "
check box
P lay
f ire
Id s
Null able
uf act
; }
' ve
cent ury
bl ack
wik i
lu g
Ġ$ (\
Ġs core
F N
el t
ĠB oolean
Ġin sert
l an
A xis
ĠO f
ĠN AME
L ibrary
ĠRes ult
Ġm icro
P UT
ind er
Ġser ved
33 33
? >
con tain
VAL ID
ir ing
Ġex c
cond ition
Mo ve
Ġeduc ation
bl ue
Ġch oose
IG HT
Ġm aster
de g
! !
mp t
: [
ĠU N
Ġcolumn s
" ],
I V
ON G
G oogle
8 1
C ALL
9 4
uff ers
Ġdest roy
Ġtrans late
ĠD iv
trans ition
c lean
Ġ' ';
C F
Ġcamp aign
up load
ced ure
Ġde signed
M ess
li a
Ġapplic ations
G ra
ĠSci ence
ic ated
Ġre ct
Ġrecent ly
Ġsign ed
' ];
ĠCO VID
: `
Ġ\ "
Ġcom ing
Ġstr ategy
ly mp
ĠB ig
Ġdist rict
ĠL emma
Ġdisc uss
sup ported
g reen
DO M
Ġsign ature
v o
Ġtreat ment
Ġrecord s
ĠA ction
} +\
D ATA
__ )
j Query
Con structor
um my
Ġcon cept
< !
ĠT R
Ġ und
z ip
Ġre mote
valid ate
Ġl iving
Ġtype def
Re port
Ġemb ed
ro te
Ġw ave
SS L
ic ator
Ġse ems
s ync
Ġre ject
ĠA re
Oper ator
Ġe q
ĠArray List
Ġs old
TR Y
am az
7 3
Ġt ensor
v an
gra ms
MO DE
Ġqu ite
Gener ated
L anguage
ĠV is
tern et
B o
T otal
(' /
le br
Ġestab lish
re act
Ġb oost
F lag
m aven
Ġconc ern
}\ \
Ġar r
Method s
st on
Ġme tric
Argument Exception
t k
Ġlimit ed
dest roy
lim ate
Are a
pp ing
ĠF oundation
en ge
Ġd ark
Ġh om
ĠM or
ĠAs sembly
all s
con sole
W ait
Ġwork ed
gener ate
CO MP
C apt
Ġst aff
Ġplay ing
Ġfollow ed
ts d
Ġmatch ing
{ {\
Ġelect ron
Ġso on
mit ive
Ġpro ve
ĠP al
Ġun known
D at
Ġb orn
Ġfre quency
k o
Ġne ut
Ġs amples
ast e
Ġ@ "
ro le
f i
ĠM iss
ong s
Mult i
Ġme as
Ġd am
ĠA mazon
aj ax
t ri
ĠAl so
b urg
ĠB u
Be an
Ġ{ },
Ġb its
ĠC up
ĠIn put
y g
ro ad
Ġst ri
Ġprom ise
Ġintro duced
Ġ' '
arg uments
P H
Ġres olve
sc ss
il s
Ġexec ute
ic ol
ash ington
ĠA S
Ġpr ice
U D
Ġent er
Ġimmedi ately
u ite
P ers
ab br
sc r
her ited
Ġtry ing
Ġver tex
Hel p
' m
Ġf ather
Ġdetermin ed
M er
Ġch unk
j pg
col lapse
in herit
incip al
Y ear
Ġdis abled
du ces
L iteral
M T
Ġinv olved
w ell
f ixed
ĠO p
'] ['
ĠB ra
Ġthrough out
ri an
Con n
appro x
Ġoff ice
Ġstre ng
it able
Ġex it
am ing
cl one
velop ment
ri end
Sk ip
ĠJ ames
ap is
at omic
ict ure
gra d
ĠK e
us ers
Ġcount ries
Sh ort
Ġd uration
Ġve h
Ġd ro
et te
F n
P U
F ragment
Ġcall ing
L ower
iss ues
Ġs chedule
] \
Ġbegin ning
t ty
b i
l as
% ,
spring framework
clus ive
Ġvert ical
Ġto wards
= >
(' #
up lic
Ġsecond s
ant i
Ġs cheme
L ook
t ics
Ġfor ms
hel per
Ġarch itect
Bind ing
D IS
un ce
ur a
d uration
ig r
Ġse x
Ġon es
ĠD ocument
G u
Ġm ix
d ash
Ġautom atically
sc hed
Ġcur sor
Ġ que
ĠR ich
Ġde ad
mpl ates
Ġread y
m atic
Ġnav igation
et es
ĠSh ow
P OST
; ">
Ġd riv
M ake
Ġresult ing
org an
Ġrun s
Ġequ ations
Ġst eps
Ġw rong
ĠX ML
Ident ity
V ideo
DE F
pl us
Ġw ays
Ġp refer
Sp an
ult ural
om as
orig inal
Ġ" $
Ġ= ======
Ġchar ge
ier arch
Ġgr ant
ĠY our
Group Name
Ġnull ptr
group s
Ġep isode
x s
] $
ic ode
Ġfin ished
F il
\ '
urre d
anc er
ig hest
ĠPro gram
Ġ( [
Ġstore d
ĠP RO
Ġlarg est
w atch
d river
S K
CH AR
Ġbl ue
w est
Al ign
at ial
C ar
Ġte ams
Ġdepend s
er ved
p air
ne q
St at
own er
Ġst ra
ĠM edia
ic ensed
Ġle ave
ib ly
Ġcons istent
">< !--
S V
(" /
c are
get Value
Ġv ict
nav List
B inary
Ġn or
Ġn p
Sh ared
le c
Ġent ries
Not ification
D iv
Fail ure
ĠN etwork
ta ched
Ġ" ",
ĠAp ache
get Element
R R
Valid ation
Ġknow ledge
Ġ rows
P romise
Ġco effic
Return s
ĠV ector
Ġre duce
P ass
ï »
em bed
Ġan imation
word s
tach ment
Ġf o
Ġexact ly
ĠM ult
Ġprov ider
Ġcla im
e ch
Ġst ay
bit r
de p
Ġmod ern
Ġf ight
ud o
com mit
Ġbo ard
Ġest im
di ction
ĠS ource
dimension al
Ġev idence
ĠG od
Ġappropri ate
set up
Ġt ro
| ^
Ġ( -
B AR
ĠOn ly
Ġbir ths
Ġmod ified
Ġse c
Ġchar set
Ġprocess ing
STR ING
SE LECT
tra ce
serv able
for Each
Ġra ce
amaz on
ĠThere fore
mon th
de ed
var i
c f
ï» ¿
Ġdi ed
Ġsp an
ĠS ur
print ln
duc ing
ĠAn y
Ġn orm
Ġspec ify
Ġreg ions
Ġdocument ation
AN G
EE EE
T A
the mes
f actory
ne g
Ġm achine
ĠP ack
object s
Ġ" %
F UN
par ator
Ġn uc
ĠT op
En ter
Ġch arg
Ġp ages
ro ute
sc ape
Ġtask s
ĠG reen
Ġnot ice
all classes
Q U
ĠĠĠĠĠĠĠĠĠĠĠĠĠĠĠĠ ĠĠĠĠĠĠĠĠĠĠĠĠĠĠ
Ã §
ĠE lement
Ġab ility
Ġbel ieve
Ass ign
Ġpol ice
7 1
EL D
oc ation
Render er
Ġrema ining
Ġen jo
C lear
Ġsh ip
Ġn orth
ĠInst itute
Ġmain tain
comp ile
Jo in
de c
Ġincre ased
O ther
w arning
ĠP ub
g i
Ġass ist
col Last
ĠR iver
ĠRe move
ã Ģ
assert True
ĠF ROM
Ġder ived
Ġad apt
( {\
Ġear lier
def er
Sum mary
N ormal
Ġg ir
B atch
/** */
Ġrema ins
CT YPE
ag raph
} -\
Ġm d
P layer
Ġe volution
199 8
> ;
Ġra dius
iver se
ĠM ac
h space
ĠD O
Ġp aint
ĠWindow s
ĠR et
om b
medi ate
an imation
cal led
ace book
on ce
s n
fin ite
Ġho pe
Un known
Ġhim self
Ġtra de
Ġen v
ct r
ĠB ay
S im
Ġs aw
Ġspect rum
^ ^
ĠJ ack
Ġfig ure
Ġchall eng
U ES
C loud
ir med
Ġ& \
li min
lip se
ĠSo ftware
Ġask ed
col First
}} ,
Ġd ie
ĠSup er
Ġro ad
cover ed
Ġs b
dis able
BP ACK
ann ed
end or
C ONT
st o
Ġeas ily
Ġinst alled
ĠW rite
Ġthem selves
ĠCol or
Ġt x
Ġin cor
ist an
Al low
Ġ _{
ra pped
p a
Ġpro to
Ġpres ence
/ _
ix els
second s
Ġre ach
M IN
Ġquest ions
Ġp riv
f mt
Pro gram
Ġs n
ĠOption al
Ġpract ice
mer ge
) [
k i
ĠSet s
k y
ul ator
f r
OR Y
ra b
Ġal though
p od
g lyph
in et
Ġag ent
Ġb g
Ġra di
Comp iler
d atabase
Ġj s
Us age
cre d
Ġa udio
n orm
Ġimp lies
Tr ansport
ĠP aul
t or
Ġd ynamic
ĠT ex
AR G
Str ategy
ĠB est
ĠPro perty
Map per
Ġden ote
rad io
Ġsup ports
Ġvalid ation
Ġopen ed
Const ant
ĠF in
is Empty
E mail
p ull
Ġp lease
ugh ter
Ġve locity
str ument
ss l
ĠE mp
math sf
ine se
ver ter
ie ved
Th row
cri be
r uby
0000 0000
AN CE
L a
; )
F l
{ $
H ere
Ġest imate
**** **
Ġcomp arison
ĠB it
ĠLoc al
T T
ic ies
ĠM art
ĠAss ociation
mut able
ĠS D
F in
d ig
Ġinterest ing
r f
DE BUG
Ġde part
g oto
ched uler
AN T
s he
ĠĠĠĠĠĠĠĠĠĠĠĠĠĠĠĠ Ċ
T x
en ing
ĠY ear
Input Stream
Ġpart ition
B IT
N ET
Ġdirect or
ĠF inal
Ġus age
ĠC lient
ĠP age
Ġdel iver
Ġm apping
Ġf avor
ID TH
o log
App end
Ġnov el
iv ery
Ġoc cur
}} {\
operator name
Object s
D river
Ġf i
Not Found
Ġm ixed
form ance
ane se
Ġproject s
d k
Ġhigh light
15 0
EEEE FF
ĠP ress
N V
n p
d iff
and er
Ġw rote
Ġse cret
Ġvalid ate
Ġpre v
m ix
en umerate
ĠAfric a
ĠR ad
ĠH ome
ĠCour t
Ñ ĭ
ĠPart y
B asic
Ġpro duce
Ġex amples
lo ts
Ġh yp
ĠWh ite
table block
C la
ĠC ustom
Ġw est
Ġexec ution
id ents
ĠAc cording
Ġg reen
a fe
ĠR out
DO CTYPE
ĠCom mand
Ġp ull
re port
B ook
G ER
is set
D rop
Ġgo es
G r
f ound
O ur
clu ded
Te mp
IO Exception
"/ ></
om ite
En vironment
ĠF ind
Ġh or
Ġcont ents
NS String
Ġlo aded
en ers
Ġp ul
Ġmag netic
Ġmean ing
pe ated
Ġn ature
p b
Ġm ilitary
Add r
mem ory
Ġbr anch
omite mpty
Ġrepl aced
w ild
Ġover all
Ġext ended
ĠA ut
Ġdest ination
E ST
Ð ¼
Ġm us
ĠCh urch
item ize
ĠB ack
Ġse qu
ag ent
> )
ĉ ĠĠ
ĠL ine
ĠB en
b old
Ġw aves
cl a
b g
tr l
ĠW ashington
ot ing
ĠE ach
Ġse ek
as hed
B S
Ġin j
ĠIn v
Ġproces ses
ad ing
ust ain
f ol
Ġtool s
Inst all
is l
display Name
the orem
Exec ution
vis ible
ĠZ e
ĠPro cess
Ġ- \
/* !
all ery
g ence
ĠB ook
ĠP lay
Ġpur pose
Ġdat aset
S ql
R aw
orig in
INS ERT
Ġattemp t
Ġs ync
Ġ' ',
à ¸
Ã³ n
ĠWAR RAN
ful ly
Ġre served
Ġex am
x html
ĠC A
ĠLe g
Ġsc ene
Z one
Ġpro tect
on a
Res olver
art icle
C LASS
St atic
class Name
Ġwant ed
F older
Sh arp
Ġres olution
ĠC EL
US ER
y ond
Ġl ack
Serial izer
ta int
Ġsome one
Arg uments
ĠL L
Ġd omin
Ġse ll
p erson
os er
bl ank
C ast
f lex
Ġun iform
Ġoper ators
Ġinst ances
'] );
" ].
ĠH AL
t f
Ġlabel s
Ñ Į
ĠF il
Ġper missions
AT TR
ĠL ink
in er
pro d
pol icy
ĠB el
Ġant i
Ġro ck
ĠM ock
LO C
Ġpub lish
NavBar Font
ad ian
g ame
An notation
min us
F ree
S creen
W IN
ĠI mm
Ġapplic able
Ġ" ";
Ġexp and
WE BPACK
ĠPro v
Comp lete
Ġc ulture
En v
ĠS E
ot on
H tml
b atch
ac cept
Se gment
b asic
y cle
ri er
Ġ ..
i pe
' $
ð Ł
1 20
Ġdi ct
ĠW il
ĠM ain
R PC
ĠComp any
Ġbook s
() ),
Ġre levant
ra ck
å Ī
low er
ĠD OM
Ġdi ag
Ġfin ancial
Ġto ur
Ġper fect
ent al
ĠD an
ar ily
sign ature
. """
Ġ? >
Ġre veal
load ing
Const raint
M iss
ĠW ITH
Ġatt ention
] ))
Ġident ifier
Ġsp aces
Ġte levision
Ġsur v
ĠCre ates
/ {
ext ra
R C
t w
ol id
Ġin sp
Ġp lot
pro v
L android
ĠA ng
Ġ' %
Con s
Ġdisc us
Ġte ach
Ġb ul
AT ED
Ġno ise
Ġleg al
Ġgener ation
Ġcomplet ely
ĠC ap
col lect
x space
Ġ ul
it ar
Ġde sp
Ġm agn
ord s
d c
S ave
th rift
ĠCom mon
Ġg ave
ex it
f lu
const ant
is ms
Ġfact ors
c ry
Ġpath s
b c
Ġappe ars
Ġb i
mo b
Ġsum mary
Ġre duced
Con vert
l us
Ġpe ak
S pe
\ ,\
Err ors
b t
Ġw oman
el astic
$ _
h l
er ial
ĠI llegal
AR N
Ġar bitr
W arning
Ġprofession al
up s
lo or
199 0
Ġcap acity
ĠG lobal
e es
t ensor
Ġ' .
ĠM usic
create Element
Ġde mand
Ġr untime
N UM
em it
ĠA ward
ĠP oint
G o
mult i
Ġa lias
ec ause
n ce
lement ation
Ġgu ide
S M
w riter
ĠGe orge
con vert
" },
D rag
ass andra
Ġad just
high light
Ġvis ual
) }{
ĠCh ampionship
am o
ĠL ife
Ġpur ch
ther n
Ġal gebra
it a
sp aces
: @"
Ed ge
at o
he el
ĠUn ion
Ġs ynchron
est ival
Ġtag s
Ġb io
Ġpl aces
Ġdig ital
ta iled
Ġstruct ures
Ġso cket
to Be
C md
limit s
h ouse
Al loc
Re lease
re v
we et
om a
M AC
se y
st able
ĠSt atus
Ġfri ends
ĠFr ance
r g
Ġmap s
Ġvers ions
y y
Ġf lex
H ub
}} }
Ġbe yond
Ġmo ther
I AL
Cur sor
O F
s imple
Ġas sembly
Ġinter action
can vas
Ġess ential
A udio
AT CH
Ġhy per
ĠD im
Mess ages
Valid ator
ĠA lex
Ġan im
S top
R o
Ġmer ge
Ġde vices
c atch
Ġex hib
ĠU s
ect ors
Ġj ud
comp are
á ĥ
for ward
ĠE ND
Ġr ates
LO W
W atch
a co
Ġsepar ate
Ġadd ing
Wh ile
Ġc loud
_ )
( /
Ġe ast
h ar
ist ers
ĠRes ponse
Ġag reed
oper ation
Group s
ĠT ok
Ġd rag
S ample
) }$
C G
sub mit
Ġp ark
element s
RE E
T F
ĠWilli am
Ġan gle
Ġfin ish
Ġcom ments
Ġb atch
Ġsc ient
ĠMich ael
Ob server
ĠIN TO
Ġh ighest
po inter
amil ton
Ġend point
yn omial
Ġc ancel
Ġsitu ation
no ther
circ le
ur t
=" $
Ġcour t
bo se
ut down
Ġansw er
ĠS IZE
ĠO N
ĠL ou
ens us
l arge
ill er
pri se
Sh ould
od ay
B Y
Ġconst raints
ĠI L
T imer
ĠV ar
Ġoff ers
R ate
Ġel if
Ġf lat
stru ctions
ion al
ĠR ob
exp ression
Ġre ached
no indent
Ġpress ure
Ġce lebr
Re v
ĠAb stract
Ġcur ve
ĠS al
cont ents
Ġbe aut
Ch art
Con tains
ĠS earch
Ð ²
down load
face book
ĠZ end
ĠH all
ok ed
ap es
Ġjo urnal
Ġbound s
as c
under line
nt he
Row s
Ġthe me
Ġgener ally
Ġm ouse
Ġs uc
Id x
: '
f etch
Ġstud ent
if fer
Ġcap ital
Ġ\ |
Cont ents
ed er
.. .</
Ġd raft
st one
Ġw arning
Ġcontin ued
Ð ´
; "
an i
dis patch
Ġfamil ies
F uture
Ġimplement ed
Ġcomput ed
ĠV ir
S I
Ġre li
IMP ORTED
cur sor
Sign ature
Ġmed ical
D ay
w d
duc ation
av ailable
Re mote
ro py
Ġd ialog
CON FIG
Ġill ustr
am i
t ical
ĠM r
b lob
PRO C
kw args
ĠS ign
Ġorgan ization
on ical
ag ination
Ġm ale
Ġcre ation
Ġ| =
Ch ain
ov a
ĠDe lete
=\ "
comp ute
F ALSE
ist ence
Ġmov ie
Ġsuff icient
R T
p ower
Ðµ Ð½
p ic
or a
> \
ctr ine
Ġon to
En coding
$ }
Ġb ank
Ġweek s
at ar
Ġcon n
cd n
Ġhigh ly
IL D
mer cial
h pp
P HP
ĠOr der
pl an
ree k
A UT
ĠM a
STAT US
C M
ĠC ong
Ġjo ined
Ġpres ident
re marks
U sing
ud get
b x
ĠIs land
Ġrequest ed
^ -
Ġ" .
~~~~ ~~~~
ĠCh ild
Ġla unch
el i
Pe ople
RES ULT
me ssages
Ġch o
In formation
Ġsc ience
Ex ample
B ounds
A SSERT
greg ate
V irtual
ub ern
S ur
ess or
T erm
Ġview s
B B
Ġl ives
Ġ$ _
ä »
Ġmov ing
common s
Ġpartic le
' }
lic ense
Ġcomp act
F ocus
ĠD B
Ġ- =
al o
Ġiter ator
Time stamp
ĠAnd roid
ĠC H
Ġtra ce
en ed
ĠÐ ¿
Ġrepresent ed
Ġactiv ities
Ġvill age
u uid
AR D
Ġs ys
ĠSt ar
Ġregister ed
UN D
Ġco p
Ġext end
direct ory
ĠF ree
au ge
ĠG ame
199 7
bind ing
ĠM us
Ġsuccessful ly
Process or
< \
ven ue
Ġindic ates
ĉĉ ĠĠĠ
de precated
FF ER
P rivate
Ġch osen
( .
Ġder iv
/ "
Ġs en
Ġtr ust
Diagnost ics
W orld
m n
ist ed
Ġprov iding
G ame
N C
go ing
ys ical
to uch
RA Y
ĠJo urnal
Ġsub sequent
ing u
i ency
se q
Ġpart ners
ĠTr ump
Ex ists
u ous
qu ote
FI ELD
Named Cell
Ġpair s
Ġevery one
t wo
ĠCom mit
Ġpre tty
Lo op
Ġm otion
et ween
W allet
air s
Met rics
Ġtra in
agnost ic
s ig
ĠĠĠĠĠĠĠĠĠĠĠĠĠĠĠĠĠĠĠĠĠĠĠĠĠĠĠĠĠĠĠĠ Ġ
sw arm
Re quire
Ġsaf ety
ĠH istory
in teger
Re al
function s
ORD ER
The ta
Ġach ieve
c fg
ĠBy te
j et
Ġz one
rypt o
) ",
ĠRo ad
ĠGerman y
Us ers
te m
Ġop acity
Ġw orth
199 6
B order
ĠI ter
us form
Ġde scriptor
Ġident ified
numer usform
b ing
IN ST
Ġf ragment
Ġen h
cre ated
Ġun cer
Ġvari ety
Ġmod ify
Ġre ports
e g
v space
ĠSe lect
Ġmon itor
Ġapp oint
b d
k in
Ġpro grams
\ }$
' d
ĠTex as
Ġparent s
Ġp ain
Ġparticular ly
B ool
im ing
ĠM ary
ĠDem ocr
Ġpl ant
ĠRo bert
C ard
P erson
ĠT om
ĠS am
Ġclass Name
v let
Pl an
Filter Database
co ok
Ġman ufact
Ġed it
LI ST
Ġp en
ĠS un
Ġsp read
% "
ĠL com
Ġident ify
te q
Ġpay load
Ġca used
se lection
re ader
Ġflu x
Ph one
Ġlead s
Ġl if
res ize
Ġme di
Ġdown load
r v
Ġcon version
ĠE m
Ġco q
Ġf ine
v ity
Ġrepresent ing
t rim
c ert
Ġcoll abor
ch unk
Ġquick ly
ĠDE FAULT
S ame
Ġex change
string s
ĉ ĠĠĠĠĠĠĠĠ
The se
Ġinit i
Ġrep os
Ġas pect
w a
ĠC SS
ĠT wo
w arn
vert ical
es h
HE AD
Ar r
In sert
cont rib
ĠEng ine
au ss
n ative
Ġschool s
play er
Ġdr ug
Ġbene f
Ġpl ane
An alysis
Ġ Query
Ġre main
Ġs al
ell ig
T wo
Con sumer
Ġse em
8 00
ut s
(" %
Per mission
' \
Con tact
Ġ ----------------------------------------------------------------
f ake
Ġs light
D P
ĠM ost
Man agement
ch anged
Lin q
z en
Ġtime stamp
}} _
T ile
wild fly
ĠG old
Task s
Ġtri p
Point s
Ġdis able
ĠR oman
top ic
Ġse ven
Ġb ug
ĠSer vices
Ġac comp
Ġsp ent
ĠAL IGN
ubern etes
> '
Ġ' "
Ġc lock
al ert
Ġcomput er
m apping
ĠP et
Ġstra ight
Ġstart s
Ø ±
T Y
Ġenjo y
Ġcl in
m ical
Ġme tal
D R
Ġa mb
E ffect
M ed
ĠT or
k m
Ġneigh bor
ĸ º
Expect ed
pe ar
Ġa mpl
LIC ENSE
Ġsm ooth
D om
Ġre ferences
à ¥
Ġpar sed
par k
ĠU nder
con tact
U ST
Own Property
Ġc b
AT OR
i qu
ĠS ociety
Ġ} }
Ġb ur
los ure
Ġm or
is hes
Ġe mit
! <
Ġre corded
Ġw ind
Ġmeet ing
ĠCh inese
Ġd u
ĠCon s
es ian
ĠCon text
ĠA v
on ses
Ġter min
æ ľ
Ġtop ic
ĠN AV
ĠAc cess
Ġv acc
ceiv er
Ġfor ces
B al
getElement ById
V ICE
trans action
method s
S G
tr m
ĠApp lication
us r
Ġscal ar
ĠF acebook
ĠOut put
Ġf rag
L Y
mo us
Ġconnection s
Ġth er
Ġext reme
Ġang ular
DE X
ollow ing
Ġtradition al
I A
(' ./
: #
S ite
EN TRY
Re set
ĠVAL UES
Ġrest rict
ĠC amp
Man y
Run ner
Ġpl aced
Ġshow ed
Ġexp ansion
Ġnear ly
de cor
Ġstud ied
D ATE
b log
act ivity
Ar ch
Ġlist ed
anc is
Ġw ife
get Id
k es
SO UR
p at
Ġcontinu ous
Ġcandid ate
Ġs quare
j i
ph an
tex trm
) |
Ġdise ase
ĠC G
Ġd ra
al i
Ġle ader
Ġecon omic
Ġk ernel
Ġsome times
ĠRuss ian
en code
ir us
S napshot
Comp at
Ġde tection
w orld
HER E
Ġcal c
A bs
Ġequ ip
ĠP romise
ĠSer ver
h aps
ĠSt ream
re peat
Ġdiscus sed
Ġunder lying
MA P
Ġturn ed
En umerable
25 0
anc ing
F atal
Ġelect ric
Ġst ories
} %
pro gram
Ġcalcul ated
? âĢĿ
ĠF OR
Ġ" '
199 5
Ver ify
Ġgu aran
p lot
n n
Ġh um
rid ay
hes is
are n
ĠConfig uration
Ġd rive
ĠCont rol
Ġad opt
ck now
ĠJ S
Ġsignificant ly
T uple
ĠS imple
Ġdepend encies
Ġpro te
V AR
u ages
ĠEx ample
W rit
c ancel
Ä ±
ud a
Ġobserv ations
Ġoc curs
ĠO lymp
Ġbro ught
Co unter
ĠSe cond
T ouch
h avior
Ġwork ers
Ġdist inct
ual ity
Ġ' ./
Ġagree ment
ĠCont ent
ĠJ er
p riv
C ancel
rag ma
Ġmin im
ĠE nt
Ġst ats
lic enses
ap os
ĠM ex
gorith ms
TI ES
B ottom
RE D
ĠL in
Ġopen ing
serv ation
a ver
ar c
Ġe ight
un tain
Ġph one
6 00
se teq
ĠSm ith
cal endar
it ation
Ġconst raint
j ax
p an
oc aml
PRO JECT
0000 00
clu ding
S plit
r ank
Ġinitial ize
Ġc li
ĠTime s
D ig
": "
ĠJap an
add Class
ĠB usiness
M aterial
m en
Column s
Ġthe orem
OP T
column s
ask et
P Y
Ġgiv ing
con cat
Ġmove ment
P resent
act ual
Ġf air
ce eded
ĠIn formation
Ġassert True
Ġhar mon
Set ting
wh at
Ġbu y
ĠCl ub
m c
o ch
Ġw ild
H S
ĠWARRAN TIES
Ġbir th
The me
Ġcy cle
ony mous
log ies
f lat
Ġinv ol
ĠT witter
Ġcomp ar
fe ed
De v
Ġmeasure d
Ġall Classes
Ġdocument s
ĉĉĉĉĉĉ Ċ
Ġcl one
rel ative
Ġup dates
ĠĠĠĠĠĠĠĠĠĠĠĠĠĠĠĠĠĠĠĠĠĠĠĠĠĠĠĠĠĠĠĠ ĠĠĠĠĠĠĠĠĠĠĠĠĠĠĠ
ĠA uthor
ĠTh read
Ġcoordin ates
Ð° Ð½
Ġposition s
ĠPro f
ĠA cade
EN ABLE
ĠD uring
Ġp p
Ġarbitr ary
Ġpl ans
Ġin ject
Ġab s
Dis patch
) _
Ġv oc
19 80
ĠN ext
d rag
Ġs it
over view
f ast
Ġe igen
] +
sp acing
Ġlook s
ĠallClasses Link
Con sole
az ine
ell ing
t i
Ac cept
att ice
F OR
Up load
C B
Ġl atter
Ġload ing
Ġform ula
Decl aration
aw n
12 7
lic ations
un ct
M ay
ell ar
ur able
Ġde but
Ġindic ate
ĠRe view
Ġcache d
B its
Ġhe nce
os h
Ex port
Nav igation
ĠS pr
time stamp
ig er
ces sed
Ġb ra
pro b
Ġexperi ment
ĠFor ce
w all
at in
ref s
Ġrel ig
ĠCar ol
ff f
text tt
d ocker
ĠCent ral
Ġassign ed
ande mic
Ġdo ub
= %
Ġsay ing
Ġ$ $
T AG
m k
ĠT own
A F
Ġocc urred
aj or
ivers al
Ġs ports
Ġs amp
Ġ` ``
az y
Ġcomb ination
er c
De pth
not ations
ĠS und
ĠDes cription
Ġed ges
ge o
Ġcon cent
ĠU sing
ĠL ibrary
Ġto po
St ub
Ġw idget
Ġbind ing
ient ation
Ġest imated
ĠNAV BAR
a ud
Ġdeath s
lo ur
ĠTh omas
, '
ĠC loud
ĉ ĠĠĠĠĠĠĠĠĠĠĠĠĠĠĠ
Ġadd resses
Ġstr ateg
pend ing
Ġauth ors
P latform
Ġfor med
ï¼ Į
Ġt d
Ġf raction
Ġtrans l
align ed
Ġlet ter
Depend ency
Î ±
riv ial
Re c
Ġcons ists
Ġpol ar
ĠP R
ĠAfric an
R ules
ic ago
ĠCon vert
i ro
ad r
}^{ -
an aly
op lus
> ()
Ġman aged
ĠBo ard
sp irit
ĠS V
de lay
valid ation
ĠS ecurity
Ġ il
ic ine
Ġ< -
Ġcomb ined
Ġvert ices
Ġrest ri
BU FFER
pro t
Part ition
if ically
18 0
Ġpie ce
p ace
Ġc amera
c mp
Ġ ult
sub ject
o logical
SQL ite
a udio
Ġde tailed
ĠS ing
Ġprop ag
Ġqu arter
ĠImm utable
Ġlog ging
Ġmaterial s
Pro v
ĠArm y
tool tip
NO DE
Ġclass ical
m ann
al a
ierarch y
.* ;
Ġsc atter
serial ize
" ];
FI X
LE TE
Ġs aved
ed u
Ġâ ĸº
Lo gin
en coding
Ch unk
ĠChrist ian
ĠW ill
get Instance
S ec
ç Ķ
19 70
ĠT ag
ent y
Ġb re
ĠO rigin
Det ail
Ġd st
ĠSc ott
As sembly
Ġf ake
Ġadv ant
Pl ace
ap ers
Form s
Ġv oice
nav igation
se ll
Ġrel ations
Ġ eth
Ġshow ing
Ġsong s
on ed
Ã £
ĠMan agement
ĠRe port
Ġopportun ity
re mote
has er
foot note
Ġnetwork s
h ave
Ġs ites
(' <
E mit
(" #
( ['
u ation
Ign ore
P M
ook ie
D ynamic
How ever
. ;
Ġpartic les
Ġrequire ments
Ġdec ided
sub seteq
Ġrespons ible
L ight
Ġin struction
Del ay
ĠV ol
12 5
ĠRo yal
Ġre member
Ġâ Ĺ
Ġg oogle
00 1
Î ¿
it iz
- (
ĠPol icy
Ġindividual s
Ġmention ed
po ses
ch a
ĠH en
h ol
dd en
Ġgener ic
L icense
Capt ure
ĠO ffic
y an
Ġcontain ed
UN T
Ġb all
R andom
c li
Ġcar ry
Ġk m
ol f
/ .
S l
g oog
Ġc ri
f ront
Ġbroad cast
Ġ' #
Ġbr and
Ġper mission
Array List
LA Y
ĠH amilton
Ġb in
A SE
Ġcontribut ion
Ġco uple
Ñģ ÑĤ
ĠC r
Ġappe ared
l int
ĠP op
ER S
co untry
ĠG reat
BO OL
Ġconf lict
ĠB ank
H AL
ĠDirect or
pict ure
ĠU k
Ġf s
os ing
ĠPy thon
se m
Fe atures
ĠF urther
pl ain
log ging
[ ],
Ġim g
on ic
ir ror
Ġj ump
Dec imal
Ġro ll
ĠCom mission
ĠĠĠĠĠĠĠĠĠĠĠĠĠĠĠĠĠĠĠĠĠĠĠĠĠĠĠĠĠĠĠĠ ĠĠ
ir al
Ġe mission
Ġc ivil
ĠFr ancis
ĠG overnment
Ġold er
ĠF lor
Ġim ag
Ġpol ynomial
Ġinput s
Ġ' -
b at
^{ -\
ĠC R
Ġla un
S pr
Ġv an
scal a
G C
M aster
Output Stream
ĠJ ew
å Ĳ
pect ive
map s
Ġst ock
ĠP lease
ab e
Ġg old
ĠâĹ ¼
Ġmeas ures
ab out
UM M
ĠOff ice
` )
A ST
ol ate
Ġal ert
Ġchannel s
ter min
ĠHand le
Ġcontra st
Ġover flow
d jango
< <
ĠCh ange
Ġspe ak
ĠPar se
H older
n y
pop up
name d
it z
Ġf etch
Ġtyp ically
el come
ĠF rame
Ġst ated
En able
ub ble
Ġde legate
ser ies
Ġin equal
t l
Ġmodule s
ĠP en
ĠR ock
We ight
1 10
Ġf oo
ĉ čĊ
ĠG en
Ġeffic ient
bul let
Ext ensions
Sh ader
Ġpack et
Ġpro cedure
ĠB uffer
Ġcomp liance
Option al
Ġsh ot
ĠF oot
Ġ$\ {
æ ĸ
IM IT
p ages
Ġre v
ĠDiv ision
und red
ic ian
t ar
ĠSt andard
ĠC OL
Ġ uri
Ġk illed
~ $
i ar
Ġn s
Ġth reshold
at re
**************************************************************** ********
Ġc limate
The lia
Ġun ion
Ġt or
Sup ported
199 4
is c
Ġfem ale
Ġdynam ics
ĠT ur
ĠVer ify
inter val
Ġfore ign
O O
B uf
as er
In ner
ĠMin ister
id en
Le g
BA SE
A ctions
Ġf older
i en
/ ">
Con verter
ĠAustral ian
Ġm obile
E VENT
local e
IL ITY
p et
Ġconf irm
d agger
om s
Ġj oint
uplic ate
Pre v
Ġbeh avi
ĠD en
Ġ à¤
ĠSte p
Exec utor
Ġim m
Ġmay be
An aly
Ab out
r int
__ ,
Res p
mult icol
in ity
g p
be an
================================ ================================
Ġge ometry
lo ss
i ation
f b
sk i
ĠH as
Ġexperi mental
L ib
C enter
Ġser ve
C lo
å ®
al and
Ġaltern ative
tool bar
Ġt it
de ep
Ġhe avy
Ġwas n
Ġcorrespond s
S witch
ĠExp ression
Ġmar ried
Ġv m
Ġcalcul ate
ĠMark et
ĠN et
ĠW IDTH
On ce
="../../../../../../ ../
Ġpo or
ĠO S
Ġro b
ab c
Ġ( $\
am er
f old
T er
Ġbg color
ĠRuss ia
ur ations
Ġocc up
Fig ure
CO MM
id ential
S m
ĠGu ide
w t
Ġ Ø
EN V
ĠIn valid
ĠJ ose
t witter
anch or
pre vious
Ġch urch
E Y
log o
M ut
ir ation
Ġopt imal
Ġ\ ;
Ġcheck ed
Ġst able
Av ailable
Ġevent ually
Ġ' ''
Draw ing
Ġcapt ure
annot ations
Ġsp ot
st ra
Ġf ish
ĠP ower
get Type
ĠG ames
UE ST
Ġaccur acy
elastic search
Ġdes ired
Ġl at
ĠD own
Ġcommun ities
hen s
Û Į
Ġas sess
m ac
File Name
ĠS H
Ġcommand s
Ġmo unt
cre ment
× ķ
Loc ale
Ġs ending
ver ify
u an
P OS
ID E
Ġunderstand ing
Ġr ing
Ġsum mer
Ġdel ta
L IN
St andard
Status Code
Ġb undle
Re place
Ġp ending
} ",
Ġsy mp
Ġser ious
k et
Ġfour th
ĠDe velopment
Ġdef e
De precated
ĠP si
Ġgra du
Ġuncer taint
Ġ" >
Can vas
Ġpre d
Label s
ord ers
Ġ$ |
ab it
w er
ab y
multicol umn
Ġf ans
F ixed
ĠM useum
Pack et
ĠS il
al ias
att ed
ĠL ay
S N
ĠSup port
ãĢ Ĥ
resp ond
Ġpri ority
ys ics
Ġcre ates
ĠB Y
_ +
case s
D em
Ġg auge
_{ {\
ĠAd min
Ġcustom ers
Ã£ o
199 2
ĉĉĉĉ ĉĉĉĉĉĉ
lic a
ĠRe p
stand ing
if ul
ĠJ ul
Ġf an
ict or
ĠS end
U nder
Ġch ance
spec ific
in ject
Ġme trics
ar ia
Z ero
st ic
Ġtrans formation
Ġst yles
exp and
Ġpol y
f p
Ġ' _
Ġwon der
Ġde comp
Ġsh oot
ext ensions
u lo
Com mit
Ñ ĩ
math scr
ĠK ore
sh ire
ĠL java
d st
Ġinter rupt
C N
li e
Ġimp lied
Ġfail s
A SS
Ġp ert
Ġlimit ations
Ġdepend ing
Ġde tected
ĠIs ra
( ()
Ġind ices
ĠL i
Ġmo lec
local host
b inary
Ġg oto
Ġprec ise
as i
Ġs ustain
Ġlaw s
Ġart ist
IN VALID
ĠTe am
Ġdirect ed
az z
Ġs ch
Ġre asons
Ġg un
Ġdisc ussion
S em
ĠE ducation
Ġcon v
F amily
Ġsur vey
ĠCan adian
Ġexperi ments
Ġse ctor
Copy right
d irection
Ġgalax ies
Ġde m
list ener
Ġdim ensions
Ġin nov
Ġcan vas
ile vel
er v
Ġbo unded
ĠJ son
ĠH y
Ġh ide
rt l
S W
ro duction
O wner
Ġd om
ĠM il
Ġstreng th
ĠWest ern
ĠC D
- $
ĠH ill
199 3
Ġcommun ication
ĠW ed
Ġmode s
PRO P
am ous
qu is
s amp
Ġen cour
ĠR untime
st rip
ol a
ĠS ocial
FN GL
ond ay
glyph icon
Y Y
RE CT
, $
Re act
c urrency
t imer
pol y
10 1
ĠG ood
K it
ĠF l
Ġinflu ence
p ragma
Ġra ised
Ġ* ,
ĠSpec ial
ĠAn n
Ġb illion
Pe er
Ġexp onent
ĠN av
ĠEn ter
ĠL os
Ġrepos itory
es ome
b ro
re nt
Miss ing
. ',
ap y
Con tain
Ġincre ases
ĠĠĠĠĠĠĠĠĠĠĠĠĠĠĠĠĠĠĠĠĠĠĠĠĠĠĠĠĠĠĠĠ ĠĠĠĠĠ
Ġgr and
Ġpre p
ĠAl though
\ }
Ġbal ance
r pc
Ġb rief
EX PORT
LO AD
ĠM ad
tr ansparent
run ner
Ġal one
Ġp ure
Ġcomp iler
Ġda ughter
contain ers
ĠVir gin
Ġsatisf ies
ĠP M
Ġform ation
Ġfre ed
Ġp m
st andard
Ser ies
SOUR CE
u er
Ġexplicit ly
Ġh op
ĠA li
F ore
ĠC urrent
ĠU RI
ĠB uilder
get String
no logies
Trans ition
Ġpar allel
r ich
Mon th
Ġco ol
ĠT er
Ġen code
ĠB ill
10 24
Down load
Ġnot ed
Ġ} \
ome tric
Ġdis patch
m ime
ĠUS A
Ġmoment um
un icip
Ð¾Ð ²
Look up
ĠU til
ĠP eter
ill is
ĠL anguage
ĠEar th
r ules
ĠIt al
ĠLog ger
view port
New ton
Ġp sy
and a
D id
u ce
cl s
ĠE con
tr ansport
Ã ¨
Ġexist ence
AC H
ĠJ ob
C CESS
bu ilt
ĠLo ad
L iving
ni ques
[ (
Aut hentication
Ġapprox imately
ĠW omen
ve x
Cont ract
Ġ ig
Ġho spital
ar ma
r ices
ri f
Ġra il
w ill
LE MENT
Type Def
append Child
Pre vious
over ride
lement s
R ot
Ġplace holder
ĠV irtual
greg ation
D iff
e per
Ġf irm
contin ue
ĠAn ge
re po
cry ption
Ġgrow ing
y er
Ġ ðŁ
Ġb lood
Ġany one
D ITION
A zure
Ġp andemic
ĠPl an
å ħ
ĠC ast
Ġignore d
B u
_ *
Ġclear ly
ens itive
( --
B L
fore ach
ĠM odule
Ġl iteral
Ġmeasure ments
not ify
W ill
ab ric
D irection
Col lect
}} _{
ver tex
tom ic
Ġapprox imation
Re ason
graph y
lu sters
ĠĠĠĠĠĠĠĠĠĠĠĠĠĠĠĠĠĠĠĠĠĠĠĠĠĠĠĠĠĠĠĠ ĠĠĠĠ
Ġmajor ity
Ġth reat
ĠDo uble
gener ator
Ġnumer ical
RE SS
ĠCh annel
auss ian
Ġcost s
Ġwait ing
get Message
Ġs izes
Ġcan cer
ĠL and
ĠApp le
ĠComp onent
ĠW in
CRE ATE
ic ations
Ġrot ation
g ov
Ġtext ure
ph rase
ĠN ull
Ġf elt
c assandra
fa iled
ĠIt s
im a
Ġ" ${
Ġin variant
Ġdiffer ences
Ġad j
Ġ ens
ĠL ast
M ix
d ynamic
H z
Ġsub set
ĠM ont
ist og
ĠL ake
Ge ometry
ent ly
ĠC ore
ĠM ass
Ġh our
W in
ĠI r
Ġap ilevel
ĠF our
Ġw ants
Ġde leted
Comp ar
re pository
Ġplay s
Ġmechan ism
Ġresp ond
ĠA T
Ġm ur
Ġde d
Ġart ists
atur day
Frame s
iss ue
sp here
Ġdefault s
ĠE very
P lease
fer red
M achine
ĠA M
part s
-------- --
Pri ority
m ag
B ucket
al g
ad v
w edge
Ġaccept ed
ĠF re
Ġo dd
over ning
Ġse ctions
Vis ual
ĠD ig
li bs
CD ATA
ĠN E
re land
li ament
Ġsymme try
ĠF ix
head ing
Ġpl us
con current
lic ity
ĠPe ople
Ġg ap
ĠL icensed
ĠF riday
B est
Ġa x
Ġslight ly
B I
Hash Map
Ġsp irit
te ch
ex amples
Ġw ish
AR RAY
E q
66 66
n ight
set Attribute
z ed
set minus
Ġp ipeline
Ġconst ants
ĠFr ank
Ġmiss ion
G IN
Ġcor relation
MP L
ad y
0000 000
Ġg overn
Ġinterest ed
b us
pro c
Ġf light
li k
] ->
h d
Ġac celer
Ġd s
war ded
i ers
ĠRe ference
st ates
B ased
ĠHe ad
Ġt ick
Ġob vious
code c
M ust
UMM ARY
onal d
u ke
new command
ĠCommit tee
ĠWITH OUT
= [
' _
Ġout er
ta ke
Ġes cape
ĠK EY
Ġmark ed
h ook
int s
ĠLou is
Ġconstruct ed
Ġthrow n
M s
dat etime
t p
* ,
ash ion
came l
Work er
ck er
let s
umb n
.... ....
Ġproper ly
TR AN
Control s
Ġspect ral
ĠSp ace
Ġcon vers
ĠS pe
Load ing
f older
ĠCh icago
Ġf arm
Mod ified
Ġcom mercial
Ġcon ven
Ġsim ulation
__ ["
C annot
ĠSer ial
A mount
Ġliter ature
ĠZe aland
g if
Ġlimit s
Ġass umed
che n
Ġtre nd
mat ches
Act iv
Ġcor re
Ġv ote
ĠC lear
ĠN on
get Class
Ġ} ),
ĠSund ay
ig an
ĠA uto
Ġhand ling
Read y
Ù Ħ
SP ACE
Ġnav bar
ĠDe bug
Ġ// !
yg on
Lower Case
C SS
it ors
g z
ĠB E
ĠS ec
ĠP HP
D one
de legate
se qu
ĠWe ek
C UR
ĠRe al
The y
ap h
(" \
ro uter
ig ate
ec lipse
ordin ate
? ?
Ġshe ll
Ġar m
âĢĿ .
Per iod
Jo hn
fl ush
ĠJap anese
text ure
h ard
B lob
Ġjob s
R UN
S PE
S elf
Valid ate
Ġp icture
ĠE ven
Ġmost ly
Ġdesp ite
Ġw rapper
Ġexec uted
,\ ,
BU ILD
ew idth
so ck
de code
s lide
Ġcirc le
UR N
not es
urn ey
g ot
p ad
× Ļ
c lip
Ġcol lege
; |
Ġv ary
G P
Ġac ade
Ġlog ic
Ġ} ).
Ġuser name
Ġal pha
Ġ/* !<
b ounds
T X
ĠArg ument
Ġregard ing
Match er
ench mark
Ġinter view
h ow
Ġtrans lation
Ġhand s
Ġallow ing
k g
label s
v in
Ġeffort s
Over view
ĠGr and
Ġf ol
me mbers
Ġcorrect ly
Ġmod al
ĠPro position
Ġto kens
è ¯
Ġent ered
B ad
Ġs uffer
ĠH ot
Ġexpl an
Ġup load
fra gment
O C
ament al
ĠVAL IGN
h u
ref resh
UB LIC
Ġbel ong
Ġ{ %
Ġ& #
Å ¡
T rigger
Ġso ft
clo sed
Ġgo als
j ack
uff ix
OR K
Ġra pid
Function s
Ġw ire
ĠW hether
O W
up dated
Ġform al
DE D
Ġcl s
Wh ere
Ġs ales
Ġloc ations
Ġhapp ens
"> (
Ù Ĩ
âĢ ĺ
ĠSe cret
Ġlead ers
le e
Ġ# {
... )
k ins
T IM
Se cret
urs day
ĠChar les
get Attribute
Ġe ase
Ġcoordin ate
ow ers
Ġthe ore
p aper
Ġch anging
ĠE RR
Error Code
Ġth ous
****** /
Ġ| \
ĠSh ould
Cre ated
Rel ation
ĠMore over
link s
Ġcustom er
os is
T L
y mp
O FF
ail ability
= $
ĠIn ternal
gu ide
j d
lin ux
Ġc as
ĠH ence
trans late
u zz
ĠRich ard
Ġexp anded
ĠDes ign
Ġpattern s
Ġo l
por ate
Ġv ac
ĠK IND
Ġcomp atible
199 1
fra structure
Ï Ħ
Ġintegr al
fol io
od ies
Ġhy dro
Ġco ach
Ġind ent
IC ATION
Ġhel per
Ġin form
al d
I p
d ark
parent Node
F P
por ter
Ġph oto
mult ip
: =
y r
Ġd ot
ĠO P
ĠB ur
Ġstat istics
Met ric
ĠF ALSE
Ġtri al
Ġar riv
ĠP ass
Ġtra ffic
Format ter
Ġcomplet ion
e val
Ġre verse
Ġcover ed
ĠC ath
ĠFlor ida
Ġsim ulations
Ġg overning
Ġwh om
Ġclient s
Ġgener ator
Ġexp ressed
Ġre tain
Ġe yes
Ġrecomm end
ĠKing dom
um ing
File Path
TER N
sh are
H AND
== =
temp t
M utable
Ġcopy right
ĠĠĠĠĠĠĠĠ ĠĠĊ
< >();
____ ____
ĠM O
a N
Ġ' ,
Ġse ed
se udo
sd k
Ġcon sumer
ĠV an
de t
ĠI R
Ser vlet
M EN
re ason
AP P
b p
Ġwork er
oll ary
Line ar
Ġext ensions
ĠE lect
ĠÐ ²
Ġp hen
c les
Dis k
ĠP erson
__ .
art esian
P haser
ss ue
ĠF ilter
Ġke pt
ĠG raph
Ġpass ing
U AL
ĠM P
st rict
ĠE val
ĠAnge les
G ui
N ONE
L ike
%%%% %%%%
Ġrel atively
Ġ\ (
per p
Ġcompet ition
Ġcheck s
[] {
ce an
am in
_ [
omorph ism
ĠCol umn
Cont in
mob ile
Ġtr uth
Ġ$ [
Ġa w
ard en
ĠPro p
P ut
ac le
at i
amo unt
Ġh undred
ĠM el
or ation
ĠO h
big g
E ar
ĠCo unt
di ctions
k ernel
Fe ed
Scal ar
E P
ig ator
Ġact or
Ä ģ
pre pare
Ġhapp y
ä ½
Ġmin or
et ic
'] .
A lias
ĠB ecause
Ġri se
Ġf ederal
Ġst uff
Ġfind ing
Serial ization
ĠStr uct
Ġc m
Ð ¿
ĠS UMMARY
Ch anges
curs ive
h om
ur er
rit ical
s un
Ġpart ner
ra ine
AR B
og ene
Ġlay ers
refer ences
p res
Ġlaun ched
ar ded
ĠW ell
s co
ĠS ta
* {
ĠO ld
C trl
S chedule
Ġsupp ly
Ġde cor
Set s
Ġp ixel
Ġ( %
A I
Run ning
mo ved
du mp
ĠC a
ĠAcade my
ĠIllegal ArgumentException
Ġt uple
ĠM AX
Mark er
Ġa ware
lement ed
he ast
Ġn ation
Ġle ague
ĠI tem
_{ -
P ixel
U CT
ic ed
b ucket
ĠT ABLE
b el
ĠTech nology
S UB
æ ķ
ic ians
Ġindic ating
end point
Ġchall enge
Ġcol span
Ġdisplay ed
Ġin come
Ġb attle
ĠâĢ ¦
Ġe arn
Ġfor ced
Ġcoeffic ients
Ġra re
ident ity
K e
fe atures
Ġdec ay
ĠP an
M R
Ġdi ctionary
Ġre duction
ĠD CHECK
Ġann ual
T ex
MA SK
tegr ation
Ġtech niques
Ġa ria
Ġad ult
ĠAdd ress
ĠT ool
Ġoriginal ly
B ACK
vent ory
Ġide al
G EN
Be en
sh a
Ġw at
Ġhe at
Ġsupp lied
has OwnProperty
;| &
Ġse a
look up
asket ball
Ġf if
Ġd aily
Ġhe ard
s uch
c py
ĠB rown
Ġsm art
Ġatt ract
OL D
m iddle
Ġw all
pos al
ellig ence
Pri mary
Ġcoup ling
Mon itor
at ibility
Ġfoc used
Ġab sor
u v
Ġtrans actions
Exec ute
sub string
Ġconvert ed
Ġrot ate
Ġs ociety
Ġp ixels
T V
ous ing
init ely
n el
Ġpat ient
Ġpol icies
Ġevalu ate
Ġt imer
ĠEn vironment
Ġw rap
clude s
ĠĠĠĠĠĠĠĠĠĠĠĠĠĠĠĠĠĠĠĠĠĠĠĠĠĠĠĠĠĠĠĠ ĠĠĠĠĠĠ
b as
Ġt sd
Ġass umption
P ane
g ency
os ity
Ġex pr
ide os
RE T
igh ter
Ġcol ors
i pher
de sign
n ob
s ure
Ġmeasure ment
Ġoper ating
Ġcar ried
ĠCong ress
Cal endar
Ġto ward
es cape
ĠItal ian
ĠM ur
e a
ĠI ll
Ġf r
att ing
ab il
re duce
ues day
sp i
ĠS yntax
sol r
urn ament
Code c
// !
En coded
) }(
Ġe c
String Builder
pay load
Ġtri ed
Ġsh op
to LowerCase
Ġemploy ees
Ġcontribut ions
Ġdeg rees
irc raft
ĠAct ive
Ġide as
ec ycle
ines ses
refer red
Ġintro duce
G LE
ME M
Ġen ded
ĠC ard
Bit map
mut ex
Ġattr s
Un iform
Ġmin imal
Block ly
n ic
Path s
connect ed
Ġan chor
ĠBo th
Ġpur poses
ist ical
Ġorder ed
D MA
K ernel
ĠB io
let es
ĠA ust
Ġp atch
h istory
As set
ut ter
out er
Sup er
p ot
il ib
And roid
ph ase
me trics
B reak
at tach
FORM AT
Ġfre quent
Ġend s
Col l
Gener al
Ġb ucket
ĠY oung
A U
Ġis instance
ca pt
, .
Ext ra
gener al
ater n
AS H
Ġpower ful
task s
ĠPar is
Newton soft
{ },
ĠST ART
Model s
Ġg uest
), \
Mo unt
Ð ·
decl are
grad le
Second s
attr s
F etch
I ME
}} (\
Ġevalu ation
Ġt ail
Graph ics
Ġveh icle
S cheme
Ġg lob
ĠThe ir
ĠT re
filter s
ĠCl asses
Ġh uge
ay lor
PAR AM
ph y
is er
An im
ĠRecord s
Ġtarget s
ret val
Ġtable s
A K
e lect
Ġa ward
ĠH istor
ä º
Ġ' @
z il
P ush
ĠC ase
Ġestim ates
Ġorgan izations
IN IT
Ġint ended
T ry
Ġt al
V EL
un lock
Sup press
Ġsecond ary
Ġth erm
ĠSh ort
S UP
P ending
ĠS cal
Ġad vert
Ġb log
por ation
Ġs lice
Ġaffect ed
mal ink
e h
w ater
P red
L ines
as ion
198 7
Ġadvant age
Ġcontrol s
iz ers
w ig
Ġinter actions
o on
P ower
cp u
ss ible
lap sed
Ġcla ims
br aries
k ubernetes
ĠF ire
i Ã³n
Ġfilter s
F actor
ĠI reland
( []
it ivity
ong o
Ġbro ther
de scriptor
ĠDate Time
us hed
ĠUn it
ĠGe org
è ¿
ĠE qu
Ġflo or
Ġro ut
Ġat tached
T ick
99 99
G ateway
ĠR ender
Ġlook up
ad oc
at ile
S ide
ĠAr ts
ĠTR UE
Ġstrong ly
Ġcred it
ĠCommun ity
sc an
198 9
Ġinequal ity
P ipeline
Ac cording
ST ART
Ġdef ines
M ov
Ġpro tection
Class Name
In struction
Ġarchitect ure
Ġstr ug
Ġl attice
Ġco verage
lish er
Ġreturn ing
D TD
sl ider
Ġf av
TH ER
unk nown
CO M
Ġappro aches
ac ific
Ġhe ar
ok es
ch er
Ġfe e
ĠE v
u z
ib ling
Ġg oog
st ub
ĠS ize
comp lex
O ld
U Int
nes day
ri age
Ġ" )
Ġintegr ation
F ix
Con version
ul s
lin ewidth
Ġr c
Ġcop ies
l ab
me an
Ġinter pret
ĠDe v
Ġmat ched
Ġclass ification
= &
×ķ ×
Ġcontin ues
s z
Ġs yntax
if old
ri vers
ĠTe mp
ri ent
est er
Ġc ert
Ġfunction al
ĠU sed
em y
A VE
Ġre direct
ĉĉĉĉ Ċ
ĠR ow
SH A
Ġcor ner
r ink
19 60
p f
Ġtre es
Ġind ust
Ġc at
Ġcomp osition
Ġ Ñģ
Ġtyp ical
Ġpri me
MA GE
S rc
b our
Ġa head
Ġcode s
Dest roy
Ġnot ification
CH AN
Ġin herit
Ex it
Ġ. =
Oper ations
Ġfo unded
Access or
W ARN
s ass
Ġdiv ision
av el
ĠS ymbol
ĠS af
}$ -
ĠĠĠĠĠĠĠĠĠĠĠĠĠĠĠĠ ĠĠĠĠĊ
ĠJ un
cache d
Ġig et
He alth
ĠNS String
Q t
ou ses
. ")
Ġo il
Ġm ail
Ġal gorithms
Ġprint f
d ers
ĠG al
Track er
Dist ance
ĠMart in
H ave
ĠT YPE
Ġ-- ></
p in
_{ (
en ess
Ġpert urb
[ -
ĠT ree
Ġsing ular
ĠOther wise
al ing
ĠLe e
process or
Î ¹
eng er
ĠM onday
WA RE
l ife
> %
Ġanal og
Ġvis ibility
ĠL I
Ġa st
qu ant
7 00
Ġ" _
ĠT ry
Î µ
Ġoffer ed
Conn ector
Ġhappen ed
SS ION
Ġf ra
Ġdef er
G O
ĠLo ve
ph ere
C irc
re quency
C ertificate
Ġmass ive
Re ceived
ru it
arch ive
B ER
AT URE
Ġc lip
Top ic
Ġlist ing
Ġsp atial
ĠS aint
late st
Ġlist s
ĠC ur
') ->
Ġlo gin
Ġprec ision
g ood
Ġ( `
ĠS SL
Ġhelp ed
h ot
ĠM i
N ON
fra mes
F ake
Ġle aving
Ġab ort
b undle
ĠM atch
Ġtre ated
v t
Ġrest aur
ĠBl ue
Mer ge
google apis
cul ate
Ġw arn
Ġpre par
ĠL im
Rad ius
N d
HO ME
on to
Ġco s
ist ant
) },
Ġnot es
ĠW al
is Array
Ġmor ning
Ġp aid
al ed
C ulture
ites pace
ase ts
Ġconf irmed
Ġs leep
Data Type
on der
op acity
Z oom
dist ance
Ġm orph
sp in
ak istan
Ġdistribut ions
Ġbuild ings
Ġres olved
ĠM A
ĠW rit
Ġcur ves
IE W
> `
ĠC la
Ġt f
G N
Ġal leg
ĠB AS
Mod ifier
Ġd ire
SS AGE
T yp
ĠAb out
F ac
include s
Ġconfig ured
or row
IN DEX
Ġs qu
ĠT our
ĠP DF
Ġcrit ic
b rid
ut ch
Ġ" #
alt Color
Test ing
i ph
ĠM any
Ġd ual
Ġcon vention
m ay
ot ic
Ġcandid ates
et t
ĠOr gan
Ġe ye
iffer ent
REQ UEST
ĠFil m
Ġg it
ĠH uman
D im
illi seconds
Ġsort ed
-------------------------------- ----------------
P adding
Ġfil led
are t
atter y
ĠIn it
.~ (\
Ġs un
Ġadd r
Ġpe er
ĠO ptions
Ġa li
Pop up
Ġcould n
t ile
ĠF estival
s ime
ate ver
ĠB ob
> .</
value Of
in ations
() [
Ġf resh
X Y
Q ual
Ġw ood
i ment
Ġb ill
L at
default s
198 8
Ġl abor
v it
amazon aws
Ġde b
up per
ĠPr int
Lo aded
S core
cept or
SP AN
rim inal
Ġv ectors
pro duction
Ġreceiv ing
Ġtrack s
Ġadv ance
pre d
ĠH a
Tool s
N umer
Ġinitial ly
ra ise
ar ian
ul ing
over flow
w x
Ġreceiv er
Const raints
p romise
ĠS aturday
Ġ+ \
Ã ¢
Link ed
arg v
U ses
us band
Ġwe ights
Un ique
ĠVirgin ia
Ġca uses
rupt ed
andid ate
Ġen coded
E valu
ĠV ictor
Ġelect ed
ĠHash Map
part ition
Ġlook ed
umn i
ĠP rivate
\ _
Se q
Ġre peated
F ill
Ġord ers
Ġscen ario
ian a
Ġbenef its
ent ries
Up dated
Ġth ick
ke ep
ĠRout e
Ġcell padding
s amples
>< !--
date picker
c ient
z oom
se gment
ĠJ e
Ġwin ning
A MP
path s
Ġop in
Ġadv anced
col on
Ġsub group
//////////////////////////////// ////////////////////////////////
Ġ(! (
ret ch
e ven
st ri
List eners
Ġe limin
Ġh align
me tric
mer ce
Sub scription
Ġexpress ions
ell a
start s
ĠUn less
ĠEn able
Ġmat rices
Ġ ĉ
ĠCon nect
Ġspect ra
B us
Ġtechn ical
peri od
it an
Ġs napshot
ĠO l
Ġturn s
Ġbene fit
Ġde ploy
Ġsub mit
reg istry
â Ķ
Ġse mi
Table Row
Ġdescri bes
S afe
Ġp al
Ġar rest
Ġhyp ot
* >(
Ent ries
ion e
mb ed
Set up
al so
ĠT EST
Ġqu eries
sc ill
Ġinvest ment
Ġr at
sime q
var s
å Ĭ
ad apter
be ans
com mun
/ )
CO UNT
r ons
Comp ilation
ĠMex ico
ĠSto re
Ġse ss
Ġpre m
ĠAtt ribute
istog ram
ad ium
sub figure
ĠCarol ina
for all
Comp letion
U int
ri um
pe ople
az ure
V T
! "
C tx
cond itions
sk y
cri min
Ġq q
Ġlocal e
\ ":
P ress
new s
Ġ ice
Ġappear ance
is is
ĠM en
ser ted
W rap
ĠPro duct
temp orary
ĠM ember
Ġecon omy
Ù ħ
d n
SU CCESS
Ġme ant
Ġnew ly
ĠĠĠĠĠĠĠĠĠĠĠĠĠĠĠĠĠĠĠĠĠĠĠĠĠĠĠĠĠĠĠĠ ĠĠĠĠĠĠĠĠ
Ġd x
ĠJ im
umbn ail
it utions
Ġs lot
Ġcar bon
) {\
Ġsk ills
We ek
T ensor
reate st
Ġreveal ed
ĠC S
Ġsur round
Ġstate ments
ĠC ache
java x
vi ation
Ġare n
ate st
c ross
s core
Ġpro ducer
and box
E st
G RO
ph oton
Ġc itiz
Ġadd s
Ġ= \
Ġmedi um
Ġp an
Ġaut hentication
% "><
] ).
ĠR ights
ĠP ut
ĠC are
################ ################
Ġchalleng es
ixt ures
Ġimp licit
OB JECT
Ġretrie ve
im ize
st ion
ograph ic
ĠM ov
ĠL ook
Ġto String
ĠInitial ize
) ^{\
Ġob serve
Ġgu itar
Ġro les
Ġc ategories
De coder
od d
ĠI II
FA IL
ĠTok en
D on
Ġs an
Ġr ich
Ġhel ps
SER VER
Ġin finite
" ])
ĠF ore
ste in
Ġm s
Ġbus inesses
Ġk new
Ġpol l
Ġmark er
mu x
Ġus ual
ĠH aw
ap id
ĠCon sole
ĠF ort
) ^{-
Ġfeed back
ĠB re
Ġbe coming
unn el
> ${
de scribe
ĠT OP
ĠC HE
sub scribe
. ');
Ġg ather
ĠO C
With out
ĠS M
to Equal
Ġyield s
g overnor
b re
Ġpay ment
Ġdepend ence
Ġdam age
LO B
initial ize
et c
w as
ĠCON DITION
st or
M ag
riter ion
ne ut
Ġpart ies
let ter
G it
Ġex pert
Ġgra dient
s at
Ġshe et
cook ie
sh op
Ġle aves
Ġsco ped
link ed
ak a
$ ).
Ġn ested
! =
Ġpl anning
Ġk w
ĠS ty
semb le
Comp leted
Ġ' $
N R
define Property
nt il
Ġt s
not ification
Ġman age
add EventListener
Comp are
sched ule
H ook
ĠP ay
Ġposs ibly
% )
ĠFinal ly
Ġimport ance
ĠA WS
ĠT im
Ġ utils
In f
d anger
Ġlo s
Ġach ieved
D a
ad or
Ġro ugh
Ġfreed om
re ci
Ġlink ed
Ġexplan ation
ex e
ĠR ail
en ance
render er
N EL
2 13
Ġcollect ed
V ec
cy cle
e b
Ġpro jection
set ting
fin ity
s quare
å ¤
ĠS P
Ġreg ime
Ġpro port
Sup p
Ġb old
sw ing
] ['
] *
ĠCon nection
Ġfund ing
ĠC ross
project s
Ġcomput ation
Key word
ĠL ight
red irect
Ġtest ed
ag ers
Ġinter pre
Ġis ol
Ġsec ure
on o
sub subsection
Ġsc an
Ġsatisf y
C LA
Ġsol ar
C ity
se cret
ab stract
ĠSp anish
i per
ĠAs ia
D uring
Ġb udget
ĠTh ursday
roll ers
enc ing
Ġc ities
inv oke
ĠN ative
Ġsen ior
Ref lection
Ġaut orest
Dis abled
ĠO k
Ġpre pare
Ġf aster
u ing
ĠU P
n os
Ġp in
D ict
TO M
xx xx
T y
Cred entials
Ġ" );
IT LE
Ġs yn
p ur
Ġclin ical
s id
exec ution
ost on
ĠG rid
Ġcon j
Ret ry
Ġc riteria
Ġin strument
Ġre con
V O
re mark
clus ions
me ter
Ġopportun ities
c n
Hel lo
ist ance
ĠVal ley
FLAG S
part y
p ite
Ġdecl ared
Ġreg istry
B ra
Ġ' ')
we ak
S heet
ĠA D
c x
pe g
Ð° ÑĤ
cc cc
App ly
serv let
Des cribe
second ary
100 00
Ġk ids
Ġv ec
c raft
ĠK ar
ĠH on
nthe tic
âĢĿ ,
Ġimpro ved
C ookie
Ġd t
" ?>
Ġd ip
âĢ ī
S uite
ĠCent re
ĠW ho
hel lo
sp ark
Ġb right
ĠRad io
Ġpro ved
ĠSum mer
ĠJohn son
Ġsub scription
B LOCK
h al
ane ous
ĠF und
Ġtw ice
b an
Ġconsider ing
ĠSc ot
Pro totype
ÑĢ Ðµ
Array s
x sd
Ġed ition
D er
od ot
Ġstud io
BY TE
ĠE li
Ġ&= &
ĠOrigin al
ĠC EO
v g
ĠCONDITION S
Ġc ss
Ġp le
Co in
St d
ĉĉĉĉĉĉĉĉ ĉĉĉ
an alysis
eth er
> {
F ixture
] </
Ġper haps
Ġs ender
Ġcell spacing
Sc an
if er
Qu ant
ĠA rab
Ġman ifest
ĠF ull
ĠÂ £
Ġnot ation
Ġexplain ed
Pers istent
ĠM iddle
mo ment
ĠW ay
qu ick
Ġfe et
Ġaud ience
AB ILITY
$ ^{-
w allet
ĠM IT
Ġnuc lear
Y P
Ġeas ier
AA AA
ĠBAS IS
Ġsymme tric
Ġeffic iency
ĠL y
Ġs impl
she ll
View Controller
Ġre m
D en
Ġcent re
Ġproces sed
Comp arison
z h
Pay load
ĠÐ ½
A li
S ch
ode s
od o
set Text
M illis
tr ins
) _{
/ ******/
ĠĠ čĊ
Pro c
ron ic
Ġh ook
ĠW ater
ext ends
ĠIt aly
Ġmain ly
RO OT
S lice
] ),
app ings
br and
pack et
the ad
Ġsubst ant
Ġsuggest ed
D r
ĠW ood
B ro
l iteral
Des ign
Sc ene
] }
ĠE ner
Ġreal ity
Ġf ear
ĠApp end
Ġin te
Gener ate
man agement
50 9
Reg istration
Ġw it
M ac
depend encies
ct ors
Ġde p
ic ates
Ġc ertificate
ĠV ideo
md c
198 6
Ġlocal ly
Ġequal s
Ġcalc ulation
C lean
over lay
C U
f ac
Sh ift
r ick
}^ *
back end
sche mas
Ġbeaut iful
Ġdo or
remove Class
Trans fer
char acter
Ġte le
Ġofficial s
Ġwe ap
Ġacc um
Ġfore st
Ġyour self
Ġsu itable
F oo
Ġden otes
iven ess
un te
ĠMo ve
In line
ĠH or
gr pc
Ä į
ĠC e
Ġ! !
aa aa
Ġsh adow
al gorithm
Ġapp arent
Ġconfig ure
text sc
) >
:: $
Ġan notation
[ _
ĠString Builder
ik i
Un mar
W I
" }
\! \!
Sty les
Ġrefer red
Î ½
---- ---
Ġcomp ile
Ġbro ken
ic an
Ġcomp ilation
FUN CTION
S lot
Ġcon ference
Ġown ed
ĠAd v
Ġpr incipal
Ġst ellar
Ġdi agram
ref lect
ĠCHE CK
Ġc lusters
Ġk ill
ĠU SE
Ġded icated
ro g
OR S
r x
He ap
Ġres on
Ġph il
Ġappoint ed
ĠW HERE
Per cent
df s
Rel ative
An chor
Vis itor
Ġre try
Ġsh ock
p n
Ġr an
par agraph
ĠRes p
Event Args
5 12
Wh y
pi pe
Ġframe s
ys ql
Ġtr ansp
ĠT arget
AR GET
Ġth r
Ġrema ined
pre vent
ĠHen ry
ie ce
Ĥ ¬
MS G
J ust
ĠF amily
Ġm ac
Ġassoci ation
ĠAc count
? (
con v
Ġpur s
Ġsol ve
! </
ĠPar ameters
v endor
Ġch ief
ult y
'] ))
ĠGener ated
w an
Ġfeature d
Th us
ĠT ri
$ $\
k ers
est ing
ymme tric
Comp onents
ĠMethod s
Dest ination
Ġarray s
LA B
mark er
Ġd anger
h base
Ġinv oked
ĠSV G
ĠA wards
File System
Ġt end
: %
d ere
Ġa cknow
ĠĠĠĠ čĊ
() ">
Ġex cell
ĠCon ference
Block s
Ġh orizontal
Ġv o
C a
Nd Ex
an im
Ġres idents
Ġref resh
ĠDi ctionary
NG TH
ĠI gn
Ġw arm
Ġbel ie
medi um
ĠJo e
ĠS ar
Ġlearn ed
Ġ æ
s ent
writ ten
ĠL uc
mon d
Ġc ult
ĠK o
J an
F urther
Sh adow
c lock
L ite
man ifest
Ġresp onses
ĠD atabase
ĠValid ate
Ġstore s
ge ometry
p matrix
v et
help ers
ship s
Ġthan k
U UID
ĠB ad
' },
Ġst ress
Ġmagn itude
ĠReg ion
( `
Ġdist ingu
198 4
ĠSt at
Ġend if
Ġbe at
Ġdefinition s
us age
Ġattack s
Ġli es
st age
ur ance
Ġco ast
ock ey
Mult iple
Ġr hs
Ġoptim ization
Ġa ircraft
ĠR a
ĠCon tainer
Check ed
Ġmur der
Al pha
ĠNo thing
ĠF i
ian o
U A
Int ent
ath an
Al ert
ADD ING
E qu
ĠT uesday
w alk
Ġdr ink
rint f
Ġcons ult
ĠAl low
O k
ĠP ers
Fil ename
Ġiter ation
ĠEnt ity
LE VEL
og en
sur face
vari ance
Ġscal ing
ĠGL int
çĶ ¨
sub str
Ġadmin istr
gener ic
ĠFoot ball
Ġst ations
Ġ ing
ip ient
ĠL ear
n am
Ġc ancellationToken
ca des
script s
S y
A m
Ġdis covered
Ġcontrol led
ĠA ws
U sed
ff ee
Ġrecomm ended
S ender
y o
SP AC
ĠDe fin
Ġc fg
L ONG
Re ceive
Ġche mical
ĠCath olic
dis k
ĠDis play
WR ITE
scri ptions
198 5
Ġfund amental
ĠD A
P G
neg ative
Ġl l
Ġ" ;
Ġpro ceed
ĠMed ical
M argin
Ġart icles
Ġb urn
Ġ[ {
if ference
f riend
Ġp il
ĠG iven
scri ber
FT WARE
com b
Ġ$ -
ĉ ĠĠĠĠĠĠĠĠĠ
19 2
Ġp et
() ]
C amera
ra c
Y our
ĠCo q
po i
ME SSAGE
ĠS ymfony
Ġhistor ical
se parator
il ly
St ud
+ "
Ġgir l
Spec ial
ot or
ĠJ ones
Ġn ine
Ġdepend ency
ĠA ff
m ass
R IGHT
Ġpar a
Ġbegin s
and o
en vironment
ic ing
ma ch
Ġf amous
B D
ig ible
Ġh usband
Ġopt ical
Ġlisten ers
x ff
Ø ¯
ind ices
=" {{
Ġh ole
ĠF uture
W arnings
Ġsco red
Ġaccur ate
f all
In s
Ġbehavi our
Ġpie ces
RE NT
ĠEd itor
Cal led
la de
H C
l ings
de veloper
)\ \
ĠJ on
Ġin verse
Ġiss ued
ly n
Ġobserv ation
Ġre call
c u
Ġm anner
db c
Ġconduct ed
S co
in x
In ject
ĠOper ation
Ġadmin istration
? "
Ġm acro
ĠB asic
Ġcalcul ations
trans l
R GB
g lob
Ġat mo
Ġrest ore
ĠOn ce
lic ated
Ġtell s
Ġlang uages
Ġbo ot
we ek
ĠL ike
ĠT IM
urb an
s r
ĠIs lam
Ġneighbor hood
app le
ol ute
reg ex
e valu
m ma
Se parator
Ġequip ment
il a
Ġoffic er
ĠK en
ur ies
S cheduler
Sh are
ic ity
ser vers
ĠIsra el
S ta
Ġnumer ous
Menu Item
ĠX ml
Ġd ream
>( <
ĠIn ternet
Ù Ī
// ----------------------------------------------------------------
shall er
Ġdevelop ing
w so
ĠB ORDER
Ġp ref
s en
ateg or
ĠEx pect
if ts
com ments
Ġc row
ĠĠĠĠĠĠĠĠĠĠĠĠĠĠĠĠĠĠĠĠĠĠĠĠĠĠĠĠĠĠĠĠ ĠĠĠĠĠĠĠĠĠĠĠĠĠĠĠĠĠĠĠ
B ridge
um a
RE AM
ĠS em
no frame
th ere
std err
Tra its
V D
Ġdepart ment
1 12
ex cept
M ail
ĠUk raine
)} {\
Ġint ent
ĠG aussian
vis or
Ġb rain
ro ve
ĠR am
ext ract
S F
ce eds
{ })
config ure
LIN K
Ġpack ages
Ġnormal ized
re verse
ist ency
ĠCon f
ilib rium
\| _{
Ġtechn ique
ĠE r
Ġact s
Ġ ur
Ġenvironment al
Oper and
Ġin duced
order ed
is a
Ġe vol
Ġo scill
Ġb ridge
Ġtemp orary
M ost
Ġlead ership
p al
Or gan
ĠWed nesday
Ġc ultural
Ġdecl are
Ġsepar ated
En umer
lo tt
ĠRe lease
Ġinter section
place holder
Ġplan et
I ES
ĠL ie
ĠCh ief
om ics
ĠV AR
Ï ĥ
P res
Ġsymbol s
Ġ" [
ons ive
Ġb ed
Ġg one
Ġbe am
Ã ±
serv ative
chart s
p ixel
Ġsupport ing
D M
Ġpl ain
Do ctrine
For ce
au x
stats models
ĠD ie
Ġ( #
d td
Ġs in
ĠImp ort
ĠWh y
Ġk ing
ub ic
ĠL abel
Ġdriv ing
S printf
is o
Part s
ri z
Un expected
ĠI ran
Ġthan ks
\ /
@ {
ress ions
Ġt err
ĠP akistan
Ġm ath
Ġn ice
ĠS ession
Ġapp lies
ĠR ule
Thread ing
Ġinter act
ffff ff
Ġin deed
Def ined
Ġ{ $
ĠS ol
itu des
Ġis land
ĠÂ ©
Ġ ion
Ġdel ivery
are st
Ġpr ison
Ġinitial ized
} ))
P icker
Ġgalax y
Ġthink ing
OT TOM
Ġal ter
f uture
viron ments
Final ly
} &
in vert
d m
(" .
ar b
[ <
Ġen crypt
non atomic
ĠTh row
inc iple
ĠC F
11 1
ĠâĢ ¢
Module s
Ġre peat
ĠPro perties
Back end
Ġmus ical
ĠS ports
Ġphen omen
ame d
ĠL ive
ĠJose ph
la h
t z
th rough
Ġear th
d ays
Request s
te am
f actor
un a
() `
Ġmot iv
en ant
} )$.
Ġspe ech
ĠEner gy
if rame
)\ ,
Ġtherm al
AUT H
on omy
m ust
M AN
Ġl ic
Ġaccount s
depend ence
dis c
æķ °
ĠM aster
ans as
dir name
Ġalbum s
Ġsuggest s
ra ms
13 0
{ $\
Co uld
gle w
Ġt ile
W ORK
Struct ure
Ġpo et
Ġm iles
ĠF ixed
ac ent
Ġext ent
}} ^{
De ep
p ref
ĠĠĠĠĠĠĠĠĠĠĠĠĠĠĠĠĠĠĠĠĠĠĠĠĠĠĠĠĠĠĠĠ ĠĠĠĠĠĠĠĠĠ
Ġca ref
Ġcook ie
ch rome
ĠRe quired
as m
ĠC y
Ġharmon y
TO OL
un ately
pear ance
Ġbo y
ĠA P
N I
The orem
' ):
Ġ ener
ar ity
Ph oto
Ġ å
m ms
En code
= #
am ond
Im mutable
Rout er
D ot
size of
PRE FIX
Ġschedule d
t v
Ġprote in
) '
Ġconver gence
re hens
<? >
ĠL ord
Ġperform ing
allow ed
Z end
est ure
r ical
te en
ĠD er
/ #
L ang
Ġhold ing
le ton
Are Equal
40 4
Ġbig gest
aw a
Ġp tr
Align ment
Ġfund s
rie ve
In to
ant ly
Ġconst expr
os a
xy gen
Ġc er
Al gorithm
Ġsql ite
Ġfavor ite
map sto
ĠPol ice
Ref resh
ĠR ight
V P
q q
un ger
Not es
Te ch
}} ^
Th an
Ġnuc le
F i
Ġen counter
run ning
imed ia
Ġpre diction
ĠB ox
FR AME
ĠWilli ams
Ġspec ifically
ap ps
n c
F IL
ter rit
ĠSt orage
ĠW atch
Ġjo urney
Ġp itch
ĠCon struct
Rep ly
Ġident ical
Ġinvest igation
Ġcoun ty
op hy
ĠH ost
ĠJ eff
Ġsc r
Inst ances
ĠH am
s leep
fe ction
V C
De ployment
Ġreg istration
Ġwrit ers
Meta Data
ĠB ow
input s
S ig
Ġim mun
iz z
sl ash
Ne g
Ġc atalog
Over lay
}{ (
ĠM ust
ĠC C
ĠJ ud
lo m
af ka
ĠCEL L
ĠS W
Ġpr ices
ymp tot
SPAC ING
m x
Ġs che
) --
row se
j oint
Ġwhere as
eli hood
ul ating
re ens
ĠCon structor
Ġn om
)$ -
Ġapp s
Ġso ck
Ġexplo re
> $
' (
t ract
LE NGTH
i h
Ġextreme ly
ĠW ild
ĠSw ed
3 60
Ġqu adr
Ġfind s
a ired
d ating
Ġl ab
Ġapp lying
198 3
le et
Ġst ub
po ch
ĠRe st
Ġmot or
Ġst reet
Ġpe ace
ĠI F
st ud
19 50
Ġplatform s
Ġn a
ĠOb servable
Sur face
ul p
In jection
= }
ĠDe vice
form er
Ġf ashion
Record s
time line
Ġas set
work er
Ġtra ined
Ġrecord ing
Ðµ ÑĤ
Ġprep ared
cour se
Ġfl ush
m aml
ĠTest s
ynchron ous
hash Code
P aint
Ġcheck ing
St ar
car bon
ag r
ĠB ul
Ġbul k
An gle
% .
Ġside s
MA IN
Mar shal
Ġun iversity
st roke
Name Link
Ġag ents
Ġcall er
fail ure
ĠA h
Ġdro pped
E LEMENT
ĠL ab
An notations
Trans lation
f oundation
Ġwe ather
ĠM ike
Bl ack
Ġdef ense
Ġw a
ĠC irc
last ic
ĠB et
U C
ĠC apt
Ġm ill
Ġc c
ex peri
dat aset
Ġ======= =
N ested
EN CE
to c
Ġcol on
Up per
col l
Ġ$ ('#
Y S
Ġre mark
ĠS ET
ĠJava Script
St age
E very
Ġspec ifies
en o
Ġcomplex ity
ogene ous
Ġdepend ent
open api
t uple
resent ation
spe ed
ĠMat rix
T ip
ore s
Ġd oll
Object Meta
ĠW alk
read only
Ġdiffer ential
or er
ĠD C
Write Line
è ®
l aw
Ġc ars
Ġt a
Ġm al
Ġfig ures
ĠHamilton ian
ĠCh ris
Ġs cre
ĠInv est
territ ory
ĠFurther more
window s
p agination
Ġat tach
he x
". /
$ ;
f av
Ġse at
Ġaut hent
ĠF ar
Ð¾Ð »
lock ed
ĠC L
F oundation
In spect
Ġattemp ts
Ġin structions
ĠNO TE
Data Source
IN CL
ĠSci ences
AR CH
Ġvar iant
uc ed
er g
ap ed
Ġco med
]( #
dest ination
ĠP UBLIC
Ġw x
ib ration
ĠAre a
ish op
×Ļ ×
sp h
Ġ' </
Ġ-- -
Ġmed ian
ĠPub lished
ch anges
F it
Ġemp has
t bl
p d
Ġper mit
Ġl ived
Ġb ias
Sub ject
Ġvari ation
OPT ION
Ġcertain ly
Ġre action
M esh
R atio
Com b
x f
ĠHo spital
TableRow Color
ĠD est
draw able
re ject
Det ector
: -
Ġ. /
ĠD IS
Ġv ision
fra g
ĠE U
(" <
ad ded
STR UCT
ick y
Ġch air
m icrosoft
erc ise
ĠT aylor
Ġsequ ences
Allow ed
cor rect
ĠA uth
ĠSO FTWARE
Ġcook ies
A IN
Ġguaran te
Ġm asses
PI O
Ä ĩ
ĠM id
CE PT
LO AT
od a
Ġgrant ed
Ġsing er
F oot
Ġstop ped
H ex
ump y
Ġanim als
Re q
ĠN ight
Ġc old
Ġmov es
ouse l
MAC RO
C ert
ĠF ILE
Ġradi ation
s ame
ĠConst ant
Ġx si
and y
Ġcapt ured
Equal To
Ġgr pc
ĠInst ead
ĠB ind
ĠChrist mas
m f
ĠS uch
Ġcom mission
AS C
ĠD aily
A CTION
ĠMan ager
do or
Ġmin ute
Stack Trace
æ ĺ
Ġas sets
Ġphys ics
Ġn arrow
state ment
ĠAd ded
ĠFrancis co
ust ed
ĠE p
Ġscal es
Ġ{ *}
For ward
Ġfac ilities
Th reshold
ĠG it
ĠCEL LP
Ġser ving
Ġw rapped
ĠCELLP ADDING
Ġcirc um
av id
ro tt
Mix in
ĠCELL SPACING
ct ree
sche me
10 2
a ui
RO W
di ag
display style
de mo
INST ANCE
Ġcho ices
Ġregion al
Ġm unicip
Ġthread s
T ube
ĠSim ilar
Ġindic ated
Ġ" ./
Ġgraph s
Has Been
urren ce
Ġoutput s
Ġopp osite
inter pret
Ġport ion
Ġpri mar
Ġcla imed
br anch
S ources
198 2
ĠSen ate
ĠDan iel
Co untry
}} $.
AME TER
\ {\
../../ ../
o e
Ġnot ify
ĠCol umb
or ial
Ġy outh
Ġre covery
ĠW all
B g
Ġa warded
x e
Ġinsp ired
S ent
Ø ª
c v
m is
ai ses
ell er
Ġsh aring
yst al
Ġembed ded
âĶ Ģ
Ġequal ity
Int roduction
per cent
ĠMich igan
Ï ģ
Ġpers pective
Ġleg end
Ġflu id
mult iple
Ġinc ident
Ġrob ust
Ph ase
pro position
NotFound Exception
Ġ' [
val s
Ġknow s
H ide
sub scription
123 45
Ġmarket ing
Ġscatter ing
ĠP acific
Ġfe at
M LE
Ġm ist
Ġflu ct
Ġtalk ing
Ġposs ibility
Ġexception s
pl ane
Ġparticip ants
^^ ^^
b ur
ĠB a
Ġ/** <
list s
IN CRE
Po jo
} "/>
Ġsp ring
Ġg lyph
__ _
HAND LE
am ber
Pri mitive
pack ages
Ġreplace ment
pr ice
Ġre pro
h ab
ĠS ite
/ (
Ġhand led
in cluding
String s
Ġstandard s
st mt
Ġr ational
ĠBra zil
Ġj av
Ġl umin
. ";
Ġfac ility
Ġoffer ing
Dispatch er
Ġincor rect
met ic
te le
Ġquant ity
PROP ERT
oci ated
D ash
Ex cel
ĠB oston
Tag Name
ĠÐ ¸
Ġentire ly
ĠR ange
Ġrel ax
ct rl
prec ision
Ġsynchron ized
Ġsign als
Ġb lob
æ Ī
de termin
ch at
s ender
Ġto t
` :
le af
D imension
Ġevalu ated
ade s
place ment
ari os
A nother
E lem
Ġlo ader
s ources
Ġz oom
post s
yl van
Text View
me asure
ĠGL enum
Ġm and
ĠT w
/ '
Vis ibility
Comp lex
$ ~
Ġdraw n
vis it
Ġde cades
o es
Ġcr isis
ĠB al
ĠS ingle
R ob
text area
B M
Spe ed
Ġrelig ious
Ġa ws
10 5
Ġ" +
ĠF ood
Ġtheore tical
Ġ ath
Ġsee ing
ĠI V
const raint
Ġsatisf ied
Ġas ymptot
ĠCol l
Ġbel ongs
H OST
R S
U i
Ġstrateg ies
( @"
Ġst ability
Ġcomp osed
b ell
ĠI T
Ġsum mar
per ts
A nt
Ġcan onical
: &
Ġ ^{
14 0
ĠNor thern
Ġe co
Ġreject ed
Over flow
Co ord
sk top
ĠDe ep
Ġwindow s
Ġdat etime
Ġs lo
sp her
Ġampl itude
button s
ĠAs ian
EN C
g re
li des
è ¡
Ġse gments
ĠT ro
ĠCh rome
Ġent ertain
Ġpartners hip
ĠA nother
ĠLe vel
s ym
Ġ river
par sed
Ġob server
ĠE ns
Ġd ust
ĉĉ Ġ
Ġv en
Ġcred entials
p ipeline
Ġprefer red
c atalog
Ġm m
Ġ/ ><
Ġassign ment
Read Only
Ġfi ction
i ate
st eps
ĠB ang
C ent
Ġreview s
}} $,
Ġsk y
------------ -
c ity
ĠP C
cs v
ĠA C
Ġread s
mod ifier
t le
Pro b
ĠDig ital
Ġacade mic
Ġdecl aration
IF T
a ug
HasBeen Set
Type Name
pri ority
-- ;
care t
197 9
C ross
Ġf ul
h our
u um
ĠGener ate
ib li
pre view
ĠF ederal
Ġrelationship s
Ġsp end
ĠF A
Ġgra d
ĉ ĠĠĠĠĠĠĠĠĠĠĠĠ
Ġro utes
vers ions
get Text
Ġcom fort
Ġl ambda
Ġre cover
Ġrep ly
b uffers
t ility
ĠCor poration
Ġcharg ed
H idden
! \
u de
UN K
ĠB ol
h bar
ra ined
Mod al
trins ic
int ro
miss ing
ĠL IC
Part ial
Ġexperi ences
as set
H y
Ġ( ((
Ġre sc
ĠS C
Ġcon clude
ĠType Error
Ġf ellow
Ġpract ices
Ġadopt ed
Ġcon sum
ĠJack son
Ġs mo
Ġkeep ing
ĠA I
Ġc s
Ġgu ard
Ġ< ?
J s
hold ers
itor ies
Ġsem antic
rig gers
ĠR ay
g un
or i
Ġact ing
sign al
size i
uck y
Ġ rig
Ġhand les
unn y
Ġun able
I ENT
ru ption
Back up
Ġdo g
Ġw ww
ict ures
Ġch rome
Ġ rid
Ġins pect
code s
Conf irm
y aml
Ñ Ĩ
ĠD at
ĠO K
Ġm ach
Ġr s
ĠS at
lo v
Ġrender ed
S IGN
Ġcom mitted
or ney
valid ator
z o
Ġfunction ality
ĠMult i
Ġ(! $
TEXT URE
Ġ Å
gy pt
Man aged
it ative
Check er
l ive
ĠTr ansport
l ined
Ġaspect s
Ġa ver
ĠPar ameter
an es
g ui
ĠS chema
Ġoffic ers
ĠForm at
F ROM
DE LETE
s napshot
at ype
Cap acity
ĠG ir
ĠÐ ´
et ing
Ġad apter
---- -
Ġreport ing
jack son
ĠG ET
to kens
Filter s
ĠBro ad
qu id
d on
f act
Ġhand lers
S ink
Ob servable
="@ +
umpt ions
Ġconf idence
Ġent ities
m ad
P at
Ġde precated
Ġatt end
E MP
Ġvict ory
ĠW ait
Al so
ri se
ç »
ĠT y
get Key
New s
ĠJ es
f v
Ġ} ));
y arn
ĠM ajor
L D
Ġwide ly
Ġdestroy ed
Pr ice
_ -
ĠMem ory
Ġd ense
De cor
Ġlow est
ĠF loat
Ġuncertaint y
li x
Ġr m
Ġveh icles
ops is
per mission
Art ifact
Var iant
ĠO x
get Property
Ġaccess ible
on om
vis ibility
ĠStud ies
H orizontal
M IT
ĠL ock
ĠTh ree
maz ing
y ou
Ã ¥
se p
K EN
Ġeffect ively
z ab
Eng lish
Ġexec utive
PA SS
Ind icator
ĠN Y
stream ing
ĠIr ish
f loor
I BU
ĠM S
Ġb ond
w ave
="# "
Ġlisten ing
Ġli e
h w
ĠĠĠĠĠĠĠĠĠĠĠĠĠĠĠĠĠĠĠĠĠĠĠĠĠĠĠĠĠĠĠĠ ĠĠĠĠĠĠĠĠĠĠ
m acro
Ġpl ants
En coder
ĠA zure
ĠG ar
Ġz ip
ĠDi agnostic
Ġ[ \
+ (
ĠO UT
n ate
ex clude
qu o
Ġli ber
G uid
Ġv ideos
Ġdiv ided
ĠÐ º
1 16
Ġtal ent
By Name
Th rows
Ġx hr
Time s
âĢ ¢
ĠB C
P DF
Ġg ender
Ġgu ess
Ġr anges
Ġsk in
ĠSouth ern
Pred icate
or ough
Be havior
Ġpercent age
Ġpost s
Ġscient ific
ĠSpr ing
Ġab und
LI B
Pay ment
ĠC red
w br
abe led
R M
type param
Ġpredict ed
) *
Ext ract
Ġpost ed
block s
Default s
ird s
Re vision
ĠW ord
Att rib
L ive
Ġpre dictions
work s
j q
Ġcri me
Ġviol ence
A E
table s
ish ing
Ġ ut
ĠD MA
ĠUS B
end region
g ray
Ġh ousing
G iven
inner HTML
ĠDemocr atic
ĠH ard
Ġp asses
198 1
numer ic
Ġ/ ></
Ġconcern s
ylvan ia
z ing
Ġin frastructure
Ġdis p
h alf
Ġs port
ul ner
Ġb ands
Ġd ut
ĠLIC ENSE
TE GER
Ġpro totype
Ġ} .
z ier
comp ress
S n
Ġca ught
sub Nav
Å Ĥ
Ġc le
AR K
Ġterm inal
Ġpotential ly
ĠT urn
Ġem otion
ĠOlymp ics
t ik
Ġcharacter istics
ag in
ver b
WARN ING
Ġ ../
he ets
==== =
Cre ation
at able
Ġanno unce
&= &
ĠC as
ĉĉ čĊ
t ick
un iform
se x
it age
Ġpy thon
D X
SD L
lo om
ĠMed icine
ĠM ah
Ġmat he
Ġwh atever
N ov
ĠQ String
Ġro uter
at om
ub b
GL enum
=- =-
Ġcoeffic ient
ĠPol it
b est
ir th
Ġstat istical
con g
Ġout line
Ġgener ating
Table s
C r
Ġthous ands
velo pe
Ġb asketball
Ġset Timeout
P RI
! (
ĠS ave
ĠO THER
Ġenh ance
ĠS us
Ġa im
ĠA udio
variable s
reg ular
TR ACT
Ġcon d
Ġpr inciple
Re ceiver
u ction
ĠAmeric ans
Ġde ployment
Ġelectron ic
å Ń
U V
Ġs ale
g ies
U ntil
ĠRe set
Ġprogram ming
Ġremo ves
her ent
enn is
ip edia
Origin al
Ġobject ive
Ġexp os
Rel ated
Ġdec isions
55 5
Ġtrans mission
se ed
s ch
ces ses
t cp
Ġvis ited
Ġiter ate
ĠJust ice
Ġcol lapse
ĠQue en
al gebra
ĠD a
Ġpurch ase
AC HE
MEN TED
oot strap
ab b
Ġd jango
P ages
ĠSe a
Ġper man
un ion
Ġwrit es
L ow
XX XX
ĠB ody
ĠSp ain
Ġd ome
Ġsamp ling
Ġal umni
ĠCon tact
Ġprimar ily
] ];
Ġg ene
Ġ! (
ar se
Ġcon vex
Ġinvestig ate
Log ging
ribut ions
ex isting
th y
High light
uc ial
d w
re store
att en
r ance
Ġacc ident
ul f
Ġinter mediate
H L
To ggle
197 8
10 4
k l
ak ed
Ġqu ark
C ost
c as
n l
u is
Author ization
Ġinvol ving
ty p
Post ed
Emit ter
utor ial
sql ite
CL K
di ents
Ġh air
ĠK h
; ,
in herited
ĠS top
C lip
Ġcallback s
Ġ ly
[ ];
* >
Ġent ropy
Ġv ent
ĠL ittle
Ġdis cover
par allel
Ġor ientation
Ġimmedi ate
Ġsim ult
Ġfa ith
ĠM u
ĠAs ync
Ġnew sp
Ġd ump
O rient
Ġinj ury
F IN
ĠDef ine
Ġpro mote
command s
Mat ches
Ġsex ual
Âł Âł
Ġst roke
ĠK im
EO F
Ġtri m
c amera
gu ard
Ġpar sing
co st
Ġag ency
Ġf uel
ĠM ic
A lex
Ġ era
w ind
a que
Custom er
}( {\
N aN
ĠGeorg ia
Ġn arr
ĠBe fore
Ġcharacter istic
Ġclo ser
Ġint ensity
Ġc riminal
NE W
Ġnecess arily
string ify
ĠS l
ĠC lose
ĠM D
Ġcomput ing
ĠN iger
ĠĠĠĠĠĠĠĠ čĊ
Ġsu ite
sw ap
he m
ĠD I
Ġad mit
Cl one
Ġs lide
oss ible
Y es
') ).
ĠB ern
ĠC ivil
ĠB i
Ġ= ================================================================
Ġ" ")
ĠPack age
O ct
op am
resp onsive
Ġintegr ated
Res olve
$ ),
Ðµ ÑĢ
qual ity
an imate
Ġcommon ly
Ġinter pol
Ġs ig
Ġexcell ent
Ġt ip
Ġse asons
ĠW at
IBU TE
Ġinv olve
Inv oke
Vert ical
Ġrecogn ized
Ġan imal
Ġin herited
Ġf d
Ġac id
less sim
bra ins
^{ +
** *
} )$,
oc used
prevent Default
Ġto ggle
ĠOC aml
th ree
Ge o
> ');
ĠThe atre
ov iet
Ġen force
ĠR PC
GRO UP
ĠD rag
Ġm yst
Ġg fx
P riv
197 2
Ġde code
flu id
ir rep
be c
Ġfeel ing
T LS
Ġto urnament
Assign ment
Ġ"- //
~ $\
K G
P ACK
D ao
ĠJ r
Elements By
Ġclass ic
At tach
pen ded
Ġmo ments
Stat istics
Ġk ick
me l
ĠPar liament
Ġleg acy
C ss
Ġmed al
, </
pi ed
Operation Exception
ĠP od
Pro f
ĠSt an
Ġel li
LE D
v n
v p
ir y
Ġj et
Abs olute
N il
> ';
in son
Ġe lev
ĠOh io
Ġt ight
> ("
Fatal f
Ġ* _
j it
14 4
process ing
H D
ct l
Ġinitial ization
ĠRe present
mod ified
Ġkw args
Ġ( @
ĠRe v
ĠB rowser
ĠTe mplate
G A
Ġpolit ics
="../ _
tr as
oo per
197 6
Ġk id
R pc
Reg ex
ĠM ess
Get String
ĠWil son
Ġmy self
S outh
Me asure
! âĢĿ
ĠK now
ĠRepublic an
Ġnear by
Ġcre ative
Ġw inner
1 18
road cast
k h
Ġd ates
Ġexc ited
C atalog
ST REAM
Ï Ģ
| _{
Ġsouth ern
iv ot
DI RECT
Ġtra ject
) }}
Ġhard ware
in to
Ġrestri ction
Ġphil os
Ġ# #
Ad v
Ġs ister
Un able
Ġmark ets
Ġman ip
Java Script
act ic
Ġle af
r and
Ġcitiz ens
ĠBrit ain
Des erial
Ġcount s
ma ining
Ġf ired
Ġre tail
Ġr is
ig a
ĠChild ren
G T
ext ype
ĠPri me
ns ylvania
Ġsuff ix
C lock
Ġrep o
Ġcor rel
Ġ rom
Ġup grade
M F
Ear ly
Ġsup posed
Ġmer ged
ĠBO OL
rg b
There fore
with out
b ench
ĠD ub
Ã º
ch ant
Ð ¹
="# ">
Un lock
P al
ĠL iber
V IEW
pro f
Ġcharg es
) ?
Ġpriv acy
æ Ĺ
ĠS i
In clude
Red irect
node Type
sp ot
Ġcom mut
ra it
ĠTra ck
ĠJew ish
Ġauthor ity
jet brains
ĠWh ere
Ġre start
Ġdecomp osition
ĠG reek
Ġopin ion
) +\
Ġlarg ely
Ġneut r
Ġbl ank
w i
Ġhe x
get Time
us al
Part y
Ġ' {
mo v
enc il
end a
Ġh a
ay a
to ctree
U TE
DO WN
Mult ip
lo ating
19 75
---- --
PRO TO
Ġsco res
h olds
tensor flow
ordin ates
T ax
o ve
ann a
: @
Ġbel ieved
Ġregard less
ipp et
ĠE st
? </
ĠL ow
Ġsens itive
ĠTr ust
Ġes cap
ĠL E
nob r
ĠN avy
Ġan ce
ag ation
Variable s
imp lementation
Ġsatisf ying
t iny
lu x
Ġflo ating
as p
quest ion
W H
197 7
24 0
User name
Ġend ing
Ġ$ |\
Ġmag azine
be at
Ġlet ters
Ġalloc ated
Ġp s
ly wood
Ġp ng
Ġvers us
' =>
T ITLE
Ġ" --
Ġco inc
Ġsh ares
ition ally
ĠP ra
c lic
Ġser ves
A ff
ĠA UT
ĠSD K
TO DO
External Task
ĠS TR
Ġin ternet
log ic
decor ation
ĠCollection s
n pm
C ut
op ens
ar ith
ĠQ t
Ġsurround ing
Ġw inter
sc ene
ĠSh ared
control s
man aged
é Ģ
C AP
ĠS cript
(' ../
uck ets
p le
ab solute
Ġinst itutions
Ġ[] *
ĠCon dition
N ING
as hes
or ient
Aut om
MA KE
I MAGE
5 000
oriz on
ĠAg ain
c line
Ġtr uly
Im ages
f an
Ġphot ograph
OP EN
ĠIter ator
197 4
ĠP A
ĠE N
ĠD ar
Ġdis crete
ĠP osition
rep ly
Ġown ers
ĠT ab
Ġcomp ression
LE N
ĠB OTTOM
max cdn
ver bose
ĠProf essor
ĠG C
activ ate
W est
app y
B ag
b ian
to ms
b az
Ġtr unc
Ġappro ved
. (
á »
Ġac quired
vers al
Ġcollection s
Ġpred icate
( ",
s izing
Wh ite
ĠR andom
Ġown ership
C MD
At tachment
G UI
itution al
Ġnor thern
}$ )
g ro
ĠCo ast
Ġb id
ĠL abor
De code
Ġrender er
Con struct
s lot
Ġ{ ?
et ary
Ġat omic
Ġv ot
19 68
Ġ( <
g ems
" </
Ġa f
S an
Ġs we
mo ves
F D
] <
ĠW ales
Spr ite
Ġalign ment
Ġpl anned
el ly
N P
tra in
ĠE th
assert False
ĠTH IS
in verse
Ġtrack ing
ĠA DC
res olved
ĠMo unt
She ll
Al t
ent h
Al though
U K
resource GroupName
Ġc ro
ane ously
ĠInter face
ĠT oday
P atch
Ġher self
ĠGL uint
Ġreg ex
ĠÂ »
ord an
Ġpro files
Per missions
Imp licit
aw t
ExternalTask Pojo
Serial izable
L C
un ters
197 3
Ġkey board
ĠSum mary
T ARGET
ĠInst all
sp lice
CON NE
Ġclose ly
) -\
Ġclo sing
Th rough
ĠGener ic
ĠĠĠĠĠĠĠĠĠĠĠĠĠĠĠĠĠĠĠĠĠĠĠĠĠĠĠĠĠĠĠĠ ĠĠĠĠĠĠĠĠĠĠĠĠ
ĠD raw
Sign al
Ġqual ified
ul us
copy right
ãģ ®
g able
Ġm igr
local s
il bert
ĠId ent
ens ors
SL S
ĠBro ok
) &
Ġhash Code
ĠIN T
å ľ
Ġb ag
Ġl it
ak i
Ġcont ribute
dere q
const ants
Ġpro min
Ġatt ended
' +
Ġv on
UM ENT
man y
ET H
RET URN
Ġ" :
row Color
Ġex cess
Ex peri
Ġcom m
Ġb ow
nos cript
10 7
> /
Ġbreak ing
std lib
t re
Ġb odies
bra ce
Ġrender ing
Ġlocal ized
Ġresearch ers
Ġparse Int
Ġaccess key
Ġpro g
Ġle s
channel s
ĠDo es
ino is
g em
Ġm it
PAR AMETER
Com mun
Ġhelp ing
Rout ing
Ġ( );
field set
Ġprov iders
col ors
h box
w ing
Ġdeliver ed
Ġdra ma
ĠBe ach
Ġexp osed
ro b
Is Null
Ġsur g
: }
Sub mit
Ġan cient
Res ize
N ational
Ġp owers
che ster
Ġco uncil
ĠRes ources
ĠL atin
O RE
conf irm
ĠTrans action
ĠB ooks
Ġconc ert
{ };
de tect
S PI
CON F
ĠGu ard
ĠI MP
Ġdec ide
ĠR od
Ġ iron
Ġs ensor
Å ¾
MA G
Ġadv oc
fort unately
Ġback end
Ex change
> [
Ġcomp iled
ĠExt ension
F ace
s lf
To kens
ĠW H
burg h
Ġd rivers
S mall
pe er
first row
Ġlo se
Ġs pl
Ġc ru
Get ter
ib ilities
rop ic
ĠH arr
u ations
Ġm ental
ver al
ach u
Ġarriv ed
ĠM os
Ġch apter
ĠJ aco
Ġsus pect
aw esome
Ġref ers
pt o
ĠValue Error
Ġgu y
sm art
Ġwhen ever
lay ers
Ġ/// <
Z ip
Ġcomput ational
Ġ// -->
Ġmar riage
V oid
ĠC ost
un ing
Suppress Warnings
Ġact ors
ĠPl ace
ĠA sh
Ġad vent
C are
Ġtemper atures
ut ation
ĠEngine ering
eder ation
At tempt
ĠG i
Ġrecogn ition
DE P
Ġor th
ĠK ong
Ġap art
Ġwould n
W ell
Ġcal endar
ĠM ode
Ġorgan ized
ILE D
F ire
) ',
ĠP riv
IN PUT
he alth
Ñ ħ
v ia
19 69
Man ifest
Ġexperi enced
] =
Ġco vers
Ġis set
ĠJer sey
ĠSet tings
Ġprecise ly
u j
sh arp
View s
s yntax
Ġbr ings
ĠIn stance
ride s
ĠScot land
Ġme sh
Ġrequire ment
}} )
> ()</
B T
ar ters
ĠOn line
Ġcr ash
ĠF ac
CON ST
A W
ĠPro file
ĠB iden
Re view
all enge
ev t
Ġelection s
tain ed
F rag
Ġd ance
mat ical
Byte Array
]] ></
FFFF FF
D ump
Ġme ss
ĠL IMIT
DE VICE
on av
; %
> ../
Ġf ell
ĠCont in
Ġteach er
v y
Ġ@ {
Ġid s
ĠAn alysis
W ITH
M obile
ĠC ro
Cache d
9 00
- ">
en ario
Ġpresent ation
ĠAdd s
Ġfootball ers
Act or
ip es
Opt s
Ġb rows
Ġsh ut
Ġb an
ap ore
ĠSt ory
Ġad vice
d type
Ġco ins
ac er
n an
itect ure
11 5
P B
NAME SPACE
V R
Ġdescri bing
Ass ociation
b io
Ġimp l
Ã¡ n
ol s
Ġsign s
Ġcre w
media wiki
Ġd y
Ġun expected
pr ising
ost er
ĠA tomic
DIS ABLE
Ġ" ");
ir ms
ĠC amb
her its
ro vers
ynam ics
Ġdecre ase
Initial ize
ĠMod al
Ġfor t
ĠF air
std out
if ecycle
Ġh aven
10 3
ID ENT
id o
Ġ' ../
Ġpro duces
book s
ĉĉĉĉĉĉĉĉ ĉĉĉĉ
te mplates
Ġth in
g ar
Ġoper ate
Ġtop ics
w ire
S ep
Ġst rip
Ġdec imal
V A
s yn
Ġengine ering
Ġdevelop ers
ĠSto ck
Ġcon sequence
Bl ue
Ġde pict
ĠF I
lu et
ĠC ulture
' }),
f aster
USE D
Ġapp reci
node Name
h dr
St mt
ag a
* .
un def
Ġalong side
Clo sed
Ġc p
Ã© s
ĠTh rough
B tn
ĠR h
NO WN
matic s
out line
st ood
ab a
zab eth
> )</
ĠResult s
b ridge
Ġname ly
Ġcollabor ation
Ġdat asets
sol id
Ã ¸
å Ľ
Â °
rehens ive
Proto s
Ġal location
ĠĠĠĠĠ Ċ
ĠEx peri
Ġphot os
ĠW is
Ad ded
Ġconfig urations
La unch
000 1
alle st
ĠEn try
ĠC ell
err ing
Ġmov ies
++ ]
Ġhe av
ĠO pt
Ġp or
ĠK ent
ĠCheck s
Ġar my
LE FT
p ick
custom er
Ġderiv ative
ĠEmp ire
Ġgir ls
Dis able
ĠCons ider
ĠP lugin
Ð¸ ÑĤ
u dd
analy tics
Ġdis crimin
Ġrun ner
trans fer
Ġpract ical
P lot
N ER
)) $
ĠSecret ary
ip age
Ġserial ized
ĠS mall
Ġ) {
t b
Ġco lour
Ġsubject s
m r
ap ters
Ġhost s
ï ¿
Ġne ither
Ġm apped
Ġst ands
Ġl ift
ĠB attle
">( </
I ssue
he ap
"> &#
A ud
cy cl
op her
(" [
uff le
Tool bar
ĠAnd rew
ĠCre ated
AS K
12 34
ĠM eta
ĠEvent s
fav icon
ĠB SLS
Ġref lection
Ġbound aries
und les
Ġfrequent ly
Ġemer gency
ĠPen nsylvania
iz ard
LOB AL
× ª
b one
Ġm ent
)-- (
Ġinst anti
Ġor bit
× Ķ
button Element
ĠD ATA
ON LY
Ġc ash
Ġequ ilibrium
F LOAT
Ġn ic
Ġle mma
Ġsee med
ĠKore a
Ġe le
St ates
Ñ ĸ
l b
Ġplugin s
Fore ign
Ġs ink
Ġessential ly
Ġfind ings
luet ooth
Ġrepresent ations
capt ure
Event Handler
fin ish
bo ss
}{ |
min ipage
Ġweek end
$ :
char set
Ġb low
or ange
Ġinstall ation
Ġdraw ing
sc ious
Pro of
ra ce
r atio
Ġs parse
00 5
Ġwatch ing
lic as
Ġm k
sw er
ĠE gypt
co ut
h int
get Data
Comp osite
F ront
Ù ĩ
Config ure
V ol
ul k
Ġro ots
fil led
ul i
Ġpolit ician
ãĥ ¼
Ġdis covery
T i
Ġco lo
D ry
Ġreason able
Ġimprove ment
Rad io
W M
dist ribution
Ġpublic ation
Hand lers
ĠE D
on ia
ov y
uck s
Ġ ign
Diagnost ic
ĠC OP
u pt
e ction
D AT
å ¼
ĠS ort
G reen
SY S
ant asy
ĠH E
S uch
url s
Hel pers
Ġin coming
ĠS and
param ref
Ġre new
ĠO t
Ġcap abilities
P FNGL
d am
an th
SD K
ĠOffic ial
Ġgener ates
SV G
Ġc ensus
Ġar c
P ref
Ġsp ons
Typ ed
Ġb os
Comp ute
Initial ized
er os
19 40
ect ed
Ġbring ing
11 4
pe ction
Ð¾Ð ´
ĠCoun try
f un
ut ely
ĠS witch
Ġcon sec
IL L
Ġprof essor
Ġfamil iar
ant ed
Ġneg ot
Ġjud ge
L com
Util ities
Ġll vm
tik z
ri bs
Int Literal
Key board
UP DATE
Ġcon test
H int
c am
NUM BER
Ġindust rial
al ty
ĠFe ature
Ġmax imal
neut ral
ĠC luster
Ġscript s
un its
Py thon
\ )
c ategories
Ġass umptions
le ave
, ...
se ek
AC CESS
Ġdirect ive
L T
Ġprocess or
inter op
Ġread ers
/ %
Ġ{ })
Ġh its
Ġon going
Character Offset
({ },
Pre view
comp iled
ear s
Ġutil ity
Ġar range
Ġro bot
GL uint
vent ions
d ater
Ġm ob
^* $
ĠC PU
f w
Ġt rivial
Cla use
list ing
Ġincor por
pt ic
Ġpers ons
Ġden oted
s an
] ));
ĠC lin
ĠH an
ING S
ĠVar iable
Ġg lass
Ġte aching
ik a
ĠB on
Br anch
: **
Ġthe ories
ĠS ir
ĠComp ute
Ġtool tip
Ġen ables
Ġb uffers
Inv ocation
ĠT yp
Ġag ric
ĠT F
> -
g c
Part icip
ĠN FL
ll a
cla im
Ġp c
er ate
Ġstream ing
ĠLink ed
B ot
be h
Ġfl ash
IN LINE
ĠSte ve
ĠB as
b ury
ĠC at
leg end
Ġdefer red
Ġkey word
Ġdoc s
Ġgra vity
ï¿ ½
ss on
197 1
ind icator
Ġput s
cur r
b ors
. $$
Ġcomp atibility
comp act
ĠIP v
ĠIn deed
ren ce
ENT ER
Draw able
ke leton
PO INT
Ġtech nologies
ĠD WORD
Ġback up
ant ics
ĠS a
ell ite
Un its
Ġarg v
or se
Te am
ST EM
Ġs pher
mach ine
ir k
et al
ro ph
g mail
pol l
Link s
) }_{
s ocial
ĠS ER
> ',
Ġg ro
Ġs oc
TIME OUT
ic ial
[] )
end ers
ĠPro b
C AN
ĠEns ure
ĠBut ton
Not ify
V S
Ġrespons ibility
set ts
C our
Ð¾ ÑĢ
Î ·
A ug
n io
ĠP layer
sup p
ak s
Collect or
r ans
d yn
Ġ urban
T ON
is Valid
H er
cal c
Ġincre d
Ġar ms
Find er
ĠN C
Ġintro duction
g ather
In ternational
Ġch ampionship
Ġmod ification
Alloc ator
Imp lemented
Ġmonitor ing
Ġcoll ision
Ġrestrict ed
U DE
W alk
ĠE VENT
App Compat
Ġauthor ities
Ġmag net
loy ment
c id
avel ength
Ġser vers
F X
at ri
ĠOx ford
achu setts
ĠEast ern
| }
ra cy
Q UE
Ġass uming
Ġgu id
cret ion
ĠHe ader
nes ota
Ġactiv ation
LE S
sc reens
load s
Ġexpos ure
sec ure
Get Type
de ploy
< >(
99 9
ced ures
Ġv es
Ġarch ive
ĠDes cribe
ĠP ot
Ġhome s
Ġdiag onal
Ġset Up
atur ally
o mp
Ġd rum
bad ge
G S
Ġsufficient ly
Ġa mazing
00 2
Ġin clusion
M usic
Json Property
Ġart ifact
Ġcommit tee
Ġfif th
Ġg rew
ĠGL sizei
FO RE
ĠLoc ation
TH READ
Ġsent ence
Ġi i
ĠN ever
Ġfeat uring
N U
ion ic
c uda
om al
Ġexp ensive
Ġbase line
ĠM enu
it led
Ġdemonstr ate
Ġex perts
Ġd ry
al tern
Ġrestri ctions
short cut
ing ly
ut r
get Default
ĠB ell
>: ]<
CP U
pay ment
Ġpsy cho
Http Request
th ird
Instance Of
onav irus
o y
ang les
Ġrespect ive
Ġn ur
Ġcover ing
ifi able
E mp
Ġc ards
Ġh olid
ĠD oc
Ġwor st
Ġinter ior
Im g
ĠM aterial
19 64
Ġout come
Ġpr incip
ev in
ĠÃ ł
Ġman ual
F ast
qu encies
Ġhypot hesis
SE CON
Ġg lu
ĠN a
ĠF C
Ġs ounds
UT C
mon itor
ĠPre m
ĠT ake
Ġtit les
ĠL at
ĠAn th
Ġd type
del ph
Start ed
tri angle
g ian
Ġrad ial
Ġl in
ĠR om
inherit Doc
R G
Ġabs ence
Ġphot on
P ad
Qu ota
Ġpri mitive
ar on
ĠP latform
10 9
Orient ation
se ason
el ist
nt ario
ĠC P
20 2
ref ox
st reet
ĠRe marks
Ġnorm ally
">< ![
ĠS oviet
oper ations
ic ular
Ġpl ate
TR A
UM N
Ġder ive
VER R
ĠG overnor
form al
list eners
Ã ł
hy per
ĠAn aly
list en
Ġat om
Ġstrug g
g ol
19 30
Ġcorre ction
Ġcap able
sk in
ĠTrans itional
ADD R
ĉĉĉĉĉ Ċ
}\ ,\
ame l
STAT IC
ĠG l
L ER
Ġne ural
Ġprov ision
MPL ATE
19 67
Loc ator
or ientation
Ġvol unte
Ġrepresent ative
ĠP ur
ĠSpec ifies
ow a
ĠCh air
end ant
bo th
Ġconvers ation
ĠRE AD
Ġs ac
qu iring
Ġemploy ed
ĠL td
Ġdef ining
Pi pe
ol er
V IS
Pol y
exception s
urn e
10 8
d ag
aw ay
i q
Sh ard
Ġ' )
Par cel
ĠM obile
k ube
de velop
ĠD ocker
T M
Ġs cheduler
ab ling
Ġcon cat
Ġremo ving
ĠR en
Head ing
agnost ics
an z
ĠG reg
enc rypt
Ind ices
an ches
ĠV en
record s
faster xml
G ood
12 2
Ġfac ilit
âĶĢ âĶĢ
en coded
Reg ular
Ñ Ī
Ġext ensive
Ġf aces
ĠĠĠĠĠĠĠĠĠĠĠĠĠĠĠĠĠĠĠĠĠĠĠĠĠĠĠĠĠĠĠĠ ĠĠĠĠĠĠĠĠĠĠĠĠĠ
com mod
Debug ger
Ġresource GroupName
Ġg reatest
Command s
Ġto ler
ith metic
Ġest imation
do es
Ġclo sure
Ġreceiv es
} >
PROPERT Y
: /
he t
ĠP ART
Import s
Ġfight ing
ĠU TC
ĠR og
Ġ" (
ch ars
Symbol s
ĠFe b
Ġdef initely
OD Y
Ġd iver
Ã© e
Ġin n
Ġde mo
Ġen cryption
NO SCRIPT
ĠYou Tube
h it
Ġli braries
ĠP a
}[ \
Ġdemonstr ated
el d
do i
get ElementsBy
ers ions
Ġp seudo
Ġm ort
Ġdriv en
ĠCON FIG
Ġuint ptr
Ġmag ic
Ġin str
ĠH ong
v ature
St rip
(" -
ĠC lo
) })
ou ston
ĠIll inois
M iddle
R aises
ĠVal ues
Ġp apers
Ġe at
(( (
n ested
delph ia
reg on
iv idual
ĠCal led
Ġ ray
ĠA ud
RO P
O ps
ĠRuntime Exception
pt s
W ho
lu a
ĠSan ta
Ġf ly
Callback s
ol is
Ġhealth y
-------- ---
k n
Ġin serted
ĠD NA
Ġcomed y
Ġmix ing
ac l
ĠL ew
ĠLay out
ĠPr ince
Ġbutton s
wik imedia
Ġf old
Ġwest ern
Ġre nt
Ġe val
m icro
ĠMin istry
à¤ ¾
ä¸ Ń
t ls
Ġy o
Ġvari ance
ens ities
Ġco al
Ġst orm
HEAD ER
MACRO INCRE
CT RL
Ġe state
19 65
c ref
l antic
Any Ref
MACROINCRE MENTED
sp read
Ġv ulner
ĠV olume
ĠDec l
Ġfav our
Ġ* */
Ġearn ed
Ġvacc ine
is son
Ġcur r
Ä ĥ
Ġperson nel
al one
ĠReg Exp
Ġener gies
R ound
d ummy
ĠU TF
ma jor
ĠP L
set Value
L i
ĠDefin ition
H ar
Ġen vironments
ĠS her
Ġh ouses
ask a
in os
long rightarrow
Ġembed ding
Ġsch olar
g iven
Ġsome what
Throw able
19 20
] $.
Ġs now
ree ment
Ġp a
Ġcons isting
Dat aset
ĠR O
Ġincre ment
ch arge
to k
ĠP arent
Ġon click
Ġspec ification
red uc
ĠLe ft
Ġa id
ĠE ffect
Ġst ages
w art
ĠAd am
ĠEx press
Ġb ench
Ġorder ing
Ġins urance
OFF SET
script style
Ġsubstant ial
y ard
++ ++
Ġeven ing
ug by
11 11
ĠSe ason
II I
Ġm useum
ĠT ensor
Cons ider
per form
l r
Direct ive
ĠC ov
lo mb
A ng
ĠEd ward
Ġinterpret ation
ertific ates
v id
S ol
Â ©
Numer ic
ĠF R
od b
limit ed
Comp ile
res olution
s u
C LO
R ank
ĠE ric
V I
Ġcon clusion
ĠCall back
at on
t age
ĠInitial izes
Ġsub mitted
Ġo ps
er ature
math op
i ot
s is
un safe
] ",
\\ \\
ĠB and
crypt o
ĠĠĠĠĠĠĠĠĠĠĠĠĠĠĠĠĠĠĠĠĠĠĠĠĠĠĠĠĠĠĠĠ ĠĠĠĠĠĠĠĠĠĠĠĠĠĠ
ĠT erm
b etween
Que stion
Ġt error
($ _
ĠBit coin
ance led
i em
se par
e in
ĠERR OR
x c
es is
Ġw arnings
Ġwe alth
1 32
Ġobserv able
thread s
Ġcirc uit
Ġhum ans
ĠF L
ĠA pi
ma ker
Null Exception
M icro
ĠS DL
ĠU int
get Logger
-------- -
Ind ent
PL ICATION
iv o
IT ER
aut orest
Ġtrans itions
direct ive
Ġw er
}} _{\
Un ited
H ard
Ġover lap
T ri
h ang
Ġaff ord
Fin ished
} ],
LOC AL
ĠLin ux
scri bed
job s
Fl ush
ĠC lean
ĠV iet
Ġimp ossible
ĠA k
ĠH RESULT
ĠEn um
Ġhot el
pre ter
Ġa wards
Ġpost er
ID s
\ }$.
ver sed
ĠSt ation
Ġg od
CK ET
to ur
ĠHel p
Ġgra vit
Ġso le
Ġres ol
i y
ĠG R
qu et
US B
Ġpoint ed
Ġconcern ed
Ġdo cker
A cc
ge br
un tains
ĠK r
Ġob l
g h
d ensity
å ¯
Ġy es
Ġex clusive
19 45
Ter min
Ġextract ed
ĠMay be
Pl us
Ġadj acent
Ġpre ced
cap s
Pro ducer
du ctions
CONT RO
Ġqu asi
ph oto
ĠS tack
ver ts
[ [
interop Require
ĠV ill
Ġte mplates
om er
M r
font s
ke eper
Ġnormal ize
g ent
Ġc url
Ch at
ĠS oc
\ ;
Ġdire ctions
ĠSup reme
* (
d h
root Scope
ĠB ound
ĠN um
Ġpres ents
Ġfilter ed
Ġun iverse
Ġcon crete
Ġguaran tee
Ġre venue
V e
q a
Ġrout ine
ENABLE D
ug ar
R oom
Ġm igration
sequ ences
cho ice
(" ./
re pre
Ġther apy
la unch
Ġj e
ĠX Element
Ġconcent ration
" ):
ĠAr gs
Ġca using
Ġpass phrase
ĠP O
bar s
s aved
Ġtopo logy
comp atible
P ull
ĠKe ep
L ear
ER Y
ĠDis able
ĠB inary
h p
Ġp t
ĠM B
Ġpass ion
erv ation
Ġ ì
Ġf ault
ĠHe art
Ġbig ger
Word s
ĠS U
ĠH D
ĠS PI
Ġman ifold
member NameLink
19 66
Ġv irus
ĠRes erved
Ġgu ys
normal ize
Ġ( +
Ġult imately
ĠAlex ander
l on
16 8
Ġjust ice
) ];
Ġss l
phan tom
I llegal
il ine
Ġf ib
ĠD ark
ism atch
Ġpanel s
Ġtrigger ed
Ġcr ucial
t one
Ġ Ø§
omorph ic
Ġre serv
Ġequal To
rot ate
re ach
ÑĢ Ð°Ð
F B
ĠF all
empty set
b id
in formation
Ġstream s
ĠColumb ia
} ~
get Current
Ġd iverse
ĠInst agram
Ġpro mpt
Ġexec utor
Ġh ack
Ġb ars
=" '
ri ends
re try
Ġor b
Ġstart up
Ġrough ly
ĠP AR
Ġsp ending
Ġsess ions
ĠM E
Ġlo ved
Ġinterest s
int enance
ĠPh ot
Ġmolec ular
ĠC ome
$ &
UD ING
Ġstand ing
j an
file Name
ĠS on
Ġlog ical
T wig
CO PY
Ġc raft
Ġh abit
Ġpro test
[ ^
Ġsu dden
Ġappe aring
ĠF low
Do es
query Selector
Ġassess ment
inn ed
Ġst im
Process ing
Ġar row
n m
Ñ İ
ĠM att
EX P
ol y
BU F
repre ne
arg o
' </
Ġ' ');
Ġperiod s
Ġde cade
m ers
ĠR os
Ġtransfer red
Ġlo sing
Ġw ins
umin ate
Ġform ats
char At
Ġ$ ,
Ġch rom
F ACE
ĠDav is
ĠPro tocol
i NdEx
Ġwor se
DEF IN
sh ake
ĠY es
Ġoper ated
Ġb lo
ĠSk y
ile y
rec v
s lug
Ġun iversal
ci i
du ate
ATTR IBUTE
Project s
co up
Ġres istance
e le
C V
Re cent
Bind er
AD C
i ota
IT S
Ġrefer enced
eng ers
Input s
Cre ator
Ġdefault Value
E ven
DE V
ĠK enn
Ġt um
Ġp ipe
out ube
Ġhistor ic
i ary
part icle
Ġepisode s
ĠS equ
ĠR TC
ach er
ĠK n
Ġa apt
riz ona
Ġpro c
Ġman ually
host name
Ġv ice
} `
ĠH ig
me ss
Bu ilt
M ULT
Ġt urb
C Sharp
ce il
cess ary
quis ition
Ġy ards
Ar n
ĠF ox
Ġhost ed
ro zen
es ides
C he
ĠE C
in tegr
Exp and
get Parent
g al
Content Type
Res olution
Ġclean up
Ke ep
ĠA venue
E scape
Com bo
sw ift
}) (
Ch oice
R X
11 7
ĠCom ment
MLE lement
ĠPhil ipp
lik ely
B el
Ġp ad
D ie
pos able
> ",
Ġf at
res olver
] {\
assert Raises
tain ment
ific ial
DO CK
Rot ation
Ġnumer ic
ĠS Y
Ġocc asion
Ġ( ;
ĠSta ff
Ġhas n
ĠHistor ic
" +
Ġfor get
E mbed
ĠCO MM
10 6
U INT
Ġc ab
roll ing
Î »
dom in
at ivity
ĠIs lands
big l
Ġdo ctor
ĠDocument ation
Ġex ercise
th ur
Ġli quid
amp ions
Ġinte gers
Ġs quad
OP ER
Ġse q
Ch rist
,\ \
o auth
g uid
D ll
ĠV M
Ġb attery
ĠTor onto
ĠA V
out heast
pub lish
Ġpres erve
f requency
Ġ ].
Ġt ries
Ġshould n
ĠJe an
. âĢĻ
lement ary
Ġd w
Ġin hib
ĠP sy
Ø ³
Ġk it
ä¸ Ģ
ĠM I
Ġ[ #
Ġsever e
Render ing
Ġqu iet
Ġautom atic
/ ************************************************************************
b n
og onal
ĠSystem s
Ġd f
Ġach ie
Ġint elligence
Request ed
Ġf ixture
BO OST
car ousel
CL IENT
Ar row
Ġaff ili
ĠF T
Ġask ing
ĠBer lin
Ġb ass
ĠChampionship s
/ $
access or
Ġworld wide
Ġcon temporary
r ust
sc all
ĠMass achusetts
ĠST AT
TH E
Ġsh arp
Component Model
Ġput ting
Ġinvol ves
Ġcontain ers
cre ts
------------ --
Ġgen us
ĠA ge
M c
Ġco pied
Ġlog s
ĠPort ug
int on
w m
=" //
] >
Inspect or
d id
h ill
TO KEN
Ġalleg ed
Ġst ead
styles heets
B io
orph ic
x hr
W D
ĠBuild ing
un used
> ";
Ð¾ ÑĤ
Ġ ):
ĠCO MP
ad just
ĠPub lish
Ġl icensed
Ġmin ister
se ud
L ife
th an
Ġconcent r
ĠAir port
PI X
go al
Ġ" </
d ney
ĠB reak
Ġpolit icians
ist a
cons in
put y
K nown
P reference
lic es
Ġr ural
Ġo mitted
ve e
ĠAl loc
je ctions
3 50
Ġinter faces
Ġ/ .
Ġcomp ens
e ah
Ġout comes
ĠEli zabeth
Ġconsum ers
Ġbreak s
Ġinit With
ĠStruct ure
ĠPh oto
B AD
C amp
big r
Sim ilar
Ġc ra
ĠF oo
Ġsh ips
s ap
Ġ Ã©
Ġunder stood
Ġhe aring
ast ers
Ġ{ !
ĠBe gin
off s
Un iversity
DE CL
d v
C AL
ĠT rigger
ul se
Ġred shift
Co ins
Ġshoot ing
ĠTH REE
m g
Ġhy brid
Attr s
P LAY
Ġre duces
Ġw elcome
in ction
( %
FUN C
ĠB rad
Ġcomb ine
Ġs ym
ĠS N
v art
s us
Non Null
Ġestablish ments
UL AR
G M
f link
Ġme mo
Ġspe aking
å º
Ġscen es
ĠS elf
ĠE dition
Ext ended
ĠP FNGL
ĠColor ado
ter ms
( ',
Ġvoc als
w orth
ĠSk ip
ar ound
re view
en ix
Ġe poch
Ġen umer
as ma
ĠM L
(' \
ad i
æ ī
Ġher o
Ġneut ral
TR ACE
Ġdome stic
N EXT
Ġqu ote
Ġph ases
ĠF ast
ĠH AVE
ĠStep hen
Ch o
Ġlock ed
= .
ool s
request s
gin es
Ġt ang
Ġfall s
Ġpro posal
Ġdis ap
wikimedia ui
Ġprogram me
Sl ider
M ajor
Ġreg ression
ÐµÐ½ Ð¸
ĠSet up
CHAN NEL
FE ATURE
ĠL P
Ġfile Name
IC K
g ap
ĠF IX
aut om
ĠSing apore
ĠU INT
Ġt on
Ġl azy
Ġse ar
3 000
}} ^{\
ct xt
ĠO s
let ing
j k
] $,
Ġd ashed
Ġperform ances
Ġ* **
Ġoper and
ĠDefault s
az el
ĠF ollowing
}} .
ĠExec utive
Mut ex
Dist ribution
ĠF ish
ĠRE G
b ow
ç ½
Ġrestaur ant
G LOBAL
call s
Ġv otes
c ussion
Ġn omin
Ġfe els
fl ash
ffic ial
Ġre act
W ire
Ġsil ver
ĠDe ad
S ound
sup ports
ĠSur vey
hand lers
v able
e ast
ĠAnd re
}) }
S ibling
Ġf ru
ĠD u
Ġcamp us
** :
P an
Ġcont rovers
um ul
D avid
for ge
Ġn ob
Ġc v
Ġconven ient
ri ction
P K
ĠVis it
O cc
Ġab sol
Ġland scape
Ġcondition al
Ġtopo logical
ac ion
d og
Ġt ack
ĠMo untain
Ġso lo
pers istence
Ġpart ially
cond uct
Ġd ummy
")) );
ct ype
Ġh al
J O
ress ive
Ġab and
Ġvari ations
Ġquant ities
Ġqu ot
iph eral
ĠGr ant
,\ ,\
Ġsitu ations
Ġsubsequent ly
S uggest
Ġnot ion
B rit
b ower
ok er
Ġscen arios
Ġre ly
sess ment
Ġ/ ^
$ };
i ences
16 9
We ak
P in
AT IVE
ĠAppend ix
A pr
12 4
Red uce
Ġor ient
Ġcor porate
ser if
Map s
E p
Ġe g
VERR IDE
ĠMin nesota
ether lands
ĠSt adium
Ġc ubic
Ġnon linear
ĠLe ad
Ġinf lation
Ġun set
Ġdi agnostic
Ġm ile
ĠE mpty
R TC
ĠY ES
Ġ$ ("#
d ings
T CP
Id le
ag ues
z i
H is
Ġw alls
ĠEx pr
f our
"> '
Ġcla use
ĠPo inter
% );
re vision
ĠMe an
j boss
Ġg ate
cont ributed
GEN ER
Max imum
) }_
ri val
ĠL ind
h ub
Ġdoub t
ri dden
Gra dient
Ġper mitted
$ _{
on ym
ĠL ang
inherit doc
ph ab
ĠOb ama
ĠC hen
DEF INE
ĠT al
the less
CONT ENT
Ġy ellow
Qu ick
ymme try
int ent
Ġr ating
ĠS u
B in
il k
co hol
Ġde leg
C riteria
Ġpro ducing
ul atory
S lide
lu es
ĠDes pite
riv en
Dependency Injection
Ġil legal
inet ic
Imp lementation
Ġs alt
Index Of
Dis pose
Ġi OS
Sta mp
Ġsign ing
Ġseek ing
Ġst one
XML Schema
ĠBu dd
Ġresult ed
ĠO regon
OUT PUT
end o
' "
Code Analysis
Ġmet av
ast y
Ġtrans mit
Ġdetect or
ĠD M
ĠC ancer
Ġr u
ob server
ĠF ound
Ġdetermin es
Ġsens itivity
o h
graph ic
Ġb ot
un es
B ODY
? )
* \
http Request
interopRequire Default
ĠB an
=" <?
w b
ĠH al
av atar
Ġf erm
Analy zer
Ġstrong er
Ġdimension al
REQ UI
Ap pearance
it ro
Ġ\ ]
Ġp un
st ory
. &
Ġa ug
find er
S ongs
sp l
ĠL es
NE SS
p rom
Ġso il
ĠD onald
P OL
ĠBo y
, {\
ge om
Ġn an
Spr ing
ĠProv ince
Ġmo untain
Compar ator
f ish
AL LOW
m ysql
ĠS A
tra ining
R ST
ĠT ypes
map per
EN S
col s
in ery
LE AN
ii i
Ġapprox imate
Ġcons umption
ĠD utch
Ġanaly ze
Doc s
Ġconnect ing
Ġreli able
Ġchalleng ing
Neg ative
Ġsup pose
Ġdesc ent
D ER
Ġcomp licated
Ġlos ses
) }.
EMP TY
Ex ist
U G
IC AL
Ġa ux
33 3
Ġh ooks
ĠMo on
ĠSm art
ex ist
Ġamount s
; -
CO RE
Ġexplain s
Col ors
FA ILED
x l
Ġstri ke
inter faces
$ {\
Ġarg c
ĠDE BUG
as is
ort s
List s
S uffix
Ġ} {
log s
Ġc urrency
ig uous
is ot
Ġyo unger
ne ed
19 63
Work space
Com ments
mix in
M al
st ances
19 62
Ġover view
co p
cre ation
u able
le ading
F ollowing
ĠF ont
Ġst y
C y
13 5
Ġs ends
Ġun iqu
pen se
is Function
'' '
Ġsystem atic
Ġhundred s
Ġt body
ren a
Or d
Ġconsec utive
ĠFr ont
ĠMag azine
Å į
( _.
Cla im
Ġre vision
d frac
ĠP NG
ĠN ick
L emma
ar ations
opt im
ĠB rian
Ġmechan isms
= </
initial ized
Ġra in
Exp licit
Ent ities
IF Y
Ġun ivers
ĠR ect
oc racy
Ġfre quencies
Con cept
Ġsw ap
Ġsur ve
ĠVis ual
1 19
Ġre ducing
ĠM IN
ĠMod ern
mut ation
ri ers
Ch rome
gebr as
Ġdanger ous
el a
00 000
ĠMem bers
Ġ\ &
Ġdomin ant
Arch ive
; ]
Ġex clude
ip ients
Ġfound er
=" ./
ĠValid ation
Ġsepar ation
h h
ĠP attern
C ACHE
napsh ots
] ],
B etween
section s
! ");
Prop agation
2 20
io logy
Ġdomain s
Th ree
Ġra ces
wh o
Ġinvest ors
sched uler
p referred
)) \
ĠCOL SPAN
Ġu uid
n r
Ġisol ated
Ġstrict ly
ĠB ru
Ġ ));
Ġint ention
limit er
as List
Ġv ast
~~~~~~~~ ~~~~~~~~
Ġvary ing
ĠTe le
Ġsw im
Ġlumin osity
Ġh arm
"/> .
ul um
N orth
Re cogn
FIL TER
Ã ª
Ġp it
Ġhon or
Ġpromin ent
ĠS TD
Ġd iversity
ĠC ra
Ġdefe ated
enn es
Ġke eps
me sh
BE GIN
ĠB BC
Ġm illiseconds
Ch ars
Ġform atted
Aut hent
Ġun used
current Time
ĠS ql
A WS
Ð¾Ð ±
ĠC ONT
ann y
B IN
ĠPhil a
is lation
Ġpar agraph
Tool tip
Ġcoup led
ĠB SD
mat ched
ADD RESS
B usiness
ĠĠĠĠĠĠĠĠĠĠĠĠĠĠĠĠĠĠĠĠĠĠĠĠĠĠĠĠĠĠĠĠ ĠĠĠĠĠĠĠĠĠĠĠĠĠĠĠĠĠĠĠĠĠĠĠ
Ġs i
ĠI Enumerable
Ġmembers hip
Ġhouse holds
Ġc ipher
=" {
f ade
^* \
S us
m ong
Ġr v
R ich
f ixture
ri k
Ġ" {
et ies
Ġpro be
ĠH ay
Ġpro pose
lo re
ĠR ome
CP P
Ġpro spect
Connection s
Ġatmo sphere
US H
pan ic
L R
has Next
ĠN orm
00 3
f lix
ur is
ĠC ub
widget s
ro unded
Ġcirc ular
hl js
Re po
Ġwe ar
Ġresc ue
Ġw ra
ĠD oug
Ġincreasing ly
H o
( <
Ġw aste
}} }\
r at
mm ar
M ich
ĠSty le
ty ped
med skip
Sort ed
Ġse ats
ĠM achine
min ute
80 80
Enumer ator
ens ing
0 100
Ġbrows ers
Ġv tk
Ġinst ant
th ick
l ain
C urrency
Ġan imated
Ġvol atile
C od
Ï ħ
Ġm p
Add itional
is ons
Ġsu it
ĠA th
ĠR ose
ph ony
ĠO ntario
Ġident ification
Ġfall back
Ġhor se
ĠW inter
b read
L ess
iv a
Hash Code
ve als
Conf lict
ĠD am
ĠSup p
bo unded
Ġcomp aring
M igration
ma king
Ġac commod
Ġmat ters
Ġpre gn
Out Of
ĠCOP Y
Ġun safe
ĠS ound
x FF
Ġrapid ly
Ġgeneral ized
ĠW ars
+ -
Ġassist ance
Ġhe ap
Ġperform s
pret ty
H ence
Ġs and
Ġd yn
ĠB ridge
ĠSh ape
Ġarrest ed
Ġexponent ial
SE SSION
it als
ĠT i
sh ader
Ġmis sed
c nt
n able
j sp
Ġt icket
ĠI ce
ession al
Rep lication
ĠD NS
\ .
Ġin set
Ġ um
oci ate
re dis
Ġex cit
z render
Ġar ts
Ġcon servation
Ġo prot
MO VE
up les
; "><
ir ical
Ġat oms
= _
Ġsub str
Ġscient ists
ĠPhila delphia
ĠF orest
. #
PO SE
vis ual
w en
all as
t an
ĠV K
Initial izer
ĠIn fo
En crypt
? ,
Ġsimult aneously
Ġw heel
P ART
Ġ\ (\
Ġmark s
ORM AL
Ġ ]);
ig rate
Ġteach ers
Ġsche mes
}) =
Writ able
ra q
ustr y
\ ",
M ATCH
Ġperiod ic
al og
us cript
ĠExec ute
Ġvolume s
WIN DO
30 4
Ġcut s
ĠAnt on
A RE
r p
ĠAdmin istration
g res
Ġf its
ĠR aj
Ġv eter
x ref
Ġret ired
scal ar
Ġb on
IS H
Ġopp osed
Ġparticip ate
Ġse es
ow nt
co w
() }
Ġen umerable
M X
member Of
] -->
ĠDis ney
Ġp ump
cc c
ĠW E
-> {
con c
Un defined
user Agent
h us
ĠPro gress
Ġpop up
v ect
d ns
Ġres ize
os cal
Ġadvert ising
t frac
ĠHash Set
ĠResp ond
Number Of
3 20
st ock
tt ify
ul pt
out s
V ars
un ge
S ys
ĠG uid
:: ~
tra its
Up dates
Ġb ought
Ġ _{\
de leted
State Exception
rip le
Ġfit ting
g b
Ġre in
P TR
built in
Ġg iant
X i
ĉĉĉ ĠĠĠ
ST D
Ġwill ing
tab End
4 000
ĠT itle
A ustral
Ġterr itory
19 61
Sw ift
ĠP H
] /
ĠS ong
Ġiter ations
Ġn aturally
ĠK a
l c
ĠB UT
Ġweap ons
C losure
"> {
get Context
Ġturn ing
ĠH ave
start ed
aw are
Ñ Ħ
Ġh ierarchy
get s
ume s
INTER N
ĠR yan
ro ck
pp ers
L uc
cord ion
getElementsBy TagName
se en
Depend encies
Ġfluct uations
ital ic
i at
ĠK at
Ġadult s
Ġb are
}_{ -
cer ning
ĠD ra
ni h
Ġl t
Ġgra de
ĠCap ital
et ition
ast s
Ġop ens
Pl ain
E m
print StackTrace
Ġch at
TE MPLATE
Ġflow s
re ceive
ĠC WE
Text Field
Ġa mp
ĠUtil s
v irt
ĠC artesian
document ation
aut hentication
match er
Ġag encies
s uite
ab i
C XX
id ae
Ġbase ball
c losure
Ġclub s
b en
Channel s
} ")
CC CC
14 7
t m
ĠAdd itionally
Ġs ight
Ġs ched
Trans l
}} =
get User
G F
Art icle
Ġinvestig ated
Ġle ct
RE C
Ġrepl acing
Ġasymptot ic
Ġkind s
ĠFore ign
ex c
Ġcos mo
Ex amples
he ta
Ġrail way
reg istration
ĠB or
Ġspec ifying
Ġleg isl
ĠT ax
ĠC reek
rom ium
Ġm outh
ĠR ound
Volume Source
ĠAct iv
A mazon
D Y
cred entials
Bal ancer
fig ures
ul ates
to Array
Ġun lock
12 1
Field Value
x a
â Ĥ¬
pro x
unt ing
Ġdebug ging
Ġens ures
Ġw el
V ersions
âĢĻ ,
"> ,</
S dk
Ġpers istent
ar o
rop ical
ag en
mk dir
ĠS ide
dig est
F ollow
Ġfact s
Cur ve
ok en
G erman
Ġf estival
ign ite
Ġstruct ural
Ã§ Ã£o
ĠH ouston
TO P
R CC
Ġelect ro
ĠWis consin
y ers
ab ort
Ġgood s
Pro jection
p ane
or acle
Ġin vert
ial ect
ĠCont roller
L ANG
P references
Ġdrug s
ĠNe ed
ĠD ue
spec ified
ĠArt icle
Connect ed
Ġvisit ors
C ategories
cons istent
Ġassist ant
U nd
ĠEcon omic
Ġnull able
ĠSet ting
AT T
LA PI
ĠL ess
Ġact ress
Ġpriv ile
ma de
ĠArray s
um s
atern ion
Ġabsol utely
Ġt c
CON TEXT
NO TE
ĠVictor ia
ĠL ore
Ġassert ion
P N
Ġsur faces
Ġtrans formed
th reshold
inter action
ä» ¶
Ġpro ud
ĠG allery
Ġh all
Ġev t
. ]
U tility
L arge
CT L
ĠM C
Ġtransl ated
B ecause
Ġpop ulations
ĠOffic er
Ġexpect ation
ĠB ased
Ġassoci ate
L F
ĠL ady
Ġwork space
Ġany where
. ')
el n
API ENTRY
Ġ( {
add on
Ġfor th
ME DI
Ġperman ent
bal ena
Per malink
Ġour selves
ag netic
Ġag gregate
Ġc ros
)) {
> @
H it
da pt
ĠStud y
Ġmanufact uring
Ġcomp rehensive
min imum
Ġprov ince
Ġp ray
ĠEx amples
D ynam
ĠC op
ĠF actory
igen ous
> *
Ġpro cedures
urch ase
Ġwalk ing
Ġoffic ially
O h
M U
exp anded
Ġf iber
Ġb anks
ĠS uccess
H EL
ĠGL float
Ġindex es
ĠD id
LE ASE
Ġrelease s
it ize
Ġne uro
Ġinnov ation
Contain ers
host s
at tachment
Serial ize
ĠM iller
bit coin
Or Empty
de m
ri ses
CE P
Ġport s
ĠA F
ĠJ ordan
Ġneut ron
ĠFrame work
Ġ' :
ak h
SER VICE
Ġf acing
ĠF a
re quires
Ġt ar
Ġpurch ased
Ġs phere
Ġc rypt
conf irmed
GR AM
A Y
ĠPol and
S B
ĠAnd erson
s uffix
ĠA rizona
mem Item
ĠApp ly
Ġal ive
Ġalign ed
Ġtro ops
i op
Ġdist ances
ivers ary
ĠMc C
Ġelse if
ST M
Int Ptr
") ).
Ġcheck sum
fe e
Target s
Ġreal ized
Ġconvention al
que e
\! \
Ġlo ts
Ġprom otion
Ġeduc ational
ĠBr and
Ġcur vature
S at
de ps
At A
ex act
Ġrep orter
ord on
Ġencrypt ed
ĠE P
se ls
Ã¼ r
U uid
Ġde viation
ĠN ations
ĠIn sert
back up
Ġsuc ceeded
ĠKore an
nt hesis
Contin ue
EQ UAL
Ġsh apes
Ġ'/ '
DE SC
unit Pattern
dash board
Ġsc oring
Ġsold iers
in variant
Ġmatch er
For Key
VAR I
ĠA DD
ĠHar ry
P AGE
Ġclose st
-- )
Ġhon est
Ġis omorphism
ĠMet adata
Ġequival ence
å Į
Ġ"\ "
u ity
M Q
ĠF ord
ĠK ind
\ }\
Ġra c
11 3
Ġver bose
I o
LI ED
Ġres ign
, "./
read able
ĠLear ning
str ategy
Ġretrie ved
S amples
c amp
ĠR T
Ð ³
lear ning
Ġmaintain ed
Ġ" *
Ġ ride
Ġin fection
re nd
f ollow
Ġhouse hold
E urope
Ġ ))
ĠA B
Ġav ailability
DI O
Ġsh utdown
Ġpay ments
Re store
ĠTra de
Ġlif etime
Ġfac ulty
View port
S amp
ĠS ri
x d
Ġ( __
ĠM icro
P ur
app oint
ort heast
p ause
Ġcharacter ized
Ġsustain able
ĠN etherlands
Ġcomp oser
equ ations
ival ent
**************** ********
Ġro of
k top
LA SH
duc ers
ĠHel per
Ġget ter
ĠĠĠĠ ĉ
Ġta ught
H AS
lu c
ĠH ung
AP PLICATION
Ġremo val
Ġvis itor
ĠR ES
ĠU ri
xx x
Ġrect angle
UNK NOWN
sect s
ve locity
product s
W T
ĠL u
man ual
}} </
ĠRo ss
ee ded
Ġacknow led
sc or
ost ream
Ġmin i
ĠA mb
co verage
Ġ* =
Ġl d
CA SE
ĠV o
Ġflo od
ĠAut om
Al tern
ent ities
æ ł
Ġ$ ('.
ig e
"> "
Ġcommit ment
nthe size
Ġabsor ption
Over load
ĠTrans form
Ġp b
Ġemploy ee
Ġcontribut ed
} |\
on line
ER O
Ġhelp ful
Ġgain ed
ma kers
Ġindic ator
ĠS eq
Ġcircum stances
| $
ĠDirect ory
z illa
D ocker
ĠMar shal
17 0
system s
PRE SS
b ash
ĠC lick
Ġbr ands
Ġnewsp aper
St roke
Ã ½
Ġopp osition
l m
Ï Ĥ
ath y
Ġvac uum
f ar
Ġtw enty
single ton
it is
ang ers
down arrow
An swer
F ault
ĠAv ailable
lo de
19 59
Ð¾Ð ¼
ĠL ater
ou sed
op eng
Ġc ancellation
pred icate
qu arters
id al
bo urne
Me an
Ġb enchmark
Ġ\ !
oid s
Pol ygon
ĠAct ivity
Ġdig est
ĠP rep
ĠD or
el lect
Ġserial ize
Ġtensor flow
Ġpolar ization
Ġc rypto
Ġup coming
Ð ±
Code s
Ġdeb ate
ĠD rop
> }
g ate
ĠCO M
Ġend l
ĠIm ages
Le ave
comp letion
Ġg ar
Al location
ĠGold en
ĉ ĠĠĠĠĠĠĠĠĠĠĠĠĠĠĠĠĠĠĠ
pro fit
then Return
ĠM it
ĠLIMIT ED
c us
to s
================ ========
Ġf urn
ĠTra ining
Ġf abric
s il
ig o
Ġlo an
Ġde bt
Ġan onymous
Ġre curs
ĠC ooper
Ġen coder
Cal c
ĠAg ency
Ignore Case
in crement
ĠH ind
Ġslow ly
Ġattemp ted
le ans
Ġjo ining
Key Value
Ġclass ified
Ġsymp toms
D TO
ĠS quare
ĠE V
child node
inst ein
FAIL URE
A wait
ĠEd ge
Ġappro val
ol i
' ></
Ġr ising
Ġma intenance
h dfs
row th
Ġne arest
Ġb aby
Image View
Ġres idual
Ġtot ally
rot ation
v ised
St udio
sh iv
DE C
Ġinterval s
class path
ang a
math it
st an
Ġw avelength
alax y
ĠDown load
tr on
h or
Ġm u
. (*
Ġman aging
Ġif rame
ĠF unc
Ġeigen values
ĠV e
ĠHot el
oc he
gra vity
itu ency
Ġb eta
ĠT ai
Ġst och
}) ^
sub title
count s
ĠĠĠĠĠĠĠĠĠĠĠĠĠĠĠĠĠĠĠĠĠĠĠĠĠĠĠĠĠĠĠĠ ĠĠĠĠĠĠĠĠĠĠĠĠĠĠĠĠ
Ġk illing
Ġbe ar
ĠW el
; =
i ator
ĠC orn
27 0
More over
al ways
Cred ential
ARG S
Ġris ks
Ġdiscuss ions
per missions
Property Name
Ġscr atch
Ġguarante ed
Ġtri als
\ }$,
Ġex ceed
ĠL ib
Pod s
Ġcrow d
Event Type
comp ilation
re load
ĠN ormal
Ġver ification
Ġcomp osite
Ġd ash
Î ¼
ĠB at
Ġsimilar ly
Ġord inary
add itional
Ap is
a con
Ġa ims
ĠĠĠĠĠĠĠĠĠĠĠĠĠĠ Ċ
dim en
Ġb ott
] "
L M
rupted Exception
Ġsing les
Unmar shal
Transform er
Ġcent ers
M ass
R V
20 4
pl orer
) ";
aut hent
ank a
Ġ( {\
Ġconcept s
Ġg ift
Ġd uplicate
' ><
Ġsh a
Ġbox es
c url
i ac
Lin ux
C op
Ġste el
Pos itive
m q
Ġv anish
Ġto u
ust ic
P ORTED
Ġdi agn
M acro
ĠTh ose
ze ch
la zy
2 11
Ġs q
Ġser v
Ġwork flow
ss h
Ġde pos
ĠDe ath
19 58
\ |\
ĠAc cept
Ġret ire
EE E
is co
Un supported
me th
Ġp id
lo be
Ð°Ð »
Ġenh anced
ĠÐ ·
Ġpick ed
19 56
Ġsell ing
ĠScott ish
æ İ
Ġthought s
B uffers
Ġpar ame
Reg Exp
AS A
ĠR ub
Ġ" __
Ġview port
en coder
Ġre aching
ĠE mail
Jan uary
Ġ ------------------------------------------------
Ġsp rintf
INTERN AL
Circ le
æ į
ĠC ook
Inf os
P t
æĸ ĩ
back slash
' _{
s qu
Ġpil ot
å® ļ
bal ance
Ġen emy
Ġm ine
As String
ins pect
ĠB ug
Ġac cessed
Ġv i
len ium
Ġ' ;
Ġh ur
Def ine
L IMIT
ĠC atalog
ĠI l
Ro les
ber ry
play back
Ġtra il
Bo th
Ġf inger
Ġcr icket
ĠO cean
Ġtra cing
Vis it
ĠTra its
Ġexc iting
() "
Person al
as io
Ġstraight forward
Ġch ose
Ġelect rons
h ist
ent a
ing ham
ĠS K
Ġâ Ĩ
B N
Table Name
Ġconven ience
Ġdeal ing
Log ical
ĠB us
ĠH op
ĠIN CL
C rypto
8 000
To Array
Ġs park
> ");
Ġlength s
div ider
Ġdiv is
ä¸ ª
Ġadministr ative
Ġ[ -
th umb
ĠRe mote
Care er
igh th
s uggest
Inter op
19 44
R F
p w
Ġdomin ated
ĠLew is
fg han
M gr
block quote
De leted
Ġo x
Ġr b
4 50
v r
Ġup dating
get Path
ĠE valu
W ater
ĠB all
âĢĻ .
Ġover lay
Ġsp oke
Ġcorre ctions
loy ee
Ġre lying
mark et
P en
re ports
ĠJ O
comp ressed
d ra
ĠS co
R a
writ ing
ĠK evin
S el
li ms
Ġscal ed
b matrix
| }{
sort ed
spher ic
{ }{
ph ysical
ĠSt udio
Ġsur prising
lade sh
id ad
ĠC T
ĠF ake
ĠSy dney
ot er
Ġman agers
ĠT reat
end l
Ġde veloper
Ag gregate
ir s
Ġfile d
][ <
se a
ĠInd ones
UB LE
keyword s
Ġtri angle
l ad
Ġbr anches
CT OR
ĠThrow able
u ver
n v
âĢ ĭ
on i
is ations
ĠW R
Ġh alo
ĠP OST
14 3
Ġaccept s
Ġwin ners
Ġuncertaint ies
Git Hub
unt u
Ġpro x
ĠL ar
E v
ain s
' })
Ġtra iling
loc ations
Ġview ed
ĠPl ant
ĠField s
Pr incipal
Sm art
X Path
s rv
FO UND
%%%%%%%% %%%%%%%%
ĠM ETH
Ġdynam ical
ĠR oot
Ġroom s
ĠE mber
Ad just
Ġassert False
Ġh int
che stra
n ical
Ġk il
ĠVAR CHAR
ĠSch olar
Ġ' &
Ġent ering
Ġw ing
Per formance
Ġtyp ed
arb age
callback s
tag Name
Ġlik elihood
Ù Ĭ
Prop Types
am ar
Ġl hs
ĠArg ent
ĠT otal
ĠAl tern
ED IT
ĠC E
x r
en de
ag on
Ġex tern
n ie
Ġ@ @
Ġinterpre ted
ĠE mer
Ġdis s
Ġtell ing
in dependent
has Class
C andidate
Ġse aled
ĠPriv acy
ĠK al
ĠCar l
Ġsm allest
Ġhead s
Ġmach ines
fe fe
Ġend points
Mod ify
Ġfriend ly
Min imum
gra ded
Ġcomb at
Ġfound ation
Rect angle
Ġbe an
our i
ĠS yn
nav Bar
P D
aren cy
t odo
Ġimprove ments
Sup pose
collection s
M a
d up
"> #
Ī Ĵ
Ġgravit ational
et o
× ¨
Ġcompet itive
El se
With Error
Ġfew er
Ġk ube
ĠSt atic
Ġst retch
RO WS
ĠSaf ari
Ġre form
ome t
Sw ap
ulo us
"> Â
Ġre interpret
ĠD ream
Ġheav ily
ĠS in
ĠH art
Ġdisplay s
Descript ors
Å Ł
Ġfall ing
Ġeast ern
igh bor
AL IGN
^{ *
enn y
expect s
>> >
ic ide
alloc ate
Ġ ÑĤ
Ġm g
SE D
ot ions
Ġexpect ations
IS O
b ank
Ġpre view
be low
user Id
19 48
Ġcy cles
ams ung
e very
Ġconsider ation
e se
Part icle
par s
R x
E val
i pt
inst ances
Button s
Sh ip
Ġalloc ate
. \\
B G
ĠCov id
H W
Ġfoot er
cent ral
ĠT a
Ġansw ers
Ġcons istency
e asy
ci pe
Ġtra ding
ĠCh art
on na
ĠEx change
ĠR ot
Get Value
F s
is EqualTo
Ġent ang
Ġobtain ing
Ġval uable
ĠL iter
SET T
Ġs weet
as cii
Ġpat ent
clean up
Ġp index
lo ut
Ġo ct
Ġc d
L ng
Spec ific
Ġch ampion
ac iÃ³n
14 5
Ġrandom ly
Un ity
cal culate
Ġab use
ĠP ract
IT EM
ĠS n
Ġsuffer ed
A tomic
Ġst ick
ĠM arg
on ing
Ġre ward
ĠA st
Ġentertain ment
Ġstr len
Ġdef ect
Plugin s
pub lished
LE T
Ġhead ing
Ġbro ke
Ġpe ers
Ġmed icine
S ports
am an
Ġte en
ĠD og
Ġweight ed
ĠG ro
ter y
Ġver ified
vart heta
× ľ
19 52
Pub lished
ĠN az
Ġany way
vet ica
Ġp ictures
Dis covery
ĠCol lect
Ġair port
N orm
uff icient
ĠSimilar ly
or ry
ĠA ST
EX CEPT
Ġgrow n
v k
m or
ĠG ri
ĠAPI s
ra di
Ġmax im
se g
^{ (\
sub sec
Ġexam ine
Ġg overnor
part ment
gener ation
ĠUs age
ap sed
ure au
Ġneutr ino
Ġsurg ery
Ġg ray
19 57
Ġprom oted
em an
{ |
O UR
AUT O
Ġleg islation
Ġsepar ately
evalu ate
Handle TypeDef
ĠFin ancial
B IND
a ac
ĠÐ ¼
ĠC ri
ĠF ellow
ir q
un icode
ĠC ru
ud son
Ġlog ged
agr ang
P rom
ĠObject s
2 30
Ġcontinu ing
Ġ& $
ĠG TEST
ĠZ one
ĠHol lywood
COMM AND
de sktop
Ġdrop down
ĠPri ze
Linear Layout
12345 67
Ġbus y
ĠGo String
Al ready
Ġstoch astic
p ow
le w
ĠO O
I tal
he art
Ġc av
At Index
rest rict
Ġvalid ator
ol itan
Ġexp los
Ġ nd
ĠM ail
pp le
Ġne ur
Exception s
Ġ< ![
Ġb at
12 6
ĠAm ong
ĠP S
F old
d al
Ġm i
ĠR us
ĠR aw
å į
ÑĢ Ð¸
serial ized
ĠFr an
Ġpod cast
æĺ ¯
' ",
m ont
re cogn
ĠG re
å °
SY STEM
Ġt iny
ĠNot es
ed ges
ĠG O
Ġsc ulpt
Ġs wit
D K
h ad
T ake
atri ate
poly mer
Ġbit map
Ġsuc ceed
Ġpul led
> =
Ġ- &
Thread s
ir ty
ring tone
Ġho les
Ġ ----------------
column width
Op acity
en z
Ġfr anch
Ġindependent ly
cap acity
ĠB log
ĠU UID
IP v
el if
C ause
Ġdesign s
amil ies
Ġsett lement
friend ly
ow ski
Ġnot able
por ters
el le
ab ama
Ġrelig ion
DOCK ED
Add resses
ĠV k
D ays
F ee
ĠX XX
EX TERN
/ ,
ASC II
- %
ĠGe V
Sh utdown
;\ ;\
enc er
Opt im
ĠD ialog
sh utdown
: ",
serial izer
be cause
Ġtemp oral
comp uter
Ġanaly zed
Ġad vis
Ġf aced
ĠK it
lan ta
\ -
M arch
t own
R ay
ro les
as ide
Ġfore cast
ĠJ ay
Job s
AR M
ok ing
ç Ľ
com merce
not ag
Ġconj ug
Ġt im
Ġsol ving
ĠN ic
Ġp kg
I FI
ĠF ail
Ġadapt ed
o a
T l
Ġmill ions
ĠMar ia
Ġcompar able
Index es
Ġp lott
ĠSc ient
w heel
Ġbrief ly
li ers
19 39
Ġsurv ival
ap k
0 10
ĠI raq
ĠAff airs
ĠRe volution
Ġsit ting
ĠMon te
Ġe missions
ç ±
ĠD S
Re moved
Un icode
n P
n x
Ġto ugh
ĠDemocr ats
>{ @
er gy
un s
12 9
H H
T or
j dbc
mpl ar
Ġre volution
PE G
U ART
art icles
n ol
Ġs z
Value Type
ĠAt lantic
Ġget Name
Ġst ake
Ġpl enty
(" _
ĠE qual
bs ites
Ġcons ent
ĠOlymp ic
pre dict
B and
ĠF lag
ĠJ am
ĠEx ternal
ĠO ak
Ġgraph ics
ĠJes us
ĠC rypto
Ġbeaut y
R anges
Bound ing
Ġh r
Ġde als
Ġcommun ications
Ġprint ed
M AT
RE ST
Print f
ĠSen ior
Ġchain s
al ter
is p
Ġmodel ing
Ġst abil
Ġf atal
ĠRo le
ĠP it
ĠNew ton
[ @
r w
in tegration
W illi
19 55
Ġt ear
Ġas ynchronous
Ġrecogn ize
up pet
parse Int
UR POSE
bl ur
a us
g pu
Da emon
Ġun us
Ġsearch ing
Ġp ushed
default Value
ĠT uple
MS earch
Particip ant
m ixed
er or
Ġcol le
Ġl aser
O s
19 46
aw ait
ĠTh ird
Un ion
Ġsy nd
ĠSt one
log ue
é ĩ
A ge
ili ary
ĠCamb ridge
Ġt ill
ĠUn supported
per formance
Ġtalk s
ĠS ample
ä ¿
: =\
ĠA lf
L ex
). </
Ph ysics
co cos
Ġreg isters
Ġstudy ing
+ '
Ġ[ ])
Ġtro uble
Ġuniform ly
Ġs ought
Ġcancel led
Fin ish
ĠM ill
ĠF E
ĠM ER
ĠDie go
Ġ$\ {\
ester day
) ");
/* .
Ġcour ses
ĠRail way
Ġg a
Ġ( &
ol ation
ĠÐ ±
Ph ysical
Ġre veals
Ġant icip
Ġp ic
ine ma
Ġplace ment
ĠEnter tainment
O Auth
ĠI owa
Ġemotion al
ĠPer form
G G
SH IFT
Ġbre ath
ĠU V
Ġinv ocation
Ġperturb ation
eral d
d ue
) `
T oday
Ġw ine
ĠSt age
ĠAh med
ck e
H ASH
cal cul
M en
F lex
Pre c
d ims
ĠK ansas
i ated
per m
Ġdist ribute
T rim
Ġpres er
Ġh older
Ġse d
Ġillustr ated
Ġis ot
ĠD ynamic
the w
Ġcomplet es
Ġtrend s
F all
el m
IP S
status Code
V K
View er
Call able
Hash Set
Ġwith draw
ur ers
S yn
B F
Ġpro hib
b idden
di jit
H I
m istry
Ġ[ `
ĠC over
Ġt iming
E ast
D NS
(" ")]
Ġkn ock
E lect
pos itive
Ġdoll ars
lo ose
W IDTH
H ot
ĠV in
et ype
dis pose
Ġp ra
Trans late
Ġre named
ĠU lt
Ġsh ard
ĠLo op
So ftware
v b
h ls
Co ordinate
Ġfem ales
( -\
ci pher
________ ________
k ill
ĉĉ ĠĠĠĠĠĠĠ
Ġencounter ed
re ceived
Ġcon sequences
Ġstre ets
Ġf printf
an ion
s ensitive
pre sto
navBar Cell
Ġhappen ing
æľ ī
y our
Ġh ockey
Pub lisher
A ws
r us
Dir ty
in ated
ĠBu ilt
Ġdistingu ish
SE C
ĠQu ant
? .
ub er
EN ER
Ġtemp or
Ġsim ulated
he tic
Ġhealth care
prob lem
ĠG er
Ġs ad
ĠC am
Ġse l
Ġde coder
o ct
ĠMem orial
over ty
ĠPrem ier
c riteria
Ġl p
æ ³
ro it
") ),
N s
w rapped
p us
="../../../../../../ ../../
Call s
ĠD uke
end ants
ĠG ree
ĠO B
Ġdecre ases
] ',
Ġmap per
Ġsy nthetic
sol ution
ĠLe on
Ġimag ine
h ooks
vent h
Supp lier
Ġk lass
set Name
Ġprincip les
r ar
ro uting
Ġge ometric
Ġderiv atives
Ġproport ional
ses sed
Ġimplement ations
pro j
Ġsur prise
R ew
l tr
Ġex cluded
ĠOper a
Ġagree ments
P icture
N ORMAL
Ġmusic ians
ĠAg ent
Ġsignific ance
BIT S
ap im
it i
Ġat tachment
Ġappe al
starts With
Ġun a
ĠSt ill
Ġoffset s
q t
Ġun icode
ĠT X
Ġan notations
ĠFour ier
G esture
g ateway
r as
ç± »
room s
" <
tern oon
Ġlog o
set Property
Fil ms
ãĤ Ĵ
) ^\
}$ }
Ġemploy ment
Ġfl avor
Ġvict ims
v ard
Ġdes ire
port folio
ĠDep end
I Enumerable
ĠPer formance
Ġh ub
ĠW ind
;& #
ab ul
Ġst ops
Ġeng aged
Ġvot ers
Ġp reference
Ġ* );
reduc ible
mix ins
ĠP ier
Ġ* (
Ġs aving
class List
ĠH ur
Ġso ul
z es
Ġc pu
St rict
ĠK han
Ġ{? }
dec imal
ĠSh are
proto c
Match ers
En cryption
work space
Ġst ood
em ony
Ñģ Ðº
Byte String
ĠHarr is
ĠWith out
co ins
Non null
Ġdise ases
Ġsepar ator
ĠSyntax Kind
Ġauthor ization
View Model
ĠS ab
ĠAuth ors
13 4
Sp atial
Ġes c
W rong
Ġre aches
ĠK y
ĠSup pose
ĠU ART
ome ter
greg ator
ĠLL C
ĠPr ice
P a
ro utes
author ization
Ġs av
ĠS R
Ġwh itespace
Ġconfig urable
Ġm irror
max imum
ĠIm Gui
ĠCont ract
16 5
ĠWork s
æ ŀ
ĠDe veloper
Ġbuild s
Definition s
Ġi prot
Ġvari ants
phab et
ĠE ll
Ġthe mes
Ġtab index
ĠSim on
19 42
Ġbo ys
ĠW as
Ø ¨
COL UMN
Ġ? ?
re start
Ġco ffee
nov ation
arr ant
å ĩ
Ġstrateg ic
Ġres id
null able
output s
Ġla id
Brit ish
f m
ĠC ategory
Ġv oting
Ġol dest
Ġch ip
IC S
Ġr pc
^* (
h op
Ġb att
Ġguide lines
ĠA SC
Ġing re
ar ator
pro mpt
Ð Ł
Ġcollect ive
f ers
ĠS av
ĠTh er
ĠAdd itional
Ġp ed
ĠC I
ownt own
Ġcross ing
ĠCON TRACT
Â ®
Ġdiff usion
par er
progress ive
Ġc rack
ĠT one
K ER
ĠM as
fra ction
Dig est
agrang ian
T W
ĠIn s
Ġ( []
Ġb ath
to u
ĠE ver
Ġdo gs
ab ove
Ġb rown
Ġgoogle api
Ġpaint ing
)) :
erm ine
17 5
19 47
Ġrec ipient
rott le
........ ........
ke e
an te
ĠV ice
ĠAL L
Gener ation
Lay ers
y ellow
Ġ' --
ĠG ard
IM ARY
ĠD rive
var rho
Ġdefe at
Ġinnov ative
C at
Work flow
Ġcap ability
li est
Ġp g
Ġ' __
wik ipedia
term inal
u its
Ð½ Ñĭ
j b
ĠSil ver
Ġle x
Ġsk ill
Ġacc used
ĠG h
b urn
Ġre serve
IT NESS
Ġpod s
dir ty
. {
Ġdesign er
ĠPy Object
first Child
il lo
ĠCor ps
Ġn umpy
ho le
Ġdo se
am d
DI V
ĠC ab
Ġshe l
ĠAss ign
ĠM un
Ġbo at
u art
ak en
organ ization
et ched
up port
Ġdisc ip
Ġcon servative
ĠEar ly
ag an
Ġen semble
Ġchar s
G lob
so lete
h ive
res pect
F un
S al
ak ers
mo ving
Ġstreng then
ĠD ES
Ġr t
S il
mat ically
ĠPol y
log ist
Ġecon om
tele phony
Ġ================================================================= ========
Ġcon cerning
19 54
Ġc art
PRE C
rol led
ject ure
Ex act
Ġin dependence
Ġd ol
to o
Ġsp ac
Ġpen alty
:: _
Ġfair ly
ĠT en
è ¦
ml ink
ĠOrgan ization
a head
v est
Buffer ed
exec utor
filter ed
ĠDet ails
ĠMi ami
RE L
ĠI ssue
ĠG URL
Ġq ub
VER TEX
m ate
scor lib
Ġcomp ress
/ ',
Ġgra b
Out er
Ġman uscript
`, `
Leg acy
build ing
ĠC AN
assert That
ĠB urn
ĠB rig
ĠD b
ĠHig gs
ag s
ĠP E
ĠW IN
ĠR CC
R uss
Ġed iting
Ġb acter
De ad
ĠLay er
CEP TED
k ed
With Context
Vertex Attrib
Dem o
Cred it
Å Ļ
Ġ[ _
Ġreg arded
C OR
F our
format ter
Ġregular ly
Ġhom ogeneous
D ummy
A ir
c art
Ġj un
Ġb omb
ĠCl ark
Ġimpro ving
Ġcarry ing
EN UM
IN TEGER
M ime
Ġgener ators
ĠP ed
transl ated
M ARK
n th
Tra cing
Ġpl asma
Ġguid ance
mock ito
Ġre put
Ġdesign ated
M id
ĠName space
E r
} ',
ot he
Ġsh ader
Pro vision
H ooks
ĠAl gorithm
be havior
ĠE S
Ġm ales
Ġdocument ary
d riven
Ġ ,\
19 0
Ġb one
ox y
wit zer
ĠPl aces
Ġdut y
S ING
Ġfe es
ĠPol ish
Ġten ant
ver ity
ĠR ol
Ġdig it
Assert ion
he im
k u
19 00
ĠReg ional
Ġorth ogonal
Ġapparent ly
ĠP ush
de cess
Ġdis put
Ġquadr atic
Ġhe ter
'] [
') [
Ġes lint
15 5
ĠS ocket
. [
So ft
ĠM otor
2 10
up al
ĠV ER
Ġrank ed
Ġvar s
Stream s
ater al
ĠB ull
40 1
strict Equal
Ġ{ :
ĠN atural
Ġro uting
writ eln
Ġcr ystal
ĠG ib
ribut or
US Y
Ġout standing
DE SCRIPT
19 41
Ġcaref ul
hed ral
ä¸ į
cur ve
ĠAnth ony
st s
~ (\
DEFIN ED
Ġreg ulations
get Node
Sp acing
Inter faces
Ġeng age
Ġinv ited
Organ ization
Ġar rive
Ġdig its
List View
Ġexhib it
de vices
C AT
ĠRe ader
Ġrema inder
=' #
< >
b ab
ĠSwed en
Ġslo pe
LE X
sequent ly
ter ior
g ulp
Ġt abs
D an
Ġrecon struction
scal ed
rep resent
Ġin fer
Exp ressions
Comp any
mat htt
Ġas semb
un ed
ĠInd ust
> ")
co ordinate
pl aced
Ġh i
andid ates
Ġaltern ate
ĠS ync
ĠComp are
I OS
key board
$. }
Bind ings
May be
Te mplates
Ab ort
uto ff
Resource Id
Coll ision
re ceiver
al ex
as a
for ced
get File
ide l
ĠMETH OD
ĠMan chester
co vers
Rep resentation
be y
Ġpropag ation
IST ER
n ed
Ġreal ize
Ú ©
ĠC M
Ġcho osing
Ġ' \\
end ment
cor ner
Ġneigh bour
ĠF lo
ennes see
un ces
ad ic
Apr il
Ġar ithmetic
b rew
L azy
Ġident ifying
á º
Condition al
un stable
Ġcontinu um
Ġp ause
m alloc
(' :
QU ERY
Ġwonder ful
def s
Ġang les
ph ot
Ġhydro gen
ot ype
ĠTur key
Ġf asc
el led
Ġaccomp any
th umbnail
) <
Ġencour age
G LAPI
Sco ped
Par allel
ĠS el
Pol it
Ġequal ly
}\ |
Ġmark up
Comp atible
g as
ĠE mit
list item
ĠStud ent
tikz picture
ĠIndian a
l ane
15 2
Ġal cohol
19 53
% ">
ers core
str ation
cast le
Ġreson ance
/ ?
t ap
Ġfa de
iss ip
p iece
R D
, (
ĠO wn
we ights
Ġassume s
ordin ator
ĠRo om
u y
c ular
BO X
19 43
AN Y
Ġsl ave
SUP PORTED
ĠS ix
is i
il st
! ]
n ear
Ġtarget ed
luc ene
gol ang
Ġd ensities
( /\
Ġdirect ories
ĠAll en
Track ing
ĠÂ ·
ĠD omin
ãģ Ļ
Ġwor ry
ĠBang ladesh
Ġin formed
Ġins ight
S izes
Ġw ed
AC CEPTED
o unded
ik es
ĠRo y
feed back
ĠJ osh
ĠRE ST
Ġin ference
us b
Ġp our
Re porter
ron ze
PR INT
R oll
V ED
Ġexhib ition
conn ector
Ġobvious ly
is en
ĠB run
ta h
ĠMo ore
Ġsol ved
witzer land
Ġprov en
ĠExec ution
ĠVAL UE
co pic
ĠĠĠĠĠĠĠ Ċ
Ġqu as
åı ĸ
Ġh orizon
work flow
B rows
ĠA fghan
ÃŃ a
ĠRet rie
User Agent
wall paper
Ġc yl
Ġprofession als
he at
cre ase
ĠP in
Full Name
Ġag es
> #
per malink
Ġholid ay
AL LOC
D ifference
ĠPart ners
Ġmin ing
Ġpoet ry
ĠCapt ain
Ġass ault
I ll
Ġeng agement
Ġorb ital
T oo
ĠD allas
Tra it
ĠA lice
Ġpul se
ext ended
Read Write
ĠWAR NING
ĠTra vel
ĠM ilitary
ĠCal endar
Ġform ul
Ġcomp ressed
Q T
Ġenjoy ed
7 68
ĠUn icode
Ġnarr ative
j as
ĠW allet
re ng
ĠPat rick
Dim ensions
A tom
Ġre construct
Dynam ically
connection s
Ä ħ
ad os
ious ly
ĠG a
Ġsub sid
ĠExpect ed
Tree Node
ĠGe o
Ġac cord
ache lor
h ort
H ierarchy
ASS IGN
ĠSE LECT
ch ip
Ġref id
ĠTra ce
Ag gregation
ĠChar acter
ĠP ho
H A
)} (\
ĠMus lim
Ġnot ifications
V ote
Ġdisp ersion
ĠM rs
err no
ich ol
f ocused
Display Name
Ġch a
Serial ized
Ġcode c
ag le
oc y
de coder
el ve
Ġinj ured
ĠPar ser
ed y
Ġqu ota
ĠS afe
Ġappear ances
prov iders
J une
es Module
ok ia
ad apt
cor ollary
M ON
Qu ote
im ap
ag g
rain ian
20 8
) (\
ĠF S
mult line
Ñ ī
V B
ans wer
back s
Rep lica
ĠName d
Block Index
PHP Excel
}{ {\
Ġaug ment
sp y
ĠT ony
desc r
me try
rom agnetic
const raints
se lenium
Ġanaly tic
text normal
ĠNiger ia
ĠViet nam
be ing
U tf
Ġu id
ĠO ffset
ĠP URPOSE
Ġres olver
ĠQue ens
jav ase
MEM ORY
Ġtransform ations
Comp osition
ĠP aper
Ġrat ios
2 64
ĠA z
ess ions
Ġent reprene
\% $
ĠW idget
http Response
arn ess
pl aces
Ġreal m
ĠMat he
ĠP atch
Ġ' *
Ġweek ly
Ġvoc al
Ġf er
ĠId entity
Q Name
h yp
EN SION
C LE
Hand ling
nes ses
ç½ ®
K HR
First Name
Ġcor onavirus
en kins
Ġnew Value
Ġequip ped
ĠI SO
ten ant
Ġjournal ist
W ild
M vc
åľ ¨
Pack ages
( ?:
be am
Config s
Ġfl av
ĠG ene
un set
Ġpoint ing
Ġelse where
D uplicate
ĠProp Types
di ctionary
ACT IVE
Ġl abeled
div ision
F lat
ĠG NU
Ġany more
Ġform ulation
Ġw ake
Ġe mitted
19 49
Ġpl astic
F ar
ard o
ct ic
Ġanaly ses
Ġmod ifications
Ġme ets
Ġre ce
Ġ@ }
Ġcomp la
ĠJo h
ĠAd vent
Ġdelay ed
ĠCred it
Ġra cing
13 8
d z
AT FORM
mpl ating
F requency
con sumer
ob s
Pr inter
Ġcorrel ations
w ich
CH ANT
Ġbeh alf
Ġattemp ting
ĠD om
pub lisher
Ġ utf
ME TA
Ġprof it
Ġse g
Ġ"/ "
Aug ust
19 51
Ġco in
Ġaware ness
ĠD ur
c ritical
Ġimport ed
ĠFile s
im o
edit able
ĠConst ants
Icon Error
Ġback ing
multi row
Watch er
Ġsaf ely
Ġproject ed
ĠM ut
unit test
SR C
exe mplar
Ġel igible
Ġimplement ing
is y
ĠPh one
ibr aries
Call ing
Ġdetermin ing
H over
Ġt ied
Ġful fill
B ur
Ġin jection
Ġdi ameter
] ])
Ġc f
J ack
S CHE
g allery
Ġinter active
View ById
=" .
text color
REF ER
Ġant ib
add All
p aint
m art
Ġ{ });
we ather
Ġm ime
$- $
D WORD
EX EC
Ġmunicip al
Ġinstr uments
13 6
S ing
Ġthe atre
ĠAg ric
Foreign Key
Ġre quiring
Position s
L and
Ġt ur
ellect ual
Ġwe aring
ĠM ouse
Ġsat ellite
Ġpublic ly
é ¡
ne cessary
ĠComp lex
sl ant
bind ings
---------------------------------------------------------------- ----------
Ġprepar ation
B UT
s ound
ĠD omain
ĠS UB
ĠY an
F Sharp
ate ur
Ġpre mi
Ġto x
Ġind irect
er ase
Ġpolynomial s
Ġs ans
Ġbound ing
Ġtransport ation
Ġf ruit
ĠO DI
ĠC LI
li braries
19 5
Ġas c
Ġc trl
oc al
(' -
Match ing
Ġin duction
Sub st
Ġmeet ings
| ^{
Pub lish
Ġglob ally
Send Fields
re tt
22 4
Ġve get
Ġchart s
n ik
work ing
Ġim aging
ĠT CP
type Name
Ġport ray
hi ber
Ġh ist
f name
Ġerr no
ĠImp lement
Ġle ts
Ġdistrict s
t pl
Ġpack ets
L atest
rib le
ST OP
ĠC ancellationToken
ĠPar am
ĠPh ys
ine ment
RE SOURCE
Ġ ic
w ick
t u
Ġed ited
"> @
un ix
Ġd ress
script ors
ĠCurrent ly
ĠIMP LIED
CUR RENT
ĠComp lete
Ġre covered
Ġre ar
ry ption
n of
C ycle
Co verage
Bal ance
ĠQ ual
Char Field
Ġh over
Ġp i
Ġarg ue
ĠDef ense
ut enant
Last Name
Ġon Click
Ġalgebra ic
v v
Im mediate
(' [
Ġblock ing
Ġoff ices
Ġengine er
Ġre cursive
Ġtrans verse
ĠAl abama
es a
west ern
') ),
ĠFunction s
Ġfrag ments
os ome
ĠS chedule
Ġi Phone
k le
ĠSh op
Ġparticip ation
. :
Ġneg lect
$ '
Ġt unnel
T K
Ġlo ops
G I
Ġis l
Ġac cretion
Ġguest s
Ġfra ud
hiber nate
Ġmechan ical
r hs
Ġg ateway
or ous
Ġperfect ly
ok emon
SH OT
Ġen gines
omp son
Ġstead y
P referred
ĠC NN
pro tect
Ġwit ness
LAB EL
> {{
ind uced
ĠSe attle
Re peat
n od
Ġadd ressed
ĠĠĠĠĠĠĠĠĠĠĠĠĠĠĠĠĠĠĠĠĠĠĠĠĠĠĠĠĠĠĠĠ ĠĠĠĠĠĠĠĠĠĠĠĠĠĠĠĠĠ
J uly
Ġjav adoc
Ġenforce ment
iv istic
Ġvar char
amb ig
6 55
N eeded
ĠM ars
RE SET
ĠCon figure
- "
col n
own ed
IconError Encoded
Ġpay ing
ĠQue ue
pop over
Ġpublish ing
ĠJ ane
Ġfun ctor
ha us
h uman
if ting
Ġad res
K S
ĉĉĉ Ġ
ch oose
ĠP as
ĠH u
uc lide
k ish
Cap abilities
ĠMary land
may be
Ġarg ued
P F
Ġ` --
is cal
ist ically
ur ches
Se qu
ĠPART IC
ĠP os
check er
P IN
d atab
or ne
ell s
Ġabund ance
> ]
sp itals
Ġdis order
Print ln
Ġrestaur ants
{ .
s ink
ĠF UN
Linked Library
Ġvict im
Dynamically LinkedLibrary
riv ia
ĠWork ing
Ġg amma
Ġpres idential
p v
ĠAuthor ity
vers ation
de ployment
Ġstr ange
ĠAr thur
End points
r ss
ular ity
ĠWe bsite
Scal ing
Element Type
vert ices
o i
ĠPh ysics
Y ES
ĠI ss
ĠUp dates
ĠB ureau
APIENTRY P
k ov
ĠP rom
Ġpop ulated
sv c
c in
account s
/ :
ag u
b ol
Ġd il
SN AP
Ġar rival
ĠL as
Ġprom ises
SY NC
Ġv oted
LA ST
Ð°Ð º
Ġbas ically
Ġsh orter
ĠH O
min or
Ġag ed
Prototype Of
Ġin trinsic
ck s
ĠSaf ety
13 3
Ġ iv
ĠSQL Exception
moz illa
Cor rect
be zier
j u
In crement
Ġexpand ing
ĠSe lection
Ġintegr ity
spe ction
Ġhor ror
Ġh at
co v
Ġa de
ĠR on
ra ble
L ab
ex change
ĠWh it
ĠCast le
y ield
Ð½ Ð¾
Ġge o
normal ized
Ġshort cut
screens aver
ON ENT
man age
Ġparticip ated
Compiler Services
rop olitan
Ġindex ed
Ġ( ),
key Code
ĠH H
ick en
Start ing
Ġdir ty
In tegr
ĠG P
Command Line
CHANT ABILITY
Ġden ied
}/ \
Ð ¶
J ap
ID S
ad ers
Ġ{} ",
comp uted
Ġro yal
ĠB eng
track er
Ġimp ly
Ġcl ar
ĠMiss ouri
14 6
i ri
Ġbelie ves
vis ions
ĠY et
ĠB U
Ġassert NotNull
Ġh ate
ĠSar ah
Ġvis iting
D to
20 3
MAG ES
Ġp lots
... "
ĠN an
T IP
re ats
do jo
SQL ITE
Ġsh allow
Ġdifficult y
Ġdec line
cell s
Ġ[ (
Ġiniti ative
get All
up arrow
k ar
pro pto
Ġv endor
ĠF riend
Ġdo i
d AtA
effect s
Sc anner
no ise
child Nodes
in el
Ġl iv
ain ter
Ġtraject ory
Ġins ights
insert ion
ĠâĨ Ĵ
ĠCom b
W ar
L ifecycle
Ġp ow
target s
Loc ations
ĠMon th
CLA RE
f re
T om
Ġun like
Ġimp ressive
border ed
clo sing
ĠPhil ip
Ġgen etic
Pub Key
ĠO VERRIDE
k ern
over load
Ġf lying
Res erved
"> )</
Mich ael
Ġwe bsites
parent s
Ġa sp
ĠI C
ĠB ry
Ġb ubble
Ġex ha
ãĥ ³
Account s
+ $
Ġint ra
j p
ne e
st ation
the y
omin ator
ent e
ĠNot ification
ĠM ix
Ġtit led
Ġp iano
ĠF arm
(" ",
In side
RA W
ĠLim ited
ĠT E
Ġref used
**** *
Ġgr ass
activ ation
Ġpres erved
Ġsimp licity
de velopment
] ):
Ġcirc les
ĠR uby
Foot er
Ġinter cept
ĠC ow
Clean up
2 60
t rivial
ĠT LS
Ġhost name
IG H
lap s
H om
po ssible
Ġstrug gle
Quant ity
Ġgradu ate
AD ER
Port s
sy nthesize
ĠJ ason
Ġac quisition
13 9
iter ate
d ie
In tegration
Ð» Ð¸
No Error
Inter pol
ap l
38 4
AC L
hand led
ĠInd ustry
effic ient
ĠD eter
A sc
Ġescap ed
F W
Ġa pt
Sub scriber
bat im
14 9
Click Listener
ĠMov ie
}, {
Ġsur pri
Ġreli ef
Ġf usion
Ġoper ational
ĠID s
ffff ffff
auth ors
Ġwat ched
Ġ$ ^{
2 25
ĠTh ough
Ġlaw yer
Ġbase s
Ġo cean
`` .
uclide an
å Ĩ
ST AMP
is Null
Ġlic enses
ta stic
ĠE ss
Ext ent
Byte Buffer
Ġco ord
cur acy
am en
Bound ary
Ġfilter ing
us ive
Pre pare
urn als
Ġl ights
ĠJew s
ĠâĢ ł
Ġgen es
ĠW y
s uc
T abs
Ġst amp
script scriptstyle
_ ),
lo dash
ĠLa ure
Ġ Ä
Re search
Ġcon cluded
SECON DS
C li
assert Same
ĠGit Hub
S chool
Ã ´
Ġnov els
PRO CESS
"> .</
li us
Ġres ume
ĠPro tection
ĠAut hentication
16 6
Ġport folio
Ġaffect s
S ensor
List en
az e
Ġviol ation
ĠR FC
Ġexpl oration
Ġfoc uses
Ġpro position
æĹ ¶
TYPE S
TRAN S
Ġpro sec
Ġcontribut ors
4 80
Ġin clusive
Ex isting
=\ {
Ġadjust ed
temp ts
ĠLine ar
W W
ĠN UM
Ġsp y
Ġme s
Ġformat ter
ĠT alk
Access ibility
ĉĉ ĠĠĠĠ
get Item
bar a
ĠST ATE
S olution
&= &\
depend s
enu ine
Ġadapt ation
Ġin vent
Ġ*/ ,
ĠRe moves
aud i
it ure
un ning
F M
Ġaf ternoon
erm i
Ġgreat ly
d ifferent
add le
sp arse
Ġdi agnostics
Ġnormal ization
p ix
ĠFIX ME
pro port
Access ible
ĠEd it
list ed
ĠImmutable List
To k
ĠGener ator
Ġph rase
her ence
ĠCan vas
è §
Ġcut ting
author ized
S parse
q r
ĠL em
ĠYear s
x b
IN X
Ġpri est
Assert ions
reg exp
m ation
ĠM ot
Ġoccup ied
Ġg arden
22 2
Ġexpect s
ĠAt lanta
Ġre pe
16 4
S ocial
ĠW i
Ġb link
Ġstd out
Ġblock ed
st y
umb le
ffect ed
ĠPl us
OB J
ĠSw ift
reed om
Ġmount ed
ĠP anel
Ð¾ Ð½
+ =
Ġ` $
ĠF ederation
Xml Element
sat isf
Ġturb ul
h on
inal s
sub st
ĠH ug
Ge V
Ġcon current
fore ign
. -
h fill
go als
ch r
lic ate
T ASK
Ġvalid ity
tr unc
J av
ĠR ab
R ing
à¤ °
b rowse
in th
ĠB alt
Ġn od
ĠS park
g rey
Ġg allery
ĠL A
ĠZ ero
deg ree
Ġserial izer
Log s
bound ary
y outube
Ġro se
19 18
User Id
ĠAUT H
ĠPARTIC ULAR
Ġtr ick
re ll
ĠF er
Ġc up
h m
è¡ ¨
register ed
oo thing
Ġestim ator
Ġ" #{
IAL IZ
ĠCh ap
meter y
ĠStud ents
Ġcon volution
Ġboot strap
ĠTra it
Ġdef ensive
Ġcenter ed
for um
W ay
Ġse p
text up
che ll
bit map
Pl ane
Ġas ks
C ritical
Ġgovern ments
Ġprotocol s
Ġv it
od ge
De vices
im ator
ĠR ET
ator ial
Ġfe as
Ġpack ed
ĠDo ctor
ĠSTD METHOD
19 19
ĠY outh
ĠMER CHANTABILITY
ĠThe me
æį ®
and al
Ġph p
d ac
Ġwat ers
de ad
//////// ////
real m
ĠH amp
æ Ķ
Ġca ption
ĠSy mp
ential ly
sp er
ĠE s
Ġemer ging
Text Box
LO T
ĠExt ract
Ġacknow ledge
ps is
A cknow
Ġcaref ully
c g
Ġm utable
group ed
Drop down
From String
Ġneigh bors
ĠD al
N LS
ĠD R
Ġnav igate
MA IL
a is
in ite
Work Item
Ġcelebr ate
l ift
| .
ĠFe atures
M irror
Ġ*/ ;
Ġcomp os
13 7
Ġrg b
Ġfol k
Ġl ands
ĠG PU
Or Update
(" {
CA ST
B log
ĠPro xy
gress ive
Ġgradu ated
& &\
let ic
up iter
ener ated
Ġt aste
name spaces
ĠSwed ish
Ġtr uck
rid ges
foot notes
Ġlimit ation
Ġb t
Ġcheck point
O G
O VER
ĠTh ank
Ġlif ecycle
ĠD ave
Is Valid
ĠI ron
form ula
Evalu ation
æ Ŀ
ĠPer mission
ĠH old
ĠG arden
Ġw ider
get Int
Ġeth nic
ĠDeter min
ia h
ĠNot Implemented
Ap ache
Second ary
Ġ\ ,\
Ġmolec ules
A ware
ĠCh ain
prec ation
ĠL anka
Op code
ĠT ennessee
Iter able
limin ary
pare n
inter pol
S leep
ĠW ol
ĠOper ator
Ġfail ures
Ġbar rier
Ġround s
comp any
ĠV eg
Ġd war
ĠC V
T urn
Ġgen re
__ );
Ġinj uries
ï¼ ļ
Ġactiv ated
Browser Detector
iner gi
in ch
ĠCom ments
in cess
COM PI
N Y
Ġsett led
ĠM OD
Ġoptim ized
Ġlocal s
d or
av g
uby te
Document s
ĠURL s
ig ious
Ġcomp ound
uth er
B en
ĠAl ert
l hs
Ġn ick
Ġent itled
scroll Top
ĠIslam ic
lah oma
ĠS creen
Sign ed
13 1
Q uality
Ġpart itions
(' _
Index ed
ĠĠĠĠĠĠĠĠĠĠĠĠĠĠĠĠĠĠĠĠĠĠĠĠĠĠĠĠĠĠĠĠ ĠĠĠĠĠĠĠĠĠĠĠĠĠĠĠĠĠĠ
Ġart ificial
Object Type
Ġimm igr
l v
t iming
Prov ince
re pos
c z
Resp onder
d ll
to gether
script size
Exp ress
GB T
R ober
Ġh am
ĠMax imum
l ater
ĠE uro
ol ly
mo ther
Ġsplit ting
ĠC limate
valu ed
ĠComp uter
S ynchron
ĠM UST
ĠL ower
Ġpro ton
Ġax es
Ġbelong ing
Ġv a
initial izer
Ġto wer
ĠBow l
Ġback ward
ĠLI ABILITY
à¥ į
C ENTER
P TS
à ¹
loy d
ä¸ º
iem ann
light s
> ?
n or
Get s
ĠSQL ITE
ment ion
ĠF al
Ġmove ments
$ ^
" })
T icks
Ġsix th
I r
Ð» Ñı
Ĺ ãģ
Ġbe ach
ĠMer ge
Prov iders
v ens
sh ard
inv ocation
B er
Ġpar liament
Ġevery where
Ġun likely
Field Name
Block ing
Ġfarm ers
Ġocc as
19 36
new line
Ġfit ted
Check box
Ġw p
Ġtown s
Ġ ])
Ġa imed
un checked
ut ors
ĠRet rieve
ra cle
Ġcer emony
Ġshort ly
or ce
Cap ability
In strument
ĠInt ent
O c
ch arg
Ġen de
Ġir reducible
Le af
G reater
q s
Ä Ľ
ĠG PIO
ĠState ment
Ġre lay
ĠWalk er
} ";
Ġknow ing
cr umb
ĠIllegal StateException
ĠK elly
ĠAss ume
m ates
Ġs oph
Bo ard
ĠAr k
ĠHol y
Spec ification
Ġd ram
member of
Ġshop ping
r h
Sep tember
ĠC UR
Ġmark ers
col lapsed
Ġt riggers
F ixtures
ol ars
co ords
ĠD ise
19 37
Ġo xygen
Ed m
Ġbro thers
tw ig
Ġsub class
: ]
el son
ĠTh anks
Ġult ra
Ġc riterion
Operation Kind
col group
Ġfranch ise
V m
ĠE asy
ĠS IL
Ġcli mb
r ating
I CT
Ġsome where
ĠSing h
Ġcapt ain
Ġcorrespond ence
Persistent Volume
ĠMos cow
Ġweap on
ĠM ask
ro bot
ĠTest ing
pi res
Ġdiag rams
"> {{
Ġper ipheral
release s
ĠPhilipp ines
Ġre dis
IST S
ĠBlock ly
ĠRe place
P aul
Ġphot ons
P AT
Ġform ing
min i
ĠM ind
ĠIn dependent
ĠN ature
J ames
Ġform atting
Ġrepro duce
jo urnal
Ġre actions
Place holder
Schedule d
Ġbel ief
ĠAust in
ĠS witzerland
ig s
ĠPer iod
de tach
Con current
bo y
Del im
Ġproport ion
ĠB h
Ġf p
ĠPRO VID
st ors
Ġexec uting
T w
De cember
ocr atic
f req
Ġprob abilities
C s
ĠC ape
: .
Ġt issue
IS ING
On line
Token Type
ĠC K
qu er
ĠH ans
M otion
S py
Ġt ie
Oct ober
ash i
f h
N or
Ġb irds
Ġorgan isation
B ootstrap
Ġpublic ations
set State
) ](
ol k
ht m
Ad s
ĠInter rupt
x si
Â ·
$\ \
Ġoff ensive
Ġmonth ly
= ${
Ġc line
EX PECT
Ġreal istic
W omen
Ġoper ates
Ġlog arith
Ġev il
Set ter
P s
cla imer
M N
ĠUS ART
Ġdecre asing
u h
g ender
Ġro ads
ĠS EC
Ġcomb inations
WE B
Ġcla zz
:// $
ĠBy tes
Ġdis appoint
Ġt weet
Ġcompet e
in ja
ut ers
Ġdist ort
F rench
Lock ed
level s
Ġgun s
r ison
Ġl ux
Ġpark ing
15 7
ĠInd icates
ĠCH AR
Ù ģ
Ġinter vention
exemplar City
Ġspe aker
Ġ// $
Q R
Ġunivers ities
Ġcool ing
G U
N ever
Der ived
Ġmeaning ful
F LOW
Ġ\ [
Re ject
19 38
Pointer Exception
L V
Ġcount ing
on ded
{ (\
Ġrest ored
Ġfootball er
Ġp lug
ĠCor ollary
DO C
apid ata
D U
Ġme mb
Ġ% (
Ġinternal ly
Ã «
symbol s
Bro ker
Ġcle ared
Un signed
Ġpointer s
Î ³
2 80
success ful
i est
ial s
ĠCh anges
sim ilar
cons ider
ĠB ool
Ġtick ets
ĠB uff
å ½
Ġt il
M art
ĠPri mary
List Item
Ġinst itution
Ġaccept able
Work ing
ĠC zech
ĉĉ ĠĠ
ĠHand ler
amer as
an ied
Return Type
fra med
Ġop am
CHAN GE
H istogram
CONNE CT
Ġv ital
Ġret Val
ĠN ob
Type Info
B roadcast
Cal cul
St ation
cent ric
ĠS port
DL L
p ared
s nap
Ġf leet
source forge
â Ħ
Offset s
3 75
19 17
Ġglyph icon
C atch
lear n
ET A
Ġsupp ress
Ġsh ots
Â »
Trans actions
Servlet Request
Ġposter ior
ĠSchool s
Condition s
ĠA cc
Ġactiv ate
Ġf est
Ġcom ic
now ledge
ĠOper ations
Ġw rest
ll vm
an ia
ĠHaw ai
win ning
\ },
ĠS pect
ĠI de
ĠHow ard
Ġcomb ining
Ġaff ine
ĠG ab
14 2
fold ing
Ð¾Ð º
ĠEl se
Ġchunk s
el ian
Ġr anging
Ġad mitted
}. }
ĠAn ne
or able
ĠCol on
Ġinflu enced
Ġemp irical
Decl ared
e en
ĠF act
' ',
ail ing
Ġref uge
Ġthous and
ĠEnvironment al
Ġpos it
\| _
prov ided
ĠNot ice
N an
ĠHigh way
ierarch ical
Ġr hy
Ġacceler ation
tes y
F ULL
J ar
init With
it les
not ated
T s
Ġs vg
Ġexpert ise
P et
Ġatt orney
"> :
dim ensions
ĠLe ave
if olds
Ġqu oted
WA IT
ĠF ITNESS
Ġtranslate X
CO PE
net t
ĠH it
umul ative
Ġh ass
Un ary
Ġgr an
Se g
Ġcon scious
c annot
C ancellationToken
$ }}
m isc
ĠL agrangian
Ġt ub
Ġf irms
Ter ms
Ġmunicip ality
Ġrep lication
30 1
Ġsuper ior
SP H
Ġg rows
Ġde t
Ġg em
Ġrecommend ations
mar shal
Ġmac ros
$ ^{
Î º
Ġc rop
ĠCustom er
> ".
Ġnot iced
Ġmargin al
ĠT ar
In variant
Ġda emon
ĠVeg as
Ġsurv ive
Ġun f
Wait For
ail and
Ġfin ance
ath on
ĠB ah
In herited
ĠCh apter
or o
Ġcoll isions
ĠW ang
oper ating
Ġa rise
sp rintf
cont ract
,... ,
Open Tl
S ym
Ġ" ../
s ong
Project Path
ĠAdv anced
å Ģ
stack rel
Ġcy ber
b et
ĠAl liance
ĠRepublic ans
; ;
Ġflex ible
ĠRep resents
Ġsub space
Ph il
und o
Pro position
F r
In ventory
Ġre name
il ers
spec s
ĠB M
the ory
^ (
co ord
Ġchild hood
ĠHo pe
(' %
Ġelement ary
RE LEASE
deep Equal
h abit
we gian
36 5
Ġitem Members
INTER FACE
ĠR EQ
ĠAp pro
lo on
Ġorgan ic
temp erature
j vm
ĠN ik
Bl ank
B ank
n f
_{ +
Start Time
ĠUs ers
un i
ĠAl bert
Ġ< >
class ic
Ġpro pos
:" -
ĠSQL ite
ĠS plit
UN IT
Ġde eper
60 1
A cl
Ã ¦
Ġ ~\
Bl ur
Ġth orough
ĠThe ory
15 9
Act ual
net ty
less ly
Ġ ĉĉ
li ber
r te
it ud
Ġm ic
Ġcap s
ir l
IC ES
Ġlik es
map reduce
P ID
Re comm
Ġcar to
qu ate
DO UBLE
ĠTok yo
ĠGree ce
ke ley
Des pite
ĠProv ides
ĠA GN
Ġcontext s
Ġreflect ed
>: <
ĠMar ine
ĠWh ich
ĠN BA
Ġne gl
Ġsil ent
R ename
assign ment
} ">
2 32
ref ptr
Ġbur ied
inst alled
Ġen c
Ġla ugh
ÑĨ Ð¸
TH ON
spec ies
Te le
Ð°Ð ´
upload s
Tag ged
Heading Color
ĠPerson al
Br and
Ġdeep ly
Ġrem ind
Ġphenomen on
y ml
INCL UDE
Th ird
ĠUp dated
ĠP assword
ĠRo ber
B ug
S i
Ġproto buf
Se gments
SH ORT
ĠMal ays
Ġprefer ences
Ar c
ĠDet ermine
lo d
! )
Result Set
cre asing
Ġl ake
inal ity
Ġel astic
so ap
On Search
A jax
Ġfoc using
Ġexec utable
Ġm ixture
ide a
if fs
il ty
ĠM SG
z end
bin om
iss a
ĠPre vious
commun ity
Ġre use
comp leted
Ġscre ens
Ġnumber Of
contains Key
ĠMex ican
Ch oose
Ġpar ad
Ġg aming
Ġnow rap
OPTION S
Ġt ap
re maining
Gu ard
Ġtrip le
Î ¯
Ġde vi
Ġcomfort able
pres erve
ĠPal est
SE PAR
ĠName s
Ġget Default
CALL TYPE
Å ¿
Min utes
Ä Ł
ĠH ilbert
Ġspher ical
ĠF ive
Ġ" ]
Ġp seud
Ġme ters
Ġdeploy ed
if etime
Ġ} }</
ĠD river
ĠĠĠĠĠĠĠĠĠĠĠĠĠĠĠĠ ĠĠĠĠĠĠĠĠĊ
ĠB att
invalid Params
or b
Ġdef ic
ĠTh ings
P ing
n ick
00 7
ĠC ould
math comp
Ġband width
user content
15 1
c andidate
IB LE
Gu ide
of ill
ĠHer itage
Ġund o
f its
De ferred
m v
ĠNor way
ver e
Be h
Ġpublish er
ĠS PE
G PU
vis ited
Ġsus pended
Ġvol tage
Ġint ense
Stream ing
ĠB ishop
n est
ne eds
Nov ember
Ġl n
ĠPo ssible
sp ro
Http Client
Err s
BUT TON
A verage
N Log
b usiness
Ġp ione
quent ly
Ä Ļ
- '
Ġprem ier
Ġ" &
Ġd rift
Runtime Exception
Ġincred ible
ĠRe cent
Ġret val
sh im
rb an
ĠD VD
& =\
Ġs ick
*} [
ĠO Auth
comp osition
ĠDe an
F riend
et ics
ĠS ie
Ġstr uck
Ġmer ely
port let
bul k
RE SP
Build ing
effect ive
Ġvis its
ĠRed ist
ĠInt el
sub net
ĠComp ile
O LEAN
has is
on z
bold math
RE PL
15 4
co unters
String Utils
orient ed
ĠMult iple
ĠR unn
k b
cla imed
ibli ography
END ING
READ Y
pro logue
Ġac quire
V tbl
CONTRO L
Input Widget
Track s
SNAP SHOT
Ġst em
ĠFi refox
æ Į
ĠFin ance
l st
Con v
ather ine
Ġrank ing
d ma
"> =</
Ġde struction
tt ing
Ġsp acing
" \
Inter preter
ĠRes erve
contain ing
ĠC os
Ġt all
ĠL ooks
uk i
m os
ĠB ey
AM D
ĠLab our
Ġre load
Ġprepar ing
à¥ ĩ
key frames
:"- "`
cycl er
comp atibility
ĠM is
ur an
ĠS S
ĠPh ase
Ġsimilar ity
Form ats
Ġbl ind
B s
st ab
ĠDet roit
C nt
H istor
Ġs me
ham mad
ap olis
è¦ ģ
alloc ator
encrypt ed
Rout es
Ġlong est
ĠBr anch
UT ION
Fl ash
ĠB atch
ĠCal culate
Ġbre ast
i ang
ĠR at
as ource
Ġco ords
Ġhelp ers
Ch anging
Bl end
Ã µ
$\ ,
Ã¶ r
Ve locity
C art
Ġsuggest ing
ĠR ic
Ġdot ted
qu ark
Se ek
Ġp x
issip pi
Americ a
ĠB ush
Qu eries
ict ed
Ġdetermin istic
Ġserious ly
\ [\
Ġcommun icate
ĠT el
Ġrep air
ĠJon athan
; (
æ Ń
abul ary
Ġ' );
ĠMel bourne
] ^
ct est
ĠG ordon
sh rink
Feed back
ĠMag ic
Ġdemand s
14 8
No thing
i am
cont rollers
ĠE R
De ath
G PIO
ĠPro vider
Ð°Ð½ Ð¸
J ul
ENT IAL
con cept
E F
Ch an
Comp uted
ĠAn imation
l x
Ġl ens
Ġoptim ize
ĠR y
util ity
Ġsup ers
Ġmy th
Ġr x
Ġdiagn osis
ĠKent ucky
ut ures
De leg
( ["
"> [
WI SE
ĠN ation
Ġsupp lies
Ġcent uries
ee per
Ġs f
Con vention
Ġme at
Ġship ping
Ġt one
Stud ent
Ġph o
riv ing
t im
}) ^{
Ġn ations
Mark up
ĠText ure
Single ton
ì Ŀ
Ġp overty
Ġor ange
Or g
SS ING
Ġphilos ophy
Ġl ua
19 34
ĠM organ
Ġunit ary
Ġ âĢĻ
uc lear
s ynchron
rt c
ĠL ength
Ġover write
DA Y
in struction
S am
Spec ify
ĠTag s
Configure Await
Ġ= =====
pro cessed
Ġse ctors
Ġget Value
l ighter
Ġb b
Ġcons ensus
Ġhighlight s
ĠV ec
Ġchair man
qual ified
ft p
Ġent hus
ĠZ im
Or Default
Ġj u
level and
Ġb rig
ĠED IT
def n
Install ation
Ġ\ |\
pt on
}^{ +
e mpl
Ġco sm
Ġ Ñĥ
Ġpres sed
Ġload s
UB E
sem antic
00 4
re name
ic ut
S IG
v d
Ġpass engers
Jo urnal
ĠMay or
Ġg ear
Ġliter ary
Ġhighlight ed
Y M
ot ive
t id
ra ises
* }{
Ġcon e
(" ");
Ac celer
h ou
s ay
ol en
urn ame
Pers istence
Ġconsistent ly
ĠR id
p ie
Ġcontract s
ĠD ick
R W
Ġadd EventListener
Ġa z
50 1
um ar
ĠOpen SSL
utr ition
in herits
sp rite
ĠR ace
ĠBe at
Ġannounce ment
K ube
ant ine
char Code
Ġde e
e i
Ġ$ ('
ĠLin coln
U IT
Ġfore ver
ifest yle
co logy
Ġr ub
resp onding
Ġgovern ed
A st
k k
Ġra cial
d ashed
ĠUn ivers
ill ery
Start up
ND ER
B i
15 8
Ġcal ibration
clus ively
INST ALL
Re verse
Ġk not
g age
Ġtouch down
ur u
get Bytes
ĠS F
Document ation
w l
Ġno op
Sh op
Ġspirit ual
gra duate
Order ed
ĠMc K
M appings
="../ ..
N Unit
he ll
ic ast
Ġshift ed
Ġt p
ĠCommun ications
Z Z
NS Mutable
ĠAg reement
è¡ Į
Ġadvent ure
Mod ifiers
Ġde coded
45 6
Prob lem
Ġtool bar
up grade
C ipher
Ġb read
Ġthere by
Del ivery
Ġover head
C e
k afka
ĠNav igation
Ġt ank
ĠRe pository
pack ed
D onald
Ġent rance
leg es
c ertificate
Ġg ang
l apping
ĠB loom
it ter
im its
Ġdetermin ation
s ensor
im ore
footnotes ize
Ġv el
Ġ` <
ad j
Ġprote ins
Data Set
Ġx s
DO MAIN
Ġfail ing
Ġob st
Ġ" @
s andbox
} ));
Ġmaintain ing
Ġpain ter
d ual
ĠRunn able
Ġne ck
Type Error
ĠMar shall
sp ons
19 33
ĠModel s
W arn
get Resource
ĠN ash
table Name
Ġattack ed
ĠD ak
stream s
able View
ĠGir l
cry p
Sem antic
f loating
__ ((
uc le
0000000 1
N a
P NG
insert Before
" |
m usic
Decor ator
c ue
Date Format
IR T
ĠT IME
Ġad s
Ġbio logical
Ġcol s
7 50
ĠL iving
ĠR ank
Ġqu otes
W elcome
Ġdatabase s
ĠCon verts
oler ance
19 35
W P
Ġaccord ance
Ġf unny
comp at
Ġrad ical
comp arison
Ġreg ulation
Further more
h c
ĠS ame
P OM
S uc
a verage
Ġunus ual
k v
Ġt ips
assembly data
é Ĺ
ĠFe ed
B LE
D ark
Ġaccess or
Writ ten
f ork
Leg end
itar ian
) ::
J NI
"] :
ĠDr ug
sub equations
p ure
w hel
SA MP
AV A
Ġconst rained
Ġext ending
ik h
Ġcheck box
ĠChrist opher
ĠMc G
Relation ship
Ġinter ference
Ġrep lica
ĠNet flix
Ġport ions
Ġri val
Ġip ut
C ook
ĠO PT
ĠSe veral
Ġencour aged
it utes
Ġk inetic
C fg
ĠAl ways
sc ience
Ġens uring
19 14
Ġf t
Ġaband oned
Pol l
Ġoverride s
Ġtranslate Y
ãĤ ¹
Upper Case
~~ ~
ĠSc roll
( ::
I ss
Ġlo ose
ĉĉĉ čĊ
S ock
und ant
mark up
Ġ' +
ĠK ra
azel cast
ap on
N L
â Ĩ
Ġfix es
Edit able
ĠD ir
Ġincorpor ated
Ġcontinu ation
Tr ust
RE EN
====== =
ĠL en
comp ose
Ġelectric ity
he ld
1 200
Adv anced
Ġra ising
Tra de
Ġw et
Col s
F K
Comp act
key down
raw ler
ĠM s
Ġcomp lement
as ures
ä ¼
Ġcompet ed
cred it
Sec ure
text sf
Qual ified
or um
Ref s
PRI V
vari ants
Ġplott ed
__( /*!
âĦ ¢
In c
Ġport al
Ġn ut
20 5
Re corded
Ġb s
Ġmod ifier
Wh itespace
dist ributed
lu ent
FI RST
aaaa aaaa
ĠVill age
sub menu
ĠTown ship
d in
Ġtext s
ĠUn known
i ction
× ©
con ver
ĠG il
elf are
ĠB ootstrap
Ġas ide
Ġcomp lain
ĠFre der
N ear
al ion
Ġg rey
pro cedure
activ em
}$ \
Ġa str
mark down
field Name
Ġretire ment
An imated
Ġequ ity
Ġmorph ism
Ġp ace
Ġn m
ĠB ot
Ġpeak s
ĠSp ot
mit ives
Ġhop es
es lint
ul u
ĠB uck
ĠW riter
ĠAnn ual
co ustic
ĠGL ubyte
æ Ģ
Ġle ak
b j
Property Changed
ĠPh D
3333 3333
Ġpro mp
Ġun stable
G D
Ġg ay
ph ones
Ġann iversary
de lim
ĠCo le
b anner
o z
ĠTime out
ĠCOPY RIGHT
left arrow
Ġanaly tical
Fac et
ĠI o
2 12
C ES
ĠH ero
Ġqu it
ah oo
s With
14 1
ĠH tml
Ġland ing
Ġbind ings
SPH INX
Ġbro ker
ath ers
un expected
Ġcopy ing
le ad
Re start
AB C
Ġev ident
Analy tics
Ġv ibr
Ġexam ined
Test er
ĠL iver
ĠTh ompson
ĠRe c
Ġindust ries
Ġset ter
Ġen abling
17 6
X HR
Ġtra ins
PL ATFORM
Ġro l
ĠUn iverse
Ġn b
att an
An onymous
^* _
Ġan imate
ĠCl inton
ĠS ho
k an
Ġconstant ly
Ġb le
Ġd Ã©
ĠG ENER
Ġconn ector
am ents
Ġtrans ient
mt p
Ġdiv ide
develop ers
ĠE lection
ĠG len
ĠMark ov
Ġmathe matical
datab ind
; ",
t icket
str cmp
sw iper
d rive
Ġex ceeds
Ġw s
ĠG alaxy
Ġpro ducers
Ġreg ulatory
Ġnumer us
ĠLeg isl
Ġback wards
De ploy
Ġcom ma
Ġcall able
Ġm art
ĠA CTION
ib lings
b ast
hard ware
IN F
ĠJo in
Ġefficient ly
RO ID
ĠByte Buffer
Ġ# ##
| _
ĠL ists
we alth
Ġapprox im
izz le
Action Bar
) }$.
Ġdead line
Cast le
Ġstation ary
Ġs lots
Ġtable Name
: {
om aly
Ġbu ying
Ġestablish ment
) _{\
Ġoper a
. %
H ours
ap ing
Ġal gebras
cite alt
loc ities
tr ansp
Ġrule d
is an
ĠM T
). __
ST ORE
Ð½ Ð¸
Ġtrack er
é Ļ
Ġl ung
ann on
Rep licas
ĠN A
il og
on load
Ġ> ::
Ġmem cpy
19 29
Ġident ifies
ĠEcon omics
With in
Ġconsider able
ĠCon cept
ĠIndones ia
ĠP ad
Ġdis contin
STR A
avor ite
Mar shaller
ĠArch ive
Ġaccompany ing
ĠS imp
small skip
)) ]
ĠIgn ore
Ġme tab
Ġminim ize
Ġthe ad
Ġf antasy
ĠT imer
*) "
ĠĠĠĠĠĠĠĠĠĠĠĠĠĠĠĠĠĠĠĠĠĠĠĠĠĠĠĠĠĠĠĠ ĠĠĠĠĠĠĠĠĠĠĠĠĠĠĠĠĠĠĠĠĠĠĠĠĠĠĠ
Ġg c
\, {\
External ProjectPath
Ġm ilk
S en
scri bers
Ġre n
ch romium
Ġinter views
Ġt act
Ġt ex
w ant
Ġcontribut or
Ġed u
Ġform ally
exp licit
Ġre write
ach inery
g ium
Ġ? ></
}) ();
re peated
Ġsp okes
ĠT rib
Ġreput ation
ST ER
Off ice
U X
est imate
Ġimp lications
LOC ATION
Spe aker
Ġclo ses
F em
CT X
mp eg
Ġly rics
E CH
S olver
Ġjo y
Global ization
Ġe u
Ġdo ors
ĠY ang
Ġconf ront
D ue
en h
\ }.
full screen
Ġconflict s
------------ ---
S un
Ġst mt
ĠIsra eli
ĠWal ter
ĠFor um
Ġintro ducing
ĠJ os
f ab
Ġfor cing
Node Type
H on
subscription Id
Ġmay or
ĠS ales
Comp ression
remove Child
Ph ot
Ġdocument ed
b olic
Read able
ĠJO IN
Error Message
ĠElect ric
Ð¾Ð ³
Cre ating
les cope
EM ENT
l arg
n oc
Ġk o
Cell s
ĠSpe ed
at ers
el lo
cre st
Short cut
Ġeigen value
Ġag greg
d ip
Ġp up
Ġb unch
xxxx xxxx
Ġc t
Ġf iring
ĠSh ip
Ġaccomp anied
ĠB ab
T im
Ġpos sess
Ġh ang
Ġnon zero
ĠS L
Ġjust ify
ĠDe velop
LI BR
Ġimport s
Ġm b
ĉĉ ĠĠĠĠĠĠĠĠĠĠĠ
ĠN ap
linked ExternalProjectPath
ĠNE W
ĠInput Stream
j peg
CI AL
Level s
ĠOk lahoma
ĠJ av
Ġeffect iveness
ĠP ear
00000000 00000000
ĠCon sumer
t oday
iv ation
Ġm ice
mux er
em a
x p
Ġp ose
In Progress
Ġj q
} ");
ĠP red
Ġsub sets
cess ion
Re call
Ġauthor ized
get Content
s al
He art
res ume
Ġt ort
ĠQue stion
ĠAnton io
comp ression
DI F
Ġvulner able
web site
ĠP ick
ol ine
Ġsub mission
Ġcon tr
ĠFl ash
ĠG ray
ĠD J
Ġd ating
arg c
ãĢ ģ
ĠLo gin
- }
H i
an ne
ĠC onse
ok u
ä ¹
Ġf lip
ĠB la
Inter action
Buffer Size
ac cordion
file system
BUILD DIR
dir s
Ġ$ <
man ded
Run nable
ĠM ort
( ...
ens ively
ĠAR M
ache l
Ġsem antics
fac et
ĠSh adow
f ather
o ses
ĠAl an
/ </
(" ../
Ġcor rupt
Ġmus cle
Ġmand atory
ĠAtt orney
Up grade
ĠPat ri
h ass
_ "
url Params
quot a
C as
")) )
Ġtoler ance
Ġobl ig
ĠG T
Ġextra ction
m ir
eq z
Ġserial ization
ĠU rl
ĠC er
ĠH ell
Ġsub tract
Ġstop ping
m otion
ĠH ad
Ġst ride
Ġge odes
ip v
Ġdec rypt
ĠEqu ation
model Version
ĠUk rainian
Ġconcat en
SE L
Ġcolle agues
D EN
p ressed
Ġagric ultural
Ġcosmo logical
Ġover ridden
m outh
Ġc ategor
ou red
LA S
Ġpop ulate
Ðº Ð°
Re fer
ĠAtt ributes
or us
ĠB etween
Not ice
AIN ER
j amin
Version UID
Ġaver aged
Ġuse Capture
github usercontent
Ġelect rical
G old
ĠC ertificate
Ġw arrant
A x
H alf
SO CKET
Ġinject ed
ĠMiss ion
Ġte a
Ġver b
D ROP
ri o
some thing
Res ume
ah n
eh icle
altern ate
H our
class name
ew ise
big cup
Ġleg it
u o
Ġ\ }
no op
f lip
Ġpure ly
à ¦
Inter ceptor
Ġcor related
TOOL TIP
soft ware
19 10
F acebook
Ġb es
Sub scribe
ĠJ enn
Ġpo le
Ġbr illi
Register ed
ĠĠĠĠĠĠĠĠ ĠĊ
with in
cho ices
W heel
Ġco aches
ĠPublish ing
ĠS ent
Ġtrust ed
Qual ifier
ĠMon itor
C ARD
can onical
Z ERO
r ane
Ġover come
Ġcrit ics
Ġp ip
name of
S aved
Ġport rait
Ġscreen ing
IFI ER
!! !!
\ }_{
SC A
al ph
ĠDel hi
sc ar
ĠDel ta
Th anks
Ġb ull
Ġcons ume
ĠSh im
Ġ ----------
Ġt xt
ag gregate
l av
get ter
sh ot
ĠTool s
Ġdiss ip
IL S
8 75
is Object
time zone
ĠAl bum
ĠDA MAGES
ĠPROVID ED
ĠA BC
Ġuniqu ely
Ġsuper Class
ĠDes cript
Ġreview ed
ĠRob inson
ex clusion
Ġinter sect
b uff
FILE S
Ġleg s
Ġbefore Each
#### #
serial ization
P V
ĠÐ½ Ð°
Ġexp ose
40 3
Ġco gn
UR ATION
ik ing
Ġs nap
Ġdecre ased
RAN GE
Ġh urt
ene z
onom ous
W as
get Parameter
event Name
Ġpri ze
ET HER
ĠINCL UDING
ins ide
Ġst rain
f are
ĠPro to
ĠTemp le
table View
Comb ine
ĠMap s
MB OL
Key words
B ob
ĠG ot
ĠCommon s
auto ref
Ġlo dash
ĠUn like
Ġcar rier
re ction
ĠM aur
Ġmeas uring
Alex a
Ġdifferent ly
Ġhead quarters
L ater
19 28
Ġsuffer ing
g wt
E V
({ "
Ġrepresent atives
Dev Div
Ġdata Type
Ġclip board
Ġb ins
file path
ra st
åĲ į
al ib
lu ck
Ġdialog ue
Ġf ought
Al bum
Ġ' ../../
Work s
å ¾
ass ociated
mit em
w c
Ġis omorphic
cri bed
Ġinsp iration
Ġsing ing
Ġre ception
Ġto m
ber ta
Ġs oci
Ġs ons
Ord inal
P ick
i ations
Gr ant
iv ari
ĠL INE
Ġsudden ly
ens upport
lect ic
List Result
ME T
_{ -\
de sh
Ġm appings
N umbers
Of Type
ĠJun ior
currentTime Millis
G allery
t ically
Ġf unded
it elist
="@ {
ĠBind ing
Ġd uplic
ru id
Ne ed
Ġb orders
Ġv irt
ĠQu ick
Pre parer
bas ename
ST OR
Ġurl s
sur ance
sub scriptions
"> -
ĠPo isson
Ġtra its
Ġde coding
ĠBru ce
ĠA CT
Ġpr inter
ili ation
ĠSH ALL
I l
ack s
19 32
Ġhe aded
ĠMarket ing
b ib
un wrap
ag ar
ch t
Ġab c
as ant
Ġuser Id
Cent ral
re moved
imp licit
Ġprov es
Ġper ception
ro se
v ik
Ġ_ ("
Ġsac rif
Let ter
' /
Ġrare ly
ĠAn na
ĠS ac
Ġdirect ors
Ġp as
d g
Ġpar ish
ĠDub lin
ang el
Ġr um
Big l
activem q
C riterion
it ations
Ġb orrow
Ed ges
Ġt ends
3 30
Ġoff ense
align ment
Load Balancer
he ses
Ġde light
20 6
an imated
plus plus
Ġconv inc
inc ial
Interop Services
Ġprint ing
Ġswitch ing
Ġfac et
Ġance stor
Ġb ird
Ġco herent
com bo
Des ktop
ĠMic hel
= */
Ġ" \\
15 00
Ġthink s
xy z
Ġampl itudes
ud ge
ĠLeg al
id ity
remove EventListener
C ls
Ġground s
test ng
ĠLe ader
ĠB P
Ġt t
iter ation
cont ribs
Ġal arm
= $(
Ġv ic
/ ",
Ġinv asion
Ġappoint ment
ĠF ill
Ġdescri ptions
Ġd p
Ġsh ifts
D st
control led
r ub
ĠW ik
Ġsim ulate
åĬ ł
< '
n at
ĠP D
15 3
Ġ\ {\
Ġreflect s
Dat um
me mitem
ĠH ub
ĠS lo
ST ACK
ĠCh allenge
fe ctions
ĠMar vel
Product s
pl er
Ġliter ally
Ġt ension
Ġimpact s
=-=- =-=-
art ist
ain ed
++ ){
P ressed
ĠS ex
ãĤ ĭ
Ġtra p
ĠH lo
off ice
ĠCoun ter
ĠScal e
w al
Ġin fin
}) =\
ĠStat istics
Ġapp ended
enc ia
Ġrec ru
e u
Ġ[ &
or ters
th anks
Ġadmit s
ed mo
nt hes
ust er
Dis posable
ĠOr leans
}[ !
Ġc able
' %
q p
adv anced
En ergy
Ġ× Ķ
ĠAss istant
SA FE
& )
o ir
CK S
Ġ" ."
(' ');
Transl ator
ĠF un
23 4
× Ĳ
ĠT err
Ġan th
:: __
ĠY A
ĠRus sell
ĠF ailed
st orm
AR S
Ġanaly tics
PH A
Check sum
c xx
ra co
ĠQue st
s ized
Ġlimit ing
Check point
Ġb ary
av al
ĠÎ ¼
p ension
Ġc ry
Ġrel ating
Ġ} ];
Ġlabor atory
C Y
ĠP ap
m igration
19 4
Qu ad
ĠPe ace
Ġ{ $\
ĠUn fortunately
ĠAPI ENTRY
re comm
Ġear liest
CF G
ĠSt ories
ĠBe aut
ĠH unt
ĠH ills
cur ring
Ġb ip
\, ,
Members hip
Ġp name
Ġher itage
nav igator
SE QU
y ll
16 7
stat istics
æ ģ
Ġpass enger
Ġde si
ĠMat thew
reng th
Ġwalk s
Ġis olate
og a
da o
Ġst adium
Ġaccept ance
up on
Ġselect ing
Ġmer ger
Can onical
U id
ie val
åı ¯
p ip
Ġbuffer ed
mode s
topic data
Re quires
æķ° æį®
Ġin fra
H uman
ri el
s af
ĠB os
ĠD ays
sy mp
Ġmultip lication
th a
ĠBE GIN
ĠA bs
Ġspect ros
ĠRead ing
fo od
) ")
igh ters
Ġfiles ystem
Ġtax es
ĠI con
ĠN V
g md
Ġg al
ĠM age
get Column
ĠN ear
Ġtransform s
) ])
ĠS now
Ġamong st
TE MP
port al
Ġbe er
Ġp d
Ġsuggest ions
ĠStud ios
x path
ĠVer tex
t rip
Fe bruary
Ġcluster ing
Ġenter prise
WINDO W
ĠL ex
per f
oo f
Ġres idential
Instance State
tr ust
Å Ľ
ue se
Se par
BYTE S
Ġwer en
Ġinterpol ation
STRA INT
i ors
ĠN ASA
19 22
G ap
Ġan isot
ĠB lood
Ġt v
^^^^ ^^^^
text Content
dispatch er
il ot
qu arter
Ġcre ator
Ġ è
power ed
ĠN i
Ġy esterday
ĠArg uments
C artesian
Top ology
J oint
Q String
c ms
Ġvar ies
cord ova
Ġtemp le
Ġsl ider
on er
on ge
Token izer
SEPAR ATOR
De veloper
ĠEq s
rum bs
Auto Fit
Compar er
ĠLouis iana
Ġdip lo
Ġlo ud
et he
Ġco variance
ĠUnsupported OperationException
Y LE
Ġsub net
Ġrecon c
y ii
Ġmask s
ĠV ari
sco ped
Ġ` .
null ptr
draw er
Ġto w
Par sing
Ġvill ages
del ivery
Ġho spitals
ĠSw iss
ĠResource Manager
ĠF ermi
number Of
Ret ention
m gr
D N
n k
ĠAng ular
Aud it
h ours
oid al
b ias
ĠFor ces
ĠCar lo
ĠTh ailand
ĠInt elligence
6666 66
G lyph
O U
Det ection
Ġdisap pe
let ics
ĠF el
ĠDoug las
Syntax Kind
Ä «
ĠA CE
Ġreported ly
Ġun changed
Aff inity
P ixels
19 3
': '
TR IG
mid i
am ine
ĠCall ing
å¯ ¹
SUP PORT
bug s
Ġar med
Ġside bar
Prec ision
h ai
ĠArgument NullException
ĠP K
Count s
Ġresp onded
Ġprom ising
19 24
Ph ys
/ @
Ġin finity
home page
Willi am
Ġsynd rome
t utorial
Ġmod erate
Ġâ Ĥ¬
Ġd inner
Ġres idence
ĠM oney
Ġplay list
ect l
UST OM
experi mental
ĠG em
Ġremark able
Ġre lies
Re covery
ĠR ain
Ġvari ability
ĠCONT ENT
DF S
dis p
client s
Ġh ip
Combo Box
ĠH ook
ĠRe quire
de serialize
new Instance
Ġsur rounded
ON SE
Ġd c
Al ways
ĠS ay
prov ide
^+ $
Ġcons ist
â ĪĴ
ĠT EXT
b roadcast
S ens
Ġin ser
con struction
K V
ĠChair man
Ġrelax ation
Ġd d
æĪ Ĳ
Ġcon sp
Ġsp ell
Ġad vers
B ubble
Ġin ventory
Ġdemonstr ates
Ġattract ive
, âĢĻ
ck o
Ġfound ing
ĠFile System
Ġtest Get
ĠAnd y
Und o
r df
ard own
ãĥ Ī
) }$,
ub ectl
ĠData Type
$ --
Ġdis connect
ed ition
Ġb ump
18 7
elect ron
M or
cur y
Sc enario
HEL P
ATE G
Ġgeneral ization
\ ">
p refs
Ġnomin ated
, %
ĠAfghan istan
Se ed
ĠNe uro
Ġimmun e
Ġv ir
ĠRE F
Form er
ĠL ane
Ġun ity
Ġprem ium
Ap J
Ġin complete
ĠD un
pe ek
Ġmem ories
en umer
Ġd amp
ci ence
Ġretain ed
Ġgr ants
ts burgh
s To
ĠM aj
Ġ ist
å ·
: _
Ġch amber
EXT ENSION
Ġint ellectual
return Value
W F
nt z
ref lection
Ġj azz
R NA
Pol icies
'] :
Ġpol ling
Ġsimpl ify
get Mock
M us
Å «
ĠAn no
+- +-
fall back
Ġsurpri sed
im ir
Ġocc urrence
ĠRel ation
s izes
Ġstart Time
Ġwalk ed
ant on
ĠU tah
scal ing
ĠE ither
D J
ĠF red
({ '
dis connect
ĠJud ge
Ġdis ag
open ssl
Ġ<!-- [
Ġwe ird
am ination
Ġanal yst
Ġwed ding
get Child
30 2
c ancellationToken
ĠB S
gin x
Char acters
Time line
ow ired
Ġz ones
ĠF M
ĠBase ball
ĠĠĠĠĠĠĠĠĠĠĠĠĠĠĠĠĠĠĠĠĠĠĠĠĠĠĠĠĠĠĠĠ ĠĠĠĠĠĠĠĠĠĠĠĠĠĠĠĠĠĠĠĠ
roll ment
ap ro
Ð° ÑĢ
re pr
b ac
ĠB ou
render ing
ĠDo ctrine
prof iler
** /
Ġr and
OO GLE
Group Id
v oice
Ġperson ality
Ġstr m
W hether
Ġ unt
son s
Ġflight s
Ġath letes
r n
Ġsw iper
Ġra p
le b
ĠW ard
Manager Service
Ġexplo red
Ġfish ing
w g
. ),
Ġ` _.
{ ``
Check Box
ĠMiss issippi
Ġtermin ate
re porter
Ġdecor ated
es ium
ĠE SP
Record er
l ng
}} ,\
19 31
As sets
Ġinvolve ment
DA O
Rober t
S u
al go
acc um
et ry
17 2
g log
ĠCh ron
ific ant
"] );
B ul
Ġsamp led
ra ils
ord ova
æĸ ¹
ĠAust ria
Ġcon form
iz ar
Ġz eros
us hes
st retch
ĠRe member
H its
c ards
ichol as
m ul
ĠIn clude
G l
ĠT ouch
Ġdevelop ments
Local ized
ĠTer ms
Ġfinish ing
apid oc
Ġiterate e
R ol
d ifference
ab etes
Ġf ires
Ġgener ations
quot ed
ĠMon o
PIX I
Ġde letion
Log ic
start Time
VER T
Ġpopular ity
ĠCon tains
ate ful
co uld
REG ISTER
A ck
* -
ĠS olar
ĠTrans fer
Mouse Event
ĠCamp aign
c plusplus
Co ords
Ġconver ter
19 01
17 8
Ġconj unction
ĠMin or
ĠTech nologies
get State
in ces
CCCC FF
_ '
google api
rog ate
Ġsome how
Ġmar ine
co uver
ĠD ol
T witter
Ġag gregation
ĠB arn
Field Type
open ed
ĠAd ams
Return Value
Ap pro
GLE W
ĠAnaly tics
Ġap artment
B oot
Ġp df
Re m
Ġch iral
Ġcons umed
Ġc anceled
Ġh ired
ĠS quad
ĠM yst
IF ICATION
ing ers
Wh ich
ĠPolit ical
ĠE dd
Class Loader
Ġpat ches
Ġsort ing
Ġconver ges
P ATCH
id i
Not ifications
Ðµ Ð»
al bum
th ink
Ġparse Float
Ġserial VersionUID
Ð ¡
ĠF F
Ġch ronic
Web API
ĠAR ISING
Ġaud it
æĸ °
G UID
From Range
s ar
Ġatt ributed
pro files
dis miss
Ġtext area
ĠG B
Ġun translated
break ing
% =
emp hasis
M ATH
E sc
ĠG MT
Ġpo em
Ġabs ent
P ause
19 27
ĠUp per
Ġillustr ate
ĠN ur
Ġr ush
ĠPro duction
ia o
Ġsole ly
ĠF O
& ,
ĠPl anning
n orth
Ġnot ing
K B
ĠT S
Ġj ack
Ass ume
Ġsur ge
Ġst uck
Ġentang lement
n atural
ĠR iemann
Ġiniti ated
âĢ¦ .
Ġcar ries
dd dd
le in
Ġelimin ate
Ġc ited
AL TER
b uck
ãģ Ĺãģ
ĠDeep Copy
ĠW right
Ġhe ll
Ġspeak ers
Ph p
ĠEp isode
G ate
ver batim
Ġstd err
cur se
ivari ate
s outh
ra ge
ĠP ast
res erved
ield s
Ġsens ors
Ġmut ual
ik o
ç ¤
CharacterOffset End
CharacterOffset Begin
ar ial
Al ive
YY YY
15 6
;-> <
over set
cond itional
ĠImp act
ĠLI ABLE
Con d
str len
scal atest
oused own
ĠIn f
Ġfem in
| _{\
Ġt ennis
ĠR OW
ord inary
ĠEX PRESS
Ġrepeated ly
st udio
åĪ °
Ġun e
ĠEx port
Fact ories
s chool
Ðµ Ð¼
Url s
Ġtang ent
US ART
Ġphys ically
Ġperson ally
ĠMed al
ic he
ht able
h um
Ġa jax
ad vert
30 3
computer output
ir ates
pack aging
match ing
Ġcontact s
an other
writ able
ĠHistor ical
Ġfacilit ate
X R
OP TS
j j
A dapt
ib us
ĠRout er
B bb
ĠM AC
ape ut
ĠStr ategy
Ġvalid ated
Sp ot
r ice
Ġan ten
EXCEPT ION
ĠB oost
Ġquot ient
ĠC MD
co ck
ĠSequ ence
ro ut
alex a
w y
× ŀ
Ġm oral
tag on
Ġproject ive
close st
Ġsoc cer
R en
] '
ĠS I
Ġcontribut ing
Ġdram atic
ĠTest Case
te in
ast ed
lot te
B oost
Call er
ĠPho enix
L AN
Ġco ding
Rec v
id le
oc olate
Real m
apim achinery
ĠT an
Ġde ps
Ġfeel ings
MEDI A
ĠF ly
An ce
Ġindu ces
ĠRepresent atives
Ġsh rink
Ġview ing
WR AP
ri pple
ĠIs rar
ĠLaw rence
ĠCl one
8 90
Ġr ings
D rive
lect ric
d raft
Ġexp ired
( |
Ġh istogram
test Data
har mon
Ġgather ed
Ġsign atures
avi our
ĠE M
ĠE T
Al arm
uer to
Ġlo b
ĠAssert ion
ĠIter able
co d
EN O
ann o
Activ ation
ĠF ried
ĠM unicip
Ġsub scribe
mod ify
A fric
Ġn pm
block ing
Extract or
ĠR GB
pro jection
Ġdepict ed
Ġex clusively
assign ed
ä½ ¿
æģ ¯
ce ut
19 6
A mb
m irror
op ter
iv an
Ġid le
Ġpush ing
Ġsup porters
Ġsub section
B ol
Ġanalog ous
ĠM ade
definition s
Middle ware
Ġspecial ized
= -\
Ġe ating
ĠTo gether
66 6
SE ARCH
ll ing
or ship
Ġel s
Un less
my Item
Co ordinates
VO ID
Ġre nd
Ġguarante es
Ġb om
Ġres ident
ĠQ Unit
>: ][<
>? [<
d ense
Can adian
li ps
ĠP i
Ġbright ness
Ill uminate
E t
Ch apter
Ġover whel
End ian
it uted
doc utils
Ġsp ots
Ġsecret ary
Ġsp rite
18 8
Ã© n
ç ī
Ġcour ts
ĠM and
Ġwh ilst
Ġhe ating
Ġtrans it
64 0
} <
Ġad mission
defer red
Ġposs ibilities
ĠM ir
Ġi NdEx
new Builder
Ġag enda
un ty
h is
Bit coin
g co
Ġd up
ĠUp on
FOR CE
und a
ĠReg iment
Ġcritic ism
p ine
Ġg ent
Web Contents
Mock ito
c make
Ġharmon ic
Ġel der
Ġcontra diction
Priv ile
ĠF o
ĠK on
Ġin duct
ĠB order
Ġdo ctors
Ġflow ers
B ay
fl are
quick fix
è ¾
set Timeout
Ġinst ability
ĠAT TR
gro ovy
Ġimp osed
ĠR ules
Ġgra ce
Ġre ven
li me
ĠL am
G edmo
p ixels
Ġf ert
PRO GRAM
ĠB B
ar ms
ĠC annot
ĠW a
Ġl as
mon s
ĠFR AME
n umbers
"> $
Pro mpt
Ġtime line
, &
Ġmk dir
Ġbehavi ors
E lastic
em ies
BIN ARY
ĠF ern
UP T
Ġfor got
Ġcampaign s
Ġaccess ing
B SD
p ager
ĠP ref
ĠL GBT
19 25
arma ceut
SCHE MA
ĠT ob
Ġact ively
ĠQ CD
err er
0 39
ãĢĤ </
DE CLARE
ĠSam uel
re cursive
Dist ributed
SPE C
ĠSp irit
ĠG round
test case
... ]
E ducation
H old
ĠA le
f ollowing
Un safe
Ġlik ed
ĠTra il
Par sed
Ġdynam ically
Ġmanufact urer
ĠCons ult
ĠG as
Ġkit chen
19 12
ROWS ER
ĠA w
iv ar
ĠIn tegr
Pl umb
ĠMet ro
CR YP
append To
bro ker
ĠSerial izable
D lg
} ~\
Ste ps
ĠMor ris
V iol
ĠK am
Glob als
le st
Ġtra v
we ets
ĠH unter
ID R
Ġread able
ĠChar lie
P aired
re levant
æİ ¥
cook ies
Ġr anks
jav adoc
B ulk
Ġco ck
Ġemer ged
ĠPh ysical
Ġoption ally
Ġmut ex
[] ):
Ġpan ic
ĠCon vention
rel ax
Ġgraph ic
7 20
Ġb la
P UBLIC
lo red
ĠCh ile
Ġrun Test
Ġl ap
Ġmut ation
Ġcelebr ated
M IL
ĠRe vision
m apped
Ġarr anged
i Äĩ
ut c
Ġdecl arations
ĠBrook lyn
ĠE lastic
Ġp ane
Ġout break
Ġweak ly
document Element
g el
Ġcon clusions
ĠU LONG
m ia
Ġm ild
PRE V
met ries
åĽ ŀ
i u
Ġr uling
Ġjournal ists
Ġdis joint
ĠJaco b
Ġnew er
VID EO
Ġst ere
Ġres ort
Ġconnect ivity
Ġgain s
es c
Ġprevent s
Ġdriv es
b w
ĠF em
Ġam id
19 21
ÏĦ Î¿
L atch
tr an
ĠN umer
Ġsitu ated
Ġin cl
Ġex ported
Ġrecord ings
Comp uter
Man age
Ġmusic ian
Ġroll ing
ĠKen ya
Ġj uris
Ġparticip ating
Ġjo ins
ĠIgn ite
M ixed
D ns
site info
ĠF an
yy yy
Ġtermin ated
Co ver
ĠSt ri
Up dater
Ġcompens ation
itud inal
Ġget attr
ĠLeg end
ĠCar ter
ĠDi rac
ĠPo pe
Ġf illing
Ġco res
Ġget Type
iss ance
Ġm om
() (
ĠPet ers
C uts
Ġmo on
Ġcoup les
Ġstar ring
Ġskip ped
b ay
the s
Ġche ap
R B
in ian
Ġb reed
Ġa u
P aste
De g
ĠSpec ifically
Ø ´
v skip
Ġde sktop
ĠPe ak
Ġin struct
Ġconfirm ation
Unmar shaller
Ġen umerate
E s
Ġj ar
}} }}
ĠSTDMETHOD CALLTYPE
A ES
t g
top ology
Ġorgan isations
ĠHar vard
r ug
Ġw id
ĠS audi
rg ba
Ġkey words
XX X
vis ory
ĠS ans
ĠIN TEGER
Ġgl ad
ft en
Check s
ĠTur kish
process ors
] []{
z oo
ĠA bb
Ġd owntown
ĠS IG
ĠFor ward
track s
ĠM ach
`` ,
g pp
get Last
Ġformer ly
ĠV iol
Ġra ises
26 2
ç §
Ġp uzz
Ġout door
oper and
Ġ' .'
Ġpre val
set Enabled
dig it
FORE ACH
' $.
Ġhard er
Ġcloud s
. ).
s ites
nol imits
C amel
Ġviol ent
st ride
ĠI M
to UpperCase
ens is
28 8
"] ["
ill ance
Ġsearch Box
Ġsimpl ified
Ġscal a
/ ~
l iving
Ġb oo
Ġadmin ister
Ġle an
ĠR C
decl type
ĠSe pt
uck er
Ġcompet ing
Ġ --------------------------------
19 26
b v
>. <
F G
[] >
Ġth reats
19 23
omb re
ĠP lat
con version
l iter
âĢ ¯
URI Component
Ġb ol
str m
ĠSt ra
ĠCent ury
ĠMe asure
pot ential
is abs
ĠA bra
L ittle
g ression
emp t
ĠG ary
Ġdistingu ished
Ġfile path
Ġdem ocracy
im als
pers ist
ien na
s imp
L int
App le
Click ed
Field Location
Change Listener
ĠPolit ics
ĠR ails
Aut owired
e con
Ġhost ing
ĠEnter prise
Ġoccasion ally
ĠE L
Hy per
Ġr ugby
ĠCOMM AND
Ag ain
Tool Group
da emon
s lick
Ġpre t
Ġc tor
g ue
ãģ «
ĠA qu
Ġref erring
Contain ing
ĠG M
get Request
Ġc ameras
18 5
file Path
mask FromRange
As semb
qu eries
ĠShe ll
Ġre ign
Min or
Ca ption
ĠA G
Ġaccomp lish
Ġst ating
date Format
Ġperturb ations
Type Symbol
Big g
Ġbirth day
Red is
ĠConnect icut
ĠC leveland
set ter
b ird
der ived
pri mitive
ĠPra desh
æ³ ķ
ra ctions
pre pend
With Arguments
16 1
HP P
ĠS IGN
ĠWH ETHER
se to
ĠRe views
lo dy
Ġgrad ually
get First
Code d
ĠW oman
add er
start ing
ĠT x
if s
Ġlocal ization
n it
; :
Ġexpl oring
| =
Ġtraject ories
Ġve locities
X T
ĠBroad cast
Ġde formation
il inx
ĠT oo
se gments
NS Dictionary
f ixtures
dis crete
pattern s
ĠI NS
c rop
h aw
ĠOTHER WISE
For Testing
Code Attribute
ĠPal ace
th al
Ġi e
> ().
w r
Ġimp er
Ġk ine
clo ak
ĠSt orm
Place ment
Ġconst itu
ĠGra ham
Ġcosm ic
ĠR s
ĠTe levision
Ġsurve ys
Ġco operation
As pect
class Frame
ĠØ ¨
Ġali ases
COMP ONENT
ĠP air
form ats
Ð°Ð ²
il io
im ity
ric ane
SING LE
4 32
re z
ĠConst itution
Ġassoci ations
cl ing
NS Array
Ġaccount ing
N ay
at tack
Ġvo ices
Ġliber al
Ġpr ono
Ġdist urb
f und
Ġm as
view er
Ġcompar isons
Ġin aug
Ġsubst itute
Ġcri mes
ĠE E
20 9
render ed
g ene
Ġown s
LAB LE
alloc ated
ĠD T
c rit
å ī
__ ))
pen ses
ĠImmutable Array
Ser vers
âĢ¦ ]
Ġinitial izer
sv n
Ġdrink ing
ect ure
le asing
ĠH W
ul in
index es
Ġvan ishes
Ġc aching
ĠAct or
Ġcontinu ously
Ġp k
not ice
ub a
p assed
IsNull OrEmpty
ĠS ustain
do xygen
ĠNever theless
0 22
S che
Ġ lying
ĠOb serv
Î ®
Ġcon formal
ĠC B
ĠJ ess
c rumbs
Ġf f
Ġb undles
00 6
OR ITY
qu iry
ĠInt Ptr
get Field
Ġme l
Or Builder
Anim ator
re cent
urren ces
\": \"
o j
cer pt
H op
>< ![
ĠUn iversal
Mode s
Ġsimp ler
b ia
Ġalloc ator
Effect s
Ġpower ed
ĠN aN
her o
S COPE
ĠH R
Ġbl end
Ġm v
Ġvis bl
Ġmechan ics
w char
Ġis o
j ump
ĠT ORT
Big r
Ġo mit
Ġthick ness
ä ¾
ĠP ipeline
ĠWrit ing
Ġis lands
Ġdam aged
Ġtum or
ric ulum
å ¸
Ġin tern
Con str
ĠWith in
Ð¸ Ñģ
orph ism
ĠR ing
19 16
M and
] []
c ategor
ur istic
opt imal
ĠJ uan
Ġblock chain
F raction
ĠP RE
CL R
) ((
position s
armaceut ical
ĠK ings
Ġinteract ing
ps y
Ġexception al
Ġpotential s
Ġb ike
ĠL D
Ġb a
ĠF etch
S vg
Web GL
Present ation
oo led
ĠTh ink
ĠM other
ĠÎ ±
Web Kit
ĠArgent ina
as pect
SY MBOL
W rapped
Ġdis aster
Ġconf ident
Ġsever ity
Ġdi amond
Av ailability
ĠDen mark
Ġtech no
Ġf rozen
Ġautom ated
Ġ\ '
ĠL anc
Ġstruct ured
omet ries
ĠArch ives
S af
ĠF ed
Ġless ons
Ġtravel ing
iv als
Ġexp atriate
Mon o
Ġclick ed
io let
ĠE mb
u ition
s low
ul ators
US A
ĠSub ject
end um
ĠP P
k r
Ġprogress ive
is olate
Ġclass ifier
}} =\
or bit
con verter
ĠF ame
Ġmin us
T ap
24 5
form atted
g fx
Re peated
-> __
Ġlo yal
Ġb uff
iv ative
Ð°ÑĤ ÑĮ
Ġwrit able
Ġfor k
Rot ate
Ġg host
base Url
ĠB ible
Ġaccur ately
thod ox
ä¸ ĭ
ak ai
or ian
Ġcomp anion
ps z
ĠSt and
Ġill ness
look ing
Ġinsert ion
get Object
Ġdiff ers
Ġgra in
ĠT AG
Ġa coustic
ĠCon n
Ġpass age
Proc Address
av ail
exec utions
\| ^
Ġintegr ate
PASS WORD
ĠC RE
ĠA de
up dates
Ġs ugar
ĠOr ange
ĠMin i
ĠC OR
ĠF ollow
re search
sh aped
ĠC el
S pl
iline ar
lev ance
Ġafford able
Ġtw elve
String Value
ĠP un
en viron
Ġthrow ing
D s
å ±
me tal
Ġle ase
C LOCK
Prop el
ic ating
ĠDist ribution
. (\
ld ap
ee e
Require ment
ĠP aint
ĠN elson
Ġj ets
ç¤ º
con j
ĠComp iler
macro def
ĠI PC
ĠEx it
S IM
Ġde ck
ag ain
Ġcomput ers
ĠSte el
ĠDE LETE
z k
Ġiniti atives
p reference
ins pection
uzz y
Ġsingle ton
oper ative
Ã Ĺ
OLD ER
T iming
Ġcons iders
Sub net
= /
Ġplan ets
Ġm ilit
Ġ' ?
16 2
Temp orary
Ġvar ied
ĠK night
Ġbut ter
Ġch urches
Ġreg exp
d ap
16 3
ĥ ½
ard ing
ud p
dev tools
ĠImp lementation
Ġevol ved
Ġwire less
w ifi
18 90
Sto ck
Mov ie
ape x
get Source
) ~
Ġcol lapsed
Inter rupt
Ġlinear ly
Cour se
Ġh ill
Ġme th
Ġtempor arily
ĠSc ene
App s
Ind ian
ĠBar on
Vert ices
ĠLiver pool
Similar ly
Ġcra zy
ĠDescript or
b la
ass ador
ĠE TH
PE D
ĠCre ative
l ar
ĠClin ical
f abric
re aded
Int ro
pol ar
di agram
18 2
Ġrel at
ĠD ance
Ġy aml
ĠF ab
Ġdev oted
ĠPortug al
Protocol s
> ());
Ġ* ************************************************************************
pers istent
Ġdro ps
Ġ= &
Ġnav igator
C tor
Ġ" ).
chi at
ĠSe gment
ĠDet ect
Ġsw ift
Ġan omal
H am
ĠR M
loc ated
uch y
Ġshe ar
ĠChe f
Ġac ute
Ver bose
Ġappreci ate
ĠU g
ĠV ent
hom ology
18 4
L u
ĠB ed
lov ak
Ġret ro
f ive
Tr ansp
ĠSte wart
ĠB R
in burgh
Ġs d
bo unce
k ie
Ġ* >(
ow s
it us
get Num
00 8
le ter
Ġinvest ments
Ġde duce
property Name
Ġsemantic Info
ĠJ u
Equal ity
Ġbug s
ĠL ag
19 15
ENT S
Ġent ers
TH IS
) ],
get Next
cre ator
embed ded
Ġ ë
Ġpreced ing
sh apes
not in
ĠT Type
Access Token
hy dro
it ness
Ġjun ior
ĠInter ruptedException
Ġon mouse
17 9
` _
play ing
ä» ¥
Ġsur f
Ġ$\ |
new Value
In gress
Fetch er
Service Client
Pro be
Ġcoup lings
O lymp
ĠW ire
Ġview ers
H a
iz za
Ġname spaces
Ġc ler
}_{ {\
ĠClass ic
ĠGir ls
S ched
åŃ Ĺ
" '
Ġpol ygon
ĠWARRAN TY
Fall back
Ġt ropical
over s
ĠReg istry
ĠB lob
) |\
ring e
def group
Ġsk ew
v dots
Test Utils
ĠCG Rect
New Error
Ġnode Name
ira cy
ĠAnt i
Ġg aps
Ġcommand er
Ġra mp
at ched
Ġhop ing
Ġfol ks
ĠM ongo
dition al
Evalu ator
Embed ded
RE SH
sm ooth
Generated Message
. ">
ĠPhil os
Ġfraction al
Ġb alls
File Info
ĠLOG GER
ĠK ur
ment o
ĠB art
ab ad
Ġst er
Request Id
r ising
ĠA ch
Ġrom antic
Sp in
glew Get
te ms
ĠB undle
T OT
ac les
Ġper f
Ġdown loaded
Ġemail s
Ð Ĵ
Ġs urre
ent ed
Ġin habit
r in
ĠB aker
ĠPR IMARY
Ch ina
method Name
Volume s
ĠK an
im ag
× §
um bo
xi ety
ast ro
Ġprom oting
Illegal ArgumentException
e ase
lp Vtbl
Per form
ĠAb d
ĠL ot
[ ![
ĠI an
pr inter
Ali ases
ĠDetermin es
è® ¾
ĠTai wan
H F
C MAKE
ĠT I
up id
Ġup loaded
ĠN ET
Some thing
d an
Ġeduc ated
ĠSTAT US
Ġdi et
Ġ/ \
ĠHttp Response
Ġimag inary
Pro tected
ĠSt ars
b pm
ĉĉĉĉĉĉĉĉ ĉĉĉĉĉ
Ġsear ches
ĠP ull
ĠSign ature
ĠK az
the se
ĠSpec ify
ĠNull PointerException
ij ing
ĠN at
Ġvacc ines
Ġult imate
G uest
Name spaces
Ġcred its
Ġmist ake
ym n
force ment
ĠP ATH
Ġgu ilty
mut ed
Ġagric ulture
Ġr uby
inter est
PI PE
ĠAn notation
Ġ( âĢľ
ĠF reedom
De partment
ĠDI RECT
G s
Ġre actor
om i
Ġcont rolling
å Ŀ
miss ible
Ġwire Type
sw agger
ĠDis covery
Ã¡ s
Ġfan tastic
Default Value
k al
ĠBe h
. },
IC ON
PACK AGE
ish ment
ĠCon struction
Ġintro duces
Wait ing
Ġspac etime
ĠCamp bell
ĠBel gium
Not Supported
å ¹
Ġimm igration
IMP LE
s am
ĠC art
ĠN ON
middle ware
res izable
ĠProf essional
ĠRog er
Ġt i
Ġpaint ings
ĠBalt imore
Ġ[ :
Ġre min
ĠS can
ĠÂ ±
Ġrat ings
ĠS ud
ĠR ick
Pro tection
ĠKenn edy
ĠUn ity
h ony
è ¨
Ġresource Culture
KEY WORD
Ġextension Registry
leg acy
VARI ABLE
Te X
Ġb ubb
ĠP or
op les
Ġf oss
Ġb ronze
Ġevalu ating
Ġlat ency
B RE
S inergi
ĠBern ard
pe m
User Name
Port al
Ġmyst ery
ĠDis patch
Ġexam ination
ĠUS ER
Ġpl ural
ĠS core
40 5
_{ [
un shift
17 7
Ġ ^{\
Wire Format
M i
Ġd ies
a ire
ĠU rban
Ġstay ed
ĠTime Unit
str ated
Ġen velope
G rad
t ier
oper ators
pe z
az ard
ĠN am
ĠNor wegian
W all
U AGE
l ishes
ĠB L
hen e
ĠAll ah
EDIT OR
A cade
ĠB ond
ĠĠĠĠĠĠĠĠĠĠĠĠĠĠĠĠĠĠĠĠĠĠĠĠĠĠĠĠĠĠĠĠ ĠĠĠĠĠĠĠĠĠĠĠĠĠĠĠĠĠĠĠĠĠ
ĠMOD ULE
vol ve
ar x
qu ake
Ġt ies
au er
Ġc ul
Ġwide spread
al ready
co ordinates
ĠSH A
Ġc x
imp lements
{\ "
Ġbe gun
min imal
Ġvolunte ers
il o
Ġcorrect ed
Ġeng aging
Ġbon us
ĠO cc
Ġin ches
ĠS cope
pect ives
hand les
ĠV oice
e z
Ġex iting
: $
ĠP ow
ur ious
RO LL
B ROWSER
Ġ ../../../
Sc ott
Lear n
Ġartifact s
Ġcont rollers
Direct or
b ach
Ġsu icide
g host
Ġsus cept
h ift
ĠP ool
Y ea
Ġassert ions
mar shall
ĠCON F
mention ed
end ors
Clo sing
' }\
ine a
Ġcy clic
ĠActive Record
~ &
Ġven ue
ed a
}} /
Term inal
Ge ography
ĠLabor atory
sp inner
Ġde limiter
inter rupt
Ġfit ness
To Int
Ġ( .
-- ">
18 00
Ġin ferred
Ġse eds
Tab Index
Ġcharg ing
ph o
ĠIn surance
is Set
}{ }
ĠLook up
ĠBul g
ĠCirc le
N M
g ms
tra vis
ĠWork er
end points
Re maining
ĠØ§ ÙĦ
ĠCatalog ue
Ġsched uling
D H
un bind
l bl
or test
ĠC riteria
ĠE instein
AL PHA
An n
oc ent
& $
Ġst oring
h attan
Ġc ust
log ists
Ġtalk ed
Mag ick
Cod er
ĠIn novation
sh oot
amer on
Ġdecl ined
Ġadvant ages
LE CTION
Ġdec ays
ĠP ic
ĠArch itecture
Ġdef end
Ind ia
Ġpaint ed
g m
ugh ters
åħ ¥
Ġtra it
map red
ĠEnd point
ĠBo ys
is In
ĠG az
Ġun def
Ġart istic
Ġexist ed
Ġchain ed
ĠBuffer ed
Ġsch olars
Ġingre dients
Ġbl ur
starts with
ĠByte Array
Get Instance
li pped
ĠR ED
Ġo w
tain ing
ĠAl b
Walk er
Ġthe ater
ĠF alls
20 7
full comment
ah a
Ġ|| =
Ġdoll ar
($ (
el rte
ĠIn spect
25 4
* );
cor por
m illion
Ġt ape
Ġdisplay Name
ĠL arge
18 9
FR AG
ATTR IB
Ġmotiv ated
ĠBe ing
23 5
reach able
G a
e o
ax es
CO UN
Const ituency
Ġaux iliary
ĠJ ac
ĠCh ampions
sell ing
17 1
ĠÐ½ Ðµ
ĠDrag on
ĠSh ah
to Have
ĠPri or
Ġsequ el
Ġf initely
Ġpro tests
sub stack
$ "
ĠZ oo
Ġgroup ed
Ġcalcul ating
Ġhit ting
In spection
order ing
SE CTION
gr p
ÃŃ n
ĠExt ra
V OL
Function al
Ġor bits
Ġt id
ĠK er
Ġm ad
Ġg ard
r st
Ġbo ss
3 64
SH OW
ĠGu y
U psilon
Ġlight ing
Ġs andbox
P ot
r anges
Ġhas attr
ĠEqual s
valid ators
aint enance
Out come
ĠLo Dash
activ ated
Ġ icons
Un grouped
ĠOver ride
schema Location
ĠBig Decimal
Ġv node
cy clo
bootstrap cdn
Ġoccur ring
ĠFac ulty
Ġdis count
¦ Ĥ
assert Is
Ġaccording ly
ĠG reater
cor relation
Exp anded
P ager
he els
it ely
fl atten
Ġnot ified
ip y
Ġb p
Type Id
mong odb
Ġdep ression
ĠM M
Ġves sel
H ouse
c ube
Ġre build
Ġloc ate
Ġtreat ments
c wd
dd d
23 7
vi ction
program listing
yl on
Ġcontinu ity
Ġste am
z A
ĠBet ter
ĠCri me
e lection
AT AL
Ġcor ners
Ġsupp ressed
IB ILITY
Ġcheck er
Ġanim ations
ow ed
Ġlo ves
}{ *}{
query Parameters
Ġlaw yers
F re
Ex ports
jav ac
Ġext rem
leq slant
D am
ĠSen ator
ĠðŁ ĳ
ot ton
Ġend block
B et
T icket
ĠCh amber
cond ensed
Ġse venth
× ĳ
ĠH aving
oll ar
Ġs la
text Color
data Type
Query able
Ġsustain ability
ĠM ong
year s
u in
wait For
ys i
avi ors
Ġemphas is
AutoFit Height
ĠHead ers
subNav List
S a
CLO SE
Ġf ed
) !
Ġmethod Name
glob als
ĠProb lem
}} ;
Ġout going
Ġsp oken
CH ANG
Ġ} {\
Ġconstruct ors
A O
Ġh ls
ĠM uch
Th ank
ĠV a
Ġm ature
ir r
XXXX XXXX
= (\
ur bed
)) ))
ĠCR YP
: <
U Integer
Ġre marks
L aw
Ġd os
Ġarrange ment
Ġde liber
ĠD imension
it ol
lo p
M is
Ġcor ruption
Ġmo untains
n om
Ġn ortheast
f ault
C ERT
pre ttify
SS H
# /
Ġpurs ue
j om
Ġa met
Ġforest s
lom orphic
ĠN ep
Ġcl oned
Ġsuper conduct
mag ic
T ail
Ġc rown
Ġrec ruit
ĠFi ction
ĠC ancel
Ġclo thing
ĠRe mark
ĠIN VALID
Ġman ages
] |
Ġisol ation
Web Socket
ĠFUN CTION
Ġprov isions
17 4
Ð¾Ð» ÑĮ
Comp ound
ĠQue bec
Media Type
c ies
ĉĉĉĉ Ġ
ĠV otes
ĠNe v
ĠPsy cho
ĠG un
reg ions
Ġe lems
pro be
ĠAng el
proport ion
Ġb anned
Dig ital
or tex
Ð½ Ð°
Ġmanufact urers
Hand les
Ġsqu ares
he mer
che l
ĠA MD
Res olved
min utes
ped ia
ATION S
() )));
Ġhe lic
rack ets
TH ROW
ere f
By Key
IMP ORT
[] []
ĠCal cul
compare To
Ġdut ies
Ġ$ [\
Ġpre liminary
Ġmod er
Pri or
d ale
Ġc mp
Ġch ron
Recorded Vote
ĠB illy
T mp
ic z
ĠArm en
') \
ĠIdent ifier
Re ports
19 11
ĠMit chell
P eter
ĠF ight
ipel ines
; .
19 13
ĠB H
Ġ/* !
D ock
Ġval ley
header link
Ġsy nthesis
Ġdifficult ies
Ġtrans mitted
Ġthis Arg
ic i
ĠCh at
Ġjud ges
ĠDet ail
ĠImp lements
x it
ĠF ra
om ing
Ġj unction
Ã© t
ĠPh illi
equals IgnoreCase
ĠCON NE
Ġwarn ed
Brows able
M Y
ĠC lock
Ġas h
Ġtra ces
Con cat
ĠJSON Object
pair s
z u
ĠG UI
Ġtw ist
ĠJust in
mis sed
ĠOr chestra
Ġcollect or
Ġderiv ation
Ġf ract
ĠS td
Ġemp ower
ellig ent
ĠR x
sh int
ĠMar ie
dist rict
Ġtransl ations
Ġis Array
Ġwait For
Ġdirect ives
ĠAdmin istr
Camp aign
Ġformul as
ENT ITY
ĠCr icket
ĠI tems
enta ho
+ |
ĠB ag
Dig its
A H
Ġe ig
ĠDak ota
' )$
st ellar
ĠP ER
ĠZ hang
}^{ (\
Table Model
sp ort
Ġbal anced
ĠEv ans
S pect
Ġswe ep
get Size
Ġper mutation
ĠR ate
wait ing
Ġaccess ibility
IR Q
u u
es la
Pro duction
atic s
Ġorient ed
= ['
Ġdis ks
log out
Sol r
B ooks
Ġp f
ĠCar bon
stop Propagation
ĠDist ributed
Ġtrunc ated
ĠH ockey
do ctype
Ġpar ity
ep och
Ġsol ver
_ ));
ĠA PP
Ġestablish ing
M SC
Ġfor Key
ĠCl ar
primary Key
Ġrec ipients
Ġconvers ations
Ġmigr ations
Ġcas ual
Ġoff line
g om
che v
OR IZ
26 3
Ġcomplet ing
Ġn u
orth and
Ġslow er
? (:
o lo
Ġget Class
ĠOb j
Pop ulated
ne ver
ä½¿ çĶ¨
oc c
comp oser
cre p
serv ing
Ġlink ing
os c
ĠNot ify
de crypt
ĠS ources
ĠEvery thing
Ġ\ #
ĠMalays ia
is String
Ġnot ably
Ġther mod
m ol
Spec ified
$/ .
ĠRect angle
Ġsh im
fra id
Prof iler
V s
ĠPack et
ad ies
ĠR and
ĠE uclidean
offset s
g ive
M illiseconds
STOR AGE
( ?
ĠF ine
ĠDe puty
ump h
ĠDep rec
ĠRun ning
Ġle tting
ĠPort land
0 30
P aper
}. \
A w
ĠUn ique
Ġs ake
entry Set
Ġoccup ation
St encil
dis covery
Ġeas ing
ĠArk ansas
function al
Ġg olf
decl aration
ic ators
Ġbond s
Ġ ub
ĠC amera
ĠI DE
Ġhigh way
class v
ĠDef ines
ĠJim my
ĠK ir
T enant
DIRECT ORY
ĠEmp eror
flu x
ĠPRO P
ĠA CL
Ġar ising
ĠDen ver
multip ly
te es
ĠSte ven
Ġe ager
Ref lect
Deserial izer
Ġnumer ically
/ -
tr ical
tra ined
Ġ! $
IC Y
Ġexha ust
, ~
charCode At
en queue
Ĥ ¹
ĠC U
ĠJ ar
check s
Resource Name
Web View
Ġaw esome
ĠMean while
Ġu k
R oman
ĠG D
Ġag rees
search Box
m ile
B ill
s udo
it ored
ĠW olf
/ ${
Co lour
ann ah
E AR
Ed iting
Ġformal ism
PREC ATED
To List
Ġident ities
ĠPre vent
Ġrock s
W ave
ĠH ER
Un iversal
& -
× ¢
Ġopp onent
y t
tra it
Ġbur st
Tra ffic
Grid View
Ġconf usion
Ġse cur
Ġo d
Ġ$ $\
AG ES
Ġconnect s
)= (
io ce
struct ured
Ġd rain
Con struction
JSON Object
rep resentation
sph inx
ay an
At tached
Visual Studio
W ed
onent ial
Ġplan es
SIGN ED
late x
ĠW A
Ġif f
Br ush
Ġd ots
Ġdis claimer
T rivia
Ġt ube
ĠM R
ARG UMENT
Ġtw isted
ĠOper and
ĠU R
Ġc ube
Ġf le
pro vision
Ġe leg
ĠM agn
ĠG all
17 3
m ne
Ġph ones
Ġaff airs
Ġpre decess
F und
ĠRe store
ĠQueens land
R ail
ex cludes
=" &
f k
par ame
Ġ========= ==
ĠSh a
TR IB
Ġdepart ure
Ġinstrument al
B attle
Ġa rises
ĠB ron
ĠDest roy
Ġre semb
ĠA aron
Ġpro l
'=> '
J MS
Ġel abor
at is
20 24
Ġ(! _
CALL BACK
s it
Ġt ale
Ġun w
ib bean
J B
Class ification
ĠNS Mutable
ro d
oo oo
O fficial
Line No
Ġmem set
ĠThe ater
Ġg arbage
Ġlux ury
ĠRef lect
stud ent
Ġsl ash
ĠFrank lin
Ġeco system
. */
ĠIn ner
Dis p
in fra
Ġ= ================================
il de
NET WORK
assert Not
ĠBuff alo
raw l
b ag
az ines
tal k
Ġn est
syn opsis
ĠC ensus
create Class
) |^
è ½
ve led
ick ing
ĠFin land
ĠF ather
stri pe
' $,
Ġl ane
ĠU Int
Ġobject ives
Pres ident
zer os
Ï Į
graph s
Ġobserv ational
Ġburn ing
M oney
photon ui
Ġdis miss
Ġth rew
>& #
Ġab road
RO LE
MODE L
DIS PLAY
orange hill
orangehill dev
Ġstri king
get X
ĠJo y
mess aging
v ote
Ġel apsed
C pu
ĠH IV
work ers
u pe
Ġ ug
ĠLore ntz
S phere
\\ \
recogn ized
ĠPit tsburgh
Med iator
ĠMur ray
Ġvent ure
}} )$
l ant
Attribute Value
Info f
Ġro unded
Http Response
Ġche st
Ġf Ã¼r
vis itor
Ġback ed
ĠOt to
n z
Ġcom mod
RESP ONSE
_ %
s lides
Ġtarget ing
Ġquant itative
Order By
2 15
ĠD one
ĠRe call
in ating
qu it
ĠH ide
}^ +
ham crest
top ics
Ġexcit ation
ĠIn struction
ĠDO C
no thing
Ġparticip ant
ĠN ad
Ġcons isted
¶ </
on Error
dot net
x fer
Ġde leting
Right arrow
Ġchar ity
Ġpos session
samp ling
ĠP I
Ġover se
Ġcame l
Thread Pool
Ġaffect ing
ĠH at
le tt
assert NotNull
Ġt uples
ew ay
ak u
Ġde scriptors
Ġpro pri
al ive
ç ´
ĠVar iant
Ġwind s
respect ively
Ġclaim ing
dr ill
ĠSol utions
S IL
Ġa qu
laps ible
ro ots
ç Ĳ
ĠĠ ĉ
Book mark
ĠCommon wealth
Argument NullException
ï»¿ //
Ġscroll ing
N aming
n ia
Ġis Equal
18 1
omorph isms
' -
Ġcomp li
Ġget All
Ġview er
Ġde serialize
ĠG ulf
' ^
Det ach
Ġtack le
: !
S qu
ĠH end
g row
Ġb atter
In herit
Ġexpect ing
im i
Ġhyper bolic
Ġ{ (
ĠB ear
Ġgen ome
RG BA
ĠT ig
ĠC u
Page Token
C b
I ce
M ongo
}} }{
ĠA rc
Ġg p
ĠAl pha
ĠBen jamin
dis ambig
ĠVan couver
\, .
s ight
US D
ĠConstruct s
T rip
Ġt une
Ġal phabet
Public Key
o fficial
en berg
ĠW P
Built in
IN C
UN I
ta ken
agin ator
cor p
Ġsuccess or
Off er
Ġfast est
Pair s
b ill
Ġun necessary
19 1
Ġadapt ive
Austral ian
` );
part icles
Ġt ent
Ġimplicit ly
Re cursive
ĠF riends
content Type
$ (\
ac ular
ĠB ene
In verse
19 08
pl ate
Ġtag ged
Ġflex ibility
RE NDER
lf loor
ic ht
Ġno except
Part itions
ĠGr an
! ",
Ġaud iences
ĠWrit es
bab we
RE N
Ġm ong
}, {\
Logger Factory
pre ced
â ĸ
mod ern
ĠGra ce
Ġafter wards
Ġnon atomic
Cho oser
P iece
Ġdef ence
ĠV IEW
Ġh ab
ĠC ultural
Ġphenomen a
ie fs
jo y
Ġmer ging
Ġcav ity
sh ops
ĠTime stamp
c rc
ar us
Ġg onna
pro g
K L
ĠQ uality
Message Box
Ġwor ship
ĠCon version
Ġdream s
ĠBrazil ian
bo b
R aster
20 30
background Color
">Â ¶</
Ġ ib
us able
am m
col One
ĠUS D
Mut ation
TIM ER
Ġab ilities
Activ ate
Ġconcentr ations
Ġlaws uit
M apped
Ġvacc ination
ĠSy ria
) }^
ĠR oll
] -
u ario
ĠA y
à¤ ¿
In et
ĠB LA
EN G
ĠCom Visible
Ġcollect ing
B a
` ;
config s
vo y
Ġactiv ists
ĠPack ages
Ġfeas ible
Ġplay back
ĠMarg aret
ĠPark er
ur ator
ĠLear n
Ã Ĥ
Ġs vc
resh olds
ĠLa unch
. }\
Ġup stream
Ġend orse
all Errs
cl ause
DE S
ĠN ested
St ri
ee ee
Ġcon jecture
Code Dom
mid t
K ing
Ġtra iler
TIME STAMP
enez uel
math ds
Ï ī
py test
ĠMe eting
Icon s
igr ations
T ur
ĠC itiz
Ġre vol
Ġtor us
ov o
io v
it ious
ĠA do
27 5
Ġcult ures
olog ies
ĠASC II
Ġpropos als
ab lish
Ġre versed
ra ses
Ġvirtual ly
get Max
N F
P ix
Not ifier
de e
Ġd ub
ĠF BI
Ġpick s
Ġt iles
ĠV R
Acc um
A wards
CONNE CTION
{ [
Ġhere by
Ġlab our
Ġveter an
J P
J e
ĠGe ometry
/ ><
decor ate
gra des
Ġdol or
(' $
irm ingham
duc ational
ĠShort cut
t el
Ġ__ (
CO D
B uff
} &\
Form atting
Ġphot ography
ĠIN DEX
l w
( **
P df
ĠT ell
Ġ[ %
Ġvari eties
Bio graphy
V IRT
Ġthreat ened
ĠTop ic
O ID
r k
ĠMar c
BO OLEAN
ĠHigh er
Unexpected EOF
ĠSo ft
Ġspeak s
ĠCro at
Ġmon o
Lim its
++++ ++++
ĠC row
}\ !
inherit ance
F req
) "/>
Method Name
Play ing
Ġchain ing
(" :
Ġsurv ived
request ed
RI X
Ġopin ions
22 8
Ġcommission ed
ch k
og enerated
ng doc
ĠLO CK
Dig it
Ġple asure
s ens
b mp
ĠC atal
Ġad m
ĠN GC
Ge orge
Ġcontrovers ial
. ';
de ll
set Up
not ifications
Ġcons olid
exp ress
member data
bl k
Ġ utter
Ġatt itude
PAT TERN
ĠC ookie
ub les
ĠD raft
ĠL yn
sc atter
Ġinflu ences
Dec ision
Ġmain stream
ĠTech nical
ĠColl ins
anc ers
ann es
Ġbank ing
Ġn aming
res erve
Ġfavour ite
ag les
ĠP apers
b irth
ss ibly
Script s
INTER VAL
Ġread ily
Ġste ep
rf loor
Ġl unch
Ġcount ies
ĠReg ex
is ers
ST AR
ĠPsi Element
VAL UES
Ġactiv ist
Ð Ŀ
he e
Ġfollow ers
Ġpass ive
LIBR ARY
Ġfor um
EL L
ĠL ED
sequ ential
F lor
th in
add Child
box es
Ġbra cket
Ġcomp ounds
ĠTh or
[...]
