{"[UNK]":0,"!":1,"\"":2,"#":3,"$":4,"%":5,"&":6,"'":7,"(":8,")":9,"*":10,"+":11,",":12,"-":13,".":14,"/":15,"0":16,"1":17,"2":18,"3":19,"4":20,"5":21,"6":22,"7":23,"8":24,"9":25,":":26,";":27,"<":28,"=":29,">":30,"?":31,"@":32,"A":33,"B":34,"C":35,"D":36,"E":37,"F":38,"G":39,"H":40,"I":41,"J":42,"K":43,"L":44,"M":45,"N":46,"O":47,"P":48,"Q":49,"R":50,"S":51,"T":52,"U":53,"V":54,"W":55,"X":56,"Y":57,"Z":58,"[":59,"\\":60,"]":61,"^":62,"_":63,"`":64,"a":65,"b":66,"c":67,"d":68,"e":69,"f":70,"g":71,"h":72,"i":73,"j":74,"k":75,"l":76,"m":77,"n":78,"o":79,"p":80,"q":81,"r":82,"s":83,"t":84,"u":85,"v":86,"w":87,"x":88,"y":89,"z":90,"{":91,"|":92,"}":93,"~":94,"¡":95,"¢":96,"£":97,"¤":98,"¥":99,"¦":100,"§":101,"¨":102,"©":103,"ª":104,"«":105,"¬":106,"®":107,"¯":108,"°":109,"±":110,"²":111,"³":112,"´":113,"µ":114,"¶":115,"·":116,"¸":117,"¹":118,"º":119,"»":120,"¼":121,"½":122,"¾":123,"¿":124,"Â":125,"Ã":126,"Ä":127,"Å":128,"Æ":129,"Ç":130,"È":131,"É":132,"Ê":133,"Ë":134,"Ì":135,"Í":136,"Î":137,"Ï":138,"Ð":139,"Ñ":140,"Ò":141,"Ó":142,"Ô":143,"Õ":144,"Ö":145,"×":146,"Ø":147,"Ù":148,"Ú":149,"Û":150,"Ü":151,"Ý":152,"Þ":153,"ß":154,"à":155,"á":156,"â":157,"ã":158,"ä":159,"å":160,"æ":161,"ç":162,"è":163,"é":164,"ê":165,"ë":166,"ì":167,"í":168,"î":169,"ï":170,"ð":171,"ñ":172,"ó":173,"ô":174,"Ā":175,"ā":176,"Ă":177,"ă":178,"Ą":179,"ą":180,"Ć":181,"ć":182,"Ĉ":183,"ĉ":184,"Ċ":185,"ċ":186,"Č":187,"č":188,"Ď":189,"ď":190,"Đ":191,"đ":192,"Ē":193,"ē":194,"Ĕ":195,"ĕ":196,"Ė":197,"ė":198,"Ę":199,"ę":200,"Ě":201,"ě":202,"Ĝ":203,"ĝ":204,"Ğ":205,"ğ":206,"Ġ":207,"ġ":208,"Ģ":209,"ģ":210,"Ĥ":211,"ĥ":212,"Ħ":213,"ħ":214,"Ĩ":215,"ĩ":216,"Ī":217,"ī":218,"Ĭ":219,"ĭ":220,"Į":221,"į":222,"İ":223,"ı":224,"Ĳ":225,"ĳ":226,"Ĵ":227,"ĵ":228,"Ķ":229,"ķ":230,"ĸ":231,"Ĺ":232,"ĺ":233,"Ļ":234,"ļ":235,"Ľ":236,"ľ":237,"Ŀ":238,"ŀ":239,"Ł":240,"ł":241,"Ń":242,"ĠĠ":243,"ĠĠĠĠ":244,"in":245,"er":246,"Ġt":247,"on":248,"re":249,"at":250,"ĠĠĠ":251,"Ġa":252,"he":253,"ĠĠĠĠĠĠĠĠ":254,"en":255,"st":256,"or":257,"al":258,"le":259,"ion":260,"Ġc":261,"an":262,"ar":263,"it":264,"Ġthe":265,"se":266,"is":267,"Ġf":268,"de":269,"ct":270,"ro":271,"ing":272,"me":273,"Ġo":274,"Ġp":275,"ic":276,"Ġs":277,"ĠĠĠĠĠĠĠ":278,"Ġw":279,"Ġb":280,"es":281,"ed":282,"Ġin":283,"ent":284,"Ġ=":285,"ur":286,"as":287,"nd":288,"ĉĉ":289,"et":290,"Ġn":291,"Ġof":292,"ut":293,"Ġre":294,");":295,"Ġ{":296,"Ġto":297,"il":298,"Ġ(":299,"ce":300,"Ġ<":301,"Ġm":302,"lo":303,"Ġth":304,"--":305,"Ġand":306,"un":307,"=\"":308,"ri":309,"ation":310,"ra":311,"ul":312,"Ġh":313,"mp":314,"Ġe":315,"Ġd":316,"Ġ*":317,"if":318,"id":319,"ol":320,"ĠĠĠĠĠĠĠĠĠĠĠ":321,"//":322,"th":323,"</":324,"ĠS":325,"el":326,"ig":327,"ag":328,"pe":329,"čĊ":330,"Ġ$":331,"ĠT":332,"Ġv":333,"ot":334,"ame":335,"ate":336,"ch":337,"ad":338,"ue":339,"Ġ}":340,"ĠC":341,"iv":342,"ab":343,"ĠA":344,"ck":345,"ction":346,"ter":347,"Ġ\\":348,"Ġis":349,"Ġst":350,"co":351,"li":352,"Ġg":353,"te":354,"ss":355,"ass":356,"um":357,"pt":358,"us":359,"Ġfor":360,"Ġ\"":361,"ĠĠĠĠĠ":362,"ĠI":363,"**":364,"am":365,"tr":366,"()":367,"\">":368,"ĠĠĠĠĠĠĠĠĠĠĠĠĠĠĠĠ":369,"ver":370,"ub":371,"Ġcon":372,"ht":373,"urn":374,"Ġde":375,"ly":376,"Ġco":377,"xt":378,"ew":379,"lass":380,"Ġse":381,"ap":382,"ith":383,"Ġl":384,"ay":385,"end":386,"qu":387,"Ġbe":388,"ĠM":389,"age":390,"sp":391,"up":392,"Ġon":393,"ort":394,"turn":395,"ow":396,"ĠP":397,"ir":398,"av":399,"âĢ":400,"ist":401,"ype":402,"ment":403,"ers":404,"od":405,"----":406,"==":407,"and":408,"ect":409,"Ġ'":410,"ĠB":411,"Ġif":412,"Re":413,"ĠD":414,"im":415,"In":416,"ine":417,"get":418,"con":419,"able":420,"Ġthis":421,"ode":422,"Ġthat":423,"00":424,"to":425,"our":426,"ĠĠĠĠĠĠĠĠĠĠĠĠĠĠĠ":427,"iz":428,"Ġpro":429,"ath":430,"ta":431,"ĠF":432,"ase":433,"ult":434,"lic":435,"Ġwith":436,"em":437,"ĠN":438,"Ġclass":439,"ĠL":440,"Ġan":441,"..":442,"ke":443,"ile":444,"Ġ//":445,"ou":446,"ure":447,"ption":448,"Ġal":449,"ĠE":450,"art":451,"per":452,"int":453,"ĠH":454,"om":455,"ity":456,"Ġreturn":457,"ata":458,"->":459,"Ġ&":460,"rom":461,"Ġit":462,"alue":463,"ĠG":464,"ref":465,"Ġas":466,"Ġor":467,"est":468,"_{":469,"ack":470,"Ġwh":471,"ĠThe":472,"unction":473,"Ġex":474,"ang":475,"ĠW":476,"::":477,"all":478,"ac":479,"Ġ@":480,"ĠR":481,"imp":482,"ĉĉĉĉ":483,"ject":484,"ore":485,"ime":486,"ans":487,"ess":488,"ial":489,"ere":490,"orm":491,"ff":492,"Ġby":493,"Con":494,"20":495,"Ġy":496,"Ġme":497,"op":498,"ive":499,"str":500,"ĠO":501,"oc":502,"Ġ</":503,"ve":504,"Ġ-":505,"set":506,"os":507,"\",":508,"out":509,"Ġat":510,"ma":511,"pro":512,"ill":513,"res":514,"ies":515,"oo":516,"use":517,"Ġ/":518,"(\"":519,"ber":520,"sc":521,"ph":522,"Ġare":523,"();":524,"Ġ+":525,"Ġ[":526,"ublic":527,"ource":528,"ant":529,"ite":530,"are":531,"ary":532,"ind":533,"ace":534,"Ġfrom":535,"../":536,"text":537,"ty":538,"par":539,"ire":540,"nt":541,"),":542,"{\\":543,"Ġnew":544,"ord":545,"Ġ*/":546,"Ġch":547,"Ġwe":548,"ĠĊ":549,"',":550,"ull":551,"Ġlo":552,"lu":553,"ign":554,").":555,"Ġtr":556,"tring":557,"Ġr":558,"ition":559,"lf":560,"--------":561,"ast":562,"Ġnot":563,"****":564,"ml":565,"ated":566,"ip":567,"ĠU":568,"ize":569,"ser":570,"Ġwas":571,"Ġname":572,"Ġfunction":573,"act":574,"gin":575,"name":576,"bject":577,"Ġsh":578,"ice":579,"ide":580,"Name":581,"und":582,"ext":583,"ance":584,"Ġ$\\":585,"Ġhe":586,"ĠJ":587,"row":588,"Ġ:":589,"ex":590,"19":591,"err":592,"dd":593,"que":594,"div":595,"St":596,"âĢĻ":597,"this":598,"Ġle":599,"put":600,"ild":601,"ĠĠĠĠĠĠĠĠĠĠĠĠĠĠĠĠĠĠĠ":602,"vent":603,"ight":604,"ave":605,"('":606,"ft":607,"></":608,"ĉĉĉ":609,"import":610,"ard":611,"Ex":612,"ĠĠĠĠĠĠĠĠĠ":613,"form":614,"Ġ_":615,"port":616,"====":617,"Ġj":618,"span":619,"unt":620,"ost":621,"ray":622,"be":623,"ll":624,"lement":625,"fig":626,"math":627,"def":628,"ert":629,"cal":630,"Ġres":631,"low":632,"Ġpublic":633,"ge":634,"Ġstr":635,"Pro":636,"ory":637,"Ġvar":638,"Ġ.":639,"ust":640,"The":641,"))":642,"io":643,"Ġar":644,"oid":645,"ong":646,"one":647,"ork":648,"iel":649,"com":650,"pp":651,"ĠIn":652,"ens":653,"Ġcomp":654,"rig":655,"><":656,"ak":657,"lay":658,"ER":659,"ome":660,"ield":661,"Type":662,"ps":663,"Ġ|":664,"ĠV":665,"sh":666,"ence":667,"return":668,"ther":669,"Ġli":670,"cess":671,"ener":672,"Ġdef":673,"ich":674,"Ġcan":675,"ress":676,"../../":677,"ical":678,"ug":679,"uld":680,"ssage":681,"dex":682,"String":683,"but":684,"ator":685,"ain":686,"ia":687,"iew":688,"param":689,"uct":690,"ON":691,"IN":692,"ell":693,"}}":694,"code":695,"key":696,"Ġget":697,"amp":698,"tain":699,"alse":700,"html":701,"ink":702,"Ġun":703,"Ġ!":704,"ib":705,"quest":706,"tt":707,"De":708,"so":709,"Ġ#":710,"10":711,"'s":712,"Id":713,"Ġtype":714,"Ġdo":715,"Ġvalue":716,"fer":717,"right":718,"ĠTh":719,"yst":720,"ations":721,"^{":722,"Ġuse":723,"Ġcom":724,"col":725,"ĠâĢ":726,"ĠK":727,"Ġk":728,"Ġhref":729,"type":730,"che":731,"Ġhave":732,"ĠRe":733,"lect":734,"Ġhas":735,"roup":736,"ud":737,"eng":738,"Co":739,"mo":740,"}\\":741,"ule":742,"To":743,"scri":744,"hen":745,"Ġint":746,"atch":747,"ach":748,"ystem":749,"own":750,"bo":751,"abel":752,"}$":753,"ree":754,"val":755,"td":756,"source":757,"RE":758,"odel":759,"clu":760,"vice":761,"ded":762,"message":763,"atic":764,"Ġus":765,"pect":766,"cre":767,"tern":768,"},":769,"inal":770,"ery":771,"Ġ=>":772,"lock":773,"fra":774,"ault":775,"Ġset":776,"ual":777,"ould":778,"__":779,"trans":780,"Ġconst":781,"Ġ==":782,"ument":783,"Ġwill":784,"var":785,"line":786,"pec":787,"app":788,"Res":789,"Ġself":790,"ception":791,"Ġi":792,"ces":793,"Ġnull":794,"ST":795,"ribut":796,"Ġwhich":797,"Ġcont":798,"ear":799,"lation":800,"riv":801,"ache":802,"fo":803,"Ġout":804,"Ġyou":805,"oint":806,"ix":807,"og":808,"##":809,"201":810,"Ġel":811,"List":812,"Ġdata":813,"ound":814,"we":815,"ne":816,"log":817,"add":818,"Ġall":819,"Ġvoid":820,"ail":821,"umber":822,"irst":823,"Ġerr":824,"(\\":825,"/>":826,"sed":827,"ange":828,"Ġ`":829,"yn":830,"old":831,"AT":832,"uc":833,"uild":834,"://":835,"ark":836,"ptions":837,"Ġup":838,"));":839,"Ch":840,"urre":841,"ry":842,"string":843,"Ar":844,"sum":845,"qual":846,"Ġen":847,"Ġac":848,"ions":849,"begin":850,"Ġass":851,"Ġab":852,"ms":853,"class":854,"\"/>":855,"mb":856,"ec":857,"Ġma":858,"les":859,"ses":860,"********":861,"rr":862,"ates":863,"ID":864,"OR":865,"ings":866,"LE":867,"ength":868,"Ġfalse":869,"////":870,"ie":871,"Ġne":872,"mit":873,"Ġtime":874,"Ġdis":875,"loc":876,"ader":877,"Ġid":878,"led":879,"min":880,"Ġ>":881,"Ġtrue":882,"\");":883,"back":884,"of":885,"----------------":886,"Ġcol":887,"pl":888,"Ġpar":889,"200":890,"data":891,"Value":892,"ĠĠĠĠĠĠĠĠĠĠĠĠĠĠĠĠĠĠĠĠĠĠĠ":893,"ld":894,"Ġro":895,"Th":896,"ĠSt":897,"Ġbut":898,"self":899,"idth":900,"Ġone":901,"htt":902,"Data":903,"Ġelse":904,"ob":905,"ger":906,"Ġline":907,"):":908,"Ġresult":909,"ors":910,"thod":911,"\"><":912,"12":913,"rit":914,"Ġbo":915,"ian":916,"AL":917,"read":918,"AR":919,"ont":920,"_{\\":921,"rivate":922,"value":923,"mary":924,"the":925,"ey":926,"itle":927,"Ġ)":928,"Ġstring":929,"Ġper":930,"Ġ&&":931,"urrent":932,"Ġend":933,"translation":934,"Ġser":935,"Ġ/**":936,"lient":937,"ifi":938,"Ġ||":939,"Ġte":940,"ics":941,"ton":942,"uff":943,"EN":944,"ĠCh":945,"._":946,"Ġso":947,"ava":948,")$":949,"label":950,"Ser":951,"Ġpart":952,"Ġval":953,"clude":954,"ask":955,"ĠĠĠĠĠĠĠĠĠĠĠĠĠ":956,"ep":957,"Ġpre":958,"];":959,"perty":960,"Set":961,"gra":962,"uch":963,"ameter":964,"Ġsp":965,"file":966,"ann":967,"left":968,"quire":969,"Err":970,"ues":971,"let":972,"cl":973,"ish":974,"ick":975,"ĠĠĠĠĠĠ":976,"over":977,"di":978,"\")":979,"}{":980,"Ġtest":981,"Ġadd":982,"cri":983,"onse":984,"Exception":985,"Ġover":986,"En":987,"Ġcase":988,"ific":989,"Object":990,"stance":991,"arget":992,"round":993,"ature":994,"16":995,"Ġhis":996,"ok":997,"Col":998,"Ġ!=":999,"son":1000,"comp":1001,"ĠĠĠĠĠĠĠĠĠĠĠĠĠĠĠĠĠĠĠĠĠĠĠĠĠĠĠĠĠĠĠĠ":1002,"($":1003,"arch":1004,"========":1005,"Ġ///":1006,"Ġx":1007,"Ġalso":1008,"Se":1009,"Ġorg":1010,"test":1011,"Ġwhen":1012,"pre":1013,"date":1014,"ov":1015,"ĠY":1016,"lection":1017,"Ġpl":1018,"Ġinter":1019,"SS":1020,"ative":1021,"âĢĿ":1022,"ĠThis":1023,"ise":1024,"arg":1025,"Test":1026,"Ġsup":1027,"igh":1028,"wo":1029,"iss":1030,"mer":1031,"pr":1032,"Par":1033,"Ġmore":1034,"bar":1035,"ca":1036,"ash":1037,"frac":1038,"ined":1039,"for":1040,"odule":1041,"18":1042,"fter":1043,"unc":1044,"der":1045,"px":1046,"Ġany":1047,"')":1048,"sub":1049,"Ġcre":1050,"Ġtheir":1051,"space":1052,"Ġad":1053,"],":1054,"Comp":1055,"Ġstatic":1056,"32":1057,"osition":1058,"new":1059,"ents":1060,"Ġother":1061,"function":1062,"Ġapp":1063,"Ġfile":1064,"org":1065,"cont":1066,"CT":1067,"Get":1068,"Error":1069,"irect":1070,"ream":1071,"item":1072,"work":1073,"ĠString":1074,"().":1075,"ater":1076,"Ġsub":1077,"Ġno":1078,"atus":1079,"Ġwere":1080,"Ġap":1081,"eq":1082,"());":1083,"IT":1084,"fore":1085,"Ġfirst":1086,"ook":1087,"Ġtra":1088,"vel":1089,"Key":1090,"arent":1091,"cite":1092,"');":1093,"equ":1094,"heck":1095,"mber":1096,"enc":1097,"gle":1098,"aw":1099,"time":1100,"Ġman":1101,"SE":1102,"rm":1103,"Ġwork":1104,"cond":1105,"size":1106,"eta":1107,"})":1108,"lean":1109,"DE":1110,"Ġ%":1111,"11":1112,"uth":1113,"br":1114,"Ġ--":1115,"Ġfinal":1116,"Ġsome":1117,"nb":1118,"Ġob":1119,"Cont":1120,"Ġqu":1121,"Ġag":1122,"Ġimp":1123,"mon":1124,"cent":1125,"ody":1126,"ely":1127,"ages":1128,"mpl":1129,"File":1130,"Ġspec":1131,"Ġobject":1132,"ys":1133,"Un":1134,"ock":1135,"Ġthey":1136,"cord":1137,"ler":1138,"Ġprivate":1139,"ĠCo":1140,"$.":1141,"ider":1142,"hed":1143,"Ġreg":1144,"ular":1145,"Ġtrans":1146,"Ġkey":1147,"Ġonly":1148,"ternal":1149,"Event":1150,"pen":1151,"ilter":1152,"not":1153,"ose":1154,"mathb":1155,"summary":1156,"rc":1157,"view":1158,"Ġext":1159,"ĠCon":1160,"Node":1161,"Ġits":1162,"struct":1163,"Ġra":1164,"play":1165,"nbsp":1166,"face":1167,"Time":1168,"roll":1169,"$,":1170,"mand":1171,"ible":1172,"ax":1173,"list":1174,"ating":1175,"ĉĉĉĉĉ":1176,"ww":1177,"ME":1178,"ĠWe":1179,"Ġexp":1180,"uffer":1181,"util":1182,"ĠDe":1183,"Ġthere":1184,"under":1185,"script":1186,"AN":1187,"link":1188,"ocument":1189,"By":1190,"location":1191,"vers":1192,"du":1193,"Ġbeen":1194,"Element":1195,"no":1196,".</":1197,"indow":1198,"ute":1199,"Tr":1200,"ĠUn":1201,"ĠIt":1202,"public":1203,"Ġlist":1204,"Qu":1205,"action":1206,"15":1207,"pend":1208,"umn":1209,"url":1210,"}.":1211,"yle":1212,"index":1213,"Ġback":1214,"(),":1215,"ersion":1216,"man":1217,"ner":1218,"Ġused":1219,"\";":1220,"ample":1221,"ken":1222,"ng":1223,"ved":1224,"roid":1225,"ui":1226,"ollow":1227,"Ġform":1228,"['":1229,"ĠPro":1230,"Ġchar":1231,"Ġinto":1232,"ments":1233,"load":1234,"Ġtwo":1235,"/**":1236,"Ġmethod":1237,"ding":1238,"try":1239,"ility":1240,"25":1241,"ake":1242,",\\":1243,"ices":1244,"rite":1245,"ning":1246,"Ġnumber":1247,"Ġgo":1248,"Ġcall":1249,"inter":1250,"Ġoff":1251,"its":1252,"lete":1253,"UL":1254,"top":1255,"da":1256,"/*":1257,"View":1258,"ify":1259,"const":1260,"We":1261,"ĠĠĠĠĊ":1262,"Ġact":1263,"equation":1264,"Ġwho":1265,"ract":1266,"ool":1267,"resent":1268,"Ġ?":1269,"Ġthan":1270,"Ġ);":1271,"til":1272,"length":1273,"Ġ/*":1274,"js":1275,"amb":1276,"Ġarg":1277,"Class":1278,"dis":1279,"mathcal":1280,"ays":1281,"cript":1282,"Ġour":1283,"He":1284,"']":1285,"\":":1286,"ĠâĢľ":1287,"yp":1288,"ugh":1289,"CO":1290,"Sh":1291,"count":1292,"order":1293,"100":1294,"Ġabout":1295,"table":1296,"http":1297,"ased":1298,"ious":1299,"Ġ/>":1300,"State":1301,"ride":1302,"Ġdif":1303,"ager":1304,"};":1305,"onent":1306,"pi":1307,"PE":1308,"Ġevent":1309,"pha":1310,"Index":1311,"Ġbet":1312,"Ġshould":1313,"Ġstate":1314,"RO":1315,"Ġfield":1316,"ized":1317,"Ġerror":1318,"path":1319,"void":1320,"Ġthen":1321,"lang":1322,"py":1323,"TE":1324,"med":1325,"Ġent":1326,"Request":1327,"Path":1328,"pack":1329,"Ġwhere":1330,"Ġyour":1331,"Ġunder":1332,"Ġassert":1333,"oolean":1334,"22":1335,"uration":1336,"Info":1337,"sign":1338,"Ġmay":1339,"Ġarray":1340,"Ġgener":1341,"Ġfollow":1342,"red":1343,"Ġher":1344,"ribute":1345,"\"></":1346,"14":1347,"].":1348,"}(":1349,"Ġthrow":1350,"ts":1351,"ities":1352,"la":1353,"Text":1354,"Ġ},":1355,"Ġprov":1356,"eth":1357,"Array":1358,"ĠHe":1359,"move":1360,"rol":1361,"wh":1362,"ational":1363,"ons":1364,"':":1365,"lob":1366,"PI":1367,"For":1368,"Ġhad":1369,"Man":1370,"Ġstart":1371,"Ġim":1372,"att":1373,"group":1374,"13":1375,"reak":1376,"include":1377,"nav":1378,"cur":1379,"Ġyear":1380,"ĠAr":1381,"node":1382,"ION":1383,"Equal":1384,"reg":1385,"ven":1386,"md":1387,"ĠEx":1388,"64":1389,"Ġmodel":1390,"Ġ(!":1391,"Config":1392,"width":1393,"Ġ:=":1394,"Ġ===":1395,"}^":1396,"ĠIf":1397,"ern":1398,"tainer":1399,"ified":1400,"ote":1401,"Context":1402,"AC":1403,"by":1404,"Ġ});":1405,"Field":1406,"field":1407,"())":1408,"ution":1409,"Ġdist":1410,"Map":1411,"Ġplay":1412,"ground":1413,"ished":1414,"Def":1415,"An":1416,"Code":1417,"array":1418,"alpha":1419,"Ġfe":1420,"}_":1421,"Add":1422,"Ġrel":1423,"ense":1424,"Ġoper":1425,"Ġpe":1426,"...":1427,"Ite":1428,"As":1429,"////////":1430,"ous":1431,"Ġcor":1432,"~\\":1433,"rame":1434,"Ġafter":1435,"Ġcurrent":1436,"ĠâĢĵ":1437,"ince":1438,"user":1439,"TR":1440,"api":1441,"With":1442,"Ġusing":1443,"ĠSe":1444,"\"\"":1445,"rid":1446,"itial":1447,"define":1448,"mpty":1449,"``":1450,"rap":1451,"ush":1452,"Ġrequest":1453,"Ġexpect":1454,"ĠX":1455,"ization":1456,"oug":1457,"oogle":1458,"Ġshow":1459,"Ġgiv":1460,"****************":1461,"raw":1462,"ambda":1463,"Ġrep":1464,"map":1465,"Ġmo":1466,"';":1467,"cept":1468,"ĠĠĠĠĠĠĠĠĠĠĠĠĠĠĠĠĠĠĠĠĠĠĠĠĠĠĠ":1469,"Ġsuch":1470,"Com":1471,"Ġwould":1472,"Ġnode":1473,"!--":1474,"Ġelement":1475,"box":1476,"17":1477,"ween":1478,"lem":1479,"Ġ__":1480,"ank":1481,"Ġph":1482,"Service":1483,"uilder":1484,"Ġsize":1485,"Ġcons":1486,"resp":1487,"Ġrequire":1488,"=\"../../":1489,"LA":1490,"Ġdefault":1491,"assert":1492,"Ġsa":1493,"very":1494,"30":1495,"'t":1496,"ector":1497,"Over":1498,"air":1499,"ward":1500,"Ġhand":1501,"essage":1502,"apache":1503,"config":1504,"part":1505,"ho":1506,"System":1507,"tect":1508,"ference":1509,"Size":1510,"[]":1511,"UR":1512,"On":1513,"Form":1514,"ga":1515,"result":1516,"Ġresp":1517,"Ġu":1518,"ins":1519,"rough":1520,"section":1521,"valid":1522,"++":1523,"Ġjava":1524,"formation":1525,"ync":1526,"ally":1527,"Ġcal":1528,"Hand":1529,"Ġtitle":1530,"Ġpoint":1531,"ĠGet":1532,"Ġsc":1533,"ffect":1534,"raph":1535,"Ġeach":1536,"Ġnil":1537,"Ġinv":1538,"Ġkn":1539,"object":1540,"true":1541,"ren":1542,")\\":1543,"ister":1544,"ople":1545,"Ġpol":1546,"color":1547,"create":1548,"tot":1549,"ĠNew":1550,"Ġinst":1551,"lag":1552,"Ġ};":1553,"ateg":1554,"lose":1555,"Ġlong":1556,"word":1557,"Ġthem":1558,"pert":1559,"ists":1560,"ttp":1561,"search":1562,"Ġz":1563,"Of":1564,"IC":1565,"hat":1566,"ension":1567,"Ġgroup":1568,"ision":1569,"mplate":1570,"input":1571,"eturn":1572,"Ġread":1573,"Ġpo":1574,"Ġsystem":1575,"ĠAn":1576,"ams":1577,"net":1578,"default":1579,"ily":1580,"ports":1581,"ster":1582,"Ġmin":1583,"uto":1584,"Val":1585,"nection":1586,"ĠFor":1587,"fe":1588,"Ġthese":1589,"ines":1590,"50":1591,"ression":1592,"mall":1593,"ences":1594,"itor":1595,"21":1596,"ale":1597,"ume":1598,"Ġbetween":1599,"amma":1600,"=\\":1601,"Ġhigh":1602,"Ġmy":1603,"block":1604,"ared":1605,"Ġsign":1606,"Result":1607,"duct":1608,"orld":1609,"miss":1610,"Not":1611,"Item":1612,"='":1613,"Des":1614,"Ġshe":1615,"als":1616,"her":1617,"uring":1618,"$\\":1619,"lear":1620,"https":1621,"####":1622,"quot":1623,"ency":1624,"Query":1625,"vert":1626,"mu":1627,"ustom":1628,"ient":1629,"Al":1630,"Ġlike":1631,"Ġrun":1632,"abled":1633,"ĠQ":1634,"Up":1635,"Message":1636,"UT":1637,"error":1638,"ĠZ":1639,"lication":1640,"iter":1641,"ond":1642,"Le":1643,"loat":1644,"state":1645,"LO":1646,"start":1647,"ameters":1648,"ful":1649,"ĠAl":1650,"ited":1651,"land":1652,"Ġimport":1653,"icon":1654,"dition":1655,"reate":1656,"24":1657,"align":1658,"23":1659,"=\"+":1660,"ethod":1661,"ouse":1662,"\\\\":1663,"Ġwhile":1664,"model":1665,"MA":1666,"Ġconfig":1667,"_\\":1668,"Ġtarget":1669,"ĠSh":1670,"dot":1671,"ĠAs":1672,"Ġoptions":1673,"title":1674,"igma":1675,"from":1676,"Ġpr":1677,"ik":1678,"Ġneed":1679,"uf":1680,"000":1681,"velo":1682,"Ġtext":1683,"ek":1684,"scription":1685,"Int":1686,"tom":1687,"ponse":1688,"AD":1689,"enu":1690,"Ġright":1691,"ymb":1692,"member":1693,"Ġstruct":1694,"Ġthrough":1695,"199":1696,"Ġsame":1697,"ffset":1698,"po":1699,"Ġhow":1700,"core":1701,"wn":1702,"Ġed":1703,"Ġcheck":1704,"func":1705,"Ġdiffer":1706,"perties":1707,"call":1708,"Ġgiven":1709,"version":1710,"Ġstud":1711,"cc":1712,"oot":1713,"Ġuser":1714,"asses":1715,"Ġatt":1716,"thing":1717,"anc":1718,"Ġmost":1719,"ymbol":1720,"Ġdoes":1721,"oci":1722,"Im":1723,"Ġpath":1724,"mathbb":1725,"Model":1726,"event":1727,"--------------------------------":1728,"ULL":1729,"ants":1730,"point":1731,"Att":1732,"Ġcode":1733,"ential":1734,"Be":1735,"az":1736,"ower":1737,"uccess":1738,"ĠĠĠĠĠĠĠĠĠĠĠĠ":1739,"ched":1740,"Ġjust":1741,"CH":1742,"Ġnon":1743,"Property":1744,"FF":1745,"Group":1746,"Ġ-->":1747,"ron":1748,"lp":1749,"Loc":1750,"Ġsol":1751,"lex":1752,"body":1753,"uble":1754,"Ġmake":1755,"Ġindex":1756,"Manager":1757,"Is":1758,"ING":1759,"ML":1760,"cope":1761,"Ġcontent":1762,"ason":1763,"ĉĉĉĉĉĉ":1764,"Or":1765,"ED":1766,"âĢĵ":1767,"Out":1768,"web":1769,"Ġinstance":1770,"App":1771,"info":1772,"irt":1773,"lobal":1774,"bug":1775,"lugin":1776,"Ġinput":1777,"base":1778,"fin":1779,"rop":1780,"Inter":1781,"ars":1782,"ends":1783,"Ġlocal":1784,"Ġvalues":1785,"Ġprovide":1786,"Ġ\\\\":1787,"Ġcreate":1788,"Client":1789,"uthor":1790,"umer":1791,"-\\":1792,"ats":1793,"}_{":1794,"ĠSystem":1795,"Ġdirect":1796,"}^{":1797,"options":1798,"ically":1799,"duc":1800,"ric":1801,"Ġlast":1802,"Ġmat":1803,"Ġcontext":1804,"Ġlog":1805,"ingle":1806,"Ġbase":1807,"dt":1808,"actory":1809,"MP":1810,"IG":1811,"rag":1812,"wit":1813,"ET":1814,"max":1815,"Ġbefore":1816,"nder":1817,"Ġfound":1818,"Ac":1819,"ĠTr":1820,"Arg":1821,"Ġbool":1822,"ĠSet":1823,"IS":1824,"ivers":1825,"Ġpeople":1826,"ĠĠĊ":1827,"iable":1828,"del":1829,"^{\\":1830,"Response":1831,"method":1832,"ures":1833,"lambda":1834,"Ġnow":1835,"Call":1836,"context":1837,"ape":1838,"Ġsupport":1839,"ĠLe":1840,"33":1841,"Ġfil":1842,"ane":1843,"Reg":1844,"module":1845,"Ġorder":1846,"content":1847,"ypes":1848,"roller":1849,"phi":1850,"ough":1851,"leg":1852,"This":1853,"serv":1854,"Ġbreak":1855,"tes":1856,"annel":1857,"java":1858,"Ġwhat":1859,"Table":1860,"bf":1861,"ting":1862,"Ġmust":1863,"pos":1864,"select":1865,"Ġsee":1866,"lease":1867,"================":1868,"Ġwell":1869,"mun":1870,"Ġprob":1871,"ait":1872,"40":1873,"Count":1874,"Ġsrc":1875,"ctions":1876,"At":1877,"nect":1878,"mark":1879,"ene":1880,"pri":1881,"lt":1882,"false":1883,"do":1884,"Lo":1885,"ling":1886,"any":1887,"Dis":1888,"Ġsaid":1889,"less":1890,"Ġ{\\":1891,"next":1892,"ifier":1893,"Ġcl":1894,"has":1895,"UN":1896,"rix":1897,"Ġitem":1898,"erson":1899,"iled":1900,"Cell":1901,"totype":1902,"ever":1903,"Log":1904,"Ġca":1905,"Override":1906,"Ġcontain":1907,"package":1908,"User":1909,"Ġfind":1910,"sk":1911,"AB":1912,"head":1913,"From":1914,"arn":1915,"Ġref":1916,"DO":1917,"Method":1918,"Ġmax":1919,"meric":1920,"gt":1921,"google":1922,"db":1923,"tected":1924,"cor":1925,"Ġfollowing":1926,"check":1927,"Ġter":1928,"Ġagain":1929,"ident":1930,"ier":1931,"tail":1932,"doc":1933,"etwork":1934,"Ġsource":1935,"Ġstd":1936,"New":1937,"ENT":1938,"down":1939,"cause":1940,"])":1941,"place":1942,"Ġsecond":1943,">(":1944,"Ġblock":1945,"Input":1946,"=\"../../../../":1947,"beta":1948,"Color":1949,"ender":1950,"Ġdifferent":1951,"Ġcould":1952,"ES":1953,"www":1954,"ĠĠĠĠĠĠĠĠĠĠ":1955,"irtual":1956,"Stream":1957,"static":1958,";&":1959,"Ġtry":1960,"Ġversion":1961,"ormal":1962,"css":1963,"Trans":1964,"bs":1965,"Ġboth":1966,"reat":1967,"Ġ()":1968,"ources":1969,"my":1970,"velop":1971,"way":1972,"light":1973,"sup":1974,">&":1975,"see":1976,"irc":1977,"ification":1978,"option":1979,"Options":1980,"ĠCom":1981,"ym":1982,"tn":1983,"ox":1984,"using":1985,"mes":1986,"ottom":1987,"Ġappro":1988,"Ġallow":1989,"style":1990,"Ġnext":1991,"defined":1992,"Ġprocess":1993,"Ġevery":1994,"gr":1995,"peri":1996,"Builder":1997,"ilon":1998,"80":1999,"ump":2000,"Ġsur":2001,"side":2002,"Ġcent":2003,"current":2004,"image":2005,"Status":2006,"Ġinformation":2007,"TH":2008,"element":2009,"argin":2010,"Ġ<<":2011,"Token":2012,"Util":2013,"other":2014,"eps":2015,"idd":2016,"Ġdi":2017,"mathbf":2018,"Ġinclu":2019,"gram":2020,"Ġbeing":2021,"Ġmap":2022,"Ġdocument":2023,"ĠCol":2024,"lick":2025,"client":2026,"button":2027,"ru":2028,"((":2029,"rict":2030,"ansp":2031,"teger":2032,"ten":2033,"Ġbecause":2034,"Ġchild":2035,"ithub":2036,"sigma":2037,"ife":2038,"Ġstyle":2039,"Ġmessage":2040,"day":2041,"ism":2042,"riter":2043,"End":2044,"icy":2045,"0000":2046,"android":2047,"AS":2048,"Ġest":2049,"All":2050,"namespace":2051,"tab":2052,"CE":2053,"TD":2054,"Ġmon":2055,"Sty":2056,"ĠSer":2057,"mod":2058,"null":2059,"Ġpartic":2060,"ah":2061,"ross":2062,"depend":2063,"ĠAss":2064,"query":2065,"Exp":2066,"Tra":2067,"ĠNULL":2068,"uage":2069,"](":2070,"ailable":2071,"request":2072,"ĠĠĠĠĠĠĠĠĠĠĠĠĠĠĠĠĠĠĠĠĠĠĠĠĠĠĠĠĠĠĠ":2073,"Ġmod":2074,"Ġtop":2075,"Ġcontin":2076,"ability":2077,"logy":2078,"vious":2079,"Ġboolean":2080,"graph":2081,"Ġ(\\":2082,"Null":2083,"Ġleft":2084,"jo":2085,"IL":2086,"ware":2087,"with":2088,"prototype":2089,"ĠRes":2090,"60":2091,"Ġvis":2092,"Ġlet":2093,"AME":2094,"github":2095,"Instance":2096,"IP":2097,"Ġtable":2098,"OT":2099,"Ġpri":2100,"ĠComp":2101,"atab":2102,"^{-":2103,"Ġlink":2104,"ĉĠĠĠ":2105,"ining":2106,"Date":2107,"Ref":2108,"*/":2109,"Ġresults":2110,"chool":2111,"bl":2112,"Ġbackground":2113,"Ġresponse":2114,"Ġmult":2115,"And":2116,"ĠIs":2117,"Ġequ":2118,"Image":2119,"acter":2120,"Ġind":2121,"ves":2122,"Source":2123,"Ġmany":2124,"=\"#":2125,"dir":2126,"Ġ$(":2127,"Ġbuild":2128,"lib":2129,"ql":2130,"Ġselect":2131,"Ġposition":2132,"Ġyears":2133,"ssion":2134,"Ġhere":2135,"Ġhim":2136,"args":2137,".,":2138,"ĠOn":2139,"Ġinclude":2140,"*}":2141,";</":2142,"Ġview":2143,"Ġ+=":2144,"signed":2145,"idget":2146,"orn":2147,"refer":2148,"outh":2149,"Base":2150,"YPE":2151,"Ġgame":2152,"lish":2153,"ches":2154,"Del":2155,"icense":2156,"ather":2157,"=\"../":2158,"init":2159,")}":2160,"ĠĠĠĠĠĠĠĠĠĠĠĠĠĠĠĠĠ":2161,"Sub":2162,"tra":2163,"Buffer":2164,"US":2165,"print":2166,"Ġav":2167,"uck":2168,"times":2169,"Ġmark":2170,"atabase":2171,"({":2172,"inf":2173,"hand":2174,"ceiv":2175,"Ph":2176,"Handler":2177,"delta":2178,"Ġorig":2179,"Ġlevel":2180,"ift":2181,"Ġopen":2182,"inition":2183,"amily":2184,"ixed":2185,"Block":2186,"Ġwidth":2187,"27":2188,"ets":2189,"ood":2190,"EX":2191,"umb":2192,"ship":2193,"adata":2194,"gy":2195,"alth":2196,"arge":2197,"uments":2198,"Ġoutput":2199,"ns":2200,"mat":2201,"case":2202,"Ġlow":2203,"target":2204,"Te":2205,"Ġlook":2206,"ivity":2207,"page":2208,"gamma":2209,"center":2210,"Ġcolor":2211,"Ġpass":2212,"Style":2213,"ĠList":2214,"Oper":2215,"Ġthree":2216,"Ġmain":2217,"Ġloc":2218,"vices":2219,"Ġcount":2220,"ĠJo":2221,"server":2222,"Ġeven":2223,"Ad":2224,"mathrm":2225,"tings":2226,"Attribute":2227,"append":2228,"sw":2229,"âĢľ":2230,"Ġeffect":2231,"Ġ,":2232,"Function":2233,"Ã©":2234,"Ð°":2235,"ĠTest":2236,"anel":2237,"ĠAmeric":2238,"ci":2239,"UE":2240,"+\\":2241,"orage":2242,"Lay":2243,"Ġsim":2244,"Default":2245,"Ġdown":2246,"ero":2247,"Ġknow":2248,"iron":2249,"mission":2250,"tilde":2251,"99":2252,"local":2253,"aces":2254,"Content":2255,"Gener":2256,"DI":2257,"require":2258,"Ġproperty":2259,"attern":2260,"Filter":2261,"Ġway":2262,"xy":2263,"loy":2264,"equal":2265,"Bar":2266,"Ġinitial":2267,"tal":2268,"imple":2269,"cast":2270,"ptr":2271,"ONT":2272,"Ġfact":2273,"ually":2274,"Ġduring":2275,"ulation":2276,"height":2277,"Ġart":2278,"TO":2279,"parent":2280,"adding":2281,"Line":2282,"json":2283,"Ed":2284,"Ġ($":2285,"Component":2286,"ries":2287,"ural":2288,"ively":2289,"Ġandroid":2290,"Ġ\"\"\"":2291,"Select":2292,"Ġmatch":2293,"NS":2294,"arrow":2295,"Resource":2296,"ĠAnd":2297,"exp":2298,"Ð¾":2299,"Ext":2300,"28":2301,"Ġproject":2302,"Ġhttp":2303,"Ġvalid":2304,"Frame":2305,"ĠReturn":2306,"Ġident":2307,"Ġwant":2308,"rie":2309,"position":2310,"Ġconsider":2311,"rt":2312,"older":2313,"php":2314,"Action":2315,"vol":2316,"Start":2317,"ital":2318,"iversity":2319,"ĠObject":2320,".âĢĿ":2321,"Ġret":2322,"Ġmed":2323,")</":2324,"header":2325,"Ġclient":2326,"But":2327,"^\\":2328,"Ġop":2329,"orth":2330,"[\"":2331,"<!--":2332,"rows":2333,"icro":2334,"child":2335,"Sp":2336,"Format":2337,"Mem":2338,"Ġsince":2339,"ename":2340,"omain":2341,"frame":2342,"Ġimplement":2343,"26":2344,"Ġurl":2345,"overn":2346,"Ġcalled":2347,"Ġ->":2348,"){":2349,"CK":2350,"ior":2351,"vider":2352,"ready":2353,"Ġbr":2354,"}{\\":2355,"alk":2356,"Ġmodule":2357,"property":2358,"Ġborder":2359,"tag":2360,"Ġopt":2361,"au":2362,"big":2363,"gn":2364,"Ġdid":2365,"Ġmade":2366,"rho":2367,"istory":2368,"Ġrepresent":2369,"No":2370,"ung":2371,"ted":2372,"Ġ!==":2373,"Ġown":2374,"Ġreal":2375,"active":2376,"Per":2377,"Ġparent":2378,"Ġlimit":2379,"sec":2380,"Ġrange":2381,"push":2382,"Ġ{@":2383,"Ġvery":2384,"itu":2385,"rl":2386,"Ġincre":2387,"Ġsuper":2388,"lags":2389,"temp":2390,"pm":2391,"proto":2392,"Ġpost":2393,"angle":2394,"ributes":2395,"Factory":2396,"ĠĠĠĠĠĠĠĠĠĠĠĠĠĠ":2397,"Ġanal":2398,"Ġ((":2399,"Ġscal":2400,"semb":2401,"Ġsmall":2402,"ĠčĊ":2403,"EL":2404,"Ġpop":2405,"Number":2406,"Ġbl":2407,"OL":2408,".\"":2409,"Version":2410,"Ġcur":2411,"Ġhelp":2412,"Ġthrows":2413,"01":2414,"FI":2415,"ination":2416,"~~":2417,"Ġwrit":2418,"witch":2419,"Ġfeature":2420,"gress":2421,"endif":2422,"Equals":2423,"cho":2424,"ideo":2425,"write":2426,"ĉĊ":2427,"Window":2428,"Ġdevelop":2429,"Ġfin":2430,"ffic":2431,"});":2432,"HT":2433,"anged":2434,"Ġexpected":2435,"ique":2436,"expect":2437,"ives":2438,"ession":2439,"45":2440,"viron":2441,"Point":2442,"Ġgu":2443,"Ġlead":2444,"src":2445,"ĠÐ":2446,"Ġservice":2447,"Ġdec":2448,"Ġcallback":2449,"29":2450,"cy":2451,"flow":2452,"Tag":2453,"Act":2454,"Ġsett":2455,"ters":2456,"Ġtak":2457,"izer":2458,"Ġcondition":2459,"Task":2460,"reen":2461,"Ġam":2462,"Ġthose":2463,"$-":2464,"Ġaut":2465,"xml":2466,"Ġpresent":2467,"run":2468,"char":2469,"ĠTo":2470,"ynam":2471,"len":2472,"ators":2473,"ĠEn":2474,"where":2475,"ĠTe":2476,"Create":2477,"Ġperform":2478,"Ġlength":2479,"////////////////":2480,"ATE":2481,"opy":2482,"Ġdistribut":2483,"ness":2484,"ĠYou":2485,"uary":2486,"Ġdon":2487,"andom":2488,"ony":2489,"Ðµ":2490,"af":2491,"Hel":2492,"ĠIN":2493,"filter":2494,"If":2495,"Read":2496,"figure":2497,"True":2498,"Ġexample":2499,"GL":2500,"ferences":2501,"Ġfa":2502,"andard":2503,"Ġexperi":2504,"Str":2505,"AG":2506,"cdot":2507,"Ġdefined":2508,"Pre":2509,"Ġaccess":2510,"_.":2511,"last":2512,"leq":2513,"stru":2514,"ict":2515,"theta":2516,"Ass":2517,"tau":2518,"tack":2519,"open":2520,"find":2521,"spec":2522,"build":2523,"66":2524,"status":2525,"obj":2526,"Ġrest":2527,"(&":2528,"vis":2529,"ots":2530,"bed":2531,"OP":2532,"Child":2533,"Ġimage":2534,"anges":2535,"Ġdescri":2536,"AP":2537,"]{":2538,"sg":2539,"returns":2540,"aterial":2541,"75":2542,"SC":2543,"Ġwithout":2544,"198":2545,"si":2546,"Ġold":2547,"Ġposs":2548,"Ġprotected":2549,"itive":2550,"loud":2551,"Ġpage":2552,"Link":2553,"Ġgra":2554,"Ġchange":2555,"ĠInd":2556,"Ġaction":2557,"mt":2558,"ĠPar":2559,"partial":2560,"ocus":2561,"gener":2562,"ĠGL":2563,"Check":2564,"ialog":2565,"Row":2566,"sert":2567,"ai":2568,"duction":2569,"Nav":2570,"Ġcar":2571,"ĠĠĠĠĠĠĠĠĊ":2572,"ration":2573,"VER":2574,"imum":2575,"}(\\":2576,"bit":2577,"Length":2578,"buf":2579,"asure":2580,"come":2581,"ĠPh":2582,"btn":2583,"lat":2584,"opt":2585,"rowser":2586,"private":2587,"tex":2588,"pc":2589,"ways":2590,"ĠHow":2591,"nu":2592,"Page":2593,"imal":2594,"Const":2595,"quence":2596,"Ġobtain":2597,"Ġrequired":2598,"\"]":2599,"\".":2600,"display":2601,"Ġq":2602,"Ġworld":2603,"ral":2604,"Met":2605,"mail":2606,"Ġexec":2607,"Collection":2608,"Ġspace":2609,"Ġbased":2610,"Ġexist":2611,"post":2612,"Ġ[]":2613,"Ġsingle":2614,"Ġdepend":2615,"olds":2616,"first":2617,"imation":2618,"icle":2619,"go":2620,"ĠBe":2621,"Spec":2622,"SP":2623,"Ġconf":2624,"unk":2625,"IM":2626,"Ġhead":2627,"Command":2628,"host":2629,"///":2630,"undle":2631,"omega":2632,"df":2633,"used":2634,"ĠAdd":2635,"format":2636,"untime":2637,"Ġresource":2638,"lot":2639,"ances":2640,"finished":2641,"remove":2642,"OD":2643,"arm":2644,"ĠRo":2645,"Ġsk":2646,"attr":2647,"structor":2648,"Ġavailable":2649,"description":2650,"std":2651,"Ġdisplay":2652,"iver":2653,"ĠNone":2654,"Part":2655,"soft":2656,"arning":2657,"Ġparameter":2658,"Ġpos":2659,"2022":2660,"ibility":2661,"Ġsuccess":2662,"Listener":2663,"SON":2664,"Delta":2665,"rect":2666,"Ġtemp":2667,"Ġrecord":2668,"dl":2669,"refix":2670,"Cache":2671,"rel":2672,"ither":2673,"oper":2674,"ĠEX":2675,"anguage":2676,"ABLE":2677,"FA":2678,"meta":2679,"ories":2680,"Ġaddition":2681,"Ġplace":2682,"Ġincluding":2683,"Ġstill":2684,"ball":2685,"NO":2686,"$$":2687,"bottom":2688,"Ġcommun":2689,"REF":2690,"Pol":2691,"LASS":2692,"35":2693,"ee":2694,"++)":2695,"Ġmuch":2696,"PRO":2697,"Ob":2698,"Ġspecified":2699,"Output":2700,"png":2701,"ĠĠĠĠĠĠĠĠĠĠĠĠĊ":2702,"eqref":2703,"lished":2704,"resh":2705,"EE":2706,"Mode":2707,"quad":2708,"Ġjo":2709,"INT":2710,"34":2711,"URL":2712,"Ġwithin":2713,"ĉĠ":2714,"Ġtri":2715,"Label":2716,"Ġcell":2717,"39":2718,"strong":2719,"Ġmak":2720,"Ġgood":2721,"Ġtake":2722,"Ġbound":2723,"ina":2724,"Ġcontrol":2725,"Ġpres":2726,"inary":2727,"${":2728,"(_":2729,"Ġport":2730,"ategory":2731,"ĠAd":2732,"Ġlabel":2733,"ending":2734,"heet":2735,"vironment":2736,"infty":2737,"}$.":2738,"Ġet":2739,"update":2740,"ilar":2741,"Ġear":2742,"It":2743,"inc":2744,"}$,":2745,"container":2746,"uture":2747,"Ġcommand":2748,"Valid":2749,"]);":2750,"Ġver":2751,"Ġmode":2752,"Ġoption":2753,"agn":2754,"Ġextends":2755,"sol":2756,"ird":2757,"ĠReg":2758,"Ġcoun":2759,"Ġbro":2760,"main":2761,"HE":2762,"stream":2763,"unfinished":2764,"book":2765,"Sc":2766,"\").":2767,"ported":2768,"ĠMar":2769,"Ġappe":2770,"Web":2771,"ĠAll":2772,"Ġcolumn":2773,"iple":2774,"Ġaddress":2775,"mm":2776,"|\\":2777,"Ġheight":2778,"iness":2779,"ĉĉĉĉĉĉĉĉ":2780,"TYPE":2781,"Controller":2782,"ĠApp":2783,"ERR":2784,"Ġss":2785,"Ġuint":2786,"\"),":2787,"70":2788,"55":2789,"hether":2790,"oto":2791,"Ġwindow":2792,")(":2793,"ysis":2794,"jav":2795,"Ġparameters":2796,"ERT":2797,"tool":2798,"bove":2799,"Ġagainst":2800,"aster":2801,"ended":2802,"number":2803,"Ent":2804,"Offset":2805,"ury":2806,"eqn":2807,"hn":2808,"pol":2809,"Button":2810,"amples":2811,"Ġupdate":2812,"Ġmove":2813,":\"":2814,"project":2815,"Ġpack":2816,"sing":2817,">>":2818,"plugin":2819,"Ġaround":2820,"Var":2821,"Ġnetwork":2822,"AM":2823,"Ð¸":2824,"output":2825,"response":2826,"common":2827,"Return":2828,"chema":2829,"earch":2830,"ired":2831,"ĠLicense":2832,"ging":2833,"duced":2834,"ĠNo":2835,"Ġlen":2836,"Ġbeh":2837,"olume":2838,"params":2839,"lin":2840,"Sup":2841,"ls":2842,"ĠUniversity":2843,"Ġcopy":2844,"offset":2845,"ead":2846,"navbar":2847,"sole":2848,"CC":2849,"ade":2850,"usic":2851,"non":2852,"onents":2853,"ĠâĢĶ":2854,"Ġcatch":2855,"CON":2856,"stract":2857,"Url":2858,"Ġalready":2859,"raint":2860,"Ġassoci":2861,"Ġabove":2862,"ium":2863,"TP":2864,"OS":2865,"Ġtask":2866,"Ġbest":2867,"img":2868,"Ġframe":2869,"Ġfull":2870,"90":2871,"ring":2872,"ately":2873,"iler":2874,"Ġmargin":2875,"FONT":2876,"Column":2877,"Ġobj":2878,"ĠBy":2879,"uint":2880,"energy":2881,"Width":2882,"ĠSp":2883,"close":2884,"ĠAPI":2885,"Ġke":2886,"cache":2887,"********************************":2888,"parse":2889,",âĢĿ":2890,"instance":2891,"rigger":2892,"ĠThere":2893,"Ġoriginal":2894,"Ġla":2895,".$":2896,"entry":2897,"ĠWh":2898,"Ġfour":2899,"UI":2900,"\\,":2901,"Ġauto":2902,"gor":2903,"Ġsum":2904,"ensor":2905,"Run":2906,"''":2907,"ety":2908,"Module":2909,"Ġprevious":2910,"menu":2911,"luster":2912,"Ġinternal":2913,"Ġlarge":2914,"Ġpower":2915,"Ġstatus":2916,"sor":2917,"ĠSo":2918,"ret":2919,"nown":2920,"BU":2921,"wide":2922,"Ġtech":2923,"tx":2924,"inst":2925,"Ġdisc":2926,"QL":2927,"Ġside":2928,"Ġquery":2929,"font":2930,"Ġfilter":2931,"river":2932,"late":2933,"Case":2934,"Provider":2935,"Ġhome":2936,"xi":2937,"yles":2938,"Ġvariable":2939,"Ġfail":2940,"struction":2941,"Fe":2942,"Types":2943,"Update":2944,"duce":2945,"cription":2946,"change":2947,"Ġmov":2948,"ley":2949,"Ġiss":2950,"service":2951,"ĠArray":2952,"apping":2953,"bind":2954,"UM":2955,"Container":2956,"Ġteam":2957,"cul":2958,"Ġargs":2959,"Ġes":2960,"Ġstore":2961,"orem":2962,"36":2963,"ÑĤ":2964,"acy":2965,"udio":2966,"sembly":2967,"Ġtotal":2968,"agement":2969,"iod":2970,"Char":2971,"Target":2972,"Ġcustom":2973,"Ġperson":2974,"<?":2975,"dev":2976,"Ġgr":2977,"ĠShe":2978,"Ġ]":2979,"lip":2980,"ascript":2981,"omen":2982,"Ġserver":2983,"Ġanother":2984,"Server":2985,"Layout":2986,"44":2987,"ensure":2988,"tegr":2989,"kit":2990,"aj":2991,"aper":2992,"cording":2993,"tact":2994,"else":2995,"ĠMan":2996,"aving":2997,"uss":2998,"2020":2999,"verage":3000,"Ġreturns":3001,"References":3002,"ĠAmerican":3003,"uro":3004,"Ġelect":3005,"ĠĠĠĠĠĠĠĠĠĠĠĠĠĠĠĠĠĠĠĠĠĠĠĠĠĠĠĠĠĠĠĠĠĠĠ":3006,"column":3007,"Ġcorresp":3008,"NAME":3009,"ied":3010,"tric":3011,"ival":3012,"ĠAssert":3013,"show":3014,"Do":3015,"gorith":3016,"Interface":3017,"Ġreceiv":3018,"oke":3019,"ĠEng":3020,"layout":3021,"aut":3022,"valu":3023,"uk":3024,"Ġrespect":3025,"template":3026,"Ġlay":3027,"ĠAt":3028,"ĠBut":3029,"ison":3030,"urther":3031,"apt":3032,"Ġbus":3033,"Ġcharacter":3034,"rapper":3035,"Box":3036,"sq":3037,"rypt":3038,"exec":3039,"').":3040,"lied":3041,"unit":3042,"Ġformat":3043,"31":3044,"now":3045,"hes":3046,"wise":3047,"Ġhost":3048,"igation":3049,"Ġprint":3050,"ĠReturns":3051,"IZ":3052,"ĠCan":3053,"Ġdeter":3054,"Ġday":3055,"ilt":3056,"IO":3057,"CL":3058,"ced":3059,"ged":3060,"DB":3061,"coding":3062,"num":3063,"emp":3064,"asic":3065,"itt":3066,"Ġclear":3067,"ĠUS":3068,"mount":3069,"ĠDo":3070,"expected":3071,"Access":3072,"process":3073,"verse":3074,"atal":3075,"lev":3076,"38":3077,"API":3078,"Ġcap":3079,"Ġproduct":3080,"Ġknown":3081,"should":3082,"ifact":3083,"gest":3084,"ado":3085,"ĠOr":3086,"mult":3087,"ules":3088,"cap":3089,"Ġbody":3090,"until":3091,"Ġinterface":3092,"ĠMo":3093,"Ġword":3094,"2021":3095,"gment":3096,"Ġtag":3097,"ĠFe":3098,"Ġgeneral":3099,"Range":3100,"tails":3101,"Address":3102,"48":3103,"Ġseries":3104,"Header":3105,"ped":3106,"window":3107,"Ġvirtual":3108,"tax":3109,"psi":3110,"annot":3111,"Sto":3112,"Ġbook":3113,"Ġclo":3114,"ze":3115,"erm":3116,"ĠType":3117,"Ġ<!--":3118,"imension":3119,"ĠHT":3120,"off":3121,"Ġoffset":3122,"Callback":3123,"only":3124,"Ġconnection":3125,"VAL":3126,"sl":3127,"Ġpossible":3128,"illi":3129,"```":3130,"Back":3131,"Ġshort":3132,"2016":3133,"Ġlife":3134,"Parameter":3135,"2015":3136,"cm":3137,"ĠJan":3138,"ving":3139,"ĠID":3140,"05":3141,"Ġbuffer":3142,"Ġdouble":3143,"Ġwrite":3144,"caption":3145,"37":3146,"Configuration":3147,"([":3148,"bra":3149,"pth":3150,"match":3151,"Ġfree":3152,"Ġinf":3153,"Ġlaw":3154,"ustr":3155,"ĠFile":3156,"ĠTra":3157,"First":3158,"PECT":3159,"ĠMay":3160,"mega":3161,"ĠCar":3162,"Last":3163,"Ġproperties":3164,"Ġsever":3165,"ĠAc":3166,"utils":3167,"bool":3168,"Ġclose":3169,"buffer":3170,"idden":3171,"medi":3172,"Ġbel":3173,"Ġpur":3174,"can":3175,"apter":3176,"istry":3177,"Ð½":3178,"ansport":3179,"store":3180,"Ġequal":3181,"Ġload":3182,"Ġcomput":3183,"fs":3184,"Ġfore":3185,"pes":3186,"Âł":3187,"Ġmem":3188,"Ġenergy":3189,"javascript":3190,"board":3191,"epsilon":3192,"aded":3193,"Height":3194,"aged":3195,"Next":3196,"ram":3197,"rist":3198,"Ġprogram":3199,"ctx":3200,"Ġelements":3201,"Ġeither":3202,"ensions":3203,"ĠFr":3204,"Cl":3205,"ĠHREF":3206,"Imp":3207,"Entry":3208,"Write":3209,"Ġdue":3210,"cs":3211,"Ġstream":3212,"foot":3213,"Ġweek":3214,"une":3215,"Ġlater":3216,"root":3217,"anch":3218,"mote":3219,"2014":3220,"gen":3221,"draw":3222,"ULT":3223,"dict":3224,"Det":3225,"Ġthink":3226,"Ġpoints":3227,"'),":3228,"2017":3229,"()->":3230,"ĠCLASS":3231,"########":3232,"Ġuntil":3233,"licit":3234,"Ġdest":3235,"Ġsearch":3236,"eqnarray":3237,"Ġundefined":3238,"reference":3239,"sim":3240,"Ġcache":3241,"Ġcour":3242,"Ġmet":3243,"Utils":3244,"Ġemp":3245,"queue":3246,"Vis":3247,"OST":3248,"command":3249,"COL":3250,"Max":3251,"pose":3252,"clus":3253,"met":3254,"ication":3255,"acity":3256,"lap":3257,"ured":3258,"Ġcomplet":3259,"ĠGener":3260,"MS":3261,"task":3262,"Ġ{}":3263,"ised":3264,"sm":3265,"Position":3266,"ĠUp":3267,"ocial":3268,"mbers":3269,"ftware":3270,"Tree":3271,"197":3272,"cret":3273,"lice":3274,"itory":3275,"2018":3276,"Ġsection":3277,"Ġ``":3278,"Empty":3279,"Ġevents":3280,"Ġwhether":3281,"Ġfont":3282,"iant":3283,"els":3284,"}[":3285,"small":3286,"Omega":3287,"lit":3288,"Ġcare":3289,"ops":3290,"Ġglobal":3291,"ĠUnited":3292,"Params":3293,"irection":3294,"Ġdiv":3295,"ttps":3296,"alt":3297,"Json":3298,"}}\\":3299,")$.":3300,"Unit":3301,"Ġspe":3302,"Ġorgan":3303,"Ġfiles":3304,"Ġalways":3305,"ĠThey":3306,"float":3307,"âĢ¦":3308,"Ġtrack":3309,"Ġ**":3310,"olve":3311,"Ġmethods":3312,"Ġfamily":3313,"ole":3314,"ĠCreate":3315,"document":3316,"Connection":3317,"ites":3318,"ĠâĢĺ":3319,"Ġdate":3320,"oice":3321,"Ġmeasure":3322,"mar":3323,"level":3324,"je":3325,"tocol":3326,"Ġschool":3327,"Ġbu":3328,"Di":3329,"./":3330,"Ġinterest":3331,"Ġaccount":3332,"Ġfloat":3333,"Ġnone":3334,"sets":3335,"Ġregion":3336,"Ġput":3337,"Ġfre":3338,"Ġarguments":3339,"^*":3340,"ĠDis":3341,"Ġhttps":3342,"foo":3343,"2019":3344,"][":3345,"ĠFig":3346,"exports":3347,"overnment":3348,"}_{\\":3349,":(":3350,"ths":3351,"Top":3352,"Pr":3353,"resource":3354,"Document":3355,"ĠDef":3356,"KE":3357,"mut":3358,"Pack":3359,"Pl":3360,"ÑĢ":3361,"graphics":3362,"Ġfunctions":3363,"Ġprovided":3364,"Ver":3365,"assword":3366,"cer":3367,"Ġmass":3368,"Ġ>=":3369,"Min":3370,"Ab":3371,"Ġiter":3372,"tains":3373,"Level":3374,"ĠState":3375,"aint":3376,"Ġcreated":3377,"ĠPol":3378,"Thread":3379,"Ġtoo":3380,"Ġparticular":3381,"edia":3382,"Ġleg":3383,"ĠCal":3384,"UP":3385,"Ġindic":3386,"Ġalong":3387,"illion":3388,"icrosoft":3389,"roy":3390,"XX":3391,"ternational":3392,"ART":3393,"Ġturn":3394,"ĠEXPECT":3395,"wards":3396,"psilon":3397,"Ġxml":3398,"ĠNot":3399,"Ġsimilar":3400,"Ġrole":3401,"gl":3402,"uid":3403,":</":3404,"Option":3405,"sqrt":3406,"ĠCent":3407,"inner":3408,"Kind":3409,"Ġsat":3410,"dependent":3411,"Ġrow":3412,"patch":3413,"ention":3414,"\"))":3415,"ĠHowever":3416,"Mod":3417,"allet":3418,"Ġcollection":3419,"ĠOF":3420,"Ġoperation":3421,"final":3422,"long":3423,"Wh":3424,"scope":3425,"tree":3426,"Ġsay":3427,"rs":3428,"yntax":3429,"Ġroot":3430,"Ġinit":3431,"ĉĉĉĉĉĉĉ":3432,"images":3433,"Ġinvest":3434,"Ġpub":3435,"Ġapi":3436,"Ġdel":3437,"ND":3438,"Hash":3439,"Exec":3440,"External":3441,"âĢĶ":3442,"Operation":3443,"ĠClass":3444,"Ġdone":3445,"Ġless":3446,"arr":3447,"cle":3448,"atform":3449,"Ġhapp":3450,"?:":3451,"tml":3452,"2013":3453,"styles":3454,"Ġbit":3455,"empty":3456,"engine":3457,"iff":3458,"Bundle":3459,"ĠDes":3460,"Ġremove":3461,"uman":3462,"ember":3463,"Ġpay":3464,"eded":3465,"PC":3466,"ĠTime":3467,"ĠCO":3468,"Ġfields":3469,"Ġpat":3470,"Ġstudy":3471,"Control":3472,",\"":3473,"Ġlinks":3474,"dest":3475,"Ġmean":3476,"VE":3477,"pename":3478,"uple":3479,"STR":3480,"token":3481,"Match":3482,"ĠGe":3483,"Ġnear":3484,"dom":3485,"alf":3486,"Ġoverride":3487,"curity":3488,"Ġfew":3489,"cell":3490,"Location":3491,"ĠData":3492,"raft":3493,"Ġbegin":3494,"vec":3495,"67":3496,"65":3497,"Ġden":3498,"era":3499,"limit":3500,"Ġparams":3501,"des":3502,"Ġarea":3503,"Gamma":3504,"ograph":3505,"sche":3506,"Ġalign":3507,"Record":3508,"Entity":3509,"Settings":3510,"Ġ*)":3511,"Ġnormal":3512,"Ġpot":3513,"RL":3514,"bb":3515,"SH":3516,"Ġcomponent":3517,"na":3518,"author":3519,"Ġ...":3520,"wait":3521,"Ident":3522,"ĠLo":3523,"second":3524,"ially":3525,"ux":3526,"Ptr":3527,"Ġspecific":3528,"ĠCl":3529,"example":3530,"render":3531,"Ġmodels":3532,"Process":3533,"scale":3534,"ires":3535,"imate":3536,"ordin":3537,"ĠSup":3538,"istic":3539,"Ġtypes":3540,"Ð¾Ð":3541,"values":3542,"ĠCoun":3543,"tach":3544,"LI":3545,"Ġcr":3546,"ĠException":3547,"ĠCont":3548,"Ġwon":3549,"EQ":3550,"background":3551,"Ġproblem":3552,"ATION":3553,"aml":3554,"atter":3555,"dist":3556,"Ġempty":3557,"fa":3558,"drop":3559,"Change":3560,"ĠMe":3561,"ACK":3562,"por":3563,"TI":3564,"Ġchildren":3565,"Ġseason":3566,"oost":3567,"Ġcomb":3568,"Ġder":3569,"dat":3570,"prec":3571,"ront":3572,"Ġeas":3573,"Http":3574,"Ġreturned":3575,"():":3576,"ĠBo":3577,"break":3578,"debug":3579,")]":3580,"ĠWhen":3581,"Ġhandle":3582,"gan":3583,"CODE":3584,"nap":3585,"Direct":3586,"%%":3587,"Po":3588,"Ġconnect":3589,"ensity":3590,"gorithm":3591,"Que":3592,"Ġrender":3593,"Search":3594,"2012":3595,"idual":3596,"hip":3597,"None":3598,"unded":3599,"Ġmight":3600,"lies":3601,"ĠCheck":3602,"AA":3603,"dated":3604,"02":3605,"omic":3606,"imer":3607,">,":3608,"Expression":3609,"ges":3610,"Properties":3611,"vare":3612,"ĠName":3613,"Handle":3614,"hash":3615,"urity":3616,"ales":3617,"Ġdesign":3618,"Ġgraph":3619,"INE":3620,"aly":3621,"2011":3622,")$,":3623,"jor":3624,"actions":3625,"08":3626,"byte":3627,"Ġ${\\":3628,"ĠWorld":3629,"ĠĠĠĠĠĠĠĠĠĠĠĠĠĠĠĠĠĠĠĠĠ":3630,"Ġentry":3631,"Ġcontains":3632,"04":3633,"\"));":3634,"stand":3635,"oriz":3636,"vas":3637,"thon":3638,"Ag":3639,"prop":3640,"Ġimportant":3641,"ĠJohn":3642,"Ġapplication":3643,"Ġleast":3644,"Ġtemplate":3645,"IZE":3646,"Open":3647,"ĠErr":3648,"hent":3649,"etch":3650,"ij":3651,"à¤":3652,"utes":3653,"mem":3654,"ĠSee":3655,"msg":3656,"subsection":3657,"layer":3658,"Ġrelation":3659,"Work":3660,"ĠInst":3661,"Ġreference":3662,"Big":3663,"creen":3664,"Ġtimes":3665,"system":3666,"ORT":3667,"Async":3668,"Ġseveral":3669,"Ñģ":3670,"sv":3671,"ases":3672,"skip":3673,"ights":3674,"Ġrema":3675,"}/":3676,"Ġstructure":3677,"}=":3678,"Render":3679,"varepsilon":3680,"Ġfoot":3681,"2010":3682,"Load":3683,"Ġve":3684,"Port":3685,"served":3686,"legate":3687,"ĠMin":3688,"Session":3689,"Ġassociated":3690,"Ġchannel":3691,"Dir":3692,"Reference":3693,"Ġquest":3694,"aring":3695,"Ġev":3696,"control":3697,"copy":3698,"88":3699,"Host":3700,"Ġshown":3701,"ks":3702,"Store":3703,"Local":3704,"ba":3705,"ĠNov":3706,"ggle":3707,"Ġjob":3708,"rest":3709,"sd":3710,"ãģ":3711,"internal":3712,"mode":3713,"Script":3714,"Ġspecial":3715,"IGN":3716,"ĉĠĠĠĠĠĠĠ":3717,"direct":3718,"=\"_":3719,"Ġfilm":3720,"Ġadded":3721,"Project":3722,"ĠVal":3723,"lying":3724,"UB":3725,"amil":3726,"irm":3727,"cket":3728,"known":3729,"Ġvia":3730,"chi":3731,"ĠSc":3732,"ynamic":3733,"Ġstrong":3734,"uly":3735,"ĠNational":3736,"cover":3737,"Copy":3738,"07":3739,"classes":3740,"ALL":3741,"47":3742,"ĠAb":3743,"Ġstandard":3744,"ĠPl":3745,"Op":3746,"Ġnamespace":3747,"Ġperiod":3748,"aced":3749,"Ġattribute":3750,"Ġ::":3751,"ii":3752,"brary":3753,"49":3754,"ibr":3755,"Ġbetter":3756,"_;":3757,"Iter":3758,"xx":3759,"Ġterms":3760,"sa":3761,"fl":3762,"Ġauthor":3763,"}^{\\":3764,"iddle":3765,"Ġfl":3766,"ued":3767,"ĠSouth":3768,"ands":3769,"Description":3770,"ittle":3771,"ably":3772,"ĠAct":3773,"(*":3774,"ĠGu":3775,"Mat":3776,"Ġnav":3777,"Ġexception":3778,"ĠWith":3779,"connect":3780,"ctionary":3781,"Ġcontinue":3782,"ians":3783,"dius":3784,"req":3785,"Ġcla":3786,"Ġquant":3787,"Ġterm":3788,"Ġmeans":3789,"device":3790,"^{(":3791,"Ġinstead":3792,"Serial":3793,"ressed":3794,"delete":3795,")=":3796,"came":3797,"hel":3798,"Ġmatrix":3799,"uggest":3800,"ones":3801,"Ġ\\,":3802,"assed":3803,"ĠSub":3804,"Ġnever":3805,"Ġbelow":3806,"gether":3807,"artifact":3808,"stamp":3809,"Ġpadding":3810,"Current":3811,"Ġdefine":3812,"ĠStates":3813,"Scal":3814,"Ġgrow":3815,"Font":3816,"MO":3817,"ĠSte":3818,"bm":3819,"Ġvari":3820,"Invalid":3821,"ĠNe":3822,"Impl":3823,"ids":3824,"Ġ~":3825,"pped":3826,"=\"../../../../../":3827,"conf":3828,"cd":3829,"Parameters":3830,"Ġadv":3831,"aging":3832,"Ġgoing":3833,"Ġgl":3834,"lim":3835,"Ġcompany":3836,"Ġspect":3837,"II":3838,"Ġmembers":3839,"circ":3840,"Ġoffic":3841,"border":3842,"ecurity":3843,"Ġscale":3844,"06":3845,"Ġlocation":3846,"ERROR":3847,"Sign":3848,"rep":3849,"varphi":3850,"Ġcommon":3851,"join":3852,"CP":3853,"ĠPer":3854,"range":3855,"types":3856,"Ġobjects":3857,"Ġhash":3858,"TER":3859,"Ġlanguage":3860,"Ġ['":3861,"istent":3862,"orph":3863,"IF":3864,"encies":3865,"isf":3866,"ĠNS":3867,"Ġoperator":3868,"One":3869,"toString":3870,"Mo":3871,"ĠBl":3872,"Ġnum":3873,"rangle":3874,"ignore":3875,"Ġtoken":3876,"Ġâ":3877,"Integer":3878,"{{":3879,"Ġhealth":3880,"ought":3881,"onding":3882,"Ġimpro":3883,"Ġbig":3884,"Ġshows":3885,"%;":3886,"ae":3887,"rightarrow":3888,"iving":3889,"Inst":3890,"Ġcontainer":3891,"}).":3892,"Ġide":3893,"Ġplayers":3894,"split":3895,"Core":3896,"Ġmer":3897,"thers":3898,"Pos":3899,"Helper":3900,"42":3901,"Ġexpl":3902,"Widget":3903,"Ġresearch":3904,"Ġins":3905,"adow":3906,"SO":3907,"ancel":3908,"Ġ;":3909,"================================":3910,"sel":3911,"Ġprom":3912,"Ġkeep":3913,"ament":3914,"Ġqual":3915,"rip":3916,"boot":3917,"ĠTO":3918,"09":3919,"__(":3920,"Ġ\"\\":3921,"utions":3922,"stack":3923,"webkit":3924,"Ġparse":3925,"Ġmedia":3926,"strap":3927,"Ġpotential":3928,"Ã¡":3929,"formed":3930,"Ġconfiguration":3931,"Ġrecent":3932,"Argument":3933,"Bind":3934,"Ġchanges":3935,"Ġcenter":3936,"ĠTrans":3937,"=\"-":3938,"ĠOR":3939,"interface":3940,"ĠThese":3941,"bum":3942,"handle":3943,"cat":3944,"logical":3945,"ĠJanuary":3946,"Ġtool":3947,"ino":3948,"auto":3949,"Rout":3950,"pop":3951,"ients":3952,"Ġsignific":3953,"Ġmusic":3954,"AND":3955,"03":3956,"68":3957,"erman":3958,"xis":3959,"Left":3960,"asing":3961,"Ġdevice":3962,"Ġmag":3963,"media":3964,"yl":3965,"Rect":3966,"`.":3967,"Ġho":3968,"Names":3969,"ari":3970,"ĠYork":3971,"replace":3972,"bin":3973,"Ġintro":3974,"Assert":3975,"atures":3976,"Ġsite":3977,"callback":3978,"includegraphics":3979,"Ġonce":3980,"Meta":3981,"(:":3982,"izing":3983,"Ġge":3984,"TS":3985,"Ġsepar":3986,"Ġmultiple":3987,"ĠLog":3988,"izes":3989,"Ġinstall":3990,"Ġcannot":3991,"Ġremo":3992,"Ġgreat":3993,"CTION":3994,"ising":3995,"ĠOct":3996,"ube":3997,"Let":3998,"Ġestab":3999,"Order":4000,"ĠPart":4001,"Ġstop":4002,"Ġargument":4003,"COLOR":4004,"ober":4005,"BO":4006,"Ġsets":4007,"before":4008,"ategy":4009,"Ġlight":4010,"ounds":4011,"CD":4012,"Ġsupp":4013,"Policy":4014,"env":4015,"Ġmiss":4016,"cp":4017,"Ġprof":4018,"Ġpair":4019,"transform":4020,"clear":4021,"Ġlower":4022,"FO":4023,"Ġgot":4024,"Metadata":4025,"Ġsure":4026,"textbf":4027,"Template":4028,"Ġlate":4029,"Down":4030,"Tool":4031,"enn":4032,"Ġsm":4033,"Schema":4034,"MM":4035,"ames":4036,"ertain":4037,"[\\":4038,"255":4039,"icons":4040,"ctor":4041,"Mult":4042,"Ġwin":4043,"ĠInt":4044,"Ġfollows":4045,"Ġsent":4046,"rief":4047,"ws":4048,"Body":4049,"ĠEd":4050,"Ġreally":4051,"romise":4052,"Descript":4053,"Reader":4054,"ĠInter":4055,"ĠWest":4056,"ĠThen":4057,"artifactId":4058,"Bytes":4059,"{}":4060,"session":4061,"Parent":4062,"`,":4063,"Ġinfo":4064,"Ġtre":4065,"Ġmajor":4066,"ĠDE":4067,"Ġdistribution":4068,".\\":4069,"SD":4070,"models":4071,"Ġreport":4072,"Ġmember":4073,"GET":4074,"RI":4075,"ĠCor":4076,"Ġhard":4077,"Device":4078,"Ġrandom":4079,"Menu":4080,"ĠAug":4081,".~\\":4082,"Ġconstant":4083,"impl":4084,"'],":4085,"mitted":4086,"files":4087,"Ġcases":4088,"otion":4089,"emph":4090,"auth":4091,"Ġearly":4092,"icker":4093,"Ġdelete":4094,"unch":4095,"Ġpolit":4096,"boolean":4097,"Ġdiff":4098,"urope":4099,"ĠĠĠĠĠĠĠĠĠĠĠĠĠĠĠĠĠĠĠĠ":4100,"ails":4101,"ike":4102,"vector":4103,"Ġintegr":4104,"Ġselected":4105,"Ġfuture":4106,"fn":4107,"}),":4108,"Ġfeatures":4109,"rad":4110,"Ġscope":4111,"ived":4112,"Args":4113,"proof":4114,"ĠMap":4115,"Ġvector":4116,"unter":4117,"Lambda":4118,"Ġocc":4119,"Parser":4120,"aves":4121,"most":4122,"Vector":4123,"Ġperformance":4124,"Ġbyte":4125,"Ġdat":4126,"Ġhistory":4127,"Head":4128,"Jo":4129,"Ġkind":4130,"57":4131,"Ġcost":4132,"greg":4133,"False":4134,"Ġrate":4135,"Ġregister":4136,"Ġactive":4137,"ilities":4138,"Ġdoesn":4139,"59":4140,"Ġfurther":4141,"ada":4142,"itude":4143,"exception":4144,"ards":4145,"Ġstep":4146,"SL":4147,"Values":4148,"ĠSchool":4149,"Ġ('":4150,"rupt":4151,"acing":4152,"CR":4153,"Ġfri":4154,"Us":4155,"ORD":4156,"Ġsession":4157,"iteral":4158,"vm":4159,"overline":4160,"ience":4161,"groupId":4162,"reet":4163,"ATA":4164,"plit":4165,"geq":4166,"Ġunsigned":4167,"Ġacross":4168,"equals":4169,"agnost":4170,"Ġsimple":4171,"Ġstates":4172,"That":4173,"click":4174,"Ġconditions":4175,"leased":4176,"ulture":4177,"mic":4178,"itions":4179,"ague":4180,"avior":4181,"send":4182,"Ġanalysis":4183,"PRE":4184,"aa":4185,"Ġunit":4186,"Ġbytes":4187,"fill":4188,"Ġaccept":4189,"Ġphys":4190,"Ġfilename":4191,"},\\":4192,"Storage":4193,"coder":4194,"widget":4195,"typeof":4196,"ĉĉĊ":4197,"ana":4198,"=\"../../../../../../":4199,"46":4200,"orig":4201,"Ġ{};":4202,"docs":4203,"ĉĠĠĠĠĠ":4204,"fil":4205,"ĠPr":4206,"Rel":4207,"---":4208,"Ġdefinition":4209,"Ġcirc":4210,"Ġdescription":4211,"Ġindiv":4212,"NE":4213,"Ġcalcul":4214,"ours":4215,"Ġrelease":4216,"Ġswitch":4217,"dient":4218,"Ġbox":4219,"DIR":4220,"ĠCounty":4221,"Xml":4222,"Ġable":4223,"Ġcomplex":4224,"Ġtransform":4225,"ĠEnd":4226,"sf":4227,"2009":4228,"Ġexists":4229,"based":4230,"ceive":4231,"make":4232,"Ġsw":4233,"TEST":4234,"Track":4235,"After":4236,"Cal":4237,"TED":4238,"webpack":4239,"Ġadditional":4240,"Ġheader":4241,"Ind":4242,"frak":4243,"'>":4244,"Boolean":4245,"Ġcorrect":4246,"idence":4247,"Ġsays":4248,"global":4249,"Ġnames":4250,"OK":4251,"ĠSep":4252,"aven":4253,"oman":4254,"aries":4255,"SET":4256,"Root":4257,"ãĥ":4258,"Delete":4259,"uri":4260,"ĠIm":4261,"Ġbusiness":4262,"hover":4263,"Ġexpression":4264,"posed":4265,"then":4266,"Symbol":4267,"ĠEvent":4268,"rib":4269,"ĠApr":4270,"Ġzero":4271,"58":4272,"address":4273,"NavBar":4274,"urren":4275,"Ġsignificant":4276,"missions":4277,"ĠRE":4278,"Ġcome":4279,"ĠTrue":4280,"Ġsu":4281,"tember":4282,"abor":4283,"\"`":4284,"Ġdecl":4285,"like":4286,"Ġcity":4287,"ĠCON":4288,"cogn":4289,"Ġenvironment":4290,"stylesheet":4291,"abs":4292,"ev":4293,"Ġgive":4294,"Ġmar":4295,"Ġgovernment":4296,"chan":4297,"Mon":4298,"Ġ++":4299,"Ġsomething":4300,"istration":4301,"rim":4302,"Timeout":4303,"orizont":4304,"ln":4305,"ĠMath":4306,"Ġplan":4307,"Ġdetails":4308,"ĠMarch":4309,"ynch":4310,".}":4311,"Ġlines":4312,"Ġsend":4313,"&\\":4314,"DF":4315,"Ġ})":4316,"oung":4317,"Definition":4318,";->":4319,"Param":4320,"volution":4321,"----------------------------------------------------------------":4322,"Ġtree":4323,"Ġtogether":4324,"access":4325,"Right":4326,"Ġfar":4327,"Ġpassed":4328,"Ġlik":4329,"Ġexcept":4330,"PL":4331,"ĠCity":4332,"ĠDate":4333,"ĠMy":4334,"Ġlinear":4335,")^":4336,"ds":4337,"Ġreceived":4338,"aff":4339,"Ġprop":4340,"Ġvideo":4341,"Ġwater":4342,"Ġ(\"":4343,"ĠWar":4344,"imes":4345,"sy":4346,"urch":4347,"Ġ<=":4348,"ĠPre":4349,"Ġdraw":4350,"ustral":4351,"Debug":4352,"utable":4353,"Ġant":4354,"Ge":4355,"2008":4356,"ometry":4357,"ĠError":4358,"ridge":4359,"ering":4360,"Stack":4361,"istor":4362,"Ġthread":4363,"disabled":4364,"ham":4365,"rum":4366,"There":4367,"ĠWeb":4368,"Ġdays":4369,"Byte":4370,"mi":4371,"oll":4372,"ause":4373,"fg":4374,"Ġfailed":4375,"andid":4376,"ĠassertEquals":4377,"Ġty":4378,"ĠOne":4379,"Ġapplic":4380,"Ġcref":4381,"You":4382,"77":4383,"Ġdetermin":4384,"Ġsatisf":4385,"Ġcorresponding":4386,"ĠST":4387,"cember":4388,"ĠDep":4389,"Obj":4390,"just":4391,"arp":4392,"parameter":4393,"Ġsolution":4394,"ha":4395,"Ġreason":4396,"ĠJSON":4397,"Decl":4398,"Can":4399,"Ġsort":4400,"2000":4401,"hr":4402,"Ġautom":4403,"olved":4404,">();":4405,"settings":4406,"kind":4407,"Api":4408,"URE":4409,"normal":4410,"Ġamount":4411,"Descriptor":4412,"Build":4413,"Enabled":4414,"Fields":4415,"Application":4416,"card":4417,"Ġdatabase":4418,"Ġindividual":4419,"alle":4420,"ros":4421,"jection":4422,"ĠÂ":4423,"&#":4424,"Ġcontribut":4425,"ploy":4426,"ORM":4427,"vi":4428,"Title":4429,"ĠĠĠĠĠĠĠĠĠĠĠĠĠĠĠĠĠĠĠĠĠĠĠĠĠĠĠĠĠĠĠĠĠĠĠĠĠĠĠ":4430,"ssages":4431,"ott":4432,"Sk":4433,"year":4434,"Ġsolid":4435,"Ġgen":4436,"Ġdeath":4437,"component":4438,"RA":4439,"sort":4440,"export":4441,"curs":4442,"Ġcy":4443,"napsh":4444,"How":4445,"custom":4446,"mathfrak":4447,"2023":4448,"Long":4449,"Pri":4450,"\\\"":4451,"eral":4452,"Ġhy":4453,"insert":4454,"Ġsong":4455,"orizontal":4456,"gs":4457,"SA":4458,"ided":4459,"bolds":4460,"ĠSk":4461,"ĠAg":4462,"Ġseen":4463,"Writer":4464,"urb":4465,"ĠMon":4466,"Ġcomplete":4467,"Ġobserv":4468,"Ġpract":4469,"Ġflow":4470,"Use":4471,"ĠBG":4472,"Ġri":4473,"Ġitems":4474,"Ġincluded":4475,"Rule":4476,"enum":4477,"Channel":4478,"Ġhigher":4479,"Database":4480,"Ġ\"/":4481,"Ġ(*":4482,"boldsymbol":4483,"isk":4484,"(-":4485,"Ġsystems":4486,"OM":4487,"Ġmemory":4488,"Post":4489,"Ġneg":4490,"Ġ[];":4491,"WE":4492,"after":4493,"Ġmarket":4494,"Ġactiv":4495,"Ġbar":4496,"urnal":4497,"ority":4498,"istics":4499,"ĠValue":4500,"500":4501,"Rep":4502,"SQL":4503,"adoop":4504,"ology":4505,"'re":4506,"fields":4507,"pository":4508,"Ġoften":4509,"Ġos":4510,"ilit":4511,"though":4512,"ners":4513,"Ġflu":4514,"Ġsequence":4515,"Ġgenerated":4516,"rain":4517,"Ġoffer":4518,"Ġ'/":4519,"Ġsettings":4520,"Ġwait":4521,"lor":4522,"rew":4523,"Ġworking":4524,"Non":4525,">.":4526,"Are":4527,"ieve":4528,"modal":4529,"Ġwritten":4530,"Ġbecome":4531,"Ġwomen":4532,"Ġinstanceof":4533,"Ġche":4534,"Ġamong":4535,"69":4536,"olution":4537,"Ġneeded":4538,"rome":4539,"Ġassign":4540,"Ġthird":4541,"ried":4542,"Ġweb":4543,"Has":4544,"ĠEurope":4545,"framework":4546,"desc":4547,"ĠChrist":4548,"Queue":4549,"ĠLet":4550,"GE":4551,"Mock":4552,"ĠIO":4553,"oney":4554,"Ġcommunity":4555,"OUT":4556,"iting":4557,"quired":4558,"Ġcountry":4559,"Ġrunning":4560,"ansparent":4561,"gu":4562,"quent":4563,"umbers":4564,"Ġgroups":4565,"ims":4566,"Ġnecess":4567,"Display":4568,"ocket":4569,"Ġinline":4570,"lege":4571,"register":4572,"sql":4573,"Ġenough":4574,"ĠQu":4575,"leted":4576,"oose":4577,"DD":4578,"Ġsupported":4579,"Ġpattern":4580,"Ġmaking":4581,"Ġthings":4582,"Ġdevelopment":4583,"Ġdirectory":4584,"Ġyet":4585,"###":4586,"CA":4587,"ernel":4588,"Ġcrit":4589,"ĠGr":4590,"atio":4591,"ĠBrit":4592,"Ġrelative":4593,"Ġservices":4594,"padding":4595,"ixt":4596,"panel":4597,"eds":4598,"Ġhaving":4599,"Ġunique":4600,"lier":4601,"success":4602,"Ã³":4603,"ĠThat":4604,"ĠMark":4605,"ãĤ":4606,"Ġland":4607,"Ġred":4608,"Ġactual":4609,"ymme":4610,"zz":4611,"Ġmaterial":4612,"Custom":4613,"'))":4614,"43":4615,"ĠJune":4616,"double":4617,"grid":4618,"ĠMc":4619,"Ġpaper":4620,"Ġstory":4621,"SSERT":4622,"~~~~":4623,"iform":4624,"HTML":4625,"oom":4626,"items":4627,"lines":4628,"ias":4629,"Ġpast":4630,"ĠĠĠĠĠĠĠĠĠĠĠĠĠĠĠĠĠĠ":4631,"Ġarch":4632,"ATH":4633,"Ġrad":4634,"Changed":4635,"Ġerrors":4636,"Send":4637,"actor":4638,"ipel":4639,"acters":4640,"Job":4641,"1000":4642,"Aut":4643,"admin":4644,"ems":4645,"Ġmsg":4646,"$(":4647,"Ġsuccessful":4648,"}\"":4649,"Pe":4650,"inline":4651,"ught":4652,"bert":4653,"ldots":4654,"Ġoc":4655,"Ġfac":4656,"SION":4657,"Ne":4658,"_,":4659,"Ġcamp":4660,"attribute":4661,"Ġdoc":4662,"ping":4663,"ĠOut":4664,"ĠAugust":4665,"ula":4666,"Ġdescribed":4667,"KEY":4668,"ĠNote":4669,"Ġworks":4670,"IR":4671,"_->":4672,"langle":4673,"ĠNorth":4674,"dr":4675,"Ġsubject":4676,"Ġlittle":4677,"ĠOctober":4678,"Ġsocial":4679,"Ġreview":4680,"Ġapproach":4681,"ĠURL":4682,"allow":4683,"Ġrelated":4684,"support":4685,"ĠSeptember":4686,"Dialog":4687,"ka":4688,"cmd":4689,"ĠJuly":4690,"Ġsuggest":4691,"Ġhandler":4692,"Ġbutton":4693,"free":4694,"nology":4695,"margin":4696,"Ste":4697,"omin":4698,"keys":4699,"Num":4700,"hline":4701,"Scope":4702,"uses":4703,"ĠChar":4704,"ĠApril":4705,"focus":4706,"appa":4707,"shape":4708,"Ġelem":4709,"Ġjson":4710,"56":4711,"Graph":4712,"}}$":4713,"Ġsy":4714,"utor":4715,"anced":4716,"FAULT":4717,"ĠIS":4718,"ĠImp":4719,"endar":4720,"Classes":4721,"Ġnodes":4722,"vision":4723,"Ġfund":4724,"hy":4725,"ragment":4726,"EM":4727,"Ġneeds":4728,"ĠAfter":4729,"ynchron":4730,"Ġselection":4731,"win":4732,"atural":4733,"Icon":4734,"Ġage":4735,"ides":4736,"When":4737,"Ġextra":4738,"Ġalbum":4739,"ĠBar":4740,"ĠBGCOLOR":4741,"quires":4742,"Ġstat":4743,"Ġbecame":4744,"Ġfunc":4745,"ä¸":4746,"Ġask":4747,"matrix":4748,"Ġevalu":4749,"Ġdeg":4750,"help":4751,"ney":4752,"Each":4753,"Ġrule":4754,"Ġvarious":4755,"oundation":4756,"Ġblack":4757,"Phi":4758,"\"\"\"":4759,"unsigned":4760,"ÃŃ":4761,"apply":4762,"ality":4763,"AV":4764,"Doc":4765,"ĠDecember":4766,"Ġhuman":4767,"coded":4768,"2007":4769,"Ġvert":4770,"nab":4771,"HP":4772,"los":4773,"iol":4774,"Ġraise":4775,"Ġsoftware":4776,"Click":4777,"Active":4778,"Ġmakes":4779,"ĠRead":4780,"comm":4781,"Ġemb":4782,"41":4783,"hadoop":4784,"Ġcompet":4785,"initial":4786,"urg":4787,"toggle":4788,"connection":4789,"Ġsetting":4790,"Init":4791,"Ġecho":4792,".__":4793,"ĠNovember":4794,"JSON":4795,"ĠDi":4796,"ĠUse":4797,"Only":4798,"bor":4799,"ĠDefault":4800,"Ġemploy":4801,"->_":4802,"Ġformer":4803,"ĠMore":4804,"Ġcross":4805,"Ġstarted":4806,"edit":4807,"Ġfive":4808,"*)":4809,"Ġapprox":4810,"Ġcover":4811,"operator":4812,"Ġep":4813,"ucket":4814,"Ġtyp":4815,"note":4816,"wner":4817,"Tests":4818,"2006":4819,"FT":4820,"Ġobtained":4821,"Ġair":4822,"cloud":4823,"achine":4824,"Ġnumer":4825,"END":4826,"Me":4827,"Cre":4828,"Ġsample":4829,"Ġdomain":4830,"Draw":4831,"Ġotherwise":4832,"mock":4833,"Ġconsidered":4834,"Ġchain":4835,"Ġbuilt":4836,"Ð°Ð":4837,"eter":4838,"Ġanno":4839,"precated":4840,"Ġrefer":4841,"Ġaverage":4842,"ills":4843,"ĠHTML":4844,"high":4845,"////////////////////////////////":4846,"ITY":4847,"Ġaway":4848,"bootstrap":4849,"Ġpolicy":4850,"Ġapply":4851,"Selector":4852,"hs":4853,"ACE":4854,"Msg":4855,"Ġcurrently":4856,"hib":4857,"Ġcluster":4858,"ĠNOT":4859,"which":4860,"Ġanaly":4861,"scal":4862,"Ġmoment":4863,"ĠSan":4864,"ĠCre":4865,"Ġnamed":4866,"Ġcertain":4867,"aws":4868,"Ġaccording":4869,"fric":4870,"95":4871,"record":4872,"Ġtypeof":4873,"super":4874,"]]":4875,"BA":4876,"Net":4877,"Extension":4878,"cos":4879,"CHE":4880,"kappa":4881,"Ġscript":4882,"tection":4883,"Lock":4884,"EXT":4885,"Ġpositive":4886,"tip":4887,"ĠAustral":4888,"ota":4889,"bruary":4890,"maz":4891,"Ġvolume":4892,"Ġreleased":4893,"Ġkeys":4894,"AGE":4895,"Ġstrict":4896,"El":4897,"Ġhalf":4898,"Ġrot":4899,"ĠLO":4900,"uter":4901,"ĠHigh":4902,"Ġsimp":4903,"Ġbind":4904,"Ġmillion":4905,"scroll":4906,"Plugin":4907,"aset":4908,"ĠGerman":4909,"Ġphot":4910,"rigin":4911,"pk":4912,"term":4913,"....":4914,"application":4915,"Eng":4916,"wik":4917,"chedule":4918,"Prop":4919,"Ġfixed":4920,"language":4921,"icate":4922,"Ġdensity":4923,"Ġplayer":4924,"Ġattemp":4925,"FILE":4926,"Ġconvert":4927,"Pattern":4928,"Func":4929,"Ġgames":4930,"Ġdig":4931,"&&":4932,"See":4933,"\\|":4934,"Security":4935,"ĠPe":4936,"ni":4937,"addr":4938,"assertEquals":4939,"NotNull":4940,"iding":4941,"TEX":4942,"footer":4943,"Ġstack":4944,"Ġhouse":4945,"[:":4946,"ĠFunction":4947,"Ġphase":4948,"Ġsing":4949,"Ġtook":4950,"Mark":4951,"weight":4952,"citep":4953,"ertific":4954,"Fig":4955,"etime":4956,"Ġbir":4957,"Ġhold":4958,"Ġinvoke":4959,"napshot":4960,"Ġ),":4961,"Ġfall":4962,"ĠPy":4963,"serial":4964,"onal":4965,"ables":4966,"ledge":4967,"ibrary":4968,"ĠService":4969,"ĠOpen":4970,"={":4971,"Ġtheory":4972,"Ġexact":4973,"ĠNode":4974,"87":4975,"Ġsymbol":4976,"ancell":4977,"alloc":4978,"Ġthough":4979,"astic":4980,"marks":4981,"Ġmaximum":4982,"cr":4983,"Ġhtml":4984,"Ret":4985,"/\\":4986,"So":4987,"Ġcontinu":4988,"ixel":4989,"avor":4990,"Ġunderstand":4991,"\",\"":4992,"anner":4993,"DL":4994,"fit":4995,"Flags":4996,"Ġfit":4997,"Ġexisting":4998,"Ġuses":4999,"Sigma":5000,"ĠRed":5001,"Float":5002,"sumer":5003,"What":5004,"olver":5005,"ĠCopy":5006,"Ġcame":5007,"more":5008,"-->":5009,"Network":5010,"Ġtraining":5011,"89":5012,"wrap":5013,"ĠPres":5014,"Ġband":5015,"pg":5016,"lems":5017,"ĠArt":5018,"Ġfootball":5019,"TC":5020,"Ġplatform":5021,"ĠSch":5022,"Initial":5023,"VID":5024,"Ġmeet":5025,"channel":5026,"bsite":5027,"Red":5028,"Member":5029,"Ġpointer":5030,"otimes":5031,"})$":5032,"Ġalt":5033,"herit":5034,"ĠDist":5035,"car":5036,"Tab":5037,"Ġdistance":5038,"iet":5039,"iven":5040,"rive":5041,")))":5042,"amera":5043,"Ġcapt":5044,"(!":5045,"rown":5046,"lide":5047,"assertEqual":5048,"Ġprovides":5049,"Ġdb":5050,"Ġtypename":5051,"Ġallowed":5052,"Items":5053,"Ġwords":5054,"ĠGroup":5055,"mbox":5056,"full":5057,"ipeline":5058,"PR":5059,"ĠĠĠĠĠĠĠĠĠĠĠĠĠĠĠĠĠĠĠĠĠĠĠĠĠ":5060,"Ġhowever":5061,"region":5062,"Ġlot":5063,"protobuf":5064,"Edit":5065,"selected":5066,"ĠMed":5067,"coming":5068,"ĠTHE":5069,"Ġstar":5070,"each":5071,"Ġappear":5072,"virtual":5073,"imated":5074,"coin":5075,"Results":5076,"Ġtaken":5077,"Ġattack":5078,"yes":5079,"Ġtests":5080,"CS":5081,"Ġstudents":5082,"holder":5083,"ered":5084,"Ġwriting":5085,"ĠBase":5086,"Ġbas":5087,"Ġlock":5088,"WS":5089,"bers":5090,"Bl":5091,"Ġ(_":5092,"nabla":5093,"ĠForm":5094,"ĠSpec":5095,"icles":5096,"Ġbuilding":5097,"MD":5098,"plugins":5099,"ĠÃ":5100,"ĠOb":5101,"Ġengine":5102,"Ġvol":5103,"Ġdr":5104,"Ġsix":5105,"Ġusers":5106,"Volume":5107,"arison":5108,"54":5109,"Ġattr":5110,"Ġfeel":5111,"dependency":5112,"ĠPo":5113,"StyleID":5114,"2005":5115,"Ġnet":5116,"Iterator":5117,"comment":5118,"that":5119,"Ġconstruct":5120,"ĠĠĠĠĠĠĊ":5121,"Ġpackage":5122,"Ġtransition":5123,"Windows":5124,"stop":5125,"ĠBO":5126,"Ġcollect":5127,"covery":5128,"Ġtemper":5129,"ker":5130,"_(":5131,"Internal":5132,"Ġexperience":5133,"Pool":5134,"ĠAL":5135,"ECT":5136,"ĠSome":5137,"Ġignore":5138,"Ġpress":5139,"fony":5140,"Ġextension":5141,"ĠUser":5142,"Package":5143,"@\"":5144,"=\"../../../":5145,"Struct":5146,"ffff":5147,"cheme":5148,"track":5149,"Ġeduc":5150,"52":5151,"ymfony":5152,"quare":5153,"ĉĠĠĠĠĠĠĠĠĠĠĠ":5154,"Ġtw":5155,"iterator":5156,"step":5157,")));":5158,"events":5159,"51":5160,"mine":5161,"Ġrights":5162,"ĠVAL":5163,"Ġallows":5164,"ĠWork":5165,"ille":5166,"ailed":5167,"=\"/":5168,"press":5169,"Ġothers":5170,"atory":5171,"Ġdirectly":5172,"Ġtreat":5173,"Runtime":5174,"witter":5175,"ĠLa":5176,"Ġtransaction":5177,"legal":5178,"Ġdistributed":5179,"ĠKey":5180,"Ġpers":5181,"++;":5182,"ĠPublic":5183,";<":5184,".)":5185,"schema":5186,"86":5187,"Ġregular":5188,"Ġpopulation":5189,"\")]":5190,"Ġsco":5191,"Ġlive":5192,"PORT":5193,"ensuremath":5194,"Ġimplementation":5195,"Cur":5196,"Ġforce":5197,")\">":5198,"Ġentire":5199,"nonumber":5200,"email":5201,"ĠVer":5202,"Fail":5203,"Ġoperations":5204,"dropdown":5205,"SIZE":5206,"password":5207,"Directory":5208,"cit":5209,"ica":5210,"cade":5211,"Account":5212,"props":5213,"ĠGoogle":5214,"ĠAfric":5215,"radius":5216,"hi":5217,"ĠFebruary":5218,"Pointer":5219,"ifies":5220,"ĠFalse":5221,"Ġcomment":5222,"Ġconc":5223,"important":5224,"Ġcoll":5225,"pub":5226,"Ġtell":5227,"53":5228,"97":5229,"uby":5230,"ios":5231,"anded":5232,"Ġnote":5233,"site":5234,"Ġrespectively":5235,"Ġ\"\"":5236,"throws":5237,"ama":5238,"Pod":5239,"vey":5240,"flags":5241,"alysis":5242,"Ġwhy":5243,"Ġacc":5244,"Close":5245,"UID":5246,"Ġfig":5247,"'.":5248,"Events":5249,"Ġflag":5250,"Psi":5251,"Ġserial":5252,"hentication":5253,"ĠLoc":5254,"Editor":5255,"Ġmock":5256,"Variable":5257,"solute":5258,"Transform":5259,"Ġactually":5260,"entity":5261,"ico":5262,"()).":5263,"Show":5264,"raints":5265,"force":5266,"Ġrepresentation":5267,"ench":5268,"category":5269,"Ġio":5270,"ĠNews":5271,"Ġcharacters":5272,"Ġincludes":5273,"points":5274,"acc":5275,"Loader":5276,"LINE":5277,"ifest":5278,"ully":5279,"urs":5280,"PAR":5281,"ampion":5282,"Ġecon":5283,"Ġvisit":5284,"Ġach":5285,"Ġrather":5286,"My":5287,"Ġmen":5288,"Ġlove":5289,"dots":5290,"uted":5291,"Ġweight":5292,"linear":5293,"txt":5294,"Ġproduction":5295,"Ġalgorithm":5296,"ilation":5297,"Ġcourse":5298,"Ġmonth":5299,"Auto":5300,"Attributes":5301,"Ġce":5302,"Ġitself":5303,"Ġplayed":5304,"PS":5305,"Ġensure":5306,"utf":5307,"textit":5308,"quency":5309,"MAX":5310,"Ġchanged":5311,"Ġhappen":5312,"bon":5313,"ĠExt":5314,"prime":5315,"ĠPark":5316,"save":5317,"ĠFirst":5318,"Ġquestion":5319,"PA":5320,"ĠSci":5321,"Ġclasses":5322,"bytes":5323,"Ġequation":5324,"handler":5325,"ĠDav":5326,"umpt":5327,"uler":5328,"hood":5329,"Ġadmin":5330,"Media":5331,"BC":5332,"(){":5333,"LS":5334,"Bit":5335,"Ġsurface":5336,"ĠKing":5337,"comes":5338,"Ġissue":5339,"NG":5340,"none":5341,"Ġedge":5342,"Register":5343,"ĠSw":5344,"Ġtakes":5345,"cons":5346,"notation":5347,"Ġjavax":5348,"Ġcontaining":5349,"reed":5350,"para":5351,"Parse":5352,"ĠAp":5353,"Ġshape":5354,"\\%":5355,"\\[":5356,"crypt":5357,"attle":5358,"zer":5359,"ested":5360,"ads":5361,"sess":5362,"Auth":5363,"Ġ${":5364,"Ġvariables":5365,"mas":5366,"Keys":5367,"Logger":5368,"vention":5369,"Ġproof":5370,"Ġreported":5371,"96":5372,"Ġflo":5373,"ulated":5374,"lyph":5375,"ĠFrom":5376,"()));":5377,"short":5378,"resses":5379,"pdf":5380,"Ġassume":5381,"Ġfactor":5382,"Ġheld":5383,"printf":5384,"Ġutil":5385,"Ġconsole":5386,"Proxy":5387,"2001":5388,"LOG":5389,"Ġscreen":5390,"Ġ&=":5391,"white":5392,"Ġlearn":5393,"Memory":5394,"Dist":5395,"PO":5396,"Ġexpress":5397,"tmp":5398,"collection":5399,"Ġround":5400,".*":5401,"Ġinside":5402,"cel":5403,"domain":5404,"}-":5405,"lias":5406,"Protocol":5407,"nes":5408,"ĠNO":5409,"elli":5410,"400":5411,"Ġpublished":5412,"Mar":5413,"arger":5414,"lapse":5415,"ĠAN":5416,"ooks":5417,"PT":5418,"Ġwhose":5419,"Ġdes":5420,"ĠHis":5421,"annotation":5422,"iles":5423,"JECT":5424,"ĠTODO":5425,"Ġattributes":5426,"Ġreq":5427,"variant":5428,"Wrapper":5429,"Ġcoordin":5430,"ĠjQuery":5431,"equiv":5432,"Ġcut":5433,"Ġface":5434,";/":5435,"Ġthus":5436,"ooth":5437,"Scroll":5438,"ĠGets":5439,"Ġcomponents":5440,"Panel":5441,"ĠHar":5442,"Ġopp":5443,"256":5444,"Ġaff":5445,"thread":5446,"otes":5447,"Elements":5448,"bound":5449,"ĠStr":5450,"ARY":5451,"install":5452,"ĠText":5453,"ington":5454,"ĠVersion":5455,"Ġindependent":5456,"ips":5457,"BR":5458,"reater":5459,"ĠDr":5460,"CRE":5461,"Ġnational":5462,"Any":5463,"2004":5464,"getName":5465,"ĠRuss":5466,"trigger":5467,"icip":5468,"irit":5469,"product":5470,"primary":5471,"Ġimages":5472,"pare":5473,"alled":5474,"anger":5475,"Ġcred":5476,"Print":5477,"ĠGo":5478,"Ġpercent":5479,"brief":5480,"Ġinteger":5481,"ĠĠĠĠĠĠĠĠĠĠĠĠĠĠĠĠĠĠĠĠĠĠ":5482,"ario":5483,"ief":5484,"Ġinvalid":5485,"atalog":5486,"metadata":5487,"ulations":5488,"Ġprimary":5489,"ToString":5490,"Ġdirection":5491,"Ġequival":5492,")),":5493,"Ġdescribe":5494,"ĠWhat":5495,"ĠHouse":5496,"Ġgenerate":5497,")/":5498,"Ġavoid":5499,"Ġfn":5500,"ĠĠĠĠĠĠĠĠĠĠĠĠĠĠĠĠĠĠĠĠĠĠĠĠ":5501,"ulate":5502,"Ġwhite":5503,"aps":5504,"VERSION":5505,"controller":5506,"Ġtoday":5507,"Ġagree":5508,"Ġbuilder":5509,"edge":5510,"Feature":5511,"[$":5512,"Ġ$.":5513,"VALUE":5514,"Ġtalk":5515,"ran":5516,"mid":5517,"CHECK":5518,"inv":5519,"unn":5520,"ĠSince":5521,"keyword":5522,"ĠCall":5523,"ĠMethod":5524,"stats":5525,"clo":5526,"ULE":5527,"(__":5528,"STAT":5529,"ancellation":5530,"aved":5531,"Ġfocus":5532,"JS":5533,"Ġparts":5534,"Props":5535,"Ġchall":5536,"itect":5537,"rule":5538,"blockList":5539,"tee":5540,"modules":5541,"typedef":5542,"ĠSection":5543,"Generic":5544,"Ġcommit":5545,"Proto":5546,"Ġtown":5547,"{-":5548,"Ø§":5549,"Ġalloc":5550,"Ġsuff":5551,"\\!":5552,"Ġlayer":5553,"properties":5554,"MENT":5555,"Ġparticip":5556,"LIC":5557,"ĠCode":5558,"ria":5559,"Ġreplace":5560,"igen":5561,"Expr":5562,"Ġloss":5563,"Ġpanel":5564,"Grid":5565,"}}{":5566,"IE":5567,"aul":5568,"Nodes":5569,"ao":5570,"Ġdeal":5571,"Ġemail":5572,"Transaction":5573,"\">&":5574,"cb":5575,"Ġ[],":5576,"ris":5577,"Inv":5578,"Matrix":5579,"Ġvers":5580,"Ġplugin":5581,"Ġresources":5582,"antic":5583,"dx":5584,"ADD":5585,"itute":5586,"Ġimprove":5587,"ĠTable":5588,"Ġsecurity":5589,"98":5590,"dates":5591,"Ġbehavior":5592,"war":5593,"Scale":5594,"widetilde":5595,"aign":5596,"RAN":5597,"IMP":5598,"Ġclosed":5599,"osed":5600,"ĠMat":5601,"Ġsl":5602,"peat":5603,"ĠIP":5604,"ĠBro":5605,"Second":5606,"ROM":5607,"manager":5608,"results":5609,"Ġthought":5610,"home":5611,"SY":5612,"=\"\"":5613,"63":5614,"Ġclean":5615,"rift":5616,"fail":5617,"Ġdir":5618,"Ã¤":5619,"Ġground":5620,"Sum":5621,"Ġnews":5622,"uncil":5623,"ellow":5624,",-":5625,"Find":5626,"ITE":5627,"incip":5628,"Ġeffects":5629,"Namespace":5630,"Ġwide":5631,"LAG":5632,"ondon":5633,"Ġ%}":5634,"Ġwatch":5635,"ĠIOException":5636,"ĠHer":5637,"ĠOption":5638,"atives":5639,"anies":5640,"rench":5641,"cut":5642,"obile":5643,"Layer":5644,"Ġctx":5645,"anks":5646,"Before":5647,"Ap":5648,"TABLE":5649,"Ġever":5650,"ĠEnglish":5651,"Found":5652,"omy":5653,"expr":5654,"Ġenabled":5655,"Product":5656,"Named":5657,"enced":5658,"300":5659,"Ġnecessary":5660,"ored":5661,"NULL":5662,"Ġwar":5663,"urrency":5664,"children":5665,"ble":5666,"cpp":5667,"GB":5668,"aching":5669,"ĠAir":5670,"Ġfront":5671,"network":5672,"Ġsave":5673,"real":5674,"Conf":5675,"ius":5676,"ĠTask":5677,"Ġng":5678,"Ġonline":5679,"Ġdimension":5680,"cing":5681,"raction":5682,"master":5683,"Ġbad":5684,"Ð»":5685,"ĠDirect":5686,"rong":5687,"tic":5688,"Ġaffect":5689,"ĠQue":5690,"spring":5691,"Headers":5692,"reset":5693,"ĠEl":5694,"scribe":5695,"Ġlibrary":5696,"Ġexplicit":5697,"Ġasync":5698,"Ġprec":5699,"Ġalmost":5700,"Ġroom":5701,"Ġimpact":5702,"theme":5703,"tools":5704,"Ġnumbers":5705,"Ġill":5706,"Now":5707,"ociation":5708,"components":5709,"','":5710,"decl":5711,"clusion":5712,"ango":5713,"oted":5714,"XML":5715,"62":5716,"Ġbene":5717,"star":5718,"ĠII":5719,"Ġ[[":5720,"Ġwhole":5721,"area":5722,"stry":5723,"Files":5724,"Ġlarger":5725,"Ġlocated":5726,"UTF":5727,"]:":5728,"itional":5729,"Expect":5730,";\\":5731,"pers":5732,"alax":5733,"ĠOper":5734,"uel":5735,"Ġconstructor":5736,"rem":5737,"ĠPri":5738,"Ġobserved":5739,"Ġforward":5740,"reshold":5741,"material":5742,"Ġda":5743,"pay":5744,"Ġincrease":5745,"Ġwent":5746,"anging":5747,"Ġdidn":5748,"DC":5749,"svg":5750,"Ġauth":5751,"cour":5752,"\\]":5753,"ĠField":5754,"writ":5755,"Ã¼":5756,"safe":5757,"ĠMet":5758,"ĠBritish":5759,"contains":5760,"Ġtab":5761,"zone":5762,"Identifier":5763,"ĠĠĠĠĠĠĠĠĠĠĠĠĠĠĠĠĠĠĠĠĠĠĠĠĠĠĠĠĠĠĠĠĠĠĠĠĠĠĠĠĠĠĠ":5764,")).":5765,"Remove":5766,"aker":5767,"ensive":5768,"ming":5769,"Syntax":5770,"locity":5771,"boost":5772,"screen":5773,"Import":5774,"MOD":5775,"Ġicon":5776,"Ġimplements":5777,"appro":5778,"Socket":5779,"Ġlang":5780,"aration":5781,"zeta":5782,"enter":5783,"Ġyoung":5784,"lers":5785,"ById":5786,"Ġissues":5787,"Lim":5788,"Ġlonger":5789,"Ġdesc":5790,"Dest":5791,"Ġsizeof":5792,"Ġindu":5793,"ĠEast":5794,"argument":5795,">::":5796,"Ġmonths":5797,"mask":5798,"Activity":5799,"Ġcalls":5800,"Ġeff":5801,"Enum":5802,"Ġthing":5803,"'])":5804,"Ġcontact":5805,"Ġyield":5806,"Global":5807,"Ġexplain":5808,"ONE":5809,"Ġcareer":5810,"undefined":5811,"Pop":5812,"ĠEq":5813,"ertificate":5814,"mental":5815,"SER":5816,"rate":5817,"ĠConfig":5818,"Ġproces":5819,"Ġlisten":5820,"Ġimmedi":5821,"Ġlearning":5822,"entials":5823,"Ġleading":5824,"security":5825,"relation":5826,"85":5827,"Note":5828,"jquery":5829,"Ġshared":5830,"Ġbal":5831,"ALSE":5832,"identifier":5833,"Adapter":5834,"ĠUpdate":5835,"Ljava":5836,"icket":5837,"Sync":5838,"Cluster":5839,"Ġappend":5840,"Statement":5841,"Ġlikely":5842,"IB":5843,"otal":5844,"Collections":5845,"Ġwebsite":5846,"Ġ{'":5847,"Ġcomes":5848,"total":5849,"Ġencoding":5850,"Full":5851,"Prefix":5852,"icult":5853,"Ġcorrespond":5854,"unced":5855,"Ġhar":5856,"################":5857,"resents":5858,"Ġstorage":5859,"ifdef":5860,"prefix":5861,"indexOf":5862,"Ġcore":5863,"Ġrecogn":5864,"Ġbegan":5865,"kens":5866,"job":5867,"Ġrelationship":5868,"leep":5869,"profile":5870,"depth":5871,"Ġbottom":5872,"}]":5873,"Ġrepl":5874,"Ġsignal":5875,"PATH":5876,"ĠInternational":5877,"git":5878,"Ġprogress":5879,"Ġapplied":5880,"Ġdebug":5881,"parameters":5882,"Ġnov":5883,"ford":5884,"pher":5885,"ĠHel":5886,"dim":5887,"Ġoutside":5888,"Ġtaking":5889,"Ġhit":5890,"switch":5891,"Mapping":5892,"=\"@":5893,"Ġhel":5894,"======":5895,"nil":5896,")\"":5897,"Ġfire":5898,"ITH":5899,"numer":5900,"ĠOver":5901,"portun":5902,"Ġpod":5903,"Word":5904,"Ġsitu":5905,"____":5906,"\\{":5907,"agram":5908,"Ġoptional":5909,"Duration":5910,"Ñĥ":5911,"oph":5912,"Ġdeep":5913,"ĠMich":5914,"READ":5915,"Ġbrowser":5916,"Ġremoved":5917,"Ġlarg":5918,"Failed":5919,"Main":5920,"Condition":5921,"Profile":5922,"Ġoptim":5923,"Desc":5924,"ĠAmerica":5925,"}+":5926,"Ġpick":5927,"Ġmechan":5928,"BP":5929,"TRUE":5930,"DA":5931,"FR":5932,"ociety":5933,"ĠInteger":5934,"attributes":5935,"Ġprofile":5936,"Ġgives":5937,"artment":5938,"ifying":5939,"elf":5940,"oring":5941,"isode":5942,"ĠRegister":5943,"indent":5944,"ĠTech":5945,"ocker":5946,"Double":5947,"Ġofficial":5948,"ĠSto":5949,"ĠSy":5950,"ael":5951,"Av":5952,"shift":5953,"}</":5954,"Trace":5955,"Ġang":5956,"}=\\":5957,"fd":5958,"uit":5959,"ĠIndia":5960,"Ġentity":5961,"Microsoft":5962,"Ġrequests":5963,"emma":5964,"Ġupdated":5965,"61":5966,"aur":5967,"ĠJap":5968,"123":5969,"ares":5970,"iders":5971,"Ġloop":5972,"faces":5973,"Attr":5974,"gebra":5975,"Constants":5976,"symbol":5977,"2003":5978,"effic":5979,"Ġqueue":5980,"ĠHand":5981,"thm":5982,"Ġfinally":5983,"Selection":5984,"rd":5985,"Ġnative":5986,"Ġquick":5987,"Abstract":5988,"Ġrules":5989,"pret":5990,"ua":5991,"ĠTheorem":5992,"picker":5993,">:":5994,"Ġfood":5995,"ĠDec":5996,"coq":5997,"Ġeffic":5998,"han":5999,"ĠCenter":6000,"\"/":6001,"'));":6002,"editor":6003,"Ġstatement":6004,"Ġmatter":6005,"Domain":6006,"ĠWilli":6007,"ĠStud":6008,"CI":6009,"ĠCour":6010,"Ġcause":6011,"Vert":6012,"Ġnatural":6013,"browser":6014,"TEXT":6015,"Len":6016,"Ġetc":6017,"account":6018,"Route":6019,"Ġrec":6020,"ixture":6021,"Ġawait":6022,"Ġwalk":6023,"Ġcandid":6024,"Ġshare":6025,"allel":6026,"scriptor":6027,"osite":6028,"SR":6029,"Ġcompared":6030,"filename":6031,"78":6032,"parser":6033,"Ġpy":6034,"Ġstage":6035,")=\\":6036,"Ġeditor":6037,"Ġnight":6038,"aches":6039,"oog":6040,"Ġrg":6041,"hidden":6042,"chart":6043,"centering":6044,"logger":6045,"History":6046,"Region":6047,"Ġprevent":6048,"Ġfinite":6049,"ĠLondon":6050,"EO":6051,"spect":6052,"Common":6053,"pid":6054,"hide":6055,"Ġflags":6056,"Ġdifference":6057,"Ġwallet":6058,"WA":6059,"ĠHealth":6060,"Browser":6061,"bal":6062,"ĠPost":6063,"Ġprefix":6064,"SU":6065,"ĠBr":6066,"Ġviol":6067,"Ġcoup":6068,"Ġprior":6069,"iforn":6070,"IND":6071,"netic":6072,"ĠCopyright":6073,"names":6074,"protocol":6075,"nov":6076,"Ġsources":6077,"mazon":6078,"Ġstre":6079,"ye":6080,"ĉĉĉĊ":6081,"BUG":6082,"Single":6083,"çļ":6084,"ĠPhil":6085,"Ġupper":6086,"Ġnothing":6087,"('.":6088,"ĠId":6089,"ĠOther":6090,"builder":6091,"ying":6092,"ached":6093,"Ġaccur":6094,"orary":6095,"Ġestablished":6096,"Ġinflu":6097,"izations":6098,"Ġ\"<":6099,"lemma":6100,"çļĦ":6101,"Ġtransport":6102,"ĠWindow":6103,"Ġmot":6104,"ĠPort":6105,"special":6106,"ĠArg":6107,"echo":6108,"Ġtrigger":6109,"Ġstarting":6110,"imed":6111,"Ġrequires":6112,"ĠLeague":6113,"avy":6114,"Cor":6115,"Ġfix":6116,"yal":6117,"progress":6118,"Ġperformed":6119,"ĠProject":6120,"reme":6121,"Ġok":6122,"aking":6123,"|-":6124,"testing":6125,"Americ":6126,"HTTP":6127,"ĠModel":6128,"Ġproper":6129,"Ġupon":6130,"ĠExp":6131,"Ġexplo":6132,"LOCK":6133,"Opt":6134,"ĠMod":6135,"Ġsplit":6136,"Ġ\",":6137,"Delegate":6138,")}\\":6139,"Ġmetadata":6140,"ĠGeneral":6141,"ĠBuild":6142,"ACT":6143,"Ġshift":6144,"illa":6145,"ĠInitial":6146,"idx":6147,"ĠSm":6148,"letion":6149,"URI":6150,"Ġtransfer":6151,"shadow":6152,"rees":6153,"Ġtransparent":6154,"Ġmanagement":6155,"Ġrespons":6156,"ĠDem":6157,"ĠView":6158,"Ġpie":6159,"forms":6160,"dimension":6161,"NavBarCell":6162,"Success":6163,"Ġpatients":6164,"HO":6165,"IX":6166,"Java":6167,"------------":6168,"related":6169,"Ġorigin":6170,"atically":6171,"while":6172,"complete":6173,"Ġneigh":6174,"Ġmessages":6175,"Ġbtn":6176,"Services":6177,"$)":6178,"Uri":6179,"Rad":6180,"anning":6181,"Ġwriter":6182,"Ġmis":6183,"ĠBlack":6184,"Ġui":6185,"![":6186,"tests":6187,"DS":6188,"Ġansw":6189,"Ġdoing":6190,"angular":6191,"Ġproducts":6192,"ifornia":6193,"ĠGra":6194,"ĠĠĠĠĠĠĠĠĠĠĠĠĠĠĠĠĠĠĠĠĠĠĠĠĠĠĠĠĠĠĠĠĠĠĠĠĠĠĠĠĠĠĠĠĠĠĠĠĠĠĠĠĠĠĠĠĠĠĠĠĠĠĠĠ":6195,"Engine":6196,"invalid":6197,"acro":6198,"Simple":6199,"Ġreceive":6200,"Ġ'<":6201,"look":6202,"room":6203,"Author":6204,"ĠĠĠĠĠĠĠĠĠĠĠĠĠĠĠĠĠĠĠĠĠĠĠĠĠĠĠĠĠ":6205,"Ġbroad":6206,"Ġenum":6207,"LECT":6208,"lict":6209,"ilitary":6210,"Ġxmlns":6211,"kw":6212,"Ġmatches":6213,"=(":6214,"ĉĠĠĠĠ":6215,"iber":6216,"sect":6217,"Ġtemperature":6218,"ĠConst":6219,"ndef":6220,")^{":6221,"ĠCollege":6222,"done":6223,"Ġsouth":6224,"Ġfriend":6225,"Ġproblems":6226,"ĠNow":6227,"pecially":6228,"Ġvalign":6229,"Registry":6230,"itution":6231,"Ġexternal":6232,")->":6233,"eries":6234,"Ġarticle":6235,"Ðº":6236,"exists":6237,"Depend":6238,"Ġabsolute":6239,"gers":6240,"ĠReact":6241,"Ġlevels":6242,"shal":6243,"IST":6244,"family":6245,"Ġmulti":6246,"Ġdrop":6247,"junit":6248,"ĠĠĠĠĠĠĠĠĠĠĠĠĠĠĠĠĠĠĠĠĠĠĠĠĠĠ":6249,"ĠTH":6250,"Ġled":6251,"Ġste":6252,"Ġsimply":6253,"Ġproposed":6254,"160":6255,"oss":6256,"Ġlistener":6257,"umerable":6258,"protected":6259,"Ġdegree":6260,"ancial":6261,"128":6262,"axis":6263,"ĠSQL":6264,"Ġelection":6265,"Ġmanager":6266,"Ġsense":6267,"Ġareas":6268,"ensed":6269,"atur":6270,"FL":6271,"Ġclick":6272,"born":6273,"Ġprops":6274,"Space":6275,"pass":6276,"=\"${":6277,"selves":6278,"72":6279,"ĠAND":6280,"rics":6281,"RES":6282,"Ġsens":6283,"ĠJust":6284,"atively":6285,"serve":6286,"FC":6287,"tabular":6288,"Ġcompanies":6289,"akes":6290,"FLAG":6291,"CESS":6292,"configuration":6293,"PER":6294,"sur":6295,"ership":6296,"Ġmask":6297,"Ġlooking":6298,"storage":6299,"ĠAm":6300,"%%%%":6301,"ï¼":6302,"AX":6303,"conn":6304,"Selected":6305,"Progress":6306,"SCR":6307,"contin":6308,"liance":6309,"Ġindustry":6310,"Ġpassword":6311,"=\"\">":6312,"ceed":6313,"Ġfun":6314,"Ġstation":6315,")-":6316,"Ġ[\"":6317,"Ġtmp":6318,"Ġmid":6319,"ĠHash":6320,"NOT":6321,"IPT":6322,"iling":6323,"ĠPresident":6324,"prev":6325,"Ġer":6326,"abilities":6327,"Ġconver":6328,"enabled":6329,"Generator":6330,"avi":6331,"Ġquality":6332,"2002":6333,"INS":6334,"Ġtradition":6335,"sin":6336,"Lin":6337,"Ġeffective":6338,"TIME":6339,"ĠRequest":6340,"variable":6341,"Ġinternational":6342,"ously":6343,"loader":6344,"trics":6345,"Ġcounter":6346,"Ġhidden":6347,"widehat":6348,"Sequence":6349,"Ġdemon":6350,"Ġrisk":6351,"ifndef":6352,"ara":6353,"Ġpersonal":6354,"Ġcast":6355,"Pi":6356,"structure":6357,"Ġaxis":6358,"va":6359,".\");":6360,"isting":6361,"Agent":6362,"Ġtherefore":6363,"ĠMicrosoft":6364,"dialog":6365,"USE":6366,"rial":6367,"itch":6368,"headers":6369,"Ġdetermine":6370,"usiness":6371,"ĠHTTP":6372,"ĠHo":6373,"Ġspin":6374,"ĠCollection":6375,"orest":6376,"Ġaltern":6377,"Ġprofession":6378,"illing":6379,"ĠResource":6380,"Step":6381,"Ġopportun":6382,"errors":6383,"ili":6384,"Ġgetting":6385,"Ġprotocol":6386,"ĠLong":6387,"fx":6388,"Ġclub":6389,"ste":6390,"Ġstrings":6391,"inct":6392,"FIG":6393,"Repository":6394,"Dec":6395,"ena":6396,"Ġsetup":6397,"Ġcontract":6398,"Cap":6399,"Ġuseful":6400,"moz":6401,"ENSE":6402,"ategories":6403,"ĠChe":6404,".'":6405,"Shape":6406,"ography":6407,"bu":6408,"cape":6409,"agger":6410,"Ġcook":6411,"82":6412,"MB":6413,"external":6414,"ĠRun":6415,"tags":6416,"Ġdifficult":6417,"84":6418,"Ġspecies":6419,"Texture":6420,"EventListener":6421,"fect":6422,"illed":6423,"chain":6424,"execute":6425,"Ġbring":6426,"More":6427,"Ġ\"-":6428,"Ġmoney":6429,"Ġenable":6430,"Ġrank":6431,"}|":6432,"ande":6433,"ocr":6434,"Ġregard":6435,"asons":6436,"assets":6437,"Ġphysical":6438,"lg":6439,"usion":6440,"Ġpopular":6441,"jango":6442,"Fact":6443,"ampionship":6444,"Ġconduct":6445,"crete":6446,"pool":6447,"detail":6448,"ribution":6449,"Ġmissing":6450,"79":6451,"Own":6452,"Details":6453,"DateTime":6454,"zy":6455,"gradient":6456,"Ġidx":6457,"Ġparam":6458,"platform":6459,"ĠMem":6460,"ĠNumber":6461,"izable":6462,"Dictionary":6463,"Ġgoal":6464,"Ġexports":6465,"ĠAR":6466,"bad":6467,"Ġ],":6468,"Ġdetect":6469,"Section":6470,"Ġsus":6471,"Since":6472,"Ġisn":6473,"Sw":6474,"OB":6475,"Ġactivity":6476,"Ġfast":6477,"ĠDet":6478,"Ġweak":6479,"Ġeffort":6480,"Pay":6481,"ĠHere":6482,"Ġgas":6483,"}:":6484,"Ġhours":6485,"rb":6486,"ĠArm":6487,"ĠWAR":6488,"extend":6489,"Ġbehind":6490,"Ġfmt":6491,"Ġprobability":6492,"Ġexport":6493,"ipp":6494,"Ġheaders":6495,"ĠRef":6496,"views":6497,"Ġfailure":6498,"Ġlost":6499,"ĠSim":6500,"ĠSum":6501,"Ġfamil":6502,"ĠInc":6503,"ĠIE":6504,"ĉĉĉĉĉĉĉĉĉ":6505,"band":6506,"ĠOur":6507,"Ġchart":6508,"Ġtax":6509,"berg":6510,"wrapper":6511,"Ġliter":6512,"Ġparser":6513,"riteria":6514,"HR":6515,"ĠMessage":6516,"uge":6517,"rec":6518,"ouch":6519,"Ġtesting":6520,"enable":6521,"Ġinner":6522,"Ġequivalent":6523,"orge":6524,"Art":6525,"details":6526,"tc":6527,"Ġ_.":6528,"ĠAtt":6529,"pattern":6530,"Stats":6531,"Ġcontroller":6532,"Ġstudies":6533,"Ġwor":6534,"Ġ>>>":6535,"cdots":6536,"}_\\":6537,"ĠFigure":6538,"ya":6539,"Ġgrid":6540,"ĠTV":6541,"ICE":6542,"ĠJava":6543,"MODULE":6544,"Ġess":6545,"aily":6546,"random":6547,"bul":6548,"ifications":6549,"Resources":6550,"Ġreading":6551,"Ġspeed":6552,"Ġpolitical":6553,"Ġforeach":6554,"cup":6555,"library":6556,"uting":6557,"ĠResearch":6558,"emon":6559,"Role":6560,"Ġunless":6561,"})\\":6562,"fix":6563,"Ġproduced":6564,"Ġstand":6565,"socket":6566,"Ġcompleted":6567,"Ġip":6568,"FS":6569,"vc":6570,"Ġeasy":6571,"grade":6572,"Ġtimeout":6573,"Character":6574,"pu":6575,"Ġdynam":6576,"Password":6577,"stat":6578,"za":6579,"ivil":6580,"Ġespecially":6581,"extern":6582,"llegal":6583,"ĠOff":6584,"counter":6585,"assign":6586,"Ġem":6587,"construct":6588,"Ġtechnology":6589,"ida":6590,"Ġbuf":6591,"Ġholds":6592,"ĠPat":6593,"Ġboundary":6594,"anish":6595,"enses":6596,"orter":6597,"Ġmut":6598,"NT":6599,"Ġdeveloped":6600,"ago":6601,"typename":6602,"phone":6603,"REG":6604,"Ġquantum":6605,"roke":6606,"Ġmenu":6607,"Ġcentral":6608,"Ġsolutions":6609,"extension":6610,"ĠCalifornia":6611,"HER":6612,"ducer":6613,"slice":6614,"(@":6615,"Ġinc":6616,"some":6617,"Ġ\\{":6618,"lands":6619,"ĠPath":6620,"inn":6621,"Ġfilms":6622,"Ġnegative":6623,"dro":6624,"Ġ^":6625,"gg":6626,"Ġscen":6627,"She":6628,"Ġcells":6629,"Ġroute":6630,"ĠValid":6631,"ira":6632,"activ":6633,"zure":6634,"Ġtold":6635,"Ġbasis":6636,"WR":6637,"apped":6638,"zero":6639,".~":6640,"Ġmeta":6641,"umption":6642,"tabs":6643,"Ġminimum":6644,"arter":6645,"Ġinterval":6646,"selector":6647,"istr":6648,"ĠLOG":6649,"ĠRepublic":6650,"ĠNor":6651,"}^\\":6652,"ĠIndex":6653,"ĠStart":6654,"Ġopts":6655,"ancy":6656,"atible":6657,"umin":6658,"Ġbasic":6659,"Ġsymme":6660,"FORM":6661,"Ġshall":6662,"Ġcontra":6663,"definition":6664,"NA":6665,"ĠASSERT":6666,"Ġhot":6667,"EC":6668,"levision":6669,"LL":6670,"ĠĠĠĊ":6671,"Ġhistor":6672,"igration":6673,"Ġrecomm":6674,"Ġfeed":6675,"ITION":6676,"Ġsubst":6677,"timeout":6678,"sys":6679,"Ġord":6680,"ĠDon":6681,"Ġsem":6682,"Ġ_,":6683,"single":6684,"Ġskip":6685,"ĠCommun":6686,"asy":6687,"here":6688,"1999":6689,"ĠUK":6690,"Py":6691,"ĠExec":6692,"ateway":6693,"Ġbinary":6694,"Ġpredict":6695,"MC":6696,"ĠDel":6697,"Ġannounced":6698,"Ġmultip":6699,"Ġpush":6700,"ĠIndian":6701,"Ġselector":6702,"Ġreadonly":6703,"Ġslow":6704,"Rest":6705,"umerate":6706,"Ġanything":6707,"andra":6708,"volume":6709,"spe":6710,"dp":6711,"chor":6712,"Ġextract":6713,"qquad":6714,"Ġchoice":6715,"METH":6716,"Ġtechn":6717,"Ġson":6718,"Ġparty":6719,"Ġfem":6720,"Comment":6721,"Ġfactory":6722,"Diagnost":6723,"sidebar":6724,"icient":6725,"Ġabstract":6726,"Ġraw":6727,"fc":6728,"throw":6729,"Ġappropri":6730,"ĠFrench":6731,"constructor":6732,"Pair":6733,"ĠRecord":6734,"veloper":6735,"Ġvill":6736,"Ġpartial":6737,"jar":6738,"ĠUI":6739,"resolve":6740,"ORTED":6741,"Ġconstruction":6742,"imately":6743,"async":6744,"icks":6745,"osen":6746,"since":6747,"76":6748,"Math":6749,"Ġcmd":6750,"ini":6751,"veal":6752,"Ġsil":6753,"rot":6754,"wood":6755,"Interval":6756,"utive":6757,"ror":6758,"Ġ>>":6759,"Ġdelay":6760,"ĠMake":6761,"subset":6762,"pict":6763,"spital":6764,"Ġdise":6765,"Ġvisible":6766,"dy":6767,"Ġpresented":6768,"}'":6769,"hest":6770,"Ġmiddle":6771,"Visible":6772,"provider":6773,"erve":6774,"ĠSO":6775,"wp":6776,"Ã¶":6777,"services":6778,"LP":6779,"bot":6780,"^+":6781,"ĠDepartment":6782,"tbody":6783,"Off":6784,"isation":6785,"ĠWhile":6786,"DT":6787,"effect":6788,"ano":6789,"Children":6790,"pkg":6791,"Ġten":6792,"Ġscroll":6793,"Bound":6794,"overnor":6795,"Endpoint":6796,"Ġcategory":6797,".\",":6798,"sequent":6799,"Ġrepresents":6800,"Ġcentury":6801,"Ġsmaller":6802,"Ġmoved":6803,"Vertex":6804,"ĠEar":6805,"Ġconnected":6806,"Ġ];":6807,"Ġ'\\":6808,"GR":6809,"ĠDay":6810,"Ġlogger":6811,"Ġgets":6812,"ĠĠĠĠĠĠĠĠĠĠĠĠĠĠĠĠĠĠĠĠĠĠĠĠĠĠĠĠ":6813,"Pub":6814,"celer":6815,"Ġsound":6816,"horizontal":6817,"untry":6818,"mouse":6819,"Ġgrowth":6820,"Ġago":6821,"Ġcard":6822,"umed":6823,"Required":6824,"$/":6825,"Ġdev":6826,"Ġdim":6827,"bes":6828,"Ġheart":6829,"ĠChina":6830,"ĠHttp":6831,"()</":6832,"Ġidea":6833,"ansion":6834,"mal":6835,"REQ":6836,"shared":6837,"Framework":6838,"lood":6839,"Ġdemonstr":6840,"Ġradio":6841,"ĠLaw":6842,"Cred":6843,"ĠDavid":6844,"ĠMag":6845,"gments":6846,"proxy":6847,"Ġinvestig":6848,"sequence":6849,"eff":6850,"VENT":6851,"BE":6852,"ĠANY":6853,"91":6854,"Ġreflect":6855,"&=":6856,"ĠLandroid":6857,"ĠSeries":6858,"Native":6859,"cluster":6860,"Symfony":6861,"{\"":6862,"Origin":6863,"present":6864,"||":6865,"olic":6866,"Category":6867,"Ġir":6868,"{(":6869,"Then":6870,"Connect":6871,"Ġann":6872,"INFO":6873,"feature":6874,"Ġgalax":6875,"Ġsaf":6876,"Ġjoin":6877,"Ġlicense":6878,"vs":6879,"Ġreset":6880,"ĠAnt":6881,"latform":6882,"Errorf":6883,"Ġ=========":6884,"ĠHol":6885,"Ġprobably":6886,"IVE":6887,"}}(":6888,"erry":6889,"ĠThus":6890,"VM":6891,"Ġreader":6892,"Ġincreasing":6893,"Ġcreating":6894,"Ġfully":6895,"resources":6896,"unique":6897,"loaded":6898,"NN":6899,"Ġmention":6900,"ellij":6901,"sheet":6902,"generated":6903,"Mask":6904,"Ġowner":6905,"Ġeverything":6906,".<":6907,"Ġunits":6908,"ĠassertThat":6909,"flag":6910,"ussion":6911,"ifiers":6912,"PP":6913,"Ġactions":6914,"intellij":6915,"Sort":6916,"release":6917,"ĠBer":6918,">\"":6919,"Tags":6920,"king":6921,"ĠAustralia":6922,"arnings":6923,"Ġretrie":6924,"MI":6925,"DEFAULT":6926,"Admin":6927,"ĠEngland":6928,"Ġstars":6929,"fort":6930,"rase":6931,"83":6932,"ĠCanada":6933,"ja":6934,"WORD":6935,"Ġbecomes":6936,"nodes":6937,"Ġschema":6938,"Ġlib":6939,"opts":6940,"fly":6941,"Ġcompare":6942,"Background":6943,"Ġcritical":6944,"'ll":6945,"login":6946,"aran":6947,"Ġmind":6948,"STATE":6949,"sters":6950,"ises":6951,"{%":6952,":\\":6953,"METHOD":6954,"elem":6955,"ĠSen":6956,"lam":6957,"Ġdecre":6958,"ef":6959,"Ġusually":6960,"Ġcompute":6961,"ributed":6962,"****************************************************************":6963,"Ġtouch":6964,"omorph":6965,"Ġdetail":6966,"ville":6967,"SCRIPT":6968,"Ġvs":6969,"uest":6970,"aid":6971,"Ġhon":6972,"required":6973,"kt":6974,"ĠMax":6975,"FFFF":6976,"Ġfoc":6977,"Ġdepth":6978,"iny":6979,"_);":6980,"ĠMer":6981,"74":6982,"levant":6983,"ĠRel":6984,"Ġsegment":6985,"Db":6986,"oral":6987,"Animation":6988,"hold":6989,"Ġgreater":6990,"ĠStreet":6991,"optional":6992,"Ġsql":6993,"Final":6994,"ito":6995,"Ġdriver":6996,"92":6997,"Ġgain":6998,"Gen":6999,"Home":7000,"sample":7001,"FE":7002,"ĠCouncil":7003,"video":7004,"when":7005,"=-":7006,"ceived":7007,"Ġemer":7008,"TestCase":7009,"Ġpool":7010,"isions":7011,"Ġaud":7012,"href":7013,"High":7014,"python":7015,"ederal":7016,"Ġ{{":7017,"Ġpreviously":7018,"sb":7019,"den":7020,"ĠDistrict":7021,"checked":7022,"omial":7023,"WN":7024,"Mouse":7025,"Ġtravel":7026,"ĠBlock":7027,"textwidth":7028,"Ign":7029,"loop":7030,"Some":7031,"cial":7032,"Ġ×":7033,"Limit":7034,"Ġrgba":7035,"bits":7036,"ĠArch":7037,"ĠÎ":7038,"Ġblocks":7039,"runtime":7040,"ancellationToken":7041,"compiler":7042,"ĠImage":7043,"corded":7044,"ĠEuropean":7045,"Ġ).":7046,")+":7047,"username":7048,"Ġlatest":7049,"åı":7050,"Ġdisk":7051,"Members":7052,"rey":7053,"Ġeng":7054,"ques":7055,"assembly":7056,"Support":7057,"ĠMal":7058,"ĠBOOST":7059,"Ġproxy":7060,"Ñı":7061,"Ġratio":7062,"inger":7063,"#{":7064,"useum":7065,"Ġdecision":7066,"Ġfill":7067,"American":7068,"Ġminutes":7069,"INTER":7070,"}^{(":7071,"}\\,":7072,"Ġframework":7073,"ILE":7074,"Ġsafe":7075,"ployment":7076,"Flow":7077,"olar":7078,"Ġverify":7079,"93":7080,"Ġlayout":7081,"citet":7082,"shall":7083,"Begin":7084,"Public":7085,"Br":7086,"()))":7087,"Ġidentity":7088,"Ġ{\"":7089,"checkbox":7090,"Play":7091,"fire":7092,"Ids":7093,"Nullable":7094,"ufact":7095,";}":7096,"'ve":7097,"century":7098,"black":7099,"wiki":7100,"lug":7101,"Ġ$(\\":7102,"Ġscore":7103,"FN":7104,"elt":7105,"ĠBoolean":7106,"Ġinsert":7107,"lan":7108,"Axis":7109,"ĠOf":7110,"ĠNAME":7111,"Library":7112,"ĠResult":7113,"Ġmicro":7114,"PUT":7115,"inder":7116,"Ġserved":7117,"3333":7118,"?>":7119,"contain":7120,"VALID":7121,"iring":7122,"Ġexc":7123,"condition":7124,"Move":7125,"Ġeducation":7126,"blue":7127,"Ġchoose":7128,"IGHT":7129,"Ġmaster":7130,"deg":7131,"!!":7132,"mpt":7133,":[":7134,"ĠUN":7135,"Ġcolumns":7136,"\"],":7137,"IV":7138,"ONG":7139,"Google":7140,"81":7141,"CALL":7142,"94":7143,"uffers":7144,"Ġdestroy":7145,"Ġtranslate":7146,"ĠDiv":7147,"transition":7148,"clean":7149,"Ġ'';":7150,"CF":7151,"Ġcampaign":7152,"upload":7153,"cedure":7154,"Ġdesigned":7155,"Mess":7156,"lia":7157,"Ġapplications":7158,"Gra":7159,"ĠScience":7160,"icated":7161,"Ġrect":7162,"Ġrecently":7163,"Ġsigned":7164,"'];":7165,"ĠCOVID":7166,":`":7167,"Ġ\\\"":7168,"Ġcoming":7169,"Ġstrategy":7170,"lymp":7171,"ĠBig":7172,"Ġdistrict":7173,"ĠLemma":7174,"Ġdiscuss":7175,"supported":7176,"green":7177,"DOM":7178,"Ġsignature":7179,"vo":7180,"Ġtreatment":7181,"Ġrecords":7182,"ĠAction":7183,"}+\\":7184,"DATA":7185,"__)":7186,"jQuery":7187,"Constructor":7188,"ummy":7189,"Ġconcept":7190,"<!":7191,"ĠTR":7192,"Ġund":7193,"zip":7194,"Ġremote":7195,"validate":7196,"Ġliving":7197,"Ġtypedef":7198,"Report":7199,"Ġembed":7200,"rote":7201,"Ġwave":7202,"SSL":7203,"icator":7204,"Ġseems":7205,"sync":7206,"Ġreject":7207,"ĠAre":7208,"Operator":7209,"Ġeq":7210,"ĠArrayList":7211,"Ġsold":7212,"TRY":7213,"amaz":7214,"73":7215,"Ġtensor":7216,"van":7217,"grams":7218,"MODE":7219,"Ġquite":7220,"Generated":7221,"Language":7222,"ĠVis":7223,"ternet":7224,"Bo":7225,"Total":7226,"('/":7227,"lebr":7228,"Ġestablish":7229,"react":7230,"Ġboost":7231,"Flag":7232,"maven":7233,"Ġconcern":7234,"}\\\\":7235,"Ġarr":7236,"Methods":7237,"ston":7238,"Ġmetric":7239,"ArgumentException":7240,"tk":7241,"Ġlimited":7242,"destroy":7243,"limate":7244,"Area":7245,"pping":7246,"ĠFoundation":7247,"enge":7248,"Ġdark":7249,"Ġhom":7250,"ĠMor":7251,"ĠAssembly":7252,"alls":7253,"console":7254,"Wait":7255,"Ġworked":7256,"generate":7257,"COMP":7258,"Capt":7259,"Ġstaff":7260,"Ġplaying":7261,"Ġfollowed":7262,"tsd":7263,"Ġmatching":7264,"{{\\":7265,"Ġelectron":7266,"Ġsoon":7267,"mitive":7268,"Ġprove":7269,"ĠPal":7270,"Ġunknown":7271,"Dat":7272,"Ġborn":7273,"Ġfrequency":7274,"ko":7275,"Ġneut":7276,"Ġsamples":7277,"aste":7278,"Ġ@\"":7279,"role":7280,"fi":7281,"ĠMiss":7282,"ongs":7283,"Multi":7284,"Ġmeas":7285,"Ġdam":7286,"ĠAmazon":7287,"ajax":7288,"tri":7289,"ĠAlso":7290,"burg":7291,"ĠBu":7292,"Bean":7293,"Ġ{},":7294,"Ġbits":7295,"ĠCup":7296,"ĠInput":7297,"yg":7298,"road":7299,"Ġstri":7300,"Ġpromise":7301,"Ġintroduced":7302,"Ġ''":7303,"arguments":7304,"PH":7305,"Ġresolve":7306,"scss":7307,"ils":7308,"Ġexecute":7309,"icol":7310,"ashington":7311,"ĠAS":7312,"Ġprice":7313,"UD":7314,"Ġenter":7315,"Ġimmediately":7316,"uite":7317,"Pers":7318,"abbr":7319,"scr":7320,"herited":7321,"Ġtrying":7322,"Ġvertex":7323,"Help":7324,"'m":7325,"Ġfather":7326,"Ġdetermined":7327,"Mer":7328,"Ġchunk":7329,"jpg":7330,"collapse":7331,"inherit":7332,"incipal":7333,"Year":7334,"Ġdisabled":7335,"duces":7336,"Literal":7337,"MT":7338,"Ġinvolved":7339,"well":7340,"fixed":7341,"ĠOp":7342,"']['":7343,"ĠBra":7344,"Ġthroughout":7345,"rian":7346,"Conn":7347,"approx":7348,"Ġoffice":7349,"Ġstreng":7350,"itable":7351,"Ġexit":7352,"aming":7353,"clone":7354,"velopment":7355,"riend":7356,"Skip":7357,"ĠJames":7358,"apis":7359,"atomic":7360,"icture":7361,"grad":7362,"ĠKe":7363,"users":7364,"Ġcountries":7365,"Short":7366,"Ġduration":7367,"Ġveh":7368,"Ġdro":7369,"ette":7370,"Fn":7371,"PU":7372,"Fragment":7373,"Ġcalling":7374,"Lower":7375,"issues":7376,"Ġschedule":7377,"]\\":7378,"Ġbeginning":7379,"tty":7380,"bi":7381,"las":7382,"%,":7383,"springframework":7384,"clusive":7385,"Ġvertical":7386,"Ġtowards":7387,"=>":7388,"('#":7389,"uplic":7390,"Ġseconds":7391,"anti":7392,"Ġscheme":7393,"Look":7394,"tics":7395,"Ġforms":7396,"helper":7397,"Ġarchitect":7398,"Binding":7399,"DIS":7400,"unce":7401,"ura":7402,"duration":7403,"igr":7404,"Ġsex":7405,"Ġones":7406,"ĠDocument":7407,"Gu":7408,"Ġmix":7409,"dash":7410,"Ġautomatically":7411,"sched":7412,"Ġcursor":7413,"Ġque":7414,"ĠRich":7415,"Ġdead":7416,"mplates":7417,"Ġready":7418,"matic":7419,"Ġnavigation":7420,"etes":7421,"ĠShow":7422,"POST":7423,";\">":7424,"Ġdriv":7425,"Make":7426,"Ġresulting":7427,"organ":7428,"Ġruns":7429,"Ġequations":7430,"Ġsteps":7431,"Ġwrong":7432,"ĠXML":7433,"Identity":7434,"Video":7435,"DEF":7436,"plus":7437,"Ġways":7438,"Ġprefer":7439,"Span":7440,"ultural":7441,"omas":7442,"original":7443,"Ġ\"$":7444,"Ġ=======":7445,"Ġcharge":7446,"ierarch":7447,"Ġgrant":7448,"ĠYour":7449,"GroupName":7450,"Ġnullptr":7451,"groups":7452,"Ġepisode":7453,"xs":7454,"]$":7455,"icode":7456,"Ġfinished":7457,"Fil":7458,"\\'":7459,"urred":7460,"ancer":7461,"ighest":7462,"ĠProgram":7463,"Ġ([":7464,"Ġstored":7465,"ĠPRO":7466,"Ġlargest":7467,"watch":7468,"driver":7469,"SK":7470,"CHAR":7471,"Ġblue":7472,"west":7473,"Align":7474,"atial":7475,"Car":7476,"Ġteams":7477,"Ġdepends":7478,"erved":7479,"pair":7480,"neq":7481,"Stat":7482,"owner":7483,"Ġstra":7484,"ĠMedia":7485,"icensed":7486,"Ġleave":7487,"ibly":7488,"Ġconsistent":7489,"\"><!--":7490,"SV":7491,"(\"/":7492,"care":7493,"getValue":7494,"Ġvict":7495,"navList":7496,"Binary":7497,"Ġnor":7498,"Ġnp":7499,"Shared":7500,"lec":7501,"Ġentries":7502,"Notification":7503,"Div":7504,"Failure":7505,"ĠNetwork":7506,"tached":7507,"Ġ\"\",":7508,"ĠApache":7509,"getElement":7510,"RR":7511,"Validation":7512,"Ġknowledge":7513,"Ġrows":7514,"Promise":7515,"Ġcoeffic":7516,"Returns":7517,"ĠVector":7518,"Ġreduce":7519,"Pass":7520,"ï»":7521,"embed":7522,"Ġanimation":7523,"words":7524,"tachment":7525,"Ġfo":7526,"Ġexactly":7527,"ĠMult":7528,"Ġprovider":7529,"Ġclaim":7530,"ech":7531,"Ġstay":7532,"bitr":7533,"dep":7534,"Ġmodern":7535,"Ġfight":7536,"udo":7537,"commit":7538,"Ġboard":7539,"Ġestim":7540,"diction":7541,"ĠSource":7542,"dimensional":7543,"Ġevidence":7544,"ĠGod":7545,"Ġappropriate":7546,"setup":7547,"Ġtro":7548,"|^":7549,"Ġ(-":7550,"BAR":7551,"ĠOnly":7552,"Ġbirths":7553,"Ġmodified":7554,"Ġsec":7555,"Ġcharset":7556,"Ġprocessing":7557,"STRING":7558,"SELECT":7559,"trace":7560,"servable":7561,"forEach":7562,"Ġrace":7563,"amazon":7564,"ĠTherefore":7565,"month":7566,"deed":7567,"vari":7568,"cf":7569,"ï»¿":7570,"Ġdied":7571,"Ġspan":7572,"ĠSur":7573,"println":7574,"ducing":7575,"ĠAny":7576,"Ġnorm":7577,"Ġspecify":7578,"Ġregions":7579,"Ġdocumentation":7580,"ANG":7581,"EEEE":7582,"TA":7583,"themes":7584,"factory":7585,"neg":7586,"Ġmachine":7587,"ĠPack":7588,"objects":7589,"Ġ\"%":7590,"FUN":7591,"parator":7592,"Ġnuc":7593,"ĠTop":7594,"Enter":7595,"Ġcharg":7596,"Ġpages":7597,"route":7598,"scape":7599,"Ġtasks":7600,"ĠGreen":7601,"Ġnotice":7602,"allclasses":7603,"QU":7604,"ĠĠĠĠĠĠĠĠĠĠĠĠĠĠĠĠĠĠĠĠĠĠĠĠĠĠĠĠĠĠ":7605,"Ã§":7606,"ĠElement":7607,"Ġability":7608,"Ġbelieve":7609,"Assign":7610,"Ġpolice":7611,"71":7612,"ELD":7613,"ocation":7614,"Renderer":7615,"Ġremaining":7616,"Ġenjo":7617,"Clear":7618,"Ġship":7619,"Ġnorth":7620,"ĠInstitute":7621,"Ġmaintain":7622,"compile":7623,"Join":7624,"dec":7625,"Ġincreased":7626,"Other":7627,"warning":7628,"ĠPub":7629,"gi":7630,"Ġassist":7631,"colLast":7632,"ĠRiver":7633,"ĠRemove":7634,"ãĢ":7635,"assertTrue":7636,"ĠFROM":7637,"Ġderived":7638,"Ġadapt":7639,"({\\":7640,"Ġearlier":7641,"defer":7642,"Summary":7643,"Normal":7644,"Ġgir":7645,"Batch":7646,"/***/":7647,"Ġremains":7648,"CTYPE":7649,"agraph":7650,"}-\\":7651,"Ġmd":7652,"Player":7653,"Ġevolution":7654,"1998":7655,">;":7656,"Ġradius":7657,"iverse":7658,"ĠMac":7659,"hspace":7660,"ĠDO":7661,"Ġpaint":7662,"ĠWindows":7663,"ĠRet":7664,"omb":7665,"mediate":7666,"animation":7667,"called":7668,"acebook":7669,"once":7670,"sn":7671,"finite":7672,"Ġhope":7673,"Unknown":7674,"Ġhimself":7675,"Ġtrade":7676,"Ġenv":7677,"ctr":7678,"ĠBay":7679,"Sim":7680,"Ġsaw":7681,"Ġspectrum":7682,"^^":7683,"ĠJack":7684,"Ġfigure":7685,"Ġchalleng":7686,"UES":7687,"Cloud":7688,"irmed":7689,"Ġ&\\":7690,"limin":7691,"lipse":7692,"ĠSoftware":7693,"Ġasked":7694,"colFirst":7695,"}},":7696,"Ġdie":7697,"ĠSuper":7698,"Ġroad":7699,"covered":7700,"Ġsb":7701,"disable":7702,"BPACK":7703,"anned":7704,"endor":7705,"CONT":7706,"sto":7707,"Ġeasily":7708,"Ġinstalled":7709,"ĠWrite":7710,"Ġthemselves":7711,"ĠColor":7712,"Ġtx":7713,"Ġincor":7714,"istan":7715,"Allow":7716,"Ġ_{":7717,"rapped":7718,"pa":7719,"Ġproto":7720,"Ġpresence":7721,"/_":7722,"ixels":7723,"seconds":7724,"Ġreach":7725,"MIN":7726,"Ġquestions":7727,"Ġpriv":7728,"fmt":7729,"Program":7730,"Ġsn":7731,"ĠOptional":7732,"Ġpractice":7733,"merge":7734,")[":7735,"ki":7736,"ĠSets":7737,"ky":7738,"ulator":7739,"fr":7740,"ORY":7741,"rab":7742,"Ġalthough":7743,"pod":7744,"glyph":7745,"inet":7746,"Ġagent":7747,"Ġbg":7748,"Ġradi":7749,"Compiler":7750,"database":7751,"Ġjs":7752,"Usage":7753,"cred":7754,"Ġaudio":7755,"norm":7756,"Ġimplies":7757,"Transport":7758,"ĠPaul":7759,"tor":7760,"Ġdynamic":7761,"ĠTex":7762,"ARG":7763,"Strategy":7764,"ĠBest":7765,"ĠProperty":7766,"Mapper":7767,"Ġdenote":7768,"radio":7769,"Ġsupports":7770,"Ġvalidation":7771,"Ġopened":7772,"Constant":7773,"ĠFin":7774,"isEmpty":7775,"Email":7776,"pull":7777,"Ġplease":7778,"ughter":7779,"Ġvelocity":7780,"strument":7781,"ssl":7782,"ĠEmp":7783,"mathsf":7784,"inese":7785,"verter":7786,"ieved":7787,"Throw":7788,"cribe":7789,"ruby":7790,"00000000":7791,"ANCE":7792,"La":7793,";)":7794,"Fl":7795,"{$":7796,"Here":7797,"Ġestimate":7798,"******":7799,"Ġcomparison":7800,"ĠBit":7801,"ĠLocal":7802,"TT":7803,"icies":7804,"ĠMart":7805,"ĠAssociation":7806,"mutable":7807,"ĠSD":7808,"Fin":7809,"dig":7810,"Ġinteresting":7811,"rf":7812,"DEBUG":7813,"Ġdepart":7814,"goto":7815,"cheduler":7816,"ANT":7817,"she":7818,"ĠĠĠĠĠĠĠĠĠĠĠĠĠĠĠĠĊ":7819,"Tx":7820,"ening":7821,"ĠYear":7822,"InputStream":7823,"Ġpartition":7824,"BIT":7825,"NET":7826,"Ġdirector":7827,"ĠFinal":7828,"Ġusage":7829,"ĠClient":7830,"ĠPage":7831,"Ġdeliver":7832,"Ġmapping":7833,"Ġfavor":7834,"IDTH":7835,"olog":7836,"Append":7837,"Ġnovel":7838,"ivery":7839,"Ġoccur":7840,"}}{\\":7841,"operatorname":7842,"Objects":7843,"Driver":7844,"Ġfi":7845,"NotFound":7846,"Ġmixed":7847,"formance":7848,"anese":7849,"Ġprojects":7850,"dk":7851,"Ġhighlight":7852,"150":7853,"EEEEFF":7854,"ĠPress":7855,"NV":7856,"np":7857,"diff":7858,"ander":7859,"Ġwrote":7860,"Ġsecret":7861,"Ġvalidate":7862,"Ġprev":7863,"mix":7864,"enumerate":7865,"ĠAfrica":7866,"ĠRad":7867,"ĠHome":7868,"ĠCourt":7869,"Ñĭ":7870,"ĠParty":7871,"Basic":7872,"Ġproduce":7873,"Ġexamples":7874,"lots":7875,"Ġhyp":7876,"ĠWhite":7877,"tableblock":7878,"Cla":7879,"ĠCustom":7880,"Ġwest":7881,"Ġexecution":7882,"idents":7883,"ĠAccording":7884,"Ġgreen":7885,"afe":7886,"ĠRout":7887,"DOCTYPE":7888,"ĠCommand":7889,"Ġpull":7890,"report":7891,"Book":7892,"GER":7893,"isset":7894,"Drop":7895,"Ġgoes":7896,"Gr":7897,"found":7898,"Our":7899,"cluded":7900,"Temp":7901,"IOException":7902,"\"/></":7903,"omite":7904,"Environment":7905,"ĠFind":7906,"Ġhor":7907,"Ġcontents":7908,"NSString":7909,"Ġloaded":7910,"eners":7911,"Ġpul":7912,"Ġmagnetic":7913,"Ġmeaning":7914,"peated":7915,"Ġnature":7916,"pb":7917,"Ġmilitary":7918,"Addr":7919,"memory":7920,"Ġbranch":7921,"omitempty":7922,"Ġreplaced":7923,"wild":7924,"Ġoverall":7925,"Ġextended":7926,"ĠAut":7927,"Ġdestination":7928,"EST":7929,"Ð¼":7930,"Ġmus":7931,"ĠChurch":7932,"itemize":7933,"ĠBack":7934,"Ġsequ":7935,"agent":7936,">)":7937,"ĉĠĠ":7938,"ĠLine":7939,"ĠBen":7940,"bold":7941,"Ġwaves":7942,"cla":7943,"bg":7944,"trl":7945,"ĠWashington":7946,"oting":7947,"ĠEach":7948,"Ġseek":7949,"ashed":7950,"BS":7951,"Ġinj":7952,"ĠInv":7953,"Ġprocesses":7954,"ading":7955,"ustain":7956,"fol":7957,"Ġtools":7958,"Install":7959,"isl":7960,"displayName":7961,"theorem":7962,"Execution":7963,"visible":7964,"ĠZe":7965,"ĠProcess":7966,"Ġ-\\":7967,"/*!":7968,"allery":7969,"gence":7970,"ĠBook":7971,"ĠPlay":7972,"Ġpurpose":7973,"Ġdataset":7974,"Sql":7975,"Raw":7976,"origin":7977,"INSERT":7978,"Ġattempt":7979,"Ġsync":7980,"Ġ'',":7981,"à¸":7982,"Ã³n":7983,"ĠWARRAN":7984,"fully":7985,"Ġreserved":7986,"Ġexam":7987,"xhtml":7988,"ĠCA":7989,"ĠLeg":7990,"Ġscene":7991,"Zone":7992,"Ġprotect":7993,"ona":7994,"Resolver":7995,"article":7996,"CLASS":7997,"Static":7998,"className":7999,"Ġwanted":8000,"Folder":8001,"Sharp":8002,"Ġresolution":8003,"ĠCEL":8004,"USER":8005,"yond":8006,"Ġlack":8007,"Serializer":8008,"taint":8009,"Ġsomeone":8010,"Arguments":8011,"ĠLL":8012,"Ġdomin":8013,"Ġsell":8014,"person":8015,"oser":8016,"blank":8017,"Cast":8018,"flex":8019,"Ġuniform":8020,"Ġoperators":8021,"Ġinstances":8022,"']);":8023,"\"].":8024,"ĠHAL":8025,"tf":8026,"Ġlabels":8027,"ÑĮ":8028,"ĠFil":8029,"Ġpermissions":8030,"ATTR":8031,"ĠLink":8032,"iner":8033,"prod":8034,"policy":8035,"ĠBel":8036,"Ġanti":8037,"Ġrock":8038,"ĠMock":8039,"LOC":8040,"Ġpublish":8041,"NavBarFont":8042,"adian":8043,"game":8044,"Annotation":8045,"minus":8046,"Free":8047,"Screen":8048,"WIN":8049,"ĠImm":8050,"Ġapplicable":8051,"Ġ\"\";":8052,"Ġexpand":8053,"WEBPACK":8054,"ĠProv":8055,"Complete":8056,"Ġculture":8057,"Env":8058,"ĠSE":8059,"oton":8060,"Html":8061,"batch":8062,"accept":8063,"Segment":8064,"basic":8065,"ycle":8066,"rier":8067,"Ġ..":8068,"ipe":8069,"'$":8070,"ðŁ":8071,"120":8072,"Ġdict":8073,"ĠWil":8074,"ĠMain":8075,"RPC":8076,"ĠCompany":8077,"Ġbooks":8078,"()),":8079,"Ġrelevant":8080,"rack":8081,"åĪ":8082,"lower":8083,"ĠDOM":8084,"Ġdiag":8085,"Ġfinancial":8086,"Ġtour":8087,"Ġperfect":8088,"ental":8089,"ĠDan":8090,"arily":8091,"signature":8092,".\"\"\"":8093,"Ġ?>":8094,"Ġreveal":8095,"loading":8096,"Constraint":8097,"Miss":8098,"ĠWITH":8099,"Ġattention":8100,"]))":8101,"Ġidentifier":8102,"Ġspaces":8103,"Ġtelevision":8104,"Ġsurv":8105,"ĠCreates":8106,"/{":8107,"extra":8108,"RC":8109,"tw":8110,"olid":8111,"Ġinsp":8112,"Ġplot":8113,"prov":8114,"Landroid":8115,"ĠAng":8116,"Ġ'%":8117,"Cons":8118,"Ġdiscus":8119,"Ġteach":8120,"Ġbul":8121,"ATED":8122,"Ġnoise":8123,"Ġlegal":8124,"Ġgeneration":8125,"Ġcompletely":8126,"ĠCap":8127,"collect":8128,"xspace":8129,"Ġul":8130,"itar":8131,"Ġdesp":8132,"Ġmagn":8133,"ords":8134,"dc":8135,"Save":8136,"thrift":8137,"ĠCommon":8138,"Ġgave":8139,"exit":8140,"flu":8141,"constant":8142,"isms":8143,"Ġfactors":8144,"cry":8145,"Ġpaths":8146,"bc":8147,"Ġappears":8148,"Ġbi":8149,"mob":8150,"Ġsummary":8151,"Ġreduced":8152,"Convert":8153,"lus":8154,"Ġpeak":8155,"Spe":8156,"\\,\\":8157,"Errors":8158,"bt":8159,"Ġwoman":8160,"elastic":8161,"$_":8162,"hl":8163,"erial":8164,"ĠIllegal":8165,"ARN":8166,"Ġarbitr":8167,"Warning":8168,"Ġprofessional":8169,"ups":8170,"loor":8171,"1990":8172,"Ġcapacity":8173,"ĠGlobal":8174,"ees":8175,"tensor":8176,"Ġ'.":8177,"ĠMusic":8178,"createElement":8179,"Ġdemand":8180,"Ġruntime":8181,"NUM":8182,"emit":8183,"ĠAward":8184,"ĠPoint":8185,"Go":8186,"multi":8187,"Ġalias":8188,"ecause":8189,"nce":8190,"lementation":8191,"Ġguide":8192,"SM":8193,"writer":8194,"ĠGeorge":8195,"convert":8196,"\"},":8197,"Drag":8198,"assandra":8199,"Ġadjust":8200,"highlight":8201,"Ġvisual":8202,")}{":8203,"ĠChampionship":8204,"amo":8205,"ĠLife":8206,"Ġpurch":8207,"thern":8208,"Ġalgebra":8209,"ita":8210,"spaces":8211,":@\"":8212,"Edge":8213,"ato":8214,"heel":8215,"ĠUnion":8216,"Ġsynchron":8217,"estival":8218,"Ġtags":8219,"Ġbio":8220,"Ġplaces":8221,"Ġdigital":8222,"tailed":8223,"Ġstructures":8224,"Ġsocket":8225,"toBe":8226,"Cmd":8227,"limits":8228,"house":8229,"Alloc":8230,"Release":8231,"rev":8232,"weet":8233,"oma":8234,"MAC":8235,"sey":8236,"stable":8237,"ĠStatus":8238,"Ġfriends":8239,"ĠFrance":8240,"rg":8241,"Ġmaps":8242,"Ġversions":8243,"yy":8244,"Ġflex":8245,"Hub":8246,"}}}":8247,"Ġbeyond":8248,"Ġmother":8249,"IAL":8250,"Cursor":8251,"OF":8252,"simple":8253,"Ġassembly":8254,"Ġinteraction":8255,"canvas":8256,"Ġessential":8257,"Audio":8258,"ATCH":8259,"Ġhyper":8260,"ĠDim":8261,"Messages":8262,"Validator":8263,"ĠAlex":8264,"Ġanim":8265,"Stop":8266,"Ro":8267,"Ġmerge":8268,"Ġdevices":8269,"catch":8270,"Ġexhib":8271,"ĠUs":8272,"ectors":8273,"Ġjud":8274,"compare":8275,"áĥ":8276,"forward":8277,"ĠEND":8278,"Ġrates":8279,"LOW":8280,"Watch":8281,"aco":8282,"Ġseparate":8283,"Ġadding":8284,"While":8285,"Ġcloud":8286,"_)":8287,"(/":8288,"Ġeast":8289,"har":8290,"isters":8291,"ĠResponse":8292,"Ġagreed":8293,"operation":8294,"Groups":8295,"ĠTok":8296,"Ġdrag":8297,"Sample":8298,")}$":8299,"CG":8300,"submit":8301,"Ġpark":8302,"elements":8303,"REE":8304,"TF":8305,"ĠWilliam":8306,"Ġangle":8307,"Ġfinish":8308,"Ġcomments":8309,"Ġbatch":8310,"Ġscient":8311,"ĠMichael":8312,"Observer":8313,"ĠINTO":8314,"Ġhighest":8315,"pointer":8316,"amilton":8317,"Ġendpoint":8318,"ynomial":8319,"Ġcancel":8320,"Ġsituation":8321,"nother":8322,"circle":8323,"urt":8324,"=\"$":8325,"Ġcourt":8326,"bose":8327,"utdown":8328,"Ġanswer":8329,"ĠSIZE":8330,"ĠON":8331,"ĠLou":8332,"ensus":8333,"large":8334,"iller":8335,"prise":8336,"Should":8337,"oday":8338,"BY":8339,"Ġconstraints":8340,"ĠIL":8341,"Timer":8342,"ĠVar":8343,"Ġoffers":8344,"Rate":8345,"Ġelif":8346,"Ġflat":8347,"structions":8348,"ional":8349,"ĠRob":8350,"expression":8351,"Ġreached":8352,"noindent":8353,"Ġpressure":8354,"Ġcelebr":8355,"Rev":8356,"ĠAbstract":8357,"Ġcurve":8358,"ĠSal":8359,"contents":8360,"Ġbeaut":8361,"Chart":8362,"Contains":8363,"ĠSearch":8364,"Ð²":8365,"download":8366,"facebook":8367,"ĠZend":8368,"ĠHall":8369,"oked":8370,"apes":8371,"Ġjournal":8372,"Ġbounds":8373,"asc":8374,"underline":8375,"nthe":8376,"Rows":8377,"Ġtheme":8378,"Ġgenerally":8379,"Ġmouse":8380,"Ġsuc":8381,"Idx":8382,":'":8383,"fetch":8384,"Ġstudent":8385,"iffer":8386,"Ġcapital":8387,"Ġ\\|":8388,"Contents":8389,"eder":8390,"...</":8391,"Ġdraft":8392,"stone":8393,"Ġwarning":8394,"Ġcontinued":8395,"Ð´":8396,";\"":8397,"ani":8398,"dispatch":8399,"Ġfamilies":8400,"Future":8401,"Ġimplemented":8402,"Ġcomputed":8403,"ĠVir":8404,"SI":8405,"Ġreli":8406,"IMPORTED":8407,"cursor":8408,"Signature":8409,"Ġmedical":8410,"Day":8411,"wd":8412,"ducation":8413,"available":8414,"Remote":8415,"ropy":8416,"Ġdialog":8417,"CONFIG":8418,"Ġillustr":8419,"ami":8420,"tical":8421,"ĠMr":8422,"blob":8423,"PROC":8424,"kwargs":8425,"ĠSign":8426,"Ġorganization":8427,"onical":8428,"agination":8429,"Ġmale":8430,"Ġcreation":8431,"Ġ|=":8432,"Chain":8433,"ova":8434,"ĠDelete":8435,"=\\\"":8436,"compute":8437,"FALSE":8438,"istence":8439,"Ġmovie":8440,"Ġsufficient":8441,"RT":8442,"power":8443,"ÐµÐ½":8444,"pic":8445,"ora":8446,">\\":8447,"ctrine":8448,"Ġonto":8449,"Encoding":8450,"$}":8451,"Ġbank":8452,"Ġweeks":8453,"atar":8454,"Ġconn":8455,"cdn":8456,"Ġhighly":8457,"ILD":8458,"mercial":8459,"hpp":8460,"PHP":8461,"ĠOrder":8462,"plan":8463,"reek":8464,"AUT":8465,"ĠMa":8466,"STATUS":8467,"CM":8468,"ĠCong":8469,"Ġjoined":8470,"Ġpresident":8471,"remarks":8472,"Using":8473,"udget":8474,"bx":8475,"ĠIsland":8476,"Ġrequested":8477,"^-":8478,"Ġ\".":8479,"~~~~~~~~":8480,"ĠChild":8481,"Ġlaunch":8482,"eli":8483,"People":8484,"RESULT":8485,"messages":8486,"Ġcho":8487,"Information":8488,"Ġscience":8489,"Example":8490,"Bounds":8491,"ASSERT":8492,"gregate":8493,"Virtual":8494,"ubern":8495,"Sur":8496,"essor":8497,"Term":8498,"Ġviews":8499,"BB":8500,"Ġlives":8501,"Ġ$_":8502,"ä»":8503,"Ġmoving":8504,"commons":8505,"Ġparticle":8506,"'}":8507,"license":8508,"Ġcompact":8509,"Focus":8510,"ĠDB":8511,"Ġ-=":8512,"alo":8513,"Ġiterator":8514,"Timestamp":8515,"ĠAndroid":8516,"ĠCH":8517,"Ġtrace":8518,"ened":8519,"ĠÐ¿":8520,"Ġrepresented":8521,"Ġactivities":8522,"Ġvillage":8523,"uuid":8524,"ARD":8525,"Ġsys":8526,"ĠStar":8527,"Ġregistered":8528,"UND":8529,"Ġcop":8530,"Ġextend":8531,"directory":8532,"ĠFree":8533,"auge":8534,"ĠGame":8535,"1997":8536,"binding":8537,"ĠMus":8538,"Ġsuccessfully":8539,"Processor":8540,"<\\":8541,"venue":8542,"Ġindicates":8543,"ĉĉĠĠĠ":8544,"deprecated":8545,"FFER":8546,"Private":8547,"Ġchosen":8548,"(.":8549,"Ġderiv":8550,"/\"":8551,"Ġsen":8552,"Ġtrust":8553,"Diagnostics":8554,"World":8555,"mn":8556,"isted":8557,"Ġproviding":8558,"Game":8559,"NC":8560,"going":8561,"ysical":8562,"touch":8563,"RAY":8564,"ĠJournal":8565,"Ġsubsequent":8566,"ingu":8567,"iency":8568,"seq":8569,"Ġpartners":8570,"ĠTrump":8571,"Exists":8572,"uous":8573,"quote":8574,"FIELD":8575,"NamedCell":8576,"Ġpairs":8577,"Ġeveryone":8578,"two":8579,"ĠCommit":8580,"Ġpretty":8581,"Loop":8582,"Ġmotion":8583,"etween":8584,"Wallet":8585,"airs":8586,"Metrics":8587,"Ġtrain":8588,"agnostic":8589,"sig":8590,"ĠĠĠĠĠĠĠĠĠĠĠĠĠĠĠĠĠĠĠĠĠĠĠĠĠĠĠĠĠĠĠĠĠ":8591,"swarm":8592,"Require":8593,"Ġsafety":8594,"ĠHistory":8595,"integer":8596,"Real":8597,"functions":8598,"ORDER":8599,"Theta":8600,"Ġachieve":8601,"cfg":8602,"ĠByte":8603,"jet":8604,"Ġzone":8605,"rypto":8606,")\",":8607,"ĠRoad":8608,"ĠGermany":8609,"Users":8610,"tem":8611,"Ġopacity":8612,"Ġworth":8613,"1996":8614,"Border":8615,"ĠIter":8616,"usform":8617,"Ġdescriptor":8618,"Ġidentified":8619,"numerusform":8620,"bing":8621,"INST":8622,"Ġfragment":8623,"Ġenh":8624,"created":8625,"Ġuncer":8626,"Ġvariety":8627,"Ġmodify":8628,"Ġreports":8629,"eg":8630,"vspace":8631,"ĠSelect":8632,"Ġmonitor":8633,"Ġappoint":8634,"bd":8635,"kin":8636,"Ġprograms":8637,"\\}$":8638,"'d":8639,"ĠTexas":8640,"Ġparents":8641,"Ġpain":8642,"Ġparticularly":8643,"Bool":8644,"iming":8645,"ĠMary":8646,"ĠDemocr":8647,"Ġplant":8648,"ĠRobert":8649,"Card":8650,"Person":8651,"ĠTom":8652,"ĠSam":8653,"ĠclassName":8654,"vlet":8655,"Plan":8656,"FilterDatabase":8657,"cook":8658,"Ġmanufact":8659,"Ġedit":8660,"LIST":8661,"Ġpen":8662,"ĠSun":8663,"Ġspread":8664,"%\"":8665,"ĠLcom":8666,"Ġidentify":8667,"teq":8668,"Ġpayload":8669,"Ġcaused":8670,"selection":8671,"reader":8672,"Ġflux":8673,"Phone":8674,"Ġleads":8675,"Ġlif":8676,"resize":8677,"Ġmedi":8678,"Ġdownload":8679,"rv":8680,"Ġconversion":8681,"ĠEm":8682,"Ġcoq":8683,"Ġfine":8684,"vity":8685,"Ġrepresenting":8686,"trim":8687,"cert":8688,"Ġcollabor":8689,"chunk":8690,"Ġquickly":8691,"ĠDEFAULT":8692,"Same":8693,"Ġexchange":8694,"strings":8695,"ĉĠĠĠĠĠĠĠĠ":8696,"These":8697,"Ġiniti":8698,"Ġrepos":8699,"Ġaspect":8700,"wa":8701,"ĠCSS":8702,"ĠTwo":8703,"warn":8704,"vertical":8705,"esh":8706,"HEAD":8707,"Arr":8708,"Insert":8709,"contrib":8710,"ĠEngine":8711,"auss":8712,"native":8713,"Ġschools":8714,"player":8715,"Ġdrug":8716,"Ġbenef":8717,"Ġplane":8718,"Analysis":8719,"ĠQuery":8720,"Ġremain":8721,"Ġsal":8722,"ellig":8723,"Two":8724,"Consumer":8725,"Ġseem":8726,"800":8727,"uts":8728,"(\"%":8729,"Permission":8730,"'\\":8731,"Contact":8732,"Ġ----------------------------------------------------------------":8733,"fake":8734,"Ġslight":8735,"DP":8736,"ĠMost":8737,"Management":8738,"changed":8739,"Linq":8740,"zen":8741,"Ġtimestamp":8742,"}}_":8743,"Tile":8744,"wildfly":8745,"ĠGold":8746,"Tasks":8747,"Ġtrip":8748,"Points":8749,"Ġdisable":8750,"ĠRoman":8751,"topic":8752,"Ġseven":8753,"Ġbug":8754,"ĠServices":8755,"Ġaccomp":8756,"Ġspent":8757,"ĠALIGN":8758,"ubernetes":8759,">'":8760,"Ġ'\"":8761,"Ġclock":8762,"alert":8763,"Ġcomputer":8764,"mapping":8765,"ĠPet":8766,"Ġstraight":8767,"Ġstarts":8768,"Ø±":8769,"TY":8770,"Ġenjoy":8771,"Ġclin":8772,"mical":8773,"Ġmetal":8774,"DR":8775,"Ġamb":8776,"Effect":8777,"Med":8778,"ĠTor":8779,"km":8780,"Ġneighbor":8781,"ĸº":8782,"Expected":8783,"pear":8784,"Ġampl":8785,"LICENSE":8786,"Ġsmooth":8787,"Dom":8788,"Ġreferences":8789,"à¥":8790,"Ġparsed":8791,"park":8792,"ĠUnder":8793,"contact":8794,"UST":8795,"OwnProperty":8796,"Ġcb":8797,"ATOR":8798,"iqu":8799,"ĠSociety":8800,"Ġ}}":8801,"Ġbur":8802,"losure":8803,"Ġmor":8804,"ishes":8805,"Ġemit":8806,"!<":8807,"Ġrecorded":8808,"Ġwind":8809,"Ġmeeting":8810,"ĠChinese":8811,"Ġdu":8812,"ĠCons":8813,"esian":8814,"ĠContext":8815,"ĠAv":8816,"onses":8817,"Ġtermin":8818,"æľ":8819,"Ġtopic":8820,"ĠNAV":8821,"ĠAccess":8822,"Ġvacc":8823,"ceiver":8824,"Ġforces":8825,"Bal":8826,"getElementById":8827,"VICE":8828,"transaction":8829,"methods":8830,"SG":8831,"trm":8832,"ĠApplication":8833,"usr":8834,"Ġscalar":8835,"ĠFacebook":8836,"ĠOutput":8837,"Ġfrag":8838,"LY":8839,"mous":8840,"Ġconnections":8841,"Ġther":8842,"Ġextreme":8843,"Ġangular":8844,"DEX":8845,"ollowing":8846,"Ġtraditional":8847,"IA":8848,"('./":8849,":#":8850,"Site":8851,"ENTRY":8852,"Reset":8853,"ĠVALUES":8854,"Ġrestrict":8855,"ĠCamp":8856,"Many":8857,"Runner":8858,"Ġplaced":8859,"Ġshowed":8860,"Ġexpansion":8861,"Ġnearly":8862,"decor":8863,"Ġstudied":8864,"DATE":8865,"blog":8866,"activity":8867,"Arch":8868,"Ġlisted":8869,"ancis":8870,"Ġwife":8871,"getId":8872,"kes":8873,"SOUR":8874,"pat":8875,"Ġcontinuous":8876,"Ġcandidate":8877,"Ġsquare":8878,"ji":8879,"phan":8880,"textrm":8881,")|":8882,"Ġdisease":8883,"ĠCG":8884,"Ġdra":8885,"ali":8886,"Ġleader":8887,"Ġeconomic":8888,"Ġkernel":8889,"Ġsometimes":8890,"ĠRussian":8891,"encode":8892,"irus":8893,"Snapshot":8894,"Compat":8895,"Ġdetection":8896,"world":8897,"HERE":8898,"Ġcalc":8899,"Abs":8900,"Ġequip":8901,"ĠPromise":8902,"ĠServer":8903,"haps":8904,"ĠStream":8905,"repeat":8906,"Ġdiscussed":8907,"Ġunderlying":8908,"MAP":8909,"Ġturned":8910,"Enumerable":8911,"250":8912,"ancing":8913,"Fatal":8914,"Ġelectric":8915,"Ġstories":8916,"}%":8917,"program":8918,"Ġcalculated":8919,"?âĢĿ":8920,"ĠFOR":8921,"Ġ\"'":8922,"1995":8923,"Verify":8924,"Ġguaran":8925,"plot":8926,"nn":8927,"Ġhum":8928,"riday":8929,"hesis":8930,"aren":8931,"ĠConfiguration":8932,"Ġdrive":8933,"ĠControl":8934,"Ġadopt":8935,"cknow":8936,"ĠJS":8937,"Ġsignificantly":8938,"Tuple":8939,"ĠSimple":8940,"Ġdependencies":8941,"Ġprote":8942,"VAR":8943,"uages":8944,"ĠExample":8945,"Writ":8946,"cancel":8947,"Ä±":8948,"uda":8949,"Ġobservations":8950,"Ġoccurs":8951,"ĠOlymp":8952,"Ġbrought":8953,"Counter":8954,"ĠSecond":8955,"Touch":8956,"havior":8957,"Ġworkers":8958,"Ġdistinct":8959,"uality":8960,"Ġ'./":8961,"Ġagreement":8962,"ĠContent":8963,"ĠJer":8964,"priv":8965,"Cancel":8966,"ragma":8967,"Ġminim":8968,"ĠEnt":8969,"Ġstats":8970,"licenses":8971,"apos":8972,"ĠMex":8973,"gorithms":8974,"TIES":8975,"Bottom":8976,"RED":8977,"ĠLin":8978,"Ġopening":8979,"servation":8980,"aver":8981,"arc":8982,"Ġeight":8983,"untain":8984,"Ġphone":8985,"600":8986,"seteq":8987,"ĠSmith":8988,"calendar":8989,"itation":8990,"Ġconstraint":8991,"jax":8992,"pan":8993,"ocaml":8994,"PROJECT":8995,"000000":8996,"cluding":8997,"Split":8998,"rank":8999,"Ġinitialize":9000,"Ġcli":9001,"ĠTimes":9002,"Dig":9003,"\":\"":9004,"ĠJapan":9005,"addClass":9006,"ĠBusiness":9007,"Material":9008,"men":9009,"Columns":9010,"Ġtheorem":9011,"OPT":9012,"columns":9013,"asket":9014,"PY":9015,"Ġgiving":9016,"concat":9017,"Ġmovement":9018,"Present":9019,"actual":9020,"Ġfair":9021,"ceeded":9022,"ĠInformation":9023,"ĠassertTrue":9024,"Ġharmon":9025,"Setting":9026,"what":9027,"Ġbuy":9028,"ĠClub":9029,"mc":9030,"och":9031,"Ġwild":9032,"HS":9033,"ĠWARRANTIES":9034,"Ġbirth":9035,"Theme":9036,"Ġcycle":9037,"onymous":9038,"logies":9039,"flat":9040,"Ġinvol":9041,"ĠTwitter":9042,"Ġcompar":9043,"feed":9044,"Dev":9045,"Ġmeasured":9046,"ĠallClasses":9047,"Ġdocuments":9048,"ĉĉĉĉĉĉĊ":9049,"Ġclone":9050,"relative":9051,"Ġupdates":9052,"ĠĠĠĠĠĠĠĠĠĠĠĠĠĠĠĠĠĠĠĠĠĠĠĠĠĠĠĠĠĠĠĠĠĠĠĠĠĠĠĠĠĠĠĠĠĠĠ":9053,"ĠAuthor":9054,"ĠThread":9055,"Ġcoordinates":9056,"Ð°Ð½":9057,"Ġpositions":9058,"ĠProf":9059,"ĠAcade":9060,"ENABLE":9061,"ĠDuring":9062,"Ġpp":9063,"Ġarbitrary":9064,"Ġplans":9065,"Ġinject":9066,"Ġabs":9067,"Dispatch":9068,")_":9069,"Ġvoc":9070,"1980":9071,"ĠNext":9072,"drag":9073,"Ġsit":9074,"overview":9075,"fast":9076,"Ġeigen":9077,"]+":9078,"spacing":9079,"Ġlooks":9080,"ĠallClassesLink":9081,"Console":9082,"azine":9083,"elling":9084,"ti":9085,"Accept":9086,"attice":9087,"FOR":9088,"Upload":9089,"CB":9090,"Ġlatter":9091,"Ġloading":9092,"Ġformula":9093,"Declaration":9094,"awn":9095,"127":9096,"lications":9097,"unct":9098,"May":9099,"ellar":9100,"urable":9101,"Ġdebut":9102,"Ġindicate":9103,"ĠReview":9104,"Ġcached":9105,"Bits":9106,"Ġhence":9107,"osh":9108,"Export":9109,"Navigation":9110,"ĠSpr":9111,"timestamp":9112,"iger":9113,"cessed":9114,"Ġbra":9115,"prob":9116,"Ġexperiment":9117,"ĠForce":9118,"wall":9119,"atin":9120,"refs":9121,"Ġrelig":9122,"ĠCarol":9123,"fff":9124,"texttt":9125,"docker":9126,"ĠCentral":9127,"Ġassigned":9128,"andemic":9129,"Ġdoub":9130,"=%":9131,"Ġsaying":9132,"Ġ$$":9133,"TAG":9134,"mk":9135,"ĠTown":9136,"AF":9137,"Ġoccurred":9138,"ajor":9139,"iversal":9140,"Ġsports":9141,"Ġsamp":9142,"Ġ```":9143,"azy":9144,"Ġcombination":9145,"erc":9146,"Depth":9147,"notations":9148,"ĠSund":9149,"ĠDescription":9150,"Ġedges":9151,"geo":9152,"Ġconcent":9153,"ĠUsing":9154,"ĠLibrary":9155,"Ġtopo":9156,"Stub":9157,"Ġwidget":9158,"Ġbinding":9159,"ientation":9160,"Ġestimated":9161,"ĠNAVBAR":9162,"aud":9163,"Ġdeaths":9164,"lour":9165,"ĠThomas":9166,",'":9167,"ĠCloud":9168,"ĉĠĠĠĠĠĠĠĠĠĠĠĠĠĠĠ":9169,"Ġaddresses":9170,"Ġstrateg":9171,"pending":9172,"Ġauthors":9173,"Platform":9174,"Ġformed":9175,"ï¼Į":9176,"Ġtd":9177,"Ġfraction":9178,"Ġtransl":9179,"aligned":9180,"Ġletter":9181,"Dependency":9182,"Î±":9183,"rivial":9184,"Rec":9185,"Ġconsists":9186,"Ġpolar":9187,"ĠPR":9188,"ĠAfrican":9189,"Rules":9190,"icago":9191,"ĠConvert":9192,"iro":9193,"adr":9194,"}^{-":9195,"analy":9196,"oplus":9197,">()":9198,"Ġmanaged":9199,"ĠBoard":9200,"spirit":9201,"ĠSV":9202,"delay":9203,"validation":9204,"ĠSecurity":9205,"Ġil":9206,"icine":9207,"Ġ<-":9208,"Ġcombined":9209,"Ġvertices":9210,"Ġrestri":9211,"BUFFER":9212,"prot":9213,"Partition":9214,"ifically":9215,"180":9216,"Ġpiece":9217,"pace":9218,"Ġcamera":9219,"cmp":9220,"Ġult":9221,"subject":9222,"ological":9223,"SQLite":9224,"audio":9225,"Ġdetailed":9226,"ĠSing":9227,"Ġpropag":9228,"Ġquarter":9229,"ĠImmutable":9230,"Ġlogging":9231,"Ġmaterials":9232,"Prov":9233,"ĠArmy":9234,"tooltip":9235,"NODE":9236,"Ġclassical":9237,"mann":9238,"ala":9239,"ierarchy":9240,".*;":9241,"Ġscatter":9242,"serialize":9243,"\"];":9244,"FIX":9245,"LETE":9246,"Ġsaved":9247,"edu":9248,"Ġâĸº":9249,"Login":9250,"encoding":9251,"Chunk":9252,"ĠChristian":9253,"ĠWill":9254,"getInstance":9255,"Sec":9256,"çĶ":9257,"1970":9258,"ĠTag":9259,"enty":9260,"Ġbre":9261,"ĠOrigin":9262,"Detail":9263,"Ġdst":9264,"ĠScott":9265,"Assembly":9266,"Ġfake":9267,"Ġadvant":9268,"Place":9269,"apers":9270,"Forms":9271,"Ġvoice":9272,"navigation":9273,"sell":9274,"Ġrelations":9275,"Ġeth":9276,"Ġshowing":9277,"Ġsongs":9278,"oned":9279,"Ã£":9280,"ĠManagement":9281,"ĠReport":9282,"Ġopportunity":9283,"remote":9284,"haser":9285,"footnote":9286,"Ġnetworks":9287,"have":9288,"Ġsites":9289,"('<":9290,"Emit":9291,"(\"#":9292,"(['":9293,"uation":9294,"Ignore":9295,"PM":9296,"ookie":9297,"Dynamic":9298,"However":9299,".;":9300,"Ġparticles":9301,"Ġrequirements":9302,"Ġdecided":9303,"subseteq":9304,"Ġresponsible":9305,"Light":9306,"Ġinstruction":9307,"Delay":9308,"ĠVol":9309,"125":9310,"ĠRoyal":9311,"Ġremember":9312,"ĠâĹ":9313,"Ġgoogle":9314,"001":9315,"Î¿":9316,"itiz":9317,"-(":9318,"ĠPolicy":9319,"Ġindividuals":9320,"Ġmentioned":9321,"poses":9322,"cha":9323,"ĠHen":9324,"hol":9325,"dden":9326,"Ġgeneric":9327,"License":9328,"Capture":9329,"ĠOffic":9330,"yan":9331,"Ġcontained":9332,"UNT":9333,"Ġball":9334,"Random":9335,"cli":9336,"Ġcarry":9337,"Ġkm":9338,"olf":9339,"/.":9340,"Sl":9341,"goog":9342,"Ġcri":9343,"front":9344,"Ġbroadcast":9345,"Ġ'#":9346,"Ġbrand":9347,"Ġpermission":9348,"ArrayList":9349,"LAY":9350,"ĠHamilton":9351,"Ġbin":9352,"ASE":9353,"Ġcontribution":9354,"Ġcouple":9355,"ÑģÑĤ":9356,"ĠCr":9357,"Ġappeared":9358,"lint":9359,"ĠPop":9360,"ERS":9361,"country":9362,"ĠGreat":9363,"BOOL":9364,"Ġconflict":9365,"ĠBank":9366,"HAL":9367,"ĠDirector":9368,"picture":9369,"ĠUk":9370,"Ġfs":9371,"osing":9372,"ĠPython":9373,"sem":9374,"Features":9375,"ĠFurther":9376,"plain":9377,"logging":9378,"[],":9379,"Ġimg":9380,"onic":9381,"irror":9382,"Ġjump":9383,"Decimal":9384,"Ġroll":9385,"ĠCommission":9386,"ĠĠĠĠĠĠĠĠĠĠĠĠĠĠĠĠĠĠĠĠĠĠĠĠĠĠĠĠĠĠĠĠĠĠ":9387,"iral":9388,"Ġemission":9389,"Ġcivil":9390,"ĠFrancis":9391,"ĠGovernment":9392,"Ġolder":9393,"ĠFlor":9394,"Ġimag":9395,"Ġpolynomial":9396,"Ġinputs":9397,"Ġ'-":9398,"bat":9399,"^{-\\":9400,"ĠCR":9401,"Ġlaun":9402,"Spr":9403,"Ġvan":9404,"scala":9405,"GC":9406,"Master":9407,"OutputStream":9408,"ĠJew":9409,"åĲ":9410,"pective":9411,"maps":9412,"Ġstock":9413,"ĠPlease":9414,"abe":9415,"Ġgold":9416,"ĠâĹ¼":9417,"Ġmeasures":9418,"about":9419,"UMM":9420,"ĠOffice":9421,"`)":9422,"AST":9423,"olate":9424,"Ġalert":9425,"Ġchannels":9426,"termin":9427,"ĠHandle":9428,"Ġcontrast":9429,"Ġoverflow":9430,"django":9431,"<<":9432,"ĠChange":9433,"Ġspeak":9434,"ĠParse":9435,"Holder":9436,"ny":9437,"popup":9438,"named":9439,"itz":9440,"Ġfetch":9441,"Ġtypically":9442,"elcome":9443,"ĠFrame":9444,"Ġstated":9445,"Enable":9446,"ubble":9447,"Ġdelegate":9448,"series":9449,"Ġinequal":9450,"tl":9451,"Ġmodules":9452,"ĠPen":9453,"ĠRock":9454,"Weight":9455,"110":9456,"Ġfoo":9457,"ĉčĊ":9458,"ĠGen":9459,"Ġefficient":9460,"bullet":9461,"Extensions":9462,"Shader":9463,"Ġpacket":9464,"Ġprocedure":9465,"ĠBuffer":9466,"Ġcompliance":9467,"Optional":9468,"Ġshot":9469,"ĠFoot":9470,"Ġ$\\{":9471,"æĸ":9472,"IMIT":9473,"pages":9474,"Ġrev":9475,"ĠDivision":9476,"undred":9477,"ician":9478,"tar":9479,"ĠStandard":9480,"ĠCOL":9481,"Ġuri":9482,"Ġkilled":9483,"~$":9484,"iar":9485,"Ġns":9486,"Ġthreshold":9487,"atre":9488,"************************************************************************":9489,"Ġclimate":9490,"Thelia":9491,"Ġunion":9492,"Ġtor":9493,"Supported":9494,"1994":9495,"isc":9496,"Ġfemale":9497,"Ġdynamics":9498,"ĠTur":9499,"ĠVerify":9500,"interval":9501,"Ġforeign":9502,"OO":9503,"Buf":9504,"aser":9505,"Inner":9506,"ĠMinister":9507,"iden":9508,"Leg":9509,"BASE":9510,"Actions":9511,"Ġfolder":9512,"ien":9513,"/\">":9514,"Converter":9515,"ĠAustralian":9516,"Ġmobile":9517,"EVENT":9518,"locale":9519,"ILITY":9520,"pet":9521,"Ġconfirm":9522,"dagger":9523,"oms":9524,"Ġjoint":9525,"uplicate":9526,"Prev":9527,"Ġbehavi":9528,"ĠDen":9529,"Ġà¤":9530,"ĠStep":9531,"Executor":9532,"Ġimm":9533,"Ġmaybe":9534,"Analy":9535,"About":9536,"rint":9537,"__,":9538,"Resp":9539,"multicol":9540,"inity":9541,"gp":9542,"bean":9543,"================================================================":9544,"Ġgeometry":9545,"loss":9546,"iation":9547,"fb":9548,"ski":9549,"ĠHas":9550,"Ġexperimental":9551,"Lib":9552,"Center":9553,"Ġserve":9554,"Clo":9555,"å®":9556,"aland":9557,"Ġalternative":9558,"toolbar":9559,"Ġtit":9560,"deep":9561,"Ġheavy":9562,"Ġwasn":9563,"Ġcorresponds":9564,"Switch":9565,"ĠExpression":9566,"Ġmarried":9567,"Ġvm":9568,"Ġcalculate":9569,"ĠMarket":9570,"ĠNet":9571,"ĠWIDTH":9572,"Once":9573,"=\"../../../../../../../":9574,"Ġpoor":9575,"ĠOS":9576,"Ġrob":9577,"abc":9578,"Ġ($\\":9579,"amer":9580,"fold":9581,"Ter":9582,"Ġbgcolor":9583,"ĠRussia":9584,"urations":9585,"Ġoccup":9586,"Figure":9587,"COMM":9588,"idential":9589,"Sm":9590,"ĠGuide":9591,"wt":9592,"ĠØ":9593,"ENV":9594,"ĠInvalid":9595,"ĠJose":9596,"twitter":9597,"anchor":9598,"previous":9599,"Ġchurch":9600,"EY":9601,"logo":9602,"Mut":9603,"iration":9604,"Ġoptimal":9605,"Ġ\\;":9606,"Ġchecked":9607,"Ġstable":9608,"Available":9609,"Ġeventually":9610,"Ġ'''":9611,"Drawing":9612,"Ġcapture":9613,"annotations":9614,"Ġspot":9615,"stra":9616,"Ġfish":9617,"ĠPower":9618,"getType":9619,"ĠGames":9620,"UEST":9621,"Ġaccuracy":9622,"elasticsearch":9623,"Ġdesired":9624,"Ġlat":9625,"ĠDown":9626,"Ġcommunities":9627,"hens":9628,"ÛĮ":9629,"Ġassess":9630,"mac":9631,"FileName":9632,"ĠSH":9633,"Ġcommands":9634,"Ġmount":9635,"crement":9636,"×ķ":9637,"Locale":9638,"Ġsending":9639,"verify":9640,"uan":9641,"POS":9642,"IDE":9643,"Ġunderstanding":9644,"Ġring":9645,"Ġsummer":9646,"Ġdelta":9647,"LIN":9648,"Standard":9649,"StatusCode":9650,"Ġbundle":9651,"Replace":9652,"Ġpending":9653,"}\",":9654,"Ġsymp":9655,"Ġserious":9656,"ket":9657,"Ġfourth":9658,"ĠDevelopment":9659,"Ġdefe":9660,"Deprecated":9661,"ĠPsi":9662,"Ġgradu":9663,"Ġuncertaint":9664,"Ġ\">":9665,"Canvas":9666,"Ġpred":9667,"Labels":9668,"orders":9669,"Ġ$|":9670,"abit":9671,"wer":9672,"aby":9673,"multicolumn":9674,"Ġfans":9675,"Fixed":9676,"ĠMuseum":9677,"Packet":9678,"ĠSil":9679,"alias":9680,"atted":9681,"ĠLay":9682,"SN":9683,"ĠSupport":9684,"ãĢĤ":9685,"respond":9686,"Ġpriority":9687,"ysics":9688,"Ġcreates":9689,"ĠBY":9690,"_+":9691,"cases":9692,"Dem":9693,"Ġgauge":9694,"_{{\\":9695,"ĠAdmin":9696,"Ġcustomers":9697,"Ã£o":9698,"1992":9699,"ĉĉĉĉĉĉĉĉĉĉ":9700,"lica":9701,"ĠRep":9702,"standing":9703,"iful":9704,"ĠJul":9705,"Ġfan":9706,"ictor":9707,"ĠSend":9708,"Under":9709,"Ġchance":9710,"specific":9711,"inject":9712,"Ġmetrics":9713,"aria":9714,"Zero":9715,"stic":9716,"Ġtransformation":9717,"Ġstyles":9718,"expand":9719,"Ġpoly":9720,"fp":9721,"Ġ'_":9722,"Ġwonder":9723,"Ġdecomp":9724,"Ġshoot":9725,"extensions":9726,"ulo":9727,"Commit":9728,"Ñĩ":9729,"mathscr":9730,"ĠKore":9731,"shire":9732,"ĠLjava":9733,"dst":9734,"Ġinterrupt":9735,"CN":9736,"lie":9737,"Ġimplied":9738,"Ġfails":9739,"ASS":9740,"Ġpert":9741,"Ġlimitations":9742,"Ġdepending":9743,"Ġdetected":9744,"ĠIsra":9745,"(()":9746,"Ġindices":9747,"ĠLi":9748,"Ġmolec":9749,"localhost":9750,"binary":9751,"Ġgoto":9752,"Ġprecise":9753,"asi":9754,"Ġsustain":9755,"Ġlaws":9756,"Ġartist":9757,"INVALID":9758,"ĠTeam":9759,"Ġdirected":9760,"azz":9761,"Ġsch":9762,"Ġreasons":9763,"Ġgun":9764,"Ġdiscussion":9765,"Sem":9766,"ĠEducation":9767,"Ġconv":9768,"Family":9769,"Ġsurvey":9770,"ĠCanadian":9771,"Ġexperiments":9772,"Ġsector":9773,"Copyright":9774,"direction":9775,"Ġgalaxies":9776,"Ġdem":9777,"listener":9778,"Ġdimensions":9779,"Ġinnov":9780,"Ġcanvas":9781,"ilevel":9782,"erv":9783,"Ġbounded":9784,"ĠJson":9785,"ĠHy":9786,"Ġhide":9787,"rtl":9788,"SW":9789,"roduction":9790,"Owner":9791,"Ġdom":9792,"ĠMil":9793,"Ġstrength":9794,"ĠWestern":9795,"ĠCD":9796,"-$":9797,"ĠHill":9798,"1993":9799,"Ġcommunication":9800,"ĠWed":9801,"Ġmodes":9802,"PROP":9803,"amous":9804,"quis":9805,"samp":9806,"Ġencour":9807,"ĠRuntime":9808,"strip":9809,"ola":9810,"ĠSocial":9811,"FNGL":9812,"onday":9813,"glyphicon":9814,"YY":9815,"RECT":9816,",$":9817,"React":9818,"currency":9819,"timer":9820,"poly":9821,"101":9822,"ĠGood":9823,"Kit":9824,"ĠFl":9825,"Ġinfluence":9826,"pragma":9827,"Ġraised":9828,"Ġ*,":9829,"ĠSpecial":9830,"ĠAnn":9831,"Ġbillion":9832,"Peer":9833,"Ġexponent":9834,"ĠNav":9835,"ĠEnter":9836,"ĠLos":9837,"Ġrepository":9838,"esome":9839,"bro":9840,"rent":9841,"Missing":9842,".',":9843,"apy":9844,"Contain":9845,"Ġincreases":9846,"ĠĠĠĠĠĠĠĠĠĠĠĠĠĠĠĠĠĠĠĠĠĠĠĠĠĠĠĠĠĠĠĠĠĠĠĠĠ":9847,"Ġgrand":9848,"Ġprep":9849,"ĠAlthough":9850,"\\}":9851,"Ġbalance":9852,"rpc":9853,"Ġbrief":9854,"EXPORT":9855,"LOAD":9856,"ĠMad":9857,"transparent":9858,"runner":9859,"Ġalone":9860,"Ġpure":9861,"Ġcompiler":9862,"Ġdaughter":9863,"containers":9864,"ĠVirgin":9865,"Ġsatisfies":9866,"ĠPM":9867,"Ġformation":9868,"Ġfreed":9869,"Ġpm":9870,"standard":9871,"Series":9872,"SOURCE":9873,"uer":9874,"Ġexplicitly":9875,"Ġhop":9876,"ĠAli":9877,"Fore":9878,"ĠCurrent":9879,"ĠURI":9880,"ĠBuilder":9881,"getString":9882,"nologies":9883,"Transition":9884,"Ġparallel":9885,"rich":9886,"Month":9887,"Ġcool":9888,"ĠTer":9889,"Ġencode":9890,"ĠBill":9891,"1024":9892,"Download":9893,"Ġnoted":9894,"Ġ}\\":9895,"ometric":9896,"Ġdispatch":9897,"mime":9898,"ĠUSA":9899,"Ġmomentum":9900,"unicip":9901,"Ð¾Ð²":9902,"Lookup":9903,"ĠUtil":9904,"ĠPeter":9905,"illis":9906,"ĠLanguage":9907,"ĠEarth":9908,"rules":9909,"ĠItal":9910,"ĠLogger":9911,"viewport":9912,"Newton":9913,"Ġpsy":9914,"anda":9915,"Did":9916,"uce":9917,"cls":9918,"ĠEcon":9919,"transport":9920,"Ã¨":9921,"Ġexistence":9922,"ACH":9923,"ĠJob":9924,"CCESS":9925,"built":9926,"ĠLoad":9927,"Living":9928,"niques":9929,"[(":9930,"Authentication":9931,"Ġapproximately":9932,"ĠWomen":9933,"vex":9934,"Contract":9935,"Ġig":9936,"Ġhospital":9937,"arma":9938,"rices":9939,"rif":9940,"Ġrail":9941,"will":9942,"LEMENT":9943,"TypeDef":9944,"appendChild":9945,"Previous":9946,"override":9947,"lements":9948,"Rot":9949,"Ġplaceholder":9950,"ĠVirtual":9951,"gregation":9952,"Diff":9953,"eper":9954,"Ġfirm":9955,"continue":9956,"ĠAnge":9957,"repo":9958,"cryption":9959,"Ġgrowing":9960,"yer":9961,"ĠðŁ":9962,"Ġblood":9963,"Ġanyone":9964,"DITION":9965,"Azure":9966,"Ġpandemic":9967,"ĠPlan":9968,"åħ":9969,"ĠCast":9970,"Ġignored":9971,"Bu":9972,"_*":9973,"Ġclearly":9974,"ensitive":9975,"(--":9976,"BL":9977,"foreach":9978,"ĠModule":9979,"Ġliteral":9980,"Ġmeasurements":9981,"notify":9982,"Will":9983,"abric":9984,"Direction":9985,"Collect":9986,"}}_{":9987,"vertex":9988,"tomic":9989,"Ġapproximation":9990,"Reason":9991,"graphy":9992,"lusters":9993,"ĠĠĠĠĠĠĠĠĠĠĠĠĠĠĠĠĠĠĠĠĠĠĠĠĠĠĠĠĠĠĠĠĠĠĠĠ":9994,"Ġmajority":9995,"Ġthreat":9996,"ĠDouble":9997,"generator":9998,"Ġnumerical":9999,"RESS":10000,"ĠChannel":10001,"aussian":10002,"Ġcosts":10003,"Ġwaiting":10004,"getMessage":10005,"Ġsizes":10006,"Ġcancer":10007,"ĠLand":10008,"ĠApple":10009,"ĠComponent":10010,"ĠWin":10011,"CREATE":10012,"ications":10013,"Ġrotation":10014,"gov":10015,"Ġtexture":10016,"phrase":10017,"ĠNull":10018,"Ġfelt":10019,"cassandra":10020,"failed":10021,"ĠIts":10022,"ima":10023,"Ġ\"${":10024,"Ġinvariant":10025,"Ġdifferences":10026,"Ġadj":10027,"Ġens":10028,"ĠLast":10029,"Mix":10030,"dynamic":10031,"Hz":10032,"Ġsubset":10033,"ĠMont":10034,"istog":10035,"ĠLake":10036,"Geometry":10037,"ently":10038,"ĠCore":10039,"ĠMass":10040,"Ġhour":10041,"Win":10042,"ĠIr":10043,"Ġapilevel":10044,"ĠFour":10045,"Ġwants":10046,"Ġdeleted":10047,"Compar":10048,"repository":10049,"Ġplays":10050,"Ġmechanism":10051,"Ġrespond":10052,"ĠAT":10053,"Ġmur":10054,"Ġded":10055,"Ġartists":10056,"aturday":10057,"Frames":10058,"issue":10059,"sphere":10060,"Ġdefaults":10061,"ĠEvery":10062,"Please":10063,"ferred":10064,"Machine":10065,"ĠAM":10066,"parts":10067,"----------":10068,"Priority":10069,"mag":10070,"Bucket":10071,"alg":10072,"adv":10073,"wedge":10074,"Ġaccepted":10075,"ĠFre":10076,"Ġodd":10077,"overning":10078,"Ġsections":10079,"Visual":10080,"ĠDig":10081,"libs":10082,"CDATA":10083,"ĠNE":10084,"reland":10085,"liament":10086,"Ġsymmetry":10087,"ĠFix":10088,"heading":10089,"Ġplus":10090,"concurrent":10091,"licity":10092,"ĠPeople":10093,"Ġgap":10094,"ĠLicensed":10095,"ĠFriday":10096,"Best":10097,"Ġax":10098,"Ġslightly":10099,"BI":10100,"HashMap":10101,"Ġspirit":10102,"tech":10103,"examples":10104,"Ġwish":10105,"ARRAY":10106,"Eq":10107,"6666":10108,"night":10109,"setAttribute":10110,"zed":10111,"setminus":10112,"Ġpipeline":10113,"Ġconstants":10114,"ĠFrank":10115,"Ġmission":10116,"GIN":10117,"Ġcorrelation":10118,"MPL":10119,"ady":10120,"0000000":10121,"Ġgovern":10122,"Ġinterested":10123,"bus":10124,"proc":10125,"Ġflight":10126,"lik":10127,"]->":10128,"hd":10129,"Ġacceler":10130,"Ġds":10131,"warded":10132,"iers":10133,"ĠReference":10134,"states":10135,"Based":10136,"ĠHead":10137,"Ġtick":10138,"Ġobvious":10139,"codec":10140,"Must":10141,"UMMARY":10142,"onald":10143,"uke":10144,"newcommand":10145,"ĠCommittee":10146,"ĠWITHOUT":10147,"=[":10148,"'_":10149,"Ġouter":10150,"take":10151,"Ġescape":10152,"ĠKEY":10153,"Ġmarked":10154,"hook":10155,"ints":10156,"ĠLouis":10157,"Ġconstructed":10158,"Ġthrown":10159,"Ms":10160,"datetime":10161,"tp":10162,"*,":10163,"ashion":10164,"camel":10165,"Worker":10166,"cker":10167,"lets":10168,"umbn":10169,"........":10170,"Ġproperly":10171,"TRAN":10172,"Controls":10173,"Ġspectral":10174,"ĠSpace":10175,"Ġconvers":10176,"ĠSpe":10177,"Loading":10178,"folder":10179,"ĠChicago":10180,"Ġfarm":10181,"Modified":10182,"Ġcommercial":10183,"Ġconven":10184,"Ġsimulation":10185,"__[\"":10186,"Cannot":10187,"ĠSerial":10188,"Amount":10189,"Ġliterature":10190,"ĠZealand":10191,"gif":10192,"Ġlimits":10193,"Ġassumed":10194,"chen":10195,"Ġtrend":10196,"matches":10197,"Activ":10198,"Ġcorre":10199,"Ġvote":10200,"ĠClear":10201,"ĠNon":10202,"getClass":10203,"Ġ}),":10204,"ĠSunday":10205,"igan":10206,"ĠAuto":10207,"Ġhandling":10208,"Ready":10209,"ÙĦ":10210,"SPACE":10211,"Ġnavbar":10212,"ĠDebug":10213,"Ġ//!":10214,"ygon":10215,"LowerCase":10216,"CSS":10217,"itors":10218,"gz":10219,"ĠBE":10220,"ĠSec":10221,"ĠPHP":10222,"Done":10223,"delegate":10224,"sequ":10225,"ĠWeek":10226,"CUR":10227,"ĠReal":10228,"They":10229,"aph":10230,"(\"\\":10231,"router":10232,"igate":10233,"eclipse":10234,"ordinate":10235,"??":10236,"Ġshell":10237,"Ġarm":10238,"âĢĿ.":10239,"Period":10240,"John":10241,"flush":10242,"ĠJapanese":10243,"texture":10244,"hard":10245,"Blob":10246,"Ġjobs":10247,"RUN":10248,"SPE":10249,"Self":10250,"Validate":10251,"Ġpicture":10252,"ĠEven":10253,"Ġmostly":10254,"Ġdespite":10255,"Ġwrapper":10256,"Ġexecuted":10257,",\\,":10258,"BUILD":10259,"ewidth":10260,"sock":10261,"decode":10262,"slide":10263,"Ġcircle":10264,"URN":10265,"notes":10266,"urney":10267,"got":10268,"pad":10269,"×Ļ":10270,"clip":10271,"Ġcollege":10272,";|":10273,"Ġvary":10274,"GP":10275,"Ġacade":10276,"Ġlogic":10277,"Ġ}).":10278,"Ġusername":10279,"Ġalpha":10280,"Ġ/*!<":10281,"bounds":10282,"TX":10283,"ĠArgument":10284,"Ġregarding":10285,"Matcher":10286,"enchmark":10287,"Ġinterview":10288,"how":10289,"Ġtranslation":10290,"Ġhands":10291,"Ġallowing":10292,"kg":10293,"labels":10294,"vin":10295,"Ġefforts":10296,"Overview":10297,"ĠGrand":10298,"Ġfol":10299,"members":10300,"Ġcorrectly":10301,"Ġmodal":10302,"ĠProposition":10303,"Ġtokens":10304,"è¯":10305,"Ġentered":10306,"Bad":10307,"Ġsuffer":10308,"ĠHot":10309,"Ġexplan":10310,"Ġupload":10311,"fragment":10312,"OC":10313,"amental":10314,"ĠVALIGN":10315,"hu":10316,"refresh":10317,"UBLIC":10318,"Ġbelong":10319,"Ġ{%":10320,"Ġ&#":10321,"Å¡":10322,"Trigger":10323,"Ġsoft":10324,"closed":10325,"Ġgoals":10326,"jack":10327,"uffix":10328,"ORK":10329,"Ġrapid":10330,"Functions":10331,"Ġwire":10332,"ĠWhether":10333,"OW":10334,"updated":10335,"Ġformal":10336,"DED":10337,"Ġcls":10338,"Where":10339,"Ġsales":10340,"Ġlocations":10341,"Ġhappens":10342,"\">(":10343,"ÙĨ":10344,"âĢĺ":10345,"ĠSecret":10346,"Ġleaders":10347,"lee":10348,"Ġ#{":10349,"...)":10350,"kins":10351,"TIM":10352,"Secret":10353,"ursday":10354,"ĠCharles":10355,"getAttribute":10356,"Ġease":10357,"Ġcoordinate":10358,"owers":10359,"Ġtheore":10360,"paper":10361,"Ġchanging":10362,"ĠERR":10363,"ErrorCode":10364,"Ġthous":10365,"******/":10366,"Ġ|\\":10367,"ĠShould":10368,"Created":10369,"Relation":10370,"ĠMoreover":10371,"links":10372,"Ġcustomer":10373,"osis":10374,"TL":10375,"ymp":10376,"OFF":10377,"ailability":10378,"=$":10379,"ĠInternal":10380,"guide":10381,"jd":10382,"linux":10383,"Ġcas":10384,"ĠHence":10385,"translate":10386,"uzz":10387,"ĠRichard":10388,"Ġexpanded":10389,"ĠDesign":10390,"Ġpatterns":10391,"Ġol":10392,"porate":10393,"Ġvac":10394,"ĠKIND":10395,"Ġcompatible":10396,"1991":10397,"frastructure":10398,"ÏĦ":10399,"Ġintegral":10400,"folio":10401,"odies":10402,"Ġhydro":10403,"Ġcoach":10404,"Ġindent":10405,"ICATION":10406,"Ġhelper":10407,"Ġinform":10408,"ald":10409,"Ip":10410,"dark":10411,"parentNode":10412,"FP":10413,"porter":10414,"Ġphoto":10415,"multip":10416,":=":10417,"yr":10418,"Ġdot":10419,"ĠOP":10420,"ĠBur":10421,"Ġstatistics":10422,"Metric":10423,"ĠFALSE":10424,"Ġtrial":10425,"Ġarriv":10426,"ĠPass":10427,"Ġtraffic":10428,"Formatter":10429,"Ġcompletion":10430,"eval":10431,"Ġreverse":10432,"Ġcovered":10433,"ĠCath":10434,"ĠFlorida":10435,"Ġsimulations":10436,"Ġgoverning":10437,"Ġwhom":10438,"Ġclients":10439,"Ġgenerator":10440,"Ġexpressed":10441,"Ġretain":10442,"Ġeyes":10443,"Ġrecommend":10444,"ĠKingdom":10445,"uming":10446,"FilePath":10447,"TERN":10448,"share":10449,"HAND":10450,"===":10451,"tempt":10452,"Mutable":10453,"Ġcopyright":10454,"ĠĠĠĠĠĠĠĠĠĠĊ":10455,"<>();":10456,"________":10457,"ĠMO":10458,"aN":10459,"Ġ',":10460,"Ġseed":10461,"seudo":10462,"sdk":10463,"Ġconsumer":10464,"ĠVan":10465,"det":10466,"ĠIR":10467,"Servlet":10468,"MEN":10469,"reason":10470,"APP":10471,"bp":10472,"Ġworker":10473,"ollary":10474,"Linear":10475,"Ġextensions":10476,"ĠElect":10477,"ĠÐ²":10478,"Ġphen":10479,"cles":10480,"Disk":10481,"ĠPerson":10482,"__.":10483,"artesian":10484,"Phaser":10485,"ssue":10486,"ĠFilter":10487,"Ġkept":10488,"ĠGraph":10489,"Ġpassing":10490,"UAL":10491,"ĠMP":10492,"strict":10493,"ĠEval":10494,"ĠAngeles":10495,"Gui":10496,"NONE":10497,"Like":10498,"%%%%%%%%":10499,"Ġrelatively":10500,"Ġ\\(":10501,"perp":10502,"Ġcompetition":10503,"Ġchecks":10504,"[]{":10505,"cean":10506,"amin":10507,"_[":10508,"omorphism":10509,"ĠColumn":10510,"Contin":10511,"mobile":10512,"Ġtruth":10513,"Ġ$[":10514,"Ġaw":10515,"arden":10516,"ĠProp":10517,"Put":10518,"acle":10519,"ati":10520,"amount":10521,"Ġhundred":10522,"ĠMel":10523,"oration":10524,"ĠOh":10525,"bigg":10526,"Ear":10527,"ĠCount":10528,"dictions":10529,"kernel":10530,"Feed":10531,"Scalar":10532,"EP":10533,"igator":10534,"Ġactor":10535,"Äģ":10536,"prepare":10537,"Ġhappy":10538,"ä½":10539,"Ġminor":10540,"etic":10541,"'].":10542,"Alias":10543,"ĠBecause":10544,"Ġrise":10545,"Ġfederal":10546,"Ġstuff":10547,"Ġfinding":10548,"Serialization":10549,"ĠStruct":10550,"Ġcm":10551,"Ð¿":10552,"ĠSUMMARY":10553,"Changes":10554,"cursive":10555,"hom":10556,"urer":10557,"ritical":10558,"sun":10559,"Ġpartner":10560,"raine":10561,"ARB":10562,"ogene":10563,"Ġlayers":10564,"references":10565,"pres":10566,"Ġlaunched":10567,"arded":10568,"ĠWell":10569,"sco":10570,"ĠSta":10571,"*{":10572,"ĠOld":10573,"Ctrl":10574,"Schedule":10575,"Ġsupply":10576,"Ġdecor":10577,"Sets":10578,"Ġpixel":10579,"Ġ(%":10580,"AI":10581,"Running":10582,"moved":10583,"dump":10584,"ĠCa":10585,"ĠAcademy":10586,"ĠIllegalArgumentException":10587,"Ġtuple":10588,"ĠMAX":10589,"Marker":10590,"Ġaware":10591,"lemented":10592,"heast":10593,"Ġnation":10594,"Ġleague":10595,"ĠItem":10596,"_{-":10597,"Pixel":10598,"UCT":10599,"iced":10600,"bucket":10601,"ĠTABLE":10602,"bel":10603,"ĠTechnology":10604,"SUB":10605,"æķ":10606,"icians":10607,"Ġindicating":10608,"endpoint":10609,"Ġchallenge":10610,"Ġcolspan":10611,"Ġdisplayed":10612,"Ġincome":10613,"Ġbattle":10614,"ĠâĢ¦":10615,"Ġearn":10616,"Ġforced":10617,"Ġcoefficients":10618,"Ġrare":10619,"identity":10620,"Ke":10621,"features":10622,"Ġdecay":10623,"ĠPan":10624,"MR":10625,"Ġdictionary":10626,"Ġreduction":10627,"ĠDCHECK":10628,"Ġannual":10629,"Tex":10630,"MASK":10631,"tegration":10632,"Ġtechniques":10633,"Ġaria":10634,"Ġadult":10635,"ĠAddress":10636,"ĠTool":10637,"Ġoriginally":10638,"BACK":10639,"ventory":10640,"Ġideal":10641,"GEN":10642,"Been":10643,"sha":10644,"Ġwat":10645,"Ġheat":10646,"Ġsupplied":10647,"hasOwnProperty":10648,";|&":10649,"Ġsea":10650,"lookup":10651,"asketball":10652,"Ġfif":10653,"Ġdaily":10654,"Ġheard":10655,"such":10656,"cpy":10657,"ĠBrown":10658,"Ġsmart":10659,"Ġattract":10660,"OLD":10661,"middle":10662,"Ġwall":10663,"posal":10664,"elligence":10665,"Primary":10666,"Ġcoupling":10667,"Monitor":10668,"atibility":10669,"Ġfocused":10670,"Ġabsor":10671,"uv":10672,"Ġtransactions":10673,"Execute":10674,"substring":10675,"Ġconverted":10676,"Ġrotate":10677,"Ġsociety":10678,"Ġpixels":10679,"TV":10680,"ousing":10681,"initely":10682,"nel":10683,"Ġpatient":10684,"Ġpolicies":10685,"Ġevaluate":10686,"Ġtimer":10687,"ĠEnvironment":10688,"Ġwrap":10689,"cludes":10690,"ĠĠĠĠĠĠĠĠĠĠĠĠĠĠĠĠĠĠĠĠĠĠĠĠĠĠĠĠĠĠĠĠĠĠĠĠĠĠ":10691,"bas":10692,"Ġtsd":10693,"Ġassumption":10694,"Pane":10695,"gency":10696,"osity":10697,"Ġexpr":10698,"ideos":10699,"RET":10700,"ighter":10701,"Ġcolors":10702,"ipher":10703,"design":10704,"nob":10705,"sure":10706,"Ġmeasurement":10707,"Ġoperating":10708,"Ġcarried":10709,"ĠCongress":10710,"Calendar":10711,"Ġtoward":10712,"escape":10713,"ĠItalian":10714,"ĠMur":10715,"ea":10716,"ĠIll":10717,"Ġfr":10718,"atting":10719,"abil":10720,"reduce":10721,"uesday":10722,"spi":10723,"ĠSyntax":10724,"solr":10725,"urnament":10726,"Codec":10727,"//!":10728,"Encoded":10729,")}(":10730,"Ġec":10731,"StringBuilder":10732,"payload":10733,"Ġtried":10734,"Ġshop":10735,"toLowerCase":10736,"Ġemployees":10737,"Ġcontributions":10738,"Ġdegrees":10739,"ircraft":10740,"ĠActive":10741,"Ġideas":10742,"ecycle":10743,"inesses":10744,"referred":10745,"Ġintroduce":10746,"GLE":10747,"MEM":10748,"Ġended":10749,"ĠCard":10750,"Bitmap":10751,"mutex":10752,"Ġattrs":10753,"Uniform":10754,"Ġminimal":10755,"Blockly":10756,"nic":10757,"Paths":10758,"connected":10759,"Ġanchor":10760,"ĠBoth":10761,"Ġpurposes":10762,"istical":10763,"Ġordered":10764,"DMA":10765,"Kernel":10766,"ĠBio":10767,"letes":10768,"ĠAust":10769,"Ġpatch":10770,"history":10771,"Asset":10772,"utter":10773,"outer":10774,"Super":10775,"pot":10776,"ilib":10777,"Android":10778,"phase":10779,"metrics":10780,"Break":10781,"attach":10782,"FORMAT":10783,"Ġfrequent":10784,"Ġends":10785,"Coll":10786,"General":10787,"Ġbucket":10788,"ĠYoung":10789,"AU":10790,"Ġisinstance":10791,"capt":10792,",.":10793,"Extra":10794,"general":10795,"atern":10796,"ASH":10797,"Ġpowerful":10798,"tasks":10799,"ĠParis":10800,"Newtonsoft":10801,"{},":10802,"ĠSTART":10803,"Models":10804,"Ġguest":10805,"),\\":10806,"Mount":10807,"Ð·":10808,"declare":10809,"gradle":10810,"Seconds":10811,"attrs":10812,"Fetch":10813,"IME":10814,"}}(\\":10815,"Ġevaluation":10816,"Ġtail":10817,"Graphics":10818,"Ġvehicle":10819,"Scheme":10820,"Ġglob":10821,"ĠTheir":10822,"ĠTre":10823,"filters":10824,"ĠClasses":10825,"Ġhuge":10826,"aylor":10827,"PARAM":10828,"phy":10829,"iser":10830,"Anim":10831,"ĠRecords":10832,"Ġtargets":10833,"retval":10834,"Ġtables":10835,"AK":10836,"elect":10837,"Ġaward":10838,"ĠHistor":10839,"äº":10840,"Ġ'@":10841,"zil":10842,"Push":10843,"ĠCase":10844,"Ġestimates":10845,"Ġorganizations":10846,"INIT":10847,"Ġintended":10848,"Try":10849,"Ġtal":10850,"VEL":10851,"unlock":10852,"Suppress":10853,"Ġsecondary":10854,"Ġtherm":10855,"ĠShort":10856,"SUP":10857,"Pending":10858,"ĠScal":10859,"Ġadvert":10860,"Ġblog":10861,"poration":10862,"Ġslice":10863,"Ġaffected":10864,"malink":10865,"eh":10866,"water":10867,"Pred":10868,"Lines":10869,"asion":10870,"1987":10871,"Ġadvantage":10872,"Ġcontrols":10873,"izers":10874,"wig":10875,"Ġinteractions":10876,"oon":10877,"Power":10878,"cpu":10879,"ssible":10880,"lapsed":10881,"Ġclaims":10882,"braries":10883,"kubernetes":10884,"ĠFire":10885,"iÃ³n":10886,"Ġfilters":10887,"Factor":10888,"ĠIreland":10889,"([]":10890,"itivity":10891,"ongo":10892,"Ġbrother":10893,"descriptor":10894,"ĠDateTime":10895,"ushed":10896,"ĠUnit":10897,"ĠGeorg":10898,"è¿":10899,"ĠEqu":10900,"Ġfloor":10901,"Ġrout":10902,"Ġattached":10903,"Tick":10904,"9999":10905,"Gateway":10906,"ĠRender":10907,"Ġlookup":10908,"adoc":10909,"atile":10910,"Side":10911,"ĠArts":10912,"ĠTRUE":10913,"Ġstrongly":10914,"Ġcredit":10915,"ĠCommunity":10916,"scan":10917,"1989":10918,"Ġinequality":10919,"Pipeline":10920,"According":10921,"START":10922,"Ġdefines":10923,"Mov":10924,"Ġprotection":10925,"ClassName":10926,"Instruction":10927,"Ġarchitecture":10928,"Ġstrug":10929,"Ġlattice":10930,"Ġcoverage":10931,"lisher":10932,"Ġreturning":10933,"DTD":10934,"slider":10935,"Ġfav":10936,"THER":10937,"unknown":10938,"COM":10939,"Ġapproaches":10940,"acific":10941,"Ġhear":10942,"okes":10943,"cher":10944,"Ġfee":10945,"ĠEv":10946,"uz":10947,"ibling":10948,"Ġgoog":10949,"stub":10950,"ĠSize":10951,"complex":10952,"Old":10953,"UInt":10954,"nesday":10955,"riage":10956,"Ġ\")":10957,"Ġintegration":10958,"Fix":10959,"Conversion":10960,"uls":10961,"linewidth":10962,"Ġrc":10963,"Ġcopies":10964,"lab":10965,"mean":10966,"Ġinterpret":10967,"ĠDev":10968,"Ġmatched":10969,"Ġclassification":10970,"=&":10971,"×ķ×":10972,"Ġcontinues":10973,"sz":10974,"Ġsyntax":10975,"ifold":10976,"rivers":10977,"ĠTemp":10978,"rient":10979,"ester":10980,"Ġcert":10981,"Ġfunctional":10982,"ĠUsed":10983,"emy":10984,"AVE":10985,"Ġredirect":10986,"ĉĉĉĉĊ":10987,"ĠRow":10988,"SHA":10989,"Ġcorner":10990,"rink":10991,"1960":10992,"pf":10993,"Ġtrees":10994,"Ġindust":10995,"Ġcat":10996,"Ġcomposition":10997,"ĠÑģ":10998,"Ġtypical":10999,"Ġprime":11000,"MAGE":11001,"Src":11002,"bour":11003,"Ġahead":11004,"Ġcodes":11005,"Destroy":11006,"Ġnotification":11007,"CHAN":11008,"Ġinherit":11009,"Exit":11010,"Ġ.=":11011,"Operations":11012,"Ġfounded":11013,"Accessor":11014,"WARN":11015,"sass":11016,"Ġdivision":11017,"avel":11018,"ĠSymbol":11019,"ĠSaf":11020,"}$-":11021,"ĠĠĠĠĠĠĠĠĠĠĠĠĠĠĠĠĠĠĠĠĊ":11022,"ĠJun":11023,"cached":11024,"Ġiget":11025,"Health":11026,"ĠNSString":11027,"Qt":11028,"ouses":11029,".\")":11030,"Ġoil":11031,"Ġmail":11032,"Ġalgorithms":11033,"Ġprintf":11034,"ders":11035,"ĠGal":11036,"Tracker":11037,"Distance":11038,"ĠMartin":11039,"Have":11040,"ĠTYPE":11041,"Ġ--></":11042,"pin":11043,"_{(":11044,"eness":11045,"Ġperturb":11046,"[-":11047,"ĠTree":11048,"Ġsingular":11049,"ĠOtherwise":11050,"aling":11051,"ĠLee":11052,"processor":11053,"Î¹":11054,"enger":11055,"ĠMonday":11056,"WARE":11057,"life":11058,">%":11059,"Ġanalog":11060,"Ġvisibility":11061,"ĠLI":11062,"Ġast":11063,"quant":11064,"700":11065,"Ġ\"_":11066,"ĠTry":11067,"Îµ":11068,"Ġoffered":11069,"Connector":11070,"Ġhappened":11071,"SSION":11072,"Ġfra":11073,"Ġdefer":11074,"GO":11075,"ĠLove":11076,"phere":11077,"Circ":11078,"requency":11079,"Certificate":11080,"Ġmassive":11081,"Received":11082,"ruit":11083,"archive":11084,"BER":11085,"ATURE":11086,"Ġclip":11087,"Topic":11088,"Ġlisting":11089,"Ġspatial":11090,"ĠSaint":11091,"latest":11092,"Ġlists":11093,"ĠCur":11094,"')->":11095,"Ġlogin":11096,"Ġprecision":11097,"good":11098,"Ġ(`":11099,"ĠSSL":11100,"Ġhelped":11101,"hot":11102,"ĠMi":11103,"NON":11104,"frames":11105,"Fake":11106,"Ġleaving":11107,"Ġabort":11108,"bundle":11109,"ĠMatch":11110,"Ġtreated":11111,"vt":11112,"Ġrestaur":11113,"ĠBlue":11114,"Merge":11115,"googleapis":11116,"culate":11117,"Ġwarn":11118,"Ġprepar":11119,"ĠLim":11120,"Radius":11121,"Nd":11122,"HOME":11123,"onto":11124,"Ġcos":11125,"istant":11126,")},":11127,"Ġnotes":11128,"ĠWal":11129,"isArray":11130,"Ġmorning":11131,"Ġpaid":11132,"aled":11133,"Culture":11134,"itespace":11135,"asets":11136,"Ġconfirmed":11137,"Ġsleep":11138,"DataType":11139,"onder":11140,"opacity":11141,"Zoom":11142,"distance":11143,"Ġmorph":11144,"spin":11145,"akistan":11146,"Ġdistributions":11147,"Ġbuildings":11148,"Ġresolved":11149,"ĠMA":11150,"ĠWrit":11151,"Ġcurves":11152,"IEW":11153,">`":11154,"ĠCla":11155,"Ġtf":11156,"GN":11157,"Ġalleg":11158,"ĠBAS":11159,"Modifier":11160,"Ġdire":11161,"SSAGE":11162,"Typ":11163,"ĠAbout":11164,"Fac":11165,"includes":11166,"Ġconfigured":11167,"orrow":11168,"INDEX":11169,"Ġsqu":11170,"ĠTour":11171,"ĠPDF":11172,"Ġcritic":11173,"brid":11174,"utch":11175,"Ġ\"#":11176,"altColor":11177,"Testing":11178,"iph":11179,"ĠMany":11180,"Ġdual":11181,"Ġconvention":11182,"may":11183,"otic":11184,"Ġcandidates":11185,"ett":11186,"ĠOrgan":11187,"Ġeye":11188,"ifferent":11189,"REQUEST":11190,"ĠFilm":11191,"Ġgit":11192,"ĠHuman":11193,"Dim":11194,"illiseconds":11195,"Ġsorted":11196,"------------------------------------------------":11197,"Padding":11198,"Ġfilled":11199,"aret":11200,"attery":11201,"ĠInit":11202,".~(\\":11203,"Ġsun":11204,"Ġaddr":11205,"Ġpeer":11206,"ĠOptions":11207,"Ġali":11208,"Popup":11209,"Ġcouldn":11210,"tile":11211,"ĠFestival":11212,"sime":11213,"atever":11214,"ĠBob":11215,">.</":11216,"valueOf":11217,"inations":11218,"()[":11219,"Ġfresh":11220,"XY":11221,"Qual":11222,"Ġwood":11223,"iment":11224,"Ġbill":11225,"Lat":11226,"defaults":11227,"1988":11228,"Ġlabor":11229,"vit":11230,"amazonaws":11231,"Ġdeb":11232,"upper":11233,"ĠPrint":11234,"Loaded":11235,"Score":11236,"ceptor":11237,"SPAN":11238,"riminal":11239,"Ġvectors":11240,"production":11241,"Ġreceiving":11242,"Ġtracks":11243,"Ġadvance":11244,"pred":11245,"ĠHa":11246,"Tools":11247,"Numer":11248,"Ġinitially":11249,"raise":11250,"arian":11251,"uling":11252,"overflow":11253,"wx":11254,"Ġreceiver":11255,"Constraints":11256,"promise":11257,"ĠSaturday":11258,"Ġ+\\":11259,"Ã¢":11260,"Linked":11261,"argv":11262,"Uses":11263,"usband":11264,"Ġweights":11265,"Unique":11266,"ĠVirginia":11267,"Ġcauses":11268,"rupted":11269,"andidate":11270,"Ġencoded":11271,"Evalu":11272,"ĠVictor":11273,"Ġelected":11274,"ĠHashMap":11275,"partition":11276,"Ġlooked":11277,"umni":11278,"ĠPrivate":11279,"\\_":11280,"Seq":11281,"Ġrepeated":11282,"Fill":11283,"Ġorders":11284,"Ġscenario":11285,"iana":11286,"Ġbenefits":11287,"entries":11288,"Updated":11289,"Ġthick":11290,"keep":11291,"ĠRoute":11292,"Ġcellpadding":11293,"samples":11294,"><!--":11295,"datepicker":11296,"cient":11297,"zoom":11298,"segment":11299,"ĠJe":11300,"Ġwinning":11301,"AMP":11302,"paths":11303,"Ġopin":11304,"Ġadvanced":11305,"colon":11306,"Ġsubgroup":11307,"////////////////////////////////////////////////////////////////":11308,"Ġ(!(":11309,"retch":11310,"even":11311,"stri":11312,"Listeners":11313,"Ġelimin":11314,"Ġhalign":11315,"metric":11316,"merce":11317,"Subscription":11318,"Ġexpressions":11319,"ella":11320,"starts":11321,"ĠUnless":11322,"ĠEnable":11323,"Ġmatrices":11324,"Ġĉ":11325,"ĠConnect":11326,"Ġspectra":11327,"Bus":11328,"Ġtechnical":11329,"period":11330,"itan":11331,"Ġsnapshot":11332,"ĠOl":11333,"Ġturns":11334,"Ġbenefit":11335,"Ġdeploy":11336,"Ġsubmit":11337,"registry":11338,"âĶ":11339,"Ġsemi":11340,"TableRow":11341,"Ġdescribes":11342,"Safe":11343,"Ġpal":11344,"Ġarrest":11345,"Ġhypot":11346,"*>(":11347,"Entries":11348,"ione":11349,"mbed":11350,"Setup":11351,"also":11352,"ĠTEST":11353,"Ġqueries":11354,"scill":11355,"Ġinvestment":11356,"Ġrat":11357,"simeq":11358,"vars":11359,"åĬ":11360,"adapter":11361,"beans":11362,"commun":11363,"/)":11364,"COUNT":11365,"rons":11366,"Compilation":11367,"ĠMexico":11368,"ĠStore":11369,"Ġsess":11370,"Ġprem":11371,"ĠAttribute":11372,"istogram":11373,"adium":11374,"subfigure":11375,"ĠCarolina":11376,"forall":11377,"Completion":11378,"Uint":11379,"rium":11380,"people":11381,"azure":11382,"VT":11383,"!\"":11384,"Ctx":11385,"conditions":11386,"sky":11387,"crimin":11388,"Ġqq":11389,"Ġlocale":11390,"\\\":":11391,"Press":11392,"news":11393,"Ġice":11394,"Ġappearance":11395,"isis":11396,"ĠMen":11397,"serted":11398,"Wrap":11399,"ĠProduct":11400,"temporary":11401,"ĠMember":11402,"Ġeconomy":11403,"Ùħ":11404,"dn":11405,"SUCCESS":11406,"Ġmeant":11407,"Ġnewly":11408,"ĠĠĠĠĠĠĠĠĠĠĠĠĠĠĠĠĠĠĠĠĠĠĠĠĠĠĠĠĠĠĠĠĠĠĠĠĠĠĠĠ":11409,"Ġdx":11410,"ĠJim":11411,"umbnail":11412,"itutions":11413,"Ġslot":11414,"Ġcarbon":11415,"){\\":11416,"Ġskills":11417,"Week":11418,"Tensor":11419,"reatest":11420,"Ġrevealed":11421,"ĠCS":11422,"Ġsurround":11423,"Ġstatements":11424,"ĠCache":11425,"javax":11426,"viation":11427,"Ġaren":11428,"atest":11429,"cross":11430,"score":11431,"Ġproducer":11432,"andbox":11433,"Est":11434,"GRO":11435,"photon":11436,"Ġcitiz":11437,"Ġadds":11438,"Ġ=\\":11439,"Ġmedium":11440,"Ġpan":11441,"Ġauthentication":11442,"%\"><":11443,"]).":11444,"ĠRights":11445,"ĠPut":11446,"ĠCare":11447,"################################":11448,"Ġchallenges":11449,"ixtures":11450,"Ġimplicit":11451,"OBJECT":11452,"Ġretrieve":11453,"imize":11454,"stion":11455,"ographic":11456,"ĠMov":11457,"ĠLook":11458,"ĠtoString":11459,"ĠInitialize":11460,")^{\\":11461,"Ġobserve":11462,"Ġguitar":11463,"Ġroles":11464,"Ġcategories":11465,"Decoder":11466,"odd":11467,"ĠIII":11468,"FAIL":11469,"ĠToken":11470,"Don":11471,"Ġsan":11472,"Ġrich":11473,"Ġhelps":11474,"SERVER":11475,"Ġinfinite":11476,"\"])":11477,"ĠFore":11478,"stein":11479,"Ġms":11480,"Ġbusinesses":11481,"Ġknew":11482,"Ġpoll":11483,"Ġmarker":11484,"mux":11485,"Ġusual":11486,"ĠHaw":11487,"apid":11488,"ĠConsole":11489,"ĠFort":11490,")^{-":11491,"Ġfeedback":11492,"ĠBre":11493,"Ġbecoming":11494,"unnel":11495,">${":11496,"describe":11497,"ĠTOP":11498,"ĠCHE":11499,"subscribe":11500,".');":11501,"Ġgather":11502,"ĠOC":11503,"Without":11504,"ĠSM":11505,"toEqual":11506,"Ġyields":11507,"governor":11508,"bre":11509,"Ġpayment":11510,"Ġdependence":11511,"Ġdamage":11512,"LOB":11513,"initialize":11514,"etc":11515,"was":11516,"ĠCONDITION":11517,"stor":11518,"Mag":11519,"riterion":11520,"neut":11521,"Ġparties":11522,"letter":11523,"Git":11524,"Ġexpert":11525,"Ġgradient":11526,"sat":11527,"Ġsheet":11528,"cookie":11529,"shop":11530,"Ġleaves":11531,"Ġscoped":11532,"linked":11533,"aka":11534,"$).":11535,"Ġnested":11536,"!=":11537,"Ġplanning":11538,"Ġkw":11539,"ĠSty":11540,"semble":11541,"Completed":11542,"Ġ'$":11543,"NR":11544,"defineProperty":11545,"ntil":11546,"Ġts":11547,"notification":11548,"Ġmanage":11549,"addEventListener":11550,"Compare":11551,"schedule":11552,"Hook":11553,"ĠPay":11554,"Ġpossibly":11555,"%)":11556,"ĠFinally":11557,"Ġimportance":11558,"ĠAWS":11559,"ĠTim":11560,"Ġutils":11561,"Inf":11562,"danger":11563,"Ġlos":11564,"Ġachieved":11565,"Da":11566,"ador":11567,"Ġrough":11568,"Ġfreedom":11569,"reci":11570,"Ġlinked":11571,"Ġexplanation":11572,"exe":11573,"ĠRail":11574,"enance":11575,"renderer":11576,"NEL":11577,"213":11578,"Ġcollected":11579,"Vec":11580,"cycle":11581,"eb":11582,"Ġprojection":11583,"setting":11584,"finity":11585,"square":11586,"å¤":11587,"ĠSP":11588,"Ġregime":11589,"Ġproport":11590,"Supp":11591,"Ġbold":11592,"swing":11593,"]['":11594,"]*":11595,"ĠConnection":11596,"Ġfunding":11597,"ĠCross":11598,"projects":11599,"Ġcomputation":11600,"Keyword":11601,"ĠLight":11602,"redirect":11603,"Ġtested":11604,"agers":11605,"Ġinterpre":11606,"Ġisol":11607,"Ġsecure":11608,"ono":11609,"subsubsection":11610,"Ġscan":11611,"Ġsatisfy":11612,"CLA":11613,"Ġsolar":11614,"City":11615,"secret":11616,"abstract":11617,"ĠSpanish":11618,"iper":11619,"ĠAsia":11620,"During":11621,"Ġbudget":11622,"ĠThursday":11623,"rollers":11624,"encing":11625,"Ġcities":11626,"invoke":11627,"ĠNative":11628,"Ġsenior":11629,"Reflection":11630,"Ġautorest":11631,"Disabled":11632,"ĠOk":11633,"Ġprepare":11634,"Ġfaster":11635,"uing":11636,"ĠUP":11637,"nos":11638,"Ġpin":11639,"Dict":11640,"TOM":11641,"xxxx":11642,"Ty":11643,"Credentials":11644,"Ġ\");":11645,"ITLE":11646,"Ġsyn":11647,"pur":11648,"Ġclinical":11649,"sid":11650,"execution":11651,"oston":11652,"ĠGrid":11653,"Ġconj":11654,"Retry":11655,"Ġcriteria":11656,"Ġinstrument":11657,"Ġrecon":11658,"VO":11659,"remark":11660,"clusions":11661,"meter":11662,"Ġopportunities":11663,"cn":11664,"Hello":11665,"istance":11666,"ĠValley":11667,"FLAGS":11668,"party":11669,"pite":11670,"Ġdeclared":11671,"Ġregistry":11672,"Bra":11673,"Ġ'')":11674,"weak":11675,"Sheet":11676,"ĠAD":11677,"cx":11678,"peg":11679,"Ð°ÑĤ":11680,"cccc":11681,"Apply":11682,"servlet":11683,"Describe":11684,"secondary":11685,"10000":11686,"Ġkids":11687,"Ġvec":11688,"craft":11689,"ĠKar":11690,"ĠHon":11691,"nthetic":11692,"âĢĿ,":11693,"Ġimproved":11694,"Cookie":11695,"Ġdt":11696,"\"?>":11697,"Ġdip":11698,"âĢī":11699,"Suite":11700,"ĠCentre":11701,"ĠWho":11702,"hello":11703,"spark":11704,"Ġbright":11705,"ĠRadio":11706,"Ġproved":11707,"ĠSummer":11708,"ĠJohnson":11709,"Ġsubscription":11710,"BLOCK":11711,"hal":11712,"aneous":11713,"ĠFund":11714,"Ġtwice":11715,"ban":11716,"Ġconsidering":11717,"ĠScot":11718,"Prototype":11719,"ÑĢÐµ":11720,"Arrays":11721,"xsd":11722,"Ġedition":11723,"Der":11724,"odot":11725,"Ġstudio":11726,"BYTE":11727,"ĠEli":11728,"Ġ&=&":11729,"ĠOriginal":11730,"ĠCEO":11731,"vg":11732,"ĠCONDITIONS":11733,"Ġcss":11734,"Ġple":11735,"Coin":11736,"Std":11737,"ĉĉĉĉĉĉĉĉĉĉĉ":11738,"analysis":11739,"ether":11740,">{":11741,"Fixture":11742,"]</":11743,"Ġperhaps":11744,"Ġsender":11745,"Ġcellspacing":11746,"Scan":11747,"ifer":11748,"Quant":11749,"ĠArab":11750,"Ġmanifest":11751,"ĠFull":11752,"ĠÂ£":11753,"Ġnotation":11754,"Ġexplained":11755,"Persistent":11756,"ĠMiddle":11757,"moment":11758,"ĠWay":11759,"quick":11760,"Ġfeet":11761,"Ġaudience":11762,"ABILITY":11763,"$^{-":11764,"wallet":11765,"ĠMIT":11766,"Ġnuclear":11767,"YP":11768,"Ġeasier":11769,"AAAA":11770,"ĠBASIS":11771,"Ġsymmetric":11772,"Ġefficiency":11773,"ĠLy":11774,"Ġsimpl":11775,"shell":11776,"ViewController":11777,"Ġrem":11778,"Den":11779,"Ġcentre":11780,"Ġprocessed":11781,"Comparison":11782,"zh":11783,"Payload":11784,"ĠÐ½":11785,"Ali":11786,"Sch":11787,"odes":11788,"odo":11789,"setText":11790,"Millis":11791,"trins":11792,")_{":11793,"/******/":11794,"ĠĠčĊ":11795,"Proc":11796,"ronic":11797,"Ġhook":11798,"ĠWater":11799,"extends":11800,"ĠItaly":11801,"Ġmainly":11802,"ROOT":11803,"Slice":11804,"]),":11805,"appings":11806,"brand":11807,"packet":11808,"thead":11809,"Ġsubstant":11810,"Ġsuggested":11811,"Dr":11812,"ĠWood":11813,"Bro":11814,"literal":11815,"Design":11816,"Scene":11817,"]}":11818,"ĠEner":11819,"Ġreality":11820,"Ġfear":11821,"ĠAppend":11822,"Ġinte":11823,"Generate":11824,"management":11825,"509":11826,"Registration":11827,"Ġwit":11828,"Mac":11829,"dependencies":11830,"ctors":11831,"Ġdep":11832,"icates":11833,"Ġcertificate":11834,"ĠVideo":11835,"mdc":11836,"1986":11837,"Ġlocally":11838,"Ġequals":11839,"Ġcalculation":11840,"Clean":11841,"overlay":11842,"CU":11843,"fac":11844,"Shift":11845,"rick":11846,"}^*":11847,"backend":11848,"schemas":11849,"Ġbeautiful":11850,"Ġdoor":11851,"removeClass":11852,"Transfer":11853,"character":11854,"Ġtele":11855,"Ġofficials":11856,"Ġweap":11857,"Ġaccum":11858,"Ġforest":11859,"Ġyourself":11860,"Ġsuitable":11861,"Foo":11862,"Ġdenotes":11863,"iveness":11864,"unte":11865,"ĠMove":11866,"Inline":11867,"ĠHor":11868,"grpc":11869,"Äį":11870,"ĠCe":11871,"Ġ!!":11872,"aaaa":11873,"Ġshadow":11874,"algorithm":11875,"Ġapparent":11876,"Ġconfigure":11877,"textsc":11878,")>":11879,"::$":11880,"Ġannotation":11881,"[_":11882,"ĠStringBuilder":11883,"iki":11884,"Unmar":11885,"WI":11886,"\"}":11887,"\\!\\!":11888,"Styles":11889,"Ġreferred":11890,"Î½":11891,"-------":11892,"Ġcompile":11893,"Ġbroken":11894,"ican":11895,"Ġcompilation":11896,"FUNCTION":11897,"Slot":11898,"Ġconference":11899,"Ġowned":11900,"ĠAdv":11901,"Ġprincipal":11902,"Ġstellar":11903,"Ġdiagram":11904,"reflect":11905,"ĠCHECK":11906,"Ġclusters":11907,"Ġkill":11908,"ĠUSE":11909,"Ġdedicated":11910,"rog":11911,"ORS":11912,"rx":11913,"Heap":11914,"Ġreson":11915,"Ġphil":11916,"Ġappointed":11917,"ĠWHERE":11918,"Percent":11919,"dfs":11920,"Relative":11921,"Anchor":11922,"Visitor":11923,"Ġretry":11924,"Ġshock":11925,"pn":11926,"Ġran":11927,"paragraph":11928,"ĠResp":11929,"EventArgs":11930,"512":11931,"Why":11932,"pipe":11933,"Ġframes":11934,"ysql":11935,"Ġtransp":11936,"ĠTarget":11937,"ARGET":11938,"Ġthr":11939,"Ġremained":11940,"prevent":11941,"ĠHenry":11942,"iece":11943,"Ĥ¬":11944,"MSG":11945,"Just":11946,"ĠFamily":11947,"Ġmac":11948,"Ġassociation":11949,"ĠAccount":11950,"?(":11951,"conv":11952,"Ġpurs":11953,"Ġsolve":11954,"!</":11955,"ĠParameters":11956,"vendor":11957,"Ġchief":11958,"ulty":11959,"']))":11960,"ĠGenerated":11961,"wan":11962,"Ġfeatured":11963,"Thus":11964,"ĠTri":11965,"$$\\":11966,"kers":11967,"esting":11968,"ymmetric":11969,"Components":11970,"ĠMethods":11971,"Destination":11972,"Ġarrays":11973,"LAB":11974,"marker":11975,"Ġdanger":11976,"hbase":11977,"Ġinvoked":11978,"ĠSVG":11979,"ĠAwards":11980,"FileSystem":11981,"Ġtend":11982,":%":11983,"dere":11984,"Ġacknow":11985,"ĠĠĠĠčĊ":11986,"()\">":11987,"Ġexcell":11988,"ĠConference":11989,"Blocks":11990,"Ġhorizontal":11991,"Ġvo":11992,"Ca":11993,"NdEx":11994,"anim":11995,"Ġresidents":11996,"Ġrefresh":11997,"ĠDictionary":11998,"NGTH":11999,"ĠIgn":12000,"Ġwarm":12001,"Ġbelie":12002,"medium":12003,"ĠJoe":12004,"ĠSar":12005,"Ġlearned":12006,"Ġæ":12007,"sent":12008,"written":12009,"ĠLuc":12010,"mond":12011,"Ġcult":12012,"ĠKo":12013,"Jan":12014,"Further":12015,"Shadow":12016,"clock":12017,"Lite":12018,"manifest":12019,"Ġresponses":12020,"ĠDatabase":12021,"ĠValidate":12022,"Ġstores":12023,"geometry":12024,"pmatrix":12025,"vet":12026,"helpers":12027,"ships":12028,"Ġthank":12029,"UUID":12030,"ĠBad":12031,"'},":12032,"Ġstress":12033,"Ġmagnitude":12034,"ĠRegion":12035,"(`":12036,"Ġdistingu":12037,"1984":12038,"ĠStat":12039,"Ġendif":12040,"Ġbeat":12041,"Ġdefinitions":12042,"usage":12043,"Ġattacks":12044,"Ġlies":12045,"stage":12046,"urance":12047,"Ġcoast":12048,"ockey":12049,"Multiple":12050,"Ġrhs":12051,"Ġoptimization":12052,"Ġaircraft":12053,"ĠRa":12054,"ĠContainer":12055,"Checked":12056,"Ġmurder":12057,"Alpha":12058,"ĠNothing":12059,"ĠFi":12060,"iano":12061,"UA":12062,"Intent":12063,"athan":12064,"Alert":12065,"ADDING":12066,"Equ":12067,"ĠTuesday":12068,"walk":12069,"Ġdrink":12070,"rintf":12071,"Ġconsult":12072,"ĠAllow":12073,"Ok":12074,"ĠPers":12075,"Filename":12076,"Ġiteration":12077,"ĠEntity":12078,"LEVEL":12079,"ogen":12080,"surface":12081,"variance":12082,"Ġscaling":12083,"ĠGLint":12084,"çĶ¨":12085,"substr":12086,"Ġadministr":12087,"generic":12088,"ĠFootball":12089,"Ġstations":12090,"Ġing":12091,"ipient":12092,"ĠLear":12093,"nam":12094,"ĠcancellationToken":12095,"cades":12096,"scripts":12097,"Sy":12098,"Am":12099,"Ġdiscovered":12100,"Ġcontrolled":12101,"ĠAws":12102,"Used":12103,"ffee":12104,"Ġrecommended":12105,"Sender":12106,"yo":12107,"SPAC":12108,"ĠDefin":12109,"Ġcfg":12110,"LONG":12111,"Receive":12112,"Ġchemical":12113,"ĠCatholic":12114,"disk":12115,"ĠDisplay":12116,"WRITE":12117,"scriptions":12118,"1985":12119,"Ġfundamental":12120,"ĠDA":12121,"PG":12122,"negative":12123,"Ġll":12124,"Ġ\";":12125,"Ġproceed":12126,"ĠMedical":12127,"Margin":12128,"Ġarticles":12129,"Ġburn":12130,"Ġ[{":12131,"ifference":12132,"friend":12133,"Ġpil":12134,"ĠGiven":12135,"scriber":12136,"FTWARE":12137,"comb":12138,"Ġ$-":12139,"ĉĠĠĠĠĠĠĠĠĠ":12140,"192":12141,"Ġpet":12142,"()]":12143,"Camera":12144,"rac":12145,"Your":12146,"ĠCoq":12147,"poi":12148,"MESSAGE":12149,"ĠSymfony":12150,"Ġhistorical":12151,"separator":12152,"illy":12153,"Stud":12154,"+\"":12155,"Ġgirl":12156,"Special":12157,"otor":12158,"ĠJones":12159,"Ġnine":12160,"Ġdependency":12161,"ĠAff":12162,"mass":12163,"RIGHT":12164,"Ġpara":12165,"Ġbegins":12166,"ando":12167,"environment":12168,"icing":12169,"mach":12170,"Ġfamous":12171,"BD":12172,"igible":12173,"Ġhusband":12174,"Ġoptical":12175,"Ġlisteners":12176,"xff":12177,"Ø¯":12178,"indices":12179,"=\"{{":12180,"Ġhole":12181,"ĠFuture":12182,"Warnings":12183,"Ġscored":12184,"Ġaccurate":12185,"fall":12186,"Ins":12187,"Ġbehaviour":12188,"Ġpieces":12189,"RENT":12190,"ĠEditor":12191,"Called":12192,"lade":12193,"HC":12194,"lings":12195,"developer":12196,")\\\\":12197,"ĠJon":12198,"Ġinverse":12199,"Ġissued":12200,"lyn":12201,"Ġobservation":12202,"Ġrecall":12203,"cu":12204,"Ġmanner":12205,"dbc":12206,"Ġconducted":12207,"Sco":12208,"inx":12209,"Inject":12210,"ĠOperation":12211,"Ġadministration":12212,"?\"":12213,"Ġmacro":12214,"ĠBasic":12215,"Ġcalculations":12216,"transl":12217,"RGB":12218,"glob":12219,"Ġatmo":12220,"Ġrestore":12221,"ĠOnce":12222,"licated":12223,"Ġtells":12224,"Ġlanguages":12225,"Ġboot":12226,"week":12227,"ĠLike":12228,"ĠTIM":12229,"urban":12230,"sr":12231,"ĠIslam":12232,"Ġneighborhood":12233,"apple":12234,"olute":12235,"regex":12236,"evalu":12237,"mma":12238,"Separator":12239,"Ġequipment":12240,"ila":12241,"Ġofficer":12242,"ĠKen":12243,"uries":12244,"Scheduler":12245,"Share":12246,"icity":12247,"servers":12248,"ĠIsrael":12249,"Sta":12250,"Ġnumerous":12251,"MenuItem":12252,"ĠXml":12253,"Ġdream":12254,">(<":12255,"ĠInternet":12256,"ÙĪ":12257,"//----------------------------------------------------------------":12258,"shaller":12259,"Ġdeveloping":12260,"wso":12261,"ĠBORDER":12262,"Ġpref":12263,"sen":12264,"ategor":12265,"ĠExpect":12266,"ifts":12267,"comments":12268,"Ġcrow":12269,"ĠĠĠĠĠĠĠĠĠĠĠĠĠĠĠĠĠĠĠĠĠĠĠĠĠĠĠĠĠĠĠĠĠĠĠĠĠĠĠĠĠĠĠĠĠĠĠĠĠĠĠ":12270,"Bridge":12271,"uma":12272,"REAM":12273,"ĠSem":12274,"noframe":12275,"there":12276,"stderr":12277,"Traits":12278,"VD":12279,"Ġdepartment":12280,"112":12281,"except":12282,"Mail":12283,"ĠUkraine":12284,")}{\\":12285,"Ġintent":12286,"ĠGaussian":12287,"visor":12288,"Ġbrain":12289,"rove":12290,"ĠRam":12291,"extract":12292,"SF":12293,"ceeds":12294,"{})":12295,"configure":12296,"LINK":12297,"Ġpackages":12298,"Ġnormalized":12299,"reverse":12300,"istency":12301,"ĠConf":12302,"ilibrium":12303,"\\|_{":12304,"Ġtechnique":12305,"ĠEr":12306,"Ġacts":12307,"Ġur":12308,"Ġenvironmental":12309,"Operand":12310,"Ġinduced":12311,"ordered":12312,"isa":12313,"Ġevol":12314,"Ġoscill":12315,"Ġbridge":12316,"Ġtemporary":12317,"Most":12318,"Ġleadership":12319,"pal":12320,"Organ":12321,"ĠWednesday":12322,"Ġcultural":12323,"Ġdeclare":12324,"Ġseparated":12325,"Enumer":12326,"lott":12327,"ĠRelease":12328,"Ġintersection":12329,"placeholder":12330,"Ġplanet":12331,"IES":12332,"ĠLie":12333,"ĠChief":12334,"omics":12335,"ĠVAR":12336,"Ïĥ":12337,"Pres":12338,"Ġsymbols":12339,"Ġ\"[":12340,"onsive":12341,"Ġbed":12342,"Ġgone":12343,"Ġbeam":12344,"Ã±":12345,"servative":12346,"charts":12347,"pixel":12348,"Ġsupporting":12349,"DM":12350,"Ġplain":12351,"Doctrine":12352,"Force":12353,"aux":12354,"statsmodels":12355,"ĠDie":12356,"Ġ(#":12357,"dtd":12358,"Ġsin":12359,"ĠImport":12360,"ĠWhy":12361,"Ġking":12362,"ubic":12363,"ĠLabel":12364,"Ġdriving":12365,"Sprintf":12366,"iso":12367,"Parts":12368,"riz":12369,"Unexpected":12370,"ĠIran":12371,"Ġthanks":12372,"\\/":12373,"@{":12374,"ressions":12375,"Ġterr":12376,"ĠPakistan":12377,"Ġmath":12378,"Ġnice":12379,"ĠSession":12380,"Ġapplies":12381,"ĠRule":12382,"Threading":12383,"Ġinteract":12384,"ffffff":12385,"Ġindeed":12386,"Defined":12387,"Ġ{$":12388,"ĠSol":12389,"itudes":12390,"Ġisland":12391,"ĠÂ©":12392,"Ġion":12393,"Ġdelivery":12394,"arest":12395,"Ġprison":12396,"Ġinitialized":12397,"}))":12398,"Picker":12399,"Ġgalaxy":12400,"Ġthinking":12401,"OTTOM":12402,"Ġalter":12403,"future":12404,"vironments":12405,"Finally":12406,"}&":12407,"invert":12408,"dm":12409,"(\".":12410,"arb":12411,"[<":12412,"Ġencrypt":12413,"nonatomic":12414,"ĠThrow":12415,"inciple":12416,"ĠCF":12417,"111":12418,"ĠâĢ¢":12419,"Modules":12420,"Ġrepeat":12421,"ĠProperties":12422,"Backend":12423,"Ġmusical":12424,"ĠSports":12425,"Ġphenomen":12426,"amed":12427,"ĠLive":12428,"ĠJoseph":12429,"lah":12430,"tz":12431,"through":12432,"Ġearth":12433,"days":12434,"Requests":12435,"team":12436,"factor":12437,"una":12438,"()`":12439,"Ġmotiv":12440,"enant":12441,"})$.":12442,"Ġspeech":12443,"ĠEnergy":12444,"iframe":12445,")\\,":12446,"Ġthermal":12447,"AUTH":12448,"onomy":12449,"must":12450,"MAN":12451,"Ġlic":12452,"Ġaccounts":12453,"dependence":12454,"disc":12455,"æķ°":12456,"ĠMaster":12457,"ansas":12458,"dirname":12459,"Ġalbums":12460,"Ġsuggests":12461,"rams":12462,"130":12463,"{$\\":12464,"Could":12465,"glew":12466,"Ġtile":12467,"WORK":12468,"Structure":12469,"Ġpoet":12470,"Ġmiles":12471,"ĠFixed":12472,"acent":12473,"Ġextent":12474,"}}^{":12475,"Deep":12476,"pref":12477,"ĠĠĠĠĠĠĠĠĠĠĠĠĠĠĠĠĠĠĠĠĠĠĠĠĠĠĠĠĠĠĠĠĠĠĠĠĠĠĠĠĠ":12478,"Ġcaref":12479,"Ġcookie":12480,"chrome":12481,"ĠRequired":12482,"asm":12483,"ĠCy":12484,"Ġharmony":12485,"TOOL":12486,"unately":12487,"pearance":12488,"Ġboy":12489,"ĠAP":12490,"NI":12491,"Theorem":12492,"'):":12493,"Ġener":12494,"arity":12495,"Photo":12496,"Ġå":12497,"mms":12498,"Encode":12499,"=#":12500,"amond":12501,"Immutable":12502,"Router":12503,"Dot":12504,"sizeof":12505,"PREFIX":12506,"Ġscheduled":12507,"tv":12508,"Ġprotein":12509,")'":12510,"Ġconvergence":12511,"rehens":12512,"<?>":12513,"ĠLord":12514,"Ġperforming":12515,"allowed":12516,"Zend":12517,"esture":12518,"rical":12519,"teen":12520,"ĠDer":12521,"/#":12522,"Lang":12523,"Ġholding":12524,"leton":12525,"AreEqual":12526,"404":12527,"Ġbiggest":12528,"awa":12529,"Ġptr":12530,"Alignment":12531,"Ġfunds":12532,"rieve":12533,"Into":12534,"antly":12535,"Ġconstexpr":12536,"osa":12537,"xygen":12538,"Ġcer":12539,"Algorithm":12540,"Ġsqlite":12541,"Ġfavorite":12542,"mapsto":12543,"ĠPolice":12544,"Refresh":12545,"ĠRight":12546,"VP":12547,"qq":12548,"unger":12549,"Notes":12550,"Tech":12551,"}}^":12552,"Than":12553,"Ġnucle":12554,"Fi":12555,"Ġencounter":12556,"running":12557,"imedia":12558,"Ġprediction":12559,"ĠBox":12560,"FRAME":12561,"ĠWilliams":12562,"Ġspecifically":12563,"apps":12564,"nc":12565,"FIL":12566,"territ":12567,"ĠStorage":12568,"ĠWatch":12569,"Ġjourney":12570,"Ġpitch":12571,"ĠConstruct":12572,"Reply":12573,"Ġidentical":12574,"Ġinvestigation":12575,"Ġcounty":12576,"ophy":12577,"ĠHost":12578,"ĠJeff":12579,"Ġscr":12580,"Instances":12581,"ĠHam":12582,"sleep":12583,"fection":12584,"VC":12585,"Deployment":12586,"Ġregistration":12587,"Ġwriters":12588,"MetaData":12589,"ĠBow":12590,"inputs":12591,"Sig":12592,"Ġimmun":12593,"izz":12594,"slash":12595,"Neg":12596,"Ġcatalog":12597,"Overlay":12598,"}{(":12599,"ĠMust":12600,"ĠCC":12601,"ĠJud":12602,"lom":12603,"afka":12604,"ĠCELL":12605,"ĠSW":12606,"Ġprices":12607,"ymptot":12608,"SPACING":12609,"mx":12610,"Ġsche":12611,")--":12612,"rowse":12613,"joint":12614,"Ġwhereas":12615,"elihood":12616,"ulating":12617,"reens":12618,"ĠConstructor":12619,"Ġnom":12620,")$-":12621,"Ġapps":12622,"Ġsock":12623,"Ġexplore":12624,">$":12625,"'(":12626,"tract":12627,"LENGTH":12628,"ih":12629,"Ġextremely":12630,"ĠWild":12631,"ĠSwed":12632,"360":12633,"Ġquadr":12634,"Ġfinds":12635,"aired":12636,"dating":12637,"Ġlab":12638,"Ġapplying":12639,"1983":12640,"leet":12641,"Ġstub":12642,"poch":12643,"ĠRest":12644,"Ġmotor":12645,"Ġstreet":12646,"Ġpeace":12647,"ĠIF":12648,"stud":12649,"1950":12650,"Ġplatforms":12651,"Ġna":12652,"ĠObservable":12653,"Surface":12654,"ulp":12655,"Injection":12656,"=}":12657,"ĠDevice":12658,"former":12659,"Ġfashion":12660,"Records":12661,"timeline":12662,"Ġasset":12663,"worker":12664,"Ġtrained":12665,"Ġrecording":12666,"ÐµÑĤ":12667,"Ġprepared":12668,"course":12669,"Ġflush":12670,"maml":12671,"ĠTests":12672,"ynchronous":12673,"hashCode":12674,"Paint":12675,"Ġchecking":12676,"Star":12677,"carbon":12678,"agr":12679,"ĠBul":12680,"Ġbulk":12681,"Angle":12682,"%.":12683,"Ġsides":12684,"MAIN":12685,"Marshal":12686,"Ġuniversity":12687,"stroke":12688,"NameLink":12689,"Ġagents":12690,"Ġcaller":12691,"failure":12692,"ĠAh":12693,"Ġdropped":12694,"ELEMENT":12695,"ĠLab":12696,"Annotations":12697,"Translation":12698,"foundation":12699,"Ġweather":12700,"ĠMike":12701,"Black":12702,"Ġdefense":12703,"Ġwa":12704,"ĠCirc":12705,"lastic":12706,"ĠBet":12707,"UC":12708,"ĠCapt":12709,"Ġmill":12710,"Ġcc":12711,"experi":12712,"dataset":12713,"Ġ========":12714,"Nested":12715,"ENCE":12716,"toc":12717,"Ġcolon":12718,"Upper":12719,"coll":12720,"Ġ$('#":12721,"YS":12722,"Ġremark":12723,"ĠSET":12724,"ĠJavaScript":12725,"Stage":12726,"Every":12727,"Ġspecifies":12728,"eno":12729,"Ġcomplexity":12730,"ogeneous":12731,"Ġdependent":12732,"openapi":12733,"tuple":12734,"resentation":12735,"speed":12736,"ĠMatrix":12737,"Tip":12738,"ores":12739,"Ġdoll":12740,"ObjectMeta":12741,"ĠWalk":12742,"readonly":12743,"Ġdifferential":12744,"orer":12745,"ĠDC":12746,"WriteLine":12747,"è®":12748,"law":12749,"Ġcars":12750,"Ġta":12751,"Ġmal":12752,"Ġfigures":12753,"ĠHamiltonian":12754,"ĠChris":12755,"Ġscre":12756,"ĠInvest":12757,"territory":12758,"ĠFurthermore":12759,"windows":12760,"pagination":12761,"Ġattach":12762,"hex":12763,"\"./":12764,"$;":12765,"fav":12766,"Ġseat":12767,"Ġauthent":12768,"ĠFar":12769,"Ð¾Ð»":12770,"locked":12771,"ĠCL":12772,"Foundation":12773,"Inspect":12774,"Ġattempts":12775,"Ġinstructions":12776,"ĠNOTE":12777,"DataSource":12778,"INCL":12779,"ĠSciences":12780,"ARCH":12781,"Ġvariant":12782,"uced":12783,"erg":12784,"aped":12785,"Ġcomed":12786,"](#":12787,"destination":12788,"ĠPUBLIC":12789,"Ġwx":12790,"ibration":12791,"ĠArea":12792,"ishop":12793,"×Ļ×":12794,"sph":12795,"Ġ'</":12796,"Ġ---":12797,"Ġmedian":12798,"ĠPublished":12799,"changes":12800,"Fit":12801,"Ġemphas":12802,"tbl":12803,"pd":12804,"Ġpermit":12805,"Ġlived":12806,"Ġbias":12807,"Subject":12808,"Ġvariation":12809,"OPTION":12810,"Ġcertainly":12811,"Ġreaction":12812,"Mesh":12813,"Ratio":12814,"Comb":12815,"xf":12816,"ĠHospital":12817,"TableRowColor":12818,"ĠDest":12819,"drawable":12820,"reject":12821,"Detector":12822,":-":12823,"Ġ./":12824,"ĠDIS":12825,"Ġvision":12826,"frag":12827,"ĠEU":12828,"(\"<":12829,"added":12830,"STRUCT":12831,"icky":12832,"Ġchair":12833,"microsoft":12834,"ercise":12835,"ĠTaylor":12836,"Ġsequences":12837,"Allowed":12838,"correct":12839,"ĠAuth":12840,"ĠSOFTWARE":12841,"Ġcookies":12842,"AIN":12843,"Ġguarante":12844,"Ġmasses":12845,"PIO":12846,"Äĩ":12847,"ĠMid":12848,"CEPT":12849,"LOAT":12850,"oda":12851,"Ġgranted":12852,"Ġsinger":12853,"Foot":12854,"Ġstopped":12855,"Hex":12856,"umpy":12857,"Ġanimals":12858,"Req":12859,"ĠNight":12860,"Ġcold":12861,"Ġmoves":12862,"ousel":12863,"MACRO":12864,"Cert":12865,"ĠFILE":12866,"Ġradiation":12867,"same":12868,"ĠConstant":12869,"Ġxsi":12870,"andy":12871,"Ġcaptured":12872,"EqualTo":12873,"Ġgrpc":12874,"ĠInstead":12875,"ĠBind":12876,"ĠChristmas":12877,"mf":12878,"ĠSuch":12879,"Ġcommission":12880,"ASC":12881,"ĠDaily":12882,"ACTION":12883,"ĠManager":12884,"door":12885,"Ġminute":12886,"StackTrace":12887,"æĺ":12888,"Ġassets":12889,"Ġphysics":12890,"Ġnarrow":12891,"statement":12892,"ĠAdded":12893,"ĠFrancisco":12894,"usted":12895,"ĠEp":12896,"Ġscales":12897,"Ġ{*}":12898,"Forward":12899,"Ġfacilities":12900,"Threshold":12901,"ĠGit":12902,"ĠCELLP":12903,"Ġserving":12904,"Ġwrapped":12905,"ĠCELLPADDING":12906,"Ġcircum":12907,"avid":12908,"rott":12909,"Mixin":12910,"ĠCELLSPACING":12911,"ctree":12912,"scheme":12913,"102":12914,"aui":12915,"ROW":12916,"diag":12917,"displaystyle":12918,"demo":12919,"INSTANCE":12920,"Ġchoices":12921,"Ġregional":12922,"Ġmunicip":12923,"Ġthreads":12924,"Tube":12925,"ĠSimilar":12926,"Ġindicated":12927,"Ġ\"./":12928,"Ġgraphs":12929,"HasBeen":12930,"urrence":12931,"Ġoutputs":12932,"Ġopposite":12933,"interpret":12934,"Ġportion":12935,"Ġprimar":12936,"Ġclaimed":12937,"branch":12938,"Sources":12939,"1982":12940,"ĠSenate":12941,"ĠDaniel":12942,"Country":12943,"}}$.":12944,"AMETER":12945,"\\{\\":12946,"../../../":12947,"oe":12948,"Ġnotify":12949,"ĠColumb":12950,"orial":12951,"Ġyouth":12952,"Ġrecovery":12953,"ĠWall":12954,"Bg":12955,"Ġawarded":12956,"xe":12957,"Ġinspired":12958,"Sent":12959,"Øª":12960,"cv":12961,"mis":12962,"aises":12963,"eller":12964,"Ġsharing":12965,"ystal":12966,"Ġembedded":12967,"âĶĢ":12968,"Ġequality":12969,"Introduction":12970,"percent":12971,"ĠMichigan":12972,"Ïģ":12973,"Ġperspective":12974,"Ġlegend":12975,"Ġfluid":12976,"multiple":12977,"Ġincident":12978,"Ġrobust":12979,"Phase":12980,"proposition":12981,"NotFoundException":12982,"Ġ'[":12983,"vals":12984,"Ġknows":12985,"Hide":12986,"subscription":12987,"12345":12988,"Ġmarketing":12989,"Ġscattering":12990,"ĠPacific":12991,"Ġfeat":12992,"MLE":12993,"Ġmist":12994,"Ġfluct":12995,"Ġtalking":12996,"Ġpossibility":12997,"Ġexceptions":12998,"plane":12999,"Ġparticipants":13000,"^^^^":13001,"bur":13002,"ĠBa":13003,"Ġ/**<":13004,"lists":13005,"INCRE":13006,"Pojo":13007,"}\"/>":13008,"Ġspring":13009,"Ġglyph":13010,"___":13011,"HANDLE":13012,"amber":13013,"Primitive":13014,"packages":13015,"Ġreplacement":13016,"price":13017,"Ġrepro":13018,"hab":13019,"ĠSite":13020,"/(":13021,"Ġhandled":13022,"including":13023,"Strings":13024,"Ġstandards":13025,"stmt":13026,"Ġrational":13027,"ĠBrazil":13028,"Ġjav":13029,"Ġlumin":13030,".\";":13031,"Ġfacility":13032,"Ġoffering":13033,"Dispatcher":13034,"Ġincorrect":13035,"metic":13036,"tele":13037,"Ġquantity":13038,"PROPERT":13039,"ociated":13040,"Dash":13041,"Excel":13042,"ĠBoston":13043,"TagName":13044,"ĠÐ¸":13045,"Ġentirely":13046,"ĠRange":13047,"Ġrelax":13048,"ctrl":13049,"precision":13050,"Ġsynchronized":13051,"Ġsignals":13052,"Ġblob":13053,"æĪ":13054,"determin":13055,"chat":13056,"sender":13057,"Ġtot":13058,"`:":13059,"leaf":13060,"Dimension":13061,"Ġevaluated":13062,"ades":13063,"placement":13064,"arios":13065,"Another":13066,"Elem":13067,"Ġloader":13068,"sources":13069,"Ġzoom":13070,"posts":13071,"ylvan":13072,"TextView":13073,"measure":13074,"ĠGLenum":13075,"Ġmand":13076,"ĠTw":13077,"/'":13078,"Visibility":13079,"Complex":13080,"$~":13081,"Ġdrawn":13082,"visit":13083,"Ġdecades":13084,"oes":13085,"Ġcrisis":13086,"ĠBal":13087,"ĠSingle":13088,"Rob":13089,"textarea":13090,"BM":13091,"Speed":13092,"Ġreligious":13093,"Ġaws":13094,"105":13095,"Ġ\"+":13096,"ĠFood":13097,"Ġtheoretical":13098,"Ġath":13099,"Ġseeing":13100,"ĠIV":13101,"constraint":13102,"Ġsatisfied":13103,"Ġasymptot":13104,"ĠColl":13105,"Ġbelongs":13106,"HOST":13107,"RS":13108,"Ui":13109,"Ġstrategies":13110,"(@\"":13111,"Ġstability":13112,"Ġcomposed":13113,"bell":13114,"ĠIT":13115,"Ġsummar":13116,"perts":13117,"Ant":13118,"Ġcanonical":13119,":&":13120,"Ġ^{":13121,"140":13122,"ĠNorthern":13123,"Ġeco":13124,"Ġrejected":13125,"Overflow":13126,"Coord":13127,"sktop":13128,"ĠDeep":13129,"Ġwindows":13130,"Ġdatetime":13131,"Ġslo":13132,"spher":13133,"Ġamplitude":13134,"buttons":13135,"ĠAsian":13136,"ENC":13137,"gre":13138,"lides":13139,"è¡":13140,"Ġsegments":13141,"ĠTro":13142,"ĠChrome":13143,"Ġentertain":13144,"Ġpartnership":13145,"ĠAnother":13146,"ĠLevel":13147,"sym":13148,"Ġriver":13149,"parsed":13150,"Ġobserver":13151,"ĠEns":13152,"Ġdust":13153,"ĉĉĠ":13154,"Ġven":13155,"Ġcredentials":13156,"pipeline":13157,"Ġpreferred":13158,"catalog":13159,"Ġmm":13160,"Ġ/><":13161,"Ġassignment":13162,"ReadOnly":13163,"Ġfiction":13164,"iate":13165,"steps":13166,"ĠBang":13167,"Cent":13168,"Ġreviews":13169,"}}$,":13170,"Ġsky":13171,"-------------":13172,"city":13173,"ĠPC":13174,"csv":13175,"ĠAC":13176,"Ġreads":13177,"modifier":13178,"tle":13179,"Prob":13180,"ĠDigital":13181,"Ġacademic":13182,"Ġdeclaration":13183,"IFT":13184,"aug":13185,"HasBeenSet":13186,"TypeName":13187,"priority":13188,"--;":13189,"caret":13190,"1979":13191,"Cross":13192,"Ġful":13193,"hour":13194,"uum":13195,"ĠGenerate":13196,"ibli":13197,"preview":13198,"ĠFederal":13199,"Ġrelationships":13200,"Ġspend":13201,"ĠFA":13202,"Ġgrad":13203,"ĉĠĠĠĠĠĠĠĠĠĠĠĠ":13204,"Ġroutes":13205,"versions":13206,"getText":13207,"Ġcomfort":13208,"Ġlambda":13209,"Ġrecover":13210,"Ġreply":13211,"buffers":13212,"tility":13213,"ĠCorporation":13214,"Ġcharged":13215,"Hidden":13216,"!\\":13217,"ude":13218,"UNK":13219,"ĠBol":13220,"hbar":13221,"rained":13222,"Modal":13223,"trinsic":13224,"intro":13225,"missing":13226,"ĠLIC":13227,"Partial":13228,"Ġexperiences":13229,"asset":13230,"Hy":13231,"Ġ(((":13232,"Ġresc":13233,"ĠSC":13234,"Ġconclude":13235,"ĠTypeError":13236,"Ġfellow":13237,"Ġpractices":13238,"Ġadopted":13239,"Ġconsum":13240,"ĠJackson":13241,"Ġsmo":13242,"Ġkeeping":13243,"ĠAI":13244,"Ġcs":13245,"Ġguard":13246,"Ġ<?":13247,"Js":13248,"holders":13249,"itories":13250,"Ġsemantic":13251,"riggers":13252,"ĠRay":13253,"gun":13254,"ori":13255,"Ġacting":13256,"signal":13257,"sizei":13258,"ucky":13259,"Ġrig":13260,"Ġhandles":13261,"unny":13262,"Ġunable":13263,"IENT":13264,"ruption":13265,"Backup":13266,"Ġdog":13267,"Ġwww":13268,"ictures":13269,"Ġchrome":13270,"Ġrid":13271,"Ġinspect":13272,"codes":13273,"Confirm":13274,"yaml":13275,"ÑĨ":13276,"ĠDat":13277,"ĠOK":13278,"Ġmach":13279,"Ġrs":13280,"ĠSat":13281,"lov":13282,"Ġrendered":13283,"SIGN":13284,"Ġcommitted":13285,"orney":13286,"validator":13287,"zo":13288,"Ġfunctionality":13289,"ĠMulti":13290,"Ġ(!$":13291,"TEXTURE":13292,"ĠÅ":13293,"gypt":13294,"Managed":13295,"itative":13296,"Checker":13297,"live":13298,"ĠTransport":13299,"lined":13300,"Ġaspects":13301,"Ġaver":13302,"ĠParameter":13303,"anes":13304,"gui":13305,"ĠSchema":13306,"Ġofficers":13307,"ĠFormat":13308,"FROM":13309,"DELETE":13310,"snapshot":13311,"atype":13312,"Capacity":13313,"ĠGir":13314,"ĠÐ´":13315,"eting":13316,"Ġadapter":13317,"-----":13318,"Ġreporting":13319,"jackson":13320,"ĠGET":13321,"tokens":13322,"Filters":13323,"ĠBroad":13324,"quid":13325,"don":13326,"fact":13327,"Ġhandlers":13328,"Sink":13329,"Observable":13330,"=\"@+":13331,"umptions":13332,"Ġconfidence":13333,"Ġentities":13334,"mad":13335,"Pat":13336,"Ġdeprecated":13337,"Ġattend":13338,"EMP":13339,"Ġvictory":13340,"ĠWait":13341,"Also":13342,"rise":13343,"ç»":13344,"ĠTy":13345,"getKey":13346,"News":13347,"ĠJes":13348,"fv":13349,"Ġ}));":13350,"yarn":13351,"ĠMajor":13352,"LD":13353,"Ġwidely":13354,"Ġdestroyed":13355,"Price":13356,"_-":13357,"ĠMemory":13358,"Ġdense":13359,"Decor":13360,"Ġlowest":13361,"ĠFloat":13362,"Ġuncertainty":13363,"lix":13364,"Ġrm":13365,"Ġvehicles":13366,"opsis":13367,"permission":13368,"Artifact":13369,"Variant":13370,"ĠOx":13371,"getProperty":13372,"Ġaccessible":13373,"onom":13374,"visibility":13375,"ĠStudies":13376,"Horizontal":13377,"MIT":13378,"ĠLock":13379,"ĠThree":13380,"mazing":13381,"you":13382,"Ã¥":13383,"sep":13384,"KEN":13385,"Ġeffectively":13386,"zab":13387,"English":13388,"Ġexecutive":13389,"PASS":13390,"Indicator":13391,"ĠNY":13392,"streaming":13393,"ĠIrish":13394,"floor":13395,"IBU":13396,"ĠMS":13397,"Ġbond":13398,"wave":13399,"=\"#\"":13400,"Ġlistening":13401,"Ġlie":13402,"hw":13403,"ĠĠĠĠĠĠĠĠĠĠĠĠĠĠĠĠĠĠĠĠĠĠĠĠĠĠĠĠĠĠĠĠĠĠĠĠĠĠĠĠĠĠ":13404,"macro":13405,"Ġplants":13406,"Encoder":13407,"ĠAzure":13408,"ĠGar":13409,"Ġzip":13410,"ĠDiagnostic":13411,"Ġ[\\":13412,"+(":13413,"ĠOUT":13414,"nate":13415,"exclude":13416,"quo":13417,"Ġliber":13418,"Guid":13419,"Ġvideos":13420,"Ġdivided":13421,"ĠÐº":13422,"116":13423,"Ġtalent":13424,"ByName":13425,"Throws":13426,"Ġxhr":13427,"Times":13428,"âĢ¢":13429,"ĠBC":13430,"PDF":13431,"Ġgender":13432,"Ġguess":13433,"Ġranges":13434,"Ġskin":13435,"ĠSouthern":13436,"Predicate":13437,"orough":13438,"Behavior":13439,"Ġpercentage":13440,"Ġposts":13441,"Ġscientific":13442,"ĠSpring":13443,"Ġabund":13444,"LIB":13445,"Payment":13446,"ĠCred":13447,"wbr":13448,"abeled":13449,"RM":13450,"typeparam":13451,"Ġpredicted":13452,")*":13453,"Extract":13454,"Ġposted":13455,"blocks":13456,"Defaults":13457,"irds":13458,"Revision":13459,"ĠWord":13460,"Attrib":13461,"Live":13462,"Ġpredictions":13463,"works":13464,"jq":13465,"Ġcrime":13466,"Ġviolence":13467,"AE":13468,"tables":13469,"ishing":13470,"Ġut":13471,"ĠDMA":13472,"ĠUSB":13473,"endregion":13474,"gray":13475,"Ġhousing":13476,"Given":13477,"innerHTML":13478,"ĠDemocratic":13479,"ĠHard":13480,"Ġpasses":13481,"1981":13482,"numeric":13483,"Ġ/></":13484,"Ġconcerns":13485,"ylvania":13486,"zing":13487,"Ġinfrastructure":13488,"Ġdisp":13489,"half":13490,"Ġsport":13491,"ulner":13492,"Ġbands":13493,"Ġdut":13494,"ĠLICENSE":13495,"TEGER":13496,"Ġprototype":13497,"Ġ}.":13498,"zier":13499,"compress":13500,"Sn":13501,"Ġcaught":13502,"subNav":13503,"ÅĤ":13504,"Ġcle":13505,"ARK":13506,"Ġterminal":13507,"Ġpotentially":13508,"ĠTurn":13509,"Ġemotion":13510,"ĠOlympics":13511,"tik":13512,"Ġcharacteristics":13513,"agin":13514,"verb":13515,"WARNING":13516,"Ġ../":13517,"heets":13518,"=====":13519,"Creation":13520,"atable":13521,"Ġannounce":13522,"&=&":13523,"ĠCas":13524,"ĉĉčĊ":13525,"tick":13526,"uniform":13527,"sex":13528,"itage":13529,"Ġpython":13530,"DX":13531,"SDL":13532,"loom":13533,"ĠMedicine":13534,"ĠMah":13535,"Ġmathe":13536,"Ġwhatever":13537,"Nov":13538,"ĠQString":13539,"Ġrouter":13540,"atom":13541,"ubb":13542,"GLenum":13543,"=-=-":13544,"Ġcoefficient":13545,"ĠPolit":13546,"best":13547,"irth":13548,"Ġstatistical":13549,"cong":13550,"Ġoutline":13551,"Ġgenerating":13552,"Tables":13553,"Cr":13554,"Ġthousands":13555,"velope":13556,"Ġbasketball":13557,"ĠsetTimeout":13558,"PRI":13559,"!(":13560,"ĠSave":13561,"ĠOTHER":13562,"Ġenhance":13563,"ĠSus":13564,"Ġaim":13565,"ĠAudio":13566,"variables":13567,"regular":13568,"TRACT":13569,"Ġcond":13570,"Ġprinciple":13571,"Receiver":13572,"uction":13573,"ĠAmericans":13574,"Ġdeployment":13575,"Ġelectronic":13576,"åŃ":13577,"UV":13578,"Ġsale":13579,"gies":13580,"Until":13581,"ĠReset":13582,"Ġprogramming":13583,"Ġremoves":13584,"herent":13585,"ennis":13586,"ipedia":13587,"Original":13588,"Ġobjective":13589,"Ġexpos":13590,"Related":13591,"Ġdecisions":13592,"555":13593,"Ġtransmission":13594,"seed":13595,"sch":13596,"cesses":13597,"tcp":13598,"Ġvisited":13599,"Ġiterate":13600,"ĠJustice":13601,"Ġcollapse":13602,"ĠQueen":13603,"algebra":13604,"ĠDa":13605,"Ġpurchase":13606,"ACHE":13607,"MENTED":13608,"ootstrap":13609,"abb":13610,"Ġdjango":13611,"Pages":13612,"ĠSea":13613,"Ġperman":13614,"union":13615,"Ġwrites":13616,"Low":13617,"XXXX":13618,"ĠBody":13619,"ĠSpain":13620,"Ġdome":13621,"Ġsampling":13622,"Ġalumni":13623,"ĠContact":13624,"Ġprimarily":13625,"]];":13626,"Ġgene":13627,"Ġ!(":13628,"arse":13629,"Ġconvex":13630,"Ġinvestigate":13631,"Logging":13632,"ributions":13633,"existing":13634,"thy":13635,"Highlight":13636,"ucial":13637,"dw":13638,"restore":13639,"atten":13640,"rance":13641,"Ġaccident":13642,"ulf":13643,"Ġintermediate":13644,"HL":13645,"Toggle":13646,"1978":13647,"104":13648,"kl":13649,"aked":13650,"Ġquark":13651,"Cost":13652,"cas":13653,"nl":13654,"uis":13655,"Authorization":13656,"Ġinvolving":13657,"typ":13658,"Posted":13659,"Emitter":13660,"utorial":13661,"sqlite":13662,"CLK":13663,"dients":13664,"Ġhair":13665,"ĠKh":13666,";,":13667,"inherited":13668,"ĠStop":13669,"Clip":13670,"Ġcallbacks":13671,"Ġly":13672,"[];":13673,"*>":13674,"Ġentropy":13675,"Ġvent":13676,"ĠLittle":13677,"Ġdiscover":13678,"parallel":13679,"Ġorientation":13680,"Ġimmediate":13681,"Ġsimult":13682,"Ġfaith":13683,"ĠMu":13684,"ĠAsync":13685,"Ġnewsp":13686,"Ġdump":13687,"Orient":13688,"Ġinjury":13689,"FIN":13690,"ĠDefine":13691,"Ġpromote":13692,"commands":13693,"Matches":13694,"Ġsexual":13695,"ÂłÂł":13696,"Ġstroke":13697,"ĠKim":13698,"EOF":13699,"Ġtrim":13700,"camera":13701,"guard":13702,"Ġparsing":13703,"cost":13704,"Ġagency":13705,"Ġfuel":13706,"ĠMic":13707,"Alex":13708,"Ġera":13709,"wind":13710,"aque":13711,"Customer":13712,"}({\\":13713,"NaN":13714,"ĠGeorgia":13715,"Ġnarr":13716,"ĠBefore":13717,"Ġcharacteristic":13718,"Ġcloser":13719,"Ġintensity":13720,"Ġcriminal":13721,"NEW":13722,"Ġnecessarily":13723,"stringify":13724,"ĠSl":13725,"ĠClose":13726,"ĠMD":13727,"Ġcomputing":13728,"ĠNiger":13729,"ĠĠĠĠĠĠĠĠčĊ":13730,"Ġsuite":13731,"swap":13732,"hem":13733,"ĠDI":13734,"Ġadmit":13735,"Clone":13736,"Ġslide":13737,"ossible":13738,"Yes":13739,"')).":13740,"ĠBern":13741,"ĠCivil":13742,"ĠBi":13743,"Ġ=================================================================":13744,"Ġ\"\")":13745,"ĠPackage":13746,"Oct":13747,"opam":13748,"responsive":13749,"Ġintegrated":13750,"Resolve":13751,"$),":13752,"ÐµÑĢ":13753,"quality":13754,"animate":13755,"Ġcommonly":13756,"Ġinterpol":13757,"Ġsig":13758,"Ġexcellent":13759,"Ġtip":13760,"Ġseasons":13761,"ĠWat":13762,"IBUTE":13763,"Ġinvolve":13764,"Invoke":13765,"Vertical":13766,"Ġrecognized":13767,"Ġanimal":13768,"Ġinherited":13769,"Ġfd":13770,"Ġacid":13771,"lesssim":13772,"brains":13773,"^{+":13774,"***":13775,"})$,":13776,"ocused":13777,"preventDefault":13778,"Ġtoggle":13779,"ĠOCaml":13780,"three":13781,"Geo":13782,">');":13783,"ĠTheatre":13784,"oviet":13785,"Ġenforce":13786,"ĠRPC":13787,"GROUP":13788,"ĠDrag":13789,"Ġmyst":13790,"Ġgfx":13791,"Priv":13792,"1972":13793,"Ġdecode":13794,"fluid":13795,"irrep":13796,"bec":13797,"Ġfeeling":13798,"TLS":13799,"Ġtournament":13800,"Assignment":13801,"Ġ\"-//":13802,"~$\\":13803,"KG":13804,"PACK":13805,"Dao":13806,"ĠJr":13807,"ElementsBy":13808,"Ġclassic":13809,"Attach":13810,"pended":13811,"Ġmoments":13812,"Statistics":13813,"Ġkick":13814,"mel":13815,"ĠParliament":13816,"Ġlegacy":13817,"Css":13818,"Ġmedal":13819,",</":13820,"pied":13821,"OperationException":13822,"ĠPod":13823,"Prof":13824,"ĠStan":13825,"Ġelli":13826,"LED":13827,"vn":13828,"vp":13829,"iry":13830,"Ġjet":13831,"Absolute":13832,"Nil":13833,">';":13834,"inson":13835,"Ġelev":13836,"ĠOhio":13837,"Ġtight":13838,">(\"":13839,"Fatalf":13840,"Ġ*_":13841,"jit":13842,"144":13843,"processing":13844,"HD":13845,"ctl":13846,"Ġinitialization":13847,"ĠRepresent":13848,"modified":13849,"Ġkwargs":13850,"Ġ(@":13851,"ĠRev":13852,"ĠBrowser":13853,"ĠTemplate":13854,"GA":13855,"Ġpolitics":13856,"=\"../_":13857,"tras":13858,"ooper":13859,"1976":13860,"Ġkid":13861,"Rpc":13862,"Regex":13863,"ĠMess":13864,"GetString":13865,"ĠWilson":13866,"Ġmyself":13867,"South":13868,"Measure":13869,"!âĢĿ":13870,"ĠKnow":13871,"ĠRepublican":13872,"Ġnearby":13873,"Ġcreative":13874,"Ġwinner":13875,"118":13876,"roadcast":13877,"kh":13878,"Ġdates":13879,"Ġexcited":13880,"Catalog":13881,"STREAM":13882,"ÏĢ":13883,"|_{":13884,"Ġsouthern":13885,"ivot":13886,"DIRECT":13887,"Ġtraject":13888,")}}":13889,"Ġhardware":13890,"into":13891,"Ġrestriction":13892,"Ġphilos":13893,"Ġ##":13894,"Adv":13895,"Ġsister":13896,"Unable":13897,"Ġmarkets":13898,"Ġmanip":13899,"JavaScript":13900,"actic":13901,"Ġleaf":13902,"rand":13903,"Ġcitizens":13904,"ĠBritain":13905,"Deserial":13906,"Ġcounts":13907,"maining":13908,"Ġfired":13909,"Ġretail":13910,"Ġris":13911,"iga":13912,"ĠChildren":13913,"GT":13914,"extype":13915,"ĠPrime":13916,"nsylvania":13917,"Ġsuffix":13918,"Clock":13919,"Ġrepo":13920,"Ġcorrel":13921,"Ġrom":13922,"Ġupgrade":13923,"MF":13924,"Early":13925,"Ġsupposed":13926,"Ġmerged":13927,"ĠBOOL":13928,"rgb":13929,"Therefore":13930,"without":13931,"bench":13932,"ĠDub":13933,"Ãº":13934,"chant":13935,"Ð¹":13936,"=\"#\">":13937,"Unlock":13938,"Pal":13939,"ĠLiber":13940,"VIEW":13941,"prof":13942,"Ġcharges":13943,")?":13944,"Ġprivacy":13945,"æĹ":13946,"ĠSi":13947,"Include":13948,"Redirect":13949,"nodeType":13950,"spot":13951,"Ġcommut":13952,"rait":13953,"ĠTrack":13954,"ĠJewish":13955,"Ġauthority":13956,"jetbrains":13957,"ĠWhere":13958,"Ġrestart":13959,"Ġdecomposition":13960,"ĠGreek":13961,"Ġopinion":13962,")+\\":13963,"Ġlargely":13964,"Ġneutr":13965,"Ġblank":13966,"wi":13967,"Ġhex":13968,"getTime":13969,"usal":13970,"Party":13971,"Ġ'{":13972,"mov":13973,"encil":13974,"enda":13975,"Ġha":13976,"aya":13977,"toctree":13978,"UTE":13979,"DOWN":13980,"Multip":13981,"loating":13982,"1975":13983,"------":13984,"PROTO":13985,"Ġscores":13986,"holds":13987,"tensorflow":13988,"ordinates":13989,"Tax":13990,"ove":13991,"anna":13992,":@":13993,"Ġbelieved":13994,"Ġregardless":13995,"ippet":13996,"ĠEst":13997,"?</":13998,"ĠLow":13999,"Ġsensitive":14000,"ĠTrust":14001,"Ġescap":14002,"ĠLE":14003,"nobr":14004,"ĠNavy":14005,"Ġance":14006,"agation":14007,"Variables":14008,"implementation":14009,"Ġsatisfying":14010,"tiny":14011,"lux":14012,"Ġfloating":14013,"asp":14014,"question":14015,"WH":14016,"1977":14017,"240":14018,"Username":14019,"Ġending":14020,"Ġ$|\\":14021,"Ġmagazine":14022,"beat":14023,"Ġletters":14024,"Ġallocated":14025,"Ġps":14026,"lywood":14027,"Ġpng":14028,"Ġversus":14029,"'=>":14030,"TITLE":14031,"Ġ\"--":14032,"Ġcoinc":14033,"Ġshares":14034,"itionally":14035,"ĠPra":14036,"clic":14037,"Ġserves":14038,"Aff":14039,"ĠAUT":14040,"ĠSDK":14041,"TODO":14042,"ExternalTask":14043,"ĠSTR":14044,"Ġinternet":14045,"logic":14046,"decoration":14047,"ĠCollections":14048,"npm":14049,"Cut":14050,"opens":14051,"arith":14052,"ĠQt":14053,"Ġsurrounding":14054,"Ġwinter":14055,"scene":14056,"ĠShared":14057,"controls":14058,"managed":14059,"éĢ":14060,"CAP":14061,"ĠScript":14062,"('../":14063,"uckets":14064,"ple":14065,"absolute":14066,"Ġinstitutions":14067,"Ġ[]*":14068,"ĠCondition":14069,"NING":14070,"ashes":14071,"orient":14072,"Autom":14073,"MAKE":14074,"IMAGE":14075,"5000":14076,"orizon":14077,"ĠAgain":14078,"cline":14079,"Ġtruly":14080,"Images":14081,"fan":14082,"Ġphotograph":14083,"OPEN":14084,"ĠIterator":14085,"1974":14086,"ĠPA":14087,"ĠEN":14088,"ĠDar":14089,"Ġdiscrete":14090,"ĠPosition":14091,"reply":14092,"Ġowners":14093,"ĠTab":14094,"Ġcompression":14095,"LEN":14096,"ĠBOTTOM":14097,"maxcdn":14098,"verbose":14099,"ĠProfessor":14100,"ĠGC":14101,"activate":14102,"West":14103,"appy":14104,"Bag":14105,"bian":14106,"toms":14107,"baz":14108,"Ġtrunc":14109,"Ġapproved":14110,".(":14111,"á»":14112,"Ġacquired":14113,"versal":14114,"Ġcollections":14115,"Ġpredicate":14116,"(\",":14117,"sizing":14118,"White":14119,"ĠRandom":14120,"Ġownership":14121,"CMD":14122,"Attachment":14123,"GUI":14124,"itutional":14125,"Ġnorthern":14126,"}$)":14127,"gro":14128,"ĠCoast":14129,"Ġbid":14130,"ĠLabor":14131,"Decode":14132,"Ġrenderer":14133,"Construct":14134,"slot":14135,"Ġ{?":14136,"etary":14137,"Ġatomic":14138,"Ġvot":14139,"1968":14140,"Ġ(<":14141,"gems":14142,"\"</":14143,"Ġaf":14144,"San":14145,"Ġswe":14146,"moves":14147,"FD":14148,"]<":14149,"ĠWales":14150,"Sprite":14151,"Ġalignment":14152,"Ġplanned":14153,"elly":14154,"NP":14155,"train":14156,"ĠEth":14157,"assertFalse":14158,"ĠTHIS":14159,"inverse":14160,"Ġtracking":14161,"ĠADC":14162,"resolved":14163,"ĠMount":14164,"Shell":14165,"Alt":14166,"enth":14167,"Although":14168,"UK":14169,"resourceGroupName":14170,"Ġcro":14171,"aneously":14172,"ĠInterface":14173,"ĠToday":14174,"Patch":14175,"Ġherself":14176,"ĠGLuint":14177,"Ġregex":14178,"ĠÂ»":14179,"ordan":14180,"Ġprofiles":14181,"Permissions":14182,"Implicit":14183,"awt":14184,"ExternalTaskPojo":14185,"Serializable":14186,"LC":14187,"unters":14188,"1973":14189,"Ġkeyboard":14190,"ĠSummary":14191,"TARGET":14192,"ĠInstall":14193,"splice":14194,"CONNE":14195,"Ġclosely":14196,")-\\":14197,"Ġclosing":14198,"Through":14199,"ĠGeneric":14200,"ĠĠĠĠĠĠĠĠĠĠĠĠĠĠĠĠĠĠĠĠĠĠĠĠĠĠĠĠĠĠĠĠĠĠĠĠĠĠĠĠĠĠĠĠ":14201,"ĠDraw":14202,"Signal":14203,"Ġqualified":14204,"ulus":14205,"copyright":14206,"ãģ®":14207,"gable":14208,"Ġmigr":14209,"locals":14210,"ilbert":14211,"ĠIdent":14212,"ensors":14213,"SLS":14214,"ĠBrook":14215,")&":14216,"ĠhashCode":14217,"ĠINT":14218,"åľ":14219,"Ġbag":14220,"Ġlit":14221,"aki":14222,"Ġcontribute":14223,"dereq":14224,"constants":14225,"Ġpromin":14226,"Ġattended":14227,"'+":14228,"Ġvon":14229,"UMENT":14230,"many":14231,"ETH":14232,"RETURN":14233,"Ġ\":":14234,"rowColor":14235,"Ġexcess":14236,"Experi":14237,"Ġcomm":14238,"Ġbow":14239,"noscript":14240,"107":14241,">/":14242,"Ġbreaking":14243,"stdlib":14244,"tre":14245,"Ġbodies":14246,"brace":14247,"Ġrendering":14248,"Ġlocalized":14249,"Ġresearchers":14250,"ĠparseInt":14251,"Ġaccesskey":14252,"Ġprog":14253,"Ġles":14254,"channels":14255,"ĠDoes":14256,"inois":14257,"gem":14258,"Ġmit":14259,"PARAMETER":14260,"Commun":14261,"Ġhelping":14262,"Routing":14263,"Ġ();":14264,"fieldset":14265,"Ġproviders":14266,"colors":14267,"hbox":14268,"wing":14269,"Ġdelivered":14270,"Ġdrama":14271,"ĠBeach":14272,"Ġexposed":14273,"rob":14274,"IsNull":14275,"Ġsurg":14276,":}":14277,"Submit":14278,"Ġancient":14279,"Resize":14280,"National":14281,"Ġpowers":14282,"chester":14283,"Ġcouncil":14284,"ĠResources":14285,"ĠLatin":14286,"ORE":14287,"confirm":14288,"ĠTransaction":14289,"ĠBooks":14290,"Ġconcert":14291,"{};":14292,"detect":14293,"SPI":14294,"CONF":14295,"ĠGuard":14296,"ĠIMP":14297,"Ġdecide":14298,"ĠRod":14299,"Ġiron":14300,"Ġsensor":14301,"Å¾":14302,"MAG":14303,"Ġadvoc":14304,"fortunately":14305,"Ġbackend":14306,"Exchange":14307,">[":14308,"Ġcompiled":14309,"ĠExtension":14310,"Face":14311,"slf":14312,"Tokens":14313,"ĠWH":14314,"burgh":14315,"Ġdrivers":14316,"Small":14317,"peer":14318,"firstrow":14319,"Ġlose":14320,"Ġspl":14321,"Ġcru":14322,"Getter":14323,"ibilities":14324,"ropic":14325,"ĠHarr":14326,"uations":14327,"Ġmental":14328,"veral":14329,"achu":14330,"Ġarrived":14331,"ĠMos":14332,"Ġchapter":14333,"ĠJaco":14334,"Ġsuspect":14335,"awesome":14336,"Ġrefers":14337,"pto":14338,"ĠValueError":14339,"Ġguy":14340,"smart":14341,"Ġwhenever":14342,"layers":14343,"Ġ///<":14344,"Zip":14345,"Ġcomputational":14346,"Ġ//-->":14347,"Ġmarriage":14348,"Void":14349,"ĠCost":14350,"uning":14351,"SuppressWarnings":14352,"Ġactors":14353,"ĠPlace":14354,"ĠAsh":14355,"Ġadvent":14356,"Care":14357,"Ġtemperatures":14358,"utation":14359,"ĠEngineering":14360,"ederation":14361,"Attempt":14362,"ĠGi":14363,"Ġrecognition":14364,"DEP":14365,"Ġorth":14366,"ĠKong":14367,"Ġapart":14368,"Ġwouldn":14369,"Well":14370,"Ġcalendar":14371,"ĠMode":14372,"Ġorganized":14373,"ILED":14374,"Fire":14375,")',":14376,"ĠPriv":14377,"INPUT":14378,"health":14379,"Ñħ":14380,"via":14381,"1969":14382,"Manifest":14383,"Ġexperienced":14384,"]=":14385,"Ġcovers":14386,"Ġisset":14387,"ĠJersey":14388,"ĠSettings":14389,"Ġprecisely":14390,"uj":14391,"sharp":14392,"Views":14393,"syntax":14394,"Ġbrings":14395,"ĠInstance":14396,"rides":14397,"ĠScotland":14398,"Ġmesh":14399,"Ġrequirement":14400,"}})":14401,">()</":14402,"BT":14403,"arters":14404,"ĠOnline":14405,"Ġcrash":14406,"ĠFac":14407,"CONST":14408,"AW":14409,"ĠProfile":14410,"ĠBiden":14411,"Review":14412,"allenge":14413,"evt":14414,"Ġelections":14415,"tained":14416,"Frag":14417,"Ġdance":14418,"matical":14419,"ByteArray":14420,"]]></":14421,"FFFFFF":14422,"Dump":14423,"Ġmess":14424,"ĠLIMIT":14425,"DEVICE":14426,"onav":14427,";%":14428,">../":14429,"Ġfell":14430,"ĠContin":14431,"Ġteacher":14432,"vy":14433,"Ġ@{":14434,"Ġids":14435,"ĠAnalysis":14436,"WITH":14437,"Mobile":14438,"ĠCro":14439,"Cached":14440,"900":14441,"-\">":14442,"enario":14443,"Ġpresentation":14444,"ĠAdds":14445,"Ġfootballers":14446,"Actor":14447,"ipes":14448,"Opts":14449,"Ġbrows":14450,"Ġshut":14451,"Ġban":14452,"apore":14453,"ĠStory":14454,"Ġadvice":14455,"dtype":14456,"Ġcoins":14457,"acer":14458,"nan":14459,"itecture":14460,"115":14461,"PB":14462,"NAMESPACE":14463,"VR":14464,"Ġdescribing":14465,"Association":14466,"bio":14467,"Ġimpl":14468,"Ã¡n":14469,"ols":14470,"Ġsigns":14471,"Ġcrew":14472,"mediawiki":14473,"Ġdy":14474,"Ġunexpected":14475,"prising":14476,"oster":14477,"ĠAtomic":14478,"DISABLE":14479,"Ġ\"\");":14480,"irms":14481,"ĠCamb":14482,"herits":14483,"rovers":14484,"ynamics":14485,"Ġdecrease":14486,"Initialize":14487,"ĠModal":14488,"Ġfort":14489,"ĠFair":14490,"stdout":14491,"ifecycle":14492,"Ġhaven":14493,"103":14494,"IDENT":14495,"ido":14496,"Ġ'../":14497,"Ġproduces":14498,"books":14499,"ĉĉĉĉĉĉĉĉĉĉĉĉ":14500,"templates":14501,"Ġthin":14502,"gar":14503,"Ġoperate":14504,"Ġtopics":14505,"wire":14506,"Sep":14507,"Ġstrip":14508,"Ġdecimal":14509,"VA":14510,"syn":14511,"Ġengineering":14512,"Ġdevelopers":14513,"ĠStock":14514,"Ġconsequence":14515,"Blue":14516,"Ġdepict":14517,"ĠFI":14518,"luet":14519,"ĠCulture":14520,"'}),":14521,"faster":14522,"USED":14523,"Ġappreci":14524,"nodeName":14525,"hdr":14526,"Stmt":14527,"aga":14528,"*.":14529,"undef":14530,"Ġalongside":14531,"Closed":14532,"Ġcp":14533,"Ã©s":14534,"ĠThrough":14535,"Btn":14536,"ĠRh":14537,"NOWN":14538,"matics":14539,"outline":14540,"stood":14541,"aba":14542,"zabeth":14543,">)</":14544,"ĠResults":14545,"bridge":14546,"Ġnamely":14547,"Ġcollaboration":14548,"Ġdatasets":14549,"solid":14550,"Ã¸":14551,"åĽ":14552,"Â°":14553,"rehensive":14554,"Protos":14555,"Ġallocation":14556,"ĠĠĠĠĠĊ":14557,"ĠExperi":14558,"Ġphotos":14559,"ĠWis":14560,"Added":14561,"Ġconfigurations":14562,"Launch":14563,"0001":14564,"allest":14565,"ĠEntry":14566,"ĠCell":14567,"erring":14568,"Ġmovies":14569,"++]":14570,"Ġheav":14571,"ĠOpt":14572,"Ġpor":14573,"ĠKent":14574,"ĠChecks":14575,"Ġarmy":14576,"LEFT":14577,"pick":14578,"customer":14579,"Ġderivative":14580,"ĠEmpire":14581,"Ġgirls":14582,"Disable":14583,"ĠConsider":14584,"ĠPlugin":14585,"Ð¸ÑĤ":14586,"udd":14587,"analytics":14588,"Ġdiscrimin":14589,"Ġrunner":14590,"transfer":14591,"Ġpractical":14592,"Plot":14593,"NER":14594,"))$":14595,"ĠSecretary":14596,"ipage":14597,"Ġserialized":14598,"ĠSmall":14599,"Ġ){":14600,"tb":14601,"Ġcolour":14602,"Ġsubjects":14603,"mr":14604,"apters":14605,"Ġhosts":14606,"ï¿":14607,"Ġneither":14608,"Ġmapped":14609,"Ġstands":14610,"Ġlift":14611,"ĠBattle":14612,"\">(</":14613,"Issue":14614,"heap":14615,"\">&#":14616,"Aud":14617,"cycl":14618,"opher":14619,"(\"[":14620,"uffle":14621,"Toolbar":14622,"ĠAndrew":14623,"ĠCreated":14624,"ASK":14625,"1234":14626,"ĠMeta":14627,"ĠEvents":14628,"favicon":14629,"ĠBSLS":14630,"Ġreflection":14631,"Ġboundaries":14632,"undles":14633,"Ġfrequently":14634,"Ġemergency":14635,"ĠPennsylvania":14636,"izard":14637,"LOBAL":14638,"×ª":14639,"bone":14640,"Ġment":14641,")--(":14642,"Ġinstanti":14643,"Ġorbit":14644,"×Ķ":14645,"buttonElement":14646,"ĠDATA":14647,"ONLY":14648,"Ġcash":14649,"Ġequilibrium":14650,"FLOAT":14651,"Ġnic":14652,"Ġlemma":14653,"Ġseemed":14654,"ĠKorea":14655,"Ġele":14656,"States":14657,"Ñĸ":14658,"lb":14659,"Ġplugins":14660,"Foreign":14661,"Ġsink":14662,"Ġessentially":14663,"Ġfindings":14664,"luetooth":14665,"Ġrepresentations":14666,"capture":14667,"EventHandler":14668,"finish":14669,"boss":14670,"}{|":14671,"minipage":14672,"Ġweekend":14673,"$:":14674,"charset":14675,"Ġblow":14676,"orange":14677,"Ġinstallation":14678,"Ġdrawing":14679,"scious":14680,"Proof":14681,"race":14682,"ratio":14683,"Ġsparse":14684,"005":14685,"Ġwatching":14686,"licas":14687,"Ġmk":14688,"swer":14689,
[...]
