#version: 0.2
Ġ Ġ
Ġ t
i n
Ġ a
h e
e r
o n
ĠĠ ĠĠ
r e
a t
Ġt he
e n
o r
Ġ s
a n
e s
i s
i t
a l
Ġ c
Ġ w
Ġ o
a r
e d
Ġ f
in g
n d
Ġ p
Ġ b
i on
o u
i c
Ġ in
Ġo f
l e
a s
Ġ m
Ġa nd
Ġt o
r o
Ġ d
ĠĠ Ġ
en t
ĠĠĠĠ ĠĠĠĠ
Ġ h
c t
e t
s t
i l
e l
o m
Ġ S
Ġ re
Ġt h
a m
Ġ n
â Ģ
Ġ C
Ġ T
i d
Ġ l
Ġ A
o l
u r
Ġ e
u t
a c
o t
Ġ (
at ion
i m
i g
a d
i v
Ġ M
Ġ I
Ġ g
u s
a y
Ġ is
Ġf or
o w
l y
c e
Ġ on
Ġ P
er s
u l
Ġ B
c h
Ġb e
Ġs t
a g
u n
e m
i r
ĠĠĠĠ ĠĠĠ
i f
o d
t er
it h
s e
Ġ v
2 0
Ġ D
Ġ R
Ġ H
u m
t h
Ġth at
a v
Ġ =
p e
a b
es t
is t
at e
Ġ F
Ġa s
he r
Ġw ith
Ġ L
v er
Ġc on
Ġ W
an d
o c
a p
Ġ N
ĉ ĉ
Ġa l
e w
Ġa n
o p
Ġ G
Ġ y
âĢ Ļ
q u
r i
Ġ it
h t
ĠT he
Ġ E
) ;
es s
Ġw as
Ġ <
Ġp ro
re s
Ġw h
ou r
a in
or t
il l
= "
- -
o s
Ġ {
Ġ r
Ġa t
ro m
Ġ he
it y
Ġd e
ct ion
1 9
Ġc om
k e
Ġb y
en d
o re
u b
u p
as s
Ġ J
ar t
am e
/ /
Ġ O
l d
e x
Ġe x
m ent
Ġ or
n t
< /
i es
Ġ "
p t
al l
ĠĠĠĠĠĠĠĠ ĠĠĠ
Ġa re
Ġ *
u e
Ġf rom
an t
Ġ âĢ
Ġs e
iv e
Ġ $
p l
ag e
in e
u d
ig ht
o g
e ct
t r
Ġth is
Ġc l
ac k
u st
u re
i al
č Ċ
p ort
ar d
Ġ U
b er
Ġt r
av e
o v
Ġc h
g e
Ġ }
an s
c l
r ou
Ġs h
. .
Ġn ot
T he
' s
i z
ou t
el l
0 0
Ġw e
i p
f f
as t
i a
o st
ur n
ul t
a ct
Ġ K
Ġ \
ar y
p er
a re
a k
Ġ us
Ġp l
Ġ le
at ed
20 1
Ġy ou
o k
e f
or m
" >
c on
ic h
ab le
e ar
i re
ĠĠĠĠĠĠĠĠ ĠĠĠĠĠĠĠĠ
on g
Ġh ave
in d
ic e
or d
ĠI n
ou ld
id e
( )
or k
ĠS t
* *
c om
ĠĠĠĠ Ġ
ic al
Ġ V
Ġ j
ion s
Ġh as
Ġ if
in t
ac e
Ġh is
ig n
as e
e p
Ġa b
im e
i le
ex t
Ġ -
at h
Ġre s
t urn
Ġ k
Ġcom p
u c
e g
a il
Ġal l
Ġc an
Ġin t
it e
t her
i an
Ġw he
en ce
âĢ Ŀ
r y
i b
er v
g et
Ġa d
y pe
ou s
I n
an g
Ġ '
ĠC h
ub l
er e
on e
Ġ &
Ġ un
Ġcon t
-- --
e c
s o
ation s
en s
Ġn ew
an ce
e v
g h
u nd
od e
ou nt
Ġcl ass
om e
r a
or y
Ġb ut
Ġa r
Ġwh ich
Ġw ill
o b
= =
Ġ im
) ,
f orm
il d
it ion
ĠT h
st r
en c
ent s
Ġa p
l i
o ok
res s
Ġo ut
Ġthe ir
at a
Ġg o
j ect
l l
p ro
Ġd o
Ġ Ċ
s p
Ġa c
Ġ up
is h
) .
ac h
ow n
m er
Ġw ere
f er
u g
ar k
Ġwh o
Ġ Y
on t
u al
Ġon e
ubl ic
ou nd
Ġthe y
ter n
20 0
Ġm e
er t
ro w
Ġre turn
in k
re e
or s
oc k
ĠĠĠĠĠĠĠĠ ĠĠĠĠĠĠĠ
ĠâĢ ľ
a ke
Ġ |
ir st
Ġm ore
Ġ en
Ġal so
1 0
ic k
n e
Ġs c
t e
Ġd is
he d
Ġm an
r it
Ġp er
Ġe v
ic t
Ġp art
c ess
Ġ //
s s
f t
Ġp r
o se
al ue
el f
Ġ her
ing s
re f
Ġa g
Ġh ad
el y
o ol
Ġ [
ay s
am p
Ġs o
1 8
ol l
ul l
Ġo ther
Ġit s
ĠâĢ ĵ
a w
i ew
ĠI t
p h
at es
Ġw ork
Ġy ear
Ġs p
cl ud
Ġt e
Ġab out
S t
- >
ri b
ĠH e
un ction
Ġbe en
u ct
ol d
Ġst r
Ġp re
n g
ĠU n
Ġ qu
f ter
: :
in al
w o
er y
Ġl i
u ch
_ {
at er
Ġ @
le ct
" ,
Ġg et
our ce
Ġo ver
Ġn e
p s
w e
an c
ĉĉ ĉĉ
i e
et h
pe c
i el
Ġ /
y st
is s
Ġf irst
Ġt ime
Ġ< /
op le
Ġp e
on s
ation al
us e
pt ion
Ġs a
s h
Ġ ro
o y
s c
en er
on d
ic s
ar am
er m
E x
Ġof f
Ġwhe n
p r
iz e
Ġre c
l es
Ġw ould
re at
pe ct
.. /
Ġd es
o ver
i o
ad e
iel d
em ber
ig h
o int
Ġin d
Ġpl ay
r am
Ġcom m
t t
Ġint o
Ġan y
Ġp ublic
Ġy our
v e
v el
ĠA r
Ġde f
l o
Ġas s
Ġ +
Ġo ur
Ġth an
Ġ und
a x
Ġs up
i x
Ġk n
yst em
Ġs et
Ġthe re
1 2
p ut
Ġthe m
Ġs ome
i ed
( "
( );
Ġs he
re d
ĠC om
r ap
i ous
rou nd
Ġt wo
y s
iv ers
Ġn ame
ol og
le ment
Ġin clud
Ġin ter
ĠN ew
l and
n ing
ov e
Ġpe ople
m l
t y
if ic
s et
E R
Ġ .
' ,
e b
as ed
al ly
ess age
Ġa ct
al s
Ġv ar
Ġb et
er r
{ \
or ld
Ġn o
Ġo b
Ġsa id
---- ----
it ed
Ġon ly
ar ch
is e
Ġad d
tr ing
an ge
w ard
Ġa fter
id ent
em ent
Ġf e
Ġli ke
Ġf unction
am es
âĢ ĵ
Ġo p
ĠP ro
it ies
ap p
c re
Ġa m
Ġ| |
** **
Ġre g
p os
Ġ* /
Ġ :
rou p
o ot
1 5
ar g
at ch
1 6
Ġund er
T h
at ing
ĠTh is
Ġc ol
w n
le t
at ive
Ġ end
ĠS e
u ild
f r
rou gh
d iv
o id
n c
ur ing
sp an
I N
an k
> </
i ent
Ġin v
Ġm y
ul ar
t he
u es
19 9
Ġs ub
Ġwh at
ĠT r
mer ic
Ġe m
Ġpro v
Ġm od
P ro
Ġcon s
as h
O N
Ġs erv
Ġj ust
Ġb l
1 1
Ġb ack
ou gh
c k
e k
m a
r ay
or n
ar s
an n
Ġtr ans
en g
Ġat t
o od
m s
: //
Ġwhe re
um ber
ow er
t o
Ġm ay
ke y
al e
rib ut
2 1
Ġre l
a use
Ġh im
c he
an y
it t
Ġ #
Ġf il
Ġm ost
Ġre m
il y
Ġh ow
enc es
Ġp os
Ġ$ \
at or
Ġe ver
f ig
Ġbe c
ur re
at ic
l ine
e ad
ĠS h
ĠA l
ot h
u res
ic es
> <
ire ct
Ġth rough
t on
Ġst ud
it s
ĠĠĠĠĠĠĠĠ ĠĠĠĠĠĠĠĠĠĠĠ
il ity
== ==
a h
e qu
.. .
Ġp ol
ĉĉ ĉ
if e
oll ow
Ġs pec
a ir
in s
Ġpro d
th is
ch ool
Ġl oc
Ġc all
re n
1 7
ĠĠĠĠĠĠĠĠ Ġ
R E
Ġd ata
Ġp h
_ _
p on
ĠW e
( '
Ġb r
Ġd if
t s
ib le
o x
con d
Ġyear s
re ad
../ ../
as on
Ġ ent
Ġre qu
res ent
Ġthe n
C h
ut h
3 0
Ġf l
) )
Ġ el
m an
v ent
N ame
d er
o h
n ame
a z
ist s
le ction
el s
m ath
g an
Ġus e
in es
Ġag ain
in ce
ĠA n
ers on
Ġt ype
ĠC l
Ġne ed
Ġsh ow
1 4
ht ml
we en
c c
h ip
t ext
Ġres ult
at t
Ġs uch
Ġv alue
is hed
Ġthe se
Ġw ell
T ype
ĠA meric
Ġc o
l ed
Ġc ould
d ay
Ġus ed
ot her
b le
i er
w w
eth od
c ent
n er
S T
is ion
rap h
ag es
I D
Ġg r
1 3
he n
p aram
y m
at ure
âĢ ľ
A T
2 5
ivers ity
u ction
ĠW h
s on
r al
C on
Ġac c
urre nt
u ff
oc i
f ul
d d
Ġfor m
im port
w ay
Ġh ref
Ġst art
Ġf ollow
C om
al se
Ġl ine
Ġbet ween
Ġ i
id er
Ġd r
. âĢĿ
ou se
' t
Ġn ow
} }
S tring
ac he
re turn
tr ans
I d
ment s
ri pt
f l
Ġs elf
as k
Ġbe ing
C ont
s ource
al th
r ight
Ġ Z
Ġin st
Ġ Q
20 20
f ore
c ol
e y
im es
u ary
Ġch ar
v iew
Ġsh ould
ĠS c
in ed
o f
m essage
pl ic
Ġd ist
Ġman y
ak ing
Ġar t
em b
00 0
Ġe ff
A R
ht t
or th
Ġl ong
ĠE x
a u
i k
Ġc re
Ġc ount
iv es
Ġever y
R ef
ĠI nd
Ġkn ow
Ġd id
et s
Ġs m
i ence
m in
form ation
p le
Ġcon st
t d
Ġr ight
t ing
ant s
19 8
er n
I t
Ġdif fer
ĠD e
ĠA nd
C l
Ġs er
a ult
Ġ !
Ġs ystem
Ġm ake
Ġo wn
Ġ ed
# #
d ef
O R
Ġbe fore
l ation
iz ed
Ġs ign
um ent
p ress
Ġt est
Ġf ound
ce ption
R es
Ġhe l
ut ion
e e
Ġs ur
od y
olog y
t ain
Ġh igh
Ġg u
ĠC on
s elf
ĠF or
at her
Ġm ade
A r
Ġm on
Ġg ener
ad d
ab el
^ {
is m
Ġf am
us s
in ess
Ġd et
ou th
ire d
ers ion
Ġm in
e ver
Ġwh ile
Ġte am
Ġev en
Ġre ad
r ic
t en
Ġe ar
Ġ= >
a j
Ġm ed
c ode
Ġsup port
iv er
E N
Ġl ook
Ġbec ause
it le
g ram
A L
o le
Ġn umber
ĠC ol
Ġse e
b y
iv ate
5 0
ce pt
Ġc ent
. "
or g
Ġle ad
al k
t ype
Ġ _
y le
ĠF r
vel op
Ġp oint
Ġs im
Ġw orld
Ġd uring
Ġf inal
f o
ch n
} \
b ack
Ġde velop
Ġde c
/ >
u le
2 2
Ġl ist
Ġw ay
iv ing
re am
cl ass
Ġv ery
Ġdo es
ĠI s
are d
Ġl ast
b r
) :
} $
ur y
it al
Ġb el
es c
Ġth ree
Ġex per
tern al
ro ss
b all
T r
L ist
ĠUn iversity
y p
in a
us iness
ĠA s
Ġd own
Ġb oth
Ġe ach
2 4
Ġo per
Ġs ame
ĠP h
Ġh and
p re
L E
e le
} ,
Ġ= =
ot e
Ġr un
Ġc ase
ro l
Ġc or
Ġn ull
w ork
19 7
Ġm ov
is ter
Ġv al
" />
ĠP l
v al
ĠM ar
en se
et er
ĠB l
um m
ical ly
Ġth ose
b l
us ic
ĠY ou
ual ly
g y
Ġc r
ot t
âĢ ¦
Ġse cond
Ġhel p
Ġv oid
Ġtr ue
ut e
Ref er
ur al
Ġre le
ĠB r
ĠJ an
a ction
Ġst ate
ĠP r
Ġm uch
Ġ est
ĠS he
Ġc ar
A N
ar m
are nt
Ġc he
Ġcomm un
Ġa v
Ġgo od
Ġex t
Ġw rit
o ber
ion al
c o
ĠCom m
uc k
Ġd irect
S S
eg in
s er
t il
Ġd on
. ,
c es
Ġel se
Ġdis c
oh n
Ġf ind
Ġ err
Ġre port
Ġb uild
Ã ©
Ġ `
, âĢĿ
ĠâĢ ĺ
Ġth ink
ĠR es
enc y
Ġre p
ĠO n
t a
W e
ĠâĢ Ķ
iv en
y n
Ġw ant
v ar
Ġf r
if ied
n ess
Ġcont in
m od
iv ed
Ġc ap
Ġch ild
eng th
ist ory
trans lation
Ġs l
ĠL e
Ġm ark
ĠR e
Ġhe re
ar get
ain s
ak es
Ġ >
g ht
ĠM ay
ĠS p
T o
Ġg l
2 3
iz ation
as es
Ġp ass
per ty
iss ion
W h
ĠAmeric an
le y
i ev
Ġ )
Ġdiffer ent
p ar
ĠA d
( \
Ġagain st
m ed
en n
Ġin formation
Ġinclud ing
pon se
Ġp erson
Ġl ife
Ġper form
ĠI f
om en
ĠE ng
ro p
r on
m e
un e
Ġg ame
if y
str ing
et y
amp le
com e
Ġop en
Ġst ill
ou nc
Ġus ing
Ġs ing
al ity
g er
Ġc urrent
Ġap pro
f or
) );
v en
b ject
Ġf alse
at s
I T
uth or
b egin
Ġl ink
Ġhe ad
"> <
re en
19 6
**** ****
Ġc are
Ġpart ic
Ġrec ord
Ġb ook
Ġa round
Refer ences
Ġwe ek
ro ll
Ġim port
Ġm ain
Ġp op
Ġs ol
3 2
ĠA ll
Ġt ake
Th is
l oc
b s
4 0
Ġs chool
an e
n ment
qu e
r r
Ġap p
Ġp at
Ġv is
-------- --------
ar n
ist r
av a
1 00
d uc
ĠO r
u ro
Ġd ay
Ġpro cess
um p
Ġim p
pl ay
ĠUn ited
Ġto p
ĠĠĠĠĠĠĠĠĠĠĠĠĠĠĠĠ ĠĠĠĠĠĠĠ
b e
ĠB ut
Ġgo ver
s ide
Ġf act
Ġc our
ir d
Ġp ost
id th
ial ly
B y
o ad
l er
o ard
Ġdes c
le ar
us h
Ġcon d
Ġs om
Ġan n
at us
Ġ X
d ata
A C
ĠA ss
O n
erv ice
Ġb re
end s
A n
ĠH ow
i um
U n
i or
Ġdes ign
Ġ --
c al
he re
et a
op t
Ġe qu
Ġprov id
Ġg roup
m p
r ist
it ions
Ġ ke
Ġap pe
ur s
ain ing
Ġb est
n ew
Ġpro gram
S E
V alue
Ġre ce
uc cess
ow s
Ġs ince
Ġd el
con t
ill ion
a i
D ata
ĠN ov
d ate
Ġ x
C ol
// //
Ġf ield
" );
os s
p or
Ġf our
tern ational
20 19
Ġpr ivate
Ġp res
Ġpro t
Ġf in
re g
2 6
Ġde p
b ar
ĠC ent
av ing
ĠM an
2 8
Ġs ay
l ess
ĠJ ohn
is ed
l ish
Ġpl ace
ot s
ĠThe y
ĠU S
2 7
A s
ĠĠĠĠĠĠĠĠ ĠĠĠĠĠ
Ġpro f
o pe
201 8
lo ad
og raph
pl oy
Ġstr ing
le x
Ġeff ect
a f
Ġex pect
Ġad v
v alue
u ly
Ġm ust
v ious
ĠC ount
ĠC an
f ace
Ġse ason
201 6
_{ \
oc ial
ĠG r
Ġn ext
Ġb usiness
ac y
ect ed
Ġre f
Ġev ent
Ġl aw
201 7
Ġfam ily
ĠC ar
Ġm et
Ġh ome
he ad
le ft
S h
um n
ac es
Ġor der
emb ers
Ġm ethod
Ġ/ **
Ġsm all
Ġor gan
ag er
l abel
Ġre al
Ġor ig
Ġn on
a ff
ĠB e
t ime
it or
ĠA p
ur ch
ul ation
n ot
Ġob ject
Ġg reat
as ter
Ġp ower
Ġ key
g r
Ġ id
Ġis s
} {
Ġpos s
" )
un c
et work
com m
am b
th s
Ġin cre
id d
Ġst and
Ġw in
Ġle vel
ust om
Ġo pt
Ġte chn
Ġchar act
Ġloc al
p ed
ĠĠĠĠĠĠĠĠĠĠĠĠĠĠĠĠ ĠĠĠĠĠĠĠĠĠĠĠĠĠĠĠĠ
I C
ir c
Ġex pl
ĠO ct
f ield
Ġfollow ing
Ġo ld
Ġfil m
ail able
ĠĠĠĠ ĠĠ
ĠT e
201 5
) $
Ġ& &
S et
l ing
2 9
re qu
re m
Ġt erm
Ġb ro
port s
F or
umm ary
str uct
oc ument
M E
a pe
en e
âĢ Ķ
Ex ception
at ely
er ing
ra w
ĠA ug
ri es
fer ence
Ġle g
Ġle ft
se arch
op y
w ays
it em
Ġs ays
] ;
D E
ĠA ust
] ,
v ir
ol v
Ġpro ject
i ans
Ġ// /
ĠP ol
Ġan other
Ġb u
iv ely
m y
ĠW orld
at ter
Ġp resent
I nd
he s
um b
s ub
um an
Ġl ater
==== ====
our n
ord s
201 4
tr act
ou ght
i am
Ġd em
O bject
G et
Ġser ies
C O
R O
Ġcall ed
ang u
or ies
w it
Ġs k
H e
20 21
Ġoff ic
ĠA t
rr or
in ation
ug g
aj or
g o
Ġar g
Ġcons ider
Ġst atic
o in
ar ge
( $
ĠN ational
Ġkn own
Ġwith out
a im
p x
ro id
ĠJan uary
ab ility
ĠM ed
Ġh tt
Ġse ver
ord er
Ġcomp any
ĠSt ates
ne y
Ġ! =
m ber
Ġm usic
Ġinv est
in c
o ff
Ġf oot
ate g
Ġgo ing
ĠA pr
Ġa ut
htt p
ide o
Ġe lect
ent ial
end ed
g round
Ġ Â
S e
ic le
Ġg iven
C T
3 3
n b
ward s
Ġplay ers
ĠY ork
Ġhe alth
ww w
ob al
ou n
it er
A l
ĠT o
Ġinter est
Ġre ally
ĠG u
w are
Ġf ew
ain ed
Ġv iew
Ġs pe
Ġ %
Ġpol it
al es
Ġun til
itt le
ri ption
ĠS tring
r ite
Ġto o
Ġtr y
Ġex p
Ġbe h
fr ac
ĠM arch
Ġwith in
ĠS chool
con om
og le
b um
201 3
on y
Ġb ased
Ġt itle
() .
Ġt ri
ail s
ĠE d
t est
ction s
Ġen g
iv al
Ġch ang
v ers
ic y
le g
ent ly
pt ember
ar r
Ġt urn
Ġ z
L L
ag ue
T est
ition al
' )
ĠC O
Ġl a
iv id
ord ing
is on
Ġh app
ĠM in
Ġp ar
a it
ce mber
Ġin it
uff er
Ġn ear
l ist
ap t
a ut
st and
6 0
S c
our ces
Ġt em
ĠS outh
om an
201 2
em s
ver t
ep end
. _
ight s
ur ity
Ġre t
ic a
u k
it ive
ĠF l
ore d
nb sp
Ġserv ice
e q
ain t
f ile
M od
oc us
Ġgover nment
ĠD r
un g
ag ement
ĠN o
Ġg row
() );
Ġs uccess
Ġmod el
Ġare a
uro pe
Ġm ult
ĠG e
l og
Ġre d
E D
Ġav ailable
i ents
if t
Ġo cc
Ġor g
ĠJ une
ĠC o
um er
ut il
6 4
s ize
Ġall ow
ĠThe re
I m
che s
19 4
htt ps
g in
Ġac cess
Ġp ut
am ed
os p
ĠSt ate
I ON
Ġne ver
ĠW ar
Ġres p
Cl ass
r m
ĠOct ober
f e
ar i
ĠCh rist
il t
th ing
ĠCount y
ĠF eb
our s
Ġ et
Ġde ath
Ġan al
and s
ert ain
Ġb ig
le ge
Ġin s
] .
ĠAug ust
f unction
Ġal ong
ĠJ uly
u it
Ġstr uct
E rror
anc es
ĠC ity
" .
A P
ĠSe ptember
201 0
Ġf ull
ĠApr il
R e
loc ation
ĠC al
Ġ ident
ess ion
end ing
u ed
is ing
} )
vir on
A S
ĠNov ember
w h
ur ation
A p
ib r
19 5
Ġde v
ĠA b
y l
Ġch ange
ent ion
ĠDe cember
l ink
i od
ĠR eg
Ġprod uct
ribut e
ap s
Ġa ff
Ġpro m
Ġlink s
Ġre st
Ġ ,
ur ther
201 1
eth ing
ific ation
8 0
ag n
ard s
Ġcon f
ĠR ep
ĠB rit
um e
Ġf ile
Ġm embers
Ġs ong
r c
Ġth row
u ce
Ġw omen
Ġl im
Ġqu est
Ġe lement
s ummary
is k
V iew
Ġle t
3 5
Ġear ly
Ġf ac
Ġpro ble
ure d
c ast
Ġact iv
ab ly
Ġst ory
Ġl ess
Ġorig inal
Ġrequ est
N ew
Ġs ize
Ġcont ent
W ith
ut ure
Ġinclud e
Ġb o
on es
Ġchild ren
' );
al f
ĠS up
read y
angu age
Q u
K ey
ĠN orth
Ġbet ter
c ed
Ġvar i
u f
Ġsh ort
il es
Ġcount ry
Ġm ajor
Ġc ity
Ġsever al
Ġg ot
Ġp aram
I S
ĠAust ral
3 1
ĠW ill
ĠE n
ĠE urope
ĠM c
a us
$ .
R equ
ur l
Ġm ar
Ġcom e
c ite
t op
Ġpl an
E S
b ut
Ġf ree
ĠP art
st it
Ġw on
Ġw ater
ind ex
p ublic
i ke
Ġas k
Â ł
Ġt arget
Ġest ab
Ġt ext
Ġsing le
Ġrep resent
" ;
" :
Ġf ri
Ġt yp
Ġal bum
plic ation
ĠS o
id es
Ġdesc rib
Ġp ubl
sc ript
Ġl and
[ '
ater ial
Ġf ore
ra ft
A ll
il ar
s w
d a
ĠP ar
ear ch
Ġcont rol
Ġd ays
A nd
ĉĉĉĉ ĉ
H E
Ġs it
Ġe as
Ġm ight
r uary
et ing
N ot
P l
Ġcl os
math b
art ment
em pt
Ġke ep
. </
d is
Ġc amp
Ġin c
ict ion
ev el
Ġimport ant
in clud
it her
Ġl arge
M an
at ors
ist or
, "
Ġh ard
d e
Ġstud y
ad a
il it
Ġd ue
Ġal ways
p ace
col or
re w
$ ,
Ġcommun ity
U R
Ġd i
Ġ ide
at ures
ĠA m
Ġche ck
ag ed
Ġof fer
i que
I nt
() ,
Ġ ?
re et
lect ed
b ox
viron ment
Ġm en
ĠC he
T R
h am
Ġresult s
Ġsom ething
ph a
Ġcre ate
Ġst at
P E
ĠC ont
ĠW ith
Ġp ay
Ġh istory
3 4
F ile
ir l
Ġprod uc
p ath
} .
Ġv ersion
Ġth ings
Ġa uthor
Ġbec ame
ĠI m
ens ion
b ook
Ex ternal
one y
Ġm illion
A D
u i
P h
T ime
ĠG erm
im ate
Ġto t
am ent
ul es
ĠR ev
Ġl og
ĠP res
Ġl ittle
ou ble
equ ation
U T
j s
nd er
ĠA g
per t
ack age
Ġcharact er
A dd
Ġs ide
st er
c her
s erv
Ġc ell
E vent
et ers
Ġp ort
ĠTh at
Ġac ross
Ġbre ak
ect or
pos ed
re t
ir t
ol ution
Ġs ocial
"> </
Ġv ol
ĠO ff
press ion
an a
Ġt imes
ap er
Ġan t
O r
9 0
o ice
n av
Ġ );
IN G
g ress
Ġ/ >
v es
Ġfor mer
Ġp o
pl es
Ġal ready
Ġass ert
I f
ĠFeb ruary
L A
Ġcon c
Ġind ust
Ġto ok
Ġp ath
E lement
Ġex ample
Ġfe el
Ġc ost
ag s
Ġb as
er al
ĠC or
ĠE l
her n
I s
d own
ĠĠĠĠ Ċ
Ġfoot ball
Ġme an
ri ed
Ġst yle
/ *
200 9
O T
Ġc over
Ġre search
Ġcomp let
ĠM e
Ġ enc
Ġwork ing
, \
Ġa ir
str uction
ic ro
p ly
id ence
Ġc rit
Ġpr act
Ġf und
Ġspec ial
Ġerr or
3 6
Ġse c
Ġyou ng
3 7
ĠG l
' ]
i ef
Ġf ar
E n
ur g
end er
i ol
ĠW est
D ef
Ġa way
Ġbel iev
Ġim pro
Ġme as
Ġl ove
Ġc ult
a e
ĠAr t
ĠHow ever
ail ed
ĠNew s
Ġed uc
z e
com p
p en
Ġg ames
9 9
ar ing
ĠB y
200 8
Ġc lear
ĠA c
ak en
math cal
Ġh ouse
Ġm aking
Ġb ir
In fo
Ġh uman
Ġtr ad
Ġserv ices
/ **
ab or
Requ est
in o
B l
N ode
ĠA ct
O ver
Ġprov ide
Ġl ot
a ul
' :
ind ow
con st
Ġem ploy
ivid ual
4 5
Ġpre vious
ond on
Ġcl aim
ĠS ystem
Ġpos ition
t able
Ġbe come
Ġle ast
ĠB ar
Ġh aving
F ield
Ġtr ack
Ġl arg
n ow
l ength
op s
Ġstud ents
st ance
Ġre view
Ġcomp et
op h
em ic
Ġf ive
Ġp ast
Ġe p
E T
E qu
n ers
ec ut
p art
Ġof ten
in ter
h old
ĠCom p
Ġdevelop ment
Ġs ite
d om
Ġam ong
A t
Ġp ot
I G
Ġc ustom
Ġab le
ĠS er
Ġar r
Ġh old
Ġadd ress
T ext
le v
ĠQ u
Ġh ig
ourn al
Ġass oci
Ġli k
Ġr ad
g roup
ĠG o
Ġb ase
Ġc ame
ĠA fr
Con fig
St ate
F F
ap an
Ġbl ock
3 9
ĠD av
Ġph ot
Ġper iod
ign ed
ĠK ing
B ut
Ġus er
V ID
get her
Ġto gether
Ġw ar
le te
! --
Ġ/ *
od es
ic on
P ath
ib ility
av el
ĠP ark
ac ed
=" ../../
us er
ĠO ne
ole an
Ġpartic ular
ip s
ĠE m
3 8
as c
Ġm at
7 0
Ġposs ible
U S
s k
al t
ill s
u x
Ġexper ience
err or
og n
ing ton
Ġsp ace
ĠW hen
ou d
ys is
Ġro le
ok en
Ġex ist
## ##
ĠP er
id s
if f
r ide
ĠA fter
w idth
ĠR ec
F orm
ĠH ouse
Ind ex
Ġrele ased
Ġa ction
Ġl ight
Ġplay ed
Ġm ember
A M
n a
l ang
} (
id ge
g l
m d
o on
ĠD is
ĠI I
Ġt alk
Ġl ow
ĠH is
Ġrequ ire
Ġg en
er a
Ġe conom
m ost
ap i
il le
Ġn ational
Cont ext
p oint
Ġn etwork
Ġf ocus
Ġcom b
Ġth ought
Wh at
P aram
th ough
Ġs ix
um ents
oc r
Ġwe bs
Ġj ob
() )
b ody
Ġth ird
Ġr ange
le ase
Ġd om
re l
amp ions
0 1
p ing
Ġres ponse
P r
Ġacc ount
Ġstr ong
ac c
ograph y
e h
Ġv ideo
Ġr a
Ġar ray
Ġg ive
Ġa ge
Ġp arent
g ed
Ġb ody
Ġs ource
re st
u ation
ĠD ep
Ġmed ia
Ġth ough
s el
ĠM ark
Ġwh y
un ity
Ġf uture
orm al
v oid
ĠN ot
o ke
def ine
M ap
ĠS m
Ġtot al
rou ps
op er
ĠD o
ĠH er
Ġgener al
Y ou
Ġh ost
à ¤
Ġnew s
b ol
Ġex c
Ġen er
Ġsign ific
n ect
Ġ} );
200 7
Ġp ri
Ġother s
ĠL ondon
Ġ( !
Ġinv olv
` `
ill ed
al pha
Ġt reat
in it
Ġt ell
U N
ĠG et
Ġind ividual
Ġse en
L O
Ġbuild ing
ir m
} ;
pert ies
ĠCh ar
ames pace
un k
y d
al d
Ġf lo
H ow
tr a
Ġdef ault
im ent
Ġab ove
Ġf urther
et urn
ay er
Ġto day
Ġk ind
at form
Ġhe ld
itt ed
ar ray
n o
Ġ __
ac hed
ĠR uss
Ġl ive
ounc il
Ġsim ilar
Ġstart ed
olog ical
r ation
Ġb en
Ġme ans
ĠĠĠĠĠĠĠĠĠĠĠĠĠĠĠĠ ĠĠĠĠĠĠĠĠĠĠĠ
Ġon ce
Ġst ep
Ġev ents
Ġres pect
} ^
=" +
ne ction
ĠBrit ish
Ġto wn
ĠH ar
ĠM y
A tt
Ġd ocument
Ġd one
7 5
cl us
ĠP e
ĠB ro
A B
Ġunder stand
Ġm atch
el ta
es e
se c
ap ache
Ġw ent
ĠH igh
s y
Ġc al
ass ert
b t
con fig
w ord
Ġrece ived
ĠG ener
Ġcomm on
ĠPres ident
se e
S ervice
ĠEng lish
f rom
he l
ĠCol lege
st ate
ĠWh at
ĠS ch
ab les
Ġ} ,
ĠI nt
Ġt re
Ar ray
Ġcour se
F rom
S ystem
o e
em ents
y ear
ab led
ĠU K
Ġen ough
ĠC r
ĠA ng
ip le
i et
row n
f ord
Ġdid n
u el
am a
******** ********
Ġs ent
ist ic
EN T
Ġd est
ct or
ĠThe se
al ign
B uild
Ġm em
an ies
ag ing
ay out
O f
a ur
Ġmark et
Ġpoint s
Ġdisc uss
ĠAmeric a
r ing
200 6
Ġpro perty
pro t
Ġsup er
Ġrel ations
Ġatt ack
+ +
Ġp age
Ġval ues
ĠSt ud
p i
Ġre fer
Ġc ertain
Ġcare er
tr ue
Ġin fl
ugg est
pl ate
Ġcont ext
m en
~ \
} _
en ed
it ing
Ġre pl
Ġm iss
ĠJ apan
Res ult
Ġrequ ired
ren ch
ann el
um mer
er ed
5 5
in ary
il ities
Ġc ode
un ch
Ġe ither
oci ety
Ġopt ions
Ġ Ð
m at
" "
Ġc reat
Ġn ight
t es
ĠIn ternational
Ġpro b
au gh
//// ////
Ġs ure
o o
A d
ound s
m et
pon ent
ir us
c hed
Ġ u
Ġbe gan
ĠM ich
Ġwhe ther
F r
Ġm om
Ġc oll
C C
L oc
Ġst op
ix ed
Ġp ress
is es
d o
ĠHe alth
Ġm ot
Ġener gy
Ġperform ance
a el
ur b
n ode
h ib
Ã ¡
res ult
S ize
Tr ans
Ġm ax
Ġsignific ant
Ġb it
Ġph ys
im al
m ap
Ġm akes
Ġs ym
H and
ob ject
min istr
ĠL ist
k s
Ġmon ths
Ġ: =
amb da
ig ation
Ġth ing
se ction
Ġprod uction
l in
ic an
' ;
re ed
Ġm aterial
ud e
Ġdet erm
Ġbe gin
Ġann ounc
[ ]
pos ition
ĠM on
ĠA ir
Ġh alf
Ġint ro
Ġcre ated
i us
Ġwebs ite
ibr ary
ribut ion
C ode
bl ock
Ġpubl ished
4 4
S er
idd le
il ter
M A
The re
I P
i j
v ersion
Ġdoes n
ĠS ec
t itle
ad es
6 6
Com m
20 00
as ing
Ġ es
m ark
U p
Ġc ases
an ch
Ġshow s
iv ity
Ġcon fig
Ġt able
Ġfe ature
att le
D e
cre ate
Ġ= ==
M P
ĠLe ague
Ġcl ose
ĠCO VID
Ġt w
c le
av es
Ġbu ilt
C H
s m
l ight
N A
Ġs w
$ \
ĠC our
N o
ĠL aw
Ġy et
Ġa ud
V al
Ġm ass
eg a
in put
Ġc ur
0 5
Ġe lection
Ġoffic ial
c all
In ter
if orn
I L
Ġcl ub
Ġm ove
T E
ri x
Ġn amed
ĠN e
w ith
f in
ec ess
qu ot
ĠV al
p m
a ign
R ead
4 8
Ġf ood
Ġinclud ed
Ġwork s
O ut
Ġhtt p
s l
ic les
Ġpr im
am ma
ĠTr ump
ĠTr ans
Ġre ason
at ural
Ġr isk
ĠĠ Ċ
Ġexpect ed
Ġon line
M L
ott om
Ġs uggest
Ġbl ack
ĠS w
= \
ĠWill iam
ver age
a id
al y
res p
et t
Ġm oney
y nc
R eg
p ose
' re
Ġprof ess
Ġimp lement
a ug
r up
) \
i res
ĠInd ia
Ġob serv
Ġin put
iforn ia
Ġinst ance
Ġb and
Ġ-- >
ĠD on
M essage
Ġc ou
Ġde al
es tern
ĠT V
Ġch all
l im
Ġprovid ed
= '
.. ..
Ġt aken
it es
id ed
b it
ĠPh il
Ġresp ons
Ġindust ry
Ġto ld
ilit ary
Ġar ch
ut es
A ss
Ġint eg
Ġvar ious
Ġind ic
Ġm essage
Ġcol or
Ġind ex
Ġ ens
l ished
Ġab s
Ġeng ine
B C
Ġf all
Ġb i
n es
esc ription
ĠS tr
ĠD em
ĠU p
ĠD es
ĠS an
Ġin ternational
im um
ar a
Ġproble m
ĠM r
ampions hip
200 5
D is
ak er
duc ed
se qu
Ġadd ed
c er
w here
S ee
Ġro om
Ġmon th
Ġen vironment
ell ing
at ory
ĠCent er
Ġfe atures
ĠP at
Ð °
med i
re c
Ġdif f
Ġpop ulation
It em
li ent
Ġle arn
def ault
Ġf av
un ic
Ġperson al
er o
Ġv ia
b ased
Ġreport ed
ĠR ed
Ġp ur
b or
Ġpartic ip
Ġpolit ical
Ġcontin ue
C E
ĠBl ack
ĠI r
b orn
ĠAss oci
Ġcomp anies
e ff
Ġj ava
ĠI N
Ġplay er
O D
includ e
Ġwrit ten
in fo
ut ions
ank s
ig ital
ig ma
Ġset t
i ation
Ġ( )
cont ent
Ġcomp ut
Ġd ate
Ġgl obal
Ġl ate
it te
C ount
C all
ĠG over
or ge
Ġact ually
n own
6 5
ĠL a
o res
Ġpat ients
U LL
Ġd iv
g ing
iv il
ac ing
Ġh om
ist ry
un t
Ġf ace
Ġfr ont
Ġv ill
Ġc aus
Ġappe ar
ce ed
S P
Ġ} ;
ĠM or
Ġreg ion
ov ed
Ð ¾
Qu ery
Ġhow ever
Ġs at
ĠRep ublic
Ġsub ject
ĠS en
Ġvis it
b oard
ft ware
l t
istr ict
re ate
ic ense
pr int
Ġacc ording
ĠAustral ia
Ġquest ion
200 4
d t
Ġc irc
Ġbel ow
m it
oun ter
Ġfil ms
| -
j ava
Ġn ode
Ġent ire
Ġhtt ps
ĠM od
anc ial
E d
Ġchang es
Ġloc ated
Ġrele ase
0 8
m u
ĠCal ifornia
A meric
Ġm or
at ab
b o
s up
el t
com ing
ain er
Ġcom es
ĠIn ter
L og
ar ies
Ġare as
ĠA dd
Ġback ground
Ġro ad
en ing
roll er
Ġag o
---------------- ----------------
T able
Ġright s
ĠG roup
Ġac cept
Ġop port
4 9
Ġannounc ed
use um
Ġm er
ens ive
p arent
Ġg round
Ġv iol
osp ital
. )
T D
Ġtechn ology
Ġim age
Ġob tain
Ġpart y
ach ing
ĠDav id
pt y
T H
Ġc ut
g es
sh ip
Ġg roups
Ġn il
Ġadd ition
id ay
g en
Ġr ather
h ing
i ber
ch iev
Ġt ax
ĠM ore
Ġbr ing
S ub
Man ager
em y
l or
Ġben ef
Ġlook ing
Ġpre d
at al
Ġe y
Ġal most
R ec
or age
pec ially
ic o
Ġper cent
ĠSt reet
Ġv ot
0 9
Ġsystem s
j oy
st art
Ġiss ues
0 7
ĠF rom
un n
O S
0 4
v ed
epend ent
h at
av y
Ġpres ident
Ġl o
Ġdescrib ed
n s
Ġf ight
I R
Ġb ar
ĠE ast
b ase
Ġimp act
E nt
Ġdo ing
Ġl anguage
ot o
land s
Ġ\ \
at est
ĠCh ina
ĠH ol
ĠInd ian
re ct
c d
r is
ri p
Ġn ov
Ġs on
Ġneed s
am ples
n et
ar ter
Ġc y
Ġatt empt
ĠB ook
ĠCl ass
Ġh ours
Ġde cl
ĠF rench
Ġf ire
Ġdis play
i ences
Ġs ex
Ġterm s
if ier
Ġn eg
Ġspec ies
Ġt aking
val id
Ġestab lished
Ġbeh ind
re ak
ish ing
sel ves
ĠS im
Ġspec ific
4 7
Ġl ed
Ġcol lection
us ing
ĠJ ust
ĠP ort
ĠS k
Ġrec ogn
mathb b
go ogle
ĠIn stit
\ \
Ġ ill
Ġh istor
Ġim m
Ġp ers
b f
ĠC ons
ĠA cc
S p
0 6
Ġw alk
Ġeff ort
O P
om b
Ġf ather
Mod el
e ction
ou ch
Ġm ap
ful ly
Ġwho le
Ġst ation
wo od
g t
="../../ ../../
Ð µ
} ^{
Ġgr ad
ed eral
ĉĉĉĉ ĉĉ
Ġdist r
n ov
ĠD ay
h and
0 2
m ax
h a
u z
Ġam ount
Ġse em
f ect
Ġb ad
Com p
ĠĠĠĠĠĠĠĠ ĠĠĠĠ
Ġcent ury
B e
ĠDep artment
Ar g
W hen
ĠF irst
Ġse arch
ĠEng land
Ġw atch
Ġpop ular
Ġrelations hip
_ \
ĠD ef
evel op
oy al
Ġl ength
an el
Ġin j
ic ult
A b
ad o
Ġ ...
ĠO f
anc ed
Ġw ords
Ġst aff
A G
Ġs rc
Pro perty
Ġb orn
ĠD irect
Ġl ost
ĠT est
Ġre v
ef ore
E m
n ext
ar ning
ell ow
Ġart icle
Ġeduc ation
Ġse ction
Ġhig her
us ed
yn am
Ġinit ial
i ers
m ethod
Ġh on
ro y
d oc
b uild
Ġm ind
Ġpot ential
h o
in n
om et
con text
ĠA nt
and roid
Ġsh are
Ġtr aining
id a
iz ing
irt ual
5 00
ĠCan ada
act ive
Ġcon tract
Ġcont act
A fter
G ener
Ġget ting
Ġwh ite
Ġpol ice
ul ated
Ġhe art
Ġqu ick
0 3
Ġse par
Ġlik ely
Ġc ross
qu ad
ĠJ ames
d uction
ĠG od
Ġoff ice
Ġinst ead
st yle
ar row
Ġb order
ĠC ouncil
ĠE ar
Ġde g
rup t
P re
Ġpr int
e ch
av en
I V
ro te
we b
Ġinclud es
Ġpro te
ĠD istrict
Ġb ool
Ġf ig
ĠW ork
at ives
c ount
Ġs ound
m on
Ġs old
Ġpol icy
Ġfri end
Ġr ate
Ġconsider ed
} _{
pt ions
Ġcamp aign
l a
Ġf em
Ġrec ent
wit ch
con tain
act ory
m ission
ra z
C lient
ĠC ap
ĠP al
ph i
Col or
ud d
Ġ Ã
ĠM al
200 3
Ġr ound
Ġl oss
ch ange
U ser
led ge
itte e
Ġst atus
y r
e es
and om
Ġa verage
Ġbro ad
Ġiss ue
ĠA P
Ġl ower
> &
Ġm ag
Ġwork ed
le m
f unc
Ġv ict
Res ponse
Ġa chiev
A c
Americ an
Ġp ick
che ck
ĠEurope an
G roup
st atic
f alse
Ġr out
ĠS et
f ort
Ġn ecess
il m
pl ied
or ing
Ġfam il
it ect
Ġst ates
Ġd ied
Ġto ol
Ġinst all
am ily
ĠB er
h ood
- \
ĠP aul
ateg ory
4 6
M S
9 5
Ġlead ers
le an
ĠO ut
ash ington
F A
======== ========
pl it
Ġcurrent ly
ĠCour t
Ġo ption
Ġhim self
Over ride
Ġman agement
p ackage
Ã ³
at ur
M ethod
ian ce
p ite
Ġep is
ub e
and id
Ġcomm and
B ar
ly ing
c ss
Ġcomp os
Ġbeliev e
Ġanal ysis
Ġproduct s
Ġen joy
Ġf ail
ail y
air s
Ġinfl u
e ed
pl ace
ec k
ve y
ĠĠĠĠĠĠĠĠ ĠĠ
ac her
ag o
x y
ou l
ele br
d b
am s
ĠR ober
7 8
cent ury
resp ond
200 1
ev ent
Ġt ask
Ġb oard
ĠGener al
Ġc red
Ġpl atform
Ġes pecially
Ġcan not
; &
Ġfor ward
ĠW eb
in ated
Ġpri or
Ġs us
Ġcomp on
ĠR ich
Ġup on
ob ile
atab ase
l ambda
v ille
U L
=" #
Ġdistr ict
Ġserv ed
oc ol
d ev
action s
Ġsec urity
Ġl iving
Ġal ign
Ġc opy
y a
Ġcomp lex
Ġd er
Ġg irl
ast ic
Ġneed ed
Ġtr avel
Ġt akes
Ġout put
Ġout side
F l
ic ation
ith ub
Ġcom ment
C he
Ġd en
ch an
er c
Ġwrit ing
Ġt our
O L
ĠD i
ĠRes earch
Ġreg ard
v is
ist ics
r ad
z on
ver y
in ing
ĠTe chn
Build er
200 2
Ġval id
as ons
et ic
Ġsa f
li ke
ĠA N
e al
d uct
Ġl oad
Im age
Ġa ward
Ġl iter
^ {\
Ġcond itions
Ġm other
ang er
Ġm id
Ġassoci ated
ĠTh om
emb ly
Ġrun ning
Ġits elf
Ð ¸
in ition
P e
ache s
itt ing
k en
O ne
Ã Ń
row s
wit ter
Ġcomp lete
Ġsh own
arg in
ot a
ep s
m ember
Ġch o
Ġd am
Ġreturn ed
Ġcom ing
Ġh ot
U E
S C
Ġst ay
Ġbir ths
ĠD an
C ell
lo od
Ġrel ated
8 8
Ġstand ard
uf act
7 7
Ġme et
Ġs aw
ic ient
rit er
Ġplay ing
Ġh or
plic ations
E E
ĠP re
ĠP ublic
s um
Ġw or
Ġmult iple
u ge
opt ion
E nd
Ġre ve
ĠGerm an
pec ial
> (
Ġst d
O ff
4 2
P ol
ew ork
ri an
Ġnot hing
ĠIn c
ĠS ub
St ream
Ġconc ern
c ell
pect ed
] )
Ġmom ent
=" ../
ĠY ear
Ġany thing
S ource
im age
ust er
ĠM art
] (
C A
erv ices
I M
Ġlead ing
Ġte lev
ĠG reen
Ġ{ \
ap ter
Ġw rote
E X
w ise
r un
om s
Ġmov ed
g ithub
ref ore
ĠJ ack
ĠE v
el ine
a res
Ġcount ries
enc ed
en ame
Ġh it
Ġdis e
ĠR iver
Ġst re
Ġask ed
em plate
Ġs ens
Ġdiff icult
S tr
ac ity
Ġso on
ĠG L
d r
Ġadd itional
Ġro ck
p ri
ind ows
c ore
Ġcond uct
ĠRev iew
Ġqu ality
st on
U til
Ġsome one
i i
Ġide a
Ġass ist
; </
Ġincre ase
Ġex ecut
b ed
I I
ĠB el
Ġprovid es
opt ions
Ġb ox
mod el
Th at
cre t
ĠC up
Ġsc reen
Ġdisc over
Ġj ud
Ġst ream
ot ype
Ġan im
ĠM usic
com es
i qu
H ead
sy ch
Ġreg ular
Ġex press
Ġbook s
ĠU s
Ġm atter
Ġbu y
m ing
b eta
all s
In put
Ġcour t
S o
Ġap plication
augh ter
Ġb ound
ĠCh urch
Ġe mer
Ġdec ision
Ġstruct ure
Ġw oman
A ct
Ġn orth
res h
Ġappro ach
ĠQ ue
ĠWh ite
Ġbeh av
Ġst age
! !
ĠW ashington
Ġdevelop ed
Ġr ace
ĠP ost
ĠAssoci ation
rou ght
ĠY our
n amespace
id ents
ĠAr ch
Ġprob ably
ĠS ervice
ĠD iv
Ġp aper
ul ations
Ġs il
li er
Ġproduc ed
Ġdef ined
Ġh ope
w ide
iz er
ĠS ome
ol ar
Ġteam s
cl ient
ly mp
ĠR oad
ĠPart y
sp ace
Ġmod ern
Ġevery thing
ri ef
ire ction
ĠInstit ute
Ġ ir
Ġw rite
p age
Ġdirect or
St atus
ill ing
ribut ed
o z
h ost
ĠR ead
5 6
ĠO ur
Ġan sw
mer c
ĠH all
Ġt en
Ġinvolv ed
ĠN ULL
Ġmod els
Ġd raw
Ġtry ing
so ft
Ġtreat ment
Ġtelev ision
ĠFr ance
Ġev idence
ĠSc ience
h as
Ġw idth
ON T
A cc
Ġse ems
Ġcons ist
Ġw ait
ĠDem ocr
Ġqu ite
erv e
Ġdet ails
ram ework
ĠM et
ĠS ing
ber g
Ġwant ed
H T
ul ly
enc ies
Ġloc ation
ab s
Ã ¼
Ġcent er
umb ers
ul a
Ġd ouble
G L
al ed
c el
id get
Ġde ep
k nown
T oken
T Y
n ull
' m
P ost
D ate
Ġprot ected
Ġthem selves
Ġ( $
Ġv eh
ĠB est
Ġwho se
ĠL eg
Ġthrough out
c i
Ġg e
cent er
ĠM ag
e lement
Ġm ilitary
tt y
Ġse qu
Ġgo al
ĠAn n
N S
c urrent
aug ht
ed ia
im ately
Ġis n
ol ic
Ġfri ends
O per
ĠAng el
Ġj o
ĠF ound
Ġp ain
lect or
ĠCh ampionship
Ġad ministr
ch ild
ĠP ress
Ġcharact ers
it ar
S up
ĠB en
In stance
ĠMich ael
ĠGe orge
Ġw ord
Ġn atural
Ġcap t
Ġmin utes
R un
i os
AT E
ĠO F
Ġlong er
Ġs outh
( (
Ġd rop
ra el
Ġ ess
k a
ĠAfr ica
st ream
ĠA re
ĠĠĠĠĠĠĠĠĠĠĠĠĠĠĠĠ ĠĠĠĠĠĠĠĠĠĠĠĠĠĠĠ
ĠN ow
Ġprofess ional
Ġs ense
ĠB usiness
ĠFr anc
Ġp ark
ang le
Ġelement s
requ est
b and
5 8
d ir
Ġleg al
ent al
Ġ( \
ĠWh ile
and er
v est
Ġaut om
ĠĠĠĠĠĠĠĠĠĠĠĠĠĠĠĠ Ġ
ines e
ĠA ward
tern et
Ġdesign ed
Ġun ique
ort hern
ĠD ec
i ant
Ġtyp es
Ġcl ient
ad ian
Ġsh all
Ġpos itive
r d
est ival
r ong
Ġres ource
S he
R A
Ġn ormal
ro s
al a
Ġdev ice
ĠR eturn
Ġbo olean
Ġact ive
Ġevery one
ĠC am
Ġbe aut
Ġc ast
m ar
Ġg ave
ed s
Ġread ing
P os
c an
qu ery
Ġweek s
ĠS l
Ġg re
idd en
b ig
N ull
5 9
r ated
Ġus ers
w in
D r
ser ver
Ġsim ple
Ġup d
erv ed
ĠM at
Ġgrow th
Ġc atch
4 1
Ġlevel s
il on
c ase
Ġv er
Ġl ives
Equ al
ial og
Ġfor ce
ri al
Ġcom pl
ph p
Ñ Ĥ
out hern
h an
Ġallow ed
y les
7 6
b on
} {\
) </
app end
s igma
' ve
Ġ< <
ĠT HE
is her
q l
Ġand roid
ĠComp any
Ġstud ies
Ġsh ip
00 00
p at
Ġac qu
ond er
ĠS am
Ġestab lish
4 3
ĠD ata
C K
ĠC ong
ĠF in
E L
Ġim medi
ag on
ri a
Ġn ames
y nt
Ġs n
D O
is ions
Ġinter view
Ġdel iver
A ction
he t
ar ily
Ġrec ently
Ġpre vent
Ġfin ancial
Ġf requ
it ch
ĠT om
ĠD el
an ia
ĠL ou
199 9
B ase
Ġde ad
arg s
Ġv ers
m itted
Ġlim it
mathb f
ĠV ol
Ġcult ure
Ġcal c
Ġt im
Ġre comm
ach ine
ĠM ary
Ġmov ie
duc ation
Bl ock
le vel
L ine
Ġc andid
G r
u ate
Ġw ife
Ġproble ms
merc ial
ate gy
ult ure
Ġb all
Ġf un
ym bol
ribut es
l ib
Ġschool s
Ġin f
T ER
' '
ace book
Ġvill age
ex as
lo at
evelop ment
Ġmeas ure
ild e
P art
f ess
Ġmethod s
Att ribute
O ptions
l ock
Ġit em
Ġpro gress
m as
Ġprom ot
Ġp urch
Ġth reat
ang ed
ĠM ac
ur t
row ser
Ġqu al
Ġ+ =
fl ow
m ore
Ġmed ical
ir it
Ġpart s
Ġc ook
Ġsur v
m iss
Ġeffect s
Ġup date
Ġc elebr
Ġcor respond
en a
ĠS und
Ġcol umn
< !--
M y
Ġm ention
g amma
ĠA lex
ock et
ĠGo ogle
g le
Ġus es
ie ce
ĠC E
Ð ½
ain e
en ge
Ġapp oint
St art
ĠJ ew
n or
B A
ĠÂ £
Ġp ack
ĠPro gram
ul ate
Ġ â
Cont ent
ĠG old
Ġl atest
ev e
Ġl ines
Ġh ous
Ġsc ient
Ġdem on
Ġcon struct
Ġs em
and emic
F I
Ġtem per
Ġin side
Ġwe b
Ġnov el
app ing
ol f
* /
^{ -
Ġw ays
p ost
r t
un s
Ġj oin
ed y
Ġl abel
h i
V ER
B uffer
Ġm ale
Ġprot ect
g or
Ġso ftware
Ġm us
Hand ler
Ġdr ug
ĠAc ad
ip p
Ġto wards
Ġchall eng
i as
t arget
ĠCl ub
op en
iz es
ĠM ont
Ġa w
Ġmain tain
qu are
Ġm is
Ġ$ (
Ġbro ther
Ġpract ice
Ġsay ing
a ud
Ġst ar
Ġc ause
ill er
ĠGerm any
Ġcontin ued
Ġle ave
L ink
Ġoper ation
9 8
av irus
ĠT ime
Ġchang ed
Ġs ort
ĠO ther
ic ial
6 8
ĠG reat
ree k
T O
Ġ" ""
( {
P oint
Ġst e
but ton
Ġocc ur
Ġpl ant
oc al
Ġex act
id ing
for ce
an i
5 7
Ġb oy
in i
Ġhe ight
z er
Ġle arning
ĠThe n
ĠM ount
ber t
Ġquest ions
Ġin ternal
str act
ant ic
H el
Ġcon v
Ġsim ply
Ġch arg
Ġ- >
U s
ĠR ef
Ġst ore
W eb
ĠO ver
Ġb us
v ider
Ġsc ience
ĠR em
ĠIs land
Ġreg ister
ĠO pen
ind ing
ĠM iss
j ust
199 0
yp es
eg er
in ate
o ch
Ġpro perties
f irst
od ing
g ener
con s
st ant
ug in
add ing
he st
Ġtrans fer
Ġl ack
Ġeas y
Ġman ufact
u id
on avirus
ĠUn ion
Ġb rought
Ġinst it
M ar
I O
Ġin sp
F unction
Ġrel ig
ĠH istory
ĠB ay
F irst
ĠM us
head er
ad ata
om a
c y
ĠO bject
ĠS ociety
m m
Ġdeath s
T P
eb ug
Ġex cept
ĠR ob
d f
ĠF ore
* }
est s
Ġfollow ed
+ \
ĠAustral ian
e in
Ġopen ed
Ġne igh
Ġst ories
C L
ĠH am
ip al
ars er
) {
Ġh um
Ġthrow s
Ġs en
Ġw indow
Ġme eting
im s
Ġf a
Ñ Ģ
rib e
ĠCar ol
Ġe ight
ict ed
[ "
Ġus ually
Ġet c
Ġoff ers
ĠS al
az ine
p ack
fin ished
ĠR E
ĠR el
Ġp ict
t x
Ġres ources
ĠFl or
L e
N av
w ell
18 8
j av
iz ations
ĠSe e
ĠR oyal
Ġcont ains
Ġfl ow
Ġfav or
ĠSc ott
ch ar
Ġpart ners
Ġal though
Ġde b
C an
D o
Ġs pect
ĠV ir
y th
Com ponent
Ġdirect ly
Ġem ail
Ġcap ital
âĢĿ .
ĠĠĠĠĠĠĠĠ ĠĠĠĠĠĠ
str ong
g n
Ġsong s
ĠM ad
Ġcon tr
pt r
ĠO lymp
Ġpass ed
Res ource
Ġinvest ig
ak ers
Ġens ure
ig ger
Ġun s
al ian
Ġsc hed
ol ve
' ll
Ġun it
Ġev al
Ġpre c
r l
he ight
U M
gr ad
por ary
Ġlarg est
St yle
ir ing
anc y
j son
ĠL ife
ĉ Ċ
ous ly
^ \
Che ck
Ġprim ary
Ġcon struction
Ġav oid
ĠK e
ĠRober t
Ġde but
ĠM ex
Ġse ek
ĠE nd
ĠN or
B ack
Pe ople
Ġm ount
Ġj ournal
Ġcomplet ed
9 6
Ġf ast
Ġclos ed
P er
Ġg raph
Def ault
an o
ĠChrist ian
ens ions
Ġre ference
Ġpr ice
Ġtrans port
ĠCh inese
Ġcell s
Ġincre ased
ify ing
L ast
und le
ens ity
Ġb ank
Ġpl aces
Ġeconom ic
ĠS ur
Ã ¶
Ġc am
) }
ĠT exas
Ġear lier
ĠB o
Ġg as
ĠGover nment
Ġse ven
Ġactiv ities
ro om
Ġrece ive
N ext
ĠI D
ĠM useum
ig er
Ġsaf ety
r ho
Ġl ock
ĠSm ith
Ġjo ined
Ġs ports
Ġstud ent
F actory
ry pt
Ġr ules
Ġknow ledge
Ch ild
st atus
ĠAfr ican
Ġs uff
ĠIs rael
Ġperform ed
199 8
ĠI S
Ġn umbers
ĠR ad
Ġest im
Ġre str
Ġoper ations
in ner
Ġme chan
Ġlim ited
Ġent ry
ĠA tt
ĠĠĠĠĠĠĠĠ Ċ
Ġag re
Tr ue
f ind
Ġd ark
ĠC amp
Ġse lected
9 7
Ġv acc
Ġcomp ared
Ch ar
H istory
R ep
" ).
Ġpre p
Ġpl ans
Ġpr inc
t ings
Ġd igital
u a
Ġcond ition
Ġget s
Ġstat ement
ĠAr my
k i
h aps
Ġqu ant
it iz
Ġdise ase
G e
l ast
Ġgo es
Ġdemon str
Ġper fect
il i
z a
ict or
Ġv irtual
Ġparent s
iv acy
Ġc ivil
Ġcon cept
ĠH el
d elta
Ġany one
Ġser ious
Ġcol lect
c a
is f
Ġfinal ly
c p
c over
w rite
ĠSup er
Ġw rong
the ta
Ġnecess ary
T S
ĠComm ission
Ġsc he
Ap p
is ation
ĠSt ar
Ġsuccess ful
Ġform at
ĠH ill
Ġc ard
Ġd oc
Ġfamil ies
ĠJ ul
Ġcon nection
Ġbir th
ĠJ ournal
T ask
Ġre li
it ude
Ġn ature
ĠR oman
C D
act er
Ġappro x
Ġpre tty
Ġcor rect
) (
Ġd ram
C R
6 7
Ġdec ided
ar io
ĠB ill
Ġexp and
icro soft
ĠB oard
ic i
V ersion
Ġsign ed
x i
ov ers
Ġarch itect
Ġab ility
Ġdist ribution
d l
il ed
ĠB ig
ĠCent ral
Ġch urch
re me
s im
Ġcent ral
y ing
f oot
ĠThom as
F L
Ġ{ @
n ed
fig ure
it ation
Ġspec ified
ĠMed ia
Ġw orth
gor ith
5 2
d et
Ġactiv ity
ĠF acebook
Ġrem ain
5 1
Ġreturn s
P RO
Ġal tern
ĠT op
RE F
P age
n ected
t ab
Ġ esc
ĠR ock
Ġsom et
Ġp andemic
ĠN one
ann ed
ĠSer ies
Ġturn ed
Ġp m
5 4
ĠF orm
ĠA v
B r
ĠS ervices
t imes
Ġsur face
Ġcon nect
Ġex tra
T op
Ġh ol
ĠN et
Ġpat tern
Ġequ ip
N umber
Ġm ur
ĠT or
? âĢĿ
Ġd im
ĠO b
Ġbr and
ĠDirect or
Ġall ows
al ing
pro perty
end if
ĠPl ay
ĠPro ject
Ġf arm
ĠT own
LA SS
P S
Ġmar ried
ĠT re
5 3
Ġsol ution
Ġstart ing
Ġsur pr
B S
H O
ĠOff ice
L oad
l am
Ġmult i
Ġphys ical
ig r
M et
Ġdeg ree
p ush
s g
Ġp lease
Ġsc ale
ig inal
an ish
un finished
Ġcontin u
ent y
~ ~
Ġproject s
Ġopport unity
ĠH en
Ġ row
ĠIn st
ĠMan agement
Ġn av
Ġf ailed
Ġn umer
D esc
x ml
Ġant i
ro ad
ĠT imes
ell ig
198 0
AB LE
ĠMin ister
Ġbegin ning
Ġsh ot
Ġpro p
Equ als
Ġpre m
od ay
ĠW ed
Ġs ummer
ele te
ron ic
Ġparam eters
Ġ ]
h ouse
Ġepis ode
Ġf ans
Ġtr ade
and a
Ġconst ant
b our
ing er
ven ue
Ġ( (
ant a
l ong
E ng
Ã ¤
ĠT ur
ĠB re
ĠUS A
AT ION
ĠE ducation
C reate
3 00
sh ire
ĠH ere
Ġt er
Ġfield s
mod ule
Ġc lean
Ġg ives
Ġn one
Ñ ģ
Ġr ail
Ġb ur
pr ivate
b a
Ġwas n
Ġcou ple
ond ay
Ġincre asing
at re
C o
in st
N O
ĠPro v
es ter
ĠL os
ĠP eter
Ġind ependent
ĠFranc is
Ġk illed
vers e
ĠC D
ib ly
ĠS ocial
s rc
A A
ĠW estern
ĠB i
Ġrecord ed
ĠGr and
ic ate
Ġdep end
o om
âĢ ĺ
p ol
ic ago
Ġs end
Ġext ends
Ġaut o
Ġhand s
Ġm agn
if ul
199 7
n on
os h
Ġd aughter
Ġprogram s
} );
Ġb al
ĠG ood
b urg
Ex t
Ġrad io
ic ine
part ial
Ġorgan ization
Ġw ide
Ġg old
Ġf elt
ot al
Ġor d
Ġdem and
ask et
Ġf air
Ġresp ond
c m
Ġv oice
Ġwork ers
Ġthe ory
ad y
opy right
Ġmem ory
at ively
t au
ĠD uring
Ġatt ention
I F
Ġparam eter
on ly
ist an
ĠM el
ĠFlor ida
" ),
Ġex hib
ĠL et
" ]
Ġass ess
Ġsp ent
Ġrem ember
ĠK ore
e an
Ġappe ared
anc ing
Ġnear ly
ĠSund ay
Ġfunction s
Ġparticular ly
math rm
at tr
ĠA ut
Ġprevious ly
ĠH ome
Ġse cret
Ġv s
Ġwrit er
u ated
ic ated
Ġfollow s
A ut
Ġv ote
ob j
vent ion
199 6
l en
Ġmean ing
Ġquick ly
Ġm iddle
F ilter
ĠO per
Ġsc en
Ġreport s
Ġp ull
Ġt ouch
Ġ ign
// /
Ġm icro
Ġlead er
Ġcl in
p ass
Ġcoll abor
so le
] {
Ġser ver
Ġtrans form
ick s
T ag
p ng
ĠG ames
Ð¾ Ð
bt n
ĠPe ople
ist ance
Ġdef e
Ġr ank
Ġth us
Ġstre ng
Ġfem ale
re land
Ġspe ed
ĠL og
ter m
Ġsp read
Ġsupport ed
s i
if act
Ġh ospital
ĠD evelopment
Ġsol id
ick et
ĠB ank
ĠF e
or ial
ĠFr ank
20 22
contain er
m eta
Ġp le
Ġpolit ic
Ġm ode
g u
Ġwe ight
ĠD et
ĠB uild
ã ģ
Ġ er
atur day
ĠF ig
er ry
Ġr ap
Ġart ist
Ġinterest ing
ĠFr iday
$ -
ĠM ost
k y
ĠDiv ision
ef ul
Ġtrad itional
Ġsit uation
Ġh ar
ĠComm ittee
ĠRuss ian
v ant
ĠâĢ ¦
it a
s ervice
ess ages
ĠVir gin
Ġfil es
$ {
ĠE X
Ġexist ing
ĠW il
Ġse lect
Ġd ed
Ġsl ow
le ep
D et
R eturn
it ness
ĠSh ow
_ .
Ġex am
Ġeffect ive
Ġnot e
ivers e
b reak
Ġmov ement
Ġm ix
W ork
Ġgr and
Ġsh oot
Ġrem ains
ĠFound ation
ĠW omen
D A
Ġin form
Ġrec over
ĠG en
ent ry
s pec
le q
Ġdiffer ence
Ġn om
ĠCan adian
ĠJapan ese
r or
ĠS T
Ġr at
ĠCong ress
g reg
P C
re y
Ġset ting
Ġsomet imes
Ġart ists
Ġex pression
il er
ill a
et te
se lect
ĠRich ard
> >
cl os
6 1
we et
Ġhe ard
ed er
Ġent er
P A
ec ause
b ottom
Ġact ual
Ġst ri
V is
ĠU nder
Ġw ild
Ġpresent ed
A g
Ġit ems
ain ts
Ġh op
D on
Ġ ;
at in
ĠT ype
//////// ////////
Ġdist ance
Ġass um
ĠM o
d en
B ox
ic ens
Ġb lood
#### ####
dis play
ict ions
nc y
L iving
cl ose
Ġsh ared
m t
Ġset s
Ġlarg er
ĠL ong
ĠEng ine
m es
Ġm argin
li ament
ĠCh ild
Ġdr ive
S ON
Ġre ach
Ġman ager
M at
Ġd ou
oot h
Ġ url
in ct
ĠLou is
Ġb illion
Ġbe y
n u
cher s
Ġcustom ers
Ġgr ant
pro ject
und red
form at
Ġro ll
im g
ex pected
U P
Ġcons um
Ġimpro ve
( &
oin ter
R em
Ġr ule
Ġsc ene
Ġlaw s
ĠA M
Ġimpro v
im inal
p c
199 5
Ġqu arter
Ġte acher
Ġbey ond
U I
C ON
ĠC ath
ag ram
P R
oot ball
P O
ch o
f inal
Ġg iving
ĠGe org
Ġs ales
loc al
Ġbe g
Ġf irm
Ġmod ule
Ġd irection
Ġhigh ly
6 9
ĠP M
Ġt ree
ĠJ ose
unc hed
% %
Col lection
Ġenc our
S pec
Ġbas is
d escription
I A
7 2
st d
as tr
ĠPl an
Ġcomp ar
ĉĉĉĉ ĉĉĉĉ
M in
G o
197 0
prot otype
ĠS ince
Ġim ages
ĠH ot
uct ure
Ġh y
Ġan c
Form at
Ġinter face
Ġth r
th let
Ġlook s
Ġg reen
he nt
Ġt it
ĠAngel es
Ġn ation
Ġf ully
Ġv ert
Ġover all
Ġconst it
u ke
ell a
Ġpo or
ĠF ilm
Ġintro duced
Ġcom mercial
ĠAr ts
n umber
Ġfe ed
Ġcall back
us ion
M ore
pl ies
al let
g est
Ġsa fe
as y
D elta
S A
Ġcommun ities
Ġch oice
ĠN etwork
ĠW ell
am ing
Ġfin ished
is l
Ġs al
Ġtr ust
Comm and
ĠL icense
ig an
ul f
plic it
Ġpro posed
ĠT im
ã ĥ
Ġp en
Ġey es
Ġanal y
ur ance
Ġindividual s
F ONT
Ġmiss ing
os is
P ar
Ġre pe
Ġs ociety
olog ies
Ġcol lege
ĠD ev
ĠAcad emy
Ġph one
s ite
Ġon es
N E
Ġs ources
4 00
ref ix
ĠPol icy
ĠS un
Ġopen ing
Ġco ach
ĠM em
nav bar
Ġl ab
az z
} (\
ef ined
ĠS il
ĠT wo
Ġfor ces
ĠM ov
Ġtest ing
Ġmor ning
res ponse
Ġch ance
ul ed
it ors
T I
6 3
p o
O ur
ĠL ake
Ġrecord s
ĠM ass
Ġc op
Ġf ederal
Out put
u int
Ġche m
ues day
Ġrem ove
Ġl if
ĠB ur
K E
7 9
ĠZ eal
List ener
Ġo il
ĠKing dom
fl ict
y an
p ers
tt p
ev en
ol k
Ġk m
Ġbl og
Ġcrit ical
Ġcomplet ely
Ġal leg
Ġapp ly
ĠWe ek
ĠM er
Ġr andom
L ength
f ilter
ĠB rown
Ġprovid ing
Ġs ave
Ġre ached
clus ion
ĠJ un
$ $
Ġgre ater
Ġin nov
Ġth ous
ĠD E
199 4
Ġtrans l
erv ation
Val id
Ġsc ore
wh ich
a o
w est
h r
Ġhe ar
c apt
6 2
Ġhig hest
I Z
ĠM ur
Ġother wise
Ġd ynam
ĠTe am
ĠM onday
g ment
B O
ud get
A m
Ġro b
Ġim ag
oun ce
ust ain
Ġcompet ition
out put
nes day
g s
Add ress
Ġ( "
Ġch annel
ri end
ĠâĢ ¢
ĠZeal and
om ega
UR L
OR T
ĠI reland
ĠL and
Ġse lection
ĠPro fess
Ġs ession
un ities
und er
ma zon
ĠH T
Ġun its
Ġ< !--
ĠS ol
c are
Ġed itor
Ġtr ain
men u
ĠEar th
Ġelect ric
Ġmov ing
E l
u y
Ġkn ew
Ġimmedi ately
M ode
Ġcomput er
Ġcar ry
ĠO l
ab y
id en
eq n
Ġro ot
ĠChar les
art s
Ġs ch
ft y
erm an
ĠT witter
ER R
Ġhand le
ĠCh icago
Ġdest roy
Cont roller
| \
on om
ĉ ĠĠĠ
a a
d raw
ĠV ictor
Ġsat isf
Ġread y
Ġshow ed
at as
up date
ĠS pr
R ow
a uthor
Ġcall s
Ġpro per
In it
Ġp oll
ĠAt l
ĠO p
Ġcan cer
asc ript
ĠSt ep
Ġad ult
ang es
Ġw ood
Ġacc ur
Ġsur round
Ġgrow ing
or por
O pen
Ġm ission
Ġob j
F C
l ayout
Ġ Î
ir med
Ġc orn
V AL
ĠL ove
The y
ens us
i en
tr ack
Ġex ception
D irect
Ġla unch
Ġsh op
ĠHe ad
S ec
ĠSec ret
}$ .
rem ove
ĠPar is
Ġ! ==
ash ion
C ache
Ġ eth
199 2
ind s
Ac cess
IN E
Ġfil ter
Ġp sych
}$ ,
ĠO h
ĠP ri
Ġrun s
ĠP ower
R ev
ĠV er
av ed
Ġexper iment
Ġsit es
B U
Ġpur pose
ar ant
Ġst ock
Ġabs ol
ool s
al le
ĠRuss ia
sh ow
ĠTechn ology
Ġcost s
Ġm aster
Ġm ut
TY PE
ec ution
return s
Ġcom ments
Ġfore ign
Ġd og
Ġpress ure
Ġpl aced
Ġw at
Ġcaus ed
ard en
ĠIt alian
ĠE p
C S
R el
ri age
D F
Ġvari ety
ig en
in y
Ġappe ars
Ġt ag
Ġobject s
as tern
ĠIn s
Ġle ague
m ult
Ġbe comes
ĠP et
Ġ[ ]
Ġequ al
D es
Ġdes pite
t ag
ri er
Ġeffort s
ĠE conom
ens or
199 3
D B
Ġchar ge
ark s
pro cess
Ġqu e
ĠAP I
ĠS aturday
irc raft
Ġbehav ior
ĠD en
ĠM il
Ġform ed
ĠC all
or ter
H ome
ĠC are
urs day
D ev
Ġb g
os ing
Ġs u
Ġh uge
ĠS y
it z
Ġal one
b ur
he et
pre t
L S
Ġobtain ed
Ġstr ugg
Ġc ounter
asket ball
M O
ĠO ld
L abel
Ġcl imate
d ep
ĠI ll
old er
Ġw onder
Ġthe refore
sup port
Ġac ad
Ġst ated
ĠC ast
ĠW ood
ĠL ee
ĠT our
ad ow
D S
7 1
Ġann ual
ab it
Ġbusiness es
m ain
b i
Up date
Pro vider
ĠMart in
Ġcompon ent
ĠJ ud
param s
Ġp aid
L et
ĠF inal
ĠS E
Ġp iece
Ġappro pri
ĠĠĠĠĠĠĠĠ ĠĠĠĠĊ
i pe
Ġp aint
Ġ q
7 4
ĠC LASS
ĠChe ck
ol a
um s
ĠComm unity
rel ated
Ġap plications
ĠAcc ording
Ġpart ner
ĠIn formation
ex p
ĠH istor
ind er
Ġdesc ription
at o
ĠF ree
yd ro
ig ration
or a
Ġ čĊ
Wh ile
Ġan g
ĠJ im
Ġclaim s
T e
us band
Ġbuild ings
k it
if orm
Ġad apt
ĠH REF
Ġ* *
Ġph ase
Ġlook ed
T C
Ġevent ually
ĠS pe
ĠCarol ina
ar p
r s
Ġprod uce
ef t
pect ive
all ery
ĠAl so
âĢĿ ,
Ġmajor ity
ĠSc ot
in em
Ar t
But ton
J ohn
Ġem pty
U rl
Ġfor ms
Ġsus p
Ġinit i
Ġc ert
Ġst ra
Ġmur der
Ġgener ally
Col umn
G B
Ġdirect ed
Cont ainer
ĠG ame
ĠK n
M ax
ĠF estival
T V
Ġc at
ĠP enn
++ )
sm all
Ġaff ect
ĠV is
Ġhelp ed
ann ot
g ate
Ġa ctions
Ġarg ument
Ġcreat ing
oc ation
in fty
Ġpre fer
Ġcap acity
S l
M en
Ġspe ak
Ġown ers
Ġcont ain
Ġd aily
ĠCent re
Ġag ree
A V
af e
pon ents
Ġfr ame
n ce
Ġrespons ible
im ation
ĠI d
Ġw el
Ġw ants
T ypes
8 5
Ġlet ter
7 3
ĠAr ab
on ic
Ġr ac
s q
pect s
Ġin str
f ont
il s
is is
D ec
Ġb attle
Ġcont ribut
Ġcrit ic
raph ics
Ġac com
Ġh undred
in stance
Ġar rest
S im
ĠL ead
O b
Config uration
Ġansw er
P ort
requ ire
Ġhapp en
uth ors
el se
Ġpl ays
Ġra ise
Ġlist ed
Ġemploy ees
ĠSe cond
Ġhapp ened
ĠE very
reed om
n y
ĠCh ief
m ail
ap ers
Ġmin or
UL T
os en
Ġu int
eq ref
G l
: </
Ġpres ence
Ġc itiz
Ġp ages
T arget
Ġfig ure
t ilde
Ġgu itar
ĠRec ords
im b
ers e
in ion
Ġm ill
Ġt al
ot ic
Ġwh om
199 1
**************** ****************
ut y
Ġoffer ed
Ġtest s
ĠG al
ĠU N
ĠEn ter
ĠIt s
un it
or ation
roll ed
I ST
ĠR un
Ġstr ateg
c os
c ar
Ġeas ily
I B
we ight
ER T
Ġla unched
al ysis
ow ers
L ayout
Ġa ware
M ENT
Ġvol ume
Ġocc up
Ġem ot
as ion
ĠM ot
: "
M on
9 4
Ġra ised
ĠJ oe
ic ed
Ġs witch
ong s
8 6
off set
Ġs uit
ple te
AN D
ĠRe port
Ġsym bol
c r
9 3
Ġch ief
rom e
Ġold er
ĠB et
Ġoff set
ore m
AR T
Ġ util
Ġbl ue
Ġrest aur
' ).
ã Ĥ
Ġdo or
it ory
Ġf ear
U B
ec ute
Ġrespect ively
Ġp air
ur a
Ġtemper ature
em porary
( _
< ?
ĠT uesday
C ar
raz il
Ġw est
ĠVal ley
v ision
ĠA wards
N ow
wh ile
ĠN OT
Ġmaterial s
Ġpart ies
on a
ĠGl obal
ĠMex ico
ĠE ven
g ency
ĠU se
t ask
sh ould
AL L
C ase
Ġin fo
ĠF ield
Ġl en
Ġfound ed
Ġcor onavirus
f ree
Ġbg color
li e
ĠO R
196 0
Ġk ids
Ġc ore
Ġsen ior
ĠĠĠĠĠĠĠĠĠĠĠĠĠĠĠĠ ĠĠĠĠĠĠĠĠĠĠĠĠĠĠĠĠĠĠĠ
Ġfour th
l s
Ġpr ison
ang ing
ĠB ack
Ġmax imum
Ġstra ight
k r
stand ing
ĠL in
Ġunderstand ing
Ġs ell
Ġf ix
Ser ver
Ġend ed
Ġserv e
iv ery
ĠWed nesday
Ġa head
Ġf ont
jav ascript
d ing
p y
Ġofficial s
Ġtr aff
9 2
ĠFor ce
ent ially
ĠL ibrary
ĠVirgin ia
ĠB oy
F e
r ate
CO L
ĠReturn s
m ut
t emplate
ac ement
Ġpol ic
ĠAN D
Ġrout e
Ġbas ic
Ġeconom y
ĠF ort
Fr ame
our ney
W S
Ġe ast
Ent ry
\ ,
Loc ation
Ġsol utions
W idth
Ġgo als
comm on
O p
' d
Ġa im
ĠChrist mas
yn ch
Ġco ord
k ins
clus ive
ĠF amily
umn i
Ġrem oved
Ġap plied
NA ME
Ġexact ly
Ġun c
gorith m
Ġn uc
Ġelect ed
n um
Ġtri al
ĠS pecial
app ed
pos es
Ġpro ced
ner gy
Ġre b
ar ian
Ġtri ed
back ground
Ġsc ript
P L
sc ale
ult ural
c s
ĠJ o
Ġn et
9 1
Ġp ush
fr ont
ourn ament
Ġbeaut iful
Ġsub sequ
ĠR ail
Ġqu ery
R L
Ġsh ape
olv ed
Ġsp irit
i h
ĠH uman
ĠF ile
Ġred uce
Ġres idents
Ġcontin ues
Ġown er
el er
Ġar m
r ick
d s
Ġstr ategy
198 9
Ġd ream
Ġb uffer
Ġnot ed
Ġfact or
ĠH aw
M ark
Ġb ill
Ġed ge
Ġcor por
leg al
Ġhe avy
Ġarg uments
ript or
Ġ ×
ian a
sc ope
ing u
Ġro t
Ġwin ning
Ġr are
w rit
ĠM ax
u an
Ġf ine
ĠYou ng
Ġst orage
Ġa f
ĠIt aly
ĠThe ir
Ġal t
B ig
capt ion
`` `
yl v
Ġagre ement
ro ot
] );
Ġse a
ans ion
id ers
col umn
ĠSp anish
Ġclass es
b b
F O
Ġorgan izations
F ig
rap per
ellig ence
Ġr ates
Ġfe et
Ġsl ight
C ons
ĠM en
Ġdi agn
ĠF ootball
n am
C urrent
Ġsup ply
l ook
() ->
Ġc ool
Ġh usband
Ġcho ose
Ġb rief
ab ilities
Ġfor ced
O ther
P at
f it
1 000
Ġn ative
ĠB ase
Ġad vert
Ġsk ills
ik i
ĠS ummer
Ġf if
ĠD om
AP I
ĠIr an
ĠW ater
ĉ Ġ
ĠSec urity
ĠB as
old s
he m
Ġse ctor
ell ed
ĠAp p
Ġfl ag
Ġb ottom
ĠHen ry
b in
Ġke pt
ĠDes ign
Ġph il
Ġm obile
ĠP ac
Q L
Ġpower ful
Inter face
ploy ment
ut ch
br idge
Ġext rem
l anguage
ĠAl though
ph one
Ġinvest ment
Ġdev ices
Ġobserv ed
Ġgu id
k er
j a
Ġthink ing
b ool
d esc
ĠL im
et ry
Ġsmall er
Ġequip ment
ĠCath olic
el ess
Ġtr uth
Ġtool s
Ġv irus
Ġappoint ed
Ġhapp y
Ġm achine
ĠF und
f a
AC K
ĠE lect
Ġco ast
p ower
Ġcomm it
ĠK ey
Ġref lect
ĠN S
ĠG ar
Ġcon cent
Ġinflu ence
ĠSt and
r ics
as ure
Ġbe coming
Ġoriginal ly
est ed
Ġpat ient
. $
Ġide as
Ġrequ ires
Ġed ition
ĠV iew
ĠAb out
Ġfact ors
Ġs ample
Ġh our
od ies
âĢ ¢
ĠM a
Ġsepar ate
I E
ĠM P
Ġarg s
et ch
Ġgener ation
Ġst ars
Ġh arm
Ġ` `
d rop
Ġoffic er
Ġmeas ures
Ġveh icle
at ically
ĠD own
ps i
D escription
Ġsp ot
se ar
Ġre ality
Ġle aving
IG N
Ġview s
ay ers
ĠCor por
ĠJohn son
Ġth read
Ġplan ning
Pro cess
ĠS and
ce an
ĠTh ursday
Ġdr ink
d im
M ay
go ing
Ġchall enge
f loat
ty p
Ġm ask
d ec
Ġcl ick
ĠS ar
ĠP o
ĠMed ical
ĠJ ones
Ġre asons
Ġ ~
ĠM ap
ist ers
Ġaud ience
Ġmost ly
iction ary
B o
al i
] [
Ġen h
ĠAs ia
ĠA mazon
Ġneg ative
Ġdr iver
sc he
ateg ories
C P
l ife
fr ame
ĠK ar
Ġadv ant
Ġill ust
th at
Ġin come
Off set
ĠPol ice
ian o
est ic
Head er
ĠC reate
Ġsc ope
m ega
ĠAr ray
J son
Ġcon vert
i ar
f ound
D own
Ġa ircraft
E ar
Ġm iles
eqn array
p g
Ġflo or
Ġdeterm ine
Ġfeature d
Ġman aged
E v
Ġcons ult
M M
Ġb ed
ĠD ate
ĠAr g
re al
c ache
or ph
ĠB ob
ur i
Ø §
Param eter
od ed
ĠF ire
Ġident ified
b uffer
Sc ript
ole c
Ġoper ator
c irc
Ġnot ice
Ġmention ed
c ard
Ġrel ative
Ġflo at
S earch
ĠW ay
ct x
ĠC y
Ġt ro
Ġob vious
erson al
Ġreve aled
ent ed
Ġalbum s
ĠL ab
Ġf ra
Ġtrans ition
n el
B undle
y e
Util s
Ġcent re
em p
ĠCE O
Ġv an
Ġcon nected
ĠÂ »
j o
ĠOr der
sc ape
w s
ĠAp ple
Ġd u
ubl ished
Loc al
Ġl ibrary
in ations
A re
H S
Ġc ities
im ary
Ġc ars
Ġadministr ation
Ġdown load
Ġbenef its
Ġper haps
as er
ĠR et
Ġin fr
Ġfund ing
W rite
8 7
ð Ł
Ġf it
Ġrepl aced
Ġfam ous
cl es
ur ies
ĠC A
Ġme ant
198 8
Ġbe at
Ġinterest ed
ĠL iber
am m
G E
Ġd anger
S ome
Ġatt end
Ġrecomm end
Ġwe ap
S ign
atal og
oth ing
ĠD O
Ġvis ual
Ġprof ile
ĠWh y
Ġst ations
ĠL ord
ĠP op
Ġw id
Ġit er
T ree
Wh y
Ġcred it
os oph
R ange
K e
Ġsm art
} [
Ġart icles
Ġbroad cast
Ġf resh
et ime
par se
Ġl ived
res ource
ĠS ports
ĠCol or
ĠA R
Â ©
Ġap pre
ĠIs lam
Th read
c ript
ec es
Ġp et
ĠSen ate
a fter
Ġb ul
W E
p op
Ġear th
Ġre sear
Ġdep artment
Ġsh ift
IN T
ĠN Y
at i
iqu es
ack s
un te
Ġdeterm ined
Ġh yp
Ġsequ ence
Ġcon vers
Ġz ero
gy pt
Ġat tract
Ġmat ches
ĠC ov
ĠAss ert
D ep
is hes
c ap
Ġtr ail
ĠH or
% )
p ool
ay lor
it che
ĠH ospital
15 0
( [
Ġw all
ific ations
in et
Ġsex ual
Ġde cre
Ġf an
}} \
ov es
Ġcon ference
il ing
ch i
ĠSt at
om ic
ĠM any
Ġ ut
Ġhouse hold
Ġcon flict
ĠWh o
Ã ¨
Ġ{ }
ide os
Ã §
og en
Ġgener ated
t ure
Ġapprox imately
Ġus eful
ĠCh ris
Mod ule
Ġmay be
Ġg un
Ġex ists
anc er
or ney
ost on
Ġcult ural
yth on
T im
O K
w an
Ġem b
Ġrem ained
Ġm ys
Ġf ixed
ĠReg ister
ĠA uthor
ad ium
ĠK h
end ar
ĠA ff
Ġst uff
d ocument
y er
RE S
Ġbig gest
r um
Ġs un
Ġexper t
Ġoper ating
struct or
cl aim
anc he
urb an
Ġk ing
Ġrequire ments
ĠB ow
m em
Ã ¢
Ġrele vant
. ;
Ġ ::
Ġg one
f s
re es
Ġtalk ing
Ġfore st
ĠR ights
Ġdam age
st yles
ĠE r
ĠL uc
Ġregard ing
ĠInd ust
| |
Cont rol
ĠL ine
R ed
Ġsh ut
ĠOr gan
Ġup per
Ġopport unities
Ġexper i
Ġst reet
Ġ ice
Ġident ity
Ġc row
Ġleaders hip
St at
ag ment
k in
Ġp urs
t ree
act or
Ġfail ure
Pro ject
Ġon to
ĠM os
C M
C al
Ġap i
S che
ĠW al
Call back
Ġbr ain
ers ey
B ook
ĠGeorg ia
Ġmus ical
Ġopt im
d es
ĠM ike
Ab out
Ġneigh bor
Ġmat rix
Ġcover ed
ĠSw ed
Ġd atabase
or row
ĠBl ue
Ġappropri ate
Ser ial
b efore
Ġcompon ents
Ġcar ried
Ġbenef it
Ġconf irmed
ollow ing
W indow
ĠJ on
d ed
ĠIn it
Ġcould n
K ind
ent ity
cd ot
es h
Ġis land
ĠT ele
CO DE
ĠS aint
M ed
od er
ak a
ĠAnd rew
ĠIr ish
uck y
ĠA ud
Ġfl ight
D L
à ¥
out e
m ond
8 4
ĠIn vest
val ues
Ã³ n
Ġto ward
ĠC ard
Ġag reed
ĠC ross
ograph ic
Ġat tr
Ġiss ued
aw s
' ),
He ight
Ġs s
Ġhistor ical
Ġrem aining
ĠW in
Ġcertain ly
s en
Ġs uc
C I
if ically
Ġre duced
198 7
Ġfac ilities
i at
ĠP rem
ĠĠĠĠĠĠĠĠĠĠĠĠĠĠĠĠ ĠĠĠĠĠ
art ifact
Ġ ult
Ġd oll
Ġext ended
Ġsett ings
am l
Em pty
oc key
Ġd ensity
aw a
8 9
Ġdom ain
Ġprote ction
m atch
Ġp ackage
198 4
Ġtr av
M e
Ġact or
r id
az ing
ĠAn y
k o
ĠC ON
" ))
Ġviol ence
d est
ĠW all
ans as
ĠIn ternet
is er
ĠH and
Ch ange
w ar
X X
Ġtre nd
Ġa x
am in
ĠN E
ĠL ast
' .
Ġchalleng es
)$ .
Ġdef ine
h or
ĠN ight
Ġst ress
O ption
Ġcall ing
astr ucture
ell er
Ġexc ell
ĠWilliam s
Ġcont aining
ĠE mp
Ġn ine
Ġin tr
ĉĉĉĉ ĉĉĉ
Ġp il
Ġclear ly
Ġext ension
W ill
Ġdescrib e
Ġupd ated
Ġstep s
Ġtri p
) ]
S m
the n
ĠN ame
Ġpict ure
ici ency
ĠCon ference
ĠR h
Ġch ain
re ference
od cast
hen s
N one
c or
Ġr ise
ĠE vent
Ġrelig ious
Ġun iversity
Ġaward ed
s d
ult y
ĠP an
i ro
Ġshow ing
ĠB razil
pro p
L evel
Oper ation
ĠJose ph
R I
Ġjob s
198 6
Ġstruct ures
Ġoffic ers
ĠAss embly
Ġhe ro
Ġey e
epend ency
ĠN orthern
im ents
ok es
ĠM iddle
Ġcandid ate
Param s
Ġun less
ĠCol umb
ĠW ild
ish op
Ġanim als
PE CT
im ages
ĠJ es
Ġk ill
Ġch air
it age
ath an
Ġcl oud
ĠK en
Ġcr iminal
Ġcom fort
ĠR equ
ate ver
ĠP age
D ocument
Ġconfig uration
Ġr an
Ġmon itor
Ġexecut ive
Acc ording
ĠBrit ain
z en
init ely
Ġs umm
res ents
8 2
Ġdef inition
Ġ icon
Tr ack
Ġb udget
att ers
Ġ* )
and on
st ra
Pos ition
ĠJust ice
% ;
Ġv oc
ĠN ote
ĠCol lection
Ġw arm
Ġs port
ĠT H
N e
c it
ĠP ass
og rap
if ies
Ġd ig
ĠL ive
ĠM icrosoft
f iles
ĠJew ish
Ġcam era
Ġrepresent ed
Ġw ish
Ġcr isis
ĠL o
Ġtem plate
ĠE ach
Ġmys elf
Ġatt ribute
Ġhold s
E nc
ĠJ eff
ic ip
ĠM A
Ġsing er
r ich
Ġc ategory
In st
Ġclin ical
Rec ord
ĠA D
l ig
Ġ> =
s ign
Ġwrit ers
p lement
ĠH on
. /
ĠT O
Ġenvironment al
ĠR o
ĠPol it
Ġstud io
T A
eps ilon
ĠW ales
Ġtraff ic
ing le
ST R
ap se
ak ed
Ġsc ored
S H
Ġad opt
on ym
Ġim press
u ing
Ġb ird
Ġre nder
sq rt
H ttp
ĠM ethod
ir a
i able
ĠR am
Ġcorrespond ing
ick er
The se
ĠH arr
Ġnumer ous
Ġd raft
ab eth
Un it
Ġf le
Q ue
Ġappear ance
r an
Ġorig in
ĠF ood
Ġequ ival
IZ E
ĠP oint
ĠR os
ĠDemocr atic
Ent ity
ĠD C
ĠSc iences
D ir
ĠE U
Ġse at
ĠL ike
="../../../../ ../
urs or
omet ry
M ult
Ġp i
Ġw ind
t im
198 5
Ġpro pos
igh ter
Ġstart s
ul s
eng er
Ġr iver
Ġcr ime
ĠFrancis co
ĠM ain
ĠTr ue
b ury
ĠH y
Ġj oint
H ost
ylv ania
Ġimplement ation
o es
Ġrap id
ĠI P
H ere
O mega
Ġsur vey
Ġin fe
ol es
Ġvict ory
Ġv ector
=" _
ĠE nergy
w indow
ĠF ederal
N et
amp ion
Ġinvest igation
il ton
H ash
Ex pression
Ġsignificant ly
j oin
ot es
Ġmet al
Ġpro ceed
ĠRe al
ap ed
Ġent ered
up s
> ,
ors hip
S ince
k ind
^ *
ĠC ode
ĠV an
d irect
ar ia
ĠSe ction
Refer ence
Pro t
= >
con f
Ġded icated
Ġnew sp
P op
ĠS outhern
Ġstand ards
ĠAmeric ans
19 50
Ġ il
cont rol
Ġl abor
N on
se cond
Ġcomm ission
Ġyour self
Con nection
ad or
Ġun known
{ {
Ġgover n
Ġf ant
Ġvari able
Ġcon str
is ms
n ab
empt y
Ġwe ak
Ġap plic
Ġown ed
util s
st ar
Ġcount y
Ð »
Ġprocess es
Ġdiv ision
clud e
c at
Ġsee ing
ĠSp ain
Ġpolic ies
ĠSup port
ĠDan iel
Ġgu ide
ĠOn line
Ġsom ew
D R
Ġl ayer
Ġp p
Ġpolit ics
t ml
ri ev
stit ution
ĠEx ception
sk ip
v a
r angle
Ġfavor ite
Ġover ride
el ines
Ġpro s
ĠII I
fo o
ĠGu ide
Set tings
ut s
ĠL ear
Ġtechn ical
Ġdis s
ĠC oll
sc ription
Ġp anel
Ġtell s
Ġcomb ined
Ġdet ail
Ġun ivers
Ġgu y
Ġs ale
Ġdr iving
Ġoffer ing
Ġdist ributed
E M
it able
Ġcont ainer
tr y
ad er
it an
ov ing
Ġident ify
} _{\
ov a
Ġaltern ative
us es
uz z
ĠS ir
An y
Ġj ourney
Ġag ent
av er
Ġs ustain
Ġb urn
Ġmin imum
Ġapp arent
Ä ģ
Ġm unic
Ġmark eting
? :
Ġparam s
Ġfocus ed
ĠP ak
ĠE gypt
ĠO k
ĠMich igan
ĠJ ac
Ġm yst
Ġwe ather
Pro perties
Ġd ivid
Ġs uffer
Ġcitiz ens
Post ed
er ies
ĠCo ast
G u
ct ors
ac cess
ĠOn ly
text bf
Ġret ail
Or der
Ð º
ĠRad io
ĠScot land
ĠG irl
Ġcustom er
ag ers
H P
ĠB iden
ĠPac ific
ast e
Ġd ie
Ġy ield
V ari
ĠL O
L C
Ġs y
ĠE nt
Ġcommun ication
Ġsign al
class es
ĠAd ministr
ol ume
=" -
l ers
istr ation
Ġdevelop ing
ĠL ink
ial ize
Ġpl ants
x x
Ġconduct ed
il ly
Ġcon sequ
n ote
d ated
k m
Ġprocess ing
Ġlist en
Ġn orm
Ġare n
ĠMus lim
iz ont
Ġfeel ing
artifact Id
enn is
Ġbut ton
ms g
d i
8 3
f riend
Ġh air
ĠRepublic an
As ync
ot ed
comm and
Ġpl us
Ġreview s
st ein
ĠE qu
v as
ĠSt e
Ġle aves
S ession
pos s
ĠL ight
g ers
cre te
Ġ[ '
; ->
ĠOlymp ics
p et
ynt ax
at uring
ĠB ul
ĠQue en
Ġline ar
D om
z z
Ġdep art
Ġknow s
Ġdiscover ed
ĠB oth
Ġint ended
sub section
ĠW alk
Ġm ist
s ylvania
Ġad just
Ġthe rap
ĠT er
Ġinter pret
h ash
P ass
Ġs ister
b ound
AT A
ex ample
Ġex erc
Ġex change
Ġyou th
angu ages
ly wood
r u
Ġnot es
Ġregister ed
ĠM id
Ġgl ass
Ġdel ay
COL OR
" ));
Ġw ww
gr ade
G ET
Ġf uel
= #
? ?
ann els
ob s
L ong
equ al
Ġfund s
Ġreg ions
ĠC ivil
ĠA ction
Ġp an
Ġpl ot
dev ice
Ġpro of
Cl ick
Ġf re
h ar
Ġmot or
unn y
Hel per
Ġphot o
b ind
t oken
b m
ent er
ur er
ä ¸
St ore
B I
ĠW at
l ines
ĠProfess or
let ed
Ġstr ict
8 1
Ġle tt
Ġher self
S O
Ġpartners hip
Ġinj ury
Ġthous ands
ĠStud ies
198 3
il a
ĠB oston
Ġn or
h igh
Ġstud ied
ĠM ah
Ġn ice
w ater
Ġmag azine
ĠAd v
if er
Ġm ixed
Ġstreng th
Ġresult ing
ĠW he
ĠPh ys
r im
() :
Ġdiscuss ion
ĠS ep
bur gh
F ound
b re
ĠÂ ©
ĠD ou
25 5
Ġto ken
let s
Ġgirl s
Ġreg ional
Ġlead s
Ġter rit
D uring
Ġthem e
OR D
Ġlearn ed
st ore
s pe
ĠM ath
Ġf ashion
ĠJack son
Ġwould n
G amma
ad ing
ord ers
r ange
Ġc ouncil
ph y
ĠA ri
Ġdoc uments
Ġadv ice
miss ions
ps ilon
ob e
n ap
Int eger
v ec
Ġ à¤
r ical
us hed
Ĥ ¬
Ġerr ors
k now
s end
he ast
Ġpost ed
Ġproduc er
if est
} =
st ack
ĠF red
ĠL i
ĠCar l
D i
ĠJ r
sec ut
ĠPar liament
Ġn arr
Ġcl ients
Ġund efined
Ġfind ing
ecut ive
M em
R ight
Ġal umni
Ġvacc ine
med ia
ear s
Ġj ump
Ġ rom
Ġp adding
Ġallow ing
urre ncy
Ġn um
ĠL ittle
Ġr ich
U RE
Ġ$ {\
198 2
h ow
Ġdram a
Ġl atter
clud ed
Ġf ell
Ġess ential
U se
1 20
ĠA L
Ġis ol
ĠO x
ing ly
V ert
ĠT w
Ġseem ed
ak s
duc ing
Ġadd ing
Ġveh icles
Ġcre ation
ĠSecret ary
el ly
r b
g raph
aw n
ĠT erm
group Id
ad s
ĠJ er
J an
pos ite
Ġclaim ed
im a
n ic
ĠW indows
ĠEn vironment
ĠS ign
el a
F ont
ĠM aster
Ġdec ades
mod els
Ġanc ient
Result s
ĠBe ach
Ġfin ish
Ġrep resents
il ms
v are
Ġdef ense
Ġhe at
Ġb asketball
Ġmar riage
? "
! âĢĿ
ĠB ecause
Ġthan ks
Ġsche me
Ġm ental
Ġweek end
ont o
ĠF ar
Ġf ellow
ĠT able
ion e
ov iet
add ress
Ġs leep
Ġpre par
Ġrepresent ation
ĠN O
S w
param eter
P RE
field s
ac le
Ġarr ived
ĠThe atre
Ġop inion
IT Y
ĠA venue
iz abeth
Ġspe ech
int on
ap es
Ġcomb ination
)$ ,
Ġfac ility
Ġs quare
ident ial
Ġr ain
Ġt ournament
d ebug
Ġam b
typ es
J ust
sh ot
Ġliter ature
b order
Ġadvant age
Ġte le
' ],
} /
ĠTr ust
ino is
Hand le
Ġto w
ĠP lease
ĠBook s
ĠC re
Ġe cho
cl ick
ug ins
Ġfor t
Ġt end
ect ive
Ġpract ices
b ra
Ġtrack s
pl ing
Ġfa ith
ad el
ĠK ong
Ġann ounce
M C
Ġaff ected
het ic
Ġen able
ic er
ĠM u
ĠM ic
Ġse asons
er g
Ġconcern s
Im pl
197 9
n ight
Ġp al
A F
A uthor
Ġad vent
red it
Ġv ision
ph as
ĠM ake
Ġdel ivery
ĠT aylor
ĠL td
C ore
wh ite
ĠEX PECT
p p
ann er
) =
put e
ent h
Ġsecond s
Ġag ency
W orld
Ġin struction
ĠK im
rom ise
ĠT ri
ĠT oday
Ġrecord ing
s v
ĠC ro
ev in
Ġcook ies
is c
D P
ap pro
Ġslight ly
8 00
Ġatt ended
ĠB G
Ġn amespace
ĠK ent
Ġc ache
ĠOh io
T itle
pro of
v ector
j ection
OR M
op her
Ġexper iences
Ġa uthors
ins on
Ġv en
ry st
Ġpurch ase
Ġun ion
ĠM ult
ĠSe a
e z
ĠF air
d elete
ĠG reek
ĠDon ald
ĠBro ok
pe ople
Ġextrem ely
G en
ra wn
AG E
Ġw ave
Ġbeg ins
Ġs plit
est amp
Ġtr uly
I ter
ĠAc cess
ĠN avy
Ġconc ert
udd en
ĠR en
ĠMark et
ĠMed icine
Ġhelp ing
ERR OR
Ġhous ing
ĠG re
Ġserv ing
Ġex amples
N ames
Ġacad emic
Ġbeliev ed
izont al
ĠPenn sylvania
u ilt
il ation
: (
Ġfil ename
f ocus
co in
ific ate
Ġs an
Ġpe ace
ĠS us
AC T
ĠAs ian
pro duct
s ystem
Ġcontr ast
ĠEngine ering
et her
="../../../../ ../../
Ġtyp ically
% ,
gl obal
^{ (
Ġam azing
Ġwin ner
Ġb atter
Ġs outhern
doc s
Ġ" \
Ġpos itions
ly n
Ġdist inct
Ġx ml
Ġloc ations
Ġex ternal
P tr
in ating
Ġadv anced
ĠSt an
in ternal
e per
ĠJ ersey
b al
Ġhel ps
Ġde lete
con nect
ĠBro ad
Ġhom es
. '
ne ctions
ĠSt eve
Ġf ish
Ġprof ession
ĠSp ace
E ach
Ġhas h
Ġtr a
alle l
ĠH a
How ever
n ormal
Ġsupport ing
ce ived
ir al
ell o
ele ase
Ġc old
enc ing
Ġw arn
Ġestim ated
ĠT em
Ġcre w
ĠR om
Ġadv ance
ot hes
Ġre ject
6 00
Ġmot ion
Ġsp ring
Ġdef end
ost er
Ġchang ing
art ers
EN D
ĠN av
198 1
Ġk id
Ġre form
trans form
Ġachiev e
ĠS af
ap pe
ĠN iger
s ession
Ġrem ote
d at
ĠMc C
ĠE N
R C
Ġhot el
st one
ĠV ideo
Ġfootball ers
let on
ĠB ern
Ġn orthern
Ġinc orpor
m ann
b ro
F alse
; "
he mat
Ġre tain
oot str
ĠF our
Ġc er
ĠOb ama
hand le
Ġattack s
Ġsp end
S L
Ġbal ance
Ġact ress
Ġprote in
Ġcirc um
Ġaccept ed
Ġgu ess
co pe
Param eters
rou d
fort un
Ġg ain
Ġcol on
25 0
Â °
Ġscient ific
================ ================
ĠV ill
Ġmark ets
ĠW is
B est
Ġv ent
Ġt error
Nav Bar
On ly
Men u
Ġm essages
Ġd ance
Ġmov ies
ĠR ay
Ġwatch ing
s f
( *
as hed
A ust
ann a
ĠU kr
od d
Ġcorn er
Ġelection s
Ġwait ing
y o
st op
] ]
j i
Ġoccur red
Ġ( '
ĠC H
Ġrefer red
Ġthan k
Ġh ydro
Ġw itness
ograp her
Ġk ick
C or
ĠS O
f n
L eft
re nder
Ġsp in
AC E
Ġimport ance
Ġclass ic
all ow
Ġpur poses
ĠL ook
ĠD ar
d el
ĠKore a
Ġgener ate
197 6
Ġcomm itted
Ġtrans action
Ġpro ve
c lear
ĠMod el
197 2
P arent
Ġp un
Ġpl anned
ĠI T
E Q
197 5
}^ {\
new s
Ġhapp ens
Ġmed al
ĠS om
Ġan imal
c ert
197 8
ed ge
T ube
ĠCh air
ĠR est
ĠL ocal
Ġtre ated
C are
Ġpol y
ĠGu ard
ĠPr ince
Ġsym pt
ĠCont rol
ĠV alue
Ġp ool
um es
s ort
Ġaud io
ĠEx t
Ġ\ ,
ock s
Ġmass ive
ĠD aily
ist ant
P T
ĠG i
id ae
ro t
am ber
_ ;
In valid
Ġhigh light
ĠA S
ĠSt ory
. âĢĻ
ĠD igital
ĠW rit
Ġrel atively
Ġf lex
D D
ot i
ĠA f
Ġch osen
ĠTh ree
Ġch ampionship
ick ets
Ġin n
Ġhold ing
( :
Ġl oved
og gle
ĠEmp ire
ĠE th
ign ment
Ġinsp ired
st ances
ip eline
E rr
ab b
Ġar my
Ġadv oc
ĠSt art
Dev ice
} ).
pr ise
Ġb an
Ġpi eces
ro vers
u is
Ġsuc ceed
ĠS her
p resent
F inal
âĢ ī
s plit
Ġl icense
ram es
V ector
Ġcreat ive
-- -
Ġd ress
ootstr ap
ay a
Ġfav our
se y
Ġeven ing
N ational
Ġrel ation
form ance
ĠC at
a uth
} ),
Ġfig ures
c f
B efore
re q
and y
T ags
un a
Ġm useum
Ġc ash
Ġs amples
Ġr h
Ġdou bt
Ġprot ocol
hold er
ix el
C RE
ynch ron
to String
Ġauthor ities
S k
av id
Ġjust ice
L a
ĠPr ime
ĠC ustom
em on
Ġinstit utions
Ġappro ved
og y
ĠTh us
De cl
Ġtrad ition
ĠI mp
197 4
ĠB ad
__ __
ĠA sh
D oc
Ġexcell ent
. }
os es
Ġend s
mod al
o ir
Ġso ft
Eng lish
Ġinit ially
Ġ ul
Ġe lem
ĠChild ren
B ody
ĠAir port
ĠSe ason
ĠĠĠĠĠĠĠĠĠĠĠĠĠĠĠĠ ĠĠĠĠ
Ġch art
web kit
T emplate
or ough
Ġfight ing
cl oud
Ġf ramework
styles heet
ĠK enn
in ity
196 8
Ġdiffer ences
Ġv ideos
Ġexperi enced
Ġtre es
Se lect
m ode
ri e
Ġprep ared
Ġinc red
p df
Ġsup posed
ER S
Ġ era
Ġarchitect ure
Ġbr anch
ic ons
P ublic
o or
Ap plication
Ġgu ys
us et
ĉĉ Ċ
ĠGover nor
Ġel im
Ġh idden
Ġev olution
197 7
Ġest ate
f aces
ĠCorpor ation
od s
w orld
sh all
yd ney
u ous
Sh ow
h ab
Ġp hen
te en
Ġbehav i
ĠM S
ĠCov id
ĠF ox
ro ke
ĠU ser
p atch
c opy
ap ore
Ġfl at
Ġdec isions
Ġemer gency
em ail
AT H
i y
Ġv ac
Ġs qu
A ME
ĠPh ot
Ġb rowser
are n
` .
Ġsk in
Ġengine ering
Ġres olution
Ġturn s
by te
Ġphot os
ĠIll inois
Ġcover age
equ als
ins ert
Ġprot est
W A
V er
Ġl ies
ĠC ur
Ġmain ly
w riter
ĠComm on
.... ....
pro v
Ġsuggest ed
Ġhead er
Ġli ber
Ġsur g
Ġauthor ity
In s
Ġuns igned
ĠC ond
Ġex pos
iss ions
V D
R S
ug by
an th
Ġbel ong
Ġvers ions
Ġpred ict
Ġexp ansion
. \
k g
Ġdep th
Ġf reedom
CT ION
ĠN on
ĠH ong
Ġb att
Ġrece iving
ual ity
vare psilon
Ġg rew
ir ation
d ist
c oh
uck s
Ġpr ices
ĠEd ward
197 3
ĠL atin
right arrow
ĠB ang
b as
ĠSup reme
or al
ĠS on
Ġtw ice
a is
Ġcar bon
Read er
M I
erv ative
m id
out s
Ġexpl ained
p erson
ĠC irc
w idget
u ations
Ġex tract
Ġcol lected
vir t
Ġf ill
v in
Ġp it
inter face
Ġsec ure
Ġcom edy
Val ues
ut r
ĠH ard
atas et
ple x
ĠM ajor
Ġnetwork s
ĠT ext
Ġimpro ved
Ġc art
Ġgu arant
m ake
Ġro les
Ġap art
Ġsp ons
ist ent
Ġb ond
Ġvol unte
Ġin ternet
Def inition
âĢĻ .
olog ist
ĠL ew
Ġcons ists
Ġr ing
ĠR og
Sche ma
Ġc aught
eg raphics
ke ys
Ġindust rial
includ egraphics
c ustom
ar ation
ol ver
Ġent ertain
ect s
nes ota
ĠE astern
u v
Ġchem ical
Ġcor re
m osp
Ġacc ident
[ \
Ġte aching
un ting
ĠPhil ipp
O O
av or
SE T
Ġcy cle
res hold
var phi
Ġact ors
Ġcandid ates
c ut
ĠC ook
ĠB attle
D C
Ġbr ings
Un iversity
ess ions
T wo
197 1
ast ers
Ġdet ailed
ĠM ir
ra ham
Ġdef initely
Ġnuc lear
Ġwh atever
ir ty
Ġinstr ument
Ġeff icient
St ep
osoph y
Ġhous es
ĠI O
Ġord ers
N ov
H as
Ġsuccess fully
ach uset
ĠÂ ·
Ġs ounds
Arg s
Ġupd ates
w orth
Ġre nt
sh op
achuset ts
Ġact ing
Ġman age
Ġhe aring
Ġs ides
Ġinc ident
h over
iven ess
Ġexpress ed
Ear ly
Ġass ume
V E
m aster
ad min
en v
Ġj av
Ġalleg ed
Ġposs ibly
ĠK r
D raw
__ (
or gan
cont in
ĠE st
Y ear
ĠF urther
Ñ ĥ
Ġinfr astructure
Ġa thlet
eg o
) "
Ġassoci ation
H igh
Ġres erved
Ġc as
em an
Ġtr igger
Ġwin ter
196 9
Ġentire ly
ur d
ang o
Ġper man
Ġa wards
Arg ument
ĠC orn
Ġequival ent
t ool
M eta
G S
Ġal gorithm
sc reen
n amed
Ġpolitic ian
ens ional
re place
w a
Ġrepl ace
ĠComm unic
Ġfind s
Ġbr idge
Ġtest ed
ĠW atch
ĠO N
R ender
ex ports
Ġcl uster
iv ation
C ap
ex port
l n
R ect
ĠBG COLOR
Ġins ert
Ġre con
ĠSt ation
Se cond
ail ing
Ġkeep ing
Ph one
Ġhon or
ĠT urn
Ġm el
N ote
Ġac comp
{ }
g a
Ġst ack
ĠP C
ĠEx ecutive
Ġcomm ittee
Ġ urban
Ġspec ifically
ĠSt aff
Ġexpl ain
Ġg ender
r ine
Ġsett lement
Ġreg ul
ĠD eb
Ġse gment
en um
New s
Ã ±
Ġfe aturing
Sup port
ĠF ull
Ġ ðŁ
ra q
Ġw rap
ant ly
19 40
pt on
M embers
p an
W idget
Ġke ys
ĠP ay
Ġinv oke
ĠAn th
P M
> ();
c uss
Ġg ather
ĠAl b
ĠUp date
Ġtechn iques
Ġco al
. ~\
Ġprofess or
em pl
Ġb ow
ĠP en
Ġsp aces
Ġstop ped
ĠB BC
Ġm ent
Ġw estern
Ġgu ard
Ġpr iv
n ames
Ġinstall ed
C ustom
ĠCount ry
I X
Ġm olec
Field s
Pol icy
s id
Ġsupport s
AR Y
epend ence
Ġpar se
Ġalong side
in er
al o
ĠO nt
Ġcompar ison
reg ister
Ġhistor ic
Ġh aven
ĠVictor ia
A v
ge q
eng ers
it o
ĠB on
` ,
app a
Ġm ort
is a
ĠĠĠĠĠĠĠĠĠĠĠĠĠĠĠĠ ĠĠĠĠĠĠĠĠĠĠĠĠĠĠĠĠĠĠĠĠĠĠĠ
sc ribe
G A
ĠAre a
w rap
Ġo dd
Ġl it
ul ner
Ġt on
f ull
ĠEl izabeth
M B
ĠP ers
Ġrat io
S U
S end
> .
ĠC ost
Ġr ough
Ġcharg es
V ideo
Ġt ab
ĠR od
ĠSpr ing
Ġred uction
D I
c oll
bl ing
ĠA k
act s
F T
Ġs ac
W riter
ern el
Ġcaus es
ĠH om
-------------------------------- --------------------------------
Ġrelationship s
bo olean
ĠS u
f ast
Ġman ner
m o
ĠB ol
ĠH as
ĠL abor
if fer
ĠPr ivacy
mer ce
Ġn odes
ĠS at
ic ing
ach ment
N N
Ġpass ion
ĠN umber
Ġvari ables
uc ed
am il
Ġo s
ĠM O
âĢĻ ,
Ġe at
Ġdiscuss ed
Ġconf irm
Ġag ric
Ex p
or i
Ġ urg
196 7
ub y
Ġdeliver ed
ag ger
IC E
ĠA li
Ġorder ed
se x
Ġmin ute
c ur
poss ible
Ġex port
st ep
ĠAg ain
ĠMin istry
Ġprogram me
Ġear ned
in ates
ou red
16 0
Ġl icens
ĠS pec
d uce
Ġsh ock
ap h
ĠIs lands
ut ely
pl ugin
ĠN ext
b uf
Ġrespons ibility
ul pt
Ġresear chers
Ġl ose
Ġprov ider
ĠH u
Ġdem ocr
ag a
y ard
ĠW el
ĠAnd roid
IV E
Ġtop ic
os a
f ramework
ĠS ym
Ġbring ing
Ġlarg ely
D IR
## #
Ġjud ge
Ġinterest s
Ġbo ost
l aw
St orage
M ain
Ġdirect ory
ĠB ell
! "
Ġz one
Ġequ ation
em ph
Ġex plicit
j e
ip ality
Ass ert
Ġs oc
ĠHistor ic
ĠS oviet
M T
ĠRep resent
ĠU RL
Ġsol ar
Ġvis ible
ĠOx ford
f ol
ĠWil son
M edia
Ġsh ares
Ġnear by
ĠF re
St ack
ĠM att
Ġvoc als
Ġent ity
ĠUn ivers
ĠCom put
Ġf illed
Ġcon ver
l an
ten ance
call back
Ġsub stant
i ples
Ġcons umer
Ġst orm
Ġpost s
Not es
10 1
Ġe lev
ĠAd am
v m
Ġem phas
Ġs udden
Ġform ation
ĠS P
( -
Ġfrequ ency
oper ation
ĠE s
ĠS earch
Ġeas ier
Ġin line
ĠEx per
force ment
ĠS anta
Ġst ores
The n
t n
19 30
Ġstand ing
"> &
Ġp ed
Ġdo ctor
Met adata
Ġv eg
Ġad m
ob uf
Ġs quad
ĠChampionship s
d ouble
in ator
ĠC opyright
Ġepis odes
Ġwe alth
ĠL em
F ind
Ġsch olar
Ġpl ane
Ġser ial
Ġcomp r
Ġs oul
% .
k es
enn es
Ġacqu ired
Ġparticip ants
Ġread ers
Ġprim arily
ock er
on ia
d ot
St ud
R ad
Ġac id
Ġdom estic
ĠP ath
Ġall oc
Ġ ),
& \
tain ment
="../../ ../
ict ure
ĠPort ug
Desc riptor
Ġexpl ore
' >
adel ph
Ġcamp us
ĠHT ML
r ance
ĠAn other
e en
ĠV iet
Ġb ass
ĠTor onto
Ġnew ly
Ġgreat est
ĠE ff
Ġp ure
Ġabsol ute
ĠColumb ia
w ords
ĠE ll
Ġg ar
Ġtechn ologies
Ġpro min
ĠFore st
Ġ} )
zon a
Ġac know
Ġpass ing
Ġsecond ary
ress ion
over line
en ant
D em
it led
ens es
in line
an z
reg on
f ire
Ġfe els
D el
ĠP ubl
ĠOn ce
ĠBl og
Ġwid ely
Ġplan et
Ġ+ +
E very
Ap i
\ "
Bo olean
Ġab use
ĠR on
Ġbr ight
ĠMag azine
ist ed
Ġmed ium
Ġmark ed
Ġex tr
Ġrec ip
ĠK now
ow nt
um a
Ġm ach
Ġrequest s
am i
cons in
Ġvot es
W ell
Ġin ner
ĠMass achusetts
Ġw a
are t
U K
Ġm ir
ĠM ill
ĠN ick
Ġbro ken
Ġcon sole
Ġexper ts
Ġachiev ed
ow a
her it
Ġclub s
s es
Ġcommun ic
i pl
Pre vious
194 5
Ġe c
ĠS ydney
ĠO s
Ġo k
ex ception
Ġcharg ed
ĠB a
ĠRes ult
D elete
ĠC a
H A
Go ogle
ĠF ord
Ġhe av
ĠB al
b les
Ġc ab
ul er
ĠB all
Ġrecogn ized
Ġdrop ped
virt ual
and ra
st at
est ion
= {
RO M
adelph ia
pre ne
B R
ĠDav is
e ah
Ġpolitic ians
it als
ic ian
19 20
Ġas pects
Ġm al
Ġear n
R oot
Ġbel ief
ĠI ss
Ġre action
er ia
ren ce
Ġprom ote
P lease
Ġaccount s
Ġmin ister
ps on
Ġact s
set tings
Ġhum ans
By tes
Ġsuff icient
Ġrepe ated
Ġp ra
li x
dis abled
Ġsurround ing
Ġr ural
196 4
Ġby te
ĠY es
ord an
Ġy ards
ĠW ars
uck et
Ġl osing
ĠD am
w p
E CT
Ġli qu
point s
ir ms
Ġass igned
Ġf at
anche ster
Ġl anguages
ir k
bour ne
M ember
cre en
Ġs we
Ġby tes
ĠT y
Ar ch
ĠS ite
up le
Ġe g
H R
Ġpers pective
rupt ion
Ġcont emporary
Ġworld wide
ĠStep hen
Ġar ms
Ġsh aring
th ur
EX T
Id ent
Ġaff ord
D T
ĠYou Tube
al id
Ġesc ape
Ä ĩ
re prene
ug s
Ġestablish ments
Ġre new
Ġcy cl
ĠE rror
Ġd ry
ĠJ ean
P res
) ^
ĠM ember
M r
Ġexist ence
Sec urity
Ġread er
Ġm il
Ch anged
an es
ask a
Ġwe ar
Ġint elligence
ĠScott ish
Ġsh ips
um in
iz z
R et
br id
Ġs and
Ġm and
ou ri
ĠN ic
j pg
ar c
En abled
Ġconsist ent
", "
Ġs um
iss ue
Ġb ought
f all
P arser
ost ic
ĠBr ad
ĠT R
ĠC ase
Class es
ĠHot el
ĠD ist
ic ious
Ġc ref
HE CK
Ġsuggest s
Ġp roud
w ait
W here
ĠV ersion
ĠA T
ĠAlex ander
Ġneighbor hood
ack et
ĠTh rough
Ġsched ule
F ull
Ġm sg
Ġhealth y
Ġres c
erv es
b ul
Ġ" /
N um
Ġserv es
Ġhon est
gr id
ĠP R
ĠF unction
aut o
Ġar ts
}, \
X ml
Ġdeb ate
foot er
Ġfact ory
ro ve
P ORT
ĠS a
Ġrestaur ant
Ġ( *
Ġinteg r
Ġask ing
B E
Ġwas te
Ġcan cell
Ġyoung er
ĠMin nesota
Ġ[ [
ĠO tt
ĠP A
Ġun able
196 5
Ġ ing
Ġcont rovers
C opyright
Ã £
com ponent
H is
L ock
ĠPak istan
ĠPro cess
p are
Un ited
Ġcomp re
is ode
1 10
Ġsched uled
ĠB and
iam ond
Ch rist
Ġb omb
ĠInd ex
Ġpay ment
LO G
lang le
Ġelect ronic
Ġperson nel
Ġtit les
Ġs ynt
k ing
ĠM arg
s uccess
Ġreturn ing
ĠW here
ĠAr m
ĠThe refore
he im
D ebug
ĠProv ince
Ġc le
Ġwor se
Ġj Query
F S
P ER
Ġcont ained
Ġc e
Ġn arrow
Ġa id
ip ped
S cope
Ed itor
Ð° Ð
ĠC as
Ġdec ade
Dis play
ers hip
h ome
Ġarrest ed
un es
is lation
rec ord
Ġfamil iar
Ġcorpor ate
Ġn ob
b ad
ĠC reek
sp ring
Ġ< =
ag ues
Ġtherap y
ol is
Ġf iction
Ġgrant ed
Ġw ins
Ġfif th
Ġrail way
anc el
Ġconcern ed
L ook
ĠD utch
Ġb aby
Ġr aw
Ġpublic ation
Ġreport ing
sc ious
ĠBer lin
og ether
ĠI raq
ĠDe ath
ĠOnt ario
u h
Ġport ion
ĠSystem s
Ġdrug s
ar ry
Ġinstit ution
oc ity
C opy
Ġf ly
Ġlink ed
Ġfor g
Ġmen u
ĠB C
Ġpr ivacy
t ics
Ġblock s
ig in
ĠSh ort
b oy
M ost
Ġb odies
Ġl ay
ĠR yan
ĠI l
Ġmount ain
Ġins urance
ĠOff icer
ĠColor ado
R ule
B rit
Ġsp ending
Ġsympt oms
Ġwill ing
Ġder ived
ty ped
h line
Ġfil ed
By te
Gener al
ĠH ay
Ġcollabor ation
ĠV en
Ġdecl ared
ir th
Ġv eter
Ġj son
ĠG reg
ĠSing apore
196 6
ĠL y
ĠP RO
-- >
y es
Ġat mosp
Ġg al
Ġc raft
eder ation
or ry
Ġfund ament
ĠT ask
ĠCh ange
ou ston
ĠF OR
L P
Ġh abit
Ġtyp ical
ĠD ead
ĠHar ry
ĠJ SON
ing ham
ĠN FL
KE Y
Ġind eed
Y es
Ġlo op
$ (
as m
Ġform al
Ġdefe ated
att ribute
Ġ' /
ĠL ow
ĠA ge
ang ular
Ġn g
Ġput ting
Ġvisit ors
ĠT ok
Ġm atters
Ġg ene
Ġret ired
Act ive
ĠU t
u its
ĠSo ftware
Ġ( +
Ġm ac
s ql
f ony
Ġno ise
qu ir
Ġsign s
Å į
Ġus ual
M any
¿ ½
Ġappre ci
Ġto m
ĠChe m
Ġautom atically
Ġp owers
d ependency
Ġen abled
ĠH o
ĠF ac
L ambda
S ymbol
S D
Ġli e
Ġsold iers
Ġst one
Ġindic ate
d ict
li k
ĠP sych
ĠA z
Ġal ter
ak h
ell s
ĠCl in
f il
ĠAdministr ation
Ġaut hent
ĠĠĠĠĠĠĠĠĠĠĠĠĠĠĠĠ ĠĠ
Ġoper ated
ivers ary
M atch
hens ive
l ights
ĠR a
Ġdanger ous
c md
Ġon going
C ast
Ġocc asion
ĠR ight
V ar
od ec
fortun ately
Ġad j
Ġshoot ing
Ġhor se
E C
T ool
ĠMan ager
S outh
ĠB ox
FA ULT
fer red
ik a
Ġm ock
om y
Ġnewsp aper
Ġseek ing
Ġtal ent
w ing
Ġhundred s
ul ating
Ġassert Equals
Ġdynam ic
Ġse ats
ĠB h
Acc ount
ak i
Ġre venue
ĠJes us
f amily
let ter
Ġrepresent ing
Ġclos er
Ġrec all
ï ¿½
pl ed
ĠCon nect
B i
ĠS ant
Ä ±
ĠCh annel
ĠF ind
ap plication
Ġthought s
Ġwor st
ĠPro duct
p anel
Ġco ff
ĠB rian
ĠTr ail
Ġrecover y
N etwork
} "
Ġstand s
ro g
Ġad min
ON E
_ ,
) -
fr ak
Ġconstruct ed
ĠDis ney
l ow
%% %%
J ob
G O
H L
Ġadopt ed
VAL UE
) /
Ġm outh
ĠP ot
do or
Ġexpand ed
Ġend ing
in v
Ġst ret
ĠC ulture
ĠEx pl
c ing
ĠL es
ĠBuild ing
ynam ic
Ext ension
Ġcapt ure
Ġv ary
Ġstat ements
O h
G R
Ġcont rolled
Run time
iam i
ĠM iller
ĠH ung
item s
Ġgu est
Ġadult s
ax y
Ġinter action
ĠL ev
ĠR aj
Ch annel
p adding
Y our
app oint
ĠK at
Ġweap ons
ĠS ong
he ll
Ġscient ists
r ase
y ers
Ġc overs
Ġse ed
Ġte en
Ġst ored
Ġsem i
Ob j
ĠC reat
Ġconvers ation
oun sel
Ġult imately
ĠL ady
Ġch annels
X T
if ts
Ġv el
à ¸
ĠReg ion
ĠT ra
ok ed
ĠHol lywood
ĠMount ain
Ġocc urs
th read
Ġr ide
TE ST
F ree
Ġm ess
ire ment
Ġquant um
12 8
Ġt or
Ġf estival
W rit
ĠP y
Ġun iform
ĠTrans port
ile y
ĠPro te
ĠD ark
et es
Ġclass ical
Ġmod ified
ĠD NA
~~ ~~
ĠG allery
Ġv ulner
Ġteacher s
SS ERT
Ġw ire
Ġcont est
sh ape
her lands
ĠT al
ado op
r uit
ĠF C
Gl obal
ĠL iter
Ġperform ing
D avid
Î ±
ĠB efore
S ION
Ġh all
Ġun f
he red
Ġcon ven
Ġsing les
inst all
D atabase
ĠPh oto
Ġatt ributes
ĠQue ens
Ġhand ler
OD O
Ġde leg
Ġdet ect
W N
Ġconsider ing
Ġt ail
Å ¡
ĠE lement
m box
c am
Ġsol o
ĠWis consin
ĠN ations
Con st
Ġfound er
" `
Ġmeas ured
ĠA h
iv als
ri or
ĠE ric
R est
g ar
em ble
U nder
Ġs now
Ġhy per
. [
ĠH ind
i ate
sh ort
tern oon
S ym
C ond
Ġper mission
call ed
Ġincre ases
Ev ents
HT ML
Ġperform ances
Ġsil ver
ĠJ ava
25 6
Ġstat istics
ul ing
ĠBel g
Ġrem ark
Ù Ħ
ĠHam ilton
W indows
ĠS oc
uss ian
######## ########
ro ps
Ġdec ide
O ct
ĠC P
ann y
arg ument
Ġplatform s
Ass oci
Ġvict ims
ĠR ome
ar on
ĠE mer
Ġs elling
h ol
p a
Pl ay
196 3
Ġwar ning
av ity
Ġt err
Ġclos ely
Ġexc ited
B en
Time out
Ġmag ic
Ġconf idence
ĠKore an
O wn
Ġd ialog
Ġt um
Ġtw enty
ĠMod ern
ĠS em
M ich
y ou
t ical
f ly
Bl ack
Ġext ensive
i ac
Ġattempt s
Ġwalk ing
Ġag encies
Ġwel come
Ġsign ature
Ġass ets
m i
se ason
ĠEnter tainment
o ices
Ġboy s
Ġscen es
ĠR eb
ĠĠĠĠĠĠĠĠĠĠĠĠĠĠĠĠ ĠĠĠĠĠĠĠĠĠ
mat rix
Ġrecogn ition
add r
Ġtask s
Ġsm ooth
Ġthe rm
ĠF uture
D ialog
Ġprov ince
ER E
Re port
ĠOff icial
Ġeduc ational
v an
ĠT ro
Ġcommon ly
ĠN AS
Ġsp oke
coh ol
ic ide
ĠGold en
T ab
ly ph
=" /
Ġprogram ming
Ġdeg rees
f ill
t ip
ul ator
Ã£ o
Ġmom ents
Ġgood s
Ġacc eler
Ġoption al
Ph oto
assert Equal
Ġc ensus
' ))
Ġassess ment
ĠPrem ier
Ġth ick
; <
up load
Ġaccom mod
Pr ice
Ġk illing
Ġentertain ment
ĠF alse
pl ugins
M D
Ġdr ivers
Ġs ummary
N OT
aw ay
Ġab andon
Ġspe aking
ĠSt ock
Ġv ess
b ell
Ġrelig ion
Ġpre v
includ ing
Back ground
ĠFin ancial
all oc
Ġint ent
Ġs pl
u able
Ġtalk s
Ġext ent
Ġdivid ed
ok ing
ĠJ enn
com ment
Ġt ack
Ġt aught
ang ers
ĠG ree
Ġinvolv ing
Ġres istance
se ct
arr ing
] :
ĠF all
Ġleg isl
ĠEd ition
un ter
ĠInst agram
it is
Ġc os
Ġt ight
Ġfrequ ently
ĠBr idge
Ġw aves
ĠS che
se ud
Test s
ĠAg ency
b el
ĠCon f
Aust ral
Ġbase ball
}} $
t oggle
P erm
ĠLew is
196 2
Ġassist ant
Ġconsum ers
pro file
Ġrecomm ended
ast s
Ġsever e
Ġs ad
ĠCap ital
Ġpers ons
ĠComm and
Ġide al
Ġo vers
ĠT ony
Ġcon nections
m aterial
Ġcomp are
Ġs yn
ĠIm age
ĠAcc ount
ĠRec ord
U D
Ġab stract
Ġinstance of
Ġimplement ed
y cl
ĠC ub
Ġneg oti
ĠDes pite
Ġdestroy ed
ĠAri zona
() {
Que ue
Ġpre gn
gress ive
Ġexerc ise
Ġpattern s
ĠO regon
Ġenc ounter
Ġadvert ising
Ġoffic ially
Ġenjoy ed
Ġag ents
Ġcompos ed
d eg
ential s
Ñ ı
Ġsp an
ol id
Ġtell ing
ĠAnt on
child ren
uns igned
ĠD ream
ĠBro ther
Ġfe e
Ġy es
Ġeff iciency
el lect
An other
Ġprom ise
mon th
ed it
IG HT
& &
ĠF A
assert Equals
Ġfor get
Ġdep ending
Ġstre ets
ĠTur key
ag en
Ġbuild er
ĠPhil adelphia
F ix
B it
ĠS ound
Ġcap able
1 30
F urther
Ġcont ribution
Ġintro duction
Ġpe ak
block List
M usic
g ame
Ġassist ance
r ule
ab els
Ġleg end
ele gate
prot obuf
RE E
l ay
Ġorgan ized
Ġaw ait
Ġhost ed
Ġc ards
reg ion
M sg
g ov
Ġcontrol s
Ġdescrib es
ast y
ĠPol and
ĠCam bridge
ĠS ource
rop ical
ĠB at
In ternational
ĠEd itor
i est
math frak
ĠS av
Ġcrow d
ĠRes ources
Ġqu iet
Ġvis ited
P ackage
p ay
Ġch ampion
Ġinfe ction
h ard
c ategory
ĠC urrent
ĠHe art
at ar
Ph i
ĠR oss
os ed
ĠDef ault
Ġcircum stances
is ition
Ġemploy ee
: #
ater n
Ġrestr ictions
in ch
ester day
Ġsw im
Ġf aster
Ġdest ination
. *
w atch
ic ians
ad ed
Ġpict ures
ĠPri ze
Ġus age
sub set
ĠB it
L IC
Ġdis pl
Ġinvest ors
Ġlo an
ĠSen ior
Ġch apter
lo om
9 00
ĠT ax
Ġcontribut ions
Ġfac ing
r at
ĠJew s
annot ation
es ome
Ġexpos ure
Ġlett ers
ĠDemocr ats
al ty
L java
ĠG ets
Ġtro ops
Ġmanufact uring
Ġr aces
igr ants
Ġsp r
Ġte ch
Ġd iverse
Ġsim pl
Ġaccom pl
T erm
Ġpurch ased
ĠV AL
_ ->
ag an
ĠW inter
Ġop position
Ġpil ot
m ad
Ġg ift
ĠAn alysis
Ġbound ary
ut t
Ġdep ends
it ol
ot imes
Ġfl u
ĠCh all
Ġappe al
ĠF I
ĠG h
ĠChar l
inem a
j ar
ial s
sec urity
Ġem bed
Ġ{ };
ĠL at
end a
at ible
Ġst ood
w all
Ġexpl an
S pe
ades h
ĠS ab
ĠL ie
Ġh tml
ĠM anchester
Ġbeaut y
o en
Ġeffect ively
import ant
Al though
Ġfind ings
ĠB E
ĠT ai
Pr int
s pecial
. __
Ġse ctions
ev ents
Ġm aps
, -
Ġleg islation
ar ity
Ġh a
Ġgr id
end ment
Ġst im
our se
P AR
con nection
ip her
fol io
M ock
ell i
Ġex it
Ġcapt ured
Ġpl enty
ch or
ĠC S
ĠOlymp ic
Ġm ob
ĠL ind
ĠTe ch
Ġd ating
D ay
ĠSt adium
Ġop posite
lection s
Ġposs ibility
Ġso le
Ġass embly
S ports
el le
Ġsuffer ed
d y
Ġprom pt
or ne
Ġresult ed
FI LE
eng ine
typed ef
Ġtrans mission
press ed
i ot
Ġw allet
ĠInst ead
ĠArg ent
Ġl ots
ĠSk y
ĠR ose
a ire
Ġaccur ate
Ġv irt
Ġmov es
int end
Ġfac ulty
Ġtr ained
Ġoper ate
Ġmiss ed
Care er
c raft
Ġexc iting
Ġ[ ];
pro fit
Ġne ut
L o
Â ®
ĠZ h
Ġst ick
m al
J ECT
Ġf unc
d em
ĠD er
ĠIn f
ĠK evin
be an
ĠFig ure
A nt
Ġarr ang
nab la
sh ips
Ġex ceed
ott ed
196 1
pl us
Ġsk y
L eg
com ponents
hel p
ĠPr inc
ĠAff airs
Ġstrateg ies
qu arters
Ġl es
ĠIm m
ĠN ode
ĠV ice
Ġbro ke
h s
or iginal
Ġcommit ment
m argin
Ġexperiment al
sup er
Se lector
Ġjav ax
ĠI V
ĠV eg
ibr aries
Ġde ploy
Ġst able
v ing
ĠA I
l ate
Ġcomb at
ĠOr iginal
MA X
Ġv ast
7 00
& #
d on
ug ar
Ġair port
Ġw ing
Ġwonder ful
Ġwin ners
Ġcop ies
Ġmill ions
Not Null
Ġint ers
ĠPro t
Ġshe l
RE AD
Ġhol iday
ri ate
Ġd ates
ĠHarr is
Ġroom s
type of
Ġm ine
ennes see
k appa
ze ch
hold ers
Det ails
Ġsc ulpt
Ġdr ag
ĠSim on
Ġproced ure
Ġtop ics
sk y
ĠM oh
ï ¼
Ġd rawn
Ġprov ed
ĠGr ant
ĠFore ign
Ġext end
A ng
Ġe le
b ec
A ud
Ġabs or
re ll
B P
ĠNet herlands
ĠCont in
ĠC ab
ib li
Ġr acing
ĠSt ore
Ġemot ional
Ġcon vent
az e
Ġapplic able
ol ly
@ "
Ġindic ates
ĠUs ing
I con
âĢ¦ .
ĠE P
ĠJ am
Wh o
ĠMem orial
Ġm o
cp p
in f
Ġw alls
Ġproper ly
Ġor ient
Ġsubject s
Ġbo at
Ġb anks
ld ots
Ġro y
[ :
em ony
Ġf ab
Ġlim its
ĠH ig
om atic
Ġabsol utely
ap y
Ġrev olution
ĠMr s
Ġd uration
)) )
Ġlist ing
O M
Ġde bt
ition ally
Ġf asc
Ġs itting
im it
app y
Ġelect ron
Ġh ook
ĠPr act
N T
Ġv ice
ĠRev olution
h adoop
Ġincreasing ly
ĠSt one
Ġturn ing
ĠTr avel
ache l
ĠH art
Iter ator
d ots
A ug
Ġpart ial
onym ous
pr ime
ĠB udd
Ġfact s
ĠR oll
Ġsubsequ ent
Ġr id
Ġexp ensive
Ġdis appe
Ġ$ {
Ġexpl ains
Ġpresident ial
Ġunc ertain
Pat tern
n ie
ĠS ix
Ġap ps
IT E
Ġal ert
Ġdoll ars
Ġdocument ary
ĠS C
ul us
the w
ĠAtl antic
Ġphen omen
ĠLab our
194 4
b ootstrap
ĠO S
ĠRes ource
ĠT reat
sc roll
col n
cl ip
Ġvert ical
ord on
Ġir on
Ġsubsequ ently
W est
ĠTh anks
Ġcol our
Ġprior ity
let ion
Ġfra ud
Ġgrow n
z one
J SON
s ur
Ġstri ke
un ct
F loat
//////////////// ////////////////
Pro p
ol i
ist ing
Ġsurpr ise
F in
ĠĠĠĠĠĠ Ċ
Ġaf ternoon
Ġl ayout
Ġland scape
Ġeas tern
Ġphot ograph
Ġsup erv
ĠC R
ĠTur k
ik ip
ĠP S
\ |
ro le
ĠJan e
ĠEconom ic
h us
ĠMark eting
el d
Al so
ur ers
Ġstrong ly
12 5
Ġappro aches
non umber
l ah
Ġcharacter istics
Ġin hib
Ġd a
S igma
in cess
im pl
Ġil legal
Ġste el
end or
ĠU l
ab il
ĠG a
Ġparticip ate
ĠPl ace
ĠM oon
arch y
Ġdist ingu
N C
Ġindic ated
Reg ister
Ġmed icine
ĠS quare
ĠBl ock
Ġacc used
Ġtransfer red
Ġinv alid
ĠK ansas
Ġst rip
up l
( !
P ool
ov al
b en
Ġro of
ib ilities
ud es
per ial
Ġpot entially
drop down
ĠH ouston
ache lor
ĠB urn
b ass
Ab stract
Ġreli ef
Ġmusic ians
Ġre ar
ĠPal est
Ġy ellow
Ġimmedi ate
() ).
Ġh its
ro ph
Ġw ed
c up
C am
anc ell
re tt
ĠD uke
ĠPro perty
on na
ĠAnd erson
equ iv
iv ated
Ġrequest ed
Ed it
Ġatt ached
ĠF arm
Ġim possible
ĠMar c
Ġtrans lation
} -
Ġpr ime
ĠPat rick
et ary
ĠO ption
Ġmechan ism
Ġoper ators
ĠH ave
Ġg iant
text it
In v
ĠLe on
Ġfac ilit
app ly
Ġpract ical
Fe ature
ĠInd ones
Ġwe aring
ch a
Ġprinc ipal
w ich
195 9
Ġd b
Ġex ecution
n etwork
Act ivity
F R
ist ical
Ġexhib ition
hed ule
P ay
Ġd ict
ro c
") ]
ĠDo ctor
do i
Ġg ap
w ick
osp itals
195 8
E p
Ġg ained
que ue
ge bra
m ove
ĠL ater
ig ate
rib le
plic ated
Ġbatter y
Ġs weet
Ġwhe el
Ġb on
ĠCap tain
J oin
Ġadd s
ĠStand ard
ob by
Ġcol le
ag g
Ġbr ands
Ġs aved
s ave
ag u
rec ated
sp ir
are a
au x
Ġset up
ĠP aram
n one
Ġvot ers
Ġdet ection
Ġfac ed
F ilms
ch ain
f lix
Ġv on
met ric
ig a
iss ues
ĠL A
Se ction
play er
Ġenh ance
Ġdefe at
ĠW as
w id
ess ed
Ġs ight
ĠL anguage
Ġw ine
ĠPart ners
e ach
f ix
def ined
Ġpromin ent
ail ability
ĠM D
ot ion
Cl ose
ĠO cean
ot ten
ĠJ ordan
all as
ĠCl oud
put ation
Ġcont roller
clos ed
m ock
bl og
ĠD ocument
)) );
-> _
ownt own
Ġl ists
Ġacc ord
Ġspect rum
Ġrepresent ative
th rows
B as
ant ry
ĠT ake
az a
ĠPro p
Ġdec or
Fl ags
iz able
G P
Y PE
ikip edia
ident ifier
es is
Ġemploy ment
Ġmod er
ed u
Ġar bit
It ems
Ġaccess ible
ĠCl inton
ĠT her
Ġshe ll
IN D
T oday
pass word
Ġadv is
ĠSar ah
raz y
ĠSch olar
ĠDi ego
W R
ĠP itt
H er
ĠStud y
Ġinteg er
ĠS i
194 2
ou ter
Ġfeed back
ĠH an
Ġcr ash
pro to
Ġfr ag
Ġc ategories
Ġoff ices
Ġwrit es
Ġs am
S pace
Ġt ough
Ġinnov ation
Ġup coming
che stra
Ġtarget s
igen ous
P anel
ĠP O
Ġprob ability
Ġeng aged
ĠM iami
Ġcompl iance
195 7
Ġbig ger
Ġdis miss
Ġb es
194 8
C r
U ID
Ġinv ent
ĠCl ark
Ġh ockey
Ġant ib
st ats
Ġcour ses
b ot
off s
u j
ĠTr aining
W atch
ne ver
ĠMe an
Ġgr ade
Ġappro val
b olds
duc es
st ood
Ġpro port
ĠMar ia
Ġterrit ory
Ġest imate
Ġexper iments
ĠTh ose
Ġfr anch
} )$
Ġtechn ique
Ġbeliev es
Ġ% }
bolds ymbol
Ġhe ll
Ġnav igation
Ġb ands
Ġpropos al
T ABLE
ĠFr ont
Ġprep are
Ġs ought
Com ment
il st
Direct ory
ell ite
is ations
Ġadministr ative
ĠT en
itche n
Ġdis abled
n i
Ġex posed
Ġ Å
Ġrisk s
Ġse es
195 6
Ġcre ates
Trans form
Ġn urs
Brit ish
19 39
Ġag ed
Ġhealth care
O UT
ĠR ow
web pack
Ġdes ire
Ġsurg ery
cit ep
onom y
St ar
Ġcaus ing
Ġguid ance
ĠN az
S QL
ro it
Ġ ur
Ġpercent age
Ġperman ent
ĠS port
F N
Gener ic
D ouble
L ike
Ġcoff ee
tx t
v ard
igh th
Ġs ending
Ġf aces
Ġben ch
18 0
em et
Ġapparent ly
er k
ĠD or
Aut o
Ġcover ing
ĠR oy
ed ing
m ic
Ġcopy right
Ġel ig
ĠPro duction
ĠI L
ro duction
ĠPl aces
h av
Ġs av
ĠB ry
c b
Ġass ault
t ons
ch annel
ĠRail way
Ġbre ath
Log ger
op ed
Sc roll
Ġlaw yer
line ar
Ġsomew hat
Ġdest r
Ġrefer ences
ĠF ri
Ġev il
Ġcontinu ing
Ġp ointer
ĠD og
medi ate
ĠSil ver
ĠSm all
Ġinteg rated
ur ches
ol itan
Ġr ig
S ervices
n umer
and al
P ress
ĠCast le
Ġ" "
ul ous
Ġl ift
Ġne ither
ĠI owa
ad i
ĠJ ay
Ġund ert
Ġprovid ers
ĠAd vent
g ments
rib ed
ĠMal ays
N orth
ol t
om orph
A pr
Ġt all
Ġreg ulations
ĠDr ive
Ġs ed
ĠG il
Ġm it
ĠF a
se lected
12 3
ĠE ver
() ));
ĠCor ps
Ġpresent ation
ĠG P
fl ags
iv a
Ġfl ags
Ġd uty
ĠHol y
Ġvict im
ĠN a
ag raph
ĠBr uce
Ġpar allel
c ow
ov en
bs erv
Ġan gle
h y
Ġproduc ing
ol as
Pro duct
ĠN orm
z ing
o a
ĠĠĠĠĠĠĠĠĠĠĠĠĠĠĠĠ ĠĠĠĠĠĠĠĠ
Ġdis appoint
Ġfor th
Ġp up
ĠN ever
T otal
Ġjournal ist
ĠG ard
Ġhead s
g reen
ut her
os itory
ĠB ush
Ġcr uc
ĠAnth ony
( __
Ġaff ili
Ġmain tenance
aud i
ã Ģ
and o
Ġ{ '
L ife
F P
Ġen emy
Ġvot ed
Mem ory
r ations
Ġpain ting
Ġg arden
Ġp itch
t witter
Ġdr iven
yr ics
enn a
Ġal ive
Ġp apers
G ood
F iles
Ġout come
s a
Ġle ct
ĠSwed en
cont roller
Ġh ate
Ġbehavi our
z ed
Ġbe ar
ĠMel bourne
Ġex clusive
Ġinv ited
ip ping
U SE
B L
Ġf lying
Ġb ott
Ġtot ally
Ġdi pl
Ġvot ing
Ġs ick
ant e
* )
ĠT ennessee
ĠB arn
Ġaccur acy
Ġbeh alf
view s
Ġlist ening
ĠSc ient
Ġdef in
FF FF
Ġveg et
ĠH al
Ġax is
Ġthe atre
Ġcrit eria
Ġman agers
as p
TR Y
Ġw ond
Ġin h
Ġcontinu ous
st ers
Ġpass word
ĠE R
rit ical
Stat ement
Ġse vent
Ġfr uit
result s
Ġrespons es
Load er
ĠSh ould
j u
Ġd iversity
A Y
Ġfunction al
el i
ep ing
Comm on
Ġs oci
G ame
Ġre ct
Ġcon version
Ġmeet ings
Ġpull ed
Ġf n
ri ers
ĠIndust ry
pos itory
pro perties
Ġhand ling
ab out
194 3
Ġr ating
ack ing
els on
Ġeval uation
ic ity
ĠM ilitary
wit zer
ry ing
Ġcompre hensive
ĠD id
M iss
Ġappear ances
man ager
Ġ Ø
Ġprop ag
ail ure
_ (
ian g
mut able
ink ing
Ġregular ly
ĠP ier
ĠWeb site
Ġ io
ur is
Ġ( @
cept ions
ure au
ĠIndian a
Ġl ib
Ã© e
Fig ure
acc ount
Ġinnov ative
d am
Ġhapp ening
ĠReg ional
Ġpick ed
Ġdist ribut
En ter
D est
Pro xy
Ġanim ation
ab ama
ĠB S
Trans action
}} {
Ġent ries
G raph
An not
Ġcan cel
Ġdim ension
Ġp iano
) ).
ĠSaf ety
az on
Ġgu ests
Eng ine
" =>
Ġsc r
On ce
ax is
ch ant
194 1
ĠT E
ĠP resent
t mp
m aking
L INE
ĠCon fig
Î ¿
++ ;
/ \
Ġmagn etic
Ġpass es
iver pool
Ð ²
Ġpl ate
A uth
g ence
R AN
Ġfound ation
ĠK elly
rad ius
olog ists
emet ery
Ġpromot ed
ĠR ound
Ġcompos ition
Ä į
ear ing
d ers
Ġcap tain
L in
ig ious
over ty
Ġcompet itive
if iers
ĠPhilipp ines
p res
Ġ( _
print f
dep th
sche ma
se a
Ġl augh
un ning
Ġimplement s
Ġgen us
) ">
Ġpubl isher
Ġdocument ation
ĠĠĠĠĠĠĠĠĠĠĠĠĠĠĠĠ ĠĠĠĠĠĠ
Ã ¸
In ternal
Se lected
ĠMary land
ĠP ut
t otal
Ġsub sid
e lect
w eg
195 2
bl ack
Ġ ri
ĠUn it
ang a
Ġkn ock
Ġsc oring
× Ļ
v i
Ġst ages
Ġinform ed
w hen
form s
ĠCont ent
Ġbre aking
He alth
Ġimprov ement
Ġtrad ing
Ġimpress ive
195 5
Ġexpl o
hand ler
VER SION
ĠTr ade
ateg or
C ent
Ġcl ock
arg o
ĠD ave
fer ences
gh an
b urn
Ġatt orney
[ $
Ġprofession als
Ġjoin ing
194 6
in ant
ĠN ev
Ġg ate
Ġinter ior
ĠLim ited
u in
Ġstr ings
Ġc a
ac on
Pol it
Ġaddress es
Ġfundament al
ific ial
Ġd ies
ĠT ODO
g i
Ġcomp ens
ĠSur vey
194 7
Ġm m
ellect ual
Ã© s
ĠE q
Rev iew
Ġsent ence
Ġre pro
Sh ort
ĠC ore
Ġenc oding
Ġop posed
unn el
ĠUkr aine
Ġso il
Ġa er
ra it
Gr id
Em ail
; /
En um
ĠAll en
Ġemploy ed
Ġmonitor ing
Ġex cess
ĠVill age
ane ous
ĠViet nam
Ġcont ents
ĠO ak
iter ator
Ġp y
Ġunder lying
ĠF ollowing
os ph
v y
â Ĩ
el and
Ī Ĵ
ĠArch itect
Ġbird s
Ġw er
) ),
Ġproced ures
i op
ou st
Ġfe es
ous es
Ġwat ched
Ġcalc ulated
witzer land
Ġgover nor
od ge
Ġtype of
ĠK han
ĠMiss ouri
ĠE ss
Ġsc ores
Ex pr
Ġst ake
al g
{ -
um ps
Ġcommunic ations
ac ent
ist a
Ġent itled
ĠSt ill
S IZE
ryst al
ĠP u
Ġa st
Mat rix
â Ĥ¬
P aul
Ġtr ouble
=" @
at ial
Ġmin im
Ġb are
ĠT alk
art icle
Element s
Ġb inding
clos ure
m akers
Ġcont ribute
Ġass ign
per or
I mp
ĠHaw ai
195 4
Ġinj ured
C re
19 18
P P
Ġch ose
Ġbe ach
t ools
Ġun us
Ġtem porary
ĠDef ense
Ġag greg
ĠJ oh
==== ==
Ġencour age
ia h
Ġf ulf
ĠW ord
ĠAr thur
Prot ocol
pr imary
Pl ugin
it ivity
Con f
Ġtrans formation
Ġc atalog
Ġchalleng ing
M c
Ġimag ine
ic he
Ġla id
ĠPhil ip
Cont act
re ens
Ġcomplet ion
riev ed
et ies
Ġsustain able
Ġform ula
O pt
M AC
nov ation
Ġpark ing
ĠB alt
ĠIslam ic
Ġliqu id
S Y
ĠJ osh
pre c
Ġweek ly
âĢ ĭ
ĠEx press
ĠDo es
ĠMo ore
F unc
Att ributes
ud a
ce ive
Ġre in
ĠNiger ia
Ġm ail
j an
Ġign ore
Ġdisplay ed
ĠE c
C ategory
ĠK al
Ġqual ified
ĠS in
Ġt ou
Ġrestaur ants
C N
× ķ
Ġ ..
ĠP rom
195 3
Ġconvert ed
ĠW IT
ĠCon stitution
ĠL as
Ġext reme
ĠP ed
her ited
Ġsub mitted
d x
ĠLin coln
Ġheav ily
Ġcons ent
Ġpres ents
lah oma
t ic
By Id
Ġf olk
á ĥ
Par se
Ġw ound
Mich ael
Ġde pos
oy d
U ST
ĉĉĉ Ċ
ĠEar ly
ĠA thlet
Ġref used
ĠJ ason
Ke ys
ST AT
3 60
Ġres id
B B
Con str
At tr
Ġw indows
ĠGree ce
Ã º
Ġstrugg le
Ġ âĢĻ
ĠH ur
Pro file
wid et
P si
Ġreason able
er as
ĉ ĠĠĠĠĠ
dim ensional
S eg
th rough
Ġgrad uate
Ġh at
ed itor
ĠPr int
Ġdise ases
ĠY outh
Ġf ake
ĠMay be
F amily
ut ed
Ġcont ributed
Ġexpl os
Ġroad s
ter y
Ġte ach
Ġpoint ed
ist ol
Ġtri als
wh o
t wo
Init ial
ro ck
J S
ĠS n
ĠH op
Ġv ocal
Ġgr ass
Ġassum ed
r ig
Ð ´
Ġb le
Ġ& =
Ġcolumn s
Ġwork er
ĠT ag
ĠS uch
fl u
ĠRes p
Ġk il
ĠC ancer
S ur
al so
i ology
ĠMov ie
out heast
Ġinteg ration
bo ost
Ġr ub
dom ain
g it
ĠG arden
Ph il
C F
p red
Ġas ync
Ġserious ly
=" "
nd ef
Q U
Ġre q
roll ing
ç ļ
AR D
Ġt rib
ĠSe ver
Ġinj uries
Ġc m
ĠN atural
Ġen forcement
b at
Ġstrateg ic
ust ers
AN T
ot te
Ġconstit u
Ġas pect
Ġt ank
Ġmatch ing
Ġrank ed
Ġgrad uated
ĠLear ning
Ġl at
Ġsuit able
Ġrele ases
Ġh ide
z o
u ating
Ġvers us
Ġhas n
Ġprinc iples
ĠP ack
N ULL
Ġg ay
P o
Ġcur ve
Ġtr uck
Ġmembers hip
Ġill ness
by tes
ĠL ib
en ess
Ġo x
Ġout break
Ġf ired
ather ine
Ġref uge
i Ã³n
ĠB ab
j query
Ġguid elines
ĠAuthor ity
Jan uary
UT F
ram a
ind ent
Ġdisc rim
t w
get Name
b rief
Ġdiscover y
ĠR oute
ĠTok yo
Ġb acter
Ġb tn
Ġh ur
R T
Ġtem por
Ġb ath
ĠE uro
ĠS D
Ġal cohol
ĠAg ric
Ġad mitted
us al
Ġnov els
ĠV i
ĠTh ings
Ġpre ced
m ont
aw are
Ġfriend ly
ick ing
az y
F IG
ĠL oc
cuss ion
i ary
Ġtrans parent
Rem ove
ick en
Ġfin ite
ĠV in
Ġdraw ing
Ġnot able
194 9
cept or
Ġaware ness
Sc ale
Ġm g
\ [
ĠD u
ĠP ur
Ġrel ax
U LE
Ġfarm ers
Ġgovern ments
ĠIO Exception
gl as
met ry
ĠYear s
P ointer
S ch
Ġbrother s
Ġparticip ated
Ġcarry ing
ĠHow ard
Ġdog s
Ġtit led
Ġslow ly
Ġpo etry
X ML
E ven
we ek
Ġout comes
W omen
Ġcho ices
Ġres olve
Ġapp end
re port
ĠĠĠĠĠĠĠĠĠĠĠĠĠĠĠĠĠĠĠĠĠĠĠĠĠĠĠĠĠĠĠĠ ĠĠĠĠĠĠĠĠĠĠĠ
} </
NavBar Cell
Ġdisc ipl
ill iant
p ur
ĠE ag
ĠSe lect
Ġrec ruit
Ġwhere as
Ġph arm
F ore
ĠJac ob
çļ Ħ
ĠH ope
ĠM un
ĠRef er
Ġ{ {
ĠC art
ig e
ĠN ob
ĠL E
pl ant
Ġant icip
sh ift
Ġt ries
M arch
Ġnarr ative
ĠG ab
arr ant
tab ular
ĠB or
Ġfootball er
I MP
widet ilde
ĠAd vis
ol y
Ġour selves
i ors
ust ed
Ġshop ping
Ġdes cent
r as
Ġ[ ],
Ġpar liament
V olume
ct rine
ĠMor gan
ro oms
R ich
'] )
M OD
ow ed
Ġsup plement
Ġs le
Ġmunic ipal
Ġreg ime
ĠCom ments
ĠPol ish
Ġvis iting
Ġdemonstr ated
Ġb rown
ub s
ra h
ĠMay or
ĠM as
omet imes
prot ected
h idden
IP T
Ġtown s
S ER
ĠAp plication
ĠProte ction
Ġt act
Ad apter
ĠD VD
Â Ģ
Ġent reprene
t or
in ar
ubl in
ook ie
ut ies
Ġr ising
pro ps
Ġany where
Ġb id
it ative
ĠW AR
Vari able
contain s
ĠM embers
ĠM essage
Ġhor ror
Ġconsum ption
Å Ĥ
LE CT
Ġpay ing
ut enant
an im
ĠAr k
O B
Ġpass engers
} +
N G
ĠLa ure
Ġanc est
m ask
\ %
Ġst yles
Ġfall s
Ġnecess arily
S am
Ġi Phone
ĠW H
ĠRel ations
pl atform
Ġp ars
S yntax
Ġde als
195 1
ĠH ash
ĠPh ill
ĠL android
f red
ĠPr ivate
Collection s
Ġm ouse
Ñ ĭ
ang el
D ist
Ġcol ors
Ġsupport ers
Ġdesign s
Ġsy nd
ious ly
Ñ Į
Ġver ify
Ġreg istration
B el
ĠAm ong
build er
ĠN ative
Ġl ands
ĠC op
au ge
To String
M icrosoft
ĠO wn
Ã¡ n
Ġlock down
ĠCont act
S ync
Ġs in
er on
a ired
R oute
" /
det ails
sk i
Ġâ Ĩ
J ava
Con n
F E
Ġclos ing
here nt
Ġro se
Ġsurpr ising
Ġwat ers
tr igger
Ġin aug
ĠD un
Ġ> >
Ġp odcast
Ġg uns
Ġattempt ed
Will iam
ĠN ich
Ġsc al
qu es
ĠAn ne
GB T
Ġbus y
op l
Ġval uable
ĠRober ts
Ġchild hood
F eb
Ġmaintain ed
ech o
Ġconstruct or
det ail
Ġinst ances
ÂĢ Â
Ġpl astic
W rapper
are st
w ill
M ac
ĠF ederation
ĠM icro
Ġpo et
ĠSchool s
ri k
Ġre aching
Ġatmosp here
Ġwalk ed
Trans port
ĠĠĠĠĠĠĠĠĠĠĠĠĠĠĠĠ ĠĠĠĠĠĠĠĠĠĠĠĠĠ
Ġcer emony
il ty
ib l
Ġrepl acement
Ġowners hip
P H
> :
Ġl ux
AN G
Ġref ers
Ġinter actions
S equ
ĠB ishop
Ġocc as
ort ion
ens ure
le tt
Ġop ens
met adata
ĠCh ap
Ġlab els
on ze
Ġengine er
M er
st an
k top
Ġcom ic
olv ing
Ġrapid ly
de cl
ĠTh ird
Ġprov ision
19 00
Ġto x
ĠFin ance
i Äĩ
ĠCap itol
ĠSt ew
ĠSt ream
Child ren
Ġiniti ative
IN S
Ġw rest
S ocket
rupt ed
ĠG all
z h
} ]
Ġque ue
II I
ĠL am
Ġacknow led
Ġth reshold
Ġobserv ations
Ġclass ification
ĠAtt orney
M ut
Ġf unny
ĠEv ents
P D
ut f
Ġd ire
Ġconcent ration
Ġy esterday
ĠReview s
lo or
eral d
o is
Ġh ole
S uccess
res et
ĠL iving
in th
k w
ĠP a
â Ħ
C ert
Ġr um
ĠD ick
ĠB ible
Hel p
Sim ple
Ġun iverse
us cript
z y
ĠW y
Ġstr ange
Ġreve als
! [
ĠG ib
el ve
j ango
amp s
Ġprof it
od a
ĠP ersonal
ĠSe attle
un ior
com plete
ors es
ĠWh it
p arser
Ġadvent ure
over nment
Reg ion
end ers
Ġman aging
Ġunder stood
ag h
ĠY et
Ġp ul
hemat ics
s in
im m
Ġme ets
om ot
w estern
ĠI E
re ement
L I
w iki
Ġexecut ed
Ġconstit ution
param eters
f d
l g
est yle
ĠNe ed
Ġc tx
spec ific
A E
ĠSwed ish
Ġt icket
D uration
b rowser
m aker
Ġre ward
Ġdevelop ers
Ġobject ive
Re al
Ġeng age
Don ald
Ġg ang
is p
Ġsur ve
J ames
ac o
ĠAust in
ard o
weg ian
face book
Down load
ĠK am
Ġtransport ation
ĠAl abama
Ð ¼
Ġv it
ĠF ive
ĠK l
ĠD ur
ĠE V
ĠRequ est
s ome
ĠRepublic ans
ĠRes ponse
Head ers
ĠBr ig
Ident ifier
Ġexplan ation
Const ants
Ġcon clusion
Ġreal ize
Ġf ault
Ġeth nic
Ġb inary
S ingle
ĠStud ents
rop olitan
op es
init ial
ĠHer itage
Ġsuff ering
Ġelectric ity
s ince
mod ules
Ġhard ware
D an
ĠBow l
b ian
Ġ ).
Com par
umm y
ĠKent ucky
id x
ĠH ans
ĠMar ine
19 36
Ġloss es
Ġphil osophy
Ġintro duce
h our
ot ing
ĠK y
Ġgen etic
ar o
Ġsize of
Ġcour ts
aur a
P ersonal
Ġt urb
ĠB att
Ġobvious ly
ĠN ik
Ġcomfort able
ĠAnd re
Ġa ims
F ailed
IT ION
ĠL LC
ost ics
for ward
ĠF ROM
ĠN ature
ex ternal
Ġabs ence
ĠK a
b led
Ġsp okes
r ons
f i
cent ering
Ġhousehold s
O ld
ĠLeg al
M aster
ĠT el
Vert ex
Ġthous and
Ġdistrict s
) ->
T HE
t ers
it ure
Ġent hus
ĠHT TP
Ġem p
ĠCo oper
Ġinvestig ate
ĠPl us
Ġstream ing
p ub
ĠAl bum
ĠC zech
ĠF ellow
Ġhe nce
Ġestim ates
ist ence
Ġsol ve
Ġbur ied
Ġeng agement
ĠC ape
ĠB ah
Ġcompet e
ex tern
B M
at on
Ġbre ast
Ġ" <
; \
J une
R ober
Ġexp at
Ġwebs ites
Ġfall ing
ĠR ace
Ġcon crete
M ake
Ġkeep s
h ide
AD D
w en
secut ive
Ġdo ors
Ġbuy ing
Ġchair man
ĠP os
ou ver
Ġpro hib
Ġco aches
Ġdel ight
Ġth in
d ale
St and
ĠPr ice
Ġbl ow
Ġb oss
ĠAtl anta
lim it
ac ht
Ġj oy
O F
v o
ĠW olf
Ġcirc le
Ġf ol
al ia
ph ony
w as
Ġcap abilities
ort ed
part y
ĠR ick
or ous
p refix
Ġprem ier
ĠS ri
H z
v ideo
Ġmet adata
Ġex ecute
, '
Ġknow ing
Ġport ray
Ġdesign ated
or er
S M
Sym fony
Ġcirc uit
Ġnorm ally
F ORM
L en
bar a
ĠCol on
B rowser
config uration
Cl oud
Ġinter act
ĠS witzerland
ĠNor way
19 38
Ġparticip ation
TE XT
Ġsub mit
Ġ$ .
ĠCommunic ations
om as
Ġreve al
TI ME
ĠEnvironment al
Ġhop es
out ube
Ġterm inal
av al
L ayer
ble m
Ġorgan isation
ĠS ex
Ġkey board
S R
F i
Ġpromot ion
AL SE
ĠM eg
St op
Ġt ickets
t le
Ġp refix
iz on
Ġsurpr ised
Ġlik es
ĠIsrael i
Ġs essions
ĠC ert
Ġsing ing
M apping
ĠTem ple
Style ID
Ġv ital
Ġo cean
log ger
Ġf urn
nt il
Ġold est
s uch
Ġreal ized
Ġsk ill
Ġcon j
Ġconsequ ences
Ġmed ian
s witch
Ġlist ener
Tr ace
Ġarr ival
Ġst ead
in os
D iv
ĠSm art
H ar
Ġup load
Ġdeal ing
Ġunivers ities
T ele
Ġre verse
Ġdynam ics
Ġman ip
ĠH old
p u
1 15
ĠFinal ly
ĠStud ent
P I
19 17
Ġsit uations
= (
Ġsett led
anc hes
10 5
Ġn ations
Ġcons ervation
ĠB an
Ġent rance
ct ic
duc er
Pr ivate
ĠMex ican
im ore
Ġload ed
ut ter
irl ines
ĠMc G
Ġfranch ise
Ï Ħ
sh al
olv es
Ġf ought
Ġdecl ine
cover y
Ġlik ed
P ATH
ĠC redit
ex ecute
Str uct
ĠHigh way
1 12
Ġansw ers
lik ely
V M
âĦ ¢
ĠPlan ning
\ {
ĠF ant
T F
ĠMic hel
ĠM ust
ĠG er
Ġh am
ĠP DF
circ le
Ġincred ible
ip pi
Ġret irement
r g
Ġpay ments
er ning
ĠG row
Se lection
Ġann iversary
Ġ ip
ul um
Ġent ering
og a
ĠH ills
Ġput s
Ġsudden ly
ĠR ey
Ġg am
ĠIm ages
Ġmark s
Ø ±
Ġgen re
Ġrout es
em ies
Ġdet ected
omet ric
or ient
ird s
Ġreject ed
Ġfl ash
ĠD est
oen ix
serv ices
Ġar c
F ollow
Ġche ap
Ġpass enger
L Y
Ġre ducing
Ġcelebr ate
Ġme at
ra ig
l ibrary
ĠU I
ath y
ic ut
ĠD allas
nap shot
R ole
ĠTh ough
ĠĠĠĠĠĠĠĠĠĠĠĠĠĠĠĠĠĠĠĠĠĠĠĠĠĠĠĠĠĠĠĠ ĠĠĠĠĠĠĠĠĠĠĠĠĠĠĠĠĠĠĠĠĠĠĠĠĠĠĠĠĠĠĠĠ
atur ally
Pro gram
ĠR oom
ĠJun ior
Ġd at
Apr il
Ġtr ains
Ġm eta
d ays
Ġfair ly
l on
Im port
ent le
ĠMot or
rb an
ĠS elf
ĠVeg as
Ġf ib
iff s
d p
ank a
Ġl ake
N amespace
ĠAll iance
ĠBe at
Ġsurv ive
CO MP
Ġfin ance
if def
ĠM other
ĠChair man
t ags
ĠJud ge
Ġmach ines
D id
J apan
Ġ ui
ap ing
Ġcent ers
ĠAl an
E ff
ĠReg iment
Ġm apping
Ġd ir
ub ble
ĠLeg isl
Ġco eff
fil ename
ex pr
Ġsc atter
Ġmunic ipality
ĠCh apter
ail and
Ġpartic les
ĠR O
and ed
Ġ' '
viron ments
ĠB eck
B et
st orage
Ġthrow n
Ġread only
ĠM ission
d one
Ġhost s
Ġinterview s
ĠM E
st e
ĠDe an
set s
Ġsh r
ĠIn v
N amed
key word
ĠL eb
Ġequ ations
ĠWalk er
Ġre act
Ġd ual
Ġcompos er
} =\
con n
Ġen um
ĠArt icle
HT TP
Ġspirit ual
Ġp airs
b c
Ġcomp act
ĠG ordon
ĠT oy
ĠOk lahoma
leg es
S an
ĠC T
up id
Ġsurv ival
J uly
T ax
ĠS quad
Ġ( [
Ġp arser
ell ar
ĠL ane
Ġany way
Ġlog ic
AT ED
col lection
E urope
ch anged
\ ]
ol o
= -
om er
ĠB ureau
Ġperson ally
Ġint ention
ĠB Y
OR Y
ĠMos cow
ĠC ow
19 37
ĠL iverpool
Ġprinc iple
ind ed
AN CE
Ġleg acy
itar ian
Ġb ag
ĠEx change
pos ing
ĠSing h
ĠAf ghan
ĠC ole
Ġfr ust
f ather
Ġmin ing
ol ars
ĠSp irit
', '
ack ed
enn y
as i
if ting
Ġdesign er
ert o
Ġr ival
Ġpop ulations
ĠNet flix
Ġre putation
F ollowing
Ġout standing
us ers
Oct ober
be ing
C ard
ĠN ap
O UR
s he
ok er
gorith ms
as hes
N odes
ĠD a
Ġxml ns
Ġtow er
Ġcon cluded
Ser ies
Ġher itage
j unit
ĠSh op
å ı
Ag ent
Ġcut ting
Ġcompet ed
Ġkind s
un ches
pre v
ĠH D
ene z
ev al
Aug ust
Ġcruc ial
Ġamount s
Ġannounce ment
Ġl ights
Ġacqu isition
, âĢĻ
Tr ump
Ġem br
ĠVol ume
as ant
ra pe
Ġsub stit
Ġ" ,
B N
BU G
ĠW oman
Ġh urt
ĠQueens land
Ġf irms
Ġvel ocity
Ġfore cast
ĠS A
ĠĠĠĠĠĠĠĠĠĠĠĠĠĠĠĠ ĠĠĠĠĠĠĠĠĠĠ
Res ources
ĠDet roit
Ġinvolv es
M al
n eg
Ġn eck
Ġprefer red
ol ph
ĠAl bert
Ġcon front
F rench
G C
ĠSt ories
Ġcent uries
00 1
Ġinstruction s
\ !
Ġask s
B ound
Ġm arg
ĠB u
F ilm
Ġcl imb
b ow
19 14
Ġp ert
Ġoff ensive
th row
Ġl yrics
ĠMc K
Ġsix th
P ublished
ag ic
Ġdis k
ĠB us
ĠP erson
ap olis
Ġe ase
co q
Ġ" -
$ )
Ġc rypt
it ter
pl an
Ġtrend s
ĠD ise
Ġin tern
ĠT a
Ġtemper atures
Ġinter val
Ġstr uck
clud es
Ġag es
Ġarbit r
Ġpar ish
Ġd ataset
-------- ----
Ġh ospitals
if ndef
ort s
fin ite
Ġmeasure ments
14 0
R ob
at ers
Ġ rows
ĠR ab
d ates
P od
Ġj azz
ĠM agn
ĠA st
Ġsepar ated
b its
Ġmonth ly
Ġpri ze
ĠT s
h ot
Ġcr u
en abled
Ġsim ult
P refix
Ġfem ales
v olume
Ġdes ired
Ġattack ed
own er
Ġmy th
Ġdirect ors
UR I
por ter
Ġconv inc
work s
ounc ed
T om
r ift
Ġfant asy
ĠS ales
ĠV ari
Ġrespect ive
ĠInd ependent
head ers
ish ment
Cl uster
Ġaim ed
ĠV irtual
Ġregard less
Ġsign ing
Ġpe er
Associ ation
est ab
ĠAN Y
Ġp ushed
Ġb its
ĠD ub
s ymbol
Ġexpect ations
Ġess entially
Ġmet ric
Ã¼ r
Ġfew er
ĠD J
m ates
Ġweap on
i ere
Ġthe ore
ĠN ation
iv ia
ĠResult s
che n
Rep ository
Ġshort ly
ĠL ess
level and
Ġthink s
Ġf inger
ĠInt eger
Ġpath s
Ġb in
ip er
pect or
ey ond
ĠPer formance
Ġeval uate
P G
Ġoper ational
ĠTerm s
ĠAnn ual
we alth
{ "
Ġtransl ate
B D
Ġpl ain
Ġout er
M ill
Ġpubl ishing
Ġshe et
ĠB ull
Ġem issions
ex ists
Ġed ited
En vironment
ĠM unic
ĠChrist opher
ĠAut o
iev al
ĠM aterial
Ġtr ace
inc ial
gener ated
Î ¹
att ributes
em en
ĠS N
ĠM obile
ĠVal id
C oll
u er
iss ippi
ĠT rib
aps ed
anc ouver
ber ry
m b
ĠT ree
10 2
r andom
Ġk ne
Ġro ots
ĠWork s
Ġsens itive
ĠP ear
Ġt ables
Ġperson ality
Ġmeasure ment
oc y
Ġhead ed
ren a
fe ature
Ġt ied
ush ing
Ġrep ly
Ġtrans actions
Ġground s
g ood
res ources
ĠOrgan ization
ĠD al
d ialog
) =\
Ġimprov ing
ass ets
Ġlow est
in ction
ĠL u
Ġf old
B usiness
Ġob lig
ĠPe ace
A K
=" ">
Ġmor al
Ġpublic ations
P al
Ġhead ers
Ġproduc ers
win ning
ĠHel p
claim ed
Ġpro xy
ĠP il
Ġrecogn ize
Ġinst ant
Ġwed ding
Ġl ayers
ĠA BC
Ġf est
ĠSy ria
ane ously
U ri
ĠEx p
S ongs
Ġinstr uments
n orm
Ġstret ch
ag ent
Ġcut s
Ðµ Ð½
Ġdo ctors
ri eve
Ġind ependence
ĠF ather
Ġaccord ance
Ġres idential
ĠDel hi
Ġnot iced
Ġ' <
Ġliter ary
ĠPolit ics
f x
Ġaccomp an
T ok
ĠA C
ot ation
l ayer
st able
Ġsn ap
par a
Mult i
hed ral
ge on
ext ension
Ġap artment
f c
W I
Ġst ability
Ġfeel ings
Ġcon scious
." );
fl ag
iffer ent
In formation
Ġsubstant ial
form er
Ġto ler
ĠH ell
C ity
ĠB os
im p
Ġne uro
elf are
Ġb old
ĠR elease
ĠMore over
Di agn
Ġex ports
Ġdef ensive
t c
Ġcheck ed
Ġd inner
Ġar med
Ġorgan isations
En umer
b et
Ġscen ario
E V
19 35
Th anks
Ġ= ========
ĠP as
Ġfr agment
Ġs izes
ams ung
ĠM ars
Ġprov en
Ġdemonstr ate
ĠÐ ¿
ĠS QL
i ated
prot ocol
ad r
19 19
ĠMat thew
Ġcon secutive
ĠĠĠ Ċ
ĠH ug
s is
ĠC hen
Ġlimit ations
ĠK ings
Ġcrit ics
Ġexpert ise
Ġelig ible
Ġstrong er
z ero
Ġpublic ly
ĠElect ric
ix els
Se ptember
Ġpriv ile
Ġvulner able
Ġim plies
tes y
w hel
Ġorgan ic
ĠR oc
Reg istry
ĠN BA
3 50
Ġs ons
ĠM ess
ĠWhe ther
Ġe ating
book s
Ġm ile
Ġfl ights
l ad
index Of
Ġbr illiant
Ġsh ots
B ased
De cember
Ġ ],
am azon
St ats
ĠMon th
> ::
et ition
err ors
ĠD im
ra id
Ġdeep ly
in burgh
ĠAp pro
ï »
Ġc up
ĠCons ult
ur ities
h ire
W ait
Ġconc erning
Ù ħ
v s
mult i
c ription
ÃŃ a
Us ing
n il
t abs
o i
Ġrough ly
H ave
EN SE
ĠM s
ĠFor um
w ild
ĠC ou
^ ^
S ave
Ġb ind
ĠS audi
33 33
xy gen
ele m
ĠCent ury
LO CK
ĠC ell
ĠS el
Ġreli able
19 33
P ower
ĠPl ant
Ġvill ages
og ram
Ġliter ally
in ian
Ġbas ically
W in
Sup er
em ed
Ġmin imal
ĠBase ball
ĠD ouble
ĠF il
L ear
ĠComm un
ĠN AME
ĠD ays
ĠAp pe
R elease
en able
ĠB reak
cle an
t ar
C lear
b us
ĠM ort
G reen
Ġt aste
ef e
Ġinstall ation
Ġp overty
ĠM I
r ays
ĠR at
ĠB uff
Ġam id
ĠS M
form ed
Con nect
Ġperiod s
ic ol
Ġass et
1 16
hent ication
Ġtrack ing
le e
S ummary
ĠAn na
l ia
ĠD ak
Ġresc ue
Ġw et
Ġabandon ed
Ġsac r
ĠI ron
Ġperfect ly
h u
ĠC lear
S en
Ġt iny
Ġ_ .
ĠP aper
rop y
Ġfl uid
Ġindust ries
ĠR ap
Ġc md
P erson
ĠTurk ish
Ġp od
Ġr ational
T T
Ġtr ick
ĠP ast
19 34
at hered
CA A
Ġg aming
ĠS ac
Ġcolle agues
ik es
ï» ¿
op ic
Ġconstant ly
p air
f old
Ġb ars
Ġc ounsel
/ "
t emp
Ġpen alty
Gener ator
ĠB ou
Ġun expected
Ġ[ "
Ġres et
Ġunus ual
ĠCl imate
=" ${
Ġathlet es
Ġdo se
Ġden ied
ĠCom ment
Ġr g
Pro gress
Ġgen es
Ġel der
ig s
ĠTai wan
N V
av is
ĠStud io
ĠPl ayer
G erman
og ue
Ġreg ulation
S ing
Nov ember
Ġcollection s
Ġmov ements
Ġanal ys
AS H
N ET
on i
Ġestablish ment
ĠF ight
ĠUt ah
A li
. -
th m
Ġviol ent
Ġopt ical
ĠRuss ell
ĠJ os
Ġwer en
er ick
ĠWal ter
ĠS H
Ġloc ally
ill ery
Ġassert That
ĠB ed
Ġcr imes
j Query
ĠPh D
w rapper
r ating
Ġres ident
Ġign ored
ĠTh ank
ĠThom pson
Ġarg ued
10 4
re nt
ĠMalays ia
iter al
L ight
li est
cl uster
Ġins ight
ĠLO G
Ġgu ilty
L anguage
Ġsus pect
S I
ĠEp isode
ĠH um
Ġp ione
Ġmin i
Ġsk ip
Ġrad iation
Ġencour aged
ĠAust ria
19 29
Ġnuc le
Ġtax es
à¤ ¾
ĠDou glas
ĠH amp
Ġindic ating
âĢ¦ ]
Ġrecommend ations
g roups
ĠG ram
Ġeng ines
ar ma
UN D
() </
Ġmay or
ann on
Ġwh ilst
Ġconsider ation
ĠTele vision
Ġed ges
ĠH oll
Ġtem p
h ill
Ġhead quarters
Ġdem ands
s ys
wide hat
Ġf ails
Ġsynt hes
ous ing
j ob
Ġwith draw
) }\
ĠPolit ical
S em
Ġm ales
Ġgener ic
Ġre nd
Ñģ ÑĤ
12 7
ĠM L
^ +
h ref
ĠB eng
Ġsup plies
Ġconvent ional
Ġa ver
Form er
19 10
Ġcons ervative
ac cept
ĠJ ess
bl ue
iat ric
Ġg olf
ĠA G
ĠO pt
ĠCr ime
st age
ĠRes erved
Ġrequire ment
Ġnom inated
) ^{
Ġacc um
s ol
ĠJon athan
Ġse lector
O C
os l
A lex
N Y
op ts
LE D
ĠIndones ia
Ġmoment um
Ġst ats
. ",
ĠAnd y
as ma
Ġfem in
Ġdiagn osis
ĠM and
S pr
Ġen v
Ġshould n
ĠAb b
ĠThe orem
n an
ir ates
ĠBr un
ĠFurther more
ect ors
Ġlog ger
P Y
ĠM erc
Ġhop ing
M ath
ĠSt atus
ĠT am
in ions
g g
ĠAl ber
Ġsign als
ĠBr and
Pro ps
pe at
M s
S pecial
lo op
Ġchar ity
ĠD ublin
Ġdiv or
Ġrac ial
Ġsomew here
I AL
V A
} :
ĠD ue
Ġdim ensions
Ġb oot
Gener ated
EL D
ĠF er
Ġb ike
d c
ĠDe ep
ues e
ĠĠĠĠĠĠĠĠĠĠĠĠĠĠĠĠ ĠĠĠĠĠĠĠĠĠĠĠĠ
Ġemer ging
min ute
Dom ain
Ù Ĩ
Ġan th
. <
Ġtem ple
ĠN eg
Ġcollect ive
D elegate
ĠL ang
A U
Ġre ven
Ġ ];
Ġstudy ing
Ġfavour ite
m ay
ĠM ind
Ġgl ob
Ġdis order
ĠD ance
Î ½
B Y
Ġphys ics
Sh ould
Ġcritic ism
av ailable
ĠAd ams
Ġrep air
L ive
We ek
iz ers
Ġimprov ements
cos ystem
aly tics
ort heast
ĠKenn edy
Text ure
Ġelect ro
ĠRes erve
Ġpartic le
k h
ĠH IV
ĠSen ator
Ġk itchen
Ġfant astic
M R
ĠGirl s
ĠM yst
hip s
asc ular
Ġsc an
Ġh ired
enc er
ĠComput er
F UN
Ġres erve
Sh ape
Des pite
ĠH it
ĠMed al
Ġa str
ĉ ĠĠĠĠĠĠĠ
Ġfle et
ĠBe aut
TR UE
ĠAnton io
Ġconstr aints
Ġtarget ed
Ġbe er
m outh
EN TRY
sh ared
em ia
test ing
Ġb ot
Ġequ ally
Ġlaw yers
Ġthem es
Ġt issue
v als
ĠL ock
Ġspec ify
ĠPro f
Pl ayer
Ġs ynchron
u et
Ġre named
ĠBelg ium
z eta
ĠJ ob
ĠPubl ishing
IN TER
ĠOper ation
Ġf uck
Ġappoint ment
Ġinterpret ation
s ample
Ġc ogn
Ġap plies
uk i
Ġs urn
ff ff
Ġpol ar
Ġs oph
Ġhead ing
Ġv ibr
Or iginal
op ter
Ġfore ach
ĠWith out
Ġpl ugin
Ġhy brid
ĠL evel
b ers
s burgh
ĠSer ver
hor izontal
Ġfra ction
ĠB O
p ull
ur able
st ory
Ġing red
Ġhyp othes
pro vider
V P
bl ank
Th ree
ĠStew art
id al
\ '
19 32
">< !--
Ġroy al
p icker
Ġf ishing
oc a
ĠG ary
Ġwor ry
Ġrob ust
Ġinvolv ement
ĠRead ing
ĠInt eg
ic ular
Ġtyp ename
Pass word
Ġ( âĢľ
ĠHar vard
19 28
Ġg od
ĠâĨ Ĵ
ĠH ost
Ġt one
q quad
Ġconcept s
be at
est one
b g
Ġsup plied
Ġfocus es
Ġmem ories
un ique
od ox
ĠWh ich
iment al
Ġtime out
ik ing
Ġview ed
user name
Ġinflu enced
J ack
M ask
ĠW rite
Ġt ub
M IN
O k
Ġtouch down
ĠO K
Ġp ump
. ~
ĠStud ios
bor ough
ograph ical
ĠF L
Ġsh arp
Ġcare fully
ĠConnect icut
Ġleg it
Pl an
appro x
Ġmer ely
Ġtyp ed
B ind
ys ical
Ġinsp iration
support ed
e a
Ġrespond ed
m aven
sh adow
w he
test s
mark s
âĢ ħ
Ġt ips
M art
le ans
ĠS U
Ġte a
ĠLaw rence
ĠR ain
or able
Ġw orship
Q UE
C ur
ass embly
N ative
Ġdis ag
Ġbirth day
x is
Ġcl im
Ġl oyal
ate ur
D ictionary
ĠB uy
pat tern
ash i
Ġas ide
ol en
' ));
ir i
y g
Ġd ust
ol s
ĠM om
Ġsp ark
Ġrad ius
Ġed it
S cal
Ġman uscript
clus ions
Ġproduc es
Inst all
z ym
F act
Ġcorrect ly
C G
t re
ĠP ap
ĠW ard
l ined
ord inary
sv g
Ġj uris
h l
ĠB art
ĠPal ace
cd ots
ĠTh ailand
is en
Ġm igr
Pro v
B egin
ĠPe ak
ĠR achel
Ġs alt
as ync
Ġelse where
requ ired
ĠAss istant
ts d
spir acy
à ®
B ecause
Ġmod es
spring framework
ĠSt op
Ġsecret ary
Ġt mp
Ġres on
in valid
Ġrep orter
Ġprint ed
Wh ite
ows ki
{ (
Ġarr ive
Ġad s
Ġjud ges
Ġcheck s
Ġneut ral
Ġint ellectual
Ġequip ped
Ġsuper ior
m ate
ĠV iol
: `
Î µ
S ources
Ġagric ultural
Ġrece iver
Ġman ual
Ġr uled
{ %
Ġsc roll
ĠM i
11 1
Ġtr ou
p in
ĠH ttp
" ],
Ġcl ar
ĠV ar
Ġt ill
ĠL anc
? )
Ġisol ated
b es
re lease
ĠL GBT
P ers
is ons
Ġp ace
ĠChall enge
Ġvis its
RE D
{ {\
m ac
ĠL ag
; )
ry ption
ĠCh ile
utr ition
ĠSim ilar
evel oper
Ġb atch
Ġhelp ful
ess ment
ĠSw iss
on ce
cond ition
an ne
Ġprepar ation
grad uate
Ġsche ma
itche ll
B AR
ĠC ass
m oz
Ġprote ins
ĠRe act
z i
F ocus
ĠMiss issippi
Ġf ro
ĉĉĉĉ ĉĉĉĉĉ
ann ah
ĠI C
ĠH E
Ġdemocr acy
OR K
Ġs id
y y
ME TH
Ġch ronic
ab ad
10 6
Ġd owntown
Ġcontract s
iv o
ĠProfess ional
ĠA le
Ġmar ine
id ays
r in
Ġstay ed
Ġfol ks
Ġleg s
L abels
ĠN ep
Ġch urches
Ġrom antic
Ġcomp ute
Ġw ider
P rior
ibli ography
Ġr ugby
De ath
ĠGr ad
Ġp ic
count ry
ĠW i
; }
ĠR ele
ĠGu y
Vis ible
Ġmet res
(' .
j amin
Ġd ial
ĠF le
F LA
Ġflow ers
Ġin ject
ĠOr th
sy nc
ph ot
Ġr uling
the less
S chool
19 15
ĠH ub
Ġdecre ase
ĠY an
Ġg ear
ĠFor ces
ĠW ind
Ġmusic ian
Char acter
Ġc ul
ic ht
Ex ecut
Ġab und
Ġst arring
Ġnull ptr
ĠPr incess
Pres ident
Ġoccup ied
Ġj unior
L ibrary
ur se
Ġpred icted
ĠChar lie
ĠMur ray
ĠHistor ical
C reat
the re
ĠB uck
Ġdes per
ĠG raham
Ġen vironments
con structor
Ġpr on
oth y
ĠF isher
ĠDown load
Ġsoc cer
am an
Ġeduc ated
Ġra ising
Ġrepe at
Ġde put
ĠBrook lyn
Ġch a
Th ank
; ">
Ġch arts
Ġsu icide
Ġdrink ing
im ated
ĠInt elligence
ĠLead er
Ġmor ph
!! !!
ict ures
Ġn a
VAL ID
Ġvari ation
Ġb one
Ġc razy
Ġt ip
ĠM oney
ac er
ĠB M
Ġfab ric
ĠEconom ics
19 16
r uby
Ġfore ver
xi ety
f are
Ġspe aker
Ġcom plicated
spe ed
Ġb ull
Ġamong st
Ġaddress ed
ĠAr men
Ġrad ical
Ġappreci ate
t i
Ġinter vention
ur u
ĠA nc
t f
Ġsusp ended
s ym
Rober t
Ġcorre lation
Ġp ref
on al
ĠTr ack
ĠEd inburgh
st ud
1 18
Ġjournal ists
ĠG ro
Ġsit uated
Ġobserv ation
Ġf mt
Ġdepend ent
Ġm oon
ĠS umm
am ous
ĠN elson
Ġgreat ly
Ġgr ab
L D
Ġt ags
sc ar
ĠW right
Ġsat ellite
( @
Ġord inary
n odes
P resent
Ġdestr uction
Ġb io
(' /
Ġbreak s
h al
ĠCh ron
Ġmil k
19 25
Ġch unk
Ġder iv
Ġle af
Ġregul atory
ĠC lient
Are a
Â ·
Ġdiscuss ions
ĠR ub
Ġt ie
Ġport folio
s ch
Ġmyst ery
ch arge
ĠF ix
Ġprot ests
Date Time
19 27
coll apse
Ġh ist
ĠB lood
ĠV ancouver
ĠTown ship
b ing
aj ax
av ery
Ġdi agram
Ġadj acent
Ġread s
ĠRepresent atives
f ish
t body
Ġc ited
ĠK ir
Inter val
Ġh ip
ĠCh ampions
cd n
ĠA qu
W H
Ġman ifest
ĠF al
Ġp ub
ĠL oad
Ġvalid ation
he alth
Ġ ^
Ġoper ates
CO VID
l ive
Ġhigh lights
Ġsucceed ed
Ġneigh bour
con struct
n n
iss a
U C
Ġst adium
ĠClass ic
ĠN ash
Ð¾Ð ²
W ar
pl ier
ik h
intend o
10 3
Ġ= ======
Ġmechan isms
Ġres idence
RE G
Ġthreat s
ĠI an
opt ional
Can adian
ĠShe l
Ġbi ological
19 24
Sequ ence
Ġbl ind
Co ord
Ġper mitted
ĠE state
Ġload ing
Ġover whel
act ic
Ġinn oc
qu is
S ep
ace ut
ĠO d
Ġcal endar
Ġal gebra
j d
V irtual
b ie
Ġphot ographer
ĠCar ter
Ġimm un
EE EE
Ġless ons
ĠSam uel
Ġdist urb
ĠE nc
ĠSt ars
Ġh ill
ĠO il
at ile
ĠF el
H on
ĠBoy s
}^{ (
verse as
ĠChrist ians
ĠMor ris
og ene
Ġview ers
ĠS now
Or gan
Ġformer ly
ĠS ett
Ġimm igration
quir y
less ly
Ġm art
ĠGu id
Ġun likely
ch art
y cle
Ġg all
ON G
ĠCamp bell
time out
ĠSt age
Ġp ipeline
Ġarg ue
ID TH
down load
ri ent
ul u
ĠG ill
Ġthe ories
al ion
AT CH
in ces
clud ing
Ġt ort
}) \
Ġp seud
ĠF em
Ġd uties
ĠArt ist
Ġl oud
Ġguarant ee
}\ ,
Ġtalk ed
f ixed
Ġre ly
Ġw ake
Ġen ables
Ġde ck
ĠLouis iana
ĠP ublished
ar se
ĠF ern
Ġav ailability
eth yl
Ġclass ified
irm ingham
Ġth orough
wh at
ĠN ag
ict ional
ĠP red
/ .
Ġsub scription
back s
Ġbu f
c in
as a
Ġcomp lement
Ġimm une
Ġdis aster
ĠAdd itionally
v c
ond a
Ġfund ed
Ġrel ating
ic ator
ĠDom in
ĠP ython
ĠMar vel
Ġlicens ed
Fl ag
Ġde cent
ĠAp ache
Ġdes ert
æ ľ
Ġr u
ĠMar shall
Ġpro ps
ĠH ad
Ġde pression
Ġexpat riate
Ġcoll apse
AN S
Ġn p
sc al
ĠNor wegian
Ã ¥
ĠBet ween
Ġt ensor
Ed ge
ĠMet ro
Ġh int
om ed
ĠF ame
ĠAb d
Ġaccompan ied
math sf
(' #
h att
Ġs ke
Ġident ification
A I
Ġ( -
ĠB ased
on ed
ĠRog er
ĠPri or
Method s
Ġ' \
Ġm ad
writ ten
inal s
Ġvol umes
own ed
Ġconsist ing
B ro
Ġrem oval
DE FAULT
! )
re v
19 22
Ġm ilit
ĠP eters
ĠB ond
ilt ers
ĠT ar
ĠF BI
ĠC leveland
19 31
log in
Ð° Ð½
ĠPort land
Ù Ī
ens is
Oper ator
ĠT ower
10 8
M ean
ĠN i
19 26
ĠP ope
ĠCon vention
A ir
Ġt ennis
Ġstruct ural
Ġdef ence
ĠRob inson
Ġanal yst
. :
Ġautom atic
Ġt x
ĠCh amber
ĠAdd ress
ĠArgent ina
Ġdialog ue
Ġh ang
ĠL P
ook s
ĠC rown
ĠIn put
Ġexpl oration
Ġas ym
Ġvolunte ers
l arge
r ane
ĠP oll
Ġvari ant
End point
up t
Ġh unt
Ġc able
Ġgl ad
ĠA SSERT
f ail
v ia
ĠX ML
ug ht
PO ST
ĠSt even
METH OD
ĠCE LL
Ġmolec ular
Ġrece ives
L ower
ĠAb stract
y ll
Ġc ock
Ġw arrant
t own
Ġpaint ings
p read
ĠG as
Ġmet ers
ĠD esc
19 21
sl ice
th a
< !
Ġl ad
eb r
SC R
Ġmount ains
ym n
ver ter
ĠN C
ĠArch ives
ĠArray List
ic it
Ġdeb ug
ser ies
ĠI ce
? >
ĠL eft
Ġg ro
text width
ĠH unter
Ġassoci ate
Ġst y
ick ed
An imation
Ġl oves
ĠWork ing
am er
Ġmechan ical
G ER
Ġm ice
vis ible
ĠS ud
ot ton
Ġsignific ance
Ġover l
Ġdevelop ments
ab ling
pro gress
m ade
Ġven ue
Ġbi as
nav List
tr ace
Ġmed ic
Ġout door
I gn
Ġâ Ĥ¬
Ġcl ip
Ġadapt ed
Ñ ĩ
Ġvacc ines
19 23
Ġex clus
ĠPortug al
te am
Pro fess
Ġtransl ated
ĠV ector
ĠS ay
Ġscreen ing
Ġco inc
comm it
Ġident ical
sc r
Ġregard ed
ĠChe l
": "
ty pen
Ġrare ly
ĠSt re
ĠJim my
ĠSim ple
Ġbl ank
l u
Ġfocus ing
W he
Ġp atch
d ig
ĠF inn
ĠCamp aign
Ġrepresent atives
D IS
ap os
ĠE lection
Ġe q
20 23
ĠSte el
ĠWrit ing
comp iler
Ġfin ishing
Ġrot ation
Ä ĥ
19 12
D en
ain ian
Ġlif etime
Ġsub sc
ĠU rban
Ġconf ident
clip se
Ġl unch
Ġ{ "
ier archy
ĠMag ic
Ġmanufact urers
aceut ical
Ġposs ess
Ã© t
av an
the me
Ġsp oken
}^ \
Ġem ission
Ġg ram
ID E
Ġreported ly
Ġmod ify
Return s
ĠDen mark
ĠH O
D im
ij ing
ĠKn ight
ĠBalt imore
pro xy
Ġd iam
"" "
ST ATE
Ġn am
z es
iz ard
M ove
Ġun like
ĠS ets
Ġphot ography
ĠB ody
ĠF O
Th rough
Ġfound ing
erv ing
ĠDep uty
b est
Ġc rown
ash board
Ġpart ition
oust ic
Ġj u
ĠTr ad
el ing
or rect
ĠE C
f lex
s ingle
g ow
Ġanim ated
t ok
Ġmanufact urer
p ython
ĠRef orm
Ġsl ot
M us
h ave
ĠF ab
Sc ott
Be an
cl one
Ġn an
all classes
ĠG ulf
Ġcelebr ated
Ġcert ificate
W el
() ))
out ing
ĠC ome
10 7
m ount
ĠMarg aret
ol ute
Ġc ow
ĠW ang
Ġuncertain ty
Ġs ync
ĠN othing
check box
Ġbound aries
ĠH end
Ġst upid
b uilt
Ġelect rical
Ġdram atic
con sole
ĠOr leans
D ATA
ĠHawai i
Requ ired
Ġper mit
Ġpubl ish
e ast
ation Token
k t
ĠDr agon
is ely
" |
iss ance
Ġad equ
ath on
Ġreview ed
Ġequ ity
RES ULT
ĠM achine
Ġun w
ra ke
Id s
side bar
um ar
Ġ å
ke e
ter ior
E st
Ġoff ense
eli hood
ĠCons ider
Ġgener ations
i ative
ĠS ide
ĠPat ri
Ġl ung
P air
P UT
Ġopt imal
b n
C red
is an
| ^
C apt
Ġpre t
Cont in
ĠOper ations
Ġc ov
dest roy
aught ers
Ġdr ums
typen ame
G reat
ud son
ĠU r
Ġland ing
Ġunivers al
re ck
Ġsome how
: \
Ġtom orrow
con nected
qu er
Ġbrief ly
se lector
her s
enez uel
ev a
Ġst uck
IN FO
ex ec
Ġfrequ ent
our t
ov ak
Ġclaim ing
Ġfl ows
} '
ĠIns urance
Ġadmin ister
n ia
ĠC os
Ġn aturally
ĠComm ons
Ġtherm al
Ġab road
res olve
Ġch at
Ġthe ater
Ġp ending
Ġcompl aint
id ges
check ed
or ia
Austral ian
ides pread
Ġapp lying
ĠBar on
ew ay
Â »
ĠK ate
ensure math
Un known
ĠS W
v ol
}_ \
Ġinh abit
Ġaff airs
ĠIn n
M ouse
ĠC G
Ġany more
Ġposs ession
u ates
Ġup grade
Ġliber al
n est
ĠD escription
E P
Ġv oices
Ġis lands
Ġsurround ed
ing ers
ĠD B
om es
Ġcl othing
Ġevery where
Ġpo em
AR S
O lymp
ĠG T
H C
ĠPl atform
at omic
Ġn ick
A SE
equ ality
ib bean
Ġple ased
Ġex ha
ater al
Ġin clusion
s em
ĠPh arm
Ġcomm ands
M ount
Ġc urrency
ĠN at
F M
Ġep id
Ġc odes
ĠR y
ĠCl ick
H D
Ġdi et
Ġmet ab
h ist
L imit
Ġcl othes
Ġlux ury
Ġdevelop er
t ail
pt ic
UT H
or us
ill ance
is cal
Ġart istic
H ub
Ġb ug
s n
B ad
ĠG iven
und efined
Ġins ights
ĠF reedom
Ġback ing
Ġconnect ing
Ġl ang
o j
Ġmask s
Ġ? >
Ġt ale
ĠBo olean
AM P
S creen
Ġsim ulation
w alk
Ġphotograph s
ĠA LL
}} {\
Ġpromot ing
Ġint ense
ĠGal axy
ĠM ail
th an
Ù Ĭ
Ġst em
ĠPh oenix
ĠK az
ip h
ĠLiber al
usal em
Ġlog o
ĠT ob
Ġcampaign s
Ġpet ition
look ing
Ġh orses
Bas ic
yn asty
Ġc ursor
ourn als
Ġs urre
Ġg auge
ĠO bserv
Feb ruary
Ġcomplex ity
Event Listener
Ġdream s
Ġthreat ened
ĠSpe ed
p ot
g oto
Ġint ensity
Ġsh adow
Ġemer ged
l icens
ter ed
Ġgraph ics
Ġexplicit ly
Ġpopular ity
w er
10 9
ĠLead ership
L android
ĠAg reement
ĠS oul
_ );
ĠCro at
ĠPu erto
ĠF alls
op les
Ï ĥ
Ġtw elve
if i
iv an
int ell
Ġrec re
Ġn it
ĠNAS A
ĠT ed
Ġcount s
ĠWay ne
en umer
Ġres ign
Not ification
Ġjuris d
ĠRem ove
Ġdisc ount
( {\
M ass
s r
Ġt ur
ab etes
Ġent ities
Ġincorpor ated
s elling
ĠM es
Ġrh yth
comm ons
â ĪĴ
iv ities
Ġal gorithms
Ġprov isions
Ġenh anced
red ited
am ents
ĠM aine
Fr agment
ĠMuslim s
es ian
u ite
ĠĠĠĠĠĠĠĠĠĠĠĠĠĠĠĠ Ċ
ĠCon struction
ĠImp act
ĠT arget
Ġbr onze
Ġut ility
=\ "
EEEE FF
Ġhigh way
Ġj ew
ĠB aker
vious ly
Ġde eper
Ġrestr icted
ĠBul g
C ross
sh a
ĠWar ren
Com plete
Ġwe ird
ĠCor onavirus
ĠCor p
ex tr
ĠF un
Ġlaws uit
) {\
& =
cy cle
it i
form ing
ĠAv ailable
Ġmod ules
ĠEN D
Ġd ad
w x
Ġs ust
AR N
Ġsil ent
Ġneigh b
ĠMar ie
ĠT ogether
greg ation
Ġre vers
ĠQu est
Ad v
Ġre ign
et he
x it
Ġgover ning
Ġ ion
Ġb uff
ill o
Te am
Ġvert ex
Ġb unch
ĠC L
Ġg ard
ĠP un
ĠAl tern
Ġl ip
at ibility
x html
Ġo xygen
apt ers
ĠV ent
ped ition
I LL
tr l
ĠEv ans
intell ij
Ġ" $
Ġship ping
Ġcas ual
get Element
ĠFe ature
LO C
Ġcam eras
ab e
ĠSt orm
ĠZ one
w arning
S ample
Ġal ias
Ġl ens
os c
eff ect
Ġb at
ĠCommon wealth
m ouse
Ġsurv iv
ĠM itchell
Ġmaintain ing
ĠC over
ĠP ant
ĠC emetery
Ġg athered
he ro
ĠCol omb
Ġinteg ral
Ġstat istical
ĠP el
not es
' ];
pl ot
oc hem
il iation
ac les
Ġt weet
rit ory
n ik
ĠStr ateg
ri um
ĠC row
Ind ian
Ġlab our
ĠM ix
ĠP arent
ĠI R
Ġe cosystem
S ocial
×Ļ ×
Ġbeg un
Ġt ropical
l at
Ġag enda
M ajor
ong o
Ġimpact s
Ad min
writ ing
amb ig
ext end
Ġ\ {
ah o
ĠMethod s
p ad
ĠSing le
Ġn od
ĠJ e
Ġgo ogle
Sk ip
ph ones
Sp an
ĠC elebr
Ġwhe never
et ics
col Last
Rel ated
oid s
Ġcomp ilation
P ad
Ġult imate
o il
ĠG un
trans ition
Ġbr anches
Ġge ometry
dr iver
ig o
ĠPitt sburgh
put ed
ĠJ uan
ul ates
print ln
S N
}\ \
ab a
row se
Ġche st
ĠBroad way
ash ing
Ġen emies
Des ign
ap is
az ines
ĠEm peror
Ex ample
Ġsens or
Ġeval uated
O U
'] ['
Ġclos ure
19 13
ĠCreat ive
ĠSt ev
ug u
V C
Ġsh ops
ĠTechn ical
Ġr ounds
ĠC her
Ġcross ing
S ite
lyph icon
l ass
object s
L aw
Ġrest ore
ĠĠĠĠĠĠĠĠĠĠĠĠĠĠĠĠ ĠĠĠĠĠĠĠĠĠĠĠĠĠĠ
get Value
Ġoper a
c ases
Ġinfe ctions
A z
Ġb orrow
ĠC raig
Ġin ches
F older
Ġappe aring
s heet
Ġm igration
Ġas p
ant on
ip es
ĠJ oy
uck er
Ġl iv
ĠAl ice
Ġatt ending
F ramework
Ġchar set
ĠOr ange
Ġp in
An n
ellig ent
Ġbe am
Man agement
run time
l iving
ĠS ony
ĠR av
AC H
Ġst ating
ĠBe ing
am y
ĠR isk
Ġdam aged
Ġs ugar
ĠK ind
ĠBrother s
Ġcr icket
Ge orge
Ch ina
ah n
Ġsurv ived
P y
ĠD oc
ĠFrank lin
ĠT ig
ĠT itle
Ġagric ulture
ĠJust in
part s
comp ile
d iff
Ġequ ality
ĠDak ota
Ġadapt ation
v et
ĠV eter
ĠSe pt
AR B
pol icy
Ġdifficult y
T w
pro gram
Ġpost er
if le
Ġr anging
(" /
ĠAfghan istan
ĠF ast
ĠBl ues
Ï ģ
AR CH
Ġmer ge
Ġdesc ript
ĠSh are
n p
Ġsch olars
R aw
Ġb read
Ġhuman ity
col First
in herit
sc ience
J o
c atch
Ġcomp atible
oper ator
Ġrun ner
def inition
lem ma
Ġcontrovers ial
F n
cont rib
Ġconsider able
ari os
FN GL
Ġstrugg ling
P eter
Ġcor ruption
ĠH unt
Ġop inions
Ġl uck
ĠSp ot
Object s
ĠC C
C enter
ĠM aur
th y
or ious
he art
f actory
Ġsynd rome
ĠColl ins
ĠJ azz
Ġinvestig ated
ĠM ut
Ġprem ium
Ġven ues
ir ts
pl er
Ġrout ine
er ious
ric ane
oc ese
urre nce
Ġvalid ate
ĠG ot
ĠSever al
App end
Ġsp ots
ĠL uke
ĠArab ia
ĠJ u
ĠO P
Ġmist ake
Ġs aving
Ġspe akers
Ġcred its
ĠJ en
Ġarr anged
Ġh al
ĠPortug uese
Ġobserv e
NavBar Font
chn ology
SS L
ss on
Ġopt s
Ġsequ ences
Ġd il
Ġc ous
Ġprocess ed
ĠC er
og s
E ducation
Ġre ception
ĠCl ar
Ġcomput ing
Bi ography
sh are
im edia
ĠS end
build ing
ĠEar l
Ġeng aging
cast le
ĠRefer ence
m n
om ing
i w
H or
ci pl
AT TR
ĠL ost
Ġbul k
Ġrg ba
Ġst ops
Ġart ificial
Ġ\ "
ĠPr imary
ĠMor ning
Ġpat ent
st ock
uc lear
Ġt y
St ation
Ġbon us
Ġhand led
S al
ĠB io
Ġw idespread
ĠG ate
ops is
Ġveter an
Ġ[ âĢ¦]
it ations
Ġdire ctions
Ġden ote
Ġs wit
ac ular
Ex pl
ĠE D
ĠK ids
Id entity
S W
Ø§ ÙĦ
valid ate
ing e
Ġcomp ound
MOD ULE
Ġass emb
ex pect
Ġatt itude
Ġarbitr ary
Ã ł
ĠW E
Ġrom ance
æ ĸ
ĠÃ ¢
Ġcom ed
t k
Ġter rible
Ġl ov
R a
Ġmain stream
Ġcomp eting
ĠAgain st
Ġqu ote
Input Stream
ĠSh ah
cel ona
Ġcompet itions
Ġemot ion
l adesh
Ġtour ism
ĠWeek ly
Ġmer ged
Ġpurs ue
pl oad
ĠS uccess
ĠBar bara
oth s
Ġse ar
B IT
oper ative
D rop
t ures
Ġpart ially
ĠOper a
Ġvent ure
Ġdecl ined
ym ph
Ġf oss
ĠU g
ĠR io
ĠAl aska
ĠH ockey
ĠR ules
******************************** ********************************
te ch
Ġenter prise
Ġincred ibly
Pl ace
ĠS IZE
Ġpan els
on ical
d ependent
19 11
Ġdescrib ing
Ġcult ures
Ġinput s
Ġhard er
) +
Ġj ail
Ġse gments
Ġcommand er
ate ful
ph ant
Ġas c
Ġpri est
m g
Ġgr ants
B al
ĠN CAA
F uture
N ormal
ĠB OO
ubl isher
Ġcommission ed
MO DE
Ġim pr
Valid ation
Ġcon n
Ġan chor
ĠF M
ĠR and
Ġco operation
A fr
j et
Ġs orry
ĠC ultural
ĠN am
Ġlight ing
}} }
cont act
ĠCon tract
rou te
Ġcoord inates
Ġres olved
Â Ń
it udes
Ġsub stance
CT YPE
ĠÐ ²
Ġspeak s
Ġprec ision
Ġg host
Ġremark able
Ġlock ed
ĠO cc
Ġ$ (\
ro gen
ĠF ried
Ġrob ot
Ġaf raid
Ġlabor atory
ĠK rist
Ġm ath
{ $
Ã ´
Sh are
Ġsimult aneously
ĠKen ya
re ach
um ed
Ġrecover ed
âĢ¦ âĢ¦
Not Found
ĠCon cert
Ġton ight
ĠC arn
ĠR ange
ud ge
ĠB loom
}} (
Ġrestr ict
Ġp or
ĠâĢ Ŀ
List en
it ual
ĠH ence
Ġre actions
x s
Ġevery day
Ġm d
SE LECT
> )
." ""
Ġch rom
Ġpaint ed
m ir
Ġs ail
Ġ" ",
Final ly
ac co
Ġun con
Ġor al
Dr iver
ĠG olf
Ġrecord ings
ĠCom ics
Ġde leted
Ġd ump
Ġal pha
Ġcomput ed
Ġim aging
ĠHon or
Ġr ally
/ _
E lect
s ocket
ĠU C
ĠOption al
Ġst eal
ĠIn novation
ĠCommission er
Ġsp atial
im mer
qu al
Ġ( #
ect ure
ĠClin ical
Ġpre val
Ġcelebr ation
ĠGr iff
ĠG ov
S erv
Over view
numer us
11 4
numerus form
pe ction
E SS
ard ing
on z
Ġth ro
cre ated
ĠOr chestra
d uration
av it
ĠThe ory
Ġexpand ing
Ġpass age
Ġc rop
as gow
Ġb ounds
ĠF ine
ĠC old
] $
Ġiniti atives
ĠW or
IO Exception
ĠSus an
ĠKe ep
an imation
Con stant
Th row
Ġparticip ating
. ),
ĠL yn
Ġch amber
ĠJ S
ĠPark er
Ġpark s
id ency
Ġcalc ulate
Ã «
ĠIs a
ĠIl legal
C ONT
Ġfl ux
Ġcompens ation
Ġtext s
Ġdispl ays
Ġmus cle
Ġor th
S ql
Ġ_ ,
ĠF iction
ĠB irmingham
2 20
Ġact ively
hel per
Ġbox es
Ġg allery
Ġdelay ed
Ġprepar ing
Con vert
W arning
Aud io
ĠV erm
Ġinv olve
Ġdom inant
p rom
Ġim plied
18 90
... </
ĠW orth
ĠFri ends
ĠP ad
Ġactiv ist
Ex ecution
D ER
Ġexam ination
ĠEth iop
ac eful
Ġ" %
no indent
h ai
Ġinvest ments
ut ers
ĠI de
Ġinters ection
m other
$ _
top ic
r ank
am ine
c ia
Argument Exception
à ¦
al ph
b atch
Ġs ocket
I ES
ĠL com
ĠF err
ĠEm ploy
ĠD raw
Ġdel iber
ow ell
Ġ> >>
US A
Ġaw esome
ĠC SS
Ġactiv ists
he astern
Ġsuggest ing
) [
ĠThe ater
Ġaud iences
U ES
M AN
Ġear liest
arg ed
Ġpack ages
ĠJer usalem
Ġpres erve
ĠStan ley
is Empty
hatt an
B ur
Ġad mit
ĠAnt i
b one
ĠD ie
Ġactiv ation
ĠB rew
ĠL ore
hemat ical
ĠM C
Ġdoll ar
ĠAr n
PRO C
V IE
V ol
Ġple asure
11 7
Ġprogress ive
Ġa uth
ĠLin ux
Ġpush ing
L ead
Fl ow
re act
Ġend point
Ġh unting
Ġo w
ĠT ab
Ġcharacter istic
th al
B inding
ĠL l
Ġinv asion
ig ue
Ġexclus ively
L ondon
Ġcomp an
ĠDen ver
d atabase
ink s
ens on
Ġk in
ĠM all
ĠC le
ri ors
var iant
bor ne
ĠIss ue
is b
ĠP ick
em a
Ġl ying
ĠMov ement
ĠSol utions
ĠArk ansas
ling ton
ĠCharl otte
Ġco aching
it r
ĠR acing
ĠCo al
Ġorient ation
Serial izer
ĠLiter ature
enn ial
ĠS ad
ID S
m ill
ä »
se par
ch t
19 08
Ġalleg ations
ĠQue bec
Ġcast le
F ire
Ġun em
m illion
Ġcare ful
Ġr anks
Ġper missions
DO CTYPE
r idge
Ġc ir
T ake
ĠA y
the y
Fix ture
ĠIm port
Ġsh it
Ġicon ic
Ġevery body
H istor
Ġmid field
p iece
et al
ĠPro file
p aper
Ġun ve
Ġfunction ality
Ġst roke
ĠT ry
dis able
B oth
ĠB es
Ġse ctors
b old
IN K
ĠMult i
ĠOl iver
int eg
ec ca
ĠA ld
ĠE SP
A wards
on ing
Ġens uring
ĠStr ategy
ĠM ach
ĠÃ ł
ĠLeb an
Ġcount ies
ing ing
ĠL anka
ĠP i
u art
Ġbel ongs
ĠT otal
Å «
Ġd ated
Ġprom ised
Ġrest ored
Ġoccasion ally
Ġmet rics
Ġcancell ed
ĠR ot
: [
P red
ĠNav al
ĠH im
Ġdep ict
ĠCar ibbean
ĠM ock
ĠIm perial
ĠMont real
Ġcook ie
ĠWel sh
Ġfoot age
ĠM oz
qu ality
ĠT an
ĠH orn
Ġt rem
ĠE dd
The me
Pl atform
> "
ĠI F
ĠUnivers al
c ross
ver b
Ġdo i
it err
ĠW W
Ġsm ile
ĠPer haps
Ġa uction
Ġcomput ers
ĠLear n
Ġhistor ian
S il
f g
sim ple
ĠM uch
ert s
Ġlif estyle
ĠA B
or igin
ĠNev ada
Ġexpl oring
ĠC BS
ĠBrazil ian
ĠG R
DE F
Cond ition
est ing
ĠN BC
b d
ig ator
____ ____
Ġcoast al
em ark
ri ber
ĠArch ive
G old
âĢĿ )
ĠM aj
S elf
ĠN ear
ex it
Ġj et
ĠR T
ĠTurn er
} +\
ine a
Ġinter active
ĠL ad
Ġbr ut
Ġcharacter ized
V ICE
B orn
ĠT it
us p
Ġsearch ing
Ġsevent h
Ġident ifier
Ġlog ging
ĠMad rid
ĠL icens
Ġvess el
Ġr iding
Ġj s
str ings
Ġph ones
other apy
un ion
b ia
Ġa ired
Ġd rew
Ġhar vest
Ġflex ible
Ġn ut
Ð ¿
Ġconven ient
Ġmat ched
Ġ@ "
ra ction
Ġp ounds
B eh
Off icial
ĠA my
Ġval ley
Ġtrail er
B re
AS K
Seg ment
ah a
ĠTre as
under line
Ġswim ming
Ġm ood
ĠW ant
ĠCon stant
Map per
Ġc inema
ĠL aura
yn om
Ġt ies
Ġre plic
ĠP rix
ĠB ird
act ivity
Ġmax im
B order
ĠFin land
Ġth irty
ĠBar ry
ĠCont ext
Ġfl ower
Ġmagn itude
C md
ĠA the
ĠIndust rial
Ġch ampions
Ġemploy er
T y
Ġan xiety
Ġwarn ed
ric ulum
ĠGuard ian
ĠB aby
ĠK itt
Ġflo od
Ġshould er
Pl ot
Ġcond em
ĠC ould
Ġwild life
id el
Ġdesc end
n ob
ĠL ot
W ORD
Ġcon vention
Ġpro secut
Ġess ay
Null able
ĠMean while
ĠR ic
Ġintegr ity
Ġf ur
} |
Up dated
24 0
Ġh az
F lor
$ /
Ġrequ iring
Ġpay load
e i
ORD ER
Ġpar ad
% "
i pt
Ġper m
Ġhad n
ĠS pect
ĠC rit
av ia
Ġph rase
NS String
Ġcheck ing
ĠJohn ny
Ġdeliver ing
r h
ĠT ak
W allet
T x
Ġtheore tical
ĠUn fortunately
Ġle ts
Ġadvert is
Olymp ic
C HECK
ĠR ule
Ġ} }
ĠBe ijing
ĠP L
log o
ĠBen jamin
ĠC itiz
in us
ĠB illy
t ensor
Ġg est
min us
ĠSquad ron
Ġm ild
list ed
Ġm ic
amp a
Ġsp ell
t ies
'] );
Ġj ury
Ġbl ame
pl ane
ĠM ade
B atch
mer ge
Ġt we
Ġvis ibility
ay an
g un
Ġenthus i
Ġearth qu
ĠR ank
Ġdev ast
Ġvess els
Ġunder ground
p kg
Ġminor ity
ene ath
Point s
Ġe igen
Ġrepl acing
Ġengine ers
ĠTh or
sh ops
ĠD ictionary
Ch art
mem ory
Ġdis pute
CRE MENT
ĠH aving
Str ategy
= [
Ġb orders
ĠLem ma
ĠG ray
Ġl ic
f mt
Con structor
Ġste am
Ġexam ine
Ġafford able
ĠS S
Ġseek s
Ġcr ick
pro d
ĠG round
ĠP ictures
Ġem power
Ġpower ed
ann es
b rew
sc ss
o ft
Ġrac ism
Ġhydro gen
ĠD ig
ob i
Ġattract ive
Ġcommun icate
ĠA rena
b ach
Rich ard
Ġp uzz
ex pression
ĠK E
ĠP erm
ĠS even
Ġim plications
assert True
ĠNot es
W rap
Ġres ort
ell ers
Ġ Ä
Ġform ing
Ġrun time
Ġmiss ions
Ġover come
Ġnam ely
Ġassum ption
ĠEmer gency
it ime
om i
ĠMov ies
Ã ª
ne q
ĠUS D
Ġal ien
Ġk iss
h space
ĠL ith
Ġ _{
qu est
ĠC ars
ĠSe an
Ġac ute
Ġt ons
b id
Ġt un
Ġst ere
comm unic
Ġking dom
# {
P HP
Ġl ibraries
Ġtext ure
- (
ens itive
ĠDemocr at
] \
Ġembed ded
Ġdem ol
Ġtravel ing
12 34
Ġl ady
Ġind uced
ĠAct ive
Ġi OS
rypt ed
Ġexhib it
ĠDr ug
ĠTe acher
ĠPol y
}} ,
grad ient
iterr ane
ĠP odcast
Ġ' ';
Ġr anges
Ġg entle
Ġgener ator
ĠRob in
ĠK ap
UM M
ĠV oice
ĠTh read
ue z
Ġextra ordinary
ĠDise ase
Ġarch ae
resp ons
R ate
ĠG ay
Ġ{ },
Run ner
os ity
Ġlo ans
ĠR s
ĠEm ail
Ġsaf ely
Ġtr im
var iable
Ġbreak fast
Ġcolon ial
en z
pare ncy
ĠDan ish
Ġc ust
%%%% %%%%
__ _
ĠD iamond
AT OR
Ġf er
ĠMan ufact
ĠAd vert
ed a
L ove
Error f
Ins ert
ĠK o
k ov
le ading
Û Į
B inary
Ġattempt ing
Ġjud gment
j ack
Ġfl av
: @"
C ALL
ĠN ord
ĠH R
Ġdepart ure
Ġto k
er ial
ĠS eg
Ġe leg
ĠN AV
Ġf ert
id ad
Ġse cre
ile vel
ĠCom merce
Ac ad
og an
ĠRep ly
St atic
ĠS ave
Group Name
ĠMin or
Ġind epend
ar ance
r ass
Ġpain ter
ĠMur phy
ins ula
An alysis
p icture
Ġdec ay
Ġhost ing
Ġph osph
ĠM is
ĠN intendo
rou s
F our
Ġscient ist
Ġang ular
Ġb undle
og ical
Ġd upl
d in
ĠCustom er
ĠR ud
ari ant
e u
z ip
Ġpregn ant
bas ic
c ass
Stand ard
Ġnot ion
fe ction
Ġdom inated
des ign
bre aking
Ġsur faces
ik o
ĠCh ampion
ĠIn ternal
Ġsing ers
ĠAud io
iv ial
Ġm emb
om on
Ġ' ',
ĠHamp shire
- $
Ġfor um
ĠDe cl
ĠAL IGN
Ġh o
ĠS ale
Ġconsist ed
set up
Ġmem orial
ĠN ad
ĠE li
st reet
U G
ĠK ay
ĠAdv anced
Ġrec ycl
13 5
4 50
**** **
ĠGr ace
P i
Ġcon gress
ĠPract ice
Ġp ill
FF ER
ĠBern ard
Ġd ub
Ġt ap
Us age
å Ī
Ġspecial ist
ĠV ery
US ER
m ers
Ġsymbol s
Ġme al
u um
IN CREMENT
Ġhabit at
Ġch ances
Bl ue
ĠL ower
ĠK ath
Ind ia
reg ular
19 0
atas ets
Ġep ic
ĠL isa
Ġforest s
ĠFant asy
Ġfail ing
Ġl ap
ĠK irk
Res earch
A bs
Ġ" ";
Ġf rames
Ġcan nab
ĠG host
ĠEd ge
rad io
Fr ank
sign ature
Ġproport ion
ĠGr an
ĠA F
Ġpar a
Ġdr ives
Ġwood en
DO M
Ġconsist ently
Ġab ilities
ĠJenn ifer
Ġre aches
w arn
Ġsc ream
ĠBr istol
Ġsc reens
ĠFac ulty
Ph ot
item ize
ĠHind u
Ġentreprene ur
is or
........ ........
con vert
Ġres erv
Ġass ass
ĠSpr ings
Ġb anned
c ourse
Ġne ur
ĠV enezuel
K ing
fe ed
Ġh ung
M AP
Ġquant ity
Ġtal ented
et o
ey er
ĠInd eed
Ġpred iction
ĠU pon
us c
ĠV el
ĠS olar
aud io
ur ations
Ġnot ification
ĠN HS
Serial ization
M or
T ech
Ġg onna
Ġstay ing
Ġcorrespond s
Ġ( ;
Ġrem oving
m atic
Ġ- \
e lection
iterrane an
sh ore
Ġvirt ually
Ġprof iles
Ġthe orem
ant i
sub ject
Ġagre ements
Ġeg gs
u ity
ed ly
au er
ke ley
Do es
Ġhar ass
STR ING
Ġtyped ef
Ġbank ing
load er
id o
Vis it
qu ote
Ġsing ular
lim its
Ġb rows
Ġg ross
ac re
int eger
Europe an
Ġnob ody
in ery
ĠB R
S ame
H ot
Ġw idget
ĠB enn
ub ern
Ġf atal
!! !
Ġmind s
Ġr ivers
ĠC lean
Ex port
C ounter
Ġvari ations
ĠH erm
ĠW ait
ĠS R
IN ST
R ail
ĠK an
arg uments
Ġgre y
ĠInter view
ĠS ize
Cons umer
Ġsatisf ied
epend encies
Ġann ually
ĠCost a
ro se
ig ion
ĠS ustain
sub mit
Le ave
Ġen orm
ĠVis it
ag ination
Ġad option
Ġrepeated ly
J im
Ġdeput y
M aterial
Ġinc orrect
Ġmedal ists
F OR
* {
Ġrat ings
MAC RO
} -\
Ġemphas is
ass ign
ĠEx ample
ĠInd ians
C LASS
ĠM atch
element s
re le
Ġper pet
Ġcou ples
ri el
ĠMP s
Ġfall en
FI ELD
l icense
il ib
ar ms
b ank
ul i
ĠD R
gener al
Ġv e
F ac
Ġburn ing
Ġarrang ements
Ġroll ing
G roups
ĠL ux
ĠB irth
iss et
ra its
Ġd aughters
ĠJ erry
sen al
Ġst unning
Ġm i
Ġserv ers
Ġprison ers
w oman
Ġf iber
Ġ& \
cl op
× Ķ
ĠC NN
D b
Ġval ign
Ġh ub
ĠE T
Ġexam ined
Ġen zym
"/ ></
ç Ķ
e enth
A ST
ĠF ro
Ġprevent ion
Ġrank ing
ĠL uther
Ġid x
Rem ote
Ġcar rier
or o
Ġbare ly
Y S
Ġl ucky
fl at
ĠHung ary
UN T
Ġdis orders
Ch ris
Ġco ins
onom ous
Ġdeleg ate
ĠAgric ulture
ĠUp per
stand ard
19 05
En v
p id
× ª
Ġcitiz en
Ġop ponent
Ġcap ability
Ġdo zen
Ġnews letter
ĠC ensus
Ġent ert
amil ies
for ced
ver e
Ġcon spiracy
Ġsm oke
ou p
ĠBr on
Ġsusp ension
Ġan ger
Ġang ry
if ice
Ġm es
re ason
Comp iler
hib ition
add y
ard ed
ĠA aron
Ġdis able
Ġcap s
Ġexpress ions
Annot ation
) |
W ord
for Each
Ġle an
Ġev ident
Ġsurn ame
Ġover view
Ġop ponents
Ġmark er
Ġexist ed
ĠAm endment
Ġass ignment
ĠM ack
com b
E ast
id i
Ġillust rated
ĠL arry
Ġcert ified
Ġvol t
Ġprotect ing
ĠT ol
ĠC arm
sp ot
ass oci
ĠKe ith
Ġdecre ased
ĠW onder
Ġpsych ological
ĠBOO ST
Ġdis p
s afe
arch ive
ĠPr im
Z one
o ons
Ġmeaning ful
ĠBill board
ĠCons ervative
Ġl aser
Ġarrang ement
w d
Ġde emed
Ġte eth
Ġaccomp any
Ġmoder ate
ĠMan hattan
R ows
Ġsepar ation
ĠWAR RAN
ĠB apt
0000 00
ĠU P
Ġend ors
Ġcol span
Ġed iting
ier ra
E val
ĠPer ry
Ġdef ines
Ġrepl ied
trans action
Ġexp enses
ĠS amsung
att ice
f iction
g ies
ex per
Ġb ills
ĠU lt
Ġn ose
Ġsens itivity
ĠGre ater
Ġim pression
, ...
ĠB L
ĠN an
Ġcoord inate
k ar
Ġtum or
Ġd rove
ĠGl asgow
ĠF ollow
ĠSal v
Ġl os
oc aml
Ġmir ror
Ġtack le
Ġd ying
() ),
Ġcontr ad
Ġalleged ly
i ov
ĠL ion
M ad
Ġmix ing
Ġin sect
ĠExper ience
ĠF riend
ĠCom edy
ĠCal c
Ġdiscrim ination
Ġs b
ĠS L
Ġcol leges
ĠL en
Ġs ql
Ġrefer ring
W ater
ĠKar l
air y
r ates
ĠLe ave
L and
uss ia
ĠP ul
ĠUs ed
her ic
17 0
LE S
Book s
ĠL ex
Ġtim ing
Ġc ro
ĠMe eting
ĠTh r
ĠBar celona
19 09
ĠCam eron
ĠHarr ison
ĠY ang
as ia
Ġext ensions
å Ĳ
kw args
Ġeffect iveness
ar us
ĠD atabase
as is
ĠEvery thing
Ġem ails
y outube
Ġpack et
dep recated
h op
v space
Ġin struct
s un
oper at
ĠPhys ics
Å Ł
In f
Sh ared
Ġk ernel
m aps
Ġinc idents
se q
Ġpoll ution
Ð ·
ĠOut put
Ġnewsp apers
DE BUG
friend ly
high light
ĠB right
ĠW ing
B ER
uet ooth
Ġcar ries
ĠBet ter
å ®
Ġ ig
19 07
Ġcl one
Ġ Ñģ
pat cher
ĠK it
ĠT amil
requ ency
h istory
__ )
J ul
pos al
Tim er
hab ilit
m und
Ġtele phone
I ss
ĠG M
ĠC atal
Ġsh ore
r f
11 3
M el
Ġo verseas
ul in
sw arm
ĠM asters
Test Case
ĠCr iminal
Ġcomp iled
Ġc oh
ecess ary
Ġdiam eter
C ould
Ġun lock
ĠBr anch
ch anges
t ouch
ĠAl fred
Ġsu ite
Ġprom ising
Ġdepart ments
Y P
ĠW ikipedia
AV E
ĠF itz
Ġarch ive
ham mad
iv ic
licens es
Ġsp ir
: '
CO M
Ġrid ic
Ġconv icted
Ġro ster
Ġsur f
Ġinf ected
ĠBang ladesh
C amp
"=> "
V I
Ġprint ing
Ġal arm
Render er
Ġup set
re present
Ġgrad ually
Ġrock s
Ġmyst erious
Ġin equality
ĠRich mond
comp are
Ġd ining
Err ors
he ld
ĠCirc uit
duc ational
ist ically
ĠB achelor
om o
em or
Ac cept
Ġag gressive
Ġel ite
io x
an Ã§
l ower
Ġr ated
Ġhol es
/ {
l it
Ġa qu
ox y
Ġemploy ers
S at
Ġun n
ĠX box
Ġsec ured
Ġhard ly
ind a
Ġsatisf y
Ġview ing
ch at
br and
inn ed
ĠB egin
TI ES
z ens
l ab
ugg ed
Rad io
Ġfollow ers
Ġin ev
ack er
W IN
ĠH at
Ġwant ing
aa aa
Ġgold en
Ġdeterm ination
Ġpropos als
Ġin herit
b inding
Ġw elfare
ĠInvest ment
Ġpo ison
ov o
Ġhand ed
Ġc ub
ĠK u
Ġgot ten
Ġpo ems
ĠD I
Ġhor izontal
ens ively
n ative
Ġd ish
Ġclos est
Ġstr ain
Ġwor ried
ï¼ Į
C ulture
The ta
Ġpre st
Ġvolunte er
t ake
Ġinhabit ants
ĠB omb
19 06
pan ic
u ine
ĠCo ach
Add r
Ġtransform ed
ĠS urg
Ġwrap ped
Ġcompl aints
ĠEnter prise
U CT
B ibliography
ĠBroad cast
Ġgl obe
ounc ill
ĠUp dated
ĠConfig uration
Ġretain ed
ex pl
Ġde ployment
Ġk iller
t ri
Ġt unnel
Ġgather ing
L ou
ĠS creen
N or
Ġdeploy ed
ĠSh a
Ġcontribut ing
t ed
lim ited
G ate
ĠCom par
ĠP le
Imp lement
ocol ate
7 50
ser ial
Ġtreat ments
Av ailable
i u
function s
ĠAd ult
h alf
Wh ich
ced es
ĠInf antry
def er
in formation
Ġh itting
mark et
ĠM ol
o ose
Ġtrans it
all ing
ĠDe al
ĠEgypt ian
Ġhon our
B ottom
a uc
ĠChristian ity
AR K
s ong
t v
Ä «
ĠWar ner
Th omas
à¤ °
a que
S ever
Ġf itness
V ill
Ġcomp ress
Ġconstr aint
pr ises
Ġch ap
ener gy
Ġob l
ĠVi enna
ps y
Ġsumm ar
vent ions
ĠB ud
cal c
L IST
Ġansw ered
Ġre pository
ĠCre ates
Ġemb od
ĠC F
Ġconsequ ence
Ġbatt les
ĠCarl os
Ġliter al
Ġm amm
Ġattract ed
ĠB asketball
Ġphys ician
ĠCon c
Ġcy ber
I ME
ĠId ent
Ġseem ingly
Pop ulated
Ġemot ions
. ]
ĠVin cent
F ailure
M ilitary
ad ows
ä º
et on
S G
ĠFred erick
Ġbut ter
cit et
th ree
ĠQ uality
conom ic
cret ion
s ocial
IL D
over y
Ġreflect s
Ġtrad itions
ĠA w
Ġcre am
ster dam
ĠF ilms
Å ¾
cover ed
ĠM ans
ĠFl ight
â Ķ
Ġg ig
ĠBS LS
ĠDef ence
orn ame
hav ior
ĠW rest
Ġident ifying
us ive
Ġlong est
ĠMount ains
tr im
ri en
g ie
Ġprec ise
I r
Ġdecl aration
Ġref lected
Ġbelief s
Ġsound track
agon al
cel and
vert ical
j ax
att ed
ĠCamp us
e or
al igned
Ġphenomen on
Ġw inds
Ġto ll
Cont ains
Ġgener ating
to o
Ġpro x
Ġne arest
Ġgrow s
fin ity
ash a
Ġap ilevel
ĠProduct s
ĠM ak
em it
ok a
> \
orne ys
Ġt ours
Ġre fr
Ġco q
osp el
ow der
Ġsc rap
Ï Ģ
d u
/* !
ĠJ oin
r ame
Ġcur ves
Ġpro l
ĠM illion
RE SS
å ħ
A X
ĠG O
ĠS V
ĠV ik
m essages
Ġprec isely
Ġsup pose
Sports people
ĠJ a
ĠEn s
ĠUkr ainian
Ġconvinc ed
T ouch
ĠS aints
ĠTechn ologies
ĠComm ander
ĠLabor atory
ist le
Ġdocument ed
Ġphys ically
M F
ĠP H
umb ai
Ġfacilit ate
Ġn ights
sc ill
pect ives
r age
Ġpregn ancy
el astic
" ].
Ġd iamond
p ages
Ġyield s
_ )
ĠS witch
Ġpl asma
Ġinflu ential
ĠW IDTH
Res olver
Ex per
Ġin herited
ĠR ing
ot ypes
ul ative
operat orname
Ġm eth
ĠIran ian
em ics
C AR
Ġprom ises
Ġcomment ed
ĠRe ports
ĠT on
ĠMet ropolitan
Ġd ictionary
19 04
se lection
ĠC ategory
j ud
p ointer
ĠTh ink
riter ia
Ġcomb ine
Ġ rib
uk a
Ass embly
" },
wild fly
Ġl obby
Ġ' ''
ut o
ĠU til
ĠAlber ta
Ġob st
ĠR ole
act ed
ĠDO M
f olk
Ġbacter ia
M ov
f ight
l as
18 80
ĠSt yle
de ep
Ġstep ped
ĠArchitect ure
ĠR u
ĠF u
ia z
create Element
h uman
ĠWith in
Valid ator
× ¨
Ġmort ality
=" $
const ant
Ġconf used
Ġdepend encies
ap id
Ġsole ly
Ġcogn itive
ĠS ongs
Ġel if
Tim estamp
B ill
m c
me an
ĠCl ose
ĠK id
f ef
Ġthere by
F ootball
con str
ĠT X
ĠUn iverse
à¥ į
3 20
ĠBuild er
ĠGh ana
B T
ĠMet al
Ġnumer ical
) }{
Ø§ Ø
S witch
ĠK on
read er
ut ic
Ġpart ly
ĠB eth
ol ia
Ġsh ield
' }
Ġform ally
Ġimpr ison
Pro to
Ġref lection
Ġgraph ic
> ;
\ ,\
ĠA ve
Ġt ape
ob a
ed ed
av ers
Ġhot els
Ġcan vas
ĠBas ic
Ġcontrovers y
M ont
str ument
ac ial
Ġart ifact
Ġcomp ounds
ĠC atherine
ĠNe il
LA Y
Ġfood s
ĠE ld
Ġm arch
am med
Ġwalk s
Ġsus pected
ĠCom mercial
Ġmix ture
ĠN urs
Ġwire less
C ategories
ĠS ent
R oman
ĠF ish
ĠSh aw
19 01
ĠNorm an
ĠD eg
Ġchem istry
hed uler
Process or
ĠS oph
Ġanaly zed
14 4
ĠCO L
Ġvol can
ĠW u
Ġrecip ient
om ething
ebr aska
ĠD rama
Ġconvers ations
ambig uation
' $
N R
ĠR ural
Ge ography
ĠM IT
ĠR ico
ĠS ession
N UM
G M
getElement ById
ce iver
S ort
akes pe
Ġdec ides
Ġnurs ing
Ġse eds
ĠQ ual
R ay
Ġsl ave
ategor ized
ĠP in
get Id
Cont ents
Ġstream s
at um
Ġt ribute
Ġfil ters
ĠW a
k et
Ġimm igrants
Ġdiv isions
ĠWat son
Ġth rew
om al
Ġpro c
P ut
ĠW ould
Ġr ice
Ġbe ating
ab et
Ġst olen
R ussian
ĠQu arter
Ġsl ide
put er
ĠP romise
ĠB ath
SCR IPT
ĠTransport ation
over view
Ġbur st
12 4
Ġanalys es
Ġj e
G rad
Ġingred ients
Ġf ighter
Ġr itual
en ue
an alysis
Ġpred ictions
ĠF ed
ĠCr u
ax ies
On line
ant um
ĠVictor ian
g re
ĠL java
Ġsc ales
ĠInit ial
ĠM ason
d k
Ġl on
ĠI gn
Sign ature
ĠN ar
á »
grad ed
Ġcom ics
cond uct
Ġpar agraph
ol ine
ĠO scar
ĠEd wards
h is
ke eper
S V
ĠN athan
Ġor ange
ĠC ut
Ġh yd
Ġmed ieval
ĠT erry
Ġhe ter
ĠIN TO
P an
Ġsil ence
) }$
Ġres emb
Ġor bit
w ind
Ġin fer
Ġm ature
Ġdifficult ies
Ġ' .
ĠStat istics
Set ting
LO W
Ġcomp ly
Ġpra ised
f our
ĠVis ual
! <
w ik
Ġbas eline
Ġsche mes
ĠF an
Pre v
ab i
DE X
Ġsold ier
ĠSc ript
Ġt ut
Ġcl usters
Ġhel ic
Ġdev oted
D ependency
ĠNich olas
Lo op
script ions
M ary
Ġanal og
Ġad mission
Ġn erv
Ġhom eless
Ġoccup ation
Ġop acity
ĠH udson
Ġall Classes
Ġcon vey
ĠCl ay
ĠSoc cer
H y
Ġc oc
upload s
pre ced
Ġcomment ary
Ġa est
Ġg ains
ĠE sc
t z
ĠGl ass
Ġcook ing
ĠLink ed
ĠJ oint
Ġpost ing
re peat
s pl
MACRO INCREMENT
Ġp our
Ġsal ary
g age
ow ing
d ark
ĠTh an
ast ed
t p
MACROINCREMENT ED
Ġsh orter
Ġ ----------------------------------------------------------------
ĠL ate
amp ed
ĠV o
h aw
att ing
Ġnot ably
Ġstart up
Ġjournal ism
ĠP E
INS ERT
Ġt el
Ġt orn
Ġsam pling
F eed
19 03
Ġac res
ĠallClasses Link
is i
Ġfasc inating
u ition
ĠD raft
Ġflo ating
M o
HE AD
Ġviol ation
A SSERT
ĠPar ish
Ġatt ributed
ĠB eyond
Ġmin istry
Ġscal ar
ĠV ision
We ight
Ġscholar ship
ĠWIT H
atern al
P rom
ĠCons ervation
agn etic
Dep artment
M essages
Ġin cent
Ġhero es
Ġoccas ions
D ynamic
H ello
Ġt ar
ĠW es
Ġcross ed
Ġstead y
ip per
Ch ain
um i
Ġshel ter
2 30
Ġindepend ently
Ġdon ated
arant ine
ĠElement ary
Ġcr ack
Ġs hed
the orem
ĠMem ory
cal endar
Us ers
d istance
sh aped
Ġnom ination
st o
Ã© n
b oth
load ing
ke ep
ĠP ic
Ġut ter
Ġ" '
Ġdel ta
UT C
T ur
Ġs ys
Ġtim estamp
Ġtest im
fef efe
ĠG raph
Ġnegoti ations
Res p
Ġinflu ences
Ġlov ely
al ert
T AG
ĠDE FAULT
ot he
ĠH ousing
r ain
ĠE ug
Ġim pl
ĠYork shire
g mail
Ġback ed
ĠCr uz
ĠDi agn
Ġb eneath
Fe atures
Ġbet a
Ġtw in
RA Y
Sm all
ĠLie utenant
Tele vision
ix on
pol y
ĠGi ants
ĠB ass
18 00
ĠAn imal
l ic
ĠE u
sequ ently
Ġmag azines
c amp
c ity
Ġmult ip
ĠB arr
An im
ĠS uz
ĠSu ite
Ġmass es
Count ry
Ġcho osing
int o
Ġwound ed
Ġvot er
Ġhypothes is
ĠDe lete
ĠHig her
F acebook
orpor ated
ĠI ter
ra ising
con v
Ġprot otype
th rift
uct ive
akespe are
] ))
Arg uments
Sec ret
ic ates
ose x
Option al
Ġ" .
ĠDr ag
ĠNAV BAR
Ġres igned
IC K
ĠAr c
Ġ' %
Ġexception al
Ex pected
Ġprocess or
Ġsure ly
ex tra
Ġul tr
col lect
b ird
Ġli ability
Ġam pl
Ġover flow
Ġbr ick
ic ients
cont ents
ĠEm ily
m k
gener ate
Ġdu o
Ġwe igh
ĠR ivers
Ġgr ave
ĠR aw
Ġsub set
ĠNew ton
Ġpick s
d jango
/ ">
ĠR ugby
R ound
ĠÎ ¼
Ġnom ine
enumer ate
ĠS eb
ĠCons umer
All oc
direct ory
Ġd ivers
EN CE
ogen ic
Ġinvestig ations
M obile
Ġlegend ary
ĠĠĠĠĠĠĠĠĠĠĠĠĠĠĠĠĠĠĠĠĠĠĠĠĠĠĠĠĠĠĠĠ Ġ
cess ion
Ġacqu ire
qu arter
im plement
ãĢ Ĥ
Ġwork shop
Ġcal m
st rip
Ġspec im
us r
t em
alt ies
ĠV P
Ġqual ifying
ĠCour se
Vis ual
STAT US
Ġfast est
ĠGover n
Ġcou pled
Ġbelong ing
Ġrac ist
Ġsav ings
Diagn ostics
Ġev olved
Ġspons ored
g om
Ġdecl are
Ġappro ached
b ai
Ġwork place
ĠN ancy
Ġjo ins
Ġw is
ĠF if
Ġb ab
Ġvary ing
R andom
ĠS id
Ġlog ical
to Be
Ġcent res
ĠOrth odox
Ġap pl
12 2
Ġver b
Ġ( ,
Ġw ings
Ġaltern ate
h all
ĠFl ash
M achine
re nd
D ATE
ast ing
R ock
Ġcons olid
19 02
L uc
method s
Ġact ed
ĠCommunic ation
all ed
ah l
H en
PRO JECT
ĠFl ore
ĠArt ists
ĠT ool
c ounter
act ual
ĠSt ein
ĠS ometimes
ĠB ear
ur ring
Al bum
Ġs isters
display Name
A xis
Ġcomplet ing
Ġaccept able
int age
Ġf ate
ull ivan
Ġsequ el
f etch
ĠOther wise
} %
ĠB ak
ur red
Ġpre dom
S un
R PC
Ġt ension
s b
ĠP ra
ĠV A
Ġcalc ulation
ir ical
B ounds
IMP ORT
um ble
Ġcannab is
Ġh ire
m el
ag ma
ai ro
N eed
Ġp ixel
Ġrev ised
U AL
ĠEx pression
ĠF E
ern ess
ĠL ett
olog ically
s quare
dr iven
ĠEx cell
Ġvol unt
ĠH az
ĠChel sea
ic acy
ĠM B
With out
Ġmount ed
che m
ĠMed iterranean
Ġachiev ement
Ġcompet itors
ĠG rey
ĠNaz i
plic ity
Ġclean ing
Ðµ ÑĢ
Ġvar ied
D M
Ġen umer
Ġind irect
Ġaffect s
ĠH app
ir atory
ott a
Ġglob ally
19 2
roll ers
struct ure
rypt o
ĠBrig ade
j b
ĠC ad
ĠB ra
Ġcharg ing
IL ITY
ĠP icture
(" #
cl ock
Ġpr ay
Ġpr ayer
Ġmod al
ĠAdvent ure
ac ew
Ġprem iere
land o
class Name
CON FIG
ĠNe uro
Y Y
c od
link s
Ġm os
Ġrel oc
Ġbo ats
if iable
ĠCommun ist
ar ound
ĠLet ter
w right
Ġrender ed
ĠScient ific
Is rael
Ġsustain ability
iz a
Ġproceed ings
Ġpos it
ĠL INE
k n
g if
Ġst abil
ĠV ict
m om
Ġgr avity
ĠMad ison
Ð ¹
th lete
ĠCol umn
Ġcour age
K it
ent o
Ġd ense
Ġper ceived
T or
Ġdef ending
... ]
Ġsimilar ly
Ġl iver
ĠF ashion
b p
ĠIn fo
os opher
ĠRoman ia
ĠK le
Ġen abling
ĠY u
Ġc od
ugg ing
Ġboard s
ish ops
ĠQu ery
ĠK ill
sw ing
) ",
Ġ rip
ĠClass es
Ġfor cing
Ġwith d
ĠMil an
Nav igation
U pload
Ġch ains
ĠF oot
Ġan ime
Own er
Cl ub
ach i
ĠSc i
Ġoptim ization
V O
am ination
Ġestablish ing
Ġd ancing
Ġpres erved
Ġdead line
Ġthrow ing
Ġmarg inal
ograph ics
VIE W
Con tract
ĠG OP
d n
C ursor
Ġ| =
A h
Ġre ceptor
m obile
Ġlegisl ative
Ġman if
s z
Ġsh ame
g iving
Ġprogram mes
M ust
B us
Ġle ase
Ġdig it
f ake
Ġdefin itions
ĠL I
Ġinter mediate
mult icol
UB LIC
Ġtri ps
Ġbound ed
Ġhighlight ed
G overnment
Q ual
ĠFa ith
re view
al ias
Ġinv ention
ĠMaterial s
B ool
å ¤
ĠE le
Ġpack ed
Ob server
j or
Ġstri king
ep per
Ġhe m
ĠAb u
~~~~ ~~~~
Ġair line
Form s
ĠĠĠĠĠĠĠĠĠĠĠĠĠĠĠĠĠĠĠĠĠĠĠĠĠĠĠĠĠĠĠĠ ĠĠĠĠĠĠĠĠĠĠĠĠĠĠĠ
ol utions
Ġthe at
Ġcon clude
AC CE
ĠCont emporary
Ġf itted
ĠS ummary
ex cept
ĠComp anies
ir s
ĠP ent
ass ion
Ġdet er
66 66
Ġim per
Ġmer ch
f b
Wel come
Ġind ices
( ['
ĠPro test
Ġhum or
ĠCh art
Work s
Dep th
Ġlett ing
Ġde com
ĠPro perties
sp ired
J on
k l
Ġfarm ing
ä ½
M ike
Ġpol ynom
ĠâĢ ł
Ġin fect
Ġap olog
Ġrot ate
Run ning
Ġnation wide
d ocker
Ġtox ic
ph ase
est on
rem ote
Ġaccount ing
Ġsub str
H tml
ĠSh ar
Japan ese
ub er
Ġaccept ance
RE CT
Ġencounter ed
Ö ¼
ĠM end
Miss ing
N P
an ian
Ġind igenous
ĠT rip
Ġam endment
Ġrest oration
iz za
M ag
ĠWe ather
Ġform ats
ĠMar io
st ates
ĠSh ang
met ic
ĠCom plex
in ject
Ġob sc
Ġqual ify
em ption
Array List
Ġcalc ulations
ĠLegisl ative
ĠEl li
ĠBi ology
Log in
Ġas h
F il
G F
Ġencour aging
ĠAl ong
Dan iel
u rol
Ġadv ised
ĠB ot
oe ing
ĠJ ama
S plit
og g
ĠLeg end
ĠI g
Ġsim ulations
ĠStat ement
che str
Ġqu oted
ĠOver all
ĠCl are
Ġbar rel
Ġsurve illance
Det ail
L iteral
ent e
ĠHealth care
ĠPlan et
Ġrec ru
Ġpract ition
Ġdistribut ions
< <
Ġp ipe
ĠE ve
cf g
Ġok ay
ish a
Ġdiagn ostic
ĠER R
Ġs its
ess a
Ġs ends
DE D
C ancel
ĠN HL
ĠS alt
ĠCom plete
s ig
= %
Ġdivor ce
W alk
ĠMe chan
Ġf etch
Ġb ases
ĠCo ord
sw er
ĠSE C
ĠChem ical
Ġpers u
W ed
ĠS UMM
Ã¨ re
ĠESP N
Î »
Â ½
en berg
Ġcour tesy
Ġpros pect
Ġbus es
us k
R ules
ph an
Ġcons ensus
Ġ' ./
Ġre n
It alian
Ġf iscal
ĠZ e
L at
j ournal
Ġs el
ac ies
Ġprov incial
Ġdon ations
ad v
Ġodd s
Ð° ÑĤ
ĠHor se
Ġdismiss ed
J ew
Ġisol ation
res ize
st ation
Ġv iral
Ġanaly ze
ĠBer keley
15 5
f ers
Ġelect oral
ĠTo o
J oe
Ġh orn
Ġback up
am mat
Ġc argo
ĠPh ase
Ġconf usion
Ġexcept ions
ĠD evelop
ĉĉ ĠĠĠ
ĠCon n
ĠPlay ers
Ġiter ator
IS H
b rit
Ġown s
ĠP ain
Res et
Ġt ens
Ġre duces
ĠRail road
Z ero
I ll
Ġmurder ed
Constr aint
Ġper ception
ĠMont ana
Ġpred ecess
Ġassoci ations
May be
Ġb ucket
er gy
Ġim posed
* ,
Ġ æ
Ġf ires
Ġcollect ing
ĠMu hammad
Ġf older
ĠW alt
Ġeconom ics
Ġfr act
Ġobject ives
Ġjurisd iction
ĠA irlines
multicol umn
$ }
Ġart work
preced ented
ĠWork ers
Ġforg otten
Ġa ug
ĠPr adesh
ĠComp etition
Ġall ies
N a
12 1
Ġdifferent ly
Ġwarm ing
× ľ
in fl
ĠK il
ys ics
NO DE
lo pe
G T
ĠÃ ī
Pro duction
Ġc ry
Ġball ot
f und
ĠTr ain
Ġblock ed
Ġvis itor
w ear
ĠY e
head ing
Ġt ired
ch ing
Ġsym metry
ĠA round
Ġperform s
ĠRet rieved
as ures
emb ed
agon ist
Am ount
ĠC u
ĠE val
ĠS Y
ION S
Ġfun eral
ĠPer iod
Draw ing
ĠÐ ½
ĠImp lement
Perm ission
ĠRog ers
p ic
In struction
Ġloc als
Ġguarant eed
Ġpres c
Ġ$ _
Ġsk i
Mean while
T ON
p al
ers et
Ġch ron
ĠAm sterdam
' \
com fort
n l
Ġf ut
Ġsoph istic
Ġsh oes
Ġbar rier
ammat ory
P romise
ĠP ref
> ()
17 5
ĠG ene
Ġimpress ed
LE TE
c red
ent ine
Re ason
Ġinstrument al
Ġvert ices
m usic
ilib rium
az i
ĠUn less
ĠSy rian
che ster
Ġt ang
Ġstrict ly
rel ations
ĠForm er
ĠY am
Ġpro jection
Ġcou pling
ar re
Ġt une
G EN
Ġbroad er
ĠRest aur
found er
Ġafter wards
ĠTra ff
Ġadvoc ate
il ia
h ind
Met rics
Ġpars ed
ĠPier re
Ġf ool
20 2
load ed
ĠW riter
end um
g lyphicon
p b
Ġfriend ship
ar an
ĠD elta
ĠAl t
5 000
c ost
aged y
s ized
Ġy ard
ĠO t
Un ivers
Ġenorm ous
bl ob
od o
inc inn
zer bai
ĠBuff alo
ĠO ptions
ĠSer ge
g ender
Ġg rip
V R
Ġprotocol s
NE W
F ar
Ġmac ro
Ġsust ained
u uid
ĠAnc ient
f ox
tim estamp
ĠD oll
Ġdesign ers
ĠEag les
ÃŃ n
ur st
Ġsur ge
Ġim g
ort on
ĠGl en
Ġ< -
Ġt anks
Ġreal istic
valid ation
Ġste ep
Ġgr ateful
column s
if ference
ĠT un
Ġdifferent ial
r ices
Q t
qu et
ĠTr uth
Ġauthor ized
TH ER
Ġquarter back
ĠV I
Ġelder ly
ĠD M
Enc oding
final s
ph rase
unt ed
Ġpoint ing
sequ ence
âĢ¦ âĢĿ
Ġlo ose
ĠIm mutable
Ġrail road
Ġgen uine
art z
Ġtempor arily
Ġb lo
run ning
Ġgr an
Ġscen arios
h pp
Ġremain der
av i
ĠS r
ĠUn like
ĠL ions
ub a
="../../../../../../ ../
ĠGr ade
Comp at
ĠT ournament
ul k
Ġlisten ers
ĠH alf
sp acing
Ġinternational ly
Ġassess ed
Ġspect ral
ĠAssoci ate
is co
Ġalloc ated
ff f
Ġdistingu ished
link ed
Ġp ixels
ĠCub a
BU FFER
L EN
Ġgovern ance
ĠHer o
Ġclass Name
ĠSand ers
ĠCat hedral
ul ent
ĠY OU
Ġrecogn ised
Ġcoal ition
pro f
Ex ists
Ġke en
ĠSt orage
s it
Ġf iring
op ing
r ang
Ġim plicit
M a
ĠC ob
ĠĠĠĠĠĠĠĠ ĠĠĊ
ĠV eh
Ġremember ed
un ger
ĠAb raham
Ġcous in
ĠPh one
Ġbott le
Ġiniti ated
ĠL uis
ĠSt ri
ley ball
Ġin finite
St ub
Ġh orm
AP P
Ġre nown
Ex pect
Ġbut tons
pro duction
Ġland ed
Austral ia
ah oo
Ġpe ers
ĠWood s
ut ton
H older
Ġwe ights
oc om
Ġinitial ize
Tag ged
Direct or
ĠInter est
Ġconfig ured
Ġsystem atic
Ġattend ance
Ġdis ability
Ġorig ins
ĠHar vey
Ġarchitect ural
ĠLuc as
ĠAlex and
ab ul
Con verter
CC ESS
ĠAust rian
incinn ati
Ġman ages
L ow
Ġh anging
ĠC amb
Ġaccess ed
ĠHung arian
el ia
ĠE sp
Ġpe oples
ĠDer by
pl acement
Ã Ĺ
t l
Ġ( ),
ĠIn cre
Ġper ipher
st eps
Ġint elligent
Ġf ed
ĠSo on
ĠF DA
H am
UR N
Mon th
Ġr ape
Ġabs ent
Ġcop per
ĠAdd itional
ĠTreat ment
Ġt ent
ju ana
.* ;
ert on
Ġmon ument
Ġdom ains
Ġmut ual
Ġsl ice
Ġd ys
S n
ĠEm ma
H ol
Ġport s
Ġinnoc ent
ĠLiber ty
ĠSumm it
Ġla unches
estab lished
Ġac oustic
Char les
ĠBre xit
Ġo scill
Ġbl ess
Ġdeterm ining
ĠBatt alion
Ġplay off
oot ing
Ġcur ious
om eter
H ouse
dis ambiguation
P ack
ari juana
ĠUS B
G iven
Ġcompar able
ĠR idge
10 24
Ġw ars
ĠAdvis ory
ra f
Ġaffect ing
Ġaccommod ation
ĠGrow th
Ġenjoy ing
ĠBen ef
Ġsmart phone
ĠHand le
Ġloc omot
% ),
P s
IC ATION
r ules
heim er
Ġgal axies
( /
ĠN ebraska
ab stract
H uman
Ġch ip
Ġj oke
Ġburn ed
ĠJ ake
3 000
ĠBy te
Ġw ard
Ġsc andal
E q
Ġpr ide
Ġport rait
Ġexp ense
ĠR A
atab ases
S ide
ens en
40 4
Ġsome body
Ġre op
p ublished
im ir
Ġqu eries
ĠL ives
Ġed itors
Ġ{ %
And roid
can vas
Î ·
ĠCom b
ĠBl ake
Ġalign ment
pr iv
Ġw ishes
om at
ĠF ace
Ġd ot
Ġkne e
m ass
ag ar
s chool
P ub
Ġb ay
18 98
com pute
Ġim pe
ĠW A
us hes
Ġent r
H ard
ĠM ong
Ġdist ancing
ĠNov a
ind uced
Ġpre lim
Ġcomp aring
ĠD ennis
app le
IC AL
anch or
ĠCirc le
ĠHill ary
Ġarr ives
CM D
eg u
et ta
ic ia
OP T
Ã© r
Ġmag ical
Ġdepend ence
C ost
12 9
ĠD anny
Ġst er
au kee
ĠL it
Art icle
Ġbur den
12 6
Ġcirc ular
In ner
Ġeditor ial
Ġmist akes
amb ers
IM IT
andid ate
L ib
ant ed
Cre ated
Can ada
Not able
ocr atic
ĠGu inea
Ġf isher
ĠS F
LIC ENSE
itte es
P et
Ġf t
à¥ ĩ
Ġnot ing
in yl
Ġaddress ing
Ġassum ing
er ie
16 5
ĠCol lect
ĠArab ic
car bon
h h
rel ative
rem arks
Ġj ournals
ĠC M
ĠNY C
ĠG A
he w
ĠM aking
A mazon
Pr imary
Ġdiagn osed
ĠTig ers
ĠT ell
Ġorgan ised
SP AN
J ose
ancell or
ĠS K
Ġf its
Ġsub mission
Ġab ol
Ġc inem
int ers
ĠE ye
inst ein
OL D
ĠR angers
Add itional
ich i
Ġsuccess or
Ġadequ ate
V AR
Ġt sd
Ġsc iences
J ournal
Ġtour ist
ĠHel en
Ġam plit
writ ers
Ġconcent rations
g row
ĠW ire
Ġtarget ing
ĠStan ford
ex ecut
S napshot
}} _
ĠForm ula
Con sole
Se ason
ĠPer u
m embers
or ro
Ġattr actions
Ġbre ach
ĠPhil osophy
ĠUn c
append Child
18 99
ĠCorpor ate
Ch anges
ah u
ĠH erald
ĠCon vert
Enumer able
Ġelev ated
ĠGr id
ĠL ov
ĠNep al
ĠI celand
Ġdiscuss ing
W P
Ġh ab
ĠT odd
Ġt ube
ĠF ocus
Cal c
Ġbel oved
Ġmand atory
Ġs ne
ĠS or
Ġres il
... "
Ġaff air
ĠO C
> '
Ġpro to
ĠJ obs
re lation
Ġapprox imation
G LE
Ġvolt age
rop ic
Ġanticip ated
Ġfil med
. ).
l oss
F ort
item pty
ĠE rr
IC S
ĠJer emy
Ġn ic
ins ic
i em
Ġtravel ed
I l
ĠH AL
Ġr amp
D eb
gom ery
Ġde prec
Part ition
18 70
om itempty
ĠCy ber
Ġwhe els
ne um
ĠM umbai
Ġann oy
ĠSur v
Ġhe aling
Ġrad i
Ġelim inated
R oyal
Ġdel ivers
Ġinstitution al
var i
ĠCons erv
Ġgrad ient
un ts
Ġcritic ized
ĠPhill ips
am ic
c ott
ac a
comp ass
U nd
e ur
Ġimplement ing
< \
Ġexecut ives
S K
ĠSh ip
ĠM az
N AS
ĠU SS
ĠHoll and
Ġst om
olec ular
(" %
Ġcontact s
Ġ\ |
Ġproject ed
Ġrefuge es
L icense
ic ode
ĠF at
Ġaccompl ish
Ġless on
ĠCl aim
Ġl apt
T ry
get Instance
unk nown
Ġtok ens
Ġcab inet
\ }$
Ġb om
ĠN A
ĉ ĠĠ
) ?
ĠSUMM ARY
Ġb ell
Ġdraw s
ĠCar r
mit ter
ĠLem mon
IN VALID
Ġoverwhel ming
Ġc ached
ace ae
ĠG onz
Ġfoss il
Ġhop ed
ĠChar acter
Ġadv erse
ibr ation
G od
Ġ- =
ch air
Ġcru ise
M ix
Ġline up
Ġmeas uring
F ALSE
ĠPar se
Ġf ictional
Ġnerv ous
A ctions
Ġsecre ts
c z
Ġmolec ules
ĠCh and
Execut or
C B
Ġrad ar
Ġne ural
Ġbond s
Ġexha ust
LE MENT
Del ay
] +
14 5
QUE ST
Ġcreat or
ĠP FNGL
ĠC I
S ar
Ġstock s
col on
ĠResp ons
c reat
ĠG ive
... )
uck land
ĠRem ember
D er
ĠK os
Ġtrust ed
ĠWell s
ĠInit iative
Column s
ĠD aw
Ġk it
Ġassum ptions
ĠF actory
ĠCh oice
aj a
Ġz ones
Ġv o
m apping
Ġbel t
ise cond
ĠS yn
Ġgr ain
tr ain
2 10
Ġp ig
st orm
D ig
ĠIn side
trans port
ĠAg ent
Ġposs ibilities
ĠS old
igr ant
ĠPalest inian
ĠColomb ia
1 19
Ġco at
ĠDel aware
Th ose
at able
ĠSh akespeare
âĶ Ģ
Ġmodel ing
Ġv ig
R NA
fr astructure
Ø ¯
in x
ĠKE Y
Ġw orn
Ġterror ist
ĠA str
bar rass
| }
ĠBeng al
Ġpl acing
ĠK el
Ġcomp iler
Ġph ases
UT E
L ater
m iddle
ĠB ir
Ġassert True
F ixed
Spr ing
ĠWild life
ĠPark s
Ġdead ly
Ġfest ivals
Decl aration
Ġdist ant
Ġearn ings
ĠBut ler
Ġdi abetes
ĠAm bass
ib ling
15 00
Ġfl our
ĠPubl isher
ĠArt icles
ĠPro gress
Ġdesc riptor
sc ore
Ġvari ants
nav igation
BA SE
Ġb reat
d irection
ĉ čĊ
ĠS ax
ĠT u
Ġpat ri
Ġspecial ized
Ġd oses
Th us
Polit ical
U ntil
Ġext ending
ep age
Ex tra
, $
arn ings
D ou
Ġred irect
Ġwis dom
Ġp ole
Ġsh apes
BP ACK
Ġaccompl ished
Ġconflict s
ĠDet ails
O H
ĠIss ues
Ġuser name
Ġsubstit ute
end ors
Ġstop ping
Ġres erves
Ġcamp s
ĠL L
Ġr iders
ĠMor oc
ac ious
uct or
ĠZh ang
ro d
Ġf ingers
Y eah
Ġhol idays
x space
foot note
w aukee
Ġch icken
Ġret reat
Ġp ink
Ġwealth y
ĠVAL UES
c op
Ġfinal s
ĠToy ota
Ġm ere
ĠVerm ont
Ġc ave
Ġacknow ledge
p ine
ĠF ly
ĠK aren
Ġexperi encing
T uple
Ġdo zens
18 95
Ġanaly tics
ĠM ann
18 96
Ġf o
ĠAthlet ic
Ġflex ibility
Ġinj ection
Ġpert urb
Ġpassion ate
; |
ĠB orn
Christ ian
Ġmon ster
Ġpro be
AT O
work ing
ĠO w
P DF
Ġlog in
M ur
atter y
Ġc yl
sc ala
New ton
ĠP HP
ĠMO RE
at io
Ġtri ple
ĠJ ar
AN N
Ġev ac
Ġpl acement
Ġconsult ation
ia o
Ġplay offs
ĠEvery one
Ġassist ed
Ġchalleng ed
Ġsepar ately
Ġspe eds
ĠH em
ut ing
Ġel abor
Ġcorre ction
Ġclass room
Ġcomp elling
Ġeg g
Ġsh aped
com plex
Ġab ortion
Ġdis contin
Ġdemand ing
Ġco in
H i
c ancel
T ile
w ave
Ġst ellar
ĠFle et
Ġstreng the
Ġsett le
h arm
Ġarr iving
Ġimportant ly
Ġpresent ing
ĠH ob
Task s
anc ers
ĠC off
c x
Ġs word
en o
ound ing
ĠProgram s
ĠFe atures
Ġelim inate
b inary
Ġcred entials
itt ers
w t
ĠS ure
ĠAcad emic
Ġe ighth
ĠB ald
ĠL ud
G N
Ġdef ining
Ġguitar ist
Pl us
ĠN J
ubern etes
Ġfl ed
Output Stream
Ġsc ar
pro b
ĠÐ ¸
Ġcle ared
enc ode
Ġsort ed
Ġatt ach
CRE ATE
Dep recated
co ord
Ġh ack
rt l
es la
text tt
is ure
ĠT ABLE
################ ################
Ġgard ens
Ġle ather
ĠBr ain
Ġdam ages
ĠBapt ist
(" \
habilit ation
Ġterrit ories
ĠNot ice
Ġcreat ures
ĠSp acew
Ġbad ly
log ging
Ġp ocket
ew ise
ep h
ĠD ol
ĠProgram me
IP S
as se
ĠR uth
Ġan onymous
Ġsent enced
ĠC urt
ĠS outheast
RA ME
Ġ$ $
hol m
Ġm a
inter pret
Ġprotect ive
f ive
ĠNash ville
clop edia
Ġt ear
ĠWARRAN TIES
}^{ -
in ance
B ob
Ļ Ĥ
ĠV acc
Ġl ymph
ĠP att
Ġdon ation
Ġreport ers
Ġpro pose
Ġurg ed
Ġgal axy
Ġqu otes
A ff
Ġun precedented
Ġcert ification
Ġfear s
ĠGard ens
Ġres ume
Ġunc lear
Ġthread s
Ġaggreg ate
ĠC elt
Be en
Ġprof its
Ġinvestig ating
ĠTy ler
ĠY ellow
En able
Ġf usion
get s
Ġc ere
ĠW R
Ġtr ump
Ġroll ed
Ġauthent ication
D iff
ĠT ib
d ie
EN V
And rew
( ()
ĠCom ponent
ion ed
ong ue
ĠCo hen
Ġstri kes
ĠR ou
Ġcont rolling
ond e
ĠStr ong
ĠMichel le
ĠAv iation
ob serv
Ġpick ing
power ed
P ing
Ġret rieve
Ġlegit imate
Ġl oving
, .
v or
m art
Ġd ynasty
Int eg
ĠStand ards
Dr ag
h um
Ġmin isters
d st
ĠCollection s
Ext ensions
subset eq
27 0
Ġ uri
TER N
run ner
ĠL an
Ġw ore
Ġcl ause
L R
f loor
Ġgrand father
ĠV lad
Aut hentication
Ġdemocr atic
path y
String Builder
Ġveter ans
36 5
Ġintro ducing
G ui
ĠP anel
ĠPet e
Ã Ĥ
ela ide
Ġspread ing
ĠOther s
HO UT
ĠF eed
B uf
m ma
ĠG az
uff ix
Ver ify
ĠCond itions
m ov
aus es
ĠTh under
uff icient
In vest
Ġcab in
Ġox id
S PE
ĠSpacew atch
ĠN om
h om
Ġcreat ivity
Ġir re
ĠZ ero
18 60
ĠU TC
Ġdes k
ĠSer bia
Ġattack ing
th ird
13 6
Ġsm oking
ĠBit coin
Ġcoeff icients
ext ensions
Ġwork force
ĠU nd
Ġexc it
B ank
Ġy eah
Ġneighb ors
Ġw age
Ġn ortheast
Ġind oor
Mon itor
m ix
Ġcool ing
T ri
or f
ĠC inema
Ġbuild s
Ġr ab
oot s
Ġhe ating
Ï Ĥ
ie ge
Ġrenown ed
man agement
ab c
Ġspect acular
Ġ` ``
Ġpl aint
Ġthr iller
Ġwork shops
ĠAnt ar
Ġnot ify
Ġtrav elling
Ġs yntax
et own
h aus
ĠSh adow
Ġadminister ed
Ġbe ings
Ġstrugg les
ĠCurrent ly
ĠInd igenous
pe g
ĠVAL IGN
Ġat omic
Ġprof ound
Loc ale
Ã ¦
ĠCh a
del ay
Ġt ribe
Ġactiv ated
ĠG am
ĠTre nd
Ġexpect ing
Ġactress es
Writ ten
(' <
Ġsub tle
Ġinn ings
pro c
ĠMe et
ĠB our
it us
ĠOtt awa
ĠR osen
Ġcare ers
ump y
N ever
Ġconscious ness
L ittle
Ġmanufact ured
Ġconstitution al
Ġc b
ĠCom pl
ĠOak land
ĠC ant
18 97
Ġbi ology
Ġ" [
Ġt ears
ew idth
be ans
Ġtechn ological
ĠRepresent ative
uss els
h ook
OR S
Ġpro sec
ĠJess ica
ĠCh i
Ġf itting
ss l
Ġinvest ed
pl iers
Ġf i
Fr ance
ĠSym phony
view port
Ġrest art
21 3
Ġin coming
16 8
ĠPhys ical
ĠI van
urs ive
Sm ith
Sh ader
5 12
Ġport al
J eff
b ishop
Ġcon form
Ġd rops
Ã¶ r
ĠM iles
ĠFI FA
Ġcred ited
2 25
H ey
Ġent ers
EX PORT
les h
ĠB uffer
Cent ral
im er
c orn
CD ATA
Ġv ectors
ment ed
T yp
Ġaccommod ate
Ġannounc es
ĠDis covery
whe el
t m
FI X
Ġdes erve
T ex
char acter
Ġfl uct
Ġrele asing
Sc hedule
ĠRe ed
com ed
Ġexpl ored
Ġsubsid iary
enc oding
re z
ĠA bs
Ġadvant ages
text ure
ĠL ocation
Ġc rops
ĠC apt
St eve
ab we
le en
Ġearthqu ake
B er
Ġig et
is ch
Ġfurn iture
Ġbar riers
Ġscr atch
Ġadjust ed
ĠCr icket
Ġcon ce
re pository
Ġelement ary
h n
Ġ$ |
Ġgot o
get Type
Ġsatisf ying
Ġexpl ores
LO AD
ĠWall ace
ir gin
ch unk
ĠF resh
Ġcust ody
ĠJos Ã©
s ing
Ġsurv iving
Ġsports people
ĠEconom y
Ġbul let
ĠInt el
min ster
ogene ous
ator ies
Ġc attle
Ġachiev ing
b idden
ĠNE W
B road
Ġweak ness
ĠM ul
sol r
ĠST ART
Ġwond ering
Ġp ale
st ad
cipl inary
` :
Ġd iver
li ed
rupt cy
Lin q
Sub scribe
~ $
O cc
Ġcir cles
ĠS urre
m un
Ġe ager
99 9
Ġheart s
Bet ween
Ġat om
ĠC opy
Ġdr unk
add le
Ġf are
Ġinfl ation
) _
ĠT i
Ġign or
Ð¾Ð »
Ign ore
ĠT OP
enc il
ĠSt uart
r and
Ġs ake
Ġplace holder
Ġfeed ing
Î ¼
ad vant
um ph
P ac
am ation
c ursor
Ġmetab ol
ĠLaw s
C oin
Ġcoll ision
bro ok
Ġor b
olog ic
Ġin herent
ĠHe brew
Trans ition
Int roduction
ĠF ont
Ġhand ful
ĠS ter
ĠExt ension
ĠP ont
ĠPar ad
ĠJava Script
Ġmake up
ĠIt em
Ġconj unction
XX XX
Ġyoung est
as ive
ut down
Ġf u
ĠM idd
Ġem barrass
ĠMot ors
ick y
ĠJeff erson
r pc
Ġdress ed
Ġme als
ody nam
ĠO bl
10 16
C trl
ĠĠĠĠĠĠĠĠĠĠĠĠĠĠĠĠĠĠĠĠĠĠĠĠĠĠĠĠĠĠĠĠ ĠĠ
Ġharm ony
k ers
Ġst ub
Ġg ifts
Ġmer ger
ĠBob by
ere k
Pol ice
Ġcons iders
Ġrespons ibilities
lib s
ĠBer g
c n
Ġtrad ed
Ġmar ry
Ġp ension
Ġdist inction
M IT
Ġmuseum s
Ġsurviv ors
Line ar
Ġstat ue
Ġs ew
Ġto ile
ĠCon nection
Read y
ĠS ER
gu ide
================================ ================================
ĠRod rig
W C
Top ic
av in
Ġacknowled ged
il ateral
Rep ly
Ġd st
ĠĠĠĠĠĠĠĠĠĠĠĠĠĠĠĠĠĠĠĠĠĠĠĠĠĠĠĠĠĠĠĠ ĠĠĠĠĠ
Ġsens ors
Ġin cl
ĠAssoci ated
Ġmer c
'' '
Ġconst ants
b ug
Ġm arijuana
Ġesc aped
Ġn s
s at
Ġretail ers
ĠEdd ie
op ol
act ers
Ġar row
ĠD od
tool tip
Ġlast ed
r ise
Ġtrigger ed
Ġal ike
ok u
ĠK umar
ĉĉĉĉ ĉĉĉĉĉĉ
imb abwe
WE BPACK
Ġde ce
Ġenc oded
ĠD ynam
Ġv i
ĠS um
Link ed
f ilm
ent i
Control s
os hi
Ġann ot
annot ations
Ġd irty
T imes
m iral
Ġear ning
ĠM ob
Ġautom ated
Ġj ack
im o
ĠNS W
ĠCh rome
Lear n
Ġprelim inary
ĠMA X
ir able
Ġ$\ {
B ay
Ġt ick
se en
Ġsc aling
ĠP oss
55 5
N I
m ag
Ġ' "
Ġworld s
Ġoblig ations
ĠC ox
W ashington
St age
Ġs our
ĠIS O
on line
ĠÂ «
Ġw are
om eters
h ad
++ ++
H aving
re po
ĠA er
Ġdiscipl ine
ĠLeon ard
ro v
Ġviol in
allow ed
Ġass ists
Ġtour ists
Ġal umin
Ġmob ility
T own
d agger
ĠH appy
Ġche ese
Ġf s
uff le
ĠLe eds
ĠGener ation
Ġconduct ing
boy s
ĠHug hes
Ñ Ĩ
ĠS ah
gener ator
ĠPop ular
S und
b eck
jav ax
Ġtrem end
opl us
ĠColon el
è ¯
A SS
Ġg ray
Ġhe aven
Ġpre view
ME M
us age
Ġp ian
Ġ! !
Ġdistinct ive
Ġfin ancing
Ġthe rape
empl ates
G RO
ĠE ST
amp ire
y t
ok o
ign ore
D irection
re a
ĠRun time
Ġdepend ency
Ġj unction
Ġh iding
SP ACE
IC T
Ġnav al
on ian
vel ope
ĠHe avy
ĠHol iday
Ġsumm it
p es
Ġm akers
oc o
Ġgirl friend
ĠB udget
ĠEag le
Ġh alt
ING S
Ġlaunch ing
;| &
ĠM ine
f ar
' _
Ġprevent ing
Ġpsych ology
grad le
Ġgu ided
d ynamic
Ġt d
ĠA V
Ġprefer ences
Ġtra ject
ĠDub ai
L ab
isb ane
m os
ĠSe qu
** *
13 2
Ġexplos ion
Ġunem ployment
ib e
ĠB urg
Ġpl ates
urre nc
Ġrecon struction
Ġb ags
he nd
Ġcomm emor
Ġint ens
D igital
ah an
Ġrenew able
Ġch apters
Ġshift ed
Ġinvest ing
Ġnav igate
P ixel
Ġnorth west
ĠAut om
ĠT yp
Ġso vere
d ied
ĠBl u
ĠAll ah
ĠMon itor
ad ers
18 50
ĠSp ider
Sep ar
Ġmin eral
omorph ism
ĠLl oyd
ro e
Ġl in
Ġsuggest ions
od ium
ab br
Ġtra uma
Â «
V EL
ĠK in
mar ine
Ġw it
sub scribe
Mark er
Ġb ishop
Ġe uro
Ù ĩ
F D
ĠD IS
Ġ-- ></
ĠQu ick
k ed
ĠSp encer
ot yp
ĠN ull
Ġout s
Ġtr ucks
} ",
ĠO z
Ġsurg ical
Ġstake holders
Id x
Support ed
ĠY eah
ĠAthe ns
AB C
Ġsc rew
Ġz oom
ĠDou g
ĠM atter
Ġex cluded
Ġshe ep
ĠLeban on
Ġin clusive
ĠPre vention
ĠLind a
ĠR alph
ĠMed ic
ale y
greg ate
pre vious
i eg
Ġr ush
Ch inese
brit ies
ĠAss essment
C over
Ġconstitu ency
ĠNew castle
Ġcollabor ative
ĠTH IS
p her
av ier
S ir
Ġdr ain
Ġin comp
Ġhold er
sc opy
ĠJ son
Ġ Ø§ÙĦ
ĠS ierra
ĠB uc
ĠP si
c aster
S y
W D
Ġamb ass
Ġc ig
ĠIn valid
ĠF oster
ex amples
13 3
gu ard
c mp
ort ex
ag ine
m itting
ad oc
ĠĠĠĠĠĠĠĠĠĠĠĠĠĠĠĠĠĠĠĠĠĠĠĠĠĠĠĠĠĠĠĠ ĠĠĠĠ
Ġexpl aining
ĠSpe aker
orient ed
Ġdrink s
ĠC ash
os i
umb ent
18 92
Ġobtain ing
Ġg rap
ĠR ac
B ACK
ij i
yl um
b an
-------- --
AR G
Cert ificate
ĠBr isbane
cass andra
Ġcompos ers
Ġpe aceful
ĠLicens ed
18 93
Ap ple
Ġstrugg led
Ġdistingu ish
Ġachiev ements
Ġconven ience
H AL
== =
Ġdebut ed
Ġpres um
Ġsatisf ies
Sub ject
Ġconcert s
ĠBat man
ll a
R UN
Ġo ct
Ġcha os
13 4
ĠEff ect
un lock
Per iod
Ġaffili ated
Ġagre es
ann ab
is ol
Ġfar ms
Ġens emble
vert ed
Ġf illing
ĠMod ule
ars ed
re str
Ġpro pri
Ġeth ical
Ġcontr ary
Ġhand les
K ar
ig g
cl s
Ġde ar
Th ough
T X
get Message
ĠL atest
ĠB order
Ġreg istry
Ġproduct ivity
R en
erm ine
l ies
Ġfe as
Ch apter
Ġout line
ast rop
ĠR ES
Ġcy cles
ĠBrook s
Ġresear cher
ĠM R
Ġequ als
Ġmechan ics
ĠColumb us
at ra
ĠBenn ett
Ġdisappe ared
Pr im
ĠSc ar
udd y
cam el
ĠB uch
ĠApp end
with out
Ġinterpret ed
Ġsynt hetic
ĠEx amples
Cal ifornia
s pect
c urrency
d al
Ġref use
Ġun cle
ĠG oth
Ġpremier ed
Ġint im
Ġsh irt
ĠK er
Ġfl avor
18 94
yl an
Ġentert aining
Ġpra ise
ĠAct or
ĠR NA
Ġrel ate
Ġat oms
Ġqu it
Ġh ills
l p
ĠId aho
appro pri
Ġoccur ring
Ġpun ishment
am o
Ġ" >
ĠB og
Ġtr ap
Ö ¸
qu ire
add ed
Ġ/* !<
ĠA id
Ġwrest ling
d og
Ġwarn ings
Ġl attice
ĠFl ag
L atest
tim er
Br idge
ell ion
Ġcorpor ations
ĠIn j
sh ine
**************************************************************** ********
ĠS weet
Ðµ ÑĤ
ĠM ove
contain ers
Ġl ingu
Ġtrans parency
C irc
F oot
ĠR ams
Ġcompr ises
am ount
ĠÂ ±
ele brities
ĠGL int
M ir
y our
el o
Ġalter ed
Ġre ass
O FF
Ġrem arks
Ġphil osopher
Ġsport ing
ock ets
oy s
F rames
Ġwh is
U A
Ġre vel
ben ch
Ap ply
Ġele ven
Ġe ars
, ,
c us
Ġaud it
ĠPal mer
iev e
t elling
Ġkick ed
n os
Ġal i
ĠOr lando
Ã ĥ
ĠO UT
Ġcivil ian
Ġconsult ant
ĠLe o
Ġb er
Ġinv ariant
Ġnav bar
FLA G
Ġcomput ational
Ġrhyth m
Ġcur riculum
v d
ĠS oci
Ġnob le
Ġmemb rane
in cre
ĠW ol
Ġuns uccess
Ġchar ter
. ',
ĠS ays
EN ABLE
Ġsurre nder
ĠTest s
Ġiter ation
Ġc rystal
Ġpath way
eg al
Ġall ocation
Ġdefault s
Ġm s
S ound
Ġall iance
add Class
not ify
Un iform
Ġcontinu ously
Named Cell
s am
em i
Ġep it
Ġrepresent ations
Ġpen et
Ġare na
ĠCr isis
al one
con current
18 91
ĠK ash
Dec imal
C at
ibl ings
2 15
ĠLi u
ĠRon ald
ĠDis play
ĠG C
ĠBro s
P rem
ãĥ ¼
Ġinvent ory
ĠSimilar ly
Ġn urse
ii i
ĠC incinnati
math scr
G erm
Ġfe ver
Ġav iation
Ġb alls
IT LE
ap or
Ġam ateur
Ġleg ally
oll o
Ġmod ification
ĠZ end
ĠM ental
Ġsl avery
Ġdist ribute
Ġcor rupt
ek s
Ġcol ours
< >();
Ġra ises
ener ation
Ġexpect s
sc apes
ĠE ight
get String
ĠM ull
ĠSw ift
ĠVenezuel a
Ġv m
ĠAp plied
ĠTro phy
Ġsophistic ated
For ce
ĠÃ Ĺ
D ITION
h p
Ġ( $\
ĠInt o
Ġsort s
Ġimag ination
Ġtrav els
W ORK
ĠS erv
Ġfle w
ĠA ws
ĠH il
ĠHol mes
ĠA uckland
Ġlift ed
ĠD rop
ĠUg anda
Ġbl ues
Re ception
le af
ic ers
rib ers
Ġreform s
ĠTr inity
13 7
Pro f
ĠMc L
Ġtr ails
Ġpre ference
ph abet
Ġreal m
188 5
E r
ĠSc hedule
iz ational
18 65
set minus
Ġbr idges
ĠMunic ipality
end point
Ġrecommend ation
O W
Ġ" ${
ific ates
/** */
er als
Function s
ĠMat rix
Ġf ame
ĠSt ef
ĠR andom
Ñ ħ
Ġadv ers
ĠJul ian
pol it
ul atory
ap l
Ġgame play
per iod
Ġbusiness man
urch ase
ĠU ntil
Ġpull ing
ĠJam ie
13 8
ug osl
Rep ublic
ĠC raw
Ġportray ed
ĠSud an
n ut
IMPORT ED
Sp anish
ounc es
Ġorder ing
pos er
ĠP AR
ĠB ach
Ġdr um
p od
ĠCh ang
Ġpr icing
Ġsp y
set Attribute
188 9
Ġcou p
Ġill um
Ġref resh
Ġc ryst
Ġun e
ĠPr ison
aster y
vert ex
osoph ical
SS ION
m ans
ĠFil ip
Ġmod est
ĠMat hematics
Ġstreng then
at om
Ġp orn
Ex pat
Ġconnect s
File Name
is o
T our
Ġfil ing
ĠInstit ution
ĠPart icip
Ġcelebr ity
con cat
Ġ ì
p ref
ĠB ound
op ath
Load ing
ĠR ah
Ġsw ing
ĠGil bert
ĠRE AD
ĠWrest ling
Ġ& #
l int
S el
Ġ' -
ĠMont gomery
S te
est ers
IT H
Ġ\ ;
Filter Database
Ġgr ades
g ement
Ġspr int
ĠP ink
Ġextract ed
h istor
bit ious
Ġdark ness
ĠR ice
sp in
ĠTour ism
L ines
get Class
16 9
ĠStrateg ic
h ou
ĠB und
am pton
Ġdim in
are l
Ġprest igious
3 30
ic ans
ol er
ĠJul ia
ĠK un
Ġimport ed
ĠProt ocol
Ġ-- -
ĠP rest
ili ary
B reak
Ġ' #
N eg
Fore ign
Ġc um
Ġfight ers
Ã Ł
ĠChem istry
Ġa ria
Ġbenef icial
p it
Ġfif ty
"> (
Sc an
ĠOtt oman
ĠV ic
Ġsnap shot
ĠGrad uate
è ¿
pr agma
Ġany body
ĠDirect ors
Ġpack aging
unc an
g irl
T urn
et ed
Ġin quiry
. (
Ġb icy
ĠK ur
Gr and
igh bor
You ng
Ġrestr iction
Ġmagn et
ĠPro position
ST ART
Î ²
ĠF ALSE
M ah
De ep
g al
w ig
Build ings
ĠA zerbai
Ġsacr ifice
Ġex pedition
ĠA ber
Ġtra its
d anger
ĠW ag
ĠMin i
re ts
ĠMarc us
c odec
ĠHall ow
Ġdiscuss es
ĠO ri
list ener
ĠIsa ac
B uff
ĠHu gh
Us es
Ġsub t
Ġten ure
Ġaccept ing
ov an
ĠLog ger
ĠBM W
ac iÃ³n
v ars
en za
ĠK yle
act ors
Ġ# {
C lean
ĠU RI
Ġprivile ge
Ġor chestra
Ġwel comed
ĠGreg ory
Ġfulf ill
" ];
ĠJo an
Ġtreat ing
ĠG em
Mod ified
> %
Ġthe sis
ĠL is
M ot
Ġbal anced
ĠSoc orro
Ġdisappoint ed
ion ic
ron ics
Ġret ro
ĠSch w
B its
if ully
ĠSher iff
ĠLink s
Ġrend ering
ĠT ips
ĠAthlet ics
ĠCh an
Ke ep
al ter
Ġbuy ers
ĠLINE AR
c ached
be it
Ġnon profit
Ġsac red
Ġdemonstr ates
Ġg aining
or ic
Ġasym pt
ing o
Ġtrib es
Ġb out
on er
ĠV R
Ġcomb ining
ĠL oss
Ġsoci eties
ĠRoc he
ĠC IA
ĠSer ial
T M
Dis c
ĠMar x
ĠPsych ology
ĠB ever
includ es
ethe less
18 88
Sc ore
: -
Ä Ł
ĠCol in
ĠL abel
Ġun ions
ĠEnt ry
art a
ĠV as
RE T
H AND
Ġund ers
en os
CO MM
Ġelev ation
ĠUs ers
Ġcorrespond ence
M ail
ĠJ ung
ĠCan al
Ġtact ics
Ġwh ites
bor o
pi pe
14 3
ĠP apers
C y
st ead
ver ify
op al
Sh arp
N d
r isk
ĠS afe
ar u
te enth
ex ecution
}} _{
ĠĠĠĠĠĠĠĠĠĠĠĠĠĠĠĠ ĠĠĠĠĊ
Ï ħ
Ġ( %
ĠClar ke
/ )
put es
ĠS z
Ġcount ing
r ors
ĠE ncy
Ġarr ays
ĠMer cedes
ĠBelg ian
Table Row
ĠCh anges
F ast
umb n
te chn
Ð¾ ÑĢ
et ric
up dated
list en
ĠFinn ish
ĠM ik
att a
S afe
Ġ Ã©
ult an
Ġcom plications
ĠMun ich
Ñ ĸ
Oper ations
Ġrecall ed
Ġsh a
ett i
." )
Re ceived
ĠArg ument
ak u
Ġtim er
w i
en vironment
Ġoutput s
ator ial
Ġeth ics
Ġarg ues
ĠNorth west
he x
Ġa ux
Ġden otes
Ø ª
ĠHe at
Ġprotest ers
Ġf ights
Ġattr action
ian ces
Ġtw ist
h im
Ġviol ations
O s
Ġt f
ĠD A
Com b
Ġadv ances
Ġto b
sd k
(' ./
Ġpo ets
Ġmat hematics
Ġsouth west
Fr iday
enc ia
ĠHe aven
S F
Ġsufficient ly
Ġdesper ate
ĠWIT HOUT
C ong
Sim ilar
r ison
f older
on aut
fe atures
Ġwitness es
Ġauthent ic
ĠMus ical
ĠK i
ar as
Ġar ise
Ġoffer ings
ĠT as
ĠN y
ĠU E
ĠAn im
Ġch lor
ĠPart ner
B log
sur face
found ation
ĠðŁ ĺ
ĠRey n
ff ield
ĠCon st
Ġrem ind
gle w
Ġtable t
ĠS ymbol
ĠShang hai
Ġhar sh
Ġdrop ping
Ġed itions
W ild
ov ich
ĠNE WS
ĠC V
att ach
ces ter
ĠBeaut y
it ic
ĠAd elaide
ĠTer ritory
Ġsh ifts
Ġun iqu
b x
ĠTre k
ro b
ĠM ills
Ġs outheast
ast ics
ĠB AS
Ġhistor ically
aw i
pl ates
n ational
inter est
Ġhope fully
ĠProduction s
ob ic
Ġbed room
j ab
Ġh iring
o qu
ĠÐ ´
ĠPhot os
ovak ia
f p
Ġpat rol
T witter
mat ches
ĠTest ing
ĠPresident ial
Ġvacc ination
Ġped est
EV ENT
h ole
Ġtestim ony
St ill
Ġpoll s
ĠTh ai
b age
å Ń
ĠN ine
Ġblock ing
ri o
% "><
ĠAr ctic
ĠQu estion
Americ a
ĠInt roduction
ph al
Pr inc
art icles
aff e
å Ĭ
Ġt ends
S uch
Ġathlet ic
eff ective
ĠEthiop ia
m ust
Ġhe x
Ġnew est
Ġinterview ed
Ġvac ation
ĠL arge
E U
ĠDev ice
nob r
or p
ec a
ĠHar bor
ĠB ag
ĠSt ay
Ġbl end
Az ure
ĠInd ependence
ĠVen ice
Afr ican
ibl ical
ĠC ounsel
Ġtrans cript
amazon aws
ĠA WS
Ġse aled
Ġport ions
ĠAr senal
Ġinter ference
Ġshut down
Ġrel atives
Ġb ail
Ġen rolled
ĠD ame
M iddle
Ġbeat en
ĠPro b
Ġstar red
cont rolled
atin um
is y
ĠC ool
int ro
ĠB ears
ĠAn alytics
pri or
ĠPo etry
any on
Ġpoor ly
Ġqu arantine
Ġtradition ally
Ġcart oon
p aces
Ġs ink
ĠDec ision
Ġver ified
aval ry
v endor
ul o
Ġst ones
ourn aments
Ġer upt
ĠP om
ĠUp dates
ĠTom my
ev ille
Ġrev ision
Ġbe ars
ĠP av
Ġintr ig
ĠNiger ian
J ac
Ġl od
000 1
ĠV ert
ĠOp port
f eld
Ġm asc
13 9
Ġtax p
ĠArn old
Ġhon ors
Ġp s
ĠPalest ine
ĠBry an
f ailed
Ġcle ver
Ġcompan ion
Ġv ic
im an
Ġdelight ed
æ ķ
J P
Ġp ond
F ive
r ator
Ġpros per
ĠC atalog
gener ation
cp u
Ġscript s
Ġob s
p oll
× Ĳ
Cons ider
Expat riate
Ġsub group
ĠCare er
Ġhon ored
Ġw rapper
Eff ect
ĠD S
Ġc ats
g ent
ry s
ĠHar per
( .
ĠV illa
50 9
Ġover night
Ġp iv
ex isting
F ood
inc orporated
Se q
R eb
pr us
Al t
ast ian
13 1
Ġ ib
idd ing
project s
Ġins ult
ĠQuest ions
ĠField s
Al pha
Mod els
Ġcreat ure
Ġspect ra
Ġfif teen
en es
ĠIm prov
ĠTh row
ĠH P
Ġcelebr ating
od el
14 6
th ood
by e
Qu estion
t oc
Ġsculpt ure
ĠMunic ipal
EN C
k ernel
se cret
Ġpost pon
ĠCh ase
anc ies
ĠR ena
Ġmot ivated
ĠConf eder
ĠG rove
Ġout lets
Ġcompr ising
Ġcorn ers
ĠL akes
ĠCon vers
Ġp unk
Ġfor ty
Ġconfirm ation
ĠC ities
ĠE t
vent ory
Ġreg ression
fr ag
sl ide
Ġmed i
Ġdep icted
Ġcontain ers
au i
N D
Ġgener ates
Ġlic ence
ĠCong o
Ġworth y
p end
Ġsup press
__ ,
s an
ĠL if
Ġlit igation
rg b
Ġsynthes is
ĠP ackage
Ġam end
off icial
Ġdou bles
ĠMyst ery
Ġt ier
ĠPlay Station
O l
b usiness
Ġf ram
Serv let
st own
ĠS cre
osp ace
Ġbe aring
ĠG uild
Ġcol ony
Ġmot ivation
pr ising
lin ux
Ġcompos ite
Ġmart ial
uls ion
Ġrecip ients
Ġdies el
b oot
Ġsol ving
rid or
Ali as
Ġins pection
mar shall
HO ME
um per
inter val
w ent
Ġp unch
Ġcon ferences
Or igin
Am ong
ours es
Ge org
Ġembr ace
Ġam bitious
cl ine
Ġcount ed
man uel
ĠCoal ition
Ġnot ation
ĠðŁ ĻĤ
e clipse
D ue
Ġens ures
' ].
ĠCP U
ĠInd ividual
ĠG it
Ġhel per
Ġ' _
Ġjust ify
Ġspec ification
avel ength
R oll
Ġp ad
ĠSw an
Track er
Ġoccas ional
m are
ĠFlore nce
pop up
Ð ±
op ens
Ġex terior
Ġdis patch
Ġd ens
contin ue
ĠG ang
ĠE ston
ĠPen insula
b undle
m ons
ĠR d
Ġrele g
Ġquant ities
ĠC rystal
ĠG B
Ġanth rop
d elegate
trans late
L im
Å Ħ
Ġst reak
Ġgr at
exp and
M id
Ġr ings
Ġ} \
Ġpartnership s
ĠCroat ia
ĠB ent
n ai
Ġkn ife
Ġdist ances
ĠStr ucture
C SS
Ġpreval ence
sc an
Ġgraph s
up per
Ġdis hes
20 5
EE E
Ġbre eding
Qu ick
Ġque en
> `
um ing
ĠE L
Ġnom inations
id y
per ature
Ap pe
Ġb ones
ĠT ampa
Ġa thlete
ra ud
C V
Ġg ods
C odec
Ġhistor ians
ĠTre nt
p ending
Ġvac uum
Ġsl aves
Ġdes ktop
Sup press
ĠM ask
ĠP ok
Ġ[ ...]
ist ani
ĠT iger
Ġ ug
ĠS uff
ĠS tra
Ġpropag anda
ĠS ak
ĠAl pha
[ (
ĠAn al
Ġsp here
Mart in
Ġfre ely
T ip
ct ree
ĠS leep
ĠP owell
Ġpil ots
elastic search
ĠS ullivan
\ _
P ane
Ġsk illed
avor ite
Ġ\ (
ĠY ale
Ġinv ite
ĠS ame
ĠL ED
ĠCom ing
phot on
Ġthreat ening
Ġdis rupt
med ium
Ge ometry
ĠAbb ey
C annot
Sc ience
ĠStr uct
Ġconnect ivity
Ġfilm ing
Ġcloud s
k an
os er
S ets
ĠG E
0000 0000
T L
F ail
p el
ĠA ur
rou ter
al am
fr agment
erg us
Spe ed
our g
Ġtr agedy
Ġk ills
Ġdemand ed
Ġle ak
ph is
lin ewidth
Ġsatisf action
Sever al
ĠElect ronic
at ics
Ġen compass
ĠNor folk
Prior ity
fl ush
ĠPat ients
Ġsem antic
^ -
ĠAp ply
av o
Ġsubstant ially
Tr igger
ting ham
SS AGE
P ublisher
uis ine
Mult iple
ĠE M
Ġsh ar
Ġadvoc acy
ĠHallow een
Ġindic ator
h art
ard i
esc ape
Ġdis closure
Ġreli ability
Ġso ap
Ġcoeff icient
ĠR af
ill es
Ġresp iratory
Ġreven ge
ĠPhot ography
Ġhol y
Ġw ise
H a
Ġexhib ited
ul p
Ġloc ality
Ġnetwork ing
ne ys
Ġprevent ed
Ġwitness ed
Le ague
Ã¡ s
ĠDirect ory
Ġint imate
Ġdisag ree
Ġvari eties
Form atter
;" |
Ġparliament ary
Ġres ist
Ġgu ards
Ġperman ently
t ax
30 1
Ġmat hematical
m ys
ced ure
g z
second ary
Ġb uck
n ell
Ġenc ode
C AP
Ġmem oir
big g
Sub scription
Ġsurve ys
Ġjump ed
Ġdefe ating
ĠHor ror
ish i
Ã ī
N F
f rames
Ġt uple
ĠHe ath
Ġend e
ĠMc Donald
ĠÐ º
r ant
Ġkid n
Ġrespect ed
Ġmat rices
Ã³ w
ĠP and
Ġd ign
ĠWH ERE
Met ric
ĠN R
S aturday
Ġaccur ately
Col lege
ĠVol unte
Ġclick ing
Ġadvent ures
ut er
Ġse am
ĠA way
9 78
Ch unk
Ġover r
Ġcomp ile
Re act
z b
20 3
Ġinsp ire
ond o
Ġref und
Ġun ity
ĠAnd r
pr ice
Ġexcit ement
I ts
local host
Ġb ubble
ĠHop kins
ĠMot ion
Ġrent al
Mut able
P ush
od ore
ĠN ames
K im
Ġadd r
ic ies
Ġcons erv
Ġprogress ion
i q
Ġm aj
S aint
ĠForm at
ĠCab inet
Ġcorpor ation
/ #
rit is
ĠA CT
ĠTreas ury
Ġcr uel
ri ends
Ġpat ron
Ġprior ities
ĠS ox
Ġl y
Ġacc us
Ġtag ged
Ġre nov
ident ity
Ġo l
Ġd atasets
Ex press
FFFF FF
qu in
Ġc ord
te le
50 1
Ġinaug ural
c as
ct uary
Ġsleep ing
() [
ĠF olk
je ctions
R h
ig m
33 3
Ġfl aw
Ġw x
Ġexpect ation
Ġl ane
Ġtr apped
ĠM ode
Ġpar as
ĠTR UE
Ġpers istent
Test ing
inv oke
Ġd ip
Ġwhere in
es a
Ġspokes man
Ġterror ism
Ch ief
ĠTE ST
ET H
Ġex pr
Ġperform ers
re p
ĠM ig
ĠW inds
Ġcontact ed
ĠL amb
Ġp ose
Ġtrad emark
ĠDis c
cc cc
Ġap par
ãģ ®
Ġmother s
neg ative
D isk
ĠH av
ĠS aw
Ġsm ell
ĠBes ides
Ġca ution
Ġden y
g overnment
ĠFour th
Ġen force
Ġinv oked
ever y
oph one
Ġn ons
Look ing
ast ro
M ex
Ġconv ince
Class Name
188 6
D istance
Ġcell ular
F und
ĠA x
Ġchemical s
ĠE asy
Ġchampionship s
ĠRel igion
Ġswit ched
Ġreg ards
Ġhapp iness
Rep resent
ark er
Ö °
Ġdel ays
Ġn ested
ĠAp plications
Ġsp otted
loc ale
Ġab oard
20 8
At l
') ->
M ic
ĠDC HECK
Ġprec ip
Ġc otton
IN IT
ĠRet ail
ĠG ET
e em
ĠD uc
ĠN as
trans l
in is
ĠTh ought
umb led
Ġmaintain s
ĠW WE
DE C
Ġpress ed
Ġscatter ing
188 7
Ġmo ist
per m
14 7
Ġc ater
Ġshall ow
stit ute
ĠW HO
ĠH arm
ĠP D
b ecause
Ex ecute
Ġgr avit
M il
Ġmem orable
26 0
Ġann otation
> ${
.. ...
ĠHer bert
Ġr ic
Ġboy friend
ig rated
ĠI BM
ĠP eng
lev ard
product s
ut ral
Ġtob acco
Ġunder graduate
Ġfin est
ĠMil waukee
20 4
u ador
Ġen roll
c ock
ĠVer ify
18 61
dat etime
z el
w ire
ĠBulg aria
Rec ip
Ġdiv ide
spec ies
B razil
ĠT oken
ne apolis
Ġprint f
Ġreve aling
Ġinter vals
Ġreven ues
Gate way
= &
po i
Ġinsert ed
P acket
Ġf ung
ĠAn a
Ġharm on
ĠU SE
iss on
Ġneg lig
Ġderiv ative
G IN
Ġcomp ression
Ġag gress
ĠT error
Ġ* ,
Ġbench mark
Ġinst antly
Ġob server
Ġdram atically
= $
ec urity
Ġdist ress
Ġdeterm ines
l ists
ĠU V
ĠB orough
28 0
Sm art
Î º
ĉĉĉĉ Ċ
at che
ot er
mid t
ĠK IND
ol an
Ġswitch ing
ĠR S
oy age
ĠMont e
X Y
? !
BO OL
ĠF est
Ġc ad
ĠH annah
Ġrock et
bul let
Un ique
Ġmer chant
LA B
Rail way
s hell
P aint
ĠI o
Ñģ Ðº
C redit
I p
Ġcomput ation
ĠSom ething
omorph ic
et r
Ġnurs es
S ent
Ġtou ched
ig gers
hes is
ĠB rief
Ġ$ [
Ġv inyl
Ġc her
Ġext ensively
Ġsp are
ĠInst all
ĠStep han
al is
ag le
ĠSh ield
ĠAmbass ador
\ }
Ġjud icial
Ġmunicipal ities
ĠT ang
15 2
Ġtri o
ĠEngine er
ĠPot ter
Ġc iting
ĠT D
Ġdem o
Ġharass ment
Ġgrad uating
Ġproceed s
Ġemp ire
ĠBr andon
g ary
l arg
Ġatt achment
Ġindic ation
ici ary
Ġb eds
Ġeff icacy
ĠPos ition
Work ing
ĠD ebug
N ick
ĠFl oyd
Ġg orge
k u
ang ered
>< !--
ud s
Dist ribution
Cam era
ĠAz ure
ĠPear l
18 64
14 8
Ġl un
Ġrun ners
Ġmiss ile
get Attribute
Ġ' @
Ġrec k
per cent
ph oto
Ġinv erse
Th ird
ĠW I
ĠCh ad
ĠPublic ations
amm ation
Ġtour ing
ĠNever theless
Ġde alt
work er
In cre
Ġsmall est
ĠN uclear
Ġimpact ed
Ġcast ing
ĠAdv oc
Ġi Pad
Ġcycl ing
Ar r
Ġbre w
N BC
ĠR ather
er ialize
ĠPal m
Ġtim eline
ĠB B
Ġfar mer
mut ex
D a
Ġmod ifications
T OP
out ed
Look up
ĠR ush
Ġc ant
ĠB anks
ĠChap el
Ġsettlement s
ĠG and
ĠSh in
AC ING
Ġsw ift
ribut ions
ĠH aven
Ġval ued
Ġche er
Pe er
ĠHe ights
ĠWrit ers
Ġcomp assion
Ġinter ventions
or um
Ġproduction s
l atest
Ġr ifle
ĠG ir
Ġrem inded
Ġfle e
Ġal igned
Ġpal ace
Ġphys icians
re ne
Comm unity
Ġan ten
Ð¸ ÑĤ
Ġm eter
Ġdecor ated
alt Color
Ġc c
ĠF R
ĠB oeing
Ġrel uct
ĠP it
w al
TO M
Ġpure ly
Ġabund ance
l abels
ĠK as
ann i
Ġdescript ions
Ġor chestr
ĠL il
isecond s
? âĢĻ
ĠG or
ĠI SS
Ġrenew ed
Ġobl igation
Comp are
Ġinsp iring
Ġdest inations
Str ucture
red irect
in ology
cons ider
am as
Ġrem oves
Ġsan ctions
Ġsa x
Ġbi ography
ĠHit ler
c ov
ÑĢ Ðµ
F actor
ip art
Ġload s
Ġcent ered
ĠAp art
Ġinvest or
Ġelectron ics
ed uc
od ia
Ġconsist ency
Ġbehavi ors
Ġtherape utic
K ernel
Lower Case
N ONE
Ġintro duces
Ġpublisher s
Ġsent ences
ar ians
th ink
Ġn inet
ĠC B
ĠAdd ed
aus ed
Ã ½
Ġd in
gr ades
v ation
Ġo h
Ġexp end
ĠS TR
red uce
\ /
15 6
Ġt ongue
Ġm ines
CO UNT
Ġrel ay
Ġdemonstr ation
" }
] ->
ar in
Ġf oo
ok ia
ĠLuc y
w allet
ĠPartners hip
ĠC ord
to ctree
Ġdam n
Ġmark ers
eral a
pre pare
ĠCh uck
im ity
Ġlength s
ancell ationToken
Te chn
n ate
ĠGab riel
Ex it
ins ky
Ġn u
g em
ĠB A
ĠV ers
mom ent
Ġm aker
ĠLook ing
Ġpl ug
d eb
parent Node
Ġqual ities
Ã§ Ã£o
à¤ ¿
ie u
Ġgu ides
Ġreg ulated
ĠGu itar
Ġunn ecessary
se gment
az ed
att en
_ +
ĠB eg
Ġcomb ines
Ġre un
Ġch ocolate
CR IPT
t extr
Ġaltern atives
n m
Ġse al
Ġexcell ence
âĶĢ âĶĢ
Ġb other
ĠK re
ĠT err
ĠTreat y
ĠSh ows
188 1
Ġce iling
ĠPhilipp ine
Ġo ught
ĠIllegal ArgumentException
Ġprohib ited
ĠH ours
AR RAY
w edge
Ġsup ern
ĠPrinc ipal
d evelop
ul se
ĠR C
Ġaccept s
14 9
Ġclin ic
Requ ire
ĠAnn iversary
ĠR aid
j oint
app ings
Ġunve iled
n ick
Ġp ip
Ġlik elihood
tool bar
WA RE
Name Link
ĠN ak
Ġgener ous
ĠColl abor
ip ment
Status Code
ric ia
Ġrecon c
S B
{ $\
Ġs uck
Ġp ays
Ġorig inated
f ac
Ġl umin
In c
ĠH amb
] ).
ĠM ead
Ġl l
S uite
ĠD ow
ER Y
ĠAh med
Ġfro zen
ina e
Ġaccompany ing
ĠT all
Comm it
ount ers
we bs
ur as
Ġplan es
ĠJ ourney
Ġprov es
Ġinc idence
RE QUEST
Work er
Ġbatter ies
hell o
Newton soft
ĠR us
st roke
ĠC anyon
Ġlabel ed
oy le
trans fer
Ġis instance
Ġwas h
ra ff
et c
com merce
sp i
Ġproduct ive
ĠHash Map
5 50
D one
id ity
Sl ot
sy nt
C UR
ĠBrad ley
Ġadvoc ates
ĠEs sex
ĠJ in
ĠGL enum
RE L
attr s
io let
Ġstraight forward
Ġread ily
Ġappro aching
6 50
ĠSh ir
r ink
ĠA K
ADD ING
Ġint ensive
Ġun fortunately
ev es
ĠKnow ledge
Ġabsor ption
File Path
Ġsol ved
Scal ar
N umer
Ġless er
Ġhom etown
H I
D TD
Jose ph
Ġsh ower
h d
ĠC AN
ur ious
Ġappreci ated
ĠN g
ĠLett ers
Ġv ec
ĠThe me
Ġ| \
ĠW ords
not ification
Ġhor izon
Ġtempor al
n om
z oom
15 7
Ġsp ray
sub figure
ĠProject s
ĠL ac
Ġche aper
Ġcomm od
Ġpers pectives
Arch ive
ĠP ars
Ġatt orneys
Ġbroadcast ing
S UP
g raphics
ĠT rou
Rec ent
Ġrandom ly
old ing
Ġfix ture
ĠCar bon
Ġstom ach
cond itions
ĠT ouch
role um
W at
Ġh oney
Ġconfig ure
in itions
Ġim perial
H om
f actor
Ġconsider ably
ĠCl aire
ĠReg ulation
ĠR an
d ue
` )
db c
Found ation
f uture
m ms
ĠT rial
Ġs ang
EN S
Ġlast ing
Ġconsult ing
T alk
Ġbes ide
ubl ish
ĠBudd hist
Ġridic ulous
ĠM T
Ġfail ures
Ġgrand mother
ore st
ĠAc cept
ĠWar riors
Att rib
Fr ont
ĠEv il
Reg istration
ĠW inn
uc le
Ġpl ural
Ġs ulf
ĠRom ance
Ġn inth
ĠRes ort
b ucket
Ġb ol
STR UCT
Ġpup ils
Compar ison
Ġpop ulated
ĠPer th
N U
ĠLeg acy
Ġshow case
Hash Map
Build ing
Ġcon clusions
Ġpaint ers
ĠJosh ua
Ġlim iting
Ġpurs uit
Ġc rap
Ġr c
_ [
F iled
æ ĺ
ĠP rec
Ġnow here
Me et
Ġr ivals
ĠW ool
ific ant
Ġperm its
Ġg ly
Sund ay
i ya
Ġbow l
Ġf reed
ian e
ĠRequ ired
ĠP UBLIC
is ible
ĠN Z
int s
ĠWell ington
ĠI v
ĠS ask
ous el
Dest roy
40 1
ag ne
ĠDes ert
ĠA ub
ĠZ imbabwe
Ġefficient ly
Mat cher
ĠJo el
est y
RE NT
w at
ĠAng els
bass y
ĠT esla
âĨ Ĳ
Ġlack ing
google apis
2 12
Vari ant
Ġrevolution ary
Ġbab ies
art et
ĠC ache
pe er
:: $
im eter
w yn
Ġperipher al
Re ceive
in ent
Us ed
Ġvar ies
cept ors
Ġmet all
Ġang les
Ġb ust
Vill ages
T ools
Ġtrans c
16 6
Ġequ ilibrium
Ġvers e
it ars
textr m
he rence
ĠCon sole
Ġopen ly
Ġs ender
14 1
ĠĠĠĠĠĠĠĠĠĠĠĠĠĠĠĠĠĠĠĠĠĠĠĠĠĠĠĠĠĠĠĠ ĠĠĠĠĠĠ
ĠS ed
L ite
Ġconf idential
ĠS yntax
Ġextr action
ref resh
The ir
ĠO wen
Ġmed als
ĠF ixed
pl ain
Ass et
intend ent
15 1
Ġp uls
ĠAndrew s
oun ge
ĠD iet
m any
ĠEx hibition
rele ased
flu ence
ĠDav ies
ĠW ald
Ġfrequ encies
Ġadvis or
Ġh i
ĠN ormal
bet ween
! </
C op
Ġpurch asing
if fe
qu o
ĠHis panic
Ġcontin ent
Ġenc ryption
ol and
ĠD awn
ic ion
ĠC ork
Ġg aps
ĠExcell ence
ant om
ĠW ine
ĠAct ivity
art en
Ġpres idency
ĠD ad
I AN
ĠVeter ans
ĠRe id
CH AR
Ġemer ge
Ġf ond
ĠEm ployment
14 2
Ġt ender
ĠS TE
Ġcl s
Ġnational ly
l ater
ĠI M
ĠE aster
The refore
Med al
Ġconver gence
M att
P ADDING
ĠHer z
ĠW ong
ĠPeters burg
Ġbes ides
ĠL ynch
ht m
ĠW indow
qu estion
UR CE
Ġdis advant
Ġprec ious
pt s
Z oom
Ġsp o
Jew ish
ĠS ens
ĠEll is
H u
G al
ĠF ramework
Ġbath room
ace y
ĠBa iley
G reg
Ġclimb ing
ac ion
Ġexhib itions
Cal endar
Ġp owder
Ġtremend ous
Ġver ification
Â £
ge o
Ġgener a
ĠP f
hed uled
esc o
Ġv iable
Profess ional
ĠReyn olds
Ġs lope
ĠT ex
Ġreason ably
Ġto ss
Ġrep ublic
W estern
() ">
Ġshock ed
Ġsym metric
eb ook
Ã± a
ke es
ĠSte am
Ġview er
B rian
Ġinter rupt
acc ur
stat ement
ĠEnt ity
__ .
Ġc and
ĠA ma
Ġr am
erm ark
C art
s ame
Ġspir its
Ġbi om
Ġl azy
ĠT IM
Ep isode
vel t
Ġo d
ĠRay mond
Ġst amp
Ġ um
% ).
uc es
abul ary
Access or
m ile
av our
P OS
Im ages
ĠP od
Ġprior it
188 4
ĠBul let
Ġsynchron ized
Ġsuggest ion
ÂĢÂ Ļ
Ġdepos it
ĠM aps
ĠCal endar
Ġinv ented
value Of
Ġdraw ings
Ġper cussion
ploy ed
Ġhonest ly
Ġn utrition
L ee
Ġloc ale
g on
Ġdes erves
Ġsup pliers
18 63
ĠEx erc
ĠMor rison
ber y
T emp
ĠH RESULT
ĠF ilter
Ġsus cept
Desc ribe
V ictor
Ġl akes
Ġ' ,
Ġrefer endum
S port
Sh adow
ĠR esc
Comp any
Ġexc use
ĠIndust ries
at em
Stat istics
en h
Ġn ep
ĠAdvert ising
ĠC ed
Ġmed ication
ĠPers ian
Ġ" _
15 3
ĠTe aching
Sc ene
Ġment ions
M icro
ĠC ounter
ĠNurs ing
l ord
Up per
is ive
fore ach
Re place
ĠDi pl
B ul
ĠB ORDER
ĠGu est
e ctions
ĠDev il
^{ -\
ĠF ut
Ġbet ray
ĠH ack
in ja
ĠTher apy
Ġp neum
dis patch
ic ism
path s
ĠId entity
ĠSh ore
Al tern
ĠK oh
Ġesc al
oy a
Ġk w
Ġcar riers
ou x
ĠBr ussels
ron es
cr im
Ġcrick eters
Ġlink ing
Ġtrav elled
K n
um ption
ĠJ ak
Hen ry
Ġqu adr
il ogy
el ong
_ *
á ¹
Ġthorough ly
ĠP T
ĠI MP
Ġhaz ard
ĠV M
ĠAl ways
S ix
ĠG aming
ig ating
Ġess ence
av ern
ĠGl enn
ĠRoman ian
Ġlad ies
Ġ} ),
Â ±
Pay ment
L ev
Ġsub div
ĠRe ally
ĠJul ie
Ġstud ios
Ġst ays
s amples
Ġb arg
Ġaut onomous
s u
f ilters
Ġgover ned
ogn ition
let te
og o
Sh op
ĠSurre y
D at
Ġt ales
Ġm anga
ĠG ren
task s
W O
Ch icago
ap ps
Ġpharm aceutical
Acad emic
Set up
Ġhelic opter
SH A
ĠC raft
Com ponents
H ER
Ġfinal e
F all
ĠLyn n
R oad
[ -
ĠCa uc
Ġsever ity
Dec oder
ĠW er
SU CCESS
ĠGerm ans
Ġentreprene urs
Ġle ver
ĠHe in
TableRow Color
Whe ther
S ong
Ġsub scribe
Ġspec ifies
Ġman ually
Ġtrans mitted
FA IL
ĠB P
Ġsever ely
Ġrefer enced
ĠNetwork s
ol in
Bit map
.~ (\
E s
ft en
T ensor
Ġnormal ized
l ar
ĠD h
C ookie
B g
Ġd Ã©
Ġener gies
ist on
15 8
Ġtoler ance
over ride
ch anging
Ġv endors
go og
ĠResp ond
ĠRele ases
! =
****** /
ĠÎ ±
ur bs
Ġcer emon
LE T
ĠÐ ¾
w ikipedia
Ġpri ests
pay load
Ġw reck
LO B
ĠO g
Ġin ch
ĠCon struct
Ġprompt ed
process or
Ġt ournaments
sub string
ĠW end
stats models
erm ined
RO W
ĠAr med
Ġem it
ivid ually
oll ary
Ġthr one
For ward
Data Type
ĠSub ject
ĠSus sex
ĠRem ote
Ġsurprising ly
Ġdipl omatic
ĠS ET
play ing
Ã ¯
Ġtim ber
Ġg em
ĠHend erson
ĠStev ens
W il
2 11
L iber
è ®
Ġet ern
F IL
Capt ure
W ood
Ġinteg rate
to Equal
ĠGener ated
ov ic
Ġgr ace
sm art
Ġul tra
---- -
Ã© d
ĠCont ainer
Ġspons or
ĠG ift
A f
ĠCh arg
Ġlaw makers
ĠSo ft
Ġtim ely
ut a
Ġdis abilities
100 00
Ġfr uits
ĠB ert
ĠVal ues
aw t
ĠViol ence
Ġf oster
ĠH ass
C ritical
col m
Path s
188 2
[ [
sp ark
ĠCont est
Menu Item
Ġn est
ad os
ĠW on
S ol
G allery
15 9
99 99
ĠFem ale
Ġthe ft
Ref lection
Ġreserv oir
Ġpredom in
Ġpredecess or
Ġ} ).
set ting
Ġin cons
met rics
ĠAdvent ures
Ġbrut al
Ġl over
op ard
ĠCert ificate
ĠCre ated
ĠF IG
18 40
K O
Ġend less
Ġpros pects
Ġincre ment
S rc
er os
st ed
Ġsec urities
Do ctrine
ag i
Ġpan ic
ĠArmen ian
ĠK arn
Ġamplit ude
Fr anc
Own Property
FORM AT
ĠReb ecca
ĠS SL
188 3
arr ison
Ġvalid ity
ber ger
Ġref ere
Be ing
[ <
Ġnew er
ĠIll ust
Ġcompr ised
ĠA ce
ble ms
Ġgen ius
Ġpolit ically
ĠAb original
Ġw ages
do es
ĠLat ino
W ARN
Ġfin anc
Ġlog s
Ġunf air
Ġc af
c atalog
n it
ĠL iv
R ank
L IB
Ġs iblings
Ġc ure
K en
Ġbe aches
Ġlook up
Ġdef ender
ĠTrib une
In side
ĠWest minster
18 5
Ġdef ended
Ġl ig
ir teen
30 4
ĠDr iver
Ġre lying
uch i
ĠD iana
ĠM IN
p k
Ġbro ker
Ġdevelop s
ĠH our
mark er
ĠT anz
ĠCl iff
ĠGl obe
B uy
Ġfrag ments
T reat
pos itive
ĠEl se
ort ium
ĠA chiev
mod ern
Ġcancel ed
ment ioned
Ġestim ation
U t
Ġunder go
Ġtrans plant
Ġprem ises
ĠMen u
l iter
Ġd os
15 4
ĠHar old
Ġpul se
g reat
È Ļ
Ġexcess ive
Ġprim itive
Ġexc av
Ġavoid ed
B oard
ĠChe ster
ĠFor ward
ĠS ites
Ġcontribut or
ew ater
Pro c
L ess
Ġdis crete
Ġd atabases
Ġundert aken
Ġparticip ant
oc on
Ġqu ad
le ys
AT URE
Ġpoly mer
at ivity
Ġyour s
p aid
Ġex empt
p n
Ġcell padding
G re
ĠFellow ship
ĠL or
Ġun t
Ġcancell ation
Ġdefend ant
sec ure
ĠMult iple
b ial
iz arre
Ġdirect ive
ĠKn ights
ĠD uncan
Ġbl ast
Ġdou b
S and
Ġm apped
Ġdesign ing
m ot
ĠEv olution
Ġbreak down
Ġmethod ology
ĠCitiz ens
× ĳ
et itive
P ending
ĠY ugosl
Ġch ore
SP ACING
4 20
D am
ear ly
arm ing
Ġover head
Ġtown ship
F at
M onday
et e
ĠM aced
lyn n
Ġcomp rom
Ġdel icious
Ġgrad uation
Ġwood s
he y
Ġn erve
ĠGen eva
S UB
Ġquestion ed
Ġis ot
pe ated
ĠT ools
rom agnetic
Ġlocal ized
al ym
ĠS ang
Ġl as
( `
ĠC yr
Ġincorpor ate
D MA
ĠA A
ogen esis
21 7
Ġarg uing
ĠMur der
Ġloyal ty
ĠTw enty
Ġhab its
ĠGe off
Ġt ile
back end
ov iÄĩ
B rien
ĠG ust
Ġvar iance
Ġconsum ed
ĠSurg ery
ĠGib son
Ġp ap
Rad ius
ĠJeff rey
ĠW ake
com ments
18 78
Ġend if
e conomic
Ġd ock
ov y
ĠK or
ew ard
) },
L i
Ġle agues
ĠH i
Ġcivil ians
An aly
sw ick
Ġterr ain
Error Code
ĠRena issance
ĠL ed
ĠS ons
Ġcon gr
V T
ch ief
ĠĠĠĠĠĠĠĠĠĠĠĠĠĠĠĠĠĠĠĠĠĠĠĠĠĠĠĠĠĠĠĠ ĠĠĠĠĠĠĠĠ
an ol
Ġident ifies
Ġveget ables
D ead
Ġdisc overs
ĠDist ribution
Ent ries
s il
Ġpros pective
G a
ĠD ir
Ġacc idents
af ka
ĠJes se
k ill
sc opic
ĠSim pson
u ins
Ġro ok
b uff
us a
ge ometry
Ġag ing
Mod ern
ĠTib et
J ud
do ors
ĠBarn es
C ov
en ium
over flow
Ġunder way
Car thy
ell ows
pr im
18 75
Ġinter faces
^^ ^^
RE AM
18 79
se ek
Ġs i
Ġg ates
Ġs ung
Ġm im
und a
estab lish
Ġf ier
Ġsl ip
Ġsacr ific
Trans fer
ĠCD C
k al
ĠAsh ley
Ġd ent
ĠR ise
Ġwhere ver
æ Ī
Ġh ierarchy
Comp letion
names e
ur ated
Ġnomine e
L es
un al
Ġcall er
ĠMan aging
Î ³
Ġrespond ing
âĨ ĳ
script s
roc ery
ĠO H
Ġdepos its
Ġexhib its
ĠB uilt
desc ribe
Ġd rought
Ġ" #
Ġover look
K S
Ġl ob
ang led
ĠCy prus
ĠRev enue
Ġrece ipt
st ri
ĠP ub
IN DEX
Ġop posing
Ġins pect
18 62
Ġpurch ases
/ ?
OB JECT
ĠShe ffield
) *
act iv
AB ILITY
ĠPed ro
Ġliv est
22 2
N ON
Ġstrong est
ĠA verage
RE Q
ĠRec ent
Ġgen res
ĠP ray
Nd Ex
ĠV e
ic z
?? ??
Custom er
Ġtrans itions
Ġbr ig
Ġbit ter
Ġconfig urations
Ġvolunt ary
former ly
ĠAd miral
port ion
ĠB U
ĠN ATO
ĠG MT
Ġstruct ured
Ġadvis ory
in as
ĠK ol
Ad am
1 200
ĠNov el
Ġconv iction
Ġcount less
ĠArm strong
c ookie
i otic
Ġsk etch
Ġpain ful
Ġfuck ing
ĠH ir
), \
Ass ign
O bserv
W as
quir ies
ĠCO M
ĠP ool
Ġprov inces
ĠF ergus
t alk
ĠL odge
Ġdr ummer
Ġlearn s
Ġd w
Ġg it
Ġinter im
æ Ĺ
API ENTRY
is le
ĠB lo
Ġex clude
s ent
Ġco oper
ra is
_{ (
L ang
Ġil leg
ec ycle
Sche me
ĠTr av
ĠH onda
ĠA sp
b u
ĠK end
18 76
ĠC ONT
Ġthro at
Off ice
t bl
ĠEll en
ĠG y
pon ential
Ġlist ings
ĠJ et
Ġreg iment
Ġlimit ation
ĠH ERE
F red
' "
F ake
V ec
um bs
aint ed
Ġcop ied
ount ain
Ġcell spacing
ĠG ates
ĠD ifferent
E th
T IM
ĠL ik
Ġthick ness
Ġpractition ers
Ð¾Ð ´
ĠR ate
ĠZ oom
G uid
ĠS qu
Trans lation
Ġs ailing
dr ag
ĠF acts
MA IN
) }(
S ex
( --
ĠT ypes
ĠPop ulation
Ġdim ensional
Ġcul min
ĠBou levard
Ġpolynom ial
Ġsp ite
Ġpl ots
Ġrecruit ment
Ġgen ome
G over
De ployment
Ġadm its
Ġbreath ing
I MA
Ġsign aling
Ġdefend ers
() ]
Ġl ips
ĠV ern
... ,
oca ust
N orm
---- ---
ĠST AT
H F
Un ion
h orn
_{ {\
ĠCy cl
Mer ge
k ward
Ġd y
ĠCh ain
Ġancest ors
Ġex ec
: %
ad ic
arg v
ME SSAGE
W T
Ġret ire
Lou is
Pac ific
ĠB ug
Ġmot iv
p ent
Reg ular
ĠPre vious
Sw ed
Ġl oses
Dest ination
ĉ ĠĠĠĠ
anc a
Ġind uction
ĠBroadcast ing
Ġfound ers
f m
Ñ Ī
Ġtem pt
In ject
ĠChe v
ĠInit ialize
Ġwe aken
ik er
ĠDur ham
ĠChron icle
ĠAn imation
Ġun anim
She et
ĠSol omon
Ġemb ark
ĠQ atar
Ġt s
to LowerCase
sche mas
× ŀ
ĠRh ode
Ġflo oding
Ġtransport ed
Ġattr s
Ġart illery
pl aces
size i
Ġcirc ulation
at iv
D evelopment
P ipeline
Ġind uct
Ġcomp atibility
ĠIns pector
ĠUlt imate
I ran
ĠEngine ers
s igned
Ð ³
ĠB OT
ĠCELL PADDING
l ag
ĠR anch
Ġc atal
ĠCELL SPACING
rol ogy
Ġconcent rated
View Controller
00 2
x sd
Ġdeprec ated
if a
lear ning
ĠBe hind
T em
Ġs ig
ch rome
ĠML B
> .</
Ġenjoy s
ĠS ans
no frame
Ġste ering
ĠT itan
find er
ĠParam eters
ĠHur ricane
cl i
br anch
ĠMoroc co
Ġexp ose
R o
Ġ// !
ĠB row
Ġquiet ly
it ary
Ġcommun e
Ġpress ing
Sh ift
ĠDate Time
th ritis
p ark
Ġm eg
ĠAzerbai jan
an mar
ĠSl oven
Ġclos es
iod iversity
Part icip
Ġscr ut
look up
ur an
Ġrem ot
Ġwithdraw al
+ "
Ġbe ef
ĠFl ow
ement ia
Ġret riev
Ġfre ight
es ar
ĠT YPE
* >(
Ġ$ ('#
Ġgl uc
ĠDemocr acy
Ġtr agic
Ġmort gage
r ab
ĠF iles
=- =-
Ġir r
Ġqu arters
ĠPref ecture
Ġmanufact ure
ar ium
ĠGar cia
Ġdraft ed
Ġneighbour hood
ĠL ak
Ġcrit ically
D ict
d id
Ġs q
ĠEv idence
ĠHer oes
á º
ĠTe en
Al ert
Beh av
ĠCelt ic
par agraph
ĠImm un
ĠMin neapolis
oc ide
16 7
Step hen
Ġdis par
Ġinv itation
ĠCent ers
ĠRead er
T unes
ol esc
Ġcoll apsed
Ġconstit ute
Ġlect ure
Ġ&= &
appropri ate
iov ascular
ĠF REE
Att empt
cl er
AR GET
Ġgrad uates
ĠD rew
Annot ations
ram ento
18 68
Ġind ie
Ġcomb inations
Ġrec ipe
oc he
ĠD ylan
ĠCo q
h box
Ġst ir
Ġdevast ating
ret val
ĠW ays
Ġadd iction
çĶ ¨
V s
ĠDev on
Ġ+ \
Ġavoid ing
20 6
ri ages
ĠAl ger
ĠMan uel
ill on
Ġa pt
22 4
He art
H ook
Pop up
â ĸ
f urt
ĠG PS
dec ode
ver ts
ĠRestaur ant
r ina
Ping back
Ġpe aked
" ?>
Ġrob ots
Ġ ../
Ġround ed
az ar
ĠBar ack
Iss ue
ill ary
let es
Ġf el
Ġrel ates
communic ations
Ġart ic
Ph ase
ĠG roups
Ġfunction ing
Stud ent
) ^{\
ĠArch ae
ress es
ĠEr nest
V an
r ases
,\ ,
Ġaest hetic
en i
Ġby pass
Ġto y
ĠPl aza
Ġder ive
Ġurg ent
Ġp ause
Ġcriminal s
Ġflo ors
Ġcomp romise
ann ers
ĠLa unch
4 80
s ix
Get ty
se ed
Ex amples
Ġh ilar
ĠSol id
An chor
Conn ell
Ġjew el
Call ed
reg istry
Ġlicens es
ĠAssoci ates
Ġcos m
ĠBi ography
ĠAng lo
Ġinter pre
16 2
ĠV it
] </
ĠTrans fer
Ġaver aged
Ġvibr ant
ĠZ ion
Ġbelong ed
ĠH ood
=" {{
ear chers
Def ined
gl ob
E O
37 5
C s
Ġtrans fers
Ġtreat y
A nc
Ġac cent
ĠD in
ĠC ec
Part y
Ġn aming
Ġd irt
ĠR he
Ġan ch
ĠSett ings
Ġm esh
Al umni
press ive
p ared
ĠAndre a
ed e
Ġtal ents
Ġ ĉ
Con version
ĠPer fect
ĠNot tingham
ĠP orter
Ġsqu ee
ACT ION
ĠGa ussian
ĠAr r
ma jor
âĢ ²
Ġposition ed
ĠE S
ĠBurn s
al in
Ġac claimed
ĠAgric ultural
ĠEm bassy
Ġc ake
Ġshare holders
] ),
r ice
ĠDom ain
ent ric
Ġac ids
Ġrel ies
D ark
ĠOcc up
p us
Ġm p
ab lo
Ġjump ing
qu ick
ĠL ar
Ġassemb led
u ania
Ġseason al
ent ries
ĠW ave
ĠBe havior
Ġaffili ate
Ġapplic ants
W ay
v ance
Ġche f
Ġwrit ings
E ric
Ġm ate
Ġautom ation
S yn
pos able
'] ))
as ide
Ġmark ing
d ump
c iation
ĠMan ual
Ġ. =
d an
Mod ifier
Ġpres ervation
Ġcl arity
comm end
> {
Ġsystem ic
Ġsur pass
26 4
ĠĠĠĠĠĠĠĠĠĠĠĠĠĠĠĠĠĠĠĠĠĠĠĠĠĠĠĠĠĠĠĠ ĠĠĠĠĠĠĠĠĠ
und ers
Ġbre ed
Ġpen alties
ĠK B
ĠS ig
Ġadministr ator
Second s
Ġout lined
Ġvill ain
Ġp el
h it
Ġun ited
r v
ull ah
× ©
ad apter
ĠM M
ynchron ous
Ġsuff ix
d isk
Web site
print s
Rec ords
Ġinev itable
Ġb ush
Pol y
ĠV a
ĠR M
ĠAl z
L arge
ĠAm anda
>( <
Ġcub ic
ĠGo ing
ĠRec overy
ew s
F K
AT T
ĠNAS CAR
ar is
gl ass
ĠEnt reprene
C AL
ĠTraff ic
Ġrh s
Ġpione er
urre ction
h agen
ĠEm irates
Ġocc urrence
product ive
ĉĉĉĉĉĉĉĉ ĉĉĉ
umbn ail
Ġf lesh
á Ģ
ĠEff ects
ĠR AF
al ink
Ġgl ory
ĠNS String
Ġc emetery
Ġharm ful
Ġrub ber
leg iate
R IGHT
Å Ļ
ĠT ow
ĠCON DITION
Ġl overs
con c
and ro
at z
}$ -
Ġdiv ine
ast ore
18 71
Ġcrow ds
Ġ" )
Ġartifact s
F IN
ĠUE FA
pat ient
Ġ======= =
Ġcan onical
Ġdis pers
18 67
ĠE ducational
3 10
Ġastr onom
Ġm ud
ĠT ales
deg ree
Ġri ot
Can vas
Ġresign ation
Ġc ens
ĠĠĠĠĠĠĠĠĠĠĠĠĠĠĠĠĠĠĠĠĠĠĠĠĠĠĠĠĠĠĠĠ ĠĠĠĠĠĠĠĠĠĠĠĠĠĠĠĠĠĠĠ
Ġappre ciation
Ġwhe at
Ġpurs uing
ys on
Ġcatalog ue
ĠLaure n
Ġdis charge
Ġscatter ed
J O
Ġa apt
Dis abled
ir ie
ĠB ee
ĠSecond ary
Ġmand ate
ĠC rist
ĠCon cept
ĠRo ose
Ġdis putes
sh ots
Bl ob
PAR AM
ĠCO MP
or se
le igh
Ġland mark
ĠBor is
m and
(" .
gener ic
WR ITE
Ġh ind
ĠSustain able
00 5
ĠAngel a
ĠAt omic
Ġcompos itions
ĠK erala
Rem ember
ĠN amed
c v
ĠPro blem
andid ates
ĠL uck
Ġ" );
Ġfort une
ĠP K
Ġpre y
er i
ĠS ara
Ġpur ple
Ġvis a
TE X
Ġneighbor ing
F ill
P adding
ĠG ender
S ig
å ľ
L os
Ġconc urrent
an aly
Ġf et
ĠV ideos
init ialize
atern ity
Ġplan ets
Load ed
Ag ain
Mill is
ol ith
à¥ Ģ
ĠS it
ain es
Has Been
Ġb ats
Ġde pr
com par
r x
ens ed
å Ľ
r ac
Ġn aked
Ġfl ip
Ġstim ulus
esters hire
cam era
ĠP am
ful ness
Ġhom osex
Ġnot ified
ĠAnn ie
Ġmut ations
Ġhous ed
Ġambass ador
Ġon set
Ġper f
claim er
A H
is cher
ot ics
tr aining
ific ent
RE N
H ung
own ers
ĠRep orter
Ġinaug uration
Int ent
ĠAmeric as
ĠJama ica
Ġcitizens hip
18 74
Ġthere after
ĠR up
sub subsection
Ġatmosp heric
S hip
al gorithm
" ])
ĠGr ass
Lear ning
ĠIs le
Ġflag ship
Ġprot agonist
Ġneighborhood s
Ġc ement
Ġr ises
lev ant
Ġex empl
Ġsear ches
per formance
year s
Ġgar age
Ġutil ized
u o
Ġass ured
ĠÂ §
g ae
Ġpot ato
B on
Ġne utr
Ġcar ing
osp here
jack son
Ġcoord inator
ĠT ennis
Ġser um
Ġaut umn
ĠLou ise
ian i
Ġar ising
t ile
ĠF lying
ĠE g
Ġind ent
Event Args
Ġanalyst s
t one
[] {
mal ink
] ['
ĠD j
ĠPat tern
Ġbackground s
he res
Ġp ile
_{ -
Profess or
Ġtable ts
Ġspokes person
Ġded ication
Ġtri angle
Valid ate
d td
Th ursday
Ġcivil ization
Ġbeaut ifully
Per haps
rem ark
Ġknock ed
Constr aints
s ites
ot ive
ĠSy nd
ope z
Ð¸ Ñı
ĠWat ers
Ġlapt op
P ref
J ean
ER N
ĠSt ack
ĠT IME
ag ain
Ġsil ly
Ġf right
ĠB in
block s
amb ia
post s
ĠH off
res pect
Ġte aches
Add ed
ĠG DP
18 77
war f
h on
ar ations
ĠY emen
ĠWork shop
default s
ĠH err
Ġtraff icking
11 11
Ġse ized
TR A
ard on
Ġcont ested
Ġref res
the m
Ġr het
Ind ust
g ui
Ġpit cher
Ġup graded
ĠBr ady
ĠMod els
Ġreason ing
Ġtr acing
Ġt at
Ġshould ers
yl on
Ġcompl ain
m eter
-------------------------------- ----------------
Ġbox ing
ĠWord Press
hel ial
Sub mit
ĠS ic
ĠG ross
16 1
W arnings
To o
ĠChar ter
ĠF lo
ĠW iki
à¤ ¨
b org
ĠL ars
Ġrecon struct
act ing
bers ecurity
Ġple asant
ĠBeaut iful
im ize
v iol
eg an
Ġimport s
I ENT
Ġ{ $
Ġperiod ic
Conf irm
Ġsupport ive
Spe aking
ĠB elf
ex tract
Ġinter ven
ĠShe ll
i ago
board s
Ġle verage
Ġappar atus
Ġth y
re fer
Ġexerc ises
k el
ĠT ours
Ġsoc io
ith metic
em ale
CL U
Ġto ys
ĠR ender
op r
ect ing
b ounds
$ ^{-
en burg
Gen re
ke eping
m or
w y
Ġeleg ant
ĠWy oming
Ġt v
St ates
ĠRichard son
it zer
serv let
( []
ĠUnc ategorized
ĠNOT E
Ġind ividually
ĠSup erv
ĠTrans it
Ġplant ed
Ġpredomin antly
Ġback s
in el
ĠP ER
Ġv endor
âĢ ³
ĠC el
Ġam ended
Ġhook s
d eveloper
parent s
ĠKr ish
Y et
ĠBel arus
ĠA uthors
** :
ier arch
ĠIndian apolis
16 3
ĠPut in
ox ic
ĠMark ets
Ġp a
ĠJ ets
ĠPro ducer
ĠAtt ribute
Ġn ost
c art
Scott ish
str ict
ĠString Builder
Ġenzym e
H idden
ĠT C
un iform
sp irit
ĠEc uador
ĠF ighter
ceed ings
author ized
Ġdon ors
ĠSup ply
ĠO THER
R R
epend ing
Ġv ine
stream ing
Ġminim ize
\! \!
UP DATE
Ġess ays
op acity
it ud
im on
ĠCoff ee
F un
ĠM AN
P oll
Ġimm unity
ĠEncy clopedia
Ġbrows ers
au f
s ources
enti eth
ĠKenn eth
Ġb oring
ME D
ĠE E
Ġsh ifting
Block ly
Check ed
Ġmet als
l b
ant ine
Ġw avelength
od ot
uc ci
ĠRec re
ĠMon ica
Ġsuper hero
d ings
Pro s
Ġ' ')
St rip
b is
ĠCarol ine
ĠK urt
Ġconcept ual
ĠLaw yers
FUN CTION
yst er
P K
Cred entials
ĠRoose velt
un ge
ĠTas man
ĠAng l
aur us
Ġc uisine
S IGN
man ifest
Ġsupposed ly
." ;
ĠAnn ounces
W ire
ias m
Ġreson ance
Germ any
R GB
Ġin con
Ar rays
Ġaw ful
Ġsu its
Ġsuper b
ant o
aw esome
Ġillust rations
Ġb ugs
G raphics
kins on
ĠC ritical
} &
ĠH ear
un i
LE ASE
Ġbe ats
Ġbu zz
Ġâ ĪĴ
ou bt
per ed
b ay
Ġp ier
Ġsup ers
Comp leted
Ġz ip
re verse
Ġimpe achment
Ġc elebrities
ĠG D
ĠPr ide
Ġball ots
process ing
ook ies
Ġpron ounced
Ġh ug
Vis itor
ĠAppe als
omb ie
ĠSche me
Un expected
Ġalt itude
N othing
ĠSc ale
Ġhead lines
Ġwar fare
Ġatt itudes
os ion
sl f
Ġqu ot
Ġpath ways
Ġbo om
Back end
ĠHom es
ole y
Ġred es
HasBeen Set
Ġcl ay
Ġsubsc ribers
ĠR ica
18 72
Med ical
Leg al
ĠT ong
ĠâĢ º
all a
Ġsa fer
Ġshe ets
Ġcr ashed
ĠCONDITION S
ap on
Ġlegisl ature
ĠGrand e
Ġpe aks
Ġenter prises
ĠB od
h ouses
Over flow
any a
Ġsl ower
ari us
ĠIn tern
ĠManufact uring
ven ile
All ow
Ġwa ited
u ably
ig i
ir ate
ÑĢ Ð°Ð
focus ed
Ġpreced ing
P ages
SER VER
ĠS hen
Ġcontribut ors
ĠP iano
Ġhe d
Ġpres cription
ĠR iv
L INK
m us
respons ive
Ġcross es
ĠL ET
Ġdemol ished
ĠC ult
Ġtow ers
gr and
R on
Ġencour ages
ĠRen ew
Ġselect ing
Ġs inc
ĠK w
a ude
ĠV II
Ġst arter
and ez
ime q
Ġkil ometers
B ucket
alth ough
Ġprox imity
R M
emb ourg
ĠYan kees
stan bul
Ġk g
Ex cel
Ġpl ed
s yn
C ome
ĠP ine
ĠR F
ri z
Ġsu ited
pos ium
Ġpseud o
hem atic
' },
n is
Ġt witter
Ġdec iding
Ġden om
Ġex ponent
Ir ish
ĠF ear
order ed
d ag
Ġtrans cription
Ġd ive
Ġ( <
Block s
D ao
ĠC and
Ġret ros
dr ive
Ġa irlines
ure ment
enz ie
è ¡
ĠH ait
Ġoff shore
cent ral
Rel ative
at omy
es p
23 5
second s
V ery
im ag
16 4
Ġneur ons
am ar
Ġcustom s
Ġsuperv ision
ĠH us
ĠPan ama
res olution
ĠGet ting
Ġinfect ious
ĠIn frastructure
Ġte ens
ĠBre nd
ri ans
W W
R ussia
ĠB ened
ĠT ir
Ġsn ake
cs v
ĠThanks giving
in ars
Ġdr agon
Ġrecru ited
Po jo
' =>
ĠK om
ouncill or
Ġcreat ors
pher d
s imeq
ĠCall ed
mont on
or ig
ĠP ere
Ex tract
ĠEth ics
ĠP andemic
D istrict
20 7
Ġhor rible
con struction
17 8
A ge
Ġto String
ĠM ight
out heastern
IT S
Ġin k
ĠMar sh
ĠVlad imir
Ġphenomen a
un ately
ĠW ere
ĠAd rian
v ik
ĠL iga
ĠO NE
18 73
aid en
ĠL ip
Ġr ats
ĠH ydro
ĠLes lie
h ydro
ĠC HECK
T exas
Ġaccording ly
Ġa z
Ġpharm ac
Ġrecycl ing
sm ith
Ġassum es
ĠMem phis
Ġs v
pack ages
Ġcan al
ĠS ue
ĠC ort
Ġdesign ation
Sc ient
part ition
ĠSec urities
ĠRh odes
ĠNews letter
Ġcan c
ref lect
}} (\
ĠZ oo
bl er
Ġmur ders
Ġemp irical
ĠGet ty
min a
Ġimag ery
Ġcoh ort
Ġbe et
fl uid
ĠW inner
Ġd airy
aj i
que z
S a
ograph s
Ġfund raising
Ġserv ant
Cl imate
ĠSocial ist
Ġcl oth
ĠTh ing
$ ).
ĠCh in
Ġdef icit
m icrosoft
Ġham mer
ud o
Ġenc ounters
Ġin complete
Ġ" ;
for all
l ain
em e
Link s
ices ter
ros so
hel m
P aper
l uc
ĠInter ior
Ø ¨
ĠM ang
head s
im ming
ĠBrun swick
ade qu
Ġdig est
he ng
Ġw and
ĠAg es
Ġhor r
ĠCam era
ĠLog an
e lected
Ġc ss
ĠSc ore
h yd
end ant
ĠPoint s
T uesday
ĉ ĠĠĠĠĠĠĠĠĠĠĠ
Ġde grad
Ġloc ate
Ġfor wards
ĠRoberts on
ĠN atal
Ġinf ant
f w
Ġarch ives
18 66
ĠK ick
Al ignment
: **
Ġconsider ations
E nergy
i ological
Ġutil ize
pred ict
3 40
Ġpro long
Ġbet ting
ĠAll an
az ure
ĠEx tra
ĠLeg ion
Ġkil omet
v id
ĠS olution
u ant
Ġg ut
18 7
ĠP ush
Ġ= \
Ġcap ac
the ad
esc ope
t uple
Ġinsect s
Ġprosec ution
Ġre build
Ġg ym
Ġperform er
ĠCard inals
ĠEd u
Car l
it Ã©
Ġb und
Ġteen age
ĠD y
Ġint ake
Every thing
Ġtr aces
at ility
Ġhe sit
l ore
ĠIn g
ĠRe uters
Ġbott les
Ġsong writer
Ġb ump
She ll
ĠH ern
17 7
asc ade
ĠDiagn ostic
z ig
an ical
Ġimp ly
Ġmut ation
Ġend emic
Ġrem inds
Ġl ighter
ĠS of
ĠH unting
ov sky
ĠP P
m itt
à ¯
Ġantib odies
Ġd t
ĠF ul
N atural
Ġautom otive
Ġrecre ational
Ġtoile t
Ġtr ivial
Ġg el
ort heastern
Ġmob il
Wed nesday
ĠCal gary
F ace
Ġf ence
Java Script
Ġt ire
head ed
Ġlog istics
ag ged
Ġinter pol
ĠAppe al
ĠImm igration
Sur face
r ans
ĠMc Carthy
Pl ayers
upl icate
ĠNic ole
ĠD rake
ĠA RE
gr pc
Ġaccess ibility
ĠInter face
size of
Ġam big
pre view
Ġtrib al
Ġvit amin
um at
Ġr ushed
Ġanaly tical
ĠCom ic
Ġg ymn
ut ory
Sen ior
Ġrem inder
B uilt
Ġbank ruptcy
Ġev olving
PA SS
ĠBre nt
hand ed
P ak
ĠB rowser
Ġoverl ap
] *
ne ath
18 69
ol ation
tim eline
Ġenjoy able
Ñ İ
up iter
Un its
Part ial
Key word
Ġcho ir
ĠN I
16 00
Ġs aves
act ical
Album s
ott age
k le
ĠD ialog
ĠQu inn
: &
ival ent
ĠLib ya
Ġ[ {
ĠAl ert
8 50
Type Def
ĠBer ry
Ġdecre ases
Ġk ings
ĠSp ons
Ġm oth
Ġpr ince
17 6
Ġche ss
Ġqual ification
ĠAtt ack
Ġapprox imate
Ġresid ual
Ġsw ap
ĠSing les
ĠReg ulations
f ood
A UTH
Ġt a
Ġcons ume
Ġimm ers
H aw
ĠD erek
ap est
__ ["
Ap pro
Ġphil anth
Ġquant itative
o op
Stud ents
ur ally
Ġcontext s
Ġexpress ing
Com ments
Start ing
ĠEug ene
Ġaccident ally
mult iple
Ġcas ino
$ $\
J er
k ok
ĠHen ri
al ore
ĠRes olution
Que en
ĠS nap
ĠM oss
ĠR AM
in ical
ĠMe asure
Ġcelebr ates
Ġr ides
ĠZ ach
ĠFr aser
Ġimp air
ĠUn known
Ġgorge ous
ĠT at
d ependencies
ĠB il
ĠSaf ari
21 4
Ġlist ened
ra ise
Ġred und
Ġh aul
ĠS ultan
ĠA sc
Ġr ushing
ĠPl ans
Cor onavirus
ĠAbd ul
t ot
ĠR out
ĠPun jab
Ġdon or
Ġarchitect s
Ġfre el
ĠCurt is
f illed
Ġmid st
? (
ĠClass ical
ĠCook ies
Ġrank ings
ĠObl ast
ĠBel ow
Ġpromot es
Ġvol atile
Ġer ected
F RAME
set Text
Oper and
U X
Ġphot on
Ġfemin ist
Ġdestroy ing
Ġalt ogether
Ġgu itars
ĠFr ame
Ġimpro ves
Ġir regular
TEXT URE
ĠT F
ĠT ank
Ġsc ared
pos itions
tr action
Ġmotor cycle
Ġtend ency
ĠD as
Ġout rage
p ipeline
Ġg a
An th
en ario
per mission
anth a
M Y
Ġsup rem
d m
pl aced
h urst
Ġn m
Thread ing
ĠElli ott
ĠH od
Sl ice
18 30
A sh
ĠPr ague
ĠB end
Ġillust rate
ĠLegisl ature
Ġpostpon ed
ĠT aking
ĠStart ing
Ġcl an
ĠPre view
ĠRat ings
ĠAtl as
the mes
il ion
ans on
ĠKaz akh
ass is
Ġpriv ately
o ct
Ġd ont
Ġrem ix
found ed
ĠScholar ship
ĠBre tt
Ġremot ely
Ġsc ary
18 9
itt en
ĠBer k
Ġsimilar ity
A ctor
Ġwond ered
w br
C atalog
Ġdis cretion
Ġt issues
Ġrecruit ing
M esh
\ ":
Ġliter acy
M oths
Ġg i
Behav ior
ĠCar lo
Ind icator
GL enum
) ^{-
ĠM it
ĠGL uint
Ġec ological
ĠSc ene
ĠSer bian
Ġvirus es
ĠWal sh
desc riptor
ĠAdv ance
ĠTag ged
23 4
Ġre he
Ġaw kward
Ġconduct or
9 11
ĠN um
Ġinc umbent
ĠWel come
od ic
Ġun comfort
FT WARE
ĠR uby
Ġsub stances
ĠCont roller
Ġwat ches
Ġse ating
Ġsub urb
ch ard
un its
ĠC av
Person nel
Ġst iff
ĠL t
IR ST
Ġd umb
mon ary
Ġdescend ants
Ġle ar
Ġunder went
Ġsquad ron
hel pers
Ġinvestig ators
tr on
Ġproport ional
Ġref uses
L ists
ap hor
ely n
ATTR IB
Ġins isted
ĠMos es
E lem
P sych
t ik
es ity
Ġrespond ents
ĠEvent ually
l ane
Ġfirm ly
n ings
ĠRel ated
sh aw
Inst ances
con tract
Ġab normal
ĠSp ark
ĠIm pro
ĠAltern ative
Ġg reet
Ġcost ume
Ġpoll ing
Ġr outer
T en
ĠBAS IS
D aily
ob ia
Ġv intage
ĠEld er
ĠM ouse
render er
Ġacceler ation
Ġdis closed
Ġro d
ĠWe ight
T er
Ġcommand ed
Ù ģ
Ġkid ney
ĠChief s
Ġtouchdown s
ĠB rah
ĠP ages
ĠMin ing
C AC
G irl
Ġo c
? </
Ġlicens ing
K evin
Ġprov ing
p ixel
Ġsec ular
Qu ant
Ġdeliber ately
Ġbook ing
dir name
ic us
im i
Ġhold ers
Ö ·
Ġdr illing
Ġfound ations
inds ay
Data Source
N ING
ap a
Ġdr ift
R etry
ĠAl f
B rown
in j
ĠH M
ĠD uty
ĠEm my
Det ector
ĠSche ma
Ġboard ing
Ġug ly
lector al
U nc
ed o
Ġst ance
ĠRe ality
res olved
Ġpass ive
Ġfac ial
Ġlog ged
g p
ĠK iss
St ay
Ġsent iment
Ġdeter ior
s al
ĠH ip
Al gorithm
ĠV ac
ĠH S
Per formance
ĠAh mad
ribut or
Ġapart ments
Ġreb ounds
H ide
ĠTri ple
rient ation
t ick
Ġten ant
Ġepid emic
ĠFif th
F ederal
anc o
Ġsup porter
ĠTe ams
Ġaer ial
Ġsim plicity
B F
w so
ER O
ĠHigh land
ĠSom erset
ĠIn struction
Is lam
Dem ographics
GL uint
it les
Ġcont ributes
ou rier
Tr avel
Aut om
f av
Ġcontract ors
atche wan
Ġin structor
ä¸ Ń
Ġmid night
Ġ× Ķ
SO URCE
Ġrain fall
. ');
Ġprol ifer
: @
S us
ĠNob el
Ġde ferred
br ace
ĠPrinc eton
c ence
ad just
ĠH ook
Ġreflect ing
decl are
Ø ³
MP L
ĠB UT
(" <
ath a
IS O
Ġsol ic
um atic
ĠWalk ing
ĠHe y
Ġhead line
oun s
M arg
ĠScot ia
p odcast
Ġl ately
ust ering
ĠD ATA
IS A
Ġsex ually
t an
Ġrad ial
Ġbom bs
ĠS ector
M ASK
- ">
ĠRock y
D ry
E ST
ĠHind i
ib us
Ġthere of
ĠTe a
art ist
ĠT ags
ĠReg istration
ĠIraq i
Ġc oding
ĠZ en
ats u
ĠI sh
us ions
Ġm asters
Ġnot ifications
Ġdece ased
ĠAud i
DO WN
ĠFA Q
Ġtheat rical
22 3
]( #
ĠT ik
pre vent
Ġgeneral ized
ĠTun is
ĠTrans form
} ))
Ġre wards
Ġr ay
now led
Ġgram mar
ç »
ĠC red
Ġinf antry
Ġteen ager
ĠSh ared
ens ation
t ables
ĠH BO
U V
Ġident ities
Ġ" +
t ec
Ġchar ming
Ġdev iation
ĠSup erman
Request s
Listen ers
U Int
Ġp c
ib les
B ag
ĠR ut
Ġpresc ribed
res a
{ },
Ġpar ade
UT O
Ġdet ective
ĠE DT
cp y
B attle
or ah
Ġp ython
p agination
Ġport able
A ck
Ġtouch ing
Ġstory telling
b uy
ĠH ab
go al
Ġb orough
Ġpresent ations
Ġtem plates
iox ide
w indows
sl ider
m inded
Ġm all
MS G
roph ic
E conom
G it
N L
ĠR ising
In ternet
ins ki
Ġpersonal ities
Ġappre nt
3 80
Ġprint s
eng es
Ġcomed ian
ĠUl tra
Ġb arn
ĠAs k
Ġtechn ically
IC A
m eg
ĠC AP
op us
il o
Ġmem or
Art icles
her ical
pack et
C orn
ĠM Y
Gener ate
yg on
ĠMig uel
ch arged
mod ified
ĠClin ic
ios ity
ĠLiter ary
Ġt ast
Ġserv ants
Ġauthor ization
Ġantib ody
ĠCar roll
Mod al
ST EM
Ġgam bling
ĠPatri ots
Ġdon ate
Ġmon sters
ĠPaul o
an ium
RO OT
ĠQ t
open hagen
ant ics
Ġmach inery
St yles
n z
N OS
or ate
* .
ĠB oss
tensor flow
17 4
ĠEqu ity
Ġ' $
ud ed
Ġpun ct
ĠA CC
ĠR um
Ġpract ically
ĠAct ress
al er
Ġflow ing
ec hes
ĠLo op
ĠSalv ador
T ick
Ġblock chain
it ored
ĠO bs
Cre ation
Ġj okes
Ġsp ont
ĠCub an
20 9
ĠW ins
17 2
Ġterror ists
ĠF ay
ĠRun ning
Ch at
ĠBut ter
Ġfig ured
x e
Ä Ļ
Ġpuzz le
in come
ĠG ra
ĠAlz heimer
f requency
ell ites
Ġret rieved
Ġderiv atives
ĠHy per
ĠM Ã¼
Ar n
Ġstr ains
na ire
angel ical
ĠJ O
Cont ain
Ġpre jud
ĠBl air
ĠNot re
ĠCorn wall
S in
S on
at en
Ġcor related
ĠOr d
abb ing
hash Code
="@ +
ĠT roy
Ġtr unc
C a
Cl os
I reland
ĠIS BN
Ġresil ience
Ġ[ \
æķ °
Ġbeliev ing
A thlet
ĠT ut
eal ous
Ġspecim ens
ĠCorn er
Ġstreng ths
ĠGre ens
ĠD ES
HO ST
id g
ĠF eder
ĠLe af
ĠEn able
Ġce ased
at aka
Ġrepro duction
om ore
Per cent
es pecially
Ġa ster
ĠRel ief
Ġrap per
A Z
add EventListener
Ġbomb ing
F ROM
Ġur ge
separ ator
um en
comm ended
Ġsup plier
ĠLead ers
ĠK erry
Ġcol lector
Ġsoc ially
ograph ies
config ure
Ġm ant
Ġinfl ammation
Ġsem ester
pay ment
Ù İ
Ġb achelor
Ġdet ector
Ġcond itional
HO W
Ġout let
="../ _
Ġintent ions
s leep
ĠD ob
lin ing
c ourt
Ġcar b
27 5
ĠArch bishop
Ġposit ively
ENT S
an an
Ġchar m
Ġcontract or
ĠRich ards
ĠS PE
ee per
S ummer
text sc
é Ģ
Ġair ports
ĠCase y
ot on
Ġto oth
Ġintim id
Ġp ound
on so
Col umb
is che
umber land
L com
e ous
Ġout look
ĠStock holm
Ġelect rons
Ġinitial ized
Ġcongress ional
ĠD ale
Ġst raw
ĠHamilton ian
Ġr ul
ly mouth
Al ign
ĠE lections
H H
ĠM t
ĠE yes
Ġab ort
ĠSouth west
Br anch
p matrix
Ġlong time
18 59
Ġpresum ably
//////////////////////////////// ////////////////////////////////
18 2
ĠMerc ury
ro tt
Ġch ase
unc her
parent ly
AL S
Ġre ver
h bar
Ġdeal er
Ġnecess ity
Ġinnov ations
Ġrat ios
cor rect
ĠCh at
ĠAp ollo
Arch itect
re b
Ġreb uilt
Ġmidfield er
n io
ab l
oc ene
ĠQ B
bo at
) _{
Ġun set
Ġbehavior al
Ġ$ -
type param
ĠCard iff
Ġdepart ed
Ġeconom ies
Ġdeterm in
Contin ue
Ġsell s
Ġspec ulation
sign al
/ (
ĠM eyer
ĠFr anÃ§
Conn ector
ĠL ines
ĠZ immer
M ale
ĠF amilies
Ġg rief
ĠLGBT Q
st mt
M u
Ġge ometric
ĠInt ro
Ġeval uating
Ġprev ents
17 9
Ġdub bed
He ap
AS C
Ġupd ating
Ġb ore
ĠAll ow
ĠTop ics
ĠEx pect
ar iance
Ġcompar isons
A IN
ĠJoh annes
ĠAl leg
22 6
Ġafter math
Ġacad emy
g c
ĠInvest ig
] }
Rel ations
id is
Ġint act
Ġaccount ability
Ġtransl ations
Ġfl ush
Ġp ec
Over all
s outh
ĠMc N
ĠC ertain
sc ene
ĠMal ta
g io
ĠI con
Ġhand lers
ĠNap ole
Ġ< ?
ĠPl ate
P en
ĠCh ip
H it
Ġg odd
ine z
ĠK ab
ad vert
ce ans
q a
ĠFr anz
h base
b read
AA AA
dest ination
Ġel astic
Ġsign atures
: =
ĠTh reat
ĠHold ings
Ġph y
m x
Ġevolution ary
LE VEL
ĠC ategories
TO OL
Ġelabor ate
S um
sub Nav
U UID
P icker
Ġsen iors
ote chnology
Ġsl ots
Ġtack les
Ġgate way
18 48
Ġreloc ated
P AC
t ex
v on
Ġpromot ional
U int
Ġvict ories
Ġcoord ination
ass et
Ġkeyboard s
cl ub
Stud io
Ġ* **
Ġdr one
Ġc raw
ĠU FC
O x
Ġwh it
Vis ibility
Ġunsuccess ful
Ġemb ry
ĠB T
Ġi i
aint ies
ĠTest ament
enn ium
ĠDeg ree
ĠM ile
ure auc
Ġrec ount
ĠMan ila
Ð° Ð»
Ġchap el
h appy
Perm issions
With in
ĠMil ton
ĠRh ine
let ing
ind ices
L atin
sh arp
Comp anies
ĠM N
ĠMan it
Ġinter fer
ĠGl ou
30 2
Ġw itch
c ats
ĠR oth
ĠSand y
sc reens
Ġshort age
Ġdecom position
g iven
we ather
ib a
Ġbr ave
ĠRes et
Ġp aired
Ġan x
ip ur
Ġreal ised
<? >
ĠViet namese
h aul
if rame
Ind ividual
FO RE
30 3
V IS
ild a
en stein
ĠIndones ian
Ġtr act
in vest
Ġde er
Ġl ith
or ers
Ġb os
ĠV iv
ĠDocument ation
ĠResc ue
ĠS ou
if les
ĠEx pert
DA Y
draw able
Ġr s
ak y
p d
associ ated
ĠDef inition
BO O
Ġà¤ ķ
om ics
ĠS ugar
ĠM ale
Ð¾Ð ¼
ipp et
t iny
st en
Ġhe ated
ang les
ĠMon ster
ĠRoll ing
INST ANCE
Ġasp ir
Ġfilter ed
ĠL ok
Ġorgan isms
atter ed
ĠAppend ix
Ġspect ro
ĠFinal s
PRE FIX
3 25
20 30
Ġcancell ationToken
ĠMar tha
Ġcol ored
Ġlect ures
ĠS event
ĠVeh icle
ĠGL sizei
W ER
Ġcapt ures
un ing
sc riber
ï ¬
ĠC lement
N ested
Â ²
Th an
ĠArt illery
Ġadjust ment
h ang
Ġinter cept
Ġfat igue
Ġad apter
Ġ(! (
R outer
Ġ" (
Ġfilm maker
ĠSe lection
iber nate
comp any
B and
Ġtre asure
Ġlie utenant
Ġtr ait
Ġvol leyball
Ġcontinu ity
âĢ¦ ..
ul ators
ad al
Ġspons ors
ĠL opez
Ġorgan ize
place holder
Ġcard iac
ng th
Ġment or
V S
Ġsh ake
ĠSing er
IF T
u u
ocr acy
Ġcolon ies
dem o
Ġbl essed
B LOCK
ĠDi ocese
Ġinstit ute
Com plex
Ġmess aging
ac ements
Ġcr ude
ol ics
tt o
ro ots
P ipe
is ot
18 6
g ang
se p
Ġkey word
t el
Ø ©
Ġform ations
ĠO m
ingu ished
Ġsusp icious
Ġbas ement
display style
ĠBur ton
ĠHay es
D X
G H
Ar thur
L y
en ary
prior ity
ĠS TD
Ġenthus iasm
P ark
fortun ate
R ot
ĠFound er
ment ation
AN GE
Ġshe er
Ġhuman itarian
Ġindic ators
ĠL IC
Pay load
ĠJohn s
ogen ous
M AT
] <
Ġassess ments
Ġorgan izing
act ivate
Ġplay wright
Ġfavor able
qu ant
ĠLith uania
ĠD ynamic
ĠB ren
Ġsaf egu
ict s
un ate
' +
ĠSym fony
ĠKat ie
Ġappe aling
Ġappro ve
oles ale
' (
urs ion
Ġb ub
Ġcar cin
sl ot
Ġabs urd
elect ric
ĠP or
Ġaccess key
na issance
K at
h in
Ġch orus
' ):
d ensity
ĠFor bes
Ġd well
App Compat
Ġprison er
ĠKing ston
Ġle x
ĠMar in
C AN
ĠA SC
Ġdem ographic
ell ular
Ref resh
Ġret ention
b uck
Ġrev ival
song writer
ĠR iley
d ataset
ĠDep ression
Ear th
N ic
input s
00 3
17 3
L em
Ġl anes
est inal
Ġappe als
iment ary
Ass ignment
23 2
b ars
Ġtr ainer
Ġj am
Ġc ute
erm at
Ġir rit
D ar
Stack Trace
Ġalumin um
B a
Ġtr ash
Ġglass es
ĉĉ čĊ
os ome
is Array
Ġle isure
ĠRev ival
ĠN u
f air
ĠOff icers
Ġeduc ators
Ġabsor bed
Ġdis close
St ock
Equal To
Ġprop he
ĠArmen ia
ĠMod al
per form
ĠBas in
Ġorg ans
ĠWeek end
Ġsubstr ate
ĠIn nov
Ġl ar
Art ifact
al tern
ĠTanz ania
ĠMar co
Int o
W all
Ġp ine
Ġmain land
sub scription
Separ ator
ĠZ el
Un fortunately
ĠGuid elines
ĠHamb urg
Ġimag ined
20 25
ĠF T
ĠE ither
Ġpit ched
ĠProtest ant
ĠTrend s
Ġev olve
v p
com pl
ot ional
uc ing
we ak
Ġimp ose
ĠFranc o
ĠChrist ine
ĠGener ic
PER TY
Ġtweet ed
Ġw ished
Ġblog s
ĠS Ã£o
ĠG ospel
24 5
Ġsid ew
ĠK ang
}} ^
ĠR B
lo e
ĠIn come
Ġdis posal
Ġcontin ually
Th ings
Ġreal ise
ĠIP v
ĠFergus on
ĠE PA
ĠS ul
custom er
m icro
Ġp t
iss an
ĠSpe ech
n st
Ġre habilitation
S printf
ĠJ ur
ĠMar athon
ass y
ĠOriginal ly
Ġ( `
ĠPat ient
Ġ uk
Ġl ending
D ear
g old
g ather
() `
bel iev
ĠA IDS
ĠInvest igation
ĠWag ner
Ġspecific ations
R F
Ġt enth
Ġcre ep
Ġcor ps
ĠRel igious
Ġgar bage
ĠGaz ette
Ġs or
om p
qu isition
Ġap ple
Ġdo ctrine
rop a
ĠJen kins
K A
S orry
$ ~
Ġback wards
dis ciplinary
ĠAr ms
^{ +
ĉĉĉĉĉĉ Ċ
Ġfr ank
ĠL enn
ĠQ String
4 000
="# ">
! ,
Ġd orm
T ITLE
[ _
eff icient
ĠTr avis
Ġcomm ittees
Ġx si
Ġh ood
ĠC ay
30 8
ram er
Sar ah
rest rial
L M
ĠMal colm
ĠKenn y
Ġtort ure
Ġin hab
Ġgu ilt
ĠPost s
ĠLanc aster
Ġvulner ability
Ġb izarre
O ps
pe x
we ets
text area
loc als
Ġadministr ators
18 57
Ġtravel ers
Ġstress ed
Ġjoint ly
it ated
ĠK aw
Pro of
xx xx
------------ -
18 4
ĠBut ton
18 58
Ġmon etary
ĠEd it
ĠS eth
Ġcatch ing
ter bury
Ġtri umph
Int ro
Ġ[ #
Ġru ins
he ss
Polit ics
St d
atic an
ĠT ickets
ad ays
ĠD ust
Part s
ograp hed
ĠS ail
Tr ad
ĠE y
Ġr ust
ĠGriff in
b ag
Ö ´
ac ional
ĠThrough out
h w
m f
Ñ Ħ
Ġs emic
Ġreview ing
Ġhighlight ing
o ak
St an
Ġcomm enced
In jection
per p
@ {
Ġal phabet
// ----------------------------------------------------------------
ard less
Ġland scapes
iot ics
Ġb ite
External Task
ĠBeat les
Ġbreak through
Ġphys ic
Ġgrab bed
Ġweight ed
Ġembed ding
br is
ament al
Ġtraject ory
ĠN ice
Ex ec
Get ting
Ġenc rypted
lock ed
ĠA ch
Ġtem ples
ĠM olecular
ĠParam eter
ud er
Ġconf irms
ĠSeb astian
iling ual
Ġsuc c
ast ically
30 5
ĠD ry
Ġintern ally
ĠSac ramento
Ġ umb
â ĺ
th ouse
Ġapplic ant
ĠBudd h
lect ric
Leg acy
ĠChar ity
Ġpal m
Ġr ider
Ġembod iment
J es
Ġsus pects
erse ys
ĠBry ant
ĠE cho
Ġl ord
f un
ĠSt a
Ġevent ual
B rad
ĠM ick
ĠU AE
Ġb is
ĠM add
ĠK ane
Ġr uler
18 3
N ER
ĠBur ke
Ġrevers ed
ne e
am on
Ġfe at
ĠBloom berg
Ġre try
Ġtou ches
Â ´
ĠU m
ha o
ĠGreat est
ĠGram my
ĠM TV
Ġplace bo
ĠNo ah
Ang le
as per
Mus ical
ĠCan on
if s
Ġor n
Ġgo og
S i
ter min
ĠLinked In
Ġ á
Å Ľ
Ġb anner
tr ad
l ift
ĠF lem
ener ate
ĠAl lied
ĠMy anmar
ĠLeg ends
RO C
$ ;
ĠWes ley
Ġcontin uation
à¤ Ĥ
Ġthr illed
D ave
Ġconf using
==== =
ĠContin ue
Ġaccess ories
ighth ouse
Ġdat etime
ĠS ister
Ġtop ped
Ġacad emics
Ġcapt uring
Author ization
it as
Ġsett lers
K EN
Im mutable
ĠAnd ers
vent ional
Ġfact ories
ĠEval uation
ĠS uit
ĠC BD
Ġmarket place
Ġsubject ed
Ġwid ow
Ġg erm
Ã© g
Par cel
ĠP eg
gr av
Hon ours
R D
ĠD MA
Ġam ino
Ġlack s
conf irm
Ġlocomot ives
---- --
Ġstory line
Head ing
ath olic
NotFound Exception
R P
Ġtr illion
Ġsoon er
ĠDream s
ĠKle in
b ard
ĠEx port
G TH
22 8
Ġdirect ing
Ġsound ed
Ġch ol
ENT ER
Ġvirt ue
itud inal
Ġent ropy
Ġdecre asing
Ġi Tunes
ĠBro ck
ĠCru ise
ĠL on
Ġra id
en ic
18 1
Ġlaugh ing
ĠF ans
ord e
ĠArgent ine
E LEMENT
ĠRodrig uez
Prim itive
Ġun changed
ors che
Ġneed ing
Ġrelax ed
R ele
Ġreg ret
In clude
Ġarm or
ĠP ione
Ġem peror
Ġf Ã¼r
19 1
rib es
ĠMar ion
ĠRequ ire
ĠV k
worth y
Ġinv isible
ĠÃ ģ
Ġle v
uk u
or ange
ĠM akes
ak o
Ġinc ub
Ġcalc ium
Ġcollabor ated
Ġcolle ague
B ern
Ġm aternal
Ġlater al
Ġrook ie
All owed
Me asure
ĠPak istani
G row
ĠL ayout
Ġdis ruption
Ġorgan izational
Ġnovel ist
ĠFl at
x f
Ġj acket
ĠSO FTWARE
ex c
) '
ĠFund ing
ash ire
ĠHol ly
ocy tes
unt u
Sign al
ĠRab bi
10 80
Inter view
Read Only
ĠTrans action
ĠMax well
Ġuncomfort able
ĠOut standing
Ġcorre ctions
ĠRaid ers
bal ance
al bum
r il
for um
I SS
omot ive
Ġannounc ing
So ftware
ĠL iz
rib ing
} )$.
Ġexplos ive
Ġaccess ing
ott i
Ġide ology
ind ependent
reg ex
Ġsymbol ic
ĠEqu ipment
j ay
ĠBe ast
Ġdys function
ĠH AVE
Ġinter change
h ma
re li
ĠT win
S af
Ġthr ust
]] ></
ext ends
sh i
ĠPro s
Ġsim ulated
ĠAct ivities
DE P
Ġtrou bles
Sc heduler
Ġpartner ed
GR AM
Current ly
ĠK ra
Ġlength y
ĠCh ancellor
Sp ot
il ight
26 5
Ġla ug
b ons
ĠCas ino
l iteral
Ġsem if
Ġd ental
Fil ename
Ġf erry
Ġres umed
h ig
Î ¯
Ġterm inated
ns ic
Ġn as
miss ing
Ġphil osophical
ĠW S
Th reshold
oc cup
22 7
Ġact ivate
ĠAl most
Inter op
ĠBright on
Ġl uc
ij a
W ords
ĠR as
Ġch ips
ĠBelf ast
r us
od i
Ã¨ s
ĠList en
ĠR andy
Original ly
23 3
Ġn ec
Ġmolec ule
Ġcon qu
Ġdis g
Ġveget ation
V irgin
Ġto g
ĠRE G
Ġp H
ĠO ber
N il
Ġco pe
[...]
