{"[UNK]":0,"!":1,"\"":2,"#":3,"$":4,"%":5,"&":6,"'":7,"(":8,")":9,"*":10,"+":11,",":12,"-":13,".":14,"/":15,"0":16,"1":17,"2":18,"3":19,"4":20,"5":21,"6":22,"7":23,"8":24,"9":25,":":26,";":27,"<":28,"=":29,">":30,"?":31,"@":32,"A":33,"B":34,"C":35,"D":36,"E":37,"F":38,"G":39,"H":40,"I":41,"J":42,"K":43,"L":44,"M":45,"N":46,"O":47,"P":48,"Q":49,"R":50,"S":51,"T":52,"U":53,"V":54,"W":55,"X":56,"Y":57,"Z":58,"[":59,"\\":60,"]":61,"^":62,"_":63,"`":64,"a":65,"b":66,"c":67,"d":68,"e":69,"f":70,"g":71,"h":72,"i":73,"j":74,"k":75,"l":76,"m":77,"n":78,"o":79,"p":80,"q":81,"r":82,"s":83,"t":84,"u":85,"v":86,"w":87,"x":88,"y":89,"z":90,"{":91,"|":92,"}":93,"~":94,"¡":95,"¢":96,"£":97,"¤":98,"¥":99,"¦":100,"§":101,"¨":102,"©":103,"ª":104,"«":105,"¬":106,"®":107,"¯":108,"°":109,"±":110,"²":111,"³":112,"´":113,"µ":114,"¶":115,"·":116,"¸":117,"¹":118,"º":119,"»":120,"¼":121,"½":122,"¾":123,"¿":124,"Â":125,"Ã":126,"Ä":127,"Å":128,"Æ":129,"Ç":130,"È":131,"É":132,"Ê":133,"Ë":134,"Ì":135,"Í":136,"Î":137,"Ï":138,"Ð":139,"Ñ":140,"Ò":141,"Ó":142,"Ô":143,"Õ":144,"Ö":145,"×":146,"Ø":147,"Ù":148,"Ú":149,"Û":150,"Ü":151,"Ý":152,"Þ":153,"ß":154,"à":155,"á":156,"â":157,"ã":158,"ä":159,"å":160,"æ":161,"ç":162,"è":163,"é":164,"ê":165,"ë":166,"ì":167,"í":168,"î":169,"ï":170,"ð":171,"ñ":172,"ò":173,"ó":174,"ô":175,"Ā":176,"ā":177,"Ă":178,"ă":179,"Ą":180,"ą":181,"Ć":182,"ć":183,"Ĉ":184,"ĉ":185,"Ċ":186,"ċ":187,"Č":188,"č":189,"Ď":190,"ď":191,"Đ":192,"đ":193,"Ē":194,"ē":195,"Ĕ":196,"ĕ":197,"Ė":198,"ė":199,"Ę":200,"ę":201,"Ě":202,"ě":203,"Ĝ":204,"ĝ":205,"Ğ":206,"ğ":207,"Ġ":208,"ġ":209,"Ģ":210,"ģ":211,"Ĥ":212,"ĥ":213,"Ħ":214,"ħ":215,"Ĩ":216,"ĩ":217,"Ī":218,"ī":219,"Ĭ":220,"ĭ":221,"Į":222,"į":223,"İ":224,"ı":225,"Ĳ":226,"ĳ":227,"Ĵ":228,"ĵ":229,"Ķ":230,"ķ":231,"ĸ":232,"Ĺ":233,"ĺ":234,"Ļ":235,"ļ":236,"Ľ":237,"ľ":238,"Ŀ":239,"ŀ":240,"Ł":241,"ł":242,"Ń":243,"ĠĠ":244,"Ġt":245,"in":246,"Ġa":247,"he":248,"er":249,"on":250,"ĠĠĠĠ":251,"re":252,"at":253,"Ġthe":254,"en":255,"or":256,"Ġs":257,"an":258,"es":259,"is":260,"it":261,"al":262,"Ġc":263,"Ġw":264,"Ġo":265,"ar":266,"ed":267,"Ġf":268,"ing":269,"nd":270,"Ġp":271,"Ġb":272,"ion":273,"ou":274,"ic":275,"Ġin":276,"Ġof":277,"le":278,"as":279,"Ġm":280,"Ġand":281,"Ġto":282,"ro":283,"Ġd":284,"ĠĠĠ":285,"ent":286,"ĠĠĠĠĠĠĠĠ":287,"Ġh":288,"ct":289,"et":290,"st":291,"il":292,"el":293,"om":294,"ĠS":295,"Ġre":296,"Ġth":297,"am":298,"Ġn":299,"âĢ":300,"ĠC":301,"ĠT":302,"id":303,"Ġl":304,"ĠA":305,"ol":306,"ur":307,"Ġe":308,"ut":309,"ac":310,"ot":311,"Ġ(":312,"ation":313,"im":314,"ig":315,"ad":316,"iv":317,"ĠM":318,"ĠI":319,"Ġg":320,"us":321,"ay":322,"Ġis":323,"Ġfor":324,"ow":325,"ly":326,"ce":327,"Ġon":328,"ĠP":329,"ers":330,"ul":331,"ĠB":332,"ch":333,"Ġbe":334,"Ġst":335,"ag":336,"un":337,"em":338,"ir":339,"ĠĠĠĠĠĠĠ":340,"if":341,"od":342,"ter":343,"ith":344,"se":345,"Ġv":346,"20":347,"ĠD":348,"ĠR":349,"ĠH":350,"um":351,"th":352,"Ġthat":353,"av":354,"Ġ=":355,"pe":356,"ab":357,"est":358,"ist":359,"ate":360,"ĠF":361,"Ġas":362,"her":363,"Ġwith":364,"ĠL":365,"ver":366,"Ġcon":367,"ĠW":368,"and":369,"oc":370,"ap":371,"ĠN":372,"ĉĉ":373,"Ġal":374,"ew":375,"Ġan":376,"op":377,"ĠG":378,"Ġy":379,"âĢĻ":380,"qu":381,"ri":382,"Ġit":383,"ht":384,"ĠThe":385,"ĠE":386,");":387,"ess":388,"Ġwas":389,"Ġ<":390,"Ġpro":391,"res":392,"Ġwh":393,"our":394,"ain":395,"ort":396,"ill":397,"=\"":398,"--":399,"os":400,"Ġ{":401,"Ġr":402,"Ġat":403,"rom":404,"Ġhe":405,"ity":406,"Ġde":407,"ction":408,"19":409,"Ġcom":410,"ke":411,"Ġby":412,"end":413,"ore":414,"ub":415,"up":416,"ass":417,"ĠJ":418,"art":419,"ame":420,"//":421,"ĠO":422,"ld":423,"ex":424,"Ġex":425,"ment":426,"Ġor":427,"nt":428,"</":429,"ies":430,"Ġ\"":431,"pt":432,"all":433,"ĠĠĠĠĠĠĠĠĠĠĠ":434,"Ġare":435,"Ġ*":436,"ue":437,"Ġfrom":438,"ant":439,"ĠâĢ":440,"Ġse":441,"ive":442,"Ġ$":443,"pl":444,"age":445,"ine":446,"ud":447,"ight":448,"og":449,"ect":450,"tr":451,"Ġthis":452,"Ġcl":453,"ack":454,"ust":455,"ure":456,"ial":457,"čĊ":458,"port":459,"ard":460,"ĠU":461,"ber":462,"Ġtr":463,"ave":464,"ov":465,"Ġch":466,"ge":467,"Ġ}":468,"ans":469,"cl":470,"rou":471,"Ġsh":472,"..":473,"Ġnot":474,"The":475,"'s":476,"iz":477,"out":478,"ell":479,"00":480,"Ġwe":481,"ip":482,"ff":483,"ast":484,"ia":485,"ost":486,"urn":487,"ult":488,"act":489,"ĠK":490,"Ġ\\":491,"ary":492,"per":493,"are":494,"ak":495,"Ġus":496,"Ġpl":497,"Ġle":498,"ated":499,"201":500,"Ġyou":501,"ok":502,"ef":503,"orm":504,"\">":505,"con":506,"ich":507,"able":508,"ear":509,"ire":510,"ĠĠĠĠĠĠĠĠĠĠĠĠĠĠĠĠ":511,"ong":512,"Ġhave":513,"ind":514,"ice":515,"ord":516,"ĠIn":517,"ould":518,"ide":519,"()":520,"ork":521,"ĠSt":522,"**":523,"com":524,"ĠĠĠĠĠ":525,"ical":526,"ĠV":527,"Ġj":528,"ions":529,"Ġhas":530,"Ġif":531,"int":532,"ace":533,"Ġhis":534,"ign":535,"ase":536,"ep":537,"Ġab":538,"ime":539,"ile":540,"ext":541,"Ġ-":542,"ath":543,"Ġres":544,"turn":545,"Ġk":546,"Ġcomp":547,"uc":548,"eg":549,"ail":550,"Ġall":551,"Ġcan":552,"Ġint":553,"ite":554,"ther":555,"ian":556,"Ġwhe":557,"ence":558,"âĢĿ":559,"ry":560,"ib":561,"erv":562,"get":563,"Ġad":564,"ype":565,"ous":566,"In":567,"ang":568,"Ġ'":569,"ĠCh":570,"ubl":571,"ere":572,"one":573,"Ġ&":574,"Ġun":575,"Ġcont":576,"----":577,"ec":578,"so":579,"ations":580,"ens":581,"Ġnew":582,"ance":583,"ev":584,"gh":585,"und":586,"ode":587,"ount":588,"Ġclass":589,"ome":590,"ra":591,"ory":592,"Ġbut":593,"Ġar":594,"Ġwhich":595,"Ġwill":596,"ob":597,"==":598,"Ġim":599,"),":600,"form":601,"ild":602,"ition":603,"ĠTh":604,"str":605,"enc":606,"ents":607,"Ġap":608,"li":609,"ook":610,"ress":611,"Ġout":612,"Ġtheir":613,"ata":614,"Ġgo":615,"ject":616,"ll":617,"pro":618,"Ġdo":619,"ĠĊ":620,"sp":621,"Ġac":622,"Ġup":623,"ish":624,").":625,"ach":626,"own":627,"mer":628,"Ġwere":629,"fer":630,"ug":631,"ark":632,"Ġwho":633,"ĠY":634,"ont":635,"ual":636,"Ġone":637,"ublic":638,"ound":639,"Ġthey":640,"tern":641,"200":642,"Ġme":643,"ert":644,"row":645,"Ġreturn":646,"ink":647,"ree":648,"ors":649,"ock":650,"ĠĠĠĠĠĠĠĠĠĠĠĠĠĠĠ":651,"ĠâĢľ":652,"ake":653,"Ġ|":654,"irst":655,"Ġmore":656,"Ġen":657,"Ġalso":658,"10":659,"ick":660,"ne":661,"Ġsc":662,"te":663,"Ġdis":664,"hed":665,"Ġman":666,"rit":667,"Ġper":668,"Ġev":669,"ict":670,"Ġpart":671,"cess":672,"Ġ//":673,"ss":674,"ft":675,"Ġpr":676,"ose":677,"alue":678,"elf":679,"Ġher":680,"ings":681,"ref":682,"Ġag":683,"Ġhad":684,"ely":685,"ool":686,"Ġ[":687,"ays":688,"amp":689,"Ġso":690,"18":691,"oll":692,"ull":693,"Ġother":694,"Ġits":695,"ĠâĢĵ":696,"aw":697,"iew":698,"ĠIt":699,"ph":700,"ates":701,"Ġwork":702,"Ġyear":703,"Ġsp":704,"clud":705,"Ġte":706,"Ġabout":707,"St":708,"->":709,"rib":710,"ĠHe":711,"unction":712,"Ġbeen":713,"uct":714,"old":715,"Ġstr":716,"Ġpre":717,"ng":718,"ĠUn":719,"Ġqu":720,"fter":721,"::":722,"inal":723,"wo":724,"ery":725,"Ġli":726,"uch":727,"_{":728,"ater":729,"Ġ@":730,"lect":731,"\",":732,"Ġget":733,"ource":734,"Ġover":735,"Ġne":736,"ps":737,"we":738,"anc":739,"ĉĉĉĉ":740,"ie":741,"eth":742,"pec":743,"iel":744,"Ġ/":745,"yst":746,"iss":747,"Ġfirst":748,"Ġtime":749,"Ġ</":750,"ople":751,"Ġpe":752,"ons":753,"ational":754,"use":755,"ption":756,"Ġsa":757,"sh":758,"Ġro":759,"oy":760,"sc":761,"ener":762,"ond":763,"ics":764,"aram":765,"erm":766,"Ex":767,"Ġoff":768,"Ġwhen":769,"pr":770,"ize":771,"Ġrec":772,"les":773,"Ġwould":774,"reat":775,"pect":776,"../":777,"Ġdes":778,"over":779,"io":780,"ade":781,"ield":782,"ember":783,"igh":784,"oint":785,"Ġind":786,"Ġplay":787,"ram":788,"Ġcomm":789,"tt":790,"Ġinto":791,"Ġany":792,"Ġpublic":793,"Ġyour":794,"ve":795,"vel":796,"ĠAr":797,"Ġdef":798,"lo":799,"Ġass":800,"Ġ+":801,"Ġour":802,"Ġthan":803,"Ġund":804,"ax":805,"Ġsup":806,"ix":807,"Ġkn":808,"ystem":809,"Ġset":810,"Ġthere":811,"12":812,"put":813,"Ġthem":814,"Ġsome":815,"ied":816,"(\"":817,"();":818,"Ġshe":819,"red":820,"ĠCom":821,"rap":822,"ious":823,"round":824,"Ġtwo":825,"ys":826,"ivers":827,"Ġname":828,"olog":829,"lement":830,"Ġinclud":831,"Ġinter":832,"ĠNew":833,"land":834,"ning":835,"ove":836,"Ġpeople":837,"ml":838,"ty":839,"ific":840,"set":841,"ER":842,"Ġ.":843,"',":844,"eb":845,"ased":846,"ally":847,"essage":848,"Ġact":849,"als":850,"Ġvar":851,"Ġbet":852,"err":853,"{\\":854,"orld":855,"Ġno":856,"Ġob":857,"Ġsaid":858,"--------":859,"ited":860,"Ġonly":861,"arch":862,"ise":863,"Ġadd":864,"tring":865,"ange":866,"ward":867,"Ġafter":868,"ident":869,"ement":870,"Ġfe":871,"Ġlike":872,"Ġfunction":873,"ames":874,"âĢĵ":875,"Ġop":876,"ĠPro":877,"ities":878,"app":879,"cre":880,"Ġam":881,"Ġ||":882,"****":883,"Ġreg":884,"pos":885,"Ġ*/":886,"Ġ:":887,"roup":888,"oot":889,"15":890,"arg":891,"atch":892,"16":893,"Ġunder":894,"Th":895,"ating":896,"ĠThis":897,"Ġcol":898,"wn":899,"let":900,"ative":901,"Ġend":902,"ĠSe":903,"uild":904,"fr":905,"rough":906,"div":907,"oid":908,"nc":909,"uring":910,"span":911,"IN":912,"ank":913,"></":914,"ient":915,"Ġinv":916,"Ġmy":917,"ular":918,"the":919,"ues":920,"199":921,"Ġsub":922,"Ġwhat":923,"ĠTr":924,"meric":925,"Ġem":926,"Ġprov":927,"Ġmod":928,"Pro":929,"Ġcons":930,"ash":931,"ON":932,"Ġserv":933,"Ġjust":934,"Ġbl":935,"11":936,"Ġback":937,"ough":938,"ck":939,"ek":940,"ma":941,"ray":942,"orn":943,"ars":944,"ann":945,"Ġtrans":946,"eng":947,"Ġatt":948,"ood":949,"ms":950,"://":951,"Ġwhere":952,"umber":953,"ower":954,"to":955,"Ġmay":956,"key":957,"ale":958,"ribut":959,"21":960,"Ġrel":961,"ause":962,"Ġhim":963,"che":964,"any":965,"itt":966,"Ġ#":967,"Ġfil":968,"Ġmost":969,"Ġrem":970,"ily":971,"Ġhow":972,"ences":973,"Ġpos":974,"Ġ$\\":975,"ator":976,"Ġever":977,"fig":978,"Ġbec":979,"urre":980,"atic":981,"line":982,"ead":983,"ĠSh":984,"ĠAl":985,"oth":986,"ures":987,"ices":988,"><":989,"irect":990,"Ġthrough":991,"ton":992,"Ġstud":993,"its":994,"ĠĠĠĠĠĠĠĠĠĠĠĠĠĠĠĠĠĠĠ":995,"ility":996,"====":997,"ah":998,"equ":999,"...":1000,"Ġpol":1001,"ĉĉĉ":1002,"ife":1003,"ollow":1004,"Ġspec":1005,"air":1006,"ins":1007,"Ġprod":1008,"this":1009,"chool":1010,"Ġloc":1011,"Ġcall":1012,"ren":1013,"17":1014,"ĠĠĠĠĠĠĠĠĠ":1015,"RE":1016,"Ġdata":1017,"Ġph":1018,"__":1019,"pon":1020,"ĠWe":1021,"('":1022,"Ġbr":1023,"Ġdif":1024,"ts":1025,"ible":1026,"ox":1027,"cond":1028,"Ġyears":1029,"read":1030,"../../":1031,"ason":1032,"Ġent":1033,"Ġrequ":1034,"resent":1035,"Ġthen":1036,"Ch":1037,"uth":1038,"30":1039,"Ġfl":1040,"))":1041,"Ġel":1042,"man":1043,"vent":1044,"Name":1045,"der":1046,"oh":1047,"name":1048,"az":1049,"ists":1050,"lection":1051,"els":1052,"math":1053,"gan":1054,"Ġuse":1055,"ines":1056,"Ġagain":1057,"ince":1058,"ĠAn":1059,"erson":1060,"Ġtype":1061,"ĠCl":1062,"Ġneed":1063,"Ġshow":1064,"14":1065,"html":1066,"ween":1067,"cc":1068,"hip":1069,"text":1070,"Ġresult":1071,"att":1072,"Ġsuch":1073,"Ġvalue":1074,"ished":1075,"Ġthese":1076,"Ġwell":1077,"Type":1078,"ĠAmeric":1079,"Ġco":1080,"led":1081,"Ġcould":1082,"day":1083,"Ġused":1084,"other":1085,"ble":1086,"ier":1087,"ww":1088,"ethod":1089,"cent":1090,"ner":1091,"ST":1092,"ision":1093,"raph":1094,"ages":1095,"ID":1096,"Ġgr":1097,"13":1098,"hen":1099,"param":1100,"ym":1101,"ature":1102,"âĢľ":1103,"AT":1104,"25":1105,"iversity":1106,"uction":1107,"ĠWh":1108,"son":1109,"ral":1110,"Con":1111,"Ġacc":1112,"urrent":1113,"uff":1114,"oci":1115,"ful":1116,"dd":1117,"Ġform":1118,"import":1119,"way":1120,"Ġhref":1121,"Ġstart":1122,"Ġfollow":1123,"Com":1124,"alse":1125,"Ġline":1126,"Ġbetween":1127,"Ġi":1128,"ider":1129,"Ġdr":1130,".âĢĿ":1131,"ouse":1132,"'t":1133,"Ġnow":1134,"}}":1135,"String":1136,"ache":1137,"return":1138,"trans":1139,"Id":1140,"ments":1141,"ript":1142,"fl":1143,"Ġself":1144,"ask":1145,"Ġbeing":1146,"Cont":1147,"source":1148,"alth":1149,"right":1150,"ĠZ":1151,"Ġinst":1152,"ĠQ":1153,"2020":1154,"fore":1155,"col":1156,"ey":1157,"imes":1158,"uary":1159,"Ġchar":1160,"view":1161,"Ġshould":1162,"ĠSc":1163,"ined":1164,"of":1165,"message":1166,"plic":1167,"Ġdist":1168,"Ġmany":1169,"aking":1170,"Ġart":1171,"emb":1172,"000":1173,"Ġeff":1174,"AR":1175,"htt":1176,"orth":1177,"Ġlong":1178,"ĠEx":1179,"au":1180,"ik":1181,"Ġcre":1182,"Ġcount":1183,"ives":1184,"Ġevery":1185,"Ref":1186,"ĠInd":1187,"Ġknow":1188,"Ġdid":1189,"ets":1190,"Ġsm":1191,"ience":1192,"min":1193,"formation":1194,"ple":1195,"Ġconst":1196,"td":1197,"Ġright":1198,"ting":1199,"ants":1200,"198":1201,"ern":1202,"It":1203,"Ġdiffer":1204,"ĠDe":1205,"ĠAnd":1206,"Cl":1207,"Ġser":1208,"ault":1209,"Ġ!":1210,"Ġsystem":1211,"Ġmake":1212,"Ġown":1213,"Ġed":1214,"##":1215,"def":1216,"OR":1217,"Ġbefore":1218,"lation":1219,"ized":1220,"Ġsign":1221,"ument":1222,"press":1223,"Ġtest":1224,"Ġfound":1225,"ception":1226,"Res":1227,"Ġhel":1228,"ution":1229,"ee":1230,"Ġsur":1231,"ody":1232,"ology":1233,"tain":1234,"Ġhigh":1235,"Ġgu":1236,"ĠCon":1237,"self":1238,"ĠFor":1239,"ather":1240,"Ġmade":1241,"Ar":1242,"Ġmon":1243,"Ġgener":1244,"add":1245,"abel":1246,"^{":1247,"ism":1248,"Ġfam":1249,"uss":1250,"iness":1251,"Ġdet":1252,"outh":1253,"ired":1254,"ersion":1255,"Ġmin":1256,"ever":1257,"Ġwhile":1258,"Ġteam":1259,"Ġeven":1260,"Ġread":1261,"ric":1262,"ten":1263,"Ġear":1264,"Ġ=>":1265,"aj":1266,"Ġmed":1267,"code":1268,"Ġsupport":1269,"iver":1270,"EN":1271,"Ġlook":1272,"Ġbecause":1273,"itle":1274,"gram":1275,"AL":1276,"ole":1277,"Ġnumber":1278,"ĠCol":1279,"Ġsee":1280,"by":1281,"ivate":1282,"50":1283,"cept":1284,"Ġcent":1285,".\"":1286,"org":1287,"Ġlead":1288,"alk":1289,"type":1290,"Ġ_":1291,"yle":1292,"ĠFr":1293,"velop":1294,"Ġpoint":1295,"Ġsim":1296,"Ġworld":1297,"Ġduring":1298,"Ġfinal":1299,"fo":1300,"chn":1301,"}\\":1302,"back":1303,"Ġdevelop":1304,"Ġdec":1305,"/>":1306,"ule":1307,"22":1308,"Ġlist":1309,"Ġway":1310,"iving":1311,"ream":1312,"class":1313,"Ġvery":1314,"Ġdoes":1315,"ĠIs":1316,"ared":1317,"Ġlast":1318,"br":1319,"):":1320,"}$":1321,"ury":1322,"ital":1323,"Ġbel":1324,"esc":1325,"Ġthree":1326,"Ġexper":1327,"ternal":1328,"ross":1329,"ball":1330,"Tr":1331,"List":1332,"ĠUniversity":1333,"yp":1334,"ina":1335,"usiness":1336,"ĠAs":1337,"Ġdown":1338,"Ġboth":1339,"Ġeach":1340,"24":1341,"Ġoper":1342,"Ġsame":1343,"ĠPh":1344,"Ġhand":1345,"pre":1346,"LE":1347,"ele":1348,"},":1349,"Ġ==":1350,"ote":1351,"Ġrun":1352,"Ġcase":1353,"rol":1354,"Ġcor":1355,"Ġnull":1356,"work":1357,"197":1358,"Ġmov":1359,"ister":1360,"Ġval":1361,"\"/>":1362,"ĠPl":1363,"val":1364,"ĠMar":1365,"ense":1366,"eter":1367,"ĠBl":1368,"umm":1369,"ically":1370,"Ġthose":1371,"bl":1372,"usic":1373,"ĠYou":1374,"ually":1375,"gy":1376,"Ġcr":1377,"ott":1378,"âĢ¦":1379,"Ġsecond":1380,"Ġhelp":1381,"Ġvoid":1382,"Ġtrue":1383,"ute":1384,"Refer":1385,"ural":1386,"Ġrele":1387,"ĠBr":1388,"ĠJan":1389,"action":1390,"Ġstate":1391,"ĠPr":1392,"Ġmuch":1393,"Ġest":1394,"ĠShe":1395,"Ġcar":1396,"AN":1397,"arm":1398,"arent":1399,"Ġche":1400,"Ġcommun":1401,"Ġav":1402,"Ġgood":1403,"Ġext":1404,"Ġwrit":1405,"ober":1406,"ional":1407,"co":1408,"ĠComm":1409,"uck":1410,"Ġdirect":1411,"SS":1412,"egin":1413,"ser":1414,"til":1415,"Ġdon":1416,".,":1417,"ces":1418,"Ġelse":1419,"Ġdisc":1420,"ohn":1421,"Ġfind":1422,"Ġerr":1423,"Ġreport":1424,"Ġbuild":1425,"Ã©":1426,"Ġ`":1427,",âĢĿ":1428,"ĠâĢĺ":1429,"Ġthink":1430,"ĠRes":1431,"ency":1432,"Ġrep":1433,"ĠOn":1434,"ta":1435,"We":1436,"ĠâĢĶ":1437,"iven":1438,"yn":1439,"Ġwant":1440,"var":1441,"Ġfr":1442,"ified":1443,"ness":1444,"Ġcontin":1445,"mod":1446,"ived":1447,"Ġcap":1448,"Ġchild":1449,"ength":1450,"istory":1451,"translation":1452,"Ġsl":1453,"ĠLe":1454,"Ġmark":1455,"ĠRe":1456,"Ġhere":1457,"arget":1458,"ains":1459,"akes":1460,"Ġ>":1461,"ght":1462,"ĠMay":1463,"ĠSp":1464,"To":1465,"Ġgl":1466,"23":1467,"ization":1468,"ases":1469,"Ġpass":1470,"perty":1471,"ission":1472,"Wh":1473,"ĠAmerican":1474,"ley":1475,"iev":1476,"Ġ)":1477,"Ġdifferent":1478,"par":1479,"ĠAd":1480,"(\\":1481,"Ġagainst":1482,"med":1483,"enn":1484,"Ġinformation":1485,"Ġincluding":1486,"ponse":1487,"Ġperson":1488,"Ġlife":1489,"Ġperform":1490,"ĠIf":1491,"omen":1492,"ĠEng":1493,"rop":1494,"ron":1495,"me":1496,"une":1497,"Ġgame":1498,"ify":1499,"string":1500,"ety":1501,"ample":1502,"come":1503,"Ġopen":1504,"Ġstill":1505,"ounc":1506,"Ġusing":1507,"Ġsing":1508,"ality":1509,"ger":1510,"Ġcurrent":1511,"Ġappro":1512,"for":1513,"));":1514,"ven":1515,"bject":1516,"Ġfalse":1517,"ats":1518,"IT":1519,"uthor":1520,"begin":1521,"Ġlink":1522,"Ġhead":1523,"\"><":1524,"reen":1525,"196":1526,"********":1527,"Ġcare":1528,"Ġpartic":1529,"Ġrecord":1530,"Ġbook":1531,"Ġaround":1532,"References":1533,"Ġweek":1534,"roll":1535,"Ġimport":1536,"Ġmain":1537,"Ġpop":1538,"Ġsol":1539,"32":1540,"ĠAll":1541,"Ġtake":1542,"This":1543,"loc":1544,"bs":1545,"40":1546,"Ġschool":1547,"ane":1548,"nment":1549,"que":1550,"rr":1551,"Ġapp":1552,"Ġpat":1553,"Ġvis":1554,"----------------":1555,"arn":1556,"istr":1557,"ava":1558,"100":1559,"duc":1560,"ĠOr":1561,"uro":1562,"Ġday":1563,"Ġprocess":1564,"ump":1565,"Ġimp":1566,"play":1567,"ĠUnited":1568,"Ġtop":1569,"ĠĠĠĠĠĠĠĠĠĠĠĠĠĠĠĠĠĠĠĠĠĠĠ":1570,"be":1571,"ĠBut":1572,"Ġgover":1573,"side":1574,"Ġfact":1575,"Ġcour":1576,"ird":1577,"Ġpost":1578,"idth":1579,"ially":1580,"By":1581,"oad":1582,"ler":1583,"oard":1584,"Ġdesc":1585,"lear":1586,"ush":1587,"Ġcond":1588,"Ġsom":1589,"Ġann":1590,"atus":1591,"ĠX":1592,"data":1593,"AC":1594,"ĠAss":1595,"On":1596,"ervice":1597,"Ġbre":1598,"ends":1599,"An":1600,"ĠHow":1601,"ium":1602,"Un":1603,"ior":1604,"Ġdesign":1605,"Ġ--":1606,"cal":1607,"here":1608,"eta":1609,"opt":1610,"Ġequ":1611,"Ġprovid":1612,"Ġgroup":1613,"mp":1614,"rist":1615,"itions":1616,"Ġke":1617,"Ġappe":1618,"urs":1619,"aining":1620,"Ġbest":1621,"new":1622,"Ġprogram":1623,"SE":1624,"Value":1625,"Ġrece":1626,"uccess":1627,"ows":1628,"Ġsince":1629,"Ġdel":1630,"cont":1631,"illion":1632,"ai":1633,"Data":1634,"ĠNov":1635,"date":1636,"Ġx":1637,"Col":1638,"////":1639,"Ġfield":1640,"\");":1641,"oss":1642,"por":1643,"Ġfour":1644,"ternational":1645,"2019":1646,"Ġprivate":1647,"Ġpres":1648,"Ġprot":1649,"Ġfin":1650,"reg":1651,"26":1652,"Ġdep":1653,"bar":1654,"ĠCent":1655,"aving":1656,"ĠMan":1657,"28":1658,"Ġsay":1659,"less":1660,"ĠJohn":1661,"ised":1662,"lish":1663,"Ġplace":1664,"ots":1665,"ĠThey":1666,"ĠUS":1667,"27":1668,"As":1669,"ĠĠĠĠĠĠĠĠĠĠĠĠĠ":1670,"Ġprof":1671,"ope":1672,"2018":1673,"load":1674,"ograph":1675,"ploy":1676,"Ġstring":1677,"lex":1678,"Ġeffect":1679,"af":1680,"Ġexpect":1681,"Ġadv":1682,"value":1683,"uly":1684,"Ġmust":1685,"vious":1686,"ĠCount":1687,"ĠCan":1688,"face":1689,"Ġseason":1690,"2016":1691,"_{\\":1692,"ocial":1693,"ĠGr":1694,"Ġnext":1695,"Ġbusiness":1696,"acy":1697,"ected":1698,"Ġref":1699,"Ġevent":1700,"Ġlaw":1701,"2017":1702,"Ġfamily":1703,"ĠCar":1704,"Ġmet":1705,"Ġhome":1706,"head":1707,"left":1708,"Sh":1709,"umn":1710,"aces":1711,"Ġorder":1712,"embers":1713,"Ġmethod":1714,"Ġ/**":1715,"Ġsmall":1716,"Ġorgan":1717,"ager":1718,"label":1719,"Ġreal":1720,"Ġorig":1721,"Ġnon":1722,"aff":1723,"ĠBe":1724,"time":1725,"itor":1726,"ĠAp":1727,"urch":1728,"ulation":1729,"not":1730,"Ġobject":1731,"Ġgreat":1732,"aster":1733,"Ġpower":1734,"Ġkey":1735,"gr":1736,"Ġid":1737,"Ġiss":1738,"}{":1739,"Ġposs":1740,"\")":1741,"unc":1742,"etwork":1743,"comm":1744,"amb":1745,"ths":1746,"Ġincre":1747,"idd":1748,"Ġstand":1749,"Ġwin":1750,"Ġlevel":1751,"ustom":1752,"Ġopt":1753,"Ġtechn":1754,"Ġcharact":1755,"Ġlocal":1756,"ped":1757,"ĠĠĠĠĠĠĠĠĠĠĠĠĠĠĠĠĠĠĠĠĠĠĠĠĠĠĠĠĠĠĠĠ":1758,"IC":1759,"irc":1760,"Ġexpl":1761,"ĠOct":1762,"field":1763,"Ġfollowing":1764,"Ġold":1765,"Ġfilm":1766,"ailable":1767,"ĠĠĠĠĠĠ":1768,"ĠTe":1769,"2015":1770,")$":1771,"Ġ&&":1772,"Set":1773,"ling":1774,"29":1775,"requ":1776,"rem":1777,"Ġterm":1778,"Ġbro":1779,"ports":1780,"For":1781,"ummary":1782,"struct":1783,"ocument":1784,"ME":1785,"ape":1786,"ene":1787,"âĢĶ":1788,"Exception":1789,"ately":1790,"ering":1791,"raw":1792,"ĠAug":1793,"ries":1794,"ference":1795,"Ġleg":1796,"Ġleft":1797,"search":1798,"opy":1799,"ways":1800,"item":1801,"Ġsays":1802,"];":1803,"DE":1804,"ĠAust":1805,"],":1806,"vir":1807,"olv":1808,"Ġproject":1809,"ians":1810,"Ġ///":1811,"ĠPol":1812,"Ġanother":1813,"Ġbu":1814,"ively":1815,"my":1816,"ĠWorld":1817,"atter":1818,"Ġpresent":1819,"Ind":1820,"hes":1821,"umb":1822,"sub":1823,"uman":1824,"Ġlater":1825,"========":1826,"ourn":1827,"ords":1828,"2014":1829,"tract":1830,"ought":1831,"iam":1832,"Ġdem":1833,"Object":1834,"Get":1835,"Ġseries":1836,"CO":1837,"RO":1838,"Ġcalled":1839,"angu":1840,"ories":1841,"wit":1842,"Ġsk":1843,"He":1844,"2021":1845,"Ġoffic":1846,"ĠAt":1847,"rror":1848,"ination":1849,"ugg":1850,"ajor":1851,"go":1852,"Ġarg":1853,"Ġconsider":1854,"Ġstatic":1855,"oin":1856,"arge":1857,"($":1858,"ĠNational":1859,"Ġknown":1860,"Ġwithout":1861,"aim":1862,"px":1863,"roid":1864,"ĠJanuary":1865,"ability":1866,"ĠMed":1867,"Ġhtt":1868,"Ġsever":1869,"order":1870,"Ġcompany":1871,"ĠStates":1872,"ney":1873,"Ġ!=":1874,"mber":1875,"Ġmusic":1876,"Ġinvest":1877,"inc":1878,"off":1879,"Ġfoot":1880,"ateg":1881,"Ġgoing":1882,"ĠApr":1883,"Ġaut":1884,"http":1885,"ideo":1886,"Ġelect":1887,"ential":1888,"ended":1889,"ground":1890,"ĠÂ":1891,"Se":1892,"icle":1893,"Ġgiven":1894,"CT":1895,"33":1896,"nb":1897,"wards":1898,"Ġplayers":1899,"ĠYork":1900,"Ġhealth":1901,"www":1902,"obal":1903,"oun":1904,"iter":1905,"Al":1906,"ĠTo":1907,"Ġinterest":1908,"Ġreally":1909,"ĠGu":1910,"ware":1911,"Ġfew":1912,"ained":1913,"Ġview":1914,"Ġspe":1915,"Ġ%":1916,"Ġpolit":1917,"ales":1918,"Ġuntil":1919,"ittle":1920,"ription":1921,"ĠString":1922,"rite":1923,"Ġtoo":1924,"Ġtry":1925,"Ġexp":1926,"Ġbeh":1927,"frac":1928,"ĠMarch":1929,"Ġwithin":1930,"ĠSchool":1931,"conom":1932,"ogle":1933,"bum":1934,"2013":1935,"ony":1936,"Ġbased":1937,"Ġtitle":1938,"().":1939,"Ġtri":1940,"ails":1941,"ĠEd":1942,"test":1943,"ctions":1944,"Ġeng":1945,"ival":1946,"Ġchang":1947,"vers":1948,"icy":1949,"leg":1950,"ently":1951,"ptember":1952,"arr":1953,"Ġturn":1954,"Ġz":1955,"LL":1956,"ague":1957,"Test":1958,"itional":1959,"')":1960,"ĠCO":1961,"Ġla":1962,"ivid":1963,"ording":1964,"ison":1965,"Ġhapp":1966,"ĠMin":1967,"Ġpar":1968,"ait":1969,"cember":1970,"Ġinit":1971,"uffer":1972,"Ġnear":1973,"list":1974,"apt":1975,"aut":1976,"stand":1977,"60":1978,"Sc":1979,"ources":1980,"Ġtem":1981,"ĠSouth":1982,"oman":1983,"2012":1984,"ems":1985,"vert":1986,"epend":1987,"._":1988,"ights":1989,"urity":1990,"Ġret":1991,"ica":1992,"uk":1993,"itive":1994,"ĠFl":1995,"ored":1996,"nbsp":1997,"Ġservice":1998,"eq":1999,"aint":2000,"file":2001,"Mod":2002,"ocus":2003,"Ġgovernment":2004,"ĠDr":2005,"ung":2006,"agement":2007,"ĠNo":2008,"Ġgrow":2009,"());":2010,"Ġsuccess":2011,"Ġmodel":2012,"Ġarea":2013,"urope":2014,"Ġmult":2015,"ĠGe":2016,"log":2017,"Ġred":2018,"ED":2019,"Ġavailable":2020,"ients":2021,"ift":2022,"Ġocc":2023,"Ġorg":2024,"ĠJune":2025,"ĠCo":2026,"umer":2027,"util":2028,"64":2029,"size":2030,"Ġallow":2031,"ĠThere":2032,"Im":2033,"ches":2034,"194":2035,"https":2036,"gin":2037,"Ġaccess":2038,"Ġput":2039,"amed":2040,"osp":2041,"ĠState":2042,"ION":2043,"Ġnever":2044,"ĠWar":2045,"Ġresp":2046,"Class":2047,"rm":2048,"ĠOctober":2049,"fe":2050,"ari":2051,"ĠChrist":2052,"ilt":2053,"thing":2054,"ĠCounty":2055,"ĠFeb":2056,"ours":2057,"Ġet":2058,"Ġdeath":2059,"Ġanal":2060,"ands":2061,"ertain":2062,"Ġbig":2063,"lege":2064,"Ġins":2065,"].":2066,"ĠAugust":2067,"function":2068,"Ġalong":2069,"ĠJuly":2070,"uit":2071,"Ġstruct":2072,"Error":2073,"ances":2074,"ĠCity":2075,"\".":2076,"AP":2077,"ĠSeptember":2078,"2010":2079,"Ġfull":2080,"ĠApril":2081,"Re":2082,"location":2083,"ĠCal":2084,"Ġident":2085,"ession":2086,"ending":2087,"ued":2088,"ising":2089,"})":2090,"viron":2091,"AS":2092,"ĠNovember":2093,"wh":2094,"uration":2095,"Ap":2096,"ibr":2097,"195":2098,"Ġdev":2099,"ĠAb":2100,"yl":2101,"Ġchange":2102,"ention":2103,"ĠDecember":2104,"link":2105,"iod":2106,"ĠReg":2107,"Ġproduct":2108,"ribute":2109,"aps":2110,"Ġaff":2111,"Ġprom":2112,"Ġlinks":2113,"Ġrest":2114,"Ġ,":2115,"urther":2116,"2011":2117,"ething":2118,"ification":2119,"80":2120,"agn":2121,"ards":2122,"Ġconf":2123,"ĠRep":2124,"ĠBrit":2125,"ume":2126,"Ġfile":2127,"Ġmembers":2128,"Ġsong":2129,"rc":2130,"Ġthrow":2131,"uce":2132,"Ġwomen":2133,"Ġlim":2134,"Ġquest":2135,"Ġelement":2136,"summary":2137,"isk":2138,"View":2139,"Ġlet":2140,"35":2141,"Ġearly":2142,"Ġfac":2143,"Ġproble":2144,"ured":2145,"cast":2146,"Ġactiv":2147,"ably":2148,"Ġstory":2149,"Ġless":2150,"Ġoriginal":2151,"Ġrequest":2152,"New":2153,"Ġsize":2154,"Ġcontent":2155,"With":2156,"uture":2157,"Ġinclude":2158,"Ġbo":2159,"ones":2160,"Ġchildren":2161,"');":2162,"alf":2163,"ĠSup":2164,"ready":2165,"anguage":2166,"Qu":2167,"Key":2168,"ĠNorth":2169,"Ġbetter":2170,"ced":2171,"Ġvari":2172,"uf":2173,"Ġshort":2174,"iles":2175,"Ġcountry":2176,"Ġmajor":2177,"Ġcity":2178,"Ġseveral":2179,"Ġgot":2180,"Ġparam":2181,"IS":2182,"ĠAustral":2183,"31":2184,"ĠWill":2185,"ĠEn":2186,"ĠEurope":2187,"ĠMc":2188,"aus":2189,"$.":2190,"Requ":2191,"url":2192,"Ġmar":2193,"Ġcome":2194,"cite":2195,"top":2196,"Ġplan":2197,"ES":2198,"but":2199,"Ġfree":2200,"ĠPart":2201,"stit":2202,"Ġwon":2203,"Ġwater":2204,"index":2205,"public":2206,"ike":2207,"Ġask":2208,"Âł":2209,"Ġtarget":2210,"Ġestab":2211,"Ġtext":2212,"Ġsingle":2213,"Ġrepresent":2214,"\";":2215,"\":":2216,"Ġfri":2217,"Ġtyp":2218,"Ġalbum":2219,"plication":2220,"ĠSo":2221,"ides":2222,"Ġdescrib":2223,"Ġpubl":2224,"script":2225,"Ġland":2226,"['":2227,"aterial":2228,"Ġfore":2229,"raft":2230,"All":2231,"ilar":2232,"sw":2233,"da":2234,"ĠPar":2235,"earch":2236,"Ġcontrol":2237,"Ġdays":2238,"And":2239,"ĉĉĉĉĉ":2240,"HE":2241,"Ġsit":2242,"Ġeas":2243,"Ġmight":2244,"ruary":2245,"eting":2246,"Not":2247,"Pl":2248,"Ġclos":2249,"mathb":2250,"artment":2251,"empt":2252,"Ġkeep":2253,".</":2254,"dis":2255,"Ġcamp":2256,"Ġinc":2257,"iction":2258,"evel":2259,"Ġimportant":2260,"includ":2261,"ither":2262,"Ġlarge":2263,"Man":2264,"ators":2265,"istor":2266,",\"":2267,"Ġhard":2268,"de":2269,"Ġstudy":2270,"ada":2271,"ilit":2272,"Ġdue":2273,"Ġalways":2274,"pace":2275,"color":2276,"rew":2277,"$,":2278,"Ġcommunity":2279,"UR":2280,"Ġdi":2281,"Ġide":2282,"atures":2283,"ĠAm":2284,"Ġcheck":2285,"aged":2286,"Ġoffer":2287,"ique":2288,"Int":2289,"(),":2290,"Ġ?":2291,"reet":2292,"lected":2293,"box":2294,"vironment":2295,"Ġmen":2296,"ĠChe":2297,"TR":2298,"ham":2299,"Ġresults":2300,"Ġsomething":2301,"pha":2302,"Ġcreate":2303,"Ġstat":2304,"PE":2305,"ĠCont":2306,"ĠWith":2307,"Ġpay":2308,"Ġhistory":2309,"34":2310,"File":2311,"irl":2312,"Ġproduc":2313,"path":2314,"}.":2315,"Ġversion":2316,"Ġthings":2317,"Ġauthor":2318,"Ġbecame":2319,"ĠIm":2320,"ension":2321,"book":2322,"External":2323,"oney":2324,"Ġmillion":2325,"AD":2326,"ui":2327,"Ph":2328,"Time":2329,"ĠGerm":2330,"imate":2331,"Ġtot":2332,"ament":2333,"ules":2334,"ĠRev":2335,"Ġlog":2336,"ĠPres":2337,"Ġlittle":2338,"ouble":2339,"equation":2340,"UT":2341,"js":2342,"nder":2343,"ĠAg":2344,"pert":2345,"ackage":2346,"Ġcharacter":2347,"Add":2348,"Ġside":2349,"ster":2350,"cher":2351,"serv":2352,"Ġcell":2353,"Event":2354,"eters":2355,"Ġport":2356,"ĠThat":2357,"Ġacross":2358,"Ġbreak":2359,"ector":2360,"posed":2361,"ret":2362,"irt":2363,"olution":2364,"Ġsocial":2365,"\"></":2366,"Ġvol":2367,"ĠOff":2368,"pression":2369,"ana":2370,"Ġtimes":2371,"aper":2372,"Ġant":2373,"Or":2374,"90":2375,"oice":2376,"nav":2377,"Ġ);":2378,"ING":2379,"gress":2380,"Ġ/>":2381,"ves":2382,"Ġformer":2383,"Ġpo":2384,"ples":2385,"Ġalready":2386,"Ġassert":2387,"If":2388,"ĠFebruary":2389,"LA":2390,"Ġconc":2391,"Ġindust":2392,"Ġtook":2393,"Ġpath":2394,"Element":2395,"Ġexample":2396,"Ġfeel":2397,"Ġcost":2398,"ags":2399,"Ġbas":2400,"eral":2401,"ĠCor":2402,"ĠEl":2403,"hern":2404,"Is":2405,"down":2406,"ĠĠĠĠĊ":2407,"Ġfootball":2408,"Ġmean":2409,"ried":2410,"Ġstyle":2411,"/*":2412,"2009":2413,"OT":2414,"Ġcover":2415,"Ġresearch":2416,"Ġcomplet":2417,"ĠMe":2418,"Ġenc":2419,"Ġworking":2420,",\\":2421,"Ġair":2422,"struction":2423,"icro":2424,"ply":2425,"idence":2426,"Ġcrit":2427,"Ġpract":2428,"Ġfund":2429,"Ġspecial":2430,"Ġerror":2431,"36":2432,"Ġsec":2433,"Ġyoung":2434,"37":2435,"ĠGl":2436,"']":2437,"ief":2438,"Ġfar":2439,"En":2440,"urg":2441,"ender":2442,"iol":2443,"ĠWest":2444,"Def":2445,"Ġaway":2446,"Ġbeliev":2447,"Ġimpro":2448,"Ġmeas":2449,"Ġlove":2450,"Ġcult":2451,"ae":2452,"ĠArt":2453,"ĠHowever":2454,"ailed":2455,"ĠNews":2456,"Ġeduc":2457,"ze":2458,"comp":2459,"pen":2460,"Ġgames":2461,"99":2462,"aring":2463,"ĠBy":2464,"2008":2465,"Ġclear":2466,"ĠAc":2467,"aken":2468,"mathcal":2469,"Ġhouse":2470,"Ġmaking":2471,"Ġbir":2472,"Info":2473,"Ġhuman":2474,"Ġtrad":2475,"Ġservices":2476,"/**":2477,"abor":2478,"Request":2479,"ino":2480,"Bl":2481,"Node":2482,"ĠAct":2483,"Over":2484,"Ġprovide":2485,"Ġlot":2486,"aul":2487,"':":2488,"indow":2489,"const":2490,"Ġemploy":2491,"ividual":2492,"45":2493,"Ġprevious":2494,"ondon":2495,"Ġclaim":2496,"ĠSystem":2497,"Ġposition":2498,"table":2499,"Ġbecome":2500,"Ġleast":2501,"ĠBar":2502,"Ġhaving":2503,"Field":2504,"Ġtrack":2505,"Ġlarg":2506,"now":2507,"length":2508,"ops":2509,"Ġstudents":2510,"stance":2511,"Ġreview":2512,"Ġcompet":2513,"oph":2514,"emic":2515,"Ġfive":2516,"Ġpast":2517,"Ġep":2518,"ET":2519,"Equ":2520,"ners":2521,"ecut":2522,"part":2523,"Ġoften":2524,"inter":2525,"hold":2526,"ĠComp":2527,"Ġdevelopment":2528,"Ġsite":2529,"dom":2530,"Ġamong":2531,"At":2532,"Ġpot":2533,"IG":2534,"Ġcustom":2535,"Ġable":2536,"ĠSer":2537,"Ġarr":2538,"Ġhold":2539,"Ġaddress":2540,"Text":2541,"lev":2542,"ĠQu":2543,"Ġhig":2544,"ournal":2545,"Ġassoci":2546,"Ġlik":2547,"Ġrad":2548,"group":2549,"ĠGo":2550,"Ġbase":2551,"Ġcame":2552,"ĠAfr":2553,"Config":2554,"State":2555,"FF":2556,"apan":2557,"Ġblock":2558,"39":2559,"ĠDav":2560,"Ġphot":2561,"Ġperiod":2562,"igned":2563,"ĠKing":2564,"But":2565,"Ġuser":2566,"VID":2567,"gether":2568,"Ġtogether":2569,"Ġwar":2570,"lete":2571,"!--":2572,"Ġ/*":2573,"odes":2574,"icon":2575,"Path":2576,"ibility":2577,"avel":2578,"ĠPark":2579,"aced":2580,"=\"../../":2581,"user":2582,"ĠOne":2583,"olean":2584,"Ġparticular":2585,"ips":2586,"ĠEm":2587,"38":2588,"asc":2589,"Ġmat":2590,"70":2591,"Ġpossible":2592,"US":2593,"sk":2594,"alt":2595,"ills":2596,"ux":2597,"Ġexperience":2598,"error":2599,"ogn":2600,"ington":2601,"Ġspace":2602,"ĠWhen":2603,"oud":2604,"ysis":2605,"Ġrole":2606,"oken":2607,"Ġexist":2608,"####":2609,"ĠPer":2610,"ids":2611,"iff":2612,"ride":2613,"ĠAfter":2614,"width":2615,"ĠRec":2616,"Form":2617,"ĠHouse":2618,"Index":2619,"Ġreleased":2620,"Ġaction":2621,"Ġlight":2622,"Ġplayed":2623,"Ġmember":2624,"AM":2625,"na":2626,"lang":2627,"}(":2628,"idge":2629,"gl":2630,"md":2631,"oon":2632,"ĠDis":2633,"ĠII":2634,"Ġtalk":2635,"Ġlow":2636,"ĠHis":2637,"Ġrequire":2638,"Ġgen":2639,"era":2640,"Ġeconom":2641,"most":2642,"api":2643,"ille":2644,"Ġnational":2645,"Context":2646,"point":2647,"Ġnetwork":2648,"Ġfocus":2649,"Ġcomb":2650,"Ġthought":2651,"What":2652,"Param":2653,"though":2654,"Ġsix":2655,"uments":2656,"ocr":2657,"Ġwebs":2658,"Ġjob":2659,"())":2660,"body":2661,"Ġthird":2662,"Ġrange":2663,"lease":2664,"Ġdom":2665,"rel":2666,"ampions":2667,"01":2668,"ping":2669,"Ġresponse":2670,"Pr":2671,"Ġaccount":2672,"Ġstrong":2673,"acc":2674,"ography":2675,"eh":2676,"Ġvideo":2677,"Ġra":2678,"Ġarray":2679,"Ġgive":2680,"Ġage":2681,"Ġparent":2682,"ged":2683,"Ġbody":2684,"Ġsource":2685,"rest":2686,"uation":2687,"ĠDep":2688,"Ġmedia":2689,"Ġthough":2690,"sel":2691,"ĠMark":2692,"Ġwhy":2693,"unity":2694,"Ġfuture":2695,"ormal":2696,"void":2697,"ĠNot":2698,"oke":2699,"define":2700,"Map":2701,"ĠSm":2702,"Ġtotal":2703,"roups":2704,"oper":2705,"ĠDo":2706,"ĠHer":2707,"Ġgeneral":2708,"You":2709,"Ġhost":2710,"à¤":2711,"Ġnews":2712,"bol":2713,"Ġexc":2714,"Ġener":2715,"Ġsignific":2716,"nect":2717,"Ġ});":2718,"2007":2719,"Ġpri":2720,"Ġothers":2721,"ĠLondon":2722,"Ġ(!":2723,"Ġinvolv":2724,"``":2725,"illed":2726,"alpha":2727,"Ġtreat":2728,"init":2729,"Ġtell":2730,"UN":2731,"ĠGet":2732,"Ġindividual":2733,"Ġseen":2734,"LO":2735,"Ġbuilding":2736,"irm":2737,"};":2738,"perties":2739,"ĠChar":2740,"amespace":2741,"unk":2742,"yd":2743,"ald":2744,"Ġflo":2745,"How":2746,"tra":2747,"Ġdefault":2748,"iment":2749,"Ġabove":2750,"Ġfurther":2751,"eturn":2752,"ayer":2753,"Ġtoday":2754,"Ġkind":2755,"atform":2756,"Ġheld":2757,"itted":2758,"array":2759,"no":2760,"Ġ__":2761,"ached":2762,"ĠRuss":2763,"Ġlive":2764,"ouncil":2765,"Ġsimilar":2766,"Ġstarted":2767,"ological":2768,"ration":2769,"Ġben":2770,"Ġmeans":2771,"ĠĠĠĠĠĠĠĠĠĠĠĠĠĠĠĠĠĠĠĠĠĠĠĠĠĠĠ":2772,"Ġonce":2773,"Ġstep":2774,"Ġevents":2775,"Ġrespect":2776,"}^":2777,"=\"+":2778,"nection":2779,"ĠBritish":2780,"Ġtown":2781,"ĠHar":2782,"ĠMy":2783,"Att":2784,"Ġdocument":2785,"Ġdone":2786,"75":2787,"clus":2788,"ĠPe":2789,"ĠBro":2790,"AB":2791,"Ġunderstand":2792,"Ġmatch":2793,"elta":2794,"ese":2795,"sec":2796,"apache":2797,"Ġwent":2798,"ĠHigh":2799,"sy":2800,"Ġcal":2801,"assert":2802,"bt":2803,"config":2804,"word":2805,"Ġreceived":2806,"ĠGener":2807,"Ġcommon":2808,"ĠPresident":2809,"see":2810,"Service":2811,"ĠEnglish":2812,"from":2813,"hel":2814,"ĠCollege":2815,"state":2816,"ĠWhat":2817,"ĠSch":2818,"ables":2819,"Ġ},":2820,"ĠInt":2821,"Ġtre":2822,"Array":2823,"Ġcourse":2824,"From":2825,"System":2826,"oe":2827,"ements":2828,"year":2829,"abled":2830,"ĠUK":2831,"Ġenough":2832,"ĠCr":2833,"ĠAng":2834,"iple":2835,"iet":2836,"rown":2837,"ford":2838,"Ġdidn":2839,"uel":2840,"ama":2841,"****************":2842,"Ġsent":2843,"istic":2844,"ENT":2845,"Ġdest":2846,"ctor":2847,"ĠThese":2848,"align":2849,"Build":2850,"Ġmem":2851,"anies":2852,"aging":2853,"ayout":2854,"Of":2855,"aur":2856,"Ġmarket":2857,"Ġpoints":2858,"Ġdiscuss":2859,"ĠAmerica":2860,"ring":2861,"2006":2862,"Ġproperty":2863,"prot":2864,"Ġsuper":2865,"Ġrelations":2866,"Ġattack":2867,"++":2868,"Ġpage":2869,"Ġvalues":2870,"ĠStud":2871,"pi":2872,"Ġrefer":2873,"Ġcertain":2874,"Ġcareer":2875,"true":2876,"Ġinfl":2877,"uggest":2878,"plate":2879,"Ġcontext":2880,"men":2881,"~\\":2882,"}_":2883,"ened":2884,"iting":2885,"Ġrepl":2886,"Ġmiss":2887,"ĠJapan":2888,"Result":2889,"Ġrequired":2890,"rench":2891,"annel":2892,"ummer":2893,"ered":2894,"55":2895,"inary":2896,"ilities":2897,"Ġcode":2898,"unch":2899,"Ġeither":2900,"ociety":2901,"Ġoptions":2902,"ĠÐ":2903,"mat":2904,"\"\"":2905,"Ġcreat":2906,"Ġnight":2907,"tes":2908,"ĠInternational":2909,"Ġprob":2910,"augh":2911,"////////":2912,"Ġsure":2913,"oo":2914,"Ad":2915,"ounds":2916,"met":2917,"ponent":2918,"irus":2919,"ched":2920,"Ġu":2921,"Ġbegan":2922,"ĠMich":2923,"Ġwhether":2924,"Fr":2925,"Ġmom":2926,"Ġcoll":2927,"CC":2928,"Loc":2929,"Ġstop":2930,"ixed":2931,"Ġpress":2932,"ises":2933,"do":2934,"ĠHealth":2935,"Ġmot":2936,"Ġenergy":2937,"Ġperformance":2938,"ael":2939,"urb":2940,"node":2941,"hib":2942,"Ã¡":2943,"result":2944,"Size":2945,"Trans":2946,"Ġmax":2947,"Ġsignificant":2948,"Ġbit":2949,"Ġphys":2950,"imal":2951,"map":2952,"Ġmakes":2953,"Ġsym":2954,"Hand":2955,"object":2956,"ministr":2957,"ĠList":2958,"ks":2959,"Ġmonths":2960,"Ġ:=":2961,"ambda":2962,"igation":2963,"Ġthing":2964,"section":2965,"Ġproduction":2966,"lin":2967,"ican":2968,"';":2969,"reed":2970,"Ġmaterial":2971,"ude":2972,"Ġdeterm":2973,"Ġbegin":2974,"Ġannounc":2975,"[]":2976,"position":2977,"ĠMon":2978,"ĠAir":2979,"Ġhalf":2980,"Ġintro":2981,"Ġcreated":2982,"ius":2983,"Ġwebsite":2984,"ibrary":2985,"ribution":2986,"Code":2987,"block":2988,"Ġpublished":2989,"44":2990,"Ser":2991,"iddle":2992,"ilter":2993,"MA":2994,"There":2995,"IP":2996,"ij":2997,"version":2998,"Ġdoesn":2999,"ĠSec":3000,"title":3001,"ades":3002,"66":3003,"Comm":3004,"2000":3005,"asing":3006,"Ġes":3007,"mark":3008,"Up":3009,"Ġcases":3010,"anch":3011,"Ġshows":3012,"ivity":3013,"Ġconfig":3014,"Ġtable":3015,"Ġfeature":3016,"attle":3017,"De":3018,"create":3019,"Ġ===":3020,"MP":3021,"ĠLeague":3022,"Ġclose":3023,"ĠCOVID":3024,"Ġtw":3025,"cle":3026,"aves":3027,"Ġbuilt":3028,"CH":3029,"sm":3030,"light":3031,"NA":3032,"Ġsw":3033,"$\\":3034,"ĠCour":3035,"No":3036,"ĠLaw":3037,"Ġyet":3038,"Ġaud":3039,"Val":3040,"Ġmass":3041,"ega":3042,"input":3043,"Ġcur":3044,"05":3045,"Ġelection":3046,"Ġofficial":3047,"call":3048,"Inter":3049,"iforn":3050,"IL":3051,"Ġclub":3052,"Ġmove":3053,"TE":3054,"rix":3055,"Ġnamed":3056,"ĠNe":3057,"with":3058,"fin":3059,"ecess":3060,"quot":3061,"ĠVal":3062,"pm":3063,"aign":3064,"Read":3065,"48":3066,"Ġfood":3067,"Ġincluded":3068,"Ġworks":3069,"Out":3070,"Ġhttp":3071,"sl":3072,"icles":3073,"Ġprim":3074,"amma":3075,"ĠTrump":3076,"ĠTrans":3077,"Ġreason":3078,"atural":3079,"Ġrisk":3080,"ĠĠĊ":3081,"Ġexpected":3082,"Ġonline":3083,"ML":3084,"ottom":3085,"Ġsuggest":3086,"Ġblack":3087,"ĠSw":3088,"=\\":3089,"ĠWilliam":3090,"verage":3091,"aid":3092,"aly":3093,"resp":3094,"ett":3095,"Ġmoney":3096,"ync":3097,"Reg":3098,"pose":3099,"'re":3100,"Ġprofess":3101,"Ġimplement":3102,"aug":3103,"rup":3104,")\\":3105,"ires":3106,"ĠIndia":3107,"Ġobserv":3108,"Ġinput":3109,"ifornia":3110,"Ġinstance":3111,"Ġband":3112,"Ġ-->":3113,"ĠDon":3114,"Message":3115,"Ġcou":3116,"Ġdeal":3117,"estern":3118,"ĠTV":3119,"Ġchall":3120,"lim":3121,"Ġprovided":3122,"='":3123,"....":3124,"Ġtaken":3125,"ites":3126,"ided":3127,"bit":3128,"ĠPhil":3129,"Ġrespons":3130,"Ġindustry":3131,"Ġtold":3132,"ilitary":3133,"Ġarch":3134,"utes":3135,"Ass":3136,"Ġinteg":3137,"Ġvarious":3138,"Ġindic":3139,"Ġmessage":3140,"Ġcolor":3141,"Ġindex":3142,"Ġens":3143,"lished":3144,"Ġabs":3145,"Ġengine":3146,"BC":3147,"Ġfall":3148,"Ġbi":3149,"nes":3150,"escription":3151,"ĠStr":3152,"ĠDem":3153,"ĠUp":3154,"ĠDes":3155,"ĠSan":3156,"Ġinternational":3157,"imum":3158,"ara":3159,"Ġproblem":3160,"ĠMr":3161,"ampionship":3162,"2005":3163,"Dis":3164,"aker":3165,"duced":3166,"sequ":3167,"Ġadded":3168,"cer":3169,"where":3170,"See":3171,"Ġroom":3172,"Ġmonth":3173,"Ġenvironment":3174,"elling":3175,"atory":3176,"ĠCenter":3177,"Ġfeatures":3178,"ĠPat":3179,"Ð°":3180,"medi":3181,"rec":3182,"Ġdiff":3183,"Ġpopulation":3184,"Item":3185,"lient":3186,"Ġlearn":3187,"default":3188,"Ġfav":3189,"unic":3190,"Ġpersonal":3191,"ero":3192,"Ġvia":3193,"based":3194,"Ġreported":3195,"ĠRed":3196,"Ġpur":3197,"bor":3198,"Ġparticip":3199,"Ġpolitical":3200,"Ġcontinue":3201,"CE":3202,"ĠBlack":3203,"ĠIr":3204,"born":3205,"ĠAssoci":3206,"Ġcompanies":3207,"eff":3208,"Ġjava":3209,"ĠIN":3210,"Ġplayer":3211,"OD":3212,"include":3213,"Ġwritten":3214,"info":3215,"utions":3216,"anks":3217,"igital":3218,"igma":3219,"Ġsett":3220,"iation":3221,"Ġ()":3222,"content":3223,"Ġcomput":3224,"Ġdate":3225,"Ġglobal":3226,"Ġlate":3227,"itte":3228,"Count":3229,"Call":3230,"ĠGover":3231,"orge":3232,"Ġactually":3233,"nown":3234,"65":3235,"ĠLa":3236,"ores":3237,"Ġpatients":3238,"ULL":3239,"Ġdiv":3240,"ging":3241,"ivil":3242,"acing":3243,"Ġhom":3244,"istry":3245,"unt":3246,"Ġface":3247,"Ġfront":3248,"Ġvill":3249,"Ġcaus":3250,"Ġappear":3251,"ceed":3252,"SP":3253,"Ġ};":3254,"ĠMor":3255,"Ġregion":3256,"oved":3257,"Ð¾":3258,"Query":3259,"Ġhowever":3260,"Ġsat":3261,"ĠRepublic":3262,"Ġsubject":3263,"ĠSen":3264,"Ġvisit":3265,"board":3266,"ftware":3267,"lt":3268,"istrict":3269,"reate":3270,"icense":3271,"print":3272,"Ġaccording":3273,"ĠAustralia":3274,"Ġquestion":3275,"2004":3276,"dt":3277,"Ġcirc":3278,"Ġbelow":3279,"mit":3280,"ounter":3281,"Ġfilms":3282,"|-":3283,"java":3284,"Ġnode":3285,"Ġentire":3286,"Ġhttps":3287,"ĠMod":3288,"ancial":3289,"Ed":3290,"Ġchanges":3291,"Ġlocated":3292,"Ġrelease":3293,"08":3294,"mu":3295,"ĠCalifornia":3296,"Americ":3297,"Ġmor":3298,"atab":3299,"bo":3300,"sup":3301,"elt":3302,"coming":3303,"ainer":3304,"Ġcomes":3305,"ĠInter":3306,"Log":3307,"aries":3308,"Ġareas":3309,"ĠAdd":3310,"Ġbackground":3311,"Ġroad":3312,"ening":3313,"roller":3314,"Ġago":3315,"--------------------------------":3316,"Table":3317,"Ġrights":3318,"ĠGroup":3319,"Ġaccept":3320,"Ġopport":3321,"49":3322,"Ġannounced":3323,"useum":3324,"Ġmer":3325,"ensive":3326,"parent":3327,"Ġground":3328,"Ġviol":3329,"ospital":3330,".)":3331,"TD":3332,"Ġtechnology":3333,"Ġimage":3334,"Ġobtain":3335,"Ġparty":3336,"aching":3337,"ĠDavid":3338,"pty":3339,"TH":3340,"Ġcut":3341,"ges":3342,"ship":3343,"Ġgroups":3344,"Ġnil":3345,"Ġaddition":3346,"iday":3347,"gen":3348,"Ġrather":3349,"hing":3350,"iber":3351,"chiev":3352,"Ġtax":3353,"ĠMore":3354,"Ġbring":3355,"Sub":3356,"Manager":3357,"emy":3358,"lor":3359,"Ġbenef":3360,"Ġlooking":3361,"Ġpred":3362,"atal":3363,"Ġey":3364,"Ġalmost":3365,"Rec":3366,"orage":3367,"pecially":3368,"ico":3369,"Ġpercent":3370,"ĠStreet":3371,"Ġvot":3372,"09":3373,"Ġsystems":3374,"joy":3375,"start":3376,"Ġissues":3377,"07":3378,"ĠFrom":3379,"unn":3380,"OS":3381,"04":3382,"ved":3383,"ependent":3384,"hat":3385,"avy":3386,"Ġpresident":3387,"Ġlo":3388,"Ġdescribed":3389,"ns":3390,"Ġfight":3391,"IR":3392,"Ġbar":3393,"ĠEast":3394,"base":3395,"Ġimpact":3396,"Ent":3397,"Ġdoing":3398,"Ġlanguage":3399,"oto":3400,"lands":3401,"Ġ\\\\":3402,"atest":3403,"ĠChina":3404,"ĠHol":3405,"ĠIndian":3406,"rect":3407,"cd":3408,"ris":3409,"rip":3410,"Ġnov":3411,"Ġson":3412,"Ġneeds":3413,"amples":3414,"net":3415,"arter":3416,"Ġcy":3417,"Ġattempt":3418,"ĠBook":3419,"ĠClass":3420,"Ġhours":3421,"Ġdecl":3422,"ĠFrench":3423,"Ġfire":3424,"Ġdisplay":3425,"iences":3426,"Ġsex":3427,"Ġterms":3428,"ifier":3429,"Ġneg":3430,"Ġspecies":3431,"Ġtaking":3432,"valid":3433,"Ġestablished":3434,"Ġbehind":3435,"reak":3436,"ishing":3437,"selves":3438,"ĠSim":3439,"Ġspecific":3440,"47":3441,"Ġled":3442,"Ġcollection":3443,"using":3444,"ĠJust":3445,"ĠPort":3446,"ĠSk":3447,"Ġrecogn":3448,"mathbb":3449,"google":3450,"ĠInstit":3451,"\\\\":3452,"Ġill":3453,"Ġhistor":3454,"Ġimm":3455,"Ġpers":3456,"bf":3457,"ĠCons":3458,"ĠAcc":3459,"Sp":3460,"06":3461,"Ġwalk":3462,"Ġeffort":3463,"OP":3464,"omb":3465,"Ġfather":3466,"Model":3467,"ection":3468,"ouch":3469,"Ġmap":3470,"fully":3471,"Ġwhole":3472,"Ġstation":3473,"wood":3474,"gt":3475,"=\"../../../../":3476,"Ðµ":3477,"}^{":3478,"Ġgrad":3479,"ederal":3480,"ĉĉĉĉĉĉ":3481,"Ġdistr":3482,"nov":3483,"ĠDay":3484,"hand":3485,"02":3486,"max":3487,"ha":3488,"uz":3489,"Ġamount":3490,"Ġseem":3491,"fect":3492,"Ġbad":3493,"Comp":3494,"ĠĠĠĠĠĠĠĠĠĠĠĠ":3495,"Ġcentury":3496,"Be":3497,"ĠDepartment":3498,"Arg":3499,"When":3500,"ĠFirst":3501,"Ġsearch":3502,"ĠEngland":3503,"Ġwatch":3504,"Ġpopular":3505,"Ġrelationship":3506,"_\\":3507,"ĠDef":3508,"evelop":3509,"oyal":3510,"Ġlength":3511,"anel":3512,"Ġinj":3513,"icult":3514,"Ab":3515,"ado":3516,"Ġ...":3517,"ĠOf":3518,"anced":3519,"Ġwords":3520,"Ġstaff":3521,"AG":3522,"Ġsrc":3523,"Property":3524,"Ġborn":3525,"ĠDirect":3526,"Ġlost":3527,"ĠTest":3528,"Ġrev":3529,"efore":3530,"Em":3531,"next":3532,"arning":3533,"ellow":3534,"Ġarticle":3535,"Ġeducation":3536,"Ġsection":3537,"Ġhigher":3538,"used":3539,"ynam":3540,"Ġinitial":3541,"iers":3542,"method":3543,"Ġhon":3544,"roy":3545,"doc":3546,"build":3547,"Ġmind":3548,"Ġpotential":3549,"ho":3550,"inn":3551,"omet":3552,"context":3553,"ĠAnt":3554,"android":3555,"Ġshare":3556,"Ġtraining":3557,"ida":3558,"izing":3559,"irtual":3560,"500":3561,"ĠCanada":3562,"active":3563,"Ġcontract":3564,"Ġcontact":3565,"After":3566,"Gener":3567,"Ġgetting":3568,"Ġwhite":3569,"Ġpolice":3570,"ulated":3571,"Ġheart":3572,"Ġquick":3573,"03":3574,"Ġsepar":3575,"Ġlikely":3576,"Ġcross":3577,"quad":3578,"ĠJames":3579,"duction":3580,"ĠGod":3581,"Ġoffice":3582,"Ġinstead":3583,"style":3584,"arrow":3585,"Ġborder":3586,"ĠCouncil":3587,"ĠEar":3588,"Ġdeg":3589,"rupt":3590,"Pre":3591,"Ġprint":3592,"ech":3593,"aven":3594,"IV":3595,"rote":3596,"web":3597,"Ġincludes":3598,"Ġprote":3599,"ĠDistrict":3600,"Ġbool":3601,"Ġfig":3602,"ĠWork":3603,"atives":3604,"count":3605,"Ġsound":3606,"mon":3607,"Ġsold":3608,"Ġpolicy":3609,"Ġfriend":3610,"Ġrate":3611,"Ġconsidered":3612,"}_{":3613,"ptions":3614,"Ġcampaign":3615,"la":3616,"Ġfem":3617,"Ġrecent":3618,"witch":3619,"contain":3620,"actory":3621,"mission":3622,"raz":3623,"Client":3624,"ĠCap":3625,"ĠPal":3626,"phi":3627,"Color":3628,"udd":3629,"ĠÃ":3630,"ĠMal":3631,"2003":3632,"Ġround":3633,"Ġloss":3634,"change":3635,"User":3636,"ledge":3637,"ittee":3638,"Ġstatus":3639,"yr":3640,"ees":3641,"andom":3642,"Ġaverage":3643,"Ġbroad":3644,"Ġissue":3645,"ĠAP":3646,"Ġlower":3647,">&":3648,"Ġmag":3649,"Ġworked":3650,"lem":3651,"func":3652,"Ġvict":3653,"Response":3654,"Ġachiev":3655,"Ac":3656,"American":3657,"Ġpick":3658,"check":3659,"ĠEuropean":3660,"Group":3661,"static":3662,"false":3663,"Ġrout":3664,"ĠSet":3665,"fort":3666,"Ġnecess":3667,"ilm":3668,"plied":3669,"oring":3670,"Ġfamil":3671,"itect":3672,"Ġstates":3673,"Ġdied":3674,"Ġtool":3675,"Ġinstall":3676,"amily":3677,"ĠBer":3678,"hood":3679,"-\\":3680,"ĠPaul":3681,"ategory":3682,"46":3683,"MS":3684,"95":3685,"Ġleaders":3686,"lean":3687,"ĠOut":3688,"ashington":3689,"FA":3690,"================":3691,"plit":3692,"Ġcurrently":3693,"ĠCourt":3694,"Ġoption":3695,"Ġhimself":3696,"Override":3697,"Ġmanagement":3698,"package":3699,"Ã³":3700,"atur":3701,"Method":3702,"iance":3703,"pite":3704,"Ġepis":3705,"ube":3706,"andid":3707,"Ġcommand":3708,"Bar":3709,"lying":3710,"css":3711,"Ġcompos":3712,"Ġbelieve":3713,"Ġanalysis":3714,"Ġproducts":3715,"Ġenjoy":3716,"Ġfail":3717,"aily":3718,"airs":3719,"Ġinflu":3720,"eed":3721,"place":3722,"eck":3723,"vey":3724,"ĠĠĠĠĠĠĠĠĠĠ":3725,"acher":3726,"ago":3727,"xy":3728,"oul":3729,"elebr":3730,"db":3731,"ams":3732,"ĠRober":3733,"78":3734,"century":3735,"respond":3736,"2001":3737,"event":3738,"Ġtask":3739,"Ġboard":3740,"ĠGeneral":3741,"Ġcred":3742,"Ġplatform":3743,"Ġespecially":3744,"Ġcannot":3745,";&":3746,"Ġforward":3747,"ĠWeb":3748,"inated":3749,"Ġprior":3750,"Ġsus":3751,"Ġcompon":3752,"ĠRich":3753,"Ġupon":3754,"obile":3755,"atabase":3756,"lambda":3757,"ville":3758,"UL":3759,"=\"#":3760,"Ġdistrict":3761,"Ġserved":3762,"ocol":3763,"dev":3764,"actions":3765,"Ġsecurity":3766,"Ġliving":3767,"Ġalign":3768,"Ġcopy":3769,"ya":3770,"Ġcomplex":3771,"Ġder":3772,"Ġgirl":3773,"astic":3774,"Ġneeded":3775,"Ġtravel":3776,"Ġtakes":3777,"Ġoutput":3778,"Ġoutside":3779,"Fl":3780,"ication":3781,"ithub":3782,"Ġcomment":3783,"Che":3784,"Ġden":3785,"chan":3786,"erc":3787,"Ġwriting":3788,"Ġtour":3789,"OL":3790,"ĠDi":3791,"ĠResearch":3792,"Ġregard":3793,"vis":3794,"istics":3795,"rad":3796,"zon":3797,"very":3798,"ining":3799,"ĠTechn":3800,"Builder":3801,"2002":3802,"Ġvalid":3803,"asons":3804,"etic":3805,"Ġsaf":3806,"like":3807,"ĠAN":3808,"eal":3809,"duct":3810,"Ġload":3811,"Image":3812,"Ġaward":3813,"Ġliter":3814,"^{\\":3815,"Ġconditions":3816,"Ġmother":3817,"anger":3818,"Ġmid":3819,"Ġassociated":3820,"ĠThom":3821,"embly":3822,"Ġrunning":3823,"Ġitself":3824,"Ð¸":3825,"inition":3826,"Pe":3827,"aches":3828,"itting":3829,"ken":3830,"One":3831,"ÃŃ":3832,"rows":3833,"witter":3834,"Ġcomplete":3835,"Ġshown":3836,"argin":3837,"ota":3838,"eps":3839,"member":3840,"Ġcho":3841,"Ġdam":3842,"Ġreturned":3843,"Ġcoming":3844,"Ġhot":3845,"UE":3846,"SC":3847,"Ġstay":3848,"Ġbirths":3849,"ĠDan":3850,"Cell":3851,"lood":3852,"Ġrelated":3853,"88":3854,"Ġstandard":3855,"ufact":3856,"77":3857,"Ġmeet":3858,"Ġsaw":3859,"icient":3860,"riter":3861,"Ġplaying":3862,"Ġhor":3863,"plications":3864,"EE":3865,"ĠPre":3866,"ĠPublic":3867,"sum":3868,"Ġwor":3869,"Ġmultiple":3870,"uge":3871,"option":3872,"End":3873,"Ġreve":3874,"ĠGerman":3875,"pecial":3876,">(":3877,"Ġstd":3878,"Off":3879,"42":3880,"Pol":3881,"ework":3882,"rian":3883,"Ġnothing":3884,"ĠInc":3885,"ĠSub":3886,"Stream":3887,"Ġconcern":3888,"cell":3889,"pected":3890,"])":3891,"Ġmoment":3892,"=\"../":3893,"ĠYear":3894,"Ġanything":3895,"Source":3896,"image":3897,"uster":3898,"ĠMart":3899,"](":3900,"CA":3901,"ervices":3902,"IM":3903,"Ġleading":3904,"Ġtelev":3905,"ĠGreen":3906,"Ġ{\\":3907,"apter":3908,"Ġwrote":3909,"EX":3910,"wise":3911,"run":3912,"oms":3913,"Ġmoved":3914,"github":3915,"refore":3916,"ĠJack":3917,"ĠEv":3918,"eline":3919,"ares":3920,"Ġcountries":3921,"enced":3922,"ename":3923,"Ġhit":3924,"Ġdise":3925,"ĠRiver":3926,"Ġstre":3927,"Ġasked":3928,"emplate":3929,"Ġsens":3930,"Ġdifficult":3931,"Str":3932,"acity":3933,"Ġsoon":3934,"ĠGL":3935,"dr":3936,"Ġadditional":3937,"Ġrock":3938,"pri":3939,"indows":3940,"core":3941,"Ġconduct":3942,"ĠReview":3943,"Ġquality":3944,"ston":3945,"Util":3946,"Ġsomeone":3947,"ii":3948,"Ġidea":3949,"Ġassist":3950,";</":3951,"Ġincrease":3952,"Ġexecut":3953,"bed":3954,"II":3955,"ĠBel":3956,"Ġprovides":3957,"options":3958,"Ġbox":3959,"model":3960,"That":3961,"cret":3962,"ĠCup":3963,"Ġscreen":3964,"Ġdiscover":3965,"Ġjud":3966,"Ġstream":3967,"otype":3968,"Ġanim":3969,"ĠMusic":3970,"comes":3971,"iqu":3972,"Head":3973,"sych":3974,"Ġregular":3975,"Ġexpress":3976,"Ġbooks":3977,"ĠUs":3978,"Ġmatter":3979,"Ġbuy":3980,"ming":3981,"beta":3982,"alls":3983,"Input":3984,"Ġcourt":3985,"So":3986,"Ġapplication":3987,"aughter":3988,"Ġbound":3989,"ĠChurch":3990,"Ġemer":3991,"Ġdecision":3992,"Ġstructure":3993,"Ġwoman":3994,"Act":3995,"Ġnorth":3996,"resh":3997,"Ġapproach":3998,"ĠQue":3999,"ĠWhite":4000,"Ġbehav":4001,"Ġstage":4002,"!!":4003,"ĠWashington":4004,"Ġdeveloped":4005,"Ġrace":4006,"ĠPost":4007,"ĠAssociation":4008,"rought":4009,"ĠYour":4010,"namespace":4011,"idents":4012,"ĠArch":4013,"Ġprobably":4014,"ĠService":4015,"ĠDiv":4016,"Ġpaper":4017,"ulations":4018,"Ġsil":4019,"lier":4020,"Ġproduced":4021,"Ġdefined":4022,"Ġhope":4023,"wide":4024,"izer":4025,"ĠSome":4026,"olar":4027,"Ġteams":4028,"client":4029,"lymp":4030,"ĠRoad":4031,"ĠParty":4032,"space":4033,"Ġmodern":4034,"Ġeverything":4035,"rief":4036,"irection":4037,"ĠInstitute":4038,"Ġir":4039,"Ġwrite":4040,"page":4041,"Ġdirector":4042,"Status":4043,"illing":4044,"ributed":4045,"oz":4046,"host":4047,"ĠRead":4048,"56":4049,"ĠOur":4050,"Ġansw":4051,"merc":4052,"ĠHall":4053,"Ġten":4054,"Ġinvolved":4055,"ĠNULL":4056,"Ġmodels":4057,"Ġdraw":4058,"Ġtrying":4059,"soft":4060,"Ġtreatment":4061,"Ġtelevision":4062,"ĠFrance":4063,"Ġevidence":4064,"ĠScience":4065,"has":4066,"Ġwidth":4067,"ONT":4068,"Acc":4069,"Ġseems":4070,"Ġconsist":4071,"Ġwait":4072,"ĠDemocr":4073,"Ġquite":4074,"erve":4075,"Ġdetails":4076,"ramework":4077,"ĠMet":4078,"ĠSing":4079,"berg":4080,"Ġwanted":4081,"HT":4082,"ully":4083,"encies":4084,"Ġlocation":4085,"abs":4086,"Ã¼":4087,"Ġcenter":4088,"umbers":4089,"ula":4090,"Ġdouble":4091,"GL":4092,"aled":4093,"cel":4094,"idget":4095,"Ġdeep":4096,"known":4097,"Token":4098,"TY":4099,"null":4100,"'m":4101,"Post":4102,"Date":4103,"Ġprotected":4104,"Ġthemselves":4105,"Ġ($":4106,"Ġveh":4107,"ĠBest":4108,"Ġwhose":4109,"ĠLeg":4110,"Ġthroughout":4111,"ci":4112,"Ġge":4113,"center":4114,"ĠMag":4115,"element":4116,"Ġmilitary":4117,"tty":4118,"Ġsequ":4119,"Ġgoal":4120,"ĠAnn":4121,"NS":4122,"current":4123,"aught":4124,"edia":4125,"imately":4126,"Ġisn":4127,"olic":4128,"Ġfriends":4129,"Oper":4130,"ĠAngel":4131,"Ġjo":4132,"ĠFound":4133,"Ġpain":4134,"lector":4135,"ĠChampionship":4136,"Ġadministr":4137,"child":4138,"ĠPress":4139,"Ġcharacters":4140,"itar":4141,"Sup":4142,"ĠBen":4143,"Instance":4144,"ĠMichael":4145,"ĠGeorge":4146,"Ġword":4147,"Ġnatural":4148,"Ġcapt":4149,"Ġminutes":4150,"Run":4151,"ios":4152,"ATE":4153,"ĠOF":4154,"Ġlonger":4155,"Ġsouth":4156,"((":4157,"Ġdrop":4158,"rael":4159,"Ġess":4160,"ka":4161,"ĠAfrica":4162,"stream":4163,"ĠAre":4164,"ĠĠĠĠĠĠĠĠĠĠĠĠĠĠĠĠĠĠĠĠĠĠĠĠĠĠĠĠĠĠĠ":4165,"ĠNow":4166,"Ġprofessional":4167,"Ġsense":4168,"ĠBusiness":4169,"ĠFranc":4170,"Ġpark":4171,"angle":4172,"Ġelements":4173,"request":4174,"band":4175,"58":4176,"dir":4177,"Ġlegal":4178,"ental":4179,"Ġ(\\":4180,"ĠWhile":4181,"ander":4182,"vest":4183,"Ġautom":4184,"ĠĠĠĠĠĠĠĠĠĠĠĠĠĠĠĠĠ":4185,"inese":4186,"ĠAward":4187,"ternet":4188,"Ġdesigned":4189,"Ġunique":4190,"orthern":4191,"ĠDec":4192,"iant":4193,"Ġtypes":4194,"Ġclient":4195,"adian":4196,"Ġshall":4197,"Ġpositive":4198,"rd":4199,"estival":4200,"rong":4201,"Ġresource":4202,"She":4203,"RA":4204,"Ġnormal":4205,"ros":4206,"ala":4207,"Ġdevice":4208,"ĠReturn":4209,"Ġboolean":4210,"Ġactive":4211,"Ġeveryone":4212,"ĠCam":4213,"Ġbeaut":4214,"Ġcast":4215,"mar":4216,"Ġgave":4217,"eds":4218,"Ġreading":4219,"Pos":4220,"can":4221,"query":4222,"Ġweeks":4223,"ĠSl":4224,"Ġgre":4225,"idden":4226,"big":4227,"Null":4228,"59":4229,"rated":4230,"Ġusers":4231,"win":4232,"Dr":4233,"server":4234,"Ġsimple":4235,"Ġupd":4236,"erved":4237,"ĠMat":4238,"Ġgrowth":4239,"Ġcatch":4240,"41":4241,"Ġlevels":4242,"ilon":4243,"case":4244,"Ġver":4245,"Ġlives":4246,"Equal":4247,"ialog":4248,"Ġforce":4249,"rial":4250,"Ġcompl":4251,"php":4252,"ÑĤ":4253,"outhern":4254,"han":4255,"Ġallowed":4256,"yles":4257,"76":4258,"bon":4259,"}{\\":4260,")</":4261,"append":4262,"sigma":4263,"'ve":4264,"Ġ<<":4265,"ĠTHE":4266,"isher":4267,"ql":4268,"Ġandroid":4269,"ĠCompany":4270,"Ġstudies":4271,"Ġship":4272,"0000":4273,"pat":4274,"Ġacqu":4275,"onder":4276,"ĠSam":4277,"Ġestablish":4278,"43":4279,"ĠData":4280,"CK":4281,"ĠCong":4282,"ĠFin":4283,"EL":4284,"Ġimmedi":4285,"agon":4286,"ria":4287,"Ġnames":4288,"ynt":4289,"Ġsn":4290,"DO":4291,"isions":4292,"Ġinterview":4293,"Ġdeliver":4294,"Action":4295,"het":4296,"arily":4297,"Ġrecently":4298,"Ġprevent":4299,"Ġfinancial":4300,"Ġfrequ":4301,"itch":4302,"ĠTom":4303,"ĠDel":4304,"ania":4305,"ĠLou":4306,"1999":4307,"Base":4308,"Ġdead":4309,"args":4310,"Ġvers":4311,"mitted":4312,"Ġlimit":4313,"mathbf":4314,"ĠVol":4315,"Ġculture":4316,"Ġcalc":4317,"Ġtim":4318,"Ġrecomm":4319,"achine":4320,"ĠMary":4321,"Ġmovie":4322,"ducation":4323,"Block":4324,"level":4325,"Line":4326,"Ġcandid":4327,"Gr":4328,"uate":4329,"Ġwife":4330,"Ġproblems":4331,"mercial":4332,"ategy":4333,"ulture":4334,"Ġball":4335,"Ġfun":4336,"ymbol":4337,"ributes":4338,"lib":4339,"Ġschools":4340,"Ġinf":4341,"TER":4342,"''":4343,"acebook":4344,"Ġvillage":4345,"exas":4346,"loat":4347,"evelopment":4348,"Ġmeasure":4349,"ilde":4350,"Part":4351,"fess":4352,"Ġmethods":4353,"Attribute":4354,"Options":4355,"lock":4356,"Ġitem":4357,"Ġprogress":4358,"mas":4359,"Ġpromot":4360,"Ġpurch":4361,"Ġthreat":4362,"anged":4363,"ĠMac":4364,"urt":4365,"rowser":4366,"Ġqual":4367,"Ġ+=":4368,"flow":4369,"more":4370,"Ġmedical":4371,"irit":4372,"Ġparts":4373,"Ġcook":4374,"Ġsurv":4375,"miss":4376,"Ġeffects":4377,"Ġupdate":4378,"Ġcelebr":4379,"Ġcorrespond":4380,"ena":4381,"ĠSund":4382,"Ġcolumn":4383,"<!--":4384,"My":4385,"Ġmention":4386,"gamma":4387,"ĠAlex":4388,"ocket":4389,"ĠGoogle":4390,"gle":4391,"Ġuses":4392,"iece":4393,"ĠCE":4394,"Ð½":4395,"aine":4396,"enge":4397,"Ġappoint":4398,"Start":4399,"ĠJew":4400,"nor":4401,"BA":4402,"ĠÂ£":4403,"Ġpack":4404,"ĠProgram":4405,"ulate":4406,"Ġâ":4407,"Content":4408,"ĠGold":4409,"Ġlatest":4410,"eve":4411,"Ġlines":4412,"Ġhous":4413,"Ġscient":4414,"Ġdemon":4415,"Ġconstruct":4416,"Ġsem":4417,"andemic":4418,"FI":4419,"Ġtemper":4420,"Ġinside":4421,"Ġweb":4422,"Ġnovel":4423,"apping":4424,"olf":4425,"*/":4426,"^{-":4427,"Ġways":4428,"post":4429,"rt":4430,"uns":4431,"Ġjoin":4432,"edy":4433,"Ġlabel":4434,"hi":4435,"VER":4436,"Buffer":4437,"Ġmale":4438,"Ġprotect":4439,"gor":4440,"Ġsoftware":4441,"Ġmus":4442,"Handler":4443,"Ġdrug":4444,"ĠAcad":4445,"ipp":4446,"Ġtowards":4447,"Ġchalleng":4448,"ias":4449,"target":4450,"ĠClub":4451,"open":4452,"izes":4453,"ĠMont":4454,"Ġaw":4455,"Ġmaintain":4456,"quare":4457,"Ġmis":4458,"Ġ$(":4459,"Ġbrother":4460,"Ġpractice":4461,"Ġsaying":4462,"aud":4463,"Ġstar":4464,"Ġcause":4465,"iller":4466,"ĠGermany":4467,"Ġcontinued":4468,"Ġleave":4469,"Link":4470,"Ġoperation":4471,"98":4472,"avirus":4473,"ĠTime":4474,"Ġchanged":4475,"Ġsort":4476,"ĠOther":4477,"icial":4478,"68":4479,"ĠGreat":4480,"reek":4481,"TO":4482,"Ġ\"\"\"":4483,"({":4484,"Point":4485,"Ġste":4486,"button":4487,"Ġoccur":4488,"Ġplant":4489,"ocal":4490,"Ġexact":4491,"iding":4492,"force":4493,"ani":4494,"57":4495,"Ġboy":4496,"ini":4497,"Ġheight":4498,"zer":4499,"Ġlearning":4500,"ĠThen":4501,"ĠMount":4502,"bert":4503,"Ġquestions":4504,"Ġinternal":4505,"stract":4506,"antic":4507,"Hel":4508,"Ġconv":4509,"Ġsimply":4510,"Ġcharg":4511,"Ġ->":4512,"Us":4513,"ĠRef":4514,"Ġstore":4515,"Web":4516,"ĠOver":4517,"Ġbus":4518,"vider":4519,"Ġscience":4520,"ĠRem":4521,"ĠIsland":4522,"Ġregister":4523,"ĠOpen":4524,"inding":4525,"ĠMiss":4526,"just":4527,"1990":4528,"ypes":4529,"eger":4530,"inate":4531,"och":4532,"Ġproperties":4533,"first":4534,"oding":4535,"gener":4536,"cons":4537,"stant":4538,"ugin":4539,"adding":4540,"hest":4541,"Ġtransfer":4542,"Ġlack":4543,"Ġeasy":4544,"Ġmanufact":4545,"uid":4546,"onavirus":4547,"ĠUnion":4548,"Ġbrought":4549,"Ġinstit":4550,"Mar":4551,"IO":4552,"Ġinsp":4553,"Function":4554,"Ġrelig":4555,"ĠHistory":4556,"ĠBay":4557,"First":4558,"ĠMus":4559,"header":4560,"adata":4561,"oma":4562,"cy":4563,"ĠObject":4564,"ĠSociety":4565,"mm":4566,"Ġdeaths":4567,"TP":4568,"ebug":4569,"Ġexcept":4570,"ĠRob":4571,"df":4572,"ĠFore":4573,"*}":4574,"ests":4575,"Ġfollowed":4576,"+\\":4577,"ĠAustralian":4578,"ein":4579,"Ġopened":4580,"Ġneigh":4581,"Ġstories":4582,"CL":4583,"ĠHam":4584,"ipal":4585,"arser":4586,"){":4587,"Ġhum":4588,"Ġthrows":4589,"Ġsen":4590,"Ġwindow":4591,"Ġmeeting":4592,"ims":4593,"Ġfa":4594,"ÑĢ":4595,"ribe":4596,"ĠCarol":4597,"Ġeight":4598,"icted":4599,"[\"":4600,"Ġusually":4601,"Ġetc":4602,"Ġoffers":4603,"ĠSal":4604,"azine":4605,"pack":4606,"finished":4607,"ĠRE":4608,"ĠRel":4609,"Ġpict":4610,"tx":4611,"Ġresources":4612,"ĠFlor":4613,"Le":4614,"Nav":4615,"well":4616,"188":4617,"jav":4618,"izations":4619,"ĠSee":4620,"ĠRoyal":4621,"Ġcontains":4622,"Ġflow":4623,"Ġfavor":4624,"ĠScott":4625,"char":4626,"Ġpartners":4627,"Ġalthough":4628,"Ġdeb":4629,"Can":4630,"Do":4631,"Ġspect":4632,"ĠVir":4633,"yth":4634,"Component":4635,"Ġdirectly":4636,"Ġemail":4637,"Ġcapital":4638,"âĢĿ.":4639,"ĠĠĠĠĠĠĠĠĠĠĠĠĠĠ":4640,"strong":4641,"gn":4642,"Ġsongs":4643,"ĠMad":4644,"Ġcontr":4645,"ptr":4646,"ĠOlymp":4647,"Ġpassed":4648,"Resource":4649,"Ġinvestig":4650,"akers":4651,"Ġensure":4652,"igger":4653,"Ġuns":4654,"alian":4655,"Ġsched":4656,"olve":4657,"'ll":4658,"Ġunit":4659,"Ġeval":4660,"Ġprec":4661,"rl":4662,"height":4663,"UM":4664,"grad":4665,"porary":4666,"Ġlargest":4667,"Style":4668,"iring":4669,"ancy":4670,"json":4671,"ĠLife":4672,"ĉĊ":4673,"ously":4674,"^\\":4675,"Check":4676,"Ġprimary":4677,"Ġconstruction":4678,"Ġavoid":4679,"ĠKe":4680,"ĠRobert":4681,"Ġdebut":4682,"ĠMex":4683,"Ġseek":4684,"ĠEnd":4685,"ĠNor":4686,"Back":4687,"People":4688,"Ġmount":4689,"Ġjournal":4690,"Ġcompleted":4691,"96":4692,"Ġfast":4693,"Ġclosed":4694,"Per":4695,"Ġgraph":4696,"Default":4697,"ano":4698,"ĠChristian":4699,"ensions":4700,"Ġreference":4701,"Ġprice":4702,"Ġtransport":4703,"ĠChinese":4704,"Ġcells":4705,"Ġincreased":4706,"ifying":4707,"Last":4708,"undle":4709,"ensity":4710,"Ġbank":4711,"Ġplaces":4712,"Ġeconomic":4713,"ĠSur":4714,"Ã¶":4715,"Ġcam":4716,")}":4717,"ĠTexas":4718,"Ġearlier":4719,"ĠBo":4720,"Ġgas":4721,"ĠGovernment":4722,"Ġseven":4723,"Ġactivities":4724,"room":4725,"Ġreceive":4726,"Next":4727,"ĠID":4728,"ĠMuseum":4729,"iger":4730,"Ġsafety":4731,"rho":4732,"Ġlock":4733,"ĠSmith":4734,"Ġjoined":4735,"Ġsports":4736,"Ġstudent":4737,"Factory":4738,"rypt":4739,"Ġrules":4740,"Ġknowledge":4741,"Child":4742,"status":4743,"ĠAfrican":4744,"Ġsuff":4745,"ĠIsrael":4746,"Ġperformed":4747,"1998":4748,"ĠIS":4749,"Ġnumbers":4750,"ĠRad":4751,"Ġestim":4752,"Ġrestr":4753,"Ġoperations":4754,"inner":4755,"Ġmechan":4756,"Ġlimited":4757,"Ġentry":4758,"ĠAtt":4759,"ĠĠĠĠĠĠĠĠĊ":4760,"Ġagre":4761,"True":4762,"find":4763,"Ġdark":4764,"ĠCamp":4765,"Ġselected":4766,"97":4767,"Ġvacc":4768,"Ġcompared":4769,"Char":4770,"History":4771,"Rep":4772,"\").":4773,"Ġprep":4774,"Ġplans":4775,"Ġprinc":4776,"tings":4777,"Ġdigital":4778,"ua":4779,"Ġcondition":4780,"Ġgets":4781,"Ġstatement":4782,"ĠArmy":4783,"ki":4784,"haps":4785,"Ġquant":4786,"itiz":4787,"Ġdisease":4788,"Ge":4789,"last":4790,"Ġgoes":4791,"Ġdemonstr":4792,"Ġperfect":4793,"ili":4794,"za":4795,"ictor":4796,"Ġvirtual":4797,"Ġparents":4798,"ivacy":4799,"Ġcivil":4800,"Ġconcept":4801,"ĠHel":4802,"delta":4803,"Ġanyone":4804,"Ġserious":4805,"Ġcollect":4806,"ca":4807,"isf":4808,"Ġfinally":4809,"cp":4810,"cover":4811,"write":4812,"ĠSuper":4813,"Ġwrong":4814,"theta":4815,"Ġnecessary":4816,"TS":4817,"ĠCommission":4818,"Ġsche":4819,"App":4820,"isation":4821,"ĠStar":4822,"Ġsuccessful":4823,"Ġformat":4824,"ĠHill":4825,"Ġcard":4826,"Ġdoc":4827,"Ġfamilies":4828,"ĠJul":4829,"Ġconnection":4830,"Ġbirth":4831,"ĠJournal":4832,"Task":4833,"Ġreli":4834,"itude":4835,"Ġnature":4836,"ĠRoman":4837,"CD":4838,"acter":4839,"Ġapprox":4840,"Ġpretty":4841,"Ġcorrect":4842,")(":4843,"Ġdram":4844,"CR":4845,"67":4846,"Ġdecided":4847,"ario":4848,"ĠBill":4849,"Ġexpand":4850,"icrosoft":4851,"ĠBoard":4852,"ici":4853,"Version":4854,"Ġsigned":4855,"xi":4856,"overs":4857,"Ġarchitect":4858,"Ġability":4859,"Ġdistribution":4860,"dl":4861,"iled":4862,"ĠBig":4863,"ĠCentral":4864,"Ġchurch":4865,"reme":4866,"sim":4867,"Ġcentral":4868,"ying":4869,"foot":4870,"ĠThomas":4871,"FL":4872,"Ġ{@":4873,"ned":4874,"figure":4875,"itation":4876,"Ġspecified":4877,"ĠMedia":4878,"Ġworth":4879,"gorith":4880,"52":4881,"det":4882,"Ġactivity":4883,"ĠFacebook":4884,"Ġremain":4885,"51":4886,"Ġreturns":4887,"PRO":4888,"Ġaltern":4889,"ĠTop":4890,"REF":4891,"Page":4892,"nected":4893,"tab":4894,"Ġesc":4895,"ĠRock":4896,"Ġsomet":4897,"Ġpandemic":4898,"ĠNone":4899,"anned":4900,"ĠSeries":4901,"Ġturned":4902,"Ġpm":4903,"54":4904,"ĠForm":4905,"ĠAv":4906,"Br":4907,"ĠServices":4908,"times":4909,"Ġsurface":4910,"Ġconnect":4911,"Ġextra":4912,"Top":4913,"Ġhol":4914,"ĠNet":4915,"Ġpattern":4916,"Ġequip":4917,"Number":4918,"Ġmur":4919,"ĠTor":4920,"?âĢĿ":4921,"Ġdim":4922,"ĠOb":4923,"Ġbrand":4924,"ĠDirector":4925,"Ġallows":4926,"aling":4927,"property":4928,"endif":4929,"ĠPlay":4930,"ĠProject":4931,"Ġfarm":4932,"ĠTown":4933,"LASS":4934,"PS":4935,"Ġmarried":4936,"ĠTre":4937,"53":4938,"Ġsolution":4939,"Ġstarting":4940,"Ġsurpr":4941,"BS":4942,"HO":4943,"ĠOffice":4944,"Load":4945,"lam":4946,"Ġmulti":4947,"Ġphysical":4948,"igr":4949,"Met":4950,"Ġdegree":4951,"push":4952,"sg":4953,"Ġplease":4954,"Ġscale":4955,"iginal":4956,"anish":4957,"unfinished":4958,"Ġcontinu":4959,"enty":4960,"~~":4961,"Ġprojects":4962,"Ġopportunity":4963,"ĠHen":4964,"Ġrow":4965,"ĠInst":4966,"ĠManagement":4967,"Ġnav":4968,"Ġfailed":4969,"Ġnumer":4970,"Desc":4971,"xml":4972,"Ġanti":4973,"road":4974,"ĠTimes":4975,"ellig":4976,"1980":4977,"ABLE":4978,"ĠMinister":4979,"Ġbeginning":4980,"Ġshot":4981,"Ġprop":4982,"Equals":4983,"Ġprem":4984,"oday":4985,"ĠWed":4986,"Ġsummer":4987,"elete":4988,"ronic":4989,"Ġparameters":4990,"Ġ]":4991,"house":4992,"Ġepisode":4993,"Ġfans":4994,"Ġtrade":4995,"anda":4996,"Ġconstant":4997,"bour":4998,"inger":4999,"venue":5000,"Ġ((":5001,"anta":5002,"long":5003,"Eng":5004,"Ã¤":5005,"ĠTur":5006,"ĠBre":5007,"ĠUSA":5008,"ATION":5009,"ĠEducation":5010,"Create":5011,"300":5012,"shire":5013,"ĠHere":5014,"Ġter":5015,"Ġfields":5016,"module":5017,"Ġclean":5018,"Ġgives":5019,"Ġnone":5020,"Ñģ":5021,"Ġrail":5022,"Ġbur":5023,"private":5024,"ba":5025,"Ġwasn":5026,"Ġcouple":5027,"onday":5028,"Ġincreasing":5029,"atre":5030,"Co":5031,"inst":5032,"NO":5033,"ĠProv":5034,"ester":5035,"ĠLos":5036,"ĠPeter":5037,"Ġindependent":5038,"ĠFrancis":5039,"Ġkilled":5040,"verse":5041,"ĠCD":5042,"ibly":5043,"ĠSocial":5044,"src":5045,"AA":5046,"ĠWestern":5047,"ĠBi":5048,"Ġrecorded":5049,"ĠGrand":5050,"icate":5051,"Ġdepend":5052,"oom":5053,"âĢĺ":5054,"pol":5055,"icago":5056,"Ġsend":5057,"Ġextends":5058,"Ġauto":5059,"Ġhands":5060,"Ġmagn":5061,"iful":5062,"1997":5063,"non":5064,"osh":5065,"Ġdaughter":5066,"Ġprograms":5067,"});":5068,"Ġbal":5069,"ĠGood":5070,"burg":5071,"Ext":5072,"Ġradio":5073,"icine":5074,"partial":5075,"Ġorganization":5076,"Ġwide":5077,"Ġgold":5078,"Ġfelt":5079,"otal":5080,"Ġord":5081,"Ġdemand":5082,"asket":5083,"Ġfair":5084,"Ġrespond":5085,"cm":5086,"Ġvoice":5087,"Ġworkers":5088,"Ġtheory":5089,"ady":5090,"opyright":5091,"Ġmemory":5092,"atively":5093,"tau":5094,"ĠDuring":5095,"Ġattention":5096,"IF":5097,"Ġparameter":5098,"only":5099,"istan":5100,"ĠMel":5101,"ĠFlorida":5102,"\"),":5103,"Ġexhib":5104,"ĠLet":5105,"\"]":5106,"Ġassess":5107,"Ġspent":5108,"Ġremember":5109,"ĠKore":5110,"ean":5111,"Ġappeared":5112,"ancing":5113,"Ġnearly":5114,"ĠSunday":5115,"Ġfunctions":5116,"Ġparticularly":5117,"mathrm":5118,"attr":5119,"ĠAut":5120,"Ġpreviously":5121,"ĠHome":5122,"Ġsecret":5123,"Ġvs":5124,"Ġwriter":5125,"uated":5126,"icated":5127,"Ġfollows":5128,"Aut":5129,"Ġvote":5130,"obj":5131,"vention":5132,"1996":5133,"len":5134,"Ġmeaning":5135,"Ġquickly":5136,"Ġmiddle":5137,"Filter":5138,"ĠOper":5139,"Ġscen":5140,"Ġreports":5141,"Ġpull":5142,"Ġtouch":5143,"Ġign":5144,"///":5145,"Ġmicro":5146,"Ġleader":5147,"Ġclin":5148,"pass":5149,"Ġcollabor":5150,"sole":5151,"]{":5152,"Ġserver":5153,"Ġtransform":5154,"icks":5155,"Tag":5156,"png":5157,"ĠGames":5158,"Ð¾Ð":5159,"btn":5160,"ĠPeople":5161,"istance":5162,"Ġdefe":5163,"Ġrank":5164,"Ġthus":5165,"Ġstreng":5166,"Ġfemale":5167,"reland":5168,"Ġspeed":5169,"ĠLog":5170,"term":5171,"Ġspread":5172,"Ġsupported":5173,"si":5174,"ifact":5175,"Ġhospital":5176,"ĠDevelopment":5177,"Ġsolid":5178,"icket":5179,"ĠBank":5180,"ĠFe":5181,"orial":5182,"ĠFrank":5183,"2022":5184,"container":5185,"meta":5186,"Ġple":5187,"Ġpolitic":5188,"Ġmode":5189,"gu":5190,"Ġweight":5191,"ĠDet":5192,"ĠBuild":5193,"ãģ":5194,"Ġer":5195,"aturday":5196,"ĠFig":5197,"erry":5198,"Ġrap":5199,"Ġartist":5200,"Ġinteresting":5201,"ĠFriday":5202,"$-":5203,"ĠMost":5204,"ky":5205,"ĠDivision":5206,"eful":5207,"Ġtraditional":5208,"Ġsituation":5209,"Ġhar":5210,"ĠCommittee":5211,"ĠRussian":5212,"vant":5213,"ĠâĢ¦":5214,"ita":5215,"service":5216,"essages":5217,"ĠVirgin":5218,"Ġfiles":5219,"${":5220,"ĠEX":5221,"Ġexisting":5222,"ĠWil":5223,"Ġselect":5224,"Ġded":5225,"Ġslow":5226,"leep":5227,"Det":5228,"Return":5229,"itness":5230,"ĠShow":5231,"_.":5232,"Ġexam":5233,"Ġeffective":5234,"Ġnote":5235,"iverse":5236,"break":5237,"Ġmovement":5238,"Ġmix":5239,"Work":5240,"Ġgrand":5241,"Ġshoot":5242,"Ġremains":5243,"ĠFoundation":5244,"ĠWomen":5245,"DA":5246,"Ġinform":5247,"Ġrecover":5248,"ĠGen":5249,"entry":5250,"spec":5251,"leq":5252,"Ġdifference":5253,"Ġnom":5254,"ĠCanadian":5255,"ĠJapanese":5256,"ror":5257,"ĠST":5258,"Ġrat":5259,"ĠCongress":5260,"greg":5261,"PC":5262,"rey":5263,"Ġsetting":5264,"Ġsometimes":5265,"Ġartists":5266,"Ġexpression":5267,"iler":5268,"illa":5269,"ette":5270,"select":5271,"ĠRichard":5272,">>":5273,"clos":5274,"61":5275,"weet":5276,"Ġheard":5277,"eder":5278,"Ġenter":5279,"PA":5280,"ecause":5281,"bottom":5282,"Ġactual":5283,"Ġstri":5284,"Vis":5285,"ĠUnder":5286,"Ġwild":5287,"Ġpresented":5288,"Ag":5289,"Ġitems":5290,"aints":5291,"Ġhop":5292,"Don":5293,"Ġ;":5294,"atin":5295,"ĠType":5296,"////////////////":5297,"Ġdistance":5298,"Ġassum":5299,"ĠMo":5300,"den":5301,"Box":5302,"icens":5303,"Ġblood":5304,"########":5305,"display":5306,"ictions":5307,"ncy":5308,"Living":5309,"close":5310,"Ġshared":5311,"mt":5312,"Ġsets":5313,"Ġlarger":5314,"ĠLong":5315,"ĠEngine":5316,"mes":5317,"Ġmargin":5318,"liament":5319,"ĠChild":5320,"Ġdrive":5321,"SON":5322,"Ġreach":5323,"Ġmanager":5324,"Mat":5325,"Ġdou":5326,"ooth":5327,"Ġurl":5328,"inct":5329,"ĠLouis":5330,"Ġbillion":5331,"Ġbey":5332,"nu":5333,"chers":5334,"Ġcustomers":5335,"Ġgrant":5336,"project":5337,"undred":5338,"format":5339,"Ġroll":5340,"img":5341,"expected":5342,"UP":5343,"Ġconsum":5344,"Ġimprove":5345,"(&":5346,"ointer":5347,"Rem":5348,"Ġrule":5349,"Ġscene":5350,"Ġlaws":5351,"ĠAM":5352,"Ġimprov":5353,"iminal":5354,"pc":5355,"1995":5356,"Ġquarter":5357,"Ġteacher":5358,"Ġbeyond":5359,"UI":5360,"CON":5361,"ĠCath":5362,"agram":5363,"PR":5364,"ootball":5365,"PO":5366,"cho":5367,"final":5368,"Ġgiving":5369,"ĠGeorg":5370,"Ġsales":5371,"local":5372,"Ġbeg":5373,"Ġfirm":5374,"Ġmodule":5375,"Ġdirection":5376,"Ġhighly":5377,"69":5378,"ĠPM":5379,"Ġtree":5380,"ĠJose":5381,"unched":5382,"%%":5383,"Collection":5384,"Ġencour":5385,"Spec":5386,"Ġbasis":5387,"description":5388,"IA":5389,"72":5390,"std":5391,"astr":5392,"ĠPlan":5393,"Ġcompar":5394,"ĉĉĉĉĉĉĉĉ":5395,"Min":5396,"Go":5397,"1970":5398,"prototype":5399,"ĠSince":5400,"Ġimages":5401,"ĠHot":5402,"ucture":5403,"Ġhy":5404,"Ġanc":5405,"Format":5406,"Ġinterface":5407,"Ġthr":5408,"thlet":5409,"Ġlooks":5410,"Ġgreen":5411,"hent":5412,"Ġtit":5413,"ĠAngeles":5414,"Ġnation":5415,"Ġfully":5416,"Ġvert":5417,"Ġoverall":5418,"Ġconstit":5419,"uke":5420,"ella":5421,"Ġpoor":5422,"ĠFilm":5423,"Ġintroduced":5424,"Ġcommercial":5425,"ĠArts":5426,"number":5427,"Ġfeed":5428,"Ġcallback":5429,"usion":5430,"More":5431,"plies":5432,"allet":5433,"gest":5434,"Ġsafe":5435,"asy":5436,"Delta":5437,"SA":5438,"Ġcommunities":5439,"Ġchoice":5440,"ĠNetwork":5441,"ĠWell":5442,"aming":5443,"Ġfinished":5444,"isl":5445,"Ġsal":5446,"Ġtrust":5447,"Command":5448,"ĠLicense":5449,"igan":5450,"ulf":5451,"plicit":5452,"Ġproposed":5453,"ĠTim":5454,"ãĥ":5455,"Ġpen":5456,"Ġeyes":5457,"Ġanaly":5458,"urance":5459,"Ġindividuals":5460,"FONT":5461,"Ġmissing":5462,"osis":5463,"Par":5464,"Ġrepe":5465,"Ġsociety":5466,"ologies":5467,"Ġcollege":5468,"ĠDev":5469,"ĠAcademy":5470,"Ġphone":5471,"site":5472,"Ġones":5473,"NE":5474,"Ġsources":5475,"400":5476,"refix":5477,"ĠPolicy":5478,"ĠSun":5479,"Ġopening":5480,"Ġcoach":5481,"ĠMem":5482,"navbar":5483,"Ġlab":5484,"azz":5485,"}(\\":5486,"efined":5487,"ĠSil":5488,"ĠTwo":5489,"Ġforces":5490,"ĠMov":5491,"Ġtesting":5492,"Ġmorning":5493,"response":5494,"Ġchance":5495,"uled":5496,"itors":5497,"TI":5498,"63":5499,"po":5500,"Our":5501,"ĠLake":5502,"Ġrecords":5503,"ĠMass":5504,"Ġcop":5505,"Ġfederal":5506,"Output":5507,"uint":5508,"Ġchem":5509,"uesday":5510,"Ġremove":5511,"Ġlif":5512,"ĠBur":5513,"KE":5514,"79":5515,"ĠZeal":5516,"Listener":5517,"Ġoil":5518,"ĠKingdom":5519,"flict":5520,"yan":5521,"pers":5522,"ttp":5523,"even":5524,"olk":5525,"Ġkm":5526,"Ġblog":5527,"Ġcritical":5528,"Ġcompletely":5529,"Ġalleg":5530,"Ġapply":5531,"ĠWeek":5532,"ĠMer":5533,"Ġrandom":5534,"Length":5535,"filter":5536,"ĠBrown":5537,"Ġproviding":5538,"Ġsave":5539,"Ġreached":5540,"clusion":5541,"ĠJun":5542,"$$":5543,"Ġgreater":5544,"Ġinnov":5545,"Ġthous":5546,"ĠDE":5547,"1994":5548,"Ġtransl":5549,"ervation":5550,"Valid":5551,"Ġscore":5552,"which":5553,"ao":5554,"west":5555,"hr":5556,"Ġhear":5557,"capt":5558,"62":5559,"Ġhighest":5560,"IZ":5561,"ĠMur":5562,"Ġotherwise":5563,"Ġdynam":5564,"ĠTeam":5565,"ĠMonday":5566,"gment":5567,"BO":5568,"udget":5569,"Am":5570,"Ġrob":5571,"Ġimag":5572,"ounce":5573,"ustain":5574,"Ġcompetition":5575,"output":5576,"nesday":5577,"gs":5578,"Address":5579,"Ġ(\"":5580,"Ġchannel":5581,"riend":5582,"ĠâĢ¢":5583,"ĠZealand":5584,"omega":5585,"URL":5586,"ORT":5587,"ĠIreland":5588,"ĠLand":5589,"Ġselection":5590,"ĠProfess":5591,"Ġsession":5592,"unities":5593,"under":5594,"mazon":5595,"ĠHT":5596,"Ġunits":5597,"Ġ<!--":5598,"ĠSol":5599,"care":5600,"Ġeditor":5601,"Ġtrain":5602,"menu":5603,"ĠEarth":5604,"Ġelectric":5605,"Ġmoving":5606,"El":5607,"uy":5608,"Ġknew":5609,"Ġimmediately":5610,"Mode":5611,"Ġcomputer":5612,"Ġcarry":5613,"ĠOl":5614,"aby":5615,"iden":5616,"eqn":5617,"Ġroot":5618,"ĠCharles":5619,"arts":5620,"Ġsch":5621,"fty":5622,"erman":5623,"ĠTwitter":5624,"ERR":5625,"Ġhandle":5626,"ĠChicago":5627,"Ġdestroy":5628,"Controller":5629,"|\\":5630,"onom":5631,"ĉĠĠĠ":5632,"aa":5633,"draw":5634,"ĠVictor":5635,"Ġsatisf":5636,"Ġready":5637,"Ġshowed":5638,"atas":5639,"update":5640,"ĠSpr":5641,"Row":5642,"author":5643,"Ġcalls":5644,"Ġproper":5645,"Init":5646,"Ġpoll":5647,"ĠAtl":5648,"ĠOp":5649,"Ġcancer":5650,"ascript":5651,"ĠStep":5652,"Ġadult":5653,"anges":5654,"Ġwood":5655,"Ġaccur":5656,"Ġsurround":5657,"Ġgrowing":5658,"orpor":5659,"Open":5660,"Ġmission":5661,"Ġobj":5662,"FC":5663,"layout":5664,"ĠÎ":5665,"irmed":5666,"Ġcorn":5667,"VAL":5668,"ĠLove":5669,"They":5670,"ensus":5671,"ien":5672,"track":5673,"Ġexception":5674,"Direct":5675,"Ġlaunch":5676,"Ġshop":5677,"ĠHead":5678,"Sec":5679,"ĠSecret":5680,"}$.":5681,"remove":5682,"ĠParis":5683,"Ġ!==":5684,"ashion":5685,"Cache":5686,"Ġeth":5687,"1992":5688,"inds":5689,"Access":5690,"INE":5691,"Ġfilter":5692,"Ġpsych":5693,"}$,":5694,"ĠOh":5695,"ĠPri":5696,"Ġruns":5697,"ĠPower":5698,"Rev":5699,"ĠVer":5700,"aved":5701,"Ġexperiment":5702,"Ġsites":5703,"BU":5704,"Ġpurpose":5705,"arant":5706,"Ġstock":5707,"Ġabsol":5708,"ools":5709,"alle":5710,"ĠRussia":5711,"show":5712,"ĠTechnology":5713,"Ġcosts":5714,"Ġmaster":5715,"Ġmut":5716,"TYPE":5717,"ecution":5718,"returns":5719,"Ġcomments":5720,"Ġforeign":5721,"Ġdog":5722,"Ġpressure":5723,"Ġplaced":5724,"Ġwat":5725,"Ġcaused":5726,"arden":5727,"ĠItalian":5728,"ĠEp":5729,"CS":5730,"Rel":5731,"riage":5732,"DF":5733,"Ġvariety":5734,"igen":5735,"iny":5736,"Ġappears":5737,"Ġtag":5738,"Ġobjects":5739,"astern":5740,"ĠIns":5741,"Ġleague":5742,"mult":5743,"Ġbecomes":5744,"ĠPet":5745,"Ġ[]":5746,"Ġequal":5747,"Des":5748,"Ġdespite":5749,"tag":5750,"rier":5751,"Ġefforts":5752,"ĠEconom":5753,"ensor":5754,"1993":5755,"DB":5756,"Ġcharge":5757,"arks":5758,"process":5759,"Ġque":5760,"ĠAPI":5761,"ĠSaturday":5762,"ircraft":5763,"Ġbehavior":5764,"ĠDen":5765,"ĠMil":5766,"Ġformed":5767,"ĠCall":5768,"orter":5769,"Home":5770,"ĠCare":5771,"ursday":5772,"Dev":5773,"Ġbg":5774,"osing":5775,"Ġsu":5776,"Ġhuge":5777,"ĠSy":5778,"itz":5779,"Ġalone":5780,"bur":5781,"heet":5782,"pret":5783,"LS":5784,"Ġobtained":5785,"Ġstrugg":5786,"Ġcounter":5787,"asketball":5788,"MO":5789,"ĠOld":5790,"Label":5791,"Ġclimate":5792,"dep":5793,"ĠIll":5794,"older":5795,"Ġwonder":5796,"Ġtherefore":5797,"support":5798,"Ġacad":5799,"Ġstated":5800,"ĠCast":5801,"ĠWood":5802,"ĠLee":5803,"ĠTour":5804,"adow":5805,"DS":5806,"71":5807,"Ġannual":5808,"abit":5809,"Ġbusinesses":5810,"main":5811,"bi":5812,"Update":5813,"Provider":5814,"ĠMartin":5815,"Ġcomponent":5816,"ĠJud":5817,"params":5818,"Ġpaid":5819,"Let":5820,"ĠFinal":5821,"ĠSE":5822,"Ġpiece":5823,"Ġappropri":5824,"ĠĠĠĠĠĠĠĠĠĠĠĠĊ":5825,"ipe":5826,"Ġpaint":5827,"Ġq":5828,"74":5829,"ĠCLASS":5830,"ĠCheck":5831,"ola":5832,"ums":5833,"ĠCommunity":5834,"related":5835,"Ġapplications":5836,"ĠAccording":5837,"Ġpartner":5838,"ĠInformation":5839,"exp":5840,"ĠHistor":5841,"inder":5842,"Ġdescription":5843,"ato":5844,"ĠFree":5845,"ydro":5846,"igration":5847,"ora":5848,"ĠčĊ":5849,"While":5850,"Ġang":5851,"ĠJim":5852,"Ġclaims":5853,"Te":5854,"usband":5855,"Ġbuildings":5856,"kit":5857,"iform":5858,"Ġadapt":5859,"ĠHREF":5860,"Ġ**":5861,"Ġphase":5862,"Ġlooked":5863,"TC":5864,"Ġeventually":5865,"ĠSpe":5866,"ĠCarolina":5867,"arp":5868,"rs":5869,"Ġproduce":5870,"eft":5871,"pective":5872,"allery":5873,"ĠAlso":5874,"âĢĿ,":5875,"Ġmajority":5876,"ĠScot":5877,"inem":5878,"Art":5879,"Button":5880,"John":5881,"Ġempty":5882,"Url":5883,"Ġforms":5884,"Ġsusp":5885,"Ġiniti":5886,"Ġcert":5887,"Ġstra":5888,"Ġmurder":5889,"Ġgenerally":5890,"Column":5891,"GB":5892,"Ġdirected":5893,"Container":5894,"ĠGame":5895,"ĠKn":5896,"Max":5897,"ĠFestival":5898,"TV":5899,"Ġcat":5900,"ĠPenn":5901,"++)":5902,"small":5903,"Ġaffect":5904,"ĠVis":5905,"Ġhelped":5906,"annot":5907,"gate":5908,"Ġactions":5909,"Ġargument":5910,"Ġcreating":5911,"ocation":5912,"infty":5913,"Ġprefer":5914,"Ġcapacity":5915,"Sl":5916,"Men":5917,"Ġspeak":5918,"Ġowners":5919,"Ġcontain":5920,"Ġdaily":5921,"ĠCentre":5922,"Ġagree":5923,"AV":5924,"afe":5925,"ponents":5926,"Ġframe":5927,"nce":5928,"Ġresponsible":5929,"imation":5930,"ĠId":5931,"Ġwel":5932,"Ġwants":5933,"Types":5934,"85":5935,"Ġletter":5936,"73":5937,"ĠArab":5938,"onic":5939,"Ġrac":5940,"sq":5941,"pects":5942,"Ġinstr":5943,"font":5944,"ils":5945,"isis":5946,"Dec":5947,"Ġbattle":5948,"Ġcontribut":5949,"Ġcritic":5950,"raphics":5951,"Ġaccom":5952,"Ġhundred":5953,"instance":5954,"Ġarrest":5955,"Sim":5956,"ĠLead":5957,"Ob":5958,"Configuration":5959,"Ġanswer":5960,"Port":5961,"require":5962,"Ġhappen":5963,"uthors":5964,"else":5965,"Ġplays":5966,"Ġraise":5967,"Ġlisted":5968,"Ġemployees":5969,"ĠSecond":5970,"Ġhappened":5971,"ĠEvery":5972,"reedom":5973,"ny":5974,"ĠChief":5975,"mail":5976,"apers":5977,"Ġminor":5978,"ULT":5979,"osen":5980,"Ġuint":5981,"eqref":5982,"Gl":5983,":</":5984,"Ġpresence":5985,"Ġcitiz":5986,"Ġpages":5987,"Target":5988,"Ġfigure":5989,"tilde":5990,"Ġguitar":5991,"ĠRecords":5992,"imb":5993,"erse":5994,"inion":5995,"Ġmill":5996,"Ġtal":5997,"otic":5998,"Ġwhom":5999,"1991":6000,"********************************":6001,"uty":6002,"Ġoffered":6003,"Ġtests":6004,"ĠGal":6005,"ĠUN":6006,"ĠEnter":6007,"ĠIts":6008,"unit":6009,"oration":6010,"rolled":6011,"IST":6012,"ĠRun":6013,"Ġstrateg":6014,"cos":6015,"car":6016,"Ġeasily":6017,"IB":6018,"weight":6019,"ERT":6020,"Ġlaunched":6021,"alysis":6022,"owers":6023,"Layout":6024,"Ġaware":6025,"MENT":6026,"Ġvolume":6027,"Ġoccup":6028,"Ġemot":6029,"asion":6030,"ĠMot":6031,":\"":6032,"Mon":6033,"94":6034,"Ġraised":6035,"ĠJoe":6036,"iced":6037,"Ġswitch":6038,"ongs":6039,"86":6040,"offset":6041,"Ġsuit":6042,"plete":6043,"AND":6044,"ĠReport":6045,"Ġsymbol":6046,"cr":6047,"93":6048,"Ġchief":6049,"rome":6050,"Ġolder":6051,"ĠBet":6052,"Ġoffset":6053,"orem":6054,"ART":6055,"Ġutil":6056,"Ġblue":6057,"Ġrestaur":6058,"').":6059,"ãĤ":6060,"Ġdoor":6061,"itory":6062,"Ġfear":6063,"UB":6064,"ecute":6065,"Ġrespectively":6066,"Ġpair":6067,"ura":6068,"Ġtemperature":6069,"emporary":6070,"(_":6071,"<?":6072,"ĠTuesday":6073,"Car":6074,"razil":6075,"Ġwest":6076,"ĠValley":6077,"vision":6078,"ĠAwards":6079,"Now":6080,"while":6081,"ĠNOT":6082,"Ġmaterials":6083,"Ġparties":6084,"ona":6085,"ĠGlobal":6086,"ĠMexico":6087,"ĠEven":6088,"gency":6089,"ĠUse":6090,"task":6091,"should":6092,"ALL":6093,"Case":6094,"Ġinfo":6095,"ĠField":6096,"Ġlen":6097,"Ġfounded":6098,"Ġcoronavirus":6099,"free":6100,"Ġbgcolor":6101,"lie":6102,"ĠOR":6103,"1960":6104,"Ġkids":6105,"Ġcore":6106,"Ġsenior":6107,"ĠĠĠĠĠĠĠĠĠĠĠĠĠĠĠĠĠĠĠĠĠĠĠĠĠĠĠĠĠĠĠĠĠĠĠ":6108,"Ġfourth":6109,"ls":6110,"Ġprison":6111,"anging":6112,"ĠBack":6113,"Ġmaximum":6114,"Ġstraight":6115,"kr":6116,"standing":6117,"ĠLin":6118,"Ġunderstanding":6119,"Ġsell":6120,"Ġfix":6121,"Server":6122,"Ġended":6123,"Ġserve":6124,"ivery":6125,"ĠWednesday":6126,"Ġahead":6127,"Ġfont":6128,"javascript":6129,"ding":6130,"py":6131,"Ġofficials":6132,"Ġtraff":6133,"92":6134,"ĠForce":6135,"entially":6136,"ĠLibrary":6137,"ĠVirginia":6138,"ĠBoy":6139,"Fe":6140,"rate":6141,"COL":6142,"ĠReturns":6143,"mut":6144,"template":6145,"acement":6146,"Ġpolic":6147,"ĠAND":6148,"Ġroute":6149,"Ġbasic":6150,"Ġeconomy":6151,"ĠFort":6152,"Frame":6153,"ourney":6154,"WS":6155,"Ġeast":6156,"Entry":6157,"\\,":6158,"Location":6159,"Ġsolutions":6160,"Width":6161,"Ġgoals":6162,"common":6163,"Op":6164,"'d":6165,"Ġaim":6166,"ĠChristmas":6167,"ynch":6168,"Ġcoord":6169,"kins":6170,"clusive":6171,"ĠFamily":6172,"umni":6173,"Ġremoved":6174,"Ġapplied":6175,"NAME":6176,"Ġexactly":6177,"Ġunc":6178,"gorithm":6179,"Ġnuc":6180,"Ġelected":6181,"num":6182,"Ġtrial":6183,"ĠSpecial":6184,"apped":6185,"poses":6186,"Ġproced":6187,"nergy":6188,"Ġreb":6189,"arian":6190,"Ġtried":6191,"background":6192,"Ġscript":6193,"PL":6194,"scale":6195,"ultural":6196,"cs":6197,"ĠJo":6198,"Ġnet":6199,"91":6200,"Ġpush":6201,"front":6202,"ournament":6203,"Ġbeautiful":6204,"Ġsubsequ":6205,"ĠRail":6206,"Ġquery":6207,"RL":6208,"Ġshape":6209,"olved":6210,"Ġspirit":6211,"ih":6212,"ĠHuman":6213,"ĠFile":6214,"Ġreduce":6215,"Ġresidents":6216,"Ġcontinues":6217,"Ġowner":6218,"eler":6219,"Ġarm":6220,"rick":6221,"ds":6222,"Ġstrategy":6223,"1989":6224,"Ġdream":6225,"Ġbuffer":6226,"Ġnoted":6227,"Ġfactor":6228,"ĠHaw":6229,"Mark":6230,"Ġbill":6231,"Ġedge":6232,"Ġcorpor":6233,"legal":6234,"Ġheavy":6235,"Ġarguments":6236,"riptor":6237,"Ġ×":6238,"iana":6239,"scope":6240,"ingu":6241,"Ġrot":6242,"Ġwinning":6243,"Ġrare":6244,"writ":6245,"ĠMax":6246,"uan":6247,"Ġfine":6248,"ĠYoung":6249,"Ġstorage":6250,"Ġaf":6251,"ĠItaly":6252,"ĠTheir":6253,"Ġalt":6254,"Big":6255,"caption":6256,"```":6257,"ylv":6258,"Ġagreement":6259,"root":6260,"]);":6261,"Ġsea":6262,"ansion":6263,"iders":6264,"column":6265,"ĠSpanish":6266,"Ġclasses":6267,"bb":6268,"FO":6269,"Ġorganizations":6270,"Fig":6271,"rapper":6272,"elligence":6273,"Ġrates":6274,"Ġfeet":6275,"Ġslight":6276,"Cons":6277,"ĠMen":6278,"Ġdiagn":6279,"ĠFootball":6280,"nam":6281,"Current":6282,"Ġsupply":6283,"look":6284,"()->":6285,"Ġcool":6286,"Ġhusband":6287,"Ġchoose":6288,"Ġbrief":6289,"abilities":6290,"Ġforced":6291,"Other":6292,"Pat":6293,"fit":6294,"1000":6295,"Ġnative":6296,"ĠBase":6297,"Ġadvert":6298,"Ġskills":6299,"iki":6300,"ĠSummer":6301,"Ġfif":6302,"ĠDom":6303,"API":6304,"ĠIran":6305,"ĠWater":6306,"ĉĠ":6307,"ĠSecurity":6308,"ĠBas":6309,"olds":6310,"hem":6311,"Ġsector":6312,"elled":6313,"ĠApp":6314,"Ġflag":6315,"Ġbottom":6316,"ĠHenry":6317,"bin":6318,"Ġkept":6319,"ĠDesign":6320,"Ġphil":6321,"Ġmobile":6322,"ĠPac":6323,"QL":6324,"Ġpowerful":6325,"Interface":6326,"ployment":6327,"utch":6328,"bridge":6329,"Ġextrem":6330,"language":6331,"ĠAlthough":6332,"phone":6333,"Ġinvestment":6334,"Ġdevices":6335,"Ġobserved":6336,"Ġguid":6337,"ker":6338,"ja":6339,"Ġthinking":6340,"bool":6341,"desc":6342,"ĠLim":6343,"etry":6344,"Ġsmaller":6345,"Ġequipment":6346,"ĠCatholic":6347,"eless":6348,"Ġtruth":6349,"Ġtools":6350,"Ġvirus":6351,"Ġappointed":6352,"Ġhappy":6353,"Ġmachine":6354,"ĠFund":6355,"fa":6356,"ACK":6357,"ĠElect":6358,"Ġcoast":6359,"power":6360,"Ġcommit":6361,"ĠKey":6362,"Ġreflect":6363,"ĠNS":6364,"ĠGar":6365,"Ġconcent":6366,"Ġinfluence":6367,"ĠStand":6368,"rics":6369,"asure":6370,"Ġbecoming":6371,"Ġoriginally":6372,"ested":6373,"Ġpatient":6374,".$":6375,"Ġideas":6376,"Ġrequires":6377,"Ġedition":6378,"ĠView":6379,"ĠAbout":6380,"Ġfactors":6381,"Ġsample":6382,"Ġhour":6383,"odies":6384,"âĢ¢":6385,"ĠMa":6386,"Ġseparate":6387,"IE":6388,"ĠMP":6389,"Ġargs":6390,"etch":6391,"Ġgeneration":6392,"Ġstars":6393,"Ġharm":6394,"Ġ``":6395,"drop":6396,"Ġofficer":6397,"Ġmeasures":6398,"Ġvehicle":6399,"atically":6400,"ĠDown":6401,"psi":6402,"Description":6403,"Ġspot":6404,"sear":6405,"Ġreality":6406,"Ġleaving":6407,"IGN":6408,"Ġviews":6409,"ayers":6410,"ĠCorpor":6411,"ĠJohnson":6412,"Ġthread":6413,"Ġplanning":6414,"Process":6415,"ĠSand":6416,"cean":6417,"ĠThursday":6418,"Ġdrink":6419,"dim":6420,"May":6421,"going":6422,"Ġchallenge":6423,"float":6424,"typ":6425,"Ġmask":6426,"dec":6427,"Ġclick":6428,"ĠSar":6429,"ĠPo":6430,"ĠMedical":6431,"ĠJones":6432,"Ġreasons":6433,"Ġ~":6434,"ĠMap":6435,"isters":6436,"Ġaudience":6437,"Ġmostly":6438,"ictionary":6439,"Bo":6440,"ali":6441,"][":6442,"Ġenh":6443,"ĠAsia":6444,"ĠAmazon":6445,"Ġnegative":6446,"Ġdriver":6447,"sche":6448,"ategories":6449,"CP":6450,"life":6451,"frame":6452,"ĠKar":6453,"Ġadvant":6454,"Ġillust":6455,"that":6456,"Ġincome":6457,"Offset":6458,"ĠPolice":6459,"iano":6460,"estic":6461,"Header":6462,"ĠCreate":6463,"Ġscope":6464,"mega":6465,"ĠArray":6466,"Json":6467,"Ġconvert":6468,"iar":6469,"found":6470,"Down":6471,"Ġaircraft":6472,"Ear":6473,"Ġmiles":6474,"eqnarray":6475,"pg":6476,"Ġfloor":6477,"Ġdetermine":6478,"Ġfeatured":6479,"Ġmanaged":6480,"Ev":6481,"Ġconsult":6482,"MM":6483,"Ġbed":6484,"ĠDate":6485,"ĠArg":6486,"real":6487,"cache":6488,"orph":6489,"ĠBob":6490,"uri":6491,"Ø§":6492,"Parameter":6493,"oded":6494,"ĠFire":6495,"Ġidentified":6496,"buffer":6497,"Script":6498,"olec":6499,"Ġoperator":6500,"circ":6501,"Ġnotice":6502,"Ġmentioned":6503,"card":6504,"Ġrelative":6505,"Ġfloat":6506,"Search":6507,"ĠWay":6508,"ctx":6509,"ĠCy":6510,"Ġtro":6511,"Ġobvious":6512,"ersonal":6513,"Ġrevealed":6514,"ented":6515,"Ġalbums":6516,"ĠLab":6517,"Ġfra":6518,"Ġtransition":6519,"nel":6520,"Bundle":6521,"ye":6522,"Utils":6523,"Ġcentre":6524,"emp":6525,"ĠCEO":6526,"Ġvan":6527,"Ġconnected":6528,"ĠÂ»":6529,"jo":6530,"ĠOrder":6531,"scape":6532,"ws":6533,"ĠApple":6534,"Ġdu":6535,"ublished":6536,"Local":6537,"Ġlibrary":6538,"inations":6539,"Are":6540,"HS":6541,"Ġcities":6542,"imary":6543,"Ġcars":6544,"Ġadministration":6545,"Ġdownload":6546,"Ġbenefits":6547,"Ġperhaps":6548,"aser":6549,"ĠRet":6550,"Ġinfr":6551,"Ġfunding":6552,"Write":6553,"87":6554,"ðŁ":6555,"Ġfit":6556,"Ġreplaced":6557,"Ġfamous":6558,"cles":6559,"uries":6560,"ĠCA":6561,"Ġmeant":6562,"1988":6563,"Ġbeat":6564,"Ġinterested":6565,"ĠLiber":6566,"amm":6567,"GE":6568,"Ġdanger":6569,"Some":6570,"Ġattend":6571,"Ġrecommend":6572,"Ġweap":6573,"Sign":6574,"atalog":6575,"othing":6576,"ĠDO":6577,"Ġvisual":6578,"Ġprofile":6579,"ĠWhy":6580,"Ġstations":6581,"ĠLord":6582,"ĠPop":6583,"Ġwid":6584,"Ġiter":6585,"Tree":6586,"Why":6587,"Ġcredit":6588,"osoph":6589,"Range":6590,"Ke":6591,"Ġsmart":6592,"}[":6593,"Ġarticles":6594,"Ġbroadcast":6595,"Ġfresh":6596,"etime":6597,"parse":6598,"Ġlived":6599,"resource":6600,"ĠSports":6601,"ĠColor":6602,"ĠAR":6603,"Â©":6604,"Ġappre":6605,"ĠIslam":6606,"Thread":6607,"cript":6608,"eces":6609,"Ġpet":6610,"ĠSenate":6611,"after":6612,"Ġbul":6613,"WE":6614,"pop":6615,"Ġearth":6616,"Ġresear":6617,"Ġdepartment":6618,"Ġshift":6619,"INT":6620,"ĠNY":6621,"ati":6622,"iques":6623,"acks":6624,"unte":6625,"Ġdetermined":6626,"Ġhyp":6627,"Ġsequence":6628,"Ġconvers":6629,"Ġzero":6630,"gypt":6631,"Ġattract":6632,"Ġmatches":6633,"ĠCov":6634,"ĠAssert":6635,"Dep":6636,"ishes":6637,"cap":6638,"Ġtrail":6639,"ĠHor":6640,"%)":6641,"pool":6642,"aylor":6643,"itche":6644,"ĠHospital":6645,"150":6646,"([":6647,"Ġwall":6648,"ifications":6649,"inet":6650,"Ġsexual":6651,"Ġdecre":6652,"Ġfan":6653,"}}\\":6654,"oves":6655,"Ġconference":6656,"iling":6657,"chi":6658,"ĠStat":6659,"omic":6660,"ĠMany":6661,"Ġut":6662,"Ġhousehold":6663,"Ġconflict":6664,"ĠWho":6665,"Ã¨":6666,"Ġ{}":6667,"ideos":6668,"Ã§":6669,"ogen":6670,"Ġgenerated":6671,"ture":6672,"Ġapproximately":6673,"Ġuseful":6674,"ĠChris":6675,"Module":6676,"Ġmaybe":6677,"Ġgun":6678,"Ġexists":6679,"ancer":6680,"orney":6681,"oston":6682,"Ġcultural":6683,"ython":6684,"Tim":6685,"OK":6686,"wan":6687,"Ġemb":6688,"Ġremained":6689,"Ġmys":6690,"Ġfixed":6691,"ĠRegister":6692,"ĠAuthor":6693,"adium":6694,"ĠKh":6695,"endar":6696,"ĠAff":6697,"Ġstuff":6698,"document":6699,"yer":6700,"RES":6701,"Ġbiggest":6702,"rum":6703,"Ġsun":6704,"Ġexpert":6705,"Ġoperating":6706,"structor":6707,"claim":6708,"anche":6709,"urban":6710,"Ġking":6711,"Ġrequirements":6712,"ĠBow":6713,"mem":6714,"Ã¢":6715,"Ġrelevant":6716,".;":6717,"Ġ::":6718,"Ġgone":6719,"fs":6720,"rees":6721,"Ġtalking":6722,"Ġforest":6723,"ĠRights":6724,"Ġdamage":6725,"styles":6726,"ĠEr":6727,"ĠLuc":6728,"Ġregarding":6729,"ĠIndust":6730,"||":6731,"Control":6732,"ĠLine":6733,"Red":6734,"Ġshut":6735,"ĠOrgan":6736,"Ġupper":6737,"Ġopportunities":6738,"Ġexperi":6739,"Ġstreet":6740,"Ġice":6741,"Ġidentity":6742,"Ġcrow":6743,"Ġleadership":6744,"Stat":6745,"agment":6746,"kin":6747,"Ġpurs":6748,"tree":6749,"actor":6750,"Ġfailure":6751,"Project":6752,"Ġonto":6753,"ĠMos":6754,"CM":6755,"Cal":6756,"Ġapi":6757,"Sche":6758,"ĠWal":6759,"Callback":6760,"Ġbrain":6761,"ersey":6762,"Book":6763,"ĠGeorgia":6764,"Ġmusical":6765,"Ġoptim":6766,"des":6767,"ĠMike":6768,"About":6769,"Ġneighbor":6770,"Ġmatrix":6771,"Ġcovered":6772,"ĠSwed":6773,"Ġdatabase":6774,"orrow":6775,"ĠBlue":6776,"Ġappropriate":6777,"Serial":6778,"before":6779,"Ġcomponents":6780,"Ġcarried":6781,"Ġbenefit":6782,"Ġconfirmed":6783,"ollowing":6784,"Window":6785,"ĠJon":6786,"ded":6787,"ĠInit":6788,"Ġcouldn":6789,"Kind":6790,"entity":6791,"cdot":6792,"esh":6793,"Ġisland":6794,"ĠTele":6795,"CODE":6796,"ĠSaint":6797,"Med":6798,"oder":6799,"aka":6800,"ĠAndrew":6801,"ĠIrish":6802,"ucky":6803,"ĠAud":6804,"Ġflight":6805,"DL":6806,"à¥":6807,"oute":6808,"mond":6809,"84":6810,"ĠInvest":6811,"values":6812,"Ã³n":6813,"Ġtoward":6814,"ĠCard":6815,"Ġagreed":6816,"ĠCross":6817,"ographic":6818,"Ġattr":6819,"Ġissued":6820,"aws":6821,"'),":6822,"Height":6823,"Ġss":6824,"Ġhistorical":6825,"Ġremaining":6826,"ĠWin":6827,"Ġcertainly":6828,"sen":6829,"Ġsuc":6830,"CI":6831,"ifically":6832,"Ġreduced":6833,"1987":6834,"Ġfacilities":6835,"iat":6836,"ĠPrem":6837,"ĠĠĠĠĠĠĠĠĠĠĠĠĠĠĠĠĠĠĠĠĠ":6838,"artifact":6839,"Ġult":6840,"Ġdoll":6841,"Ġextended":6842,"Ġsettings":6843,"aml":6844,"Empty":6845,"ockey":6846,"Ġdensity":6847,"awa":6848,"89":6849,"Ġdomain":6850,"Ġprotection":6851,"match":6852,"Ġpackage":6853,"1984":6854,"Ġtrav":6855,"Me":6856,"Ġactor":6857,"rid":6858,"azing":6859,"ĠAny":6860,"ko":6861,"ĠCON":6862,"\"))":6863,"Ġviolence":6864,"dest":6865,"ĠWall":6866,"ansas":6867,"ĠInternet":6868,"iser":6869,"ĠHand":6870,"Change":6871,"war":6872,"XX":6873,"Ġtrend":6874,"Ġax":6875,"amin":6876,"ĠNE":6877,"ĠLast":6878,"'.":6879,"Ġchallenges":6880,")$.":6881,"Ġdefine":6882,"hor":6883,"ĠNight":6884,"Ġstress":6885,"Option":6886,"Ġcalling":6887,"astructure":6888,"eller":6889,"Ġexcell":6890,"ĠWilliams":6891,"Ġcontaining":6892,"ĠEmp":6893,"Ġnine":6894,"Ġintr":6895,"ĉĉĉĉĉĉĉ":6896,"Ġpil":6897,"Ġclearly":6898,"Ġextension":6899,"Will":6900,"Ġdescribe":6901,"Ġupdated":6902,"Ġsteps":6903,"Ġtrip":6904,")]":6905,"Sm":6906,"then":6907,"ĠName":6908,"Ġpicture":6909,"iciency":6910,"ĠConference":6911,"ĠRh":6912,"Ġchain":6913,"reference":6914,"odcast":6915,"hens":6916,"None":6917,"cor":6918,"Ġrise":6919,"ĠEvent":6920,"Ġreligious":6921,"Ġuniversity":6922,"Ġawarded":6923,"sd":6924,"ulty":6925,"ĠPan":6926,"iro":6927,"Ġshowing":6928,"ĠBrazil":6929,"prop":6930,"Level":6931,"Operation":6932,"ĠJoseph":6933,"RI":6934,"Ġjobs":6935,"1986":6936,"Ġstructures":6937,"Ġofficers":6938,"ĠAssembly":6939,"Ġhero":6940,"Ġeye":6941,"ependency":6942,"ĠNorthern":6943,"iments":6944,"okes":6945,"ĠMiddle":6946,"Ġcandidate":6947,"Params":6948,"Ġunless":6949,"ĠColumb":6950,"ĠWild":6951,"ishop":6952,"Ġanimals":6953,"PECT":6954,"images":6955,"ĠJes":6956,"Ġkill":6957,"Ġchair":6958,"itage":6959,"athan":6960,"Ġcloud":6961,"ĠKen":6962,"Ġcriminal":6963,"Ġcomfort":6964,"ĠRequ":6965,"atever":6966,"ĠPage":6967,"Document":6968,"Ġconfiguration":6969,"Ġran":6970,"Ġmonitor":6971,"Ġexecutive":6972,"According":6973,"ĠBritain":6974,"zen":6975,"initely":6976,"Ġsumm":6977,"resents":6978,"82":6979,"Ġdefinition":6980,"Ġicon":6981,"Track":6982,"Ġbudget":6983,"atters":6984,"Ġ*)":6985,"andon":6986,"stra":6987,"Position":6988,"ĠJustice":6989,"%;":6990,"Ġvoc":6991,"ĠNote":6992,"ĠCollection":6993,"Ġwarm":6994,"Ġsport":6995,"ĠTH":6996,"Ne":6997,"cit":6998,"ĠPass":6999,"ograp":7000,"ifies":7001,"Ġdig":7002,"ĠLive":7003,"ĠMicrosoft":7004,"files":7005,"ĠJewish":7006,"Ġcamera":7007,"Ġrepresented":7008,"Ġwish":7009,"Ġcrisis":7010,"ĠLo":7011,"Ġtemplate":7012,"ĠEach":7013,"Ġmyself":7014,"Ġattribute":7015,"Ġholds":7016,"Enc":7017,"ĠJeff":7018,"icip":7019,"ĠMA":7020,"Ġsinger":7021,"rich":7022,"Ġcategory":7023,"Inst":7024,"Ġclinical":7025,"Record":7026,"ĠAD":7027,"lig":7028,"Ġ>=":7029,"sign":7030,"Ġwriters":7031,"plement":7032,"ĠHon":7033,"./":7034,"ĠTO":7035,"Ġenvironmental":7036,"ĠRo":7037,"ĠPolit":7038,"Ġstudio":7039,"TA":7040,"epsilon":7041,"ĠWales":7042,"Ġtraffic":7043,"ingle":7044,"STR":7045,"apse":7046,"aked":7047,"Ġscored":7048,"SH":7049,"Ġadopt":7050,"onym":7051,"Ġimpress":7052,"uing":7053,"Ġbird":7054,"Ġrender":7055,"sqrt":7056,"Http":7057,"ĠMethod":7058,"ira":7059,"iable":7060,"ĠRam":7061,"Ġcorresponding":7062,"icker":7063,"These":7064,"ĠHarr":7065,"Ġnumerous":7066,"Ġdraft":7067,"abeth":7068,"Unit":7069,"Ġfle":7070,"Que":7071,"Ġappearance":7072,"ran":7073,"Ġorigin":7074,"ĠFood":7075,"Ġequival":7076,"IZE":7077,"ĠPoint":7078,"ĠRos":7079,"ĠDemocratic":7080,"Entity":7081,"ĠDC":7082,"ĠSciences":7083,"Dir":7084,"ĠEU":7085,"Ġseat":7086,"ĠLike":7087,"=\"../../../../../":7088,"ursor":7089,"ometry":7090,"Mult":7091,"Ġpi":7092,"Ġwind":7093,"tim":7094,"1985":7095,"Ġpropos":7096,"ighter":7097,"Ġstarts":7098,"uls":7099,"enger":7100,"Ġriver":7101,"Ġcrime":7102,"ĠFrancisco":7103,"ĠMain":7104,"ĠTrue":7105,"bury":7106,"ĠHy":7107,"Ġjoint":7108,"Host":7109,"ylvania":7110,"Ġimplementation":7111,"oes":7112,"Ġrapid":7113,"ĠIP":7114,"Here":7115,"Omega":7116,"Ġsurvey":7117,"Ġinfe":7118,"oles":7119,"Ġvictory":7120,"Ġvector":7121,"=\"_":7122,"ĠEnergy":7123,"window":7124,"ĠFederal":7125,"Net":7126,"ampion":7127,"Ġinvestigation":7128,"ilton":7129,"Hash":7130,"Expression":7131,"Ġsignificantly":7132,"join":7133,"otes":7134,"Ġmetal":7135,"Ġproceed":7136,"ĠReal":7137,"aped":7138,"Ġentered":7139,"ups":7140,">,":7141,"orship":7142,"Since":7143,"kind":7144,"^*":7145,"ĠCode":7146,"ĠVan":7147,"direct":7148,"aria":7149,"ĠSection":7150,"Reference":7151,"Prot":7152,"=>":7153,"conf":7154,"Ġdedicated":7155,"Ġnewsp":7156,"Pop":7157,"ĠSouthern":7158,"Ġstandards":7159,"ĠAmericans":7160,"1950":7161,"Ġil":7162,"control":7163,"Ġlabor":7164,"Non":7165,"second":7166,"Ġcommission":7167,"Ġyourself":7168,"Connection":7169,"ador":7170,"Ġunknown":7171,"{{":7172,"Ġgovern":7173,"Ġfant":7174,"Ġvariable":7175,"Ġconstr":7176,"isms":7177,"nab":7178,"empty":7179,"Ġweak":7180,"Ġapplic":7181,"Ġowned":7182,"utils":7183,"star":7184,"Ġcounty":7185,"Ð»":7186,"Ġprocesses":7187,"Ġdivision":7188,"clude":7189,"cat":7190,"Ġseeing":7191,"ĠSpain":7192,"Ġpolicies":7193,"ĠSupport":7194,"ĠDaniel":7195,"Ġguide":7196,"ĠOnline":7197,"Ġsomew":7198,"DR":7199,"Ġlayer":7200,"Ġpp":7201,"Ġpolitics":7202,"tml":7203,"riev":7204,"stitution":7205,"ĠException":7206,"skip":7207,"va":7208,"rangle":7209,"Ġfavorite":7210,"Ġoverride":7211,"elines":7212,"Ġpros":7213,"ĠIII":7214,"foo":7215,"ĠGuide":7216,"Settings":7217,"uts":7218,"ĠLear":7219,"Ġtechnical":7220,"Ġdiss":7221,"ĠColl":7222,"scription":7223,"Ġpanel":7224,"Ġtells":7225,"Ġcombined":7226,"Ġdetail":7227,"Ġunivers":7228,"Ġguy":7229,"Ġsale":7230,"Ġdriving":7231,"Ġoffering":7232,"Ġdistributed":7233,"EM":7234,"itable":7235,"Ġcontainer":7236,"try":7237,"ader":7238,"itan":7239,"oving":7240,"Ġidentify":7241,"}_{\\":7242,"ova":7243,"Ġalternative":7244,"uses":7245,"uzz":7246,"ĠSir":7247,"Any":7248,"Ġjourney":7249,"Ġagent":7250,"aver":7251,"Ġsustain":7252,"Ġburn":7253,"Ġminimum":7254,"Ġapparent":7255,"Äģ":7256,"Ġmunic":7257,"Ġmarketing":7258,"?:":7259,"Ġparams":7260,"Ġfocused":7261,"ĠPak":7262,"ĠEgypt":7263,"ĠOk":7264,"ĠMichigan":7265,"ĠJac":7266,"Ġmyst":7267,"Ġweather":7268,"Properties":7269,"Ġdivid":7270,"Ġsuffer":7271,"Ġcitizens":7272,"Posted":7273,"eries":7274,"ĠCoast":7275,"Gu":7276,"ctors":7277,"access":7278,"ĠOnly":7279,"textbf":7280,"Ġretail":7281,"Order":7282,"Ðº":7283,"ĠRadio":7284,"ĠScotland":7285,"ĠGirl":7286,"Ġcustomer":7287,"agers":7288,"HP":7289,"ĠBiden":7290,"ĠPacific":7291,"aste":7292,"Ġdie":7293,"Ġyield":7294,"Vari":7295,"ĠLO":7296,"LC":7297,"Ġsy":7298,"ĠEnt":7299,"Ġcommunication":7300,"Ġsignal":7301,"classes":7302,"ĠAdministr":7303,"olume":7304,"=\"-":7305,"lers":7306,"istration":7307,"Ġdeveloping":7308,"ĠLink":7309,"ialize":7310,"Ġplants":7311,"xx":7312,"Ġconducted":7313,"illy":7314,"Ġconsequ":7315,"note":7316,"dated":7317,"km":7318,"Ġprocessing":7319,"Ġlisten":7320,"Ġnorm":7321,"Ġaren":7322,"ĠMuslim":7323,"izont":7324,"Ġfeeling":7325,"artifactId":7326,"ennis":7327,"Ġbutton":7328,"msg":7329,"di":7330,"83":7331,"friend":7332,"Ġhair":7333,"ĠRepublican":7334,"Async":7335,"oted":7336,"command":7337,"Ġplus":7338,"Ġreviews":7339,"stein":7340,"ĠEqu":7341,"vas":7342,"ĠSte":7343,"Ġleaves":7344,"Session":7345,"poss":7346,"ĠLight":7347,"gers":7348,"crete":7349,"Ġ['":7350,";->":7351,"ĠOlympics":7352,"pet":7353,"yntax":7354,"aturing":7355,"ĠBul":7356,"ĠQueen":7357,"Ġlinear":7358,"Dom":7359,"zz":7360,"Ġdepart":7361,"Ġknows":7362,"Ġdiscovered":7363,"ĠBoth":7364,"Ġintended":7365,"subsection":7366,"ĠWalk":7367,"Ġmist":7368,"sylvania":7369,"Ġadjust":7370,"Ġtherap":7371,"ĠTer":7372,"Ġinterpret":7373,"hash":7374,"Pass":7375,"Ġsister":7376,"bound":7377,"ATA":7378,"example":7379,"Ġexerc":7380,"Ġexchange":7381,"Ġyouth":7382,"anguages":7383,"lywood":7384,"ru":7385,"Ġnotes":7386,"Ġregistered":7387,"ĠMid":7388,"Ġglass":7389,"Ġdelay":7390,"COLOR":7391,"\"));":7392,"Ġwww":7393,"grade":7394,"GET":7395,"Ġfuel":7396,"=#":7397,"??":7398,"annels":7399,"obs":7400,"Long":7401,"equal":7402,"Ġfunds":7403,"Ġregions":7404,"ĠCivil":7405,"ĠAction":7406,"Ġpan":7407,"Ġplot":7408,"device":7409,"Ġproof":7410,"Click":7411,"Ġfre":7412,"har":7413,"Ġmotor":7414,"unny":7415,"Helper":7416,"Ġphoto":7417,"bind":7418,"token":7419,"bm":7420,"enter":7421,"urer":7422,"ä¸":7423,"Store":7424,"BI":7425,"ĠWat":7426,"lines":7427,"ĠProfessor":7428,"leted":7429,"Ġstrict":7430,"81":7431,"Ġlett":7432,"Ġherself":7433,"SO":7434,"Ġpartnership":7435,"Ġinjury":7436,"Ġthousands":7437,"ĠStudies":7438,"1983":7439,"ila":7440,"ĠBoston":7441,"Ġnor":7442,"high":7443,"Ġstudied":7444,"ĠMah":7445,"Ġnice":7446,"water":7447,"Ġmagazine":7448,"ĠAdv":7449,"ifer":7450,"Ġmixed":7451,"Ġstrength":7452,"Ġresulting":7453,"ĠWhe":7454,"ĠPhys":7455,"rim":7456,"():":7457,"Ġdiscussion":7458,"ĠSep":7459,"burgh":7460,"Found":7461,"bre":7462,"ĠÂ©":7463,"ĠDou":7464,"255":7465,"Ġtoken":7466,"lets":7467,"Ġgirls":7468,"Ġregional":7469,"Ġleads":7470,"Ġterrit":7471,"During":7472,"Ġtheme":7473,"ORD":7474,"Ġlearned":7475,"store":7476,"spe":7477,"ĠMath":7478,"Ġfashion":7479,"ĠJackson":7480,"Ġwouldn":7481,"Gamma":7482,"ading":7483,"orders":7484,"range":7485,"Ġcouncil":7486,"phy":7487,"ĠAri":7488,"Ġdocuments":7489,"Ġadvice":7490,"missions":7491,"psilon":7492,"obe":7493,"nap":7494,"Integer":7495,"vec":7496,"Ġà¤":7497,"rical":7498,"ushed":7499,"Ĥ¬":7500,"Ġerrors":7501,"know":7502,"send":7503,"heast":7504,"Ġposted":7505,"Ġproducer":7506,"ifest":7507,"}=":7508,"stack":7509,"ĠFred":7510,"ĠLi":7511,"ĠCarl":7512,"Di":7513,"ĠJr":7514,"secut":7515,"ĠParliament":7516,"Ġnarr":7517,"Ġclients":7518,"Ġundefined":7519,"Ġfinding":7520,"ecutive":7521,"Mem":7522,"Right":7523,"Ġalumni":7524,"Ġvaccine":7525,"media":7526,"ears":7527,"Ġjump":7528,"Ġrom":7529,"Ġpadding":7530,"Ġallowing":7531,"urrency":7532,"Ġnum":7533,"ĠLittle":7534,"Ġrich":7535,"URE":7536,"Ġ${\\":7537,"1982":7538,"how":7539,"Ġdrama":7540,"Ġlatter":7541,"cluded":7542,"Ġfell":7543,"Ġessential":7544,"Use":7545,"120":7546,"ĠAL":7547,"Ġisol":7548,"ĠOx":7549,"ingly":7550,"Vert":7551,"ĠTw":7552,"Ġseemed":7553,"aks":7554,"ducing":7555,"Ġadding":7556,"Ġvehicles":7557,"Ġcreation":7558,"ĠSecretary":7559,"elly":7560,"rb":7561,"graph":7562,"awn":7563,"ĠTerm":7564,"groupId":7565,"ads":7566,"ĠJer":7567,"Jan":7568,"posite":7569,"Ġclaimed":7570,"ima":7571,"nic":7572,"ĠWindows":7573,"ĠEnvironment":7574,"ĠSign":7575,"ela":7576,"Font":7577,"ĠMaster":7578,"Ġdecades":7579,"models":7580,"Ġancient":7581,"Results":7582,"ĠBeach":7583,"Ġfinish":7584,"Ġrepresents":7585,"ilms":7586,"vare":7587,"Ġdefense":7588,"Ġheat":7589,"Ġbasketball":7590,"Ġmarriage":7591,"?\"":7592,"!âĢĿ":7593,"ĠBecause":7594,"Ġthanks":7595,"Ġscheme":7596,"Ġmental":7597,"Ġweekend":7598,"onto":7599,"ĠFar":7600,"Ġfellow":7601,"ĠTable":7602,"ione":7603,"oviet":7604,"address":7605,"Ġsleep":7606,"Ġprepar":7607,"Ġrepresentation":7608,"ĠNO":7609,"Sw":7610,"parameter":7611,"PRE":7612,"fields":7613,"acle":7614,"Ġarrived":7615,"ĠTheatre":7616,"Ġopinion":7617,"ITY":7618,"ĠAvenue":7619,"izabeth":7620,"Ġspeech":7621,"inton":7622,"apes":7623,"Ġcombination":7624,")$,":7625,"Ġfacility":7626,"Ġsquare":7627,"idential":7628,"Ġrain":7629,"Ġtournament":7630,"debug":7631,"Ġamb":7632,"types":7633,"Just":7634,"shot":7635,"Ġliterature":7636,"border":7637,"Ġadvantage":7638,"Ġtele":7639,"'],":7640,"}/":7641,"ĠTrust":7642,"inois":7643,"Handle":7644,"Ġtow":7645,"ĠPlease":7646,"ĠBooks":7647,"ĠCre":7648,"Ġecho":7649,"click":7650,"ugins":7651,"Ġfort":7652,"Ġtend":7653,"ective":7654,"Ġpractices":7655,"bra":7656,"Ġtracks":7657,"pling":7658,"Ġfaith":7659,"adel":7660,"ĠKong":7661,"Ġannounce":7662,"MC":7663,"Ġaffected":7664,"hetic":7665,"Ġenable":7666,"icer":7667,"ĠMu":7668,"ĠMic":7669,"Ġseasons":7670,"erg":7671,"Ġconcerns":7672,"Impl":7673,"1979":7674,"night":7675,"Ġpal":7676,"AF":7677,"Author":7678,"Ġadvent":7679,"redit":7680,"Ġvision":7681,"phas":7682,"ĠMake":7683,"Ġdelivery":7684,"ĠTaylor":7685,"ĠLtd":7686,"Core":7687,"white":7688,"ĠEXPECT":7689,"pp":7690,"anner":7691,")=":7692,"pute":7693,"enth":7694,"Ġseconds":7695,"Ġagency":7696,"World":7697,"Ġinstruction":7698,"ĠKim":7699,"romise":7700,"ĠTri":7701,"ĠToday":7702,"Ġrecording":7703,"sv":7704,"ĠCro":7705,"evin":7706,"Ġcookies":7707,"isc":7708,"DP":7709,"appro":7710,"Ġslightly":7711,"800":7712,"Ġattended":7713,"ĠBG":7714,"Ġnamespace":7715,"ĠKent":7716,"Ġcache":7717,"ĠOhio":7718,"Title":7719,"proof":7720,"vector":7721,"jection":7722,"ORM":7723,"opher":7724,"Ġexperiences":7725,"Ġauthors":7726,"inson":7727,"Ġven":7728,"ryst":7729,"Ġpurchase":7730,"Ġunion":7731,"ĠMult":7732,"ĠSea":7733,"ez":7734,"ĠFair":7735,"delete":7736,"ĠGreek":7737,"ĠDonald":7738,"ĠBrook":7739,"people":7740,"Ġextremely":7741,"Gen":7742,"rawn":7743,"AGE":7744,"Ġwave":7745,"Ġbegins":7746,"Ġsplit":7747,"estamp":7748,"Ġtruly":7749,"Iter":7750,"ĠAccess":7751,"ĠNavy":7752,"Ġconcert":7753,"udden":7754,"ĠRen":7755,"ĠMarket":7756,"ĠMedicine":7757,"Ġhelping":7758,"ERROR":7759,"Ġhousing":7760,"ĠGre":7761,"Ġserving":7762,"Ġexamples":7763,"Names":7764,"Ġacademic":7765,"Ġbelieved":7766,"izontal":7767,"ĠPennsylvania":7768,"uilt":7769,"ilation":7770,":(":7771,"Ġfilename":7772,"focus":7773,"coin":7774,"ificate":7775,"Ġsan":7776,"Ġpeace":7777,"ĠSus":7778,"ACT":7779,"ĠAsian":7780,"product":7781,"system":7782,"Ġcontrast":7783,"ĠEngineering":7784,"ether":7785,"=\"../../../../../../":7786,"Ġtypically":7787,"%,":7788,"global":7789,"^{(":7790,"Ġamazing":7791,"Ġwinner":7792,"Ġbatter":7793,"Ġsouthern":7794,"docs":7795,"Ġ\"\\":7796,"Ġpositions":7797,"lyn":7798,"Ġdistinct":7799,"Ġxml":7800,"Ġlocations":7801,"Ġexternal":7802,"Ptr":7803,"inating":7804,"Ġadvanced":7805,"ĠStan":7806,"internal":7807,"eper":7808,"ĠJersey":7809,"bal":7810,"Ġhelps":7811,"Ġdelete":7812,"connect":7813,"ĠBroad":7814,"Ġhomes":7815,".'":7816,"nections":7817,"ĠSteve":7818,"Ġfish":7819,"Ġprofession":7820,"ĠSpace":7821,"Each":7822,"Ġhash":7823,"Ġtra":7824,"allel":7825,"ĠHa":7826,"However":7827,"normal":7828,"Ġsupporting":7829,"ceived":7830,"iral":7831,"ello":7832,"elease":7833,"Ġcold":7834,"encing":7835,"Ġwarn":7836,"Ġestimated":7837,"ĠTem":7838,"Ġcrew":7839,"ĠRom":7840,"Ġadvance":7841,"othes":7842,"Ġreject":7843,"600":7844,"Ġmotion":7845,"Ġspring":7846,"Ġdefend":7847,"oster":7848,"Ġchanging":7849,"arters":7850,"END":7851,"ĠNav":7852,"1981":7853,"Ġkid":7854,"Ġreform":7855,"transform":7856,"Ġachieve":7857,"ĠSaf":7858,"appe":7859,"ĠNiger":7860,"session":7861,"Ġremote":7862,"dat":7863,"ĠMcC":7864,"ĠEN":7865,"RC":7866,"Ġhotel":7867,"stone":7868,"ĠVideo":7869,"Ġfootballers":7870,"leton":7871,"ĠBern":7872,"Ġnorthern":7873,"Ġincorpor":7874,"mann":7875,"bro":7876,"False":7877,";\"":7878,"hemat":7879,"Ġretain":7880,"ootstr":7881,"ĠFour":7882,"Ġcer":7883,"ĠObama":7884,"handle":7885,"Ġattacks":7886,"Ġspend":7887,"SL":7888,"Ġbalance":7889,"Ġactress":7890,"Ġprotein":7891,"Ġcircum":7892,"Ġaccepted":7893,"Ġguess":7894,"cope":7895,"Parameters":7896,"roud":7897,"fortun":7898,"Ġgain":7899,"Ġcolon":7900,"250":7901,"Â°":7902,"Ġscientific":7903,"================================":7904,"ĠVill":7905,"Ġmarkets":7906,"ĠWis":7907,"Best":7908,"Ġvent":7909,"Ġterror":7910,"NavBar":7911,"Only":7912,"Menu":7913,"Ġmessages":7914,"Ġdance":7915,"Ġmovies":7916,"ĠRay":7917,"Ġwatching":7918,"sf":7919,"(*":7920,"ashed":7921,"Aust":7922,"anna":7923,"ĠUkr":7924,"odd":7925,"Ġcorner":7926,"Ġelections":7927,"Ġwaiting":7928,"yo":7929,"stop":7930,"]]":7931,"ji":7932,"Ġoccurred":7933,"Ġ('":7934,"ĠCH":7935,"Ġreferred":7936,"Ġthank":7937,"Ġhydro":7938,"Ġwitness":7939,"ographer":7940,"Ġkick":7941,"Cor":7942,"ĠSO":7943,"fn":7944,"Left":7945,"render":7946,"Ġspin":7947,"ACE":7948,"Ġimportance":7949,"Ġclassic":7950,"allow":7951,"Ġpurposes":7952,"ĠLook":7953,"ĠDar":7954,"del":7955,"ĠKorea":7956,"Ġgenerate":7957,"1976":7958,"Ġcommitted":7959,"Ġtransaction":7960,"Ġprove":7961,"clear":7962,"ĠModel":7963,"1972":7964,"Parent":7965,"Ġpun":7966,"Ġplanned":7967,"ĠIT":7968,"EQ":7969,"1975":7970,"}^{\\":7971,"news":7972,"Ġhappens":7973,"Ġmedal":7974,"ĠSom":7975,"Ġanimal":7976,"cert":7977,"1978":7978,"edge":7979,"Tube":7980,"ĠChair":7981,"ĠRest":7982,"ĠLocal":7983,"Ġtreated":7984,"Care":7985,"Ġpoly":7986,"ĠGuard":7987,"ĠPrince":7988,"Ġsympt":7989,"ĠControl":7990,"ĠValue":7991,"Ġpool":7992,"umes":7993,"sort":7994,"Ġaudio":7995,"ĠExt":7996,"Ġ\\,":7997,"ocks":7998,"Ġmassive":7999,"ĠDaily":8000,"istant":8001,"PT":8002,"ĠGi":8003,"idae":8004,"rot":8005,"amber":8006,"_;":8007,"Invalid":8008,"Ġhighlight":8009,"ĠAS":8010,"ĠStory":8011,".âĢĻ":8012,"ĠDigital":8013,"ĠWrit":8014,"Ġrelatively":8015,"Ġflex":8016,"DD":8017,"oti":8018,"ĠAf":8019,"Ġchosen":8020,"ĠThree":8021,"Ġchampionship":8022,"ickets":8023,"Ġinn":8024,"Ġholding":8025,"(:":8026,"Ġloved":8027,"oggle":8028,"ĠEmpire":8029,"ĠEth":8030,"ignment":8031,"Ġinspired":8032,"stances":8033,"ipeline":8034,"Err":8035,"abb":8036,"Ġarmy":8037,"Ġadvoc":8038,"ĠStart":8039,"Device":8040,"}).":8041,"prise":8042,"Ġban":8043,"Ġpieces":8044,"rovers":8045,"uis":8046,"Ġsucceed":8047,"ĠSher":8048,"present":8049,"Final":8050,"âĢī":8051,"split":8052,"Ġlicense":8053,"rames":8054,"Vector":8055,"Ġcreative":8056,"---":8057,"Ġdress":8058,"ootstrap":8059,"aya":8060,"Ġfavour":8061,"sey":8062,"Ġevening":8063,"National":8064,"Ġrelation":8065,"formance":8066,"ĠCat":8067,"auth":8068,"}),":8069,"Ġfigures":8070,"cf":8071,"Before":8072,"req":8073,"andy":8074,"Tags":8075,"una":8076,"Ġmuseum":8077,"Ġcash":8078,"Ġsamples":8079,"Ġrh":8080,"Ġdoubt":8081,"Ġprotocol":8082,"holder":8083,"ixel":8084,"CRE":8085,"ynchron":8086,"toString":8087,"Ġauthorities":8088,"Sk":8089,"avid":8090,"Ġjustice":8091,"La":8092,"ĠPrime":8093,"ĠCustom":8094,"emon":8095,"Ġinstitutions":8096,"Ġapproved":8097,"ogy":8098,"ĠThus":8099,"Decl":8100,"Ġtradition":8101,"ĠImp":8102,"1974":8103,"ĠBad":8104,"____":8105,"ĠAsh":8106,"Doc":8107,"Ġexcellent":8108,".}":8109,"oses":8110,"Ġends":8111,"modal":8112,"oir":8113,"Ġsoft":8114,"English":8115,"Ġinitially":8116,"Ġul":8117,"Ġelem":8118,"ĠChildren":8119,"Body":8120,"ĠAirport":8121,"ĠSeason":8122,"ĠĠĠĠĠĠĠĠĠĠĠĠĠĠĠĠĠĠĠĠ":8123,"Ġchart":8124,"webkit":8125,"Template":8126,"orough":8127,"Ġfighting":8128,"cloud":8129,"Ġframework":8130,"stylesheet":8131,"ĠKenn":8132,"inity":8133,"1968":8134,"Ġdifferences":8135,"Ġvideos":8136,"Ġexperienced":8137,"Ġtrees":8138,"Select":8139,"mode":8140,"rie":8141,"Ġprepared":8142,"Ġincred":8143,"pdf":8144,"Ġsupposed":8145,"ERS":8146,"Ġera":8147,"Ġarchitecture":8148,"Ġbranch":8149,"icons":8150,"Public":8151,"oor":8152,"Application":8153,"Ġguys":8154,"uset":8155,"ĉĉĊ":8156,"ĠGovernor":8157,"Ġelim":8158,"Ġhidden":8159,"Ġevolution":8160,"1977":8161,"Ġestate":8162,"faces":8163,"ĠCorporation":8164,"ods":8165,"world":8166,"shall":8167,"ydney":8168,"uous":8169,"Show":8170,"hab":8171,"Ġphen":8172,"teen":8173,"Ġbehavi":8174,"ĠMS":8175,"ĠCovid":8176,"ĠFox":8177,"roke":8178,"ĠUser":8179,"patch":8180,"copy":8181,"apore":8182,"Ġflat":8183,"Ġdecisions":8184,"Ġemergency":8185,"email":8186,"ATH":8187,"iy":8188,"Ġvac":8189,"Ġsqu":8190,"AME":8191,"ĠPhot":8192,"Ġbrowser":8193,"aren":8194,"`.":8195,"Ġskin":8196,"Ġengineering":8197,"Ġresolution":8198,"Ġturns":8199,"byte":8200,"Ġphotos":8201,"ĠIllinois":8202,"Ġcoverage":8203,"equals":8204,"insert":8205,"Ġprotest":8206,"WA":8207,"Ver":8208,"Ġlies":8209,"ĠCur":8210,"Ġmainly":8211,"writer":8212,"ĠCommon":8213,"........":8214,"prov":8215,"Ġsuggested":8216,"Ġheader":8217,"Ġliber":8218,"Ġsurg":8219,"Ġauthority":8220,"Ins":8221,"Ġunsigned":8222,"ĠCond":8223,"Ġexpos":8224,"issions":8225,"VD":8226,"RS":8227,"ugby":8228,"anth":8229,"Ġbelong":8230,"Ġversions":8231,"Ġpredict":8232,"Ġexpansion":8233,".\\":8234,"kg":8235,"Ġdepth":8236,"Ġfreedom":8237,"CTION":8238,"ĠNon":8239,"ĠHong":8240,"Ġbatt":8241,"Ġreceiving":8242,"uality":8243,"varepsilon":8244,"Ġgrew":8245,"iration":8246,"dist":8247,"coh":8248,"ucks":8249,"Ġprices":8250,"ĠEdward":8251,"1973":8252,"ĠLatin":8253,"rightarrow":8254,"ĠBang":8255,"bas":8256,"ĠSupreme":8257,"oral":8258,"ĠSon":8259,"Ġtwice":8260,"ais":8261,"Ġcarbon":8262,"Reader":8263,"MI":8264,"ervative":8265,"mid":8266,"outs":8267,"Ġexplained":8268,"person":8269,"ĠCirc":8270,"widget":8271,"uations":8272,"Ġextract":8273,"Ġcollected":8274,"virt":8275,"Ġfill":8276,"vin":8277,"Ġpit":8278,"interface":8279,"Ġsecure":8280,"Ġcomedy":8281,"Values":8282,"utr":8283,"ĠHard":8284,"ataset":8285,"plex":8286,"ĠMajor":8287,"Ġnetworks":8288,"ĠText":8289,"Ġimproved":8290,"Ġcart":8291,"Ġguarant":8292,"make":8293,"Ġroles":8294,"Ġapart":8295,"Ġspons":8296,"istent":8297,"Ġbond":8298,"Ġvolunte":8299,"Ġinternet":8300,"Definition":8301,"âĢĻ.":8302,"ologist":8303,"ĠLew":8304,"Ġconsists":8305,"Ġring":8306,"ĠRog":8307,"Schema":8308,"Ġcaught":8309,"egraphics":8310,"keys":8311,"Ġindustrial":8312,"includegraphics":8313,"custom":8314,"aration":8315,"olver":8316,"Ġentertain":8317,"ects":8318,"nesota":8319,"ĠEastern":8320,"uv":8321,"Ġchemical":8322,"Ġcorre":8323,"mosp":8324,"Ġaccident":8325,"[\\":8326,"Ġteaching":8327,"unting":8328,"ĠPhilipp":8329,"OO":8330,"avor":8331,"SET":8332,"Ġcycle":8333,"reshold":8334,"varphi":8335,"Ġactors":8336,"Ġcandidates":8337,"cut":8338,"ĠCook":8339,"ĠBattle":8340,"DC":8341,"Ġbrings":8342,"University":8343,"essions":8344,"Two":8345,"1971":8346,"asters":8347,"Ġdetailed":8348,"ĠMir":8349,"raham":8350,"Ġdefinitely":8351,"Ġnuclear":8352,"Ġwhatever":8353,"irty":8354,"Ġinstrument":8355,"Ġefficient":8356,"Step":8357,"osophy":8358,"Ġhouses":8359,"ĠIO":8360,"Ġorders":8361,"Nov":8362,"Has":8363,"Ġsuccessfully":8364,"achuset":8365,"ĠÂ·":8366,"Ġsounds":8367,"Args":8368,"Ġupdates":8369,"worth":8370,"Ġrent":8371,"shop":8372,"achusetts":8373,"Ġacting":8374,"Ġmanage":8375,"Ġhearing":8376,"Ġsides":8377,"Ġincident":8378,"hover":8379,"iveness":8380,"Ġexpressed":8381,"Early":8382,"Ġassume":8383,"VE":8384,"master":8385,"admin":8386,"env":8387,"Ġjav":8388,"Ġalleged":8389,"Ġpossibly":8390,"ĠKr":8391,"Draw":8392,"__(":8393,"organ":8394,"contin":8395,"ĠEst":8396,"Year":8397,"ĠFurther":8398,"Ñĥ":8399,"Ġinfrastructure":8400,"Ġathlet":8401,"ego":8402,")\"":8403,"Ġassociation":8404,"High":8405,"Ġreserved":8406,"Ġcas":8407,"eman":8408,"Ġtrigger":8409,"Ġwinter":8410,"1969":8411,"Ġentirely":8412,"urd":8413,"ango":8414,"Ġperman":8415,"Ġawards":8416,"Argument":8417,"ĠCorn":8418,"Ġequivalent":8419,"tool":8420,"Meta":8421,"GS":8422,"Ġalgorithm":8423,"screen":8424,"named":8425,"Ġpolitician":8426,"ensional":8427,"replace":8428,"wa":8429,"Ġreplace":8430,"ĠCommunic":8431,"Ġfinds":8432,"Ġbridge":8433,"Ġtested":8434,"ĠWatch":8435,"ĠON":8436,"Render":8437,"exports":8438,"Ġcluster":8439,"ivation":8440,"Cap":8441,"export":8442,"ln":8443,"Rect":8444,"ĠBGCOLOR":8445,"Ġinsert":8446,"Ġrecon":8447,"ĠStation":8448,"Second":8449,"ailing":8450,"Ġkeeping":8451,"Phone":8452,"Ġhonor":8453,"ĠTurn":8454,"Ġmel":8455,"Note":8456,"Ġaccomp":8457,"{}":8458,"ga":8459,"Ġstack":8460,"ĠPC":8461,"ĠExecutive":8462,"Ġcommittee":8463,"Ġurban":8464,"Ġspecifically":8465,"ĠStaff":8466,"Ġexplain":8467,"Ġgender":8468,"rine":8469,"Ġsettlement":8470,"Ġregul":8471,"ĠDeb":8472,"Ġsegment":8473,"enum":8474,"News":8475,"Ã±":8476,"Ġfeaturing":8477,"Support":8478,"ĠFull":8479,"ĠðŁ":8480,"raq":8481,"Ġwrap":8482,"antly":8483,"1940":8484,"pton":8485,"Members":8486,"pan":8487,"Widget":8488,"Ġkeys":8489,"ĠPay":8490,"Ġinvoke":8491,"ĠAnth":8492,"PM":8493,">();":8494,"cuss":8495,"Ġgather":8496,"ĠAlb":8497,"ĠUpdate":8498,"Ġtechniques":8499,"Ġcoal":8500,".~\\":8501,"Ġprofessor":8502,"empl":8503,"Ġbow":8504,"ĠPen":8505,"Ġspaces":8506,"Ġstopped":8507,"ĠBBC":8508,"Ġment":8509,"Ġwestern":8510,"Ġguard":8511,"Ġpriv":8512,"names":8513,"Ġinstalled":8514,"Custom":8515,"ĠCountry":8516,"IX":8517,"Ġmolec":8518,"Fields":8519,"Policy":8520,"sid":8521,"Ġsupports":8522,"ARY":8523,"ependence":8524,"Ġparse":8525,"Ġalongside":8526,"iner":8527,"alo":8528,"ĠOnt":8529,"Ġcomparison":8530,"register":8531,"Ġhistoric":8532,"Ġhaven":8533,"ĠVictoria":8534,"Av":8535,"geq":8536,"engers":8537,"ito":8538,"ĠBon":8539,"`,":8540,"appa":8541,"Ġmort":8542,"isa":8543,"ĠĠĠĠĠĠĠĠĠĠĠĠĠĠĠĠĠĠĠĠĠĠĠĠĠĠĠĠĠĠĠĠĠĠĠĠĠĠĠ":8544,"scribe":8545,"GA":8546,"ĠArea":8547,"wrap":8548,"Ġodd":8549,"Ġlit":8550,"ulner":8551,"Ġton":8552,"full":8553,"ĠElizabeth":8554,"MB":8555,"ĠPers":8556,"Ġratio":8557,"SU":8558,"Send":8559,">.":8560,"ĠCost":8561,"Ġrough":8562,"Ġcharges":8563,"Video":8564,"Ġtab":8565,"ĠRod":8566,"ĠSpring":8567,"Ġreduction":8568,"DI":8569,"coll":8570,"bling":8571,"ĠAk":8572,"acts":8573,"FT":8574,"Ġsac":8575,"Writer":8576,"ernel":8577,"Ġcauses":8578,"ĠHom":8579,"----------------------------------------------------------------":8580,"Ġrelationships":8581,"boolean":8582,"ĠSu":8583,"fast":8584,"Ġmanner":8585,"mo":8586,"ĠBol":8587,"ĠHas":8588,"ĠLabor":8589,"iffer":8590,"ĠPrivacy":8591,"merce":8592,"Ġnodes":8593,"ĠSat":8594,"icing":8595,"achment":8596,"NN":8597,"Ġpassion":8598,"ĠNumber":8599,"Ġvariables":8600,"uced":8601,"amil":8602,"Ġos":8603,"ĠMO":8604,"âĢĻ,":8605,"Ġeat":8606,"Ġdiscussed":8607,"Ġconfirm":8608,"Ġagric":8609,"Exp":8610,"ori":8611,"Ġurg":8612,"1967":8613,"uby":8614,"Ġdelivered":8615,"agger":8616,"ICE":8617,"ĠAli":8618,"Ġordered":8619,"sex":8620,"Ġminute":8621,"cur":8622,"possible":8623,"Ġexport":8624,"step":8625,"ĠAgain":8626,"ĠMinistry":8627,"Ġprogramme":8628,"Ġearned":8629,"inates":8630,"oured":8631,"160":8632,"Ġlicens":8633,"ĠSpec":8634,"duce":8635,"Ġshock":8636,"aph":8637,"ĠIslands":8638,"utely":8639,"plugin":8640,"ĠNext":8641,"buf":8642,"Ġresponsibility":8643,"ulpt":8644,"Ġresearchers":8645,"Ġlose":8646,"Ġprovider":8647,"ĠHu":8648,"Ġdemocr":8649,"aga":8650,"yard":8651,"ĠWel":8652,"ĠAndroid":8653,"IVE":8654,"Ġtopic":8655,"osa":8656,"framework":8657,"ĠSym":8658,"Ġbringing":8659,"Ġlargely":8660,"DIR":8661,"###":8662,"Ġjudge":8663,"Ġinterests":8664,"Ġboost":8665,"law":8666,"Storage":8667,"Main":8668,"Ġdirectory":8669,"ĠBell":8670,"!\"":8671,"Ġzone":8672,"Ġequation":8673,"emph":8674,"Ġexplicit":8675,"je":8676,"ipality":8677,"Assert":8678,"Ġsoc":8679,"ĠHistoric":8680,"ĠSoviet":8681,"MT":8682,"ĠRepresent":8683,"ĠURL":8684,"Ġsolar":8685,"Ġvisible":8686,"ĠOxford":8687,"fol":8688,"ĠWilson":8689,"Media":8690,"Ġshares":8691,"Ġnearby":8692,"ĠFre":8693,"Stack":8694,"ĠMatt":8695,"Ġvocals":8696,"Ġentity":8697,"ĠUnivers":8698,"ĠComput":8699,"Ġfilled":8700,"Ġconver":8701,"lan":8702,"tenance":8703,"callback":8704,"Ġsubstant":8705,"iples":8706,"Ġconsumer":8707,"Ġstorm":8708,"Ġposts":8709,"Notes":8710,"101":8711,"Ġelev":8712,"ĠAdam":8713,"vm":8714,"Ġemphas":8715,"Ġsudden":8716,"Ġformation":8717,"ĠSP":8718,"(-":8719,"Ġfrequency":8720,"operation":8721,"ĠEs":8722,"ĠSearch":8723,"Ġeasier":8724,"Ġinline":8725,"ĠExper":8726,"forcement":8727,"ĠSanta":8728,"Ġstores":8729,"Then":8730,"tn":8731,"1930":8732,"Ġstanding":8733,"\">&":8734,"Ġped":8735,"Ġdoctor":8736,"Metadata":8737,"Ġveg":8738,"Ġadm":8739,"obuf":8740,"Ġsquad":8741,"ĠChampionships":8742,"double":8743,"inator":8744,"ĠCopyright":8745,"Ġepisodes":8746,"Ġwealth":8747,"ĠLem":8748,"Find":8749,"Ġscholar":8750,"Ġplane":8751,"Ġserial":8752,"Ġcompr":8753,"Ġsoul":8754,"%.":8755,"kes":8756,"ennes":8757,"Ġacquired":8758,"Ġparticipants":8759,"Ġreaders":8760,"Ġprimarily":8761,"ocker":8762,"onia":8763,"dot":8764,"Stud":8765,"Rad":8766,"Ġacid":8767,"Ġdomestic":8768,"ĠPath":8769,"Ġalloc":8770,"Ġ),":8771,"&\\":8772,"tainment":8773,"=\"../../../":8774,"icture":8775,"ĠPortug":8776,"Descriptor":8777,"Ġexplore":8778,"'>":8779,"adelph":8780,"Ġcampus":8781,"ĠHTML":8782,"rance":8783,"ĠAnother":8784,"een":8785,"ĠViet":8786,"Ġbass":8787,"ĠToronto":8788,"Ġnewly":8789,"Ġgreatest":8790,"ĠEff":8791,"Ġpure":8792,"Ġabsolute":8793,"ĠColumbia":8794,"words":8795,"ĠEll":8796,"Ġgar":8797,"Ġtechnologies":8798,"Ġpromin":8799,"ĠForest":8800,"Ġ})":8801,"zona":8802,"Ġacknow":8803,"Ġpassing":8804,"Ġsecondary":8805,"ression":8806,"overline":8807,"enant":8808,"Dem":8809,"itled":8810,"enses":8811,"inline":8812,"anz":8813,"regon":8814,"fire":8815,"Ġfeels":8816,"Del":8817,"ĠPubl":8818,"ĠOnce":8819,"ĠBlog":8820,"Ġwidely":8821,"Ġplanet":8822,"Ġ++":8823,"Every":8824,"Api":8825,"\\\"":8826,"Boolean":8827,"Ġabuse":8828,"ĠRon":8829,"Ġbright":8830,"ĠMagazine":8831,"isted":8832,"Ġmedium":8833,"Ġmarked":8834,"Ġextr":8835,"Ġrecip":8836,"ĠKnow":8837,"ownt":8838,"uma":8839,"Ġmach":8840,"Ġrequests":8841,"ami":8842,"consin":8843,"Ġvotes":8844,"Well":8845,"Ġinner":8846,"ĠMassachusetts":8847,"Ġwa":8848,"aret":8849,"UK":8850,"Ġmir":8851,"ĠMill":8852,"ĠNick":8853,"Ġbroken":8854,"Ġconsole":8855,"Ġexperts":8856,"Ġachieved":8857,"owa":8858,"herit":8859,"Ġclubs":8860,"ses":8861,"Ġcommunic":8862,"ipl":8863,"Previous":8864,"1945":8865,"Ġec":8866,"ĠSydney":8867,"ĠOs":8868,"Ġok":8869,"exception":8870,"Ġcharged":8871,"ĠBa":8872,"ĠResult":8873,"Delete":8874,"ĠCa":8875,"HA":8876,"Google":8877,"ĠFord":8878,"Ġheav":8879,"ĠBal":8880,"bles":8881,"Ġcab":8882,"uler":8883,"ĠBall":8884,"Ġrecognized":8885,"Ġdropped":8886,"virtual":8887,"andra":8888,"stat":8889,"estion":8890,"={":8891,"ROM":8892,"adelphia":8893,"prene":8894,"BR":8895,"ĠDavis":8896,"eah":8897,"Ġpoliticians":8898,"itals":8899,"ician":8900,"1920":8901,"Ġaspects":8902,"Ġmal":8903,"Ġearn":8904,"Root":8905,"Ġbelief":8906,"ĠIss":8907,"Ġreaction":8908,"eria":8909,"rence":8910,"Ġpromote":8911,"Please":8912,"Ġaccounts":8913,"Ġminister":8914,"pson":8915,"Ġacts":8916,"settings":8917,"Ġhumans":8918,"Bytes":8919,"Ġsufficient":8920,"Ġrepeated":8921,"Ġpra":8922,"lix":8923,"disabled":8924,"Ġsurrounding":8925,"Ġrural":8926,"1964":8927,"Ġbyte":8928,"ĠYes":8929,"ordan":8930,"Ġyards":8931,"ĠWars":8932,"ucket":8933,"Ġlosing":8934,"ĠDam":8935,"wp":8936,"ECT":8937,"Ġliqu":8938,"points":8939,"irms":8940,"Ġassigned":8941,"Ġfat":8942,"anchester":8943,"Ġlanguages":8944,"irk":8945,"bourne":8946,"Member":8947,"creen":8948,"Ġswe":8949,"Ġbytes":8950,"ĠTy":8951,"Arch":8952,"ĠSite":8953,"uple":8954,"Ġeg":8955,"HR":8956,"Ġperspective":8957,"ruption":8958,"Ġcontemporary":8959,"Ġworldwide":8960,"ĠStephen":8961,"Ġarms":8962,"Ġsharing":8963,"thur":8964,"EXT":8965,"Ident":8966,"Ġafford":8967,"DT":8968,"ĠYouTube":8969,"alid":8970,"Ġescape":8971,"Äĩ":8972,"reprene":8973,"ugs":8974,"Ġestablishments":8975,"Ġrenew":8976,"Ġcycl":8977,"ĠError":8978,"Ġdry":8979,"ĠJean":8980,"Pres":8981,")^":8982,"ĠMember":8983,"Mr":8984,"Ġexistence":8985,"Security":8986,"Ġreader":8987,"Ġmil":8988,"Changed":8989,"anes":8990,"aska":8991,"Ġwear":8992,"Ġintelligence":8993,"ĠScottish":8994,"Ġships":8995,"umin":8996,"izz":8997,"Ret":8998,"brid":8999,"Ġsand":9000,"Ġmand":9001,"ouri":9002,"ĠNic":9003,"jpg":9004,"arc":9005,"Enabled":9006,"Ġconsistent":9007,"\",\"":9008,"Ġsum":9009,"issue":9010,"Ġbought":9011,"fall":9012,"Parser":9013,"ostic":9014,"ĠBrad":9015,"ĠTR":9016,"ĠCase":9017,"Classes":9018,"ĠHotel":9019,"ĠDist":9020,"icious":9021,"Ġcref":9022,"HECK":9023,"Ġsuggests":9024,"Ġproud":9025,"wait":9026,"Where":9027,"ĠVersion":9028,"ĠAT":9029,"ĠAlexander":9030,"Ġneighborhood":9031,"acket":9032,"ĠThrough":9033,"Ġschedule":9034,"Full":9035,"Ġmsg":9036,"Ġhealthy":9037,"Ġresc":9038,"erves":9039,"bul":9040,"Ġ\"/":9041,"Num":9042,"Ġserves":9043,"Ġhonest":9044,"grid":9045,"ĠPR":9046,"ĠFunction":9047,"auto":9048,"Ġarts":9049,"},\\":9050,"Xml":9051,"Ġdebate":9052,"footer":9053,"Ġfactory":9054,"rove":9055,"PORT":9056,"ĠSa":9057,"Ġrestaurant":9058,"Ġ(*":9059,"Ġintegr":9060,"Ġasking":9061,"BE":9062,"Ġwaste":9063,"Ġcancell":9064,"Ġyounger":9065,"ĠMinnesota":9066,"Ġ[[":9067,"ĠOtt":9068,"ĠPA":9069,"Ġunable":9070,"1965":9071,"Ġing":9072,"Ġcontrovers":9073,"Copyright":9074,"Ã£":9075,"component":9076,"His":9077,"Lock":9078,"ĠPakistan":9079,"ĠProcess":9080,"pare":9081,"United":9082,"Ġcompre":9083,"isode":9084,"110":9085,"Ġscheduled":9086,"ĠBand":9087,"iamond":9088,"Christ":9089,"Ġbomb":9090,"ĠIndex":9091,"Ġpayment":9092,"LOG":9093,"langle":9094,"Ġelectronic":9095,"Ġpersonnel":9096,"Ġtitles":9097,"Ġsynt":9098,"king":9099,"ĠMarg":9100,"success":9101,"Ġreturning":9102,"ĠWhere":9103,"ĠArm":9104,"ĠTherefore":9105,"heim":9106,"Debug":9107,"ĠProvince":9108,"Ġcle":9109,"Ġworse":9110,"ĠjQuery":9111,"FS":9112,"PER":9113,"Ġcontained":9114,"Ġce":9115,"Ġnarrow":9116,"Ġaid":9117,"ipped":9118,"Scope":9119,"Editor":9120,"Ð°Ð":9121,"ĠCas":9122,"Ġdecade":9123,"Display":9124,"ership":9125,"home":9126,"Ġarrested":9127,"unes":9128,"islation":9129,"record":9130,"Ġfamiliar":9131,"Ġcorporate":9132,"Ġnob":9133,"bad":9134,"ĠCreek":9135,"spring":9136,"Ġ<=":9137,"agues":9138,"Ġtherapy":9139,"olis":9140,"Ġfiction":9141,"Ġgranted":9142,"Ġwins":9143,"Ġfifth":9144,"Ġrailway":9145,"ancel":9146,"Ġconcerned":9147,"Look":9148,"ĠDutch":9149,"Ġbaby":9150,"Ġraw":9151,"Ġpublication":9152,"Ġreporting":9153,"scious":9154,"ĠBerlin":9155,"ogether":9156,"ĠIraq":9157,"ĠDeath":9158,"ĠOntario":9159,"uh":9160,"Ġportion":9161,"ĠSystems":9162,"Ġdrugs":9163,"arry":9164,"Ġinstitution":9165,"ocity":9166,"Copy":9167,"Ġfly":9168,"Ġlinked":9169,"Ġforg":9170,"Ġmenu":9171,"ĠBC":9172,"Ġprivacy":9173,"tics":9174,"Ġblocks":9175,"igin":9176,"ĠShort":9177,"boy":9178,"Most":9179,"Ġbodies":9180,"Ġlay":9181,"ĠRyan":9182,"ĠIl":9183,"Ġmountain":9184,"Ġinsurance":9185,"ĠOfficer":9186,"ĠColorado":9187,"Rule":9188,"Brit":9189,"Ġspending":9190,"Ġsymptoms":9191,"Ġwilling":9192,"Ġderived":9193,"typed":9194,"hline":9195,"Ġfiled":9196,"Byte":9197,"General":9198,"ĠHay":9199,"Ġcollaboration":9200,"ĠVen":9201,"Ġdeclared":9202,"irth":9203,"Ġveter":9204,"Ġjson":9205,"ĠGreg":9206,"ĠSingapore":9207,"1966":9208,"ĠLy":9209,"ĠPRO":9210,"-->":9211,"yes":9212,"Ġatmosp":9213,"Ġgal":9214,"Ġcraft":9215,"ederation":9216,"orry":9217,"Ġfundament":9218,"ĠTask":9219,"ĠChange":9220,"ouston":9221,"ĠFOR":9222,"LP":9223,"Ġhabit":9224,"Ġtypical":9225,"ĠDead":9226,"ĠHarry":9227,"ĠJSON":9228,"ingham":9229,"ĠNFL":9230,"KEY":9231,"Ġindeed":9232,"Yes":9233,"Ġloop":9234,"$(":9235,"asm":9236,"Ġformal":9237,"Ġdefeated":9238,"attribute":9239,"Ġ'/":9240,"ĠLow":9241,"ĠAge":9242,"angular":9243,"Ġng":9244,"Ġputting":9245,"Ġvisitors":9246,"ĠTok":9247,"Ġmatters":9248,"Ġgene":9249,"Ġretired":9250,"Active":9251,"ĠUt":9252,"uits":9253,"ĠSoftware":9254,"Ġ(+":9255,"Ġmac":9256,"sql":9257,"fony":9258,"Ġnoise":9259,"quir":9260,"Ġsigns":9261,"Åį":9262,"Ġusual":9263,"Many":9264,"¿½":9265,"Ġappreci":9266,"Ġtom":9267,"ĠChem":9268,"Ġautomatically":9269,"Ġpowers":9270,"dependency":9271,"Ġenabled":9272,"ĠHo":9273,"ĠFac":9274,"Lambda":9275,"Symbol":9276,"SD":9277,"Ġlie":9278,"Ġsoldiers":9279,"Ġstone":9280,"Ġindicate":9281,"dict":9282,"lik":9283,"ĠPsych":9284,"ĠAz":9285,"Ġalter":9286,"akh":9287,"ells":9288,"ĠClin":9289,"fil":9290,"ĠAdministration":9291,"Ġauthent":9292,"ĠĠĠĠĠĠĠĠĠĠĠĠĠĠĠĠĠĠ":9293,"Ġoperated":9294,"iversary":9295,"Match":9296,"hensive":9297,"lights":9298,"ĠRa":9299,"Ġdangerous":9300,"cmd":9301,"Ġongoing":9302,"Cast":9303,"Ġoccasion":9304,"ĠRight":9305,"Var":9306,"odec":9307,"fortunately":9308,"Ġadj":9309,"Ġshooting":9310,"Ġhorse":9311,"EC":9312,"Tool":9313,"ĠManager":9314,"South":9315,"ĠBox":9316,"FAULT":9317,"ferred":9318,"ika":9319,"Ġmock":9320,"omy":9321,"Ġnewspaper":9322,"Ġseeking":9323,"Ġtalent":9324,"wing":9325,"Ġhundreds":9326,"ulating":9327,"ĠassertEquals":9328,"Ġdynamic":9329,"Ġseats":9330,"ĠBh":9331,"Account":9332,"aki":9333,"Ġrevenue":9334,"ĠJesus":9335,"family":9336,"letter":9337,"Ġrepresenting":9338,"Ġcloser":9339,"Ġrecall":9340,"ï¿½":9341,"pled":9342,"ĠConnect":9343,"Bi":9344,"ĠSant":9345,"Ä±":9346,"ĠChannel":9347,"ĠFind":9348,"application":9349,"Ġthoughts":9350,"Ġworst":9351,"ĠProduct":9352,"panel":9353,"Ġcoff":9354,"ĠBrian":9355,"ĠTrail":9356,"Ġrecovery":9357,"Network":9358,"}\"":9359,"Ġstands":9360,"rog":9361,"Ġadmin":9362,"ONE":9363,"_,":9364,")-":9365,"frak":9366,"Ġconstructed":9367,"ĠDisney":9368,"low":9369,"%%%%":9370,"Job":9371,"GO":9372,"HL":9373,"Ġadopted":9374,"VALUE":9375,")/":9376,"Ġmouth":9377,"ĠPot":9378,"door":9379,"Ġexpanded":9380,"Ġending":9381,"inv":9382,"Ġstret":9383,"ĠCulture":9384,"ĠExpl":9385,"cing":9386,"ĠLes":9387,"ĠBuilding":9388,"ynamic":9389,"Extension":9390,"Ġcapture":9391,"Ġvary":9392,"Ġstatements":9393,"Oh":9394,"GR":9395,"Ġcontrolled":9396,"Runtime":9397,"iami":9398,"ĠMiller":9399,"ĠHung":9400,"items":9401,"Ġguest":9402,"Ġadults":9403,"axy":9404,"Ġinteraction":9405,"ĠLev":9406,"ĠRaj":9407,"Channel":9408,"padding":9409,"Your":9410,"appoint":9411,"ĠKat":9412,"Ġweapons":9413,"ĠSong":9414,"hell":9415,"Ġscientists":9416,"rase":9417,"yers":9418,"Ġcovers":9419,"Ġseed":9420,"Ġteen":9421,"Ġstored":9422,"Ġsemi":9423,"Obj":9424,"ĠCreat":9425,"Ġconversation":9426,"ounsel":9427,"Ġultimately":9428,"ĠLady":9429,"Ġchannels":9430,"XT":9431,"ifts":9432,"Ġvel":9433,"à¸":9434,"ĠRegion":9435,"ĠTra":9436,"oked":9437,"ĠHollywood":9438,"ĠMountain":9439,"Ġoccurs":9440,"thread":9441,"Ġride":9442,"TEST":9443,"Free":9444,"Ġmess":9445,"irement":9446,"Ġquantum":9447,"128":9448,"Ġtor":9449,"Ġfestival":9450,"Writ":9451,"ĠPy":9452,"Ġuniform":9453,"ĠTransport":9454,"iley":9455,"ĠProte":9456,"ĠDark":9457,"etes":9458,"Ġclassical":9459,"Ġmodified":9460,"ĠDNA":9461,"~~~~":9462,"ĠGallery":9463,"Ġvulner":9464,"Ġteachers":9465,"SSERT":9466,"Ġwire":9467,"Ġcontest":9468,"shape":9469,"herlands":9470,"ĠTal":9471,"adoop":9472,"ruit":9473,"ĠFC":9474,"Global":9475,"ĠLiter":9476,"Ġperforming":9477,"David":9478,"Î±":9479,"ĠBefore":9480,"SION":9481,"Ġhall":9482,"Ġunf":9483,"hered":9484,"Ġconven":9485,"Ġsingles":9486,"install":9487,"Database":9488,"ĠPhoto":9489,"Ġattributes":9490,"ĠQueens":9491,"Ġhandler":9492,"ODO":9493,"Ġdeleg":9494,"Ġdetect":9495,"WN":9496,"Ġconsidering":9497,"Ġtail":9498,"Å¡":9499,"ĠElement":9500,"mbox":9501,"cam":9502,"Ġsolo":9503,"ĠWisconsin":9504,"ĠNations":9505,"Const":9506,"Ġfounder":9507,"\"`":9508,"Ġmeasured":9509,"ĠAh":9510,"ivals":9511,"rior":9512,"ĠEric":9513,"Rest":9514,"gar":9515,"emble":9516,"Under":9517,"Ġsnow":9518,"Ġhyper":9519,".[":9520,"ĠHind":9521,"iate":9522,"short":9523,"ternoon":9524,"Sym":9525,"Cond":9526,"Ġpermission":9527,"called":9528,"Ġincreases":9529,"Events":9530,"HTML":9531,"Ġperformances":9532,"Ġsilver":9533,"ĠJava":9534,"256":9535,"Ġstatistics":9536,"uling":9537,"ĠBelg":9538,"Ġremark":9539,"ÙĦ":9540,"ĠHamilton":9541,"Windows":9542,"ĠSoc":9543,"ussian":9544,"################":9545,"rops":9546,"Ġdecide":9547,"Oct":9548,"ĠCP":9549,"anny":9550,"argument":9551,"Ġplatforms":9552,"Associ":9553,"Ġvictims":9554,"ĠRome":9555,"aron":9556,"ĠEmer":9557,"Ġselling":9558,"hol":9559,"pa":9560,"Play":9561,"1963":9562,"Ġwarning":9563,"avity":9564,"Ġterr":9565,"Ġclosely":9566,"Ġexcited":9567,"Ben":9568,"Timeout":9569,"Ġmagic":9570,"Ġconfidence":9571,"ĠKorean":9572,"Own":9573,"Ġdialog":9574,"Ġtum":9575,"Ġtwenty":9576,"ĠModern":9577,"ĠSem":9578,"Mich":9579,"you":9580,"tical":9581,"fly":9582,"Black":9583,"Ġextensive":9584,"iac":9585,"Ġattempts":9586,"Ġwalking":9587,"Ġagencies":9588,"Ġwelcome":9589,"Ġsignature":9590,"Ġassets":9591,"mi":9592,"season":9593,"ĠEntertainment":9594,"oices":9595,"Ġboys":9596,"Ġscenes":9597,"ĠReb":9598,"ĠĠĠĠĠĠĠĠĠĠĠĠĠĠĠĠĠĠĠĠĠĠĠĠĠ":9599,"matrix":9600,"Ġrecognition":9601,"addr":9602,"Ġtasks":9603,"Ġsmooth":9604,"Ġtherm":9605,"ĠFuture":9606,"Dialog":9607,"Ġprovince":9608,"ERE":9609,"Report":9610,"ĠOfficial":9611,"Ġeducational":9612,"van":9613,"ĠTro":9614,"Ġcommonly":9615,"ĠNAS":9616,"Ġspoke":9617,"cohol":9618,"icide":9619,"ĠGolden":9620,"Tab":9621,"lyph":9622,"=\"/":9623,"Ġprogramming":9624,"Ġdegrees":9625,"fill":9626,"tip":9627,"ulator":9628,"Ã£o":9629,"Ġmoments":9630,"Ġgoods":9631,"Ġacceler":9632,"Ġoptional":9633,"Photo":9634,"assertEqual":9635,"Ġcensus":9636,"'))":9637,"Ġassessment":9638,"ĠPremier":9639,"Ġthick":9640,";<":9641,"upload":9642,"Ġaccommod":9643,"Price":9644,"Ġkilling":9645,"Ġentertainment":9646,"ĠFalse":9647,"plugins":9648,"MD":9649,"Ġdrivers":9650,"Ġsummary":9651,"NOT":9652,"away":9653,"Ġabandon":9654,"Ġspeaking":9655,"ĠStock":9656,"Ġvess":9657,"bell":9658,"Ġreligion":9659,"Ġprev":9660,"including":9661,"Background":9662,"ĠFinancial":9663,"alloc":9664,"Ġintent":9665,"Ġspl":9666,"uable":9667,"Ġtalks":9668,"Ġextent":9669,"Ġdivided":9670,"oking":9671,"ĠJenn":9672,"comment":9673,"Ġtack":9674,"Ġtaught":9675,"angers":9676,"ĠGree":9677,"Ġinvolving":9678,"Ġresistance":9679,"sect":9680,"arring":9681,"]:":9682,"ĠFall":9683,"Ġlegisl":9684,"ĠEdition":9685,"unter":9686,"ĠInstagram":9687,"itis":9688,"Ġcos":9689,"Ġtight":9690,"Ġfrequently":9691,"ĠBridge":9692,"Ġwaves":9693,"ĠSche":9694,"seud":9695,"Tests":9696,"ĠAgency":9697,"bel":9698,"ĠConf":9699,"Austral":9700,"Ġbaseball":9701,"}}$":9702,"toggle":9703,"Perm":9704,"ĠLewis":9705,"1962":9706,"Ġassistant":9707,"Ġconsumers":9708,"profile":9709,"Ġrecommended":9710,"asts":9711,"Ġsevere":9712,"Ġsad":9713,"ĠCapital":9714,"Ġpersons":9715,"ĠCommand":9716,"Ġideal":9717,"Ġovers":9718,"ĠTony":9719,"Ġconnections":9720,"material":9721,"Ġcompare":9722,"Ġsyn":9723,"ĠImage":9724,"ĠAccount":9725,"ĠRecord":9726,"UD":9727,"Ġabstract":9728,"Ġinstanceof":9729,"Ġimplemented":9730,"ycl":9731,"ĠCub":9732,"Ġnegoti":9733,"ĠDespite":9734,"Ġdestroyed":9735,"ĠArizona":9736,"(){":9737,"Queue":9738,"Ġpregn":9739,"gressive":9740,"Ġexercise":9741,"Ġpatterns":9742,"ĠOregon":9743,"Ġencounter":9744,"Ġadvertising":9745,"Ġofficially":9746,"Ġenjoyed":9747,"Ġagents":9748,"Ġcomposed":9749,"deg":9750,"entials":9751,"Ñı":9752,"Ġspan":9753,"olid":9754,"Ġtelling":9755,"ĠAnton":9756,"children":9757,"unsigned":9758,"ĠDream":9759,"ĠBrother":9760,"Ġfee":9761,"Ġyes":9762,"Ġefficiency":9763,"ellect":9764,"Another":9765,"Ġpromise":9766,"month":9767,"edit":9768,"IGHT":9769,"&&":9770,"ĠFA":9771,"assertEquals":9772,"Ġforget":9773,"Ġdepending":9774,"Ġstreets":9775,"ĠTurkey":9776,"agen":9777,"Ġbuilder":9778,"ĠPhiladelphia":9779,"Fix":9780,"Bit":9781,"ĠSound":9782,"Ġcapable":9783,"130":9784,"Further":9785,"Ġcontribution":9786,"Ġintroduction":9787,"Ġpeak":9788,"blockList":9789,"Music":9790,"game":9791,"Ġassistance":9792,"rule":9793,"abels":9794,"Ġlegend":9795,"elegate":9796,"protobuf":9797,"REE":9798,"lay":9799,"Ġorganized":9800,"Ġawait":9801,"Ġhosted":9802,"Ġcards":9803,"region":9804,"Msg":9805,"gov":9806,"Ġcontrols":9807,"Ġdescribes":9808,"asty":9809,"ĠPoland":9810,"ĠCambridge":9811,"ĠSource":9812,"ropical":9813,"ĠBat":9814,"International":9815,"ĠEditor":9816,"iest":9817,"mathfrak":9818,"ĠSav":9819,"Ġcrowd":9820,"ĠResources":9821,"Ġquiet":9822,"Ġvisited":9823,"Package":9824,"pay":9825,"Ġchampion":9826,"Ġinfection":9827,"hard":9828,"category":9829,"ĠCurrent":9830,"ĠHeart":9831,"atar":9832,"Phi":9833,"ĠRoss":9834,"osed":9835,"ĠDefault":9836,"Ġcircumstances":9837,"isition":9838,"Ġemployee":9839,":#":9840,"atern":9841,"Ġrestrictions":9842,"inch":9843,"esterday":9844,"Ġswim":9845,"Ġfaster":9846,"Ġdestination":9847,".*":9848,"watch":9849,"icians":9850,"aded":9851,"Ġpictures":9852,"ĠPrize":9853,"Ġusage":9854,"subset":9855,"ĠBit":9856,"LIC":9857,"Ġdispl":9858,"Ġinvestors":9859,"Ġloan":9860,"ĠSenior":9861,"Ġchapter":9862,"loom":9863,"900":9864,"ĠTax":9865,"Ġcontributions":9866,"Ġfacing":9867,"rat":9868,"ĠJews":9869,"annotation":9870,"esome":9871,"Ġexposure":9872,"Ġletters":9873,"ĠDemocrats":9874,"alty":9875,"Ljava":9876,"ĠGets":9877,"Ġtroops":9878,"Ġmanufacturing":9879,"Ġraces":9880,"igrants":9881,"Ġspr":9882,"Ġtech":9883,"Ġdiverse":9884,"Ġsimpl":9885,"Ġaccompl":9886,"Term":9887,"Ġpurchased":9888,"ĠVAL":9889,"_->":9890,"agan":9891,"ĠWinter":9892,"Ġopposition":9893,"Ġpilot":9894,"mad":9895,"Ġgift":9896,"ĠAnalysis":9897,"Ġboundary":9898,"utt":9899,"Ġdepends":9900,"itol":9901,"otimes":9902,"Ġflu":9903,"ĠChall":9904,"Ġappeal":9905,"ĠFI":9906,"ĠGh":9907,"ĠCharl":9908,"inema":9909,"jar":9910,"ials":9911,"security":9912,"Ġembed":9913,"Ġ{};":9914,"ĠLat":9915,"enda":9916,"atible":9917,"Ġstood":9918,"wall":9919,"Ġexplan":9920,"Spe":9921,"adesh":9922,"ĠSab":9923,"ĠLie":9924,"Ġhtml":9925,"ĠManchester":9926,"Ġbeauty":9927,"oen":9928,"Ġeffectively":9929,"important":9930,"Although":9931,"Ġfindings":9932,"ĠBE":9933,"ĠTai":9934,"Print":9935,"special":9936,".__":9937,"Ġsections":9938,"events":9939,"Ġmaps":9940,",-":9941,"Ġlegislation":9942,"arity":9943,"Ġha":9944,"Ġgrid":9945,"endment":9946,"Ġstim":9947,"ourse":9948,"PAR":9949,"connection":9950,"ipher":9951,"folio":9952,"Mock":9953,"elli":9954,"Ġexit":9955,"Ġcaptured":9956,"Ġplenty":9957,"chor":9958,"ĠCS":9959,"ĠOlympic":9960,"Ġmob":9961,"ĠLind":9962,"ĠTech":9963,"Ġdating":9964,"Day":9965,"ĠStadium":9966,"Ġopposite":9967,"lections":9968,"Ġpossibility":9969,"Ġsole":9970,"Ġassembly":9971,"Sports":9972,"elle":9973,"Ġsuffered":9974,"dy":9975,"Ġprompt":9976,"orne":9977,"Ġresulted":9978,"FILE":9979,"engine":9980,"typedef":9981,"Ġtransmission":9982,"pressed":9983,"iot":9984,"Ġwallet":9985,"ĠInstead":9986,"ĠArgent":9987,"Ġlots":9988,"ĠSky":9989,"ĠRose":9990,"aire":9991,"Ġaccurate":9992,"Ġvirt":9993,"Ġmoves":9994,"intend":9995,"Ġfaculty":9996,"Ġtrained":9997,"Ġoperate":9998,"Ġmissed":9999,"Career":10000,"craft":10001,"Ġexciting":10002,"Ġ[];":10003,"profit":10004,"Ġneut":10005,"Lo":10006,"Â®":10007,"ĠZh":10008,"Ġstick":10009,"mal":10010,"JECT":10011,"Ġfunc":10012,"dem":10013,"ĠDer":10014,"ĠInf":10015,"ĠKevin":10016,"bean":10017,"ĠFigure":10018,"Ant":10019,"Ġarrang":10020,"nabla":10021,"ships":10022,"Ġexceed":10023,"otted":10024,"1961":10025,"plus":10026,"Ġsky":10027,"Leg":10028,"components":10029,"help":10030,"ĠPrinc":10031,"ĠAffairs":10032,"Ġstrategies":10033,"quarters":10034,"Ġles":10035,"ĠImm":10036,"ĠNode":10037,"ĠVice":10038,"Ġbroke":10039,"hs":10040,"original":10041,"Ġcommitment":10042,"margin":10043,"Ġexperimental":10044,"super":10045,"Selector":10046,"Ġjavax":10047,"ĠIV":10048,"ĠVeg":10049,"ibraries":10050,"Ġdeploy":10051,"Ġstable":10052,"ving":10053,"ĠAI":10054,"late":10055,"Ġcombat":10056,"ĠOriginal":10057,"MAX":10058,"Ġvast":10059,"700":10060,"&#":10061,"don":10062,"ugar":10063,"Ġairport":10064,"Ġwing":10065,"Ġwonderful":10066,"Ġwinners":10067,"Ġcopies":10068,"Ġmillions":10069,"NotNull":10070,"Ġinters":10071,"ĠProt":10072,"Ġshel":10073,"READ":10074,"Ġholiday":10075,"riate":10076,"Ġdates":10077,"ĠHarris":10078,"Ġrooms":10079,"typeof":10080,"Ġmine":10081,"ennessee":10082,"kappa":10083,"zech":10084,"holders":10085,"Details":10086,"Ġsculpt":10087,"Ġdrag":10088,"ĠSimon":10089,"Ġprocedure":10090,"Ġtopics":10091,"sky":10092,"ĠMoh":10093,"ï¼":10094,"Ġdrawn":10095,"Ġproved":10096,"ĠGrant":10097,"ĠForeign":10098,"Ġextend":10099,"Ang":10100,"Ġele":10101,"bec":10102,"Aud":10103,"Ġabsor":10104,"rell":10105,"BP":10106,"ĠNetherlands":10107,"ĠContin":10108,"ĠCab":10109,"ibli":10110,"Ġracing":10111,"ĠStore":10112,"Ġemotional":10113,"Ġconvent":10114,"aze":10115,"Ġapplicable":10116,"olly":10117,"@\"":10118,"Ġindicates":10119,"ĠUsing":10120,"Icon":10121,"âĢ¦.":10122,"ĠEP":10123,"ĠJam":10124,"Who":10125,"ĠMemorial":10126,"Ġmo":10127,"cpp":10128,"inf":10129,"Ġwalls":10130,"Ġproperly":10131,"Ġorient":10132,"Ġsubjects":10133,"Ġboat":10134,"Ġbanks":10135,"ldots":10136,"Ġroy":10137,"[:":10138,"emony":10139,"Ġfab":10140,"Ġlimits":10141,"ĠHig":10142,"omatic":10143,"Ġabsolutely":10144,"apy":10145,"Ġrevolution":10146,"ĠMrs":10147,"Ġduration":10148,")))":10149,"Ġlisting":10150,"OM":10151,"Ġdebt":10152,"itionally":10153,"Ġfasc":10154,"Ġsitting":10155,"imit":10156,"appy":10157,"Ġelectron":10158,"Ġhook":10159,"ĠPract":10160,"NT":10161,"Ġvice":10162,"ĠRevolution":10163,"hadoop":10164,"Ġincreasingly":10165,"ĠStone":10166,"Ġturning":10167,"ĠTravel":10168,"achel":10169,"ĠHart":10170,"Iterator":10171,"dots":10172,"Aug":10173,"Ġpartial":10174,"onymous":10175,"prime":10176,"ĠBudd":10177,"Ġfacts":10178,"ĠRoll":10179,"Ġsubsequent":10180,"Ġrid":10181,"Ġexpensive":10182,"Ġdisappe":10183,"Ġ${":10184,"Ġexplains":10185,"Ġpresidential":10186,"Ġuncertain":10187,"Pattern":10188,"nie":10189,"ĠSix":10190,"Ġapps":10191,"ITE":10192,"Ġalert":10193,"Ġdollars":10194,"Ġdocumentary":10195,"ĠSC":10196,"ulus":10197,"thew":10198,"ĠAtlantic":10199,"Ġphenomen":10200,"ĠLabour":10201,"1944":10202,"bootstrap":10203,"ĠOS":10204,"ĠResource":10205,"ĠTreat":10206,"scroll":10207,"coln":10208,"clip":10209,"Ġvertical":10210,"ordon":10211,"Ġiron":10212,"Ġsubsequently":10213,"West":10214,"ĠThanks":10215,"Ġcolour":10216,"Ġpriority":10217,"letion":10218,"Ġfraud":10219,"Ġgrown":10220,"zone":10221,"JSON":10222,"sur":10223,"Ġstrike":10224,"unct":10225,"Float":10226,"////////////////////////////////":10227,"Prop":10228,"oli":10229,"isting":10230,"Ġsurprise":10231,"Fin":10232,"ĠĠĠĠĠĠĊ":10233,"Ġafternoon":10234,"Ġlayout":10235,"Ġlandscape":10236,"Ġeastern":10237,"Ġphotograph":10238,"Ġsuperv":10239,"ĠCR":10240,"ĠTurk":10241,"ikip":10242,"ĠPS":10243,"\\|":10244,"role":10245,"ĠJane":10246,"ĠEconomic":10247,"hus":10248,"ĠMarketing":10249,"eld":10250,"Also":10251,"urers":10252,"Ġstrongly":10253,"125":10254,"Ġapproaches":10255,"nonumber":10256,"lah":10257,"Ġcharacteristics":10258,"Ġinhib":10259,"Ġda":10260,"Sigma":10261,"incess":10262,"impl":10263,"Ġillegal":10264,"Ġsteel":10265,"endor":10266,"ĠUl":10267,"abil":10268,"ĠGa":10269,"Ġparticipate":10270,"ĠPlace":10271,"ĠMoon":10272,"archy":10273,"Ġdistingu":10274,"NC":10275,"Ġindicated":10276,"Register":10277,"Ġmedicine":10278,"ĠSquare":10279,"ĠBlock":10280,"Ġaccused":10281,"Ġtransferred":10282,"Ġinvalid":10283,"ĠKansas":10284,"Ġstrip":10285,"upl":10286,"(!":10287,"Pool":10288,"oval":10289,"ben":10290,"Ġroof":10291,"ibilities":10292,"udes":10293,"perial":10294,"Ġpotentially":10295,"dropdown":10296,"ĠHouston":10297,"achelor":10298,"ĠBurn":10299,"bass":10300,"Abstract":10301,"Ġrelief":10302,"Ġmusicians":10303,"Ġrear":10304,"ĠPalest":10305,"Ġyellow":10306,"Ġimmediate":10307,"()).":10308,"Ġhits":10309,"roph":10310,"Ġwed":10311,"cup":10312,"Cam":10313,"ancell":10314,"rett":10315,"ĠDuke":10316,"ĠProperty":10317,"onna":10318,"ĠAnderson":10319,"equiv":10320,"ivated":10321,"Ġrequested":10322,"Edit":10323,"Ġattached":10324,"ĠFarm":10325,"Ġimpossible":10326,"ĠMarc":10327,"Ġtranslation":10328,"}-":10329,"Ġprime":10330,"ĠPatrick":10331,"etary":10332,"ĠOption":10333,"Ġmechanism":10334,"Ġoperators":10335,"ĠHave":10336,"Ġgiant":10337,"textit":10338,"Inv":10339,"ĠLeon":10340,"Ġfacilit":10341,"apply":10342,"Ġpractical":10343,"Feature":10344,"ĠIndones":10345,"Ġwearing":10346,"cha":10347,"Ġprincipal":10348,"wich":10349,"1959":10350,"Ġdb":10351,"Ġexecution":10352,"network":10353,"Activity":10354,"FR":10355,"istical":10356,"Ġexhibition":10357,"hedule":10358,"Pay":10359,"Ġdict":10360,"roc":10361,"\")]":10362,"ĠDoctor":10363,"doi":10364,"Ġgap":10365,"wick":10366,"ospitals":10367,"1958":10368,"Ep":10369,"Ġgained":10370,"queue":10371,"gebra":10372,"move":10373,"ĠLater":10374,"igate":10375,"rible":10376,"plicated":10377,"Ġbattery":10378,"Ġsweet":10379,"Ġwheel":10380,"Ġbon":10381,"ĠCaptain":10382,"Join":10383,"Ġadds":10384,"ĠStandard":10385,"obby":10386,"Ġcolle":10387,"agg":10388,"Ġbrands":10389,"Ġsaved":10390,"save":10391,"agu":10392,"recated":10393,"spir":10394,"area":10395,"aux":10396,"Ġsetup":10397,"ĠParam":10398,"none":10399,"Ġvoters":10400,"Ġdetection":10401,"Ġfaced":10402,"Films":10403,"chain":10404,"flix":10405,"Ġvon":10406,"metric":10407,"iga":10408,"issues":10409,"ĠLA":10410,"Section":10411,"player":10412,"Ġenhance":10413,"Ġdefeat":10414,"ĠWas":10415,"wid":10416,"essed":10417,"Ġsight":10418,"ĠLanguage":10419,"Ġwine":10420,"ĠPartners":10421,"each":10422,"fix":10423,"defined":10424,"Ġprominent":10425,"ailability":10426,"ĠMD":10427,"otion":10428,"Close":10429,"ĠOcean":10430,"otten":10431,"ĠJordan":10432,"allas":10433,"ĠCloud":10434,"putation":10435,"Ġcontroller":10436,"closed":10437,"mock":10438,"blog":10439,"ĠDocument":10440,")));":10441,"->_":10442,"owntown":10443,"Ġlists":10444,"Ġaccord":10445,"Ġspectrum":10446,"Ġrepresentative":10447,"throws":10448,"Bas":10449,"antry":10450,"ĠTake":10451,"aza":10452,"ĠProp":10453,"Ġdecor":10454,"Flags":10455,"izable":10456,"GP":10457,"YPE":10458,"ikipedia":10459,"identifier":10460,"esis":10461,"Ġemployment":10462,"Ġmoder":10463,"edu":10464,"Ġarbit":10465,"Items":10466,"Ġaccessible":10467,"ĠClinton":10468,"ĠTher":10469,"Ġshell":10470,"IND":10471,"Today":10472,"password":10473,"Ġadvis":10474,"ĠSarah":10475,"razy":10476,"ĠScholar":10477,"ĠDiego":10478,"WR":10479,"ĠPitt":10480,"Her":10481,"ĠStudy":10482,"Ġinteger":10483,"ĠSi":10484,"1942":10485,"outer":10486,"Ġfeedback":10487,"ĠHan":10488,"Ġcrash":10489,"proto":10490,"Ġfrag":10491,"Ġcategories":10492,"Ġoffices":10493,"Ġwrites":10494,"Ġsam":10495,"Space":10496,"Ġtough":10497,"Ġinnovation":10498,"Ġupcoming":10499,"chestra":10500,"Ġtargets":10501,"igenous":10502,"Panel":10503,"ĠPO":10504,"Ġprobability":10505,"Ġengaged":10506,"ĠMiami":10507,"Ġcompliance":10508,"1957":10509,"Ġbigger":10510,"Ġdismiss":10511,"Ġbes":10512,"1948":10513,"Cr":10514,"UID":10515,"Ġinvent":10516,"ĠClark":10517,"Ġhockey":10518,"Ġantib":10519,"stats":10520,"Ġcourses":10521,"bot":10522,"offs":10523,"uj":10524,"ĠTraining":10525,"Watch":10526,"never":10527,"ĠMean":10528,"Ġgrade":10529,"Ġapproval":10530,"bolds":10531,"duces":10532,"stood":10533,"Ġproport":10534,"ĠMaria":10535,"Ġterritory":10536,"Ġestimate":10537,"Ġexperiments":10538,"ĠThose":10539,"Ġfranch":10540,"})$":10541,"Ġtechnique":10542,"Ġbelieves":10543,"Ġ%}":10544,"boldsymbol":10545,"Ġhell":10546,"Ġnavigation":10547,"Ġbands":10548,"Ġproposal":10549,"TABLE":10550,"ĠFront":10551,"Ġprepare":10552,"Ġsought":10553,"Comment":10554,"ilst":10555,"Directory":10556,"ellite":10557,"isations":10558,"Ġadministrative":10559,"ĠTen":10560,"itchen":10561,"Ġdisabled":10562,"ni":10563,"Ġexposed":10564,"ĠÅ":10565,"Ġrisks":10566,"Ġsees":10567,"1956":10568,"Ġcreates":10569,"Transform":10570,"Ġnurs":10571,"British":10572,"1939":10573,"Ġaged":10574,"Ġhealthcare":10575,"OUT":10576,"ĠRow":10577,"webpack":10578,"Ġdesire":10579,"Ġsurgery":10580,"citep":10581,"onomy":10582,"Star":10583,"Ġcausing":10584,"Ġguidance":10585,"ĠNaz":10586,"SQL":10587,"roit":10588,"Ġur":10589,"Ġpercentage":10590,"Ġpermanent":10591,"ĠSport":10592,"FN":10593,"Generic":10594,"Double":10595,"Like":10596,"Ġcoffee":10597,"txt":10598,"vard":10599,"ighth":10600,"Ġsending":10601,"Ġfaces":10602,"Ġbench":10603,"180":10604,"emet":10605,"Ġapparently":10606,"erk":10607,"ĠDor":10608,"Auto":10609,"Ġcovering":10610,"ĠRoy":10611,"eding":10612,"mic":10613,"Ġcopyright":10614,"Ġelig":10615,"ĠProduction":10616,"ĠIL":10617,"roduction":10618,"ĠPlaces":10619,"hav":10620,"Ġsav":10621,"ĠBry":10622,"cb":10623,"Ġassault":10624,"tons":10625,"channel":10626,"ĠRailway":10627,"Ġbreath":10628,"Logger":10629,"oped":10630,"Scroll":10631,"Ġlawyer":10632,"linear":10633,"Ġsomewhat":10634,"Ġdestr":10635,"Ġreferences":10636,"ĠFri":10637,"Ġevil":10638,"Ġcontinuing":10639,"Ġpointer":10640,"ĠDog":10641,"mediate":10642,"ĠSilver":10643,"ĠSmall":10644,"Ġintegrated":10645,"urches":10646,"olitan":10647,"Ġrig":10648,"Services":10649,"numer":10650,"andal":10651,"Press":10652,"ĠCastle":10653,"Ġ\"\"":10654,"ulous":10655,"Ġlift":10656,"Ġneither":10657,"ĠIowa":10658,"adi":10659,"ĠJay":10660,"Ġundert":10661,"Ġproviders":10662,"ĠAdvent":10663,"gments":10664,"ribed":10665,"ĠMalays":10666,"North":10667,"olt":10668,"omorph":10669,"Apr":10670,"Ġtall":10671,"Ġregulations":10672,"ĠDrive":10673,"Ġsed":10674,"ĠGil":10675,"Ġmit":10676,"ĠFa":10677,"selected":10678,"123":10679,"ĠEver":10680,"()));":10681,"ĠCorps":10682,"Ġpresentation":10683,"ĠGP":10684,"flags":10685,"iva":10686,"Ġflags":10687,"Ġduty":10688,"ĠHoly":10689,"Ġvictim":10690,"ĠNa":10691,"agraph":10692,"ĠBruce":10693,"Ġparallel":10694,"cow":10695,"oven":10696,"bserv":10697,"Ġangle":10698,"hy":10699,"Ġproducing":10700,"olas":10701,"Product":10702,"ĠNorm":10703,"zing":10704,"oa":10705,"ĠĠĠĠĠĠĠĠĠĠĠĠĠĠĠĠĠĠĠĠĠĠĠĠ":10706,"Ġdisappoint":10707,"Ġforth":10708,"Ġpup":10709,"ĠNever":10710,"Total":10711,"Ġjournalist":10712,"ĠGard":10713,"Ġheads":10714,"green":10715,"uther":10716,"ository":10717,"ĠBush":10718,"Ġcruc":10719,"ĠAnthony":10720,"(__":10721,"Ġaffili":10722,"Ġmaintenance":10723,"audi":10724,"ãĢ":10725,"ando":10726,"Ġ{'":10727,"Life":10728,"FP":10729,"Ġenemy":10730,"Ġvoted":10731,"Memory":10732,"rations":10733,"Ġpainting":10734,"Ġgarden":10735,"Ġpitch":10736,"twitter":10737,"Ġdriven":10738,"yrics":10739,"enna":10740,"Ġalive":10741,"Ġpapers":10742,"Good":10743,"Files":10744,"Ġoutcome":10745,"sa":10746,"Ġlect":10747,"ĠSweden":10748,"controller":10749,"Ġhate":10750,"Ġbehaviour":10751,"zed":10752,"Ġbear":10753,"ĠMelbourne":10754,"Ġexclusive":10755,"Ġinvited":10756,"ipping":10757,"USE":10758,"BL":10759,"Ġflying":10760,"Ġbott":10761,"Ġtotally":10762,"Ġdipl":10763,"Ġvoting":10764,"Ġsick":10765,"ante":10766,"*)":10767,"ĠTennessee":10768,"ĠBarn":10769,"Ġaccuracy":10770,"Ġbehalf":10771,"views":10772,"Ġlistening":10773,"ĠScient":10774,"Ġdefin":10775,"FFFF":10776,"Ġveget":10777,"ĠHal":10778,"Ġaxis":10779,"Ġtheatre":10780,"Ġcriteria":10781,"Ġmanagers":10782,"asp":10783,"TRY":10784,"Ġwond":10785,"Ġinh":10786,"Ġcontinuous":10787,"sters":10788,"Ġpassword":10789,"ĠER":10790,"ritical":10791,"Statement":10792,"Ġsevent":10793,"Ġfruit":10794,"results":10795,"Ġresponses":10796,"Loader":10797,"ĠShould":10798,"ju":10799,"Ġdiversity":10800,"AY":10801,"Ġfunctional":10802,"eli":10803,"eping":10804,"Common":10805,"Ġsoci":10806,"Game":10807,"Ġrect":10808,"Ġconversion":10809,"Ġmeetings":10810,"Ġpulled":10811,"Ġfn":10812,"riers":10813,"ĠIndustry":10814,"pository":10815,"properties":10816,"Ġhandling":10817,"about":10818,"1943":10819,"Ġrating":10820,"acking":10821,"elson":10822,"Ġevaluation":10823,"icity":10824,"ĠMilitary":10825,"witzer":10826,"rying":10827,"Ġcomprehensive":10828,"ĠDid":10829,"Miss":10830,"Ġappearances":10831,"manager":10832,"ĠØ":10833,"Ġpropag":10834,"ailure":10835,"_(":10836,"iang":10837,"mutable":10838,"inking":10839,"Ġregularly":10840,"ĠPier":10841,"ĠWebsite":10842,"Ġio":10843,"uris":10844,"Ġ(@":10845,"ceptions":10846,"ureau":10847,"ĠIndiana":10848,"Ġlib":10849,"Ã©e":10850,"Figure":10851,"account":10852,"Ġinnovative":10853,"dam":10854,"Ġhappening":10855,"ĠRegional":10856,"Ġpicked":10857,"Ġdistribut":10858,"Enter":10859,"Dest":10860,"Proxy":10861,"Ġanimation":10862,"abama":10863,"ĠBS":10864,"Transaction":10865,"}}{":10866,"Ġentries":10867,"Graph":10868,"Annot":10869,"Ġcancel":10870,"Ġdimension":10871,"Ġpiano":10872,")).":10873,"ĠSafety":10874,"azon":10875,"Ġguests":10876,"Engine":10877,"\"=>":10878,"Ġscr":10879,"Once":10880,"axis":10881,"chant":10882,"1941":10883,"ĠTE":10884,"ĠPresent":10885,"tmp":10886,"making":10887,"LINE":10888,"ĠConfig":10889,"Î¿":10890,"++;":10891,"/\\":10892,"Ġmagnetic":10893,"Ġpasses":10894,"iverpool":10895,"Ð²":10896,"Ġplate":10897,"Auth":10898,"gence":10899,"RAN":10900,"Ġfoundation":10901,"ĠKelly":10902,"radius":10903,"ologists":10904,"emetery":10905,"Ġpromoted":10906,"ĠRound":10907,"Ġcomposition":10908,"Äį":10909,"earing":10910,"ders":10911,"Ġcaptain":10912,"Lin":10913,"igious":10914,"overty":10915,"Ġcompetitive":10916,"ifiers":10917,"ĠPhilippines":10918,"pres":10919,"Ġ(_":10920,"printf":10921,"depth":10922,"schema":10923,"sea":10924,"Ġlaugh":10925,"unning":10926,"Ġimplements":10927,"Ġgenus":10928,")\">":10929,"Ġpublisher":10930,"Ġdocumentation":10931,"ĠĠĠĠĠĠĠĠĠĠĠĠĠĠĠĠĠĠĠĠĠĠ":10932,"Ã¸":10933,"Internal":10934,"Selected":10935,"ĠMaryland":10936,"ĠPut":10937,"total":10938,"Ġsubsid":10939,"elect":10940,"weg":10941,"1952":10942,"black":10943,"Ġri":10944,"ĠUnit":10945,"anga":10946,"Ġknock":10947,"Ġscoring":10948,"×Ļ":10949,"vi":10950,"Ġstages":10951,"Ġinformed":10952,"when":10953,"forms":10954,"ĠContent":10955,"Ġbreaking":10956,"Health":10957,"Ġimprovement":10958,"Ġtrading":10959,"Ġimpressive":10960,"1955":10961,"Ġexplo":10962,"handler":10963,"VERSION":10964,"ĠTrade":10965,"ategor":10966,"Cent":10967,"Ġclock":10968,"argo":10969,"ĠDave":10970,"ferences":10971,"ghan":10972,"burn":10973,"Ġattorney":10974,"[$":10975,"Ġprofessionals":10976,"Ġjoining":10977,"1946":10978,"inant":10979,"ĠNev":10980,"Ġgate":10981,"Ġinterior":10982,"ĠLimited":10983,"uin":10984,"Ġstrings":10985,"Ġca":10986,"acon":10987,"Polit":10988,"Ġaddresses":10989,"Ġfundamental":10990,"ificial":10991,"Ġdies":10992,"ĠTODO":10993,"gi":10994,"Ġcompens":10995,"ĠSurvey":10996,"1947":10997,"Ġmm":10998,"ellectual":10999,"Ã©s":11000,"ĠEq":11001,"Review":11002,"Ġsentence":11003,"Ġrepro":11004,"Short":11005,"ĠCore":11006,"Ġencoding":11007,"Ġopposed":11008,"unnel":11009,"ĠUkraine":11010,"Ġsoil":11011,"Ġaer":11012,"rait":11013,"Grid":11014,"Email":11015,";/":11016,"Enum":11017,"ĠAllen":11018,"Ġemployed":11019,"Ġmonitoring":11020,"Ġexcess":11021,"ĠVillage":11022,"aneous":11023,"ĠVietnam":11024,"Ġcontents":11025,"ĠOak":11026,"iterator":11027,"Ġpy":11028,"Ġunderlying":11029,"ĠFollowing":11030,"osph":11031,"vy":11032,"âĨ":11033,"eland":11034,"ĪĴ":11035,"ĠArchitect":11036,"Ġbirds":11037,"Ġwer":11038,")),":11039,"Ġprocedures":11040,"iop":11041,"oust":11042,"Ġfees":11043,"ouses":11044,"Ġwatched":11045,"Ġcalculated":11046,"witzerland":11047,"Ġgovernor":11048,"odge":11049,"Ġtypeof":11050,"ĠKhan":11051,"ĠMissouri":11052,"ĠEss":11053,"Ġscores":11054,"Expr":11055,"Ġstake":11056,"alg":11057,"{-":11058,"umps":11059,"Ġcommunications":11060,"acent":11061,"ista":11062,"Ġentitled":11063,"ĠStill":11064,"SIZE":11065,"rystal":11066,"ĠPu":11067,"Ġast":11068,"Matrix":11069,"âĤ¬":11070,"Paul":11071,"Ġtrouble":11072,"=\"@":11073,"atial":11074,"Ġminim":11075,"Ġbare":11076,"ĠTalk":11077,"article":11078,"Elements":11079,"Ġbinding":11080,"closure":11081,"makers":11082,"Ġcontribute":11083,"Ġassign":11084,"peror":11085,"Imp":11086,"ĠHawai":11087,"1954":11088,"Ġinjured":11089,"Cre":11090,"1918":11091,"PP":11092,"Ġchose":11093,"Ġbeach":11094,"tools":11095,"Ġunus":11096,"Ġtemporary":11097,"ĠDefense":11098,"Ġaggreg":11099,"ĠJoh":11100,"======":11101,"Ġencourage":11102,"iah":11103,"Ġfulf":11104,"ĠWord":11105,"ĠArthur":11106,"Protocol":11107,"primary":11108,"Plugin":11109,"itivity":11110,"Conf":11111,"Ġtransformation":11112,"Ġcatalog":11113,"Ġchallenging":11114,"Mc":11115,"Ġimagine":11116,"iche":11117,"Ġlaid":11118,"ĠPhilip":11119,"Contact":11120,"reens":11121,"Ġcompletion":11122,"rieved":11123,"eties":11124,"Ġsustainable":11125,"Ġformula":11126,"Opt":11127,"MAC":11128,"novation":11129,"Ġparking":11130,"ĠBalt":11131,"ĠIslamic":11132,"Ġliquid":11133,"SY":11134,"ĠJosh":11135,"prec":11136,"Ġweekly":11137,"âĢĭ":11138,"ĠExpress":11139,"ĠDoes":11140,"ĠMoore":11141,"Func":11142,"Attributes":11143,"uda":11144,"ceive":11145,"Ġrein":11146,"ĠNigeria":11147,"Ġmail":11148,"jan":11149,"Ġignore":11150,"Ġdisplayed":11151,"ĠEc":11152,"Category":11153,"ĠKal":11154,"Ġqualified":11155,"ĠSin":11156,"Ġtou":11157,"Ġrestaurants":11158,"CN":11159,"×ķ":11160,"Ġ..":11161,"ĠProm":11162,"1953":11163,"Ġconverted":11164,"ĠWIT":11165,"ĠConstitution":11166,"ĠLas":11167,"Ġextreme":11168,"ĠPed":11169,"herited":11170,"Ġsubmitted":11171,"dx":11172,"ĠLincoln":11173,"Ġheavily":11174,"Ġconsent":11175,"Ġpresents":11176,"lahoma":11177,"tic":11178,"ById":11179,"Ġfolk":11180,"áĥ":11181,"Parse":11182,"Ġwound":11183,"Michael":11184,"Ġdepos":11185,"oyd":11186,"UST":11187,"ĉĉĉĊ":11188,"ĠEarly":11189,"ĠAthlet":11190,"Ġrefused":11191,"ĠJason":11192,"Keys":11193,"STAT":11194,"360":11195,"Ġresid":11196,"BB":11197,"Constr":11198,"Attr":11199,"Ġwindows":11200,"ĠGreece":11201,"Ãº":11202,"Ġstruggle":11203,"ĠâĢĻ":11204,"ĠHur":11205,"Profile":11206,"widet":11207,"Psi":11208,"Ġreasonable":11209,"eras":11210,"ĉĠĠĠĠĠ":11211,"dimensional":11212,"Seg":11213,"through":11214,"Ġgraduate":11215,"Ġhat":11216,"editor":11217,"ĠPrint":11218,"Ġdiseases":11219,"ĠYouth":11220,"Ġfake":11221,"ĠMaybe":11222,"Family":11223,"uted":11224,"Ġcontributed":11225,"Ġexplos":11226,"Ġroads":11227,"tery":11228,"Ġteach":11229,"Ġpointed":11230,"istol":11231,"Ġtrials":11232,"who":11233,"two":11234,"Initial":11235,"rock":11236,"JS":11237,"ĠSn":11238,"ĠHop":11239,"Ġvocal":11240,"Ġgrass":11241,"Ġassumed":11242,"rig":11243,"Ð´":11244,"Ġble":11245,"Ġ&=":11246,"Ġcolumns":11247,"Ġworker":11248,"ĠTag":11249,"ĠSuch":11250,"flu":11251,"ĠResp":11252,"Ġkil":11253,"ĠCancer":11254,"Sur":11255,"also":11256,"iology":11257,"ĠMovie":11258,"outheast":11259,"Ġintegration":11260,"boost":11261,"Ġrub":11262,"domain":11263,"git":11264,"ĠGarden":11265,"Phil":11266,"CF":11267,"pred":11268,"Ġasync":11269,"Ġseriously":11270,"=\"\"":11271,"ndef":11272,"QU":11273,"Ġreq":11274,"rolling":11275,"çļ":11276,"ARD":11277,"Ġtrib":11278,"ĠSever":11279,"Ġinjuries":11280,"Ġcm":11281,"ĠNatural":11282,"Ġenforcement":11283,"bat":11284,"Ġstrategic":11285,"usters":11286,"ANT":11287,"otte":11288,"Ġconstitu":11289,"Ġaspect":11290,"Ġtank":11291,"Ġmatching":11292,"Ġranked":11293,"Ġgraduated":11294,"ĠLearning":11295,"Ġlat":11296,"Ġsuitable":11297,"Ġreleases":11298,"Ġhide":11299,"zo":11300,"uating":11301,"Ġversus":11302,"Ġhasn":11303,"Ġprinciples":11304,"ĠPack":11305,"NULL":11306,"Ġgay":11307,"Po":11308,"Ġcurve":11309,"Ġtruck":11310,"Ġmembership":11311,"Ġillness":11312,"bytes":11313,"ĠLib":11314,"eness":11315,"Ġox":11316,"Ġoutbreak":11317,"Ġfired":11318,"atherine":11319,"Ġrefuge":11320,"iÃ³n":11321,"ĠBab":11322,"jquery":11323,"Ġguidelines":11324,"ĠAuthority":11325,"January":11326,"UTF":11327,"rama":11328,"indent":11329,"Ġdiscrim":11330,"tw":11331,"getName":11332,"brief":11333,"Ġdiscovery":11334,"ĠRoute":11335,"ĠTokyo":11336,"Ġbacter":11337,"Ġbtn":11338,"Ġhur":11339,"RT":11340,"Ġtempor":11341,"Ġbath":11342,"ĠEuro":11343,"ĠSD":11344,"Ġalcohol":11345,"ĠAgric":11346,"Ġadmitted":11347,"usal":11348,"Ġnovels":11349,"ĠVi":11350,"ĠThings":11351,"Ġpreced":11352,"mont":11353,"aware":11354,"Ġfriendly":11355,"icking":11356,"azy":11357,"FIG":11358,"ĠLoc":11359,"cussion":11360,"iary":11361,"Ġtransparent":11362,"Remove":11363,"icken":11364,"Ġfinite":11365,"ĠVin":11366,"Ġdrawing":11367,"Ġnotable":11368,"1949":11369,"ceptor":11370,"Ġawareness":11371,"Scale":11372,"Ġmg":11373,"\\[":11374,"ĠDu":11375,"ĠPur":11376,"Ġrelax":11377,"ULE":11378,"Ġfarmers":11379,"Ġgovernments":11380,"ĠIOException":11381,"glas":11382,"metry":11383,"ĠYears":11384,"Pointer":11385,"Sch":11386,"Ġbrothers":11387,"Ġparticipated":11388,"Ġcarrying":11389,"ĠHoward":11390,"Ġdogs":11391,"Ġtitled":11392,"Ġslowly":11393,"Ġpoetry":11394,"XML":11395,"Even":11396,"week":11397,"Ġoutcomes":11398,"Women":11399,"Ġchoices":11400,"Ġresolve":11401,"Ġappend":11402,"report":11403,"ĠĠĠĠĠĠĠĠĠĠĠĠĠĠĠĠĠĠĠĠĠĠĠĠĠĠĠĠĠĠĠĠĠĠĠĠĠĠĠĠĠĠĠ":11404,"}</":11405,"NavBarCell":11406,"Ġdiscipl":11407,"illiant":11408,"pur":11409,"ĠEag":11410,"ĠSelect":11411,"Ġrecruit":11412,"Ġwhereas":11413,"Ġpharm":11414,"Fore":11415,"ĠJacob":11416,"çļĦ":11417,"ĠHope":11418,"ĠMun":11419,"ĠRefer":11420,"Ġ{{":11421,"ĠCart":11422,"ige":11423,"ĠNob":11424,"ĠLE":11425,"plant":11426,"Ġanticip":11427,"shift":11428,"Ġtries":11429,"March":11430,"Ġnarrative":11431,"ĠGab":11432,"arrant":11433,"tabular":11434,"ĠBor":11435,"Ġfootballer":11436,"IMP":11437,"widetilde":11438,"ĠAdvis":11439,"oly":11440,"Ġourselves":11441,"iors":11442,"usted":11443,"Ġshopping":11444,"Ġdescent":11445,"ras":11446,"Ġ[],":11447,"Ġparliament":11448,"Volume":11449,"ctrine":11450,"ĠMorgan":11451,"rooms":11452,"Rich":11453,"'])":11454,"MOD":11455,"owed":11456,"Ġsupplement":11457,"Ġsle":11458,"Ġmunicipal":11459,"Ġregime":11460,"ĠComments":11461,"ĠPolish":11462,"Ġvisiting":11463,"Ġdemonstrated":11464,"Ġbrown":11465,"ubs":11466,"rah":11467,"ĠMayor":11468,"ĠMas":11469,"ometimes":11470,"protected":11471,"hidden":11472,"IPT":11473,"Ġtowns":11474,"SER":11475,"ĠApplication":11476,"ĠProtection":11477,"Ġtact":11478,"Adapter":11479,"ĠDVD":11480,"ÂĢ":11481,"Ġentreprene":11482,"tor":11483,"inar":11484,"ublin":11485,"ookie":11486,"uties":11487,"Ġrising":11488,"props":11489,"Ġanywhere":11490,"Ġbid":11491,"itative":11492,"ĠWAR":11493,"Variable":11494,"contains":11495,"ĠMembers":11496,"ĠMessage":11497,"Ġhorror":11498,"Ġconsumption":11499,"ÅĤ":11500,"LECT":11501,"Ġpaying":11502,"utenant":11503,"anim":11504,"ĠArk":11505,"OB":11506,"Ġpassengers":11507,"}+":11508,"NG":11509,"ĠLaure":11510,"Ġancest":11511,"mask":11512,"\\%":11513,"Ġstyles":11514,"Ġfalls":11515,"Ġnecessarily":11516,"Sam":11517,"ĠiPhone":11518,"ĠWH":11519,"ĠRelations":11520,"platform":11521,"Ġpars":11522,"Syntax":11523,"Ġdeals":11524,"1951":11525,"ĠHash":11526,"ĠPhill":11527,"ĠLandroid":11528,"fred":11529,"ĠPrivate":11530,"Collections":11531,"Ġmouse":11532,"Ñĭ":11533,"angel":11534,"Dist":11535,"Ġcolors":11536,"Ġsupporters":11537,"Ġdesigns":11538,"Ġsynd":11539,"iously":11540,"ÑĮ":11541,"Ġverify":11542,"Ġregistration":11543,"Bel":11544,"ĠAmong":11545,"builder":11546,"ĠNative":11547,"Ġlands":11548,"ĠCop":11549,"auge":11550,"ToString":11551,"Microsoft":11552,"ĠOwn":11553,"Ã¡n":11554,"Ġlockdown":11555,"ĠContact":11556,"Sync":11557,"Ġsin":11558,"eron":11559,"aired":11560,"Route":11561,"\"/":11562,"details":11563,"ski":11564,"ĠâĨ":11565,"Java":11566,"Conn":11567,"FE":11568,"Ġclosing":11569,"herent":11570,"Ġrose":11571,"Ġsurprising":11572,"Ġwaters":11573,"trigger":11574,"Ġinaug":11575,"ĠDun":11576,"Ġ>>":11577,"Ġpodcast":11578,"Ġguns":11579,"Ġattempted":11580,"William":11581,"ĠNich":11582,"Ġscal":11583,"ques":11584,"ĠAnne":11585,"GBT":11586,"Ġbusy":11587,"opl":11588,"Ġvaluable":11589,"ĠRoberts":11590,"Ġchildhood":11591,"Feb":11592,"Ġmaintained":11593,"echo":11594,"Ġconstructor":11595,"detail":11596,"Ġinstances":11597,"ÂĢÂ":11598,"Ġplastic":11599,"Wrapper":11600,"arest":11601,"will":11602,"Mac":11603,"ĠFederation":11604,"ĠMicro":11605,"Ġpoet":11606,"ĠSchools":11607,"rik":11608,"Ġreaching":11609,"Ġatmosphere":11610,"Ġwalked":11611,"Transport":11612,"ĠĠĠĠĠĠĠĠĠĠĠĠĠĠĠĠĠĠĠĠĠĠĠĠĠĠĠĠĠ":11613,"Ġceremony":11614,"ilty":11615,"ibl":11616,"Ġreplacement":11617,"Ġownership":11618,"PH":11619,">:":11620,"Ġlux":11621,"ANG":11622,"Ġrefers":11623,"Ġinteractions":11624,"Sequ":11625,"ĠBishop":11626,"Ġoccas":11627,"ortion":11628,"ensure":11629,"lett":11630,"Ġopens":11631,"metadata":11632,"ĠChap":11633,"Ġlabels":11634,"onze":11635,"Ġengineer":11636,"Mer":11637,"stan":11638,"ktop":11639,"Ġcomic":11640,"olving":11641,"Ġrapidly":11642,"decl":11643,"ĠThird":11644,"Ġprovision":11645,"1900":11646,"Ġtox":11647,"ĠFinance":11648,"iÄĩ":11649,"ĠCapitol":11650,"ĠStew":11651,"ĠStream":11652,"Children":11653,"Ġinitiative":11654,"INS":11655,"Ġwrest":11656,"Socket":11657,"rupted":11658,"ĠGall":11659,"zh":11660,"}]":11661,"Ġqueue":11662,"III":11663,"ĠLam":11664,"Ġacknowled":11665,"Ġthreshold":11666,"Ġobservations":11667,"Ġclassification":11668,"ĠAttorney":11669,"Mut":11670,"Ġfunny":11671,"ĠEvents":11672,"PD":11673,"utf":11674,"Ġdire":11675,"Ġconcentration":11676,"Ġyesterday":11677,"ĠReviews":11678,"loor":11679,"erald":11680,"ois":11681,"Ġhole":11682,"Success":11683,"reset":11684,"ĠLiving":11685,"inth":11686,"kw":11687,"ĠPa":11688,"âĦ":11689,"Cert":11690,"Ġrum":11691,"ĠDick":11692,"ĠBible":11693,"Help":11694,"Simple":11695,"Ġuniverse":11696,"uscript":11697,"zy":11698,"ĠWy":11699,"Ġstrange":11700,"Ġreveals":11701,"![":11702,"ĠGib":11703,"elve":11704,"jango":11705,"amps":11706,"Ġprofit":11707,"oda":11708,"ĠPersonal":11709,"ĠSeattle":11710,"unior":11711,"complete":11712,"orses":11713,"ĠWhit":11714,"parser":11715,"Ġadventure":11716,"overnment":11717,"Region":11718,"enders":11719,"Ġmanaging":11720,"Ġunderstood":11721,"agh":11722,"ĠYet":11723,"Ġpul":11724,"hematics":11725,"sin":11726,"imm":11727,"Ġmeets":11728,"omot":11729,"western":11730,"ĠIE":11731,"reement":11732,"LI":11733,"wiki":11734,"Ġexecuted":11735,"Ġconstitution":11736,"parameters":11737,"fd":11738,"lg":11739,"estyle":11740,"ĠNeed":11741,"Ġctx":11742,"specific":11743,"AE":11744,"ĠSwedish":11745,"Ġticket":11746,"Duration":11747,"browser":11748,"maker":11749,"Ġreward":11750,"Ġdevelopers":11751,"Ġobjective":11752,"Real":11753,"Ġengage":11754,"Donald":11755,"Ġgang":11756,"isp":11757,"Ġsurve":11758,"James":11759,"aco":11760,"ĠAustin":11761,"ardo":11762,"wegian":11763,"facebook":11764,"Download":11765,"ĠKam":11766,"Ġtransportation":11767,"ĠAlabama":11768,"Ð¼":11769,"Ġvit":11770,"ĠFive":11771,"ĠKl":11772,"ĠDur":11773,"ĠEV":11774,"ĠRequest":11775,"some":11776,"ĠRepublicans":11777,"ĠResponse":11778,"Headers":11779,"ĠBrig":11780,"Identifier":11781,"Ġexplanation":11782,"Constants":11783,"Ġconclusion":11784,"Ġrealize":11785,"Ġfault":11786,"Ġethnic":11787,"Ġbinary":11788,"Single":11789,"ĠStudents":11790,"ropolitan":11791,"opes":11792,"initial":11793,"ĠHeritage":11794,"Ġsuffering":11795,"Ġelectricity":11796,"since":11797,"modules":11798,"Ġhardware":11799,"Dan":11800,"ĠBowl":11801,"bian":11802,"Ġ).":11803,"Compar":11804,"ummy":11805,"ĠKentucky":11806,"idx":11807,"ĠHans":11808,"ĠMarine":11809,"1936":11810,"Ġlosses":11811,"Ġphilosophy":11812,"Ġintroduce":11813,"hour":11814,"oting":11815,"ĠKy":11816,"Ġgenetic":11817,"aro":11818,"Ġsizeof":11819,"Ġcourts":11820,"aura":11821,"Personal":11822,"Ġturb":11823,"ĠBatt":11824,"Ġobviously":11825,"ĠNik":11826,"Ġcomfortable":11827,"ĠAndre":11828,"Ġaims":11829,"Failed":11830,"ITION":11831,"ĠLLC":11832,"ostics":11833,"forward":11834,"ĠFROM":11835,"ĠNature":11836,"external":11837,"Ġabsence":11838,"ĠKa":11839,"bled":11840,"Ġspokes":11841,"rons":11842,"fi":11843,"centering":11844,"Ġhouseholds":11845,"Old":11846,"ĠLegal":11847,"Master":11848,"ĠTel":11849,"Vertex":11850,"Ġthousand":11851,"Ġdistricts":11852,")->":11853,"THE":11854,"ters":11855,"iture":11856,"Ġenthus":11857,"ĠHTTP":11858,"Ġemp":11859,"ĠCooper":11860,"Ġinvestigate":11861,"ĠPlus":11862,"Ġstreaming":11863,"pub":11864,"ĠAlbum":11865,"ĠCzech":11866,"ĠFellow":11867,"Ġhence":11868,"Ġestimates":11869,"istence":11870,"Ġsolve":11871,"Ġburied":11872,"Ġengagement":11873,"ĠCape":11874,"ĠBah":11875,"Ġcompete":11876,"extern":11877,"BM":11878,"aton":11879,"Ġbreast":11880,"Ġ\"<":11881,";\\":11882,"June":11883,"Rober":11884,"Ġexpat":11885,"Ġwebsites":11886,"Ġfalling":11887,"ĠRace":11888,"Ġconcrete":11889,"Make":11890,"Ġkeeps":11891,"hide":11892,"ADD":11893,"wen":11894,"secutive":11895,"Ġdoors":11896,"Ġbuying":11897,"Ġchairman":11898,"ĠPos":11899,"ouver":11900,"Ġprohib":11901,"Ġcoaches":11902,"Ġdelight":11903,"Ġthin":11904,"dale":11905,"Stand":11906,"ĠPrice":11907,"Ġblow":11908,"Ġboss":11909,"ĠAtlanta":11910,"limit":11911,"acht":11912,"Ġjoy":11913,"OF":11914,"vo":11915,"ĠWolf":11916,"Ġcircle":11917,"Ġfol":11918,"alia":11919,"phony":11920,"was":11921,"Ġcapabilities":11922,"orted":11923,"party":11924,"ĠRick":11925,"orous":11926,"prefix":11927,"Ġpremier":11928,"ĠSri":11929,"Hz":11930,"video":11931,"Ġmetadata":11932,"Ġexecute":11933,",'":11934,"Ġknowing":11935,"Ġportray":11936,"Ġdesignated":11937,"orer":11938,"SM":11939,"Symfony":11940,"Ġcircuit":11941,"Ġnormally":11942,"FORM":11943,"Len":11944,"bara":11945,"ĠColon":11946,"Browser":11947,"configuration":11948,"Cloud":11949,"Ġinteract":11950,"ĠSwitzerland":11951,"ĠNorway":11952,"1938":11953,"Ġparticipation":11954,"TEXT":11955,"Ġsubmit":11956,"Ġ$.":11957,"ĠCommunications":11958,"omas":11959,"Ġreveal":11960,"TIME":11961,"ĠEnvironmental":11962,"Ġhopes":11963,"outube":11964,"Ġterminal":11965,"aval":11966,"Layer":11967,"blem":11968,"Ġorganisation":11969,"ĠSex":11970,"Ġkeyboard":11971,"SR":11972,"Fi":11973,"Ġpromotion":11974,"ALSE":11975,"ĠMeg":11976,"Stop":11977,"Ġtickets":11978,"tle":11979,"Ġprefix":11980,"izon":11981,"Ġsurprised":11982,"Ġlikes":11983,"ĠIsraeli":11984,"Ġsessions":11985,"ĠCert":11986,"Ġsinging":11987,"Mapping":11988,"ĠTemple":11989,"StyleID":11990,"Ġvital":11991,"Ġocean":11992,"logger":11993,"Ġfurn":11994,"ntil":11995,"Ġoldest":11996,"such":11997,"Ġrealized":11998,"Ġskill":11999,"Ġconj":12000,"Ġconsequences":12001,"Ġmedian":12002,"switch":12003,"Ġlistener":12004,"Trace":12005,"Ġarrival":12006,"Ġstead":12007,"inos":12008,"Div":12009,"ĠSmart":12010,"Har":12011,"Ġupload":12012,"Ġdealing":12013,"Ġuniversities":12014,"Tele":12015,"Ġreverse":12016,"Ġdynamics":12017,"Ġmanip":12018,"ĠHold":12019,"pu":12020,"115":12021,"ĠFinally":12022,"ĠStudent":12023,"PI":12024,"1917":12025,"Ġsituations":12026,"=(":12027,"Ġsettled":12028,"anches":12029,"105":12030,"Ġnations":12031,"Ġconservation":12032,"ĠBan":12033,"Ġentrance":12034,"ctic":12035,"ducer":12036,"Private":12037,"ĠMexican":12038,"imore":12039,"Ġloaded":12040,"utter":12041,"irlines":12042,"ĠMcG":12043,"Ġfranchise":12044,"ÏĦ":12045,"shal":12046,"olves":12047,"Ġfought":12048,"Ġdecline":12049,"covery":12050,"Ġliked":12051,"PATH":12052,"ĠCredit":12053,"execute":12054,"Struct":12055,"ĠHighway":12056,"112":12057,"Ġanswers":12058,"likely":12059,"VM":12060,"âĦ¢":12061,"ĠPlanning":12062,"\\{":12063,"ĠFant":12064,"TF":12065,"ĠMichel":12066,"ĠMust":12067,"ĠGer":12068,"Ġham":12069,"ĠPDF":12070,"circle":12071,"Ġincredible":12072,"ippi":12073,"Ġretirement":12074,"rg":12075,"Ġpayments":12076,"erning":12077,"ĠGrow":12078,"Selection":12079,"Ġanniversary":12080,"Ġip":12081,"ulum":12082,"Ġentering":12083,"oga":12084,"ĠHills":12085,"Ġputs":12086,"Ġsuddenly":12087,"ĠRey":12088,"Ġgam":12089,"ĠImages":12090,"Ġmarks":12091,"Ø±":12092,"Ġgenre":12093,"Ġroutes":12094,"emies":12095,"Ġdetected":12096,"ometric":12097,"orient":12098,"irds":12099,"Ġrejected":12100,"Ġflash":12101,"ĠDest":12102,"oenix":12103,"services":12104,"Ġarc":12105,"Follow":12106,"Ġcheap":12107,"Ġpassenger":12108,"LY":12109,"Ġreducing":12110,"Ġcelebrate":12111,"Ġmeat":12112,"raig":12113,"library":12114,"ĠUI":12115,"athy":12116,"icut":12117,"ĠDallas":12118,"napshot":12119,"Role":12120,"ĠThough":12121,"ĠĠĠĠĠĠĠĠĠĠĠĠĠĠĠĠĠĠĠĠĠĠĠĠĠĠĠĠĠĠĠĠĠĠĠĠĠĠĠĠĠĠĠĠĠĠĠĠĠĠĠĠĠĠĠĠĠĠĠĠĠĠĠĠ":12122,"aturally":12123,"Program":12124,"ĠRoom":12125,"ĠJunior":12126,"Ġdat":12127,"April":12128,"Ġtrains":12129,"Ġmeta":12130,"days":12131,"Ġfairly":12132,"lon":12133,"Import":12134,"entle":12135,"ĠMotor":12136,"rban":12137,"ĠSelf":12138,"ĠVegas":12139,"Ġfib":12140,"iffs":12141,"dp":12142,"anka":12143,"Ġlake":12144,"Namespace":12145,"ĠAlliance":12146,"ĠBeat":12147,"Ġsurvive":12148,"COMP":12149,"Ġfinance":12150,"ifdef":12151,"ĠMother":12152,"ĠChairman":12153,"tags":12154,"ĠJudge":12155,"Ġmachines":12156,"Did":12157,"Japan":12158,"Ġui":12159,"aping":12160,"Ġcenters":12161,"ĠAlan":12162,"Eff":12163,"ĠRegiment":12164,"Ġmapping":12165,"Ġdir":12166,"ubble":12167,"ĠLegisl":12168,"Ġcoeff":12169,"filename":12170,"expr":12171,"Ġscatter":12172,"Ġmunicipality":12173,"ĠChapter":12174,"ailand":12175,"Ġparticles":12176,"ĠRO":12177,"anded":12178,"Ġ''":12179,"vironments":12180,"ĠBeck":12181,"Bet":12182,"storage":12183,"Ġthrown":12184,"Ġreadonly":12185,"ĠMission":12186,"done":12187,"Ġhosts":12188,"Ġinterviews":12189,"ĠME":12190,"ste":12191,"ĠDean":12192,"sets":12193,"Ġshr":12194,"ĠInv":12195,"Named":12196,"keyword":12197,"ĠLeb":12198,"Ġequations":12199,"ĠWalker":12200,"Ġreact":12201,"Ġdual":12202,"Ġcomposer":12203,"}=\\":12204,"conn":12205,"Ġenum":12206,"ĠArticle":12207,"HTTP":12208,"Ġspiritual":12209,"Ġpairs":12210,"bc":12211,"Ġcompact":12212,"ĠGordon":12213,"ĠToy":12214,"ĠOklahoma":12215,"leges":12216,"San":12217,"ĠCT":12218,"upid":12219,"Ġsurvival":12220,"July":12221,"Tax":12222,"ĠSquad":12223,"Ġ([":12224,"Ġparser":12225,"ellar":12226,"ĠLane":12227,"Ġanyway":12228,"Ġlogic":12229,"ATED":12230,"collection":12231,"Europe":12232,"changed":12233,"\\]":12234,"olo":12235,"=-":12236,"omer":12237,"ĠBureau":12238,"Ġpersonally":12239,"Ġintention":12240,"ĠBY":12241,"ORY":12242,"ĠMoscow":12243,"ĠCow":12244,"1937":12245,"ĠLiverpool":12246,"Ġprinciple":12247,"inded":12248,"ANCE":12249,"Ġlegacy":12250,"itarian":12251,"Ġbag":12252,"ĠExchange":12253,"posing":12254,"ĠSingh":12255,"ĠAfghan":12256,"ĠCole":12257,"Ġfrust":12258,"father":12259,"Ġmining":12260,"olars":12261,"ĠSpirit":12262,"','":12263,"acked":12264,"enny":12265,"asi":12266,"ifting":12267,"Ġdesigner":12268,"erto":12269,"Ġrival":12270,"Ġpopulations":12271,"ĠNetflix":12272,"Ġreputation":12273,"Following":12274,"Ġoutstanding":12275,"users":12276,"October":12277,"being":12278,"Card":12279,"ĠNap":12280,"OUR":12281,"she":12282,"oker":12283,"gorithms":12284,"ashes":12285,"Nodes":12286,"ĠDa":12287,"Ġxmlns":12288,"Ġtower":12289,"Ġconcluded":12290,"Series":12291,"Ġheritage":12292,"junit":12293,"ĠShop":12294,"åı":12295,"Agent":12296,"Ġcutting":12297,"Ġcompeted":12298,"Ġkinds":12299,"unches":12300,"prev":12301,"ĠHD":12302,"enez":12303,"eval":12304,"August":12305,"Ġcrucial":12306,"Ġamounts":12307,"Ġannouncement":12308,"Ġlights":12309,"Ġacquisition":12310,",âĢĻ":12311,"Trump":12312,"Ġembr":12313,"ĠVolume":12314,"asant":12315,"rape":12316,"Ġsubstit":12317,"Ġ\",":12318,"BN":12319,"BUG":12320,"ĠWoman":12321,"Ġhurt":12322,"ĠQueensland":12323,"Ġfirms":12324,"Ġvelocity":12325,"Ġforecast":12326,"ĠSA":12327,"ĠĠĠĠĠĠĠĠĠĠĠĠĠĠĠĠĠĠĠĠĠĠĠĠĠĠ":12328,"Resources":12329,"ĠDetroit":12330,"Ġinvolves":12331,"Mal":12332,"neg":12333,"Ġneck":12334,"Ġpreferred":12335,"olph":12336,"ĠAlbert":12337,"Ġconfront":12338,"French":12339,"GC":12340,"ĠStories":12341,"Ġcenturies":12342,"001":12343,"Ġinstructions":12344,"\\!":12345,"Ġasks":12346,"Bound":12347,"Ġmarg":12348,"ĠBu":12349,"Film":12350,"Ġclimb":12351,"bow":12352,"1914":12353,"Ġpert":12354,"Ġoffensive":12355,"throw":12356,"Ġlyrics":12357,"ĠMcK":12358,"Ġsixth":12359,"Published":12360,"agic":12361,"Ġdisk":12362,"ĠBus":12363,"ĠPerson":12364,"apolis":12365,"Ġease":12366,"coq":12367,"Ġ\"-":12368,"$)":12369,"Ġcrypt":12370,"itter":12371,"plan":12372,"Ġtrends":12373,"ĠDise":12374,"Ġintern":12375,"ĠTa":12376,"Ġtemperatures":12377,"Ġinterval":12378,"Ġstruck":12379,"cludes":12380,"Ġages":12381,"Ġarbitr":12382,"Ġparish":12383,"Ġdataset":12384,"------------":12385,"Ġhospitals":12386,"ifndef":12387,"orts":12388,"finite":12389,"Ġmeasurements":12390,"140":12391,"Rob":12392,"aters":12393,"Ġrows":12394,"ĠRab":12395,"dates":12396,"Pod":12397,"Ġjazz":12398,"ĠMagn":12399,"ĠAst":12400,"Ġseparated":12401,"bits":12402,"Ġmonthly":12403,"Ġprize":12404,"ĠTs":12405,"hot":12406,"Ġcru":12407,"enabled":12408,"Ġsimult":12409,"Prefix":12410,"Ġfemales":12411,"volume":12412,"Ġdesired":12413,"Ġattacked":12414,"owner":12415,"Ġmyth":12416,"Ġdirectors":12417,"URI":12418,"porter":12419,"Ġconvinc":12420,"works":12421,"ounced":12422,"Tom":12423,"rift":12424,"Ġfantasy":12425,"ĠSales":12426,"ĠVari":12427,"Ġrespective":12428,"ĠIndependent":12429,"headers":12430,"ishment":12431,"Cluster":12432,"Ġaimed":12433,"ĠVirtual":12434,"Ġregardless":12435,"Ġsigning":12436,"Ġpeer":12437,"Association":12438,"estab":12439,"ĠANY":12440,"Ġpushed":12441,"Ġbits":12442,"ĠDub":12443,"symbol":12444,"Ġexpectations":12445,"Ġessentially":12446,"Ġmetric":12447,"Ã¼r":12448,"Ġfewer":12449,"ĠDJ":12450,"mates":12451,"Ġweapon":12452,"iere":12453,"Ġtheore":12454,"ĠNation":12455,"ivia":12456,"ĠResults":12457,"chen":12458,"Repository":12459,"Ġshortly":12460,"ĠLess":12461,"leveland":12462,"Ġthinks":12463,"Ġfinger":12464,"ĠInteger":12465,"Ġpaths":12466,"Ġbin":12467,"iper":12468,"pector":12469,"eyond":12470,"ĠPerformance":12471,"Ġevaluate":12472,"PG":12473,"Ġoperational":12474,"ĠTerms":12475,"ĠAnnual":12476,"wealth":12477,"{\"":12478,"Ġtranslate":12479,"BD":12480,"Ġplain":12481,"Ġouter":12482,"Mill":12483,"Ġpublishing":12484,"Ġsheet":12485,"ĠBull":12486,"Ġemissions":12487,"exists":12488,"Ġedited":12489,"Environment":12490,"ĠMunic":12491,"ĠChristopher":12492,"ĠAuto":12493,"ieval":12494,"ĠMaterial":12495,"Ġtrace":12496,"incial":12497,"generated":12498,"Î¹":12499,"attributes":12500,"emen":12501,"ĠSN":12502,"ĠMobile":12503,"ĠValid":12504,"Coll":12505,"uer":12506,"issippi":12507,"ĠTrib":12508,"apsed":12509,"ancouver":12510,"berry":12511,"mb":12512,"ĠTree":12513,"102":12514,"random":12515,"Ġkne":12516,"Ġroots":12517,"ĠWorks":12518,"Ġsensitive":12519,"ĠPear":12520,"Ġtables":12521,"Ġpersonality":12522,"Ġmeasurement":12523,"ocy":12524,"Ġheaded":12525,"rena":12526,"feature":12527,"Ġtied":12528,"ushing":12529,"Ġreply":12530,"Ġtransactions":12531,"Ġgrounds":12532,"good":12533,"resources":12534,"ĠOrganization":12535,"ĠDal":12536,"dialog":12537,")=\\":12538,"Ġimproving":12539,"assets":12540,"Ġlowest":12541,"inction":12542,"ĠLu":12543,"Ġfold":12544,"Business":12545,"Ġoblig":12546,"ĠPeace":12547,"AK":12548,"=\"\">":12549,"Ġmoral":12550,"Ġpublications":12551,"Pal":12552,"Ġheaders":12553,"Ġproducers":12554,"winning":12555,"ĠHelp":12556,"claimed":12557,"Ġproxy":12558,"ĠPil":12559,"Ġrecognize":12560,"Ġinstant":12561,"Ġwedding":12562,"Ġlayers":12563,"ĠABC":12564,"Ġfest":12565,"ĠSyria":12566,"aneously":12567,"Uri":12568,"ĠExp":12569,"Songs":12570,"Ġinstruments":12571,"norm":12572,"Ġstretch":12573,"agent":12574,"Ġcuts":12575,"ÐµÐ½":12576,"Ġdoctors":12577,"rieve":12578,"Ġindependence":12579,"ĠFather":12580,"Ġaccordance":12581,"Ġresidential":12582,"ĠDelhi":12583,"Ġnoticed":12584,"Ġ'<":12585,"Ġliterary":12586,"ĠPolitics":12587,"fx":12588,"Ġaccompan":12589,"Tok":12590,"ĠAC":12591,"otation":12592,"layer":12593,"stable":12594,"Ġsnap":12595,"para":12596,"Multi":12597,"hedral":12598,"geon":12599,"extension":12600,"Ġapartment":12601,"fc":12602,"WI":12603,"Ġstability":12604,"Ġfeelings":12605,"Ġconscious":12606,".\");":12607,"flag":12608,"ifferent":12609,"Information":12610,"Ġsubstantial":12611,"former":12612,"Ġtoler":12613,"ĠHell":12614,"City":12615,"ĠBos":12616,"imp":12617,"Ġneuro":12618,"elfare":12619,"Ġbold":12620,"ĠRelease":12621,"ĠMoreover":12622,"Diagn":12623,"Ġexports":12624,"Ġdefensive":12625,"tc":12626,"Ġchecked":12627,"Ġdinner":12628,"Ġarmed":12629,"Ġorganisations":12630,"Enumer":12631,"bet":12632,"Ġscenario":12633,"EV":12634,"1935":12635,"Thanks":12636,"Ġ=========":12637,"ĠPas":12638,"Ġfragment":12639,"Ġsizes":12640,"amsung":12641,"ĠMars":12642,"Ġproven":12643,"Ġdemonstrate":12644,"ĠÐ¿":12645,"ĠSQL":12646,"iated":12647,"protocol":12648,"adr":12649,"1919":12650,"ĠMatthew":12651,"Ġconsecutive":12652,"ĠĠĠĊ":12653,"ĠHug":12654,"sis":12655,"ĠChen":12656,"Ġlimitations":12657,"ĠKings":12658,"Ġcritics":12659,"Ġexpertise":12660,"Ġeligible":12661,"Ġstronger":12662,"zero":12663,"Ġpublicly":12664,"ĠElectric":12665,"ixels":12666,"September":12667,"Ġprivile":12668,"Ġvulnerable":12669,"Ġimplies":12670,"tesy":12671,"whel":12672,"Ġorganic":12673,"ĠRoc":12674,"Registry":12675,"ĠNBA":12676,"350":12677,"Ġsons":12678,"ĠMess":12679,"ĠWhether":12680,"Ġeating":12681,"books":12682,"Ġmile":12683,"Ġflights":12684,"lad":12685,"indexOf":12686,"Ġbrilliant":12687,"Ġshots":12688,"Based":12689,"December":12690,"Ġ],":12691,"amazon":12692,"Stats":12693,"ĠMonth":12694,">::":12695,"etition":12696,"errors":12697,"ĠDim":12698,"raid":12699,"Ġdeeply":12700,"inburgh":12701,"ĠAppro":12702,"ï»":12703,"Ġcup":12704,"ĠConsult":12705,"urities":12706,"hire":12707,"Wait":12708,"Ġconcerning":12709,"Ùħ":12710,"vs":12711,"multi":12712,"cription":12713,"ÃŃa":12714,"Using":12715,"nil":12716,"tabs":12717,"oi":12718,"Ġroughly":12719,"Have":12720,"ENSE":12721,"ĠMs":12722,"ĠForum":12723,"wild":12724,"ĠCou":12725,"^^":12726,"Save":12727,"Ġbind":12728,"ĠSaudi":12729,"3333":12730,"xygen":12731,"elem":12732,"ĠCentury":12733,"LOCK":12734,"ĠCell":12735,"ĠSel":12736,"Ġreliable":12737,"1933":12738,"Power":12739,"ĠPlant":12740,"Ġvillages":12741,"ogram":12742,"Ġliterally":12743,"inian":12744,"Ġbasically":12745,"Win":12746,"Super":12747,"emed":12748,"Ġminimal":12749,"ĠBaseball":12750,"ĠDouble":12751,"ĠFil":12752,"Lear":12753,"ĠCommun":12754,"ĠNAME":12755,"ĠDays":12756,"ĠAppe":12757,"Release":12758,"enable":12759,"ĠBreak":12760,"clean":12761,"tar":12762,"Clear":12763,"bus":12764,"ĠMort":12765,"Green":12766,"Ġtaste":12767,"efe":12768,"Ġinstallation":12769,"Ġpoverty":12770,"ĠMI":12771,"rays":12772,"ĠRat":12773,"ĠBuff":12774,"Ġamid":12775,"ĠSM":12776,"formed":12777,"Connect":12778,"Ġperiods":12779,"icol":12780,"Ġasset":12781,"116":12782,"hentication":12783,"Ġtracking":12784,"lee":12785,"Summary":12786,"ĠAnna":12787,"lia":12788,"ĠDak":12789,"Ġrescue":12790,"Ġwet":12791,"Ġabandoned":12792,"Ġsacr":12793,"ĠIron":12794,"Ġperfectly":12795,"hu":12796,"ĠClear":12797,"Sen":12798,"Ġtiny":12799,"Ġ_.":12800,"ĠPaper":12801,"ropy":12802,"Ġfluid":12803,"Ġindustries":12804,"ĠRap":12805,"Ġcmd":12806,"Person":12807,"ĠTurkish":12808,"Ġpod":12809,"Ġrational":12810,"TT":12811,"Ġtrick":12812,"ĠPast":12813,"1934":12814,"athered":12815,"CAA":12816,"Ġgaming":12817,"ĠSac":12818,"Ġcolleagues":12819,"ikes":12820,"ï»¿":12821,"opic":12822,"Ġconstantly":12823,"pair":12824,"fold":12825,"Ġbars":12826,"Ġcounsel":12827,"/\"":12828,"temp":12829,"Ġpenalty":12830,"Generator":12831,"ĠBou":12832,"Ġunexpected":12833,"Ġ[\"":12834,"Ġreset":12835,"Ġunusual":12836,"ĠClimate":12837,"=\"${":12838,"Ġathletes":12839,"Ġdose":12840,"Ġdenied":12841,"ĠComment":12842,"Ġrg":12843,"Progress":12844,"Ġgenes":12845,"Ġelder":12846,"igs":12847,"ĠTaiwan":12848,"NV":12849,"avis":12850,"ĠStudio":12851,"ĠPlayer":12852,"German":12853,"ogue":12854,"Ġregulation":12855,"Sing":12856,"November":12857,"Ġcollections":12858,"Ġmovements":12859,"Ġanalys":12860,"ASH":12861,"NET":12862,"oni":12863,"Ġestablishment":12864,"ĠFight":12865,"ĠUtah":12866,"Ali":12867,".-":12868,"thm":12869,"Ġviolent":12870,"Ġoptical":12871,"ĠRussell":12872,"ĠJos":12873,"Ġweren":12874,"erick":12875,"ĠWalter":12876,"ĠSH":12877,"Ġlocally":12878,"illery":12879,"ĠassertThat":12880,"ĠBed":12881,"Ġcrimes":12882,"jQuery":12883,"ĠPhD":12884,"wrapper":12885,"rating":12886,"Ġresident":12887,"Ġignored":12888,"ĠThank":12889,"ĠThompson":12890,"Ġargued":12891,"104":12892,"rent":12893,"ĠMalaysia":12894,"iteral":12895,"Light":12896,"liest":12897,"cluster":12898,"Ġinsight":12899,"ĠLOG":12900,"Ġguilty":12901,"Language":12902,"Ġsuspect":12903,"SI":12904,"ĠEpisode":12905,"ĠHum":12906,"Ġpione":12907,"Ġmini":12908,"Ġskip":12909,"Ġradiation":12910,"Ġencouraged":12911,"ĠAustria":12912,"1929":12913,"Ġnucle":12914,"Ġtaxes":12915,"à¤¾":12916,"ĠDouglas":12917,"ĠHamp":12918,"Ġindicating":12919,"âĢ¦]":12920,"Ġrecommendations":12921,"groups":12922,"ĠGram":12923,"Ġengines":12924,"arma":12925,"UND":12926,"()</":12927,"Ġmayor":12928,"annon":12929,"Ġwhilst":12930,"Ġconsideration":12931,"ĠTelevision":12932,"Ġedges":12933,"ĠHoll":12934,"Ġtemp":12935,"hill":12936,"Ġheadquarters":12937,"Ġdemands":12938,"sys":12939,"widehat":12940,"Ġfails":12941,"Ġsynthes":12942,"ousing":12943,"job":12944,"Ġwithdraw":12945,")}\\":12946,"ĠPolitical":12947,"Sem":12948,"Ġmales":12949,"Ġgeneric":12950,"Ġrend":12951,"ÑģÑĤ":12952,"127":12953,"ĠML":12954,"^+":12955,"href":12956,"ĠBeng":12957,"Ġsupplies":12958,"Ġconventional":12959,"Ġaver":12960,"Former":12961,"1910":12962,"Ġconservative":12963,"accept":12964,"ĠJess":12965,"blue":12966,"iatric":12967,"Ġgolf":12968,"ĠAG":12969,"ĠOpt":12970,"ĠCrime":12971,"stage":12972,"ĠReserved":12973,"Ġrequirement":12974,"Ġnominated":12975,")^{":12976,"Ġaccum":12977,"sol":12978,"ĠJonathan":12979,"Ġselector":12980,"OC":12981,"osl":12982,"Alex":12983,"NY":12984,"opts":12985,"LED":12986,"ĠIndonesia":12987,"Ġmomentum":12988,"Ġstats":12989,".\",":12990,"ĠAndy":12991,"asma":12992,"Ġfemin":12993,"Ġdiagnosis":12994,"ĠMand":12995,"Spr":12996,"Ġenv":12997,"Ġshouldn":12998,"ĠAbb":12999,"ĠTheorem":13000,"nan":13001,"irates":13002,"ĠBrun":13003,"ĠFurthermore":13004,"ectors":13005,"Ġlogger":13006,"PY":13007,"ĠMerc":13008,"Ġhoping":13009,"Math":13010,"ĠStatus":13011,"ĠTam":13012,"inions":13013,"gg":13014,"ĠAlber":13015,"Ġsignals":13016,"ĠBrand":13017,"Props":13018,"peat":13019,"Ms":13020,"Special":13021,"loop":13022,"Ġcharity":13023,"ĠDublin":13024,"Ġdivor":13025,"Ġracial":13026,"Ġsomewhere":13027,"IAL":13028,"VA":13029,"}:":13030,"ĠDue":13031,"Ġdimensions":13032,"Ġboot":13033,"Generated":13034,"ELD":13035,"ĠFer":13036,"Ġbike":13037,"dc":13038,"ĠDeep":13039,"uese":13040,"ĠĠĠĠĠĠĠĠĠĠĠĠĠĠĠĠĠĠĠĠĠĠĠĠĠĠĠĠ":13041,"Ġemerging":13042,"minute":13043,"Domain":13044,"ÙĨ":13045,"Ġanth":13046,".<":13047,"Ġtemple":13048,"ĠNeg":13049,"Ġcollective":13050,"Delegate":13051,"ĠLang":13052,"AU":13053,"Ġreven":13054,"Ġ];":13055,"Ġstudying":13056,"Ġfavourite":13057,"may":13058,"ĠMind":13059,"Ġglob":13060,"Ġdisorder":13061,"ĠDance":13062,"Î½":13063,"BY":13064,"Ġphysics":13065,"Should":13066,"Ġcriticism":13067,"available":13068,"ĠAdams":13069,"Ġrepair":13070,"Live":13071,"Week":13072,"izers":13073,"Ġimprovements":13074,"cosystem":13075,"alytics":13076,"ortheast":13077,"ĠKennedy":13078,"Texture":13079,"Ġelectro":13080,"ĠReserve":13081,"Ġparticle":13082,"kh":13083,"ĠHIV":13084,"ĠSenator":13085,"Ġkitchen":13086,"Ġfantastic":13087,"MR":13088,"ĠGirls":13089,"ĠMyst":13090,"hips":13091,"ascular":13092,"Ġscan":13093,"Ġhired":13094,"encer":13095,"ĠComputer":13096,"FUN":13097,"Ġreserve":13098,"Shape":13099,"Despite":13100,"ĠHit":13101,"ĠMedal":13102,"Ġastr":13103,"ĉĠĠĠĠĠĠĠ":13104,"Ġfleet":13105,"ĠBeaut":13106,"TRUE":13107,"ĠAntonio":13108,"Ġconstraints":13109,"Ġtargeted":13110,"Ġbeer":13111,"mouth":13112,"ENTRY":13113,"shared":13114,"emia":13115,"testing":13116,"Ġbot":13117,"Ġequally":13118,"Ġlawyers":13119,"Ġthemes":13120,"Ġtissue":13121,"vals":13122,"ĠLock":13123,"Ġspecify":13124,"ĠProf":13125,"Player":13126,"Ġsynchron":13127,"uet":13128,"Ġrenamed":13129,"ĠBelgium":13130,"zeta":13131,"ĠJob":13132,"ĠPublishing":13133,"INTER":13134,"ĠOperation":13135,"Ġfuck":13136,"Ġappointment":13137,"Ġinterpretation":13138,"sample":13139,"Ġcogn":13140,"Ġapplies":13141,"uki":13142,"Ġsurn":13143,"ffff":13144,"Ġpolar":13145,"Ġsoph":13146,"Ġheading":13147,"Ġvibr":13148,"Original":13149,"opter":13150,"Ġforeach":13151,"ĠWithout":13152,"Ġplugin":13153,"Ġhybrid":13154,"ĠLevel":13155,"bers":13156,"sburgh":13157,"ĠServer":13158,"horizontal":13159,"Ġfraction":13160,"ĠBO":13161,"pull":13162,"urable":13163,"story":13164,"Ġingred":13165,"Ġhypothes":13166,"provider":13167,"VP":13168,"blank":13169,"Three":13170,"ĠStewart":13171,"idal":13172,"\\'":13173,"1932":13174,"\"><!--":13175,"Ġroyal":13176,"picker":13177,"Ġfishing":13178,"oca":13179,"ĠGary":13180,"Ġworry":13181,"Ġrobust":13182,"Ġinvolvement":13183,"ĠReading":13184,"ĠInteg":13185,"icular":13186,"Ġtypename":13187,"Password":13188,"Ġ(âĢľ":13189,"ĠHarvard":13190,"1928":13191,"Ġgod":13192,"ĠâĨĴ":13193,"ĠHost":13194,"Ġtone":13195,"qquad":13196,"Ġconcepts":13197,"beat":13198,"estone":13199,"bg":13200,"Ġsupplied":13201,"Ġfocuses":13202,"Ġmemories":13203,"unique":13204,"odox":13205,"ĠWhich":13206,"imental":13207,"Ġtimeout":13208,"iking":13209,"Ġviewed":13210,"username":13211,"Ġinfluenced":13212,"Jack":13213,"Mask":13214,"ĠWrite":13215,"Ġtub":13216,"MIN":13217,"Ok":13218,"Ġtouchdown":13219,"ĠOK":13220,"Ġpump":13221,".~":13222,"ĠStudios":13223,"borough":13224,"ographical":13225,"ĠFL":13226,"Ġsharp":13227,"Ġcarefully":13228,"ĠConnecticut":13229,"Ġlegit":13230,"Plan":13231,"approx":13232,"Ġmerely":13233,"Ġtyped":13234,"Bind":13235,"ysical":13236,"Ġinspiration":13237,"supported":13238,"ea":13239,"Ġresponded":13240,"maven":13241,"shadow":13242,"whe":13243,"tests":13244,"marks":13245,"âĢħ":13246,"Ġtips":13247,"Mart":13248,"leans":13249,"ĠSU":13250,"Ġtea":13251,"ĠLawrence":13252,"ĠRain":13253,"orable":13254,"Ġworship":13255,"QUE":13256,"Cur":13257,"assembly":13258,"Native":13259,"Ġdisag":13260,"Ġbirthday":13261,"xis":13262,"Ġclim":13263,"Ġloyal":13264,"ateur":13265,"Dictionary":13266,"ĠBuy":13267,"pattern":13268,"ashi":13269,"Ġaside":13270,"olen":13271,"'));":13272,"iri":13273,"yg":13274,"Ġdust":13275,"ols":13276,"ĠMom":13277,"Ġspark":13278,"Ġradius":13279,"Ġedit":13280,"Scal":13281,"Ġmanuscript":13282,"clusions":13283,"Ġproduces":13284,"Install":13285,"zym":13286,"Fact":13287,"Ġcorrectly":13288,"CG":13289,"tre":13290,"ĠPap":13291,"ĠWard":13292,"lined":13293,"ordinary":13294,"svg":13295,"Ġjuris":13296,"hl":13297,"ĠBart":13298,"ĠPalace":13299,"cdots":13300,"ĠThailand":13301,"isen":13302,"Ġmigr":13303,"Prov":13304,"Begin":13305,"ĠPeak":13306,"ĠRachel":13307,"Ġsalt":13308,"async":13309,"Ġelsewhere":13310,"required":13311,"ĠAssistant":13312,"tsd":13313,"spiracy":13314,"à®":13315,"Because":13316,"Ġmodes":13317,"springframework":13318,"ĠStop":13319,"Ġsecretary":13320,"Ġtmp":13321,"Ġreson":13322,"invalid":13323,"Ġreporter":13324,"Ġprinted":13325,"White":13326,"owski":13327,"{(":13328,"Ġarrive":13329,"Ġads":13330,"Ġjudges":13331,"Ġchecks":13332,"Ġneutral":13333,"Ġintellectual":13334,"Ġequipped":13335,"Ġsuperior":13336,"mate":13337,"ĠViol":13338,":`":13339,"Îµ":13340,"Sources":13341,"Ġagricultural":13342,"Ġreceiver":13343,"Ġmanual":13344,"Ġruled":13345,"{%":13346,"Ġscroll":13347,"ĠMi":13348,"111":13349,"Ġtrou":13350,"pin":13351,"ĠHttp":13352,"\"],":13353,"Ġclar":13354,"ĠVar":13355,"Ġtill":13356,"ĠLanc":13357,"?)":13358,"Ġisolated":13359,"bes":13360,"release":13361,"ĠLGBT":13362,"Pers":13363,"isons":13364,"Ġpace":13365,"ĠChallenge":13366,"Ġvisits":13367,"RED":13368,"{{\\":13369,"mac":13370,"ĠLag":13371,";)":13372,"ryption":13373,"ĠChile":13374,"utrition":13375,"ĠSimilar":13376,"eveloper":13377,"Ġbatch":13378,"Ġhelpful":13379,"essment":13380,"ĠSwiss":13381,"once":13382,"condition":13383,"anne":13384,"Ġpreparation":13385,"graduate":13386,"Ġschema":13387,"itchell":13388,"BAR":13389,"ĠCass":13390,"moz":13391,"Ġproteins":13392,"ĠReact":13393,"zi":13394,"Focus":13395,"ĠMississippi":13396,"Ġfro":13397,"ĉĉĉĉĉĉĉĉĉ":13398,"annah":13399,"ĠIC":13400,"ĠHE":13401,"Ġdemocracy":13402,"ORK":13403,"Ġsid":13404,"yy":13405,"METH":13406,"Ġchronic":13407,"abad":13408,"106":13409,"Ġdowntown":13410,"Ġcontracts":13411,"ivo":13412,"ĠProfessional":13413,"ĠAle":13414,"Ġmarine":13415,"idays":13416,"rin":13417,"Ġstayed":13418,"Ġfolks":13419,"Ġlegs":13420,"Labels":13421,"ĠNep":13422,"Ġchurches":13423,"Ġromantic":13424,"Ġcompute":13425,"Ġwider":13426,"Prior":13427,"ibliography":13428,"Ġrugby":13429,"Death":13430,"ĠGrad":13431,"Ġpic":13432,"country":13433,"ĠWi":13434,";}":13435,"ĠRele":13436,"ĠGuy":13437,"Visible":13438,"Ġmetres":13439,"('.":13440,"jamin":13441,"Ġdial":13442,"ĠFle":13443,"FLA":13444,"Ġflowers":13445,"Ġinject":13446,"ĠOrth":13447,"sync":13448,"phot":13449,"Ġruling":13450,"theless":13451,"School":13452,"1915":13453,"ĠHub":13454,"Ġdecrease":13455,"ĠYan":13456,"Ġgear":13457,"ĠForces":13458,"ĠWind":13459,"Ġmusician":13460,"Character":13461,"Ġcul":13462,"icht":13463,"Execut":13464,"Ġabund":13465,"Ġstarring":13466,"Ġnullptr":13467,"ĠPrincess":13468,"President":13469,"Ġoccupied":13470,"Ġjunior":13471,"Library":13472,"urse":13473,"Ġpredicted":13474,"ĠCharlie":13475,"ĠMurray":13476,"ĠHistorical":13477,"Creat":13478,"there":13479,"ĠBuck":13480,"Ġdesper":13481,"ĠGraham":13482,"Ġenvironments":13483,"constructor":13484,"Ġpron":13485,"othy":13486,"ĠFisher":13487,"ĠDownload":13488,"Ġsoccer":13489,"aman":13490,"Ġeducated":13491,"Ġraising":13492,"Ġrepeat":13493,"Ġdeput":13494,"ĠBrooklyn":13495,"Ġcha":13496,"Thank":13497,";\">":13498,"Ġcharts":13499,"Ġsuicide":13500,"Ġdrinking":13501,"imated":13502,"ĠIntelligence":13503,"ĠLeader":13504,"Ġmorph":13505,"!!!!":13506,"ictures":13507,"Ġna":13508,"VALID":13509,"Ġvariation":13510,"Ġbone":13511,"Ġcrazy":13512,"Ġtip":13513,"ĠMoney":13514,"acer":13515,"ĠBM":13516,"Ġfabric":13517,"ĠEconomics":13518,"1916":13519,"ruby":13520,"Ġforever":13521,"xiety":13522,"fare":13523,"Ġspeaker":13524,"Ġcomplicated":13525,"speed":13526,"Ġbull":13527,"Ġamongst":13528,"Ġaddressed":13529,"ĠArmen":13530,"Ġradical":13531,"Ġappreciate":13532,"ti":13533,"Ġintervention":13534,"uru":13535,"ĠAnc":13536,"tf":13537,"Ġsuspended":13538,"sym":13539,"Robert":13540,"Ġcorrelation":13541,"Ġpref":13542,"onal":13543,"ĠTrack":13544,"ĠEdinburgh":13545,"stud":13546,"118":13547,"Ġjournalists":13548,"ĠGro":13549,"Ġsituated":13550,"Ġobservation":13551,"Ġfmt":13552,"Ġdependent":13553,"Ġmoon":13554,"ĠSumm":13555,"amous":13556,"ĠNelson":13557,"Ġgreatly":13558,"Ġgrab":13559,"LD":13560,"Ġtags":13561,"scar":13562,"ĠWright":13563,"Ġsatellite":13564,"(@":13565,"Ġordinary":13566,"nodes":13567,"Present":13568,"Ġdestruction":13569,"Ġbio":13570,"('/":13571,"Ġbreaks":13572,"hal":13573,"ĠChron":13574,"Ġmilk":13575,"1925":13576,"Ġchunk":13577,"Ġderiv":13578,"Ġleaf":13579,"Ġregulatory":13580,"ĠClient":13581,"Area":13582,"Â·":13583,"Ġdiscussions":13584,"ĠRub":13585,"Ġtie":13586,"Ġportfolio":13587,"sch":13588,"Ġmystery":13589,"charge":13590,"ĠFix":13591,"Ġprotests":13592,"DateTime":13593,"1927":13594,"collapse":13595,"Ġhist":13596,"ĠBlood":13597,"ĠVancouver":13598,"ĠTownship":13599,"bing":13600,"ajax":13601,"avery":13602,"Ġdiagram":13603,"Ġadjacent":13604,"Ġreads":13605,"ĠRepresentatives":13606,"fish":13607,"tbody":13608,"Ġcited":13609,"ĠKir":13610,"Interval":13611,"Ġhip":13612,"ĠChampions":13613,"cdn":13614,"ĠAqu":13615,"WH":13616,"Ġmanifest":13617,"ĠFal":13618,"Ġpub":13619,"ĠLoad":13620,"Ġvalidation":13621,"health":13622,"Ġ^":13623,"Ġoperates":13624,"COVID":13625,"live":13626,"Ġhighlights":13627,"Ġsucceeded":13628,"Ġneighbour":13629,"construct":13630,"nn":13631,"issa":13632,"UC":13633,"Ġstadium":13634,"ĠClassic":13635,"ĠNash":13636,"Ð¾Ð²":13637,"War":13638,"plier":13639,"ikh":13640,"intendo":13641,"103":13642,"Ġ=======":13643,"Ġmechanisms":13644,"Ġresidence":13645,"REG":13646,"Ġthreats":13647,"ĠIan":13648,"optional":13649,"Canadian":13650,"ĠShel":13651,"Ġbiological":13652,"1924":13653,"Sequence":13654,"Ġblind":13655,"Coord":13656,"Ġpermitted":13657,"ĠEstate":13658,"Ġloading":13659,"Ġoverwhel":13660,"actic":13661,"Ġinnoc":13662,"quis":13663,"Sep":13664,"aceut":13665,"ĠOd":13666,"Ġcalendar":13667,"Ġalgebra":13668,"jd":13669,"Virtual":13670,"bie":13671,"Ġphotographer":13672,"ĠCarter":13673,"Ġimmun":13674,"EEEE":13675,"Ġlessons":13676,"ĠSamuel":13677,"Ġdisturb":13678,"ĠEnc":13679,"ĠStars":13680,"Ġhill":13681,"ĠOil":13682,"atile":13683,"ĠFel":13684,"Hon":13685,"ĠBoys":13686,"}^{(":13687,"verseas":13688,"ĠChristians":13689,"ĠMorris":13690,"ogene":13691,"Ġviewers":13692,"ĠSnow":13693,"Organ":13694,"Ġformerly":13695,"ĠSett":13696,"Ġimmigration":13697,"quiry":13698,"lessly":13699,"Ġmart":13700,"ĠGuid":13701,"Ġunlikely":13702,"chart":13703,"ycle":13704,"Ġgall":13705,"ONG":13706,"ĠCampbell":13707,"timeout":13708,"ĠStage":13709,"Ġpipeline":13710,"Ġargue":13711,"IDTH":13712,"download":13713,"rient":13714,"ulu":13715,"ĠGill":13716,"Ġtheories":13717,"alion":13718,"ATCH":13719,"inces":13720,"cluding":13721,"Ġtort":13722,"})\\":13723,"Ġpseud":13724,"ĠFem":13725,"Ġduties":13726,"ĠArtist":13727,"Ġloud":13728,"Ġguarantee":13729,"}\\,":13730,"Ġtalked":13731,"fixed":13732,"Ġrely":13733,"Ġwake":13734,"Ġenables":13735,"Ġdeck":13736,"ĠLouisiana":13737,"ĠPublished":13738,"arse":13739,"ĠFern":13740,"Ġavailability":13741,"ethyl":13742,"Ġclassified":13743,"irmingham":13744,"Ġthorough":13745,"what":13746,"ĠNag":13747,"ictional":13748,"ĠPred":13749,"/.":13750,"Ġsubscription":13751,"backs":13752,"Ġbuf":13753,"cin":13754,"asa":13755,"Ġcomplement":13756,"Ġimmune":13757,"Ġdisaster":13758,"ĠAdditionally":13759,"vc":13760,"onda":13761,"Ġfunded":13762,"Ġrelating":13763,"icator":13764,"ĠDomin":13765,"ĠPython":13766,"ĠMarvel":13767,"Ġlicensed":13768,"Flag":13769,"Ġdecent":13770,"ĠApache":13771,"Ġdesert":13772,"æľ":13773,"Ġru":13774,"ĠMarshall":13775,"Ġprops":13776,"ĠHad":13777,"Ġdepression":13778,"Ġexpatriate":13779,"Ġcollapse":13780,"ANS":13781,"Ġnp":13782,"scal":13783,"ĠNorwegian":13784,"Ã¥":13785,"ĠBetween":13786,"Ġtensor":13787,"Edge":13788,"ĠMetro":13789,"Ġhint":13790,"omed":13791,"ĠFame":13792,"ĠAbd":13793,"Ġaccompanied":13794,"mathsf":13795,"('#":13796,"hatt":13797,"Ġske":13798,"Ġidentification":13799,"AI":13800,"Ġ(-":13801,"ĠBased":13802,"oned":13803,"ĠRoger":13804,"ĠPrior":13805,"Methods":13806,"Ġ'\\":13807,"Ġmad":13808,"written":13809,"inals":13810,"Ġvolumes":13811,"owned":13812,"Ġconsisting":13813,"Bro":13814,"Ġremoval":13815,"DEFAULT":13816,"!)":13817,"rev":13818,"1922":13819,"Ġmilit":13820,"ĠPeters":13821,"ĠBond":13822,"ilters":13823,"ĠTar":13824,"ĠFBI":13825,"ĠCleveland":13826,"1931":13827,"login":13828,"Ð°Ð½":13829,"ĠPortland":13830,"ÙĪ":13831,"ensis":13832,"Operator":13833,"ĠTower":13834,"108":13835,"Mean":13836,"ĠNi":13837,"1926":13838,"ĠPope":13839,"ĠConvention":13840,"Air":13841,"Ġtennis":13842,"Ġstructural":13843,"Ġdefence":13844,"ĠRobinson":13845,"Ġanalyst":13846,".:":13847,"Ġautomatic":13848,"Ġtx":13849,"ĠChamber":13850,"ĠAddress":13851,"ĠArgentina":13852,"Ġdialogue":13853,"Ġhang":13854,"ĠLP":13855,"ooks":13856,"ĠCrown":13857,"ĠInput":13858,"Ġexploration":13859,"Ġasym":13860,"Ġvolunteers":13861,"large":13862,"rane":13863,"ĠPoll":13864,"Ġvariant":13865,"Endpoint":13866,"upt":13867,"Ġhunt":13868,"Ġcable":13869,"Ġglad":13870,"ĠASSERT":13871,"fail":13872,"via":13873,"ĠXML":13874,"ught":13875,"POST":13876,"ĠSteven":13877,"METHOD":13878,"ĠCELL":13879,"Ġmolecular":13880,"Ġreceives":13881,"Lower":13882,"ĠAbstract":13883,"yll":13884,"Ġcock":13885,"Ġwarrant":13886,"town":13887,"Ġpaintings":13888,"pread":13889,"ĠGas":13890,"Ġmeters":13891,"ĠDesc":13892,"1921":13893,"slice":13894,"tha":13895,"<!":13896,"Ġlad":13897,"ebr":13898,"SCR":13899,"Ġmountains":13900,"ymn":13901,"verter":13902,"ĠNC":13903,"ĠArchives":13904,"ĠArrayList":13905,"icit":13906,"Ġdebug":13907,"series":13908,"ĠIce":13909,"?>":13910,"ĠLeft":13911,"Ġgro":13912,"textwidth":13913,"ĠHunter":13914,"Ġassociate":13915,"Ġsty":13916,"icked":13917,"Animation":13918,"Ġloves":13919,"ĠWorking":13920,"amer":13921,"Ġmechanical":13922,"GER":13923,"Ġmice":13924,"visible":13925,"ĠSud":13926,"otton":13927,"Ġsignificance":13928,"Ġoverl":13929,"Ġdevelopments":13930,"abling":13931,"progress":13932,"made":13933,"Ġvenue":13934,"Ġbias":13935,"navList":13936,"trace":13937,"Ġmedic":13938,"Ġoutdoor":13939,"Ign":13940,"ĠâĤ¬":13941,"Ġclip":13942,"Ġadapted":13943,"Ñĩ":13944,"Ġvaccines":13945,"1923":13946,"Ġexclus":13947,"ĠPortugal":13948,"team":13949,"Profess":13950,"Ġtranslated":13951,"ĠVector":13952,"ĠSay":13953,"Ġscreening":13954,"Ġcoinc":13955,"commit":13956,"Ġidentical":13957,"scr":13958,"Ġregarded":13959,"ĠChel":13960,"\":\"":13961,"typen":13962,"Ġrarely":13963,"ĠStre":13964,"ĠJimmy":13965,"ĠSimple":13966,"Ġblank":13967,"lu":13968,"Ġfocusing":13969,"Whe":13970,"Ġpatch":13971,"dig":13972,"ĠFinn":13973,"ĠCampaign":13974,"Ġrepresentatives":13975,"DIS":13976,"apos":13977,"ĠElection":13978,"Ġeq":13979,"2023":13980,"ĠSteel":13981,"ĠWriting":13982,"compiler":13983,"Ġfinishing":13984,"Ġrotation":13985,"Äĥ":13986,"1912":13987,"Den":13988,"ainian":13989,"Ġlifetime":13990,"Ġsubsc":13991,"ĠUrban":13992,"Ġconfident":13993,"clipse":13994,"Ġlunch":13995,"Ġ{\"":13996,"ierarchy":13997,"ĠMagic":13998,"Ġmanufacturers":13999,"aceutical":14000,"Ġpossess":14001,"Ã©t":14002,"avan":14003,"theme":14004,"Ġspoken":14005,"}^\\":14006,"Ġemission":14007,"Ġgram":14008,"IDE":14009,"Ġreportedly":14010,"Ġmodify":14011,"Returns":14012,"ĠDenmark":14013,"ĠHO":14014,"Dim":14015,"ijing":14016,"ĠKnight":14017,"ĠBaltimore":14018,"proxy":14019,"Ġdiam":14020,"\"\"\"":14021,"STATE":14022,"Ġnam":14023,"zes":14024,"izard":14025,"Move":14026,"Ġunlike":14027,"ĠSets":14028,"Ġphotography":14029,"ĠBody":14030,"ĠFO":14031,"Through":14032,"Ġfounding":14033,"erving":14034,"ĠDeputy":14035,"best":14036,"Ġcrown":14037,"ashboard":14038,"Ġpartition":14039,"oustic":14040,"Ġju":14041,"ĠTrad":14042,"eling":14043,"orrect":14044,"ĠEC":14045,"flex":14046,"single":14047,"gow":14048,"Ġanimated":14049,"tok":14050,"Ġmanufacturer":14051,"python":14052,"ĠReform":14053,"Ġslot":14054,"Mus":14055,"have":14056,"ĠFab":14057,"Scott":14058,"Bean":14059,"clone":14060,"Ġnan":14061,"allclasses":14062,"ĠGulf":14063,"Ġcelebrated":14064,"Ġcertificate":14065,"Wel":14066,"()))":14067,"outing":14068,"ĠCome":14069,"107":14070,"mount":14071,"ĠMargaret":14072,"olute":14073,"Ġcow":14074,"ĠWang":14075,"Ġuncertainty":14076,"Ġsync":14077,"ĠNothing":14078,"checkbox":14079,"Ġboundaries":14080,"ĠHend":14081,"Ġstupid":14082,"built":14083,"Ġelectrical":14084,"Ġdramatic":14085,"console":14086,"ĠOrleans":14087,"DATA":14088,"ĠHawaii":14089,"Required":14090,"Ġpermit":14091,"Ġpublish":14092,"east":14093,"ationToken":14094,"kt":14095,"ĠDragon":14096,"isely":14097,"\"|":14098,"issance":14099,"Ġadequ":14100,"athon":14101,"Ġreviewed":14102,"Ġequity":14103,"RESULT":14104,"ĠMachine":14105,"Ġunw":14106,"rake":14107,"Ids":14108,"sidebar":14109,"umar":14110,"Ġå":14111,"kee":14112,"terior":14113,"Est":14114,"Ġoffense":14115,"elihood":14116,"ĠConsider":14117,"Ġgenerations":14118,"iative":14119,"ĠSide":14120,"ĠPatri":14121,"Ġlung":14122,"Pair":14123,"PUT":14124,"Ġoptimal":14125,"bn":14126,"Cred":14127,"isan":14128,"|^":14129,"Capt":14130,"Ġpret":14131,"Contin":14132,"ĠOperations":14133,"Ġcov":14134,"destroy":14135,"aughters":14136,"Ġdrums":14137,"typename":14138,"Great":14139,"udson":14140,"ĠUr":14141,"Ġlanding":14142,"Ġuniversal":14143,"reck":14144,"Ġsomehow":14145,":\\":14146,"Ġtomorrow":14147,"connected":14148,"quer":14149,"Ġbriefly":14150,"selector":14151,"hers":14152,"enezuel":14153,"eva":14154,"Ġstuck":14155,"INFO":14156,"exec":14157,"Ġfrequent":14158,"ourt":14159,"ovak":14160,"Ġclaiming":14161,"Ġflows":14162,"}'":14163,"ĠInsurance":14164,"Ġadminister":14165,"nia":14166,"ĠCos":14167,"Ġnaturally":14168,"ĠCommons":14169,"Ġthermal":14170,"Ġabroad":14171,"resolve":14172,"Ġchat":14173,"Ġtheater":14174,"Ġpending":14175,"Ġcomplaint":14176,"idges":14177,"checked":14178,"oria":14179,"Australian":14180,"idespread":14181,"Ġapplying":14182,"ĠBaron":14183,"eway":14184,"Â»":14185,"ĠKate":14186,"ensuremath":14187,"Unknown":14188,"ĠSW":14189,"vol":14190,"}_\\":14191,"Ġinhabit":14192,"Ġaffairs":14193,"ĠInn":14194,"Mouse":14195,"ĠCG":14196,"Ġanymore":14197,"Ġpossession":14198,"uates":14199,"Ġupgrade":14200,"Ġliberal":14201,"nest":14202,"ĠDescription":14203,"EP":14204,"Ġvoices":14205,"Ġislands":14206,"Ġsurrounded":14207,"ingers":14208,"ĠDB":14209,"omes":14210,"Ġclothing":14211,"Ġeverywhere":14212,"Ġpoem":14213,"ARS":14214,"Olymp":14215,"ĠGT":14216,"HC":14217,"ĠPlatform":14218,"atomic":14219,"Ġnick":14220,"ASE":14221,"equality":14222,"ibbean":14223,"Ġpleased":14224,"Ġexha":14225,"ateral":14226,"Ġinclusion":14227,"sem":14228,"ĠPharm":14229,"Ġcommands":14230,"Mount":14231,"Ġcurrency":14232,"ĠNat":14233,"FM":14234,"Ġepid":14235,"Ġcodes":14236,"ĠRy":14237,"ĠClick":14238,"HD":14239,"Ġdiet":14240,"Ġmetab":14241,"hist":14242,"Limit":14243,"Ġclothes":14244,"Ġluxury":14245,"Ġdeveloper":14246,"tail":14247,"ptic":14248,"UTH":14249,"orus":14250,"illance":14251,"iscal":14252,"Ġartistic":14253,"Hub":14254,"Ġbug":14255,"sn":14256,"Bad":14257,"ĠGiven":14258,"undefined":14259,"Ġinsights":14260,"ĠFreedom":14261,"Ġbacking":14262,"Ġconnecting":14263,"Ġlang":14264,"oj":14265,"Ġmasks":14266,"Ġ?>":14267,"Ġtale":14268,"ĠBoolean":14269,"AMP":14270,"Screen":14271,"Ġsimulation":14272,"walk":14273,"Ġphotographs":14274,"ĠALL":14275,"}}{\\":14276,"Ġpromoting":14277,"Ġintense":14278,"ĠGalaxy":14279,"ĠMail":14280,"than":14281,"ÙĬ":14282,"Ġstem":14283,"ĠPhoenix":14284,"ĠKaz":14285,"iph":14286,"ĠLiberal":14287,"usalem":14288,"Ġlogo":14289,"ĠTob":14290,"Ġcampaigns":14291,"Ġpetition":14292,"looking":14293,"Ġhorses":14294,"Basic":14295,"ynasty":14296,"Ġcursor":14297,"ournals":14298,"Ġsurre":14299,"Ġgauge":14300,"ĠObserv":14301,"February":14302,"Ġcomplexity":14303,"EventListener":14304,"Ġdreams":14305,"Ġthreatened":14306,"ĠSpeed":14307,"pot":14308,"goto":14309,"Ġintensity":14310,"Ġshadow":14311,"Ġemerged":14312,"licens":14313,"tered":14314,"Ġgraphics":14315,"Ġexplicitly":14316,"Ġpopularity":14317,"wer":14318,"109":14319,"ĠLeadership":14320,"Landroid":14321,"ĠAgreement":14322,"ĠSoul":14323,"_);":14324,"ĠCroat":14325,"ĠPuerto":14326,"ĠFalls":14327,"oples":14328,"Ïĥ":14329,"Ġtwelve":14330,"ifi":14331,"ivan":14332,"intell":14333,"Ġrecre":14334,"Ġnit":14335,"ĠNASA":14336,"ĠTed":14337,"Ġcounts":14338,"ĠWayne":14339,"enumer":14340,"Ġresign":14341,"Notification":14342,"Ġjurisd":14343,"ĠRemove":14344,"Ġdiscount":14345,"({\\":14346,"Mass":14347,"sr":14348,"Ġtur":14349,"abetes":14350,"Ġentities":14351,"Ġincorporated":14352,"selling":14353,"ĠMes":14354,"Ġrhyth":14355,"commons":14356,"âĪĴ":14357,"ivities":14358,"Ġalgorithms":14359,"Ġprovisions":14360,"Ġenhanced":14361,"redited":14362,"aments":14363,"ĠMaine":14364,"Fragment":14365,"ĠMuslims":14366,"esian":14367,"uite":14368,"ĠĠĠĠĠĠĠĠĠĠĠĠĠĠĠĠĊ":14369,"ĠConstruction":14370,"ĠImpact":14371,"ĠTarget":14372,"Ġbronze":14373,"Ġutility":14374,"=\\\"":14375,"EEEEFF":14376,"Ġhighway":14377,"Ġjew":14378,"ĠBaker":14379,"viously":14380,"Ġdeeper":14381,"Ġrestricted":14382,"ĠBulg":14383,"Cross":14384,"sha":14385,"ĠWarren":14386,"Complete":14387,"Ġweird":14388,"ĠCoronavirus":14389,"ĠCorp":14390,"extr":14391,"ĠFun":14392,"Ġlawsuit":14393,"){\\":14394,"&=":14395,"cycle":14396,"iti":14397,"forming":14398,"ĠAvailable":14399,"Ġmodules":14400,"ĠEND":14401,"Ġdad":14402,"wx":14403,"Ġsust":14404,"ARN":14405,"Ġsilent":14406,"Ġneighb":14407,"ĠMarie":14408,"ĠTogether":14409,"gregation":14410,"Ġrevers":14411,"ĠQuest":14412,"Adv":14413,"Ġreign":14414,"ethe":14415,"xit":14416,"Ġgoverning":14417,"Ġion":14418,"Ġbuff":14419,"illo":14420,"Team":14421,"Ġvertex":14422,"Ġbunch":14423,"ĠCL":14424,"Ġgard":14425,"ĠPun":14426,"ĠAltern":14427,"Ġlip":14428,"atibility":14429,"xhtml":14430,"Ġoxygen":14431,"apters":14432,"ĠVent":14433,"pedition":14434,"ILL":14435,"trl":14436,"ĠEvans":14437,"intellij":14438,"Ġ\"$":14439,"Ġshipping":14440,"Ġcasual":14441,"getElement":14442,"ĠFeature":14443,"LOC":14444,"Ġcameras":14445,"abe":14446,"ĠStorm":14447,"ĠZone":14448,"warning":14449,"Sample":14450,"Ġalias":14451,"Ġlens":14452,"osc":14453,"effect":14454,"Ġbat":14455,"ĠCommonwealth":14456,"mouse":14457,"Ġsurviv":14458,"ĠMitchell":14459,"Ġmaintaining":14460,"ĠCover":14461,"ĠPant":14462,"ĠCemetery":14463,"Ġgathered":14464,"hero":14465,"ĠColomb":14466,"Ġintegral":14467,"Ġstatistical":14468,"ĠPel":14469,"notes":14470,"'];":14471,"plot":14472,"ochem":14473,"iliation":14474,"acles":14475,"Ġtweet":14476,"ritory":14477,"nik":14478,"ĠStrateg":14479,"rium":14480,"ĠCrow":14481,"Indian":14482,"Ġlabour":14483,"ĠMix":14484,"ĠParent":14485,"ĠIR":14486,"Ġecosystem":14487,"Social":14488,"×Ļ×":14489,"Ġbegun":14490,"Ġtropical":14491,"lat":14492,"Ġagenda":14493,"Major":14494,"ongo":14495,"Ġimpacts":14496,"Admin":14497,"writing":14498,"ambig":14499,"extend":14500,"Ġ\\{":14501,"aho":14502,"ĠMethods":14503,"pad":14504,"ĠSingle":14505,"Ġnod":14506,"ĠJe":14507,"Ġgoogle":14508,"Skip":14509,"phones":14510,"Span":14511,"ĠCelebr":14512,"Ġwhenever":14513,"etics":14514,"colLast":14515,"Related":14516,"oids":14517,"Ġcompilation":14518,"Pad":14519,"Ġultimate":14520,"oil":14521,"ĠGun":14522,"transition":14523,"Ġbranches":14524,"Ġgeometry":14525,"driver":14526,"igo":14527,"ĠPittsburgh":14528,"puted":14529,"ĠJuan":14530,"ulates":14531,"println":14532,"SN":14533,"}\\\\":14534,"aba":14535,"rowse":14536,"Ġchest":14537,"ĠBroadway":14538,"ashing":14539,"Ġenemies":14540,"Design":14541,"apis":14542,"azines":14543,"ĠEmperor":14544,"Example":14545,"Ġsensor":14546,"Ġevaluated":14547,"OU":14548,"']['":14549,"Ġclosure":14550,"1913":14551,"ĠCreative":14552,"ĠStev":14553,"ugu":14554,"VC":14555,"Ġshops":14556,"ĠTechnical":14557,"Ġrounds":14558,"ĠCher":14559,"Ġcrossing":14560,"Site":14561,"lyphicon":14562,"lass":14563,"objects":14564,"Law":14565,"Ġrestore":14566,"ĠĠĠĠĠĠĠĠĠĠĠĠĠĠĠĠĠĠĠĠĠĠĠĠĠĠĠĠĠĠ":14567,"getValue":14568,"Ġopera":14569,"cases":14570,"Ġinfections":14571,"Az":14572,"Ġborrow":14573,"ĠCraig":14574,"Ġinches":14575,"Folder":14576,"Ġappearing":14577,"sheet":14578,"Ġmigration":14579,"Ġasp":14580,"anton":14581,"ipes":14582,"ĠJoy":14583,"ucker":14584,"Ġliv":14585,"ĠAlice":14586,"Ġattending":14587,"Framework":14588,"Ġcharset":14589,"ĠOrange":14590,"Ġpin":14591,"Ann":14592,"elligent":14593,"Ġbeam":14594,"Management":14595,"runtime":14596,"living":14597,"ĠSony":14598,"ĠRav":14599,"ACH":14600,"Ġstating":14601,"ĠBeing":14602,"amy":14603,"ĠRisk":14604,
[...]
