#version: 0.2
Ġ t
Ġ Ġ
i n
h e
Ġ a
o n
r e
a t
Ġt he
e r
e n
Ġ s
o r
a l
i t
Ġ o
i s
Ġ c
i on
e s
a n
ĠĠ ĠĠ
a r
Ġ w
Ġ \
Ġ f
e d
Ġo f
Ġ p
Ġ in
n d
l e
Ġ $
Ġ b
i c
in g
r o
Ġ d
Ġ m
a s
Ġa nd
c t
Ġt o
e l
e t
i g
en t
Ġt h
o u
r a
at ion
{ \
o m
s t
i l
i m
Ġ re
Ġ e
Ġ h
Ġ n
o t
o l
a m
Ġ is
Ġ (
Ġ l
i d
c e
Ġ T
v e
s e
u t
_ {
ĠĠ Ġ
Ġf or
Ġ S
ĠĠĠĠ ĠĠĠĠ
c h
u l
q u
Ġ g
u r
o w
a b
v er
at h
l y
Ġ$ \
e g
Ġ A
Ġ C
Ġth at
Ġ on
u m
it h
m ath
Ġ u
Ġb e
o d
Ġc on
č Ċ
Ġs t
en d
e m
Ġ I
i f
a d
â Ģ
Ġa s
Ġ &
ct ion
Ġw ith
t a
Ġ M
2 0
g e
} \
i r
h t
Ġw e
r i
p h
} $
Ġp ro
^ {
u re
t er
Ġa l
e x
a y
Ġa n
t h
Ġ Ċ
is t
ĠT he
Ġ B
Ġ P
Ġ v
p e
Ġ =
m a
Ġb y
at e
ig ht
Ġ F
re f
it y
u s
o s
i v
he r
Ġe x
an d
Ġ H
p t
p p
Ġa re
u n
re s
it e
Ġw h
} }
c al
( \
Ġc om
Ġ R
a c
u b
in e
Ġ L
Ġd e
o re
er s
es t
Ġ D
eg in
Ġ it
ro m
Ġ W
ar t
Ġa t
b egin
i al
p l
ex t
es s
i es
ra c
Ġ N
p er
) $
_ {\
n t
Ġ E
f t
Ġ or
Ġs e
Ġ G
Ġf rom
an t
1 9
o c
i ve
m ent
il l
ĠĠĠĠ ĠĠĠ
p s
d e
i z
Ġw as
} {
e w
Ġ r
T he
a g
as s
Ġth is
e q
f rac
or t
ul t
in t
} ,
al l
ĉ ĉ
t ext
p le
l d
e re
ic h
ic al
} )
e ct
c ite
Ġs h
or m
Ġ he
c l
a ve
o g
it ion
Ġs u
r an
e qu
el l
u d
Ġ -
r m
ig n
a k
at ed
Ġn ot
ab el
math b
r ight
ou r
Ġ y
u e
Ġc l
Ġc h
Ġre s
en s
Ġ le
b er
f f
, \
0 0
Ġ O
p a
Ġc an
ation s
ro u
Ġ <
âĢ Ļ
l abel
am e
Ġ J
t o
20 1
$ ,
ar y
d u
$ .
c on
Ġh ave
math cal
Ġwh ich
et a
ab le
ar d
Ġ {
t he
= "
Ġu s
Ġ k
} .
equ ation
f ig
Ġ U
Ġw he
u st
le ft
re d
) ;
ĠI n
o p
l ow
c c
im e
as e
} (
as t
- -
Ġ im
or k
} ^
a ge
~ \
on g
t her
en er
i an
o st
a p
ĠĠĠĠĠĠĠĠ ĠĠĠĠĠĠĠĠ
} _
i b
) ,
ac k
Ġ "
en ce
r u
a v
Ġm od
< /
f orm
id e
Ġ âĢ
p ro
ion s
) .
Ġp l
or d
Ġ K
Ġh as
a ch
' s
Ġa b
s o
ph a
an g
a in
al pha
c om
. .
a re
Ġ +
d a
l ine
ou s
a ct
Ġcom p
) \
Ġu n
in d
s um
Ġo b
am b
Ġal l
i a
r ic
1 0
ou t
ou ld
o ver
f ere
ro w
I n
el y
i p
ol d
Ġa d
ĠT h
ri b
Ġ if
el ta
/ /
Ġ V
er m
pe ct
Ġp art
e ar
ou nd
Ġon e
$ \
Ġa pp
amb da
ran s
an ce
i re
Ġcon t
Ġm e
im es
Ġ j
ent s
ta in
r y
_ \
w o
am ma
Ġd is
Ġal so
Ġ\ \
20 0
ic e
mathb b
Ġ }
Ġ qu
p ort
un ction
er v
at es
ĠS t
d ot
= \
o se
} ^{
s ub
or s
i le
Ġin t
} _{
re e
Ġ *
Ġp er
c es
m u
ow n
at a
m b
or y
g h
w e
l i
ic s
k e
ig ma
ul ar
ĠĠĠĠĠĠĠĠ ĠĠĠ
- \
pt ion
ut ion
al ly
ir st
h o
om e
Ġa r
Ġw ill
Ġs y
j ect
Ġe v
o f
res s
Ġs et
eg a
o v
Ġcl ass
f in
o int
^ {\
ur n
c ent
pa ce
ra y
i e
ra ph
p on
Ġt wo
Ġh is
ph i
h at
Ġmod el
ar k
l ic
ĠĠĠĠ Ġ
Ġn e
ar i
o k
a u
ol low
Ġo ut
mathb f
ver s
w id
od e
s et
p i
Ġb ut
Ġd if
s c
b f
l ambda
Ġv al
Ġf unction
Ġthe ir
nd er
o b
i el
Ġ en
Ġfor m
" >
Ġo ther
um ber
e p
ou nt
Ġin ter
Ġ {\
cl ud
iz e
Ġit s
Ġwe re
Ġd o
Ġf ollow
se ction
ĠW e
Ġt ime
Ġm ore
iel d
Ġres ult
Ġsu ch
al ign
v el
o ve
il on
Ġ |
ps ilon
Ġo ur
Ġcon s
Ġ [
on e
1 2
Ġs ub
a pp
Ġwhe re
Ġs c
Ġo ver
ra m
Ġf irst
ĠC h
d ition
Ġb et
âĢ Ŀ
is h
p os
g et
s igma
n e
1 8
math rm
c k
Ġs p
Ġs im
st em
le m
l l
ar am
Ġw ork
b eta
} {\
r it
Ġthe re
^{ -
Ġcon st
le ct
at ure
at ive
Ġg ener
Ġd es
et h
y s
Ġe qu
t e
Ġm an
p art
ver y
il de
Ġ( \
i x
Ġd ist
c re
y pe
Ġon ly
* }
Ġs o
r ing
Ġc or
Ġt rans
a ce
res ent
Ġbe en
Ġre g
Ġthe y
Ġa g
he d
u p
Ġre l
Ġn ew
+ \
a x
c ed
Ġy ou
ab l
Ġth an
Ġan y
] {
u al
if ic
v i
Ġa cc
g amma
Ġp re
Ġdif fere
Ġt ra
Ġ ro
ĠI t
s s
Ġ Y
Ġp os
ĠTh is
Ġthe n
pe c
\ \
the ta
b ar
ation al
ot h
fig ure
W e
Ġm at
Ġsh ow
wid th
* *
il ity
o x
^ \
le q
we en
p ut
il d
Ġc o
) }
Ġwhe n
ic t
c dot
m er
ig h
as ed
Ġc ol
Ġl o
r ho
Ġe ach
Ġd ata
at or
ta u
rou nd
n g
Ġwh o
Ġp h
i ent
d elta
is s
in ce
ter n
it em
Ġbet ween
$ -
Ġs ome
oc k
c ess
ru ct
S t
ak e
t urn
ĠâĢ ľ
}$ ,
at ing
Ġg iv
f ter
is e
Ġin to
Ġ x
}$ .
Ġpro b
it ies
eq ref
ĠS e
1 1
in k
he re
ar ray
} (\
Ġu nder
Ġthe se
Ġsy stem
b ig
an s
d er
ĠU n
Ġu p
Ġcom m
ra d
a w
l o
u es
t imes
ing s
Ġh ad
Ġt e
1 5
ib le
i ed
ol og
n ot
Ġe ff
Ġf in
Ġc ase
ment s
Ġp oint
it s
Ġg o
Ġs ol
s p
Ġp ol
s y
ĠH e
s h
Ġpro v
Ġ i
id ent
ub lic
ft y
Ġn o
Ġy ear
Ġab out
Ġ '
ay s
in fty
r t
Ġl ine
Ġu se
on s
n ce
v al
aram et
Ġn umber
Ġapp ro
p end
n u
n ing
1 6
Ġdiffere nt
eth od
ar row
Ġw ould
Ġp e
c ol
p r
| \
el f
m all
m in
ul l
Ġus ed
R e
= =
a il
part ial
ar g
c y
v ar
Ġl i
om ega
Ġk n
Ġst ud
iz ation
t ilde
t t
Ġex t
19 9
Ġn on
r al
Ġ est
iz ed
T h
am ple
p m
( )
ĠF or
1 3
at er
rou gh
Ġin d
qu ad
Ġin v
Ġa ct
w ard
on t
Ġf e
-- --
er t
Ġv ari
ver t
se c
Ġof f
D elta
is m
Ġus ing
Ġm ay
our ce
rou p
f or
us s
an ge
ow er
ĠR e
s pace
ore m
y n
eq n
l es
2 1
id er
c a
Ġc ur
m m
Ġas s
} [
o ol
o ple
per t
ic k
ĠĠĠĠĠĠĠĠ ĠĠĠĠĠĠĠ
i o
Ġs ame
Ġpart ic
Ġde fin
ction s
1 4
it ed
Ġgiv en
con d
en g
Ġ her
e ver
ist s
ar ch
Ġm ost
s im
ct or
au se
Ġre p
Ġf ield
} }\
ical ly
Ġt erm
p ar
Ġpro du
Ġs ign
he s
Ġd et
Ġre turn
. ,
)$ .
Ġcom ple
2 5
cent er
1 7
x i
\ ,
Ġw ell
Ġ$ (
u nd
Ġf act
ot e
Ġin st
u g
Ġ .
Ġst ate
Ġthe m
Ġde f
s erv
an n
Ġ X
il y
Ġp a
Ġg et
Ġsu pp
- >
ri v
ur ing
ar s
as es
ĠâĢ ĵ
Ġbe c
ar ge
iv ely
Ġfollow ing
al s
g y
Ġpl ay
Ġb l
ir c
er r
Ġo per
Ġp aramet
Ġ ent
ot s
in s
$ $
Ġm ethod
g le
ri x
ut e
ĠP ro
Ġs pec
Ġb oth
} _{\
E x
Ġd ire
s q
O m
Ġe m
Ġob tain
Ġs a
Ġre c
Ġa fter
ĉĉ ĉĉ
ĠD e
ĠC om
Ġre qu
e psilon
o y
i vers
Ġb ound
ra ct
Ġa m
Ġ z
Ġ Q
Ġresult s
Ġor der
as ure
it t
w here
ow ever
ou gh
Ġval ue
h i
Om ega
Ġth rough
text bf
o ot
) )
he n
ab ility
ps i
ic es
Ġdis c
Ġse e
Ġper form
u de
Ġs ur
in es
t on
b m
mb ol
ĠF ig
n er
ere d
form ation
^ *
pon d
Ġ :
Ġf l
l and
in clud
Ġh igh
ent ial
re nt
)$ ,
3 0
in ed
oc i
or ld
Ġex p
Ġs he
w ork
Ġeff ect
Ġpe ople
raph ics
2 2
Ġf il
Ġm in
at ic
Ġin clud
G amma
Ġ end
ad e
ang le
y p
Ġan al
sq rt
u ch
âĢ ĵ
sub section
ĠA s
Ġde c
al ity
Ġ ed
ĠA l
eqn array
Ġt r
Ġ čĊ
r on
ens ion
Ġ /
Ġs mall
mer ic
ra w
f ra
b old
eg raphics
includ egraphics
" ,
de f
Ġdes c
v are
is ion
Ġ Z
in ing
Ġp ublic
Ġb ack
Ġp r
k s
Ġdist rib
}^ {\
vare psilon
ith m
.. /
Ġ //
ca ption
Ġne ed
l og
ĠN ew
Ġres pect
ul ation
er n
Ġth ree
Ġc ent
e f
C on
res pond
Ġ< /
o ok
e c
ut h
^{ (
at t
ult i
ruct ure
Ġprob lem
Ġme asure
right arrow
as h
re at
Ġe le
ener gy
c m
Ġc all
Ġ| |
F or
t ab
Ġst r
5 0
en cy
Ġb u
ou n
Ġs ing
P ro
Ġcon dition
f ul
} =
Ġm ass
re n
re l
Ġob serv
Ġex pl
Ġat t
ag es
il ar
Ġe very
) =
Ġpro cess
Ġle ad
m l
Ġ `
um n
Ġas sum
ens ure
Ġsa id
ro ss
Ġwh ile
Ġa c
l ed
Ġo pt
ri pt
ĠĠ Ċ
et ric
Ġ$ {\
Ġse cond
et work
Ġf ound
19 8
Ġ\ ,
Ġrep resent
Ġs pace
: :
g or
em ph
Ġb el
Ġman y
Ġr ight
' ,
Ġli ke
ran gle
Ġcor respond
00 0
e y
m od
vel op
Ġwh at
ge q
o id
sy mbol
ur al
em ent
le t
m e
Ġbec ause
Ġn ow
gor ithm
an y
Ġlo cal
Ġest im
Ġyear s
ff ic
. ~\
n ame
v ed
& \
Ġd en
Ġm em
. }
Ġc ould
Ġcons ider
v ent
Ġex per
Ġp resent
t en
2 4
pro of
Ġag ain
var phi
as on
Ġj ust
Ġad d
um er
Ġs ince
on d
Th is
is hed
bold symbol
am es
Ġ @
Ġin cre
in al
m an
ch ool
Ġf ind
Ġn ame
y le
ut ions
Ġ very
ĠA meric
Ġ energy
fra k
Ġs cal
Ġs erv
Ġd i
Ġt ype
Ġl ong
b l
Ġcont in
pos ition
Ġgener al
if ied
Ġch ar
ol ution
Ġdo es
et s
Ġl im
f er
n on
h line
Ġbe ing
Ġc ount
olog y
Ġs er
over line
ess age
Ġpos s
or n
Ġl arge
ric t
o le
}, \
it ive
i er
u c
Ġsh ould
at eg
B ig
e e
E R
ant s
Ġt est
ch i
Ġev en
Ġ ve
vi ew
ce pt
n ess
2 3
i qu
t r
if t
c o
i k
eng th
) ^
ivers ity
le ar
Ġh ow
[ \
I t
re ad
p en
Ġval ues
if e
d iv
Ġc re
am pl
Ġre al
el s
ĉĉ ĉ
w n
f ore
ot t
ak ing
at her
}) .
ur ther
Ġ ra
Ġg roup
Ġsupp ort
S T
math frak
iss ion
Ġf am
Ġm ain
ro du
} }$
Ġst art
' '
Ġth ose
Ġint eg
ĠC on
ch n
l im
f l
if y
Ġm on
Ġs at
Ġst ructure
n et
Ġc al
Ġab ove
> </
ve c
vi ous
d d
n ces
orm al
am p
Ġ ident
an k
Ġ err
Ġv i
ers on
Ġ rad
ot her
Ġpro pert
s u
g er
Ġde velop
4 0
Ġfe ature
( "
Ġar t
Ġd uring
L et
Ġn etwork
ref ore
Ġdesc rib
o h
s f
Ġcomp ut
Ġb ased
Ġa p
Ġfollow s
Ġin formation
i red
ens ity
Ġh im
Ġs pect
im ension
Ġkn ow
over n
cite p
19 7
p re
m ed
as k
A s
ĠI nd
n abl
Ġw ay
: //
Ġcon tain
Ġ >
b y
ensure math
v en
l angle
Ġsh own
g ram
Ġim port
text it
it ial
Ġ ,
i or
Ġle t
v es
r id
ĠA n
Ġqu ant
s k
Ġm ag
Ġmodel s
ĠĠĠĠĠĠĠĠ Ġ
sp an
ĠI f
um ent
Ġe ar
( );
ld ots
Ġto p
an e
a j
s on
Ġob ject
b ers
ro p
Ġst at
Ġm ade
l ess
Ġp res
Ġde pend
r ation
or th
c he
i j
C om
a h
x im
Ġe lect
se e
Ġdefin ed
Ġsim ilar
os s
Ġ el
t rans
c or
Ġprov id
Ġbe fore
Ġex ample
Ġm ed
nabl a
c i
Ġt em
Ġle ar
P hi
} ;
ere st
Ġm y
w h
app a
> <
Ġpartic ular
de pend
t ing
Ġh and
1 00
u ally
or ph
t able
Ġcom pa
Ġal low
c er
6 0
L ambda
cl ude
s er
\ |
Ġm ulti
ĠĠĠĠĠĠĠĠĠĠĠĠĠĠĠĠ ĠĠĠĠĠĠĠĠĠĠĠĠĠĠĠĠ
g ht
w ay
er o
Ġm ake
a z
ĠL e
im al
b ra
c ur
ect ed
iv ed
is f
Ġdire ct
O N
Ġex pect
Ġchar act
Ġst and
iv es
} )$
\ %
u le
2 7
Ġse ction
f ace
Ġc a
C h
sub set
k appa
Ġor ig
. âĢĿ
20 20
I N
ht ml
Ġap pe
c ul
Ġre du
T o
Ġdistrib ution
b ack
Ġad dition
../ ../
ĠS h
Ġcur rent
ro l
re qu
Ġle vel
b e
Ġre m
ot imes
at ch
n ew
iv al
Ġs um
A R
** **
ific ation
Ġal gorithm
Ġp ower
al th
Ġre le
Ġl ast
g es
Ġterm s
Ġor g
yn am
.. .
A T
h ip
Ġs elf
e ction
Ġd ue
o od
Ġre st
Ġg u
201 8
Ġdet erm
Ġbe com
201 7
st r
p d
ĠC ol
pl it
2 8
Ġw rit
---- ----
Ġre ad
Ġp op
Ġcomm un
3 3
Ġb as
b it
ĠC l
ys is
Ġr un
Ġa v
d is
at ors
Ġs ize
Ġm uch
n o
. \
a ir
Ġ- -
g g
20 19
eta il
Ġdisc uss
Ġf our
b ox
Ġd om
ĠH owever
Ġg l
mb ox
Ġp red
o per
Ġshow s
ou se
re m
ĠE x
pl ic
al e
at ely
w ith
Ġinclud ing
center ing
ord ing
Ġsing le
4 5
ĠUn iversity
dot s
Ġkn own
d raw
Ġsat isf
}} {
S S
c irc
201 6
2 6
_ _
Ġin s
ĠA nd
Ġhe re
Ġh ref
Ġfil m
ĠThe n
Ġwith in
ou th
Ġparamet ers
ac es
Ġd id
}) ,
od y
Ġd er
a ction
er y
== ==
Ġm ax
\ [
b all
ter s
r um
col or
e ps
en se
Ġw orld
Ġint erest
Ġl ow
) :
com m
Ġm ust
th is
Ġle ft
m ber
pos ed
ot ential
le ction
cc ess
pl ay
S igma
non umber
Ġhe l
ar get
et ry
y m
Ġbe h
fere nces
ist ic
Ġch o
ĠĠĠĠ ĠĠ
Ġpoint s
Ġ* /
Ġstud y
3 2
i od
Ġre port
Ġ )
Ġl arg
is ed
in ation
Ġre ma
or g
and om
ure s
om en
s ource
Ġh ig
201 5
Ġte chn
at rix
Ġto t
Ġin itial
wid et
c it
Ġv is
is on
l ation
oc ation
Ġmat rix
Ġo pen
Ġpro f
Ġy our
Ġh old
ur y
ix ed
Ġg raph
w ide
Ġobtain ed
Ġme an
en e
Ġl ist
Ġdes ign
w w
Ġexper im
p or
tab ular
Ġin du
Ġl aw
2 9
Ġcontin u
Ġc he
fere nce
Ġ #
/ \
b le
Ġst ill
iv id
Ġc ar
widet ilde
Ġex ist
re g
Ġp ar
Ġt ake
Ġa round
Ġse qu
d ay
Ġst ates
Ġcomp on
Ġsol ution
Ġ` `
{ -
Ġd eg
ĠAmeric an
F ig
Ġg ra
201 4
e ad
Ġint rodu
s l
al se
ad d
Ġh ist
3 5
Ġcharact er
ak es
Ġposs ible
ion al
\ !
Ġt ri
20 21
ĠA r
ĠĠĠĠĠĠĠĠĠĠĠĠĠĠĠĠ ĠĠĠ
R E
I D
Ġd em
c ap
} -
od es
Ġo cc
con t
ma x
cl ass
R es
Ġappro xim
ĠL et
Ġfunction s
c ode
iv ity
Ġpa per
et y
em ber
Ġcall ed
Ġd ensity
) (
im um
i i
Ġpred ict
re en
vers ion
Ġ q
Ġpro gram
ĠUn ited
con st
depend ent
m essage
a ps
g round
ord s
Ġstr ong
Ġwith out
Ġcont rib
in a
ĠThe orem
Ġequ ation
Ġ vert
Ġass oci
Ġo wn
B y
it le
ar m
to p
Ġpre vious
Ġl ink
ĠT o
Ġbu ild
Ġal ong
ver al
Ġte am
a ult
Ġp otential
Ġm ark
Ġagain st
âĢ ľ
Ġtr ue
Ġcl os
Ġcorrespond ing
Ġgo od
ress ion
or ies
P s
Ġre f
tern al
Ġpos ition
Ġcomple x
Ġappro ach
ĠCom m
ent ion
at ter
Ġre ce
t d
Ġlim it
Ġimport ant
Ġline ar
9 0
Ġd at
ial ly
7 5
Ġfin al
ver se
Ġg overn
Ġ et
Ġrespect ively
} +
Ġp ass
) }\
Ġconst ant
sc ript
ri es
Ġsu per
. "
Ġd own
ĠO n
Ġb est
it al
\ {
pr ime
th m
Ġa uth
abl es
Ġtot al
in ess
Ġar g
Ġcon f
ĠR es
ur b
Ġp at
\ ]
ĠA d
rac k
ent al
8 0
201 3
oh n
se qu
ol l
( '
) =\
em ma
Ġinv est
pl oy
i ous
ampl es
Ġcom b
Ġ( $
, âĢĿ
an ces
Ġn ear
Ã ©
Ġparamet er
} ]
Ġt yp
Ġhel p
ĠP h
Ġperform ance
Ġfam ily
an c
N ame
o pt
i ence
Ġr ate
Ġanal ysis
m ult
A l
19 6
Ġpro of
I d
Ġa ver
s cal
re am
Ġc rit
ord er
u ro
ir d
ht t
} =\
t ype
Ġc ou
Ġm ap
Ġm ov
/ >
Ġthe ory
z eta
a im
Ġs chool
u se
Ġpro ject
Ġsign ific
iqu e
cl us
u x
Ġse veral
Ġ _
201 2
s elf
{ (
Ġch ild
Ġre se
Ġc our
oc us
ĠE ng
im port
us ic
st yle
Ġapp lic
og raph
ĠE q
Ġn ext
' t
Ġd etail
Ġ= >
ob al
pp er
Ġp erson
text width
t ime
ce ption
it her
ĠS he
Ġcal cul
ru ction
Re ferences
u nder
Ġreg ion
av ing
Ġph ot
ĠSe ction
Ġa ff
v ir
Ġpa ir
St ring
Ġvi ew
Ġ ide
; \
Ġser ies
Ġper iod
en ces
Ġl ater
0 5
b r
le y
aj or
om orph
Ġstand ard
) ^{
o ber
our ces
ill ion
Ġim pro
i ents
Ġlo ok
ĠI s
ub l
~ ~
al k
b s
Ġf urther
Ġc ap
4 8
Ġprodu ct
Ġerr or
l er
O R
Ġ& =
Ġr andom
Ġl ife
st and
T ype
r r
Ġs l
Ġf ram
Ġb ro
ĠP l
Ġv ar
}_ \
Ġph ase
201 0
Ġtra ining
Ġind ic
ro ll
A N
Ġin put
Ġp ur
Ġm om
201 1
Ġres pon
n al
}^ \
Ġev ent
Ġch ange
it er
L E
e v
Ġve ctor
Ġad v
Ġs pe
" />
C l
ĠW h
I f
Ġt imes
ĠA t
$ )
end ed
ex p
in ter
math sf
S E
ang u
Ġs ay
Ġr ange
ĠThe y
Ġch ang
per ature
3 6
Ġim age
Ġfin ite
olog ical
9 9
id d
} |
e k
ĠB y
cdot s
wide hat
lem ma
us iness
un e
riv ate
ic le
Ġph ys
Ġp ost
Ġa ction
0 1
Ġorg an
Ġsystem s
ĠSt ates
Ġc ases
em pt
Ġpl ace
w ays
e b
um an
Ġdif f
O n
ĠB ut
Ġmethod s
Ġe as
Ġl ower
Ġp ath
r ite
ffic ient
u ation
Ġcondition s
Ġl ess
Ġpro t
Ġl ay
re turn
Ġa ut
Ġsignific ant
Ġw ant
Ġcons id
}) \
Ġan other
Ġ\ {
Ġpl an
Ġn ode
du ct
Ġb and
Ġle ast
Ġest abl
t s
ĠM ar
n ode
ĠâĢ Ķ
) ]
Ġc are
i um
, -
Ġf ull
Ġm ot
ail able
en n
Ġhig her
pd f
Ġcont rol
Ġsy mm
r ist
as ing
Ġf ew
I I
er ing
Ġd ynam
}^{ (
Ġl ight
Ġm et
Ġb ook
3 4
f oot
Ġw id
D E
ch ie
Ġth ink
ward s
a red
3 1
Ġpos itive
Ġre cent
}} (
ĠFig ure
p aram
al ax
oc ial
Ġb o
Ġt arget
L ist
Ġdef ine
en c
Ġs om
A C
lect ed
Ġh y
Ġpro posed
A L
Ġsu ccess
ĠC ar
in c
Ġg row
6 4
A S
Ġc irc
Ġn eg
es c
7 0
o pe
q quad
x space
Ġb re
. ~
ĠB l
in ary
f ield
Ġo pp
Ġk e
Ġdescrib ed
Ġare a
Ġc lear
Ġwe ight
ore d
vir on
Ġu nt
3 8
# #
i us
Ġth us
ĠA ll
s mall
}\ \
is ter
ĠJ ohn
Ġt urn
V al
Ġconst ra
Ġprov ide
Ġex ists
Ġqu est
end s
Ġdi ag
' )
ian s
ge bra
5 5
Ġprob ability
Ġf requ
th s
Ġg e
& =
Ġl ength
imension al
o ff
Ġd el
Ġf ree
c up
ĠThe re
Ġl oss
Ġ$ (\
ĠC ent
ĠN ational
trans lation
Ps i
Ġn ormal
ĠM ay
200 9
Ġk ey
e le
^ +
Ġinv ol
Ġtem perature
ly ing
ri ption
Ġv ol
ĠThe se
U n
Ġan n
ple ment
Ġl og
Ġle g
Ġpol it
c os
Ġcons ist
net ic
ĠL emma
th ough
iv ing
t y
Ġpropert ies
a f
rou ps
Ġconsid ered
ivid ual
}\ ,
con om
Ġobserv ed
m p
Ġh al
wh ich
Ġcor re
h old
Ġrel ations
Ġre d
Ġbet ter
ut ure
a pe
b ased
m o
he ad
{ {\
A n
Ġs ource
cit et
ĠG e
Ġ& \
r is
Ġhe ad
Ġaver age
Ġis s
g o
Ġab s
Ġz ero
w ise
Ġdat as
in ally
200 8
g l
Ġc ost
Ġcon n
g ed
Ġh om
Ġme ans
Ġse par
Ġlear ning
E N
r and
as ter
Ġsh ort
Ġs it
Ġa chie
c hes
3 7
Ġev al
ur ation
Ġin clude
pro p
s ize
on al
Ġfeature s
ĠS u
st it
Ġc ross
Ġs k
Ġin dependent
Ġg ame
Ġ !
Ġbeh av
ĉ Ċ
Ġav ailable
ĠF ran
ke y
ab ly
ta ck
ol umn
ul ations
4 4
Ġfact or
er tain
an u
3 9
Ġdefin ition
s ing
Ġequ ival
A r
Ġs em
ic y
scal e
Ġcl ust
Ġf ocus
ĠY ork
ord in
Ġcomp ar
ĠC an
Ġm ajor
sc r
Ġbel ow
Ġassoci ated
Ġn ull
] $
val ue
} :
app ro
id ence
I C
Ġgovern ment
de fin
Ġd on
âĢ Ķ
Ġd ay
Ġunt il
ul es
Ġl ines
Ġse en
r ary
et er
oper ator
A M
.. ..
Ġst ring
p oint
ĠS ince
Ġf low
Ġf und
Ġsequ ence
Ġen c
Ġs ide
os p
ĠS c
Ġbl ock
| ^
ĠO r
Ġmom ent
ac he
l ing
at ural
Ġassum e
i am
d ata
f o
Ġrequ ire
Ġc y
Ġoff ic
] ,
Ġe ither
us h
ent ly
I nt
Ġcol l
Ġorig inal
ĠĠĠĠĠĠĠĠ ĠĠĠĠĠ
Ġacc ount
4 9
Ġg alax
Ġf ixed
Ġg reat
} +\
ut es
ian ce
ib ility
200 7
Ġquant um
ri or
ĠW orld
Ġf alse
Ġsc he
m id
Ġim pl
m ost
a i
Ġind ividual
ul a
is ing
are nt
ig en
ĠS y
h space
ĠC ount
ĠY ou
ul y
sk ip
ut ed
ĠE uro
angu age
er ial
Ġl oc
Ġst ar
Ġn umer
Ġcou pl
n ow
b u
n eq
ma p
ĠS o
Ġele ment
H e
Ġb i
v ing
s in
read y
Ġh ome
Ġrese arch
Ġal ways
Ġsim ple
Ġexpect ed
}} {\
I T
m s
ĠĠĠĠ Ċ
ĠW ar
st ar
Ġc over
ĠB e
if f
Ġg ive
s w
ĠU S
s ide
Ġdist ance
Ġp ract
r im
p ose
Ġse ason
foot not
200 6
ind ent
Ġt ext
C O
f unction
Ġpropert y
c hed
ak en
f ill
Ġam ong
Ġear ly
viron ment
ĠN o
Ġcomm on
" .
pa ct
Ġden ote
umer ate
Ġcomple t
Ġanal y
ra p
} -\
Ġex act
ĠM ore
' $
) -
Ġli k
math scr
Ġst ep
Ġs ample
Ġoper ator
Ġ= =
Ġel se
Ġrec ord
ra ction
in o
ch an
9 5
equ iv
6 5
the orem
Ġscal e
op y
ĠC o
Ġconst ruct
ver g
"> <
4 7
Ġspec ial
Ġem ploy
Ġst re
O b
a ut
Ġf oot
id es
Ġb usiness
Ġl abel
ĠP ol
w are
Ġtrans ition
il ities
ĠT e
il it
ann el
b um
en umerate
19 5
Ġf ac
Ġen g
Ġauth or
Ġof ten
Ġele ments
Ġocc ur
Ġsur face
Ġvari ous
ari ant
item ize
ĠS p
) }{
Ġw ar
Ġsu gg
Ġsugg est
0 8
uss ian
Ġbound ary
Ġe mb
( {\
operator name
0 7
Ġm ight
Ġr at
m at
ĠA ust
Ġcl aim
Ġbl ack
Ġbel ie
ot es
mult ic
Ġh ard
il es
Ġmem bers
Ġplay ers
Ġp rivate
] \
Ġo ld
Ġm ove
v space
ĠSt ate
li ed
oc ument
d t
Ġv oid
Ġ- \
Ġsp in
ĠA pp
Ġv ia
Ġlarg er
Ġim plement
ĠTh us
ĠâĢ ĺ
ĠM an
Ġc ell
Ġ& &
4 6
rac y
il t
w ed
Ġlink s
Ġh owever
Ġm usic
it or
ress ed
ĠM in
ĠEuro pe
igh b
b b
el oc
iv en
multic olumn
cal l
Ġab le
Ġreg ular
under line
Ġ version
Ġro le
S et
m ary
Ġrel ated
get her
Ġcon text
Ġto gether
Ġre ason
at s
Ġac ross
Ġopt im
iz ing
c ell
0 6
Ġal ready
ĠC or
Ġne cess
A P
Ġcor rel
Ġequ ations
Ġn am
Ġgo ing
em s
Ġhe alth
ou ght
Ġm etric
Ġinvest ig
ĠS chool
S h
z e
Ġdom ain
Ġw on
Ġman ag
Ġ es
Ġed ge
Ġin fl
ĠA ug
Ġl and
Ġcount ry
Ġ ill
~ $
Ġwhe ther
Ġbecom e
Ġacc ess
Ġbec ame
Ġf uture
Ġappe ar
ĠA f
ĠS outh
c le
$ }
I nd
um e
Ġde ath
pl ace
ot ed
Ġ id
M od
Ġdeg ree
anu ary
Ġc ertain
ott om
o ch
Ġback ground
Ġhist ory
Ġcomp any
Ġpro m
i ver
ens or
0 2
Ġconstra int
Ġp ubl
Ġgiv es
t ic
st ring
Ġrequ ired
Ġimpl ies
ult s
Ġ\ |
Ġche ck
ener al
) }$
Ġv eloc
ed d
le ge
ĠB rit
Ġde v
om ial
}} _
ĠC al
Ġacc ording
I S
ne y
m ark
Ġh uman
Ġthe refore
Ġf ore
Ġde p
l or
Ġgl obal
pl us
b o
ĠO ct
Ġcl ose
D e
ĠA ss
Ġh app
Ġun it
ur ch
Ġt aken
d ag
ct ors
N N
Ġt itle
Ġb en
Ġw omen
ri ed
Ġout put
Ġ: =
ho od
no indent
pa ge
Ġfield s
0 4
Ġg roups
if orm
D ata
Ġ %
Ġhold s
text tt
p ly
itt ed
m ore
Ġunder stand
om an
og n
av a
Ġco e
ag ue
Â ł
Ġev ents
6 6
Ġform er
itt le
\ }$
ĠM arch
200 5
ĠA rt
Ġf ail
Ġsol utions
Ġpop ulation
ew ork
omorph ism
Ġm illion
Ġt re
Ġe p
Ġpro ve
Ġim ages
Ġto o
Ġc ity
on y
d om
itt ing
pr il
] [
k et
p x
Ġh aving
Ġstr ateg
Ġp o
( -
p ol
0 3
Ġset s
Ġb egin
ab or
ĠCh rist
cre t
Ġc ode
ĠW hen
**** ****
ut il
\ ,\
our s
ĠO ne
Ġar ch
Ġp ut
r ant
Ġprovid ed
med i
d imensional
pt ember
Ġcon c
Ġf ar
Ġl a
Ġat tack
Ġre fer
ra g
Ġg round
Ġind ex
Ġh tt
Ġre t
Ġcan not
S e
Ġchild ren
Ġwork s
C T
0 9
pp ed
Ġp an
Ġpr im
ĠP art
ĠW ith
Ġeff ic
Ġcon fig
ĠĠĠĠĠĠĠĠĠĠĠĠĠĠĠĠ ĠĠĠĠĠĠĠ
Ġd ou
Ġaddition al
erm an
ind ow
s plit
Ġf ig
end ing
Ġgener ated
Ġth ird
ac hes
8 5
ict ion
d s
V ert
Ġnot e
ĠJ anuary
us ed
d own
Ġf ive
ac ed
Ġwh ose
Ġmulti ple
20 00
o ad
on ic
g roup
re ed
le ment
Ġw in
Ġc ateg
ce mber
g en
Ġal bum
ide o
Ġeffect ive
Ġcontain s
Ġcompa red
ĠG u
ĠR eg
Ġbas is
Ġs ong
A B
Ġen ough
Ġs ocial
ac y
r ont
Ġtrans form
appro x
am il
g s
ro id
W ith
ad a
ove mber
text rm
Ġcommun ity
Ġwrit ten
ĠCount y
}} }
ed er
ĠJ une
Ġdevelop ment
Ġeffect s
S ince
Ġcomp os
n orm
Ġin f
Ġinst ance
Ġserv ice
" )
Ġequ al
Ġspec ific
c ing
Ġrepresent ation
Ġmag netic
C ol
Ġestim ate
Ġcompon ent
Ġs w
Ġe conom
Ġn atural
Ġal gebra
{ }
ru le
Ġrel ation
Ġlear n
ast ic
Ġm ar
Ġdiffere nce
Ġst ars
t ra
ĠP ar
u k
Ġwe ak
ce ed
line ar
t est
ĠC ity
k n
Ġne ver
l ight
Ġpresent ed
E D
n b
ĠJ uly
ĠM e
Ġn um
4 2
st ate
port s
f rom
Ġco ordin
ĠThe refore
at ively
ĠAug ust
] .
b ut
m y
ĠA pril
ĠSe ptember
ograph y
Ġexpl ain
Ġcomp et
ĠM ed
al le
d ate
Ġmat ch
Ġed uc
( $
) +
mo oth
li ke
{ $
Ġpre c
Ġme chan
Ġs qu
P i
E S
Ġne ighb
ĠOct ober
Ġthe orem
C C
ict ure
Ġus er
Ġs ent
ite ct
re st
subset eq
m ar
r ated
Ġre ally
ind ex
Ġy ield
l ist
h ib
9 7
200 4
led ge
Ġimpro ve
al t
& &
Ġst atic
C ont
ĠN orth
i res
com e
Ġb ase
The n
Ġmat ter
-------- --------
Val ue
Ġc am
Ġmat erial
Ġd imension
Ġcompon ents
Ġt ry
e ff
ĠS ch
ul ated
a ctions
Ġre view
Ġval id
n a
iz es
ĠTh at
Ġcom e
Ġd one
Ġw ave
al es
ĠDe cember
Ġp ort
) ,\
ĠR ep
e ed
L L
4 3
ĠP res
ic ult
l ish
il i
ĠT able
h am
ĠC O
Ġspect rum
r ast
^ -
Ex ternal
The ta
Ġrest rict
Ġp rior
Ġe igen
Ġ _{
o cal
le x
ĠN ovember
, "
ĠA fter
âĢ ¦
Ġro t
clus ion
Ġ$\ {
Ġa ge
Ġsatisf y
v ision
min us
9 8
Ġev olution
Ġt w
th at
Ġr ather
Ġm aking
ĠW ill
Ġincre ase
< \
st er
Ġen vironment
Ġvari ables
i ew
ĠIn tern
Ġw ater
ar ies
c her
l ocation
Ġcol or
r c
Ġdire ction
com p
line width
Ġmax imum
ĠE n
verg ence
Ġproblem s
P l
ĠO b
Ġhal f
Ġj o
Ġveloc ity
Ġquest ion
on es
b ound
] ;
Ġal most
Ġb ig
6 7
}^{ -
um p
4 1
Ġg as
Ġs ix
ĠB ar
big g
ear ch
yn omial
Ġcomple te
S u
Ġeval u
am ent
ra ft
Ġwid th
R O
it ude
ĠD ep
) |
Ġan t
ĠAust ral
se mb
Ġstud ents
I M
il le
Ġch all
Ġsign al
F rom
a int
B u
un g
p ath
ist ics
ard s
Ġt ask
ort un
Ġw rite
Ġcent ral
Ġp ress
Ġapp lied
P S
Ġdem on
Ġcol umn
ww w
ne ction
ĠM c
footnot e
k en
Ġs ays
" );
p ng
ust om
Ġam ount
Ġex ec
Ġb eg
ĠA ct
ĠH ar
Ġin equ
an ta
Ġcontinu ous
ĠB o
Ġc oun
Ġyou ng
L e
p ers
Ġsh all
l in
Ġst ory
av es
Ġinclud ed
it ch
dis play
Ġto ok
Ġb ir
Ġprovid es
mod el
Ġ\ ;
Ġc ut
Ġp ay
ĠP r
Ġwork ing
Ġu pper
pro d
ĠF eb
The re
Ġfoot ball
Ġ$ |
f ile
Ġg rad
un c
Ġdatas et
Ġs ens
ta int
Ġmem ber
Ġsc en
Ġsub ject
Ġd iv
sub figure
htt ps
M S
l ink
ĠG a
ĠAf ric
Ġcont ent
Ġun ique
} '
==== ====
Ġclos ed
Ġt reat
A t
ac c
}} _{
erv ice
re w
Ġim pact
c ast
n ormal
} /
Ġchang es
}} ,
^{ -\
Ġ( -
Ġ( $\
ĠL i
set minus
Ġrat io
ish ing
ĠN ote
a ff
ic it
6 8
f lo
200 3
in st
Ġd ays
Ġinst ead
Ġreport ed
Ġfl u
Ġrece ived
Ġdiff icult
du c
at ives
Ġne ut
Ġ ir
Ġn ational
pp ing
ic ro
Ġconst ruction
f act
Ġge om
Ġk ind
Ġdirect ly
Ġincre asing
Ġit er
ru ary
ĠS im
b ody
Ġset ting
C D
ĠI I
Ġde cre
Ġth ough
an a
m it
Ġt aking
lo ad
I R
s el
Ġm en
o plus
row n
is k
Ġp ast
Ġl iter
Ġrespon se
ess ion
Ġadd ress
Ġrequ est
Ġact iv
Ġ/ **
Ġg en
P h
r ate
Ġun cer
g ress
Ġpol icy
and id
Ġvi ol
u racy
rr or
Ġsmall er
Ġw ords
7 7
kn own
Ġequival ent
Ġphys ical
Ġprodu ction
Ġfrequ ency
Ġno ise
comm and
idd le
\ }
Ġh or
re t
ĠĠĠ Ċ
Ġr ank
k ing
ar ily
pt ions
htt p
Ġrele ased
N ote
nb sp
Ġindu st
ĠH is
p an
T est
9 6
Ġplay ed
ul ly
Ġc ult
Ġv ir
Ġm akes
8 8
Ġbecom es
// //
ign ed
Ġfl ux
Ġent ire
d ist
Ġdet ect
ĠE d
Ġme et
Ġinter n
align ed
20 22
Ġrel ative
Ġdetail s
Ġcho ice
l ong
ta ct
ĠA g
id ed
_ +
Ġn uc
Ġcre ate
Ġse arch
Ġa way
Ġ$ [
Ġ ver
A D
Ġbuild ing
a e
c il
ap an
Ġobject s
el ine
wed ge
Ġbehav ior
A pp
ĠW est
Ġf ile
Ġ$ -
Ġobserv ations
s up
Ġke ep
alle l
Ġwe ek
ad em
Ġbre ak
A d
che ck
ou d
v olution
a ul
P E
Ġother s
Ex ception
eth ing
Ġlead ing
al y
Ġpol ynomial
l n
er a
ric es
A nd
L O
ure d
Ġsu fficient
Ġs ources
ab s
ĠK ing
Ġf it
Ġst yle
b ur
sh ift
u ck
l ength
ell ing
Ġpro ced
E E
) );
A A
Ġintrodu ced
Ġh ost
W h
our nal
os en
Ġl ittle
Ġcrit ical
Ġinfl u
Ġbound ed
ĠQ u
Ġl anguage
Ġperform ed
A ll
_ *
Ġstud ies
le vel
Ġder iv
g ing
Ġdemon str
Ġreg ard
n ers
ĠF irst
um ents
S I
* {
Ġro b
amil ton
a it
Ġ Ð
Ġhe ld
Q u
Ġon ce
$ _
if old
Ġbro ad
Ġcorre ct
m ing
min ist
in ated
Ġpro p
Ġth ings
b and
dag ger
Ġhe nce
t ical
m on
Ġcour se
N ew
l a
Ġpubl ished
one y
ra in
Ġdeterm ined
Ġmark et
Ġad j
au ge
au ght
Ġun iform
lim its
ĠF rom
ĠFeb ruary
Ġapp ly
ist ory
th ing
Ġd raw
e in
v is
ight s
Ġs ense
oci ety
Ġestabl ished
Ġserv ices
Ġnum bers
Ġm er
x y
ve y
) {
oll ary
ĠBrit ish
ove red
enc ies
Ġallow s
b t
f e
att ice
Ġa ir
_{ (
Ġlay er
200 2
Ġreg ions
" ;
ens ions
Ġh ouse
B C
Ġag re
c ript
ur l
j ection
Ġrec ogn
Ġcare er
Ġpolit ical
b re
Ġconn ected
col on
Ġelect ron
Ġinteg ral
Ġgalax ies
err or
om s
E T
Ġcon duct
Ġs mooth
St ate
Ġloc ated
ĠPro position
ĠĠĠĠĠĠĠĠ ĠĠ
ĠM od
Ġc ame
ot a
Ġcur ve
Ġpat tern
bl ack
Ġbeg an
it z
defin ition
ond on
c an
Ob ject
ĠS ci
av y
Ġf ri
im ate
Ġtyp es
Ġ ess
ĠL a
Ġp erm
Ġcent er
r s
ell ar
Ġl ot
at ory
ĠSt ring
Ġ row
Ġ\ (
b ul
ol ic
Ġch annel
an ced
ic ation
Ġem ission
Ġlik ely
ch ange
Ġvert ex
Ġcompa ct
ilit ary
Ġopt imal
us ing
200 1
Ġinter action
G et
Ġn odes
ĠO ur
Ġin fin
s pec
pon ent
Ġsh ift
Ġoper ators
Ġemb edd
ack age
Ġbu ilt
ari o
v ant
}} (\
Ġfram ework
ire ct
Ġ| \
Ġdiag ram
Cl ass
Ġper cent
qu ot
5 7
Ġa x
Ġm ention
Ġpartic ip
ĠPres ident
Ġuncer taint
ĠE l
Ġan g
Ġrespon s
O r
ber t
Ġp arent
Ġt akes
ing ton
d i
ĉĉĉĉ ĉ
Ġst ation
ans ion
Ġg ames
in put
n av
S ee
Ġarch itect
Ġsub set
ĠM on
Ġso ft
Ġn ov
cc ording
Ġdevelop ed
Ġm iss
per p
Ġj ob
Ġs amples
ĠD av
Ġvari able
Ġnew s
Ġb ody
Ġcre ated
rop y
da pt
Ġdiscuss ed
ff er
Ġp ers
_{ {\
amp ions
Ġsymm etry
Ġexpl icit
Ġa rm
cur ity
Ġsom ething
Ġill ust
el i
Ġset t
ot ic
Ġc andid
is es
Ġform ula
Ġm aps
Ġs ite
as hed
Ġexperim ents
N et
ur s
p c
og le
ĠP e
8 7
pre t
us ion
Ġapproxim ation
d o
F F
Ð ¾
t urb
Ġ// /
end er
L A
Ġg ot
Ġt able
ĠEng lish
5 00
ĠI nt
rib ute
f ord
Ġneg ative
Ġpe ak
( ).
o ps
Ġdynam ics
Ġapplic ation
Ġsatisf ies
Ġt rack
B l
y ear
. )
ag er
Ġnecess ary
Ġm ult
Ġsche me
ran ch
Ġ }\
P T
pert y
d et
Ġca pt
ĠC our
Ġar bit
= {
N ot
dition al
ma in
Ġtrans fer
i ps
Ġben ef
am a
b ook
: \
| -
ĠS er
li er
h a
m ulti
Ġits elf
p ublic
Ġacc uracy
E n
)\ ,
h and
ĠD ist
M A
cre te
Ġ! =
\ '
ĠG l
Ġob ser
Ġresult ing
text sc
Ġprodu ced
ĠP er
Ġwho le
ri er
ac ity
he l
for all
ma g
Ġu nd
Ġb ar
ĠH ouse
ren ch
ĠN e
W hen
Ġsim ply
O ne
Ġclass ical
pec ially
Ġv ideo
Ġnetwork s
) }(
j s
ĠAmeric a
Ġcomp an
Ġd est
Ġ Â
ĠJ apan
5 6
Ġgra v
i et
Ġfor ce
ĠA rm
ĠH ere
O T
ĠCol lege
Ġsim ulations
Ġsp at
end ix
es e
}$ -
riv ial
y l
Ġnam ed
{ $\
}) ;
rid ge
as ks
Ġstart ed
r atic
Ġs eg
) ^{\
empt y
ĠL ondon
Ġac cept
Ġinter val
ĠIntern ational
Ġknow ledge
S C
ĠA b
in ci
sub subsection
o res
5 8
Ġde ep
Ġgo al
V iew
in os
Ġadd ed
Ġas k
S P
ill ed
Ġneed ed
Ġper turb
Ġto wn
Ġpartic les
ĠH ence
B ut
Ġexp ression
ic les
"> </
ic on
od ing
ĠM ark
Ġo p
_{ -
ar ing
' \
Ġinclud es
E qu
F T
Ġinequ ality
iv il
Ġd ocument
em ents
Ġnumer ical
ens ive
Ġde al
N ow
Ġcompar ison
= (
Ġres id
Ġmin im
ag ed
Ġpartic le
Ġrad ius
Ġp ref
Ġin c
Ġass ert
ĠĠĠĠĠĠĠĠ ĠĠĠĠ
ber g
ĠCh ar
Ġv an
ĠA m
Ġre pl
Ġexper ience
d eg
Ġte le
Ġclass es
Ġide a
Ġpol ar
and s
Ġiss ue
' _
um b
is c
ffic ients
u ed
st o
Ġwh y
E rror
Ġmot ion
Ġmod e
Ġstud ied
Ġal ign
Ġspect ral
it es
) _{
ill s
M L
Ġpan el
Ġatt empt
Ġmag n
Ġdec ision
Ġpart s
Ġ ensure
c ases
E q
at us
T ime
Ġcontrib ution
Ġstre ng
Ġmeasure d
Ġsuccess ful
ĠT r
Ġcoupl ing
ĠC oun
he ight
s ol
Ġact ually
art ment
) /
Ġintern ational
Ġmed ia
. </
ĠH amilton
ri e
Ġcomp ute
ell ow
st ack
ay er
Ġder ived
Ġneed s
ĠP ark
Ġvert ices
U S
os ed
Ġcon sequ
ĠH er
Ġw ent
is ation
Ġmin imum
` `
Ġthe rm
() );
Ġus es
en ed
Ġar ray
G e
M C
Ġare as
ĠB ro
Ġf un
K ey
Ġf all
Ġrema ins
res hold
Ġprof ess
Ġl at
T r
sum mary
Ġg auge
l s
iz ations
Ġ+ \
Ġth ought
S im
Ġn orm
ĠA ir
or ing
Ġlead s
ĠT rans
f low
! --
Ġmechan ism
Ġiss ues
Ġspec ies
qu e
ĠSt ud
ut ive
Ġl ed
Ġes pecially
9 3
w ar
Ġmoment um
Ġrem ov
ĠA ng
ĠMore over
g ra
Ġre ference
Ġassum ption
Ġch ain
O S
ĠH igh
Ġoffic ial
Ġeff ort
i ation
ĠWill iam
o on
r un
it te
ĠWh ile
H ere
\! \!
ie f
is ions
app ing
Ġinterest ing
H E
Ġcent ury
Ġad opt
Ġ round
urther more
Ġg re
Ġa dapt
ag ing
ĠV al
} %
Ġu pon
Ġch osen
Ġal tern
Ġcorrespond s
7 8
U T
Ġh yp
res ents
I m
,\ ,
Ġpop ular
O ur
I s
I G
c ial
Ġy et
pm atrix
if orn
Ġspe ed
9 2
)\ \
Ġt ax
Ġch arge
Ġredu ced
Ġsupport ed
Ġexp ress
tr ue
ĠSy stem
id s
ve x
ol s
lo cal
Ġfe el
Ġclust er
Ġright s
anc ial
Ġb ring
Ġre ach
M an
~ $\
Ġmeasure ments
ri ate
ĠT ra
ĠC ont
Ġt ree
ac hed
Ġcho ose
Ġpres ence
ous ly
Ġfilm s
= -
Ġfig ure
ĠM y
Ġg ain
P R
O ver
ĠD o
ir m
es tern
Ġr ule
et ic
eder al
U R
Ġdet ection
^{ +
. _
Ġc os
Ð °
at al
Ġl ate
Ġon line
ĠC he
Ġev idence
ĠRe f
S y
Ġconstraint s
Ġw ord
rem ark
Ġst age
Ġsim pl
en ing
}^ *
in ct
iforn ia
Ġim medi
stit ute
ran ge
Ġdec ay
d im
Ġex amples
Ġstructure s
ec ause
Ġam plit
Ġrequ ires
Ð µ
Ġto day
Ġconsist ent
F orm
b orn
Ġf raction
h om
Ġcoe fficients
" :
\ _
p ite
ĠCom p
Ġse lected
Ġsim ulation
}} ^
ĠCh ina
ĠLe ague
ran g
Ġeng ine
Ġhy per
col umn
Ġgrow th
pp ose
M ore
Ġcont ract
H owever
Ġl attice
ĠCent er
$ ).
../../ ../../
ĠEurope an
ĠD i
ym pt
n ov
Ġhist or
Ġdescrib e
Ġor d
ĠM ich
Ġqu ality
ify ing
ĠInd ia
Ġl ive
Ġfor ward
Ã ¡
ĠC ons
ing u
Ġarg ument
Ġed ges
Ġcon cept
Ġpl ane
oun ced
sim eq
7 6
Ġcount ries
Ġlarg est
pon se
bul let
Ġch arg
Ġinter pret
ern el
Ġor bit
00 00
Ġdistrib utions
Ġm ix
Ġden otes
n s
199 9
) ^{-
Ġf lo
Ġde com
9 4
| |
Ġcom es
in y
D F
Ġc r
) }{\
Ġserv ed
Ġb orn
Fig ure
Ġact ive
Ġn ature
Ġexperim ent
le g
Ġexp ansion
I ON
att le
Ġdou ble
Ġstrateg y
z ero
ĠCour t
ĠL aw
Ġad m
Ġs ampl
Ġprocess es
Ġcalcul ated
ch o
in v
Ġconc ern
u ra
Ġf ully
8 6
P C
Ġde cl
Ġalgorithm s
5 1
Ġfact ors
Ġplay er
Ġm ach
iqu es
Ġl atter
5 2
Ġproced ure
ĠN ot
Ġrep resents
Ġstat ement
Ġim p
Ġal though
R equ
ition s
Ġout side
Ġd im
\| _{
T R
g raph
Ġestim ated
ĠAss oci
Ġdeterm ine
ag raph
Ġb ox
} )$.
ĠDep artment
rodu ction
m c
Ġrele vant
D ef
5 4
Ġav oid
Ġto wards
Ġlim ited
$ (
) {\
Ġeduc ation
Ġa im
Ġpro per
The orem
Ġst eps
v an
Ġex hib
Ġatt ention
i ency
z z
)$ -
A meric
=" +
Ġlevel s
og ene
it ing
sel ves
Ġsh ape
Ġf ace
ĠG overn
Ġvol ume
Ġl ocation
Ġd ark
\ "
he st
Ġapplic ations
Ġsp aces
S O
k y
Ġres olution
Ġrecent ly
bl ock
p aramet
F ile
Ġd ual
Ġcour t
T rans
Ġlong er
Ġoper ation
n eg
Ġexperim ental
5 3
ĠCal ifornia
at form
map sto
Ġqu as
Ġdepend s
Ġinvol ved
$ $\
ole an
und le
A fter
Ġd ed
ĠEng land
Ġess ential
Ġext ended
Ġe mer
o ph
$ ^{-
Ġr ates
Ġeas ily
Ġhtt ps
sh ip
Ġa ud
us es
us er
Ġbl ue
om b
if ier
Ġsu ff
Ġ vers
9 1
. $
Ġt ensor
Ġre ve
Ġchall eng
m atrix
Ġwh ite
Ġcorrel ation
ou l
Ġcl ub
( (
Ġagre ement
( ),
Ġm arg
Ġappro aches
ĠRep ublic
T ext
Ġpres ident
d esc
Ġident ity
Ġuse ful
pl es
Ġcol lection
Ġcomput ed
Ġexact ly
Ġon es
Ġcur ves
Ġcont rast
ad es
Ġb it
b in
Ġan sw
ĠV ol
Ġf av
Ġachie ve
il ib
Ġmon ths
Ġscal ar
uth or
Ġpr inci
val ues
con fig
}} ^{
Ġ= \
Ġus ually
k er
Ġsy mbol
Ġoper ations
at ur
Ġaut om
de red
Ġ ?
Ġincre ases
Ġeas y
E vent
ĠS an
' );
Ġhe ight
or ge
199 8
m es
A G
Ġh ol
Ġqu ite
in f
.~ (\
w ord
N o
c ase
Ġcateg ory
as ons
ĠE ar
Ġsc atter
i ers
Ġf ront
Ġintrodu ce
ĠF rench
ri ef
d ro
F irst
Ġd ri
Ġsol id
ĠCoun cil
pa ign
bs ite
ĠGa ussian
el er
Ġ- ->
a res
Ġcontin ue
m d
Ġr isk
Ġnov el
Ġallow ed
Ġclass ification
d x
T able
Ġover all
Ġcont roll
it able
hi ps
Ġsignificant ly
r at
Ġst ellar
Ġus ers
6 3
O f
t ik
val id
Ġe ver
g u
ip al
f il
Ġf ather
ĠD em
itte e
Ġbel ong
Ġrad io
Ġs ound
ab ilities
Ġorig in
Ġan gle
ĠA c
pro position
Ġcons ists
Ġfram e
F ield
i os
Ġopp ortun
' ]
ĠN ow
7 2
con s
Ġwork ed
L S
Ġdesc ription
Th us
e es
ob ject
min i
Ġestim ates
Ġc ustom
[ '
ĠH ol
Ġj ud
Ġcon vergence
Ġspat ial
pro b
Ġse lect
h y
v ol
f ect
Ġd ied
Ġpress ure
f ree
Ġdef ault
use um
c ref
Ġform ation
ĠE ast
ĠInd ian
ib rary
Ġart icle
Ġsh are
Ġcompan ies
Ġspect ra
Ġestabl ish
T E
ex ample
Ġthrough out
Ġcon nection
row s
Ġappro p
Ġexist ence
Ġm ilitary
hes is
ar a
Ġsit uation
od ot
ĠP o
' :
S U
Ġdis play
Ġmem ory
Ġm oney
8 9
Mod el
Ġd ate
her n
ac ing
ash ington
Ġs low
Ġins ide
ĠB u
ul s
C H
ap ter
Ġl ove
Ġinv ariant
Ġform s
ist ry
I F
\ {\
tik z
Ġpract ice
A dd
Ġex cept
Ġst ra
ric e
ic o
l t
al g
ĠRes earch
Ġth reshold
Ġpair s
Ġpart y
ĠR et
ĠG od
Ġtrans port
m ma
ĠG eneral
Ġcurrent ly
Ġ/ >
S ub
ar p
Ġim m
pp ort
P ath
Ġd ig
Ġt alk
Ġsymm etric
Ġmat rices
$ ;
omorph ic
ĠW hat
b a
Ġ ~
5 9
8 4
Ġgra du
Ġs on
re es
M M
b ase
Ġqu ad
res ult
Ġgener ally
et imes
O ut
il s
od er
t ual
Ġprof ile
Ġr ules
c s
} &
Ġse lection
ub e
Ġarbit rary
Ġqu al
Ġcon tact
Ġm is
ilib ri
Ġc ore
Ġindust ry
Ġv ill
Ġsl ight
Ġd riv
pl ate
ĠG erman
if ically
n es
id a
] (
ĠBl ack
8 2
r d
a el
Ġobser ve
Ġ );
ag s
cl es
Ġcirc le
Ġdist rict
Ġm essage
p icture
IN G
Ġexist ing
ĠD es
Ġliter ature
) },
t ri
Ġdepend ence
Ġauth ors
ĠP al
Ġconfig uration
Ġcomput ation
Americ an
ar ant
Ġ&= &
Ġhor iz
' (
+ +
| _{
n ext
Ġh on
Ġext ract
Ġappe ars
Ġrun ning
ef ore
in ant
Ġrelations hip
Ġstart ing
Ġsing ular
N R
le ase
Ġst ri
ant ic
Ġconn ect
ĠG o
Ġperson al
ma ge
B e
Ġlead ers
idd en
Ġthe ore
Ġmod es
Ġp age
r ig
new command
ĠU K
c ore
t em
Ġerr ors
Ġp ie
S M
A tt
ĠM or
Ð ¸
6 2
iz er
ra b
7 3
Ġyield s
Ġto ld
Ġconst it
Ġext ension
Ġdid n
Ġcons erv
}{ |
ac her
Ġprop ag
_ -
Ġad minist
now led
mini page
ĠCh urch
Ġdis k
Ġas ympt
Ġexp and
199 0
S p
Ġs old
Ġs us
) +\
Ġac qu
Ġdesign ed
Ġm id
re et
Ġprevious ly
ram e
Ġsqu are
Ġcoun ter
ĠĠĠĠĠĠĠĠĠĠĠĠĠĠĠĠ ĠĠĠĠĠĠĠĠĠĠĠ
Ġt ell
u ations
Ġsub sequ
r ide
pro t
s pect
Ġfollow ed
ol ar
Ġb all
8 3
Ġcon sum
ĠSci ence
Ġproduct s
ĠP aul
Ġ$ $
am ental
C E
Ġrepresent ed
Ġmeasure s
Ġrele ase
) _
ĠS et
d en
cent ury
Ġm ole
Ġcompa re
Ġeffic ient
Ġse curity
Ġse ems
Ġmean ing
m ission
ĠS en
Ġs ure
Ġear lier
L P
for ce
o e
ĠB er
Ġprodu ce
Ġmain tain
cont ent
$ ~
Ġre const
6 1
S o
}{ (
p g
y mm
com ple
n ed
pr int
Ġdo ing
ut ing
Ġst able
Ġun its
w ell
ĠAustral ia
Ġbe am
.... ....
} }$,
Ġprim ary
/ **
an ks
k a
pon ential
land s
t itle
ĠS w
Ġbas ic
bl ue
Ġaff ect
st ant
) -\
ĠDav id
Ġ$ {
Ġinter actions
ro y
199 7
u el
' }
g t
E nd
R eg
Ġcomm and
Ġacc om
199 6
ĠHe alth
Ġex am
B ar
Ġmov ed
Ġth ing
Ġgener ate
Ġredu ce
Ġw indow
ames pace
Ġident ified
reed om
Ġve ctors
vent ion
pt y
Ind ex
/ *
P e
b ottom
H z
ro te
re c
Ġcol lect
Ġdiscuss ion
Ġse em
con g
pro du
Ġoptim ization
ch ar
v ille
[ ]
Ġf ight
ĠB ay
Ġmeasure ment
G L
oc ol
} )$,
Ġdire ctor
Ġ ri
over y
Ġinter nal
Ġt asks
Ġa ward
ĠS m
Ġl ost
Ġtechn iques
N S
Ġmention ed
ĠIn stitute
Ġcontrib utions
M e
ĠW ashington
Ġbeh ind
Ġs m
ul ate
Ġbelie ve
Ġm orph
ĠD r
in i
el t
Ġpl ot
Ġtra vel
act ive
ot o
display style
Ġann ounced
ĠDist rict
ri an
8 1
w rit
Requ est
Ġ ]
Ġf ix
ilibri um
Ġhigh ly
} }$.
Ġ },
Ġanal og
c d
re me
Ġfin ancial
ĠHamilton ian
os ing
Ġc red
mod ule
ĠCan ada
Ġro ad
Ġw or
el es
Ġt en
Ñ Ĥ
Ġman ifold
M P
ĠTh om
Ġst ream
Ġinteg er
7 4
Ġs ex
Ġb ul
P r
Ġgener ation
C o
Ġreg ime
N ode
Ġb inary
Ġgrad ient
3 00
Ġl ack
un ic
Ġst e
Ġb al
Ġass ist
Ġopt ions
s m
Con fig
ĠJ ames
: }
Ġv ict
Ġgalax y
ĠR ed
6 9
Ġassum ed
Ġtra in
se ud
Ġother wise
Ġf em
Ġparticular ly
C S
Ġbe y
et ime
Ġoff ice
W hat
F il
7 9
ĠRe c
Ġb order
b i
Ġincre ased
Ġbey ond
Ġin ner
Ġpredict ion
Ġpro te
Ġtechn ology
Ġtreat ment
Ġform al
cur rent
ĠNew s
Ġext ra
is hes
}$ )
I P
Ġhig hest
7 1
less sim
Ġun ivers
Ġfe ed
Ġcos m
ĠPart y
Ġtrans formation
Ġla un
Ġre pe
Ġdist inct
Ġn ight
Ġinst it
O D
Ġf ast
ru g
Ġt rac
Ġcoordin ates
Ġabs ol
In st
AT E
Ġeconom ic
Ġvis ual
Ġbir ths
con n
Ġw ays
ĠI m
h bar
ĠCl ass
Ġj oint
ĠR oy
Ġrel ig
ĠCh ampions
Ġgre ater
ĠF ound
m en
ĠS pec
Ġvari ety
ĠP at
Ġn orth
Ġwrit ing
im ent
ap i
Ġen h
Ġl iving
S ervice
u it
Ġopt ical
Ġdifferent ial
ĠL ist
ĠT est
Ġsc ore
Ġag ent
) )$
Ġmod ern
ĠIn ter
C P
The se
Ġor ient
p id
m ethod
Ġlo ad
g ener
ĠS ome
ro t
b on
k i
ĠS ub
U N
l ang
V ID
u ge
ĠM a
In fo
ric k
$ ),
N e
wo od
Ġcon clude
sc ill
ark s
d frac
Con text
Ġrema ining
h box
Ġe ight
ter m
ĠĠĠĠĠĠĠĠ ĠĠĠĠĠĠ
ist ical
Ġup d
Ġcomb ination
ĠO ff
Ġstra ight
M ap
Ġm icro
ĠV ir
er ve
Ġve h
Ġ$ |\
) }_{
ĠAr ch
it i
ĠG roup
v oid
() )
ĠH ow
y a
Ġ rac
Ġlay ers
## ##
pro cess
c ular
$ };
Ġmod ule
ĠD iv
om ic
Ġnot ation
er ia
Ġb ottom
an i
Bu ild
Ã ³
Ġtrans l
~~ ~~
Ġacc ur
st art
Ġtele vision
Ġclear ly
Ġtra ined
ĠIs ra
l ig
Ġfor ces
Ġwe bsite
Ġcomplet ely
Ġident ify
G C
Ġd r
Ġsc ient
ir al
ĠE qu
the n
199 5
Ġant i
Ġw ide
Ġcam paign
D P
en ced
Ġmon th
ib ly
Ġobserv ation
h as
Ġrel atively
ir ing
ĠP ort
ic a
Ġapproxim ately
ar se
re p
ollow ing
Ġche m
Ġw rote
ĠR ober
ĠA nt
ri z
Ġpar allel
Ġdatas ets
ogene ous
ĠG erm
ĠG reen
Ġep is
Ġp ack
n am
The refore
Ġseg ment
ĠJ ust
em ic
T e
Ġprov ed
ar c
st ream
Ġform ed
S ize
}( {\
ĠDe f
C ode
Ġfam il
,\ \
Int roduction
yp es
Ġqu ick
Ġpol ice
Ġfil ter
Ġm other
Ġde vi
Ġgraph s
Ġde part
Ð ½
ly mp
it ter
ic ity
Ġ ult
Ġth ick
ĠH all
sy stem
Ġcon cent
Ġbound s
Ġhyp ot
r ons
ta g
f s
Ġabs or
c ulation
Ġo scill
' ;
******** ********
Ġthem selves
u i
C A
am ily
{ {
Ġc ause
ĠFran ce
Ġelect ric
ag o
ĠSt reet
k es
ĠM al
Ġpur pose
B S
im age
B A
se ct
ĠPh il
Ġneighb or
ĠR iver
un t
F e
Ġdoes n
cc cc
Ġapprop riate
Ġc ov
Ġin cor
it ely
N ext
[ (
not her
Ġele ction
Ġf ood
Ġinflu ence
T D
ĠR em
S c
Ġcomplex ity
it ar
Ġuncertaint y
Ġp ure
Ġr ing
Ġsur v
Ġres ources
ĠAssoci ation
' re
Ġm ind
In ter
Ġcom ing
Ġquest ions
Ġt im
O M
ĠB el
n y
) --
ĠW ork
Ġw alk
) }}
ab il
Ġfamil ies
Ġindu ced
ĠO ther
Ġv ary
Ġadv anta
et t
Ġk ernel
Ġscatter ing
b el
ind er
Ġw all
M R
Ġk in
Ar ray
def ault
Ġcontain ing
Ġas pect
m ass
ĠAfric a
ĠF inally
Ġmanag ement
Ġtra ject
Ġdep th
- $
Ġst rict
ĠM ag
c ount
f irst
Ġmagn itude
Ġb ur
Ġnear ly
Ġtem por
ĠA ward
ĠC ong
m ann
Ġreturn ed
Col or
\ )
I V
flo or
abl ed
Ġg rid
Ġp ix
= '
ill ing
ĠF e
Ġsy n
Ġdistrib uted
Ġstrong ly
ab ase
Ġshow ed
Ġs outh
ĠUn ion
op ic
Ġdetail ed
Ġvis it
Ġunderstand ing
Ġleg al
Ġred shift
Ġconstruct ed
v ised
ĠGe orge
Ġro ot
Ġres on
Ġhim self
Ġc ry
Ġa ctions
ud es
" "
Ġstreng th
Ġpol y
Ġgu arant
Ġup date
Ġmass es
Ġ[ \
u ff
Ġs rc
Ġbehav i
ĠF in
199 4
o o
i ber
ĠR ich
F inally
Ġw ind
n um
Ġab ility
Ġopp os
Ġmin imal
L og
ak er
Ġfund amental
al gorithm
pos es
Ġg rant
ĠJ ew
Ġbegin ning
Ġtra de
Ġide al
Ġle mma
Ġc ru
Ġh ot
T S
i h
Ġ( !
Ġ ...
Ġp en
r ong
Ġdiffere nces
Ġcontinu ed
ou ther
Ġcon vex
Ġc le
en ge
hen omen
p ir
Ġh ours
Ġax is
s ur
n el
o ption
Ġp ick
,\ ,\
Ġconsider ing
h ing
he mat
ort hern
f it
ilar ly
ĠComp any
i ke
Ġf air
rum p
or age
Ġres ol
ĠM at
Ġarchitect ure
w in
Ġstat us
Y ou
ĠM r
Ġh arm
ĠP ress
Ġbook s
] $.
Ġre li
Ġ util
ĠD is
ĠC up
Ġtheore tical
de v
Ġden oted
G B
Ġamplit ude
198 0
Ġl um
Ġmach ine
ĠT V
fin ition
Ġor th
Ġ( )
Ġredu ction
Ġin de
E d
osp ital
Ġindic ates
Ġdecom position
Ġexp ressed
C ons
^* $
su per
ach ing
f aces
rou ght
Ġb ranch
D A
ĠAl so
Ġre comm
Ġestim ation
Ġapp oint
Ġsc ience
Ġex cit
ĠAl though
Ġst ated
ĠR uss
] }
ist or
, $
Ġ{ $
Ġpart ition
ĠG et
ines e
c ar
Ġnot ed
Ġschool s
\ }$.
Ġmed ical
re al
pa rent
fere nt
outher n
Ġhtt p
st ra
Ġk m
Ġslight ly
ma il
Ġex ponential
c r
Ġf ire
Ġcy cle
&= &
E lement
I L
res ults
ĠA ccording
Ġimplement ation
ott ed
Ñ Ģ
H and
ag ement
Ġcap ital
d l
Ġbo ard
Ġg ap
ch ild
ĠB ra
Ġprogram s
c f
Ġd am
E M
Wh ile
ĠDem oc
ĠF urthermore
Ġfl at
bu ild
ĠL ie
=" ../../../../
ve e
Ġpro port
Ġstud ent
Ġpro ceed
ĠF il
: =
Ġ ;
r as
cre ate
Ġrob ust
Ġclust ers
Ġin j
Ġlook ing
Ġb rief
Ġact ivity
P P
ot ing
Ġachie ved
Ġcon ver
Ã Ń
Ġper fect
E nt
Ġpl atform
| }{
Ġc ivil
ir it
$ :
Ġf a
Ġg ave
it ivity
ann els
Ġg reen
Ġscen ario
we ight
h al
Ġscal ing
semb ly
Ġdirect ed
oun tain
ĠB en
o ke
Ġsa f
ĠO f
Com m
Ġreve al
Ġsatisfy ing
st atic
Ġc opy
Ġdis e
on ical
Ġst aff
Ġcalcul ations
Ġass ign
and er
Ġex ternal
Ġent ropy
}[ \
Ġtherm al
p at
Ġimmedi ately
bra ce
ĠM art
Ġpart ial
ĠE ach
Ġro ck
199 2
ta ge
Ġass ess
P er
Ġt or
Ġ\ ]
re ct
Ġfin ally
E C
S pec
g rad
ell i
Ġne ural
Ġdis crete
f ont
Ġd ivid
Ġpro gress
t frac
Ġrun s
om etric
Ġcomb ined
P art
D B
] $,
Ġeffic iency
Ġeval uation
Ġweight s
Ġ });
Ġrema in
Ġet c
Ġrot ation
ay out
}} _{\
rib ution
bm atrix
Ġs aw
Ġ ener
ĠD ire
ad o
Ġext rem
P I
Ġc it
par agraph
D esc
here nt
) )\
con text
Ġplay ing
ass ert
ĉĉ Ċ
Ġnuc le
h ol
ĠWh ite
. [
ap ache
Ġref lect
s qu
199 3
ĠĠĠĠĠĠĠĠĠĠĠĠĠĠĠĠ Ġ
Ġob vious
Ġang ular
g in
Ġinfin ite
> &
Ġse ctor
v a
S ection
ĠT ex
Ġact ual
pa re
ad ian
Ġt ro
Ġscal es
Ġt er
big l
Sy stem
Ġs il
Ġcoe fficient
Ġw ife
Ġtyp ical
b as
Ġm or
Ġcal culation
][ ]{
ĠArm y
at ically
k in
math op
Ġv ac
di ag
Ġ/ *
$ _{
Ġsol ve
Ġo dd
if ferent
Ġchang ed
Ġcharact ers
Ġm es
ĠL eg
Ġinst all
Ġch urch
ob ile
Ġ$ .
al d
in fo
in u
Ġfri end
ck nowled
ĠC ap
ĠS ur
Ġl ives
P ol
ri a
Ġprofess ional
.. .,
ĠF l
Ġtyp ically
Ġmov ie
ect or
Ġlo op
Ġsum mar
k l
t x
It em
\ ;
on a
ĠComm ission
Ġcell s
Ġd ro
Ġp henomen
ot al
big r
Ġfunction al
ĠAs sum
Ġre place
ĠD an
ĠGerm any
b its
y r
Ġcommun ication
st ract
U sing
}} )
se y
Ġcap acity
e ch
ĠG al
ĠL ou
if ies
L ine
j o
Ġsem i
st on
Ġdim ensions
fin ed
Ġmov ing
M essage
id ing
Ġmass ive
ĠQ ue
t es
}) }
( {
Ġn il
bo ard
Ġcomplet ed
Ġposition s
ĠSe e
Ġs plit
Ġask ed
Ġcontain ed
A b
m as
ve ctor
Ġb ad
et her
Ġprob ably
a a
S D
Ġ er
Ġflu ct
for ward
$ &
ĠD ay
ĠTe chn
Ġsoft ware
Ġra ce
Ġis omorphism
ĠD uring
4 00
Ġexper i
Ġpr int
k m
F A
Ġde b
ar r
c at
duc ation
Ġm iddle
ĠSt e
p ost
Ġag o
1 000
Ġ\ (\
Ġb right
et al
Ġth reat
Ġcandid ate
empty set
Ġsp read
Ġso on
rel ated
Ġrecord ed
Ġca used
ĠW il
ont al
Ġindic ate
Ġrepresent ations
Ġjo ined
M ethod
ĠM ary
it a
ĠM ex
ĠH ig
j oint
c is
f ess
g r
def ine
Ġsc reen
an o
Ġsampl ing
}} .
Ġtra ditional
cal led
Ġmax im
wh ile
con tain
str ong
g ies
Ġf reedom
Ġnuc lear
ro s
ri al
Ġindividual s
ĠS ociety
is her
Ġo ption
ĠS um
ĠJ ack
Ġgo es
Ġw orth
Ã ¼
Ġ __
Ġex pert
Ġmulti plic
ĠChrist ian
Ġ\ !
b p
Ġse ctions
ĠComm un
Ġhe avy
Ġhe art
ot ion
ar ter
Ġprinci ple
Ġm ut
Ġpres erv
Ġh ous
S F
Ġmajor ity
= .
}\ ,\
-- -
ĠJ er
ĠE m
s uch
Ġs ort
ĠFound ation
Ġlim its
Ġprovid ing
bre ak
Ġqu ery
Ġtest ing
f alse
Ġj ava
ens us
y ing
Ġwant ed
Ġim plic
C or
ĠU sing
Ġpre vent
Ġrepl aced
P re
Ġse ven
H T
on ly
ĠAfric an
ree k
form s
Ġn om
st ruct
pect ed
ĠP ublic
Ġt un
Ġre call
ith ub
Ġcoll abor
g reg
C ount
Ġres ource
Ġsepar ate
//// ////
Ġle ave
multi row
Ġa mb
ok en
ĠSu per
ĠApp endix
Ġh ope
Ġc ele
ve ct
ĠO lymp
m i
Ġr ise
ur rent
Ġm ale
v ature
}} ^{\
s ign
Ġh ole
a fter
Ġobject ive
Ġgeom etry
Ġcalcul ate
Ġevalu ate
clus ions
in ations
Ġj ournal
Ġmove ment
figure s
ĠT rump
ru pt
Ñ ģ
S R
Ġim ag
ind ing
sk i
ĠD ata
Ġsufficient ly
er c
av el
ed ia
Ġequ ilibrium
d at
Ġan im
pl an
R ight
aught er
Ġb in
ĠG ra
Ġshow ing
in ner
Ġcom ment
Ġoff er
Ġc ast
) })
ch ang
column width
Ġre ached
Ġpro jection
st ep
y e
ist an
Ġsy nt
Ġbro ther
ĠF lor
Ġit em
Ġcoordin ate
Ġphys ics
ĠS ing
Ġhy dro
ĠSe cond
B ox
Ġst ay
C M
c ss
Ġdem and
c el
ĠU nder
ial og
Pro of
}_{ -
Ġapp lying
Ġacc eler
ĠB ook
ann ed
ĠZ e
ĠCO VID
Ġon to
Ġspec ified
Ġactiv ities
st ein
i verse
Ġneut r
Ġsign ed
Ġsur vey
g a
Ġdepend ing
F L
ĠTex as
g n
inc ipal
Ġlist ed
Ġ ion
=" ../
Ġh it
Ġaltern ative
S L
s he
p ackage
Ġf ine
Ġvill age
Ġf ederal
Ġpl aces
C he
v art
Ġevent ually
l ap
pert ies
Ġdist ingu
ĠAc adem
Ġ ign
Ex t
Ġst ability
Ġro om
, {\
Ġb rought
Ġp riv
Ġun known
rib utes
S ch
ph ant
ĠGovern ment
ĠO ut
199 1
Ġmin or
bur g
ĠR oman
+ (
| }
he ta
Ġn ation
tikz picture
ĠMin ister
Ġget ting
ig ation
ĠRober t
li ent
ĠMich ael
ĠIn st
ĠS am
pa ir
om etry
Re ad
P U
och astic
Ġv s
Ġcult ure
un k
Ġoccur s
ĠRoy al
ĠM o
Ġembedd ing
197 0
Ġra pid
Ġdev ice
ĠCh inese
l ies
ĠY ear
Ġdeg rees
Ġassum ptions
Ġmot iv
g an
ĠK e
Ġin verse
olog ies
Ġstat istical
Ġteam s
Ġnam ely
ĠS M
Ġcon v
Ġinde ed
] {\
Ġappe ared
j ava
t wo
ĠPro gram
Ġcar ry
as c
ĠBo ard
Ġto ur
) }_
ĉĉĉĉ ĉĉ
se arch
h ost
Ġcar ried
Ġimport ance
op en
Ġconsequ ence
Ġinter view
d b
Ġir re
ĠA lex
in clude
Ġc amp
Ġw oman
Ġpredict ed
in ate
Ġ Ã
Ġtechn ique
Ġm apping
ell ed
con f
; &
Ġp seud
b or
Ġex change
Ġsom etimes
^{ *
Ġansw er
Ð¾ Ð
p ass
com ing
U LL
t iny
Ġunder lying
Ġv o
C L
T hat
Ġinterest ed
Ġorgan ization
EN T
h aps
form al
Ġvari ation
Ġgiv ing
d es
N A
mer cial
ran k
is ely
en a
Ġbi as
ĠM usic
Ġlum inos
ers ion
Ġtry ing
Ġnot hing
Ġ$ ,
Ġsub t
Ġs pl
le te
Ġlocal ly
Ġn ames
ĠSer ies
iss ions
Ġst ruct
Ġwhere as
pl ot
Ġgrav it
Ġnot ice
Ġinter face
Ġs ociety
=" #
}) =
ĠG old
d f
defin ed
L emma
Ġmar ried
Ġmiss ing
ĠL ag
ĠSe c
T H
P A
p o
N D
Ġpass ed
re y
Ġb ank
Ġch annels
Ġcomput ational
Ġdet ected
ĠH istory
Ġst op
E L
Ġ ut
ĠInd eed
g ithub
de c
Ġun ion
Ġfind ing
sl ash
Ġg ir
i ota
Ġex c
al gebra
ynam ic
D is
sc he
Ġexplain ed
R A
Ġvert ical
\ }\
\ |\
Ġarg uments
Ġpro pose
Ġconf ir
ĠS ervice
d y
an cy
Ġdeath s
n ull
Ġsh ock
Ġproject s
& =\
d r
l aw
Ġmeet ing
A p
ma ke
\ }$,
D M
math it
< !--
C all
Ġ ^
un ct
ĠM us
Ġ} ;
U ser
[ -
en ame
Ġread ing
Ġwork ers
Ġinteg ration
long rightarrow
Ġdes ired
O C
H ence
ic ated
}$ }
Ġent ry
i as
Ġpredict ions
z a
A ss
velop ment
Ġsong s
d oc
Ġcharacter istic
pos s
st able
Ġb illion
ĠL and
15 0
Ġdec ided
int eg
or ation
ed y
ĠDiv ision
d el
ĠMod el
go ogle
Ġcom pl
od ed
ĠComm ittee
R el
}} }\
Ġdiag onal
sub sec
i ant
Ġhigh light
Ġd u
f old
Ġopen ed
est ival
e ks
] )
cret ary
Ġsh ared
Ġcommun ities
Ġrem ark
Ġplan et
v ari
le ctions
n umber
Ġconst ants
ust er
Ġmax imal
ven ue
ĠP re
ĠPl an
ma z
S ec
Ġ= ==
eli hood
ĠH en
Ġcomput er
form ed
ĠThom as
ĠR el
ĠR ad
Ġpo or
g est
Ġpat ients
vart heta
ro ad
Ġsur round
r ich
Ġco ol
li ament
ĠB ill
Ġc op
s at
: =\
Ġpl aced
Ġcont rad
Ġcomput ing
or ial
Ġtr ust
pt on
atal og
x x
ĠCong ress
G roup
ĠG reat
ang er
Ġte acher
Ġincor por
ic ense
ran e
ow ers
i ra
ou ra
Ġd ust
Ġrefer red
198 9
un it
air s
aw a
av en
S A
Ġh um
pa red
ge br
Ġprot ect
Ġnon linear
Ġs en
ĠM useum
text color
Ġvar iance
Ġc ard
Ġext ends
t w
Ġrespons ible
Re f
Ġbir th
}} =
n amespace
flo at
ĠS al
A ct
Ġmod ified
ud get
Ġus ual
Ġmorph ism
ing er
ill er
Ġext end
set s
p y
F C
ail y
Ġcon j
Pe ople
Ġp rice
Ġquas i
O P
---------------- ----------------
ens ities
Man ager
j oy
Ġstat istics
E X
ph ys
ĠT ur
Res ult
Ġcon vert
Ġ ^{
ĠC re
ĠFlor ida
Ġexplicit ly
Ġhe at
pt o
)-- (
ĠC ath
U t
Ġ }{
Ġm us
Ġeffort s
ĠS T
Ġco inc
ĠL at
ĠSm ith
ou rier
;\ ;\
par ison
Ġc m
} |\
1 20
( [
w rite
ĠĠĠĠĠĠĠĠĠĠĠĠĠĠĠĠ ĠĠĠĠĠĠĠĠĠĠĠĠĠĠĠ
con dition
a ur
ell ig
ĠM ac
as er
h u
Ġrece ive
und red
Ġneighbor hood
ĠCent ral
Ġpl ays
\% $
l ines
ĠS un
Ġder ive
Ġderiv ative
ĠAustral ian
G N
Ġ rough
}) ^
Ġabsol ute
Ġdis pers
cher s
ad ing
H istory
Ġparent s
F l
Ġcost s
ph as
Ġtop ological
ĠIsra el
gebr as
ĠO ver
stit ution
ĠP ost
Ġlet ter
ĠN or
r or
Ġsp ent
Ġt rivial
I mage
ĠB est
ĠD el
b ib
ĠB rown
Ġfore ign
G iven
Ġadvanta ge
ĠM ost
ĠT wo
Ġasympt otic
I A
Ġk illed
u fact
H S
ul ed
ific ations
L T
ĠT w
Ġsur pr
Ġex ception
======== ========
ur ity
ateg ory
al ian
ĠM er
Ġprec isely
Ġdynam ic
ĠĠĠĠĠĠĠĠ Ċ
Ġsit es
n n
roll er
ĠSc ott
ĠI R
b al
Ġaccur ate
ĠR ob
Ġsatisf ied
st ructure
r ical
Ġtr uth
; </
h an
ĠT om
Ġdel ay
} ~
pro ject
Ġr ang
ult ane
j pg
Ġmain ly
m itted
ĠC E
Ġinvestig ate
Ġre asons
Ġlead er
Ġprocess ing
med skip
S er
Ġcur vature
ĠR ussian
Ġrad iation
script style
Ġany thing
Ġto ol
/ (
Ġsequ ences
Ġlearn ed
Ġmost ly
ER T
Ġtre nd
Ġp icture
Ġfri ends
am s
Ã ¶
is l
Ġtest s
Ġmatch ing
ĠM iss
ĠI N
ĠM ax
ĠF ore
f unc
t rivial
avel ength
Ġmin utes
Ġrad ial
Ġab und
Ġgeneral ized
ĠB ur
Ġpa int
Ġmod ul
F act
R et
Ġcl ient
R em
Ġpol ic
Ġst ress
ĠE ducation
Ġcon ven
ĠS uch
ĠW estern
Ġf erm
e ctions
Ġremov ed
ĠT ime
or ter
y les
ĠD en
Ġget s
| ^{
ol a
Ġev ol
Ġfav or
Ġth row
re nce
Ġrequire ments
ĠR oad
t arget
S he
Ġsuggest s
k o
Ġimplement ed
Ġadopt ed
e vent
Ġconf lic
Ġd ashed
not ag
Ġfour th
al ysis
Ġg rand
i em
Cons ider
ĠM em
Ġpart ners
Ġopportun ity
per im
sy ch
}{ *
se cond
ĠĠĠĠĠĠĠĠĠĠĠĠĠĠĠĠĠĠĠĠĠĠĠĠĠĠĠĠĠĠĠĠ ĠĠĠĠĠĠĠĠĠĠĠĠĠĠĠĠĠĠĠĠĠĠĠĠĠĠĠĠĠĠĠĠ
Ġinter section
C re
Ġener gies
ul er
Ġst ories
b ed
Ġpolit ic
^{ (\
Ġsc ene
sl ant
198 8
a ver
lic ation
lo od
ĠF orm
Ġchem ical
ur ations
Ġlabel s
go ing
Ġl ies
d iff
pon s
Ġquick ly
) ^\
Qu ery
Ġevery thing
Ġpur ch
C R
act ic
r ants
ĠFran cis
Ġcol lege
pi red
v est
ĠIs land
Ġphot on
Ġvir tual
ĠOff ice
F I
ult ure
Su ppose
Ġser ious
g ent
Ġcl oud
Ġag ents
ĠK ore
om y
> (
ĠIn c
se lect
Ġsol ar
pect ive
m osp
Ġsay ing
ĠP et
More over
d ir
Ġ$\ {\
ou ble
Ġadd ing
Ġcan onical
! ]
Ġra il
wh ite
Ġv acc
id el
it ative
Ġsu itable
@ {
so ft
mod els
ĠCar ol
Ġpie ce
ĠD on
a o
Ġimpro ved
ĠM ass
Ġmarg in
D R
Ġwe eks
a us
Ġact s
ic ago
T ra
D ep
D S
Res ults
Ġan c
il er
rop ic
Ġblock s
r l
Re c
Ġcompos ition
ĠJ ose
Ġb os
Ġm ixed
Ġde ad
Ġsome one
ere nce
ib ration
Ġdef e
Ġapproxim ate
Ġac adem
E ng
Ġpl ans
Ġis ol
Ġdisc rim
ĠJ ournal
he tic
Ġman ufact
sy n
Ġpl ant
Ġs ch
Ġdep ict
Ġcou ple
im ages
Ġint ensity
Pro perty
Ġthan k
Ġ{ };
Ġn et
Ġst ochastic
Ġcit iz
Ġqu e
Ġprot ected
In put
Ġw atch
ĠDire ctor
qu ery
ĠVir gin
ch mark
ol f
script size
Ġrem ove
dis c
medi ate
! \
Ġmaterial s
Ġlaw s
v s
Ġrel ax
fin ished
Ġpattern s
w est
Ġn one
ĠB ecause
dition ally
oun ter
Res ponse
ĠM ad
back slash
ĠO pen
cal e
phant om
a ud
anc ing
Ġdes pite
A ut
clud ed
pt ic
Ġp ull
Ġs n
ib r
ask et
Ġreg ist
Ġelect ro
Ġequ ality
aut o
ĠN etwork
M ar
ature s
Ġatt ract
Ġd x
198 7
ĠS l
h ouse
Ġequival ence
Ġpr ime
Ġsy m
em por
ur t
Ġser ve
Ġgrow ing
Ġt end
S ource
Ex p
ĉĉĉĉ ĉĉĉĉ
Ġd aughter
> \
H ow
ple t
ON T
R ep
. /
Ġ( {\
Ġand roid
ĠT or
t an
Ġj et
ĠH am
Ġen joy
( -\
Ġsim plic
ĠL y
ĠAn n
ĠG iven
Ġr ational
ĠLou is
Ġbehavi our
ĠEar th
res h
il bert
' m
Ġfail ed
ĠA re
h igh
M B
Ġres pond
est s
et te
Ġem pty
Ġn av
om a
C an
ro sc
ĠB oth
ph p
$ {\
}\ |
Ġrec ords
g eneral
Ġman ner
ĠL os
ĠIt s
19 60
Ġthe ories
stand ing
ĠCan adian
ad ow
Ġem phas
Ġquant ities
at re
B ack
og onal
Ġord ers
er ior
Ġposs ibility
es ian
Ġpr ison
ful ly
az ine
w p
Ġse c
ob s
Ġpath s
A ccording
Ġgrav ity
ill a
m n
Ġ\ &
Ġhypot hesis
Ġsub stant
Ġdise ase
Over ride
P O
Ġpro pos
P ost
cor ollary
P os
Ġreturn s
D ate
Ġdynam ical
fin al
^* \
d em
Build er
Ġrese ar
Ġluminos ity
Ġa st
Ġin iti
ĠCl ub
ĠPro v
F R
Ġband s
cl aim
ĠH ill
sl am
ig ration
Ġorig inally
X i
ĠJapan ese
ner gy
C lient
we b
Ġbul k
U E
M s
Ġcateg ories
ĠT imes
D C
Ġcl imate
Ġdig ital
ĠRuss ia
Ġo w
ax is
and emic
Ġcandid ates
Ġeigen values
ch ron
ess ages
Ġs al
ĠAcadem y
Ġg old
ver b
Ġsaf ety
Ġw aves
T T
Ġm ission
Ġdescrib es
Ġexpl o
P aramet
Ġqu ark
paramet er
Ġch art
Ġal one
Ġb ool
Ġsett ings
Ġcapt ure
Ġd imensional
Ġspe ak
Ġchall enge
Ġregard ing
A V
im g
ĠM et
Ġth ous
Ġd oc
Ġpart ies
pd ate
Ġe q
Ġor dered
Ġt al
ĠT own
equ ations
onal d
ĠKing dom
Ġf arm
ĠĠĠĠĠĠĠĠ ĠĠĠĠĊ
f i
Ġw est
198 6
re land
Ġreport s
Ġcle an
) </
ĠM ont
. \\
Ġfem ale
lo op
Ġw ait
Ġs ports
it ation
r ish
^* (
pl oad
pl ane
mag netic
Ġh undred
Ġmag net
et ween
in n
Ġattack s
Ġapp arent
Ġtra ce
ĠB re
Ġtr ig
C ar
Ġst ore
Ġdev ices
ĠM il
sh ow
Ġform at
Ġturn ed
Ġassum ing
Ġide as
cl ose
Ġdest roy
H C
C ase
al and
L iving
ari os
Ġ eth
Ġexpl ore
Ġnecess arily
Ġar ri
D o
Ġ- >
Ġcom mercial
ii i
ot ype
ĠB ank
Ġsim ultane
Ġwrit er
et ries
Ġart ists
a pt
add ing
ed ge
Ġm ur
*} [
Ġcor por
Ġst d
Ġre produ
Ġcom plic
ier arch
ĠG rand
Ġser ver
Ġh idden
ater ial
ed s
ĠC am
ĠRich ard
Ġsign als
c ut
Ġded u
desc ription
iven ess
Ġbuild ings
Ġdis s
ĠT ype
Ġde but
ve re
ict or
us al
ĠL u
ĠFran k
Ġ\ ,\
Ġtrans mission
Ġit ems
ĠPro fess
Ġdi am
L abel
Ġpolic ies
Ġdemonstr ate
$ ^{
pro perty
j av
l ock
ĠW omen
y es
Ġmed ium
Ġin come
\| _
ject ive
Ġaff ected
Ġtechn ical
neg ative
ic ate
m et
Ġel im
Ġsw itch
' ve
Ġg un
b an
h ang
ĠJ ac
cl ient
Ġart ist
Ġexpl an
Ġnot ion
ĠO F
198 4
Ġmat hemat
Ġent er
in it
ĠA tt
ĠI D
pa per
L a
erv ices
Ġsuggest ed
Ġelect ed
u um
$. }
Ġto ols
M ax
Ġar riv
Ġoff ers
iss on
ĠE ven
ĠSt ep
M y
Ġcomp at
Ġepis ode
ul se
Ġsh ot
m ember
ist ent
b rid
Ġadj ust
Ġcharg ed
Bl ock
m em
L i
L ast
c lear
Ġh ar
Ġis su
k ern
ĠB i
ĠL ife
Ġcon volution
)} (\
Ġfound ed
ĠS ocial
fl u
ĠI II
R I
Ġaut o
Ġchalleng es
al a
ĠO per
r ins
m t
op es
âĢĿ .
ĠP eter
Ġcele br
ĠThe ir
Ġcrit ic
198 5
g ather
l arge
cl ine
R R
en ess
ĠChar les
not ation
ĠU N
as tern
Ġocc up
un finished
Ġiter ation
irc raft
Ġd rop
ĠJ an
Ġgo als
Ġuniform ly
h fill
Ġwid ely
Ġw rong
g reen
ĠE v
l ib
O L
M in
pre c
ĠCh icago
G ener
Ġmetric s
Ġp ain
M T
Ġbo olean
ĠAng eles
Ġat mosp
As sum
B ase
St ream
Ġcorre ction
Ġt ail
Ġinitial ly
Ġs izes
el se
Ġis ot
Ġb undle
point s
Ġal t
opt ions
Ġuncertaint ies
b ot
Ġgener ic
{ (\
rang ian
Ġsum mer
ĠSt ar
Ġtri al
Ġcompet ition
ĠO ffic
Ġemploy ed
Ġto ward
Ġcy cl
Ġdetect or
ĠR ock
footnot es
Ġm aster
Ġv ote
hen s
O ther
circ le
ĠA dd
Ġf irm
Ġl ab
fin ite
Ġre ct
an ish
r ating
ĠPar is
Ġinter act
Ġsub group
Ġden se
if act
par allel
Ġfocus ed
semb le
Ġconf idence
1 10
reg ular
Ġevalu ated
Ġpower ful
ĠAl gorithm
Ġem pir
Ġrelig ious
Ġpur poses
ĠAt l
footnotes ize
Ġe ast
th let
$ {
ĠD M
ĠSu ppose
it led
Ġsc hed
Ġout er
it ness
ap ers
duc ible
ou pl
ri age
R B
sequ ently
N O
ĠB ig
Ġad vers
Ġpolar ization
Ġunivers al
u an
tt y
D es
ĠS ol
ĠH istor
Ġprof iles
Ġsupp ose
s i
Ġra re
angu ages
D D
Ġconduct ed
act er
Ġop in
Ġallow ing
ĠI ll
s ch
Ġfil es
Ġcirc um
text sf
Ġ< <
Ġpr incipal
\! \
or ig
ĠN ULL
ĠI ran
Ch ar
$- $
Ġp ark
ĠP an
z y
text up
Ġquant ity
g ment
il ation
rel ation
Ġmark ed
P L
ject ure
Ġgeom etric
Ġloc ations
ograph ic
ĠA rab
Ġl if
Ġinvol ving
ĠCath olic
is ot
ĠHig gs
ing ly
Ġnormal ized
A ction
H ead
ĠPro ject
ound s
ay lor
Ġbenef it
Ġanaly z
depend ence
Ġcent re
Ġchang ing
Ġag greg
Ġent ries
Ġhelp ed
back ground
ent y
Ġass igned
h ab
Ġperturb ation
se p
ĠH el
co pe
left arrow
sk y
in ator
Ġfeed back
Ġinvestig ation
Ġ â
ĠA ut
}. }
rie ved
and roid
Ġeconom y
Ġtrans lation
ĠR o
Ġr ig
Ġc at
eff ect
Ġin fer
Ġhand le
ĠG ames
Ġappoint ed
ar ian
Ġw avelength
ĠJ ud
Ġbe aut
st ain
Ġperiod ic
but ton
il ed
at o
ĠZe aland
) (\
sy mm
ĠS und
' _{
Ġoppos ite
sc ope
ne ctions
m om
Ġident ical
Ġst ack
Com ponent
ĠFor ce
P oint
ĠDe velopment
Ġb g
Ġorgan izations
Ġbas eline
ĠO h
Ġst o
Ġevery one
Ġme as
Ġtemperature s
ic ine
Ġqu arter
ĠD u
Ġnumer ous
in du
ram ework
l ast
Ġc overed
Ġph il
Ġcre ating
Ġgravit ational
Ġopen ing
il ing
ĠI reland
M em
Ġst ock
Ġm ill
Ġp andemic
st at
Ġturn s
Ġfluct uations
Ġat oms
Ġwh om
) }.
Ġsp ac
& &\
oot ball
cont inu
Ġan om
Ã ¤
ĠArt s
Res ource
Ġadj ac
ĠMex ico
Ġcon clusion
down arrow
Ġco ach
Ġcoupl ed
Ġdire ctions
ĠP enn
Ġset up
Ġdepend ent
| $
Ġn or
G a
Ġact ing
ĠPe ople
Ġl ift
Ġres erv
Ġclaim s
bold math
D i
Ġappear ance
Ġfail ure
Ġquad ratic
H om
ĠL in
Ġrec over
ĠH uman
12 8
Ġsp irit
ar ithm
ar iance
ĠF ourier
N av
Ġstrateg ies
Ġc ert
198 3
th ick
Ġb ond
Ġb rand
Ġt urb
N umber
Ġhistor ical
Ġsom ew
Ġ$ ^{
Ġinst r
ut ation
ig an
Ġconfig urations
I ST
Ġrepresent ing
m eta
Ġdevi ation
Ġsol ving
com put
Ġscen arios
ĠOb ject
qu ant
z il
Ġdecre ase
Ġessential ly
Ġflu id
su pport
e an
ĠGe V
Ġspec ifically
- (
Al though
i pp
C ref
Ġ ,\
Ġcorre ctions
Ġexpress ions
as ion
ĠS ta
t ings
t ree
Ġindic ated
ne ver
asket ball
up arrow
} /\
Ġres ist
T op
Ġform ulation
pon ents
F unction
g ers
Ġfa ith
ĠB usiness
Ġgener ating
Ġp ri
and a
R L
N E
ob j
Ġresid ual
=\ {
C ell
bin om
Ġann ual
C al
Ġtri ang
ut y
Ġal le
$\ ,
l oc
ĠEng ine
ĠM el
The y
Ġredu ces
ĠN ov
T V
Ġind ices
Ġag ree
ĠB ob
Ġb udget
ser ver
Ġperform ing
P o
Ġis n
Ġcover age
a uthor
d ing
b en
L ink
Ġl ie
Ġc atch
Ġs ides
cl ip
ĠVirgin ia
M E
Ġspe ech
u cl
y an
Ġf rag
ĠI slam
q l
ris is
Ġinterpret ation
Ġbenef its
Ġph ases
ĠS pace
Ġf elt
Ġstart s
k ins
Ġhapp en
Ġmix ing
Ġwe b
198 2
R un
Ġsp an
Ġinstr ument
d ash
}$ \
Ġn arrow
Ġcry st
os c
Ġat ta
Ġin nov
" ]
Ġcon vent
Ġtempor al
v in
Ġplan ning
Le ft
u a
Ġvis ible
Ġhal o
bt n
ĠRe view
25 0
St atus
Ġinteg rated
ĠDe c
var rho
ĠL ake
er ies
ĠCons ider
ener ate
Ġ\ |\
O per
Ġaspect s
mid rule
Ġf itting
Ġra ised
at iv
Ġv ocal
Ġfin ished
f a
Ġtra ffic
Ġread er
Ġa ware
ash ion
] ^
$ ^
ĠL ong
j i
Ġrema ined
it ors
ĠIt alian
Ġfrequ encies
Ġmat ches
squ are
stack rel
Ġins ert
li k
Ġreconst ruction
head er
Ġinst ances
us band
Ġdivid ed
rib e
ĠYou ng
Ġrecomm end
est ed
Ġextrem ely
ro om
Ġp le
Ġsu stain
Ġpe ace
Ġimprove ment
m ode
Ġ( (
s pe
Ġsepar ation
i pped
Ġlow est
c rit
Ġadminist ration
ad ata
Ġreason able
Ġcol lected
$\ \
t ure
Ġveh icle
ĠE U
Ġle ague
A E
Ġconfir med
rim inal
~ (\
Ġjo in
ĠAmeric ans
res p
Ġtre es
Ġpract ical
st ood
ĠCor ollary
nav bar
Ġpref er
og en
ar ity
Ġo il
Ġalgebra ic
cy cl
V ar
Ġbg color
ĠT op
Ġcl in
og ram
ĠE conom
atur ally
Ġfor ced
f rame
Ġl ens
urn s
Ġgu itar
az z
Ġtop ology
Ġmodel ing
Ġpa id
arg s
l anguage
Ġdat abase
ĠCh ild
Ġofficial s
St art
Ġar c
Ġsim ulated
B B
Ġrepe ated
Ġ" ""
mult line
Ġeffect ively
Ġprot ocol
Ġacc ret
app end
Ġsh ip
im its
M at
S um
e lect
ch or
Ġcom ments
z er
18 0
Ġke pt
Ġ\ [
Ġ{ $\
LA SS
ĠHen ry
Ġabsor ption
Ġsub section
Ġoper ating
B o
h or
the re
p red
Ġneutr ino
Y PE
âĢĿ ,
Ġb ill
al ty
Ġhom ogeneous
ymm etric
197 9
uss ion
ele ment
w t
Ġdisc overed
Ġdri ve
m iss
ce il
Ġ+ =
Att ribute
Inst ance
ĠB as
ĠPh ys
os oph
Ġfig ures
un ch
row ser
Ġsc ope
od ay
Ġmom ents
Ġstraight forward
ĠM any
form ance
Ġdriv ing
ru ck
Ġend ed
Ġp uls
ĠG r
Ġvict im
Ġpers pective
h l
H el
x ml
\ },
Ġdec ades
ĠCh ief
Ġinter mediate
clus ive
T C
Ġbecom ing
ad er
{ |
Ġpolynomial s
the less
Ġfund ing
Ġcharacter istics
ĠMart in
sh ort
Ġc ities
ch ain
Ġcompos ed
Ġ\ {\
W id
Ġcontin ues
Ġa part
ct ic
Ġ ur
Ġd ensities
Ġs end
inst ein
Ġfam ous
Ġhoriz ontal
l at
ĠChampions hip
Ġt ag
n ol
. $$
Ġbal ance
her ical
Ġcolumn s
Ġh ierarch
ra ma
ov ed
Ġmanag er
Ġvari ations
Ġviol ence
f ull
ap pe
pro duct
tain ed
fere d
app ed
Ġposs ibly
Ġun less
Ġprec ision
w ave
ot on
12 5
Ġmole cular
Ġdecre ases
Ġed itor
org an
Ġcomm it
li e
Ġoffic er
Ġ ~\
h ar
math tt
Ġrecogn ition
sy m
G l
O ff
ad s
poss ible
w a
ĠW al
ell er
p op
Ġanaly tic
ĠRec ords
ĠV er
E ar
A m
d ens
Ġmed ian
aram s
Ġvac uum
N ull
Ġold er
Ġm ask
Ġtransition s
Ġmet al
Ġenh ance
ĠN one
Ġcru cial
J ohn
Ġcam era
Ġep och
Ġsum mary
Ġsk y
Ġh ospital
com es
st s
Ġl ived
requ est
em b
Ġcult ural
G u
ĠE nd
Ġinc ident
ĠL ord
ĠSp anish
Ġorgan ized
U s
Ġch ief
eg er
Ġenvironment al
Ġar rest
Ġsubsequ ent
Ġcall s
Ġl ock
Ġl abor
\ }.
Ġcre ation
etail s
sh ire
}) ^{
198 1
Ġper haps
Ġexpect ation
ĠI S
Ġext ent
Ġsens itivity
[ "
ĠA cc
ĠP y
P D
Ġver ify
ĠK n
}[ !
ic ular
ĠL ee
Ġconsist ing
ĠSe cretary
low er
ĠĠ čĊ
ĠS aint
Ġ- --
ĠF ield
ĠI ss
Ġreg ression
Ġcitiz ens
Ġwas n
ist ed
N on
Ġinvest ment
, ...,
ad y
Ġre ferences
S ome
Ġsens itive
00 1
ĠL og
II I
Ġstrict ly
pro pto
ĉ Ġ
li ography
Ġorth ogonal
ĠS up
s d
j son
big cup
) ).
Ġp ush
Ġin ference
Ġdemonstr ated
ĠV ictor
}{* }{
}} ,\
up date
os es
ĠGe org
Ġre ality
Ġl ibrary
p ower
inv ariant
n i
ĠT our
Ġrepresent ative
Ġcontinu um
lo pe
Ġpl as
Ġdispers ion
Ġsche mes
Ġst ations
Ġp ackage
Ġview s
Ġhapp ens
ĠD et
Ġcomple ment
&= &\
Ġwin ning
umn i
Ġabs ence
T oken
Ġex ceed
ĠSim ilarly
S che
Ġle aving
rins ic
Pro position
Ġlat est
Ġrandom ly
L ocal
Equ al
es ter
Ġsub space
ST ATE
Ġelect rons
Ġinvol ve
Ġoff set
B O
Ġshe ll
ĠJose ph
Ġclos ely
Ġde ploy
Ġdiff usion
out put
Ġch ance
Ġp owers
Ġderiv atives
Ġtraject ory
Ġsen ior
rast ructure
ĠJ o
E l
__ __
Comm and
Ge V
i able
n m
Ġh uge
ellig ence
Ġdevelop ing
Ġcon vers
r ates
ĠR ail
w orld
Ġtre ated
Ġdiv ision
AM E
p rivate
Com p
text normal
et ch
ex pected
ĠIt aly
$ '
form ing
Ġdom inant
}{ }
ĠM iddle
) [
j ust
Ġweight ed
Ġsimilar ly
p ic
j a
t or
Ġproport ional
Ġconj ug
ell a
y er
Ġben chmark
Ġprec ise
Ġcan cer
ug in
\ }_{
L R
Ġcontrib ute
E m
s rc
> >
Ġorbit al
Ġdefin es
in ction
Ġh usband
19 50
od ies
Ġsex ual
Ġvo ice
ic an
Ġt ight
ĠS U
urb an
Ġin clusion
Ġenc oura
est ic
ĠJew ish
he nt
f ind
Ġlik elihood
ĠIn formation
ed u
ĠK ar
ĠW ay
Cont ent
Ġt ang
Hand ler
" ).
ult ural
M D
ĠJohn son
Ġemploy ees
Ġle aves
pro v
Ġstat ements
T wo
iem ann
ĠTechn ology
s ince
D ist
serv ice
M F
S H
Ġun iversity
Ġof fered
Ġse a
Ġn ine
ĠP a
Ġinst ant
as y
ron ic
ĠAs ia
ject ed
Ġrestrict ion
Ġdefinition s
Ġro ute
du le
Ġneut ral
Ġvary ing
t rack
sub equations
Ġcho ices
im ately
Ġre action
M on
Ġcomm ission
ĠBu ild
Ġsa fe
z en
force ment
Ġaward ed
Ġalbum s
h ot
Ġscient ific
all ow
ortun ately
ap es
Ġf aster
p ush
Ġc atalog
Ġhouse hold
Ġc av
ub ble
ĠFil m
ĠS D
Ġfun ctor
RE F
c hen
ĠF und
Ġinput s
oth ing
Ġact or
Ġfl ag
B H
ex ists
ru ctions
im ation
Ġclaim ed
Ġa ircraft
Ġsecond ary
Ap J
Ġ ..
el ess
Ġrestrict ed
ĠGo ogle
Ġleaders hip
}^{ +
Ġjob s
Ġs ales
P H
Ġhe ard
ĠEqu ation
197 8
cite alt
ĠM ur
D uring
ĠL ine
) }$.
Ġsur faces
Ġ _{\
Ġb us
ĠM ethod
he m
Ġcharg es
Ġst orage
ĠÂ £
ans as
Ġprote ction
ock et
\ [\
Ġorient ation
Ġelectron ic
Out put
Ġf ol
al ities
Ġsc ores
lo ok
) >
ĉ ĠĠĠ
u er
Ġlarg ely
G R
c are
ob serv
Ġcorrel ations
Ġirre ducible
m al
Ġpl us
Ġpix el
_{ +
Ġsystem atic
ult y
B M
ĠH y
ip eline
ĠB r
i en
ĠLag rangian
ĠW ood
th on
Ġlaun ched
ĠS k
rep resent
h ard
Ġ elli
all ery
fil ter
var iance
197 6
ce an
I O
ov iet
C F
t z
Ġ( "
P age
ĠC NN
ost on
B R
su pp
in ating
ã ģ
W ork
t ed
small skip
ip art
\| ^
Ġp apers
ĠE mp
V is
me an
Ġun iqu
Ġcommon ly
Ġro ll
ĠUS A
p res
Ġbroad cast
ish op
du ction
erm i
g ar
Ġrough ly
Ġunder stood
ĠJ es
25 6
Ġreveal ed
Ġpro position
w er
de p
Ġre ward
od d
Ġ ice
Ġinter ior
ĠA p
def n
ĠCarol ina
Big g
Ġdist ances
Ġdepart ment
Ġsh oot
Ġdiag n
ĠS i
Che ck
ĠSt at
Ġs ession
cont rol
} >
Ġp ool
st atus
ĠS il
Ġex cess
ĠT er
ou nce
Ġc odes
6 00
C K
dom ain
Ġgener ator
Ġb attle
^+ $
rib uted
}^ +
Tr ue
Ġcomm ut
Ġr ich
p he
Ġf ill
Ġupd ated
form at
ĠĠĠĠĠĠĠĠĠĠĠĠĠĠĠĠ ĠĠĠĠ
ĠP ak
Ġvers us
ian o
197 7
ĠT im
}) =\
Ð »
Ġr an
is ters
ut ch
Ġco oper
Pro v
w an
ĠSt and
ph ase
Ġf lex
Ġintrodu ction
in et
Ġl anguages
16 0
angle ment
er ion
Ġch ampions
Ġsc ript
Ġcover ing
Ġa ug
Ġsuccessful ly
Ġsimilar ity
Ġpan els
Ġdom inated
Ġkn ew
al let
ĠS N
r ative
lic k
Ġmet all
ĠC ase
prob lem
ri p
ra q
D isc
S ON
Ġsent ence
Ġj ump
Ġpro min
* /
ac ific
ĠĠĠĠĠĠĠĠĠĠĠĠĠĠĠĠ ĠĠĠĠĠ
Ġdraw n
Ġded icated
Ġbelie ved
ĠG ood
Ġexec ution
g al
Ġillust rated
not e
B U
Ġqu ot
Ġcontrol s
Ġinvol ves
ĠCom put
Ġanaly ze
Ġsu pers
Ġextract ed
Ġex cell
ĠN S
ĠJust ice
pa in
av or
new line
B L
Ġli qu
G S
$ }}
ĠPl ay
at ers
f ort
C N
Ġtri ed
Ġ }}
Ġinvestig ated
empor ary
Ġprim arily
Ġrespect ive
ĠF estival
Ġflow s
A rt
ap se
ĠC ast
Ġread y
ent ry
al ing
Ġex pos
Ġext reme
g ency
Ġcontroll ed
rid ay
ĠA nother
Ġat omic
sy l
Ġhapp ened
Ġca uses
com b
Ġissu ed
25 5
{ .
Ġter rit
L ong
ĠF ace
E ach
ĠSund ay
ĠA ff
me asure
u on
ta il
Ġpres ents
Ġto uch
197 5
ĠJ im
Ġto urn
Ġco ast
Ġd rug
A nother
r g
ĠS ervices
c ross
Ġb r
b c
Ġfeature d
Ġsp here
ĠS pe
Ġaccret ion
ĠR am
ĠH ome
Ġsupp ly
Ġex erc
Ġart icles
in ity
f ound
Ġown ers
d ensity
av ed
197 2
Ġconcern s
10 1
197 4
Ġempir ical
Ġmon itor
ĠO ld
Ġv ision
Ġj our
in em
Ġge odes
ativ istic
Ġinstit utions
g ray
ĠJ ul
Ġestim ator
Ġcon nections
Ġend s
Ġst ead
F ONT
Ġn aturally
Ġsimplic ity
ĠSh ow
Ġtrans verse
R C
ĠGl obal
Ġdec isions
Ġf ans
ĠMan agement
Ġca ref
) }$,
ĠT HE
Ġdomain s
ian a
Ġcertain ly
Ġdef end
V ER
l en
r ust
Def ault
ĠDe finition
Ġf if
ĠB ern
T O
ĠC amp
al so
res ponse
Ġany one
Ġcrit eria
Ġbre aking
rack et
ynam ics
f ol
conn ected
lear ning
ĠT re
Ġal gebras
Ġchalleng ing
) _{\
g ate
it ory
Ġcharacter ized
Ġhoriz on
Ġ\ }
Ã ¨
Ġexc ited
ĠCol umb
Ġb lood
m f
Ġdiagram s
Ġmus ical
ĠM ajor
Ġvers ions
ĠBrit ain
Ġconflic t
es ides
O ptions
Ġint ended
AB LE
197 3
ion e
L oad
" ),
Ġacadem ic
Ġun iverse
AT ION
ĠSc ot
E Q
Ġhand s
ar ial
Ġtw ice
ĠT aylor
l ayer
os h
ĠEx p
Ġdoc uments
Ġrequire ment
G o
sc ape
Ġapp lies
ĠC D
K E
Ġfind s
gl obal
ph y
or a
ren cy
ĠD E
ĠD om
Ġpass ing
ĠC ivil
Ġk ing
it udes
Ġm unic
ref erence
int ro
Ġstrong er
ĠWe b
function s
Ġsimultane ously
Ġoffic ers
Ġexec utive
ĠL ove
Ġmod ules
st d
Ġm eta
ĠOr der
Ġcar bon
ĠF ederal
Ġpre m
it an
u ple
ĠS om
Ġst abil
at on
Ar g
Ġaccept ed
Ġd aily
Ġis land
Ġc old
Ġpre par
ĠA GN
Ġresear chers
ens es
T em
ur ies
ĠE nergy
Ġgeneral ization
ĠR un
gy pt
Ġconver ges
........ ........
Ġtest ed
L C
ass um
Ġfac ilities
Ġf ont
er g
or ney
Ġresid ents
ĠF ootball
A g
_{ [
Ġphot ons
ĠS wed
van ia
Ġinter pol
Ġsol ved
Ġanal ys
Ġreconst ruct
Ġv ort
| _{\
Ġprodu ces
D ec
ĠPar liament
Ġth rows
Ġse cret
Ġf re
u ps
Ġclos er
St yle
et he
ar ma
Ġw ild
p ack
Ġeigen value
F urthermore
d ifferent
Ġtransform ations
ĠJ ones
Ġentire ly
Ġsing er
air man
Ġp sych
ist ence
Ġgl ob
ire ction
Ġwe ap
Ġcon ference
ĠE very
ig u
ĠH on
Ġc ir
Ġopportun ities
ĠSum mer
Ġth in
Bu ffer
if ul
Ġsat ell
Ġd ip
Ġpost erior
Ġequ ip
w hen
c p
G eneral
Ġra ise
ĠProfess or
Ġpolit ics
ad el
Ġrat ios
Ġf its
ĠC ross
ol es
Ġme ant
Ġsepar ated
Ġcondition al
Ġb rain
Ġb ra
, .
Fact ory
rib ed
M en
ĠG en
ĠH or
A cc
Ġdiscuss ions
Ġa w
ucl ide
V ersion
) ),
comple te
Ġdif fer
Ġc risis
s igned
mod ules
Ġcompar able
IN T
Ġinterest s
ab ove
ĠBra zil
yn c
Ġc row
Ġen semble
Ġphot o
ĠOlymp ics
' .
Ġw itness
Ch ild
p ot
v dots
ca pe
;\ ;
ul ing
A F
12 3
ĠMus lim
c ategory
leq slant
Ġim ply
M O
Ġaug ment
b our
ĠF ort
so le
D O
ul ating
ĠV is
P RO
ĠEx ec
Ġbusiness es
int s
are st
st rap
Ġiter ations
Ġfe as
u v
ĠM en
Ġtop ic
el a
com ponent
Ġindu ction
c ard
Ġen able
Ġent ity
ro ot
iction ary
sp in
Ġauthor ity
Ġp ages
B undle
Ġfund s
st ates
un ing
const ra
cer ning
ĠAd minist
Ġdou b
as cript
os is
Ġent ered
Ġadjac ent
ĠL ibrary
Ġatt ribute
b d
B E
_{ -\
Ġsymbol s
Ġnear by
ur ance
ĠInst ead
Ġag reed
ĠG re
le ep
ĠAs sembly
Ġdef ect
cknowled g
Ġlog arithm
uclide an
ura ble
Ġp il
i y
Ġident ification
v o
Ġn ative
oot strap
Ph ys
ĠDemoc ratic
| _
Ġ{ }
script scriptstyle
Ġf ear
Ġcons ult
Ġlaun ch
Ġunit ary
G A
Ġinterval s
Ġpotential ly
R ow
Ġparticip ants
Ġdiv is
Ġthan ks
Se cond
ĠE lect
ĠCent re
Ġbro ken
List ener
inst ance
Ġconcent ration
ĠS ar
8 00
Ġstation ary
Ġis omorphic
ĠA wards
m atch
Ġprob abilities
H O
Ġdriv en
ent ed
Ġli ber
Ġcapt ured
Ġbound aries
ic ed
T ree
Ġow ner
ĠWil son
m ond
Ġcol our
) &
G M
h r
b lem
Ġcompat ible
196 8
com ment
^* _
ĠStud ies
id en
Ġdem oc
Ġapplic able
ĠI raq
Ġrelations hips
Ġcosm ological
V D
Ġpre tty
b olic
ĠH ot
ard en
Ġtrans action
ad ed
ort ion
al f
h ave
} ~\
not in
}{ {\
Ġcoll ision
l ayout
Ġclust ering
Ġtrac ks
Ġear th
ĠN orthern
ear ning
d ashed
ĠSup reme
P M
bel ow
AR T
ĠSe curity
ĠH ilbert
t ask
' $.
Ġro ots
Ġadv oc
ad ium
Ġcompar ing
M ark
D at
Ġm obile
Ġcov ariance
Ġhe av
Ġpart ner
ĠN avy
B I
ĠWilliam s
ĠR E
\, {\
O pen
Ġb ran
og ether
Ġdefin ing
Ġengine ering
Ġcontrad iction
Ġdis cret
end if
d ocument
Ġhe ar
i ro
ar n
Ġins pired
ri end
Ġpropag ation
Ġconcern ed
ĠSen ate
men u
Ġd t
Ġmar riage
if er
im a
el d
Ġstand s
Ġstud io
ple x
get s
cur s
ĠMark ov
Ġco al
syl vania
ĠU V
Ġbelong s
= #
ĠW all
Ġreg ional
Ġd ie
s en
Ġturb ul
Ġsurround ing
sub stack
Ġw ood
ĠN av
Ġout come
Ġs ave
s g
ĠT em
per iod
ail ed
Ġcred it
] =
Ġtem plate
197 1
nol imits
Ġfram es
Ġrad i
d irect
part icle
ĠP oint
val ued
196 9
ĠL ore
Ġbrief ly
Ġpseud o
G E
Ġf ib
ra ise
' ll
Ġpur su
ĠC y
Ġext ensive
M ain
ĠC amb
Ġlook s
ib ilities
ĠEq s
$ _{\
De finition
gh an
Ġp p
ĠB oston
Ġimmedi ate
oc key
Ġsomew hat
ĠCor por
Ġcomplic ated
s ample
Ġmanag ed
}} =\
se m
Ġse vere
re ci
we et
ĠR ights
is er
Ġpriv acy
ta ke
ĠCommun ity
and ra
ĠN ext
cell color
atur day
ĠW ell
\, ,
Ġt error
h s
Ġm ental
ĠA R
C ON
Ġserv ing
Equ als
Ġconserv ation
at i
og rap
Ġadv ance
Ġm iles
now ledge
Ġcount y
Right arrow
ĠS oviet
ĠC r
Ġautom atically
mom ent
S ing
Ġserv es
e ven
ĠF red
Ġwrit ers
Ġmechanism s
U I
Ġsk ills
Ġs outhern
Ġprogram ming
Ġopin ion
b ug
ĠVal ley
Ġv ot
Ġm ac
Ġw ish
ĠY our
old er
ĠF urther
Ġw ants
Re call
bu f
B efore
Ġsp ot
Cre ate
ĠB ase
Ã³ n
Ġlabel ed
ĠM C
ĠE X
ab eth
Ġassoci ation
ĠSpec ial
Ġtraject ories
F O
St ep
ĠP ri
ĠG ener
Ġatt end
ĠMon te
Ġc ub
Ġwon der
t yp
ph one
Ġdecre asing
st one
st ances
im pl
b ell
Ġcr ime
ĠF riday
Ġs lope
ak a
am in
ĠJ un
l ife
ĠTe am
W indow
Ġatt ended
el ian
}\ ;
Ġaud ience
ĠAn y
Ġte aching
Ġg ate
Ġl ic
Ġf ra
Ġz one
ĠJ eff
Ġsupport ing
} &\
ĠOn ly
Ġbu y
}} )$
ĠD C
U nder
con duct
pt r
param s
du al
ĠEx t
F S
Ġcomp re
e fined
Ġed ition
ĠSp ring
Ġ< !--
// /
ĠG reek
ond ay
Ġfind ings
Ġcirc uit
ot i
Ġf ashion
ab y
Ġread s
Ġsc ored
ĠOr gan
ray s
Ġab stract
ers et
} <
ov a
Ñ ĥ
Ġvalid ation
ĠCol or
K e
Ġf ul
Ġm essages
al i
Ġsu c
ver age
)= (
Ġrem ember
ĠR ay
Ġexplan ation
Ġp ulse
ĠS outhern
Ġsum m
ĠLi ber
Ġref ers
Ġpl ots
Ġthous ands
rad ius
ut or
Ġf ellow
Ġto ken
Ġkin etic
ov ing
D ev
ide os
Ġcor ner
Ġn orthern
) |\
Ġd uration
Ġbo ost
g roups
ĠDe v
Ġreson ance
ĠPol icy
Ġinteg ers
ĠMed ia
u zz
Ġembedd ed
ĠĠĠĠĠĠĠĠĠĠĠĠĠĠĠĠ ĠĠ
Ġcon sec
comm on
Ġsmall est
Ġl aser
ĠC all
Ġdis joint
Ġstandard s
Ġpix els
S ym
Ġexhib it
Ġveh icles
Con tain
Ġ era
& $
Ġd anger
Ġhy brid
ic ial
Desc ription
Ġcover s
Ġcomp ens
Cont roller
let s
class es
ent h
Ġthink ing
res pect
ac le
Ġcol le
* \
it age
ĠPo isson
Ġ$\ |
Ġconvent ional
ars er
ĠE gypt
| =
Ġpart ially
ĠA st
ĠAg ain
im er
We b
ĠMich igan
ĠR iemann
Ġcon formal
Ð º
ĠP ower
T ag
Ġgen us
Ġdes cent
cl osed
Ġinf rastructure
Ġp et
ĠM u
Ġco herent
Ġro les
ĠL o
' )$
u ing
Ġperiod s
Val id
Ġs un
ĠRet rieved
}. \
ever theless
Ġindependent ly
Ġlat ent
ĠI rish
ĠJac ob
s n
con v
contain er
M ode
ph ia
L ength
Ġfact s
U psilon
ĠRepublic an
requ ency
Ġoccur red
Ġown ed
Ġsupport s
ad or
196 7
Ġsuc ceed
Ġsp herical
W rit
Ġrob ot
Ġri ver
}) _{
R S
j k
Ġtell s
over set
= -\
A nal
cul es
H D
Ġpl otted
o ir
ĠSci ences
M ed
h av
Ġb ridge
ord an
f ortunately
St at
Ġsubset s
ĠS pain
itz er
Ġd raft
Ġdescrib ing
as et
ĠâĢ ¦
Ġsecond s
p erson
Ġcop ies
Ġth read
ins on
ymm etry
u pi
ĠF ollowing
sing le
Ġsegment ation
Ġsign ature
jav ascript
Ġd ram
Ġcoupl ings
Ġdistingu ish
Ġjust ice
Ġgir l
Ġf iber
ul as
Ġmor ning
ĠN on
p ool
ĠV i
super vised
et ies
Ġadv anced
ino is
Fil ter
Ġcol on
or al
Ġtra dition
at en
ĠSt an
ĠP M
Ġaff ine
ran ce
cor respond
Ġpat ient
ĠG ame
ĠFrancis co
ĠS C
U pdate
if est
r andom
viron ments
Ġang les
spec ial
Ġprofess or
in istic
Ġtarget s
Ġmov es
. }\
Ġkeep ing
ĠJer sey
ĠOh io
ff ect
Ġag ency
ĠMed ical
z o
un te
includ ing
Ġposs ess
iz able
c over
Ġwhe never
Ġan isot
ĠB a
ick s
ĠPenn sylvania
Ġre v
ĠB ell
' $,
Se lect
um ul
Ġrow s
n etwork
r floor
Ġferm ion
au x
Ġch iral
Ġexpand ed
D T
Ġat om
l floor
Ġstruct ural
is en
ĠA v
Ġpop ulations
à ¤
Ġdef ense
Ġport ion
' =
Ġacqu ired
af e
sub float
Ġh our
ĠH a
ow ski
Ġd oll
Ġenc oding
Ġequip ment
el ines
Ġliqu id
' ).
or ough
ĠOb ama
ord ers
Ġent anglement
Ġbegin s
Ġsee k
in itial
am ber
' }\
is y
Ġal umni
rom e
Ġconsider ation
es h
ĠCon ference
S te
id ents
Ġb asketball
ĠB ow
Ġcounter part
Ġh ab
appro xim
l oss
Ġrecogn ized
Ġreal ized
Ġin vert
Ġsp arse
N C
P ar
IN E
ĠA L
S w
Ġneg lig
Ġnormal ization
~ (
ex ec
W ill
19 40
am m
st yles
Ġmed al
Ġg ender
ĠB ol
Ġcustom ers
Ġauthor ities
Ġ& $
Ġdisc over
ĠPol it
Ġnot es
k it
Ġhous ing
ĠE st
tri ang
Ġout per
ï ¿
)} _{\
ud d
Ġview ed
t ically
r ations
ĠB ack
Re v
ĠJ r
y d
Ġad vert
oid al
Ġconven ient
w ater
in dependent
ru it
ĠO x
m arg
Ġele ctions
( &
Ġpre ced
w s
Ġprodu cer
Ġinfl ation
_ .
Ġbig gest
rosc opic
Ġplas ma
gra v
C urrent
ĠI d
ĠK en
, ~
Ġrec ording
Ret urn
man ifold
form er
co ordin
ĠS ir
plic it
Ġarm y
Ġdel iver
ĠW ales
Ġ$- $
Ġisol ated
ĠC are
ĠP acific
Ġtourn ament
ĠC ho
Ġdam age
Ġhel ps
Ġatt ributes
s id
u pload
Ġm ountain
bound ed
Ġrec overy
Ġstudy ing
Ġne ither
k ind
Ġs ell
Assum e
Ġfe et
ĠĠĠĠĠĠĠĠĠĠĠĠĠĠĠĠĠĠĠĠĠĠĠĠĠĠĠĠĠĠĠĠ ĠĠĠ
ĠH aw
rem ove
ĠB attle
Ġbu ffer
Ġa head
T ask
Ġindic ating
l m
Ġst ages
Ġperturb ations
P op
Ġamplit udes
ï¿ ½
Ġcomm itted
Pro p
at ivity
Ġcirc ular
ĠEn ter
e per
Ġredu cing
: </
Ġcy l
Ġc riminal
Ġabund ance
n ic
ĠD isc
ĠGeorg ia
er os
Ġact ors
196 4
Ġdri ver
p mb
) |^
Ġcompre hens
Ġsur ve
ĠFace book
Ġint rinsic
ĠIntern et
ĠP op
Ġguarant ee
paramet ers
ĠH REF
Form at
] ^{
Ġwor st
Ġspl itting
comple x
on to
. },
Ġyou th
Ġ$ [\
ĠL ab
su ccess
I B
ili ary
Ġ{ @
Ġre normal
Ġweak ly
e val
OR T
ĠKore a
Ġsubsequ ently
Ġfor t
ĠM L
her ic
Ġdesc ript
Ġproject ive
Ġdedu ce
ili pp
Ġfrequ ently
ro vers
ĠC R
ep end
ĠA T
ĠBl ue
ĠU s
um es
Ġ url
ĠPol ice
ch annel
19 45
ĠF amily
Ġconf irm
we ak
s ite
G P
Al so
ĠDi rac
Ġcomm ittee
Ġmarg inal
Ġf le
ã ĥ
hom ology
Ġoutput s
s v
F urther
U p
il ine
ĠQ CD
B i
Ġspac etime
ĠD ue
sh ould
tri angle
ĠB C
Ġgener ators
mathbb m
But ton
ĠL ocal
ĠA uthor
iz abeth
Ġcrit erion
ĠF ar
Ġm useum
Ġhe ter
h ow
ĠF ermi
Ġvict ory
Ġg rew
P ort
ĠMin istry
19 30
Ġpoint ed
d rop
Ġaccount s
P at
Ġproper ly
ul ner
ĠEmp ire
Ġfac ilit
b ool
ĠCon n
ĠW ater
ĠC ode
here nce
ent ity
ĠS and
et ts
w ill
ĠAnd rew
ĠV an
Ġimplic it
ĠJ oe
W S
uck y
Ġse asons
Ġindust rial
Ġharm onic
Ġwe alth
pr im
Ġne ur
ĠAs ian
Ġor bits
Ġb ary
ap ed
Ġb atch
tt p
ĠAssum e
osoph y
att r
r ateg
Ġfin itely
ubl ished
on ed
X X
Ġar ise
ĠQue en
Ġneut ron
ĠC H
Ġg r
C V
Ġim possible
Ã §
T ypes
Ġb oy
Ġflo or
math ds
G D
ĠE r
w all
Ġall oc
f r
Ġstre et
Ġf illed
Ġinstit ution
fl at
ĠLat in
ĠF our
ĠM ot
ann er
Ġpromin ent
Q L
196 5
ĠRad io
Ġkin em
st e
Ġ ĉ
im b
t b
Ġdi verse
Ġ urban
Ġeas ier
Ġcon dens
Ġd iversity
Ġcoll apse
Ġrapid ly
Ġcoun cil
Big l
& -
ul ator
Ġw arm
ĠJack son
ĠRep resent
Ġmag azine
syn c
Ġdec ade
Ġs port
bur gh
D om
Add ress
ĠN GC
Ġexperi ences
}^{ (\
ĠG i
ĠA M
? âĢĿ
Ġperform s
lear ly
Ġcho osing
ĠTh rough
ser ies
Ġtri angle
Ġso le
Ġsem antic
ident ial
ch itz
ER R
ik i
Ġlinear ly
ĠC LASS
maz on
ĠIll inois
b ury
ĠL ast
= (\
spec ific
Ġvan ishes
Ġcir cles
Con n
F ollowing
ict ures
ĠPak istan
Ä ģ
pro perties
Ġcomplet ion
M ay
Ġear ned
ĠU p
am ed
Ġsuff ices
Ġact ress
ĠS E
Ġcol ors
Ġord inary
% )
Ġpres c
I E
Ġp erman
ir ror
Ġstead y
Ġloss es
n umer
os a
Big r
Ġsepar ately
Ġan not
ĠL icense
ĠS aturday
V M
lim it
f iles
' ),
ane ous
ĠM onday
op her
ĠB al
amp ion
Ġre form
pl ain
ĠU k
nt z
Ġoper ated
Ġin sp
E v
par se
EE E
Ġhol es
id al
re q
Ġe mail
ĠO nce
Ġsit uations
C olumn
Ġsh aring
ce ived
Ġ} {\
Ġfl ight
if iers
t otal
Ġ$ $\
Ġadm its
}) )
Ġcontroll er
11 1
ĠC ard
Ġfac ility
ĠComm on
e z
Ġanaly tical
ĠI V
Ġfootball ers
au g
Ġ }$
det erm
Sim ilarly
Ġre vers
Ġpercent age
ig ital
Ġcon e
Ġcorrespond ence
R T
An y
field s
L ayout
ĠT ro
H ome
ĠHe ad
Ġreview s
ink ing
res ol
V ol
Ġnew ly
=" ../../
adel phia
ĠK ong
p ref
Ġanalog ous
Ġpie ces
Ġvir t
f ast
Ġinterpret ed
eles cope
Ġspe aking
Ġaver aged
Ġmathemat ical
v ard
Ġreal istic
Ġarriv ed
Ġneighb our
um ps
upi ed
mod al
pol y
Ġs ister
ta x
Ġb att
Ġnon zero
ĠR a
Ġpropos al
Ġre ly
Ġtr unc
Ġmon ot
S N
ĠB an
ĠB ul
Ġhom ot
ry pt
Ġsee ing
F ix
Ġult imately
te en
Ġanc ient
ĠPal est
Ġtalk ing
}_{ {\
B as
ĠCE O
Ġregist ered
Ġillust rate
< ?
196 6
k ers
Ġem ot
p in
out e
pe ople
Ġclass ifier
ĠG ir
ĠF ree
Ġm ys
Ġdom estic
B P
\ -
}_{ (
Ġpre pared
eng er
ĠB H
ĠE uclidean
ach us
Ġgener ality
Ġ$ <
A c
ĠT ri
ĠE astern
cc c
ĠTr ust
S l
ĠCar l
Ġperform ances
G r
Ġhom omorphism
CO L
V er
Ġrepl acing
u ated
Ġd og
cl os
ĠIn vest
om et
on ym
ĠG rant
Ġ ens
eng ine
Ġh op
Ġw el
phys ical
Ġph one
Ġch apter
\ /
\| _{\
B N
ĠScot land
sh arp
@ {}
Ġar rang
ate ver
Ġes cape
Ġpeak s
Ġin dependence
Ġd ream
et ing
Ġcap able
est ion
ĠCol l
l ay
ĠK enn
Ġvari ant
Ġveloc ities
Ġpract ices
Ġsh ares
Ġa ux
19 20
ĠN AS
Ġc ars
Ġsp ring
B bb
Ġen vironments
}} }{
ĠN Y
Ġw ire
Ġsampl ed
ĉĉĉĉ ĉĉĉ
n ings
//////// ////////
U C
). }
Ġlog ic
Ġconstra ined
}) -
ĠB ir
Ġob j
pro to
g rid
Ġinter ference
ĠA PI
requ ire
ĠM id
ps on
Ġover lap
G en
Ġe ye
**************** ****************
am l
Ġclos ure
Ġlet ters
auto ref
Ġhyper bolic
enn is
in ternal
Ġb low
cy cle
}_ +
ed nes
)} =
Ġcommun ic
w indow
Ġcon cerning
Ġa id
he red
Ġgreat est
Ġdec ays
A cknowledg
off set
nam ed
Ġappe al
r ine
ĠDan iel
icro soft
place ment
D I
ĠL O
UR L
Ġattempt s
ĠBro ok
ag n
Ġconc ert
m ic
int on
ĠT ele
Ġro ut
u able
Ġindu ces
b ro
ĠOb serv
b efore
ip ation
Ġp y
chang ed
Ġrang es
ĠAd ditionally
Ġv ideos
Ġk ids
Ġf aces
CO DE
b etween
urs day
ST M
Ġpl anned
w as
Ġarg ue
Ġs oc
Ġgl ass
W E
ou ds
ath an
Ġcross ing
ĠG ar
conn ect
Ġcollabor ation
Ġwor se
Ġexcell ent
il a
Ġsm art
achus etts
ĠThe atre
Ġm ere
e ach
ĠN a
Ġt ick
ĠSpec ifically
Ġdisc overy
de ep
Ġrec urs
ho le
m etric
Ġr id
an alysis
ĠK ent
ors hip
ĠDes pite
h skip
Ġfore st
Ġb its
Ġcool ing
l b
ograp her
Ġm ob
ĠR ight
M I
ĠD ou
Ġcount s
Ġquot ient
S cript
ian g
Ġamount s
B ecause
f amily
) )$.
Ġref lection
t ex
' }$
Ġex ponent
Ġsh arp
Ex ample
: (
Ġhon or
fra red
Ġcl ients
iam ond
the ory
H L
}= (
}\ }$
ĠS to
ĠC ur
Ġarm s
t ensor
_{ {
Ġc ere
) !
Ġb odies
ĠL ight
P erson
Ġhas h
end ar
d est
ru gg
ã Ĥ
Ġjud ge
\ }}
en um
ues day
le ments
hed ral
o is
' d
Ġprinci ples
ad i
Ġs an
Ġcav ity
v as
ĠAd v
equ al
Ġse p
Ġpublic ation
Ġprov en
z h
Ġrest aur
Ġfe at
Ġcon jecture
' ',
Ġaccom pl
ent er
Ġlink ed
ĠCon f
ĠRe port
`` `
Ġa cknowled
Ġc e
k ip
ig er
Ġcoll isions
ĠH om
ric ket
ĠĠĠĠ ĠĠĊ
ĠN ations
ĠTw itter
ĠW he
ple ctic
Ġprob e
ĠRem ark
Ġclass ified
sol id
Ġsupp osed
Ġcall ing
Ġf itted
Ġmur der
13 0
ĠPr ime
Ġsch olar
Ġrece iving
Ġcan cell
in als
or row
Ġent ertain
Ġpl ate
r ase
Ġmod er
ĠH ospital
Ġsignific ance
ind s
Ġappro ved
un iform
ĠM ain
ĠS O
Ġleg isl
Ġman ip
f n
ol is
ĠE nt
Com parison
Ch ang
ĠSe a
Ġst ored
ĠLi ke
ak i
ent ric
O pt
Ġconsec utive
. (\
R ed
T YPE
Ġconsist ency
Ġab use
Ġprodu cing
Ġupd ates
Ġsynt hetic
Ġclin ical
Ġlook ed
Ġconsequ ences
x rightarrow
ĠInd ust
ĠI mage
Ġphenomen on
#### ####
Ġcy cles
V ari
st ud
p resent
trans form
Ġsubstant ial
Ġv ice
Ġorder ing
Ġtransfer red
Ġconcept s
b es
l ers
Ġch a
Cont rol
ĠM aster
im od
res ize
ĠJ on
ednes day
Ġsyn chron
Wid th
ĠM ount
Ġexpos ure
Ear ly
Ġdeterm ines
v skip
or ient
ĠW ild
Ġrestrict ions
Ġcorrel ated
Ġtri ple
Ġd war
Le vel
ou st
is lation
ĠRes ults
Pro cess
Ġanim als
AN D
ĠTh ree
opt imal
an aly
Ġembedd ings
] _{
t i
Ġ raw
Ġexperi enced
ch y
D et
Ġelement ary
Ġdisplay ed
perim ental
M et
S m
l r
sim ple
ĠCo ast
ser ve
Ġenc oder
ĠR en
Ġ[ ]
Ġf uel
Ġinter sect
Ġob st
ĠUn ivers
Ġmot or
und erset
Ġun stable
Paramet er
re a
Ġmark ets
Ġpolitic ian
Un it
Ġexam ine
S ign
Ġincreasing ly
ist ing
ird s
M c
Ġdepict ed
Ent ity
ĠV iet
Ġproced ures
ru ption
Ġun able
ĠEx ample
v m
Ġresult ed
au gh
const ruct
G G
Ġ Î
ĠEd ward
Ġfif th
ific ial
sh ape
Ġsec ure
ĠBro ad
clud ing
Ġasympt ot
it les
Ġre new
Ġarg ued
Ġprov es
ĠD ar
d z
d riv
it o
ĠC a
ten ess
Ġre fere
ampl ing
Ġp rices
c ov
ar ters
ra pper
Ġproject ed
ac cess
ĠIn itial
ĠS ong
N T
196 3
styles he
s es
U V
H M
lement ary
ĠM ach
ger y
ĠA D
ĠEngine ering
ĠL ittle
Ġgener ates
ĠM ah
Ġdis pl
Ġful fill
Ġre plic
Ġt ens
rap y
Ġco ok
Ġ })
ĠCh ris
Ġapp reci
ĠL abor
T arget
ĠDes ign
ĠO R
ĠC art
Ġsign s
ĠOx ford
ok es
Ġgu ess
olog ist
no ise
ĠJes us
Ġd ialog
ĉĉĉ Ċ
ut ely
writ ten
in er
Ġim aging
ĠColumb ia
Ġp lease
" |
v able
S i
Ġconsum ption
\, .
d ouble
Z E
Ġen em
Ġw estern
opy right
G s
Ġintegral s
Ġrespons ibility
ad v
ĠE instein
ĠEn vironment
Ġcal ibration
ĠM ic
Ġfin ish
ĠM A
ĠA P
S ol
Ġregard ed
hy per
th rough
Ġsubject s
Ġ\ #
Ġexcit ation
Ġg one
Ġhard ware
ul f
Ġse at
ĠReg ister
Ġf an
T rack
Ġan tic
Ġopp osed
Ġflo at
m atic
ir us
ĠN ight
Ġmole cules
on ia
Ġinfin ity
Ġut ility
Ġr ating
em an
14 0
t im
Ġmin ister
Ser ver
}\ !
Ġpers ons
S earch
Ġde formation
Ġd rama
Ġgu ide
ĠCons erv
ĠM S
all s
ĠF C
Ġd rum
ĠMass achusetts
=" -
Ġb ars
Ġacc ord
Ġtechn ologies
s a
fact or
Ġinequ alities
D av
Ġanalyz ed
ĠGovern or
ay a
Ġv ulner
cent ly
or i
am i
}} }$
ĠExec utive
ho ok
fin ement
Ġsurpr ising
Ġrelax ation
ĠW is
Ġbeaut iful
Fig ures
Ġprof ession
as i
k ov
ari ate
Ġappear ing
ĠAf ghan
Ġin form
Ġvocal s
il ly
10 5
Ġsold iers
Ġaud io
Ġa wards
ĠK ey
Ġhom es
g ood
++ )
M ulti
ĉ čĊ
ĠEl izabeth
fig s
1 12
Ġd y
Ġassign ment
> ,
k g
Ġatmosp here
Ġm and
Ġequ als
Ġtrack ing
Ġadapt ed
( |
ĠN C
ĠMe an
% ;
Ġarri val
Ġn arr
Ġrelig ion
Ġhous es
Ġre nder
Ġv on
ĠĠĠĠĠĠĠĠĠĠĠĠĠĠĠĠ ĠĠĠĠĠĠ
h d
u pper
P a
W rite
Ġcomb ining
n one
Ġcall back
Ġ! ==
Eng lish
ro b
Ġnumer ically
Ġcircum stances
th ree
aw are
Ġcent ered
clud es
ĠH ong
ĠC as
Ġse ed
^{ [
}, {\
}}\ \
="../../../../ ../
ĠB ang
Ġpresent ation
Ġhe ro
" ))
D r
Ġclass ic
iline ar
ĠCar lo
c ounter
ĠM ountain
tra ining
Ġcont rovers
Ġhold ing
equ ival
ific ate
vert ex
Ġformal ism
en ant
pert urb
Ġgrant ed
a uth
Ġinst ability
che ster
col l
Ġcamp us
Ġf resh
Ġaim s
Ġenh anced
Ġthem e
Ġneighb ors
' )\
ĠP en
ĠS P
in ates
M any
A ccess
u u
B ook
Ex ec
Ġfeas ible
Ġprom pt
is ons
Ġadvers arial
F M
se par
Ġtrig ger
Ġ\, ,
dist ribution
th ur
ĠH and
ĠI P
Ġag ric
R ad
}( -
i ary
Ġe yes
ub b
}$ ).
cre asing
Ġx ml
ĠPhil adelphia
ĠC P
Ġequ ipped
196 2
Ġprom ote
ar ation
Ġen ables
g iven
l arg
Ġ{ {\
Or der
Ġest ate
er ry
M ost
ĠWe ek
se x
Ġb urn
D own
P Y
Ġc od
Ġseg ments
reg ion
bib liography
ĠHistor ic
Ġgeodes ic
Ġintrodu cing
p otential
Ġdo or
ure au
Ð ¼
Ġcon clusions
) }^
Ġhum ans
7 00
ĠU se
Ġcorrect ly
Ġdec ide
Ġhelp ing
Ġus age
ĠE vent
$ (\
ĠP rem
du ate
Ġdis appe
Ġreli able
Ġform ulas
ĠW rit
ost er
u gh
Ġin her
ps et
Ġpotential s
Ġm it
Ġcl ock
O p
Ġatta ched
U rl
{ [
as ters
sat isf
ist ically
writ er
deg ree
dev ice
AC K
Ġtro ops
En c
scale box
Ġepis odes
ig rants
ĠAr ray
U M
Ġwin ner
f ocus
ĠGu ard
ct x
Ġre aches
Ġpol l
ĠIn f
f g
N ational
( _
re ement
sequ ence
Ġc art
Ġexpl os
Ġt ack
ĠChampions hips
Ġpen alty
ĠS che
co in
is ition
p ed
inter face
re du
Ġcomb inations
ĠM ike
ĠF act
i ences
Ġperm utation
N G
ĠV iew
ch ing
con nection
Ġmys elf
eg o
perim ents
D ele
Ġmov ies
Ġm ent
Ġplan ets
Ġre tain
L M
ĠN E
. ;
out s
Ġmulti pl
top rule
ĠChrist mas
Ġlimit ations
Ġbl og
er on
Ġcollect ive
ĠAd am
ĠAb out
): =\
Ġob lig
Ġint elligence
Ġexpert s
T A
Ġconserv ative
Ġpl ants
ĠC irc
el ly
Ġn an
Ġ* *
ur i
osp it
Ġcent ers
Ġout comes
com pact
ĠCon stitution
}} +
C ache
ag ram
id ae
Ġconstit ution
util s
Ġmult ip
Ġeduc ational
ĠW ho
Ġalong side
ĠS ports
Ġalle ged
Prov ider
ĠAlex ander
Ġdiam eter
Ġstre t
ip ality
Ġconstit u
T P
ĠR h
ĠC at
ĠAdminist ration
Ġcut s
-- >
Ġacceler ation
Ġtherm od
Ġneglig ible
t ypes
Ġreg ister
196 1
Ġexp ensive
ly wood
F rame
ĠS em
ĠN et
b rane
con c
ĠOr ig
Ġa thlet
Ġe cho
or ous
art ifact
D em
ĠS qu
ĠB efore
Ġch ose
Ġsh ut
t n
ĠT al
ĠJew s
Ġt ends
s ort
ou the
Ġdifficult y
Ġ\\ [
}| ^
th an
ĠM ember
Ġdeb ate
Ġre in
Ġelli ptic
Ġs ight
ri ver
Ġmay be
C are
w orth
ĠL ew
Ġc ensus
Ġanom al
Ġre volution
Ġwall s
ug by
er al
Ġd il
ĠNew ton
Ġab elian
ĠRe call
Ġgir ls
G raph
ess el
ĠF ile
Ġtop ics
p et
H is
ab et
N otes
ress ive
L ocation
prot otype
D on
Ġachie ves
ir ty
enc ing
im it
ĠM ath
D el
ĠPort ug
or bit
eq q
Ġvan ishing
Ġmat ters
Ġv en
Ġregular ization
Ġhapp y
Ġ\ }$
Ġm al
Ġcomprehens ive
ĠL em
Ġacc ident
Ġmes h
S W
}} ^{(
ĠK im
ht bp
respect ively
Ġform ally
om atic
Ġderiv ation
^- $
ĠPh ilipp
tr im
Ġpar agraph
Ñ ı
Ġcom edy
Ġestablish ments
cl oud
cons istent
y o
Ġm m
Ġfam ili
Ġphys ic
Ġrequest s
ĠR ic
ĠProv ince
Ġscen es
Ġexplain s
Ġfight ing
Ġ ille
on av
gl s
Ġwe ather
}{ $\
Ġreach ing
ĠO l
Ġleg islation
$& $
Ġc ache
Ġcosm ic
sp aces
d ynamic
Ġneg oti
Ġproport ion
Ġeffect iveness
]{ ./
Ġt rib
Ġexerc ise
oupl ing
Ġs ac
Ġassess ment
Ġun ity
Ġne arest
F P
âĢ¦ âĢ¦
s un
B ased
Ġart s
ĠTh ursday
ĠA I
N one
Ġp ipeline
pan el
ell o
ure r
sh all
}} -
set length
Ġpolitic ians
ĠL ater
}} +\
ĠA ND
P an
ĠW alk
Ġr ural
ĠPr ince
)\ ,\
Ġdis order
ĠCorpor ation
ĠLore ntz
or ters
' ,\
, (
Ġoper ate
ict ed
Ġhundred s
Ġth r
ĠJ ordan
Ġdi vergence
she ll
Ġscient ists
Ġret ired
ĠĠĠĠĠĠĠĠĠĠĠĠĠĠĠĠ ĠĠĠĠĠĠĠĠ
) ~\
Ġas sets
Ġdo ctor
ĠT uesday
Ġassist ance
Ġdeterm ination
Ġ ^{\
Ġhistor ic
Ġp un
hold er
let ter
f ixed
Ġfail s
Ġhe aring
}$ ;
ĠB BC
Ġst rugg
ĠP DF
Ġlimit ing
H ar
A v
Ġyoung er
}] $
Ġpure ly
ĠN O
Ġdecl ared
Ġl ists
W orld
ĠH op
ĠRe al
ĠB oy
ru gs
ĠA mazon
ĠPol and
G AN
Ġs pons
Ġp al
Ġkind s
K L
Ġins urance
Ġhydro gen
p f
ĠG L
Ġfac ulty
tem plate
v v
us hed
ur is
Ġjour ney
B F
}) (
Ġadd ressed
c ost
e fficient
Ġequ ally
ĠAn alysis
ut r
Ġmix ture
Ġperson nel
Ġmultiplic ation
K S
Ġsh ips
âĢ ĺ
ĠN OT
t ics
red it
Ch ange
Ġd s
ĠH ard
Ġs ensor
Ġp ed
Ġtri p
D en
Ð ²
Ġdown load
o z
vious ly
Ġk ill
Ġinj ury
Ġtrans mit
Ġactiv ation
Ġaux iliary
Ġf ell
ĠCon sequently
Ġqu eries
nes ota
b oth
Ġs we
Ġstring s
ĠE p
ĠAm ong
Ġefficient ly
ĠBer lin
ĠMe V
Ġarg s
Ġag encies
}] \
Ġpre v
gra de
ĠC ro
Ġrail way
Ġalign ment
ren ew
d p
Ġfil ed
Ġb omb
ĠF ellow
AL L
res ource
ĠR ome
r f
ĠP ass
Ġre venue
ĠW ednesday
ĠE uler
const ant
E P
Ġg iant
g p
ri ers
ĠH ung
ĠSur vey
19 44
ĠC A
Ġ\| _{
sim ilar
Ġgu ard
Ġv ast
v y
Pos ition
display math
ro g
}{ $
Ġar ises
A ust
ĠD own
Ġdeterm ining
Ġshe ar
Ġconvert ed
ĠInd epend
Ġp adding
p ur
ĠRe ad
Ġfraction al
Ġcontinu ity
Ġm ort
ĠP C
Ġfil ename
ĠB ased
Ġp ose
Ġcont emporary
Ġgain ed
ĠB and
Ġsatell ite
Pro ject
Ġin variance
se q
Ġim per
Ġext ensions
Ġrem ote
$ --
Ġdro pped
Ġim posed
Ġbring s
f requency
ĠRe volution
Ġon going
l u
Ġexpl ored
Ġend ing
tra ined
Ġensure s
ĠD utch
ra ble
f ramework
Ä ĩ
text style
Ut ils
Ġcould n
Ġknow s
ch arge
Ġco homology
Ġt aught
Ġimprove ments
t ml
~~~~ ~~~~
j et
}}\ ,
ĠR og
Â °
Ġtr uly
art ing
hor iz
ĠF air
ĠH o
Ġaccom mod
Ġev ident
edd ing
Ġfew er
Ġnews paper
F E
Ġcon vention
l ab
Ġtang ent
Ġresist ance
Ġd otted
Ġproof s
ĠC ON
on om
Ġele v
P ass
T ab
s is
Ġl en
+ |
w ords
Ġemploy ment
center line
j ections
Ġs ale
F ont
ĠB rad
Ġphot ograph
Ġdefe ated
ur g
H R
is ks
ĠMc C
con vex
Ġcon crete
ut able
ĠT oday
ĠG ib
Ġ ),
ma king
Ġconnect ing
b ad
Ġret rie
ploy ment
ors ion
w ang
e h
Ġtransform ed
ĠR om
Ġassist ant
Ġadapt ation
. '
) /\
ĠChild ren
Ġhelp ful
ound ed
ri ve
}) }\
ĠL earning
k k
re nder
ĠN umber
bottom rule
Ġsp end
Ġdisc i
Ġint ent
Pro perties
ang ular
pol ar
ĠR od
d v
}, \\
Ġimag inary
ĠS us
c b
s end
Config uration
He ight
styleshe et
Y ear
et ary
ĠT O
Ġfrag ment
res olution
Ġvari ability
Ġ" \
Ġbos on
Ġvol unte
ment ion
D L
bibliography style
) <
ĠA ud
Ġk not
Ġg ather
Ġweap ons
ĠF re
Ġconver ge
ra ine
cent ral
Ġmetall icity
ĠN evertheless
p atch
OR D
Ġchain s
\' {
' (\
art s
^ +\
Ġb an
Ġm ock
Ġprogram me
h yp
ä ¸
Ġp ump
return s
Ġn ob
s ome
] _
ĠRet urns
rel ax
I ter
Con clusion
ĠC ub
In itial
l ined
B en
Ġrig id
}$ $
ĠTr ue
rat io
ï¿½ ï¿½
g i
Ġreg ulations
Pro t
ĠPri ze
Ġvir us
195 9
over ty
ĠOlymp ic
Ġvis ited
= {\
HT ML
Ġb inding
marg in
Ġgood s
ĠBay esian
Ġtot ally
Head er
= &
ĠF ox
Ġcorpor ate
ive red
Ġteacher s
Ġaccess ible
h n
ĠS her
ic ide
ĠM ulti
Ġstand ing
ĠMed icine
Ġcrow d
Ġviol ation
ĠNot ice
pro file
q q
ism s
Ġsche dule
Ð ´
Ind eed
Ġdestroy ed
ĠJ ean
d ict
D ocument
Ġimpro ving
enn es
Ġcon version
onav irus
left rightarrow
Ġsequ ential
end ment
Contain er
ĠF lo
Mem bers
Ġ ram
Ġl es
Ġent ities
Ġdeterm inistic
ĠChe ck
P y
ĠPol ish
o om
ĠTor onto
19 48
add ress
ym atrix
Ġoppos ition
Ġobserv ables
In tern
ric s
u int
Ġcomb ine
E st
ĠP A
ord on
big gl
Ġoff ering
Ġse ar
ob e
dep th
Ġrequ iring
ĠA ction
R ange
Ġtor us
+ $
od ge
Ġadv ice
* {-
symm etric
sc ious
ma ges
ĠSt ation
Ġvictim s
Ġfor th
/ .
ĠAn th
ĠD at
19 42
us cript
Ġpos it
10 2
ou ch
k h
Ġcl ouds
Ġv eter
Ġph on
ĠM arg
Off set
ĠB on
ĠN ame
bigg r
Ġresol ved
Ġd ance
big oplus
ĠC au
ag ues
ens ed
Ġpro ton
Ġlocal ization
process ing
Ġdou bt
Ġfeel ing
f ly
w ing
Ġaff ord
ĠCor ps
Ġb ass
Ġheav ily
C ap
ĠStand ard
Ġjo ining
ĠV ill
t ot
d if
Ġbelie f
dd en
Q ue
ol i
ĠS at
Ġobtain ing
195 7
c ache
ĠCamb ridge
g on
Ġc as
ĠO nt
\\ \
ab olic
Ġsp ending
prot ect
put ation
195 8
Ġworld wide
Ġfore cast
ant i
b x
Ġan imal
Ġobvious ly
Ġf usion
Ġin it
19 41
g tr
Ġoscill ations
s ig
Ġbran ches
Ġanalys es
Ent ry
ual ity
ick ing
eder ation
Ġreve als
p ay
Ġdis cre
Ġfeat uring
Ġacc um
ĠAff airs
Ġre verse
ĠĠĠĠ ĠĊ
Ġcomput ations
ĠP ers
ĠB ru
Ġse es
ĠF ire
ht b
re v
G O
Ġ{ {
art icle
jo in
Ġfil ters
Ġcryst al
ĠN az
Ġlo ops
: "
ĠWh y
Ġst uff
Ġfocus es
Ġmanifold s
}} }{\
stand ard
Ġs ought
it ud
Ġ$ -\
to ken
H igh
c raft
Ġfamili ar
Ġread ers
ĠFore ign
ch a
Ġform ing
Ġv otes
Ġdeal ing
Ġsched uled
rop ical
Ġtw enty
col head
colon eqq
driv en
Ġp atch
ĠS a
Ġre act
Ġocc upied
Ġdr ift
ou red
195 6
Ġvol tage
Ġnot able
Th m
ĠC S
Ġlist en
ad ic
ĠH un
ĠV o
ĠSte ve
um a
Ġdel i
Ġrespons es
Ġf ish
B D
L o
riz ona
doc s
Sum mary
n als
ĠS ign
Ġcompet itive
U se
Ġrece iver
Ġsummar ized
Ġsh o
d ney
ĠV ari
Ġnot ing
rict ion
Ġ> =
Ġdeg ener
vel ope
ĠH T
p q
Ġop acity
Ġsingular ity
Ġsymm etries
ĠRe v
Ġval uable
% ,
Ġpro sec
ro ke
Ġn ice
cl uster
Ġinstall ed
artifact Id
roll ed
="../../../../ ../../
Ġshift s
$ =
f riend
Mod ule
ĠC ov
^ *}
Back ground
ĠSu pport
ĠH erm
M a
ov es
el lect
Ġexpl oration
Ġseem ed
Ġa u
le ton
Ġmechan ical
D irect
ow a
Ġpar ad
Ġcommit ment
N P
Ġpro hib
Ġm el
DB LP
r b
Ġde bt
n atural
vi ation
ĠF ac
var pi
' -
3 60
Ġslow ly
Ġde let
Re ference
Ġobserv able
qu ality
ĠB lo
ST R
mention ed
] );
Ġgrow s
Ġu int
F OR
Ġdeli very
Ġp ole
Ġguarant ees
Ġpartners hip
19 55
re pre
ost ic
Post ed
Ġmod ification
ĠĠĠĠĠĠĠĠĠĠĠĠĠĠĠĠ ĠĠĠĠĠĠĠĠĠ
H ash
}; \
ore l
ĠCont rol
oid s
L in
Ut il
Ġl ose
ĠSu pp
Ġassoci ate
Ġrema inder
Ġpres erve
h ash
ou ri
Ġn a
iz ers
Ġann ih
x ymatrix
Ġthere by
Ġrec overed
Ġwh atever
M r
Ġregard less
Ġminim ize
[ {\
Ġref uge
ĠGal actic
U L
B rit
st ellar
Ġpurch ase
IG N
b ecause
Ġir on
con sin
19 39
char acter
B el
Ġhol omorphic
Ġab and
Ġext raction
ĠD onald
Ġleg end
Ġarri ve
id ance
s ession
Ġocc asion
Ġdis put
] ^{\
Ġent itled
renew command
y al
rel im
Ġl osing
iv ation
bu ffer
Ġret ire
Ġsuff ered
ar ia
at ics
s ys
Ġ )$
Ġadapt ive
ĠG ree
Ġreport ing
. âĢĻ
ĠM ap
Ġf ault
dist ance
Ġvar ies
arg ument
Ġgreat ly
Ġlif etime
Ġwill ing
n ight
Ġcontrib uted
Ġsu dden
Ġf iction
qu es
Ġgradu ate
ĠStep hen
V AL
Ġcon cluded
ĠDav is
Ġcommut ative
ĠF unction
ĠâĢ ¢
Ġclub s
m ix
ig ger
Ġprefer red
] \\
Ġdi pl
itect ure
Ġdip ole
Ġprote in
resize box
), (
le e
Ġemer gency
Ġins ight
off s
ap ore
v c
repre ne
i ate
Ġobserv ational
Ġrad ii
med ia
ĠIslam ic
b order
Å į
ist ant
Ġexec uted
es p
Ġcan cel
Ġband width
Ġp it
Ġd ict
ck er
B T
Ġs oci
ĠA venue
Ġpass es
ĠK ansas
& +
Ġj ets
Ġexpand ing
is ations
ak ed
ĠMin nesota
lik ely
re ll
Ġident ifying
Ġsqu ares
ĠW ars
() ->
Ġrank ed
ĠL uc
Ġcontrad ict
rom ise
algorithm ic
Rec ord
> $
Ġl y
13 5
ut her
Ġpay ment
ev in
~ {\
on i
Em pty
Ġindu ct
Th rough
Ġcre ates
Ġf old
Ġconsid ers
ĠK ir
AG E
big skip
group Id
ĠAl ice
Ġaff ili
Com b
Ġd uty
ĠV ice
s mooth
Ġlength s
Ġs quad
Ġqu bit
ĠBe ach
l am
ĠG ro
ain s
ĠH art
Ġbase ball
ag en
r ats
ph oton
Ġarrest ed
Ġdel ivered
11 5
ĠPro cess
ĠD ate
to ol
Ġst im
Men u
Ġrel ativistic
im ated
ps chitz
ann a
U P
Ġl icense
de bug
ik ip
ĠDe ep
ĠVictor ia
Ġprov ision
re nd
Ġin fo
Ġterrit ory
Ġdesign s
Ġst ores
] }\
Ġcre w
upload s
E very
ĠR equ
Ġsing les
sp ring
Ġcheck ed
Ġg ift
con j
tem perature
Ġadminist rative
vers ely
Ġsee king
Ġs in
id ers
ĠComm and
\!\! \!\!
E ven
Ġsc an
f ront
ĠW in
Ġspec ify
Ġcre ative
Ġel astic
gtr sim
Ġhomot opy
Ġabsol utely
C I
am ing
ĠG R
Ġwait ing
Ġmut ual
ere r
Ġeas tern
Ġhab it
in ian
per iment
ĠM P
}$ ),
Ġbring ing
oust ic
en ance
ab out
D ir
Ġreturn ing
Ġref lected
0000 00
Not ice
Ġland scape
ĠĠĠĠĠĠĠ Ċ
he res
make box
on line
Ġb ed
}} _\
ĠT y
Ġmeas uring
ĠS oc
19 43
aw s
continu ous
are t
Ġconvolution al
COL OR
I EEE
Ġrel ies
Ġinteract ing
Ġmarket ing
ĠColor ado
Pl an
ĠW here
Un ited
pro fit
ĠS anta
Ġann ounce
om er
Ġremov ing
N L
m aster
ĠE ll
ikip edia
ĠAir port
ĠO s
Ġpre lim
b est
Ġp m
Ġplatform s
Ġher self
Ġrank ing
ĠS NR
Ġout flow
). $$
ul pt
Inter face
}} )\
ĠS on
ĠE th
Ġult ra
Ġaut omorphism
195 4
Ġmonitor ing
Ġsett lement
ĠSt ock
): =
B est
S pace
ari ants
Ġvacc ine
Ġtro ub
Ġv oting
ĠAre a
Ġb atter
St ar
Ġsu it
l brace
st ore
Ġfall s
sc ription
at hered
Ġrobust ness
indu ced
h arm
ĠT ok
ĠA li
Ġperman ent
ivers ary
ĠH ou
T I
Ab out
ĠL ow
ĠG W
ĠB G
f ix
ĠH al
Ġfound ation
NR AS
olog ically
Ġint u
k ens
ail s
Ġl oved
Ġover view
qu ark
un a
195 2
Ġsh apes
ex act
ĠD R
iss ible
an th
Ã ±
Ġpublic ly
Ġ( .
ick er
Ġcom fort
Ø §
or dered
ĠG PU
j e
10 4
J son
Ġmotiv ated
Ġt itles
) },\
Con nection
Set tings
Ġexhib its
Ġk id
% .
ĠH D
ĠAss ert
le ading
crit ical
f un
ĠR os
r ator
mer ce
, }
Ġprov ince
ĠReg ion
ail ability
en v
Ġa de
ĠCre ate
Ġferm ions
Ġparticip ate
H ttp
P ublic
h ist
i ar
P res
Ġv ent
ĠE rror
Ġar ising
Ġregular ity
Ġmod ify
Ġfair ly
Ġy ellow
Ġman age
p us
Ġca usal
B ra
ĠAg ency
ĠScott ish
Ġresol ve
N AME
Ġc ash
Ġepoch s
Ġsuper conduct
}} }}
Ġconsider able
oc a
V ector
Ġimpro ves
Ġp od
Ġbe at
ĠB et
hold ers
Ġcomp ression
ĠOffic er
Ġparamet riz
19 47
f ony
Ġan ten
h ome
Ġflux es
Ġca using
L U
5 12
Un iversity
Ġin cl
ĠBook s
i pe
Ġsub graph
sec urity
Ġpass ion
Ġ rom
Con st
m ad
Ġcount ing
coordin ate
Ġs and
Ġcycl ic
Ġver ified
Ġgradu ated
19 46
Ġare n
Ġle af
le an
Ġput ting
S ur
ĠL ive
Ġrese mb
ho ps
Ġgovern ments
Ġr isks
ĠSc ient
st age
}\ )
em et
Ġcub ic
Ġsym plectic
ĠN ic
ĠV en
Th read
iv ariate
ĠUn iverse
is a
C ho
Ġaccur ately
Ġuniqu ely
ma xim
}. $
Ġf ant
Ġphenomen a
Ġdual ity
ĠF uture
Ġsol o
oci ation
ra ge
App lication
F ull
Ġgrad ients
Ġst orm
e ah
Ġke ys
Ġfound er
@{ }}
ache lor
Ġser ial
im m
Ġvari ants
st op
alax y
S V
Ġd rugs
m ay
}^{ *
ĠM iller
Ġem issions
Ġsc ulpt
10 3
Wh y
n p
O nce
Or ig
Ġexponential ly
hes es
pr ise
Ġcomp ris
war z
Ġer g
Ġreal ize
l an
O K
Ġre nd
ur d
ess ions
Ġrec ip
k t
Ġmodel ed
com position
ma c
ĠAnd erson
Ġshift ed
l st
Ã £
Ġimplic ations
ĠB ush
ant ry
195 3
stit uting
P arams
it atively
Ġno isy
ĠN ether
opt im
Ġb id
Ġen abled
Ġappro val
3 50
pos itive
ĠTur key
ak ers
ab i
Ġvari ational
Dep end
u z
rib utions
Ġcomplet es
quant um
ĠW el
IC E
Ġmer ger
A nt
Ġn ations
under brace
ĠBel g
10 6
ĠAtl antic
Ch rist
Ġpost ed
ens ively
ater al
ag a
Ġour selves
Ñ ĭ
}$ :
ur ches
Ġfac ed
Ġlogarithm ic
Ġb ins
E V
Ġover come
W A
ĠP ut
y stem
ĠM ill
19 18
Ġcompos ite
gress ive
l vert
ve ctors
^* (\
Ġaccord ance
Ġpro spect
Ġsurve ys
Ġsh orter
tain ment
S em
rap ol
itud inal
19 49
Ġe c
ĠTh ose
Ġmodul i
g ov
N um
um ann
ak s
ateg ories
2 20
Ġrang ing
A ng
ask a
Ġsimpl ified
ra it
] ]
Ġs leep
ĠOnt ario
| {\
ĠS ky
v ia
Ġbar rier
igen ous
abil istic
27 0
Ġaffect s
Paramet ers
Ġcoinc ides
par a
On ly
B ound
Ġto ler
rug gle
Ġun like
ort he
Ġmaintain ed
Ġb ath
Ġp ray
Ġle ct
ĠWith out
Ġorient ed
Ġad vent
Ġvan ish
$ ^{\
Ġb anks
ĠN N
du ctor
Ġsto pped
oc ols
Ġrect angle
Ġmembers hip
[ ->
Ġen forcement
ag an
Ġconsum er
Ġcustom er
Ġhe ating
Ġprom ising
Ġtri als
ĠB ridge
Ġs ending
$ }\
Ġcontain er
exp and
: #
qu arters
Ġb ow
ak h
T ER
ĠWis consin
M ag
)} =\
Ġscal ed
}{ !
Ġconvers ation
ĠP erson
Ġenc oded
pos ing
ript or
Ġinterpol ation
fol io
H er
Ġlocal ized
ĠA sh
Ġmill ions
Ġcont rary
C s
ĠD ir
Å ¡
hal f
w atch
% %
J ust
Ġ\, .
ĠW indow
Ġbright ness
ĠL im
") );
orig inal
Ġchampions hip
Ġd ot
ĠKore an
ĠSo ft
qu ote
add le
els on
at ar
d irection
ĠVal ue
Ġoptim ized
Ġw ww
{ }\
ip her
are n
n ames
Ġthick ness
Ġdemonstr ates
ĠSy dney
}. $$
Ġreprodu ce
Ġde leg
) ~
att ribute
ĠA rizona
Ġcarry ing
ĠI mm
Ġb are
ow ered
ĠPro blem
10 8
Ġw inter
Ġdetect ors
Ġc umul
ce q
ĠĠĠĠĠĠĠĠĠĠĠĠĠĠĠĠĠĠĠĠĠĠĠĠĠĠĠĠĠĠĠĠ ĠĠĠĠĠĠĠ
)$ }
M NRAS
eng ers
( .
com pare
c us
ĠSh ort
ĠB ad
f ar
Call back
ĠSt ory
Ġpar ity
M o
Ġgrad ed
Ġdocument ary
Ġeng aged
O ption
Ġh ospit
ĠM ov
M SE
Ġstrateg ic
Ġlo an
ĠIsra eli
Ġisot ropic
ow nt
1 18
J o
", "
PE CT
Ġtun nel
Pl ay
}) }{
Ġde pos
() :
ĠS ym
Ġun f
Ġun us
ĠP age
app lication
Ġhierarch y
Ġprov ing
ĠM D
Ġcharacter ization
ast e
sh ot
moment um
Ġfavor ite
ĠA ge
ĠP R
r brace
Con f
is o
ly n
an chor
| }{\
und les
ĠIs lands
Ġaut hent
sh ips
B r
g ame
Ġreplace ment
Ġbelong ing
Ġwork er
Ġturn ing
Ġremark able
Ġman uscript
ĠH ay
cl ick
Ġnucle i
Ġcommunic ations
ig m
Ġreg ul
ant um
- $\
Sche ma
Ġaddress es
' }(
Ġt ables
ĠMem orial
}) ^{\
Ġre jected
ĠA S
Ġreason ing
fra g
enn a
Ġfocus ing
ĠD ark
ke ys
P RE
Ġappear ances
ĠLi pschitz
Ġoffic ially
ĠLew is
ĠO pt
ig ate
Ġr ings
Ġcl ip
) "
fra ction
Ġcap abilities
Su pp
est amp
ĠE P
Ġdec or
Ġex cluded
p ress
id ay
C am
Ġsil ver
ĠT ext
emet ery
Ġpil ot
B oth
verg ent
Ġtrend s
c ule
ĠFore st
Ġad ult
ple te
th in
m kern
) *
Ġ$\ |\
est abl
Ġqu bits
ĠDu ke
T ool
Ġb ases
ul um
on omy
Ġinc red
'' .
Ġelectro magnetic
ĠD am
ze ch
n l
N Y
Ġade qu
ĠNether lands
ke ep
Ġsym pt
q ed
195 1
Ġbig ger
b one
Ġke V
M ac
Ġre ar
S pe
correspond ing
Ġqu arks
Ġi i
Ġpack et
Ġwrit es
H H
ic ons
AC E
Ġrece ives
Ġg ene
Ġtrans actions
e en
( $\
Ġ* )
Ġman ifest
ĠU ser
ĠK h
ie ce
Int eger
Ġprior ity
ĠL ady
ĠC ost
ĠMod ern
Ġacqu isition
Ġag es
aint enance
Ġadd s
Ġa maz
C B
cont in
)} ]
com ponents
aramet ers
bour ne
_{ (\
Ġrel ating
Ġsingular ities
Ġcour ts
Ġregular ly
ĠSim ilar
Ñ Į
ĠC reek
com parison
ĠT ai
equ als
Ġpresident ial
he t
Ġattempt ed
12 7
tra ce
Ġp ot
Ġart ificial
Ġdistingu ished
! !
Ġcour ses
oc y
@ {\
C NN
St ud
Ġh its
ĠCo oper
A ug
H as
ĠD NA
pl ac
Ġ: :
Ġwould n
ĠL es
our se
Ġapproxim ations
ĠD er
hand le
U RE
pi x
b ind
et o
Ġh all
c opy
Ġ ×
Ġapproxim ated
ĠTur k
r ically
ok ed
Ġm ount
ug ins
D eb
az e
Ġconsist ently
Ġt ab
idel ines
Ġam pl
itar ian
ĠP ubl
Ar ch
d or
og gle
Ġund efined
ĠC PU
AP I
Ġdec oder
cho ose
ĠApp le
N etwork
ĠGold en
Ġ\\ \
Ġhost ed
r arily
Ġdist urb
in line
ĠC orn
Ġinflu enced
do or
ĠAr gent
ĠViet nam
Ġv ic
ad ers
ere nces
T im
Fil ms
ard ing
vol ume
ĠBro ther
as hi
ĠK al
Ġre nt
ĠOffic ial
Ġexhib ition
Ġex it
Ġk illing
Ġparticip ation
T itle
Ġdeg enerate
Ġtransl ate
op ed
Ġw ider
ĠB or
ĠTh ird
r vert
ĠD O
idel ity
trans ition
ile y
Ġterm inal
Ġm irror
Ġmeas urable
ĠSt rateg
ĠSta ff
Care er
AT A
Ġde lete
ich let
ĠP O
Ġhot el
Ġw ins
ĠP S
clos ure
{ |\
foot er
ĠP rim
reg on
ĠĠĠĠĠĠĠĠĠĠĠĠĠĠĠĠ ĠĠĠĠĠĠĠĠĠĠ
Ġcateg or
Ġdoll ars
Ġwith draw
ĠA z
Ġque ue
n oc
Ġres c
Ġrecogn ize
Ġover ride
Ġsuper ior
m aterial
ĠD igital
ĠHol lywood
W ar
ĠHol y
ĠB all
Ġde vel
in formation
al actic
Ġl it
Ġreconstruct ed
Ġext inction
f ire
ĠIndian a
Ġaccom pan
ĠCount ry
Ġprom oted
ĠAfghan istan
b racket
c am
ĠS F
Ġquant itative
diag ram
ĠS ri
co q
ear s
ĠCom b
Ġall ocation
ol itan
D raw
F in
Ġc ro
ĠL td
Ġinst rum
\" {
pro j
d on
19 38
h over
' >
G ra
ul us
rg b
ĠN am
Ġpurch ased
Ġsp oke
iss ue
Ġinstrum ents
ĠÂ §
Ġd amp
ellect ual
gener ated
Ġmin ing
C lick
al ks
ge red
Ġadv is
ĠCh annel
Col lection
int o
( :
Ġext ending
se lected
Ġatt ributed
9 00
ok ing
Ġequival ently
Ġsub sid
T M
v dash
de lete
ink s
W here
Sh ow
own ed
ĠE ric
Ġobserv ing
ran ged
^{ {\
H y
Ġshoot ing
Ġse vent
C G
S outh
Ġillust rates
Ġdisci pl
Ġvot ers
ĠC urrent
}} ^\
be ing
b ootstrap
Ġdis ks
ir ation
Val ues
================ ================
)) =
el le
new s
Ġphot ometric
Ġst one
ĠU r
ct rine
IT Y
Ġdevi ations
Ġsc oring
+ }
Ġsupp ressed
Ġcl ar
10 7
T F
Ġad ults
ĠSing apore
Ġarchitect ures
ĠPro of
hom ogeneous
Z Z
Ġj av
Ġsk in
cur ve
ĠF ood
Ġsent ences
j u
xy gen
F lo
ms g
Bl ack
Ġsh adow
ĠÐ ¿
f our
Ġas king
b n
Ġign ore
ĠN FL
G Hz
val uation
S ession
R ob
Ġ\ :
ĠAnt on
ĠD un
Ġsol it
cal cul
}) ^{-
Ġhon est
A uthor
st an
ĠC rit
ĠF inal
Ġh air
col n
Ġp in
F ound
c ers
ĠArt icle
y ers
Ġgu idance
Ġb ought
Ġaver aging
Ġobser ver
Ġconjug ate
un ity
Ġasymptot ically
Ġin g
s ens
ĠEconom ic
Ġdev oted
Ġinnov ation
Ġse ctors
Ġbox es
con vert
Ġas sembly
ĠT R
ĠDef ine
AC T
Ġvalid ity
Ġrepe at
Ġdanger ous
Ġch ampion
osc ow
Ġpreserv ed
Ġfav our
Ġdis miss
unic ations
over ning
Ġel ig
ĠTrans port
$ /
se en
c n
F IG
Rel ated
Ġanom aly
Ġal ter
az a
Ġmark s
Ġclos est
ab ric
ĠO cean
att ered
Ġcharacter ize
e a
pon t
Ġin hab
Ġst rain
le vant
Ġast ron
ĠM ilitary
=" _
Ġa ck
w he
= $
z i
Ġass ault
Ġident ities
Ġgovern or
Ġincorpor ated
Ġt ension
Des pite
^* ,
Ġc aught
se ason
âĢĻ ,
ĠAl f
ĠS I
ig a
ig ious
Ġh ockey
19 36
Ġexpect ations
Ġmor al
ĠM oh
}\, ,
Ġprov ider
pend icular
Ġmechan ics
Ã£ o
ern ame
u pp
Ġdefin itely
S n
Ġfl avor
em ail
ĠL HC
ĠB iden
Ġfact ory
Ġg ray
F alse
Ġconven ience
Ġf er
Ġlist ing
u y
Ġreflect s
v ance
ĠDis ney
Ġsuggest ing
Ġcontinuous ly
Ġdecl ine
Ġadj oint
S erial
Ġp overty
Re al
Ġadd itive
comp at
Ġw at
K K
ĠRail way
Ġevery where
dis abled
ack nowled
cos ity
Ġmere ly
Ġrecomm ended
Ġfac ing
d ers
Ġcaref ully
)) )
al o
Ġcomb at
RO M
=" /
Ġpar liament
Ġmusic ians
= }
Ġsub mitted
ĠBuild ing
V E
pl o
Ġex posed
ĠAssum ption
Ġobtain s
rec ord
o or
Ġprepar ation
U LT
z ing
ĠG er
ant ly
}) :
cor r
[ $
Dev ice
Ġ Å
Oper ation
f all
Ġover l
Ġmod ular
ish ment
oul omb
D ue
Ġcont est
Hand le
H ER
Ġte en
Ġr uled
Ġassum es
H A
Ġadm issible
ry st
elf are
h ire
Ġd ates
ĠCh apter
Ġp ron
Ġyour self
s b
er red
H P
sur face
Ġstri p
che stra
Ġst ruggle
Ġsp ins
Ġto wer
h ref
m ut
Ġweek end
ĠL iter
Ġd a
Ġhead s
Me an
ol ars
olog ists
Ġmanufact uring
ĠB S
Ġdesign ated
Ġdest ination
ĠS S
ĠY et
w rap
Ġrac es
Ġpre pare
Tem plate
Ġal igned
Ġj uris
rupt ed
Ġstri ke
Dav id
19 00
Ġphys ically
Ġintrodu ces
ĠA mb
SI ON
l ot
Ġphil osophy
Ġmunic ipal
Ġradi ative
} --
ĠN atural
ang led
Ġopp on
ĠEx ception
Ġdefe at
ĠT urn
ut enant
Ġhead er
Ġim pose
Ġinter net
Ġy ards
}$ &
Ġgrow n
) )$,
Ġvort ex
ĠS af
Ġpro jections
ĠR oss
Ġgu y
Ġpaint ing
Ġcooper ation
ter ior
ub er
Ġcont am
Ġref used
Ġprim itive
Ġtra ding
C rit
ma kers
Su pport
Ġacc used
ĠR ose
Ġmeaning ful
Ġent ering
Ġhe ur
r ceil
ir ms
h ig
S uch
? :
Ġg rate
Ġhist ogram
Ġ )\
plement ation
Ġapparent ly
ĠG allery
l ceil
Ġnon trivial
L ie
). $
ERR OR
}= -
24 0
ĠD esc
fl ux
}) +
Ġunivers ities
s olution
Ġmed icine
ins ert
with out
ĠC ru
Ġbelie ves
f p
Ġ }(
Ġansw ers
Ġwindow s
l ass
Test s
Ġri val
T ube
un ique
Ġcompl aint
) {$
ĠT erm
ĠSt adium
we alth
aps hot
ĠM att
old s
Ġhe lic
el astic
der iv
check mark
ut t
ey ond
H ost
N umer
ĠPh ot
C ore
19 17
Ġcoinc ide
N ames
Ġcontinu ing
Ġneutr inos
Brit ish
. ]
ĠInd ex
ĠFig s
Ġsimpl er
ennes see
P ref
Ġfund ed
ple ments
do i
cor rect
y ard
Nav Bar
Ġc ab
Ġ+ +
ĠF ord
Ġmat ched
Ġsum s
Ġpass age
Ġb old
ĠTra ining
ĠA bb
ĠH an
ĠA ccess
Ã© e
ĠL ank
b ec
Ġdraw ing
Ġvol umes
ĠConn ect
n as
),\ \
ĠH as
ag on
Ġrequest ed
Ġread ily
c ustom
Ġh o
ut ies
De cl
il st
Ġdes ire
Ġglob ally
Ġsus cept
Ġcomb inator
Ġparticip ated
ant ics
des ign
Ġm ic
import ant
the o
ab atic
Ġprov isions
Ġsh r
Gl obal
y y
Ġp arams
Ġinfer red
ĠS ab
\% ,
Ġpair ing
Ġf estival
ĠY es
n c
Ġk ick
Ġrot ating
k w
ot he
p ing
Ġe V
10 9
lect ric
m ove
{ %
inem a
i pping
Ġsqu ared
al go
Ġille gal
Ġb is
Ġmod elling
] }$
Ġguarant eed
ĠMary land
Ġun likely
ro d
11 4
d dot
C ast
E rr
}, $
web kit
Ġfor get
Ġpubl isher
ĠHou ston
Ġoccup ation
l ate
const ruction
Ġdis placement
Ġreal ization
ĠPl aces
Ġtrans it
e V
ĠAr thur
Ġf asc
Ġeven ing
al ed
Ġk il
ĠI l
Ġre tail
11 7
ĠK a
Ġemploy ee
Ġemot ional
; <
Ġpro ud
ract ed
T otal
od s
) _\
el and
ĠO p
Ġ[ -
cor relation
Ġsummar ize
ĉ ĠĠ
Ġ ions
ĠIn s
Will iam
ir t
Ga ussian
ĠC ulture
Ġind irect
} '$
ĠS ud
Ġen velope
B ody
ar on
ĠA k
ĠCon st
Pre vious
end a
or b
ira ble
y ou
Hel per
Ġinst ruct
Ġperfect ly
n ik
assum ption
Ġcons ensus
M atch
Ġr ising
ĠO t
ck et
sc ore
Ġdirect ors
Ġoff ices
Ġthe atre
Ġmach ines
Ġdistrict s
âĢ ¢
iam i
Ġemer ging
sc reen
Ġd rag
ĠAr k
- {\
' ],
Ġmin ute
Ġlog ical
g ments
d am
ab ama
g ue
Ġack nowledge
Ġshort ly
ĠLe on
m iddle
Ġs elling
Ġin herent
Im pl
onom ous
ss on
Ġtransl ated
_{ |
ĠHar ry
Ġbut ton
and y
ĠB rig
Ġdiv ide
ĠM it
ĠW at
ibr aries
}\ |\
}$ };
17 0
ly ph
}) ,\
= [
ã Ģ
] :
Ġrad ical
ij k
Ġprelim inary
ch arg
Ġnav igation
ĠĠĠĠĠĠĠĠĠĠĠĠĠĠĠĠ ĠĠĠĠĠĠĠĠĠĠĠĠĠ
ĠD irect
T w
Ġdis ag
vir tual
Ġnov els
ha ust
Ġw ing
Ġcut off
Ġweak er
Ġtra v
Ġex port
Ġsk ew
Ġamb igu
Ġperm ission
ĠB rand
Ġrot ational
C a
Ġmethod ology
Ġelse where
cc entric
ĠMag azine
ĠI owa
mult ip
Ġinv oke
f m
Ġign ored
Ġpreserv es
ĠK at
ada pt
Aust ral
att ices
Ġbro ke
L em
vel oc
ĠDemoc rats
ĠInt erest
ast y
ex ports
Ġevalu ating
19 37
Ġthere in
Ġencoura ge
ĠB att
ĠW inter
Ġfe e
ĠN ick
ĠR aj
St ore
Ġsimpl est
ne ighb
M N
period ic
Ġp aram
Ġing red
Ġtransport ation
? "
ĠT a
Ġenhance ment
19 33
Ġst ake
Ġoutper forms
c u
Ġbeh alf
ĠSystem s
AT H
Ġmove ments
w ick
Ġrepresent atives
Ġremov al
s pl
11 3
ĠGree ce
)} }\
su fficient
Ġte ach
Ñģ ÑĤ
ern els
ex pect
T erm
( (\
Ġagre es
Ġin jective
ĠDef ense
Ġwatch ing
grad ient
; ->
Ġh un
block List
A pi
Ġhyp ers
Ġjournal ist
)$ )
u j
' ))
Ġp ione
IM E
Ġarbit rarily
Ġo vers
ĠH ur
Ġag ed
Ġold est
Ġsuper vised
ĠGu ide
\\ [
ĠWe yl
19 14
ï ¼
od ic
per or
ation ally
ĠM un
i ated
Ġhousehold s
ĠT ask
r k
ĠL anguage
_{\ {
anc el
} "
Ġbreak s
Ġmeet ings
Ġdispl ays
Ġg amma
ĠTh ough
Ġre actions
ĠSen ior
Ġan onym
Def ine
; "
Ġhealth care
R ule
ĠO regon
Con clusions
ĠQue ens
T ags
M or
aud i
F s
00 5
ars ity
Ġpref ix
Ġregist ration
00 2
( *
depend ency
Ġmultiplic ity
dot ted
ĠS ect
Ġconsider ations
config uration
Fe ature
Ġhealth y
Ġint ention
Ġcomple teness
su it
Ã¡ n
Ġpair wise
b urn
)$ $
i ors
ia h
Ġdeg rad
a ire
ĠS pect
& #
}}{ (
cm d
ant e
ĠMiss ouri
Ġpro xim
ĠMo ore
ĠB rian
Intern ational
ĠC T
S ports
geq slant
ĠSwed en
Ñ ĩ
Ġground s
Ġb ott
Su per
Ġw a
outhe ast
im p
.\ ]
' +
Ġs ke
Ġh aven
c ert
ĠJ os
to String
flu id
Ġs pi
Ġadvanta ges
Ġsubstant ially
Ġenem y
Ġplan ar
ex port
sin h
ĠJ ava
Ġra in
b ow
Ġstre ets
is p
ro it
}$ ~
ĠC L
bound s
Ġinteg rating
ard ed
Ġoper ational
ĠM oscow
Ġexception al
Ġbur ied
G reen
Ġa f
ĠReg iment
ol as
Ġse ats
l attice
)$ ;
Ġla id
Ġatt orney
Ġdifficult ies
}} ;
ĠS L
er as
ĠCol lection
ĠG ram
âĢĻ .
ĠUk raine
Ġsimpl ify
ĠH MS
ĠM O
19 35
ĠF ull
Ġso ph
D IR
P AR
Ġqual ified
Ġsur gery
R a
app endix
Ġfactor ization
ed it
ĠTe V
Ġpublic ations
w eg
Ġt ruck
Ġext rapol
ĠS ix
Ġco arse
or ne
M ich
child ren
raise box
Ġinv ariants
A sync
ĠT am
Ġmoment a
Ġdevelop ments
m ony
ĠCap ital
ĠSy ria
Ġport ray
ail ing
le in
)) ^
ĠUn it
33 33
Ã© s
diag onal
weight ed
l g
Ġ[ '
{- }
Ġcorrect ed
ĠN orm
Ġestablish ment
Ġreli ef
lim ate
ĠÂ »
ma j
ĠC ab
te ction
Ġbo ys
Ġco res
ĠCon dition
rac ks
Ġwin ners
Ġbranch ing
Å Ĥ
Ġsole ly
reed y
Ġcent uries
Ġanc est
pl ates
Ġround s
ĉ ĠĠĠĠ
d c
Ġinv ited
Ġin valid
^{ *}
Ġde eper
L eg
Ġdefin ite
ear ing
ĠS R
Ġinv ent
Ġform ulated
ass oci
Ġdiscrim ination
ĠI T
Ġfrequ ent
ĠStud y
st ation
CT ION
Ġpar se
P G
ro le
cos h
ER S
12 1
^* _{
ĠU pdate
Ġbrother s
plac ian
M usic
11 6
pl ots
Ġjud gment
ĠF ront
ĠMex ican
it ian
hel p
ĠCl ark
Com put
Ġconc aten
ta ken
Ġposs ibilities
j ar
ĠT reat
ograph ical
Ġneg lect
Ġpro xy
P tr
Class es
A U
Ġcont our
u psilon
set tings
bound ary
ĠD or
H I
L at
Ġquant ization
Ġby tes
ĠAll en
Ġp itch
Cor ollary
Ġbi ological
ĠBG COLOR
Ġprot ocols
c v
su pset
al ion
Ġs ends
ĠR ow
rop olitan
Ġrac ial
tr ation
d ark
)\ |_{
u f
ĠLin coln
Ġcont ra
Ġgu est
Ġg ar
Ġch air
Ġj un
ĠB ishop
Ġinvert ible
d ynamics
Ġs now
re view
ĠHar ris
ĠPrem ier
anc ell
Ġgradu ally
Ġg ates
Ġre ject
Ġprocess ed
$ ~\
C ur
Ġdise ases
effect ive
ĠBl ock
ĠP itt
class ical
[ ]{
M er
ĠDo ctor
Ġsett led
Ġch airman
ĠS W
ĠB O
el ve
Ġnorm ally
Ġgen etic
Ġminim izing
Ġinvest ors
ĠInd ones
Ġdiff e
Ġexperiment ally
il ty
Ġas ymmetry
u its
19 19
Ġm apped
Ġneur ons
pl er
ĠM rs
Ġmoder ate
}\, .
| }\
ĠU RL
Ġturbul ence
fo o
Ġreg imes
ĠJ SON
sq l
ĠJ ane
ĠMar ine
Ġh a
ĠSt one
ra ce
n ear
ol id
Ġn m
cal ing
ĠFin ancial
}\ |_{
Ġrel ate
Ġdri vers
om as
hav ior
19 34
sum er
Ġlaw yer
Ġantic ip
Ġtarget ed
P ORT
Ġsw im
. -
ow ed
Ġqual itative
Ġtim ing
ipart ite
Ġenjoy ed
Ġbal anced
Ġvari ed
Ġs ake
riv acy
Ġre write
Ġphot os
Ġhom ology
ĠCap tain
co hol
Ġsu ffer
ex ternal
Ġfor cing
BU G
Ġprot est
tra in
ĠB ureau
Ġtun ing
ĠWh it
ĠT H
ĠN ative
ĠSim on
Ġsc r
Ġcalcul ating
itzer land
Ġsens ors
ĠHT ML
ĠPlan ck
Ġ ray
Ġelectric ity
c pp
ĠTra de
ĠSqu are
ĠCau chy
inst all
Ġspe aker
Ġtal ks
hook rightarrow
Ġm il
Ġd ots
ĠPro t
ĠS av
Ġl ob
Ġadm itted
ĠG RB
Ġt itled
h idden
ĠT ennessee
Ġun signed
Ġm igration
19 29
Ġsound s
}} -\
Ġin formed
Ġc raft
li est
Ġad mit
R est
r v
Ġestim ating
A I
14 4
Al gorithm
Eng ine
pot ent
ĠEar ly
Ġsynt hesis
an notation
N OT
aw ay
\ @
ut ors
ĠCh ange
Ġgain s
Ġengine er
ĠHar vard
ĠM ove
p ole
Ġleg it
ĠR yan
ron ze
ab ul
Ġaim ed
Ġtempor ary
m ont
A x
Ġac oustic
Ġcoll aps
pan cy
Ġpre mi
Ġexam ined
prim ary
> .
Ġdivis or
Ġdemoc racy
Ġcaref ul
D iv
Ġnucle us
tx t
In valid
Ġutil ize
Ġwalk ing
Ġattract ive
G ET
ĠT en
Ġexplo it
In s
Ġcol lections
~~ ~
Ġper pendicular
Ġmotiv ation
Ġf ranch
Ġtown s
Ġo xygen
Ġpreserv ing
b g
Ġsuff ering
C at
ram es
Ġstr at
ĠT ony
ĠG h
ang el
back s
Ġpol es
ent ropy
Ġ ell
Ġthous and
ĠPh oto
Ġent reprene
pl ugin
+ {\
Ġmin i
C ent
GB T
re tt
Ġtri es
d etail
Ġk ee
be an
M art
est yle
t p
ĠP ier
Ġd ry
. ][]{
S ep
Ġpre gn
am ents
Ġlong itudinal
D u
the y
em pl
Ġarm ed
Ġdem ands
ĠEnter tainment
Ġill ness
., ][]{
ĠCl inton
m r
Ġfin ance
ro se
al og
Ġc ricket
Ġcompan ion
Dis play
ĠSe veral
Ġlay out
Ġautom atic
ew ise
Ġd elta
4 50
ĠF ro
Ġbehavi ors
Ġp iano
the se
Ã «
Ġvis cosity
Ġshe l
li ers
Ġrem arks
O h
al ph
.\ ,\
ĠThe ory
KE Y
ĠY ang
ĠEX PECT
Ġcl ick
Ġext ensively
spe ed
ĠNAS A
Ġin jection
Ġmagn itudes
Ġair port
the w
Me V
Ġt elling
Ġtrans parent
Ġmiss ed
ĠD a
}$ \\
ne cess
in ality
ĠF a
S tack
Ġdialog ue
A f
ĠRet urn
P arent
Ġf o
ta h
St r
O ct
ma ps
Ġfootball er
ĠDi ego
! }
Ġmunic ipality
Ġm ig
cons ist
st ats
W est
Ġf ly
L u
oupl ed
Ġ= &
F low
ĠCh all
Ġuniqu eness
ĠP ur
Ġsurv ival
ac on
Ġch rom
Ġne uro
Ġv oted
Ġmot ions
Ġsix th
Ġart ifact
w ho
Ġg overning
ĠN ash
ress ing
Ġamaz ing
Ġdiam ond
all as
vers al
Ġm ine
Ġcompl iance
Ġn ur
EN D
ĠOn line
ÑĢ Ð°
ĠSwed ish
2 30
Ġapp endix
par ing
, $$
d m
ter ms
an es
Ġk ernels
Ġcompens ation
rot ate
Pol icy
Ġf ought
Ġsympt oms
## #
M atrix
Ġins ights
ph ony
'' $
rel ations
horiz ontal
Ġe ase
f itting
bas ic
Ġdepend encies
Ġconsum ers
ĠM as
ĠLe ft
ĠN ig
Ġmorphism s
iv ated
â Ĩ
ĠB orel
at im
ĠRiemann ian
Bo olean
re r
w estern
ĠV in
E uro
Ġs s
Ġfe els
b log
Ġdwar f
Ġpoint ing
Ġcor onavirus
ort ed
Ġnarr ative
Ġac id
Ġmicro sc
ĠApp ro
Ġb rown
Ġaccompan ied
Ġtw ist
Ġme ets
lem an
Ġw allet
Ġch ap
ĠOther wise
Ġhand ling
Ġ icon
ĠP ath
Id ent
P N
ĠA h
A O
19 15
Ġiter ative
Ġcont ents
|\ ,
X Y
P aram
Ġvisit ors
ĠMan chester
Ġretire ment
at ial
Ġver ification
Ġc ogn
ĠB ible
ĠAl abama
Ġbound ing
w ait
ic ip
ib l
ater n
Ġneighb oring
Ġgra de
Ġachie ving
12 6
Ġto kens
Ġcr imes
Ġhierarch ical
z hang
Ġpro to
Ġincor rect
Ġc oding
Ġa fore
ĠN ob
Ġfl av
Ġcap ability
ĠF ight
F W
ol y
ĠDe ath
ĠPhys ics
Ġj unction
Ġr uling
Ġp ictures
ĠPat rick
ĠM oon
Ġwas te
ĠSe ason
)- (
sat z
A SS
ĠPe ace
re port
Ġin line
ĠC learly
p adding
bo olean
Ġcurrent s
ĠN ev
f und
)}\ \
Ġo s
M ass
fe ature
ĠS FR
Com ment
J E
S to
b ian
F ree
Field s
C y
al gebras
Ġin coming
ĠT ake
Ġmaintain ing
ĠM I
n est
ig roup
Ġprof it
Ġn amespace
Ġmod ulation
ĠL ib
Ġredshift s
ĠL ook
Ġdiff ers
Con dition
S ql
ut s
ah oma
gl as
}: =\
Ġdeterm inant
triang leq
comm ut
St and
Ġby te
P ool
gra duate
Ġgeom et
t ered
2 10
Ġprom ise
T or
es is
Ġperturb ative
Sing le
Ġtal ent
Ġdifferent iable
Ġm aintenance
cont rib
deg enerate
ĠJ am
pat tern
est im
Ġoper ates
ĠF ix
Ġcrit ics
ĠP rior
Ġsus pect
ĠCol on
impl ies
Ġobject ives
,- .
Ġsl ot
vari able
Ġ< =
ĠAuthor ity
ĠC ra
Ġcontract s
Ġaware ness
12 4
Ġemphas ize
Ġevolution ary
Ġhor se
ard o
ĠR est
app oint
li x
ĠYou Tube
ĠOrgan ization
w ich
Ġgeneral ize
Ġestabl ishing
Ġdirect ory
Ġ( âĢľ
ĠS earch
Ġoptim ize
Ġmod ifications
Ġimpl ied
ĠCon vention
k ar
l ov
Ġsustain able
form ula
w en
B G
ast ro
Ġinf ection
Ġann iversary
ĠD aily
ke V
V I
ĠReg ional
b eq
ĠE s
over view
R F
Ġoscill ation
pro c
ure rs
Ġth orough
rid ges
ann on
ĠB at
Ġhost s
re place
ĠM icrosoft
K ind
om eter
ĠC zech
Ġco herence
Sym fony
ĠMark et
g ap
un es
Ġden om
ĠLa ure
Pol it
ĠAnth ony
over s
ĠCh ap
Ġover head
In v
Ġin ert
Ġre putation
cre en
overn ment
Ġre pair
Arg ument
V ideo
pred ict
Ġl ib
Ġentertain ment
ĠKenn edy
Ġmanag ers
equ ilibrium
Ġc ited
n od
12 2
19 2
l as
ĠLeg isl
re ction
Ġgener ations
Ġabund ances
ĠCh ang
ag ger
ĠMal ays
R ober
g ot
ah n
Ġturbul ent
Ġpo et
m ask
im eter
ĠPl ace
lap se
sw itch
acc ount
Ġcompos er
Ġpur s
Ġfacilit ate
D oc
Ġplan es
r in
L oc
Ġh ang
Ġar rows
Ġs aved
Ġconsider ably
ĠC oulomb
\, $
Ġafore mentioned
D s
nabl ed
Ġhy perp
Ġtrac es
Pro b
bl ing
ĠI C
G al
Ġhapp ening
m ot
ĠR L
integ ral
ous es
ĠR oll
cess ion
Ġa xi
us ive
aramet er
Ð½ Ð¸
ĠCast le
ç ļ
Ġaccept ance
ĠG raph
Ġexp at
qu ir
Ġowners hip
ĠĠĠĠĠĠĠĠĠĠĠĠĠĠĠĠ ĠĠĠĠĠĠĠĠĠĠĠĠ
ownt own
ĠF ederation
Ġpar ish
ĠAtt orney
ph an
Ġbas ically
Phys Rev
Ġestim ators
au er
F inal
grav ity
Ġswitch ing
s afe
dec ay
e igen
ob i
m issions
Ġtra ins
pa pers
tt ing
ĠKent ucky
Ġpost s
tabular newline
Ġp ra
ex ception
Ġz eros
erv ing
Ġimpact s
ĠB os
Ġreg ulation
Ġexcit ing
AR Y
ĠD ream
Ġsl ice
ĠPro perty
f c
19 0
are a
Ġcompet ing
19 32
ithm etic
by te
Ġinteg rate
EX T
ine q
Ġdeep ly
mb f
}-- \
P erm
Ġe ccentric
Ġjoint ly
}{ .
ĠA C
Ġstructure d
ĠHe art
Ġfall ing
Ġiniti ative
ĠAtl anta
ĠTok yo
ĠJ ay
}: \
pos itory
ul i
19 28
Ġgu ys
W ang
Ġliter ary
chang es
over rightarrow
eg as
small matrix
Ġsus pend
ĠA thlet
sh op
d ue
19 10
st ance
}) }{\
ro magnetic
Ġvulner able
ĠC C
Ġ ).
ch ant
e eq
ĠM iami
ĠDe ad
ĠP sych
ik a
Act ive
Ġt orsion
ĠMar ia
Ġsim ulate
ĠR ub
Ġprob abilistic
Ġar row
Ġindic ator
od a
Ġsy nd
ĠB esides
ĠV ideo
n ie
Ġste el
z one
Ġspect roscopic
C oll
Ġex clusive
* {\
) ]{
b us
Ä į
che ll
Ġast ro
he im
bas is
Ġphot ometry
Ġunus ual
ĠF all
Ġdec oding
Ġmob ility
| $.
Ġapprop ri
ĠPhil ip
Ġk pc
il ateral
Ġb undles
ĠDir ichlet
Ġconstruct ing
ch t
Ġaccount ing
Ġevol ved
ĠH ad
Ġde als
ĠPhilipp ines
play er
ĠS V
Ġinst ructions
çļ Ħ
U K
Ġsynt hes
Disc ussion
ĠAl bert
Ġout standing
Ġelect rical
Ġterm in
h us
ĠC V
15 2
P arser
et ition
l ad
Ġdiss ipation
S eg
Ġint ellectual
ev ents
Ġliber al
D ialog
Ġex haust
Ġsurpr ise
E ffect
Ġimag ine
Ġsto pping
ĠP lease
veloc ity
M AP
Ġpick ed
bur st
art z
e very
Ġcar ries
al ias
Ġinst ruction
] _{\
Ġr u
) )}
Ġcompar isons
ene z
j an
Ġshe et
r ison
net t
in ance
By tes
ĠWindow s
Ġin version
Ġconnect ivity
ĠS n
Ġcere mony
Ġhighlight ed
ĠS ound
* }\
t m
ĠUn fortunately
Ġf ake
Ġcons ent
clus ively
Ġsw it
b atch
ĠE mer
ang o
harm onic
ĠJ oh
Ġatmosp heric
Ġs itting
ar ry
, [
Ġgre y
ĠS mall
S pan
á ĥ
Ġav ailability
row th
ĠK evin
iss ipp
ex cept
im ore
Î ±
-------------------------------- --------------------------------
Ġincorpor ate
B er
Ġcompet e
Ġgen u
Ġrec ur
Ġsurv ive
set up
Ġarrang ement
ĠB ab
Ä ±
Ġst ood
Ġattack ed
kl ahoma
en able
Ġcontrib uting
Ġflex ible
Ġs ons
Ġin frared
\ ).
ĠJ enn
Ã ¢
Ġinteg rable
M al
Ġmodul o
em ed
Ġ( '
Read er
od ox
Ġconf ront
Ġm ild
ĠT an
Ġcap tain
Exp ression
Ġpropos als
Ġprovid ers
____ ____
Dele te
Ġwire less
Ġsub groups
in th
ĠM and
Ġ\ %
ĠChe m
Ġim plements
s ame
ĠHow ard
J ac
In f
ĠG reg
Ġpart itions
Ġsp iral
Ġknow ing
Ġt all
Ġrestaur ant
end or
ph ot
Ġutil ized
L arge
Ġ\ )
Ġrecommend ations
ffic ial
ĠLab our
Ġ( *
ĠMed al
âĢ ħ
abl ing
B re
S yn
Ġexec ute
ĠG all
at om
Ġoccur ring
ĠC ustom
Ġg aps
ĠP ay
cons ider
Ġnot ations
E G
Ġbos ons
ig e
ug ht
Ġtw isted
Ġocc as
Ġtrans mitted
Ġa z
ĠL as
Ġscreen ing
ic ut
19 22
Writ er
Ġt et
Ġr anks
Ġback ward
ON E
Ġdimension less
Ġinj ured
ĠRec ord
,\,\ ,\,\
Ġm ilit
con vergence
is ta
ĠV ersion
f b
ĠF alse
19 31
Ġadvert ising
). \
Ġnorm s
ĠL P
Ġpopular ity
ĠS ource
Ġfound ing
Ġelim inate
ĠTem ple
ĠB udd
Ġvari eties
ar o
Ġconsequ ently
Ġfra ud
ĠI O
ĠB ry
ad min
ur c
P aul
ĠD ifferent
Ext ension
ĠC M
Ġchart s
Ġg host
Ġspirit ual
2 13
> ();
Ġt elescope
Ġnot iced
Ġthermod ynamic
ĠAn ne
Ġf is
ĠP as
IF AR
19 16
By te
m ock
ĠFor ces
method s
; /
the ore
$ ]
st ery
Ġbroad er
h ou
Ass ert
f d
p b
$ _\
ĠAl tern
Ġclos ing
G T
L I
ĠRef s
Ġeth nic
ĠG un
}= -\
Ġrenormal ization
ĠF ried
Ġspat ially
Ġeng age
t ry
se a
in aries
Ġmer ged
Ġsh op
Ġtax es
ĠSw itzerland
M edia
gg ed
Ġinter vention
Ġsure ly
N a
Ġcov ariant
Ġdiscre pancy
Ġch urches
ve ction
App endix
Ġcomp r
lic ations
ĠSar ah
other wise
ĠE ss
Ġl ying
Ġcor ollary
^* $.
Ã ¸
Ġwar ning
Ġm ess
S k
Ġsu icide
Ġcoun sel
Ġpriv ile
issipp i
Ġneighbour hood
Ġleg acy
d etails
ĠP os
ain ed
arg o
Ġassert ion
Ġnom inated
ĠB R
d imension
Ġfilter ing
Ġy es
Go ogle
Ġt um
Ġf irms
ĠSD SS
}^ -
Ġtriang les
ĠSt ill
nov ation
n an
Ġal leg
="../../ ../
H F
phys ics
ik h
f ail
Ġes cap
Ġens uring
proto buf
r ity
Ġpart ly
D ay
N orth
ou ter
ĠCh airman
Ġcont raction
Pl ot
no align
Ġdest ruction
Ġincre ment
Ġpolar ized
ĠN ich
ĠR oc
at omic
Ġg ay
Equ ation
Ġdepend ency
ic ing
ĠG P
ĠS quad
ĠT ab
e ast
Ġf rust
Con stra
ator ial
usal em
B a
c as
Ġcyl ind
Ġcheck s
| ^{\
ts d
Ġc ards
Ġdist inction
pro ve
ĠG ab
ĠC MB
Ġro utes
ĠT E
' }{
ing ham
Ġpar abolic
osp here
ĠFig ures
14 5
Ġneg lected
ĠAg reement
ĠH u
ogene ity
math rel
Ġif f
ĠG ard
Ġs av
ĠR on
ĠM ake
ĠR oute
ĠMat hemat
Ġanomal ous
Ġstream ing
cur ities
D iff
ĠR O
Ġro of
t oggle
E nabled
ry ption
Chang ed
ĠP ope
Ġill um
Ġpredict s
ĠE M
Ġanisot ropy
Ã º
Ġcon cludes
ie val
Ġsu pre
k ernel
Ġinstrument al
Ev ents
ĠD ick
, +
ĠP ear
Ġeng agement
W N
Ġcon sole
ĠA B
ĠS ite
Ġf ruit
m ill
Ġpreced ing
ĠF isher
Ġdevelop ers
Ġ} _{
Ġo cean
Ġdis abled
arc sec
$ ^\
Ġpurs ue
,\ ;
ou rag
erv ed
pro gram
L ife
ĠL am
Ob j
G ame
Ġ' /
Ġwe ar
Ġlat ency
Ġw alks
Ġminor ity
Ġden ied
sup ers
19 27
op ing
sp ot
Ġtransform s
| ,
19 24
and o
Ġconstra in
Ġenc ounter
Ġins pe
Ġaggreg ate
_ ;
Ġsat ur
ĠT ax
ĠS ED
M ock
g it
ch ment
ang a
Ġin cent
Ġsear ches
ĠK o
ret ch
Ġcele b
J SON
ĠO ak
S Y
p rior
ĠLank a
$\ %
elect ron
Ġmole cule
Ġrun time
Ġg rants
19 21
Ġinvestig ations
Ġt ied
Sim ilar
L ike
\ ),
l c
d n
Ġb aby
F G
R ich
L ock
Ġtrans c
Ġcompet ed
i at
Ġkee ps
th read
ĠBo olean
x t
S end
ĠCommon wealth
N ormal
ext ension
tem p
Ġemer ged
ĠD NN
cor por
Met adata
}^{ -\
Ġpredict ive
G erman
Ġindu ce
Ġvalid ate
Ġselect ing
l ades
ĠB ox
Ġviol ent
Ġexcit ations
contain s
system s
Ġbond s
Ġdeploy ed
Ġmaxim ize
Ġthe rapy
. ),
ĠK elly
Ġup coming
Ġinfin itely
ap olis
\% .
I X
ĠF r
Ġt idal
Ġf lying
fore ach
^* $,
ĠK han
Desc riptor
MA X
Ġchild hood
Ġs pont
ord inary
Ġdifferent ly
Ġcr ash
Ġf ract
pl ugins
Ġprom otion
Ġelig ible
M eta
Ġthought s
Ġst ating
Ġw aters
^+ _
Ġimm igration
Ġnon negative
iv ities
Ġst range
}=\ {
im ir
Ġas set
Ġen for
aw n
Ġmass less
ne ut
ex pl
Ġle pton
2 25
bu ilt
B s
rel ative
Ġcumul ative
Ð ·
Ġdesc end
ĠYear s
ĠL yn
Ġcomplex es
Ġrecommend ation
) }}{
ol o
i Ã³n
Ġv ital
Ġfem ales
OD O
C ustom
New s
Ġrac ing
ĠW y
Ġgrate ful
Ġcelebr ated
Ġlabor atory
&& &&
Ġf illing
19 12
at io
ex istence
Ġcont ours
ole v
ĠC hen
lim ited
Ġpat ches
b ran
J ames
? ?
ĠP ract
}{ -
ĠCl aim
A uth
Ġt on
Ġbe ar
Ġcar rier
. ).
ĠP L
d ed
Ġd uties
ĠF ather
^* )
Ġroad s
V ir
Ġconcent rated
Ġres idence
ev olution
ad joint
Ġat tain
ĠS A
sche me
ac cept
d iction
17 5
Ch annel
ĠNor way
represent ation
ĠDet roit
ĠJud ge
ĠFred er
in her
Ġwavelength s
ĠS el
ex amples
Ġep id
h h
19 26
Ġsub div
Ġprior i
Ġout break
Trans action
Ob serv
Q CD
ethe less
ĠN BA
Ġres idential
ĠHer itage
W R
aver age
S ample
Ġmer ge
Ġcritic ism
ath y
Ġre cept
qu et
ett i
ĠF A
ĠG ene
t ip
SE T
Ġoccur rence
Ġb rowser
weg ian
Ġrele vance
Ġ rays
r n
Depend ency
ĠTai wan
l ag
Ġcyl inder
ĠB run
Sec urity
ĠHot el
Th ree
Ġrepeated ly
ma ker
Ġp ars
Q U
sub ject
10 24
mon th
am y
item s
ĠL ink
Ġindust ries
sq cup
Ġp sy
ell s
Ġinnov ative
ĠMel bourne
ĠF er
ĠS ant
D onald
P al
ps frag
h our
ĠH it
pass word
g as
ĠS yn
Ġb ij
Ġcontrib utes
Ġconf usion
Ġillust ration
Ġpref erence
Ġh tml
ĠI o
Ġtra p
ĠS ho
Sim ple
Ġgu ilty
Ġide als
ĠAp pe
C opy
est imate
3 20
alt imore
Ġaff airs
S ever
ĠF OR
ĠMax well
ĠWith in
c op
Ġt u
Ġlimit ation
Ġsk etch
Ġop ens
Ġcomm ands
Ġbas elines
atter ing
ed a
ĠUn like
Ġtext s
ffic iency
Ġel abor
Ġan chor
hy thm
ĠLaw rence
Ġval ued
en berg
ĠRepresent atives
ag ent
at z
var sigma
rosc opy
. (
Ġs oul
d iamond
Pro duct
U D
in cess
Ed itor
Ġhead quarters
Ġb if
ĠN eg
ĠPer formance
bal ance
19 25
Ġout lined
Ġmagnet ization
ass er
Ġgl uon
X T
d ig
Ġpay ments
f ac
Ġh at
c z
v ideo
Ġcheck ing
Ġstreng ths
Ġ& -
ĠY uk
Ar gs
Ġpo etry
Ġ+ (
sh aped
ĠAd S
h p
G W
H ig
Ġminim ization
f ollow
ĠH ans
ĠD ur
Ġhard er
Ġreserv ed
Ġcl ause
Ġencoura ged
L ook
ĠCh ile
c od
Ġreg ret
Deb ug
Î ¿
}} %
Ġdocument ation
Ġbatter y
Ġsit uated
L ight
Ġtriang ular
l av
Ġo k
^+ (
Ġsucceed ed
G rid
orthe ast
Ġst em
Ġlong est
Ġmes on
Ġreview ed
Ġbl ind
Ġserious ly
ĠC it
ors es
Ġcolle agues
X ml
un ov
h op
Ġc us
20 23
ĠC ape
__ (
L ag
A re
ĠAd vis
Ġent rance
Ġcon g
Ġpubl ishing
ĠB uck
S an
B it
p al
Ġland s
h ad
Ġhighlight s
Ġar ithmetic
Ġbur st
inc ial
{ #
Ġsch olars
Ġm sg
ĠC ook
Ġbelie fs
Ġdefect s
D er
Ġstream s
Sh ort
qu al
F rench
w ild
ĠH ug
Ġevol ve
Ĥ ¬
Ġsub str
Ġmon omial
l um
ĠBan ach
ĠS audi
Ġcomplement ary
h uman
13 4
Ph oto
Ġgun s
ĠMor oc
Ġcon scious
Com mon
ol k
ric ing
Ġgra phe
ĠAll iance
ill ery
19 23
T L
Ġtr im
W omen
Ġsepar able
Ġredu nd
Ġde form
i u
Ġequ ity
Ġhe li
ens ing
Ġshe af
Ġm o
ib liography
s r
ĠW ang
Ġste ep
Ġannih ilation
S al
B ro
am ps
Acc ount
Ġro oms
ĠE ffect
13 2
Ġprofession als
] ,\
av ailable
at ta
le v
Ġvis iting
! âĢĿ
it ure
ues e
uls ion
Ġquant ify
inter val
Ġch amber
m ates
Ġcol ored
ĠAust in
s ave
D etails
ĠS in
Ġprison ers
b ing
id x
Ġbeaut y
Ġâ Ĩ
Ġabs ent
Ġgra in
Rem ark
ĠAd ams
Ġport folio
Person al
bar a
w hel
ab c
O PT
Ġgu idelines
ĠK az
amilton ian
)} +
00 3
Ġun expected
l Vert
ĠF arm
Ġcapt ures
R oot
1 19
ĠY outh
Ġreson ant
} ''
}} |
Ġlab elled
ĠR N
I con
Ġre n
ĠWal ter
` .
f ather
16 5
orig in
resol ved
act ing
ce ive
Ġconduct ivity
Ġorgan isation
Ġmusic ian
ĠF L
ĠF ame
Ġcombinator ial
ef e
Ġspan ning
ĠR GB
ck s
Ġwel come
f ollowing
com pos
tikz cd
ut ter
ĠR andom
]{ $
Ġimplement ing
ut er
ĠF M
DE BUG
writ ing
reg ister
Ġan th
' _{\
Ġbo at
Ġcert ificate
ĠPh ill
Ġload ed
}\ {
ĠC u
5 000
Ġgovern ed
] +
Ġo mitted
=" ">
Ġeduc ated
ĠC os
S B
ĠRepublic ans
_+ $
G F
ĠTown ship
Ġly rics
Ġre named
Ġsur jective
Ġman ual
col lapse
Ġb ug
Ġfra ctions
\% )
ĠChrist ians
J apan
S ong
Ġear liest
ud a
ather ine
ivers al
Ġinvolve ment
ĠO klahoma
Ġoption al
]{ @{}
E s
ĠB it
ĠPolit ical
Ġad i
Ġinj uries
n orth
Ġal ive
Ġar ranged
grad ed
TE ST
ĠInt eg
Ġco aches
x s
ĠG Hz
Ġphotograph s
scal ing
prop ag
ew art
13 6
) }^{
ĠJer usalem
Ġcounterpart s
d ays
ĠSchool s
ĠG ordon
se lection
ĠEd itor
c ir
t ar
riv ially
ĠC ore
ĠAcc ount
om ot
d k
ynam ical
Ġmay or
Ġassert Equals
ri ends
15 5
Ġo x
Ġb ag
esp read
e or
Ġbackground s
B ur
Ġc f
ĠB eng
ass ador
LE CT
Ġw ra
ĠR F
P F
Ġt ube
)} +\
v p
claim ed
ĠNav al
ign ment
Ġkinem atic
Ġf urn
aint iff
ter y
Ġparamet ric
ĠTurk ish
bre aking
i ot
}) \\
Ġf ired
i ac
ĠP ot
ol ute
ĠCent ury
Ġsem antics
Ġqu iet
condition s
U SE
H a
Ġw rest
label ed
s or
Ġt ropical
Ed it
ĠPro tection
br and
b os
Ġsupp ression
Ġm asks
st ration
Ġout line
b et
Ġle ver
ĠMay or
Ġb tn
Ġcut ting
Ġconserv ed
nt il
P rim
ĠMc K
Ġanim ation
Ġfe es
wid get
Ġs essions
te chn
D ouble
cal ling
Ġs ad
ast s
Ġ& =\
Ġnot ably
cont roller
Ġpay ing
ĠRel ations
Ġval ley
Ġdist ortion
n othing
Ġs ick
as ym
ĠMem bers
{ -\
ĠWalk er
work s
ĠRes Net
Pr int
t c
Ġdram atic
ĠThom pson
ĠS hi
Ms g
Ġsac r
Ġproceed ings
Ġinter fer
int end
li u
i op
ĠGa uss
Ġimp ressive
Ġcomputation ally
tz mann
cle an
ĠK y
Ġun changed
Ġaccept able
ĠStud ent
Ġspec ification
Ġconstit ute
col sep
Ġlearn s
Ġor ange
Ġdamp ing
w d
ĠC hern
s child
. :
ĠMiss issippi
Ġfranch ise
J S
type of
Ġw elfare
Ġal cohol
Ġis lands
Ġf at
ĠOr th
. }}
Ġinter pre
ĠStud ents
S cale
Ġstar ring
n il
ri k
[ :
ĠH ubble
ubl in
Ġgraphe ne
id ity
Ġreserv oir
Ġsurv ived
b ach
iss ance
Pan el
ĠRes erve
ag u
ĠU t
New ton
Ġsurround ed
b ridge
Ġtens ors
ĠBow l
im uth
ĠAg ric
}} }(
Ġj azz
Ġuncer tain
G old
Ġtheorem s
Ġpred om
Ġanalyz ing
15 3
Ġra ising
leg al
Ġwid espread
spect rum
Ġcl er
omorphism s
Ġmon op
ĠW as
ĠD ave
Ġsimplic ial
Ġse cretary
Ġsc attered
symm etry
ĠE dd
ock er
ĠPh D
Ġtrans ient
Ġsoc cer
Ġsearch ing
Ġexpert ise
ĠS port
Ġcopy right
Ġb ubble
M arch
Ġex clusively
cal ar
19 13
B ERT
St orage
Ġexplos ion
Ġ\ ,\,
ther mal
Ġion ization
V s
Ġhypers ur
P ackage
ĠL ang
s ocial
Ġsol ver
Ġas ymmetric
ak ov
Se lected
Ġprint ed
M apping
ĠMan ager
et ics
ta king
)^{ -\
ĠIndepend ent
Ġagric ultural
ĠBu ff
Ġen code
ĠU l
K n
ĠM aterial
Ġdist ant
Ġst ruck
. }.
Ġjav ax
W I
F ore
Ġgen re
ic he
A lex
Ass ociation
ĠLouis iana
g auge
u ct
ĠE mb
ock s
Ġt ip
Ġaugment ation
i est
n odes
ĠN P
I J
Ġst yles
Ġaw ait
Ġfl ags
ĠB ah
part y
D an
ĠPro du
rm k
M ult
Ġhor ror
ĠF ive
Ġoff ensive
Ġpe er
Ġaband oned
pro ps
Ġher itage
cl ust
13 3
Ġax es
Ġj son
Ġpuls es
Ġs addle
ĠT rib
t abl
ĠW atch
Ġacknowled ges
ia o
ur ious
Ġsp okes
Ġeng ines
ĠP RO
Ġformer ly
al most
ĠE ag
cm id
Ġres erve
ĠD allas
Act ivity
Ġres ident
ĠAss istant
r Vert
Ġal ert
c C
Ġreson ances
P red
ĠL iver
nu cle
ĠW olf
ord ination
ĠJ ason
)\ ;
R ect
AN T
pg f
bi ased
Ġint ense
Ġc asc
Ġsing ing
Ġcancell ation
cmid rule
13 7
V V
ĠConnect icut
Ġsequ el
N orm
Ġvill ages
ĠSoft ware
Ġl ake
E t
Ġ$ ^
ĠN ation
os itory
lim sup
Ġ ...,
Ġdo ctors
FA ULT
big cap
ĠNe umann
ĠSt ein
mid t
Ġp ushed
ĠW ol
ij ing
taint y
V ec
per formance
ĠPa per
ed ef
Ġrare ly
C hen
{- .
ut ations
j our
ĠD al
in cre
pm od
Ġf ro
), $
t uple
Ġmathemat ics
Ġd ies
Ġpl astic
Ġro se
S G
app ly
. *
Ġexp ans
Ġmag ic
ed ition
Ġas c
Acknowledg ements
ĠH um
12 9
Ġlist ening
ove re
ol ly
ĠA BC
Ġhypot heses
yn man
Ġdo i
win ning
ens en
Ġemphas is
ĠC opyright
ĠK u
Ġmanag ing
Ġdown stream
B al
un ed
Ġregul atory
ĠSp irit
Ġinflu ential
ĠP rom
Ġp ion
ad j
ĠMean while
Ġev il
O B
Ġappoint ment
Ġph arma
orient ed
Ġcomp ound
ĠR ab
Ġattract ed
um ar
ĠEnvironment al
Ġd ictionary
t u
Ġdro ps
Ġco ff
ĠHigh way
Ġsupp lement
inc ar
ĠR ound
ĠPart ners
call back
Ġ[ [
ang ers
as m
Ġsoph istic
ĠĠĠĠĠĠĠĠĠĠĠĠĠĠĠĠĠĠĠĠĠĠĠĠĠĠĠĠĠĠĠĠ ĠĠĠĠĠĠĠĠĠĠĠ
Ġinhab it
sche ma
Ġm ales
ĠN ode
P DF
P ay
ĠPl ayer
Ġpaint ings
ĠPalest inian
Ġa pert
Ġinterview s
| <
Ġc ref
Ġanalog ue
P rior
)$ :
ĠPe ak
ĠSil ver
Euro pe
section s
Ġhospit als
Ġsk ill
Ġexpl oring
Ġjournal ists
Ġt ort
ĠW ard
ĠSe attle
Ġm outh
Ġh opes
o ft
Comb ining
Ġcor ners
S QL
ĠD VD
! "
Ġmet ers
20 2
pp ers
t f
Ġbuild er
Ġfor b
| +
Ġinitial ization
Ġthe ater
R G
Ġt uple
ĠM ir
ĠAl an
Sy mbol
ĠWork s
: [
Ġathlet es
Ġtack le
A bs
ĠN i
pr ison
L ower
Ġadjust ed
$ ^{+
V A
ĠU tah
( |\
Ġ âĢĻ
Ġdecre ased
Ġt ies
ĠMach ine
Ġreason ably
o ples
ĠT aking
ĠAust ria
F i
Ġperson ality
Ġperm it
Ġweek ly
Ġh ur
Ġwhe el
Ġpres um
ĠL ind
i Äĩ
Ġg ram
re ens
Ġsumm ation
Ġsign atures
qu bit
Ġsat uration
Ġtext ure
Over view
v b
ĠL GBT
w hat
19 11
Ġanaly tically
ĠChrist opher
Ġle pt
Ġbin aries
ĠO N
)\, ,
R P
Ġvirt ually
j amin
ĠLa placian
ĠC ow
iv a
level and
Line ar
ĠT ree
id ge
ĠD rag
ĠE dition
J une
add r
Ġm a
Ġput s
Ġh ired
W ell
Ġtw elve
ĠB etween
Ġhe x
B orn
view s
ĠSch r
Ġsupp orters
Ġdesign er
` ,
ric ulum
Pat tern
s burgh
j query
ĠD ocument
)\ )
' ^
ĠC emetery
Ġde put
ĠS ob
ign er
Ġmonot onic
P ER
en h
Ġem otion
Ġvic inity
ĠV I
US Y
pol icy
Ġf abric
7 50
. \,
Ġo ct
ĠI mages
ey er
Ġmy th
Flo at
Ġtem ple
Ġcoupl es
FI LE
Ġjud ges
ĠPro duct
F B
Ġg ang
Ġto ugh
if iable
ann y
ĠFin ance
==== ==
W W
Ġc ot
ĠCh air
Ġl ots
ĠW i
on ormal
Ġprodu cers
Ġamong st
Ġprot otype
}) +\
c oupling
}{ (\
av g
ĠCl oud
" )]
L and
ĠNig eria
M ath
Ġmodul us
Ġthreat s
Ġanisot ropic
g ence
Ġc up
Ġun clear
M etric
ic ious
T aking
ĠSw iss
ĠM os
ĠE W
\ `
ĠP ed
math ring
Ġmet adata
Ġl attices
Ġland mark
ĠSl ov
lades h
Ġfil tration
M ember
ĠL A
que ue
Ġf inger
err ors
ĠLeg end
dis k
Ġvis its
F eb
Ġcom ic
C r
ma ch
M iss
=\ ,
ha o
z an
end ers
ĠP rivate
ĠM W
Ġperm itted
) ">
, ...
Ġf aint
v ity
Rober t
ĠM organ
Int eg
)\ |
tern oon
ĠVill age
ĠF ind
ĠDou glas
sub script
v ary
_* $
ĠT i
ac les
00 4
Ġcor ruption
Ġpass engers
Ġsub spaces
uer to
Ð ¿
14 3
con clusion
Ġphot ography
Ġanim ated
ĠDe an
IV E
DE s
Ġart istic
Ġr ugby
am er
u ary
ĠH E
Ġdiv or
e enth
Ġadequ ate
as ympt
Ġ{ (
rib le
rel ativistic
scal ar
Ġbary on
Ġnot ions
VER SION
Ġproceed s
Ġso il
or o
ĠPy thon
Ġb on
^{- (
Ġw ake
Ġcontext s
Ġc ube
n at
ĠH ess
19 4
Ġend point
Ġenc ourag
Ġtravel ing
Ġact ively
Method s
Ġfre ely
Ġinv asion
ĠM ars
P ower
D G
ĠT ag
Ġwh ilst
Ġob sc
Ġcommand er
drop down
c M
Ġle verage
Ġsub stitute
Y es
ĠCon fig
ĠHistor ical
Ġh ook
le ans
ĠF reedom
Ġex terior
Ġs i
l on
Ġfaith ful
per ial
ĠBase ball
Ġ ic
Ġto m
Ġanalog y
T ele
Mich ael
ĠDep uty
ĠD ub
t uning
19 08
all oc
re ach
ge o
ĠPol y
pa ren
Ġdeploy ment
ĠS H
ĠN ature
Ġwind s
k pc
valid ation
ÃŃ a
ra k
Ġper ception
T oday
ĠM s
sc roll
Ġas semb
Ġ" /
Ġunder go
Ġinflu ences
and al
ĠL STM
app y
ĠArm en
ĠN L
Ag ain
Ġve get
Ġal ph
ĠG ulf
Ġaggreg ation
ĠM N
us ers
Ġflex ibility
Ġdiscret ization
Ġphot ographer
Ġ$( {\
Pro blem
}$. }
ah ler
Ġrefer ring
Ġan satz
Ġ' '
Ġconstant ly
b oy
hand ed
ential s
Ġcard inality
G ood
list ing
st retch
Trans port
Ġover se
_* \
ĠR ot
ĠP ack
ĠCl in
De ep
ced ure
] =\
Ġph rase
A pril
d g
yn olds
c A
e u
Ġthrough put
Ġg ran
Cl ose
act or
Anal ysis
Ġre tained
ll ll
ĠD A
ĠK er
2 60
ĠJun ior
Ġtroub le
) &=
ĠA le
Ġres ort
Ab stract
Ġdescript ions
Ġst ere
ount ered
inter action
st eps
to ols
In it
Ġquad ru
Ġparticip ating
M W
ĠSt art
ĠP ho
R andom
Anal y
ĠMc G
col lection
Ġelim inated
comp ass
prob ability
V P
ĠR ick
object s
Ġconj unction
an im
dat aset
> [
Ġinf ected
ĠM ission
Ġgr ass
produ ction
Ġelli pt
H o
H ol
Ġlens ing
Ġcy ber
Ġconsist ed
Ġd eta
ict ional
)= -
ĠMic hel
hat tan
approxim ation
() {
Ġfle et
Ġdes irable
ĠMuslim s
Ġmem brane
Ġinspe ction
ĠD og
Ġab road
)} -
Ġrel ates
Ġn g
Ġstri king
Ġb irds
Ġle tting
Ġmac ro
ĠPro p
in burgh
az y
ĠDef ault
ĠMethod s
Ġhand led
Ġax ial
ĠBrown ian
Ġexpat riate
re ma
ĠG arden
Ġb racket
Ġconstitution al
ĠEx change
Ġvol at
Ġstat istically
Ġc ra
ĠVol ume
mathb in
Ġsupp lies
Ġprom oting
ĠC F
ĠK now
ĠBar on
multip ut
build ing
R o
Ġsub script
A ud
we ek
Ġmonot one
Ġdep ression
ir i
Ġover whel
Ġmultiplic ative
Bas ic
Ġacqu ire
rob ust
Ġtimes cale
Ġpl ain
Ġprot ests
am an
' },
m orph
ĠDom in
ĠS eg
Ġd b
Que ue
Ġgra ins
Ġb ol
Ġv oc
pd ated
à ¸
Pro file
or se
ub s
Ġre finement
L ayer
b is
or ange
Ġent ers
ter min
ĠRuss ell
Ð¾Ð ²
J ob
Ġfix ing
ĠB altimore
Ġrecord ings
Ġthem es
Ġg alactic
s ong
Ġpull ed
Ġwonder ful
O F
Ġqu art
ĠSch olar
um my
Ġdis appoint
Ġrec ru
Ġin aug
Ġvot er
m ate
With out
constra ined
ĠRes ources
Ġtra ct
ĠMat thew
T ok
;\;\ ;\;\
ĠD ak
ĠCov id
ĠN ik
ef ault
Ġcor pus
Ġpar a
Ġshort est
E p
ink owski
re ason
um s
Ġpass enger
ĠLe ban
=" "
ĠSe cret
JE CT
t bl
Ġrem ind
ens on
ball o
Ġemploy ing
the ir
non ym
Ġjuris diction
ĠAnd roid
C learly
chi at
Stat ement
th rows
ant on
ĠW right
A K
Ġpo inter
on na
Ġd yn
ĠL ower
sc ience
Ġsub mit
ĠF le
Ġsens ing
ĠTh anks
in um
Ġs lic
u is
{ +
Ġreli ability
ass ets
me as
C apt
d B
Ġpri ze
U B
ĠD id
van ishing
Ġanten na
ĠK ings
AB C
ĠGir l
con e
Ġ( [
Ġm im
}} ]
P ut
int erest
ĠDen ote
Ġc reat
re pe
H on
ĠRes ource
ĠM unic
ĠAut o
de cor
Ġcomput es
Ġpresc ribed
Ġclass ify
not ations
Ġtrunc ated
App ro
Ġball s
al p
ĠG alaxy
Ġtra pped
24 5
Ġsol ves
}: =
Ġun em
o a
en z
}} [
ĠO ption
j ud
Ġwe aring
Ġcommission ed
ĠK am
W ho
ĠN ag
Ġrout ine
)}{ (
h ill
14 9
ĠE C
FF FF
sign ature
on ing
ĠĠĠĠĠĠĠĠĠĠĠĠĠĠĠĠ ĠĠĠĠĠĠĠĠĠĠĠĠĠĠ
L y
C ross
ber ger
Ġcam eras
Ġyield ing
Ġg arden
ĠExp ress
å ı
n or
Ġcon form
ĠBru ce
Ġas ide
F iles
Ġin hib
Ġcap ac
30 4
Ġenc ountered
Ġaugment ed
Ġany where
M ajor
ract ing
_{ *
Ġdelay ed
Ġcon fined
l ene
ĠLe vel
F ind
b v
Ġde emed
Ġcomput ers
equival ent
Aug ust
Ġed ited
wp engine
, '
ĠK itt
att ention
Ġt iny
Ex amples
=\ !
ĠR ule
ow ards
Ġfluct uation
rack ets
Ġhol iday
Ġex clude
Ġcoal ition
Form er
By Id
w ind
cycl ic
ub es
Ġbij ection
Ġqu oted
Ġopin ions
sh adow
Ġchem istry
Ġdom inates
car ballo
ular ity
ĠR ank
Ġorgan isations
Ġpet ition
Ġcolle ges
observ ed
Ġin ev
Ġen abling
is an
ĠP red
ob tained
Ġprote ins
Iter ator
Ġb ipartite
ĠB orn
Ġb io
Ġimportant ly
) <\
ĠR u
Aut o
0 25
ĠM anu
Ġsupp ress
Ġquad r
ĠF O
18 90
Ġre written
âĢ ĭ
ta kes
min imum
it is
ap ing
3 000
Ġst adium
ĠTele vision
sc ar
et ers
ĠS elf
list ed
S ources
13 1
Ġrest ored
Ġrot ate
am az
Ġdiff use
Ġp c
Ġsign ing
s amples
ited efault
mc itedefault
Ġhead ed
Ġnom inal
Ġsched uling
ĠI r
13 8
on z
verb atim
Ġsp acing
................ ................
Ġro yal
Wh ite
ĠArk ansas
x ic
oc ese
Through out
Ġoscill ator
ĠU pper
}^* $
uit ively
ĠAnton io
} <\
ate ur
ĠU pon
ĠHon or
ĠJ e
Ġem itted
t v
Ġb orrow
ĠF R
Ex perimental
as hes
Ġir regular
Ġsurv iv
J anuary
w i
m icro
s om
ĠS ac
Ġnucle on
qu estion
15 00
ĠAm endment
Ġstat istic
necess ary
ed itor
Ġfore ground
Ġdef ensive
w alk
Ġint ra
on der
ĠPet ers
ĠAd vent
P ack
ĠEx pl
Ġmen u
M ot
s ampling
Ġcross es
ok er
ĠRob inson
constra int
ĠB E
Ġj ury
b ol
Ġre ven
pect ives
ĠBrook lyn
ĠW ord
Ġkn ock
p seud
Ġatt ra
Ġaddition ally
Ġarrang ements
maj or
Ġdefend ant
Ġretrie val
D est
st ory
rad io
ĠB ou
Ġdegener acy
j j
in verse
do es
clip se
ĠIn put
un signed
Ġfermion ic
Ġ$ +
ca pt
online cite
look ing
Ġiniti ated
ĠOr leans
' })
^ -\
Ġre vol
r ational
Ġbre ath
uc lear
Res ol
Ġform ulate
Ġcontroll ing
ĠCh amber
T ax
ĠO k
d ale
Ġstay ed
Ġload ing
ĠN elson
cos ystem
Ġen umer
is ode
000 1
Ġaddress ing
Sever al
Ġsub stitution
Ġbenef icial
G rad
Ġk it
Ġincl ination
Ġm as
Ġimm igrants
Numer ical
ab e
Ġf ed
ill o
ide al
in ces
Ġslow er
L AS
ĠFrank lin
ov ich
Ġdom inate
ĠSam uel
Not Null
; }
s sec
Ġre ign
ĠM i
Ġt ank
al ia
spect ral
ĠEv ans
equ ence
app er
res et
Ġl ibraries
isen berg
L D
ĠTe ch
}} /
comb ination
aught ers
Ġd st
it ro
in ous
Ġsing let
ĠAb d
Ġexam ination
exp ansion
ĠPortug al
Ġfarm ers
pl atform
book s
Ġst ick
Ġmem or
dis crete
ĠBelg ium
ĠMar shall
Ġsmooth ing
ĠS Ne
Ġsp arsity
ri el
Ġinsp iration
trans fer
Ġen orm
ĠC ox
ĠÐ ²
un ion
Ġadi abatic
Ġas ks
au ra
Ġrob ots
Ġsuper nov
J uly
plet ion
st ers
Ġsk ip
C ategory
prot ected
ele ments
ĠArgent ina
ort on
Ġemploy er
Ġr ide
Ġlaw yers
Ph one
tab s
te ch
Ġm art
dor ff
Z hang
Ġca ps
Ġhistor ian
V C
Ġg ro
ge ometric
Ġcolon ial
Ġharm on
\ #
ĠNC AA
ol ph
ta gs
assert Equals
ĠN eed
IN D
Ġcontrovers ial
en ix
Ġexplan ations
m any
Ġh ate
Ġin clusive
}) _{\
mem ory
ĠMov ie
Ġan nu
man ager
H u
Ġex ponents
ĠM E
ist ance
Ġm ath
Load er
ay an
f erm
Ġin set
Ġg athered
min ute
ST AT
Ġperm utations
m k
ĠC limate
AR E
Pro xy
anc ies
Ġresidual s
Ġconflic ts
he nce
Te V
ĠEar l
\ ;\
(\ {
H am
Ġcontinu ation
Mem ory
ĠPolit ics
bp ack
ar ound
Ġbif urc
u id
pre ceq
Att ributes
( !
test s
Ġcal ib
Ġb ronze
ĠM ess
s ided
IT E
P lease
Ġpack ets
ph on
cl ock
Ġut ter
ir th
F rag
Ġfil tered
g age
Ġf idelity
Ġpropag ator
Ġo mit
)= -\
Ġhand ler
Ġheur istic
Ï Ħ
u ate
}}{ {\
ĠCar ter
Ġsimultane ous
Ġan xi
13 9
Ġsp anned
Ġt act
id i
ĠLe aders
t ures
Ġsophistic ated
m outh
Ġdrum s
ĠArch ived
h ots
ĠCol omb
Im port
ian ces
Ġaccording ly
Ġ$( -
Ġt el
Ob serve
Ġeigen vectors
em en
Ġdemoc ratic
ĠBe ijing
ĠStud ios
:\ :\
Ġ Ñģ
Ġs hed
ĠComput er
Ġst ops
she et
20 5
Ġdis aster
H ub
ĠC ensus
se mi
Ġtouch down
ul ates
Ġfem in
Ġmetall ic
ð Ł
Ġannounce ment
S om
99 99
CD M
Ġcommun icate
ĠL anc
ĠOper ation
Ġaz imuth
Ġres um
ĠIndones ia
ĠT un
ĠMa ine
Ġn od
we ets
F ramework
Ġb orders
ĠB art
Ġan notation
Ġpass word
Ġon set
iss ues
ĠT ogether
Ġproxim ity
W il
ust ain
Ġad option
ĠSen ator
}}( {\
Ġbeg un
ĠOrig inal
ĠL arge
tr uth
ĠSch warz
F ran
ĠS ep
ĠU C
ĠAl bum
le ased
)\, .
Ġs urn
Ġthe sis
ĠY an
Ġaut onomous
Ġcirc uits
Ġiniti atives
f x
}) -\
rest rict
ID S
Ġposs ession
Ġkil omet
Ġen force
Ġ rib
rr rr
Ġrel ay
Ġd ating
ill ation
ĠBe at
ow s
fin ing
Ġtalk ed
app ings
Ġcomp ilation
19 05
K w
f eed
16 8
Ġaffect ing
test ing
ĠOver all
Ġh am
Ġhal os
Ġpredict ing
M ET
T ri
ĠT ar
Ġinvest ments
Ġbeam s
Ġpark ing
S pect
ĠM other
M ENT
Ġdecl ined
tag on
Ġcross ed
Ġalloc ated
Ġorth onormal
part ition
ĠB ull
Log ger
Su ccess
with in
Ġspect roscopy
}) ]
Ġf unc
ĠM essage
ĠF W
Ġagre ements
r h
It ems
Ġim prison
Con sequently
Ġrele ases
Ġfit ness
ĠBang ladesh
)+ (
ĠAl ber
0 15
ĠF un
f are
s outh
ĠV egas
t l
Ġcry pt
Ġexceed s
c H
T x
Ġm uon
pa rency
Ġsp ots
vi ol
ĠB Y
ĠI ce
iz z
ps hire
ĠComm unications
ĠH ills
Ġpl enty
Ġsp oken
Ġman ually
tr igger
Ġspl its
0 10
ĠC IFAR
Ġcon qu
Ġwe bs
Ġaf ternoon
Ġadvers ary
enez uel
ĠLiver pool
s al
im ath
Time out
ĠM ult
Ġacceler ated
F amily
T om
Ġinvestig ating
Re cently
it ol
3 30
L ee
Ġf ishing
In ternal
su cc
ĠR ace
Ġr um
ĠC av
mu nd
Ġcl im
Ġmicrosc opic
hand ler
Ġfis cal
W he
ĠChristian ity
U LE
es ome
ĠP ref
s z
y u
Ġsuperconduct ing
}_ *
ĠG AN
Ġcampaign s
Ġdepart ure
ere n
Ġmain stream
Ġsupp lied
ĠEconom ics
Ġamb ient
ĠN LO
h ai
14 6
ĠAng el
che m
Ġth rown
ĠL en
spec ies
Ġabsor bed
Ġstreng the
Ġu ps
del ay
ĠPh ase
ĠK r
Ġmore over
sc ribe
Ġjun ior
ic ians
co herent
Ġperturb ed
min imal
ĠG ray
T ake
ĠM R
Ġtri plet
[] {\
Ġactiv ists
ĠV AL
Can adian
Ġbi ased
ĠCamp bell
ĠQueens land
ĠChar lie
ic z
ĠL uther
Ġlegisl ative
ens is
Ġdeb ug
Ġmem ories
K M
Ġequ iv
Ī Ĵ
Ġt ags
vert ical
enn y
g ression
ĠEx amples
Ġeconom ics
Ch apter
cho ice
A ir
ess els
ĠLim ited
ĠObserv atory
ke e
Ġin ject
as ets
}\ ]
Ġbos onic
ĠPortug uese
ĠRe cently
Ġpat ent
Ġhad ron
Ġgener ative
__ _
o il
Ġle ak
Dom ain
19 09
l ive
inter pret
Ġent hus
st orage
ul p
ug gest
}, {
ĠB ond
23 5
graph s
! [
ĠS olar
per m
ic i
Ġm i
Ġpl aus
Ġinstance of
k u
Ġn ick
ĠO pp
ĠP ad
sh own
ĠBatt alion
\ &
Ġphon on
iv an
Ã© t
Am ong
ich i
Ġsee ks
ĠO tt
Window s
Con struct
adv anta
Ġwor ry
cre ation
establ ished
ci pl
U ID
Ġe gg
Ġdetect ing
-\ !
F ace
N I
ĠDen mark
}{* }{\
Ġcogn itive
ros so
18 00
Ġthreat ened
om ed
Ġsuspend ed
ut f
act ivity
Ġ[ (
Reg ion
E nergy
Ġcelebr ate
g re
ĠEd inburgh
ben ius
M AT
ift y
integ er
fl ag
ĠLiber al
ĠSto kes
T ABLE
Ġdef ence
M us
m or
Ġl ad
Ġdel ays
Ġm s
N F
R oman
| $,
Ġdel iber
Ġret ro
id o
14 7
Ġsuccess ive
Oct ober
L aw
ĠComm ons
ac o
Ġlist ener
ĠIndust ry
p ull
Ġob ey
int roduction
Ġrespond ed
ĠP ic
Ġres et
ĠSt ewart
18 8
continu ity
_ ,
######## ########
Ġb ilinear
Ġpredom inant
Ġpre val
ĠAl b
LO G
Label s
e cho
» ¿
S ta
Ġun e
I ll
id uc
hol m
Fl ags
Ġe at
Ġdiscuss ing
Ġsur ge
g un
Ġrest ore
assert Equal
ight ed
ĠB us
Ġt ie
v t
sp here
Ġapart ment
Ġa pi
Ġp or
Ġmar ine
ĠRes ponse
Dat abase
Ġfib ers
ĠH IV
ĠM es
li ver
Stand ard
Bi ography
de cess
pan ic
Ġdi ver
Ġs ed
ĠH old
Ġoper a
ĠD ublin
dot sc
Ġser vers
ĠAn na
Ġautom ated
Ġpoor ly
Ġne ck
ester day
oper ation
tem por
aus dorff
Ġshall ow
awa ii
ĠMan hattan
Select or
Ġf oss
st ars
Ġt ennis
l iter
Ġt une
19 07
ĠApp lication
, âĢĻ
imod al
Ġcol ours
p u
Ġb at
14 2
Ġjust ified
ï »¿
Ġc rack
ĠB aker
ĠScient ific
ivid ually
d one
ĠC leveland
mag n
Ġfol k
ĠT rack
on ce
ĠLa place
sm ash
Ġweap on
ĠF ed
ent a
Ġtra il
ĠI ron
Ġexist ed
em e
Per formance
lik elihood
Ġpl ug
ĠA U
ire ctor
p k
el m
Ġun con
S am
r times
Ġd owntown
ĠC ass
ĠMalays ia
ab a
res on
M OD
itt en
S en
ĠGra ham
Ġartifact s
m rm
Ġun w
"> &
Ġspecial ized
22 2
vent ions
ĠMor ris
R oy
ĠT ol
prot ocol
cc a
Ġult imate
\ },\
P b
requ ired
Ġsem igroup
ĠSquad ron
C ard
ĠL iving
Ġb om
th a
ap unov
E lements
Ġ} ^{
plic ation
Ġpack ages
d dots
X ML
Ġd ra
ĠP uerto
b rowser
Re port
ĠH ell
Ġconnect s
al ong
Ġaccompl ished
M ill
Ġplace ment
Ġfeel ings
Ġh ide
be it
ĠPitt sburgh
Ġel der
Ġa ster
ole cular
multi ple
Ġpro gen
Den ote
Ġun ified
Ġadv ances
18 5
Ġvisual ization
ÑĢ Ðµ
ĠB ag
ĠTer rit
- }
Ġpron ounced
ĠS ex
mag net
Ġper ceived
Ġagric ulture
ir ates
Ġparad igm
}^{ {\
fill draw
Ġdiss ip
Ġ esc
ĠO S
b undle
Ġhigh way
Ġrem n
ĠMarg aret
Ġclass ifiers
ĠCr ime
associ ated
ext ra
commut ative
@ "
R ank
Ġent angled
ĠMove ment
Ġcount able
Ġmem orial
B rowser
ĠH ope
h m
Ġp unct
s it
ĠB ud
Ġconv icted
Al g
Ġdiagn osis
Ġsus p
Ġl ingu
ĠC rown
{ }{
Th omas
p any
Ġre fined
ex plicit
ĠCo hen
Ġcons olid
\, (
th row
Ġsuper vision
con tact
Ġfin ishing
][ '
O UT
osp el
Ġsubsequ ence
iv als
Ġf est
Ġd z
L ow
Ġv essel
ĠE T
22 4
Ġmonth ly
Te X
20 8
id ency
c O
Ġrefuge es
Ġl ag
15 4
Ġcatalog ue
j p
Ġre b
ou ver
ĠMe asure
or ious
O lymp
ĠTheorem s
var nothing
Ġbi ases
Ġ% }
pol ynomial
sh a
Ġcred its
ial s
vis ible
Ġfriend ly
Ġin complete
'' )
Ġeigen states
){ $\
ĠLabor atory
un i
b inary
Ġapp end
ĠMar ie
Ġcosm ology
m ers
Run time
in j
ĠDel hi
ĠW ikipedia
quir y
ĠH aving
ĠF al
Ġident ifies
ĠF ROM
th ird
Ġisol ation
}\ !\
Prot ocol
ke ley
it ime
ĠP i
Ġhas n
Ġimp lying
ĠPal ace
ellig ent
Ġanonym ous
Ġcomb ines
Vari able
w right
ĠAr g
ill ance
qu asi
Ġdisappe ar
Ġqual itatively
Ġleg s
Ġfair ness
Ġh az
Ġ" "
Ġimplicit ly
l p
ĠG C
ĠCommission er
ĠCirc uit
ir med
in ch
Ġ[ ];
" `
Ph il
ĠDo es
Ġdig it
ĠNor wegian
Ġtw in
m ade
Ġprogress ive
red ited
Ġfore sts
Ġcompa res
Ġpain ter
J ack
be am
ific ant
pre v
ĠMod els
support ed
ĠD ance
âĢĿ )
fl ags
ĠAst ron
not es
Ġsuccess or
p iece
Ġaltern ating
it ious
Ġcondens ate
ĠBill board
S un
p rom
Ġs alt
_* (
ar ab
ĠS tage
l ift
he v
ro v
ant ed
}| $
De cember
Ġcompris es
Ġcitiz en
ĠSaf ety
L F
ro oms
UT F
ĠJon athan
Ġt y
as g
ĠPro f
bi as
erv es
Ġinitial ized
F our
Ġinter faces
e ref
Ġm ail
Ġcomp iled
Ġener get
ed ges
Ġback ing
Ġ ],
Ġb eta
ĠWel sh
Ġrest oration
Gener ic
Ġperson ally
pro ved
Ġspeak ers
o i
em or
ĠR and
Ġconf ident
Ġplanet ary
Ġinteg rity
Li u
ĠD P
)}\ ,
med ium
d iam
z ed
Ġear n
L STM
bra ket
Ġout going
rain ian
15 6
et on
arch y
ĠStan ley
K A
Ġt rick
{( -
im ization
ĠL ane
ĠPubl ishing
Ġcollect ing
Ġlic ensed
Ġrestaur ants
yp ical
AD D
ĠWhe ther
() ));
Ġsem ic
_+ (
Ġper cept
Ġliter ally
ĠG il
n ice
ren a
f ish
chang ing
le igh
sh ared
Ġexp ense
H en
ĠAnn ual
u ous
Ġatt itude
Ad S
c ot
Ġem p
at able
S ER
ris k
ĠF P
w x
}} ^{-
mic ron
Ġmiss ions
Ġun bounded
b h
19 06
ĠEm peror
Ġcontam ination
print f
l f
ĠPat ri
Ġconduct ing
Ġinter cept
X iv
mod es
\ }^
disc ussion
Ġp ip
ĠO ri
ĠRog er
}^{ [
Ġnegoti ations
14 8
ĠOr chestra
Ġmorph ology
ĠT el
'' (
ig s
Bl ue
Ġsqu ee
Ġemer gence
RE AD
s ized
un ning
class ification
ĠSing h
Ġa ired
om on
ĠKn ight
ĠF ern
ect ure
ĠF I
e conom
Ġsh ots
SI ZE
Q A
Ġinter active
P ATH
He alth
ĠNaz i
Ġt ur
Tra ce
? }
Ġdo ors
o S
}) _
Ù Ħ
en ario
ref n
Ġp our
gener ation
Ġb act
ne e
Se ptember
m eter
th us
Ġsuper position
c ous
ĠG O
Ġannu ally
ed ing
An n
ĠD B
u ating
bal anced
i ology
ub y
Ġtun ed
Ġnews papers
Ġle mm
Ġinhabit ants
Ġannot ations
ĠHop f
ĠD ra
R M
Ġw ine
p unct
}= (\
alth ough
O ld
t mp
ĠĠĠĠĠĠĠĠĠĠĠĠĠĠĠĠ Ċ
Ad apter
im s
Ġwid ths
Ġthreshold s
ĠGi ants
Ġfun ctors
19 01
Ġt issue
ic ates
Ġmer ging
f ive
Ġg ross
Ġrep orter
_ ->
Ġpresc ription
u ons
st ability
em ark
oth y
Ġ\ }$.
J ava
in us
Ġpri est
19 04
H aving
ore n
ail and
th r
ĠMur ray
Ġpod cast
ĠT elescope
B AR
ĠT otal
ĠInd ians
gu ide
F unc
ĠE mm
r ators
Ġth irty
ĠW rite
Ġorig ins
ĠK err
Ġinstall ation
Î ¹
by tes
Ġpuls ar
}\ }
Ġimplement ations
Ġchar ity
Ġspeed s
Or gan
Ġ( {
par ity
Ġattempt ing
K im
Ġsudden ly
De ath
Ġarch ae
hy dro
Ġbur den
ĠK os
ĠÂ ©
}\ ;\
Ġstrong est
ĠInt elligence
Ġcon dem
Ġpro s
Ġsystem atically
Ġalph abet
Ġapert ure
cor related
ĠInf antry
S ync
pix el
met adata
ĠCommun ist
Ġar cs
Ġincred ible
ĠLeg al
Ġatt ending
est one
ĠG ill
Ġhead ing
D ifferent
Ġe lem
Ġcomple ting
Ġtreat ments
Ġ> >
Ġ ~~
[-> ]
vis ual
c ient
}{ |\
ĠBrazil ian
N ov
py thon
p n
< -
b ay
Ġhuman ity
Ġgenu ine
T ilde
Ġen compass
Ġsm oot
p ub
Ġ( -\
Ġdram atically
Ġt ill
cal es
Ġag enda
all ing
Ġpsych ological
ĠG ary
cccc cccc
}\ }_{
Ġb ird
sign al
q a
Ġrig orous
ĠSh a
ĠB apt
Ġwar rant
ep ing
Pro gram
Fil m
Ġmin us
R N
Ġg a
I refn
ric ane
op edia
analy tic
Ġvis ibility
//////////////// ////////////////
Ġsh ar
Ġse eds
rane an
N ovember
ĠD L
T s
ne ed
Austral ian
plan es
Ġdisput e
L java
Ġins pect
Ġview ing
Ġaccess ed
Ġsevent h
L anguage
lot te
Ġn ested
ĠNev ada
ĠOper ations
ĠArab ia
am ous
Ġper pet
$\ {
Ġsatell ites
ĠL ad
ass o
Ġrec urrent
th reshold
Acknowledg ments
bran es
Ġres ign
t ile
ib bean
ĠD ise
Ġp uzz
16 9
C ert
Ġcomp ounds
ĠBrother s
im ents
n ament
ol ished
\| _\
ming ham
Ġemer ge
16 7
Ġ= ========
ĠWay ne
h ift
Ġspread ing
d ense
ĠA the
oc c
Ġking dom
ĠBrig ade
18 80
2 11
App lying
15 1
Ġw ounded
Ġdam aged
ĠA SS
zh ou
jour nals
Ġun supervised
c F
Ġmer gers
att ributes
sl ashed
ĠFor um
Ġpref erences
Ġd ated
Ġt rivially
op ter
Ġann oun
Ġm ile
Ġtermin ology
ĠN ear
oc ated
Rep ository
Ġdynam ically
Ġactiv ist
Ġrecurs ive
15 8
akes pe
v ac
eg e
Ġhard ly
Ġtransl ations
Ġaccommod ate
re ng
)} ;
Ġxml ns
_{ _
Ġcl arity
wh ose
ĠP rice
28 0
nav List
S il
ĠR io
=" ${
Child ren
ĠRe ynolds
Ġpubl ish
Ġf riction
utr ition
, -\
Ġbar riers
ĠB achelor
pres erving
os ph
Sc ott
ĠUr ban
ident ity
ĠAssum ing
R oute
ĠF low
ĠRic ci
f lix
Ġaccom pany
Ġe cosystem
Ġb ot
Ġpract ition
A gent
ab ad
T i
33 3
k j
Spec ifically
ĠStan ford
}_{ +
Ġsp heres
ĠCro at
Ġb rane
Ġhad ronic
Ġrelax ed
reg ation
B ay
Ġaltern ate
Ġconvers ations
N i
ĠH end
J y
Ġaccompl ish
Ġcompet itions
Ġp up
}= {\
Cl oud
ĠT ODO
N V
our t
Ġdisc ount
Ġv essels
ĠCan cer
Ġcon figure
A wards
Ġrece ption
Sp in
ut o
Ġinfin ites
Ġtoler ance
ĠSe ctions
ĠMit chell
j ob
ĠPo incar
Ġcon gress
l iving
ab stract
ĠArch itecture
æ ĸ
ir r
or us
ĠJ uan
15 7
we bpack
Ġw et
Ġhabit at
D uration
equiv ariant
ĠBo ys
Ġless ons
ĠW oman
def i
Inst ead
ĠSch w
EL D
Ġf li
}[ (
16 6
A rm
ut ical
ĠHig her
Ġsc iences
F D
pref ix
Cl uster
ud son
ĠBen jamin
Ġintu ition
Ġfl ash
SS M
$ },
ĠE ve
Ġevalu ations
v r
Ġrecip ient
) &\
Ġcorpor ation
Ġprepar ing
pi racy
fe atures
ĠÃ ł
20 3
) &=\
Ġh ill
Ġpri ors
Ġinher ited
Ġcompat ibility
Ġentreprene ur
ibr ations
f eld
serv ices
$ }.
W in
anc ouver
Direct ory
M ake
Ġre lying
ĠN A
N GC
Ġd ens
ĠQu antum
Ġor b
Ã ł
Ġcal endar
Ġsh ield
ĠSt ructure
Ġclaim ing
Ġminim a
R ic
ap or
olog raph
Ġdiv isions
ĠH R
Ġind ividually
HE CK
as ant
ĠM atch
)) );
cal ed
Pl ayer
Ġgovern ance
P relim
ĠC redit
ĠB h
Ġsimilar ities
Ġre vis
v ation
100 00
ryst al
Ġindic ation
ill iant
Pro fess
Ġd ial
und efined
Char acter
ĠW ind
Ã ¥
To String
Ġmaintain s
Ġcur rency
ĠC her
Ġviol ations
ook ie
Ġbus y
] ^-
og a
Pop ulated
h istory
Ġh ull
Ġ( _
Ġpen et
lic t
ro ck
Ġvacc ines
ĠCont in
convert ed
ĠJ oint
Ġpl acing
Ġparameter ized
Ġview ers
Ġant is
Ġsh aded
]{ $\
Ġwere n
Ġt rem
Ġcount ies
/ {\
exp ression
d ialog
de cl
ĠConst ruction
ĠSe lect
Ġr g
int rodu
b k
Ġdes ert
Ġdepict s
ĠVi ol
os opher
part icular
Re view
rot ron
)$ \
* )
Ġorgan ic
ĠÐ ¸
ĠHung ary
Ġresc ue
$. \\
t own
ĠH ave
ĠL ic
b inding
Ġsome how
G H
Ġdis ability
az ines
Ġmut ually
ĠSing le
new page
AM P
Ġend points
ĠF ast
Ġpresent ing
NavBar Cell
ĠK ur
Ġdeput y
Ġland ing
ins ula
bor ough
R ay
paramet ric
ĠG ets
In formation
^{ '
ĠIm perial
Ġu pload
Ġauthor ized
Ġearth qu
ĠOrth odox
ip se
redu ced
Ġl ocus
Ġevol ving
ĠP il
akespe are
ĠH ash
Ġexplain ing
Ed ge
b ia
text subscript
Ġmy ster
ag ers
Ġdriv es
ĠColl ins
F ar
ĠChall enge
Ġsuggest ions
++ ;
make cell
ow ell
Vert ex
Ġ\| _
00 7
w iki
Ġwat ched
Ke ys
ĠComm ander
supers cript
Ġass ass
ch rotron
oun ters
can onical
ĠR ain
ĠFac ulty
C AR
Ġcomp ress
ag onal
ĠCon stant
ĠP SF
pe ak
c D
}{ @{}
Ġpre decess
ĠIran ian
() ).
tab colsep
× ķ
Ġirre levant
ĠThe ater
ĠGir ls
pi res
Pl ace
Ġess ay
Ġconst ructions
Ġal pha
-> _
m itting
e lection
Ġc able
Ġany more
)} )$
ĠR an
ac re
perturb ative
par ser
are r
C RE
ex periments
uck er
Ġdet ections
b ranch
Ġdesign ing
h ide
Ġmod est
Ġdim in
Ġb ootstrap
pan ies
Ġlegit imate
Ġli ability
. __
Ġpass ive
Me asure
Olymp ic
Ġinsert ed
16 2
w ere
ĠMot or
Wid get
r ar
Con v
ado op
che l
Ġburn ing
ad just
Ġs overe
hent ication
Ġheter ogeneous
Ġwebs ites
m iral
A z
M aterial
M Hz
n ob
d V
ĠM eg
Ġarray s
compat ible
ĠIs a
ĠG ran
ĠPark er
Ġres p
St ation
hed ron
Ġcoff ee
Ġsub stance
ĠSh ould
bo ards
ĠElect ric
m g
Ġbeh ave
sw arm
Ġaud iences
- |
m art
Ge orge
con serv
Ġte ch
me ans
neighb or
ir k
ĠAlf red
ĠS r
h size
str ument
co h
Al tern
Ġh ip
pro gress
ĠFreder ick
Ġpos es
t re
Ġoverl apping
Ġsomew here
Ġ\ ;\
Ġoccasion ally
14 1
ce utical
19 03
ĠM aj
Ġw ings
ĠD ie
add plot
d in
16 3
Ġtrig gered
Ð ¹
ch art
ĠHerm itian
ĠP ap
key word
Ad ditionally
acknowled gments
t ies
Se lection
a is
f ers
ĠQue bec
uls ive
=" @
Î µ
Ġ< \
S ci
en abled
ro gate
Ġdecom posed
Pres ident
Ġfl are
ĠAdv anced
f ef
En vironment
d w
y ang
ĠV ector
build er
ĠBroad way
Ġun c
Ġbe ach
Ġlo ans
ĠL ik
Ġupd ating
pos al
Ġcontrovers y
ĠIn iti
}' \
U ST
Ġmedal ists
Ġpe cul
Ġcomm ute
Ġj oy
Ġtick et
ex pr
Ġutil izing
ĠI E
ĠZ hang
> :
ĠUnivers al
id ad
Ġd aughters
}] ,
Ġped est
ĠW AR
ĠNetwork s
ĠCl iff
ous ing
ĠM ack
ĠOb serve
IG HT
Ġm ism
En ter
Ġun fold
ha us
Ġt one
hold s
oc o
Ġavoid ed
Ġval ence
U pper
H or
ĠA ra
Ġsub manifold
oc aml
ĠK an
ï¿½ï¿½ ï¿½ï¿½
de velop
Ġcur ved
ĠN ormal
enc oder
ĠJ u
Ch ina
ĠSe pt
Ġassoci ations
F ail
c ategories
Ġco in
log ger
Ġgen es
Ġveter an
Ġsing ers
ĠIn stit
A li
ĠI F
IF A
Ġca ption
alt ies
[ $\
ĠSt ra
+\ !
Ġcur riculum
ĠIm port
}{! }{
Ġsubstr ate
ĠB og
Ġhar ass
ĠL E
Ġexp enses
Ġevery body
ĠBar bara
| |\
ĠU E
Dist ribution
Ġrad ar
hig her
ĠA N
Set ting
mo ke
tan h
sv g
t oc
ĠD ouble
Ġfail ing
Ġprocess or
m illion
ĠM icro
Pl ugin
ĉ ĠĠĠĠĠ
r Ã©
sl ice
t ons
lim inf
Ġarchitect ural
P arse
Ġvo ices
K T
'] )
n ia
Ġdiscrim in
Ġven ue
own er
97 8
Ġcon vol
Ġim posing
ĠP T
p es
Ġsymbol ic
ĠN ep
Ġcryst all
F uture
Ġincorpor ating
Ġrandom ized
ĠÐ ½
hu a
ĠL S
ĠArch ives
Ġpoly mer
@ \
F un
om ing
aver aged
Rem ove
S cope
Ġcom ed
Ġven ues
Ġ\ ;\;
ĠV enezuel
Ġtrunc ation
Ġex ports
Ġident ically
comp ress
ĠC ultural
ĠDesc ription
Ġact ed
Ġtest im
Ġsent enced
Ġlaw suit
ĠB urn
}$ \,
Ġinher it
Ġc rown
gra ined
ĠProfess ional
ĠC G
C ity
ĠR ud
Ġcontact s
ĠC ert
ĠDak ota
Ġre wards
Ġg olf
Ġscal ars
UR I
le tt
P air
in creasing
Ġsche ma
ĠRe ference
ĠIn v
ess ed
}) /
19 02
Ġback bone
Ġval uation
Ġfant asy
Ġ um
ĠC old
ear n
Ġatt raction
set counter
ĠHe b
Ġtheore tically
Ġg all
E ducation
Ġi o
Ġcalcul us
Ġextrem al
Ġbrand s
Ġpo em
Ġc of
Ġp iv
Ġmet res
21 7
ern al
ĠFin n
ĠBol tzmann
Y Y
col Last
S mall
em ale
chan ical
Ġsurpr ised
par box
Ġexhib ited
Ġsubt le
ber ry
Ġc ust
up d
ĠSy rian
ĠCom plex
Ġindex ed
Ġdr ink
ĠFe ature
et erm
Ġreal izations
Ġdepart ments
Ġflow ers
ost ics
arm s
bre ve
Ġreflect ing
} &=
ĠG rad
Ġaver ages
hem atic
f lex
og raphics
Ġbl ank
- )
bor ne
Ġw orship
Ġsho pping
Ġattack er
Sc roll
Ġenorm ous
Ġshock s
ĠIs ing
Ġpiece wise
Ġcong ru
ĠH ockey
vi o
4 80
Ġ\ [\
00 6
ric ks
Vis ual
Ġb rackets
ĠM obile
Å «
em p
L en
Î ½
ush ing
Ġbirth day
Z ero
H istor
Ġas ync
D etail
ma pping
Ġarg ues
ĠO cc
Ġpaint ed
ĠD etails
sh al
ĠPaul i
Ġreported ly
arting ale
pr ising
Ġresid ue
Ġab ortion
text superscript
Ġsub stit
Ġrom antic
n k
n r
Ġdimension ality
w u
En um
Event Listener
ĠThrough out
amb ig
ache l
Ġre vised
Trans form
st ock
Q C
Ġsub algebra
Ġexpans ions
d yn
ot er
66 66
Ġviol ated
ĠSt ore
trans port
S NR
ĠYuk awa
Ġsynd rome
Pol y
R en
og on
)) =\
ĠT D
ĠM inkowski
Ġb unch
Ġachie vable
Ġb le
$. \
ĠLie utenant
Ġlab our
Ġscholar ship
Ġappro ached
ĠR T
ĠSt ev
mark et
S elf
o pp
text backslash
ili ation
ĠMad rid
ĠP ast
C ov
k el
ĠAnd y
Ġcharg ing
Spec ial
abul ary
ress ions
Ġafter wards
m other
ĠA qu
col lect
Ġport rait
æ ľ
19 3
rosso ver
Ġscient ist
}) )$
Sm ith
ent i
amil ies
lyph icon
Ġbank ing
Ġsl ave
uch i
Ser ies
ĠT ower
ĠS ide
big wedge
as ury
ol en
Ġvi able
L imit
Ġd ress
ĠPan el
Ġm eth
prec ision
rypt ed
AT O
Ġb ind
iter ranean
ĠSt ars
15 9
Ġsaf ely
] &
Ġmountain s
ãĢ Ĥ
N s
exec ute
v x
ĠTh ings
}}$ -
Ġdiscuss es
m itt
n ab
if def
ĠE V
rac le
iss a
Ġthink s
m el
ĠB our
Ġre q
C ost
Ġg allery
Ġcas ual
Ġapp s
Ġkinem atics
Ġp ace
Ġqu ote
Ġc inema
K ing
Ġextra ordinary
Ph ase
3 25
w ould
}) }$
) ^*
Ġdemon stration
col First
flu ence
ĠW I
Ġr hythm
O H
c ke
ox ide
ĠWar ren
20 4
comput e
K er
B ottom
ĠV eter
Ġresol utions
ĠB A
comp iler
Ġed it
ĠT itle
ĠAn aly
ĠH orn
Ġadvoc ate
ĠF BI
Ind ian
ĠRober ts
Ġg od
ĠK ol
)\ }$
| (
an cer
ĠMont real
ix on
Ġdec ides
ĠB ERT
St ructure
2 12
structure s
Y M
ĠHam pshire
Ġlabel ing
Ġrot ations
ĠTro phy
Ġexcept ions
ff ff
Ġprom ised
K P
in ely
Ã ´
ĠMar vel
w rapper
ĠR ather
the me
Ġdivid ing
Ġz ones
Ġfunction ality
Ġunder ground
pre ced
ĠKe pler
al tern
Ġemploy ers
bas eline
ĠU AV
">< !--
Ġin noc
ic ian
Ġ& &\
ag og
Re lease
consist ency
Ġto w
aj ax
Ġcam ps
ĠT ob
W rapper
Ġ$ %
Ġt x
Left rightarrow
Ġterror ist
, {
Ġer u
at tack
Ġjust ify
disc uss
R ate
ĠCar ibbean
C LASS
} &=&
Ġacknowled ged
chron ous
ĠPort land
fef efe
}( (
Ġcult ures
0 11
ĠM uch
AL SE
AS H
Ġpush ing
ĠSte ven
Ġc ous
St ruct
ĠAl ong
riv ing
Ġtre ating
17 3
V S
Ġappreci ate
Ġad min
p ure
âĢ¦âĢ¦ âĢ¦âĢ¦
ĠBe ck
Ġaltern atives
Ġcontradict s
Ġcoast al
Ġdelet ed
Ġh orses
b rief
Ġmed ieval
ĠPl ant
Ġphysic ian
ord ial
ĠM ust
a qu
CO MP
eli ke
gener ic
res pons
ak u
Ġcell ular
ang les
ars on
different ial
c ity
ĠSt ream
Ġpo ison
Ġvirt ue
5 50
n om
ĠG as
/ _
+ (\
add ed
ins ky
Ġdwar fs
rotate box
Ġse cular
Ġavoid ing
m ust
ĠF ine
Ġro oted
B ibliography
A rea
ĠDan ish
Ġcl othing
all classes
wild fly
Ġprot ons
ĠC row
}} },
Ġdev ast
ĠM ind
Ġgeom etries
Ġfast est
he alth
co e
Ġl os
Ġlik ed
{ ,
ambig uation
' =\
g om
Ġvolunte ers
NN s
Hel p
Ġcon vey
ĠĠĠĠĠĠĠĠĠĠĠĠĠĠĠĠĠĠĠĠĠĠĠĠĠĠĠĠĠĠĠĠĠĠĠĠĠĠĠĠĠĠĠĠĠĠĠĠĠĠĠĠĠĠĠĠĠĠĠĠĠĠĠĠ ĠĠĠĠĠĠĠĠĠĠĠĠĠĠĠĠĠĠĠĠĠĠĠĠĠĠĠĠĠĠĠĠĠĠĠĠĠĠĠĠĠĠĠĠĠĠĠĠĠĠĠĠĠĠĠĠĠĠĠĠĠĠĠĠ
ĠG round
E u
Ġd ivers
M il
ĠGib bs
ĠAr n
Ġbre ast
plo ys
3 75
\, $\
Ġstret ch
th y
um bers
Ġe ject
Ġsurv iving
Ġh itting
* ,
d h
18 70
Ġsuscept ibility
tabl en
}( [
Ġingred ients
cy l
Ġachieve ment
ĠT u
S ervices
B on
Ġcomp ressed
Ġmod al
Ġt ile
Plan ck
ĠH TT
ĠV ik
spring framework
ĠCo al
Ġin sufficient
Ġrating s
ĠT s
ĠH awaii
Ġmac roscopic
ist ration
ĠJim my
Ġd rew
fil ename
Ġc er
× Ļ
ĠHung arian
Ġh urt
Ġgu ests
}$ }\
ag ain
Ġ= ======
ĠOper a
Ġdevel oper
ul ous
stud y
Ġd ir
\ :
Ġab bre
P et
ĠP ra
Ġinc idents
if i
ĠFin land
ion ization
Ġcon ject
iv ic
ĠA u
bra ham
Ġremov es
Ġcast le
Ġvent ure
Ġf iduc
Ġw ars
Ġco q
O O
Ġliter al
Ġmult ivariate
)} -\
ĠCub a
Ġpre st
ĠR G
it on
oc om
N ULL
re lease
Ġfl ights
Ġreprodu ced
B ern
Ġdipl om
Ġ Ø
ĠTh ailand
C art
ĠD J
Ġoff line
Rich ard
R ole
() </
ore r
Ġcl imb
ar us
Ġcompos itions
ĠE li
ĠM om
}) (\
Ġsl opes
L ater
Ġcon current
Ġ" <
ĠEgypt ian
ĠNam ely
sing ular
)/ (
df n
Ġneighborhood s
in z
' |
as sembly
ĠA x
ĠStud io
ab ases
R ot
get Name
Ġalleg ations
ĠBlo om
Ġoptim ality
Ġpers u
Ġcha otic
M aster
Ġsubt raction
ine a
ond o
)] \
ĠP H
ron es
ain ing
Gener ator
Ġorbit als
ĠCom ments
Ġtechn ological
Ġseem ingly
ĠJeff erson
Ġpers istent
ĠM Hz
pro port
Ġprotect ing
sp arse
ĠG ate
ĠLand au
S ame
Ġmes ons
corpor ated
ĠÐ ¾
J an
Ġ å
ĠC ele
Ġtravel ed
ĠP un
ĠJ ess
ig ion
Ġflo ating
Ġspont aneous
es y
m v
Ġst iff
Europe an
P rivate
Ġunder graduate
_ (
ort s
Ġanticip ated
40 4
)] $
Ġfore ver
tain ing
vect ive
Ġt ape
20 9
Ġhydro dynamic
Ġob s
Ġsc roll
t k
B esides
c P
Ġf n
_{ |\
Ġun ions
ĠR V
B V
Ġrail road
ĠD elta
AC H
Ġco ins
ann es
Ġmount ed
cl ed
Ġbuild s
ĠK il
M ask
SC RI
Â ©
V ill
16 4
ĠĠĠĠĠĠĠĠĠĠĠĠĠĠĠĠĠĠĠĠĠĠĠĠĠĠĠĠĠĠĠĠ Ġ
Ġinitial ize
ĠTra vel
ce iver
W F
m ixed
Ġri vers
IT ION
ĠL R
Ġconcept ual
ĠBir mingham
ps y
Ġse cre
Ð ³
Ġm oon
Ġj e
as a
Ġdemand ing
ĠIndust rial
ĠP rix
18 97
vari ables
Ġpl aintiff
Ġres igned
ĠH I
Ġconfir ms
ĠMa ur
leg end
Ġdecl aration
ou x
bes gue
27 5
Ġmin istry
amb ers
ose x
mo z
ĠMin or
}| ^{
is i
Ġ( ),
cre ated
ĠRe act
." );
Ġl augh
Ġcomfort able
Ġj ail
Ġtend ency
h um
ĠM IT
ĠLe ader
ĠD est
Ġinduct ive
Ġappropri ately
Ġoverse as
Ġsus pic
ĠF is
Ġbenchmark s
Ġconcent rations
ĠSh akespeare
Ġflo od
Ġg ent
array stretch
18 9
Ġbatt les
So ft
Ġj umps
Ġformula e
ĠN ur
I ss
Ġbu ff
ĠWe bsite
Ġjud icial
Ġsp ark
00 8
ĠU lt
ass y
ĠN AME
Ġlik es
Ġthread s
s us
18 98
tw itter
Ġau ction
cast ing
Ġmy stery
ĠN BC
ĠBern ard
})- (\
ĠInst agram
Feb ruary
pt s
oth s
P resent
ĠInt eger
ĠP rivacy
17 7
Ġex clusion
/ {
uk i
S ocial
ĠR y
Ġrender ing
Ġelect oral
Ġmon oton
N ET
B egin
ĠB ed
Ġtunnel ing
ĠC atal
ĠLiter ature
Ġ }.
Ġsh aped
Con tact
Ġapproach ing
& +\
F ailed
z ier
Ġpen al
he ll
erv ation
Ġ\ '
Ex periments
Ġgeomet rical
y ield
ĠStrateg y
Ġblock chain
Ġ$< $
ĠâĨ Ĵ
Ġany way
pa ired
r ules
ĠAnt i
Ġneur on
lo yd
Ġaccount ed
v d
Ġcomm utes
ĠMet ropolitan
ĠIn novation
Ġw age
Ġannot ated
m atter
Ġfail ures
Ġpe oples
17 6
H OD
Ġm ouse
ĠPho enix
fl ush
Ġnom ination
Ġemot ions
ï¼ Į
ĠL LC
M id
ĠBe ing
Ġfrag ments
ĠStat istics
rac ies
en vironment
28 8
ĠMoroc co
ĠSob olev
te am
16 1
Ġdr inking
Ġind igenous
Ġtradition s
Ġatt en
bo ost
Ġto uc
os lav
ib an
ĠPer haps
Ġengine ers
Ä ĥ
ĠR ap
20 7
Ġfun ny
Ġtour ism
y i
eg ree
Ġsub urb
Ġcapt uring
ĠC BS
18 7
Ġrem emb
Ġ[ "
od o
ĠI an
ĠWork ing
B ob
ĠP U
H K
Ġestabl ishes
tempor al
} ')
ul u
Ġwe aken
/ $
ĠC el
Ġconstit utes
Des ign
ĠMountain s
Ġpecul iar
ĠDef ence
Ġinstitution al
M u
21 4
. <
ĠA y
99 9
Ġund erest
Over all
de composition
g ender
) })\
St rateg
Ġinstant aneous
Ġvol unt
ĠMay be
Ġsil ent
ĠSh ah
hel per
ĠBe aut
ri ors
numer ical
Ġv it
Ġrect angular
Ġconstruct or
, ~\
l ia
ps line
Ġrec i
) }}{\
re z
Ġ& $\
Ġspeak s
asg ow
ĠY eah
Ġterrit ories
- .
Ġcomm emor
ex ponential
ĠV ancouver
Ġint rig
aps hots
Ġax ion
Ġpra ised
ham mad
Pass word
ĠPlan ning
Ġ" ,
Ġsu ited
duc ational
Y our
E W
ĠI MF
Ġlog ger
ĠB illy
ĠLe besgue
n f
Ġres il
Ġfl ip
ĠEth iop
c ro
as pect
dif ference
S K
Ġen act
Ġex empl
normal ized
ac cur
H ard
ĠBer keley
high light
Ġceleb ration
30 1
Ġpoll ution
' }}
as is
pro jection
O s
Ï ģ
ĠJ azz
Ġmanip ulation
Ġequiv ariant
Ġant ib
ĠAd ditional
A X
Ġd ub
ĠPr incess
Sports people
Ġbl ur
Ġsymm et
R end
j ack
Dat aset
Ġoblig ations
N M
E lect
ĠP ant
ob a
count ry
Ġn p
g am
23 4
Ġcert ified
ĠM T
Ġtick ets
Ġwalk ed
S at
w al
P ublished
ĠVi enna
Ġin cur
Ġcomp ly
t body
Ex pr
ĠFe ynman
Ġgraph ic
w ig
Ġna ive
ĠH odge
Ġlocal ity
Ġswim ming
au de
ĠConserv ative
SF R
Ġex pend
Ġs aving
M ad
f its
Ġp ill
ir l
cur ves
Ġcollabor ative
*}[ !
Ġb oss
Ġb ridges
Ġrec ruit
}\ }$.
Ġcancell ed
str ateg
Oper ator
C enter
irect ed
âĨ ĳ
Ä «
semb les
Ġnecess ity
Ġhar vest
Ġsu ite
Ġpool ing
ĠC FT
Ġsupers ymmetric
', '
ĠInterest ingly
Ġg ras
her s
Ġhop ing
P ix
T y
Ġmed ic
Ġ" -
at op
I mm
set ting
Ġstreng then
Ġlemm as
AN G
on ian
curs or
ĠFellow ship
Ġhyperp arameters
M pc
\ })
ĠT ig
Ġtor que
Ġpro poses
Ge ography
O fficial
Ġbul ge
f ine
Ġall ies
ĠCap itol
bl ank
Ġoppon ents
] )$
Ġcryst als
option al
ĠRo om
ov ic
ract ive
Inst all
res ources
ĠO range
ä »
Ġre pository
min im
is ers
ĠC hel
00 000
ĠCl ar
ĠIR S
D IS
ot ypes
ex ist
Ġ( +
Ġtem plates
Ġcha os
Ġrend ered
ancell or
pp ler
ĠV ar
Ġtet ra
ĠA G
ĠI de
face book
Vol ume
P ress
Ġcritic ized
[ -\
ĠMar c
ĉĉĉĉ ĉĉĉĉĉ
\ (
lat ex
Ġadvent ure
od ers
Ġco ordination
Ġ( ;
Te chn
Ġret rieved
r ink
ĠS now
Ġdenom inator
Ġpeak ed
Ġstrugg ling
Reg istry
Ġbu ying
Ġgeodes ics
_{ _{
c ott
run ning
ĠWar ner
r x
Ġdog s
ĠU SS
ine e
ĉĉĉĉ Ċ
ĠCat hedral
ĠW orth
ĠInt el
j b
Ġn ic
Ġplaus ible
ĠCh art
}' _
P unct
OR M
Ġlight s
Col lections
S chool
ĠCol umn
he ld
Ġdraw s
ĠM ix
Ġ Ä
for th
Ġinc idence
ard i
Ġdegrad ation
ue z
Ġspin or
hi er
ĠJohn ny
Ġr ic
SE LECT
ĠChar lotte
Ġch ronic
Ġmod elled
Fl ag
] }(
s ent
ĠTechn ical
arc ia
N odes
L earning
Ġgu ided
ĠG B
Ġadopt ing
Ġsupers ymmetry
be ck
ĠL ess
amaz on
verg ing
Ġp arks
rom atic
L B
ĠI SM
ĠM B
z ens
ĠH indu
ĠO scar
) ^{(
ĠJacob ian
t ogether
Ġ& +
ÑĤ Ð¾
or ov
Is ra
ĠId ent
ĠHe isenberg
cd n
ta ges
ĠAl aska
Ġche ap
ok a
Ġsub stituting
h dots
ĠTurn er
\ >
Ġl iv
Ġexplo ited
Ins ert
Ġc ave
Ġencourag ing
-------- ----
Ġ+ +(
"; "
function al
p icker
in ced
ĠEn cycl
Ġframework s
a very
is im
ĠC ant
math ord
ra pe
Ġhe ll
app rop
Ġmon ument
Vis ible
ĠU I
Ġpract ically
ĠBar ry
Ġpers pectives
Ġpre vention
ĠGr ass
L ab
ĠJ up
Ex tra
ĠH ero
Form s
Ġbr illiant
P eter
S a
ĠApp lying
Ġisomorphism s
ĠDire ctors
ĠIS BN
R ail
ĠW a
dom inated
Ġpoint wise
Ġs ink
Ġdis advanta
ĠPr inc
), $$
I mages
arch ive
maxim um
p ublished
Ġheli um
h c
ex tern
ĠN ord
ĠB ranch
17 1
( --
Ġenter prise
' )$.
ĠSte el
ĠOut put
ĠRob in
st rict
part icles
Int erest
M arg
ĠL ock
uff le
ĠH ausdorff
y ll
preced ented
55 5
ĠArab ic
Ġb read
Ġsoci eties
h ape
D IF
a uses
Ġrac ism
ĠJ en
ann ah
ee a
Ġcompr ised
Ġsusp ension
Ġre called
}) \,
ĠCom ment
Ġcivil ian
}\| _
Ġsize of
ĠP ictures
ĠG T
ĠS ay
match ing
. ''
he ro
ĠS QL
i q
Ġin jected
SCRI PT
r int
Th ough
ĠHess ian
k an
ac co
40 1
mer ge
Ġluminos ities
Ġt weet
$ [
Att r
P W
d ra
Ġc ul
ĠM SE
load ing
K O
ĠR S
ĠLe v
Ġarriv ing
ho ff
Ġp ending
s gn
o es
ĠCam paign
ĠLy apunov
Ġev ac
) &=&
ĠI M
t ens
ĠA bu
23 1
ĠSim ple
F ocus
ĠHun ter
Ġdu plic
2 15
Q R
x it
Ġout door
Ġour s
mach ine
to pe
}- {\
ĠD rive
C opyright
ator ies
Ġeng aging
S kip
ĉ ĠĠĠĠĠĠĠ
Ġd ose
iz on
ge ometry
Ġcon finement
ces ter
Ġposit ively
ĠW u
Ġexplo iting
y z
W ORD
+ }$
ĠT M
8 50
le ad
us form
Ġfunction als
am ation
Con stant
F lor
e ak
Ġ$ >
ĠT ool
ĠNe ural
numer usform
ĠGu y
}' (
ubb ard
Ġvers a
Ġdismiss ed
c ially
ingu ish
Ġcompris ing
Ġcount ed
st rip
check ed
re duction
Ġmanufact urers
b ank
HER E
Ġinfinites imal
M ilitary
Ġcent res
ev ol
Ġc tx
RE E
Ġcod imension
ĠL com
bf series
L Y
Ġf ate
Ġsort ed
Ġver b
Ð¾Ð »
Ġambigu ity
\ }}\
Ġst er
P ers
ĠP oll
Ġprof ound
Ġparticip ant
Ġmultipl ied
M el
Ġat tained
it ual
Ġb esides
Ġassign ments
Ġsevere ly
ĠD ays
Ġor acle
Ġhost ing
Conn ect
18 95
ĠR ing
ba ij
LE S
ĠConf eder
ĠDe cl
P V
17 4
Ġs ail
Ġ- (
ig rant
Ġintu itive
Ġopt ically
Ġmis take
T HE
IM O
Ġsent iment
ĠRequ est
Ġre forms
h is
Ġunem ployment
M ove
Ġm os
ĠBl ues
Ġsepar ating
R ussian
Ġsmooth ness
ort ex
Ġintern ationally
ĠR ules
Ac adem
em ption
b ishop
}_{ [
Ġoccas ions
row ing
ĠLi u
he at
Ġcontext ual
label s
charg ed
Ã ª
ĠF light
Ġdecl are
Ġlob by
st ead
ĠD FT
y ellow
ĠBas ic
Ġbr ut
ĠVis ual
ĠF ant
}} )$.
Ġtrem end
m cite
ĠC I
el ing
Ġtransl ates
or ry
Ġin consistent
}^{ *}
Po inter
Ġdiagn ostic
Ġm arch
ĠPro test
w br
if th
ĠK on
act ory
ĠH ind
Ġindic ators
_ +\
o ons
Ad ditional
ĠT amil
Ġag gressive
18 99
Ġt sd
ĠAlex and
Ġcho oses
Ġmar ry
ĠAp ache
ĠSud an
TE XT
Ġfulfill ed
Ã¼ r
Ġis ometry
ĠEx cell
Jo in
/ (\
< !
ro ute
Ġsy mp
Ġmon oidal
+ |\
z ant
poss ibly
got ten
ĠSer ge
Ġtrans parency
ĠR ico
ound ing
ir ts
Ġsp ite
Ġopt imum
ĠM ason
ĠZ one
Ġfib re
if ice
AR CH
K B
ie ve
g c
ĠNorm an
ĠVir tual
Ġsp ir
Ġ( ,
os hi
zer baij
Ġjour nals
Ġpredominant ly
red shift
ens itive
en o
ĠCh ron
Ġwork load
Ġsold ier
plan et
Ġconv inced
per cent
mod ified
Ġw edding
ch apter
Ġprevent ing
ge x
sim pl
Ġh olograph
ĠP ick
Ġsustain ed
Af ric
20 6
ĠArch ive
ĠB ron
k ed
he imer
Ġparametriz ation
ĠH im
}} }_
e as
ĠN ap
cast le
row ave
ile vel
Ġfollow ers
ĠTreat y
ol er
ir s
Ġout liers
Ġhand ed
ĠKen ya
E mail
Ġdemonstr ating
ĠW IT
ĠK ath
Ġobst acle
Ġn ons
ĠSu ccess
ĠO il
Ġhead ers
A verage
u art
ph rase
6 50
i ref
Ġâ Ĥ¬
Ġpsych ology
Ġerg odic
17 2
vary ing
Ġst ays
fra id
j unit
Ġg ym
ĠCh a
Tra ining
Ġprev ents
Ġnob le
Ġsec ured
im ag
Ġshould n
B st
Th ird
osp heric
Ġdiscrim inator
ĠSpe ed
Ġdeform ations
Ġg ard
b R
ĠP D
18 3
Ġshift ing
ke eper
Ġtype of
neut ral
Ï ĥ
Ġretrie ve
cont rolled
Ġdocument ed
A W
ĠT ak
$ |
lst listing
ot hesis
Ġrenew able
el ic
ld er
Ġco aching
N or
d river
h adoop
Ġem ploys
Ġgather ing
Ġend owed
B Y
Ġdo zen
Ġorgan ised
T W
Ġde alt
Ġt ale
}& =\
OR Y
ĠEn c
Ġarriv es
ĠVin cent
un iversal
ĠMy r
ateg or
G re
Ġs pa
Ġcon vergent
ĠMed iterranean
Ġveter ans
Tele vision
Ġcent roid
Ġple asure
ĠMajor ana
o j
cur y
Ġhypersur face
se gment
ĠRail road
ĠMar x
ĠMon th
Ġme at
Ġevery day
ĠL oss
abet es
sc apes
ĠRich mond
Ġb ull
Ġl ux
prov ider
11 11
c ence
Ġst uck
Ġrecogn ised
Ġimp ression
M IN
Ġsatur ated
B ad
Ad v
Ġdis orders
18 60
Ġadjac ency
d ynamical
Ġlight ing
Ġphil osopher
Ġd B
Ġel ite
Ġsurve illance
b at
: $
Ġsav ings
ĠPhil osophy
') );
M ach
ov o
\% }
Ġpe ers
Ġeccentric ity
3 40
ĠS ent
s elling
ĠN ar
Ġab ilities
Ġf atal
ĠM all
desc ribed
H erm
S top
Ġknot s
Ġr he
M ix
18 50
Ġinf ect
Ðµ Ð½
Ġimp urity
ĠF itz
oul li
Ġthe at
Ġident ifier
equival ence
[ [
ĠSh ang
Res earch
4 000
ĠP ublished
Ġarch ive
ĠWrit ing
ĠSus an
ĠF alls
ex isting
Ġhe m
head ers
A H
osoph ical
od rom
ĠAust rian
ĠFl ore
c L
18 65
us ername
Ġt ons
Pro ps
inv est
ĠSw ift
nd ef
Ġorig inated
x u
om es
Ġtele phone
K ar
Ġre med
L iter
x html
ĠM ak
Ġra ises
ĠIn ternal
Ġrun ner
utr ino
E mb
ĠM pc
Ġconvent ions
j ango
ĠU g
Ġin ad
ĠBapt ist
Ġl un
Ġmanufact urer
Ġpart on
Inter val
hab ilit
ĠDel aware
q w
est on
elect ric
est ions
Ġy esterday
Ġexpect s
ĠJ oy
ser ial
Ġobst acles
ĠK el
amp ed
Ġdevel ops
de creasing
ĠK illing
Ġpropag ating
Ġed iting
0 12
Ġal ien
Ġbi ology
ĠMet ro
Ġsyn chrotron
as p
Ġcon vection
Ġfil ament
H amiltonian
L ive
Mean while
c ool
ĠDen ver
Ġste am
ĠCit iz
ĠN SF
Ġf iring
ĠDemoc rat
Ġl ang
iter ator
Ġdes k
ĠB P
)=\ {
Ġdecom pose
le af
Ġten ure
! (
ĠF riends
ess ment
ens pace
Ġam endment
ĠGre ater
ĠUk rainian
ĠPro b
23 2
Ġbo ards
ĠRe lease
Ġdistinct ive
Ġresear cher
in finite
ll l
C W
ĠImage Net
Ġconf used
Ġanomal ies
Not able
Ġell ips
$ }{
Ġpr imes
Ġmultipl ier
ut z
b ys
Ġproblem atic
It s
T ur
ĠSub section
18 4
Ġg reedy
}, \,
deriv ative
Â ·
Ġoppon ent
em ission
Ġterror ism
O k
ĠPr int
Ġvort ices
ie v
ĠHar rison
out ing
Ġconduct ance
ĠLegisl ative
ĠHit ler
Ġh ack
ĠC arm
ĠCont ent
ĠPrim ary
Ġbreak down
ot hes
less ly
Ġrep ly
N eg
Ġden oting
Ġempir ically
S ave
ĠAssoci ated
adapt ive
ram id
ĠCom merce
ĠGl asgow
N AS
r us
general ized
s ed
ĠM ol
Ġnever theless
spect ra
E ast
F N
Ġj ew
dis ambiguation
Ġterm ination
Ġvol can
Ġdiffe omorphism
Ġsurprising ly
Ġlift ed
Ġ{ "
Ġprov incial
Ġphenomen ological
ĠG M
acc uracy
ĠCarl os
Ġam id
Ġfl att
ier ra
Eq n
ĠGal ois
P Q
ĠC ole
itte es
Ġpro l
18 96
m ount
ou b
}+ (
Ġevol ves
ĠColon el
ĠB io
ĠInd igenous
S ocket
Ġv ib
Ġsub mission
Ġrevers ed
s il
ĠP ent
Gener ated
Ġho pping
em a
L INE
ag ar
Ġz oom
Pro gress
Ġ )^
Ġsurn ame
}\, {\
Ġb rick
Ġrespons ibilities
f iction
Ġf ert
ur u
Ġo c
Ġalt ered
id ual
Ġoff ense
Ġem it
E valuation
sol ved
}) ^\
if le
ar Xiv
Ġdes per
ĠE c
ĠSt ories
ĠCommun ication
Ġ ul
\, ,\
Ġreg ards
Ġyoung est
22 3
RE Q
| ^{-
Ġs weet
press ure
Ġp t
R AN
ĠC e
ch ap
ĠCart esian
ex periment
ĠAst ro
T ex
ĠCra ig
Ġqu en
defin ite
Ġu i
is ible
= &\
ll a
pr ises
ĠF ab
ĠM Ps
Ġen roll
Ġun precedented
ĠFro benius
Ġm appings
Ġimm une
det ection
ub ert
ster dam
ĠS ets
oc ratic
Ġvacc ination
ĠAgain st
ĠH ob
st raction
ĠNet flix
mon ot
log in
Ġcomment ed
à ¥
ĠConsider ing
ĠM is
Ġmed i
Ġimplic ation
Ġfragment ation
Ġun biased
fill ed
ĠCom pared
W ord
ĠCon text
ion ic
Ġ ðŁ
h art
Ġen rich
ĠCom pton
ĉĉ čĊ
ull ivan
box times
Ġh ub
Ġch ron
ĠLeban on
> "
eg el
ins ki
Ġm d
ĠC le
vi ate
ith uan
h on
Ġsp ans
bib item
qu er
Ġto y
ĠV erm
cl s
lass ical
Ġactiv ated
Ġlock ed
n os
Ġweight ing
ĠF ly
ĠAssoci ate
rac es
prov ided
ĠM g
in valid
Ġqual ify
a per
ĠH z
F ootball
ent e
ĠE ight
b end
Ġchar set
Ġ{ '
Work s
D id
Ġt ribute
ĠP od
Ġen larg
nt hetic
row eak
An imation
ĠEd ge
Ġlast ed
17 8
Ġastro physical
Ġbifurc ation
= |
an che
Ident ifier
Ġmag azines
Ġpay load
Ġjo ins
z t
Ġw ishes
ĠR ange
Ġwitness es
W alk
ĠShe l
Ġb ills
ub a
å Ī
osp in
< <
Ġe rect
ĠD G
Ġd ash
ĠVal id
%% %%
Ġam ended
Ġpursu ant
Pref ix
Ġvolunte er
ere nt
} </
Ġcylind rical
column s
Ġimper ial
sim ulation
ĠKar l
ĠD ictionary
Ġnil potent
ĠB eyond
L ou
Ġt ent
Ġbehav es
Ġg est
Ġlift ing
Ġnon empty
thin space
sc attering
Ġun success
Ġachieve ments
Ġb ishop
ĠJer ry
| >
^* $-
sp acing
18 2
Ġsn apshot
0 50
Ġweak ness
ĠDat abase
Ġre jection
18 6
inu ous
Ġdyn asty
sc an
he art
Ġess ence
ĠInt roduction
Ġswit ched
Ġcon ce
Ġpl ugin
Ġshe aves
Ġintersection s
Ġcorpor ations
á »
Ġ\ {(
Ġp arser
Qu antum
Ġcondition ed
ampl ed
un cer
Ġtra ditionally
}} &
Ġansw ered
Ġbl ues
Ġpl ates
Ġne b
Ġinv olution
k al
ist ered
Ġhistor ically
Ġvis cous
as ive
Ġe ating
ĠG ot
Re cent
nod ata
Ġfavor able
ĠWh ich
Ġenem ies
path s
Ġmit igate
ĠN ad
Ġpo ems
ĠIO Exception
re ck
cor ner
ĠEl li
Ġpossess es
Com pat
B usiness
d al
ĠMur phy
D U
The ir
ĠBeng al
ĠB egin
norm als
ĠÂ ·
Ġelabor ate
g m
ĠTrans former
station ary
ext end
ĠL arry
Ġnav al
ĠF u
Ġprogram mes
ĠC riminal
Ġafford able
B rown
l ibrary
ĠC IA
he x
R am
am ine
ential ly
Ġinform ative
ĠRoc he
AT ED
Ġfoss il
Ġport s
m ind
Ġoverwhel ming
Ġro uting
Qu ant
g oto
ĠC SS
I AL
d uration
Ġcred ited
ĠIn sur
ĠR M
ĠK L
Ġcomp iler
J ul
d S
ĠCurrent ly
Ġazimuth al
d R
Ġspons ored
der ived
Ġdoll ar
Ġf ibration
ff icking
re call
ĠL L
Ġwealth y
ig o
ĠV ent
ĠCon versely
Ġcol span
ĠPerson al
ĠCl ay
Ġrecur rence
H uman
rist ol
ĠNich olas
inc inn
uss ia
ri en
ma ven
18 93
g io
ĠMil ky
F rank
gener ate
ab we
AR D
ĠForm ula
part s
ew ard
con sole
{ "
Ġmid field
Assum ing
determ ined
Ġb anned
Ġinteg rand
Ġsynchron ization
Ġj Query
ed ly
str ut
PO ST
Ġmort ality
ĠR ural
diff usion
cipl inary
j ac
C u
I o
Ġpop ulated
ĠG A
ĠSh aw
Ġg raphics
Ġmet als
ĠÐ º
ĠK lein
LO CK
Ġsolit on
ĠMathemat ics
Ġcon verse
= {(
Ġwar ned
ĠSe ven
}^* \
s ay
Ġt ilt
36 5
Ġtestim ony
3 45
Ġn ortheast
Ġpreserv ation
Ġrein forcement
ĠC B
Ġ($ (
Ġinf ections
Ð ±
×ķ ×
e ither
Ġfiduc ial
Com plete
Mart in
IN S
g iving
Ġfro zen
! \!
Ġintersect s
ar ct
align at
Ġ' \
ĠTe acher
Ġwood en
ĠC lient
ĠP resent
ĠTra il
igu ous
Ġb es
ĠK it
ĠCon struct
ĠLu ke
accur ate
i int
eg u
Res ources
~ ,
om ers
ass ign
Ġpred icate
prec ated
Ġadm ission
ĠIniti ative
ĠH udson
k r
C irc
ong o
Requ ired
Ġen v
ampl itude
ĠGuard ian
Mod els
Ġs isters
ex it
' _\
m os
ER N
ĠW or
ĠO w
ĠAL IGN
h ind
e ing
Ġch ip
Ġassist ed
A u
al ert
ĠĠĠĠĠĠĠĠĠĠĠĠĠĠĠĠĠĠĠĠĠĠĠĠĠĠĠĠĠĠĠĠ ĠĠ
Ġp owered
ĠEv ents
ĠLine ar
- (\
23 8
+ {
PR L
ĠSpace watch
ĠGener ation
Ġv in
IM P
ĠN HL
ap is
Ġchalleng ed
ogen ous
ĠPsych ology
incinn ati
g z
rot ation
ĠO C
Ġsl avery
Un fortunately
ĠA rena
Ġalleged ly
M g
}) )\
Ġint elligent
ĠIm pact
Ġd ans
Ġde formed
comm un
Ġfall en
s ix
' /
ĠN at
SP AN
2 16
Ġh int
ID E
Frag ment
Ñ ħ
it us
Ġconcent rate
ĠKir k
23 3
ĠPalest ine
ĠIndepend ence
ĠColomb ia
Ġsal ary
ĠCom ics
ĠB lood
ĠMont ana
Ġfasc inating
h b
Ġf uzz
d ie
Ġj u
Ġb oot
ĠA F
ĠRe ading
ca ptions
Ġdon ated
Ġepid emic
Ġelev ation
ĠN umer
Ġlink ing
Ġloc omot
j d
ĠL oad
Ġint ensities
Ġsus pected
ĠB rew
war ning
ĠT alk
ĠY u
17 9
arg uments
r put
AR S
Ġ| ___
Ġt aste
Ġfund ament
alax ies
imb abwe
ĠB log
Ġoptim izing
Ġexam ining
J ew
Ġam end
38 4
ĠT arget
Ġcon duction
Ġex otic
ĠBel ow
W ave
ĠJ ob
Y ang
Ġdecay ing
ĠY ale
yp ically
Ġen sembles
18 89
J D
} ',
Ġ ^{-
ĠB L
s ources
onic a
dist ributed
Ġs ou
Ġn ut
ĠW W
ĠPh arma
N U
St ats
Ġtime out
ĠS ad
ĠB asketball
Ġsh or
19 1
ca ps
, +\
ĠB ert
r ise
Ġfac ial
18 92
G EN
Ġac res
Ġeject a
Ġprof its
Ġstar red
ĠDe ut
ĠS USY
mat rices
We ight
cel ona
âĢ ī
Ġele g
Ġhom eless
ĠAccording ly
ĠO liver
Ġguitar ist
is ol
ĠK ra
Ġb one
Ġportray ed
Ġse curities
). \]
Ġqual ifying
ic iary
Pro to
Ġtrib es
sh ore
Ġfl ed
Ġf ictional
ĠSh ar
normal font
ac er
ĠOtt oman
B ill
L ondon
Ġc ow
ĠV A
ĠSt atus
vis or
s uc
Ġtarget ing
Ġeigen vector
E val
down load
P ic
Ġpress ures
EE EE
op al
You ng
Ġcons piracy
}, $$
Ġele ven
cc i
Ġf ocal
CT YPE
Ġoptim izer
UN D
m ir
mar ine
Ġtreat y
inter acting
ĠD yn
Ġdie lectric
B ul
Ġmult is
Ġbank rupt
Ġc rossover
in frared
p her
Ġ&= &\
Ġow ing
pro cal
Ġgraph ical
ĠBuff alo
h orn
T IME
Ġplate au
gom ery
Ã© n
" ],
ĠMu hammad
ĠN iger
g cd
ust ration
rad iation
aps ed
Ġp ricing
om o
ĠT rain
st ochastic
per ience
cell s
ĠRoman ia
con cept
Ġdef ic
ac ular
te enth
| .
Ġexpl ores
Ġprec ip
Ġbare ly
ĠS id
TR UE
Ġa mm
rac ing
R PC
Ġread only
Ġeth ical
Ġover flow
Ġassess ed
Ġcalib rated
ious ly
Ġfight er
sp atial
m otion
lic enses
ĠLe vi
Ġ" $
Ġex cluding
Ġple ased
Ġtem p
Ġfun eral
id ered
ĠP le
Ġpa ired
re li
ĠG ay
oc hem
B inary
Ġanaly se
ĠC W
V an
Ġoblig ation
Ġrel ativity
f u
Ġund ers
We ek
ĠInd ies
ĠÃ ī
constra ints
S eq
Ġt ar
ĠD rug
ĠAlber ta
}} }(\
br aska
With in
N evertheless
ĠG onz
22 7
}] $.
r p
Ġpos ed
ĠInvest ment
D a
ĠHTT P
ĠSom etimes
22 9
c G
H op
p ag
is dom
Ã¨ re
Ġrecurs ion
Ġdiscipl ine
Ġrg ba
Ġ' <
n x
ĠV ery
Ġthere of
Ġcirc ulation
Ġlater al
hib ition
Q Q
ling ton
Ġanalys ed
ĠP rad
p riv
Ġst a
Ġforb idden
Ġpost pon
ĠLeaders hip
Const ants
ĠF IFA
ĠCh ampion
ĠB ound
og s
ĠJ ere
ph ic
Ġport ions
l ived
be a
w au
Ġdat abases
Ġiter atively
ell ation
b w
et ta
Ġperm its
Ðµ ÑĤ
Ġblock ed
link s
ĠProgram me
M V
S equence
ib n
ic ator
$ +$
22 6
Ġspecial ist
ĠMem ory
ict ions
om ical
ĠW ing
^* _{\
plet ed
ur st
Ġst roke
Ġdam ages
t il
Ġmut ation
or ption
Ġanxi ety
Å ¾
ĠL ost
Ø ±
comple t
D b
ĠE ND
Ġtimes cales
18 91
comm ons
sur vey
te le
'' \
Ġbroad ly
arp oon
ĠM ans
Ġcooper ative
ext ended
n ate
Ad min
( @
ĠT S
ĠS EC
Ġsurviv ors
Ġdro ve
Ġd inner
ubb les
c S
b right
ĠPer ry
ur as
em in
Ġenc ryption
Ġd ex
appro ach
ĠTh or
[ ][
ĠASS ERT
Ġmin isters
log o
Ġdis abilities
ogen ic
Ġtransmit ter
pro xy
Ġper ipher
ĠX ML
ver ter
ĠE lementary
ĠBay es
Q ual
ĠKe ith
d iss
ĠF ra
Ġun seen
Ġear ning
Ġin homogeneous
}. \\
ĠR R
ĠClass ic
Rad io
00 9
ren ces
DO CTYPE
{ }^
h all
det ect
Ġr ub
( __
}\ {\
com par
Ġinsert ion
Ġg y
ĠE E
ull er
30 3
we ights
Ġcasc ade
ĠP CA
ĠN AV
ĠConserv ation
ingu ished
18 61
c av
Ġtempor arily
c N
ĠBer ry
ĠLiber ty
18 85
i w
ĠAb stract
ĠA NY
MA SS
ĠA braham
Japan ese
ĠĠĠĠĠĠĠĠĠĠĠĠĠĠĠĠĠĠĠĠĠĠĠĠĠĠĠĠĠĠĠĠ ĠĠĠĠĠĠĠĠĠĠĠĠĠĠĠ
Ġpray er
ĠI ter
Ġhold er
? >
ĠL ot
ick ets
Ġrememb ered
Å Ł
x z
ĠL INE
Ġredund ant
ĠH il
ĠRe cent
Ġtre asure
g overnment
Ġmaxim izing
Ġaccum ulated
Ġbe ings
ĠS z
ĠC ricket
Ġobser vers
ĠSe an
Ġincred ibly
Ġglob e
Ġlinear ized
E instein
Ġd ying
18 1
AN CE
Ġdivid es
Y S
å ®
im ates
Ġown s
Ġatt r
equ ality
Ġquadr ature
/ "
ĠPier re
Ġslic es
Th anks
ĠD raw
Ġdef ending
y alty
ick et
ĠCam eron
oding er
m essages
Ġdream s
}} '
ĠJenn ifer
ĠBl u
US A
ĠT ables
Ġal beit
ĠLag range
Ġstat s
Ġtrac ed
ol ition
)= (\
Ġparametriz ed
Ġeight h
ĠHeb rew
Ġfeas ibility
^* )$
cont ents
it ively
Ġg ri
ĠCom parison
}}$ )
^- _
ast rop
4 75
ĠP arameters
ĠCh an
as ync
Ġco pper
fact ory
Ġnorth west
Ġdisc s
c ube
30 5
I gn
index Of
Ġpropag ate
= ~
T B
) }_\
in ery
it ic
av oid
Ġb ene
C ut
Â ®
Ġpro c
Ġaccept ing
Text ure
e i
he ng
Ġsome body
ig ating
Ġfoot age
ĠGra ce
Ġmuseum s
Ġall iance
K a
N H
Ġall Classes
... </
Ġca us
Ġtransform er
dat abase
Ġpr uning
wau kee
ĠD oc
oca ust
ĠFle et
ĠAdvis ory
d an
p relim
Ġeigen functions
ĠMil an
m ouse
ĠallClasses Link
normals ize
or ro
Ph ot
Ġfol ks
Ġtel esc
P UT
w oman
Char les
ĠN an
ph al
ĠCal cul
Ġsett le
ĠTransport ation
em on
18 88
ĠSym phony
Ù ħ
M ur
B ounds
ĠL loyd
Ġic onic
l k
N amespace
ĠM atrix
ĠR idge
ĠS outheast
22 8
vers arial
ĠÐ ´
sh are
ar in
Ġbur sts
ç Ķ
Ġdipl omatic
ro at
ĠSchwarz schild
n ell
Ġorient ations
Ġa fraid
ĠYork shire
Ġbe ating
Ġcompet itors
empor al
s amp
{\ '
Ġmonoton ically
s ure
Ġ\ |^
Ġsh ore
ĠWork ers
ĠMad ison
ĠM asters
Var id
iling ual
ĠE SP
ÑĢ Ð¸
Ġmand atory
nt hesis
Ġint ensive
fin als
Ġsem icon
Ġto ll
ack s
ath on
ĠAd miral
ber y
ĠSt orm
23 7
sk a
qu oted
Ġfix es
ĠJust in
mm ode
Ġspecific ations
Ġpremi ered
Ġhand les
0 24
3 80
Ġhist ories
h aw
Ġd ressed
Ġsustain ability
vio let
/ [
Sh ape
miss ible
Ġquas ars
Ġgrand father
sp irit
gl ob
Ġben ch
Ġland ed
Ġhon our
R aw
ph ones
Ġtri ps
Ġn est
ĠS G
ho v
Ġcou rage
ocy cle
ĠT ib
ĠY am
ĠN R
Ġen jo
ĠRepresent ative
f air
ĠR angers
aa aa
con volution
Ġelim ination
V R
il og
Ġun necessary
ĠG DP
g rim
ant om
() ))
Ġdedu ced
EN SE
å ħ
Ġpun ishment
Ġcan on
second ary
Ġfin ancing
ĠB right
ort ions
andid ate
inci ple
) }^{\
AC S
ĠMo z
Ġmur dered
Ġodd s
å Ĳ
Ġmultip lying
mem bers
ĠSaint s
Ġimm ers
Ġl ane
Ġdeliver ing
Ġprim ordial
Ġhop ed
Ġsubdiv ision
}. \]
sol utions
ĠR H
ell ers
om i
ĠD S
' }(\
bl ob
d ip
ĠS ize
18 94
ĠG rey
ĠMN IST
Ġinter change
Ġman ages
Ġtra ded
Ġt weets
ĠN ak
am ount
Ġqu iver
Po isson
ĠAgric ulture
sw ap
}. )
t le
Ġjournal ism
ĠM oney
ĠN othing
et able
Ġrefere n
ex plain
Ġcom ics
Ġspec ifies
& -\
Ġch unk
w avelength
ĠPro duction
it ational
"" "
theore tic
Ġ& \\
op acity
Fig s
Ġsupp lementary
Ġter rible
ĠAnd re
produ ced
Ġsu p
ut ton
Ġadjust ment
st ad
ĠColl abor
] -
ĠF el
)= {\
Ġep ic
Ġb lo
ĠH O
="../../../../../../ ../
c ancel
f ake
cl one
Ge ometry
R edu
b ered
18 64
pre vious
string s
Ġun ve
ĠM ort
ĠĠĠĠ ĉ
Ġy r
Lo op
Ġdet erior
ĠC urt
econom ic
Ġch ances
it eness
ged y
' ];
Ġc rim
ĠAt tack
Ġsu gar
! }\
Ġmind s
band s
ĠChar l
Ġfore ach
; ">
if mmode
in ar
ĠCon jecture
Ġstack ed
ĠTer ry
av i
Ġcos ine
1 200
ĠF ramework
ĠM ari
Un like
Ġellipt ical
Ġcomp elling
Ġview point
ĠGu inea
ÃŃ n
Ġhuman itarian
B K
Ġh ype
ON G
ap os
Ġhistor ians
Ġgradu ating
Ġgold en
in de
Ġwork force
Ġdi et
ĠGerm ans
Ġd ad
S ig
Ġexperi encing
Ġn inet
Ġstat ue
gener ator
Ġpoly gon
asym p
ĠE ug
Ġsyn tax
Ġpregn ant
ĠA round
non linear
ĠStat ement
ig ator
Ġpat ri
Ġselect s
ĠBre ak
Ġind oor
Ġcompact ness
}\ }$,
sc ss
l ater
ari ates
f mf
or ia
Ġcomm od
A SE
ab ol
Ġt orn
Ġpack ing
ĠC ut
es ters
ĠH ost
ĠPro perties
ĠDise ase
Ġinter ven
Ġlog ging
0 14
S creen
F ac
Ġactress es
ĠA bs
Ġlo ose
ĠV lad
in corporated
ill ary
Ġal arm
av an
Ġin ches
26 5
\!\! \!
& \\
IN FO
Ġund erm
Ġl oves
V i
ut ory
RE D
Ġroll ing
}) |
integ ration
cur rence
ĠProt ocol
ĠEd wards
- {
en es
Ġcolor ing
D ynamic
Ġcomp romise
ĠCl are
ĠVictor ian
c art
ĠArt ist
opt ical
Ġtim est
ĠI da
Ġform ats
ut ives
ĠB ody
> =
cel and
v et
Ġdistrib ute
ran ger
ĠO d
G i
-> ]
: {\
ĠW es
Ġreserv es
Ġsum mit
T a
Ġ[ ],
out ube
ĠEm ploy
Ġdom inance
ĠL ud
vent ional
Ġo ve
am med
cccc c
D ictionary
Ġs its
Sh are
Ġchap ters
R ender
Ġe uro
ĠV ic
Ġcompos ers
Ġsmooth ly
rape ut
ĠK E
ĠSt arting
******************************** ********************************
ĠLem mon
S us
ĠSy mbol
Ġc ad
ĠFran ces
ĠAl ban
Ġextrapol ation
Ġpre t
(' /
rab ility
ĠWat son
Ġsatisf action
Ġparliament ary
ĠP E
ox y
Ġor al
ĠRes ult
l os
Date Time
W ait
Ġ ip
Ġsound track
ĠQ ual
Ġsimple x
ĠH ousing
ĠN uclear
c ass
)) ^{
Ġdo ctrine
N ative
ĠA part
Ġless er
Ġtail s
h im
p ark
as ta
trans action
Ġstake holders
ĠC ay
is ch
ogn ition
ĠPhill ips
ĠNe il
STR ING
Ġl as
p z
ĠF riend
ĠPer iod
ar an
Ġcar riers
Ġscr atch
Ġtrust ed
ĠR ugby
FI ELD
ĠRog ers
30 6
Ġ ];
ĠC over
(" /
Ġhyper plane
Ġdiagn osed
ug oslav
J ose
b ie
Ġa est
ĠN H
Ġwitness ed
ĠLem mas
ick en
t ran
Ġwe igh
Ġmark ing
MOD ULE
is set
Ġoutper form
ĠL abel
sens itive
ĠB omb
ĠG yr
Ġca ution
Ġin sect
il ayer
ĉĉ ĠĠĠ
ĠHop kins
iv ia
Ġanten nas
ĠIo T
ĠFW HM
ĠP rec
Ġprop ri
Ġdeterm in
Ġ }^{\
ĠE le
Ġcon greg
Ġad s
small er
Ġdis connected
Ġre dd
Ġto urs
ID TH
Ġlept ons
Ġmark er
d ied
g ie
dest roy
pol it
ĠCons ult
Ġprevent ed
run time
Te am
Ġenc ounters
ĠA zerbaij
Ġs le
an ne
ĠSI ZE
3 15
W atch
) ->
Ġsubsid iary
ĠTre asury
ĠF E
abel ian
Ġopt s
Ġblock ing
Ġsports people
ĠSong s
{\ ,
L ead
ĠP DE
ys on
}[ {\
Ġpros per
ĠC atherine
Ġtal ented
c g
iz ard
Ġmon ol
Ġder iving
ĠCost a
Ġpremi ere
ident ified
Ġconjug ation
ĠA ld
Ġchar m
ĠMag ic
Ġ( ``
ĠS ustain
Ġfriend ship
Ġorb ifold
Ġg amb
ph oto
ĠSt rong
vent h
gl ass
th lete
ult an
ĠCont emporary
writ ers
0 16
Ġfil med
g pp
V O
erm ost
cit ation
Ġhelic ity
Ġp ian
26 4
ĠA aron
Ġsh ops
^- (
ĠTal iban
Ġorigin ating
ĠPhys ical
ut ers
se min
ĠV as
18 62
Ġm ature
ĠQu arter
ĠSm art
Ġcon vective
Ġr itual
ordin ate
fol k
ĠC N
ĠGra duate
Dele gate
Ġearthqu ake
Ġstay ing
S ect
ĠS pi
ĠCol lect
Ret urns
ĠW D
re act
ĠH us
Ġsh ipping
Ġcook ies
check box
3 10
il ia
Ġ\! \
ĠT on
get Element
J im
ex perimental
Be an
E r
ĠV II
ĠR osen
ĠInsur ance
29 0
ĠAm sterdam
or on
}$ (
ĠE R
print ln
Ġconstitu ency
j ournal
Ġre combination
ult ra
Ġnon profit
ĠComput ing
ĠCon c
Ġrevolution ary
Id s
ĠHol land
> ::
RE S
ju ana
Head ers
D river
im edia
ĠE volution
ĠOb viously
Ġsan ctions
z ip
Ġattend ance
ĠE D
ĠO K
log y
Ġn ights
tr l
A st
Ġcab inet
}{! }{\
ĠTrans ition
block s
effect s
ĠA my
18 63
pen cer
\{ (
land o
resol ve
ĠC er
ott ing
Ġeth ics
Ġprom ises
24 8
ĠR ivers
ĠN ATO
head ing
Ġspi ke
ĠM M
ĠSoc cer
al ry
ac s
ĠZ ar
eval uation
ĠC ou
}{ {
23 6
Ġemphas ized
at ra
Ġtor ic
Ġcrow ds
f uture
ĠI van
ĠJ a
ĠAcadem ic
asympt otic
Ġadv ised
SE C
ĠP el
F n
ĠS ax
Ġclar ify
Ġextract ing
} ]{
ĠJ S
rest rial
Ġsuff ers
Ġdro pping
an imation
larg er
Ġtrans fers
}+ {\
ern ess
ĠE valuation
Id entity
Ġ$[ -
Ġ\ "
Ġinst abilities
Ġpsy chiat
; )
Ġup grade
Polit ical
Ġdescript or
ĠFa ith
Ġmus cle
ĠA ctor
Ind ia
Ġan ch
ĠD y
ĠJacob i
Ġball ot
arab ic
Ġp ub
to o
ric hed
n ational
Ġ\ }$,
' ]['
k im
Ġdis closure
Ġchar ter
pe red
side bar
c E
ĠJ ama
DE F
Ġp ipe
RE G
Ġtravel s
ĠComput e
B IT
Ġt iles
AM ES
ĠR A
ĠPer u
Ġmark ers
ĠC ot
Ġselect or
umb ent
Ġfest ivals
e lem
Ġsl aves
ĠCru z
ĠAthe ns
Ġannih il
Ġdecor ated
3 70
ĠZ imbabwe
Ġpredict or
Ġconscious ness
Ġr ally
ĠFour th
Ġsub system
Ġrandom ness
Ġstrugg les
ed i
ĠI L
pl ess
Ġhon ors
Ġconvex ity
LE D
ä º
Not ification
A gg
ĠB ass
w r
ĠĠĠĠĠĠĠĠ ĠĠĊ
Ġnon local
Ġdivor ce
Ġ$ {{\
ran ging
az ar
enc il
Ġproceed ing
inos ity
18 87
ĉĉ Ġ
Ġsouth west
observ ation
irection al
cy cles
Ġw ages
& $\
Ġen rolled
Ġsub sc
g lyphicon
Ġf ifty
{ ,}
Ġ& :=
Ġtremend ous
Ġfarm ing
Ġbut ter
18 86
ĠH S
ĠAng lo
Ġhand ful
Ġv ig
W el
ĠE lection
L ib
ĠM atter
ĠD I
Ġneighb ours
res a
}/ {
ĠCE LL
abl ation
Ġviol ating
ĠS ample
AM S
ĠCon v
Ġelect roweak
}, ~\
Ġcorrect ness
ĠBer g
Ġcomp ass
Ġm ad
f box
Ġre con
Ġsub category
Valid ation
ĠPar ish
ĠR NN
Ġhun ting
A ff
}\ |^
ĠB eth
v phantom
sh ock
ĠD iamond
Ġval ign
vert ed
M ont
Ġenerget ic
Ġbact eria
Ġcomplaint s
ĠR i
erc ise
s an
Ġquas ar
Ġvoc abulary
P B
all ed
50 1
se ed
align ment
Ġacceler ate
Ġa qu
It alian
ĠIraq i
ac a
typ edef
Ġpoly tope
Ġemer ges
ring ton
arg min
Ġfin ishes
Ġshow er
ĠPract ice
b z
S ir
j ee
^+ $,
Ġmand ate
ore tical
OR K
allow ed
ĠH ttp
den oted
}] $,
ĠP ont
Ġbon us
25 3
Ġ< -
Ġvacc inated
Ġon t
orne ys
ie u
isp here
h w
ĠB ose
up ta
: -
al one
F LA
iz ability
ĠO wn
Ġclass room
Ġminim izes
pair s
S plit
Ġthere after
ĠTh ank
r ases
aud io
ag i
B ol
M ary
Ġmonotonic ity
s uggest
Ġspec im
] },
ur ally
ĠK l
Al bum
VAL UE
Ġingred ient
Ġle ase
Ġsculpt ure
ĠP icture
C AL
ĠD raft
Strateg y
w ikipedia
N B
ch air
Ġrefere e
ĠMe eting
}}\ ,\
m obile
Ġle x
ĠR ate
Ġpur ple
z el
Ġb ureau
sh i
ĠHis panic
ĠJul ia
Ġtrav elling
s chool
Ġcare ers
OM E
ĠC ob
az i
Ġnation wide
Ġmunicipal ities
D im
ĠU T
aster y
oc on
L ips
Sh ould
con tr
m us
ibr ational
Th ose
Ġc rop
29 5
Ġ_ .
Ġt ribe
); \
)\ }_{
40 5
Ġvir ial
eps fig
ĠH i
Con sumer
M ouse
Ġ )}
ĠRe form
Reg ister
ĠSpring s
ĠG ov
Cl ub
Ġfoot print
Ġcl othes
Ġlegend ary
ĠL an
Ġdef icit
ĠAct ive
Ġsummar izes
Ġra pe
Ġlegisl ature
Ġstock s
ĠR C
Ġgot ten
p rice
)| ^{
Ġlog o
Cent ral
Ġcl auses
ĠO DI
Ġenjo ys
F K
ĠHel en
enn ial
ĠC ell
Ġshell s
Ġfant astic
Ġprob able
show s
Ġviol in
Ġlif estyle
c atch
Ġhe ights
Ġbi ography
;\;\ ;
Ġdec iding
Ġarg uing
Ġwarm ing
.} ~\
}] .
- ,
Ġeditor ial
Ġsur rogate
Ġvis ually
ĠAltern atively
c ub
ĠG host
p aces
Ġdon or
Ġas yn
ĠMC MC
ĠBar celona
ĠS B
pl ant
m and
ĠPro file
Ġcollaps ed
oper ators
24 6
Ġquant ized
Ġcus p
EEEE FF
m og
Ġcitizens hip
asser stein
con formal
Ġend e
our ced
ĠL ate
enc oding
c ies
ĠM eta
Ġcon es
24 7
f av
ĠL aura
Ġove rest
pro per
Ġte a
$ ^+$
Ġadminist ered
ne ural
reg ions
hal o
^* =
ĠH em
ĠSc ript
Ġpro ps
}} )$,
Ġinvest ed
ĠNe braska
ĠB ristol
Ġexpress ing
ĠP G
Ġdeb uted
p ages
28 5
D ATA
Ġm ood
ĠR aw
observ ations
m usic
text sl
Ġfil ing
Ġcon ductor
Orig inal
Ġredu ctions
ĠSer ver
Ġem power
m um
ĠK re
AS P
Ġpost er
4 20
Ġsk et
Ġconv iction
ĠLin ux
ĠDec ision
Ġrespect ed
e ur
Ġs id
in come
Ġcous in
C red
Ġdo zens
30 7
Rep resent
Ġcondition ing
ĠL M
bas elines
ĠB ird
iz ational
ak ia
verg ences
A J
Ġn s
ĠM ann
Ġres caling
Ġreveal ing
Ġmil k
ta wa
ĠNep al
Ġprint ing
bell ion
Ġresemb les
Ġauthent ication
T aylor
ĠC incinnati
Ġch ir
30 2
measure d
ĠGh ana
Ġal um
con clusions
Ġconcert s
du ality
f rames
Ġwra pped
ĠT ed
I ES
follow s
L ittle
et ed
time out
l it
ĠMor ning
oc ate
cross ing
}^{ +\
ĠQu estion
Ġtra dem
Ġadvoc acy
=" $
ST AR
urs es
ĠRem ove
Ġcust ody
Ġbe er
Ġgain ing
Ġc argo
el ong
ĠV el
ĠEqu ations
Ġsur pass
position s
Ġc md
Ġen um
ĠArray List
i ast
pp y
Ġwork flow
ĠY e
ise cond
Ġaccompany ing
n ick
ĠR acing
Sim ulation
Ġtransform ing
Ġspace craft
Ġup stream
Ġmal icious
Ġharass ment
W u
ĠC hat
Song s
Ġprior it
Ġprest igious
Ġaccum ulation
B and
Ġbusiness man
ĠDist ribution
vert ices
) '
ĠSal v
Ġfurther more
Ġdead line
}} }_{
ĠJos Ã©
0 13
Ġass ists
Ġdispl aced
l q
stat ement
U ri
Ġf u
qu art
Sch warz
b ast
un ks
mod ular
Ġear nings
Ġapplic ant
Ġcross ings
Ġst olen
R D
ĠK rist
Us ers
Ġsk i
ĠHor se
. ",
S tage
ĠAthlet ic
opt s
Prelim inaries
k T
ĠC atalog
ĠOther s
Ġelev ated
Ġprodu ctions
Ġde ck
AR N
Ġsw ap
s low
Ð° ÑĤ
ash a
cir cled
Ġsimpl ifies
Ġcivil ians
ĠBlo ch
Point s
prov ide
represent ed
J ud
ov al
che t
k p
Ġr ated
con sum
Ġinter ventions
Ġassert That
ĠWell s
Christ ian
Ġpregn ancy
lene ck
H B
r ud
ĠVenezuel a
Ġ/ \
Al t
Ġhon ored
Ġcrit ically
ĠD ennis
Ġpick ing
sen al
L IC
ĠRe LU
ĠI BM
ch at
Ġlock down
ĠN om
ĠCh i
ĠFil ms
Ġtim estamp
C as
ick ed
Ġcentral ity
complex ity
J ones
approp riate
Ġpat rol
Ġnull ptr
Ġd ump
ĠTr inity
ĠTrans form
ut orial
ĠSum mary
ĠM end
Ġcl ump
ĠCl uster
Al low
ĠCan al
Ġion ized
ĠNov a
Ġmaxim ally
ĠComb ining
ĠAdd ress
Ġse ver
Ġaffili ated
18 81
Ġsuggest ion
E SS
es pecially
im an
Ġb achelor
Ġkit chen
Sto kes
Ġu pl
Ġdep ths
c B
Ï Ģ
=\ {\
Un known
Ġpredecess or
ist le
Ġinv ention
Ġlight er
Com paring
go al
PC A
num bers
B road
l v
Ġex changes
Ġreal m
L oss
Ġcra zy
Ġpos itivity
ĠMor se
Ġback ed
enti eth
o ard
Hig gs
Ġbu cket
ĠTour nament
Ġfl our
i ating
ĠF err
hu ang
E F
W al
iz a
n z
PH P
isim ple
}$ &$
am o
AN S
Ġcov ariates
B order
UN T
' )}
ot ional
45 6
2 21
VAL ID
T own
Ġreven ues
central ized
M ah
o ct
ref lect
S el
im als
) ",
our cing
expand after
Ġf reed
ĠSet ting
Ġprem ium
h fil
Ġleg ally
ic ht
ro e
uss els
sol r
T ensor
Ġtrac ing
Ġs outheast
C over
Ġnur sing
Ñ İ
ĠM otion
ĠK un
M icrosoft
Ġdescend ants
Ġwork shop
Ġminim izer
ĠT oy
18 84
Spe ed
g f
g ements
un known
ĠMun ich
Ġre he
St atic
conj ug
Ġplay offs
I Z
ul in
iv o
by e
Ġrestrict ing
Ġinv oked
Ġapp ar
50 9
ĠCont ract
ĠDo ppler
j l
ĠNAV BAR
link ed
Ġw isdom
Ġsil icon
ĠC MS
18 82
Ġmis takes
friend ly
t ang
att s
it ives
c ould
Ġ Ã©
MO DE
Ġconfirm ation
6 40
ĠForm er
ĠEncycl opedia
ag ner
Mark ov
Ġattack ing
; "|
lic ense
Ġspect ro
^+ ,
Ġcon ferences
Ġmanufact ured
Ġbl ame
ĠĠĠĠĠĠĠĠĠĠĠĠĠĠĠĠĠĠĠĠĠĠĠĠĠĠĠĠĠĠĠĠ ĠĠĠĠĠĠ
itro gen
Ġwork place
Ġgroup oid
ĠArn old
0 75
tablen ot
Ġincorpor ates
F ast
Ġbel t
ĠLuc as
ĠS oul
the m
s ocket
z ig
ĠS ah
Ġemp ire
Ġin quiry
A ST
st ab
}^* (
Ġmer ch
g d
ĠK i
Ġaccept s
Ġwor ried
ol an
th ose
ĠN y
ĠCor p
Ġdial ect
f an
Ġmed als
Ġspec ifying
Ġadvoc ates
Ġfif teen
ĠV ision
Ġsl ots
ĠPrinc eton
cent ric
Ġcol ony
ĠL isa
Ġdif fraction
_- $
N amed
Ġpursu it
ĠN otes
Ġ} }\
L am
Ġrefere nd
Ġshel ter
* (
Ġpractition ers
m x
ash ing
Ġo ught
In ner
Ġbe ars
ĠLet ter
}/ {\
ĠF DA
Ġment ions
Ġheav ier
ĠR AM
Ġneighbour ing
tr unc
ĠM ut
Ġlog istic
ĠN ever
Ġinter stellar
UT H
ĠAn cient
Ġunder taken
Ġsupernov a
ĠL ion
Col lect
ĠS ony
ĠR ena
Ġrele g
ĠReg ulation
Ġrenew ed
Ġs ender
ĠSh adow
m its
Ġre cycl
ĠH unt
fig ref
sm ith
all ax
Ġdifferent iation
polar ized
be en
ĠE ston
C ONT
Ġburn ed
æ ķ
Ġgra ve
Ġquarter back
Re pe
pend ing
zant ine
select or
Pro duction
Bbb k
Ġtra vers
for ced
mark ed
En v
Ġrevers al
in ters
ri ans
Ġholograph ic
Crit ical
26 3
Ġre conc
ĠCh and
NavBar Font
ĠLINE AR
Ġc inem
Ġmer chant
Ġren owned
Ġalt itude
×Ļ ×
~ .
18 75
ĠTr uth
Ġd Ã©
ĠB ath
Ġcontract ed
P rom
ed e
ĠHamilton ians
C os
Ġbre ach
ai ro
Ġsubject ed
c x
Ġmyster ious
ĠIn stitution
Ġrel atives
Ġart ic
dis pers
_+ ^
App end
h f
Ñ Ĩ
if ference
" ].
[ (\
Ġd ign
ear ly
Ġfin als
Argument Exception
Ġt mp
27 3
Ġnom inations
product ive
ĠI gn
War ning
ĠSand ers
ogram s
B etween
ĠPlan et
Ġsc ra
ĠMont gomery
ĠCre ative
Ġsett lements
p kg
ĠF at
}_{\ {
Ġp ounds
id is
à ¦
Ġre calling
ra h
})$ -
Ch ain
Ġl oud
Ġfight ers
Ġh orn
and ez
ĠE state
** *
Ġign oring
ĠGa ia
Ġro ster
ĠNash ville
W P
de velopment
Ġper col
Ġb rig
Ġconstitu ent
ĠF ish
ĠĠĠĠĠĠĠĠĠĠĠĠĠĠĠĠĠĠĠĠĠĠĠĠĠĠĠĠĠĠĠĠ ĠĠĠĠĠ
ĠL D
ĠS GD
Ġnum bered
Ġcur sor
ĠIl legal
P en
Ġun labeled
Comp iler
ĠLe o
Ġtri ples
25 7
24 3
Ġred ist
n h
Ġan ne
p v
ĠD ig
ag h
og an
m is
Ù Ĩ
ĠMark eting
Ġsuff ix
ĠNob el
* }{
Object s
nav igation
Ġb ump
ow itz
ort ium
ĠC ad
per fect
ĠHar bor
Ġlack ing
Â »
Ġtu ples
ou ville
}} :
D rop
ian i
ĠSer bia
R ock
ĠV ict
Ġmic rowave
ĠW igner
Ġgra ce
c T
)] .
ĠNe uro
Ġdoub let
B ell
Ġf ame
Ġprem ises
Ġwild life
load ed
ĠP ere
rop ies
widet ext
found er
E conom
ĠH at
] ).
ä ½
Ġgeneral izes
ĠSol id
ĠPop ulation
Ġb uses
ĠA dapt
Ġbo ats
Ġinterpret ations
strong ly
comp ile
Ġstri kes
Constra int
Ġround ed
Consider ing
Ġske leton
Ġinert ial
'' }
ĠA V
K h
Ġrep orters
Ġdec o
vel t
Ġprohib ited
ĠC lear
)) _{
ess ing
pro ton
ĠT ry
~~~~~~~~ ~~~~~~~~
Ġenc odes
Build ings
Ġbright er
odrom y
Ġed itors
ĠĠĠĠĠĠĠĠĠĠĠĠĠĠĠĠĠĠĠĠĠĠĠĠĠĠĠĠĠĠĠĠ ĠĠĠĠ
ibl ings
Ġtransport ed
Ġwhere in
spec ified
ĠExcell ence
ĠCart an
Ġr ises
Ġd oping
S ar
ra its
Ġ' ',
eler ation
Ġdivis ors
Ġsuper gravity
Ġpers istence
La TeX
in fl
Ġgrid s
Ġt anks
er k
Ex pat
ĠR uth
ĠK ate
Ġdig its
Ġcomment ary
Ġpick s
ĠK ay
Ġpull back
Ġperm issions
Ch inese
B ind
Ġ\ >
ĠB ot
aff ected
O W
y x
Ġlat itude
os ity
ĠB und
Ġel ong
bor o
nice frac
DE FAULT
ĠN athan
ĠU L
Ġid em
\% $.
us c
Ġqu ies
]{ .
)\ }
ĠSoc orro
Ġsub scription
ĠInd ividual
}| }
Ġpen alties
Ġpartition ing
od ia
en ia
Ch art
U pdated
eng u
IS A
ibl ical
Ġw ors
Ġwrit ings
Ġdis rupt
nam ely
Ġdu o
G overnment
ĠA verage
Dep th
ĠClin ical
mac ro
ine es
Ġexcess ive
compos able
Ġvolat ility
restrict ed
Ġf oster
Ġsc andal
Ġdoub les
Dan iel
ers en
Com pare
ĠBelg ian
it ary
ĠZ ero
G roups
Ġst ems
}} |\
ĠO bl
Ġviol ate
Ġad verse
ĠPr ison
metric s
Ġin nings
ge om
Ġ? >
coordin ates
ft en
Ġescap ed
Ġc ached
Ġmem oir
uk a
ĠHug hes
Ġexp edition
M yr
On line
Ġpursu ed
du st
33 6
ĠL ux
}( -\
Ġtour ist
d ia
ĠCho ose
Ġnob ody
K G
Ġlast ing
Ġs el
ĠB uch
Ġfl ares
Ġbroad ening
Al pha
ĠJ ar
& (
ĠFirst ly
24 4
ĠN V
Ġbroadcast ing
Ġlit igation
Ġfor ty
< $
Ġexec utives
ring e
ĠS alt
ĠCong o
Re ception
Ġdemand ed
ĠHar vey
Ġsear ched
ĠK id
Ġ(- .
b ons
ĠB ald
att ing
Ġappe aling
Ġpl at
ĠQu ery
b X
23 9
ĠS end
ĠV ert
Ġpolit ically
acc ording
au nd
rast ically
ĠAmb assador
E U
L HC
Ġ il
ist inguish
inter cal
* [
F und
ĠA A
Ġnot ification
ĠJup iter
Ġg i
eg al
Ġcor rupt
Ġanth rop
ĠW id
Sep ar
id ays
ĠT odd
ĠCom edy
7 20
Ġsc ar
ival ent
structure d
ĠBit coin
L ove
Ġworld s
18 83
Ð½ Ð¾
Ġcan vas
Ġrespect s
bul k
unt ed
Ġreg ulated
Ġgroup ed
ad ditional
Ġsort s
ley ball
ĠBut ler
Us age
Ġfavour ite
Ġharmon ics
G reat
Ã³ w
og g
Ġresid ing
IC S
; {\
Ġmultip ly
pl ays
ol ine
Ġsp urious
valid ate
iv ate
Pl atform
Ġtra its
Ġfound ations
Ġrestrict ive
T X
if ndef
ĠPre vention
] }{
Ġsol vable
vel ation
RE T
Ġkid n
ĠM aking
Ġj ack
ĠO P
Ġaxi om
C lear
ir re
16 00
reng th
_- (
M G
, &
K R
m ans
â ĪĴ
ĠH ab
Ġcoinc idence
Ġstat ute
ĠM F
ĠCo ach
Ġor che
Ġsy nonym
Ġam ateur
Ġdi vergent
Ġdemonstr ations
Ġconcaten ation
{ },
ĠA uth
} &=&\
Ġg ig
ĠC ome
ĠP arent
L ip
ĠB B
ĠShang hai
\ (\
Ġcl ique
C U
g rowth
ĠColumb us
Ġrecurs ively
STAT US
Expat riate
ĠSt re
Ġwave function
Ġaxi oms
re action
Ġ$ *
fl align
habilit ation
ĠC ir
Ġl ip
Ġrock s
Pre v
Ã ¦
OC K
Ġl in
0 35
sub fig
SS L
Err ors
ow der
ĠDat aset
S qu
yl um
Bel ow
ex am
ĠB aby
ba um
n ative
ĠL ithuan
be at
pop ulation
em er
us hes
ĠE N
Ġ\ }_{
ĠCon tact
Seg ment
ĠM ig
pseud o
Ġr iding
Ġn u
ĠR ou
ĠWall ace
18 40
Ġamb itious
ĠHard y
P ark
Ġbe aring
Ġhad n
ull ah
ĠHy per
ĠP sy
6 25
ex c
ĠR oth
ind ices
Ġpoly g
cite alp
Ġtelesc opes
agn ostic
Ġunf air
dis able
F eed
Ġ ĉĉ
}}$ }
Ġchampions hips
0 20
Ġbu ck
ĠN u
ĠAthlet ics
ĠOak land
assum ing
ĠâĢ Ŀ
18 76
ĠCor respond
En umer
ĠVo ice
ri o
b id
et c
ĠPl atform
Ġcategor ical
he avy
ĠL amb
Ġsum ming
m oving
ĠM ul
Ġper sec
ĠPrad esh
t ables
Ġdis charge
ract ical
Ġf ut
iff s
Ġimpact ed
Lips chitz
ĠConfig uration
he nd
ĠS itter
Ġbal ancing
Ġreg iment
Ġsuper fluid
Ġmism atch
ĠE OS
aut om
ĠS oci
Ġprivile ge
ĠHol ocaust
ĠL F
Ġdesign ation
aur us
pro ving
Ġdom inating
Sub stituting
ĠN ancy
ĠDrag on
Ġcost ly
Ġasymptot ics
ĠCliff ord
3 12
B an
ĠT F
Ġsl iding
plan ar
Ġbroad band
Ġpresum ably
c ussion
Ġ ^\
ĠP om
gar ia
Ġfor um
ĠTerrit ory
oul os
ĠPubl isher
Ġgradu ation
qu as
g b
g athered
Å Ħ
Ġbehavior al
T urn
ĠW H
ĠG az
Ġtyp ename
ĠSt ef
Ġcert ification
Ġres caled
Ġcro ps
de comp
Ġ$\ #
if s
ĠHer bert
CV PR
Ġconsult ation
M n
h k
om al
ĠJ osh
? )
28 6
top ic
Ġc ens
ĠW onder
Ġph osph
Ð½ Ñĭ
N am
j ax
Ġconc ave
deg r
Ġavoid s
ĠMil waukee
ĠCamp us
B atch
ĠH ER
R GB
g rand
ol ia
Ġam ple
Ġassign s
Ġal i
ĠRe id
co eff
br is
Ġmiss ile
um i
aj a
Ġan ger
CO M
ĠU ntil
oth ic
ĠA pr
ĠN PR
erv ous
Ġform ulations
Ġdisc arded
Ġmask ed
G od
ĠChar acter
Sp ring
Ġhaz ard
G rant
c ible
ĠG aza
get Value
)} |
Ġcomput able
ogon ality
ĠSo on
ĠClass es
is se
ĠI celand
Ð¾Ð ¼
Ġatta ch
Ġapproxim ating
Ac cept
24 2
other mal
NS String
ul ators
ĠL ex
Ġprior ities
ĠVerm ont
ĠG E
å ¤
Ġpro long
Ġch ord
inher it
Ġun cle
Di rac
Aud io
Ġde ce
AP P
Ax is
Ġg ases
)$ ).
Ġpeace ful
R V
W H
Ġl on
ĠLe ave
ĠInter view
ĠChap el
O ST
Ġshe ets
ĠO DE
et e
ru de
Ġcomp rom
Ġaggreg ated
Ġshould er
Ġsc ans
Ġterm ed
algebra ic
Ġcan nab
Ġcontin ent
Ġen closed
ĠSt uart
\/ }
ĠD rama
Î ·
ra de
ĠDisc overy
ĠT X
ĠArch itect
Per iod
Ġhum or
)\ |^
27 9
Ġapplic ability
ĠRed u
Exec ution
j ump
inter pol
sc hed
Ġsw ing
Ġmer it
in as
ĠD od
Ġloc ate
Ġaff air
qu o
Ġphysic ians
Ġbas in
End point
im plementation
ĠSt ri
po inter
] ^\
t owards
in ians
Ġcon gest
Ġtra uma
% "
Ġ$ _
rac ed
Ġcomplic ations
ĠA viation
ma ils
F ollow
Ġst ressed
Valid ator
ĠM ade
un al
ĠWood s
26 7
ĠL ions
Ġinvest ing
v on
M ills
}) ).
ĠV a
Ġdon ations
j ets
Ġre lied
cm p
Ġinvest or
d q
ll bracket
ĠBre xit
Ġsoc io
Ġalgorithm ic
Ġrecip ients
Ġang ry
direct ed
un its
Ġte eth
ĠRe ed
Ġ@ "
ah l
Ġgu ards
Ġc ob
Ġpro tagon
18 78
Ġ\; ,
ĠH ST
Ġjust ification
scal ed
b eg
ĠR isk
)] ,
Start ing
Ġassemb led
O wn
Ġbad ly
m ons
ess a
Ġfeed ing
ĠFil ter
Ġor chestra
Ġfree ze
et itive
Ġu pset
ĠJ our
30 8
Ġc s
ĠG rid
F ixed
ĠE ver
ĠL ov
ĠHar per
Enc oding
}$ =
ip olar
ĠX X
spec ially
ĠOption al
Ġgener a
th ood
AS K
Ġnod al
se g
Ġw orm
Ġd rastically
ĠK as
Ex pected
ĠLu is
Ġstabil izer
pl aced
ĠGl en
un s
T our
log ical
comm it
coll ision
ĠL C
CO MM
ĠArm ed
C ounter
ĠG ilbert
orient ation
Ġpursu ing
L ang
Ġinter play
ĠF oster
Ġmaxim a
Ġre min
ĠEag les
m q
ff f
li qu
ĠTest ament
ĠHol mes
M essages
Ġplay off
Ġtrans itive
49 5
ĠCoun sel
v or
ĠLaw s
Ġnation ally
ĠI SO
Ġ\| _{\
Ġsl ip
ĠH ait
includ es
Del ay
am pton
ĠBar ack
ĠFlore nce
Ġi ii
ĠPre vious
V o
Im plementation
construct or
Ġre lic
UR N
Ġout ward
28 7
ĠL is
S core
ĠHar old
Ġsubt racted
L im
Ġsy s
orth ogonal
rr bracket
F r
18 30
Not Found
Ġthorough ly
Ġpr ide
Art icle
^+ _{
Ġimm un
U ntil
av ier
ĠGal ile
ĠL I
ĠG ang
|| _{
g old
ĠH amb
25 2
Ġpo ets
4 60
Ġcontroll ers
IM PORT
Ġto xic
s ight
it ches
iz ar
Ġg au
b ane
ĠB order
P ad
ĠM ong
ĠB ottom
ak is
inci ples
D rag
F rance
c X
ĠEvent ually
Ġprospect s
cent ered
Ġregular ized
ĠBuild er
| _\
ĠR achel
ne apolis
Ġassoci ative
Ġmention ing
ĠEconom y
Ġan ime
Ġeth n
Ġconsult ant
C hat
i encies
'] );
Ġexcell ence
Ġsac red
4 40
load er
C amp
Ġs moke
Ġkilomet ers
Ġelectron ics
ĠLat ino
Ġpartners hips
Ġlux ury
ĠPl us
read er
Ġsatisf actory
Ġqu atern
qu is
ĠUn less
Ġp ic
ĠCom ponent
in fer
Ġa ria
ization Model
be havior
ĠH arm
ĠR alph
ĠF D
10 80
view port
G er
ge b
ĠAg ent
Ġl ucky
ĠE L
18 71
24 9
Ġg ear
Ġiter ate
Ġ à¤
Ġwind ing
Ġre vision
ĠH ubbard
' )$,
{$ {\
F it
Ġt ram
curs ion
H ist
3 90
b A
in x
Ġth rew
ij i
Ġa viation
ĠB un
are l
Ġtrans cript
ĠK ash
Ġworks hops
Ġconsum ed
Ġex empt
fl ip
c ill
)( -
spect or
Process or
in fin
18 68
Ġpat ron
H ouse
âĢ¦ .
| )
Ġun fortunately
Ġt il
Ġs b
ĠI a
ĠG ent
ĠBob by
ethe rian
Ġdisappe ared
ex change
P od
hard t
W at
m ys
ĠB essel
ĠW alt
ident ifier
ĠS ierra
Ġdeleg ate
Ġmet eor
An notation
h istor
Ġb ay
ol in
are to
Ġrenormal ized
Com plex
Ġexhib itions
Ġun ital
unc an
Ġf ool
IO Exception
ific ates
Ġdesign ers
ĠP in
ĠRod rig
Ġcompan ions
ĠEm ily
Ġcat aly
Ġ$ +$
Ġ> >>
ploy ed
ĠBir th
Ġl ung
con ditional
ĠP erm
H older
Ġpain ters
p ubl
Ġsil ence
lear n
Ġproduct ivity
ĠP V
Ġprob es
ĠH ugh
approxim ate
Ġ æ
H ave
O U
Ġs igma
ru p
Ġprogen itor
Ġh ire
ĠN J
Ġab straction
Ġ' ./
r ally
oy le
st rom
Ġfor gotten
ĠS top
Ġste pped
Ġm ari
Un iform
Ġf ading
repe at
)} }$
Ġsumm and
Ġpres idency
getElement ById
{ }_
^{* }$
Ġtriang ulation
ach i
can vas
m ov
ĠM HD
ĠP or
28 3
v ark
w itz
ĠS ak
ĠW rest
Com mit
âĢ¦ ]
orth y
arr ison
Span ish
U r
ĠLeon ard
F red
Ġby pass
ĠPr incipal
W ater
ĠQ atar
ist ani
ĠR onald
ott i
ĠP av
Ġare na
Ġbar rel
en code
Ġprov inces
ĠGe or
Â ½
as ia
ĠGene va
Ġign or
Ġscript s
Ġwhere by
ĠNon etheless
kw args
M ic
ĠHel p
Z one
Ġche st
Ġelder ly
HT TP
ane ously
ĠPen insula
em it
^ ^
Ġhistogram s
w y
| &
ĠK ids
ĠF IR
ĠY ugoslav
0 33
ĠL MC
Ġconf idential
Ġvalid ated
ig nt
Ġsp ell
rag ue
[ ][]{
Ġutil izes
le ave
ĠG ross
our g
Ġl ig
Ġalt ogether
ig raph
ĠSt r
Ġstrugg led
g ic
capt ure
mb b
att i
Ġscr ut
Ġk nee
mb le
att ed
Ġopp osing
Ġcre ator
ĠBrook s
ĠC lean
Ġopt ics
2 18
magn itude
Bu ff
satisf ies
Ġeconom ies
k le
ip ot
Ġforecast ing
^+ }
Ġ| ^
Ġtum or
b ird
clust ers
Resol ver
Ġwant ing
ĠNewton ian
Ġg aming
ĠDemoc racy
ĠBen nett
~$ {\
Ġtag ged
Part icip
ĠFinn ish
art icles
24 1
Ġinterview ed
Ġtra fficking
Ġbene ath
Ġindirect ly
}} ),
Rel ative
appe ar
com fort
b ond
p ion
Ġlisten ers
Ġl ap
Ġc iting
Nav igation
as cular
ere x
p owered
ĠL oc
B us
tor ic
ĠK nowledge
ĠEnter prise
ho o
Ch ris
\,\ ,
Ġk a
ain ter
keep ing
propag ation
op ol
Ġflav our
# {
ra ment
ĠS or
Ġprison er
ph or
W ashington
et own
object ive
M AN
ĠD IS
ĠH az
ĠS ox
Ġback up
For ce
Capt ure
Ġexplo itation
Ġm aj
Ġmat hematic
act ers
R u
Ġcul min
}| _{
Ġflu ids
US ER
re ne
; -->
The me
ĠDet erm
Ġvolunt ary
b road
ĠB ris
Const ruction
Ġneg atively
PRO JECT
Ġmart ial
ĠK S
Ġcod ew
Ġoutflow s
& {\
it ably
}$ }}
s pi
Ġur ged
Ġdoub ly
c ock
ĠL if
Ġnav bar
ose velt
Ġim balance
Ġpack ed
ar as
ro c
ĠĠĠ čĊ
ho e
ĠM AC
Ġcou p
Ġvir al
Man agement
const it
Ġpuls ars
ORD ER
Ġforth coming
h in
ĠĠĠĠ čĊ
Ġenfor ced
Ġwithdraw al
t ight
Ġutil ization
Ġsacr ifice
f mt
)\ |_
Construct or
% ),
ĠR ice
18 67
Ġrepe ating
cf g
Ġpassion ate
G ar
,\ ]
Ġun anim
ann i
ĠQ uality
> {\
st en
Ġrespond ents
}, ...,
ĠB ach
Ġm ines
}- (
Ġdetect able
correct ed
su ally
Ġsl it
Multi ple
Ġs ocket
trans l
)| $
26 9
Ġu b
the refore
ing ers
ĠWeek ly
18 77
enc ia
Ġpropag anda
[-> ,
c ourse
ax ial
Ad am
mes h
Dist ance
Sci ence
G rand
ie ces
Ġv ox
cap acity
ĠPresident ial
ĠA ges
ĠB in
rt l
K it
con jecture
Pa per
w at
Hen ry
26 8
Ġdem ographic
Ġautom aton
RE SS
cs v
Ġto uring
min ster
Ġrele asing
": "
ferm ion
ĠN W
ĠPers ian
Ġconfigure d
ign e
Ġe ig
_* (\
18 79
e ight
pi pe
J P
ud s
const ants
Ġhome omorphism
' }^
w allet
Ġ\ }.
Ġph ones
Ġquadru pole
im plicit
ĠD im
27 7
Ġper f
ul ent
Ġmult ic
rec ated
Ġaccommod ation
Ġgrad es
an ch
Ġthe rap
problem s
al in
ĠS ou
] ^{-
is Empty
ĠAir lines
ĠF iction
Ġf ires
Ġr ms
Ġinv ented
c red
Ġtop ologically
PE C
ĠD T
eder ated
H tml
S ort
W allet
ĠRena issance
Ġdi abetes
Set up
Ġlum inous
ĠPro gress
ĠBern oulli
al am
Ġstr and
cur l
T rump
Ã ī
ĠVal ues
Ġshr ink
Ġm artingale
Ġwe ird
}$ '
cons idered
add y
Ġthermod ynamics
Ġc c
Ġ" ";
Ġgener ically
ĠPark s
pack ages
Ġint ens
Ġencoura ges
Ġcompens ate
ĠCirc le
Ġ' ';
$ |\
ĠR ole
Ġinvert ed
en ko
Ġpol ym
Ġhe aven
col ored
.~ (
Ġatten uation
r ather
E B
ĠWild life
sub t
Ġc attle
ĠR us
N LO
Y au
g ive
Reg ular
) &=&\
w f
it ored
co res
Ð½ Ð°
ra ising
D irector
26 6
Ġcontract ing
Ġal ike
Ġvort icity
ic ism
ah u
q i
en os
25 8
e fficiency
i ological
Ġ" [
ill es
25 9
Ġminim ized
I l
ro us
Ġfil aments
Ġnormal ised
it Hub
ri ent
Ġch at
ĠM BA
25 4
ĠD j
R ound
con cat
ĠCo q
ĠTy ler
/ }
ĠF oot
Ġtour ists
be ans
Ġautomorphism s
ĠChel sea
H aw
Ġin formal
Un ity
Long rightarrow
H V
Ġf mt
Trans fer
Ġcard inal
z b
Ġbul let
ĠMe chan
Ġcentral ized
}) .}
ĠK in
Ġperman ently
ĠH yp
com ed
Ġdef ender
Ġprompt ed
" },
Ġnur se
v f
Ġsim ulator
ett es
ĠSecond ly
p ad
v id
ĠK ill
Ġqual ities
Ġs ax
ĠMaterial s
{ .}
7 68
ot ics
18 48
Ġrestrict s
Ġshock ed
ĠField s
optim ization
Rail way
w ent
Ġf s
C AP
enc hed
r q
v ariant
Ġint end
ah an
bro ken
Ġh ung
ĠS pencer
os ion
ĠG D
zo om
: \,
ert on
rop olis
A Y
ĠHe avy
yl an
K o
Ġrank ings
Ġhospit ality
Ġsynthes ized
ign ore
ilt ered
Ġscan ning
M i
ed uc
)$ ]
28 9
Ġlingu istic
Ġm irr
Ġreferend um
Ġdefe ating
Let t
Med al
Ġl oses
d rag
v u
Ġre fin
Ġl ith
ĠM LP
Ġtra iler
Ġorgan ize
Ġre un
ĠIt em
Ġoccup y
Ġlaunch ing
Ġt ubes
ĠPeters burg
um m
Ġdis ruption
Ġindex es
ĠEmer gency
28 1
Ġcourt esy
T imes
ss s
Ġmon oid
Ġthr one
ir teen
rd f
Ġabund ant
Vir tual
K D
car bon
Constra ints
Ġsystem ic
Ġac ute
Ġn inth
ĠM ell
IN K
Ġrid ge
ĠTig ers
ĠS ug
ĠCoal ition
f etch
Ġp ink
ĠIss ue
Ġmort gage
ĠSh annon
Ġassign ing
Ġadvis or
ĠS ales
Ġdecomposition s
h ler
Ġl unch
Ġopen ly
Ġampl ification
Ġgram mar
strateg y
Ġb ending
Ġfol iation
ĠCh andra
}^+ $
Ġcart oon
own ers
Ġem itting
pa int
sim ulations
Ġcorrel ator
Ġincent ive
Ġf ur
Ġinert ia
ĠEngine ers
Ġd ancing
ĠY ellow
il o
Ġkey board
ĠEdd ie
re search
Ġrecover ing
Ġprosec ution
Ġend orse
Ġexceed ing
Ġegg s
Ġcompar ative
ĠLO G
ĠAppe als
g ives
\% $,
ĠLik ewise
Ġsn apshots
Ġattra ctions
> ;
im i
Ġbelong ed
ĠF S
ĠG amb
Ġfundament ally
ĠS old
Ġhad rons
el o
ud ed
ĠN IR
ĠRes pond
pa id
Ġj s
Ġdraft ed
ange red
bm od
al ym
Ġnonlinear ity
ĠSp in
\ }^{
Ġd w
b oot
Ġintrig uing
Ġsynchron ized
/ ">
F oot
Ġrefuge e
p ent
Ġa erial
ĠE S
=\ "
ĠD ES
ĠJ in
ĠK K
Ġsmoot hed
x iv
on de
f at
x shift
Cont ents
Ġorigin ate
C ulture
Ġ }^
Ġb ubbles
un ting
ĠCab inet
j m
18 66
Ġdec oupling
Ġsl ide
squ ares
0 60
ĠChem ical
Ġswit ches
A k
ov sky
27 2
chie ve
Roy al
comput ed
Ġcur ious
ĠOr lando
ress es
Ġconstruct ive
Ġpil ots
Ġadvert is
And rew
, *
Ġmach inery
ĠSe lection
A dapt
d anger
p ipeline
Ġart work
mean ing
Sw itch
ik o
)$. }
Ġref lections
supset eq
ĠD ame
ela ide
: &
edd ed
27 1
35 5
Ġperiod icity
Ġnormal ize
Ġquant itatively
c if
Ġdef ended
ĠSt yle
D AR
è ¯
Ġa thlete
ir on
ĠA w
Ġ\\ [-
W T
Ġeffic acy
O DE
r w
}= [
Â ±
ĠSe curities
, (\
Ġfarm s
g art
rib es
ĠCom plete
Ġsacr ific
ĠSol utions
Ġsc reens
29 4
Se ason
Ġcontrast ive
3 21
Ġp ale
quad ratic
Ġbl ast
ĠGl ass
ĠC risis
ĠArt ists
J on
Y et
ĠTh under
18 72
ĠLe eds
kins on
ĠAud io
ro ots
Ġm amm
Ġhe d
ĠOt tawa
Ġend emic
intend o
0 45
it he
Ġcl one
Ġload s
bo ys
V ICE
er re
ĠGreg ory
Ġinev itable
baselines kip
0 80
as aki
Ġlo yal
ĠSocial ist
ĠGab riel
Ġrel uct
Ġtown ship
Ġclean ing
Ġinnoc ent
Ġsepar ates
g ical
re ctions
ĠY a
ĠAzerbaij an
ĠMc Donald
her ically
Metric s
Input Stream
Ġcont ing
\! -\!
Ġlift s
Ġ$ >$
Ġharm ony
Ġlect ure
m ol
Ġdiscret ion
u racies
Ġinter im
Ġcharacter izing
Ġtow ers
W L
' }$.
ĠSp ider
ben chmark
Jew ish
ul o
Vill ages
y on
sub mit
Ġpri ests
ĠS VM
angel ical
Ġaim ing
Ġdis continuity
W D
ĠM ail
SO s
Ġcollect ively
nucle on
v w
Ġtra gedy
): \
Ġimp ressed
proport ion
b Z
Ġas ylum
ĠM ills
SE D
ĠTerm s
Ð ¶
D ual
K u
ag le
ĠAr c
ĠMA X
ĠPear l
ĠP arameter
hel m
0 17
ĠB ear
Ġ_ ,
F ermi
ĠCl ose
quoted bl
ad ays
bu ff
tact ic
ĠHer z
ĠGRB s
20 30
! )
ĠB oh
A mb
os er
text quotedbl
ĠInitial ly
c ology
ish a
Ġ\; .
Ġmet ast
ĠF T
M iddle
oll ar
zz i
S erv
rid or
29 9
Ġquas ipart
comb ined
ĠR MS
ĠL T
q t
Ġl uck
ĠG and
fin itions
Ġharm ful
Ġevent ual
Ġdis ent
fact ors
Ġ" >
Ġgeneral ised
Ġexec uting
Fact or
Ġed itions
35 7
Ġanaly st
c amp
Av ailable
O w
us on
}( {
ac ies
18 73
M ex
ar bit
Ġremn ant
ĠEthiop ia
Ġadvis ory
per f
Ġ| {\
Ġge ographical
Ġyield ed
Ġlad der
ĠReview s
i pt
ell ite
Ġposition ed
Ġell ipse
Ġinaug ural
o pa
stat istics
Ġbary ons
um ph
inv ol
Ġfav ored
Ġtom orrow
Ġp ension
work ing
mod ern
year s
Q M
Ġ ì
Rep ublic
S ite
ĠEx perimental
Ġfer romagnetic
B ridge
ĠH av
act ual
E ll
im o
ĠB udget
Ġram p
H s
S aint
Ġw ard
_{ [\
ĠM n
tim eline
ĠP f
ĠBet ter
Ġmod ifying
Ġbi ke
is omorphism
vel oper
33 7
Ġ" .
Ġa cyclic
ach t
Ġpos et
Ġatt itudes
Ġgl ad
ĠRam an
Fail ure
Ġre ass
Ġab oard
ĠAl ger
ĠZ ion
Ġgard ens
c els
Ï Ĥ
cont ract
ĠSpe aker
ĠT es
ĠC inema
mog orov
an mar
eh icle
Ġsur f
ĠMed ic
Ġelim inating
Ġliber ty
F rames
ist on
Ġde cent
OL D
Ġsuscept ible
Ġ& #
Ġemb od
Down load
Ù Ī
Ġpr inc
Ġm igrants
remark s
d st
ay ers
Ġrot ated
project s
T l
ant le
$ )}
Q P
\| ^{
idd ing
Ġwar fare
Ġwave let
Ġs ap
l is
Rem ote
ĠF an
Ġfunction ing
ĠB ened
Ġfilm ing
ĠRem arks
cu ador
ĠDub ai
b rown
ĠKaz akh
ignt y
T ile
ĠIsa ac
Ġre nov
Ġdissip ative
Jose ph
Ġden y
EN TS
(" %
Ġc emetery
Ġnow here
Ġmaxim ization
f re
ĠB ent
Ġsoft max
Ġmim ic
oc entric
ced es
ĠMulti ple
> )
Ġide ology
Ġmari juana
H all
Ġoff sets
}~ (
ĠG ates
oc or
ĠG y
ĠRo osevelt
Ġmod alities
Con versely
ĠMov ies
Ġleak age
ĠNe ighb
Do ctrine
Ġtrav elled
ĠCho ice
,\ ,\,
Ġcondens ation
Chang es
D ou
Ġab rupt
d ar
ĠA UC
n of
po or
et ext
Mod ified
Ġrom ance
c aster
Ġd ys
ĠM ob
ĠRel igion
J eff
if fin
ĠComp etition
ga ussian
found ed
Ġcreat ivity
G ordon
we i
Ġcor on
ĠAppro xim
Te ch
Ġtang ential
inher ited
D ark
ĠS ession
desc ribe
Ġdepos ited
q p
Ġis ometric
ĠStrateg ic
g ins
ĠS ullivan
Ex periment
Ġtact ics
ĠClar ke
Ġcomm ittees
inst ead
Ġref lex
Miss ing
ĠC ME
ust ers
Ġag ing
ĠTib et
ĠG olf
We ak
ext rac
cer tain
ĠNorth west
BH s
ĠDav ies
mix ing
an ic
u ably
Ġcere mon
Ġhom osex
Ġb ab
(' .
Ġremin is
b age
ĠMunic ipal
local ly
Ġpione er
Ġbounded ness
Ġunsuccess ful
ĠThe od
BP ACK
Ġt ips
top ological
D ash
St ill
ĠJul ian
ĠUs ed
ee per
ĠProtest ant
B all
Ġsu cc
Ġel if
ruct ive
ar u
intend ent
' }{\
Ġflow ing
ĠH M
Ġ( @
en za
Ġg rat
Part ition
Ġlear ner
Ġund irected
Ġ\! \!
29 6
umb ai
Y P
ul ers
}} [\
dec oder
ĠAct ually
Ġle an
Ġn ervous
col our
measure ment
ĠFact ory
Ġw rap
8 75
Ġ( #
ĠS creen
Ġapplic ants
T an
ram er
Ġless on
rest riction
35 3
Ġemb ark
Ġdrop out
os ely
bro ok
er ner
ĠR av
ob tain
Ġquestion ed
Stat istics
26 2
ĠM ental
Ġmin eral
Ġremark ably
aspect ratio
70 7
Ġpal ace
H ung
ĠC ould
q s
[...]
