{
  "version": "1.0",
  "truncation": null,
  "padding": null,
  "added_tokens": [
    {
      "id": 0,
      "content": "[UNK]",
      "single_word": false,
      "lstrip": false,
      "rstrip": false,
      "normalized": false,
      "special": true
    }
  ],
  "normalizer": null,
  "pre_tokenizer": {
    "type": "Sequence",
    "pretokenizers": [
      {
        "type": "Digits",
        "individual_digits": false
      },
      {
        "type": "ByteLevel",
        "add_prefix_space": false,
        "trim_offsets": true,
        "use_regex": true
      }
    ]
  },
  "post_processor": null,
  "decoder": null,
  "model": {
    "type": "BPE",
    "dropout": null,
    "unk_token": "[UNK]",
    "continuing_subword_prefix": null,
    "end_of_word_suffix": null,
    "fuse_unk": false,
    "byte_fallback": false,
    "vocab": {
      "[UNK]": 0,
      "!": 1,
      "\"": 2,
      "#": 3,
      "$": 4,
      "%": 5,
      "&": 6,
      "'": 7,
      "(": 8,
      ")": 9,
      "*": 10,
      "+": 11,
      ",": 12,
      "-": 13,
      ".": 14,
      "/": 15,
      "0": 16,
      "1": 17,
      "2": 18,
      "3": 19,
      "4": 20,
      "5": 21,
      "6": 22,
      "7": 23,
      "8": 24,
      "9": 25,
      ":": 26,
      ";": 27,
      "<": 28,
      "=": 29,
      ">": 30,
      "?": 31,
      "@": 32,
      "A": 33,
      "B": 34,
      "C": 35,
      "D": 36,
      "E": 37,
      "F": 38,
      "G": 39,
      "H": 40,
      "I": 41,
      "J": 42,
      "K": 43,
      "L": 44,
      "M": 45,
      "N": 46,
      "O": 47,
      "P": 48,
      "Q": 49,
      "R": 50,
      "S": 51,
      "T": 52,
      "U": 53,
      "V": 54,
      "W": 55,
      "X": 56,
      "Y": 57,
      "Z": 58,
      "[": 59,
      "\\": 60,
      "]": 61,
      "^": 62,
      "_": 63,
      "`": 64,
      "a": 65,
      "b": 66,
      "c": 67,
      "d": 68,
      "e": 69,
      "f": 70,
      "g": 71,
      "h": 72,
      "i": 73,
      "j": 74,
      "k": 75,
      "l": 76,
      "m": 77,
      "n": 78,
      "o": 79,
      "p": 80,
      "q": 81,
      "r": 82,
      "s": 83,
      "t": 84,
      "u": 85,
      "v": 86,
      "w": 87,
      "x": 88,
      "y": 89,
      "z": 90,
      "{": 91,
      "|": 92,
      "}": 93,
      "~": 94,
      "¡": 95,
      "¢": 96,
      "£": 97,
      "¤": 98,
      "¥": 99,
      "¦": 100,
      "§": 101,
      "¨": 102,
      "©": 103,
      "ª": 104,
      "«": 105,
      "¬": 106,
      "®": 107,
      "¯": 108,
      "°": 109,
      "±": 110,
      "²": 111,
      "³": 112,
      "´": 113,
      "µ": 114,
      "¶": 115,
      "·": 116,
      "¸": 117,
      "¹": 118,
      "º": 119,
      "»": 120,
      "¼": 121,
      "½": 122,
      "¾": 123,
      "¿": 124,
      "Â": 125,
      "Ã": 126,
      "Ä": 127,
      "Å": 128,
      "Æ": 129,
      "Ç": 130,
      "È": 131,
      "É": 132,
      "Ê": 133,
      "Ë": 134,
      "Ì": 135,
      "Í": 136,
      "Î": 137,
      "Ï": 138,
      "Ð": 139,
      "Ñ": 140,
      "Ò": 141,
      "Ó": 142,
      "Ô": 143,
      "Õ": 144,
      "Ö": 145,
      "×": 146,
      "Ø": 147,
      "Ù": 148,
      "Ú": 149,
      "Û": 150,
      "Ü": 151,
      "Ý": 152,
      "Þ": 153,
      "ß": 154,
      "à": 155,
      "á": 156,
      "â": 157,
      "ã": 158,
      "ä": 159,
      "å": 160,
      "æ": 161,
      "ç": 162,
      "è": 163,
      "é": 164,
      "ê": 165,
      "ë": 166,
      "ì": 167,
      "í": 168,
      "î": 169,
      "ï": 170,
      "ð": 171,
      "ó": 172,
      "ô": 173,
      "Ā": 174,
      "ā": 175,
      "Ă": 176,
      "ă": 177,
      "Ą": 178,
      "ą": 179,
      "Ć": 180,
      "ć": 181,
      "Ĉ": 182,
      "ĉ": 183,
      "Ċ": 184,
      "ċ": 185,
      "Č": 186,
      "č": 187,
      "Ď": 188,
      "ď": 189,
      "Đ": 190,
      "đ": 191,
      "Ē": 192,
      "ē": 193,
      "Ĕ": 194,
      "ĕ": 195,
      "Ė": 196,
      "ė": 197,
      "Ę": 198,
      "ę": 199,
      "Ě": 200,
      "ě": 201,
      "Ĝ": 202,
      "ĝ": 203,
      "Ğ": 204,
      "ğ": 205,
      "Ġ": 206,
      "ġ": 207,
      "Ģ": 208,
      "ģ": 209,
      "Ĥ": 210,
      "ĥ": 211,
      "Ħ": 212,
      "ħ": 213,
      "Ĩ": 214,
      "ĩ": 215,
      "Ī": 216,
      "ī": 217,
      "Ĭ": 218,
      "ĭ": 219,
      "Į": 220,
      "į": 221,
      "İ": 222,
      "ı": 223,
      "Ĳ": 224,
      "ĳ": 225,
      "Ĵ": 226,
      "ĵ": 227,
      "Ķ": 228,
      "ķ": 229,
      "ĸ": 230,
      "Ĺ": 231,
      "ĺ": 232,
      "Ļ": 233,
      "ļ": 234,
      "Ľ": 235,
      "ľ": 236,
      "Ŀ": 237,
      "ŀ": 238,
      "Ł": 239,
      "ł": 240,
      "Ń": 241,
      "Ġt": 242,
      "ĠĠ": 243,
      "in": 244,
      "he": 245,
      "Ġa": 246,
      "on": 247,
      "re": 248,
      "at": 249,
      "Ġthe": 250,
      "er": 251,
      "en": 252,
      "Ġs": 253,
      "or": 254,
      "al": 255,
      "it": 256,
      "Ġo": 257,
      "is": 258,
      "Ġc": 259,
      "ion": 260,
      "es": 261,
      "an": 262,
      "ĠĠĠĠ": 263,
      "ar": 264,
      "Ġw": 265,
      "Ġ\\": 266,
      "Ġf": 267,
      "ed": 268,
      "Ġof": 269,
      "Ġp": 270,
      "Ġin": 271,
      "nd": 272,
      "le": 273,
      "Ġ$": 274,
      "Ġb": 275,
      "ic": 276,
      "ing": 277,
      "ro": 278,
      "Ġd": 279,
      "Ġm": 280,
      "as": 281,
      "Ġand": 282,
      "ct": 283,
      "Ġto": 284,
      "el": 285,
      "et": 286,
      "ig": 287,
      "ent": 288,
      "Ġth": 289,
      "ou": 290,
      "ra": 291,
      "ation": 292,
      "{\\": 293,
      "om": 294,
      "st": 295,
      "il": 296,
      "im": 297,
      "Ġre": 298,
      "Ġe": 299,
      "Ġh": 300,
      "Ġn": 301,
      "ot": 302,
      "ol": 303,
      "am": 304,
      "Ġis": 305,
      "Ġ(": 306,
      "Ġl": 307,
      "id": 308,
      "ce": 309,
      "ĠT": 310,
      "ve": 311,
      "se": 312,
      "ut": 313,
      "_{": 314,
      "ĠĠĠ": 315,
      "Ġfor": 316,
      "ĠS": 317,
      "ĠĠĠĠĠĠĠĠ": 318,
      "ch": 319,
      "ul": 320,
      "qu": 321,
      "Ġg": 322,
      "ur": 323,
      "ow": 324,
      "ab": 325,
      "ver": 326,
      "ath": 327,
      "ly": 328,
      "Ġ$\\": 329,
      "eg": 330,
      "ĠA": 331,
      "ĠC": 332,
      "Ġthat": 333,
      "Ġon": 334,
      "um": 335,
      "ith": 336,
      "math": 337,
      "Ġu": 338,
      "Ġbe": 339,
      "od": 340,
      "Ġcon": 341,
      "čĊ": 342,
      "Ġst": 343,
      "end": 344,
      "em": 345,
      "ĠI": 346,
      "if": 347,
      "ad": 348,
      "âĢ": 349,
      "Ġas": 350,
      "Ġ&": 351,
      "ction": 352,
      "Ġwith": 353,
      "ta": 354,
      "ĠM": 355,
      "20": 356,
      "ge": 357,
      "}\\": 358,
      "ir": 359,
      "ht": 360,
      "Ġwe": 361,
      "ri": 362,
      "ph": 363,
      "}$": 364,
      "Ġpro": 365,
      "^{": 366,
      "ure": 367,
      "ter": 368,
      "Ġal": 369,
      "ex": 370,
      "ay": 371,
      "Ġan": 372,
      "th": 373,
      "ĠĊ": 374,
      "ist": 375,
      "ĠThe": 376,
      "ĠB": 377,
      "ĠP": 378,
      "Ġv": 379,
      "pe": 380,
      "Ġ=": 381,
      "ma": 382,
      "Ġby": 383,
      "ate": 384,
      "ight": 385,
      "ĠF": 386,
      "ref": 387,
      "ity": 388,
      "us": 389,
      "os": 390,
      "iv": 391,
      "her": 392,
      "Ġex": 393,
      "and": 394,
      "ĠH": 395,
      "pt": 396,
      "pp": 397,
      "Ġare": 398,
      "un": 399,
      "res": 400,
      "ite": 401,
      "Ġwh": 402,
      "}}": 403,
      "cal": 404,
      "(\\": 405,
      "Ġcom": 406,
      "ĠR": 407,
      "ac": 408,
      "ub": 409,
      "ine": 410,
      "ĠL": 411,
      "Ġde": 412,
      "ore": 413,
      "ers": 414,
      "est": 415,
      "ĠD": 416,
      "egin": 417,
      "Ġit": 418,
      "rom": 419,
      "ĠW": 420,
      "art": 421,
      "Ġat": 422,
      "begin": 423,
      "ial": 424,
      "pl": 425,
      "ext": 426,
      "ess": 427,
      "ies": 428,
      "rac": 429,
      "ĠN": 430,
      "per": 431,
      ")$": 432,
      "_{\\": 433,
      "nt": 434,
      "ĠE": 435,
      "ft": 436,
      "Ġor": 437,
      "Ġse": 438,
      "ĠG": 439,
      "Ġfrom": 440,
      "ant": 441,
      "19": 442,
      "oc": 443,
      "ive": 444,
      "ment": 445,
      "ill": 446,
      "ĠĠĠĠĠĠĠ": 447,
      "ps": 448,
      "de": 449,
      "iz": 450,
      "Ġwas": 451,
      "}{": 452,
      "ew": 453,
      "Ġr": 454,
      "The": 455,
      "ag": 456,
      "ass": 457,
      "Ġthis": 458,
      "eq": 459,
      "frac": 460,
      "ort": 461,
      "ult": 462,
      "int": 463,
      "},": 464,
      "all": 465,
      "ĉĉ": 466,
      "text": 467,
      "ple": 468,
      "ld": 469,
      "ere": 470,
      "ich": 471,
      "ical": 472,
      "})": 473,
      "ect": 474,
      "cite": 475,
      "Ġsh": 476,
      "orm": 477,
      "Ġhe": 478,
      "cl": 479,
      "ave": 480,
      "og": 481,
      "ition": 482,
      "Ġsu": 483,
      "ran": 484,
      "equ": 485,
      "ell": 486,
      "ud": 487,
      "Ġ-": 488,
      "rm": 489,
      "ign": 490,
      "ak": 491,
      "ated": 492,
      "Ġnot": 493,
      "abel": 494,
      "mathb": 495,
      "right": 496,
      "our": 497,
      "Ġy": 498,
      "ue": 499,
      "Ġcl": 500,
      "Ġch": 501,
      "Ġres": 502,
      "ens": 503,
      "Ġle": 504,
      "ber": 505,
      "ff": 506,
      ",\\": 507,
      "00": 508,
      "ĠO": 509,
      "pa": 510,
      "Ġcan": 511,
      "ations": 512,
      "rou": 513,
      "Ġ<": 514,
      "âĢĻ": 515,
      "label": 516,
      "ame": 517,
      "ĠJ": 518,
      "to": 519,
      "201": 520,
      "$,": 521,
      "ary": 522,
      "du": 523,
      "$.": 524,
      "con": 525,
      "Ġhave": 526,
      "mathcal": 527,
      "Ġwhich": 528,
      "eta": 529,
      "able": 530,
      "ard": 531,
      "Ġ{": 532,
      "the": 533,
      "=\"": 534,
      "Ġus": 535,
      "Ġk": 536,
      "}.": 537,
      "equation": 538,
      "fig": 539,
      "ĠU": 540,
      "Ġwhe": 541,
      "ust": 542,
      "left": 543,
      "red": 544,
      ");": 545,
      "ĠIn": 546,
      "op": 547,
      "low": 548,
      "cc": 549,
      "ime": 550,
      "ase": 551,
      "}(": 552,
      "ast": 553,
      "--": 554,
      "Ġim": 555,
      "ork": 556,
      "}^": 557,
      "age": 558,
      "~\\": 559,
      "ong": 560,
      "ther": 561,
      "ener": 562,
      "ian": 563,
      "ost": 564,
      "ap": 565,
      "ĠĠĠĠĠĠĠĠĠĠĠĠĠĠĠĠ": 566,
      "}_": 567,
      "ib": 568,
      "),": 569,
      "ack": 570,
      "Ġ\"": 571,
      "ence": 572,
      "ru": 573,
      "av": 574,
      "Ġmod": 575,
      "</": 576,
      "form": 577,
      "ide": 578,
      "ĠâĢ": 579,
      "pro": 580,
      "ions": 581,
      ").": 582,
      "Ġpl": 583,
      "ord": 584,
      "ĠK": 585,
      "Ġhas": 586,
      "ach": 587,
      "'s": 588,
      "Ġab": 589,
      "so": 590,
      "pha": 591,
      "ang": 592,
      "ain": 593,
      "alpha": 594,
      "com": 595,
      "..": 596,
      "are": 597,
      "Ġ+": 598,
      "da": 599,
      "line": 600,
      "ous": 601,
      "act": 602,
      "Ġcomp": 603,
      ")\\": 604,
      "Ġun": 605,
      "ind": 606,
      "sum": 607,
      "Ġob": 608,
      "amb": 609,
      "Ġall": 610,
      "ia": 611,
      "ric": 612,
      "10": 613,
      "out": 614,
      "ould": 615,
      "over": 616,
      "fere": 617,
      "row": 618,
      "In": 619,
      "ely": 620,
      "ip": 621,
      "old": 622,
      "Ġad": 623,
      "ĠTh": 624,
      "rib": 625,
      "Ġif": 626,
      "elta": 627,
      "//": 628,
      "ĠV": 629,
      "erm": 630,
      "pect": 631,
      "Ġpart": 632,
      "ear": 633,
      "ound": 634,
      "Ġone": 635,
      "$\\": 636,
      "Ġapp": 637,
      "ambda": 638,
      "rans": 639,
      "ance": 640,
      "ire": 641,
      "Ġcont": 642,
      "Ġme": 643,
      "imes": 644,
      "Ġj": 645,
      "ents": 646,
      "tain": 647,
      "ry": 648,
      "_\\": 649,
      "wo": 650,
      "amma": 651,
      "Ġdis": 652,
      "Ġalso": 653,
      "Ġ\\\\": 654,
      "200": 655,
      "ice": 656,
      "mathbb": 657,
      "Ġ}": 658,
      "Ġqu": 659,
      "port": 660,
      "unction": 661,
      "erv": 662,
      "ates": 663,
      "ĠSt": 664,
      "dot": 665,
      "=\\": 666,
      "ose": 667,
      "}^{": 668,
      "sub": 669,
      "ors": 670,
      "ile": 671,
      "Ġint": 672,
      "}_{": 673,
      "ree": 674,
      "Ġ*": 675,
      "Ġper": 676,
      "ces": 677,
      "mu": 678,
      "own": 679,
      "ata": 680,
      "mb": 681,
      "ory": 682,
      "gh": 683,
      "we": 684,
      "li": 685,
      "ics": 686,
      "ke": 687,
      "igma": 688,
      "ular": 689,
      "ĠĠĠĠĠĠĠĠĠĠĠ": 690,
      "-\\": 691,
      "ption": 692,
      "ution": 693,
      "ally": 694,
      "irst": 695,
      "ho": 696,
      "ome": 697,
      "Ġar": 698,
      "Ġwill": 699,
      "Ġsy": 700,
      "ject": 701,
      "Ġev": 702,
      "of": 703,
      "ress": 704,
      "Ġset": 705,
      "ega": 706,
      "ov": 707,
      "Ġclass": 708,
      "fin": 709,
      "oint": 710,
      "^{\\": 711,
      "urn": 712,
      "cent": 713,
      "pace": 714,
      "ray": 715,
      "ie": 716,
      "raph": 717,
      "pon": 718,
      "Ġtwo": 719,
      "Ġhis": 720,
      "phi": 721,
      "hat": 722,
      "Ġmodel": 723,
      "ark": 724,
      "lic": 725,
      "ĠĠĠĠĠ": 726,
      "Ġne": 727,
      "ari": 728,
      "ok": 729,
      "au": 730,
      "ollow": 731,
      "Ġout": 732,
      "mathbf": 733,
      "vers": 734,
      "wid": 735,
      "ode": 736,
      "set": 737,
      "pi": 738,
      "Ġbut": 739,
      "Ġdif": 740,
      "sc": 741,
      "bf": 742,
      "lambda": 743,
      "Ġval": 744,
      "Ġfunction": 745,
      "Ġtheir": 746,
      "nder": 747,
      "ob": 748,
      "iel": 749,
      "Ġen": 750,
      "Ġform": 751,
      "\">": 752,
      "Ġother": 753,
      "umber": 754,
      "ep": 755,
      "ount": 756,
      "Ġinter": 757,
      "Ġ{\\": 758,
      "clud": 759,
      "ize": 760,
      "Ġits": 761,
      "Ġwere": 762,
      "Ġdo": 763,
      "Ġfollow": 764,
      "section": 765,
      "ĠWe": 766,
      "Ġtime": 767,
      "Ġmore": 768,
      "ield": 769,
      "Ġresult": 770,
      "Ġsuch": 771,
      "align": 772,
      "vel": 773,
      "ove": 774,
      "ilon": 775,
      "Ġ|": 776,
      "psilon": 777,
      "Ġour": 778,
      "Ġcons": 779,
      "Ġ[": 780,
      "one": 781,
      "12": 782,
      "Ġsub": 783,
      "app": 784,
      "Ġwhere": 785,
      "Ġsc": 786,
      "Ġover": 787,
      "ram": 788,
      "Ġfirst": 789,
      "ĠCh": 790,
      "dition": 791,
      "Ġbet": 792,
      "âĢĿ": 793,
      "ish": 794,
      "pos": 795,
      "get": 796,
      "sigma": 797,
      "ne": 798,
      "18": 799,
      "mathrm": 800,
      "ck": 801,
      "Ġsp": 802,
      "Ġsim": 803,
      "stem": 804,
      "lem": 805,
      "ll": 806,
      "aram": 807,
      "Ġwork": 808,
      "beta": 809,
      "}{\\": 810,
      "rit": 811,
      "Ġthere": 812,
      "^{-": 813,
      "Ġconst": 814,
      "lect": 815,
      "ature": 816,
      "ative": 817,
      "Ġgener": 818,
      "Ġdes": 819,
      "eth": 820,
      "ys": 821,
      "Ġequ": 822,
      "te": 823,
      "Ġman": 824,
      "part": 825,
      "very": 826,
      "ilde": 827,
      "Ġ(\\": 828,
      "ix": 829,
      "Ġdist": 830,
      "cre": 831,
      "ype": 832,
      "Ġonly": 833,
      "*}": 834,
      "Ġso": 835,
      "ring": 836,
      "Ġcor": 837,
      "Ġtrans": 838,
      "ace": 839,
      "resent": 840,
      "Ġbeen": 841,
      "Ġreg": 842,
      "Ġthey": 843,
      "Ġag": 844,
      "hed": 845,
      "up": 846,
      "Ġrel": 847,
      "Ġnew": 848,
      "+\\": 849,
      "ax": 850,
      "ced": 851,
      "Ġyou": 852,
      "abl": 853,
      "Ġthan": 854,
      "Ġany": 855,
      "]{": 856,
      "ual": 857,
      "ific": 858,
      "vi": 859,
      "Ġacc": 860,
      "gamma": 861,
      "Ġpre": 862,
      "Ġdiffere": 863,
      "Ġtra": 864,
      "Ġro": 865,
      "ĠIt": 866,
      "ss": 867,
      "ĠY": 868,
      "Ġpos": 869,
      "ĠThis": 870,
      "Ġthen": 871,
      "pec": 872,
      "\\\\": 873,
      "theta": 874,
      "bar": 875,
      "ational": 876,
      "oth": 877,
      "figure": 878,
      "We": 879,
      "Ġmat": 880,
      "Ġshow": 881,
      "width": 882,
      "**": 883,
      "ility": 884,
      "ox": 885,
      "^\\": 886,
      "leq": 887,
      "ween": 888,
      "put": 889,
      "ild": 890,
      "Ġco": 891,
      ")}": 892,
      "Ġwhen": 893,
      "ict": 894,
      "cdot": 895,
      "mer": 896,
      "igh": 897,
      "ased": 898,
      "Ġcol": 899,
      "Ġlo": 900,
      "rho": 901,
      "Ġeach": 902,
      "Ġdata": 903,
      "ator": 904,
      "tau": 905,
      "round": 906,
      "ng": 907,
      "Ġwho": 908,
      "Ġph": 909,
      "ient": 910,
      "delta": 911,
      "iss": 912,
      "ince": 913,
      "tern": 914,
      "item": 915,
      "Ġbetween": 916,
      "$-": 917,
      "Ġsome": 918,
      "ock": 919,
      "cess": 920,
      "ruct": 921,
      "St": 922,
      "ake": 923,
      "turn": 924,
      "ĠâĢľ": 925,
      "}$,": 926,
      "ating": 927,
      "Ġgiv": 928,
      "fter": 929,
      "ise": 930,
      "Ġinto": 931,
      "Ġx": 932,
      "}$.": 933,
      "Ġprob": 934,
      "ities": 935,
      "eqref": 936,
      "ĠSe": 937,
      "11": 938,
      "ink": 939,
      "here": 940,
      "array": 941,
      "}(\\": 942,
      "Ġunder": 943,
      "Ġthese": 944,
      "Ġsystem": 945,
      "big": 946,
      "ans": 947,
      "der": 948,
      "ĠUn": 949,
      "Ġup": 950,
      "Ġcomm": 951,
      "rad": 952,
      "aw": 953,
      "lo": 954,
      "ues": 955,
      "times": 956,
      "ings": 957,
      "Ġhad": 958,
      "Ġte": 959,
      "15": 960,
      "ible": 961,
      "ied": 962,
      "olog": 963,
      "not": 964,
      "Ġeff": 965,
      "Ġfin": 966,
      "Ġcase": 967,
      "ments": 968,
      "Ġpoint": 969,
      "its": 970,
      "Ġgo": 971,
      "Ġsol": 972,
      "sp": 973,
      "Ġpol": 974,
      "sy": 975,
      "ĠHe": 976,
      "sh": 977,
      "Ġprov": 978,
      "Ġi": 979,
      "ident": 980,
      "ublic": 981,
      "fty": 982,
      "Ġno": 983,
      "Ġyear": 984,
      "Ġabout": 985,
      "Ġ'": 986,
      "ays": 987,
      "infty": 988,
      "rt": 989,
      "Ġline": 990,
      "Ġuse": 991,
      "ons": 992,
      "nce": 993,
      "val": 994,
      "aramet": 995,
      "Ġnumber": 996,
      "Ġappro": 997,
      "pend": 998,
      "nu": 999,
      "ning": 1000,
      "16": 1001,
      "Ġdifferent": 1002,
      "ethod": 1003,
      "arrow": 1004,
      "Ġwould": 1005,
      "Ġpe": 1006,
      "col": 1007,
      "pr": 1008,
      "|\\": 1009,
      "elf": 1010,
      "mall": 1011,
      "min": 1012,
      "ull": 1013,
      "Ġused": 1014,
      "Re": 1015,
      "==": 1016,
      "ail": 1017,
      "partial": 1018,
      "arg": 1019,
      "cy": 1020,
      "var": 1021,
      "Ġli": 1022,
      "omega": 1023,
      "Ġkn": 1024,
      "Ġstud": 1025,
      "ization": 1026,
      "tilde": 1027,
      "tt": 1028,
      "Ġext": 1029,
      "199": 1030,
      "Ġnon": 1031,
      "ral": 1032,
      "Ġest": 1033,
      "ized": 1034,
      "Th": 1035,
      "ample": 1036,
      "pm": 1037,
      "()": 1038,
      "ĠFor": 1039,
      "13": 1040,
      "ater": 1041,
      "rough": 1042,
      "Ġind": 1043,
      "quad": 1044,
      "Ġinv": 1045,
      "Ġact": 1046,
      "ward": 1047,
      "ont": 1048,
      "Ġfe": 1049,
      "----": 1050,
      "ert": 1051,
      "Ġvari": 1052,
      "vert": 1053,
      "sec": 1054,
      "Ġoff": 1055,
      "Delta": 1056,
      "ism": 1057,
      "Ġusing": 1058,
      "Ġmay": 1059,
      "ource": 1060,
      "roup": 1061,
      "for": 1062,
      "uss": 1063,
      "ange": 1064,
      "ower": 1065,
      "ĠRe": 1066,
      "space": 1067,
      "orem": 1068,
      "yn": 1069,
      "eqn": 1070,
      "les": 1071,
      "21": 1072,
      "ider": 1073,
      "ca": 1074,
      "Ġcur": 1075,
      "mm": 1076,
      "Ġass": 1077,
      "}[": 1078,
      "ool": 1079,
      "ople": 1080,
      "pert": 1081,
      "ick": 1082,
      "ĠĠĠĠĠĠĠĠĠĠĠĠĠĠĠ": 1083,
      "io": 1084,
      "Ġsame": 1085,
      "Ġpartic": 1086,
      "Ġdefin": 1087,
      "ctions": 1088,
      "14": 1089,
      "ited": 1090,
      "Ġgiven": 1091,
      "cond": 1092,
      "eng": 1093,
      "Ġher": 1094,
      "ever": 1095,
      "ists": 1096,
      "arch": 1097,
      "Ġmost": 1098,
      "sim": 1099,
      "ctor": 1100,
      "ause": 1101,
      "Ġrep": 1102,
      "Ġfield": 1103,
      "}}\\": 1104,
      "ically": 1105,
      "Ġterm": 1106,
      "par": 1107,
      "Ġprodu": 1108,
      "Ġsign": 1109,
      "hes": 1110,
      "Ġdet": 1111,
      "Ġreturn": 1112,
      ".,": 1113,
      ")$.": 1114,
      "Ġcomple": 1115,
      "25": 1116,
      "center": 1117,
      "17": 1118,
      "xi": 1119,
      "\\,": 1120,
      "Ġwell": 1121,
      "Ġ$(": 1122,
      "und": 1123,
      "Ġfact": 1124,
      "ote": 1125,
      "Ġinst": 1126,
      "ug": 1127,
      "Ġ.": 1128,
      "Ġstate": 1129,
      "Ġthem": 1130,
      "Ġdef": 1131,
      "serv": 1132,
      "ann": 1133,
      "ĠX": 1134,
      "ily": 1135,
      "Ġpa": 1136,
      "Ġget": 1137,
      "Ġsupp": 1138,
      "->": 1139,
      "riv": 1140,
      "uring": 1141,
      "ars": 1142,
      "ases": 1143,
      "ĠâĢĵ": 1144,
      "Ġbec": 1145,
      "arge": 1146,
      "ively": 1147,
      "Ġfollowing": 1148,
      "als": 1149,
      "gy": 1150,
      "Ġplay": 1151,
      "Ġbl": 1152,
      "irc": 1153,
      "err": 1154,
      "Ġoper": 1155,
      "Ġparamet": 1156,
      "Ġent": 1157,
      "ots": 1158,
      "ins": 1159,
      "$$": 1160,
      "Ġmethod": 1161,
      "gle": 1162,
      "rix": 1163,
      "ute": 1164,
      "ĠPro": 1165,
      "Ġspec": 1166,
      "Ġboth": 1167,
      "}_{\\": 1168,
      "Ex": 1169,
      "Ġdire": 1170,
      "sq": 1171,
      "Om": 1172,
      "Ġem": 1173,
      "Ġobtain": 1174,
      "Ġsa": 1175,
      "Ġrec": 1176,
      "Ġafter": 1177,
      "ĉĉĉĉ": 1178,
      "ĠDe": 1179,
      "ĠCom": 1180,
      "Ġrequ": 1181,
      "epsilon": 1182,
      "oy": 1183,
      "ivers": 1184,
      "Ġbound": 1185,
      "ract": 1186,
      "Ġam": 1187,
      "Ġz": 1188,
      "ĠQ": 1189,
      "Ġresults": 1190,
      "Ġorder": 1191,
      "asure": 1192,
      "itt": 1193,
      "where": 1194,
      "owever": 1195,
      "ough": 1196,
      "Ġvalue": 1197,
      "hi": 1198,
      "Omega": 1199,
      "Ġthrough": 1200,
      "textbf": 1201,
      "oot": 1202,
      "))": 1203,
      "hen": 1204,
      "ability": 1205,
      "psi": 1206,
      "ices": 1207,
      "Ġdisc": 1208,
      "Ġsee": 1209,
      "Ġperform": 1210,
      "ude": 1211,
      "Ġsur": 1212,
      "ines": 1213,
      "ton": 1214,
      "bm": 1215,
      "mbol": 1216,
      "ĠFig": 1217,
      "ner": 1218,
      "ered": 1219,
      "formation": 1220,
      "^*": 1221,
      "pond": 1222,
      "Ġ:": 1223,
      "Ġfl": 1224,
      "land": 1225,
      "includ": 1226,
      "Ġhigh": 1227,
      "ential": 1228,
      "rent": 1229,
      ")$,": 1230,
      "30": 1231,
      "ined": 1232,
      "oci": 1233,
      "orld": 1234,
      "Ġexp": 1235,
      "Ġshe": 1236,
      "work": 1237,
      "Ġeffect": 1238,
      "Ġpeople": 1239,
      "raphics": 1240,
      "22": 1241,
      "Ġfil": 1242,
      "Ġmin": 1243,
      "atic": 1244,
      "Ġinclud": 1245,
      "Gamma": 1246,
      "Ġend": 1247,
      "ade": 1248,
      "angle": 1249,
      "yp": 1250,
      "Ġanal": 1251,
      "sqrt": 1252,
      "uch": 1253,
      "âĢĵ": 1254,
      "subsection": 1255,
      "ĠAs": 1256,
      "Ġdec": 1257,
      "ality": 1258,
      "Ġed": 1259,
      "ĠAl": 1260,
      "eqnarray": 1261,
      "Ġtr": 1262,
      "ĠčĊ": 1263,
      "ron": 1264,
      "ension": 1265,
      "Ġ/": 1266,
      "Ġsmall": 1267,
      "meric": 1268,
      "raw": 1269,
      "fra": 1270,
      "bold": 1271,
      "egraphics": 1272,
      "includegraphics": 1273,
      "\",": 1274,
      "def": 1275,
      "Ġdesc": 1276,
      "vare": 1277,
      "ision": 1278,
      "ĠZ": 1279,
      "ining": 1280,
      "Ġpublic": 1281,
      "Ġback": 1282,
      "Ġpr": 1283,
      "ks": 1284,
      "Ġdistrib": 1285,
      "}^{\\": 1286,
      "varepsilon": 1287,
      "ithm": 1288,
      "../": 1289,
      "Ġ//": 1290,
      "caption": 1291,
      "Ġneed": 1292,
      "log": 1293,
      "ĠNew": 1294,
      "Ġrespect": 1295,
      "ulation": 1296,
      "ern": 1297,
      "Ġthree": 1298,
      "Ġcent": 1299,
      "ef": 1300,
      "Con": 1301,
      "respond": 1302,
      "Ġ</": 1303,
      "ook": 1304,
      "ec": 1305,
      "uth": 1306,
      "^{(": 1307,
      "att": 1308,
      "ulti": 1309,
      "ructure": 1310,
      "Ġproblem": 1311,
      "Ġmeasure": 1312,
      "rightarrow": 1313,
      "ash": 1314,
      "reat": 1315,
      "Ġele": 1316,
      "energy": 1317,
      "cm": 1318,
      "Ġcall": 1319,
      "Ġ||": 1320,
      "For": 1321,
      "tab": 1322,
      "Ġstr": 1323,
      "50": 1324,
      "ency": 1325,
      "Ġbu": 1326,
      "oun": 1327,
      "Ġsing": 1328,
      "Pro": 1329,
      "Ġcondition": 1330,
      "ful": 1331,
      "}=": 1332,
      "Ġmass": 1333,
      "ren": 1334,
      "rel": 1335,
      "Ġobserv": 1336,
      "Ġexpl": 1337,
      "Ġatt": 1338,
      "ages": 1339,
      "ilar": 1340,
      "Ġevery": 1341,
      ")=": 1342,
      "Ġprocess": 1343,
      "Ġlead": 1344,
      "ml": 1345,
      "Ġ`": 1346,
      "umn": 1347,
      "Ġassum": 1348,
      "ensure": 1349,
      "Ġsaid": 1350,
      "ross": 1351,
      "Ġwhile": 1352,
      "Ġac": 1353,
      "led": 1354,
      "Ġopt": 1355,
      "ript": 1356,
      "ĠĠĊ": 1357,
      "etric": 1358,
      "Ġ${\\": 1359,
      "Ġsecond": 1360,
      "etwork": 1361,
      "Ġfound": 1362,
      "198": 1363,
      "Ġ\\,": 1364,
      "Ġrepresent": 1365,
      "Ġspace": 1366,
      "::": 1367,
      "gor": 1368,
      "emph": 1369,
      "Ġbel": 1370,
      "Ġmany": 1371,
      "Ġright": 1372,
      "',": 1373,
      "Ġlike": 1374,
      "rangle": 1375,
      "Ġcorrespond": 1376,
      "000": 1377,
      "ey": 1378,
      "mod": 1379,
      "velop": 1380,
      "Ġwhat": 1381,
      "geq": 1382,
      "oid": 1383,
      "symbol": 1384,
      "ural": 1385,
      "ement": 1386,
      "let": 1387,
      "me": 1388,
      "Ġbecause": 1389,
      "Ġnow": 1390,
      "gorithm": 1391,
      "any": 1392,
      "Ġlocal": 1393,
      "Ġestim": 1394,
      "Ġyears": 1395,
      "ffic": 1396,
      ".~\\": 1397,
      "name": 1398,
      "ved": 1399,
      "&\\": 1400,
      "Ġden": 1401,
      "Ġmem": 1402,
      ".}": 1403,
      "Ġcould": 1404,
      "Ġconsider": 1405,
      "vent": 1406,
      "Ġexper": 1407,
      "Ġpresent": 1408,
      "ten": 1409,
      "24": 1410,
      "proof": 1411,
      "Ġagain": 1412,
      "varphi": 1413,
      "ason": 1414,
      "Ġjust": 1415,
      "Ġadd": 1416,
      "umer": 1417,
      "Ġsince": 1418,
      "ond": 1419,
      "This": 1420,
      "ished": 1421,
      "boldsymbol": 1422,
      "ames": 1423,
      "Ġ@": 1424,
      "Ġincre": 1425,
      "inal": 1426,
      "man": 1427,
      "chool": 1428,
      "Ġfind": 1429,
      "Ġname": 1430,
      "yle": 1431,
      "utions": 1432,
      "Ġvery": 1433,
      "ĠAmeric": 1434,
      "Ġenergy": 1435,
      "frak": 1436,
      "Ġscal": 1437,
      "Ġserv": 1438,
      "Ġdi": 1439,
      "Ġtype": 1440,
      "Ġlong": 1441,
      "bl": 1442,
      "Ġcontin": 1443,
      "position": 1444,
      "Ġgeneral": 1445,
      "ified": 1446,
      "Ġchar": 1447,
      "olution": 1448,
      "Ġdoes": 1449,
      "ets": 1450,
      "Ġlim": 1451,
      "fer": 1452,
      "non": 1453,
      "hline": 1454,
      "Ġbeing": 1455,
      "Ġcount": 1456,
      "ology": 1457,
      "Ġser": 1458,
      "overline": 1459,
      "essage": 1460,
      "Ġposs": 1461,
      "orn": 1462,
      "Ġlarge": 1463,
      "rict": 1464,
      "ole": 1465,
      "},\\": 1466,
      "itive": 1467,
      "ier": 1468,
      "uc": 1469,
      "Ġshould": 1470,
      "ateg": 1471,
      "Big": 1472,
      "ee": 1473,
      "ER": 1474,
      "ants": 1475,
      "Ġtest": 1476,
      "chi": 1477,
      "Ġeven": 1478,
      "Ġve": 1479,
      "view": 1480,
      "cept": 1481,
      "ness": 1482,
      "23": 1483,
      "iqu": 1484,
      "tr": 1485,
      "ift": 1486,
      "co": 1487,
      "ik": 1488,
      "ength": 1489,
      ")^": 1490,
      "iversity": 1491,
      "lear": 1492,
      "Ġhow": 1493,
      "[\\": 1494,
      "It": 1495,
      "read": 1496,
      "pen": 1497,
      "Ġvalues": 1498,
      "ife": 1499,
      "div": 1500,
      "Ġcre": 1501,
      "ampl": 1502,
      "Ġreal": 1503,
      "els": 1504,
      "ĉĉĉ": 1505,
      "wn": 1506,
      "fore": 1507,
      "ott": 1508,
      "aking": 1509,
      "ather": 1510,
      "}).": 1511,
      "urther": 1512,
      "Ġra": 1513,
      "Ġgroup": 1514,
      "Ġsupport": 1515,
      "ST": 1516,
      "mathfrak": 1517,
      "ission": 1518,
      "Ġfam": 1519,
      "Ġmain": 1520,
      "rodu": 1521,
      "}}$": 1522,
      "Ġstart": 1523,
      "''": 1524,
      "Ġthose": 1525,
      "Ġinteg": 1526,
      "ĠCon": 1527,
      "chn": 1528,
      "lim": 1529,
      "fl": 1530,
      "ify": 1531,
      "Ġmon": 1532,
      "Ġsat": 1533,
      "Ġstructure": 1534,
      "net": 1535,
      "Ġcal": 1536,
      "Ġabove": 1537,
      "></": 1538,
      "vec": 1539,
      "vious": 1540,
      "dd": 1541,
      "nces": 1542,
      "ormal": 1543,
      "amp": 1544,
      "Ġident": 1545,
      "ank": 1546,
      "Ġerr": 1547,
      "Ġvi": 1548,
      "erson": 1549,
      "Ġrad": 1550,
      "other": 1551,
      "Ġpropert": 1552,
      "su": 1553,
      "ger": 1554,
      "Ġdevelop": 1555,
      "40": 1556,
      "Ġfeature": 1557,
      "(\"": 1558,
      "Ġart": 1559,
      "Ġduring": 1560,
      "Let": 1561,
      "Ġnetwork": 1562,
      "refore": 1563,
      "Ġdescrib": 1564,
      "oh": 1565,
      "sf": 1566,
      "Ġcomput": 1567,
      "Ġbased": 1568,
      "Ġap": 1569,
      "Ġfollows": 1570,
      "Ġinformation": 1571,
      "ired": 1572,
      "ensity": 1573,
      "Ġhim": 1574,
      "Ġspect": 1575,
      "imension": 1576,
      "Ġknow": 1577,
      "overn": 1578,
      "citep": 1579,
      "197": 1580,
      "pre": 1581,
      "med": 1582,
      "ask": 1583,
      "As": 1584,
      "ĠInd": 1585,
      "nabl": 1586,
      "Ġway": 1587,
      "://": 1588,
      "Ġcontain": 1589,
      "Ġ>": 1590,
      "by": 1591,
      "ensuremath": 1592,
      "ven": 1593,
      "langle": 1594,
      "Ġshown": 1595,
      "gram": 1596,
      "Ġimport": 1597,
      "textit": 1598,
      "itial": 1599,
      "Ġ,": 1600,
      "ior": 1601,
      "Ġlet": 1602,
      "ves": 1603,
      "rid": 1604,
      "ĠAn": 1605,
      "Ġquant": 1606,
      "sk": 1607,
      "Ġmag": 1608,
      "Ġmodels": 1609,
      "ĠĠĠĠĠĠĠĠĠ": 1610,
      "span": 1611,
      "ĠIf": 1612,
      "ument": 1613,
      "Ġear": 1614,
      "();": 1615,
      "ldots": 1616,
      "Ġtop": 1617,
      "ane": 1618,
      "aj": 1619,
      "son": 1620,
      "Ġobject": 1621,
      "bers": 1622,
      "rop": 1623,
      "Ġstat": 1624,
      "Ġmade": 1625,
      "less": 1626,
      "Ġpres": 1627,
      "Ġdepend": 1628,
      "ration": 1629,
      "orth": 1630,
      "che": 1631,
      "ij": 1632,
      "Com": 1633,
      "ah": 1634,
      "xim": 1635,
      "Ġelect": 1636,
      "see": 1637,
      "Ġdefined": 1638,
      "Ġsimilar": 1639,
      "oss": 1640,
      "Ġel": 1641,
      "trans": 1642,
      "cor": 1643,
      "Ġprovid": 1644,
      "Ġbefore": 1645,
      "Ġexample": 1646,
      "Ġmed": 1647,
      "nabla": 1648,
      "ci": 1649,
      "Ġtem": 1650,
      "Ġlear": 1651,
      "Phi": 1652,
      "};": 1653,
      "erest": 1654,
      "Ġmy": 1655,
      "wh": 1656,
      "appa": 1657,
      "><": 1658,
      "Ġparticular": 1659,
      "depend": 1660,
      "ting": 1661,
      "Ġhand": 1662,
      "100": 1663,
      "ually": 1664,
      "orph": 1665,
      "table": 1666,
      "Ġcompa": 1667,
      "Ġallow": 1668,
      "cer": 1669,
      "60": 1670,
      "Lambda": 1671,
      "clude": 1672,
      "ser": 1673,
      "\\|": 1674,
      "Ġmulti": 1675,
      "ĠĠĠĠĠĠĠĠĠĠĠĠĠĠĠĠĠĠĠĠĠĠĠĠĠĠĠĠĠĠĠĠ": 1676,
      "ght": 1677,
      "way": 1678,
      "ero": 1679,
      "Ġmake": 1680,
      "az": 1681,
      "ĠLe": 1682,
      "imal": 1683,
      "bra": 1684,
      "cur": 1685,
      "ected": 1686,
      "ived": 1687,
      "isf": 1688,
      "Ġdirect": 1689,
      "ON": 1690,
      "Ġexpect": 1691,
      "Ġcharact": 1692,
      "Ġstand": 1693,
      "ives": 1694,
      "})$": 1695,
      "\\%": 1696,
      "ule": 1697,
      "27": 1698,
      "Ġsection": 1699,
      "face": 1700,
      "Ġca": 1701,
      "Ch": 1702,
      "subset": 1703,
      "kappa": 1704,
      "Ġorig": 1705,
      ".âĢĿ": 1706,
      "2020": 1707,
      "IN": 1708,
      "html": 1709,
      "Ġappe": 1710,
      "cul": 1711,
      "Ġredu": 1712,
      "To": 1713,
      "Ġdistribution": 1714,
      "back": 1715,
      "Ġaddition": 1716,
      "../../": 1717,
      "ĠSh": 1718,
      "Ġcurrent": 1719,
      "rol": 1720,
      "requ": 1721,
      "Ġlevel": 1722,
      "be": 1723,
      "Ġrem": 1724,
      "otimes": 1725,
      "atch": 1726,
      "new": 1727,
      "ival": 1728,
      "Ġsum": 1729,
      "AR": 1730,
      "****": 1731,
      "ification": 1732,
      "Ġalgorithm": 1733,
      "Ġpower": 1734,
      "alth": 1735,
      "Ġrele": 1736,
      "Ġlast": 1737,
      "ges": 1738,
      "Ġterms": 1739,
      "Ġorg": 1740,
      "ynam": 1741,
      "...": 1742,
      "AT": 1743,
      "hip": 1744,
      "Ġself": 1745,
      "ection": 1746,
      "Ġdue": 1747,
      "ood": 1748,
      "Ġrest": 1749,
      "Ġgu": 1750,
      "2018": 1751,
      "Ġdeterm": 1752,
      "Ġbecom": 1753,
      "2017": 1754,
      "str": 1755,
      "pd": 1756,
      "ĠCol": 1757,
      "plit": 1758,
      "28": 1759,
      "Ġwrit": 1760,
      "--------": 1761,
      "Ġread": 1762,
      "Ġpop": 1763,
      "Ġcommun": 1764,
      "33": 1765,
      "Ġbas": 1766,
      "bit": 1767,
      "ĠCl": 1768,
      "ysis": 1769,
      "Ġrun": 1770,
      "Ġav": 1771,
      "dis": 1772,
      "ators": 1773,
      "Ġsize": 1774,
      "Ġmuch": 1775,
      "no": 1776,
      ".\\": 1777,
      "air": 1778,
      "Ġ--": 1779,
      "gg": 1780,
      "2019": 1781,
      "etail": 1782,
      "Ġdiscuss": 1783,
      "Ġfour": 1784,
      "box": 1785,
      "Ġdom": 1786,
      "ĠHowever": 1787,
      "Ġgl": 1788,
      "mbox": 1789,
      "Ġpred": 1790,
      "oper": 1791,
      "Ġshows": 1792,
      "ouse": 1793,
      "rem": 1794,
      "ĠEx": 1795,
      "plic": 1796,
      "ale": 1797,
      "ately": 1798,
      "with": 1799,
      "Ġincluding": 1800,
      "centering": 1801,
      "ording": 1802,
      "Ġsingle": 1803,
      "45": 1804,
      "ĠUniversity": 1805,
      "dots": 1806,
      "Ġknown": 1807,
      "draw": 1808,
      "Ġsatisf": 1809,
      "}}{": 1810,
      "SS": 1811,
      "circ": 1812,
      "2016": 1813,
      "26": 1814,
      "__": 1815,
      "Ġins": 1816,
      "ĠAnd": 1817,
      "Ġhere": 1818,
      "Ġhref": 1819,
      "Ġfilm": 1820,
      "ĠThen": 1821,
      "Ġwithin": 1822,
      "outh": 1823,
      "Ġparameters": 1824,
      "aces": 1825,
      "Ġdid": 1826,
      "}),": 1827,
      "ody": 1828,
      "Ġder": 1829,
      "action": 1830,
      "ery": 1831,
      "====": 1832,
      "Ġmax": 1833,
      "\\[": 1834,
      "ball": 1835,
      "ters": 1836,
      "rum": 1837,
      "color": 1838,
      "eps": 1839,
      "ense": 1840,
      "Ġworld": 1841,
      "Ġinterest": 1842,
      "Ġlow": 1843,
      "):": 1844,
      "comm": 1845,
      "Ġmust": 1846,
      "this": 1847,
      "Ġleft": 1848,
      "mber": 1849,
      "posed": 1850,
      "otential": 1851,
      "lection": 1852,
      "ccess": 1853,
      "play": 1854,
      "Sigma": 1855,
      "nonumber": 1856,
      "Ġhel": 1857,
      "arget": 1858,
      "etry": 1859,
      "ym": 1860,
      "Ġbeh": 1861,
      "ferences": 1862,
      "istic": 1863,
      "Ġcho": 1864,
      "ĠĠĠĠĠĠ": 1865,
      "Ġpoints": 1866,
      "Ġ*/": 1867,
      "Ġstudy": 1868,
      "32": 1869,
      "iod": 1870,
      "Ġreport": 1871,
      "Ġ)": 1872,
      "Ġlarg": 1873,
      "ised": 1874,
      "ination": 1875,
      "Ġrema": 1876,
      "org": 1877,
      "andom": 1878,
      "ures": 1879,
      "omen": 1880,
      "source": 1881,
      "Ġhig": 1882,
      "2015": 1883,
      "Ġtechn": 1884,
      "atrix": 1885,
      "Ġtot": 1886,
      "Ġinitial": 1887,
      "widet": 1888,
      "cit": 1889,
      "Ġvis": 1890,
      "ison": 1891,
      "lation": 1892,
      "ocation": 1893,
      "Ġmatrix": 1894,
      "Ġopen": 1895,
      "Ġprof": 1896,
      "Ġyour": 1897,
      "Ġhold": 1898,
      "ury": 1899,
      "ixed": 1900,
      "Ġgraph": 1901,
      "wide": 1902,
      "Ġobtained": 1903,
      "Ġmean": 1904,
      "ene": 1905,
      "Ġlist": 1906,
      "Ġdesign": 1907,
      "ww": 1908,
      "Ġexperim": 1909,
      "por": 1910,
      "tabular": 1911,
      "Ġindu": 1912,
      "Ġlaw": 1913,
      "29": 1914,
      "Ġcontinu": 1915,
      "Ġche": 1916,
      "ference": 1917,
      "Ġ#": 1918,
      "/\\": 1919,
      "ble": 1920,
      "Ġstill": 1921,
      "ivid": 1922,
      "Ġcar": 1923,
      "widetilde": 1924,
      "Ġexist": 1925,
      "reg": 1926,
      "Ġpar": 1927,
      "Ġtake": 1928,
      "Ġaround": 1929,
      "Ġsequ": 1930,
      "day": 1931,
      "Ġstates": 1932,
      "Ġcompon": 1933,
      "Ġsolution": 1934,
      "Ġ``": 1935,
      "{-": 1936,
      "Ġdeg": 1937,
      "ĠAmerican": 1938,
      "Fig": 1939,
      "Ġgra": 1940,
      "2014": 1941,
      "ead": 1942,
      "Ġintrodu": 1943,
      "sl": 1944,
      "alse": 1945,
      "add": 1946,
      "Ġhist": 1947,
      "35": 1948,
      "Ġcharacter": 1949,
      "akes": 1950,
      "Ġpossible": 1951,
      "ional": 1952,
      "\\!": 1953,
      "Ġtri": 1954,
      "2021": 1955,
      "ĠAr": 1956,
      "ĠĠĠĠĠĠĠĠĠĠĠĠĠĠĠĠĠĠĠ": 1957,
      "RE": 1958,
      "ID": 1959,
      "Ġdem": 1960,
      "cap": 1961,
      "}-": 1962,
      "odes": 1963,
      "Ġocc": 1964,
      "cont": 1965,
      "max": 1966,
      "class": 1967,
      "Res": 1968,
      "Ġapproxim": 1969,
      "ĠLet": 1970,
      "Ġfunctions": 1971,
      "code": 1972,
      "ivity": 1973,
      "Ġpaper": 1974,
      "ety": 1975,
      "ember": 1976,
      "Ġcalled": 1977,
      "Ġdensity": 1978,
      ")(": 1979,
      "imum": 1980,
      "ii": 1981,
      "Ġpredict": 1982,
      "reen": 1983,
      "version": 1984,
      "Ġq": 1985,
      "Ġprogram": 1986,
      "ĠUnited": 1987,
      "const": 1988,
      "dependent": 1989,
      "message": 1990,
      "aps": 1991,
      "ground": 1992,
      "ords": 1993,
      "Ġstrong": 1994,
      "Ġwithout": 1995,
      "Ġcontrib": 1996,
      "ina": 1997,
      "ĠTheorem": 1998,
      "Ġequation": 1999,
      "Ġvert": 2000,
      "Ġassoci": 2001,
      "Ġown": 2002,
      "By": 2003,
      "itle": 2004,
      "arm": 2005,
      "top": 2006,
      "Ġprevious": 2007,
      "Ġlink": 2008,
      "ĠTo": 2009,
      "Ġbuild": 2010,
      "Ġalong": 2011,
      "veral": 2012,
      "Ġteam": 2013,
      "ault": 2014,
      "Ġpotential": 2015,
      "Ġmark": 2016,
      "Ġagainst": 2017,
      "âĢľ": 2018,
      "Ġtrue": 2019,
      "Ġclos": 2020,
      "Ġcorresponding": 2021,
      "Ġgood": 2022,
      "ression": 2023,
      "ories": 2024,
      "Ps": 2025,
      "Ġref": 2026,
      "ternal": 2027,
      "Ġposition": 2028,
      "Ġcomplex": 2029,
      "Ġapproach": 2030,
      "ĠComm": 2031,
      "ention": 2032,
      "atter": 2033,
      "Ġrece": 2034,
      "td": 2035,
      "Ġlimit": 2036,
      "Ġimportant": 2037,
      "Ġlinear": 2038,
      "90": 2039,
      "Ġdat": 2040,
      "ially": 2041,
      "75": 2042,
      "Ġfinal": 2043,
      "verse": 2044,
      "Ġgovern": 2045,
      "Ġet": 2046,
      "Ġrespectively": 2047,
      "}+": 2048,
      "Ġpass": 2049,
      ")}\\": 2050,
      "Ġconstant": 2051,
      "script": 2052,
      "ries": 2053,
      "Ġsuper": 2054,
      ".\"": 2055,
      "Ġdown": 2056,
      "ĠOn": 2057,
      "Ġbest": 2058,
      "ital": 2059,
      "\\{": 2060,
      "prime": 2061,
      "thm": 2062,
      "Ġauth": 2063,
      "ables": 2064,
      "Ġtotal": 2065,
      "iness": 2066,
      "Ġarg": 2067,
      "Ġconf": 2068,
      "ĠRes": 2069,
      "urb": 2070,
      "Ġpat": 2071,
      "\\]": 2072,
      "ĠAd": 2073,
      "rack": 2074,
      "ental": 2075,
      "80": 2076,
      "2013": 2077,
      "ohn": 2078,
      "sequ": 2079,
      "oll": 2080,
      "('": 2081,
      ")=\\": 2082,
      "emma": 2083,
      "Ġinvest": 2084,
      "ploy": 2085,
      "ious": 2086,
      "amples": 2087,
      "Ġcomb": 2088,
      "Ġ($": 2089,
      ",âĢĿ": 2090,
      "ances": 2091,
      "Ġnear": 2092,
      "Ã©": 2093,
      "Ġparameter": 2094,
      "}]": 2095,
      "Ġtyp": 2096,
      "Ġhelp": 2097,
      "ĠPh": 2098,
      "Ġperformance": 2099,
      "Ġfamily": 2100,
      "anc": 2101,
      "Name": 2102,
      "opt": 2103,
      "ience": 2104,
      "Ġrate": 2105,
      "Ġanalysis": 2106,
      "mult": 2107,
      "Al": 2108,
      "196": 2109,
      "Ġproof": 2110,
      "Id": 2111,
      "Ġaver": 2112,
      "scal": 2113,
      "ream": 2114,
      "Ġcrit": 2115,
      "order": 2116,
      "uro": 2117,
      "ird": 2118,
      "htt": 2119,
      "}=\\": 2120,
      "type": 2121,
      "Ġcou": 2122,
      "Ġmap": 2123,
      "Ġmov": 2124,
      "/>": 2125,
      "Ġtheory": 2126,
      "zeta": 2127,
      "aim": 2128,
      "Ġschool": 2129,
      "use": 2130,
      "Ġproject": 2131,
      "Ġsignific": 2132,
      "ique": 2133,
      "clus": 2134,
      "ux": 2135,
      "Ġseveral": 2136,
      "Ġ_": 2137,
      "2012": 2138,
      "self": 2139,
      "{(": 2140,
      "Ġchild": 2141,
      "Ġrese": 2142,
      "Ġcour": 2143,
      "ocus": 2144,
      "ĠEng": 2145,
      "import": 2146,
      "usic": 2147,
      "style": 2148,
      "Ġapplic": 2149,
      "ograph": 2150,
      "ĠEq": 2151,
      "Ġnext": 2152,
      "'t": 2153,
      "Ġdetail": 2154,
      "Ġ=>": 2155,
      "obal": 2156,
      "pper": 2157,
      "Ġperson": 2158,
      "textwidth": 2159,
      "time": 2160,
      "ception": 2161,
      "ither": 2162,
      "ĠShe": 2163,
      "Ġcalcul": 2164,
      "ruction": 2165,
      "References": 2166,
      "under": 2167,
      "Ġregion": 2168,
      "aving": 2169,
      "Ġphot": 2170,
      "ĠSection": 2171,
      "Ġaff": 2172,
      "vir": 2173,
      "Ġpair": 2174,
      "String": 2175,
      "Ġview": 2176,
      "Ġide": 2177,
      ";\\": 2178,
      "Ġseries": 2179,
      "Ġperiod": 2180,
      "ences": 2181,
      "Ġlater": 2182,
      "05": 2183,
      "br": 2184,
      "ley": 2185,
      "ajor": 2186,
      "omorph": 2187,
      "Ġstandard": 2188,
      ")^{": 2189,
      "ober": 2190,
      "ources": 2191,
      "illion": 2192,
      "Ġimpro": 2193,
      "ients": 2194,
      "Ġlook": 2195,
      "ĠIs": 2196,
      "ubl": 2197,
      "~~": 2198,
      "alk": 2199,
      "bs": 2200,
      "Ġfurther": 2201,
      "Ġcap": 2202,
      "48": 2203,
      "Ġproduct": 2204,
      "Ġerror": 2205,
      "ler": 2206,
      "OR": 2207,
      "Ġ&=": 2208,
      "Ġrandom": 2209,
      "Ġlife": 2210,
      "stand": 2211,
      "Type": 2212,
      "rr": 2213,
      "Ġsl": 2214,
      "Ġfram": 2215,
      "Ġbro": 2216,
      "ĠPl": 2217,
      "Ġvar": 2218,
      "}_\\": 2219,
      "Ġphase": 2220,
      "2010": 2221,
      "Ġtraining": 2222,
      "Ġindic": 2223,
      "roll": 2224,
      "AN": 2225,
      "Ġinput": 2226,
      "Ġpur": 2227,
      "Ġmom": 2228,
      "2011": 2229,
      "Ġrespon": 2230,
      "nal": 2231,
      "}^\\": 2232,
      "Ġevent": 2233,
      "Ġchange": 2234,
      "iter": 2235,
      "LE": 2236,
      "ev": 2237,
      "Ġvector": 2238,
      "Ġadv": 2239,
      "Ġspe": 2240,
      "\"/>": 2241,
      "Cl": 2242,
      "ĠWh": 2243,
      "If": 2244,
      "Ġtimes": 2245,
      "ĠAt": 2246,
      "$)": 2247,
      "ended": 2248,
      "exp": 2249,
      "inter": 2250,
      "mathsf": 2251,
      "SE": 2252,
      "angu": 2253,
      "Ġsay": 2254,
      "Ġrange": 2255,
      "ĠThey": 2256,
      "Ġchang": 2257,
      "perature": 2258,
      "36": 2259,
      "Ġimage": 2260,
      "Ġfinite": 2261,
      "ological": 2262,
      "99": 2263,
      "idd": 2264,
      "}|": 2265,
      "ek": 2266,
      "ĠBy": 2267,
      "cdots": 2268,
      "widehat": 2269,
      "lemma": 2270,
      "usiness": 2271,
      "une": 2272,
      "rivate": 2273,
      "icle": 2274,
      "Ġphys": 2275,
      "Ġpost": 2276,
      "Ġaction": 2277,
      "01": 2278,
      "Ġorgan": 2279,
      "Ġsystems": 2280,
      "ĠStates": 2281,
      "Ġcases": 2282,
      "empt": 2283,
      "Ġplace": 2284,
      "ways": 2285,
      "eb": 2286,
      "uman": 2287,
      "Ġdiff": 2288,
      "On": 2289,
      "ĠBut": 2290,
      "Ġmethods": 2291,
      "Ġeas": 2292,
      "Ġlower": 2293,
      "Ġpath": 2294,
      "rite": 2295,
      "fficient": 2296,
      "uation": 2297,
      "Ġconditions": 2298,
      "Ġless": 2299,
      "Ġprot": 2300,
      "Ġlay": 2301,
      "return": 2302,
      "Ġaut": 2303,
      "Ġsignificant": 2304,
      "Ġwant": 2305,
      "Ġconsid": 2306,
      "})\\": 2307,
      "Ġanother": 2308,
      "Ġ\\{": 2309,
      "Ġplan": 2310,
      "Ġnode": 2311,
      "duct": 2312,
      "Ġband": 2313,
      "Ġleast": 2314,
      "Ġestabl": 2315,
      "ts": 2316,
      "ĠMar": 2317,
      "node": 2318,
      "ĠâĢĶ": 2319,
      ")]": 2320,
      "Ġcare": 2321,
      "ium": 2322,
      ",-": 2323,
      "Ġfull": 2324,
      "Ġmot": 2325,
      "ailable": 2326,
      "enn": 2327,
      "Ġhigher": 2328,
      "pdf": 2329,
      "Ġcontrol": 2330,
      "Ġsymm": 2331,
      "rist": 2332,
      "asing": 2333,
      "Ġfew": 2334,
      "II": 2335,
      "ering": 2336,
      "Ġdynam": 2337,
      "}^{(": 2338,
      "Ġlight": 2339,
      "Ġmet": 2340,
      "Ġbook": 2341,
      "34": 2342,
      "foot": 2343,
      "Ġwid": 2344,
      "DE": 2345,
      "chie": 2346,
      "Ġthink": 2347,
      "wards": 2348,
      "ared": 2349,
      "31": 2350,
      "Ġpositive": 2351,
      "Ġrecent": 2352,
      "}}(": 2353,
      "ĠFigure": 2354,
      "param": 2355,
      "alax": 2356,
      "ocial": 2357,
      "Ġbo": 2358,
      "Ġtarget": 2359,
      "List": 2360,
      "Ġdefine": 2361,
      "enc": 2362,
      "Ġsom": 2363,
      "AC": 2364,
      "lected": 2365,
      "Ġhy": 2366,
      "Ġproposed": 2367,
      "AL": 2368,
      "Ġsuccess": 2369,
      "ĠCar": 2370,
      "inc": 2371,
      "Ġgrow": 2372,
      "64": 2373,
      "AS": 2374,
      "Ġcirc": 2375,
      "Ġneg": 2376,
      "esc": 2377,
      "70": 2378,
      "ope": 2379,
      "qquad": 2380,
      "xspace": 2381,
      "Ġbre": 2382,
      ".~": 2383,
      "ĠBl": 2384,
      "inary": 2385,
      "field": 2386,
      "Ġopp": 2387,
      "Ġke": 2388,
      "Ġdescribed": 2389,
      "Ġarea": 2390,
      "Ġclear": 2391,
      "Ġweight": 2392,
      "ored": 2393,
      "viron": 2394,
      "Ġunt": 2395,
      "38": 2396,
      "##": 2397,
      "ius": 2398,
      "Ġthus": 2399,
      "ĠAll": 2400,
      "small": 2401,
      "}\\\\": 2402,
      "ister": 2403,
      "ĠJohn": 2404,
      "Ġturn": 2405,
      "Val": 2406,
      "Ġconstra": 2407,
      "Ġprovide": 2408,
      "Ġexists": 2409,
      "Ġquest": 2410,
      "ends": 2411,
      "Ġdiag": 2412,
      "')": 2413,
      "ians": 2414,
      "gebra": 2415,
      "55": 2416,
      "Ġprobability": 2417,
      "Ġfrequ": 2418,
      "ths": 2419,
      "Ġge": 2420,
      "&=": 2421,
      "Ġlength": 2422,
      "imensional": 2423,
      "off": 2424,
      "Ġdel": 2425,
      "Ġfree": 2426,
      "cup": 2427,
      "ĠThere": 2428,
      "Ġloss": 2429,
      "Ġ$(\\": 2430,
      "ĠCent": 2431,
      "ĠNational": 2432,
      "translation": 2433,
      "Psi": 2434,
      "Ġnormal": 2435,
      "ĠMay": 2436,
      "2009": 2437,
      "Ġkey": 2438,
      "ele": 2439,
      "^+": 2440,
      "Ġinvol": 2441,
      "Ġtemperature": 2442,
      "lying": 2443,
      "ription": 2444,
      "Ġvol": 2445,
      "ĠThese": 2446,
      "Un": 2447,
      "Ġann": 2448,
      "plement": 2449,
      "Ġlog": 2450,
      "Ġleg": 2451,
      "Ġpolit": 2452,
      "cos": 2453,
      "Ġconsist": 2454,
      "netic": 2455,
      "ĠLemma": 2456,
      "though": 2457,
      "iving": 2458,
      "ty": 2459,
      "Ġproperties": 2460,
      "af": 2461,
      "roups": 2462,
      "Ġconsidered": 2463,
      "ividual": 2464,
      "}\\,": 2465,
      "conom": 2466,
      "Ġobserved": 2467,
      "mp": 2468,
      "Ġhal": 2469,
      "which": 2470,
      "Ġcorre": 2471,
      "hold": 2472,
      "Ġrelations": 2473,
      "Ġred": 2474,
      "Ġbetter": 2475,
      "uture": 2476,
      "ape": 2477,
      "based": 2478,
      "mo": 2479,
      "head": 2480,
      "{{\\": 2481,
      "An": 2482,
      "Ġsource": 2483,
      "citet": 2484,
      "ĠGe": 2485,
      "Ġ&\\": 2486,
      "ris": 2487,
      "Ġhead": 2488,
      "Ġaverage": 2489,
      "Ġiss": 2490,
      "go": 2491,
      "Ġabs": 2492,
      "Ġzero": 2493,
      "wise": 2494,
      "Ġdatas": 2495,
      "inally": 2496,
      "2008": 2497,
      "gl": 2498,
      "Ġcost": 2499,
      "Ġconn": 2500,
      "ged": 2501,
      "Ġhom": 2502,
      "Ġmeans": 2503,
      "Ġsepar": 2504,
      "Ġlearning": 2505,
      "EN": 2506,
      "rand": 2507,
      "aster": 2508,
      "Ġshort": 2509,
      "Ġsit": 2510,
      "Ġachie": 2511,
      "ches": 2512,
      "37": 2513,
      "Ġeval": 2514,
      "uration": 2515,
      "Ġinclude": 2516,
      "prop": 2517,
      "size": 2518,
      "onal": 2519,
      "Ġfeatures": 2520,
      "ĠSu": 2521,
      "stit": 2522,
      "Ġcross": 2523,
      "Ġsk": 2524,
      "Ġindependent": 2525,
      "Ġgame": 2526,
      "Ġ!": 2527,
      "Ġbehav": 2528,
      "ĉĊ": 2529,
      "Ġavailable": 2530,
      "ĠFran": 2531,
      "key": 2532,
      "ably": 2533,
      "tack": 2534,
      "olumn": 2535,
      "ulations": 2536,
      "44": 2537,
      "Ġfactor": 2538,
      "ertain": 2539,
      "anu": 2540,
      "39": 2541,
      "Ġdefinition": 2542,
      "sing": 2543,
      "Ġequival": 2544,
      "Ar": 2545,
      "Ġsem": 2546,
      "icy": 2547,
      "scale": 2548,
      "Ġclust": 2549,
      "Ġfocus": 2550,
      "ĠYork": 2551,
      "ordin": 2552,
      "Ġcompar": 2553,
      "ĠCan": 2554,
      "Ġmajor": 2555,
      "scr": 2556,
      "Ġbelow": 2557,
      "Ġassociated": 2558,
      "Ġnull": 2559,
      "]$": 2560,
      "value": 2561,
      "}:": 2562,
      "appro": 2563,
      "idence": 2564,
      "IC": 2565,
      "Ġgovernment": 2566,
      "defin": 2567,
      "Ġdon": 2568,
      "âĢĶ": 2569,
      "Ġday": 2570,
      "Ġuntil": 2571,
      "ules": 2572,
      "Ġlines": 2573,
      "Ġseen": 2574,
      "rary": 2575,
      "eter": 2576,
      "operator": 2577,
      "AM": 2578,
      "....": 2579,
      "Ġstring": 2580,
      "point": 2581,
      "ĠSince": 2582,
      "Ġflow": 2583,
      "Ġfund": 2584,
      "Ġsequence": 2585,
      "Ġenc": 2586,
      "Ġside": 2587,
      "osp": 2588,
      "ĠSc": 2589,
      "Ġblock": 2590,
      "|^": 2591,
      "ĠOr": 2592,
      "Ġmoment": 2593,
      "ache": 2594,
      "ling": 2595,
      "atural": 2596,
      "Ġassume": 2597,
      "iam": 2598,
      "data": 2599,
      "fo": 2600,
      "Ġrequire": 2601,
      "Ġcy": 2602,
      "Ġoffic": 2603,
      "],": 2604,
      "Ġeither": 2605,
      "ush": 2606,
      "ently": 2607,
      "Int": 2608,
      "Ġcoll": 2609,
      "Ġoriginal": 2610,
      "ĠĠĠĠĠĠĠĠĠĠĠĠĠ": 2611,
      "Ġaccount": 2612,
      "49": 2613,
      "Ġgalax": 2614,
      "Ġfixed": 2615,
      "Ġgreat": 2616,
      "}+\\": 2617,
      "utes": 2618,
      "iance": 2619,
      "ibility": 2620,
      "2007": 2621,
      "Ġquantum": 2622,
      "rior": 2623,
      "ĠWorld": 2624,
      "Ġfalse": 2625,
      "Ġsche": 2626,
      "mid": 2627,
      "Ġimpl": 2628,
      "most": 2629,
      "ai": 2630,
      "Ġindividual": 2631,
      "ula": 2632,
      "ising": 2633,
      "arent": 2634,
      "igen": 2635,
      "ĠSy": 2636,
      "hspace": 2637,
      "ĠCount": 2638,
      "ĠYou": 2639,
      "uly": 2640,
      "skip": 2641,
      "uted": 2642,
      "ĠEuro": 2643,
      "anguage": 2644,
      "erial": 2645,
      "Ġloc": 2646,
      "Ġstar": 2647,
      "Ġnumer": 2648,
      "Ġcoupl": 2649,
      "now": 2650,
      "bu": 2651,
      "neq": 2652,
      "map": 2653,
      "ĠSo": 2654,
      "Ġelement": 2655,
      "He": 2656,
      "Ġbi": 2657,
      "ving": 2658,
      "sin": 2659,
      "ready": 2660,
      "Ġhome": 2661,
      "Ġresearch": 2662,
      "Ġalways": 2663,
      "Ġsimple": 2664,
      "Ġexpected": 2665,
      "}}{\\": 2666,
      "IT": 2667,
      "ms": 2668,
      "ĠĠĠĠĊ": 2669,
      "ĠWar": 2670,
      "star": 2671,
      "Ġcover": 2672,
      "ĠBe": 2673,
      "iff": 2674,
      "Ġgive": 2675,
      "sw": 2676,
      "ĠUS": 2677,
      "side": 2678,
      "Ġdistance": 2679,
      "Ġpract": 2680,
      "rim": 2681,
      "pose": 2682,
      "Ġseason": 2683,
      "footnot": 2684,
      "2006": 2685,
      "indent": 2686,
      "Ġtext": 2687,
      "CO": 2688,
      "function": 2689,
      "Ġproperty": 2690,
      "ched": 2691,
      "aken": 2692,
      "fill": 2693,
      "Ġamong": 2694,
      "Ġearly": 2695,
      "vironment": 2696,
      "ĠNo": 2697,
      "Ġcommon": 2698,
      "\".": 2699,
      "pact": 2700,
      "Ġdenote": 2701,
      "umerate": 2702,
      "Ġcomplet": 2703,
      "Ġanaly": 2704,
      "rap": 2705,
      "}-\\": 2706,
      "Ġexact": 2707,
      "ĠMore": 2708,
      "'$": 2709,
      ")-": 2710,
      "Ġlik": 2711,
      "mathscr": 2712,
      "Ġstep": 2713,
      "Ġsample": 2714,
      "Ġoperator": 2715,
      "Ġ==": 2716,
      "Ġelse": 2717,
      "Ġrecord": 2718,
      "raction": 2719,
      "ino": 2720,
      "chan": 2721,
      "95": 2722,
      "equiv": 2723,
      "65": 2724,
      "theorem": 2725,
      "Ġscale": 2726,
      "opy": 2727,
      "ĠCo": 2728,
      "Ġconstruct": 2729,
      "verg": 2730,
      "\"><": 2731,
      "47": 2732,
      "Ġspecial": 2733,
      "Ġemploy": 2734,
      "Ġstre": 2735,
      "Ob": 2736,
      "aut": 2737,
      "Ġfoot": 2738,
      "ides": 2739,
      "Ġbusiness": 2740,
      "Ġlabel": 2741,
      "ĠPol": 2742,
      "ware": 2743,
      "Ġtransition": 2744,
      "ilities": 2745,
      "ĠTe": 2746,
      "ilit": 2747,
      "annel": 2748,
      "bum": 2749,
      "enumerate": 2750,
      "195": 2751,
      "Ġfac": 2752,
      "Ġeng": 2753,
      "Ġauthor": 2754,
      "Ġoften": 2755,
      "Ġelements": 2756,
      "Ġoccur": 2757,
      "Ġsurface": 2758,
      "Ġvarious": 2759,
      "ariant": 2760,
      "itemize": 2761,
      "ĠSp": 2762,
      ")}{": 2763,
      "Ġwar": 2764,
      "Ġsugg": 2765,
      "Ġsuggest": 2766,
      "08": 2767,
      "ussian": 2768,
      "Ġboundary": 2769,
      "Ġemb": 2770,
      "({\\": 2771,
      "operatorname": 2772,
      "07": 2773,
      "Ġmight": 2774,
      "Ġrat": 2775,
      "mat": 2776,
      "ĠAust": 2777,
      "Ġclaim": 2778,
      "Ġblack": 2779,
      "Ġbelie": 2780,
      "otes": 2781,
      "multic": 2782,
      "Ġhard": 2783,
      "iles": 2784,
      "Ġmembers": 2785,
      "Ġplayers": 2786,
      "Ġprivate": 2787,
      "]\\": 2788,
      "Ġold": 2789,
      "Ġmove": 2790,
      "vspace": 2791,
      "ĠState": 2792,
      "lied": 2793,
      "ocument": 2794,
      "dt": 2795,
      "Ġvoid": 2796,
      "Ġ-\\": 2797,
      "Ġspin": 2798,
      "ĠApp": 2799,
      "Ġvia": 2800,
      "Ġlarger": 2801,
      "Ġimplement": 2802,
      "ĠThus": 2803,
      "ĠâĢĺ": 2804,
      "ĠMan": 2805,
      "Ġcell": 2806,
      "Ġ&&": 2807,
      "46": 2808,
      "racy": 2809,
      "ilt": 2810,
      "wed": 2811,
      "Ġlinks": 2812,
      "Ġhowever": 2813,
      "Ġmusic": 2814,
      "itor": 2815,
      "ressed": 2816,
      "ĠMin": 2817,
      "ĠEurope": 2818,
      "ighb": 2819,
      "bb": 2820,
      "eloc": 2821,
      "iven": 2822,
      "multicolumn": 2823,
      "call": 2824,
      "Ġable": 2825,
      "Ġregular": 2826,
      "underline": 2827,
      "Ġversion": 2828,
      "Ġrole": 2829,
      "Set": 2830,
      "mary": 2831,
      "Ġrelated": 2832,
      "gether": 2833,
      "Ġcontext": 2834,
      "Ġtogether": 2835,
      "Ġreason": 2836,
      "ats": 2837,
      "Ġacross": 2838,
      "Ġoptim": 2839,
      "izing": 2840,
      "cell": 2841,
      "06": 2842,
      "Ġalready": 2843,
      "ĠCor": 2844,
      "Ġnecess": 2845,
      "AP": 2846,
      "Ġcorrel": 2847,
      "Ġequations": 2848,
      "Ġnam": 2849,
      "Ġgoing": 2850,
      "ems": 2851,
      "Ġhealth": 2852,
      "ought": 2853,
      "Ġmetric": 2854,
      "Ġinvestig": 2855,
      "ĠSchool": 2856,
      "Sh": 2857,
      "ze": 2858,
      "Ġdomain": 2859,
      "Ġwon": 2860,
      "Ġmanag": 2861,
      "Ġes": 2862,
      "Ġedge": 2863,
      "Ġinfl": 2864,
      "ĠAug": 2865,
      "Ġland": 2866,
      "Ġcountry": 2867,
      "Ġill": 2868,
      "~$": 2869,
      "Ġwhether": 2870,
      "Ġbecome": 2871,
      "Ġaccess": 2872,
      "Ġbecame": 2873,
      "Ġfuture": 2874,
      "Ġappear": 2875,
      "ĠAf": 2876,
      "ĠSouth": 2877,
      "cle": 2878,
      "$}": 2879,
      "Ind": 2880,
      "ume": 2881,
      "Ġdeath": 2882,
      "place": 2883,
      "oted": 2884,
      "Ġid": 2885,
      "Mod": 2886,
      "Ġdegree": 2887,
      "anuary": 2888,
      "Ġcertain": 2889,
      "ottom": 2890,
      "och": 2891,
      "Ġbackground": 2892,
      "Ġhistory": 2893,
      "Ġcompany": 2894,
      "Ġprom": 2895,
      "iver": 2896,
      "ensor": 2897,
      "02": 2898,
      "Ġconstraint": 2899,
      "Ġpubl": 2900,
      "Ġgives": 2901,
      "tic": 2902,
      "string": 2903,
      "Ġrequired": 2904,
      "Ġimplies": 2905,
      "ults": 2906,
      "Ġ\\|": 2907,
      "Ġcheck": 2908,
      "eneral": 2909,
      ")}$": 2910,
      "Ġveloc": 2911,
      "edd": 2912,
      "lege": 2913,
      "ĠBrit": 2914,
      "Ġdev": 2915,
      "omial": 2916,
      "}}_": 2917,
      "ĠCal": 2918,
      "Ġaccording": 2919,
      "IS": 2920,
      "ney": 2921,
      "mark": 2922,
      "Ġhuman": 2923,
      "Ġtherefore": 2924,
      "Ġfore": 2925,
      "Ġdep": 2926,
      "lor": 2927,
      "Ġglobal": 2928,
      "plus": 2929,
      "bo": 2930,
      "ĠOct": 2931,
      "Ġclose": 2932,
      "De": 2933,
      "ĠAss": 2934,
      "Ġhapp": 2935,
      "Ġunit": 2936,
      "urch": 2937,
      "Ġtaken": 2938,
      "dag": 2939,
      "ctors": 2940,
      "NN": 2941,
      "Ġtitle": 2942,
      "Ġben": 2943,
      "Ġwomen": 2944,
      "ried": 2945,
      "Ġoutput": 2946,
      "Ġ:=": 2947,
      "hood": 2948,
      "noindent": 2949,
      "page": 2950,
      "Ġfields": 2951,
      "04": 2952,
      "Ġgroups": 2953,
      "iform": 2954,
      "Data": 2955,
      "Ġ%": 2956,
      "Ġholds": 2957,
      "texttt": 2958,
      "ply": 2959,
      "itted": 2960,
      "more": 2961,
      "Ġunderstand": 2962,
      "oman": 2963,
      "ogn": 2964,
      "ava": 2965,
      "Ġcoe": 2966,
      "ague": 2967,
      "Âł": 2968,
      "Ġevents": 2969,
      "66": 2970,
      "Ġformer": 2971,
      "ittle": 2972,
      "\\}$": 2973,
      "ĠMarch": 2974,
      "2005": 2975,
      "ĠArt": 2976,
      "Ġfail": 2977,
      "Ġsolutions": 2978,
      "Ġpopulation": 2979,
      "ework": 2980,
      "omorphism": 2981,
      "Ġmillion": 2982,
      "Ġtre": 2983,
      "Ġep": 2984,
      "Ġprove": 2985,
      "Ġimages": 2986,
      "Ġtoo": 2987,
      "Ġcity": 2988,
      "ony": 2989,
      "dom": 2990,
      "itting": 2991,
      "pril": 2992,
      "][": 2993,
      "ket": 2994,
      "px": 2995,
      "Ġhaving": 2996,
      "Ġstrateg": 2997,
      "Ġpo": 2998,
      "(-": 2999,
      "pol": 3000,
      "03": 3001,
      "Ġsets": 3002,
      "Ġbegin": 3003,
      "abor": 3004,
      "ĠChrist": 3005,
      "cret": 3006,
      "Ġcode": 3007,
      "ĠWhen": 3008,
      "********": 3009,
      "util": 3010,
      "\\,\\": 3011,
      "ours": 3012,
      "ĠOne": 3013,
      "Ġarch": 3014,
      "Ġput": 3015,
      "rant": 3016,
      "Ġprovided": 3017,
      "medi": 3018,
      "dimensional": 3019,
      "ptember": 3020,
      "Ġconc": 3021,
      "Ġfar": 3022,
      "Ġla": 3023,
      "Ġattack": 3024,
      "Ġrefer": 3025,
      "rag": 3026,
      "Ġground": 3027,
      "Ġindex": 3028,
      "Ġhtt": 3029,
      "Ġret": 3030,
      "Ġcannot": 3031,
      "Se": 3032,
      "Ġchildren": 3033,
      "Ġworks": 3034,
      "CT": 3035,
      "09": 3036,
      "pped": 3037,
      "Ġpan": 3038,
      "Ġprim": 3039,
      "ĠPart": 3040,
      "ĠWith": 3041,
      "Ġeffic": 3042,
      "Ġconfig": 3043,
      "ĠĠĠĠĠĠĠĠĠĠĠĠĠĠĠĠĠĠĠĠĠĠĠ": 3044,
      "Ġdou": 3045,
      "Ġadditional": 3046,
      "erman": 3047,
      "indow": 3048,
      "split": 3049,
      "Ġfig": 3050,
      "ending": 3051,
      "Ġgenerated": 3052,
      "Ġthird": 3053,
      "aches": 3054,
      "85": 3055,
      "iction": 3056,
      "ds": 3057,
      "Vert": 3058,
      "Ġnote": 3059,
      "ĠJanuary": 3060,
      "used": 3061,
      "down": 3062,
      "Ġfive": 3063,
      "aced": 3064,
      "Ġwhose": 3065,
      "Ġmultiple": 3066,
      "2000": 3067,
      "oad": 3068,
      "onic": 3069,
      "group": 3070,
      "reed": 3071,
      "lement": 3072,
      "Ġwin": 3073,
      "Ġcateg": 3074,
      "cember": 3075,
      "gen": 3076,
      "Ġalbum": 3077,
      "ideo": 3078,
      "Ġeffective": 3079,
      "Ġcontains": 3080,
      "Ġcompared": 3081,
      "ĠGu": 3082,
      "ĠReg": 3083,
      "Ġbasis": 3084,
      "Ġsong": 3085,
      "AB": 3086,
      "Ġenough": 3087,
      "Ġsocial": 3088,
      "acy": 3089,
      "ront": 3090,
      "Ġtransform": 3091,
      "approx": 3092,
      "amil": 3093,
      "gs": 3094,
      "roid": 3095,
      "With": 3096,
      "ada": 3097,
      "ovember": 3098,
      "textrm": 3099,
      "Ġcommunity": 3100,
      "Ġwritten": 3101,
      "ĠCounty": 3102,
      "}}}": 3103,
      "eder": 3104,
      "ĠJune": 3105,
      "Ġdevelopment": 3106,
      "Ġeffects": 3107,
      "Since": 3108,
      "Ġcompos": 3109,
      "norm": 3110,
      "Ġinf": 3111,
      "Ġinstance": 3112,
      "Ġservice": 3113,
      "\")": 3114,
      "Ġequal": 3115,
      "Ġspecific": 3116,
      "cing": 3117,
      "Ġrepresentation": 3118,
      "Ġmagnetic": 3119,
      "Col": 3120,
      "Ġestimate": 3121,
      "Ġcomponent": 3122,
      "Ġsw": 3123,
      "Ġeconom": 3124,
      "Ġnatural": 3125,
      "Ġalgebra": 3126,
      "{}": 3127,
      "rule": 3128,
      "Ġrelation": 3129,
      "Ġlearn": 3130,
      "astic": 3131,
      "Ġmar": 3132,
      "Ġdifference": 3133,
      "Ġstars": 3134,
      "tra": 3135,
      "ĠPar": 3136,
      "uk": 3137,
      "Ġweak": 3138,
      "ceed": 3139,
      "linear": 3140,
      "test": 3141,
      "ĠCity": 3142,
      "kn": 3143,
      "Ġnever": 3144,
      "light": 3145,
      "Ġpresented": 3146,
      "ED": 3147,
      "nb": 3148,
      "ĠJuly": 3149,
      "ĠMe": 3150,
      "Ġnum": 3151,
      "42": 3152,
      "state": 3153,
      "ports": 3154,
      "from": 3155,
      "Ġcoordin": 3156,
      "ĠTherefore": 3157,
      "atively": 3158,
      "ĠAugust": 3159,
      "].": 3160,
      "but": 3161,
      "my": 3162,
      "ĠApril": 3163,
      "ĠSeptember": 3164,
      "ography": 3165,
      "Ġexplain": 3166,
      "Ġcompet": 3167,
      "ĠMed": 3168,
      "alle": 3169,
      "date": 3170,
      "Ġmatch": 3171,
      "Ġeduc": 3172,
      "($": 3173,
      ")+": 3174,
      "mooth": 3175,
      "like": 3176,
      "{$": 3177,
      "Ġprec": 3178,
      "Ġmechan": 3179,
      "Ġsqu": 3180,
      "Pi": 3181,
      "ES": 3182,
      "Ġneighb": 3183,
      "ĠOctober": 3184,
      "Ġtheorem": 3185,
      "CC": 3186,
      "icture": 3187,
      "Ġuser": 3188,
      "Ġsent": 3189,
      "itect": 3190,
      "rest": 3191,
      "subseteq": 3192,
      "mar": 3193,
      "rated": 3194,
      "Ġreally": 3195,
      "index": 3196,
      "Ġyield": 3197,
      "list": 3198,
      "hib": 3199,
      "97": 3200,
      "2004": 3201,
      "ledge": 3202,
      "Ġimprove": 3203,
      "alt": 3204,
      "&&": 3205,
      "Ġstatic": 3206,
      "Cont": 3207,
      "ĠNorth": 3208,
      "ires": 3209,
      "come": 3210,
      "Ġbase": 3211,
      "Then": 3212,
      "Ġmatter": 3213,
      "----------------": 3214,
      "Value": 3215,
      "Ġcam": 3216,
      "Ġmaterial": 3217,
      "Ġdimension": 3218,
      "Ġcomponents": 3219,
      "Ġtry": 3220,
      "eff": 3221,
      "ĠSch": 3222,
      "ulated": 3223,
      "actions": 3224,
      "Ġreview": 3225,
      "Ġvalid": 3226,
      "na": 3227,
      "izes": 3228,
      "ĠThat": 3229,
      "Ġcome": 3230,
      "Ġdone": 3231,
      "Ġwave": 3232,
      "ales": 3233,
      "ĠDecember": 3234,
      "Ġport": 3235,
      "),\\": 3236,
      "ĠRep": 3237,
      "eed": 3238,
      "LL": 3239,
      "43": 3240,
      "ĠPres": 3241,
      "icult": 3242,
      "lish": 3243,
      "ili": 3244,
      "ĠTable": 3245,
      "ham": 3246,
      "ĠCO": 3247,
      "Ġspectrum": 3248,
      "rast": 3249,
      "^-": 3250,
      "External": 3251,
      "Theta": 3252,
      "Ġrestrict": 3253,
      "Ġprior": 3254,
      "Ġeigen": 3255,
      "Ġ_{": 3256,
      "ocal": 3257,
      "lex": 3258,
      "ĠNovember": 3259,
      ",\"": 3260,
      "ĠAfter": 3261,
      "âĢ¦": 3262,
      "Ġrot": 3263,
      "clusion": 3264,
      "Ġ$\\{": 3265,
      "Ġage": 3266,
      "Ġsatisfy": 3267,
      "vision": 3268,
      "minus": 3269,
      "98": 3270,
      "Ġevolution": 3271,
      "Ġtw": 3272,
      "that": 3273,
      "Ġrather": 3274,
      "Ġmaking": 3275,
      "ĠWill": 3276,
      "Ġincrease": 3277,
      "<\\": 3278,
      "ster": 3279,
      "Ġenvironment": 3280,
      "Ġvariables": 3281,
      "iew": 3282,
      "ĠIntern": 3283,
      "Ġwater": 3284,
      "aries": 3285,
      "cher": 3286,
      "location": 3287,
      "Ġcolor": 3288,
      "rc": 3289,
      "Ġdirection": 3290,
      "comp": 3291,
      "linewidth": 3292,
      "Ġmaximum": 3293,
      "ĠEn": 3294,
      "vergence": 3295,
      "Ġproblems": 3296,
      "Pl": 3297,
      "ĠOb": 3298,
      "Ġhalf": 3299,
      "Ġjo": 3300,
      "Ġvelocity": 3301,
      "Ġquestion": 3302,
      "ones": 3303,
      "bound": 3304,
      "];": 3305,
      "Ġalmost": 3306,
      "Ġbig": 3307,
      "67": 3308,
      "}^{-": 3309,
      "ump": 3310,
      "41": 3311,
      "Ġgas": 3312,
      "Ġsix": 3313,
      "ĠBar": 3314,
      "bigg": 3315,
      "earch": 3316,
      "ynomial": 3317,
      "Ġcomplete": 3318,
      "Su": 3319,
      "Ġevalu": 3320,
      "ament": 3321,
      "raft": 3322,
      "Ġwidth": 3323,
      "RO": 3324,
      "itude": 3325,
      "ĠDep": 3326,
      ")|": 3327,
      "Ġant": 3328,
      "ĠAustral": 3329,
      "semb": 3330,
      "Ġstudents": 3331,
      "IM": 3332,
      "ille": 3333,
      "Ġchall": 3334,
      "Ġsignal": 3335,
      "From": 3336,
      "aint": 3337,
      "Bu": 3338,
      "ung": 3339,
      "path": 3340,
      "istics": 3341,
      "ards": 3342,
      "Ġtask": 3343,
      "ortun": 3344,
      "Ġwrite": 3345,
      "Ġcentral": 3346,
      "Ġpress": 3347,
      "Ġapplied": 3348,
      "PS": 3349,
      "Ġdemon": 3350,
      "Ġcolumn": 3351,
      "www": 3352,
      "nection": 3353,
      "ĠMc": 3354,
      "footnote": 3355,
      "ken": 3356,
      "Ġsays": 3357,
      "\");": 3358,
      "png": 3359,
      "ustom": 3360,
      "Ġamount": 3361,
      "Ġexec": 3362,
      "Ġbeg": 3363,
      "ĠAct": 3364,
      "ĠHar": 3365,
      "Ġinequ": 3366,
      "anta": 3367,
      "Ġcontinuous": 3368,
      "ĠBo": 3369,
      "Ġcoun": 3370,
      "Ġyoung": 3371,
      "Le": 3372,
      "pers": 3373,
      "Ġshall": 3374,
      "lin": 3375,
      "Ġstory": 3376,
      "aves": 3377,
      "Ġincluded": 3378,
      "itch": 3379,
      "display": 3380,
      "Ġtook": 3381,
      "Ġbir": 3382,
      "Ġprovides": 3383,
      "model": 3384,
      "Ġ\\;": 3385,
      "Ġcut": 3386,
      "Ġpay": 3387,
      "ĠPr": 3388,
      "Ġworking": 3389,
      "Ġupper": 3390,
      "prod": 3391,
      "ĠFeb": 3392,
      "There": 3393,
      "Ġfootball": 3394,
      "Ġ$|": 3395,
      "file": 3396,
      "Ġgrad": 3397,
      "unc": 3398,
      "Ġdataset": 3399,
      "Ġsens": 3400,
      "taint": 3401,
      "Ġmember": 3402,
      "Ġscen": 3403,
      "Ġsubject": 3404,
      "Ġdiv": 3405,
      "subfigure": 3406,
      "https": 3407,
      "MS": 3408,
      "link": 3409,
      "ĠGa": 3410,
      "ĠAfric": 3411,
      "Ġcontent": 3412,
      "Ġunique": 3413,
      "}'": 3414,
      "========": 3415,
      "Ġclosed": 3416,
      "Ġtreat": 3417,
      "At": 3418,
      "acc": 3419,
      "}}_{": 3420,
      "ervice": 3421,
      "rew": 3422,
      "Ġimpact": 3423,
      "cast": 3424,
      "normal": 3425,
      "}/": 3426,
      "Ġchanges": 3427,
      "}},": 3428,
      "^{-\\": 3429,
      "Ġ(-": 3430,
      "Ġ($\\": 3431,
      "ĠLi": 3432,
      "setminus": 3433,
      "Ġratio": 3434,
      "ishing": 3435,
      "ĠNote": 3436,
      "aff": 3437,
      "icit": 3438,
      "68": 3439,
      "flo": 3440,
      "2003": 3441,
      "inst": 3442,
      "Ġdays": 3443,
      "Ġinstead": 3444,
      "Ġreported": 3445,
      "Ġflu": 3446,
      "Ġreceived": 3447,
      "Ġdifficult": 3448,
      "duc": 3449,
      "atives": 3450,
      "Ġneut": 3451,
      "Ġir": 3452,
      "Ġnational": 3453,
      "pping": 3454,
      "icro": 3455,
      "Ġconstruction": 3456,
      "fact": 3457,
      "Ġgeom": 3458,
      "Ġkind": 3459,
      "Ġdirectly": 3460,
      "Ġincreasing": 3461,
      "Ġiter": 3462,
      "ruary": 3463,
      "ĠSim": 3464,
      "body": 3465,
      "Ġsetting": 3466,
      "CD": 3467,
      "ĠII": 3468,
      "Ġdecre": 3469,
      "Ġthough": 3470,
      "ana": 3471,
      "mit": 3472,
      "Ġtaking": 3473,
      "load": 3474,
      "IR": 3475,
      "sel": 3476,
      "Ġmen": 3477,
      "oplus": 3478,
      "rown": 3479,
      "isk": 3480,
      "Ġpast": 3481,
      "Ġliter": 3482,
      "Ġresponse": 3483,
      "ession": 3484,
      "Ġaddress": 3485,
      "Ġrequest": 3486,
      "Ġactiv": 3487,
      "Ġ/**": 3488,
      "Ġgen": 3489,
      "Ph": 3490,
      "rate": 3491,
      "Ġuncer": 3492,
      "gress": 3493,
      "Ġpolicy": 3494,
      "andid": 3495,
      "Ġviol": 3496,
      "uracy": 3497,
      "rror": 3498,
      "Ġsmaller": 3499,
      "Ġwords": 3500,
      "77": 3501,
      "known": 3502,
      "Ġequivalent": 3503,
      "Ġphysical": 3504,
      "Ġproduction": 3505,
      "Ġfrequency": 3506,
      "Ġnoise": 3507,
      "command": 3508,
      "iddle": 3509,
      "\\}": 3510,
      "Ġhor": 3511,
      "ret": 3512,
      "ĠĠĠĊ": 3513,
      "Ġrank": 3514,
      "king": 3515,
      "arily": 3516,
      "ptions": 3517,
      "http": 3518,
      "Ġreleased": 3519,
      "Note": 3520,
      "nbsp": 3521,
      "Ġindust": 3522,
      "ĠHis": 3523,
      "pan": 3524,
      "Test": 3525,
      "96": 3526,
      "Ġplayed": 3527,
      "ully": 3528,
      "Ġcult": 3529,
      "Ġvir": 3530,
      "Ġmakes": 3531,
      "88": 3532,
      "Ġbecomes": 3533,
      "////": 3534,
      "igned": 3535,
      "Ġflux": 3536,
      "Ġentire": 3537,
      "dist": 3538,
      "Ġdetect": 3539,
      "ĠEd": 3540,
      "Ġmeet": 3541,
      "Ġintern": 3542,
      "aligned": 3543,
      "2022": 3544,
      "Ġrelative": 3545,
      "Ġdetails": 3546,
      "Ġchoice": 3547,
      "long": 3548,
      "tact": 3549,
      "ĠAg": 3550,
      "ided": 3551,
      "_+": 3552,
      "Ġnuc": 3553,
      "Ġcreate": 3554,
      "Ġsearch": 3555,
      "Ġaway": 3556,
      "Ġ$[": 3557,
      "Ġver": 3558,
      "AD": 3559,
      "Ġbuilding": 3560,
      "ae": 3561,
      "cil": 3562,
      "apan": 3563,
      "Ġobjects": 3564,
      "eline": 3565,
      "wedge": 3566,
      "Ġbehavior": 3567,
      "App": 3568,
      "ĠWest": 3569,
      "Ġfile": 3570,
      "Ġ$-": 3571,
      "Ġobservations": 3572,
      "sup": 3573,
      "Ġkeep": 3574,
      "allel": 3575,
      "Ġweek": 3576,
      "adem": 3577,
      "Ġbreak": 3578,
      "Ad": 3579,
      "check": 3580,
      "oud": 3581,
      "volution": 3582,
      "aul": 3583,
      "PE": 3584,
      "Ġothers": 3585,
      "Exception": 3586,
      "ething": 3587,
      "Ġleading": 3588,
      "aly": 3589,
      "Ġpolynomial": 3590,
      "ln": 3591,
      "era": 3592,
      "rices": 3593,
      "And": 3594,
      "LO": 3595,
      "ured": 3596,
      "Ġsufficient": 3597,
      "Ġsources": 3598,
      "abs": 3599,
      "ĠKing": 3600,
      "Ġfit": 3601,
      "Ġstyle": 3602,
      "bur": 3603,
      "shift": 3604,
      "uck": 3605,
      "length": 3606,
      "elling": 3607,
      "Ġproced": 3608,
      "EE": 3609,
      "));": 3610,
      "AA": 3611,
      "Ġintroduced": 3612,
      "Ġhost": 3613,
      "Wh": 3614,
      "ournal": 3615,
      "osen": 3616,
      "Ġlittle": 3617,
      "Ġcritical": 3618,
      "Ġinflu": 3619,
      "Ġbounded": 3620,
      "ĠQu": 3621,
      "Ġlanguage": 3622,
      "Ġperformed": 3623,
      "All": 3624,
      "_*": 3625,
      "Ġstudies": 3626,
      "level": 3627,
      "Ġderiv": 3628,
      "ging": 3629,
      "Ġdemonstr": 3630,
      "Ġregard": 3631,
      "ners": 3632,
      "ĠFirst": 3633,
      "uments": 3634,
      "SI": 3635,
      "*{": 3636,
      "Ġrob": 3637,
      "amilton": 3638,
      "ait": 3639,
      "ĠÐ": 3640,
      "Ġheld": 3641,
      "Qu": 3642,
      "Ġonce": 3643,
      "$_": 3644,
      "ifold": 3645,
      "Ġbroad": 3646,
      "Ġcorrect": 3647,
      "ming": 3648,
      "minist": 3649,
      "inated": 3650,
      "Ġprop": 3651,
      "Ġthings": 3652,
      "band": 3653,
      "dagger": 3654,
      "Ġhence": 3655,
      "tical": 3656,
      "mon": 3657,
      "Ġcourse": 3658,
      "New": 3659,
      "la": 3660,
      "Ġpublished": 3661,
      "oney": 3662,
      "rain": 3663,
      "Ġdetermined": 3664,
      "Ġmarket": 3665,
      "Ġadj": 3666,
      "auge": 3667,
      "aught": 3668,
      "Ġuniform": 3669,
      "limits": 3670,
      "ĠFrom": 3671,
      "ĠFebruary": 3672,
      "Ġapply": 3673,
      "istory": 3674,
      "thing": 3675,
      "Ġdraw": 3676,
      "ein": 3677,
      "vis": 3678,
      "ights": 3679,
      "Ġsense": 3680,
      "ociety": 3681,
      "Ġestablished": 3682,
      "Ġservices": 3683,
      "Ġnumbers": 3684,
      "Ġmer": 3685,
      "xy": 3686,
      "vey": 3687,
      "){": 3688,
      "ollary": 3689,
      "ĠBritish": 3690,
      "overed": 3691,
      "encies": 3692,
      "Ġallows": 3693,
      "bt": 3694,
      "fe": 3695,
      "attice": 3696,
      "Ġair": 3697,
      "_{(": 3698,
      "Ġlayer": 3699,
      "2002": 3700,
      "Ġregions": 3701,
      "\";": 3702,
      "ensions": 3703,
      "Ġhouse": 3704,
      "BC": 3705,
      "Ġagre": 3706,
      "cript": 3707,
      "url": 3708,
      "jection": 3709,
      "Ġrecogn": 3710,
      "Ġcareer": 3711,
      "Ġpolitical": 3712,
      "bre": 3713,
      "Ġconnected": 3714,
      "colon": 3715,
      "Ġelectron": 3716,
      "Ġintegral": 3717,
      "Ġgalaxies": 3718,
      "error": 3719,
      "oms": 3720,
      "ET": 3721,
      "Ġconduct": 3722,
      "Ġsmooth": 3723,
      "State": 3724,
      "Ġlocated": 3725,
      "ĠProposition": 3726,
      "ĠĠĠĠĠĠĠĠĠĠ": 3727,
      "ĠMod": 3728,
      "Ġcame": 3729,
      "ota": 3730,
      "Ġcurve": 3731,
      "Ġpattern": 3732,
      "black": 3733,
      "Ġbegan": 3734,
      "itz": 3735,
      "definition": 3736,
      "ondon": 3737,
      "can": 3738,
      "Object": 3739,
      "ĠSci": 3740,
      "avy": 3741,
      "Ġfri": 3742,
      "imate": 3743,
      "Ġtypes": 3744,
      "Ġess": 3745,
      "ĠLa": 3746,
      "Ġperm": 3747,
      "Ġcenter": 3748,
      "rs": 3749,
      "ellar": 3750,
      "Ġlot": 3751,
      "atory": 3752,
      "ĠString": 3753,
      "Ġrow": 3754,
      "Ġ\\(": 3755,
      "bul": 3756,
      "olic": 3757,
      "Ġchannel": 3758,
      "anced": 3759,
      "ication": 3760,
      "Ġemission": 3761,
      "Ġlikely": 3762,
      "change": 3763,
      "Ġvertex": 3764,
      "Ġcompact": 3765,
      "ilitary": 3766,
      "Ġoptimal": 3767,
      "using": 3768,
      "2001": 3769,
      "Ġinteraction": 3770,
      "Get": 3771,
      "Ġnodes": 3772,
      "ĠOur": 3773,
      "Ġinfin": 3774,
      "spec": 3775,
      "ponent": 3776,
      "Ġshift": 3777,
      "Ġoperators": 3778,
      "Ġembedd": 3779,
      "ackage": 3780,
      "Ġbuilt": 3781,
      "ario": 3782,
      "vant": 3783,
      "}}(\\": 3784,
      "Ġframework": 3785,
      "irect": 3786,
      "Ġ|\\": 3787,
      "Ġdiagram": 3788,
      "Class": 3789,
      "Ġpercent": 3790,
      "quot": 3791,
      "57": 3792,
      "Ġax": 3793,
      "Ġmention": 3794,
      "Ġparticip": 3795,
      "ĠPresident": 3796,
      "Ġuncertaint": 3797,
      "ĠEl": 3798,
      "Ġang": 3799,
      "Ġrespons": 3800,
      "Or": 3801,
      "bert": 3802,
      "Ġparent": 3803,
      "Ġtakes": 3804,
      "ington": 3805,
      "di": 3806,
      "ĉĉĉĉĉ": 3807,
      "Ġstation": 3808,
      "ansion": 3809,
      "Ġgames": 3810,
      "input": 3811,
      "nav": 3812,
      "See": 3813,
      "Ġarchitect": 3814,
      "Ġsubset": 3815,
      "ĠMon": 3816,
      "Ġsoft": 3817,
      "Ġnov": 3818,
      "ccording": 3819,
      "Ġdeveloped": 3820,
      "Ġmiss": 3821,
      "perp": 3822,
      "Ġjob": 3823,
      "Ġsamples": 3824,
      "ĠDav": 3825,
      "Ġvariable": 3826,
      "Ġnews": 3827,
      "Ġbody": 3828,
      "Ġcreated": 3829,
      "ropy": 3830,
      "dapt": 3831,
      "Ġdiscussed": 3832,
      "ffer": 3833,
      "Ġpers": 3834,
      "_{{\\": 3835,
      "ampions": 3836,
      "Ġsymmetry": 3837,
      "Ġexplicit": 3838,
      "Ġarm": 3839,
      "curity": 3840,
      "Ġsomething": 3841,
      "Ġillust": 3842,
      "eli": 3843,
      "Ġsett": 3844,
      "otic": 3845,
      "Ġcandid": 3846,
      "ises": 3847,
      "Ġformula": 3848,
      "Ġmaps": 3849,
      "Ġsite": 3850,
      "ashed": 3851,
      "Ġexperiments": 3852,
      "Net": 3853,
      "urs": 3854,
      "pc": 3855,
      "ogle": 3856,
      "ĠPe": 3857,
      "87": 3858,
      "pret": 3859,
      "usion": 3860,
      "Ġapproximation": 3861,
      "do": 3862,
      "FF": 3863,
      "Ð¾": 3864,
      "turb": 3865,
      "Ġ///": 3866,
      "ender": 3867,
      "LA": 3868,
      "Ġgot": 3869,
      "Ġtable": 3870,
      "ĠEnglish": 3871,
      "500": 3872,
      "ĠInt": 3873,
      "ribute": 3874,
      "ford": 3875,
      "Ġnegative": 3876,
      "Ġpeak": 3877,
      "().": 3878,
      "ops": 3879,
      "Ġdynamics": 3880,
      "Ġapplication": 3881,
      "Ġsatisfies": 3882,
      "Ġtrack": 3883,
      "Bl": 3884,
      "year": 3885,
      ".)": 3886,
      "ager": 3887,
      "Ġnecessary": 3888,
      "Ġmult": 3889,
      "Ġscheme": 3890,
      "ranch": 3891,
      "Ġ}\\": 3892,
      "PT": 3893,
      "perty": 3894,
      "det": 3895,
      "Ġcapt": 3896,
      "ĠCour": 3897,
      "Ġarbit": 3898,
      "={": 3899,
      "Not": 3900,
      "ditional": 3901,
      "main": 3902,
      "Ġtransfer": 3903,
      "ips": 3904,
      "Ġbenef": 3905,
      "ama": 3906,
      "book": 3907,
      ":\\": 3908,
      "|-": 3909,
      "ĠSer": 3910,
      "lier": 3911,
      "ha": 3912,
      "multi": 3913,
      "Ġitself": 3914,
      "public": 3915,
      "Ġaccuracy": 3916,
      "En": 3917,
      ")\\,": 3918,
      "hand": 3919,
      "ĠDist": 3920,
      "MA": 3921,
      "crete": 3922,
      "Ġ!=": 3923,
      "\\'": 3924,
      "ĠGl": 3925,
      "Ġobser": 3926,
      "Ġresulting": 3927,
      "textsc": 3928,
      "Ġproduced": 3929,
      "ĠPer": 3930,
      "Ġwhole": 3931,
      "rier": 3932,
      "acity": 3933,
      "hel": 3934,
      "forall": 3935,
      "mag": 3936,
      "Ġund": 3937,
      "Ġbar": 3938,
      "ĠHouse": 3939,
      "rench": 3940,
      "ĠNe": 3941,
      "When": 3942,
      "Ġsimply": 3943,
      "One": 3944,
      "Ġclassical": 3945,
      "pecially": 3946,
      "Ġvideo": 3947,
      "Ġnetworks": 3948,
      ")}(": 3949,
      "js": 3950,
      "ĠAmerica": 3951,
      "Ġcompan": 3952,
      "Ġdest": 3953,
      "ĠÂ": 3954,
      "ĠJapan": 3955,
      "56": 3956,
      "Ġgrav": 3957,
      "iet": 3958,
      "Ġforce": 3959,
      "ĠArm": 3960,
      "ĠHere": 3961,
      "OT": 3962,
      "ĠCollege": 3963,
      "Ġsimulations": 3964,
      "Ġspat": 3965,
      "endix": 3966,
      "ese": 3967,
      "}$-": 3968,
      "rivial": 3969,
      "yl": 3970,
      "Ġnamed": 3971,
      "{$\\": 3972,
      "});": 3973,
      "ridge": 3974,
      "asks": 3975,
      "Ġstarted": 3976,
      "ratic": 3977,
      "Ġseg": 3978,
      ")^{\\": 3979,
      "empty": 3980,
      "ĠLondon": 3981,
      "Ġaccept": 3982,
      "Ġinterval": 3983,
      "ĠInternational": 3984,
      "Ġknowledge": 3985,
      "SC": 3986,
      "ĠAb": 3987,
      "inci": 3988,
      "subsubsection": 3989,
      "ores": 3990,
      "58": 3991,
      "Ġdeep": 3992,
      "Ġgoal": 3993,
      "View": 3994,
      "inos": 3995,
      "Ġadded": 3996,
      "Ġask": 3997,
      "SP": 3998,
      "illed": 3999,
      "Ġneeded": 4000,
      "Ġperturb": 4001,
      "Ġtown": 4002,
      "Ġparticles": 4003,
      "ĠHence": 4004,
      "But": 4005,
      "Ġexpression": 4006,
      "icles": 4007,
      "\"></": 4008,
      "icon": 4009,
      "oding": 4010,
      "ĠMark": 4011,
      "Ġop": 4012,
      "_{-": 4013,
      "aring": 4014,
      "'\\": 4015,
      "Ġincludes": 4016,
      "Equ": 4017,
      "FT": 4018,
      "Ġinequality": 4019,
      "ivil": 4020,
      "Ġdocument": 4021,
      "ements": 4022,
      "Ġnumerical": 4023,
      "ensive": 4024,
      "Ġdeal": 4025,
      "Now": 4026,
      "Ġcomparison": 4027,
      "=(": 4028,
      "Ġresid": 4029,
      "Ġminim": 4030,
      "aged": 4031,
      "Ġparticle": 4032,
      "Ġradius": 4033,
      "Ġpref": 4034,
      "Ġinc": 4035,
      "Ġassert": 4036,
      "ĠĠĠĠĠĠĠĠĠĠĠĠ": 4037,
      "berg": 4038,
      "ĠChar": 4039,
      "Ġvan": 4040,
      "ĠAm": 4041,
      "Ġrepl": 4042,
      "Ġexperience": 4043,
      "deg": 4044,
      "Ġtele": 4045,
      "Ġclasses": 4046,
      "Ġidea": 4047,
      "Ġpolar": 4048,
      "ands": 4049,
      "Ġissue": 4050,
      "'_": 4051,
      "umb": 4052,
      "isc": 4053,
      "fficients": 4054,
      "ued": 4055,
      "sto": 4056,
      "Ġwhy": 4057,
      "Error": 4058,
      "Ġmotion": 4059,
      "Ġmode": 4060,
      "Ġstudied": 4061,
      "Ġalign": 4062,
      "Ġspectral": 4063,
      "ites": 4064,
      ")_{": 4065,
      "ills": 4066,
      "ML": 4067,
      "Ġpanel": 4068,
      "Ġattempt": 4069,
      "Ġmagn": 4070,
      "Ġdecision": 4071,
      "Ġparts": 4072,
      "Ġensure": 4073,
      "cases": 4074,
      "Eq": 4075,
      "atus": 4076,
      "Time": 4077,
      "Ġcontribution": 4078,
      "Ġstreng": 4079,
      "Ġmeasured": 4080,
      "Ġsuccessful": 4081,
      "ĠTr": 4082,
      "Ġcoupling": 4083,
      "ĠCoun": 4084,
      "height": 4085,
      "sol": 4086,
      "Ġactually": 4087,
      "artment": 4088,
      ")/": 4089,
      "Ġinternational": 4090,
      "Ġmedia": 4091,
      ".</": 4092,
      "ĠHamilton": 4093,
      "rie": 4094,
      "Ġcompute": 4095,
      "ellow": 4096,
      "stack": 4097,
      "ayer": 4098,
      "Ġderived": 4099,
      "Ġneeds": 4100,
      "ĠPark": 4101,
      "Ġvertices": 4102,
      "US": 4103,
      "osed": 4104,
      "Ġconsequ": 4105,
      "ĠHer": 4106,
      "Ġwent": 4107,
      "isation": 4108,
      "Ġminimum": 4109,
      "``": 4110,
      "Ġtherm": 4111,
      "());": 4112,
      "Ġuses": 4113,
      "ened": 4114,
      "Ġarray": 4115,
      "Ge": 4116,
      "MC": 4117,
      "Ġareas": 4118,
      "ĠBro": 4119,
      "Ġfun": 4120,
      "Key": 4121,
      "Ġfall": 4122,
      "Ġremains": 4123,
      "reshold": 4124,
      "Ġprofess": 4125,
      "Ġlat": 4126,
      "Tr": 4127,
      "summary": 4128,
      "Ġgauge": 4129,
      "ls": 4130,
      "izations": 4131,
      "Ġ+\\": 4132,
      "Ġthought": 4133,
      "Sim": 4134,
      "Ġnorm": 4135,
      "ĠAir": 4136,
      "oring": 4137,
      "Ġleads": 4138,
      "ĠTrans": 4139,
      "flow": 4140,
      "!--": 4141,
      "Ġmechanism": 4142,
      "Ġissues": 4143,
      "Ġspecies": 4144,
      "que": 4145,
      "ĠStud": 4146,
      "utive": 4147,
      "Ġled": 4148,
      "Ġespecially": 4149,
      "93": 4150,
      "war": 4151,
      "Ġmomentum": 4152,
      "Ġremov": 4153,
      "ĠAng": 4154,
      "ĠMoreover": 4155,
      "gra": 4156,
      "Ġreference": 4157,
      "Ġassumption": 4158,
      "Ġchain": 4159,
      "OS": 4160,
      "ĠHigh": 4161,
      "Ġofficial": 4162,
      "Ġeffort": 4163,
      "iation": 4164,
      "ĠWilliam": 4165,
      "oon": 4166,
      "run": 4167,
      "itte": 4168,
      "ĠWhile": 4169,
      "Here": 4170,
      "\\!\\!": 4171,
      "ief": 4172,
      "isions": 4173,
      "apping": 4174,
      "Ġinteresting": 4175,
      "HE": 4176,
      "Ġcentury": 4177,
      "Ġadopt": 4178,
      "Ġround": 4179,
      "urthermore": 4180,
      "Ġgre": 4181,
      "Ġadapt": 4182,
      "aging": 4183,
      "ĠVal": 4184,
      "}%": 4185,
      "Ġupon": 4186,
      "Ġchosen": 4187,
      "Ġaltern": 4188,
      "Ġcorresponds": 4189,
      "78": 4190,
      "UT": 4191,
      "Ġhyp": 4192,
      "resents": 4193,
      "Im": 4194,
      ",\\,": 4195,
      "Ġpopular": 4196,
      "Our": 4197,
      "Is": 4198,
      "IG": 4199,
      "cial": 4200,
      "Ġyet": 4201,
      "pmatrix": 4202,
      "iforn": 4203,
      "Ġspeed": 4204,
      "92": 4205,
      ")\\\\": 4206,
      "Ġtax": 4207,
      "Ġcharge": 4208,
      "Ġreduced": 4209,
      "Ġsupported": 4210,
      "Ġexpress": 4211,
      "true": 4212,
      "ĠSystem": 4213,
      "ids": 4214,
      "vex": 4215,
      "ols": 4216,
      "local": 4217,
      "Ġfeel": 4218,
      "Ġcluster": 4219,
      "Ġrights": 4220,
      "ancial": 4221,
      "Ġbring": 4222,
      "Ġreach": 4223,
      "Man": 4224,
      "~$\\": 4225,
      "Ġmeasurements": 4226,
      "riate": 4227,
      "ĠTra": 4228,
      "ĠCont": 4229,
      "Ġtree": 4230,
      "ached": 4231,
      "Ġchoose": 4232,
      "Ġpresence": 4233,
      "ously": 4234,
      "Ġfilms": 4235,
      "=-": 4236,
      "Ġfigure": 4237,
      "ĠMy": 4238,
      "Ġgain": 4239,
      "PR": 4240,
      "Over": 4241,
      "ĠDo": 4242,
      "irm": 4243,
      "estern": 4244,
      "Ġrule": 4245,
      "etic": 4246,
      "ederal": 4247,
      "UR": 4248,
      "Ġdetection": 4249,
      "^{+": 4250,
      "._": 4251,
      "Ġcos": 4252,
      "Ð°": 4253,
      "atal": 4254,
      "Ġlate": 4255,
      "Ġonline": 4256,
      "ĠChe": 4257,
      "Ġevidence": 4258,
      "ĠRef": 4259,
      "Sy": 4260,
      "Ġconstraints": 4261,
      "Ġword": 4262,
      "remark": 4263,
      "Ġstage": 4264,
      "Ġsimpl": 4265,
      "ening": 4266,
      "}^*": 4267,
      "inct": 4268,
      "ifornia": 4269,
      "Ġimmedi": 4270,
      "stitute": 4271,
      "range": 4272,
      "Ġdecay": 4273,
      "dim": 4274,
      "Ġexamples": 4275,
      "Ġstructures": 4276,
      "ecause": 4277,
      "Ġamplit": 4278,
      "Ġrequires": 4279,
      "Ðµ": 4280,
      "Ġtoday": 4281,
      "Ġconsistent": 4282,
      "Form": 4283,
      "born": 4284,
      "Ġfraction": 4285,
      "hom": 4286,
      "Ġcoefficients": 4287,
      "\":": 4288,
      "\\_": 4289,
      "pite": 4290,
      "ĠComp": 4291,
      "Ġselected": 4292,
      "Ġsimulation": 4293,
      "}}^": 4294,
      "ĠChina": 4295,
      "ĠLeague": 4296,
      "rang": 4297,
      "Ġengine": 4298,
      "Ġhyper": 4299,
      "column": 4300,
      "Ġgrowth": 4301,
      "ppose": 4302,
      "More": 4303,
      "Ġcontract": 4304,
      "However": 4305,
      "Ġlattice": 4306,
      "ĠCenter": 4307,
      "$).": 4308,
      "../../../../": 4309,
      "ĠEuropean": 4310,
      "ĠDi": 4311,
      "ympt": 4312,
      "nov": 4313,
      "Ġhistor": 4314,
      "Ġdescribe": 4315,
      "Ġord": 4316,
      "ĠMich": 4317,
      "Ġquality": 4318,
      "ifying": 4319,
      "ĠIndia": 4320,
      "Ġlive": 4321,
      "Ġforward": 4322,
      "Ã¡": 4323,
      "ĠCons": 4324,
      "ingu": 4325,
      "Ġargument": 4326,
      "Ġedges": 4327,
      "Ġconcept": 4328,
      "Ġplane": 4329,
      "ounced": 4330,
      "simeq": 4331,
      "76": 4332,
      "Ġcountries": 4333,
      "Ġlargest": 4334,
      "ponse": 4335,
      "bullet": 4336,
      "Ġcharg": 4337,
      "Ġinterpret": 4338,
      "ernel": 4339,
      "Ġorbit": 4340,
      "0000": 4341,
      "Ġdistributions": 4342,
      "Ġmix": 4343,
      "Ġdenotes": 4344,
      "ns": 4345,
      "1999": 4346,
      ")^{-": 4347,
      "Ġflo": 4348,
      "Ġdecom": 4349,
      "94": 4350,
      "||": 4351,
      "Ġcomes": 4352,
      "iny": 4353,
      "DF": 4354,
      "Ġcr": 4355,
      ")}{\\": 4356,
      "Ġserved": 4357,
      "Ġborn": 4358,
      "Figure": 4359,
      "Ġactive": 4360,
      "Ġnature": 4361,
      "Ġexperiment": 4362,
      "leg": 4363,
      "Ġexpansion": 4364,
      "ION": 4365,
      "attle": 4366,
      "Ġdouble": 4367,
      "Ġstrategy": 4368,
      "zero": 4369,
      "ĠCourt": 4370,
      "ĠLaw": 4371,
      "Ġadm": 4372,
      "Ġsampl": 4373,
      "Ġprocesses": 4374,
      "Ġcalculated": 4375,
      "cho": 4376,
      "inv": 4377,
      "Ġconcern": 4378,
      "ura": 4379,
      "Ġfully": 4380,
      "86": 4381,
      "PC": 4382,
      "Ġdecl": 4383,
      "Ġalgorithms": 4384,
      "51": 4385,
      "Ġfactors": 4386,
      "Ġplayer": 4387,
      "Ġmach": 4388,
      "iques": 4389,
      "Ġlatter": 4390,
      "52": 4391,
      "Ġprocedure": 4392,
      "ĠNot": 4393,
      "Ġrepresents": 4394,
      "Ġstatement": 4395,
      "Ġimp": 4396,
      "Ġalthough": 4397,
      "Requ": 4398,
      "itions": 4399,
      "Ġoutside": 4400,
      "Ġdim": 4401,
      "\\|_{": 4402,
      "TR": 4403,
      "graph": 4404,
      "Ġestimated": 4405,
      "ĠAssoci": 4406,
      "Ġdetermine": 4407,
      "agraph": 4408,
      "Ġbox": 4409,
      "})$.": 4410,
      "ĠDepartment": 4411,
      "roduction": 4412,
      "mc": 4413,
      "Ġrelevant": 4414,
      "Def": 4415,
      "54": 4416,
      "Ġavoid": 4417,
      "Ġtowards": 4418,
      "Ġlimited": 4419,
      "$(": 4420,
      "){\\": 4421,
      "Ġeducation": 4422,
      "Ġaim": 4423,
      "Ġproper": 4424,
      "Theorem": 4425,
      "Ġsteps": 4426,
      "van": 4427,
      "Ġexhib": 4428,
      "Ġattention": 4429,
      "iency": 4430,
      "zz": 4431,
      ")$-": 4432,
      "Americ": 4433,
      "=\"+": 4434,
      "Ġlevels": 4435,
      "ogene": 4436,
      "iting": 4437,
      "selves": 4438,
      "Ġshape": 4439,
      "Ġface": 4440,
      "ĠGovern": 4441,
      "Ġvolume": 4442,
      "Ġlocation": 4443,
      "Ġdark": 4444,
      "\\\"": 4445,
      "hest": 4446,
      "Ġapplications": 4447,
      "Ġspaces": 4448,
      "SO": 4449,
      "ky": 4450,
      "Ġresolution": 4451,
      "Ġrecently": 4452,
      "block": 4453,
      "paramet": 4454,
      "File": 4455,
      "Ġdual": 4456,
      "Ġcourt": 4457,
      "Trans": 4458,
      "Ġlonger": 4459,
      "Ġoperation": 4460,
      "neg": 4461,
      "Ġexperimental": 4462,
      "53": 4463,
      "ĠCalifornia": 4464,
      "atform": 4465,
      "mapsto": 4466,
      "Ġquas": 4467,
      "Ġdepends": 4468,
      "Ġinvolved": 4469,
      "$$\\": 4470,
      "olean": 4471,
      "undle": 4472,
      "After": 4473,
      "Ġded": 4474,
      "ĠEngland": 4475,
      "Ġessential": 4476,
      "Ġextended": 4477,
      "Ġemer": 4478,
      "oph": 4479,
      "$^{-": 4480,
      "Ġrates": 4481,
      "Ġeasily": 4482,
      "Ġhttps": 4483,
      "ship": 4484,
      "Ġaud": 4485,
      "uses": 4486,
      "user": 4487,
      "Ġblue": 4488,
      "omb": 4489,
      "ifier": 4490,
      "Ġsuff": 4491,
      "Ġvers": 4492,
      "91": 4493,
      ".$": 4494,
      "Ġtensor": 4495,
      "Ġreve": 4496,
      "Ġchalleng": 4497,
      "matrix": 4498,
      "Ġwhite": 4499,
      "Ġcorrelation": 4500,
      "oul": 4501,
      "Ġclub": 4502,
      "((": 4503,
      "Ġagreement": 4504,
      "(),": 4505,
      "Ġmarg": 4506,
      "Ġapproaches": 4507,
      "ĠRepublic": 4508,
      "Text": 4509,
      "Ġpresident": 4510,
      "desc": 4511,
      "Ġidentity": 4512,
      "Ġuseful": 4513,
      "ples": 4514,
      "Ġcollection": 4515,
      "Ġcomputed": 4516,
      "Ġexactly": 4517,
      "Ġones": 4518,
      "Ġcurves": 4519,
      "Ġcontrast": 4520,
      "ades": 4521,
      "Ġbit": 4522,
      "bin": 4523,
      "Ġansw": 4524,
      "ĠVol": 4525,
      "Ġfav": 4526,
      "Ġachieve": 4527,
      "ilib": 4528,
      "Ġmonths": 4529,
      "Ġscalar": 4530,
      "uthor": 4531,
      "Ġprinci": 4532,
      "values": 4533,
      "config": 4534,
      "}}^{": 4535,
      "Ġ=\\": 4536,
      "Ġusually": 4537,
      "ker": 4538,
      "Ġsymbol": 4539,
      "Ġoperations": 4540,
      "atur": 4541,
      "Ġautom": 4542,
      "dered": 4543,
      "Ġ?": 4544,
      "Ġincreases": 4545,
      "Ġeasy": 4546,
      "Event": 4547,
      "ĠSan": 4548,
      "');": 4549,
      "Ġheight": 4550,
      "orge": 4551,
      "1998": 4552,
      "mes": 4553,
      "AG": 4554,
      "Ġhol": 4555,
      "Ġquite": 4556,
      "inf": 4557,
      ".~(\\": 4558,
      "word": 4559,
      "No": 4560,
      "case": 4561,
      "Ġcategory": 4562,
      "asons": 4563,
      "ĠEar": 4564,
      "Ġscatter": 4565,
      "iers": 4566,
      "Ġfront": 4567,
      "Ġintroduce": 4568,
      "ĠFrench": 4569,
      "rief": 4570,
      "dro": 4571,
      "First": 4572,
      "Ġdri": 4573,
      "Ġsolid": 4574,
      "ĠCouncil": 4575,
      "paign": 4576,
      "bsite": 4577,
      "ĠGaussian": 4578,
      "eler": 4579,
      "Ġ-->": 4580,
      "ares": 4581,
      "Ġcontinue": 4582,
      "md": 4583,
      "Ġrisk": 4584,
      "Ġnovel": 4585,
      "Ġallowed": 4586,
      "Ġclassification": 4587,
      "dx": 4588,
      "Table": 4589,
      "Ġoverall": 4590,
      "Ġcontroll": 4591,
      "itable": 4592,
      "hips": 4593,
      "Ġsignificantly": 4594,
      "rat": 4595,
      "Ġstellar": 4596,
      "Ġusers": 4597,
      "63": 4598,
      "Of": 4599,
      "tik": 4600,
      "valid": 4601,
      "Ġever": 4602,
      "gu": 4603,
      "ipal": 4604,
      "fil": 4605,
      "Ġfather": 4606,
      "ĠDem": 4607,
      "ittee": 4608,
      "Ġbelong": 4609,
      "Ġradio": 4610,
      "Ġsound": 4611,
      "abilities": 4612,
      "Ġorigin": 4613,
      "Ġangle": 4614,
      "ĠAc": 4615,
      "proposition": 4616,
      "Ġconsists": 4617,
      "Ġframe": 4618,
      "Field": 4619,
      "ios": 4620,
      "Ġopportun": 4621,
      "']": 4622,
      "ĠNow": 4623,
      "72": 4624,
      "cons": 4625,
      "Ġworked": 4626,
      "LS": 4627,
      "Ġdescription": 4628,
      "Thus": 4629,
      "ees": 4630,
      "object": 4631,
      "mini": 4632,
      "Ġestimates": 4633,
      "Ġcustom": 4634,
      "['": 4635,
      "ĠHol": 4636,
      "Ġjud": 4637,
      "Ġconvergence": 4638,
      "Ġspatial": 4639,
      "prob": 4640,
      "Ġselect": 4641,
      "hy": 4642,
      "vol": 4643,
      "fect": 4644,
      "Ġdied": 4645,
      "Ġpressure": 4646,
      "free": 4647,
      "Ġdefault": 4648,
      "useum": 4649,
      "cref": 4650,
      "Ġformation": 4651,
      "ĠEast": 4652,
      "ĠIndian": 4653,
      "ibrary": 4654,
      "Ġarticle": 4655,
      "Ġshare": 4656,
      "Ġcompanies": 4657,
      "Ġspectra": 4658,
      "Ġestablish": 4659,
      "TE": 4660,
      "example": 4661,
      "Ġthroughout": 4662,
      "Ġconnection": 4663,
      "rows": 4664,
      "Ġapprop": 4665,
      "Ġexistence": 4666,
      "Ġmilitary": 4667,
      "hesis": 4668,
      "ara": 4669,
      "Ġsituation": 4670,
      "odot": 4671,
      "ĠPo": 4672,
      "':": 4673,
      "SU": 4674,
      "Ġdisplay": 4675,
      "Ġmemory": 4676,
      "Ġmoney": 4677,
      "89": 4678,
      "Model": 4679,
      "Ġdate": 4680,
      "hern": 4681,
      "acing": 4682,
      "ashington": 4683,
      "Ġslow": 4684,
      "Ġinside": 4685,
      "ĠBu": 4686,
      "uls": 4687,
      "CH": 4688,
      "apter": 4689,
      "Ġlove": 4690,
      "Ġinvariant": 4691,
      "Ġforms": 4692,
      "istry": 4693,
      "IF": 4694,
      "\\{\\": 4695,
      "tikz": 4696,
      "Ġpractice": 4697,
      "Add": 4698,
      "Ġexcept": 4699,
      "Ġstra": 4700,
      "rice": 4701,
      "ico": 4702,
      "lt": 4703,
      "alg": 4704,
      "ĠResearch": 4705,
      "Ġthreshold": 4706,
      "Ġpairs": 4707,
      "Ġparty": 4708,
      "ĠRet": 4709,
      "ĠGod": 4710,
      "Ġtransport": 4711,
      "mma": 4712,
      "ĠGeneral": 4713,
      "Ġcurrently": 4714,
      "Ġ/>": 4715,
      "Sub": 4716,
      "arp": 4717,
      "Ġimm": 4718,
      "pport": 4719,
      "Path": 4720,
      "Ġdig": 4721,
      "Ġtalk": 4722,
      "Ġsymmetric": 4723,
      "Ġmatrices": 4724,
      "$;": 4725,
      "omorphic": 4726,
      "ĠWhat": 4727,
      "ba": 4728,
      "Ġ~": 4729,
      "59": 4730,
      "84": 4731,
      "Ġgradu": 4732,
      "Ġson": 4733,
      "rees": 4734,
      "MM": 4735,
      "base": 4736,
      "Ġquad": 4737,
      "result": 4738,
      "Ġgenerally": 4739,
      "etimes": 4740,
      "Out": 4741,
      "ils": 4742,
      "oder": 4743,
      "tual": 4744,
      "Ġprofile": 4745,
      "Ġrules": 4746,
      "cs": 4747,
      "}&": 4748,
      "Ġselection": 4749,
      "ube": 4750,
      "Ġarbitrary": 4751,
      "Ġqual": 4752,
      "Ġcontact": 4753,
      "Ġmis": 4754,
      "ilibri": 4755,
      "Ġcore": 4756,
      "Ġindustry": 4757,
      "Ġvill": 4758,
      "Ġslight": 4759,
      "Ġdriv": 4760,
      "plate": 4761,
      "ĠGerman": 4762,
      "ifically": 4763,
      "nes": 4764,
      "ida": 4765,
      "](": 4766,
      "ĠBlack": 4767,
      "82": 4768,
      "rd": 4769,
      "ael": 4770,
      "Ġobserve": 4771,
      "Ġ);": 4772,
      "ags": 4773,
      "cles": 4774,
      "Ġcircle": 4775,
      "Ġdistrict": 4776,
      "Ġmessage": 4777,
      "picture": 4778,
      "ING": 4779,
      "Ġexisting": 4780,
      "ĠDes": 4781,
      "Ġliterature": 4782,
      ")},": 4783,
      "tri": 4784,
      "Ġdependence": 4785,
      "Ġauthors": 4786,
      "ĠPal": 4787,
      "Ġconfiguration": 4788,
      "Ġcomputation": 4789,
      "American": 4790,
      "arant": 4791,
      "Ġ&=&": 4792,
      "Ġhoriz": 4793,
      "'(": 4794,
      "++": 4795,
      "|_{": 4796,
      "next": 4797,
      "Ġhon": 4798,
      "Ġextract": 4799,
      "Ġappears": 4800,
      "Ġrunning": 4801,
      "efore": 4802,
      "inant": 4803,
      "Ġrelationship": 4804,
      "Ġstarting": 4805,
      "Ġsingular": 4806,
      "NR": 4807,
      "lease": 4808,
      "Ġstri": 4809,
      "antic": 4810,
      "Ġconnect": 4811,
      "ĠGo": 4812,
      "Ġpersonal": 4813,
      "mage": 4814,
      "Be": 4815,
      "Ġleaders": 4816,
      "idden": 4817,
      "Ġtheore": 4818,
      "Ġmodes": 4819,
      "Ġpage": 4820,
      "rig": 4821,
      "newcommand": 4822,
      "ĠUK": 4823,
      "core": 4824,
      "tem": 4825,
      "Ġerrors": 4826,
      "Ġpie": 4827,
      "SM": 4828,
      "Att": 4829,
      "ĠMor": 4830,
      "Ð¸": 4831,
      "62": 4832,
      "izer": 4833,
      "rab": 4834,
      "73": 4835,
      "Ġyields": 4836,
      "Ġtold": 4837,
      "Ġconstit": 4838,
      "Ġextension": 4839,
      "Ġdidn": 4840,
      "Ġconserv": 4841,
      "}{|": 4842,
      "acher": 4843,
      "Ġpropag": 4844,
      "_-": 4845,
      "Ġadminist": 4846,
      "nowled": 4847,
      "minipage": 4848,
      "ĠChurch": 4849,
      "Ġdisk": 4850,
      "Ġasympt": 4851,
      "Ġexpand": 4852,
      "1990": 4853,
      "Sp": 4854,
      "Ġsold": 4855,
      "Ġsus": 4856,
      ")+\\": 4857,
      "Ġacqu": 4858,
      "Ġdesigned": 4859,
      "Ġmid": 4860,
      "reet": 4861,
      "Ġpreviously": 4862,
      "rame": 4863,
      "Ġsquare": 4864,
      "Ġcounter": 4865,
      "ĠĠĠĠĠĠĠĠĠĠĠĠĠĠĠĠĠĠĠĠĠĠĠĠĠĠĠ": 4866,
      "Ġtell": 4867,
      "uations": 4868,
      "Ġsubsequ": 4869,
      "ride": 4870,
      "prot": 4871,
      "spect": 4872,
      "Ġfollowed": 4873,
      "olar": 4874,
      "Ġball": 4875,
      "83": 4876,
      "Ġconsum": 4877,
      "ĠScience": 4878,
      "Ġproducts": 4879,
      "ĠPaul": 4880,
      "Ġ$$": 4881,
      "amental": 4882,
      "CE": 4883,
      "Ġrepresented": 4884,
      "Ġmeasures": 4885,
      "Ġrelease": 4886,
      ")_": 4887,
      "ĠSet": 4888,
      "den": 4889,
      "century": 4890,
      "Ġmole": 4891,
      "Ġcompare": 4892,
      "Ġefficient": 4893,
      "Ġsecurity": 4894,
      "Ġseems": 4895,
      "Ġmeaning": 4896,
      "mission": 4897,
      "ĠSen": 4898,
      "Ġsure": 4899,
      "Ġearlier": 4900,
      "LP": 4901,
      "force": 4902,
      "oe": 4903,
      "ĠBer": 4904,
      "Ġproduce": 4905,
      "Ġmaintain": 4906,
      "content": 4907,
      "$~": 4908,
      "Ġreconst": 4909,
      "61": 4910,
      "So": 4911,
      "}{(": 4912,
      "pg": 4913,
      "ymm": 4914,
      "comple": 4915,
      "ned": 4916,
      "print": 4917,
      "Ġdoing": 4918,
      "uting": 4919,
      "Ġstable": 4920,
      "Ġunits": 4921,
      "well": 4922,
      "ĠAustralia": 4923,
      "Ġbeam": 4924,
      "........": 4925,
      "}}$,": 4926,
      "Ġprimary": 4927,
      "/**": 4928,
      "anks": 4929,
      "ka": 4930,
      "ponential": 4931,
      "lands": 4932,
      "title": 4933,
      "ĠSw": 4934,
      "Ġbasic": 4935,
      "blue": 4936,
      "Ġaffect": 4937,
      "stant": 4938,
      ")-\\": 4939,
      "ĠDavid": 4940,
      "Ġ${": 4941,
      "Ġinteractions": 4942,
      "roy": 4943,
      "1997": 4944,
      "uel": 4945,
      "'}": 4946,
      "gt": 4947,
      "End": 4948,
      "Reg": 4949,
      "Ġcommand": 4950,
      "Ġaccom": 4951,
      "1996": 4952,
      "ĠHealth": 4953,
      "Ġexam": 4954,
      "Bar": 4955,
      "Ġmoved": 4956,
      "Ġthing": 4957,
      "Ġgenerate": 4958,
      "Ġreduce": 4959,
      "Ġwindow": 4960,
      "amespace": 4961,
      "Ġidentified": 4962,
      "reedom": 4963,
      "Ġvectors": 4964,
      "vention": 4965,
      "pty": 4966,
      "Index": 4967,
      "/*": 4968,
      "Pe": 4969,
      "bottom": 4970,
      "Hz": 4971,
      "rote": 4972,
      "rec": 4973,
      "Ġcollect": 4974,
      "Ġdiscussion": 4975,
      "Ġseem": 4976,
      "cong": 4977,
      "produ": 4978,
      "Ġoptimization": 4979,
      "char": 4980,
      "ville": 4981,
      "[]": 4982,
      "Ġfight": 4983,
      "ĠBay": 4984,
      "Ġmeasurement": 4985,
      "GL": 4986,
      "ocol": 4987,
      "})$,": 4988,
      "Ġdirector": 4989,
      "Ġri": 4990,
      "overy": 4991,
      "Ġinternal": 4992,
      "Ġtasks": 4993,
      "Ġaward": 4994,
      "ĠSm": 4995,
      "Ġlost": 4996,
      "Ġtechniques": 4997,
      "NS": 4998,
      "Ġmentioned": 4999,
      "ĠInstitute": 5000,
      "Ġcontributions": 5001,
      "Me": 5002,
      "ĠWashington": 5003,
      "Ġbehind": 5004,
      "Ġsm": 5005,
      "ulate": 5006,
      "Ġbelieve": 5007,
      "Ġmorph": 5008,
      "ĠDr": 5009,
      "ini": 5010,
      "elt": 5011,
      "Ġplot": 5012,
      "Ġtravel": 5013,
      "active": 5014,
      "oto": 5015,
      "displaystyle": 5016,
      "Ġannounced": 5017,
      "ĠDistrict": 5018,
      "rian": 5019,
      "81": 5020,
      "writ": 5021,
      "Request": 5022,
      "Ġ]": 5023,
      "Ġfix": 5024,
      "ilibrium": 5025,
      "Ġhighly": 5026,
      "}}$.": 5027,
      "Ġ},": 5028,
      "Ġanalog": 5029,
      "cd": 5030,
      "reme": 5031,
      "Ġfinancial": 5032,
      "ĠHamiltonian": 5033,
      "osing": 5034,
      "Ġcred": 5035,
      "module": 5036,
      "ĠCanada": 5037,
      "Ġroad": 5038,
      "Ġwor": 5039,
      "eles": 5040,
      "Ġten": 5041,
      "ÑĤ": 5042,
      "Ġmanifold": 5043,
      "MP": 5044,
      "ĠThom": 5045,
      "Ġstream": 5046,
      "Ġinteger": 5047,
      "74": 5048,
      "Ġsex": 5049,
      "Ġbul": 5050,
      "Pr": 5051,
      "Ġgeneration": 5052,
      "Co": 5053,
      "Ġregime": 5054,
      "Node": 5055,
      "Ġbinary": 5056,
      "Ġgradient": 5057,
      "300": 5058,
      "Ġlack": 5059,
      "unic": 5060,
      "Ġste": 5061,
      "Ġbal": 5062,
      "Ġassist": 5063,
      "Ġoptions": 5064,
      "sm": 5065,
      "Config": 5066,
      "ĠJames": 5067,
      ":}": 5068,
      "Ġvict": 5069,
      "Ġgalaxy": 5070,
      "ĠRed": 5071,
      "69": 5072,
      "Ġassumed": 5073,
      "Ġtrain": 5074,
      "seud": 5075,
      "Ġotherwise": 5076,
      "Ġfem": 5077,
      "Ġparticularly": 5078,
      "CS": 5079,
      "Ġbey": 5080,
      "etime": 5081,
      "Ġoffice": 5082,
      "What": 5083,
      "Fil": 5084,
      "79": 5085,
      "ĠRec": 5086,
      "Ġborder": 5087,
      "bi": 5088,
      "Ġincreased": 5089,
      "Ġbeyond": 5090,
      "Ġinner": 5091,
      "Ġprediction": 5092,
      "Ġprote": 5093,
      "Ġtechnology": 5094,
      "Ġtreatment": 5095,
      "Ġformal": 5096,
      "current": 5097,
      "ĠNews": 5098,
      "Ġextra": 5099,
      "ishes": 5100,
      "}$)": 5101,
      "IP": 5102,
      "Ġhighest": 5103,
      "71": 5104,
      "lesssim": 5105,
      "Ġunivers": 5106,
      "Ġfeed": 5107,
      "Ġcosm": 5108,
      "ĠParty": 5109,
      "Ġtransformation": 5110,
      "Ġlaun": 5111,
      "Ġrepe": 5112,
      "Ġdistinct": 5113,
      "Ġnight": 5114,
      "Ġinstit": 5115,
      "OD": 5116,
      "Ġfast": 5117,
      "rug": 5118,
      "Ġtrac": 5119,
      "Ġcoordinates": 5120,
      "Ġabsol": 5121,
      "Inst": 5122,
      "ATE": 5123,
      "Ġeconomic": 5124,
      "Ġvisual": 5125,
      "Ġbirths": 5126,
      "conn": 5127,
      "Ġways": 5128,
      "ĠIm": 5129,
      "hbar": 5130,
      "ĠClass": 5131,
      "Ġjoint": 5132,
      "ĠRoy": 5133,
      "Ġrelig": 5134,
      "ĠChampions": 5135,
      "Ġgreater": 5136,
      "ĠFound": 5137,
      "men": 5138,
      "ĠSpec": 5139,
      "Ġvariety": 5140,
      "ĠPat": 5141,
      "Ġnorth": 5142,
      "Ġwriting": 5143,
      "iment": 5144,
      "api": 5145,
      "Ġenh": 5146,
      "Ġliving": 5147,
      "Service": 5148,
      "uit": 5149,
      "Ġoptical": 5150,
      "Ġdifferential": 5151,
      "ĠList": 5152,
      "ĠTest": 5153,
      "Ġscore": 5154,
      "Ġagent": 5155,
      "))$": 5156,
      "Ġmodern": 5157,
      "ĠInter": 5158,
      "CP": 5159,
      "These": 5160,
      "Ġorient": 5161,
      "pid": 5162,
      "method": 5163,
      "Ġload": 5164,
      "gener": 5165,
      "ĠSome": 5166,
      "rot": 5167,
      "bon": 5168,
      "ki": 5169,
      "ĠSub": 5170,
      "UN": 5171,
      "lang": 5172,
      "VID": 5173,
      "uge": 5174,
      "ĠMa": 5175,
      "Info": 5176,
      "rick": 5177,
      "$),": 5178,
      "Ne": 5179,
      "wood": 5180,
      "Ġconclude": 5181,
      "scill": 5182,
      "arks": 5183,
      "dfrac": 5184,
      "Context": 5185,
      "Ġremaining": 5186,
      "hbox": 5187,
      "Ġeight": 5188,
      "term": 5189,
      "ĠĠĠĠĠĠĠĠĠĠĠĠĠĠ": 5190,
      "istical": 5191,
      "Ġupd": 5192,
      "Ġcombination": 5193,
      "ĠOff": 5194,
      "Ġstraight": 5195,
      "Map": 5196,
      "Ġmicro": 5197,
      "ĠVir": 5198,
      "erve": 5199,
      "Ġveh": 5200,
      "Ġ$|\\": 5201,
      ")}_{": 5202,
      "ĠArch": 5203,
      "iti": 5204,
      "ĠGroup": 5205,
      "void": 5206,
      "())": 5207,
      "ĠHow": 5208,
      "ya": 5209,
      "Ġrac": 5210,
      "Ġlayers": 5211,
      "####": 5212,
      "process": 5213,
      "cular": 5214,
      "$};": 5215,
      "Ġmodule": 5216,
      "ĠDiv": 5217,
      "omic": 5218,
      "Ġnotation": 5219,
      "eria": 5220,
      "Ġbottom": 5221,
      "ani": 5222,
      "Build": 5223,
      "Ã³": 5224,
      "Ġtransl": 5225,
      "~~~~": 5226,
      "Ġaccur": 5227,
      "start": 5228,
      "Ġtelevision": 5229,
      "Ġclearly": 5230,
      "Ġtrained": 5231,
      "ĠIsra": 5232,
      "lig": 5233,
      "Ġforces": 5234,
      "Ġwebsite": 5235,
      "Ġcompletely": 5236,
      "Ġidentify": 5237,
      "GC": 5238,
      "Ġdr": 5239,
      "Ġscient": 5240,
      "iral": 5241,
      "ĠEqu": 5242,
      "then": 5243,
      "1995": 5244,
      "Ġanti": 5245,
      "Ġwide": 5246,
      "Ġcampaign": 5247,
      "DP": 5248,
      "enced": 5249,
      "Ġmonth": 5250,
      "ibly": 5251,
      "Ġobservation": 5252,
      "has": 5253,
      "Ġrelatively": 5254,
      "iring": 5255,
      "ĠPort": 5256,
      "ica": 5257,
      "Ġapproximately": 5258,
      "arse": 5259,
      "rep": 5260,
      "ollowing": 5261,
      "Ġchem": 5262,
      "Ġwrote": 5263,
      "ĠRober": 5264,
      "ĠAnt": 5265,
      "riz": 5266,
      "Ġparallel": 5267,
      "Ġdatasets": 5268,
      "ogeneous": 5269,
      "ĠGerm": 5270,
      "ĠGreen": 5271,
      "Ġepis": 5272,
      "Ġpack": 5273,
      "nam": 5274,
      "Therefore": 5275,
      "Ġsegment": 5276,
      "ĠJust": 5277,
      "emic": 5278,
      "Te": 5279,
      "Ġproved": 5280,
      "arc": 5281,
      "stream": 5282,
      "Ġformed": 5283,
      "Size": 5284,
      "}({\\": 5285,
      "ĠDef": 5286,
      "Code": 5287,
      "Ġfamil": 5288,
      ",\\\\": 5289,
      "Introduction": 5290,
      "ypes": 5291,
      "Ġquick": 5292,
      "Ġpolice": 5293,
      "Ġfilter": 5294,
      "Ġmother": 5295,
      "Ġdevi": 5296,
      "Ġgraphs": 5297,
      "Ġdepart": 5298,
      "Ð½": 5299,
      "lymp": 5300,
      "itter": 5301,
      "icity": 5302,
      "Ġult": 5303,
      "Ġthick": 5304,
      "ĠHall": 5305,
      "system": 5306,
      "Ġconcent": 5307,
      "Ġbounds": 5308,
      "Ġhypot": 5309,
      "rons": 5310,
      "tag": 5311,
      "fs": 5312,
      "Ġabsor": 5313,
      "culation": 5314,
      "Ġoscill": 5315,
      "';": 5316,
      "****************": 5317,
      "Ġthemselves": 5318,
      "ui": 5319,
      "CA": 5320,
      "amily": 5321,
      "{{": 5322,
      "Ġcause": 5323,
      "ĠFrance": 5324,
      "Ġelectric": 5325,
      "ago": 5326,
      "ĠStreet": 5327,
      "kes": 5328,
      "ĠMal": 5329,
      "Ġpurpose": 5330,
      "BS": 5331,
      "image": 5332,
      "BA": 5333,
      "sect": 5334,
      "ĠPhil": 5335,
      "Ġneighbor": 5336,
      "ĠRiver": 5337,
      "unt": 5338,
      "Fe": 5339,
      "Ġdoesn": 5340,
      "cccc": 5341,
      "Ġappropriate": 5342,
      "Ġcov": 5343,
      "Ġincor": 5344,
      "itely": 5345,
      "Next": 5346,
      "[(": 5347,
      "nother": 5348,
      "Ġelection": 5349,
      "Ġfood": 5350,
      "Ġinfluence": 5351,
      "TD": 5352,
      "ĠRem": 5353,
      "Sc": 5354,
      "Ġcomplexity": 5355,
      "itar": 5356,
      "Ġuncertainty": 5357,
      "Ġpure": 5358,
      "Ġring": 5359,
      "Ġsurv": 5360,
      "Ġresources": 5361,
      "ĠAssociation": 5362,
      "'re": 5363,
      "Ġmind": 5364,
      "Inter": 5365,
      "Ġcoming": 5366,
      "Ġquestions": 5367,
      "Ġtim": 5368,
      "OM": 5369,
      "ĠBel": 5370,
      "ny": 5371,
      ")--": 5372,
      "ĠWork": 5373,
      "Ġwalk": 5374,
      ")}}": 5375,
      "abil": 5376,
      "Ġfamilies": 5377,
      "Ġinduced": 5378,
      "ĠOther": 5379,
      "Ġvary": 5380,
      "Ġadvanta": 5381,
      "ett": 5382,
      "Ġkernel": 5383,
      "Ġscattering": 5384,
      "bel": 5385,
      "inder": 5386,
      "Ġwall": 5387,
      "MR": 5388,
      "Ġkin": 5389,
      "Array": 5390,
      "default": 5391,
      "Ġcontaining": 5392,
      "Ġaspect": 5393,
      "mass": 5394,
      "ĠAfrica": 5395,
      "ĠFinally": 5396,
      "Ġmanagement": 5397,
      "Ġtraject": 5398,
      "Ġdepth": 5399,
      "-$": 5400,
      "Ġstrict": 5401,
      "ĠMag": 5402,
      "count": 5403,
      "first": 5404,
      "Ġmagnitude": 5405,
      "Ġbur": 5406,
      "Ġnearly": 5407,
      "Ġtempor": 5408,
      "ĠAward": 5409,
      "ĠCong": 5410,
      "mann": 5411,
      "Ġreturned": 5412,
      "Color": 5413,
      "\\)": 5414,
      "IV": 5415,
      "floor": 5416,
      "abled": 5417,
      "Ġgrid": 5418,
      "Ġpix": 5419,
      "='": 5420,
      "illing": 5421,
      "ĠFe": 5422,
      "Ġsyn": 5423,
      "Ġdistributed": 5424,
      "Ġstrongly": 5425,
      "abase": 5426,
      "Ġshowed": 5427,
      "Ġsouth": 5428,
      "ĠUnion": 5429,
      "opic": 5430,
      "Ġdetailed": 5431,
      "Ġvisit": 5432,
      "Ġunderstanding": 5433,
      "Ġlegal": 5434,
      "Ġredshift": 5435,
      "Ġconstructed": 5436,
      "vised": 5437,
      "ĠGeorge": 5438,
      "Ġroot": 5439,
      "Ġreson": 5440,
      "Ġhimself": 5441,
      "Ġcry": 5442,
      "Ġactions": 5443,
      "udes": 5444,
      "\"\"": 5445,
      "Ġstrength": 5446,
      "Ġpoly": 5447,
      "Ġguarant": 5448,
      "Ġupdate": 5449,
      "Ġmasses": 5450,
      "Ġ[\\": 5451,
      "uff": 5452,
      "Ġsrc": 5453,
      "Ġbehavi": 5454,
      "ĠFin": 5455,
      "1994": 5456,
      "oo": 5457,
      "iber": 5458,
      "ĠRich": 5459,
      "Finally": 5460,
      "Ġwind": 5461,
      "num": 5462,
      "Ġability": 5463,
      "Ġoppos": 5464,
      "Ġminimal": 5465,
      "Log": 5466,
      "aker": 5467,
      "Ġfundamental": 5468,
      "algorithm": 5469,
      "poses": 5470,
      "Ġgrant": 5471,
      "ĠJew": 5472,
      "Ġbeginning": 5473,
      "Ġtrade": 5474,
      "Ġideal": 5475,
      "Ġlemma": 5476,
      "Ġcru": 5477,
      "Ġhot": 5478,
      "TS": 5479,
      "ih": 5480,
      "Ġ(!": 5481,
      "Ġ...": 5482,
      "Ġpen": 5483,
      "rong": 5484,
      "Ġdifferences": 5485,
      "Ġcontinued": 5486,
      "outher": 5487,
      "Ġconvex": 5488,
      "Ġcle": 5489,
      "enge": 5490,
      "henomen": 5491,
      "pir": 5492,
      "Ġhours": 5493,
      "Ġaxis": 5494,
      "sur": 5495,
      "nel": 5496,
      "option": 5497,
      "Ġpick": 5498,
      ",\\,\\": 5499,
      "Ġconsidering": 5500,
      "hing": 5501,
      "hemat": 5502,
      "orthern": 5503,
      "fit": 5504,
      "ilarly": 5505,
      "ĠCompany": 5506,
      "ike": 5507,
      "Ġfair": 5508,
      "rump": 5509,
      "orage": 5510,
      "Ġresol": 5511,
      "ĠMat": 5512,
      "Ġarchitecture": 5513,
      "win": 5514,
      "Ġstatus": 5515,
      "You": 5516,
      "ĠMr": 5517,
      "Ġharm": 5518,
      "ĠPress": 5519,
      "Ġbooks": 5520,
      "]$.": 5521,
      "Ġreli": 5522,
      "Ġutil": 5523,
      "ĠDis": 5524,
      "ĠCup": 5525,
      "Ġtheoretical": 5526,
      "dev": 5527,
      "Ġdenoted": 5528,
      "GB": 5529,
      "Ġamplitude": 5530,
      "1980": 5531,
      "Ġlum": 5532,
      "Ġmachine": 5533,
      "ĠTV": 5534,
      "finition": 5535,
      "Ġorth": 5536,
      "Ġ()": 5537,
      "Ġreduction": 5538,
      "Ġinde": 5539,
      "Ed": 5540,
      "ospital": 5541,
      "Ġindicates": 5542,
      "Ġdecomposition": 5543,
      "Ġexpressed": 5544,
      "Cons": 5545,
      "^*$": 5546,
      "super": 5547,
      "aching": 5548,
      "faces": 5549,
      "rought": 5550,
      "Ġbranch": 5551,
      "DA": 5552,
      "ĠAlso": 5553,
      "Ġrecomm": 5554,
      "Ġestimation": 5555,
      "Ġappoint": 5556,
      "Ġscience": 5557,
      "Ġexcit": 5558,
      "ĠAlthough": 5559,
      "Ġstated": 5560,
      "ĠRuss": 5561,
      "]}": 5562,
      "istor": 5563,
      ",$": 5564,
      "Ġ{$": 5565,
      "Ġpartition": 5566,
      "ĠGet": 5567,
      "inese": 5568,
      "car": 5569,
      "Ġnoted": 5570,
      "Ġschools": 5571,
      "\\}$.": 5572,
      "Ġmedical": 5573,
      "real": 5574,
      "parent": 5575,
      "ferent": 5576,
      "outhern": 5577,
      "Ġhttp": 5578,
      "stra": 5579,
      "Ġkm": 5580,
      "Ġslightly": 5581,
      "mail": 5582,
      "Ġexponential": 5583,
      "cr": 5584,
      "Ġfire": 5585,
      "Ġcycle": 5586,
      "&=&": 5587,
      "Element": 5588,
      "IL": 5589,
      "results": 5590,
      "ĠAccording": 5591,
      "Ġimplementation": 5592,
      "otted": 5593,
      "ÑĢ": 5594,
      "Hand": 5595,
      "agement": 5596,
      "Ġcapital": 5597,
      "dl": 5598,
      "Ġboard": 5599,
      "Ġgap": 5600,
      "child": 5601,
      "ĠBra": 5602,
      "Ġprograms": 5603,
      "cf": 5604,
      "Ġdam": 5605,
      "EM": 5606,
      "While": 5607,
      "ĠDemoc": 5608,
      "ĠFurthermore": 5609,
      "Ġflat": 5610,
      "build": 5611,
      "ĠLie": 5612,
      "=\"../../../../": 5613,
      "vee": 5614,
      "Ġproport": 5615,
      "Ġstudent": 5616,
      "Ġproceed": 5617,
      "ĠFil": 5618,
      ":=": 5619,
      "Ġ;": 5620,
      "ras": 5621,
      "create": 5622,
      "Ġrobust": 5623,
      "Ġclusters": 5624,
      "Ġinj": 5625,
      "Ġlooking": 5626,
      "Ġbrief": 5627,
      "Ġactivity": 5628,
      "PP": 5629,
      "oting": 5630,
      "Ġachieved": 5631,
      "Ġconver": 5632,
      "ÃŃ": 5633,
      "Ġperfect": 5634,
      "Ent": 5635,
      "Ġplatform": 5636,
      "|}{": 5637,
      "Ġcivil": 5638,
      "irit": 5639,
      "$:": 5640,
      "Ġfa": 5641,
      "Ġgave": 5642,
      "itivity": 5643,
      "annels": 5644,
      "Ġgreen": 5645,
      "Ġscenario": 5646,
      "weight": 5647,
      "hal": 5648,
      "Ġscaling": 5649,
      "sembly": 5650,
      "Ġdirected": 5651,
      "ountain": 5652,
      "ĠBen": 5653,
      "oke": 5654,
      "Ġsaf": 5655,
      "ĠOf": 5656,
      "Comm": 5657,
      "Ġreveal": 5658,
      "Ġsatisfying": 5659,
      "static": 5660,
      "Ġcopy": 5661,
      "Ġdise": 5662,
      "onical": 5663,
      "Ġstaff": 5664,
      "Ġcalculations": 5665,
      "Ġassign": 5666,
      "ander": 5667,
      "Ġexternal": 5668,
      "Ġentropy": 5669,
      "}[\\": 5670,
      "Ġthermal": 5671,
      "pat": 5672,
      "Ġimmediately": 5673,
      "brace": 5674,
      "ĠMart": 5675,
      "Ġpartial": 5676,
      "ĠEach": 5677,
      "Ġrock": 5678,
      "1992": 5679,
      "tage": 5680,
      "Ġassess": 5681,
      "Per": 5682,
      "Ġtor": 5683,
      "Ġ\\]": 5684,
      "rect": 5685,
      "Ġfinally": 5686,
      "EC": 5687,
      "Spec": 5688,
      "grad": 5689,
      "elli": 5690,
      "Ġneural": 5691,
      "Ġdiscrete": 5692,
      "font": 5693,
      "Ġdivid": 5694,
      "Ġprogress": 5695,
      "tfrac": 5696,
      "Ġruns": 5697,
      "ometric": 5698,
      "Ġcombined": 5699,
      "Part": 5700,
      "DB": 5701,
      "]$,": 5702,
      "Ġefficiency": 5703,
      "Ġevaluation": 5704,
      "Ġweights": 5705,
      "Ġ});": 5706,
      "Ġremain": 5707,
      "Ġetc": 5708,
      "Ġrotation": 5709,
      "ayout": 5710,
      "}}_{\\": 5711,
      "ribution": 5712,
      "bmatrix": 5713,
      "Ġsaw": 5714,
      "Ġener": 5715,
      "ĠDire": 5716,
      "ado": 5717,
      "Ġextrem": 5718,
      "PI": 5719,
      "Ġcit": 5720,
      "paragraph": 5721,
      "Desc": 5722,
      "herent": 5723,
      "))\\": 5724,
      "context": 5725,
      "Ġplaying": 5726,
      "assert": 5727,
      "ĉĉĊ": 5728,
      "Ġnucle": 5729,
      "hol": 5730,
      "ĠWhite": 5731,
      ".[": 5732,
      "apache": 5733,
      "Ġreflect": 5734,
      "squ": 5735,
      "1993": 5736,
      "ĠĠĠĠĠĠĠĠĠĠĠĠĠĠĠĠĠ": 5737,
      "Ġobvious": 5738,
      "Ġangular": 5739,
      "gin": 5740,
      "Ġinfinite": 5741,
      ">&": 5742,
      "Ġsector": 5743,
      "va": 5744,
      "Section": 5745,
      "ĠTex": 5746,
      "Ġactual": 5747,
      "pare": 5748,
      "adian": 5749,
      "Ġtro": 5750,
      "Ġscales": 5751,
      "Ġter": 5752,
      "bigl": 5753,
      "System": 5754,
      "Ġsil": 5755,
      "Ġcoefficient": 5756,
      "Ġwife": 5757,
      "Ġtypical": 5758,
      "bas": 5759,
      "Ġmor": 5760,
      "Ġcalculation": 5761,
      "][]{": 5762,
      "ĠArmy": 5763,
      "atically": 5764,
      "kin": 5765,
      "mathop": 5766,
      "Ġvac": 5767,
      "diag": 5768,
      "Ġ/*": 5769,
      "$_{": 5770,
      "Ġsolve": 5771,
      "Ġodd": 5772,
      "ifferent": 5773,
      "Ġchanged": 5774,
      "Ġcharacters": 5775,
      "Ġmes": 5776,
      "ĠLeg": 5777,
      "Ġinstall": 5778,
      "Ġchurch": 5779,
      "obile": 5780,
      "Ġ$.": 5781,
      "ald": 5782,
      "info": 5783,
      "inu": 5784,
      "Ġfriend": 5785,
      "cknowled": 5786,
      "ĠCap": 5787,
      "ĠSur": 5788,
      "Ġlives": 5789,
      "Pol": 5790,
      "ria": 5791,
      "Ġprofessional": 5792,
      "...,": 5793,
      "ĠFl": 5794,
      "Ġtypically": 5795,
      "Ġmovie": 5796,
      "ector": 5797,
      "Ġloop": 5798,
      "Ġsummar": 5799,
      "kl": 5800,
      "tx": 5801,
      "Item": 5802,
      "\\;": 5803,
      "ona": 5804,
      "ĠCommission": 5805,
      "Ġcells": 5806,
      "Ġdro": 5807,
      "Ġphenomen": 5808,
      "otal": 5809,
      "bigr": 5810,
      "Ġfunctional": 5811,
      "ĠAssum": 5812,
      "Ġreplace": 5813,
      "ĠDan": 5814,
      "ĠGermany": 5815,
      "bits": 5816,
      "yr": 5817,
      "Ġcommunication": 5818,
      "stract": 5819,
      "Using": 5820,
      "}})": 5821,
      "sey": 5822,
      "Ġcapacity": 5823,
      "ech": 5824,
      "ĠGal": 5825,
      "ĠLou": 5826,
      "ifies": 5827,
      "Line": 5828,
      "jo": 5829,
      "Ġsemi": 5830,
      "ston": 5831,
      "Ġdimensions": 5832,
      "fined": 5833,
      "Ġmoving": 5834,
      "Message": 5835,
      "iding": 5836,
      "Ġmassive": 5837,
      "ĠQue": 5838,
      "tes": 5839,
      "})}": 5840,
      "({": 5841,
      "Ġnil": 5842,
      "board": 5843,
      "Ġcompleted": 5844,
      "Ġpositions": 5845,
      "ĠSee": 5846,
      "Ġsplit": 5847,
      "Ġasked": 5848,
      "Ġcontained": 5849,
      "Ab": 5850,
      "mas": 5851,
      "vector": 5852,
      "Ġbad": 5853,
      "ether": 5854,
      "Ġprobably": 5855,
      "aa": 5856,
      "SD": 5857,
      "Ġer": 5858,
      "Ġfluct": 5859,
      "forward": 5860,
      "$&": 5861,
      "ĠDay": 5862,
      "ĠTechn": 5863,
      "Ġsoftware": 5864,
      "Ġrace": 5865,
      "Ġisomorphism": 5866,
      "ĠDuring": 5867,
      "400": 5868,
      "Ġexperi": 5869,
      "Ġprint": 5870,
      "km": 5871,
      "FA": 5872,
      "Ġdeb": 5873,
      "arr": 5874,
      "cat": 5875,
      "ducation": 5876,
      "Ġmiddle": 5877,
      "ĠSte": 5878,
      "post": 5879,
      "Ġago": 5880,
      "1000": 5881,
      "Ġ\\(\\": 5882,
      "Ġbright": 5883,
      "etal": 5884,
      "Ġthreat": 5885,
      "Ġcandidate": 5886,
      "emptyset": 5887,
      "Ġspread": 5888,
      "Ġsoon": 5889,
      "related": 5890,
      "Ġrecorded": 5891,
      "Ġcaused": 5892,
      "ĠWil": 5893,
      "ontal": 5894,
      "Ġindicate": 5895,
      "Ġrepresentations": 5896,
      "Ġjoined": 5897,
      "Method": 5898,
      "ĠMary": 5899,
      "ita": 5900,
      "ĠMex": 5901,
      "ĠHig": 5902,
      "joint": 5903,
      "cis": 5904,
      "fess": 5905,
      "gr": 5906,
      "define": 5907,
      "Ġscreen": 5908,
      "ano": 5909,
      "Ġsampling": 5910,
      "}}.": 5911,
      "Ġtraditional": 5912,
      "called": 5913,
      "Ġmaxim": 5914,
      "while": 5915,
      "contain": 5916,
      "strong": 5917,
      "gies": 5918,
      "Ġfreedom": 5919,
      "Ġnuclear": 5920,
      "ros": 5921,
      "rial": 5922,
      "Ġindividuals": 5923,
      "ĠSociety": 5924,
      "isher": 5925,
      "Ġoption": 5926,
      "ĠSum": 5927,
      "ĠJack": 5928,
      "Ġgoes": 5929,
      "Ġworth": 5930,
      "Ã¼": 5931,
      "Ġ__": 5932,
      "Ġexpert": 5933,
      "Ġmultiplic": 5934,
      "ĠChristian": 5935,
      "Ġ\\!": 5936,
      "bp": 5937,
      "Ġsections": 5938,
      "ĠCommun": 5939,
      "Ġheavy": 5940,
      "Ġheart": 5941,
      "otion": 5942,
      "arter": 5943,
      "Ġprinciple": 5944,
      "Ġmut": 5945,
      "Ġpreserv": 5946,
      "Ġhous": 5947,
      "SF": 5948,
      "Ġmajority": 5949,
      "=.": 5950,
      "}\\,\\": 5951,
      "---": 5952,
      "ĠJer": 5953,
      "ĠEm": 5954,
      "such": 5955,
      "Ġsort": 5956,
      "ĠFoundation": 5957,
      "Ġlimits": 5958,
      "Ġproviding": 5959,
      "break": 5960,
      "Ġquery": 5961,
      "Ġtesting": 5962,
      "false": 5963,
      "Ġjava": 5964,
      "ensus": 5965,
      "ying": 5966,
      "Ġwanted": 5967,
      "Ġimplic": 5968,
      "Cor": 5969,
      "ĠUsing": 5970,
      "Ġprevent": 5971,
      "Ġreplaced": 5972,
      "Pre": 5973,
      "Ġseven": 5974,
      "HT": 5975,
      "only": 5976,
      "ĠAfrican": 5977,
      "reek": 5978,
      "forms": 5979,
      "Ġnom": 5980,
      "struct": 5981,
      "pected": 5982,
      "ĠPublic": 5983,
      "Ġtun": 5984,
      "Ġrecall": 5985,
      "ithub": 5986,
      "Ġcollabor": 5987,
      "greg": 5988,
      "Count": 5989,
      "Ġresource": 5990,
      "Ġseparate": 5991,
      "////////": 5992,
      "Ġleave": 5993,
      "multirow": 5994,
      "Ġamb": 5995,
      "oken": 5996,
      "ĠSuper": 5997,
      "ĠAppendix": 5998,
      "Ġhope": 5999,
      "Ġcele": 6000,
      "vect": 6001,
      "ĠOlymp": 6002,
      "mi": 6003,
      "Ġrise": 6004,
      "urrent": 6005,
      "Ġmale": 6006,
      "vature": 6007,
      "}}^{\\": 6008,
      "sign": 6009,
      "Ġhole": 6010,
      "after": 6011,
      "Ġobjective": 6012,
      "Ġgeometry": 6013,
      "Ġcalculate": 6014,
      "Ġevaluate": 6015,
      "clusions": 6016,
      "inations": 6017,
      "Ġjournal": 6018,
      "Ġmovement": 6019,
      "figures": 6020,
      "ĠTrump": 6021,
      "rupt": 6022,
      "Ñģ": 6023,
      "SR": 6024,
      "Ġimag": 6025,
      "inding": 6026,
      "ski": 6027,
      "ĠData": 6028,
      "Ġsufficiently": 6029,
      "erc": 6030,
      "avel": 6031,
      "edia": 6032,
      "Ġequilibrium": 6033,
      "dat": 6034,
      "Ġanim": 6035,
      "plan": 6036,
      "Right": 6037,
      "aughter": 6038,
      "Ġbin": 6039,
      "ĠGra": 6040,
      "Ġshowing": 6041,
      "inner": 6042,
      "Ġcomment": 6043,
      "Ġoffer": 6044,
      "Ġcast": 6045,
      ")})": 6046,
      "chang": 6047,
      "columnwidth": 6048,
      "Ġreached": 6049,
      "Ġprojection": 6050,
      "step": 6051,
      "ye": 6052,
      "istan": 6053,
      "Ġsynt": 6054,
      "Ġbrother": 6055,
      "ĠFlor": 6056,
      "Ġitem": 6057,
      "Ġcoordinate": 6058,
      "Ġphysics": 6059,
      "ĠSing": 6060,
      "Ġhydro": 6061,
      "ĠSecond": 6062,
      "Box": 6063,
      "Ġstay": 6064,
      "CM": 6065,
      "css": 6066,
      "Ġdemand": 6067,
      "cel": 6068,
      "ĠUnder": 6069,
      "ialog": 6070,
      "Proof": 6071,
      "}_{-": 6072,
      "Ġapplying": 6073,
      "Ġacceler": 6074,
      "ĠBook": 6075,
      "anned": 6076,
      "ĠZe": 6077,
      "ĠCOVID": 6078,
      "Ġonto": 6079,
      "Ġspecified": 6080,
      "Ġactivities": 6081,
      "stein": 6082,
      "iverse": 6083,
      "Ġneutr": 6084,
      "Ġsigned": 6085,
      "Ġsurvey": 6086,
      "ga": 6087,
      "Ġdepending": 6088,
      "FL": 6089,
      "ĠTexas": 6090,
      "gn": 6091,
      "incipal": 6092,
      "Ġlisted": 6093,
      "Ġion": 6094,
      "=\"../": 6095,
      "Ġhit": 6096,
      "Ġalternative": 6097,
      "SL": 6098,
      "she": 6099,
      "package": 6100,
      "Ġfine": 6101,
      "Ġvillage": 6102,
      "Ġfederal": 6103,
      "Ġplaces": 6104,
      "Che": 6105,
      "vart": 6106,
      "Ġeventually": 6107,
      "lap": 6108,
      "perties": 6109,
      "Ġdistingu": 6110,
      "ĠAcadem": 6111,
      "Ġign": 6112,
      "Ext": 6113,
      "Ġstability": 6114,
      "Ġroom": 6115,
      ",{\\": 6116,
      "Ġbrought": 6117,
      "Ġpriv": 6118,
      "Ġunknown": 6119,
      "ributes": 6120,
      "Sch": 6121,
      "phant": 6122,
      "ĠGovernment": 6123,
      "ĠOut": 6124,
      "1991": 6125,
      "Ġminor": 6126,
      "burg": 6127,
      "ĠRoman": 6128,
      "+(": 6129,
      "|}": 6130,
      "heta": 6131,
      "Ġnation": 6132,
      "tikzpicture": 6133,
      "ĠMinister": 6134,
      "Ġgetting": 6135,
      "igation": 6136,
      "ĠRobert": 6137,
      "lient": 6138,
      "ĠMichael": 6139,
      "ĠInst": 6140,
      "ĠSam": 6141,
      "pair": 6142,
      "ometry": 6143,
      "Read": 6144,
      "PU": 6145,
      "ochastic": 6146,
      "Ġvs": 6147,
      "Ġculture": 6148,
      "unk": 6149,
      "Ġoccurs": 6150,
      "ĠRoyal": 6151,
      "ĠMo": 6152,
      "Ġembedding": 6153,
      "1970": 6154,
      "Ġrapid": 6155,
      "Ġdevice": 6156,
      "ĠChinese": 6157,
      "lies": 6158,
      "ĠYear": 6159,
      "Ġdegrees": 6160,
      "Ġassumptions": 6161,
      "Ġmotiv": 6162,
      "gan": 6163,
      "ĠKe": 6164,
      "Ġinverse": 6165,
      "ologies": 6166,
      "Ġstatistical": 6167,
      "Ġteams": 6168,
      "Ġnamely": 6169,
      "ĠSM": 6170,
      "Ġconv": 6171,
      "Ġindeed": 6172,
      "]{\\": 6173,
      "Ġappeared": 6174,
      "java": 6175,
      "two": 6176,
      "ĠProgram": 6177,
      "Ġcarry": 6178,
      "asc": 6179,
      "ĠBoard": 6180,
      "Ġtour": 6181,
      ")}_": 6182,
      "ĉĉĉĉĉĉ": 6183,
      "search": 6184,
      "host": 6185,
      "Ġcarried": 6186,
      "Ġimportance": 6187,
      "open": 6188,
      "Ġconsequence": 6189,
      "Ġinterview": 6190,
      "db": 6191,
      "Ġirre": 6192,
      "ĠAlex": 6193,
      "include": 6194,
      "Ġcamp": 6195,
      "Ġwoman": 6196,
      "Ġpredicted": 6197,
      "inate": 6198,
      "ĠÃ": 6199,
      "Ġtechnique": 6200,
      "Ġmapping": 6201,
      "elled": 6202,
      "conf": 6203,
      ";&": 6204,
      "Ġpseud": 6205,
      "bor": 6206,
      "Ġexchange": 6207,
      "Ġsometimes": 6208,
      "^{*": 6209,
      "Ġanswer": 6210,
      "Ð¾Ð": 6211,
      "pass": 6212,
      "coming": 6213,
      "ULL": 6214,
      "tiny": 6215,
      "Ġunderlying": 6216,
      "Ġvo": 6217,
      "CL": 6218,
      "That": 6219,
      "Ġinterested": 6220,
      "Ġorganization": 6221,
      "ENT": 6222,
      "haps": 6223,
      "formal": 6224,
      "Ġvariation": 6225,
      "Ġgiving": 6226,
      "des": 6227,
      "NA": 6228,
      "mercial": 6229,
      "rank": 6230,
      "isely": 6231,
      "ena": 6232,
      "Ġbias": 6233,
      "ĠMusic": 6234,
      "Ġluminos": 6235,
      "ersion": 6236,
      "Ġtrying": 6237,
      "Ġnothing": 6238,
      "Ġ$,": 6239,
      "Ġsubt": 6240,
      "Ġspl": 6241,
      "lete": 6242,
      "Ġlocally": 6243,
      "Ġnames": 6244,
      "ĠSeries": 6245,
      "issions": 6246,
      "Ġstruct": 6247,
      "Ġwhereas": 6248,
      "plot": 6249,
      "Ġgravit": 6250,
      "Ġnotice": 6251,
      "Ġinterface": 6252,
      "Ġsociety": 6253,
      "=\"#": 6254,
      "})=": 6255,
      "ĠGold": 6256,
      "df": 6257,
      "defined": 6258,
      "Lemma": 6259,
      "Ġmarried": 6260,
      "Ġmissing": 6261,
      "ĠLag": 6262,
      "ĠSec": 6263,
      "TH": 6264,
      "PA": 6265,
      "po": 6266,
      "ND": 6267,
      "Ġpassed": 6268,
      "rey": 6269,
      "Ġbank": 6270,
      "Ġchannels": 6271,
      "Ġcomputational": 6272,
      "Ġdetected": 6273,
      "ĠHistory": 6274,
      "Ġstop": 6275,
      "EL": 6276,
      "Ġut": 6277,
      "ĠIndeed": 6278,
      "github": 6279,
      "dec": 6280,
      "Ġunion": 6281,
      "Ġfinding": 6282,
      "slash": 6283,
      "Ġgir": 6284,
      "iota": 6285,
      "Ġexc": 6286,
      "algebra": 6287,
      "ynamic": 6288,
      "Dis": 6289,
      "sche": 6290,
      "Ġexplained": 6291,
      "RA": 6292,
      "Ġvertical": 6293,
      "\\}\\": 6294,
      "\\|\\": 6295,
      "Ġarguments": 6296,
      "Ġpropose": 6297,
      "Ġconfir": 6298,
      "ĠService": 6299,
      "dy": 6300,
      "ancy": 6301,
      "Ġdeaths": 6302,
      "null": 6303,
      "Ġshock": 6304,
      "Ġprojects": 6305,
      "&=\\": 6306,
      "dr": 6307,
      "law": 6308,
      "Ġmeeting": 6309,
      "Ap": 6310,
      "make": 6311,
      "\\}$,": 6312,
      "DM": 6313,
      "mathit": 6314,
      "<!--": 6315,
      "Call": 6316,
      "Ġ^": 6317,
      "unct": 6318,
      "ĠMus": 6319,
      "Ġ};": 6320,
      "User": 6321,
      "[-": 6322,
      "ename": 6323,
      "Ġreading": 6324,
      "Ġworkers": 6325,
      "Ġintegration": 6326,
      "longrightarrow": 6327,
      "Ġdesired": 6328,
      "OC": 6329,
      "Hence": 6330,
      "icated": 6331,
      "}$}": 6332,
      "Ġentry": 6333,
      "ias": 6334,
      "Ġpredictions": 6335,
      "za": 6336,
      "Ass": 6337,
      "velopment": 6338,
      "Ġsongs": 6339,
      "doc": 6340,
      "Ġcharacteristic": 6341,
      "poss": 6342,
      "stable": 6343,
      "Ġbillion": 6344,
      "ĠLand": 6345,
      "150": 6346,
      "Ġdecided": 6347,
      "integ": 6348,
      "oration": 6349,
      "edy": 6350,
      "ĠDivision": 6351,
      "del": 6352,
      "ĠModel": 6353,
      "google": 6354,
      "Ġcompl": 6355,
      "oded": 6356,
      "ĠCommittee": 6357,
      "Rel": 6358,
      "}}}\\": 6359,
      "Ġdiagonal": 6360,
      "subsec": 6361,
      "iant": 6362,
      "Ġhighlight": 6363,
      "Ġdu": 6364,
      "fold": 6365,
      "Ġopened": 6366,
      "estival": 6367,
      "eks": 6368,
      "])": 6369,
      "cretary": 6370,
      "Ġshared": 6371,
      "Ġcommunities": 6372,
      "Ġremark": 6373,
      "Ġplanet": 6374,
      "vari": 6375,
      "lections": 6376,
      "number": 6377,
      "Ġconstants": 6378,
      "uster": 6379,
      "Ġmaximal": 6380,
      "venue": 6381,
      "ĠPre": 6382,
      "ĠPlan": 6383,
      "maz": 6384,
      "Sec": 6385,
      "Ġ===": 6386,
      "elihood": 6387,
      "ĠHen": 6388,
      "Ġcomputer": 6389,
      "formed": 6390,
      "ĠThomas": 6391,
      "ĠRel": 6392,
      "ĠRad": 6393,
      "Ġpoor": 6394,
      "gest": 6395,
      "Ġpatients": 6396,
      "vartheta": 6397,
      "road": 6398,
      "Ġsurround": 6399,
      "rich": 6400,
      "Ġcool": 6401,
      "liament": 6402,
      "ĠBill": 6403,
      "Ġcop": 6404,
      "sat": 6405,
      ":=\\": 6406,
      "Ġplaced": 6407,
      "Ġcontrad": 6408,
      "Ġcomputing": 6409,
      "orial": 6410,
      "Ġtrust": 6411,
      "pton": 6412,
      "atalog": 6413,
      "xx": 6414,
      "ĠCongress": 6415,
      "Group": 6416,
      "ĠGreat": 6417,
      "anger": 6418,
      "Ġteacher": 6419,
      "Ġincorpor": 6420,
      "icense": 6421,
      "rane": 6422,
      "owers": 6423,
      "ira": 6424,
      "oura": 6425,
      "Ġdust": 6426,
      "Ġreferred": 6427,
      "1989": 6428,
      "unit": 6429,
      "airs": 6430,
      "awa": 6431,
      "aven": 6432,
      "SA": 6433,
      "Ġhum": 6434,
      "pared": 6435,
      "gebr": 6436,
      "Ġprotect": 6437,
      "Ġnonlinear": 6438,
      "Ġsen": 6439,
      "ĠMuseum": 6440,
      "textcolor": 6441,
      "Ġvariance": 6442,
      "Ġcard": 6443,
      "Ġextends": 6444,
      "tw": 6445,
      "Ġresponsible": 6446,
      "Ref": 6447,
      "Ġbirth": 6448,
      "}}=": 6449,
      "namespace": 6450,
      "float": 6451,
      "ĠSal": 6452,
      "Act": 6453,
      "Ġmodified": 6454,
      "udget": 6455,
      "Ġusual": 6456,
      "Ġmorphism": 6457,
      "inger": 6458,
      "iller": 6459,
      "Ġextend": 6460,
      "sets": 6461,
      "py": 6462,
      "FC": 6463,
      "aily": 6464,
      "Ġconj": 6465,
      "People": 6466,
      "Ġprice": 6467,
      "Ġquasi": 6468,
      "OP": 6469,
      "--------------------------------": 6470,
      "ensities": 6471,
      "Manager": 6472,
      "joy": 6473,
      "Ġstatistics": 6474,
      "EX": 6475,
      "phys": 6476,
      "ĠTur": 6477,
      "Result": 6478,
      "Ġconvert": 6479,
      "Ġ^{": 6480,
      "ĠCre": 6481,
      "ĠFlorida": 6482,
      "Ġexplicitly": 6483,
      "Ġheat": 6484,
      "pto": 6485,
      ")--(": 6486,
      "ĠCath": 6487,
      "Ut": 6488,
      "Ġ}{": 6489,
      "Ġmus": 6490,
      "Ġefforts": 6491,
      "ĠST": 6492,
      "Ġcoinc": 6493,
      "ĠLat": 6494,
      "ĠSmith": 6495,
      "ourier": 6496,
      ";\\;\\": 6497,
      "parison": 6498,
      "Ġcm": 6499,
      "}|\\": 6500,
      "120": 6501,
      "([": 6502,
      "write": 6503,
      "ĠĠĠĠĠĠĠĠĠĠĠĠĠĠĠĠĠĠĠĠĠĠĠĠĠĠĠĠĠĠĠ": 6504,
      "condition": 6505,
      "aur": 6506,
      "ellig": 6507,
      "ĠMac": 6508,
      "aser": 6509,
      "hu": 6510,
      "Ġreceive": 6511,
      "undred": 6512,
      "Ġneighborhood": 6513,
      "ĠCentral": 6514,
      "Ġplays": 6515,
      "\\%$": 6516,
      "lines": 6517,
      "ĠSun": 6518,
      "Ġderive": 6519,
      "Ġderivative": 6520,
      "ĠAustralian": 6521,
      "GN": 6522,
      "Ġrough": 6523,
      "})^": 6524,
      "Ġabsolute": 6525,
      "Ġdispers": 6526,
      "chers": 6527,
      "ading": 6528,
      "History": 6529,
      "Ġparents": 6530,
      "Fl": 6531,
      "Ġcosts": 6532,
      "phas": 6533,
      "Ġtopological": 6534,
      "ĠIsrael": 6535,
      "gebras": 6536,
      "ĠOver": 6537,
      "stitution": 6538,
      "ĠPost": 6539,
      "Ġletter": 6540,
      "ĠNor": 6541,
      "ror": 6542,
      "Ġspent": 6543,
      "Ġtrivial": 6544,
      "Image": 6545,
      "ĠBest": 6546,
      "ĠDel": 6547,
      "bib": 6548,
      "ĠBrown": 6549,
      "Ġforeign": 6550,
      "Given": 6551,
      "Ġadvantage": 6552,
      "ĠMost": 6553,
      "ĠTwo": 6554,
      "Ġasymptotic": 6555,
      "IA": 6556,
      "Ġkilled": 6557,
      "ufact": 6558,
      "HS": 6559,
      "uled": 6560,
      "ifications": 6561,
      "LT": 6562,
      "ĠTw": 6563,
      "Ġsurpr": 6564,
      "Ġexception": 6565,
      "================": 6566,
      "urity": 6567,
      "ategory": 6568,
      "alian": 6569,
      "ĠMer": 6570,
      "Ġprecisely": 6571,
      "Ġdynamic": 6572,
      "ĠĠĠĠĠĠĠĠĊ": 6573,
      "Ġsites": 6574,
      "nn": 6575,
      "roller": 6576,
      "ĠScott": 6577,
      "ĠIR": 6578,
      "bal": 6579,
      "Ġaccurate": 6580,
      "ĠRob": 6581,
      "Ġsatisfied": 6582,
      "structure": 6583,
      "rical": 6584,
      "Ġtruth": 6585,
      ";</": 6586,
      "han": 6587,
      "ĠTom": 6588,
      "Ġdelay": 6589,
      "}~": 6590,
      "project": 6591,
      "Ġrang": 6592,
      "ultane": 6593,
      "jpg": 6594,
      "Ġmainly": 6595,
      "mitted": 6596,
      "ĠCE": 6597,
      "Ġinvestigate": 6598,
      "Ġreasons": 6599,
      "Ġleader": 6600,
      "Ġprocessing": 6601,
      "medskip": 6602,
      "Ser": 6603,
      "Ġcurvature": 6604,
      "ĠRussian": 6605,
      "Ġradiation": 6606,
      "scriptstyle": 6607,
      "Ġanything": 6608,
      "Ġtool": 6609,
      "/(": 6610,
      "Ġsequences": 6611,
      "Ġlearned": 6612,
      "Ġmostly": 6613,
      "ERT": 6614,
      "Ġtrend": 6615,
      "Ġpicture": 6616,
      "Ġfriends": 6617,
      "ams": 6618,
      "Ã¶": 6619,
      "isl": 6620,
      "Ġtests": 6621,
      "Ġmatching": 6622,
      "ĠMiss": 6623,
      "ĠIN": 6624,
      "ĠMax": 6625,
      "ĠFore": 6626,
      "func": 6627,
      "trivial": 6628,
      "avelength": 6629,
      "Ġminutes": 6630,
      "Ġradial": 6631,
      "Ġabund": 6632,
      "Ġgeneralized": 6633,
      "ĠBur": 6634,
      "Ġpaint": 6635,
      "Ġmodul": 6636,
      "Fact": 6637,
      "Ret": 6638,
      "Ġclient": 6639,
      "Rem": 6640,
      "Ġpolic": 6641,
      "Ġstress": 6642,
      "ĠEducation": 6643,
      "Ġconven": 6644,
      "ĠSuch": 6645,
      "ĠWestern": 6646,
      "Ġferm": 6647,
      "ections": 6648,
      "Ġremoved": 6649,
      "ĠTime": 6650,
      "orter": 6651,
      "yles": 6652,
      "ĠDen": 6653,
      "Ġgets": 6654,
      "|^{": 6655,
      "ola": 6656,
      "Ġevol": 6657,
      "Ġfavor": 6658,
      "Ġthrow": 6659,
      "rence": 6660,
      "Ġrequirements": 6661,
      "ĠRoad": 6662,
      "target": 6663,
      "She": 6664,
      "Ġsuggests": 6665,
      "ko": 6666,
      "Ġimplemented": 6667,
      "Ġadopted": 6668,
      "event": 6669,
      "Ġconflic": 6670,
      "Ġdashed": 6671,
      "notag": 6672,
      "Ġfourth": 6673,
      "alysis": 6674,
      "Ġgrand": 6675,
      "iem": 6676,
      "Consider": 6677,
      "ĠMem": 6678,
      "Ġpartners": 6679,
      "Ġopportunity": 6680,
      "perim": 6681,
      "sych": 6682,
      "}{*": 6683,
      "second": 6684,
      "ĠĠĠĠĠĠĠĠĠĠĠĠĠĠĠĠĠĠĠĠĠĠĠĠĠĠĠĠĠĠĠĠĠĠĠĠĠĠĠĠĠĠĠĠĠĠĠĠĠĠĠĠĠĠĠĠĠĠĠĠĠĠĠĠ": 6685,
      "Ġintersection": 6686,
      "Cre": 6687,
      "Ġenergies": 6688,
      "uler": 6689,
      "Ġstories": 6690,
      "bed": 6691,
      "Ġpolitic": 6692,
      "^{(\\": 6693,
      "Ġscene": 6694,
      "slant": 6695,
      "1988": 6696,
      "aver": 6697,
      "lication": 6698,
      "lood": 6699,
      "ĠForm": 6700,
      "Ġchemical": 6701,
      "urations": 6702,
      "Ġlabels": 6703,
      "going": 6704,
      "Ġlies": 6705,
      "diff": 6706,
      "pons": 6707,
      "Ġquickly": 6708,
      ")^\\": 6709,
      "Query": 6710,
      "Ġeverything": 6711,
      "Ġpurch": 6712,
      "CR": 6713,
      "actic": 6714,
      "rants": 6715,
      "ĠFrancis": 6716,
      "Ġcollege": 6717,
      "pired": 6718,
      "vest": 6719,
      "ĠIsland": 6720,
      "Ġphoton": 6721,
      "Ġvirtual": 6722,
      "ĠOffice": 6723,
      "FI": 6724,
      "ulture": 6725,
      "Suppose": 6726,
      "Ġserious": 6727,
      "gent": 6728,
      "Ġcloud": 6729,
      "Ġagents": 6730,
      "ĠKore": 6731,
      "omy": 6732,
      ">(": 6733,
      "ĠInc": 6734,
      "select": 6735,
      "Ġsolar": 6736,
      "pective": 6737,
      "mosp": 6738,
      "Ġsaying": 6739,
      "ĠPet": 6740,
      "Moreover": 6741,
      "dir": 6742,
      "Ġ$\\{\\": 6743,
      "ouble": 6744,
      "Ġadding": 6745,
      "Ġcanonical": 6746,
      "!]": 6747,
      "Ġrail": 6748,
      "white": 6749,
      "Ġvacc": 6750,
      "idel": 6751,
      "itative": 6752,
      "Ġsuitable": 6753,
      "@{": 6754,
      "soft": 6755,
      "models": 6756,
      "ĠCarol": 6757,
      "Ġpiece": 6758,
      "ĠDon": 6759,
      "ao": 6760,
      "Ġimproved": 6761,
      "ĠMass": 6762,
      "Ġmargin": 6763,
      "DR": 6764,
      "Ġweeks": 6765,
      "aus": 6766,
      "Ġacts": 6767,
      "icago": 6768,
      "Tra": 6769,
      "Dep": 6770,
      "DS": 6771,
      "Results": 6772,
      "Ġanc": 6773,
      "iler": 6774,
      "ropic": 6775,
      "Ġblocks": 6776,
      "rl": 6777,
      "Rec": 6778,
      "Ġcomposition": 6779,
      "ĠJose": 6780,
      "Ġbos": 6781,
      "Ġmixed": 6782,
      "Ġdead": 6783,
      "Ġsomeone": 6784,
      "erence": 6785,
      "ibration": 6786,
      "Ġdefe": 6787,
      "Ġapproximate": 6788,
      "Ġacadem": 6789,
      "Eng": 6790,
      "Ġplans": 6791,
      "Ġisol": 6792,
      "Ġdiscrim": 6793,
      "ĠJournal": 6794,
      "hetic": 6795,
      "Ġmanufact": 6796,
      "syn": 6797,
      "Ġplant": 6798,
      "Ġsch": 6799,
      "Ġdepict": 6800,
      "Ġcouple": 6801,
      "images": 6802,
      "Ġintensity": 6803,
      "Property": 6804,
      "Ġthank": 6805,
      "Ġ{};": 6806,
      "Ġnet": 6807,
      "Ġstochastic": 6808,
      "Ġcitiz": 6809,
      "Ġque": 6810,
      "Ġprotected": 6811,
      "Input": 6812,
      "Ġwatch": 6813,
      "ĠDirector": 6814,
      "query": 6815,
      "ĠVirgin": 6816,
      "chmark": 6817,
      "olf": 6818,
      "scriptsize": 6819,
      "Ġremove": 6820,
      "disc": 6821,
      "mediate": 6822,
      "!\\": 6823,
      "Ġmaterials": 6824,
      "Ġlaws": 6825,
      "vs": 6826,
      "Ġrelax": 6827,
      "finished": 6828,
      "Ġpatterns": 6829,
      "west": 6830,
      "Ġnone": 6831,
      "ĠBecause": 6832,
      "ditionally": 6833,
      "ounter": 6834,
      "Response": 6835,
      "ĠMad": 6836,
      "backslash": 6837,
      "ĠOpen": 6838,
      "cale": 6839,
      "phantom": 6840,
      "aud": 6841,
      "ancing": 6842,
      "Ġdespite": 6843,
      "Aut": 6844,
      "cluded": 6845,
      "ptic": 6846,
      "Ġpull": 6847,
      "Ġsn": 6848,
      "ibr": 6849,
      "asket": 6850,
      "Ġregist": 6851,
      "Ġelectro": 6852,
      "Ġequality": 6853,
      "auto": 6854,
      "ĠNetwork": 6855,
      "Mar": 6856,
      "atures": 6857,
      "Ġattract": 6858,
      "Ġdx": 6859,
      "1987": 6860,
      "ĠSl": 6861,
      "house": 6862,
      "Ġequivalence": 6863,
      "Ġprime": 6864,
      "Ġsym": 6865,
      "empor": 6866,
      "urt": 6867,
      "Ġserve": 6868,
      "Ġgrowing": 6869,
      "Ġtend": 6870,
      "Source": 6871,
      "Exp": 6872,
      "ĉĉĉĉĉĉĉĉ": 6873,
      "Ġdaughter": 6874,
      ">\\": 6875,
      "How": 6876,
      "plet": 6877,
      "ONT": 6878,
      "Rep": 6879,
      "./": 6880,
      "Ġ({\\": 6881,
      "Ġandroid": 6882,
      "ĠTor": 6883,
      "tan": 6884,
      "Ġjet": 6885,
      "ĠHam": 6886,
      "Ġenjoy": 6887,
      "(-\\": 6888,
      "Ġsimplic": 6889,
      "ĠLy": 6890,
      "ĠAnn": 6891,
      "ĠGiven": 6892,
      "Ġrational": 6893,
      "ĠLouis": 6894,
      "Ġbehaviour": 6895,
      "ĠEarth": 6896,
      "resh": 6897,
      "ilbert": 6898,
      "'m": 6899,
      "Ġfailed": 6900,
      "ĠAre": 6901,
      "high": 6902,
      "MB": 6903,
      "Ġrespond": 6904,
      "ests": 6905,
      "ette": 6906,
      "Ġempty": 6907,
      "Ġnav": 6908,
      "oma": 6909,
      "Can": 6910,
      "rosc": 6911,
      "ĠBoth": 6912,
      "php": 6913,
      "${\\": 6914,
      "}\\|": 6915,
      "Ġrecords": 6916,
      "general": 6917,
      "Ġmanner": 6918,
      "ĠLos": 6919,
      "ĠIts": 6920,
      "1960": 6921,
      "Ġtheories": 6922,
      "standing": 6923,
      "ĠCanadian": 6924,
      "adow": 6925,
      "Ġemphas": 6926,
      "Ġquantities": 6927,
      "atre": 6928,
      "Back": 6929,
      "ogonal": 6930,
      "Ġorders": 6931,
      "erior": 6932,
      "Ġpossibility": 6933,
      "esian": 6934,
      "Ġprison": 6935,
      "fully": 6936,
      "azine": 6937,
      "wp": 6938,
      "Ġsec": 6939,
      "obs": 6940,
      "Ġpaths": 6941,
      "According": 6942,
      "Ġgravity": 6943,
      "illa": 6944,
      "mn": 6945,
      "Ġ\\&": 6946,
      "Ġhypothesis": 6947,
      "Ġsubstant": 6948,
      "Ġdisease": 6949,
      "Override": 6950,
      "PO": 6951,
      "Ġpropos": 6952,
      "Post": 6953,
      "corollary": 6954,
      "Pos": 6955,
      "Ġreturns": 6956,
      "Date": 6957,
      "Ġdynamical": 6958,
      "final": 6959,
      "^*\\": 6960,
      "dem": 6961,
      "Builder": 6962,
      "Ġresear": 6963,
      "Ġluminosity": 6964,
      "Ġast": 6965,
      "Ġiniti": 6966,
      "ĠClub": 6967,
      "ĠProv": 6968,
      "FR": 6969,
      "Ġbands": 6970,
      "claim": 6971,
      "ĠHill": 6972,
      "slam": 6973,
      "igration": 6974,
      "Ġoriginally": 6975,
      "Xi": 6976,
      "ĠJapanese": 6977,
      "nergy": 6978,
      "Client": 6979,
      "web": 6980,
      "Ġbulk": 6981,
      "UE": 6982,
      "Ms": 6983,
      "Ġcategories": 6984,
      "ĠTimes": 6985,
      "DC": 6986,
      "Ġclimate": 6987,
      "Ġdigital": 6988,
      "ĠRussia": 6989,
      "Ġow": 6990,
      "axis": 6991,
      "andemic": 6992,
      "Ġcandidates": 6993,
      "Ġeigenvalues": 6994,
      "chron": 6995,
      "essages": 6996,
      "Ġsal": 6997,
      "ĠAcademy": 6998,
      "Ġgold": 6999,
      "verb": 7000,
      "Ġsafety": 7001,
      "Ġwaves": 7002,
      "TT": 7003,
      "Ġmission": 7004,
      "Ġdescribes": 7005,
      "Ġexplo": 7006,
      "Paramet": 7007,
      "Ġquark": 7008,
      "parameter": 7009,
      "Ġchart": 7010,
      "Ġalone": 7011,
      "Ġbool": 7012,
      "Ġsettings": 7013,
      "Ġcapture": 7014,
      "Ġdimensional": 7015,
      "Ġspeak": 7016,
      "Ġchallenge": 7017,
      "Ġregarding": 7018,
      "AV": 7019,
      "img": 7020,
      "ĠMet": 7021,
      "Ġthous": 7022,
      "Ġdoc": 7023,
      "Ġparties": 7024,
      "pdate": 7025,
      "Ġeq": 7026,
      "Ġordered": 7027,
      "Ġtal": 7028,
      "ĠTown": 7029,
      "equations": 7030,
      "onald": 7031,
      "ĠKingdom": 7032,
      "Ġfarm": 7033,
      "ĠĠĠĠĠĠĠĠĠĠĠĠĊ": 7034,
      "fi": 7035,
      "Ġwest": 7036,
      "1986": 7037,
      "reland": 7038,
      "Ġreports": 7039,
      "Ġclean": 7040,
      ")</": 7041,
      "ĠMont": 7042,
      ".\\\\": 7043,
      "Ġfemale": 7044,
      "loop": 7045,
      "Ġwait": 7046,
      "Ġsports": 7047,
      "itation": 7048,
      "rish": 7049,
      "^*(": 7050,
      "pload": 7051,
      "plane": 7052,
      "magnetic": 7053,
      "Ġhundred": 7054,
      "Ġmagnet": 7055,
      "etween": 7056,
      "inn": 7057,
      "Ġattacks": 7058,
      "Ġapparent": 7059,
      "Ġtrace": 7060,
      "ĠBre": 7061,
      "Ġtrig": 7062,
      "Car": 7063,
      "Ġstore": 7064,
      "Ġdevices": 7065,
      "ĠMil": 7066,
      "show": 7067,
      "Ġformat": 7068,
      "Ġturned": 7069,
      "Ġassuming": 7070,
      "Ġideas": 7071,
      "close": 7072,
      "Ġdestroy": 7073,
      "HC": 7074,
      "Case": 7075,
      "aland": 7076,
      "Living": 7077,
      "arios": 7078,
      "Ġeth": 7079,
      "Ġexplore": 7080,
      "Ġnecessarily": 7081,
      "Ġarri": 7082,
      "Do": 7083,
      "Ġ->": 7084,
      "Ġcommercial": 7085,
      "iii": 7086,
      "otype": 7087,
      "ĠBank": 7088,
      "Ġsimultane": 7089,
      "Ġwriter": 7090,
      "etries": 7091,
      "Ġartists": 7092,
      "apt": 7093,
      "adding": 7094,
      "edge": 7095,
      "Ġmur": 7096,
      "*}[": 7097,
      "Ġcorpor": 7098,
      "Ġstd": 7099,
      "Ġreprodu": 7100,
      "Ġcomplic": 7101,
      "ierarch": 7102,
      "ĠGrand": 7103,
      "Ġserver": 7104,
      "Ġhidden": 7105,
      "aterial": 7106,
      "eds": 7107,
      "ĠCam": 7108,
      "ĠRichard": 7109,
      "Ġsignals": 7110,
      "cut": 7111,
      "Ġdedu": 7112,
      "description": 7113,
      "iveness": 7114,
      "Ġbuildings": 7115,
      "Ġdiss": 7116,
      "ĠType": 7117,
      "Ġdebut": 7118,
      "vere": 7119,
      "ictor": 7120,
      "usal": 7121,
      "ĠLu": 7122,
      "ĠFrank": 7123,
      "Ġ\\,\\": 7124,
      "Ġtransmission": 7125,
      "Ġitems": 7126,
      "ĠProfess": 7127,
      "Ġdiam": 7128,
      "Label": 7129,
      "Ġpolicies": 7130,
      "Ġdemonstrate": 7131,
      "$^{": 7132,
      "property": 7133,
      "jav": 7134,
      "lock": 7135,
      "ĠWomen": 7136,
      "yes": 7137,
      "Ġmedium": 7138,
      "Ġincome": 7139,
      "\\|_": 7140,
      "jective": 7141,
      "Ġaffected": 7142,
      "Ġtechnical": 7143,
      "negative": 7144,
      "icate": 7145,
      "met": 7146,
      "Ġelim": 7147,
      "Ġswitch": 7148,
      "'ve": 7149,
      "Ġgun": 7150,
      "ban": 7151,
      "hang": 7152,
      "ĠJac": 7153,
      "client": 7154,
      "Ġartist": 7155,
      "Ġexplan": 7156,
      "Ġnotion": 7157,
      "ĠOF": 7158,
      "1984": 7159,
      "Ġmathemat": 7160,
      "Ġenter": 7161,
      "init": 7162,
      "ĠAtt": 7163,
      "ĠID": 7164,
      "paper": 7165,
      "La": 7166,
      "ervices": 7167,
      "Ġsuggested": 7168,
      "Ġelected": 7169,
      "uum": 7170,
      "$.}": 7171,
      "Ġtools": 7172,
      "Max": 7173,
      "Ġarriv": 7174,
      "Ġoffers": 7175,
      "isson": 7176,
      "ĠEven": 7177,
      "ĠStep": 7178,
      "My": 7179,
      "Ġcompat": 7180,
      "Ġepisode": 7181,
      "ulse": 7182,
      "Ġshot": 7183,
      "member": 7184,
      "istent": 7185,
      "brid": 7186,
      "Ġadjust": 7187,
      "Ġcharged": 7188,
      "Block": 7189,
      "mem": 7190,
      "Li": 7191,
      "Last": 7192,
      "clear": 7193,
      "Ġhar": 7194,
      "Ġissu": 7195,
      "kern": 7196,
      "ĠBi": 7197,
      "ĠLife": 7198,
      "Ġconvolution": 7199,
      ")}(\\": 7200,
      "Ġfounded": 7201,
      "ĠSocial": 7202,
      "flu": 7203,
      "ĠIII": 7204,
      "RI": 7205,
      "Ġauto": 7206,
      "Ġchallenges": 7207,
      "ala": 7208,
      "ĠOper": 7209,
      "rins": 7210,
      "mt": 7211,
      "opes": 7212,
      "âĢĿ.": 7213,
      "ĠPeter": 7214,
      "Ġcelebr": 7215,
      "ĠTheir": 7216,
      "Ġcritic": 7217,
      "1985": 7218,
      "gather": 7219,
      "large": 7220,
      "cline": 7221,
      "RR": 7222,
      "eness": 7223,
      "ĠCharles": 7224,
      "notation": 7225,
      "ĠUN": 7226,
      "astern": 7227,
      "Ġoccup": 7228,
      "unfinished": 7229,
      "Ġiteration": 7230,
      "ircraft": 7231,
      "Ġdrop": 7232,
      "ĠJan": 7233,
      "Ġgoals": 7234,
      "Ġuniformly": 7235,
      "hfill": 7236,
      "Ġwidely": 7237,
      "Ġwrong": 7238,
      "green": 7239,
      "ĠEv": 7240,
      "lib": 7241,
      "OL": 7242,
      "Min": 7243,
      "prec": 7244,
      "ĠChicago": 7245,
      "Gener": 7246,
      "Ġmetrics": 7247,
      "Ġpain": 7248,
      "MT": 7249,
      "Ġboolean": 7250,
      "ĠAngeles": 7251,
      "Ġatmosp": 7252,
      "Assum": 7253,
      "Base": 7254,
      "Stream": 7255,
      "Ġcorrection": 7256,
      "Ġtail": 7257,
      "Ġinitially": 7258,
      "Ġsizes": 7259,
      "else": 7260,
      "Ġisot": 7261,
      "Ġbundle": 7262,
      "points": 7263,
      "Ġalt": 7264,
      "options": 7265,
      "Ġuncertainties": 7266,
      "bot": 7267,
      "Ġgeneric": 7268,
      "{(\\": 7269,
      "rangian": 7270,
      "Ġsummer": 7271,
      "ĠStar": 7272,
      "Ġtrial": 7273,
      "Ġcompetition": 7274,
      "ĠOffic": 7275,
      "Ġemployed": 7276,
      "Ġtoward": 7277,
      "Ġcycl": 7278,
      "Ġdetector": 7279,
      "ĠRock": 7280,
      "footnotes": 7281,
      "Ġmaster": 7282,
      "Ġvote": 7283,
      "hens": 7284,
      "Other": 7285,
      "circle": 7286,
      "ĠAdd": 7287,
      "Ġfirm": 7288,
      "Ġlab": 7289,
      "finite": 7290,
      "Ġrect": 7291,
      "anish": 7292,
      "rating": 7293,
      "ĠParis": 7294,
      "Ġinteract": 7295,
      "Ġsubgroup": 7296,
      "Ġdense": 7297,
      "ifact": 7298,
      "parallel": 7299,
      "Ġfocused": 7300,
      "semble": 7301,
      "Ġconfidence": 7302,
      "110": 7303,
      "regular": 7304,
      "Ġevaluated": 7305,
      "Ġpowerful": 7306,
      "ĠAlgorithm": 7307,
      "Ġempir": 7308,
      "Ġreligious": 7309,
      "Ġpurposes": 7310,
      "ĠAtl": 7311,
      "footnotesize": 7312,
      "Ġeast": 7313,
      "thlet": 7314,
      "${": 7315,
      "ĠDM": 7316,
      "ĠSuppose": 7317,
      "itled": 7318,
      "Ġsched": 7319,
      "Ġouter": 7320,
      "itness": 7321,
      "apers": 7322,
      "ducible": 7323,
      "oupl": 7324,
      "riage": 7325,
      "RB": 7326,
      "sequently": 7327,
      "NO": 7328,
      "ĠBig": 7329,
      "Ġadvers": 7330,
      "Ġpolarization": 7331,
      "Ġuniversal": 7332,
      "uan": 7333,
      "tty": 7334,
      "Des": 7335,
      "ĠSol": 7336,
      "ĠHistor": 7337,
      "Ġprofiles": 7338,
      "Ġsuppose": 7339,
      "si": 7340,
      "Ġrare": 7341,
      "anguages": 7342,
      "DD": 7343,
      "Ġconducted": 7344,
      "acter": 7345,
      "Ġopin": 7346,
      "Ġallowing": 7347,
      "ĠIll": 7348,
      "sch": 7349,
      "Ġfiles": 7350,
      "Ġcircum": 7351,
      "textsf": 7352,
      "Ġ<<": 7353,
      "Ġprincipal": 7354,
      "\\!\\": 7355,
      "orig": 7356,
      "ĠNULL": 7357,
      "ĠIran": 7358,
      "Char": 7359,
      "$-$": 7360,
      "Ġpark": 7361,
      "ĠPan": 7362,
      "zy": 7363,
      "textup": 7364,
      "Ġquantity": 7365,
      "gment": 7366,
      "ilation": 7367,
      "relation": 7368,
      "Ġmarked": 7369,
      "PL": 7370,
      "jecture": 7371,
      "Ġgeometric": 7372,
      "Ġlocations": 7373,
      "ographic": 7374,
      "ĠArab": 7375,
      "Ġlif": 7376,
      "Ġinvolving": 7377,
      "ĠCatholic": 7378,
      "isot": 7379,
      "ĠHiggs": 7380,
      "ingly": 7381,
      "Ġnormalized": 7382,
      "Action": 7383,
      "Head": 7384,
      "ĠProject": 7385,
      "ounds": 7386,
      "aylor": 7387,
      "Ġbenefit": 7388,
      "Ġanalyz": 7389,
      "dependence": 7390,
      "Ġcentre": 7391,
      "Ġchanging": 7392,
      "Ġaggreg": 7393,
      "Ġentries": 7394,
      "Ġhelped": 7395,
      "background": 7396,
      "enty": 7397,
      "Ġassigned": 7398,
      "hab": 7399,
      "Ġperturbation": 7400,
      "sep": 7401,
      "ĠHel": 7402,
      "cope": 7403,
      "leftarrow": 7404,
      "sky": 7405,
      "inator": 7406,
      "Ġfeedback": 7407,
      "Ġinvestigation": 7408,
      "Ġâ": 7409,
      "ĠAut": 7410,
      "}.}": 7411,
      "rieved": 7412,
      "android": 7413,
      "Ġeconomy": 7414,
      "Ġtranslation": 7415,
      "ĠRo": 7416,
      "Ġrig": 7417,
      "Ġcat": 7418,
      "effect": 7419,
      "Ġinfer": 7420,
      "Ġhandle": 7421,
      "ĠGames": 7422,
      "Ġappointed": 7423,
      "arian": 7424,
      "Ġwavelength": 7425,
      "ĠJud": 7426,
      "Ġbeaut": 7427,
      "stain": 7428,
      "Ġperiodic": 7429,
      "button": 7430,
      "iled": 7431,
      "ato": 7432,
      "ĠZealand": 7433,
      ")(\\": 7434,
      "symm": 7435,
      "ĠSund": 7436,
      "'_{": 7437,
      "Ġopposite": 7438,
      "scope": 7439,
      "nections": 7440,
      "mom": 7441,
      "Ġidentical": 7442,
      "Ġstack": 7443,
      "Component": 7444,
      "ĠForce": 7445,
      "Point": 7446,
      "ĠDevelopment": 7447,
      "Ġbg": 7448,
      "Ġorganizations": 7449,
      "Ġbaseline": 7450,
      "ĠOh": 7451,
      "Ġsto": 7452,
      "Ġeveryone": 7453,
      "Ġmeas": 7454,
      "Ġtemperatures": 7455,
      "icine": 7456,
      "Ġquarter": 7457,
      "ĠDu": 7458,
      "Ġnumerous": 7459,
      "indu": 7460,
      "ramework": 7461,
      "last": 7462,
      "Ġcovered": 7463,
      "Ġphil": 7464,
      "Ġcreating": 7465,
      "Ġgravitational": 7466,
      "Ġopening": 7467,
      "iling": 7468,
      "ĠIreland": 7469,
      "Mem": 7470,
      "Ġstock": 7471,
      "Ġmill": 7472,
      "Ġpandemic": 7473,
      "stat": 7474,
      "Ġturns": 7475,
      "Ġfluctuations": 7476,
      "Ġatoms": 7477,
      "Ġwhom": 7478,
      ")}.": 7479,
      "Ġspac": 7480,
      "&&\\": 7481,
      "ootball": 7482,
      "continu": 7483,
      "Ġanom": 7484,
      "Ã¤": 7485,
      "ĠArts": 7486,
      "Resource": 7487,
      "Ġadjac": 7488,
      "ĠMexico": 7489,
      "Ġconclusion": 7490,
      "downarrow": 7491,
      "Ġcoach": 7492,
      "Ġcoupled": 7493,
      "Ġdirections": 7494,
      "ĠPenn": 7495,
      "Ġsetup": 7496,
      "Ġdependent": 7497,
      "|$": 7498,
      "Ġnor": 7499,
      "Ga": 7500,
      "Ġacting": 7501,
      "ĠPeople": 7502,
      "Ġlift": 7503,
      "Ġreserv": 7504,
      "Ġclaims": 7505,
      "boldmath": 7506,
      "Di": 7507,
      "Ġappearance": 7508,
      "Ġfailure": 7509,
      "Ġquadratic": 7510,
      "Hom": 7511,
      "ĠLin": 7512,
      "Ġrecover": 7513,
      "ĠHuman": 7514,
      "128": 7515,
      "Ġspirit": 7516,
      "arithm": 7517,
      "ariance": 7518,
      "ĠFourier": 7519,
      "Nav": 7520,
      "Ġstrategies": 7521,
      "Ġcert": 7522,
      "1983": 7523,
      "thick": 7524,
      "Ġbond": 7525,
      "Ġbrand": 7526,
      "Ġturb": 7527,
      "Number": 7528,
      "Ġhistorical": 7529,
      "Ġsomew": 7530,
      "Ġ$^{": 7531,
      "Ġinstr": 7532,
      "utation": 7533,
      "igan": 7534,
      "Ġconfigurations": 7535,
      "IST": 7536,
      "Ġrepresenting": 7537,
      "meta": 7538,
      "Ġdeviation": 7539,
      "Ġsolving": 7540,
      "comput": 7541,
      "Ġscenarios": 7542,
      "ĠObject": 7543,
      "quant": 7544,
      "zil": 7545,
      "Ġdecrease": 7546,
      "Ġessentially": 7547,
      "Ġfluid": 7548,
      "support": 7549,
      "ean": 7550,
      "ĠGeV": 7551,
      "Ġspecifically": 7552,
      "-(": 7553,
      "Although": 7554,
      "ipp": 7555,
      "Cref": 7556,
      "Ġ,\\": 7557,
      "Ġcorrections": 7558,
      "Ġexpressions": 7559,
      "asion": 7560,
      "ĠSta": 7561,
      "tings": 7562,
      "tree": 7563,
      "Ġindicated": 7564,
      "never": 7565,
      "asketball": 7566,
      "uparrow": 7567,
      "}/\\": 7568,
      "Ġresist": 7569,
      "Top": 7570,
      "Ġformulation": 7571,
      "ponents": 7572,
      "Function": 7573,
      "gers": 7574,
      "Ġfaith": 7575,
      "ĠBusiness": 7576,
      "Ġgenerating": 7577,
      "Ġpri": 7578,
      "anda": 7579,
      "RL": 7580,
      "NE": 7581,
      "obj": 7582,
      "Ġresidual": 7583,
      "=\\{": 7584,
      "Cell": 7585,
      "binom": 7586,
      "Ġannual": 7587,
      "Cal": 7588,
      "Ġtriang": 7589,
      "uty": 7590,
      "Ġalle": 7591,
      "$\\,": 7592,
      "loc": 7593,
      "ĠEngine": 7594,
      "ĠMel": 7595,
      "They": 7596,
      "Ġreduces": 7597,
      "ĠNov": 7598,
      "TV": 7599,
      "Ġindices": 7600,
      "Ġagree": 7601,
      "ĠBob": 7602,
      "Ġbudget": 7603,
      "server": 7604,
      "Ġperforming": 7605,
      "Po": 7606,
      "Ġisn": 7607,
      "Ġcoverage": 7608,
      "author": 7609,
      "ding": 7610,
      "ben": 7611,
      "Link": 7612,
      "Ġlie": 7613,
      "Ġcatch": 7614,
      "Ġsides": 7615,
      "clip": 7616,
      "ĠVirginia": 7617,
      "ME": 7618,
      "Ġspeech": 7619,
      "ucl": 7620,
      "yan": 7621,
      "Ġfrag": 7622,
      "ĠIslam": 7623,
      "ql": 7624,
      "risis": 7625,
      "Ġinterpretation": 7626,
      "Ġbenefits": 7627,
      "Ġphases": 7628,
      "ĠSpace": 7629,
      "Ġfelt": 7630,
      "Ġstarts": 7631,
      "kins": 7632,
      "Ġhappen": 7633,
      "Ġmixing": 7634,
      "Ġweb": 7635,
      "1982": 7636,
      "Run": 7637,
      "Ġspan": 7638,
      "Ġinstrument": 7639,
      "dash": 7640,
      "}$\\": 7641,
      "Ġnarrow": 7642,
      "Ġcryst": 7643,
      "osc": 7644,
      "Ġatta": 7645,
      "Ġinnov": 7646,
      "\"]": 7647,
      "Ġconvent": 7648,
      "Ġtemporal": 7649,
      "vin": 7650,
      "Ġplanning": 7651,
      "Left": 7652,
      "ua": 7653,
      "Ġvisible": 7654,
      "Ġhalo": 7655,
      "btn": 7656,
      "ĠReview": 7657,
      "250": 7658,
      "Status": 7659,
      "Ġintegrated": 7660,
      "ĠDec": 7661,
      "varrho": 7662,
      "ĠLake": 7663,
      "eries": 7664,
      "ĠConsider": 7665,
      "enerate": 7666,
      "Ġ\\|\\": 7667,
      "Oper": 7668,
      "Ġaspects": 7669,
      "midrule": 7670,
      "Ġfitting": 7671,
      "Ġraised": 7672,
      "ativ": 7673,
      "Ġvocal": 7674,
      "Ġfinished": 7675,
      "fa": 7676,
      "Ġtraffic": 7677,
      "Ġreader": 7678,
      "Ġaware": 7679,
      "ashion": 7680,
      "]^": 7681,
      "$^": 7682,
      "ĠLong": 7683,
      "ji": 7684,
      "Ġremained": 7685,
      "itors": 7686,
      "ĠItalian": 7687,
      "Ġfrequencies": 7688,
      "Ġmatches": 7689,
      "square": 7690,
      "stackrel": 7691,
      "Ġinsert": 7692,
      "lik": 7693,
      "Ġreconstruction": 7694,
      "header": 7695,
      "Ġinstances": 7696,
      "usband": 7697,
      "Ġdivided": 7698,
      "ribe": 7699,
      "ĠYoung": 7700,
      "Ġrecommend": 7701,
      "ested": 7702,
      "Ġextremely": 7703,
      "room": 7704,
      "Ġple": 7705,
      "Ġsustain": 7706,
      "Ġpeace": 7707,
      "Ġimprovement": 7708,
      "mode": 7709,
      "Ġ((": 7710,
      "spe": 7711,
      "Ġseparation": 7712,
      "ipped": 7713,
      "Ġlowest": 7714,
      "crit": 7715,
      "Ġadministration": 7716,
      "adata": 7717,
      "Ġreasonable": 7718,
      "Ġcollected": 7719,
      "$\\\\": 7720,
      "ture": 7721,
      "Ġvehicle": 7722,
      "ĠEU": 7723,
      "Ġleague": 7724,
      "AE": 7725,
      "Ġconfirmed": 7726,
      "riminal": 7727,
      "~(\\": 7728,
      "Ġjoin": 7729,
      "ĠAmericans": 7730,
      "resp": 7731,
      "Ġtrees": 7732,
      "Ġpractical": 7733,
      "stood": 7734,
      "ĠCorollary": 7735,
      "navbar": 7736,
      "Ġprefer": 7737,
      "ogen": 7738,
      "arity": 7739,
      "Ġoil": 7740,
      "Ġalgebraic": 7741,
      "cycl": 7742,
      "Var": 7743,
      "Ġbgcolor": 7744,
      "ĠTop": 7745,
      "Ġclin": 7746,
      "ogram": 7747,
      "ĠEconom": 7748,
      "aturally": 7749,
      "Ġforced": 7750,
      "frame": 7751,
      "Ġlens": 7752,
      "urns": 7753,
      "Ġguitar": 7754,
      "azz": 7755,
      "Ġtopology": 7756,
      "Ġmodeling": 7757,
      "Ġpaid": 7758,
      "args": 7759,
      "language": 7760,
      "Ġdatabase": 7761,
      "ĠChild": 7762,
      "Ġofficials": 7763,
      "Start": 7764,
      "Ġarc": 7765,
      "Ġsimulated": 7766,
      "BB": 7767,
      "Ġrepeated": 7768,
      "Ġ\"\"\"": 7769,
      "multline": 7770,
      "Ġeffectively": 7771,
      "Ġprotocol": 7772,
      "Ġaccret": 7773,
      "append": 7774,
      "Ġship": 7775,
      "imits": 7776,
      "Mat": 7777,
      "Sum": 7778,
      "elect": 7779,
      "chor": 7780,
      "Ġcomments": 7781,
      "zer": 7782,
      "180": 7783,
      "Ġkept": 7784,
      "Ġ\\[": 7785,
      "Ġ{$\\": 7786,
      "LASS": 7787,
      "ĠHenry": 7788,
      "Ġabsorption": 7789,
      "Ġsubsection": 7790,
      "Ġoperating": 7791,
      "Bo": 7792,
      "hor": 7793,
      "there": 7794,
      "pred": 7795,
      "Ġneutrino": 7796,
      "YPE": 7797,
      "âĢĿ,": 7798,
      "Ġbill": 7799,
      "alty": 7800,
      "Ġhomogeneous": 7801,
      "ymmetric": 7802,
      "1979": 7803,
      "ussion": 7804,
      "element": 7805,
      "wt": 7806,
      "Ġdiscovered": 7807,
      "Ġdrive": 7808,
      "miss": 7809,
      "ceil": 7810,
      "Ġ+=": 7811,
      "Attribute": 7812,
      "Instance": 7813,
      "ĠBas": 7814,
      "ĠPhys": 7815,
      "osoph": 7816,
      "Ġfigures": 7817,
      "unch": 7818,
      "rowser": 7819,
      "Ġscope": 7820,
      "oday": 7821,
      "Ġmoments": 7822,
      "Ġstraightforward": 7823,
      "ĠMany": 7824,
      "formance": 7825,
      "Ġdriving": 7826,
      "ruck": 7827,
      "Ġended": 7828,
      "Ġpuls": 7829,
      "ĠGr": 7830,
      "Ġvictim": 7831,
      "Ġperspective": 7832,
      "hl": 7833,
      "Hel": 7834,
      "xml": 7835,
      "\\},": 7836,
      "Ġdecades": 7837,
      "ĠChief": 7838,
      "Ġintermediate": 7839,
      "clusive": 7840,
      "TC": 7841,
      "Ġbecoming": 7842,
      "ader": 7843,
      "{|": 7844,
      "Ġpolynomials": 7845,
      "theless": 7846,
      "Ġfunding": 7847,
      "Ġcharacteristics": 7848,
      "ĠMartin": 7849,
      "short": 7850,
      "Ġcities": 7851,
      "chain": 7852,
      "Ġcomposed": 7853,
      "Ġ\\{\\": 7854,
      "Wid": 7855,
      "Ġcontinues": 7856,
      "Ġapart": 7857,
      "ctic": 7858,
      "Ġur": 7859,
      "Ġdensities": 7860,
      "Ġsend": 7861,
      "instein": 7862,
      "Ġfamous": 7863,
      "Ġhorizontal": 7864,
      "lat": 7865,
      "ĠChampionship": 7866,
      "Ġtag": 7867,
      "nol": 7868,
      ".$$": 7869,
      "Ġbalance": 7870,
      "herical": 7871,
      "Ġcolumns": 7872,
      "Ġhierarch": 7873,
      "rama": 7874,
      "oved": 7875,
      "Ġmanager": 7876,
      "Ġvariations": 7877,
      "Ġviolence": 7878,
      "full": 7879,
      "appe": 7880,
      "product": 7881,
      "tained": 7882,
      "fered": 7883,
      "apped": 7884,
      "Ġpossibly": 7885,
      "Ġunless": 7886,
      "Ġprecision": 7887,
      "wave": 7888,
      "oton": 7889,
      "125": 7890,
      "Ġmolecular": 7891,
      "Ġdecreases": 7892,
      "Ġeditor": 7893,
      "organ": 7894,
      "Ġcommit": 7895,
      "lie": 7896,
      "Ġofficer": 7897,
      "Ġ~\\": 7898,
      "har": 7899,
      "mathtt": 7900,
      "Ġrecognition": 7901,
      "sym": 7902,
      "Gl": 7903,
      "Off": 7904,
      "ads": 7905,
      "possible": 7906,
      "wa": 7907,
      "ĠWal": 7908,
      "eller": 7909,
      "pop": 7910,
      "Ġanalytic": 7911,
      "ĠRecords": 7912,
      "ĠVer": 7913,
      "Ear": 7914,
      "Am": 7915,
      "dens": 7916,
      "Ġmedian": 7917,
      "arams": 7918,
      "Ġvacuum": 7919,
      "Null": 7920,
      "Ġolder": 7921,
      "Ġmask": 7922,
      "Ġtransitions": 7923,
      "Ġmetal": 7924,
      "Ġenhance": 7925,
      "ĠNone": 7926,
      "Ġcrucial": 7927,
      "John": 7928,
      "Ġcamera": 7929,
      "Ġepoch": 7930,
      "Ġsummary": 7931,
      "Ġsky": 7932,
      "Ġhospital": 7933,
      "comes": 7934,
      "sts": 7935,
      "Ġlived": 7936,
      "request": 7937,
      "emb": 7938,
      "Ġcultural": 7939,
      "Gu": 7940,
      "ĠEnd": 7941,
      "Ġincident": 7942,
      "ĠLord": 7943,
      "ĠSpanish": 7944,
      "Ġorganized": 7945,
      "Us": 7946,
      "Ġchief": 7947,
      "eger": 7948,
      "Ġenvironmental": 7949,
      "Ġarrest": 7950,
      "Ġsubsequent": 7951,
      "Ġcalls": 7952,
      "Ġlock": 7953,
      "Ġlabor": 7954,
      "\\}.": 7955,
      "Ġcreation": 7956,
      "etails": 7957,
      "shire": 7958,
      "})^{": 7959,
      "1981": 7960,
      "Ġperhaps": 7961,
      "Ġexpectation": 7962,
      "ĠIS": 7963,
      "Ġextent": 7964,
      "Ġsensitivity": 7965,
      "[\"": 7966,
      "ĠAcc": 7967,
      "ĠPy": 7968,
      "PD": 7969,
      "Ġverify": 7970,
      "ĠKn": 7971,
      "}[!": 7972,
      "icular": 7973,
      "ĠLee": 7974,
      "Ġconsisting": 7975,
      "ĠSecretary": 7976,
      "lower": 7977,
      "ĠĠčĊ": 7978,
      "ĠSaint": 7979,
      "Ġ---": 7980,
      "ĠField": 7981,
      "ĠIss": 7982,
      "Ġregression": 7983,
      "Ġcitizens": 7984,
      "Ġwasn": 7985,
      "isted": 7986,
      "Non": 7987,
      "Ġinvestment": 7988,
      ",...,": 7989,
      "ady": 7990,
      "Ġreferences": 7991,
      "Some": 7992,
      "Ġsensitive": 7993,
      "001": 7994,
      "ĠLog": 7995,
      "III": 7996,
      "Ġstrictly": 7997,
      "propto": 7998,
      "ĉĠ": 7999,
      "liography": 8000,
      "Ġorthogonal": 8001,
      "ĠSup": 8002,
      "sd": 8003,
      "json": 8004,
      "bigcup": 8005,
      ")).": 8006,
      "Ġpush": 8007,
      "Ġinference": 8008,
      "Ġdemonstrated": 8009,
      "ĠVictor": 8010,
      "}{*}{": 8011,
      "}},\\": 8012,
      "update": 8013,
      "oses": 8014,
      "ĠGeorg": 8015,
      "Ġreality": 8016,
      "Ġlibrary": 8017,
      "power": 8018,
      "invariant": 8019,
      "ni": 8020,
      "ĠTour": 8021,
      "Ġrepresentative": 8022,
      "Ġcontinuum": 8023,
      "lope": 8024,
      "Ġplas": 8025,
      "Ġdispersion": 8026,
      "Ġschemes": 8027,
      "Ġstations": 8028,
      "Ġpackage": 8029,
      "Ġviews": 8030,
      "Ġhappens": 8031,
      "ĠDet": 8032,
      "Ġcomplement": 8033,
      "&=&\\": 8034,
      "Ġwinning": 8035,
      "umni": 8036,
      "Ġabsence": 8037,
      "Token": 8038,
      "Ġexceed": 8039,
      "ĠSimilarly": 8040,
      "Sche": 8041,
      "Ġleaving": 8042,
      "rinsic": 8043,
      "Proposition": 8044,
      "Ġlatest": 8045,
      "Ġrandomly": 8046,
      "Local": 8047,
      "Equal": 8048,
      "ester": 8049,
      "Ġsubspace": 8050,
      "STATE": 8051,
      "Ġelectrons": 8052,
      "Ġinvolve": 8053,
      "Ġoffset": 8054,
      "BO": 8055,
      "Ġshell": 8056,
      "ĠJoseph": 8057,
      "Ġclosely": 8058,
      "Ġdeploy": 8059,
      "Ġdiffusion": 8060,
      "output": 8061,
      "Ġchance": 8062,
      "Ġpowers": 8063,
      "Ġderivatives": 8064,
      "Ġtrajectory": 8065,
      "Ġsenior": 8066,
      "rastructure": 8067,
      "ĠJo": 8068,
      "El": 8069,
      "____": 8070,
      "Command": 8071,
      "GeV": 8072,
      "iable": 8073,
      "nm": 8074,
      "Ġhuge": 8075,
      "elligence": 8076,
      "Ġdeveloping": 8077,
      "Ġconvers": 8078,
      "rates": 8079,
      "ĠRail": 8080,
      "world": 8081,
      "Ġtreated": 8082,
      "Ġdivision": 8083,
      "AME": 8084,
      "private": 8085,
      "Comp": 8086,
      "textnormal": 8087,
      "etch": 8088,
      "expected": 8089,
      "ĠItaly": 8090,
      "$'": 8091,
      "forming": 8092,
      "Ġdominant": 8093,
      "}{}": 8094,
      "ĠMiddle": 8095,
      ")[": 8096,
      "just": 8097,
      "Ġweighted": 8098,
      "Ġsimilarly": 8099,
      "pic": 8100,
      "ja": 8101,
      "tor": 8102,
      "Ġproportional": 8103,
      "Ġconjug": 8104,
      "ella": 8105,
      "yer": 8106,
      "Ġbenchmark": 8107,
      "Ġprecise": 8108,
      "Ġcancer": 8109,
      "ugin": 8110,
      "\\}_{": 8111,
      "LR": 8112,
      "Ġcontribute": 8113,
      "Em": 8114,
      "src": 8115,
      ">>": 8116,
      "Ġorbital": 8117,
      "Ġdefines": 8118,
      "inction": 8119,
      "Ġhusband": 8120,
      "1950": 8121,
      "odies": 8122,
      "Ġsexual": 8123,
      "Ġvoice": 8124,
      "ican": 8125,
      "Ġtight": 8126,
      "ĠSU": 8127,
      "urban": 8128,
      "Ġinclusion": 8129,
      "Ġencoura": 8130,
      "estic": 8131,
      "ĠJewish": 8132,
      "hent": 8133,
      "find": 8134,
      "Ġlikelihood": 8135,
      "ĠInformation": 8136,
      "edu": 8137,
      "ĠKar": 8138,
      "ĠWay": 8139,
      "Content": 8140,
      "Ġtang": 8141,
      "Handler": 8142,
      "\").": 8143,
      "ultural": 8144,
      "MD": 8145,
      "ĠJohnson": 8146,
      "Ġemployees": 8147,
      "Ġleaves": 8148,
      "prov": 8149,
      "Ġstatements": 8150,
      "Two": 8151,
      "iemann": 8152,
      "ĠTechnology": 8153,
      "since": 8154,
      "Dist": 8155,
      "service": 8156,
      "MF": 8157,
      "SH": 8158,
      "Ġuniversity": 8159,
      "Ġoffered": 8160,
      "Ġsea": 8161,
      "Ġnine": 8162,
      "ĠPa": 8163,
      "Ġinstant": 8164,
      "asy": 8165,
      "ronic": 8166,
      "ĠAsia": 8167,
      "jected": 8168,
      "Ġrestriction": 8169,
      "Ġdefinitions": 8170,
      "Ġroute": 8171,
      "dule": 8172,
      "Ġneutral": 8173,
      "Ġvarying": 8174,
      "track": 8175,
      "subequations": 8176,
      "Ġchoices": 8177,
      "imately": 8178,
      "Ġreaction": 8179,
      "Mon": 8180,
      "Ġcommission": 8181,
      "ĠBuild": 8182,
      "Ġsafe": 8183,
      "zen": 8184,
      "forcement": 8185,
      "Ġawarded": 8186,
      "Ġalbums": 8187,
      "hot": 8188,
      "Ġscientific": 8189,
      "allow": 8190,
      "ortunately": 8191,
      "apes": 8192,
      "Ġfaster": 8193,
      "push": 8194,
      "Ġcatalog": 8195,
      "Ġhousehold": 8196,
      "Ġcav": 8197,
      "ubble": 8198,
      "ĠFilm": 8199,
      "ĠSD": 8200,
      "Ġfunctor": 8201,
      "REF": 8202,
      "chen": 8203,
      "ĠFund": 8204,
      "Ġinputs": 8205,
      "othing": 8206,
      "Ġactor": 8207,
      "Ġflag": 8208,
      "BH": 8209,
      "exists": 8210,
      "ructions": 8211,
      "imation": 8212,
      "Ġclaimed": 8213,
      "Ġaircraft": 8214,
      "Ġsecondary": 8215,
      "ApJ": 8216,
      "Ġ..": 8217,
      "eless": 8218,
      "Ġrestricted": 8219,
      "ĠGoogle": 8220,
      "Ġleadership": 8221,
      "}^{+": 8222,
      "Ġjobs": 8223,
      "Ġsales": 8224,
      "PH": 8225,
      "Ġheard": 8226,
      "ĠEquation": 8227,
      "1978": 8228,
      "citealt": 8229,
      "ĠMur": 8230,
      "During": 8231,
      "ĠLine": 8232,
      ")}$.": 8233,
      "Ġsurfaces": 8234,
      "Ġ_{\\": 8235,
      "Ġbus": 8236,
      "ĠMethod": 8237,
      "hem": 8238,
      "Ġcharges": 8239,
      "Ġstorage": 8240,
      "ĠÂ£": 8241,
      "ansas": 8242,
      "Ġprotection": 8243,
      "ocket": 8244,
      "\\[\\": 8245,
      "Ġorientation": 8246,
      "Ġelectronic": 8247,
      "Output": 8248,
      "Ġfol": 8249,
      "alities": 8250,
      "Ġscores": 8251,
      "look": 8252,
      ")>": 8253,
      "ĉĠĠĠ": 8254,
      "uer": 8255,
      "Ġlargely": 8256,
      "GR": 8257,
      "care": 8258,
      "observ": 8259,
      "Ġcorrelations": 8260,
      "Ġirreducible": 8261,
      "mal": 8262,
      "Ġplus": 8263,
      "Ġpixel": 8264,
      "_{+": 8265,
      "Ġsystematic": 8266,
      "ulty": 8267,
      "BM": 8268,
      "ĠHy": 8269,
      "ipeline": 8270,
      "ĠBr": 8271,
      "ien": 8272,
      "ĠLagrangian": 8273,
      "ĠWood": 8274,
      "thon": 8275,
      "Ġlaunched": 8276,
      "ĠSk": 8277,
      "represent": 8278,
      "hard": 8279,
      "Ġelli": 8280,
      "allery": 8281,
      "filter": 8282,
      "variance": 8283,
      "1976": 8284,
      "cean": 8285,
      "IO": 8286,
      "oviet": 8287,
      "CF": 8288,
      "tz": 8289,
      "Ġ(\"": 8290,
      "Page": 8291,
      "ĠCNN": 8292,
      "oston": 8293,
      "BR": 8294,
      "supp": 8295,
      "inating": 8296,
      "ãģ": 8297,
      "Work": 8298,
      "ted": 8299,
      "smallskip": 8300,
      "ipart": 8301,
      "\\|^": 8302,
      "Ġpapers": 8303,
      "ĠEmp": 8304,
      "Vis": 8305,
      "mean": 8306,
      "Ġuniqu": 8307,
      "Ġcommonly": 8308,
      "Ġroll": 8309,
      "ĠUSA": 8310,
      "pres": 8311,
      "Ġbroadcast": 8312,
      "ishop": 8313,
      "duction": 8314,
      "ermi": 8315,
      "gar": 8316,
      "Ġroughly": 8317,
      "Ġunderstood": 8318,
      "ĠJes": 8319,
      "256": 8320,
      "Ġrevealed": 8321,
      "Ġproposition": 8322,
      "wer": 8323,
      "dep": 8324,
      "Ġreward": 8325,
      "odd": 8326,
      "Ġice": 8327,
      "Ġinterior": 8328,
      "ĠAp": 8329,
      "defn": 8330,
      "ĠCarolina": 8331,
      "Bigg": 8332,
      "Ġdistances": 8333,
      "Ġdepartment": 8334,
      "Ġshoot": 8335,
      "Ġdiagn": 8336,
      "ĠSi": 8337,
      "Check": 8338,
      "ĠStat": 8339,
      "Ġsession": 8340,
      "control": 8341,
      "}>": 8342,
      "Ġpool": 8343,
      "status": 8344,
      "ĠSil": 8345,
      "Ġexcess": 8346,
      "ĠTer": 8347,
      "ounce": 8348,
      "Ġcodes": 8349,
      "600": 8350,
      "CK": 8351,
      "domain": 8352,
      "Ġgenerator": 8353,
      "Ġbattle": 8354,
      "^+$": 8355,
      "ributed": 8356,
      "}^+": 8357,
      "True": 8358,
      "Ġcommut": 8359,
      "Ġrich": 8360,
      "phe": 8361,
      "Ġfill": 8362,
      "Ġupdated": 8363,
      "format": 8364,
      "ĠĠĠĠĠĠĠĠĠĠĠĠĠĠĠĠĠĠĠĠ": 8365,
      "ĠPak": 8366,
      "Ġversus": 8367,
      "iano": 8368,
      "1977": 8369,
      "ĠTim": 8370,
      "})=\\": 8371,
      "Ð»": 8372,
      "Ġran": 8373,
      "isters": 8374,
      "utch": 8375,
      "Ġcooper": 8376,
      "Prov": 8377,
      "wan": 8378,
      "ĠStand": 8379,
      "phase": 8380,
      "Ġflex": 8381,
      "Ġintroduction": 8382,
      "inet": 8383,
      "Ġlanguages": 8384,
      "160": 8385,
      "anglement": 8386,
      "erion": 8387,
      "Ġchampions": 8388,
      "Ġscript": 8389,
      "Ġcovering": 8390,
      "Ġaug": 8391,
      "Ġsuccessfully": 8392,
      "Ġsimilarity": 8393,
      "Ġpanels": 8394,
      "Ġdominated": 8395,
      "Ġknew": 8396,
      "allet": 8397,
      "ĠSN": 8398,
      "rative": 8399,
      "lick": 8400,
      "Ġmetall": 8401,
      "ĠCase": 8402,
      "problem": 8403,
      "rip": 8404,
      "raq": 8405,
      "Disc": 8406,
      "SON": 8407,
      "Ġsentence": 8408,
      "Ġjump": 8409,
      "Ġpromin": 8410,
      "*/": 8411,
      "acific": 8412,
      "ĠĠĠĠĠĠĠĠĠĠĠĠĠĠĠĠĠĠĠĠĠ": 8413,
      "Ġdrawn": 8414,
      "Ġdedicated": 8415,
      "Ġbelieved": 8416,
      "ĠGood": 8417,
      "Ġexecution": 8418,
      "gal": 8419,
      "Ġillustrated": 8420,
      "note": 8421,
      "BU": 8422,
      "Ġquot": 8423,
      "Ġcontrols": 8424,
      "Ġinvolves": 8425,
      "ĠComput": 8426,
      "Ġanalyze": 8427,
      "Ġsupers": 8428,
      "Ġextracted": 8429,
      "Ġexcell": 8430,
      "ĠNS": 8431,
      "ĠJustice": 8432,
      "pain": 8433,
      "avor": 8434,
      "newline": 8435,
      "BL": 8436,
      "Ġliqu": 8437,
      "GS": 8438,
      "$}}": 8439,
      "ĠPlay": 8440,
      "aters": 8441,
      "fort": 8442,
      "CN": 8443,
      "Ġtried": 8444,
      "Ġ}}": 8445,
      "Ġinvestigated": 8446,
      "emporary": 8447,
      "Ġprimarily": 8448,
      "Ġrespective": 8449,
      "ĠFestival": 8450,
      "Ġflows": 8451,
      "Art": 8452,
      "apse": 8453,
      "ĠCast": 8454,
      "Ġready": 8455,
      "entry": 8456,
      "aling": 8457,
      "Ġexpos": 8458,
      "Ġextreme": 8459,
      "gency": 8460,
      "Ġcontrolled": 8461,
      "riday": 8462,
      "ĠAnother": 8463,
      "Ġatomic": 8464,
      "syl": 8465,
      "Ġhappened": 8466,
      "Ġcauses": 8467,
      "comb": 8468,
      "Ġissued": 8469,
      "255": 8470,
      "{.": 8471,
      "Ġterrit": 8472,
      "Long": 8473,
      "ĠFace": 8474,
      "Each": 8475,
      "ĠSunday": 8476,
      "ĠAff": 8477,
      "measure": 8478,
      "uon": 8479,
      "tail": 8480,
      "Ġpresents": 8481,
      "Ġtouch": 8482,
      "1975": 8483,
      "ĠJim": 8484,
      "Ġtourn": 8485,
      "Ġcoast": 8486,
      "Ġdrug": 8487,
      "Another": 8488,
      "rg": 8489,
      "ĠServices": 8490,
      "cross": 8491,
      "Ġbr": 8492,
      "bc": 8493,
      "Ġfeatured": 8494,
      "Ġsphere": 8495,
      "ĠSpe": 8496,
      "Ġaccretion": 8497,
      "ĠRam": 8498,
      "ĠHome": 8499,
      "Ġsupply": 8500,
      "Ġexerc": 8501,
      "Ġarticles": 8502,
      "inity": 8503,
      "found": 8504,
      "Ġowners": 8505,
      "density": 8506,
      "aved": 8507,
      "1972": 8508,
      "Ġconcerns": 8509,
      "101": 8510,
      "1974": 8511,
      "Ġempirical": 8512,
      "Ġmonitor": 8513,
      "ĠOld": 8514,
      "Ġvision": 8515,
      "Ġjour": 8516,
      "inem": 8517,
      "Ġgeodes": 8518,
      "ativistic": 8519,
      "Ġinstitutions": 8520,
      "gray": 8521,
      "ĠJul": 8522,
      "Ġestimator": 8523,
      "Ġconnections": 8524,
      "Ġends": 8525,
      "Ġstead": 8526,
      "FONT": 8527,
      "Ġnaturally": 8528,
      "Ġsimplicity": 8529,
      "ĠShow": 8530,
      "Ġtransverse": 8531,
      "RC": 8532,
      "ĠGlobal": 8533,
      "Ġdecisions": 8534,
      "Ġfans": 8535,
      "ĠManagement": 8536,
      "Ġcaref": 8537,
      ")}$,": 8538,
      "ĠTHE": 8539,
      "Ġdomains": 8540,
      "iana": 8541,
      "Ġcertainly": 8542,
      "Ġdefend": 8543,
      "VER": 8544,
      "len": 8545,
      "rust": 8546,
      "Default": 8547,
      "ĠDefinition": 8548,
      "Ġfif": 8549,
      "ĠBern": 8550,
      "TO": 8551,
      "ĠCamp": 8552,
      "also": 8553,
      "response": 8554,
      "Ġanyone": 8555,
      "Ġcriteria": 8556,
      "Ġbreaking": 8557,
      "racket": 8558,
      "ynamics": 8559,
      "fol": 8560,
      "connected": 8561,
      "learning": 8562,
      "ĠTre": 8563,
      "Ġalgebras": 8564,
      "Ġchallenging": 8565,
      ")_{\\": 8566,
      "gate": 8567,
      "itory": 8568,
      "Ġcharacterized": 8569,
      "Ġhorizon": 8570,
      "Ġ\\}": 8571,
      "Ã¨": 8572,
      "Ġexcited": 8573,
      "ĠColumb": 8574,
      "Ġblood": 8575,
      "mf": 8576,
      "Ġdiagrams": 8577,
      "Ġmusical": 8578,
      "ĠMajor": 8579,
      "Ġversions": 8580,
      "ĠBritain": 8581,
      "Ġconflict": 8582,
      "esides": 8583,
      "Options": 8584,
      "Ġintended": 8585,
      "ABLE": 8586,
      "1973": 8587,
      "ione": 8588,
      "Load": 8589,
      "\"),": 8590,
      "Ġacademic": 8591,
      "Ġuniverse": 8592,
      "ATION": 8593,
      "ĠScot": 8594,
      "EQ": 8595,
      "Ġhands": 8596,
      "arial": 8597,
      "Ġtwice": 8598,
      "ĠTaylor": 8599,
      "layer": 8600,
      "osh": 8601,
      "ĠExp": 8602,
      "Ġdocuments": 8603,
      "Ġrequirement": 8604,
      "Go": 8605,
      "scape": 8606,
      "Ġapplies": 8607,
      "ĠCD": 8608,
      "KE": 8609,
      "Ġfinds": 8610,
      "global": 8611,
      "phy": 8612,
      "ora": 8613,
      "rency": 8614,
      "ĠDE": 8615,
      "ĠDom": 8616,
      "Ġpassing": 8617,
      "ĠCivil": 8618,
      "Ġking": 8619,
      "itudes": 8620,
      "Ġmunic": 8621,
      "reference": 8622,
      "intro": 8623,
      "Ġstronger": 8624,
      "ĠWeb": 8625,
      "functions": 8626,
      "Ġsimultaneously": 8627,
      "Ġofficers": 8628,
      "Ġexecutive": 8629,
      "ĠLove": 8630,
      "Ġmodules": 8631,
      "std": 8632,
      "Ġmeta": 8633,
      "ĠOrder": 8634,
      "Ġcarbon": 8635,
      "ĠFederal": 8636,
      "Ġprem": 8637,
      "itan": 8638,
      "uple": 8639,
      "ĠSom": 8640,
      "Ġstabil": 8641,
      "aton": 8642,
      "Arg": 8643,
      "Ġaccepted": 8644,
      "Ġdaily": 8645,
      "Ġisland": 8646,
      "Ġcold": 8647,
      "Ġprepar": 8648,
      "ĠAGN": 8649,
      "Ġresearchers": 8650,
      "enses": 8651,
      "Tem": 8652,
      "uries": 8653,
      "ĠEnergy": 8654,
      "Ġgeneralization": 8655,
      "ĠRun": 8656,
      "gypt": 8657,
      "Ġconverges": 8658,
      "................": 8659,
      "Ġtested": 8660,
      "LC": 8661,
      "assum": 8662,
      "Ġfacilities": 8663,
      "Ġfont": 8664,
      "erg": 8665,
      "orney": 8666,
      "Ġresidents": 8667,
      "ĠFootball": 8668,
      "Ag": 8669,
      "_{[": 8670,
      "Ġphotons": 8671,
      "ĠSwed": 8672,
      "vania": 8673,
      "Ġinterpol": 8674,
      "Ġsolved": 8675,
      "Ġanalys": 8676,
      "Ġreconstruct": 8677,
      "Ġvort": 8678,
      "|_{\\": 8679,
      "Ġproduces": 8680,
      "Dec": 8681,
      "ĠParliament": 8682,
      "Ġthrows": 8683,
      "Ġsecret": 8684,
      "Ġfre": 8685,
      "ups": 8686,
      "Ġcloser": 8687,
      "Style": 8688,
      "ethe": 8689,
      "arma": 8690,
      "Ġwild": 8691,
      "pack": 8692,
      "Ġeigenvalue": 8693,
      "Furthermore": 8694,
      "different": 8695,
      "Ġtransformations": 8696,
      "ĠJones": 8697,
      "Ġentirely": 8698,
      "Ġsinger": 8699,
      "airman": 8700,
      "Ġpsych": 8701,
      "istence": 8702,
      "Ġglob": 8703,
      "irection": 8704,
      "Ġweap": 8705,
      "Ġconference": 8706,
      "ĠEvery": 8707,
      "igu": 8708,
      "ĠHon": 8709,
      "Ġcir": 8710,
      "Ġopportunities": 8711,
      "ĠSummer": 8712,
      "Ġthin": 8713,
      "Buffer": 8714,
      "iful": 8715,
      "Ġsatell": 8716,
      "Ġdip": 8717,
      "Ġposterior": 8718,
      "Ġequip": 8719,
      "when": 8720,
      "cp": 8721,
      "General": 8722,
      "Ġraise": 8723,
      "ĠProfessor": 8724,
      "Ġpolitics": 8725,
      "adel": 8726,
      "Ġratios": 8727,
      "Ġfits": 8728,
      "ĠCross": 8729,
      "oles": 8730,
      "Ġmeant": 8731,
      "Ġseparated": 8732,
      "Ġconditional": 8733,
      "Ġbrain": 8734,
      "Ġbra": 8735,
      ",.": 8736,
      "Factory": 8737,
      "ribed": 8738,
      "Men": 8739,
      "ĠGen": 8740,
      "ĠHor": 8741,
      "Acc": 8742,
      "Ġdiscussions": 8743,
      "Ġaw": 8744,
      "uclide": 8745,
      "Version": 8746,
      ")),": 8747,
      "complete": 8748,
      "Ġdiffer": 8749,
      "Ġcrisis": 8750,
      "signed": 8751,
      "modules": 8752,
      "Ġcomparable": 8753,
      "INT": 8754,
      "Ġinterests": 8755,
      "above": 8756,
      "ĠBrazil": 8757,
      "ync": 8758,
      "Ġcrow": 8759,
      "Ġensemble": 8760,
      "Ġphoto": 8761,
      "ĠOlympics": 8762,
      "'.": 8763,
      "Ġwitness": 8764,
      "Child": 8765,
      "pot": 8766,
      "vdots": 8767,
      "cape": 8768,
      ";\\;": 8769,
      "uling": 8770,
      "AF": 8771,
      "123": 8772,
      "ĠMuslim": 8773,
      "category": 8774,
      "leqslant": 8775,
      "Ġimply": 8776,
      "MO": 8777,
      "Ġaugment": 8778,
      "bour": 8779,
      "ĠFort": 8780,
      "sole": 8781,
      "DO": 8782,
      "ulating": 8783,
      "ĠVis": 8784,
      "PRO": 8785,
      "ĠExec": 8786,
      "Ġbusinesses": 8787,
      "ints": 8788,
      "arest": 8789,
      "strap": 8790,
      "Ġiterations": 8791,
      "Ġfeas": 8792,
      "uv": 8793,
      "ĠMen": 8794,
      "Ġtopic": 8795,
      "ela": 8796,
      "component": 8797,
      "Ġinduction": 8798,
      "card": 8799,
      "Ġenable": 8800,
      "Ġentity": 8801,
      "root": 8802,
      "ictionary": 8803,
      "spin": 8804,
      "Ġauthority": 8805,
      "Ġpages": 8806,
      "Bundle": 8807,
      "Ġfunds": 8808,
      "states": 8809,
      "uning": 8810,
      "constra": 8811,
      "cerning": 8812,
      "ĠAdminist": 8813,
      "Ġdoub": 8814,
      "ascript": 8815,
      "osis": 8816,
      "Ġentered": 8817,
      "Ġadjacent": 8818,
      "ĠLibrary": 8819,
      "Ġattribute": 8820,
      "bd": 8821,
      "BE": 8822,
      "_{-\\": 8823,
      "Ġsymbols": 8824,
      "Ġnearby": 8825,
      "urance": 8826,
      "ĠInstead": 8827,
      "Ġagreed": 8828,
      "ĠGre": 8829,
      "leep": 8830,
      "ĠAssembly": 8831,
      "Ġdefect": 8832,
      "cknowledg": 8833,
      "Ġlogarithm": 8834,
      "uclidean": 8835,
      "urable": 8836,
      "Ġpil": 8837,
      "iy": 8838,
      "Ġidentification": 8839,
      "vo": 8840,
      "Ġnative": 8841,
      "ootstrap": 8842,
      "Phys": 8843,
      "ĠDemocratic": 8844,
      "|_": 8845,
      "Ġ{}": 8846,
      "scriptscriptstyle": 8847,
      "Ġfear": 8848,
      "Ġconsult": 8849,
      "Ġlaunch": 8850,
      "Ġunitary": 8851,
      "GA": 8852,
      "Ġintervals": 8853,
      "Ġpotentially": 8854,
      "Row": 8855,
      "Ġparticipants": 8856,
      "Ġdivis": 8857,
      "Ġthanks": 8858,
      "Second": 8859,
      "ĠElect": 8860,
      "ĠCentre": 8861,
      "Ġbroken": 8862,
      "Listener": 8863,
      "instance": 8864,
      "Ġconcentration": 8865,
      "ĠSar": 8866,
      "800": 8867,
      "Ġstationary": 8868,
      "Ġisomorphic": 8869,
      "ĠAwards": 8870,
      "match": 8871,
      "Ġprobabilities": 8872,
      "HO": 8873,
      "Ġdriven": 8874,
      "ented": 8875,
      "Ġliber": 8876,
      "Ġcaptured": 8877,
      "Ġboundaries": 8878,
      "iced": 8879,
      "Tree": 8880,
      "Ġowner": 8881,
      "ĠWilson": 8882,
      "mond": 8883,
      "Ġcolour": 8884,
      ")&": 8885,
      "GM": 8886,
      "hr": 8887,
      "blem": 8888,
      "Ġcompatible": 8889,
      "1968": 8890,
      "comment": 8891,
      "^*_": 8892,
      "ĠStudies": 8893,
      "iden": 8894,
      "Ġdemoc": 8895,
      "Ġapplicable": 8896,
      "ĠIraq": 8897,
      "Ġrelationships": 8898,
      "Ġcosmological": 8899,
      "VD": 8900,
      "Ġpretty": 8901,
      "bolic": 8902,
      "ĠHot": 8903,
      "arden": 8904,
      "Ġtransaction": 8905,
      "aded": 8906,
      "ortion": 8907,
      "alf": 8908,
      "have": 8909,
      "}~\\": 8910,
      "notin": 8911,
      "}{{\\": 8912,
      "Ġcollision": 8913,
      "layout": 8914,
      "Ġclustering": 8915,
      "Ġtracks": 8916,
      "Ġearth": 8917,
      "ĠNorthern": 8918,
      "earning": 8919,
      "dashed": 8920,
      "ĠSupreme": 8921,
      "PM": 8922,
      "below": 8923,
      "ART": 8924,
      "ĠSecurity": 8925,
      "ĠHilbert": 8926,
      "task": 8927,
      "'$.": 8928,
      "Ġroots": 8929,
      "Ġadvoc": 8930,
      "adium": 8931,
      "Ġcomparing": 8932,
      "Mark": 8933,
      "Dat": 8934,
      "Ġmobile": 8935,
      "Ġcovariance": 8936,
      "Ġheav": 8937,
      "Ġpartner": 8938,
      "ĠNavy": 8939,
      "BI": 8940,
      "ĠWilliams": 8941,
      "ĠRE": 8942,
      "\\,{\\": 8943,
      "Open": 8944,
      "Ġbran": 8945,
      "ogether": 8946,
      "Ġdefining": 8947,
      "Ġengineering": 8948,
      "Ġcontradiction": 8949,
      "Ġdiscret": 8950,
      "endif": 8951,
      "document": 8952,
      "Ġhear": 8953,
      "iro": 8954,
      "arn": 8955,
      "Ġinspired": 8956,
      "riend": 8957,
      "Ġpropagation": 8958,
      "Ġconcerned": 8959,
      "ĠSenate": 8960,
      "menu": 8961,
      "Ġdt": 8962,
      "Ġmarriage": 8963,
      "ifer": 8964,
      "ima": 8965,
      "eld": 8966,
      "Ġstands": 8967,
      "Ġstudio": 8968,
      "plex": 8969,
      "gets": 8970,
      "curs": 8971,
      "ĠMarkov": 8972,
      "Ġcoal": 8973,
      "sylvania": 8974,
      "ĠUV": 8975,
      "Ġbelongs": 8976,
      "=#": 8977,
      "ĠWall": 8978,
      "Ġregional": 8979,
      "Ġdie": 8980,
      "sen": 8981,
      "Ġturbul": 8982,
      "Ġsurrounding": 8983,
      "substack": 8984,
      "Ġwood": 8985,
      "ĠNav": 8986,
      "Ġoutcome": 8987,
      "Ġsave": 8988,
      "sg": 8989,
      "ĠTem": 8990,
      "period": 8991,
      "ailed": 8992,
      "Ġcredit": 8993,
      "]=": 8994,
      "Ġtemplate": 8995,
      "1971": 8996,
      "nolimits": 8997,
      "Ġframes": 8998,
      "Ġradi": 8999,
      "direct": 9000,
      "particle": 9001,
      "ĠPoint": 9002,
      "valued": 9003,
      "1969": 9004,
      "ĠLore": 9005,
      "Ġbriefly": 9006,
      "Ġpseudo": 9007,
      "GE": 9008,
      "Ġfib": 9009,
      "raise": 9010,
      "'ll": 9011,
      "Ġpursu": 9012,
      "ĠCy": 9013,
      "Ġextensive": 9014,
      "Main": 9015,
      "ĠCamb": 9016,
      "Ġlooks": 9017,
      "ibilities": 9018,
      "ĠEqs": 9019,
      "$_{\\": 9020,
      "Definition": 9021,
      "ghan": 9022,
      "Ġpp": 9023,
      "ĠBoston": 9024,
      "Ġimmediate": 9025,
      "ockey": 9026,
      "Ġsomewhat": 9027,
      "ĠCorpor": 9028,
      "Ġcomplicated": 9029,
      "sample": 9030,
      "Ġmanaged": 9031,
      "}}=\\": 9032,
      "sem": 9033,
      "Ġsevere": 9034,
      "reci": 9035,
      "weet": 9036,
      "ĠRights": 9037,
      "iser": 9038,
      "Ġprivacy": 9039,
      "take": 9040,
      "ĠCommunity": 9041,
      "andra": 9042,
      "ĠNext": 9043,
      "cellcolor": 9044,
      "aturday": 9045,
      "ĠWell": 9046,
      "\\,,": 9047,
      "Ġterror": 9048,
      "hs": 9049,
      "Ġmental": 9050,
      "ĠAR": 9051,
      "CON": 9052,
      "Ġserving": 9053,
      "Equals": 9054,
      "Ġconservation": 9055,
      "ati": 9056,
      "ograp": 9057,
      "Ġadvance": 9058,
      "Ġmiles": 9059,
      "nowledge": 9060,
      "Ġcounty": 9061,
      "Rightarrow": 9062,
      "ĠSoviet": 9063,
      "ĠCr": 9064,
      "Ġautomatically": 9065,
      "moment": 9066,
      "Sing": 9067,
      "Ġserves": 9068,
      "even": 9069,
      "ĠFred": 9070,
      "Ġwriters": 9071,
      "Ġmechanisms": 9072,
      "UI": 9073,
      "Ġskills": 9074,
      "Ġsouthern": 9075,
      "Ġprogramming": 9076,
      "Ġopinion": 9077,
      "bug": 9078,
      "ĠValley": 9079,
      "Ġvot": 9080,
      "Ġmac": 9081,
      "Ġwish": 9082,
      "ĠYour": 9083,
      "older": 9084,
      "ĠFurther": 9085,
      "Ġwants": 9086,
      "Recall": 9087,
      "buf": 9088,
      "Before": 9089,
      "Ġspot": 9090,
      "Create": 9091,
      "ĠBase": 9092,
      "Ã³n": 9093,
      "Ġlabeled": 9094,
      "ĠMC": 9095,
      "ĠEX": 9096,
      "abeth": 9097,
      "Ġassociation": 9098,
      "ĠSpecial": 9099,
      "Ġtrajectories": 9100,
      "FO": 9101,
      "Step": 9102,
      "ĠPri": 9103,
      "ĠGener": 9104,
      "Ġattend": 9105,
      "ĠMonte": 9106,
      "Ġcub": 9107,
      "Ġwonder": 9108,
      "typ": 9109,
      "phone": 9110,
      "Ġdecreasing": 9111,
      "stone": 9112,
      "stances": 9113,
      "impl": 9114,
      "bell": 9115,
      "Ġcrime": 9116,
      "ĠFriday": 9117,
      "Ġslope": 9118,
      "aka": 9119,
      "amin": 9120,
      "ĠJun": 9121,
      "life": 9122,
      "ĠTeam": 9123,
      "Window": 9124,
      "Ġattended": 9125,
      "elian": 9126,
      "}\\;": 9127,
      "Ġaudience": 9128,
      "ĠAny": 9129,
      "Ġteaching": 9130,
      "Ġgate": 9131,
      "Ġlic": 9132,
      "Ġfra": 9133,
      "Ġzone": 9134,
      "ĠJeff": 9135,
      "Ġsupporting": 9136,
      "}&\\": 9137,
      "ĠOnly": 9138,
      "Ġbuy": 9139,
      "}})$": 9140,
      "ĠDC": 9141,
      "Under": 9142,
      "conduct": 9143,
      "ptr": 9144,
      "params": 9145,
      "dual": 9146,
      "ĠExt": 9147,
      "FS": 9148,
      "Ġcompre": 9149,
      "efined": 9150,
      "Ġedition": 9151,
      "ĠSpring": 9152,
      "Ġ<!--": 9153,
      "///": 9154,
      "ĠGreek": 9155,
      "onday": 9156,
      "Ġfindings": 9157,
      "Ġcircuit": 9158,
      "oti": 9159,
      "Ġfashion": 9160,
      "aby": 9161,
      "Ġreads": 9162,
      "Ġscored": 9163,
      "ĠOrgan": 9164,
      "rays": 9165,
      "Ġabstract": 9166,
      "erset": 9167,
      "}<": 9168,
      "ova": 9169,
      "Ñĥ": 9170,
      "Ġvalidation": 9171,
      "ĠColor": 9172,
      "Ke": 9173,
      "Ġful": 9174,
      "Ġmessages": 9175,
      "ali": 9176,
      "Ġsuc": 9177,
      "verage": 9178,
      ")=(": 9179,
      "Ġremember": 9180,
      "ĠRay": 9181,
      "Ġexplanation": 9182,
      "Ġpulse": 9183,
      "ĠSouthern": 9184,
      "Ġsumm": 9185,
      "ĠLiber": 9186,
      "Ġrefers": 9187,
      "Ġplots": 9188,
      "Ġthousands": 9189,
      "radius": 9190,
      "utor": 9191,
      "Ġfellow": 9192,
      "Ġtoken": 9193,
      "Ġkinetic": 9194,
      "oving": 9195,
      "Dev": 9196,
      "ideos": 9197,
      "Ġcorner": 9198,
      "Ġnorthern": 9199,
      ")|\\": 9200,
      "Ġduration": 9201,
      "Ġboost": 9202,
      "groups": 9203,
      "ĠDev": 9204,
      "Ġresonance": 9205,
      "ĠPolicy": 9206,
      "Ġintegers": 9207,
      "ĠMedia": 9208,
      "uzz": 9209,
      "Ġembedded": 9210,
      "ĠĠĠĠĠĠĠĠĠĠĠĠĠĠĠĠĠĠ": 9211,
      "Ġconsec": 9212,
      "common": 9213,
      "Ġsmallest": 9214,
      "Ġlaser": 9215,
      "ĠCall": 9216,
      "Ġdisjoint": 9217,
      "Ġstandards": 9218,
      "Ġpixels": 9219,
      "Sym": 9220,
      "Ġexhibit": 9221,
      "Ġvehicles": 9222,
      "Contain": 9223,
      "Ġera": 9224,
      "&$": 9225,
      "Ġdanger": 9226,
      "Ġhybrid": 9227,
      "icial": 9228,
      "Description": 9229,
      "Ġcovers": 9230,
      "Ġcompens": 9231,
      "Controller": 9232,
      "lets": 9233,
      "classes": 9234,
      "enth": 9235,
      "Ġthinking": 9236,
      "respect": 9237,
      "acle": 9238,
      "Ġcolle": 9239,
      "*\\": 9240,
      "itage": 9241,
      "ĠPoisson": 9242,
      "Ġ$\\|": 9243,
      "Ġconventional": 9244,
      "arser": 9245,
      "ĠEgypt": 9246,
      "|=": 9247,
      "Ġpartially": 9248,
      "ĠAst": 9249,
      "ĠAgain": 9250,
      "imer": 9251,
      "Web": 9252,
      "ĠMichigan": 9253,
      "ĠRiemann": 9254,
      "Ġconformal": 9255,
      "Ðº": 9256,
      "ĠPower": 9257,
      "Tag": 9258,
      "Ġgenus": 9259,
      "Ġdescent": 9260,
      "closed": 9261,
      "Ġinfrastructure": 9262,
      "Ġpet": 9263,
      "ĠMu": 9264,
      "Ġcoherent": 9265,
      "Ġroles": 9266,
      "ĠLo": 9267,
      "')$": 9268,
      "uing": 9269,
      "Ġperiods": 9270,
      "Valid": 9271,
      "Ġsun": 9272,
      "ĠRetrieved": 9273,
      "}.\\": 9274,
      "evertheless": 9275,
      "Ġindependently": 9276,
      "Ġlatent": 9277,
      "ĠIrish": 9278,
      "ĠJacob": 9279,
      "sn": 9280,
      "conv": 9281,
      "container": 9282,
      "Mode": 9283,
      "phia": 9284,
      "Length": 9285,
      "Ġfacts": 9286,
      "Upsilon": 9287,
      "ĠRepublican": 9288,
      "requency": 9289,
      "Ġoccurred": 9290,
      "Ġowned": 9291,
      "Ġsupports": 9292,
      "ador": 9293,
      "1967": 9294,
      "Ġsucceed": 9295,
      "Ġspherical": 9296,
      "Writ": 9297,
      "Ġrobot": 9298,
      "Ġriver": 9299,
      "})_{": 9300,
      "RS": 9301,
      "jk": 9302,
      "Ġtells": 9303,
      "overset": 9304,
      "=-\\": 9305,
      "Anal": 9306,
      "cules": 9307,
      "HD": 9308,
      "Ġplotted": 9309,
      "oir": 9310,
      "ĠSciences": 9311,
      "Med": 9312,
      "hav": 9313,
      "Ġbridge": 9314,
      "ordan": 9315,
      "fortunately": 9316,
      "Stat": 9317,
      "Ġsubsets": 9318,
      "ĠSpain": 9319,
      "itzer": 9320,
      "Ġdraft": 9321,
      "Ġdescribing": 9322,
      "aset": 9323,
      "ĠâĢ¦": 9324,
      "Ġseconds": 9325,
      "person": 9326,
      "Ġcopies": 9327,
      "Ġthread": 9328,
      "inson": 9329,
      "ymmetry": 9330,
      "upi": 9331,
      "ĠFollowing": 9332,
      "single": 9333,
      "Ġsegmentation": 9334,
      "Ġsignature": 9335,
      "javascript": 9336,
      "Ġdram": 9337,
      "Ġcouplings": 9338,
      "Ġdistinguish": 9339,
      "Ġjustice": 9340,
      "Ġgirl": 9341,
      "Ġfiber": 9342,
      "ulas": 9343,
      "Ġmorning": 9344,
      "ĠNon": 9345,
      "pool": 9346,
      "ĠVi": 9347,
      "supervised": 9348,
      "eties": 9349,
      "Ġadvanced": 9350,
      "inois": 9351,
      "Filter": 9352,
      "Ġcolon": 9353,
      "oral": 9354,
      "Ġtradition": 9355,
      "aten": 9356,
      "ĠStan": 9357,
      "ĠPM": 9358,
      "Ġaffine": 9359,
      "rance": 9360,
      "correspond": 9361,
      "Ġpatient": 9362,
      "ĠGame": 9363,
      "ĠFrancisco": 9364,
      "ĠSC": 9365,
      "Update": 9366,
      "ifest": 9367,
      "random": 9368,
      "vironments": 9369,
      "Ġangles": 9370,
      "special": 9371,
      "Ġprofessor": 9372,
      "inistic": 9373,
      "Ġtargets": 9374,
      "Ġmoves": 9375,
      ".}\\": 9376,
      "Ġkeeping": 9377,
      "ĠJersey": 9378,
      "ĠOhio": 9379,
      "ffect": 9380,
      "Ġagency": 9381,
      "ĠMedical": 9382,
      "zo": 9383,
      "unte": 9384,
      "including": 9385,
      "Ġpossess": 9386,
      "izable": 9387,
      "cover": 9388,
      "Ġwhenever": 9389,
      "Ġanisot": 9390,
      "ĠBa": 9391,
      "icks": 9392,
      "ĠPennsylvania": 9393,
      "Ġrev": 9394,
      "ĠBell": 9395,
      "'$,": 9396,
      "Select": 9397,
      "umul": 9398,
      "Ġrows": 9399,
      "network": 9400,
      "rfloor": 9401,
      "Ġfermion": 9402,
      "aux": 9403,
      "Ġchiral": 9404,
      "Ġexpanded": 9405,
      "DT": 9406,
      "Ġatom": 9407,
      "lfloor": 9408,
      "Ġstructural": 9409,
      "isen": 9410,
      "ĠAv": 9411,
      "Ġpopulations": 9412,
      "à¤": 9413,
      "Ġdefense": 9414,
      "Ġportion": 9415,
      "'=": 9416,
[...]
