{"[UNK]":0,"!":1,"\"":2,"#":3,"$":4,"%":5,"&":6,"'":7,"(":8,")":9,"*":10,"+":11,",":12,"-":13,".":14,"/":15,"0":16,"1":17,"2":18,"3":19,"4":20,"5":21,"6":22,"7":23,"8":24,"9":25,":":26,";":27,"<":28,"=":29,">":30,"?":31,"@":32,"A":33,"B":34,"C":35,"D":36,"E":37,"F":38,"G":39,"H":40,"I":41,"J":42,"K":43,"L":44,"M":45,"N":46,"O":47,"P":48,"Q":49,"R":50,"S":51,"T":52,"U":53,"V":54,"W":55,"X":56,"Y":57,"Z":58,"[":59,"\\":60,"]":61,"^":62,"_":63,"`":64,"a":65,"b":66,"c":67,"d":68,"e":69,"f":70,"g":71,"h":72,"i":73,"j":74,"k":75,"l":76,"m":77,"n":78,"o":79,"p":80,"q":81,"r":82,"s":83,"t":84,"u":85,"v":86,"w":87,"x":88,"y":89,"z":90,"{":91,"|":92,"}":93,"~":94,"¡":95,"¢":96,"£":97,"¤":98,"¥":99,"¦":100,"§":101,"¨":102,"©":103,"ª":104,"«":105,"¬":106,"®":107,"¯":108,"°":109,"±":110,"²":111,"³":112,"´":113,"µ":114,"¶":115,"·":116,"¸":117,"¹":118,"º":119,"»":120,"¼":121,"½":122,"¾":123,"¿":124,"Â":125,"Ã":126,"Ä":127,"Å":128,"Æ":129,"Ç":130,"È":131,"É":132,"Ê":133,"Ë":134,"Ì":135,"Í":136,"Î":137,"Ï":138,"Ð":139,"Ñ":140,"Ò":141,"Ó":142,"Ô":143,"Õ":144,"Ö":145,"×":146,"Ø":147,"Ù":148,"Ú":149,"Û":150,"Ü":151,"Ý":152,"Þ":153,"ß":154,"à":155,"á":156,"â":157,"ã":158,"ä":159,"å":160,"æ":161,"ç":162,"è":163,"é":164,"ê":165,"ë":166,"ì":167,"í":168,"î":169,"ï":170,"ð":171,"ó":172,"ô":173,"Ā":174,"ā":175,"Ă":176,"ă":177,"Ą":178,"ą":179,"Ć":180,"ć":181,"Ĉ":182,"ĉ":183,"Ċ":184,"ċ":185,"Č":186,"č":187,"Ď":188,"ď":189,"Đ":190,"đ":191,"Ē":192,"ē":193,"Ĕ":194,"ĕ":195,"Ė":196,"ė":197,"Ę":198,"ę":199,"Ě":200,"ě":201,"Ĝ":202,"ĝ":203,"Ğ":204,"ğ":205,"Ġ":206,"ġ":207,"Ģ":208,"ģ":209,"Ĥ":210,"ĥ":211,"Ħ":212,"ħ":213,"Ĩ":214,"ĩ":215,"Ī":216,"ī":217,"Ĭ":218,"ĭ":219,"Į":220,"į":221,"İ":222,"ı":223,"Ĳ":224,"ĳ":225,"Ĵ":226,"ĵ":227,"Ķ":228,"ķ":229,"ĸ":230,"Ĺ":231,"ĺ":232,"Ļ":233,"ļ":234,"Ľ":235,"ľ":236,"Ŀ":237,"ŀ":238,"Ł":239,"ł":240,"Ń":241,"Ġt":242,"ĠĠ":243,"in":244,"he":245,"Ġa":246,"on":247,"re":248,"at":249,"Ġthe":250,"er":251,"en":252,"Ġs":253,"or":254,"al":255,"it":256,"Ġo":257,"is":258,"Ġc":259,"ion":260,"es":261,"an":262,"ĠĠĠĠ":263,"ar":264,"Ġw":265,"Ġ\\":266,"Ġf":267,"ed":268,"Ġof":269,"Ġp":270,"Ġin":271,"nd":272,"le":273,"Ġ$":274,"Ġb":275,"ic":276,"ing":277,"ro":278,"Ġd":279,"Ġm":280,"as":281,"Ġand":282,"ct":283,"Ġto":284,"el":285,"et":286,"ig":287,"ent":288,"Ġth":289,"ou":290,"ra":291,"ation":292,"{\\":293,"om":294,"st":295,"il":296,"im":297,"Ġre":298,"Ġe":299,"Ġh":300,"Ġn":301,"ot":302,"ol":303,"am":304,"Ġis":305,"Ġ(":306,"Ġl":307,"id":308,"ce":309,"ĠT":310,"ve":311,"se":312,"ut":313,"_{":314,"ĠĠĠ":315,"Ġfor":316,"ĠS":317,"ĠĠĠĠĠĠĠĠ":318,"ch":319,"ul":320,"qu":321,"Ġg":322,"ur":323,"ow":324,"ab":325,"ver":326,"ath":327,"ly":328,"Ġ$\\":329,"eg":330,"ĠA":331,"ĠC":332,"Ġthat":333,"Ġon":334,"um":335,"ith":336,"math":337,"Ġu":338,"Ġbe":339,"od":340,"Ġcon":341,"čĊ":342,"Ġst":343,"end":344,"em":345,"ĠI":346,"if":347,"ad":348,"âĢ":349,"Ġas":350,"Ġ&":351,"ction":352,"Ġwith":353,"ta":354,"ĠM":355,"20":356,"ge":357,"}\\":358,"ir":359,"ht":360,"Ġwe":361,"ri":362,"ph":363,"}$":364,"Ġpro":365,"^{":366,"ure":367,"ter":368,"Ġal":369,"ex":370,"ay":371,"Ġan":372,"th":373,"ĠĊ":374,"ist":375,"ĠThe":376,"ĠB":377,"ĠP":378,"Ġv":379,"pe":380,"Ġ=":381,"ma":382,"Ġby":383,"ate":384,"ight":385,"ĠF":386,"ref":387,"ity":388,"us":389,"os":390,"iv":391,"her":392,"Ġex":393,"and":394,"ĠH":395,"pt":396,"pp":397,"Ġare":398,"un":399,"res":400,"ite":401,"Ġwh":402,"}}":403,"cal":404,"(\\":405,"Ġcom":406,"ĠR":407,"ac":408,"ub":409,"ine":410,"ĠL":411,"Ġde":412,"ore":413,"ers":414,"est":415,"ĠD":416,"egin":417,"Ġit":418,"rom":419,"ĠW":420,"art":421,"Ġat":422,"begin":423,"ial":424,"pl":425,"ext":426,"ess":427,"ies":428,"rac":429,"ĠN":430,"per":431,")$":432,"_{\\":433,"nt":434,"ĠE":435,"ft":436,"Ġor":437,"Ġse":438,"ĠG":439,"Ġfrom":440,"ant":441,"19":442,"oc":443,"ive":444,"ment":445,"ill":446,"ĠĠĠĠĠĠĠ":447,"ps":448,"de":449,"iz":450,"Ġwas":451,"}{":452,"ew":453,"Ġr":454,"The":455,"ag":456,"ass":457,"Ġthis":458,"eq":459,"frac":460,"ort":461,"ult":462,"int":463,"},":464,"all":465,"ĉĉ":466,"text":467,"ple":468,"ld":469,"ere":470,"ich":471,"ical":472,"})":473,"ect":474,"cite":475,"Ġsh":476,"orm":477,"Ġhe":478,"cl":479,"ave":480,"og":481,"ition":482,"Ġsu":483,"ran":484,"equ":485,"ell":486,"ud":487,"Ġ-":488,"rm":489,"ign":490,"ak":491,"ated":492,"Ġnot":493,"abel":494,"mathb":495,"right":496,"our":497,"Ġy":498,"ue":499,"Ġcl":500,"Ġch":501,"Ġres":502,"ens":503,"Ġle":504,"ber":505,"ff":506,",\\":507,"00":508,"ĠO":509,"pa":510,"Ġcan":511,"ations":512,"rou":513,"Ġ<":514,"âĢĻ":515,"label":516,"ame":517,"ĠJ":518,"to":519,"201":520,"$,":521,"ary":522,"du":523,"$.":524,"con":525,"Ġhave":526,"mathcal":527,"Ġwhich":528,"eta":529,"able":530,"ard":531,"Ġ{":532,"the":533,"=\"":534,"Ġus":535,"Ġk":536,"}.":537,"equation":538,"fig":539,"ĠU":540,"Ġwhe":541,"ust":542,"left":543,"red":544,");":545,"ĠIn":546,"op":547,"low":548,"cc":549,"ime":550,"ase":551,"}(":552,"ast":553,"--":554,"Ġim":555,"ork":556,"}^":557,"age":558,"~\\":559,"ong":560,"ther":561,"ener":562,"ian":563,"ost":564,"ap":565,"ĠĠĠĠĠĠĠĠĠĠĠĠĠĠĠĠ":566,"}_":567,"ib":568,"),":569,"ack":570,"Ġ\"":571,"ence":572,"ru":573,"av":574,"Ġmod":575,"</":576,"form":577,"ide":578,"ĠâĢ":579,"pro":580,"ions":581,").":582,"Ġpl":583,"ord":584,"ĠK":585,"Ġhas":586,"ach":587,"'s":588,"Ġab":589,"so":590,"pha":591,"ang":592,"ain":593,"alpha":594,"com":595,"..":596,"are":597,"Ġ+":598,"da":599,"line":600,"ous":601,"act":602,"Ġcomp":603,")\\":604,"Ġun":605,"ind":606,"sum":607,"Ġob":608,"amb":609,"Ġall":610,"ia":611,"ric":612,"10":613,"out":614,"ould":615,"over":616,"fere":617,"row":618,"In":619,"ely":620,"ip":621,"old":622,"Ġad":623,"ĠTh":624,"rib":625,"Ġif":626,"elta":627,"//":628,"ĠV":629,"erm":630,"pect":631,"Ġpart":632,"ear":633,"ound":634,"Ġone":635,"$\\":636,"Ġapp":637,"ambda":638,"rans":639,"ance":640,"ire":641,"Ġcont":642,"Ġme":643,"imes":644,"Ġj":645,"ents":646,"tain":647,"ry":648,"_\\":649,"wo":650,"amma":651,"Ġdis":652,"Ġalso":653,"Ġ\\\\":654,"200":655,"ice":656,"mathbb":657,"Ġ}":658,"Ġqu":659,"port":660,"unction":661,"erv":662,"ates":663,"ĠSt":664,"dot":665,"=\\":666,"ose":667,"}^{":668,"sub":669,"ors":670,"ile":671,"Ġint":672,"}_{":673,"ree":674,"Ġ*":675,"Ġper":676,"ces":677,"mu":678,"own":679,"ata":680,"mb":681,"ory":682,"gh":683,"we":684,"li":685,"ics":686,"ke":687,"igma":688,"ular":689,"ĠĠĠĠĠĠĠĠĠĠĠ":690,"-\\":691,"ption":692,"ution":693,"ally":694,"irst":695,"ho":696,"ome":697,"Ġar":698,"Ġwill":699,"Ġsy":700,"ject":701,"Ġev":702,"of":703,"ress":704,"Ġset":705,"ega":706,"ov":707,"Ġclass":708,"fin":709,"oint":710,"^{\\":711,"urn":712,"cent":713,"pace":714,"ray":715,"ie":716,"raph":717,"pon":718,"Ġtwo":719,"Ġhis":720,"phi":721,"hat":722,"Ġmodel":723,"ark":724,"lic":725,"ĠĠĠĠĠ":726,"Ġne":727,"ari":728,"ok":729,"au":730,"ollow":731,"Ġout":732,"mathbf":733,"vers":734,"wid":735,"ode":736,"set":737,"pi":738,"Ġbut":739,"Ġdif":740,"sc":741,"bf":742,"lambda":743,"Ġval":744,"Ġfunction":745,"Ġtheir":746,"nder":747,"ob":748,"iel":749,"Ġen":750,"Ġform":751,"\">":752,"Ġother":753,"umber":754,"ep":755,"ount":756,"Ġinter":757,"Ġ{\\":758,"clud":759,"ize":760,"Ġits":761,"Ġwere":762,"Ġdo":763,"Ġfollow":764,"section":765,"ĠWe":766,"Ġtime":767,"Ġmore":768,"ield":769,"Ġresult":770,"Ġsuch":771,"align":772,"vel":773,"ove":774,"ilon":775,"Ġ|":776,"psilon":777,"Ġour":778,"Ġcons":779,"Ġ[":780,"one":781,"12":782,"Ġsub":783,"app":784,"Ġwhere":785,"Ġsc":786,"Ġover":787,"ram":788,"Ġfirst":789,"ĠCh":790,"dition":791,"Ġbet":792,"âĢĿ":793,"ish":794,"pos":795,"get":796,"sigma":797,"ne":798,"18":799,"mathrm":800,"ck":801,"Ġsp":802,"Ġsim":803,"stem":804,"lem":805,"ll":806,"aram":807,"Ġwork":808,"beta":809,"}{\\":810,"rit":811,"Ġthere":812,"^{-":813,"Ġconst":814,"lect":815,"ature":816,"ative":817,"Ġgener":818,"Ġdes":819,"eth":820,"ys":821,"Ġequ":822,"te":823,"Ġman":824,"part":825,"very":826,"ilde":827,"Ġ(\\":828,"ix":829,"Ġdist":830,"cre":831,"ype":832,"Ġonly":833,"*}":834,"Ġso":835,"ring":836,"Ġcor":837,"Ġtrans":838,"ace":839,"resent":840,"Ġbeen":841,"Ġreg":842,"Ġthey":843,"Ġag":844,"hed":845,"up":846,"Ġrel":847,"Ġnew":848,"+\\":849,"ax":850,"ced":851,"Ġyou":852,"abl":853,"Ġthan":854,"Ġany":855,"]{":856,"ual":857,"ific":858,"vi":859,"Ġacc":860,"gamma":861,"Ġpre":862,"Ġdiffere":863,"Ġtra":864,"Ġro":865,"ĠIt":866,"ss":867,"ĠY":868,"Ġpos":869,"ĠThis":870,"Ġthen":871,"pec":872,"\\\\":873,"theta":874,"bar":875,"ational":876,"oth":877,"figure":878,"We":879,"Ġmat":880,"Ġshow":881,"width":882,"**":883,"ility":884,"ox":885,"^\\":886,"leq":887,"ween":888,"put":889,"ild":890,"Ġco":891,")}":892,"Ġwhen":893,"ict":894,"cdot":895,"mer":896,"igh":897,"ased":898,"Ġcol":899,"Ġlo":900,"rho":901,"Ġeach":902,"Ġdata":903,"ator":904,"tau":905,"round":906,"ng":907,"Ġwho":908,"Ġph":909,"ient":910,"delta":911,"iss":912,"ince":913,"tern":914,"item":915,"Ġbetween":916,"$-":917,"Ġsome":918,"ock":919,"cess":920,"ruct":921,"St":922,"ake":923,"turn":924,"ĠâĢľ":925,"}$,":926,"ating":927,"Ġgiv":928,"fter":929,"ise":930,"Ġinto":931,"Ġx":932,"}$.":933,"Ġprob":934,"ities":935,"eqref":936,"ĠSe":937,"11":938,"ink":939,"here":940,"array":941,"}(\\":942,"Ġunder":943,"Ġthese":944,"Ġsystem":945,"big":946,"ans":947,"der":948,"ĠUn":949,"Ġup":950,"Ġcomm":951,"rad":952,"aw":953,"lo":954,"ues":955,"times":956,"ings":957,"Ġhad":958,"Ġte":959,"15":960,"ible":961,"ied":962,"olog":963,"not":964,"Ġeff":965,"Ġfin":966,"Ġcase":967,"ments":968,"Ġpoint":969,"its":970,"Ġgo":971,"Ġsol":972,"sp":973,"Ġpol":974,"sy":975,"ĠHe":976,"sh":977,"Ġprov":978,"Ġi":979,"ident":980,"ublic":981,"fty":982,"Ġno":983,"Ġyear":984,"Ġabout":985,"Ġ'":986,"ays":987,"infty":988,"rt":989,"Ġline":990,"Ġuse":991,"ons":992,"nce":993,"val":994,"aramet":995,"Ġnumber":996,"Ġappro":997,"pend":998,"nu":999,"ning":1000,"16":1001,"Ġdifferent":1002,"ethod":1003,"arrow":1004,"Ġwould":1005,"Ġpe":1006,"col":1007,"pr":1008,"|\\":1009,"elf":1010,"mall":1011,"min":1012,"ull":1013,"Ġused":1014,"Re":1015,"==":1016,"ail":1017,"partial":1018,"arg":1019,"cy":1020,"var":1021,"Ġli":1022,"omega":1023,"Ġkn":1024,"Ġstud":1025,"ization":1026,"tilde":1027,"tt":1028,"Ġext":1029,"199":1030,"Ġnon":1031,"ral":1032,"Ġest":1033,"ized":1034,"Th":1035,"ample":1036,"pm":1037,"()":1038,"ĠFor":1039,"13":1040,"ater":1041,"rough":1042,"Ġind":1043,"quad":1044,"Ġinv":1045,"Ġact":1046,"ward":1047,"ont":1048,"Ġfe":1049,"----":1050,"ert":1051,"Ġvari":1052,"vert":1053,"sec":1054,"Ġoff":1055,"Delta":1056,"ism":1057,"Ġusing":1058,"Ġmay":1059,"ource":1060,"roup":1061,"for":1062,"uss":1063,"ange":1064,"ower":1065,"ĠRe":1066,"space":1067,"orem":1068,"yn":1069,"eqn":1070,"les":1071,"21":1072,"ider":1073,"ca":1074,"Ġcur":1075,"mm":1076,"Ġass":1077,"}[":1078,"ool":1079,"ople":1080,"pert":1081,"ick":1082,"ĠĠĠĠĠĠĠĠĠĠĠĠĠĠĠ":1083,"io":1084,"Ġsame":1085,"Ġpartic":1086,"Ġdefin":1087,"ctions":1088,"14":1089,"ited":1090,"Ġgiven":1091,"cond":1092,"eng":1093,"Ġher":1094,"ever":1095,"ists":1096,"arch":1097,"Ġmost":1098,"sim":1099,"ctor":1100,"ause":1101,"Ġrep":1102,"Ġfield":1103,"}}\\":1104,"ically":1105,"Ġterm":1106,"par":1107,"Ġprodu":1108,"Ġsign":1109,"hes":1110,"Ġdet":1111,"Ġreturn":1112,".,":1113,")$.":1114,"Ġcomple":1115,"25":1116,"center":1117,"17":1118,"xi":1119,"\\,":1120,"Ġwell":1121,"Ġ$(":1122,"und":1123,"Ġfact":1124,"ote":1125,"Ġinst":1126,"ug":1127,"Ġ.":1128,"Ġstate":1129,"Ġthem":1130,"Ġdef":1131,"serv":1132,"ann":1133,"ĠX":1134,"ily":1135,"Ġpa":1136,"Ġget":1137,"Ġsupp":1138,"->":1139,"riv":1140,"uring":1141,"ars":1142,"ases":1143,"ĠâĢĵ":1144,"Ġbec":1145,"arge":1146,"ively":1147,"Ġfollowing":1148,"als":1149,"gy":1150,"Ġplay":1151,"Ġbl":1152,"irc":1153,"err":1154,"Ġoper":1155,"Ġparamet":1156,"Ġent":1157,"ots":1158,"ins":1159,"$$":1160,"Ġmethod":1161,"gle":1162,"rix":1163,"ute":1164,"ĠPro":1165,"Ġspec":1166,"Ġboth":1167,"}_{\\":1168,"Ex":1169,"Ġdire":1170,"sq":1171,"Om":1172,"Ġem":1173,"Ġobtain":1174,"Ġsa":1175,"Ġrec":1176,"Ġafter":1177,"ĉĉĉĉ":1178,"ĠDe":1179,"ĠCom":1180,"Ġrequ":1181,"epsilon":1182,"oy":1183,"ivers":1184,"Ġbound":1185,"ract":1186,"Ġam":1187,"Ġz":1188,"ĠQ":1189,"Ġresults":1190,"Ġorder":1191,"asure":1192,"itt":1193,"where":1194,"owever":1195,"ough":1196,"Ġvalue":1197,"hi":1198,"Omega":1199,"Ġthrough":1200,"textbf":1201,"oot":1202,"))":1203,"hen":1204,"ability":1205,"psi":1206,"ices":1207,"Ġdisc":1208,"Ġsee":1209,"Ġperform":1210,"ude":1211,"Ġsur":1212,"ines":1213,"ton":1214,"bm":1215,"mbol":1216,"ĠFig":1217,"ner":1218,"ered":1219,"formation":1220,"^*":1221,"pond":1222,"Ġ:":1223,"Ġfl":1224,"land":1225,"includ":1226,"Ġhigh":1227,"ential":1228,"rent":1229,")$,":1230,"30":1231,"ined":1232,"oci":1233,"orld":1234,"Ġexp":1235,"Ġshe":1236,"work":1237,"Ġeffect":1238,"Ġpeople":1239,"raphics":1240,"22":1241,"Ġfil":1242,"Ġmin":1243,"atic":1244,"Ġinclud":1245,"Gamma":1246,"Ġend":1247,"ade":1248,"angle":1249,"yp":1250,"Ġanal":1251,"sqrt":1252,"uch":1253,"âĢĵ":1254,"subsection":1255,"ĠAs":1256,"Ġdec":1257,"ality":1258,"Ġed":1259,"ĠAl":1260,"eqnarray":1261,"Ġtr":1262,"ĠčĊ":1263,"ron":1264,"ension":1265,"Ġ/":1266,"Ġsmall":1267,"meric":1268,"raw":1269,"fra":1270,"bold":1271,"egraphics":1272,"includegraphics":1273,"\",":1274,"def":1275,"Ġdesc":1276,"vare":1277,"ision":1278,"ĠZ":1279,"ining":1280,"Ġpublic":1281,"Ġback":1282,"Ġpr":1283,"ks":1284,"Ġdistrib":1285,"}^{\\":1286,"varepsilon":1287,"ithm":1288,"../":1289,"Ġ//":1290,"caption":1291,"Ġneed":1292,"log":1293,"ĠNew":1294,"Ġrespect":1295,"ulation":1296,"ern":1297,"Ġthree":1298,"Ġcent":1299,"ef":1300,"Con":1301,"respond":1302,"Ġ</":1303,"ook":1304,"ec":1305,"uth":1306,"^{(":1307,"att":1308,"ulti":1309,"ructure":1310,"Ġproblem":1311,"Ġmeasure":1312,"rightarrow":1313,"ash":1314,"reat":1315,"Ġele":1316,"energy":1317,"cm":1318,"Ġcall":1319,"Ġ||":1320,"For":1321,"tab":1322,"Ġstr":1323,"50":1324,"ency":1325,"Ġbu":1326,"oun":1327,"Ġsing":1328,"Pro":1329,"Ġcondition":1330,"ful":1331,"}=":1332,"Ġmass":1333,"ren":1334,"rel":1335,"Ġobserv":1336,"Ġexpl":1337,"Ġatt":1338,"ages":1339,"ilar":1340,"Ġevery":1341,")=":1342,"Ġprocess":1343,"Ġlead":1344,"ml":1345,"Ġ`":1346,"umn":1347,"Ġassum":1348,"ensure":1349,"Ġsaid":1350,"ross":1351,"Ġwhile":1352,"Ġac":1353,"led":1354,"Ġopt":1355,"ript":1356,"ĠĠĊ":1357,"etric":1358,"Ġ${\\":1359,"Ġsecond":1360,"etwork":1361,"Ġfound":1362,"198":1363,"Ġ\\,":1364,"Ġrepresent":1365,"Ġspace":1366,"::":1367,"gor":1368,"emph":1369,"Ġbel":1370,"Ġmany":1371,"Ġright":1372,"',":1373,"Ġlike":1374,"rangle":1375,"Ġcorrespond":1376,"000":1377,"ey":1378,"mod":1379,"velop":1380,"Ġwhat":1381,"geq":1382,"oid":1383,"symbol":1384,"ural":1385,"ement":1386,"let":1387,"me":1388,"Ġbecause":1389,"Ġnow":1390,"gorithm":1391,"any":1392,"Ġlocal":1393,"Ġestim":1394,"Ġyears":1395,"ffic":1396,".~\\":1397,"name":1398,"ved":1399,"&\\":1400,"Ġden":1401,"Ġmem":1402,".}":1403,"Ġcould":1404,"Ġconsider":1405,"vent":1406,"Ġexper":1407,"Ġpresent":1408,"ten":1409,"24":1410,"proof":1411,"Ġagain":1412,"varphi":1413,"ason":1414,"Ġjust":1415,"Ġadd":1416,"umer":1417,"Ġsince":1418,"ond":1419,"This":1420,"ished":1421,"boldsymbol":1422,"ames":1423,"Ġ@":1424,"Ġincre":1425,"inal":1426,"man":1427,"chool":1428,"Ġfind":1429,"Ġname":1430,"yle":1431,"utions":1432,"Ġvery":1433,"ĠAmeric":1434,"Ġenergy":1435,"frak":1436,"Ġscal":1437,"Ġserv":1438,"Ġdi":1439,"Ġtype":1440,"Ġlong":1441,"bl":1442,"Ġcontin":1443,"position":1444,"Ġgeneral":1445,"ified":1446,"Ġchar":1447,"olution":1448,"Ġdoes":1449,"ets":1450,"Ġlim":1451,"fer":1452,"non":1453,"hline":1454,"Ġbeing":1455,"Ġcount":1456,"ology":1457,"Ġser":1458,"overline":1459,"essage":1460,"Ġposs":1461,"orn":1462,"Ġlarge":1463,"rict":1464,"ole":1465,"},\\":1466,"itive":1467,"ier":1468,"uc":1469,"Ġshould":1470,"ateg":1471,"Big":1472,"ee":1473,"ER":1474,"ants":1475,"Ġtest":1476,"chi":1477,"Ġeven":1478,"Ġve":1479,"view":1480,"cept":1481,"ness":1482,"23":1483,"iqu":1484,"tr":1485,"ift":1486,"co":1487,"ik":1488,"ength":1489,")^":1490,"iversity":1491,"lear":1492,"Ġhow":1493,"[\\":1494,"It":1495,"read":1496,"pen":1497,"Ġvalues":1498,"ife":1499,"div":1500,"Ġcre":1501,"ampl":1502,"Ġreal":1503,"els":1504,"ĉĉĉ":1505,"wn":1506,"fore":1507,"ott":1508,"aking":1509,"ather":1510,"}).":1511,"urther":1512,"Ġra":1513,"Ġgroup":1514,"Ġsupport":1515,"ST":1516,"mathfrak":1517,"ission":1518,"Ġfam":1519,"Ġmain":1520,"rodu":1521,"}}$":1522,"Ġstart":1523,"''":1524,"Ġthose":1525,"Ġinteg":1526,"ĠCon":1527,"chn":1528,"lim":1529,"fl":1530,"ify":1531,"Ġmon":1532,"Ġsat":1533,"Ġstructure":1534,"net":1535,"Ġcal":1536,"Ġabove":1537,"></":1538,"vec":1539,"vious":1540,"dd":1541,"nces":1542,"ormal":1543,"amp":1544,"Ġident":1545,"ank":1546,"Ġerr":1547,"Ġvi":1548,"erson":1549,"Ġrad":1550,"other":1551,"Ġpropert":1552,"su":1553,"ger":1554,"Ġdevelop":1555,"40":1556,"Ġfeature":1557,"(\"":1558,"Ġart":1559,"Ġduring":1560,"Let":1561,"Ġnetwork":1562,"refore":1563,"Ġdescrib":1564,"oh":1565,"sf":1566,"Ġcomput":1567,"Ġbased":1568,"Ġap":1569,"Ġfollows":1570,"Ġinformation":1571,"ired":1572,"ensity":1573,"Ġhim":1574,"Ġspect":1575,"imension":1576,"Ġknow":1577,"overn":1578,"citep":1579,"197":1580,"pre":1581,"med":1582,"ask":1583,"As":1584,"ĠInd":1585,"nabl":1586,"Ġway":1587,"://":1588,"Ġcontain":1589,"Ġ>":1590,"by":1591,"ensuremath":1592,"ven":1593,"langle":1594,"Ġshown":1595,"gram":1596,"Ġimport":1597,"textit":1598,"itial":1599,"Ġ,":1600,"ior":1601,"Ġlet":1602,"ves":1603,"rid":1604,"ĠAn":1605,"Ġquant":1606,"sk":1607,"Ġmag":1608,"Ġmodels":1609,"ĠĠĠĠĠĠĠĠĠ":1610,"span":1611,"ĠIf":1612,"ument":1613,"Ġear":1614,"();":1615,"ldots":1616,"Ġtop":1617,"ane":1618,"aj":1619,"son":1620,"Ġobject":1621,"bers":1622,"rop":1623,"Ġstat":1624,"Ġmade":1625,"less":1626,"Ġpres":1627,"Ġdepend":1628,"ration":1629,"orth":1630,"che":1631,"ij":1632,"Com":1633,"ah":1634,"xim":1635,"Ġelect":1636,"see":1637,"Ġdefined":1638,"Ġsimilar":1639,"oss":1640,"Ġel":1641,"trans":1642,"cor":1643,"Ġprovid":1644,"Ġbefore":1645,"Ġexample":1646,"Ġmed":1647,"nabla":1648,"ci":1649,"Ġtem":1650,"Ġlear":1651,"Phi":1652,"};":1653,"erest":1654,"Ġmy":1655,"wh":1656,"appa":1657,"><":1658,"Ġparticular":1659,"depend":1660,"ting":1661,"Ġhand":1662,"100":1663,"ually":1664,"orph":1665,"table":1666,"Ġcompa":1667,"Ġallow":1668,"cer":1669,"60":1670,"Lambda":1671,"clude":1672,"ser":1673,"\\|":1674,"Ġmulti":1675,"ĠĠĠĠĠĠĠĠĠĠĠĠĠĠĠĠĠĠĠĠĠĠĠĠĠĠĠĠĠĠĠĠ":1676,"ght":1677,"way":1678,"ero":1679,"Ġmake":1680,"az":1681,"ĠLe":1682,"imal":1683,"bra":1684,"cur":1685,"ected":1686,"ived":1687,"isf":1688,"Ġdirect":1689,"ON":1690,"Ġexpect":1691,"Ġcharact":1692,"Ġstand":1693,"ives":1694,"})$":1695,"\\%":1696,"ule":1697,"27":1698,"Ġsection":1699,"face":1700,"Ġca":1701,"Ch":1702,"subset":1703,"kappa":1704,"Ġorig":1705,".âĢĿ":1706,"2020":1707,"IN":1708,"html":1709,"Ġappe":1710,"cul":1711,"Ġredu":1712,"To":1713,"Ġdistribution":1714,"back":1715,"Ġaddition":1716,"../../":1717,"ĠSh":1718,"Ġcurrent":1719,"rol":1720,"requ":1721,"Ġlevel":1722,"be":1723,"Ġrem":1724,"otimes":1725,"atch":1726,"new":1727,"ival":1728,"Ġsum":1729,"AR":1730,"****":1731,"ification":1732,"Ġalgorithm":1733,"Ġpower":1734,"alth":1735,"Ġrele":1736,"Ġlast":1737,"ges":1738,"Ġterms":1739,"Ġorg":1740,"ynam":1741,"...":1742,"AT":1743,"hip":1744,"Ġself":1745,"ection":1746,"Ġdue":1747,"ood":1748,"Ġrest":1749,"Ġgu":1750,"2018":1751,"Ġdeterm":1752,"Ġbecom":1753,"2017":1754,"str":1755,"pd":1756,"ĠCol":1757,"plit":1758,"28":1759,"Ġwrit":1760,"--------":1761,"Ġread":1762,"Ġpop":1763,"Ġcommun":1764,"33":1765,"Ġbas":1766,"bit":1767,"ĠCl":1768,"ysis":1769,"Ġrun":1770,"Ġav":1771,"dis":1772,"ators":1773,"Ġsize":1774,"Ġmuch":1775,"no":1776,".\\":1777,"air":1778,"Ġ--":1779,"gg":1780,"2019":1781,"etail":1782,"Ġdiscuss":1783,"Ġfour":1784,"box":1785,"Ġdom":1786,"ĠHowever":1787,"Ġgl":1788,"mbox":1789,"Ġpred":1790,"oper":1791,"Ġshows":1792,"ouse":1793,"rem":1794,"ĠEx":1795,"plic":1796,"ale":1797,"ately":1798,"with":1799,"Ġincluding":1800,"centering":1801,"ording":1802,"Ġsingle":1803,"45":1804,"ĠUniversity":1805,"dots":1806,"Ġknown":1807,"draw":1808,"Ġsatisf":1809,"}}{":1810,"SS":1811,"circ":1812,"2016":1813,"26":1814,"__":1815,"Ġins":1816,"ĠAnd":1817,"Ġhere":1818,"Ġhref":1819,"Ġfilm":1820,"ĠThen":1821,"Ġwithin":1822,"outh":1823,"Ġparameters":1824,"aces":1825,"Ġdid":1826,"}),":1827,"ody":1828,"Ġder":1829,"action":1830,"ery":1831,"====":1832,"Ġmax":1833,"\\[":1834,"ball":1835,"ters":1836,"rum":1837,"color":1838,"eps":1839,"ense":1840,"Ġworld":1841,"Ġinterest":1842,"Ġlow":1843,"):":1844,"comm":1845,"Ġmust":1846,"this":1847,"Ġleft":1848,"mber":1849,"posed":1850,"otential":1851,"lection":1852,"ccess":1853,"play":1854,"Sigma":1855,"nonumber":1856,"Ġhel":1857,"arget":1858,"etry":1859,"ym":1860,"Ġbeh":1861,"ferences":1862,"istic":1863,"Ġcho":1864,"ĠĠĠĠĠĠ":1865,"Ġpoints":1866,"Ġ*/":1867,"Ġstudy":1868,"32":1869,"iod":1870,"Ġreport":1871,"Ġ)":1872,"Ġlarg":1873,"ised":1874,"ination":1875,"Ġrema":1876,"org":1877,"andom":1878,"ures":1879,"omen":1880,"source":1881,"Ġhig":1882,"2015":1883,"Ġtechn":1884,"atrix":1885,"Ġtot":1886,"Ġinitial":1887,"widet":1888,"cit":1889,"Ġvis":1890,"ison":1891,"lation":1892,"ocation":1893,"Ġmatrix":1894,"Ġopen":1895,"Ġprof":1896,"Ġyour":1897,"Ġhold":1898,"ury":1899,"ixed":1900,"Ġgraph":1901,"wide":1902,"Ġobtained":1903,"Ġmean":1904,"ene":1905,"Ġlist":1906,"Ġdesign":1907,"ww":1908,"Ġexperim":1909,"por":1910,"tabular":1911,"Ġindu":1912,"Ġlaw":1913,"29":1914,"Ġcontinu":1915,"Ġche":1916,"ference":1917,"Ġ#":1918,"/\\":1919,"ble":1920,"Ġstill":1921,"ivid":1922,"Ġcar":1923,"widetilde":1924,"Ġexist":1925,"reg":1926,"Ġpar":1927,"Ġtake":1928,"Ġaround":1929,"Ġsequ":1930,"day":1931,"Ġstates":1932,"Ġcompon":1933,"Ġsolution":1934,"Ġ``":1935,"{-":1936,"Ġdeg":1937,"ĠAmerican":1938,"Fig":1939,"Ġgra":1940,"2014":1941,"ead":1942,"Ġintrodu":1943,"sl":1944,"alse":1945,"add":1946,"Ġhist":1947,"35":1948,"Ġcharacter":1949,"akes":1950,"Ġpossible":1951,"ional":1952,"\\!":1953,"Ġtri":1954,"2021":1955,"ĠAr":1956,"ĠĠĠĠĠĠĠĠĠĠĠĠĠĠĠĠĠĠĠ":1957,"RE":1958,"ID":1959,"Ġdem":1960,"cap":1961,"}-":1962,"odes":1963,"Ġocc":1964,"cont":1965,"max":1966,"class":1967,"Res":1968,"Ġapproxim":1969,"ĠLet":1970,"Ġfunctions":1971,"code":1972,"ivity":1973,"Ġpaper":1974,"ety":1975,"ember":1976,"Ġcalled":1977,"Ġdensity":1978,")(":1979,"imum":1980,"ii":1981,"Ġpredict":1982,"reen":1983,"version":1984,"Ġq":1985,"Ġprogram":1986,"ĠUnited":1987,"const":1988,"dependent":1989,"message":1990,"aps":1991,"ground":1992,"ords":1993,"Ġstrong":1994,"Ġwithout":1995,"Ġcontrib":1996,"ina":1997,"ĠTheorem":1998,"Ġequation":1999,"Ġvert":2000,"Ġassoci":2001,"Ġown":2002,"By":2003,"itle":2004,"arm":2005,"top":2006,"Ġprevious":2007,"Ġlink":2008,"ĠTo":2009,"Ġbuild":2010,"Ġalong":2011,"veral":2012,"Ġteam":2013,"ault":2014,"Ġpotential":2015,"Ġmark":2016,"Ġagainst":2017,"âĢľ":2018,"Ġtrue":2019,"Ġclos":2020,"Ġcorresponding":2021,"Ġgood":2022,"ression":2023,"ories":2024,"Ps":2025,"Ġref":2026,"ternal":2027,"Ġposition":2028,"Ġcomplex":2029,"Ġapproach":2030,"ĠComm":2031,"ention":2032,"atter":2033,"Ġrece":2034,"td":2035,"Ġlimit":2036,"Ġimportant":2037,"Ġlinear":2038,"90":2039,"Ġdat":2040,"ially":2041,"75":2042,"Ġfinal":2043,"verse":2044,"Ġgovern":2045,"Ġet":2046,"Ġrespectively":2047,"}+":2048,"Ġpass":2049,")}\\":2050,"Ġconstant":2051,"script":2052,"ries":2053,"Ġsuper":2054,".\"":2055,"Ġdown":2056,"ĠOn":2057,"Ġbest":2058,"ital":2059,"\\{":2060,"prime":2061,"thm":2062,"Ġauth":2063,"ables":2064,"Ġtotal":2065,"iness":2066,"Ġarg":2067,"Ġconf":2068,"ĠRes":2069,"urb":2070,"Ġpat":2071,"\\]":2072,"ĠAd":2073,"rack":2074,"ental":2075,"80":2076,"2013":2077,"ohn":2078,"sequ":2079,"oll":2080,"('":2081,")=\\":2082,"emma":2083,"Ġinvest":2084,"ploy":2085,"ious":2086,"amples":2087,"Ġcomb":2088,"Ġ($":2089,",âĢĿ":2090,"ances":2091,"Ġnear":2092,"Ã©":2093,"Ġparameter":2094,"}]":2095,"Ġtyp":2096,"Ġhelp":2097,"ĠPh":2098,"Ġperformance":2099,"Ġfamily":2100,"anc":2101,"Name":2102,"opt":2103,"ience":2104,"Ġrate":2105,"Ġanalysis":2106,"mult":2107,"Al":2108,"196":2109,"Ġproof":2110,"Id":2111,"Ġaver":2112,"scal":2113,"ream":2114,"Ġcrit":2115,"order":2116,"uro":2117,"ird":2118,"htt":2119,"}=\\":2120,"type":2121,"Ġcou":2122,"Ġmap":2123,"Ġmov":2124,"/>":2125,"Ġtheory":2126,"zeta":2127,"aim":2128,"Ġschool":2129,"use":2130,"Ġproject":2131,"Ġsignific":2132,"ique":2133,"clus":2134,"ux":2135,"Ġseveral":2136,"Ġ_":2137,"2012":2138,"self":2139,"{(":2140,"Ġchild":2141,"Ġrese":2142,"Ġcour":2143,"ocus":2144,"ĠEng":2145,"import":2146,"usic":2147,"style":2148,"Ġapplic":2149,"ograph":2150,"ĠEq":2151,"Ġnext":2152,"'t":2153,"Ġdetail":2154,"Ġ=>":2155,"obal":2156,"pper":2157,"Ġperson":2158,"textwidth":2159,"time":2160,"ception":2161,"ither":2162,"ĠShe":2163,"Ġcalcul":2164,"ruction":2165,"References":2166,"under":2167,"Ġregion":2168,"aving":2169,"Ġphot":2170,"ĠSection":2171,"Ġaff":2172,"vir":2173,"Ġpair":2174,"String":2175,"Ġview":2176,"Ġide":2177,";\\":2178,"Ġseries":2179,"Ġperiod":2180,"ences":2181,"Ġlater":2182,"05":2183,"br":2184,"ley":2185,"ajor":2186,"omorph":2187,"Ġstandard":2188,")^{":2189,"ober":2190,"ources":2191,"illion":2192,"Ġimpro":2193,"ients":2194,"Ġlook":2195,"ĠIs":2196,"ubl":2197,"~~":2198,"alk":2199,"bs":2200,"Ġfurther":2201,"Ġcap":2202,"48":2203,"Ġproduct":2204,"Ġerror":2205,"ler":2206,"OR":2207,"Ġ&=":2208,"Ġrandom":2209,"Ġlife":2210,"stand":2211,"Type":2212,"rr":2213,"Ġsl":2214,"Ġfram":2215,"Ġbro":2216,"ĠPl":2217,"Ġvar":2218,"}_\\":2219,"Ġphase":2220,"2010":2221,"Ġtraining":2222,"Ġindic":2223,"roll":2224,"AN":2225,"Ġinput":2226,"Ġpur":2227,"Ġmom":2228,"2011":2229,"Ġrespon":2230,"nal":2231,"}^\\":2232,"Ġevent":2233,"Ġchange":2234,"iter":2235,"LE":2236,"ev":2237,"Ġvector":2238,"Ġadv":2239,"Ġspe":2240,"\"/>":2241,"Cl":2242,"ĠWh":2243,"If":2244,"Ġtimes":2245,"ĠAt":2246,"$)":2247,"ended":2248,"exp":2249,"inter":2250,"mathsf":2251,"SE":2252,"angu":2253,"Ġsay":2254,"Ġrange":2255,"ĠThey":2256,"Ġchang":2257,"perature":2258,"36":2259,"Ġimage":2260,"Ġfinite":2261,"ological":2262,"99":2263,"idd":2264,"}|":2265,"ek":2266,"ĠBy":2267,"cdots":2268,"widehat":2269,"lemma":2270,"usiness":2271,"une":2272,"rivate":2273,"icle":2274,"Ġphys":2275,"Ġpost":2276,"Ġaction":2277,"01":2278,"Ġorgan":2279,"Ġsystems":2280,"ĠStates":2281,"Ġcases":2282,"empt":2283,"Ġplace":2284,"ways":2285,"eb":2286,"uman":2287,"Ġdiff":2288,"On":2289,"ĠBut":2290,"Ġmethods":2291,"Ġeas":2292,"Ġlower":2293,"Ġpath":2294,"rite":2295,"fficient":2296,"uation":2297,"Ġconditions":2298,"Ġless":2299,"Ġprot":2300,"Ġlay":2301,"return":2302,"Ġaut":2303,"Ġsignificant":2304,"Ġwant":2305,"Ġconsid":2306,"})\\":2307,"Ġanother":2308,"Ġ\\{":2309,"Ġplan":2310,"Ġnode":2311,"duct":2312,"Ġband":2313,"Ġleast":2314,"Ġestabl":2315,"ts":2316,"ĠMar":2317,"node":2318,"ĠâĢĶ":2319,")]":2320,"Ġcare":2321,"ium":2322,",-":2323,"Ġfull":2324,"Ġmot":2325,"ailable":2326,"enn":2327,"Ġhigher":2328,"pdf":2329,"Ġcontrol":2330,"Ġsymm":2331,"rist":2332,"asing":2333,"Ġfew":2334,"II":2335,"ering":2336,"Ġdynam":2337,"}^{(":2338,"Ġlight":2339,"Ġmet":2340,"Ġbook":2341,"34":2342,"foot":2343,"Ġwid":2344,"DE":2345,"chie":2346,"Ġthink":2347,"wards":2348,"ared":2349,"31":2350,"Ġpositive":2351,"Ġrecent":2352,"}}(":2353,"ĠFigure":2354,"param":2355,"alax":2356,"ocial":2357,"Ġbo":2358,"Ġtarget":2359,"List":2360,"Ġdefine":2361,"enc":2362,"Ġsom":2363,"AC":2364,"lected":2365,"Ġhy":2366,"Ġproposed":2367,"AL":2368,"Ġsuccess":2369,"ĠCar":2370,"inc":2371,"Ġgrow":2372,"64":2373,"AS":2374,"Ġcirc":2375,"Ġneg":2376,"esc":2377,"70":2378,"ope":2379,"qquad":2380,"xspace":2381,"Ġbre":2382,".~":2383,"ĠBl":2384,"inary":2385,"field":2386,"Ġopp":2387,"Ġke":2388,"Ġdescribed":2389,"Ġarea":2390,"Ġclear":2391,"Ġweight":2392,"ored":2393,"viron":2394,"Ġunt":2395,"38":2396,"##":2397,"ius":2398,"Ġthus":2399,"ĠAll":2400,"small":2401,"}\\\\":2402,"ister":2403,"ĠJohn":2404,"Ġturn":2405,"Val":2406,"Ġconstra":2407,"Ġprovide":2408,"Ġexists":2409,"Ġquest":2410,"ends":2411,"Ġdiag":2412,"')":2413,"ians":2414,"gebra":2415,"55":2416,"Ġprobability":2417,"Ġfrequ":2418,"ths":2419,"Ġge":2420,"&=":2421,"Ġlength":2422,"imensional":2423,"off":2424,"Ġdel":2425,"Ġfree":2426,"cup":2427,"ĠThere":2428,"Ġloss":2429,"Ġ$(\\":2430,"ĠCent":2431,"ĠNational":2432,"translation":2433,"Psi":2434,"Ġnormal":2435,"ĠMay":2436,"2009":2437,"Ġkey":2438,"ele":2439,"^+":2440,"Ġinvol":2441,"Ġtemperature":2442,"lying":2443,"ription":2444,"Ġvol":2445,"ĠThese":2446,"Un":2447,"Ġann":2448,"plement":2449,"Ġlog":2450,"Ġleg":2451,"Ġpolit":2452,"cos":2453,"Ġconsist":2454,"netic":2455,"ĠLemma":2456,"though":2457,"iving":2458,"ty":2459,"Ġproperties":2460,"af":2461,"roups":2462,"Ġconsidered":2463,"ividual":2464,"}\\,":2465,"conom":2466,"Ġobserved":2467,"mp":2468,"Ġhal":2469,"which":2470,"Ġcorre":2471,"hold":2472,"Ġrelations":2473,"Ġred":2474,"Ġbetter":2475,"uture":2476,"ape":2477,"based":2478,"mo":2479,"head":2480,"{{\\":2481,"An":2482,"Ġsource":2483,"citet":2484,"ĠGe":2485,"Ġ&\\":2486,"ris":2487,"Ġhead":2488,"Ġaverage":2489,"Ġiss":2490,"go":2491,"Ġabs":2492,"Ġzero":2493,"wise":2494,"Ġdatas":2495,"inally":2496,"2008":2497,"gl":2498,"Ġcost":2499,"Ġconn":2500,"ged":2501,"Ġhom":2502,"Ġmeans":2503,"Ġsepar":2504,"Ġlearning":2505,"EN":2506,"rand":2507,"aster":2508,"Ġshort":2509,"Ġsit":2510,"Ġachie":2511,"ches":2512,"37":2513,"Ġeval":2514,"uration":2515,"Ġinclude":2516,"prop":2517,"size":2518,"onal":2519,"Ġfeatures":2520,"ĠSu":2521,"stit":2522,"Ġcross":2523,"Ġsk":2524,"Ġindependent":2525,"Ġgame":2526,"Ġ!":2527,"Ġbehav":2528,"ĉĊ":2529,"Ġavailable":2530,"ĠFran":2531,"key":2532,"ably":2533,"tack":2534,"olumn":2535,"ulations":2536,"44":2537,"Ġfactor":2538,"ertain":2539,"anu":2540,"39":2541,"Ġdefinition":2542,"sing":2543,"Ġequival":2544,"Ar":2545,"Ġsem":2546,"icy":2547,"scale":2548,"Ġclust":2549,"Ġfocus":2550,"ĠYork":2551,"ordin":2552,"Ġcompar":2553,"ĠCan":2554,"Ġmajor":2555,"scr":2556,"Ġbelow":2557,"Ġassociated":2558,"Ġnull":2559,"]$":2560,"value":2561,"}:":2562,"appro":2563,"idence":2564,"IC":2565,"Ġgovernment":2566,"defin":2567,"Ġdon":2568,"âĢĶ":2569,"Ġday":2570,"Ġuntil":2571,"ules":2572,"Ġlines":2573,"Ġseen":2574,"rary":2575,"eter":2576,"operator":2577,"AM":2578,"....":2579,"Ġstring":2580,"point":2581,"ĠSince":2582,"Ġflow":2583,"Ġfund":2584,"Ġsequence":2585,"Ġenc":2586,"Ġside":2587,"osp":2588,"ĠSc":2589,"Ġblock":2590,"|^":2591,"ĠOr":2592,"Ġmoment":2593,"ache":2594,"ling":2595,"atural":2596,"Ġassume":2597,"iam":2598,"data":2599,"fo":2600,"Ġrequire":2601,"Ġcy":2602,"Ġoffic":2603,"],":2604,"Ġeither":2605,"ush":2606,"ently":2607,"Int":2608,"Ġcoll":2609,"Ġoriginal":2610,"ĠĠĠĠĠĠĠĠĠĠĠĠĠ":2611,"Ġaccount":2612,"49":2613,"Ġgalax":2614,"Ġfixed":2615,"Ġgreat":2616,"}+\\":2617,"utes":2618,"iance":2619,"ibility":2620,"2007":2621,"Ġquantum":2622,"rior":2623,"ĠWorld":2624,"Ġfalse":2625,"Ġsche":2626,"mid":2627,"Ġimpl":2628,"most":2629,"ai":2630,"Ġindividual":2631,"ula":2632,"ising":2633,"arent":2634,"igen":2635,"ĠSy":2636,"hspace":2637,"ĠCount":2638,"ĠYou":2639,"uly":2640,"skip":2641,"uted":2642,"ĠEuro":2643,"anguage":2644,"erial":2645,"Ġloc":2646,"Ġstar":2647,"Ġnumer":2648,"Ġcoupl":2649,"now":2650,"bu":2651,"neq":2652,"map":2653,"ĠSo":2654,"Ġelement":2655,"He":2656,"Ġbi":2657,"ving":2658,"sin":2659,"ready":2660,"Ġhome":2661,"Ġresearch":2662,"Ġalways":2663,"Ġsimple":2664,"Ġexpected":2665,"}}{\\":2666,"IT":2667,"ms":2668,"ĠĠĠĠĊ":2669,"ĠWar":2670,"star":2671,"Ġcover":2672,"ĠBe":2673,"iff":2674,"Ġgive":2675,"sw":2676,"ĠUS":2677,"side":2678,"Ġdistance":2679,"Ġpract":2680,"rim":2681,"pose":2682,"Ġseason":2683,"footnot":2684,"2006":2685,"indent":2686,"Ġtext":2687,"CO":2688,"function":2689,"Ġproperty":2690,"ched":2691,"aken":2692,"fill":2693,"Ġamong":2694,"Ġearly":2695,"vironment":2696,"ĠNo":2697,"Ġcommon":2698,"\".":2699,"pact":2700,"Ġdenote":2701,"umerate":2702,"Ġcomplet":2703,"Ġanaly":2704,"rap":2705,"}-\\":2706,"Ġexact":2707,"ĠMore":2708,"'$":2709,")-":2710,"Ġlik":2711,"mathscr":2712,"Ġstep":2713,"Ġsample":2714,"Ġoperator":2715,"Ġ==":2716,"Ġelse":2717,"Ġrecord":2718,"raction":2719,"ino":2720,"chan":2721,"95":2722,"equiv":2723,"65":2724,"theorem":2725,"Ġscale":2726,"opy":2727,"ĠCo":2728,"Ġconstruct":2729,"verg":2730,"\"><":2731,"47":2732,"Ġspecial":2733,"Ġemploy":2734,"Ġstre":2735,"Ob":2736,"aut":2737,"Ġfoot":2738,"ides":2739,"Ġbusiness":2740,"Ġlabel":2741,"ĠPol":2742,"ware":2743,"Ġtransition":2744,"ilities":2745,"ĠTe":2746,"ilit":2747,"annel":2748,"bum":2749,"enumerate":2750,"195":2751,"Ġfac":2752,"Ġeng":2753,"Ġauthor":2754,"Ġoften":2755,"Ġelements":2756,"Ġoccur":2757,"Ġsurface":2758,"Ġvarious":2759,"ariant":2760,"itemize":2761,"ĠSp":2762,")}{":2763,"Ġwar":2764,"Ġsugg":2765,"Ġsuggest":2766,"08":2767,"ussian":2768,"Ġboundary":2769,"Ġemb":2770,"({\\":2771,"operatorname":2772,"07":2773,"Ġmight":2774,"Ġrat":2775,"mat":2776,"ĠAust":2777,"Ġclaim":2778,"Ġblack":2779,"Ġbelie":2780,"otes":2781,"multic":2782,"Ġhard":2783,"iles":2784,"Ġmembers":2785,"Ġplayers":2786,"Ġprivate":2787,"]\\":2788,"Ġold":2789,"Ġmove":2790,"vspace":2791,"ĠState":2792,"lied":2793,"ocument":2794,"dt":2795,"Ġvoid":2796,"Ġ-\\":2797,"Ġspin":2798,"ĠApp":2799,"Ġvia":2800,"Ġlarger":2801,"Ġimplement":2802,"ĠThus":2803,"ĠâĢĺ":2804,"ĠMan":2805,"Ġcell":2806,"Ġ&&":2807,"46":2808,"racy":2809,"ilt":2810,"wed":2811,"Ġlinks":2812,"Ġhowever":2813,"Ġmusic":2814,"itor":2815,"ressed":2816,"ĠMin":2817,"ĠEurope":2818,"ighb":2819,"bb":2820,"eloc":2821,"iven":2822,"multicolumn":2823,"call":2824,"Ġable":2825,"Ġregular":2826,"underline":2827,"Ġversion":2828,"Ġrole":2829,"Set":2830,"mary":2831,"Ġrelated":2832,"gether":2833,"Ġcontext":2834,"Ġtogether":2835,"Ġreason":2836,"ats":2837,"Ġacross":2838,"Ġoptim":2839,"izing":2840,"cell":2841,"06":2842,"Ġalready":2843,"ĠCor":2844,"Ġnecess":2845,"AP":2846,"Ġcorrel":2847,"Ġequations":2848,"Ġnam":2849,"Ġgoing":2850,"ems":2851,"Ġhealth":2852,"ought":2853,"Ġmetric":2854,"Ġinvestig":2855,"ĠSchool":2856,"Sh":2857,"ze":2858,"Ġdomain":2859,"Ġwon":2860,"Ġmanag":2861,"Ġes":2862,"Ġedge":2863,"Ġinfl":2864,"ĠAug":2865,"Ġland":2866,"Ġcountry":2867,"Ġill":2868,"~$":2869,"Ġwhether":2870,"Ġbecome":2871,"Ġaccess":2872,"Ġbecame":2873,"Ġfuture":2874,"Ġappear":2875,"ĠAf":2876,"ĠSouth":2877,"cle":2878,"$}":2879,"Ind":2880,"ume":2881,"Ġdeath":2882,"place":2883,"oted":2884,"Ġid":2885,"Mod":2886,"Ġdegree":2887,"anuary":2888,"Ġcertain":2889,"ottom":2890,"och":2891,"Ġbackground":2892,"Ġhistory":2893,"Ġcompany":2894,"Ġprom":2895,"iver":2896,"ensor":2897,"02":2898,"Ġconstraint":2899,"Ġpubl":2900,"Ġgives":2901,"tic":2902,"string":2903,"Ġrequired":2904,"Ġimplies":2905,"ults":2906,"Ġ\\|":2907,"Ġcheck":2908,"eneral":2909,")}$":2910,"Ġveloc":2911,"edd":2912,"lege":2913,"ĠBrit":2914,"Ġdev":2915,"omial":2916,"}}_":2917,"ĠCal":2918,"Ġaccording":2919,"IS":2920,"ney":2921,"mark":2922,"Ġhuman":2923,"Ġtherefore":2924,"Ġfore":2925,"Ġdep":2926,"lor":2927,"Ġglobal":2928,"plus":2929,"bo":2930,"ĠOct":2931,"Ġclose":2932,"De":2933,"ĠAss":2934,"Ġhapp":2935,"Ġunit":2936,"urch":2937,"Ġtaken":2938,"dag":2939,"ctors":2940,"NN":2941,"Ġtitle":2942,"Ġben":2943,"Ġwomen":2944,"ried":2945,"Ġoutput":2946,"Ġ:=":2947,"hood":2948,"noindent":2949,"page":2950,"Ġfields":2951,"04":2952,"Ġgroups":2953,"iform":2954,"Data":2955,"Ġ%":2956,"Ġholds":2957,"texttt":2958,"ply":2959,"itted":2960,"more":2961,"Ġunderstand":2962,"oman":2963,"ogn":2964,"ava":2965,"Ġcoe":2966,"ague":2967,"Âł":2968,"Ġevents":2969,"66":2970,"Ġformer":2971,"ittle":2972,"\\}$":2973,"ĠMarch":2974,"2005":2975,"ĠArt":2976,"Ġfail":2977,"Ġsolutions":2978,"Ġpopulation":2979,"ework":2980,"omorphism":2981,"Ġmillion":2982,"Ġtre":2983,"Ġep":2984,"Ġprove":2985,"Ġimages":2986,"Ġtoo":2987,"Ġcity":2988,"ony":2989,"dom":2990,"itting":2991,"pril":2992,"][":2993,"ket":2994,"px":2995,"Ġhaving":2996,"Ġstrateg":2997,"Ġpo":2998,"(-":2999,"pol":3000,"03":3001,"Ġsets":3002,"Ġbegin":3003,"abor":3004,"ĠChrist":3005,"cret":3006,"Ġcode":3007,"ĠWhen":3008,"********":3009,"util":3010,"\\,\\":3011,"ours":3012,"ĠOne":3013,"Ġarch":3014,"Ġput":3015,"rant":3016,"Ġprovided":3017,"medi":3018,"dimensional":3019,"ptember":3020,"Ġconc":3021,"Ġfar":3022,"Ġla":3023,"Ġattack":3024,"Ġrefer":3025,"rag":3026,"Ġground":3027,"Ġindex":3028,"Ġhtt":3029,"Ġret":3030,"Ġcannot":3031,"Se":3032,"Ġchildren":3033,"Ġworks":3034,"CT":3035,"09":3036,"pped":3037,"Ġpan":3038,"Ġprim":3039,"ĠPart":3040,"ĠWith":3041,"Ġeffic":3042,"Ġconfig":3043,"ĠĠĠĠĠĠĠĠĠĠĠĠĠĠĠĠĠĠĠĠĠĠĠ":3044,"Ġdou":3045,"Ġadditional":3046,"erman":3047,"indow":3048,"split":3049,"Ġfig":3050,"ending":3051,"Ġgenerated":3052,"Ġthird":3053,"aches":3054,"85":3055,"iction":3056,"ds":3057,"Vert":3058,"Ġnote":3059,"ĠJanuary":3060,"used":3061,"down":3062,"Ġfive":3063,"aced":3064,"Ġwhose":3065,"Ġmultiple":3066,"2000":3067,"oad":3068,"onic":3069,"group":3070,"reed":3071,"lement":3072,"Ġwin":3073,"Ġcateg":3074,"cember":3075,"gen":3076,"Ġalbum":3077,"ideo":3078,"Ġeffective":3079,"Ġcontains":3080,"Ġcompared":3081,"ĠGu":3082,"ĠReg":3083,"Ġbasis":3084,"Ġsong":3085,"AB":3086,"Ġenough":3087,"Ġsocial":3088,"acy":3089,"ront":3090,"Ġtransform":3091,"approx":3092,"amil":3093,"gs":3094,"roid":3095,"With":3096,"ada":3097,"ovember":3098,"textrm":3099,"Ġcommunity":3100,"Ġwritten":3101,"ĠCounty":3102,"}}}":3103,"eder":3104,"ĠJune":3105,"Ġdevelopment":3106,"Ġeffects":3107,"Since":3108,"Ġcompos":3109,"norm":3110,"Ġinf":3111,"Ġinstance":3112,"Ġservice":3113,"\")":3114,"Ġequal":3115,"Ġspecific":3116,"cing":3117,"Ġrepresentation":3118,"Ġmagnetic":3119,"Col":3120,"Ġestimate":3121,"Ġcomponent":3122,"Ġsw":3123,"Ġeconom":3124,"Ġnatural":3125,"Ġalgebra":3126,"{}":3127,"rule":3128,"Ġrelation":3129,"Ġlearn":3130,"astic":3131,"Ġmar":3132,"Ġdifference":3133,"Ġstars":3134,"tra":3135,"ĠPar":3136,"uk":3137,"Ġweak":3138,"ceed":3139,"linear":3140,"test":3141,"ĠCity":3142,"kn":3143,"Ġnever":3144,"light":3145,"Ġpresented":3146,"ED":3147,"nb":3148,"ĠJuly":3149,"ĠMe":3150,"Ġnum":3151,"42":3152,"state":3153,"ports":3154,"from":3155,"Ġcoordin":3156,"ĠTherefore":3157,"atively":3158,"ĠAugust":3159,"].":3160,"but":3161,"my":3162,"ĠApril":3163,"ĠSeptember":3164,"ography":3165,"Ġexplain":3166,"Ġcompet":3167,"ĠMed":3168,"alle":3169,"date":3170,"Ġmatch":3171,"Ġeduc":3172,"($":3173,")+":3174,"mooth":3175,"like":3176,"{$":3177,"Ġprec":3178,"Ġmechan":3179,"Ġsqu":3180,"Pi":3181,"ES":3182,"Ġneighb":3183,"ĠOctober":3184,"Ġtheorem":3185,"CC":3186,"icture":3187,"Ġuser":3188,"Ġsent":3189,"itect":3190,"rest":3191,"subseteq":3192,"mar":3193,"rated":3194,"Ġreally":3195,"index":3196,"Ġyield":3197,"list":3198,"hib":3199,"97":3200,"2004":3201,"ledge":3202,"Ġimprove":3203,"alt":3204,"&&":3205,"Ġstatic":3206,"Cont":3207,"ĠNorth":3208,"ires":3209,"come":3210,"Ġbase":3211,"Then":3212,"Ġmatter":3213,"----------------":3214,"Value":3215,"Ġcam":3216,"Ġmaterial":3217,"Ġdimension":3218,"Ġcomponents":3219,"Ġtry":3220,"eff":3221,"ĠSch":3222,"ulated":3223,"actions":3224,"Ġreview":3225,"Ġvalid":3226,"na":3227,"izes":3228,"ĠThat":3229,"Ġcome":3230,"Ġdone":3231,"Ġwave":3232,"ales":3233,"ĠDecember":3234,"Ġport":3235,"),\\":3236,"ĠRep":3237,"eed":3238,"LL":3239,"43":3240,"ĠPres":3241,"icult":3242,"lish":3243,"ili":3244,"ĠTable":3245,"ham":3246,"ĠCO":3247,"Ġspectrum":3248,"rast":3249,"^-":3250,"External":3251,"Theta":3252,"Ġrestrict":3253,"Ġprior":3254,"Ġeigen":3255,"Ġ_{":3256,"ocal":3257,"lex":3258,"ĠNovember":3259,",\"":3260,"ĠAfter":3261,"âĢ¦":3262,"Ġrot":3263,"clusion":3264,"Ġ$\\{":3265,"Ġage":3266,"Ġsatisfy":3267,"vision":3268,"minus":3269,"98":3270,"Ġevolution":3271,"Ġtw":3272,"that":3273,"Ġrather":3274,"Ġmaking":3275,"ĠWill":3276,"Ġincrease":3277,"<\\":3278,"ster":3279,"Ġenvironment":3280,"Ġvariables":3281,"iew":3282,"ĠIntern":3283,"Ġwater":3284,"aries":3285,"cher":3286,"location":3287,"Ġcolor":3288,"rc":3289,"Ġdirection":3290,"comp":3291,"linewidth":3292,"Ġmaximum":3293,"ĠEn":3294,"vergence":3295,"Ġproblems":3296,"Pl":3297,"ĠOb":3298,"Ġhalf":3299,"Ġjo":3300,"Ġvelocity":3301,"Ġquestion":3302,"ones":3303,"bound":3304,"];":3305,"Ġalmost":3306,"Ġbig":3307,"67":3308,"}^{-":3309,"ump":3310,"41":3311,"Ġgas":3312,"Ġsix":3313,"ĠBar":3314,"bigg":3315,"earch":3316,"ynomial":3317,"Ġcomplete":3318,"Su":3319,"Ġevalu":3320,"ament":3321,"raft":3322,"Ġwidth":3323,"RO":3324,"itude":3325,"ĠDep":3326,")|":3327,"Ġant":3328,"ĠAustral":3329,"semb":3330,"Ġstudents":3331,"IM":3332,"ille":3333,"Ġchall":3334,"Ġsignal":3335,"From":3336,"aint":3337,"Bu":3338,"ung":3339,"path":3340,"istics":3341,"ards":3342,"Ġtask":3343,"ortun":3344,"Ġwrite":3345,"Ġcentral":3346,"Ġpress":3347,"Ġapplied":3348,"PS":3349,"Ġdemon":3350,"Ġcolumn":3351,"www":3352,"nection":3353,"ĠMc":3354,"footnote":3355,"ken":3356,"Ġsays":3357,"\");":3358,"png":3359,"ustom":3360,"Ġamount":3361,"Ġexec":3362,"Ġbeg":3363,"ĠAct":3364,"ĠHar":3365,"Ġinequ":3366,"anta":3367,"Ġcontinuous":3368,"ĠBo":3369,"Ġcoun":3370,"Ġyoung":3371,"Le":3372,"pers":3373,"Ġshall":3374,"lin":3375,"Ġstory":3376,"aves":3377,"Ġincluded":3378,"itch":3379,"display":3380,"Ġtook":3381,"Ġbir":3382,"Ġprovides":3383,"model":3384,"Ġ\\;":3385,"Ġcut":3386,"Ġpay":3387,"ĠPr":3388,"Ġworking":3389,"Ġupper":3390,"prod":3391,"ĠFeb":3392,"There":3393,"Ġfootball":3394,"Ġ$|":3395,"file":3396,"Ġgrad":3397,"unc":3398,"Ġdataset":3399,"Ġsens":3400,"taint":3401,"Ġmember":3402,"Ġscen":3403,"Ġsubject":3404,"Ġdiv":3405,"subfigure":3406,"https":3407,"MS":3408,"link":3409,"ĠGa":3410,"ĠAfric":3411,"Ġcontent":3412,"Ġunique":3413,"}'":3414,"========":3415,"Ġclosed":3416,"Ġtreat":3417,"At":3418,"acc":3419,"}}_{":3420,"ervice":3421,"rew":3422,"Ġimpact":3423,"cast":3424,"normal":3425,"}/":3426,"Ġchanges":3427,"}},":3428,"^{-\\":3429,"Ġ(-":3430,"Ġ($\\":3431,"ĠLi":3432,"setminus":3433,"Ġratio":3434,"ishing":3435,"ĠNote":3436,"aff":3437,"icit":3438,"68":3439,"flo":3440,"2003":3441,"inst":3442,"Ġdays":3443,"Ġinstead":3444,"Ġreported":3445,"Ġflu":3446,"Ġreceived":3447,"Ġdifficult":3448,"duc":3449,"atives":3450,"Ġneut":3451,"Ġir":3452,"Ġnational":3453,"pping":3454,"icro":3455,"Ġconstruction":3456,"fact":3457,"Ġgeom":3458,"Ġkind":3459,"Ġdirectly":3460,"Ġincreasing":3461,"Ġiter":3462,"ruary":3463,"ĠSim":3464,"body":3465,"Ġsetting":3466,"CD":3467,"ĠII":3468,"Ġdecre":3469,"Ġthough":3470,"ana":3471,"mit":3472,"Ġtaking":3473,"load":3474,"IR":3475,"sel":3476,"Ġmen":3477,"oplus":3478,"rown":3479,"isk":3480,"Ġpast":3481,"Ġliter":3482,"Ġresponse":3483,"ession":3484,"Ġaddress":3485,"Ġrequest":3486,"Ġactiv":3487,"Ġ/**":3488,"Ġgen":3489,"Ph":3490,"rate":3491,"Ġuncer":3492,"gress":3493,"Ġpolicy":3494,"andid":3495,"Ġviol":3496,"uracy":3497,"rror":3498,"Ġsmaller":3499,"Ġwords":3500,"77":3501,"known":3502,"Ġequivalent":3503,"Ġphysical":3504,"Ġproduction":3505,"Ġfrequency":3506,"Ġnoise":3507,"command":3508,"iddle":3509,"\\}":3510,"Ġhor":3511,"ret":3512,"ĠĠĠĊ":3513,"Ġrank":3514,"king":3515,"arily":3516,"ptions":3517,"http":3518,"Ġreleased":3519,"Note":3520,"nbsp":3521,"Ġindust":3522,"ĠHis":3523,"pan":3524,"Test":3525,"96":3526,"Ġplayed":3527,"ully":3528,"Ġcult":3529,"Ġvir":3530,"Ġmakes":3531,"88":3532,"Ġbecomes":3533,"////":3534,"igned":3535,"Ġflux":3536,"Ġentire":3537,"dist":3538,"Ġdetect":3539,"ĠEd":3540,"Ġmeet":3541,"Ġintern":3542,"aligned":3543,"2022":3544,"Ġrelative":3545,"Ġdetails":3546,"Ġchoice":3547,"long":3548,"tact":3549,"ĠAg":3550,"ided":3551,"_+":3552,"Ġnuc":3553,"Ġcreate":3554,"Ġsearch":3555,"Ġaway":3556,"Ġ$[":3557,"Ġver":3558,"AD":3559,"Ġbuilding":3560,"ae":3561,"cil":3562,"apan":3563,"Ġobjects":3564,"eline":3565,"wedge":3566,"Ġbehavior":3567,"App":3568,"ĠWest":3569,"Ġfile":3570,"Ġ$-":3571,"Ġobservations":3572,"sup":3573,"Ġkeep":3574,"allel":3575,"Ġweek":3576,"adem":3577,"Ġbreak":3578,"Ad":3579,"check":3580,"oud":3581,"volution":3582,"aul":3583,"PE":3584,"Ġothers":3585,"Exception":3586,"ething":3587,"Ġleading":3588,"aly":3589,"Ġpolynomial":3590,"ln":3591,"era":3592,"rices":3593,"And":3594,"LO":3595,"ured":3596,"Ġsufficient":3597,"Ġsources":3598,"abs":3599,"ĠKing":3600,"Ġfit":3601,"Ġstyle":3602,"bur":3603,"shift":3604,"uck":3605,"length":3606,"elling":3607,"Ġproced":3608,"EE":3609,"));":3610,"AA":3611,"Ġintroduced":3612,"Ġhost":3613,"Wh":3614,"ournal":3615,"osen":3616,"Ġlittle":3617,"Ġcritical":3618,"Ġinflu":3619,"Ġbounded":3620,"ĠQu":3621,"Ġlanguage":3622,"Ġperformed":3623,"All":3624,"_*":3625,"Ġstudies":3626,"level":3627,"Ġderiv":3628,"ging":3629,"Ġdemonstr":3630,"Ġregard":3631,"ners":3632,"ĠFirst":3633,"uments":3634,"SI":3635,"*{":3636,"Ġrob":3637,"amilton":3638,"ait":3639,"ĠÐ":3640,"Ġheld":3641,"Qu":3642,"Ġonce":3643,"$_":3644,"ifold":3645,"Ġbroad":3646,"Ġcorrect":3647,"ming":3648,"minist":3649,"inated":3650,"Ġprop":3651,"Ġthings":3652,"band":3653,"dagger":3654,"Ġhence":3655,"tical":3656,"mon":3657,"Ġcourse":3658,"New":3659,"la":3660,"Ġpublished":3661,"oney":3662,"rain":3663,"Ġdetermined":3664,"Ġmarket":3665,"Ġadj":3666,"auge":3667,"aught":3668,"Ġuniform":3669,"limits":3670,"ĠFrom":3671,"ĠFebruary":3672,"Ġapply":3673,"istory":3674,"thing":3675,"Ġdraw":3676,"ein":3677,"vis":3678,"ights":3679,"Ġsense":3680,"ociety":3681,"Ġestablished":3682,"Ġservices":3683,"Ġnumbers":3684,"Ġmer":3685,"xy":3686,"vey":3687,"){":3688,"ollary":3689,"ĠBritish":3690,"overed":3691,"encies":3692,"Ġallows":3693,"bt":3694,"fe":3695,"attice":3696,"Ġair":3697,"_{(":3698,"Ġlayer":3699,"2002":3700,"Ġregions":3701,"\";":3702,"ensions":3703,"Ġhouse":3704,"BC":3705,"Ġagre":3706,"cript":3707,"url":3708,"jection":3709,"Ġrecogn":3710,"Ġcareer":3711,"Ġpolitical":3712,"bre":3713,"Ġconnected":3714,"colon":3715,"Ġelectron":3716,"Ġintegral":3717,"Ġgalaxies":3718,"error":3719,"oms":3720,"ET":3721,"Ġconduct":3722,"Ġsmooth":3723,"State":3724,"Ġlocated":3725,"ĠProposition":3726,"ĠĠĠĠĠĠĠĠĠĠ":3727,"ĠMod":3728,"Ġcame":3729,"ota":3730,"Ġcurve":3731,"Ġpattern":3732,"black":3733,"Ġbegan":3734,"itz":3735,"definition":3736,"ondon":3737,"can":3738,"Object":3739,"ĠSci":3740,"avy":3741,"Ġfri":3742,"imate":3743,"Ġtypes":3744,"Ġess":3745,"ĠLa":3746,"Ġperm":3747,"Ġcenter":3748,"rs":3749,"ellar":3750,"Ġlot":3751,"atory":3752,"ĠString":3753,"Ġrow":3754,"Ġ\\(":3755,"bul":3756,"olic":3757,"Ġchannel":3758,"anced":3759,"ication":3760,"Ġemission":3761,"Ġlikely":3762,"change":3763,"Ġvertex":3764,"Ġcompact":3765,"ilitary":3766,"Ġoptimal":3767,"using":3768,"2001":3769,"Ġinteraction":3770,"Get":3771,"Ġnodes":3772,"ĠOur":3773,"Ġinfin":3774,"spec":3775,"ponent":3776,"Ġshift":3777,"Ġoperators":3778,"Ġembedd":3779,"ackage":3780,"Ġbuilt":3781,"ario":3782,"vant":3783,"}}(\\":3784,"Ġframework":3785,"irect":3786,"Ġ|\\":3787,"Ġdiagram":3788,"Class":3789,"Ġpercent":3790,"quot":3791,"57":3792,"Ġax":3793,"Ġmention":3794,"Ġparticip":3795,"ĠPresident":3796,"Ġuncertaint":3797,"ĠEl":3798,"Ġang":3799,"Ġrespons":3800,"Or":3801,"bert":3802,"Ġparent":3803,"Ġtakes":3804,"ington":3805,"di":3806,"ĉĉĉĉĉ":3807,"Ġstation":3808,"ansion":3809,"Ġgames":3810,"input":3811,"nav":3812,"See":3813,"Ġarchitect":3814,"Ġsubset":3815,"ĠMon":3816,"Ġsoft":3817,"Ġnov":3818,"ccording":3819,"Ġdeveloped":3820,"Ġmiss":3821,"perp":3822,"Ġjob":3823,"Ġsamples":3824,"ĠDav":3825,"Ġvariable":3826,"Ġnews":3827,"Ġbody":3828,"Ġcreated":3829,"ropy":3830,"dapt":3831,"Ġdiscussed":3832,"ffer":3833,"Ġpers":3834,"_{{\\":3835,"ampions":3836,"Ġsymmetry":3837,"Ġexplicit":3838,"Ġarm":3839,"curity":3840,"Ġsomething":3841,"Ġillust":3842,"eli":3843,"Ġsett":3844,"otic":3845,"Ġcandid":3846,"ises":3847,"Ġformula":3848,"Ġmaps":3849,"Ġsite":3850,"ashed":3851,"Ġexperiments":3852,"Net":3853,"urs":3854,"pc":3855,"ogle":3856,"ĠPe":3857,"87":3858,"pret":3859,"usion":3860,"Ġapproximation":3861,"do":3862,"FF":3863,"Ð¾":3864,"turb":3865,"Ġ///":3866,"ender":3867,"LA":3868,"Ġgot":3869,"Ġtable":3870,"ĠEnglish":3871,"500":3872,"ĠInt":3873,"ribute":3874,"ford":3875,"Ġnegative":3876,"Ġpeak":3877,"().":3878,"ops":3879,"Ġdynamics":3880,"Ġapplication":3881,"Ġsatisfies":3882,"Ġtrack":3883,"Bl":3884,"year":3885,".)":3886,"ager":3887,"Ġnecessary":3888,"Ġmult":3889,"Ġscheme":3890,"ranch":3891,"Ġ}\\":3892,"PT":3893,"perty":3894,"det":3895,"Ġcapt":3896,"ĠCour":3897,"Ġarbit":3898,"={":3899,"Not":3900,"ditional":3901,"main":3902,"Ġtransfer":3903,"ips":3904,"Ġbenef":3905,"ama":3906,"book":3907,":\\":3908,"|-":3909,"ĠSer":3910,"lier":3911,"ha":3912,"multi":3913,"Ġitself":3914,"public":3915,"Ġaccuracy":3916,"En":3917,")\\,":3918,"hand":3919,"ĠDist":3920,"MA":3921,"crete":3922,"Ġ!=":3923,"\\'":3924,"ĠGl":3925,"Ġobser":3926,"Ġresulting":3927,"textsc":3928,"Ġproduced":3929,"ĠPer":3930,"Ġwhole":3931,"rier":3932,"acity":3933,"hel":3934,"forall":3935,"mag":3936,"Ġund":3937,"Ġbar":3938,"ĠHouse":3939,"rench":3940,"ĠNe":3941,"When":3942,"Ġsimply":3943,"One":3944,"Ġclassical":3945,"pecially":3946,"Ġvideo":3947,"Ġnetworks":3948,")}(":3949,"js":3950,"ĠAmerica":3951,"Ġcompan":3952,"Ġdest":3953,"ĠÂ":3954,"ĠJapan":3955,"56":3956,"Ġgrav":3957,"iet":3958,"Ġforce":3959,"ĠArm":3960,"ĠHere":3961,"OT":3962,"ĠCollege":3963,"Ġsimulations":3964,"Ġspat":3965,"endix":3966,"ese":3967,"}$-":3968,"rivial":3969,"yl":3970,"Ġnamed":3971,"{$\\":3972,"});":3973,"ridge":3974,"asks":3975,"Ġstarted":3976,"ratic":3977,"Ġseg":3978,")^{\\":3979,"empty":3980,"ĠLondon":3981,"Ġaccept":3982,"Ġinterval":3983,"ĠInternational":3984,"Ġknowledge":3985,"SC":3986,"ĠAb":3987,"inci":3988,"subsubsection":3989,"ores":3990,"58":3991,"Ġdeep":3992,"Ġgoal":3993,"View":3994,"inos":3995,"Ġadded":3996,"Ġask":3997,"SP":3998,"illed":3999,"Ġneeded":4000,"Ġperturb":4001,"Ġtown":4002,"Ġparticles":4003,"ĠHence":4004,"But":4005,"Ġexpression":4006,"icles":4007,"\"></":4008,"icon":4009,"oding":4010,"ĠMark":4011,"Ġop":4012,"_{-":4013,"aring":4014,"'\\":4015,"Ġincludes":4016,"Equ":4017,"FT":4018,"Ġinequality":4019,"ivil":4020,"Ġdocument":4021,"ements":4022,"Ġnumerical":4023,"ensive":4024,"Ġdeal":4025,"Now":4026,"Ġcomparison":4027,"=(":4028,"Ġresid":4029,"Ġminim":4030,"aged":4031,"Ġparticle":4032,"Ġradius":4033,"Ġpref":4034,"Ġinc":4035,"Ġassert":4036,"ĠĠĠĠĠĠĠĠĠĠĠĠ":4037,"berg":4038,"ĠChar":4039,"Ġvan":4040,"ĠAm":4041,"Ġrepl":4042,"Ġexperience":4043,"deg":4044,"Ġtele":4045,"Ġclasses":4046,"Ġidea":4047,"Ġpolar":4048,"ands":4049,"Ġissue":4050,"'_":4051,"umb":4052,"isc":4053,"fficients":4054,"ued":4055,"sto":4056,"Ġwhy":4057,"Error":4058,"Ġmotion":4059,"Ġmode":4060,"Ġstudied":4061,"Ġalign":4062,"Ġspectral":4063,"ites":4064,")_{":4065,"ills":4066,"ML":4067,"Ġpanel":4068,"Ġattempt":4069,"Ġmagn":4070,"Ġdecision":4071,"Ġparts":4072,"Ġensure":4073,"cases":4074,"Eq":4075,"atus":4076,"Time":4077,"Ġcontribution":4078,"Ġstreng":4079,"Ġmeasured":4080,"Ġsuccessful":4081,"ĠTr":4082,"Ġcoupling":4083,"ĠCoun":4084,"height":4085,"sol":4086,"Ġactually":4087,"artment":4088,")/":4089,"Ġinternational":4090,"Ġmedia":4091,".</":4092,"ĠHamilton":4093,"rie":4094,"Ġcompute":4095,"ellow":4096,"stack":4097,"ayer":4098,"Ġderived":4099,"Ġneeds":4100,"ĠPark":4101,"Ġvertices":4102,"US":4103,"osed":4104,"Ġconsequ":4105,"ĠHer":4106,"Ġwent":4107,"isation":4108,"Ġminimum":4109,"``":4110,"Ġtherm":4111,"());":4112,"Ġuses":4113,"ened":4114,"Ġarray":4115,"Ge":4116,"MC":4117,"Ġareas":4118,"ĠBro":4119,"Ġfun":4120,"Key":4121,"Ġfall":4122,"Ġremains":4123,"reshold":4124,"Ġprofess":4125,"Ġlat":4126,"Tr":4127,"summary":4128,"Ġgauge":4129,"ls":4130,"izations":4131,"Ġ+\\":4132,"Ġthought":4133,"Sim":4134,"Ġnorm":4135,"ĠAir":4136,"oring":4137,"Ġleads":4138,"ĠTrans":4139,"flow":4140,"!--":4141,"Ġmechanism":4142,"Ġissues":4143,"Ġspecies":4144,"que":4145,"ĠStud":4146,"utive":4147,"Ġled":4148,"Ġespecially":4149,"93":4150,"war":4151,"Ġmomentum":4152,"Ġremov":4153,"ĠAng":4154,"ĠMoreover":4155,"gra":4156,"Ġreference":4157,"Ġassumption":4158,"Ġchain":4159,"OS":4160,"ĠHigh":4161,"Ġofficial":4162,"Ġeffort":4163,"iation":4164,"ĠWilliam":4165,"oon":4166,"run":4167,"itte":4168,"ĠWhile":4169,"Here":4170,"\\!\\!":4171,"ief":4172,"isions":4173,"apping":4174,"Ġinteresting":4175,"HE":4176,"Ġcentury":4177,"Ġadopt":4178,"Ġround":4179,"urthermore":4180,"Ġgre":4181,"Ġadapt":4182,"aging":4183,"ĠVal":4184,"}%":4185,"Ġupon":4186,"Ġchosen":4187,"Ġaltern":4188,"Ġcorresponds":4189,"78":4190,"UT":4191,"Ġhyp":4192,"resents":4193,"Im":4194,",\\,":4195,"Ġpopular":4196,"Our":4197,"Is":4198,"IG":4199,"cial":4200,"Ġyet":4201,"pmatrix":4202,"iforn":4203,"Ġspeed":4204,"92":4205,")\\\\":4206,"Ġtax":4207,"Ġcharge":4208,"Ġreduced":4209,"Ġsupported":4210,"Ġexpress":4211,"true":4212,"ĠSystem":4213,"ids":4214,"vex":4215,"ols":4216,"local":4217,"Ġfeel":4218,"Ġcluster":4219,"Ġrights":4220,"ancial":4221,"Ġbring":4222,"Ġreach":4223,"Man":4224,"~$\\":4225,"Ġmeasurements":4226,"riate":4227,"ĠTra":4228,"ĠCont":4229,"Ġtree":4230,"ached":4231,"Ġchoose":4232,"Ġpresence":4233,"ously":4234,"Ġfilms":4235,"=-":4236,"Ġfigure":4237,"ĠMy":4238,"Ġgain":4239,"PR":4240,"Over":4241,"ĠDo":4242,"irm":4243,"estern":4244,"Ġrule":4245,"etic":4246,"ederal":4247,"UR":4248,"Ġdetection":4249,"^{+":4250,"._":4251,"Ġcos":4252,"Ð°":4253,"atal":4254,"Ġlate":4255,"Ġonline":4256,"ĠChe":4257,"Ġevidence":4258,"ĠRef":4259,"Sy":4260,"Ġconstraints":4261,"Ġword":4262,"remark":4263,"Ġstage":4264,"Ġsimpl":4265,"ening":4266,"}^*":4267,"inct":4268,"ifornia":4269,"Ġimmedi":4270,"stitute":4271,"range":4272,"Ġdecay":4273,"dim":4274,"Ġexamples":4275,"Ġstructures":4276,"ecause":4277,"Ġamplit":4278,"Ġrequires":4279,"Ðµ":4280,"Ġtoday":4281,"Ġconsistent":4282,"Form":4283,"born":4284,"Ġfraction":4285,"hom":4286,"Ġcoefficients":4287,"\":":4288,"\\_":4289,"pite":4290,"ĠComp":4291,"Ġselected":4292,"Ġsimulation":4293,"}}^":4294,"ĠChina":4295,"ĠLeague":4296,"rang":4297,"Ġengine":4298,"Ġhyper":4299,"column":4300,"Ġgrowth":4301,"ppose":4302,"More":4303,"Ġcontract":4304,"However":4305,"Ġlattice":4306,"ĠCenter":4307,"$).":4308,"../../../../":4309,"ĠEuropean":4310,"ĠDi":4311,"ympt":4312,"nov":4313,"Ġhistor":4314,"Ġdescribe":4315,"Ġord":4316,"ĠMich":4317,"Ġquality":4318,"ifying":4319,"ĠIndia":4320,"Ġlive":4321,"Ġforward":4322,"Ã¡":4323,"ĠCons":4324,"ingu":4325,"Ġargument":4326,"Ġedges":4327,"Ġconcept":4328,"Ġplane":4329,"ounced":4330,"simeq":4331,"76":4332,"Ġcountries":4333,"Ġlargest":4334,"ponse":4335,"bullet":4336,"Ġcharg":4337,"Ġinterpret":4338,"ernel":4339,"Ġorbit":4340,"0000":4341,"Ġdistributions":4342,"Ġmix":4343,"Ġdenotes":4344,"ns":4345,"1999":4346,")^{-":4347,"Ġflo":4348,"Ġdecom":4349,"94":4350,"||":4351,"Ġcomes":4352,"iny":4353,"DF":4354,"Ġcr":4355,")}{\\":4356,"Ġserved":4357,"Ġborn":4358,"Figure":4359,"Ġactive":4360,"Ġnature":4361,"Ġexperiment":4362,"leg":4363,"Ġexpansion":4364,"ION":4365,"attle":4366,"Ġdouble":4367,"Ġstrategy":4368,"zero":4369,"ĠCourt":4370,"ĠLaw":4371,"Ġadm":4372,"Ġsampl":4373,"Ġprocesses":4374,"Ġcalculated":4375,"cho":4376,"inv":4377,"Ġconcern":4378,"ura":4379,"Ġfully":4380,"86":4381,"PC":4382,"Ġdecl":4383,"Ġalgorithms":4384,"51":4385,"Ġfactors":4386,"Ġplayer":4387,"Ġmach":4388,"iques":4389,"Ġlatter":4390,"52":4391,"Ġprocedure":4392,"ĠNot":4393,"Ġrepresents":4394,"Ġstatement":4395,"Ġimp":4396,"Ġalthough":4397,"Requ":4398,"itions":4399,"Ġoutside":4400,"Ġdim":4401,"\\|_{":4402,"TR":4403,"graph":4404,"Ġestimated":4405,"ĠAssoci":4406,"Ġdetermine":4407,"agraph":4408,"Ġbox":4409,"})$.":4410,"ĠDepartment":4411,"roduction":4412,"mc":4413,"Ġrelevant":4414,"Def":4415,"54":4416,"Ġavoid":4417,"Ġtowards":4418,"Ġlimited":4419,"$(":4420,"){\\":4421,"Ġeducation":4422,"Ġaim":4423,"Ġproper":4424,"Theorem":4425,"Ġsteps":4426,"van":4427,"Ġexhib":4428,"Ġattention":4429,"iency":4430,"zz":4431,")$-":4432,"Americ":4433,"=\"+":4434,"Ġlevels":4435,"ogene":4436,"iting":4437,"selves":4438,"Ġshape":4439,"Ġface":4440,"ĠGovern":4441,"Ġvolume":4442,"Ġlocation":4443,"Ġdark":4444,"\\\"":4445,"hest":4446,"Ġapplications":4447,"Ġspaces":4448,"SO":4449,"ky":4450,"Ġresolution":4451,"Ġrecently":4452,"block":4453,"paramet":4454,"File":4455,"Ġdual":4456,"Ġcourt":4457,"Trans":4458,"Ġlonger":4459,"Ġoperation":4460,"neg":4461,"Ġexperimental":4462,"53":4463,"ĠCalifornia":4464,"atform":4465,"mapsto":4466,"Ġquas":4467,"Ġdepends":4468,"Ġinvolved":4469,"$$\\":4470,"olean":4471,"undle":4472,"After":4473,"Ġded":4474,"ĠEngland":4475,"Ġessential":4476,"Ġextended":4477,"Ġemer":4478,"oph":4479,"$^{-":4480,"Ġrates":4481,"Ġeasily":4482,"Ġhttps":4483,"ship":4484,"Ġaud":4485,"uses":4486,"user":4487,"Ġblue":4488,"omb":4489,"ifier":4490,"Ġsuff":4491,"Ġvers":4492,"91":4493,".$":4494,"Ġtensor":4495,"Ġreve":4496,"Ġchalleng":4497,"matrix":4498,"Ġwhite":4499,"Ġcorrelation":4500,"oul":4501,"Ġclub":4502,"((":4503,"Ġagreement":4504,"(),":4505,"Ġmarg":4506,"Ġapproaches":4507,"ĠRepublic":4508,"Text":4509,"Ġpresident":4510,"desc":4511,"Ġidentity":4512,"Ġuseful":4513,"ples":4514,"Ġcollection":4515,"Ġcomputed":4516,"Ġexactly":4517,"Ġones":4518,"Ġcurves":4519,"Ġcontrast":4520,"ades":4521,"Ġbit":4522,"bin":4523,"Ġansw":4524,"ĠVol":4525,"Ġfav":4526,"Ġachieve":4527,"ilib":4528,"Ġmonths":4529,"Ġscalar":4530,"uthor":4531,"Ġprinci":4532,"values":4533,"config":4534,"}}^{":4535,"Ġ=\\":4536,"Ġusually":4537,"ker":4538,"Ġsymbol":4539,"Ġoperations":4540,"atur":4541,"Ġautom":4542,"dered":4543,"Ġ?":4544,"Ġincreases":4545,"Ġeasy":4546,"Event":4547,"ĠSan":4548,"');":4549,"Ġheight":4550,"orge":4551,"1998":4552,"mes":4553,"AG":4554,"Ġhol":4555,"Ġquite":4556,"inf":4557,".~(\\":4558,"word":4559,"No":4560,"case":4561,"Ġcategory":4562,"asons":4563,"ĠEar":4564,"Ġscatter":4565,"iers":4566,"Ġfront":4567,"Ġintroduce":4568,"ĠFrench":4569,"rief":4570,"dro":4571,"First":4572,"Ġdri":4573,"Ġsolid":4574,"ĠCouncil":4575,"paign":4576,"bsite":4577,"ĠGaussian":4578,"eler":4579,"Ġ-->":4580,"ares":4581,"Ġcontinue":4582,"md":4583,"Ġrisk":4584,"Ġnovel":4585,"Ġallowed":4586,"Ġclassification":4587,"dx":4588,"Table":4589,"Ġoverall":4590,"Ġcontroll":4591,"itable":4592,"hips":4593,"Ġsignificantly":4594,"rat":4595,"Ġstellar":4596,"Ġusers":4597,"63":4598,"Of":4599,"tik":4600,"valid":4601,"Ġever":4602,"gu":4603,"ipal":4604,"fil":4605,"Ġfather":4606,"ĠDem":4607,"ittee":4608,"Ġbelong":4609,"Ġradio":4610,"Ġsound":4611,"abilities":4612,"Ġorigin":4613,"Ġangle":4614,"ĠAc":4615,"proposition":4616,"Ġconsists":4617,"Ġframe":4618,"Field":4619,"ios":4620,"Ġopportun":4621,"']":4622,"ĠNow":4623,"72":4624,"cons":4625,"Ġworked":4626,"LS":4627,"Ġdescription":4628,"Thus":4629,"ees":4630,"object":4631,"mini":4632,"Ġestimates":4633,"Ġcustom":4634,"['":4635,"ĠHol":4636,"Ġjud":4637,"Ġconvergence":4638,"Ġspatial":4639,"prob":4640,"Ġselect":4641,"hy":4642,"vol":4643,"fect":4644,"Ġdied":4645,"Ġpressure":4646,"free":4647,"Ġdefault":4648,"useum":4649,"cref":4650,"Ġformation":4651,"ĠEast":4652,"ĠIndian":4653,"ibrary":4654,"Ġarticle":4655,"Ġshare":4656,"Ġcompanies":4657,"Ġspectra":4658,"Ġestablish":4659,"TE":4660,"example":4661,"Ġthroughout":4662,"Ġconnection":4663,"rows":4664,"Ġapprop":4665,"Ġexistence":4666,"Ġmilitary":4667,"hesis":4668,"ara":4669,"Ġsituation":4670,"odot":4671,"ĠPo":4672,"':":4673,"SU":4674,"Ġdisplay":4675,"Ġmemory":4676,"Ġmoney":4677,"89":4678,"Model":4679,"Ġdate":4680,"hern":4681,"acing":4682,"ashington":4683,"Ġslow":4684,"Ġinside":4685,"ĠBu":4686,"uls":4687,"CH":4688,"apter":4689,"Ġlove":4690,"Ġinvariant":4691,"Ġforms":4692,"istry":4693,"IF":4694,"\\{\\":4695,"tikz":4696,"Ġpractice":4697,"Add":4698,"Ġexcept":4699,"Ġstra":4700,"rice":4701,"ico":4702,"lt":4703,"alg":4704,"ĠResearch":4705,"Ġthreshold":4706,"Ġpairs":4707,"Ġparty":4708,"ĠRet":4709,"ĠGod":4710,"Ġtransport":4711,"mma":4712,"ĠGeneral":4713,"Ġcurrently":4714,"Ġ/>":4715,"Sub":4716,"arp":4717,"Ġimm":4718,"pport":4719,"Path":4720,"Ġdig":4721,"Ġtalk":4722,"Ġsymmetric":4723,"Ġmatrices":4724,"$;":4725,"omorphic":4726,"ĠWhat":4727,"ba":4728,"Ġ~":4729,"59":4730,"84":4731,"Ġgradu":4732,"Ġson":4733,"rees":4734,"MM":4735,"base":4736,"Ġquad":4737,"result":4738,"Ġgenerally":4739,"etimes":4740,"Out":4741,"ils":4742,"oder":4743,"tual":4744,"Ġprofile":4745,"Ġrules":4746,"cs":4747,"}&":4748,"Ġselection":4749,"ube":4750,"Ġarbitrary":4751,"Ġqual":4752,"Ġcontact":4753,"Ġmis":4754,"ilibri":4755,"Ġcore":4756,"Ġindustry":4757,"Ġvill":4758,"Ġslight":4759,"Ġdriv":4760,"plate":4761,"ĠGerman":4762,"ifically":4763,"nes":4764,"ida":4765,"](":4766,"ĠBlack":4767,"82":4768,"rd":4769,"ael":4770,"Ġobserve":4771,"Ġ);":4772,"ags":4773,"cles":4774,"Ġcircle":4775,"Ġdistrict":4776,"Ġmessage":4777,"picture":4778,"ING":4779,"Ġexisting":4780,"ĠDes":4781,"Ġliterature":4782,")},":4783,"tri":4784,"Ġdependence":4785,"Ġauthors":4786,"ĠPal":4787,"Ġconfiguration":4788,"Ġcomputation":4789,"American":4790,"arant":4791,"Ġ&=&":4792,"Ġhoriz":4793,"'(":4794,"++":4795,"|_{":4796,"next":4797,"Ġhon":4798,"Ġextract":4799,"Ġappears":4800,"Ġrunning":4801,"efore":4802,"inant":4803,"Ġrelationship":4804,"Ġstarting":4805,"Ġsingular":4806,"NR":4807,"lease":4808,"Ġstri":4809,"antic":4810,"Ġconnect":4811,"ĠGo":4812,"Ġpersonal":4813,"mage":4814,"Be":4815,"Ġleaders":4816,"idden":4817,"Ġtheore":4818,"Ġmodes":4819,"Ġpage":4820,"rig":4821,"newcommand":4822,"ĠUK":4823,"core":4824,"tem":4825,"Ġerrors":4826,"Ġpie":4827,"SM":4828,"Att":4829,"ĠMor":4830,"Ð¸":4831,"62":4832,"izer":4833,"rab":4834,"73":4835,"Ġyields":4836,"Ġtold":4837,"Ġconstit":4838,"Ġextension":4839,"Ġdidn":4840,"Ġconserv":4841,"}{|":4842,"acher":4843,"Ġpropag":4844,"_-":4845,"Ġadminist":4846,"nowled":4847,"minipage":4848,"ĠChurch":4849,"Ġdisk":4850,"Ġasympt":4851,"Ġexpand":4852,"1990":4853,"Sp":4854,"Ġsold":4855,"Ġsus":4856,")+\\":4857,"Ġacqu":4858,"Ġdesigned":4859,"Ġmid":4860,"reet":4861,"Ġpreviously":4862,"rame":4863,"Ġsquare":4864,"Ġcounter":4865,"ĠĠĠĠĠĠĠĠĠĠĠĠĠĠĠĠĠĠĠĠĠĠĠĠĠĠĠ":4866,"Ġtell":4867,"uations":4868,"Ġsubsequ":4869,"ride":4870,"prot":4871,"spect":4872,"Ġfollowed":4873,"olar":4874,"Ġball":4875,"83":4876,"Ġconsum":4877,"ĠScience":4878,"Ġproducts":4879,"ĠPaul":4880,"Ġ$$":4881,"amental":4882,"CE":4883,"Ġrepresented":4884,"Ġmeasures":4885,"Ġrelease":4886,")_":4887,"ĠSet":4888,"den":4889,"century":4890,"Ġmole":4891,"Ġcompare":4892,"Ġefficient":4893,"Ġsecurity":4894,"Ġseems":4895,"Ġmeaning":4896,"mission":4897,"ĠSen":4898,"Ġsure":4899,"Ġearlier":4900,"LP":4901,"force":4902,"oe":4903,"ĠBer":4904,"Ġproduce":4905,"Ġmaintain":4906,"content":4907,"$~":4908,"Ġreconst":4909,"61":4910,"So":4911,"}{(":4912,"pg":4913,"ymm":4914,"comple":4915,"ned":4916,"print":4917,"Ġdoing":4918,"uting":4919,"Ġstable":4920,"Ġunits":4921,"well":4922,"ĠAustralia":4923,"Ġbeam":4924,"........":4925,"}}$,":4926,"Ġprimary":4927,"/**":4928,"anks":4929,"ka":4930,"ponential":4931,"lands":4932,"title":4933,"ĠSw":4934,"Ġbasic":4935,"blue":4936,"Ġaffect":4937,"stant":4938,")-\\":4939,"ĠDavid":4940,"Ġ${":4941,"Ġinteractions":4942,"roy":4943,"1997":4944,"uel":4945,"'}":4946,"gt":4947,"End":4948,"Reg":4949,"Ġcommand":4950,"Ġaccom":4951,"1996":4952,"ĠHealth":4953,"Ġexam":4954,"Bar":4955,"Ġmoved":4956,"Ġthing":4957,"Ġgenerate":4958,"Ġreduce":4959,"Ġwindow":4960,"amespace":4961,"Ġidentified":4962,"reedom":4963,"Ġvectors":4964,"vention":4965,"pty":4966,"Index":4967,"/*":4968,"Pe":4969,"bottom":4970,"Hz":4971,"rote":4972,"rec":4973,"Ġcollect":4974,"Ġdiscussion":4975,"Ġseem":4976,"cong":4977,"produ":4978,"Ġoptimization":4979,"char":4980,"ville":4981,"[]":4982,"Ġfight":4983,"ĠBay":4984,"Ġmeasurement":4985,"GL":4986,"ocol":4987,"})$,":4988,"Ġdirector":4989,"Ġri":4990,"overy":4991,"Ġinternal":4992,"Ġtasks":4993,"Ġaward":4994,"ĠSm":4995,"Ġlost":4996,"Ġtechniques":4997,"NS":4998,"Ġmentioned":4999,"ĠInstitute":5000,"Ġcontributions":5001,"Me":5002,"ĠWashington":5003,"Ġbehind":5004,"Ġsm":5005,"ulate":5006,"Ġbelieve":5007,"Ġmorph":5008,"ĠDr":5009,"ini":5010,"elt":5011,"Ġplot":5012,"Ġtravel":5013,"active":5014,"oto":5015,"displaystyle":5016,"Ġannounced":5017,"ĠDistrict":5018,"rian":5019,"81":5020,"writ":5021,"Request":5022,"Ġ]":5023,"Ġfix":5024,"ilibrium":5025,"Ġhighly":5026,"}}$.":5027,"Ġ},":5028,"Ġanalog":5029,"cd":5030,"reme":5031,"Ġfinancial":5032,"ĠHamiltonian":5033,"osing":5034,"Ġcred":5035,"module":5036,"ĠCanada":5037,"Ġroad":5038,"Ġwor":5039,"eles":5040,"Ġten":5041,"ÑĤ":5042,"Ġmanifold":5043,"MP":5044,"ĠThom":5045,"Ġstream":5046,"Ġinteger":5047,"74":5048,"Ġsex":5049,"Ġbul":5050,"Pr":5051,"Ġgeneration":5052,"Co":5053,"Ġregime":5054,"Node":5055,"Ġbinary":5056,"Ġgradient":5057,"300":5058,"Ġlack":5059,"unic":5060,"Ġste":5061,"Ġbal":5062,"Ġassist":5063,"Ġoptions":5064,"sm":5065,"Config":5066,"ĠJames":5067,":}":5068,"Ġvict":5069,"Ġgalaxy":5070,"ĠRed":5071,"69":5072,"Ġassumed":5073,"Ġtrain":5074,"seud":5075,"Ġotherwise":5076,"Ġfem":5077,"Ġparticularly":5078,"CS":5079,"Ġbey":5080,"etime":5081,"Ġoffice":5082,"What":5083,"Fil":5084,"79":5085,"ĠRec":5086,"Ġborder":5087,"bi":5088,"Ġincreased":5089,"Ġbeyond":5090,"Ġinner":5091,"Ġprediction":5092,"Ġprote":5093,"Ġtechnology":5094,"Ġtreatment":5095,"Ġformal":5096,"current":5097,"ĠNews":5098,"Ġextra":5099,"ishes":5100,"}$)":5101,"IP":5102,"Ġhighest":5103,"71":5104,"lesssim":5105,"Ġunivers":5106,"Ġfeed":5107,"Ġcosm":5108,"ĠParty":5109,"Ġtransformation":5110,"Ġlaun":5111,"Ġrepe":5112,"Ġdistinct":5113,"Ġnight":5114,"Ġinstit":5115,"OD":5116,"Ġfast":5117,"rug":5118,"Ġtrac":5119,"Ġcoordinates":5120,"Ġabsol":5121,"Inst":5122,"ATE":5123,"Ġeconomic":5124,"Ġvisual":5125,"Ġbirths":5126,"conn":5127,"Ġways":5128,"ĠIm":5129,"hbar":5130,"ĠClass":5131,"Ġjoint":5132,"ĠRoy":5133,"Ġrelig":5134,"ĠChampions":5135,"Ġgreater":5136,"ĠFound":5137,"men":5138,"ĠSpec":5139,"Ġvariety":5140,"ĠPat":5141,"Ġnorth":5142,"Ġwriting":5143,"iment":5144,"api":5145,"Ġenh":5146,"Ġliving":5147,"Service":5148,"uit":5149,"Ġoptical":5150,"Ġdifferential":5151,"ĠList":5152,"ĠTest":5153,"Ġscore":5154,"Ġagent":5155,"))$":5156,"Ġmodern":5157,"ĠInter":5158,"CP":5159,"These":5160,"Ġorient":5161,"pid":5162,"method":5163,"Ġload":5164,"gener":5165,"ĠSome":5166,"rot":5167,"bon":5168,"ki":5169,"ĠSub":5170,"UN":5171,"lang":5172,"VID":5173,"uge":5174,"ĠMa":5175,"Info":5176,"rick":5177,"$),":5178,"Ne":5179,"wood":5180,"Ġconclude":5181,"scill":5182,"arks":5183,"dfrac":5184,"Context":5185,"Ġremaining":5186,"hbox":5187,"Ġeight":5188,"term":5189,"ĠĠĠĠĠĠĠĠĠĠĠĠĠĠ":5190,"istical":5191,"Ġupd":5192,"Ġcombination":5193,"ĠOff":5194,"Ġstraight":5195,"Map":5196,"Ġmicro":5197,"ĠVir":5198,"erve":5199,"Ġveh":5200,"Ġ$|\\":5201,")}_{":5202,"ĠArch":5203,"iti":5204,"ĠGroup":5205,"void":5206,"())":5207,"ĠHow":5208,"ya":5209,"Ġrac":5210,"Ġlayers":5211,"####":5212,"process":5213,"cular":5214,"$};":5215,"Ġmodule":5216,"ĠDiv":5217,"omic":5218,"Ġnotation":5219,"eria":5220,"Ġbottom":5221,"ani":5222,"Build":5223,"Ã³":5224,"Ġtransl":5225,"~~~~":5226,"Ġaccur":5227,"start":5228,"Ġtelevision":5229,"Ġclearly":5230,"Ġtrained":5231,"ĠIsra":5232,"lig":5233,"Ġforces":5234,"Ġwebsite":5235,"Ġcompletely":5236,"Ġidentify":5237,"GC":5238,"Ġdr":5239,"Ġscient":5240,"iral":5241,"ĠEqu":5242,"then":5243,"1995":5244,"Ġanti":5245,"Ġwide":5246,"Ġcampaign":5247,"DP":5248,"enced":5249,"Ġmonth":5250,"ibly":5251,"Ġobservation":5252,"has":5253,"Ġrelatively":5254,"iring":5255,"ĠPort":5256,"ica":5257,"Ġapproximately":5258,"arse":5259,"rep":5260,"ollowing":5261,"Ġchem":5262,"Ġwrote":5263,"ĠRober":5264,"ĠAnt":5265,"riz":5266,"Ġparallel":5267,"Ġdatasets":5268,"ogeneous":5269,"ĠGerm":5270,"ĠGreen":5271,"Ġepis":5272,"Ġpack":5273,"nam":5274,"Therefore":5275,"Ġsegment":5276,"ĠJust":5277,"emic":5278,"Te":5279,"Ġproved":5280,"arc":5281,"stream":5282,"Ġformed":5283,"Size":5284,"}({\\":5285,"ĠDef":5286,"Code":5287,"Ġfamil":5288,",\\\\":5289,"Introduction":5290,"ypes":5291,"Ġquick":5292,"Ġpolice":5293,"Ġfilter":5294,"Ġmother":5295,"Ġdevi":5296,"Ġgraphs":5297,"Ġdepart":5298,"Ð½":5299,"lymp":5300,"itter":5301,"icity":5302,"Ġult":5303,"Ġthick":5304,"ĠHall":5305,"system":5306,"Ġconcent":5307,"Ġbounds":5308,"Ġhypot":5309,"rons":5310,"tag":5311,"fs":5312,"Ġabsor":5313,"culation":5314,"Ġoscill":5315,"';":5316,"****************":5317,"Ġthemselves":5318,"ui":5319,"CA":5320,"amily":5321,"{{":5322,"Ġcause":5323,"ĠFrance":5324,"Ġelectric":5325,"ago":5326,"ĠStreet":5327,"kes":5328,"ĠMal":5329,"Ġpurpose":5330,"BS":5331,"image":5332,"BA":5333,"sect":5334,"ĠPhil":5335,"Ġneighbor":5336,"ĠRiver":5337,"unt":5338,"Fe":5339,"Ġdoesn":5340,"cccc":5341,"Ġappropriate":5342,"Ġcov":5343,"Ġincor":5344,"itely":5345,"Next":5346,"[(":5347,"nother":5348,"Ġelection":5349,"Ġfood":5350,"Ġinfluence":5351,"TD":5352,"ĠRem":5353,"Sc":5354,"Ġcomplexity":5355,"itar":5356,"Ġuncertainty":5357,"Ġpure":5358,"Ġring":5359,"Ġsurv":5360,"Ġresources":5361,"ĠAssociation":5362,"'re":5363,"Ġmind":5364,"Inter":5365,"Ġcoming":5366,"Ġquestions":5367,"Ġtim":5368,"OM":5369,"ĠBel":5370,"ny":5371,")--":5372,"ĠWork":5373,"Ġwalk":5374,")}}":5375,"abil":5376,"Ġfamilies":5377,"Ġinduced":5378,"ĠOther":5379,"Ġvary":5380,"Ġadvanta":5381,"ett":5382,"Ġkernel":5383,"Ġscattering":5384,"bel":5385,"inder":5386,"Ġwall":5387,"MR":5388,"Ġkin":5389,"Array":5390,"default":5391,"Ġcontaining":5392,"Ġaspect":5393,"mass":5394,"ĠAfrica":5395,"ĠFinally":5396,"Ġmanagement":5397,"Ġtraject":5398,"Ġdepth":5399,"-$":5400,"Ġstrict":5401,"ĠMag":5402,"count":5403,"first":5404,"Ġmagnitude":5405,"Ġbur":5406,"Ġnearly":5407,"Ġtempor":5408,"ĠAward":5409,"ĠCong":5410,"mann":5411,"Ġreturned":5412,"Color":5413,"\\)":5414,"IV":5415,"floor":5416,"abled":5417,"Ġgrid":5418,"Ġpix":5419,"='":5420,"illing":5421,"ĠFe":5422,"Ġsyn":5423,"Ġdistributed":5424,"Ġstrongly":5425,"abase":5426,"Ġshowed":5427,"Ġsouth":5428,"ĠUnion":5429,"opic":5430,"Ġdetailed":5431,"Ġvisit":5432,"Ġunderstanding":5433,"Ġlegal":5434,"Ġredshift":5435,"Ġconstructed":5436,"vised":5437,"ĠGeorge":5438,"Ġroot":5439,"Ġreson":5440,"Ġhimself":5441,"Ġcry":5442,"Ġactions":5443,"udes":5444,"\"\"":5445,"Ġstrength":5446,"Ġpoly":5447,"Ġguarant":5448,"Ġupdate":5449,"Ġmasses":5450,"Ġ[\\":5451,"uff":5452,"Ġsrc":5453,"Ġbehavi":5454,"ĠFin":5455,"1994":5456,"oo":5457,"iber":5458,"ĠRich":5459,"Finally":5460,"Ġwind":5461,"num":5462,"Ġability":5463,"Ġoppos":5464,"Ġminimal":5465,"Log":5466,"aker":5467,"Ġfundamental":5468,"algorithm":5469,"poses":5470,"Ġgrant":5471,"ĠJew":5472,"Ġbeginning":5473,"Ġtrade":5474,"Ġideal":5475,"Ġlemma":5476,"Ġcru":5477,"Ġhot":5478,"TS":5479,"ih":5480,"Ġ(!":5481,"Ġ...":5482,"Ġpen":5483,"rong":5484,"Ġdifferences":5485,"Ġcontinued":5486,"outher":5487,"Ġconvex":5488,"Ġcle":5489,"enge":5490,"henomen":5491,"pir":5492,"Ġhours":5493,"Ġaxis":5494,"sur":5495,"nel":5496,"option":5497,"Ġpick":5498,",\\,\\":5499,"Ġconsidering":5500,"hing":5501,"hemat":5502,"orthern":5503,"fit":5504,"ilarly":5505,"ĠCompany":5506,"ike":5507,"Ġfair":5508,"rump":5509,"orage":5510,"Ġresol":5511,"ĠMat":5512,"Ġarchitecture":5513,"win":5514,"Ġstatus":5515,"You":5516,"ĠMr":5517,"Ġharm":5518,"ĠPress":5519,"Ġbooks":5520,"]$.":5521,"Ġreli":5522,"Ġutil":5523,"ĠDis":5524,"ĠCup":5525,"Ġtheoretical":5526,"dev":5527,"Ġdenoted":5528,"GB":5529,"Ġamplitude":5530,"1980":5531,"Ġlum":5532,"Ġmachine":5533,"ĠTV":5534,"finition":5535,"Ġorth":5536,"Ġ()":5537,"Ġreduction":5538,"Ġinde":5539,"Ed":5540,"ospital":5541,"Ġindicates":5542,"Ġdecomposition":5543,"Ġexpressed":5544,"Cons":5545,"^*$":5546,"super":5547,"aching":5548,"faces":5549,"rought":5550,"Ġbranch":5551,"DA":5552,"ĠAlso":5553,"Ġrecomm":5554,"Ġestimation":5555,"Ġappoint":5556,"Ġscience":5557,"Ġexcit":5558,"ĠAlthough":5559,"Ġstated":5560,"ĠRuss":5561,"]}":5562,"istor":5563,",$":5564,"Ġ{$":5565,"Ġpartition":5566,"ĠGet":5567,"inese":5568,"car":5569,"Ġnoted":5570,"Ġschools":5571,"\\}$.":5572,"Ġmedical":5573,"real":5574,"parent":5575,"ferent":5576,"outhern":5577,"Ġhttp":5578,"stra":5579,"Ġkm":5580,"Ġslightly":5581,"mail":5582,"Ġexponential":5583,"cr":5584,"Ġfire":5585,"Ġcycle":5586,"&=&":5587,"Element":5588,"IL":5589,"results":5590,"ĠAccording":5591,"Ġimplementation":5592,"otted":5593,"ÑĢ":5594,"Hand":5595,"agement":5596,"Ġcapital":5597,"dl":5598,"Ġboard":5599,"Ġgap":5600,"child":5601,"ĠBra":5602,"Ġprograms":5603,"cf":5604,"Ġdam":5605,"EM":5606,"While":5607,"ĠDemoc":5608,"ĠFurthermore":5609,"Ġflat":5610,"build":5611,"ĠLie":5612,"=\"../../../../":5613,"vee":5614,"Ġproport":5615,"Ġstudent":5616,"Ġproceed":5617,"ĠFil":5618,":=":5619,"Ġ;":5620,"ras":5621,"create":5622,"Ġrobust":5623,"Ġclusters":5624,"Ġinj":5625,"Ġlooking":5626,"Ġbrief":5627,"Ġactivity":5628,"PP":5629,"oting":5630,"Ġachieved":5631,"Ġconver":5632,"ÃŃ":5633,"Ġperfect":5634,"Ent":5635,"Ġplatform":5636,"|}{":5637,"Ġcivil":5638,"irit":5639,"$:":5640,"Ġfa":5641,"Ġgave":5642,"itivity":5643,"annels":5644,"Ġgreen":5645,"Ġscenario":5646,"weight":5647,"hal":5648,"Ġscaling":5649,"sembly":5650,"Ġdirected":5651,"ountain":5652,"ĠBen":5653,"oke":5654,"Ġsaf":5655,"ĠOf":5656,"Comm":5657,"Ġreveal":5658,"Ġsatisfying":5659,"static":5660,"Ġcopy":5661,"Ġdise":5662,"onical":5663,"Ġstaff":5664,"Ġcalculations":5665,"Ġassign":5666,"ander":5667,"Ġexternal":5668,"Ġentropy":5669,"}[\\":5670,"Ġthermal":5671,"pat":5672,"Ġimmediately":5673,"brace":5674,"ĠMart":5675,"Ġpartial":5676,"ĠEach":5677,"Ġrock":5678,"1992":5679,"tage":5680,"Ġassess":5681,"Per":5682,"Ġtor":5683,"Ġ\\]":5684,"rect":5685,"Ġfinally":5686,"EC":5687,"Spec":5688,"grad":5689,"elli":5690,"Ġneural":5691,"Ġdiscrete":5692,"font":5693,"Ġdivid":5694,"Ġprogress":5695,"tfrac":5696,"Ġruns":5697,"ometric":5698,"Ġcombined":5699,"Part":5700,"DB":5701,"]$,":5702,"Ġefficiency":5703,"Ġevaluation":5704,"Ġweights":5705,"Ġ});":5706,"Ġremain":5707,"Ġetc":5708,"Ġrotation":5709,"ayout":5710,"}}_{\\":5711,"ribution":5712,"bmatrix":5713,"Ġsaw":5714,"Ġener":5715,"ĠDire":5716,"ado":5717,"Ġextrem":5718,"PI":5719,"Ġcit":5720,"paragraph":5721,"Desc":5722,"herent":5723,"))\\":5724,"context":5725,"Ġplaying":5726,"assert":5727,"ĉĉĊ":5728,"Ġnucle":5729,"hol":5730,"ĠWhite":5731,".[":5732,"apache":5733,"Ġreflect":5734,"squ":5735,"1993":5736,"ĠĠĠĠĠĠĠĠĠĠĠĠĠĠĠĠĠ":5737,"Ġobvious":5738,"Ġangular":5739,"gin":5740,"Ġinfinite":5741,">&":5742,"Ġsector":5743,"va":5744,"Section":5745,"ĠTex":5746,"Ġactual":5747,"pare":5748,"adian":5749,"Ġtro":5750,"Ġscales":5751,"Ġter":5752,"bigl":5753,"System":5754,"Ġsil":5755,"Ġcoefficient":5756,"Ġwife":5757,"Ġtypical":5758,"bas":5759,"Ġmor":5760,"Ġcalculation":5761,"][]{":5762,"ĠArmy":5763,"atically":5764,"kin":5765,"mathop":5766,"Ġvac":5767,"diag":5768,"Ġ/*":5769,"$_{":5770,"Ġsolve":5771,"Ġodd":5772,"ifferent":5773,"Ġchanged":5774,"Ġcharacters":5775,"Ġmes":5776,"ĠLeg":5777,"Ġinstall":5778,"Ġchurch":5779,"obile":5780,"Ġ$.":5781,"ald":5782,"info":5783,"inu":5784,"Ġfriend":5785,"cknowled":5786,"ĠCap":5787,"ĠSur":5788,"Ġlives":5789,"Pol":5790,"ria":5791,"Ġprofessional":5792,"...,":5793,"ĠFl":5794,"Ġtypically":5795,"Ġmovie":5796,"ector":5797,"Ġloop":5798,"Ġsummar":5799,"kl":5800,"tx":5801,"Item":5802,"\\;":5803,"ona":5804,"ĠCommission":5805,"Ġcells":5806,"Ġdro":5807,"Ġphenomen":5808,"otal":5809,"bigr":5810,"Ġfunctional":5811,"ĠAssum":5812,"Ġreplace":5813,"ĠDan":5814,"ĠGermany":5815,"bits":5816,"yr":5817,"Ġcommunication":5818,"stract":5819,"Using":5820,"}})":5821,"sey":5822,"Ġcapacity":5823,"ech":5824,"ĠGal":5825,"ĠLou":5826,"ifies":5827,"Line":5828,"jo":5829,"Ġsemi":5830,"ston":5831,"Ġdimensions":5832,"fined":5833,"Ġmoving":5834,"Message":5835,"iding":5836,"Ġmassive":5837,"ĠQue":5838,"tes":5839,"})}":5840,"({":5841,"Ġnil":5842,"board":5843,"Ġcompleted":5844,"Ġpositions":5845,"ĠSee":5846,"Ġsplit":5847,"Ġasked":5848,"Ġcontained":5849,"Ab":5850,"mas":5851,"vector":5852,"Ġbad":5853,"ether":5854,"Ġprobably":5855,"aa":5856,"SD":5857,"Ġer":5858,"Ġfluct":5859,"forward":5860,"$&":5861,"ĠDay":5862,"ĠTechn":5863,"Ġsoftware":5864,"Ġrace":5865,"Ġisomorphism":5866,"ĠDuring":5867,"400":5868,"Ġexperi":5869,"Ġprint":5870,"km":5871,"FA":5872,"Ġdeb":5873,"arr":5874,"cat":5875,"ducation":5876,"Ġmiddle":5877,"ĠSte":5878,"post":5879,"Ġago":5880,"1000":5881,"Ġ\\(\\":5882,"Ġbright":5883,"etal":5884,"Ġthreat":5885,"Ġcandidate":5886,"emptyset":5887,"Ġspread":5888,"Ġsoon":5889,"related":5890,"Ġrecorded":5891,"Ġcaused":5892,"ĠWil":5893,"ontal":5894,"Ġindicate":5895,"Ġrepresentations":5896,"Ġjoined":5897,"Method":5898,"ĠMary":5899,"ita":5900,"ĠMex":5901,"ĠHig":5902,"joint":5903,"cis":5904,"fess":5905,"gr":5906,"define":5907,"Ġscreen":5908,"ano":5909,"Ġsampling":5910,"}}.":5911,"Ġtraditional":5912,"called":5913,"Ġmaxim":5914,"while":5915,"contain":5916,"strong":5917,"gies":5918,"Ġfreedom":5919,"Ġnuclear":5920,"ros":5921,"rial":5922,"Ġindividuals":5923,"ĠSociety":5924,"isher":5925,"Ġoption":5926,"ĠSum":5927,"ĠJack":5928,"Ġgoes":5929,"Ġworth":5930,"Ã¼":5931,"Ġ__":5932,"Ġexpert":5933,"Ġmultiplic":5934,"ĠChristian":5935,"Ġ\\!":5936,"bp":5937,"Ġsections":5938,"ĠCommun":5939,"Ġheavy":5940,"Ġheart":5941,"otion":5942,"arter":5943,"Ġprinciple":5944,"Ġmut":5945,"Ġpreserv":5946,"Ġhous":5947,"SF":5948,"Ġmajority":5949,"=.":5950,"}\\,\\":5951,"---":5952,"ĠJer":5953,"ĠEm":5954,"such":5955,"Ġsort":5956,"ĠFoundation":5957,"Ġlimits":5958,"Ġproviding":5959,"break":5960,"Ġquery":5961,"Ġtesting":5962,"false":5963,"Ġjava":5964,"ensus":5965,"ying":5966,"Ġwanted":5967,"Ġimplic":5968,"Cor":5969,"ĠUsing":5970,"Ġprevent":5971,"Ġreplaced":5972,"Pre":5973,"Ġseven":5974,"HT":5975,"only":5976,"ĠAfrican":5977,"reek":5978,"forms":5979,"Ġnom":5980,"struct":5981,"pected":5982,"ĠPublic":5983,"Ġtun":5984,"Ġrecall":5985,"ithub":5986,"Ġcollabor":5987,"greg":5988,"Count":5989,"Ġresource":5990,"Ġseparate":5991,"////////":5992,"Ġleave":5993,"multirow":5994,"Ġamb":5995,"oken":5996,"ĠSuper":5997,"ĠAppendix":5998,"Ġhope":5999,"Ġcele":6000,"vect":6001,"ĠOlymp":6002,"mi":6003,"Ġrise":6004,"urrent":6005,"Ġmale":6006,"vature":6007,"}}^{\\":6008,"sign":6009,"Ġhole":6010,"after":6011,"Ġobjective":6012,"Ġgeometry":6013,"Ġcalculate":6014,"Ġevaluate":6015,"clusions":6016,"inations":6017,"Ġjournal":6018,"Ġmovement":6019,"figures":6020,"ĠTrump":6021,"rupt":6022,"Ñģ":6023,"SR":6024,"Ġimag":6025,"inding":6026,"ski":6027,"ĠData":6028,"Ġsufficiently":6029,"erc":6030,"avel":6031,"edia":6032,"Ġequilibrium":6033,"dat":6034,"Ġanim":6035,"plan":6036,"Right":6037,"aughter":6038,"Ġbin":6039,"ĠGra":6040,"Ġshowing":6041,"inner":6042,"Ġcomment":6043,"Ġoffer":6044,"Ġcast":6045,")})":6046,"chang":6047,"columnwidth":6048,"Ġreached":6049,"Ġprojection":6050,"step":6051,"ye":6052,"istan":6053,"Ġsynt":6054,"Ġbrother":6055,"ĠFlor":6056,"Ġitem":6057,"Ġcoordinate":6058,"Ġphysics":6059,"ĠSing":6060,"Ġhydro":6061,"ĠSecond":6062,"Box":6063,"Ġstay":6064,"CM":6065,"css":6066,"Ġdemand":6067,"cel":6068,"ĠUnder":6069,"ialog":6070,"Proof":6071,"}_{-":6072,"Ġapplying":6073,"Ġacceler":6074,"ĠBook":6075,"anned":6076,"ĠZe":6077,"ĠCOVID":6078,"Ġonto":6079,"Ġspecified":6080,"Ġactivities":6081,"stein":6082,"iverse":6083,"Ġneutr":6084,"Ġsigned":6085,"Ġsurvey":6086,"ga":6087,"Ġdepending":6088,"FL":6089,"ĠTexas":6090,"gn":6091,"incipal":6092,"Ġlisted":6093,"Ġion":6094,"=\"../":6095,"Ġhit":6096,"Ġalternative":6097,"SL":6098,"she":6099,"package":6100,"Ġfine":6101,"Ġvillage":6102,"Ġfederal":6103,"Ġplaces":6104,"Che":6105,"vart":6106,"Ġeventually":6107,"lap":6108,"perties":6109,"Ġdistingu":6110,"ĠAcadem":6111,"Ġign":6112,"Ext":6113,"Ġstability":6114,"Ġroom":6115,",{\\":6116,"Ġbrought":6117,"Ġpriv":6118,"Ġunknown":6119,"ributes":6120,"Sch":6121,"phant":6122,"ĠGovernment":6123,"ĠOut":6124,"1991":6125,"Ġminor":6126,"burg":6127,"ĠRoman":6128,"+(":6129,"|}":6130,"heta":6131,"Ġnation":6132,"tikzpicture":6133,"ĠMinister":6134,"Ġgetting":6135,"igation":6136,"ĠRobert":6137,"lient":6138,"ĠMichael":6139,"ĠInst":6140,"ĠSam":6141,"pair":6142,"ometry":6143,"Read":6144,"PU":6145,"ochastic":6146,"Ġvs":6147,"Ġculture":6148,"unk":6149,"Ġoccurs":6150,"ĠRoyal":6151,"ĠMo":6152,"Ġembedding":6153,"1970":6154,"Ġrapid":6155,"Ġdevice":6156,"ĠChinese":6157,"lies":6158,"ĠYear":6159,"Ġdegrees":6160,"Ġassumptions":6161,"Ġmotiv":6162,"gan":6163,"ĠKe":6164,"Ġinverse":6165,"ologies":6166,"Ġstatistical":6167,"Ġteams":6168,"Ġnamely":6169,"ĠSM":6170,"Ġconv":6171,"Ġindeed":6172,"]{\\":6173,"Ġappeared":6174,"java":6175,"two":6176,"ĠProgram":6177,"Ġcarry":6178,"asc":6179,"ĠBoard":6180,"Ġtour":6181,")}_":6182,"ĉĉĉĉĉĉ":6183,"search":6184,"host":6185,"Ġcarried":6186,"Ġimportance":6187,"open":6188,"Ġconsequence":6189,"Ġinterview":6190,"db":6191,"Ġirre":6192,"ĠAlex":6193,"include":6194,"Ġcamp":6195,"Ġwoman":6196,"Ġpredicted":6197,"inate":6198,"ĠÃ":6199,"Ġtechnique":6200,"Ġmapping":6201,"elled":6202,"conf":6203,";&":6204,"Ġpseud":6205,"bor":6206,"Ġexchange":6207,"Ġsometimes":6208,"^{*":6209,"Ġanswer":6210,"Ð¾Ð":6211,"pass":6212,"coming":6213,"ULL":6214,"tiny":6215,"Ġunderlying":6216,"Ġvo":6217,"CL":6218,"That":6219,"Ġinterested":6220,"Ġorganization":6221,"ENT":6222,"haps":6223,"formal":6224,"Ġvariation":6225,"Ġgiving":6226,"des":6227,"NA":6228,"mercial":6229,"rank":6230,"isely":6231,"ena":6232,"Ġbias":6233,"ĠMusic":6234,"Ġluminos":6235,"ersion":6236,"Ġtrying":6237,"Ġnothing":6238,"Ġ$,":6239,"Ġsubt":6240,"Ġspl":6241,"lete":6242,"Ġlocally":6243,"Ġnames":6244,"ĠSeries":6245,"issions":6246,"Ġstruct":6247,"Ġwhereas":6248,"plot":6249,"Ġgravit":6250,"Ġnotice":6251,"Ġinterface":6252,"Ġsociety":6253,"=\"#":6254,"})=":6255,"ĠGold":6256,"df":6257,"defined":6258,"Lemma":6259,"Ġmarried":6260,"Ġmissing":6261,"ĠLag":6262,"ĠSec":6263,"TH":6264,"PA":6265,"po":6266,"ND":6267,"Ġpassed":6268,"rey":6269,"Ġbank":6270,"Ġchannels":6271,"Ġcomputational":6272,"Ġdetected":6273,"ĠHistory":6274,"Ġstop":6275,"EL":6276,"Ġut":6277,"ĠIndeed":6278,"github":6279,"dec":6280,"Ġunion":6281,"Ġfinding":6282,"slash":6283,"Ġgir":6284,"iota":6285,"Ġexc":6286,"algebra":6287,"ynamic":6288,"Dis":6289,"sche":6290,"Ġexplained":6291,"RA":6292,"Ġvertical":6293,"\\}\\":6294,"\\|\\":6295,"Ġarguments":6296,"Ġpropose":6297,"Ġconfir":6298,"ĠService":6299,"dy":6300,"ancy":6301,"Ġdeaths":6302,"null":6303,"Ġshock":6304,"Ġprojects":6305,"&=\\":6306,"dr":6307,"law":6308,"Ġmeeting":6309,"Ap":6310,"make":6311,"\\}$,":6312,"DM":6313,"mathit":6314,"<!--":6315,"Call":6316,"Ġ^":6317,"unct":6318,"ĠMus":6319,"Ġ};":6320,"User":6321,"[-":6322,"ename":6323,"Ġreading":6324,"Ġworkers":6325,"Ġintegration":6326,"longrightarrow":6327,"Ġdesired":6328,"OC":6329,"Hence":6330,"icated":6331,"}$}":6332,"Ġentry":6333,"ias":6334,"Ġpredictions":6335,"za":6336,"Ass":6337,"velopment":6338,"Ġsongs":6339,"doc":6340,"Ġcharacteristic":6341,"poss":6342,"stable":6343,"Ġbillion":6344,"ĠLand":6345,"150":6346,"Ġdecided":6347,"integ":6348,"oration":6349,"edy":6350,"ĠDivision":6351,"del":6352,"ĠModel":6353,"google":6354,"Ġcompl":6355,"oded":6356,"ĠCommittee":6357,"Rel":6358,"}}}\\":6359,"Ġdiagonal":6360,"subsec":6361,"iant":6362,"Ġhighlight":6363,"Ġdu":6364,"fold":6365,"Ġopened":6366,"estival":6367,"eks":6368,"])":6369,"cretary":6370,"Ġshared":6371,"Ġcommunities":6372,"Ġremark":6373,"Ġplanet":6374,"vari":6375,"lections":6376,"number":6377,"Ġconstants":6378,"uster":6379,"Ġmaximal":6380,"venue":6381,"ĠPre":6382,"ĠPlan":6383,"maz":6384,"Sec":6385,"Ġ===":6386,"elihood":6387,"ĠHen":6388,"Ġcomputer":6389,"formed":6390,"ĠThomas":6391,"ĠRel":6392,"ĠRad":6393,"Ġpoor":6394,"gest":6395,"Ġpatients":6396,"vartheta":6397,"road":6398,"Ġsurround":6399,"rich":6400,"Ġcool":6401,"liament":6402,"ĠBill":6403,"Ġcop":6404,"sat":6405,":=\\":6406,"Ġplaced":6407,"Ġcontrad":6408,"Ġcomputing":6409,"orial":6410,"Ġtrust":6411,"pton":6412,"atalog":6413,"xx":6414,"ĠCongress":6415,"Group":6416,"ĠGreat":6417,"anger":6418,"Ġteacher":6419,"Ġincorpor":6420,"icense":6421,"rane":6422,"owers":6423,"ira":6424,"oura":6425,"Ġdust":6426,"Ġreferred":6427,"1989":6428,"unit":6429,"airs":6430,"awa":6431,"aven":6432,"SA":6433,"Ġhum":6434,"pared":6435,"gebr":6436,"Ġprotect":6437,"Ġnonlinear":6438,"Ġsen":6439,"ĠMuseum":6440,"textcolor":6441,"Ġvariance":6442,"Ġcard":6443,"Ġextends":6444,"tw":6445,"Ġresponsible":6446,"Ref":6447,"Ġbirth":6448,"}}=":6449,"namespace":6450,"float":6451,"ĠSal":6452,"Act":6453,"Ġmodified":6454,"udget":6455,"Ġusual":6456,"Ġmorphism":6457,"inger":6458,"iller":6459,"Ġextend":6460,"sets":6461,"py":6462,"FC":6463,"aily":6464,"Ġconj":6465,"People":6466,"Ġprice":6467,"Ġquasi":6468,"OP":6469,"--------------------------------":6470,"ensities":6471,"Manager":6472,"joy":6473,"Ġstatistics":6474,"EX":6475,"phys":6476,"ĠTur":6477,"Result":6478,"Ġconvert":6479,"Ġ^{":6480,"ĠCre":6481,"ĠFlorida":6482,"Ġexplicitly":6483,"Ġheat":6484,"pto":6485,")--(":6486,"ĠCath":6487,"Ut":6488,"Ġ}{":6489,"Ġmus":6490,"Ġefforts":6491,"ĠST":6492,"Ġcoinc":6493,"ĠLat":6494,"ĠSmith":6495,"ourier":6496,";\\;\\":6497,"parison":6498,"Ġcm":6499,"}|\\":6500,"120":6501,"([":6502,"write":6503,"ĠĠĠĠĠĠĠĠĠĠĠĠĠĠĠĠĠĠĠĠĠĠĠĠĠĠĠĠĠĠĠ":6504,"condition":6505,"aur":6506,"ellig":6507,"ĠMac":6508,"aser":6509,"hu":6510,"Ġreceive":6511,"undred":6512,"Ġneighborhood":6513,"ĠCentral":6514,"Ġplays":6515,"\\%$":6516,"lines":6517,"ĠSun":6518,"Ġderive":6519,"Ġderivative":6520,"ĠAustralian":6521,"GN":6522,"Ġrough":6523,"})^":6524,"Ġabsolute":6525,"Ġdispers":6526,"chers":6527,"ading":6528,"History":6529,"Ġparents":6530,"Fl":6531,"Ġcosts":6532,"phas":6533,"Ġtopological":6534,"ĠIsrael":6535,"gebras":6536,"ĠOver":6537,"stitution":6538,"ĠPost":6539,"Ġletter":6540,"ĠNor":6541,"ror":6542,"Ġspent":6543,"Ġtrivial":6544,"Image":6545,"ĠBest":6546,"ĠDel":6547,"bib":6548,"ĠBrown":6549,"Ġforeign":6550,"Given":6551,"Ġadvantage":6552,"ĠMost":6553,"ĠTwo":6554,"Ġasymptotic":6555,"IA":6556,"Ġkilled":6557,"ufact":6558,"HS":6559,"uled":6560,"ifications":6561,"LT":6562,"ĠTw":6563,"Ġsurpr":6564,"Ġexception":6565,"================":6566,"urity":6567,"ategory":6568,"alian":6569,"ĠMer":6570,"Ġprecisely":6571,"Ġdynamic":6572,"ĠĠĠĠĠĠĠĠĊ":6573,"Ġsites":6574,"nn":6575,"roller":6576,"ĠScott":6577,"ĠIR":6578,"bal":6579,"Ġaccurate":6580,"ĠRob":6581,"Ġsatisfied":6582,"structure":6583,"rical":6584,"Ġtruth":6585,";</":6586,"han":6587,"ĠTom":6588,"Ġdelay":6589,"}~":6590,"project":6591,"Ġrang":6592,"ultane":6593,"jpg":6594,"Ġmainly":6595,"mitted":6596,"ĠCE":6597,"Ġinvestigate":6598,"Ġreasons":6599,"Ġleader":6600,"Ġprocessing":6601,"medskip":6602,"Ser":6603,"Ġcurvature":6604,"ĠRussian":6605,"Ġradiation":6606,"scriptstyle":6607,"Ġanything":6608,"Ġtool":6609,"/(":6610,"Ġsequences":6611,"Ġlearned":6612,"Ġmostly":6613,"ERT":6614,"Ġtrend":6615,"Ġpicture":6616,"Ġfriends":6617,"ams":6618,"Ã¶":6619,"isl":6620,"Ġtests":6621,"Ġmatching":6622,"ĠMiss":6623,"ĠIN":6624,"ĠMax":6625,"ĠFore":6626,"func":6627,"trivial":6628,"avelength":6629,"Ġminutes":6630,"Ġradial":6631,"Ġabund":6632,"Ġgeneralized":6633,"ĠBur":6634,"Ġpaint":6635,"Ġmodul":6636,"Fact":6637,"Ret":6638,"Ġclient":6639,"Rem":6640,"Ġpolic":6641,"Ġstress":6642,"ĠEducation":6643,"Ġconven":6644,"ĠSuch":6645,"ĠWestern":6646,"Ġferm":6647,"ections":6648,"Ġremoved":6649,"ĠTime":6650,"orter":6651,"yles":6652,"ĠDen":6653,"Ġgets":6654,"|^{":6655,"ola":6656,"Ġevol":6657,"Ġfavor":6658,"Ġthrow":6659,"rence":6660,"Ġrequirements":6661,"ĠRoad":6662,"target":6663,"She":6664,"Ġsuggests":6665,"ko":6666,"Ġimplemented":6667,"Ġadopted":6668,"event":6669,"Ġconflic":6670,"Ġdashed":6671,"notag":6672,"Ġfourth":6673,"alysis":6674,"Ġgrand":6675,"iem":6676,"Consider":6677,"ĠMem":6678,"Ġpartners":6679,"Ġopportunity":6680,"perim":6681,"sych":6682,"}{*":6683,"second":6684,"ĠĠĠĠĠĠĠĠĠĠĠĠĠĠĠĠĠĠĠĠĠĠĠĠĠĠĠĠĠĠĠĠĠĠĠĠĠĠĠĠĠĠĠĠĠĠĠĠĠĠĠĠĠĠĠĠĠĠĠĠĠĠĠĠ":6685,"Ġintersection":6686,"Cre":6687,"Ġenergies":6688,"uler":6689,"Ġstories":6690,"bed":6691,"Ġpolitic":6692,"^{(\\":6693,"Ġscene":6694,"slant":6695,"1988":6696,"aver":6697,"lication":6698,"lood":6699,"ĠForm":6700,"Ġchemical":6701,"urations":6702,"Ġlabels":6703,"going":6704,"Ġlies":6705,"diff":6706,"pons":6707,"Ġquickly":6708,")^\\":6709,"Query":6710,"Ġeverything":6711,"Ġpurch":6712,"CR":6713,"actic":6714,"rants":6715,"ĠFrancis":6716,"Ġcollege":6717,"pired":6718,"vest":6719,"ĠIsland":6720,"Ġphoton":6721,"Ġvirtual":6722,"ĠOffice":6723,"FI":6724,"ulture":6725,"Suppose":6726,"Ġserious":6727,"gent":6728,"Ġcloud":6729,"Ġagents":6730,"ĠKore":6731,"omy":6732,">(":6733,"ĠInc":6734,"select":6735,"Ġsolar":6736,"pective":6737,"mosp":6738,"Ġsaying":6739,"ĠPet":6740,"Moreover":6741,"dir":6742,"Ġ$\\{\\":6743,"ouble":6744,"Ġadding":6745,"Ġcanonical":6746,"!]":6747,"Ġrail":6748,"white":6749,"Ġvacc":6750,"idel":6751,"itative":6752,"Ġsuitable":6753,"@{":6754,"soft":6755,"models":6756,"ĠCarol":6757,"Ġpiece":6758,"ĠDon":6759,"ao":6760,"Ġimproved":6761,"ĠMass":6762,"Ġmargin":6763,"DR":6764,"Ġweeks":6765,"aus":6766,"Ġacts":6767,"icago":6768,"Tra":6769,"Dep":6770,"DS":6771,"Results":6772,"Ġanc":6773,"iler":6774,"ropic":6775,"Ġblocks":6776,"rl":6777,"Rec":6778,"Ġcomposition":6779,"ĠJose":6780,"Ġbos":6781,"Ġmixed":6782,"Ġdead":6783,"Ġsomeone":6784,"erence":6785,"ibration":6786,"Ġdefe":6787,"Ġapproximate":6788,"Ġacadem":6789,"Eng":6790,"Ġplans":6791,"Ġisol":6792,"Ġdiscrim":6793,"ĠJournal":6794,"hetic":6795,"Ġmanufact":6796,"syn":6797,"Ġplant":6798,"Ġsch":6799,"Ġdepict":6800,"Ġcouple":6801,"images":6802,"Ġintensity":6803,"Property":6804,"Ġthank":6805,"Ġ{};":6806,"Ġnet":6807,"Ġstochastic":6808,"Ġcitiz":6809,"Ġque":6810,"Ġprotected":6811,"Input":6812,"Ġwatch":6813,"ĠDirector":6814,"query":6815,"ĠVirgin":6816,"chmark":6817,"olf":6818,"scriptsize":6819,"Ġremove":6820,"disc":6821,"mediate":6822,"!\\":6823,"Ġmaterials":6824,"Ġlaws":6825,"vs":6826,"Ġrelax":6827,"finished":6828,"Ġpatterns":6829,"west":6830,"Ġnone":6831,"ĠBecause":6832,"ditionally":6833,"ounter":6834,"Response":6835,"ĠMad":6836,"backslash":6837,"ĠOpen":6838,"cale":6839,"phantom":6840,"aud":6841,"ancing":6842,"Ġdespite":6843,"Aut":6844,"cluded":6845,"ptic":6846,"Ġpull":6847,"Ġsn":6848,"ibr":6849,"asket":6850,"Ġregist":6851,"Ġelectro":6852,"Ġequality":6853,"auto":6854,"ĠNetwork":6855,"Mar":6856,"atures":6857,"Ġattract":6858,"Ġdx":6859,"1987":6860,"ĠSl":6861,"house":6862,"Ġequivalence":6863,"Ġprime":6864,"Ġsym":6865,"empor":6866,"urt":6867,"Ġserve":6868,"Ġgrowing":6869,"Ġtend":6870,"Source":6871,"Exp":6872,"ĉĉĉĉĉĉĉĉ":6873,"Ġdaughter":6874,">\\":6875,"How":6876,"plet":6877,"ONT":6878,"Rep":6879,"./":6880,"Ġ({\\":6881,"Ġandroid":6882,"ĠTor":6883,"tan":6884,"Ġjet":6885,"ĠHam":6886,"Ġenjoy":6887,"(-\\":6888,"Ġsimplic":6889,"ĠLy":6890,"ĠAnn":6891,"ĠGiven":6892,"Ġrational":6893,"ĠLouis":6894,"Ġbehaviour":6895,"ĠEarth":6896,"resh":6897,"ilbert":6898,"'m":6899,"Ġfailed":6900,"ĠAre":6901,"high":6902,"MB":6903,"Ġrespond":6904,"ests":6905,"ette":6906,"Ġempty":6907,"Ġnav":6908,"oma":6909,"Can":6910,"rosc":6911,"ĠBoth":6912,"php":6913,"${\\":6914,"}\\|":6915,"Ġrecords":6916,"general":6917,"Ġmanner":6918,"ĠLos":6919,"ĠIts":6920,"1960":6921,"Ġtheories":6922,"standing":6923,"ĠCanadian":6924,"adow":6925,"Ġemphas":6926,"Ġquantities":6927,"atre":6928,"Back":6929,"ogonal":6930,"Ġorders":6931,"erior":6932,"Ġpossibility":6933,"esian":6934,"Ġprison":6935,"fully":6936,"azine":6937,"wp":6938,"Ġsec":6939,"obs":6940,"Ġpaths":6941,"According":6942,"Ġgravity":6943,"illa":6944,"mn":6945,"Ġ\\&":6946,"Ġhypothesis":6947,"Ġsubstant":6948,"Ġdisease":6949,"Override":6950,"PO":6951,"Ġpropos":6952,"Post":6953,"corollary":6954,"Pos":6955,"Ġreturns":6956,"Date":6957,"Ġdynamical":6958,"final":6959,"^*\\":6960,"dem":6961,"Builder":6962,"Ġresear":6963,"Ġluminosity":6964,"Ġast":6965,"Ġiniti":6966,"ĠClub":6967,"ĠProv":6968,"FR":6969,"Ġbands":6970,"claim":6971,"ĠHill":6972,"slam":6973,"igration":6974,"Ġoriginally":6975,"Xi":6976,"ĠJapanese":6977,"nergy":6978,"Client":6979,"web":6980,"Ġbulk":6981,"UE":6982,"Ms":6983,"Ġcategories":6984,"ĠTimes":6985,"DC":6986,"Ġclimate":6987,"Ġdigital":6988,"ĠRussia":6989,"Ġow":6990,"axis":6991,"andemic":6992,"Ġcandidates":6993,"Ġeigenvalues":6994,"chron":6995,"essages":6996,"Ġsal":6997,"ĠAcademy":6998,"Ġgold":6999,"verb":7000,"Ġsafety":7001,"Ġwaves":7002,"TT":7003,"Ġmission":7004,"Ġdescribes":7005,"Ġexplo":7006,"Paramet":7007,"Ġquark":7008,"parameter":7009,"Ġchart":7010,"Ġalone":7011,"Ġbool":7012,"Ġsettings":7013,"Ġcapture":7014,"Ġdimensional":7015,"Ġspeak":7016,"Ġchallenge":7017,"Ġregarding":7018,"AV":7019,"img":7020,"ĠMet":7021,"Ġthous":7022,"Ġdoc":7023,"Ġparties":7024,"pdate":7025,"Ġeq":7026,"Ġordered":7027,"Ġtal":7028,"ĠTown":7029,"equations":7030,"onald":7031,"ĠKingdom":7032,"Ġfarm":7033,"ĠĠĠĠĠĠĠĠĠĠĠĠĊ":7034,"fi":7035,"Ġwest":7036,"1986":7037,"reland":7038,"Ġreports":7039,"Ġclean":7040,")</":7041,"ĠMont":7042,".\\\\":7043,"Ġfemale":7044,"loop":7045,"Ġwait":7046,"Ġsports":7047,"itation":7048,"rish":7049,"^*(":7050,"pload":7051,"plane":7052,"magnetic":7053,"Ġhundred":7054,"Ġmagnet":7055,"etween":7056,"inn":7057,"Ġattacks":7058,"Ġapparent":7059,"Ġtrace":7060,"ĠBre":7061,"Ġtrig":7062,"Car":7063,"Ġstore":7064,"Ġdevices":7065,"ĠMil":7066,"show":7067,"Ġformat":7068,"Ġturned":7069,"Ġassuming":7070,"Ġideas":7071,"close":7072,"Ġdestroy":7073,"HC":7074,"Case":7075,"aland":7076,"Living":7077,"arios":7078,"Ġeth":7079,"Ġexplore":7080,"Ġnecessarily":7081,"Ġarri":7082,"Do":7083,"Ġ->":7084,"Ġcommercial":7085,"iii":7086,"otype":7087,"ĠBank":7088,"Ġsimultane":7089,"Ġwriter":7090,"etries":7091,"Ġartists":7092,"apt":7093,"adding":7094,"edge":7095,"Ġmur":7096,"*}[":7097,"Ġcorpor":7098,"Ġstd":7099,"Ġreprodu":7100,"Ġcomplic":7101,"ierarch":7102,"ĠGrand":7103,"Ġserver":7104,"Ġhidden":7105,"aterial":7106,"eds":7107,"ĠCam":7108,"ĠRichard":7109,"Ġsignals":7110,"cut":7111,"Ġdedu":7112,"description":7113,"iveness":7114,"Ġbuildings":7115,"Ġdiss":7116,"ĠType":7117,"Ġdebut":7118,"vere":7119,"ictor":7120,"usal":7121,"ĠLu":7122,"ĠFrank":7123,"Ġ\\,\\":7124,"Ġtransmission":7125,"Ġitems":7126,"ĠProfess":7127,"Ġdiam":7128,"Label":7129,"Ġpolicies":7130,"Ġdemonstrate":7131,"$^{":7132,"property":7133,"jav":7134,"lock":7135,"ĠWomen":7136,"yes":7137,"Ġmedium":7138,"Ġincome":7139,"\\|_":7140,"jective":7141,"Ġaffected":7142,"Ġtechnical":7143,"negative":7144,"icate":7145,"met":7146,"Ġelim":7147,"Ġswitch":7148,"'ve":7149,"Ġgun":7150,"ban":7151,"hang":7152,"ĠJac":7153,"client":7154,"Ġartist":7155,"Ġexplan":7156,"Ġnotion":7157,"ĠOF":7158,"1984":7159,"Ġmathemat":7160,"Ġenter":7161,"init":7162,"ĠAtt":7163,"ĠID":7164,"paper":7165,"La":7166,"ervices":7167,"Ġsuggested":7168,"Ġelected":7169,"uum":7170,"$.}":7171,"Ġtools":7172,"Max":7173,"Ġarriv":7174,"Ġoffers":7175,"isson":7176,"ĠEven":7177,"ĠStep":7178,"My":7179,"Ġcompat":7180,"Ġepisode":7181,"ulse":7182,"Ġshot":7183,"member":7184,"istent":7185,"brid":7186,"Ġadjust":7187,"Ġcharged":7188,"Block":7189,"mem":7190,"Li":7191,"Last":7192,"clear":7193,"Ġhar":7194,"Ġissu":7195,"kern":7196,"ĠBi":7197,"ĠLife":7198,"Ġconvolution":7199,")}(\\":7200,"Ġfounded":7201,"ĠSocial":7202,"flu":7203,"ĠIII":7204,"RI":7205,"Ġauto":7206,"Ġchallenges":7207,"ala":7208,"ĠOper":7209,"rins":7210,"mt":7211,"opes":7212,"âĢĿ.":7213,"ĠPeter":7214,"Ġcelebr":7215,"ĠTheir":7216,"Ġcritic":7217,"1985":7218,"gather":7219,"large":7220,"cline":7221,"RR":7222,"eness":7223,"ĠCharles":7224,"notation":7225,"ĠUN":7226,"astern":7227,"Ġoccup":7228,"unfinished":7229,"Ġiteration":7230,"ircraft":7231,"Ġdrop":7232,"ĠJan":7233,"Ġgoals":7234,"Ġuniformly":7235,"hfill":7236,"Ġwidely":7237,"Ġwrong":7238,"green":7239,"ĠEv":7240,"lib":7241,"OL":7242,"Min":7243,"prec":7244,"ĠChicago":7245,"Gener":7246,"Ġmetrics":7247,"Ġpain":7248,"MT":7249,"Ġboolean":7250,"ĠAngeles":7251,"Ġatmosp":7252,"Assum":7253,"Base":7254,"Stream":7255,"Ġcorrection":7256,"Ġtail":7257,"Ġinitially":7258,"Ġsizes":7259,"else":7260,"Ġisot":7261,"Ġbundle":7262,"points":7263,"Ġalt":7264,"options":7265,"Ġuncertainties":7266,"bot":7267,"Ġgeneric":7268,"{(\\":7269,"rangian":7270,"Ġsummer":7271,"ĠStar":7272,"Ġtrial":7273,"Ġcompetition":7274,"ĠOffic":7275,"Ġemployed":7276,"Ġtoward":7277,"Ġcycl":7278,"Ġdetector":7279,"ĠRock":7280,"footnotes":7281,"Ġmaster":7282,"Ġvote":7283,"hens":7284,"Other":7285,"circle":7286,"ĠAdd":7287,"Ġfirm":7288,"Ġlab":7289,"finite":7290,"Ġrect":7291,"anish":7292,"rating":7293,"ĠParis":7294,"Ġinteract":7295,"Ġsubgroup":7296,"Ġdense":7297,"ifact":7298,"parallel":7299,"Ġfocused":7300,"semble":7301,"Ġconfidence":7302,"110":7303,"regular":7304,"Ġevaluated":7305,"Ġpowerful":7306,"ĠAlgorithm":7307,"Ġempir":7308,"Ġreligious":7309,"Ġpurposes":7310,"ĠAtl":7311,"footnotesize":7312,"Ġeast":7313,"thlet":7314,"${":7315,"ĠDM":7316,"ĠSuppose":7317,"itled":7318,"Ġsched":7319,"Ġouter":7320,"itness":7321,"apers":7322,"ducible":7323,"oupl":7324,"riage":7325,"RB":7326,"sequently":7327,"NO":7328,"ĠBig":7329,"Ġadvers":7330,"Ġpolarization":7331,"Ġuniversal":7332,"uan":7333,"tty":7334,"Des":7335,"ĠSol":7336,"ĠHistor":7337,"Ġprofiles":7338,"Ġsuppose":7339,"si":7340,"Ġrare":7341,"anguages":7342,"DD":7343,"Ġconducted":7344,"acter":7345,"Ġopin":7346,"Ġallowing":7347,"ĠIll":7348,"sch":7349,"Ġfiles":7350,"Ġcircum":7351,"textsf":7352,"Ġ<<":7353,"Ġprincipal":7354,"\\!\\":7355,"orig":7356,"ĠNULL":7357,"ĠIran":7358,"Char":7359,"$-$":7360,"Ġpark":7361,"ĠPan":7362,"zy":7363,"textup":7364,"Ġquantity":7365,"gment":7366,"ilation":7367,"relation":7368,"Ġmarked":7369,"PL":7370,"jecture":7371,"Ġgeometric":7372,"Ġlocations":7373,"ographic":7374,"ĠArab":7375,"Ġlif":7376,"Ġinvolving":7377,"ĠCatholic":7378,"isot":7379,"ĠHiggs":7380,"ingly":7381,"Ġnormalized":7382,"Action":7383,"Head":7384,"ĠProject":7385,"ounds":7386,"aylor":7387,"Ġbenefit":7388,"Ġanalyz":7389,"dependence":7390,"Ġcentre":7391,"Ġchanging":7392,"Ġaggreg":7393,"Ġentries":7394,"Ġhelped":7395,"background":7396,"enty":7397,"Ġassigned":7398,"hab":7399,"Ġperturbation":7400,"sep":7401,"ĠHel":7402,"cope":7403,"leftarrow":7404,"sky":7405,"inator":7406,"Ġfeedback":7407,"Ġinvestigation":7408,"Ġâ":7409,"ĠAut":7410,"}.}":7411,"rieved":7412,"android":7413,"Ġeconomy":7414,"Ġtranslation":7415,"ĠRo":7416,"Ġrig":7417,"Ġcat":7418,"effect":7419,"Ġinfer":7420,"Ġhandle":7421,"ĠGames":7422,"Ġappointed":7423,"arian":7424,"Ġwavelength":7425,"ĠJud":7426,"Ġbeaut":7427,"stain":7428,"Ġperiodic":7429,"button":7430,"iled":7431,"ato":7432,"ĠZealand":7433,")(\\":7434,"symm":7435,"ĠSund":7436,"'_{":7437,"Ġopposite":7438,"scope":7439,"nections":7440,"mom":7441,"Ġidentical":7442,"Ġstack":7443,"Component":7444,"ĠForce":7445,"Point":7446,"ĠDevelopment":7447,"Ġbg":7448,"Ġorganizations":7449,"Ġbaseline":7450,"ĠOh":7451,"Ġsto":7452,"Ġeveryone":7453,"Ġmeas":7454,"Ġtemperatures":7455,"icine":7456,"Ġquarter":7457,"ĠDu":7458,"Ġnumerous":7459,"indu":7460,"ramework":7461,"last":7462,"Ġcovered":7463,"Ġphil":7464,"Ġcreating":7465,"Ġgravitational":7466,"Ġopening":7467,"iling":7468,"ĠIreland":7469,"Mem":7470,"Ġstock":7471,"Ġmill":7472,"Ġpandemic":7473,"stat":7474,"Ġturns":7475,"Ġfluctuations":7476,"Ġatoms":7477,"Ġwhom":7478,")}.":7479,"Ġspac":7480,"&&\\":7481,"ootball":7482,"continu":7483,"Ġanom":7484,"Ã¤":7485,"ĠArts":7486,"Resource":7487,"Ġadjac":7488,"ĠMexico":7489,"Ġconclusion":7490,"downarrow":7491,"Ġcoach":7492,"Ġcoupled":7493,"Ġdirections":7494,"ĠPenn":7495,"Ġsetup":7496,"Ġdependent":7497,"|$":7498,"Ġnor":7499,"Ga":7500,"Ġacting":7501,"ĠPeople":7502,"Ġlift":7503,"Ġreserv":7504,"Ġclaims":7505,"boldmath":7506,"Di":7507,"Ġappearance":7508,"Ġfailure":7509,"Ġquadratic":7510,"Hom":7511,"ĠLin":7512,"Ġrecover":7513,"ĠHuman":7514,"128":7515,"Ġspirit":7516,"arithm":7517,"ariance":7518,"ĠFourier":7519,"Nav":7520,"Ġstrategies":7521,"Ġcert":7522,"1983":7523,"thick":7524,"Ġbond":7525,"Ġbrand":7526,"Ġturb":7527,"Number":7528,"Ġhistorical":7529,"Ġsomew":7530,"Ġ$^{":7531,"Ġinstr":7532,"utation":7533,"igan":7534,"Ġconfigurations":7535,"IST":7536,"Ġrepresenting":7537,"meta":7538,"Ġdeviation":7539,"Ġsolving":7540,"comput":7541,"Ġscenarios":7542,"ĠObject":7543,"quant":7544,"zil":7545,"Ġdecrease":7546,"Ġessentially":7547,"Ġfluid":7548,"support":7549,"ean":7550,"ĠGeV":7551,"Ġspecifically":7552,"-(":7553,"Although":7554,"ipp":7555,"Cref":7556,"Ġ,\\":7557,"Ġcorrections":7558,"Ġexpressions":7559,"asion":7560,"ĠSta":7561,"tings":7562,"tree":7563,"Ġindicated":7564,"never":7565,"asketball":7566,"uparrow":7567,"}/\\":7568,"Ġresist":7569,"Top":7570,"Ġformulation":7571,"ponents":7572,"Function":7573,"gers":7574,"Ġfaith":7575,"ĠBusiness":7576,"Ġgenerating":7577,"Ġpri":7578,"anda":7579,"RL":7580,"NE":7581,"obj":7582,"Ġresidual":7583,"=\\{":7584,"Cell":7585,"binom":7586,"Ġannual":7587,"Cal":7588,"Ġtriang":7589,"uty":7590,"Ġalle":7591,"$\\,":7592,"loc":7593,"ĠEngine":7594,"ĠMel":7595,"They":7596,"Ġreduces":7597,"ĠNov":7598,"TV":7599,"Ġindices":7600,"Ġagree":7601,"ĠBob":7602,"Ġbudget":7603,"server":7604,"Ġperforming":7605,"Po":7606,"Ġisn":7607,"Ġcoverage":7608,"author":7609,"ding":7610,"ben":7611,"Link":7612,"Ġlie":7613,"Ġcatch":7614,"Ġsides":7615,"clip":7616,"ĠVirginia":7617,"ME":7618,"Ġspeech":7619,"ucl":7620,"yan":7621,"Ġfrag":7622,"ĠIslam":7623,"ql":7624,"risis":7625,"Ġinterpretation":7626,"Ġbenefits":7627,"Ġphases":7628,"ĠSpace":7629,"Ġfelt":7630,"Ġstarts":7631,"kins":7632,"Ġhappen":7633,"Ġmixing":7634,"Ġweb":7635,"1982":7636,"Run":7637,"Ġspan":7638,"Ġinstrument":7639,"dash":7640,"}$\\":7641,"Ġnarrow":7642,"Ġcryst":7643,"osc":7644,"Ġatta":7645,"Ġinnov":7646,"\"]":7647,"Ġconvent":7648,"Ġtemporal":7649,"vin":7650,"Ġplanning":7651,"Left":7652,"ua":7653,"Ġvisible":7654,"Ġhalo":7655,"btn":7656,"ĠReview":7657,"250":7658,"Status":7659,"Ġintegrated":7660,"ĠDec":7661,"varrho":7662,"ĠLake":7663,"eries":7664,"ĠConsider":7665,"enerate":7666,"Ġ\\|\\":7667,"Oper":7668,"Ġaspects":7669,"midrule":7670,"Ġfitting":7671,"Ġraised":7672,"ativ":7673,"Ġvocal":7674,"Ġfinished":7675,"fa":7676,"Ġtraffic":7677,"Ġreader":7678,"Ġaware":7679,"ashion":7680,"]^":7681,"$^":7682,"ĠLong":7683,"ji":7684,"Ġremained":7685,"itors":7686,"ĠItalian":7687,"Ġfrequencies":7688,"Ġmatches":7689,"square":7690,"stackrel":7691,"Ġinsert":7692,"lik":7693,"Ġreconstruction":7694,"header":7695,"Ġinstances":7696,"usband":7697,"Ġdivided":7698,"ribe":7699,"ĠYoung":7700,"Ġrecommend":7701,"ested":7702,"Ġextremely":7703,"room":7704,"Ġple":7705,"Ġsustain":7706,"Ġpeace":7707,"Ġimprovement":7708,"mode":7709,"Ġ((":7710,"spe":7711,"Ġseparation":7712,"ipped":7713,"Ġlowest":7714,"crit":7715,"Ġadministration":7716,"adata":7717,"Ġreasonable":7718,"Ġcollected":7719,"$\\\\":7720,"ture":7721,"Ġvehicle":7722,"ĠEU":7723,"Ġleague":7724,"AE":7725,"Ġconfirmed":7726,"riminal":7727,"~(\\":7728,"Ġjoin":7729,"ĠAmericans":7730,"resp":7731,"Ġtrees":7732,"Ġpractical":7733,"stood":7734,"ĠCorollary":7735,"navbar":7736,"Ġprefer":7737,"ogen":7738,"arity":7739,"Ġoil":7740,"Ġalgebraic":7741,"cycl":7742,"Var":7743,"Ġbgcolor":7744,"ĠTop":7745,"Ġclin":7746,"ogram":7747,"ĠEconom":7748,"aturally":7749,"Ġforced":7750,"frame":7751,"Ġlens":7752,"urns":7753,"Ġguitar":7754,"azz":7755,"Ġtopology":7756,"Ġmodeling":7757,"Ġpaid":7758,"args":7759,"language":7760,"Ġdatabase":7761,"ĠChild":7762,"Ġofficials":7763,"Start":7764,"Ġarc":7765,"Ġsimulated":7766,"BB":7767,"Ġrepeated":7768,"Ġ\"\"\"":7769,"multline":7770,"Ġeffectively":7771,"Ġprotocol":7772,"Ġaccret":7773,"append":7774,"Ġship":7775,"imits":7776,"Mat":7777,"Sum":7778,"elect":7779,"chor":7780,"Ġcomments":7781,"zer":7782,"180":7783,"Ġkept":7784,"Ġ\\[":7785,"Ġ{$\\":7786,"LASS":7787,"ĠHenry":7788,"Ġabsorption":7789,"Ġsubsection":7790,"Ġoperating":7791,"Bo":7792,"hor":7793,"there":7794,"pred":7795,"Ġneutrino":7796,"YPE":7797,"âĢĿ,":7798,"Ġbill":7799,"alty":7800,"Ġhomogeneous":7801,"ymmetric":7802,"1979":7803,"ussion":7804,"element":7805,"wt":7806,"Ġdiscovered":7807,"Ġdrive":7808,"miss":7809,"ceil":7810,"Ġ+=":7811,"Attribute":7812,"Instance":7813,"ĠBas":7814,"ĠPhys":7815,"osoph":7816,"Ġfigures":7817,"unch":7818,"rowser":7819,"Ġscope":7820,"oday":7821,"Ġmoments":7822,"Ġstraightforward":7823,"ĠMany":7824,"formance":7825,"Ġdriving":7826,"ruck":7827,"Ġended":7828,"Ġpuls":7829,"ĠGr":7830,"Ġvictim":7831,"Ġperspective":7832,"hl":7833,"Hel":7834,"xml":7835,"\\},":7836,"Ġdecades":7837,"ĠChief":7838,"Ġintermediate":7839,"clusive":7840,"TC":7841,"Ġbecoming":7842,"ader":7843,"{|":7844,"Ġpolynomials":7845,"theless":7846,"Ġfunding":7847,"Ġcharacteristics":7848,"ĠMartin":7849,"short":7850,"Ġcities":7851,"chain":7852,"Ġcomposed":7853,"Ġ\\{\\":7854,"Wid":7855,"Ġcontinues":7856,"Ġapart":7857,"ctic":7858,"Ġur":7859,"Ġdensities":7860,"Ġsend":7861,"instein":7862,"Ġfamous":7863,"Ġhorizontal":7864,"lat":7865,"ĠChampionship":7866,"Ġtag":7867,"nol":7868,".$$":7869,"Ġbalance":7870,"herical":7871,"Ġcolumns":7872,"Ġhierarch":7873,"rama":7874,"oved":7875,"Ġmanager":7876,"Ġvariations":7877,"Ġviolence":7878,"full":7879,"appe":7880,"product":7881,"tained":7882,"fered":7883,"apped":7884,"Ġpossibly":7885,"Ġunless":7886,"Ġprecision":7887,"wave":7888,"oton":7889,"125":7890,"Ġmolecular":7891,"Ġdecreases":7892,"Ġeditor":7893,"organ":7894,"Ġcommit":7895,"lie":7896,"Ġofficer":7897,"Ġ~\\":7898,"har":7899,"mathtt":7900,"Ġrecognition":7901,"sym":7902,"Gl":7903,"Off":7904,"ads":7905,"possible":7906,"wa":7907,"ĠWal":7908,"eller":7909,"pop":7910,"Ġanalytic":7911,"ĠRecords":7912,"ĠVer":7913,"Ear":7914,"Am":7915,"dens":7916,"Ġmedian":7917,"arams":7918,"Ġvacuum":7919,"Null":7920,"Ġolder":7921,"Ġmask":7922,"Ġtransitions":7923,"Ġmetal":7924,"Ġenhance":7925,"ĠNone":7926,"Ġcrucial":7927,"John":7928,"Ġcamera":7929,"Ġepoch":7930,"Ġsummary":7931,"Ġsky":7932,"Ġhospital":7933,"comes":7934,"sts":7935,"Ġlived":7936,"request":7937,"emb":7938,"Ġcultural":7939,"Gu":7940,"ĠEnd":7941,"Ġincident":7942,"ĠLord":7943,"ĠSpanish":7944,"Ġorganized":7945,"Us":7946,"Ġchief":7947,"eger":7948,"Ġenvironmental":7949,"Ġarrest":7950,"Ġsubsequent":7951,"Ġcalls":7952,"Ġlock":7953,"Ġlabor":7954,"\\}.":7955,"Ġcreation":7956,"etails":7957,"shire":7958,"})^{":7959,"1981":7960,"Ġperhaps":7961,"Ġexpectation":7962,"ĠIS":7963,"Ġextent":7964,"Ġsensitivity":7965,"[\"":7966,"ĠAcc":7967,"ĠPy":7968,"PD":7969,"Ġverify":7970,"ĠKn":7971,"}[!":7972,"icular":7973,"ĠLee":7974,"Ġconsisting":7975,"ĠSecretary":7976,"lower":7977,"ĠĠčĊ":7978,"ĠSaint":7979,"Ġ---":7980,"ĠField":7981,"ĠIss":7982,"Ġregression":7983,"Ġcitizens":7984,"Ġwasn":7985,"isted":7986,"Non":7987,"Ġinvestment":7988,",...,":7989,"ady":7990,"Ġreferences":7991,"Some":7992,"Ġsensitive":7993,"001":7994,"ĠLog":7995,"III":7996,"Ġstrictly":7997,"propto":7998,"ĉĠ":7999,"liography":8000,"Ġorthogonal":8001,"ĠSup":8002,"sd":8003,"json":8004,"bigcup":8005,")).":8006,"Ġpush":8007,"Ġinference":8008,"Ġdemonstrated":8009,"ĠVictor":8010,"}{*}{":8011,"}},\\":8012,"update":8013,"oses":8014,"ĠGeorg":8015,"Ġreality":8016,"Ġlibrary":8017,"power":8018,"invariant":8019,"ni":8020,"ĠTour":8021,"Ġrepresentative":8022,"Ġcontinuum":8023,"lope":8024,"Ġplas":8025,"Ġdispersion":8026,"Ġschemes":8027,"Ġstations":8028,"Ġpackage":8029,"Ġviews":8030,"Ġhappens":8031,"ĠDet":8032,"Ġcomplement":8033,"&=&\\":8034,"Ġwinning":8035,"umni":8036,"Ġabsence":8037,"Token":8038,"Ġexceed":8039,"ĠSimilarly":8040,"Sche":8041,"Ġleaving":8042,"rinsic":8043,"Proposition":8044,"Ġlatest":8045,"Ġrandomly":8046,"Local":8047,"Equal":8048,"ester":8049,"Ġsubspace":8050,"STATE":8051,"Ġelectrons":8052,"Ġinvolve":8053,"Ġoffset":8054,"BO":8055,"Ġshell":8056,"ĠJoseph":8057,"Ġclosely":8058,"Ġdeploy":8059,"Ġdiffusion":8060,"output":8061,"Ġchance":8062,"Ġpowers":8063,"Ġderivatives":8064,"Ġtrajectory":8065,"Ġsenior":8066,"rastructure":8067,"ĠJo":8068,"El":8069,"____":8070,"Command":8071,"GeV":8072,"iable":8073,"nm":8074,"Ġhuge":8075,"elligence":8076,"Ġdeveloping":8077,"Ġconvers":8078,"rates":8079,"ĠRail":8080,"world":8081,"Ġtreated":8082,"Ġdivision":8083,"AME":8084,"private":8085,"Comp":8086,"textnormal":8087,"etch":8088,"expected":8089,"ĠItaly":8090,"$'":8091,"forming":8092,"Ġdominant":8093,"}{}":8094,"ĠMiddle":8095,")[":8096,"just":8097,"Ġweighted":8098,"Ġsimilarly":8099,"pic":8100,"ja":8101,"tor":8102,"Ġproportional":8103,"Ġconjug":8104,"ella":8105,"yer":8106,"Ġbenchmark":8107,"Ġprecise":8108,"Ġcancer":8109,"ugin":8110,"\\}_{":8111,"LR":8112,"Ġcontribute":8113,"Em":8114,"src":8115,">>":8116,"Ġorbital":8117,"Ġdefines":8118,"inction":8119,"Ġhusband":8120,"1950":8121,"odies":8122,"Ġsexual":8123,"Ġvoice":8124,"ican":8125,"Ġtight":8126,"ĠSU":8127,"urban":8128,"Ġinclusion":8129,"Ġencoura":8130,"estic":8131,"ĠJewish":8132,"hent":8133,"find":8134,"Ġlikelihood":8135,"ĠInformation":8136,"edu":8137,"ĠKar":8138,"ĠWay":8139,"Content":8140,"Ġtang":8141,"Handler":8142,"\").":8143,"ultural":8144,"MD":8145,"ĠJohnson":8146,"Ġemployees":8147,"Ġleaves":8148,"prov":8149,"Ġstatements":8150,"Two":8151,"iemann":8152,"ĠTechnology":8153,"since":8154,"Dist":8155,"service":8156,"MF":8157,"SH":8158,"Ġuniversity":8159,"Ġoffered":8160,"Ġsea":8161,"Ġnine":8162,"ĠPa":8163,"Ġinstant":8164,"asy":8165,"ronic":8166,"ĠAsia":8167,"jected":8168,"Ġrestriction":8169,"Ġdefinitions":8170,"Ġroute":8171,"dule":8172,"Ġneutral":8173,"Ġvarying":8174,"track":8175,"subequations":8176,"Ġchoices":8177,"imately":8178,"Ġreaction":8179,"Mon":8180,"Ġcommission":8181,"ĠBuild":8182,"Ġsafe":8183,"zen":8184,"forcement":8185,"Ġawarded":8186,"Ġalbums":8187,"hot":8188,"Ġscientific":8189,"allow":8190,"ortunately":8191,"apes":8192,"Ġfaster":8193,"push":8194,"Ġcatalog":8195,"Ġhousehold":8196,"Ġcav":8197,"ubble":8198,"ĠFilm":8199,"ĠSD":8200,"Ġfunctor":8201,"REF":8202,"chen":8203,"ĠFund":8204,"Ġinputs":8205,"othing":8206,"Ġactor":8207,"Ġflag":8208,"BH":8209,"exists":8210,"ructions":8211,"imation":8212,"Ġclaimed":8213,"Ġaircraft":8214,"Ġsecondary":8215,"ApJ":8216,"Ġ..":8217,"eless":8218,"Ġrestricted":8219,"ĠGoogle":8220,"Ġleadership":8221,"}^{+":8222,"Ġjobs":8223,"Ġsales":8224,"PH":8225,"Ġheard":8226,"ĠEquation":8227,"1978":8228,"citealt":8229,"ĠMur":8230,"During":8231,"ĠLine":8232,")}$.":8233,"Ġsurfaces":8234,"Ġ_{\\":8235,"Ġbus":8236,"ĠMethod":8237,"hem":8238,"Ġcharges":8239,"Ġstorage":8240,"ĠÂ£":8241,"ansas":8242,"Ġprotection":8243,"ocket":8244,"\\[\\":8245,"Ġorientation":8246,"Ġelectronic":8247,"Output":8248,"Ġfol":8249,"alities":8250,"Ġscores":8251,"look":8252,")>":8253,"ĉĠĠĠ":8254,"uer":8255,"Ġlargely":8256,"GR":8257,"care":8258,"observ":8259,"Ġcorrelations":8260,"Ġirreducible":8261,"mal":8262,"Ġplus":8263,"Ġpixel":8264,"_{+":8265,"Ġsystematic":8266,"ulty":8267,"BM":8268,"ĠHy":8269,"ipeline":8270,"ĠBr":8271,"ien":8272,"ĠLagrangian":8273,"ĠWood":8274,"thon":8275,"Ġlaunched":8276,"ĠSk":8277,"represent":8278,"hard":8279,"Ġelli":8280,"allery":8281,"filter":8282,"variance":8283,"1976":8284,"cean":8285,"IO":8286,"oviet":8287,"CF":8288,"tz":8289,"Ġ(\"":8290,"Page":8291,"ĠCNN":8292,"oston":8293,"BR":8294,"supp":8295,"inating":8296,"ãģ":8297,"Work":8298,"ted":8299,"smallskip":8300,"ipart":8301,"\\|^":8302,"Ġpapers":8303,"ĠEmp":8304,"Vis":8305,"mean":8306,"Ġuniqu":8307,"Ġcommonly":8308,"Ġroll":8309,"ĠUSA":8310,"pres":8311,"Ġbroadcast":8312,"ishop":8313,"duction":8314,"ermi":8315,"gar":8316,"Ġroughly":8317,"Ġunderstood":8318,"ĠJes":8319,"256":8320,"Ġrevealed":8321,"Ġproposition":8322,"wer":8323,"dep":8324,"Ġreward":8325,"odd":8326,"Ġice":8327,"Ġinterior":8328,"ĠAp":8329,"defn":8330,"ĠCarolina":8331,"Bigg":8332,"Ġdistances":8333,"Ġdepartment":8334,"Ġshoot":8335,"Ġdiagn":8336,"ĠSi":8337,"Check":8338,"ĠStat":8339,"Ġsession":8340,"control":8341,"}>":8342,"Ġpool":8343,"status":8344,"ĠSil":8345,"Ġexcess":8346,"ĠTer":8347,"ounce":8348,"Ġcodes":8349,"600":8350,"CK":8351,"domain":8352,"Ġgenerator":8353,"Ġbattle":8354,"^+$":8355,"ributed":8356,"}^+":8357,"True":8358,"Ġcommut":8359,"Ġrich":8360,"phe":8361,"Ġfill":8362,"Ġupdated":8363,"format":8364,"ĠĠĠĠĠĠĠĠĠĠĠĠĠĠĠĠĠĠĠĠ":8365,"ĠPak":8366,"Ġversus":8367,"iano":8368,"1977":8369,"ĠTim":8370,"})=\\":8371,"Ð»":8372,"Ġran":8373,"isters":8374,"utch":8375,"Ġcooper":8376,"Prov":8377,"wan":8378,"ĠStand":8379,"phase":8380,"Ġflex":8381,"Ġintroduction":8382,"inet":8383,"Ġlanguages":8384,"160":8385,"anglement":8386,"erion":8387,"Ġchampions":8388,"Ġscript":8389,"Ġcovering":8390,"Ġaug":8391,"Ġsuccessfully":8392,"Ġsimilarity":8393,"Ġpanels":8394,"Ġdominated":8395,"Ġknew":8396,"allet":8397,"ĠSN":8398,"rative":8399,"lick":8400,"Ġmetall":8401,"ĠCase":8402,"problem":8403,"rip":8404,"raq":8405,"Disc":8406,"SON":8407,"Ġsentence":8408,"Ġjump":8409,"Ġpromin":8410,"*/":8411,"acific":8412,"ĠĠĠĠĠĠĠĠĠĠĠĠĠĠĠĠĠĠĠĠĠ":8413,"Ġdrawn":8414,"Ġdedicated":8415,"Ġbelieved":8416,"ĠGood":8417,"Ġexecution":8418,"gal":8419,"Ġillustrated":8420,"note":8421,"BU":8422,"Ġquot":8423,"Ġcontrols":8424,"Ġinvolves":8425,"ĠComput":8426,"Ġanalyze":8427,"Ġsupers":8428,"Ġextracted":8429,"Ġexcell":8430,"ĠNS":8431,"ĠJustice":8432,"pain":8433,"avor":8434,"newline":8435,"BL":8436,"Ġliqu":8437,"GS":8438,"$}}":8439,"ĠPlay":8440,"aters":8441,"fort":8442,"CN":8443,"Ġtried":8444,"Ġ}}":8445,"Ġinvestigated":8446,"emporary":8447,"Ġprimarily":8448,"Ġrespective":8449,"ĠFestival":8450,"Ġflows":8451,"Art":8452,"apse":8453,"ĠCast":8454,"Ġready":8455,"entry":8456,"aling":8457,"Ġexpos":8458,"Ġextreme":8459,"gency":8460,"Ġcontrolled":8461,"riday":8462,"ĠAnother":8463,"Ġatomic":8464,"syl":8465,"Ġhappened":8466,"Ġcauses":8467,"comb":8468,"Ġissued":8469,"255":8470,"{.":8471,"Ġterrit":8472,"Long":8473,"ĠFace":8474,"Each":8475,"ĠSunday":8476,"ĠAff":8477,"measure":8478,"uon":8479,"tail":8480,"Ġpresents":8481,"Ġtouch":8482,"1975":8483,"ĠJim":8484,"Ġtourn":8485,"Ġcoast":8486,"Ġdrug":8487,"Another":8488,"rg":8489,"ĠServices":8490,"cross":8491,"Ġbr":8492,"bc":8493,"Ġfeatured":8494,"Ġsphere":8495,"ĠSpe":8496,"Ġaccretion":8497,"ĠRam":8498,"ĠHome":8499,"Ġsupply":8500,"Ġexerc":8501,"Ġarticles":8502,"inity":8503,"found":8504,"Ġowners":8505,"density":8506,"aved":8507,"1972":8508,"Ġconcerns":8509,"101":8510,"1974":8511,"Ġempirical":8512,"Ġmonitor":8513,"ĠOld":8514,"Ġvision":8515,"Ġjour":8516,"inem":8517,"Ġgeodes":8518,"ativistic":8519,"Ġinstitutions":8520,"gray":8521,"ĠJul":8522,"Ġestimator":8523,"Ġconnections":8524,"Ġends":8525,"Ġstead":8526,"FONT":8527,"Ġnaturally":8528,"Ġsimplicity":8529,"ĠShow":8530,"Ġtransverse":8531,"RC":8532,"ĠGlobal":8533,"Ġdecisions":8534,"Ġfans":8535,"ĠManagement":8536,"Ġcaref":8537,")}$,":8538,"ĠTHE":8539,"Ġdomains":8540,"iana":8541,"Ġcertainly":8542,"Ġdefend":8543,"VER":8544,"len":8545,"rust":8546,"Default":8547,"ĠDefinition":8548,"Ġfif":8549,"ĠBern":8550,"TO":8551,"ĠCamp":8552,"also":8553,"response":8554,"Ġanyone":8555,"Ġcriteria":8556,"Ġbreaking":8557,"racket":8558,"ynamics":8559,"fol":8560,"connected":8561,"learning":8562,"ĠTre":8563,"Ġalgebras":8564,"Ġchallenging":8565,")_{\\":8566,"gate":8567,"itory":8568,"Ġcharacterized":8569,"Ġhorizon":8570,"Ġ\\}":8571,"Ã¨":8572,"Ġexcited":8573,"ĠColumb":8574,"Ġblood":8575,"mf":8576,"Ġdiagrams":8577,"Ġmusical":8578,"ĠMajor":8579,"Ġversions":8580,"ĠBritain":8581,"Ġconflict":8582,"esides":8583,"Options":8584,"Ġintended":8585,"ABLE":8586,"1973":8587,"ione":8588,"Load":8589,"\"),":8590,"Ġacademic":8591,"Ġuniverse":8592,"ATION":8593,"ĠScot":8594,"EQ":8595,"Ġhands":8596,"arial":8597,"Ġtwice":8598,"ĠTaylor":8599,"layer":8600,"osh":8601,"ĠExp":8602,"Ġdocuments":8603,"Ġrequirement":8604,"Go":8605,"scape":8606,"Ġapplies":8607,"ĠCD":8608,"KE":8609,"Ġfinds":8610,"global":8611,"phy":8612,"ora":8613,"rency":8614,"ĠDE":8615,"ĠDom":8616,"Ġpassing":8617,"ĠCivil":8618,"Ġking":8619,"itudes":8620,"Ġmunic":8621,"reference":8622,"intro":8623,"Ġstronger":8624,"ĠWeb":8625,"functions":8626,"Ġsimultaneously":8627,"Ġofficers":8628,"Ġexecutive":8629,"ĠLove":8630,"Ġmodules":8631,"std":8632,"Ġmeta":8633,"ĠOrder":8634,"Ġcarbon":8635,"ĠFederal":8636,"Ġprem":8637,"itan":8638,"uple":8639,"ĠSom":8640,"Ġstabil":8641,"aton":8642,"Arg":8643,"Ġaccepted":8644,"Ġdaily":8645,"Ġisland":8646,"Ġcold":8647,"Ġprepar":8648,"ĠAGN":8649,"Ġresearchers":8650,"enses":8651,"Tem":8652,"uries":8653,"ĠEnergy":8654,"Ġgeneralization":8655,"ĠRun":8656,"gypt":8657,"Ġconverges":8658,"................":8659,"Ġtested":8660,"LC":8661,"assum":8662,"Ġfacilities":8663,"Ġfont":8664,"erg":8665,"orney":8666,"Ġresidents":8667,"ĠFootball":8668,"Ag":8669,"_{[":8670,"Ġphotons":8671,"ĠSwed":8672,"vania":8673,"Ġinterpol":8674,"Ġsolved":8675,"Ġanalys":8676,"Ġreconstruct":8677,"Ġvort":8678,"|_{\\":8679,"Ġproduces":8680,"Dec":8681,"ĠParliament":8682,"Ġthrows":8683,"Ġsecret":8684,"Ġfre":8685,"ups":8686,"Ġcloser":8687,"Style":8688,"ethe":8689,"arma":8690,"Ġwild":8691,"pack":8692,"Ġeigenvalue":8693,"Furthermore":8694,"different":8695,"Ġtransformations":8696,"ĠJones":8697,"Ġentirely":8698,"Ġsinger":8699,"airman":8700,"Ġpsych":8701,"istence":8702,"Ġglob":8703,"irection":8704,"Ġweap":8705,"Ġconference":8706,"ĠEvery":8707,"igu":8708,"ĠHon":8709,"Ġcir":8710,"Ġopportunities":8711,"ĠSummer":8712,"Ġthin":8713,"Buffer":8714,"iful":8715,"Ġsatell":8716,"Ġdip":8717,"Ġposterior":8718,"Ġequip":8719,"when":8720,"cp":8721,"General":8722,"Ġraise":8723,"ĠProfessor":8724,"Ġpolitics":8725,"adel":8726,"Ġratios":8727,"Ġfits":8728,"ĠCross":8729,"oles":8730,"Ġmeant":8731,"Ġseparated":8732,"Ġconditional":8733,"Ġbrain":8734,"Ġbra":8735,",.":8736,"Factory":8737,"ribed":8738,"Men":8739,"ĠGen":8740,"ĠHor":8741,"Acc":8742,"Ġdiscussions":8743,"Ġaw":8744,"uclide":8745,"Version":8746,")),":8747,"complete":8748,"Ġdiffer":8749,"Ġcrisis":8750,"signed":8751,"modules":8752,"Ġcomparable":8753,"INT":8754,"Ġinterests":8755,"above":8756,"ĠBrazil":8757,"ync":8758,"Ġcrow":8759,"Ġensemble":8760,"Ġphoto":8761,"ĠOlympics":8762,"'.":8763,"Ġwitness":8764,"Child":8765,"pot":8766,"vdots":8767,"cape":8768,";\\;":8769,"uling":8770,"AF":8771,"123":8772,"ĠMuslim":8773,"category":8774,"leqslant":8775,"Ġimply":8776,"MO":8777,"Ġaugment":8778,"bour":8779,"ĠFort":8780,"sole":8781,"DO":8782,"ulating":8783,"ĠVis":8784,"PRO":8785,"ĠExec":8786,"Ġbusinesses":8787,"ints":8788,"arest":8789,"strap":8790,"Ġiterations":8791,"Ġfeas":8792,"uv":8793,"ĠMen":8794,"Ġtopic":8795,"ela":8796,"component":8797,"Ġinduction":8798,"card":8799,"Ġenable":8800,"Ġentity":8801,"root":8802,"ictionary":8803,"spin":8804,"Ġauthority":8805,"Ġpages":8806,"Bundle":8807,"Ġfunds":8808,"states":8809,"uning":8810,"constra":8811,"cerning":8812,"ĠAdminist":8813,"Ġdoub":8814,"ascript":8815,"osis":8816,"Ġentered":8817,"Ġadjacent":8818,"ĠLibrary":8819,"Ġattribute":8820,"bd":8821,"BE":8822,"_{-\\":8823,"Ġsymbols":8824,"Ġnearby":8825,"urance":8826,"ĠInstead":8827,"Ġagreed":8828,"ĠGre":8829,"leep":8830,"ĠAssembly":8831,"Ġdefect":8832,"cknowledg":8833,"Ġlogarithm":8834,"uclidean":8835,"urable":8836,"Ġpil":8837,"iy":8838,"Ġidentification":8839,"vo":8840,"Ġnative":8841,"ootstrap":8842,"Phys":8843,"ĠDemocratic":8844,"|_":8845,"Ġ{}":8846,"scriptscriptstyle":8847,"Ġfear":8848,"Ġconsult":8849,"Ġlaunch":8850,"Ġunitary":8851,"GA":8852,"Ġintervals":8853,"Ġpotentially":8854,"Row":8855,"Ġparticipants":8856,"Ġdivis":8857,"Ġthanks":8858,"Second":8859,"ĠElect":8860,"ĠCentre":8861,"Ġbroken":8862,"Listener":8863,"instance":8864,"Ġconcentration":8865,"ĠSar":8866,"800":8867,"Ġstationary":8868,"Ġisomorphic":8869,"ĠAwards":8870,"match":8871,"Ġprobabilities":8872,"HO":8873,"Ġdriven":8874,"ented":8875,"Ġliber":8876,"Ġcaptured":8877,"Ġboundaries":8878,"iced":8879,"Tree":8880,"Ġowner":8881,"ĠWilson":8882,"mond":8883,"Ġcolour":8884,")&":8885,"GM":8886,"hr":8887,"blem":8888,"Ġcompatible":8889,"1968":8890,"comment":8891,"^*_":8892,"ĠStudies":8893,"iden":8894,"Ġdemoc":8895,"Ġapplicable":8896,"ĠIraq":8897,"Ġrelationships":8898,"Ġcosmological":8899,"VD":8900,"Ġpretty":8901,"bolic":8902,"ĠHot":8903,"arden":8904,"Ġtransaction":8905,"aded":8906,"ortion":8907,"alf":8908,"have":8909,"}~\\":8910,"notin":8911,"}{{\\":8912,"Ġcollision":8913,"layout":8914,"Ġclustering":8915,"Ġtracks":8916,"Ġearth":8917,"ĠNorthern":8918,"earning":8919,"dashed":8920,"ĠSupreme":8921,"PM":8922,"below":8923,"ART":8924,"ĠSecurity":8925,"ĠHilbert":8926,"task":8927,"'$.":8928,"Ġroots":8929,"Ġadvoc":8930,"adium":8931,"Ġcomparing":8932,"Mark":8933,"Dat":8934,"Ġmobile":8935,"Ġcovariance":8936,"Ġheav":8937,"Ġpartner":8938,"ĠNavy":8939,"BI":8940,"ĠWilliams":8941,"ĠRE":8942,"\\,{\\":8943,"Open":8944,"Ġbran":8945,"ogether":8946,"Ġdefining":8947,"Ġengineering":8948,"Ġcontradiction":8949,"Ġdiscret":8950,"endif":8951,"document":8952,"Ġhear":8953,"iro":8954,"arn":8955,"Ġinspired":8956,"riend":8957,"Ġpropagation":8958,"Ġconcerned":8959,"ĠSenate":8960,"menu":8961,"Ġdt":8962,"Ġmarriage":8963,"ifer":8964,"ima":8965,"eld":8966,"Ġstands":8967,"Ġstudio":8968,"plex":8969,"gets":8970,"curs":8971,"ĠMarkov":8972,"Ġcoal":8973,"sylvania":8974,"ĠUV":8975,"Ġbelongs":8976,"=#":8977,"ĠWall":8978,"Ġregional":8979,"Ġdie":8980,"sen":8981,"Ġturbul":8982,"Ġsurrounding":8983,"substack":8984,"Ġwood":8985,"ĠNav":8986,"Ġoutcome":8987,"Ġsave":8988,"sg":8989,"ĠTem":8990,"period":8991,"ailed":8992,"Ġcredit":8993,"]=":8994,"Ġtemplate":8995,"1971":8996,"nolimits":8997,"Ġframes":8998,"Ġradi":8999,"direct":9000,"particle":9001,"ĠPoint":9002,"valued":9003,"1969":9004,"ĠLore":9005,"Ġbriefly":9006,"Ġpseudo":9007,"GE":9008,"Ġfib":9009,"raise":9010,"'ll":9011,"Ġpursu":9012,"ĠCy":9013,"Ġextensive":9014,"Main":9015,"ĠCamb":9016,"Ġlooks":9017,"ibilities":9018,"ĠEqs":9019,"$_{\\":9020,"Definition":9021,"ghan":9022,"Ġpp":9023,"ĠBoston":9024,"Ġimmediate":9025,"ockey":9026,"Ġsomewhat":9027,"ĠCorpor":9028,"Ġcomplicated":9029,"sample":9030,"Ġmanaged":9031,"}}=\\":9032,"sem":9033,"Ġsevere":9034,"reci":9035,"weet":9036,"ĠRights":9037,"iser":9038,"Ġprivacy":9039,"take":9040,"ĠCommunity":9041,"andra":9042,"ĠNext":9043,"cellcolor":9044,"aturday":9045,"ĠWell":9046,"\\,,":9047,"Ġterror":9048,"hs":9049,"Ġmental":9050,"ĠAR":9051,"CON":9052,"Ġserving":9053,"Equals":9054,"Ġconservation":9055,"ati":9056,"ograp":9057,"Ġadvance":9058,"Ġmiles":9059,"nowledge":9060,"Ġcounty":9061,"Rightarrow":9062,"ĠSoviet":9063,"ĠCr":9064,"Ġautomatically":9065,"moment":9066,"Sing":9067,"Ġserves":9068,"even":9069,"ĠFred":9070,"Ġwriters":9071,"Ġmechanisms":9072,"UI":9073,"Ġskills":9074,"Ġsouthern":9075,"Ġprogramming":9076,"Ġopinion":9077,"bug":9078,"ĠValley":9079,"Ġvot":9080,"Ġmac":9081,"Ġwish":9082,"ĠYour":9083,"older":9084,"ĠFurther":9085,"Ġwants":9086,"Recall":9087,"buf":9088,"Before":9089,"Ġspot":9090,"Create":9091,"ĠBase":9092,"Ã³n":9093,"Ġlabeled":9094,"ĠMC":9095,"ĠEX":9096,"abeth":9097,"Ġassociation":9098,"ĠSpecial":9099,"Ġtrajectories":9100,"FO":9101,"Step":9102,"ĠPri":9103,"ĠGener":9104,"Ġattend":9105,"ĠMonte":9106,"Ġcub":9107,"Ġwonder":9108,"typ":9109,"phone":9110,"Ġdecreasing":9111,"stone":9112,"stances":9113,"impl":9114,"bell":9115,"Ġcrime":9116,"ĠFriday":9117,"Ġslope":9118,"aka":9119,"amin":9120,"ĠJun":9121,"life":9122,"ĠTeam":9123,"Window":9124,"Ġattended":9125,"elian":9126,"}\\;":9127,"Ġaudience":9128,"ĠAny":9129,"Ġteaching":9130,"Ġgate":9131,"Ġlic":9132,"Ġfra":9133,"Ġzone":9134,"ĠJeff":9135,"Ġsupporting":9136,"}&\\":9137,"ĠOnly":9138,"Ġbuy":9139,"}})$":9140,"ĠDC":9141,"Under":9142,"conduct":9143,"ptr":9144,"params":9145,"dual":9146,"ĠExt":9147,"FS":9148,"Ġcompre":9149,"efined":9150,"Ġedition":9151,"ĠSpring":9152,"Ġ<!--":9153,"///":9154,"ĠGreek":9155,"onday":9156,"Ġfindings":9157,"Ġcircuit":9158,"oti":9159,"Ġfashion":9160,"aby":9161,"Ġreads":9162,"Ġscored":9163,"ĠOrgan":9164,"rays":9165,"Ġabstract":9166,"erset":9167,"}<":9168,"ova":9169,"Ñĥ":9170,"Ġvalidation":9171,"ĠColor":9172,"Ke":9173,"Ġful":9174,"Ġmessages":9175,"ali":9176,"Ġsuc":9177,"verage":9178,")=(":9179,"Ġremember":9180,"ĠRay":9181,"Ġexplanation":9182,"Ġpulse":9183,"ĠSouthern":9184,"Ġsumm":9185,"ĠLiber":9186,"Ġrefers":9187,"Ġplots":9188,"Ġthousands":9189,"radius":9190,"utor":9191,"Ġfellow":9192,"Ġtoken":9193,"Ġkinetic":9194,"oving":9195,"Dev":9196,"ideos":9197,"Ġcorner":9198,"Ġnorthern":9199,")|\\":9200,"Ġduration":9201,"Ġboost":9202,"groups":9203,"ĠDev":9204,"Ġresonance":9205,"ĠPolicy":9206,"Ġintegers":9207,"ĠMedia":9208,"uzz":9209,"Ġembedded":9210,"ĠĠĠĠĠĠĠĠĠĠĠĠĠĠĠĠĠĠ":9211,"Ġconsec":9212,"common":9213,"Ġsmallest":9214,"Ġlaser":9215,"ĠCall":9216,"Ġdisjoint":9217,"Ġstandards":9218,"Ġpixels":9219,"Sym":9220,"Ġexhibit":9221,"Ġvehicles":9222,"Contain":9223,"Ġera":9224,"&$":9225,"Ġdanger":9226,"Ġhybrid":9227,"icial":9228,"Description":9229,"Ġcovers":9230,"Ġcompens":9231,"Controller":9232,"lets":9233,"classes":9234,"enth":9235,"Ġthinking":9236,"respect":9237,"acle":9238,"Ġcolle":9239,"*\\":9240,"itage":9241,"ĠPoisson":9242,"Ġ$\\|":9243,"Ġconventional":9244,"arser":9245,"ĠEgypt":9246,"|=":9247,"Ġpartially":9248,"ĠAst":9249,"ĠAgain":9250,"imer":9251,"Web":9252,"ĠMichigan":9253,"ĠRiemann":9254,"Ġconformal":9255,"Ðº":9256,"ĠPower":9257,"Tag":9258,"Ġgenus":9259,"Ġdescent":9260,"closed":9261,"Ġinfrastructure":9262,"Ġpet":9263,"ĠMu":9264,"Ġcoherent":9265,"Ġroles":9266,"ĠLo":9267,"')$":9268,"uing":9269,"Ġperiods":9270,"Valid":9271,"Ġsun":9272,"ĠRetrieved":9273,"}.\\":9274,"evertheless":9275,"Ġindependently":9276,"Ġlatent":9277,"ĠIrish":9278,"ĠJacob":9279,"sn":9280,"conv":9281,"container":9282,"Mode":9283,"phia":9284,"Length":9285,"Ġfacts":9286,"Upsilon":9287,"ĠRepublican":9288,"requency":9289,"Ġoccurred":9290,"Ġowned":9291,"Ġsupports":9292,"ador":9293,"1967":9294,"Ġsucceed":9295,"Ġspherical":9296,"Writ":9297,"Ġrobot":9298,"Ġriver":9299,"})_{":9300,"RS":9301,"jk":9302,"Ġtells":9303,"overset":9304,"=-\\":9305,"Anal":9306,"cules":9307,"HD":9308,"Ġplotted":9309,"oir":9310,"ĠSciences":9311,"Med":9312,"hav":9313,"Ġbridge":9314,"ordan":9315,"fortunately":9316,"Stat":9317,"Ġsubsets":9318,"ĠSpain":9319,"itzer":9320,"Ġdraft":9321,"Ġdescribing":9322,"aset":9323,"ĠâĢ¦":9324,"Ġseconds":9325,"person":9326,"Ġcopies":9327,"Ġthread":9328,"inson":9329,"ymmetry":9330,"upi":9331,"ĠFollowing":9332,"single":9333,"Ġsegmentation":9334,"Ġsignature":9335,"javascript":9336,"Ġdram":9337,"Ġcouplings":9338,"Ġdistinguish":9339,"Ġjustice":9340,"Ġgirl":9341,"Ġfiber":9342,"ulas":9343,"Ġmorning":9344,"ĠNon":9345,"pool":9346,"ĠVi":9347,"supervised":9348,"eties":9349,"Ġadvanced":9350,"inois":9351,"Filter":9352,"Ġcolon":9353,"oral":9354,"Ġtradition":9355,"aten":9356,"ĠStan":9357,"ĠPM":9358,"Ġaffine":9359,"rance":9360,"correspond":9361,"Ġpatient":9362,"ĠGame":9363,"ĠFrancisco":9364,"ĠSC":9365,"Update":9366,"ifest":9367,"random":9368,"vironments":9369,"Ġangles":9370,"special":9371,"Ġprofessor":9372,"inistic":9373,"Ġtargets":9374,"Ġmoves":9375,".}\\":9376,"Ġkeeping":9377,"ĠJersey":9378,"ĠOhio":9379,"ffect":9380,"Ġagency":9381,"ĠMedical":9382,"zo":9383,"unte":9384,"including":9385,"Ġpossess":9386,"izable":9387,"cover":9388,"Ġwhenever":9389,"Ġanisot":9390,"ĠBa":9391,"icks":9392,"ĠPennsylvania":9393,"Ġrev":9394,"ĠBell":9395,"'$,":9396,"Select":9397,"umul":9398,"Ġrows":9399,"network":9400,"rfloor":9401,"Ġfermion":9402,"aux":9403,"Ġchiral":9404,"Ġexpanded":9405,"DT":9406,"Ġatom":9407,"lfloor":9408,"Ġstructural":9409,"isen":9410,"ĠAv":9411,"Ġpopulations":9412,"à¤":9413,"Ġdefense":9414,"Ġportion":9415,"'=":9416,"Ġacquired":9417,"afe":9418,"subfloat":9419,"Ġhour":9420,"ĠHa":9421,"owski":9422,"Ġdoll":9423,"Ġencoding":9424,"Ġequipment":9425,"elines":9426,"Ġliquid":9427,"').":9428,"orough":9429,"ĠObama":9430,"orders":9431,"Ġentanglement":9432,"Ġbegins":9433,"Ġseek":9434,"initial":9435,"amber":9436,"'}\\":9437,"isy":9438,"Ġalumni":9439,"rome":9440,"Ġconsideration":9441,"esh":9442,"ĠConference":9443,"Ste":9444,"idents":9445,"Ġbasketball":9446,"ĠBow":9447,"Ġcounterpart":9448,"Ġhab":9449,"approxim":9450,"loss":9451,"Ġrecognized":9452,"Ġrealized":9453,"Ġinvert":9454,"Ġsparse":9455,"NC":9456,"Par":9457,"INE":9458,"ĠAL":9459,"Sw":9460,"Ġneglig":9461,"Ġnormalization":9462,"~(":9463,"exec":9464,"Will":9465,"1940":9466,"amm":9467,"styles":9468,"Ġmedal":9469,"Ġgender":9470,"ĠBol":9471,"Ġcustomers":9472,"Ġauthorities":9473,"Ġ&$":9474,"Ġdiscover":9475,"ĠPolit":9476,"Ġnotes":9477,"kit":9478,"Ġhousing":9479,"ĠEst":9480,"triang":9481,"Ġoutper":9482,"ï¿":9483,")}_{\\":9484,"udd":9485,"Ġviewed":9486,"tically":9487,"rations":9488,"ĠBack":9489,"Rev":9490,"ĠJr":9491,"yd":9492,"Ġadvert":9493,"oidal":9494,"Ġconvenient":9495,"water":9496,"independent":9497,"ruit":9498,"ĠOx":9499,"marg":9500,"Ġelections":9501,"(&":9502,"Ġpreced":9503,"ws":9504,"Ġproducer":9505,"Ġinflation":9506,"_.":9507,"Ġbiggest":9508,"roscopic":9509,"Ġplasma":9510,"grav":9511,"Current":9512,"ĠId":9513,"ĠKen":9514,",~":9515,"Ġrecording":9516,"Return":9517,"manifold":9518,"former":9519,"coordin":9520,"ĠSir":9521,"plicit":9522,"Ġarmy":9523,"Ġdeliver":9524,"ĠWales":9525,"Ġ$-$":9526,"Ġisolated":9527,"ĠCare":9528,"ĠPacific":9529,"Ġtournament":9530,"ĠCho":9531,"Ġdamage":9532,"Ġhelps":9533,"Ġattributes":9534,"sid":9535,"upload":9536,"Ġmountain":9537,"bounded":9538,"Ġrecovery":9539,"Ġstudying":9540,"Ġneither":9541,"kind":9542,"Ġsell":9543,"Assume":9544,"Ġfeet":9545,"ĠĠĠĠĠĠĠĠĠĠĠĠĠĠĠĠĠĠĠĠĠĠĠĠĠĠĠĠĠĠĠĠĠĠĠ":9546,"ĠHaw":9547,"remove":9548,"ĠBattle":9549,"Ġbuffer":9550,"Ġahead":9551,"Task":9552,"Ġindicating":9553,"lm":9554,"Ġstages":9555,"Ġperturbations":9556,"Pop":9557,"Ġamplitudes":9558,"ï¿½":9559,"Ġcommitted":9560,"Prop":9561,"ativity":9562,"Ġcircular":9563,"ĠEnter":9564,"eper":9565,"Ġreducing":9566,":</":9567,"Ġcyl":9568,"Ġcriminal":9569,"Ġabundance":9570,"nic":9571,"ĠDisc":9572,"ĠGeorgia":9573,"eros":9574,"Ġactors":9575,"1964":9576,"Ġdriver":9577,"pmb":9578,")|^":9579,"Ġcomprehens":9580,"Ġsurve":9581,"ĠFacebook":9582,"Ġintrinsic":9583,"ĠInternet":9584,"ĠPop":9585,"Ġguarantee":9586,"parameters":9587,"ĠHREF":9588,"Format":9589,"]^{":9590,"Ġworst":9591,"Ġsplitting":9592,"complex":9593,"onto":9594,".},":9595,"Ġyouth":9596,"Ġ$[\\":9597,"ĠLab":9598,"success":9599,"IB":9600,"iliary":9601,"Ġ{@":9602,"Ġrenormal":9603,"Ġweakly":9604,"eval":9605,"ORT":9606,"ĠKorea":9607,"Ġsubsequently":9608,"Ġfort":9609,"ĠML":9610,"heric":9611,"Ġdescript":9612,"Ġprojective":9613,"Ġdeduce":9614,"ilipp":9615,"Ġfrequently":9616,"rovers":9617,"ĠCR":9618,"epend":9619,"ĠAT":9620,"ĠBlue":9621,"ĠUs":9622,"umes":9623,"Ġurl":9624,"ĠPolice":9625,"channel":9626,"1945":9627,"ĠFamily":9628,"Ġconfirm":9629,"weak":9630,"site":9631,"GP":9632,"Also":9633,"ĠDirac":9634,"Ġcommittee":9635,"Ġmarginal":9636,"Ġfle":9637,"ãĥ":9638,"homology":9639,"Ġoutputs":9640,"sv":9641,"Further":9642,"Up":9643,"iline":9644,"ĠQCD":9645,"Bi":9646,"Ġspacetime":9647,"ĠDue":9648,"should":9649,"triangle":9650,"ĠBC":9651,"Ġgenerators":9652,"mathbbm":9653,"Button":9654,"ĠLocal":9655,"ĠAuthor":9656,"izabeth":9657,"Ġcriterion":9658,"ĠFar":9659,"Ġmuseum":9660,"Ġheter":9661,"how":9662,"ĠFermi":9663,"Ġvictory":9664,"Ġgrew":9665,"Port":9666,"ĠMinistry":9667,"1930":9668,"Ġpointed":9669,"drop":9670,"Ġaccounts":9671,"Pat":9672,"Ġproperly":9673,"ulner":9674,"ĠEmpire":9675,"Ġfacilit":9676,"bool":9677,"ĠConn":9678,"ĠWater":9679,"ĠCode":9680,"herence":9681,"entity":9682,"ĠSand":9683,"etts":9684,"will":9685,"ĠAndrew":9686,"ĠVan":9687,"Ġimplicit":9688,"ĠJoe":9689,"WS":9690,"ucky":9691,"Ġseasons":9692,"Ġindustrial":9693,"Ġharmonic":9694,"Ġwealth":9695,"prim":9696,"Ġneur":9697,"ĠAsian":9698,"Ġorbits":9699,"Ġbary":9700,"aped":9701,"Ġbatch":9702,"ttp":9703,"ĠAssume":9704,"osophy":9705,"attr":9706,"rateg":9707,"Ġfinitely":9708,"ublished":9709,"oned":9710,"XX":9711,"Ġarise":9712,"ĠQueen":9713,"Ġneutron":9714,"ĠCH":9715,"Ġgr":9716,"CV":9717,"Ġimpossible":9718,"Ã§":9719,"Types":9720,"Ġboy":9721,"Ġfloor":9722,"mathds":9723,"GD":9724,"ĠEr":9725,"wall":9726,"Ġalloc":9727,"fr":9728,"Ġstreet":9729,"Ġfilled":9730,"Ġinstitution":9731,"flat":9732,"ĠLatin":9733,"ĠFour":9734,"ĠMot":9735,"anner":9736,"Ġprominent":9737,"QL":9738,"1965":9739,"ĠRadio":9740,"Ġkinem":9741,"ste":9742,"Ġĉ":9743,"imb":9744,"tb":9745,"Ġdiverse":9746,"Ġurban":9747,"Ġeasier":9748,"Ġcondens":9749,"Ġdiversity":9750,"Ġcollapse":9751,"Ġrapidly":9752,"Ġcouncil":9753,"Bigl":9754,"&-":9755,"ulator":9756,"Ġwarm":9757,"ĠJackson":9758,"ĠRepresent":9759,"Ġmagazine":9760,"sync":9761,"Ġdecade":9762,"Ġsport":9763,"burgh":9764,"Dom":9765,"Address":9766,"ĠNGC":9767,"Ġexperiences":9768,"}^{(\\":9769,"ĠGi":9770,"ĠAM":9771,"?âĢĿ":9772,"Ġperforms":9773,"learly":9774,"Ġchoosing":9775,"ĠThrough":9776,"series":9777,"Ġtriangle":9778,"Ġsole":9779,"Ġsemantic":9780,"idential":9781,"chitz":9782,"ERR":9783,"iki":9784,"Ġlinearly":9785,"ĠCLASS":9786,"mazon":9787,"ĠIllinois":9788,"bury":9789,"ĠLast":9790,"=(\\":9791,"specific":9792,"Ġvanishes":9793,"Ġcircles":9794,"Conn":9795,"Following":9796,"ictures":9797,"ĠPakistan":9798,"Äģ":9799,"properties":9800,"Ġcompletion":9801,"May":9802,"Ġearned":9803,"ĠUp":9804,"amed":9805,"Ġsuffices":9806,"Ġactress":9807,"ĠSE":9808,"Ġcolors":9809,"Ġordinary":9810,"%)":9811,"Ġpresc":9812,"IE":9813,"Ġperman":9814,"irror":9815,"Ġsteady":9816,"Ġlosses":9817,"numer":9818,"osa":9819,"Bigr":9820,"Ġseparately":9821,"Ġannot":9822,"ĠLicense":9823,"ĠSaturday":9824,"VM":9825,"limit":9826,"files":9827,"'),":9828,"aneous":9829,"ĠMonday":9830,"opher":9831,"ĠBal":9832,"ampion":9833,"Ġreform":9834,"plain":9835,"ĠUk":9836,"ntz":9837,"Ġoperated":9838,"Ġinsp":9839,"Ev":9840,"parse":9841,"EEE":9842,"Ġholes":9843,"idal":9844,"req":9845,"Ġemail":9846,"ĠOnce":9847,"Ġsituations":9848,"Column":9849,"Ġsharing":9850,"ceived":9851,"Ġ}{\\":9852,"Ġflight":9853,"ifiers":9854,"total":9855,"Ġ$$\\":9856,"Ġadmits":9857,"}))":9858,"Ġcontroller":9859,"111":9860,"ĠCard":9861,"Ġfacility":9862,"ĠCommon":9863,"ez":9864,"Ġanalytical":9865,"ĠIV":9866,"Ġfootballers":9867,"aug":9868,"Ġ}$":9869,"determ":9870,"Similarly":9871,"Ġrevers":9872,"Ġpercentage":9873,"igital":9874,"Ġcone":9875,"Ġcorrespondence":9876,"RT":9877,"Any":9878,"fields":9879,"Layout":9880,"ĠTro":9881,"Home":9882,"ĠHead":9883,"Ġreviews":9884,"inking":9885,"resol":9886,"Vol":9887,"Ġnewly":9888,"=\"../../":9889,"adelphia":9890,"ĠKong":9891,"pref":9892,"Ġanalogous":9893,"Ġpieces":9894,"Ġvirt":9895,"fast":9896,"Ġinterpreted":9897,"elescope":9898,"Ġspeaking":9899,"Ġaveraged":9900,"Ġmathematical":9901,"vard":9902,"Ġrealistic":9903,"Ġarrived":9904,"Ġneighbour":9905,"umps":9906,"upied":9907,"modal":9908,"poly":9909,"Ġsister":9910,"tax":9911,"Ġbatt":9912,"Ġnonzero":9913,"ĠRa":9914,"Ġproposal":9915,"Ġrely":9916,"Ġtrunc":9917,"Ġmonot":9918,"SN":9919,"ĠBan":9920,"ĠBul":9921,"Ġhomot":9922,"rypt":9923,"Ġseeing":9924,"Fix":9925,"Ġultimately":9926,"teen":9927,"Ġancient":9928,"ĠPalest":9929,"Ġtalking":9930,"}_{{\\":9931,"Bas":9932,"ĠCEO":9933,"Ġregistered":9934,"Ġillustrate":9935,"<?":9936,"1966":9937,"kers":9938,"Ġemot":9939,"pin":9940,"oute":9941,"people":9942,"Ġclassifier":9943,"ĠGir":9944,"ĠFree":9945,"Ġmys":9946,"Ġdomestic":9947,"BP":9948,"\\-":9949,"}_{(":9950,"Ġprepared":9951,"enger":9952,"ĠBH":9953,"ĠEuclidean":9954,"achus":9955,"Ġgenerality":9956,"Ġ$<":9957,"Ac":9958,"ĠTri":9959,"ĠEastern":9960,"ccc":9961,"ĠTrust":9962,"Sl":9963,"ĠCarl":9964,"Ġperformances":9965,"Gr":9966,"Ġhomomorphism":9967,"COL":9968,"Ver":9969,"Ġreplacing":9970,"uated":9971,"Ġdog":9972,"clos":9973,"ĠInvest":9974,"omet":9975,"onym":9976,"ĠGrant":9977,"Ġens":9978,"engine":9979,"Ġhop":9980,"Ġwel":9981,"physical":9982,"Ġphone":9983,"Ġchapter":9984,"\\/":9985,"\\|_{\\":9986,"BN":9987,"ĠScotland":9988,"sharp":9989,"@{}":9990,"Ġarrang":9991,"atever":9992,"Ġescape":9993,"Ġpeaks":9994,"Ġindependence":9995,"Ġdream":9996,"eting":9997,"Ġcapable":9998,"estion":9999,"ĠColl":10000,"lay":10001,"ĠKenn":10002,"Ġvariant":10003,"Ġvelocities":10004,"Ġpractices":10005,"Ġshares":10006,"Ġaux":10007,"1920":10008,"ĠNAS":10009,"Ġcars":10010,"Ġspring":10011,"Bbb":10012,"Ġenvironments":10013,"}}}{":10014,"ĠNY":10015,"Ġwire":10016,"Ġsampled":10017,"ĉĉĉĉĉĉĉ":10018,"nings":10019,"////////////////":10020,"UC":10021,").}":10022,"Ġlogic":10023,"Ġconstrained":10024,"})-":10025,"ĠBir":10026,"Ġobj":10027,"proto":10028,"grid":10029,"Ġinterference":10030,"ĠAPI":10031,"require":10032,"ĠMid":10033,"pson":10034,"Ġoverlap":10035,"Gen":10036,"Ġeye":10037,"********************************":10038,"aml":10039,"Ġclosure":10040,"Ġletters":10041,"autoref":10042,"Ġhyperbolic":10043,"ennis":10044,"internal":10045,"Ġblow":10046,"cycle":10047,"}_+":10048,"ednes":10049,")}=":10050,"Ġcommunic":10051,"window":10052,"Ġconcerning":10053,"Ġaid":10054,"hered":10055,"Ġgreatest":10056,"Ġdecays":10057,"Acknowledg":10058,"offset":10059,"named":10060,"Ġappeal":10061,"rine":10062,"ĠDaniel":10063,"icrosoft":10064,"placement":10065,"DI":10066,"ĠLO":10067,"URL":10068,"Ġattempts":10069,"ĠBrook":10070,"agn":10071,"Ġconcert":10072,"mic":10073,"inton":10074,"ĠTele":10075,"Ġrout":10076,"uable":10077,"Ġinduces":10078,"bro":10079,"ĠObserv":10080,"before":10081,"ipation":10082,"Ġpy":10083,"changed":10084,"Ġranges":10085,"ĠAdditionally":10086,"Ġvideos":10087,"Ġkids":10088,"Ġfaces":10089,"CODE":10090,"between":10091,"ursday":10092,"STM":10093,"Ġplanned":10094,"was":10095,"Ġargue":10096,"Ġsoc":10097,"Ġglass":10098,"WE":10099,"ouds":10100,"athan":10101,"Ġcrossing":10102,"ĠGar":10103,"connect":10104,"Ġcollaboration":10105,"Ġworse":10106,"Ġexcellent":10107,"ila":10108,"Ġsmart":10109,"achusetts":10110,"ĠTheatre":10111,"Ġmere":10112,"each":10113,"ĠNa":10114,"Ġtick":10115,"ĠSpecifically":10116,"Ġdiscovery":10117,"deep":10118,"Ġrecurs":10119,"hole":10120,"metric":10121,"Ġrid":10122,"analysis":10123,"ĠKent":10124,"orship":10125,"ĠDespite":10126,"hskip":10127,"Ġforest":10128,"Ġbits":10129,"Ġcooling":10130,"lb":10131,"ographer":10132,"Ġmob":10133,"ĠRight":10134,"MI":10135,"ĠDou":10136,"Ġcounts":10137,"Ġquotient":10138,"Script":10139,"iang":10140,"Ġamounts":10141,"Because":10142,"family":10143,"))$.":10144,"Ġreflection":10145,"tex":10146,"'}$":10147,"Ġexponent":10148,"Ġsharp":10149,"Example":10150,":(":10151,"Ġhonor":10152,"frared":10153,"Ġclients":10154,"iamond":10155,"theory":10156,"HL":10157,"}=(":10158,"}\\}$":10159,"ĠSto":10160,"ĠCur":10161,"Ġarms":10162,"tensor":10163,"_{{":10164,"Ġcere":10165,")!":10166,"Ġbodies":10167,"ĠLight":10168,"Person":10169,"Ġhash":10170,"endar":10171,"dest":10172,"rugg":10173,"ãĤ":10174,"Ġjudge":10175,"\\}}":10176,"enum":10177,"uesday":10178,"lements":10179,"hedral":10180,"ois":10181,"'d":10182,"Ġprinciples":10183,"adi":10184,"Ġsan":10185,"Ġcavity":10186,"vas":10187,"ĠAdv":10188,"equal":10189,"Ġsep":10190,"Ġpublication":10191,"Ġproven":10192,"zh":10193,"Ġrestaur":10194,"Ġfeat":10195,"Ġconjecture":10196,"'',":10197,"Ġaccompl":10198,"enter":10199,"Ġlinked":10200,"ĠConf":10201,"ĠReport":10202,"```":10203,"Ġacknowled":10204,"Ġce":10205,"kip":10206,"iger":10207,"Ġcollisions":10208,"ĠHom":10209,"ricket":10210,"ĠĠĠĠĠĠĊ":10211,"ĠNations":10212,"ĠTwitter":10213,"ĠWhe":10214,"plectic":10215,"Ġprobe":10216,"ĠRemark":10217,"Ġclassified":10218,"solid":10219,"Ġsupposed":10220,"Ġcalling":10221,"Ġfitted":10222,"Ġmurder":10223,"130":10224,"ĠPrime":10225,"Ġscholar":10226,"Ġreceiving":10227,"Ġcancell":10228,"inals":10229,"orrow":10230,"Ġentertain":10231,"Ġplate":10232,"rase":10233,"Ġmoder":10234,"ĠHospital":10235,"Ġsignificance":10236,"inds":10237,"Ġapproved":10238,"uniform":10239,"ĠMain":10240,"ĠSO":10241,"Ġlegisl":10242,"Ġmanip":10243,"fn":10244,"olis":10245,"ĠEnt":10246,"Comparison":10247,"Chang":10248,"ĠSea":10249,"Ġstored":10250,"ĠLike":10251,"aki":10252,"entric":10253,"Opt":10254,"Ġconsecutive":10255,".(\\":10256,"Red":10257,"TYPE":10258,"Ġconsistency":10259,"Ġabuse":10260,"Ġproducing":10261,"Ġupdates":10262,"Ġsynthetic":10263,"Ġclinical":10264,"Ġlooked":10265,"Ġconsequences":10266,"xrightarrow":10267,"ĠIndust":10268,"ĠImage":10269,"Ġphenomenon":10270,"########":10271,"Ġcycles":10272,"Vari":10273,"stud":10274,"present":10275,"transform":10276,"Ġsubstantial":10277,"Ġvice":10278,"Ġordering":10279,"Ġtransferred":10280,"Ġconcepts":10281,"bes":10282,"lers":10283,"Ġcha":10284,"Control":10285,"ĠMaster":10286,"imod":10287,"resize":10288,"ĠJon":10289,"ednesday":10290,"Ġsynchron":10291,"Width":10292,"ĠMount":10293,"Ġexposure":10294,"Early":10295,"Ġdetermines":10296,"vskip":10297,"orient":10298,"ĠWild":10299,"Ġrestrictions":10300,"Ġcorrelated":10301,"Ġtriple":10302,"Ġdwar":10303,"Level":10304,"oust":10305,"islation":10306,"ĠResults":10307,"Process":10308,"Ġanimals":10309,"AND":10310,"ĠThree":10311,"optimal":10312,"analy":10313,"Ġembeddings":10314,"]_{":10315,"ti":10316,"Ġraw":10317,"Ġexperienced":10318,"chy":10319,"Det":10320,"Ġelementary":10321,"Ġdisplayed":10322,"perimental":10323,"Met":10324,"Sm":10325,"lr":10326,"simple":10327,"ĠCoast":10328,"serve":10329,"Ġencoder":10330,"ĠRen":10331,"Ġ[]":10332,"Ġfuel":10333,"Ġintersect":10334,"Ġobst":10335,"ĠUnivers":10336,"Ġmotor":10337,"underset":10338,"Ġunstable":10339,"Parameter":10340,"rea":10341,"Ġmarkets":10342,"Ġpolitician":10343,"Unit":10344,"Ġexamine":10345,"Sign":10346,"Ġincreasingly":10347,"isting":10348,"irds":10349,"Mc":10350,"Ġdepicted":10351,"Entity":10352,"ĠViet":10353,"Ġprocedures":10354,"ruption":10355,"Ġunable":10356,"ĠExample":10357,"vm":10358,"Ġresulted":10359,"augh":10360,"construct":10361,"GG":10362,"ĠÎ":10363,"ĠEdward":10364,"Ġfifth":10365,"ificial":10366,"shape":10367,"Ġsecure":10368,"ĠBroad":10369,"cluding":10370,"Ġasymptot":10371,"itles":10372,"Ġrenew":10373,"Ġargued":10374,"Ġproves":10375,"ĠDar":10376,"dz":10377,"driv":10378,"ito":10379,"ĠCa":10380,"teness":10381,"Ġrefere":10382,"ampling":10383,"Ġprices":10384,"cov":10385,"arters":10386,"rapper":10387,"Ġprojected":10388,"access":10389,"ĠInitial":10390,"ĠSong":10391,"NT":10392,"1963":10393,"styleshe":10394,"ses":10395,"UV":10396,"HM":10397,"lementary":10398,"ĠMach":10399,"gery":10400,"ĠAD":10401,"ĠEngineering":10402,"ĠLittle":10403,"Ġgenerates":10404,"ĠMah":10405,"Ġdispl":10406,"Ġfulfill":10407,"Ġreplic":10408,"Ġtens":10409,"rapy":10410,"Ġcook":10411,"Ġ})":10412,"ĠChris":10413,"Ġappreci":10414,"ĠLabor":10415,"Target":10416,"ĠDesign":10417,"ĠOR":10418,"ĠCart":10419,"Ġsigns":10420,"ĠOxford":10421,"okes":10422,"Ġguess":10423,"ologist":10424,"noise":10425,"ĠJesus":10426,"Ġdialog":10427,"ĉĉĉĊ":10428,"utely":10429,"written":10430,"iner":10431,"Ġimaging":10432,"ĠColumbia":10433,"Ġplease":10434,"\"|":10435,"vable":10436,"Si":10437,"Ġconsumption":10438,"\\,.":10439,"double":10440,"ZE":10441,"Ġenem":10442,"Ġwestern":10443,"opyright":10444,"Gs":10445,"Ġintegrals":10446,"Ġresponsibility":10447,"adv":10448,"ĠEinstein":10449,"ĠEnvironment":10450,"Ġcalibration":10451,"ĠMic":10452,"Ġfinish":10453,"ĠMA":10454,"ĠAP":10455,"Sol":10456,"Ġregarded":10457,"hyper":10458,"through":10459,"Ġsubjects":10460,"Ġ\\#":10461,"Ġexcitation":10462,"Ġgone":10463,"Ġhardware":10464,"ulf":10465,"Ġseat":10466,"ĠRegister":10467,"Ġfan":10468,"Track":10469,"Ġantic":10470,"Ġopposed":10471,"Ġfloat":10472,"matic":10473,"irus":10474,"ĠNight":10475,"Ġmolecules":10476,"onia":10477,"Ġinfinity":10478,"Ġutility":10479,"Ġrating":10480,"eman":10481,"140":10482,"tim":10483,"Ġminister":10484,"Server":10485,"}\\!":10486,"Ġpersons":10487,"Search":10488,"Ġdeformation":10489,"Ġdrama":10490,"Ġguide":10491,"ĠConserv":10492,"ĠMS":10493,"alls":10494,"ĠFC":10495,"Ġdrum":10496,"ĠMassachusetts":10497,"=\"-":10498,"Ġbars":10499,"Ġaccord":10500,"Ġtechnologies":10501,"sa":10502,"factor":10503,"Ġinequalities":10504,"Dav":10505,"Ġanalyzed":10506,"ĠGovernor":10507,"aya":10508,"Ġvulner":10509,"cently":10510,"ori":10511,"ami":10512,"}}}$":10513,"ĠExecutive":10514,"hook":10515,"finement":10516,"Ġsurprising":10517,"Ġrelaxation":10518,"ĠWis":10519,"Ġbeautiful":10520,"Figures":10521,"Ġprofession":10522,"asi":10523,"kov":10524,"ariate":10525,"Ġappearing":10526,"ĠAfghan":10527,"Ġinform":10528,"Ġvocals":10529,"illy":10530,"105":10531,"Ġsoldiers":10532,"Ġaudio":10533,"Ġawards":10534,"ĠKey":10535,"Ġhomes":10536,"good":10537,"++)":10538,"Multi":10539,"ĉčĊ":10540,"ĠElizabeth":10541,"figs":10542,"112":10543,"Ġdy":10544,"Ġassignment":10545,">,":10546,"kg":10547,"Ġatmosphere":10548,"Ġmand":10549,"Ġequals":10550,"Ġtracking":10551,"Ġadapted":10552,"(|":10553,"ĠNC":10554,"ĠMean":10555,"%;":10556,"Ġarrival":10557,"Ġnarr":10558,"Ġreligion":10559,"Ġhouses":10560,"Ġrender":10561,"Ġvon":10562,"ĠĠĠĠĠĠĠĠĠĠĠĠĠĠĠĠĠĠĠĠĠĠ":10563,"hd":10564,"upper":10565,"Pa":10566,"Write":10567,"Ġcombining":10568,"none":10569,"Ġcallback":10570,"Ġ!==":10571,"English":10572,"rob":10573,"Ġnumerically":10574,"Ġcircumstances":10575,"three":10576,"aware":10577,"Ġcentered":10578,"cludes":10579,"ĠHong":10580,"ĠCas":10581,"Ġseed":10582,"^{[":10583,"},{\\":10584,"}}\\\\":10585,"=\"../../../../../":10586,"ĠBang":10587,"Ġpresentation":10588,"Ġhero":10589,"\"))":10590,"Dr":10591,"Ġclassic":10592,"ilinear":10593,"ĠCarlo":10594,"counter":10595,"ĠMountain":10596,"training":10597,"Ġcontrovers":10598,"Ġholding":10599,"equival":10600,"ificate":10601,"vertex":10602,"Ġformalism":10603,"enant":10604,"perturb":10605,"Ġgranted":10606,"auth":10607,"Ġinstability":10608,"chester":10609,"coll":10610,"Ġcampus":10611,"Ġfresh":10612,"Ġaims":10613,"Ġenhanced":10614,"Ġtheme":10615,"Ġneighbors":10616,"')\\":10617,"ĠPen":10618,"ĠSP":10619,"inates":10620,"Many":10621,"Access":10622,"uu":10623,"Book":10624,"Exec":10625,"Ġfeasible":10626,"Ġprompt":10627,"isons":10628,"Ġadversarial":10629,"FM":10630,"separ":10631,"Ġtrigger":10632,"Ġ\\,,":10633,"distribution":10634,"thur":10635,"ĠHand":10636,"ĠIP":10637,"Ġagric":10638,"Rad":10639,"}(-":10640,"iary":10641,"Ġeyes":10642,"ubb":10643,"}$).":10644,"creasing":10645,"Ġxml":10646,"ĠPhiladelphia":10647,"ĠCP":10648,"Ġequipped":10649,"1962":10650,"Ġpromote":10651,"aration":10652,"Ġenables":10653,"given":10654,"larg":10655,"Ġ{{\\":10656,"Order":10657,"Ġestate":10658,"erry":10659,"Most":10660,"ĠWeek":10661,"sex":10662,"Ġburn":10663,"Down":10664,"PY":10665,"Ġcod":10666,"Ġsegments":10667,"region":10668,"bibliography":10669,"ĠHistoric":10670,"Ġgeodesic":10671,"Ġintroducing":10672,"potential":10673,"Ġdoor":10674,"ureau":10675,"Ð¼":10676,"Ġconclusions":10677,")}^":10678,"Ġhumans":10679,"700":10680,"ĠUse":10681,"Ġcorrectly":10682,"Ġdecide":10683,"Ġhelping":10684,"Ġusage":10685,"ĠEvent":10686,"$(\\":10687,"ĠPrem":10688,"duate":10689,"Ġdisappe":10690,"Ġreliable":10691,"Ġformulas":10692,"ĠWrit":10693,"oster":10694,"ugh":10695,"Ġinher":10696,"pset":10697,"Ġpotentials":10698,"Ġmit":10699,"Ġclock":10700,"Op":10701,"Ġattached":10702,"Url":10703,"{[":10704,"asters":10705,"satisf":10706,"istically":10707,"writer":10708,"degree":10709,"device":10710,"ACK":10711,"Ġtroops":10712,"Enc":10713,"scalebox":10714,"Ġepisodes":10715,"igrants":10716,"ĠArray":10717,"UM":10718,"Ġwinner":10719,"focus":10720,"ĠGuard":10721,"ctx":10722,"Ġreaches":10723,"Ġpoll":10724,"ĠInf":10725,"fg":10726,"National":10727,"(_":10728,"reement":10729,"sequence":10730,"Ġcart":10731,"Ġexplos":10732,"Ġtack":10733,"ĠChampionships":10734,"Ġpenalty":10735,"ĠSche":10736,"coin":10737,"isition":10738,"ped":10739,"interface":10740,"redu":10741,"Ġcombinations":10742,"ĠMike":10743,"ĠFact":10744,"iences":10745,"Ġpermutation":10746,"NG":10747,"ĠView":10748,"ching":10749,"connection":10750,"Ġmyself":10751,"ego":10752,"periments":10753,"Dele":10754,"Ġmovies":10755,"Ġment":10756,"Ġplanets":10757,"Ġretain":10758,"LM":10759,"ĠNE":10760,".;":10761,"outs":10762,"Ġmultipl":10763,"toprule":10764,"ĠChristmas":10765,"Ġlimitations":10766,"Ġblog":10767,"eron":10768,"Ġcollective":10769,"ĠAdam":10770,"ĠAbout":10771,"):=\\":10772,"Ġoblig":10773,"Ġintelligence":10774,"Ġexperts":10775,"TA":10776,"Ġconservative":10777,"Ġplants":10778,"ĠCirc":10779,"elly":10780,"Ġnan":10781,"Ġ**":10782,"uri":10783,"ospit":10784,"Ġcenters":10785,"Ġoutcomes":10786,"compact":10787,"ĠConstitution":10788,"}}+":10789,"Cache":10790,"agram":10791,"idae":10792,"Ġconstitution":10793,"utils":10794,"Ġmultip":10795,"Ġeducational":10796,"ĠWho":10797,"Ġalongside":10798,"ĠSports":10799,"Ġalleged":10800,"Provider":10801,"ĠAlexander":10802,"Ġdiameter":10803,"Ġstret":10804,"ipality":10805,"Ġconstitu":10806,"TP":10807,"ĠRh":10808,"ĠCat":10809,"ĠAdministration":10810,"Ġcuts":10811,"-->":10812,"Ġacceleration":10813,"Ġthermod":10814,"Ġnegligible":10815,"types":10816,"Ġregister":10817,"1961":10818,"Ġexpensive":10819,"lywood":10820,"Frame":10821,"ĠSem":10822,"ĠNet":10823,"brane":10824,"conc":10825,"ĠOrig":10826,"Ġathlet":10827,"Ġecho":10828,"orous":10829,"artifact":10830,"Dem":10831,"ĠSqu":10832,"ĠBefore":10833,"Ġchose":10834,"Ġshut":10835,"tn":10836,"ĠTal":10837,"ĠJews":10838,"Ġtends":10839,"sort":10840,"outhe":10841,"Ġdifficulty":10842,"Ġ\\\\[":10843,"}|^":10844,"than":10845,"ĠMember":10846,"Ġdebate":10847,"Ġrein":10848,"Ġelliptic":10849,"Ġsight":10850,"river":10851,"Ġmaybe":10852,"Care":10853,"worth":10854,"ĠLew":10855,"Ġcensus":10856,"Ġanomal":10857,"Ġrevolution":10858,"Ġwalls":10859,"ugby":10860,"eral":10861,"Ġdil":10862,"ĠNewton":10863,"Ġabelian":10864,"ĠRecall":10865,"Ġgirls":10866,"Graph":10867,"essel":10868,"ĠFile":10869,"Ġtopics":10870,"pet":10871,"His":10872,"abet":10873,"Notes":10874,"ressive":10875,"Location":10876,"prototype":10877,"Don":10878,"Ġachieves":10879,"irty":10880,"encing":10881,"imit":10882,"ĠMath":10883,"Del":10884,"ĠPortug":10885,"orbit":10886,"eqq":10887,"Ġvanishing":10888,"Ġmatters":10889,"Ġven":10890,"Ġregularization":10891,"Ġhappy":10892,"Ġ\\}$":10893,"Ġmal":10894,"Ġcomprehensive":10895,"ĠLem":10896,"Ġaccident":10897,"Ġmesh":10898,"SW":10899,"}}^{(":10900,"ĠKim":10901,"htbp":10902,"respectively":10903,"Ġformally":10904,"omatic":10905,"Ġderivation":10906,"^-$":10907,"ĠPhilipp":10908,"trim":10909,"Ġparagraph":10910,"Ñı":10911,"Ġcomedy":10912,"Ġestablishments":10913,"cloud":10914,"consistent":10915,"yo":10916,"Ġmm":10917,"Ġfamili":10918,"Ġphysic":10919,"Ġrequests":10920,"ĠRic":10921,"ĠProvince":10922,"Ġscenes":10923,"Ġexplains":10924,"Ġfighting":10925,"Ġille":10926,"onav":10927,"gls":10928,"Ġweather":10929,"}{$\\":10930,"Ġreaching":10931,"ĠOl":10932,"Ġlegislation":10933,"$&$":10934,"Ġcache":10935,"Ġcosmic":10936,"spaces":10937,"dynamic":10938,"Ġnegoti":10939,"Ġproportion":10940,"Ġeffectiveness":10941,"]{./":10942,"Ġtrib":10943,"Ġexercise":10944,"oupling":10945,"Ġsac":10946,"Ġassessment":10947,"Ġunity":10948,"Ġnearest":10949,"FP":10950,"âĢ¦âĢ¦":10951,"sun":10952,"Based":10953,"Ġarts":10954,"ĠThursday":10955,"ĠAI":10956,"None":10957,"Ġpipeline":10958,"panel":10959,"ello":10960,"urer":10961,"shall":10962,"}}-":10963,"setlength":10964,"Ġpoliticians":10965,"ĠLater":10966,"}}+\\":10967,"ĠAND":10968,"Pan":10969,"ĠWalk":10970,"Ġrural":10971,"ĠPrince":10972,")\\,\\":10973,"Ġdisorder":10974,"ĠCorporation":10975,"ĠLorentz":10976,"orters":10977,"',\\":10978,",(":10979,"Ġoperate":10980,"icted":10981,"Ġhundreds":10982,"Ġthr":10983,"ĠJordan":10984,"Ġdivergence":10985,"shell":10986,"Ġscientists":10987,"Ġretired":10988,"ĠĠĠĠĠĠĠĠĠĠĠĠĠĠĠĠĠĠĠĠĠĠĠĠ":10989,")~\\":10990,"Ġassets":10991,"Ġdoctor":10992,"ĠTuesday":10993,"Ġassistance":10994,"Ġdetermination":10995,"Ġ^{\\":10996,"Ġhistoric":10997,"Ġpun":10998,"holder":10999,"letter":11000,"fixed":11001,"Ġfails":11002,"Ġhearing":11003,"}$;":11004,"ĠBBC":11005,"Ġstrugg":11006,"ĠPDF":11007,"Ġlimiting":11008,"Har":11009,"Av":11010,"Ġyounger":11011,"}]$":11012,"Ġpurely":11013,"ĠNO":11014,"Ġdeclared":11015,"Ġlists":11016,"World":11017,"ĠHop":11018,"ĠReal":11019,"ĠBoy":11020,"rugs":11021,"ĠAmazon":11022,"ĠPoland":11023,"GAN":11024,"Ġspons":11025,"Ġpal":11026,"Ġkinds":11027,"KL":11028,"Ġinsurance":11029,"Ġhydrogen":11030,"pf":11031,"ĠGL":11032,"Ġfaculty":11033,"template":11034,"vv":11035,"ushed":11036,"uris":11037,"Ġjourney":11038,"BF":11039,"})(":11040,"Ġaddressed":11041,"cost":11042,"efficient":11043,"Ġequally":11044,"ĠAnalysis":11045,"utr":11046,"Ġmixture":11047,"Ġpersonnel":11048,"Ġmultiplication":11049,"KS":11050,"Ġships":11051,"âĢĺ":11052,"ĠNOT":11053,"tics":11054,"redit":11055,"Change":11056,"Ġds":11057,"ĠHard":11058,"Ġsensor":11059,"Ġped":11060,"Ġtrip":11061,"Den":11062,"Ð²":11063,"Ġdownload":11064,"oz":11065,"viously":11066,"Ġkill":11067,"Ġinjury":11068,"Ġtransmit":11069,"Ġactivation":11070,"Ġauxiliary":11071,"Ġfell":11072,"ĠConsequently":11073,"Ġqueries":11074,"nesota":11075,"both":11076,"Ġswe":11077,"Ġstrings":11078,"ĠEp":11079,"ĠAmong":11080,"Ġefficiently":11081,"ĠBerlin":11082,"ĠMeV":11083,"Ġargs":11084,"Ġagencies":11085,"}]\\":11086,"Ġprev":11087,"grade":11088,"ĠCro":11089,"Ġrailway":11090,"Ġalignment":11091,"renew":11092,"dp":11093,"Ġfiled":11094,"Ġbomb":11095,"ĠFellow":11096,"ALL":11097,"resource":11098,"ĠRome":11099,"rf":11100,"ĠPass":11101,"Ġrevenue":11102,"ĠWednesday":11103,"ĠEuler":11104,"constant":11105,"EP":11106,"Ġgiant":11107,"gp":11108,"riers":11109,"ĠHung":11110,"ĠSurvey":11111,"1944":11112,"ĠCA":11113,"Ġ\\|_{":11114,"similar":11115,"Ġguard":11116,"Ġvast":11117,"vy":11118,"Position":11119,"displaymath":11120,"rog":11121,"}{$":11122,"Ġarises":11123,"Aust":11124,"ĠDown":11125,"Ġdetermining":11126,"Ġshear":11127,"Ġconverted":11128,"ĠIndepend":11129,"Ġpadding":11130,"pur":11131,"ĠRead":11132,"Ġfractional":11133,"Ġcontinuity":11134,"Ġmort":11135,"ĠPC":11136,"Ġfilename":11137,"ĠBased":11138,"Ġpose":11139,"Ġcontemporary":11140,"Ġgained":11141,"ĠBand":11142,"Ġsatellite":11143,"Project":11144,"Ġinvariance":11145,"seq":11146,"Ġimper":11147,"Ġextensions":11148,"Ġremote":11149,"$--":11150,"Ġdropped":11151,"Ġimposed":11152,"Ġbrings":11153,"frequency":11154,"ĠRevolution":11155,"Ġongoing":11156,"lu":11157,"Ġexplored":11158,"Ġending":11159,"trained":11160,"Ġensures":11161,"ĠDutch":11162,"rable":11163,"framework":11164,"Äĩ":11165,"textstyle":11166,"Utils":11167,"Ġcouldn":11168,"Ġknows":11169,"charge":11170,"Ġcohomology":11171,"Ġtaught":11172,"Ġimprovements":11173,"tml":11174,"~~~~~~~~":11175,"jet":11176,"}}\\,":11177,"ĠRog":11178,"Â°":11179,"Ġtruly":11180,"arting":11181,"horiz":11182,"ĠFair":11183,"ĠHo":11184,"Ġaccommod":11185,"Ġevident":11186,"edding":11187,"Ġfewer":11188,"Ġnewspaper":11189,"FE":11190,"Ġconvention":11191,"lab":11192,"Ġtangent":11193,"Ġresistance":11194,"Ġdotted":11195,"Ġproofs":11196,"ĠCON":11197,"onom":11198,"Ġelev":11199,"Pass":11200,"Tab":11201,"sis":11202,"Ġlen":11203,"+|":11204,"words":11205,"Ġemployment":11206,"centerline":11207,"jections":11208,"Ġsale":11209,"Font":11210,"ĠBrad":11211,"Ġphotograph":11212,"Ġdefeated":11213,"urg":11214,"HR":11215,"isks":11216,"ĠMcC":11217,"convex":11218,"Ġconcrete":11219,"utable":11220,"ĠToday":11221,"ĠGib":11222,"Ġ),":11223,"making":11224,"Ġconnecting":11225,"bad":11226,"Ġretrie":11227,"ployment":11228,"orsion":11229,"wang":11230,"eh":11231,"Ġtransformed":11232,"ĠRom":11233,"Ġassistant":11234,"Ġadaptation":11235,".'":11236,")/\\":11237,"ĠChildren":11238,"Ġhelpful":11239,"ounded":11240,"rive":11241,"})}\\":11242,"ĠLearning":11243,"kk":11244,"render":11245,"ĠNumber":11246,"bottomrule":11247,"Ġspend":11248,"Ġdisci":11249,"Ġintent":11250,"Properties":11251,"angular":11252,"polar":11253,"ĠRod":11254,"dv":11255,"},\\\\":11256,"Ġimaginary":11257,"ĠSus":11258,"cb":11259,"send":11260,"Configuration":11261,"Height":11262,"stylesheet":11263,"Year":11264,"etary":11265,"ĠTO":11266,"Ġfragment":11267,"resolution":11268,"Ġvariability":11269,"Ġ\"\\":11270,"Ġboson":11271,"Ġvolunte":11272,"mention":11273,"DL":11274,"bibliographystyle":11275,")<":11276,"ĠAud":11277,"Ġknot":11278,"Ġgather":11279,"Ġweapons":11280,"ĠFre":11281,"Ġconverge":11282,"raine":11283,"central":11284,"Ġmetallicity":11285,"ĠNevertheless":11286,"patch":11287,"ORD":11288,"Ġchains":11289,"\\'{":11290,"'(\\":11291,"arts":11292,"^+\\":11293,"Ġban":11294,"Ġmock":11295,"Ġprogramme":11296,"hyp":11297,"ä¸":11298,"Ġpump":11299,"returns":11300,"Ġnob":11301,"some":11302,"]_":11303,"ĠReturns":11304,"relax":11305,"Iter":11306,"Conclusion":11307,"ĠCub":11308,"Initial":11309,"lined":11310,"Ben":11311,"Ġrigid":11312,"}$$":11313,"ĠTrue":11314,"ratio":11315,"ï¿½ï¿½":11316,"gi":11317,"Ġregulations":11318,"Prot":11319,"ĠPrize":11320,"Ġvirus":11321,"1959":11322,"overty":11323,"ĠOlympic":11324,"Ġvisited":11325,"={\\":11326,"HTML":11327,"Ġbinding":11328,"margin":11329,"Ġgoods":11330,"ĠBayesian":11331,"Ġtotally":11332,"Header":11333,"=&":11334,"ĠFox":11335,"Ġcorporate":11336,"ivered":11337,"Ġteachers":11338,"Ġaccessible":11339,"hn":11340,"ĠSher":11341,"icide":11342,"ĠMulti":11343,"Ġstanding":11344,"ĠMedicine":11345,"Ġcrowd":11346,"Ġviolation":11347,"ĠNotice":11348,"profile":11349,"qq":11350,"isms":11351,"Ġschedule":11352,"Ð´":11353,"Indeed":11354,"Ġdestroyed":11355,"ĠJean":11356,"dict":11357,"Document":11358,"Ġimproving":11359,"ennes":11360,"Ġconversion":11361,"onavirus":11362,"leftrightarrow":11363,"Ġsequential":11364,"endment":11365,"Container":11366,"ĠFlo":11367,"Members":11368,"Ġram":11369,"Ġles":11370,"Ġentities":11371,"Ġdeterministic":11372,"ĠCheck":11373,"Py":11374,"ĠPolish":11375,"oom":11376,"ĠToronto":11377,"1948":11378,"address":11379,"ymatrix":11380,"Ġopposition":11381,"Ġobservables":11382,"Intern":11383,"rics":11384,"uint":11385,"Ġcombine":11386,"Est":11387,"ĠPA":11388,"ordon":11389,"biggl":11390,"Ġoffering":11391,"Ġsear":11392,"obe":11393,"depth":11394,"Ġrequiring":11395,"ĠAction":11396,"Range":11397,"Ġtorus":11398,"+$":11399,"odge":11400,"Ġadvice":11401,"*{-":11402,"symmetric":11403,"scious":11404,"mages":11405,"ĠStation":11406,"Ġvictims":11407,"Ġforth":11408,"/.":11409,"ĠAnth":11410,"ĠDat":11411,"1942":11412,"uscript":11413,"Ġposit":11414,"102":11415,"ouch":11416,"kh":11417,"Ġclouds":11418,"Ġveter":11419,"Ġphon":11420,"ĠMarg":11421,"Offset":11422,"ĠBon":11423,"ĠName":11424,"biggr":11425,"Ġresolved":11426,"Ġdance":11427,"bigoplus":11428,"ĠCau":11429,"agues":11430,"ensed":11431,"Ġproton":11432,"Ġlocalization":11433,"processing":11434,"Ġdoubt":11435,"Ġfeeling":11436,"fly":11437,"wing":11438,"Ġafford":11439,"ĠCorps":11440,"Ġbass":11441,"Ġheavily":11442,"Cap":11443,"ĠStandard":11444,"Ġjoining":11445,"ĠVill":11446,"tot":11447,"dif":11448,"Ġbelief":11449,"dden":11450,"Que":11451,"oli":11452,"ĠSat":11453,"Ġobtaining":11454,"1957":11455,"cache":11456,"ĠCambridge":11457,"gon":11458,"Ġcas":11459,"ĠOnt":11460,"\\\\\\":11461,"abolic":11462,"Ġspending":11463,"protect":11464,"putation":11465,"1958":11466,"Ġworldwide":11467,"Ġforecast":11468,"anti":11469,"bx":11470,"Ġanimal":11471,"Ġobviously":11472,"Ġfusion":11473,"Ġinit":11474,"1941":11475,"gtr":11476,"Ġoscillations":11477,"sig":11478,"Ġbranches":11479,"Ġanalyses":11480,"Entry":11481,"uality":11482,"icking":11483,"ederation":11484,"Ġreveals":11485,"pay":11486,"Ġdiscre":11487,"Ġfeaturing":11488,"Ġaccum":11489,"ĠAffairs":11490,"Ġreverse":11491,"ĠĠĠĠĠĊ":11492,"Ġcomputations":11493,"ĠPers":11494,"ĠBru":11495,"Ġsees":11496,"ĠFire":11497,"htb":11498,"rev":11499,"GO":11500,"Ġ{{":11501,"article":11502,"join":11503,"Ġfilters":11504,"Ġcrystal":11505,"ĠNaz":11506,"Ġloops":11507,":\"":11508,"ĠWhy":11509,"Ġstuff":11510,"Ġfocuses":11511,"Ġmanifolds":11512,"}}}{\\":11513,"standard":11514,"Ġsought":11515,"itud":11516,"Ġ$-\\":11517,"token":11518,"High":11519,"craft":11520,"Ġfamiliar":11521,"Ġreaders":11522,"ĠForeign":11523,"cha":11524,"Ġforming":11525,"Ġvotes":11526,"Ġdealing":11527,"Ġscheduled":11528,"ropical":11529,"Ġtwenty":11530,"colhead":11531,"coloneqq":11532,"driven":11533,"Ġpatch":11534,"ĠSa":11535,"Ġreact":11536,"Ġoccupied":11537,"Ġdrift":11538,"oured":11539,"1956":11540,"Ġvoltage":11541,"Ġnotable":11542,"Thm":11543,"ĠCS":11544,"Ġlisten":11545,"adic":11546,"ĠHun":11547,"ĠVo":11548,"ĠSteve":11549,"uma":11550,"Ġdeli":11551,"Ġresponses":11552,"Ġfish":11553,"BD":11554,"Lo":11555,"rizona":11556,"docs":11557,"Summary":11558,"nals":11559,"ĠSign":11560,"Ġcompetitive":11561,"Use":11562,"Ġreceiver":11563,"Ġsummarized":11564,"Ġsho":11565,"dney":11566,"ĠVari":11567,"Ġnoting":11568,"riction":11569,"Ġ>=":11570,"Ġdegener":11571,"velope":11572,"ĠHT":11573,"pq":11574,"Ġopacity":11575,"Ġsingularity":11576,"Ġsymmetries":11577,"ĠRev":11578,"Ġvaluable":11579,"%,":11580,"Ġprosec":11581,"roke":11582,"Ġnice":11583,"cluster":11584,"Ġinstalled":11585,"artifactId":11586,"rolled":11587,"=\"../../../../../../":11588,"Ġshifts":11589,"$=":11590,"friend":11591,"Module":11592,"ĠCov":11593,"^*}":11594,"Background":11595,"ĠSupport":11596,"ĠHerm":11597,"Ma":11598,"oves":11599,"ellect":11600,"Ġexploration":11601,"Ġseemed":11602,"Ġau":11603,"leton":11604,"Ġmechanical":11605,"Direct":11606,"owa":11607,"Ġparad":11608,"Ġcommitment":11609,"NP":11610,"Ġprohib":11611,"Ġmel":11612,"DBLP":11613,"rb":11614,"Ġdebt":11615,"natural":11616,"viation":11617,"ĠFac":11618,"varpi":11619,"'-":11620,"360":11621,"Ġslowly":11622,"Ġdelet":11623,"Reference":11624,"Ġobservable":11625,"quality":11626,"ĠBlo":11627,"STR":11628,"mentioned":11629,"]);":11630,"Ġgrows":11631,"Ġuint":11632,"FOR":11633,"Ġdelivery":11634,"Ġpole":11635,"Ġguarantees":11636,"Ġpartnership":11637,"1955":11638,"repre":11639,"ostic":11640,"Posted":11641,"Ġmodification":11642,"ĠĠĠĠĠĠĠĠĠĠĠĠĠĠĠĠĠĠĠĠĠĠĠĠĠ":11643,"Hash":11644,"};\\":11645,"orel":11646,"ĠControl":11647,"oids":11648,"Lin":11649,"Util":11650,"Ġlose":11651,"ĠSupp":11652,"Ġassociate":11653,"Ġremainder":11654,"Ġpreserve":11655,"hash":11656,"ouri":11657,"Ġna":11658,"izers":11659,"Ġannih":11660,"xymatrix":11661,"Ġthereby":11662,"Ġrecovered":11663,"Ġwhatever":11664,"Mr":11665,"Ġregardless":11666,"Ġminimize":11667,"[{\\":11668,"Ġrefuge":11669,"ĠGalactic":11670,"UL":11671,"Brit":11672,"stellar":11673,"Ġpurchase":11674,"IGN":11675,"because":11676,"Ġiron":11677,"consin":11678,"1939":11679,"character":11680,"Bel":11681,"Ġholomorphic":11682,"Ġaband":11683,"Ġextraction":11684,"ĠDonald":11685,"Ġlegend":11686,"Ġarrive":11687,"idance":11688,"session":11689,"Ġoccasion":11690,"Ġdisput":11691,"]^{\\":11692,"Ġentitled":11693,"renewcommand":11694,"yal":11695,"relim":11696,"Ġlosing":11697,"ivation":11698,"buffer":11699,"Ġretire":11700,"Ġsuffered":11701,"aria":11702,"atics":11703,"sys":11704,"Ġ)$":11705,"Ġadaptive":11706,"ĠGree":11707,"Ġreporting":11708,".âĢĻ":11709,"ĠMap":11710,"Ġfault":11711,"distance":11712,"Ġvaries":11713,"argument":11714,"Ġgreatly":11715,"Ġlifetime":11716,"Ġwilling":11717,"night":11718,"Ġcontributed":11719,"Ġsudden":11720,"Ġfiction":11721,"ques":11722,"Ġgraduate":11723,"ĠStephen":11724,"VAL":11725,"Ġconcluded":11726,"ĠDavis":11727,"Ġcommutative":11728,"ĠFunction":11729,"ĠâĢ¢":11730,"Ġclubs":11731,"mix":11732,"igger":11733,"Ġpreferred":11734,"]\\\\":11735,"Ġdipl":11736,"itecture":11737,"Ġdipole":11738,"Ġprotein":11739,"resizebox":11740,"),(":11741,"lee":11742,"Ġemergency":11743,"Ġinsight":11744,"offs":11745,"apore":11746,"vc":11747,"reprene":11748,"iate":11749,"Ġobservational":11750,"Ġradii":11751,"media":11752,"ĠIslamic":11753,"border":11754,"Åį":11755,"istant":11756,"Ġexecuted":11757,"esp":11758,"Ġcancel":11759,"Ġbandwidth":11760,"Ġpit":11761,"Ġdict":11762,"cker":11763,"BT":11764,"Ġsoci":11765,"ĠAvenue":11766,"Ġpasses":11767,"ĠKansas":11768,"&+":11769,"Ġjets":11770,"Ġexpanding":11771,"isations":11772,"aked":11773,"ĠMinnesota":11774,"likely":11775,"rell":11776,"Ġidentifying":11777,"Ġsquares":11778,"ĠWars":11779,"()->":11780,"Ġranked":11781,"ĠLuc":11782,"Ġcontradict":11783,"romise":11784,"algorithmic":11785,"Record":11786,">$":11787,"Ġly":11788,"135":11789,"uther":11790,"Ġpayment":11791,"evin":11792,"~{\\":11793,"oni":11794,"Empty":11795,"Ġinduct":11796,"Through":11797,"Ġcreates":11798,"Ġfold":11799,"Ġconsiders":11800,"ĠKir":11801,"AGE":11802,"bigskip":11803,"groupId":11804,"ĠAlice":11805,"Ġaffili":11806,"Comb":11807,"Ġduty":11808,"ĠVice":11809,"smooth":11810,"Ġlengths":11811,"Ġsquad":11812,"Ġqubit":11813,"ĠBeach":11814,"lam":11815,"ĠGro":11816,"ains":11817,"ĠHart":11818,"Ġbaseball":11819,"agen":11820,"rats":11821,"photon":11822,"Ġarrested":11823,"Ġdelivered":11824,"115":11825,"ĠProcess":11826,"ĠDate":11827,"tool":11828,"Ġstim":11829,"Menu":11830,"Ġrelativistic":11831,"imated":11832,"pschitz":11833,"anna":11834,"UP":11835,"Ġlicense":11836,"debug":11837,"ikip":11838,"ĠDeep":11839,"ĠVictoria":11840,"Ġprovision":11841,"rend":11842,"Ġinfo":11843,"Ġterritory":11844,"Ġdesigns":11845,"Ġstores":11846,"]}\\":11847,"Ġcrew":11848,"uploads":11849,"Every":11850,"ĠRequ":11851,"Ġsingles":11852,"spring":11853,"Ġchecked":11854,"Ġgift":11855,"conj":11856,"temperature":11857,"Ġadministrative":11858,"versely":11859,"Ġseeking":11860,"Ġsin":11861,"iders":11862,"ĠCommand":11863,"\\!\\!\\!\\!":11864,"Even":11865,"Ġscan":11866,"front":11867,"ĠWin":11868,"Ġspecify":11869,"Ġcreative":11870,"Ġelastic":11871,"gtrsim":11872,"Ġhomotopy":11873,"Ġabsolutely":11874,"CI":11875,"aming":11876,"ĠGR":11877,"Ġwaiting":11878,"Ġmutual":11879,"erer":11880,"Ġeastern":11881,"Ġhabit":11882,"inian":11883,"periment":11884,"ĠMP":11885,"}$),":11886,"Ġbringing":11887,"oustic":11888,"enance":11889,"about":11890,"Dir":11891,"Ġreturning":11892,"Ġreflected":11893,"000000":11894,"Notice":11895,"Ġlandscape":11896,"ĠĠĠĠĠĠĠĊ":11897,"heres":11898,"makebox":11899,"online":11900,"Ġbed":11901,"}}_\\":11902,"ĠTy":11903,"Ġmeasuring":11904,"ĠSoc":11905,"1943":11906,"aws":11907,"continuous":11908,"aret":11909,"Ġconvolutional":11910,"COLOR":11911,"IEEE":11912,"Ġrelies":11913,"Ġinteracting":11914,"Ġmarketing":11915,"ĠColorado":11916,"Plan":11917,"ĠWhere":11918,"United":11919,"profit":11920,"ĠSanta":11921,"Ġannounce":11922,"omer":11923,"Ġremoving":11924,"NL":11925,"master":11926,"ĠEll":11927,"ikipedia":11928,"ĠAirport":11929,"ĠOs":11930,"Ġprelim":11931,"best":11932,"Ġpm":11933,"Ġplatforms":11934,"Ġherself":11935,"Ġranking":11936,"ĠSNR":11937,"Ġoutflow":11938,").$$":11939,"ulpt":11940,"Interface":11941,"}})\\":11942,"ĠSon":11943,"ĠEth":11944,"Ġultra":11945,"Ġautomorphism":11946,"1954":11947,"Ġmonitoring":11948,"Ġsettlement":11949,"ĠStock":11950,"):=":11951,"Best":11952,"Space":11953,"ariants":11954,"Ġvaccine":11955,"Ġtroub":11956,"Ġvoting":11957,"ĠArea":11958,"Ġbatter":11959,"Star":11960,"Ġsuit":11961,"lbrace":11962,"store":11963,"Ġfalls":11964,"scription":11965,"athered":11966,"Ġrobustness":11967,"induced":11968,"harm":11969,"ĠTok":11970,"ĠAli":11971,"Ġpermanent":11972,"iversary":11973,"ĠHou":11974,"TI":11975,"About":11976,"ĠLow":11977,"ĠGW":11978,"ĠBG":11979,"fix":11980,"ĠHal":11981,"Ġfoundation":11982,"NRAS":11983,"ologically":11984,"Ġintu":11985,"kens":11986,"ails":11987,"Ġloved":11988,"Ġoverview":11989,"quark":11990,"una":11991,"1952":11992,"Ġshapes":11993,"exact":11994,"ĠDR":11995,"issible":11996,"anth":11997,"Ã±":11998,"Ġpublicly":11999,"Ġ(.":12000,"icker":12001,"Ġcomfort":12002,"Ø§":12003,"ordered":12004,"ĠGPU":12005,"je":12006,"104":12007,"Json":12008,"Ġmotivated":12009,"Ġtitles":12010,")},\\":12011,"Connection":12012,"Settings":12013,"Ġexhibits":12014,"Ġkid":12015,"%.":12016,"ĠHD":12017,"ĠAssert":12018,"leading":12019,"critical":12020,"fun":12021,"ĠRos":12022,"rator":12023,"merce":12024,",}":12025,"Ġprovince":12026,"ĠRegion":12027,"ailability":12028,"env":12029,"Ġade":12030,"ĠCreate":12031,"Ġfermions":12032,"Ġparticipate":12033,"Http":12034,"Public":12035,"hist":12036,"iar":12037,"Pres":12038,"Ġvent":12039,"ĠError":12040,"Ġarising":12041,"Ġregularity":12042,"Ġmodify":12043,"Ġfairly":12044,"Ġyellow":12045,"Ġmanage":12046,"pus":12047,"Ġcausal":12048,"Bra":12049,"ĠAgency":12050,"ĠScottish":12051,"Ġresolve":12052,"NAME":12053,"Ġcash":12054,"Ġepochs":12055,"Ġsuperconduct":12056,"}}}}":12057,"Ġconsiderable":12058,"oca":12059,"Vector":12060,"Ġimproves":12061,"Ġpod":12062,"Ġbeat":12063,"ĠBet":12064,"holders":12065,"Ġcompression":12066,"ĠOfficer":12067,"Ġparametriz":12068,"1947":12069,"fony":12070,"Ġanten":12071,"home":12072,"Ġfluxes":12073,"Ġcausing":12074,"LU":12075,"512":12076,"University":12077,"Ġincl":12078,"ĠBooks":12079,"ipe":12080,"Ġsubgraph":12081,"security":12082,"Ġpassion":12083,"Ġrom":12084,"Const":12085,"mad":12086,"Ġcounting":12087,"coordinate":12088,"Ġsand":12089,"Ġcyclic":12090,"Ġverified":12091,"Ġgraduated":12092,"1946":12093,"Ġaren":12094,"Ġleaf":12095,"lean":12096,"Ġputting":12097,"Sur":12098,"ĠLive":12099,"Ġresemb":12100,"hops":12101,"Ġgovernments":12102,"Ġrisks":12103,"ĠScient":12104,"stage":12105,"}\\)":12106,"emet":12107,"Ġcubic":12108,"Ġsymplectic":12109,"ĠNic":12110,"ĠVen":12111,"Thread":12112,"ivariate":12113,"ĠUniverse":12114,"isa":12115,"Cho":12116,"Ġaccurately":12117,"Ġuniquely":12118,"maxim":12119,"}.$":12120,"Ġfant":12121,"Ġphenomena":12122,"Ġduality":12123,"ĠFuture":12124,"Ġsolo":12125,"ociation":12126,"rage":12127,"Application":12128,"Full":12129,"Ġgradients":12130,"Ġstorm":12131,"eah":12132,"Ġkeys":12133,"Ġfounder":12134,"@{}}":12135,"achelor":12136,"Ġserial":12137,"imm":12138,"Ġvariants":12139,"stop":12140,"alaxy":12141,"SV":12142,"Ġdrugs":12143,"may":12144,"}^{*":12145,"ĠMiller":12146,"Ġemissions":12147,"Ġsculpt":12148,"103":12149,"Why":12150,"np":12151,"Once":12152,"Orig":12153,"Ġexponentially":12154,"heses":12155,"prise":12156,"Ġcompris":12157,"warz":12158,"Ġerg":12159,"Ġrealize":12160,"lan":12161,"OK":12162,"Ġrend":12163,"urd":12164,"essions":12165,"Ġrecip":12166,"kt":12167,"Ġmodeled":12168,"composition":12169,"mac":12170,"ĠAnderson":12171,"Ġshifted":12172,"lst":12173,"Ã£":12174,"Ġimplications":12175,"ĠBush":12176,"antry":12177,"1953":12178,"stituting":12179,"Params":12180,"itatively":12181,"Ġnoisy":12182,"ĠNether":12183,"optim":12184,"Ġbid":12185,"Ġenabled":12186,"Ġapproval":12187,"350":12188,"positive":12189,"ĠTurkey":12190,"akers":12191,"abi":12192,"Ġvariational":12193,"Depend":12194,"uz":12195,"ributions":12196,"Ġcompletes":12197,"quantum":12198,"ĠWel":12199,"ICE":12200,"Ġmerger":12201,"Ant":12202,"Ġnations":12203,"underbrace":12204,"ĠBelg":12205,"106":12206,"ĠAtlantic":12207,"Christ":12208,"Ġposted":12209,"ensively":12210,"ateral":12211,"aga":12212,"Ġourselves":12213,"Ñĭ":12214,"}$:":12215,"urches":12216,"Ġfaced":12217,"Ġlogarithmic":12218,"Ġbins":12219,"EV":12220,"Ġovercome":12221,"WA":12222,"ĠPut":12223,"ystem":12224,"ĠMill":12225,"1918":12226,"Ġcomposite":12227,"gressive":12228,"lvert":12229,"vectors":12230,"^*(\\":12231,"Ġaccordance":12232,"Ġprospect":12233,"Ġsurveys":12234,"Ġshorter":12235,"tainment":12236,"Sem":12237,"rapol":12238,"itudinal":12239,"1949":12240,"Ġec":12241,"ĠThose":12242,"Ġmoduli":12243,"gov":12244,"Num":12245,"umann":12246,"aks":12247,"ategories":12248,"220":12249,"Ġranging":12250,"Ang":12251,"aska":12252,"Ġsimplified":12253,"rait":12254,"]]":12255,"Ġsleep":12256,"ĠOntario":12257,"|{\\":12258,"ĠSky":12259,"via":12260,"Ġbarrier":12261,"igenous":12262,"abilistic":12263,"270":12264,"Ġaffects":12265,"Parameters":12266,"Ġcoincides":12267,"para":12268,"Only":12269,"Bound":12270,"Ġtoler":12271,"ruggle":12272,"Ġunlike":12273,"orthe":12274,"Ġmaintained":12275,"Ġbath":12276,"Ġpray":12277,"Ġlect":12278,"ĠWithout":12279,"Ġoriented":12280,"Ġadvent":12281,"Ġvanish":12282,"$^{\\":12283,"Ġbanks":12284,"ĠNN":12285,"ductor":12286,"Ġstopped":12287,"ocols":12288,"Ġrectangle":12289,"Ġmembership":12290,"[->":12291,"Ġenforcement":12292,"agan":12293,"Ġconsumer":12294,"Ġcustomer":12295,"Ġheating":12296,"Ġpromising":12297,"Ġtrials":12298,"ĠBridge":12299,"Ġsending":12300,"$}\\":12301,"Ġcontainer":12302,"expand":12303,":#":12304,"quarters":12305,"Ġbow":12306,"akh":12307,"TER":12308,"ĠWisconsin":12309,"Mag":12310,")}=\\":12311,"Ġscaled":12312,"}{!":12313,"Ġconversation":12314,"ĠPerson":12315,"Ġencoded":12316,"posing":12317,"riptor":12318,"Ġinterpolation":12319,"folio":12320,"Her":12321,"Ġlocalized":12322,"ĠAsh":12323,"Ġmillions":12324,"Ġcontrary":12325,"Cs":12326,"ĠDir":12327,"Å¡":12328,"half":12329,"watch":12330,"%%":12331,"Just":12332,"Ġ\\,.":12333,"ĠWindow":12334,"Ġbrightness":12335,"ĠLim":12336,"\"));":12337,"original":12338,"Ġchampionship":12339,"Ġdot":12340,"ĠKorean":12341,"ĠSoft":12342,"quote":12343,"addle":12344,"elson":12345,"atar":12346,"direction":12347,"ĠValue":12348,"Ġoptimized":12349,"Ġwww":12350,"{}\\":12351,"ipher":12352,"aren":12353,"names":12354,"Ġthickness":12355,"Ġdemonstrates":12356,"ĠSydney":12357,"}.$$":12358,"Ġreproduce":12359,"Ġdeleg":12360,")~":12361,"attribute":12362,"ĠArizona":12363,"Ġcarrying":12364,"ĠImm":12365,"Ġbare":12366,"owered":12367,"ĠProblem":12368,"108":12369,"Ġwinter":12370,"Ġdetectors":12371,"Ġcumul":12372,"ceq":12373,"ĠĠĠĠĠĠĠĠĠĠĠĠĠĠĠĠĠĠĠĠĠĠĠĠĠĠĠĠĠĠĠĠĠĠĠĠĠĠĠ":12374,")$}":12375,"MNRAS":12376,"engers":12377,"(.":12378,"compare":12379,"cus":12380,"ĠShort":12381,"ĠBad":12382,"far":12383,"Callback":12384,"ĠStory":12385,"Ġparity":12386,"Mo":12387,"Ġgraded":12388,"Ġdocumentary":12389,"Ġengaged":12390,"Option":12391,"Ġhospit":12392,"ĠMov":12393,"MSE":12394,"Ġstrategic":12395,"Ġloan":12396,"ĠIsraeli":12397,"Ġisotropic":12398,"ownt":12399,"118":12400,"Jo":12401,"\",\"":12402,"PECT":12403,"Ġtunnel":12404,"Play":12405,"})}{":12406,"Ġdepos":12407,"():":12408,"ĠSym":12409,"Ġunf":12410,"Ġunus":12411,"ĠPage":12412,"application":12413,"Ġhierarchy":12414,"Ġproving":12415,"ĠMD":12416,"Ġcharacterization":12417,"aste":12418,"shot":12419,"momentum":12420,"Ġfavorite":12421,"ĠAge":12422,"ĠPR":12423,"rbrace":12424,"Conf":12425,"iso":12426,"lyn":12427,"anchor":12428,"|}{\\":12429,"undles":12430,"ĠIslands":12431,"Ġauthent":12432,"ships":12433,"Br":12434,"game":12435,"Ġreplacement":12436,"Ġbelonging":12437,"Ġworker":12438,"Ġturning":12439,"Ġremarkable":12440,"Ġmanuscript":12441,"ĠHay":12442,"click":12443,"Ġnuclei":12444,"Ġcommunications":12445,"igm":12446,"Ġregul":12447,"antum":12448,"-$\\":12449,"Schema":12450,"Ġaddresses":12451,"'}(":12452,"Ġtables":12453,"ĠMemorial":12454,"})^{\\":12455,"Ġrejected":12456,"ĠAS":12457,"Ġreasoning":12458,"frag":12459,"enna":12460,"Ġfocusing":12461,"ĠDark":12462,"keys":12463,"PRE":12464,"Ġappearances":12465,"ĠLipschitz":12466,"Ġofficially":12467,"ĠLewis":12468,"ĠOpt":12469,"igate":12470,"Ġrings":12471,"Ġclip":12472,")\"":12473,"fraction":12474,"Ġcapabilities":12475,"Supp":12476,"estamp":12477,"ĠEP":12478,"Ġdecor":12479,"Ġexcluded":12480,"press":12481,"iday":12482,"Cam":12483,"Ġsilver":12484,"ĠText":12485,"emetery":12486,"Ġpilot":12487,"Both":12488,"vergent":12489,"Ġtrends":12490,"cule":12491,"ĠForest":12492,"Ġadult":12493,"plete":12494,"thin":12495,"mkern":12496,")*":12497,"Ġ$\\|\\":12498,"establ":12499,"Ġqubits":12500,"ĠDuke":12501,"Tool":12502,"Ġbases":12503,"ulum":12504,"onomy":12505,"Ġincred":12506,"''.":12507,"Ġelectromagnetic":12508,"ĠDam":12509,"zech":12510,"nl":12511,"NY":12512,"Ġadequ":12513,"ĠNetherlands":12514,"keep":12515,"Ġsympt":12516,"qed":12517,"1951":12518,"Ġbigger":12519,"bone":12520,"ĠkeV":12521,"Mac":12522,"Ġrear":12523,"Spe":12524,"corresponding":12525,"Ġquarks":12526,"Ġii":12527,"Ġpacket":12528,"Ġwrites":12529,"HH":12530,"icons":12531,"ACE":12532,"Ġreceives":12533,"Ġgene":12534,"Ġtransactions":12535,"een":12536,"($\\":12537,"Ġ*)":12538,"Ġmanifest":12539,"ĠUser":12540,"ĠKh":12541,"iece":12542,"Integer":12543,"Ġpriority":12544,"ĠLady":12545,"ĠCost":12546,"ĠModern":12547,"Ġacquisition":12548,"Ġages":12549,"aintenance":12550,"Ġadds":12551,"Ġamaz":12552,"CB":12553,"contin":12554,")}]":12555,"components":12556,"arameters":12557,"bourne":12558,"_{(\\":12559,"Ġrelating":12560,"Ġsingularities":12561,"Ġcourts":12562,"Ġregularly":12563,"ĠSimilar":12564,"ÑĮ":12565,"ĠCreek":12566,"comparison":12567,"ĠTai":12568,"equals":12569,"Ġpresidential":12570,"het":12571,"Ġattempted":12572,"127":12573,"trace":12574,"Ġpot":12575,"Ġartificial":12576,"Ġdistinguished":12577,"!!":12578,"Ġcourses":12579,"ocy":12580,"@{\\":12581,"CNN":12582,"Stud":12583,"Ġhits":12584,"ĠCooper":12585,"Aug":12586,"Has":12587,"ĠDNA":12588,"plac":12589,"Ġ::":12590,"Ġwouldn":12591,"ĠLes":12592,"ourse":12593,"Ġapproximations":12594,"ĠDer":12595,"handle":12596,"URE":12597,"pix":12598,"bind":12599,"eto":12600,"Ġhall":12601,"copy":12602,"Ġ×":12603,"Ġapproximated":12604,"ĠTurk":12605,"rically":12606,"oked":12607,"Ġmount":12608,"ugins":12609,"Deb":12610,"aze":12611,"Ġconsistently":12612,"Ġtab":12613,"idelines":12614,"Ġampl":12615,"itarian":12616,"ĠPubl":12617,"Arch":12618,"dor":12619,"oggle":12620,"Ġundefined":12621,"ĠCPU":12622,"API":12623,"Ġdecoder":12624,"choose":12625,"ĠApple":12626,"Network":12627,"ĠGolden":12628,"Ġ\\\\\\":12629,"Ġhosted":12630,"rarily":12631,"Ġdisturb":12632,"inline":12633,"ĠCorn":12634,"Ġinfluenced":12635,"door":12636,"ĠArgent":12637,"ĠVietnam":12638,"Ġvic":12639,"aders":12640,"erences":12641,"Tim":12642,"Films":12643,"arding":12644,"volume":12645,"ĠBrother":12646,"ashi":12647,"ĠKal":12648,"Ġrent":12649,"ĠOfficial":12650,"Ġexhibition":12651,"Ġexit":12652,"Ġkilling":12653,"Ġparticipation":12654,"Title":12655,"Ġdegenerate":12656,"Ġtranslate":12657,"oped":12658,"Ġwider":12659,"ĠBor":12660,"ĠThird":12661,"rvert":12662,"ĠDO":12663,"idelity":12664,"transition":12665,"iley":12666,"Ġterminal":12667,"Ġmirror":12668,"Ġmeasurable":12669,"ĠStrateg":12670,"ĠStaff":12671,"Career":12672,"ATA":12673,"Ġdelete":12674,"ichlet":12675,"ĠPO":12676,"Ġhotel":12677,"Ġwins":12678,"ĠPS":12679,"closure":12680,"{|\\":12681,"footer":12682,"ĠPrim":12683,"regon":12684,"ĠĠĠĠĠĠĠĠĠĠĠĠĠĠĠĠĠĠĠĠĠĠĠĠĠĠ":12685,"Ġcategor":12686,"Ġdollars":12687,"Ġwithdraw":12688,"ĠAz":12689,"Ġqueue":12690,"noc":12691,"Ġresc":12692,"Ġrecognize":12693,"Ġoverride":12694,"Ġsuperior":12695,"material":12696,"ĠDigital":12697,"ĠHollywood":12698,"War":12699,"ĠHoly":12700,"ĠBall":12701,"Ġdevel":12702,"information":12703,"alactic":12704,"Ġlit":12705,"Ġreconstructed":12706,"Ġextinction":12707,"fire":12708,"ĠIndiana":12709,"Ġaccompan":12710,"ĠCountry":12711,"Ġpromoted":12712,"ĠAfghanistan":12713,"bracket":12714,"cam":12715,"ĠSF":12716,"Ġquantitative":12717,"diagram":12718,"ĠSri":12719,"coq":12720,"ears":12721,"ĠComb":12722,"Ġallocation":12723,"olitan":12724,"Draw":12725,"Fin":12726,"Ġcro":12727,"ĠLtd":12728,"Ġinstrum":12729,"\\\"{":12730,"proj":12731,"don":12732,"1938":12733,"hover":12734,"'>":12735,"Gra":12736,"ulus":12737,"rgb":12738,"ĠNam":12739,"Ġpurchased":12740,"Ġspoke":12741,"issue":12742,"Ġinstruments":12743,"ĠÂ§":12744,"Ġdamp":12745,"ellectual":12746,"generated":12747,"Ġmining":12748,"Click":12749,"alks":12750,"gered":12751,"Ġadvis":12752,"ĠChannel":12753,"Collection":12754,"into":12755,"(:":12756,"Ġextending":12757,"selected":12758,"Ġattributed":12759,"900":12760,"oking":12761,"Ġequivalently":12762,"Ġsubsid":12763,"TM":12764,"vdash":12765,"delete":12766,"inks":12767,"Where":12768,"Show":12769,"owned":12770,"ĠEric":12771,"Ġobserving":12772,"ranged":12773,"^{{\\":12774,"Hy":12775,"Ġshooting":12776,"Ġsevent":12777,"CG":12778,"South":12779,"Ġillustrates":12780,"Ġdiscipl":12781,"Ġvoters":12782,"ĠCurrent":12783,"}}^\\":12784,"being":12785,"bootstrap":12786,"Ġdisks":12787,"iration":12788,"Values":12789,"================================":12790,"))=":12791,"elle":12792,"news":12793,"Ġphotometric":12794,"Ġstone":12795,"ĠUr":12796,"ctrine":12797,"ITY":12798,"Ġdeviations":12799,"Ġscoring":12800,"+}":12801,"Ġsuppressed":12802,"Ġclar":12803,"107":12804,"TF":12805,"Ġadults":12806,"ĠSingapore":12807,"Ġarchitectures":12808,"ĠProof":12809,"homogeneous":12810,"ZZ":12811,"Ġjav":12812,"Ġskin":12813,"curve":12814,"ĠFood":12815,"Ġsentences":12816,"ju":12817,"xygen":12818,"Flo":12819,"msg":12820,"Black":12821,"Ġshadow":12822,"ĠÐ¿":12823,"four":12824,"Ġasking":12825,"bn":12826,"Ġignore":12827,"ĠNFL":12828,"GHz":12829,"valuation":12830,"Session":12831,"Rob":12832,"Ġ\\:":12833,"ĠAnton":12834,"ĠDun":12835,"Ġsolit":12836,"calcul":12837,"})^{-":12838,"Ġhonest":12839,"Author":12840,"stan":12841,"ĠCrit":12842,"ĠFinal":12843,"Ġhair":12844,"coln":12845,"Ġpin":12846,"Found":12847,"cers":12848,"ĠArticle":12849,"yers":12850,"Ġguidance":12851,"Ġbought":12852,"Ġaveraging":12853,"Ġobserver":12854,"Ġconjugate":12855,"unity":12856,"Ġasymptotically":12857,"Ġing":12858,"sens":12859,"ĠEconomic":12860,"Ġdevoted":12861,"Ġinnovation":12862,"Ġsectors":12863,"Ġboxes":12864,"convert":12865,"Ġassembly":12866,"ĠTR":12867,"ĠDefine":12868,"ACT":12869,"Ġvalidity":12870,"Ġrepeat":12871,"Ġdangerous":12872,"Ġchampion":12873,"oscow":12874,"Ġpreserved":12875,"Ġfavour":12876,"Ġdismiss":12877,"unications":12878,"overning":12879,"Ġelig":12880,"ĠTransport":12881,"$/":12882,"seen":12883,"cn":12884,"FIG":12885,"Related":12886,"Ġanomaly":12887,"Ġalter":12888,"aza":12889,"Ġmarks":12890,"Ġclosest":12891,"abric":12892,"ĠOcean":12893,"attered":12894,"Ġcharacterize":12895,"ea":12896,"pont":12897,"Ġinhab":12898,"Ġstrain":12899,"levant":12900,"Ġastron":12901,"ĠMilitary":12902,"=\"_":12903,"Ġack":12904,"whe":12905,"=$":12906,"zi":12907,"Ġassault":12908,"Ġidentities":12909,"Ġgovernor":12910,"Ġincorporated":12911,"Ġtension":12912,"Despite":12913,"^*,":12914,"Ġcaught":12915,"season":12916,"âĢĻ,":12917,"ĠAlf":12918,"ĠSI":12919,"iga":12920,"igious":12921,"Ġhockey":12922,"1936":12923,"Ġexpectations":12924,"Ġmoral":12925,"ĠMoh":12926,"}\\,,":12927,"Ġprovider":12928,"pendicular":12929,"Ġmechanics":12930,"Ã£o":12931,"ername":12932,"upp":12933,"Ġdefinitely":12934,"Sn":12935,"Ġflavor":12936,"email":12937,"ĠLHC":12938,"ĠBiden":12939,"Ġfactory":12940,"Ġgray":12941,"False":12942,"Ġconvenience":12943,"Ġfer":12944,"Ġlisting":12945,"uy":12946,"Ġreflects":12947,"vance":12948,"ĠDisney":12949,"Ġsuggesting":12950,"Ġcontinuously":12951,"Ġdecline":12952,"Ġadjoint":12953,"Serial":12954,"Ġpoverty":12955,"Real":12956,"Ġadditive":12957,"compat":12958,"Ġwat":12959,"KK":12960,"ĠRailway":12961,"Ġeverywhere":12962,"disabled":12963,"acknowled":12964,"cosity":12965,"Ġmerely":12966,"Ġrecommended":12967,"Ġfacing":12968,"ders":12969,"Ġcarefully":12970,")))":12971,"alo":12972,"Ġcombat":12973,"ROM":12974,"=\"/":12975,"Ġparliament":12976,"Ġmusicians":12977,"=}":12978,"Ġsubmitted":12979,"ĠBuilding":12980,"VE":12981,"plo":12982,"Ġexposed":12983,"ĠAssumption":12984,"Ġobtains":12985,"record":12986,"oor":12987,"Ġpreparation":12988,"ULT":12989,"zing":12990,"ĠGer":12991,"antly":12992,"}):":12993,"corr":12994,"[$":12995,"Device":12996,"ĠÅ":12997,"Operation":12998,"fall":12999,"Ġoverl":13000,"Ġmodular":13001,"ishment":13002,"oulomb":13003,"Due":13004,"Ġcontest":13005,"Handle":13006,"HER":13007,"Ġteen":13008,"Ġruled":13009,"Ġassumes":13010,"HA":13011,"Ġadmissible":13012,"ryst":13013,"elfare":13014,"hire":13015,"Ġdates":13016,"ĠChapter":13017,"Ġpron":13018,"Ġyourself":13019,"sb":13020,"erred":13021,"HP":13022,"surface":13023,"Ġstrip":13024,"chestra":13025,"Ġstruggle":13026,"Ġspins":13027,"Ġtower":13028,"href":13029,"mut":13030,"Ġweekend":13031,"ĠLiter":13032,"Ġda":13033,"Ġheads":13034,"Mean":13035,"olars":13036,"ologists":13037,"Ġmanufacturing":13038,"ĠBS":13039,"Ġdesignated":13040,"Ġdestination":13041,"ĠSS":13042,"ĠYet":13043,"wrap":13044,"Ġraces":13045,"Ġprepare":13046,"Template":13047,"Ġaligned":13048,"Ġjuris":13049,"rupted":13050,"Ġstrike":13051,"David":13052,"1900":13053,"Ġphysically":13054,"Ġintroduces":13055,"ĠAmb":13056,"SION":13057,"lot":13058,"Ġphilosophy":13059,"Ġmunicipal":13060,"Ġradiative":13061,"}--":13062,"ĠNatural":13063,"angled":13064,"Ġoppon":13065,"ĠException":13066,"Ġdefeat":13067,"ĠTurn":13068,"utenant":13069,"Ġheader":13070,"Ġimpose":13071,"Ġinternet":13072,"Ġyards":13073,"}$&":13074,"Ġgrown":13075,"))$,":13076,"Ġvortex":13077,"ĠSaf":13078,"Ġprojections":13079,"ĠRoss":13080,"Ġguy":13081,"Ġpainting":13082,"Ġcooperation":13083,"terior":13084,"uber":13085,"Ġcontam":13086,"Ġrefused":13087,"Ġprimitive":13088,"Ġtrading":13089,"Crit":13090,"makers":13091,"Support":13092,"Ġaccused":13093,"ĠRose":13094,"Ġmeaningful":13095,"Ġentering":13096,"Ġheur":13097,"rceil":13098,"irms":13099,"hig":13100,"Such":13101,"?:":13102,"Ġgrate":13103,"Ġhistogram":13104,"Ġ)\\":13105,"plementation":13106,"Ġapparently":13107,"ĠGallery":13108,"lceil":13109,"Ġnontrivial":13110,"Lie":13111,").$":13112,"ERROR":13113,"}=-":13114,"240":13115,"ĠDesc":13116,"flux":13117,"})+":13118,"Ġuniversities":13119,"solution":13120,"Ġmedicine":13121,"insert":13122,"without":13123,"ĠCru":13124,"Ġbelieves":13125,"fp":13126,"Ġ}(":13127,"Ġanswers":13128,"Ġwindows":13129,"lass":13130,"Tests":13131,"Ġrival":13132,"Tube":13133,"unique":13134,"Ġcomplaint":13135,"){$":13136,"ĠTerm":13137,"ĠStadium":13138,"wealth":13139,"apshot":13140,"ĠMatt":13141,"olds":13142,"Ġhelic":13143,"elastic":13144,"deriv":13145,"checkmark":13146,"utt":13147,"eyond":13148,"Host":13149,"Numer":13150,"ĠPhot":13151,"Core":13152,"1917":13153,"Ġcoincide":13154,"Names":13155,"Ġcontinuing":13156,"Ġneutrinos":13157,"British":13158,".]":13159,"ĠIndex":13160,"ĠFigs":13161,"Ġsimpler":13162,"ennessee":13163,"Pref":13164,"Ġfunded":13165,"plements":13166,"doi":13167,"correct":13168,"yard":13169,"NavBar":13170,"Ġcab":13171,"Ġ++":13172,"ĠFord":13173,"Ġmatched":13174,"Ġsums":13175,"Ġpassage":13176,"Ġbold":13177,"ĠTraining":13178,"ĠAbb":13179,"ĠHan":13180,"ĠAccess":13181,"Ã©e":13182,"ĠLank":13183,"bec":13184,"Ġdrawing":13185,"Ġvolumes":13186,"ĠConnect":13187,"nas":13188,"),\\\\":13189,"ĠHas":13190,"agon":13191,"Ġrequested":13192,"Ġreadily":13193,"custom":13194,"Ġho":13195,"uties":13196,"Decl":13197,"ilst":13198,"Ġdesire":13199,"Ġglobally":13200,"Ġsuscept":13201,"Ġcombinator":13202,"Ġparticipated":13203,"antics":13204,"design":13205,"Ġmic":13206,"important":13207,"theo":13208,"abatic":13209,"Ġprovisions":13210,"Ġshr":13211,"Global":13212,"yy":13213,"Ġparams":13214,"Ġinferred":13215,"ĠSab":13216,"\\%,":13217,"Ġpairing":13218,"Ġfestival":13219,"ĠYes":13220,"nc":13221,"Ġkick":13222,"Ġrotating":13223,"kw":13224,"othe":13225,"ping":13226,"ĠeV":13227,"109":13228,"lectric":13229,"move":13230,"{%":13231,"inema":13232,"ipping":13233,"Ġsquared":13234,"algo":13235,"Ġillegal":13236,"Ġbis":13237,"Ġmodelling":13238,"]}$":13239,"Ġguaranteed":13240,"ĠMaryland":13241,"Ġunlikely":13242,"rod":13243,"114":13244,"ddot":13245,"Cast":13246,"Err":13247,"},$":13248,"webkit":13249,"Ġforget":13250,"Ġpublisher":13251,"ĠHouston":13252,"Ġoccupation":13253,"late":13254,"construction":13255,"Ġdisplacement":13256,"Ġrealization":13257,"ĠPlaces":13258,"Ġtransit":13259,"eV":13260,"ĠArthur":13261,"Ġfasc":13262,"Ġevening":13263,"aled":13264,"Ġkil":13265,"ĠIl":13266,"Ġretail":13267,"117":13268,"ĠKa":13269,"Ġemployee":13270,"Ġemotional":13271,";<":13272,"Ġproud":13273,"racted":13274,"Total":13275,"ods":13276,")_\\":13277,"eland":13278,"ĠOp":13279,"Ġ[-":13280,"correlation":13281,"Ġsummarize":13282,"ĉĠĠ":13283,"Ġions":13284,"ĠIns":13285,"William":13286,"irt":13287,"Gaussian":13288,"ĠCulture":13289,"Ġindirect":13290,"}'$":13291,"ĠSud":13292,"Ġenvelope":13293,"Body":13294,"aron":13295,"ĠAk":13296,"ĠConst":13297,"Previous":13298,"enda":13299,"orb":13300,"irable":13301,"you":13302,"Helper":13303,"Ġinstruct":13304,"Ġperfectly":13305,"nik":13306,"assumption":13307,"Ġconsensus":13308,"Match":13309,"Ġrising":13310,"ĠOt":13311,"cket":13312,"score":13313,"Ġdirectors":13314,"Ġoffices":13315,"Ġtheatre":13316,"Ġmachines":13317,"Ġdistricts":13318,"âĢ¢":13319,"iami":13320,"Ġemerging":13321,"screen":13322,"Ġdrag":13323,"ĠArk":13324,"-{\\":13325,"'],":13326,"Ġminute":13327,"Ġlogical":13328,"gments":13329,"dam":13330,"abama":13331,"gue":13332,"Ġacknowledge":13333,"Ġshortly":13334,"ĠLeon":13335,"middle":13336,"Ġselling":13337,"Ġinherent":13338,"Impl":13339,"onomous":13340,"sson":13341,"Ġtranslated":13342,"_{|":13343,"ĠHarry":13344,"Ġbutton":13345,"andy":13346,"ĠBrig":13347,"Ġdivide":13348,"ĠMit":13349,"ĠWat":13350,"ibraries":13351,"}\\|\\":13352,"}$};":13353,"170":13354,"lyph":13355,"}),\\":13356,"=[":13357,"ãĢ":13358,"]:":13359,"Ġradical":13360,"ijk":13361,"Ġpreliminary":13362,"charg":13363,"Ġnavigation":13364,"ĠĠĠĠĠĠĠĠĠĠĠĠĠĠĠĠĠĠĠĠĠĠĠĠĠĠĠĠĠ":13365,"ĠDirect":13366,"Tw":13367,"Ġdisag":13368,"virtual":13369,"Ġnovels":13370,"haust":13371,"Ġwing":13372,"Ġcutoff":13373,"Ġweaker":13374,"Ġtrav":13375,"Ġexport":13376,"Ġskew":13377,"Ġambigu":13378,"Ġpermission":13379,"ĠBrand":13380,"Ġrotational":13381,"Ca":13382,"Ġmethodology":13383,"Ġelsewhere":13384,"ccentric":13385,"ĠMagazine":13386,"ĠIowa":13387,"multip":13388,"Ġinvoke":13389,"fm":13390,"Ġignored":13391,"Ġpreserves":13392,"ĠKat":13393,"adapt":13394,"Austral":13395,"attices":13396,"Ġbroke":13397,"Lem":13398,"veloc":13399,"ĠDemocrats":13400,"ĠInterest":13401,"asty":13402,"exports":13403,"Ġevaluating":13404,"1937":13405,"Ġtherein":13406,"Ġencourage":13407,"ĠBatt":13408,"ĠWinter":13409,"Ġfee":13410,"ĠNick":13411,"ĠRaj":13412,"Store":13413,"Ġsimplest":13414,"neighb":13415,"MN":13416,"periodic":13417,"Ġparam":13418,"Ġingred":13419,"Ġtransportation":13420,"?\"":13421,"ĠTa":13422,"Ġenhancement":13423,"1933":13424,"Ġstake":13425,"Ġoutperforms":13426,"cu":13427,"Ġbehalf":13428,"ĠSystems":13429,"ATH":13430,"Ġmovements":13431,"wick":13432,"Ġrepresentatives":13433,"Ġremoval":13434,"spl":13435,"113":13436,"ĠGreece":13437,")}}\\":13438,"sufficient":13439,"Ġteach":13440,"ÑģÑĤ":13441,"ernels":13442,"expect":13443,"Term":13444,"((\\":13445,"Ġagrees":13446,"Ġinjective":13447,"ĠDefense":13448,"Ġwatching":13449,"gradient":13450,";->":13451,"Ġhun":13452,"blockList":13453,"Api":13454,"Ġhypers":13455,"Ġjournalist":13456,")$)":13457,"uj":13458,"'))":13459,"Ġpione":13460,"IME":13461,"Ġarbitrarily":13462,"Ġovers":13463,"ĠHur":13464,"Ġaged":13465,"Ġoldest":13466,"Ġsupervised":13467,"ĠGuide":13468,"\\\\[":13469,"ĠWeyl":13470,"1914":13471,"ï¼":13472,"odic":13473,"peror":13474,"ationally":13475,"ĠMun":13476,"iated":13477,"Ġhouseholds":13478,"ĠTask":13479,"rk":13480,"ĠLanguage":13481,"_{\\{":13482,"ancel":13483,"}\"":13484,"Ġbreaks":13485,"Ġmeetings":13486,"Ġdisplays":13487,"Ġgamma":13488,"ĠThough":13489,"Ġreactions":13490,"ĠSenior":13491,"Ġanonym":13492,"Define":13493,";\"":13494,"Ġhealthcare":13495,"Rule":13496,"ĠOregon":13497,"Conclusions":13498,"ĠQueens":13499,"Tags":13500,"Mor":13501,"audi":13502,"Fs":13503,"005":13504,"arsity":13505,"Ġprefix":13506,"Ġregistration":13507,"002":13508,"(*":13509,"dependency":13510,"Ġmultiplicity":13511,"dotted":13512,"ĠSect":13513,"Ġconsiderations":13514,"configuration":13515,"Feature":13516,"Ġhealthy":13517,"Ġintention":13518,"Ġcompleteness":13519,"suit":13520,"Ã¡n":13521,"Ġpairwise":13522,"burn":13523,")$$":13524,"iors":13525,"iah":13526,"Ġdegrad":13527,"aire":13528,"ĠSpect":13529,"&#":13530,"}}{(":13531,"cmd":13532,"ante":13533,"ĠMissouri":13534,"Ġproxim":13535,"ĠMoore":13536,"ĠBrian":13537,"International":13538,"ĠCT":13539,"Sports":13540,"geqslant":13541,"ĠSweden":13542,"Ñĩ":13543,"Ġgrounds":13544,"Ġbott":13545,"Super":13546,"Ġwa":13547,"outheast":13548,"imp":13549,".\\]":13550,"'+":13551,"Ġske":13552,"Ġhaven":13553,"cert":13554,"ĠJos":13555,"toString":13556,"fluid":13557,"Ġspi":13558,"Ġadvantages":13559,"Ġsubstantially":13560,"Ġenemy":13561,"Ġplanar":13562,"export":13563,"sinh":13564,"ĠJava":13565,"Ġrain":13566,"bow":13567,"Ġstreets":13568,"isp":13569,"roit":13570,"}$~":13571,"ĠCL":13572,"bounds":13573,"Ġintegrating":13574,"arded":13575,"Ġoperational":13576,"ĠMoscow":13577,"Ġexceptional":13578,"Ġburied":13579,"Green":13580,"Ġaf":13581,"ĠRegiment":13582,"olas":13583,"Ġseats":13584,"lattice":13585,")$;":13586,"Ġlaid":13587,"Ġattorney":13588,"Ġdifficulties":13589,"}};":13590,"ĠSL":13591,"eras":13592,"ĠCollection":13593,"ĠGram":13594,"âĢĻ.":13595,"ĠUkraine":13596,"Ġsimplify":13597,"ĠHMS":13598,"ĠMO":13599,"1935":13600,"ĠFull":13601,"Ġsoph":13602,"DIR":13603,"PAR":13604,"Ġqualified":13605,"Ġsurgery":13606,"Ra":13607,"appendix":13608,"Ġfactorization":13609,"edit":13610,"ĠTeV":13611,"Ġpublications":13612,"weg":13613,"Ġtruck":13614,"Ġextrapol":13615,"ĠSix":13616,"Ġcoarse":13617,"orne":13618,"Mich":13619,"children":13620,"raisebox":13621,"Ġinvariants":13622,"Async":13623,"ĠTam":13624,"Ġmomenta":13625,"Ġdevelopments":13626,"mony":13627,"ĠCapital":13628,"ĠSyria":13629,"Ġportray":13630,"ailing":13631,"lein":13632,"))^":13633,"ĠUnit":13634,"3333":13635,"Ã©s":13636,"diagonal":13637,"weighted":13638,"lg":13639,"Ġ['":13640,"{-}":13641,"Ġcorrected":13642,"ĠNorm":13643,"Ġestablishment":13644,"Ġrelief":13645,"limate":13646,"ĠÂ»":13647,"maj":13648,"ĠCab":13649,"tection":13650,"Ġboys":13651,"Ġcores":13652,"ĠCondition":13653,"racks":13654,"Ġwinners":13655,"Ġbranching":13656,"ÅĤ":13657,"Ġsolely":13658,"reedy":13659,"Ġcenturies":13660,"Ġancest":13661,"plates":13662,"Ġrounds":13663,"ĉĠĠĠĠ":13664,"dc":13665,"Ġinvited":13666,"Ġinvalid":13667,"^{*}":13668,"Ġdeeper":13669,"Leg":13670,"Ġdefinite":13671,"earing":13672,"ĠSR":13673,"Ġinvent":13674,"Ġformulated":13675,"associ":13676,"Ġdiscrimination":13677,"ĠIT":13678,"Ġfrequent":13679,"ĠStudy":13680,"station":13681,"CTION":13682,"Ġparse":13683,"PG":13684,"role":13685,"cosh":13686,"ERS":13687,"121":13688,"^*_{":13689,"ĠUpdate":13690,"Ġbrothers":13691,"placian":13692,"Music":13693,"116":13694,"plots":13695,"Ġjudgment":13696,"ĠFront":13697,"ĠMexican":13698,"itian":13699,"help":13700,"ĠClark":13701,"Comput":13702,"Ġconcaten":13703,"taken":13704,"Ġpossibilities":13705,"jar":13706,"ĠTreat":13707,"ographical":13708,"Ġneglect":13709,"Ġproxy":13710,"Ptr":13711,"Classes":13712,"AU":13713,"Ġcontour":13714,"upsilon":13715,"settings":13716,"boundary":13717,"ĠDor":13718,"HI":13719,"Lat":13720,"Ġquantization":13721,"Ġbytes":13722,"ĠAllen":13723,"Ġpitch":13724,"Corollary":13725,"Ġbiological":13726,"ĠBGCOLOR":13727,"Ġprotocols":13728,"cv":13729,"supset":13730,"alion":13731,"Ġsends":13732,"ĠRow":13733,"ropolitan":13734,"Ġracial":13735,"tration":13736,"dark":13737,")\\|_{":13738,"uf":13739,"ĠLincoln":13740,"Ġcontra":13741,"Ġguest":13742,"Ġgar":13743,"Ġchair":13744,"Ġjun":13745,"ĠBishop":13746,"Ġinvertible":13747,"dynamics":13748,"Ġsnow":13749,"review":13750,"ĠHarris":13751,"ĠPremier":13752,"ancell":13753,"Ġgradually":13754,"Ġgates":13755,"Ġreject":13756,"Ġprocessed":13757,"$~\\":13758,"Cur":13759,"Ġdiseases":13760,"effective":13761,"ĠBlock":13762,"ĠPitt":13763,"classical":13764,"[]{":13765,"Mer":13766,"ĠDoctor":13767,"Ġsettled":13768,"Ġchairman":13769,"ĠSW":13770,"ĠBO":13771,"elve":13772,"Ġnormally":13773,"Ġgenetic":13774,"Ġminimizing":13775,"Ġinvestors":13776,"ĠIndones":13777,"Ġdiffe":13778,"Ġexperimentally":13779,"ilty":13780,"Ġasymmetry":13781,"uits":13782,"1919":13783,"Ġmapped":13784,"Ġneurons":13785,"pler":13786,"ĠMrs":13787,"Ġmoderate":13788,"}\\,.":13789,"|}\\":13790,"ĠURL":13791,"Ġturbulence":13792,"foo":13793,"Ġregimes":13794,"ĠJSON":13795,"sql":13796,"ĠJane":13797,"ĠMarine":13798,"Ġha":13799,"ĠStone":13800,"race":13801,"near":13802,"olid":13803,"Ġnm":13804,"caling":13805,"ĠFinancial":13806,"}\\|_{":13807,"Ġrelate":13808,"Ġdrivers":13809,"omas":13810,"havior":13811,"1934":13812,"sumer":13813,"Ġlawyer":13814,"Ġanticip":13815,"Ġtargeted":13816,"PORT":13817,"Ġswim":13818,".-":13819,"owed":13820,"Ġqualitative":13821,"Ġtiming":13822,"ipartite":13823,"Ġenjoyed":13824,"Ġbalanced":13825,"Ġvaried":13826,"Ġsake":13827,"rivacy":13828,"Ġrewrite":13829,"Ġphotos":13830,"Ġhomology":13831,"ĠCaptain":13832,"cohol":13833,"Ġsuffer":13834,"external":13835,"Ġforcing":13836,"BUG":13837,"Ġprotest":13838,"train":13839,"ĠBureau":13840,"Ġtuning":13841,"ĠWhit":13842,"ĠTH":13843,"ĠNative":13844,"ĠSimon":13845,"Ġscr":13846,"Ġcalculating":13847,"itzerland":13848,"Ġsensors":13849,"ĠHTML":13850,"ĠPlanck":13851,"Ġray":13852,"Ġelectricity":13853,"cpp":13854,"ĠTrade":13855,"ĠSquare":13856,"ĠCauchy":13857,"install":13858,"Ġspeaker":13859,"Ġtalks":13860,"hookrightarrow":13861,"Ġmil":13862,"Ġdots":13863,"ĠProt":13864,"ĠSav":13865,"Ġlob":13866,"Ġadmitted":13867,"ĠGRB":13868,"Ġtitled":13869,"hidden":13870,"ĠTennessee":13871,"Ġunsigned":13872,"Ġmigration":13873,"1929":13874,"Ġsounds":13875,"}}-\\":13876,"Ġinformed":13877,"Ġcraft":13878,"liest":13879,"Ġadmit":13880,"Rest":13881,"rv":13882,"Ġestimating":13883,"AI":13884,"144":13885,"Algorithm":13886,"Engine":13887,"potent":13888,"ĠEarly":13889,"Ġsynthesis":13890,"annotation":13891,"NOT":13892,"away":13893,"\\@":13894,"utors":13895,"ĠChange":13896,"Ġgains":13897,"Ġengineer":13898,"ĠHarvard":13899,"ĠMove":13900,"pole":13901,"Ġlegit":13902,"ĠRyan":13903,"ronze":13904,"abul":13905,"Ġaimed":13906,"Ġtemporary":13907,"mont":13908,"Ax":13909,"Ġacoustic":13910,"Ġcollaps":13911,"pancy":13912,"Ġpremi":13913,"Ġexamined":13914,"primary":13915,">.":13916,"Ġdivisor":13917,"Ġdemocracy":13918,"Ġcareful":13919,"Div":13920,"Ġnucleus":13921,"txt":13922,"Invalid":13923,"Ġutilize":13924,"Ġwalking":13925,"Ġattractive":13926,"GET":13927,"ĠTen":13928,"Ġexploit":13929,"Ins":13930,"Ġcollections":13931,"~~~":13932,"Ġperpendicular":13933,"Ġmotivation":13934,"Ġfranch":13935,"Ġtowns":13936,"Ġoxygen":13937,"Ġpreserving":13938,"bg":13939,"Ġsuffering":13940,"Cat":13941,"rames":13942,"Ġstrat":13943,"ĠTony":13944,"ĠGh":13945,"angel":13946,"backs":13947,"Ġpoles":13948,"entropy":13949,"Ġell":13950,"Ġthousand":13951,"ĠPhoto":13952,"Ġentreprene":13953,"plugin":13954,"+{\\":13955,"Ġmini":13956,"Cent":13957,"GBT":13958,"rett":13959,"Ġtries":13960,"detail":13961,"Ġkee":13962,"bean":13963,"Mart":13964,"estyle":13965,"tp":13966,"ĠPier":13967,"Ġdry":13968,".][]{":13969,"Sep":13970,"Ġpregn":13971,"aments":13972,"Ġlongitudinal":13973,"Du":13974,"they":13975,"empl":13976,"Ġarmed":13977,"Ġdemands":13978,"ĠEntertainment":13979,"Ġillness":13980,".,][]{":13981,"ĠClinton":13982,"mr":13983,"Ġfinance":13984,"rose":13985,"alog":13986,"Ġcricket":13987,"Ġcompanion":13988,"Display":13989,"ĠSeveral":13990,"Ġlayout":13991,"Ġautomatic":13992,"ewise":13993,"Ġdelta":13994,"450":13995,"ĠFro":13996,"Ġbehaviors":13997,"Ġpiano":13998,"these":13999,"Ã«":14000,"Ġviscosity":14001,"Ġshel":14002,"liers":14003,"Ġremarks":14004,"Oh":14005,"alph":14006,".\\,\\":14007,"ĠTheory":14008,"KEY":14009,"ĠYang":14010,"ĠEXPECT":14011,"Ġclick":14012,"Ġextensively":14013,"speed":14014,"ĠNASA":14015,"Ġinjection":14016,"Ġmagnitudes":14017,"Ġairport":14018,"thew":14019,"MeV":14020,"Ġtelling":14021,"Ġtransparent":14022,"Ġmissed":14023,"ĠDa":14024,"}$\\\\":14025,"necess":14026,"inality":14027,"ĠFa":14028,"Stack":14029,"Ġdialogue":14030,"Af":14031,"ĠReturn":14032,"Parent":14033,"Ġfo":14034,"tah":14035,"Str":14036,"Oct":14037,"maps":14038,"Ġfootballer":14039,"ĠDiego":14040,"!}":14041,"Ġmunicipality":14042,"Ġmig":14043,"consist":14044,"stats":14045,"West":14046,"Ġfly":14047,"Lu":14048,"oupled":14049,"Ġ=&":14050,"Flow":14051,"ĠChall":14052,"Ġuniqueness":14053,"ĠPur":14054,"Ġsurvival":14055,"acon":14056,"Ġchrom":14057,"Ġneuro":14058,"Ġvoted":14059,"Ġmotions":14060,"Ġsixth":14061,"Ġartifact":14062,"who":14063,"Ġgoverning":14064,"ĠNash":14065,"ressing":14066,"Ġamazing":14067,"Ġdiamond":14068,"allas":14069,"versal":14070,"Ġmine":14071,"Ġcompliance":14072,"Ġnur":14073,"END":14074,"ĠOnline":14075,"ÑĢÐ°":14076,"ĠSwedish":14077,"230":14078,"Ġappendix":14079,"paring":14080,",$$":14081,"dm":14082,"terms":14083,"anes":14084,"Ġkernels":14085,"Ġcompensation":14086,"rotate":14087,"Policy":14088,"Ġfought":14089,"Ġsymptoms":14090,"###":14091,"Matrix":14092,"Ġinsights":14093,"phony":14094,"''$":14095,"relations":14096,"horizontal":14097,"Ġease":14098,"fitting":14099,"basic":14100,"Ġdependencies":14101,"Ġconsumers":14102,"ĠMas":14103,"ĠLeft":14104,"ĠNig":14105,"Ġmorphisms":14106,"ivated":14107,"âĨ":14108,"ĠBorel":14109,"atim":14110,"ĠRiemannian":14111,"Boolean":14112,"rer":14113,"western":14114,"ĠVin":14115,"Euro":14116,"Ġss":14117,"Ġfeels":14118,"blog":14119,"Ġdwarf":14120,"Ġpointing":14121,"Ġcoronavirus":14122,"orted":14123,"Ġnarrative":14124,"Ġacid":14125,"Ġmicrosc":14126,"ĠAppro":14127,"Ġbrown":14128,"Ġaccompanied":14129,"Ġtwist":14130,"Ġmeets":14131,"leman":14132,"Ġwallet":14133,"Ġchap":14134,"ĠOtherwise":14135,"Ġhandling":14136,"Ġicon":14137,"ĠPath":14138,"Ident":14139,"PN":14140,"ĠAh":14141,"AO":14142,"1915":14143,"Ġiterative":14144,"Ġcontents":14145,"|\\,":14146,"XY":14147,"Param":14148,"Ġvisitors":14149,"ĠManchester":14150,"Ġretirement":14151,"atial":14152,"Ġverification":14153,"Ġcogn":14154,"ĠBible":14155,"ĠAlabama":14156,"Ġbounding":14157,"wait":14158,"icip":14159,"ibl":14160,"atern":14161,"Ġneighboring":14162,"Ġgrade":14163,"Ġachieving":14164,"126":14165,"Ġtokens":14166,"Ġcrimes":14167,"Ġhierarchical":14168,"zhang":14169,"Ġproto":14170,"Ġincorrect":14171,"Ġcoding":14172,"Ġafore":14173,"ĠNob":14174,"Ġflav":14175,"Ġcapability":14176,"ĠFight":14177,"FW":14178,"oly":14179,"ĠDeath":14180,"ĠPhysics":14181,"Ġjunction":14182,"Ġruling":14183,"Ġpictures":14184,"ĠPatrick":14185,"ĠMoon":14186,"Ġwaste":14187,"ĠSeason":14188,")-(":14189,"satz":14190,"ASS":14191,"ĠPeace":14192,"report":14193,"Ġinline":14194,"ĠClearly":14195,"padding":14196,"boolean":14197,"Ġcurrents":14198,"ĠNev":14199,"fund":14200,")}\\\\":14201,"Ġos":14202,"Mass":14203,"feature":14204,"ĠSFR":14205,"Comment":14206,"JE":14207,"Sto":14208,"bian":14209,"Free":14210,"Fields":14211,"Cy":14212,"algebras":14213,"Ġincoming":14214,"ĠTake":14215,"Ġmaintaining":14216,"ĠMI":14217,"nest":14218,"igroup":14219,"Ġprofit":14220,"Ġnamespace":14221,"Ġmodulation":14222,"ĠLib":14223,"Ġredshifts":14224,"ĠLook":14225,"Ġdiffers":14226,"Condition":14227,"Sql":14228,"uts":14229,"ahoma":14230,"glas":14231,"}:=\\":14232,"Ġdeterminant":14233,"triangleq":14234,"commut":14235,"Stand":14236,"Ġbyte":14237,"Pool":14238,"graduate":14239,"Ġgeomet":14240,"tered":14241,"210":14242,"Ġpromise":14243,"Tor":14244,"esis":14245,"Ġperturbative":14246,"Single":14247,"Ġtalent":14248,"Ġdifferentiable":14249,"Ġmaintenance":14250,"contrib":14251,"degenerate":14252,"ĠJam":14253,"pattern":14254,"estim":14255,"Ġoperates":14256,"ĠFix":14257,"Ġcritics":14258,"ĠPrior":14259,"Ġsuspect":14260,"ĠColon":14261,"implies":14262,"Ġobjectives":14263,",-.":14264,"Ġslot":14265,"variable":14266,"Ġ<=":14267,"ĠAuthority":14268,"ĠCra":14269,"Ġcontracts":14270,"Ġawareness":14271,"124":14272,"Ġemphasize":14273,"Ġevolutionary":14274,"Ġhorse":14275,"ardo":14276,"ĠRest":14277,"appoint":14278,"lix":14279,"ĠYouTube":14280,"ĠOrganization":14281,"wich":14282,"Ġgeneralize":14283,"Ġestablishing":14284,"Ġdirectory":14285,"Ġ(âĢľ":14286,"ĠSearch":14287,"Ġoptimize":14288,"Ġmodifications":14289,"Ġimplied":14290,"ĠConvention":14291,"kar":14292,"lov":14293,"Ġsustainable":14294,"formula":14295,"wen":14296,"BG":14297,"astro":14298,"Ġinfection":14299,"Ġanniversary":14300,"ĠDaily":14301,"keV":14302,"VI":14303,"ĠRegional":14304,"beq":14305,"ĠEs":14306,"overview":14307,"RF":14308,"Ġoscillation":14309,"proc":14310,"urers":14311,"Ġthorough":14312,"ridges":14313,"annon":14314,"ĠBat":14315,"Ġhosts":14316,"replace":14317,"ĠMicrosoft":14318,"Kind":14319,"ometer":14320,"ĠCzech":14321,"Ġcoherence":14322,"Symfony":14323,"ĠMarket":14324,"gap":14325,"unes":14326,"Ġdenom":14327,"ĠLaure":14328,"Polit":14329,"ĠAnthony":14330,"overs":14331,"ĠChap":14332,"Ġoverhead":14333,"Inv":14334,"Ġinert":14335,"Ġreputation":14336,"creen":14337,"overnment":14338,"Ġrepair":14339,"Argument":14340,"Video":14341,"predict":14342,"Ġlib":14343,"Ġentertainment":14344,"ĠKennedy":14345,"Ġmanagers":14346,"equilibrium":14347,"Ġcited":14348,"nod":14349,"122":14350,"192":14351,"las":14352,"ĠLegisl":14353,"rection":14354,"Ġgenerations":14355,"Ġabundances":14356,"ĠChang":14357,"agger":14358,"ĠMalays":14359,"Rober":14360,"got":14361,"ahn":14362,"Ġturbulent":14363,"Ġpoet":14364,"mask":14365,"imeter":14366,"ĠPlace":14367,"lapse":14368,"switch":14369,"account":14370,"Ġcomposer":14371,"Ġpurs":14372,"Ġfacilitate":14373,"Doc":14374,"Ġplanes":14375,"rin":14376,"Loc":14377,"Ġhang":14378,"Ġarrows":14379,"Ġsaved":14380,"Ġconsiderably":14381,"ĠCoulomb":14382,"\\,$":14383,"Ġaforementioned":14384,"Ds":14385,"nabled":14386,"Ġhyperp":14387,"Ġtraces":14388,"Prob":14389,"bling":14390,"ĠIC":14391,"Gal":14392,"Ġhappening":14393,"mot":14394,"ĠRL":14395,"integral":14396,"ouses":14397,"ĠRoll":14398,"cession":14399,"Ġaxi":14400,"usive":14401,"arameter":14402,"Ð½Ð¸":14403,"ĠCastle":14404,"çļ":14405,"Ġacceptance":14406,"ĠGraph":14407,"Ġexpat":14408,"quir":14409,"Ġownership":14410,"ĠĠĠĠĠĠĠĠĠĠĠĠĠĠĠĠĠĠĠĠĠĠĠĠĠĠĠĠ":14411,"owntown":14412,"ĠFederation":14413,"Ġparish":14414,"ĠAttorney":14415,"phan":14416,"Ġbasically":14417,"PhysRev":14418,"Ġestimators":14419,"auer":14420,"Final":14421,"gravity":14422,"Ġswitching":14423,"safe":14424,"decay":14425,"eigen":14426,"obi":14427,"missions":14428,"Ġtrains":14429,"papers":14430,"tting":14431,"ĠKentucky":14432,"Ġposts":14433,"tabularnewline":14434,"Ġpra":14435,"exception":14436,"Ġzeros":14437,"erving":14438,"Ġimpacts":14439,"ĠBos":14440,"Ġregulation":14441,"Ġexciting":14442,"ARY":14443,"ĠDream":14444,"Ġslice":14445,"ĠProperty":14446,"fc":14447,"190":14448,"area":14449,"Ġcompeting":14450,"1932":14451,"ithmetic":14452,"byte":14453,"Ġintegrate":14454,"EXT":14455,"ineq":14456,"Ġdeeply":14457,"mbf":14458,"}--\\":14459,
[...]
