#version: 0.2
Ġ t
i n
h e
Ġ a
o n
r e
Ġt he
e r
a t
Ġ s
e n
Ġ o
i t
o r
a l
i s
a n
Ġ w
Ġ c
Ġ Ġ
e s
a r
Ġ f
e d
i on
Ġa n
Ġo f
Ġ p
Ġ b
in g
Ġ in
i c
l e
r o
Ġan d
Ġ m
Ġ d
Ġt o
a s
Ġ \
o u
e l
c t
Ġ $
en t
Ġ h
Ġt h
e t
i l
o m
i g
s t
Ġ re
r a
Ġ e
Ġ n
at ion
i m
Ġ T
Ġ l
Ġ S
o t
o l
ĠĠ ĠĠ
Ġ is
a m
â Ģ
i d
v e
Ġ A
Ġ C
Ġ (
u t
Ġ g
c e
Ġf or
l y
{ \
u n
c h
o w
u s
u r
Ġ on
Ġ I
v er
Ġ M
Ġb e
Ġth at
u l
it h
a d
Ġs t
a y
s e
i r
q u
Ġ B
a b
Ġ P
u m
Ġw ith
Ġa s
Ġc on
e m
2 0
_ {
t er
o d
i f
Ġa l
Ġ H
r i
he r
Ġ F
Ġw e
e g
at h
Ġp ro
g e
en d
Ġ R
ĠT he
Ġ D
is t
ig h
t h
Ġ$ \
Ġ W
Ġw h
Ġ L
an d
re s
Ġ it
er s
Ġb y
e ct
p p
t a
o s
it y
m ath
Ġ v
Ġa t
Ġ N
a c
Ġa re
Ġc om
o p
Ġe x
at e
Ġ G
ro m
o re
Ġw as
il l
i v
es t
igh t
Ġ E
Ġ y
č Ċ
p h
Ġd e
u re
âĢ Ļ
ar t
Ġ &
o c
Ġ he
Ġ Ċ
i es
e w
1 9
} \
es s
ct ion
Ġf rom
t e
} $
l d
u b
Ġo r
^ {
u p
i al
m a
an t
Ġs e
ou n
i ve
in e
m ent
ĠĠ Ġ
a k
u d
Ġ J
p t
or t
it e
al l
Ġ r
ĠĠĠĠ ĠĠĠĠ
a g
T he
ou r
Ġ O
re n
a ve
p l
Ġs h
re f
Ġth is
el l
Ġ âĢ
ic h
Ġn ot
Ġc h
} }
Ġ un
20 1
o g
( \
re d
ic al
Ġ us
ĠI n
ar d
u st
Ġs p
Ġ le
ra c
i z
b er
f t
p er
at ed
' s
Ġh ave
x t
eg in
Ġ U
b egin
Ġ k
f f
Ġ =
ul t
e c
in t
r an
Ġcom p
or m
Ġc an
it ion
p s
0 0
as t
Ġ K
c al
Ġs u
_ {\
e ar
) $
ig n
ar y
c l
o st
Ġp l
Ġ -
d e
as s
d er
en s
ation s
on g
id e
i a
Ġre s
i an
g h
Ġw he
u e
Ġwh ich
Ġa b
. .
ou ld
} {
Ġc l
Ġal l
Ġh as
t her
d u
or k
a p
am e
a in
om e
t o
f rac
ac k
c c
e q
ou t
i p
a ce
ab le
ou s
im e
o k
) ,
a v
r m
Ġ im
i b
} ,
Ġ V
Ġh is
a ge
ion s
Ġ j
a ct
e qu
s o
en ce
r ight
c ite
as e
ic e
d s
Ġ "
i k
t he
r y
f e
te xt
Ġa d
) .
r u
Ġy ou
Ġa pp
a ch
Ġm e
ab el
ĠT h
Ġon e
ĠS t
i e
math b
Ġ en
c on
a re
f orm
Ġb ut
an g
Ġw ill
âĢ Ŀ
i re
ol l
al ly
el y
20 0
1 0
r ic
ĠC h
Ġp er
$ ,
Ġp art
l abel
et a
, \
Ġthe ir
un d
Ġo ut
$ .
o ver
Ġd is
ow n
Ġcon t
Ġal so
an ce
o v
ent s
I n
o se
in d
w o
math cal
equ ation
or y
er v
re e
or s
Ġn e
Ġwe re
Ġd o
or d
on e
ar k
} )
fe ren
Ġ qu
s p
ro w
Ġm ore
} .
Ġm od
ir st
Ġe v
res s
Ġthe y
at es
is h
c es
Ġa r
le ft
i le
m er
} (
Ġ up
ta in
er m
c om
cl ud
f ig
w e
oun d
Ġit s
Ġ ro
Ġ Y
} ^
Ġo ther
ri b
p ort
ver s
Ġo b
p ro
Ġm an
Ġwh o
l l
o ok
Ġs o
~ \
} _
am b
o b
v el
Ġa g
ĠâĢ ľ
ver y
Ġt e
en er
Ġt wo
oun t
ic s
o ve
Ġo ver
Ġ if
ph a
e p
Ġs c
p le
im es
Ġbe en
Ġs y
d a
ĠA n
r it
u gh
Ġg o
al pha
Ġt ime
ak e
ter n
Ġw ork
Ġf irst
1 8
ĠI t
s um
ul ar
k s
Ġh ad
l ine
j ect
o int
ĉ ĉ
Ġab out
ĠĠĠĠ ĠĠĠ
ĠH e
Ġ +
Ġo ur
Ġn ew
Ġthe re
Ġ her
) \
n e
l ic
ay s
y s
Ġ |
Ġy ear
c ent
h at
m b
Ġth an
ing s
he d
ĠU n
ut ion
ar i
ik e
Ġs a
f ter
Ġb et
Ġd es
p e
amb da
el ta
1 2
ĠW e
a us
$ \
Ġan y
Ġd if
ation al
h o
Ġs ome
oll ow
ran s
v i
at er
Ġs et
Ġwhe n
Ġt ra
Ġp re
Ġin to
on s
on d
i el
ra m
am ma
Ġw ould
Ġon ly
Ġwhe re
c ed
an s
Ġof f
le ct
Ġa cc
is s
ur n
_ \
u al
Ġcon s
c k
Ġex p
ol d
Ġsu ch
l es
Ġs ub
at ive
ra ph
a pp
Ġre l
Ġp e
ĠâĢ ĵ
m u
o f
et h
Ġf un
ou gh
Ġin t
- -
at a
d ition
i ed
mathb b
Ġk n
Ġ\ \
f in
il d
a w
st em
Ġre g
Ġf ollow
= \
s s
ot h
} ^{
} _{
d ot
at ing
op le
ol og
Ġ ra
um ber
if ic
ig ma
as ed
Ġcom m
ic t
s ub
Ġbe c
Ġfor m
Ġ {
i x
ra y
res ent
Ġsh ow
Ġp h
ĠTh is
Ġmod el
Ġthe n
- \
Ġn o
Ġun der
Ġf l
^ {\
Ġs im
eg a
Ġin ter
ar g
ro ugh
Ġp os
ic k
pt ion
it ies
is e
t t
Ġthe m
a il
c re
Ġres ult
1 1
Ġc o
ph i
id ent
we en
Ġs he
n ing
il ity
Ġpl ay
Ġg ener
Ġin clud
s c
Ġd ist
Ġ <
ro und
Ġf e
Ġc or
1 5
a x
Ġdif feren
l ambda
Ġ {\
in ce
o y
le m
Ġv al
u res
Ġthe se
e x
Ġa ct
Ġf in
p r
p art
o x
w ard
t s
Ġbet ween
Ġb l
ro up
Ġp ol
oc k
p os
Ġ [
b f
ment s
in k
Ġin v
ĠĠĠĠĠĠĠĠ ĠĠĠĠĠĠĠĠ
al s
iz e
Ġe qu
Ġpro v
Ġsa id
Ġfun ction
19 9
it ed
Ġm ay
t il
Ġt rans
mathb f
it s
Ġsy stem
Ġst ud
r on
ib le
re at
Ġe ff
Ġa fter
o ol
W e
ect ion
u es
ow er
il on
Ġpe ople
l and
Ġl ike
Ġm ost
Ġre c
Ġw or
p i
ĠC om
Ġg et
u g
Ġcon st
ps ilon
he n
aus e
Ġe ach
se ction
1 6
i ent
Ġa m
Ġpro b
ur ing
) ;
Ġg iv
Ġh ow
od e
in s
ĠN ew
Ġp oint
ĠR e
Ġs m
Ġus e
Ġwh at
ad e
Ġpro du
s igma
Ġcl ass
Ġres p
= "
1 3
c y
T h
Ġw ell
Ġl oc
r al
t ing
} {\
is m
il y
iel d
Ġj ust
Ġin d
/ /
s et
.. .
ar ch
1 7
al ign
^{ -
a ir
u ch
i o
Ġm at
Ġth rough
Ġc ol
ĠP ro
Ġus ed
s h
Ġ( \
at or
i vers
ĠD e
ĠA l
el f
Ġp ar
at ure
ru ct
Ġy our
Ġsu pp
1 4
b eta
Ġd ata
\ \
âĢ ĵ
t on
n er
ist s
ul l
Ġb ack
w id
mer ic
ĠF or
Ġm y
ub lic
math rm
Ġse e
t y
g amma
Ġs ol
b ar
m an
o od
an ge
Ġdifferen t
Ġapp ro
e ver
Ġex t
* }
Ġas s
Ġh im
he s
t ed
Ġ ent
p end
+ \
ri v
Ġs ign
iz ed
ot e
y n
he re
Ġs ur
ra ct
p ar
ren t
e e
us s
Ġc ase
Ġc ould
w n
m in
Ġn umber
Ġ }
as h
am p
Ġs ame
3 0
Ġre p
Ġsp ec
^ \
Ġyear s
r ho
] {
f ul
Ġ i
in es
ical ly
d elta
Ġag ain
Ġ est
Ġc ur
ire ct
c ess
o ot
r t
2 5
Ġh igh
Ġpart ic
Ġp r
the ta
ic es
oc i
Ġa c
Ġf il
ĠE n
R e
Ġne ed
ar ray
if e
as on
) }
Ġcomp le
Ġv ari
$ -
Ġb u
Ġin st
i er
e y
le q
Ġn ow
ta u
Ġ Q
Ġ end
p ut
vel op
Ġb oth
Ġe very
ch ool
Ġl ine
c er
er g
Ġm in
iz ation
an y
Ġn on
r ing
o h
ĠC on
u c
f ore
ot her
ar s
Ġ Z
re st
an n
Ġe m
Ġus ing
ab l
}$ ,
c dot
Ġ x
Ġf act
}$ .
id er
fig ure
form ation
a h
} (\
g an
Ġdis c
Ġg roup
Ġman y
ĠA s
is ion
Ġd et
Ġde c
am ple
en g
ar ge
Ġ ed
Ġbe ing
b ig
Ġt erm
ĠA meric
< /
ĠS h
Ġle ad
Ġth ree
. ,
Ġev en
or n
Ġo per
t en
em ent
f or
ut e
Ġc all
Ġc ent
Ġs erv
ar row
d ay
Ġst ate
in ed
n u
eq ref
Ġ very
f l
Ġbec ause
Ġr ight
t imes
al ity
as es
Ġex per
Ġat t
con d
Ġm em
Ġkn ow
Ġre t
eth od
ut h
m m
ak ing
Ġb el
et s
Ġgiv en
ir c
it em
part ial
Ġwh ile
iv ely
ers on
ft y
w ay
ot s
Ġper form
Ġ X
vi ew
' t
19 8
Ġl ong
am et
ction s
Ġeff ect
ro ss
in fty
. âĢĿ
olog y
p m
5 0
Ġre qu
ĠĠĠĠ Ġ
am es
Ġs er
r at
t le
Ġt y
ect ed
ion al
Ġm on
til de
2 2
Ġde fin
Ġw ay
p en
Ġdo es
Ġsh ould
ant s
Ġfollow ing
Ġ| |
at her
00 0
Ġar t
ivers ity
Ġd id
eq n
om ega
Ġf ound
2 1
Ġp a
ent ial
âĢ ľ
Ġ '
an k
Ġm ade
Ġor der
qu ad
g et
ĠS e
is hed
S t
ĠL e
ar ly
Ġsm all
Ġf am
ĠC l
en e
se c
Ġs ing
wid th
Ġst art
Ġc ount
w ork
ch n
Ġm ake
Ġse cond
a z
Ġ .
i ence
Ġg u
Ġth ose
l ed
v ed
A n
Ġe le
| \
Ġ *
ur al
2 4
Ġex pl
Ġbe fore
ĠS c
in ing
Ġde velop
D elta
er ing
v en
al e
Ġc re
Ġan al
over n
ab ility
in al
Ġt r
Ġ z
ou se
20 19
s erv
ag es
Ġde f
Ġdes c
ol ds
ul ation
ran g
c ol
Ġd uring
ĠAn d
a red
Ġm ed
en cy
Ġch ar
Ġm uch
ĠĠĠĠĠĠĠĠ ĠĠĠ
ore m
h i
sp ace
Th is
a j
i qu
Ġpro cess
Ġl ook
201 8
Ġd own
Ġs ince
v ar
Ġcont in
ter s
g ram
n ess
Ġresult s
\ ,
Ġl ast
Ġhe l
res p
s im
x i
c a
Ġwor ld
r um
Ġad d
v ent
ce pt
w here
Ġs l
ou th
al th
Ġre f
i red
u ally
m e
Ġm ethod
ĠS p
Ġsupp ort
r id
Ġp resent
e k
v al
h ip
} }\
el s
Ġf ind
b y
Ġv i
Ġprob lem
I t
Ġd irect
2 3
Ġob tain
)$ .
Ġme as
Ġhe re
re ad
Ġpos s
Ġd i
} [
Ġgo od
er n
Ġin cre
iv es
ri x
Ġre ad
Ġte am
Ġre al
iss ion
Ġfil m
ĠA r
19 7
b ers
Ġ$ (
ĠI s
a u
r ong
Ġen erg
Ġh and
or th
Ġo wn
Ġm ass
w w
Ġc ar
er t
ur y
it al
ĠH ow
Ġf ield
al k
m ber
re l
Ġp res
an e
i ous
Ġg ra
ff ic
n ot
e psilon
ĠA d
r ation
Ġre le
ar l
Ġst at
. "
in ess
eqn array
Ġin formation
ĠB l
Ġcomm un
Ġ u
Ġcon dition
ar n
k e
ĠO n
Ġpar amet
Ġp ublic
v es
if ied
s on
} _{\
ar m
g g
Ġm ain
Ġst ill
i or
er r
et work
us ic
Ġr un
s q
om en
$ $
l ess
ak es
O m
Ġw rit
201 7
Ġm ult
Ġrep resent
in a
b all
Ġto p
ĠIn d
te rest
Ġresp ect
Ġa round
4 0
Ġre m
Ġt ake
Ġm et
le y
b e
Ġre port
F or
vi ous
our ce
ĠUn iversity
ro l
ro p
le t
Ġpro per
Ġsp ace
Ġe lect
ag n
ĠC ol
ver t
Ġst and
en se
oh n
ĠF ig
Ġinclud ing
Ġg l
ps i
Ġf our
201 6
, âĢĿ
Om ega
Ġl arge
in clud
Ġl im
an c
: //
ĠP h
E x
Ġagain st
Ġp op
^ *
e b
Ġdist rib
Ġa v
Ġth ink
Ġp ower
Ġhel p
Ġo pen
ĠI f
G amma
)$ ,
Ġd on
os s
Ġob serv
Ġval ue
Ġprov id
ĠS he
ang le
Ġchar act
it ive
Ġret urn
Ġl it
ur ther
Ġw ant
Ġcons ider
Ġin de
et y
Ġim port
Ġp at
g l
Ġall ow
Ġb ound
Ġenerg y
ro du
m it
g er
Ġloc al
A s
Ġ čĊ
ut ions
6 0
iv ed
ol ution
ra w
sq rt
E R
Ġle vel
o le
ĠâĢ Ķ
r is
Ġth ough
Ġ /
2 7
Ġre st
Ġgener al
v are
ĠP l
Ġm ark
ĠAmeric an
Ġdes ign
Ġst ruct
b m
Ġl ife
ĠM ay
Ġv is
Ġc he
Ġs ay
us iness
Ġ ident
raph ics
Ġ :
2 8
Ġ ve
un e
ĠB ut
m ed
Ġb est
vare psilon
o ber
Ġo pt
Ġas sum
at ely
ial ly
Ġb ased
r and
re m
Ġt est
ĠUn ited
201 5
em ber
Ġ$ {\
mb ol
c o
Ġh ist
Ġs om
r ist
sub section
ĠM ar
Ġp erson
re t
Ġra d
C on
en n
text bf
}^ {\
Ġin terest
right arrow
ĠE x
Ġte chn
Ġg ame
Ġdesc rib
Ġb as
od y
f ra
ord ing
Ġle t
" >
Ġor ig
s ide
) =
2 6
Ġc our
y le
at ch
Ġm ov
ric t
Ġpro ject
b l
um n
if y
feren ces
u ro
ct or
201 4
ĠâĢ ĺ
^{ (
is ed
ĠT e
or ld
Ġpro gram
} =
overn ment
im ens
Ġ el
Ġab ove
Ġ ,
âĢ ¦
ĠW h
Ġch ild
in c
H e
av ing
Ġl aw
Ġpro f
Ġbe h
Ġs chool
Ġt ri
Ġkn own
Ġs cal
Ġc al
Ã ©
iv al
Ġ\ ,
Ġcor resp
ith m
Ġb ook
i am
il ar
b s
i ver
C h
1 00
Ġre ce
Ġle ft
Ġmeas ure
ĠR es
t al
Ġp ass
Ġc le
Ġwith in
p or
cc ess
ill ion
Ġd em
y m
eg raphics
Ġad dition
includ egraphics
2 9
ot t
Ġd ay
ens ure
Ġex ample
o ad
Ġp ost
Ġt em
Ġl ist
Ġpartic ular
ĠThe y
Ġm ust
S T
i um
c m
re en
um er
Ġest im
) )
ca ption
ĠĠ Ċ
ub l
Ġpl ace
Ġs at
ur s
rang le
* *
Ġcur rent
Ġim p
Ġs up
or ies
Ġre ma
201 3
Ġint eg
Ġn ame
Ġcon f
Ġinv est
Ġwith out
ĠA ll
Ġcon tain
Ġfam ily
de f
g or
Ġs um
ch i
g es
y l
Ġd en
Ġn etwork
ri pt
ra d
Ġan other
ĠJ ohn
Ġn ear
th s
Ġis s
Ġhe ad
Ġb ro
in ation
ĠB e
Ġg reat
Ġf ew
Ġ et
tern al
' '
op e
em ph
Ġal ong
Ġbu ild
w h
ĠT o
Ġd ue
Ġin c
rac k
n on
os ed
iv id
Ġcomp ut
o id
ĠC ent
og raph
a im
Ġne xt
. ~\
ir d
s k
w ays
201 2
Ġcall ed
uth or
ent ion
Ġpro t
Ġsing le
Ġstud y
ge q
t ab
var phi
ĠU S
ac es
Ġo cc
Ġdisc uss
l im
Ġw in
" ,
Ġad v
tern ational
Ġor gan
I N
Ġc ap
Ġl ow
Ġcon n
Ġc are
i j
Ġin it
ĠC an
orm al
Ġf re
Ġre du
Ġp ot
4 5
Ġsp ect
Ġt urn
am pl
Ġh y
i od
Ġh um
Ġan n
pro of
aj or
Ġser ies
over line
Ġsh own
Ġme an
Ġl ater
ref ore
ĠHow ever
Ġk e
Ġ >
19 6
er y
gor ithm
& \
pend ent
Ġdet erm
Ġd el
ĠA t
A R
A T
eta il
at ors
m od
Ġb re
er o
a ps
l og
ens ity
ri es
Ġval ues
Ġch o
âĢ Ķ
iv ing
Ġ- -
Re ferences
) ^
pos ition
im al
ic le
. }
ur ch
ian s
o ard
201 1
Ġcharact er
Ġo pp
ĠO r
201 0
3 5
at ic
Ġre se
ys is
Ġl arg
ĠSt ates
ĠF ran
Ġh ig
st and
Ġse ason
pl oy
Ġgo ing
O N
Ġimport ant
Ġsim ilar
le ction
Ġse ver
Ġ ide
Ġshow s
ward s
-- --
Ġw on
ific ation
Ġle g
ĠY ou
}, \
a i
oc ial
Ġg row
B ig
us e
c he
a pt
et ic
Ġterm s
Ġl at
Ġh ome
L et
f ace
i ents
Ġp red
Ġst rong
ist ic
Ġl ess
ĠJ u
ĠCom m
Ġs ays
Ġob ject
ĠJ an
Ġqu ant
se e
re am
Ġprodu ct
at ures
is on
Ġa ff
b le
x im
ri end
feren ce
ĠM an
Ġ `
} ).
Ġto o
ent al
Ġmodel s
ail able
Ġd om
Ġsever al
y mbol
Ġs ection
Ġfollow s
Ġposs ible
Ġs k
Ġpoint s
Ġs it
[ \
ĠC ount
b ack
fra k
ve c
Ġpol it
Ġre ally
ĠThe re
ir on
Ġch ang
ĠW orld
l i
pl ay
Ġapp ear
iv ity
Ġoff ic
Ġpl an
P ro
Ġvi ew
Ġcontin u
Ġare a
an ces
h line
mm et
Ġty pe
Ġqu est
Ġm usic
Ġe as
ab ly
Ġf ull
ĠN ational
c ul
Ġb usiness
Ġc ou
Ġcorresp ond
3 3
as k
Ġ vers
ĠC o
Ġph ot
om et
it her
Ġc rit
ĠY ork
.. ..
id d
re g
es p
8 0
pl it
L ambda
} }$
Ġ Â
Ġbet ter
en ces
ne y
yn am
Ġch ange
e ad
Ġpot ential
b ra
Ġl a
or ph
Ġh app
Ġass oci
o or
end ed
e red
Ġcom b
O n
Ġo ld
A S
is f
is ter
Ġf ree
Ġev ent
B y
Ġre cent
u le
Ġpos ition
Ġpre vious
A l
in ks
Ġdefin ed
s elf
Ġle ast
ress ion
op er
ĠP ol
Ġcont rol
Ġint rodu
iqu e
pl ic
ur b
ight s
f er
b olds
Ġex ist
Ġm om
Ġde pend
Ġt imes
ld ots
math frak
A N
ĠN o
n ew
l angle
ĠG e
bolds ymbol
os p
if t
w ith
com m
Ġun til
Ġim pro
ĠA pr
ore d
ĠA ust
as ter
Ġcont rib
er tain
ĠO ct
9 0
l ing
Ġc at
eng th
um ent
Ġse em
Ġd er
s f
Ġg overnment
ĠA ug
Ġwe ek
Ġsu ccess
g ed
uro pe
al f
C om
a ction
Ġdistrib ution
is ing
Ġav ailable
Ġb ig
st it
Ġsp e
Ġcomp any
g in
Ġman ag
Ġsign ific
200 9
Ġen g
Ġper iod
) :
Ġbel ie
ot imes
I f
app a
Ġm ajor
Ġne ver
Ġp ut
om an
Ġd eg
Ġto tal
ĠThe n
Ġh ard
du ct
Ġstruct ure
c hed
Ġf urther
ud e
Ġm agn
ensure math
ang u
Ġest abl
ĠJu ly
con om
P hi
Ġm ight
oc us
ĠCh rist
ĠS chool
ap e
ĠW ar
us h
Ġst ates
u pp
cite p
Ġfin al
olog ical
n o
u ck
Ġal ways
Ġd etail
our ces
ĠM arch
200 8
or g
Ġs ide
Ġs ize
u ary
Ġb and
Ġf oot
b um
cl us
0 5
Ġinv ol
O R
oun g
Ġsh ort
e ps
Ġl and
Ġty p
3 1
Ġc ost
Ġstand ard
Ġat ta
err or
m p
l in
3 2
ru ction
Ġe arly
ĠG u
ĠJ une
Ġapp lic
u x
T o
mb ox
n ame
Ġa ver
r im
ĠM in
ix ed
E S
ut ure
Ġst ory
ĠS ec
text it
Ġplay ers
ob al
ĠF l
ĠB y
Ġa ut
ĠA ir
} )$
Ġpa per
Ġw omen
iel ds
Ġperform ance
c it
c ur
ĠM ed
Ġsat isf
ĠM on
sub set
Ġinclud e
Ġl ight
tt p
Ġph ys
th ough
Ġin s
ĉĉ ĉĉ
. \
c irc
s m
k appa
ĠS outh
Ġm ot
id ence
d is
Ġv ol
Ġde v
w ide
al es
Ġappro ach
ĠW ith
eth ing
l er
Ġcom e
ĠC ar
v iron
i pp
19 5
c hes
7 5
ĠB rit
p d
Ġ #
Ġrec ord
cent er
Ġcomple x
Ġexper im
Ġc ell
Ġpro m
ĠSt ate
3 6
pos ed
Ġf ac
n abl
ĠL et
0 1
se qu
Ġg ive
ĠC ity
ĠS te
ĠE urope
Ġhe alth
ag ue
im um
b it
a f
Ġc ity
Ġr ate
th ing
il it
Ġl ik
Ġm ove
ĠA pp
ĠS o
U n
ide o
Ġse en
st er
Ġprov ide
I I
} ),
Ġs elf
Ġme ans
non umber
Ġanal ysis
Ġmem bers
4 8
Ġm ax
m at
pt ember
m ult
Ġse qu
Ġcomp on
Ġcount ry
Ġsol ution
Ġreg ion
ĠApr il
Ġsignific ant
in o
as ing
9 9
Ġobtain ed
nabl a
m ost
Ġal gorithm
t ies
ĠC al
read y
Ġind ic
= =
em pt
ic y
Ġappro xim
" .
Ġthe ory
our s
Ġa ction
ĠM c
u ation
ip le
ak en
\ %
Ġan t
on es
ent ly
at s
ivid ual
ĠCount y
e v
7 0
our n
od es
ĠF eb
Ġr ange
Ġpred ict
Ġcl aim
g round
Ġp ract
, "
dot s
es c
et ing
Ġlim it
ex p
ĠW ill
ial s
Ġf ar
Ġde ath
le ge
Ġs ong
Ġsystem s
}} {
3 4
ab les
un g
Ġc over
t r
Ġc oll
Ġlit tle
ĠĠĠĠĠĠĠĠ ĠĠĠĠĠĠĠ
Ġw ater
Ġam ong
w it
Ġar g
ĠE d
Ġbec ome
Ġof ten
\ |
Ġrel ations
h t
Ġac ross
ro ll
P s
Ġchild ren
200 7
n ow
Ġspec ial
Ġc irc
Ġf ore
a ut
id es
r ated
ĠTh at
Ġg raph
u k
ĠThe se
ch ie
h am
Ġd ensity
on y
Ġ @
Ġdif f
it or
Ġm illion
ri ed
Ġg ot
Ġh aving
Ġa uthor
} ;
ĠA ss
Ġm ar
il le
il de
get her
Ġto gether
ĠN orth
ar ning
ĠR ep
b ox
3 8
\ [
t ime
S igma
Ġin f
Ġparamet ers
Ġf ocus
a ugh
F ig
_ _
Ġrese arch
Ġmat rix
Ġhum an
i i
et er
Ġsom ething
Ġhig her
ĠC or
Ġhist ory
ove mber
o ff
E N
Ġfunction s
Ġconst ant
ra p
Ġal ready
ut es
ĠAug ust
Ġfor mer
ĠOct ober
Ġe p
Ġth ings
re w
e f
Ġp ubl
lect ed
Ġdescrib ed
Ġab le
ĠP art
A L
s y
e xt
ĠSe ptember
Ġf ive
t able
Ġal bum
ĠA f
A C
ce mber
Ġas k
Ġacc ess
/ \
ĠJan uary
ra ft
ĠO ne
} -
Ġt ry
am ed
Ġacc ount
ac y
ampl es
p ect
Ġcommun ity
e le
one y
Ġb i
h y
Ġab s
c or
Ġbec ame
Ġcondition s
Ġd ays
Ġl ower
3 7
Ġen ough
Ġm aking
4 4
Ġserv ice
ĠH ar
Ġc amp
or der
Ġ ver
Ġa way
s er
Ġp riv
Ġn eg
w are
en c
Ġf riend
ĠA b
Ġc ases
I C
viron ment
r ate
Ġequ ation
z e
Ġind ividual
er al
ĠP res
Ġe ither
Ġsu gg
ĠS y
{ -
Ġsugg est
E n
Ġl inks
200 6
ĠG erm
at ural
ec ess
d raw
Ġ q
il t
Ġst ar
Ġh om
Ġa ir
Ġto ok
ab or
ĠM e
wid et
Ġtem per
g y
and om
I S
a ul
' ,
Ġen c
3 9
on al
Ġtra ining
Ġc ross
ĠAust ral
Ġorig inal
Ġf uture
Ġs ocial
Ġe mb
Ġre view
ron t
Ġin fl
Ġem ploy
Ġt it
Ġp air
Ġc ertain
Ġmom ent
Ġtr ue
ĠP r
Ġl ot
ru ary
Ġrespect ively
Ġfe atures
Ġbel ow
Ġp ath
v ing
in ary
cent ering
\ !
Ġcorrespond ing
Ġcal cul
Ġth ird
Ġunder stand
b ased
Ġp ay
ib ility
an a
ĠW hen
Ġb ir
Ġcomm on
widet ilde
Ġbl ack
ide red
rat eg
Ġl ay
re et
Ġp ri
ort un
col or
ure d
ĠB ar
Ġm en
ĠN ovember
ad a
oun c
Ġfe el
Ġp ast
if f
ra in
0 7
0 4
ĠM ore
c le
ly ing
0 6
Ġc ult
ww w
Ġph ase
Ġaver age
ran sp
Ġke ep
Ġ` `
og n
th m
Ġro le
r ant
Ġdevelop ment
ir m
Ġcons idered
0 8
at t
ĠR eg
Ġfe ature
Ġm ater
ĠS ch
20 20
Ġse par
il es
i us
d d
Ġre ason
Ġm ap
Ġcon cer
in ally
ĠDe cember
ow s
angu age
Ġ )
ĠR uss
Ġk ey
Ġd imens
ĠEn g
Ġsup er
ĠR ec
Ġw ar
Ġinvest ig
end ing
pp er
a int
r ary
z eta
Ġf ram
ar ing
Ġvari ous
a e
Ġt arg
or ds
gl ish
Â ł
Ġf und
Ġl oss
he ad
pr ime
Ġfre qu
i ps
t ic
ĠP e
Ġde b
s l
Ġcons ist
Ġcomp et
il ities
Ġhow ever
he l
Ġinit ial
Ġim age
ot es
Ġh ouse
le x
H ow
E D
ĠW est
) (
Ġwork ing
a ff
Ġpro of
Ġc ame
\ {
4 9
i ber
Ġa chie
ress ed
ut ed
\ ]
Ġind ust
Ġt aken
ra g
ĠA fter
Ġed uc
Ġp ort
ell ing
Ġl ove
ĠD av
ĠThe orem
Ġg en
ĠS ection
Ġe conom
Ġre pl
Ġpos itive
ĠA g
h ib
Ġwh y
Ġa ge
con t
} +
ond on
ul es
tab ular
Ġs ource
m l
un der
tt ps
um p
ess age
; \
n ers
Ġ( $
Ġ ill
) =\
ĠĠĠĠ ĠĠ
Ġh alf
Ġg ames
row n
ust om
Ġcour se
( )
id th
0 2
Ġd ynam
Ġassoci ated
ac ed
c ap
ill ed
Ġv ia
Ġcl ose
Ġcor re
C l
Ġg e
Ġs ix
ch an
Ġbeh av
ffic ient
Ġan g
ĠA rt
Ġj o
ĠFeb ruary
Ġd at
4 6
ir l
Ġacc ording
ĠE q
- >
I T
Ġparamet er
200 5
u ff
Ġf it
ap an
0 9
Ġwhe ther
d ing
ĠA m
a ult
Ġc y
Ġl og
it ing
c os
s el
ograph y
Ġb o
r ite
am a
Ġf ail
Ġth us
Ġstud ents
b or
ĠK ing
em ma
4 7
ul ations
ma x
Ġr andom
Ġinde pendent
0 3
Ġd one
Ġl ines
{ (
om orph
ic ro
ian ce
ener al
ver se
Ġp ress
Ġt reat
Ġev ents
ĠG l
The re
Ġm akes
5 5
ition s
Ġd ou
Ġs em
wh ich
ard s
Ġmethod s
on t
ĠP ar
Ġrequ ire
} =\
Ġline ar
ĠD ep
is k
op s
f ield
ill s
al ax
ĠE l
o on
ĠH is
Ġother s
Ġle arn
20 00
ple ment
) ^{
Ġvers ion
A M
Ġbe com
ĠP ark
} ]
Ġgroup s
Ġs ent
Ġn ormal
ta ct
Ġt w
n a
Ġto day
op y
Ġfoot ball
Ġex act
Ġsy mmet
Ġs ite
) }\
s cal
Ġpr im
~ ~
s w
ĠQ u
ie f
Ġplay ed
Ġprof ess
Ġ& =
Ġfin ite
U S
Ġde al
Ġc ut
Ġr ather
ourn al
le v
ar ies
Ġquest ion
Ġde p
Ġn ational
Ġon ce
Ġexper ience
um e
b ook
al y
Ġy oung
ort s
Ġsim ple
st yle
ĠH ouse
E C
ri ption
Ġal most
an ta
ĠP er
d om
Ġpop ulation
I D
. ~
Ġexp ected
$ )
An d
Ġf ig
ounc il
à ¤
ict ion
Ġwork s
com p
her s
ĠAf ric
Ġann oun
Ġd ire
Ġn ecess
on se
Ġanal y
Ġrele ased
Ġs ens
Ġobserv ed
Ġe ver
k et
c ast
id s
ĠCom p
med i
Ġexp ect
Ġpro posed
Ġsc he
Ġsur face
ĠT ra
ul a
B C
Ġdid n
w ise
ĠĠĠĠĠĠĠĠĠĠĠĠĠĠĠĠ ĠĠĠĠĠĠĠĠĠĠĠĠĠĠĠĠ
ho od
Ġserv ices
Ġhe ld
Ġmem ber
Ġrel ated
iz ing
ish ing
ĠL ondon
Ġcl os
Ġve ctor
pp ed
}_ \
S h
Ġwrit ten
u ed
Ġbuild ing
Ġ //
ing ton
Ġa rm
Ġmult i
in ter
at ter
Ġag re
t op
Ġp ur
Ġv ideo
y pe
Ġte xt
Ġprodu ction
Ġar ch
ear ch
ect or
9 5
ĠAmeric a
}^ \
oun ds
Ġto wn
ĠM y
ĠPres ident
ĠA ct
200 4
ĠNew s
, -
Ġfact or
ord in
math sf
ĠBrit ish
um b
f oot
ĠB ro
P h
g o
ad em
Ġproper ties
ĠS m
y ear
Ġre d
Ġact iv
6 5
Ġst ep
Ġd oc
Ġc aus
Ġexpl ain
min ist
cdot s
}) \
A P
Ġpro p
Ġcou pl
Ġrece ived
Ġnew s
ĠS ince
ot ed
Ġprovid ed
Ġw ent
Ġr at
Ġreg ular
Ex ternal
ĉĉ ĉ
Ġc r
Ġch all
S p
en ed
ĠM ark
s in
oci ety
Ġl ive
o ch
Ġn ight
con st
Ġev al
ge bra
amp ions
Ġt aking
uc le
oc al
im ate
wide hat
Ġm iss
: :
Ġinclud ed
Ġreport ed
Ġh old
{ {\
Ġj ob
ĠH am
}\ ,
} |
Ġmat ter
ĠW hat
Ġb ody
Ġcle ar
ĠIn ternational
Ġh ost
e al
Ġent ire
ĠL a
Ġbe gin
p oint
s ing
Ġn umer
Ġz ero
es e
Ġt alk
Ġl o
Ġmark et
un ction
ig en
Ġstart ed
Ġproper ty
er a
R E
Ġst rateg
ĠH igh
Ġmed ia
N ew
ĠĠĠĠĠĠĠĠ Ġ
i res
Ġg round
}} (
sc ript
ic ult
res h
m ore
Ġre n
Ġrequ ired
W hat
Ġl ength
Ġth ing
ast ic
text width
Ġ< /
ene f
c ell
Ġper cent
lem ma
ad d
ce ed
ar th
Ġwh ose
Ġgiv es
idd le
ĠEn glish
Ġle arning
Ġequ ival
ur g
rum p
id ed
y ing
.. /
ac hes
w ed
ĠJ apan
Ġeffect s
Ġact ually
ĠI I
rac y
Ġ\ {
i et
l ike
p re
. )
ens ion
Ġthough t
ren ch
Ġapp l
^ +
& =
Ġvi ol
Ġdef ine
te e
ann el
Ġbe gan
Ġele ments
Ġen vironment
Ġy et
Ġgl obal
ĠFig ure
b r
Ġcan not
ĠM ich
Ġcare er
c ing
ĠN ot
Ġsub ject
Ġref er
pd f
q quad
ce ption
Ġin put
f ord
Ġex ists
Ġimpro ve
ist ory
Ġpolit ical
app ro
l ation
Ġp an
Ġtemper ature
Ġlarg er
ra ction
Ġmat ch
6 4
a el
Ġk ind
ĠG o
av es
Ps i
Ġb it
Ġn atural
on st
u el
t rans
Ġdist ance
Ġim plement
Ġspec ific
b b
Ġchang es
ĠS erv
g ress
ĠN e
led ge
op t
Ġscal e
Ġf all
o e
ec ially
ilit ary
Ġ error
c up
Ġsp in
ĠD is
Ġp o
}^{ (
Ġd ri
on ic
iv en
' re
Ġcl ust
Ġaddition al
ĠC he
Ġh or
Ġim pl
ĠSt ud
Ġto ld
a ign
Ġm oney
op h
Ġcomp an
Ġcon ver
g en
ĠF rom
Ġf ixed
Ġpubl ished
ra int
Ġb ar
Ġun it
Ġche ck
te x
end s
ic les
f act
Ġs w
Ġwor ds
om s
Ġam ount
Ġf av
ĠH er
at rix
Ġtarg et
Ġprob ability
is es
4 2
ĠWill iam
Ġ$ (\
Ġeffect ive
av y
Ġresp ons
ĠS er
ove red
) ]
il m
Ġw ind
Ġbre ak
Ġb ase
sm all
Ġincre ase
un ch
ĠPh il
il i
ĠS im
Ġwho le
at ory
Ġconst ruct
Ġpartic ip
Ġassum e
d iv
Ġso ft
and s
Ġele ment
Ġmon ths
Ġcomple te
Ġsequ ence
e ff
Ġs ure
}\ \
Ġatta ck
Ġg as
Ġdeg ree
p ly
Ġt re
Ġmult iple
Ġquant um
Ġrec ogn
Ġt ax
ens ive
Ġcom es
Ġme chan
ĠF irst
S S
ĠA rm
Ġlik ely
Ġex ec
s up
Ġa ud
bs ite
Ġimp act
d en
Ġbu ilt
x space
ĠD ist
Ġt ell
at ives
ĠD o
ul ly
cl ass
Ġd iv
Ġg alax
ĠCol lege
de fin
Ġs qu
k ing
200 3
al t
Ġt rack
ir t
le ase
Ġdiff icult
Ġsh all
Ġd r
ult s
4 3
ransp ort
Ġl ate
Ġcomp ared
Ġt akes
ag ram
Ġpre c
Ġfl ow
rid ge
ĠS up
Ġthe refore
oper ator
ru g
ĠM r
Ġsy n
ar c
ĠC our
se mb
m on
8 5
Ġb enef
Ġc ustom
m ark
Ġl abel
st e
ect ions
( {\
om b
Ġs ense
Ġd est
ĠL emma
and id
Ġcomm it
B ut
Ġdoes n
it ect
) -
Ġcont ent
Ġf ace
Ġnot e
Ġeff ic
Ġel se
Ġbro ad
Ġinfl u
esp ecially
Ġproblem s
es tern
Ġst ation
Ġinst ead
ĠCon t
if orn
l oad
um bers
ĠCent er
o res
ar a
C C
Ġne igh
Ġcomp ar
Ġwe ight
A r
Ġloc ated
Ġn amed
ur ation
at ively
ĠU K
W hen
Ġlead ing
A t
L E
r ig
d own
ĠL aw
at tle
Ġoper ator
it es
Ġdifferen ce
ind ent
ĠD em
Ġprovid es
Ġbas is
ĠInd ia
Ġpri or
ĠS an
ĠV al
Ġpol icy
Ġpresent ed
sel ves
Ġ ...
cit et
ĠAn g
ist ics
Ġed ge
am s
ĠTh us
Y ou
Ġcat eg
st ar
Ġide a
ict ure
iforn ia
ve y
Ġtra dition
Ġn ode
4 1
iv il
ĠP at
200 2
Ġpres ident
equ iv
th is
Ġf ields
r up
Ġreg ard
k y
art ment
an ced
or ge
Ġn ov
ic ol
Ġcor rel
Ġbl ock
6 6
Ġsol utions
oun ter
Ġadd ed
en ing
at ur
Ġare as
Ġse x
Ġtit le
Ġcent ral
ot a
Ġiss ues
pro p
d imens
Ġ& \
ĠM or
ĠLe ague
Ġs ample
Ġpriv ate
Ġestabl ished
Ġcre ated
o oth
O S
Ġplay er
Ġl anguage
ul ated
k n
n ode
Ġatt empt
} :
Ġag o
Ġim ages
ht ml
ou l
Ġcomple t
9 7
ou d
end er
P S
Ġac cept
Ġits elf
Ġneed s
Ġeng ine
pp ing
M S
Ġon line
ar ily
A A
Ġinclud es
Ġst ars
Ġst e
ma il
Ġiss ue
Ġst yle
Ġbeh ind
W ith
Ġup d
}} {\
Ġcre ate
R es
r ast
n es
---- ----
S ee
] $
u it
Ġcl ub
h space
H E
Ġpart y
ĠO b
Ġun ique
Ġfl u
200 1
Ġwe ak
m id
h a
ĠT rump
an ks
Ġdo ing
ĠT r
Ġus er
Ġl ed
P l
a ctions
Ġstud ies
Ġpop ular
Ġf ood
ĠA c
Ġb ring
it ude
ol ic
al le
ĠDav id
Ġ especially
Ġadd ress
Ġp ack
| -
ĠAss oci
Ġindust ry
Ġro ad
Ġf ront
sp an
Ġe y
Ġresp onse
Ġin ternational
ol ar
Ġequ ations
sk ip
Ġse arch
ĠCh ina
al se
Ġdom ain
m ar
el oc
k en
Ġlook ing
oc rat
A D
anc ial
f ect
ĠRep ublic
Ġm ention
ut ive
operator name
D e
Ġpr inc
Ġbound ary
Ġperson al
a res
Ġre ve
Ġlit er
W h
7 7
} +\
ĠP al
Ġocc ur
Ġopp ortun
Ġcon duct
| ^
ĠA cc
Ġdire ction
Ġset s
ĠR ed
n eq
Ġim m
ĠG od
Ġse cur
th at
Ġ ess
Ġqu ite
Ġdem onst
m y
in ated
9 8
A ll
n s
r or
Ġh olds
Ġspec ies
Ġup on
Ġp ers
Ġg re
ren g
Ġc ode
on ds
Ġhist or
sc r
5 00
Ġl ink
Ġphys ical
ĠH ol
Ġs us
c i
Ġcontain s
ari ant
ĠT V
g ing
Ġdefin ition
ĠS en
ĠE ast
Ġst age
Ġden ote
ĠO ur
O M
Ġfilm s
k er
Ġw rite
m ing
Ġcommun ic
Ġdevelop ed
ro te
Ġconst ruction
v ille
Ġneed ed
Ġdetail s
wo od
Ġo p
Ġmon th
ell ow
Ġpro ve
Ġh it
iz es
use um
Ġcent ury
Ġcompan ies
Ġout side
ĠAir port
un ic
Ġv ill
Ġd ig
Ġincre asing
Ġdat as
ous ly
b orn
Ġcamp aign
Ġ vert
Ġ ut
ĠF rench
Ġcont ract
ĠCal ifornia
Ġcl osed
ĠInd ian
Ġseem s
Ġart icle
h ttp
Ġc andid
A meric
Ġsim ply
L e
Ġcon text
if orm
Ġbelie ve
O T
ber g
Ġad j
' $
ott om
Ġcent er
the orem
Ġin du
Ġh on
Ġsc en
Ġch arg
Ġdirect ly
stit ute
Ġcho ice
el t
> <
Ġprodu ced
Ġtrans form
Ġtechn ology
ĠSt reet
ed eral
} -\
Ġw ave
ĠEurope an
) }{
Ġde ep
Ġ- \
Ġv eloc
Ġre v
umer ate
ĠP aul
b and
Ġfor ward
l ight
ĠHe alth
Ġwh ite
Ġequ al
ĠD r
6 8
est s
Ġs ound
in n
og le
Ġqu ality
t d
Ġm or
land s
Ġin sp
us ed
Ġsign al
Ġpol ice
Ġmagn etic
Ġcour t
ĠC ouncil
et t
Ġf ather
ok e
Ġperform ed
m ission
Ġrele ase
ĠM od
scal e
Ġelect ron
Ġn umbers
il ton
6 7
p ot
Ġright s
Ã ¡
O ne
Ġgrow th
Ġcomp os
ov ed
Ġn ucle
Ġr isk
ra b
Ġb r
Ġv ict
ĠD i
S ince
clus ion
Ġev idence
ag ing
Ġopt im
Ġf em
ĠDep artment
A d
Ġmet ric
c ial
en umerate
Ġsh are
ĠBl ack
Ġr ank
Ġconst raint
i en
Ġfor ce
ash ington
Ġback ground
Ġvis it
Ġbecom es
sh ip
ĠJ ust
d ag
or ing
Ġwe bsite
Ġdec ision
ĠAustral ia
E T
Ġs on
dimens ional
Ġsuccess ful
Ġl ost
ĠO ff
ĠG roup
ic a
ty pe
ad es
' m
Ġe arl
ic o
c ome
Ġc apt
L L
Ġhim self
S o
Ġcom ing
Ġimpl ies
Ġb ad
Ġannoun ced
h ing
le g
Ġcon tact
Ġhe art
Ġh ot
Ġh ours
ag ed
a it
8 8
as ons
) }$
Ġb all
Ġep is
n ote
> </
ĠJ ames
is ions
Ġsu ff
Ġco ordin
ĠC ons
Ġrecent ly
Ġinterest ing
us ion
Ġget ting
Ġro t
Ġm ag
] ,
20 21
Ġlead ers
ĠWh ile
Ġeduc ation
\ ,\
ra el
lev ision
Ġqu ick
a ren
$ }
Ġs ources
Ġst ri
o ice
ĠCour t
c an
Ġlevel s
Ġw alk
Ġmater ial
math scr
~ $
Ġb orn
no indent
ĠEng land
( -
Ġro und
ĠO f
F rom
Ġsecur ity
ri an
Ġde cl
f ill
omorph ism
l or
Ġcrit ical
Ġev olution
Ġp ref
ari o
ch ange
u ge
I R
l a
qu e
Ġinvol ved
Ġcompon ents
Ġt able
Ġwork ed
z z
ĠHe re
Ġrel ation
ric k
du c
Ġs old
Ġg ain
her n
Ġcompon ent
Ġintrodu ced
c ks
Ġw ord
ach ing
Ġproduct s
st ate
Ġgo al
Ġco e
item ize
Ġw rote
ĉ Ċ
Ġe mer
Ġgener ated
Ġpart s
kn own
cre t
ĠN ow
ĠCan ada
Ġm id
I G
ric es
s ize
ac hed
Ġoff ice
Ġtrans ition
j oy
ĠD ay
( "
Ġallow s
ot ic
] \
ran ch
Ġtra vel
and er
N N
Ġal gebra
n y
op l
9 6
v an
Ġh ol
Ġrepresent ation
Ġim medi
ar ter
Ġd ark
Ġlong er
Ġspect rum
Ġtrans fer
ĠD irect
}} }
enc ies
Ġcorre ct
Ġto ol
am ent
Ġj ud
ĠR ober
Ġf ire
Ġinde x
ma p
Ġbehav ior
] .
h ttps
Ġsmall er
port s
Ġmax imum
ew ork
Ġst reng
hi ps
ot o
Ġcontin ue
Ġpat ients
de x
Ġg irl
Ġ _
ber t
em ents
Ġcount ries
Ġappl ied
i ences
le vel
5 7
os en
ĠThe refore
Ġto wards
Ġdeterm ined
Ġspe ed
Ġl iving
A fter
oy al
Ġres id
as c
appro x
de red
S e
g roup
ĠTh om
S c
ĠE m
Ġserv ed
Ġf ight
Ġeas y
Ġcon v
In t
ra z
ĠD an
v space
a rent
Ġw atch
Ġd ied
}} _
ĠM al
Ġ rac
Ġrun ning
ic it
Ġro b
Ġknow ledge
ĠRes earch
C D
Ġtreat ment
r s
The n
Ġde cre
Ġcon sum
5 8
b re
Ġb ox
Ġprob ably
Ġthrough out
Ġnecess ary
P i
Ġro om
Ġm other
Ġout put
\ }$
is ation
Ġset ting
Ġal though
Ġb oard
ign ed
at form
Ġdoc ument
Ġme et
ĠR ich
( );
Ġad minist
Ġm ilitary
199 9
ĠP ort
ub e
Ġask ed
y a
ren ce
Ġpro ced
o o
um ents
ĠG eneral
ib rary
Ġeval u
Ġne ut
Ġsa w
Ġplay ing
mult icol
ĠH all
n ce
ag o
Americ an
Ġexp ression
au ge
oc ation
ri e
Ġill ust
ct ors
ĠCh urch
Ġd riv
I M
id a
Ġp age
Ġd raw
Ġcol umn
Ġp ick
multicol umn
Ġal tern
Ġpat tern
Ġd am
ĠB ook
ran ge
Ġu pper
i ation
ĠW ashington
P R
** **
Ġapplic ation
Ġ ir
Ġa ward
oun tain
p ri
Ġcol or
ĠGerm an
Ġin side
Ġc red
B e
oc ks
Ġus es
Ġcon cept
Ġtyp es
a ur
Ġin n
Ġst ra
ĠIn t
ĠT able
Ġcom ment
) +
Ġ _{
er ve
Ġthem selves
ĠG reen
Ġnot hing
C ol
' ve
g ence
i os
ill ing
Ġmod ern
ec ause
Ġcon fig
Ġch arge
Ġrema ins
Ġestim ate
Ġin j
Ġmanag ement
el ine
f rom
5 6
Ġn ature
Ġdimens ion
n g
Ġs il
Ġw oman
Ġdirect or
Ġn orth
Ġconn ected
Ġh ttp
ail y
Ġh ope
ma z
Ġacc om
Ġan sw
ĠCh ampions
ans ion
Ġval id
Ġany thing
B l
Ġarch itect
s plit
k ey
a per
all ed
u ra
^ -
i ew
er ation
Ġwrit ing
Ġm ind
Ġst aff
Ġus ers
b ody
Ġm ach
ĠJ ack
Ġrat io
i ers
Ġwant ed
t urb
sp ec
Ġcurrent ly
Ġus ually
osp ital
l ong
ĠDist rict
Ġdesign ed
I s
st on
M ore
Ġsome one
text rm
ĠW ork
it z
Ġt ro
ĠN ote
em s
Ġtry ing
u ild
Ġex hib
& &
Ġmov ed
Ġthe orem
Ġt en
{ $
Ġd ate
199 8
Ġlarg est
ĠC up
Ġa im
Ġc ele
ĠF e
n d
ify ing
Ġvari ables
Ġass ist
ess ion
Ġspe ak
p ol
Ġfrequ ency
er c
Ġve h
r d
ed y
t ra
Ġveloc ity
Ġsub st
iz ations
ĠB el
ĠR iver
Ġpract ice
Ġv ac
Ġoff er
Ġso on
Ġv an
ĠM usic
Ġe igen
ĠSc ience
re p
Ġbook s
Ġlim ited
alle l
ste in
ta int
est ival
ie ce
Ġto ur
Ġinst ance
ĠIn ter
he st
ri er
ĠB ay
rough t
ĠM art
Ġl ack
ir it
Ġen joy
ĠCh ar
Ġg ave
text tt
Ġrel ig
Ġearl ier
yn om
in y
../ ../
Ġ\ ;
Ġw all
cent ury
d o
Ġpres ence
Ġac qu
il ies
Ġnov el
ist ry
ĠS ome
Ġequival ent
ĠIn stitute
Ġpl ot
O ur
Ġatt ention
Ġreg ions
Ġcell s
Ġaut om
] [
Ġchall eng
N o
g ra
Ġapp ly
os ing
Ġallow ed
Ġrad io
in f
Ġdis e
Ġrel ative
Ġw ays
D E
Ġra ce
ec k
N ow
Ġele ction
Ġav oid
ĠJ ew
mit ted
Ġch annel
Ġth reat
ĠSy stem
ens or
}^{ -
it er
in ct
ĠMich ael
ĠFran ce
Ġ\ |
Ġst ay
} '
I ON
d ro
Ġobject s
Ġmov ie
t ical
7 8
s ource
ĠTe chn
Ġrele v
w ell
m ary
Ġd ra
Ġcol lection
ĠGe orge
Ġdis play
ĠWh ite
A B
subset eq
ren ts
Ġstat ement
ĠC ong
Ġf ast
vent ion
ect s
Ġfig ure
big g
ri ef
ĠP ress
Ġrelations hip
Ġor d
Ġsc reen
Ġpress ure
Ġper fect
il s
Ġgra du
val ue
199 0
Ġsu fficient
Ġloc ation
Ġcon clud
The ta
ag ement
ĠG ra
S P
ĠF in
P e
Ġpe ak
Ġde part
Ġdiscuss ed
ĠIs rael
Ġun cer
ĠAr ch
Ġon es
Ġquest ions
Ġs outh
Ġc am
ther n
Ġge omet
C O
Ġqu al
c at
Ġsur v
Ġte levision
ĠPart y
Ġant i
min us
Ġmain tain
ĠAssoci ation
ip al
ĠV ol
Ġmin utes
l am
e es
d i
un t
Ġevery thing
Ġfollow ed
U R
ob ile
ĠĠĠĠĠĠĠĠĠĠĠĠĠĠĠĠ ĠĠĠ
Ġt ransport
He re
im ent
ĠA ward
Ġno ise
aus s
ĠD ec
R ec
Ġfin ancial
Ġsc ient
Ġ row
Ġt er
N ote
v is
ac ity
Ġexp ress
p ose
e an
Ġ Ð
Ġact ive
b ound
Ġro ck
in os
Ġsm ooth
Ġh ref
Ġf ully
Ġst op
tt y
Ġstart ing
Ġt ask
Ġeas ily
se y
Ġd ed
e ks
ĠD iv
ĠC ap
ort hern
Ġsit uation
Ġv ar
5 9
ur ity
Ġexact ly
Ġneg ative
ines e
in i
.... ....
Ġfl ux
Ġcharact ers
Ġrema in
G e
Ġinter action
ĠPro f
Ġad apt
g s
) {\
A pp
Ġover all
Ġreve al
Ġfriend s
d ist
ĠIn c
Ġsa f
te red
under line
IN G
Ġt al
Ġleg al
Ġd rug
Ġder iv
an i
Ġis n
{ }
Ġf air
N A
u fact
ĠO ut
ou thern
k a
Ġincre ased
Ġp ark
Ġst ring
Ġdev ice
line ar
< \
Ġar riv
Ġse lected
7 6
Ġlead s
Ġ$\ {
Ġw id
5 4
ri a
e ared
Ġg auge
Ġestabl ish
re me
Ġ Ã
b oard
Ġcol lect
Ġdou ble
199 7
foot note
Ġinter view
Ġobserv ations
ĠM at
v est
M C
ĠD es
5 1
Ġch ain
Ġredu ced
h aps
5 2
Ġsl ow
ib ly
pl ace
ĠS w
ĠS ur
Ġm icro
ĠS ub
ĠT rans
r as
g n
Ġread ing
ĠD on
d ed
Ġcho ose
ag er
ĠR oad
ĠL ou
ru le
Ġgo es
Ġ$ |
en ge
ant ic
ĠM us
ĠAng el
it ar
n orm
m s
Ġresult ing
5 3
Ġprim ary
Ġs eg
Ġb al
Ġoper ators
ab s
Ġf irm
ar p
ĠY ear
Ġlay er
Ġappear s
Ġm us
ĠS am
Ġdi agram
ri al
Ġmot ion
ĠF ound
Ġparticular ly
cre te
Ġteam s
} /
ĠE v
Ġun iform
Ġcult ure
Ġc ause
L ist
ĠA lex
Ġr ules
I d
ĠS upp
ĠL eg
ĠQ ue
b ul
Ġfe ed
Ġr ule
Ġmechan ism
ough t
Ġme eting
Ġde ad
ĠS ing
S C
Ġess ential
Ġ ri
set minus
Ġw ife
Ġe ight
' )
ell ar
um an
x y
Ġbe y
Ġsche me
as hed
it ch
Ġl ives
ĠM ac
Ġm is
Ġbe aut
Ġsay ing
Ġbir ths
Ġsc ience
ol f
Ġcon sequ
ac ing
ad ian
Ġtra de
Ġbey ond
Ġal ign
Ġex am
Ġhe nce
Ġt ree
Ġwor th
b on
Ġ â
Ġle ave
Ġmean ing
Ġa x
ir ing
Ġcomplet ely
ĠAn n
Ġachie ve
ĠChrist ian
Ġhigh ly
Ġre ference
Ġw ide
an cy
Ġin equ
Ġgra v
Ġagre ement
w in
Ã ³
ĠP ost
199 6
Ġpl atform
ĠS ta
pro d
ĠI m
Ġre comm
ĠM ary
Ġstud ied
av en
ag s
Ġfact ors
c is
Ġpan el
dag ger
Ġevery one
Ġoper ations
Ġsl ight
Ġnear ly
Ġprevious ly
Ġcontinu ed
d t
Ġsupport ed
l n
Ġsur pr
9 3
Ġcap ital
un k
Ġh ous
Ġc ast
air s
iqu es
Ġmod e
Ġcontinu ous
Ġapplic ations
Ġk in
U T
b our
ĠIn st
tern et
Ġ ult
de pendent
Ġd ro
on a
^{ -\
u racy
Ġpol ynom
Ġ( $\
ĠDem ocrat
== ==
Ġem ission
Ġexp and
Ġet c
Ġr ates
le ment
Ġin fin
}} _{
ĠS um
V ert
Ġche m
Ġfav or
Ġhy per
8 6
N ot
) |
ĠSp ec
Ġact ivity
augh ter
ĠW il
Ġget s
Ġschool s
ĠC O
ro y
am ily
Ġoffic ial
* {
ly mp
er ia
l o
Ġcont roll
ĠM ag
ĠP ublic
Ġgener ally
Ġb rand
i ant
ill er
8 7
Ġab ility
Ġclass ical
_ *
ĠO ther
Ġb rought
E E
Ġext ra
ĠB er
ing u
Ġa w
b ut
9 4
ĠAfric a
Ġf alse
ĠR ob
n ed
Ġappro pri
Ġprofess ional
Ġdeterm ine
ar an
Ġsymmet ry
ĠM a
}} ,
Ġrequ est
Ġbl ue
dis play
ĠB est
ĠA re
wit ter
it able
c ode
ĠUn ion
Ġinst it
Ġeconom ic
ĠHam ilton
Ġ* /
ĠD el
ĠComp any
Ġsc ore
' ll
ed om
D F
uth ors
ĠM et
\ }
Ġw idth
Ġcomp act
Ġg overn
I V
Ġs amples
ĠRe view
D A
Ġpartic les
ĠV ir
ruct ure
Ġmin imum
T hat
3 00
re y
Ġexpl icit
M od
Ġthe rm
_ +
ist or
comm and
m iss
! !
Ġl if
Ġwe eks
Ġexp ansion
Ġform s
b o
Ġ$ -
ĠT om
ew idth
Ġcur ve
ĠT ex
Ġconst it
Ġcom pl
ap ter
for ce
Ġstra ight
is c
et imes
Ġstruct ures
Ġcontrib ution
Ġbro ther
Ġmeasure d
Ġ ensure
Ġstrateg y
ĠGerm any
F F
Ġemb ed
ĠJ er
E M
Ġnetwork s
Ġvol ume
9 2
rup t
Ġc a
$ _
ang er
ĠB o
Ġcons erv
over y
Ġrelev ant
Ġ( -
C H
iz on
Ġfin ally
ĠM ex
A b
Ġse ven
Ġdynam ics
Ġshow ed
Ġprocess es
I L
Ġsol id
d et
il ed
Ġmed ical
Ġvari ety
ĠJ ul
Ġfam ilies
d ata
opl us
duc ation
Ġch osen
Ġn orm
P ost
F L
Ġ: =
Ġre ach
ĠĠ ĠĊ
Ġclass es
ĠG old
I P
ĠCl ass
ĠS al
ĠS ociety
Ġuse ful
Ġst ru
Ġser ious
Ġfram ework
B S
Ġc os
Ġgalax ies
f it
n el
Ġprodu ce
Ġpr ice
ĠG reat
Ġ err
Ġm aps
Ġ$ [
Ġ= >
Ġre pe
Ġmem ory
Ġb ur
i ency
Ġident ity
m es
ur t
How ever
ĠN or
_{ {\
E L
b a
Ġlat ter
Ġfor ces
Ã Ń
T ype
Ġgre ater
Ġdist rict
ĠP o
id ing
ro s
Ġm ale
Ġs en
Ġb ank
im port
Ġc ivil
Ġuncer taint
wed ge
S O
rop y
ĠK e
Ġlat t
ree k
Ġc ore
Ġar bit
rid ay
Ġim ag
Ġrequ ires
Ġbegin ning
ĠP re
199 5
Ġsh ape
Ġc ounter
ĠÂ £
ĠP et
Ġ id
Ġtra in
N ame
f unction
Ġcompar ison
om in
Ġun its
Ġcou ple
Ġst ories
ĠS und
Ġgiv ing
Ġsoft ware
Ġopp os
iam ent
ĠComm un
ĠPl ay
Ġelect ric
cl es
Ġvari able
Ġsy mbol
ĠIs land
Ġform ula
Ġp urch
r un
Ġp en
ĠRe f
Ġpartic le
Ġvill age
Ġt rac
ĠM ad
ĠR ad
Ġbound ed
ro id
Ġoper ation
Ġder ived
M y
m as
w rit
re es
Ġst eps
Ġman if
ĠF urther
ĠPro gram
Ġexperim ents
ĠRober t
Ġstud ent
Ġconsist ent
ĠPe ople
Ġc it
res ents
ĠSc ott
Ġext ended
lin ewidth
Ġex amples
Ġpl ane
Ġapp oint
ĠS un
Ġsong s
ul s
Ġan im
Ġneigh bor
Ġpre tty
Ġ %
l ist
Ġc ard
ĠN ov
Ġconn ection
il arly
Ġapproxim ation
h and
ĠCh inese
ĠB en
ĠSm ith
Ġex cept
d ec
sub figure
Ġj ournal
Ġv s
| |
Ġdec ided
mit tee
N D
p ers
Ġpl aces
Ġturn ed
oll ary
Q u
ect ive
7 2
z a
i h
Ġtradition al
Ġpol ar
Ġhig hest
Ġm ix
Ġform ed
Ġorig in
ĠSt ar
rodu ction
Ġmoment um
col on
Ġs plit
Ġident ified
Ġra p
S he
ĠCl ub
8 9
Ġcoupl ing
Ġdiscuss ion
Ġn ation
ĠH istory
ĠM o
ad o
Ġsub set
al o
Ġob ser
( '
O P
Ġsignificant ly
Ġactiv ities
Ġsp at
ĠM iss
Ġbas ic
), \
ĠS l
p ret
m essage
Ġwas n
A G
Ġk m
Ġrun s
ĠB re
Ġmention ed
_{ (
ĠAc adem
it a
it ely
ven ue
6 3
et her
Ġbel ong
Ð ¾
Ġch urch
c el
oc ol
ĠB ill
A cc
av a
y p
198 0
ĠY our
Ġchang ed
Ġdes p
Ġopen ed
velop ment
Ġpa int
Ġw rong
mer cial
Ġt ru
Ġdatas et
Ġc ry
ĠR el
ak er
ĠS T
Ġsub sequ
bl ack
ac he
ann ed
Ġdescrib e
Ġass ess
app ing
Ġform ation
az ine
is hes
riv ial
i pl
Ġprogram s
Ġb ul
Ġsh ot
T e
ĠT ur
Ġf arm
ĠCent ral
Ġas pect
ĠComm ission
Ġcle arly
ĠUn der
ĠR ock
Ġk illed
un ds
\ '
P C
ĠRuss ian
ĠF ace
Ġestim ated
Ġper turb
Ġse lect
at re
ĠRuss ia
Ġc e
ĠF ilm
Ġver tex
Ġpl ant
Ġcont rast
Ġman ufact
Ġexist ing
ĠF ore
Ġexperim ent
Ġpro gress
Ġsom etimes
Ġpl ans
Ġm iddle
Ġst ream
ĠTex as
ĠThom as
Ġbl ood
Ġbir th
lim its
Ġsum mer
Ġpre m
Ġcomput er
ot ing
Ġmov ing
ell ig
Ġopt imal
sy ch
Ġp ull
Ġb us
O b
Ġres olution
Ġjo ined
Ġset t
199 4
h an
ĠĠĠĠ Ċ
ĠĠĠĠĠĠĠĠ ĠĠĠĠĠ
ic ago
ĠS ee
Ġabs ol
Ġp ain
)\ ,
ul ate
ĠServ ice
Ġepis ode
Ġexp on
Ġlat est
Ġcon cent
Ġrep resents
ir al
ĠPro position
Ġob vious
an o
Ġredu ce
i ra
ĠMin ister
ĠH ill
if ically
ĠArm y
ing er
Ġsim pl
Ġlead er
Ġres ources
Ġdem and
Ġex cit
w ar
Ġ\ (
Ġmove ment
Ġany one
Ġpa rents
Ġopportun ity
Ġ| \
ĠT or
6 2
Ġg un
ĠM useum
Ġarg ument
ab ilities
Ġs n
ect ing
ĠR oman
ĠB oard
Ġm ur
Con t
Ġoff ers
Ġpre vent
Ġf ile
Ã ¼
9 1
Ġapp eared
u a
Ġ }\
auss ian
b ur
Ġlaw s
}} (\
M an
ĠCong ress
l ig
Ġt im
Ġadv anta
6 1
F T
S U
Ġen h
? âĢĿ
Ġreturn ed
B A
Ġacc uracy
c her
Ġm ole
ĠK ore
Ġpart ners
ĠG overnment
Ġext rem
Ġimmedi ately
Ġg reen
ĠAfric an
) _{
Ġcateg ory
Ġsc ene
ĠO ver
u ations
Ġmin im
Ġex c
Ġsim ulations
V al
and a
pro du
Ġm essage
Ġcar ry
Ġnumer ical
Ġse c
M A
Ġcon vers
b i
ist an
ow ers
ust ain
ĠC at
) }(
Ġspect ral
Ġco ol
Ġpre p
al ian
ĠDirect or
ĠR et
Ġunderstand ing
ot ion
Ġpur pose
Ġh arm
Ġ> >
Ġa mb
ĠFran cis
p an
ĠH ence
und red
ym pt
S im
Ġse lection
Ġcomple ted
Ġc ru
Ġf elt
O C
ut ing
Ġquick ly
end ix
ter m
ful ly
ĠR oyal
om a
p ng
8 4
Ġcoll abor
k i
Ġn ames
ou ra
b t
ĠPl an
ĠCar ol
Ġgener ation
Ġgra d
Ġn odes
Ġp oor
7 4
{ $\
Ġproced ure
d eg
Ġsqu are
S ec
Ġdig ital
Ġb illion
ro om
Ġcalcul ated
g est
atur day
it t
Ġprovid ing
Ġvis ual
r r
ĠOff ice
b urg
ed s
Ġexist ence
Ġhe avy
ent y
Ġd ual
ĠP M
a ith
Ġf raction
Ġinflu ence
F irst
Ġe arn
) /
augh t
Wh ile
Ġp le
) ^{\
ĠB rown
Ġproject s
Ġnot ed
ĠH en
Ġp iece
âĢĿ .
ĠM ost
k in
y mmet
ĠL at
ĠAl so
Ġmar ried
Ġincre ases
Ġf ans
The se
Ġdec ay
ĠFl or
Ġre ached
Ġrecord ed
ĠAustral ian
Ġdise ase
Ġwon der
ĠMore over
ĠL ist
g u
Ġf ine
or ter
Ġrepresent ed
T S
en a
Ġexperim ental
Ġprof ile
Ġbu y
Ġg rand
6 9
por ary
Ġocc up
Ġsh oot
ĠR em
ĠP eter
Ġorgan ization
Ġam plit
Ð °
defin ition
Ġl ic
ĠFound ation
Ġrad ius
per p
Ġlatt ice
E O
Ġfl at
Ġte ac
Ġb rief
Ġliter ature
o om
ĠO lymp
Ġsp ent
' _
Ġrest rict
}$ -
re qu
ĠCom mittee
ĠB usiness
Ġdesc ription
Ġh ttps
Ġsatisf ies
align ed
Ġmeasure ments
Ġsign ed
Ġdom in
ic on
ĠDe f
Ġcomb ination
r ative
Ġa uthors
ĠS a
Ġg rant
ult ure
ens us
Ġg old
Ġapproxim ately
199 2
Ġsp aces
h old
ĠC D
7 3
ro ad
f ree
Fig ure
mod el
Ġpr int
m et
ĠT own
20 22
ĠD uring
Ġt as
d y
ffic ients
ĠW estern
onal d
ri ent
Ġclust er
n et
ĠM em
Ġn ull
199 3
Ġother wise
Ġinc or
v a
ad y
Ġv oice
pt ions
Ġansw er
ĠW omen
p ath
Ġreport s
ĠI r
ĠG rand
Ġhand s
s ol
ma in
Ġd aughter
Ġc opy
Ġmeas ures
Ġg r
Ġst ated
Ġvert ices
O L
.~ (\
st o
Ġstreng th
og ue
ĠB i
ck now
amet er
} %
Ġstat us
com ing
Ġp m
Ġcaus ed
Ġ& &
Ġfem ale
Ġs ociety
ark s
8 3
Ġinteg ral
O r
ap ers
ĠC amp
ĠUS A
h ol
C S
Ġassum ption
es ter
ict or
Ġindividual s
ĠI N
for all
Ġdet ection
ĠL u
re al
ollow ing
olog ies
Ġch ance
Ġj oint
ĠT imes
ĠF riday
ad ing
ĠW ed
ĠB ig
Ġappropri ate
Ġsit es
Ġcons ists
7 9
ĠL and
c ases
_{ -
ĠJ ose
ĠAl though
Pe ople
ĠSup er
Ġon to
Ġdirect ed
Ġcorresp onds
h ouse
Ġse cret
Ġw a
ri z
Ġv irt
ĠM er
ĠT wo
Ġun ivers
Ġtrans l
Ġs ector
Ġdepend s
Ġevent ually
wit ch
. [
Ġrema ining
N e
Ġr ing
8 2
Ġb ottom
ĠT HE
Ġmor ning
ĠJ ournal
sim eq
Ġv ote
i able
ĠSund ay
b ed
om ic
Ġconstraint s
Ġqu arter
ĠRich ard
ĠL ife
Ġmajor ity
idd en
Ġe mail
al a
Ġtechn iques
ĠO pen
,\ ,
ĠC ath
ĠE ducation
ĠRe v
Ġrece ive
= (
Ġhe ard
Ġfram e
p c
if ul
P A
Ġcorrel ation
7 1
Ġde fe
os h
Ġfore ign
Ð µ
ve re
ed ia
ĠT ime
text sc
n ormal
Ġdri ve
Ġart ist
Ġh op
Ġsaf ety
sub subsection
z er
us ing
con s
Ġo il
ĠC arl
Ġra il
: \
n eg
ĠFran k
al d
I A
Ġed ges
Ġdist inct
Ġinst rum
Ġopen ing
T V
Ġinequ ality
Ġp hen
Ġang le
ĠLou is
Ġcost s
Ġappro aches
N et
Ġal one
Ġlook s
Ġl oad
Ġref lect
8 1
Ġident ify
as ure
Ġin form
Ġpolit ic
ĠD en
am ental
Ġrel atively
Ġsur round
' \
Ġgrow ing
k es
The y
Ġpol y
ĠM ass
ĠVir gin
og ene
" )
Ġrepl ace
ic ks
Ġsp read
Ġf ederal
Ġth ous
ĠS u
Ġdesp ite
Ġeffic ient
al g
an ish
Ġart ists
ol a
ĠJapan ese
Ġ+ \
ĠM el
Ġslight ly
ĠGo ogle
ĠE arth
Ġan c
iver se
con n
y an
Ġtr ust
re land
atter ing
et ime
Ġsim ulation
E q
et te
R A
Ġscal ar
ĠAcc ording
Ġs ort
4 00
bul let
m en
semb ly
Ġp ure
Ġcol lege
Ġ ~
ĠDiv ision
ond ay
Ġcom ments
ret urn
St ring
Ġm ut
ĠL os
ĠA M
ĠFace book
= -
Ġla un
Ġprop ag
ĠI ran
ĠB ank
ĠT op
s u
Ġmass ive
t est
Ġpl ays
Ġcap acity
Ġintrodu ce
ĠG ood
or ation
Ġkn ew
ĠU p
S E
197 0
ĠCh icago
Ġinterest ed
ĠB ur
Ġs al
Ġshow ing
man n
Ġpl aced
il ing
Ġcomp ute
Ġlist ed
Ġin ternal
F A
$ ^{-
Ġa ctions
z ero
Ġeff ort
Ġcontrib utions
ta ge
il ib
\! \!
S et
Ġmin or
Ã ¶
Ġst able
Ġmod es
Ġcoe fficients
it ation
ĠCan adian
Ġent er
ash ion
Ġ ign
Ġcompet ition
Ġfour th
Ġ !
Ġext ension
Ġext ract
F C
ear s
s ur
/ >
wh ile
ĠSer ies
Ġo ption
Ġmach ine
~ $\
Ġmiss ing
Ġact ual
Ġsepar ate
Ġb ud
w est
st ack
Ġr ise
as y
Ġdev ices
ĠKing dom
Ġre b
od ay
y r
H S
Ġcomb ined
ĠI S
we et
}^ *
act ive
Ġsp ot
Ġcommun ities
Ġeff orts
Ġcan cer
Ġ esc
ĠS ocial
Ġhe ar
P ol
b in
Ġacc ur
ve x
ag raph
199 1
Ġh ar
Ġdeath s
' d
Ġey es
Ġinter actions
ĠJ un
$ ).
Ġro ll
ĠPro ject
f ort
Ġtr uth
Ġatt ract
Ġresp ond
Ġcele b
ĠH el
Ġpro pos
ĠE qu
Ġrespons ible
r ich
Ġpass ed
Ġm ission
ĠS aturday
Ġform al
) ^{-
ĠSec ond
Ġdeb ut
Ġdifferen ces
Ġsh ip
Ġcandid ate
Ġdistrib utions
Ð ¸
Ġ eth
ĠS ol
Ġag ree
Ġs ales
M ar
Ġcl in
ol k
$ (
od ing
ĠE ven
urs day
Ġh undred
erm an
Ġd ream
Ġinter pret
S te
Ġcar ried
Ġs ch
Ġspect ra
Ġcommunic ation
en ch
Ġt ren
ri um
In d
Ġann ual
g ent
Ġcle an
de ed
ĠSec ret
Ġwork ers
ĠAcadem y
^{ +
ĠAn t
az z
Ġf ix
P r
ro t
ri age
Ġh uge
Ġ&= &
ĠFlor ida
or age
Ġco ach
Ġden otes
Ġbe g
Ġmost ly
anc ing
E d
ul ed
Ġnucle ar
Ġt un
Ġto uch
new command
Ġp icture
= {
Ġar rest
ĠPro v
}} ^
pr int
S ub
Ġre asons
in ner
G B
Ġpro ceed
Ġb ill
ch o
Ġhe ight
Ġo w
l ines
Ġestim ates
mat rix
Ġag ent
Ġs ampl
in v
ta g
ĠF estival
Ġst ore
Ġd ivid
ĠG r
ĠPar is
ĠE ach
ĠDe velopment
ĠAngel es
qu are
is l
c ase
Ġexp ressed
) }{\
Ġsp irit
Ġabs or
h om
resh old
Ġthe ore
$ $\
ay er
Ġm arg
G et
ĠL ake
ell ed
at us
ĠAr ts
ĠS il
Ġcur ves
Ġaltern ative
ud es
ĠN etwork
Ġspat ial
pm atrix
Th us
M L
it ors
Ġt ensor
ĠO ffic
ĠChar les
âĢ ĺ
} )$.
I m
Ġd u
ay lor
ic ine
M e
p at
st ring
Ġide as
ig an
Ġopt ions
Ġcirc le
Ġopt ical
O D
Ġcrit ic
C A
St ate
ĠO h
Ġinn ov
d x
Ġth ick
Ġw ants
r ates
Ġmater ials
Ġqu as
Ġdetail ed
Ġtrans formation
T r
C L
Ġatt rib
ĠD ata
Ġdepend ence
Ġcos m
C an
Ġrap id
rel ated
Ġsh ared
Ġwrit er
r ons
Ġfre edom
os is
Ġth row
Ġrepl aced
)\ \
ĠIs lam
Ġqu ad
Ġreg ime
Ġop in
th let
ri ve
ĠP an
C o
os ure
stit ution
b an
at ically
un c
ĠJ o
Ġst ellar
) {
Ġcit iz
Ġex change
in dex
Ġin ner
ĠI reland
C E
Ġcy cle
Ġhapp en
Ġcomm and
Ġcontain ing
Ġassum ed
ues day
ĠH y
ĠI ma
ĠF orm
ĠCh ild
Ġrec ords
Ġinit i
Ġpr ison
rem ark
Ġpower ful
ĠC ur
om y
C P
ill a
Ġinv ariant
Ġpro te
Ġbehav i
Ġalgorithm s
15 0
fe red
ul f
ĠS k
is her
Ġs le
re c
H z
ĠJ ud
# #
ic ity
id ers
Ġsymmet ric
ĠIt s
n b
Ġstru gg
ist ical
Ġw est
Ġn om
ĠG ames
H istory
Ġconsider ing
Ġreg ist
pos s
Ġm er
por ate
Ġt or
se ud
Ġra re
Ġerr ors
ĠH ome
Ġbl og
P ar
Ġsing ular
Ġ= \
Ġide al
ab y
Ġtyp ically
ic ated
Ġb order
Ġhelp ed
" />
ĠO per
ĠAt l
ĠK n
Ġhy dro
p a
he m
Ġser ve
d im
Ġres on
Ġposition s
ĠServ ices
stand ing
F e
ell a
Ġm orph
Ġredu ction
Ġchall enge
)$ -
Ġcom mercial
ĠThe ir
Ġc op
ĠM ur
Ġprov ed
se ct
Ġcl imate
map sto
C T
Ġm ess
Ġper haps
k m
Ġdis k
M R
ds h
Ġpa id
Ġlook ed
Ġv ary
198 9
d em
Ġpair s
che ck
Ġto ward
nes day
Ġwe b
Ġac adem
S A
ĠL ee
ĠProf ess
Ġapp arent
ĠC am
Ġconfig uration
Ġch ief
Ġad op
Ġb attle
Ġclass ification
Ġfind ing
}} ^{
Ġdep th
ern el
N R
ov ing
ĠL in
Ġclaim s
Ġcomput ed
Ġcomp are
Ġcal c
Ġc ook
) _
Ġrem ember
Ġhapp ened
ell er
Ġres ol
Ġw at
Ġtyp ical
Ġmeasure ment
r ical
as tern
Ġy ields
Ġb ranch
Ġa part
Ġstrong ly
Ġle ague
Ġw ild
Ġsur vey
Ġres ist
ag onal
ĠA rab
al ysis
go ing
es h
ĠWe ek
i as
ĠMart in
og en
erv ed
O ver
ĠÂ »
Ġarbit rary
ir med
par am
so ft
Ġph one
ĠH ot
it tle
The orem
Ġhe at
Ġcol le
am ely
trans lation
Ġp oll
ĠMan agement
ĠL ove
ĠSh ow
sk i
Ġs un
Ġvict im
ĠĠĠĠĠĠĠĠ ĠĠ
as ion
he mat
D ata
\ "
Ġlet ter
ig ration
Ġgo als
n t
ĠB u
the n
ab il
Ġdis app
S upp
Ġachie ved
ind ing
Ġke pt
l ength
or ial
Ġread y
Ġthan k
D o
Ġtri ed
ĠO l
Ġmat rices
all s
Ġconstruct ed
Ġfin ished
ĠI ll
in em
ĠC a
b old
d es
ran k
Ġgu aran
Ġor b
er ry
ĠW ood
ĠMex ico
Ġnot ice
Ġadvanta ge
ĠJ im
ee ch
it ness
ĠM onday
ipp ed
Ġstat ic
Ġinc ome
Ġo rient
Ġhor izon
oot ball
ĠZ eal
Ġtri al
ard en
Ġtest ing
Ġut il
ner gy
ĠT our
c ular
Ġpol ic
G o
Ġsp orts
J ohn
Ġpolynom ial
ĠA P
Ġg ap
g raph
ĠâĢ ¦
Ġe ast
t ri
Ġmanag er
h ab
ĠM il
Ġla unch
Ġra ised
ĠL ong
Ġex ternal
Ġpro port
ĠH ig
b el
\ _
Ġinvestig ation
N S
pro b
ĠT im
Ġseg ment
Ġph il
Ġd og
Ġpar allel
Ġcent re
Ġgener ate
at o
Ġoffic ials
Ġm aster
Ġde com
ĠE p
Ġal le
ĠG aussian
L iving
com ple
Ġinde ed
âĢĿ ,
Ġas ympt
pot hes
vi ation
Ġobser ve
irc raft
Ġpart ies
Ġt rib
feren t
g ar
ĠMed ia
Ġsh ift
Ġf if
omorph ic
c ript
Ġst ress
ĠB r
ĠZeal and
od ot
p hen
pt on
und le
Ġk ids
Ġphen omen
Ġre const
L P
c r
( $
Ġwh om
ĠA ut
Ġsom ew
re ct
ĠE very
ĠIt alian
ĠB ob
Ġse a
Ġconf lic
Ġp lease
ĠJohn son
Ġm ill
t ik
Ġcustom ers
Ġbenef it
Ġem p
ĠP ri
us band
ĠA v
el i
ĠâĢ ¢
ĠV ictor
Ġar rang
ang ing
f ile
k ins
ĠHamilton ian
col umn
Ġjo in
Ġpref er
ta il
ĠO F
art s
Ġgalax y
Ġbuild ings
st ra
198 8
ĠEx p
' (
19 60
Ġv oid
Ġwin ning
Ġeconom y
Ġexplain ed
Ġre ality
Ġplan et
pro position
Ġw ood
$ ;
ĠO ld
$ ~
val ues
EN T
Ġorig inally
Ġtra ffic
R eg
Ġcontin ues
ĠG et
Ġst o
Ġelect ed
ilib rium
Ġsem i
Ġle aving
ell i
Ġfund amental
Ġarchitect ure
Ġ er
Ġlearn ed
pos es
l aw
Ġof fered
ut y
P T
U N
Ġt end
it le
ad er
Ġregard ing
esp ite
ĠTh ursday
ĠE lect
\ {\
Ġthink ing
arl iament
ĠT witter
ann els
Ġb right
Ġh ole
Ġ= =
st ream
Ġrelig ious
ĠL ie
am ing
Ġimport ance
h box
} &
ĠH aw
raz il
Ġmet al
Ġgu itar
m c
Ġp urs
id el
ĠM ax
ĠSc ot
Ġchem ical
Ġs ustain
L S
Ġent ry
ĠIt aly
rim inal
ĠEng ine
Ġend ed
ĠF re
a o
ĠD u
ĠI II
ĠP enn
ĠSp ace
ip ment
Ġsen ior
Ġsatisf y
p age
- $
P er
\| _{
Ġfail ed
Ġrequire ments
ĠTechn ology
ĠChampions hip
Ġm obile
od ies
D S
ĠCent re
Ġb oy
ĠVal ley
ĠY oung
C ons
F orm
p ost
u ing
Ġplan ning
Ġcertain ly
Ġmass es
Ġus ual
ian a
ot al
Ġfunction al
f s
Ġpe ace
ĠS aint
Acc ording
Ġreveal ed
Ġold er
ĠCh ief
Ġsex ual
Ġw el
ĠCath olic
ĠC re
}( {\
Ġcre ating
ur l
ener gy
ĠA tt
Ġindic ate
ro ph
L O
sp ect
ost on
ce an
we ight
r ations
ph as
Ġtool s
Ġbecom ing
ĠB et
el ess
Ġun ion
j o
D P
Ġveh icle
Ġs ections
Ġrem oved
r ating
Ġh ospital
ĠS ar
op ic
O f
Ġeffic iency
i xt
Ġro ugh
ĠTe am
on ent
tik z
ĠG al
ĠIn formation
ĠF inally
ograph ic
ĠC ast
Ġp ush
Ġadd ing
ĠJ ones
he ight
m osp
sc ill
Ġwind ow
ing ly
ĠH uman
c hen
ĠB ecause
Ġcall s
ĠVirgin ia
ĠCommun ity
Ġdo or
Ġfor ced
Ġl um
Ġtra ined
Ġfam ous
est ic
Ġun f
. $
sp e
Ġconver gence
Ġst rict
l ink
os c
if ferent
C or
h bar
Ġsp ort
ject ion
if ier
ĠA wards
Ġobserv ation
v in
a ver
Ġadminist ration
ac c
Ġcontain ed
Ġlaun ched
c ong
__ __
s is
Ġindu ced
ĠB oth
ĠW ay
Ġun known
Ġown ers
m ma
Ġc row
Ġve ctors
k l
ellig ence
Ġcomput ation
cknow led
Ġlim its
198 7
Ġcharg ed
N ext
Ġa head
Ġfound ed
Ġoffic er
Ġmin imal
ĠH istor
Ġc overed
Ġd aily
-------- --------
V iew
ĠP R
Ġwe ap
Ġaud ience
Ġupd ate
por ation
Ġcoordin ates
ĠW ell
1 20
Ġth reshold
en ced
pend ence
Ġdriv ing
Ġp sych
Ġinter val
p icture
Ġacc el
k o
Ġpat ient
in st
Ġbenef its
Ġadj ust
P re
Ġcult ural
Ġrefer red
ĠG all
ĠP arliament
oun der
act er
cl aim
l t
ĠMc C
Cl ass
ĠE r
Ġsc attering
ĠRec ords
Ġim plic
ific ations
ĠR ail
ĠT uesday
Ġtechn ical
Ġex cell
ĠD ou
ĠU N
Ġmot iv
if ies
) },
em porary
ĠH or
ĠJ ac
ĠE conom
display style
Ġover l
1 000
Ġbeaut iful
| _{
ĠS et
S R
, $
Ġdifferent ial
Ġprocess ing
Ġindic ates
ĠL ibrary
Ġb ra
os es
as er
rap y
urb an
S I
Ġl ies
mult i
198 6
ĠV er
ĠG en
iz er
Ġpers pect
f aces
Ġimpro ved
ĠM icro
ĠĠĠĠĠĠĠĠ ĠĠĠĠ
Ġm iles
Ð ½
ron ic
Ġb rain
M M
ab ase
Ġtalk ing
Ġconclud e
Ġa st
Ġh our
Ġanal og
fl ow
F urther
ang es
Ġt ick
ĠSp anish
Ġhapp y
Ġimplement ation
ĠB ud
ĠC y
Ġpl us
he rent
Ġ ice
Ġit ems
ĠWed nesday
ĠB as
Ġco ast
s ch
im b
Ġsuggest s
Ġprot ect
Ġed itor
Ġrem ark
Ġm erg
Ġatta cks
Ġdest roy
Ġappear ance
s he
ĠC are
ĠS pr
ig ation
ĠM u
Ġorgan izations
Ġsa fe
} }$.
S ome
ĠP ac
Ġdeg rees
Ġmagn itude
Ġo dd
ĠW ho
. ;
} )$,
Ġw arm
ĠD et
) +\
Ġf an
Ġoper ating
Ġcon ference
S ch
clus ive
Ġd oll
Ġrecomm end
T R
Ġy ield
r c
g ener
Ġo scill
Ġl ab
Ġfund ing
ex ample
Ġst ock
Ġcl oud
m ass
Ġturn s
Ġview s
Ġh usband
ĠMon t
ĠU sing
F l
Ġis ol
ĠH on
Ġpredict ion
G C
Ġrema ined
Ġtherm al
ĠĠĠĠĠĠĠĠĠĠĠĠĠĠĠĠ ĠĠĠĠĠĠĠ
ĠS and
Ġsy m
Ġfe et
Ġg rid
ic an
Ġme ant
ĠOb ama
ĠJew ish
ult ural
Ġsol ar
rib ution
Ġrest aur
l ife
bl ue
t em
ĠCon n
Ġrec all
or a
ĠM iddle
Ġlo op
Ġbe am
D ef
Ġdistrib uted
if ts
Ġstart s
it ivity
v ol
ĠG ame
Ġc ities
i ro
ĠL ord
F inally
ec es
ĠG re
ris is
w ord
} }$,
Ġn et
Ġd anger
Ġhistor ical
Ġp et
Ġinvest ment
Ġsyn the
h ost
Ġr an
M ay
he t
ĠS pe
Ġf aith
ĠW in
al og
Com p
Ġfil ter
am in
Ġmus ical
Ġmain ly
Ġlay ers
ĠS M
B I
Ġexpl ore
ĠL i
) -\
ĠFurther more
Ġey e
Ġ ;
ĠM any
Ġocc urs
Ġsk ills
er ies
Ġn or
ĠEn ter
Ġtheore tical
ĠHen ry
Ġm ixed
s en
Ġ$ $
Ġsp eech
198 4
ĠMus lim
Ġdet ect
Ġc ov
}{ |
Ġel im
Ġfl oor
ur ies
Ġact s
Ġfore st
ian o
Ġenc oura
ĠFor ce
Ġp ages
Ġsuggest ed
C R
Ġe arth
Ġbig gest
or row
ut ch
) }_{
ĠL y
ĠW ind
Ġc reat
Ġor th
ut ation
Ġsm art
Ġb inary
O ther
our ney
ĠD own
Ġallow ing
' }
Ġmed ium
ĠC r
Ġsol ve
Ġphot o
p g
Ġdepend ing
Ñ Ĥ
ĠAs ia
Ġcom plic
) )$
Ġappoint ed
Ġextrem ely
ĠL iber
Ġhy pothes
Ġbe at
uild ing
Ġn ine
cont in
ĠWilliam s
ĠCarol ina
Ġch ampions
y er
Ġtechn ique
u ous
l ocal
ran e
P P
Ġuncertaint y
Ġatt end
Ġto urn
Ġdist ingu
Ġun d
ĠW all
Ġscen ario
O W
ĠSt and
Ġ ens
Ġtas ks
Ġflu ct
Ġsh ock
Ġrot ation
Ġass ign
Ġd rop
ru it
s uch
ĠN Y
T able
Ġd ust
ĠP ower
Ġinteg er
Ġmod ule
Ġviol ence
Ġneighbor hood
G L
ict ed
Ġnot ation
un ct
Ġst reet
ogene ous
Ġeval uation
Ġmay be
Ã ¤
}$ )
ĠSum mer
Ġev ol
g rad
Ġs end
Ġcandid ates
Ġamplit ude
Ġman ner
C M
Ġrese arc
ĠU s
&= &
~~ ~~
av el
g reg
E W
198 5
Ġs ave
ĠJ es
Int roduction
Ġchang ing
Ġgraph s
I F
Ġfocus ed
ĠJose ph
Ġconf irmed
per ty
os op
Ġnumer ous
[ (
$ ),
Ġpart ner
Ġcharg es
Ġro ot
w a
Ġp i
Ġdel iver
D M
00 00
ĠCh ris
P art
Ġl ived
Ġleaders hip
ĠP ak
ĠGe org
Ġr ich
Ġpolic ies
ĠK h
Ġsubst ant
ĠM en
ĠF ree
Ġcomplex ity
Ġphys ics
Ġs ell
Ġfeature d
Ġdi agn
Ġchalleng es
Ġcalcul ations
Ġqu e
Ġ$ |\
Ġad vert
p x
il er
Ġg one
defin ed
Ġemploy ees
Ġb urn
umn i
Ġconduct ed
or ney
Ġc ars
up s
Ġdisc overed
ur ance
_ -
Ġdimens ions
ĠBrit ain
int on
Ġcam era
c ar
ĠPol icy
T C
in ations
Ġcred it
Ġa ircraft
Ġem phas
ĠB ra
( (
Ġax is
ĠT aylor
Ġscal es
Ġcalc ulation
S M
Ġcon j
ĠJ eff
omet ric
sy stem
E r
ic ed
ip age
vers ion
ĠB al
h ow
Ġdam age
}{ (
Ġit er
ad ium
Ġexper t
Ġdel ay
The refore
ĠW ater
min ipage
st ract
ĠPol ice
Ġrad iation
Ġresid ents
Ġch annels
Ġf resh
Ġex ception
c ref
Ġcould n
ĠSec urity
Ġst uff
Ġar ray
Ġdepart ment
à ¥
L C
Ġart icles
ĠT est
âĢ ¢
Ġcon ven
ĠC oll
ph one
Ġro ute
L A
anc he
Ġhapp ens
od er
ĠL ab
re hen
O ut
Ġbud get
ĠRe port
us es
Ġth r
un te
w an
uck y
Ġ ion
c s
ys elf
AT E
ĠF amily
set s
ar ian
ict ures
Ġpolit ics
D R
cc cc
ĠM ike
Ġt error
"> <
Ġprinc iple
B ar
ĠPol it
z en
Ġequ ipment
Ġinst all
] ;
esc ription
Ġch air
g color
ans as
Ġj ump
G u
s upp
Ġis land
Ġle aves
ĠS wed
lic k
Ġs ides
Ġd raft
Ġexec utive
ĠE ll
pl ot
y stem
F R
Ġpart ial
Ġst ations
A m
Ġinfin ite
Ġcons ult
Ġclust ers
ad s
A ss
Ġcr ime
Ġact ing
ĠJ on
av al
Ġenvironment al
oth ing
Ġre dsh
Ġwhere as
Ġat mosp
c are
am m
ĠT re
Ġmon itor
ĠSpec ial
Ġm ountain
Ġdevelop ing
Ġthan ks
in put
Ñ Ģ
Ġposs ibility
Ġcirc um
ĠEn d
ĠW al
ĠL ag
ĠA ff
Ġw ish
: }
c oh
b rid
Ġaff ected
Ġinteg ration
ent ed
Ġre form
Ġfail ure
Ġl abor
t own
Ġrel ax
Ġ( )
ink ing
pt y
ĠL im
ĠIn ternet
ĠSt at
i y
Ġaff ect
ĠPh ys
L a
Ġoptim ization
b al
Ġb ed
Ġl iber
c d
Ġmanag ed
Ġst ability
g al
ĠE U
Ġprot ection
Ġcompos ition
Ġloc ations
Ġed ition
Ġcy cl
Ġhe ro
Ġ\ !
aw a
ĠBl ue
j a
Ġdec ades
25 0
R el
Ġposs ibly
ĠCh arl
Ġexpon ential
Ġb in
ran ce
on ical
ĠR E
ĠWh y
Ġdynam ic
] {\
Ġinc ident
ov a
Ġsus p
Ġconf irm
o at
ĠR am
Ġtre es
Ġsc hed
T H
Ġdef ense
og rap
angu ages
Ġset tle
ĠSen ate
Sp ec
ate ver
clus ions
ĠD ig
t wo
ĠE mp
Ġoffic ers
Ġk ing
c f
Ġag ents
ĠCol umb
igh ter
ĠCon ference
Ġor dered
ĠF ootball
Ġform at
Ġband s
st r
b as
ĠGl obal
Ġpart ition
re ci
Ġent ertain
Ġtest s
iven ess
b u
ĠS ports
Ġord ers
Ġ ?
T E
is ters
k ers
Ġstat istics
Ġaccur ate
ĠT ri
Ġgu y
Ġelectron ic
Ġalbum s
ĠC le
Ġsatisf ying
ĠB razil
ro unds
ortun ately
ĠB oston
maz on
Ġconn ect
ĠDe v
Ġvari ation
Ġp ix
ĠF und
Ġf ashion
t an
Ġclaim ed
ĠR o
Ġc old
ĠI R
Ġp il
Ġcover age
Ġinit ially
it an
Ġ$ {
198 3
ĠAnd rew
E l
Ġpr ime
for ward
Ġtre ated
Post ed
Ġf ant
ob s
Ġcitiz ens
Ġdis s
Ġn ice
ĠS uch
Ġsee ing
Ġstandard s
abl ed
Ġjob s
Ġc ert
at i
Ġfig ures
W hy
T ime
Ġpo et
in et
Ġre action
ph ant
ĠJust ice
dition al
**** ****
Ġopportun ities
Ġvict ory
Ġact or
Ġbroad cast
Ġadop ted
Ġrob ust
Ġdis crete
Ġc atch
Ġscal ing
Ġinter face
Ġsing er
ĠAmeric ans
ĠB ack
In ter
ĠV is
Ġm yself
gy pt
Ġgrad ient
Ġsupp ly
Ġb ounds
Ġpredict ed
ĠN ight
ĠA ge
Ġknow s
M ed
198 2
Ġl ie
Ġmod ified
U sing
it age
Ġtell s
Ġex erc
Ġdiv ision
Ġtra ject
Ġiss ued
Ġm ist
im ately
Ġmom ents
ĠDes ign
Ġcomm ission
ĠMed ical
ĠC EO
bm atrix
Ġang ular
) }}
c ut
Ġst orage
ĠIr ish
ĠA R
Ġf at
Ġs av
ĠB ow
T ra
1 10
Ġn one
Ġnew sp
u an
ult ane
Ġb gcolor
ide os
z y
u um
ĠApp le
Ġad m
Ġstud io
big l
ĠAb out
ĠN orthern
Ġsu itable
Ġspec ifically
Ġstat istical
Ã ¨
ĠThe atre
Ġdescrib es
ĠC ard
A rt
Ġf ib
Ġ ]
ĠV an
ĠFrancis co
ĠF ort
Ġd ial
Ġt ail
Ġ[ \
Ġn arrow
fl oor
Ġinvol ving
Ġf le
ĠC ross
or al
ĠC P
ĠWe b
19 50
ust er
Ġcoe fficient
Ġbal ance
ish op
Ġent ropy
ĠF ar
yl van
Ġun iversity
f riend
Ġpattern s
Ġded icated
Ġc m
Ġpur poses
ock ey
Ġcomp ris
ak s
ath an
ric s
Ġaspect s
Ġext end
Ñ ģ
in du
Ġv ision
Ġk ill
Ġopin ion
ĠJ oe
Ġf ear
c alled
poss ible
Ġun less
Ġv oc
Ġab und
c uss
ab eth
ĠOr gan
ĠB ern
Ġgeomet ry
rast ructure
Ġor bit
S L
Ġaward ed
^* $
}\ ,\
Ġoppos ite
Ġfac ilities
ap ed
Ġwid ely
Ġpre par
Ġobject ive
Ġtrac ks
r ants
Ġd ie
y e
Ġw ait
Ġb an
ĠE nergy
Ġbusiness es
ĠDemocrat ic
Ġs witch
Ġinvestig ate
Ġk ernel
g ency
b ec
: =
nb sp
h as
ar iance
{ {
Ġapp eal
ĠL ine
Ġdecom position
a fter
ĠMod el
ĠSecret ary
ĠF ederal
Ġfin ds
a ud
Ġter rit
ult y
ens es
Ġint ended
b ury
ĠChrist mas
Ġtr ig
Ġsc ored
Ġthe ories
Ġ à¤
] (
Ġmax im
ĠG overn
ĠL ike
Ġow ner
Ġcon vex
Ġunder lying
Ġa maz
Ġden oted
Ġbelie ved
big r
Ġthous ands
m ond
B M
ĠOr der
p ass
Ġwrit ers
ĠHe ad
Ġbas ket
Ġend s
ĠT em
Ġfavor ite
ĠM ot
Ġp owers
h ire
a a
Ġapp lying
ĠL ast
] $.
Ġconf idence
\ }$.
197 9
p ack
ĠCon st
f irst
a un
ve e
S D
Ġle mma
D on
Ġp seud
Ġdet ected
w ater
sc ape
ĠA uthor
E qu
Ã ¢
er ate
ic ip
Ġvert ical
ĠSp ain
Ġconcer ns
Ġscient ific
Ġgl ass
ris on
ak a
p o
Ġwould n
Ġco inc
h ar
Ġ Î
ĠDan iel
ĠS outhern
$ :
ul i
Ġcol lected
Ġcharacter istic
on to
Ġmar riage
Ø §
Ġinvol ve
Ġnot es
S m
Ġevalu ate
ĠAd minist
Ġweek end
f ram
ĠF ed
ĠIn deed
Ġri ver
I ma
Ġtrans mission
ĠRad io
Ġprot ocol
is ely
ĠT O
ac hel
Ġseem ed
ĠP riv
du le
act ic
Ġn amely
Ġanim als
Ġmulti plic
H ome
Ġgu ess
ad el
Ġcre ation
Ġbi as
ili ar
ly wood
Ġloc ally
ĠV i
Ġhigh light
ĠU k
ĠH ospital
fl u
ylvan ia
Ġproject ion
ant ly
it ative
o ir
Ġw itness
S ection
ĠIn vest
Ġr ig
ĠPro t
Ġcor ner
ĠP ubl
Ġconsequ ence
Ġsum mar
Ġto t
l ocation
Ġem ot
l ik
ip e
st one
u er
Ġis omorphism
tain ed
on ly
ch ar
Ġcalcul ate
ol es
Ġv ir
Ġexpl o
Ġfeel ing
ins on
ĠIn f
a ug
P M
V D
D uring
] }
Ġgirl s
Ġrepe ated
pl ate
}} _{\
Ġdatas ets
ĠStud ies
Ġyou th
Ġf uel
Ġveh icles
Ġentire ly
id ents
Ġnecess arily
ĉĉĉĉ ĉ
Ġbehavi our
con ds
Ġequ ilibrium
Ġdisc over
Ġse at
d frac
ĠK en
\ ;
Re ad
ĠA G
Ġrest ric
Ġbro ken
ject ive
Ġmag azine
Ġsub group
ĠW at
Ġrepresent ations
-- -
T rans
t frac
il ly
,\ ,\
st ood
less sim
198 1
Ġcre w
Ġbeg ins
ĠPhil ipp
ĠJack son
$ _{
ĠB at
Ġhous ing
Ġcount y
Ġdes ired
erson al
Ġ\ ]
Ġf ellow
ĠCo ast
? "
iqu id
al i
on ed
ĠC A
Ġdi ver
Ġimplement ed
Ġdoc uments
ĠM id
) )\
et al
ra q
6 00
Ġp p
Ġfun ds
rehen s
Ġagre ed
math op
ĠR ay
ĠPac ific
Ġmat ches
amp ion
Ġtri p
Ġdri ver
od d
ĠAn y
ĠR a
Ġsufficient ly
Ġreg ional
$ };
L ast
Ġf rag
Ġcoordin ate
ad or
Ġt ight
Ġper m
Ġperform ing
Ġcont rad
Ġad opt
Ġcapt ure
ent h
i very
Ġmur der
ĠRepublic an
Ġcon vent
eng er
Ġreturn s
Ġ{ $
Ġtw ice
ud den
ap es
Ġca ref
Ġperspect ive
Ġabsol ute
Ġfl ight
Ġmot or
j i
ĠInd ust
R ep
ens ions
re ll
Ġher self
ĠC ivil
Ġinter section
Ġj et
ĠT er
ag ged
Ġcateg ories
Ġindic ated
ĠSe a
on ym
ĠW ales
erv es
Ġlarg ely
in ate
Ġn ar
ĠAs sum
" :
t es
at uring
ĠS P
Ġneut r
Ġpen al
Ġf ell
Ġtemper atures
ĠAg ain
Ġh air
Al though
Ġsp ok
Ġen em
ain s
ad ow
Ġtourn ament
ov iet
ĠL ear
ĠD un
ĠProfess or
os a
Ġc ouncil
ig er
pl an
Ġw ww
bra ce
ĠWil son
h u
f i
Ġmark ed
long rightarrow
ov es
ĠS ir
Ġa p
Ġres ource
Ġcomput ing
Ġk ick
,\ \
ĠQue en
Ġassum ptions
he ast
il ation
Ġst re
W ill
Ġexcell ent
Ġsecond ary
` `
com es
C he
is er
el a
st rong
}} )
ĠE xt
Ġare n
Ġtru ly
Ġinteg rated
pro cess
ĠKore a
8 00
Ġp ool
oc ument
] $,
ĠF red
Ġwe ights
Ġn ative
ĠAn other
ĠA ND
ren e
il bert
Ġrem ove
G l
ĠJ r
app ed
Ġclos er
, ...
Ġh ab
ĠCol or
Ġ rom
ĠEx ec
ĠG ar
M P
int eg
n am
ĠA T
Ġfeed back
ĠC amb
Ġs ister
ro vers
Ġown ed
eli hood
ost er
am ber
ĠP op
Ġsampl ing
Ġag ency
Ġgu ide
Ġbl ocks
tr ue
c ount
Ġdis pers
ynam ic
ĠD aily
ap se
Ġs outhern
Ġdef ault
ist ed
s ylvania
Ġport ion
ĠSt an
Ġexc ited
i est
Ġpi eces
Ġinj ury
ob e
ĠB ol
ĠL ittle
g r
Ġd ance
Ġsupp osed
) })
ĠMich igan
ĠP C
ĠG irl
" ;
sk y
im ents
ĠW rit
ro g
rat ic
medi ate
ĠScot land
| }
Ġcom fort
Ġint ensity
Ġre produ
Ġestim ation
$ &
ĠR ights
Ġl ibrary
Ġrecogn ition
il a
Ġp it
ĠF our
ĠC H
T wo
Ġs ale
Ġapp reci
Ġclass ic
ot i
Ġprec isely
ĠM ethod
Ġst r
el ly
Ġinsp ired
bur gh
}} .
Ġent ered
Ġh idden
, {\
iz abeth
Ġwe ather
Ġlum inos
][ ]{
ĠM ountain
en ess
197 8
j oint
A dd
i ota
Ġb os
H T
Ġgrav it
Ġanc ient
Ġreview s
ĠAd v
Ġcl ient
res ults
ĠRe ad
ĠE gypt
Ġclin ical
F ilm
ĠK im
Ġele ctions
i em
) --
;\ ;\
Ġarg uments
Ġpro min
Ġsupport ing
Ġdisc rim
Ġm unic
Ġadv ance
ĠS U
Ġsim ultane
pro t
En d
Ġfac ility
Ġpa rent
D C
Ġsh ut
st ep
ĠW alk
Ġcaus es
Ġteac her
Ġhel ps
Ġsk y
in ity
Ġt urb
Ġeffect ively
h igh
ĠO x
ne ver
s at
ĠBe ach
Ġw aves
D T
Ð¾ Ð
Ġclos ely
w er
Ġsign als
per form
ar se
Ġinter act
Ġhe av
Ġbre aking
ul ating
Ġpl ants
Ġadv anced
}} ^{\
por al
ĠEx per
ject ed
A V
v ature
An other
Ġaccept ed
ĠSte ve
Ġass ert
ĠBro ok
enn is
or ough
br as
or ters
fin ition
in it
Ġnear by
Ġsatisf ied
Ġt ransp
Val ue
Ġd ram
Ġgrav ity
Ġkeep ing
ĠL o
Ġj ourney
ord ers
}) }
v art
197 6
| }{
p ace
ion e
Ġarriv ed
Ġn orthern
Ġf erm
Ġbul k
ĠG reek
Ġexpl an
Ġ ^{
ĠPr ime
Ġoff ering
Ġfor t
Ġcontroll ed
ed ge
K ey
Ġarm y
}[ \
Ġexplicit ly
ĠA sh
arg et
Ġflu id
Ġprodu cer
Com m
us hed
ĠP rem
ord an
Ġdec isions
197 7
agn etic
Ġdivid ed
Ġ era
ien ced
ĠM ajor
Ġcall ing
Ġadv oc
Ġemploy ed
ys et
Ġc risis
ĠApp endix
al gorithm
Ġcon clusion
Ġne ural
T op
rie ved
Ġacadem ic
M on
197 2
Ġde ploy
. âĢĻ
ĠBro ad
ĠR om
g a
Ġass igned
}} }\
ipl es
Ġk id
b ro
cur rent
ĠG i
% )
Ġin verse
ĠK enn
Ġra ise
$ {\
Ġr ational
Ġm apping
Ġs an
Ġpost ed
ĠL ive
In st
Ġdra ma
av or
Ġrec ording
Ġmov ies
semb le
Ġs ession
ib li
Ġessential ly
z ed
ĠJer sey
Ġderiv ative
197 4
}) =
Ġprinc ipal
ĠR un
Ġexper iences
197 5
par agraph
ĠF air
if er
Ġb at
Ġhold ing
Ġl anguages
n n
Ġatt ended
te en
Ġz one
O U
ĠA ud
j ust
ĠAs ian
rom e
Ġfl ag
Ġext ent
ut ely
p ublic
ĠT w
ĠS ong
Ġmark eting
Ġenerg ies
ino is
empt yset
ps on
Ġpredict ions
f un
Ġpract ical
he ta
w orld
Ġauthor ity
Ġa f
Ġte le
I ST
Ġcar bon
Ġp rices
Ġserv ing
G R
Ġprep ared
Ġcharacter istics
s ign
ĠC R
c ore
ĠM ah
mod ule
Ġresearc hers
Ġc riminal
ul se
ger y
B ack
Ġsequ ences
[ -
Ġse asons
Ġorgan ized
Ġse vere
Ġstand s
\ )
ens ities
Ġpl as
Ġ ur
Ġyour self
Ġdef end
ak ed
atur ally
bre ak
ĠL ight
! âĢĿ
Ġcol on
E P
R ight
ĠC ase
Ġconcer ned
Ġmanif old
b et
Ġtrans lation
Ġfin ish
ĠOn ly
Ġsh o
ĠH om
v ari
in als
Ġread er
Ġarm s
ist ent
ĠÂ ·
Ġconflic t
Ġsurround ing
ĠOh io
j s
l ow
Ġwin ner
in er
ang ed
Ġdi agonal
Ġm el
Ġpass ing
Ġfil ed
ĠB ell
Ġcommit tee
Ġb ench
Ġpl anned
script size
ĠN et
op en
ĠRe al
red it
Ä ģ
Ġad vent
Ġhe aring
ier arch
H C
) }_
ĠD C
ĠN avy
Ġwatch ing
Ġprim arily
erv ation
st able
Ġauthor ities
Ġsh ares
Ġdown load
Ġbasket ball
le ctions
ism s
Ġgu ys
Ġjust ice
ĠS om
eg ory
ge bras
Ġ$ .
Ġintrodu ction
Ġ( "
Ġvirt ual
ĠT oday
force ment
ĠW he
E xt
Ġdemonst rate
Ġf ra
b ottom
ct ic
Ġp al
Ġpract ices
Ġsp end
Ġmatch ing
Ġrelations hips
dition ally
Ġvers us
u i
Ġsu c
at he
im a
Ġinstit utions
Ġstrateg ies
Ġl ock
Ġf ill
Ġdeb ate
Ġmax imal
ac ent
A ct
Ġf illed
n ight
ĠTh ree
ĠB ul
ĠH a
Ġun iverse
Ġinterest s
ĠOlymp ics
197 3
" );
Ġincor por
Ġ ^
Ġco oper
R em
Ġm useum
ve ct
Ġsp ring
ĠS us
h ang
= .
C at
Ġindust rial
ĠB rad
Ġmanufact ure
Ġparticip ants
Ġt rivial
Ġcomp osed
column width
B ook
S F
ĠM as
D av
r ust
s es
Ġm ental
Ġenh ance
t iny
196 8
Ġalle ged
rib e
Ġit em
ĠC M
Ġf aster
Ġinterpret ation
Ġimprove ment
ed u
Ġrepresent ing
Ġannoun ce
ĠF ire
pl ane
Ġmat hemat
ir ty
Ġvis ible
al gebra
Ġeven ing
ĠF ield
Ġor g
Ġs ounds
Ġassoci ation
ĠB oy
ĠB a
Ġcry st
Ġse conds
not es
ĠM P
Ġf ish
Ġwor st
ĠV iew
ĠI T
ĠI raq
D is
C al
Ġabs ence
est ed
ĠK ent
ĠTr ust
ĠL ew
Ġp un
Ġmark ets
D ec
och astic
ĠAd am
Ġunivers al
Ġtro ub
Ġ\ &
m n
Ġsupp l
Ġrepresent ative
Ġsubsequ ent
ĠM ult
Ġcomput ational
Ġnon linear
ĠA mazon
Ġdou bt
Ġlow est
J ust
Ġrad ial
Ġf lex
ĠB BC
ĠM ov
Ġreason able
ĠK ong
Ġw ire
Ġsle ep
D B
il der
Ġhand le
G iven
Ġact ress
t rivial
ĠPenn sylvania
Ġvers ions
ĠC ro
Ġdra wn
Ġnot ion
amet ers
ou rier
ress ive
ipp ing
Ġhot el
Ã³ n
ĠL og
ĠH ard
Ġhelp ing
ĠEmp ire
+ +
Ġacc ident
ĠF ood
pt o
ib r
ors hip
b ase
t rack
e lect
Ġtop ological
Ġv ot
ĠP oint
Ġsc ript
Ġcontrol s
Ġc as
Ġengine ering
Ġprote in
Ġunder stood
bl ock
ook ing
Ġwor se
E X
Ġex clud
ĠR od
II I
c over
ĠCor poration
ev in
Ġamaz ing
Ġfight ing
Ġbr ings
^{ *
ĠSup reme
Ġd rum
out s
Ġequ ality
Ġjud ge
rop ic
Ġconst ants
Ġmin ister
Ġout er
Ġte aching
Ġspec ified
Ġsomew hat
um es
ur ations
Ġsuc ceed
ĠS her
Ġwe alth
Ġdefin itely
Ġwa iting
vart heta
Ġg rew
}_{ -
Ġcommit ted
Ġlabel s
........ ........
ident ial
Ġprop ose
pt ic
ĠCon f
Ġ urban
h l
Pro of
10 1
Ġadv ice
ve ctor
Ġem pty
Ġmix ing
Ġcommon ly
Ġtop ic
Ġre tail
Ġc art
l oc
Ġb ridge
el d
wh ite
Ġmov es
Ġeas ier
Ġshe ll
the re
ĠN ext
ĠN on
Ġde pendent
Ġcontrib ute
Ġser ver
ĠG iven
sl ash
ic ular
ĠAs sembly
ar ity
ĠM aster
Ġphot on
Ġprot ected
Ġpriv acy
omet ry
Ġan imal
if ted
197 1
B O
Ġgreat est
Cons ider
Ġdemonst rated
qu ot
Ġcan onical
Ġmagn et
ĠM ic
Ġserv es
Ġal umni
s a
ĠN umber
ĠB on
ĠB ang
ĠF ox
ĠSte phen
sl ant
ĠCh air
Ġoccur red
ĠSt ring
ĠR h
Ġasympt otic
Ġ iron
ik i
Ġder ive
us er
ĠW ild
Ġex cess
ĠI P
Ġsett ings
Ġ }{
x x
Ġupd ated
}) ^
Ġ\ (\
ĠP en
o z
Ġcover s
ĠE st
ru ctions
Ġg ender
L T
are t
Ġc ash
ro sc
Ġv ideos
new s
Ġsup erv
Ġrec over
Ġro les
Ġspe aking
ann a
g t
Ġmole cular
Ġsuccessful ly
or i
u zz
ĠOn ce
Ĥ ¬
et ts
Ġhom es
ĠCom put
Ġs and
Ġstand ing
Ġquas i
f il
Ġembed ding
Ġsign s
ĠS at
ul er
A F
Ġ ing
Ġp ed
ĠR en
Ġv en
Ġcon form
Ġinter ior
od ed
er ior
Ġappro ved
ĠS C
osop hy
196 9
ĠSc iences
ĠD onald
ĠI D
Ġ ille
Ġex ceed
Ġt on
ĠH un
Ġphot os
Ġan om
Ġl oved
Ġe q
le te
Ġinc red
og ether
Ġsp ons
ĠPak istan
Ġs we
res ult
g ers
Ġco al
Ġst orm
Ġact ors
H ence
ar ters
Ġprofess ion
\ }$,
fig ures
Ġfam iliar
ĠG R
ĠInst ead
\ }\
Ġwh atever
ĠPr ince
olog ist
Ġhypothes is
}} =
Ġdat abase
D r
Ġs udden
C ur
Ġquant ities
Ġhon or
ĠW is
}$ }
Ġident ical
Ġgeneral ized
y les
Ġpurch ase
n um
ĠA st
Ġg ar
Ġab use
ou pl
Ġc aught
Ġs ac
Ġstat ements
Ġhous es
ay a
Ġsens itive
Ġdire ctions
Ġrece iving
Ġcustom er
Ġassum ing
ĠS i
tikz picture
Ġexper ienced
} |\
B R
ad ed
Ġearn ed
ĠGeorg ia
Ġcircum st
Ġcl ients
Ġme re
d ney
ĠP ass
Ġpath s
b ell
= #
Ab out
Ġper man
Ġinteg r
Ġsupp ose
spec ial
l ock
ph ia
Ġsc ores
}) ;
Ġ// /
Ġqu ark
Ġcom edy
es ides
al ing
Ġcho ices
Ġcover ing
con dition
ĠS oviet
Ġvar iance
Ġext ensive
Ġinf rastructure
Ġdimens ional
Ġtra ce
ĠM ount
ric ket
& =\
Ġcirc uit
ĠJ e
S erv
ĠE astern
oun ger
Ġdec ade
/ (
Ġal t
ut or
Ġcoupl ed
ĠEn vironment
X i
Ġpack age
bold math
Ġw estern
Ġar c
In f
sh ire
Ġprofess or
M in
Ġvol unte
w orth
ĠB attle
ra ined
Ġext reme
ĠĠĠĠĠĠĠĠ ĠĠĠĠĠĠ
Ġdecre ase
d r
ach us
v s
ĠL abor
B ox
L emma
p ed
Ġpres ents
Ġfil es
ĠP age
ĠDe ath
Ġprogram ming
Ġa ware
Ġcont rovers
Ġv ent
Ġdou b
Re f
em an
id ay
d el
Ġsat ell
} ~
ĠD NA
ul ing
ĠB ase
Ġcap able
Ġac id
==== ====
Ġdel ivery
ort ion
ĠC all
Ġl ose
row s
: =\
Ġevalu ated
ĠN C
ĠM S
fin ite
Ġcre ative
n ic
Ġ( {\
Ġcomp at
ĠIll inois
ĠSt ory
is a
h ard
ĠChild ren
le ts
Con n
Ġthem e
Ġrecogn ized
Ġa wards
AT ION
Ġth in
ĠEd ward
u v
ĠC as
p ool
ar ma
Ġacqu ired
ul ner
Ġst ead
adel phia
m al
Ġ$ ,
Ġm ent
Ġgener ic
12 5
Ġb odies
ĠHig gs
Ġlist en
ol is
ive red
Ġcru cial
ra ine
ĠB and
the less
Ġfind ings
par ison
eg o
Ġcl ick
Ġdriv en
ro b
Ġre ct
ib ilities
Ġdom estic
Ġcapt ured
Ġsec ure
ĠSt ation
P E
Ġaccount s
ymmet ric
Ġm al
ĠV ill
Ġded u
Ġepis odes
ain ed
ĠD ar
con fig
ĠPh ot
196 7
Ġp apers
Al so
in ating
ari os
C ar
re r
Â °
se x
pr ise
Ġdynam ical
' .
Ġb atter
Ġfe aturing
Ġpotential ly
Ġfif th
H L
ĠW ars
Er ror
t w
script style
ĠIn n
Ġest ate
ĠD M
ĠM A
u ated
ound ed
Ġconcer n
Ġ/ **
Ġsub s
Ġsh aring
Ġcol our
Ġb undle
in ction
ĠS ep
achus etts
Ġs izes
rupt ion
ess ions
sub sec
Ġch art
ub ble
multi row
Ġtest ed
Ġm ort
Ġrelig ion
includ ing
ĠS D
Ġint elligence
m ethod
Ġr id
Ġcrow d
Ġcur vature
ĠGu ard
Ġst ack
ĠR og
Ġarrest ed
g eneral
in stein
Ġsim plic
Ġtal ks
O V
Ġcorre ction
- (
ĠTh rough
Ġread ers
ĠExec utive
on ia
Ġ ×
Ġd ashed
Ġrec ip
Ġhum ans
ĠCl ark
Ġvac uum
Ġneut ral
p es
Ġins urance
T est
Ġperform ances
ĠI d
oc racy
Ġexpress ions
or ig
P D
Ġequival ence
Ġbring ing
Ġh aven
d ers
W ork
Ġfluct uations
Ġdeterm in
Ġb ow
et ies
Ġsp ac
ĠPro du
S um
ĠEl izabeth
Ġcele br
Ġapproxim ate
iss on
ĠAn th
ir ror
Ġdro pped
ic ious
am i
ĠB ru
par allel
Ġalong side
Ġf ol
Ġult imately
Ġre ferences
19 40
Ex ception
^* \
Ġim possible
ĠMin istry
ĠBook s
Ġsub t
Ġgu ard
ï ¿
Mod el
al so
Ġreg ul
Ġredsh ift
Ġh un
G A
N ational
ER S
Ġent ries
Ġsk in
Ġprof iles
red uc
eng ers
ĠSe ason
ap ore
phant om
Ġprogram me
? ?
Ġsto pped
ĠN ick
Ġmed al
sum mary
18 0
Ġpublic ation
Ġstrong er
Ġinvol ves
Ġf aces
Ġfav our
m i
Ġne ither
ĠT al
Ġpoint ed
Ġexp osure
Ġrough ly
Ġnew ly
Ġst ret
ĠB C
19 30
ĠM att
Ġfrequ ently
ĠRep resent
es ian
A ut
ĠL uc
Ġmed ian
st ruct
con f
Ġimmedi ate
ĠTor onto
Ġdrug s
Res ults
ĠS N
ĠC irc
Ġfl ood
lo op
G eneral
R R
D ep
ĠM ain
P L
Ġscen es
ï¿ ½
Ġsepar ation
Ġl iquid
ic ial
y o
Ġsp an
T A
Ġaff ord
Ġsur ve
ĠAlex ander
d ate
ĠN ever
Ġluminos ity
sequ ently
ot he
coh ol
ĠH ong
Ġcont emporary
cal e
Ġm es
Ġcorre ctions
ot ype
ĠLat in
Ġb ond
ig rants
Ġm ac
ri ate
Ġra in
Ġhistor ic
R et
+ (
G M
Ġ riv
Ġregist ered
^{ (\
Ġquant ity
ak ers
d on
More over
Ġpass ion
ĠJes us
12 8
Ġrespons ibility
E very
Ġdo ctor
rit ical
Ġsent ence
D isc
rib ed
Ġhundred s
ĠGe V
Ġshoot ing
it led
the w
Ġlink ed
ã Ĥ
on ents
EC T
Ġp ra
Ġ ,\
nes ota
Ġsum mary
tain ment
Ġn av
Ġs oul
cre en
Ġpl ate
Ġmin ute
ĠEngine ering
l s
Ġt ack
A ust
ĠA venue
Ġro ut
Ġb ass
u z
Ġaud io
ĠV iet
M ark
v y
Ob ject
t i
ad i
u able
Ġput ting
Supp ose
Ã §
ĠN AS
Ġsee k
Ġfact s
ir k
Ġg ene
ob ject
Ġtren d
ĠColumb ia
Ġc oun
// //
Ġrad i
Ġweap ons
rag on
Ġph ases
A g
Ġconsist ing
Ġb omb
Ġaccom pl
Ġpolitic ian
Ġout come
Ġwill ing
ĠN a
O h
Ġend ing
Ġa thlet
ĠA D
is lation
âĢĻ .
Ġa id
rehens ive
p ower
Ġcrit eria
ĠM arg
ĠB rand
Ġele v
p et
ĠAre a
ĠPer form
L og
cont ent
Ġconcent ration
enn es
f ast
Ġag greg
Ġpropos al
Ġrespect ive
ug by
ĠR ose
Ġl osing
ab et
lic ation
ĠPal est
M ost
Ġv eter
pro duct
or gan
Ġattempt s
n i
en ance
Ġd ot
z ing
Ġconn ections
Ġf iction
back ground
E arly
ii i
Ġemb od
ĠCons ider
Ġresist ance
Ġbo ost
Ġag ric
Ġdec ide
Ġcomple ment
ĠD ark
an th
Ġvari ations
ĠUn ivers
Ġr is
Ġch apter
ak i
Ġg ate
Ġcollabor ation
Ġanal ys
reg ular
Ġs oc
ĠB all
Ġar ts
d iff
ĠGovern or
M em
at on
Ġdomin ant
hen tic
H ar
Ġdel ivered
med skip
Ġp ip
rang ian
ĠDav is
Ġat oms
Ġro ots
Ġfe els
ĠB an
st art
Ġcon d
ff ee
ad ers
ĠDig ital
st s
ĠJac ob
ã ĥ
Ġguaran te
B i
ĠS ign
Ġw avel
ĠR os
) ^\
A p
Ġte en
in der
Ġtechn ologies
ĠU r
196 4
Ġeigen values
N C
Ġesc ape
Ġprom ote
00 1
Ġint r
enc ing
ir ical
ĠMicro soft
cl osed
Ġn aturally
Ġd ense
U M
ir ation
W ell
Ġredu ces
Ġst ochastic
od cast
Ġchalleng ing
Ġexpand ed
Ġhon est
196 5
H om
a ire
Ġen able
Ch rist
ĠM ill
Ġlet ters
not ag
ĠOn line
. \\
Ġun able
Ġsh ips
con sin
Ġinstit ution
19 45
ual ity
Un der
sc he
T T
ixt ure
Ġfootball ers
n av
ĠGu ide
Ġgener ating
Ġg all
ĠT ype
ĠJew s
\ |\
Ġoper ated
B L
ĠL td
Ġwall s
$ ^{
J an
Ġv otes
Ġask ing
v als
ĠT H
im er
En glish
Ġg iant
ĠV ideo
ĠG rant
ĠR ight
fin ed
~ (\
Ġneg oti
Ġre ar
eng ths
) );
Ġpolitic ians
S W
Ġsup ers
Ġin ternet
ĠL ocal
Ġc ab
ĠMed icine
Ġn ut
ĠT urn
ĠComm on
ĠE u
Ġhy brid
R equ
T ext
Ġsp ending
m o
un it
Ġfit ting
\% $
Ġdi verse
ĠS ky
H is
Ġf estival
ivers ary
ibli ography
Ġmat ters
Ġ$\ {\
Ġb aby
Ġinter pre
b p
Ġc ro
ell o
at iv
Ġelect ro
om ent
Ġgravit ational
ĠI V
ĠC ost
Ġy ounger
ag ues
B u
Ġs ight
ĠN FL
ĠH o
ĠJ ean
Ġrestric ted
R I
( -\
Ġcor porate
v ision
Ġin clusion
ĠComm unic
i ary
Ġabsol utely
Ġsupport s
Ġwin ter
ĠK ar
ĠMass achusetts
Ġw ins
Ġn ob
ĠR yan
Ġincreasing ly
og onal
ĠE ric
math it
Ġe at
ĠR ou
Ġdet ector
ĠA L
ask a
ĠA p
s quare
ĠC ode
ĠAn ton
Ġfl ows
Ġreal ized
osp it
ub b
ĠI ss
it udes
ĠD espite
ib ration
Ġcop ies
Ġm as
ĠE th
Ġre act
ĠW here
Ġsens itivity
19 20
Ġre new
neg ative
L abel
i ability
Ex p
gra de
' :
Ġsurpr ising
Ġtot ally
Ġg ather
Ġh all
Ġfac ilit
Ġsold iers
Ġd x
ĠS on
Ġoppos ition
Ġce rem
Ġm il
Ġdom inated
it o
ĠI mm
Ġcamp us
Ġst ages
Ġexper ts
ok ing
Ġad ult
opy right
Ġman age
Ġinter mediate
inem a
e ven
en z
b ot
ne xt
Ġso le
Ġpro ud
Ġpromin ent
Ġr ural
ĠD am
are st
ĠHol lywood
ĠF C
Ġscient ists
riz ona
se cond
Ġvoc als
Ġconserv ation
Ġs now
Ġinvestig ated
Ġext ends
Ġprec ise
equ ations
Ġin fer
ever al
ĠPort ug
ĠS em
Ġabsor ption
Ġdiscuss ions
ar ia
iss ue
ĠSy dney
Ġworld wide
er on
g ment
Ġp ray
B est
ch ing
ul pt
it i
ord on
j u
W orld
e ah
l ers
A tt
Ġre venue
l ights
cor ollary
Ġqu ery
Ġcomp ens
ĠU pd
Ġtarg ets
Ph oto
ow ered
Ġocc asion
ĠCount ry
Ġse es
Ġexerc ise
resp ond
Ġh alo
! ]
em ic
Ġexplain s
th ur
p he
Ġc ensus
Ġvictim s
Ġteac hers
Ġt ang
Ġnewsp aper
au x
l anguage
ĠPro b
ĠM ach
X X
Ġcomplic ated
Ġr ide
Col or
A c
st ic
Ġsu it
Ġconfig urations
196 6
Ġs quad
Ġillust rated
ĠSpr ing
' ]
Ġsee king
S er
ĠP ot
Ġconvent ional
h av
ĠG ro
id ae
L i
Ġd ry
ear ing
ĠK now
Ġw arn
Ġfrequ encies
ĠSupp ort
ĠT ony
ĠG ener
ĠN ations
aw n
Ġperturb ation
^* (
Ġleg isl
p y
ĠY es
\\ \\
Ġsp oke
Ġbase ball
ĠIs lands
ĠOx ford
Ġab and
Ġautom atically
M r
Ġsepar ated
Ġacc ord
ĠC L
ĠM iller
is or
ir th
Ġuncertaint ies
Ġdanger ous
Ġc raft
ĠSch olar
Ġ! =
ing ham
ĠB ad
Ġperiod ic
rop ical
ver age
point s
y ers
Ġis ot
Ġin tern
Ġsol o
| ^{
Ġsubsequ ently
Ġv ice
ĠH and
Ġh its
Ġf ly
ĠV en
ant i
U E
Ġident ification
ens ed
rep rene
ast s
Ġvac c
Ġfew er
ĠD utch
Ġscen arios
par ameter
Ġexp ensive
ĠW el
Ġla ugh
is ot
back slash
Ġv ess
l arge
ud i
Ġrestaur ant
ĉĉ Ċ
ĠL ore
ĠM C
ĠS af
B B
ĠB rian
Ġpop ulations
w ave
Ġcon sec
ĠOr ig
Ġexpl os
D em
Ġ ..
ile y
ĠF ollowing
Ġp uls
ĠSta ff
ine ar
C are
v o
ĠS anta
ether lands
ĠC ru
Ã ±
Ġth read
Ġmechanism s
Ġaut o
Ġrequire ment
rack et
Ġconvers ation
Ġstraight forward
Ġk illing
ĠF act
Ġv ulner
ĠBe fore
ĠVictor ia
ĠChampions hips
)} (\
p in
Ġacc used
a is
Ġresult ed
C ount
Ġb ought
n ames
. </
âĢĻ ,
Ġv ast
ĠCl inton
ĠHar ry
Ġprodu cing
Ġatmosp here
Ġstrict ly
ax is
Un iversity
ch ron
f ol
D ist
Ġmess ages
Ġsur faces
Ġpartners hip
Ġtal ent
ers ion
U p
Ġm ob
Ġpolar ization
ar ithm
Ch ar
el lect
um ps
ra ge
T ube
ic ide
Ġsol ving
ĠCont rol
Ġsystem atic
Ġelect rons
Ġemer gency
Ġadj acent
cy cl
Ġag encies
ĠA ction
ĠWind ows
( {
p op
ĠH ay
Ġ\ ,\
ĠR ome
Ġsche mes
! \
ĠL ady
Ġperson nel
Ġcharacter ized
Ġpresent ation
Ġpres c
Ġh ierarch
ian g
ĠLew is
Ġsubject s
ole an
ĠTur key
Ġfor g
Ġdeg ener
Ġposs ess
Ġpan els
im age
math tt
Ġrapid ly
Ġdeb t
ĠA k
tern oon
ce ived
h olds
Ġfor th
Ġhor se
Ġh ur
Ġsim ilarly
ĠB or
AS S
Dav id
ĠL ow
iss ions
Ġturn ing
Ġhealth y
ly n
E A
d ash
j pg
ĠDe ad
Ġk it
M c
d f
$. }
rel ation
Ġpro sec
ĠJ ordan
Ġon going
Ġprodu ces
Ġgeomet ric
Ġreport ing
Ġperiod s
Ġre ward
ĠBer lin
ar on
M T
Ġtri ang
anche ster
Ġref ers
ã ģ
aren ess
ĠW atch
ĠFore st
Ġdoll ars
16 0
Ġm and
Ġsc ope
h fill
w as
r ator
F I
it ter
ĠAd d
Ġsh op
( ).
ic ian
ĠU se
Ima ge
el esc
a uthor
ES S
ou red
R C
Ġst ores
Ġuniform ly
ou ston
Ġres c
ap os
d h
ow a
ver b
Ġtri ple
Ġprec ision
ĠAdminist ration
Ġst ick
and y
> \
Ġm outh
is ition
reduc ible
Ġt elling
ĠF ord
Ġfor get
op es
rep resent
Ġy ards
bour ne
Ġsimultane ously
ject ure
}{ *
Ġd iversity
Ġsub sc
. '
Ġrev olution
Ġa cknowled
ĠScott ish
Ġp ictures
erm i
Ġch a
u on
S ource
J u
Ġtit les
Ġassess ment
Ġy es
Ġmodel ing
f old
g reen
Ġb ran
Ġpercent age
Ġtro ops
F ile
M ich
Ġrec overy
}\ |
Ġproper ly
circ le
ĠPh oto
ĠDis ney
Ġresid ual
ch or
Ġproport ional
w ing
ĠH art
h ave
Ġst im
down arrow
H D
ĠT am
Ġbrief ly
Ġtw enty
ester day
ĠT ok
Ġprom pt
Ġcont est
ed ing
Ġbo ys
Ġt um
Ġman ip
Ġleg islation
Ġwalk ing
Ġconcer t
ĠSupp ose
ĠP ers
og ram
foot notes
ĠP A
Ġsus pect
Ġbas eline
ĠKore an
Ġassist ant
Ġvary ing
Ġdefe ated
As sum
P op
ĠColor ado
ĠC ub
ag a
Ġopp osed
Ġnormal ized
ant um
ow ed
ĠMin nesota
Ġdiff usion
ag an
Ġpre ced
Ġquad ratic
Ġaccom mod
Ġt aught
Ġmet all
en ant
Ġclub s
ĠPhil adelphia
ĠMon te
u ction
st atic
stack rel
ock et
Ġset up
Ġrail way
Ġc odes
ĠSystem s
ast y
"> </
Ġl y
C ent
fin al
footnotes ize
Ġord inary
Ġslow ly
B rit
Ġpref e
Ġb are
E m
Ġdisc overy
Ġgrant ed
Ġform ulation
ĠG ree
ĠHot el
Ġf ounder
Ġsche dule
Ġgen us
ak h
ĠMag azine
et ary
Ġsched uled
est ion
per ties
Ġbound aries
M at
p red
Ġexpect ation
Ġderiv atives
' _{
Ġsw im
ĠT erm
Ġind ices
exp ected
ĠF ac
Ġconj ug
Ġwas te
ra v
Ġupd ates
Ġpers ons
Un ited
St ar
Ġstri ke
ymmet ry
el le
Ġcircumst ances
per t
U s
ph y
Ġob lig
Ġad ults
Ġbig ger
Ġdecl ared
ĠGold en
Ġsit uations
Ġf its
Ġconsum ption
Ġthe rapy
ĠSing apore
Ġorient ation
Ġconsider ation
Ġapparent ly
ov al
Ġexec ution
is ode
Ġdestroy ed
Ġisol ated
c raft
th ick
Ġvis ited
Ġsign ature
Ġhab it
Ġsuff ered
{ (\
ta ke
Ġc ir
Ġd ensities
Ġas sets
st at
iam i
Ġhorizon tal
f ont
ĠMe an
Ġcut s
ĠK at
m ad
Ġredu cing
Ġret ired
K e
ma kers
du ate
or ous
st ery
Ġreconst ruction
up arrow
E G
ĠS yn
ĠG P
Ġwel come
r ine
se ason
ĠC ook
ĠH al
D i
U C
&= &\
[ '
ynam ics
Ġhol es
& &\
ra ce
Ġ/ >
Ġsum m
ip ality
her ical
196 3
ĠC hen
Ġneigh b
Ġplas ma
Ġleg end
Ġret ire
$- $
Ġproced ures
reg on
ĠP ut
w hen
Ġh al
Ġexhib it
p res
pro v
Ġ{ };
An y
Ġde viation
ĠAnd erson
| $
r ide
ĠMark et
Ġeduc ational
ĠEn t
b rane
Ġinstrum ent
H O
ĠE ff
13 0
ĠF ourier
Ġmiss ed
E V
Ġstre ets
od ge
ĠL es
Ġobvious ly
Ġcons c
w ill
196 2
Ġad vers
Ġst one
\| _
rom agnetic
Ġs elling
cul es
ĠMar sh
Ġalgebra ic
Ġsil ver
Ġconsequ ences
Ġread s
f ortunately
Ġsurpr ise
ĠGall ery
Ù Ħ
h or
Ġcol ors
Ġdefin es
n ol
ĠSim ilarly
Ġexplan ation
Ġass ault
Ġl aser
Go ogle
ĠB ush
or ry
eb ox
n umber
aint enance
Ġse ats
Ġthough ts
Ġcolumn s
Ġview ed
ĠP lease
Ġch ose
ĠRev olution
ĠS av
ĠB ridge
Ġdis pl
ĠS ab
Ġe c
Ġtransfer red
M ap
sh ift
eth yl
Ġoper ate
ri ers
ĠD ream
mer ce
ik a
az e
c ers
t ario
Ġinde pendence
Ġb anks
ĠHistor ic
Ġdis put
Ġcommunic ations
ĠBro ther
ĠIslam ic
Ġgain ed
P at
g ets
Ġsh arp
etail s
t z
Ġgu est
Ġmetric s
Â ©
um a
Ġcontinu um
ens ing
Ġenjoy ed
7 00
ĠD er
Ġbro ke
ĠF ull
Ġout l
Ġm m
ta ck
im its
Ge V
pl es
w atch
Ġloss es
G en
T ags
h ot
New s
F S
ific ial
{ |
ĠPr inc
Ġoffic ially
ĠSar ah
ĠBel g
Ġneutr ino
Ġpost s
ĠDemocrat s
ĠL ater
E vent
Ġb ath
Ġshe l
! --
th rough
gh an
um in
En t
ĠK ey
Ġstudy ing
ch ain
ys ical
Ġst abil
Ġconven ient
ĠN etherlands
! "
ma ke
Y es
Ġamount s
Ġqu iet
ĠL yn
ĠR oss
w t
Ġv on
Ġvisit ors
F P
Ġorb ital
ĠOffic er
Ġre in
*} [
ac her
ĠCamb ridge
Ġdecre ases
ic ation
ĠD om
{ .
ĠC reek
Ġcompet itive
S outh
ag en
Ġmonitor ing
) }.
ĠJ enn
B ecause
h r
a id
cuss ion
Ġmill ions
% ,
ĠW as
Ġdefin itions
els on
Ġaff ili
Ġbl ow
ĠC ab
W here
Ġdes cent
Ġgrow n
Ġappl ies
\! \
} /\
ĠTh ose
Ġfac ing
Ġbre ath
ĠS n
$ ^
Ġphot ograph
ins ic
Ġvot ers
Ġestablish ments
Ġf ab
az a
e en
Ġpre gn
O ct
Ġcompl aint
Ġf asc
ane ous
ubl ished
Ġs ad
H A
ĠJ am
F ollowing
ĠK ansas
ĠS to
Ġm it
Ġanaly tic
Ġprinc iples
ren cy
ĠR aj
Ġdist ances
ĠK evin
AR T
ro it
Ġy ellow
ĠArt icle
N otes
Ġexcit ing
Ġsymbol s
ĠAg ency
Ġassist ance
E v
Ġ$ ^{
ĠM it
Ġ ram
Ġp itch
Ġdri vers
Ġemot ional
Ġd ress
Ġre tain
ĠAl gorithm
ĠAff airs
ĠChe m
d at
Ġexhib ition
Ġland scape
Ġm eta
Ġaf ternoon
oc ated
W rit
ĠS oc
ĠO N
ĠP y
Ġsit ting
sy mmet
ĠM ember
12 3
che stra
ĠSt ock
yp es
Ġhom ogeneous
M any
)-- (
Ġarg ue
Ġconsum er
writ er
P res
Ġpresident ial
R S
Å į
ĠD ra
Ġgood s
ĠWis consin
al ed
be red
ou ds
P o
ĠC ond
Ġlik elihood
Ġcommit ment
d irect
ĠPol and
un ning
Ġdispers ion
id al
Ġf iber
ĠT ro
G roup
d oor
ow ski
fl oat
Ġtrans itions
ip art
Ġprot est
t itle
Ġconstit u
Ġinst ances
mult line
A ug
Ġsym pt
Ġcomm ut
g ather
Ġatta ched
ĠL em
ĠC NN
Ġdiagram s
Ġw ed
d ra
ou ri
Ġwhe never
ĠFore ign
Ġanaly ze
. _
n m
ch ild
al ities
ĠC orn
Ġint ent
sh op
ĠSim on
Ġ es
ma king
Ġstruct ural
M ax
âĢ ī
M ult
}. }
con duct
com b
Ġw ing
ĠF riend
ĠA ccess
s ince
Ġcomp rehensive
G S
U K
pro pto
Ġen semble
Ġch ampion
Ġpay ment
ĠN az
Ġinst ant
Ġcaus ing
Ġl ots
id ation
Ġhead s
com put
ĠRes p
A E
Be fore
Ġreve als
w ho
l ay
ĠL ind
ym ph
Ġpl enty
A pr
Ġg od
B N
Ġh ate
% .
Ġpolynom ials
Ġpart ially
im p
Ġse ed
Ġlic ense
Ġqu ot
Ġdisplay ed
ĠT ransport
f ull
Ġat omic
ĠP it
Ġ },
ĠA mb
v ard
ĠM L
ĠEnter tainment
Ġout comes
Ġref uge
spec ific
oc y
Ġcomb at
on om
Ġl es
Ġeas tern
Ġtop ics
inv ariant
Ġille gal
Ġtop ology
ul us
ĠA rizona
ĠC C
S ing
over s
y al
; "
ĠP ay
ĠF all
Ġcoll ision
ĠProv ince
igh th
( [
ic ate
> >
3 50
ĠReg ional
}$ \
Ġun iqu
Ġst ood
Ġsch olar
ot on
Ġcompar able
ĠH ung
os ition
) (\
bin om
ĠSt rateg
ĠRet rieved
ĠP ack
de p
e h
ĠF inal
Ġterrit ory
et he
Ġst ored
Ġk ee
Ġwonder ful
Ġheav ily
ell s
oc a
s i
ic ians
Ġw al
Ġit eration
Ġm ask
ĠH ur
Ġchampions hip
Ġrestrict ion
per ial
196 1
k ern
ĠAr gent
Ġs in
ar r
Ġdescrib ing
T D
i ot
St ud
Ġfair ly
Ġpar l
ric ts
inf o
off s
Ġb ars
Ġre aching
Ġindu ction
Ġ- --
m f
Ġwrit es
Ġal cohol
Ã¡ n
Ġreg ression
) [
ĠM oh
Ġad mit
ĠP rim
Ġhard ware
Ġapplic able
Ġmorph ism
Ġb row
gress ive
Ġair port
ĠOlymp ic
Ġprov en
ĠH as
ĠLe on
N ode
viron ments
y ard
AN D
ĠBl og
Ġv o
F M
h ou
left arrow
Ġa ug
ĠSc ient
$ }}
N on
qu arters
Ġhost ed
end a
ĠReg ister
=" ../../
ograp her
Ġm ine
ĠCl in
pl om
ĠM D
ĠF arm
Ġform ul
Ġreturn ing
ĠCom ple
aw ay
Ġt ag
ag on
E ven
E ach
Ġf er
Ġb id
Ġtra ding
Ġrandom ly
Ġarg ued
ĠSt adium
Ġgener ator
ist ant
ĠM oon
ph ase
( ))
() );
}) ^{
lement ary
âĢ¦ âĢ¦
c oll
] ^
on der
conn ected
ob serv
ene z
Ġemploy ment
ĠMod ern
ĠAtl antic
ĠB uilding
Ġcarry ing
Ġbelie ves
H er
op her
Ġs ought
Ġtrans verse
idel ines
Ġparticip ate
Ġsp here
ĠCor ollary
h us
ĠO cean
$\ \
eg as
ph p
ĠH op
ĠC art
ĠĠĠĠĠĠĠĠĠĠĠĠĠĠĠĠ Ġ
Ġun us
Ġfall s
ĠJ ane
B E
ĠInd ones
ĠAn alysis
Ġ\ [
pro fit
Ġreal ize
ĠU V
Ġpro position
ort ed
ĠPri ze
de v
Ġc ards
Ð »
over ty
Ġc ub
Ġjo ining
G E
Ġs pl
$\ ,
ĠCo oper
Ġcross ing
ĠR oll
mod els
l u
all as
ep ing
Ġin hib
ĠT an
w rite
Ġto ugh
Ġpick ed
Ġtem poral
ĠF OR
Ġconcer ning
Ġtrans mit
=" +
Ġver ify
ativ istic
ĠSur vey
Ġrat ios
R ed
Ġconserv ative
1 12
Ġour selves
ura ble
ol i
Ġentertain ment
Ġsol ved
ĠYou Tube
and ra
Ġsatell ite
rib le
Ġs oci
og y
ol itan
L R
Ġd uration
er ion
Ġdomain s
G P
l en
S up
Ġsim ulated
Ġinvest ors
cl ip
ĠI M
her ic
Ġinfl ation
D irect
ĠD ue
Ġsing les
ĠN ig
Ġd im
ĠLag rangian
Ġle ct
Ġpurch ased
B H
Ġrac es
M ethod
me an
J o
Ġneigh bour
Ġd ip
ĠB urn
i at
Ġadvert ising
Ġsubstant ial
miss ions
ĠCons erv
Sec ond
A re
Ġorth ogonal
d ifferent
Ġn an
text color
Ġbu ff
el ian
Ġbo at
14 0
Ġbeaut y
ĠLab our
ĠHe art
Ġhe ter
Ġdefin ing
Ġrem ote
=\ {
ĠTur k
Ġwin ners
it is
roll ed
ĠF uture
ĠTh ough
us al
Ġsc ulpt
Ġperman ent
se arch
Ġacc ret
Ġj un
Ġmanufact uring
Ġcomp aring
Ġaim s
Ġimag ine
Ġsettle ment
Serv ice
col n
L ong
ĠA h
Ġf ranch
' );
Ġ _{\
] )
Ä ĩ
ĠT ake
ĠOn tario
ĠAm ong
B bb
Ġdocument ary
est yle
e z
Ġmarg in
ĠC ulture
Ġdefe at
Ġdes ire
Ġcorrel ations
Ġev il
Ġreson ance
Ġextract ed
text up
R L
Ġfl o
Ġval uable
Ġconcept s
Ġrob ot
19 44
O K
}{ {\
ob by
ĠPl ace
ĠSh ort
ĠCont in
Ġpass es
10 5
Ġtra v
ĠM anchester
B P
195 9
ri p
olog ists
ĠSc he
Ġm ount
Ġimp ly
Ġbench mark
se p
Ġpil ot
Ġd uty
ĠE dition
Ġob st
O pen
) _{\
Ġir reducible
P ath
Ġturb ul
ish ment
Ġfac ulty
d l
Ġf ault
id ance
end ment
f ront
Ġdis miss
ur ches
ĠMr s
Ġaccess ible
Ġpaint ing
W est
Ġsur gery
Ġenem y
Ġre plic
Ġl ists
ĠSo ft
Ġad ds
Ġre vers
Ġkin ds
ĠMar c
ann y
Ġtra il
Ġdisapp oint
athe red
Ġequ ally
Ġw ine
ĠPhilipp ines
ĠR oy
own ed
Ġweight ed
195 8
ĠH an
ĠSen ior
Ġs weet
Ġ elli
Ġdesign s
Ġmusic ians
Ġdis order
Ġsens or
ĠS quare
ĠD E
ĠMem orial
ze ch
Ġfound ation
Ġfac ed
ĠSt one
Ġwe ar
ER T
Ġant icip
Ġinst alled
Ġindependent ly
Ġris ks
art ing
Ġeng aged
ĠStand ard
Ġconsum ers
ĠA S
ĠMat thew
Ġprov ince
Ġcent ers
d oc
Ġpull ed
ĠV ice
ist ence
se a
ĠP a
ect ors
il st
Ġsc oring
Ġconv olution
is ations
ĠCap tain
Ġcon crete
ĠG ib
Ġbelong s
Ġinnov ation
raz y
lik ely
ar ry
il ty
Ġsimplic ity
D D
Ġup coming
Ġp ump
Ġconsec utive
ire ction
Ġ\ {\
e per
Ġreg ulations
sh ips
we b
cl ine
Ġdeal ing
ig ious
ĠN OT
re ement
$ '
Ġpenal ty
w all
u f
V I
Ġstead y
Ġcomplet ion
O ff
Ġre ly
Ġguaran tee
us cript
ĠA N
Ġsub space
ĠIsrael i
ennes see
un es
Ġmod ules
Ġus age
comple te
int end
Ġlo an
Ġrank ed
ĠP S
ellect ual
Ġprob e
ĠCon stitution
igen ous
ĠT a
erv ing
ĠUk raine
Ġrecomm ended
ĠW inter
R uss
Ġste el
hold ers
Ġmed icine
ĠO regon
Ġh at
or ne
ĠN at
Ġprefer red
w ind
Ġappro val
Ġsignific ance
ĠSy ria
ĠĠĠĠĠĠĠĠĠĠĠĠĠĠĠĠĠĠĠĠĠĠĠĠĠĠĠĠĠĠĠĠ ĠĠĠĠĠĠĠĠĠĠĠĠĠĠĠĠĠĠĠĠĠĠĠĠĠĠĠĠĠĠĠĠ
Ġcollect ive
t ree
ĠĠ čĊ
Ġan not
Ġcounter part
pl us
Ġ ~\
Ġhapp ening
g i
def ine
Ġrel iable
M en
Ġclass ified
ĠI mp
ail ed
11 1
ĠH ouston
vent h
vious ly
ce il
ĠP rom
ra ys
ĠRes ults
Ġaccel er
ĠCap ital
ĠT rib
H igh
et ch
im ages
ĠO s
Ġinv ited
ot ten
. /
Ġo x
ocrat ic
\ }.
var rho
Ġrespons es
Ġtraject ory
Ġv oted
Ġal gebras
el and
b c
v ia
ĠEx pl
3 60
ĠPat rick
Ġins ight
ch a
Ġim aging
195 7
Ġexp osed
es ome
Ġlaw yer
ĠK al
Ġhe ll
Ġwhe el
19 48
25 6
Ġlog ic
Ġinv ent
Ġph r
ious ly
qu es
ĠQue ens
ĠDi ego
Pro position
and al
ĠG h
ure au
\ },
Ju ly
Ġenh anced
ĠSwed en
Ġsub section
W ho
Ġab stract
ĠB ox
du ctor
ĠS E
c ard
ĠF un
C ref
C re
ĠY et
Ġequ ipped
,... ,
if ting
Ġcr ash
Ġindic ating
alax y
Ġaccret ion
on na
hed ral
ul ous
ĠDu ke
Ġd il
Ġperfect ly
Ġnot able
Ġro oms
Ġd ates
Ġgovern or
ĠHol y
ĠF R
m em
ĠL A
Ġcoll apse
st ers
M s
Ġent itled
Ġro of
ĠO t
m d
Ġp ulse
Ġde pos
fl at
ur is
cl ose
Ġreal istic
ĠMo ore
Bl ack
ĠS ound
Ġadminist rative
ĠR on
ĠÂ ©
qu ir
Ġprem ie
Big g
Ġag es
k h
ĠRet urn
195 6
Ġb ag
Ġc yl
Ġkin etic
ploy ment
19 39
M usic
ĠB ry
ĠEqu ation
u in
d ensity
. $$
\, {\
end ar
Ġembed ded
ub er
P G
an es
ĠReg ion
ĠIndian a
oid s
ĠG un
if act
ĠAl f
Ġplatform s
Ġcontrib uted
IN E
c hers
ĠAuthor ity
Ġg ay
Ġaccom pan
Ġen vironments
In dex
Ġdraw ing
fun ctions
Ġfe as
in ian
l ast
form ed
ĠV in
Ġref used
Ġinj ured
aw are
Ġinter vals
r in
ĠL ib
Ġcontinu ing
Ġimpro ving
Ġabund ance
Ġcompat ible
Ġcho osing
Ġun cle
iem ann
Ġadd ressed
Ġexam ine
de pendence
Ġte ach
resp ect
ra it
Ġatt orney
Ġimprove ments
}[ !
leq slant
ĠStud y
Ġne ur
ĠAd ditionally
Ġreconst ruct
ĠS ho
H and
ĠSt ill
ers et
d am
Ġdistingu ish
Ġto m
bl og
g ov
}^ +
sp in
Ġconstit ution
ĠM iami
ol s
ĠFin ancial
ut her
Ġclos ure
Ġlabel ed
C ase
Ġbelie f
Ġacc um
ĠD VD
Ġdep ict
Ġcoupl ings
Ġtroub le
cl osure
ĠChe ck
es is
cite alt
ex per
w ick
ĠE mer
at in
Ġstrugg le
}) =\
Ġtransform ations
ĠCh all
Ġ{ $\
Ġstrateg ic
p ress
j e
Ġrepl acing
m ic
d riv
ĠG reg
prob lem
ur i
ĠT ax
small skip
im ation
def ault
Ph one
ĠMal ays
ĠS O
Ġre min
Ġcount s
Â ®
ĠL iter
ĠĠĠĠĠĠĠĠĠĠĠĠĠĠĠĠ ĠĠĠĠĠĠĠĠĠĠĠ
Ġdif fer
Ġal ter
Ġregard ed
J une
ĠAll en
iam ond
ĠLear ning
or b
Ġdr ink
ĠJ ay
@ {
Ġregular ly
Ġmult ip
Ð º
Ġra w
Ġh ockey
Ġar rive
Ġcosm ological
S ystem
ĠMan ager
ĠWh it
Ġmag ic
Ġfore cast
ĠHar ris
Ġneg lig
Ġphenomen on
sc ope
ĠK elly
ol ly
p riv
ator ial
Ġreplace ment
fram e
Ġimp ressive
ĠH D
Ġpl astic
^+ $
ĠRail way
iz z
Â Ģ
Aust ral
Ġf ruit
ĠT reat
Ġserious ly
) }$.
Ġ\ |\
Ġsimilar ity
ĠH ilbert
Ġmaintain ed
ĠP ier
ĠE P
F O
Ġt all
im ental
Ġconclud ed
Ġrac ing
Ġarriv al
Ġv oting
omet imes
l ang
_{ -\
Ġmeet ings
ĠD or
Ġv ocal
v oid
ĠA I
V is
ĠW W
Ġr ising
G r
Ġphot ons
k ee
Ġcan cell
ch arge
Ġk il
H el
sh ort
Ġadapt ed
pre c
w ich
Ġsubs id
ð Ł
ÂĢ Â
Ġpix el
V ol
ist ing
p resent
19 42
ĠMar ia
u ity
Ġpro hib
Ġtrack ing
ĠAf ghan
un a
nol imits
ĠT R
U pd
in cess
B D
ov en
ang ers
ĠE vent
Ġthe atre
ist ically
Ġcl ock
Ġst range
y es
Ġoff ices
Ġro se
Ġent ity
Ġsl ope
Ġbatter y
ant ry
Ġep och
Ġreg ister
Ġansw ers
oun ced
re tt
ok ed
U L
AL L
Ġdis cret
Ġparl iament
Ġal ive
big cup
F eb
Ġmechan ical
Ġen forcement
Ġprof it
ĠM ap
Ġco ffee
os ph
Ġcre ates
K S
ik ip
Ġar ise
ĠG ard
Con text
Ġb one
Ġgen etic
Ġlog arithm
ar o
ĠPol ish
Ġte ch
ĠCan cer
at ics
Ġdisc ipl
Ġroad s
Ġappear ing
k ay
ĠCol lection
Ġro yal
D es
u its
ĠCh annel
Ġstation ary
ĠJ ason
ĠTra ining
b es
Ġkn ock
g ood
n ie
}^{ +
ĠAn ne
ĉ Ġ
r l
Ġr ating
Ġjournal ist
195 5
Ġsc an
Ġgradu ate
Ġemploy ee
ĠK a
Ġconver ted
_{ +
ass um
ĠR ab
ĠB ab
l ower
Ġang les
Ġad mitted
Ġf lying
ĠR ick
Ġb oot
Ġfun ctor
Ġfall ing
Ġencoura ge
Ġaccord ance
Care er
O per
Ġwe aring
ĠGree ce
o is
ĠC ON
b ow
ta h
ĠAnth ony
( ),
Ġn ations
Ġhouse hold
ĠO R
Ġappear ances
Ġsmall est
Ġtri als
part icle
ĠF I
g ame
ĠM ilitary
Ġemp irical
at ivity
ang el
ĠS ite
P aul
ĠDis c
con tain
Ġdeterm ination
ap i
P ublic
Ġla id
Ġaug ment
B el
Ġanaly zed
ĠA z
Ġexpect ations
is en
sub equations
Ġb on
arg o
app y
Ġferm ion
Ġkee ps
Ġaut hentic
Ġcir cles
hy thm
Ġc av
Ġy esterday
t or
Ġf olk
Ġg arden
C all
Ġfram es
th an
Ġm aintenance
em pl
Ġpay ing
ĠCor ps
in ch
enn a
i ac
;\ ;
text sf
ĠViet nam
Ġst ake
ma g
text normal
c ross
ĠB arn
Ġref lection
) ).
Y ear
ĠD ave
it ting
M et
ĠEconom ic
ĠK han
Ġpl ots
Ġaw areness
Ġm irror
Ġa er
osc ow
Ġto ler
Ġh ospit
ĠP DF
ask et
ĠConn ect
Ġ\ }
\ [\
p ing
def n
Ġs ending
ĠM un
Ġcirc ular
ĠTh ird
ĠF ermi
ĠT ai
ĠC ra
Ġinstrum ents
ikip edia
I O
ari ous
Ġdesc ript
19 43
In ternational
f all
b urn
Ġcon vention
Ġattempt ed
Ġdecl ine
onym ous
ĠL as
ĠWith out
Ġhelp ful
ad v
Ġme ets
Ġregard less
Ġtransport ation
cl ide
Ġgra de
requ ency
iz able
Ġtren ds
Ġdec or
angle ment
195 2
ĠSil ver
' ;
ab ama
ĠPrem ier
Ġeigen value
Ġre aches
che ll
Ġre cept
Ġpark ing
m ay
Ġut ility
Ġexpl oration
Ġrecogn ize
Ġex clusive
\ /
ĠTra de
M arch
10 4
ĠO ak
19 41
}} ,\
st ud
Ġinput s
Ġdise ases
N umber
ĠP ur
our se
Ġco herent
Ġdifficult y
is ons
gl as
ĠCast le
ry st
Ġb ot
V er
bet ween
N orth
Ġb rown
Ġfun ny
Ġknow ing
g ate
ĠMary land
Ġthous and
script scriptstyle
Ġcom ic
Ġen ables
ĠP ear
ĠT en
19 47
Ġg ro
W A
195 3
oid al
he rence
xy gen
Requ est
ĠG a
Ġcour ses
ĠN atural
achel or
id ity
Ġrese mb
Ġ-- >
out heast
) >
) }$,
Ġbe ach
ig a
Ġprom oted
ĠJ osh
Re v
Ġa de
10 2
Le ft
l ie
ĠCh apter
19 46
ĠLa ure
ĠE arly
ĠAl i
ĠN ob
ors es
Ġfant asy
& -
Ġform ing
ĠN orm
wit zer
m ode
Ġdecre asing
p ur
ov ation
Inf o
Ġadm its
ĠB ased
Ġant ib
Ġenc oun
val ued
Cur rent
empt y
Ġing red
ou stic
Ġcool ing
Ġlif etime
Ġinj uries
ol y
ma ker
u j
Ġinv ention
Brit ish
Further more
Mich ael
oy d
Ġper mission
Ġmembers hip
em et
ĠIma ge
st ates
in dependent
Ġev ident
P ort
Ġe gg
Ġin hab
Ġsurv ival
det erm
ath y
Ġp iano
Ġfit ted
d ou
y ou
ĠHow ard
Ġmere ly
f ire
per or
Ġtri es
A uthor
Ġm o
ĠAr thur
ĠLin coln
Ġmark s
Ġbrother s
ĠF ellow
ĠMor gan
Ġterm inal
Ġnot iced
\ }_{
Ġp ron
Rec all
ĠE c
Ġparticip ation
ĠA C
ĠD O
G O
Ġcerem ony
Ġtit led
It em
rop olitan
ail s
} >
ĠEq s
Ġmor al
ut ors
ĠCh ange
sh ow
F ield
Ġdi ameter
ĠAl ice
OR E
Ġb ary
ou ch
Ġphil osophy
M ain
ĠS ix
Ġal leg
ey ond
ig m
Ġcorrespond ence
195 4
Ġpseud o
par ameters
m oment
it ory
Ġmach ines
ĠT ennessee
ĠDe ep
er ted
Ġinter ference
Ġinnov ative
Ġs oph
Ġcook ies
Ġm ic
ĠG ab
Ġent ering
ail ability
Ġbe ar
ho le
ang a
Ġsch ol
V ar
Ġc od
Ġbas ically
Ġconn ecting
Ġrel ief
ĠDo ctor
Ġag ed
ĠTra vel
Ġport ray
Ġgreat ly
Ġcap tain
Ġspirit ual
ĠDet roit
Ġun like
Ġd war
un ity
ĠDef ense
Ġcour ts
Ġdis ag
C ode
Ġsepar ately
Ġren ormal
appro xim
ab out
Ġwind ows
Ġas sembly
Ġrece iver
ĠL ook
Ġinform ed
Ġcondition al
Ġwat ers
Ġ ic
bel ow
ĠF ront
R ad
ĠR ic
â Ĩ
On ce
Ġpoet ry
ĠP sych
Ġinf o
ĠAnd roid
Pl ay
Ġg ang
Ġh am
D an
ĠF il
ĠSe attle
Ġsympt oms
T ER
Ġoccup ied
ĠO w
Will iam
Ap J
er as
Ġde als
Ġat om
Ġpar ad
Ġpublic ly
u h
Ġgu ests
clide an
Ġelement ary
Ġann iversary
ĠE uro
witzer land
Ġfe e
iction ary
Ġchair man
Ġocc as
M O
ren ces
ĠPart ners
ĠS port
Ġr anges
ot te
ĠH ave
19 49
Ġt ank
Ġadvent ure
Ġd ies
ĠP ed
H am
Ġpost erior
R ober
w eg
ĠC ustom
Ġrec ur
ĠB ible
Ġcl ar
the ory
Ġun s
Ġgovern ments
Ġrep orter
Ġcut ting
Ġinf ection
d ie
l arg
ĠPriv acy
ĠD ick
ĠJ oh
Ġmole cules
Ġmarg inal
Ġto x
ĠO p
Ġacqu isition
Ġdist urb
G ood
Ġcaref ully
ill iant
ĠTh anks
Ġevery where
ĠHaw ai
Ġcon e
ĠC T
fe fe
Ġde vi
Ġcontrad iction
ĠTe ch
ard o
ab ove
ex ists
v dots
Ġbe er
Ġproport ion
Ġs ick
Ġtown s
let ter
Ġsub mitted
Ġb inding
d b
Ġwor ry
Ġin ference
Ġgener ators
Ġgeneral ization
Ġnov els
Ġprob abilities
S N
Ġbeh alf
ĠDe finition
_{ [
Ġrequ ests
ĠRober ts
Ġgr ass
Ġt ens
Ġnar rative
Ġhor ror
ĠL ic
Ġprep are
Ġplot ted
Ġoff ensive
Ġper mit
ĠAd vent
Ġ }}
Ġvol tage
Ġwat ched
place ment
Ġop ens
ĠD id
ith ub
Ġm ixture
Ġfra ud
writ ten
Ġhop es
Ġo cean
con ver
Ġneut ron
Ġis omorphic
ĠM ake
ĠPro cess
Ġhol iday
ili ary
Con st
ĠS ant
P oint
ĠY outh
ch anged
Ar ch
ĠP ract
Ġanaly tical
ma gn
ĠMel bourne
d ale
ren a
Ġinter pol
Ġvis iting
Ġint ention
Ph il
Ġch iral
Ġcompet e
Ġchild hood
ĠG ordon
Film s
ĠOb serv
ah oma
Ġsplit ting
Ġconvers ion
R T
Ġgradu ated
m ers
ĠOffic ial
Ġdi plom
ĠYear s
Ġaim ed
Ġunit ary
om er
Ġrad ical
in th
Ġh o
ĠMov ie
Ġexpand ing
ut ies
ĠN ich
Ġgun s
roll er
Ġ( +
Ġpeak s
Ġcl ouds
lem an
ĠF L
ĠMex ican
ĠE T
ĠMiss ouri
ĠArch itect
t ically
it ro
Ġfocus es
on i
}{* }{
enez uel
Ġlik ed
Ġf rust
ĠG arden
Ġinterpre ted
ĠI owa
Ġcy cles
Ġelse where
if old
st ructure
ĠNew ton
C ap
P lease
Ġve get
v ens
Ġsyn d
eg ories
Ġhouse holds
Ġinst ruct
195 1
ĠN ash
ent ry
ĠH erm
emet ery
form er
w ords
Ġoff set
. -
B o
m t
ĠA thlet
Ġsuper ior
Ġg rounds
ĠU l
Ġj azz
ro ke
ĠD omin
Ġpropag ation
ĠSa udi
ĠR ub
Ġto wer
Ġre verse
Ġge odes
\, ,
Ġcoll isions
r ition
Ġmanag ers
Ġiniti ative
Ġprom ise
Ġrow s
ĠA le
Ġadapt ation
el ve
ist a
Ġf ed
ement ia
Ġrestrict ions
ter y
Ġeng age
Ġt issue
Ġg ift
ĠEd itor
Ġbir ds
Ġhydro gen
Ġconform al
Ġcap abilities
H M
i ate
Ġprov ision
Ġamplit udes
ĠMay be
Ġsing ing
Pol it
^* _
P N
Ġsix th
/ **
Ġr um
g ments
Ã© s
h d
Apr il
as i
ĠPo isson
ĠIma ges
Ġprepar ation
per ature
Ġhealth care
l oss
Ġdeterm ining
Ġent reprene
Ġsurv ive
Ġsurpr ised
[ ]
ap olis
Ġconver ges
Ġsuff ering
Ġstru ck
ĠS ex
Ġsett led
Ġgl ob
Ġclust ering
g ray
Ġshort ly
Ġperform s
Ġgu idance
th ree
l av
ost ic
Ġprov ider
ig e
L ife
d esc
ha ust
Ġnorm ally
elesc ope
Ġd t
Ġcontroll er
art icle
Ġproject ed
ĠCh ap
ri or
Ġc rack
Ġw rest
Ġhas n
ron ze
ĠD og
Ġsus pend
Ġgen re
r ish
| _{\
Ġemer ging
k ov
t ion
Ġun likely
Ġinflu enced
Ġpar agraph
B T
" "
od ox
Ġintrodu cing
K E
D own
ĠB ah
Ġmathemat ical
Ġorb its
/ *
W omen
per iod
om as
ĠPolit ics
v skip
ĠPro duct
Ġdest ination
Big l
ĠÂ §
Ġb its
ĠT y
Ġhead ed
Ġman uscript
ul ator
Ġparticip ated
B ased
ĠD ur
kl ahoma
Ġsudden ly
Ġf old
the y
ĠNor way
Ġem issions
om ing
Ġfranch ise
Ġs rc
Ġne arest
Ġan isot
dis c
d ings
s yn
Ġlist ening
Ġt iny
Ġrep utation
fra red
Ġp overty
fol io
ĠD al
not in
Ġr uled
Ġprov es
Ġestim ator
Ex per
Ġseg ments
ĠM ove
le ton
Ġgu ilty
19 18
ather ine
ĠMark ov
Ġbus y
9 00
Ġfe es
Ġapp s
Ġviol ation
ĠC ape
ĠExp ress
Ġaver aged
ut s
ĠP as
10 3
ir ds
Ġin her
ĠCon cer
Ġengine er
Ġh urt
ug s
Ġgen es
ĠE ag
Ġw ider
C N
Ġf ired
Ġtick ets
Ġfin ance
ĠCur rent
ĠE arl
Ġdist ricts
S H
Ġwavel ength
Ġ( !
âĢ¦ .
Ġel ig
im ore
ĠM s
ĠPe ace
Ġun ity
Ã £
Ġsupp orters
Ġbut ton
Pro f
ap ing
ĠMay or
ren d
= -\
ĠNAS A
ĠB erg
elf are
Ġre actions
ĠF A
GB T
Ġcent uries
el se
Ġremark able
oc ent
Ġsub mit
Ġfocus ing
Ġanalys es
Ġprior ity
indu ced
it ure
mid rule
ĠL am
Ġult ra
ater n
| _
ĠAtt orney
le e
Ġbreak s
f alse
ik es
Ġmove ments
}\ ;
ac on
ĠMic hel
f a
R ich
ĠK it
Ġ& $
Ġform ally
Ġdesign ated
ik h
Ã© e
k g
ag u
ĠSm all
ĠPh ill
Ġam pl
cy cle
Ġattack ed
v able
ĠAG N
Ġsp herical
ĠCom b
Ġr anging
Ġcon clusions
ubl in
Mem bers
Ġn a
cre ate
ol o
Ġw arning
O rig
D espite
Ġtru ck
Ġv ib
Ġconsider able
Ġent hus
hol der
or ient
Ġcat alog
Ġt ied
Ġtax es
Ġelectric ity
over set
st an
Ġfl av
ĠV egas
Ġmunic ipal
Ġregist ration
ucle ar
ipp i
Ġdep icted
Ġunus ual
ĠF ather
Ġc ricket
Ġp ole
Ġwalk ed
Ġprofession als
ĠG ene
ĠB ishop
con v
Ġleg it
ph an
Ġlist ing
Ġchain s
}_{ {\
ic ut
Ġdeterm ines
ĠAl an
Ġanc est
b ian
; &
Ġmin i
Re view
Ġneighb ors
ĠVill age
L ocal
J ames
ĠN av
Ġcomb inations
}{ }
ĠD a
ick ing
Ġorder ing
Ġassoci ate
itar ian
re z
F act
)= (
er ts
Ġillust rate
Ġo vers
tt ing
Ġharm onic
ĠUn iverse
Ġmin ing
Ġany where
ĠPl aces
Y our
C ast
m ates
ĠCh o
ĠMc G
ĠF ive
Ġconsist ency
cont rol
S ize
o il
Ġ );
ĠTh ings
] ]
Ġtransform ed
Ġre jected
le ading
Ġcr imes
Ġinteg ers
10 6
ific ate
Ġarm ed
, âĢĻ
i ors
Ġtarget ed
ĠH ug
ash i
ac le
d ashed
L ine
ĠB rig
ĠBru ce
ĠW olf
Ġdec ays
I E
ĠB ureau
ind ed
ĠMc K
Ass oci
R ob
iv a
Ġhost s
l ad
ĠAr k
ĠB M
Ġintr insic
ĠKenn edy
Ġan th
Ġspac etime
Ġse ar
ĠD allas
}} =\
ĠCom ments
E p
Ġpre v
Ġimplic ations
Ġfriend ly
od a
est abl
ĠN ation
Ġ Ø
ous es
' $.
Ġvan ishes
Ġb ike
H R
ĠD at
Ġt ends
ĠM oscow
F i
Ġfarm ers
Ġpublic ations
19 00
Ġcorrect ly
Ġimm igration
ĠF IG
de pend
ĠP aper
$ _{\
Che ck
Ġbran ches
ĠS ri
ĠChrist ians
st age
Ġfem ales
Ġst em
s ome
rosc opic
Ġrequ iring
Ġcorrel ated
ĠC redit
Ġb ull
pot ential
Ġtick et
Ġelect rical
Right arrow
G ener
Ġdem ands
bl ing
back s
ib l
Con fig
rac le
Ġcov ariance
Ġbrand s
Ġweek ly
H P
Ġill ness
ref e
Ġm g
L D
Ġthere by
Big r
ĠFed eration
V ID
Ġr uling
ol ph
ud d
}) _{
ar ial
level and
ĠSwed ish
o a
Ġspeak er
irt ual
E urope
ĠC zech
ĠH ad
11 5
Ġgrow s
Ġcrit ics
un ing
Ġincorpor ated
Ġtrans action
Ġcrit erion
Ġsk ill
et ry
ĠSt ew
ĠHer itage
re v
ĠH ans
Ġn ic
Ġde leg
Ī Ĵ
Ġdirect ors
ĠTok yo
ter ior
con text
g ithub
ĠN ev
ĠĠĠĠĠĠĠĠ Ċ
Ġout standing
ĠWalk er
s n
Ġs ke
t urn
er k
ĠRec ord
ul um
Ġdeep ly
Ġlik es
Ġsuggest ing
ĠR equ
| =
t ics
ĠMar ine
) &
Ġperturb ations
nt z
Ġcomb ining
Ġwire less
ĠTem ple
ĠAl abama
ĠI C
Ġanom al
B oth
ĠDi rac
Ġf ought
ĠRel ations
Ġsh r
Ġbur ied
c p
Ġfail s
Ġso il
Ġch ap
ĠIn s
Ġactiv ation
Ġmy th
L eg
ĠE X
bs ites
Ġade qu
D en
ia h
w estern
ĠC ow
F ree
ĠF er
v as
new line
aw s
spe ople
rac ks
ĠRepublic ans
ĠD R
Ph ys
Ġrele ases
ĠAnd re
L ike
Ġpass engers
ĠKent ucky
ĠRes ources
ĠAust in
Ġceleb rate
su ccess
l an
ater al
ĠQ CD
ĠComm and
ĠAll iance
) ),
, .
ĠThom pson
Ġde eper
} <
l b
am an
Ġtra ins
Ġold est
Ġpure ly
p ay
ĠFor um
Ġexec uted
Ġestablish ment
Ġanalog ous
u is
ĠS earch
Ġo xygen
Ġtri angle
Ġth inks
Ġl ake
mathbb m
Ġoverl ap
ĠB ull
th in
deg ree
Ġb oss
Ġ Å
Ġf usion
t b
oun ce
if iers
ST ATE
val uation
} ~\
Ġretire ment
ĠC it
Ġbi ological
ĠH ell
ann on
Ġn urs
C le
so le
ĠB R
U D
Ġm i
au ra
Ġa ux
ĠDo es
ĠAnn ual
Ġim posed
Ġb att
1 18
}} )$
ĠZ e
eral d
Ġfl ash
Ġâ Ĩ
Ġn il
] ^{
A v
V ideo
ĠInt eg
Ġk ne
U LL
Pre vious
Ġm ig
ess ed
ĠLim ited
Ġle af
bar a
Ġrelax ation
le arning
ĠM ars
Ġp y
Ġprom ising
ĠNig eria
end ers
Ġp ushed
Ġent rance
ĠDe an
Ġfirm s
\| ^
ĠM and
=" #
Ġrepresent atives
ĠChair man
rid ges
Ġplan ets
ĠLe aders
ĠE M
10 8
sup er
h al
ĠIn terest
Ġun con
Ġput s
ĠN ature
ourn als
D ate
Ġast ron
ĠF ant
Ġdog s
S i
b ecause
ĉĉĉĉ ĉĉ
Ġrel ating
ĠSaf ety
Ġrece ives
ĠN one
Ġly rics
ĠBe at
19 36
s ite
Ġriv al
ĠM ission
w hel
Ġsubset s
ĠSchool s
el ines
Ġtraject ories
ĠR iemann
D et
Ġdown town
ĠS in
Pro b
Ġf urn
Ġd y
Ġbox es
ĠS witzerland
Ġdef ensive
Ġrec overed
Ġw ra
Ġas ks
Ġdel ight
ĠE instein
Ġeffect iveness
A f
ĠN BA
ĠR ow
ĠE sp
}, {\
) |\
at tered
b olic
ĠR ound
iff s
ĠMem bers
******** ********
Ġcomb ine
Ġl ift
= >
ibr aries
. ]
T oday
Ġc up
Ġproject ive
he tic
ank a
Ġres erved
ĠS H
Ġpubl ishing
Ġaccompan ied
ho en
Ġviol ent
Ġf inger
l m
Ġdevelop ers
b oth
ĠG ram
Ġdiss ip
form s
Ġreg ulation
Ġt ur
on z
Ġoper ational
Ñ ĥ
Ġsustain able
t arget
Ġany way
Ġt ension
Ġas ide
rib ute
ĠS F
iv ation
f ields
Ġtun nel
S l
ĠIndust ry
Ġfrag ment
ĠE ss
Ġowners hip
B F
ut enant
Ġeng agement
ant ed
Ġt ables
Ġident ifying
Ġmem or
Ġen velop
Ġrepe at
Ġpix els
iss ippi
ĠBow l
U ser
alt imore
ĠHigh way
Ġsac r
Ġtr ump
Ġconstant ly
n ik
Ġlimit ations
Ġprom otion
ĠL anguage
ĠAd vis
" ),
Ġscreen ing
ĠH ope
Ġincred ible
ĠSp irit
Ġpass enger
fin ement
Ġo d
d escription
Ġnormal ization
Ġpres erve
Ġpass age
à ¸
Ġcoun sel
ĠAtl anta
row th
Ġprodu cers
ĠW ol
ĠB uff
Ġshe et
iz ers
Ġref lected
ens ively
Ġliter ary
Ġmanag ing
ĠM other
ĠF BI
ra ise
y cl
Ġperson ality
Ġart ificial
ĠH um
Ġsynthe tic
Ġvir us
Ġpl ug
Ġdial ogue
Ġweap on
Ġinterview s
ry pt
c all
Ġclos ing
13 5
Ġqual ified
19 38
ĠL ink
Ġprovid ers
ĠG er
Ġwed ding
Ġweak ly
u y
ĠRuss ell
Ġbre ast
ĠS A
olog ically
G reen
Ġcent ered
ĠTe xt
Ġaccel eration
Ġn eck
M art
Ġover come
Ġm ail
Ġd inner
Th rough
Ġth orough
Ġdo ors
D onald
Ġperson ally
qu ality
Ġl ying
j k
s d
Ġdest ruction
claim ed
ail and
Ġrank ing
Ġrem oval
Ġcritic ism
Ġd ict
Ġcl imb
Ġtas te
Ġcl im
se m
ĠO pt
f ather
Ġrep air
Ġhand ling
Ġfund ed
sub stack
Ġhe lic
ĠB os
ĠCarl o
ĠR y
] =
" ).
ĠChrist opher
Ġaff ine
Å ¡
tri angle
Ġcryst al
ĠW ard
ĠM eg
S an
Î ±
Ġpos it
ĠB uck
B s
ĠD ate
Ġconst rained
Ġmer ch
Ġf ro
Ġsav ed
Ġcompos er
M a
Ġdis joint
Ġche ap
IC E
display math
Ġimplic it
Ġtrans c
ĠPl us
e vent
ĠH oll
H y
ĠB h
Ġed ited
ordin ate
Ġde cent
Ġd ating
Ġdesign er
Ġmanif est
Ġliter ally
Ġmay or
Ġveloc ities
Ġch rom
Ġleg s
Ġfact ory
ie val
fl ix
int ro
ĠI ron
ion ed
A cknowled
id en
Ġiter ations
Ġhe ating
ĠH ills
Ġorgan isation
Ġconsist ently
Ġher itage
im g
Ġh ill
Ġn od
or se
an alysis
gg ed
at ar
Ġcheck ed
Ġc ited
Ð ²
D escription
Ġb le
D el
Ġl ux
ĠY ang
Ġpri ze
ĠN O
ĠE le
ul ative
Ġs essions
ĠCol on
Ġassign ment
B as
he im
ĠAl bert
Ġsho pping
Ġin duct
Ġcomfort able
Ġcan cel
ĠAd ams
ograph ical
Ġexpl ored
Ġrestaur ants
oc he
Ġpip eline
19 37
ĠE s
19 17
ĠH it
win ning
ou rag
Ġhop ing
ĠE V
ĠL iving
S che
L ink
19 14
à¤ ¾
Ġ{ {\
et ition
l ayer
og a
im ated
Ġcosm ic
w p
Ġcolle agues
Ġlat ent
du al
Ġdo i
ĠBl ood
10 7
ĠL iver
Ġexpon ent
i ology
per turb
ffic ial
A lex
J apan
Ġint ellectual
S pe
ou ver
ĠLaw rence
sc ar
Ġcons ent
ĠCent ury
we ak
ĠA BC
T M
Ġl ad
. (\
ĠM unic
ĠAcc ount
. },
ĠN ative
ĠK o
Ġstr ings
Ch ild
Ġindu ces
Ġg host
con c
we alth
Ġfrequ ent
Ġvari ant
ĠM ath
pro ject
ge on
Ġgener ations
ut il
ĠPolit ical
17 5
es y
Ġm ilit
Ġbr illiant
ok en
ĠAg ric
driv en
on omy
ĠLeg isl
ĠTra il
ĠB ec
Ġfem in
' )$
ĠS ac
form ing
dom ain
P O
Ġi Phone
Ġh a
ĠCommunic ations
Ġsh ifts
s ized
Aug ust
P al
Ġb il
Ġinst ability
Ġhead quarters
al ia
b ad
ok es
Ġsh ots
Ġattract ive
ĠP ath
ch arg
ĠUn it
Ġent ities
ĠProt ection
Ġaband oned
Ġline arly
Ġres erv
ater ial
ĠJud ge
ĠOr th
S ur
Ġdispl ays
Ġwith draw
Ġtrig ger
D ou
is hers
Ġinter vention
ic ing
n ull
b oy
St at
Ġkin em
Ġj oy
T rack
Ġrem oving
ĠN ik
ĠLe ft
ex pl
Ġden ied
Ġnot ing
Th ree
Ã£ o
ĠApp ro
f amily
igh ters
Ġinvolve ment
m ate
ĠHar vard
Ġfor um
S en
ern and
Ġattrib utes
ĠPerform ance
M ean
Ġmerg er
or tex
ip her
Ġun stable
Ġmeas uring
Ġdram atic
Ġex haust
ĠIn dependent
be an
Ġc able
ush ing
Ġl ights
ĠN ame
Ġwe ren
U psilon
ĠInst agram
Ġra ising
d if
C V
2 20
Ġinst ructions
Ġdr inking
Ġsomew here
Ġhom ot
Ġr ub
int s
f r
Ġfootball er
Ġt one
Ġst rain
Ġunivers ities
Ġcomp rom
ĠR est
ĠG ulf
sh arp
Ġmin ds
S em
. }\
Ġbu ying
ab olic
M ac
Ġcon sp
Ġ });
ch annel
g le
ĠM i
b est
Ġsecret ary
comple x
Ġbl ind
L M
ĠK ings
ĠAl tern
Ġent anglement
Ġkit chen
ts burgh
Ġcontract s
Ġvalid ation
Ġannounce ment
Ġsegment ation
cor respond
or o
x it
Ġresol ved
ĠStud ent
Ġdevelop ments
Ġconsc ious
ir i
Ġnon zero
ar ation
Ġh ack
Ġtr unc
)} _{\
Ġdem ocracy
ain ing
Ġro unds
ĠIndones ia
ord inary
Ġrem em
m ember
ro ck
M essage
Ġtem porary
Ġa ds
w he
Ġre feren
Ġsome how
ĠF ame
ĠMuslim s
cons istent
ĠB art
r ise
Ġfab ric
Ġw et
Ġrespond ed
Ġorgan ic
Sim ilarly
f ound
Ġsh orter
ir ates
Ġtalk ed
R esp
Ġl ens
Ġpre lim
ĠCol omb
Ġtem plate
ig ate
ĠJun ior
Ġover se
& $
ĠEnvironment al
om m
ĠS R
im od
ĠR oom
n an
ĠD ub
uris d
Ġ âĢĻ
Ġlimit ing
it ud
I B
Ġenc ounter
19 10
ah n
ĠH IV
am er
Ġaddress es
M al
ĠNot ice
ĠDou glas
N O
Ġs ons
ĠK y
Form er
Ã º
Ġan ten
as hes
Ġsuff er
Ġprote ins
Ġb ases
cc c
ĠProb lem
Ar ray
F in
Ġj ack
h arm
on line
G G
Ġde put
ĠD rug
weg ian
Ġfeel ings
Ġhigh lights
Ġrec urs
Ġex it
Ġphys ically
id ge
Ġton ight
g age
ĠTai wan
Ġ$\ |
Ġthreat s
h our
ĠW oman
Ġpro sp
Ġpriv ile
ĠSing h
Ġren der
Ġun expected
gl obal
Ġg olf
enn y
Ġreflect s
Ġpat ch
Ġwh ilst
Ġt ie
Ġrequest ed
et ics
Ġliber al
Ġ }{\
s ym
Ġv ital
al ph
ro se
ser ies
Ġint ense
ĠN S
Ġco aches
ĠThe ory
all ow
ĠAnton io
ĠH u
em ed
ĠS el
S k
ĠC S
Ġland s
ĠW ord
Ġan xi
Ġt ip
Ġrec ru
b d
Ġwhere in
Ġex port
ĠU tah
T rump
}^{ (\
am ents
Ġoper ates
____ ____
F ind
Ġpar ish
}) -
Ġh ired
Ġmy ster
Ġmod erate
Assum e
Ġ$ [\
Ġgener ates
Ġb ird
ĠM ess
Ġm ales
Label s
clus ively
ĠI l
bound ed
' }\
ĠP resent
ĠFin ance
ĠO klahoma
S ign
ut ter
Ġcompl iance
g rounds
Ġdev oted
ĠStud ents
Ġdedu ce
ĠR ace
be ing
Ġcooper ation
d ays
S w
ĠAssum e
Ġj u
Ġinter sect
Ġcopy right
ber ry
Oct ober
Ġmut ual
Ġhom omorphism
Ex ample
' $,
Ġcount ing
ĠBase ball
Ġp ace
st ory
Ġbar rier
Ret urn
ĠN ic
ĠNever theless
Ġhard er
Ġc ogn
ĠEx change
Ġt ort
comm on
Ġsuff ices
ĠTurk ish
cat egory
om ot
Ġterm in
sim ple
Ġres ident
as ant
Ġencoura ged
d ir
Ġautom atic
ĠD ance
Ġt act
ĠB run
ĠD rive
th on
Ġm ile
ĠMot or
Ġmunic ipality
G s
ta x
B re
ol as
ĠG alaxy
Ġremain der
ĠC ele
Ġmon ot
Ġamong st
anc ouver
mod ules
ĠIn sp
Ġinsp iration
19 33
}. \
Ġpotential s
m aster
âĢ ĭ
Ġb old
}) )
Ġsp arse
erv ised
tri ang
S ol
Ġapart ment
Ġfle et
U V
Ġl oyal
w hat
Ġaff ects
19 35
ĠO pp
ĠRou te
im pl
k ind
Ġchar ity
Ġbos on
ĠAnd y
ĠS everal
pol y
Ġl engths
P rop
Ġcaref ul
ĠN eg
}_ +
ĠG ary
ĠAl b
r floor
me as
Ġmusic ian
rat ors
F ull
om p
* \
Ġrecommend ations
19 19
ore f
Ġnom inated
Ġkey board
Ġre ven
Ġmechan ics
ĠW right
ĠW i
opt ion
'' ,
ĠC os
Ġg rate
Ġemer ged
ĠV o
em p
ick en
t ensor
Ġs wit
ud a
Ġtransl ated
---------------- ----------------
ĠCon vention
ĠPr ice
Ġro utes
Ġco hom
ĠAfghan istan
Ġe ating
c ounter
C I
ra ble
Ġar ises
im m
e re
Ġmem ories
L ocation
Ġdes k
Ġcon jecture
)} =
Ġ( âĢľ
Ġch urches
Ġjud ges
ĠVol ume
tag on
do i
int o
ch itz
ĠRob inson
Ġs ectors
ĠW y
uer to
K L
N Y
ĠD J
ict ions
Ġvis its
inc ial
ort heast
Ġwe bsites
} &\
Ġover view
ra ctions
= '
Ġcon vert
Ġleg acy
: #
Ġ( @
or ce
ass ador
Ġf est
Ġpay ments
ur d
Ġthe ater
ĠOrgan ization
B ase
Ġrare ly
Ġintegr als
Ġthe at
Ġsu icide
Ġch amber
ro oms
Ġg ent
ĠJ ess
Ġdo ctors
f our
C a
ĠRem ark
L ear
ĠP i
Ġsh apes
ĠSt ars
Ġfin itely
Ġdis contin
b its
Ġresol ve
Ã ¸
Ġf ul
Ġceleb rated
ĠS W
Ġcolle ctions
ĠV enezuel
ĠB H
em en
Ġinfin ity
Ġcar ries
Th anks
S port
includ e
Ġexam ined
amb ig
Ġp ric
Ġwin ds
b n
P ersonal
10 9
ĠArch ives
Ġspok en
le ans
Ġst up
Ġc ul
Ġtherm od
ĠK am
ĠL P
Ġsh ifted
Ġvill ages
Ġf ishing
AC K
Ġefficient ly
Ġstream ing
ent er
Ġeth nic
ĠE mb
ol ved
Ġc um
ĠEu clidean
Ġun n
Ġprov isions
OR T
Ġw ake
Ġpl ain
ĠD ublin
Ġne uro
Ġfol ks
Ġmeaning ful
m atic
Ġ ^{\
sub float
Ġvol umes
val id
ĠD ak
ĠBl ock
$ {
Ġre ject
ri k
ĠCr ime
ĠL ang
j amin
T HE
g iven
E st
Ġwork er
ĠP ad
c ule
Ġexcit ation
Ġnumer ically
is cal
Ġc ot
ĠJon athan
ĠC leveland
IV E
an aly
f unc
B r
hoen ix
M D
fact or
Ġf ake
Ġcal ibration
ĠUn fortunately
m outh
ol t
de ep
j ava
Ġsign ing
ĠN elson
ap ache
ĠSpec ifically
Ġins ert
Ġin cl
F IG
uff er
S earch
\ }}
ĠB us
Ġins ights
ĠL ane
ĠRec all
ĠC OM
Ġcl ot
ĠT ar
Ġoutput s
EE E
Ġt ube
ĠWal ter
$ (\
> &
am ps
Ġexpert ise
19 29
ĠEp isode
Ġe cho
Ġcomp eting
Ġext ending
b ib
ĠElect ric
ĠCharl ie
_{ {
Ġcons iders
Ġpopular ity
ĠMalays ia
Ġme at
ĠJ os
E lement
Ġtrans it
s un
ari ate
c oupl
ĠM agn
gra v
f und
Ġhead ing
T om
Ġreview ed
Ġmonth ly
="../../ ../../
ĠAl bum
rict ion
Ġsurround ed
Ġcompos ite
Ġ }$
bre aking
Ġir re
r g
Ġclos est
miss ible
Ġout perform
Ġaff airs
pp ers
Ġmaintain ing
ĠTe levision
G erman
l floor
comp onent
ĠOb ject
Ġsem antic
Å Ĥ
}= (
F rench
ĠF ind
Ġmotiv ated
ĠAb b
ĠC rit
ĠDel hi
ĠL ot
Ġ\, ,
Ġr ings
Rel ated
Ġel astic
ge red
= (\
Ġ$ <
ĠAust ria
ĠTr ue
com ment
Ġv aries
ment ioned
Ġmod ification
umer ical
Ġquot ient
ĠMar vel
ĠH old
ro d
op ed
ed ition
## ##
Se ptember
Ġcont rary
P H
work s
ĠLouis iana
ĠN GC
Ġens ures
ĠM os
ĠCom ment
Ġlaw yers
Ġm oon
Ġarrang ed
ĠAn na
Ġregul atory
Ġtem ple
Ġattrib uted
Ġfant astic
ric ane
c ost
el er
Ġt ropical
ĠP ope
Ġj ets
am ous
onom ous
I X
Ġtw ist
Ġd rag
ob i
E ST
l ib
M or
ĠB ed
Ġp ose
IT Y
19 34
l ades
Ġst adium
Ġvari ed
us p
Ġsurve ys
ĠPh D
Ġbelong ing
Ġdistingu ished
ĠGirl s
Ġover whel
atch ing
W ind
Ġh ook
Ġdis aster
Ġsyn chron
Ġthreat ened
Ġstar ring
Ġenc oding
ĠMiss issippi
Ġres idential
ĠRes erve
Ġmy stery
gra duate
Ġeng ines
T O
Ġexp at
h alf
an ne
Ñ ı
ĉ ĠĠĠ
sol id
ĠPhil ip
) )$.
m ade
Ġp in
Ġaccur ately
ch t
Ġposs ibilities
c ss
â Ĥ¬
l at
ĠF ried
K K
ĠS quad
Ġsub stit
ĠC ell
usal em
he res
g ression
ĠB ou
Ġimag inary
Ġh ip
ĠS ud
Pl an
Ġoccup ation
uk i
out ube
Ġg athered
ĠMark eting
Ġmulti pl
ĠA w
ĠCon sequently
i ated
Ġoper a
Ġb unch
Ġd a
Ġde formation
Ġformul as
Ġgener ality
ĠCar ter
Ġmen u
Ġdiagn osis
ĠR and
Ġign ore
or ia
Ġ$ $\
Ġcav ity
uc ks
ĠBrook lyn
Ġf uck
Ġp odcast
ĠFor ces
v c
Ġem otion
Ġarrang ement
\, .
serv ice
Ġjun ior
n as
ĠTh ailand
Ġ urg
aut oref
Ġcontinu ity
load s
Ġc razy
Ġfeas ible
In put
ra pe
Ġflex ible
ub s
}} }$
se lect
d z
ĠP ast
). }
ĠF M
Ġthem es
Ġh ide
O pt
Ù ħ
Ġr anks
ard ing
f ish
Ġstay ed
ĠE ver
Ġ ðŁ
N P
ĠT rack
L o
ĠN HS
Ġgain s
in burgh
op ing
17 0
Ġthick ness
is p
Ġp ione
J ack
Ġfl avor
ĠT alk
am ination
24 0
Ġhy p
Ġch ronic
Pro v
Ġappreci ate
Ġspeak ers
Ġlabor atory
Ġvulner able
spe ed
Ġbirth day
ĠPro p
Ġav ailability
d ue
S am
Ġconf ident
is y
ĠGra ham
om es
ĠL GBT
se par
Ġobtain ing
S u
M o
mon th
Ġsampl ed
) |^
ĠF al
ĠRog er
Ġfor cing
Ġcam eras
C F
Ġphenomen a
Ġcar rier
go ogle
ro le
ĠLore ntz
Ġalign ment
ĠCh amber
Ġmil k
Ġlo ops
ĠP ap
j et
Ġneglig ible
el ing
Ġrac ial
Ġjournal ists
Ġb orrow
Ġch arts
Ġpres erved
Ġv in
ĠWh ich
ĠO S
z o
Ġsit uated
}}\ ,
Rober t
ard ed
Ġvan ishing
ĠMur ray
}( -
ĠStew art
pr im
t ot
at al
ĠLe vel
asket ball
ĠBud dh
Ġis lands
att ice
Ġformal ism
ig s
as m
Ġm igration
pos ing
Ġ} ;
S al
Ġsure ly
Ġdes per
ĠSp ect
\ -
um ar
Ġ$- $
op les
ĠF le
ĠG ill
Ġprint ed
Ġf ract
i op
equ ival
Ġagric ultural
Ġext ensions
Ġindust ries
Ġcontrovers ial
ĠPat ri
abl ing
Ġathlet es
Ġgu idelines
ĠMarg aret
Ġ ĉ
Ġcompet ed
lev ant
Ġprom ot
) !
Ġpet ition
Ġequ als
Ġtom orrow
Sc ript
Ġ{ }
ĠSt art
ĠH ero
pro ve
Ġart istic
ĠB eng
ĠF ab
respect ively
Ġexhib its
Ġbrow ser
Ġl ip
co in
ĠM ir
Ġsubstant ially
ij ing
Ġdep ression
Ġdi am
Ġpaint ings
ĠO d
we ek
ate ur
Ġem it
Ġasympt ot
Ġvari ability
Ġcompris es
Jan uary
' }$
Ġrom antic
Ġac oustic
d rop
L and
chi at
t re
av ed
al ogue
ĠMed al
19 32
C ON
Ġsh adow
h s
an ia
Ġagre es
In deed
Ġe ase
Ġd uties
ĠMor ris
Ġse p
Ġâ Ĥ¬
Ġcons ensus
ron es
ĠConnect icut
ĠOr leans
as ters
und erset
Ġcy ber
ĠS S
irm ingham
abet es
itud inal
cos ystem
Ġfavour ite
orig inal
Ġin herent
ĠL LC
ĠReview s
ĠPal ace
Ġcl ip
ĠB altimore
Ġshe ar
~ (
Ġres erve
Ġcoll aps
Ġtim ing
ill ance
ĠC E
Ġg al
Ġg ram
ĠWork s
Ġsoc cer
lect ric
19 28
ĠEx ample
ĠC ore
ĠL anc
Ġpack et
ĠSta ge
Ġj urisd
Ġann ih
Ġign ored
e fficient
N E
L in
ues e
fra id
le in
ĠI L
ĠSam uel
Ġj ava
st op
M E
ation ally
Ġreported ly
us ive
D ay
! )
Ġt ies
^- $
b one
AM E
ĠEv ents
n etwork
ĠSw iss
Ġfore ver
Ġb atch
f ly
iss ance
it ial
gl s
Ġgradu ally
Ġst rang
anc ell
}} }{
ĠInter view
Ġsupp lement
T im
B et
Ġsp r
Ġsent ences
iv ated
ĠWeek ly
Ġkil omet
Ġorgan isations
Ġult imate
un s
Ġcoupl es
Ġview ers
ract ed
or us
Ġto uc
M us
Ġpoint ing
En g
Ġd ose
ĠHistor ical
iv als
ĠIn dex
s ample
T P
Ġderiv ation
Ġm art
ĠArgent ina
ĠOper a
rup ted
Ġas semb
ĠSen ator
pro f
Ġany more
11 6
l r
sat isf
Ġsole ly
Ġint u
Ġcond ens
ĠSt ories
Ġ- >
Ġm ad
ram e
pro perty
Ġcor ruption
Ġt ub
ĠA qu
AC T
ik ing
Ġser ial
ips chitz
ĠN ag
Ġenc ourag
ren ew
ĠId ent
ĠF el
dist ribution
rand om
Ġst uck
}| ^
ĠN ar
ĠH im
ĠNe ed
Ġland ing
Ù Ĭ
Ġcompens ation
ĠThe ater
ĠBar ry
ĠMarsh all
U I
ĠF ly
T Y
ĠN i
ol en
Ġpurs ue
Ġeduc ated
ĠCamp bell
Ġtext s
Ġte a
Ġmet ers
Ġsuppl ies
ĠKn ight
Ġcomp ound
Ġdemonst rates
ĠG il
ass ert
Ġsp ots
lim it
Man ager
Ġpres um
ĠT el
ict ional
ĠSh ould
Ġdiscrim ination
Ġres idence
Ġst yles
}\ }$
ĠPort land
19 31
Ġfound ing
ps hire
p aper
11 4
Ġj ail
F il
Ġpro ton
g on
Ġresc ue
Ġcontinu ously
Ġgre y
ass oci
sim ilar
min ute
ira ble
Ġh az
Ġin jection
Ġg aming
ĠG as
{ [
ag ers
we red
Ġdifficult ies
f requency
Ġformer ly
Ġres ign
d est
te ch
o ys
x rightarrow
Ġ/ *
fin ished
à ®
ĠBelg ium
V M
Ġext raction
iv an
P an
ĠI an
ĠM ort
Ġadv is
ĠMe V
ver tex
sup ervised
Ġph on
Ġst ating
ĠArab ia
ari ants
Ġevol ved
Ġpropos als
ĠW ang
Q ue
Ġport folio
Ġcon gress
ten ess
Ġpart ly
sec urity
ĠP ersonal
. :
Ġoff ense
ĠStud ios
ĠK az
W ar
b ridge
center line
ul o
d ig
et o
Ġminor ity
sing le
p erson
ect ure
Ġr hythm
ĠP un
Ġret ro
ĠD ementia
ĠPlan ning
Feb ruary
Ġc ow
ĠRepresent atives
im ir
in cre
Ġs ake
Ġmar ine
S yn
ul u
iss a
ĠP ra
Ġcompris ing
" ]
e ach
Ġ\ :
e ast
Ġcomput ers
Ġatt itude
ĠK arl
Ġinv ariance
Ġd amp
S ong
up le
stand ard
ĠPet ers
f are
Ġdis cre
Ġtouch down
Ġel der
ĠC ass
uch y
Ġdef ence
19 12
}\ !
ĠLiver pool
Pro perty
ele ment
Ġst ops
ĠCor p
Ġattrib ute
Or der
ĠH R
ĠSt orm
ĠWar ren
ĠCh ile
4 50
H on
ab ad
ĠA B
Ġappoint ment
ĠDep uty
ĠSoft ware
Ġind irect
Ġag enda
Ġmain stream
Ġillust rates
Ġaux iliary
yl er
. ),
ĠB aker
di ag
Ġembod iment
, ~
er os
Ġar ising
De finition
Ġexception al
Ġm esh
ĠCl oud
ĉĉĉĉ ĉĉĉĉ
19 22
hat tan
ant ine
cknow ledge
ĠâĨ Ĵ
B en
ĠJ azz
ĠTh ank
ĠR ain
ta king
ĠD ays
ĠL l
N ovember
act eria
re ction
ce ut
Ġc ock
math ds
ĠFrank lin
11 3
Ġposs ession
Ġ( (
or dered
arm ac
Ġex clusively
Ġexpl oring
ĠPlay er
ĠTown ship
B ur
Ġvolunte ers
ĠM obile
ellig ent
ĠS now
A ction
oth y
b uild
o ft
writ ing
}$ ).
dist ance
book s
p mb
ab i
Ġelli ptic
Ġas set
stit u
â Ħ
esp read
Ġh orses
19 24
ing ers
ĠFred er
Ġman ual
)\ ,\
yn asty
ĠH ud
Ġs i
ad ding
ĠK ir
C lick
Ġpre val
Pres ident
Ġtrans actions
ĠAl ber
Ġrece ption
ĠLiber al
ĠS elf
ĠOr chestra
ill o
Ġt we
Ġle tting
D I
l ab
Ġd ad
ĠĠĠĠĠĠĠĠĠĠĠĠĠĠĠĠ ĠĠĠĠĠĠĠĠĠĠĠĠĠĠĠ
un iform
ĠI ce
Ġsens ors
less ly
ple ctic
Ġstri king
Ġven ue
Ġshould n
is an
ĠM O
ĠFre edom
Q L
ä ¸
Ġsus cept
Ġmountain s
Ġt ale
ri el
Ġinstall ation
Ġret rie
ous ing
Ġprelim inary
Ġrepeated ly
ĠS ource
Ġcred its
tem perature
Ġinvestig ations
Ġexclud ed
plic it
ĠSe pt
ĠPubl ishing
ors ion
bor ough
$& $
add le
Ġste ep
Ġphot ography
ĠStud io
ĠAb d
Ġdot ted
reg ion
ĠSm art
Ġmat ched
arma ceut
ĠK l
Ġtack le
" =>
h skip
no ise
Ġa cknowledge
ill ery
Ġt ill
Back ground
Ġob s
Ġimpact s
19 27
Ġhyper bolic
Ġphotograph s
Ġminim ize
pos itive
Ġadvanta ges
Ġval ley
Ġmultiplic ation
rain ian
Ġwal ks
ĠK ra
G ra
Ġelig ible
ĠBroad way
ok er
ĠT un
Ġguarante ed
Ġsymmet ries
Ġschol ars
ĠM ind
Ġwe ird
H ol
h n
ĠBet ween
Ġsp ark
ĠC ome
19 25
Ġs ed
Ġdiver gence
Ġin aug
ĠEv ans
] ^{\
Ġh ang
T ele
ÃŃ a
ress ing
Ġrem arks
ĠV A
ab e
ĠT oy
19 16
Ġcon c
ĠLeg al
Ġren amed
T I
Ġl unch
Ġevery body
ĠCon tact
Ġvari ants
Ġsearch ing
Ġen abled
Ġlocal ization
ĠShe l
ut ers
ad ata
ĠBo ys
Ġab road
Ġrel ate
Ġimm igrants
Ġr ugby
$ --
f ind
Ġread ily
ĠPer haps
ĠV ancouver
Ġcap ability
n est
Ġsubst ance
ĠAss istant
t otal
ĠS L
Ġab elian
t x
ĠSt ore
ĠComput er
}_{ (
Ġbeg un
Ġinequ alities
left rightarrow
ĠJ oy
Ġqu eries
ĠSte p
Ġprom oting
ĠArm en
ĠJer usalem
Ġl ung
Ġobserv ables
ac co
R un
Ġto w
e a
u w
ĠD ragon
Ġveter an
og an
Ġopin ions
Ġ erg
ĠF em
ac cess
' =
ĠQueens land
ĠV I
11 7
Ġsurv ived
ew ise
Ġtang ent
ĠDen mark
ĠJim my
ad ic
Ġtw elve
Ġmod uli
Ġfacilit ate
ĠMon th
An g
Ġep id
Ġrefer ring
ĠR ank
ri ors
sh ot
Ġhigh way
Ġfraction al
ĠGal actic
ĠD ise
ĠGu y
Ġinst ruction
Ġclaim ing
Ġcontrad ict
/ .
ĠR an
ĠNC AA
ĠJu an
19 15
au er
s g
ĠMean while
Ġsup ern
Ġl oves
Ġste re
Ġch at
ĠT ower
r ically
Ġn ick
Ġver ified
T otal
ĠC oul
On ly
Ġspok es
quir y
Ġfit ness
Ġsuspend ed
P ublished
Ġpush ing
ĠHon or
ĠPri or
j an
Ġless ons
comp act
Ġsynthe sis
S ym
iv ities
ric ks
M ass
Ġt rick
Ġhard ly
Ġm ock
ER E
ĠS ay
g ements
Ġdream s
V P
Ġsub tle
ĠPit tsburgh
Ġlog ical
De ath
ĠWe bsite
L aw
tal ion
Ġdecl ined
Ġphr ase
j ud
ĠR ap
Ġrel ies
Ġdecre ased
T or
19 26
Ġas p
b ach
De cember
Ġuniqu ely
sum er
A ir
Ġsurv iv
eff ective
ĠT ob
ari ju
z i
Ġmist ake
ant on
k ar
Ġaccept able
We b
ĠAn aly
Ġmem brane
Ġmet res
G old
Ġdel iber
ariju ana
Ġcontrib uting
ĠMit chell
ĠPortug al
ĠO il
Ġintrodu ces
re view
names pace
ag g
Ġfil ters
Ġestabl ishing
C s
Re al
Ġsl ot
An n
R O
ĠChall enge
ĠB rew
Ġemphas is
Ġs ends
19 21
Ġelim inate
Ġdam aged
ĠAg reement
Ġinteract ing
ri ver
19 23
Ġorient ed
Ġreason ing
augh ters
Can adian
ĠP erson
D L
Ġimm un
ĠM E
Ġcampaign s
Ġsucceed ed
= {\
G raph
ĠWay ne
ar atus
Ġb ott
N ov
Ġg ear
Ġcas ual
ĠStan ley
H H
ĠSh an
pr ison
Ġbelie fs
P I
Ġgra in
char acter
C am
Ġp sy
Ġtravel ing
}} +
in ces
ĠN E
ĠM I
ĠLu ke
ĠM oney
=" ../
ĠF isher
rel im
Ġprogress ive
Ġhierarch y
Ġin ev
Ġprov ing
Ġc rown
ash ing
Ġan nu
Ġall ocation
Ø ±
ĠE N
Ġaccept ance
Ġal ien
Ġvess el
Ġ )$
Ġguarante es
Ġ\ #
Ġwar rant
Ġdi et
Ġful fill
( |
Ġinhab it
Ġke ys
Ġparticip ating
as te
ĠC hel
ann ah
Ġexam ination
ĠColl ins
Ġpre t
ail ing
ĠSt ra
Ġdesc end
Com parison
ĠDen ver
av an
ick ets
Ä į
ac ular
Ġcross ed
over ning
pack age
Ġt ennis
ĠR at
ph ones
Ġb read
Ġrout ine
Ġt weet
Ġre ign
Ġrel ativistic
Ġobserv able
Ġl oud
ir ts
Ġjud gment
Ġbal anced
she ll
Ġv ic
Ä ±
op ter
big gl
Ġspeak s
Ġdiscrim in
$ =
ĠVi ol
Ġp ic
] _
ĠClass ic
Ġfin ishing
p ic
ur ious
Ġdeg rad
Wh ite
âĦ ¢
te es
Î ¿
Ġut ter
Res ult
US A
Ġse cre
ĠBl ues
oc hem
ĠSte ven
Ġcharacter ization
ĠP uerto
Ġmed ic
u ine
Ġceleb ration
Ġup grad
lim ited
Ġconven ience
x ym
ĠC el
ĠBl u
Ġcateg or
t witter
Ġhuman ity
ĠUr ban
asc ular
Ġcur rency
ag ger
ĠEd inburgh
Ġglob ally
Ġvo ices
is i
Sum mary
ore l
Ġf o
ĠO range
C OM
Pro ject
}) (
Ġel abor
Ġcl othing
^ +\
Ġstri p
Ġhit ting
ue z
Ġrecord ings
Ġ= ==
b ing
vers ely
u ct
ĠM es
on ing
L u
19 11
ĠF inn
Ġproof s
Ġpe er
h ill
Ġdisc ount
Ġperm utation
at ta
ey er
ed a
ist ance
ams ung
Ġcult ures
ĠPol y
ĠBrother s
12 4
Ġin cent
sh ould
Ġmus cle
e als
\| _{\
il ds
Ġg ray
S y
ĠL O
× Ļ
Ġim per
om atic
Ġband width
Ġearl iest
ĠS olar
j av
st ation
ne ut
Ġr ally
ĠPe ak
ĠTe le
Ġob sc
Ġple ased
ĠC V
ĠCommon wealth
ĠMar ie
Ġinv asion
hy per
Ġwid espread
Ġmod ular
d or
Ġact ively
Ġprom ised
ĠW a
Ġm ild
ĠNet flix
Ġquant itative
sh ape
ĠWith in
Ġv end
Ġflow ers
Ð ¼
Ġclot hes
ang ular
Ġsequ el
z es
Ġ\ }$
ĠH end
Ġactiv ists
Ġdrum s
Ġadapt ive
St ream
Ġsoph istic
Ġcon qu
armaceut ical
), (
lades h
ĠB S
ĠS ales
od ic
ut t
ĠG M
Ġimp ose
Ġhomot opy
7 50
res ize
ĠParliament ary
Ġgl ad
): =\
S un
F ran
am ic
c n
ĠĠĠĠĠĠĠĠĠĠĠĠĠĠĠĠ ĠĠĠĠ
Ġdifferent ly
b racket
play er
Ġens uring
E s
Ġg ross
Ġgr ants
ĠT ed
Ġre cre
l ied
J ul
ĠPr incess
ugh t
rem y
Ġcomm ander
he ro
ĠInt elligence
sp aces
//// ////
c ov
ab a
s creen
or ious
19 13
ĠPark er
res olution
h h
ĠJ en
ĠJust in
ĠAnt i
ĠF r
rat io
Ġ rib
Ġb om
dep th
w alk
ke ley
Ġter rible
Ġident ities
ob j
) }^
me asure
ĠĠĠĠĠĠĠĠĠĠĠĠĠĠĠĠ ĠĠ
F OR
Ġshould er
Bl ock
ĠP il
Ġcon dem
Th ank
h uman
opt imal
ĠPriv ate
12 2
Ġvan ish
Ġhospit als
Ġoscill ations
Ġtor us
Ġsummar ized
ĠCar ib
c ritical
Ġimpro ves
Ġobject ives
Ġobserv ational
ĠReg iment
ĠH aving
Ġelect romagnetic
Ġsingular ity
Ġprot ests
ĠBar on
ĠU lt
te chn
ĠCl imate
ĠCamp aign
Ġess ay
ĠS oul
ĠP oll
fig s
Ġcommunic ate
O ld
Ġen orm
ay an
Ġres ort
] _{
ĠT ig
Ġenem ies
ĠBe ing
Ġdro ps
ed er
Ġenter prise
qu ery
Ġinter active
rad ius
ĠO bs
Ġpaint ed
Ġun de
@ {}
âĢ¦ ]
Ġmanif olds
st ore
Ġs alt
ie ve
\' {
Ġregular ization
Ġrot ating
G D
comm unic
Ġb onds
Ġaut omorphism
27 0
Ġsusp ension
ĠCra ig
omet er
Ġatt ending
ĠE uler
Ġcont ents
Ġsto pping
ĠBe aut
Ġdepart ure
l ate
ĠAgain st
ĠB ron
p iece
C ho
ĠPro perty
Ġdual ity
Ġhad n
ĠSim ilar
r h
ĠK ate
ĠPhys ics
as et
om on
Ġor ange
Ġequ ity
ĠAP I
p f
ï ¼
Ġqu ote
Ġthrow s
W S
Ġdetermin istic
Ġlong est
Ġbare ly
ens en
h ad
g rid
Ste p
ĠIran ian
pl ant
ĠD est
Ġ\\ [
ĠBar bara
* {-
Ġa fraid
ĠC e
Ġembed dings
Ġse venth
ĠN ap
Ġd rew
Ġattract ed
ĠRe lease
sur ance
Ġsol it
ĠR F
upp er
ow ell
Ġmod ify
) /\
Ġinflu ences
Ġaw esome
Ġaud iences
ĠG ran
ĠCo hen
Ù Ĩ
our t
s ort
Ġvari eties
ĠV ery
; </
Ġinstrum ental
Ġconf usion
Ġcompan ion
Ġgall ery
ĠHun ter
on omic
out put
Ġdoll ar
ĠP red
Ġcom ed
2 10
le ep
Ġhighlight ed
Ġmotiv ation
ampl ing
25 5
Ġsm ile
ĠN ep
Ġgrate ful
F unction
ur u
ĠCro at
Ġamb ig
__ _
}} -
riv ing
T ake
ĠL ock
Ġsupp ressed
intend o
Ġw elfare
all ing
ĠLe ban
[ {\
l ov
Ġmetall icity
h ook
Ġsqu ares
Ġbroad er
E ff
Ġcons ol
He alth
C opyright
Ġbu ck
Ġp ill
Ġcohom ology
uck er
}}\ \
19 0
sh aped
init ial
p air
ĠN ear
ĠAl aska
Ġsuper conduct
P age
ĠNor wegian
d ynamic
B ro
um ann
Ġdeploy ed
f ixed
ss on
Ġpat ent
Ġdist inction
ĠSte el
P et
Ġst eal
ĠB illy
Ġaccount ing
c ient
Ġf illing
l iving
Ġsil ent
Ġback ing
Ġg ates
ĠC BS
Ġg ard
Ġcomp ression
Ġpro s
Ġarrang ements
ĠGi ants
Ch ina
Ġmicro sc
N av
Ġrep ly
Ġple asure
rape ut
2 30
Ġmanufacture rs
ĠC her
Fig ures
Ġp uzz
ĠC ert
Ġclass ifier
Ġneg lect
it ual
Com b
ĠMa ine
Ġgeodes ic
Ġincred ibly
Ġdriv es
big skip
ĠMag ic
U ST
inn ed
Ġt une
f an
Ġeng aging
bigg r
Com put
Ġfl ights
make box
Ġinflu ential
l st
ĠV eter
Sp ace
b ran
Ġd ated
ĠPro of
ĠComm ons
ow ing
it ious
Ġferm ions
Ġm ice
ĠJ ava
Ġstret ch
, (
Ġrest ored
xym atrix
ĠL ess
Ġburn ing
p olar
ĠWork ing
Ġdiv ide
}$ ;
ĠR io
ĠB irmingham
om ed
ack s
ĠLe ader
bor ne
const ant
Ġreprodu ce
d in
Ġvalid ity
Ġl uck
Ġactiv ist
Ġs urn
osp el
Ġlocal ized
ig ion
Ġanom aly
$ }\
e u
Ġun ve
ĠG W
M ad
ĠM all
Ġvent ure
os oph
ĠO k
qu ant
in formation
ĠUnivers al
ĠE C
Ġingred ients
Ġth irty
A Y
AC E
the se
Ġoccur ring
ĠT s
Ø§ ÙĦ
lic ations
ĠMach ine
Ġsynd rome
12 1
part y
Ġalleg ations
Ġd ub
F amily
Ġsee ks
i racy
ĠP hoenix
Ġachie ves
F inal
Ġf ulf
F s
ĠA y
Ġnot ably
ĠP ant
ĠN eb
Ġand roid
ran ean
ĠT ib
ham mad
Ġrec ruit
Ġtra p
Ġele g
ĠT ree
omin ations
renew command
ĠT ogether
ĠSh ah
12 7
Ġpo em
ĠN BC
i Äĩ
ĠP ic
Ġoccasion ally
Ġun w
ĠPalest inian
ĠD ie
o ons
Ġprocess or
Ġmethod ology
Ġpubl isher
ĠMan hattan
Tr ue
m other
g as
m illion
ĠM ack
F ace
h ig
Ġbl ank
ĠFin land
ĠC arn
se en
an te
Ġsequ ential
Ġm ood
ater ials
ress es
Sc ott
az ines
Europe an
F ollow
ĠRe ading
T ax
aren ts
ĠS NR
Ã¼ r
ĠDak ota
d ocument
Ġcommission ed
le tt
ĠP L
Ġsimpl ified
Ġchem istry
war z
Gl obal
19 08
Ġext inction
ool s
? )
Ġpred omin
Ġlight ing
ĠBen jamin
ĠM aj
ĠT erry
ath on
Ġste am
h ome
Ġp up
ĠĠĠĠĠĠĠĠĠĠĠĠĠĠĠĠ ĠĠĠĠĠ
Not ice
G reat
ID S
}$ $
ĠBe ijing
od ium
12 6
S chool
ĠB it
J ac
ro us
b ibliography
big oplus
Ġj ew
ST M
ĠCh ron
Ġhas h
Ġc aps
W atch
Ġch ances
Ġph osph
Ġview ing
Ġplan es
rap ol
H I
ĠC rown
med ia
ĠUp on
Ġprison ers
}] $
Ġd s
]{ ./
Ġconsist ed
" |
Ġe cosystem
Ġr iding
ĠP in
Ġ ions
Ġiniti atives
as g
ĠChristian ity
ĠM uch
he astern
Ġdisput e
ĠEm peror
Ġanim ated
Ġflux es
Ġw orship
ĠG L
w ang
Ġreal ization
be at
ĠBre xit
Ġrad ii
s chool
Ġtr im
Ġdo zen
roph y
Ġbur st
Ù Ī
Ġbl ame
Ge orge
li ers
ĠAr n
Ġche st
ĠProfess ional
Ġt ips
ia o
Ġth rown
Ġconsider ably
eg er
ĠH ind
Ġsa il
ĠO scar
Ġto ken
ĠOrth odox
Ġren t
Ġrom ance
00 2
Ġcry pt
Ġswitch ing
Ġprocess ed
Ġimportant ly
ĠFriend s
l ass
Ġlect ure
up date
P eter
ĠWrit ing
Ġb ene
cho ose
ac re
est one
ĠC row
) ~\
for ced
ĠCommission er
S uch
ĠL ower
ĠHawai i
symmet ric
ci pl
AG E
Ġext ensively
Ġpar ity
Ġimm une
) </
Ġcan n
ĠB ond
Ġprepar ing
Ġcomput ations
Ġball s
Ġe ar
con vex
Ġhistor ian
Ġobserv ing
ine e
Ġreserv oir
Ġb ronze
Ġvirt ually
Ġconver ge
U P
K ing
ĠIm perial
rib utions
ĠMove ment
ĠO K
re ck
ĠM R
ab ol
Ġn um
ĠB ag
en um
Ġdeput y
Ġb io
F ore
ĠC ultural
Ġstup id
T ag
}. $
ĠSe lect
Ġcomp ounds
Ġcub ic
Ġan s
Ġmanufacture r
Ġsh it
Ġconsider ations
Ġf oss
Ġland mark
Ġas c
Ġvess els
ric ulum
idel ity
v dash
ĠCons ult
l if
Ġagric ulture
ĠEconom ics
Ġal arm
Ġdist ant
Ġachie ving
Ġlaws uit
ĠUn like
c in
Ġst yl
ĠP ick
> (
N T
l on
or bit
ryst al
Ġparamet riz
Ġdiscuss ing
it atively
D ue
ĠF ile
Ġdiscre p
W he
14 5
re ens
Ġgra ded
ĠF ine
it ime
ĠO cc
erc ury
Ġj ury
\\\\ \\\\
Ġcommut ative
Ġper mitted
ĠBrazil ian
C ity
Ġf ate
im ony
Ġdis placement
Ġaver aging
C r
l ies
ĠP ictures
St art
ĠC old
le ased
Com ple
Is rael
Prof ess
Ġout door
w al
Cont ent
ound ing
tra ining
A K
rect ed
Ġl ov
ĠOl iver
ĠB enn
ĠPl ant
Ġam id
tra ined
Ġp ounds
Ġs orry
^{ [
Ġsum s
Â ·
ĠK rist
Ġv ortex
Ġlab our
ĠC u
Ġdip ole
14 4
eq q
ecess ary
ĠC arm
Ġt ab
Ġcitiz en
Ġv it
t im
Ġc inema
ĠG ray
ĠE ST
ĠConserv ative
ĠD ifferent
Ġg ran
ĠLabor atory
m arg
G F
Ġsimpl er
Ġbuff er
Ġre tained
ĠBl oom
ĠTer rit
Ġcoast al
ap or
F our
Ġhar vest
ro ot
ethe less
' (\
b ie
met ric
R a
Ġhand ed
Ġseem ingly
ĠJohn ny
th a
priv ate
Ġsh ops
Ġg est
Ġg ym
ĠR ot
}} ^{(
am ine
ĠSe an
~~~~ ~~~~
ĠMet ro
hy dro
Ġper ception
as a
ĠSus an
f m
< !--
Ġexist ed
Ġill um
ann ot
G ame
Ġpri est
s qu
U se
d um
ĠC ensus
akes pe
ut o
W W
set length
Ġevery day
}} +\
Ġcheck ing
moment um
z ens
Ġb orders
e ch
Ġar row
c rit
Ġnegoti ations
Ġbright ness
Ġc ust
ourn ament
20 23
Ġunder ground
ĠS ide
Ġth ro
ĠA ld
Con tact
ch anges
\\ \
ĠH orn
' )\
ĠR av
correspond ing
ang led
Ġper pet
ĠB esides
hav ior
Ġopp onents
}) }\
Ġint rig
ĠT ru
Ġas ymmetry
Associ ation
Ġt ons
id o
Ġarch ae
ĠPortug uese
ann es
Res ource
ĠK an
Cl ient
ens itive
Ġneighbor ing
ĠOper ations
. ).
Ġabs ent
m ill
ro c
Ġlux ury
it ol
uls ion
ent ric
ĠK ids
Ġ icon
Ġweak er
Ġcon ce
in ced
Ġdwar f
Ġmodel ed
Ġche cks
Ġcoal ition
Ġprem ium
akespe are
Ġtrans mitted
Ġcontrovers y
M iss
ĠUpd ate
T L
ĠA the
P ass
Ġ( .
l ook
im eter
}{ $\
Ġass ass
Ġstrugg ling
E F
Con clusion
ĠG ot
des ign
Ġimp ression
ĠT otal
Ġassum es
ĠH indu
ĠMont real
Ġart ifact
Ġeconom ics
Ġintegr ity
^* (\
Ġcur rents
Ġtal ented
Ġconnect ivity
Ġal igned
ry ing
Ð ´
B orn
Ġspec ify
k t
er red
Bi ography
s rc
Ġin comp
Ġqu art
igh bor
Ġfall en
Ġemot ions
5 12
Ġearth qu
ĠH ockey
Ġattempt ing
sh ops
Ġmob ility
3 20
Ġrat ings
Rich ard
Ġatta ch
ph ys
N L
Ġking dom
Ġalleged ly
Ġrest oration
b ia
ĠWel sh
Ġc ous
ĠRob in
form al
P riv
ĠA rena
con j
Ġlay out
o pp
Ġk iss
ic i
rel ax
um m
Ġpair ing
re ach
Ġinvestig ating
ĠPer ry
ĠInd ians
Ġsp ont
Ġor al
Ġtra iler
Ġinv al
Ġexponential ly
& +
Ġ ),
Ġtw isted
~ {\
Ġscient ist
pro file
Ġenc oder
Ġcorrect ed
sm ooth
en ame
ĠU ser
Ġbr ut
Ġs aving
AR D
Ġdr ift
!! !
ĠB apt
}] \
Ġwild life
W in
Ġadjust ed
ll i
Ġfor b
if ice
Ġinteg rate
ĠCharl otte
Ġdefin ite
ĠL arry
Ġcell ular
B usiness
ĠM ust
ĠN ad
ĠG ate
Ġextra ordinary
Ġtele phone
P rodu
Ġde emed
aren cy
E u
row ing
ĠMad rid
ose x
AB LE
ac o
ĠE ve
Ġag gressive
ĠC op
T em
Ġep ic
cos ity
S il
p al
Ġcon g
ĠC emetery
O H
Ġt rem
ĠF iction
- $\
om ial
ins ula
ĠBul gar
}{ $
G al
id ays
Ġsp ins
ov ich
Ġval ued
form at
Ġproject ions
. (
ĠConst ruction
fil ter
Ġinvest ments
ĠU pper
w oman
Ġqu oted
Ġb ins
ix on
qu antum
ĠCom ics
w art
id i
Ġsm oke
Ġw is
L ondon
ĠG olf
ĠV ari
ĠF ast
opt ions
Ġcor por
1 19
b us
ĠIs a
Ġcolon ial
id ency
C arl
Ġcontroll ing
Ġsum mit
Pro t
ĠN aval
Ġent ers
Ġterror ist
u ce
equ al
amp a
ĠKe ith
is ible
che m
Ġnob ody
Ġcoinc ides
Ġmiss ions
ĠHam pshire
Ġelim inated
Ġnav igation
Austral ian
ic he
ĠL anka
ty pes
Ġacqu ire
ht bp
[ "
Ġindic ator
cast le
Ġke V
' -
Ġdev ast
ex act
Ġinc hes
ĠQu est
l as
Ġopp onent
) <
Ġnucle i
Ġconv inced
Ġswim ming
Ġexpat riate
ren der
ass ment
ĠCarib bean
f n
× ķ
ĠT ab
Ġadj oint
, '
ta ken
prot ect
Ġim prison
Ġ$ -\
o i
Ġm os
Ġbl ast
Ġtrans f
but ton
conn ection
Ġl ucky
ĠG ay
s ong
ou p
Ġadopt ion
ĠSy rian
Ġmerg ed
ĠC opyright
ĠMad ison
Ġrefuge es
iv ariate
cal cul
ĠSh are
ĠI de
with out
Ġsu gar
ĠO tt
ett i
ĠĠĠĠ ĠĊ
en berg
ĠComp an
A ccess
ens is
Ind ian
port ed
}, \\
ĠLeaders hip
Ġg ri
ĠCl aim
Ġlic ensed
Ġenvelop e
ĠCo al
Ġab ilities
C ross
Ġtw in
Ġconv icted
Ġmod ifications
ĠLe v
Ġannu ally
ĠY ank
M icro
Ġcontain er
Ġdelay ed
Ġcomplet es
ĠC ut
B U
var pi
cons ider
cell color
m ont
Ġr u
Ġgen uine
ĠCre ative
Ġl iver
red ited
cl ient
Ġb und
ĠTurn er
ĠF alls
Ġph ones
ĠR ule
ĠBre ak
u cc
Ġqu arks
' ,\
_{ (\
Se lect
Ġdevelop er
osp here
Ġexec ut
e enth
ĠD ocument
Ġpark s
oc ese
Ġapp aratus
\!\! \!\!
ĠS ad
Ġwarn ed
L at
t ar
dou ble
Ġdisapp ear
Ġadequ ate
Sup er
Ġb es
Ġlogarithm ic
Ġprim itive
Ġb ills
ĠH E
ĠLeg end
ul ates
ĠN A
Ġf ont
Ġg amma
Ġsc ream
Ġexplos ion
Ġradi ative
Ġsp iral
fl ux
Ġic onic
Ph ot
Ġfail ing
Ġer up
Ġdetect ors
Con f
rist ol
D ev
Ġp or
Ġn m
ĠAdv anced
h aw
ĠN EW
Ġincor porate
Ġhabit at
ĠF ight
Ġt err
Ġsimpl est
Ġm arch
Ġincor rect
ĠQue bec
Ġforest s
Ġnewsp apers
ĠR s
the sis
g un
Ġsp ir
Ġtour ism
Upd ate
ĠIn surance
Ġadvert is
Ġl i
AT O
Ġfoot age
Ġsing ers
Ġcompet itions
ĠHar rison
ĠM aur
ĠInn ovation
ĠL isa
ĠAut o
Ġel ite
ĠB O
P ad
Ġ{ {
ars ity
}; \
Ġadd itive
ĠL ost
hand ed
Ġutil ized
w s
col head
Ġgot ten
Ġroll ing
Ġbon us
Ġcycl ic
ĠK irk
Ġhol omorphic
). $$
Disc uss
g tr
Ġrect angle
pe ople
Ġpreced ing
Ġuncle ar
Ġdis ks
13 4
Ġ\, .
comp ass
Ġc er
Ġentreprene ur
Ġappro ached
Ġneur ons
E ducation
}$ ),
ĠMat hemat
e very
ĠArk ansas
Ġvol can
F ix
ĠS ony
Ġpain ter
Ġafford able
F W
ĠMet ropolitan
Ġse eds
2 25
u u
ole cular
ab is
ĠT it
Ġsusp ected
Ġb eta
d c
Ġdis orders
ĠG ov
Ġte eth
ĠL ad
og s
Ġrig id
Ġal umin
Ġtra pped
Ġpoly mer
p any
Ġenthus i
Ġmod elling
ĠA aron
Ġinc idents
sequ ence
Ġl ady
Ġcom ics
Ġaccompl ished
e val
Ġt et
Ġreconstruct ed
l brace
ĠBang ladesh
+ $
Ġlong itudinal
Ġscal ed
A rm
}} }{\
Ġt ap
Ġturbul ence
ĠL ion
ĠScient ific
Ġf iscal
Ġrepl ied
iter ranean
Ġgather ing
Z Z
Ġengine ers
re k
Ġg aps
Ġtransp arent
Ġhand led
Ġpo ison
h m
Ġa uction
Ġconf used
======== ========
ĠJer ry
ix el
Ġconjug ate
Ġpregn ant
are r
15 5
Ġab ortion
ov o
ĠWar ner
ass y
Ġser vers
G a
ij k
Ġexplo it
Ġatmosp heric
he art
Ġevolution ary
Ġsw ing
Ġdem ocratic
Ġc oding
Ġint ra
Spec ial
yn c
ĠV ent
Ġoverse as
ore r
DA Y
w right
supp ort
em b
pend icular
r ut
ĠG T
Ġa ired
ar ound
Ġevalu ating
ĠR ules
Ġbehavi ors
B ER
Ġcal endar
Ġpre st
C oll
et on
ĠC ars
ĠFac ulty
P ress
ĠL aura
ĠL HC
ah a
e or
Ġaccom pany
Ġb ol
ĠTechn ical
C ond
Ġcast le
head er
Ġd aughters
Ġsy mp
Ġbank ing
Ġra y
I LL
M ag
c am
}$ &
P DF
Ġdem ol
Ġtrib ute
Ġt ar
B uild
r f
ĠSpe ed
ht b
ĠJenn ifer
Ġencoun tered
Ġapproxim ations
Ġrid ic
ct rine
ĠPubl ished
k it
EN D
G AN
Ġflex ibility
Ġde le
Ġsc atter
L ove
Ġtradition s
ĠCam eron
ĠFant asy
ĠB Y
Ġlif estyle
i w
be fore
L ie
âĢĿ )
mid t
Ġnom ination
ĠE state
process ing
St and
othe rapy
+ |
ĠP el
Ġre un
Q U
ĠB right
resize box
W el
an im
ĠRe yn
Ġle an
Ġtum or
Ġw ounded
e eq
ĠSing le
Ġb anned
Th omas
Ġoptim ized
bibliography style
ĠDan ish
Ñ ĭ
Ġstream s
Â »
Ġpsych ological
ĠK ath
Ġstructure d
const ruct
Ġadvers arial
) },\
Ġconvers ations
ĠB A
M edia
Ġang ry
Ġco res
Ġmole cule
Ġinteg rating
Ġdec ides
ĠBar cel
ĠMur phy
ĠF ro
ĠN HL
s elling
ab atic
Ġsym plectic
us k
ur ities
ĠB ird
ash a
Ġsophistic ated
vert ible
ĠK os
d irection
O p
Ġhun ting
vent ions
top rule
resp onse
Ġn ights
ĠV otes
ĠBay esian
Ġutil ize
ĠHill ary
Ġb ubble
ĠGra ce
Ch apter
Ġven ues
iv ic
19 05
F rank
pos al
Ġl obby
Ġsl ice
Ï Ħ
ĠR achel
sp ot
00 5
eff ect
t rim
Ġi i
ĠProdu ction
18 90
ĠN N
u art
Ġneighbour hood
ĠL uther
h op
Ġst d
ur se
Le vel
n one
Ġconcent rated
Ġsurve illance
ve ctors
ĠF O
Ġde ck
ĠWhe ther
Ġfasc inating
Ġtrac es
Ġpen et
Ġbatt les
Ġmon op
l p
n ia
Ġwork shop
ĠIn v
Ġaddress ing
Ġinn ings
ĠMult i
ĠH app
scal ebox
ĠP H
Ġdro ve
+ {\
ĠCh a
Ġsc attered
Ġexp enses
Ġst rat
Ġan chor
ĠMor ning
list ed
Th m
ĠW onder
Ġvacc ine
Ġrev ised
Ġproceed s
Ġstreng ths
Ġans wered
ĠF itz
umb ai
Pl ot
the m
19 07
d p
Ġinsp ection
Ġcoinc ide
ĠE R
Ġstreng the
O lymp
ĠW or
sh ore
Ġd ots
h ind
Ġg ig
Ġhost ing
ĠNaz i
AS E
ĠArt ist
cc entric
S a
ĠSp ot
ĠZ one
Ġcharacter ize
K n
qu et
ĠB orn
ĠM is
Ġst unning
Ġp our
Ġobser ver
Ġp icks
ĠSe ven
U til
ĠP rad
> $
s it
on ies
L ive
Ġm ath
19 09
ĠSpr ings
Ġthere in
Ġanim ation
ĠFe ature
Ġo ct
Ġgold en
Ġco aching
G H
Ġconj unction
om i
Ġl ibraries
Ġdevi ations
Ġwor ried
Ġpro spect
pro perties
Ġlo ose
ne x
ĠIss ue
ã Ģ
Ġh ung
act ing
ĠH em
ed it
arg s
Ġpre vention
ĠM ak
) )=
res a
fra ction
Ġimplement ing
Ġin coming
IG N
ĠV erm
ac les
ĠK el
ĠN iger
di agram
stitu ency
o T
ĠN am
ĠPrim ary
Ġmyster ious
Ġin sect
Ġbe ating
iv o
S ocial
ĠIn iti
Ġ __
Ġup set
st d
Ġd ying
ph ot
Ġprot ecting
Ġm ouse
colon eqq
ĠGuard ian
Ġp owered
Ġcolle ges
Ġdef ect
ĠL ith
Ġcount ies
] \\
ĠL an
Ġtreat ments
ĠM Ps
). $
Ġaff ecting
Å «
hen g
sur face
Bu ilder
app end
requ est
[ ->
m eta
ĠCarl os
Ġcor ners
)} =\
th al
se q
Ġcap ac
ĠC ould
amb ers
ĠW orth
'' .
Ġagre ements
ĠR O
ok a
r b
Ġdis h
Ġri vers
ĠH at
du ction
ier ra
ro v
Ġra pe
Ġg raphics
ĠBern ard
j ar
ord ination
Ġcre am
Ġjo ins
ang o
Ġfl ower
Ġ[ [
is o
Ġper ceived
c ence
ĠK il
ĠMethod s
Ġa est
i ref
Ġiniti ated
ĠLiter ature
Ġtra ct
): =
M el
Ġfre ely
Ġsc andal
ĠPh ase
H en
n ear
f ar
) *
- {\
ĠP ref
ĠClin ical
ĠVenezuel a
ĠCle arly
Ġt ape
cept ions
ĠB irth
Ġtra dem
Ġpremie re
Ġenorm ous
ros so
Ġrecommend ation
Ġcollect ing
ĠTransport ation
ĠOrig inal
Ġprefe rence
Ġcogn itive
Ġenhance ment
Ġcam ps
F lor
Ob j
ĠIndust rial
ĠLe ave
E ast
J im
Ġgraph ic
Ġenc oded
j or
Ġsub stitute
f re
Ġl ap
op edia
ĠC F
ĠAm y
ĠUk rainian
che st
qu al
st atus
Ġobtain s
Ġac res
r arily
Ġd up
ĠMu hammad
Ġex terior
ack now
he ld
Ġconcent rations
ĠS ug
ĠArch ive
J P
itz er
n c
ol ine
19 06
] }\
ra ising
ik o
ĠR acing
Ġdeliver ing
Ġind igenous
ĠU g
P ub
Ġb acteria
ĠM ason
Ġun em
ĠT ak
Ġpresent ing
Ġsear ches
id ated
Ġl iv
im s
Ġdegener ate
ĠLic ense
b eq
D om
ĠMas ters
â ĪĴ
Ã ł
ĠHar vey
es ters
ĠNe il
S ar
Ġfast est
C y
Ġcut off
ĠÃ ¢
Ġuncer tain
ho o
Ġvolunte er
Ġlog o
ĠMov ies
ĠAlf red
e lection
Ġto urs
ĠBill board
12 9
Ġorig ins
L y
ĠCom edy
const raint
J ew
ĠImp act
Ġbar rel
Ġbur den
ĠW H
ĠCit iz
Ġen abling
ĠF ish
Ġlegit imate
ter ms
Ġmin istry
ĠW ikipedia
19 04
Ġw ings
Ġwood en
ĠStrateg y
) ~
Ġd ancing
ĠP rix
ĠF if
Ġlegisl ative
Ġdis abled
em a
Ġqual itative
ĠBarcel ona
ĠHel p
ine a
Ġisot ropic
à ¦
ĠNev ada
Ġoutl ined
ĠâĢ Ŀ
Ġmeas urable
qu ark
Ġin frared
Ġachieve ment
ĠEd wards
Ġspeed s
em or
Ġpoor ly
ĠV ersion
asg ow
Cont in
l attice
pr ises
Ġcalcul ating
ph oton
Ġsold ier
Ġprom ises
eg al
Ġboard s
ĠN ord
}) }{
ri en
B a
ĠAm endment
c v
Ġwant ing
) {$
ot ypes
Ġcaus al
anc ies
ĠB aby
Ġcomment ed
Ġsub graph
Th ough
Ġh ub
hol m
13 3
Ġindu ce
G T
N ever
}. $$
Ġmort ality
Ġr ated
ĠHe b
St ation
Ġbut ter
Ġload ed
Ã ´
Ġrot ational
Ġnucle us
am ount
Ġsh ipping
a uc
ig o
Ġpubl ish
ull ivan
ĠCom merce
au kee
H aving
am ilies
r brace
Ġn erv
inc inn
Ġpoll ution
ĠB ody
Ġsustain ed
L ou
ces ter
Ġsec ured
Â Ń
cel and
}$ :
Ġproceed ings
D ig
Ġ\| _{
A wards
Ġup grade
Ġaccompl ish
Ġqu bit
T ur
Ġspons ored
$ ^{\
13 2
Ġsat ur
Ġdiff ers
Ġprotocol s
Ġed iting
Ġexp ense
Ġwarm ing
Ġequival ently
Ġinhabit ants
us ebox
ell ers
tain ing
cl uster
Ġcomb in
Ġback grounds
i u
ĠCP U
Ġcon figure
T erm
gtr sim
ĠBer keley
Ġcal ib
Ch ris
ĠFl ore
M I
t n
oc ate
p ref
im mer
Ġstay ing
ĠKen ya
Ġpers u
Ġpro xim
der iv
rel ations
S at
Ġselect ing
Ġd ivers
ĠJ oint
G Hz
the ir
Ġdepart ments
D O
Ġpl acing
M B
ig rant
ĠVin cent
ĠD eg
D id
ĠB eyond
st ock
k k
Ġc ig
Ġoccur rence
................ ................
Resp onse
Over ride
Ġno isy
im it
Ġst er
13 6
Ġemploy er
ĠSh akespeare
Ġtun ing
Ġhum or
ĠHig her
C W
ogen ic
Sh ort
ĠR ing
Ġhe m
Ġconduct ing
Ġmoment a
Ġaltern ate
N or
hib ition
à¤ °
à¥ į
Ġall ies
H a
M er
Ġsav ings
Ġpres erving
Ġquarter back
st rap
ĠSaint s
R ay
Ġs id
}^{ *
Ġsubst rate
ĠHor se
ĠR ud
hem atic
ĠA ve
Ġapproxim ated
ĠC ole
}\ )
IM E
b ug
Ag ain
Ġsuppl ied
M ajor
Ġn ose
Ġdiv isions
ĠC ov
19 01
I J
ĠDe velop
ffic iency
B ill
Ġs its
co ordinate
Ġw ars
ĠDra ma
Te chn
Ġa fore
Ġsm oking
ĠS ometimes
Ġe ccentric
Ġthe sis
st ellar
b uilding
{ |\
Î ½
to o
Ġbranch ing
Ġdescript ions
ow der
ĠG arc
incinn ati
16 5
ĠCru z
ĠM om
ĠSal v
Ġro ster
\\ [
13 7
Ġc ave
ĠM ick
^ *}
q q
abil istic
f ive
H F
Ġpres erves
ĠS ymph
i ol
ĠM ade
est on
M F
ind a
acknow led
Ġr if
ĠWat son
ĠNorm an
Ġoccas ions
Ġr itual
Ġatt raction
S ources
Ġbenef icial
et ric
ĠR angers
ick ed
Ġdemand ing
Ġ: :
Ġw age
Ġg overning
thin space
ĠAb u
sp ring
z one
Ġpe oples
ĠCh ampion
ĠOther wise
}) ^{\
S everal
Ġc rim
Ġin ert
t ask
ĠB L
Ġste pped
v ir
ĠEd ge
ĠMin or
Ġspecial ist
ĠB ass
ĠB E
Ġgrad ients
Ġrel ay
ab ul
Ġk iller
Ġpract ition
Ġp ul
ĠTerm s
Ġexplain ing
ĠR S
Or gan
Ġcontrib utes
}} _\
Ġlock ed
f p
Ġbene ath
iv ia
Ġover head
Ġ* *
Ġcol ours
MS E
qu ote
Ġneg lected
Ġcomple ting
ĠC ot
Ġsh ore
ĠFilm s
Af ric
ian ces
Ġb ipart
Ġasymptot ically
pl ug
ĠĠĠĠĠĠ ĠĊ
ĠR u
ĠComm ander
Ġpregn ancy
18 80
Ġch ip
Ġjurisd iction
d ict
ĠH unt
rol og
Res earch
ĠL en
ĠN ULL
Ġfollow ers
19 02
Ġwe igh
}= -
vere ign
ĠG raph
ĠO wn
}{ !
Ġfunction ality
Ġsummar ize
, +
Ġrest ore
T w
Ġsingular ities
ener ate
Qu ery
Ġembod iments
p ush
ĠT aking
ĠMountain s
Ġg amb
S ty
Ġevol ve
ĠVi enna
Ġunder go
re b
h is
F re
ĠC N
ir s
H istor
Ġb ool
S ON
ĠS id
ak u
c op
Ġtem por
ish a
Ġhero es
ĠMe eting
Ġsent enced
Ġillust ration
ĠP ent
as p
Ġcomplaint s
Ġod ds
}, $
ĠC hern
T ree
Ġmed ieval
Ġdocument ation
Ġrail road
b is
ĠAl ong
S ep
w aukee
Ġact ed
ĠDef ence
Ġsan ctions
ĠSt ri
}) :
ĠPr int
Ġanticip ated
ed ed
Ġinv ariants
^{ *}
ĠT on
eg e
D eb
Ġ\ )
}} )\
sc ribe
cons ist
vol ume
ĠR ico
Ġle ak
Ġdis p
m g
Ġmount ed
ĠSte vens
ĠOper ation
ster dam
Ġth rew
ig roup
ĠCl ay
Ġnon trivial
Ġz ones
Ġrel ates
Ġst roke
hab ilit
D at
o es
Ġin ject
orient ed
ling ton
Ġcompar isons
ĠG O
Ġsuggest ions
H ig
Ġj unction
Ġbreak fast
am med
ĠGre ater
Ġemphas ize
pl ain
ps y
Ġsk ew
ĠCh an
Ġfaith ful
) "
Ġj e
q ed
Ġhom eless
Ġsil ence
Ġtransl ate
ĠW es
T F
Ġindic ation
14 3
Ġconstit ute
Ġp ec
Ġlo ans
ant ics
18 00
ocol ate
Ġanomal ous
ĠN icol
Ġpo ems
f ocus
Ġf ool
Ġcharg ing
Ġcomp ilation
ĠSh aw
ĠH ost
ĠE lementary
ĠCont ent
ĠN an
Ġadv ances
ĠEgypt ian
h um
as is
Ġle ts
Ġs hed
ĠC ox
Ġm arijuana
Ġlegend ary
ĠCh and
uk a
Ġst olen
Ġcol ored
pe red
par ing
ĠS ent
ĠCO VID
{- }
Ġdraw s
Comm and
Ġ )\
Ġpol es
Sm ith
ĠCont ract
Ġautom ated
Ġb rick
Ġexp ans
Ġ ell
Ind ia
T agged
Ġint elligent
Ġdes ert
bra ham
ĠTib et
ĠL if
Ġregular ity
Ġt orn
adv anta
in ar
Ġdef ects
Ġearn ings
ta ur
Ġ\\ \
Î ¹
produ ction
Ġan ger
Ã© t
ĠS r
ĠEx cell
ĠT ol
ï »
Ġvari ational
sen al
ex ec
Ġsh ar
ob a
Ġpack ed
Ġpray er
man ifold
as ia
Ġar rows
Ġrobust ness
| }{\
eg or
ĠL ux
AN T
Ġtarg eting
Ġcyl inder
Ġback ed
rib uted
' }(
iel der
Ġfriend ship
app rop
ĠMe chan
ĠCub a
Ġreason ably
Ġtre ating
R ock
Ġf ingers
mer c
Ġext rapol
l ag
Ġmod est
Ġcomment ary
Ġemer ge
)$ }
ĠHung ary
ob b
Ġmultiplic ity
Ġdig it
Ġconclud es
Ġcont our
g ement
at om
ĠOver all
pen cer
ON T
vel oc
Ġconsequ ently
B G
ĠCoul omb
z b
Ġd ressed
bottom rule
ĠSu ccess
Ġsqu ee
oth s
R oman
h all
15 00
ĠS oph
^{ {\
V A
ĠF at
Ġcon sole
ph abet
Ġafore mentioned
( $\
ĠV oice
Ġdiscuss es
Ġb ab
ĠB io
ĠAlex and
ĠLin ux
Ġdismiss ed
ĠM ol
sin h
if iable
g ap
ĠRog ers
Ġsc rat
ounc ing
E lect
Ġadvoc ate
Ġencourag ing
13 8
Ġgl uon
Mean while
Ġcapt ures
Ġt ent
yl um
m ix
Ġbo olean
Ġrel iability
Ġplan ar
Ġcourt esy
ul in
}} %
Russ ian
F un
ĠM ans
c od
, }
ĠE lection
Ġex empl
Ġcert ificate
p arent
ĠQu arter
D s
k ens
pr ising
ĠL ate
Ġanxi ety
19 03
c z
ber ger
ĠMed iterranean
g ie
ĠE li
Ġaggreg ate
K im
ĠA ra
S ta
ĠP le
ĠB uild
Ġorgan ised
Ġsome body
Ġw ishes
ĠE SP
ed i
ĠAn gl
Ġmathemat ics
Ġp ion
f g
ĠK id
}) ^{-
ĠFig s
Ġexperiment ally
ĠB ot
Ġstri kes
ĠStat istics
Ġrecip ient
f iction
Ġc ache
oc co
Ġreg imes
be it
ĠRich mond
Ġpra ised
al an
Ġdef ending
Ġmod ulation
| {\
ĠB ranch
Ġst ocks
text style
hom ogeneous
Ġremem bered
Ġac ute
A I
ph ysical
Ġme al
Ġ< <
Ġdu o
Ġhop ed
Ġarriv es
Ġneutr inos
Ġn ons
ĠIn stit
Ġimpl ied
S B
ce q
Ġsimpl ify
class es
ĠB asketball
Ġdim in
ĠY u
Ġpick ing
Ġsk etch
ĠF unction
ĠC over
refe rence
Ġweak ness
at ile
it ian
M N
3 000
Ġper pendicular
Ġjoint ly
ĠJ a
ĠR idge
Ġrob ots
bound ary
Ġaccommod ate
at ial
ĠT ask
Ġl ingu
Ġro cks
Ġco in
Ġ[ âĢ¦]
establ ished
air y
b en
Ġres igned
s olution
Ġafter wards
ĠArchitect ure
Ġo kay
Ġsp ell
Ġinfer red
D u
Ġtox ic
Ġphys ician
Ġegg s
ĉ čĊ
Ġassoci ations
ĠR isk
pl er
Dan iel
p q
Ġinf ected
ĠF u
Ġfun eral
ĠApp lication
Ġrelev ance
ĠL ipschitz
Ã ¥
Ġscholar ship
Ġassert ion
r us
cent ral
ĠG rey
ne red
Ġque ue
C ell
Ġcha os
Ġle ver
ac cept
as ury
ĠK ay
ĠSol utions
Ġform ulated
pan ic
Ġvis cosity
ĠS ustain
E Q
ĠN ut
Ġoverwhel ming
ĠT es
13 1
Ġinterpol ation
ĠPet e
D iv
class ical
elect ron
C NN
Bl ue
ĠSquad ron
ĠTh ink
s ig
b rand
at z
ĠFl ight
Ġsh aped
Ġso vereign
add y
ĠF an
ring e
Ġdeploy ment
ĠL ions
ĠSc i
Ã «
Th ose
N AS
U RE
Ġf ron
ĠB og
Ġm amm
ĠT odd
Ġg ras
ĠF aith
ĠCommun ist
raise box
m ot
ĠVal ue
Comp onent
Ġs isters
Ġe uro
B ay
un finished
ĠN intendo
ar re
land o
W il
Ġcontact s
Ġpresc ription
conn ect
Ġg onna
p us
Ġkne e
Ġcyl ind
Id ent
Ġpred ecess
Ġre write
Am ong
Ġcert ified
}\, ,
ĠEnter prise
ĠS EC
[ [
ĠD etails
ĠS ale
Ġprof its
Ġstrong est
l ive
ĠB row
ĠF ram
iss ues
ard i
Ġf ut
Ġconflic ts
Ġhist ogram
Ġphot ometric
Ġarbit rarily
D er
G N
Ġperturb ative
ad ows
ĠInvest ment
ĠT rain
em ption
pl ac
Ġrad ar
Ġtravel ed
L ee
plot point
Ġsc ar
ĠRail road
Ġveter ans
ĠB oe
Ġra ys
ur istic
Olymp ic
algorithm ic
Ġf aint
Ġun e
ĠL arge
ah u
Ġbar riers
ĠG host
Ġsuccess or
Ġlov ely
bran es
}$ ~
ĠG onz
ĠCons ervation
ĠAv ailable
Ġan ime
Ġb ug
Ġbut t
ancell or
Ġsho es
S n
20 5
ĠW ould
ai ro
Ġgl obe
ĠV ik
Ġconstitution al
ĠP icture
ĠMu eller
Ġf iring
Ġun c
2 60
Ġapp endix
Ġcur ious
Ġmur dered
ag h
Ġthere of
Ġgra ce
he alth
Ġap olog
Ġturbul ent
) )$,
rol ogy
C B
v ideo
NR AS
ĠA F
or ic
comm ut
Ġsqu ared
Ġpl ates
Ġsign atures
Ġcounterpart s
N a
f olk
Ġc asc
r n
R F
Con clusions
cor relation
ĠAgric ulture
ĠTe V
2 17
small matrix
ĠHud son
ĠM end
ĠT ournament
Ġmag azines
Ġprint ing
Ġan onymous
Ġl os
ber y
Ġbos ons
ĠSand ers
Ġvol unt
og raphics
gh ai
Ġtra ded
alth ough
\" {
ĠEm ily
ĠCost a
+ }
Ġe V
system s
Ġcal m
ĠQ uality
Ġsc reens
Ġsupp ression
Ġland ed
F iled
Ġport rait
Ġdram atically
Ġt elescope
d n
Ġacknowled ged
Ġspecial ized
Ġcompos itions
ĠJe remy
ĠG A
Ġaut onomous
taint y
r aska
ific ant
Ge ography
Ġsn aps
Ñģ ÑĤ
ĠNash ville
ol ia
Ġj ournals
Ġen compass
f ac
Ġsaf ely
N G
ĠPut in
ur st
Ġconn ects
AT H
Ġsl ower
ra h
ub a
Ġrenormal ization
l it
, [
Ġcomplex es
ĠN P
ï» ¿
Ġj oke
ĠR ugby
Ġdi abetes
ĠTr uth
Ġthrow ing
imens ion
Ġphot ographer
Ġconstruct ing
Ġh orn
d ynamics
Ġf ur
ĠG round
Ġtest imony
ĠA x
ĠR osen
Ġrec ycl
Ġexec ute
ĉĉĉ Ċ
ĠM arl
Ġarchitect ural
Ġver ification
duc ational
ĠMax well
DB LP
Ġcomb ines
Ġnorm s
Ġde ce
S ports
Ġa z
Ġgovern ance
Ġtrem end
in terest
ak ov
da pt
ĠCirc uit
di agonal
ĠÃ ł
ĠForm er
por ated
ĠB eck
Ġh anging
ĠH ousing
ĠMunic ipal
Ġra ises
harm onic
qu is
}} ^\
Ġdon ated
com parison
ic z
Ġlearn s
ĠB egin
re a
Ġcent res
Ġcomp elling
erg y
Ġmot ions
ĠEvery thing
Ġmass less
ĠB achelor
Ġr ice
cos h
Ġgovern ed
u ate
Ñ Į
child ren
Ġir regular
P ower
ĠDou ble
G od
IN T
de velop
Ġcou rage
Ġhot els
Ã© n
Ġ$\ |\
tain s
pol it
under brace
Ġsurv iving
Ġdocument ed
Ġtri ps
ĠCon stituency
D esc
Ġm im
Ġper f
ĠY am
h aus
com fort
ish ops
Ġviol ations
= }
Ġplace ment
d m
ins ky
ged y
sup set
b ank
ens ely
orne ys
ĠN othing
Ġsh ame
ĠC lick
act or
Ġprof ound
Ġbo ats
Ġh ire
Ġp orn
Ġco herence
Ġdo zens
arm s
ar us
Ġforg otten
Ġemploy ers
b at
ĠNich olas
B ibliography
Ġimp ressed
Ġa qu
Ġd ys
Ġbe ams
aus es
ograp hers
ĠCh art
ess ment
ol ves
Ġbi ology
Ġped est
ĠMar x
} '$
}}{ (
Ġpron ounced
ĠVictor ian
ĠD raft
a ft
ups ilon
Ġattend ance
ee per
ho e
ĠQ ual
Ġcross es
15 6
d v
K A
Ġdetermin ant
enn ial
ĠTechn ologies
ĠAd m
ĠAl ban
ĠS ect
Ġred und
ĠB ristol
J on
Ġhom ology
Ġintern ationally
M ot
bt n
Ġepoch s
Ġv ig
Ġrun ner
Ġcritic ized
Ad v
Ġwis dom
s al
Ġcompet itors
il ia
ond o
ĠStan ford
ounc ill
Ġt ired
Ġad mission
b os
ĠT itle
ĠGl asgow
g om
14 9
Ġb ay
ĠS alt
ĠS amsung
Ġe ighth
ĠDef ine
Ġvic inity
vi ol
re ts
Ġcl ause
roll ing
ĠF ix
W E
ĠJ ama
amp ed
ĠCont emporary
id ad
Ġchalleng ed
pot ent
Ġab ol
ĠC er
ĠW ing
Ġbl ues
I ES
os lav
St atus
)$ $
Out put
Ġinc idence
Ġpack ages
Ġin version
Hand ler
m art
ĠSte in
bur st
Ġmist akes
B Y
ĠT i
Ġsuperv ised
aver age
V R
fra g
ĠV el
ĠV ict
Ġp unct
Ġst om
friend ly
Christ ian
Ac adem
Ġhy pers
I Z
Ġspread ing
ver ted
Ġdesign ers
Ġassess ed
Ġal pha
Ġreg ret
et ta
Ġapproach ing
ĠReyn olds
el in
Ġun changed
ox ide
r ors
19 2
ĠM umbai
asc ript
g iving
Ġcomp iled
Ġamb ient
ĠTh an
ĠK ur
ĠBet ter
ie v
ĠY a
sat z
Ġon set
20 2
ĠR ather
Ġv ort
RE F
P os
Ġblock ed
b v
ĠColomb ia
Ġburn ed
ĠY uk
opt im
I ll
pt ical
ĠB eth
Ġpar a
M ary
Ġterror ism
set t
Ġconf ront
Ġst rand
are a
Ġfood s
Ġle verage
fit ting
$ ^\
ĠCo ach
Ex ec
Ġconserv ed
ĠJeff erson
V ill
Ġbe ings
Ġtour ist
ch anging
H ave
i ov
clud ing
Ġspect acular
Ġf ears
Re port
ast ing
Ġm apped
Ġto y
N EW
y outube
Ġc argo
C amp
ĠP os
ĠF ollow
ĠTig ers
ĠD anny
Ġsc iences
Ġless on
c ott
Ġbot tle
ĠH az
Ġaff air
Ġown s
^* _{
ĠN athan
he imer
... ]
Ġg ly
Ã ª
Ġin ad
ĠD ir
ĠW u
14 7
min ster
ĠSh ar
Ġpr ide
ser ver
n atural
O bs
ut ory
Ġout line
uch i
h art
ĠS ox
ĠĠĠĠĠĠĠĠ ĠĠĠĠĊ
)} }\
M aster
l ooking
rell a
Ġrac ist
Ġpost ing
ĠCol lect
ĠJ ob
ced es
par ams
g ue
L ead
l ceil
cur ve
Ġcab inet
ĠT yler
Ġl ib
ĠHoll and
Ġman ages
nav bar
' ).
Ġcon vey
Ġsmart phone
Ġcon fined
Ġal ert
He ad
ĠGl ass
trans form
ĠPlan ck
R ail
ĠC ant
Ġb esides
Ġsurprising ly
Le ave
ĠChel sea
Ġwealth y
Ġconsp iracy
ĠEm ma
ĠA viation
ĠĠĠĠ ĠĠĊ
Ġconscious ness
^* ,
Ġprot otype
Ġqual ify
), \\
Ġmaxim ize
ĠZ hang
L oad
Ġvi able
Ġcook ing
00 3
Ġall iance
Ġ+ =
Ġbel t
Ġf ighter
Ġhon our
ĠI F
ĠC urt
ett ings
ĠB ren
Ġemail s
ĠPract ice
Ġ }(
ĠK ill
ĠW rest
Ġtechn ological
}} }}
s v
Ġt orsion
ĠH alf
bour g
Ġsu ite
Ġhand ful
Ġal tered
M ilitary
Ġshall ow
B er
Ġl iability
5 000
rosc opy
Ġco pper
mod al
T ransport
ĠB orel
P erson
ĠH T
Ġgu ided
AR Y
ĠBapt ist
Ġdel ays
Ġj er
g rim
Ġnerv ous
Ä «
Ġattack ing
ess a
ut er
ĠPlan et
Ġcomp ass
Ġs lic
ĠM N
Ġco arse
Ġexecut ives
ĠSong s
}) +
ĠHar per
ĠEag les
Ġsh out
ON E
iz ard
Ġp and
gener ated
ĠG OP
ĠA round
Ġdomin ate
am y
Des ign
Ġprogram mes
Ġproxim ity
qu er
Ġev ac
Ġspan ning
18 60
Ġin jective
ĠPro test
ĠProgram me
ĠDise ase
Mult i
c u
cast ing
f ix
p her
m atch
ĠN L
ke ys
ris k
Ġstat istically
ĠInf antry
ĠM ut
L ook
st orm
ST R
el astic
Ġquant ization
con e
Ġin clusive
Ġpresc ribed
ĠB our
ĠRoman ia
ĠV lad
ĠComple x
rapeut ic
Ġarg ues
ĠGh ana
d g
s ame
ph al
OR D
ĠAssum ption
Ġ" ""
Ġl ane
- ,
anc ers
Ġp ink
Ġd ynasty
L em
R NA
ĠDe al
Ġa xi
Ġco at
Ġspec ification
Ġmetall ic
Ġre vel
Ġmem orial
Ġexcit ations
ĠS ure
az i
Ġdiv isor
Ġtransform s
Ġrep orters
Ġisol ation
associ ated
Ġdiv orce
Ġcomplement ary
oc c
T aking
Ġpredict s
ĠExper ience
ĠAdvent ure
ĠLiber ty
Ġsl ave
Ġlif ted
Ġcollabor ative
ys on
Ġqu bits
Ġdes irable
e V
ter min
Ġad min
~~ ~
ĠAir lines
Ġmedal ists
Ġsh ield
ĠD oll
ĠPhill ips
ĠI celand
Ġconvolution al
sc ience
geq slant
ili ation
M NRAS
Ġpredict ive
plement ation
Ġeditor ial
ĠFreder ick
18 5
at ers
Ġad verse
ĠCM B
ort on
L Y
par amet
Ġjournal ism
Ġabsor bed
f eld
Ġair line
G aussian
Ġcat alogue
ĠLl oyd
ĠC atherine
Com ment
Ġelect oral
Ġpat ches
RE E
ĠO P
ĠD ennis
ĠM B
Ġre fe
] :
k now
Ġauthor ized
ĠSum mit
Ġed it
Sh ow
um s
Ġke en
ĠC riminal
Ġcl arity
Ġanaly zing
Ġc rop
O G
Ġexpl ores
g ender
ĠM aking
A ud
Ġemb rac
ĠMil an
Y eah
] }$
)$ )
Ġcou p
Me V
Ġabund ances
}{ -
Ġrep ublic
ĠFran ces
ĠWood s
Ġgra phe
iat ric
Ġspokes man
Ġas h
Ġch ron
J ose
T s
Ġarchitect ures
ich let
ĠE ld
Ġwe aken
ĠSoc cer
ens on
Ġgra ins
Ġmagn itudes
Ġinn ocent
Ġsc ra
ivers al
Ġfl ed
O ptions
18 70
ĠYork shire
n ut
Ġqual ifying
M ike
Ġrecogn ised
Ġsal ary
Ġanten na
' ),
em e
ult an
We ek
ĠSer ge
ch air
ĠVis ual
az y
Ġdistinct ive
ĠTo o
ambig uation
Discuss ion
ĠF err
Wh ich
Ġsc rew
Ġthermod ynamic
ĠSp ider
ac hers
à¥ ĩ
ty p
Ġdro pping
Ġgirl friend
ĠPier re
Ġlimit ation
V s
ĠI da
Ġbad ly
L arge
Ġres erves
ĠY ellow
Ġh int
Ġsur f
inc or
N etwork
Ġt idal
13 9
Book s
ag ain
28 0
Ġcomm ands
ĠÐ ¿
ĠU TC
Ġsurn ame
ĠI van
eg u
ĠF ashion
od s
ov ic
ĠLie utenant
Ġrem ind
Ġhe x
ĠUpd ated
ern els
Ġcivil ian
Ðµ Ð½
i pt
ut able
] _{\
( (\
ĠBuff alo
ba ij
Ġd ining
ĠMo z
Ġfactor ization
ĠL ik
ator ies
Ġarriv ing
3 30
Ġtrav elling
ĠSymph ony
K M
Ġy ard
Ġfl our
ĠMus ical
th lete
Ġflo ating
hook rightarrow
r Ã©
Ġpun ishment
Ġprefe rences
period ic
Ġcomple teness
En ter
Ġd ump
Ġre fined
rosso ver
ust ers
ĠB omb
n l
Ã¨ re
al ong
Ġoptim ize
Ġtrib e
G W
ĠH P
20 8
math rel
Ġf t
ĠIm port
Ġenjoy ing
s end
ĠR ivers
ĠSh op
import ant
J ud
im edia
H as
Ġexhib ited
) _\
form ula
iz a
Ġl on
ĠE mm
2 15
lic t
ĠPar ish
L ay
ĠD iamond
ah l
ĠB un
ff icking
Ø§ Ø
Ġcust ody
ĠV ision
as ures
Inst ance
}\, .
Ġworld s
Ġnut rition
ĠP D
fin als
ĠV ic
Ġstreng then
cess ion
Ġsoci eties
ah an
ĠAm sterdam
.. ...
m r
$ /
ĠCamp us
M ENT
IT H
ĠD rag
Ġcov ariant
Rec ord
Ġbre ach
f ollowing
ĠFig ures
ad apt
24 5
zer baij
ĠT u
Ġsk i
R N
Ġcart oon
ivid ually
z h
ĠM ann
Ġfix ing
Ġdis sol
ot yp
Ġb racket
Ġrelax ed
Ġavoid ed
Ġpull ing
ĠY e
Tele vision
Ġload ing
Ġplay offs
ĠM ario
Ġun ions
Cor ollary
ĠBrig ade
an chor
Ġl un
14 6
Ġtoler ance
ĠAssoci ated
Ġad missible
ĠReg ist
equ ilibrium
ev olution
Ġbund les
a ired
Ġsound track
tagon ist
Ġprevent ing
N one
)- (
r ceil
Ġp ension
Ġkid n
uss els
m iddle
O O
ĠB ath
Ġcomp ly
Ġdel ivers
ĠAust rian
Ġfarm ing
Ġs orts
and roid
ĠE D
c b
Ġline up
Ġdec oder
Ġtun ed
Ġinstitution al
ĠE L
Ġestim ating
ĠN ancy
Ġmaintain s
Ġide als
g art
Ġpsych ology
Ġhe aven
T itle
I EEE
? âĢĻ
Ġann oy
ĠCat hedral
ĠD y
fefe fe
_{ |
Ġprov incial
ĠEth iop
14 2
ĠRod rig
Ġdeal t
18 99
Ġdef ic
Ġpass ive
Direct or
ĠNY C
Ġredsh ifts
ĠPark s
ĠLuc as
represent ation
ick et
cor r
ĠTam il
ĠEm ploy
5 50
ÑĢ Ð°
yl an
Ġguitar ist
m el
ach t
Ġcancell ed
Ġmin isters
Ġsp ite
)$ ;
Japan ese
L ater
ĠC ricket
ra ment
Cre ate
ĠNetwork s
Ġsim ulate
Ġhere in
Def ine
Ġp ocket
ĠS eg
ĠP O
Ġpat ri
ĠForm ula
r v
Ġmed i
us hes
cat en
ĠM ail
Ġa ster
Ġclass room
ipp er
ĠB ear
ĠRe ed
G re
ĠM ix
impl ies
ĠNep al
Ġst iff
d al
Ġterrit ories
Ġwitness es
14 8
Ġjust ify
osoph ical
ta wa
Ġaltern atives
Ġign or
Ġcomm od
Ar g
b ast
ast ically
Ġemb arr
v ity
ĠAssoci ate
Char les
ĠHug hes
Ġbank rupt
Ġdif fe
ress ions
ex cept
)) ^
\, $
ĠK ol
Ġ Ä
f ollow
ĠS outheast
ĠR T
Ġass ists
Ġfest ivals
V C
am o
ĠArt ists
ĠKe ep
Ġr iders
ĠLet ter
Ġrac ism
d dot
ot er
on ian
ĠD oc
r k
Ġjust ified
Ġstrugg les
spect rum
Ġpair wise
Ġ Ø§ÙĦ
Ġgraphe ne
Ġadv ised
AS H
x ml
C AR
Ġdis ability
ĠPrad esh
V ari
weight ed
Ġt agged
ist le
Ġheart s
A U
Ġfra ctions
m ac
eng ine
AM P
Ġf ictional
lay out
F ar
ĠTre k
m ir
Ġinfin itely
Cont rol
ĠCommunic ation
J eff
Ġdes erve
ich i
cont rolled
ĠPer u
Ġdis closure
ent i
O fficial
Ġw it
om o
pre ced
F ootball
Ġoscill ation
pred ict
Ġmod er
Ġtransp arency
H ard
ogene ity
Ġcur riculum
W al
sp irit
Ġelev ated
Pop ulated
$ ~\
ĠE ye
M ur
ym p
Ġfeed ing
}} ;
ĠWe yl
m icro
ĠE ug
ĠAr c
Ġif f
Ġsens ing
.\ ]
ĠT ag
pl ots
Ġcum ulative
ĠCh i
Ġuniqu eness
âĢ ²
IN D
ĠC oun
Ġr ic
ĠInt el
Ġwork shops
: (
d ark
f on
Ġc inem
ĠAlber ta
w en
s outh
Ġ| ___
les h
ĠSt rong
ĠRe form
dimens ion
umb ent
gom ery
ĠGl en
Ġback ward
ĠF ernand
Ġrecept or
Ġn aval
ĠRepresent ative
Ġst ays
uck land
pro gram
Ġdesign ing
Pol ice
ĠD elta
Ġn ortheast
= $
Ġout s
ĠĠĠĠĠĠĠĠĠĠĠĠĠĠĠĠ ĠĠĠĠĠĠĠĠ
zy me
flu ence
18 50
Ġfl oat
ĠK on
Ġfin als
ĠĠĠĠĠĠĠĠĠĠĠĠĠĠĠĠ ĠĠĠĠĠĠ
ĠAl t
Ġdemonst ration
Ä ĥ
Ġ ).
P ack
om ething
g re
ess el
ĠLear n
ĠLeon ard
Ġminim izing
Ġd elta
ĠGener ation
Ġexpect s
Ġa pert
no align
ĠJul ia
_{\ {
ee k
ĠSo on
ĠIniti ative
ĠSt ream
ĠBut ler
product ive
Ġpric ing
Ġf ier
cer pt
ĠMet al
ĠOak land
ĠLegisl ative
ĠS pencer
Ġmac ro
gl ass
Ġswit ched
veloc ity
n al
Ġdest ro
ring ton
Ġtradition ally
Ġinf ections
P ut
Ġcat aly
ĠM T
Ġdead ly
Ġtour ists
bo ys
sc ious
ĠH ob
N F
Ġevol ving
18 98
bec ca
)} ]
Ġb ridges
ĠP T
Ġaccording ly
ess ing
Ġdimension less
ĠT X
Ġcare ers
Ġsubgroup s
ut ton
ĠD ol
Ġrec alled
ĠWell s
ĠAthlet ic
Ġt ong
ĠLe o
Ġannih ilation
ĠH ab
ur red
Ġsurviv ors
pro j
w ould
ĠJ ar
Ġper ipher
Ġwavel engths
oll o
Ġl in
Ġparad igm
t v
Ġto b
ĠAnt ar
Ġdiagn osed
H o
Ġmorph isms
ĠK ind
off set
ynam ical
Ġess ence
Ġpract ically
Ġed itors
ĠBat man
ĠBat talion
ĠF oster
Ġen force
Ġdist ortion
6 50
k ed
Ġbary on
ĠLith uan
Ñ ĩ
os hi
Ġcred ited
ass er
ĠSud an
as ive
ĠR ams
ĠProduct s
Ġro ok
I ts
ĠC I
L ittle
ĠR ural
18 97
Ġcous in
Ġdiscipl ine
ve ction
ĠWild life
b ishop
ĠTh under
Ġrock et
IG HT
bal ance
Ġe ager
Ġsub mission
ĠK in
Ġyoung est
Ġport s
hor izon
Ġresearc her
B ob
Ġconcer ts
a qu
p rom
ĠSt re
Ġfilm ed
ĠK itt
Ġsec ular
oc o
Ġam endment
ĠÃ ī
Ġdead line
ĠAst ron
Ġmod ulo
ĠT D
we re
Ġdon ations
Ġpost er
-- \
in ality
Ġt ears
os ures
Ġshel ter
w ik
Ġnation wide
S to
by e
×Ļ ×
Ġs ne
Ham ilton
Ġal ike
O s
arch y
R P
ĠC IA
ut ations
ĠH ubble
Ġto ll
Ġf ame
F E
em ia
ĠR alph
Ġloc ality
W ed
Ġclean ing
it ic
Ġmar ry
ĠC ad
ĠR A
Ġp ig
16 8
Col umn
Ġhierarch ical
.\ ,\
E nergy
Ġart work
Î µ
Ġn est
ĠMed ic
* }\
Ġin vertible
15 2
Ġep it
Ġanalog y
ĠAd ditional
Ġt anks
Ġfro zen
ĠAdvis ory
ĠSu z
Ġoption al
Ġy eah
ag i
Ġreform s
Sport speople
A h
Ġcreat ures
b ane
ĠCond ition
ĠBob by
Ġout flow
Ġle pton
ĠA braham
Ġanal ogue
ĠDe ut
ĠHel en
inst ance
Ġarch ive
Ġimag ination
comp are
ag ar
H uman
trans ition
Ġcorpor ations
ĠBenn ett
Ġob ey
Ġkn ot
Ġch icken
Ġmag ical
Ġpassion ate
Ġf a
assum ption
W ang
ha o
the ore
ĠFour th
ĠU E
n ell
H ey
Ġtext ure
Ġinvest ed
ĠComp etition
mark et
Ġphil osop
c ot
14 1
Ġele ven
}: \
H ouse
Can ada
bas is
a very
ĠRef s
ĠColumb us
Ġgra ve
Ġmet als
Ġdissip ation
am ation
Ġsup erg
Ġwhe els
Ġfilter ing
ĠK aren
man uel
T oken
or ption
Sim ilar
k el
Ġportray ed
Ġachieve ments
cipl inary
Ġion ization
ĠA part
Ġincre ment
Ġbound ing
vi o
cycl opedia
C hen
ac i
Ġpa ren
Ġtend ency
ĠPan el
app endix
ĠC incinnati
ĠMont ana
the o
Ġchap ters
Ġc ree
Ġinteg rable
W ashington
ĠR oche
}\ |_{
ĠProgram s
ĠArab ic
do es
Ġbul let
n amed
v et
Ġchar ter
ĠPhil osophy
B on
Ġfoss il
ĠIn side
ĠLu is
w ig
ĠB ir
U LT
Ġren owned
And rew
Ġbe ars
ĠD od
... ,
Ġreg ards
ĠA U
ry ption
cl oud
e igen
ithm etic
Ġaccess ed
Ġcro ps
q l
Ġre conc
ac a
Ġrem n
fin ing
Ġlast ed
Ġmes on
ĠG Hz
ĠMichel le
ĠNeb raska
Ġe arning
ĠL ud
Ġcomm emor
T ab
Ġl oving
Ġpuls es
Ġtriang ular
w y
ĠM W
St ill
ĠD A
m usic
ĠCl iff
Ġavoid ing
s ys
Ġwonder ing
- )
ĠL amb
ĠWork ers
Ġeth ics
V ersion
Ġpl aus
âĢ¦ âĢĿ
Ġcontext s
Ġm eth
ĠP odcast
Ġnorth west
al gebras
Ġw ard
Def ault
B ra
Ġhe aling
m und
ĠVis it
N ull
ĠRes ource
Ġbu ilds
arc sec
Phys Rev
Ġpec uli
AT A
Ġident ifies
. ][]{
ĠDe b
Ġport ions
Ġtravel s
Ġlab elled
Ġplay off
18 95
ĠSher iff
ĠFI FA
ĠLeban on
ĠN ATO
com ed
old ing
Ġtrans ient
Ġdr inks
c ation
ĠJul ian
bro ok
Ġbel oved
Ġmake up
ĠInt roduction
ore n
á »
Ġreson ant
f erm
ine es
ĠWall ace
Ġw ore
In terest
New ton
HT ML
ĠEr ror
oca ust
Ġcompris ed
G overnment
Ġk pc
av ailable
Ġaccept ing
ĠCa uchy
Polit ical
Ġcount ed
Ġp iv
ĉĉĉĉ ĉĉĉ
gener ation
ĠEff ect
Ï ģ
Ġsw ord
in sp
J un
Ġsecur ities
Ġrele asing
ĠOther s
ĠJess ica
f ounder
Ġeth ical
am pton
man y
}) }{\
B undle
Ġcancell ation
Ġch lor
ĠP or
ixt ures
ĠL E
perform ance
th ird
App endix
Ġor chestra
re x
ent ropy
fe ature
Ġcirc uits
st ead
ION S
Equ ation
Mart in
ĠSt op
M ill
Ġr h
ĠX box
Ġpe ers
The ir
ĠRe ports
Ġt riv
@{ }}
ĠN J
ĠPlay ers
Ġpath way
Ġanth rop
ĠPar ad
Ġprop ri
Work s
ĠHung arian
ĠHit ler
= [
P ac
pl ates
ĠNe uro
Ġsubsc ription
Ġpart itions
Ġwor n
T ask
Ġgard ens
plac ian
g ary
]{ $
ĠAn imal
Ġgrand father
Inst ead
Ġassist ed
L ag
ro e
Ġany body
Ġfurn iture
Ġv iral
Ġsup erm
ĠVerm ont
tain er
With out
15 7
ĠGu inea
Ġacknowled ges
15 8
Ġcreat ivity
ig ue
ĠEvery one
Ġsuperv ision
Ġm akers
iz za
Ġanisot ropy
ĠA LL
cal ing
ĠTreat ment
R ow
Ġpro xy
}= -\
Ġbe aring
ley ball
ĠRec ently
Ġdiagn ostic
B al
Ġcat tle
ĠZ ion
ĠFle et
Not able
M id
Ġsuccess ive
and o
cl ick
20 4
we i
Ġmon ster
Ġup load
M ah
ĠP ul
@ {\
sc apes
Dep artment
ĠB ach
B ern
C ong
R en
m us
ĠR andom
Ġgeneral ize
Ġspat ially
15 3
Ġviol in
Ġfrag ments
Ġk ernels
m ons
Ġad i
ĠLem mon
jo in
f ilm
Ġgain ing
Ġemp ower
ĠR ange
Ġactiv ated
ĠT rad
ĠA bs
ov an
ĠRe ve
Ġnot ions
Ġdepend ency
Ġh ull
Ġl ag
}), \
ĠSt r
ĠQu estion
flu id
ĠN uclear
Ġloc omot
Ġexpect ing
ĠObserv atory
Â ½
ER R
Ġsl ip
Ġle pt
Ġsu ited
Ġsh ifting
in aries
Ġsur g
ĠG amb
ĠCy cl
ĠM ig
., ][]{
ĠDirect ors
^+ _
v or
und ay
Ġsent iment
Ġrespons ibilities
Ġcont raction
ĠSh ip
ĠB urg
ĠVal ent
Ġsustain ability
Ġcar riers
ĠNov a
ĠSD SS
'' $
Ġhistor ically
1 200
Ġc ra
u ating
ĠGr ass
Ġb icy
Ġirre levant
n orth
Ġfl ip
Ġstat ue
ĠGard ens
ops is
ij i
Ġint im
v v
ĠPalest ine
ĠIn dependence
ĠSh adow
Ġb ags
V ir
sa fe
ĠP av
el o
Fe ature
Ġde lete
Ġdevelop s
CO L
Ġmat ure
p it
ĠRes taur
E mail
ĠN y
Do es
f b
\% ,
bb ed
S V
ab ases
Ġreveal ing
Ġpra ise
at able
)\ |_{
Ġdiscrep ancy
ĠU RL
ast ed
al most
Ġdisapp eared
ĠA er
In s
Ġball ot
Ġtob acco
ĠM illion
le igh
Ġsubsid iary
o j
b ird
l ined
ad joint
Ġperm its
ĠHeb rew
preced ented
par a
Ġbus es
Ġstrugg led
Jo in
Ġind ividually
L U
18 96
ĠDel aware
ĠM ong
C G
i encing
Ġwas h
23 5
Ġvis ibility
ĠS z
Ġf ires
Form at
ĠR NA
Ġten ure
Ġpropag anda
ĠLi u
red u
16 6
Ġactress es
36 5
Ġf ru
ĠAn cient
ÃŃ n
Ġatt ractions
le en
Ġtrib es
Ġlack ing
ĠBl ake
Rad io
Ġ& -
Ġemploy ing
Ġoblig ations
W O
ĠC inema
Ġ( ;
ĠR uth
group s
Ġpoll s
Ġtrig gered
g ins
W H
ĠD aw
Ġsup rem
ĠSur v
J ournal
M il
Cent ral
r ational
ĠB rain
bre ve
Ġur ged
Ġd rain
Ġkick ed
Ġpolar ized
Ġperspect ives
Ġcon greg
Ġwra pped
Cat egory
rec ord
an cer
Ġdisag ree
ĠW ag
tra ce
Ġacc us
ĠS ax
Ġpass word
g ic
Ġb ump
Ġde form
Ġsimultane ous
O UR
Ġsacr ifice
ĠM ul
ĠColon el
th us
Ġfib ers
| $.
ĠAd S
he ll
ĠF DA
Ġdec oding
ĠConf ed
Ġsatisf action
I AL
er ie
B ound
ĠT ren
ark er
Ġbreak down
Ġearthqu ake
ke ep
Ġworth y
Ġb acter
15 1
ĠRel igion
Ġin complete
Ġout break
×ķ ×
f c
k an
ĠBi ology
Ġiter ative
Ġemp ire
Ġs ink
ĠB ent
Ġwitness ed
oc on
av ier
rack ets
Ġun ified
99 9
D iff
) )}
Y oung
Ġc f
, $$
ĠK ap
Ġconsult ant
ĠNew castle
| }\
i q
Pub Med
ract ing
ĠS old
p ublished
ow ards
Ġconf ron
20 3
ĠN ak
2 12
M AN
ĠEmer gency
Ġcontinu ation
ĠL ex
ĠFellow ship
{- .
role um
* {\
ĠGro ve
T ri
ĠT yp
15 4
Ġconst rain
O l
Ġs ew
em bed
Ġpref ix
P rior
Ġmin us
st ad
ĠW R
Ġsh irt
ential s
g overnment
ir atory
Sing le
ĠE DT
ub ert
Ġdis advanta
habilit ation
Ġinter faces
h im
st ars
ĠStand ards
Ġconstitu ency
ĠL it
ĠFlore nce
hel p
Ġsem icon
Ġcomprom ise
at ra
im ates
Ġwork place
Ġare na
Ġsevere ly
ĠSc ar
Ġtriang les
ĠPot ter
symmet ry
ential ly
tz mann
r ar
W alk
ĠH i
Ġnow here
ach i
Al tern
}} -\
ĠR af
US Y
Ex pl
Ġpack ets
aj a
Rec ently
Ġemit ted
Ġspect roscopic
L ow
ĠN urs
Ġparticip ant
rab ility
Supp ort
Ġfif ty
Ġp ian
ĠBrook s
ĠCour se
Ġsk illed
ĠWe ather
in ery
Com mon
Ġelder ly
N orm
Ġun success
Ġdiam ond
ĠN otes
Ġmuseum s
ĠV as
ĠReturn s
Ġre ass
Ġemer gence
Ġfail ures
Ġsecre ts
W ater
Ġb ust
em ail
Ġmanufact ured
ĠSpe aker
Ġelev ation
b x
It alian
ĠW ire
Ġant is
Through out
Ġlaunch ing
Ġi OS
Ġw ound
Ġam en
Ġconsult ation
16 7
Ġco ins
sch ild
K P
ov ak
Ġconfirm s
T own
Ġh iding
Ġelectron ics
ĠJ ake
Ġanaly st
Ġall ocated
\ @
ĠW ant
Ġaddition ally
sc ore
Ġreferen dum
Ġm ir
Rec ent
Ġcor n
T ex
ma xim
Ġcru ise
ĠJos Ã©
v ation
ĠDisc overy
ĠAll ah
Ġcont ours
ĠC B
Ġphot ometry
M ake
ah ler
ĠShan ghai
Ste ve
Ġnot ations
ĠS ED
15 9
Ġf ighters
Ġbeat en
M u
ĠF o
Ġtrust ed
en h
ĠS ierra
L AS
ĠK er
Ġcom merc
g auge
Ġsub script
{ %
Ġde ple
aut o
Ġhar sh
Ġcont amination
Ġreson ances
Ġreflect ing
ĠM ills
rit ies
Ġshock ed
Ġpros per
Ġh ills
dec ay
ĠEx amples
Ġelabor ate
Ġb ell
ĠAthe ns
ÂĢÂ Ļ
Ġpat rol
ĠAr ctic
Ġg rat
20 6
ĠAud io
ĠToy ota
Ġcelebr ity
ĠUn til
mat ory
Ġthr iller
Ġquant ify
ĠS creen
bas ic
dot ted
L ab
Ã Ĺ
ĠMil waukee
Ġpeace ful
ĠOr lando
Sc ience
Ġfac ial
y y
cl ock
Ġax es
}$ \\
Ġr ush
Ġmiss ile
Art icle
ĠK ash
fl ows
ĠEd die
Ġsymbol ic
ĠBrand on
Ġartifact s
Ġcor poration
Ġins u
[ ]{
ĠSer bia
ĠEv olution
ĠCom mercial
res olved
Ġconcept ual
Ġprevent ed
ĠS ym
Ġ>> >
Ġpro gression
Ġless er
Ġinterview ed
ins ki
Ġconduct ivity
Ġhon ored
Ġleg ally
tt es
Ġstar red
Ġdemand ed
Ġpreval ence
k u
Ġsub mar
Ġadminist ered
ĠComple te
ĠS ey
Ġb en
Ġamb itious
H i
Ġconfigure d
Ġg ast
ĠM iles
pan el
Ġroll ed
ela ide
Ġdisappoint ed
ĠOtt oman
sc ription
ĠG ent
Ġbusiness man
ĠG B
eg el
ta ges
Ġneighborhood s
Ġfin ancing
par se
Ġam ateur
Ġdamp ing
ĠL oc
). \
Ġ( ,
ĠWar riors
Face book
Ġtremend ous
ĠP erm
contin uous
Ġbi ased
G rand
ar u
Ġtact ics
xt on
Ġentertain ing
n ov
if fin
ox y
Ġcelebr ating
is ch
Ġp ale
ĠCirc le
Ġprest igious
P AR
n othing
Ġdr illing
dis ambiguation
}: =\
ĠA ctor
Ġcomplic ations
ĠS ob
ĠMarc us
Ġins erted
Ġm ud
b h
ĠAcadem ic
ĠJam ie
H ot
ĠH aus
mult ip
ul atory
ther mal
Ġpres ervation
Ġexp end
ĠB ert
ĠB ris
ĠHe avy
ĠNorth west
te enth
Ġca ution
ĠN SW
ph or
L ight
st own
ĠK yle
c as
ĠG ive
L ength
t elling
Ġnon profit
Ġprob abilistic
Per form
ĠG rowth
re ason
ĠR ice
Ġpre view
UR L
ĠSw ift
Ġthreat ening
IT E
Cont roller
ĠT ell
ĠT error
Ġthe rap
Ġtempor arily
um i
00 4
magn etic
ĠV eh
Ġfl ags
it us
R o
W rite
Ġperform ers
Ġshe ep
Ġ[ -
ol der
ĠL oss
Ġsu ck
Ġfl aw
ĠInvest ig
un ique
b ted
approp riate
ĠTr inity
Ed itor
cat egor
on ce
Ġcle ver
h orn
Ġacceler ated
ĠK un
b age
Ġchar m
Ġmet abol
in j
Se ason
ĠGra de
ĠN H
amp ire
ĠU C
Ġdiff use
Sty le
Ġe ars
Ġhope fully
ĠCh oice
Ġarg uing
vel t
ĠRiemann ian
Ġun ited
US E
Ġas ymmetric
ĠCh ang
IS E
ab c
Ġhon ors
Ġcompos ers
ĠSt uart
Ġshow er
âĨ ĳ
ĠArn old
Ġf u
p se
ĠRe id
Ġsp acing
ĠK umar
Ġexp edition
comp onents
b ay
ĠPal m
ĠBar ack
C ost
}{ .
Ġprior i
G all
Ġbre w
ĠHe aven
ĠPl atform
ĠY OU
Ġh ug
part icular
Ġdown stream
ĠAr ray
ist ani
Ġqu it
Ġmanip ulation
Ġaccommod ation
ĠM az
Ġse vent
Ġunf ortunately
Ġal phabet
18 65
olog ic
ĠH ack
23 2
Ġpredomin antly
Ġen jo
Ġopp osing
ĠO bl
Ġwel comed
Ġf are
ĠMod els
ĠCL ASS
Ġc her
Ġmother s
Ġcryst all
b ands
condition s
P ay
Ġpredict ing
b order
ĠClark e
97 8
bor o
mathb in
ĠM ull
Ġt il
Ġtwe ets
Ġs outheast
Ð¾Ð ²
is he
ĠS qu
requ ire
W C
n p
ĠB anks
Ġemb race
with in
Ġfif teen
Ġsub stitution
Ġb ishop
ĠIn cre
Ġcur ved
is ors
ĠR ah
"=> "
writ ers
Equ al
Ġtem pt
Ġn ominations
b g
Ġdomin ates
ĠEconom y
Ġinher ited
charg ed
g it
ex istence
ĠTh or
Ġa u
in line
Ġblock ing
ced ure
Ġsac red
ĠLaw s
vari able
other wise
In formation
Ġfil ing
Ad ditional
Ġs ulf
Ġw are
ĠInd igenous
i ants
im uth
Ġoccas ional
j son
ĠTh r
Ġle ather
0 10
n ucle
ĠO ri
Cl ub
UT C
Ġ$ ^
ag ent
ce ive
Ġden y
Ġz eros
^+ (
Ġhead er
' }{
Ġmagnet ization
Ġex otic
ub le
Ġj umps
gg ing
pp e
Ġres il
il o
m ans
ibl ical
Ġresp ected
ĠPer iod
Ġn erve
Ġtor que
| ,
Ġconv ince
18 92
ĠSer ver
ĠB enef
IS S
uls ive
ĠT as
ĠF est
Ġen act
jav ascript
ĠS weet
ĠI SO
ĠB ears
pro ved
Ġhapp iness
Ġsuggest ion
ou x
ĠCap itol
Par ameter
ĠIss ues
16 3
rav ity
ĠA uckland
Ġproduct ivity
ĠB order
Ġam end
ĠB ald
Ġdark ness
18 85
n ational
Ġparliament ary
Ġhistor ians
v b
!! !!
ĠSch r
Ġo mit
ĠG and
Ġpropag ator
Ġplanet ary
Ġvac ation
ĠThrough out
Ġcle ared
v ary
in z
al p
ĠRec ent
% ),
Ġo mitted
ĠChem ical
Ġstake holders
sh ine
Ġdam ages
itro gen
Ġle ase
ĠG C
Ġsimilar ities
ol er
Pro cess
Ġtra gedy
ma re
Ġlink ing
A BC
Ġax ial
May be
E conom
Un fortunately
ĠHar bor
th ood
Ġrenew able
ĠCre ate
Ġet ern
Ġrandom ized
ĠDou g
Ġthorough ly
ob ic
ke V
ct uary
Rem ark
ĠS ah
ari us
ĠR oth
Ġstat istic
Ġlater al
Ġcreat or
ĠC AR
Ġpurs uit
Ġwrest ling
Ġpl ur
ĠH erald
OC K
Ġg ifts
Ġre he
ĠC raw
ĠD S
Ġnews letter
ĠF ocus
Ġrem inded
Ġlic ence
Ġvirt ue
it ially
ĠR aw
22 4
ĠMan ufact
ĠM ob
ug oslav
ĠH arm
oot s
P a
ĠV ar
pr us
ĠCompan ies
Ġd ign
Ġhypothes es
ĠA A
en es
ob tained
Sm all
Ġincorpor ating
in vest
w ear
et ically
ĠBuddh ist
Ab stract
Ġreal m
as ta
ĠE mail
Ġpsy chiat
c ity
ĠDub ai
Ġmin eral
Ġindic ators
Ġb ail
ĠT E
v d
Ġreven ues
ĠCor porate
ĠESP N
ĠP rison
18 93
ĠJ ets
Ġcha otic
Ġa viation
ass o
yn man
Ġ\ %
Rep ublic
Ġpo ets
Ġcert ification
Ġathlet ic
Ġgal actic
Ġn inth
ĠI BM
ĠL ov
16 9
B uffer
Ġval uation
Ġret reat
ĠS FR
Ġs our
Ġeth n
Ġprosp ects
Ġpers istent
Ġdon ation
Ġharm on
T ypes
Ġdec oupl
E ll
Ġd ash
Ġh orm
ĠS ullivan
ĠColl abor
Fact ory
Ġtrans cript
Ġbl end
et erm
Ġcon ductor
integ ral
ĠResp onse
k ip
ĠProf ile
Ġover night
ail ure
Ġstom ach
Att ribute
Ġcor ollary
ĠCon sumer
Ġexper iencing
ĠL S
! }
Ġsouth west
I ran
Ġviol ated
op ath
ia z
Get ty
}) \\
Ġpar as
ĠA id
Ġdon or
Ġint imate
ĠFl ash
Ġjud icial
Ġpur ple
i ological
an ch
Ġmemor able
F G
s ided
Ġpremie red
Ġp ist
per cent
ĠG oth
t rain
Ġaugment ed
am on
Ġmark ers
ĠBeng al
Ġdef icit
is ers
ĠN R
anc el
reg ation
Ġflood ing
Ġdifferent iable
Ġutil izing
S ir
am as
Ġsat uration
sup ers
ĠHe at
ĠAg ent
van ishing
Ġren dered
ĠT at
Ġref resh
M AP
Ġh unt
Ġlaun ches
Ġsh or
Ġorig inated
F rance
Ġdet ecting
Ġqual ities
' +
is ure
Ch inese
Te ch
ĠUS D
Ġoutperform s
Ġsurg ical
ĠB uch
Ġrig orous
abul ary
ĠB P
Ġdes erves
pi res
Ch ange
Ġdepict s
Ġsl avery
Ġanaly tics
Ġin quiry
18 61
ĠT rophy
Ġrel atives
16 4
Ï ĥ
ĠPhys ical
eg an
Ġnetwork ing
Ġfat al
ĠE ight
m ith
ĠC ou
ĠK or
Ġend e
pp y
ĠR ac
approxim ation
Ġfarm s
Ġn u
=\ ,
Ġsl aves
ok o
Ġsignal ing
Ð ·
Ġcapt uring
ĠB B
Ġcirc ulation
ĠE t
Ġwork force
an ol
L oc
om ers
16 2
un ov
ĠBer ry
Fil ter
ĠM aterials
Ġnom inal
ĠB rid
ĠP ink
ĠH amb
Ġo ught
Ġb if
Ġcol ony
}\ |\
Ġar ithmetic
Ġex ports
Y S
Ġre finement
Ġl apt
Ġfor ty
Ġtransf ers
ĠPal mer
J oe
ĠEll is
rem ove
Cle arly
m ove
ĠPun j
ol ith
Ġto uring
Ġgra b
Ġca ption
ill ary
Ġdesper ate
Ġw ise
st eps
ĠS yl
Ġsepar able
el ong
Te am
Ġclimb ing
pl ess
ĠH ugh
}$ };
B rown
_{ *
ĠR ush
18 89
ĠPal in
Ġt ags
Ġ' '
Ġcor on
Ġmer ge
ĠBM W
er ting
ĠIn to
Ġtradem ark
arm acy
Ġop acity
ĠA zerbaij
prop ag
ĠBu y
count ry
ĠS oci
ĠA V
ĠL is
ĠArt icles
Ġtri um
ĠR ena
Ġadjust ment
Ġ( ),
ec onomic
ĠBud get
leg raph
ĠF a
ĠK as
Ġres um
R est
ian e
38 8
Ġun precedented
ĠGerm ans
B ad
Ġmorph ology
Cal ifornia
ĠT agged
Ġ url
ĠT M
^* $.
F ive
in as
ĠBro s
Ġund ers
Ġw ages
a que
ĠB ee
Austral ia
Ġcombin atorial
ĠW alt
rid or
ĠChe ster
V an
App lication
c amp
ran o
int rodu
k w
ĠH appy
Ġp upp
Ġinter ventions
Ġbeh ave
ĠG aza
' _{\
ast ics
ĠHol mes
ĠF oot
Ġp unch
Ġh oney
le ments
Ġsp o
ĠJeff rey
Ġman ually
ange red
Ġpresum ably
Ġdeb uted
ial og
F ONT
ma k
Ġim posing
ĠG ilbert
Ġdraw ings
ĠBry an
Ġexclud e
Ġc ad
ĠJ up
Ġim perial
ĠR L
ew ay
Ġpeak ed
Ġdis par
idd ing
ĠPhilipp ine
ĠSt yle
Ġadvoc ates
Ġs addle
Ġfil tered
}}{ {\
P y
ĠĠĠĠĠĠĠĠĠĠĠĠĠĠĠĠ ĠĠĠĠĠĠĠĠĠ
Ġo h
Ġtru cks
Ġp ub
ĠN ine
vent ional
Ġm a
Ġexpress ing
Ġalt itude
} --\
ill es
Ġsl ide
ogen esis
Ġt ear
Ġref use
ĠR ole
Ġdirect ory
Ġfavor able
ĠE ston
Ġch ore
ide al
ĠIsa ac
Ġexceed s
18 91
c ro
ĠWin ds
oc aly
Ġr ises
ĠBrad ley
T unes
or f
Ġsem antics
Ġor chest
Ġunf air
b ol
Ġdis rupt
ĠPsych ology
check mark
Ġprodu ctions
Ġlast ing
Ġmicrosc opic
rel ativistic
Ġaffili ated
3 75
et e
Ġfluct uation
ĠBelg ian
16 1
/ {\
ne um
equival ent
if ully
De ep
en ius
als h
Ġnecess ity
ĠCroat ia
ĠCle an
M ex
t alk
z hou
Ġfle e
Ġanaly tically
Ġloc us
_* (
ĠCy ber
section s
Ġfair ness
ĠP owell
iz ational
ĠD ame
Ġnew est
Ġannoun ces
Ġfle w
is ive
erg us
rot ate
|\ ,
Ġexcit ement
ud ed
Ġmand atory
im en
Ġ }_{
Ġencoun ters
Ġspect roscopy
div ision
l um
st ret
Ġsl opes
Ġment ions
_+ $
ĠAthlet ics
Ġtouc hed
Ġshe ets
ĠJ obs
w yn
Ġlaw makers
Ġnurs ing
Ġyield ing
Ed it
18 88
Ġ[ ]
ĠGP U
ĠCab inet
Ġunn ecessary
Ġreg ulated
ĠCele b
ĠYank ees
in fl
Ġesc aped
ĠB ak
own er
ĠCol in
ĠNe umann
al in
Ġconv iction
j ournal
'' '
Int eg
ĠL ay
ices ter
ĠCurrent ly
C ard
Ġpeculi ar
ic iary
R oyal
b eck
men u
l iter
Ch arl
ĠB und
Ġcivil ians
ĠJo an
ĠProdu ctions
I sl
ed e
00 7
2 11
ma ps
Ġquestion ed
Ġp ipe
Ġb is
coupl ing
ĠCoal ition
Ġhaz ard
ĠV e
,\,\ ,\,\
ĠPen insula
ĠK err
che l
Ġl oses
Ġprem ises
Ġb ones
con serv
pr inc
Ġcab in
Ġw r
ann i
Ġre wards
ĠStat ement
ĠTom my
3 40
om al
at ility
ĠBas ic
$ ]
Ġc ord
Ġto ile
ĠDown load
Ġtransl ations
p b
ft en
Ġsur jective
Ġfin est
Ġdoub les
f ielder
us ers
Ġtri o
am matory
ĠF ri
c ia
or ro
Ġappropri ately
Ġposit ively
ĠEag le
Ġc iting
Ġprivile ge
ps frag
Ġhar assment
ĠIll ust
Ġrevolution ary
D ocument
AT ED
ĠHis panic
Ġspont aneous
m ut
Over all
isen berg
ope z
id ate
Ġpro c
ĠDec ision
8 50
ĠCh ase
Ev ents
{ }\
ĠT ampa
ĠZ ero
ĠMont gomery
ab we
sing ular
n ar
18 4
d og
ing o
Ġk ills
Ġro oted
ĠTreat y
c aster
um ble
ĠG auss
ĠAng els
ĠOt tawa
18 94
Al g
Ġram p
v on
Ġfund ament
ĠG az
Ġdam n
Ġdiplom atic
Ġre pos
Ġsculpt ure
ĠC ool
Ġan satz
ĠCh arg
ĠH us
Th ird
ant om
Y M
up loads
Ġpil ots
inc ar
e ur
it ance
der ived
Ġto ss
Ġrenew ed
ĠC ay
Ġsupers ymmetric
Ġart ic
ĠH z
Ġab oard
Ġne u
17 6
ract ive
Pl ace
Ġpolit ically
stitution al
Ġchemical s
Ġrel uct
Ġconfirm ation
Ġcitizens hip
Ġ< !--
ĠD rum
22 2
Ġdecl are
Ġf ights
Ġm aker
Ġcor rupt
27 5
ĠResp ons
W R
Ġd ictionary
Ġsur ge
Ġnever theless
Ġbin aries
Ġqu otes
Ġmod ulus
ĠLe eds
Ġgu ards
Ġinvest ing
Ġimag ery
Ġf riction
-\ !
ĠC risis
Ġcon caten
Ġimp lying
ĠGreg ory
P rom
20 7
)\ ;
im an
ĠG y
23 4
ĠMun ich
ĠAd vert
Ġtermin ology
m un
Al bum
ĠE sc
= &
ĠM M
ĠV R
Ġmark ing
im ag
ĠC ities
Ġthe ft
Ġfib re
Ġb arg
ĠD raw
ĠY ale
oper ative
conver gence
Ġenjo ys
Ġtre asure
ari um
Ġind oor
oc ur
pl oys
Ġsched uling
ĠConcer t
op al
vers al
Ġproduct ive
ĠAmb assador
Ġcon ferences
Ġw ors
Ġport al
bi ased
fram ework
Ġsumm ation
Ġfil t
ubb ard
P rim
Ġunder graduate
ĠElect ronic
Ġl ighter
Ġcomp ares
aster y
Ġal i
Ġm uon
Sec urity
ĠIndian apolis
ĠS ays
Ġriv als
ose velt
17 7
ĠPhot os
ma jor
ĠAt tack
) ]{
as ympt
ĠS uff
ĠTerrit ory
d an
Ġpar abolic
ĠIS BN
Ġpubl ishers
ĠT ang
Ġdifferent iation
Ġce iling
I mm
om position
Ġes cal
ĠS or
Ġfilm ing
Ġestim ators
Ġopen ly
Ġf oster
Ġkinem atic
Ġassemb led
Ġast roph
Ġto mb
is se
ol ve
Ġpit cher
Ġaccount ed
Ġtens ors
Ġtra uma
Ġnon negative
Americ a
Ġque en
ĠL ac
Ġshow case
Ġinv ented
p owered
Ġ esp
ĠâĢ ł
row ave
ĠAl pha
R ou
17 3
ry s
E U
ĠÎ ¼
trans fer
. }}
oy le
ĠFinn ish
T our
Ġche ese
n ick
En c
w iki
Al gorithm
Ġinsp iring
Ġtheorem s
ĠBa iley
ĠPop ular
marg in
M att
f illed
Ġcycl ing
h ist
l vert
Writ ten
comb ination
ca ps
)}\ \
aur us
Ġhal os
P roduction
Ġprec ip
u ant
Ġprot esters
z el
ĠW A
Ġsing let
^* $,
Jew ish
Ġto kens
17 4
Ġpat ron
Ġl ymph
ĠInd ividual
Ġdemonst rating
Ġc rossover
ign ment
var iance
online cite
20 9
S aint
ach ment
Ġcat ast
Ġsleep ing
ĠLu cy
Ġen rolled
ĠHe ath
Ġse am
ĠCl aire
ĠPresident ial
ĠO z
A x
ruct ures
Ġsport ing
ĠBan ach
de z
Ġp el
ĠP apers
ĠA u
Ġout lets
ĠM ik
imb abwe
un al
App ro
ĠDat abase
), $
us a
ĠLind a
Ġn urse
Ġp ending
ĠL ED
let te
Ġst ones
big cap
ĠSch warz
U B
c ies
ĠHop kins
Ġgener ous
30 1
ant o
est e
ĠDir ichlet
Ġpos es
Ġend orse
Ġpath ways
Ġen rich
Ġunem ployment
Ġtra ils
S pr
So ft
ok u
ff ield
not ation
ĠPart icip
w ent
ruct ive
et itive
Ġox ide
K O
Ġb rig
ĠMe et
Ġse al
ĠS witch
ĠW it
Ġdele ted
Ġhom osex
Â ±
se min
Ġd irty
pt r
p n
face book
emph is
Ġhol y
9 11
b inding
Ġexam ining
f iles
ĠB orough
Ġinvest or
N i
Q CD
el ia
ch ant
elect ric
Ġpand emic
ĠT iger
Child ren
ric ted
ĠAbb ey
Ġen roll
On line
Ġfilt ration
ĠPers ian
ĠLyn ch
ĠFil ip
ĠP eng
Ġadi abatic
ĠM ORE
te in
Ġ ug
ĠChap el
Ġren ov
rag ue
Ġhol idays
are ttes
Ġrele g
clip se
s ocial
app er
T ON
ĠTh ai
Ġunder taken
Ġoscill ator
ĠCal gary
Wel come
Ġp unk
;\;\ ;\;\
Ġquad rup
m v
Ġa meric
ak ar
CD M
C ore
ĠGra duate
ĠGu ild
k al
Ġfin anc
V ER
Ġver se
Ġadvoc acy
** *
aval ry
Ð ¹
Ġexcess ive
Ġt ender
ass ing
ed uc
Ġle x
Ġcast ing
Ġconcent rate
Ġinter fer
Ġcann abis
c ue
$\ ,$
B rand
sche me
Ġsuscept ibility
Ġjump ed
Ġridic ulous
10 16
Ġ$( {\
Ġgrad es
Ġinsu fficient
Ġchampions hips
Ġtransc ription
K B
. }.
ĠM IT
Ġcr ude
Ġ> =
Ġprem ier
Ġexplan ations
In vest
ĉ ĠĠĠĠ
Ġappreci ated
ĠM AR
Ġloc als
ole v
Ġoverl ook
Ġdegrad ation
Ġbi ography
Sh are
C art
Ġbes ide
Ġgod s
ĠH av
Ġinvent ory
ĠM ine
Ġch ips
ick er
Ġin ning
ĠE PA
ur as
op ol
Ġeleg ant
3 25
Ġco ordination
Ġdelight ed
Ġdies el
Ġback up
ĠLe ad
Ġn inet
Ġinsp ire
Ġdef ender
Ġexcell ence
scal ar
Ġlatt ices
j j
ĠE aster
Ob serv
d ied
Ġp ays
rest rial
ĠT arget
Ġc ris
ĠWest minster
m ount
ph r
she et
Ġbu zz
il ateral
Ġs ang
observ ed
)\, ,
Ġcomm ute
S eries
Ġsupp ress
pm od
Ġblock chain
Ġh iring
ĠCh ad
33 3
Ġfin ale
Ġmart ial
ent e
In v
Ġre con
un ed
Ġfermion ic
Ġter rain
ĠChar acter
tikz cd
: </
arch ive
ĠEv il
Ġreprodu ced
T urn
ĠRe uters
Ġdec iding
ĠOw en
Ġoblig ation
dra wn
Ġ\ ,\,
ĠHealth care
Ġdis closed
ĠTre asury
Ġappeal ing
Ġm aj
ĠMc L
ĠM atter
Ġvalid ate
st yles
Ġal beit
roph ic
ĠL ooking
ĠRem ember
Ġobst acles
Ġrender ing
Ġ( '
_* $
18 64
ĠAr g
Ġsk et
Ad am
Ġform ats
ĠJ ung
18 3
ĠDun can
Ġimm ers
list ing
Ġc ens
ĠBoe ing
ĠU P
Q A
Ġg ut
c ock
Ġan ch
Ġconvent ions
ĠSu ite
{ -\
Ġint ensive
Ġche er
ĠCoun sel
aff e
y ang
os i
Ġnation ally
he y
ĠD ylan
OR K
Ġprior ities
Ġexcept ions
Ġelim ination
F riday
M ath
ie re
Ġour s
c ourse
ĠL INE
Ġkn ife
17 2
in ternal
over rightarrow
ĠAdm iral
uis ine
Ġd ock
ĠM ental
ĠTour ism
{ #
AN S
Ġinev itable
Ġthe rapeutic
ass ed
bu ilt
Ġdecor ated
c C
Ġexpon ents
Ġar cs
sq cup
h istor
ĠVol unte
Ġdecl aration
omorphism s
le ases
ĠLat est
az ar
^ -\
ĠRic ci
ĠCh uck
ĠCustom er
ĠL inks
se lected
ĠGl enn
S pect
Ġpa ired
Ġn aked
ĠF P
iz arre
ĠÐ ²
a ude
label ed
) }^{
Ġdraft ed
p ark
ĠV irtual
17 8
ĠIR S
ĠWrit er
b undle
\% .
Ġdat abases
18 7
Ġcrit ically
Ġincl ination
\ `
ID E
ĠExcell ence
ĠVeter ans
ĠAd elaide
Ġl en
Ġgradu ating
Jose ph
Ġpl aint
Ġmut ation
An alysis
K T
\ ).
Ġb other
const ruction
con tact
Cat egories
ĠGab riel
ine q
Ġst ance
ĠC ash
at ible
ĠAn a
Ġresol utions
Ġsm oot
Ġsettle ments
Ġtong ue
X Y
c ir
er als
Ġm ism
ĠCan al
ĠLat ino
18 86
W ood
ĠR B
H u
en os
Ġed itions
ĠVen ice
ĠW inn
ĠG PS
ĠÃ Ĺ
ib n
Ġsatell ites
on de
ĠD ictionary
Ġsupers ymmetry
' ^
qu estion
Ġbed room
Ġst ir
}\ {
ĠK u
ĠY emen
Ġab st
Ġpractition ers
ĠAh med
Ġthro at
any on
ĠHur ricane
ĠP E
Ġpartners hips
k ward
ad j
r vert
ow itz
ĠFe atures
}=\ {
ĠRichard son
Song s
Ġlabel ing
)) )
Ġa thlete
I mp
d k
uc as
it ations
Ġhe d
Ġprev ents
ĠN as
ĠD awn
ĠW ine
Over view
Ġtrunc ated
ĠP rest
ĠK lein
ĠSc ript
ri ans
Ġrun time
D ele
ĠR M
oun ge
Ġcul min
ĠLand au
ĠWrest ling
ĠHT ML
im ath
Ġspot ted
y u
ĠP ain
Ġpro gen
Ġproblem atic
Ġpol ym
Ġposition ed
Ġanaly sts
Ġste ering
ie u
h aul
Ġtra its
ĠMc Donald
Ġco h
Pro gram
}) ]
Add ress
} ''
Ġbuy ers
Ġag ing
ĠH ait
triang leq
M arg
Ġunve iled
Ġinter cept
Ġp c
Ġlat ency
ĠCond itions
ĠK illing
ĠN om
Ġeffic acy
Ġreb ell
Ġspace craft
ron ics
Ġinaug ural
In itial
ĠSe bast
he et
Ġre written
Ġsc rut
Dist ribution
Ġaccompany ing
b oot
Ġcollaps ed
Ġapert ure
ĠG ang
art icles
^{- (
Ġmonot one
Ġb out
ĠJul ie
Ġmut ually
Ġbehavior al
Ġ= &
Ġvis itor
rg b
Ġparamet ric
| <
Ġpress ures
T arget
ĠChem istry
Ġrevers ed
18 8
ĠQu antum
ĠStrateg ic
ĠRes olution
Ġtransport ed
4 80
cer y
Ġwrit ings
determ ined
[ $
ch oice
Ġsystem atically
contain er
Ġsp are
M Hz
t ry
Ġhe ated
Ġgen ius
N I
Ġshort est
Ġdefe ating
c ool
ĠViol ence
S G
p atch
h ref
N ick
b les
ĠL or
wh ose
ĠSpace watch
Ġdegener acy
L ooking
H aw
ĠK end
ĠDav ies
T ok
sh own
exp ansion
isc her
Ġpenal ties
Down load
wind ow
n or
im als
s r
Ġaud it
Ġoffer ings
dor ff
ar in
Ġg orge
Ġsem igroup
ĠJ in
Ġres et
p ine
Ġfar mer
al one
Ġi Pad
B esides
ul ators
ĠY eah
ĠIda ho
Ġcontact ed
ibl ings
ĠP aint
Ġsport speople
19 3
ĠRe ference
Ġcru el
Ġinv ite
Ġinf ect
Ġinvestig ators
Ġthere after
ne apolis
ĠHor ror
pos able
ric ia
Ġnucle on
Ġtreat y
Ġplaus ible
Ġm igrants
ĠArm strong
Ġwithdraw al
p seud
. \,
Ġbos onic
Ġreven ge
ĠPro gress
)$ :
pat tern
ĠK r
ĠIm prove
ĠSw an
Ġgu ides
^* )
Ġsp anned
O B
Ġperman ently
H ost
% ;
f air
est imate
Ġconstit utes
00 6
ĠBr ussels
ht m
ĠPre vention
ĠS aw
ident ified
ĠCom ic
Ġgrand mother
scal ing
| ^{\
Ġthrough put
em on
intend ent
Ġ })
Ġtra gic
atin um
H or
An t
18 2
ogn ition
ĠCon v
ĠGe or
Ġalt ogether
Ġthread s
ĠL akes
commut ative
ĠM otion
M ic
Ġat ten
ĠAss essment
V E
Ġsa x
Ġsacr ific
incor porated
Ġche aper
resp ons
Ġaver ages
ĠÂ ±
F ont
ĠS ak
resh olds
Comb ining
ull ah
Ġp owder
ĠP and
Ġcompass ion
Ġexc use
Ġbet ray
ĠĠĠĠĠĠĠĠĠĠĠĠĠĠĠĠĠĠĠĠĠĠĠĠĠĠĠĠĠĠĠĠ ĠĠĠ
ordin ates
ĠBel ow
p aren
ac cur
ĠKn ights
TY PE
ĠH off
rament o
ert ility
et ed
at tr
Ġboy friend
v ac
urs or
ĠCat egory
Ġdis hes
Lear n
A sh
in ous
Ġcondens ate
ĠA j
Ġdef ended
Ġrook ie
ĠJo el
P ubl
ĠL R
Ġsur pass
z hang
ĠC reat
im on
ting ham
Ġse ized
Ġaw a
Ġmem oir
Ġbab ies
mit t
k le
ĠS K
ON D
play ing
d B
ĠG ross
Ġbroadcast ing
Ġw orm
Ġwid ths
Ġanisot ropic
im et
er ver
ĠMem ory
18 87
Ġmon ument
Ġbi om
0 12
m ask
ĠAct ive
Ġvot er
ĠRh ode
a uth
Ġstre ak
] ,\
Ġmultiplic ative
Ġprosec ution
18 6
ĠR G
Ġdis charge
Ġspecific ations
18 9
omet own
ĠS I
ĠBrown ian
Ġprompt ed
Ġcont ra
Ġph armac
3 80
Ġex clusion
Ġphys icians
Ġclass ify
r ina
ol an
IS A
op a
)= -
ĠUg anda
P red
own ers
ĠSol id
S K
ĠMon itor
Ġmerch ant
en za
on ormal
ĠPrinc ipal
Ġatt orneys
Ġtra fficking
$ _\
}{ (\
ĠHer bert
Ġspir its
Ġdr one
CL A
Per haps
ĠGl obe
ĠB G
Ġab bre
Ġdefend ant
ĠMot ors
perturb ative
hen ce
m ile
FF FF
Ġbipart ite
Ġlit igation
ĠD P
acc ount
ĠH ass
17 1
Ex amples
ĠB rief
ĠPear l
ys h
ĠPartners hip
ĠI gn
ur bs
Ġc ube
ĠS B
oun ces
ann ers
Ġdon ors
Ġfoot print
Ġcan on
ne ys
ĠF ra
Russ ia
à¤ ¿
ĠDer by
Ġtort ure
Ġemb ry
ĠPy thon
ask at
l c
Ġflow ing
Ġth ir
Ġimplement ations
ĠAnn iversary
Ġclin ic
ĠE W
ĠA ub
ĠC rystal
ĠT her
Ġnob le
Ġintrig uing
Un it
ĠSim pson
it on
Ġcreat ure
K h
ĠA chie
ĠP ub
cent ric
Ġre ck
ĠÂ «
Ġpar ade
Ġdivid ing
\ ;\
Re ception
ĠArm ed
produ ced
ĠTes la
t p
ĠImm igration
Ġshe af
Ġnom inee
Ġbomb ing
Ġunde rest
Ġsil icon
ot ics
ĠN ormal
Ġcosm ology
ag le
Ġtrans plant
Ġfre ed
Ġmark er
n ai
Ġh aun
Ġhist ories
Ġpop ulated
x p
in ians
ul ent
ill ation
S elf
ĠCong o
ĠS ultan
ll a
18 63
C ustom
Ġsimplic ial
Acknowled gements
ote chn
Ġminim ization
Ġexc av
Y et
ĠD j
ĠJosh ua
Ġp ile
Ġst ressed
Sp anish
um my
Ġout going
Pro perties
Ġalumin um
)} -
}} ]
< ?
at im
ic ion
te am
enc ia
function al
M ode
ĠP sy
l ater
ur ally
Ġbrut al
elling ton
Ġstud ios
Ġprohib ited
) }}{
ĠWat ers
ri o
clud ed
Ġgradu ation
Ġr het
ĠO H
Ġspl its
im o
rib utes
Ġmed ication
be am
Ġmunicipal ities
u ons
reat ment
av g
Ġdet erior
que z
_* \
F B
Ġm ines
Ġro d
Ġpos ed
Ġvend ors
Ġpup ils
us c
ĠG DP
ett es
prob ability
ih ad
g ine
aw i
ĠNor folk
F ac
Ġsp heres
Z hang
plan es
ear ly
ĠAl ger
ĠRo osevelt
Ġ{ (
l ap
F ort
Ġre lying
)^{ -\
But ton
Ġtimes cale
Ġhad ronic
Ġinst antly
Ġlif ting
res ource
Ġs el
il ogy
Ġthr one
N OT
3 10
m or
Ġunder way
ĠB ever
Ġfe ver
Ġadvent ures
ed ges
Prob lem
... "
Ġdepos it
b ons
Ġ& =\
* /
B road
Ġgen ome
4 000
Oper ation
ĠA CT
Ù ĩ
Ġb rackets
Ġtransl ates
Ġterror ists
Ġl over
inter action
ĠMor occo
Å Ł
ĠD ad
Ġle agues
tem plate
Ġmot if
Ġsubject ed
Ġinv oke
_ .
oc cup
)} +
Ġgame play
ĠE A
for th
Ġsk ip
ĠMer cedes
Ġf el
ĠG rad
ĠHe ights
}^ -
Ġconf idential
Ġpal ace
J e
n om
Â «
ĠGene va
ĠHar old
\ ),
ple ments
Ġflu ores
Ġtable t
ĠPatri ots
0 25
S aturday
work ing
ĠS cre
F D
Ġbit ter
Ġaest hetic
ond ers
s ix
ort ium
Ġsp y
Ġterm ination
em ark
Ġfirm ly
a ine
Ġcomp rise
Ġsol ves
cle ar
Produ ct
ĠIraq i
dev ice
Ġwhe at
d etails
f u
Ġrun ners
Ø ¯
Ġdo ctrine
i otic
ER N
Ġhonest ly
Ġl ig
ĠM atch
Ġacc idents
ĠC av
ĠBris bane
od ia
Ġretail ers
ĠCy prus
Ġen larg
Ġcomputation ally
m os
Ġdepend encies
Ġcontin ent
Se lected
Ġsmooth ing
Ġback s
ĠConst ant
d iamond
Afric an
ĠM ink
Ġ+ (
ĠP oss
ĠW E
ll ll
g irl
ol in
ip se
ĠFran co
ĠD I
}} }(
ĠPeters burg
Ġpredecess or
Ġaz imuth
Ġsubsc rib
l ia
ĠCare er
Ġgl ory
AN G
ĠSom ething
Ġb rane
N ormal
40 1
ĠReg ulation
Ġro uting
Ġrecip ients
id uc
and ro
Ġcomp ress
ĠL odge
ĠK urt
Ġattack er
Ġbe ats
Ġgen res
C rit
Ġ$ +
Ġemb ark
ĠRay mond
rog ate
Ġpro long
)} +\
Ġstart up
y d
ĠV II
ook ie
Ġinter im
ĠGarc ia
30 3
arth y
Ġw and
ĠV ers
a q
Ġlad ies
act ory
Ġsepar ating
D raw
AR S
he v
Ġpost p
W estern
ĠPo etry
Ġex changes
ĠS V
D ifferent
Ġmore over
ple t
Ġph armaceutical
whe el
leg al
cal ar
ĠRe becca
At l
Ġform ulate
ĠCl ose
ĠB in
ra its
enn ium
oph one
Ġtrav elled
Re lease
Ġrank ings
Ġupd ating
j ack
ĠRena issance
Ġac claimed
F red
Ġam ended
ĠCard inals
Ed ge
ĠK i
co e
os ity
Ġpre y
Ġen umer
ĠMin i
Ġdrum mer
ĠLet ters
r ub
pol ynom
18 81
read ing
Ġbreath ing
Ġden omin
rob enius
op ard
Ġspons or
Ġsm ell
$\ %
,\ ;
17 9
Ġcat s
Ġforb idden
Ad ditionally
ĠCom ing
Ġoverl apping
Ġpurs uing
Ġcho oses
Ġfore ground
ock ets
const rained
Ġtub es
C lim
Ġsub spaces
Ġend less
Ġaugment ation
g p
W D
ĠPrinc eton
Ġrece ipt
ish i
âĢ¦âĢ¦ âĢ¦âĢ¦
Ġc of
ĠW end
T i
Ġte aches
ĠCat al
ĠA CC
ĠA ber
@ {-
Ġ Ã©
Ġf idelity
ĠAd ult
Ġpres idency
( &
pay ers
sp here
}} |
for cing
Ġscrat ch
Ġm anga
ĠRes erved
ĠN u
Ġamb assador
ew ard
W ould
ĠHard y
L os
h ots
Ġch ocolate
Ġmort gage
b il
Ġsuperconduct ing
ĠLeg acy
ĠLe vi
ĠDur ham
s ymbol
Ġaff irm
Ġâ ī
Orig inal
Ġatt itudes
Ġl as
Ġem ploys
Ġp ap
col m
Ġexplo ited
Ġt ensions
ĠDev il
)\, .
Ġprot ective
Ġbre eding
Dig ital
Ġin tact
Ġby pass
Ġtrib al
OR Y
Ġcrow ds
Ã Ĥ
ell ite
ĠR V
Ġclar ify
ven ile
Ġcon current
tr ig
pro port
T aylor
Ġre de
j ee
2 16
ĠY ugoslav
Ġadd iction
Ġintu itive
Ġprec ious
E t
Ġinv itation
] -
Ġl ensing
18 62
Ġhad ron
Ġac ids
Ġaltern ating
Ġbath room
s ed
s il
ĠM aced
ĠDes ert
ĠJ ourney
sub ject
ring ing
ĠF olk
Ġaband on
ĠNob el
Hen ry
R ank
an z
Ġover d
ĠMathemat ics
Ġbi jection
kins on
Ġjump ing
Ġlegisl ature
Ent ry
pre ceq
ĠT all
ol ute
ĠMult iple
Te V
IF AR
ĠB ound
ĠDis cussion
ĠR onald
}^{ -\
ĠIn itial
Build ings
Ġk g
ers en
Ġre jection
Ġmerg ing
Ġconsult ing
ĠDar win
alo is
}}( {\
ĠRe ally
Ġpropos es
Ġflu or
lev ard
ĠR us
ĠEn cyclopedia
b ys
ed ged
Ġdest inations
ĠHol ocaust
k pc
ik er
Ġra bb
Ġun t
Sar ah
sp ective
ĠKnow ledge
ĠR GB
Ġbatter ies
ĠSol omon
p ent
Ġmed als
atic an
Ï Ĥ
Ġexhib itions
al go
Ġfin ishes
ful ness
ĠDec l
}) +\
Ġmonot onic
min imum
P b
Ġgradu ates
}^{ [
ĠApp lied
Ġpar am
Ġcompat ibility
k j
Perform ance
V ec
sk a
ĠR ate
ĠD ale
st rom
Ġfound ations
Ġconsum ed
Ġren tal
ol ving
ec ker
Ġround ed
f urt
Ġtim est
Ġmerg ers
cccc cccc
ĠAr senal
Ġvill ain
}) _{\
ats u
ig hed
Ġl akes
if olds
R ange
Ġt ales
un ion
ĠIM F
Ġb er
ĠA ri
Ġver b
omb ie
Ġaggreg ation
ĠD ow
Ġvisual ization
Ġcrim inals
tr uth
M arc
10 24
ĠBarn es
hig her
Ġhead lines
Ser ver
ar ab
App le
ĠJ et
ĠWrit ers
Ġo pi
ĠS equ
ĠVlad imir
ĠI sh
Ġab normal
Ġvulner ability
Bet ween
var sigma
Ġencoura ges
res on
Ġtechn ically
Ġexpans ions
ĠD L
ĠC ob
Ġbe aches
out heastern
ĠCh arter
ac er
Ġadv isor
ĠT elescope
ĠM ead
ĠM ale
fin itely
names e
ĠHall ow
S us
og g
Ġrect angular
Ġex empt
ign er
Ġconst ructions
Ġenerg etic
18 84
ex amples
mb f
ur an
abl o
Ġsuper hero
re port
Ġfulf illed
Ġinter change
Ġpain ful
OM E
verb atim
Ġb ugs
ĠSt arting
Ġsex ually
Ġun lock
Ġconv inc
l ived
s z
30 5
ĠQ atar
ott i
ĠD B
Ġbi ases
ĠCele br
3 70
ad ays
non ym
Ð ¿
st en
enti eth
qu art
Ġd ragon
ĠI g
Ġdiv ine
th ink
Ġin consistent
ĠD esc
ĠLa placian
ĠOpp ortun
Ġcount less
Ġinf ant
Ġhol der
ym es
dis cuss
B razil
return s
Ġadop ting
ĠD uc
ĠH S
2 14
IC S
ĠThe od
Ġart illery
av in
Ġmach inery
ĠPh one
Ġf lesh
VI EW
Ġretrie val
) {$\
ĠPlay Station
Ġtown ship
19 4
Ġrecur rent
ĠMah ar
S ettings
22 7
Ġgl ac
ĠClass ical
Ġpri ests
ch at
Ġind ie
Ġrev is
h ash
ĠH ess
B ody
un i
ĠPhot ography
Ġc af
Ġprov inces
30 4
ĠNiger ian
ĠTe en
config uration
ĠH aven
arm ing
Ġenc ode
Ã ī
Ġass ured
esp erson
ĠDen ote
& #
Ch ief
m ust
22 6
)+ (
aret te
Ġrefe ree
av our
Ġdem ographic
Ġmand ate
Ġload s
Ġout let
Ġin jected
Ste phen
add ed
}= {\
18 40
Ġ\ ;\;
P osition
w ire
18 82
Ġcongress ional
rom y
Ġte ens
Ġstar ter
r ift
ĠS hen
communic ations
ĠProt ocol
Ġseason al
Ġl iqu
ak y
ergus on
h p
m ine
d ated
ĠW rite
Ġtim ely
Ġhelic opter
Ġoff line
Ġqual itatively
æ ľ
ov sky
ĠAssum ing
categor ized
Ġen zyme
Ġresid ue
ĠFl ag
Ġins isted
ĠL uck
Ġd irt
ĠSh ore
ĠML B
f ine
Ġmet er
Sp in
Ġwar fare
read s
ĠWork shop
ĠFem ale
18 83
N ar
J S
ĠEvent ually
M ont
18 1
pol icy
se mi
Ġtourn aments
Ġde comp
Ġdep ths
method s
Ġremin ds
b k
Ġl ips
qu est
pl aced
raph ic
mod ern
)}{ (
Ġmal aria
ĠBor is
ĠM ets
redu ced
ĠV a
ens itivity
Ġqu arters
ip eline
Ġmo ist
Ġphil anth
Char acter
ĠCle ar
ev ents
Ġlack s
B ul
m om
Ġreal ised
Ġremin is
Ġfuck ing
it ars
Ġend point
Ġcost ly
opl an
Ġforth coming
A u
id is
Ġcryst als
ol utions
L es
f x
Ġloyal ty
ear chers
}$. }
to ken
bo at
Ġas ylum
Ġdomin ance
ĠQuest ions
j p
c opy
on so
bu f
ĠTrib une
ĠMe asure
h on
tabular newline
ĠB ened
Ġj am
Priv ate
es ar
ĠRuss ians
ĠHer z
18 75
D oc
t u
Ġresign ation
n z
Â Ĵ
ĠEll i
pin ion
ĠJes se
Ġvolunt ary
Ġpurch asing
Ġc ant
b X
ĠM Hz
cor related
ĠG or
u ably
ĠV ern
Ġsupposed ly
ĠL ives
)= -\
ĠMor rison
Ġhe ights
ĠGib bs
ig i
analy tic
J y
Ġaer ial
Ġdynam ically
W P
Ġ[ ...]
30 2
rom atic
b org
ĠA way
ĠLib ya
n ice
spec ies
}} ^{-
ug g
ĠP rat
ĠAngl o
ĠGu est
Ġdet ention
Ġche ss
Sh ould
Ġbroad ly
ĠC FT
ĠG ates
Ġtheore tically
cal es
at omic
desc ribed
Ġsp ray
co herent
}) -\
Ġbelong ed
Ġrub ber
F ound
ĠG MT
f red
if fe
Ġjew el
Ġplur ality
Ġign oring
ias m
Ġna ive
P ot
ĠBurn s
Ġkilomet ers
ad just
ĠW ave
ĠBeaut y
B V
f d
Ġper cussion
Ġat tained
ĠInst rum
ĠPop ulation
ov ie
Ġeigen vectors
ĠEr nest
22 3
N umerical
ĠS ave
Ġme als
Ad S
C u
up t
Ġhuman itarian
Ex pat
Ġl ith
Ġf right
o fficial
col sep
Ġentreprene urs
Ø ª
IN S
ĠHol iday
en o
ĠR R
ĠEn c
Ġpain ters
itect ure
cycl ic
re rs
With in
Le ague
n is
Ġh il
Ġsol ver
( |\
ĠAp ollo
ĠIn j
exp ect
2 13
ost ics
Ġcooper ative
ĠC andid
Ġsy nonym
Ġdesign ation
Ġsu cc
Ġassign ments
ĠG ospel
Ġbow l
F und
Ġshare holders
ĠEll en
Ġaccum ulation
Ġsmooth ly
Ġdescend ants
Ġappreci ation
Ġintu ition
ĠBulgar ia
Ġdup lic
e i
h istory
ĠT itan
Ġ... ,
arent ly
Ġcondition ing
rel ative
run ning
iling ual
ograp hed
Ġperm utations
H N
ĠSh i
Ġcelebr ates
Ġide ology
P ER
ĠC anyon
ĠS ections
app lication
Ġun anim
rang er
ĠOcc up
ir us
ĠH ours
ĠO m
ĠMan uel
Ġpossess es
\, (
ĠRes ort
p ole
an mar
ĠI SS
Ġaw kward
Ġdub bed
Ġper sec
oper ation
ic ates
ĠSl ovak
Ġcor pus
ĠAut om
h in
ĠR ES
Ġvers a
chie f
dec re
ĠBl air
Y Y
Ġb oring
ĠRel ated
$ ^{+
id y
Ġdistrib ute
ed o
A verage
Ġin ch
Ġtim eline
spect ral
Ġflo ors
o qu
oura ge
y ch
29 0
Ġtal ents
Ġexerc ises
ĠW ords
g ust
Ġst ab
}} [
rac ies
Ġsil ly
ĠSoc orro
Ġperform er
at em
}: =
ĠG ust
A bs
Ġu ph
? !
Ġcoordin ator
Ġrecruit ment
ĠN I
ĠBeat les
ĠCom pl
ĠB T
ĠSte phan
pen se
Ã ¦
Ġw reck
Ġb ind
ĠE b
deg enerate
ĠD rew
ĠMy stery
D ir
ho ff
V AL
act ers
50 1
ĠPr ide
Ġdr unk
ĠEff ects
ĠE valuation
ĠOb viously
leg iate
S unday
Ġt issues
Ã ĥ
rm k
rac es
oy age
Ġvis ually
Ġingred ient
t abl
ig ating
Ġreb u
k ernel
mathb old
Exper imental
Ġphys ic
\, $\
ĠCitiz ens
che t
ĠSus sex
ĠFif th
Ġt u
Con sequently
ĠSim ple
Ġteen age
Ġc and
Ġo k
Ġcivil ization
| +
Ġfund raising
Ġviol ating
en v
Ġperturb ed
ĠGrand e
ubb les
0 11
ri ages
ure auc
ĠT ry
uit ively
ific ent
ism ic
ĠPro ceed
ĠX X
Ġepid emic
V V
ĠR ash
Ġdis abilities
Ġrespond ing
Ġaw ful
qu ire
S tack
C as
Ġl anes
Un like
D a
Ġvib rant
Ġn ond
Ġg aug
Ġpro l
ĠBy z
in ters
con clusion
Ġeigen states
Ġpione er
semb les
ĠLog an
Ġsen ator
Dou ble
ĠGe off
Ġestabl ishes
Ġcustom s
G I
V ictor
de al
Ġrec ipe
à¤ ¨
Ġscan ning
ra ining
is le
grad ient
end if
Ġadvis ory
ol ics
Ġgener a
ĠInf o
F K
re leased
Ġc ure
ĠC W
ĠP orter
Â £
ĠH il
Ġtow ers
ĠD escription
Ġemphas ized
Ġbas elines
year s
ĠPan ama
Ġout rage
ios ity
Ġfunction ing
IS H
Ġequ iv
ĠAd rian
gu ide
it ational
le an
}_ *
ĠGib son
]{ @{}
h agen
ĠP ok
ak is
W idth
ĠS ou
K en
Ġlic ensing
Ġbom bs
Ġi Tunes
Ġabs urd
oc ide
B rien
Ġhypers ur
at op
ĠDist ribution
lim sup
ET H
ĠBo olean
ĠFact ory
B rian
Ġn itrogen
Ġ Ñģ
ĠL C
Lou is
) &=
ĠSh in
IM P
ern ame
l ot
) ^*
Ġprior it
En vironment
ĠB od
Ġp ressed
Ġm s
stud y
Ep isode
ec hes
ĠBe hind
ER Y
ograph s
ion ic
act ivity
ĠD iana
su cc
Expat riate
N ames
ĠHy dro
Col lege
m and
F rame
ĠM emphis
Ch icago
K a
Ġs iblings
ba um
clud e
K R
00 8
it ored
erm any
z ig
ĠR AM
Ġdeliber ately
ĠTh orn
P resent
Ġhor iz
ĠGr iff
Ġknock ed
ĠLINE AR
Ġrespond ents
Ġshould ers
ĠD h
Ġstat s
ĠC ec
Ġmet adata
J son
us ions
ĠP om
li u
ĠPublic ations
Ġinv isible
Ġtim ber
@ \
ĠS ame
Ġg iants
Ġcompl ain
ĠIS IS
Ġmas ks
Ġhospit ality
Ġdeb ris
Ġimplicit ly
ĠLe icester
d dots
Ġtunnel ing
w i
B ank
M obile
t ml
ĠN W
dot sc
wart z
ud er
ell ows
Ġlength y
Ġlong time
ĠTe h
ĠCar roll
] +
ĠDem ocracy
Ġdevast ating
16 00
es ign
Ġcard inality
l g
ighbor hood
ĠTe acher
art ifact
B ol
Ġambig uity
\% )
Ġhor r
23 8
un ci
ĠEc u
Ġbankrupt cy
Ġrefuge e
ĠT ales
Ġhous ed
car bon
Ġlad der
ar is
O A
Ġc ake
Ġd Ã©
ĠM g
amm ation
ir ate
Ġam ino
ĠV illa
min imal
Ġtransmit ter
d etail
ĠĠĠĠĠĠĠĠĠĠĠĠĠĠĠĠ ĠĠĠĠĠĠĠĠĠĠ
J ones
Ġoutl ook
Ġaccum ulated
Re ference
Ġc ater
Ġinform ative
ĠShe ffield
y i
th ose
Ġdefend ers
Ġcot ton
Be ing
ĠF resh
ĠPre vious
ĠAdvent ures
Ġdoub led
ort ions
Ġtrac ed
Ġdel icious
Ġenter prises
ĠW on
Ġwood s
v r
Ġf isher
ĠSl oven
Ġtriple t
d V
Ġj okes
poss ibly
Ġc usp
f mf
22 1
Ġhor rible
ĠZ imbabwe
re ma
es ity
Ġfig ured
Ġmet ast
arl ing
ĠBroad casting
t c
Ġcon gest
Ġaim ing
Ġformul ae
Ġ ub
Ġr ider
che ster
head ed
Ġheav ier
Ġint end
Ġcook ie
Ġdepos its
Ġflav our
cl ed
ĠArch ae
Ġlect ures
3 45
Ġf ence
ĠQu inn
ĠH ood
}) _
Lay out
ĠCarol ine
m kern
Ġquiet ly
Ġpre jud
ĠHallow een
set counter
ĠAct ually
Ġche f
ĠSec urities
P ak
18 76
Ġmer it
ĠS ara
it ively
ĠGo ing
- .
=\ !
Ġow ing
ĠC ry
Ġbe ef
26 5
Ġc ement
Ġth resholds
Dec l
Ġexclud ing
ĠAndre a
p ract
Ġsear ched
ĠLeg ion
Ġloc ate
ĠAndrew s
E arl
Ġh olog
ill on
Ġrev ision
Ġfemin ist
ĠC ord
St r
ĠBud d
Ġdiscret ization
Ġtransform ing
Ġdiscover s
ĠJup iter
it ably
Ġded ication
y on
ram id
Ġinf antry
ĠHend erson
ĠM oses
ĠGra ve
Ġreg iment
Ġpress ing
accur ate
Ġreview ing
T a
e ak
SS M
ĠFram ework
ĠM ercury
aj i
ĠRep ly
ĠG ren
ob ia
Ġlist ened
Ġevent ual
pher d
ĠH REF
av i
Ġf et
stit uting
Ġobser vers
Ġprem ise
A st
c ats
ing e
ĠP am
22 9
Ġexplos ive
ĠSto kes
ĠAzerbaij an
;" |
O F
Ġcost ume
Ï Ģ
Ent ity
och ond
ploy ed
c ould
C redit
oul os
ras er
AC S
Mod ern
Ġple asant
Ġce ase
c ous
ĠM ari
Ġharm ful
ogen ous
imod al
ĠArmen ian
ĠCon c
dis k
bal anced
Ġs mu
Ġobst acle
40 4
EX T
ĠHop f
h ma
Ġteen ager
ĠAltern atively
| $,
c S
av ia
ure r
Ġd ancers
ĠK oh
Ġgras p
H ung
r ice
os ion
Ġspec ulation
vio let
Ġorth onormal
Inter view
ge ometric
000 1
i ably
ard less
ĠInterest ingly
al ie
angel ical
T B
in ent
ĠA ur
ĠA ges
dsh ire
ĠD iet
ĠH ear
Pr int
Ġwh is
ol and
sh all
inter face
ĠP ont
Q Q
ĠHy per
ĠTw enty
t bl
ĠR C
pret ation
H op
v irtual
im i
ĠF lying
ĠL L
Ġde ar
Ġshell s
Ġt ric
Ġrel ie
Ġreb ounds
ri pp
Ġsem ic
Ġb reat
ĠF W
inc ome
ĠF on
22 8
Plan ck
e lected
fore ach
ĠTrans fer
ĠCh in
Stand ard
Ġun bounded
D ark
18 71
Ġscal ars
} &=&
ĠK ick
cle an
ĠG ets
Ġpuzz le
Ġar rays
Ġsoc io
ph on
Ġemer ges
ĠIndust ries
++ )
Ġt at
Ġevalu ations
in ers
Ġimm igrant
Ġresidual s
ĠMcC ain
t ens
18 67
orph ism
Ġf ond
Ġ ï¿½
le ys
Ġpurs ued
Ġr ides
al is
}^* $
ĠR ut
Ġapp eals
ĠT rial
Ġswe pt
Ġprob able
ĠEd mon
List ener
Ġmut ations
Ġdesk top
ĠTO DAY
Im port
* ,
ic ism
Ġacc ent
&& &&
Ġt ier
iod iversity
Ġin con
Ġn ost
on c
ĠL ed
ĠSh ows
Ġsuspect s
an ium
ib an
S ix
ĠC apt
IC K
Rail way
ĠKaz akh
or ate
Ġrif le
Ġp ent
iv ier
b end
Ġman s
Ġsa iling
el ike
ve ment
ĠF ul
ĠRoman ian
Ġrecru ited
ĠAsh ley
am az
ĠCon cept
Ġ$ %
Ġfort un
inf all
fe ed
cor rect
onic a
Ġtouch ing
Ġent angled
ĠRoll ing
18 78
t uning
for dshire
ina e
stan bul
Ġorgan ize
Ġdestro ying
l Vert
ict ured
Ġmet eor
ĠP ray
Ġsp ans
Ġsuper b
Ġcomput es
ĠLa place
ĠPed ro
ĠIn ternal
Ġres ur
Col umb
ec a
Ġm ate
ĠBrad y
l ore
l ift
ĠP U
ĠComput ing
Ġaccel erate
Ġd os
Ġfort une
Ġdispl aced
Spe aking
Ġcommit tees
Ġfl are
Ġmal icious
ĠSt rat
ĠLaure n
Ġst amp
Ġab rupt
out ing
ew s
Ġess ays
incre asing
23 9
att i
OW N
\ },\
Å ¾
ĠSc ore
re q
Ġk ings
Ġbroad band
est y
ap unov
Ġglass es
Ġprom otes
Ġsuff ers
99 99
ian i
Ġanalys ed
Ġbreak through
b id
E ric
v t
ĠF ut
Ġfound ers
ĠSocial ist
un ks
Ġaccept s
Ġillust rations
Ã± a
Ġnot ification
P ark
Ġwell s
Ġgraph ical
X T
ine z
ij a
C ome
L I
ĠS it
Ġdiscret ion
ishe ries
Ġor n
Ġcomp ressed
ĠFR OM
}) /
ĠMin neapolis
Ġg ases
Ġdis ruption
erg ic
Ġsystem ic
Ġg reet
ĠL ars
Ġsp arsity
int roduction
osp ace
rot ron
Ġprosp ective
ĠYuk awa
// /
+ }$
cer t
Ġr ul
} <\
ĠPat ients
Ġd z
ĠH I
Ġrev ival
Upd ated
ĠHerm itian
ĠEmm y
P ref
CO DE
ĠEm irates
Ġswe ep
Ġdwar fs
om ore
ĠS askat
Ġob l
Ġarch ives
at omy
18 68
Ġsupport ive
ĠNo ah
it ated
up ta
ĠEx hibition
> ,
ĠLyn n
m ology
Ġr uler
Ġrecurs ive
ĠL ar
per m
$\ {
Ġwon dered
ĠPer th
L iber
ĠK rish
n r
Ġl overs
ars er
Ġsatur ated
Ã ¯
ĠAmeric as
Ġinval id
Ġrem oves
enz ie
Ġinad equ
mark s
Ġâ ĪĴ
ĠEcu ador
Ġf ocal
ĠS of
Ġimport ed
ĠK erry
mod es
Par ameters
ut z
ĠCom pton
ĠP G
ru ce
Pac ific
ĠI oT
ĠH od
ĠR oh
Ġstra ins
ĠL enn
Ġwind ing
ĠEv idence
Ġc emetery
Ġpro tagonist
reng th
Ġkn ots
Ġintent ions
M W
le ad
ĠC yr
ĠProject s
EN TS
ĠM eyer
pp ler
Ġcol span
Ġim plements
Ġplant ed
orig in
)\ )
Ļ Ĥ
Ġins ult
Ġgl uc
Ġsid ew
ĠJama ica
Ġ umb
pos ium
**************** ****************
ĠHe y
Ġbeaut ifully
n umer
Ġwhere ver
Ġspec ially
Ġbif ur
S wed
ĠRodrig uez
om ical
ĠC AN
24 8
ĠPl aza
Ġabund ant
Ġanomal ies
Ġto oth
vis ible
Ġfree ze
uzz y
g ies
re ra
en ario
Ġres ume
fl ight
ĠRock y
Ġperipher al
Ġc uisine
im ization
il ion
ĠMunic ipality
ĠZ ach
graph s
ĠTest ament
19 1
Ġremin der
ĠPaul i
rad iation
dis crete
Ġreprodu ction
se lection
osp heric
Ġinfin ites
Ġcommand ed
Ġdisc s
ĠMedic are
s ay
en burg
g reat
Ġ ~~
ĠHen ri
Ġwa ited
ĠKenn eth
cy cles
Ġcalcul us
Ġcapital ism
b atch
Ġcont ing
Ġopt imum
E arth
Ġsc ary
Ã Ł
B it
ĠA IDS
ĠCurt is
Ġcon finement
board s
Ġ å
Ġadvers ary
ĠNap ole
ĠT ong
am inated
ma ch
M ember
26 4
ĠPart ner
Ġpack aging
M atrix
ĠSh annon
Ġdisput es
ĠPunj ab
es se
c A
ĠQu art
ĠBol tzmann
U rl
ĠR ise
}^{ {\
Ġasp ir
Ġsur render
ra de
Ġneighbour ing
H ub
ĠL ak
tt i
Ġm all
Ġimp air
Ġinterpret ations
DE s
Ġphil osophical
N M
ĠK ane
Cent er
Ġsh ocks
Ġcard iac
ĠF ear
Ġreg ener
dis cussion
Ġselect ive
Ġsh aded
âĨ Ĳ
g ae
Ġto ys
pro to
ED T
exp and
ĠRes cue
min ent
ĠW ake
ip es
ĠC MS
23 1
Ġredu ctions
Ġveget ables
ib les
Ġincorpor ates
Ġoff shore
C ould
ĠReg ulations
ĠSch midt
Cl oud
ĠPet erson
V ector
App lying
ĠUs ers
Ġpr ince
ĠTan z
Ġtet ra
{( -
lik elihood
ĠG ur
pe ak
Ġmon etary
à¥ Ģ
. *
Ġval ence
ĠE ducational
Ġcor ps
Ġret rieved
Ġview er
ĠY an
. ''
Ġsc ared
Ġsubsequ ence
former ly
ch rotron
Ġindex ed
AP I
og on
ĠS Ne
ant is
Ġr ats
Ġch ase
Ġ$( -
Ġdeb ates
Ġsem if
G rad
ĠH ua
K w
b ool
Ġgar age
ĠEm ployment
ĠSac ramento
ĠGet ty
Ġplate au
)) =\
Ġsong writer
rt imes
ingu ished
ĠT ickets
isp here
X iv
Ġ! ==
Ġfru its
Ġhab its
4 20
F uture
Ġtriv ially
Ġbelie ving
Ġd ans
Tra ining
ĠLegisl ature
Ġarg uably
ĠSh a
Ġtem plates
Ġhead line
ĠW ellington
ĠU ber
ĠSer bian
ĠAng lic
ĠH ook
y en
ĠC ertain
press ure
Ġnurs es
Ġf art
Ġsupp liers
ĠAb original
Ġgeomet ries
ox ic
ĠĠĠĠĠĠĠĠĠĠĠĠĠĠĠĠ ĠĠĠĠĠĠĠĠĠĠĠĠ
ĠProtest ant
mult iple
Å Ħ
Ġsubst ances
Ġinform al
Ġneighb ours
28 8
ans on
dom in
- }
Ġh i
ĠL il
Ġquad r
Ġinstit ute
Ġheter ogeneous
Ġfragment ation
l ord
(\ {
24 7
) <\
24 6
head s
Ġsound ed
Equ als
Con v
Ġe ject
Ġcount able
Ġpack ing
Ġflag ship
18 79
aun a
ĠCar r
ĠRel igious
D etails
ĠW alsh
other mal
3 35
B an
ĠRes Net
}}$ -
Eng ine
Obs erve
Ġexplo itation
N B
Ġb eds
ĠCase y
Bas ic
18 30
ĠH annah
Ġapp rent
I l
ĠPak istani
=" -
uss ia
V ery
ĠMan aging
Ġfrust ration
Ġdem on
Ġliber ty
Ġgeomet rical
ro ots
Ġadminist rator
Ġl ob
ĠS ic
N um
ĠBul let
g rand
ĠC rist
ĠThe rapy
Ġf rank
ĠS ter
Ġvin yl
un n
B row
rug u
Ġorg ans
Ġaffili ate
F ire
T er
Ġne at
NN s
ĠRe agan
P F
An th
Ġspons ors
Ġwal let
ĠW ITH
Fl ow
Ġenthus iasm
ud ge
Ġcontract ed
ym n
Ġbas in
Ġbil inear
Sc ient
d it
Ġafter math
Ġorgan izing
ĠSup erman
ĠAct ress
Ġauthentic ation
Ġn aming
the tic
urg ical
ĠPo incar
Ġdemol ished
N BC
ĠU T
ru ck
ĠNe u
yl on
set up
Ġle mm
rypt ed
me ans
Ch annel
ord ial
Micro soft
ĠElli ott
In c
e ither
Ġpart on
orth y
A z
w u
Ġtheat rical
ĠS ER
ĠAbd ul
g old
Ġat tain
v p
Ġenjoy able
ĠM oss
T yp
] =\
mat ter
atter y
ĠC raft
="../../../../ ../
Pl us
or um
ĠTun is
Ġnum bered
Ġend ors
Ġun comfort
Ġswit ches
ĠRom ance
ĠRestaur ant
d w
Ġceleb rities
Ġchar ming
Ġharm ony
ĠLou ise
avor ite
def i
Ġb orough
?? ??
ĠHero es
H K
ĠAlexand ria
t m
P relim
ol esc
m inded
rit is
Ġun defined
y ll
Ġcl an
Ġpurs uant
Vill ages
ĠSt atus
Ġintersection s
Ġmic rowave
K ind
Ġho pping
I ter
Ġd umb
T alk
B all
ĠCh ancellor
Ġpriv ately
Li u
Ġsl ots
on ential
anti ago
A X
ĠF ields
\| _\
Ġnav igate
worth y
ĠEthiop ia
Acknowled gments
C ritical
Ġliter acy
Ġpurch ases
ĠW id
me chan
Ġparameter ized
d ens
Ġel ong
tem p
Ġtable ts
ĠPre c
ĠA sp
Th ursday
RE AD
ĠH our
d yn
Ġs aves
ĠL ines
ĠM aterial
ĠEnt reprene
ed itor
U r
arg ument
ĠPref ecture
Ġcasc ade
ĠPoint s
Lear ning
23 7
ext ension
Ġprison er
á ¹
est ock
B log
d iam
Ġcricket ers
Ġnic ely
Ġt uple
in el
in ds
H ash
Ġm ol
ish able
ĠMar co
ĠNot tingham
Ġst ems
ĠUs ed
Ġpuls ar
ir ie
ĠWe re
h urst
riv ed
ĠApp eals
b usiness
Ġb izarre
eral a
ortun ate
Ġsusp icious
U CT
p ure
ĠRoberts on
Ġretrie ve
\\\\\\\\ \\\\\\\\
)( -
part icles
Ġancest ors
ĠC ork
S ex
R ound
rad io
P ic
Ġre dd
18 77
Ġsupp orter
ĠAssoci ates
Ġpast or
ch urch
ĠH ers
Ġdirect ing
I ref
r ino
ĠF E
Ġmur ders
Ġyour s
prot otype
- |
if ference
ĠB elf
ell ation
Con tainer
, -\
Ġre fin
ĠApp lications
Ġresp iratory
dom inated
ĠM essage
Ġ{ @
ĠGr iffin
K er
oura ble
ĠSche dule
Ġupgrad ed
ĠBal let
ĠF alse
ys ics
Ġback bone
Ġrid ge
Ġhur ricane
ĠR ig
consist ency
> .
Ġbre ed
rob ust
ĠWag ner
Q R
Ġincent ive
ip olar
per fect
`` `
ĠF lem
Ġinduct ive
y t
Method s
Profess ional
g ard
ĠIs le
Wind ows
st ed
em ale
ĠB ran
ĠB U
cer tain
Ġmob il
Ġh ometown
pend ing
ĠQu ick
Ã³ w
st ick
Ġg y
ĠSum mary
ĠM atrix
ph oto
ĠDep ression
Ġappro ve
ĠUS B
L B
stret ch
Ġnew er
ĠS ed
}} /
Me et
Ġpresent ations
23 6
ĠK iss
Ġcont ested
Ġvoc abulary
ĠRh odes
cl er
Ġimpact ed
ĠSch ol
ĠAccording ly
os er
ĠS ons
Ġcl ay
ĠCel tic
h it
Ġfun ctors
ĠH ubbard
+\ !
ĠL ip
Ġsu its
Ġinst inct
Ġmon itored
Ġp adding
Ġprot ons
Ġd ent
A li
AR E
c H
ĠSt ructure
ans k
ĠInter ior
Ġcolon ies
k ok
Î »
Que en
ĠB il
Ġf iref
}| $
B ud
\ #
z heimer
different ial
ĠDomin ican
% ).
J ean
Ġb ore
ĠTri ple
ĠAltern ative
ath a
Ġdeal ers
Ġvin tage
23 3
be en
AT CH
Ġresemb les
ĠY un
Ġpot ato
Ġ( -\
row eak
ĠLink ed
ĠNov el
b ial
Ġattach ment
s sec
A mazon
ĠD in
ĠPro perties
^{ '
Ġsett lers
Ġdece ased
Ġper t
Ġfil ament
Ġeconom ies
Ġwhere by
Ġplay wright
ĠZ ar
ĠSing er
Ġb ush
y our
rop olis
w ikipedia
$. \\
hel m
tan h
ok i
Ġcompan ions
ĠSyn d
ĠChron icle
ĠHom es
Ġcr ashed
Ã¼ n
Med al
Academ ic
Ġcl ips
ĠW ins
18 48
Ġmult ivariate
Ġex cerpt
Ar thur
Q ual
c ustom
s witch
Ġs ack
Ġdie lectric
F ood
ĠTe a
position s
R ic
ĠC ritical
ne ath
Ġthr ust
C ache
S end
18 74
Ġorgan isms
can onical
part ition
Pl ayer
Ġurg ent
d ia
Ġso ap
re ed
Ġ\ ;\
Ġg el
tle ment
ef ault
Ġminim a
Ġl enses
ĠK L
Ġstory telling
Ġelim inating
Ġgram mar
x b
ĠT C
ĠNew man
ĠBou levard
Ġcylind rical
en vironment
as aki
ĠTe aching
, ,
in ely
18 72
ĠH ub
Ġch orus
Ã© l
B or
ĠT win
ĠMon ster
Ġbo om
Ġ\ }$.
Ġimport s
Ġ }^{
ap a
ĠV it
ds ay
ĠAl most
Sim on
ĠPost ed
ant le
ĠP V
ĠN g
EN CE
ce ans
ĠG ender
Ġout fit
uff le
Ġsemicon ductor
Î ¼
Ġhold ers
Ġpiece wise
ĠUlt imate
Ġcalc ium
P ing
P aper
Ġannot ation
Ġextrem al
Ġin k
ordin ator
ĠEngine er
ĠR d
Comm unity
Act ive
m ixed
over view
Ġend emic
hard t
g ly
ta ker
Ġh aul
ĠPer fect
ĠTh ing
ch art
Ġcontrib utor
Ġanaly se
Ġkid ney
Ġb achelor
28 5
A H
ood y
ĠO g
Ġdet ective
Ġmultipl ied
Ġv ow
ĠV atican
Ġdem o
ĠGram my
)\ |
Ġshe er
Ġchrom os
ĠM aps
E th
' >
Ġrespect s
24 3
au f
Ġrece ivers
ĠBre tt
C Y
Ġd well
}= (\
add ress
ĠGre ens
R am
ĠBel le
) &=&
in verse
pa id
0 15
Ġelectro de
Ġec ological
St an
enc il
Ġang el
Ġarg s
norm als
ĠHun ting
n at
ĠW er
Ġapplic ants
alax ies
ters on
all i
Ġorbit als
\ }^
~ ,
ĠConsider ing
R od
ä º
Ġb ite
ĠMc N
ĠM ang
Ġinc umbent
Ġn oun
umb led
doc s
es que
Ġge ographic
sw ick
ĠKe pler
Q C
b eg
bb ing
oy a
Ġbill ions
Ġug ly
Ġf iduc
are l
ĠMethod ist
ight ing
Profess or
song writer
h ouses
ĠMil ky
ĠM n
Ġmac roscopic
ĠPack ers
29 5
Ġmas ters
Ġassoci ates
new page
Iref n
em ission
all a
Orig inally
Ġsub algebra
fin ity
Ġge ographical
ĠIS M
ĠW ool
spe aking
Ġhydro dynamic
ĠA post
ĠCont est
ĠRevolution ary
al am
ay ette
ĠDev on
G ar
t l
Ġcoinc idence
â ĸ
ĠFre eman
Ġc raw
ĠE S
acknowled gments
ĠK aw
ĠMar tha
path y
f o
Ġgamb ling
Ġra infall
ĠUn categorized
AC H
ĠChrist ine
Ġsh ake
ĠK ab
Ġrelig ions
Ġmit igate
ĠU AV
d ar
Ġsle e
pres erving
ĠRom ney
ĠB elt
rr rr
Ġbox ing
ixt y
ĠSalv ador
P RE
Ġd rought
iov ascular
Ġrel ativity
Ġcolle ague
ĠL M
Ġint ens
× ¨
Ġsp ike
ĠCom parison
r Vert
gl ing
Ġachie vable
ĠFe ynman
Ġenc ryption
Ġspin or
hed ron
land er
Ġrecover ing
ĠCart esian
em bourg
)} )$
ĠS ize
ĠS USY
Ġpit ched
ĠCub an
Ġunder going
ited efault
eal ous
mc itedefault
Ġtrunc ation
Ġgre edy
direct ed
Ġse as
ĠEth ics
Ġconf using
od i
Ġhe sit
att ention
ĠHon da
v x
Ġra pper
Ġphr ases
Ġcan al
Ġgorge ous
ut a
Ġpersonal ities
al tern
Ġan onym
Ġb ureauc
Ġm ethyl
//////// ////////
Ġend points
Ġmes ons
Ġdiscipl ines
Ġsk ull
AN CE
gu ard
ĠGu itar
Ġs ab
ens ation
Ġcent r
ĠArch bishop
Ġsp ine
Ġref uses
ĠWeek end
{ }{
ĠS ach
Ġat he
Ġpoly t
Ġch ol
ĠEs sex
Whe ther
ĠL iv
ĠApp eal
Ġgent le
Ġunsuccess ful
Ġ| ____
Ġn it
ĠA verage
ĠĠĠĠĠĠĠĠĠĠĠĠĠĠĠĠ ĠĠĠĠĠĠĠĠĠĠĠĠĠ
ex ternal
ĠSand y
mon ary
Rem ember
ĠImm un
or ange
ud s
fe as
3 15
Ġ& +
og o
Û Į
ĠL STM
ir ling
do ors
M onday
g rowth
$. \
Ġhand les
Ġcar ing
hand le
K evin
}\ }
Ġblood y
Ġalle vi
ĠPalest inians
Ġcollect ively
Ġ" \
ele ments
clud es
18 66
Ġimplic ation
ĠTri p
Ġdisc ourse
Ġreg ulate
Ġcontin ually
Ġwh isk
Ġmention ing
Hel p
m aterial
st ri
ish ments
ĠOut standing
ĠC i
Ġur ge
Ġinnov ations
Ġp neum
Ġinsert ion
ĠSte am
Ġimpl ant
4 40
\ >
Ġhel ium
Ġland scapes
ĠTheorem s
Ġexplo iting
ely n
Ġst air
ica id
Ġexam ines
bel ie
Ġimag ined
ĠTas man
ĠG E
ĠSt ark
Ġqual ification
s b
Ġc oc
ĠP rague
m otion
ĠM t
ular ity
ĠEp stein
Ġin set
ĠF erguson
30 8
ĠS ang
al ink
Ġgener ative
ch in
Ġframework s
D NA
n ings
ĠH ert
'' (
ĠT ool
th ouse
wit z
Ġhighlight ing
ĠP ars
ĠBi ography
ĠMig uel
T witter
}' \
ĠIs ing
Ġfrust rated
k ill
en ary
Ġover ride
ĠComp ared
( _
,- .
Ġflu ids
ĠViet namese
ĠIndones ian
Ġimprison ment
Ġde er
og gle
Ġtouc hes
6 40
s ho
ab stract
Ġoptim istic
Ġident ically
ĠWW E
K at
Ġrel ied
exp ression
ĠKit chen
ent on
ĠAl ien
Ġreb els
ĠDe rek
________ ________
Ġcong ru
A ff
Ġw itch
Ġstret ched
Exp ression
U k
f est
Ġs odium
Ġun rest
o S
ĠL opez
AN N
equiv ariant
Ġcomed ian
an ic
Ġrot ations
ĠPear son
Ġhe uristic
ĠAm anda
v ie
ns ic
w ald
cal ed
ON G
Ġarchitect s
UT H
ne ider
ug hed
24 4
ĠBe ast
Al umni
Ġ$< $
Ġsubscrib ers
n od
Ġdet ections
ĠObs erve
spect ra
anche z
ment ation
ĠHor izon
Ġd airy
ĠL G
Ġform ations
Ġlist ings
anda fter
Ġlisten ers
O x
\ :
Ġch ord
M g
Ġbra ve
3 90
Ġde let
Ġthe or
le arn
ĠLa unch
Ġansw ering
s ampling
Ġg odd
e rer
dis ciplinary
Ge org
)/ (
Ġst raw
ĠD ust
Ġen closed
ĠCom mit
Ġden ial
Ġaccident ally
Ġmir rors
ĠE van
bra ket
exp andafter
7 20
Ġaut umn
ĠTrans it
Ġdecom posed
Ġup ward
D IR
S Y
rit z
ĠNot re
uin ely
) &=\
P V
ĠÐ ¸
ram s
å ı
Ġp ier
ac ies
ĠFor ward
Ġmid night
Ġr ushed
Tex as
Ġstack ed
× Ķ
}\ !\
ĠDeg ree
Sche ma
ĠWy oming
Ñ ħ
qu bit
Ġext r
ĠBe havior
B ell
ang les
ograph ies
lif eration
ĠS G
ĠUE FA
Vis it
C irc
ĠN GO
24 9
Ġreact or
Ġsa fer
ĠCho ose
4 60
it ous
ors che
b ounds
ĠH ank
var nothing
r p
d rew
he ter
Ġk icks
} &=
ĠA dapt
ĠH ip
Ġser um
ĠCongress ional
ĠJo in
Ġredund ant
ĠR um
18 73
T en
Ġsuccess ion
Ġport able
Ġprocess ors
Ġlow ered
ĠFl u
Ġtouchdown s
Ġinsect s
ĠH iro
Ġhost ile
Ġre organ
R os
math ring
as se
ĠDra ke
Ġlapt op
{ +
ĠG em
ĠG erald
Ġt enth
Ġe rected
Ġne phe
- {
ĠRec re
ĠC ed
ure n
erc ise
[ ]{\
Ġt ire
Ġdial og
Ġtax i
ĠTim othy
ĠLes lie
Ġst un
}) (\
Ġ( {
ell ular
Ġcirc a
ĠSt ay
ph il
ap est
Ġorigin ating
ĠS eth
_+ (
rolog ical
ĠP iano
ĠN SF
open hagen
h alo
}\ ]
Ġall oc
Ġz oom
Den ote
Ġneur on
Count ry
Ġdis posal
ĠAngel a
Ġcontradict s
Ġmod elled
Ġdr ill
Ġmet ropolitan
Ġre per
Ġinter fe
Conn ell
exper iments
Ġc ran
ĠTra iler
ĠV arious
ov i
Ġapplic ant
Ð ±
ĠN amely
Ġbro ker
Ġse iz
ĠChurch ill
Ġhat red
ry n
Ġad hes
i ya
Ġint ric
ight y
ific ates
Ima ges
ale z
G ermany
Z ero
he ss
'' )
Ġserv ant
Ġaccount ability
Ġoccup y
sc attering
Ġreal ise
ĠMink owski
ĠB rent
by ter
Ġair ports
Bel ow
Ġbutt ons
Ġam ple
Ġra id
ĠMan ning
lass ical
bro ken
ĠMcC arthy
Ġsub urb
mb le
Ġret ention
Ġcar b
str ut
H erm
q n
if a
ke eping
Ġfix es
( ):
sm ash
Ġluminos ities
Dem ographics
s an
led on
arm ed
ĠS ig
18 57
ĠAv engers
m k
Sum mer
imens ional
W F
le f
ĠSouth west
ĠKenn y
ĠHind i
$ }.
ĠBut ter
! ,
ĠBrown s
Ġmeta phor
Ġf als
Ġfor wards
Ġn ested
Ġphon on
Ġannot ations
4 10
Const ruction
Ġin ability
Com pan
ĠJud a
Ġs her
Ġse aled
Ġsp ends
Ġadv ancing
se ver
irect ed
ar ians
normals ize
Ġ um
Ġexp ose
Ã¡ s
Ġspin ning
Pol y
... )
^* $-
Ġview point
EN S
Ġbal ancing
ĠS par
aint ed
È Ļ
ĠCr us
ucc i
S eg
e ref
18 69
Ġgu itars
Clim ate
Pr inc
Ġinstruct or
ion ization
Ġcho ir
chem ical
ĠEngine ers
Ġc ents
ip eg
ĠQ B
et able
Ġvacc ines
Ġc ope
co q
Ġbacter ial
ĠP I
Ġce ased
Ġcompar ative
Ġspok esperson
Ġb ats
Ġcon ject
Ġfilm maker
\, ,\
Ġf r
ĠT ouch
A mb
um atic
\ &
Ġincent ives
Ġ( *
Ġquestion ing
qu asi
Ġcon ceived
}{* }{\
Ġrel ocated
amm ad
ĠHamb urg
ĠSub ject
Ġevol ves
Ġpil grim
Ġd oses
Ġun cover
spec ified
am l
Ġpro x
ĠL iz
ag ne
Ġcondem ned
á ŀ
N atural
ĠT P
Ġlaugh ing
ĠAnn ie
Ġantib ody
ĠRe venue
Ġcompl iment
Spec ifically
Ġrecur rence
Ġkeyboard s
ochem ical
at io
Ġconvinc ing
ĠG aming
ĠStock holm
C ele
Ġvis a
Ġs q
}) }$
Ġautom ation
Ġtight ly
w at
b ench
eng es
Ġru ins
ĠCol umn
ĠðŁ ĻĤ
Ġrec ount
R andom
ĠP ine
ter ing
Ġrebu ilt
rib ing
Ġreal izations
ĠAdd ress
ĠPaul o
ĠT roy
Ġhil arious
30 7
t f
Wind ow
o que
Ġbur sts
3 12
Ġp ad
ib a
ĠMy anmar
ĠConfed erate
0 13
Ġd ile
Ġen sembles
rop a
Ġblog s
ĠEsp ecially
Ġrepos itory
part s
Ġrem ed
ĠBit coin
ĠH ERE
}) )$
m eter
Ġ[ (
n il
Ġtroub les
30 6
Ġdemonst rations
Ġfl ank
Ġsever ity
N H
ac ency
il inear
sh a
Ġem peror
ĠSp ons
ĠR iley
I rish
ĠL abel
ĠCal cul
Ġvict ories
ĠIn tern
Ġcan vas
ĠAll ied
Ġmist aken
ĠR he
Ġcomm utes
ins ert
ĠRe ich
Ġdeleg ation
Ġpro g
umber land
ĠKh al
zz o
Ġout ward
ĠAll an
IC A
st ill
Ġsell s
Writ er
b ag
Ġunder went
Ġment or
P erm
Ġbas ement
P en
l ier
small er
ĠCard iff
ĠA ch
ĠCo ffee
Ġgreen house
Ġthr illed
Ġpan ic
Ġrot ate
vect ive
og l
Ġmiss iles
Ġrem ix
PR O
ĠTh rones
$ },
ric hed
ane ously
Ġ ^{-
Ġfil ename
Ġcontract or
Ġsubt raction
ĠS ector
os ely
Ġclass ifiers
St op
t ogether
Ġserv ants
=" /
100 00
Up on
R h
ĠMal colm
ĠAtl as
ĠMan ila
pri or
Ġreminis cent
}[ (
Ġsuperg ravity
t xt
Ġmid field
ĠL on
18 59
Ġacadem y
W at
k r
Ġtun es
ch apter
ĠSecond ary
] );
ĠCh anges
) &\
Ġprefer ably
Ġcreat ors
ĠObl ast
ĠD IS
Ġfeas ibility
Ġdissol ved
ĠVen us
de bug
Ġ\ '
Ġreal izes
Ġstory line
ĠH ann
Ġrepe ating
ĠBright on
M ale
f its
An ti
it ism
Ġd ive
Ġannot ated
Ø ©
Ġr ushing
Ġste pping
ĠPers pect
MA X
R M
Ġgo alk
Ġdepos ited
ut ils
ĠAb stract
Eu Script
ĠCl aud
h un
Ġy r
ĠMon roe
ce y
Ġmid st
Ġb end
Ġm aid
ĠMal ta
à ¯
Ġspot light
ĠWars aw
Ġjust ification
] )$
Ġlit eral
2 18
Ġshock ing
Ġkinem atics
Ġro pe
D am
p ayer
)\ }$
ĠCon versely
eqn o
OP T
Ġt elesc
Ġw ished
Ġsom etime
Ġà¤ ķ
Ġassess ments
B rad
S NR
ĠZ amb
ĠBas in
ad al
iel sen
ĠMe h
maz ing
Ġproceed ing
ĠH BO
ĠD rop
Ġdel icate
prim ary
ĠR AF
Ġbl amed
ort heastern
Ġopp ose
Ġremark ably
le af
paramet ric
ĠRequ est
Ġcompet ent
R oad
Ġl ately
ĠBur ke
ĠM idd
ĠE asy
uc us
Ġtack les
ĠE RA
th ia
in de
ad ians
neg thinspace
um en
est inal
ug ging
w d
Ġmeant ime
ra k
id em
lem en
ĠShe ll
ĠCath olics
ĠMur der
Ġd oping
ĠG iant
ĠV C
Ġpe pt
Ġprosec utors
ĠCorn ell
ĠS Y
quir ies
O ption
Ġrecogn ise
) ^{(
b right
Ġgu ilt
Ġc ute
Ġfold ed
á º
ct x
Ġfresh man
b ind
ĠM TV
ĠB iden
Ġmus cles
Ġrecre ational
S on
à °
Ġst aged
Ġlik ewise
Ph ase
Ġinfect ious
E mb
Ġre habilitation
Ġth y
Ġmain land
R ot
Ġ& &\
ĠP SF
ĠCor ner
rateg y
G ET
Ġin take
to ol
C ro
Ġg am
W ild
R oy
ĠB end
Ġwh olly
Ġver dict
Ġlie utenant
$ [
contain s
z x
pro ving
Ġp ants
ast ings
ĠJoh annes
z ier
Ġapp le
print s
ug u
ĠExper imental
F ast
ul ance
Ġ< \
Ġfre ight
ĠUl tra
ic us
Ġto ured
Ġgen uinely
Ġmotor cycle
Ġslic es
ĠS ession
Ġsc rap
ĠS ue
ain es
Ġacadem ics
che wan
Ġopt ically
He ight
ĠMan it
ĠB ose
cat egories
Ðµ ÑĢ
Ġprob es
sh i
ĠF uk
med ium
Ġl od
ĠN T
Ġequ ilib
ĠR andy
})- (\
IL D
Ġb un
S and
L inear
am ura
}$ }\
or ov
11 11
25 3
ĠBe er
Ġflav ors
ot ive
pg f
o it
Ġa uth
Ġd ancer
ĠT S
ĠBra ves
}- {\
Ġdign ity
[...]
