{
  "version": "1.0",
  "truncation": null,
  "padding": null,
  "added_tokens": [
    {
      "id": 0,
      "content": "[UNK]",
      "single_word": false,
      "lstrip": false,
      "rstrip": false,
      "normalized": false,
      "special": true
    }
  ],
  "normalizer": null,
  "pre_tokenizer": {
    "type": "Sequence",
    "pretokenizers": [
      {
        "type": "Digits",
        "individual_digits": false
      },
      {
        "type": "ByteLevel",
        "add_prefix_space": false,
        "trim_offsets": true,
        "use_regex": true
      }
    ]
  },
  "post_processor": null,
  "decoder": null,
  "model": {
    "type": "BPE",
    "dropout": null,
    "unk_token": "[UNK]",
    "continuing_subword_prefix": null,
    "end_of_word_suffix": null,
    "fuse_unk": false,
    "byte_fallback": false,
    "vocab": {
      "[UNK]": 0,
      "!": 1,
      "\"": 2,
      "#": 3,
      "$": 4,
      "%": 5,
      "&": 6,
      "'": 7,
      "(": 8,
      ")": 9,
      "*": 10,
      "+": 11,
      ",": 12,
      "-": 13,
      ".": 14,
      "/": 15,
      "0": 16,
      "1": 17,
      "2": 18,
      "3": 19,
      "4": 20,
      "5": 21,
      "6": 22,
      "7": 23,
      "8": 24,
      "9": 25,
      ":": 26,
      ";": 27,
      "<": 28,
      "=": 29,
      ">": 30,
      "?": 31,
      "@": 32,
      "A": 33,
      "B": 34,
      "C": 35,
      "D": 36,
      "E": 37,
      "F": 38,
      "G": 39,
      "H": 40,
      "I": 41,
      "J": 42,
      "K": 43,
      "L": 44,
      "M": 45,
      "N": 46,
      "O": 47,
      "P": 48,
      "Q": 49,
      "R": 50,
      "S": 51,
      "T": 52,
      "U": 53,
      "V": 54,
      "W": 55,
      "X": 56,
      "Y": 57,
      "Z": 58,
      "[": 59,
      "\\": 60,
      "]": 61,
      "^": 62,
      "_": 63,
      "`": 64,
      "a": 65,
      "b": 66,
      "c": 67,
      "d": 68,
      "e": 69,
      "f": 70,
      "g": 71,
      "h": 72,
      "i": 73,
      "j": 74,
      "k": 75,
      "l": 76,
      "m": 77,
      "n": 78,
      "o": 79,
      "p": 80,
      "q": 81,
      "r": 82,
      "s": 83,
      "t": 84,
      "u": 85,
      "v": 86,
      "w": 87,
      "x": 88,
      "y": 89,
      "z": 90,
      "{": 91,
      "|": 92,
      "}": 93,
      "~": 94,
      "¡": 95,
      "¢": 96,
      "£": 97,
      "¤": 98,
      "¥": 99,
      "¦": 100,
      "§": 101,
      "¨": 102,
      "©": 103,
      "ª": 104,
      "«": 105,
      "¬": 106,
      "®": 107,
      "¯": 108,
      "°": 109,
      "±": 110,
      "²": 111,
      "³": 112,
      "´": 113,
      "µ": 114,
      "¶": 115,
      "·": 116,
      "¸": 117,
      "¹": 118,
      "º": 119,
      "»": 120,
      "¼": 121,
      "½": 122,
      "¾": 123,
      "¿": 124,
      "Â": 125,
      "Ã": 126,
      "Ä": 127,
      "Å": 128,
      "Æ": 129,
      "Ç": 130,
      "È": 131,
      "É": 132,
      "Ê": 133,
      "Ë": 134,
      "Ì": 135,
      "Í": 136,
      "Î": 137,
      "Ï": 138,
      "Ð": 139,
      "Ñ": 140,
      "Ò": 141,
      "Ó": 142,
      "Ô": 143,
      "Õ": 144,
      "Ö": 145,
      "×": 146,
      "Ø": 147,
      "Ù": 148,
      "Ú": 149,
      "Û": 150,
      "Ü": 151,
      "Ý": 152,
      "Þ": 153,
      "ß": 154,
      "à": 155,
      "á": 156,
      "â": 157,
      "ã": 158,
      "ä": 159,
      "å": 160,
      "æ": 161,
      "ç": 162,
      "è": 163,
      "é": 164,
      "ê": 165,
      "ë": 166,
      "ì": 167,
      "í": 168,
      "î": 169,
      "ï": 170,
      "ð": 171,
      "ñ": 172,
      "ó": 173,
      "ô": 174,
      "Ā": 175,
      "ā": 176,
      "Ă": 177,
      "ă": 178,
      "Ą": 179,
      "ą": 180,
      "Ć": 181,
      "ć": 182,
      "Ĉ": 183,
      "ĉ": 184,
      "Ċ": 185,
      "ċ": 186,
      "Č": 187,
      "č": 188,
      "Ď": 189,
      "ď": 190,
      "Đ": 191,
      "đ": 192,
      "Ē": 193,
      "ē": 194,
      "Ĕ": 195,
      "ĕ": 196,
      "Ė": 197,
      "ė": 198,
      "Ę": 199,
      "ę": 200,
      "Ě": 201,
      "ě": 202,
      "Ĝ": 203,
      "ĝ": 204,
      "Ğ": 205,
      "ğ": 206,
      "Ġ": 207,
      "ġ": 208,
      "Ģ": 209,
      "ģ": 210,
      "Ĥ": 211,
      "ĥ": 212,
      "Ħ": 213,
      "ħ": 214,
      "Ĩ": 215,
      "ĩ": 216,
      "Ī": 217,
      "ī": 218,
      "Ĭ": 219,
      "ĭ": 220,
      "Į": 221,
      "į": 222,
      "İ": 223,
      "ı": 224,
      "Ĳ": 225,
      "ĳ": 226,
      "Ĵ": 227,
      "ĵ": 228,
      "Ķ": 229,
      "ķ": 230,
      "ĸ": 231,
      "Ĺ": 232,
      "ĺ": 233,
      "Ļ": 234,
      "ļ": 235,
      "Ľ": 236,
      "ľ": 237,
      "Ŀ": 238,
      "ŀ": 239,
      "Ł": 240,
      "ł": 241,
      "Ń": 242,
      "Ġt": 243,
      "in": 244,
      "he": 245,
      "Ġa": 246,
      "on": 247,
      "re": 248,
      "Ġthe": 249,
      "er": 250,
      "at": 251,
      "Ġs": 252,
      "en": 253,
      "Ġo": 254,
      "it": 255,
      "or": 256,
      "al": 257,
      "is": 258,
      "an": 259,
      "Ġw": 260,
      "Ġc": 261,
      "ĠĠ": 262,
      "es": 263,
      "ar": 264,
      "Ġf": 265,
      "ed": 266,
      "ion": 267,
      "Ġan": 268,
      "Ġof": 269,
      "Ġp": 270,
      "Ġb": 271,
      "ing": 272,
      "Ġin": 273,
      "ic": 274,
      "le": 275,
      "ro": 276,
      "Ġand": 277,
      "Ġm": 278,
      "Ġd": 279,
      "Ġto": 280,
      "as": 281,
      "Ġ\\": 282,
      "ou": 283,
      "el": 284,
      "ct": 285,
      "Ġ$": 286,
      "ent": 287,
      "Ġh": 288,
      "Ġth": 289,
      "et": 290,
      "il": 291,
      "om": 292,
      "ig": 293,
      "st": 294,
      "Ġre": 295,
      "ra": 296,
      "Ġe": 297,
      "Ġn": 298,
      "ation": 299,
      "im": 300,
      "ĠT": 301,
      "Ġl": 302,
      "ĠS": 303,
      "ot": 304,
      "ol": 305,
      "ĠĠĠĠ": 306,
      "Ġis": 307,
      "am": 308,
      "âĢ": 309,
      "id": 310,
      "ve": 311,
      "ĠA": 312,
      "ĠC": 313,
      "Ġ(": 314,
      "ut": 315,
      "Ġg": 316,
      "ce": 317,
      "Ġfor": 318,
      "ly": 319,
      "{\\": 320,
      "un": 321,
      "ch": 322,
      "ow": 323,
      "us": 324,
      "ur": 325,
      "Ġon": 326,
      "ĠI": 327,
      "ver": 328,
      "ĠM": 329,
      "Ġbe": 330,
      "Ġthat": 331,
      "ul": 332,
      "ith": 333,
      "ad": 334,
      "Ġst": 335,
      "ay": 336,
      "se": 337,
      "ir": 338,
      "qu": 339,
      "ĠB": 340,
      "ab": 341,
      "ĠP": 342,
      "um": 343,
      "Ġwith": 344,
      "Ġas": 345,
      "Ġcon": 346,
      "em": 347,
      "20": 348,
      "_{": 349,
      "ter": 350,
      "od": 351,
      "if": 352,
      "Ġal": 353,
      "ĠH": 354,
      "ri": 355,
      "her": 356,
      "ĠF": 357,
      "Ġwe": 358,
      "eg": 359,
      "ath": 360,
      "Ġpro": 361,
      "ge": 362,
      "end": 363,
      "ĠR": 364,
      "ĠThe": 365,
      "ĠD": 366,
      "ist": 367,
      "igh": 368,
      "th": 369,
      "Ġ$\\": 370,
      "ĠW": 371,
      "Ġwh": 372,
      "ĠL": 373,
      "and": 374,
      "res": 375,
      "Ġit": 376,
      "ers": 377,
      "Ġby": 378,
      "ect": 379,
      "pp": 380,
      "ta": 381,
      "os": 382,
      "ity": 383,
      "math": 384,
      "Ġv": 385,
      "Ġat": 386,
      "ĠN": 387,
      "ac": 388,
      "Ġare": 389,
      "Ġcom": 390,
      "op": 391,
      "Ġex": 392,
      "ate": 393,
      "ĠG": 394,
      "rom": 395,
      "ore": 396,
      "Ġwas": 397,
      "ill": 398,
      "iv": 399,
      "est": 400,
      "ight": 401,
      "ĠE": 402,
      "Ġy": 403,
      "čĊ": 404,
      "ph": 405,
      "Ġde": 406,
      "ure": 407,
      "âĢĻ": 408,
      "art": 409,
      "Ġ&": 410,
      "oc": 411,
      "Ġhe": 412,
      "ĠĊ": 413,
      "ies": 414,
      "ew": 415,
      "19": 416,
      "}\\": 417,
      "ess": 418,
      "ction": 419,
      "Ġfrom": 420,
      "te": 421,
      "}$": 422,
      "ld": 423,
      "ub": 424,
      "Ġor": 425,
      "^{": 426,
      "up": 427,
      "ial": 428,
      "ma": 429,
      "ant": 430,
      "Ġse": 431,
      "oun": 432,
      "ive": 433,
      "ine": 434,
      "ment": 435,
      "ĠĠĠ": 436,
      "ak": 437,
      "ud": 438,
      "ĠJ": 439,
      "pt": 440,
      "ort": 441,
      "ite": 442,
      "all": 443,
      "Ġr": 444,
      "ĠĠĠĠĠĠĠĠ": 445,
      "ag": 446,
      "The": 447,
      "our": 448,
      "ĠO": 449,
      "ren": 450,
      "ave": 451,
      "pl": 452,
      "Ġsh": 453,
      "ref": 454,
      "Ġthis": 455,
      "ell": 456,
      "ĠâĢ": 457,
      "ich": 458,
      "Ġnot": 459,
      "Ġch": 460,
      "}}": 461,
      "Ġun": 462,
      "201": 463,
      "og": 464,
      "(\\": 465,
      "red": 466,
      "ical": 467,
      "Ġus": 468,
      "ĠIn": 469,
      "ard": 470,
      "ust": 471,
      "Ġsp": 472,
      "Ġle": 473,
      "rac": 474,
      "iz": 475,
      "ber": 476,
      "ft": 477,
      "per": 478,
      "ated": 479,
      "'s": 480,
      "Ġhave": 481,
      "xt": 482,
      "egin": 483,
      "ĠU": 484,
      "begin": 485,
      "Ġk": 486,
      "ff": 487,
      "Ġ=": 488,
      "ult": 489,
      "ec": 490,
      "int": 491,
      "ran": 492,
      "Ġcomp": 493,
      "orm": 494,
      "Ġcan": 495,
      "ition": 496,
      "ps": 497,
      "00": 498,
      "ast": 499,
      "ĠK": 500,
      "cal": 501,
      "Ġsu": 502,
      "_{\\": 503,
      "ear": 504,
      ")$": 505,
      "ign": 506,
      "ary": 507,
      "cl": 508,
      "ost": 509,
      "Ġpl": 510,
      "Ġ-": 511,
      "de": 512,
      "ass": 513,
      "der": 514,
      "ens": 515,
      "ations": 516,
      "ong": 517,
      "ide": 518,
      "ia": 519,
      "Ġres": 520,
      "ian": 521,
      "gh": 522,
      "Ġwhe": 523,
      "ue": 524,
      "Ġwhich": 525,
      "Ġab": 526,
      "..": 527,
      "ould": 528,
      "}{": 529,
      "Ġcl": 530,
      "Ġall": 531,
      "Ġhas": 532,
      "ther": 533,
      "du": 534,
      "ork": 535,
      "ap": 536,
      "ame": 537,
      "ain": 538,
      "ome": 539,
      "to": 540,
      "frac": 541,
      "ack": 542,
      "cc": 543,
      "eq": 544,
      "out": 545,
      "ip": 546,
      "ace": 547,
      "able": 548,
      "ous": 549,
      "ime": 550,
      "ok": 551,
      "),": 552,
      "av": 553,
      "rm": 554,
      "Ġim": 555,
      "ib": 556,
      "},": 557,
      "ĠV": 558,
      "Ġhis": 559,
      "age": 560,
      "ions": 561,
      "Ġj": 562,
      "act": 563,
      "equ": 564,
      "so": 565,
      "ence": 566,
      "right": 567,
      "cite": 568,
      "ase": 569,
      "ice": 570,
      "ds": 571,
      "Ġ\"": 572,
      "ik": 573,
      "the": 574,
      "ry": 575,
      "fe": 576,
      "text": 577,
      "Ġad": 578,
      ").": 579,
      "ru": 580,
      "Ġyou": 581,
      "Ġapp": 582,
      "ach": 583,
      "Ġme": 584,
      "abel": 585,
      "ĠTh": 586,
      "Ġone": 587,
      "ĠSt": 588,
      "ie": 589,
      "mathb": 590,
      "Ġen": 591,
      "con": 592,
      "are": 593,
      "form": 594,
      "Ġbut": 595,
      "ang": 596,
      "Ġwill": 597,
      "âĢĿ": 598,
      "ire": 599,
      "oll": 600,
      "ally": 601,
      "ely": 602,
      "200": 603,
      "10": 604,
      "ric": 605,
      "ĠCh": 606,
      "Ġper": 607,
      "$,": 608,
      "Ġpart": 609,
      "label": 610,
      "eta": 611,
      ",\\": 612,
      "Ġtheir": 613,
      "und": 614,
      "Ġout": 615,
      "$.": 616,
      "over": 617,
      "Ġdis": 618,
      "own": 619,
      "Ġcont": 620,
      "Ġalso": 621,
      "ance": 622,
      "ov": 623,
      "ents": 624,
      "In": 625,
      "ose": 626,
      "ind": 627,
      "wo": 628,
      "mathcal": 629,
      "equation": 630,
      "ory": 631,
      "erv": 632,
      "ree": 633,
      "ors": 634,
      "Ġne": 635,
      "Ġwere": 636,
      "Ġdo": 637,
      "ord": 638,
      "one": 639,
      "ark": 640,
      "})": 641,
      "feren": 642,
      "Ġqu": 643,
      "sp": 644,
      "row": 645,
      "Ġmore": 646,
      "}.": 647,
      "Ġmod": 648,
      "irst": 649,
      "Ġev": 650,
      "ress": 651,
      "Ġthey": 652,
      "ates": 653,
      "ish": 654,
      "ces": 655,
      "Ġar": 656,
      "left": 657,
      "ile": 658,
      "mer": 659,
      "}(": 660,
      "Ġup": 661,
      "tain": 662,
      "erm": 663,
      "com": 664,
      "clud": 665,
      "fig": 666,
      "we": 667,
      "ound": 668,
      "Ġits": 669,
      "Ġro": 670,
      "ĠY": 671,
      "}^": 672,
      "Ġother": 673,
      "rib": 674,
      "port": 675,
      "vers": 676,
      "Ġob": 677,
      "pro": 678,
      "Ġman": 679,
      "Ġwho": 680,
      "ll": 681,
      "ook": 682,
      "Ġso": 683,
      "~\\": 684,
      "}_": 685,
      "amb": 686,
      "ob": 687,
      "vel": 688,
      "Ġag": 689,
      "ĠâĢľ": 690,
      "very": 691,
      "Ġte": 692,
      "ener": 693,
      "Ġtwo": 694,
      "ount": 695,
      "ics": 696,
      "ove": 697,
      "Ġover": 698,
      "Ġif": 699,
      "pha": 700,
      "ep": 701,
      "Ġsc": 702,
      "ple": 703,
      "imes": 704,
      "Ġbeen": 705,
      "Ġsy": 706,
      "da": 707,
      "ĠAn": 708,
      "rit": 709,
      "ugh": 710,
      "Ġgo": 711,
      "alpha": 712,
      "Ġtime": 713,
      "ake": 714,
      "tern": 715,
      "Ġwork": 716,
      "Ġfirst": 717,
      "18": 718,
      "ĠIt": 719,
      "sum": 720,
      "ular": 721,
      "ks": 722,
      "Ġhad": 723,
      "line": 724,
      "ject": 725,
      "oint": 726,
      "ĉĉ": 727,
      "Ġabout": 728,
      "ĠĠĠĠĠĠĠ": 729,
      "ĠHe": 730,
      "Ġ+": 731,
      "Ġour": 732,
      "Ġnew": 733,
      "Ġthere": 734,
      "Ġher": 735,
      ")\\": 736,
      "ne": 737,
      "lic": 738,
      "ays": 739,
      "ys": 740,
      "Ġ|": 741,
      "Ġyear": 742,
      "cent": 743,
      "hat": 744,
      "mb": 745,
      "Ġthan": 746,
      "ings": 747,
      "hed": 748,
      "ĠUn": 749,
      "ution": 750,
      "ari": 751,
      "ike": 752,
      "Ġsa": 753,
      "fter": 754,
      "Ġbet": 755,
      "Ġdes": 756,
      "pe": 757,
      "ambda": 758,
      "elta": 759,
      "12": 760,
      "ĠWe": 761,
      "aus": 762,
      "$\\": 763,
      "Ġany": 764,
      "Ġdif": 765,
      "ational": 766,
      "ho": 767,
      "Ġsome": 768,
      "ollow": 769,
      "rans": 770,
      "vi": 771,
      "ater": 772,
      "Ġset": 773,
      "Ġwhen": 774,
      "Ġtra": 775,
      "Ġpre": 776,
      "Ġinto": 777,
      "ons": 778,
      "ond": 779,
      "iel": 780,
      "ram": 781,
      "amma": 782,
      "Ġwould": 783,
      "Ġonly": 784,
      "Ġwhere": 785,
      "ced": 786,
      "ans": 787,
      "Ġoff": 788,
      "lect": 789,
      "Ġacc": 790,
      "iss": 791,
      "urn": 792,
      "_\\": 793,
      "ual": 794,
      "Ġcons": 795,
      "ck": 796,
      "Ġexp": 797,
      "old": 798,
      "Ġsuch": 799,
      "les": 800,
      "Ġsub": 801,
      "ative": 802,
      "raph": 803,
      "app": 804,
      "Ġrel": 805,
      "Ġpe": 806,
      "ĠâĢĵ": 807,
      "mu": 808,
      "of": 809,
      "eth": 810,
      "Ġfun": 811,
      "ough": 812,
      "Ġint": 813,
      "--": 814,
      "ata": 815,
      "dition": 816,
      "ied": 817,
      "mathbb": 818,
      "Ġkn": 819,
      "Ġ\\\\": 820,
      "fin": 821,
      "ild": 822,
      "aw": 823,
      "stem": 824,
      "Ġreg": 825,
      "Ġfollow": 826,
      "=\\": 827,
      "ss": 828,
      "oth": 829,
      "}^{": 830,
      "}_{": 831,
      "dot": 832,
      "ating": 833,
      "ople": 834,
      "olog": 835,
      "Ġra": 836,
      "umber": 837,
      "ific": 838,
      "igma": 839,
      "ased": 840,
      "Ġcomm": 841,
      "ict": 842,
      "sub": 843,
      "Ġbec": 844,
      "Ġform": 845,
      "Ġ{": 846,
      "ix": 847,
      "ray": 848,
      "resent": 849,
      "Ġshow": 850,
      "Ġph": 851,
      "ĠThis": 852,
      "Ġmodel": 853,
      "Ġthen": 854,
      "-\\": 855,
      "Ġno": 856,
      "Ġunder": 857,
      "Ġfl": 858,
      "^{\\": 859,
      "Ġsim": 860,
      "ega": 861,
      "Ġinter": 862,
      "arg": 863,
      "rough": 864,
      "Ġpos": 865,
      "ick": 866,
      "ption": 867,
      "ities": 868,
      "ise": 869,
      "tt": 870,
      "Ġthem": 871,
      "ail": 872,
      "cre": 873,
      "Ġresult": 874,
      "11": 875,
      "Ġco": 876,
      "phi": 877,
      "ident": 878,
      "ween": 879,
      "Ġshe": 880,
      "ning": 881,
      "ility": 882,
      "Ġplay": 883,
      "Ġgener": 884,
      "Ġinclud": 885,
      "sc": 886,
      "Ġdist": 887,
      "Ġ<": 888,
      "round": 889,
      "Ġfe": 890,
      "Ġcor": 891,
      "15": 892,
      "ax": 893,
      "Ġdifferen": 894,
      "lambda": 895,
      "Ġ{\\": 896,
      "ince": 897,
      "oy": 898,
      "lem": 899,
      "Ġval": 900,
      "ures": 901,
      "Ġthese": 902,
      "ex": 903,
      "Ġact": 904,
      "Ġfin": 905,
      "pr": 906,
      "part": 907,
      "ox": 908,
      "ward": 909,
      "ts": 910,
      "Ġbetween": 911,
      "Ġbl": 912,
      "roup": 913,
      "Ġpol": 914,
      "ock": 915,
      "pos": 916,
      "Ġ[": 917,
      "bf": 918,
      "ments": 919,
      "ink": 920,
      "Ġinv": 921,
      "ĠĠĠĠĠĠĠĠĠĠĠĠĠĠĠĠ": 922,
      "als": 923,
      "ize": 924,
      "Ġequ": 925,
      "Ġprov": 926,
      "Ġsaid": 927,
      "Ġfunction": 928,
      "199": 929,
      "ited": 930,
      "Ġmay": 931,
      "til": 932,
      "Ġtrans": 933,
      "mathbf": 934,
      "its": 935,
      "Ġsystem": 936,
      "Ġstud": 937,
      "ron": 938,
      "ible": 939,
      "reat": 940,
      "Ġeff": 941,
      "Ġafter": 942,
      "ool": 943,
      "We": 944,
      "ection": 945,
      "ues": 946,
      "ower": 947,
      "ilon": 948,
      "Ġpeople": 949,
      "land": 950,
      "Ġlike": 951,
      "Ġmost": 952,
      "Ġrec": 953,
      "Ġwor": 954,
      "pi": 955,
      "ĠCom": 956,
      "Ġget": 957,
      "ug": 958,
      "Ġconst": 959,
      "psilon": 960,
      "hen": 961,
      "ause": 962,
      "Ġeach": 963,
      "section": 964,
      "16": 965,
      "ient": 966,
      "Ġam": 967,
      "Ġprob": 968,
      "uring": 969,
      ");": 970,
      "Ġgiv": 971,
      "Ġhow": 972,
      "ode": 973,
      "ins": 974,
      "ĠNew": 975,
      "Ġpoint": 976,
      "ĠRe": 977,
      "Ġsm": 978,
      "Ġuse": 979,
      "Ġwhat": 980,
      "ade": 981,
      "Ġprodu": 982,
      "sigma": 983,
      "Ġclass": 984,
      "Ġresp": 985,
      "=\"": 986,
      "13": 987,
      "cy": 988,
      "Th": 989,
      "Ġwell": 990,
      "Ġloc": 991,
      "ral": 992,
      "ting": 993,
      "}{\\": 994,
      "ism": 995,
      "ily": 996,
      "ield": 997,
      "Ġjust": 998,
      "Ġind": 999,
      "//": 1000,
      "set": 1001,
      "...": 1002,
      "arch": 1003,
      "17": 1004,
      "align": 1005,
      "^{-": 1006,
      "air": 1007,
      "uch": 1008,
      "io": 1009,
      "Ġmat": 1010,
      "Ġthrough": 1011,
      "Ġcol": 1012,
      "ĠPro": 1013,
      "Ġused": 1014,
      "sh": 1015,
      "Ġ(\\": 1016,
      "ator": 1017,
      "ivers": 1018,
      "ĠDe": 1019,
      "ĠAl": 1020,
      "elf": 1021,
      "Ġpar": 1022,
      "ature": 1023,
      "ruct": 1024,
      "Ġyour": 1025,
      "Ġsupp": 1026,
      "14": 1027,
      "beta": 1028,
      "Ġdata": 1029,
      "\\\\": 1030,
      "âĢĵ": 1031,
      "ton": 1032,
      "ner": 1033,
      "ists": 1034,
      "ull": 1035,
      "Ġback": 1036,
      "wid": 1037,
      "meric": 1038,
      "ĠFor": 1039,
      "Ġmy": 1040,
      "ublic": 1041,
      "mathrm": 1042,
      "Ġsee": 1043,
      "ty": 1044,
      "gamma": 1045,
      "Ġsol": 1046,
      "bar": 1047,
      "man": 1048,
      "ood": 1049,
      "ange": 1050,
      "Ġdifferent": 1051,
      "Ġappro": 1052,
      "ever": 1053,
      "Ġext": 1054,
      "*}": 1055,
      "Ġass": 1056,
      "Ġhim": 1057,
      "hes": 1058,
      "ted": 1059,
      "Ġent": 1060,
      "pend": 1061,
      "+\\": 1062,
      "riv": 1063,
      "Ġsign": 1064,
      "ized": 1065,
      "ote": 1066,
      "yn": 1067,
      "here": 1068,
      "Ġsur": 1069,
      "ract": 1070,
      "par": 1071,
      "rent": 1072,
      "ee": 1073,
      "uss": 1074,
      "Ġcase": 1075,
      "Ġcould": 1076,
      "wn": 1077,
      "min": 1078,
      "Ġnumber": 1079,
      "Ġ}": 1080,
      "ash": 1081,
      "amp": 1082,
      "Ġsame": 1083,
      "30": 1084,
      "Ġrep": 1085,
      "Ġspec": 1086,
      "^\\": 1087,
      "Ġyears": 1088,
      "rho": 1089,
      "]{": 1090,
      "ful": 1091,
      "Ġi": 1092,
      "ines": 1093,
      "ically": 1094,
      "delta": 1095,
      "Ġagain": 1096,
      "Ġest": 1097,
      "Ġcur": 1098,
      "irect": 1099,
      "cess": 1100,
      "oot": 1101,
      "rt": 1102,
      "25": 1103,
      "Ġhigh": 1104,
      "Ġpartic": 1105,
      "Ġpr": 1106,
      "theta": 1107,
      "ices": 1108,
      "oci": 1109,
      "Ġac": 1110,
      "Ġfil": 1111,
      "ĠEn": 1112,
      "Re": 1113,
      "Ġneed": 1114,
      "array": 1115,
      "ife": 1116,
      "ason": 1117,
      ")}": 1118,
      "Ġcomple": 1119,
      "Ġvari": 1120,
      "$-": 1121,
      "Ġbu": 1122,
      "Ġinst": 1123,
      "ier": 1124,
      "ey": 1125,
      "leq": 1126,
      "Ġnow": 1127,
      "tau": 1128,
      "ĠQ": 1129,
      "Ġend": 1130,
      "put": 1131,
      "velop": 1132,
      "Ġboth": 1133,
      "Ġevery": 1134,
      "chool": 1135,
      "Ġline": 1136,
      "cer": 1137,
      "erg": 1138,
      "Ġmin": 1139,
      "ization": 1140,
      "any": 1141,
      "Ġnon": 1142,
      "ring": 1143,
      "oh": 1144,
      "ĠCon": 1145,
      "uc": 1146,
      "fore": 1147,
      "other": 1148,
      "ars": 1149,
      "ĠZ": 1150,
      "rest": 1151,
      "ann": 1152,
      "Ġem": 1153,
      "Ġusing": 1154,
      "abl": 1155,
      "}$,": 1156,
      "cdot": 1157,
      "Ġx": 1158,
      "Ġfact": 1159,
      "}$.": 1160,
      "ider": 1161,
      "figure": 1162,
      "formation": 1163,
      "ah": 1164,
      "}(\\": 1165,
      "gan": 1166,
      "Ġdisc": 1167,
      "Ġgroup": 1168,
      "Ġmany": 1169,
      "ĠAs": 1170,
      "ision": 1171,
      "Ġdet": 1172,
      "Ġdec": 1173,
      "ample": 1174,
      "eng": 1175,
      "arge": 1176,
      "Ġed": 1177,
      "Ġbeing": 1178,
      "big": 1179,
      "Ġterm": 1180,
      "ĠAmeric": 1181,
      "</": 1182,
      "ĠSh": 1183,
      "Ġlead": 1184,
      "Ġthree": 1185,
      ".,": 1186,
      "Ġeven": 1187,
      "orn": 1188,
      "Ġoper": 1189,
      "ten": 1190,
      "ement": 1191,
      "for": 1192,
      "ute": 1193,
      "Ġcall": 1194,
      "Ġcent": 1195,
      "Ġserv": 1196,
      "arrow": 1197,
      "day": 1198,
      "Ġstate": 1199,
      "ined": 1200,
      "nu": 1201,
      "eqref": 1202,
      "Ġvery": 1203,
      "fl": 1204,
      "Ġbecause": 1205,
      "Ġright": 1206,
      "times": 1207,
      "ality": 1208,
      "ases": 1209,
      "Ġexper": 1210,
      "Ġatt": 1211,
      "cond": 1212,
      "Ġmem": 1213,
      "Ġknow": 1214,
      "Ġret": 1215,
      "ethod": 1216,
      "uth": 1217,
      "mm": 1218,
      "aking": 1219,
      "Ġbel": 1220,
      "ets": 1221,
      "Ġgiven": 1222,
      "irc": 1223,
      "item": 1224,
      "partial": 1225,
      "Ġwhile": 1226,
      "ively": 1227,
      "erson": 1228,
      "fty": 1229,
      "way": 1230,
      "ots": 1231,
      "Ġperform": 1232,
      "ĠX": 1233,
      "view": 1234,
      "'t": 1235,
      "198": 1236,
      "Ġlong": 1237,
      "amet": 1238,
      "ctions": 1239,
      "Ġeffect": 1240,
      "ross": 1241,
      "infty": 1242,
      ".âĢĿ": 1243,
      "ology": 1244,
      "pm": 1245,
      "50": 1246,
      "Ġrequ": 1247,
      "ĠĠĠĠĠ": 1248,
      "ames": 1249,
      "Ġser": 1250,
      "rat": 1251,
      "tle": 1252,
      "Ġty": 1253,
      "ected": 1254,
      "ional": 1255,
      "Ġmon": 1256,
      "tilde": 1257,
      "22": 1258,
      "Ġdefin": 1259,
      "Ġway": 1260,
      "pen": 1261,
      "Ġdoes": 1262,
      "Ġshould": 1263,
      "ants": 1264,
      "Ġfollowing": 1265,
      "Ġ||": 1266,
      "ather": 1267,
      "000": 1268,
      "Ġart": 1269,
      "iversity": 1270,
      "Ġdid": 1271,
      "eqn": 1272,
      "omega": 1273,
      "Ġfound": 1274,
      "21": 1275,
      "Ġpa": 1276,
      "ential": 1277,
      "âĢľ": 1278,
      "Ġ'": 1279,
      "ank": 1280,
      "Ġmade": 1281,
      "Ġorder": 1282,
      "quad": 1283,
      "get": 1284,
      "ĠSe": 1285,
      "ished": 1286,
      "St": 1287,
      "ĠLe": 1288,
      "arly": 1289,
      "Ġsmall": 1290,
      "Ġfam": 1291,
      "ĠCl": 1292,
      "ene": 1293,
      "sec": 1294,
      "Ġsing": 1295,
      "width": 1296,
      "Ġstart": 1297,
      "Ġcount": 1298,
      "work": 1299,
      "chn": 1300,
      "Ġmake": 1301,
      "Ġsecond": 1302,
      "az": 1303,
      "Ġ.": 1304,
      "ience": 1305,
      "Ġgu": 1306,
      "Ġthose": 1307,
      "led": 1308,
      "ved": 1309,
      "An": 1310,
      "Ġele": 1311,
      "|\\": 1312,
      "Ġ*": 1313,
      "ural": 1314,
      "24": 1315,
      "Ġexpl": 1316,
      "Ġbefore": 1317,
      "ĠSc": 1318,
      "ining": 1319,
      "Ġdevelop": 1320,
      "Delta": 1321,
      "ering": 1322,
      "ven": 1323,
      "ale": 1324,
      "Ġcre": 1325,
      "Ġanal": 1326,
      "overn": 1327,
      "ability": 1328,
      "inal": 1329,
      "Ġtr": 1330,
      "Ġz": 1331,
      "ouse": 1332,
      "2019": 1333,
      "serv": 1334,
      "ages": 1335,
      "Ġdef": 1336,
      "Ġdesc": 1337,
      "olds": 1338,
      "ulation": 1339,
      "rang": 1340,
      "col": 1341,
      "Ġduring": 1342,
      "ĠAnd": 1343,
      "ared": 1344,
      "Ġmed": 1345,
      "ency": 1346,
      "Ġchar": 1347,
      "Ġmuch": 1348,
      "ĠĠĠĠĠĠĠĠĠĠĠ": 1349,
      "orem": 1350,
      "hi": 1351,
      "space": 1352,
      "This": 1353,
      "aj": 1354,
      "iqu": 1355,
      "Ġprocess": 1356,
      "Ġlook": 1357,
      "2018": 1358,
      "Ġdown": 1359,
      "Ġsince": 1360,
      "var": 1361,
      "Ġcontin": 1362,
      "ters": 1363,
      "gram": 1364,
      "ness": 1365,
      "Ġresults": 1366,
      "\\,": 1367,
      "Ġlast": 1368,
      "Ġhel": 1369,
      "resp": 1370,
      "sim": 1371,
      "xi": 1372,
      "ca": 1373,
      "Ġworld": 1374,
      "rum": 1375,
      "Ġadd": 1376,
      "vent": 1377,
      "cept": 1378,
      "where": 1379,
      "Ġsl": 1380,
      "outh": 1381,
      "alth": 1382,
      "Ġref": 1383,
      "ired": 1384,
      "ually": 1385,
      "me": 1386,
      "Ġmethod": 1387,
      "ĠSp": 1388,
      "Ġsupport": 1389,
      "rid": 1390,
      "Ġpresent": 1391,
      "ek": 1392,
      "val": 1393,
      "hip": 1394,
      "}}\\": 1395,
      "els": 1396,
      "Ġfind": 1397,
      "by": 1398,
      "Ġvi": 1399,
      "Ġproblem": 1400,
      "It": 1401,
      "Ġdirect": 1402,
      "23": 1403,
      "Ġobtain": 1404,
      ")$.": 1405,
      "Ġmeas": 1406,
      "Ġhere": 1407,
      "read": 1408,
      "Ġposs": 1409,
      "Ġdi": 1410,
      "}[": 1411,
      "Ġgood": 1412,
      "ern": 1413,
      "Ġincre": 1414,
      "ives": 1415,
      "rix": 1416,
      "Ġread": 1417,
      "Ġteam": 1418,
      "Ġreal": 1419,
      "ission": 1420,
      "Ġfilm": 1421,
      "ĠAr": 1422,
      "197": 1423,
      "bers": 1424,
      "Ġ$(": 1425,
      "ĠIs": 1426,
      "au": 1427,
      "rong": 1428,
      "Ġenerg": 1429,
      "Ġhand": 1430,
      "orth": 1431,
      "Ġown": 1432,
      "Ġmass": 1433,
      "ww": 1434,
      "Ġcar": 1435,
      "ert": 1436,
      "ury": 1437,
      "ital": 1438,
      "ĠHow": 1439,
      "Ġfield": 1440,
      "alk": 1441,
      "mber": 1442,
      "rel": 1443,
      "Ġpres": 1444,
      "ane": 1445,
      "ious": 1446,
      "Ġgra": 1447,
      "ffic": 1448,
      "not": 1449,
      "epsilon": 1450,
      "ĠAd": 1451,
      "ration": 1452,
      "Ġrele": 1453,
      "arl": 1454,
      "Ġstat": 1455,
      ".\"": 1456,
      "iness": 1457,
      "eqnarray": 1458,
      "Ġinformation": 1459,
      "ĠBl": 1460,
      "Ġcommun": 1461,
      "Ġu": 1462,
      "Ġcondition": 1463,
      "arn": 1464,
      "ke": 1465,
      "ĠOn": 1466,
      "Ġparamet": 1467,
      "Ġpublic": 1468,
      "ves": 1469,
      "ified": 1470,
      "son": 1471,
      "}_{\\": 1472,
      "arm": 1473,
      "gg": 1474,
      "Ġmain": 1475,
      "Ġstill": 1476,
      "ior": 1477,
      "err": 1478,
      "etwork": 1479,
      "usic": 1480,
      "Ġrun": 1481,
      "sq": 1482,
      "omen": 1483,
      "$$": 1484,
      "less": 1485,
      "akes": 1486,
      "Om": 1487,
      "Ġwrit": 1488,
      "2017": 1489,
      "Ġmult": 1490,
      "Ġrepresent": 1491,
      "ina": 1492,
      "ball": 1493,
      "Ġtop": 1494,
      "ĠInd": 1495,
      "terest": 1496,
      "Ġrespect": 1497,
      "Ġaround": 1498,
      "40": 1499,
      "Ġrem": 1500,
      "Ġtake": 1501,
      "Ġmet": 1502,
      "ley": 1503,
      "be": 1504,
      "Ġreport": 1505,
      "For": 1506,
      "vious": 1507,
      "ource": 1508,
      "ĠUniversity": 1509,
      "rol": 1510,
      "rop": 1511,
      "let": 1512,
      "Ġproper": 1513,
      "Ġspace": 1514,
      "Ġelect": 1515,
      "agn": 1516,
      "ĠCol": 1517,
      "vert": 1518,
      "Ġstand": 1519,
      "ense": 1520,
      "ohn": 1521,
      "ĠFig": 1522,
      "Ġincluding": 1523,
      "Ġgl": 1524,
      "psi": 1525,
      "Ġfour": 1526,
      "2016": 1527,
      ",âĢĿ": 1528,
      "Omega": 1529,
      "Ġlarge": 1530,
      "includ": 1531,
      "Ġlim": 1532,
      "anc": 1533,
      "://": 1534,
      "ĠPh": 1535,
      "Ex": 1536,
      "Ġagainst": 1537,
      "Ġpop": 1538,
      "^*": 1539,
      "eb": 1540,
      "Ġdistrib": 1541,
      "Ġav": 1542,
      "Ġthink": 1543,
      "Ġpower": 1544,
      "Ġhelp": 1545,
      "Ġopen": 1546,
      "ĠIf": 1547,
      "Gamma": 1548,
      ")$,": 1549,
      "Ġdon": 1550,
      "oss": 1551,
      "Ġobserv": 1552,
      "Ġvalue": 1553,
      "Ġprovid": 1554,
      "ĠShe": 1555,
      "angle": 1556,
      "Ġcharact": 1557,
      "itive": 1558,
      "Ġreturn": 1559,
      "Ġlit": 1560,
      "urther": 1561,
      "Ġwant": 1562,
      "Ġconsider": 1563,
      "Ġinde": 1564,
      "ety": 1565,
      "Ġimport": 1566,
      "Ġpat": 1567,
      "gl": 1568,
      "Ġallow": 1569,
      "Ġbound": 1570,
      "Ġenergy": 1571,
      "rodu": 1572,
      "mit": 1573,
      "ger": 1574,
      "Ġlocal": 1575,
      "As": 1576,
      "ĠčĊ": 1577,
      "utions": 1578,
      "60": 1579,
      "ived": 1580,
      "olution": 1581,
      "raw": 1582,
      "sqrt": 1583,
      "ER": 1584,
      "Ġlevel": 1585,
      "ole": 1586,
      "ĠâĢĶ": 1587,
      "ris": 1588,
      "Ġthough": 1589,
      "Ġ/": 1590,
      "27": 1591,
      "Ġrest": 1592,
      "Ġgeneral": 1593,
      "vare": 1594,
      "ĠPl": 1595,
      "Ġmark": 1596,
      "ĠAmerican": 1597,
      "Ġdesign": 1598,
      "Ġstruct": 1599,
      "bm": 1600,
      "Ġlife": 1601,
      "ĠMay": 1602,
      "Ġvis": 1603,
      "Ġche": 1604,
      "Ġsay": 1605,
      "usiness": 1606,
      "Ġident": 1607,
      "raphics": 1608,
      "Ġ:": 1609,
      "28": 1610,
      "Ġve": 1611,
      "une": 1612,
      "ĠBut": 1613,
      "med": 1614,
      "Ġbest": 1615,
      "varepsilon": 1616,
      "ober": 1617,
      "Ġopt": 1618,
      "Ġassum": 1619,
      "ately": 1620,
      "ially": 1621,
      "Ġbased": 1622,
      "rand": 1623,
      "rem": 1624,
      "Ġtest": 1625,
      "ĠUnited": 1626,
      "2015": 1627,
      "ember": 1628,
      "Ġ${\\": 1629,
      "mbol": 1630,
      "co": 1631,
      "Ġhist": 1632,
      "Ġsom": 1633,
      "rist": 1634,
      "subsection": 1635,
      "ĠMar": 1636,
      "Ġperson": 1637,
      "ret": 1638,
      "Ġrad": 1639,
      "Con": 1640,
      "enn": 1641,
      "textbf": 1642,
      "}^{\\": 1643,
      "Ġinterest": 1644,
      "rightarrow": 1645,
      "ĠEx": 1646,
      "Ġtechn": 1647,
      "Ġgame": 1648,
      "Ġdescrib": 1649,
      "Ġbas": 1650,
      "ody": 1651,
      "fra": 1652,
      "ording": 1653,
      "Ġlet": 1654,
      "\">": 1655,
      "Ġorig": 1656,
      "side": 1657,
      ")=": 1658,
      "26": 1659,
      "Ġcour": 1660,
      "yle": 1661,
      "atch": 1662,
      "Ġmov": 1663,
      "rict": 1664,
      "Ġproject": 1665,
      "bl": 1666,
      "umn": 1667,
      "ify": 1668,
      "ferences": 1669,
      "uro": 1670,
      "ctor": 1671,
      "2014": 1672,
      "ĠâĢĺ": 1673,
      "^{(": 1674,
      "ised": 1675,
      "ĠTe": 1676,
      "orld": 1677,
      "Ġprogram": 1678,
      "}=": 1679,
      "overnment": 1680,
      "imens": 1681,
      "Ġel": 1682,
      "Ġabove": 1683,
      "Ġ,": 1684,
      "âĢ¦": 1685,
      "ĠWh": 1686,
      "Ġchild": 1687,
      "inc": 1688,
      "He": 1689,
      "aving": 1690,
      "Ġlaw": 1691,
      "Ġprof": 1692,
      "Ġbeh": 1693,
      "Ġschool": 1694,
      "Ġtri": 1695,
      "Ġknown": 1696,
      "Ġscal": 1697,
      "Ġcal": 1698,
      "Ã©": 1699,
      "ival": 1700,
      "Ġ\\,": 1701,
      "Ġcorresp": 1702,
      "ithm": 1703,
      "Ġbook": 1704,
      "iam": 1705,
      "ilar": 1706,
      "bs": 1707,
      "iver": 1708,
      "Ch": 1709,
      "100": 1710,
      "Ġrece": 1711,
      "Ġleft": 1712,
      "Ġmeasure": 1713,
      "ĠRes": 1714,
      "tal": 1715,
      "Ġpass": 1716,
      "Ġcle": 1717,
      "Ġwithin": 1718,
      "por": 1719,
      "ccess": 1720,
      "illion": 1721,
      "Ġdem": 1722,
      "ym": 1723,
      "egraphics": 1724,
      "Ġaddition": 1725,
      "includegraphics": 1726,
      "29": 1727,
      "ott": 1728,
      "Ġday": 1729,
      "ensure": 1730,
      "Ġexample": 1731,
      "oad": 1732,
      "Ġpost": 1733,
      "Ġtem": 1734,
      "Ġlist": 1735,
      "Ġparticular": 1736,
      "ĠThey": 1737,
      "Ġmust": 1738,
      "ST": 1739,
      "ium": 1740,
      "cm": 1741,
      "reen": 1742,
      "umer": 1743,
      "Ġestim": 1744,
      "))": 1745,
      "caption": 1746,
      "ĠĠĊ": 1747,
      "ubl": 1748,
      "Ġplace": 1749,
      "Ġsat": 1750,
      "urs": 1751,
      "rangle": 1752,
      "**": 1753,
      "Ġcurrent": 1754,
      "Ġimp": 1755,
      "Ġsup": 1756,
      "ories": 1757,
      "Ġrema": 1758,
      "2013": 1759,
      "Ġinteg": 1760,
      "Ġname": 1761,
      "Ġconf": 1762,
      "Ġinvest": 1763,
      "Ġwithout": 1764,
      "ĠAll": 1765,
      "Ġcontain": 1766,
      "Ġfamily": 1767,
      "def": 1768,
      "gor": 1769,
      "Ġsum": 1770,
      "chi": 1771,
      "ges": 1772,
      "yl": 1773,
      "Ġden": 1774,
      "Ġnetwork": 1775,
      "ript": 1776,
      "rad": 1777,
      "Ġanother": 1778,
      "ĠJohn": 1779,
      "Ġnear": 1780,
      "ths": 1781,
      "Ġiss": 1782,
      "Ġhead": 1783,
      "Ġbro": 1784,
      "ination": 1785,
      "ĠBe": 1786,
      "Ġgreat": 1787,
      "Ġfew": 1788,
      "Ġet": 1789,
      "ternal": 1790,
      "''": 1791,
      "ope": 1792,
      "emph": 1793,
      "Ġalong": 1794,
      "Ġbuild": 1795,
      "wh": 1796,
      "ĠTo": 1797,
      "Ġdue": 1798,
      "Ġinc": 1799,
      "rack": 1800,
      "non": 1801,
      "osed": 1802,
      "ivid": 1803,
      "Ġcomput": 1804,
      "oid": 1805,
      "ĠCent": 1806,
      "ograph": 1807,
      "aim": 1808,
      "Ġnext": 1809,
      ".~\\": 1810,
      "ird": 1811,
      "sk": 1812,
      "ways": 1813,
      "2012": 1814,
      "Ġcalled": 1815,
      "uthor": 1816,
      "ention": 1817,
      "Ġprot": 1818,
      "Ġsingle": 1819,
      "Ġstudy": 1820,
      "geq": 1821,
      "tab": 1822,
      "varphi": 1823,
      "ĠUS": 1824,
      "aces": 1825,
      "Ġocc": 1826,
      "Ġdiscuss": 1827,
      "lim": 1828,
      "Ġwin": 1829,
      "\",": 1830,
      "Ġadv": 1831,
      "ternational": 1832,
      "Ġorgan": 1833,
      "IN": 1834,
      "Ġcap": 1835,
      "Ġlow": 1836,
      "Ġconn": 1837,
      "Ġcare": 1838,
      "ij": 1839,
      "Ġinit": 1840,
      "ĠCan": 1841,
      "ormal": 1842,
      "Ġfre": 1843,
      "Ġredu": 1844,
      "Ġpot": 1845,
      "45": 1846,
      "Ġspect": 1847,
      "Ġturn": 1848,
      "ampl": 1849,
      "Ġhy": 1850,
      "iod": 1851,
      "Ġhum": 1852,
      "Ġann": 1853,
      "proof": 1854,
      "ajor": 1855,
      "Ġseries": 1856,
      "overline": 1857,
      "Ġshown": 1858,
      "Ġmean": 1859,
      "Ġlater": 1860,
      "refore": 1861,
      "ĠHowever": 1862,
      "Ġke": 1863,
      "Ġ>": 1864,
      "196": 1865,
      "ery": 1866,
      "gorithm": 1867,
      "&\\": 1868,
      "pendent": 1869,
      "Ġdeterm": 1870,
      "Ġdel": 1871,
      "ĠAt": 1872,
      "AR": 1873,
      "AT": 1874,
      "etail": 1875,
      "ators": 1876,
      "mod": 1877,
      "Ġbre": 1878,
      "ero": 1879,
      "aps": 1880,
      "log": 1881,
      "ensity": 1882,
      "ries": 1883,
      "Ġvalues": 1884,
      "Ġcho": 1885,
      "âĢĶ": 1886,
      "iving": 1887,
      "Ġ--": 1888,
      "References": 1889,
      ")^": 1890,
      "position": 1891,
      "imal": 1892,
      "icle": 1893,
      ".}": 1894,
      "urch": 1895,
      "ians": 1896,
      "oard": 1897,
      "2011": 1898,
      "Ġcharacter": 1899,
      "Ġopp": 1900,
      "ĠOr": 1901,
      "2010": 1902,
      "35": 1903,
      "atic": 1904,
      "Ġrese": 1905,
      "ysis": 1906,
      "Ġlarg": 1907,
      "ĠStates": 1908,
      "ĠFran": 1909,
      "Ġhig": 1910,
      "stand": 1911,
      "Ġseason": 1912,
      "ploy": 1913,
      "Ġgoing": 1914,
      "ON": 1915,
      "Ġimportant": 1916,
      "Ġsimilar": 1917,
      "lection": 1918,
      "Ġsever": 1919,
      "Ġide": 1920,
      "Ġshows": 1921,
      "wards": 1922,
      "----": 1923,
      "Ġwon": 1924,
      "ification": 1925,
      "Ġleg": 1926,
      "ĠYou": 1927,
      "},\\": 1928,
      "ai": 1929,
      "ocial": 1930,
      "Ġgrow": 1931,
      "Big": 1932,
      "use": 1933,
      "che": 1934,
      "apt": 1935,
      "etic": 1936,
      "Ġterms": 1937,
      "Ġlat": 1938,
      "Ġhome": 1939,
      "Let": 1940,
      "face": 1941,
      "ients": 1942,
      "Ġpred": 1943,
      "Ġstrong": 1944,
      "istic": 1945,
      "Ġless": 1946,
      "ĠJu": 1947,
      "ĠComm": 1948,
      "Ġsays": 1949,
      "Ġobject": 1950,
      "ĠJan": 1951,
      "Ġquant": 1952,
      "see": 1953,
      "ream": 1954,
      "Ġproduct": 1955,
      "atures": 1956,
      "ison": 1957,
      "Ġaff": 1958,
      "ble": 1959,
      "xim": 1960,
      "riend": 1961,
      "ference": 1962,
      "ĠMan": 1963,
      "Ġ`": 1964,
      "}).": 1965,
      "Ġtoo": 1966,
      "ental": 1967,
      "Ġmodels": 1968,
      "ailable": 1969,
      "Ġdom": 1970,
      "Ġseveral": 1971,
      "ymbol": 1972,
      "Ġsection": 1973,
      "Ġfollows": 1974,
      "Ġpossible": 1975,
      "Ġsk": 1976,
      "Ġpoints": 1977,
      "Ġsit": 1978,
      "[\\": 1979,
      "ĠCount": 1980,
      "back": 1981,
      "frak": 1982,
      "vec": 1983,
      "Ġpolit": 1984,
      "Ġreally": 1985,
      "ĠThere": 1986,
      "iron": 1987,
      "Ġchang": 1988,
      "ĠWorld": 1989,
      "li": 1990,
      "play": 1991,
      "Ġappear": 1992,
      "ivity": 1993,
      "Ġoffic": 1994,
      "Ġplan": 1995,
      "Pro": 1996,
      "Ġview": 1997,
      "Ġcontinu": 1998,
      "Ġarea": 1999,
      "ances": 2000,
      "hline": 2001,
      "mmet": 2002,
      "Ġtype": 2003,
      "Ġquest": 2004,
      "Ġmusic": 2005,
      "Ġeas": 2006,
      "ably": 2007,
      "Ġfull": 2008,
      "ĠNational": 2009,
      "cul": 2010,
      "Ġbusiness": 2011,
      "Ġcou": 2012,
      "Ġcorrespond": 2013,
      "33": 2014,
      "ask": 2015,
      "Ġvers": 2016,
      "ĠCo": 2017,
      "Ġphot": 2018,
      "omet": 2019,
      "ither": 2020,
      "Ġcrit": 2021,
      "ĠYork": 2022,
      "....": 2023,
      "idd": 2024,
      "reg": 2025,
      "esp": 2026,
      "80": 2027,
      "plit": 2028,
      "Lambda": 2029,
      "}}$": 2030,
      "ĠÂ": 2031,
      "Ġbetter": 2032,
      "ences": 2033,
      "ney": 2034,
      "ynam": 2035,
      "Ġchange": 2036,
      "ead": 2037,
      "Ġpotential": 2038,
      "bra": 2039,
      "Ġla": 2040,
      "orph": 2041,
      "Ġhapp": 2042,
      "Ġassoci": 2043,
      "oor": 2044,
      "ended": 2045,
      "ered": 2046,
      "Ġcomb": 2047,
      "On": 2048,
      "Ġold": 2049,
      "AS": 2050,
      "isf": 2051,
      "ister": 2052,
      "Ġfree": 2053,
      "Ġevent": 2054,
      "By": 2055,
      "Ġrecent": 2056,
      "ule": 2057,
      "Ġposition": 2058,
      "Ġprevious": 2059,
      "Al": 2060,
      "inks": 2061,
      "Ġdefined": 2062,
      "self": 2063,
      "Ġleast": 2064,
      "ression": 2065,
      "oper": 2066,
      "ĠPol": 2067,
      "Ġcontrol": 2068,
      "Ġintrodu": 2069,
      "ique": 2070,
      "plic": 2071,
      "urb": 2072,
      "ights": 2073,
      "fer": 2074,
      "bolds": 2075,
      "Ġexist": 2076,
      "Ġmom": 2077,
      "Ġdepend": 2078,
      "Ġtimes": 2079,
      "ldots": 2080,
      "mathfrak": 2081,
      "AN": 2082,
      "ĠNo": 2083,
      "new": 2084,
      "langle": 2085,
      "ĠGe": 2086,
      "boldsymbol": 2087,
      "osp": 2088,
      "ift": 2089,
      "with": 2090,
      "comm": 2091,
      "Ġuntil": 2092,
      "Ġimpro": 2093,
      "ĠApr": 2094,
      "ored": 2095,
      "ĠAust": 2096,
      "aster": 2097,
      "Ġcontrib": 2098,
      "ertain": 2099,
      "ĠOct": 2100,
      "90": 2101,
      "ling": 2102,
      "Ġcat": 2103,
      "ength": 2104,
      "ument": 2105,
      "Ġseem": 2106,
      "Ġder": 2107,
      "sf": 2108,
      "Ġgovernment": 2109,
      "ĠAug": 2110,
      "Ġweek": 2111,
      "Ġsuccess": 2112,
      "ged": 2113,
      "urope": 2114,
      "alf": 2115,
      "Com": 2116,
      "action": 2117,
      "Ġdistribution": 2118,
      "ising": 2119,
      "Ġavailable": 2120,
      "Ġbig": 2121,
      "stit": 2122,
      "Ġspe": 2123,
      "Ġcompany": 2124,
      "gin": 2125,
      "Ġmanag": 2126,
      "Ġsignific": 2127,
      "2009": 2128,
      "Ġeng": 2129,
      "Ġperiod": 2130,
      "):": 2131,
      "Ġbelie": 2132,
      "otimes": 2133,
      "If": 2134,
      "appa": 2135,
      "Ġmajor": 2136,
      "Ġnever": 2137,
      "Ġput": 2138,
      "oman": 2139,
      "Ġdeg": 2140,
      "Ġtotal": 2141,
      "ĠThen": 2142,
      "Ġhard": 2143,
      "duct": 2144,
      "Ġstructure": 2145,
      "ched": 2146,
      "Ġfurther": 2147,
      "ude": 2148,
      "Ġmagn": 2149,
      "ensuremath": 2150,
      "angu": 2151,
      "Ġestabl": 2152,
      "ĠJuly": 2153,
      "conom": 2154,
      "Phi": 2155,
      "Ġmight": 2156,
      "ocus": 2157,
      "ĠChrist": 2158,
      "ĠSchool": 2159,
      "ape": 2160,
      "ĠWar": 2161,
      "ush": 2162,
      "Ġstates": 2163,
      "upp": 2164,
      "citep": 2165,
      "Ġfinal": 2166,
      "ological": 2167,
      "no": 2168,
      "uck": 2169,
      "Ġalways": 2170,
      "Ġdetail": 2171,
      "ources": 2172,
      "ĠMarch": 2173,
      "2008": 2174,
      "org": 2175,
      "Ġside": 2176,
      "Ġsize": 2177,
      "uary": 2178,
      "Ġband": 2179,
      "Ġfoot": 2180,
      "bum": 2181,
      "clus": 2182,
      "05": 2183,
      "Ġinvol": 2184,
      "OR": 2185,
      "oung": 2186,
      "Ġshort": 2187,
      "eps": 2188,
      "Ġland": 2189,
      "Ġtyp": 2190,
      "31": 2191,
      "Ġcost": 2192,
      "Ġstandard": 2193,
      "Ġatta": 2194,
      "error": 2195,
      "mp": 2196,
      "lin": 2197,
      "32": 2198,
      "ruction": 2199,
      "Ġearly": 2200,
      "ĠGu": 2201,
      "ĠJune": 2202,
      "Ġapplic": 2203,
      "ux": 2204,
      "To": 2205,
      "mbox": 2206,
      "name": 2207,
      "Ġaver": 2208,
      "rim": 2209,
      "ĠMin": 2210,
      "ixed": 2211,
      "ES": 2212,
      "uture": 2213,
      "Ġstory": 2214,
      "ĠSec": 2215,
      "textit": 2216,
      "Ġplayers": 2217,
      "obal": 2218,
      "ĠFl": 2219,
      "ĠBy": 2220,
      "Ġaut": 2221,
      "ĠAir": 2222,
      "})$": 2223,
      "Ġpaper": 2224,
      "Ġwomen": 2225,
      "ields": 2226,
      "Ġperformance": 2227,
      "cit": 2228,
      "cur": 2229,
      "ĠMed": 2230,
      "Ġsatisf": 2231,
      "ĠMon": 2232,
      "subset": 2233,
      "Ġinclude": 2234,
      "Ġlight": 2235,
      "ttp": 2236,
      "Ġphys": 2237,
      "though": 2238,
      "Ġins": 2239,
      "ĉĉĉĉ": 2240,
      ".\\": 2241,
      "circ": 2242,
      "sm": 2243,
      "kappa": 2244,
      "ĠSouth": 2245,
      "Ġmot": 2246,
      "idence": 2247,
      "dis": 2248,
      "Ġvol": 2249,
      "Ġdev": 2250,
      "wide": 2251,
      "ales": 2252,
      "Ġapproach": 2253,
      "ĠWith": 2254,
      "ething": 2255,
      "ler": 2256,
      "Ġcome": 2257,
      "ĠCar": 2258,
      "viron": 2259,
      "ipp": 2260,
      "195": 2261,
      "ches": 2262,
      "75": 2263,
      "ĠBrit": 2264,
      "pd": 2265,
      "Ġ#": 2266,
      "Ġrecord": 2267,
      "center": 2268,
      "Ġcomplex": 2269,
      "Ġexperim": 2270,
      "Ġcell": 2271,
      "Ġprom": 2272,
      "ĠState": 2273,
      "36": 2274,
      "posed": 2275,
      "Ġfac": 2276,
      "nabl": 2277,
      "ĠLet": 2278,
      "01": 2279,
      "sequ": 2280,
      "Ġgive": 2281,
      "ĠCity": 2282,
      "ĠSte": 2283,
      "ĠEurope": 2284,
      "Ġhealth": 2285,
      "ague": 2286,
      "imum": 2287,
      "bit": 2288,
      "af": 2289,
      "Ġcity": 2290,
      "Ġrate": 2291,
      "thing": 2292,
      "ilit": 2293,
      "Ġlik": 2294,
      "Ġmove": 2295,
      "ĠApp": 2296,
      "ĠSo": 2297,
      "Un": 2298,
      "ideo": 2299,
      "Ġseen": 2300,
      "ster": 2301,
      "Ġprovide": 2302,
      "II": 2303,
      "}),": 2304,
      "Ġself": 2305,
      "Ġmeans": 2306,
      "nonumber": 2307,
      "Ġanalysis": 2308,
      "Ġmembers": 2309,
      "48": 2310,
      "Ġmax": 2311,
      "mat": 2312,
      "ptember": 2313,
      "mult": 2314,
      "Ġsequ": 2315,
      "Ġcompon": 2316,
      "Ġcountry": 2317,
      "Ġsolution": 2318,
      "Ġregion": 2319,
      "ĠApril": 2320,
      "Ġsignificant": 2321,
      "ino": 2322,
      "asing": 2323,
      "99": 2324,
      "Ġobtained": 2325,
      "nabla": 2326,
      "most": 2327,
      "Ġalgorithm": 2328,
      "ties": 2329,
      "ĠCal": 2330,
      "ready": 2331,
      "Ġindic": 2332,
      "==": 2333,
      "empt": 2334,
      "icy": 2335,
      "Ġapproxim": 2336,
      "\".": 2337,
      "Ġtheory": 2338,
      "ours": 2339,
      "Ġaction": 2340,
      "ĠMc": 2341,
      "uation": 2342,
      "iple": 2343,
      "aken": 2344,
      "\\%": 2345,
      "Ġant": 2346,
      "ones": 2347,
      "ently": 2348,
      "ats": 2349,
      "ividual": 2350,
      "ĠCounty": 2351,
      "ev": 2352,
      "70": 2353,
      "ourn": 2354,
      "odes": 2355,
      "ĠFeb": 2356,
      "Ġrange": 2357,
      "Ġpredict": 2358,
      "Ġclaim": 2359,
      "ground": 2360,
      "Ġpract": 2361,
      ",\"": 2362,
      "dots": 2363,
      "esc": 2364,
      "eting": 2365,
      "Ġlimit": 2366,
      "exp": 2367,
      "ĠWill": 2368,
      "ials": 2369,
      "Ġfar": 2370,
      "Ġdeath": 2371,
      "lege": 2372,
      "Ġsong": 2373,
      "Ġsystems": 2374,
      "}}{": 2375,
      "34": 2376,
      "ables": 2377,
      "ung": 2378,
      "Ġcover": 2379,
      "tr": 2380,
      "Ġcoll": 2381,
      "Ġlittle": 2382,
      "ĠĠĠĠĠĠĠĠĠĠĠĠĠĠĠ": 2383,
      "Ġwater": 2384,
      "Ġamong": 2385,
      "wit": 2386,
      "Ġarg": 2387,
      "ĠEd": 2388,
      "Ġbecome": 2389,
      "Ġoften": 2390,
      "\\|": 2391,
      "Ġrelations": 2392,
      "ht": 2393,
      "Ġacross": 2394,
      "roll": 2395,
      "Ps": 2396,
      "Ġchildren": 2397,
      "2007": 2398,
      "now": 2399,
      "Ġspecial": 2400,
      "Ġcirc": 2401,
      "Ġfore": 2402,
      "aut": 2403,
      "ides": 2404,
      "rated": 2405,
      "ĠThat": 2406,
      "Ġgraph": 2407,
      "uk": 2408,
      "ĠThese": 2409,
      "chie": 2410,
      "ham": 2411,
      "Ġdensity": 2412,
      "ony": 2413,
      "Ġ@": 2414,
      "Ġdiff": 2415,
      "itor": 2416,
      "Ġmillion": 2417,
      "ried": 2418,
      "Ġgot": 2419,
      "Ġhaving": 2420,
      "Ġauthor": 2421,
      "};": 2422,
      "ĠAss": 2423,
      "Ġmar": 2424,
      "ille": 2425,
      "ilde": 2426,
      "gether": 2427,
      "Ġtogether": 2428,
      "ĠNorth": 2429,
      "arning": 2430,
      "ĠRep": 2431,
      "box": 2432,
      "38": 2433,
      "\\[": 2434,
      "time": 2435,
      "Sigma": 2436,
      "Ġinf": 2437,
      "Ġparameters": 2438,
      "Ġfocus": 2439,
      "augh": 2440,
      "Fig": 2441,
      "__": 2442,
      "Ġresearch": 2443,
      "Ġmatrix": 2444,
      "Ġhuman": 2445,
      "ii": 2446,
      "eter": 2447,
      "Ġsomething": 2448,
      "Ġhigher": 2449,
      "ĠCor": 2450,
      "Ġhistory": 2451,
      "ovember": 2452,
      "off": 2453,
      "EN": 2454,
      "Ġfunctions": 2455,
      "Ġconstant": 2456,
      "rap": 2457,
      "Ġalready": 2458,
      "utes": 2459,
      "ĠAugust": 2460,
      "Ġformer": 2461,
      "ĠOctober": 2462,
      "Ġep": 2463,
      "Ġthings": 2464,
      "rew": 2465,
      "ef": 2466,
      "Ġpubl": 2467,
      "lected": 2468,
      "Ġdescribed": 2469,
      "Ġable": 2470,
      "ĠPart": 2471,
      "AL": 2472,
      "sy": 2473,
      "ext": 2474,
      "ĠSeptember": 2475,
      "Ġfive": 2476,
      "table": 2477,
      "Ġalbum": 2478,
      "ĠAf": 2479,
      "AC": 2480,
      "cember": 2481,
      "Ġask": 2482,
      "Ġaccess": 2483,
      "/\\": 2484,
      "ĠJanuary": 2485,
      "raft": 2486,
      "ĠOne": 2487,
      "}-": 2488,
      "Ġtry": 2489,
      "amed": 2490,
      "Ġaccount": 2491,
      "acy": 2492,
      "amples": 2493,
      "pect": 2494,
      "Ġcommunity": 2495,
      "ele": 2496,
      "oney": 2497,
      "Ġbi": 2498,
      "hy": 2499,
      "Ġabs": 2500,
      "cor": 2501,
      "Ġbecame": 2502,
      "Ġconditions": 2503,
      "Ġdays": 2504,
      "Ġlower": 2505,
      "37": 2506,
      "Ġenough": 2507,
      "Ġmaking": 2508,
      "44": 2509,
      "Ġservice": 2510,
      "ĠHar": 2511,
      "Ġcamp": 2512,
      "order": 2513,
      "Ġver": 2514,
      "Ġaway": 2515,
      "ser": 2516,
      "Ġpriv": 2517,
      "Ġneg": 2518,
      "ware": 2519,
      "enc": 2520,
      "Ġfriend": 2521,
      "ĠAb": 2522,
      "Ġcases": 2523,
      "IC": 2524,
      "vironment": 2525,
      "rate": 2526,
      "Ġequation": 2527,
      "ze": 2528,
      "Ġindividual": 2529,
      "eral": 2530,
      "ĠPres": 2531,
      "Ġeither": 2532,
      "Ġsugg": 2533,
      "ĠSy": 2534,
      "{-": 2535,
      "Ġsuggest": 2536,
      "En": 2537,
      "Ġlinks": 2538,
      "2006": 2539,
      "ĠGerm": 2540,
      "atural": 2541,
      "ecess": 2542,
      "draw": 2543,
      "Ġq": 2544,
      "ilt": 2545,
      "Ġstar": 2546,
      "Ġhom": 2547,
      "Ġair": 2548,
      "Ġtook": 2549,
      "abor": 2550,
      "ĠMe": 2551,
      "widet": 2552,
      "Ġtemper": 2553,
      "gy": 2554,
      "andom": 2555,
      "IS": 2556,
      "aul": 2557,
      "',": 2558,
      "Ġenc": 2559,
      "39": 2560,
      "onal": 2561,
      "Ġtraining": 2562,
      "Ġcross": 2563,
      "ĠAustral": 2564,
      "Ġoriginal": 2565,
      "Ġfuture": 2566,
      "Ġsocial": 2567,
      "Ġemb": 2568,
      "Ġreview": 2569,
      "ront": 2570,
      "Ġinfl": 2571,
      "Ġemploy": 2572,
      "Ġtit": 2573,
      "Ġpair": 2574,
      "Ġcertain": 2575,
      "Ġmoment": 2576,
      "Ġtrue": 2577,
      "ĠPr": 2578,
      "Ġlot": 2579,
      "ruary": 2580,
      "Ġrespectively": 2581,
      "Ġfeatures": 2582,
      "Ġbelow": 2583,
      "Ġpath": 2584,
      "ving": 2585,
      "inary": 2586,
      "centering": 2587,
      "\\!": 2588,
      "Ġcorresponding": 2589,
      "Ġcalcul": 2590,
      "Ġthird": 2591,
      "Ġunderstand": 2592,
      "based": 2593,
      "Ġpay": 2594,
      "ibility": 2595,
      "ana": 2596,
      "ĠWhen": 2597,
      "Ġbir": 2598,
      "Ġcommon": 2599,
      "widetilde": 2600,
      "Ġblack": 2601,
      "idered": 2602,
      "rateg": 2603,
      "Ġlay": 2604,
      "reet": 2605,
      "Ġpri": 2606,
      "ortun": 2607,
      "color": 2608,
      "ured": 2609,
      "ĠBar": 2610,
      "Ġmen": 2611,
      "ĠNovember": 2612,
      "ada": 2613,
      "ounc": 2614,
      "Ġfeel": 2615,
      "Ġpast": 2616,
      "iff": 2617,
      "rain": 2618,
      "07": 2619,
      "04": 2620,
      "ĠMore": 2621,
      "cle": 2622,
      "lying": 2623,
      "06": 2624,
      "Ġcult": 2625,
      "www": 2626,
      "Ġphase": 2627,
      "Ġaverage": 2628,
      "ransp": 2629,
      "Ġkeep": 2630,
      "Ġ``": 2631,
      "ogn": 2632,
      "thm": 2633,
      "Ġrole": 2634,
      "rant": 2635,
      "Ġdevelopment": 2636,
      "irm": 2637,
      "Ġconsidered": 2638,
      "08": 2639,
      "att": 2640,
      "ĠReg": 2641,
      "Ġfeature": 2642,
      "Ġmater": 2643,
      "ĠSch": 2644,
      "2020": 2645,
      "Ġsepar": 2646,
      "iles": 2647,
      "ius": 2648,
      "dd": 2649,
      "Ġreason": 2650,
      "Ġmap": 2651,
      "Ġconcer": 2652,
      "inally": 2653,
      "ĠDecember": 2654,
      "ows": 2655,
      "anguage": 2656,
      "Ġ)": 2657,
      "ĠRuss": 2658,
      "Ġkey": 2659,
      "Ġdimens": 2660,
      "ĠEng": 2661,
      "Ġsuper": 2662,
      "ĠRec": 2663,
      "Ġwar": 2664,
      "Ġinvestig": 2665,
      "ending": 2666,
      "pper": 2667,
      "aint": 2668,
      "rary": 2669,
      "zeta": 2670,
      "Ġfram": 2671,
      "aring": 2672,
      "Ġvarious": 2673,
      "ae": 2674,
      "Ġtarg": 2675,
      "ords": 2676,
      "glish": 2677,
      "Âł": 2678,
      "Ġfund": 2679,
      "Ġloss": 2680,
      "head": 2681,
      "prime": 2682,
      "Ġfrequ": 2683,
      "ips": 2684,
      "tic": 2685,
      "ĠPe": 2686,
      "Ġdeb": 2687,
      "sl": 2688,
      "Ġconsist": 2689,
      "Ġcompet": 2690,
      "ilities": 2691,
      "Ġhowever": 2692,
      "hel": 2693,
      "Ġinitial": 2694,
      "Ġimage": 2695,
      "otes": 2696,
      "Ġhouse": 2697,
      "lex": 2698,
      "How": 2699,
      "ED": 2700,
      "ĠWest": 2701,
      ")(": 2702,
      "Ġworking": 2703,
      "aff": 2704,
      "Ġproof": 2705,
      "Ġcame": 2706,
      "\\{": 2707,
      "49": 2708,
      "iber": 2709,
      "Ġachie": 2710,
      "ressed": 2711,
      "uted": 2712,
      "\\]": 2713,
      "Ġindust": 2714,
      "Ġtaken": 2715,
      "rag": 2716,
      "ĠAfter": 2717,
      "Ġeduc": 2718,
      "Ġport": 2719,
      "elling": 2720,
      "Ġlove": 2721,
      "ĠDav": 2722,
      "ĠTheorem": 2723,
      "Ġgen": 2724,
      "ĠSection": 2725,
      "Ġeconom": 2726,
      "Ġrepl": 2727,
      "Ġpositive": 2728,
      "ĠAg": 2729,
      "hib": 2730,
      "Ġwhy": 2731,
      "Ġage": 2732,
      "cont": 2733,
      "}+": 2734,
      "ondon": 2735,
      "ules": 2736,
      "tabular": 2737,
      "Ġsource": 2738,
      "ml": 2739,
      "under": 2740,
      "ttps": 2741,
      "ump": 2742,
      "essage": 2743,
      ";\\": 2744,
      "ners": 2745,
      "Ġ($": 2746,
      "Ġill": 2747,
      ")=\\": 2748,
      "ĠĠĠĠĠĠ": 2749,
      "Ġhalf": 2750,
      "Ġgames": 2751,
      "rown": 2752,
      "ustom": 2753,
      "Ġcourse": 2754,
      "()": 2755,
      "idth": 2756,
      "02": 2757,
      "Ġdynam": 2758,
      "Ġassociated": 2759,
      "aced": 2760,
      "cap": 2761,
      "illed": 2762,
      "Ġvia": 2763,
      "Ġclose": 2764,
      "Ġcorre": 2765,
      "Cl": 2766,
      "Ġge": 2767,
      "Ġsix": 2768,
      "chan": 2769,
      "Ġbehav": 2770,
      "fficient": 2771,
      "Ġang": 2772,
      "ĠArt": 2773,
      "Ġjo": 2774,
      "ĠFebruary": 2775,
      "Ġdat": 2776,
      "46": 2777,
      "irl": 2778,
      "Ġaccording": 2779,
      "ĠEq": 2780,
      "->": 2781,
      "IT": 2782,
      "Ġparameter": 2783,
      "2005": 2784,
      "uff": 2785,
      "Ġfit": 2786,
      "apan": 2787,
      "09": 2788,
      "Ġwhether": 2789,
      "ding": 2790,
      "ĠAm": 2791,
      "ault": 2792,
      "Ġcy": 2793,
      "Ġlog": 2794,
      "iting": 2795,
      "cos": 2796,
      "sel": 2797,
      "ography": 2798,
      "Ġbo": 2799,
      "rite": 2800,
      "ama": 2801,
      "Ġfail": 2802,
      "Ġthus": 2803,
      "Ġstudents": 2804,
      "bor": 2805,
      "ĠKing": 2806,
      "emma": 2807,
      "47": 2808,
      "ulations": 2809,
      "max": 2810,
      "Ġrandom": 2811,
      "Ġindependent": 2812,
      "03": 2813,
      "Ġdone": 2814,
      "Ġlines": 2815,
      "{(": 2816,
      "omorph": 2817,
      "icro": 2818,
      "iance": 2819,
      "eneral": 2820,
      "verse": 2821,
      "Ġpress": 2822,
      "Ġtreat": 2823,
      "Ġevents": 2824,
      "ĠGl": 2825,
      "There": 2826,
      "Ġmakes": 2827,
      "55": 2828,
      "itions": 2829,
      "Ġdou": 2830,
      "Ġsem": 2831,
      "which": 2832,
      "ards": 2833,
      "Ġmethods": 2834,
      "ont": 2835,
      "ĠPar": 2836,
      "Ġrequire": 2837,
      "}=\\": 2838,
      "Ġlinear": 2839,
      "ĠDep": 2840,
      "isk": 2841,
      "ops": 2842,
      "field": 2843,
      "ills": 2844,
      "alax": 2845,
      "ĠEl": 2846,
      "oon": 2847,
      "ĠHis": 2848,
      "Ġothers": 2849,
      "Ġlearn": 2850,
      "2000": 2851,
      "plement": 2852,
      ")^{": 2853,
      "Ġversion": 2854,
      "AM": 2855,
      "Ġbecom": 2856,
      "ĠPark": 2857,
      "}]": 2858,
      "Ġgroups": 2859,
      "Ġsent": 2860,
      "Ġnormal": 2861,
      "tact": 2862,
      "Ġtw": 2863,
      "na": 2864,
      "Ġtoday": 2865,
      "opy": 2866,
      "Ġfootball": 2867,
      "Ġexact": 2868,
      "Ġsymmet": 2869,
      "Ġsite": 2870,
      ")}\\": 2871,
      "scal": 2872,
      "Ġprim": 2873,
      "~~": 2874,
      "sw": 2875,
      "ĠQu": 2876,
      "ief": 2877,
      "Ġplayed": 2878,
      "Ġprofess": 2879,
      "Ġ&=": 2880,
      "Ġfinite": 2881,
      "US": 2882,
      "Ġdeal": 2883,
      "Ġcut": 2884,
      "Ġrather": 2885,
      "ournal": 2886,
      "lev": 2887,
      "aries": 2888,
      "Ġquestion": 2889,
      "Ġdep": 2890,
      "Ġnational": 2891,
      "Ġonce": 2892,
      "Ġexperience": 2893,
      "ume": 2894,
      "book": 2895,
      "aly": 2896,
      "Ġyoung": 2897,
      "orts": 2898,
      "Ġsimple": 2899,
      "style": 2900,
      "ĠHouse": 2901,
      "EC": 2902,
      "ription": 2903,
      "Ġalmost": 2904,
      "anta": 2905,
      "ĠPer": 2906,
      "dom": 2907,
      "Ġpopulation": 2908,
      "ID": 2909,
      ".~": 2910,
      "Ġexpected": 2911,
      "$)": 2912,
      "And": 2913,
      "Ġfig": 2914,
      "ouncil": 2915,
      "à¤": 2916,
      "iction": 2917,
      "Ġworks": 2918,
      "comp": 2919,
      "hers": 2920,
      "ĠAfric": 2921,
      "Ġannoun": 2922,
      "Ġdire": 2923,
      "Ġnecess": 2924,
      "onse": 2925,
      "Ġanaly": 2926,
      "Ġreleased": 2927,
      "Ġsens": 2928,
      "Ġobserved": 2929,
      "Ġever": 2930,
      "ket": 2931,
      "cast": 2932,
      "ids": 2933,
      "ĠComp": 2934,
      "medi": 2935,
      "Ġexpect": 2936,
      "Ġproposed": 2937,
      "Ġsche": 2938,
      "Ġsurface": 2939,
      "ĠTra": 2940,
      "ula": 2941,
      "BC": 2942,
      "Ġdidn": 2943,
      "wise": 2944,
      "ĠĠĠĠĠĠĠĠĠĠĠĠĠĠĠĠĠĠĠĠĠĠĠĠĠĠĠĠĠĠĠĠ": 2945,
      "hood": 2946,
      "Ġservices": 2947,
      "Ġheld": 2948,
      "Ġmember": 2949,
      "Ġrelated": 2950,
      "izing": 2951,
      "ishing": 2952,
      "ĠLondon": 2953,
      "Ġclos": 2954,
      "Ġvector": 2955,
      "pped": 2956,
      "}_\\": 2957,
      "Sh": 2958,
      "Ġwritten": 2959,
      "ued": 2960,
      "Ġbuilding": 2961,
      "Ġ//": 2962,
      "ington": 2963,
      "Ġarm": 2964,
      "Ġmulti": 2965,
      "inter": 2966,
      "atter": 2967,
      "Ġagre": 2968,
      "top": 2969,
      "Ġpur": 2970,
      "Ġvideo": 2971,
      "ype": 2972,
      "Ġtext": 2973,
      "Ġproduction": 2974,
      "Ġarch": 2975,
      "earch": 2976,
      "ector": 2977,
      "95": 2978,
      "ĠAmerica": 2979,
      "}^\\": 2980,
      "ounds": 2981,
      "Ġtown": 2982,
      "ĠMy": 2983,
      "ĠPresident": 2984,
      "ĠAct": 2985,
      "2004": 2986,
      "ĠNews": 2987,
      ",-": 2988,
      "Ġfactor": 2989,
      "ordin": 2990,
      "mathsf": 2991,
      "ĠBritish": 2992,
      "umb": 2993,
      "foot": 2994,
      "ĠBro": 2995,
      "Ph": 2996,
      "go": 2997,
      "adem": 2998,
      "Ġproperties": 2999,
      "ĠSm": 3000,
      "year": 3001,
      "Ġred": 3002,
      "Ġactiv": 3003,
      "65": 3004,
      "Ġstep": 3005,
      "Ġdoc": 3006,
      "Ġcaus": 3007,
      "Ġexplain": 3008,
      "minist": 3009,
      "cdots": 3010,
      "})\\": 3011,
      "AP": 3012,
      "Ġprop": 3013,
      "Ġcoupl": 3014,
      "Ġreceived": 3015,
      "Ġnews": 3016,
      "ĠSince": 3017,
      "oted": 3018,
      "Ġprovided": 3019,
      "Ġwent": 3020,
      "Ġrat": 3021,
      "Ġregular": 3022,
      "External": 3023,
      "ĉĉĉ": 3024,
      "Ġcr": 3025,
      "Ġchall": 3026,
      "Sp": 3027,
      "ened": 3028,
      "ĠMark": 3029,
      "sin": 3030,
      "ociety": 3031,
      "Ġlive": 3032,
      "och": 3033,
      "Ġnight": 3034,
      "const": 3035,
      "Ġeval": 3036,
      "gebra": 3037,
      "ampions": 3038,
      "Ġtaking": 3039,
      "ucle": 3040,
      "ocal": 3041,
      "imate": 3042,
      "widehat": 3043,
      "Ġmiss": 3044,
      "::": 3045,
      "Ġincluded": 3046,
      "Ġreported": 3047,
      "Ġhold": 3048,
      "{{\\": 3049,
      "Ġjob": 3050,
      "ĠHam": 3051,
      "}\\,": 3052,
      "}|": 3053,
      "Ġmatter": 3054,
      "ĠWhat": 3055,
      "Ġbody": 3056,
      "Ġclear": 3057,
      "ĠInternational": 3058,
      "Ġhost": 3059,
      "eal": 3060,
      "Ġentire": 3061,
      "ĠLa": 3062,
      "Ġbegin": 3063,
      "point": 3064,
      "sing": 3065,
      "Ġnumer": 3066,
      "Ġzero": 3067,
      "ese": 3068,
      "Ġtalk": 3069,
      "Ġlo": 3070,
      "Ġmarket": 3071,
      "unction": 3072,
      "igen": 3073,
      "Ġstarted": 3074,
      "Ġproperty": 3075,
      "era": 3076,
      "RE": 3077,
      "Ġstrateg": 3078,
      "ĠHigh": 3079,
      "Ġmedia": 3080,
      "New": 3081,
      "ĠĠĠĠĠĠĠĠĠ": 3082,
      "ires": 3083,
      "Ġground": 3084,
      "}}(": 3085,
      "script": 3086,
      "icult": 3087,
      "resh": 3088,
      "more": 3089,
      "Ġren": 3090,
      "Ġrequired": 3091,
      "What": 3092,
      "Ġlength": 3093,
      "Ġthing": 3094,
      "astic": 3095,
      "textwidth": 3096,
      "Ġ</": 3097,
      "enef": 3098,
      "cell": 3099,
      "Ġpercent": 3100,
      "lemma": 3101,
      "add": 3102,
      "ceed": 3103,
      "arth": 3104,
      "Ġwhose": 3105,
      "Ġgives": 3106,
      "iddle": 3107,
      "ĠEnglish": 3108,
      "Ġlearning": 3109,
      "Ġequival": 3110,
      "urg": 3111,
      "rump": 3112,
      "ided": 3113,
      "ying": 3114,
      "../": 3115,
      "aches": 3116,
      "wed": 3117,
      "ĠJapan": 3118,
      "Ġeffects": 3119,
      "Ġactually": 3120,
      "ĠII": 3121,
      "racy": 3122,
      "Ġ\\{": 3123,
      "iet": 3124,
      "like": 3125,
      "pre": 3126,
      ".)": 3127,
      "ension": 3128,
      "Ġthought": 3129,
      "rench": 3130,
      "Ġappl": 3131,
      "^+": 3132,
      "&=": 3133,
      "Ġviol": 3134,
      "Ġdefine": 3135,
      "tee": 3136,
      "annel": 3137,
      "Ġbegan": 3138,
      "Ġelements": 3139,
      "Ġenvironment": 3140,
      "Ġyet": 3141,
      "Ġglobal": 3142,
      "ĠFigure": 3143,
      "br": 3144,
      "Ġcannot": 3145,
      "ĠMich": 3146,
      "Ġcareer": 3147,
      "cing": 3148,
      "ĠNot": 3149,
      "Ġsubject": 3150,
      "Ġrefer": 3151,
      "pdf": 3152,
      "qquad": 3153,
      "ception": 3154,
      "Ġinput": 3155,
      "ford": 3156,
      "Ġexists": 3157,
      "Ġimprove": 3158,
      "istory": 3159,
      "Ġpolitical": 3160,
      "appro": 3161,
      "lation": 3162,
      "Ġpan": 3163,
      "Ġtemperature": 3164,
      "Ġlarger": 3165,
      "raction": 3166,
      "Ġmatch": 3167,
      "64": 3168,
      "ael": 3169,
      "Ġkind": 3170,
      "ĠGo": 3171,
      "aves": 3172,
      "Psi": 3173,
      "Ġbit": 3174,
      "Ġnatural": 3175,
      "onst": 3176,
      "uel": 3177,
      "trans": 3178,
      "Ġdistance": 3179,
      "Ġimplement": 3180,
      "Ġspecific": 3181,
      "bb": 3182,
      "Ġchanges": 3183,
      "ĠServ": 3184,
      "gress": 3185,
      "ĠNe": 3186,
      "ledge": 3187,
      "opt": 3188,
      "Ġscale": 3189,
      "Ġfall": 3190,
      "oe": 3191,
      "ecially": 3192,
      "ilitary": 3193,
      "Ġerror": 3194,
      "cup": 3195,
      "Ġspin": 3196,
      "ĠDis": 3197,
      "Ġpo": 3198,
      "}^{(": 3199,
      "Ġdri": 3200,
      "onic": 3201,
      "iven": 3202,
      "'re": 3203,
      "Ġclust": 3204,
      "Ġadditional": 3205,
      "ĠChe": 3206,
      "Ġhor": 3207,
      "Ġimpl": 3208,
      "ĠStud": 3209,
      "Ġtold": 3210,
      "aign": 3211,
      "Ġmoney": 3212,
      "oph": 3213,
      "Ġcompan": 3214,
      "Ġconver": 3215,
      "gen": 3216,
      "ĠFrom": 3217,
      "Ġfixed": 3218,
      "Ġpublished": 3219,
      "raint": 3220,
      "Ġbar": 3221,
      "Ġunit": 3222,
      "Ġcheck": 3223,
      "tex": 3224,
      "ends": 3225,
      "icles": 3226,
      "fact": 3227,
      "Ġsw": 3228,
      "Ġwords": 3229,
      "oms": 3230,
      "Ġamount": 3231,
      "Ġfav": 3232,
      "ĠHer": 3233,
      "atrix": 3234,
      "Ġtarget": 3235,
      "Ġprobability": 3236,
      "ises": 3237,
      "42": 3238,
      "ĠWilliam": 3239,
      "Ġ$(\\": 3240,
      "Ġeffective": 3241,
      "avy": 3242,
      "Ġrespons": 3243,
      "ĠSer": 3244,
      "overed": 3245,
      ")]": 3246,
      "ilm": 3247,
      "Ġwind": 3248,
      "Ġbreak": 3249,
      "Ġbase": 3250,
      "small": 3251,
      "Ġincrease": 3252,
      "unch": 3253,
      "ĠPhil": 3254,
      "ili": 3255,
      "ĠSim": 3256,
      "Ġwhole": 3257,
      "atory": 3258,
      "Ġconstruct": 3259,
      "Ġparticip": 3260,
      "Ġassume": 3261,
      "div": 3262,
      "Ġsoft": 3263,
      "ands": 3264,
      "Ġelement": 3265,
      "Ġmonths": 3266,
      "Ġcomplete": 3267,
      "Ġsequence": 3268,
      "eff": 3269,
      "Ġsure": 3270,
      "}\\\\": 3271,
      "Ġattack": 3272,
      "Ġgas": 3273,
      "Ġdegree": 3274,
      "ply": 3275,
      "Ġtre": 3276,
      "Ġmultiple": 3277,
      "Ġquantum": 3278,
      "Ġrecogn": 3279,
      "Ġtax": 3280,
      "ensive": 3281,
      "Ġcomes": 3282,
      "Ġmechan": 3283,
      "ĠFirst": 3284,
      "SS": 3285,
      "ĠArm": 3286,
      "Ġlikely": 3287,
      "Ġexec": 3288,
      "sup": 3289,
      "Ġaud": 3290,
      "bsite": 3291,
      "Ġimpact": 3292,
      "den": 3293,
      "Ġbuilt": 3294,
      "xspace": 3295,
      "ĠDist": 3296,
      "Ġtell": 3297,
      "atives": 3298,
      "ĠDo": 3299,
      "ully": 3300,
      "class": 3301,
      "Ġdiv": 3302,
      "Ġgalax": 3303,
      "ĠCollege": 3304,
      "defin": 3305,
      "Ġsqu": 3306,
      "king": 3307,
      "2003": 3308,
      "alt": 3309,
      "Ġtrack": 3310,
      "irt": 3311,
      "lease": 3312,
      "Ġdifficult": 3313,
      "Ġshall": 3314,
      "Ġdr": 3315,
      "ults": 3316,
      "43": 3317,
      "ransport": 3318,
      "Ġlate": 3319,
      "Ġcompared": 3320,
      "Ġtakes": 3321,
      "agram": 3322,
      "Ġprec": 3323,
      "Ġflow": 3324,
      "ridge": 3325,
      "ĠSup": 3326,
      "Ġtherefore": 3327,
      "operator": 3328,
      "rug": 3329,
      "ĠMr": 3330,
      "Ġsyn": 3331,
      "arc": 3332,
      "ĠCour": 3333,
      "semb": 3334,
      "mon": 3335,
      "85": 3336,
      "Ġbenef": 3337,
      "Ġcustom": 3338,
      "mark": 3339,
      "Ġlabel": 3340,
      "ste": 3341,
      "ections": 3342,
      "({\\": 3343,
      "omb": 3344,
      "Ġsense": 3345,
      "Ġdest": 3346,
      "ĠLemma": 3347,
      "andid": 3348,
      "Ġcommit": 3349,
      "But": 3350,
      "Ġdoesn": 3351,
      "itect": 3352,
      ")-": 3353,
      "Ġcontent": 3354,
      "Ġface": 3355,
      "Ġnote": 3356,
      "Ġeffic": 3357,
      "Ġelse": 3358,
      "Ġbroad": 3359,
      "Ġinflu": 3360,
      "especially": 3361,
      "Ġproblems": 3362,
      "estern": 3363,
      "Ġstation": 3364,
      "Ġinstead": 3365,
      "ĠCont": 3366,
      "iforn": 3367,
      "load": 3368,
      "umbers": 3369,
      "ĠCenter": 3370,
      "ores": 3371,
      "ara": 3372,
      "CC": 3373,
      "Ġneigh": 3374,
      "Ġcompar": 3375,
      "Ġweight": 3376,
      "Ar": 3377,
      "Ġlocated": 3378,
      "Ġnamed": 3379,
      "uration": 3380,
      "atively": 3381,
      "ĠUK": 3382,
      "When": 3383,
      "Ġleading": 3384,
      "At": 3385,
      "LE": 3386,
      "rig": 3387,
      "down": 3388,
      "ĠLaw": 3389,
      "attle": 3390,
      "Ġoperator": 3391,
      "ites": 3392,
      "Ġdifference": 3393,
      "indent": 3394,
      "ĠDem": 3395,
      "Ġprovides": 3396,
      "Ġbasis": 3397,
      "ĠIndia": 3398,
      "Ġprior": 3399,
      "ĠSan": 3400,
      "ĠVal": 3401,
      "Ġpolicy": 3402,
      "Ġpresented": 3403,
      "selves": 3404,
      "Ġ...": 3405,
      "citet": 3406,
      "ĠAng": 3407,
      "istics": 3408,
      "Ġedge": 3409,
      "ams": 3410,
      "ĠThus": 3411,
      "You": 3412,
      "Ġcateg": 3413,
      "star": 3414,
      "Ġidea": 3415,
      "icture": 3416,
      "ifornia": 3417,
      "vey": 3418,
      "Ġtradition": 3419,
      "Ġnode": 3420,
      "41": 3421,
      "ivil": 3422,
      "ĠPat": 3423,
      "2002": 3424,
      "Ġpresident": 3425,
      "equiv": 3426,
      "this": 3427,
      "Ġfields": 3428,
      "rup": 3429,
      "Ġregard": 3430,
      "ky": 3431,
      "artment": 3432,
      "anced": 3433,
      "orge": 3434,
      "Ġnov": 3435,
      "icol": 3436,
      "Ġcorrel": 3437,
      "Ġblock": 3438,
      "66": 3439,
      "Ġsolutions": 3440,
      "ounter": 3441,
      "Ġadded": 3442,
      "ening": 3443,
      "atur": 3444,
      "Ġareas": 3445,
      "Ġsex": 3446,
      "Ġtitle": 3447,
      "Ġcentral": 3448,
      "ota": 3449,
      "Ġissues": 3450,
      "prop": 3451,
      "dimens": 3452,
      "Ġ&\\": 3453,
      "ĠMor": 3454,
      "ĠLeague": 3455,
      "Ġsample": 3456,
      "Ġprivate": 3457,
      "Ġestablished": 3458,
      "Ġcreated": 3459,
      "ooth": 3460,
      "OS": 3461,
      "Ġplayer": 3462,
      "Ġlanguage": 3463,
      "ulated": 3464,
      "kn": 3465,
      "node": 3466,
      "Ġattempt": 3467,
      "}:": 3468,
      "Ġago": 3469,
      "Ġimages": 3470,
      "html": 3471,
      "oul": 3472,
      "Ġcomplet": 3473,
      "97": 3474,
      "oud": 3475,
      "ender": 3476,
      "PS": 3477,
      "Ġaccept": 3478,
      "Ġitself": 3479,
      "Ġneeds": 3480,
      "Ġengine": 3481,
      "pping": 3482,
      "MS": 3483,
      "Ġonline": 3484,
      "arily": 3485,
      "AA": 3486,
      "Ġincludes": 3487,
      "Ġstars": 3488,
      "Ġste": 3489,
      "mail": 3490,
      "Ġissue": 3491,
      "Ġstyle": 3492,
      "Ġbehind": 3493,
      "With": 3494,
      "Ġupd": 3495,
      "}}{\\": 3496,
      "Ġcreate": 3497,
      "Res": 3498,
      "rast": 3499,
      "nes": 3500,
      "--------": 3501,
      "See": 3502,
      "]$": 3503,
      "uit": 3504,
      "Ġclub": 3505,
      "hspace": 3506,
      "HE": 3507,
      "Ġparty": 3508,
      "ĠOb": 3509,
      "Ġunique": 3510,
      "Ġflu": 3511,
      "2001": 3512,
      "Ġweak": 3513,
      "mid": 3514,
      "ha": 3515,
      "ĠTrump": 3516,
      "anks": 3517,
      "Ġdoing": 3518,
      "ĠTr": 3519,
      "Ġuser": 3520,
      "Ġled": 3521,
      "Pl": 3522,
      "actions": 3523,
      "Ġstudies": 3524,
      "Ġpopular": 3525,
      "Ġfood": 3526,
      "ĠAc": 3527,
      "Ġbring": 3528,
      "itude": 3529,
      "olic": 3530,
      "alle": 3531,
      "ĠDavid": 3532,
      "Ġespecially": 3533,
      "Ġaddress": 3534,
      "Ġpack": 3535,
      "|-": 3536,
      "ĠAssoci": 3537,
      "Ġindustry": 3538,
      "Ġroad": 3539,
      "Ġfront": 3540,
      "span": 3541,
      "Ġey": 3542,
      "Ġresponse": 3543,
      "Ġinternational": 3544,
      "olar": 3545,
      "Ġequations": 3546,
      "skip": 3547,
      "Ġsearch": 3548,
      "ĠChina": 3549,
      "alse": 3550,
      "Ġdomain": 3551,
      "mar": 3552,
      "eloc": 3553,
      "ken": 3554,
      "Ġlooking": 3555,
      "ocrat": 3556,
      "AD": 3557,
      "ancial": 3558,
      "fect": 3559,
      "ĠRepublic": 3560,
      "Ġmention": 3561,
      "utive": 3562,
      "operatorname": 3563,
      "De": 3564,
      "Ġprinc": 3565,
      "Ġboundary": 3566,
      "Ġpersonal": 3567,
      "ares": 3568,
      "Ġreve": 3569,
      "Ġliter": 3570,
      "Wh": 3571,
      "77": 3572,
      "}+\\": 3573,
      "ĠPal": 3574,
      "Ġoccur": 3575,
      "Ġopportun": 3576,
      "Ġconduct": 3577,
      "|^": 3578,
      "ĠAcc": 3579,
      "Ġdirection": 3580,
      "Ġsets": 3581,
      "ĠRed": 3582,
      "neq": 3583,
      "Ġimm": 3584,
      "ĠGod": 3585,
      "Ġsecur": 3586,
      "that": 3587,
      "Ġess": 3588,
      "Ġquite": 3589,
      "Ġdemonst": 3590,
      "my": 3591,
      "inated": 3592,
      "98": 3593,
      "All": 3594,
      "ns": 3595,
      "ror": 3596,
      "Ġholds": 3597,
      "Ġspecies": 3598,
      "Ġupon": 3599,
      "Ġpers": 3600,
      "Ġgre": 3601,
      "reng": 3602,
      "Ġcode": 3603,
      "onds": 3604,
      "Ġhistor": 3605,
      "scr": 3606,
      "500": 3607,
      "Ġlink": 3608,
      "Ġphysical": 3609,
      "ĠHol": 3610,
      "Ġsus": 3611,
      "ci": 3612,
      "Ġcontains": 3613,
      "ariant": 3614,
      "ĠTV": 3615,
      "ging": 3616,
      "Ġdefinition": 3617,
      "ĠSen": 3618,
      "ĠEast": 3619,
      "Ġstage": 3620,
      "Ġdenote": 3621,
      "ĠOur": 3622,
      "OM": 3623,
      "Ġfilms": 3624,
      "ker": 3625,
      "Ġwrite": 3626,
      "ming": 3627,
      "Ġcommunic": 3628,
      "Ġdeveloped": 3629,
      "rote": 3630,
      "Ġconstruction": 3631,
      "ville": 3632,
      "Ġneeded": 3633,
      "Ġdetails": 3634,
      "wood": 3635,
      "Ġop": 3636,
      "Ġmonth": 3637,
      "ellow": 3638,
      "Ġprove": 3639,
      "Ġhit": 3640,
      "izes": 3641,
      "useum": 3642,
      "Ġcentury": 3643,
      "Ġcompanies": 3644,
      "Ġoutside": 3645,
      "ĠAirport": 3646,
      "unic": 3647,
      "Ġvill": 3648,
      "Ġdig": 3649,
      "Ġincreasing": 3650,
      "Ġdatas": 3651,
      "ously": 3652,
      "born": 3653,
      "Ġcampaign": 3654,
      "Ġvert": 3655,
      "Ġut": 3656,
      "ĠFrench": 3657,
      "Ġcontract": 3658,
      "ĠCalifornia": 3659,
      "Ġclosed": 3660,
      "ĠIndian": 3661,
      "Ġseems": 3662,
      "Ġarticle": 3663,
      "http": 3664,
      "Ġcandid": 3665,
      "Americ": 3666,
      "Ġsimply": 3667,
      "Le": 3668,
      "Ġcontext": 3669,
      "iform": 3670,
      "Ġbelieve": 3671,
      "OT": 3672,
      "berg": 3673,
      "Ġadj": 3674,
      "'$": 3675,
      "ottom": 3676,
      "Ġcenter": 3677,
      "theorem": 3678,
      "Ġindu": 3679,
      "Ġhon": 3680,
      "Ġscen": 3681,
      "Ġcharg": 3682,
      "Ġdirectly": 3683,
      "stitute": 3684,
      "Ġchoice": 3685,
      "elt": 3686,
      "><": 3687,
      "Ġproduced": 3688,
      "Ġtransform": 3689,
      "Ġtechnology": 3690,
      "ĠStreet": 3691,
      "ederal": 3692,
      "}-\\": 3693,
      "Ġwave": 3694,
      "ĠEuropean": 3695,
      ")}{": 3696,
      "Ġdeep": 3697,
      "Ġ-\\": 3698,
      "Ġveloc": 3699,
      "Ġrev": 3700,
      "umerate": 3701,
      "ĠPaul": 3702,
      "band": 3703,
      "Ġforward": 3704,
      "light": 3705,
      "ĠHealth": 3706,
      "Ġwhite": 3707,
      "Ġequal": 3708,
      "ĠDr": 3709,
      "68": 3710,
      "ests": 3711,
      "Ġsound": 3712,
      "inn": 3713,
      "ogle": 3714,
      "Ġquality": 3715,
      "td": 3716,
      "Ġmor": 3717,
      "lands": 3718,
      "Ġinsp": 3719,
      "used": 3720,
      "Ġsignal": 3721,
      "Ġpolice": 3722,
      "Ġmagnetic": 3723,
      "Ġcourt": 3724,
      "ĠCouncil": 3725,
      "ett": 3726,
      "Ġfather": 3727,
      "oke": 3728,
      "Ġperformed": 3729,
      "mission": 3730,
      "Ġrelease": 3731,
      "ĠMod": 3732,
      "scale": 3733,
      "Ġelectron": 3734,
      "Ġnumbers": 3735,
      "ilton": 3736,
      "67": 3737,
      "pot": 3738,
      "Ġrights": 3739,
      "Ã¡": 3740,
      "One": 3741,
      "Ġgrowth": 3742,
      "Ġcompos": 3743,
      "oved": 3744,
      "Ġnucle": 3745,
      "Ġrisk": 3746,
      "rab": 3747,
      "Ġbr": 3748,
      "Ġvict": 3749,
      "ĠDi": 3750,
      "Since": 3751,
      "clusion": 3752,
      "Ġevidence": 3753,
      "aging": 3754,
      "Ġoptim": 3755,
      "Ġfem": 3756,
      "ĠDepartment": 3757,
      "Ad": 3758,
      "Ġmetric": 3759,
      "cial": 3760,
      "enumerate": 3761,
      "Ġshare": 3762,
      "ĠBlack": 3763,
      "Ġrank": 3764,
      "Ġconstraint": 3765,
      "ien": 3766,
      "Ġforce": 3767,
      "ashington": 3768,
      "Ġbackground": 3769,
      "Ġvisit": 3770,
      "Ġbecomes": 3771,
      "ship": 3772,
      "ĠJust": 3773,
      "dag": 3774,
      "oring": 3775,
      "Ġwebsite": 3776,
      "Ġdecision": 3777,
      "ĠAustralia": 3778,
      "ET": 3779,
      "Ġson": 3780,
      "dimensional": 3781,
      "Ġsuccessful": 3782,
      "Ġlost": 3783,
      "ĠOff": 3784,
      "ĠGroup": 3785,
      "ica": 3786,
      "type": 3787,
      "ades": 3788,
      "'m": 3789,
      "Ġearl": 3790,
      "ico": 3791,
      "come": 3792,
      "Ġcapt": 3793,
      "LL": 3794,
      "Ġhimself": 3795,
      "So": 3796,
      "Ġcoming": 3797,
      "Ġimplies": 3798,
      "Ġbad": 3799,
      "Ġannounced": 3800,
      "hing": 3801,
      "leg": 3802,
      "Ġcontact": 3803,
      "Ġheart": 3804,
      "Ġhot": 3805,
      "Ġhours": 3806,
      "aged": 3807,
      "ait": 3808,
      "88": 3809,
      "asons": 3810,
      ")}$": 3811,
      "Ġball": 3812,
      "Ġepis": 3813,
      "note": 3814,
      "></": 3815,
      "ĠJames": 3816,
      "isions": 3817,
      "Ġsuff": 3818,
      "Ġcoordin": 3819,
      "ĠCons": 3820,
      "Ġrecently": 3821,
      "Ġinteresting": 3822,
      "usion": 3823,
      "Ġgetting": 3824,
      "Ġrot": 3825,
      "Ġmag": 3826,
      "],": 3827,
      "2021": 3828,
      "Ġleaders": 3829,
      "ĠWhile": 3830,
      "Ġeducation": 3831,
      "\\,\\": 3832,
      "rael": 3833,
      "levision": 3834,
      "Ġquick": 3835,
      "aren": 3836,
      "$}": 3837,
      "Ġsources": 3838,
      "Ġstri": 3839,
      "oice": 3840,
      "ĠCourt": 3841,
      "can": 3842,
      "Ġlevels": 3843,
      "Ġwalk": 3844,
      "Ġmaterial": 3845,
      "mathscr": 3846,
      "~$": 3847,
      "Ġborn": 3848,
      "noindent": 3849,
      "ĠEngland": 3850,
      "(-": 3851,
      "Ġround": 3852,
      "ĠOf": 3853,
      "From": 3854,
      "Ġsecurity": 3855,
      "rian": 3856,
      "Ġdecl": 3857,
      "fill": 3858,
      "omorphism": 3859,
      "lor": 3860,
      "Ġcritical": 3861,
      "Ġevolution": 3862,
      "Ġpref": 3863,
      "ario": 3864,
      "change": 3865,
      "uge": 3866,
      "IR": 3867,
      "la": 3868,
      "que": 3869,
      "Ġinvolved": 3870,
      "Ġcomponents": 3871,
      "Ġtable": 3872,
      "Ġworked": 3873,
      "zz": 3874,
      "ĠHere": 3875,
      "Ġrelation": 3876,
      "rick": 3877,
      "duc": 3878,
      "Ġsold": 3879,
      "Ġgain": 3880,
      "hern": 3881,
      "Ġcomponent": 3882,
      "Ġintroduced": 3883,
      "cks": 3884,
      "Ġword": 3885,
      "aching": 3886,
      "Ġproducts": 3887,
      "state": 3888,
      "Ġgoal": 3889,
      "Ġcoe": 3890,
      "itemize": 3891,
      "Ġwrote": 3892,
      "ĉĊ": 3893,
      "Ġemer": 3894,
      "Ġgenerated": 3895,
      "Ġparts": 3896,
      "known": 3897,
      "cret": 3898,
      "ĠNow": 3899,
      "ĠCanada": 3900,
      "Ġmid": 3901,
      "IG": 3902,
      "rices": 3903,
      "size": 3904,
      "ached": 3905,
      "Ġoffice": 3906,
      "Ġtransition": 3907,
      "joy": 3908,
      "ĠDay": 3909,
      "(\"": 3910,
      "Ġallows": 3911,
      "otic": 3912,
      "]\\": 3913,
      "ranch": 3914,
      "Ġtravel": 3915,
      "ander": 3916,
      "NN": 3917,
      "Ġalgebra": 3918,
      "ny": 3919,
      "opl": 3920,
      "96": 3921,
      "van": 3922,
      "Ġhol": 3923,
      "Ġrepresentation": 3924,
      "Ġimmedi": 3925,
      "arter": 3926,
      "Ġdark": 3927,
      "Ġlonger": 3928,
      "Ġspectrum": 3929,
      "Ġtransfer": 3930,
      "ĠDirect": 3931,
      "}}}": 3932,
      "encies": 3933,
      "Ġcorrect": 3934,
      "Ġtool": 3935,
      "ament": 3936,
      "Ġjud": 3937,
      "ĠRober": 3938,
      "Ġfire": 3939,
      "Ġindex": 3940,
      "map": 3941,
      "Ġbehavior": 3942,
      "].": 3943,
      "https": 3944,
      "Ġsmaller": 3945,
      "ports": 3946,
      "Ġmaximum": 3947,
      "ework": 3948,
      "Ġstreng": 3949,
      "hips": 3950,
      "oto": 3951,
      "Ġcontinue": 3952,
      "Ġpatients": 3953,
      "dex": 3954,
      "Ġgirl": 3955,
      "Ġ_": 3956,
      "bert": 3957,
      "ements": 3958,
      "Ġcountries": 3959,
      "Ġapplied": 3960,
      "iences": 3961,
      "level": 3962,
      "57": 3963,
      "osen": 3964,
      "ĠTherefore": 3965,
      "Ġtowards": 3966,
      "Ġdetermined": 3967,
      "Ġspeed": 3968,
      "Ġliving": 3969,
      "After": 3970,
      "oyal": 3971,
      "Ġresid": 3972,
      "asc": 3973,
      "approx": 3974,
      "dered": 3975,
      "Se": 3976,
      "group": 3977,
      "ĠThom": 3978,
      "Sc": 3979,
      "ĠEm": 3980,
      "Ġserved": 3981,
      "Ġfight": 3982,
      "Ġeasy": 3983,
      "Ġconv": 3984,
      "Int": 3985,
      "raz": 3986,
      "ĠDan": 3987,
      "vspace": 3988,
      "arent": 3989,
      "Ġwatch": 3990,
      "Ġdied": 3991,
      "}}_": 3992,
      "ĠMal": 3993,
      "Ġrac": 3994,
      "Ġrunning": 3995,
      "icit": 3996,
      "Ġrob": 3997,
      "Ġknowledge": 3998,
      "ĠResearch": 3999,
      "CD": 4000,
      "Ġtreatment": 4001,
      "rs": 4002,
      "Then": 4003,
      "Ġdecre": 4004,
      "Ġconsum": 4005,
      "58": 4006,
      "bre": 4007,
      "Ġbox": 4008,
      "Ġprobably": 4009,
      "Ġthroughout": 4010,
      "Ġnecessary": 4011,
      "Pi": 4012,
      "Ġroom": 4013,
      "Ġmother": 4014,
      "Ġoutput": 4015,
      "\\}$": 4016,
      "isation": 4017,
      "Ġsetting": 4018,
      "Ġalthough": 4019,
      "Ġboard": 4020,
      "igned": 4021,
      "atform": 4022,
      "Ġdocument": 4023,
      "Ġmeet": 4024,
      "ĠRich": 4025,
      "();": 4026,
      "Ġadminist": 4027,
      "Ġmilitary": 4028,
      "1999": 4029,
      "ĠPort": 4030,
      "ube": 4031,
      "Ġasked": 4032,
      "ya": 4033,
      "rence": 4034,
      "Ġproced": 4035,
      "oo": 4036,
      "uments": 4037,
      "ĠGeneral": 4038,
      "ibrary": 4039,
      "Ġevalu": 4040,
      "Ġneut": 4041,
      "Ġsaw": 4042,
      "Ġplaying": 4043,
      "multicol": 4044,
      "ĠHall": 4045,
      "nce": 4046,
      "ago": 4047,
      "American": 4048,
      "Ġexpression": 4049,
      "auge": 4050,
      "ocation": 4051,
      "rie": 4052,
      "Ġillust": 4053,
      "ctors": 4054,
      "ĠChurch": 4055,
      "Ġdriv": 4056,
      "IM": 4057,
      "ida": 4058,
      "Ġpage": 4059,
      "Ġdraw": 4060,
      "Ġcolumn": 4061,
      "Ġpick": 4062,
      "multicolumn": 4063,
      "Ġaltern": 4064,
      "Ġpattern": 4065,
      "Ġdam": 4066,
      "ĠBook": 4067,
      "range": 4068,
      "Ġupper": 4069,
      "iation": 4070,
      "ĠWashington": 4071,
      "PR": 4072,
      "****": 4073,
      "Ġapplication": 4074,
      "Ġir": 4075,
      "Ġaward": 4076,
      "ountain": 4077,
      "pri": 4078,
      "Ġcolor": 4079,
      "ĠGerman": 4080,
      "Ġinside": 4081,
      "Ġcred": 4082,
      "Be": 4083,
      "ocks": 4084,
      "Ġuses": 4085,
      "Ġconcept": 4086,
      "Ġtypes": 4087,
      "aur": 4088,
      "Ġinn": 4089,
      "Ġstra": 4090,
      "ĠInt": 4091,
      "ĠTable": 4092,
      "Ġcomment": 4093,
      ")+": 4094,
      "Ġ_{": 4095,
      "erve": 4096,
      "Ġthemselves": 4097,
      "ĠGreen": 4098,
      "Ġnothing": 4099,
      "Col": 4100,
      "'ve": 4101,
      "gence": 4102,
      "ios": 4103,
      "illing": 4104,
      "Ġmodern": 4105,
      "ecause": 4106,
      "Ġconfig": 4107,
      "Ġcharge": 4108,
      "Ġremains": 4109,
      "Ġestimate": 4110,
      "Ġinj": 4111,
      "Ġmanagement": 4112,
      "eline": 4113,
      "from": 4114,
      "56": 4115,
      "Ġnature": 4116,
      "Ġdimension": 4117,
      "ng": 4118,
      "Ġsil": 4119,
      "Ġwoman": 4120,
      "Ġdirector": 4121,
      "Ġnorth": 4122,
      "Ġconnected": 4123,
      "Ġhttp": 4124,
      "aily": 4125,
      "Ġhope": 4126,
      "maz": 4127,
      "Ġaccom": 4128,
      "Ġansw": 4129,
      "ĠChampions": 4130,
      "ansion": 4131,
      "Ġvalid": 4132,
      "Ġanything": 4133,
      "Bl": 4134,
      "Ġarchitect": 4135,
      "split": 4136,
      "key": 4137,
      "aper": 4138,
      "alled": 4139,
      "ura": 4140,
      "^-": 4141,
      "iew": 4142,
      "eration": 4143,
      "Ġwriting": 4144,
      "Ġmind": 4145,
      "Ġstaff": 4146,
      "Ġusers": 4147,
      "body": 4148,
      "Ġmach": 4149,
      "ĠJack": 4150,
      "Ġratio": 4151,
      "iers": 4152,
      "Ġwanted": 4153,
      "turb": 4154,
      "spec": 4155,
      "Ġcurrently": 4156,
      "Ġusually": 4157,
      "ospital": 4158,
      "long": 4159,
      "ĠDistrict": 4160,
      "Ġdesigned": 4161,
      "Is": 4162,
      "ston": 4163,
      "More": 4164,
      "Ġsomeone": 4165,
      "textrm": 4166,
      "ĠWork": 4167,
      "itz": 4168,
      "Ġtro": 4169,
      "ĠNote": 4170,
      "ems": 4171,
      "Ġtrying": 4172,
      "uild": 4173,
      "Ġexhib": 4174,
      "&&": 4175,
      "Ġmoved": 4176,
      "Ġtheorem": 4177,
      "Ġten": 4178,
      "{$": 4179,
      "Ġdate": 4180,
      "1998": 4181,
      "Ġlargest": 4182,
      "ĠCup": 4183,
      "Ġaim": 4184,
      "Ġcele": 4185,
      "ĠFe": 4186,
      "nd": 4187,
      "ifying": 4188,
      "Ġvariables": 4189,
      "Ġassist": 4190,
      "ession": 4191,
      "Ġspeak": 4192,
      "pol": 4193,
      "Ġfrequency": 4194,
      "erc": 4195,
      "Ġveh": 4196,
      "rd": 4197,
      "edy": 4198,
      "tra": 4199,
      "Ġvelocity": 4200,
      "Ġsubst": 4201,
      "izations": 4202,
      "ĠBel": 4203,
      "ĠRiver": 4204,
      "Ġpractice": 4205,
      "Ġvac": 4206,
      "Ġoffer": 4207,
      "Ġsoon": 4208,
      "Ġvan": 4209,
      "ĠMusic": 4210,
      "Ġeigen": 4211,
      "ĠScience": 4212,
      "rep": 4213,
      "Ġbooks": 4214,
      "Ġlimited": 4215,
      "allel": 4216,
      "stein": 4217,
      "taint": 4218,
      "estival": 4219,
      "iece": 4220,
      "Ġtour": 4221,
      "Ġinstance": 4222,
      "ĠInter": 4223,
      "hest": 4224,
      "rier": 4225,
      "ĠBay": 4226,
      "rought": 4227,
      "ĠMart": 4228,
      "Ġlack": 4229,
      "irit": 4230,
      "Ġenjoy": 4231,
      "ĠChar": 4232,
      "Ġgave": 4233,
      "texttt": 4234,
      "Ġrelig": 4235,
      "Ġearlier": 4236,
      "ynom": 4237,
      "iny": 4238,
      "../../": 4239,
      "Ġ\\;": 4240,
      "Ġwall": 4241,
      "century": 4242,
      "do": 4243,
      "Ġpresence": 4244,
      "Ġacqu": 4245,
      "ilies": 4246,
      "Ġnovel": 4247,
      "istry": 4248,
      "ĠSome": 4249,
      "Ġequivalent": 4250,
      "ĠInstitute": 4251,
      "Ġplot": 4252,
      "Our": 4253,
      "Ġattention": 4254,
      "Ġregions": 4255,
      "Ġcells": 4256,
      "Ġautom": 4257,
      "][": 4258,
      "Ġchalleng": 4259,
      "No": 4260,
      "gra": 4261,
      "Ġapply": 4262,
      "osing": 4263,
      "Ġallowed": 4264,
      "Ġradio": 4265,
      "inf": 4266,
      "Ġdise": 4267,
      "Ġrelative": 4268,
      "Ġways": 4269,
      "DE": 4270,
      "Ġrace": 4271,
      "eck": 4272,
      "Now": 4273,
      "Ġelection": 4274,
      "Ġavoid": 4275,
      "ĠJew": 4276,
      "mitted": 4277,
      "Ġchannel": 4278,
      "Ġthreat": 4279,
      "ĠSystem": 4280,
      "ensor": 4281,
      "}^{-": 4282,
      "iter": 4283,
      "inct": 4284,
      "ĠMichael": 4285,
      "ĠFrance": 4286,
      "Ġ\\|": 4287,
      "Ġstay": 4288,
      "}'": 4289,
      "ION": 4290,
      "dro": 4291,
      "Ġobjects": 4292,
      "Ġmovie": 4293,
      "tical": 4294,
      "78": 4295,
      "source": 4296,
      "ĠTechn": 4297,
      "Ġrelev": 4298,
      "well": 4299,
      "mary": 4300,
      "Ġdra": 4301,
      "Ġcollection": 4302,
      "ĠGeorge": 4303,
      "Ġdisplay": 4304,
      "ĠWhite": 4305,
      "AB": 4306,
      "subseteq": 4307,
      "rents": 4308,
      "Ġstatement": 4309,
      "ĠCong": 4310,
      "Ġfast": 4311,
      "vention": 4312,
      "ects": 4313,
      "Ġfigure": 4314,
      "bigg": 4315,
      "rief": 4316,
      "ĠPress": 4317,
      "Ġrelationship": 4318,
      "Ġord": 4319,
      "Ġscreen": 4320,
      "Ġpressure": 4321,
      "Ġperfect": 4322,
      "ils": 4323,
      "Ġgradu": 4324,
      "value": 4325,
      "1990": 4326,
      "Ġsufficient": 4327,
      "Ġlocation": 4328,
      "Ġconclud": 4329,
      "Theta": 4330,
      "agement": 4331,
      "ĠGra": 4332,
      "SP": 4333,
      "ĠFin": 4334,
      "Pe": 4335,
      "Ġpeak": 4336,
      "Ġdepart": 4337,
      "Ġdiscussed": 4338,
      "ĠIsrael": 4339,
      "Ġuncer": 4340,
      "ĠArch": 4341,
      "Ġones": 4342,
      "Ġquestions": 4343,
      "Ġsouth": 4344,
      "Ġcam": 4345,
      "thern": 4346,
      "Ġgeomet": 4347,
      "CO": 4348,
      "Ġqual": 4349,
      "cat": 4350,
      "Ġsurv": 4351,
      "Ġtelevision": 4352,
      "ĠParty": 4353,
      "Ġanti": 4354,
      "minus": 4355,
      "Ġmaintain": 4356,
      "ĠAssociation": 4357,
      "ipal": 4358,
      "ĠVol": 4359,
      "Ġminutes": 4360,
      "lam": 4361,
      "ees": 4362,
      "di": 4363,
      "unt": 4364,
      "Ġeverything": 4365,
      "Ġfollowed": 4366,
      "UR": 4367,
      "obile": 4368,
      "ĠĠĠĠĠĠĠĠĠĠĠĠĠĠĠĠĠĠĠ": 4369,
      "Ġtransport": 4370,
      "Here": 4371,
      "iment": 4372,
      "ĠAward": 4373,
      "Ġnoise": 4374,
      "auss": 4375,
      "ĠDec": 4376,
      "Rec": 4377,
      "Ġfinancial": 4378,
      "Ġscient": 4379,
      "Ġrow": 4380,
      "Ġter": 4381,
      "Note": 4382,
      "vis": 4383,
      "acity": 4384,
      "Ġexpress": 4385,
      "pose": 4386,
      "ean": 4387,
      "ĠÐ": 4388,
      "Ġactive": 4389,
      "bound": 4390,
      "Ġrock": 4391,
      "inos": 4392,
      "Ġsmooth": 4393,
      "Ġhref": 4394,
      "Ġfully": 4395,
      "Ġstop": 4396,
      "tty": 4397,
      "Ġstarting": 4398,
      "Ġtask": 4399,
      "Ġeasily": 4400,
      "sey": 4401,
      "Ġded": 4402,
      "eks": 4403,
      "ĠDiv": 4404,
      "ĠCap": 4405,
      "orthern": 4406,
      "Ġsituation": 4407,
      "Ġvar": 4408,
      "59": 4409,
      "urity": 4410,
      "Ġexactly": 4411,
      "Ġnegative": 4412,
      "inese": 4413,
      "ini": 4414,
      "........": 4415,
      "Ġflux": 4416,
      "Ġcharacters": 4417,
      "Ġremain": 4418,
      "Ge": 4419,
      "Ġinteraction": 4420,
      "ĠProf": 4421,
      "Ġadapt": 4422,
      "gs": 4423,
      "){\\": 4424,
      "App": 4425,
      "Ġoverall": 4426,
      "Ġreveal": 4427,
      "Ġfriends": 4428,
      "dist": 4429,
      "ĠInc": 4430,
      "Ġsaf": 4431,
      "tered": 4432,
      "underline": 4433,
      "ING": 4434,
      "Ġtal": 4435,
      "Ġlegal": 4436,
      "Ġdrug": 4437,
      "Ġderiv": 4438,
      "ani": 4439,
      "Ġisn": 4440,
      "{}": 4441,
      "Ġfair": 4442,
      "NA": 4443,
      "ufact": 4444,
      "ĠOut": 4445,
      "outhern": 4446,
      "ka": 4447,
      "Ġincreased": 4448,
      "Ġpark": 4449,
      "Ġstring": 4450,
      "Ġdevice": 4451,
      "linear": 4452,
      "<\\": 4453,
      "Ġarriv": 4454,
      "Ġselected": 4455,
      "76": 4456,
      "Ġleads": 4457,
      "Ġ$\\{": 4458,
      "Ġwid": 4459,
      "54": 4460,
      "ria": 4461,
      "eared": 4462,
      "Ġgauge": 4463,
      "Ġestablish": 4464,
      "reme": 4465,
      "ĠÃ": 4466,
      "board": 4467,
      "Ġcollect": 4468,
      "Ġdouble": 4469,
      "1997": 4470,
      "footnote": 4471,
      "Ġinterview": 4472,
      "Ġobservations": 4473,
      "ĠMat": 4474,
      "vest": 4475,
      "MC": 4476,
      "ĠDes": 4477,
      "51": 4478,
      "Ġchain": 4479,
      "Ġreduced": 4480,
      "haps": 4481,
      "52": 4482,
      "Ġslow": 4483,
      "ibly": 4484,
      "place": 4485,
      "ĠSw": 4486,
      "ĠSur": 4487,
      "Ġmicro": 4488,
      "ĠSub": 4489,
      "ĠTrans": 4490,
      "ras": 4491,
      "gn": 4492,
      "Ġreading": 4493,
      "ĠDon": 4494,
      "ded": 4495,
      "Ġchoose": 4496,
      "ager": 4497,
      "ĠRoad": 4498,
      "ĠLou": 4499,
      "rule": 4500,
      "Ġgoes": 4501,
      "Ġ$|": 4502,
      "enge": 4503,
      "antic": 4504,
      "ĠMus": 4505,
      "ĠAngel": 4506,
      "itar": 4507,
      "norm": 4508,
      "ms": 4509,
      "Ġresulting": 4510,
      "53": 4511,
      "Ġprimary": 4512,
      "Ġseg": 4513,
      "Ġbal": 4514,
      "Ġoperators": 4515,
      "abs": 4516,
      "Ġfirm": 4517,
      "arp": 4518,
      "ĠYear": 4519,
      "Ġlayer": 4520,
      "Ġappears": 4521,
      "Ġmus": 4522,
      "ĠSam": 4523,
      "Ġdiagram": 4524,
      "rial": 4525,
      "Ġmotion": 4526,
      "ĠFound": 4527,
      "Ġparticularly": 4528,
      "crete": 4529,
      "Ġteams": 4530,
      "}/": 4531,
      "ĠEv": 4532,
      "Ġuniform": 4533,
      "Ġculture": 4534,
      "Ġcause": 4535,
      "List": 4536,
      "ĠAlex": 4537,
      "Ġrules": 4538,
      "Id": 4539,
      "ĠSupp": 4540,
      "ĠLeg": 4541,
      "ĠQue": 4542,
      "bul": 4543,
      "Ġfeed": 4544,
      "Ġrule": 4545,
      "Ġmechanism": 4546,
      "ought": 4547,
      "Ġmeeting": 4548,
      "Ġdead": 4549,
      "ĠSing": 4550,
      "SC": 4551,
      "Ġessential": 4552,
      "Ġri": 4553,
      "setminus": 4554,
      "Ġwife": 4555,
      "Ġeight": 4556,
      "')": 4557,
      "ellar": 4558,
      "uman": 4559,
      "xy": 4560,
      "Ġbey": 4561,
      "Ġscheme": 4562,
      "ashed": 4563,
      "itch": 4564,
      "Ġlives": 4565,
      "ĠMac": 4566,
      "Ġmis": 4567,
      "Ġbeaut": 4568,
      "Ġsaying": 4569,
      "Ġbirths": 4570,
      "Ġscience": 4571,
      "olf": 4572,
      "Ġconsequ": 4573,
      "acing": 4574,
      "adian": 4575,
      "Ġtrade": 4576,
      "Ġbeyond": 4577,
      "Ġalign": 4578,
      "Ġexam": 4579,
      "Ġhence": 4580,
      "Ġtree": 4581,
      "Ġworth": 4582,
      "bon": 4583,
      "Ġâ": 4584,
      "Ġleave": 4585,
      "Ġmeaning": 4586,
      "Ġax": 4587,
      "iring": 4588,
      "Ġcompletely": 4589,
      "ĠAnn": 4590,
      "Ġachieve": 4591,
      "ĠChristian": 4592,
      "Ġhighly": 4593,
      "Ġreference": 4594,
      "Ġwide": 4595,
      "ancy": 4596,
      "Ġinequ": 4597,
      "Ġgrav": 4598,
      "Ġagreement": 4599,
      "win": 4600,
      "Ã³": 4601,
      "ĠPost": 4602,
      "1996": 4603,
      "Ġplatform": 4604,
      "ĠSta": 4605,
      "prod": 4606,
      "ĠIm": 4607,
      "Ġrecomm": 4608,
      "ĠMary": 4609,
      "Ġstudied": 4610,
      "aven": 4611,
      "ags": 4612,
      "Ġfactors": 4613,
      "cis": 4614,
      "Ġpanel": 4615,
      "dagger": 4616,
      "Ġeveryone": 4617,
      "Ġoperations": 4618,
      "Ġslight": 4619,
      "Ġnearly": 4620,
      "Ġpreviously": 4621,
      "Ġcontinued": 4622,
      "dt": 4623,
      "Ġsupported": 4624,
      "ln": 4625,
      "Ġsurpr": 4626,
      "93": 4627,
      "Ġcapital": 4628,
      "unk": 4629,
      "Ġhous": 4630,
      "Ġcast": 4631,
      "airs": 4632,
      "iques": 4633,
      "Ġmode": 4634,
      "Ġcontinuous": 4635,
      "Ġapplications": 4636,
      "Ġkin": 4637,
      "UT": 4638,
      "bour": 4639,
      "ĠInst": 4640,
      "ternet": 4641,
      "Ġult": 4642,
      "dependent": 4643,
      "Ġdro": 4644,
      "ona": 4645,
      "^{-\\": 4646,
      "uracy": 4647,
      "Ġpolynom": 4648,
      "Ġ($\\": 4649,
      "ĠDemocrat": 4650,
      "====": 4651,
      "Ġemission": 4652,
      "Ġexpand": 4653,
      "Ġetc": 4654,
      "Ġrates": 4655,
      "lement": 4656,
      "Ġinfin": 4657,
      "}}_{": 4658,
      "ĠSum": 4659,
      "Vert": 4660,
      "Ġchem": 4661,
      "Ġfavor": 4662,
      "Ġhyper": 4663,
      "86": 4664,
      "Not": 4665,
      ")|": 4666,
      "ĠSpec": 4667,
      "Ġactivity": 4668,
      "aughter": 4669,
      "ĠWil": 4670,
      "Ġgets": 4671,
      "Ġschools": 4672,
      "ĠCO": 4673,
      "roy": 4674,
      "amily": 4675,
      "Ġofficial": 4676,
      "*{": 4677,
      "lymp": 4678,
      "eria": 4679,
      "lo": 4680,
      "Ġcontroll": 4681,
      "ĠMag": 4682,
      "ĠPublic": 4683,
      "Ġgenerally": 4684,
      "Ġbrand": 4685,
      "iant": 4686,
      "iller": 4687,
      "87": 4688,
      "Ġability": 4689,
      "Ġclassical": 4690,
      "_*": 4691,
      "ĠOther": 4692,
      "Ġbrought": 4693,
      "EE": 4694,
      "Ġextra": 4695,
      "ĠBer": 4696,
      "ingu": 4697,
      "Ġaw": 4698,
      "but": 4699,
      "94": 4700,
      "ĠAfrica": 4701,
      "Ġfalse": 4702,
      "ĠRob": 4703,
      "ned": 4704,
      "Ġappropri": 4705,
      "Ġprofessional": 4706,
      "Ġdetermine": 4707,
      "aran": 4708,
      "Ġsymmetry": 4709,
      "ĠMa": 4710,
      "}},": 4711,
      "Ġrequest": 4712,
      "Ġblue": 4713,
      "display": 4714,
      "ĠBest": 4715,
      "ĠAre": 4716,
      "witter": 4717,
      "itable": 4718,
      "code": 4719,
      "ĠUnion": 4720,
      "Ġinstit": 4721,
      "Ġeconomic": 4722,
      "ĠHamilton": 4723,
      "Ġ*/": 4724,
      "ĠDel": 4725,
      "ĠCompany": 4726,
      "Ġscore": 4727,
      "'ll": 4728,
      "edom": 4729,
      "DF": 4730,
      "uthors": 4731,
      "ĠMet": 4732,
      "\\}": 4733,
      "Ġwidth": 4734,
      "Ġcompact": 4735,
      "Ġgovern": 4736,
      "IV": 4737,
      "Ġsamples": 4738,
      "ĠReview": 4739,
      "DA": 4740,
      "Ġparticles": 4741,
      "ĠVir": 4742,
      "ructure": 4743,
      "Ġminimum": 4744,
      "That": 4745,
      "300": 4746,
      "rey": 4747,
      "Ġexplicit": 4748,
      "Mod": 4749,
      "Ġtherm": 4750,
      "_+": 4751,
      "istor": 4752,
      "command": 4753,
      "miss": 4754,
      "!!": 4755,
      "Ġlif": 4756,
      "Ġweeks": 4757,
      "Ġexpansion": 4758,
      "Ġforms": 4759,
      "bo": 4760,
      "Ġ$-": 4761,
      "ĠTom": 4762,
      "ewidth": 4763,
      "Ġcurve": 4764,
      "ĠTex": 4765,
      "Ġconstit": 4766,
      "Ġcompl": 4767,
      "apter": 4768,
      "force": 4769,
      "Ġstraight": 4770,
      "isc": 4771,
      "etimes": 4772,
      "Ġstructures": 4773,
      "Ġcontribution": 4774,
      "Ġbrother": 4775,
      "Ġmeasured": 4776,
      "Ġensure": 4777,
      "Ġstrategy": 4778,
      "ĠGermany": 4779,
      "FF": 4780,
      "Ġembed": 4781,
      "ĠJer": 4782,
      "EM": 4783,
      "Ġnetworks": 4784,
      "Ġvolume": 4785,
      "92": 4786,
      "rupt": 4787,
      "Ġca": 4788,
      "$_": 4789,
      "anger": 4790,
      "ĠBo": 4791,
      "Ġconserv": 4792,
      "overy": 4793,
      "Ġrelevant": 4794,
      "Ġ(-": 4795,
      "CH": 4796,
      "izon": 4797,
      "Ġfinally": 4798,
      "ĠMex": 4799,
      "Ab": 4800,
      "Ġseven": 4801,
      "Ġdynamics": 4802,
      "Ġshowed": 4803,
      "Ġprocesses": 4804,
      "IL": 4805,
      "Ġsolid": 4806,
      "det": 4807,
      "iled": 4808,
      "Ġmedical": 4809,
      "Ġvariety": 4810,
      "ĠJul": 4811,
      "Ġfamilies": 4812,
      "data": 4813,
      "oplus": 4814,
      "ducation": 4815,
      "Ġchosen": 4816,
      "Ġnorm": 4817,
      "Post": 4818,
      "FL": 4819,
      "Ġ:=": 4820,
      "Ġreach": 4821,
      "ĠĠĠĊ": 4822,
      "Ġclasses": 4823,
      "ĠGold": 4824,
      "IP": 4825,
      "ĠClass": 4826,
      "ĠSal": 4827,
      "ĠSociety": 4828,
      "Ġuseful": 4829,
      "Ġstru": 4830,
      "Ġserious": 4831,
      "Ġframework": 4832,
      "BS": 4833,
      "Ġcos": 4834,
      "Ġgalaxies": 4835,
      "fit": 4836,
      "nel": 4837,
      "Ġproduce": 4838,
      "Ġprice": 4839,
      "ĠGreat": 4840,
      "Ġerr": 4841,
      "Ġmaps": 4842,
      "Ġ$[": 4843,
      "Ġ=>": 4844,
      "Ġrepe": 4845,
      "Ġmemory": 4846,
      "Ġbur": 4847,
      "iency": 4848,
      "Ġidentity": 4849,
      "mes": 4850,
      "urt": 4851,
      "However": 4852,
      "ĠNor": 4853,
      "_{{\\": 4854,
      "EL": 4855,
      "ba": 4856,
      "Ġlatter": 4857,
      "Ġforces": 4858,
      "ÃŃ": 4859,
      "Type": 4860,
      "Ġgreater": 4861,
      "Ġdistrict": 4862,
      "ĠPo": 4863,
      "iding": 4864,
      "ros": 4865,
      "Ġmale": 4866,
      "Ġsen": 4867,
      "Ġbank": 4868,
      "import": 4869,
      "Ġcivil": 4870,
      "Ġuncertaint": 4871,
      "wedge": 4872,
      "SO": 4873,
      "ropy": 4874,
      "ĠKe": 4875,
      "Ġlatt": 4876,
      "reek": 4877,
      "Ġcore": 4878,
      "Ġarbit": 4879,
      "riday": 4880,
      "Ġimag": 4881,
      "Ġrequires": 4882,
      "Ġbeginning": 4883,
      "ĠPre": 4884,
      "1995": 4885,
      "Ġshape": 4886,
      "Ġcounter": 4887,
      "ĠÂ£": 4888,
      "ĠPet": 4889,
      "Ġid": 4890,
      "Ġtrain": 4891,
      "Name": 4892,
      "function": 4893,
      "Ġcomparison": 4894,
      "omin": 4895,
      "Ġunits": 4896,
      "Ġcouple": 4897,
      "Ġstories": 4898,
      "ĠSund": 4899,
      "Ġgiving": 4900,
      "Ġsoftware": 4901,
      "Ġoppos": 4902,
      "iament": 4903,
      "ĠCommun": 4904,
      "ĠPlay": 4905,
      "Ġelectric": 4906,
      "cles": 4907,
      "Ġvariable": 4908,
      "Ġsymbol": 4909,
      "ĠIsland": 4910,
      "Ġformula": 4911,
      "Ġpurch": 4912,
      "run": 4913,
      "Ġpen": 4914,
      "ĠRef": 4915,
      "Ġparticle": 4916,
      "Ġvillage": 4917,
      "Ġtrac": 4918,
      "ĠMad": 4919,
      "ĠRad": 4920,
      "Ġbounded": 4921,
      "roid": 4922,
      "Ġoperation": 4923,
      "Ġderived": 4924,
      "My": 4925,
      "mas": 4926,
      "writ": 4927,
      "rees": 4928,
      "Ġsteps": 4929,
      "Ġmanif": 4930,
      "ĠFurther": 4931,
      "ĠProgram": 4932,
      "Ġexperiments": 4933,
      "ĠRobert": 4934,
      "Ġstudent": 4935,
      "Ġconsistent": 4936,
      "ĠPeople": 4937,
      "Ġcit": 4938,
      "resents": 4939,
      "ĠScott": 4940,
      "Ġextended": 4941,
      "linewidth": 4942,
      "Ġexamples": 4943,
      "Ġplane": 4944,
      "Ġappoint": 4945,
      "ĠSun": 4946,
      "Ġsongs": 4947,
      "uls": 4948,
      "Ġanim": 4949,
      "Ġneighbor": 4950,
      "Ġpretty": 4951,
      "Ġ%": 4952,
      "list": 4953,
      "Ġcard": 4954,
      "ĠNov": 4955,
      "Ġconnection": 4956,
      "ilarly": 4957,
      "Ġapproximation": 4958,
      "hand": 4959,
      "ĠChinese": 4960,
      "ĠBen": 4961,
      "ĠSmith": 4962,
      "Ġexcept": 4963,
      "dec": 4964,
      "subfigure": 4965,
      "Ġjournal": 4966,
      "Ġvs": 4967,
      "||": 4968,
      "Ġdecided": 4969,
      "mittee": 4970,
      "ND": 4971,
      "pers": 4972,
      "Ġplaces": 4973,
      "Ġturned": 4974,
      "ollary": 4975,
      "Qu": 4976,
      "ective": 4977,
      "72": 4978,
      "za": 4979,
      "ih": 4980,
      "Ġtraditional": 4981,
      "Ġpolar": 4982,
      "Ġhighest": 4983,
      "Ġmix": 4984,
      "Ġformed": 4985,
      "Ġorigin": 4986,
      "ĠStar": 4987,
      "roduction": 4988,
      "Ġmomentum": 4989,
      "colon": 4990,
      "Ġsplit": 4991,
      "Ġidentified": 4992,
      "Ġrap": 4993,
      "She": 4994,
      "ĠClub": 4995,
      "89": 4996,
      "Ġcoupling": 4997,
      "Ġdiscussion": 4998,
      "Ġnation": 4999,
      "ĠHistory": 5000,
      "ĠMo": 5001,
      "ado": 5002,
      "Ġsubset": 5003,
      "alo": 5004,
      "Ġobser": 5005,
      "('": 5006,
      "OP": 5007,
      "Ġsignificantly": 5008,
      "Ġactivities": 5009,
      "Ġspat": 5010,
      "ĠMiss": 5011,
      "Ġbasic": 5012,
      "),\\": 5013,
      "ĠSl": 5014,
      "pret": 5015,
      "message": 5016,
      "Ġwasn": 5017,
      "AG": 5018,
      "Ġkm": 5019,
      "Ġruns": 5020,
      "ĠBre": 5021,
      "Ġmentioned": 5022,
      "_{(": 5023,
      "ĠAcadem": 5024,
      "ita": 5025,
      "itely": 5026,
      "venue": 5027,
      "63": 5028,
      "ether": 5029,
      "Ġbelong": 5030,
      "Ð¾": 5031,
      "Ġchurch": 5032,
      "cel": 5033,
      "ocol": 5034,
      "ĠBill": 5035,
      "Acc": 5036,
      "ava": 5037,
      "yp": 5038,
      "1980": 5039,
      "ĠYour": 5040,
      "Ġchanged": 5041,
      "Ġdesp": 5042,
      "Ġopened": 5043,
      "velopment": 5044,
      "Ġpaint": 5045,
      "Ġwrong": 5046,
      "mercial": 5047,
      "Ġtru": 5048,
      "Ġdataset": 5049,
      "Ġcry": 5050,
      "ĠRel": 5051,
      "aker": 5052,
      "ĠST": 5053,
      "Ġsubsequ": 5054,
      "black": 5055,
      "ache": 5056,
      "anned": 5057,
      "Ġdescribe": 5058,
      "Ġassess": 5059,
      "apping": 5060,
      "Ġformation": 5061,
      "azine": 5062,
      "ishes": 5063,
      "rivial": 5064,
      "ipl": 5065,
      "Ġprograms": 5066,
      "Ġbul": 5067,
      "Ġshot": 5068,
      "Te": 5069,
      "ĠTur": 5070,
      "Ġfarm": 5071,
      "ĠCentral": 5072,
      "Ġaspect": 5073,
      "ĠCommission": 5074,
      "Ġclearly": 5075,
      "ĠUnder": 5076,
      "ĠRock": 5077,
      "Ġkilled": 5078,
      "unds": 5079,
      "\\'": 5080,
      "PC": 5081,
      "ĠRussian": 5082,
      "ĠFace": 5083,
      "Ġestimated": 5084,
      "Ġperturb": 5085,
      "Ġselect": 5086,
      "atre": 5087,
      "ĠRussia": 5088,
      "Ġce": 5089,
      "ĠFilm": 5090,
      "Ġvertex": 5091,
      "Ġplant": 5092,
      "Ġcontrast": 5093,
      "Ġmanufact": 5094,
      "Ġexisting": 5095,
      "ĠFore": 5096,
      "Ġexperiment": 5097,
      "Ġprogress": 5098,
      "Ġsometimes": 5099,
      "Ġplans": 5100,
      "Ġmiddle": 5101,
      "Ġstream": 5102,
      "ĠTexas": 5103,
      "ĠThomas": 5104,
      "Ġblood": 5105,
      "Ġbirth": 5106,
      "limits": 5107,
      "Ġsummer": 5108,
      "Ġprem": 5109,
      "Ġcomputer": 5110,
      "oting": 5111,
      "Ġmoving": 5112,
      "ellig": 5113,
      "Ġoptimal": 5114,
      "sych": 5115,
      "Ġpull": 5116,
      "Ġbus": 5117,
      "Ob": 5118,
      "Ġresolution": 5119,
      "Ġjoined": 5120,
      "Ġsett": 5121,
      "1994": 5122,
      "han": 5123,
      "ĠĠĠĠĊ": 5124,
      "ĠĠĠĠĠĠĠĠĠĠĠĠĠ": 5125,
      "icago": 5126,
      "ĠSee": 5127,
      "Ġabsol": 5128,
      "Ġpain": 5129,
      ")\\,": 5130,
      "ulate": 5131,
      "ĠService": 5132,
      "Ġepisode": 5133,
      "Ġexpon": 5134,
      "Ġlatest": 5135,
      "Ġconcent": 5136,
      "Ġrepresents": 5137,
      "iral": 5138,
      "ĠProposition": 5139,
      "Ġobvious": 5140,
      "ano": 5141,
      "Ġreduce": 5142,
      "ira": 5143,
      "ĠMinister": 5144,
      "ĠHill": 5145,
      "ifically": 5146,
      "ĠArmy": 5147,
      "inger": 5148,
      "Ġsimpl": 5149,
      "Ġleader": 5150,
      "Ġresources": 5151,
      "Ġdemand": 5152,
      "Ġexcit": 5153,
      "war": 5154,
      "Ġ\\(": 5155,
      "Ġmovement": 5156,
      "Ġanyone": 5157,
      "Ġparents": 5158,
      "Ġopportunity": 5159,
      "Ġ|\\": 5160,
      "ĠTor": 5161,
      "62": 5162,
      "Ġgun": 5163,
      "ĠMuseum": 5164,
      "Ġargument": 5165,
      "abilities": 5166,
      "Ġsn": 5167,
      "ecting": 5168,
      "ĠRoman": 5169,
      "ĠBoard": 5170,
      "Ġmur": 5171,
      "Cont": 5172,
      "Ġoffers": 5173,
      "Ġprevent": 5174,
      "Ġfile": 5175,
      "Ã¼": 5176,
      "91": 5177,
      "Ġappeared": 5178,
      "ua": 5179,
      "Ġ}\\": 5180,
      "aussian": 5181,
      "bur": 5182,
      "Ġlaws": 5183,
      "}}(\\": 5184,
      "Man": 5185,
      "ĠCongress": 5186,
      "lig": 5187,
      "Ġtim": 5188,
      "Ġadvanta": 5189,
      "61": 5190,
      "FT": 5191,
      "SU": 5192,
      "Ġenh": 5193,
      "?âĢĿ": 5194,
      "Ġreturned": 5195,
      "BA": 5196,
      "Ġaccuracy": 5197,
      "cher": 5198,
      "Ġmole": 5199,
      "ĠKore": 5200,
      "Ġpartners": 5201,
      "ĠGovernment": 5202,
      "Ġextrem": 5203,
      "Ġimmediately": 5204,
      "Ġgreen": 5205,
      "ĠAfrican": 5206,
      ")_{": 5207,
      "Ġcategory": 5208,
      "Ġscene": 5209,
      "ĠOver": 5210,
      "uations": 5211,
      "Ġminim": 5212,
      "Ġexc": 5213,
      "Ġsimulations": 5214,
      "Val": 5215,
      "anda": 5216,
      "produ": 5217,
      "Ġmessage": 5218,
      "Ġcarry": 5219,
      "Ġnumerical": 5220,
      "Ġsec": 5221,
      "MA": 5222,
      "Ġconvers": 5223,
      "bi": 5224,
      "istan": 5225,
      "owers": 5226,
      "ustain": 5227,
      "ĠCat": 5228,
      ")}(": 5229,
      "Ġspectral": 5230,
      "Ġcool": 5231,
      "Ġprep": 5232,
      "alian": 5233,
      "ĠDirector": 5234,
      "ĠRet": 5235,
      "Ġunderstanding": 5236,
      "otion": 5237,
      "Ġpurpose": 5238,
      "Ġharm": 5239,
      "Ġ>>": 5240,
      "Ġamb": 5241,
      "ĠFrancis": 5242,
      "pan": 5243,
      "ĠHence": 5244,
      "undred": 5245,
      "ympt": 5246,
      "Sim": 5247,
      "Ġselection": 5248,
      "Ġcompleted": 5249,
      "Ġcru": 5250,
      "Ġfelt": 5251,
      "OC": 5252,
      "uting": 5253,
      "Ġquickly": 5254,
      "endix": 5255,
      "term": 5256,
      "fully": 5257,
      "ĠRoyal": 5258,
      "oma": 5259,
      "png": 5260,
      "84": 5261,
      "Ġcollabor": 5262,
      "ki": 5263,
      "Ġnames": 5264,
      "oura": 5265,
      "bt": 5266,
      "ĠPlan": 5267,
      "ĠCarol": 5268,
      "Ġgeneration": 5269,
      "Ġgrad": 5270,
      "Ġnodes": 5271,
      "Ġpoor": 5272,
      "74": 5273,
      "{$\\": 5274,
      "Ġprocedure": 5275,
      "deg": 5276,
      "Ġsquare": 5277,
      "Sec": 5278,
      "Ġdigital": 5279,
      "Ġbillion": 5280,
      "room": 5281,
      "Ġcalculated": 5282,
      "gest": 5283,
      "aturday": 5284,
      "itt": 5285,
      "Ġproviding": 5286,
      "Ġvisual": 5287,
      "rr": 5288,
      "ĠOffice": 5289,
      "burg": 5290,
      "eds": 5291,
      "Ġexistence": 5292,
      "Ġheavy": 5293,
      "enty": 5294,
      "Ġdual": 5295,
      "ĠPM": 5296,
      "aith": 5297,
      "Ġfraction": 5298,
      "Ġinfluence": 5299,
      "First": 5300,
      "Ġearn": 5301,
      ")/": 5302,
      "aught": 5303,
      "While": 5304,
      "Ġple": 5305,
      ")^{\\": 5306,
      "ĠBrown": 5307,
      "Ġprojects": 5308,
      "Ġnoted": 5309,
      "ĠHen": 5310,
      "Ġpiece": 5311,
      "âĢĿ.": 5312,
      "ĠMost": 5313,
      "kin": 5314,
      "ymmet": 5315,
      "ĠLat": 5316,
      "ĠAlso": 5317,
      "Ġmarried": 5318,
      "Ġincreases": 5319,
      "Ġfans": 5320,
      "These": 5321,
      "Ġdecay": 5322,
      "ĠFlor": 5323,
      "Ġreached": 5324,
      "Ġrecorded": 5325,
      "ĠAustralian": 5326,
      "Ġdisease": 5327,
      "Ġwonder": 5328,
      "ĠMoreover": 5329,
      "ĠList": 5330,
      "gu": 5331,
      "Ġfine": 5332,
      "orter": 5333,
      "Ġrepresented": 5334,
      "TS": 5335,
      "ena": 5336,
      "Ġexperimental": 5337,
      "Ġprofile": 5338,
      "Ġbuy": 5339,
      "Ġgrand": 5340,
      "69": 5341,
      "porary": 5342,
      "Ġoccup": 5343,
      "Ġshoot": 5344,
      "ĠRem": 5345,
      "ĠPeter": 5346,
      "Ġorganization": 5347,
      "Ġamplit": 5348,
      "Ð°": 5349,
      "definition": 5350,
      "Ġlic": 5351,
      "ĠFoundation": 5352,
      "Ġradius": 5353,
      "perp": 5354,
      "Ġlattice": 5355,
      "EO": 5356,
      "Ġflat": 5357,
      "Ġteac": 5358,
      "Ġbrief": 5359,
      "Ġliterature": 5360,
      "oom": 5361,
      "ĠOlymp": 5362,
      "Ġspent": 5363,
      "'_": 5364,
      "Ġrestrict": 5365,
      "}$-": 5366,
      "requ": 5367,
      "ĠCommittee": 5368,
      "ĠBusiness": 5369,
      "Ġdescription": 5370,
      "Ġhttps": 5371,
      "Ġsatisfies": 5372,
      "aligned": 5373,
      "Ġmeasurements": 5374,
      "Ġsigned": 5375,
      "Ġdomin": 5376,
      "icon": 5377,
      "ĠDef": 5378,
      "Ġcombination": 5379,
      "rative": 5380,
      "Ġauthors": 5381,
      "ĠSa": 5382,
      "Ġgrant": 5383,
      "ulture": 5384,
      "ensus": 5385,
      "Ġgold": 5386,
      "Ġapproximately": 5387,
      "1992": 5388,
      "Ġspaces": 5389,
      "hold": 5390,
      "ĠCD": 5391,
      "73": 5392,
      "road": 5393,
      "free": 5394,
      "Figure": 5395,
      "model": 5396,
      "Ġprint": 5397,
      "met": 5398,
      "ĠTown": 5399,
      "2022": 5400,
      "ĠDuring": 5401,
      "Ġtas": 5402,
      "dy": 5403,
      "fficients": 5404,
      "ĠWestern": 5405,
      "onald": 5406,
      "rient": 5407,
      "Ġcluster": 5408,
      "net": 5409,
      "ĠMem": 5410,
      "Ġnull": 5411,
      "1993": 5412,
      "Ġotherwise": 5413,
      "Ġincor": 5414,
      "va": 5415,
      "ady": 5416,
      "Ġvoice": 5417,
      "ptions": 5418,
      "Ġanswer": 5419,
      "ĠWomen": 5420,
      "path": 5421,
      "Ġreports": 5422,
      "ĠIr": 5423,
      "ĠGrand": 5424,
      "Ġhands": 5425,
      "sol": 5426,
      "main": 5427,
      "Ġdaughter": 5428,
      "Ġcopy": 5429,
      "Ġmeasures": 5430,
      "Ġgr": 5431,
      "Ġstated": 5432,
      "Ġvertices": 5433,
      "OL": 5434,
      ".~(\\": 5435,
      "sto": 5436,
      "Ġstrength": 5437,
      "ogue": 5438,
      "ĠBi": 5439,
      "cknow": 5440,
      "ameter": 5441,
      "}%": 5442,
      "Ġstatus": 5443,
      "coming": 5444,
      "Ġpm": 5445,
      "Ġcaused": 5446,
      "Ġ&&": 5447,
      "Ġfemale": 5448,
      "Ġsociety": 5449,
      "arks": 5450,
      "83": 5451,
      "Ġintegral": 5452,
      "Or": 5453,
      "apers": 5454,
      "ĠCamp": 5455,
      "ĠUSA": 5456,
      "hol": 5457,
      "CS": 5458,
      "Ġassumption": 5459,
      "ester": 5460,
      "ictor": 5461,
      "Ġindividuals": 5462,
      "ĠIN": 5463,
      "forall": 5464,
      "Ġdetection": 5465,
      "ĠLu": 5466,
      "real": 5467,
      "ollowing": 5468,
      "ologies": 5469,
      "Ġchance": 5470,
      "Ġjoint": 5471,
      "ĠTimes": 5472,
      "ĠFriday": 5473,
      "ading": 5474,
      "ĠWed": 5475,
      "ĠBig": 5476,
      "Ġappropriate": 5477,
      "Ġsites": 5478,
      "Ġconsists": 5479,
      "79": 5480,
      "ĠLand": 5481,
      "cases": 5482,
      "_{-": 5483,
      "ĠJose": 5484,
      "ĠAlthough": 5485,
      "People": 5486,
      "ĠSuper": 5487,
      "Ġonto": 5488,
      "Ġdirected": 5489,
      "Ġcorresponds": 5490,
      "house": 5491,
      "Ġsecret": 5492,
      "Ġwa": 5493,
      "riz": 5494,
      "Ġvirt": 5495,
      "ĠMer": 5496,
      "ĠTwo": 5497,
      "Ġunivers": 5498,
      "Ġtransl": 5499,
      "Ġsector": 5500,
      "Ġdepends": 5501,
      "Ġeventually": 5502,
      "witch": 5503,
      ".[": 5504,
      "Ġremaining": 5505,
      "Ne": 5506,
      "Ġring": 5507,
      "82": 5508,
      "Ġbottom": 5509,
      "ĠTHE": 5510,
      "Ġmorning": 5511,
      "ĠJournal": 5512,
      "simeq": 5513,
      "Ġvote": 5514,
      "iable": 5515,
      "ĠSunday": 5516,
      "bed": 5517,
      "omic": 5518,
      "Ġconstraints": 5519,
      "Ġquarter": 5520,
      "ĠRichard": 5521,
      "ĠLife": 5522,
      "Ġmajority": 5523,
      "idden": 5524,
      "Ġemail": 5525,
      "ala": 5526,
      "Ġtechniques": 5527,
      "ĠOpen": 5528,
      ",\\,": 5529,
      "ĠCath": 5530,
      "ĠEducation": 5531,
      "ĠRev": 5532,
      "Ġreceive": 5533,
      "=(": 5534,
      "Ġheard": 5535,
      "Ġframe": 5536,
      "pc": 5537,
      "iful": 5538,
      "PA": 5539,
      "Ġcorrelation": 5540,
      "71": 5541,
      "Ġdefe": 5542,
      "osh": 5543,
      "Ġforeign": 5544,
      "Ðµ": 5545,
      "vere": 5546,
      "edia": 5547,
      "ĠTime": 5548,
      "textsc": 5549,
      "normal": 5550,
      "Ġdrive": 5551,
      "Ġartist": 5552,
      "Ġhop": 5553,
      "Ġsafety": 5554,
      "subsubsection": 5555,
      "zer": 5556,
      "using": 5557,
      "cons": 5558,
      "Ġoil": 5559,
      "ĠCarl": 5560,
      "Ġrail": 5561,
      ":\\": 5562,
      "neg": 5563,
      "ĠFrank": 5564,
      "ald": 5565,
      "IA": 5566,
      "Ġedges": 5567,
      "Ġdistinct": 5568,
      "Ġinstrum": 5569,
      "Ġopening": 5570,
      "TV": 5571,
      "Ġinequality": 5572,
      "Ġphen": 5573,
      "Ġangle": 5574,
      "ĠLouis": 5575,
      "Ġcosts": 5576,
      "Ġapproaches": 5577,
      "Net": 5578,
      "Ġalone": 5579,
      "Ġlooks": 5580,
      "Ġload": 5581,
      "Ġreflect": 5582,
      "81": 5583,
      "Ġidentify": 5584,
      "asure": 5585,
      "Ġinform": 5586,
      "Ġpolitic": 5587,
      "ĠDen": 5588,
      "amental": 5589,
      "Ġrelatively": 5590,
      "Ġsurround": 5591,
      "'\\": 5592,
      "Ġgrowing": 5593,
      "kes": 5594,
      "They": 5595,
      "Ġpoly": 5596,
      "ĠMass": 5597,
      "ĠVirgin": 5598,
      "ogene": 5599,
      "\")": 5600,
      "Ġreplace": 5601,
      "icks": 5602,
      "Ġspread": 5603,
      "Ġfederal": 5604,
      "Ġthous": 5605,
      "ĠSu": 5606,
      "Ġdespite": 5607,
      "Ġefficient": 5608,
      "alg": 5609,
      "anish": 5610,
      "Ġartists": 5611,
      "ola": 5612,
      "ĠJapanese": 5613,
      "Ġ+\\": 5614,
      "ĠMel": 5615,
      "Ġslightly": 5616,
      "ĠGoogle": 5617,
      "ĠEarth": 5618,
      "Ġanc": 5619,
      "iverse": 5620,
      "conn": 5621,
      "yan": 5622,
      "Ġtrust": 5623,
      "reland": 5624,
      "attering": 5625,
      "etime": 5626,
      "Ġsimulation": 5627,
      "Eq": 5628,
      "ette": 5629,
      "RA": 5630,
      "Ġscalar": 5631,
      "ĠAccording": 5632,
      "Ġsort": 5633,
      "400": 5634,
      "bullet": 5635,
      "men": 5636,
      "sembly": 5637,
      "Ġpure": 5638,
      "Ġcollege": 5639,
      "Ġ~": 5640,
      "ĠDivision": 5641,
      "onday": 5642,
      "Ġcomments": 5643,
      "return": 5644,
      "String": 5645,
      "Ġmut": 5646,
      "ĠLos": 5647,
      "ĠAM": 5648,
      "ĠFacebook": 5649,
      "=-": 5650,
      "Ġlaun": 5651,
      "Ġpropag": 5652,
      "ĠIran": 5653,
      "ĠBank": 5654,
      "ĠTop": 5655,
      "su": 5656,
      "Ġmassive": 5657,
      "test": 5658,
      "Ġplays": 5659,
      "Ġcapacity": 5660,
      "Ġintroduce": 5661,
      "ĠGood": 5662,
      "oration": 5663,
      "Ġknew": 5664,
      "ĠUp": 5665,
      "SE": 5666,
      "1970": 5667,
      "ĠChicago": 5668,
      "Ġinterested": 5669,
      "ĠBur": 5670,
      "Ġsal": 5671,
      "Ġshowing": 5672,
      "mann": 5673,
      "Ġplaced": 5674,
      "iling": 5675,
      "Ġcompute": 5676,
      "Ġlisted": 5677,
      "Ġinternal": 5678,
      "FA": 5679,
      "$^{-": 5680,
      "Ġactions": 5681,
      "zero": 5682,
      "Ġeffort": 5683,
      "Ġcontributions": 5684,
      "tage": 5685,
      "ilib": 5686,
      "\\!\\!": 5687,
      "Set": 5688,
      "Ġminor": 5689,
      "Ã¶": 5690,
      "Ġstable": 5691,
      "Ġmodes": 5692,
      "Ġcoefficients": 5693,
      "itation": 5694,
      "ĠCanadian": 5695,
      "Ġenter": 5696,
      "ashion": 5697,
      "Ġign": 5698,
      "Ġcompetition": 5699,
      "Ġfourth": 5700,
      "Ġ!": 5701,
      "Ġextension": 5702,
      "Ġextract": 5703,
      "FC": 5704,
      "ears": 5705,
      "sur": 5706,
      "/>": 5707,
      "while": 5708,
      "ĠSeries": 5709,
      "Ġoption": 5710,
      "Ġmachine": 5711,
      "~$\\": 5712,
      "Ġmissing": 5713,
      "Ġactual": 5714,
      "Ġseparate": 5715,
      "Ġbud": 5716,
      "west": 5717,
      "stack": 5718,
      "Ġrise": 5719,
      "asy": 5720,
      "Ġdevices": 5721,
      "ĠKingdom": 5722,
      "Ġreb": 5723,
      "oday": 5724,
      "yr": 5725,
      "HS": 5726,
      "Ġcombined": 5727,
      "ĠIS": 5728,
      "weet": 5729,
      "}^*": 5730,
      "active": 5731,
      "Ġspot": 5732,
      "Ġcommunities": 5733,
      "Ġefforts": 5734,
      "Ġcancer": 5735,
      "Ġesc": 5736,
      "ĠSocial": 5737,
      "Ġhear": 5738,
      "Pol": 5739,
      "bin": 5740,
      "Ġaccur": 5741,
      "vex": 5742,
      "agraph": 5743,
      "1991": 5744,
      "Ġhar": 5745,
      "Ġdeaths": 5746,
      "'d": 5747,
      "Ġeyes": 5748,
      "Ġinteractions": 5749,
      "ĠJun": 5750,
      "$).": 5751,
      "Ġroll": 5752,
      "ĠProject": 5753,
      "fort": 5754,
      "Ġtruth": 5755,
      "Ġattract": 5756,
      "Ġrespond": 5757,
      "Ġceleb": 5758,
      "ĠHel": 5759,
      "Ġpropos": 5760,
      "ĠEqu": 5761,
      "Ġresponsible": 5762,
      "rich": 5763,
      "Ġpassed": 5764,
      "Ġmission": 5765,
      "ĠSaturday": 5766,
      "Ġformal": 5767,
      ")^{-": 5768,
      "ĠSecond": 5769,
      "Ġdebut": 5770,
      "Ġdifferences": 5771,
      "Ġship": 5772,
      "Ġcandidate": 5773,
      "Ġdistributions": 5774,
      "Ð¸": 5775,
      "Ġeth": 5776,
      "ĠSol": 5777,
      "Ġagree": 5778,
      "Ġsales": 5779,
      "Mar": 5780,
      "Ġclin": 5781,
      "olk": 5782,
      "$(": 5783,
      "oding": 5784,
      "ĠEven": 5785,
      "ursday": 5786,
      "Ġhundred": 5787,
      "erman": 5788,
      "Ġdream": 5789,
      "Ġinterpret": 5790,
      "Ste": 5791,
      "Ġcarried": 5792,
      "Ġsch": 5793,
      "Ġspectra": 5794,
      "Ġcommunication": 5795,
      "ench": 5796,
      "Ġtren": 5797,
      "rium": 5798,
      "Ind": 5799,
      "Ġannual": 5800,
      "gent": 5801,
      "Ġclean": 5802,
      "deed": 5803,
      "ĠSecret": 5804,
      "Ġworkers": 5805,
      "ĠAcademy": 5806,
      "^{+": 5807,
      "ĠAnt": 5808,
      "azz": 5809,
      "Ġfix": 5810,
      "Pr": 5811,
      "rot": 5812,
      "riage": 5813,
      "Ġhuge": 5814,
      "Ġ&=&": 5815,
      "ĠFlorida": 5816,
      "orage": 5817,
      "Ġcoach": 5818,
      "Ġdenotes": 5819,
      "Ġbeg": 5820,
      "Ġmostly": 5821,
      "ancing": 5822,
      "Ed": 5823,
      "uled": 5824,
      "Ġnuclear": 5825,
      "Ġtun": 5826,
      "Ġtouch": 5827,
      "newcommand": 5828,
      "Ġpicture": 5829,
      "={": 5830,
      "Ġarrest": 5831,
      "ĠProv": 5832,
      "}}^": 5833,
      "print": 5834,
      "Sub": 5835,
      "Ġreasons": 5836,
      "inner": 5837,
      "GB": 5838,
      "Ġproceed": 5839,
      "Ġbill": 5840,
      "cho": 5841,
      "Ġheight": 5842,
      "Ġow": 5843,
      "lines": 5844,
      "Ġestimates": 5845,
      "matrix": 5846,
      "Ġagent": 5847,
      "Ġsampl": 5848,
      "inv": 5849,
      "tag": 5850,
      "ĠFestival": 5851,
      "Ġstore": 5852,
      "Ġdivid": 5853,
      "ĠGr": 5854,
      "ĠParis": 5855,
      "ĠEach": 5856,
      "ĠDevelopment": 5857,
      "ĠAngeles": 5858,
      "quare": 5859,
      "isl": 5860,
      "case": 5861,
      "Ġexpressed": 5862,
      ")}{\\": 5863,
      "Ġspirit": 5864,
      "Ġabsor": 5865,
      "hom": 5866,
      "reshold": 5867,
      "Ġtheore": 5868,
      "$$\\": 5869,
      "ayer": 5870,
      "Ġmarg": 5871,
      "Get": 5872,
      "ĠLake": 5873,
      "elled": 5874,
      "atus": 5875,
      "ĠArts": 5876,
      "ĠSil": 5877,
      "Ġcurves": 5878,
      "Ġalternative": 5879,
      "udes": 5880,
      "ĠNetwork": 5881,
      "Ġspatial": 5882,
      "pmatrix": 5883,
      "Thus": 5884,
      "ML": 5885,
      "itors": 5886,
      "Ġtensor": 5887,
      "ĠOffic": 5888,
      "ĠCharles": 5889,
      "âĢĺ": 5890,
      "})$.": 5891,
      "Im": 5892,
      "Ġdu": 5893,
      "aylor": 5894,
      "icine": 5895,
      "Me": 5896,
      "pat": 5897,
      "string": 5898,
      "Ġideas": 5899,
      "igan": 5900,
      "Ġoptions": 5901,
      "Ġcircle": 5902,
      "Ġoptical": 5903,
      "OD": 5904,
      "Ġcritic": 5905,
      "CA": 5906,
      "State": 5907,
      "ĠOh": 5908,
      "Ġinnov": 5909,
      "dx": 5910,
      "Ġthick": 5911,
      "Ġwants": 5912,
      "rates": 5913,
      "Ġmaterials": 5914,
      "Ġquas": 5915,
      "Ġdetailed": 5916,
      "Ġtransformation": 5917,
      "Tr": 5918,
      "CL": 5919,
      "Ġattrib": 5920,
      "ĠData": 5921,
      "Ġdependence": 5922,
      "Ġcosm": 5923,
      "Can": 5924,
      "Ġrapid": 5925,
      "related": 5926,
      "Ġshared": 5927,
      "Ġwriter": 5928,
      "rons": 5929,
      "Ġfreedom": 5930,
      "osis": 5931,
      "Ġthrow": 5932,
      "Ġreplaced": 5933,
      ")\\\\": 5934,
      "ĠIslam": 5935,
      "Ġquad": 5936,
      "Ġregime": 5937,
      "Ġopin": 5938,
      "thlet": 5939,
      "rive": 5940,
      "ĠPan": 5941,
      "Co": 5942,
      "osure": 5943,
      "stitution": 5944,
      "ban": 5945,
      "atically": 5946,
      "unc": 5947,
      "ĠJo": 5948,
      "Ġstellar": 5949,
      "){": 5950,
      "Ġcitiz": 5951,
      "Ġexchange": 5952,
      "index": 5953,
      "Ġinner": 5954,
      "ĠIreland": 5955,
      "CE": 5956,
      "Ġcycle": 5957,
      "Ġhappen": 5958,
      "Ġcommand": 5959,
      "Ġcontaining": 5960,
      "Ġassumed": 5961,
      "uesday": 5962,
      "ĠHy": 5963,
      "ĠIma": 5964,
      "ĠForm": 5965,
      "ĠChild": 5966,
      "Ġrecords": 5967,
      "Ġiniti": 5968,
      "Ġprison": 5969,
      "remark": 5970,
      "Ġpowerful": 5971,
      "ĠCur": 5972,
      "omy": 5973,
      "CP": 5974,
      "illa": 5975,
      "Ġinvariant": 5976,
      "Ġprote": 5977,
      "Ġbehavi": 5978,
      "Ġalgorithms": 5979,
      "150": 5980,
      "fered": 5981,
      "ulf": 5982,
      "ĠSk": 5983,
      "isher": 5984,
      "Ġsle": 5985,
      "rec": 5986,
      "Hz": 5987,
      "ĠJud": 5988,
      "##": 5989,
      "icity": 5990,
      "iders": 5991,
      "Ġsymmetric": 5992,
      "ĠIts": 5993,
      "nb": 5994,
      "Ġstrugg": 5995,
      "istical": 5996,
      "Ġwest": 5997,
      "Ġnom": 5998,
      "ĠGames": 5999,
      "History": 6000,
      "Ġconsidering": 6001,
      "Ġregist": 6002,
      "poss": 6003,
      "Ġmer": 6004,
      "porate": 6005,
      "Ġtor": 6006,
      "seud": 6007,
      "Ġrare": 6008,
      "Ġerrors": 6009,
      "ĠHome": 6010,
      "Ġblog": 6011,
      "Par": 6012,
      "Ġsingular": 6013,
      "Ġ=\\": 6014,
      "Ġideal": 6015,
      "aby": 6016,
      "Ġtypically": 6017,
      "icated": 6018,
      "Ġborder": 6019,
      "Ġhelped": 6020,
      "\"/>": 6021,
      "ĠOper": 6022,
      "ĠAtl": 6023,
      "ĠKn": 6024,
      "Ġhydro": 6025,
      "pa": 6026,
      "hem": 6027,
      "Ġserve": 6028,
      "dim": 6029,
      "Ġreson": 6030,
      "Ġpositions": 6031,
      "ĠServices": 6032,
      "standing": 6033,
      "Fe": 6034,
      "ella": 6035,
      "Ġmorph": 6036,
      "Ġreduction": 6037,
      "Ġchallenge": 6038,
      ")$-": 6039,
      "Ġcommercial": 6040,
      "ĠTheir": 6041,
      "Ġcop": 6042,
      "ĠMur": 6043,
      "Ġproved": 6044,
      "sect": 6045,
      "Ġclimate": 6046,
      "mapsto": 6047,
      "CT": 6048,
      "Ġmess": 6049,
      "Ġperhaps": 6050,
      "km": 6051,
      "Ġdisk": 6052,
      "MR": 6053,
      "dsh": 6054,
      "Ġpaid": 6055,
      "Ġlooked": 6056,
      "Ġvary": 6057,
      "1989": 6058,
      "dem": 6059,
      "Ġpairs": 6060,
      "check": 6061,
      "Ġtoward": 6062,
      "nesday": 6063,
      "Ġweb": 6064,
      "Ġacadem": 6065,
      "SA": 6066,
      "ĠLee": 6067,
      "ĠProfess": 6068,
      "Ġapparent": 6069,
      "ĠCam": 6070,
      "Ġconfiguration": 6071,
      "Ġchief": 6072,
      "Ġadop": 6073,
      "Ġbattle": 6074,
      "Ġclassification": 6075,
      "Ġfinding": 6076,
      "}}^{": 6077,
      "Ġdepth": 6078,
      "ernel": 6079,
      "NR": 6080,
      "oving": 6081,
      "ĠLin": 6082,
      "Ġclaims": 6083,
      "Ġcomputed": 6084,
      "Ġcompare": 6085,
      "Ġcalc": 6086,
      "Ġcook": 6087,
      ")_": 6088,
      "Ġremember": 6089,
      "Ġhappened": 6090,
      "eller": 6091,
      "Ġresol": 6092,
      "Ġwat": 6093,
      "Ġtypical": 6094,
      "Ġmeasurement": 6095,
      "rical": 6096,
      "astern": 6097,
      "Ġyields": 6098,
      "Ġbranch": 6099,
      "Ġapart": 6100,
      "Ġstrongly": 6101,
      "Ġleague": 6102,
      "Ġwild": 6103,
      "Ġsurvey": 6104,
      "Ġresist": 6105,
      "agonal": 6106,
      "ĠArab": 6107,
      "alysis": 6108,
      "going": 6109,
      "esh": 6110,
      "ĠWeek": 6111,
      "ias": 6112,
      "ĠMartin": 6113,
      "ogen": 6114,
      "erved": 6115,
      "Over": 6116,
      "ĠÂ»": 6117,
      "Ġarbitrary": 6118,
      "irmed": 6119,
      "param": 6120,
      "soft": 6121,
      "Ġphone": 6122,
      "ĠHot": 6123,
      "ittle": 6124,
      "Theorem": 6125,
      "Ġheat": 6126,
      "Ġcolle": 6127,
      "amely": 6128,
      "translation": 6129,
      "Ġpoll": 6130,
      "ĠManagement": 6131,
      "ĠLove": 6132,
      "ĠShow": 6133,
      "ski": 6134,
      "Ġsun": 6135,
      "Ġvictim": 6136,
      "ĠĠĠĠĠĠĠĠĠĠ": 6137,
      "asion": 6138,
      "hemat": 6139,
      "Data": 6140,
      "\\\"": 6141,
      "Ġletter": 6142,
      "igration": 6143,
      "Ġgoals": 6144,
      "nt": 6145,
      "ĠBu": 6146,
      "then": 6147,
      "abil": 6148,
      "Ġdisapp": 6149,
      "Supp": 6150,
      "Ġachieved": 6151,
      "inding": 6152,
      "Ġkept": 6153,
      "length": 6154,
      "orial": 6155,
      "Ġready": 6156,
      "Ġthank": 6157,
      "Do": 6158,
      "Ġtried": 6159,
      "ĠOl": 6160,
      "Ġmatrices": 6161,
      "alls": 6162,
      "Ġconstructed": 6163,
      "Ġfinished": 6164,
      "ĠIll": 6165,
      "inem": 6166,
      "ĠCa": 6167,
      "bold": 6168,
      "des": 6169,
      "rank": 6170,
      "Ġguaran": 6171,
      "Ġorb": 6172,
      "erry": 6173,
      "ĠWood": 6174,
      "ĠMexico": 6175,
      "Ġnotice": 6176,
      "Ġadvantage": 6177,
      "ĠJim": 6178,
      "eech": 6179,
      "itness": 6180,
      "ĠMonday": 6181,
      "ipped": 6182,
      "Ġstatic": 6183,
      "Ġincome": 6184,
      "Ġorient": 6185,
      "Ġhorizon": 6186,
      "ootball": 6187,
      "ĠZeal": 6188,
      "Ġtrial": 6189,
      "arden": 6190,
      "Ġtesting": 6191,
      "Ġutil": 6192,
      "nergy": 6193,
      "ĠTour": 6194,
      "cular": 6195,
      "Ġpolic": 6196,
      "Go": 6197,
      "Ġsports": 6198,
      "John": 6199,
      "Ġpolynomial": 6200,
      "ĠAP": 6201,
      "Ġgap": 6202,
      "graph": 6203,
      "ĠâĢ¦": 6204,
      "Ġeast": 6205,
      "tri": 6206,
      "Ġmanager": 6207,
      "hab": 6208,
      "ĠMil": 6209,
      "Ġlaunch": 6210,
      "Ġraised": 6211,
      "ĠLong": 6212,
      "Ġexternal": 6213,
      "Ġproport": 6214,
      "ĠHig": 6215,
      "bel": 6216,
      "\\_": 6217,
      "Ġinvestigation": 6218,
      "NS": 6219,
      "prob": 6220,
      "ĠTim": 6221,
      "Ġsegment": 6222,
      "Ġphil": 6223,
      "Ġdog": 6224,
      "Ġparallel": 6225,
      "Ġcentre": 6226,
      "Ġgenerate": 6227,
      "ato": 6228,
      "Ġofficials": 6229,
      "Ġmaster": 6230,
      "Ġdecom": 6231,
      "ĠEp": 6232,
      "Ġalle": 6233,
      "ĠGaussian": 6234,
      "Living": 6235,
      "comple": 6236,
      "Ġindeed": 6237,
      "âĢĿ,": 6238,
      "Ġasympt": 6239,
      "pothes": 6240,
      "viation": 6241,
      "Ġobserve": 6242,
      "ircraft": 6243,
      "Ġparties": 6244,
      "Ġtrib": 6245,
      "ferent": 6246,
      "gar": 6247,
      "ĠMedia": 6248,
      "Ġshift": 6249,
      "Ġfif": 6250,
      "omorphic": 6251,
      "cript": 6252,
      "Ġstress": 6253,
      "ĠBr": 6254,
      "ĠZealand": 6255,
      "odot": 6256,
      "phen": 6257,
      "pton": 6258,
      "undle": 6259,
      "Ġkids": 6260,
      "Ġphenomen": 6261,
      "Ġreconst": 6262,
      "LP": 6263,
      "cr": 6264,
      "($": 6265,
      "Ġwhom": 6266,
      "ĠAut": 6267,
      "Ġsomew": 6268,
      "rect": 6269,
      "ĠEvery": 6270,
      "ĠItalian": 6271,
      "ĠBob": 6272,
      "Ġsea": 6273,
      "Ġconflic": 6274,
      "Ġplease": 6275,
      "ĠJohnson": 6276,
      "Ġmill": 6277,
      "tik": 6278,
      "Ġcustomers": 6279,
      "Ġbenefit": 6280,
      "Ġemp": 6281,
      "ĠPri": 6282,
      "usband": 6283,
      "ĠAv": 6284,
      "eli": 6285,
      "ĠâĢ¢": 6286,
      "ĠVictor": 6287,
      "Ġarrang": 6288,
      "anging": 6289,
      "file": 6290,
      "kins": 6291,
      "ĠHamiltonian": 6292,
      "column": 6293,
      "Ġjoin": 6294,
      "Ġprefer": 6295,
      "tail": 6296,
      "ĠOF": 6297,
      "arts": 6298,
      "Ġgalaxy": 6299,
      "Ġbuildings": 6300,
      "stra": 6301,
      "1988": 6302,
      "ĠExp": 6303,
      "'(": 6304,
      "1960": 6305,
      "Ġvoid": 6306,
      "Ġwinning": 6307,
      "Ġeconomy": 6308,
      "Ġexplained": 6309,
      "Ġreality": 6310,
      "Ġplanet": 6311,
      "proposition": 6312,
      "Ġwood": 6313,
      "$;": 6314,
      "ĠOld": 6315,
      "$~": 6316,
      "values": 6317,
      "ENT": 6318,
      "Ġoriginally": 6319,
      "Ġtraffic": 6320,
      "Reg": 6321,
      "Ġcontinues": 6322,
      "ĠGet": 6323,
      "Ġsto": 6324,
      "Ġelected": 6325,
      "ilibrium": 6326,
      "Ġsemi": 6327,
      "Ġleaving": 6328,
      "elli": 6329,
      "Ġfundamental": 6330,
      "Ġarchitecture": 6331,
      "Ġer": 6332,
      "Ġlearned": 6333,
      "poses": 6334,
      "law": 6335,
      "Ġoffered": 6336,
      "uty": 6337,
      "PT": 6338,
      "UN": 6339,
      "Ġtend": 6340,
      "itle": 6341,
      "ader": 6342,
      "Ġregarding": 6343,
      "espite": 6344,
      "ĠThursday": 6345,
      "ĠElect": 6346,
      "\\{\\": 6347,
      "Ġthinking": 6348,
      "arliament": 6349,
      "ĠTwitter": 6350,
      "annels": 6351,
      "Ġbright": 6352,
      "Ġhole": 6353,
      "Ġ==": 6354,
      "stream": 6355,
      "Ġreligious": 6356,
      "ĠLie": 6357,
      "aming": 6358,
      "Ġimportance": 6359,
      "hbox": 6360,
      "}&": 6361,
      "ĠHaw": 6362,
      "razil": 6363,
      "Ġmetal": 6364,
      "Ġguitar": 6365,
      "mc": 6366,
      "Ġpurs": 6367,
      "idel": 6368,
      "ĠMax": 6369,
      "ĠScot": 6370,
      "Ġchemical": 6371,
      "Ġsustain": 6372,
      "LS": 6373,
      "Ġentry": 6374,
      "ĠItaly": 6375,
      "riminal": 6376,
      "ĠEngine": 6377,
      "Ġended": 6378,
      "ĠFre": 6379,
      "ao": 6380,
      "ĠDu": 6381,
      "ĠIII": 6382,
      "ĠPenn": 6383,
      "ĠSpace": 6384,
      "ipment": 6385,
      "Ġsenior": 6386,
      "Ġsatisfy": 6387,
      "page": 6388,
      "-$": 6389,
      "Per": 6390,
      "\\|_{": 6391,
      "Ġfailed": 6392,
      "Ġrequirements": 6393,
      "ĠTechnology": 6394,
      "ĠChampionship": 6395,
      "Ġmobile": 6396,
      "odies": 6397,
      "DS": 6398,
      "ĠCentre": 6399,
      "Ġboy": 6400,
      "ĠValley": 6401,
      "ĠYoung": 6402,
      "Cons": 6403,
      "Form": 6404,
      "post": 6405,
      "uing": 6406,
      "Ġplanning": 6407,
      "Ġcertainly": 6408,
      "Ġmasses": 6409,
      "Ġusual": 6410,
      "iana": 6411,
      "otal": 6412,
      "Ġfunctional": 6413,
      "fs": 6414,
      "Ġpeace": 6415,
      "ĠSaint": 6416,
      "According": 6417,
      "Ġrevealed": 6418,
      "Ġolder": 6419,
      "ĠChief": 6420,
      "Ġsexual": 6421,
      "Ġwel": 6422,
      "ĠCatholic": 6423,
      "ĠCre": 6424,
      "}({\\": 6425,
      "Ġcreating": 6426,
      "url": 6427,
      "energy": 6428,
      "ĠAtt": 6429,
      "Ġindicate": 6430,
      "roph": 6431,
      "LO": 6432,
      "spect": 6433,
      "oston": 6434,
      "cean": 6435,
      "weight": 6436,
      "rations": 6437,
      "phas": 6438,
      "Ġtools": 6439,
      "Ġbecoming": 6440,
      "ĠBet": 6441,
      "eless": 6442,
      "Ġunion": 6443,
      "jo": 6444,
      "DP": 6445,
      "Ġvehicle": 6446,
      "Ġsections": 6447,
      "Ġremoved": 6448,
      "rating": 6449,
      "Ġhospital": 6450,
      "ĠSar": 6451,
      "opic": 6452,
      "Of": 6453,
      "Ġefficiency": 6454,
      "ixt": 6455,
      "Ġrough": 6456,
      "ĠTeam": 6457,
      "onent": 6458,
      "tikz": 6459,
      "ĠGal": 6460,
      "ĠInformation": 6461,
      "ĠFinally": 6462,
      "ographic": 6463,
      "ĠCast": 6464,
      "Ġpush": 6465,
      "Ġadding": 6466,
      "ĠJones": 6467,
      "height": 6468,
      "mosp": 6469,
      "scill": 6470,
      "Ġwindow": 6471,
      "ingly": 6472,
      "ĠHuman": 6473,
      "chen": 6474,
      "ĠBecause": 6475,
      "Ġcalls": 6476,
      "ĠVirginia": 6477,
      "ĠCommunity": 6478,
      "Ġdoor": 6479,
      "Ġforced": 6480,
      "Ġlum": 6481,
      "Ġtrained": 6482,
      "Ġfamous": 6483,
      "estic": 6484,
      "Ġunf": 6485,
      ".$": 6486,
      "spe": 6487,
      "Ġconvergence": 6488,
      "Ġstrict": 6489,
      "link": 6490,
      "osc": 6491,
      "ifferent": 6492,
      "Cor": 6493,
      "hbar": 6494,
      "Ġsport": 6495,
      "jection": 6496,
      "ifier": 6497,
      "ĠAwards": 6498,
      "Ġobservation": 6499,
      "vin": 6500,
      "aver": 6501,
      "Ġadministration": 6502,
      "acc": 6503,
      "Ġcontained": 6504,
      "Ġlaunched": 6505,
      "cong": 6506,
      "____": 6507,
      "sis": 6508,
      "Ġinduced": 6509,
      "ĠBoth": 6510,
      "ĠWay": 6511,
      "Ġunknown": 6512,
      "Ġowners": 6513,
      "mma": 6514,
      "Ġcrow": 6515,
      "Ġvectors": 6516,
      "kl": 6517,
      "elligence": 6518,
      "Ġcomputation": 6519,
      "cknowled": 6520,
      "Ġlimits": 6521,
      "1987": 6522,
      "Ġcharged": 6523,
      "Next": 6524,
      "Ġahead": 6525,
      "Ġfounded": 6526,
      "Ġofficer": 6527,
      "Ġminimal": 6528,
      "ĠHistor": 6529,
      "Ġcovered": 6530,
      "Ġdaily": 6531,
      "----------------": 6532,
      "View": 6533,
      "ĠPR": 6534,
      "Ġweap": 6535,
      "Ġaudience": 6536,
      "Ġupdate": 6537,
      "poration": 6538,
      "Ġcoordinates": 6539,
      "ĠWell": 6540,
      "120": 6541,
      "Ġthreshold": 6542,
      "enced": 6543,
      "pendence": 6544,
      "Ġdriving": 6545,
      "Ġpsych": 6546,
      "Ġinterval": 6547,
      "picture": 6548,
      "Ġaccel": 6549,
      "ko": 6550,
      "Ġpatient": 6551,
      "inst": 6552,
      "Ġbenefits": 6553,
      "Ġadjust": 6554,
      "Pre": 6555,
      "Ġcultural": 6556,
      "Ġreferred": 6557,
      "ĠGall": 6558,
      "ĠParliament": 6559,
      "ounder": 6560,
      "acter": 6561,
      "claim": 6562,
      "lt": 6563,
      "ĠMcC": 6564,
      "Class": 6565,
      "ĠEr": 6566,
      "Ġscattering": 6567,
      "ĠRecords": 6568,
      "Ġimplic": 6569,
      "ifications": 6570,
      "ĠRail": 6571,
      "ĠTuesday": 6572,
      "Ġtechnical": 6573,
      "Ġexcell": 6574,
      "ĠDou": 6575,
      "ĠUN": 6576,
      "Ġmotiv": 6577,
      "ifies": 6578,
      ")},": 6579,
      "emporary": 6580,
      "ĠHor": 6581,
      "ĠJac": 6582,
      "ĠEconom": 6583,
      "displaystyle": 6584,
      "Ġoverl": 6585,
      "1000": 6586,
      "Ġbeautiful": 6587,
      "|_{": 6588,
      "ĠSet": 6589,
      "SR": 6590,
      ",$": 6591,
      "Ġdifferential": 6592,
      "Ġprocessing": 6593,
      "Ġindicates": 6594,
      "ĠLibrary": 6595,
      "Ġbra": 6596,
      "oses": 6597,
      "aser": 6598,
      "rapy": 6599,
      "urban": 6600,
      "SI": 6601,
      "Ġlies": 6602,
      "multi": 6603,
      "1986": 6604,
      "ĠVer": 6605,
      "ĠGen": 6606,
      "izer": 6607,
      "Ġperspect": 6608,
      "faces": 6609,
      "Ġimproved": 6610,
      "ĠMicro": 6611,
      "ĠĠĠĠĠĠĠĠĠĠĠĠ": 6612,
      "Ġmiles": 6613,
      "Ð½": 6614,
      "ronic": 6615,
      "Ġbrain": 6616,
      "MM": 6617,
      "abase": 6618,
      "Ġtalking": 6619,
      "Ġconclude": 6620,
      "Ġast": 6621,
      "Ġhour": 6622,
      "Ġanalog": 6623,
      "flow": 6624,
      "Further": 6625,
      "anges": 6626,
      "Ġtick": 6627,
      "ĠSpanish": 6628,
      "Ġhappy": 6629,
      "Ġimplementation": 6630,
      "ĠBud": 6631,
      "ĠCy": 6632,
      "Ġplus": 6633,
      "herent": 6634,
      "Ġice": 6635,
      "Ġitems": 6636,
      "ĠWednesday": 6637,
      "ĠBas": 6638,
      "Ġcoast": 6639,
      "sch": 6640,
      "imb": 6641,
      "Ġsuggests": 6642,
      "Ġprotect": 6643,
      "Ġeditor": 6644,
      "Ġremark": 6645,
      "Ġmerg": 6646,
      "Ġattacks": 6647,
      "Ġdestroy": 6648,
      "Ġappearance": 6649,
      "she": 6650,
      "ĠCare": 6651,
      "ĠSpr": 6652,
      "igation": 6653,
      "ĠMu": 6654,
      "Ġorganizations": 6655,
      "Ġsafe": 6656,
      "}}$.": 6657,
      "Some": 6658,
      "ĠPac": 6659,
      "Ġdegrees": 6660,
      "Ġmagnitude": 6661,
      "Ġodd": 6662,
      "ĠWho": 6663,
      ".;": 6664,
      "})$,": 6665,
      "Ġwarm": 6666,
      "ĠDet": 6667,
      ")+\\": 6668,
      "Ġfan": 6669,
      "Ġoperating": 6670,
      "Ġconference": 6671,
      "Sch": 6672,
      "clusive": 6673,
      "Ġdoll": 6674,
      "Ġrecommend": 6675,
      "TR": 6676,
      "Ġyield": 6677,
      "rc": 6678,
      "gener": 6679,
      "Ġoscill": 6680,
      "Ġlab": 6681,
      "Ġfunding": 6682,
      "example": 6683,
      "Ġstock": 6684,
      "Ġcloud": 6685,
      "mass": 6686,
      "Ġturns": 6687,
      "Ġviews": 6688,
      "Ġhusband": 6689,
      "ĠMont": 6690,
      "ĠUsing": 6691,
      "Fl": 6692,
      "Ġisol": 6693,
      "ĠHon": 6694,
      "Ġprediction": 6695,
      "GC": 6696,
      "Ġremained": 6697,
      "Ġthermal": 6698,
      "ĠĠĠĠĠĠĠĠĠĠĠĠĠĠĠĠĠĠĠĠĠĠĠ": 6699,
      "ĠSand": 6700,
      "Ġsym": 6701,
      "Ġfeet": 6702,
      "Ġgrid": 6703,
      "ican": 6704,
      "Ġmeant": 6705,
      "ĠObama": 6706,
      "ĠJewish": 6707,
      "ultural": 6708,
      "Ġsolar": 6709,
      "ribution": 6710,
      "Ġrestaur": 6711,
      "life": 6712,
      "blue": 6713,
      "tem": 6714,
      "ĠConn": 6715,
      "Ġrecall": 6716,
      "ora": 6717,
      "ĠMiddle": 6718,
      "Ġloop": 6719,
      "Ġbeam": 6720,
      "Def": 6721,
      "Ġdistributed": 6722,
      "ifts": 6723,
      "Ġstarts": 6724,
      "itivity": 6725,
      "vol": 6726,
      "ĠGame": 6727,
      "Ġcities": 6728,
      "iro": 6729,
      "ĠLord": 6730,
      "Finally": 6731,
      "eces": 6732,
      "ĠGre": 6733,
      "risis": 6734,
      "word": 6735,
      "}}$,": 6736,
      "Ġnet": 6737,
      "Ġdanger": 6738,
      "Ġhistorical": 6739,
      "Ġpet": 6740,
      "Ġinvestment": 6741,
      "Ġsynthe": 6742,
      "host": 6743,
      "Ġran": 6744,
      "May": 6745,
      "het": 6746,
      "ĠSpe": 6747,
      "Ġfaith": 6748,
      "ĠWin": 6749,
      "alog": 6750,
      "Comp": 6751,
      "Ġfilter": 6752,
      "amin": 6753,
      "Ġmusical": 6754,
      "Ġmainly": 6755,
      "Ġlayers": 6756,
      "ĠSM": 6757,
      "BI": 6758,
      "Ġexplore": 6759,
      "ĠLi": 6760,
      ")-\\": 6761,
      "ĠFurthermore": 6762,
      "Ġeye": 6763,
      "Ġ;": 6764,
      "ĠMany": 6765,
      "Ġoccurs": 6766,
      "Ġskills": 6767,
      "eries": 6768,
      "Ġnor": 6769,
      "ĠEnter": 6770,
      "Ġtheoretical": 6771,
      "ĠHenry": 6772,
      "Ġmixed": 6773,
      "sen": 6774,
      "Ġ$$": 6775,
      "Ġspeech": 6776,
      "1984": 6777,
      "ĠMuslim": 6778,
      "Ġdetect": 6779,
      "Ġcov": 6780,
      "}{|": 6781,
      "Ġelim": 6782,
      "Ġfloor": 6783,
      "uries": 6784,
      "Ġacts": 6785,
      "Ġforest": 6786,
      "iano": 6787,
      "Ġencoura": 6788,
      "ĠForce": 6789,
      "Ġpages": 6790,
      "Ġsuggested": 6791,
      "CR": 6792,
      "Ġearth": 6793,
      "Ġbiggest": 6794,
      "orrow": 6795,
      "utch": 6796,
      ")}_{": 6797,
      "ĠLy": 6798,
      "ĠWind": 6799,
      "Ġcreat": 6800,
      "Ġorth": 6801,
      "utation": 6802,
      "Ġsmart": 6803,
      "Ġbinary": 6804,
      "Other": 6805,
      "ourney": 6806,
      "ĠDown": 6807,
      "Ġallowing": 6808,
      "'}": 6809,
      "Ġmedium": 6810,
      "ĠCr": 6811,
      "Ġsolve": 6812,
      "Ġphoto": 6813,
      "pg": 6814,
      "Ġdepending": 6815,
      "ÑĤ": 6816,
      "ĠAsia": 6817,
      "Ġcomplic": 6818,
      "))$": 6819,
      "Ġappointed": 6820,
      "Ġextremely": 6821,
      "ĠLiber": 6822,
      "Ġhypothes": 6823,
      "Ġbeat": 6824,
      "uilding": 6825,
      "Ġnine": 6826,
      "contin": 6827,
      "ĠWilliams": 6828,
      "ĠCarolina": 6829,
      "Ġchampions": 6830,
      "yer": 6831,
      "Ġtechnique": 6832,
      "uous": 6833,
      "local": 6834,
      "rane": 6835,
      "PP": 6836,
      "Ġuncertainty": 6837,
      "Ġattend": 6838,
      "Ġtourn": 6839,
      "Ġdistingu": 6840,
      "Ġund": 6841,
      "ĠWall": 6842,
      "Ġscenario": 6843,
      "OW": 6844,
      "ĠStand": 6845,
      "Ġens": 6846,
      "Ġtasks": 6847,
      "Ġfluct": 6848,
      "Ġshock": 6849,
      "Ġrotation": 6850,
      "Ġassign": 6851,
      "Ġdrop": 6852,
      "ruit": 6853,
      "such": 6854,
      "ĠNY": 6855,
      "Table": 6856,
      "Ġdust": 6857,
      "ĠPower": 6858,
      "Ġinteger": 6859,
      "Ġmodule": 6860,
      "Ġviolence": 6861,
      "Ġneighborhood": 6862,
      "GL": 6863,
      "icted": 6864,
      "Ġnotation": 6865,
      "unct": 6866,
      "Ġstreet": 6867,
      "ogeneous": 6868,
      "Ġevaluation": 6869,
      "Ġmaybe": 6870,
      "Ã¤": 6871,
      "}$)": 6872,
      "ĠSummer": 6873,
      "Ġevol": 6874,
      "grad": 6875,
      "Ġsend": 6876,
      "Ġcandidates": 6877,
      "Ġamplitude": 6878,
      "Ġmanner": 6879,
      "CM": 6880,
      "Ġresearc": 6881,
      "ĠUs": 6882,
      "&=&": 6883,
      "~~~~": 6884,
      "avel": 6885,
      "greg": 6886,
      "EW": 6887,
      "1985": 6888,
      "Ġsave": 6889,
      "ĠJes": 6890,
      "Introduction": 6891,
      "Ġchanging": 6892,
      "Ġgraphs": 6893,
      "IF": 6894,
      "Ġfocused": 6895,
      "ĠJoseph": 6896,
      "Ġconfirmed": 6897,
      "perty": 6898,
      "osop": 6899,
      "Ġnumerous": 6900,
      "[(": 6901,
      "$),": 6902,
      "Ġpartner": 6903,
      "Ġcharges": 6904,
      "Ġroot": 6905,
      "wa": 6906,
      "Ġpi": 6907,
      "Ġdeliver": 6908,
      "DM": 6909,
      "0000": 6910,
      "ĠChris": 6911,
      "Part": 6912,
      "Ġlived": 6913,
      "Ġleadership": 6914,
      "ĠPak": 6915,
      "ĠGeorg": 6916,
      "Ġrich": 6917,
      "Ġpolicies": 6918,
      "ĠKh": 6919,
      "Ġsubstant": 6920,
      "ĠMen": 6921,
      "ĠFree": 6922,
      "Ġcomplexity": 6923,
      "Ġphysics": 6924,
      "Ġsell": 6925,
      "Ġfeatured": 6926,
      "Ġdiagn": 6927,
      "Ġchallenges": 6928,
      "Ġcalculations": 6929,
      "Ġque": 6930,
      "Ġ$|\\": 6931,
      "Ġadvert": 6932,
      "px": 6933,
      "iler": 6934,
      "Ġgone": 6935,
      "defined": 6936,
      "Ġemployees": 6937,
      "Ġburn": 6938,
      "umni": 6939,
      "Ġconducted": 6940,
      "orney": 6941,
      "Ġcars": 6942,
      "ups": 6943,
      "Ġdiscovered": 6944,
      "urance": 6945,
      "_-": 6946,
      "Ġdimensions": 6947,
      "ĠBritain": 6948,
      "inton": 6949,
      "Ġcamera": 6950,
      "car": 6951,
      "ĠPolicy": 6952,
      "TC": 6953,
      "inations": 6954,
      "Ġcredit": 6955,
      "Ġaircraft": 6956,
      "Ġemphas": 6957,
      "ĠBra": 6958,
      "((": 6959,
      "Ġaxis": 6960,
      "ĠTaylor": 6961,
      "Ġscales": 6962,
      "Ġcalculation": 6963,
      "SM": 6964,
      "Ġconj": 6965,
      "ĠJeff": 6966,
      "ometric": 6967,
      "system": 6968,
      "Er": 6969,
      "iced": 6970,
      "ipage": 6971,
      "version": 6972,
      "ĠBal": 6973,
      "how": 6974,
      "Ġdamage": 6975,
      "}{(": 6976,
      "Ġiter": 6977,
      "adium": 6978,
      "Ġexpert": 6979,
      "Ġdelay": 6980,
      "Therefore": 6981,
      "ĠWater": 6982,
      "minipage": 6983,
      "stract": 6984,
      "ĠPolice": 6985,
      "Ġradiation": 6986,
      "Ġresidents": 6987,
      "Ġchannels": 6988,
      "Ġfresh": 6989,
      "Ġexception": 6990,
      "cref": 6991,
      "Ġcouldn": 6992,
      "ĠSecurity": 6993,
      "Ġstuff": 6994,
      "Ġarray": 6995,
      "Ġdepartment": 6996,
      "à¥": 6997,
      "LC": 6998,
      "Ġarticles": 6999,
      "ĠTest": 7000,
      "âĢ¢": 7001,
      "Ġconven": 7002,
      "ĠColl": 7003,
      "phone": 7004,
      "Ġroute": 7005,
      "LA": 7006,
      "anche": 7007,
      "Ġhappens": 7008,
      "oder": 7009,
      "ĠLab": 7010,
      "rehen": 7011,
      "Out": 7012,
      "Ġbudget": 7013,
      "ĠReport": 7014,
      "uses": 7015,
      "Ġthr": 7016,
      "unte": 7017,
      "wan": 7018,
      "ucky": 7019,
      "Ġion": 7020,
      "cs": 7021,
      "yself": 7022,
      "ATE": 7023,
      "ĠFamily": 7024,
      "sets": 7025,
      "arian": 7026,
      "ictures": 7027,
      "Ġpolitics": 7028,
      "DR": 7029,
      "cccc": 7030,
      "ĠMike": 7031,
      "Ġterror": 7032,
      "\"><": 7033,
      "Ġprinciple": 7034,
      "Bar": 7035,
      "ĠPolit": 7036,
      "zen": 7037,
      "Ġequipment": 7038,
      "Ġinstall": 7039,
      "];": 7040,
      "escription": 7041,
      "Ġchair": 7042,
      "gcolor": 7043,
      "ansas": 7044,
      "Ġjump": 7045,
      "Gu": 7046,
      "supp": 7047,
      "Ġisland": 7048,
      "Ġleaves": 7049,
      "ĠSwed": 7050,
      "lick": 7051,
      "Ġsides": 7052,
      "Ġdraft": 7053,
      "Ġexecutive": 7054,
      "ĠEll": 7055,
      "plot": 7056,
      "ystem": 7057,
      "FR": 7058,
      "Ġpartial": 7059,
      "Ġstations": 7060,
      "Am": 7061,
      "Ġinfinite": 7062,
      "Ġconsult": 7063,
      "Ġclusters": 7064,
      "ads": 7065,
      "Ass": 7066,
      "Ġcrime": 7067,
      "Ġacting": 7068,
      "ĠJon": 7069,
      "aval": 7070,
      "Ġenvironmental": 7071,
      "othing": 7072,
      "Ġredsh": 7073,
      "Ġwhereas": 7074,
      "Ġatmosp": 7075,
      "care": 7076,
      "amm": 7077,
      "ĠTre": 7078,
      "Ġmonitor": 7079,
      "ĠSpecial": 7080,
      "Ġmountain": 7081,
      "Ġdeveloping": 7082,
      "Ġthanks": 7083,
      "input": 7084,
      "ÑĢ": 7085,
      "Ġpossibility": 7086,
      "Ġcircum": 7087,
      "ĠEnd": 7088,
      "ĠWal": 7089,
      "ĠLag": 7090,
      "ĠAff": 7091,
      "Ġwish": 7092,
      ":}": 7093,
      "coh": 7094,
      "brid": 7095,
      "Ġaffected": 7096,
      "Ġintegration": 7097,
      "ented": 7098,
      "Ġreform": 7099,
      "Ġfailure": 7100,
      "Ġlabor": 7101,
      "town": 7102,
      "Ġrelax": 7103,
      "Ġ()": 7104,
      "inking": 7105,
      "pty": 7106,
      "ĠLim": 7107,
      "ĠInternet": 7108,
      "ĠStat": 7109,
      "iy": 7110,
      "Ġaffect": 7111,
      "ĠPhys": 7112,
      "La": 7113,
      "Ġoptimization": 7114,
      "bal": 7115,
      "Ġbed": 7116,
      "Ġliber": 7117,
      "cd": 7118,
      "Ġmanaged": 7119,
      "Ġstability": 7120,
      "gal": 7121,
      "ĠEU": 7122,
      "Ġprotection": 7123,
      "Ġcomposition": 7124,
      "Ġlocations": 7125,
      "Ġedition": 7126,
      "Ġcycl": 7127,
      "Ġhero": 7128,
      "Ġ\\!": 7129,
      "awa": 7130,
      "ĠBlue": 7131,
      "ja": 7132,
      "Ġdecades": 7133,
      "250": 7134,
      "Rel": 7135,
      "Ġpossibly": 7136,
      "ĠCharl": 7137,
      "Ġexponential": 7138,
      "Ġbin": 7139,
      "rance": 7140,
      "onical": 7141,
      "ĠRE": 7142,
      "ĠWhy": 7143,
      "Ġdynamic": 7144,
      "]{\\": 7145,
      "Ġincident": 7146,
      "ova": 7147,
      "Ġsusp": 7148,
      "Ġconfirm": 7149,
      "oat": 7150,
      "ĠRam": 7151,
      "Ġtrees": 7152,
      "Ġsched": 7153,
      "TH": 7154,
      "Ġdefense": 7155,
      "ograp": 7156,
      "anguages": 7157,
      "Ġsettle": 7158,
      "ĠSenate": 7159,
      "Spec": 7160,
      "atever": 7161,
      "clusions": 7162,
      "ĠDig": 7163,
      "two": 7164,
      "ĠEmp": 7165,
      "Ġofficers": 7166,
      "Ġking": 7167,
      "cf": 7168,
      "Ġagents": 7169,
      "ĠColumb": 7170,
      "ighter": 7171,
      "ĠConference": 7172,
      "Ġordered": 7173,
      "ĠFootball": 7174,
      "Ġformat": 7175,
      "Ġbands": 7176,
      "str": 7177,
      "bas": 7178,
      "ĠGlobal": 7179,
      "Ġpartition": 7180,
      "reci": 7181,
      "Ġentertain": 7182,
      "Ġtests": 7183,
      "iveness": 7184,
      "bu": 7185,
      "ĠSports": 7186,
      "Ġorders": 7187,
      "Ġ?": 7188,
      "TE": 7189,
      "isters": 7190,
      "kers": 7191,
      "Ġstatistics": 7192,
      "Ġaccurate": 7193,
      "ĠTri": 7194,
      "Ġguy": 7195,
      "Ġelectronic": 7196,
      "Ġalbums": 7197,
      "ĠCle": 7198,
      "Ġsatisfying": 7199,
      "ĠBrazil": 7200,
      "rounds": 7201,
      "ortunately": 7202,
      "ĠBoston": 7203,
      "mazon": 7204,
      "Ġconnect": 7205,
      "ĠDev": 7206,
      "Ġvariation": 7207,
      "Ġpix": 7208,
      "ĠFund": 7209,
      "Ġfashion": 7210,
      "tan": 7211,
      "Ġclaimed": 7212,
      "ĠRo": 7213,
      "Ġcold": 7214,
      "ĠIR": 7215,
      "Ġpil": 7216,
      "Ġcoverage": 7217,
      "Ġinitially": 7218,
      "itan": 7219,
      "Ġ${": 7220,
      "1983": 7221,
      "ĠAndrew": 7222,
      "El": 7223,
      "Ġprime": 7224,
      "forward": 7225,
      "Ġtreated": 7226,
      "Posted": 7227,
      "Ġfant": 7228,
      "obs": 7229,
      "Ġcitizens": 7230,
      "Ġdiss": 7231,
      "Ġnice": 7232,
      "ĠSuch": 7233,
      "Ġseeing": 7234,
      "Ġstandards": 7235,
      "abled": 7236,
      "Ġjobs": 7237,
      "Ġcert": 7238,
      "ati": 7239,
      "Ġfigures": 7240,
      "Why": 7241,
      "Time": 7242,
      "Ġpoet": 7243,
      "inet": 7244,
      "Ġreaction": 7245,
      "phant": 7246,
      "ĠJustice": 7247,
      "ditional": 7248,
      "********": 7249,
      "Ġopportunities": 7250,
      "Ġvictory": 7251,
      "Ġactor": 7252,
      "Ġbroadcast": 7253,
      "Ġadopted": 7254,
      "Ġrobust": 7255,
      "Ġdiscrete": 7256,
      "Ġcatch": 7257,
      "Ġscaling": 7258,
      "Ġinterface": 7259,
      "Ġsinger": 7260,
      "ĠAmericans": 7261,
      "ĠBack": 7262,
      "Inter": 7263,
      "ĠVis": 7264,
      "Ġmyself": 7265,
      "gypt": 7266,
      "Ġgradient": 7267,
      "Ġsupply": 7268,
      "Ġbounds": 7269,
      "Ġpredicted": 7270,
      "ĠNight": 7271,
      "ĠAge": 7272,
      "Ġknows": 7273,
      "Med": 7274,
      "1982": 7275,
      "Ġlie": 7276,
      "Ġmodified": 7277,
      "Using": 7278,
      "itage": 7279,
      "Ġtells": 7280,
      "Ġexerc": 7281,
      "Ġdivision": 7282,
      "Ġtraject": 7283,
      "Ġissued": 7284,
      "Ġmist": 7285,
      "imately": 7286,
      "Ġmoments": 7287,
      "ĠDesign": 7288,
      "Ġcommission": 7289,
      "ĠMedical": 7290,
      "ĠCEO": 7291,
      "bmatrix": 7292,
      "Ġangular": 7293,
      ")}}": 7294,
      "cut": 7295,
      "Ġstorage": 7296,
      "ĠIrish": 7297,
      "ĠAR": 7298,
      "Ġfat": 7299,
      "Ġsav": 7300,
      "ĠBow": 7301,
      "Tra": 7302,
      "110": 7303,
      "Ġnone": 7304,
      "Ġnewsp": 7305,
      "uan": 7306,
      "ultane": 7307,
      "Ġbgcolor": 7308,
      "ideos": 7309,
      "zy": 7310,
      "uum": 7311,
      "ĠApple": 7312,
      "Ġadm": 7313,
      "Ġstudio": 7314,
      "bigl": 7315,
      "ĠAbout": 7316,
      "ĠNorthern": 7317,
      "Ġsuitable": 7318,
      "Ġspecifically": 7319,
      "Ġstatistical": 7320,
      "Ã¨": 7321,
      "ĠTheatre": 7322,
      "Ġdescribes": 7323,
      "ĠCard": 7324,
      "Art": 7325,
      "Ġfib": 7326,
      "Ġ]": 7327,
      "ĠVan": 7328,
      "ĠFrancisco": 7329,
      "ĠFort": 7330,
      "Ġdial": 7331,
      "Ġtail": 7332,
      "Ġ[\\": 7333,
      "Ġnarrow": 7334,
      "floor": 7335,
      "Ġinvolving": 7336,
      "Ġfle": 7337,
      "ĠCross": 7338,
      "oral": 7339,
      "ĠCP": 7340,
      "ĠWeb": 7341,
      "1950": 7342,
      "uster": 7343,
      "Ġcoefficient": 7344,
      "Ġbalance": 7345,
      "ishop": 7346,
      "Ġentropy": 7347,
      "ĠFar": 7348,
      "ylvan": 7349,
      "Ġuniversity": 7350,
      "friend": 7351,
      "Ġpatterns": 7352,
      "Ġdedicated": 7353,
      "Ġcm": 7354,
      "Ġpurposes": 7355,
      "ockey": 7356,
      "Ġcompris": 7357,
      "aks": 7358,
      "athan": 7359,
      "rics": 7360,
      "Ġaspects": 7361,
      "Ġextend": 7362,
      "Ñģ": 7363,
      "indu": 7364,
      "Ġvision": 7365,
      "Ġkill": 7366,
      "Ġopinion": 7367,
      "ĠJoe": 7368,
      "Ġfear": 7369,
      "called": 7370,
      "possible": 7371,
      "Ġunless": 7372,
      "Ġvoc": 7373,
      "Ġabund": 7374,
      "cuss": 7375,
      "abeth": 7376,
      "ĠOrgan": 7377,
      "ĠBern": 7378,
      "Ġgeometry": 7379,
      "rastructure": 7380,
      "Ġorbit": 7381,
      "SL": 7382,
      "Ġawarded": 7383,
      "^*$": 7384,
      "}\\,\\": 7385,
      "Ġopposite": 7386,
      "Ġfacilities": 7387,
      "aped": 7388,
      "Ġwidely": 7389,
      "Ġprepar": 7390,
      "Ġobjective": 7391,
      "Ġtracks": 7392,
      "rants": 7393,
      "Ġdie": 7394,
      "ye": 7395,
      "Ġwait": 7396,
      "Ġban": 7397,
      "ĠEnergy": 7398,
      "Ġbusinesses": 7399,
      "ĠDemocratic": 7400,
      "Ġswitch": 7401,
      "Ġinvestigate": 7402,
      "Ġkernel": 7403,
      "gency": 7404,
      "bec": 7405,
      ":=": 7406,
      "nbsp": 7407,
      "has": 7408,
      "ariance": 7409,
      "{{": 7410,
      "Ġappeal": 7411,
      "ĠLine": 7412,
      "Ġdecomposition": 7413,
      "after": 7414,
      "ĠModel": 7415,
      "ĠSecretary": 7416,
      "ĠFederal": 7417,
      "Ġfinds": 7418,
      "aud": 7419,
      "Ġterrit": 7420,
      "ulty": 7421,
      "enses": 7422,
      "Ġintended": 7423,
      "bury": 7424,
      "ĠChristmas": 7425,
      "Ġtrig": 7426,
      "Ġscored": 7427,
      "Ġtheories": 7428,
      "Ġà¤": 7429,
      "](": 7430,
      "Ġmaxim": 7431,
      "ĠGovern": 7432,
      "ĠLike": 7433,
      "Ġowner": 7434,
      "Ġconvex": 7435,
      "Ġunderlying": 7436,
      "Ġamaz": 7437,
      "Ġdenoted": 7438,
      "Ġbelieved": 7439,
      "bigr": 7440,
      "Ġthousands": 7441,
      "mond": 7442,
      "BM": 7443,
      "ĠOrder": 7444,
      "pass": 7445,
      "Ġwriters": 7446,
      "ĠHead": 7447,
      "Ġbasket": 7448,
      "Ġends": 7449,
      "ĠTem": 7450,
      "Ġfavorite": 7451,
      "ĠMot": 7452,
      "Ġpowers": 7453,
      "hire": 7454,
      "aa": 7455,
      "Ġapplying": 7456,
      "ĠLast": 7457,
      "]$.": 7458,
      "Ġconfidence": 7459,
      "\\}$.": 7460,
      "1979": 7461,
      "pack": 7462,
      "ĠConst": 7463,
      "first": 7464,
      "aun": 7465,
      "vee": 7466,
      "SD": 7467,
      "Ġlemma": 7468,
      "Don": 7469,
      "Ġpseud": 7470,
      "Ġdetected": 7471,
      "water": 7472,
      "scape": 7473,
      "ĠAuthor": 7474,
      "Equ": 7475,
      "Ã¢": 7476,
      "erate": 7477,
      "icip": 7478,
      "Ġvertical": 7479,
      "ĠSpain": 7480,
      "Ġconcerns": 7481,
      "Ġscientific": 7482,
      "Ġglass": 7483,
      "rison": 7484,
      "aka": 7485,
      "po": 7486,
      "Ġwouldn": 7487,
      "Ġcoinc": 7488,
      "har": 7489,
      "ĠÎ": 7490,
      "ĠDaniel": 7491,
      "ĠSouthern": 7492,
      "$:": 7493,
      "uli": 7494,
      "Ġcollected": 7495,
      "Ġcharacteristic": 7496,
      "onto": 7497,
      "Ġmarriage": 7498,
      "Ø§": 7499,
      "Ġinvolve": 7500,
      "Ġnotes": 7501,
      "Sm": 7502,
      "Ġevaluate": 7503,
      "ĠAdminist": 7504,
      "Ġweekend": 7505,
      "fram": 7506,
      "ĠFed": 7507,
      "ĠIndeed": 7508,
      "Ġriver": 7509,
      "Ima": 7510,
      "Ġtransmission": 7511,
      "ĠRadio": 7512,
      "Ġprotocol": 7513,
      "isely": 7514,
      "ĠTO": 7515,
      "achel": 7516,
      "Ġseemed": 7517,
      "ĠPriv": 7518,
      "dule": 7519,
      "actic": 7520,
      "Ġnamely": 7521,
      "Ġanimals": 7522,
      "Ġmultiplic": 7523,
      "Home": 7524,
      "Ġguess": 7525,
      "adel": 7526,
      "Ġcreation": 7527,
      "Ġbias": 7528,
      "iliar": 7529,
      "lywood": 7530,
      "Ġlocally": 7531,
      "ĠVi": 7532,
      "Ġhighlight": 7533,
      "ĠUk": 7534,
      "ĠHospital": 7535,
      "flu": 7536,
      "ylvania": 7537,
      "Ġprojection": 7538,
      "antly": 7539,
      "itative": 7540,
      "oir": 7541,
      "Ġwitness": 7542,
      "Section": 7543,
      "ĠInvest": 7544,
      "Ġrig": 7545,
      "ĠProt": 7546,
      "Ġcorner": 7547,
      "ĠPubl": 7548,
      "Ġconsequence": 7549,
      "Ġsummar": 7550,
      "Ġtot": 7551,
      "location": 7552,
      "Ġemot": 7553,
      "lik": 7554,
      "ipe": 7555,
      "stone": 7556,
      "uer": 7557,
      "Ġisomorphism": 7558,
      "tained": 7559,
      "only": 7560,
      "char": 7561,
      "Ġcalculate": 7562,
      "oles": 7563,
      "Ġvir": 7564,
      "Ġexplo": 7565,
      "Ġfeeling": 7566,
      "inson": 7567,
      "ĠInf": 7568,
      "aug": 7569,
      "PM": 7570,
      "VD": 7571,
      "During": 7572,
      "]}": 7573,
      "Ġgirls": 7574,
      "Ġrepeated": 7575,
      "plate": 7576,
      "}}_{\\": 7577,
      "Ġdatasets": 7578,
      "ĠStudies": 7579,
      "Ġyouth": 7580,
      "Ġfuel": 7581,
      "Ġvehicles": 7582,
      "Ġentirely": 7583,
      "idents": 7584,
      "Ġnecessarily": 7585,
      "ĉĉĉĉĉ": 7586,
      "Ġbehaviour": 7587,
      "conds": 7588,
      "Ġequilibrium": 7589,
      "Ġdiscover": 7590,
      "Ġseat": 7591,
      "dfrac": 7592,
      "ĠKen": 7593,
      "\\;": 7594,
      "Read": 7595,
      "ĠAG": 7596,
      "Ġrestric": 7597,
      "Ġbroken": 7598,
      "jective": 7599,
      "Ġmagazine": 7600,
      "Ġsubgroup": 7601,
      "ĠWat": 7602,
      "Ġrepresentations": 7603,
      "---": 7604,
      "Trans": 7605,
      "tfrac": 7606,
      "illy": 7607,
      ",\\,\\": 7608,
      "stood": 7609,
      "lesssim": 7610,
      "1981": 7611,
      "Ġcrew": 7612,
      "Ġbegins": 7613,
      "ĠPhilipp": 7614,
      "ĠJackson": 7615,
      "$_{": 7616,
      "ĠBat": 7617,
      "Ġhousing": 7618,
      "Ġcounty": 7619,
      "Ġdesired": 7620,
      "ersonal": 7621,
      "Ġ\\]": 7622,
      "Ġfellow": 7623,
      "ĠCoast": 7624,
      "?\"": 7625,
      "iquid": 7626,
      "ali": 7627,
      "oned": 7628,
      "ĠCA": 7629,
      "Ġdiver": 7630,
      "Ġimplemented": 7631,
      "Ġdocuments": 7632,
      "ĠMid": 7633,
      "))\\": 7634,
      "etal": 7635,
      "raq": 7636,
      "600": 7637,
      "Ġpp": 7638,
      "Ġfunds": 7639,
      "rehens": 7640,
      "Ġagreed": 7641,
      "mathop": 7642,
      "ĠRay": 7643,
      "ĠPacific": 7644,
      "Ġmatches": 7645,
      "ampion": 7646,
      "Ġtrip": 7647,
      "Ġdriver": 7648,
      "odd": 7649,
      "ĠAny": 7650,
      "ĠRa": 7651,
      "Ġsufficiently": 7652,
      "Ġregional": 7653,
      "$};": 7654,
      "Last": 7655,
      "Ġfrag": 7656,
      "Ġcoordinate": 7657,
      "ador": 7658,
      "Ġtight": 7659,
      "Ġperm": 7660,
      "Ġperforming": 7661,
      "Ġcontrad": 7662,
      "Ġadopt": 7663,
      "Ġcapture": 7664,
      "enth": 7665,
      "ivery": 7666,
      "Ġmurder": 7667,
      "ĠRepublican": 7668,
      "Ġconvent": 7669,
      "enger": 7670,
      "Ġreturns": 7671,
      "Ġ{$": 7672,
      "Ġtwice": 7673,
      "udden": 7674,
      "apes": 7675,
      "Ġcaref": 7676,
      "Ġperspective": 7677,
      "Ġabsolute": 7678,
      "Ġflight": 7679,
      "Ġmotor": 7680,
      "ji": 7681,
      "ĠIndust": 7682,
      "Rep": 7683,
      "ensions": 7684,
      "rell": 7685,
      "Ġherself": 7686,
      "ĠCivil": 7687,
      "Ġintersection": 7688,
      "Ġjet": 7689,
      "ĠTer": 7690,
      "agged": 7691,
      "Ġcategories": 7692,
      "Ġindicated": 7693,
      "ĠSea": 7694,
      "onym": 7695,
      "ĠWales": 7696,
      "erves": 7697,
      "Ġlargely": 7698,
      "inate": 7699,
      "Ġnar": 7700,
      "ĠAssum": 7701,
      "\":": 7702,
      "tes": 7703,
      "aturing": 7704,
      "ĠSP": 7705,
      "Ġneutr": 7706,
      "Ġpenal": 7707,
      "Ġfell": 7708,
      "Ġtemperatures": 7709,
      "ĠAgain": 7710,
      "Ġhair": 7711,
      "Although": 7712,
      "Ġspok": 7713,
      "Ġenem": 7714,
      "ains": 7715,
      "adow": 7716,
      "Ġtournament": 7717,
      "oviet": 7718,
      "ĠLear": 7719,
      "ĠDun": 7720,
      "ĠProfessor": 7721,
      "osa": 7722,
      "Ġcouncil": 7723,
      "iger": 7724,
      "plan": 7725,
      "Ġwww": 7726,
      "brace": 7727,
      "ĠWilson": 7728,
      "hu": 7729,
      "fi": 7730,
      "Ġmarked": 7731,
      "longrightarrow": 7732,
      "oves": 7733,
      "ĠSir": 7734,
      "Ġap": 7735,
      "Ġresource": 7736,
      "Ġcomputing": 7737,
      "Ġkick": 7738,
      ",\\\\": 7739,
      "ĠQueen": 7740,
      "Ġassumptions": 7741,
      "heast": 7742,
      "ilation": 7743,
      "Ġstre": 7744,
      "Will": 7745,
      "Ġexcellent": 7746,
      "Ġsecondary": 7747,
      "``": 7748,
      "comes": 7749,
      "Che": 7750,
      "iser": 7751,
      "ela": 7752,
      "strong": 7753,
      "}})": 7754,
      "ĠExt": 7755,
      "Ġaren": 7756,
      "Ġtruly": 7757,
      "Ġintegrated": 7758,
      "process": 7759,
      "ĠKorea": 7760,
      "800": 7761,
      "Ġpool": 7762,
      "ocument": 7763,
      "]$,": 7764,
      "ĠFred": 7765,
      "Ġweights": 7766,
      "Ġnative": 7767,
      "ĠAnother": 7768,
      "ĠAND": 7769,
      "rene": 7770,
      "ilbert": 7771,
      "Ġremove": 7772,
      "Gl": 7773,
      "ĠJr": 7774,
      "apped": 7775,
      "Ġcloser": 7776,
      ",...": 7777,
      "Ġhab": 7778,
      "ĠColor": 7779,
      "Ġrom": 7780,
      "ĠExec": 7781,
      "ĠGar": 7782,
      "MP": 7783,
      "integ": 7784,
      "nam": 7785,
      "ĠAT": 7786,
      "Ġfeedback": 7787,
      "ĠCamb": 7788,
      "Ġsister": 7789,
      "rovers": 7790,
      "Ġowned": 7791,
      "elihood": 7792,
      "oster": 7793,
      "amber": 7794,
      "ĠPop": 7795,
      "Ġsampling": 7796,
      "Ġagency": 7797,
      "Ġguide": 7798,
      "Ġblocks": 7799,
      "true": 7800,
      "count": 7801,
      "Ġdispers": 7802,
      "ynamic": 7803,
      "ĠDaily": 7804,
      "apse": 7805,
      "Ġsouthern": 7806,
      "Ġdefault": 7807,
      "isted": 7808,
      "sylvania": 7809,
      "Ġportion": 7810,
      "ĠStan": 7811,
      "Ġexcited": 7812,
      "iest": 7813,
      "Ġpieces": 7814,
      "Ġinjury": 7815,
      "obe": 7816,
      "ĠBol": 7817,
      "ĠLittle": 7818,
      "gr": 7819,
      "Ġdance": 7820,
      "Ġsupposed": 7821,
      ")})": 7822,
      "ĠMichigan": 7823,
      "ĠPC": 7824,
      "ĠGirl": 7825,
      "\";": 7826,
      "sky": 7827,
      "iments": 7828,
      "ĠWrit": 7829,
      "rog": 7830,
      "ratic": 7831,
      "mediate": 7832,
      "ĠScotland": 7833,
      "|}": 7834,
      "Ġcomfort": 7835,
      "Ġintensity": 7836,
      "Ġreprodu": 7837,
      "Ġestimation": 7838,
      "$&": 7839,
      "ĠRights": 7840,
      "Ġlibrary": 7841,
      "Ġrecognition": 7842,
      "ila": 7843,
      "Ġpit": 7844,
      "ĠFour": 7845,
      "ĠCH": 7846,
      "Two": 7847,
      "Ġsale": 7848,
      "Ġappreci": 7849,
      "Ġclassic": 7850,
      "oti": 7851,
      "Ġprecisely": 7852,
      "ĠMethod": 7853,
      "Ġstr": 7854,
      "elly": 7855,
      "Ġinspired": 7856,
      "burgh": 7857,
      "}}.": 7858,
      "Ġentered": 7859,
      "Ġhidden": 7860,
      ",{\\": 7861,
      "izabeth": 7862,
      "Ġweather": 7863,
      "Ġluminos": 7864,
      "][]{": 7865,
      "ĠMountain": 7866,
      "eness": 7867,
      "1978": 7868,
      "joint": 7869,
      "Add": 7870,
      "iota": 7871,
      "Ġbos": 7872,
      "HT": 7873,
      "Ġgravit": 7874,
      "Ġancient": 7875,
      "Ġreviews": 7876,
      "ĠAdv": 7877,
      "Ġclient": 7878,
      "results": 7879,
      "ĠRead": 7880,
      "ĠEgypt": 7881,
      "Ġclinical": 7882,
      "Film": 7883,
      "ĠKim": 7884,
      "Ġelections": 7885,
      "iem": 7886,
      ")--": 7887,
      ";\\;\\": 7888,
      "Ġarguments": 7889,
      "Ġpromin": 7890,
      "Ġsupporting": 7891,
      "Ġdiscrim": 7892,
      "Ġmunic": 7893,
      "Ġadvance": 7894,
      "ĠSU": 7895,
      "Ġsimultane": 7896,
      "prot": 7897,
      "End": 7898,
      "Ġfacility": 7899,
      "Ġparent": 7900,
      "DC": 7901,
      "Ġshut": 7902,
      "step": 7903,
      "ĠWalk": 7904,
      "Ġcauses": 7905,
      "Ġteacher": 7906,
      "Ġhelps": 7907,
      "Ġsky": 7908,
      "inity": 7909,
      "Ġturb": 7910,
      "Ġeffectively": 7911,
      "high": 7912,
      "ĠOx": 7913,
      "never": 7914,
      "sat": 7915,
      "ĠBeach": 7916,
      "Ġwaves": 7917,
      "DT": 7918,
      "Ð¾Ð": 7919,
      "Ġclosely": 7920,
      "wer": 7921,
      "Ġsignals": 7922,
      "perform": 7923,
      "arse": 7924,
      "Ġinteract": 7925,
      "Ġheav": 7926,
      "Ġbreaking": 7927,
      "ulating": 7928,
      "Ġplants": 7929,
      "Ġadvanced": 7930,
      "}}^{\\": 7931,
      "poral": 7932,
      "ĠExper": 7933,
      "jected": 7934,
      "AV": 7935,
      "vature": 7936,
      "Another": 7937,
      "Ġaccepted": 7938,
      "ĠSteve": 7939,
      "Ġassert": 7940,
      "ĠBrook": 7941,
      "ennis": 7942,
      "orough": 7943,
      "bras": 7944,
      "orters": 7945,
      "finition": 7946,
      "init": 7947,
      "Ġnearby": 7948,
      "Ġsatisfied": 7949,
      "Ġtransp": 7950,
      "Value": 7951,
      "Ġdram": 7952,
      "Ġgravity": 7953,
      "Ġkeeping": 7954,
      "ĠLo": 7955,
      "Ġjourney": 7956,
      "orders": 7957,
      "})}": 7958,
      "vart": 7959,
      "1976": 7960,
      "|}{": 7961,
      "pace": 7962,
      "ione": 7963,
      "Ġarrived": 7964,
      "Ġnorthern": 7965,
      "Ġferm": 7966,
      "Ġbulk": 7967,
      "ĠGreek": 7968,
      "Ġexplan": 7969,
      "Ġ^{": 7970,
      "ĠPrime": 7971,
      "Ġoffering": 7972,
      "Ġfort": 7973,
      "Ġcontrolled": 7974,
      "edge": 7975,
      "Key": 7976,
      "Ġarmy": 7977,
      "}[\\": 7978,
      "Ġexplicitly": 7979,
      "ĠAsh": 7980,
      "arget": 7981,
      "Ġfluid": 7982,
      "Ġproducer": 7983,
      "Comm": 7984,
      "ushed": 7985,
      "ĠPrem": 7986,
      "ordan": 7987,
      "Ġdecisions": 7988,
      "1977": 7989,
      "agnetic": 7990,
      "Ġdivided": 7991,
      "Ġera": 7992,
      "ienced": 7993,
      "ĠMajor": 7994,
      "Ġcalling": 7995,
      "Ġadvoc": 7996,
      "Ġemployed": 7997,
      "yset": 7998,
      "Ġcrisis": 7999,
      "ĠAppendix": 8000,
      "algorithm": 8001,
      "Ġconclusion": 8002,
      "Ġneural": 8003,
      "Top": 8004,
      "rieved": 8005,
      "Ġacademic": 8006,
      "Mon": 8007,
      "1972": 8008,
      "Ġdeploy": 8009,
      ".âĢĻ": 8010,
      "ĠBroad": 8011,
      "ĠRom": 8012,
      "ga": 8013,
      "Ġassigned": 8014,
      "}}}\\": 8015,
      "iples": 8016,
      "Ġkid": 8017,
      "bro": 8018,
      "current": 8019,
      "ĠGi": 8020,
      "%)": 8021,
      "Ġinverse": 8022,
      "ĠKenn": 8023,
      "Ġraise": 8024,
      "${\\": 8025,
      "Ġrational": 8026,
      "Ġmapping": 8027,
      "Ġsan": 8028,
      "Ġposted": 8029,
      "ĠLive": 8030,
      "Inst": 8031,
      "Ġdrama": 8032,
      "avor": 8033,
      "Ġrecording": 8034,
      "Ġmovies": 8035,
      "semble": 8036,
      "Ġsession": 8037,
      "ibli": 8038,
      "Ġessentially": 8039,
      "zed": 8040,
      "ĠJersey": 8041,
      "Ġderivative": 8042,
      "1974": 8043,
      "})=": 8044,
      "Ġprincipal": 8045,
      "ĠRun": 8046,
      "Ġexperiences": 8047,
      "1975": 8048,
      "paragraph": 8049,
      "ĠFair": 8050,
      "ifer": 8051,
      "Ġbat": 8052,
      "Ġholding": 8053,
      "Ġlanguages": 8054,
      "nn": 8055,
      "Ġattended": 8056,
      "teen": 8057,
      "Ġzone": 8058,
      "OU": 8059,
      "ĠAud": 8060,
      "just": 8061,
      "ĠAsian": 8062,
      "rome": 8063,
      "Ġflag": 8064,
      "Ġextent": 8065,
      "utely": 8066,
      "public": 8067,
      "ĠTw": 8068,
      "ĠSong": 8069,
      "Ġmarketing": 8070,
      "Ġenergies": 8071,
      "inois": 8072,
      "emptyset": 8073,
      "pson": 8074,
      "Ġpredictions": 8075,
      "fun": 8076,
      "Ġpractical": 8077,
      "heta": 8078,
      "world": 8079,
      "Ġauthority": 8080,
      "Ġaf": 8081,
      "Ġtele": 8082,
      "IST": 8083,
      "Ġcarbon": 8084,
      "Ġprices": 8085,
      "Ġserving": 8086,
      "GR": 8087,
      "Ġprepared": 8088,
      "Ġcharacteristics": 8089,
      "sign": 8090,
      "ĠCR": 8091,
      "core": 8092,
      "ĠMah": 8093,
      "module": 8094,
      "Ġresearchers": 8095,
      "Ġcriminal": 8096,
      "ulse": 8097,
      "gery": 8098,
      "Back": 8099,
      "Ġsequences": 8100,
      "[-": 8101,
      "Ġseasons": 8102,
      "Ġorganized": 8103,
      "Ġsevere": 8104,
      "Ġstands": 8105,
      "\\)": 8106,
      "ensities": 8107,
      "Ġplas": 8108,
      "Ġur": 8109,
      "Ġyourself": 8110,
      "Ġdefend": 8111,
      "aked": 8112,
      "aturally": 8113,
      "break": 8114,
      "ĠLight": 8115,
      "!âĢĿ": 8116,
      "Ġcolon": 8117,
      "EP": 8118,
      "Right": 8119,
      "ĠCase": 8120,
      "Ġconcerned": 8121,
      "Ġmanifold": 8122,
      "bet": 8123,
      "Ġtranslation": 8124,
      "Ġfinish": 8125,
      "ĠOnly": 8126,
      "Ġsho": 8127,
      "ĠHom": 8128,
      "vari": 8129,
      "inals": 8130,
      "Ġreader": 8131,
      "Ġarms": 8132,
      "istent": 8133,
      "ĠÂ·": 8134,
      "Ġconflict": 8135,
      "Ġsurrounding": 8136,
      "ĠOhio": 8137,
      "js": 8138,
      "low": 8139,
      "Ġwinner": 8140,
      "iner": 8141,
      "anged": 8142,
      "Ġdiagonal": 8143,
      "Ġmel": 8144,
      "Ġpassing": 8145,
      "Ġfiled": 8146,
      "ĠBell": 8147,
      "Ġcommittee": 8148,
      "Ġbench": 8149,
      "Ġplanned": 8150,
      "scriptsize": 8151,
      "ĠNet": 8152,
      "open": 8153,
      "ĠReal": 8154,
      "redit": 8155,
      "Äģ": 8156,
      "Ġadvent": 8157,
      "Ġhearing": 8158,
      "ierarch": 8159,
      "HC": 8160,
      ")}_": 8161,
      "ĠDC": 8162,
      "ĠNavy": 8163,
      "Ġwatching": 8164,
      "Ġprimarily": 8165,
      "ervation": 8166,
      "stable": 8167,
      "Ġauthorities": 8168,
      "Ġshares": 8169,
      "Ġdownload": 8170,
      "Ġbasketball": 8171,
      "lections": 8172,
      "isms": 8173,
      "Ġguys": 8174,
      "Ġjustice": 8175,
      "ĠSom": 8176,
      "egory": 8177,
      "gebras": 8178,
      "Ġ$.": 8179,
      "Ġintroduction": 8180,
      "Ġ(\"": 8181,
      "Ġvirtual": 8182,
      "ĠToday": 8183,
      "forcement": 8184,
      "ĠWhe": 8185,
      "Ext": 8186,
      "Ġdemonstrate": 8187,
      "Ġfra": 8188,
      "bottom": 8189,
      "ctic": 8190,
      "Ġpal": 8191,
      "Ġpractices": 8192,
      "Ġspend": 8193,
      "Ġmatching": 8194,
      "Ġrelationships": 8195,
      "ditionally": 8196,
      "Ġversus": 8197,
      "ui": 8198,
      "Ġsuc": 8199,
      "athe": 8200,
      "ima": 8201,
      "Ġinstitutions": 8202,
      "Ġstrategies": 8203,
      "Ġlock": 8204,
      "Ġfill": 8205,
      "Ġdebate": 8206,
      "Ġmaximal": 8207,
      "acent": 8208,
      "Act": 8209,
      "Ġfilled": 8210,
      "night": 8211,
      "ĠThree": 8212,
      "ĠBul": 8213,
      "ĠHa": 8214,
      "Ġuniverse": 8215,
      "Ġinterests": 8216,
      "ĠOlympics": 8217,
      "1973": 8218,
      "\");": 8219,
      "Ġincorpor": 8220,
      "Ġ^": 8221,
      "Ġcooper": 8222,
      "Rem": 8223,
      "Ġmuseum": 8224,
      "vect": 8225,
      "Ġspring": 8226,
      "ĠSus": 8227,
      "hang": 8228,
      "=.": 8229,
      "Cat": 8230,
      "Ġindustrial": 8231,
      "ĠBrad": 8232,
      "Ġmanufacture": 8233,
      "Ġparticipants": 8234,
      "Ġtrivial": 8235,
      "Ġcomposed": 8236,
      "columnwidth": 8237,
      "Book": 8238,
      "SF": 8239,
      "ĠMas": 8240,
      "Dav": 8241,
      "rust": 8242,
      "ses": 8243,
      "Ġmental": 8244,
      "Ġenhance": 8245,
      "tiny": 8246,
      "1968": 8247,
      "Ġalleged": 8248,
      "ribe": 8249,
      "Ġitem": 8250,
      "ĠCM": 8251,
      "Ġfaster": 8252,
      "Ġinterpretation": 8253,
      "Ġimprovement": 8254,
      "edu": 8255,
      "Ġrepresenting": 8256,
      "Ġannounce": 8257,
      "ĠFire": 8258,
      "plane": 8259,
      "Ġmathemat": 8260,
      "irty": 8261,
      "Ġvisible": 8262,
      "algebra": 8263,
      "Ġevening": 8264,
      "ĠField": 8265,
      "Ġorg": 8266,
      "Ġsounds": 8267,
      "Ġassociation": 8268,
      "ĠBoy": 8269,
      "ĠBa": 8270,
      "Ġcryst": 8271,
      "Ġseconds": 8272,
      "notes": 8273,
      "ĠMP": 8274,
      "Ġfish": 8275,
      "Ġworst": 8276,
      "ĠView": 8277,
      "ĠIT": 8278,
      "ĠIraq": 8279,
      "Dis": 8280,
      "Cal": 8281,
      "Ġabsence": 8282,
      "ested": 8283,
      "ĠKent": 8284,
      "ĠTrust": 8285,
      "ĠLew": 8286,
      "Ġpun": 8287,
      "Ġmarkets": 8288,
      "Dec": 8289,
      "ochastic": 8290,
      "ĠAdam": 8291,
      "Ġuniversal": 8292,
      "Ġtroub": 8293,
      "Ġ\\&": 8294,
      "mn": 8295,
      "Ġsuppl": 8296,
      "Ġrepresentative": 8297,
      "Ġsubsequent": 8298,
      "ĠMult": 8299,
      "Ġcomputational": 8300,
      "Ġnonlinear": 8301,
      "ĠAmazon": 8302,
      "Ġdoubt": 8303,
      "Ġlowest": 8304,
      "Just": 8305,
      "Ġradial": 8306,
      "Ġflex": 8307,
      "ĠBBC": 8308,
      "ĠMov": 8309,
      "Ġreasonable": 8310,
      "ĠKong": 8311,
      "Ġwire": 8312,
      "Ġsleep": 8313,
      "DB": 8314,
      "ilder": 8315,
      "Ġhandle": 8316,
      "Given": 8317,
      "Ġactress": 8318,
      "trivial": 8319,
      "ĠPennsylvania": 8320,
      "Ġversions": 8321,
      "ĠCro": 8322,
      "Ġdrawn": 8323,
      "Ġnotion": 8324,
      "ameters": 8325,
      "ourier": 8326,
      "ressive": 8327,
      "ipping": 8328,
      "Ġhotel": 8329,
      "Ã³n": 8330,
      "ĠLog": 8331,
      "ĠHard": 8332,
      "Ġhelping": 8333,
      "ĠEmpire": 8334,
      "++": 8335,
      "Ġaccident": 8336,
      "ĠFood": 8337,
      "pto": 8338,
      "ibr": 8339,
      "orship": 8340,
      "base": 8341,
      "track": 8342,
      "elect": 8343,
      "Ġtopological": 8344,
      "Ġvot": 8345,
      "ĠPoint": 8346,
      "Ġscript": 8347,
      "Ġcontrols": 8348,
      "Ġcas": 8349,
      "Ġengineering": 8350,
      "Ġprotein": 8351,
      "Ġunderstood": 8352,
      "block": 8353,
      "ooking": 8354,
      "Ġworse": 8355,
      "EX": 8356,
      "Ġexclud": 8357,
      "ĠRod": 8358,
      "III": 8359,
      "cover": 8360,
      "ĠCorporation": 8361,
      "evin": 8362,
      "Ġamazing": 8363,
      "Ġfighting": 8364,
      "Ġbrings": 8365,
      "^{*": 8366,
      "ĠSupreme": 8367,
      "Ġdrum": 8368,
      "outs": 8369,
      "Ġequality": 8370,
      "Ġjudge": 8371,
      "ropic": 8372,
      "Ġconstants": 8373,
      "Ġminister": 8374,
      "Ġouter": 8375,
      "Ġteaching": 8376,
      "Ġspecified": 8377,
      "Ġsomewhat": 8378,
      "umes": 8379,
      "urations": 8380,
      "Ġsucceed": 8381,
      "ĠSher": 8382,
      "Ġwealth": 8383,
      "Ġdefinitely": 8384,
      "Ġwaiting": 8385,
      "vartheta": 8386,
      "Ġgrew": 8387,
      "}_{-": 8388,
      "Ġcommitted": 8389,
      "Ġlabels": 8390,
      "................": 8391,
      "idential": 8392,
      "Ġpropose": 8393,
      "ptic": 8394,
      "ĠConf": 8395,
      "Ġurban": 8396,
      "hl": 8397,
      "Proof": 8398,
      "101": 8399,
      "Ġadvice": 8400,
      "vector": 8401,
      "Ġempty": 8402,
      "Ġmixing": 8403,
      "Ġcommonly": 8404,
      "Ġtopic": 8405,
      "Ġretail": 8406,
      "Ġcart": 8407,
      "loc": 8408,
      "Ġbridge": 8409,
      "eld": 8410,
      "white": 8411,
      "Ġmoves": 8412,
      "Ġeasier": 8413,
      "Ġshell": 8414,
      "there": 8415,
      "ĠNext": 8416,
      "ĠNon": 8417,
      "Ġdependent": 8418,
      "Ġcontribute": 8419,
      "Ġserver": 8420,
      "ĠGiven": 8421,
      "slash": 8422,
      "icular": 8423,
      "ĠAssembly": 8424,
      "arity": 8425,
      "ĠMaster": 8426,
      "Ġphoton": 8427,
      "Ġprotected": 8428,
      "Ġprivacy": 8429,
      "ometry": 8430,
      "Ġanimal": 8431,
      "ifted": 8432,
      "1971": 8433,
      "BO": 8434,
      "Ġgreatest": 8435,
      "Consider": 8436,
      "Ġdemonstrated": 8437,
      "quot": 8438,
      "Ġcanonical": 8439,
      "Ġmagnet": 8440,
      "ĠMic": 8441,
      "Ġserves": 8442,
      "Ġalumni": 8443,
      "sa": 8444,
      "ĠNumber": 8445,
      "ĠBon": 8446,
      "ĠBang": 8447,
      "ĠFox": 8448,
      "ĠStephen": 8449,
      "slant": 8450,
      "ĠChair": 8451,
      "Ġoccurred": 8452,
      "ĠString": 8453,
      "ĠRh": 8454,
      "Ġasymptotic": 8455,
      "Ġiron": 8456,
      "iki": 8457,
      "Ġderive": 8458,
      "user": 8459,
      "ĠWild": 8460,
      "Ġexcess": 8461,
      "ĠIP": 8462,
      "Ġsettings": 8463,
      "Ġ}{": 8464,
      "xx": 8465,
      "Ġupdated": 8466,
      "})^": 8467,
      "Ġ\\(\\": 8468,
      "ĠPen": 8469,
      "oz": 8470,
      "Ġcovers": 8471,
      "ĠEst": 8472,
      "ructions": 8473,
      "Ġgender": 8474,
      "LT": 8475,
      "aret": 8476,
      "Ġcash": 8477,
      "rosc": 8478,
      "Ġvideos": 8479,
      "news": 8480,
      "Ġsuperv": 8481,
      "Ġrecover": 8482,
      "Ġroles": 8483,
      "Ġspeaking": 8484,
      "anna": 8485,
      "gt": 8486,
      "Ġmolecular": 8487,
      "Ġsuccessfully": 8488,
      "ori": 8489,
      "uzz": 8490,
      "ĠOnce": 8491,
      "Ĥ¬": 8492,
      "etts": 8493,
      "Ġhomes": 8494,
      "ĠComput": 8495,
      "Ġsand": 8496,
      "Ġstanding": 8497,
      "Ġquasi": 8498,
      "fil": 8499,
      "Ġembedding": 8500,
      "Ġsigns": 8501,
      "ĠSat": 8502,
      "uler": 8503,
      "AF": 8504,
      "Ġing": 8505,
      "Ġped": 8506,
      "ĠRen": 8507,
      "Ġven": 8508,
      "Ġconform": 8509,
      "Ġinterior": 8510,
      "oded": 8511,
      "erior": 8512,
      "Ġapproved": 8513,
      "ĠSC": 8514,
      "osophy": 8515,
      "1969": 8516,
      "ĠSciences": 8517,
      "ĠDonald": 8518,
      "ĠID": 8519,
      "Ġille": 8520,
      "Ġexceed": 8521,
      "Ġton": 8522,
      "ĠHun": 8523,
      "Ġphotos": 8524,
      "Ġanom": 8525,
      "Ġloved": 8526,
      "Ġeq": 8527,
      "lete": 8528,
      "Ġincred": 8529,
      "ogether": 8530,
      "Ġspons": 8531,
      "ĠPakistan": 8532,
      "Ġswe": 8533,
      "result": 8534,
      "gers": 8535,
      "Ġcoal": 8536,
      "Ġstorm": 8537,
      "Ġactors": 8538,
      "Hence": 8539,
      "arters": 8540,
      "Ġprofession": 8541,
      "\\}$,": 8542,
      "figures": 8543,
      "Ġfamiliar": 8544,
      "ĠGR": 8545,
      "ĠInstead": 8546,
      "\\}\\": 8547,
      "Ġwhatever": 8548,
      "ĠPrince": 8549,
      "ologist": 8550,
      "Ġhypothesis": 8551,
      "}}=": 8552,
      "Ġdatabase": 8553,
      "Dr": 8554,
      "Ġsudden": 8555,
      "Cur": 8556,
      "Ġquantities": 8557,
      "Ġhonor": 8558,
      "ĠWis": 8559,
      "}$}": 8560,
      "Ġidentical": 8561,
      "Ġgeneralized": 8562,
      "yles": 8563,
      "Ġpurchase": 8564,
      "num": 8565,
      "ĠAst": 8566,
      "Ġgar": 8567,
      "Ġabuse": 8568,
      "oupl": 8569,
      "Ġcaught": 8570,
      "Ġsac": 8571,
      "Ġstatements": 8572,
      "Ġhouses": 8573,
      "aya": 8574,
      "Ġsensitive": 8575,
      "Ġdirections": 8576,
      "Ġreceiving": 8577,
      "Ġcustomer": 8578,
      "Ġassuming": 8579,
      "ĠSi": 8580,
      "tikzpicture": 8581,
      "Ġexperienced": 8582,
      "}|\\": 8583,
      "BR": 8584,
      "aded": 8585,
      "Ġearned": 8586,
      "ĠGeorgia": 8587,
      "Ġcircumst": 8588,
      "Ġclients": 8589,
      "Ġmere": 8590,
      "dney": 8591,
      "ĠPass": 8592,
      "Ġpaths": 8593,
      "bell": 8594,
      "=#": 8595,
      "About": 8596,
      "Ġperman": 8597,
      "Ġintegr": 8598,
      "Ġsuppose": 8599,
      "special": 8600,
      "lock": 8601,
      "phia": 8602,
      "Ġscores": 8603,
      "});": 8604,
      "Ġ///": 8605,
      "Ġquark": 8606,
      "Ġcomedy": 8607,
      "esides": 8608,
      "aling": 8609,
      "Ġchoices": 8610,
      "Ġcovering": 8611,
      "condition": 8612,
      "ĠSoviet": 8613,
      "Ġvariance": 8614,
      "Ġextensive": 8615,
      "Ġinfrastructure": 8616,
      "Ġdimensional": 8617,
      "Ġtrace": 8618,
      "ĠMount": 8619,
      "ricket": 8620,
      "&=\\": 8621,
      "Ġcircuit": 8622,
      "ĠJe": 8623,
      "Serv": 8624,
      "ĠEastern": 8625,
      "ounger": 8626,
      "Ġdecade": 8627,
      "/(": 8628,
      "Ġalt": 8629,
      "utor": 8630,
      "Ġcoupled": 8631,
      "ĠEnvironment": 8632,
      "Xi": 8633,
      "Ġpackage": 8634,
      "boldmath": 8635,
      "Ġwestern": 8636,
      "Ġarc": 8637,
      "Inf": 8638,
      "shire": 8639,
      "Ġprofessor": 8640,
      "Min": 8641,
      "Ġvolunte": 8642,
      "worth": 8643,
      "ĠBattle": 8644,
      "rained": 8645,
      "Ġextreme": 8646,
      "ĠĠĠĠĠĠĠĠĠĠĠĠĠĠ": 8647,
      "Ġdecrease": 8648,
      "dr": 8649,
      "achus": 8650,
      "vs": 8651,
      "ĠLabor": 8652,
      "Box": 8653,
      "Lemma": 8654,
      "ped": 8655,
      "Ġpresents": 8656,
      "Ġfiles": 8657,
      "ĠPage": 8658,
      "ĠDeath": 8659,
      "Ġprogramming": 8660,
      "Ġaware": 8661,
      "Ġcontrovers": 8662,
      "Ġvent": 8663,
      "Ġdoub": 8664,
      "Ref": 8665,
      "eman": 8666,
      "iday": 8667,
      "del": 8668,
      "Ġsatell": 8669,
      "}~": 8670,
      "ĠDNA": 8671,
      "uling": 8672,
      "ĠBase": 8673,
      "Ġcapable": 8674,
      "Ġacid": 8675,
      "========": 8676,
      "Ġdelivery": 8677,
      "ortion": 8678,
      "ĠCall": 8679,
      "Ġlose": 8680,
      "rows": 8681,
      ":=\\": 8682,
      "Ġevaluated": 8683,
      "ĠNC": 8684,
      "ĠMS": 8685,
      "finite": 8686,
      "Ġcreative": 8687,
      "nic": 8688,
      "Ġ({\\": 8689,
      "Ġcompat": 8690,
      "ĠIllinois": 8691,
      "ĠStory": 8692,
      "isa": 8693,
      "hard": 8694,
      "ĠChildren": 8695,
      "lets": 8696,
      "Conn": 8697,
      "Ġtheme": 8698,
      "Ġrecognized": 8699,
      "Ġawards": 8700,
      "ATION": 8701,
      "Ġthin": 8702,
      "ĠEdward": 8703,
      "uv": 8704,
      "ĠCas": 8705,
      "pool": 8706,
      "arma": 8707,
      "Ġacquired": 8708,
      "ulner": 8709,
      "Ġstead": 8710,
      "adelphia": 8711,
      "mal": 8712,
      "Ġ$,": 8713,
      "Ġment": 8714,
      "Ġgeneric": 8715,
      "125": 8716,
      "Ġbodies": 8717,
      "ĠHiggs": 8718,
      "Ġlisten": 8719,
      "olis": 8720,
      "ivered": 8721,
      "Ġcrucial": 8722,
      "raine": 8723,
      "ĠBand": 8724,
      "theless": 8725,
      "Ġfindings": 8726,
      "parison": 8727,
      "ego": 8728,
      "Ġclick": 8729,
      "Ġdriven": 8730,
      "rob": 8731,
      "Ġrect": 8732,
      "ibilities": 8733,
      "Ġdomestic": 8734,
      "Ġcaptured": 8735,
      "Ġsecure": 8736,
      "ĠStation": 8737,
      "PE": 8738,
      "Ġaccounts": 8739,
      "ymmetric": 8740,
      "Ġmal": 8741,
      "ĠVill": 8742,
      "Ġdedu": 8743,
      "Ġepisodes": 8744,
      "ained": 8745,
      "ĠDar": 8746,
      "config": 8747,
      "ĠPhot": 8748,
      "1967": 8749,
      "Ġpapers": 8750,
      "Also": 8751,
      "inating": 8752,
      "arios": 8753,
      "Car": 8754,
      "rer": 8755,
      "Â°": 8756,
      "sex": 8757,
      "prise": 8758,
      "Ġdynamical": 8759,
      "'.": 8760,
      "Ġbatter": 8761,
      "Ġfeaturing": 8762,
      "Ġpotentially": 8763,
      "Ġfifth": 8764,
      "HL": 8765,
      "ĠWars": 8766,
      "Error": 8767,
      "tw": 8768,
      "scriptstyle": 8769,
      "ĠInn": 8770,
      "Ġestate": 8771,
      "ĠDM": 8772,
      "ĠMA": 8773,
      "uated": 8774,
      "ounded": 8775,
      "Ġconcern": 8776,
      "Ġ/**": 8777,
      "Ġsubs": 8778,
      "Ġsharing": 8779,
      "Ġcolour": 8780,
      "Ġbundle": 8781,
      "inction": 8782,
      "ĠSep": 8783,
      "achusetts": 8784,
      "Ġsizes": 8785,
      "ruption": 8786,
      "essions": 8787,
      "subsec": 8788,
      "Ġchart": 8789,
      "ubble": 8790,
      "multirow": 8791,
      "Ġtested": 8792,
      "Ġmort": 8793,
      "Ġreligion": 8794,
      "including": 8795,
      "ĠSD": 8796,
      "Ġintelligence": 8797,
      "method": 8798,
      "Ġrid": 8799,
      "Ġcrowd": 8800,
      "Ġcurvature": 8801,
      "ĠGuard": 8802,
      "Ġstack": 8803,
      "ĠRog": 8804,
      "Ġarrested": 8805,
      "general": 8806,
      "instein": 8807,
      "Ġsimplic": 8808,
      "Ġtalks": 8809,
      "OV": 8810,
      "Ġcorrection": 8811,
      "-(": 8812,
      "ĠThrough": 8813,
      "Ġreaders": 8814,
      "ĠExecutive": 8815,
      "onia": 8816,
      "Ġ×": 8817,
      "Ġdashed": 8818,
      "Ġrecip": 8819,
      "Ġhumans": 8820,
      "ĠClark": 8821,
      "Ġvacuum": 8822,
      "Ġneutral": 8823,
      "pes": 8824,
      "Ġinsurance": 8825,
      "Test": 8826,
      "Ġperformances": 8827,
      "ĠId": 8828,
      "ocracy": 8829,
      "Ġexpressions": 8830,
      "orig": 8831,
      "PD": 8832,
      "Ġequivalence": 8833,
      "Ġbringing": 8834,
      "Ġhaven": 8835,
      "ders": 8836,
      "Work": 8837,
      "Ġfluctuations": 8838,
      "Ġdetermin": 8839,
      "Ġbow": 8840,
      "eties": 8841,
      "Ġspac": 8842,
      "ĠProdu": 8843,
      "Sum": 8844,
      "ĠElizabeth": 8845,
      "Ġcelebr": 8846,
      "Ġapproximate": 8847,
      "isson": 8848,
      "ĠAnth": 8849,
      "irror": 8850,
      "Ġdropped": 8851,
      "icious": 8852,
      "ami": 8853,
      "ĠBru": 8854,
      "parallel": 8855,
      "Ġalongside": 8856,
      "Ġfol": 8857,
      "Ġultimately": 8858,
      "Ġreferences": 8859,
      "1940": 8860,
      "Exception": 8861,
      "^*\\": 8862,
      "Ġimpossible": 8863,
      "ĠMinistry": 8864,
      "ĠBooks": 8865,
      "Ġsubt": 8866,
      "Ġguard": 8867,
      "ï¿": 8868,
      "Model": 8869,
      "also": 8870,
      "Ġregul": 8871,
      "Ġredshift": 8872,
      "Ġhun": 8873,
      "GA": 8874,
      "National": 8875,
      "ERS": 8876,
      "Ġentries": 8877,
      "Ġskin": 8878,
      "Ġprofiles": 8879,
      "reduc": 8880,
      "engers": 8881,
      "ĠSeason": 8882,
      "apore": 8883,
      "phantom": 8884,
      "Ġprogramme": 8885,
      "??": 8886,
      "Ġstopped": 8887,
      "ĠNick": 8888,
      "Ġmedal": 8889,
      "summary": 8890,
      "180": 8891,
      "Ġpublication": 8892,
      "Ġstronger": 8893,
      "Ġinvolves": 8894,
      "Ġfaces": 8895,
      "Ġfavour": 8896,
      "mi": 8897,
      "Ġneither": 8898,
      "ĠTal": 8899,
      "Ġpointed": 8900,
      "Ġexposure": 8901,
      "Ġroughly": 8902,
      "Ġnewly": 8903,
      "Ġstret": 8904,
      "ĠBC": 8905,
      "1930": 8906,
      "ĠMatt": 8907,
      "Ġfrequently": 8908,
      "ĠRepresent": 8909,
      "esian": 8910,
      "Aut": 8911,
      "ĠLuc": 8912,
      "Ġmedian": 8913,
      "struct": 8914,
      "conf": 8915,
      "Ġimmediate": 8916,
      "ĠToronto": 8917,
      "Ġdrugs": 8918,
      "Results": 8919,
      "ĠSN": 8920,
      "ĠCirc": 8921,
      "Ġflood": 8922,
      "loop": 8923,
      "General": 8924,
      "RR": 8925,
      "Dep": 8926,
      "ĠMain": 8927,
      "PL": 8928,
      "Ġscenes": 8929,
      "ï¿½": 8930,
      "Ġseparation": 8931,
      "Ġliquid": 8932,
      "icial": 8933,
      "yo": 8934,
      "Ġspan": 8935,
      "TA": 8936,
      "Ġafford": 8937,
      "Ġsurve": 8938,
      "ĠAlexander": 8939,
      "date": 8940,
      "ĠNever": 8941,
      "Ġluminosity": 8942,
      "sequently": 8943,
      "othe": 8944,
      "cohol": 8945,
      "ĠHong": 8946,
      "Ġcontemporary": 8947,
      "cale": 8948,
      "Ġmes": 8949,
      "Ġcorrections": 8950,
      "otype": 8951,
      "ĠLatin": 8952,
      "Ġbond": 8953,
      "igrants": 8954,
      "Ġmac": 8955,
      "riate": 8956,
      "Ġrain": 8957,
      "Ġhistoric": 8958,
      "Ret": 8959,
      "+(": 8960,
      "GM": 8961,
      "Ġriv": 8962,
      "Ġregistered": 8963,
      "^{(\\": 8964,
      "Ġquantity": 8965,
      "akers": 8966,
      "don": 8967,
      "Moreover": 8968,
      "Ġpassion": 8969,
      "ĠJesus": 8970,
      "128": 8971,
      "Ġresponsibility": 8972,
      "Every": 8973,
      "Ġdoctor": 8974,
      "ritical": 8975,
      "Ġsentence": 8976,
      "Disc": 8977,
      "ribed": 8978,
      "Ġhundreds": 8979,
      "ĠGeV": 8980,
      "Ġshooting": 8981,
      "itled": 8982,
      "thew": 8983,
      "Ġlinked": 8984,
      "ãĤ": 8985,
      "onents": 8986,
      "ECT": 8987,
      "Ġpra": 8988,
      "Ġ,\\": 8989,
      "nesota": 8990,
      "Ġsummary": 8991,
      "tainment": 8992,
      "Ġnav": 8993,
      "Ġsoul": 8994,
      "creen": 8995,
      "Ġplate": 8996,
      "Ġminute": 8997,
      "ĠEngineering": 8998,
      "ls": 8999,
      "Ġtack": 9000,
      "Aust": 9001,
      "ĠAvenue": 9002,
      "Ġrout": 9003,
      "Ġbass": 9004,
      "uz": 9005,
      "Ġaudio": 9006,
      "ĠViet": 9007,
      "Mark": 9008,
      "vy": 9009,
      "Object": 9010,
      "ti": 9011,
      "adi": 9012,
      "uable": 9013,
      "Ġputting": 9014,
      "Suppose": 9015,
      "Ã§": 9016,
      "ĠNAS": 9017,
      "Ġseek": 9018,
      "Ġfacts": 9019,
      "irk": 9020,
      "Ġgene": 9021,
      "object": 9022,
      "Ġtrend": 9023,
      "ĠColumbia": 9024,
      "Ġcoun": 9025,
      "////": 9026,
      "Ġradi": 9027,
      "Ġweapons": 9028,
      "ragon": 9029,
      "Ġphases": 9030,
      "Ag": 9031,
      "Ġconsisting": 9032,
      "Ġbomb": 9033,
      "Ġaccompl": 9034,
      "Ġpolitician": 9035,
      "Ġoutcome": 9036,
      "Ġwilling": 9037,
      "ĠNa": 9038,
      "Oh": 9039,
      "Ġending": 9040,
      "Ġathlet": 9041,
      "ĠAD": 9042,
      "islation": 9043,
      "âĢĻ.": 9044,
      "Ġaid": 9045,
      "rehensive": 9046,
      "power": 9047,
      "Ġcriteria": 9048,
      "ĠMarg": 9049,
      "ĠBrand": 9050,
      "Ġelev": 9051,
      "pet": 9052,
      "ĠArea": 9053,
      "ĠPerform": 9054,
      "Log": 9055,
      "content": 9056,
      "Ġconcentration": 9057,
      "ennes": 9058,
      "fast": 9059,
      "Ġaggreg": 9060,
      "Ġproposal": 9061,
      "Ġrespective": 9062,
      "ugby": 9063,
      "ĠRose": 9064,
      "Ġlosing": 9065,
      "abet": 9066,
      "lication": 9067,
      "ĠPalest": 9068,
      "Most": 9069,
      "Ġveter": 9070,
      "product": 9071,
      "organ": 9072,
      "Ġattempts": 9073,
      "ni": 9074,
      "enance": 9075,
      "Ġdot": 9076,
      "zing": 9077,
      "Ġconnections": 9078,
      "Ġfiction": 9079,
      "background": 9080,
      "Early": 9081,
      "iii": 9082,
      "Ġembod": 9083,
      "ĠConsider": 9084,
      "Ġresistance": 9085,
      "Ġboost": 9086,
      "Ġagric": 9087,
      "Ġdecide": 9088,
      "Ġcomplement": 9089,
      "ĠDark": 9090,
      "anth": 9091,
      "Ġvariations": 9092,
      "ĠUnivers": 9093,
      "Ġris": 9094,
      "Ġchapter": 9095,
      "aki": 9096,
      "Ġgate": 9097,
      "Ġcollaboration": 9098,
      "Ġanalys": 9099,
      "regular": 9100,
      "Ġsoc": 9101,
      "ĠBall": 9102,
      "Ġarts": 9103,
      "diff": 9104,
      "ĠGovernor": 9105,
      "Mem": 9106,
      "aton": 9107,
      "Ġdominant": 9108,
      "hentic": 9109,
      "Har": 9110,
      "Ġdelivered": 9111,
      "medskip": 9112,
      "Ġpip": 9113,
      "rangian": 9114,
      "ĠDavis": 9115,
      "Ġatoms": 9116,
      "Ġroots": 9117,
      "Ġfeels": 9118,
      "ĠBan": 9119,
      "start": 9120,
      "Ġcond": 9121,
      "ffee": 9122,
      "aders": 9123,
      "ĠDigital": 9124,
      "sts": 9125,
      "ĠJacob": 9126,
      "ãĥ": 9127,
      "Ġguarante": 9128,
      "Bi": 9129,
      "ĠSign": 9130,
      "Ġwavel": 9131,
      "ĠRos": 9132,
      ")^\\": 9133,
      "Ap": 9134,
      "Ġteen": 9135,
      "inder": 9136,
      "Ġtechnologies": 9137,
      "ĠUr": 9138,
      "1964": 9139,
      "Ġeigenvalues": 9140,
      "NC": 9141,
      "Ġescape": 9142,
      "Ġpromote": 9143,
      "001": 9144,
      "Ġintr": 9145,
      "encing": 9146,
      "irical": 9147,
      "ĠMicrosoft": 9148,
      "closed": 9149,
      "Ġnaturally": 9150,
      "Ġdense": 9151,
      "UM": 9152,
      "iration": 9153,
      "Well": 9154,
      "Ġreduces": 9155,
      "Ġstochastic": 9156,
      "odcast": 9157,
      "Ġchallenging": 9158,
      "Ġexpanded": 9159,
      "Ġhonest": 9160,
      "1965": 9161,
      "Hom": 9162,
      "aire": 9163,
      "Ġenable": 9164,
      "Christ": 9165,
      "ĠMill": 9166,
      "Ġletters": 9167,
      "notag": 9168,
      "ĠOnline": 9169,
      ".\\\\": 9170,
      "Ġunable": 9171,
      "Ġships": 9172,
      "consin": 9173,
      "Ġinstitution": 9174,
      "1945": 9175,
      "uality": 9176,
      "Under": 9177,
      "sche": 9178,
      "TT": 9179,
      "ixture": 9180,
      "Ġfootballers": 9181,
      "nav": 9182,
      "ĠGuide": 9183,
      "Ġgenerating": 9184,
      "Ġgall": 9185,
      "ĠType": 9186,
      "ĠJews": 9187,
      "\\|\\": 9188,
      "Ġoperated": 9189,
      "BL": 9190,
      "ĠLtd": 9191,
      "Ġwalls": 9192,
      "$^{": 9193,
      "Jan": 9194,
      "Ġvotes": 9195,
      "Ġasking": 9196,
      "vals": 9197,
      "ĠTH": 9198,
      "imer": 9199,
      "English": 9200,
      "Ġgiant": 9201,
      "ĠVideo": 9202,
      "ĠGrant": 9203,
      "ĠRight": 9204,
      "fined": 9205,
      "~(\\": 9206,
      "Ġnegoti": 9207,
      "Ġrear": 9208,
      "engths": 9209,
      "));": 9210,
      "Ġpoliticians": 9211,
      "SW": 9212,
      "Ġsupers": 9213,
      "Ġinternet": 9214,
      "ĠLocal": 9215,
      "Ġcab": 9216,
      "ĠMedicine": 9217,
      "Ġnut": 9218,
      "ĠTurn": 9219,
      "ĠCommon": 9220,
      "ĠEu": 9221,
      "Ġhybrid": 9222,
      "Requ": 9223,
      "Text": 9224,
      "Ġspending": 9225,
      "mo": 9226,
      "unit": 9227,
      "Ġfitting": 9228,
      "\\%$": 9229,
      "Ġdiverse": 9230,
      "ĠSky": 9231,
      "His": 9232,
      "Ġfestival": 9233,
      "iversary": 9234,
      "ibliography": 9235,
      "Ġmatters": 9236,
      "Ġ$\\{\\": 9237,
      "Ġbaby": 9238,
      "Ġinterpre": 9239,
      "bp": 9240,
      "Ġcro": 9241,
      "ello": 9242,
      "ativ": 9243,
      "Ġelectro": 9244,
      "oment": 9245,
      "Ġgravitational": 9246,
      "ĠIV": 9247,
      "ĠCost": 9248,
      "Ġyounger": 9249,
      "agues": 9250,
      "Bu": 9251,
      "Ġsight": 9252,
      "ĠNFL": 9253,
      "ĠHo": 9254,
      "ĠJean": 9255,
      "Ġrestricted": 9256,
      "RI": 9257,
      "(-\\": 9258,
      "Ġcorporate": 9259,
      "vision": 9260,
      "Ġinclusion": 9261,
      "ĠCommunic": 9262,
      "iary": 9263,
      "Ġabsolutely": 9264,
      "Ġsupports": 9265,
      "Ġwinter": 9266,
      "ĠKar": 9267,
      "ĠMassachusetts": 9268,
      "Ġwins": 9269,
      "Ġnob": 9270,
      "ĠRyan": 9271,
      "Ġincreasingly": 9272,
      "ogonal": 9273,
      "ĠEric": 9274,
      "mathit": 9275,
      "Ġeat": 9276,
      "ĠRou": 9277,
      "Ġdetector": 9278,
      "ĠAL": 9279,
      "aska": 9280,
      "ĠAp": 9281,
      "square": 9282,
      "ĠCode": 9283,
      "ĠAnton": 9284,
      "Ġflows": 9285,
      "Ġrealized": 9286,
      "ospit": 9287,
      "ubb": 9288,
      "ĠIss": 9289,
      "itudes": 9290,
      "ĠDespite": 9291,
      "ibration": 9292,
      "Ġcopies": 9293,
      "Ġmas": 9294,
      "ĠEth": 9295,
      "Ġreact": 9296,
      "ĠWhere": 9297,
      "Ġsensitivity": 9298,
      "1920": 9299,
      "Ġrenew": 9300,
      "negative": 9301,
      "Label": 9302,
      "iability": 9303,
      "Exp": 9304,
      "grade": 9305,
      "':": 9306,
      "Ġsurprising": 9307,
      "Ġtotally": 9308,
      "Ġgather": 9309,
      "Ġhall": 9310,
      "Ġfacilit": 9311,
      "Ġsoldiers": 9312,
      "Ġdx": 9313,
      "ĠSon": 9314,
      "Ġopposition": 9315,
      "Ġcerem": 9316,
      "Ġmil": 9317,
      "Ġdominated": 9318,
      "ito": 9319,
      "ĠImm": 9320,
      "Ġcampus": 9321,
      "Ġstages": 9322,
      "Ġexperts": 9323,
      "oking": 9324,
      "Ġadult": 9325,
      "opyright": 9326,
      "Ġmanage": 9327,
      "Ġintermediate": 9328,
      "inema": 9329,
      "even": 9330,
      "enz": 9331,
      "bot": 9332,
      "next": 9333,
      "Ġsole": 9334,
      "Ġproud": 9335,
      "Ġprominent": 9336,
      "Ġrural": 9337,
      "ĠDam": 9338,
      "arest": 9339,
      "ĠHollywood": 9340,
      "ĠFC": 9341,
      "Ġscientists": 9342,
      "rizona": 9343,
      "second": 9344,
      "Ġvocals": 9345,
      "Ġconservation": 9346,
      "Ġsnow": 9347,
      "Ġinvestigated": 9348,
      "Ġextends": 9349,
      "Ġprecise": 9350,
      "equations": 9351,
      "Ġinfer": 9352,
      "everal": 9353,
      "ĠPortug": 9354,
      "ĠSem": 9355,
      "Ġabsorption": 9356,
      "Ġdiscussions": 9357,
      "aria": 9358,
      "issue": 9359,
      "ĠSydney": 9360,
      "Ġworldwide": 9361,
      "eron": 9362,
      "gment": 9363,
      "Ġpray": 9364,
      "Best": 9365,
      "ching": 9366,
      "ulpt": 9367,
      "iti": 9368,
      "ordon": 9369,
      "ju": 9370,
      "World": 9371,
      "eah": 9372,
      "lers": 9373,
      "Att": 9374,
      "Ġrevenue": 9375,
      "lights": 9376,
      "corollary": 9377,
      "Ġquery": 9378,
      "Ġcompens": 9379,
      "ĠUpd": 9380,
      "Ġtargets": 9381,
      "Photo": 9382,
      "owered": 9383,
      "Ġoccasion": 9384,
      "ĠCountry": 9385,
      "Ġsees": 9386,
      "Ġexercise": 9387,
      "respond": 9388,
      "Ġhalo": 9389,
      "!]": 9390,
      "emic": 9391,
      "Ġexplains": 9392,
      "thur": 9393,
      "phe": 9394,
      "Ġcensus": 9395,
      "Ġvictims": 9396,
      "Ġteachers": 9397,
      "Ġtang": 9398,
      "Ġnewspaper": 9399,
      "aux": 9400,
      "language": 9401,
      "ĠProb": 9402,
      "ĠMach": 9403,
      "XX": 9404,
      "Ġcomplicated": 9405,
      "Ġride": 9406,
      "Color": 9407,
      "Ac": 9408,
      "stic": 9409,
      "Ġsuit": 9410,
      "Ġconfigurations": 9411,
      "1966": 9412,
      "Ġsquad": 9413,
      "Ġillustrated": 9414,
      "ĠSpring": 9415,
      "']": 9416,
      "Ġseeking": 9417,
      "Ser": 9418,
      "ĠPot": 9419,
      "Ġconventional": 9420,
      "hav": 9421,
      "ĠGro": 9422,
      "idae": 9423,
      "Li": 9424,
      "Ġdry": 9425,
      "earing": 9426,
      "ĠKnow": 9427,
[...]
