#version: 0.2
Ġ Ġ
t h
ĠĠ ĠĠ
i n
o n
e r
Ġ a
Ġ th
t i
r e
e n
Ġth e
a l
o r
Ġ s
Ġ \
t e
i s
ti on
Ġ c
l e
Ġ $
a r
Ġ o
Ġ f
a n
e s
m a
ĠĠ Ġ
Ġ t
r o
Ġ w
Ġ p
ĠĠĠĠ ĠĠĠĠ
d e
Ġo f
Ġ in
t a
Ġ b
in g
Ġa n
s e
r a
{ \
i g
l a
m e
i c
Ġ e
a t
Ġan d
Ġ d
i t
en t
Ġ (
Ġ re
Ġt o
e l
s t
Ġ n
u n
e d
_ {
Ġ is
e c
s i
Ġ =
o l
u r
c e
m p
q u
Ġ$ \
c h
Ġ h
č Ċ
e t
Ġ m
T h
l o
t r
u l
ma th
a tion
ĉ ĉ
ĠĠĠĠ ĠĠĠ
Ġf or
a s
Ġ v
en d
i f
l y
u m
v e
Ġ &
t er
Ġ {
c tion
o t
} \
Ġ g
Ġc on
i l
} $
^ {
i d
b e
i th
i te
Ġ Ċ
g e
) ;
u s
v er
p h
s s
Ġth at
c al
Ġc o
ig h
te d
u t
Ġ S
Ġ on
a m
Th e
re f
c t
Ġ *
u re
g in
Ġ de
} }
x t
Ġb e
( \
a d
b le
Ġp ro
Ġw ith
o w
igh t
Ġ l
Ġ A
Ġ }
p p
Ġw e
be gin
- -
Ġ C
Ġw h
i m
ĠĠĠĠĠĠĠĠ ĠĠĠ
/ /
a me
ra c
Ġa l
I n
c o
in e
_ {\
) $
t s
Ġ ma
u b
i r
er e
f t
o d
Ġb y
s p
r i
2 0
a te
p er
t o
Ġa s
Ġth is
Ġ <
} {
e qu
Ġa re
m b
Ġe x
u e
an d
it y
f rac
} ,
Ġ F
c k
c ite
o de
d er
d i
p e
} )
m ent
r ight
e q
ti c
Ġ M
ro m
Ġ The
b el
ĠĠĠĠ Ġ
te xt
u p
o re
un ction
ec t
d a
i z
Ġ i
a se
la bel
Ġ P
tion s
, \
math b
ur n
= "
Ġ -
Ġ L
re s
ĠĠĠĠĠĠĠĠ ĠĠĠĠĠĠĠĠ
Ġ or
p ar
r an
Ġ if
Ġ B
Ġ +
e w
$ ,
Ġ R
le ft
$ .
si on
f or
r m
Ġ H
h o
in t
Ġa t
equ ation
l u
f ig
Ġ T
Ġf rom
lo w
Ġ me
o m
Ġ "
math cal
Ġ it
Ġ D
p a
y s
th e
ig n
is t
} .
Ġ E
t urn
Ġ W
* *
Ġ I
l i
< /
f f
i v
Ġf unction
Ġco mp
Ġ N
} (
es s
t y
u se
0 0
ic h
Ġc an
( )
o p
un d
c on
Ġp ar
Ġ G
} ^
g a
ti al
p ro
Ġs u
Ġ un
al l
Ġ '
} _
~ \
ti ve
m u
en er
tr i
en ce
ph a
la ss
o me
k e
d s
Ġs h
l ine
= =
al pha
Ġo b
a ve
a p
th er
s o
d ot
d u
ti m
) \
Ġp o
Ġ Th
a ch
Ġs t
ar y
) ,
p si
Ġc h
f er
b er
ra y
ti l
s er
a ble
) .
a re
Ġs e
l ic
Ġs ta
an t
a ta
Ġwh ich
es t
$ \
i le
1 9
Ġ le
se t
b o
al ue
mp le
ode l
p o
ro w
or t
el l
Ġd is
am ma
ul t
ar i
Ġ In
c c
b u
an g
m s
_ \
ĠĠĠĠĠĠĠĠ ĠĠĠĠĠĠĠ
f in
1 0
st r
Ġn ot
ta in
Ġ //
v i
Ġre turn
Ġre s
= \
g ra
y pe
-- --
Ġh ave
g et
Ġ\ \
mathb b
} _{
Ġb o
} ^{
ig ma
Ġ O
a ge
s ub
o f
ic al
Ġ @
a b
er s
ĉĉ ĉĉ
" >
- \
Ġa pp
Ġs p
Ġ r
o c
l on
c lu
tim es
an ce
il l
en s
um ber
Ġ [
^ {\
ph i
Ġ lo
p i
Ġs et
Ġ {\
Ġ us
Ġ use
v el
d ing
la mb
f a
j ect
lamb da
e x
Ġex p
i re
. .
20 1
i el
Ġs tr
m o
b f
Ġn e
Ġ k
s um
id th
Ġ qu
or k
Ġm odel
a ck
de d
c ri
Ġa r
o ur
w e
ti me
c es
Ġc lass
mathb f
Ġd ata
i es
te s
o g
in d
Ġ U
i on
a ct
psi lon
Ġal l
ul ar
v ar
ent s
se ction
Ġw as
Ġ |
la tion
re e
Ġ te
s igma
p t
a k
Ġin ter
a ted
w o
on g
at or
Ġ ra
Ġ la
p ut
a g
Ġ( \
ta tion
C on
^{ -
Ġh as
b ar
re n
ation s
al ign
} {\
Ġsh ow
h at
be ta
a c
o u
tri bu
' ,
til de
Ġ y
a y
i al
Ġ :
Ġp er
le ment
Ġon e
er r
e ta
e m
Ġa d
ol low
i de
ol u
o ver
o us
Ġe v
a pp
Ġ /
- >
Ġn o
ys te
p s
+ \
ar ray
Ġm o
de l
Ġp re
math rm
th is
g amma
Ġd if
a v
\ \
* }
n o
Ġe qu
Ġa ss
iz e
s h
or y
Ġ x
the ta
ite m
m in
Ġf ollow
Ġ V
x i
" ,
or re
r ho
i x
) )
m m
th od
Ġt wo
w h
a mple
t ing
u le
^ \
ĠW e
del ta
Ġ j
y n
ar d
Ġ K
ir st
20 0
ul d
ul l
w idth
Ġn ew
Ġ* /
] {
ĠĠĠĠĠĠĠĠ Ġ
ic s
Ġal so
ĉĉ ĉ
ti es
fig ure
c ent
si tion
le q
Ġg ener
se d
l l
ta u
) }
dot s
( );
c re
Ġ en
Ġt ran
Ġs ub
R e
n e
Ġ J
c ol
1 2
iel d
$ -
Ġo p
ec tion
al u
Ġp a
Ġw ill
: :
W e
or m
Ġd o
}$ ,
Ġsu ch
}$ .
Ġ _
en g
Ġv alue
u al
Ġi mp
b ig
( '
Ġv ar
' s
at ure
ame ter
ro up
Ġwh ere
la y
Ġcon t
} (\
ar k
Ġdif fer
for m
u ct
or s
i p
par tial
Ġc ase
eq ref
Ġc orre
h t
a ce
Ġ `
Ġ .
clu de
Ġ time
n u
( "
Ġt r
Ġth ere
ti cal
ĠTh is
Ġg iv
Ġv er
Ġcon st
Ġre p
Ġn umber
ma tion
Ġon ly
ft y
in fty
le d
n ame
Ġb et
gra ph
a st
Ġc ol
ome ga
yste m
de x
Ġ u
Ġth en
Ġe ach
ta ble
c ap
o s
P ro
ser v
ar row
Ġo ur
eq n
sp on
p tion
Ġp h
p end
ti t
eng th
Ġd es
ĠĠĠĠĠĠĠĠ ĠĠĠĠĠĠĠĠĠĠĠ
o ut
ul ts
ta b
c ed
te x
re turn
Ġn on
Ġo ut
| \
Ġo ver
g er
Ġre g
D el
g h
Ġsp ec
u st
an s
Ġl ine
ic e
ow n
g le
** **
we en
Ġo ther
Del ta
is e
Ġn ame
in al
Ġ ro
sp ace
par am
E x
i mp
tr ing
Ġf irst
ub lic
qu ad
Ġ err
Ġan y
d ic
---- ----
il ity
en sion
di tion
Ġs o
Ġin t
ar t
Ġ< /
in ce
o k
\ ,
is h
Ġs pa
de f
it s
i a
Ġ !
f ore
Ġbet ween
e mp
or d
u d
N ame
Ġv ari
on e
tr ic
c dot
si der
Ġme thod
Ġde fin
Ġ$ (
Ġc ur
o se
u la
== ==
s c
$ $
f ra
)$ .
1 1
Ġwh en
Ġus ing
} }\
} [
Ġe xt
Ġuse d
s f
ty pe
Ġgiv en
o id
e v
ore m
olu tion
o b
g es
Ġt ype
s ta
se c
r t
eqn array
s q
m all
Ġh e
f o
p m
Ġth an
ke y
g y
ul ti
ro und
Ġ z
Ġ es
Ġg ra
e psilon
Ġ X
Ġb ut
Ġsta te
F or
Ġthe se
w ork
C o
Ġapp ro
Ġm ore
t on
Ġpar ameter
cent er
e ar
alu es
Ġa bo
E R
iz ation
ren t
h i
Ġres ult
Ġ >
ol ds
Ġor der
1 6
Ġs ome
le s
Ġtran s
in clude
ra in
Ġe l
m l
ch i
Ġe ff
Ġm od
} _{\
Ġit s
Ġs im
in k
en tial
Ġre qu
ter n
wh ere
Ġh igh
al se
ase d
Ġob tain
ĠF or
le c
. _
Ġt er
Ġg et
di v
Ġc al
me ga
tri x
Ġ )
iz ed
1 5
^ *
1 8
O mega
c y
c ess
h e
Ġl ar
an n
s u
v es
)$ ,
per ator
sq rt
s si
Ġ& &
ex p
ir c
da ta
Ġ id
} ;
Ġcon sider
Ġres ults
v al
b ack
Ġfor m
un t
w ide
G amma
z e
Ġp res
Ġre la
ĠF ig
ma in
e ver
S T
y mb
Ġ up
ec k
sp ec
T ype
i an
le m
ang le
o te
ymb ol
a ti
Ġs ame
on d
si m
ĠĠ Ċ
Ġ$ {\
co mp
Ġfollow ing
Ġa c
t t
v are
il d
Ġpar tic
lo ck
lo g
ti f
um n
Ġin to
vare psilon
ess age
C h
Ġdiffer ent
Ġ| |
T o
sub section
Ġf ield
^{ (
y m
text bf
e xt
1 3
â Ģ
} =
Ġun der
Ġf act
I N
ec ted
g or
Ġp ublic
el f
ol d
as ure
vel y
i ed
Ġ čĊ
S tring
i b
Ġ\ ,
Ġw ork
a x
r r
ma t
o x
Ġch ar
Ġtr ue
Ġa cc
our ce
as es
ment s
a u
D e
2 5
}^ {\
) =
le ct
graph ics
tr y
ran gle
s on
Ġob serv
Ġe lement
cap tion
Ġ Q
p re
c m
Ġbe en
ate s
f unction
d is
ic i
O b
cal e
Ġthe ir
include graphics
Ġpro per
u ra
.. /
Ġrep res
ener gy
1 4
right arrow
Ġ Y
Ġdis tribu
if ic
Ġan al
E n
Ġs ign
ĠR e
R es
O N
Ġs elf
' )
f ter
Ġb ec
Ġcomp le
n on
ma ge
p ri
b m
Ġde f
Ġspa ce
Ġs ec
Ġma y
im ension
Ġbo und
re d
Ġcorre spon
cri pt
Ġs ystem
var phi
Ġn ull
fa ult
s k
Ġstr ing
o und
le ction
Ġd en
Ġ low
Ġv alues
ge q
Ġ #
um er
Ġm an
] ;
A r
Ġme asure
l it
Ġgener al
Ġd ire
Ġw ere
. ~\
uct ure
g s
an ge
ol og
ĠĠĠĠ ĠĠ
ra w
re ss
a ction
emp h
n ing
orm al
l an
ect or
. }
over line
so ur
Ġel se
Ġpo int
] ,
Ġma ss
& \
y p
S ta
er t
ĠĠĠĠĠĠĠĠĠĠĠĠĠĠĠĠ ĠĠĠĠĠĠĠĠĠĠĠĠĠĠĠĠ
re qu
ow ever
a th
fra k
al s
Ġs er
n i
v ec
R E
v alue
ti vely
Ġp ol
Ġ end
pro of
gor ith
Ġbo th
ch e
A T
ĠI t
Ġg roup
se l
Ġ= =
on s
fa ce
si ze
Ġte st
is ts
Ġf in
l ing
Ġf alse
co de
3 2
) ^
str ing
}) .
um ent
[ \
en tation
n ew
j ec
er y
on t
for mation
Ġm in
Ġse e
B ig
am b
ens ure
}, \
ar ch
d d
. ,
Ġ energy
ro u
Ġdes cri
imp ort
v ed
I d
ĠC h
Ġes ti
Ġf e
Ġpro du
m od
Ġs mall
st ra
19 9
Ġcon tain
re ad
c lass
ar get
at ch
il ar
i tial
math frak
i me
Ġass u
Ġpro ble
ho uld
h line
et work
ti v
1 7
Ġsu pp
Ġ --
> </
b ra
Ġin te
co m
Ġ ,
Ġc lo
st ance
t en
o le
' '
Ġst ar
l angle
at ing
c i
a use
ic k
Ġf ra
se e
b olds
i ew
sour ce
D ata
m an
S S
} }$
ens ity
bolds ymbol
i tion
mb er
Ġw ell
Ġ ran
ĠI f
ce ption
p r
bo x
Ġcomp u
er o
Ġm ulti
1 00
_ _
Ġs ing
Ġs te
sp an
Ġl im
l dots
ym me
Ġdefin ed
f ile
amb da
Ġex ample
L ambda
Ġ Z
l ength
Ġl i
al ly
me d
Ġpro cess
e p
ver y
L E
st er
P hi
Ġerr or
ver s
Ġ/ **
Ġd ist
r it
Ġb ack
un c
p d
as h
) :
L et
am es
ĠP ro
app a
Ġs ur
de fin
n er
l im
Ġa b
k appa
as s
L ist
h a
ad er
A R
en ces
Ġfollow s
Ġp ri
al ity
Ġabo ve
Ġde pend
r y
ma x
d es
Ġdis c
Ġte mp
in ts
mb ox
p lay
Ġ} ,
po sition
v ari
Ġco mm
st y
cite p
n ab
o times
Th is
' );
2 2
a tive
V alue
. \
Ġlar ge
m is
Ġstr ucture
Ġlo cal
v ent
Ġthe y
Ġk n
S t
Ġma t
le ar
// //
tr ans
or ph
5 0
Ġmodel s
res sion
3 0
nab la
Ġshow n
> <
Ġs c
) );
c ur
en cy
n ode
Ġ= ==
sel f
to p
Ġs ize
Ġp r
in es
b it
yn am
Ġob ject
ĠĠĠĠĠĠĠĠ ĠĠĠĠĠ
iel ds
Ġc ho
w ith
on ent
ht ml
Ġv oid
in ter
te st
g r
Ġwh ile
l er
ad d
c irc
} )$
A L
sty le
ĠĠĠĠĠĠĠĠĠĠĠĠĠĠĠĠ ĠĠĠĠĠĠĠ
non umber
Ġw o
( $
Ġn ode
c ted
gorith m
or der
tex tit
ma te
I D
\ |
Ġma x
s te
g round
t d
ensure math
Ġmo st
i ve
**** ****
Ġb u
is m
is ion
la te
ro du
de pend
s ing
A n
O R
ab ility
Ġ: =
b y
\ %
e y
as k
}) ,
E rr
E N
: //
per im
Ġra di
Ġs hould
r ite
Ġparameter s
Ġcal c
Ġwo uld
il ter
}} {
u lation
ff ici
ĠC o
Ob ject
Ġrequ ire
âĢ ĵ
to m
S et
Ġdistribu tion
n ot
ro ss
i j
2 4
2 1
Ġ` `
Ġ q
C ol
Ġc all
in u
Ġid en
la ce
ro l
) (
en ted
Ġreg ion
P ar
Ġ key
ou gh
A s
ical ly
Ġg o
i e
ac ter
Ġma g
Ġo perator
Ġs ol
Ġsec ond
B y
ix ed
t ot
S igma
p x
qu e
\ [
Ġh and
c or
ĠC on
A t
vi ous
Ġs ection
i er
Ġs ince
Ġth ree
Ġt ra
ati sf
/ \
ow er
Ġma trix
Ġproble m
m ark
Ġdo es
n t
Ġcur rent
" );
i o
v ice
Ġn etwork
Ġpo ssi
u i
Ġin cre
co mm
er n
col or
con t
Ġcon s
Ġ! =
Ġc ent
oc i
Ġ= >
ver t
ur ther
Ġin clu
Ġe d
Ġper form
le ss
S E
Ġd er
\ !
str u
-------- --------
Ġgra ph
rou gh
v en
Ġar g
] .
p y
Ġde ter
g o
ic t
Ġter ms
er ature
6 4
Ġde c
ĠA n
lo b
Ġ( $
la t
D E
==== ====
wide tilde
m on
u th
Ġle t
Ġto p
ĠTh en
Ġf inal
../ ../
Ġc re
Ġfe ature
Ġpro b
Ġs ample
a i
and om
Ġsim ilar
Ġfunction s
Ġeff ec
Ġin itial
m essage
Ġequ ation
Ġd ensity
d raw
Ġappro ach
Ġs equ
a mp
ĠA s
v ate
ut o
Ġre al
u ch
m er
ht t
Ġ ?
le t
a in
E lement
Ġs atisf
ys is
Ġin put
Ġa fter
/ **
Ġobtain ed
pri me
ind ow
ur ing
{ -
e e
m ary
Ġco m
# #
Ġv al
Ġpa th
} -
t al
Ġma p
center ing
Ġsu per
Ġf ound
vi ew
Ġb el
od y
ro ll
Ġh ref
if ied
a ke
are d
ĉĉĉĉ ĉ
if t
Ġe very
l d
lo c
f ul
Ġs um
si tive
re ak
Ġre spec
Ġcorrespon ding
Ġline ar
z eta
Ġb ased
Ġh is
~ ~
str uct
ĠD e
2 3
Ġal low
li ent
U n
) {
o st
Ġcon n
Ġpartic ular
F ig
in dex
a ys
Ġs olution
ent ly
Ġ ent
Ġs cal
I T
re am
pp er
Err or
4 0
Ġ %
Ġma in
Ġl ong
\ {
Ġn ow
} +
ma trix
Ġre fer
Ġpar t
\ ]
tab ular
d ate
Ġev ent
Ġ} ;
ge bra
v ing
is tic
im um
" )
ot ential
Ġd i
n g
Ġre du
Ġt rain
Ġ right
ĠE q
Ġpa per
Co mp
Ġpre dic
S er
mo ve
Ġne ed
) =\
la ck
ur al
od es
em ma
Ġvari able
Ġde te
Ġh y
Ġfin ite
Ġex perim
per ty
es e
Ġdisc us
Ġsing le
Ġ& =
Ġconst ant
ĠL et
re g
ver se
ta tions
Ġt yp
Ġth rough
Ġshow s
pro p
Ġop tim
Ġcon dition
Ġf ile
Ġar ray
un der
C lass
Ġf a
ma p
) }\
Ġf ind
A N
} =\
Ġpo ints
Ġf lu
Ġchar acter
o v
; \
Ġappro xi
l ish
ĠThe orem
Ġst ud
Ġin dex
Ġph ase
Ġd imension
Ġin dic
Ġabo ut
Ġle vel
Ġd ue
u di
gra m
Ġpro vi
Ġin formation
Ġs ource
Ġa ction
N ode
ura tion
w ar
mis sion
g roup
Ġa g
Ġthe ory
rac k
Ġt ak
Ġimp ort
cal l
Ġ left
Ġpro po
ti ce
iv al
b r
or ts
Ġad d
C T
i mple
Ġad dition
n ess
{ (
v id
er m
Ġspec tr
Ġl ength
) ^{
us h
om orph
Ġle ad
ĠĠĠĠĠĠĠĠ ĠĠĠĠ
Ġc la
3 3
P o
tot ype
Ġ );
Ġbec ause
ĠA l
Ġor ig
H e
Ġrespec tively
/ >
ct or
w ard
cc ess
$ )
Ġcalc ula
Ġv ector
Ġr un
b ed
8 0
Ġor g
t us
Ġsta tes
ur l
K ey
Ġver y
pa th
li es
Ġt ri
Ġm ust
en e
ĠH owever
Ġs ymme
Ġex ist
Ġ} );
+ +
Ġlim it
6 0
} ]
Ar ray
Ġpa ir
Ex ception
u c
a pa
Ġof f
or ted
Ġpro of
Ġran ge
and ard
c dots
th m
Ġdef ine
B u
ff er
Ġ( !
" :
E vent
ga in
ĠTh ere
L o
in s
Ġin stance
ic ation
ann el
lo t
In dex
} |
00 0
Ġmulti p
ti ty
ant um
Ġpossi ble
di tions
Ġs yste
en se
Ġl ist
}^ \
. ~
wide hat
G et
m it
a si
7 5
O p
}_ \
Ġmat ch
Con t
A M
Ġint rodu
4 5
Ġle ar
Ġp otential
Ġsta tic
Ġder iv
al ax
Ġcont inu
Ġal gorithm
}\ ,
q quad
Ġe t
o th
Sta te
b ase
Ġr andom
depend ent
Ġun i
Ġthe m
in c
Ġproper ties
tern al
e ps
Ġ/ *
Ġanal ysis
Ġc lu
tribu te
T ime
p ec
jec ts
lem ma
Ġcomple x
if y
b ility
Ġt arget
o perator
.. .
" />
Ġdire ct
i i
sum mary
ite d
A l
Ġi mage
}} (
O n
sp ect
M e
oc ument
mb in
P si
s cript
Ġmethod s
defin ed
Ġa v
Ġop tions
Ġn ormal
ta il
tit le
T est
Ġev en
ver age
Ġpre vious
9 0
r c
Ġter m
Ġto tal
ty le
Ġcon text
}) \
text width
ĠS ection
Ġla t
Ġz ero
olog y
Ġp e
Ġd ynam
co unt
^ +
() .
con st
& =
Ġcon fig
Ġ\ {
, -
et s
Ġpres ent
' :
Ġe mp
ĠFig ure
are nt
lo ad
Ġo per
mod ule
i ties
ser t
Ġstud y
te mp
co pe
no te
a us
O M
Ġass oci
Q u
ĠT o
Ġp lay
Ġra te
{ {\
Ġback ground
' ;
c er
pro totype
}^{ (
ation al
Ġdeter min
F ile
Ġde g
a w
I C
Ġsequ ence
Ġco up
lob al
ma ges
ĠU n
se qu
Ġex ists
Ġme an
ne tic
Ġin v
ord in
m odel
ĠE x
tiv ity
pa ce
Ġcon ver
/ *
wh ich
el y
s mall
Ġstr ong
app ro
ar g
2 7
Ġn il
Ġmod ule
Ġwith in
lic ation
or g
R equ
ĠL emma
Ġa ct
I f
mu la
Ġp ower
9 9
ra tion
ic es
la ble
W ith
math sf
Ġ// /
Ġh ere
j o
l ist
ual ly
ĉ Ċ
m id
Ġman y
ce pt
}\ \
) ]
A S
i od
an ts
um ents
A C
A P
Ġ text
() );
Ġw idth
Ġe lec
S e
Ġco uld
" ;
0 5
u de
Ġlo g
3 5
ch ed
Ġtemp erature
ar is
Ġch eck
r on
ole an
Ġ$ (\
"> <
u g
Ġb ase
L L
Ġprob ability
me di
] [
Ġh ad
si ve
op tions
Ġlow er
ĠH e
tical ly
sub set
Ġla st
l us
Ġg alax
as on
stru ction
Ġm on
o ther
ĠS tring
Ġla y
l ink
h en
si de
Ġcon ditions
d imension
ind ent
Ġw or
Ġp lan
2 8
ĠS t
I t
ti s
In t
Ġbe ing
Ġo cc
P E
() ,
T E
av a
Ġre f
pd f
Ġb as
Ġre ad
j s
sta te
Ġelement s
( {\
Ġqu antum
Ġf ixed
a pe
201 8
un ded
Ġne xt
ĉ ĠĠĠ
b ut
o ff
E qu
O f
19 8
s cale
Ġs imp
re at
ha vi
Ġobserv ed
Ġfact or
e ffici
an ces
u te
} :
c up
po s
ith er
equ iv
Ġg e
ur b
fo ot
Ġco de
ing s
L e
cite t
0 1
. $
Ġlo c
Ġcal led
Ġw ay
f unc
st ar
ach e
Ġequ ival
Ġa gain
P ath
} +\
a f
spon se
Ġ& \
Ġs cale
ent al
in put
lec ted
f rom
co s
x space
] $
tic s
Ġb lock
Ġfra me
Ġs imple
Ġpo sition
Ġproper ty
Ġassu me
Ġpo sitive
on ents
tr on
Ġv iew
trans lation
S h
T ext
Ġth ose
Ġperform ance
2 6
f ield
Ġkn own
201 7
Ġre main
}} {\
Ġver sion
' $
| ^
Ġbe fore
im al
an el
Ġpri vate
Ġsyste ms
Ġal gebra
Ġv is
po int
vel op
l ight
Ġh ow
Ġinter action
pa ge
sp lit
u pp
on al
Ġout put
Ġma ke
b or
s in
w ise
ot tom
Ġcont rol
d o
V iew
l in
operator name
Ġth us
Ġequ ations
ĠA r
Ġiden tif
h space
m ul
Ġt ask
Ġwith out
Ġqu an
ol umn
w w
Ġst andard
is ter
ly ing
Ġexp ected
r id
Ġ- \
T R
g g
Ġhigh er
def ine
n eq
li p
} -\
) -
Ġc irc
I I
ro p
foot note
Ġl ines
Ġ_ _
Ġin du
Ġl ink
row s
Ġph ot
ĠB y
Ġab s
I M
dis play
Ġsp in
en umer
Ġcon tribu
[ '
Ġf our
lic it
Ġ times
Ġf requ
Ġsign ific
M L
( -
olu tions
Ġden ote
ens or
Ġf ields
d en
pa ck
Ġi mple
Ġh el
da g
Ġassoci ated
Ġal ong
Ġset ting
201 6
Ġb reak
l ue
the orem
4 8
) }{
de fault
ou ble
no indent
li ed
si an
e lement
Ġd uring
Ġs to
i ly
ĠO n
20 19
mul tic
re p
n b
ra te
tion al
& &
c ing
Ġev alu
htt p
Ġbound ary
Ġc ases
h as
Ġco un
ch o
Ġph ys
Ġval id
val id
Ġb in
ssi f
] )
ure s
ear s
enumer ate
ĠS ince
sc r
ed ge
ĠĠĠĠĠĠĠĠĠĠĠĠĠĠĠĠ ĠĠĠĠĠĠĠĠĠĠĠ
] \
Ġpropo sed
l and
Ġst udi
ign ed
Ġc ross
f ill
I S
Ġop en
Ġy ou
Ġdist ance
201 5
al le
se ts
vari ant
as ing
i k
comm and
R ec
7 0
Ġde fault
multic olumn
e V
ang u
ire d
E D
Ġbe havi
F rom
Ġf urther
Ġse par
at tern
Ġus er
Ġv el
cre ate
$ }
2 9
me mber
//// ////
Ġsim ula
S ystem
) }$
Ġte ch
pp ing
Ġp op
\ ,\
Ġn umer
ĠĠĠĠ Ċ
Ġf it
Ġco mbin
se arch
Ġcons ist
E T
Ġdescri bed
Ġcomp onent
h er
3 4
. </
Ġbel ow
Ġdif f
In fo
v ir
D is
item ize
Ġanal y
dimension al
A B
M ap
v space
le v
Ġcont ra
ĉĉĉĉ ĉĉ
cri ption
Ġtrain ing
co re
om ial
or ding
ig en
o o
Ġ label
oc us
Ġre spect
{ }
ti o
ile d
Ġch ange
Ġst art
k en
Ġesti ma
H and
ob ject
ch eck
am il
ĠTh us
Ġc lear
Ġ( )
ol l
til l
` `
end s
ai lable
tr ue
Ġch ang
err or
am s
Ġli ke
L O
3 6
oc ity
line ar
C O
d t
me thod
Ġimp lies
olog ical
Ġimport ant
om in
Ġeff ect
S ize
ction s
ĠĠĠĠĠĠĠĠ ĠĠ
et urn
ames pace
Ġden o
I te
y c
R O
Ġsignific ant
x y
Ġex act
Ġ ke
Ġprodu ct
Ġ _{
Ġdo main
Ġdefin ition
Ġco effici
M an
Ġexp ression
t ra
ĠS ta
Ex p
th at
it or
Con text
ag es
k s
Ġed ge
O r
ĠR es
olu me
Ġse ver
Ġsur face
ĠO b
Ġp la
Ġwe ight
g ener
appro x
Ġcomple te
U R
Ġfor mula
math scr
I ON
lo at
}} _
fer ence
ag er
9 5
Ġimp ro
C ode
w n
res ult
Ġw rit
Ġper iod
Ġfeature s
Ġset s
201 4
Ġ! ==
Ġde velop
p ublic
Ġ\ |
Ġcol or
Requ est
Ġorig inal
}} }
0 4
ma g
n ormal
able d
Ġit er
() )
under line
Ġste p
Ġe ither
Ġa verage
\ }$
Ġconsider ed
ch ar
Ġde tail
mb ed
la ted
c an
Ġne ar
P i
E S
Ġlo ss
Ġmo ment
at ter
nb sp
A pp
tic es
Ġle ast
Ġf low
Ġin f
r al
Con fig
A D
ow led
v is
Ġass ert
ro id
Ġco ordin
m ulti
20 20
Ġrepres entation
Ġf ull
Ġch annel
Ġcontain s
b ody
Ġf ree
u til
sk ip
our ces
ga tive
) +
ste ad
ap i
con fig
b b
he ad
Ġre lation
Ġun it
Ġde p
' t
6 5
3 8
Ġlar ger
Ġgener ated
read y
ran s
V er
loc ation
N o
ĠN o
^ -
aris on
Ġcol umn
am ily
mp tion
Ġmag netic
Ġc ar
res h
Ġb and
Ġ/ >
******** ********
Ġequ al
if orm
mo oth
we b
} /
Ġf il
he ight
g l
tain er
Ġa uth
G L
Ġi de
r ary
v oid
b ased
~ $
ar gin
st o
Ġlear ning
y ing
M odel
Ġcoup ling
tr m
Ġconst rain
ĠTh ese
for med
00 00
In ter
l n
Ġl ight
Ġcon f
201 3
s w
Ġm uch
tex trm
Ġs olutions
te q
ch an
en ded
ĠE n
ĠN ew
Ġext ra
0 8
fin ite
6 6
0 3
ĠA ss
w ay
( {
Ġtran sition
sion s
Ġclo se
Ġpro ve
Ġclu ster
Ġpro vid
Ġsupp ort
T r
ev ent
ĠL e
c lo
Ġgiv es
s en
Qu ery
Ġt ake
ta g
b lock
0 2
it er
cur rent
Ġv ia
Ġin dependent
ĠT able
Ġspectr um
tt p
Ġ\ ;
angu age
Ġb i
Ġvariable s
ic on
}^{ -
Ġwe ak
Ġsever al
ti g
Ġm ode
N ew
Ġh al
B e
Ġs till
( (
M o
' ]
Ġocc ur
yn c
C H
Ġrequire d
Th ere
The ta
h and
5 5
s l
Ġob jects
o sition
ĉ Ġ
Ġcla ssif
r ule
Ġinte gra
Ġcall back
ex ample
Ġh olds
Ġr ule
st art
Ġesti mate
A dd
Ġcomp onents
k ing
Ġ âĢĵ
le te
F F
Ġthere fore
lect or
Ġme ans
Ġw rite
Ġno te
Ġa round
I s
ph er
p ng
Pro perty
Ġh om
p on
as sert
w ays
Ġser ies
se teq
p c
U T
Ġt able
l ar
Ġcre ate
Ġvel ocity
O ver
Ġcont ent
4 4
pro d
it ch
a il
S ince
ĠThere fore
C D
201 2
m entation
ĠN ote
e ther
[ ]
Ġc ell
}} _{
s m
yn omial
Ġ$\ {
pp ed
Ġa chi
ri de
Ġ$ |
) ,\
Ġe ar
Th en
< \
C om
Ġd iv
Ġinter est
Ġf la
g en
lon g
Ġle ss
ate g
Ġw ave
tation al
3 7
g ence
Ġprovi de
v an
D es
ore over
Ġe igen
Ġn at
d own
che me
Ġrela ted
ateg ory
0 6
Ġne u
Ġin st
0 7
ec ess
20 10
min us
b s
Ġg u
N N
Ġspec ific
us er
Ġwh o
Ġge ome
T able
Ġev olution
dag ger
) |
Ġf ilter
} '
an e
vir on
re t
3 1
^{ -\
Ġstar s
{ $
k n
Ġs ide
Ġb est
ol ic
G roup
Ġav ailable
sub seteq
Ite m
p ush
th ough
Ġinte gr
M od
3 9
P I
En d
201 1
Ġrela tions
i ble
Ġj o
ma tic
o ot
text tt
Ġn odes
c ase
en u
Ġi mages
Ġmax imum
Ġflu x
c el
jec tive
" "
Ġeffec tive
Ġ( $\
inal ly
Ġthe orem
}} ,
Ġj ust
_ +
es sion
n et
I G
ust om
m ore
Ġen co
Ġre sponse
m y
Ġd own
w are
r ic
Ġev ents
f low
or iz
t urb
p or
mo st
k et
Ġinclu ding
Ġreg ular
i res
Ã ©
Ġbu il
ĠA pp
Ġa ff
w edge
c r
re ate
Ġsp ect
roll er
lo cal
Ġma de
A G
O ut
Ġre ce
Ġse arch
Ġrequ est
Ġg au
Ġme tric
d if
Ġrela tive
} );
\ }
si tions
Ġa uto
lu gin
Ġb lack
Ġra tio
Ġin clude
res sed
n orm
Ġm ark
$ _
Ġse en
Ġdiffer ence
0 9
ar s
op lus
d oc
y mp
omorph ism
Ġ$ -
Ġe mission
si ble
======== ========
Ġaddition al
Ġc ap
ic ro
N S
* {
19 7
P T
Ġsign al
ĠCo mp
Ġ ]
en c
Ġmultip le
* /
li ke
t or
ti tion
Ġcan not
Ġg lobal
n av
re en
en ame
Ġre co
r ing
emp ty
A ll
ref er
C C
col umn
Ġa x
la in
T ok
Ġcontinu ous
line width
Ser vice
con n
6 7
ser ver
Ġgalax ies
Ġhy per
N ote
Ġdire ction
Ġpre c
th es
medi ate
200 9
di ent
at er
I R
rit er
w ord
Ġp ass
] (
_{ (
Ġu pper
Ġa mp
P S
Op tions
ĠĠĠ Ċ
Ġeffec ts
set minus
Ġs yn
Ġhe ight
bu g
om es
A A
Ġ im
Ġeff ici
Ġal ready
b a
Ġinter n
la tions
ter s
Ġpol ynomial
in o
op le
ĠG L
Ġs pe
Ġme chan
Ġc ri
ch ild
Ġh o
si te
Ġd ia
Ġg ive
fer ences
4 9
lo y
b in
Ġequival ent
Ġp anel
mer ic
og le
con text
lim its
h n
di re
\ '
id es
ĠS et
Ġwh at
Ġcomp ared
Ġro ot
om en
ern el
Ġsymme try
s up
Ġsh ort
A ss
Ġ$ [
C all
O S
F ield
Ġprovi ded
Ġdeg ree
6 8
tab lish
g ed
ĠA t
end er
Ġbas is
ĠA d
iz es
_{ {\
Ġre str
Ġfrequ ency
200 8
apa che
Ġ( -
sta ck
ĠS h
rac y
Ġn ecess
_ *
V al
F unction
Ġ }\
Me thod
Ġoperator s
par t
Ġobserv ations
S ec
Ġre cent
Ġver tex
m i
ĠG et
iz ing
Re g
Ġs mooth
ig ger
div id
Ġ+ =
Ġcon struct
Ġin equ
Ġgau ge
ac tive
ĠS o
Ġarg uments
Ġsta tis
alle l
Ġno ise
av ing
par ameter
"> </
iv en
Ġbo unded
f alse
Ġex ec
Ġpres ented
)\ ,
Ġg as
ict ure
Ġapp lied
de ed
j ection
) {\
c orre
Ġexp licit
S ub
m and
Col or
i mage
Ġcent er
j or
ver sion
Ġcur ve
l en
ab s
oll ary
ut ure
ir d
4 7
i or
Ġwh ether
Ġdata set
amil ton
) /
Ġt urn
ut ing
v alues
n s
n umber
Ġc er
Ġw indow
Co unt
ect ors
id get
htt ps
pon se
B o
Ġan gle
al e
Ġexp an
M A
f s
V ert
Ġapproxi mation
Ġpr im
Ġpro file
In put
Ġbehavi or
F ra
Ġbet ter
Ġe mbed
sub figure
qu are
Ġch ild
ĠP ar
Ġm is
Ġs tyle
Ġ title
defin ition
Ġat ta
ser ve
Ġvari ous
_{ -
or th
du ct
8 5
big g
Ġb ro
Ġcomm on
bo und
t ual
Ġh ence
m d
Ġde cre
k ip
ob j
Ġh owever
fa ct
Ġme di
U LL
u racy
ĠS ec
c ity
m es
S U
H T
k es
but ton
Ġc yc
) }(
Ġext ension
Ġsmall er
le vel
e f
la p
} %
t arget
re es
Ġm essage
Ġan other
Ġla ter
Ġlay er
O T
e ff
M essage
Ġun cer
g ment
Ġapp ear
inc ip
ll ar
$ (
en ari
Ġin stead
' \
Ġinv ol
tic le
Ġh er
O D
,\ ,
Ġin ves
Tok en
Ġa m
en tion
Ġpartic le
= (
Ġwh ose
Ġtyp es
A d
Ġ| \
Ġth row
ro py
L a
ta tive
M S
---------------- ----------------
200 7
owled ge
9 8
mat ch
la s
Ġclo sed
Ġquan ti
Ġre mo
ĠU ni
vers ity
E xt
b ul
ce p
Ġsu ffici
c tive
g ing
ge ther
Ġrepres ent
Ġradi us
Ġre ason
ĠĠĠĠĠĠĠĠĠĠĠĠĠĠĠĠ Ġ
Ġal ways
Ġgroup s
war ds
F T
sta tic
: \
align ed
ĠPro position
Ġtech ni
Re ferences
ic tion
ting s
Ġs w
Ġf ew
Ġpartic les
Ġnumer ical
Ġdes ign
Ġgo od
Ġbo ol
an y
Ġapp ly
ch ange
d b
u mp
pa g
Ġuni que
Ġspec ial
re move
Ġcomm un
Ġsu ccess
b all
' _
aus sian
Ġinter val
le g
kn own
co un
Ġes tablish
Ġun iform
Ġsc atter
return s
Ġc or
pro perty
Ġ item
Ġt ree
. /
col on
r un
}} (\
Ġ+ \
Ġ url
Ġexp ect
Ġoptim al
d ro
viron ment
S p
Ġdynam ics
Ġf ig
\ "
200 6
N umber
Ġdetermin ed
s tit
app end
= {
Ġdis cre
Ġmoment um
C lient
Ġregion s
Ġbec omes
ran ge
Ġspectr al
ĠR eturn
Ġsatisf ies
Ġsimula tions
U N
lic e
Ġtran sp
) _{
= -
t ure
il der
Ġd ocument
z ero
E q
a de
\! \!
Ġqu ery
ne xt
Ġdetail s
Ġre ach
Ġsh e
re l
divid ual
Ġcho ice
9 6
f irst
Ġare a
lic k
IN G
co mple
Ġ$ .
Res ponse
Ġamp lit
Ġdirect ly
ist ory
Ġs ources
me q
Ġver tices
ĉ ĠĠĠĠĠĠĠ
Ġmat ter
Ġp attern
per p
Ġar bit
Ġnat ural
cont ent
b lack
Ġ&= &
Ġ il
ol der
st and
Ġcol lection
Ġspec ified
E X
Ġ ~
9 7
Ġ< <
qu ery
for all
Ġco st
Ġelec tron
ĠC ol
Ġne igh
}$ -
che ma
us ing
Ġallow s
il li
n it
op y
Ġ ti
su per
a it
Ġf amily
Ġcompu te
L ine
b t
D F
S pec
= '
Ġd ouble
Ġ Ð
C L
si meq
r is
Ġacc ording
so ft
Ġconn ected
ymp to
Ġpe ak
Ġdec ay
E E
Ġarg ument
or ies
if e
Ġp lot
iz er
++ )
Ġma ps
ter ial
s cri
Ġper turb
or age
c l
ho od
m ar
] );
ur ity
Ġun defined
Ġcomp act
Ġrefer ence
sub subsection
EN T
par se
Ġlat tice
ran ch
for ms
lic ations
un g
Ġdiscus sed
to col
Ġqu es
) ^{\
T rans
Ġsample s
Ġscal ar
in fo
ĠĠĠĠĠĠĠĠ ĠĠĠĠĠĠ
ta ge
da p
N et
Ġm er
Ġ\ (
8 8
ĠH ence
S upp
) ^{-
Ġtak en
.~ (\
Ġcorrespon ds
f ilter
re mark
ra di
Ġphys ical
lu stra
Ġpro te
Ġcon struction
Ġup date
ĠP o
Ġexperim ents
Ġconfig uration
Ġn uc
Ch ild
w rite
pa rent
O O
iv ed
Ġneu tr
Ġclass ical
Ġre d
ĠM e
Ġconstrain ts
4 2
{ $\
c ss
Ġ ir
ck et
au th
Ġv ir
d im
P r
Ġac count
U S
ari es
Ġderiv ed
Ġd one
Ġs cheme
av es
b ottom
4 6
Ġframe work
Ġp ack
il ities
Man ager
$ ^{-
Res ult
c ell
ĠR o
I mage
L og
Ġ row
Ġwrit ten
n ull
et y
F act
Ġf ocus
Ġla w
m ine
200 5
Sta tus
t le
W idth
AT E
An d
an ish
ĠL o
Ġd omin
a h
Re f
new command
end ing
Ġexp lo
mon stra
5 7
Ġli k
tr an
At tribute
Ġmeasure d
Ġpro ced
}^ *
ith ub
P re
Ġg round
F e
Ġp lace
Ġman if
g ular
text sc
meric an
Ġt ensor
Ġne gative
d x
( [
Ġlo op
at tr
Ġcomp arison
p ort
S tyle
Ġresult ing
S P
ĠW hen
amilton ian
S O
Ġb order
$ ).
u k
Ġcri tical
ad ding
c ases
ĠM o
Ġerr ors
^{ +
Ġcoeffici ents
Ġprovid es
Ġspa tial
Ġfra ction
Ġl it
con d
Ġacc uracy
Ġchang es
C ell
ator s
Ġintern al
Ġdis play
Ġst rate
St ream
Ġcontribu tion
Ġ{ };
P er
Ġch ain
Ġed ges
O ff
per ties
Ġde comp
) }{\
qu es
Ġm argin
20 21
tric es
L T
Ġob j
$ $\
Ġassu mption
re m
la st
Ġagain st
th ing
U ser
Ġcorre lation
Ġmeasure ments
c at
M C
pro cess
S I
Ġcent ral
4 3
Ġen ough
S C
id ence
e ded
Ġnumber s
s es
N ow
Ġin dividual
Ġcorre ct
tribu tes
Ġt rack
d ir
D ate
Ġsc enari
D ec
Ġapproxi mate
Ġcer tain
Ġp ur
Ġ( (
Ġin variant
Ġstr uct
Ġcalcula ted
Ġ= \
Ġp arent
B ase
es ted
ĠW h
! --
b its
Ġtr y
Ð °
Ġy ears
gorith ms
Ġfa il
Ġclass es
fra me
Ġinequ ality
Ġde monstra
und le
Ġlo ok
g ies
ol s
N ot
su pp
p matrix
)\ \
le ase
la sh
Hand ler
}} ^
8 7
c ast
G ener
um in
Ġimpro ve
Ġe asi
Ġv olume
Ġcorrespon d
ĠC ar
Ġmin imum
id den
Ġintegr al
) _
ĠA ll
Ġs en
requ ire
Ġl en
Ġper formed
ĠB o
bul let
ve x
20 00
S ource
g ithub
ite ms
Ġintrodu ced
} )$.
co p
exp orts
d ist
Ġpri or
Ġin finite
ear ch
Ġdistribu tions
en tations
Ġcon ven
f e
Par ameter
m ory
Ġproble ms
H E
gin e
Ġplan e
ĠĠĠĠĠĠĠĠĠĠĠĠĠĠĠĠ ĠĠĠĠĠĠĠĠĠĠĠĠĠĠĠ
Ġmo tion
200 4
Ġ$ $
ty p
or n
\| _{
Ġspect ra
Ġm ight
i ti
in te
Ġdeno tes
Ġsim ulation
Ġthe ore
l or
a cc
P h
op en
en tif
li b
Ġsymme tric
olu te
Ar g
th en
Ġincre asing
ĠR ec
Ð ¾
Ġre st
Ġcompu ted
Ġpol ar
Ġu til
ĠS ystem
| _{
Ġso ft
De fault
g n
Ġpr incip
Ġf ar
t x
Ġpar tial
p ol
par a
Equ al
Ġto gether
v ity
Ġcur ves
H ere
Ġdescri be
U til
Ġra ther
Ġor bit
resh old
u sion
## ##
Ġd ri
ific ation
lev ant
ĠM oreover
( _
op t
enc ies
in f
a z
ma tions
c s
Ġstr ict
)$ -
ĠJ o
sequ ence
E d
Ġconsist ent
o per
Ġ ;
is ed
il ib
Ġh ttp
urther more
im ilar
ash ed
b i
Ġg reat
Res ource
ol ve
Ġadd ress
P C
v ices
Ġro le
Ġsp lit
Ġlink s
=" ../../
Ġbe gin
In stance
is ms
ra g
end ix
Ġdepend ence
l ang
Ġsupp orted
es ts
l t
O ne
ĠP h
For mat
\ _
Ġincre ase
ds h
Ġoper ation
rom ise
R un
Ġbo olean
ĠOb ject
Ġil lustra
ww w
7 7
Ġtrans form
Ġnetwork s
ar p
ref ix
rodu ction
ix el
pack age
Ġinter pre
ish ed
Ġdepend s
~ $\
ĠC om
al y
ti k
Ġdescri ption
g ress
Ġj ava
N ext
J S
od ot
h ip
Ġco ver
on ly
Fig ure
> (
Ġs rc
C E
m ma
Ġun til
}} ^{
Ġd ual
me ta
A SS
Ġse lected
Ġdis k
Ġdete ction
R ow
Ġlead s
min i
B lock
c lient
Ġcho sen
or ld
u tion
Ġhel p
~~ ~~
Ġs k
st ers
l s
ĠG aussian
Ġdi ag
Ġma trices
Ġachi ev
' }
5 6
Th us
in it
Ġmag nit
a ded
Ġapp lication
Ġf ul
u ation
List ener
Ġre search
ER T
ĠO ne
f ont
j son
Cont ent
re du
Ġwork s
P R
Ġinte ger
Ġstudi ed
Ġmod es
Ġs ay
Ġexpan sion
Ġs ite
ĠN ULL
Ġexperim ental
ding s
row ser
display style
Ġen ti
L ength
se lect
f it
pro position
use d
m ic
g ges
u ter
mb ers
ĠH ere
map sto
ph ere
Ġbo x
ari ly
omorph ic
Ġst d
re ed
or ds
{ {
m c
fin d
Ġk ernel
Ġfor mat
up date
b reak
Ġar gs
lo or
I P
Ġreturn s
The orem
C ase
Ġste llar
Ġdeter mine
Ġexp lain
ic ense
p tr
Ġ[ ]
Ġf uture
$ ;
Ġal gorithms
L ay
al og
Ġarbit rary
Ġa mo
f ree
Ġam ong
Comp onent
Ð µ
Ġproced ure
_ -
ro s
Ġg row
Ġse lection
is ted
4 1
Bu ffer
\ {\
de g
able s
ite ct
Ġpair s
U I
ilib ri
" .
and id
Ġa ble
ber t
Ġs it
Ġan gular
f n
an i
ĠD is
ub lish
stru cted
Ġpe ople
Ġinter face
5 8
ĠT est
Ġredu ced
S o
Ġsol id
p le
B ar
Ġuse ful
Ġmo ve
fo o
el per
requ est
G ra
pd ate
Ġlo ad
Ġin s
F ilter
k er
F I
Ġas ympto
Ġsh ape
Ġrepres ents
Ġcomp are
ĠRe f
Ġh oriz
h bar
B ox
Y PE
ul er
g t
$ ~
en ti
Ġsub set
Ġp rac
s cope
Ġt w
Ġy ields
' (
c ord
Ġpol ic
S D
Ġd raw
Ġc apa
ĠF e
c le
Ġintrodu ce
o sed
: "
gra ms
Ġd oc
Ġwor ds
ĠRe g
Ġh ard
Ġtrans fer
Ġax is
Ġpop ulation
des cription
Ġexample s
Ġre si
Ġar ch
Ġma terial
Ġpo st
h an
ĠH amiltonian
D B
r l
Ġres olution
Ġdia gram
ĠW ith
Ġrequ ires
Ġhe ad
pri vate
O ur
Over ride
Ġbin ary
Ġf ore
ck s
Ġcho ose
ho st
Ġkn ow
a uto
Ġspa ces
ur y
Ġqu ad
Ġcharacter istic
o graph
M eta
Ġmin im
h y
off set
c d
Ġag ree
Ġin ner
ĉ ĠĠĠĠĠĠĠĠĠĠĠ
Ġnecess ary
) +\
} &
un it
Ġp age
F irst
Ġac ross
ce ed
I mp
P P
Ġof ten
Ġo ld
d le
Ġloc ation
el se
n um
H owever
Ġlead ing
6 9
L S
op tion
Ġcoordin ates
) },
ion s
E M
Ġtak es
tik z
Bu ilder
al t
b old
C ur
clu sion
Ġorig in
200 3
Ġfor mation
Ġchar ge
ren g
v ector
Ġp ers
}( {\
Ġus es
Ġgalax y
ĠS er
Ġstudi es
Ġal most
C K
ĠThe y
U E
n a
ra p
Ġinves tig
ta te
tri es
ĠUni versity
h box
Ġre n
Ġsu gges
ous ly
Ġt ag
Ġran k
al i
Ġprocess es
Ġgener ate
ĠI s
[ (
Ġacc ess
pr int
ĉĉĉĉ ĉĉĉĉ
Ġre move
Ġth ird
Ġoff set
m t
n amespace
Ġconver gence
Ġstructure s
Ġac tive
Ġconn ection
Ġexperim ent
Ġ-- >
ar ing
mp ty
p res
ĠO ur
&= &
Ġl anguage
Fra me
Â ł
Ġv ectors
e ve
Ġun s
se ud
st ream
res ults
ou th
Ġ$ {
mini page
z ed
b lue
as y
im in
amp ling
Ġqu ark
} )$,
Ġco unt
ri es
go ogle
il i
Ġpre ss
Ġunder stand
s g
) -\
Col lection
p icture
ĠF rom
Ġco py
ilibri um
ro ot
) }_{
Ġst ream
Ġsimp ly
He ight
B ut
Ġcompu tation
M M
t in
jo int
Ġs ymbol
Ġv anish
s rc
Ġinclu ded
cre en
} }$,
ial ly
//////// ////////
Ġcol l
Ġpar ts
ar gs
ore d
} }$.
Ver sion
C P
Ġen vironment
Ġpres ence
a fter
ra int
th s
Ġad j
Ġob serve
Ġu int
Ġlat ter
Ġo wn
a ir
Ġincre ases
Ġco sm
for mat
e k
ab ly
s ol
ĠI N
Ġp as
Ġext ended
}{ |
St art
l ines
) )$
fin ition
W indow
Ġdiffer ential
Ġre con
Ġdiff ic
ĠS ch
Ġme ta
Ġestima tes
pro du
Ġmeasure ment
le y
Ġconst raint
Ġext ends
ĠT r
Ġma jor
Ġser vice
ma ss
yp es
da y
type of
Ġf und
Ġ{ @
}$ )
Ġpro pag
ide o
and s
on ential
_ .
sc il
Ġscatter ing
se m
c f
li er
str ucture
ĠL i
Ġhal f
Ġcontain ing
in ner
Ġp ul
Ġc ut
r up
vari ance
thes is
T D
Po int
) --
Ġse lect
Ġle mma
Ġinteraction s
m ented
N R
k it
Ġfig ure
R ight
Ġm ention
Ġemp ty
ĠL ist
5 9
Ġne eded
$ ),
f loat
si ties
Ġeasi ly
Ġpro ject
S M
Ġbec ome
Ġt or
Ġsatisf y
ĉ ĠĠĠĠĠ
al gebra
po se
f la
stra ct
Ġb ody
u me
Ġspe ed
5 00
Ġop tical
cc cc
Ġm orph
s ymme
Ġco re
ĠB e
Ġme mory
S c
J son
S tr
W h
sh ow
T H
Ġapproach es
Ġtak ing
Ġanal og
Ġre dsh
Ġc r
8 9
Ġs ense
Ġad ded
Ġf ast
vers al
8 6
ĠReturn s
z z
' ).
Ġ$ |\
Ġinterest ing
end if
pre c
F A
ĠS e
Ġst ra
Ġiden tity
v as
Ġat ten
: (
s or
T ag
ĠD ata
Ġtrans formation
5 4
Ġh aving
Ġexact ly
Ġre levant
Ġmass es
Ġy our
}{ (
cho ol
Ġno tation
5 2
over n
Ġbound s
Ch ar
f loor
Ġre source
c la
L P
exp ected
bu st
Ġexist ence
lay er
Ġsta ble
ura te
ta x
s ur
Ġo scil
Ġo pp
x ml
Ġb ranch
um an
ic ity
: }
li de
> >
}\ ,\
con tainer
con g
Ġamplit ude
so le
ĠC or
Ġc ategory
6 3
ta ct
h igh
5 1
u ations
Ġc lient
p lan
ĠF irst
Ġ ^
el er
' ),
b ot
Ġste ps
Ġ ensure
int y
he ader
200 2
Ġassu med
Ġre t
is ing
Ġg ap
c ref
Ġestima ted
Ġrep la
b l
w indow
Re ad
er a
Ġal ign
Ġcon v
Ġpro gram
,\ \
bo ok
Ġren der
Ġa ut
Ġst reng
Ġw ant
Ġclassif ication
Ġh ost
ma il
Equ als
) }}
o site
un e
Ġf ix
ta inty
al g
Ġh old
ene ous
C S
Ġprodu ction
Ġm id
Ġcre ated
Off set
Ġques tion
str ong
on ical
Ġfor ce
Ġal tern
t ree
less sim
Ch eck
dition al
Ġ ess
N ull
Ġb lue
UR L
Ġother wise
Ġcirc le
on y
i ver
Ġd id
Con n
Ġear ly
: =
200 1
N e
g ments
ĠI I
, $
T P
. "
Int roduction
Ġser ver
ĠA merican
u ary
R ange
Ð ¸
Ġ- >
de p
Ġth erm
Ġgra dient
igh ted
ec ause
T op
Ġto o
H z
C ON
es ti
There fore
Fact ory
in a
ate gor
Ġc andid
Ġcons ists
u be
an te
Ġpar tition
f il
ĉĉ Ċ
Ġpredic tion
Ġres on
- $
Ġindu ced
U p
| |
ĠS upp
; &
ĠT ype
p ts
d om
Ġgraph s
Ġde ep
We b
g ers
se mb
ĠC an
en ch
Ġfact ors
v a
Ġoptim ization
O P
Ex ternal
Ġw ide
m ode
Ġcon clude
-- -
C ache
C reate
Ġenti re
ER R
Ġflu ct
ĠAr ray
Ġf i
" ]
Ġde vi
vid er
Ġsignificant ly
5 3
it al
E v
in ct
Ġmagnit ude
Ġcalc ulation
pri ate
P age
Ġp ixel
in stance
Ġlear n
sta tus
Ġorg an
fa ces
Ġcalcula tions
param s
M ax
Ġd ate
Ġg rid
$ _{
ra pper
big l
Ġvir tual
Val id
ont al
Ġdiscus s
Ġapp lications
Ġremain s
s ystem
i mages
s ign
A ction
R L
Ġma kes
Ġd ark
De f
in ary
S to
ĠĠĠĠĠĠĠĠ Ċ
back ground
ag ed
P L
ĉĉĉĉ ĉĉĉ
Ġclu sters
Ġabs or
Ġ[ \
A c
Ġc ause
Ġ ^{
Con tainer
AM E
Ġb ar
v o
p lace
âĢ Ļ
7 8
Ġh ar
ri ed
ynam ic
Ġbel ong
ĠE rr
6 2
bt n
^* $
Ġor i
it z
Ġarch itect
Ġexist ing
La bel
Ġ[ ];
b es
" ).
Ġth reshold
9 2
Ġscal ing
Ġ âĢ
back s
ve y
t frac
S L
se ct
Ġb ottom
Ġmo lec
9 4
big r
du c
af e
Ġcontribu tions
9 3
Mod ule
Ġtemp late
Ġ> =
Ġon ce
ri ef
ĠS ub
Ġin side
f i
Ġm y
out put
Ġamo unt
Ġabs olute
le x
Ġre view
Ġsub group
I F
G C
M atch
Ġex cept
ĠS ee
( &
Ġ{ $
ph p
Ġde ta
$ :
Ġsetting s
re la
Ġrep orted
ĠO r
in ue
N O
C an
Out put
Ġs ent
Ġqu e
L i
Ñ Ĥ
Ġgeome try
Ġ\ !
g u
temp late
Ġde co
ĠQ u
T ask
> &
el i
Ġprodu ced
Ġobserv ation
Ġw ord
=" +
W hen
Ġstrate gy
am ental
Ġreg ime
ĠM ath
Ġme t
Ġlar g
Ġtask s
I L
ĠH T
Ġit self
et er
Ġful ly
d r
ing u
ĠC al
] $.
an k
y l
ĠO p
U sing
Ġdimension s
] }
Ġcon vex
sh e
Ġa dap
Ġs cope
Ġ ener
Ġon es
x x
Ġsta tus
Ġcontra st
Ġdistribu ted
Ġav oid
ber g
math op
sequ ently
an ti
C M
e ach
Ġs light
av y
ĠS te
tab ility
un k
ro y
Ġbe am
s cal
Ġg ame
t wo
rou g
Ġhand le
ĠN e
j ected
app ly
ir al
Ġent ropy
Ġprote cted
\ }$.
Ġcoeffici ent
um ing
100 0
ch as
M ode
Ġsing ular
Ġimple mentation
du al
\ ;
Ġdeno ted
de t
Ġth ick
ĠUn ited
Ġtri vi
Ġ{ }
P RO
Ġcalcula te
Ġnon e
) )\
Ġpress ure
Ġplay ers
b and
Ġro tation
ste in
Ġra tes
ol ved
Ġd est
ĠS p
Ġdete ct
Ġs quare
al k
Ġan no
Ġco ur
F inally
ĠG ener
p g
Ġcla im
8 4
Ġmin imal
tain s
, {\
Ġtherm al
Ġ" ""
ec ts
Ġkn owledge
v ature
Ġcoordin ate
Tr ue
Ġf lat
Ġpres er
Ġtheore tical
ome try
Ġw ar
os ity
Ġsh ift
Ġexp onential
con f
Inter face
po st
.. .,
io ta
S R
C R
ck n
Ġm ix
Ġb ul
}} _{\
Ġcoun ter
Ġk ine
T ypes
Ġmechan ism
tr iv
Ġhas h
Ġp ure
Ġform al
Ġdiscre te
Ġbu ffer
ran t
7 2
ĠD ec
rep lace
Ġscal es
ma tically
d frac
j ava
Ġsh all
on ds
Ġs ho
jo in
Ġm es
ra tic
S ection
oc ation
Ġe asy
Ġpolic y
Ġim mediate
Ġhy po
S ee
Ġess ential
T arget
S u
F R
b ind
" ),
is es
re sponse
$ &
C lo
ud es
ul i
il la
mu lation
ad ow
Ġi on
ren der
Ġappro priate
Ġsepar ate
IN T
bu ild
Ġor th
Ġy ear
ĠI D
I V
}) }
al th
B ack
Ġbas ic
Ġlay ers
con s
Ġc atch
Ġdep th
Ġindic ates
lo op
ĠG ra
ĠM a
Ġdevelop ed
Ġsta tion
ic ted
Ġa tom
Ġre pe
Ġcoll ision
U rl
ve e
Ġtra ject
Ġ\ ]
ĠD o
Ġpar allel
L ink
bu f
Ġth rows
[ "
Ġuncer tainty
ĠP re
Ġdata sets
Ġus ers
Le ft
Ġin verse
ga ted
][ ]{
Ġan ti
ste p
}[ \
] $,
p atch
ig gs
mit ted
Ġp ut
D M
$ {\
gr id
r s
}} )
Ġimp act
ĠM on
Ġb it
Ġdiscus sion
Ġin c
id er
Ġ\ &
c lear
Col umn
for ward
? :
Ġnuc le
$ };
E ach
Ġh im
ĠN ational
lo ts
bra ce
Ġtechni ques
ot o
ome tric
Ġauth ors
Ġad van
i um
ch ron
tif ication
long rightarrow
co ver
ĠF inally
u x
D o
Ġt reat
chas tic
Ġbu ild
d f
Ġsatisf ying
T O
cont rol
ot s
Ġch all
ang ed
ct x
@ {
Ġcom mu
Ġwe b
M in
Ġallow ed
9 1
u int
Ġconst ants
6 1
}} .
Ġass ign
Ġstar ting
umin osity
ax is
olic y
clo se
Ġke ep
Ġauth or
Ġre spon
at ri
Ġf ive
Ġlik ely
dire ct
Ġpro jection
ĠE X
AB LE
tribu tion
ĠM odel
s hould
Ġinf lu
Ġfor ms
tif ic
co py
p op
empty set
Ġesti mation
Ġbro ad
Ġat tribute
Ġneigh bor
Ġqu asi
O per
m enu
=" #
Ġdecomp osition
Ġf oot
a id
Ġapp ears
T emp
Ġf erm
Ġma pping
Ġl ib
}) =
Ġe q
ĠA fter
a bo
Ġstrong ly
Ġop tion
Th ese
ĠV er
Ġh ole
7 4
Ġcomplex ity
al ysis
m ann
Ġemp loy
Ġsw itch
Call back
\ )
or ig
8 2
ĠG o
Ġpro ved
Ġto ken
d ocument
ho m
Ġc ustom
Ġex ternal
is ation
Ġgo al
ĠU sing
Ġre cor
Ġrepres ented
u ro
al gorithm
ec h
Ġoper ations
Ġremain ing
Ð ½
z ation
d y
}) ^
ar ante
and roid
Ġact ual
A fter
g ian
a a
un s
refer ence
Ġr ing
Ġweight s
n d
i table
ĠJ S
po ints
struct or
Ġreturn ed
ĠĠĠĠĠĠĠĠĠĠĠĠĠĠĠĠĠĠĠĠĠĠĠĠĠĠĠĠĠĠĠĠ ĠĠĠĠĠĠĠĠĠĠĠĠĠĠĠĠĠĠĠĠĠĠĠĠĠĠĠĠĠĠĠĠ
E L
Ġrep lace
s ue
U pdate
rac ted
AP I
7 6
,\ ,\
Ġscenari o
imilar ly
ĠP er
Ġl ife
las tic
) }_
Ġacc urate
Ġlit erature
G R
Cont roller
Ġcombin ation
Ġequ ilibrium
. )
But ton
Ġv ary
Ġlevel s
s ample
Ġs low
w in
ĠA PI
ar c
ma ke
or al
ĠB ut
mag netic
Ġc ache
ma ted
as ic
qu ot
M B
en ess
Ġphot on
Ġloc ated
cript or
ĠL icense
Ġent ry
ac u
id ent
8 3
su ch
b matrix
Ġredu ce
Ġtech n
Ġfunction al
da ted
an a
> \
I m
| }{
ent er
ess ages
Ġneed s
tin y
;\ ;\
Ġinclu des
g ent
P U
ĠS pec
Ġd on
ĠN S
Ġredu ction
Ġma ch
I O
Ġp i
Ġp seud
Ġrepres entations
P O
Ġbo son
/ (
Ġradi o
Ġn orm
Ġp l
semb ly
Ġagree ment
Ġsta ck
ĠApp endix
iv ing
Ġdiag onal
dif f
Ġdeta iled
Ġcomm and
}} ^{\
Ġf ont
ĠI R
Ġcap ture
call back
C A
re me
tif y
H ash
D ire
triv ial
para graph
M R
Ġstate ment
ĠF urthermore
Ġis o
al low
; </
un i
r ont
ĠE qu
ĠN one
mp tions
ph an
Ġ ign
ĠC lass
Ġwh ole
p lot
Ġcon structed
p lugin
Ġth ough
ci ence
}_{ -
[ -
ĠL ie
sem ble
Ġun its
Ġprodu ce
^{ *
Ġprim ary
ch or
action s
a ma
r u
Ġpro por
G B
R eturn
+ (
Ġide al
s v
, "
Ġover all
lic ity
A uth
ssi ve
ad ing
Ġpar se
Ġidentif ied
p id
L emma
Ġ items
] {\
S te
Co mple
R o
de c
ent ry
re q
var theta
Ġ\ (\
ĠB u
me ds
Ġmanif old
b um
u gh
ĠN ow
if ically
im g
b ib
Com mand
W rite
is try
Ġ} {
**************** ****************
meds kip
Ġw in
Ġphys ics
He ader
u ted
Ġsuccess ful
Ġrule s
iz ations
7 3
re al
Ġc ref
Ġsuffici ently
en omen
` .
ula ted
Ġrun ning
model s
circ le
Ġus ually
st d
Ġ ...
y r
Ġf un
T ra
Ġfund amental
Ġp ublish
}} }\
Ġcur vature
Ġro bust
Ġc aus
Ġmax imal
t rain
Ġ( {\
ot on
h r
7 9
F L
Ġtyp ical
Ġener gies
ar ds
Ġsimp l
Ġstra ight
Ġwor ld
Ġme mbers
si tivity
up le
Ġvis ual
Ġmatch ing
m n
t ml
co me
8 1
ĠD es
Ġpas sed
| }
fin al
Ġver tical
Ġa pi
Ġex ception
Ġc riter
auth or
Ġext end
ac y
Res ults
c us
V ER
ang ular
Ġdist inct
}$ }
Ġindic ate
ex ec
Ġg ain
Ġunder lying
D D
a vel
Ġne ural
er man
be fore
Ġredsh ift
Ġsta ge
199 9
Ġgeneral ly
c ache
column width
Ġexplicit ly
Ġidentif y
Ġcyc le
I B
ho ut
a o
Ġex hi
ati ves
sk i
\ }\
de bug
Ġfe ed
Ġf ace
ĠSta tes
Ġf ac
ĠD i
ĠE ng
Ġfil m
Ñ Ģ
Ġse mi
Pro of
Ġsol ve
Ġe lect
Ġgu arante
Time out
tr ics
script size
// /
3 00
Ġa ge
ĠCo un
lon e
Ġcontain er
Ġstreng th
Po sition
ĠErr or
in st
Ġrela tively
Ġto ol
um b
tikz picture
form al
Ġlong er
ci ble
Ġform er
bu ffer
Ġsuffici ent
Ġatten tion
us ic
Ġstatis tical
H ence
ta sk
=" ../
V is
T YPE
or i
Ġconsider ing
a j
ollow ing
ĠC O
) </
Ġasympto tic
Ġh app
Ġ$ ,
h ash
Ġmention ed
if f
Ġs ampling
di ag
row n
}} =
Ġeffici ency
Ġal though
Ġradi al
q l
} ~
Ġlim ited
Ġma king
Ġpol y
ĠG e
Ob j
Ġwh ite
er ing
ĠCh eck
Ġevalu ation
b ur
n ap
Ġv o
Ġh ol
our s
$ {
ura tions
Ġobserv able
Ġcon serv
Ġassu mptions
S ch
c p
p ass
web kit
lat form
Ġembed ding
g an
Ġdete cted
Ġevalu ate
S A
vi tational
Ġderiv ative
Ġs ix
Ġjo in
cc ording
: =\
Ġat temp
Ġslight ly
i tions
ched ule
v s
we ight
\ }$,
Ġsec tions
E Q
199 8
for mations
ĠM ark
Ġfile s
sh ip
Ġdi ver
te ger
Ġo dd
Con st
ĠL ag
T ree
Ġis omorphism
} |\
to ol
Ġoccur s
Ġestablish ed
b p
figure s
P os
B C
Ġtype of
k a
ĠIn ter
Ġtop ological
pa city
Ġd ust
Ġvari ation
Ġpro tocol
Ġc m
Ġdes ired
Ġmod ified
Ġclear ly
Ġder ive
& =\
ĠH o
ran k
Ġconf ir
ck er
Ġide a
Ġqu ality
Ġcontain ed
d l
on es
Ġag ent
Ġcan onical
ib ration
Ġn ature
ist ent
multi row
Ġtrain ed
a res
ti ves
Ġf ill
="../../ ../../
Ġlim its
Ġcon sequence
ĠWh ile
Ġn ames
Ġpar ams
trans form
Ġdiffer ences
Ġtrivi al
ĠC L
Exp ression
Ġname ly
R ender
Ġachi eve
^{ (\
E mpty
Ġph enomen
im es
Ġd x
Ser ver
Ġgeneral ized
Ġl uminosity
ĠM in
se cond
Ġpath s
\% $
Ġv ideo
ble m
Ġset up
Ġm icro
ĠĠĠĠĠĠĠĠĠĠĠĠĠĠĠĠ ĠĠĠĠĠ
Ġapp lying
Ġre cord
M ulti
ch em
Ġ ,\
Ġto wards
ter m
Ġcon cent
by te
Pro vider
Ġre mark
on om
f ect
is ely
iction ary
f lu
ann er
D ocument
Ġintegra tion
vis ed
c ar
Ġd r
sh ift
u tes
n n
ur i
Ġelec tr
wh ile
Ġv ol
J o
ĠM ar
= .
Ġgener ation
ph ys
Ġdynam ical
og eneous
le an
Ġmeasure s
Ġp adding
icro soft
HT ML
Ġnon linear
M D
ĠA dd
our ier
) })
ed ia
ĠĠĠĠĠĠĠĠĠĠĠĠ Ċ
b ly
Ġrece ived
r and
ub ble
lar ge
X i
s ure
Ġpredic ted
Ġh uman
Ġn or
avel ength
yn tax
Ġel lip
S H
g lobal
en ing
Ġex per
Ġcon j
tain ed
Ġexp ressed
Ġs pher
ĠAn d
ĠS D
ick er
Pro perties
Ġuncer tain
Ġdepend ing
Ġreg ister
ist or
\ |\
Ġtra ce
ategor ies
Ġs s
Par ams
no tag
ĠS M
roug hout
os ing
Ġe lem
25 5
m ult
Ġprevious ly
Ġsta bility
de v
E C
Ġh istory
Ġro und
Ġter min
Ġte am
Ġpredic tions
a e
Ġdec ision
A V
sl ant
W idget
Ġsub ject
Ġb al
Ġdiffic ult
7 1
Ch ange
Ġdimension al
ĠM an
Ġgreat er
f ull
no tation
st ore
comple te
ĠG eV
clu sions
scri pts
h al
sub sec
parameter s
Supp ose
ã ģ
acu um
ĠE ach
Ġeigen values
D O
serv able
su es
Ġde vice
Ġlocal ly
mo s
Ġcompu tational
Ġma ssive
ĠAl so
Ġke ys
ĠIn deed
Ġre le
st ro
K E
ĠĠĠĠĠĠĠĠĠĠĠĠĠĠĠĠ ĠĠĠĠ
Ġgrow th
ĠM ay
Ġ er
Ġse ason
Ġf n
F la
Con sider
Ġd ashed
t w
Ġab und
re a
Ġsit uation
Ġsum mar
Ġbuil t
Ġre call
G e
Ġp ort
Ġbi as
Ġprincip le
if ts
Ġcomplete ly
udi o
Le vel
F orm
Ġradi ation
Ġvari ance
Lo cal
di a
Ġlarg est
s ince
ula tions
Ġqu o
^* \
| -
en um
. \\
sp a
Ġqu ite
Ġdis per
Ġa ver
Ġsequ ences
ĠSta te
) [
ĠJo hn
Ġs aid
in itial
C al
__ (
ĠH iggs
web pack
t un
Lay out
E l
Ġcan cel
Ġtest s
Ġ* *
Ġcont inue
dic tion
d ash
radi us
Ġesti mat
Ġlabel s
Ġc are
O ption
b order
Ġremo ved
phan tom
b et
c ut
ĠĠĠĠĠĠĠĠĠĠĠĠĠĠĠĠ ĠĠĠĠĠĠĠĠĠĠĠĠĠĠĠĠĠĠĠ
ter min
! \
Pro p
par allel
D oc
M on
Ġacc eler
e h
Ġb ir
y ond
k m
Ġcon c
pro te
sour ces
rop ic
Ġb undle
Ġan sw
Ġgra vity
Ġact ually
re sp
Ġis sue
( -\
cont inu
Ġco inc
S cript
Ġtr igger
Ġacc re
Ġwhere as
hand le
ran gian
Ġf all
ule s
no s
Ġsto chastic
Add ress
Ġtechni que
ĠC reate
ex ists
comp onent
Ġout side
id s
R R
ial og
Ġfluct uations
pro to
Un it
serv ice
}\ |
Ġy et
an o
Ġ math
ature s
Ġrep ort
Ġbul k
tric t
Ġand roid
Ġachiev ed
Ñ ģ
Ġf o
Ġsu ff
o ung
Ġjo int
N ames
)-- (
h ave
og onal
Ġre cur
Ġt un
Ġo uter
Op en
Ġ$\ {\
gener al
Ġpropo se
Ġquanti ties
cop ic
ĠĠĠĠĠĠĠĠĠĠĠĠĠĠĠĠ ĠĠ
Ġdynam ic
Gra ph
) ),
ĠP r
I ST
typ es
U M
Ġexp ec
en tity
to ken
Ġs tri
Ġequival ence
pec ially
Ġ\ ,\
Ġus ual
Ġchannel s
Ġg en
bo olean
AR T
cor ollary
En try
bo ol
ag ue
h ar
ac tic
Ġcorre ctions
res ource
Ġh ome
Ġsatisf ied
~ (\
Ġf loat
D ir
sp in
' ))
ĠA u
Ġnormal ized
v ision
ĠG al
Ġn amespace
ry st
Ġd ay
" `
Ġcombin ed
d ent
ĠG u
Ġon to
Ġprob ab
k y
Ġpo s
Ġg overn
h am
she et
Ġdeg rees
G iven
ject ure
bo ard
Ð¾ Ð
ga ther
d est
do main
) ^\
m ing
ĠS T
ad o
p k
Ġtransp ort
Ġme mber
in i
Ġma sk
in ted
th ere
Ġa im
Ġapproximate ly
N D
Ġspec ies
) ).
Se lector
. $$
ne gative
Ġch em
cal led
pa ir
ched uler
D ev
Ġs qu
Ġprec isely
ĠP ol
wh ite
ĠF ile
ati ble
$- $
B ound
gg est
s ma
Ġindic es
sc roll
Ġm u
Pro cess
Ġet c
Ġperturb ation
Ġk ind
Ġmax im
Ġ< =
Ġvari ety
Ġal bum
k i
set tings
Ġtyp ically
M oreover
Ġcomp uting
atri x
Ġrecent ly
Ġhy dro
Ġ+ +
ĠP a
D i
un defined
Set tings
Ġgener ic
Ġhal o
Ġj et
ĠW orld
Ġw ater
N av
Ġdevelop ment
G N
v alu
12 8
it ing
Ġcour se
B U
ST ATE
lat or
b ing
ur s
g ht
ri ver
redu cible
eli hood
Ġh idden
ĠW ar
Ġa way
Ġdete ctor
$. }
Ġchild ren
for d
`` `
en sive
A ccess
20 22
ĠT rans
Ġsoft ware
Ġhigh ly
ag ing
Ġaction s
Hand le
I ter
() ->
! ]
c ial
Ġeffici ent
leg ate
con dition
^* (
ta ch
k o
Ġco her
ula te
st s
K ind
ĠAss ert
oc ial
K e
PE CT
c a
ĠC ont
Ġgra vitational
fa ults
Ġd ra
< ?
il bert
}{ *
Ġbec ame
Ġfor ward
sh ot
V AL
si vely
i ence
al es
Ġre ve
199 6
\! \
4 00
Ġextra ct
ran e
199 7
text color
h fill
Ġexpression s
ti sh
ak ing
backs lash
Ġin deed
et al
j av
Ġfoot ball
tr ins
W ork
Ġname d
RE F
Ġy ield
Ġver ify
Ġdist ingu
ke ys
D R
f l
` ,
ĠM ore
c line
reed om
Config uration
Ġd ot
ĠS u
f ocus
Ġblock s
an cy
Ġent ries
Ġinter section
ench mark
wh en
& -
pro b
Ġext reme
< !--
Ġp ay
it ory
Ġinstance of
Ġre produ
tr igger
tr al
Cont rol
im ary
ĠJ an
Ġshow ed
down arrow
Ġsto re
bel ian
po ch
ul y
ar ith
ol ing
Ġ* )
ĠY ou
par ticle
Ġs core
Ġne ver
Ġint ensity
Ġarchitect ure
is ot
Ġbe yond
Ġhand ler
la tes
Ġden se
T ran
Ġpo sitions
Util s
) (\
ĠB ri
Ġ _{\
Ġex ci
Ġass uming
equ al
================ ================
th ick
Ġde lete
a co
N AME
ch ain
math it
mon ic
Ġob jective
Ġre ct
B ody
ff ff
stack rel
Ġm ar
$ ^{
D S
ier arch
( *
F O
25 6
Ġiter ation
N E
em ark
Ġde lay
Ġup on
Ġ[ '
ra ys
s d
ge x
g reg
ok s
Ġno vel
for ce
' _{
ap ter
- (
ĠSupp ose
op tim
entif ier
Ġtest ing
ph ase
in variant
Bo olean
Ġc at
is son
C opy
il er
IN E
u es
H elper
Ġmean ing
Ġmach ine
ĠE d
t an
ĠF unction
w ell
| $
Ġpolar ization
Ġcorre ction
no ther
Ġs m
il s
) }.
Ġun known
._ _
Ġv acuum
Ġmodule s
L ast
Ġatta ck
lap se
$ ^
Ġan i
Ġthe ories
w idget
z ing
In valid
c ategory
)} (\
ult ane
ĠĠ čĊ
Ġsu itable
h el
ĠT e
Ġde al
Ã ¡
Ġinvestig ate
AN D
bold math
sh ape
in v
Ġstatis tics
spec ial
ograph y
ho ver
i ent
Ġon line
Ġimple mented
ti ent
\| _
Ġre l
Ġpar ame
_{ +
Ġelect ro
to String
Ġcomp ar
be led
in ternal
ĠO ther
Ġex am
Ġsu ggest
ch annel
text up
Ġcon tact
Ġd ig
Ġrepla ced
& &\
l ub
M ark
Ġes pecially
ĠS w
tiv ation
nav bar
$\ ,
uro pe
B S
de lete
ĠS he
&= &\
ĠG iven
}$ \
P H
Ġrela x
Ext ension
_ ,
b al
Ġcurrent ly
Ġquad ratic
Parameter s
module s
Ġuniform ly
Ġhypo thesis
Ġclo ud
Ġhe avy
fer red
dif fer
| ^{
up arrow
is s
comm on
ext end
Ġx ml
Ġs us
iv es
ĠS c
{ (\
plan e
L ong
Ġhigh est
Ġde l
Ġ} )
Ġw on
G eV
i em
Ġev idence
Ġimmediate ly
k in
Ġequ ality
Cur rent
Ġear lier
R I
Ġar ri
Ġrun s
Ġconfig urations
A p
dis abled
Ġelec tric
Ġ$ ^{
1 20
C F
Ġof fer
in ation
Ġob vious
De finition
Ġse man
Ġneutr ino
ur ch
Ġinst ances
ma s
g gle
Ġcomp e
Q ue
l anguage
() {
> ,
ĠL a
P A
str al
S cope
Ġme trics
c lick
erm i
New ton
en tic
Ġuncertain ties
a ut
} /\
Ġat tr
Ġcell s
ator y
Ġplay er
Ġv io
ĠEx ample
Ġa to
et ch
Ġgeome tric
el low
M O
Ġlist ener
Ġquan tity
Ġm ixed
w t
var rho
Ar gs
Ġmix ing
ĠF ourier
br id
Ġ }}
Ġan om
Ġph ases
m argin
ĠB ar
ĠCoun ty
f ields
ON T
Ġbehavi our
prop to
OR T
Ġfor med
Ġprec ision
ig ation
ĠEx p
Ġdeg ener
am era
Ġcom es
la bor
pd own
Ġcon cept
Ser ial
Ġv ers
p l
cor por
ce il
% ;
Q L
a ther
Z E
if ies
function s
Ex ec
*} [
Ġref lect
as cript
at om
c lip
Ġ( '
Ex ample
tot al
m ise
P tr
D A
pro ject
Ġden sities
bin om
Ġrelations hip
ti fact
Ġby tes
er ies
Ġw avelength
P ri
left arrow
s quare
id ing
Sto re
Ġs izes
d ouble
Ġat tributes
w s
Ġad op
Ġfollow ed
$\ \
it ter
( !
Ġra pid
con v
Ġstring s
u it
" ))
Th read
ob s
H S
ii i
V ari
}. }
By tes
Ġen gine
s y
H ost
Ġcomp osition
C or
Ġt rac
Ġconn ec
Ġevalu ated
Ġhe at
en n
Ġde ath
Ġvis ible
Ġs ure
ĠEn d
Ġex change
un ct
H ttp
P e
] ^
inter face
A b
ff ic
in ess
V alues
Ġin depend
ĠWe b
Or der
Ġ\ [
Ġalgebra ic
Ġaltern ative
Ġcontinu um
Ġb right
i ra
ĠEX PECT
M P
V ar
Ġprofile s
Ġreco ver
Ġtran sitions
mult line
Ġdata base
Ġabsor ption
low er
N one
D own
Ġpseud o
h s
g mentation
ul us
N on
Ġother s
Ġsupp ose
ĠY ork
ad a
Ġshow ing
Ġiden tical
ĠD ate
ann ing
ĠTh at
ĠJS ON
Ġs lo
ĠO R
Ġrele ased
Ġf unc
ĠE xt
b il
199 5
$ '
Ġelectr ons
G ET
ĠS uch
P ol
R T
Ġpr int
Ġle g
Ġro ugh
Ġchall eng
Ġmatch es
Ġcolumn s
M E
h older
Ġn g
Ġcoup led
n ow
n el
Ġco me
Ġtop ology
ĠG erman
Ġprocess ing
12 3
Ġflu id
o om
stra p
ing er
ms g
P arent
sp ort
Ġtrans verse
il le
Ġex clu
Ġbuil ding
ĠA ug
lay out
a vi
Ġf reedom
tiv istic
footnote size
ar r
w ave
H C
Ġhom ogeneous
D P
Ġperiod ic
Ġ ),
Ġdevi ation
ĠH igh
ĉ ĠĠĠĠ
sh ort
e mber
ir r
ĠCor ollary
r ich
ĠS outh
}^{ +
Ġir reducible
Ġde du
Ġper mu
is k
reg ular
in stein
) >
i ded
Ġv s
trins ic
dep th
Ġmis sing
=\ {
Be fore
Ġchang ed
L ocation
im its
uc ial
Oper ation
Ġanaly tic
Ġpro p
vi de
ev ents
de tail
me asure
Ġd ro
Ġpattern s
lu ster
s ome
tt ps
Ġcandid ate
Ġinter mediate
e lec
Ġfinal ly
ther n
ti p
Ġconv olution
text sf
AT ION
el ine
St orage
util s
Ġgener ating
the less
}{ {\
ĠN ame
Ġfi ber
O wn
C ore
g reen
rep res
ĠF ran
po le
Ġk m
Ġn um
Ġsign als
ĠS U
Ġato ms
index Of
Ġse m
Ġper fect
b c
scripts cript
ST R
Ġfor mulation
lim it
M T
import ant
re ated
Ġsee ms
Wh ile
T e
ing le
Re ference
Ġcommun ication
scriptscript style
}) ^{
Ġe mer
_ ;
p la
S V
ct o
Ġe p
Ġad ding
Ġco mb
Ġpropor tional
F C
ĠD E
Ġis ot
" ));
AC K
S um
ĠA c
F ont
v or
st op
Ġtyp ename
S chema
EX T
Ġg l
Ġb its
age ment
15 0
Ġpublish ed
Ġinflu ence
medi a
Ġdepend ent
se p
Ġre tri
Ġpolynomial s
Ġ" \
Ġorth ogonal
po sed
Temp late
' ],
m its
Ġtrans mission
Ġ( *
Ġd t
Ġpur pose
AL L
Ġ-- -
Ġs ong
ĠLag rangian
su ccess
su be
, ...,
Ġb rief
Ġ ..
si mple
Ġn av
ti os
Ġ ~\
Ġh ttps
ĠAl though
small skip
Ġc li
ta mp
h u
Ġgener ator
ot t
se lected
te mber
Ġhe ader
Ġfrequ encies
Ġredu ces
g re
ra ct
Ġin it
Ġse lector
a ff
Ġtemperature s
R ed
Ġd rop
Ġprac tice
ERR OR
ay es
As ync
X X
cre te
ĠT ime
r d
Ġw all
Ġdes igned
\ },
Ġderiv atives
Big g
Ġj Query
Ġdiff usion
ext ension
) _{\
ser ies
mid rule
t rack
st an
Ġaff ect
tran sition
ib ility
um es
cal c
z on
C OM
S F
iem ann
ound ation
d ensity
Ġw aves
Ġn et
ĠS ome
Re ader
Ġin her
Ġre ader
Ġaccre tion
Ġent ang
Ġexpec tation
ri er
Ġtrans lation
Ġstraight forward
Ġth read
M F
P od
P ack
s ort
Ġas ymme
Ġsim ultane
Ġnuc lear
Ġreg ar
b re
ĠCon sider
Ġg lu
Ġ rows
E s
Ġdia grams
ep tember
Ġd ays
ari ties
G o
S ymbol
Ġrecon struction
text normal
Lo ad
Sta ck
col lection
Ġbut ton
co ding
Ġplay ed
Ġfit ting
Ġenco ding
Ġl and
Ġuni versal
Ġpro mise
\ }.
con ver
Ġcorre lations
tr ight
) }$.
Ġpartic ip
Ġdefin es
Ġp refer
Ġexp and
m al
{ .
Ġdecre ases
symme tric
amp ion
k l
clu ster
ĠE urope
Ġdire ctions
{ |
S ign
Ġin fo
stit ute
h ol
m ix
ic ons
p ite
pro duct
ir ical
Conn ection
At tr
S earch
B L
Ġpro ceed
P romise
s lice
re size
B A
Ġorbit al
ob serv
sing le
() :
ev en
un ch
SE T
Ġdisper sion
Ġhoriz ontal
Ġexplain ed
Ġover ride
ĉ ĠĠĠĠĠĠĠĠ
man if
un ter
Ġb r
ĠU S
Ġconn ect
Ġcosm ological
Ġsol ving
ĠEx ception
Ġs ector
Ġno tion
Ġb us
Ġcoupling s
n ol
Ġg reen
Ġb rowser
Ġsub space
Ġproduct s
in sert
ĠO F
Ġb ene
Ġst ress
Ġth er
ĠAl gorithm
Ġs co
} &\
Arg ument
n etwork
Ġby te
Ġexp ress
ex ception
Ġ{ $\
Ġdefin itions
ĠU RL
ĠN ode
ach ed
ĠH ar
st ri
Ġp en
ĠS V
u id
Ġd uration
ĠCh ar
M enu
ti ble
Ġfin ding
Ġh ierarch
on ic
z y
xt ure
Ġmorph ism
b d
Ġchem ical
Ġob server
ĠG R
ĠS chool
Ġmet all
reg ister
ĉ ĠĠĠĠĠĠĠĠĠĠĠĠĠĠĠ
Ġb all
com ment
Ġincre ased
Ġthan k
Ġpri me
math tt
Ġdescri bes
ati vely
B in
corre spon
Des cription
th on
Ġunderstand ing
n ers
the tic
Que ue
fin ity
chem es
Ġpack age
F n
N G
stra int
en v
Ġsugges ts
p anel
Ġ\ {\
Ġac tivity
w rit
Ġr ise
m f
om an
Ġmath e
On ly
Ġf ine
ĠR ed
199 4
as ons
H o
Ġco des
fin ished
if ier
Ġ[ ],
Ġvalid ation
Ġp or
w rap
Ġ\ |\
ĠMe thod
P RE
ĠP ri
ist ance
Ġcharacter s
gra dient
Ġno ted
Ġno tice
T rack
F unc
Ġc ryst
Ev ents
Ġsur vey
cto ber
b on
Ġhoriz on
w ait
ĠD M
tright arrow
ĠT ra
Ġsh ared
Ġg ames
Ġbe h
ynam ics
[ $
ĠEq s
r g
k ern
Ġwe ighted
Ġse gment
are n
Ġ\ }
Ġscenari os
] ]
Ġpol i
Ġrefer ences
ĠL og
Ġun ion
Ġdemonstra te
ot ing
Ġinter act
ĠE vent
B E
Ġmedi um
00 1
H om
r andom
Ġsol ar
ev al
Ġra tional
c ard
ĠM od
R oot
$ }}
Ġexp orts
ĠM arch
pos itory
Ġferm ion
OD O
Ġpi ec
pr il
im er
Ġar c
cite alt
} >
Ġpossi bility
F a
\ /
Ġsepar ation
P a
_{ -\
Ġrestr iction
Ġinvol ved
Ġlow est
y ear
Ġfla g
qu ations
arg uments
Ġband s
B B
\, {\
S w
Ġcapa city
Ġup dated
) }$,
Ġm i
Ġen semble
Ġocc up
M app
}^ +
pro perties
Ġf amil
Ġc ategories
coun ter
Ġsimula ted
ate ly
Ġre sources
A uto
}[ !
ã ĥ
Ġpa st
Ġimple ment
Ġansw er
Ġpredic t
b ilities
Pro position
ro me
ur ally
Ġmedi a
Ġinput s
Ġmid dle
Ġh tml
Ġre li
Ġfa iled
D C
A ni
Ġwork ing
Ġme as
s ch
Ġphot ons
ren ce
def n
tic les
ĠI S
Ġstrict ly
JS ON
j i
P olicy
ĠJan uary
;\ ;
illi on
ĠP y
c tic
co der
sube quations
v ect
R ect
Ã ³
Ġimpro ved
rid ge
Ġe poch
Ġl isted
Ġeigen value
Ġvari ations
Ġadj ac
c ross
TE ST
199 2
Ġs end
Ġc tx
}) =\
^+ $
Ġparticular ly
Ġdist ances
la ting
Ġtemp oral
ap an
Ġbase line
Ġmolec ular
ap s
\ [\
ĠH ilbert
\ }_{
Ġra tios
Ġoff ic
Ġpo inter
fin ed
Ġag ents
V ector
me an
fa ctor
' .
z er
AG E
Ġc lean
Ġlit tle
ĠS eptember
big cup
Ġac qu
S ession
reg ion
Ġl ies
c ape
n m
ĠS O
ang es
Ġadvan tage
199 0
ĠAu stral
Ġmain ly
f for
i us
Ġcons tit
IG N
Ġsen sitivity
ĠAug ust
ĠM ax
Ġspec ify
ĠU V
Ġdecre ase
i ers
ĠEqu ation
ma tical
ex ist
Ġmo ving
Ġnecess arily
Ġv or
Ġpop ular
U RE
A x
jav ascript
Ġare as
Ġuns igned
w hat
al ities
ĠHT ML
Ġmodel ing
c b
ĠL O
l ers
Ġad vers
Ġch iral
Rec ord
Ġin corpor
ĠRes earch
Ġs ocial
ĉĉĉ Ċ
h ang
CT ION
Ġla te
B P
if ted
R A
ĠIn t
rack et
N odes
uc lide
18 0
ar ge
ĠN orth
CO L
ĠJ une
Ġa rm
p icker
ir ing
P ort
bor n
De lete
Ġtrans formations
) &
Ġup d
ure d
le ge
ã Ĥ
Ġtreat ment
de termin
1 10
file s
co ordin
Ġsho ck
ed er
Ġst orage
] =
Ġp atch
W riter
Imp l
Ġatom ic
U LT
uclide an
-> _
sk y
ster ior
Ġth roughout
S Y
Ġcon du
qu ark
Ġ( "
child ren
Ġdire cted
f trightarrow
in ed
omorph isms
F ONT
mo ment
Ġcommun ity
Ġt ang
He ad
)) )
Ġorder s
ĠB ase
Ġneighbor hood
frame work
Ġreg ression
gener ate
Ġent er
M em
ĠS N
CO DE
ĠĠĠĠĠĠĠĠĠĠĠĠĠĠĠĠ ĠĠĠĠĠĠĠĠ
tif ied
Ġfun ctor
#### ####
Ġprec ise
ĠB OO
Ġar ticle
tr im
Ġsp an
ad y
Ġestimat or
Se lect
or ter
que ue
E V
++ ;
Ġact s
per iod
ĠJ uly
Ġw ait
ve mber
Ġalgebra s
Ġop ts
Ġt en
Ġis sues
Ġrepres en
Ġrepresent ing
S im
In teger
Ġori entation
C ref
B bb
ti le
Ġs creen
com ing
Ġ< !--
C ar
Ġsyste matic
T T
Ġinter po
ĠIn itial
199 3
mo te
Ġf av
ĠG reen
Ke ys
Po inter
Ġext racted
Ġlog arith
Ġrandom ly
class es
e lem
form ance
Ġ' /
Ġfeed back
R ule
tri angle
at tribute
Sc roll
}} ,\
Re p
ĠPh ys
as su
Ġpers on
Ġexec ution
Ġis omorphic
Ġsum mary
Ġsh ell
Ġque ue
ĠS cience
Ġcar ried
mo use
d ashed
M a
f g
ĠD OM
ĠDe finition
Ġser ial
in clu
Ġin ference
ĠO ctober
or ing
ĠU se
Ġtransp arent
iz able
re lated
t mp
In itial
Ġopp osite
Ġcondition al
Ġt urb
s yn
leq slant
y a
Ġa ir
new line
OR D
ĠB er
k ens
Ġs top
Ġdistingu ish
Ġsur faces
Ġp ick
ou ght
ĠF ermi
P D
A rr
A ctive
Ġfil ms
ĠS k
Ġcont roller
Ġinter ested
= -\
or ity
Ġuni qu
Ġsta ted
= }
L R
L D
Ġp ush
}{* }{
Ġplan et
Ġc ity
Ġreson ance
Ġauto matically
ĠĠĠĠĠĠĠĠĠĠĠĠĠĠĠĠ ĠĠĠĠĠĠ
ĠEng lish
to ggle
Ġessential ly
i tive
valu ed
Ġp refix
ĠR un
ĠĠĠĠĠĠĠĠĠĠĠĠĠĠĠĠ ĠĠĠĠĠĠĠĠĠ
Ġsen sitive
n one
Ġimp ly
Ġs phere
de te
Ġor d
Ġst and
v c
sequ ent
Ġconver ges
pro ps
Ġexp lan
Ġ{ {
Ġt ail
Rec all
Ġre normal
Ġc y
ens ing
L A
^* _
Ġs chemes
ĠN umber
Par ser
ren ch
Ġimport ance
Ġan isot
P lugin
Ġ_ .
ĠS imilarly
. (\
| _
ĠQ CD
it le
Ġpro ton
am ent
Ġde vices
ura ble
| _{\
Ġin str
Ġinterpre tation
s chema
Ġp icture
Ġm sg
Ġapp lic
Ġin ser
en ced
F ields
Ġtraject ory
d al
Ġs chool
EN D
se lector
Th at
Ġsimilar ly
ĠA pril
_{ [
gra mm
} ~\
& $
ti zation
ig ible
lic ated
yp to
Ġsimp licity
Ġcause d
_ (
D OM
En abled
Ġintegra ted
Element s
TE X
F alse
Ġfor ces
Ġ( _
ĠIn tern
Ġgeneral ization
v m
Ġf ront
b olic
Ġamplit udes
F S
s end
comple x
Ġass igned
O K
ch art
Ġlik elihood
ĠP e
Ġm usic
hy per
ra ted
u ff
N etwork
Ġdomain s
conn ection
not in
lo ss
ta ting
ĠC ity
ĠV alue
Ġge odes
B R
at al
ad s
ti gated
16 0
Meta data
in du
Ġgo ing
ra ft
ma sk
Ġwrit ing
ens ors
en ge
Ġdiffer enti
.. ..
f lat
s at
mathbb m
cus sion
nol imits
tribu ted
ĠA GN
Ġwh y
G E
Ġs ession
Ġf its
To ol
j k
ol ar
Ap J
Ġstar ted
}{ }
ĠC ON
Ġconc ern
Ġiter ations
Ġb atch
Ġb ary
Ġvary ing
Ġcomp lement
tiv ated
Ġr ig
Ph ys
ho mo
int ro
Ġpixel s
Ġbegin ning
Ass ert
Ġs ort
Ġt ren
P attern
eh ic
N amespace
ĠH and
t z
add ress
Ġcon formal
ver tex
ĠOp en
la w
appro xi
By te
Ġb enchmark
' $.
ti ck
ot strap
ic o
Ġdec ays
Right arrow
in line
ĠO ver
al so
Ġs y
Ġac cep
sub stack
M atrix
ne g
ĠW ork
ot al
Ġgener ators
En tity
co up
Ġunit ary
Ġfa ir
R ad
b as
Ã Ń
} <
ne y
Ġkine tic
Ġcon clusion
Ġ tes
Ġrestr icted
ĠM c
Ġindic ated
h ance
Ġchar ged
KE Y
Ġp lugin
Ġinte gers
. &
ist ration
f ixed
Ġdirect ory
pr imary
re spec
f ine
Ġpla sma
Se lection
un finished
N um
conn ected
Ġre q
ĠR E
Ġstation ary
ta ted
Ġlim i
Ġi ma
we ak
re st
ĠB ra
ol ver
Ġreve al
Ġlib rary
t ensor
g ray
Ġdomin ant
Big l
Ġget s
L in
: </
op s
Ġdiv is
Ġindu ction
Ġadop ted
p f
OR M
Ġa mb
Big r
Ġconj ug
bel ow
ckn owled
F urthermore
const ant
Ġplot ted
Ġto ok
Ġre lease
Ġin line
ĠBri tish
Trans form
app lication
sh adow
ĠPo isson
ĠR iemann
Des criptor
T ab
Ġsite s
Ġhel d
\, ,
V olume
H O
ver b
ckn owledge
Ġcomp atible
l b
ĠS to
P art
Pro ps
Ġspace time
ĠNo vember
v dots
Ġw ays
alle st
Ġcluster ing
S cale
de vice
Ġdisc r
Ð° Ð
Ġsol ved
Ġpre v
dro pdown
Ġch art
v ol
)= (
Ġanaly ze
ĠK ing
Dev ice
Ġat mos
Ġsub section
ar se
Ġbo ok
Ġdoes n
abo ve
Ġturn s
ĠDec ember
j pg
ĠE ar
In it
ĠCL ASS
}} =\
Dire ct
Ġla ck
i ous
ĠâĢ Ķ
Ġdiscr imin
sh arp
n umer
Ġorder ed
ight s
g i
c en
h ed
c ustom
| =
pi es
R ou
Newton soft
Ġpropag ation
Ġm essages
Ste p
Ġgo es
ĠH REF
sel ves
irr or
de comp
I E
as so
F in
prec ated
}) (
cy c
ĠG roup
nap shot
Par se
Ġv alu
over set
tr l
Ġnormal ization
Ġ} {\
__ __
' )$
App lication
p adding
bet ween
' =
Ġ' <
Ġinterval s
)} _{\
urn al
u ge
\| ^
sur face
* \
) |\
Ġcomp an
Ġprobab ilities
g ni
Ġin ver
ch anged
Ġma c
p ower
Ġperturb ations
R C
ĠM ap
') );
Ġsimilar ity
Ġj son
ik i
Ġle d
ĠA ccording
Ġw ind
Par am
}\ ;
Ġpro gress
(' .
Ġsymbol s
}} )$
Ġneutr al
oci ties
Ġcon sole
T C
Ġh ot
Ġc ub
symme try
der s
ĠSec ond
Ġcon jecture
se par
U psilon
ra me
B H
um entation
ĠV al
Ġb ig
Ġinves tigated
sq l
h elper
Ġbel ie
sw itch
el s
Ġslo pe
Ġspher ical
$ _{\
Own Property
Ġconsist ing
Ġen able
ari al
Ġfail ure
Ġm anner
ne u
ore nt
Ġin sp
F loat
II I
requ ency
Ġpanel s
AN T
Ġpri v
supp ort
Ġ" "
Ġel imin
Ġfra mes
Ġo s
Ġla ser
Ġab ility
. },
Ġco variance
Ġdefin ing
H istory
ma tics
( :
iter ator
Ġassert Equals
Ġinclu sion
ĠTr ue
Ġdomin ated
Ġn arrow
v olume
Ġtr unc
F N
Ġinvol ving
ĠE l
Ġneu tron
ha pe
Ed itor
re et
at s
Ġreach ed
Ġj ump
Ġturb ul
ĠDi rac
C lick
h l
ip eline
ro ad
Ġrestr ic
dition ally
Ġth in
is o
' +
bo unded
dis tribution
f d
Ġdecre asing
Ġsc roll
Ġal loc
ĠG ets
h ide
equ als
Ġcomple ted
w ill
li k
Ã ¼
cc c
ĠT HE
d ens
ĠR equ
d ere
orent z
as c
Ġques tions
cy cle
exp ort
Ġ }$
Ġpro to
im it
D eta
Ġtrans action
Ġmod ify
part ment
br uary
-------------------------------- --------------------------------
Ġbreak ing
Ġe ffor
Ġre comm
Ġs at
t xt
k ov
type def
Ġcontra diction
' $,
}) )
Ġvanish es
U V
Ġb ur
Ġ$\ |
tri ang
go ing
ĠI O
de ep
> $
M ore
S yntax
P ass
p otential
Ġaff ine
f r
Ġconf idence
con om
Ġsp read
Ġad v
av ity
Ġ ).
char acter
hom ology
M et
Ġn ative
Mo ck
Ġmark ed
C la
Ġab stract
Ġro bot
Ġ: :
Ġsign ature
Ġemp irical
//////////////// ////////////////
{ "
Ġo pacity
et te
P ers
I X
ĠLe ague
it ary
stan tial
Ġs cript
z one
}_{ {\
Ġexp onent
r floor
Ġ ĉ
Ġcon duct
Ġcat alog
Ġembed ded
C N
Ġle pt
ub er
ĠN OT
, ~
oid al
u tive
}. \
Ġcon to
conn ect
Ġr isk
Ġso und
Ġrefer red
Ġnear ly
ill s
Ġparame tr
Ġcandid ates
l floor
' }\
Ġun less
ĠA f
Ġ ^{\
cent ury
Ġprovid ing
Ġres olve
Ġcontrol s
Ġcomp aring
sh i
Ġsugges ted
d z
ĠT ODO
W rapper
ĠB el
are st
in os
Ġdis cover
F ail
the me
Ġapp end
Ġbir ths
le xi
T wo
ros copic
: [
Ġimprove ment
Ġflow s
Ġtraject ories
mod al
the ory
ĠP DF
Ġsuper con
Ob servable
De bug
Ġor bits
Ġag greg
ine ar
con structor
. }\
co very
ĠC ent
Ġapp e
Ġstar ts
Ġrequ ests
Ġcollision s
t b
ĠJ apan
m un
Ġass er
ĠO ut
Ġbelong s
Ġs parse
test ing
In st
25 0
G S
Event Listener
doc s
Ġign ore
h skip
olog ies
p mb
ĠB ecause
Ġto uch
Run time
Ġra w
pre v
Ġdis joint
Ġcharacter ized
ab a
ĠT H
ĠB oth
T itle
A F
Ġin valid
Ġabs ence
w ords
Ġweak ly
Ġpo sterior
ti tions
A ut
gl igible
in ction
Ġfast er
Ġcall s
", "
Ġtri ang
r b
ĠI E
G M
* )
ĠR emark
ult ure
Ġsyn chron
Ġcontra ct
$ /
Ġsec urity
Ġin trinsic
Ġdes c
Ġsplit ting
A v
s a
h ere
ĠF oundation
Ġvers us
Ite ms
ate ll
Ass ume
Ġillustra ted
it on
en ed
O ther
di ents
Pro ject
Ġac coun
C ap
U L
Ġla beled
li ography
Ġcompar able
ol i
AT A
Ġsub sets
Ġsepar ated
u lo
ĠC opy
u ck
}) -
Ġpro jective
F ull
199 1
)} =
u el
ok ie
Ġemploy ed
D T
S cal
Ġb l
Ġt rees
Ch annel
in dependent
Ġpre vent
Ġc ard
E P
Ġt mp
ĠAss ume
ĠC re
R S
if fer
p attern
Ġcho ices
ĠĠĠĠĠĠĠĠĠĠĠĠĠĠĠĠĠĠĠĠĠĠĠĠĠĠĠĠĠĠĠĠ ĠĠĠĠĠĠĠ
t n
Ġhar monic
Ġr g
Ġcharacteristic s
IT Y
C ustom
W S
E O
me tric
Ġsta bil
sto od
Ġli e
ĠM C
âĢ Ŀ
Ġnat urally
Sec ond
d rop
by tes
ra ise
Ġop tional
B M
ult ra
p lus
atell ite
Ġindic ating
~ (
ri end
u v
Ġ$ $\
Ġnon zero
}) _{
lear ning
oriz ontal
Ġangle s
] ^{
Ġne gle
ra t
qu id
ĠW il
ĠReg ister
i as
Ġdemonstra ted
Ġre serv
Ġat t
B undle
is sion
oc used
S ION
e mbed
Ġexhi bit
o ke
Ġellip tic
Ġsm allest
z a
Ġ& $
lev ision
Ġac cept
tig ht
u ds
sv g
Ġpro position
Ġprincip al
M ath
AC E
Ġextension s
Pro to
Ġpar a
Ġqu ick
spec ts
sp e
Ġj ob
ĠN ot
comp are
ti te
re set
P op
G G
Ġc e
ow ers
b ile
s ys
, .
12 5
display math
Ġa ug
v skip
Ġcon e
Ġimp licit
Ġversion s
Ġprodu ces
w ner
f amily
) ">
Ġcr ucial
Ġsub stit
S end
ĠS an
Ġapp arent
Ġ> >>
phys ical
Ġgiv ing
ex perim
Ġ$ <
H R
Ġv ehic
i lation
tain ing
time out
Ġto wn
Ġdedu ce
cm d
\| _{\
Ġallow ing
T ER
ĠH is
Ġho use
Ġuni verse
pro blem
Ġlinear ly
Ġto ols
ĠBo olean
Ġd a
U se
Ġloc ations
la b
asi ble
L ower
ann ed
dire ction
o ted
Ġexplo re
Ġcompu ter
cont roller
Ġsto red
Error f
h ard
Ġen hance
Ġsk y
T IM
Ġreg ard
Ġ" /
e g
uns igned
hand ler
Ġabund ance
r f
H as
Ġ Ã
mo ck
Window s
aw a
ĠĠĠĠ ĠĠĊ
Comp arison
s table
ĠFe bruary
n ed
dic t
Ġvel ocities
Ġsh are
Ġser vices
ĠE uclidean
res olve
Ġ{ },
math ds
Ġchang ing
ĠN O
P M
u pper
assert Equals
( /
L ib
Al though
' >
Ġ$ [\
ĠV AL
ame l
Ġde le
homo g
Ġinitial ly
Dis play
Ġde mand
ho ok
C B
ul ty
Ġcriter ion
d ue
n odes
De p
Ġep is
Ġsub stantial
di an
Ġsub sequent
Ġ_ ,
dere q
pol y
ast er
h idden
ĠMon te
d ynamic
spa ces
us ted
Ġmo ments
per s
Lay er
Ġreason able
l m
si a
Ġbe gan
Ġ{ {\
ĠN etwork
Ġrough ly
Ġp lots
~~~~ ~~~~
Ġmes h
s n
Ġanalog ous
Ġpla ced
Ġread s
Ġpro f
s ession
Ġar r
Ġsuff ices
H M
ed itor
Ġcol ors
ĠC ur
mo z
ps ch
an aly
ab br
th ree
ĠI m
A E
mple ctic
M ain
duc ation
Ġsimultane ously
H D
= (\
Ġw al
set up
}= (
form ing
ĠC lo
spec ific
Ġgovern ment
op ts
Ġc amp
i pher
sh ell
ho p
Ġpul s
un ced
0000 00
pa re
mission s
}_{ (
A merican
un iform
=" _
Ġho les
fa il
Ġperform ing
Ġ tim
Ġther mod
Ġprac tical
Data base
M ar
des c
Ġt end
L en
psch itz
I A
ĠE instein
ish ing
Ġp lus
G u
ra d
B O
ado op
Iter ator
Ġconstruct or
Ġrepe ated
se lection
) |^
' }$
th an
Ġidentif ication
Ġd ir
( __
y al
i ta
Ġadjac ent
s ym
yste ms
end ar
d omin
Ġen tity
s ymbol
Ġeffec tively
av ed
In ternal
D ictionary
Ġhad ron
) !
Ġs il
Re move
ĠR us
X ML
P AR
lear ly
n ames
Ġquo tient
Ġtri angle
p an
Ġpul se
> .
imp l
const rain
Ch anged
Ġcar ry
) )$.
g on
e lastic
Ġref lection
ĠP lan
Lo ck
ly ph
D iv
Ġm ut
Ġc a
Ġcirc ular
Ġn orth
}| ^
Ġresi dual
\, .
mo us
Ġcon vert
U ni
). }
Ġd y
Ġequ als
ĠC la
}} }{
Ġcomp any
D raw
Ġoutput s
Ġcon tribute
Re v
Ġintegr als
Ġmedi an
gra d
Ġconstrain ed
H igh
] _{
bo ost
Ġapp lies
ĠW indow
Ġre action
Ġover lap
Ġcriter ia
Ġ' ';
Ġpossi bly
Clo se
Ġcare er
Ġ ],
Ġad opt
vel oper
Ñ ĥ
}\ !
ou ch
Ġen abled
Ġtra ditional
p romise
Ġlat ent
Ġlearn ed
ĠK ey
pk g
ĠM eV
ĠV ir
j et
land s
Ġrequire ments
Ġstrate gies
s ig
re y
Ġnumer ically
err ors
temp erature
Ġas k
P refix
Ġcoher ent
ĠN or
spec tive
ty les
w orld
Ġanaly tical
Ġconnec tions
Ġhyper bolic
Ġs ides
me t
Ġme et
Ġ$- $
fra red
$& $
ĠC R
W E
han ced
g iven
n il
Ġreco gn
At tributes
ine ment
ĠA b
Ġqu ali
ut or
u a
Ġd war
ĠB ayes
Ġwhen ever
Ġin finity
}_ +
element s
ond on
an chor
ĠN GC
an ced
S ome
vi ties
G lobal
}, {\
}} }$
@ {}
ok up
Ġinst ant
Ġpeak s
Ġo pt
ĠL orentz
l r
$ --
super vised
con tains
Ġd u
c v
Ġdiv ided
Ġa ux
Ġmost ly
st andard
Ġsupp orts
ĠMark ov
Ġformal ism
\ -
Ġlog ic
Ġbin ding
Ġinf lation
G en
ĠL y
clo sed
o pe
19 80
Ġ\, ,
i ans
big skip
respec tively
}^{ (\
ĠDe fault
Ġbro ken
Ġattemp t
Ġmo ved
Ġevent ually
Ġentang lement
Sec urity
Ġgeneral ity
S ingle
' ',
class Name
ĠCar lo
Ġc lub
to uch
A pi
ĠP ublic
tri but
Ġrequire ment
Ġindu ces
P s
{ [
se q
cri be
Pro xy
Ġpotential s
d ri
Ġres olved
exp ression
ĠBOO ST
ĠĠĠĠĠĠĠĠĠĠĠĠĠĠĠĠ ĠĠĠĠĠĠĠĠĠĠ
Ġhom ot
C luster
Ġinter ior
ĠA R
Ġdis si
ĠW est
loy ment
Ġg ate
mag ing
= {\
Ġbound aries
ĠM ulti
^- $
U P
An y
Reg ister
for Each
Ġse ed
ĠGener al
] +
ĠF R
A X
n es
M edia
ec tive
ĠI mp
ili ary
Ġde formation
ren cy
ens us
## #
F E
Ġexci tation
SI ZE
Ġaff ected
am l
sol id
Ġcol lected
tr um
$ (\
Ġpar ser
ad j
pos es
ma c
tra ce
Ġfinite ly
under set
g al
Ġpro ps
ĠM y
unc il
Ġwor th
Ġsuccessful ly
Ġseman tic
uto ff
C G
S pace
Ġindepend ently
TR Y
)\ ,\
Ġunder stood
sh al
l li
Ġ est
cite d
_ ->
Ġinvol ves
Ġbo ost
ĠS un
ĠC NN
angu ages
Ġtra de
S imilarly
f ol
Ġrespec tive
ill is
si dent
ra tio
MA X
Ġcomp osed
Ġse gmentation
dist ance
Ġsco res
pi x
Ġth ink
N A
Ġexec ute
Ġdescri bing
Ġf mt
^{ [
h d
\ }}
ĠT wo
tra ct
Ġp ull
res sive
am ond
Ġgener ates
Ġz one
graph y
Ġorder ing
C s
Ġstrong er
Ð »
p refix
in cre
j Query
D ialog
center line
Ġmark et
bo ur
sub float
iter al
Ġc amera
in her
k ind
lan k
/** */
Ġmo ck
IN S
AT H
fo und
FA ULT
Ġw omen
Ġd s
A cc
Ġe mit
Ġra ise
Ġtrans late
ĠU ser
h ref
ĠB H
Ġs chedule
ren ew
f ony
Ġwide ly
Ġapplic able
i pped
ga cy
ĠRe act
Ġmaterial s
get s
fla gs
R et
ĠX ML
um ula
Lo ader
ma ps
re w
Ġd b
Ġi i
Ġpartial ly
ten ess
lo ader
f old
est ing
Ġm en
Ġre asons
Ġcomp licated
Ġar ise
es tern
Ġt reated
ĠA rm
Ġco oling
lec tive
Mem ory
ext ra
}\ }$
Ġc lock
M u
ces sed
ree k
ĠA N
Ġfamil ies
Ġroot s
H el
y y
ak er
Ġlo ck
Ġcal ibration
s ave
CH E
ap es
Ax is
198 9
ev ed
and er
Ġte ll
Ġdel ta
> ::
' )\
Ġobserv ables
Ġin variance
ou lo
Ġass ess
ch er
Ġs chema
{ %
W A
8 00
Ġdiscus sions
b rief
}}\ ,
Ġ ];
C I
lo aded
P lan
s cription
Ġpla ys
ma ster
Ġex ceed
co us
ĠUn der
d p
)) );
Ġp od
ĠH er
Ġcent ury
S ym
no ise
ĠT ext
Ex perim
corre ct
Ġconver sion
n at
inte gra
si bility
Head ers
t ors
Not Null
Ġsecond ary
b asic
( |
an alysis
) }^
Ġw alk
Ġfour th
me m
H P
ĠL ap
v ille
gin ary
Ġtechn ical
N a
^ +\
}$ ).
Ġbeh ind
~ {\
ĠC ase
Ġ und
Ġsh arp
C V
F ix
T S
uni que
Ġran ges
Ġinv oke
orig inal
fact ory
ar a
la m
X ml
Ġact ing
ĠA ir
Ġvanish ing
er ial
par ts
Ġy oung
}} +
add Class
Ġderiv ation
Ġdetermin es
Ġqu eries
ĠC all
j a
G r
Ġcon clu
tab ly
$ =
Ġtr uth
Ġfact ory
Ġout per
L M
Ġmechan isms
Ġro ute
the mes
ĠS ur
ever theless
Ġco verage
Ġcosm ic
Ġconcent ration
Ġrecor ded
f ix
ĠC P
Ġsec onds
A dap
Ġad mits
Ġcyc les
Con f
z en
ĠF rench
at t
C ho
U s
W ar
ĠB r
Frame work
auto ref
Ġhapp ens
entic ation
Ġtra ffic
pre ss
Ġd om
ens es
Ġtime out
jec tions
sim ilar
M sg
Ġcorre lated
Pr int
Ġmag ne
print f
ĠI II
Ġani mation
Ġrelax ation
ill ing
ĠRec all
Ġinterpre ted
A li
Ġlo aded
ta tes
com mu
Ġj us
der iv
ĠN ext
}( -
re pe
Ġbrief ly
ĠI mage
ĠD en
ĠM ich
ĠD O
F il
F P
meta data
Ġcom ment
S G
Ġdraw n
Ġus age
Ġmetall icity
gra de
Ġtes ted
has OwnProperty
w as
equ ival
place ment
ĠS i
h adoop
ĠP ark
Ġfil ename
viron ments
Ġv illa
a ccess
s mooth
Ġser ved
Ġcorrespond ence
Ġme tal
Ġpo or
Rec e
ti an
Fla gs
Ġpermu tation
U ID
Ġg rant
en able
Ġconven ient
writ ten
f x
Ġuns table
Ġinter sect
p u
FI LE
Ġfilter s
Ġcorrect ly
Ġa belian
Ġpres ents
Ġmin i
en abled
ĠCh ampion
Ġpr ice
Ġseparate ly
Fe ature
for mula
ĠOn ly
pher ic
Ġal pha
renew command
10 1
p b
Ġmod uli
ra tions
Ġexp lor
Ġelectron ic
ĠAf ric
Ġillustra te
COL OR
ĠCh ris
les cope
ĠE ast
M icrosoft
Ġf oo
un ts
Ġg ran
un ic
Ġne gligible
Ġle ave
ĠU pdate
Or ig
o ta
gramm ing
ĠS im
Ġrece ive
rup t
Ġin sert
Ġtri p
Ġlay out
198 7
> ();
comp act
Ġaver aged
s creen
Ġe ast
ĠF urther
ad es
v in
ch y
Ġsymme tries
Sh ared
F low
Ġ) {
__ )
ĠW illi
b ad
Ġformula s
in ity
Ġf ire
prote ct
Ġin fer
ĠI P
Ġcom ments
Ġimple ments
cep ts
Ġlo st
Ġcover ing
Ġpro be
u ed
comp onents
Ġatta cks
inter val
Ġde li
gg ing
ane ous
ĠC ode
create Element
Ġmajor ity
ä ¸
. '
P ost
and ra
id x
Ġma ster
r ong
Ġconven tional
pend ing
exp an
Ġlong it
od d
es ides
Ġs atellite
group s
Ġs outh
ĠĠĠĠĠĠĠĠĠĠĠĠĠĠĠĠ ĠĠĠĠĠĠĠĠĠĠĠĠ
ĉ čĊ
P ORT
Ġfla gs
Ġsample d
Ġins tability
ST M
ar tifact
or bit
d one
Ġcre ation
Ġconsist ency
y e
Ġenco der
ĠL ondon
L INE
b en
A nother
vari ants
list ener
Ġhigh light
Ġrela tivistic
"" "
Ġmultip lication
Ġclo sure
TE D
Ġreal istic
ĠM il
) /\
qu ote
Ġanom al
fig s
Ġen umer
G rid
tran sp
} "
b ors
Id entifier
ĠSu per
ĠT ask
t ur
ĠA L
f c
}}\ \
cons istent
Ġcirc les
ay lor
), (
Ġrepresen tative
Ġcol lect
Ġinter ference
Ġcon dens
mu table
}} -
deg ree
ul arities
ĠT R
St ar
): =\
Ġw ire
Ġb orn
ow ski
Class es
gni tion
Ġext ent
' (\
ren ts
Ġqu as
Ġas ync
assert Equal
p q
at tributes
Ġcheck ed
Ġ\ #
Ġdetermin istic
ĠA T
198 8
ĠEurope an
Ġhead ers
Ġse ven
] :
Ġt ab
ime d
Ġa spects
Ġste ady
Inter val
Ġpaper s
}$ ;
Ġclassif ier
Ġp latform
6 00
}} +\
To String
Ġsingular ity
Ġintrodu ction
+ |
exp and
optim al
ĠCol lege
ol ving
correspon ding
W ord
Ġg lob
Ġke V
omen ta
Ġregular ization
Ð º
Ġdot ted
p tions
Me mber
Ġdi ameter
Ġpass ing
ĠM ed
ot ent
res olution
nos tic
ator ial
Ã ¶
ĠS tr
Ġacc es
Ġse p
Con ver
S N
ĠS um
act or
par ser
Ġtang ent
Ġmathe matical
ĠE uler
ĠSer vice
s al
n y
Ġ\\ [
ĉ ĠĠ
J ob
Un der
coordin ate
g ate
ĠĠĠĠĠĠĠĠĠĠĠĠĠĠĠĠ ĠĠĠĠĠĠĠĠĠĠĠĠĠ
ĠâĢ ľ
Ġse em
}$ $
Ġex cess
] _
Ġclose ly
Ġper forms
es ter
ET H
Ġadj ust
Ġre set
Ġcol our
tit ude
ĠC SS
N T
ĠR ad
N ative
mis sible
ut f
Ġg ot
[ :
ĠVer sion
Ġ`` `
Ġcre ating
s olution
Ġsh ear
Ġright s
Ġ' \
Ġb ad
Ġhy brid
per turb
Ġcol labor
oci ation
) <
Ġgeodes ic
N C
Ġexplan ation
Ani mation
Ġcirc uit
Ġco homology
pos able
ec hn
du ration
Ġc avity
head ers
Ġrun time
can cel
Ġstud ents
S W
Ġrespon sible
Ġan ni
Ġcombin ations
Ġdest roy
ab c
f requency
ĠJ aco
Ġmeta data
T ests
}{ $
G P
Ġcho osing
pro file
Sh ow
Ġ( [
aw s
Ġd ie
make box
M ENT
UR I
p od
ret ch
Ġ tight
Gener ic
ho le
ti vities
B OO
oci ety
Ġcon su
ĠC r
Ġtor us
Ġcontrol led
Po ol
yc le
Ġtop ic
S i
au x
Ġfail s
rela x
Ġsome times
B F
T ri
ou ter
Ġmatch ed
Ġrece iver
Ġcomm it
vel ope
pro gress
Ġcommon ly
sub scri
big gl
ĠH all
}] $
il ing
w a
() ).
Ġne ur
Ġprob ably
Ġ )$
po ssi
ĠO ption
add r
Ġacceler ation
ore st
ĠI ts
Ġs ci
\!\! \!\!
Ġm illion
di tive
li br
iti an
Ġe lection
Ġse gments
ĠD av
ĠD ire
is on
TEX T
orig in
Ġenco ded
b g
Ġsign ed
ly mp
ach ing
bib liography
Ġtarget s
x rightarrow
Ġac comp
moment um
ĠD uring
Ġcom ing
, (
re v
ste llar
Ver tex
Mo use
) ~\
Ġv align
text style
in valid
Ġ\ :
Style ID
Ġlength s
le ftrightarrow
Ġh it
b x
Ġloop s
Ġi o
dest roy
Ġphot o
Ġdiver gence
arg ument
I LE
Ġle aves
Ġupd ates
sta tes
w atch
Ġembed dings
BU G
Ġcol lapse
A ccording
Ġar ises
Ġan n
Ġpro ves
is y
ĠSpec ifically
Ġspec ifically
re ct
Ġs l
E CT
T F
B it
lin ed
Ġrg ba
b rowser
ok ed
vir tual
i ke
D IR
' ,\
Fa iled
Ġe cho
Ġno thing
@ "
big gr
Ġferm ions
ind ic
Fig ures
s est
Ġadvers arial
ĠW rite
Ġh istor
if orn
M AP
}] \
Ġfit ted
r ics
Ġappear ance
Ġinc ident
Ġextreme ly
D om
Sp an
hal f
hi ps
Ġproper ly
N ormal
Ġsyn thetic
Ġradi i
ĠF ield
Ġinequ alities
al loc
ht bp
th row
X Y
Ġn ational
N V
Ġ[ [
Ġorgan ized
Ġtra vel
Ġquark s
ST AT
ry pt
Ġcoun ts
q q
Ġanaly zed
Ġoscil lations
Ġrepla cing
Ġli quid
Ġpro xy
Ġed itor
Ġhom omorphism
Ġ' '
D L
ĠA ct
ific ations
c lone
ĠM L
s un
ref ul
ob jects
Ġima ginary
Ġcyc lic
Ġregar ding
con cat
or ary
( .
Ġelement ary
Ġhol omorphic
onom y
con sole
n p
ĠC H
F i
Ġmon oton
ri a
Ġtrans mit
Ġrestr ict
mon th
Ġdis order
tific ate
iforn ia
Ġconserv ation
) "
vari able
Sum mary
th rough
a ver
Ġe conom
gener ated
Ġpur poses
equ ence
ĠC enter
ĠA m
11 1
En umer
re c
clo ud
ĠIntern ational
th read
erm itian
Ġto t
Ġex cited
\' {
pre dic
ĠH y
Direct ory
Ġto kens
Ġmer ge
* {-
Ġcryst al
tribu tions
au gh
ĠM or
ĠIn stitute
N ULL
table block
ĠJ ava
ĠGo ogle
pro tocol
Tra ce
on o
Ġpo ss
Ġend s
Ġexp ort
ĠF in
Back ground
Ġb ubble
Ġqu ar
Ġmag net
Ġ\ }$
Ġfin ds
}{ $\
ann ot
Ġdec la
en ta
Ob server
V M
one y
File s
AL SE
re cord
Ġmanif olds
set length
ar m
col head
Ġtri ple
_{ (\
Ġinst all
con sider
A gent
lar ation
yn chron
ĉĉĉĉ ĉĉĉĉĉ
EN TRY
D I
bo th
198 6
Name d
Ġe ight
Ġfraction al
Ġmin or
g tr
st orage
Ġbal ance
Ġwe ek
b ecause
Ġco pies
vis ible
Ġread ing
Ġsome what
Ġu i
Ġaux iliary
K S
ad min
differ ent
Ġro om
(' ./
al led
Ġgen us
f p
Ġsy mplectic
duc tivity
=" -
to pr
Ġen vironments
Ġcoun try
ta ges
to gram
Ġmo use
\\ \
Ġo k
Ġdisplay ed
Ġguarante e
Ġre ward
"> &
Ġj ets
ma y
ew ise
E ff
Ġ$ -\
go og
th in
Ġimp os
P y
ex act
& +
}) }\
man ager
graph s
typ ename
topr ule
Ġmod ern
fra g
n def
Ġiso lated
script style
l g
Ġord inary
p in
) ~
vide o
var pi
Ġs lice
Ġpotential ly
Ġmargin al
ĠB G
k ernel
qu antum
' ];
ĠB rown
Ġp ipeline
ĠCopy right
mo tion
W R
' re
Ġpro mis
Ġpack et
Ġb ins
Ġhe alth
' -
Ġqu bit
Ġcover ed
Ġcomp ression
Ġne arest
can vas
.& .&
Ġout flow
ar ity
ful ly
S imple
P anel
te l
ĠGal actic
Ġfe asible
Ġmon itor
d ig
Ġstruct ural
Ġreco gnition
ed it
ran es
ĠD iv
Ġte levision
Ġp owers
Ġdri ven
VER SION
rela tive
State ment
Ġcenter ed
ĠP ath
Ġcombin ing
big oplus
cur ve
Ġpure ly
ĠS NR
D ouble
Ġs ave
ĠDe fine
S ync
ht b
Ġcomple tion
atom ic
process ing
Pro tocol
Ġre verse
U SE
stra te
Ġexec uted
** /
Ġconfir med
vi a
Th m
requ ired
= [
mp t
sta t
Ġpen al
ort un
Ġ ri
continu ous
Ġh ours
us es
Ġcon clusions
}^{ *
Ġmo ves
sc ape
ir m
Ġbu f
Ġp ion
re str
con vex
Do main
cla im
d c
Ġli ve
mbin ing
sin h
Ġdual ity
F M
ang er
Ġvalid ate
requ ires
Log ger
ĠĠĠĠ ĠĊ
Ġen code
ĠA meric
check ed
si mp
gg ed
Ġappear ing
Ġer g
Ġchalleng ing
cho ose
Ġalign ment
Ġde bug
run time
Str uct
prote cted
resize box
So cket
Ġtren d
Ġflux es
Ġbus iness
ON E
ĠAn y
T A
ĠSt ar
Ġv i
d ical
Ġcur sor
u zz
detail s
N P
}, \\
ĠPro of
ĉ ĠĠĠĠĠĠĠĠĠĠĠĠ
di alog
- {\
Ġrefer s
Ġc utoff
v v
Y ear
| {\
). $$
Com ment
Ġtype def
Al so
Ġscal ed
ymme tric
Ġsc ene
F IG
Se lected
Ġperiod s
19 70
ĠIn stead
ign ment
bo otstrap
Ġemp ha
ĠF ix
[ {\
Ġth ought
}} }{\
Ġdi pole
Ġcompu tations
eq q
er c
) *
] ^{\
Ġclo ser
Ġobserv ational
ĠC ho
tiv eness
la tive
}} ^{(
Ġr ich
L imit
D uration
ĠW al
s atisf
v ectors
tri b
- $\
Ġgra du
ch en
ub y
Ġsur round
1 12
w er
Ġassign ment
CHE CK
l ush
Ġchar ges
id a
K L
et o
Ġ ultra
pro xy
chi ve
Ġca reful
bound ary
t c
Ġes cape
Ġpla ces
Ġpro jected
S k
ĠD ue
Ġlimi tations
ic a
e mail
load ing
scale box
T otal
a ign
E G
}} _\
198 5
r k
ati bility
en a
Ġt ends
mer ge
Ġ> >
Ġcross ing
Ġper spective
Ġs ensor
ĠG r
ĠHo use
}$ ),
u mption
manif old
Ġad min
SS L
ĠZ e
5 12
Requ ire
ĠC up
at tle
Ġcent re
err y
Ġlocal ization
Ġthem selves
con j
Ġensure s
sum er
ari a
DB LP
ta tively
ĠO per
co sh
Pro gress
Ġhomot opy
() ));
w rapper
xi om
Collection s
cri tical
th rows
Ġanni hi
train ing
Ġview ed
Ġchall enge
Mo ve
HT TP
= $
Ġfig ures
Ġproof s
pass word
ari ant
Ġs on
Ġcommu tative
Des c
xy matrix
if ndef
ov a
}. $
Ġoriginal ly
B s
Ġutil ity
Ġcub ic
Con clusion
Ġcaus es
ĠM ag
ma terial
ser ial
$ }\
198 4
gtr sim
Ġex it
e per
Ġread y
ĠCal ifornia
B r
bibliography style
Ġrect angle
ig u
In deed
Ġfin ish
w al
Ġout come
o cc
^* (\
ir it
ĠPar ameter
cep tions
ĠL and
F ound
ter ms
De pend
elec tron
ig ens
Ġman ip
pre vious
Ġsqu ares
w p
fra ction
TR UE
ĠU I
Ġmolec ules
Ġ[ "
Ġf ocused
ti ties
Ġe lastic
ĠDe ep
A CT
_{ {
ĠCon fig
I con
ĠS m
Ġintrodu cing
Child ren
EE E
D en
Ġ\, .
ĠCon sequently
Ġpar am
P air
Ġd rag
pol ar
Ġpop ulations
="../../../../ ../
Ġlocal ized
ĠP romise
radi o
ĠRes ults
IN D
q ed
' ])
cri bed
G s
Ġmod ification
P Y
ra m
Ġa udio
is Array
po sitive
Ġbuil der
Ġin struction
test s
O L
RE G
Ġinstr ument
ĠRe move
}$ :
Ġachiev es
Const ants
ev olution
leg al
Ġinteract ing
in er
om ite
diag onal
ĠCo uncil
Ġc ast
ĠC S
IC E
Ġmon th
Ġcon sec
cen tage
ĠHT TP
artifact Id
r ift
ph y
Ġtrack ing
Ġdri ving
+ }
Ġanal ys
Ġen hanced
en berg
id entifier
check box
ĠVal id
Ġremo te
an notation
em it
ĠPro cess
ĠT op
Ġlimit ing
Ġcont ents
igh ter
an cial
C re
Ġm omenta
Ġm m
Ġ )\
Ġs kip
ĠNew ton
Ġconver ge
par tite
de cor
Ġpriv acy
ing ton
entif ic
config uration
Ġun ity
IM P
fa st
st on
to ols
Ġrecor ds
Ġcontinu ity
Ġf em
ĠM ac
Reg ion
Ġlogarith mic
au chy
ĠB an
ĠEar th
ĠC OM
b atch
LO CK
sp ring
ud inal
ĠE val
M y
go od
form er
Ġisot ropic
UT F
or ge
fe ature
Ġquick ly
M I
lic ate
pr ising
de lay
Ġc red
Ã ¤
av en
ĠIO Exception
ĠH ol
Ġtw ice
N L
c li
Ġvari ability
By Id
B inary
homog eneous
ĠDis trict
Method s
ud y
Char acter
Ġappe ared
omite mpty
] }\
gl s
^{ {\
ĠM al
C r
N umer
aba tic
de fer
! <
ĠM er
ide l
] \\
Ġexam ine
ĠIn dex
Ġs af
ĠA nother
fla g
ig ration
train ed
M ask
C l
]{ ./
ential s
/ .
no tations
ĠM icrosoft
plugin s
ĠF alse
ĠS C
S ample
Ġo l
ta gs
Gener al
Ġ" <
e eq
ĠA uth
ĠR iver
B rowser
B ased
ga p
] ))
Adap ter
): =
ĠOb serv
ma ts
ra pped
Ġsimpl ify
Ġsummar ized
Ġ- =
Ġinvol ve
}. $$
G a
cle an
Ġcor ner
effici ent
coup ling
Ġcoinc ides
ĠH ash
s b
te sian
ĠWindow s
ver tical
M er
B J
bottom rule
âĢ Ķ
tra ction
N OT
O perator
Bu ild
S hape
Ġcirc um
me ter
if def
style sheet
d rag
ĠRe ad
Ġf lo
f mt
Ġre sp
append Child
lap sed
No tice
s cheme
Ġ" $
][ '
Ġd amp
ĠC a
el d
En v
De legate
En um
D est
ta ck
Ġsent ence
Com mon
ĠOther wise
Ġf lexi
w all
und les
sec urity
co mb
ack n
IT E
Ġw ish
ĠB lack
oulo mb
es h
Ġcomp osite
ĠK o
Ġcomple tes
B al
Ġl anguages
Y ou
Ġgra dients
Trans action
indu ced
13 0
}= -
ĠSte p
ear ning
Ġfin ished
l brace
m r
ĠB a
ers on
no v
Ġread only
NR AS
ĠO f
$ ^\
Ġatta ch
Ġal one
ĠM ost
Ġcondu cted
Ġvol tage
Ġac tivation
}{ !
B asic
er os
parent Node
Ġb g
h aps
rac tive
Ġen ables
fil ename
)} =\
Ġconsider ation
( $\
}} )\
depend ence
VAL UE
Ġeffici ently
ĠS a
; }
Ġdiv ision
Ġmod ular
w est
ul lable
Ġstate ments
Ġelectro magnetic
Ġi maging
+ $
ĠP al
al go
}) :
Ġnucle i
)$ $
O PT
Ġconjug ate
Ġp ages
198 3
in to
k k
sequ ences
U ri
bound s
L oc
wo od
Man y
s qu
Ġj av
og en
) },\
Ġclo uds
Ġvilla ge
ore l
d ark
Ġc lick
Ġp y
mate ly
Ġsequ ential
Ġm il
Ġdes cent
Ġchain s
ch a
Ġdepend encies
f un
n or
ĠD r
Ġ\| _{
Ġd ied
Ġ" ,
group Id
ĠE lement
Can cel
ph oton
ec ho
Ġasymme try
Ġover la
Ġcon cat
Ġ} (
rain ing
W N
d v
INS ERT
'' .
Ġreprodu ce
ĠLo cal
ta tor
vo ke
o mas
or tion
Ġbright ness
Ġconver ted
m cite
Ġdep icted
Ġdri ver
ab i
ula tor
Ġreal ized
Ġsome thing
Ġdetect ors
Rou te
T V
Ġc ame
cer ning
be q
Ġindividual s
con ditions
T imes
Ġb ars
Ġ' "
M OD
Ġreach es
il istic
Ġar ti
gra vity
% ,
G A
Ġcomb ine
Ġdegener ate
Ġhierarch y
ĠThe ir
lat tice
hel p
B ecause
ĠBayes ian
Ġdis ks
Ġobtain s
Ġradi ative
Ġload ing
Ġexper ience
inte gr
} ],
b ian
An alysis
14 0
Su ccess
Ġatta ched
$ ^{\
> '
Ġre ly
Ġsing ularities
Ġsupp ressed
colon eqq
Ġapproxi mations
Ġcol d
ma tes
DE F
re lation
pa per
Ġasympto tically
depend ency
A g
D iff
an c
)$ }
-------- ----
ur istic
ĠO ff
ĠEng land
ĠĠĠĠĠĠĠĠĠĠĠĠĠĠĠĠ ĠĠĠĠĠĠĠĠĠĠĠĠĠĠ
F urther
ani mation
Ġpro grams
FL AG
Ġnon trivial
Ġinvestig ation
Pe ople
ĠL HC
Ġm ale
Ġphot ometric
d m
multi p
ĠNo tice
ĠA P
mu late
Ġpar ity
U ES
Ġbene f
Ġplan ets
Ġf ib
ĠL ong
Ġgu ide
Ġrapid ly
De ep
^ *}
}) ^{-
H H
}} }}
Ġs cience
Z Z
Mapp ing
ĠAustral ia
" ],
K K
Ġide as
ĠM et
no va
' }(
Ġs par
ou thern
Ġhydro gen
D b
F UN
Ġpo inted
Ġphenomen on
are a
th ese
G aussian
T M
ite s
Ġpro gramming
ĠCre ates
EN SE
Ġneigh bors
ograph ic
ĠIn teger
war z
Ġtrack s
ĠFran ce
s ame
ft ware
n l
Ġbelie ve
pro j
Ġcapture d
, }
ĠT echn
f b
Ed ge
F ollowing
ĠCol lection
~~ ~
r v
Ġstudy ing
Ñ ı
Ġoptim ized
ĠN a
G AN
Ġtrans formed
rate gy
ĠLi pschitz
de generate
Ġg amma
ĠT ran
ĠN N
Ġqu bits
}) ^{\
Ġto ward
^{ *}
ĠM at
ne igh
u tation
te ch
\\ [
ad ap
p es
ĠE ven
ash ion
si d
esti mate
on a
it t
ys h
Ġvari ational
Ġhard ware
on ce
M ix
corre lation
example s
with out
Ġar t
)) =
}; \
Fla g
ĠV is
Ġdis abled
Ġd ialog
Ġ' ',
&& &&
ho me
em an
Ġneutr inos
Ġcard inal
m ention
Ġnear by
Ġband width
Ġc lone
Di ag
ĠB S
M is
ut ter
lu g
Ġexpan ded
Ġsimpl ified
) )$,
Ġcontinu ed
}) }{
ĠĠĠĠĠĠĠĠĠĠĠĠĠĠĠĠĠĠĠĠĠĠĠĠĠĠĠĠĠĠĠĠ ĠĠĠĠĠĠĠĠĠĠĠ
fil led
+ {\
r ink
ĠQ ue
rg b
cell color
Ġre ject
ĠS ci
comp arison
Ġcall ing
inclu ding
cos ity
Ġrobust ness
Ġdeco der
Can vas
Ġg ave
Ġuniqu ely
M ac
w d
Ġdevi ations
L at
ĠS pace
{ |\
y es
S pa
Ġexponential ly
198 2
)} }\
cur sor
ang o
exp ect
Ġinterpo lation
-- >
Ġdiscover ed
Ġv ic
Ġsh ifts
method s
la c
am ber
RE AD
Ġp late
Con structor
r brace
LO G
Nav Bar
od al
ĠA lex
Ġver ified
Ġ ill
Ġequival ently
Ġclassif ied
sc atter
ĠPro perty
Ġv on
ĠS ets
Ġview s
ma ch
Pro file
t f
Ġb ra
ne tes
se y
Ġ' .
S ER
Ġsur v
pa y
Ġw idget
par ame
la ter
valid ate
Ġc lip
uber netes
Ġsta ges
cor r
m en
oper ation
o mp
co in
T ick
k g
ĠWe yl
ĠCh ina
Ġra re
ro tate
Ġlook ing
ch ro
sta ts
L C
10 5
Ġm ul
Ġbranch ing
Ġpar ton
over rightarrow
Ġopen ed
ession al
. (
s core
i lo
Gener ator
Ġst ory
Ġcan vas
op tional
Text ure
Ġvor tex
Ġ til
Lin q
Ġend point
Ġguarante es
Ġmin utes
FN GL
b racket
Ġn a
W al
ro t
im s
Ġvari ant
Ab stract
Ġ{ '
tiv ate
Ġregular ity
id entif
ĠFig s
libr ary
ĠF ollowing
Vis ible
p ull
z o
F s
M NRAS
Ġobtain ing
stand ing
Ġe V
supp orted
algorithm ic
ta min
on on
Ġremo ving
Ġdo ing
Ġadap tive
bur g
d ynamics
l st
Ġf usion
ĠF o
Ġal t
display Name
ĠIn dia
Ġapproxi mated
Ġextra ction
ĠĠĠĠĠĠĠ Ċ
B D
Ġpar ty
ab ric
c u
| }{\
raise box
Ġoffic ial
ab olic
ra se
\" {
da tab
Ġman ager
Ġsur ve
ĠIn put
t p
Ġser ve
Comple te
Ġperturb ative
Ġad joint
', '
Ġa u
ĠA ward
H y
U LE
Ġma pped
Ġvis it
for tun
Ġfla vor
Ġdefin ite
ĠGra ph
Ġpo le
-> ]
ĠB al
Ġ icon
il inear
U D
Ġw est
Ġwork ed
a el
t k
i et
ra s
L iving
lat ors
ĠD on
ĠR oman
AR Y
Ġgra ded
Ġminim ize
Ġ" ",
IV E
vel ocity
o ser
ig roup
Ġman agement
Ġwar ning
under brace
33 33
Ġ" -
{- }
Ġthick ness
in ds
ro ke
ĠA SS
^* ,
Ġuint ptr
Ġa stro
Ã §
thes es
Ġrepe at
S ur
bin ary
Ġsu cc
Ġm enu
ĠT eV
iz ers
use um
scal ar
End point
ĠCan ada
_{ |
Ġdetermin ing
B T
}\, ,
mo ving
av ailable
tr ical
Ġsp ins
asso ci
p n
Def ine
Ġpolic ies
tr u
co ded
Ġe igens
Ġori ented
po ol
alax y
M at
Ġdire ctor
}$ ~
IC ENSE
Ġcre ates
la bility
ĠRe public
te e
pla ys
Ġc lar
% %
ul ing
tab s
Ġanom aly
Ġrecon structed
te en
Render er
Ġtable s
Ġm us
Ġb is
cla ssif
lic t
S ame
li e
Ġhapp en
w ang
Ġas sembly
er g
Ġquanti zation
Ġp in
T ouch
r ig
F W
mid dle
d k
ce q
st one
ater ial
s ho
Ġre write
Ġex pos
[ ]{
Ġs afe
In f
r arily
Ġdest ination
Ġc b
Ġp aren
. *
G D
I mple
I ES
Ġvari es
pres er
ĠT w
fl ush
Ġcon figure
Ġpower ful
com es
tain ers
ro le
Ġsignific ance
Ġredu cing
ĠR ich
Ġtran si
Ġext inction
vi e
cons ist
D rag
os c
p ation
di o
ic en
ĠD ev
IT ION
sat z
PRO C
ĠC PU
}} ^\
um my
ag o
Ġrig id
}$ &
at o
ell ing
ket ch
Ġro tational
ed s
ant ly
Con dition
ent ric
Ġst ands
ic ular
V ir
}, $
ĠR ic
Row s
as ync
li ers
Ġwrit er
Ġthan ks
Ġglu on
Ġiter ator
Ġmode led
foo ter
tool bar
lin ec
Ġne ither
war ning
ĠIN TO
Ġdoc uments
Ġen um
Ġepoch s
Ġdes pite
AT TR
Ġmultip lic
Ġw atch
Ġg al
Ġfore ach
@{ }}
Ġso on
Ġphenomen a
h orizontal
Ġsimple st
Ġprim itive
ĠB ack
ev alu
c n
proto buf
Ġin variants
ĠE v
Ġh und
Ġcoun ting
class ical
flu id
me mory
. ",
Ġsit uations
ĠP ort
Ġar rays
P res
R ole
pag ation
havi or
um ann
v able
Ġreli able
Ġjoin ed
Ġcap t
un ce
}}{ (
Ġh eter
Ġre ci
d dot
comp ile
ach es
z ure
at tach
Ġl ists
ĠN evertheless
ĠV ari
e igen
ĠG W
Ġ\\ \
ĠC l
if ting
sta ge
ĠDe partment
). $
Ġexplo red
Ed it
Ġtun nel
Lower Case
Ġal location
198 1
r ist
ĠCon n
Arg uments
Ġtag s
ĠSt andard
bu il
Ġabund ances
V ID
" /
Ġhe ating
f ar
ĠWil son
Ġ$\ |\
Ġadap ted
re act
IG HT
Ġan chor
period ic
s ti
Ġsh apes
Ġmagnit udes
197 9
On ce
col l
r ceil
S uch
B IT
Ġanalys es
Ġgo og
10 24
Ġspe ech
Ġro ad
ro te
Ġmi xture
W ORD
la g
Sh ort
li ance
inter pre
Ġign ored
Ġdeath s
Re al
f our
ĠT V
j query
Ġb ind
Ġcommun ic
Ġp ump
13 5
Ġa spect
ĠC our
Me V
Ġvalid ity
Ġfil led
Ġrenormal ization
Ġdivis or
Ġp ref
ĠVAL UES
inte ger
get Name
Pack age
inu x
Ġch unk
^* _{
Ġconvolution al
ĠIn c
Con clusions
12 7
ro magnetic
\, $
ĠC oulomb
Ġmass less
Ġfra gment
ĠI V
ad ic
ĠC ap
lic es
Ġst rain
Ġboson s
ĠE mp
M s
pend icular
Ġpro ven
Ser vices
ĠP en
Reg istry
iel ding
Ġcancel lation
Ġa di
)$ )
it o
ĠAd ditionally
P ER
ign ore
{ },
par tition
Ġpro totype
b ro
Ġimp lied
Ġform ally
ĠM ake
ĠB ob
ç ļ
ĠC e
f ire
es sel
inst all
ĠBG COLOR
ĠD im
){ $
} '$
sh ared
po inter
Ġb low
}} -\
ĠAN Y
Ġdetermin ant
M N
Ġ\ %
="../../../../ ../../
Ġre ally
view s
. ");
Ġrecomm end
pa che
lin der
In v
Ġcharacter ization
S equence
Ġsize of
an ks
p olicy
I gn
ĠM S
DE BUG
çļ Ħ
Ġmo bile
) ->
C SS
J ava
rou te
Ġass umes
ĠU N
ĠC E
Ġad ditive
f m
Ġ[ -
ph one
Ġmove ment
Ġdis trict
ĠUn ion
Ġe ase
ser vers
b one
ĉĉĉĉ Ċ
Ġequ ipped
Ġt d
H ER
Ġ' $
== =
Ġcost s
Ġcut s
ij k
Ġcon cepts
F ree
ĠO lymp
ib ling
Ġmeas uring
Ġentire ly
p ur
valid ation
Ġtechn ology
Ġ' -
Ġloss es
Ġre lies
Ġfactor ization
Ġredsh ifts
F ocus
/ {
Ġpreser ve
Ġw ent
equ ilibrium
p ic
27 0
Res ources
cop ed
Ġdes criptor
Q U
L U
ĠM essage
Al gorithm
( (\
Ðµ Ð
Ac count
Ġconnect ing
s ync
char ge
ĠB ol
Ġposs ess
$ ~\
ĠZ end
Vari able
ma ting
l vert
Ġweb site
Tran sport
-- \
Ġquanti tative
l ceil
col lapse
; ->
00 5
Ġm irror
fortun ately
Ġdetermin ation
Ġcoinc ide
assu mption
ĠI l
ĠG PU
mo unt
bo se
me tic
ĠS F
en o
art in
ĠEx ec
Imp ort
ĠT aylor
00 2
ĠPar ty
exec ute
d river
m entations
ĠASS ERT
}) +
velop ment
ĠM ain
the ore
ob server
Ġsummar ize
Ġmon ths
Ġro tate
ĠS E
Ġfav or
Ġco vers
Ġexhi bits
] }$
Ġmultip licity
Ġanno unced
id dle
Ġex c
ĠH AL
Ġconven ience
m k
aris ons
h h
ad ian
tur bed
Ġlept on
qu ality
ĠMa jor
ct ors
C apa
multi ple
ĠL at
ĠB ro
con struct
Ġin ferred
Ġpair ing
}\ )
h ow
)$ ;
ich let
Ġparticip ants
\ `
u an
P DF
remove Class
Ġpo ol
Lib rary
Ġar row
ETH OD
ĠC D
inte lli
ĠS imilar
spec trum
lic ial
Ġoper ating
Ġf er
ar ticle
Ġmes on
Ġar ising
Ġsc an
sing ular
),\ \
s lash
B el
d n
i ant
ĠCh urch
ten cy
intelli j
. ][]{
Ġhelp ful
ĠG a
Ġde faults
res olved
Ġconven tion
Ġco variant
A bs
ĠH ow
War ning
Ġro tating
Ġsurround ing
ati o
Ġthermod ynamic
comp ute
Jo in
ĠD ir
M SE
Ġl icense
Ġbound ing
Ġno isy
e a
Ġs ti
Ġexperiment ally
Ġdepend ency
bu ilder
tun ing
Ġfin dings
O F
Ġeffor t
Ġpo se
Supp ort
own er
ck ets
b v
dis patch
illis ec
dis able
Ġarg ue
Ġ\ )
ĉĉ ĠĠĠ
Ġle af
Ġsh adow
Ġhe avi
ĠPro gram
Ġ/* !<
flu x
] _{\
algebra s
A rea
Bo ol
Ġif f
Ġw rong
g as
Ġpoli tical
cent ral
Ġ{ *}
Ġdr ift
Ġpre par
org an
ĠD R
Ġm s
ĉĉĉĉĉĉ Ċ
Ġfa ther
Ġintern ational
f ollowing
t l
Ġarbit rarily
ĠH el
}$ \\
ĠV iew
ĠL u
Ġo wner
the o
Ġlaw s
( @
Ġdis covery
Ġconsec utive
verse ly
Ġchalleng es
" },
Ġacc um
ĠSV G
op f
graph ic
lic a
od er
Con straint
Ġqu al
Ġdimension less
Ġmeas urable
Ġpor tion
ba tim
Ġsh ifted
.\ ]
ach ine
ĠSD SS
Ġexci tations
y er
Ġ\ *
ĠB ased
Ġsupercon duct
Ġlongit udinal
ĠW he
am er
ĠAmeric a
Ġset t
o pacity
Ġcaus al
Ġtw ist
pres ent
Ġm ind
Ġenco unter
Ġeasi er
transp arent
V ideo
U C
ĠA ND
Ñ ĭ
Ġi ons
set Attribute
ĠS H
to LowerCase
ĠPro ject
Ġimpro ves
}: \
mention ed
Ġsec ret
E ar
) _\
Ġmer ger
geq slant
Fail ure
da pt
An notation
ot or
Ġpre ced
}\, .
Ġoccur red
ĠJ ames
ĠL ib
S QL
10 2
Ġdwar f
dri ven
Ġsimp ler
Ġsqu ared
Ġanisot ropy
ĠW AR
Ġprim arily
ĠI ter
ines e
Ġinver tible
Ġg rows
S he
ever al
ill er
par ticles
te in
Ġbroad cast
ula ting
nos tics
Ġke pt
Ġvis cosity
ĠAr g
Ġte ams
ĠRes ource
ĠP R
Ġobserv ing
F ind
B atch
Ġtext ure
up load
O C
}\ |_{
ĠWilli am
Ġv an
Pol y
Ġdiffic ulty
ĠT ri
Ġid x
ĠPo int
******************************** ********************************
key word
Ġw rapper
Ġin jective
eff ect
am i
log ger
iv il
P ATH
Ġcal ib
Ġlarg ely
co st
Ġ% }
Ġturbul ence
Ġh ex
LE CT
ĠG overn
ry ption
Ġextra po
ta rea
\% ,
ĠDav id
Ġvio lation
S m
Ġad missible
}{ -
Ġremain der
A u
play er
Ġsk ew
ĠS I
Ġasser tion
dot ted
; /
= &
Ġconto ur
repres entation
Ġaccurate ly
Ġcalcula ting
Ġpreser ves
Ġfin ancial
ke V
tic ular
ven tion
Ġcomple teness
(' /
Ġconcat en
Ġtor sion
ign er
lo v
L ie
3 60
Ġcharacter ize
ĠB lock
Ev alu
we ighted
R a
ma ml
ol o
icen sed
res ources
k t
ĠL L
Ġplan ar
cur rency
ti ents
Ex pr
V E
Ġ ul
con straint
arc sec
Ġkeep ing
Bound s
vari ate
ic ode
D IS
P lay
lim inary
g ue
n c
fore ach
Ġmod er
Ġmechan ics
dec ay
co mbin
w ho
Ġt uple
}= -\
C at
., ][]{
u tions
ĠOn ce
or di
Ġcur rents
F atal
Ġf ake
Me mbers
Ã ¨
Ġre ver
Ġco arse
ĠRiemann ian
T x
re ason
I ds
ist ence
ud get
Ġapp endix
d or
)) ^
ell er
En gine
Ġfa ces
P lot
str y
W ait
ĠA uto
dis k
ex ternal
en gine
: '
z ip
Su per
Lo op
A cknowledge
has er
T imer
U B
ĠGerman y
Ġpar titions
Ġper cent
Ġin iti
fa ke
FF FF
Ġamo unts
CL ASS
add le
="../../ ../
Ġo be
ss l
ĠC auchy
ĠRequ est
spec tral
Ġlink ed
Ġpro min
Ġrequ ested
Ġkernel s
RE E
s ystems
Sta ts
| }\
Ġext ensive
le ep
; <
P ixel
for ma
Ġcoher ence
Ġlo t
ĠS en
Ġiden tities
Cor ollary
x s
Ġinitial ize
'' $
Ġlet ter
ĠS R
check mark
_{\ {
RE Q
Ġtriang les
Ġclass Name
inher it
tr ary
ĠS ect
Ġpass word
am o
ĠS L
Ġmechan ical
ot one
Ġg old
hook rightarrow
Ġcoup le
Bo ok
Ġb id
Ġpro cessed
ĠC MB
; "
Ġe le
j ango
[ ],
St rategy
ĠP ost
ĠD el
ĠCon st
G al
ĠS y
g end
ĠUni verse
Ġexclu ded
sta tis
re si
e ties
ĠAss ociation
Ġaver aging
f ollow
B ottom
Ġpro g
Ġopen ing
! }
il led
ma k
Ġpro jects
197 7
so cket
Ġk pc
ĠArm y
Ġresi du
Ġin coming
repe at
Ġpair wise
ĠOr der
Bin ding
Deta ils
Ġpro ving
eff ective
C ast
ĠA gain
Pro duct
Ġch urch
b is
cho ice
Ġjo urnal
v g
}) ,\
The y
is er
Ġdis placement
b an
| ,
exp r
Ġreal ization
C NN
ah ler
ã Ģ
al ing
Ġb ring
ĠU p
Pro totype
umula tive
id entity
Ġintegra ble
Ġal igned
") ]
Ġplay ing
ac le
sub ject
at ten
Ġan ten
Ġ ray
Ġbene fit
Ġsus p
ce eded
sp ac
se en
Ġdiff e
Ġassoci ation
vi ded
Ġsum s
Ġgrow ing
19 2
)- (
te gra
date picker
Ġprefer red
ĠAss umption
ĠK e
ĠB orel
Ġcorre cted
' },
multi put
197 8
bas is
& #
In sp
ĠD B
Ġf riend
ĠB ur
ĠCol or
AN G
Ġs cheduler
H tml
Ġ" ";
Ġmicro s
ynam ical
)\ |_{
ĠA D
19 60
Ġregar ded
Comple ted
Ġcon tribut
ĠE mber
Ġ' ,
_ );
AT ED
Requ ired
Ġstud ent
F older
Valid ation
Ġdri ve
Ġion ization
}} ;
name d
Ob jects
od ies
Ġbary on
). \
)} ]
ym er
imp lies
ĠT emp
Ġenti ties
Ġmain tain
Ġco s
ent ropy
ch anges
Ġal ter
Ġsh orter
ĠR L
Ġen v
K o
b ec
D uring
ĠS QL
P UT
is sues
C a
Ġhom ology
Ġweak er
M ag
ho u
* }\
ĠL ine
I EEE
b if
Ġover flow
sc ss
ĠAc ade
dia gram
Ġcon tamin
R andom
197 6
P ublic
D river
|\ ,
ĠIn dian
Ġth ings
Ġintegra ting
.\ ,\
F D
> "
B a
o is
| $.
Ġte ach
Ġres cal
ever y
Ġt ension
ma zon
R ate
Ġimpos sible
Ġpres entation
ĠS W
ĠW hat
Ġen velope
ra b
Ġde ci
Ġn ested
no align
Id x
ĠG old
Ġcon crete
Ġthere in
Ġbar rier
Ġsurve ys
DE FAULT
Ġfore cast
Ch ain
Serial izer
Ġphot ometry
Ġarchitect ures
D er
ĠY oung
Ġsu c
ĠA ction
ĠWh ite
Ġdoc umentation
ps frag
Ġ@ "
cho ols
M c
Ġsubgroup s
ĠAustral ian
lement ary
g lyph
b us
ĠS ociety
er al
Ġfilter ing
ĠDiv ision
Ġin frared
10 4
Cur sor
Ġs ending
Ġd ots
re spon
app ear
ĠP RO
Ġsu ffer
mp s
order ed
cf g
Ġa cknowled
ar n
Ġra ce
y an
Ġle aving
in verse
C ategory
Ġ" '
ari an
ĠV ector
Ġdef e
, $$
Ġdis e
Ġanomal ous
B er
Ġw rote
Ġform ing
ga uge
ĠB i
T L
g it
ok ing
ĠA rt
Ġz eros
Ġre v
ĠS ource
ob tained
ĠB ig
subscri be
Ġlife time
IN FO
Ġc f
seud o
Ġf if
Ġtun ing
Ġr ings
, +
s is
s r
Ġper pendicular
Ġh on
ver ti
reed y
stri al
Ġd up
Ġg over
pre vent
Ġnot ing
Ġ& -
! [
Ġimp osed
ĠW IT
s ity
u ma
Ġc ss
Ġpro jections
Scal ar
Ġno tations
ĠE ner
=\ ,
le ading
Ġcomp ens
Ġcomp ris
ask et
Ġreco very
ĠN on
F ace
M LE
Equ ation
Ġs lot
pe ak
Ġeffec tiveness
data set
Ġconfir m
}: =\
ĠRe fs
re cur
aus s
Ġcamp aign
ĠSt reet
Ġoscil lation
A SE
Ġmorph isms
z i
la ton
VAL ID
Tran sition
up si
Ġneigh bour
Ġf ashion
Ġenhance ment
Ġco res
Ġinitial ization
Ġidentif ying
T er
ï ¼
Ġbg color
Ġgeneral ize
bur st
Ġ! !
le ts
abo ut
AD D
}) }{\
' ].
Ñ Į
ĠC learly
Dis posable
bin ding
Ġpropag ator
ar ding
o od
d on
Ġreplace ment
Ġbir th
Ġnew ly
cl s
ĠT ok
^+ _
k h
v dash
Ġsus cep
Line ar
Ġw rap
Test Case
ĠOption al
Ġtrans forms
Ġdo ub
l c
dis c
Ġar rows
re levant
Ġxml ns
Ġprobab ilistic
Ġs ys
Ġidentif ier
B l
ĠS P
Ġ$ ^
ĠU K
. <
Ġg ene
upsi lon
Ġsur prising
ĠThe ore
r vert
Ġl ang
Fra gment
Ġvehic le
Ġn an
o sitions
" ].
ĠS pa
C er
tific ial
j unit
Tag s
R emark
d h
qu o
A H
Ġd im
'] );
> :
p ancy
ĠCom mand
G Hz
Ġmod ulo
Ġmod ulation
Ġ{ (
ĠH en
os es
Ġatmos phere
Ġmo tivated
b est
Ġrep orts
r ons
$ ]
Ġaccep ted
Ġs ays
Ġe ver
Ġre gex
ĠGe orge
S cheduler
c amel
Ġnew s
M AT
u er
Ġe mail
cont ents
ne ar
ĠÐ ¿
Ġmo un
Ġillustra tes
=" /
Ġdis patch
ĠS FR
ish er
Ġmon omial
om ing
Ġattr s
ĠPlan ck
Ġ= &
ers hip
unic ip
j e
Date Time
Ġa p
su ffici
Ġn m
Ġpay load
ĠC C
Ġreveal ed
E ST
ma pping
Ġpers onal
ĠH amilton
Ġarri ve
Ġrespon ses
Read y
Ġquali tative
m orph
V ol
Ġin set
} --\
Ġs tyles
$\ %
Ġopp ortun
) ]{
Ġpro x
ĠH a
Ġra il
Ġvari ants
Ġaut omorphism
v ince
ap ed
D ue
C orre
war n
C RE
match es
v p
el ia
24 0
ĠS Y
^* $.
Ġ rac
@ \
ĠA li
ĠR ev
Dis cussion
Ġen c
Ġhand ling
Ġformula ted
Ġb re
lac ian
ĠS ym
* {\
Q CD
act ual
Ġsub scri
Ð ²
Ġro ut
* ,
ol ves
Ġnav igation
Ġ' %
E SS
do es
7 00
Ġbox es
L anguage
Ġreason ing
Ġmagne tization
ar ded
Ġcheck s
^+ (
Ġrequ iring
de cre
Ġestimat ors
Ġb undles
Ġnumer ous
ĠL ou
Ġover view
B its
(' #
rela tivistic
Ġclo sest
######## ########
Ġnegle ct
em on
Pass word
Ġd ictionary
Argument Exception
Ġinitial ized
Ġsta tions
r ish
ĠB it
cr yp
Ġrecover ed
Ġf ol
shi ps
triang leq
nu cle
aj ax
olog ically
other wise
D ay
197 4
Ġho pe
Ġamp l
f lex
Ġim g
Ġdiffer s
' })
Ġs in
idel ity
Ġo mitted
ĠS ED
@ {\
ĠM em
append ix
Z ero
i y
ad joint
Ġfi la
ĠP ress
Be gin
lin ation
F inal
ani mate
extension s
Ġsub graph
INT ER
l p
ack son
b lob
per formance
Ġprovid er
{ }{
ph ot
sen sitive
Ġdissi pation
Ġemp lo
en coding
Ġepis ode
pop up
At tach
Ġiter ative
Ġspatial ly
ĠS al
Ġwor st
Ġrelations hips
Ġhe uristic
Ġcla imed
Ġoutper forms
integr al
approxi mation
j ob
Ġdifferenti able
label s
Ġinst alled
ĠRo yal
Ġtr im
Ġin version
Ġintrodu ces
Ġcoun tries
phys ics
Ġac tivities
small matrix
bib item
Ġper centage
Ġindic ator
Set ting
Ġpropor tion
Ġconstit u
u u
neu tral
ord an
ĠH D
Ġn om
Ġ( .
ver batim
Ġde dic
sp lice
Ġsub sequently
pix el
Ġol der
F G
Ġpolar ized
ist ant
Ġj ud
column s
e b
iffer ent
Z one
Ġm ic
ĠAn alysis
get Element
Po ints
-\ !
math rel
T i
ut s
Ġmodel ling
in formation
Ġprior ity
pro vider
11 5
B G
high light
or a
des ign
Ġjav ax
Ġminim izing
s ampling
A I
Ġconsu mption
oid s
u fact
ash ington
19 75
cri pts
B oth
C tx
Ġfac ili
Ġuniqu eness
in finite
in y
d g
Ġpoli tic
Ġb rane
STR ING
Ġsimula te
Ġbranch es
Ġthere by
ĠI L
Ġfilter ed
Mark er
z es
ĠAs sembly
U pper
ĠA cc
l its
Ġestima ting
AA AA
Ġspect roscopic
Ġpredic ate
table s
}$ };
ĠP O
Ġbin aries
W W
ĉ ĠĠĠĠĠĠĠĠĠ
Ġcompe tition
p as
ĠAd S
R aw
ti er
O UT
14 4
b undle
Ġprodu cing
A gg
h olds
h ad
Ġhar mon
am an
sign al
all ery
ĠCo mple
() ))
B i
est or
De te
Ġde cor
Ġbel i
Ġ$( {\
Re pository
ĠCom mun
b rane
}{ .
Ġdemonstra tes
Ġexpand ing
rack ets
Ġregister ed
n ative
T ABLE
ig gers
=" "
ang ing
Ġext rem
C AL
Al low
Ġan satz
string s
2 20
(' <
Ġe mitted
Ġar range
p latform
Ġg r
ĠA pache
Ġout line
pm od
Ġcar bon
Ġgo als
Ġnucle us
re ce
M IN
ati s
medi um
) }^{
ĠL aw
Ġapp o
Ġindepend ence
Ġdeco ding
Ġext ending
ĠCom mon
Ġconserv ed
ĠEner gy
Ġpar abolic
ta ke
S creen
lo cale
get Attribute
a verage
Ġincre ment
Sp lit
ĠR G
Ġvis ibility
scal ing
Ġs aw
100 00
}} %
ult ural
ther mal
Exp ected
F OR
se mi
t uple
us ers
ere f
Ġexper i
de faults
serv ices
inc ar
Ġguarante ed
Ġimprove ments
Ġb ases
App endix
Ġtimes tamp
ol f
V AR
c apa
{\ '
A ST
Ġcon cerning
s afe
ON G
197 3
Ġattemp ts
^* $,
Ġnon negative
Ġtermin al
ĠSo ftware
Ġreson ances
Ġimp ose
Ã³ n
P G
Ġ ice
ke ep
Err ors
ai lability
' }{
P ay
Ġhierarch ical
Ġexplor ation
ga z
ag ent
Ġfra ctions
Ac tivity
re hen
ĠA g
f ront
ak a
V ec
trans late
B lob
H ar
10 8
che matic
Phys Rev
P N
Ġregard less
C lear
Ġrecur sive
roug ht
ĠOb servable
\ @
Ġfermion ic
Ġmar ried
Ġcontinuous ly
Ġanno tation
Ġd augh
Ġiter ate
Ġ$ %
tri p
j ar
ĠT ur
s ass
ide os
g el
od ic
c is
Enumer able
p us
{ }\
> ;
str ict
produ ction
____ ____
spe ed
B ra
Ġh ide
In dic
co her
ll ig
Ġto day
L arge
ma jor
Ġro ll
Clo ud
ine q
F ORM
I J
cell ent
Ġpar sed
Ġmo tions
C red
) }}{
With out
h ot
{ -\
p en
Ġc ra
it ar
ĉ ĠĠĠĠĠĠĠĠĠĠĠĠĠĠĠĠĠĠĠ
ĠD u
FF ER
f all
ĠW ay
Ġax es
Ġinv oked
attr s
Ġc ategor
W atch
10 3
sample s
Ġequ ally
over view
A cknowled
ĠF il
Ġp c
is Empty
on ormal
fer m
Ġs up
. \,
Ġconsider s
tr ically
Ġh um
nat ural
ith metic
Ġfact s
dire cted
# {
ĠU til
)} +
ĠG rant
imp ro
)\ ;
Ġprior i
ile s
P l
Ġa z
ul ted
' ^
b ranch
Ġcapa ble
j ax
Ġaccoun ts
ap or
exist ence
k ubernetes
Ġconsider ations
Ġpar ad
fit ting
Ġoptim ize
tz mann
f v
ĠT or
Ġreg imes
Dep th
ĠS ign
Ġmil itary
L AS
Ġdep loy
Ġcor ollary
ĠA S
im uth
Ġreserv ed
ĠE V
Ġsp ot
/* !
oot ball
' _{\
Ġaff ects
Ġdegener acy
Ġboson ic
ĠF orm
Ġinfinite ly
Ġ' _
Ġe ducation
){ $\
Ġback ward
Ġfluct uation
S top
Ġth resh
fe atures
Mon th
Ðµ Ð½
Ġc ached
OR TED
. }.
PO ST
Ġm al
rup ted
e el
Ġme m
en es
Ġla bor
en code
{ #
van ishing
w an
cop es
Ġn ight
Up load
observ ed
ec tions
Ġevalu ating
Ġcomp ac
ĠTh omas
Ġtw isted
s z
Ġl iving
Ġin er
}\ |\
_+ $
197 2
lim in
Ġprof essional
ĠH ttp
Ġad mit
Ġint ended
Ġmon o
Ġsur jective
Ġpreser ved
le in
Ġsem igroup
qu anti
ĠI C
Ġturbul ent
ĠM u
ass ign
li ties
z oom
ĠFor ce
ĠB est
P layer
ac count
ĠE M
Ġl ens
section s
ti a
Ġa dapt
De lay
Ġdamp ing
ĠRe pres
Sta tic
to Be
ge ometry
ĠG Hz
}}( {\
ama zon
ĠB en
EN ER
Q A
ĠP art
math ring
ĠReg ion
Ġg iant
Ġt ensors
ĠDe lete
Ġs ends
Ġcheck ing
Ġwavelength s
itz er
Ġconstruct ing
Group s
Ġmod ulus
Column s
Ġpropo sal
path s
RA Y
Ġstri p
vious ly
000 1
B order
ĠM ass
un ing
Ġcomm ands
00 3
| <
Ġin jection
}^{ -\
ti zed
ĠHand le
s lide
ura ted
c atch
A RE
}^ -
Ġfrequ ently
R ANT
Ġ\ ,\,
ĠJ ose
Ġev ident
tran sport
ong o
side bar
OR Y
Ġrestric tions
es cape
c pp
Ġver ification
p ublish
Pri vate
Ġpiec e
]{ $
ak es
Ġenco ura
ĠPa ul
Ġoffer s
le ton
z ier
et ing
ĠY ang
ff ers
as p
S B
Ġadi abatic
rule s
ĠĠĠĠĠĠĠĠĠĠĠĠĠĠĠĠĠĠĠĠĠĠĠĠĠĠĠĠĠĠĠĠ Ġ
conver gence
Ġlog ger
MOD ULE
Ġanaly tically
/ _
E mit
S ort
C enter
Ġcon ductivity
NS String
enari o
re gex
co v
lec tric
B ind
war ded
O pt
Ġturn ed
Ġ" %
r n
stro ke
H AL
i able
Dis patch
tool tip
L ag
\% .
Ġ ...,
Ġfor ced
]{ @{}
Pro b
Ġspa cing
^ -\
}=\ {
n ecess
ĠC ath
=\ !
Ġo mit
E lem
en sively
Ġreson ant
Ad S
ĠChampion ship
Ġout comes
Re act
Fe atures
Ġcomp ound
**** **/
ĠG reat
)}\ \
ĠMo ck
) '
Con vert
Ġdeci ded
Ġad ds
Ġhadron ic
Wh ite
Ġsum mation
Ġl ift
Ñ ĩ
Ġtot ally
I SE
p lain
R G
ched uling
] ,\
)) }
ĠM ex
ĠWAR RANT
Ġn s
)^{ -\
En vironment
ĠR ail
ene ity
S ql
Ġcompan ies
< <
Ġti dal
sq cup
ĠT O
sh own
esti val
99 99
as sembly
leg end
Ġmut ual
Ġpass es
ul li
Ġe cc
ĠP op
con e
Ġsupp lied
10 6
," ./
Ġread ily
Ġc md
A m
ĠH aw
^* )
i ps
Ġseman tics
: #
Ġhal os
Ġtheore ms
R est
}} }(
Ġnegle cted
Th elia
ĠPre sident
ĠDir ichlet
Ġexpos ure
() </
k ar
Ġn ine
Ser ies
Ġsong s
10 7
Ġc l
t body
Ġmark er
Ġ} _{
N ullable
Ġbu g
Ġlistener s
inter action
structure s
Ġadap tation
ĠAr ch
ĠF ind
re ject
Ġg ray
per son
Vir tual
ASS ERT
CD M
M ed
R ules
ss on
Ġ| =
get Value
z h
Ġdig ital
D ATA
Ġfla v
Ġan c
Ġpo les
P ut
ĠH istor
ven ue
Ġlook up
ration al
No tification
ad ded
ĠC G
Ġ Â
t bl
re lease
Ġorgan ization
Return s
th rift
Ġshe af
Ġpa int
gra ded
od ge
Ġin correct
Ġal ias
umn i
tific ations
En ter
Ġsepar able
Re lated
ext ends
ĠI M
ĠO P
ak i
el t
Ġkine matic
Ġper haps
ha us
Ġoscil lator
)$ :
ĠH ubble
ĠD an
ri table
Ġnucle on
O m
Ġrece ives
Ġinsp ired
j j
ĠMe an
as sets
lik ely
Con tains
Ġcontra dic
Ġle ak
ta t
ĠV ol
tim er
Ġ ulti
Ġfew er
AR RAY
F ixed
os cal
' ')
h pp
S pe
Ġ} ).
Ad min
Str ucture
p ref
ĠOut put
Ġeffor ts
}} [
ed ges
ĠLO G
Ġb ridge
{ +
C irc
Un known
Ġsh aring
W ang
Ġsimp licial
min imum
add EventListener
I AL
re ci
Ġdiscre pancy
Ġacces sible
uk awa
Ġsuper nova
mo ved
ĠPar se
Ġcont roll
ĠCent ral
Ġb udget
ĠP et
Ġbelong ing
lic ense
Ob serv
ĠT ex
is set
man y
Ã £
Ġso le
coun try
ĠCont rol
Met rics
US Y
ID E
Ġlog ical
t ration
Ġget ting
re lations
cyc lic
S yn
N d
ĠP HP
est ure
Ġgover ning
h old
Ġmu on
11 7
ij ection
Ġs ensors
(" %
ĠR GB
Ġ' #
Ġsuper symmetry
Ġspecific ation
Ġaddress es
Ġannihi lation
S pr
() `
Ġmod ifications
assert True
ony mous
j ust
Ġslow ly
}} |
Ġsucc es
Ä ±
Ġ" .
H ub
Ext ra
ĠĠĠĠĠĠĠĠĠĠĠĠĠĠĠĠĠĠĠĠĠĠĠĠĠĠĠĠĠĠĠĠ ĠĠ
Ġanisot ropic
\ ).
d at
App end
Ġpromis ing
Ġwidth s
gu ide
}\ {
Ġcomp arisons
ĠKing dom
Ġdedic ated
Ġexp onents
Ġarg ued
al ian
the y
ĠK ore
Ġcap ital
Ġgal actic
M ake
D rop
Ġinter fer
ĠAcade my
Ġindu ce
z hang
Ġs ight
tic ip
ĠG C
Label s
Ġs orted
Ġcombin atorial
K M
Ġv ideos
p lots
ec e
Ġbreak s
Ġsuper vised
. }}
ĠBan ach
Ġre actions
ĠM any
ex it
Ġg ates
im od
)+ (
Ġj s
Ġpredic ts
] *
la x
Ġover head
\ ),
ĠPro blem
t ty
rain ts
Ġsyn tax
ĠL ay
{- .
Ġred und
ĠCh inese
AM P
Ġsupp ress
gin ation
ex tern
D ynamic
ĠA lice
A W
CH AR
it tle
A re
om er
ĠD em
Ġcol lective
Ġtri angular
AS K
Ġper missions
Ġs ql
Ġ' ')
_ )
ĠN P
ore s
pri v
ĠP FNGL
or se
Ġco ding
vari ables
da ys
ĠM ary
Ġconto urs
Group Name
ref resh
Ġ} .
B I
sl ider
Ġp an
Ġag rees
mb f
pa red
Ġsp iral
ink owski
Ġho sp
Graph ics
Ġq q
Ob serve
ai ly
ome ter
11 8
b n
user name
D ig
ig ator
ĠC F
Ġtrunc ated
en coder
B Y
lo od
Ġneur ons
ur c
force ment
)} +\
Ġlet ters
ĠComp any
ĠS imple
Ġsur ro
remark s
;\;\ ;\;\
Pro gram
Add r
0000 0000
d ense
Co unter
xt ures
up les
ĠFigure s
Ġde ad
Ġbo ard
Ġreve als
Ġtrac es
le ave
bre ve
Ġadvan ced
Ġn p
P ower
or test
gener ic
Ġset Timeout
Ġswitch ing
yn man
ĠM usic
sum ing
,\ ;
comm it
Ġsp ont
Q ual
Ġf s
Ġins ight
Ġadd ressed
Ġminim ization
ĠWhe ther
G O
Ġhel ps
Ġempha size
En coding
Ġ$ _
w riter
irc raft
sim al
Ġ rm
Ġa wait
Ġle ader
ri an
PAR AM
Ġasymme tric
Ġp p
ĠR et
Ġcy linder
constrain ed
i ro
ĠW ashington
Ġpreser ving
P haser
ffff ff
Ġinser ted
T or
el lip
ĠL ab
cor ner
Ñģ ÑĤ
um ino
Exec ution
with in
MO DE
ĠR ou
Vis ual
ĠC ons
17 0
Ġhel per
Ġl iteral
DE X
$ _\
am big
Ġlo ader
ĠR ob
Ġb are
Ġle s
expan sion
EL D
ex cept
Ġa per
Ġref lected
Jo hn
do cker
ros copy
In to
ra tes
R F
cous tic
prob ability
Ġcommun ities
ĠSh ow
der r
l Vert
ab stract
Ġ+ (
AR B
ch unk
or ange
Ġde but
Ġdiv ide
ro om
Ġex cellent
Li ke
Re lease
in ing
3 50
w ing
Ġlat tices
im itive
sign ature
H is
Ġcomp atibility
Th row
pa ren
Ġanalog ue
G LE
r int
k pc
ĠS ol
ĠR ight
Ph ase
Ġte tra
Ġme dical
Ġc asc
Us age
BU FFER
perturb ative
Ġde legate
}{ (\
ĠB Y
pp ings
act ing
Cont ents
can onical
Ġassert That
_* $
Ġaim s
Ġadv ance
ĠM ad
l ighted
ĠG ames
Ġsign s
ĠM is
(" ./
Ġtimes cale
Ġpenal ty
R el
Ġdis able
Ġpl anning
S elf
face book
la d
G T
rep ort
Ġj unction
M ost
Ġpoint ing
Ð ´
us s
ĠD oc
ul se
Ġk inds
ĠJapan ese
Ġz oom
ll ll
a sion
Ġfore ground
5 000
Ġti le
\% )
Ġra ised
end or
me chan
. ]
Ġran king
Ġsuper symmetric
G W
Ġf re
), $
linec ite
ĠSm ith
ify ing
Ġvari eties
Ġcompan ion
S ol
datab ase
ĠRus sian
Ġcon trary
Ġte lescope
lim sup
LO W
n r
tr ine
ict or
Ġsat uration
)}{ (
ĠL earning
f ly
Ġ$ +
Ġal le
the ir
^{- (
ali as
Ġpiec es
M ETHOD
Ġla tency
Ġh align
)= -
S NR
m icro
ĠS earch
Ġ& =\
In d
Ġser ves
thes ize
itect ure
ĠL ink
)\, ,
Ġcounter part
ĠB ell
Not Found
trans fer
qu asi
au dio
Ġs ync
Ġlook s
node Name
EX PORT
Ġmis sion
bo lev
ĠSh ort
Ġpromin ent
}}{ {\
ĠPy thon
Ġb old
ĠAb stract
sub string
Ġspe aking
e le
ĠBrown ian
Acknowledge ments
ti bility
si l
Ġag reed
lo gin
Re mote
ĠO S
(" /
C md
sub str
H L
Ġbegin s
A Y
Id entity
ER S
Ġso cket
tikz cd
Ġmac ro
ter ior
Ġoper ated
? }
it ors
k ins
Ġ â
P lace
fe ed
ĠC ross
L em
ti tive
M essages
Ġsent ences
Ġt ax
Ġtri al
ti lities
Ġs ketch
Ġre c
S imilar
ĠN AS
En g
Res et
Es ti
over flow
. ;
| ^{\
os ted
Ġl ensing
V V
Ġalbum s
i os
Ġthe me
commu tative
ĠT IM
g ame
ĠR ay
Ġwait ing
Ġa cknowledge
Ġhand led
determin ed
the ast
at z
tabular newline
Ġun like
de cla
ĠT own
UN D
Sh arp
pro c
Ġcontra ction
Ġacqu ired
pa ges
Ġre written
s phere
Ġcon sequently
ĠP age
Ġcent ers
Auth or
Ġb ond
equation s
ĠRec ords
Ġorth onormal
Ġutil ize
ess or
_* \
Ġcon sequences
Ġbro ther
er ed
}) \\
R GB
ĠIn formation
i ar
i pe
I Z
ĠH istory
Ġpul ses
Valid ator
re view
Ġarri val
prec ision
A udio
ĠCh annel
Conver ter
Ġa xiom
\, $\
in ject
Ġfall s
Ġb racket
ĠGL int
Ġun changed
ĠIs land
Ġ\ '
con struction
Ġtim ing
Ã£ o
ira ble
Ġdis plays
() ),
Ġphys ically
T eV
D u
* (
ĠP ass
or ough
stri p
W orld
Ġremain ed
F oo
ber s
I l
sh all
ĠMod ule
ic ial
Ex ists
it ons
lu x
Cal c
ĠCon text
s child
197 1
Ġstructure d
Ġtransi ent
Ġsec ure
Ġsupp ression
Ġutil s
Ġany thing
Ġparame tric
Ġsol ver
con c
)= -\
Ġsaf ety
Ġb tn
NO DE
Ġx hr
d w
Ġpuls ar
ĠS ing
Ġresearch ers
Ġman ually
w ater
ĠSt ream
Mix in
Const ant
p al
et c
Ð ¼
}= {\
ĠĠĠĠĠĠĠĠĠĠĠĠĠĠĠĠ Ċ
Ġfa ith
Ġto ler
Ġdynam ically
}) +\
Op tim
Ġproced ures
at ern
ist ing
Ġfo unded
/ {\
big cap
00 4
cont ra
ĠRo bert
] =\
Ġsta y
ĠA I
Ġexp ensive
math ord
mod es
50 9
Ġcardinal ity
c lock
ĠC hi
12 4
pre d
ĠRo ad
y o
Co mbining
Ġrecon struct
prevent Default
eder al
Lo okup
ĉĉ Ġ
D imension
lat forms
on linecite
Ġcondens ate
Ġ tit
ĠCur rent
Ġra ys
Ġb ath
Ġg rand
F ALSE
Supp orted
sub mit
Al pha
ynchron ous
Ġinher it
rac le
Ġimp lications
Ġpredic tive
Ġt x
19 68
cont inue
FI X
/ ******/
ĠS yntax
Ġi p
mat or
ole t
Ġr id
fra mes
ĠA mazon
ĠSch r
nav igation
illisec onds
ri ends
ĠS Ne
Ġsearch es
Y Y
us p
ap is
A U
N I
)} -
W in
10 9
ĠCh ern
ĠEx perim
F ake
r Vert
Ġretri eve
van ced
19 50
L ines
ff f
Al loc
Ġintegra te
Bu cket
Ġbi partite
Ġ{ "
Res olver
min imal
Ġle x
v b
Ġremo val
an cer
li ament
equival ent
Ġd ip
Ġsuperconduct ing
as ympto
Sh ader
}$. }
User s
( |\
urn ament
Ġdi versity
Ġtr ying
Ġparse Int
ĠSt art
Ġ' [
Ġla test
dif ference
Ġb if
su cc
] ->
ac cept
Ġrig or
Ġkn ot
Ġmethod ology
Ġevolution ary
Ġresi d
ĠI mple
av g
} ''
urn als
Ġ\ "
c x
P V
mat ter
ĠD ay
que e
Ġar tifact
Ġaccomp an
Ġb rought
Ġinterpre t
Ġreturn ing
associ ated
ĠL android
ĠD eta
ĠFR OM
SS M
lev ance
ar ound
differ ential
EV ENT
Ġexplo it
h is
ĠCour t
m essages
S ave
ĠU sed
Ġdeli ver
Ġhis togram
Ġre jected
tic ity
war gs
ced ure
Ġbehavi ors
rehen sive
L ight
ĠBy te
Ġatmos pheric
Ġsub spaces
Cap ture
Ġco ol
ĠC ore
ke leton
Ġin comp
Ġwall s
Ġglob ally
S cheme
Ġgraph ene
}} ^{-
ĠC lub
u table
ĠSc ot
Ġp ending
A K
k w
Ġb ijection
Ġimple mentations
ĠNe umann
la beled
ĠP la
> )
ed u
r ical
am ing
al most
\ ;\
le ted
AN CE
Ġsubstantial ly
Ġbal anced
' ]['
d ra
ĠDen ote
ĠE D
Ġauto matic
m ixed
in n
Ġquan tify
ĠC V
R atio
G reen
res on
Ġoff ice
Ġmon op
elec tric
li ps
ĠD S
ob ile
ad i
pi p
Ġt a
un ov
ĠK ar
le e
AT OR
Ġoccur rence
F uture
Ġg lass
Ġaz imuth
ĠEn gine
amp lit
Ġengine ering
Ġ(! (
t m
Ġwindow s
ĠP l
Ġcosm ology
Extension s
x ff
Ġreach ing
Ġtransfer red
+ |\
Lo aded
Ġtell s
Ġar ithmetic
asket ball
f an
Ġdist ortion
ol or
to gether
ĠM AX
Ġrender ing
Ġs napshot
Ġsmooth ing
19 69
)\, .
ff ix
Ġselect ing
do or
Ġs we
ind ices
Ġcho se
Ġmonitor ing
N ET
Ġa ctor
elastic search
g m
In sert
ĠP an
Ġatt ractive
Ġv ision
qu ar
ackn owled
ĠM ari
Ġeigens tates
n ail
API ENTRY
ter rit
ĠK n
ĠCan adian
esting ly
Ġvo cal
Ġde v
ac tivity
n as
lim ited
Ġsyn thesis
un ks
Ġindex ed
{ })
Ġran ging
St andard
ĠG ro
vi an
( ['
Ġs addle
e ks
Ġsp ent
ĠF ilter
ĠF ree
Ġg host
} <\
Ġover come
) ",
11 4
Ġassoci ate
}^{ [
Ġgreat ly
' ll
W hat
ĠCon vert
H u
Ġs ake
Ġ ~~
ĠR andom
Ġman aged
i math
Ġmer ged
Ġcomputation ally
SE LECT
Ġden omin
}^{ {\
Ġpossi bilities
ĠF ro
Ġ} ),
Ġprotocol s
Ġdiff use
Ġgra te
dis crete
i tation
Ġpreced ing
Ġpatch es
Ġin gre
block List
Ġax ial
ta s
ĠLap lacian
Ġmanif est
Ġdomin ates
Con v
Ġmo ther
ĠIt alian
Ġconcern ed
Ġmicros copic
Ġ$( -
ĠM eta
H I
qu bit
Class Name
Ġmultiplic ative
Ġb ilinear
limin aries
load s
Ġfill ing
set counter
reate st
A O
Ġshe et
Ġconsist ently
sp i
Ġhistor ical
Go ogle
Ġde vo
ĠC olumn
Ġre in
r times
g oto
con tact
pol ynomial
Ġch ampion
Ġbase lines
) ^*
Ġro ck
: `
sma sh
Me an
Ġpre liminary
ĠV o
\ },\
Ġtemp lates
ĠC lient
ĠN AME
Ġs ink
mark er
H a
tom ic
} &=&
Ġamb igu
ĠAfric a
/ $
12 1
Pre v
Ġdaugh ter
Orig in
de mic
Option al
Ġvir t
Ġdire ctive
Ġ( {
tif ier
er ve
Ġwor se
Ġsuggest ing
Ġcomplex es
is Function
Ġsci entific
i en
cre d
h istory
Ġph onon
g ressive
be a
son table
Ġc umulative
Ġpermu tations
har monic
C learly
F B
Ġf lush
xy gen
}: =
$ ^{+
var sigma
ra tive
Ġ\ ;\;
ss ue
E ven
L ang
Ġconsider ably
Ġla unch
ĠAfric an
}^* $
ĠSur vey
å ı
}) ]
ĠF a
normal ized
is enberg
Ġa coustic
ĠPo incar
Ġs chools
Ġin direct
Ġa fore
Ġneighbor ing
ĠMich ael
HE AD
pa ted
In formation
te m
z il
Ġat tributed
filter s
art an
W IN
g lu
territ ory
Ġbuil dings
No tes
ĠSym fony
Ġsh ot
DE s
ro bust
con clusion
Ġcri tic
OM E
Ġsupport ing
Ġwork ers
P b
po sitions
Re pe
au ght
ĠParameter s
Ġc ipher
Ġconserv ative
================================ ================================
Ġse a
Ġcomp iler
on ed
)}\ ,
T I
bel l
B V
o S
Ġw ife
ĠPhys ics
Ġin stit
ĠSupp ort
Ġv ice
lay ers
mu st
Comp are
ĠCal c
read er
Numer ical
Ġar ticles
Ġobvious ly
ĠMethod s
Ġplan es
ĠBu ffer
Ġref inement
B N
Ġs ch
Ġsing let
re verse
T w
\ :
ĠC he
s chedule
| $,
er cial
ick et
ĠP ack
aw iki
re main
ĠG lobal
bi ased
ĠRic ci
vid es
Ġcent r
b lank
Ġdele ted
Ġoccup ied
medi awiki
ĠW estern
it ness
st retch
Ġwork er
bal ance
s sec
A ct
Tr igger
)\ )
T erm
gr u
Ġb rain
es is
Ġdistingu ished
Ġ< -
Ġex clude
D istance
bar s
Ġd z
eng er
ĠH I
Ġcapa bilities
D G
Ġmon otone
Dec laration
Ġis n
T X
d B
rat ch
ĠPro f
ĠWith out
Ġmaxim ize
s tation
py thon
Ġcompu tes
In ner
t od
ĠB ay
F ill
ĠTechn ology
Ġsh allow
or ption
er gy
Ġlabel led
possi ble
Ġcomplement ary
K n
ad v
] ).
tern atively
Ġconsider able
mat ched
C ard
h ence
ĠRe ference
m v
) <\
Ġvehic les
ĠC orre
Ġpack ets
e th
} ',
ĠM edia
ĠC M
th le
Ġmolec ule
Ġde ferred
ag ree
con tainers
Ġfem ale
if iers
Ġar tificial
Ġhypo theses
Ġpo si
Ġend points
Sw itch
_{ *
ĠC ustom
v ary
ro tation
r aries
ĠB R
Ġsol ves
=" @
Lo cale
Ġfix ing
As sembly
ĠT er
g ar
Ġro les
) &=
Ġra d
= #
ĠQu ery
Ġopp osed
Ġdeco up
ge ometric
Ġadvan tages
Ġwal let
be am
Ġhim self
thin space
Ġbo oks
Ġf etch
-- ;
ĠM IT
Ġchar set
F amily
ĉĉĉĉ ĉĉĉĉĉĉ
] ),
Ġre pository
ãĢ Ĥ
al a
ric tion
Ġgra v
am ous
col sep
An aly
Ġphot os
Ġspin or
ĠF rank
12 6
} ')
Ġdevelop ing
2 30
Ġplace holder
u its
Ġ[ (
BOO L
Ġloc us
Ġindu stry
p ad
ĠSp anish
Mod ified
Process or
- |
Ġs b
ĠH ermitian
Se gment
19 67
riter ia
=\ "
Ġgu ess
h m
Sign ature
Ġme mb
par box
ĠM el
Ġ} ^{
eter min
X iv
ĠM I
ĠComp onent
Ġman ufact
ĠN LO
Ġconnec tivity
pg f
ĠRes Net
Ġquali tatively
17 5
Na N
Ġsign atures
Ġa part
Ġdeal ing
si zed
s tability
ĠĠĠĠĠĠĠĠĠĠĠĠĠĠĠĠĠĠĠĠĠĠĠĠĠĠĠĠĠĠĠĠ ĠĠĠĠĠĠĠĠĠĠĠĠĠĠĠ
umino sities
Ġinter faces
n od
U ST
fa iled
ut ch
_* (
ia tive
il de
ĠD NN
rm k
T ile
b ranes
Ġint en
ĠArray List
ĠN at
Ġcomp ilation
C u
ĠM atrix
un ched
ĠSta tus
w orth
$\ {
Ġelec ted
at re
Type Def
ĠJ e
' }}
[ [
ĠT imes
ici ties
IO Exception
ger y
ben ius
Ġrep ul
ĠConfig uration
Ġafore mentioned
C ut
sc an
Ġhund red
Ġb lob
al ert
App ro
Ġoper ate
no thing
- }
h size
( []
de precated
ĠI den
Ġmod al
pro gram
dis cussion
Ġint ui
Ġevery where
S hould
Ġnormal ize
S l
Re lative
Ġev olve
Ch art
Ġtra p
node Type
ĠI o
Ġdro pped
}) _
__ .
C are
Ġar cs
ĠĠĠĠĠĠĠĠĠĠĠĠĠĠĠĠĠĠĠĠĠĠĠĠĠĠĠĠĠĠĠĠĠĠĠĠĠĠĠĠĠĠĠĠĠĠĠĠĠĠĠĠĠĠĠĠĠĠĠĠĠĠĠĠ ĠĠĠĠĠĠĠĠĠĠĠĠĠĠĠĠĠĠĠĠĠĠĠĠĠĠĠĠĠĠĠĠĠĠĠĠĠĠĠĠĠĠĠĠĠĠĠĠĠĠĠĠĠĠĠĠĠĠĠĠĠĠĠĠ
Ġconcern s
Ġy ielding
al and
stit uting
ĠB C
Ġmo tivation
ĠRe al
Ġevery thing
Ġext ensively
ig er
Ġle ague
ĠN ormal
12 2
Se par
place holder
continu ity
11 3
as ser
Ġg rey
Run ner
high er
Ġstreng ths
(\ {
Ġvol umes
> }
L Y
Ġto ur
ar di
ri ers
R M
Ġtr ust
con vert
Ġlo cale
ĠĠĠĠĠĠĠĠĠĠĠĠĠĠĠĠĠĠĠĠĠĠĠĠĠĠĠĠĠĠĠĠ ĠĠĠĠĠ
Ġdiscre tization
Ġanalog y
y ui
th reshold
ĠĠĠĠĠĠĠĠĠĠĠĠĠĠĠĠĠĠĠĠĠĠĠĠĠĠĠĠĠĠĠĠ ĠĠĠĠ
on i
Ġcapa bility
pr incip
ĠM O
ĠT a
ore n
Ġsupp ly
Ġdise ase
ion ic
ĠY UI
Ġdep loyment
ee a
Ġbe ams
pa ces
P adding
p ot
g ro
Ġask ed
F it
. ',
ĠF T
Function s
Ġs po
Ġcli ents
Gener ated
Ġob sta
\, (
T aking
Ġe m
bo son
ĠChar les
me as
ĠP lease
ĠTex as
% )
redu ce
_+ (
Ġfair ly
p otent
ĠWARRANT IES
dis cus
}) -\
Ġquad rup
2 10
L ICENSE
0 10
Ġd op
ĠT ab
up s
Ġcol ored
/ "
ĠS S
Ġh our
Ġde veloper
o use
Ġfore st
ĠLand au
ĠVir gin
Ġvari ed
hed ral
Ġrela te
Ġ\ ;\
re land
Ġspar sity
k j
qu et
ĠP aris
lic enses
\ &
ĠG ib
Ch unk
Ġsto pping
eq no
igh test
19 64
Z oom
Ġse x
ĠM useum
Ġmo tiv
Ġcontinu es
Ġse mic
Ġscal ars
Ġtrip let
Ġdi verse
H older
16 4
Ġcollabor ation
li u
Ġ ----------------------------------------------------------------
Ġfootball ers
ĠT om
j q
Ġrender ed
P B
IF AR
Ġbec oming
ĠLo ad
su ed
Ġf light
ĠS pr
ĠR F
ĠL in
Ġir on
neigh bor
Ġbenef its
ĠB ound
) &=&
11 6
ĠL STM
pro t
L F
war m
ho use
spring framework
Ġtop ics
v ation
Ġsp anning
c A
Acknowled gments
ĠE W
Bu f
Ġch ance
Ġin ject
con ds
Ġsp irit
ĠB et
: @"
inter op
Ġsh rink
ĠS SL
c as
ĠPa uli
Ġ// !
la ins
Ġdra ft
Ġt re
Ġpla in
Ġeigen vectors
par ticular
Ġti ck
Ġincorpor ate
Ð° Ð½
Ġdevo ted
ĠR O
Ġleg end
Ġgra in
Ġk illed
member Of
ĠExp ression
=" ${
D one
? >
Ġdecision s
Ġsm art
aw are
PH P
. """
Ġ&& \
Ġreflect s
ĠSum mer
ev es
Ġ/ \
Ch en
Ġsee k
ĠAnd roid
ic ago
ri e
ev t
Be an
Ġp at
IL ITY
mix in
S a
Ġ' </
ĠE very
b w
define Property
Ġdecla re
T yp
Ġre ti
Ġgu itar
A UT
Ġsp anned
T uple
PRO P
acknowled gments
B ad
Ġvic inity
Ġbo otstrap
as hi
decla re
exp licit
ĠN E
ĠA ust
gener ator
listener s
Ġgra ins
Ġwin ning
, -\
u z
\ >
S ite
Re port
Ġ' @
ge o
ĠMin ister
ĠF C
}\ }
Per iod
co q
"/ ></
o ir
ĠM D
T ex
Ġexam ined
spac ing
lo okup
le f
star s
Ġinst anti
Ġremark able
Ġf abric
ĠM us
Ġsub sequence
Ġac tiv
ĠDe te
B us
l f
c F
Ġc ube
s cheduler
d V
ĠÐ ²
[ ->]
g b
if ec
Re gex
Experim ental
ref lect
K ernel
J y
L ow
ĠH opf
Ġfunction ality
Ġho ok
Ġtunnel ing
Ġun bounded
se gment
19 65
Input Stream
ep ler
N at
ĠR ender
Ġthrough put
er ved
Ġs aved
si zing
Ġpur ch
Ġperform ances
ĠChris tian
ĠJose ph
list ing
hal o
2 25
Ġb odies
M ay
Ġun able
Ġsh ortest
Ġsp orts
top ic
Ġbeli eved
f etch
bo ut
BP ACK
Ġimpro ving
ĠUn it
Dis k
Ġtrunc ation
A gain
ĠH al
Per mission
Ġclaim s
app ed
Ġpar ties
Ġappo inted
rop ical
ĠF OR
de legate
Model s
ĠReg Exp
ĠB esides
eps fig
Ġanno tations
Named Cell
)\ |
}= (\
Ġquad ra
Ġcontribu tes
Ġ( #
c are
cccc cccc
] /
ĠI d
Ġth ous
up dated
0 15
Ġillustra tion
Pri ority
Con tact
N AM
Ġop in
Con sole
ĠB lo
ĠGL enum
Task s
Mapp er
M ass
Ġ ^{-
1 19
}\ ]
ĠY ukawa
Sp in
COM P
constrain ts
d in
Times tamp
mcite default
H ow
LE TE
}| $
Te X
Example s
ĠT ree
Ge ometry
Listener s
Ġaggreg ate
MLE lement
b ol
g p
Ġsubstit ution
Ġmeaning ful
r ick
an cing
Ġcomm ercial
Par ts
mod ified
op ic
ential ly
var s
Ġfra ct
cryp ted
ĠSch warz
E u
Ġsp lits
Ġmoder ate
Ġneighbour hood
Ġgap s
Ġscatter ed
ĠP at
Ġexception al
te t
U TE
Ġvo la
Ġres ulted
Con sequently
Ġreview s
' d
interop Require
. ');
Ġup load
ĠS ingle
Ġy ellow
vi o
c C
cm id
row e
Ġv ec
Ġb rackets
ĠF L
rid es
im ity
ĠL ast
ĠLou is
Ġs ectors
Ġcomp ile
Ġdef ect
Ġutil ized
arg ed
ĠP eter
9 00
suffici ent
Z hang
K it
Ġfil tration
l is
ion ization
[ _
Ġdec ide
alax ies
an ded
}) /
Ġfun ctors
SV G
N i
atten tion
ĠM inkowski
Ġa de
Ġspect roscopy
set ting
ID TH
uns afe
task s
Ġper turbed
Ġsub algebra
re dsh
ĠRes ponse
Ġenter ed
cre ated
Co un
ifec ycle
Ġm igration
Co ordin
Av ailable
ĠM atch
Path s
ord on
control s
cmid rule
}$ }\
helper s
Ġimplicit ly
ĠT YPE
Ġstatis tic
si f
ĠS pe
ul ner
Ġlimi tation
lo ok
tan h
c ategories
Filter Database
c it
< !
w ik
FI ELD
trans action
udi es
ĠL ee
ĠC as
ĠT i
ĠFran cis
Ġauto ma
D ist
ĠLap lace
C ALL
Agg reg
Ġmini ma
Ġ\ }$.
Ġwar m
ĠD ouble
ĠV an
Ġparameter ized
r ust
ĠM pc
g row
Ġdown stream
scatter ing
Ġl iter
IM IT
Ġs old
al ed
Ġmer ging
Ġ( -\
Ġper mission
Ġfor mulate
AS H
Ġaggreg ation
Insp ector
spect ra
Ġcapt ures
Mis sing
Ġdro ps
gaz ine
}{* }{\
n ice
Ġm d
Ġpro mo
onom ous
exist ing
NavBar Cell
Ġtrans actions
t v
}) _{\
text ure
Ġpro mpt
N U
em ission
os able
Ġmes ons
$ |
pro vide
ĠSw ed
de code
ĠC amp
RE SU
al p
d dots
t ol
P latform
pe ople
abs olute
Ġal umni
ĠF ar
rup tion
fin ing
ĠF ootball
13 4
Ġcor ners
Ġa ware
Ġtrans mitted
Ġupd ating
$ [
D s
Ġe mb
lik elihood
Ġremark s
Ġg ather
Ġtrigger ed
}} ]
di amond
S ig
S PE
Al g
ĠOr ig
Eff ect
19 66
Ġjoint ly
sh a
max imum
Ġdesign s
Ear ly
ao tic
P df
c H
}} },
W AR
ck ey
C trl
mm ode
ĠS ymbol
Comp ar
Ġtim er
pro jection
Ġ Î
ĠDes pite
c rit
y si
fill draw
S rc
b ow
ĠS am
ĠSer ver
h p
erc ise
\| _\
Ġanaly zing
$ }.
Ġresidu als
Ġre ality
pre ceq
r uby
Ġre ar
u uid
Ġsub t
ĠN L
ĠC os
Ġspec ifies
D MA
Ġflexi ble
oth ing
Ġacknowled ges
ĠM B
Ġeconom ic
'' (
' |
We ight
Ġhand lers
im ent
ĠF rame
Met ric
Ġ Ñģ
Ġfiber s
Ġaper ture
bra ket
if mmode
th us
}{ |\
Ġgeome tries
ari o
\ #
Ġbur st
n x
m kern
ypto JS
O BJ
Ġd st
u ition
Ġman us
} </
Ġin j
oriz on
direct ory
lip se
Ġstatis tically
ĠOlymp ics
ĠAss uming
Ġcontext s
la ps
A ctions
}_{ +
- .
li ve
alle y
ĠH ill
id en
Over view
Ġfo od
**************************************************************** ********
Ġes cap
14 5
S ide
}\ !\
App lying
ĠB asic
Ġexceed s
S ibling
SY S
Ġh ous
dor ff
ĠTheore ms
Sym fony
over lay
Ġnor thern
L IST
ĠM P
Ġ" #
å Ī
co ur
V C
ĠRes ult
Dire ction
N s
Ġc row
Ali as
Ġcollection s
Ġaug mentation
w iki
)) =\
Ġinc lination
Ġcallback s
Ġpro gen
d yn
int roduction
" ];
Ġconf lict
y z
P ush
ĠBu ild
la ys
L u
Ġco ach
20 8
Ġgovern ed
Eng lish
22 4
U int
Ġa ircraft
ĠP ut
c M
ĠA v
umb nail
p unct
ĠP C
s tab
Ġend ow
Den ote
ĠH am
ĠF ILE
D a
Ġ[ {
Ġformula e
Ġout going
Ġth reat
n orth
ĠA ut
ĠLe ft
Ġpara graph
Ä ĩ
operator s
})- (\
Ġamb ient
Ġ ens
ĠApp lication
S napshot
Ġvalu able
ĠJ er
De fined
Ġtrivi ally
+ (\
cal endar
Ġo xygen
Dis abled
ĠF ace
Serial ization
Ġch amber
ĠBe fore
Ġstream s
ul ties
Ġperfect ly
K T
Depend ency
Ġcon fined
,\,\ ,\,\
Ġnormal ly
N orm
Ġth ing
ĠG rand
rowe ak
ĠG re
x b
Ġecc entric
Ġfa int
ĠType Error
Ġcoun table
Ġ uri
cur ves
ĠT aking
Ġste ep
new page
Ġmore over
Ġarm s
eck er
Ġt ack
di am
à ¤
chro tron
times tamp
tt en
Multi ple
Const raints
{( -
ce an
Wh ere
eff ects
initial ize
arge ted
t u
ong s
LE MENT
ut down
al lation
Ġel if
ĠF W
Ġs outhern
pt on
Ġno tions
ĠB ern
ent y
ar ab
ĠG rid
, ...
si mula
Ġclassif y
analy tic
Ġtren ds
d ynamical
Ġhe art
H al
G F
k u
\, ,\
o int
spec ified
who se
Ġsum mand
r p
Ġbe ta
fra structure
match ing
um s
Ġpar sing
ĠBol tzmann
comp uted
dire ctive
link s
UN T
l ife
ĠS il
ĠCar ol
Format ter
ĠIs ra
Ġmac roscopic
h ab
Ġsuper ior
EN ABLE
}- {\
getElement ById
rag ma
ig an
Ġlogarith m
ĠA C
Ġpla s
Ġch apter
con serv
ĠJ ew
ĠZe aland
F o
sign ific
ran ged
13 2
An gle
t ar
Ġt ro
Ġcomp rehensive
corre lated
Trans fer
der son
Ġre levance
Ġfor cing
in vert
def i
$ },
Ġconclu des
US ER
Ġsub jects
ĠAm ong
ro zen
Ġenvironment al
Ġl uminosities
Ġbif urc
ver tices
RESU LT
Ġout lined
experim ents
t ow
h ex
Ġp latforms
ĠC luster
Ġw rapped
int rodu
ĠDem oc
99 9
Q Q
bes gue
parame tric
ĠInitial ize
Ġoccur ring
T AG
Ġint ra
sh ots
Rad ius
ĠLib rary
Pro pagation
[ -\
Ġadj usted
me ans
vi ation
=" ">
}} /
ĠI sing
Set up
ĠL os
Ġrece iving
Ġexp lains
es tablish
mar shal
ĠA B
ĠDes cription
ĠS USY
Ġassert True
Ġres istance
Ġsh ip
Ġgo ogle
Ġs i
ĠR S
ĠS ize
$. \
G ate
A zure
ĠGR B
Ġimp lying
ext ended
Ġ& $\
du ctor
Ġdraw ing
Ð¾Ð ²
Ġinstruction s
+\ !
)\ }$
e ast
ting ale
Object Meta
conver ted
)/ (
Ġno tic
0 25
N M
ga ble
ĠCar tesian
atter y
Ġin jected
Ġ* */
Ġ! (
ĠCom mit
cript ors
char At
it ten
E mail
w art
Un iform
Nd Ex
Ġlog ging
second ary
ma ven
Ġre lay
ĠB on
Ġexpan sions
Ġnom inal
Ġretri eval
ĠIn st
Ġentang led
Error Code
! !
Ġ ].
ĠComp ute
Ġfif th
cut s
M aterial
p ub
is ition
local host
n k
u j
ĠSpec ial
Ġiden tically
redu ced
mo bile
CT YPE
H amiltonian
param ref
O wner
Ġ' ''
ĠOff ice
)} )$
Ġp itch
Ġprepar ation
Ġmin us
spa tial
Ġgeome trical
p ure
on ts
ĠC ong
Ġbackground s
ĠDe f
^* $-
Å ¡
equiv ariant
Ġse es
Ġor bif
Ver ify
base line
ĠL ater
Ġsimultane ous
d st
il lo
Bu il
Ġnor ms
B est
S em
f box
Ho ok
sp arse
Ġdec ades
Ġend ing
The me
Ġparen ts
Ġme dal
deriv ative
= %
Ġequ iv
_ +\
Ġelimin ate
Ġro uting
Ġs ensing
aus dorff
App ly
Ġpa tients
sub script
Ġa ges
Ġsta ts
ha o
Ġful fill
V ICE
Ġdecomp osed
c id
s lo
fra gment
Ġass oc
_ [
Ġis land
++ ]
Ġmer gers
bo ot
r x
Ġthread s
ĠL P
tr uth
ĠClo ud
c trl
normal size
Ġ- (
ĠD er
ĠR os
ĠR a
ĠOb serve
16 5
coun ts
{ }^
Ġc ulture
Ġcontinu ation
we ek
RE CT
des cribed
f uture
UR CE
comp iler
numer ical
adj ust
tr unc
road cast
mid t
ti e
sup set
Ġarti sts
n an
} ",
Ġbu cket
Ġreserv oir
ĠĠĠĠĠĠĠĠĠĠĠĠĠĠĠĠĠĠĠĠĠĠĠĠĠĠĠĠĠĠĠĠ ĠĠĠĠĠĠ
bi as
to pe
Ġs un
P OS
on Error
Ġv m
Ġtrans lated
g z
f older
Match er
ĠM i
x hr
ur er
per t
ig a
jec tives
Ġgener ative
) &=\
un known
us sian
Ġac ade
og eneity
c O
res sible
S lice
Ġf oli
15 5
min im
Ġthresh olds
s pher
necess ary
en vironment
Ġde code
Ġsuff ix
Me asure
av al
) &\
13 6
Pack et
HER E
vis ual
3 20
Ġsta ff
Ġ< \
19 0
En ergy
p seudo
Ġpl ant
M EM
WE BPACK
$. \\
ĠApp ro
Ġuni vers
Ġcertain ly
}[ (
Ġm unicip
rr rr
Ġen rich
}, {"
Ġheavi ly
In tern
stru ctive
b k
Ġcomp ressed
ĠIt aly
S tyles
h yp
Ġ' ');
ĠE ducation
& \\
ĠSe lect
si vity
unc er
Per formance
par ity
Ġoverla pping
Ġf irm
Rec ently
Ġslow er
ab ling
Ġextrem al
| (
ist an
]{ $\
S kip
~ ,
ĠS yn
L iteral
T a
h or
Ġf id
Ġcounter parts
A ff
L IB
ĠCh ild
w ere
Ġcareful ly
in voke
int en
Ġaddition ally
,- .
ĠR x
cell s
ĠDe bug
Ġrecor ding
M achine
) }}{\
inner HTML
Ġpre sident
ie f
' m
)$ \
ĠL icensed
ĠT OP
Ġround s
Ġv e
ĠG auss
ĠF lor
Ġfeature d
ĠCont ent
Ġrecur sion
decomp osition
Ġe duc
ĠTh ree
H ol
ph en
ĠL ET
Ġexp r
wo uld
size i
des cribe
c ub
en cing
D ot
ide al
AV E
me trics
no tify
aver aged
Ġti p
u ous
ĠI F
Ġ' )
Ġm oney
Ġsole ly
Evalu ation
ĠB lue
K er
Ġen ga
ĠCon ver
Ġcaus ing
ind rical
refer red
dots c
Get ter
glyph icon
bal anced
Ġdwar fs
Ġfocus es
Ġ\| _
ĠP ower
Ġun likely
... )
y u
ap unov
ĠVer ify
Ġthrow n
g c
AP P
le tion
V I
ĠL R
: -
Ġill umin
Ġn ice
T LS
13 7
Fact or
)] \
Ġre mn
Ġcomp liance
et ary
ĠJ ordan
tra ctor
so v
ĠMa the
Ġleg al
Par tition
run ning
ĠI reland
Ġmi tig
sh ire
Ġconcent rated
ĠF ra
M AND
Ġdestroy ed
hy dro
Ġs ter
Hel p
Red u
Ġsho cks
! (
Ġconfigure d
o la
ĠD C
ĠP L
ĠF P
ĠB us
Ġproton s
Ġ$< $
string ify
ĠTH IS
S an
Comp iler
B AR
preser ving
Ġreal izations
H F
Pre dic
Ġsta t
ĠC A
ĠA ctive
H ome
L icense
S eq
at ar
i vers
Ġkine matics
Ġb ank
C ross
defin ite
ĠExample s
ra ph
Ġs cheduling
ĠRad io
ques tion
Ġb urn
' =\
An chor
Ġquar ter
button s
ent ries
han ded
ste ps
< -
Back end
[] {\
Sec onds
f und
ĠO O
GL enum
14 3
ĠCh rist
Ġfla re
Ġpre pare
ĠPro p
as te
C ss
Pro blem
Ġcommu te
Ġa go
Ġf idelity
Ġo c
Ġen ded
}\ }_{
exp lo
ĠT ag
ĠP si
Ġed it
Ġw ider
Ġalloc ated
3 000
Ġsub tract
STAT US
' /
c ached
Ġsu ite
ER N
Set s
En able
14 7
M pc
Ġte le
Ġade qu
C annot
Ä ģ
Ġto String
En c
}) (\
ili pp
L java
Ġdesc end
be an
Ġconduct ance
Ġno tification
\ }^
interopRequire Default
)} -\
Ġcommu tes
Ġdiff u
Ġremo ves
Ġrecogn ized
ĠH ard
B reak
ĠI SM
Ġla unched
c mp
tab len
}) )$
mo ves
Ġnull ptr
}( (
C ity
Ġp reference
ysh ift
ĠC u
4 50
mathb in
Ø §
Ġpre pared
HO UT
Sh adow
0 20
Ġ` $
ĠSer ies
Q R
ĠF lo
ĠW i
B lack
nap shots
de veloper
ĠIn ternal
Ġm im
Ġs atis
ĠR R
Ġop tically
Ġprote in
and a
Ġsub traction
or b
14 2
Ġcla use
si ded
O FF
du ction
-> ,
Ġ&= &\
ch es
RE D
Ġparad ig
}' \
Ġpack ages
Ch anges
66 66
B ur
m ol
me mbers
Ġhydro dynamic
ĠSto kes
re mote
si tes
Ġ= ====
S K
Ġorbit als
}{ @{}
Ġbi ased
Ġdecla red
Ġg ir
Dec imal
Ġcontamin ation
00 6
(" \
S chedule
Ġdetect ing
Ign ore
y d
He alth
Ġpe er
ï¼ Į
con ditional
pp ler
Pre vious
Ġval ence
ST ART
x a
Data set
sk a
ĠCom mission
Ġfocus ing
ĠCon dition
an notations
ĠM artin
ll l
ĠJava Script
h c
Ġf an
sh aped
k r
Ġdete ctions
in ery
M g
amp ler
Ġg oto
Ġb la
M Hz
ĠG en
Ġparametr ization
» ¿
Ġde formations
ĠC T
Mer ge
o y
c tives
Ġ mp
Th reshold
Ġimp urity
Ġsuper gravity
to kens
ĠT yp
x c
D if
Ġspe ak
Ġdomin ate
Ġcr ypto
ĠF uture
ici ous
Ġse mis
Ġ lying
m tx
V S
ĠU RI
) ^{(
PT ION
type param
ĠRou te
exp onential
TR AN
Ġdes irable
Ġst roke
ĠPro perties
Ġpo ur
as ymp
ĠS ha
Ġun supervised
pri ority
ï »¿
ĠGovern ment
S printf
({ },
Ġh uge
Ġprodu cer
Ġon set
Ġtrans it
G H
Ġdown load
L IN
Ġtri ed
ĠB ill
ĠL ow
}^{ *}
Ġaug mented
se ll
Ġre semble
head ing
m ime
ra ting
Ġhand les
Ġrel ig
& $\
13 8
Lo ading
Ġsh aded
12 9
z c
Ġide als
Ġt we
Ġun e
ĠCath olic
v r
Ġwire less
ĠIn valid
ĠVir tual
O ld
Ġor ange
Ġs and
al ong
cal es
}, \,
Ġs lide
Ġ& +
ĠF i
Ġdescri ptions
Ġpla u
Comple x
Ġteach er
ĠF ALSE
^{ '
19 62
ran ce
DO CTYPE
ĠA U
ph e
Ġle ver
Pro c
Ġce le
ĠU s
ĠV ictor
Ġa warded
Ġbrowser s
ĠMajor ana
to s
p ick
Ġre fined
L ite
Ġneigh bo
E very
incre asing
Ġcomp iled
comm od
al tern
å ®
ĠG ame
Ġ} ));
19 63
Ġindex es
l int
Sub ject
Ġincorpor ated
Ġcor pus
Ġfra g
ĠÐ ½
vi et
}) \,
ĠName ly
] )$
Ġwh om
00 8
pair s
ĠJ ones
Ġde eper
Ġsto res
ch et
Ġmon oidal
Ġadvers ary
Ġrecomm ended
Ġ era
se g
Ġsol iton
Ġclassif iers
B ERT
Ġref resh
Ġpublic ation
tr ino
Ġro tations
ĠCh icago
ĠD ocument
get Time
| .
Ġre tain
I so
Ġinfinite simal
Ġdef ects
ORD ER
break ing
s us
Ġmorph ology
Ġe th
Ġsuper position
indic ator
ĠG P
ĠY ear
print ln
Ġ" _
ĠJaco bian
consist ency
ĠMax well
Ġ ĉĉ
ĠC lear
K w
| +
IN ST
ĠN i
} &=
] }(
ĠFe ynman
tis tics
Ġf loor
amo unt
umin ous
y i
k ine
Ġspher es
U pd
F ore
Ġgradu ally
Cont ract
Le ftrightarrow
Ð ¿
S afe
coher ent
ĠL anguage
Ġpol ymer
Ġulti mately
urb an
Ġto urnament
00 7
Ġmach ines
b idden
off s
ran ts
Ġdimension ality
Ġtra pped
ATTR IB
Ġ$ >
Ġsuscep tibility
Ġno table
RO C
Ġrender er
Ġp t
Ġprincip les
ĠIl legal
T ilde
Ġsco red
tex tarea
Ġf amous
Ġconstruction s
Ġc yl
Work er
Ġt ube
ĠL S
ĠG AN
In tegra
ent ang
i pated
s olutions
| |\
ĠP res
}}$ -
D id
O racle
13 1
ĠOp tim
u in
Table s
ire ct
Ġsucces sive
ver bose
Ġs el
Status Code
par k
get Instance
pr ise
clu ding
lim inf
sw ap
co des
ĠHe isenberg
Ġex terior
Ġansw ers
ä »
Ġexpec tations
P t
Run ning
Comple tion
Ġrest ore
esti mated
Ġaccomp lish
ĠH z
ĠR ow
ĠK E
ĠBo ok
Ġdiffic ulties
) ?
Ġabsor bed
Ġno tes
Ġmultip lier
Ġc fg
Ġpiec ewise
ĠHen ry
}$ \,
G ame
Ġauth entication
Ġh ist
pre pare
writ ing
bf series
imple mentation
le af
class ic
ĠO N
ĠDire ct
ĠTh read
Ġmeet ing
ĠC er
Ġcompe titive
Ġc lin
ĠM ont
4 000
ta tors
Ġd ans
Ġvisual ization
ĠTe lescope
Tag Name
Re place
char ts
Test ing
mak ec
f w
me l
ĠAn ge
Ġin complete
igh th
ĠE P
f ib
ĠN C
Ġde precated
nit ude
ris on
Ġunder go
Ġresi due
view port
Ġpredic ting
au er
13 3
Ġmanus cript
Ġor acle
E W
)] $
To ols
redsh ift
w ind
P ic
to grams
ĠSer ial
Ġf older
Ġwe eks
Co mb
Li u
n am
allow ed
button Element
hed ron
be zier
ĠJaco bi
Ġgain s
Ġsub strate
D ITION
__ ,
Hash Map
M argin
Ġra m
ip edia
Ġj obs
Ġcross over
ĠA F
lic as
ĠH as
ps line
\! -\!
Ġcross es
le ad
AR G
Ġma ppings
ĠH om
render er
] ^-
o tic
Ġanten na
Ġd ash
s ent
bar d
[ ][
ĠCla im
onal d
Ġpoly gon
Ġf riction
15 2
rt l
ĠL ake
Ġev olved
Ġacceler ated
Ġan onymous
Conn ect
V s
m g
in der
DE D
go v
; ">
d up
x z
Ġmag n
p v
M AC
rain s
ĠMex ico
Fatal f
ĠD IS
M al
Ġcons ensus
Ġa w
as is
Ġoccup ation
Ġrecur sively
var nothing
Ġb io
à ¸
ĠCent re
> ()
ni pp
Ġcar ries
Ġsub scription
der ived
an ted
ic ations
ĠK illing
ĉĉ čĊ
ĠThe ory
(" #
col lect
CON FIG
fol io
R ic
ess aging
Ġabsolute ly
19 40
in son
Key word
y mous
Valid ate
Ġprote ct
> `
Ġins ights
& +\
y ellow
re co
Ġw ild
;\;\ ;
K B
O ri
un a
Diag nostics
E t
Ġ} }\
box times
makec ell
I mages
ĠE ND
U Int
Ġun expected
til lation
ĠC FT
RE T
Ġlear ns
be en
ĠB P
big wedge
Ġemplo ying
}) }$
Ġpr ono
C ent
ĠP H
vec tive
[ $\
ĠP lay
- )
Control s
Ġinv est
Ġcirc uits
LO AD
Ġdenomin ator
/ #
Ġfe el
Ġerg odic
File Name
16 8
Ġir relevant
pa int
ĠF und
Ġis omorphisms
Ġaccept ance
au i
effici ents
}\| _
40 4
/ (\
ĠM R
ĠUn like
Ġaltern ating
ĠĠĠĠ čĊ
Mon itor
Pers istent
b h
the ad
\/ }
Ġrela tivity
rop ol
pack et
Ġpropag ating
Ġoffer ed
sk in
ĠLe besgue
ĠCon structor
experim ental
ĠL I
Ġaccording ly
ph rase
Ġst retch
mbin ation
{ ,
Ġte x
S en
Ġnon empty
x f
V D
el li
Ġe ye
Ġman ual
ok ies
se ed
Ġs ig
Ġ) ^
IN VALID
ĠVirgin ia
Ġa ster
Ġho pping
}( [
og gle
ori entation
od rom
" }
Ġestablish ments
Sec ret
Ġc ensus
ang les
Th roughout
IM E
Ġch aotic
Ġincreasing ly
}}\ ,\
Ġc c
Ġsure ly
Ġvalu ed
, {
Ġtheore tically
EN V
a head
e u
classif ication
Ġint uition
^- (
S el
Ġtr ick
Ġs coped
si mulation
ble ms
ri tical
ĠLET TER
ian o
til ity
ros sed
ĠM W
i u
S ys
ĠH E
ĠRich ard
Ġf lip
it an
Ġphenomen ological
vi olet
au g
ĠE S
u ated
bu la
ble s
ĠI ll
fail ure
amplit ude
0 11
b ases
Ġex ceptions
St ub
ĠWIT HOUT
ĠD et
Ġdep ic
Emit ter
=" '
ĠW in
temp t
Ġm ig
Ġener ge
Ġmo bility
ĠD MA
tain ment
ĠS end
ĠM yr
Res ize
ni k
ic an
Event Args
] -
c P
ĠH u
Ġser vers
i per
ic z
ĠIntern et
ĠG alaxy
ver ify
IN IT
Ġhigh lighted
Ġmemb rane
dis tributed
Ġcomp ares
Ġfix es
' )$.
ch apter
ĠĠĠĠĠĠĠĠĠĠĠĠĠĠĠĠĠĠĠĠĠĠĠĠĠĠĠĠĠĠĠĠ ĠĠĠĠĠĠĠĠ
Ġent ering
Ġsub tle
vis it
date time
Ġad verti
cap ture
Ġent ers
s gn
ĠSo bolev
us ual
Pr imary
Ġlemma s
Su ite
ĠL ife
ĠE sti
se conds
F oundation
Ġb igger
Ġelect roweak
Ġprocess or
Spec ial
ct ree
j l
Ġpoint wise
ĠComp ton
Ġretri eved
> [
, '
B ro
ref ox
so uth
Ġcon gru
Ġplanet ary
)= {\
read only
b la
tag Name
* [
Module s
ict ures
app ing
ĠModel s
Ġrout ine
ĠS ample
T ensor
BA SE
ma trices
Re ason
lar ger
' ve
ĠRec ently
Ġan tis
ĠIm mutable
Ar ch
Ġ\ [\
Ġarti st
Ġde part
}{! }{
Ġ= ========
Ġcap tion
}| ^{
Ġflo ating
Ġis ometry
Code c
| ^{-
Ġvor tices
Ġencounter ed
temp oral
on to
Ġabs ent
=" $
ug by
SC RI
19 30
Ġreal ize
Ġcon vers
g lob
ĠBu il
ta ched
20 2
M il
L and
ĠArg ument
pro vided
refer ences
Dire ctive
po ut
Ġcalc ulus
Ġfore ign
Ġhost s
Ġd aily
dist ingu
TIM E
ĠGener ate
c table
Ġpers istent
el le
Al ign
Ġcour t
Ġour selves
Plan ck
ĠA M
Ġindu ctive
IMP ORTED
ĠQu antum
coordin ates
0 12
W ill
Ġfre ely
Ġreg ret
mis s
Ġshe aves
ĠH odge
Ġequ ip
Ġda mage
Ġepis odes
uff le
Ġscreen ing
Ġv ulner
str ut
ĠLab or
Ġax ion
ĠP SF
const ants
comm un
ĠS cal
] &
Ġper mit
process or
Ġaccep table
Ġatta cker
Ġinstant aneous
Ġopportun ity
D ash
P W
Th ree
Ġun ified
Ġpolitic ian
Ġ? >
jo urnals
Ġn ano
cyc les
Ġs igma
ĠF re
Spec ifically
PR L
Ġin homogeneous
Ġt s
bl ur
ĠSec tions
Ġre current
f lip
)} ;
Ġf ight
super script
pp ers
inter acting
Ġsubstit uting
}+ {\
id ae
C UR
E instein
Ġmark s
redu ction
do jo
arab ic
H W
Ġpas sive
Ġhum ans
p ragma
Rec ur
Ġvis cous
ĠG od
si x
pro ton
UM ENT
pe g
Ġcol on
ĠT ake
Ġs a
yl van
follow s
Ġcontradic ts
P atch
Ġsupp osed
ĠPro vince
g ot
Ġen for
ĠDE FAULT
row ave
Elements By
ĠP S
), $$
ĠFro benius
ĠC irc
Ġprote ction
Ġch e
Ġin d
tab colsep
Ġmulti variate
Ġnil potent
Ġaut orest
general ized
t re
ĠNS String
Ġbe have
or tation
ĠH art
Ġoptim ality
air s
asp ect
var kappa
w avelength
Ġschedule d
P F
Ġex posed
Ġsearch ing
Ġh its
den sed
Dec oder
Ġlinear ized
llig ence
Ġim m
manif olds
}\ }$.
S ources
ĠB ir
Ġis t
Ġs la
ĠGe org
align at
ĠAl low
G ui
Ġoff sets
N F
text subscript
x p
oc ab
0 30
ĠF ixed
af ari
qu oted
s ight
Ġquas ars
he at
acc uracy
Ġspecify ing
ĠSci ences
Ġp al
Ġmultip lied
ĠR ange
es sian
ĠF act
Man agement
at um
F IN
un ger
Ġmain tained
tif ies
Ġdist ant
GL uint
Ġdifferent ly
P ages
Ġdist urb
Nav igation
\ })
}{! }{\
Par tial
ual ity
ĠK IND
Mo unt
... </
] ];
n ic
ular ity
Ġlept ons
j ump
block s
Ġm otor
th ird
Co ord
ad ditional
Ġown ed
ssif ication
ĠL ight
ĠObserv atory
AR D
gra ined
We ek
Ġdecomp ose
Dest roy
Ġ($ (
Ġtri es
ĠD L
ordi al
2 60
un its
Ġhyper surface
Ġw arp
}\, {\
And roid
P an
Ġcur ved
; )
ĠCon v
" |
AT URE
ĠJ son
Ġsyste matically
clu sters
() [
P al
Ġim mer
at op
(' ../
rou ter
e ither
ĠTe am
coup led
String s
Ġsyn chrotron
e o
T W
Ġbeh aves
} ].
ĠOp tions
ĠP hi
di ver
ĠJ ust
ĠO ffic
ĠK err
CE SS
tab ilities
x u
B K
19 61
Ġser ving
Un til
ĠS everal
Ġv ict
Ġazimuth al
ad am
ĠW ood
B ri
f lo
de mo
FA IL
es tion
ĠApp lying
Cer tificate
Ġp ed
be havior
Ex it
Sh ift
ĠBra zil
Ass uming
Ġball s
Ġclass ic
Ġcar rier
t ang
uni versal
od inger
ĠPol y
Ġ" [
Ġsyn thes
Ġb ag
an no
od a
Ġob servers
Exec utor
V T
' _\
}+ (
Ġidentif ies
Ġplace ment
ĠStr ucture
20 4
ĠC ra
ĠUn less
ĠT D
Ġ( `
Ġpol ice
jec ta
Ġwrit ers
Ġco dimension
to c
ĠAd am
ES P
Un expected
Ġinstr uments
rotate box
ĠGL uint
v y
ĠO ld
Ġjump s
Ġs ender
Ġspont aneous
j u
Ġfamil iar
Co okie
sim ir
ĠD CHECK
En code
33 3
Ġro utes
reg ions
Ġmer ely
Ġaver ages
j d
Ġimplement ing
M or
ĠC IFAR
appro ach
j us
19 20
Ġden oting
w i
Ġb ol
Des cribe
andid ate
B ACK
Ġc ls
ç Ķ
+ {
star ts
= ~
TE M
Ġwin ds
, [
Ġ Ã©
Ġ( ;
ag greg
W rap
Auth entication
Ġd ict
Ġc as
Ġtun ed
Imple mentation
Ġ* _
Ġav ailability
ĠP M
c ert
Col l
Ġdiv iding
mis sing
2 80
Ġsk in
b z
ĠTok en
** *
24 5
Ġlist ing
}} )$.
Ġen jo
Ġs n
13 9
Ġvi ol
Orig inal
Ġne ga
co okie
dete ction
Ġh ab
Ġcol lege
SO URCE
Ġbul ge
cur l
expand after
Ġachiev ing
Access or
du ality
- (\
Ġachiev able
ĠGal ois
Ġr c
Dis tribution
Ġfac ilities
= >
ĠUn fortunately
CH AN
Ġconclu ded
Op ts
Hand lers
Ġpropag ate
a be
Ġvers a
ction al
Ġcer tificate
Ġin come
ĠA DC
ĠD ar
rint f
al though
ĠM iddle
b ach
function al
bu cket
ĠGL sizei
H AND
}_{ [
oper ative
Ġparametr ized
Ġdiffe omorphism
Ġfunction als
Ġ' ./
normal ize
ar ma
Ġsub stitute
ici ans
i ma
form ally
Ġn u
æ ľ
d R
}^* \
W H
use t
: /
P icker
Ġex pi
R D
Ġc ivil
g if
ĠSh ared
' )}
im als
Ġac commod
vary ing
domin ated
M ills
no ulli
ĠSec urity
ĠPri vate
L STM
Ġsay ing
Ġ _\
{\ ,
ĠB ERT
Ġna ive
Ġqu iver
non ymous
T s
er tion
Ġcopy right
Ġf ibration
ĠD ig
uzz y
}/ {
, ~\
^- _
Ġconj u
co ords
Ġ" )
S mall
J ECT
Ġpublic ly
id ity
H orizontal
o pp
li on
Ġconjug ation
es sions
ĠD own
Ġgeodes ics
Ġe pi
m ond
17 6
> =
P ress
R ank
Ġw anted
ĠC MS
v t
ab ilities
Ġde b
Ġlib raries
ĠS ky
value Of
ĠG yr
se cre
ĠTR UE
hel lo
Ġacc ord
D ro
ime ter
Ġtor ic
ylvan ia
ĠD ep
ĠDe velopment
G ER
` )
R eq
N GC
ĠH on
i tations
Ġp ec
c ies
S ing
gener ation
ĠAr ts
down load
q r
u tational
ĠNAS A
p ed
Ġrelax ed
IN DEX
Ġt err
Ġrobot s
to ur
inter po
Ġto ggle
sur faces
fin itions
ĠSec ret
ĠCon f
Ġastro physical
ĠSI ZE
ĠI gn
Ġprim es
_{ |\
ak ov
F LO
ĠP U
ĠB re
Ġmo vie
Ġa str
ces sion
a gain
Ġle verage
sty les
Ġellip tical
W il
ĠA ST
Ġlabel ing
~~~~~~~~ ~~~~~~~~
M ASK
d S
Ġqu ench
Ġrandom ized
st udy
Ġfa ult
ĠL arge
H am
ĠB ul
Ġ' {
) })\
> ';
Cont inu
k wargs
ĠE valu
Ðµ ÑĢ
lation Token
å Ĳ
er ce
ĠIn di
ba z
ir ically
In struction
temp orary
Ġconf inement
( /\
ci ent
Ġw ra
Ġe lev
'' \
}' (
RE S
coll ision
\ (
en te
and o
Ä į
-- )
lec tron
pa tive
ĠU int
ĠLa bel
Ġgrate ful
Ġmut ually
observ ations
Ġinser tion
Ġheter ogeneous
P ending
Ġfra gmentation
Sub scri
Ġfair ness
}} }_
ĠRo ck
Ġbl ur
Ġd ic
L I
Ġpres cription
station ary
structure d
ĠGo od
ng doc
ĠFil m
View s
Ġexplan ations
Ġsuc ceed
com ments
)( -
Ġp lease
ĠC at
19 45
AT CH
Ġsynchron ization
ĠHe alth
yn olds
ĉĉĉĉĉ Ċ
al ways
Ġhel icity
ĠLat in
C reated
q a
ĠH O
B on
Ġ. =
ĠHe ad
Ġreprodu ced
experim ent
Ġpl ans
ĠA la
Ġquadra ture
> ',
v let
ch anging
Ġmay be
">< !--
Ġvis ited
c L
pi pe
19 59
Ð° ÑĤ
l ds
Ġlet ting
ĠAnge les
EE EE
14 9
Ġfacili tate
ĠN et
B LOCK
) }_\
sp ot
ho ur
For ce
ĠLo op
19 5
c ot
Ġ} ^{\
ori ented
ta ken
)= (\
clo sure
ne ed
cept or
Ġeigen functions
å ħ
ĠC ast
Ġreg istration
Ġquas ar
C AP
M i
comp atible
Ġsc enes
ĠF I
e lect
as m
Ġm ild
Ġcondu ction
Ġprox imity
ĠLo ve
N UM
hi er
Ġtri als
ĠEn able
An notations
Ġsever e
Ġinher ited
WA RE
ĠW ord
ag nostic
Ġcatalog ue
Ġtechn ologies
Link ed
Ġb asketball
123 45
ĠN ative
Å Ĥ
Ġdecay ing
ĠAlex ander
PI X
Ġmembers hip
T ake
Ġpa tient
ĠMil ky
}} }_{
Exp ect
ĠSt an
uri ous
Ġfid ucial
p is
m q
diff usion
ru it
R en
P unct
19 58
rit ing
| )
Ġexper t
later al
w r
}| _{
Ġbi ases
Ġadmin ist
K G
iv ot
}' _
her ence
Ġco vari
ĠP ac
ĠĠĠĠĠĠĠĠ ĠĠĊ
Ġper man
Ch apter
Ġimp er
mes h
Ġp sy
decre asing
s ph
is ations
//////////////////////////////// ////////////////////////////////
ferm ion
Ġ river
D on
Ġsing er
ĠI SO
') ).
ĠChampion ships
Oper ations
Ġ/ ^
ĠU SA
exp ec
M W
V A
Ġde formed
ĠS at
(" .
Ġl ives
ĠFlor ida
- {
ĠF our
Ġreg istry
Sign al
M aster
Ġgain ed
possi bly
Ġse asons
end point
b log
Dec l
ens en
ĠG ar
ĠF isher
ĠP os
Ġob s
Ġin dent
Ġcontribut ing
Block s
R ound
In line
g un
ĠWh ere
Http Request
Ġrigor ous
Ġconf usion
ĠCh ange
H K
15 8
ĠImp ort
Ġsto ck
SS ION
= &\
We ak
ret val
c S
slash ed
ĠCommit tee
u f
ro se
Un defined
Ġe dition
Reg Exp
ph istic
Ġmodel led
19 57
comp ar
Con sumer
Ġdig its
Ġcol ours
observ ation
Ġe labor
it ched
Ġparadig m
j an
de m
ĠD FT
Ġn omin
ext ract
Ġtemp orary
add plot
Ġconj unction
ber ger
Ġintersect s
is tically
ĠH ome
array stretch
Ġelse where
Ar rays
Pers on
ĠAL IGN
Ġcra sh
}) )\
Output Stream
ĠH ub
g est
Ġful filled
ro tt
! \!
^* =
ĠS hould
Ġal i
.&.& .&.&
, +\
' }(\
W OR
}. )
ec ke
ul s
N ONE
g A
Ġv ote
dimension s
integra tion
20 5
F un
F etch
Ġcyl indrical
tis m
Ġvo ice
Ġs lices
ĠFor mat
= |
V O
p ow
ri age
{$ {\
Ġclu mp
small er
Lo gin
Ġfra gments
ĠM ur
v x
Ġact ors
o ured
L ap
R P
Ġthis Arg
Ġacqu isition
esti mates
ĠC ache
? (
B et
m x
Ġclo sing
ĠEn ter
Ġdie lectric
) }^{\
ĠL F
ĠSa int
ĠLog ger
divid ually
C Y
c X
Ġinvestig ations
vis or
H idden
Ġview port
Cal led
ĠĠĠĠĠĠĠĠĠĠĠĠĠĠĠĠĠĠĠĠĠĠĠĠĠĠĠĠĠĠĠĠ ĠĠĠĠĠĠĠĠĠ
*}[ !
Ġ( ``
Ġvir ial
Fig s
channel s
Ġconver gent
ec lipse
Ġf ired
ch est
ĠRun time
{ ``
Pop up
fin ish
Ġt al
ĠA ccess
iv ari
Ġcasc ade
A verage
Ġinflu enced
M id
text superscript
Ġev olves
Ġsw ap
g ences
ĠU SE
CRE ATE
ad apter
Ġexplo sion
ĠÐ ¸
EO F
| >
syn thesize
Ġmus ical
O W
ME SS
pay load
ĠM Hz
m ers
ĠMin istry
UR N
cap s
Ġinsp ection
Ġpec uli
B en
ĠCheck s
Ġ\ >
ĠG reek
ĠC amb
ĠE ff
Ġsc oring
Ġc lon
ĠM N
Ġcent roid
Ġfib re
ar o
d jango
Ġf inger
to Equal
g f
% "
Ġh op
ula tes
ĠU AV
ĠW D
por ation
Tra its
ĠSub section
Ġarrange ment
mag ne
Ġtr iggers
lec ular
Ġrela tes
div ision
s an
lass ical
ĠX ml
Ġe mber
}) ^\
sh are
Ġtermin ology
@ {-
ch rome
Ġgu id
ĠSet up
Ġ$ *
Ġflexi bility
Fe ed
Ġ* ,
k T
NN s
ĠT ensor
}] $.
En coder
Match es
16 9
B UI
Ġtool tip
Ġcalib rated
ĠSpa in
bul k
em is
ĠF M
ĠAd min
). \]
TEXT URE
Ġtrans lations
H ard
ĠRus sia
Ġmonoton ically
re ach
Ġinclu sive
ĠHistor ic
Ġcomp oser
Ġelectr ical
23 5
H A
hi b
mark s
Ġturn ing
Ġpart ners
NG TH
es sed
Ġobe y
ĠJ ack
Ġfaith ful
Ġpo oling
Ġfila ment
Ġquo ted
* >(
ĠM as
Ġch rom
ĠDes ign
Ġh ull
N il
Ġ[] *
ct xt
strate gy
ĠF ull
Ġexhi b
Ġeigen vector
show s
Ġa ward
root Scope
Ġassess ment
ĠC y
ĠI tem
Ġman age
measure d
Ġv ast
32 1
Im mediate
ĠExt ension
decor ation
23 4
r h
st derr
Ġme ant
)=\ {
ond o
ns ylvania
ĠB and
state ment
ĠNew s
ug u
ĠPar liament
Filter s
38 4
c ision
18 5
Y au
y ang
Ġc ities
Ġhelp ed
su c
reg istry
Ġlabor atory
ĠL inear
go ti
ĠA ri
og on
IT ER
L B
ĠLe gend
atri ate
Ġsmooth ness
n f
ĠP osition
Ġo u
Ġ\ {(
if rame
I o
ĠCh apter
Ġwal ks
get Id
3 75
LO C
ar Xiv
ĠSchwarz schild
19 56
Ġinv olution
ĠPr int
: %
ĠP A
w u
ic ing
Ar row
Ġto wer
Ma jor
ĠĠĠĠĠĠĠĠĠĠĠĠĠĠĠĠĠĠĠĠĠĠĠĠĠĠĠĠĠĠĠĠ ĠĠĠĠĠĠĠĠĠĠĠĠĠĠĠĠĠĠĠ
ĠN ash
Ġas ynchronous
Ġion ized
there fore
wide text
o vian
Ġg ender
Ġpri ors
Ġy r
Re lation
per cent
Ġoff line
Ġ )}
Ġ\! \
! }\
H V
ĠE RR
Ġev t
has Class
Ġs quee
press ure
Ġse g
G RO
\ }}\
Ġquanti zed
ĠH elper
re ver
Ġweight ing
S lot
15 4
Ġdeploy ed
IS O
in ser
Ġanno tated
reat er
ĠF estival
ĠValid ate
co uld
c ube
Com mit
a belian
mm ar
log ging
` :
re ds
File Path
esti mation
ĠRes et
Ġdecre ased
C lean
In stead
Ġdist inction
& -\
b end
Ġinten sities
ĠA wards
Ġsynchron ized
le igh
ĠD ifferent
Ġimp osing
14 8
}. \\
radi ation
equival ence
ou g
Ġequiv ariant
Ġsto ps
g alaxies
Ġadjac ency
inten ance
: $
se x
15 00
ĠAd ds
Ġreason ably
Ġdedu ced
}, $$
Ġneur on
ĠT im
ĠI rish
K P
us age
Ġuns afe
ĠE C
Ġnon local
Ġsatellite s
2 13
ĠRet ri
ac tivate
ma king
ĠC ard
-------------------------------- ----------------
Ġp unct
B st
ĠÐ ´
ĠW omen
Ġact ress
ĠK al
Ġtimes cales
ĠR C
ĠAdd ress
Ġann ual
ĠF la
Po isson
S PI
Ġc s
SH A
P ref
Ġpart ner
ĠAt lan
Ġstr m
11 11
Ġpass age
Fil ms
in frared
Ġappropriate ly
": "
T B
ĠK epler
S ect
ĠAt tribute
Ġ( ((
ĠSet ting
Array List
Ġout liers
ĠWith in
Ġorbif old
Ġ{ %
Ġkn ots
}} :
UE ST
o led
ĠU l
Ġback bone
ĠN umer
Sta ge
Ġco okie
Re view
gle w
AC H
Ġd ates
Ġw itness
w alk
ass andra
L im
Ġevalu ations
Ġm illiseconds
ĠDev ice
AB ILITY
Abs olute
ber ts
16 6
ouse l
R IGHT
ĠH ausdorff
dete ct
Ġlong est
asympto tic
re call
sto chastic
Ġvocal s
O k
calc ulate
forma tive
^* _{\
Ġd B
Ðµ ÑĤ
^ ^
ĠN avy
Ġr s
cover ed
du mp
xi ma
Å į
AB C
ĠCon struct
op tical
Ġcomm ission
Ġhyper plane
R ay
Des pite
on ym
ĠM IN
Ġfe at
b ands
mag nitude
ĠT F
vis ibility
dis per
Ġal ert
g ui
Ġstream ing
w b
da ble
Ã© e
Ġ" ${
ĠB E
ĠW ill
Ġg reedy
ĠN ull
Ġdis app
Ġ" );
L ee
h it
con trib
Experim ents
Ġco ast
ĠF inal
EEEE FF
ĠD a
Ter min
ĠF ore
Ġpoly tope
n of
to ctree
ĠT raining
Cla im
{- }\
ĠS ir
cp u
mac ro
ĠPa per
Ġs al
ĠO ri
h fil
il arities
no tes
Ġ$ {{\
ĠT rack
Ġtoler ance
Ġbi ological
Rece ived
c z
align ment
ĠM g
ĠC artan
ĠB ank
Ġeccentric ity
ĠP ublish
Ġhel ium
Ġpr ices
] },
ĠRe p
Ġs me
cal ling
ĠS ocial
Ref lection
Ġsat urated
Ġins tabilities
Ġsepar ating
W ave
asi bility
Ġth orough
re store
14 6
avi er
Ġcryst als
Ġsum mer
con ven
gal actic
22 2
s low
po les
Qu antum
tif ying
Ġpuls ars
H ide
hi o
ĠLag range
ĠD P
ex c
Ġoper ational
b urn
ival ent
Ġback end
x e
gr ic
H iggs
S un
ĠLy apunov
S ha
ĠBo ard
ĠD raw
.... ....
ay a
ĠB at
ĠNor thern
); \
Ġir regular
Ġv ac
^+ }
ĠÐ º
p et
w ild
De faults
theore tic
emp lar
Ġdec imal
+ }$
ĠW ales
Ġsh ares
eler ation
A IN
14 1
Ġde mo
L android
ren ces
ĠCarol ina
in ver
}& =\
ĠCon tainer
Ġadap ter
Ġbelie f
o tes
Sta tes
Ġrenormal ized
ipher al
re po
adap tive
}} }(\
S FR
Ġe jecta
}) ();
Sur face
il st
ĠB AS
t rac
ĠD ie
number s
W o
gre gated
Ġconstit ute
LE NGTH
Rec ords
}$ &$
a ult
Ġmultip lying
Ġge o
ĠJohn son
Ġre dd
di e
Ġ( %
Ġspe aker
Ad ditional
+ "
Ġph one
R PC
Ġfac ility
-------- --
et ero
Wal let
Ġartifact s
Ġcan cer
ves tig
Ġreli ability
r us
Ġlo ve
ex change
~ .
ĠFW HM
N ING
19 6
k p
ĠT our
Ġmultip ly
Ġambigu ity
Ġla g
,\ ,\,
Ġf riends
g cd
W ords
it eness
Ġbur sts
CC ESS
ĠEmp ire
IC Ag
IM O
M n
Ġslo pes
Ġexclu sive
ĠA str
Ġsub system
ĠAd ded
all enge
Ex cel
ĠPh il
Ġ(! $
}[ {\
Ġa ria
Ġ" >
Ġv ibration
Ġfund ing
r q
Ġland scape
Ġt argeted
du st
At A
Ġcarry ing
ĠĠĠĠĠĠĠĠĠĠĠĠĠĠĠĠĠĠĠĠĠĠĠĠĠĠĠĠĠĠĠĠ ĠĠĠĠĠĠĠĠĠĠĠĠ
F ar
key Code
Ġprim ordial
O RE
X S
ivari ate
With in
Ġhol ding
C over
par ty
pr ice
}. \]
ĠS itter
RO W
S everal
pro pag
Ġrank ed
Ġmonop ole
RE AM
Ġref ere
ĠCo unt
ĠMem ory
^* )$
Ġide mp
ok es
ĠFace book
Ġplau sible
' <
Ġke eps
Ġhyper parameters
) &=&\
á ĥ
Ġs cripts
}) |
Uni que
Ġcele bra
Ġprono unced
N ational
i pp
}/ {\
15 7
ĠR ule
Inst all
Ġfor th
Ġwrite s
}\ {\
Ġg ar
sho ck
Ġrecur rence
Ġrecommend ation
p rom
Ġde ps
ni e
conf ir
Hel lo
ĠMo ve
Ġw ants
16 7
Ġsol vable
tic a
ĠR T
qu al
phistic ated
_+ ^
Ġtor que
fra med
PRE FIX
LE V
ĠS K
Ġsub mit
Ġas set
numer ic
ra tor
)) {
fa c
Ġoptim um
M ust
_- $
18 8
}) ).
D im
ti st
us r
Ġjus tified
30 4
med y
Ġexec uting
Ġre size
di um
15 6
Exp ort
vent ory
At trib
' }^
Ġde x
equ ality
[ ^
Ġattemp ted
is Object
ĠP ra
inclu des
R ob
Ä ĥ
expan ded
ĠCE LL
first Child
BOO ST
Ġin dividually
Sub scription
Ġcell ular
W F
Ġph ilo
ĠMo un
Ġ/** <
+ -
arg v
Ġin frastructure
Ġintegr and
F ast
g d
Ġd il
ens tein
(" ../
L y
00 000
Ġ lambda
Ġanomal ies
} &=&\
ĠS outhern
Ġab bre
ĠGib bs
! =
ĠE s
Ġcon current
\!\! \!
oot strap
ĠB attle
Ġde bu
Con s
Ġstudi o
> /
Ġ# {
Ġsub script
la test
}}$ )
osc il
sh ims
DE CL
ĠL ittle
ĠLe vel
ĠPol ish
.~ (
q w
B ul
u y
col ors
on ia
h ist
ov ich
Ġphilo so
text sl
mach ine
0 50
Ġatten ded
ch ap
Ġdid n
r w
work s
mp ed
tw itter
ĠPen nsylvania
Ġrail way
so und
] ));
Ġdiscrimin ator
Ġhad rons
Ã ¸
ĠCong ress
Ġmin ing
P lain
Ġproceed s
Ġopin ion
ĠM aterial
Ġpart ly
"/> .
ĠA rea
Ġ\| _{\
S core
ĠB is
Ġrect angular
c B
ag ger
Attr s
nice frac
Ġcon verse
vi tation
cccc cc
ĠOper ation
in berg
di table
Ġ| ^
$ |\
Ġenc ryption
ĠÃ ł
Ġch a
RT C
}} &
CO UNT
D av
Ġtrac ing
Ġf ed
Ġsimple x
ĠCh rome
Ġch ir
ĠAn g
z ens
Ġiter atively
ĠSo viet
ackn owledge
19 55
sur vey
Ġbenchmark s
c D
Ġcoun ty
OR S
ĠPh ase
ĠT ry
Ġmain taining
de z
l x
Bit map
ĉĉĉĉĉĉĉĉ ĉĉĉ
2 64
Ġwe ather
ĠO x
coun ting
out ing
J aco
Ġpr uning
filter ed
Ġgran ted
Ġinstrument al
Dec ode
Ġev olving
FT WARE
Ġint ent
Ġshow er
^{+ }
S n
x html
Ġcon ference
Ġres is
ans as
Ġ@ {
Ġsing les
. -
min or
Gra dient
Dispatch er
k ra
ĠD NA
ac l
pre ad
'' }
comm ons
ĠA ni
cur r
OPT ION
Ġpl anned
ta iled
ĠIn dic
mu tex
Ġaut onomous
Z end
rom an
Ġprev ents
et t
Ġadd r
Ġmu tation
Ġbifurc ation
flu ct
polar ized
Ġat tract
re cor
æ ĸ
Ġdouble t
az z
Ġ\ `
19 52
C lone
U sed
grad ation
Ġreci pro
^{\ ,
\{ (
Ver tical
Ġ\ }$,
Ġb attle
2 11
ĠCol umb
Ġinter stellar
erial ize
{ }_
M V
Sh ell
par sed
separ ator
}$ =
ĠB L
odrom y
en et
Ġ& :=
Ġs an
Ġin spect
Ġintui tive
ĠDo ppler
O cc
Ġa id
co res
Ġk ick
Ġfrequ ent
ĠH an
cccc c
Capa city
oper ations
Ġcomb ines
get ElementsBy
})$ -
b R
ge om
k top
00 9
Ġrescal ing
lst listing
Ġendow ed
qu an
ann on
Ġsum m
Ġdif fraction
T y
if i
Ġintersection s
Ġm ur
ub es
ĠCon versely
lines kip
li a
so id
get Type
r put
Ġindu strial
ts d
ĠNat ural
Ġin nov
satisf ies
ĠF ried
ĠB ow
ĠK ir
ĠLemma s
ĠP olicy
ĠB in
ĠTh ird
nucle on
Ġun biased
d q
s ay
Ã º
'] ))
Mar shal
ĠCon sole
Ġspeed s
3 30
be ing
get Text
Ġf resh
ĠM en
Lay ers
Ġmaxim ally
.* ;
Ġdra ma
ĠM F
Ass ignment
Ġ$ $.
Ġauto mated
bur gh
fa ster
pip eline
m illi
ĠU L
h es
Ġm illi
Ġ& \\
Ġ= ================================================================
ĠF ellow
}^{ +\
ĠJo urnal
ĠJ im
Ġb on
0 22
Ġelimin ated
Ret ry
g ger
Ġredund ant
0 13
Ġpo et
ĠImage Net
ĠJ un
Ġgraph ical
ĠW igner
Ġear th
h w
ĠP DE
link ed
Ġvalu ation
}\ }$,
ĠL ang
Multi p
U A
co efficients
Ġbary ons
Ġw estern
Ġ Å
Ġcondition ed
b A
Ġ\ |^
=\ {\
U AL
Ġjoin ing
Ġinter rupt
ĠB ad
ĠPr ince
ĠTH REE
Up dated
ĠD ark
ĠF A
%% %%
Ġy o
Ġp df
ar po
stra ction
19 48
ĠData base
ĠH uman
Ġdefe ated
Ġselect s
Ad ditionally
Ġf unded
Ġan ne
ĠJ ul
Ġre direct
2 32
ĠK en
orth ogonal
[ (\
Ġsto pped
de coder
0 24
cre ens
parame tr
}_ *
Ġw ing
MESS AGE
< $
x d
Exec ute
lb rack
D H
Ð ·
ĠCON DITION
con clusions
pri or
Y ang
eman tic
c annot
Ġw oman
ĠT ro
Ġ" ./
ĠK ol
k el
col Last
Ġerr no
m ut
ion e
Ġoptim izing
[ ])
_ ('./
mu x
Ġapp reci
Ġdelay ed
Q C
Ġextrapo lation
De precated
um ar
R W
ĠDeep Copy
Ġaccep ts
19 44
ian a
o ft
agree ment
ĠN othing
Cred entials
NavBar Font
st ub
T ry
^+ ,
radi al
weight s
I p
ab y
ann i
Ge o
Ġincorpor ating
Ġaccoun ting
Ġs ali
ĠĠĠĠĠĠĠĠĠĠĠĠĠĠĠĠ ĠĠĠĠĊ
h int
Ġr hs
ĠMe mber
Ġutil izing
Ġmanip ulation
fa ir
Ġres olutions
Ġa ds
Ġocc asion
Ġemer ging
Ġchar ts
Ġestablish ing
Ġrela ting
ĠT ests
aw ay
ĠM HD
Ġob jectives
S lide
b ubble
Ġa udi
)) _{
ĠKE Y
iz ability
12 34
g ives
sp ark
Comp ilation
Ġfor get
Ġmask s
Ġemp irically
Fra mes
ĠR H
ĠT otal
an es
es ome
Ġmonoton icity
id ers
B esides
Ġb or
c N
complex ity
Call backs
Ġf ron
Ġuser name
ĠT arget
ĠComp arison
ĠO k
Ġnumer ic
Th an
Cal endar
P in
query Selector
G IN
R em
S ep
En tries
D ia
ant ine
q s
fact ors
th al
um ented
ote l
ĠG O
Track er
ĠNO TE
Ġsurv ival
In cre
ĠS TR
on Next
Ġc trl
Ch ars
fol ding
Ġp ad
se ver
n h
trans formation
Ġrule d
Ġlink ing
ĠRec ord
)) ^{
Ġde fer
]( #
O H
en coded
ss mann
ĠT ABLE
ĠW ang
Ã© s
In ser
Ġiner tial
hi bit
vid ers
Ġ$\ ,
du cer
ĠInitial izes
dest ination
ag ers
Ġsugges tions
17 2
Ġg reatest
col First
Ġco ords
\,\ ,
ĠSto re
15 1
ost on
amer as
is i
Ġ} _
}{ {
pg sql
A J
C LE
Ġo x
ĠA WS
15 3
Ġaltern ate
P lease
f red
/ )
Ġf m
Ġsequ el
ta p
con tribution
Ġfla sh
Ass ociation
c aus
Ġcontribu ted
secre t
del im
ui tively
Ġrescal ed
}) );
E A
name ly
Ð¾Ð »
ĠF ire
H er
ul um
ou ville
Ġtemp or
}^* (
ĠL D
pre view
Requ ests
Ġconv ection
ĠS ar
ĠInter estingly
in et
Ġfor mats
pi ed
Ġharmon ics
K im
Ġsp ring
buil t
pa gination
Ġcontroll ing
en ant
den oted
Ġqu atern
ĠLi ber
primary Key
C lip
, &
Ġderiv ing
ĠCONDITION S
V el
non linear
LO B
acc urate
Ġis sued
Ġframework s
Fil ename
ENER ATED
Ġfall back
ĠED IT
Ġcomp eting
i int
Ġw a
pres entation
ĠTable s
ĠTw itter
en ium
ĠGL float
}$ (
d fn
} ]{
ĠG it
Ġrun ner
Ġpoor ly
APIENTRY P
ck e
dis pose
pher es
ph oto
19 39
18 7
z el
exp lain
ĠTrans former
Ġend if
Comp onents
Ġser ious
c ra
Ġf lex
Ġsti ff
R X
m icrosoft
Ġpre domin
simula tions
R N
window s
C W
depend encies
Al t
BIT S
Ġob sc
Ġk ing
Ġexplo iting
st ances
SCRI PT
as suming
Ġcall er
if ford
ud ent
run ner
ĠM T
Ġcommunic ations
Ġ' :
Ġregion al
Ġserial ized
ĠM iss
Care er
vers arial
Bal ancer
ĠBAS IS
Ġl ived
Ġemp has
ĠâĢ ĺ
Ġplugin s
un ion
Ġpar k
Ġget ter
Ġbroad ening
Ġs ister
Ġuni versity
ĠKore a
ĠCh andra
H ex
3 25
ĠM ix
ĠE N
dis tributions
con cept
0 75
Ġ ^\
pa use
ĠPh ilipp
Imp orts
E mbed
Bbb k
Eq s
Ġmic rowave
ad or
m or
s lot
I a
Ġinher ent
b right
Ġcon sumer
B ag
Sch warz
E LEMENT
V o
Ġcomp ress
Ġdiag nostic
OBJ ECT
( ',
ĠEn vironment
restr icted
sec ure
Sub stituting
tablen ote
ĠHamilton ians
; {\
Ġp ip
Ġb onds
}, ~\
inter section
ĠDeta ils
Ġb t
Ġtrans lates
lat ory
ref n
\\ -
measure ment
ard en
ĠIsra el
Ġfer romagnetic
O DE
C os
Ġsimpl ifies
)\ }
Ġnotic ed
N evertheless
T raining
Ġ$\ #
Ġon going
Rece ive
15 9
Ġoptim izer
CP U
Ġcos ine
text g
Ġrm s
H ave
Ġev al
capa city
var d
}] $,
Comp aring
ĠM id
gin es
16 2
ĠLe g
scal ed
Ph one
Ġcon vective
Ġpossess es
lock ed
f u
let ter
mix ing
Ġcontext ual
0000 000
Ġauth entic
Ġhex ag
ig ate
ĠM ach
con figure
ino is
Fi xture
hier arch
Ġthermod ynamics
Ġ" ")
Ġoper ates
Ġestablish es
ĠNe ural
Ġrapid ity
en space
os phere
Ġconn ects
ĠCor poration
po si
Ġb ot
') ->
Ġstrong est
brid ge
K D
Ġi v
t cp
ach uset
ĠI MF
simp l
ĠB la
Dep loyment
Ġclar ity
Ġori entations
achuset ts
all ing
ĠMe asure
cross ing
ĠT EST
STAT IC
}_{\ {
h b
Ġsub category
ĠT S
ym an
Ġt ropical
Ġc ro
Ġg lyph
ĠH ST
Ġs ociety
li bs
D r
Eu Script
Ġminim izes
17 8
Mod al
decomp osable
B lue
so ci
numer us
de cl
Ġdis connected
rr bracket
Com mun
l uminosity
19 53
Ġt alk
Ġmagnet o
For ward
Ġasympto tics
man ual
ĠH ung
distingu ish
th ose
Ġwo od
Ġrever sed
get Message
R B
v n
ĠC ro
Ġaccompan ied
Ġb ranes
Ġenumer able
re pository
ĠK im
c R
me try
le et
ĠÐ ¾
Allow ed
Ġs tick
ob tain
urn e
Ġacqu ire
separ ated
character istic
g ol
te p
] }{
Ġ+ +(
O B
Ġso phisticated
Reg istration
Q M
Ġiso spin
ĠNetwork s
ĠMC MC
child Nodes
^+ $,
t ens
ok er
enc il
V P
ĠB inary
ĠB ose
Pr imitive
ĠP lugin
ĠRequ ired
/ ">
J an
sp irit
7 68
al lax
log ic
interpre t
3 45
N ON
Ġ" ;
Ġhol ographic
Ġdi laton
e es
] |
Ac cept
ä ½
ĠF S
ymme try
Ġan tic
Ġimp lication
ĠT re
6 25
us ta
ĠV alley
h orizon
on Completed
ĠF oo
ĠG ET
Ġst ub
acc ording
Ġconc ave
Ġde lays
Ġaxiom s
ĠP i
18 4
19 54
Ġemer gence
ĠB or
dd en
Ġexplo ited
P et
itor ies
Ð¾ ÑĢ
con jecture
MA SS
Ġc le
c les
$ +$
Ġaccord ance
C U
ĠP P
ĠA stro
up d
numerus form
ren ormal
oscal ar
G erman
W he
r pc
ĠSta ck
squ ares
ĠA ff
Ġdis appear
N ested
g alaxy
ĠĠĠĠĠĠĠĠĠĠĠĠĠĠĠĠĠĠĠĠĠĠĠĠĠĠĠĠĠĠĠĠ ĠĠĠĠĠĠĠĠĠĠ
over ride
Write Line
f lash
d anger
wh eel
ĠK L
tr ons
Ġmis match
SD L
Ġreco mbination
calc ulated
en ko
ll bracket
View port
scroll Top
}\ |^
ellip tic
st rm
Ġcompact ness
Ġconvex ity
BY TE
po thesis
)} |
ĠEqu ations
Ġdec ade
Be havior
c g
ĠO t
eder ation
@{- }[
D ict
all classes
; (
lustra tion
ĠDire ctor
ĠS ystems
ĠG ir
Ġ\; ,
M ixed
Ġconfir ms
ĠSO FTWARE
ĠCa simir
ĠR am
Ġ ly
Ġassoc iative
CM D
Ġwork flow
clu sive
ĠAn derson
Ġcorre lator
Ġcoup les
Ġas c
ĠG B
) ].
k an
co eff
4 80
N or
S y
Ġma ser
She et
Ġkey word
Ġorgan izations
n able
ĠA sian
Ġwave function
Di rac
to re
/ ,
T oggle
IC AL
co lation
glu on
D up
div is
ĠCon jecture
get String
Ġsim ilarities
ĠF ac
Helper s
consider ed
] ^{-
Ġgeneral izes
she ets
la tex
Ġrepresen ta
AD C
ĠP ic
Ġsum ming
h dots
serial ize
ĠE OS
L HC
l k
es Module
_- (
pro cessed
ĠĠ ĉ
19 51
ĠL ik
ĠB ox
ĠP anel
Ġvict ory
be h
Ġsubt racted
bm od
ĠRe ynolds
Ġstr ange
FUN CTION
Ġdeveloper s
Ġsuper fluid
conv olution
is a
Ġbro ader
17 7
Ġcommu tation
Ġfail ures
FORM AT
Ñ Ĩ
E B
ĠD etermin
Ã ±
approxi mate
Ġen abling
b id
. ";
Ġfurther more
Ġmark ers
: ]
ĠS PI
max imal
ĠConsider ing
ing ly
or ial
Ġrecogn ize
occ ur
plan es
ĠBri tain
ĠR h
Ġsp ans
Ġ\! \!
Ġextract ing
Gate way
get Class
Ġbr ings
) ',
Ġpro vision
SE C
ĠCon ference
Ġdiver gent
Ġnew spa
az ure
non atomic
len eck
Ho oks
Ġcentr ality
ding er
St roke
rect angle
ĠEngine ering
Ġt y
ĠLi ke
ICAg ICAg
av oid
}} )$,
bo ve
Ġlo gs
Ġ ,\\
ĠĠĠ čĊ
Ġhe ap
inter sect
Hy per
am d
ĠF loat
sd k
ap os
he ap
ĠNewton ian
) ],
d E
* }{
Thread ing
Ġoutflow s
Ġid s
[ {
Ġconf lic
strong ly
ĠB PS
ĠNS F
th ur
Ġbubble s
ĠA tt
20 3
con current
Ġtra iling
ĠCal led
ci pher
^+ _{
)$ ).
Ġalong side
U CT
lo dash
co h
Render ing
Ġt body
gr pc
he ating
Ġalpha bet
Ġt uples
Ġar ranged
des criptor
ti d
Ġm or
ĠD al
Ġspect ro
Ġmo unt
Ġindic ation
Ġpop ulated
ĠAn n
Ñ ħ
om o
Ġun clear
Ġarm y
schema s
ron ic
ĠTh ough
, *
pi ent
Ġexp ects
RE SS
ĠTrans form
I refn
Data Type
s it
ĠMich igan
em er
Re lations
Fin ite
Man if
ĠCr yptoJS
nav List
Ġshort ly
: &
ĠV ideo
ĠO V
c E
ĠF low
enn is
b j
orth and
Pre liminaries
Ġensemble s
ĠJ up
MB ER
es sible
Ġre member
Attach ment
Ġb rown
19 00
CON T
al d
19 49
Ġc rossed
UN K
Ġre vision
Ġaut omorphisms
order ing
ms kip
o mb
s igned
ĠF ast
ĠIn d
'' _
Ġrepeated ly
H int
M irror
predic ate
ĠV alues
les copes
aven umber
ĠMo unt
Rec ent
Reg ular
F ermi
\ (\
ro pies
Ġcon es
ĠMan agement
Ġpos it
Ġmaxim izing
se lec
Ġunit al
Ġre try
l q
H aving
or ation
Ġma gazine
ame d
Ġpropo s
Ġp s
Ġpr ison
Ġsymbol ic
scal es
Ġh int
CON TR
Ġinver ted
ĠC I
Th ird
Ġp ng
Par ticle
ĠS us
ĠK a
i q
Ġv essel
Ġtran sitive
Ġminim izer
Ġfla tt
IT S
ĠCan vas
Ġc p
Ġmin ute
ar bit
Ġ* (
Ġ. \
d N
all s
k al
Ġpol aris
Ġclu mps
Ġh older
Ġcontain ers
Ġdevelop ments
Ġev apor
os en
_{ ,
LEV EL
ĠD NS
ĠS G
Ġdeli very
N pgsql
Ġsingle ton
AS C
Ġis instance
19 47
[ ];
ch ester
ar chive
ĠL ICENSE
Ġo il
for th
Ġbutton s
Ġno op
SU B
ĠY our
F ac
Ġacade mic
Ġcol laps
ĠVis ual
Ġcred it
Th rows
E mp
Ġb lood
be it
Ġ/ ><
Ġin elastic
19 46
Ġde partment
Index Of
}$ '
. (*
Ġn ation
Ġplate au
n pm
e z
star ting
ĠC HE
Ġhar der
A ug
ĠD utch
\% $.
Ġpartition ing
gan ization
B ol
ĠT M
S can
ci ties
ec han
.} ~\
Ġantis ymmetric
xx x
ĠM DP
For ms
Ġsu dden
Ġcli que
fig ref
Ġra ting
g am
O s
Ġc usp
La TeX
ĠCo mbining
Ġr is
ä º
Ã¡ n
ĠP CA
Ġb lank
ĠPol and
Ġb ott
Ġbuil ds
Ġin consistent
Ġde gradation
con cent
}, {
om m
ev y
Deta il
] +\
)| $
Ġmon oid
IN LINE
ĠN A
la v
Comp ute
ĠClo se
for mulation
Ġrespon d
ĠA sia
Tok ens
ĠV ar
A LE
en table
S s
b ir
Ġh osted
Ġp le
2 75
us ually
Ġatten uation
j ets
b ury
ĠR V
Ġ urban
ĠS mall
Ġthous ands
Ġ( +
ĠM SE
ĠE r
ĠPac ific
rain ed
iel ded
Ġsci enti
0 16
Gener ate
h uman
ĠL M
Ġanaly sed
Uni versity
ul f
3 80
~ }
CL K
on line
se man
)\ }_{
Ġglu ons
v ac
Ġread ers
chem ical
ĠK K
. ")
Ġf ish
Ġread out
Component Model
Ġk ink
? ,
Ġ{ !
The ore
Ġanaly se
lic ates
Ġdec lar
re direct
S al
ĠO hio
Over lay
ĠD ictionary
io graphy
at ers
open api
^{( -
Separ ator
ant on
Ġrep ly
ĠF F
ĠB ang
met all
Ġpro mote
Ġpi pe
D IF
ti ment
ĠB ru
Ġpropag ators
Ġpo sitivity
nod ata
pro per
ĠCall back
Ġcol linear
Sto kes
Ġanti fer
an im
R V
k b
Ġdef ense
Dec la
ĠD I
Ġ\; .
ynam ically
ĠCOM MAND
By Name
ĠS and
Ġse at
19 42
Ġle ct
Ġh us
Ġz ones
ĠC CD
ĠCON TR
Ġcancellation Token
Ġcur r
Ġlo ose
ĠM ask
ormal ly
ath an
\! =\!
Ġsuc ceeded
riter ion
17 1
ĠS olar
Indic es
valid ator
q p
Ġf rozen
Block ly
vi ve
Meta Data
i NdEx
ad van
ĠComp ared
Sim ulation
nipp et
ĠB essel
product s
c ue
out line
quad ratic
O V
inter actions
ĠWilli ams
}( {
Ġassign ments
ĠUS B
member of
Event Handler
tw isted
M IT
æ ķ
ĠA x
ST REAM
Ġrandom ness
o ided
ĠMass achusetts
Ġre lying
Ġenco des
hol omorphic
Ġ utter
ogon ality
C UMENT
Ġsurro gate
SU PP
' )$,
Ġco in
o e
Ġ& #
ĠFe ature
ul ary
Ġdra s
Exp and
Ġcolor ing
> ');
}\ ;\
Ġprint f
] \,
Ġ\ }.
Ġtermin ation
2 16
Ġlo se
Ġgener ically
Ġarri ved
Inst ances
Ġun labeled
Ġ ))
ĠS em
Ġex ercise
ĠT urn
ur t
Ġinter view
Be en
v phantom
Inter op
p w
ĠA rab
Ġsp urious
Ġtrain s
D TD
Ġhis tograms
get Data
ia o
manif est
. ''
ho ff
Ġsub manifold
Ġpres cribed
Ġd w
Ġpo ses
d W
ĠSt ra
B and
Ġthe sis
br and
h f
ĠĠĠĠ ĉ
ir s
BL IC
0 14
Ġdec laration
Ġfluct u
Ġtriang ulation
(' \
Ġvic tim
Ġs ell
Ġ# #
Ġspa c
dir name
. ).
E val
Ġconven tions
pla ced
Ġtail s
ĠCal abi
Se g
sub scription
Ġcont ro
Ġrein forcement
Re vision
Ġh or
Ġwe alth
Ġa head
correspon ds
Rad io
0 40
ĠGu ide
ĠC ox
ĠL ower
Ġ| {\
algebra ic
/ [
Ġb attery
Eq n
ĠC oll
55 5
i T
Ġdissi pative
b ling
Ġ$[ -
Ġt iny
}) .}
Ġsmooth ly
Check er
in stead
Ġb ic
no tification
v f
DE LETE
Ġhosp ital
Ġellip se
Ġord inal
Sta t
ir i
ĠD rag
ĠI ran
ur ance
)$. }
M AN
Ġsen ior
Ġdop ing
Ġas sets
w ich
ma ssive
Ġnonlinear ity
Ġpropos als
Y S
C ulture
ĠBel ow
)} }$
Ġdepic ts
Ġf ellow
Ġre act
ĠH essian
Ġcan ce
ĠBOO L
. #
Un ited
ĠA sh
S ink
19 41
_{ _{
n ested
IN CL
ate ver
Ġop ens
Ġoutper form
r ise
normal font
Ġdivis ors
19 43
Ġstack ed
ĠCho ose
arg min
S olver
phi a
Pre view
ĠN av
Ġhalo es
Ġvio lated
ĠDate Time
Ġcondens ation
Spe ed
comp uter
correspon d
}| }
Ġapp s
Ñ Ī
Ġconcent rations
dete cted
Ġacces sed
Ġ} (\
Vis itor
Dif ference
ĠM ah
T ax
as er
Ġval ley
ĠM achine
Ġprefer ences
ĠTran sition
}( -\
Ġtrip les
~$ {\
ĠSc ott
Ġis ometric
20 7
L earning
Ġsw im
ĠBlo ch
(" <
K a
Ġpa id
Ġpull back
in side
l ists
ĠPe ople
aa aa
Ġre lic
}$ }}
_* (\
dir ty
ĠCan cel
C lock
E F
G old
Ġre tained
1 200
gu id
' ][
Ġpop up
Ġexperi enced
ĠIo T
AR CH
Ġinstant on
ether lands
ce ived
orre lation
ĠPla ces
{ ,}
Ġpredic tor
M yr
T ube
ro v
s yntax
ĠP as
RO OT
l um
su ite
Ġtransform er
0 23
et ti
: {\
lan e
FLO AT
C e
7 50
c ence
pro cedure
Ġadequ ate
---- ---
ĠComple x
Ġpeculi ar
n v
// !
28 8
reng th
Ġlo dash
ĠM A
ĠAl ternatively
AS P
D K
Q P
d id
Ġb lu
Ġemit ting
EX P
] ^\
k im
_ -\
Ġc ameras
Ass ign
SER VER
Ġro oted
ĠDe faults
ĠGo String
ĠSt orage
go al
B ranch
Ġpack ing
c ro
ĠCO VID
( %
/ '
ST AR
l v
Ġ$ >$
Over flow
plan ar
k ube
x shift
Ð ±
Ġ\ }_{
Ġun seen
ome tries
Ġion ic
Ġmul tic
17 4
mag ed
work er
ĠJ eff
US B
Ġinc idence
Ġgrid s
Ġconcent rate
Ġprogen itor
Î ¿
ĠM AC
er ts
ra ther
>< !--
ĠF r
Ġregular ized
Ġclin ical
ĠSw ift
Li pschitz
Ġd yn
enn es
ĠMax imum
ch el
size of
Ġex otic
18 9
s napshot
tensor flow
h k
Ġsee ing
ut y
f ive
Ġl uminous
Ġ ur
mod ular
ĠS ys
19 36
Ġj q
ĠK el
Res p
File System
)) (
Ġgraph ics
Ġmonomial s
)| ^{
corre cted
Ġeast ern
Ġco al
20 9
Ġreview ed
pop ulation
Con version
Ġcapt uring
Ġdeco herence
}} &\
pa que
comp ared
gather ed
Pa int
Ġexclu sively
$ }{
"> '
ug ht
Ġelection s
L ater
ĠB orn
Exp licit
Ġcryst all
A tt
Ġ" --
o h
ill ary
Ġen force
vari ety
tex pr
Top ic
Ġre jection
input s
Ġemer ge
\% }
ma tr
Ġno tify
S ender
ĠJ ob
Map s
Ġst ories
q t
ss s
ĠW IDTH
so cial
app s
Ġd ummy
ĠJer sey
Ġre new
OP EN
Ġanten nas
ĠC DF
Ġyo unger
^{* }$
Ġexper ts
L ife
Ġe mo
ĠR M
ĠSe a
M esh
c enti
g ic
gra v
center ed
Ġcar s
Ġcorrect ness
ap tic
19 3
WR ITE
ĠG ENERATED
ĠV I
Î ±
ex emplar
o z
L ip
{ .}
^{ **
Ġens uring
Ġran ks
D W
') :
al ph
ec es
19 4
ĠQ ED
Consider ing
Res olve
Un lock
Ġcustom er
Ġdiver ges
* -
Ġf d
lo s
& (
Y P
ĠW ater
co verage
ĠPer formance
cent ric
al one
fa de
ec raft
Scal ing
: \\
Ġc ris
F r
Ġs keleton
ĠFo ck
ĠIll inois
q i
{\ "
D ifferent
= _
$. )
): \
ne ural
Ġcompac tification
ĠL E
ĠH H
Rou ter
Ġsett lement
Ġiner tia
Sto pped
restr iction
Ġs lit
ĠR aman
L AT
b rown
sh int
ĠM n
temp lates
Ġd Ã©
Ġar chive
Ġover rid
Ġflav our
S il
Ġsol di
Ġcol span
AR K
TH ER
0 33
Ġde m
D et
in j
ĠF ort
R ich
ys ql
book s
ĠFrancis co
)\ |^
Ġho oks
ed itable
Ġ' &
Ġ$ }
cc er
ges tion
ĠC ivil
Ġat tained
Ġequip ment
Ġsql ite
Ġsp ik
Ġavoid s
Ġco ales
Ġlog istic
Ġdiver gences
Ġsummar izes
b enchmark
Ġg y
ĠA V
other mal
m om
Ġra dical
Ġref ine
f its
Ġch air
Ex act
Ġg ro
ine quality
Ġcho oses
Ġdiv ides
Ġse min
Supp ress
Ġaccoun ted
Ġjud ge
M ET
Ġcontra s
decor ate
Ġd S
Ġ' ;
spec ies
C amera
Ã ¥
ĠM aster
Comp uted
Ġcommu tator
> {
mo graphy
ĠOrig inal
Ġen tail
0 35
ĠIn tel
ĠT y
ener gies
Ġimportant ly
he avy
Ġbu mp
ir y
Ġsmooth ed
Ġiniti ated
Ġs lots
Ġf uel
process es
if er
Draw ing
evalu ation
Ġs ibling
Ġme ets
x FF
Ġchem istry
Ġhosp it
ur ities
Ġour s
event Name
ĠB as
w en
Ġcal or
Ġdesign ing
IC ATION
St d
() }
Ġch ief
child node
Ġpi lot
2 12
lit eral
stit ution
Ġtop ologically
Ġrepul sive
mu tation
Oper and
de velopment
CT RL
DEF IN
Ġav oided
ĠHash Map
tow ards
ile vel
ish es
ESP ACE
S outh
lear n
Ġfla res
Pay load
B W
n ets
ti ous
Ġw inner
Ġvi able
') ^
pe er
Ġview ing
( ()
Ġph on
En t
Ġconcaten ation
command s
ĠInter face
ĠHand sontable
Ġfila ments
& {\
cer tain
ĠB rowser
cite alp
ire ctional
Ġx y
Ref resh
20 6
Ġavoid ing
Q F
Ġwar n
Ġdecoup ling
PO INT
ĠGR Bs
}^+ $
ĠU TF
ĠSer vices
ĠEd ge
_{ [\
Ġgroup ed
+ '
$ ''
Ġdisc s
ĠO DE
,\ ]
Ġfor bidden
Rec on
is omorphism
Ġconju gacy
Ġma xima
MB H
re vision
um ul
}} ),
Ġk a
char set
b ary
Down load
Ġre wards
u ing
IT LE
Ġobsta cle
17 9
Ġ" !
__ ["
C hi
ĠDemoc ratic
ĠS lo
Ġdifferenti ation
Ġpen et
}, ...,
ĠM r
Ġdete ctable
J s
Long rightarrow
j ackson
Star ting
Ġdi amond
Ġquadrup ole
ange vin
________ ________
( [\
ĠTo ol
si zes
Ġre actor
Ġ) );
Read Only
ĠS up
ĠB oston
pr im
Vari ant
Ġstand ing
ĠP ak
eder ated
ĠSt udies
Ġfall ing
Ġmeta v
Ġpromo ted
P Q
str ument
utor ial
ĠC MD
Ġsc ratch
top ology
log arith
remove Child
ĠM M
log o
Ġst reet
= {(
A mount
Ġfeat uring
L ate
ĠH R
ĠAd ditional
determin istic
ĠJ ackson
ann a
Ġexclu ding
ul ly
Ġbas ically
Ġput ting
Pe er
P en
iz ard
cur vature
Ġsort ing
L AB
R u
statis tics
Ġs quad
min ute
cour se
P ipeline
ĠA belian
Ġalgebra ically
ĠS tation
WOR K
Ġ{ });
ob serve
grow th
ĠOx ford
ilibri a
ĠGa ia
ta king
Ġsepar ator
Des ign
ĠR en
ĠZ hang
Ġcontact s
de gr
ull er
Ġgroup oid
ĠCh en
Ġa ws
\, }
y aml
\% $,
vi ate
supp orts
is Valid
jec tivity
Tool bar
PROP ERT
ĠW ait
ĠAP Is
ĠK lein
Spr ite
' }$.
Ġin cur
ĠG TEST
REQ UEST
Ġre use
Ġdis continuity
Go od
ro b
M icro
Ġqu ote
b rains
Ġla titude
op es
iti ves
Ġres ol
Ġb ow
IE W
arpo on
Res olution
Ġappear ances
Ġcli mate
pre tty
triang ler
establish ed
Ġwave form
Ġpay ment
Ġre min
Ġab use
z ag
ĠR NN
con taining
Ġregister s
T ODO
Ġhome omorphism
Ġreport ing
2 90
v k
Ġro tated
c G
5 50
ew is
ob servable
Ġdivis ible
Ġgr pc
col our
D ie
an om
Ġassign s
HAND LE
) `
ĠC W
Ser vlet
SO s
mic ron
Ġhund reds
su gges
combin ed
ĠL im
LE FT
ĠK on
pro jects
0 18
Ġde t
ĠW H
h ler
Ġc up
ans wer
Ġmar tingale
N AL
Ġlater al
ul pt
Qu ad
tru ction
* ="
ane ously
Ġfound ation
Ġquar tic
ĠP T
Ġreprodu ces
ĠDan iel
Ġi ii
Ġalgorithm ic
Ġ} ^
pro vides
lit z
Ġsta ys
}= [
ta ur
Ad ded
Ġdig it
J Token
ĠK ent
ĠD D
*} %
Ġdr ug
ch r
EN CE
Ġsuper vision
ĠQue en
call backs
Ġoffic er
Th rough
ĠB O
> %
al o
ĠI a
Big gl
ĠUn icode
:: $
Ġt une
ĠIn tegra
\!\! \
j p
ĠOver all
] (\
gr p
ĠV AR
Ġsupp lementary
t own
en ched
amp ions
Ġ= -
ĠBe the
exec ution
Ġinser ting
t g
] ',
ni kov
Bound ary
frac tive
ryst al
st udi
ĠS ET
è ¿
Ġcor ona
f k
jet brains
Ġinvestig ating
inter cal
ĠBu ilder
ĠGeorg ia
h on
Ġingre dients
/ }
Ġp tr
si e
}- (
ĠH ur
PC A
ex pi
Ġtext s
0 27
ra gged
Ġinter active
$ ^+$
Ġsh ips
Ġblock ing
Ġaccum ulated
Ġqual ified
Ġl in
Ġv ox
Ġpa ired
val s
Ġdoub ly
od ing
Ġlo sing
SU CCESS
Ġinflation ary
Ġsaf ely
mbin ed
Ġmetall ic
P K
P aren
tun ed
ordi on
incip al
li est
Ġg enu
Ġapproxi mating
Ġtack le
Ġno tably
Ġb ass
Ġcompris es
Ġbenef icial
comp ass
Sp orts
T im
Ġ' \\
17 3
inst ances
Ġc iti
b q
val ent
integra ted
ĠW HERE
is te
Ġrepresenta tives
ĠIn v
Co uld
ital ic
termin al
Ġaff ili
iz z
Ġlocal ity
Ġ* =
Ġlo gin
Ġd v
LT ER
Ġpost s
cr imin
19 34
ma d
it ro
Ġla b
Ġsp ots
Ġinflu ences
W itten
Ġsub mitted
hand lers
Ġ" +
| \\
å ¤
te gr
Ġch ip
Ro tation
enti ties
Ġac tivated
Ġmon odromy
D X
Ġimp l
Ġview point
67 8
el ve
ĠF er
R iemann
c amera
ĠLay er
C FT
ĠK ong
hol m
Pres ent
ig e
Ġg it
Ġinstit utions
ĠEd ward
ER O
typ ed
Ġspher ically
Ġapparent ly
Co ords
Cre ation
ĠLorentz ian
H OME
Ġw avenumber
olic ies
ĠIllegal ArgumentException
3 40
Ġo d
ĠP layer
measure ments
Ġmoun ted
d AtA
ol ding
Ġm and
stru c
Ġbin omial
satisf ying
Ġgeneral ised
C li
< >();
Max imum
Ġs vg
Ġrefer enced
}} [\
Ġchar m
Pro te
_{ _{\
ĠO THER
Ġacc umula
Ġle gacy
symbol s
end i
Ġreflect ing
Initial ize
MAT CH
A lex
19 37
}\, (
Ġaffect ing
Ġd ump
ĠD ES
ĠEast ern
v w
de velop
{ };
is sue
Ġkey board
Ġ( __
Im mutable
Ġstabil izer
getElementsBy TagName
Ġdri vers
Ġfo cal
j am
Ġleg is
Ġph rase
ĠCamb ridge
ĠMN IST
Ġs ty
pro g
}}$ }
char Code
ĠIter ator
Ġsuper potential
aut orest
triangler ight
ĠThe atre
ud it
ĠFunction s
Ġmark up
Sim ons
A f
T K
ĠBer noulli
identif ied
statis tical
od ay
ĠEn tity
ed a
p tive
Ġex tern
16 3
ĠCHE CK
M ULT
Ġface t
Ġoscil lators
k v
Ġbr ighter
Ġla zy
8 50
w ire
Ġfoli ation
Vis ibility
col lapsed
Ġdisc arded
ĠĠĠĠĠĠĠĠ ĠĊ
depend s
Po sitions
View Controller
base lineskip
Ġremn ant
]{ .
Co v
Ġpion e
Ġ\ },
Ġre calling
ĠK ra
PT Y
fl align
i w
pi on
aff ine
Cho ice
N B
In ject
L G
Tran sp
RE NT
Ġprob es
Ġfit ness
Ġimpact s
0 45
arc min
sc enario
Ġcategor ical
acknowledge ments
U i
ab lation
ERR IDE
mo id
lem an
rem um
ĠH ong
Ġs mo
Cla use
v ct
Ġcorre lators
Im g
Ġtang ential
ta c
ib liography
R x
ys on
H AS
or tions
ly n
Ġquanti tatively
ar x
in fer
track ing
per f
mon oton
pro pagation
ĠSk Pdf
Ġminim ized
document Element
chro matic
Ġsil icon
Ġrep lica
ocab ulary
> -
ĠM SSM
Ġunivers ality
Ġc ultural
de tach
W est
no br
ĠC z
Ġto ld
c T
Ġsta ting
Ġmodify ing
{\ ,\
pro blems
Ġtyp ed
' )=
Ġc ot
Ġvalid ated
Ġexplor ing
Ġb an
ra ce
Ġcross ings
* .
o ph
Ġknow s
DIS ABLE
Am ong
dist inct
feed back
un def
Ġen crypted
MS G
user Agent
PR B
rac tical
_{ _
ta kes
per turbed
ĠR TC
mach inery
ct l
Ġpa inter
Ġrest ored
Ġcomp ositions
quoted bl
fla vor
tite m
ĠL ord
}_ -
Ġbounded ness
23 7
uc lear
Ġis set
Ġs oc
ĠU pper
ver si
ĠB SD
ĠS GD
Ġdemand s
er en
ac r
omp son
Ġex clusion
Ġun usual
( `
Ġprac tically
Ġs napshots
Mod ifier
ĠData set
ĠF red
36 5
Ġstand ards
Ġf ederal
Ġy es
ga ussian
I ts
Ġqu ies
USE D
Big gr
pe z
19 35
He ap
Ġmultip let
Ġdra matically
lu c
Ġover lay
IM AGE
çĶ ¨
onom ic
ĠBer lin
field set
Ġcontroll ers
aspect ratio
ĠL ar
Ġsu ited
P ane
h owever
Ġstri king
ĠN R
v endor
sp ital
}/ (
Ġbe at
String Builder
Ġperiod icity
CL I
Ġper mitted
GL API
exemplar City
M iddle
Clo sed
}} |\
Clo sure
an tom
sup seteq
ID s
ĠQ t
ĠWIT H
Ġhead s
ĠV e
Cho ose
ĠW is
Ġfe asibility
level s
ĠS tyle
ĠP E
Null Exception
assu me
dig est
ver sities
ob jective
ug al
te or
Ġadv ances
ex ci
DE C
Ġmathe matics
D ri
ĠTh row
F lush
text quotedbl
Ġsta cks
El se
AUT H
Ġb b
tag on
Ġn k
O pacity
ĠRail way
Ġdecomp ositions
Ġorigin ating
re ll
gor ov
pro x
v u
i tage
ĠR u
Ġs alt
Over all
code c
Ġre named
Per missions
Dest ination
C y
f req
Ġsp ike
comp ressed
2 15
ĠD A
ch iral
Ġcharacter izing
mag net
DE S
Ġblock chain
; ,
P erm
lu sion
Ġcor onal
Su ffix
Ġclub s
Ġseed s
ãģ ®
w ick
ĠAn ton
c assandra
23 1
Symbol s
? ?
Ġn odal
Experim ent
Ġo wing
comp ress
eto oth
ai ro
depend ing
S ent
Ġp ub
vers es
Ġformula tions
ĠConn ection
l ift
Sl ider
HO ST
ĠSe lection
Ġadop ting
Ġreti red
f h
el son
ĠTh ose
Ġin sufficient
unit ary
vi es
D Y
Ġf ruit
H ilbert
Ġat tractor
Ġcompound s
no ck
ĠColumb ia
Fa ult
Ġ" :
Ġk ill
comp utation
AR GET
ĠFirst ly
' }{\
Ġup grade
Lo ss
Ġfootball er
ĠN etherlands
spher ical
ant t
Ġaccum ulation
el o
18 6
CD ATA
US H
KEY WORD
19 38
Ġhus band
Con struct
B ir
G i
Ġif rame
Au stral
mark ed
Ġvo tes
Ġd jango
ĠJ r
)$ ]
Ġexperi ences
un ters
ĠM AP
ĠL es
control led
Ġinv is
ĠLa ure
ĠRe view
ĠU E
Ġparameter ization
ol y
{ +}
RE ST
P ublish
M essaging
23 8
z hou
ĠJe an
ĠHy per
B an
re action
time line
ou theast
Ġdiscus sing
Ġatt racted
Table Row
discus sed
ĠE T
re spect
ĠSp ect
theore tical
ap id
f ted
y ou
color box
X HR
ox y
C amp
F our
ĠLe vi
Ġtransp ose
Ġspecial ized
ĠGra ssmann
Ġsol itons
bro ken
F em
Ġformat ted
mes on
Ġne g
Ġcompact ly
is String
u rac
Ġ ig
CON ST
ĠVAL IGN
Ġcred entials
Ġto y
}$ ~\
sl ides
Ġsil ver
tr uct
ĠS chema
the m
d an
Con versely
26 2
far cs
Ġgu ard
IN TE
sol ar
Ġjus tify
g overn
Ġh etero
Ġun correlated
Ġspace times
Ġnew Value
ĠF air
Ġemission s
REQ UI
Ġnever theless
Ã ¢
Ġsem icon
" ])
re li
_{ *}
') [
pack ages
(' :
corre ction
dis p
Ġdata bases
Al ignment
Qu ota
end ers
Ġl ic
Ġun directed
f riend
Ġrefere e
Ġpopular ity
// ----------------------------------------------------------------
Ġmu ons
textg reek
ra mid
ĠN AV
Ġinter ven
Ġtransmit ter
iffer ential
ĠS top
fa v
F IR
Ġ )$.
ĠG Cs
(' $
Ġti les
c rc
ĠD G
Ar c
ĠChar acter
k le
Volume Source
la psi
Ġcomm uting
pre sto
Ġgeome trically
el la
ĠC ME
ĠD T
assert False
)\ ]
M en
ayes ian
ĠN V
ĠK h
ĠA udio
}}{ {
Check ed
Ġcoinc idence
back end
Bri tish
ĠM ode
isot ropic
ĠMean while
ma de
() ]
ĠRe port
Y M
Ġmetall icities
effici ency
ĠScot land
Con figure
Ġch rome
end o
m rm
ĠH or
n ight
F ourier
Sta tistics
C ached
Ġ[ $
ĠW ell
AM L
---- -
ĠCh ain
Ġapplic ability
Set ter
18 2
>( <
Ġshell s
ĠApp ly
Ġiso lation
Ġvio lating
? "
j ac
ĠD ub
. :
ĠD ynamic
Ġpo set
re cent
E scape
c am
e mb
Ġde als
40 1
$- $\
T OO
Re fer
Ġre m
ĠG LE
Ġinter play
Bel ow
hand led
}}_{ {\
(\ |
&+ &
[ ][]{
ĠIs lands
Ġtra ding
Ġla d
ma ble
Ġte lescopes
4 95
ĠA dap
Ġcons texpr
ĠProf essor
Ġmin ister
F u
ĠJ us
ĠD F
Ġthe ta
ab r
Let t
ĠPro tocol
Ġdup licate
il ly
ac ted
ĠConst ant
Ġw ins
Ġf li
co ord
Copy right
Ġin sensitive
8 000
b rac
to k
PL ATE
studi ed
ĠR ights
ump tions
Ġmask ed
W D
}} }^
ding ton
Ġsc in
: \,
Ġ$ ('#
top ological
Ġcovari ates
20 48
65 5
ps fig
ey ond
ĠLabor atory
W illi
M ON
Ġpropo ses
Ġann ulus
C he
Ġper colation
la h
ĠDis play
Ġperman ent
" ?>
As set
Ġsw itched
gre y
ur ies
Ġbu ffers
@{ }}{
clip se
ev ing
ĠTh roughout
repres ent
me js
long mapsto
ĠCon serv
std out
Un marshal
Ġprof essor
CV PR
ĠAuth or
api machinery
ĠConver ts
im inal
ĠN IR
Ġs chematic
ro bot
Ġindic ators
Ġsemis imple
64 0
orbit al
respon sive
remain ing
squ ared
rule d
quark s
Ġleak age
In clude
IS H
Ġspread ing
Ġhighlight s
] }{\
Ġdec line
ile y
Ġtit les
clu ded
Ġne bula
Con d
ĠV M
Ġfinish es
C odes
Ġdo cker
optim ization
Ġf ly
ĠM ust
pre diction
ĠAT LAS
Ġsub class
Ġco pied
Dir ty
Ġl ifting
19 18
ape x
Ġsimpl ification
ĠSwed ish
Group Version
Ġ( []
eps fx
_+ ,
},{" ./
epsfx size
tific ates
an alog
Mu table
Ġaut oc
Ġr v
High light
ĠC ulture
i h
le pton
Ġasser tions
Ġiter ated
pro files
FR OM
Ġtrack er
\ )-
\ }^{
Ġapproach ing
Ġfree ze
widget s
Ġown ership
Pers onal
ogen ous
Ġint ense
Ġex haus
Ġign oring
ĠJ es
Ġinher its
Ġan cient
Ġp lu
Ġin tr
ac ute
Ġdesign ated
Ġautoma ton
ĠCh ap
clo sing
Ñ İ
la zy
D N
ĠS ave
Ġ} )(
% "><
Ġunit arity
care t
where as
ĠIn cre
y le
}\ }\
Comp at
S ug
4 75
Bin der
Ġphot ograph
Ġingre dient
C AC
ĠB og
Ġcopy ing
Ġadv oc
ĠO perator
Imple mented
Repe at
Ġro uter
Dis able
Ġsemic lassical
ber n
Ġampl ification
Ġrelig ious
local ly
aren cy
Ġcircum stances
M illis
ENT S
si ans
Ġenerge tic
Ġstreng then
uc l
ĠR og
ĠEv ents
cc i
ĠSD L
le ast
Ġhous es
sub fig
Ġback wards
Ġbott leneck
Ġres um
Ġprogram me
scal a
d ote
)\ !
V ars
acc i
Ġpay off
qu ick
ĠP ur
vers ing
Vari ables
Ġanc estor
Ġpublic ations
Ġsu i
ĠSp orts
0 17
R outing
}} }$.
class List
j math
De mo
ense m
Ġmet als
Ġsl iding
C as
Ġ$ +$
ĠE mpty
Ġintegra bility
S olution
Ġfe e
V R
Ġag gregated
ĠE conom
}}, {\
ĠL MC
Ġsen timent
ĠHub bard
er or
ian ts
( ?:
ĠS B
os a
P ret
Ġgener ations
AG ES
Ġparse Float
L ab
Ġperson nel
fund amental
ĠP N
G ordon
ĠP NG
Ġintern ally
3 10
8 75
fil er
, (\
Ġassign ing
incre ment
ĠGener ic
Ġmal icious
ĠA nonymous
ĠRe moves
Ġaltern atives
ĠC N
Ġup stream
Rep ly
Ġco moving
30 1
16 1
Ġcal endar
Ġinf ected
erm ite
19 1
Ġtw in
PD ATE
Ġpro tot
ĠSV M
Ġ ----------------
$-- $
$ )}
n w
Ġd anger
Ð¸ ÑĤ
ta ctic
Ġrestric ting
Ġre venue
Ġ& (
Ġch unks
Ġt f
ign e
ĠG i
Ġ= (
id i
Ġconstruct s
P ASS
col s
olog ist
d ar
t ls
z able
B ern
P as
i mag
z ar
) ];
g log
imp licit
fra ct
ĠCommun ity
ĠString Builder
Ġabsor bing
ĠAn gular
Ġmat roid
Ġguid ance
$& $\
e i
tor sion
t bp
ub i
Ġat traction
or acle
ĠIN T
den ote
Ġclean up
Ġvor ticity
ick s
^{* }_{
onom ical
Ġ) ^{
Ġload s
ĠAccording ly
Ġpre tty
reco gn
Ġc aching
Ġneutr ons
pal ette
Tool Group
Spa tial
Bound ing
op lan
re le
ĠL inux
Ġtra pping
Ġoscil latory
ĠR od
, #
es tri
network s
sh ake
ĠAd vanced
}) ),
ĠIn sp
Ġinf ection
occ up
Ġin formative
Ġinter ests
Ġcor por
Ġb esides
ĠĠĠĠĠĠĠĠĠĠĠĠĠĠĠĠĠĠĠĠĠĠĠĠĠĠĠĠĠĠĠĠ ĠĠĠĠĠĠĠĠĠĠĠĠĠĠĠĠĠĠĠĠĠĠĠ
W P
Ġexplain ing
Cur ve
Ġho ckey
Ġchampion ship
star ted
Ð¾Ð ´
comp osition
Ġdeliver ed
b ank
Re fs
Ġposi tively
Ġpsy ch
Ġconstit utes
Stack Trace
Trans lation
Ġh a
VER TEX
}} }$,
Ġheavi er
E r
ĠP lot
comp ilation
Ġrestric ts
Ġprote ins
ĠTh rough
Ġtw enty
ge b
Ġme mo
Ġd c
p ing
in variance
re ve
gin o
MM ARY
T aylor
Ġgra ding
************************************************************************ ****
Ġnormal ised
Ġre versal
)] ^
j m
mo gorov
SE D
rac ing
ĠDi agnostic
Ġrecipro cal
Col ors
Ġdomin ating
th umb
PI O
Ġmur der
_{+ }
o les
n ar
comple tion
Ġ ÑĤ
Ġ: \
Ġs eq
be ans
0 32
tric ts
list en
cat alog
Ġencoura ge
s ender
ĠJ on
Ġelimin ation
ab und
s and
in z
Ġmaxim ization
Ġdisorder ed
Pro jection
L V
ĠS ho
th a
Ġfac ial
ĠS ession
ĠD ra
Ġcancel led
)\ |_
defin itions
Ġcur l
ĠPro b
ĠCO L
ĠGovern or
Ġ`` \
ĠSet tings
Ã§ Ã£o
ĠL uc
ĠR HS
======== ====
Un able
or ms
B IN
W u
po or
Java Script
ĠRe LU
_{\ ,
DI RECT
æ ĺ
d td
Ġop tics
abe th
tra its
lapsi ble
ho oks
Ġper ception
PRO JECT
B rown
ro ut
Ġdoc s
S Z
AC S
similar ity
G PU
45 6
Ġserial ize
ĠOb viously
hu ang
Ġab straction
ĠHe ader
ĠS ong
Ġauthor ity
Word Array
}_{ (\
ĠW ik
ĠĠĠĠĠĠĠĠĠĠĠĠĠĠĠĠĠĠĠĠĠĠĠĠĠĠĠĠĠĠĠĠ ĠĠĠĠĠĠĠĠĠĠĠĠĠ
sample d
m il
Data Source
R H
confir med
g low
Ġco medy
Ġver ifies
Bin dings
ab ort
Q t
f eld
ch arged
n th
ex e
6 50
ĠA re
suc ceq
Ġbase ball
c w
Ġun resolved
LE D
PRE SS
C ipher
p sp
ĠW el
te le
Ï Ħ
)) -
Le gend
U K
lu etooth
Ġrefer ring
ĠS afari
Ġsix th
Ġf iring
Ġinter cept
Ġani mate
_{ <
ĠL IMIT
success ful
pur ple
des cri
So ft
ĠT al
pop over
OFF SET
Ori entation
ĠS A
P ad
Ġfo under
Ġredd ening
H it
Ġplan ts
Ġdiscrimin ation
Ch rome
~ ~\
Ġf ading
ĠP ear
e vi
Co st
ĠIn stance
Ġdemonstra ting
R ail
Comp ile
conj ug
M ich
Ġflu ids
ale ph
Ġbary onic
app lied
ĠI T
Ġcont in
18 3
80 80
Ġcub es
Ġtor oidal
W T
ur g
Col s
Ġobservable Proto
J K
Al ert
ĠEn sure
Ġsur vive
Ġ$ &$
Ġev id
clear page
Ġf old
Predic ate
Ġput s
ti ze
Ġc ited
Ġg fx
Ġenjo y
ron ecker
bb on
cr ypto
Ġp ions
GLE W
ĠN ight
ĠO nt
neu trino
amazon aws
em y
Ġconstitu ent
Ġc lic
26 5
4 25
Ġ- {\
Ġen gines
Ġint ention
g host
A belian
I AN
M G
morph ism
G ro
bo unce
d os
m irror
f am
ct an
Ġdep ths
Ġa imed
Ġdis p
rep ly
\! +\!
Ġsimula tor
Ġout burst
ĠAPI ENTRY
J D
Ñ ĸ
sp read
ĠA nt
Ġobe ys
0 60
od s
H i
e poch
Ġpla cing
C MS
ch ip
ph onon
war ding
acc ent
GR AM
Ġl icensed
Ġequ ilibria
y on
Ġin decomposable
Ġsh ifting
Ġcons isted
Ġpeak ed
Ġw orm
ĠDo es
ĠA tomic
ĠM LP
Ġpod s
car ousel
Un its
Ġcontract s
Or d
W ritable
uma bly
ĠJew ish
Ġemplo ys
Ġemer ges
en z
Ġs ales
Ġpre cession
tit udes
d am
ATTRIB UTE
19 19
Ġmag ic
ĠG ran
Ġre serve
ener ated
Ġmatch er
)| _{
uck y
Ġb at
asso c
Ġmunicip ality
d op
Ġs leep
Pod s
I ED
)$ \\
Av g
Ġcharacter izes
de ps
ro g
Res pon
RO P
Ġmix in
ĠIn it
clo sest
d j
22 7
q c
od o
ĠRay leigh
I tal
å Ĭ
ĠWh it
Ġgran ts
Ġattach ment
ĠP BH
Ġint rac
ĠPro te
R AN
j sp
sh ifted
Ġlead ers
an other
d P
{\ {
ĠOffic ial
Ġpr inted
Ġpre condition
ĠDe pend
4 30
in tern
Ġd ry
Ġerrno Err
ex clude
u da
| _\
ĠCo ast
Ġap ilevel
ĠKore an
ĠSpr ing
mix ins
Ġspin ors
ĠLo ss
ĠR aw
ov y
pos it
at us
if false
] </
v ich
allow s
mon o
ÑĢ Ð°Ð
ĠDis able
Menu Item
Ġ] );
Ġcollect ing
W alk
Ġpromis es
Ġ\ @
car bon
\ ^
Ġra in
SP AN
Ġconcept ual
ĠPe ak
Ġpolitic ians
D ump
=\ ;
N LO
S ound
IG O
Intern ational
IN PUT
Ġh emis
Q T
ra it
Ġcoun ted
N ag
" +
ĠEd itor
Ġb illion
^{+ }\
DEFIN ED
ĠO UT
Ġoffic ers
ĠWork s
aff ected
Ġpick ed
ĠV L
Ġcompu table
ion al
L ists
pro jective
Ġp lug
Ġ" ");
Ġequ atorial
o ma
NE W
l isted
Tool tip
in sp
ĠM obile
Ġmain tains
Pri v
c ms
ĠS r
cover ing
te am
ĠS ER
ĠG er
Typ ed
\ }\\
ĠD est
ak h
Ġmark ets
Ex pi
Ġpoly g
b ag
l tr
ro tating
Ġmar riage
et ale
- ,
Ġlist en
Ġs tim
Ġfor Each
domin ant
Indic ator
ta tivity
ĠW R
Ġequ i
Ġ` _.
Ġ'/ '
evalu ate
Ġd p
labor ation
ĠM E
ĠSt udy
row se
* >
ĠTemp late
ĠS ame
ĠB ridge
tor us
G yr
um mer
Ġwh ilst
EO UT
Ġdes criptors
Ġspecific ations
_ ("./
por ter
ĠD or
inherit doc
ĠF ederal
ĠSta ge
PIX I
22 1
Ġme l
ĠV GG
Ġmorph ological
ĠAs ync
cs v
( <
ph it
col ored
Bo ost
ĠCNN s
ĠChi ef
Ġc rack
ĠH ot
ĠQ String
ĠDes cribe
Are Equal
ĠF orest
ref s
ffff ffff
G uid
ĠClass es
################ ################
ĠP D
Ġsc ans
CO PY
ingu istic
Ġconver ging
cos m
s warm
ĠTra its
ĠIn du
ĠStar ting
Ġf uzzy
iter ate
Un icode
Ġdiag nostics
Ġresemble s
] )\
loc ated
+ .
te o
la del
ĠOper a
C ert
Ġquan tified
Ġcell padding
Ġhouse holds
Index ed
arr Index
Ġa wards
Ġparticip ant
Ġcon densed
Ġvalid ator
clu des
Ġla s
sc ene
Ġorigin ate
^* )\
ex am
Ġpla tes
ĠScot tish
Ġwh eel
Back up
> .</
get Key
hed ra
adam ard
Ġcut ting
un skip
Ġab and
typ ically
W IT
ĠY es
Process ing
Ġsl ider
Warning s
WIN DO
Ġre connection
ge ms
text backslash
ci i
ĠP lace
ĠSD K
Ġsc anning
qu a
{\ |
' }$,
ĠB ottom
Code Analysis
Un fortunately
Ġwave let
Ġforecast ing
R v
Ġro bo
" </
Byte Array
ach i
19 29
ĠĠĠĠĠĠĠĠĠĠĠĠĠĠĠĠĠĠĠĠĠĠĠĠĠĠĠĠĠĠĠĠ ĠĠĠĠĠĠĠĠĠĠĠĠĠĠ
++ (
mass es
Ġsurro unded
Ġa cyclic
Ġv acu
ĠD AM
No tation
Et Al
ĠRo ss
Ġsequential ly
ĠK er
Ġdemonstra tion
---- --
Ġt ens
Do cker
) )\\
Ġg un
rm s
V an
Ġa mple
pro posed
per m
Ġequival ences
}~ (
| /
Ġhapp ened
l inux
Ġm useum
^+ $.
Ġ. $$
ij kl
ab b
Ġmove ments
author ization
ev in
Ġmim ic
un ting
eta ble
Trans late
Ġdig raph
Ġ ic
set Text
p zc
R UN
Ġn ar
Comp osite
Ġtend ency
Ġc us
ol is
F ire
[ ->,
con tributions
loc ations
per form
Ġmonoton ic
ĠSch ur
Ġharmon y
Bet ween
Ġsup remum
ĠL ind
Ġch ord
me tal
ĠO C
^{* }(
Ġco set
initial ized
co ut
Ġsit uated
I FT
| |_{
19 32
3 12
appro priate
N EL
Ġmod est
Circ le
gra vitational
Ġinter change
Ġiso late
22 9
Ġellip soid
Ġcol le
pan ic
ĠX MM
Ġsur gery
Ġdis tillation
as test
Ġcr icket
Phys ics
28 5
Ġdefault Value
ĠB F
ref lection
ĠR aj
Ġsh orthand
La unch
ladel phia
Ġis Array
}) },
S trict
}} )}
ill en
M inu
w c
ĠO K
&& +\
FLAG S
Ġhist ories
get Property
Rec og
æ Ī
un shift
exp ects
z n
set Timeout
data sets
l ens
Ġsub graphs
d og
Ġpresent ing
! </
UT C
Ġcustom ers
S AT
Ġb ending
K R
ĠY et
de cess
ian chi
Âł Âł
Ġwin ding
= ,
R ew
calc ulations
append To
.. .\
Animation Frame
Upper Case
$, $
ĠNAV BAR
K u
Ġe c
IS A
^* ,\
insert Before
in dividual
Ġear ned
moz illa
Ġch ap
V e
ĠRed is
ĠĠĠĠĠĠĠĠĠĠĠĠĠĠĠĠĠĠĠĠĠĠĠĠĠĠĠĠĠĠĠĠ ĠĠĠĠĠĠĠĠĠĠĠĠĠĠĠĠ
Ġvola tility
se k
ee ded
0 90
ou ra
Ġth ir
Ex change
Ġaccommod ate
Ġpush ed
leg ation
Ġsynchron ous
M ail
19 28
30 3
Ġformat ting
dote q
Prop Types
18 1
% );
l arg
repres entations
Ġin distinguish
INST ANCE
un te
Å ¾
ĠP ers
Ġlongit ude
Ġresis tivity
ĠDig ital
}$ ]
con sin
Ġtr uly
Ġwhite space
el led
Co h
K ar
mo uth
es sibility
ĠS ti
NotFound Exception
ĠFrame work
19 31
Ġass istant
Q N
ul p
ax ial
ĠAn aly
Ġpers istence
ĠPDF s
Ġvirt ually
l j
to o
impro ved
Ġidemp otent
Ġc ere
WAR NING
ĠAr gent
ĠCh art
ct ype
at tack
| =\
l ich
Ġg lue
Ġgra mmar
H aw
U UID
q n
Off ice
Ġvirt ue
}) }(
P FNGL
char s
new Value
f olds
Ġe g
ĠFi refox
}) }.
Doc trine
disper sion
ph ases
con version
Ġinst allation
me th
Ext ended
Ġmitig ate
ans en
cite author
elf are
ĠR MS
ĠAGN s
ãĢĤ </
c nt
h phantom
tis tical
([ "
RET URN
Ġchar ging
Ġdeco ded
ĠH ost
i ang
Ġnumer ator
Un like
NO WN
Ġfer ro
ĠB ud
res sively
fin es
Prototype Of
D em
m ier
pp le
target s
G rant
$\ ;
Ġhyper parameter
( ",
Ġparticip ate
N H
FUN C
| &
Dete ctor
B tn
he alth
Ġswitch es
s leep
ĠS on
Ġd imer
p at
Ġs ought
Ġp uzz
Ġtrac ed
re moved
urac ies
9 80
UD ING
}} )^
sc i
Ġstr ug
g w
ĠE gy
Ġbu y
Ġdiscre tized
ĠMulti ple
19 33
Ġport folio
M usic
Ġear liest
id ge
ĠT an
DO WN
> ",
$ -\
Ġc au
Ġob li
bo urne
s x
ĠGener ated
Ġpers ons
pattern s
Ġw ake
Par allel
Ġg a
ach el
o ss
ĠC ub
yn e
aris ki
. âĢĿ
ĠO H
Ġconjecture d
Ġrepla ces
Ġneighbo urs
Ġd f
r lap
new theorem
Pop ulated
e asy
0 80
From String
ĠRed u
. ),
Ġorigin ates
âĢ ľ
Id entif
continu um
-> }[
Ġopportun ities
con formal
ph asing
Ġbo ot
S hi
dd dd
Ġpor tions
2 14
Ġsoft max
è ¯
Ġwor lds
Numer ic
s orted
Ġla p
Ġab ort
(' ');
hy brid
ĉ ĠĠĠĠĠĠĠĠĠĠĠĠĠĠĠĠĠĠĠĠĠĠĠ
ro d
Ġs essions
erm ine
Ġ(- .
recor ds
Ġt um
ĠA SC
P reference
Ġadjust ment
ĠCl ifford
Ġb a
ĠA MD
Sc ene
ĠExt ra
Ġall Classes
net t
xx xx
ĠC B
Ġkey words
be y
A mp
ĠD un
ĠT CP
ĠC reek
Ġs ed
ĠL A
Ar n
}| =
ĠV olume
ur is
ĠB EC
medi an
M us
N u
Ġtop ologies
' }),
Ġheight s
ĠLo ck
t rees
qu eness
De finitions
Ġbreak down
Ġsupernova e
or table
ĠW ard
Ġr ising
Ġinf laton
Ġalloc ate
" \
In voke
S at
b ench
nos is
Ġenumer ation
math pzc
li ved
Ġes c
polar ization
ĠVictor ia
^+ (\
Com ments
sen sitivity
ĠDo cker
Ġl ands
sk ew
calc ulation
Ġt rou
N orth
bec omes
C OR
nes ota
Î µ
Car lo
Ġdis continuous
Ġtransform ing
get Context
L ive
Ġdecoup led
er un
as mine
30 7
Ġ`` $
su ffix
so ap
vari ation
[- ]
t um
Ġm k
IC S
ĠComp osite
Ġsynthes ized
x sd
I PT
V B
}}$ \
ĠPro file
ĠI ce
C ritical
Ġsub tree
ĠL C
Ġcongru ence
32 7
E uler
Ġsearch ed
Ġgra de
match er
Ġcyc lo
Ġh air
}) --
C hat
Ġanalog ously
Ġescap ed
O G
U X
25 7
d uring
y x
3 90
Ġnon commutative
Ġnav igator
The ory
Ġacc ident
Ġani mated
perturb ation
no op
ĠV iet
Ġcompe ted
Ġ\, {\
the ight
Di amond
Ġpy thon
Ġsec re
Fin der
t win
in x
=" ./
Ġ. $
Å Ł
ĠV en
ard o
ĠST ART
per fect
Ġob struction
Sub mit
rom ov
Ġintersect ing
oc entric
AL LOW
cor o
Ġcan on
ak ed
tit led
Ġproble matic
to on
we et
default Value
iti ze
Match ing
Pol i
Ġsett led
Î ¹
au ge
( $.
un lock
mo v
D ual
cd n
^{* }\
Ġper ipheral
man aged
w rapped
Ġh ack
w inger
18 00
a q
de leted
Ġlock ed
PROPERT Y
ĠT LS
Ġsh ed
Ġsome one
22 6
Ġquanti le
. %
app le
lor er
ĠDo main
Ġh over
Con ditional
M OS
Ġh r
ĠS hi
ĠA k
ĠB os
ĠPri me
- |\
ĠPo inter
22 8
Log ging
' </
s ink
Ġab lation
ĠW at
Ġgene tic
Ġdeta ch
te ll
ear ly
^* _\
comm erce
integra ble
------------ --
o auth
ĠCo hen
XX X
æķ °
hom ot
Ġproject or
Ġi e
Ġme V
Ġarg v
Ġp orts
Ġc line
3 15
f re
Ġd g
max im
ĠMar shal
Ġvis its
Ġclar ify
wart z
Ġstri de
q bezier
Ġf rust
Ġd ies
item sep
Ġtool bar
Sm ith
Ġoscil lating
Ġsol vers
F V
Operation Exception
st ress
Ġti ssue
19 27
copy right
ILE D
Ġb rid
Ġpartition ed
uniform ly
Ġsatis factory
ĠA verage
Ġ-- ></
Ġcommunic ate
Ġtre ating
Ġ\ $
ĠA UT
ruled tabular
con structed
ING S
stop Propagation
J ust
\ ":
ĠG T
b box
be at
ant or
db c
ĠID s
Work space
ĠTran sport
2 17
g k
Poly gon
$\% $
al gorithms
format ter
Ġdialog ue
M as
so ck
ĠU pon
Ġpol l
G ar
, %
Ġcha os
I r
+\ |
Res Net
23 9
ĠP AR
19 17
Ġinv ocation
Ġoccur rences
Ġcri me
h bt
ĠU T
Transform er
ĠT ai
b io
Ġ} =
recur sive
Ã ł
ĠĠĠĠĠĠĠĠĠĠĠ Ċ
ĠP atch
Conver gence
^* }\
faster xml
de lux
Ġco p
ĠP I
F K
ĠSecond ly
fun ctor
ĠN Y
w f
Ġpre defined
ÑĢ Ð¸
conn ections
Ð¾Ð ¼
Ġsubtract ing
Ġdo jo
Dis posed
Ġdro pdown
j b
Ġco operative
ast ro
ĠSecret ary
} *{
Ġ$\ {(
dis cre
Ġmaxim izes
Ġ å
Ġreson ator
Ġb unch
ay an
AD DR
ĠLet t
ĠL ive
ĠRec e
Ġresid ents
Ġloc ate
Ġhom omorphisms
Spec ific
>> >
ert z
Ġline width
str and
Ġinte lligence
lat in
assert Same
ĠG ab
LA Y
H ermitian
f usion
ĠHo spital
Ġpro mp
,\ {
Ġmoun tain
Pro j
ĠInt roduction
delux etable
ĠSta tic
uk i
ĠEl iz
ĠC OP
ran ges
ĠRE G
ĠS ie
Ġdep letion
Ġrare ly
cy an
Ġeigens tate
,... ,\
Ġsub systems
Co up
i ors
U NS
Ġun set
ĠComp aring
Ġdiscrimin ant
expec tation
U tilities
Ġ' ../
ĠBut ton
B ell
TEM PLATE
for t
19 10
è ¡
Out Of
$ }\\
AMP LE
eng ers
ĠS MC
Ġtransfer s
set Value
Ġsupercon ductivity
{\ #
Ġis lands
nu clear
LO CAL
Ġexhib ited
}\ \[
Par a
}} }^{
col og
------------ -
m h
Ġin homog
Ġglob ular
produ ced
U r
Str ong
Ġrac es
3 64
Ġat tain
Ġsepar ations
Ġcoordin ation
ĠU ART
is NaN
ĠallClasses Link
ĠP ier
Ġtermin ates
Ġstabil ization
K EN
s yste
Ġdele tion
; \\
f urther
con duct
row color
+\ ,
Mo ment
rc l
func ptr
Ġ| |\
rep la
H N
Ġz ip
Ke ep
Ġeq s
ĠSci entific
{ ~
Ġpredomin antly
ĠD om
ĠJo e
Red irect
URI Component
Ġma il
19 14
lin eno
Ġl ifts
Ġcomple ting
Hand ling
pres ented
Ġres ort
Ġexp atriate
IN R
Ġdebu gging
NAM ESPACE
( @"
Ġenco unters
n om
24 6
Ġdirection al
Ġl ane
\\ &&
24 8
Ġpro vince
ĠD iff
cal ib
Ġdis continu
arch itecture
Jo int
repres ented
Ġenga ge
or pdf
inu ous
g old
ĠS elf
Ġdi am
split ting
cap es
CT L
xy z
B ridge
v acuum
Ġswe ep
Ġcon sum
C ube
E mber
G UI
un til
Ġ" </
ĠPro duct
ĠMo ore
}\ ,\,
\, {
:=\ {
Ġex emp
Ġfav our
tex orpdf
id o
to Array
$}} ;
texorpdf string
re ment
Ġout ward
(( (
ho ma
Ġdiffu sive
Ġredund ancy
Ġli ber
web shims
Load Balancer
}} }.
Ġchar s
ĠHaw king
ĠP ush
syn chron
Ġauto encoder
Hal f
is si
ĠLi u
A tom
me V
Ġcoll ider
Int ro
GRO UP
Ġprodu c
ĠEq n
F rench
ev a
}] =
Ġyou th
Util ity
ĠDis tribution
Ġgrow n
big vee
we i
ĠF IR
Ġold est
u chi
ll is
Ġen velop
Ã ª
ri p
30 5
vis ited
Ġattemp ting
chest ra
mid way
corre ctions
w y
}\ \\
P ull
ĠImple ment
pa gated
FR AME
Ġatt end
embed ding
inter mediate
($ (
Ġdistribu te
Ġim balance
R NN
preser ve
ĠFor mula
Ġti ed
G K
G it
ĠS chedule
f mf
li ver
he im
ĠValid ation
big otimes
Ġa f
Ġf elt
pro f
k ers
Ġne goti
Al tern
respec tive
Ġtro ops
ĠD omin
Ġredu ctions
C Sharp
k d
ĠV or
Ġ um
19 26
url s
pos al
Input Widget
plot one
ula tors
Get Type
Ġtravel ing
Ġdri ves
tim odal
Key Value
nav igator
}\| _{\
gni tive
3 70
W ISE
ĠMet ropol
res olver
mu ch
im an
(" [
T Z
Ġ( =
ĠB BC
publish ed
ĠS ey
We yl
ĠÐ ·
Ġco operation
Ġrele ases
Ġl ightest
Ġcompu ters
In jection
40 5
ĠTo gether
Ġd imin
ĠA bs
At tempt
ĠS el
ĠE L
lef teq
ho o
Ġsol o
ai lo
md c
Ext ract
| +|
ac i
Ġvis ually
Ġdomin ance
ht p
LE N
Ġt c
! ');
ĠP rem
LE X
Text Node
Ġaccomplish ed
Conn ector
STR UCT
Ġadmin istration
Ġstiff ness
Ġgra sp
q b
is ta
Con tainers
F ran
st en
ress ing
Equal To
Ġterr itory
ĠI r
An n
Lag rangian
f at
buil ding
] ",
ĠB B
BUI LD
EX CE
<? >
Ġadminist rative
g ency
25 4
\!\!\!\! \!\!\!\!
arbit rary
: .
Ġutil izes
Ġsk ills
Target s
Ġl ifted
roll ers
Ne u
Button s
ãĥ ¼
ĠBit coin
Ġwe ap
ĠB ody
ĠOb jects
ĠSen ate
H B
L ng
c riteria
Ġ ut
Ġcla uses
Ġmultip liers
ava il
ĠRec ent
A bout
H en
tif ul
Key board
omes tic
Ġengine er
ĠSU MMARY
Ġprovid ers
Ġ{ -
66 67
re ma
Ġin hab
ĠF amily
HT MLElement
b ord
Ġ" {
Ġ' __
+ ,
$$ {\
Ġtermin ate
ĠF E
fin der
24 7
Ed ges
Ġsurprising ly
Ġg ui
ĠH S
TR A
dis joint
Ġhel pers
web gl
F lu
Ġcap s
Ġpress ures
Ġd og
Ġassoci ations
Ġ= -\
Ver sions
Ġrg b
Col lector
ĠP G
R m
^{ ++
are to
19 12
p orts
Ġlocal s
ĠV ER
Ġgeneral izations
C AN
33 5
Ġregular ly
fact ual
Ġen closed
weak ly
ĠH F
ĠZ ero
ĠSan ta
\ })$
66 6
Dec omp
stream ing
en tative
ĠD yn
Ġrestric tive
ĠN am
Ġen compass
Ġcon temporary
23 6
Handle TypeDef
b eck
Ġpar allax
ĠChris to
ĠP ot
/ ^
Ġset Up
ĠHa ar
cho ices
, ''
Ġqu i
\ }=
j it
Ġknow ing
Ev olution
Ġas semble
24 3
Ġhand s
Ġobsta cles
signific ant
phit pc
R anges
BO X
Ġhere after
| ^\
iter ation
ĠCalc ulate
ĠE uro
Ġ} %
Ġtwe ets
Spa cing
ĠRe lease
man agement
Ġexec utive
Ġme dic
Ġemer ged
G V
de ter
post s
K ra
l ig
ĠE oS
this Arg
Ġprob ed
on table
0 26
cite year
\| ^{
})-- (\
Ġsch olar
T OP
Ġeconom y
K r
ĠSy d
pi ents
ĠNo ether
Ġstack ing
la ve
Ġpur ple
ĠPri ze
Ġderiv ations
ĠEvalu ation
A ge
ma to
ĠMod ern
FE ATURE
r or
Ġprob able
Ġphys ic
] }}
DE VICE
ĠIR S
Bl ur
al ready
ĠR om
Ġ" __
Ġun constrained
ning s
pro mpt
ĠO PE
22 3
hash Code
tech ni
y ard
Ġd ial
T urn
f onts
cep ted
Ġelse if
ĠOV ERRIDE
qu it
ĠR ate
ĠĠĠĠĠĠĠĠĠĠĠĠĠĠĠĠĠĠĠĠĠĠĠĠĠĠĠĠĠĠĠĠ ĠĠĠĠĠĠĠĠĠĠĠĠĠĠĠĠĠĠ
- '
uns table
h ann
}\, ,\
Initial ized
is omorphic
Ġinf late
Ġau ction
ĠS ound
}{ =}
Ġexam ining
ĠSim on
Ġgenu ine
ec m
^{ {
Int ent
19 22
xi e
ĠBus iness
se ason
Ġevalu ates
Ġequal ities
ĠComp uting
Ġinvest ment
)} :
la pping
tra ject
Ġtrac table
V IEW
ĠF ox
int ent
ow a
ET ER
remove EventListener
Ġfavor able
Ġis othermal
gener ating
Ġst oring
|| _
ĠCont roller
0 28
abs orption
Ġl ifecycle
domain s
R ing
ĠP erson
Ġbo mb
Ġass istance
box es
Ġnucle ons
Ġdis posable
Ġdes truction
back ward
Ġhyper graph
Y LE
du ate
sta ging
Ġrid ge
A CTION
Ġfa inter
Ġultra violet
reson ant
call s
Ne gative
hol tz
Ġrelation al
19 08
Ġvari ances
Ġt an
un ted
ĠS her
Ġtex tarea
b ysh
ĠR AM
c ibility
ast y
Ġcom ma
Ġb rand
Man aged
ang el
Ġconver ts
Ġsepar ates
eq s
ĠP F
ne eds
C LO
ĠC SI
@{ .}
Ġd atum
Ġm ime
no break
Link s
ĠS oc
Ġheter ogeneity
T an
Ġset ter
Per cent
Ġorth ogonality
Ġ( |
4 32
ĠB l
(' [
Type Name
29 5
Ġbr ightest
Ġ[ #
k ish
Ġpartic ipated
Qu anti
Ġdele ting
2 18
M ul
Dec or
Min imum
4 20
Ġun necessary
Ġther mo
le mm
Coordin ate
Ð ¹
local ized
ĠJup iter
ĠOnt ario
Ġdevelop s
Ġnewspa per
Ġsp ite
Ġf estival
19 24
SR C
render ed
ensem ble
ĠDav is
Ġv oting
ata ble
Ġqu enched
Ġmis sed
Ġvibration al
ĠCurrent ly
ĠN ic
Ġg esture
Ġdiscus ses
Ġinv oking
N Unit
Ġun used
Ġwin ners
ĠRepublic an
ĠP SR
Ġrep lication
ĠR ome
circ ular
Ġcondition ing
Ġnav bar
Manif est
Ġ$| {\
Ġtransp ortation
=' #
d as
$\ ,$
Ġredu cible
endi eck
Ã¼ r
Ġsub division
requ ests
}| _{\
ĠLay out
p late
ĠP b
ĠH ecke
mon itor
K F
ĠC ell
ĠOlymp ic
ĠA UC
ram ified
identif ication
Ġle gs
Ġro unded
)! }
d F
ĠM IMO
differ enti
t ory
T OM
Ġw edge
qu ist
' $-
ĠMal ay
Q E
Ġreflection s
Ġ }\\
(_ .
spon ding
Ġsymme tr
IF Y
J L
Ġdis place
ag en
UB LE
19 15
ĠWis consin
C atch
th endieck
, |
Ġme ters
Fore ign
w x
ĠBuil ding
' "
Ġ )$,
ysi html
}} ).
bad ge
Ġc tor
60 1
ris k
Ġaug ment
Coll ision
sp ar
Ġfirst ly
HEAD ER
introdu ced
LIN K
ĠP attern
Ġun ambig
Coun try
W L
=" {{
Ġte aching
FO RE
un bind
ĠÐ ¼
Lat in
FAIL URE
$ +
ther s
ub ert
mechan ical
G re
P rom
ĠM un
we gian
B orn
ĠG amma
Ã «
corre lations
charCode At
du ce
os pheric
Ġpro v
ival ently
Ġincorpor ates
ĠF ont
ĠI CM
ĠEar ly
ĠR X
ĠK ondo
Ġver tically
up ta
ĠN H
ĠSto ck
' }^{
Ġpro jec
St udio
Ù Ħ
PRO TO
Ġ ~~~
v d
Ġsusp ension
h g
ĠS hape
The ir
Ġinter vention
AG N
ĠSyntax Kind
Ġa gric
RE C
si ent
ur us
In her
Ġco ins
Ġsum med
Ġglu ing
google apis
B AD
den sities
B or
oto pe
Ġs sl
ĠIn sert
Ġam enable
host name
19 25
amil ies
Ch ris
)-- (-
å Ń
er ance
ti les
Ġgroup ing
Ġback up
ĠP ad
get Default
ĠD ro
af ety
TIM EOUT
Phys ical
rott le
Ġan imals
ch ant
For mula
ene z
Ġconfig urable
ĠCont ract
Ġillumin ation
ra ses
M obile
ch at
Ex ist
Ġelectro static
Ġl n
{ [\
ĠWe ek
O ps
ÐµÐ½ Ð¸
ĠO s
render ing
Ġde tuning
Ġquies cent
ĠAss oci
Sh are
zon a
ĠCh em
/* .
Ġ" *
Ġreco vers
Ġarri ves
ĠM iller
con tained
: {
Expression s
}] }
Requ ested
Ġsuff ers
4 40
Ġco uncil
ĠR el
ãģ Ļ
CHAN NEL
AR M
Ġcompens ate
W ire
Ġoffic ially
Ġcol s
Ġreli ably
q g
ad oc
Ġsuper Class
ĠLi ouville
z end
to UpperCase
Ġbl ind
33 6
ĠZe eman
Ġwarning s
Ġst uff
ron ze
tod o
Ġrad ar
S b
Sta mp
Ġe in
Ġre start
Ġrecommend ations
le w
ĠP V
\\ \\
0 64
Ġwh atever
Ġpol ym
f ocused
Ġ" (
3 48
Ġl ighter
til lion
an iter
Ġspa ced
Fin ished
odes ic
)\ }$.
s nap
pix els
e ig
ĠS quare
Ġse lec
)) }\
ne gligible
Ġover write
I Enumerable
Ġequal To
Ġfract al
ĠHigh er
ĠRE ST
Event Type
tech n
Ġconcaten ated
30 2
_+ }
Ġbra id
Ġdepart ure
log s
file Name
Ġreco il
In dent
L ess
Ġdo or
dim en
% .
tr uc
Ġemit ter
ĠV i
re search
Ġco ded
19 05
rol led
comple teness
Ġlinear ity
oug las
Ġa thle
D AT
P ark
J M
y ields
Ġany more
ha i
Doc s
uncer tainty
S Q
Ġtext ual
Syntax Kind
la unch
Inter pre
Z e
ĠK S
log ical
co vers
Ġdist ortions
ff ee
Ġpre processing
Ġelabor ate
Ġpre d
ay ashi
do i
enum i
Ġhous ing
Ġc umul
Ġcontras tive
Ġlad der
ĠSyd ney
E urope
Ġ~ ,
ĠA z
c rop
W i
ang ent
i ability
Work s
Ġp ow
Res earch
ĠHard y
Ġg rew
ĠF ields
ĠP ick
Ġpr icing
Î ½
Ġrecor dings
Ġ utf
Ġbo unce
dis si
FI LTER
d M
ĠT C
oc aml
Ġaddress ing
Ġp f
L ER
ap ore
ay ley
Ġresult ant
G ENER
25 3
simple x
p ulse
_{\ !
Ġg ases
ĠS ite
^- ,
Ġcell spacing
Ġtil t
p oll
parse Int
Ġburn ing
G EN
lem ented
Ġani mations
? \
ĠY ES
Index es
30 6
Ġmention ing
imod ule
^{ |
ac s
comp ression
ENT ER
Our s
worth y
De g
ut t
Ñ Ħ
arg max
deg rees
:" -
Ġhistor ic
Ġ[ {\
k x
order s
ĠAppro xi
en cer
Ġdire ctives
Ġpurch ased
H ierarch
ĠT one
Ġmultiple ts
approxi mately
soci ation
ĠD ATA
hyper bolic
H or
R i
bur sts
( --
ĠM ike
s ong
Ġfem ales
ĠSwed en
P AT
LE M
Ð°Ð »
lo id
Kn own
H an
j ee
Ġv ocabulary
': '
Ġno va
J apan
Ġc d
un ed
Ġ' +
Ġra ises
Ġ($ {\
M artin
u w
Ġdra matic
Ġdras tically
\ }}$
Ġma intenance
Ġsp ons
ĠD y
ip otent
)$ };
Ġz eta
Rep lica
LOB AL
Ġsuffer ed
ĠB run
Dimension s
Ġa jax
23 3
âĢ ¦
over lap
With Error
28 57
lat ure
Base line
andid ates
se ctor
24 4
Author ization
quar ters
Ġamong st
illo uin
ĠA mb
K h
ra ised
ĠDu ke
es pecially
Der iv
Ġfac ed
ar ctan
$\ ,\
Ġme d
metall icity
ag an
Con struction
tran sitions
ĠUtil s
all back
neu tron
Do es
Ġaudi ence
Ġs ampler
ĠV illa
() ">
f ew
s ures
| <\
Ġass ist
Ġsh a
CON NE
Ġre po
mp l
32 4
Ġmus icians
S and
in sky
gra ding
Ġdef late
Ġcre w
d ummy
ĠAct ually
Inv ocation
EN C
) [\
in corpor
Ġincrement al
Ġiter ates
dia grams
F lo
f requ
f abric
Ġal beit
-------- -
Ġfund s
ĠT ech
sour i
ĠBH s
est ors
su it
Ġhoriz ons
Ġquasi particle
ĠURL s
ĠÂ £
Ġret ro
an sion
NU MBER
E H
ĠTh anks
Ġ ĉĊ
ĠR A
Ġtime like
GR ect
? </
ĠC orn
}[ ]
Inter estingly
dep loy
Ġalter ed
\ {-
User name
Ġo ps
ĠSp in
v js
_{ >
}) /\
Ġed iting
Ġgu est
Re moved
Ġsupp lement
ADD ING
Ġclear Timeout
Ġimpos es
ed ral
w ig
lu a
ud ge
IEEE eqnarray
char ges
24 9
F requency
Ġf at
de co
my vec
|}{ }
UL AR
Ġp name
Ġs aving
si o
Ġ' .'
emp irical
Ġd d
key down
J J
s till
th ew
un expected
unic ode
Ġf astest
ass ignment
ĠBis hop
19 16
ĠTr igger
Ġconduct ing
j unction
top es
| |^
$\ {\
Ex isting
Ġclassif ying
ĉĉĉ Ġ
40 8
_{- }
Ġbre vity
ĠA GB
ÃŃ a
Ġdiscrimin ative
ys cale
Ġvola tile
C op
Ġresource GroupName
ĠJus tice
v on
S trip
] ])
ĠIndic ates
p ane
Ġdisc ard
tal ion
ĠIP v
è ®
bre w
Ġsuccess or
A rt
Pri or
Enumer ator
Deep Copy
ĠMin nesota
Dete ction
R oman
ç »
Ġwork load
con str
Ġconver ting
Upd ates
el come
_ *}
25 8
local s
ĠSp itzer
wild fly
coun ted
Ġcentral ized
Cor r
local ization
ĠSte in
B Z
ĠP ART
tw ist
Ġcompris ing
ĠZ ariski
ĠL DA
may be
Ġsen si
S r
\ ;\;
ad missible
en hanced
ĠSp lit
Ġemphas is
ĠApp end
Ġvisual ize
ĠKe ep
tis tic
cluster ing
Rece iver
ambig uation
ip olar
BE GIN
}} })
ĠN ations
Command s
J e
ĠA ws
85 9
inher its
ess ment
ĠAr thur
ĠN an
; ][]{
ĠW all
}( |
Ob viously
ut enant
Capa bility
{ <
Ġk ube
J O
}' }
Place holder
Ġv ib
$$ (
X u
; |&
Auth entic
sk ii
Instance Of
}$ /
Ġre dis
ĠM echan
ĠExp licit
ð Ł
J et
ĠN az
Ġk ilo
g lass
Ġion izing
="# ">
ĠPre dic
/ %
cept ual
Ġcheck er
REG IST
C ycle
P ick
Ġp kg
ĠBe gin
tribut ing
Ġindistinguish able
E ast
ĠR evolution
Ġtr ig
25 00
lin ing
Ġer up
Ġin i
Ġcon test
ro uting
[ <
Ġeffici encies
test case
Is Null
Ġciti zens
Ð½ Ð¾
p to
Ġ till
Ġmat ters
EN S
Ġbig gest
PE G
ĠP od
Ġpre sid
Pro jects
result ing
Dev ices
de ferred
AC CESS
ĠSup reme
' }_{
Ġsoldi ers
ĠL am
def s
D ra
ĠT u
Ġprac tices
Z h
w g
ĠB ranch
put y
ĠK ronecker
see k
Ġwave guide
ti um
dete ctor
keep aspectratio
) }},
Ġm it
ĠA BC
Sh ard
Dis pose
Ġwon der
ĠW ild
å® ļ
L aw
Ġp b
Ġ} =\
ut z
ĠAtlan tic
f link
Ġpe ers
re try
ĠCollection s
D NS
0 70
19 04
wo o
app lications
ĠV el
}' _{
rac tible
ĠL ewis
FFFF FF
B re
ĠR PC
ĠMor se
kine tic
z an
")) );
ĠC AP
acc re
)) }{
D ensity
Ġ[ ])
comple ted
qu ette
; -
th i
Ġde uter
Property Name
ĠA bout
Comp act
Ch andra
Ġpointer s
Cla ssification
w estern
Al ternatively
arc ia
in el
end ant
7 20
R b
Ġlo s
serv let
h ub
pa ired
ub ov
ĠX XX
m holtz
35 5
P f
Ġc ave
ha w
fill ing
Recur sive
Ġ& {\
Ġre pair
ĠW a
sever al
Ġphon ons
Ġrev olution
Ġ ~~~~
ĠF ed
Ġsp ort
28 6
w or
CON F
"] :
ĠPol ice
ĠN ov
ber ry
19 23
Ġpr imal
V IS
Ġsimula ting
ok a
adi abatic
Ġdefe at
Alloc ator
H over
ĠS equence
Ġmag non
Ġlook ed
cal ibration
is en
um bs
ĠW alk
ĠN orm
Ġcol lapsed
ãĤ Ĵ
Ġantifer romagnetic
g mail
til s
Re po
Ġneglect ing
ĠSol id
cub ic
ĠA venue
ĠSum mary
Appro xi
Ġdeb ate
Ġstar burst
re strial
ak u
subset neq
Ġconstrain ing
on z
ĠS Q
Ġposition al
Track ing
Pa per
AAAA AAAA
Ġtr usted
lexi ve
e om
typ ical
Loc ator
st rength
tr ust
ĠF ake
trins ically
Ġgrav iton
at on
ĠM icro
Ġrepul sion
Ġarc sec
ĠN LP
ĠS TD
ga uss
] <
un if
ĠN amespace
ĠD ist
Ġf urn
Ġco cycle
Ġmod alities
" ):
OT TOM
Ġ }$,
SD SS
Ġdir ty
|\ ,\
ĠPU BLIC
U IT
pp i
ĠB reak
Pr ice
Ġmotiv ates
G auss
P NG
ĠB road
Ġres olving
cre ation
-------- ---
Ch an
f ish
igu ing
ĠL java
Ġdisc ip
]^- {\
Ġmesh es
Ġconver ter
Ġmathe matically
ro matic
ĠS till
Co in
ĠG S
ter a
Ð ³
ĠW inter
ĠA ge
Ġcombin ator
dim s
ĠD AG
tis ation
O lymp
Ġtrans versal
ĠE R
Ġasymme tries
quar ter
29 6
Ġcar riers
Ġh ub
}} }_{\
Ġstring ent
60 6
ĠPO ST
Ġflav ors
ĠA zure
co efficient
unit length
th y
ST ORE
="../../../../../../ ../
n oc
Ġcollision al
}$ --
comb o
SPE C
End For
Ġquo tients
b C
ĠA rc
PhysRev Lett
ĠC U
ĠDe pending
k ms
H at
Ra ises
Ġad vice
ED IT
Tick s
P ADDING
Per f
ĠAir port
4 68
di pole
Ġserial izer
Ġgradu ated
ri k
Ġoptim isation
ho ps
eps fbox
End points
ĠTor onto
ĠAl loc
44 3
ĠLegend re
Ġt au
Ġdate time
0 34
Ġr ugby
Ġe jected
ĠL ocation
Incre ment
Ġlead ership
Ġground s
I de
Ġ( <
)} [
25 2
ens on
under standing
Ġm ort
Ġreach able
ĠTrans action
ran ging
C ra
L ik
ĠL yn
next Sibling
( #
Ġe lu
ĠS cale
ad ditive
ĠNor way
Ġ` <
loy d
ĠERR OR
sh im
Ġcar ds
fi ber
o on
lu sters
ch ev
Ġvio lations
b S
is Defined
Ġindu c
current Time
pan cies
T ARGET
W M
comp uting
au tiful
ĠSw itch
T Y
h rule
princip al
Ġdro pping
Ġsui tably
Py thon
ĠCoun try
ĠD istance
chain s
B rand
j peg
z f
Ġrigid ity
attach ment
son ic
rece iver
W ild
Ġon t
Ġhead ing
m ons
ĠR est
19 21
16 00
Po sitive
embed ded
Ġp iano
circ led
ĠQue ens
deter mine
ab cd
),\ ,
ĠCor ps
ĠSpec ifies
st mt
ĠR ank
Ġ' );
by e
b age
olog ists
Ġdesc ending
Ġbi jective
ĠG M
=\ ,\
ĠP it
A ctor
Ġrecon c
Ġc avi
over y
orph ism
u is
Ġ/// <
PL IED
LE AN
Ġe asing
ĠLe on
Ġsetup s
Ġ$ =
Ġent rance
U ses
imp act
ĠD imension
Ġdro pout
Ġe motion
Ġtheore tic
V a
Ġt ach
ph ic
ĠAnd re
Ġst one
Ġ[ `
fill Color
29 7
config urations
ĠEV ENT
Ġconflic ts
Ġd ance
Ġ{ [
__ _
Ġscienti sts
\ .
del l
Ġ. /
(' -
ĠNone theless
page X
Ġaltern atively
impro ve
ĠWe ak
)| =
Ġref id
> ";
Ġgen es
Media Element
Ġs lab
it ored
}{ }^{
ĠEn um
Ġrepe ating
ĠPhi ladelphia
ĉĉĉĉĉĉĉĉ ĉĉĉĉ
Ġ\,\ ,\,
2 99
Ġf ell
^ !
ism ic
^- _{
Ġprob ing
Other wise
Jaco bi
er on
im odal
)) +
DE SC
Ġt sd
ready State
20 23
d T
lin ic
ĠRe pe
ĠS MBH
des h
Ġscal ability
Json Property
ĠAR M
Comp ared
allow break
Y es
m ir
}} </
ĠValue Error
geb roid
s frac
Ġquench ing
De ferred
unit Pattern
B lo
ĠR an
havi our
expression s
ON LY
ĠAnd rew
) >\
Ġb ed
umin ate
em itter
mouse down
ĠMed al
ĠS n
ĠR ather
! "
Ġin evi
ĠMo on
tab il
central ized
I FI
ss f
s aved
Ġbar riers
ĠTrans fer
"> (
Ġ) =
cm ark
Ġcrow d
ĠAdmin istration
ad get
ĠE ric
Tr im
ĠHT MLElement
Ġo cean
Te am
in struction
Ġevent Name
ĠColor ado
Ġ& $-$
Ġun def
TableRow Color
read able
Binary Tree
ĠN avier
und o
wal let
App lications
26 7
Ġparticip ation
ĠSt one
ar on
Ġpolaris ation
Ġan imal
Inf of
ĠE U
28 7
In gress
Ġprocess ors
til ing
mo lecular
ĠCONTR ACT
un da
O uter
Vel ocity
int on
ome d
Ġempha sized
ag ues
stab il
Ġ }$.
^{ }_{
ordin ary
ĠGPU s
ĠMus lim
im mediate
Ġdown ward
r ub
_{\ {\
abs or
Ġcommit tee
= +
ĠH i
Ġup ward
T ol
co inc
ĠD WORD
N ER
Y u
ĠW ol
ĠCo oper
ific ant
owner Document
de an
Input s
Ġnode Name
< >
> {\
Ġfile Name
ĠPh ot
rome ter
ĠNumer ical
t une
Cr ypto
ĠR ound
SV M
left margin
="# "
bet ter
Ġ: =\
posi ted
GC N
ĠPri or
util ity
ĠB UT
Mo tion
Ġbin dings
ĠDete ction
ma pper
Ġpre mi
^- $,
reson ance
y ield
Ġi OS
ĠN ag
ĠMed ical
ĠLik ewise
L am
| ~
Ġtermin ated
Ġborder s
View er
flow s
Q UE
A mb
P ub
adj ac
L ittle
Vertex Attrib
Ġvacu a
ĠAss umptions
ct ing
19 07
ĠC lean
Ġimp urities
30 8
Ġeigen function
ĠLIMIT ED
N eeded
Ġdiver ge
H on
W Z
comple ment
Oracle Client
Ġste m
ĠQ D
Serial izable
serial izer
D AR
ide finite
class name
Ġneu ro
}^* _
Sch midt
ĠExec ute
at an
ste l
br is
Content Type
spec tives
Ġselect ors
Ð» Ð¸
Ġsc ulpt
Ġevapor ation
ĠMoun tain
Ġcontinu ing
D V
Ġ`` $\
enn y
i ph
Ġre cr
Get String
Ġnecess ity
Ext ent
tri bs
Ġmin ority
bo s
Re presentation
Ġmis s
Conn ected
J NI
}] _{
Ġhyper fine
Ġtranslation al
$\ \\
Spec tral
Ġrest oration
}_+ $
ĠFellow ship
m ig
Ġnormal isation
Ġvio late
z s
gra des
Ġstand ardi
$ }}}
Fem to
Ġal titude
F lash
ir reducible
Ġr ural
Ġsu ble
VAR I
co mo
direct ly
in ski
Plain Object
s ce
Ġes tate
stead y
Wal ker
Ġafter wards
Ġnotice able
4 60
Ġsub mission
ĠA G
ne arest
tex theight
Ġinf low
Star ted
sc ence
24 2
om y
tes ted
ti que
per mission
Equ ations
fa ction
ign ite
ex ceptions
anni hi
F ront
ich i
Ġc ry
ĠF ano
ator ies
ni o
soft ware
Ġco q
\, =\,
O h
teen th
ho les
], [
lar ing
elec trons
ops is
Ġcompan ions
ĠEliz abeth
ĠL angevin
or bits
pa rents
(' _
hi bi
ĠPrem ier
S ci
Ass umption
meter y
Ġsta gger
ro ve
ĠK u
combin ation
tod ay
ĠDet ermine
o ck
Ġ' *
touch es
Ï ĥ
ĠK ur
resource GroupName
d war
} *
ĠA LP
ĠR MSE
B ubble
M K
ĠM ER
Ġheuristic s
meas urable
ĠTyp ically
&& +
H s
}} '
Con ditions
Ġste ms
custom er
24 1
Ġmultiplic ities
ĠD OS
ĉĉĉ ĠĠĠ
Ġrever sible
arx iv
us a
ĠR and
Ġenumer ate
ĠCOP Y
Ġorig ins
Ġinterpre tations
regular ity
tri ple
register ed
asser stein
ĠGe ometry
or ters
Ġ"/ "
tim ing
ors es
b H
ga ard
: _
out ube
Ġman agers
sp l
ĠÐ ±
Ġin active
Ġy ielded
incre ase
ĠP latform
int ensity
Ġcommit ted
ĠExperim ental
T ip
\}. $$
Il legal
Ġ" &
ic ed
ĠĠĠĠĠĠĠĠĠĠĠĠĠĠĠĠĠĠĠĠĠĠĠĠĠĠĠĠĠĠĠĠ ĠĠĠĠĠĠĠĠĠĠĠĠĠĠĠĠĠ
Ġobserv es
At Index
Ġth r
Ġend omorphism
ĠBe ach
S z
Y PT
Ġco hom
L inux
Ġb ran
Ġhar m
Ġcompris ed
f y
ĠH adamard
D IV
Ġw ides
acc eler
Rep lication
Ġsec ular
i pping
19 11
TH READ
Debug ger
el m
4 64
OM A
sub group
ĠGra dient
Ġoverla ps
V oid
we alth
S CH
V L
as ym
ĠS quad
S parse
ID ENT
0 21
D etermin
His togram
ĠAstr onomy
g ive
ĠL ength
rr r
reat ment
P ause
Ġapp ended
De ath
ĠC over
ĠM ol
Ġhouse hold
regex p
return Value
Imp licit
Ġdrop let
ĠU pd
Watch er
){ };
ĠBro ok
ĠTown ship
Ġappro ved
No tify
Inter faces
triangle left
] ],
Ġste el
d it
Ġdevi ate
Redu ce
9 90
Ġn ic
19 13
Ġblock ed
F lat
ĠRes erved
Ed m
ĠK r
t one
se ven
Ġco gnitive
ĠF O
ĠSte ve
Ġ} _{\
ĠD rop
ĠE nt
out side
Ġback ing
llig ent
Ġdisapp ears
Ġpar ish
Ġtensor flow
open ssl
Ret ri
ennes see
L ANG
Ġt ar
Ġexec utor
Ġmargin ally
ĠD ri
Cat alog
Ġw id
ĠT ak
Ġconv olutions
Qu eries
reg on
H il
pp y
sp y
ĠR ect
zz le
Ġpro pagated
Ġp ictures
Ġshort cut
exact ly
as set
Ġ- .
Ġconver ged
Ġtw elve
ST EM
Ġtor i
Ġzero th
Ġcluster ed
Ġpers ist
å ľ
ĠF ail
Long leftrightarrow
Observ ations
A rm
P lus
\\ &\
comp osite
Le gacy
er tions
ĠIn ner
Ġpredic ates
M X
Ġdis tricts
comp iled
Ġreprodu cing
Ġs now
ĠF lag
pro gressive
Ð¾ ÑĤ
ĠAuth ors
g lo
w so
Ġcomp ose
PO SE
ĠIn fo
Res tric
ee ee
ĠBr illouin
Dav id
Ġa val
Ġs ine
ul sion
Ġmod ifier
Sc enario
irr ors
NE SS
U uid
Ġsp rintf
auth entic
Sw ift
Ġtit led
Ġpe ace
Ġimp ed
? )
35 7
Rect angle
DEF INE
b road
ĠA thle
C AT
auth ors
select font
Â °
mon y
Ġt ubes
read cr
diver gence
Ġins ulator
WIT H
d ns
ke eper
Ġf b
Ġ Ø
ĠComp uter
Ġdifferenti ate
roll ing
se gments
ĠT ar
comp at
Ġcompe te
Ġcipher text
ASC II
ĠE mbed
T ITLE
z u
Ġ{ })
ĠV EV
Ġex pose
date Format
Ġl inguistic
ĠN ak
Un ion
ĠNe u
Ġhospit ality
29 3
clean up
C nt
Ġinclu sions
Ġdis advan
Ġlist ening
ĠB D
os z
25 9
æ Ĺ
om ers
74 21
Ð°Ð º
Ġspeak ers
Ġac id
ĠIndi ana
/ -
m cal
Ġposition ed
gate way
ĠP or
40 3
K lein
ĠE ither
ĠW o
Ġchir ality
ĠS IGN
Ġpseud oscalar
po i
le ads
Pre cision
Ġmedal ists
Land au
Ġspac ecraft
Ġc ata
dir s
Ġincomp ressible
ĠPro vides
0 48
Acc uracy
ĠP ay
Ex pec
Ġmod ulated
Ġh ints
ĠLink ed
Ġv a
Ġres olver
l ra
es c
ĠTr ust
Rep licas
Depend encies
å ¼
si des
rac es
text Content
get Parent
18 43
ĠGold en
ĠGLE W
Ġinterfer ometer
Ġra tings
C am
Ġm ess
ere z
ĠH ER
Ġsubsection s
Ġadjust ing
ec on
}(\ {
Ġtra verse
posed ness
J ones
Ġ }}{
Ġface ts
ĠI Enumerable
} >\
ĠP AH
ĠL ady
iv ely
Ġpre trained
Ġnow rap
Ġpublish er
ugu ese
Ġoption ally
seman tic
lat tices
og enerated
CA ST
style sheets
Ġhash Code
{ }{\
}} /\
sh ader
Ġorigin ated
U INT
page Y
}| |
jo hn
Out line
Ġparton s
im mer
Gener ation
Ġautoma ta
Ġs ym
ĠG UT
pro be
Ġres taur
Ġpurch ase
0 36
An c
C fg
}} ~
W rit
\ }_
si bling
ono i
Ġpump ing
To Array
http Request
vi ations
Ġ@ }
Ġaccompan ying
ragged right
lin ders
en kins
Ġthe ad
EN SION
Ġchain ing
here after
> ${
ĠS PE
ĠH aving
32 8
inver ted
] $-
g antt
m w
ĠM art
Ġlear ner
27 7
ĠSupp lementary
ĠMan ager
adv ance
ĠW atch
Ġcondu ctor
\\ [-
)) :
R CC
qu is
CA SE
comb ine
\\ &
ne e
acc ordion
h orn
de e
Ġu id
AV A
B ER
co prod
Ġk o
n ick
end region
Ch ap
ĠAn th
ch t
ĠRec ur
tablenote mark
Ġasc ending
Ġgui ded
Ġurl s
ĠOt to
ĠH ay
ĠEx press
Ad ding
Ġhol onomy
hl js
Ġf ic
In verse
ĠL az
itzer land
cri ptions
y ears
{ =
ĠC DM
50 1
get File
Ġcon d
urn ame
Ġutil ization
fluct uations
at ron
ĠS kip
ĠA DD
om on
ĠA gg
Pay ment
Ġde position
ĠIR AS
al ter
ĠE FT
ĠF u
Ġsp rite
Ġf l
T ON
ĠIn stit
sub module
ĠQ R
\; ,
}_{ {
Ġped estri
)) ^{-
mit t
}} )=
ĠR ES
con tain
ik a
500 000
Ġphenomen ology
Ġdisturb ance
ren d
Ġad vent
OD Y
{} ],
tick y
h base
Ġpre decess
Ġapproxi mates
. ]{
Ġh all
] -\
S orted
33 7
Ġsupercon ductor
cred entials
ĠDetermin es
Ġover fitting
27 3
Ï ģ
AM D
Ġpro c
27 9
respon d
F re
op ens
ba um
scroll Left
Conf lict
af ka
rest ling
: **
P Z
ch rom
Ġpro motion
new s
ĠAr rays
wik ipedia
ĠB erry
ap ing
Ġ ../
L ex
^* }$
MO VE
track s
black square
Ġremark ably
ĠPre vious
ĠHigh way
Ġcatalog s
color ing
re versal
ili ation
id able
ĠS eq
AT T
Ġele ms
gol ang
ch ors
build Agent
ont ally
AC L
pos itories
Ġhard ly
ĠUs age
Ġdistinguish ing
Ġsuperconduct ors
Ġw inter
Ġbe ar
S emantic
tig uous
range ment
Gra d
j n
conf irm
P ID
Ġe ine
Ġcol li
Ġpres umably
sk etch
re pr
[...]
